<unk>	0
<s>	0
</s>	0
▁के	-3.66265
▁में	-3.91286
।	-4.10073
▁की	-4.13227
▁।	-4.17358
▁है	-4.21997
▁को	-4.37102
▁ा	-4.4106
▁ने	-4.41295
▁से	-4.42183
▁,	-4.42403
▁ी	-4.55645
▁प	-4.64487
▁का	-4.72801
▁म	-4.79969
▁और	-4.80318
▁स	-4.80924
▁पर	-4.84151
▁क	-4.87651
▁र	-5.051
▁कि	-5.08256
▁ों	-5.12523
▁ब	-5.14515
▁कर	-5.19392
▁व	-5.24903
▁अ	-5.27218
▁हैं	-5.27776
▁न	-5.27972
▁भी	-5.39137
▁-	-5.45418
▁ल	-5.49991
▁2	-5.52829
▁इस	-5.54778
▁े	-5.59067
▁किया	-5.60361
▁एक	-5.64026
▁लिए	-5.64781
▁0	-5.65729
▁ज	-5.66411
▁आ	-5.67493
▁गया	-5.70365
▁प्र	-5.71855
▁नहीं	-5.78711
▁था	-5.80853
▁1	-5.91691
▁हो	-5.92892
र	-5.93782
,	-5.94233
▁ही	-5.94697
▁बाद	-5.95938
▁जा	-5.97215
ा	-5.98396
▁ग	-6.01389
▁.	-6.01398
▁श	-6.03392
▁त	-6.05895
▁साथ	-6.0671
▁पुलिस	-6.105
▁ह	-6.13886
▁कहा	-6.14347
▁गई	-6.14979
▁भ	-6.17093
े	-6.17627
▁करने	-6.17858
▁उन्ह	-6.19678
▁द	-6.23205
▁फ	-6.23817
▁दिया	-6.24327
ल	-6.25863
▁	-6.26622
▁तो	-6.3215
▁थी	-6.32585
▁रहे	-6.33519
म	-6.35519
▁तक	-6.36009
▁रहा	-6.36396
▁बताया	-6.36637
▁ट	-6.36867
ने	-6.38078
▁यह	-6.40845
▁हुए	-6.41192
▁च	-6.42238
▁4	-6.44394
न	-6.45086
▁ियों	-6.46259
▁5	-6.46556
▁रही	-6.47464
▁थे	-6.47911
▁सिंह	-6.49643
▁3	-6.50114
ट	-6.52167
▁ड	-6.5269
▁दी	-6.54428
▁ोंने	-6.56114
▁राज	-6.5747
▁ें	-6.58692
▁गए	-6.60297
▁(	-6.61871
▁:	-6.62246
▁सं	-6.63348
▁मु	-6.64268
▁)	-6.64809
ी	-6.64822
▁सु	-6.65429
▁पहुंच	-6.67214
▁लेकर	-6.67938
▁पहले	-6.68419
▁इसके	-6.70315
▁लोगों	-6.72889
▁उ	-6.74114
▁अपने	-6.74174
▁9	-6.75382
▁ख	-6.7545
▁ित	-6.75713
.	-6.77924
▁हुई	-6.78583
क	-6.80419
▁लेकिन	-6.80945
▁ओं	-6.81299
▁रि	-6.81445
▁ंत्री	-6.81931
▁'	-6.84703
▁ि	-6.84829
▁जब	-6.85143
▁ता	-6.86485
▁दिन	-6.8696
▁कार्	-6.8734
▁िंग	-6.87719
▁इ	-6.88356
▁होने	-6.89525
्	-6.8965
ों	-6.90091
▁वाले	-6.90157
प	-6.90675
▁वह	-6.9076
▁अध	-6.91565
▁वि	-6.92055
▁दौरान	-6.92706
▁6	-6.92942
▁साल	-6.93224
▁क्ष	-6.93938
▁निर्	-6.9452
ि	-6.94531
त	-6.94873
▁्स	-6.95258
▁हुआ	-6.95699
▁8	-6.97469
▁स्	-6.97697
▁कुमार	-6.97821
▁जो	-6.97881
▁7	-6.9819
▁दो	-6.98341
▁देश	-6.9893
▁अब	-6.99478
▁बार	-6.99529
▁प्रति	-7.00059
▁िक	-7.01504
▁चुनाव	-7.02568
▁सरकार	-7.02735
स	-7.03222
▁इन	-7.03437
▁पुर	-7.03581
▁"	-7.03602
▁करते	-7.04702
▁घर	-7.04784
▁ेत्र	-7.05058
▁ये	-7.05797
▁ना	-7.06127
▁ान	-7.06593
▁राम	-7.0996
▁महिला	-7.1035
▁कार्य	-7.11221
▁ो	-7.11264
▁सभी	-7.11403
ांग्	-7.1178
▁कुछ	-7.1186
▁लिया	-7.11985
▁हर	-7.12269
▁वार	-7.13594
▁पास	-7.14853
▁कई	-7.14972
▁रेस	-7.15153
▁काम	-7.1551
▁नगर	-7.16206
▁ू	-7.17519
▁ड़	-7.17949
▁टीम	-7.18302
▁गांव	-7.18581
▁थाना	-7.18608
▁भारत	-7.19171
▁द्वार	-7.20025
▁डॉ	-7.20362
▁उनके	-7.2378
▁कम	-7.2478
▁बात	-7.24871
▁मामले	-7.24928
ं	-7.25029
▁नि	-7.25126
▁घटना	-7.25209
▁कोई	-7.25889
▁ालय	-7.27011
▁ाल	-7.27335
▁लोग	-7.27698
▁ए	-7.28141
▁आई	-7.28177
▁चल	-7.28554
▁समय	-7.28725
▁आरोप	-7.2932
▁अपनी	-7.29988
▁नाम	-7.30622
▁रूप	-7.31067
▁शुरू	-7.31196
▁बन	-7.31693
▁वहीं	-7.32239
▁्यक्ष	-7.32332
▁उस	-7.32647
▁दर्ज	-7.33164
▁्रदेश	-7.33762
▁बढ़	-7.33967
▁यहां	-7.34221
▁दोनों	-7.34346
व	-7.34506
▁पी	-7.34612
▁झ	-7.3468
ज	-7.35935
▁जिला	-7.37135
▁बजे	-7.37556
▁ेंद्र	-7.3759
▁कार	-7.37784
▁रुपए	-7.38194
▁सा	-7.38356
▁या	-7.38561
▁मिल	-7.39636
▁जांच	-7.3968
▁वे	-7.40092
▁किसी	-7.41331
▁ई	-7.41773
▁तरह	-7.4212
▁विभाग	-7.42349
▁पूर्व	-7.42849
▁जी	-7.43125
▁आरोपी	-7.43646
▁ध	-7.44067
▁उसके	-7.44461
▁एस	-7.44825
▁बीच	-7.44948
▁नकारी	-7.45167
▁आज	-7.45403
▁ग्राम	-7.47644
▁्य	-7.48853
▁शामिल	-7.4915
▁तार	-7.49817
▁ाई	-7.50385
▁एवं	-7.50892
▁ते	-7.51063
▁िकारी	-7.51133
▁यों	-7.51258
▁छ	-7.5217
▁रात	-7.52285
▁ेंगे	-7.52286
▁राज्य	-7.52481
▁सी	-7.52667
▁भाजपा	-7.52697
▁थ	-7.52725
▁जारी	-7.53489
▁फिर	-7.53524
▁बना	-7.53695
▁होगा	-7.53943
▁मैं	-7.53949
▁अस्पत	-7.53978
▁जाएगा	-7.54353
▁किए	-7.55564
▁जाने	-7.56136
▁य	-7.56215
▁जीत	-7.56529
▁उसे	-7.56681
▁करीब	-7.57285
▁खिलाफ	-7.57426
▁कारण	-7.57572
▁लाख	-7.58091
▁जिले	-7.58357
▁ार्टी	-7.58395
▁अन्य	-7.59103
▁‍	-7.59392
▁ले	-7.60621
▁महा	-7.61194
▁लग	-7.62049
▁कु	-7.6278
▁उनकी	-7.62866
▁सभा	-7.63384
▁रिवार	-7.63478
▁ज्याद	-7.63705
▁कै	-7.63934
▁हम	-7.63989
▁ारी	-7.64068
▁ाने	-7.64578
▁युवक	-7.6464
▁वाली	-7.65156
▁फिल्म	-7.65687
द	-7.65779
▁मंदिर	-7.66123
▁मौके	-7.66276
▁ीय	-7.66463
▁गिरफ्	-7.66611
क्	-7.66638
▁तीन	-7.66771
▁श्री	-7.66859
▁निवास	-7.66932
▁छात्र	-7.67269
▁रवाई	-7.67334
▁करना	-7.67377
▁जाता	-7.67788
▁शहर	-7.6798
▁सामने	-7.68105
▁एम	-7.68226
▁यक्रम	-7.68255
▁मौत	-7.68456
▁टी	-7.68522
▁ओर	-7.68582
▁लाल	-7.7002
▁सुबह	-7.70501
▁एं	-7.71112
▁10	-7.71581
▁कोर्ट	-7.71609
▁ति	-7.71803
▁़	-7.72077
ग	-7.72872
▁वो	-7.73052
▁मांग	-7.7368
ती	-7.73756
▁ेंट	-7.73961
से	-7.74127
▁क्या	-7.74601
▁सबसे	-7.7464
▁दे	-7.75213
▁देने	-7.75234
▁सूचना	-7.77368
▁हजार	-7.77698
▁अलग	-7.78106
▁करोड़	-7.7829
▁अधिक	-7.7845
▁पानी	-7.78608
▁एन	-7.78681
ु	-7.78693
▁जहां	-7.78841
▁यादव	-7.78878
▁देव	-7.79054
▁ओ	-7.79371
▁इसी	-7.80723
▁पु	-7.81241
▁क्	-7.81308
▁रह	-7.81381
▁बारिश	-7.81585
▁ाया	-7.81748
▁ऐसे	-7.82142
▁दर्शन	-7.82159
▁राष्	-7.82389
▁घ	-7.82915
▁स्व	-7.831
▁दिए	-7.83183
▁मिली	-7.83717
▁स्कूल	-7.84705
▁धिकार	-7.84941
▁होगी	-7.8502
कि	-7.85072
▁नुसार	-7.85231
▁िसमें	-7.85486
▁आने	-7.86047
▁इसमें	-7.86186
▁उप	-7.86364
▁देख	-7.86682
▁िकायत	-7.8711
ीक्ष	-7.87112
▁पोर्ट	-7.87417
▁तैयार	-7.87809
▁ोदी	-7.88185
▁बाहर	-7.88636
▁जन	-7.88879
▁दिल्	-7.8893
िद्य	-7.89038
▁सि	-7.89343
▁ती	-7.8935
▁्	-7.8943
▁ारतीय	-7.89474
▁मान	-7.89732
▁िया	-7.90148
▁आया	-7.90277
▁आए	-7.90403
▁आप	-7.90718
▁नेता	-7.90744
▁डी	-7.90797
▁भर	-7.91052
▁शव	-7.91208
▁रेल	-7.9138
▁रहने	-7.91406
▁शासन	-7.91976
▁लगा	-7.92054
▁शर्मा	-7.9213
▁गुरु	-7.92375
▁स्थान	-7.9238
▁ु	-7.92488
▁मुख्य	-7.92527
▁रक्षा	-7.92685
▁ली	-7.92821
▁यात्	-7.93056
▁योजना	-7.93233
▁बता	-7.93437
▁सकता	-7.93471
▁कुल	-7.93552
▁नी	-7.93865
▁टर	-7.94065
▁चाहिए	-7.94417
▁स्ट	-7.94564
ोकसभ	-7.9499
▁खेल	-7.95719
▁गु	-7.95763
▁वहां	-7.96329
▁ऑ	-7.96376
▁स्थित	-7.96551
ध	-7.96632
▁हत्या	-7.96999
▁पूरी	-7.97005
▁भाग	-7.97094
▁किसान	-7.98072
▁पिछले	-7.9853
▁पिता	-7.98539
▁बंद	-7.98592
▁मामला	-7.98622
▁नीति	-7.98883
▁सड़क	-7.99778
▁उसकी	-7.99806
▁?	-8.0009
▁अनु	-8.00767
▁क्टर	-8.01154
▁यू	-8.01275
▁व्यव	-8.01453
▁ण	-8.01806
▁पति	-8.01975
▁िधायक	-8.02157
▁ियां	-8.0227
▁गढ़	-8.02479
▁पड़	-8.03265
▁चार	-8.03537
ुख्य	-8.03903
▁आगे	-8.04366
▁काफी	-8.04394
▁बड़ी	-8.04751
▁्र	-8.05141
▁शाम	-8.05142
लेक्	-8.05145
▁ंद्र	-8.05426
▁रन	-8.05887
▁रा	-8.0592
▁प्रो	-8.06033
▁सहित	-8.06115
कर	-8.06146
▁समाज	-8.06969
▁विकास	-8.07029
▁जाएगी	-8.07183
▁घायल	-8.07437
▁आर	-8.07563
▁विधा	-8.07622
▁रोड	-8.0769
▁बहुत	-8.07806
▁मां	-8.08249
▁शिव	-8.08278
▁बी	-8.08744
▁बैठक	-8.092
ह	-8.09316
▁अभी	-8.09438
▁तब	-8.0958
▁ीडियो	-8.09746
▁सदस्य	-8.09891
▁िल	-8.09901
▁व्यक्	-8.10009
▁ं	-8.10088
▁निकल	-8.10178
▁पा	-8.10181
▁मह	-8.10182
▁परिजन	-8.10188
▁एक्स	-8.10838
▁मेर	-8.11089
▁होता	-8.11182
▁मौजूद	-8.12039
▁तहत	-8.12324
▁च्चों	-8.12757
▁दूसरे	-8.12811
▁बाइक	-8.12811
▁लोक	-8.13045
में	-8.13239
▁अलाव	-8.13298
▁मे	-8.1374
▁ेगा	-8.13934
▁अपना	-8.14646
▁आग	-8.14803
▁जिसक	-8.14886
▁ीडिया	-8.14927
▁पत्नी	-8.14995
▁सकते	-8.15057
▁बारे	-8.15124
▁मिला	-8.15244
▁करें	-8.15329
▁उनका	-8.15646
▁अगर	-8.15694
▁गिर	-8.15861
▁ठ	-8.16201
▁पद	-8.16224
आ	-8.16454
▁मंगल	-8.16786
▁हाला	-8.16896
▁पाल	-8.17239
▁ंख्या	-8.17285
▁ाना	-8.17418
▁ढ	-8.17806
▁पता	-8.18052
च	-8.18579
▁कंपनी	-8.18992
▁दिख	-8.1924
▁कहना	-8.19316
▁ाकर	-8.1939
▁री	-8.19548
▁सीट	-8.19738
▁वजह	-8.20067
▁स्था	-8.20346
▁तेज	-8.20758
▁शादी	-8.20769
▁ज़	-8.22072
▁खान	-8.22081
▁हाथ	-8.22452
▁योग	-8.22494
▁वर्ष	-8.22708
▁दिनों	-8.22762
▁माण	-8.22842
▁युक्त	-8.23041
▁्रभ	-8.23336
▁इसे	-8.23682
▁जैसे	-8.23696
▁्रीय	-8.23767
▁करता	-8.23797
▁नजर	-8.24043
▁पूरा	-8.24147
▁आयोजन	-8.24623
▁तरफ	-8.24666
▁बिहार	-8.24809
▁निका	-8.24911
▁लि	-8.24931
▁भाई	-8.25064
▁सेवा	-8.25073
▁ताबिक	-8.25154
▁वा	-8.2529
▁सम	-8.25382
▁हार	-8.25497
▁ढ़	-8.25555
▁ार	-8.25681
▁पकड़	-8.25814
▁ट्रेन	-8.25914
▁संभ	-8.25959
▁दुकान	-8.25993
▁सवाल	-8.26081
▁होती	-8.26105
▁बल	-8.26399
▁वाला	-8.26507
▁जगह	-8.26525
▁महीने	-8.26636
▁हमार	-8.26679
ख	-8.27059
▁ीन	-8.27639
▁श्र	-8.27928
▁घंटे	-8.28172
▁ऐसा	-8.28284
▁ियाणा	-8.28285
▁सो	-8.28338
▁हाल	-8.28459
▁ीजेपी	-8.28638
▁स्प	-8.28694
▁नंबर	-8.28789
▁विशेष	-8.29231
▁पत्र	-8.29673
▁न्याय	-8.29755
▁जाए	-8.29963
▁ोमवार	-8.30228
▁थाने	-8.3037
▁रण	-8.30774
▁मेंट	-8.30893
▁गातार	-8.31032
▁ॉलेज	-8.31116
▁जून	-8.3151
▁ेगी	-8.31578
▁पूरे	-8.3158
▁जिससे	-8.31604
्ह	-8.32012
▁्थिति	-8.3225
▁स्तान	-8.32381
▁रख	-8.3269
▁सीएम	-8.32805
▁इसकी	-8.33041
▁जिस	-8.33205
▁नई	-8.33247
▁छोड़	-8.33429
▁सांसद	-8.33498
▁लड़क	-8.34015
▁ेशन	-8.34238
▁परि	-8.34443
▁विश्व	-8.34466
▁राय	-8.34482
▁ेट	-8.34994
▁सकती	-8.35031
▁12	-8.35313
▁15	-8.3542
▁लगाया	-8.35494
▁ाबाद	-8.35548
▁पहली	-8.3562
▁फोन	-8.36096
▁िगम	-8.36208
▁मिलने	-8.36421
▁ेर	-8.3672
▁रोक	-8.36923
▁लगे	-8.37088
▁नाथ	-8.37222
▁अंतर	-8.37455
▁बड़े	-8.37487
▁मुझे	-8.37566
▁बस	-8.37617
▁कराया	-8.37672
▁इसका	-8.37691
▁धानम	-8.37757
▁दिल	-8.37876
▁मि	-8.37927
▁गांधी	-8.38013
▁उत्तर	-8.38058
▁शन	-8.38059
▁भगवान	-8.38196
▁एल	-8.38289
▁गंभीर	-8.38404
▁पांच	-8.38449
▁हूं	-8.385
▁एंगे	-8.38623
स्	-8.38656
▁20	-8.38702
▁मन	-8.38877
▁विरोध	-8.38883
▁डिग्र	-8.39057
▁वन	-8.39089
▁कर्ता	-8.39129
▁शुक्	-8.39196
▁ड्	-8.39285
▁आधार	-8.39398
▁वै	-8.39533
▁सचिव	-8.3954
▁ेड	-8.39585
▁मृतक	-8.39632
▁डि	-8.39742
▁ौ	-8.39986
▁समझ	-8.39994
िक	-8.40076
लिए	-8.40121
▁माल	-8.40235
▁मैच	-8.40361
▁देते	-8.40398
▁दीप	-8.40448
▁पंजाब	-8.40823
▁ंड	-8.40997
▁बु	-8.41547
▁चौ	-8.41706
▁जान	-8.419
▁सह	-8.42306
▁शनिवा	-8.4235
▁स्तर	-8.42681
रे	-8.42684
▁लड़	-8.4288
▁भेज	-8.42997
▁योजित	-8.43031
▁पक्ष	-8.43145
▁बनाया	-8.43173
▁मंडल	-8.43294
▁िक्षा	-8.433
विवा	-8.43403
▁बड़ा	-8.43405
▁नए	-8.43443
▁ार्थ	-8.43592
▁इलाज	-8.43715
▁चला	-8.43849
▁जमीन	-8.43902
▁सब	-8.43948
▁केस	-8.43998
▁ुधवार	-8.44036
▁आम	-8.44043
▁ेंस	-8.44123
▁ंत	-8.44293
▁एड	-8.44713
▁संस्	-8.44771
▁जाती	-8.44875
▁रीय	-8.45136
▁वापस	-8.45568
▁उठ	-8.45677
▁शत	-8.45752
▁मी	-8.4593
▁संबंध	-8.46083
▁पूजा	-8.46179
▁पहचान	-8.46417
▁रुपये	-8.46571
▁वाद	-8.46799
▁बैंक	-8.46901
▁अन	-8.46932
▁ाप्त	-8.47028
▁शुरु	-8.47122
▁निर	-8.47723
▁ाते	-8.47852
▁मौसम	-8.47886
▁ब्र	-8.47987
▁वाल	-8.48019
▁ेड़	-8.48022
▁सामान	-8.48141
▁न्द्र	-8.4832
▁मीटर	-8.48333
▁बाजार	-8.48363
▁सम्	-8.48422
▁जेल	-8.48525
▁11	-8.48736
▁धर्म	-8.48846
▁रेशान	-8.48938
▁समेत	-8.49034
▁आदेश	-8.49388
▁दार	-8.49466
▁बिजली	-8.49518
▁डाल	-8.49663
▁ात	-8.4972
▁लगी	-8.49762
▁उसका	-8.49831
▁लाइन	-8.50137
ंक	-8.50202
▁भर्ती	-8.50316
▁बेटे	-8.51007
▁जिन	-8.51045
▁मै	-8.51093
▁रंग	-8.51122
▁वोट	-8.51239
▁समिति	-8.51282
▁होते	-8.51341
▁लेने	-8.51447
▁ंग	-8.51657
▁बि	-8.51773
नी	-8.51843
▁शाह	-8.51922
▁बच्चे	-8.52072
▁राहुल	-8.52187
▁रकारी	-8.52417
▁यन	-8.52621
▁देर	-8.52633
▁बयान	-8.52777
▁रो	-8.53178
▁जुलाई	-8.53231
वे	-8.53453
▁जनता	-8.53564
▁होकर	-8.53591
▁दें	-8.54014
▁भियान	-8.54141
▁बेटी	-8.54309
▁तौर	-8.54478
▁भिन्न	-8.54651
▁पुत्र	-8.54808
▁चलते	-8.55117
▁बदल	-8.55153
▁हाई	-8.55734
▁चोरी	-8.55777
▁गत	-8.55902
▁योंकि	-8.55953
के	-8.55955
▁दान	-8.56023
▁कट	-8.56131
▁खुल	-8.56159
ाइ	-8.56767
▁गंज	-8.56778
▁जवाब	-8.56928
▁रखा	-8.56953
▁चर्चा	-8.56964
▁थीं	-8.5729
▁चुके	-8.57312
▁दोपहर	-8.57662
▁दूसरी	-8.57838
▁सोशल	-8.57926
▁ेज	-8.58064
▁ेश	-8.58127
▁पूर्ण	-8.58191
▁ज्ञान	-8.5843
▁अगस्त	-8.58458
▁ंचायत	-8.58562
▁करके	-8.58647
▁अभि	-8.58733
▁्थ्य	-8.58777
▁युवा	-8.58804
▁विजय	-8.58886
▁जाते	-8.58966
▁ंस	-8.59001
▁यां	-8.59245
▁मदद	-8.59344
▁उद्	-8.59443
▁मस्या	-8.59471
▁तथा	-8.59688
▁मिले	-8.59704
▁सके	-8.59787
▁स्वास	-8.59887
▁कल	-8.60022
▁जीवन	-8.60089
▁30	-8.60103
▁अवसर	-8.60117
▁्रयास	-8.60172
▁काल	-8.60376
▁शा	-8.60403
▁सिर्फ	-8.60826
▁डे	-8.60826
▁दल	-8.60906
▁होंगे	-8.60967
▁माता	-8.6098
▁विवाद	-8.61129
▁ीदवार	-8.61149
▁दूर	-8.61539
▁उम्म	-8.61755
▁जयपुर	-8.61812
▁चुकी	-8.62032
▁चि	-8.62059
▁ोबाइल	-8.62135
▁रोल	-8.62181
▁मो	-8.62195
▁धन	-8.623
▁ाड़	-8.62414
फ	-8.62494
▁तोड़	-8.62591
▁वाहन	-8.62601
▁थानीय	-8.62689
▁देवी	-8.62746
▁ोर्ट	-8.62919
▁मध्य	-8.63077
▁इंडिय	-8.63085
▁बोल	-8.6318
▁ष	-8.6328
▁गाड़ी	-8.63287
▁बै	-8.63564
▁पेश	-8.63952
▁वालों	-8.63985
▁बनाए	-8.64061
▁जल्द	-8.64197
▁्रमुख	-8.64252
▁नर	-8.64264
ेरिक	-8.64531
▁राशि	-8.64561
▁रियों	-8.64694
▁महत्व	-8.6482
▁पोस्ट	-8.64988
▁ऑफ	-8.65176
▁जल	-8.65237
▁मार्ग	-8.65604
▁लगभग	-8.65612
▁अपराध	-8.65957
▁देखा	-8.66044
▁जैन	-8.6613
▁इंटर	-8.66293
▁ला	-8.66551
▁एफ	-8.66696
▁शराब	-8.6676
▁इलाके	-8.66966
▁रिया	-8.67184
▁खु	-8.67319
▁आदि	-8.67339
▁ाव	-8.67368
▁ाली	-8.67448
▁25	-8.67627
▁अवैध	-8.67642
▁जुड़	-8.68011
▁ाध्यम	-8.68263
▁पार	-8.68425
त्	-8.68759
▁चंद्र	-8.68862
र्	-8.69062
िय	-8.69537
▁बाल	-8.69587
▁शेयर	-8.69837
▁बरामद	-8.69927
▁वीं	-8.69934
▁स्थल	-8.69947
▁ंट	-8.70011
ते	-8.7004
▁खरीद	-8.70049
▁ाज	-8.70275
▁्टेशन	-8.70406
▁पै	-8.70439
▁अंदर	-8.70481
▁इंदौर	-8.70643
▁नव	-8.70666
▁मई	-8.70778
▁करण	-8.70917
▁कृष्ण	-8.70949
▁किलो	-8.71069
▁फ़	-8.71284
भी	-8.71336
▁अक्	-8.71416
▁्री	-8.71433
▁िका	-8.71519
▁टूबर	-8.71609
▁सवार	-8.71688
▁कोशिश	-8.71729
▁सितंब	-8.71792
ठ	-8.72009
▁कहते	-8.72045
▁दु	-8.72078
▁ीण	-8.72116
▁चुन	-8.72242
▁पुरा	-8.72303
▁वीर	-8.72314
▁ारपीट	-8.72338
▁पीएम	-8.72672
▁क्र	-8.72982
▁इस्	-8.72994
थ	-8.73109
विध	-8.73116
▁ीना	-8.73252
▁गो	-8.73352
▁ंडा	-8.73412
▁माह	-8.73461
▁ाद	-8.73575
▁पीछे	-8.74349
ब	-8.74618
▁दिसंब	-8.74684
▁पढ़	-8.749
▁लौट	-8.74901
▁दिवस	-8.7496
▁अति	-8.74978
▁ेयर	-8.7518
▁चुका	-8.75197
▁एयर	-8.75249
▁ांग	-8.75256
▁संगठन	-8.75379
▁हमला	-8.75384
▁शुभ	-8.75442
▁ेन	-8.75466
▁करा	-8.75611
▁तीसर	-8.75977
ू	-8.76022
ाकि	-8.76293
▁तु	-8.76464
▁ेडिकल	-8.76644
▁हादसे	-8.76657
▁तलाश	-8.76898
▁जे	-8.77064
▁देकर	-8.77119
▁वी	-8.77402
▁मोह	-8.77473
▁ोर	-8.77484
▁ूछताछ	-8.77665
▁गुप्त	-8.77864
▁्रकाश	-8.77923
ॉन्	-8.77971
▁बदमाश	-8.78052
▁जाना	-8.78071
▁ेश्वर	-8.78225
▁ास	-8.78249
▁केंद्	-8.78311
▁नवंबर	-8.78312
▁आवेदन	-8.78391
▁उन	-8.78615
▁आसपास	-8.787
▁ीड़ित	-8.78766
▁खास	-8.78915
▁लिखा	-8.78933
▁ीं	-8.78939
▁रस	-8.79103
▁बंधित	-8.79229
▁ांड	-8.79258
▁वाह	-8.7975
▁24	-8.79836
▁ंब	-8.79946
▁ट्री	-8.80091
▁जय	-8.80149
▁केवल	-8.80438
▁बैठ	-8.80489
▁मतदान	-8.80636
▁पर्य	-8.80689
▁खंड	-8.80764
▁शि	-8.81036
▁त्याश	-8.81271
▁आपको	-8.81418
▁चौधरी	-8.81537
▁वाया	-8.81881
▁बिना	-8.81884
▁50	-8.81992
▁भोपाल	-8.82075
▁बॉ	-8.82156
▁नेशनल	-8.8217
▁ांस	-8.82465
▁खेत	-8.82547
▁एच	-8.82548
▁राव	-8.82601
▁्रसाद	-8.82613
▁्व	-8.82675
▁देखने	-8.82843
▁मिनट	-8.83201
▁खड़	-8.83223
श	-8.83254
▁एक्ट	-8.83256
▁िन	-8.83721
▁ताप	-8.83727
▁ध्यान	-8.83818
▁मोहन	-8.83884
▁सौ	-8.84064
▁ंद	-8.84097
▁14	-8.84112
ता	-8.84169
▁ेताओं	-8.84423
▁ुविधा	-8.84456
▁दर	-8.84636
▁नदी	-8.84773
▁हमें	-8.84982
▁वाई	-8.8503
▁क्यों	-8.85086
▁लिख	-8.85087
▁चै	-8.85351
▁ेदार	-8.85445
▁13	-8.85561
▁भारी	-8.85568
▁्यू	-8.85577
▁पड़ा	-8.85615
▁ोड़	-8.85803
▁वार्ड	-8.85986
▁मार्च	-8.86013
▁लाभ	-8.86198
▁मंत्र	-8.86264
▁खबर	-8.86271
▁मार	-8.86702
▁अमित	-8.86898
▁ाही	-8.86938
▁बोर्ड	-8.86948
▁होना	-8.87123
▁जन्म	-8.87194
▁पढ़ें	-8.87395
▁ृ	-8.87415
▁ाध	-8.87623
▁वर्ग	-8.87637
▁/	-8.87748
▁प्रा	-8.87919
▁चरण	-8.88186
▁ाग	-8.88288
▁कं	-8.8833
▁ओवर	-8.88345
▁बने	-8.88397
▁देखते	-8.88649
▁चालक	-8.88703
▁ट्र	-8.88707
▁श्चिम	-8.88954
▁ट्रै	-8.89126
▁र्स	-8.89129
य	-8.89186
▁ियर	-8.89302
▁टिकट	-8.89304
▁टेस्ट	-8.89345
▁कैसे	-8.8957
▁मत	-8.89698
र्मच	-8.89777
▁फरार	-8.89787
▁दर्श	-8.89964
▁साफ	-8.90073
ोड़	-8.9012
▁भवन	-8.90166
▁दोस्त	-8.90194
i	-8.9021
▁घु	-8.9045
▁गोली	-8.90586
▁उपस्थ	-8.90792
ास	-8.91153
▁बनी	-8.91176
▁ट्	-8.91236
e	-8.91273
▁यानी	-8.91297
▁विकेट	-8.913
▁िस्सा	-8.91449
▁ाए	-8.91473
▁कराने	-8.91702
▁जिसे	-8.91897
▁जु	-8.91946
▁घाट	-8.92125
▁र्द	-8.92161
▁डाय	-8.92241
▁ीणों	-8.92311
ंस	-8.92379
▁जनवरी	-8.92412
▁बा	-8.92639
▁िटल	-8.92724
▁मार्	-8.92912
▁निधि	-8.93038
▁कीमत	-8.93181
▁ावना	-8.93187
▁16	-8.93227
▁ोस्टम	-8.93413
▁ख़	-8.93469
▁र्थ	-8.93611
दाध	-8.93667
▁सीटों	-8.93672
▁सिल	-8.93841
▁शो	-8.93954
▁व्य	-8.94103
▁अगले	-8.9422
▁तय	-8.94449
▁चार्य	-8.94622
▁मारोह	-8.94679
▁दौ	-8.94774
▁संघ	-8.95019
▁संजय	-8.95151
▁धु	-8.95159
▁ील	-8.95192
▁पलब्ध	-8.95364
▁सहयोग	-8.95364
▁जाय	-8.95504
▁ंक	-8.95517
▁आयोग	-8.95521
▁लगाए	-8.95628
▁गेट	-8.95679
▁ानी	-8.95961
्रद्	-8.95971
▁जिलों	-8.96147
▁गलत	-8.96196
▁फोटो	-8.96215
श्	-8.96217
▁भेजा	-8.96479
▁िड	-8.96483
▁्ट	-8.96761
▁स्थ	-8.97064
ाल	-8.97135
▁दावा	-8.97188
▁ीट	-8.97264
▁अधि	-8.97308
▁जिम्म	-8.97333
▁ऐसी	-8.97384
▁पि	-8.97531
▁मुंबई	-8.9754
▁ांव	-8.97735
▁इनक	-8.97775
▁18	-8.97828
▁तृत्व	-8.97856
▁नौ	-8.97872
▁कार्ड	-8.97964
▁यूपी	-8.98264
a	-8.98351
▁गर्मी	-8.98448
ना	-8.98473
?	-8.98569
▁अव	-8.98579
▁ूर्ति	-8.9859
▁चौक	-8.98636
▁रखने	-8.98729
▁पैसे	-8.98884
▁हु	-8.98905
▁सर्व	-8.98907
▁बिल	-8.99356
▁नीचे	-8.99378
▁ीम	-8.99414
▁17	-8.99485
▁र्मचा	-8.99523
▁ऐ	-8.99615
▁तल	-8.99688
▁एंट	-8.99862
्प	-8.99865
▁ताकि	-8.99921
▁पटना	-9.00017
ुनिय	-9.00243
▁प्रैल	-9.00251
▁ाह	-9.00411
▁रेट	-9.00546
▁उर्फ	-9.00756
▁माना	-9.00904
▁ीनियर	-9.00977
▁धारा	-9.00995
▁ीक्षक	-9.01088
▁टक्कर	-9.013
▁लगाने	-9.01344
▁सौंप	-9.01387
▁बच	-9.01484
▁पण	-9.01489
▁नियम	-9.01559
▁बेहतर	-9.01709
▁फायर	-9.01722
▁दरअस	-9.0179
▁ूर्ण	-9.01954
▁जग	-9.02051
▁तुल	-9.02108
▁बज	-9.02323
▁साम	-9.02358
ेश	-9.02408
▁लादेश	-9.02533
▁ेल	-9.02545
▁जाकर	-9.02898
▁सिर	-9.0293
▁गी	-9.0295
▁सिटी	-9.02958
▁यूनि	-9.03017
▁धर	-9.03079
ड़	-9.0314
▁कर्	-9.03231
▁आपक	-9.03269
▁फैसला	-9.03459
▁सीमा	-9.03792
▁ीप	-9.03985
▁घोषणा	-9.04027
▁हासिल	-9.0428
▁तैनात	-9.04363
▁मकान	-9.04371
▁ेम	-9.04378
▁ट्रक	-9.04519
▁िस	-9.04617
▁वक्त	-9.04637
▁भाव	-9.04662
▁नल	-9.04663
▁कल्प	-9.04692
▁ेदारी	-9.04704
▁कह	-9.04719
▁डेट	-9.04726
▁ुल	-9.04726
▁तेमाल	-9.04868
▁टन	-9.05112
▁सदर	-9.0517
▁मैदान	-9.05217
▁्रपति	-9.05462
▁जाम	-9.05521
▁इंस्	-9.05662
▁िट	-9.05674
▁रहते	-9.05686
▁धार	-9.05716
▁शिक्ष	-9.05989
क्ष	-9.0602
▁्रेस	-9.06026
▁रिकेट	-9.06147
▁ेक्टर	-9.06163
▁्रधान	-9.06326
▁22	-9.06546
▁रु	-9.06561
▁कानून	-9.06574
▁रत	-9.06614
▁ीएम	-9.06691
▁मद	-9.06695
▁टू	-9.06803
िम	-9.06848
▁बाबा	-9.06869
▁हिंद	-9.06919
▁हमने	-9.06925
▁कहीं	-9.06977
▁िए	-9.07005
▁रहेगा	-9.07185
▁त्य	-9.07203
▁्रकार	-9.07354
▁चंद	-9.07551
▁ऊपर	-9.07616
ेट	-9.07879
▁स्त	-9.0796
▁कॉर्ड	-9.08049
▁त्रि	-9.08159
हाल	-9.082
▁हालत	-9.08262
▁हस	-9.08444
▁ष्ट	-9.08446
▁दास	-9.08623
▁ाड़ी	-9.08643
▁भू	-9.0874
▁खोल	-9.08854
▁वित्त	-9.08857
ुद	-9.08881
▁ातचीत	-9.0901
▁ेय	-9.09019
▁रिय	-9.0907
▁केट	-9.091
्याप	-9.09137
▁गृह	-9.09198
▁तीनों	-9.09341
▁रिज	-9.094
▁ारखंड	-9.0945
▁खराब	-9.09452
▁परिसर	-9.09536
▁ेस	-9.09595
▁ेना	-9.09609
00	-9.0963
▁वश्यक	-9.09638
ेच	-9.09669
▁बोले	-9.09704
▁सै	-9.09817
▁ाथमिक	-9.09982
▁वायरल	-9.1001
▁ठीक	-9.1009
▁पत्ति	-9.10173
▁डा	-9.10234
▁नया	-9.10265
▁गंगा	-9.10571
▁पार्क	-9.10611
▁ग्र	-9.10639
▁जरूरत	-9.10649
▁जमा	-9.10654
▁शंकर	-9.10794
सि	-9.10893
▁ेंड	-9.10934
▁ीत	-9.10988
▁ट्रा	-9.11073
▁ोज	-9.1122
▁पेट	-9.11417
▁लॉ	-9.11504
▁विचार	-9.11506
▁खत्म	-9.11688
▁थानों	-9.11718
▁मेरी	-9.11789
▁सेंटर	-9.11834
▁ावत	-9.11841
▁िटी	-9.11918
वा	-9.11954
▁ुनवाई	-9.11958
▁ठबंधन	-9.12049
▁बहन	-9.12113
▁कड़	-9.12137
▁घोषित	-9.1214
▁स्टूड	-9.12233
▁निजी	-9.12264
▁कराई	-9.12277
▁ाय	-9.12434
▁औ	-9.12607
▁ाता	-9.12755
▁दा	-9.12764
▁भीड़	-9.12873
▁िंदर	-9.13075
▁म्मान	-9.13157
▁बह	-9.13249
▁वें	-9.13314
▁म्मीद	-9.13335
ंत	-9.1342
▁लखनऊ	-9.1342
▁जवान	-9.13621
▁लूट	-9.13725
▁लव	-9.13793
ात	-9.13818
▁त्व	-9.13971
▁ागरिक	-9.13975
▁राह	-9.1415
▁यही	-9.1419
▁पहला	-9.14337
▁रोज	-9.14466
▁ायल	-9.14478
्यू	-9.14572
ो	-9.14582
▁शास	-9.14599
▁रल	-9.14705
▁होटल	-9.14737
▁काली	-9.14999
▁रानी	-9.15175
▁न्ना	-9.15326
▁िलकर	-9.15349
▁ूं	-9.15454
▁वाड़	-9.1546
▁चीन	-9.15481
▁21	-9.15685
▁कब	-9.15686
▁सर	-9.15713
▁द्योग	-9.15842
▁सागर	-9.15905
▁रेड	-9.15939
▁अंतिम	-9.15944
▁19	-9.16182
▁वेद	-9.16223
▁बाग	-9.16325
▁मजबूत	-9.16353
▁परिषद	-9.16409
▁सफाई	-9.16507
▁उत्	-9.16547
▁ाओं	-9.16608
▁रोहित	-9.168
▁कॉल	-9.17214
▁कमेटी	-9.17266
▁बल्	-9.17288
▁्रवेश	-9.1737
▁प्रेम	-9.17521
▁ारा	-9.17539
▁उच्च	-9.1765
▁पाया	-9.17666
▁रखी	-9.17708
रा	-9.17842
▁लाइ	-9.17887
▁देना	-9.18054
▁जोर	-9.18078
▁वाने	-9.18105
▁भिषेक	-9.18131
▁जरिए	-9.18132
▁ैर	-9.18205
▁तभी	-9.18325
▁एंड	-9.18407
▁र्षीय	-9.18421
▁ोली	-9.18423
▁कमी	-9.18467
▁काट	-9.18478
▁िक्षक	-9.18496
▁धमकी	-9.18567
▁रक्षण	-9.18618
▁ड़ा	-9.1864
▁ौर	-9.18674
▁40	-9.18844
▁उतर	-9.18851
▁क़	-9.18994
▁िय	-9.19112
▁लगाई	-9.19161
▁इम	-9.19264
▁चाहत	-9.19313
▁श्चि	-9.19431
▁ंगा	-9.19647
ए	-9.19762
▁अचानक	-9.19785
▁स्ताव	-9.19793
▁क्ष्य	-9.19879
▁अदालत	-9.19883
▁महारा	-9.19948
▁अग्रव	-9.20003
▁इं	-9.20117
▁रिष्ठ	-9.20138
▁सही	-9.20214
▁चिकित	-9.20276
▁शी	-9.20372
▁फी	-9.20418
▁साह	-9.20454
▁भूमि	-9.20486
▁ालू	-9.20492
▁वास	-9.20555
▁र्क	-9.20562
▁मर्थन	-9.20576
झ	-9.20791
▁ारदात	-9.20814
▁पाठ	-9.20869
▁ंध	-9.2093
▁सार	-9.20949
ेर	-9.20959
▁स्ल	-9.21065
▁ाम	-9.21248
▁ॉलोनी	-9.2127
▁आते	-9.21419
▁लित	-9.21427
▁पत्	-9.21429
▁करवा	-9.21434
▁ीक्षण	-9.21467
▁स्तुत	-9.21688
ंध	-9.21798
▁क्षण	-9.21842
▁अशोक	-9.21866
▁निवेश	-9.21884
▁नाल	-9.2204
▁उम्र	-9.22081
▁रू	-9.22146
▁ावजूद	-9.22188
▁सपा	-9.22218
▁जाति	-9.22255
ंग	-9.22272
▁उसी	-9.22288
▁हि	-9.22555
▁त्त	-9.22565
▁लागू	-9.2257
▁ायब	-9.22596
▁द्ध	-9.22767
▁ेव	-9.22973
▁संत	-9.22986
▁वर्	-9.22998
▁ेंडर	-9.23066
▁दम	-9.23083
▁अंक	-9.23101
▁ूस	-9.23211
▁कारी	-9.23216
▁ल्याण	-9.23279
▁धारित	-9.2339
▁िता	-9.23429
▁न्न	-9.23542
▁उनसे	-9.23548
▁कर्म	-9.2355
▁पटेल	-9.23587
▁ॉल	-9.23661
▁शांति	-9.23669
▁ंश	-9.23925
▁प्रिय	-9.2405
▁टूट	-9.2417
▁याचिक	-9.24201
▁कौन	-9.24235
▁मा	-9.24244
▁गेंद	-9.24357
▁ैक	-9.24612
▁ारायण	-9.24613
▁कही	-9.24622
▁शक्ति	-9.24735
▁बदलाव	-9.24739
▁ेद	-9.24806
▁थियार	-9.2482
▁कूल	-9.24831
▁s	-9.24837
▁लैंड	-9.24991
▁फल	-9.25036
्रीम	-9.25125
▁तुर	-9.25135
▁बांध	-9.25242
▁छोटे	-9.25448
▁योगित	-9.25455
▁ज्ञ	-9.25464
▁खिल	-9.25556
▁हट	-9.25591
▁यर	-9.25642
▁भावित	-9.25653
ाय	-9.25659
▁रिक्त	-9.25678
▁रूम	-9.25726
▁वर्मा	-9.25748
▁दूसर	-9.25828
▁थान	-9.25849
▁लान	-9.2587
▁वक्ता	-9.26055
▁ित्र	-9.26127
▁षित	-9.26185
▁िम	-9.2632
▁इंतज	-9.26524
▁साध	-9.2659
▁रुक	-9.26625
▁शेख	-9.26654
जय	-9.26674
▁ंदन	-9.267
ुट	-9.26702
▁आत	-9.26761
▁दिखाई	-9.2682
▁डिज	-9.26843
▁सजा	-9.26893
▁ुकसान	-9.26898
▁हेल	-9.26905
▁नो	-9.26991
ड	-9.27022
▁र्ट	-9.27094
▁ऑफिस	-9.27122
▁विदेश	-9.27124
▁ाइज	-9.27136
▁स्टार	-9.2717
▁रोबार	-9.27215
▁रहता	-9.27284
▁ोत	-9.27339
स्त	-9.27355
▁्रि	-9.27407
▁जरूरी	-9.27415
▁ऊ	-9.27462
▁ीड	-9.27626
दाय	-9.27737
▁राउंड	-9.27744
▁26	-9.2775
▁ांकन	-9.27751
▁बंधन	-9.27764
▁बंगाल	-9.2785
िंदू	-9.27901
▁टाल	-9.27929
▁उपयोग	-9.27957
▁आवास	-9.27971
हन	-9.28012
▁पीड़ित	-9.28065
▁ास्ते	-9.28103
▁उससे	-9.28139
▁हरा	-9.28153
▁हॉस्प	-9.2817
▁रवि	-9.28207
▁मारी	-9.28239
▁न्य	-9.28312
▁्रा	-9.28382
▁मजदूर	-9.28383
▁िफ्ट	-9.28385
▁करेगी	-9.28536
▁बनाई	-9.28583
▁ेस्ट	-9.28629
▁असर	-9.28725
▁तिहास	-9.28814
▁इज	-9.28858
▁स्म	-9.28906
▁ाइन	-9.2891
▁फैल	-9.29042
▁गोल	-9.29051
▁पू	-9.29206
▁खा	-9.2923
▁आउट	-9.29242
िन्ह	-9.29285
▁सर्	-9.29306
▁क्ति	-9.29316
▁ावल	-9.29318
▁पाई	-9.29329
▁आत्म	-9.29356
▁ष्ट्र	-9.29356
▁ीकरण	-9.29463
▁वर्त	-9.29539
▁ग्रुप	-9.29674
▁राहत	-9.29676
▁हवा	-9.29781
▁कर्मी	-9.29941
▁पट	-9.29943
▁पुल	-9.29947
▁इक	-9.29992
▁युवती	-9.30013
▁ारे	-9.30083
▁भा	-9.30108
▁्रदान	-9.30109
▁तरीके	-9.30167
▁प्शन	-9.30217
▁िश्रा	-9.30327
्य	-9.30471
▁योध्य	-9.30544
▁क्रिय	-9.30708
▁राइवर	-9.30765
▁जब्त	-9.30813
▁्ल	-9.30882
▁ीवी	-9.30946
▁ूमिका	-9.30982
▁सीसीट	-9.3108
▁डीए	-9.31186
▁क्षिण	-9.31203
▁मृत	-9.31206
▁लंब	-9.31213
▁बू	-9.31223
▁कॉम	-9.31238
▁रंप	-9.31285
▁चोट	-9.31325
▁चेक	-9.31433
▁किशोर	-9.31645
▁ज्ञा	-9.3178
▁रे	-9.31896
▁ेल्	-9.32027
▁शील	-9.32133
▁एजेंस	-9.32308
▁हल	-9.32411
▁आनंद	-9.32419
▁्वागत	-9.32419
▁र्डर	-9.32483
▁बचा	-9.32531
▁रिलीज	-9.32533
▁कड़ी	-9.32721
▁क्व	-9.32787
▁इंट	-9.32819
▁इतना	-9.32933
▁हमले	-9.32967
▁तहसील	-9.33089
▁कपूर	-9.33089
▁भाष	-9.33184
▁खर्च	-9.3322
हनों	-9.33297
▁्रचार	-9.33313
▁िर	-9.33379
▁ैया	-9.33382
▁बजट	-9.33394
▁हंगा	-9.33564
जिस्	-9.3362
▁दिशा	-9.33654
▁णय	-9.33731
पुर	-9.33779
▁किस	-9.33814
▁वर्क	-9.33898
▁दोष	-9.33933
▁नौकरी	-9.34003
▁वान	-9.34059
▁लगाकर	-9.34153
▁न्यू	-9.34224
▁हे	-9.34274
▁बीमार	-9.34297
▁राग	-9.34325
▁सलमान	-9.34334
▁रान	-9.3436
▁िंक	-9.3436
▁मिशन	-9.34454
▁अमर	-9.3447
▁फरवरी	-9.34562
▁शांत	-9.34603
▁दश	-9.34652
म्	-9.34662
▁ालिका	-9.34699
▁चु	-9.34759
गर	-9.34796
▁उपाध	-9.34797
▁ोह	-9.34802
▁ुआ	-9.34848
▁ेरा	-9.3487
▁संसद	-9.349
▁कृषि	-9.34905
▁बालिग	-9.34911
▁्ड	-9.34926
▁नलाइन	-9.35013
▁राजेश	-9.35064
▁लगता	-9.35102
▁बीते	-9.35135
▁णी	-9.352
▁सूर्य	-9.35242
▁23	-9.35244
▁बो	-9.35293
ुद्द	-9.35342
▁ार्ट	-9.35377
▁ैंड	-9.354
▁आवाज	-9.35472
धर	-9.3548
▁रम	-9.35673
▁तेजी	-9.35684
ियों	-9.35687
▁कदम	-9.35872
▁हाउस	-9.3593
▁सीटें	-9.35934
ाई	-9.35961
▁लेते	-9.35988
▁ंज	-9.35997
▁्रता	-9.3603
▁सिविल	-9.36277
ेज	-9.363
▁िज	-9.36399
▁तारी	-9.36401
▁तेल	-9.3645
▁घरों	-9.36492
▁यदि	-9.3652
▁गार	-9.36733
▁नोटिस	-9.36974
▁िश	-9.36985
▁फीसदी	-9.37115
▁ः	-9.37116
▁फ्ल	-9.37138
▁दीपक	-9.37171
▁चित	-9.37243
▁ायक	-9.37362
▁जू	-9.37406
▁रहेगी	-9.37569
▁बीर	-9.37579
▁ाला	-9.37659
▁ेला	-9.37774
▁छह	-9.37777
▁मालिक	-9.37967
▁छत्	-9.38066
▁ास्कर	-9.38096
▁ंस्था	-9.38144
▁्यास	-9.38194
ौध	-9.38292
▁जमकर	-9.38296
▁उल्	-9.38316
▁ारंभ	-9.38371
▁श्याम	-9.38381
▁विषय	-9.38381
▁लेख	-9.38417
▁लाकात	-9.38504
▁ीश	-9.3851
▁बेटा	-9.38677
▁शाला	-9.38729
▁याद	-9.38831
▁28	-9.38833
▁प्ताह	-9.38854
▁धालु	-9.38856
▁भजन	-9.38947
▁तस्कर	-9.38988
▁ीसगढ़	-9.39092
▁नाराज	-9.39109
▁करेगा	-9.39157
▁आयु	-9.39171
▁धाम	-9.3918
▁सीध	-9.39193
▁गैंग	-9.39217
▁क्यू	-9.39248
▁मैन	-9.39274
▁जेक्ट	-9.39282
▁ोजगार	-9.3933
▁विष्य	-9.39394
▁हनुम	-9.39456
▁उतार	-9.39569
▁ईडी	-9.3962
▁सफर	-9.39878
▁िरासत	-9.39929
▁कमल	-9.39946
▁सामना	-9.40071
▁र्व	-9.40075
▁मनोज	-9.40089
▁देह	-9.40108
▁ब्द	-9.40213
▁दुर्	-9.40244
▁ण्ड	-9.4029
▁सहायक	-9.40306
▁िस्टम	-9.40312
▁ंप	-9.40343
▁नत	-9.40359
▁िब	-9.40423
▁कला	-9.40465
▁ंघ	-9.40544
▁पचार	-9.40559
▁लाश	-9.40564
▁ेली	-9.4066
▁ाक	-9.40668
▁चले	-9.40726
▁ठाकुर	-9.40772
▁ै	-9.40803
▁ोप	-9.40808
▁27	-9.40884
▁अपील	-9.40896
▁फर्जी	-9.40897
▁ूत	-9.40935
▁संबोध	-9.41014
▁चौरा	-9.41092
▁रहती	-9.41095
▁ेरी	-9.41169
▁रेप	-9.41397
▁जुड़े	-9.41457
▁मंच	-9.41539
▁डर	-9.41552
द्ध	-9.41592
▁हाज	-9.41689
▁यूज	-9.4171
▁दयपुर	-9.4175
▁पालन	-9.41822
▁सीरीज	-9.41867
▁ग्	-9.41988
▁ष्ठ	-9.41995
▁31	-9.42051
▁र्	-9.42086
▁पल	-9.4211
ॉप	-9.4214
▁हरि	-9.42248
▁निक	-9.42272
▁हाराज	-9.42376
▁ियम	-9.42459
▁जिसकी	-9.42472
▁ोत्सव	-9.4248
▁रीज	-9.42568
▁मिट	-9.42613
▁हिम	-9.42629
▁रै	-9.42704
▁ंचालन	-9.42731
▁वती	-9.4276
▁र्ग	-9.42862
▁सुधार	-9.42912
▁आव	-9.42929
▁मतदात	-9.42974
▁अनिल	-9.42984
▁साहू	-9.42994
▁ंजाम	-9.43016
▁सू	-9.43025
▁काउंट	-9.43097
▁र्ज	-9.43193
▁त्म	-9.43204
▁टेन	-9.43254
▁लाकों	-9.43278
▁सुनील	-9.43292
▁ोर्स	-9.43372
▁राइल	-9.43482
▁ार्षद	-9.43488
ौत	-9.43504
▁ड़े	-9.43528
▁खड़े	-9.4361
▁वां	-9.43616
▁कौ	-9.43686
िल	-9.43696
▁हरी	-9.43714
▁ंपर्क	-9.43719
▁कंपन	-9.43725
▁विवाह	-9.43727
▁्लो	-9.43748
▁सत्र	-9.43817
▁बल्क	-9.43849
▁देंगे	-9.43857
ष	-9.43865
त्य	-9.43986
▁संग	-9.4404
▁ेग	-9.44064
▁मिलते	-9.44089
▁स्वीर	-9.44132
▁तंत्र	-9.44218
▁अच्छी	-9.44218
▁जि	-9.44248
▁टक	-9.4442
▁नोट	-9.44533
▁C	-9.44583
▁तवाली	-9.44596
▁ाइड	-9.44601
▁र्य	-9.4466
क्ष्	-9.44722
▁बच्ची	-9.44723
▁ोन	-9.44755
▁प्ले	-9.44793
▁योगी	-9.44815
▁चली	-9.44827
▁ॉक	-9.44845
▁त्साह	-9.44846
▁ामलों	-9.44859
▁फाइनल	-9.44929
▁क्स	-9.45047
▁नाई	-9.45048
▁जैसी	-9.45099
▁गण	-9.45119
▁मंडी	-9.45177
▁मेह	-9.4524
जरी	-9.45289
▁िहार	-9.45358
▁जंगल	-9.45414
▁चना	-9.4547
▁लपुर	-9.45565
▁नार	-9.45596
▁बैठे	-9.45633
▁्पेशल	-9.45732
▁पोल	-9.45732
्व	-9.45743
▁तिथि	-9.45751
▁नाग	-9.45853
▁गल	-9.45966
▁सोच	-9.46078
▁नू	-9.46109
▁लो	-9.46235
▁कृति	-9.463
▁बाज	-9.463
▁अच्छा	-9.46371
▁वॉ	-9.46378
▁मित	-9.46452
▁लेट	-9.46478
▁ेरि	-9.46498
▁ंदोलन	-9.46502
▁फसल	-9.46517
▁ांत	-9.46603
▁नीतीश	-9.46626
माजि	-9.46674
▁पर्व	-9.46706
▁पैर	-9.46739
▁विज	-9.4683
्स	-9.46941
▁ाएं	-9.47106
▁लर	-9.47166
▁;	-9.47176
▁प्ल	-9.4722
▁राजा	-9.47296
िलाड	-9.47349
▁यात	-9.4738
▁दित्य	-9.47408
▁चा	-9.47452
▁श्किल	-9.47684
▁सुरक्	-9.47698
▁डीसी	-9.47716
▁क्रम	-9.47774
▁जम	-9.47791
▁ेंग	-9.47842
▁ब्ल	-9.47877
▁ीकर	-9.47926
▁्रेड	-9.47931
▁इंज	-9.47966
▁िंद	-9.48208
▁गति	-9.48211
▁पॉ	-9.48314
▁ेह	-9.48377
▁A	-9.48471
▁डो	-9.48541
▁पहल	-9.48563
▁त्पाद	-9.48569
▁ांसी	-9.48582
▁र्न	-9.48591
▁वर	-9.48794
▁अलर्ट	-9.48831
▁्ञापन	-9.48831
▁सेव	-9.48947
▁मौका	-9.48984
▁ुक	-9.49216
▁्वामी	-9.49369
▁सत्ता	-9.49373
▁स्तार	-9.49397
▁थापित	-9.49623
▁अतिथि	-9.49645
▁सालों	-9.49649
▁ुजरात	-9.49754
▁साइबर	-9.50152
▁शिविर	-9.50156
▁िनी	-9.5029
▁व्रत	-9.5029
▁मरीज	-9.50304
िस्	-9.50456
▁मीणा	-9.50554
▁ीरे	-9.50691
▁रैली	-9.50706
▁िवारी	-9.50823
▁उड़	-9.50886
▁िदेशक	-9.50894
▁ंचालक	-9.50956
▁गणेश	-9.50963
▁ाटा	-9.50964
▁त्र	-9.50979
▁लिय	-9.51013
▁पुरी	-9.51019
▁बिन	-9.5103
िग	-9.51077
▁्पष्ट	-9.51096
▁आईटी	-9.51099
▁तिक	-9.51151
▁एक्टर	-9.51216
▁धिकतम	-9.51221
▁ावर	-9.51467
▁सर्वे	-9.5147
▁ड्ड	-9.51553
▁सूत्र	-9.51626
▁कैंप	-9.51646
▁अर्	-9.51692
▁ऑटो	-9.5176
▁ंदा	-9.51796
▁फॉर्म	-9.51896
▁गौर	-9.52003
▁श्वास	-9.52039
▁ठंड	-9.52044
▁हटा	-9.52062
▁सीता	-9.52283
▁ुनावी	-9.52301
▁नाटक	-9.52339
ल्ड	-9.52374
ृद्ध	-9.52375
▁चढ़	-9.52379
▁िफ	-9.52396
▁प्लान	-9.52441
▁खाली	-9.52456
▁एज	-9.52498
▁तू	-9.52505
ाठ	-9.52509
▁हमेश	-9.52512
▁मुकेश	-9.52519
▁चलने	-9.52537
▁मनाया	-9.52574
▁ाढ़	-9.52581
▁वत	-9.52591
▁टोल	-9.5272
▁पुरुष	-9.52756
▁रव	-9.52761
▁एशन	-9.52884
▁डिप्	-9.52912
▁ोटी	-9.52918
▁पाए	-9.52949
▁ंदे	-9.52952
▁बंध	-9.52968
▁एसड	-9.53087
▁शु	-9.53174
▁29	-9.53255
▁कब्जे	-9.53264
▁ंच	-9.53402
▁पूजन	-9.53427
▁टॉ	-9.5346
▁पेपर	-9.53532
▁र्सिट	-9.53545
▁गड़	-9.53573
▁ुझ	-9.53718
▁चार्ज	-9.53834
▁अं	-9.53883
▁अंग	-9.53915
▁लू	-9.53925
▁मनीष	-9.53953
▁ोस	-9.53956
▁लिस्ट	-9.54076
▁यल	-9.54098
▁ाइट	-9.54156
▁ार्टम	-9.54159
▁पन्न	-9.5422
▁मानित	-9.54258
▁आकर	-9.54474
▁वेस्ट	-9.54499
▁्या	-9.54578
िस्स	-9.54585
▁ावरण	-9.54643
▁ाले	-9.54683
▁गोपाल	-9.54779
▁बढ़ा	-9.54803
▁ंत्र	-9.54807
▁ग्रह	-9.54822
▁पूछा	-9.54823
▁चयन	-9.54824
▁गईं	-9.54837
▁कीय	-9.54842
▁रज	-9.54854
▁ागरूक	-9.54914
▁प्लेट	-9.54941
▁पार्ट	-9.55064
▁गज	-9.55216
▁पारी	-9.55266
▁l	-9.55275
▁अमृत	-9.55333
▁्रभाव	-9.5534
5	-9.55373
▁साइड	-9.55484
▁ास्ट	-9.55531
▁खूब	-9.55551
▁खुश	-9.55586
▁सकें	-9.55617
▁सफल	-9.5569
▁ैसा	-9.55776
▁ईरान	-9.55895
▁र्ल्ड	-9.55904
▁िनारे	-9.55932
▁निभ	-9.55934
▁शिप	-9.55981
▁कमरे	-9.5603
ष्ट	-9.56054
पी	-9.56215
▁दि	-9.5628
▁ांट	-9.56437
▁ावधान	-9.56469
▁ुद्ध	-9.56514
▁ास्तव	-9.56616
▁ेंट्स	-9.56803
▁िव	-9.56876
▁बॉल	-9.56881
▁अंत	-9.57007
▁उनको	-9.57033
▁गन	-9.57139
▁देश्य	-9.57147
▁सख्त	-9.57171
▁हादसा	-9.572
▁मशीन	-9.57317
▁म्प	-9.57341
ाने	-9.57391
▁एसएस	-9.57498
▁अहम	-9.57535
▁रिश्त	-9.57642
▁मश	-9.57657
▁मौ	-9.57766
▁मैनेज	-9.57898
▁वाचन	-9.57903
▁फार्म	-9.58002
▁सफलता	-9.58068
▁विधि	-9.58074
▁वानी	-9.58134
▁रूस	-9.58173
▁बेहद	-9.58484
▁आरती	-9.58506
▁घो	-9.58538
▁लाया	-9.58577
▁आठ	-9.58666
▁बे	-9.58702
▁ाराम	-9.58738
▁मूल	-9.58851
▁ड़ी	-9.58873
▁ाइल	-9.58873
▁प्रथम	-9.5892
▁कथा	-9.5893
▁पंच	-9.59019
▁ावा	-9.59034
▁फ्	-9.5904
▁मल	-9.59179
▁ब्लॉक	-9.59195
▁तलब	-9.59374
▁एग्	-9.59566
▁परेशन	-9.59629
▁रवाना	-9.59639
▁दह	-9.59674
ापम	-9.59697
▁अली	-9.59779
▁गणना	-9.59787
▁अज	-9.59799
▁काश	-9.5984
▁सेंस	-9.59904
िया	-9.59993
▁पशु	-9.6006
▁हिंस	-9.60109
▁प्रीत	-9.60131
▁ूनतम	-9.60209
▁जिसका	-9.60324
▁श्व	-9.60367
▁घू	-9.60507
▁ठेक	-9.60931
▁चौकी	-9.61077
▁तकनीक	-9.61095
▁संतोष	-9.61119
▁जुर्ग	-9.61126
▁बाकी	-9.61127
▁लाम	-9.61168
▁मोटर	-9.61182
▁दस्	-9.61201
▁्रखंड	-9.61243
▁नाव	-9.61349
▁प्रेस	-9.61432
▁सुन	-9.61505
▁ुम	-9.61523
▁नुमान	-9.61565
▁टेक्	-9.61696
▁यंत्र	-9.6199
▁क्रमण	-9.61994
▁आता	-9.62137
▁लीवुड	-9.62141
▁माधान	-9.62146
▁ोल	-9.62148
▁कौर	-9.62161
▁लाइट	-9.62205
▁पैसा	-9.62387
▁प्लाई	-9.62391
▁ानसून	-9.62439
▁शरीर	-9.62444
▁िपक्ष	-9.62447
▁आदमी	-9.62462
▁वही	-9.62512
▁एसो	-9.6255
▁िस्ट	-9.62566
▁र्पित	-9.62589
▁ग्वाल	-9.62591
▁मुख	-9.62638
▁गाय	-9.62713
▁फीट	-9.62763
▁़ी	-9.62777
▁बिज	-9.62864
▁चौहान	-9.6289
▁हित	-9.6295
▁पाट	-9.63005
▁दब	-9.63009
▁शल	-9.6304
▁ोक	-9.63052
▁भार	-9.63151
▁राकेश	-9.63195
ुद्ध	-9.63203
्ब	-9.63236
▁म्ब	-9.63249
▁माम	-9.63319
▁आसान	-9.63357
▁भु	-9.63362
▁ां	-9.63463
्यर्	-9.63463
▁गुर	-9.63487
▁पो	-9.63533
▁आखिरी	-9.63601
▁संदीप	-9.63647
▁बताई	-9.63684
▁मिस	-9.63687
▁एप	-9.63736
▁कहानी	-9.63808
▁ोभ	-9.63849
▁गार्ड	-9.63952
▁कृतिक	-9.64107
ेट्	-9.64132
▁चिंता	-9.64166
▁हरण	-9.64193
▁़ियों	-9.64318
▁गुजर	-9.64338
▁ोई	-9.6436
▁दौर	-9.64376
▁दाखिल	-9.6441
▁रिणाम	-9.6441
▁मू	-9.64416
▁ाकू	-9.64434
▁मारने	-9.64472
▁सीजन	-9.64483
▁एसआई	-9.64577
▁ाठी	-9.64603
▁BJP	-9.64718
▁भाषा	-9.6475
▁ाइवेट	-9.64754
▁गर	-9.6479
▁ेप	-9.64829
▁रमा	-9.64831
ूल	-9.64905
▁रखे	-9.64988
▁र्ण	-9.65033
▁दीक	-9.65089
▁इतन	-9.65153
▁ेक्स	-9.65199
▁चर	-9.65202
यु	-9.65208
▁ूल	-9.65307
▁सांस	-9.65385
▁हता	-9.6548
▁टेक	-9.65507
▁स्क	-9.65727
▁ुर	-9.65783
▁पसंद	-9.65799
▁स्टाफ	-9.65811
▁ानंद	-9.65818
▁छा	-9.65887
▁ैन	-9.65947
▁ड़क	-9.66006
मान	-9.66008
▁लाने	-9.66168
▁ल्क	-9.66231
▁धानी	-9.66254
▁योजक	-9.66275
▁िश्नर	-9.66278
▁साय	-9.66378
▁नज	-9.66442
▁दू	-9.66471
▁्क	-9.66471
▁सीसी	-9.66474
▁टरी	-9.66495
दी	-9.66566
▁वकील	-9.66581
▁हेड	-9.66645
▁द्वि	-9.66649
▁लाह	-9.66743
▁िंट	-9.66771
▁ासन	-9.66842
▁ख्	-9.6698
▁शुल्क	-9.67065
▁ुलाया	-9.67068
▁खाना	-9.67068
▁जोन	-9.67126
्षों	-9.67169
▁टाइ	-9.67216
▁रुख	-9.67245
▁ापुर	-9.67251
▁लॉन्च	-9.67377
▁चोर	-9.67472
▁ुरी	-9.67518
▁र्श	-9.67554
▁ोम	-9.67686
▁र्जी	-9.67702
▁शुक्ल	-9.67709
▁ांक	-9.67735
▁कोच	-9.67786
▁शपथ	-9.67841
▁ाउंड	-9.67841
▁अहमद	-9.679
▁प्यार	-9.67999
▁एससी	-9.68018
▁सूची	-9.68123
▁च्छ	-9.68164
▁मेल	-9.68166
▁रविंद	-9.68327
▁सैन	-9.68371
▁श्न	-9.68392
▁मिलता	-9.68474
▁हायता	-9.68642
▁बीआई	-9.68644
▁त्ती	-9.6871
ामी	-9.68788
▁पीठ	-9.68804
▁भावना	-9.68837
▁कहां	-9.68897
▁सेंट	-9.68946
▁जम्म	-9.68971
-	-9.69026
▁रच	-9.69123
▁दबाव	-9.69133
▁किमी	-9.69182
▁फायदा	-9.69184
ेयर	-9.69206
▁माहौल	-9.69278
▁ंथ	-9.69364
▁पांड	-9.69407
▁चू	-9.6943
▁ेंगी	-9.6946
डी	-9.69484
▁शूट	-9.69489
▁रफ्	-9.69505
▁ीकृत	-9.696
▁निय	-9.69605
▁प्रशि	-9.69639
▁सोनी	-9.69928
▁जमानत	-9.69929
▁दिवास	-9.69933
▁सेना	-9.69937
▁गली	-9.69979
▁अरुण	-9.69995
▁उक्त	-9.70086
▁समूह	-9.7009
▁ुरा	-9.70152
▁्प	-9.70206
▁साइट	-9.70216
पर	-9.70224
▁ामी	-9.70256
ला	-9.70271
▁ड्यूट	-9.70295
▁गरीब	-9.70418
▁टैक्स	-9.70418
▁कक्षा	-9.70518
▁क्सर	-9.70595
▁उज्	-9.70639
▁रने	-9.70708
▁नुमति	-9.70738
▁द्र	-9.70745
:	-9.70771
▁धान	-9.70914
▁तर	-9.70944
▁गोद	-9.71048
▁फैक्	-9.71145
▁्षमता	-9.71228
▁ाइकिल	-9.71234
▁ाउंस	-9.71235
▁फ्ट	-9.7126
▁ीआई	-9.71313
▁पारा	-9.7133
▁श्त	-9.71456
▁प्तान	-9.71558
▁सैनी	-9.7157
▁n	-9.71602
▁पथ	-9.71646
▁निग	-9.71847
▁र्ड	-9.71977
▁इंडस	-9.72018
▁क्त	-9.72062
▁फै	-9.72233
▁ुर्गा	-9.72262
▁ीजी	-9.72328
▁ापन	-9.72337
▁चालित	-9.72386
▁वस	-9.72489
▁नेस	-9.72559
▁लोड	-9.72569
▁ाइप	-9.72616
▁मॉ	-9.7262
▁जिद	-9.72625
▁जानते	-9.72631
▁ाभ	-9.72699
▁दिव्य	-9.72722
▁अंब	-9.7273
▁िकल	-9.72817
▁तान	-9.72935
▁सार्	-9.73011
▁दृ	-9.73057
▁िये	-9.7313
▁सियस	-9.73222
▁रथ	-9.73231
▁ंगल	-9.73328
▁ीज	-9.73342
▁ोयल	-9.73349
▁यमि	-9.73374
▁काबले	-9.73424
o	-9.73433
▁ट्टी	-9.73509
▁मंजू	-9.73565
▁्त्री	-9.73631
▁ारक	-9.73711
▁ाउन	-9.73928
▁तरा	-9.73989
्भ	-9.73993
▁बहु	-9.74034
▁200	-9.74047
▁पड़े	-9.74077
▁वेल	-9.74094
▁ुकदमा	-9.74225
▁विवे	-9.74231
▁रेफर	-9.74232
▁%	-9.74276
▁ॉर्टम	-9.74314
वध	-9.74319
▁सरपंच	-9.74394
▁रोह	-9.74415
▁तारीख	-9.74436
▁एफआई	-9.74568
▁माप्त	-9.74594
▁बादल	-9.74655
▁ओप	-9.74659
▁नीत	-9.74735
▁टका	-9.74747
▁छापे	-9.74748
▁फैसले	-9.74763
▁ंकि	-9.74872
ई	-9.7489
▁बूथ	-9.74946
▁पार्	-9.74946
▁साथी	-9.74947
▁कू	-9.74976
▁सप	-9.7502
▁तावेज	-9.75084
▁इंडि	-9.75089
▁नर्	-9.7511
▁ेमी	-9.75222
▁आश	-9.75367
▁क्की	-9.75371
▁जताई	-9.75417
▁घट	-9.75524
▁न्	-9.75555
▁कांत	-9.75563
▁एक्शन	-9.75587
▁ाएंगे	-9.75601
▁ाती	-9.75662
▁ेवर	-9.75801
▁आइ	-9.75859
▁लीग	-9.75868
▁यान	-9.75875
▁र्जुन	-9.75931
▁र्जर	-9.75981
▁रखते	-9.75996
ण	-9.76033
▁ियन	-9.76047
▁खर	-9.76099
▁चंडी	-9.76129
▁बेस	-9.76156
ार्म	-9.76244
▁बीसी	-9.76247
▁सन	-9.76259
▁मॉडल	-9.7629
▁चांदी	-9.76345
▁त्ता	-9.76358
रब	-9.76429
▁करवाई	-9.76459
▁ांच	-9.76465
▁नाड	-9.76478
▁ॉट	-9.76609
▁ीरा	-9.76652
▁ाजी	-9.76661
▁राजीव	-9.76673
▁गौरव	-9.76708
▁ानें	-9.76743
▁ोहल्ल	-9.76796
▁मास	-9.76932
▁छत	-9.76942
्लि	-9.76978
▁छुट	-9.77012
▁ीपुर	-9.77076
▁डीएम	-9.77078
▁अस	-9.77085
▁बनान	-9.77126
▁ऑस्ट	-9.77143
्ज	-9.772
▁ागत	-9.77255
▁रभ	-9.7726
▁कप	-9.77268
▁्म	-9.77272
▁तह	-9.77299
▁ुंड	-9.77343
▁ब्	-9.77365
▁शीर	-9.77392
▁नर्स	-9.77439
▁रेस्	-9.77591
▁िलास	-9.77644
▁िरावट	-9.77665
▁राइ	-9.77725
▁रकार	-9.77773
)	-9.77825
▁60	-9.77841
▁र्च	-9.77899
▁ंभ	-9.77941
▁दैनिक	-9.78019
▁लकाता	-9.78021
▁त्येक	-9.78036
▁ुराने	-9.78039
▁टाइम	-9.78041
ाण	-9.78079
▁स्टोर	-9.78124
▁ारण	-9.78172
▁फेंक	-9.78198
▁थापना	-9.78225
▁ोद	-9.78284
▁्तीफ	-9.78368
▁क्ल	-9.7843
▁सर्च	-9.78457
ुनि	-9.78471
▁्रदीप	-9.78551
▁दाम	-9.7857
▁ाका	-9.78603
▁ायर	-9.78745
▁हमारा	-9.78772
▁रमेश	-9.78915
▁लाई	-9.78957
▁खो	-9.78996
▁टे	-9.7906
▁मुक्त	-9.79079
▁सलाह	-9.79092
▁लील	-9.79161
▁क्लास	-9.79242
▁शिकार	-9.79288
▁कव	-9.79368
▁मणि	-9.79477
▁सूच	-9.79496
▁संभव	-9.79562
▁ूद	-9.79592
▁करियर	-9.79614
▁साइ	-9.79628
▁क्कत	-9.79669
▁गाड़	-9.79679
▁िंड	-9.79681
▁ठगी	-9.79708
▁कर्ष	-9.79799
▁ऊं	-9.79854
▁इन्	-9.79923
▁भरा	-9.80136
▁वीकार	-9.80152
▁छठ	-9.803
▁्याप	-9.80325
ित	-9.80325
▁वितरण	-9.80327
▁डॉलर	-9.80331
▁साबित	-9.80334
▁इंच	-9.80407
▁संदेश	-9.80559
▁ॉप	-9.80637
▁आस	-9.80653
▁ंकी	-9.80686
▁उठाया	-9.80687
▁होनी	-9.8069
▁टायर	-9.80691
▁बीएस	-9.80803
▁रंजन	-9.80808
▁बाबू	-9.80872
▁ीह	-9.8091
▁टिस	-9.80912
▁सेल	-9.81025
▁ुटेज	-9.81075
▁ॉर्म	-9.81131
▁खि	-9.81177
▁यं	-9.81185
▁घंट	-9.81203
मन	-9.81204
▁ाइस	-9.81219
▁मेलन	-9.81235
▁स्ती	-9.81313
▁ुत	-9.81323
▁ट्रेट	-9.81334
▁दस	-9.81393
▁नकर	-9.81418
▁तालाब	-9.81423
▁नने	-9.81593
▁ॉक्	-9.81593
▁मूल्य	-9.81602
▁ायद	-9.81655
ोध	-9.81702
▁ोधपुर	-9.81777
▁खाते	-9.81785
▁मांगी	-9.818
▁पुष्प	-9.81852
▁नहर	-9.81872
▁शै	-9.81946
▁ion	-9.81956
▁्ट्र	-9.8197
▁क्लब	-9.81979
▁फि	-9.8198
ुख	-9.81999
▁ून	-9.82028
▁पूछ	-9.82076
▁जाया	-9.82099
▁एसटी	-9.82337
▁दय	-9.82364
▁हिर	-9.82368
▁लिक	-9.82397
▁माने	-9.8246
▁इसको	-9.82508
▁आं	-9.82526
▁प्रद	-9.82699
▁आजाद	-9.82712
ावर	-9.82751
▁बुला	-9.82769
▁राट	-9.82996
▁35	-9.83
▁ष्ठा	-9.8306
▁मियों	-9.83317
▁कैद	-9.83358
▁यूनिट	-9.83366
▁सां	-9.83368
▁ंघर्ष	-9.83427
▁ुगतान	-9.83427
▁्रमाण	-9.8344
▁काबू	-9.83547
▁शहीद	-9.83613
▁नक्सल	-9.83613
▁ग्रहण	-9.8362
▁गठन	-9.83628
▁वाड़ा	-9.83733
▁िक्रम	-9.83748
रज	-9.8375
▁ोटिंग	-9.83802
▁च्चा	-9.83812
▁ोहर	-9.83814
▁क्का	-9.83826
▁अर्थ	-9.83842
▁टो	-9.83854
▁हाईवे	-9.8388
▁चाहता	-9.83909
▁नवर	-9.8392
▁ुद्दे	-9.84074
वार	-9.84146
▁हालात	-9.84151
▁कारा	-9.84172
▁िनो	-9.84212
▁विमान	-9.84287
▁बैग	-9.84321
▁इमे	-9.84337
▁सीबी	-9.84401
▁रग	-9.84408
▁ौली	-9.84456
s	-9.84538
▁रद्द	-9.84546
▁ल्	-9.84548
▁हरे	-9.84867
▁अनुभव	-9.84922
▁नाना	-9.84978
▁शाना	-9.85025
▁द्द	-9.85038
राण	-9.85102
▁ीएच	-9.8512
▁ुरानी	-9.85138
▁मस्	-9.85173
आर	-9.85181
▁ल्ल	-9.85191
▁दूरी	-9.85215
▁I	-9.85237
▁भीतर	-9.85267
▁पैदा	-9.85279
▁िकसित	-9.85298
▁नवीन	-9.85347
▁क्रि	-9.854
▁िला	-9.85403
▁स्क्	-9.85512
▁दिग्ध	-9.85515
▁ामा	-9.8568
▁खी	-9.85706
▁दर्द	-9.85871
▁ंगर	-9.85971
िंद	-9.86025
▁ार्थी	-9.86064
▁िंदा	-9.86226
▁अच्छे	-9.86248
▁लेबाज	-9.86248
▁कोटा	-9.86266
▁मोर्	-9.86284
▁लाना	-9.86355
▁फ्त	-9.86441
्रॉ	-9.86451
▁ट्ट	-9.86452
▁घाटन	-9.86474
▁आय	-9.86487
▁लाप	-9.86517
▁पब	-9.86526
▁ेता	-9.86534
▁ॉ	-9.86569
▁मना	-9.86582
▁्तरीय	-9.86629
▁ियो	-9.86661
षण	-9.86703
▁एट	-9.8672
▁लभ	-9.86748
▁फैंस	-9.86862
▁सोना	-9.86896
▁दर्जन	-9.86949
▁लेना	-9.86988
▁िग	-9.87015
उथ	-9.87017
ष्ण	-9.87059
▁ाब	-9.87065
▁गोव	-9.8709
ैंड	-9.87116
▁तृ	-9.87122
▁जाल	-9.87127
▁र्विस	-9.87212
▁्रांस	-9.87224
▁्रेशन	-9.87228
रस	-9.87245
▁जाएं	-9.87315
▁ाण	-9.87384
▁्रो	-9.87394
▁मर्थक	-9.87402
▁सिन	-9.87429
▁गा	-9.8747
▁्लांट	-9.87591
परव	-9.8761
▁वहन	-9.87745
▁संगीत	-9.87784
▁भरोस	-9.87784
▁तुर्	-9.87922
ूब	-9.87937
▁ऋष	-9.8798
▁विशा	-9.87988
▁खुशी	-9.87988
▁भो	-9.88081
▁ामक	-9.88169
▁प्	-9.8819
▁भक्त	-9.88197
▁सराय	-9.88208
▁याज	-9.8822
▁रांची	-9.88243
▁बुल	-9.88253
▁जनक	-9.88339
▁रेंज	-9.88391
▁्रे	-9.8843
▁र्जन	-9.88432
▁ाप	-9.88455
▁ितना	-9.88529
▁लाकार	-9.88574
▁किंग	-9.88614
▁उपाय	-9.88638
▁ूंगा	-9.88691
▁बंदी	-9.88714
▁रोग	-9.88735
▁CM	-9.88755
▁ेलर	-9.88824
▁ीका	-9.8885
जीव	-9.88874
▁यकाल	-9.88962
▁यश	-9.88985
▁मनो	-9.88988
▁लाखों	-9.89003
▁झा	-9.89029
▁जित	-9.89032
▁ीटिंग	-9.89162
▁सुंदर	-9.89245
▁पवन	-9.89247
▁िप	-9.89259
▁फाइल	-9.89396
▁नम	-9.89397
▁हव	-9.89475
▁नंद	-9.89487
▁सैनिक	-9.89589
▁ाणी	-9.89684
▁रेज	-9.89708
▁ेडियम	-9.89757
▁विन	-9.8979
▁टिप	-9.89806
▁छोट	-9.89927
▁आंख	-9.89981
▁ेंच	-9.90064
▁रब	-9.90091
▁मंज	-9.90104
च्छ	-9.90214
ेलिय	-9.90291
▁जरूर	-9.90305
▁सिद्	-9.90332
▁राधिक	-9.90349
▁टा	-9.9036
▁कामना	-9.90386
▁उठा	-9.9039
▁गरा	-9.90496
▁हफ	-9.90539
▁पढ़ाई	-9.90557
▁सूरज	-9.90559
▁ानक	-9.90609
▁ैमरे	-9.9063
▁टै	-9.90665
▁मीर	-9.90671
▁ंपिक	-9.90674
▁रसा	-9.90678
▁विद	-9.90691
▁ौत	-9.90733
▁स्वी	-9.90798
▁सुरेश	-9.90952
▁आखिर	-9.90992
▁्रिं	-9.91043
▁ओम	-9.91044
▁धू	-9.91085
▁मता	-9.91086
▁रदार	-9.91214
▁फूल	-9.91251
तीज	-9.91263
▁जॉ	-9.91267
▁सोरेन	-9.91332
▁किशन	-9.91367
▁मुह	-9.91429
▁्यूट	-9.91438
▁सबक	-9.91452
िंग	-9.91493
▁ोटर	-9.91517
▁श्मीर	-9.91532
▁कब्ज	-9.91533
▁जुर्	-9.91533
▁आशंका	-9.91534
▁रहीं	-9.91566
▁पंडित	-9.91596
▁गैस	-9.91631
▁गाज	-9.91663
▁एरिया	-9.91734
▁चाहती	-9.91849
▁न्यूज	-9.91853
▁बाई	-9.91877
▁चीज	-9.91887
▁संव	-9.91903
▁दिनेश	-9.91945
ानदा	-9.91948
▁गोल्ड	-9.9196
▁आरपी	-9.91974
▁ानि	-9.92055
▁लीट	-9.92056
ाकर	-9.92078
▁ल्ट	-9.92081
▁बंधक	-9.92112
▁ंसर	-9.9212
▁News	-9.92138
▁ड़ताल	-9.92146
▁ंह	-9.92154
▁जयंत	-9.92169
▁्राइम	-9.92238
▁नीता	-9.92341
▁भि	-9.92366
▁भागों	-9.92642
▁वजनिक	-9.92755
▁ँ	-9.92813
्टेट	-9.92839
▁गौ	-9.92855
▁बचाव	-9.9287
▁लेश	-9.92933
▁पदों	-9.92948
ल्	-9.9299
▁ेले	-9.93048
▁पाली	-9.93155
▁मंद	-9.93198
▁टिक	-9.93224
ौजूद	-9.93312
▁मरा	-9.93338
▁in	-9.93341
▁त्मा	-9.93357
▁खिलेश	-9.93382
▁B	-9.93413
▁वादा	-9.93423
▁िक्री	-9.93477
▁िन्हा	-9.93493
▁गुल	-9.93508
▁ंत्रण	-9.93571
▁वर्तन	-9.93664
▁जगहों	-9.93686
▁स्टल	-9.93688
▁रोशन	-9.93694
▁बुक	-9.93699
▁ल्टी	-9.93705
▁कारि	-9.93774
▁लुध	-9.93797
लों	-9.93804
▁निशान	-9.93853
▁रेंड	-9.93912
श्व	-9.9407
▁गौतम	-9.94181
▁भूषण	-9.94193
▁समस्त	-9.94239
▁वेतन	-9.94239
▁ाट	-9.94261
▁ंजन	-9.94286
▁जानिए	-9.94393
▁िताब	-9.94434
▁ोफेसर	-9.94593
▁धरना	-9.94641
▁ंबित	-9.94645
▁ऐप	-9.94658
▁ाहक	-9.94694
▁फसर	-9.94723
▁दरवाज	-9.94801
▁चेताव	-9.94802
▁अनि	-9.94831
▁ृत्य	-9.94845
▁टर्न	-9.94892
▁सुर	-9.95117
▁ावास	-9.95419
बा	-9.95449
▁ाद्य	-9.95457
▁ाइयों	-9.95477
▁यो	-9.95478
▁आपका	-9.9558
▁रपुर	-9.95587
▁ातक	-9.95766
▁ंकट	-9.95807
▁धव	-9.95812
▁गीत	-9.95839
▁रौ	-9.95841
▁ोसी	-9.9588
▁गै	-9.95946
▁दीव	-9.95953
ारी	-9.95962
्रेन	-9.95981
▁सका	-9.96028
▁मिन	-9.96061
▁तम	-9.96064
▁पान	-9.96065
▁ांश	-9.96106
▁िशन	-9.96141
▁N	-9.96147
▁िदेश	-9.96177
▁जात	-9.96183
▁ांप	-9.96218
▁बद्ध	-9.96253
▁हराया	-9.96293
ंज	-9.9633
▁यु	-9.96365
चल	-9.96468
▁ोव	-9.96489
▁्रेंस	-9.9649
▁ातें	-9.96591
▁मति	-9.96615
▁ल्द	-9.96629
ुश	-9.96695
▁काबल	-9.96722
▁च्च	-9.96774
▁ेक्ट	-9.9678
▁निया	-9.96905
▁ग्नि	-9.96966
ास्त	-9.97029
▁कृ	-9.97048
▁पेंशन	-9.97112
▁चारों	-9.97177
▁अपर	-9.9728
▁ाक्ष	-9.97294
▁ैल	-9.97315
▁ाचार	-9.97341
▁गना	-9.97452
▁बीन	-9.97469
▁लें	-9.97474
▁ांगा	-9.97527
▁तिन	-9.97684
▁ोगा	-9.97712
▁्यपाल	-9.97752
विंद	-9.97769
▁नाक	-9.97808
▁ालि	-9.9781
▁प्रव	-9.97816
▁पांडे	-9.9782
▁फर	-9.9789
▁ट्रैक	-9.97891
▁ट्रि	-9.97959
▁ंव	-9.98005
▁दुर्ग	-9.98045
▁रॉ	-9.9807
▁दाय	-9.98132
▁हॉ	-9.98175
▁्यक्त	-9.98181
▁!	-9.98216
▁प्रे	-9.98323
▁मानस	-9.98337
▁पिट	-9.98501
▁ंगी	-9.98575
▁द्व	-9.98645
▁ैप	-9.98781
▁्टिव	-9.98862
▁सिंग	-9.98895
▁ाँ	-9.98932
▁िकरण	-9.99056
▁म्बर	-9.99204
▁ोट	-9.99285
▁70	-9.99328
▁500	-9.99387
▁फोर	-9.9941
▁ेटर	-9.9943
▁फ्री	-9.9958
▁नै	-9.99664
▁ूम	-9.99667
▁राधा	-9.99678
ेम	-9.99802
▁दस्त	-9.99806
▁सिया	-9.99911
▁रंट	-10.0002
▁लड	-10.0005
ोह	-10.0013
▁हब	-10.0019
▁ओल	-10.0024
▁मंग	-10.0036
▁छि	-10.0037
▁कच	-10.0039
▁र्षा	-10.0042
▁करार	-10.0049
▁हों	-10.0056
▁मला	-10.0058
▁ेकर	-10.0072
▁ेरे	-10.0077
▁ियत	-10.0078
▁ीएसपी	-10.008
▁ुओं	-10.0102
▁त्सव	-10.0104
▁एगा	-10.0106
▁रीद	-10.011
घ	-10.0111
▁उम	-10.014
▁टाचार	-10.0146
▁लिंग	-10.015
▁सीम	-10.0154
▁80	-10.0157
▁ग्री	-10.016
▁ंपि	-10.0174
▁अफसर	-10.0191
▁ट्रिक	-10.0214
▁फर्	-10.0234
▁PM	-10.0239
▁ठि	-10.0254
▁ालक	-10.0256
शे	-10.0265
▁अख	-10.0268
▁45	-10.0277
▁ईओ	-10.0281
ीएस	-10.0304
▁ीओ	-10.0306
▁िद	-10.0307
▁ट्टा	-10.0309
▁वृ	-10.031
ंट्	-10.0315
▁रेश	-10.0321
▁िपल	-10.0324
▁वंश	-10.0326
ॉय	-10.0327
▁ायन	-10.0329
▁टेल	-10.0332
▁हली	-10.0335
ै	-10.034
▁बादी	-10.0342
▁बूत	-10.0344
▁आक्	-10.0347
ट्	-10.0348
▁गीर	-10.0352
▁उन्	-10.036
▁जलि	-10.0393
▁भ्रष्	-10.0393
▁महत	-10.0403
▁राद	-10.0405
▁मंड	-10.0407
▁एमसी	-10.0418
ेव	-10.0419
▁ंवर	-10.0419
▁ंपर	-10.0425
▁म्स	-10.0429
▁शिय	-10.0435
▁ार्	-10.0436
▁व्या	-10.0437
▁पेय	-10.0439
▁अल्	-10.0441
▁ंग्	-10.0451
▁लेन	-10.0458
▁मात्र	-10.0462
▁िरदार	-10.0466
▁टल	-10.048
▁साब	-10.0484
▁पक्षी	-10.0486
▁गोर	-10.0488
▁जारों	-10.0502
लट	-10.0504
▁फत	-10.0511
▁ाइव	-10.0515
▁तृत	-10.0518
▁ध्या	-10.0546
▁र्म	-10.055
▁नय	-10.0551
▁िराज	-10.0556
▁एगी	-10.0556
▁दिव	-10.0559
▁रोन	-10.0563
▁ंका	-10.0564
▁पत	-10.0564
ार्ट	-10.0579
▁ानूनी	-10.0582
▁स्वत	-10.0589
▁बर	-10.0593
▁नीय	-10.0593
▁ख्त	-10.0601
▁मक	-10.0609
▁ोहरा	-10.061
▁वाय	-10.0615
क्षक	-10.0642
▁ड्डा	-10.0643
▁तिर	-10.0652
▁S	-10.0679
▁मजबू	-10.0684
▁साव	-10.0685
का	-10.0691
▁जुल	-10.0692
▁ावन	-10.0694
▁हाड़	-10.0696
▁ताक	-10.0699
▁L	-10.0712
▁ष्टि	-10.0719
▁ोजन	-10.0721
▁र्ध	-10.0723
▁ोहार	-10.0724
▁मच	-10.0725
▁ीदार	-10.0732
▁भारती	-10.0738
▁कां	-10.0739
▁न्ह	-10.0743
▁एसी	-10.0748
▁जनस	-10.0756
▁स्त्र	-10.0768
▁बेल	-10.0775
▁बच्च	-10.0776
▁ौज	-10.0784
▁अप	-10.0797
▁हर्ष	-10.0811
▁फुट	-10.0812
▁क्शन	-10.0812
▁तीज	-10.0813
▁णव	-10.0816
▁ात्र	-10.0825
▁P	-10.0829
▁ओड	-10.0831
▁रूट	-10.0832
▁ड़कों	-10.0832
▁णाल	-10.0843
▁णा	-10.0859
▁कने	-10.0864
▁हिल	-10.0876
▁ास्टर	-10.0879
▁ोय	-10.0882
▁्सक	-10.0895
▁क्षों	-10.0896
▁्यो	-10.0898
▁ईं	-10.0903
▁रंज	-10.0913
t	-10.092
▁ीयू	-10.0928
▁्ते	-10.0936
▁दिग्	-10.0954
▁अंद	-10.0955
▁सेट	-10.0957
▁ोख	-10.0961
▁बोर	-10.0965
▁हा	-10.0969
▁जला	-10.0979
▁भूप	-10.0983
▁ैं	-10.0989
▁ेफ	-10.0989
▁न्या	-10.1008
▁ष्	-10.1019
▁चाहे	-10.1021
▁रेस्ट	-10.1024
▁ाथ	-10.1031
▁खू	-10.1034
▁पिछल	-10.1048
▁दिखा	-10.1048
▁िश्न	-10.105
▁ायात	-10.1074
▁लीक	-10.1085
▁फीस	-10.1093
▁िशा	-10.1098
▁ाख	-10.1107
▁जस्	-10.1109
▁डब	-10.111
▁पड़ता	-10.1113
ेब	-10.1116
▁थित	-10.1117
▁बढ़त	-10.1131
▁ाइक	-10.1135
▁ापा	-10.1145
▁देत	-10.1155
ुण	-10.1162
▁वेदन	-10.1168
▁्डिंग	-10.1175
▁ुबे	-10.1179
▁बताए	-10.1182
▁ेहरा	-10.1187
▁नॉ	-10.1193
िष्	-10.1194
▁पात	-10.1199
▁िक्र	-10.1207
▁सीन	-10.1212
▁पीड	-10.1212
▁पिछ	-10.1213
▁रंगा	-10.1223
▁ंडल	-10.1225
▁बाजी	-10.1225
▁ताज	-10.1231
▁ंडि	-10.1233
▁ोषण	-10.1234
▁वल	-10.1252
▁माफ	-10.1254
▁वासि	-10.1255
▁सान	-10.1274
▁चेह	-10.1277
▁एए	-10.128
▁अभ	-10.13
▁ाधीश	-10.1312
्त	-10.1329
▁चिन	-10.136
▁ठित	-10.1363
▁मारा	-10.1364
यो	-10.1375
▁ेडल	-10.1376
▁निंग	-10.1376
h	-10.1391
▁लाक	-10.1394
▁सिख	-10.1397
▁शेष	-10.1401
▁्रेक	-10.1411
▁समा	-10.1413
▁ोल्ड	-10.1413
▁राब	-10.1421
▁कृत	-10.1422
▁र्ब	-10.1425
▁्रस्त	-10.1431
▁ाइ	-10.1443
▁वाही	-10.1452
▁वाज	-10.1452
▁्वय	-10.1456
▁जस	-10.1477
▁गय	-10.1483
▁ेखा	-10.1488
▁दवा	-10.1489
▁ेमा	-10.149
▁रोश	-10.1492
▁हिस	-10.1495
ॅ	-10.1498
▁ेक्शन	-10.1498
▁सोन	-10.1499
▁हक	-10.15
ां	-10.1516
ियु	-10.1518
▁ठग	-10.1524
▁हान	-10.1526
▁सिक	-10.1537
▁आह	-10.154
▁राश	-10.1557
▁सीपी	-10.1558
जन	-10.1563
▁खुले	-10.158
▁नु	-10.1586
▁कत	-10.1588
ल्क	-10.1596
▁चीफ	-10.1602
▁म्	-10.1611
▁ंसल	-10.1612
▁ोशी	-10.1616
▁प्री	-10.1619
▁िन्	-10.1632
▁ीएल	-10.1636
▁श्म	-10.1637
▁तन	-10.1649
▁बीज	-10.1655
▁क्ता	-10.1656
▁फान	-10.1659
▁र्त	-10.1665
ीन	-10.1671
▁बिल्	-10.1687
▁ोश	-10.1694
▁रफ	-10.1702
▁्रल	-10.1732
▁जिश	-10.1733
▁बरा	-10.1738
▁ौती	-10.1746
▁बम	-10.1753
▁सेन	-10.1755
▁लोन	-10.1757
▁ीर	-10.1759
ुष्	-10.1775
▁ेवल	-10.1775
▁ावी	-10.1777
▁गला	-10.1777
▁जरी	-10.18
▁विर	-10.1805
▁दायर	-10.1814
▁ुट	-10.1819
▁िक्स	-10.1827
▁धम	-10.1827
▁कोट	-10.1828
▁हिता	-10.1829
▁सित	-10.1832
▁प्रश	-10.1834
ोख	-10.1835
▁ाओ	-10.1836
▁निध	-10.1837
▁िथ	-10.1839
▁शक	-10.1843
▁धी	-10.1844
▁नाने	-10.1848
▁ह्म	-10.1848
▁ावे	-10.1849
▁स्कू	-10.1872
u	-10.1876
▁अल	-10.1878
▁सीव	-10.1879
▁ाउंट	-10.1888
▁्रति	-10.189
▁मारे	-10.1896
▁आर्	-10.1912
▁दिक	-10.1919
▁ंबा	-10.1929
▁नात	-10.1953
▁ेब	-10.1954
▁िल्ल	-10.1963
▁ेन्	-10.1963
▁िक्ष	-10.1964
▁सिप	-10.1969
▁रोध	-10.1972
▁दौरा	-10.1998
ct	-10.2
▁नशा	-10.2013
▁ीचर	-10.2017
▁गर्म	-10.202
▁पन	-10.2029
▁ोरिय	-10.2033
▁्रॉ	-10.2034
▁ूवी	-10.205
▁90	-10.205
▁सको	-10.2052
▁ंजी	-10.2073
▁ौड़	-10.2082
▁भोज	-10.2083
▁ारस	-10.2085
▁क्षी	-10.2095
▁आईप	-10.2105
▁ल्ला	-10.211
▁क्कर	-10.211
▁32	-10.211
▁रखें	-10.2114
▁ीवर	-10.2129
▁गू	-10.2129
▁वासी	-10.214
▁ेसर	-10.214
▁राध	-10.2145
▁सिस	-10.215
▁ालव	-10.2152
ले	-10.2153
▁हिमा	-10.2155
▁असम	-10.2157
▁कॉ	-10.2159
▁तीक	-10.2169
▁ानन	-10.2187
▁तीय	-10.2189
▁ीति	-10.2192
▁T	-10.22
▁सॉ	-10.221
▁ताया	-10.2217
की	-10.2221
▁ैट	-10.2228
ोने	-10.2229
▁टिया	-10.2231
▁सुरे	-10.2237
l	-10.2238
▁ह्	-10.2252
▁ंझ	-10.2273
D	-10.2284
▁लेंगे	-10.2292
▁ीवाल	-10.2293
▁हिस्	-10.2294
▁गान	-10.2299
▁ादर	-10.2301
▁D	-10.232
▁ीयत	-10.2331
▁बदला	-10.2335
▁ेंज	-10.2348
▁त्रता	-10.235
▁चाह	-10.2356
▁गले	-10.2372
▁्योति	-10.2374
▁गुना	-10.2381
▁ुन	-10.2386
▁ौल	-10.2393
▁्षेत्	-10.2402
तर	-10.2428
▁ंडी	-10.2438
▁स्तक	-10.2441
▁परिस	-10.2442
▁टु	-10.2449
▁िद्या	-10.2459
▁स्न	-10.2461
▁गीता	-10.2468
▁फाइन	-10.2474
▁400	-10.2474
▁क्क	-10.2478
▁काय	-10.2482
▁जै	-10.2493
▁तीश	-10.2503
▁राख	-10.2508
▁णे	-10.2513
▁ृत	-10.2516
▁ीफ	-10.2534
▁वाए	-10.2536
▁लेव	-10.2541
▁मोद	-10.2542
▁रस्ट	-10.2552
▁ायी	-10.2558
ट्रो	-10.2562
▁ादा	-10.2571
▁डन	-10.2573
▁ूरत	-10.2578
▁ेसी	-10.258
▁मानी	-10.258
▁कअप	-10.2599
▁ताला	-10.2614
▁ॐ	-10.2629
गद	-10.2633
ंख्य	-10.2649
▁धमक	-10.2656
▁टिफ	-10.2657
▁जेंसी	-10.2661
▁भल	-10.2662
▁न्द	-10.2663
▁खात	-10.2666
▁वंत	-10.2672
▁र्ल	-10.2677
▁आपस	-10.2678
▁नही	-10.2684
▁रार	-10.2685
रू	-10.2688
▁जज	-10.2703
▁्याय	-10.2705
▁ाश	-10.2712
▁कराए	-10.2713
▁लप	-10.2714
BI	-10.2721
▁इव	-10.273
▁गाने	-10.2734
▁ंदी	-10.2741
▁ुरु	-10.2744
▁रीब	-10.2789
▁ॉर्ड	-10.28
▁राजन	-10.2803
▁गिरा	-10.2805
▁लक्ष	-10.2811
▁यम	-10.2814
▁एव	-10.2817
▁मनी	-10.2818
▁ृत्	-10.2819
▁जाग	-10.2819
▁रिक्	-10.2836
▁रीर	-10.2838
▁िड़	-10.284
▁बान	-10.2842
▁300	-10.2844
▁सफ	-10.285
▁्राफ	-10.2863
▁शर	-10.2867
▁बड़	-10.2877
▁ोले	-10.2882
▁पैद	-10.2888
▁धूप	-10.2902
▁कंप	-10.2908
▁कॉर्	-10.2965
▁ंता	-10.2973
▁दाद	-10.2975
▁्ब	-10.2976
▁्च	-10.2977
▁राए	-10.2985
2	-10.2985
▁छू	-10.2987
▁्त्र	-10.2992
▁अग्र	-10.2997
▁ृष्टि	-10.3004
A	-10.3007
▁ंतर	-10.3015
▁िमी	-10.3015
दार	-10.3021
▁हज	-10.3031
▁हद	-10.3036
▁ृति	-10.3054
▁ीके	-10.3061
▁धा	-10.3064
▁ालं	-10.3069
ंप	-10.3071
▁सेज	-10.3078
▁ढ़ी	-10.3082
लो	-10.3092
▁मय	-10.3092
▁कांड	-10.3103
▁ावट	-10.3108
▁र्तन	-10.311
ीट	-10.3112
▁डकर	-10.3115
▁िंद्र	-10.3124
▁लु	-10.3125
▁नाश	-10.3135
▁नह	-10.3145
▁33	-10.3146
▁लेत	-10.3155
▁टीवी	-10.3155
▁कैप	-10.3163
▁ूक	-10.3184
▁महीन	-10.3196
▁नन	-10.3202
▁भरी	-10.3205
▁स्थि	-10.321
▁्यूज	-10.3212
▁ध्	-10.3222
ha	-10.3227
▁ताल	-10.323
▁सदन	-10.323
▁लौ	-10.3237
▁त्री	-10.3245
▁जेपी	-10.3246
▁अभिय	-10.3257
▁FIR	-10.3273
भ	-10.3276
▁मिलन	-10.3277
▁48	-10.3277
▁निर्द	-10.3287
▁ीच	-10.3292
▁तना	-10.3292
▁मर	-10.3295
▁ंडे	-10.3296
▁sh	-10.3298
▁ुक्त	-10.3299
▁ेबल	-10.3308
▁दूध	-10.331
▁तस्	-10.3311
▁सकी	-10.3311
▁ींद	-10.3313
▁्डी	-10.3317
▁पह	-10.3326
▁घे	-10.3329
▁{	-10.3334
▁गम	-10.3354
▁ूर्त	-10.3359
▁सच	-10.337
▁ीरो	-10.3375
▁सोम	-10.3378
▁ुप	-10.3385
▁शाल	-10.3387
▁जनी	-10.3389
▁िमा	-10.3394
▁॥	-10.3397
▁वस्थ	-10.3402
▁स्सा	-10.3408
▁िसर	-10.3409
▁चने	-10.3417
▁िट्	-10.3418
▁फिल	-10.3441
▁्थ	-10.3442
▁ाजा	-10.3448
▁विश	-10.3451
▁होंग	-10.3468
▁रोप	-10.3476
▁रहें	-10.3484
▁दुर	-10.3488
▁ोच	-10.3489
▁ैक्स	-10.3492
▁डू	-10.3499
ैसे	-10.3529
▁ोष	-10.3532
▁डीपी	-10.3532
▁ीजा	-10.3535
▁तिया	-10.3544
▁डु	-10.3549
ॉ	-10.355
▁ात्रा	-10.3552
▁रक्	-10.3558
धान	-10.3584
▁रिश्	-10.3589
▁मांगे	-10.3595
▁एमप	-10.3601
▁मप्र	-10.3602
▁हू	-10.3611
▁नान	-10.3617
▁आना	-10.3627
▁ोड़ा	-10.3632
▁रियर	-10.3644
▁मांड	-10.3659
▁तप	-10.3659
▁ुल्	-10.3663
ार	-10.3665
▁औसत	-10.3676
▁्त	-10.3686
▁्वा	-10.3697
▁ोता	-10.37
▁याब	-10.3721
▁ीद	-10.3734
िन	-10.3741
▁ोग	-10.3752
▁छूट	-10.3756
▁ेच	-10.3758
▁झु	-10.3759
▁विस	-10.376
▁खाद	-10.3763
▁हड़	-10.3768
▁er	-10.3774
▁चम	-10.3774
▁श्य	-10.378
0	-10.3789
▁्रबंध	-10.3804
▁उर्	-10.3815
▁सुप	-10.3816
▁झी	-10.3832
▁रिक	-10.3834
▁ुड़	-10.3863
▁ग्न	-10.3869
▁रियल	-10.3872
▁ौन	-10.3885
▁ाड	-10.3895
▁वण	-10.3897
▁दारों	-10.3902
▁ॉली	-10.3903
▁द्	-10.3906
ये	-10.3908
▁माव	-10.3908
▁ाड़ा	-10.391
▁ब्यू	-10.391
▁लाय	-10.3924
▁ांति	-10.3925
▁कंड	-10.3933
▁रील	-10.3944
▁ेरो	-10.3945
▁भय	-10.3949
▁हमल	-10.3955
▁ुख	-10.3957
न्द	-10.3969
▁ेक	-10.3977
▁ाटी	-10.3979
▁75	-10.398
▁ंकर	-10.3981
▁साधन	-10.3983
▁स्टर	-10.3983
▁मिश्र	-10.3999
▁ra	-10.4002
▁ंदिर	-10.4006
▁फेस	-10.4007
ैर	-10.4027
▁थल	-10.4036
▁क्षम	-10.4051
▁मुझ	-10.4052
▁गि	-10.4053
▁िमांड	-10.4063
▁पदक	-10.4079
▁ांद	-10.4084
▁ाफा	-10.4084
'	-10.4087
जम	-10.4089
▁36	-10.4091
▁सीए	-10.4095
▁ूषण	-10.4108
ाओं	-10.4118
▁प्त	-10.4119
▁ीब	-10.4125
▁वीरें	-10.4135
▁ोला	-10.4171
▁एसडी	-10.4173
▁टियों	-10.4184
▁सुनी	-10.4191
▁ताब	-10.4197
▁शॉ	-10.4198
▁रतन	-10.4199
दा	-10.4199
▁टेबल	-10.4228
▁बेह	-10.4233
▁पौ	-10.4234
▁ंख	-10.4236
▁nt	-10.4247
▁डिप	-10.4254
▁R	-10.4263
▁िश्ते	-10.4268
▁रिल	-10.4272
▁ात्रि	-10.4275
▁आधा	-10.4277
▁माध	-10.428
▁ाचा	-10.4291
▁िलाई	-10.4304
0%	-10.4316
मि	-10.4316
▁तिश	-10.4321
▁बहस	-10.4329
▁गाड	-10.4331
▁सली	-10.4334
C	-10.436
▁यूरो	-10.4363
▁ंटी	-10.4375
▁रास	-10.438
▁सज	-10.4394
कों	-10.4396
▁विध	-10.4398
▁फ्र	-10.4412
▁ेतन	-10.4413
▁ैसल	-10.4418
▁ॉर्ट	-10.4425
▁नस	-10.4447
▁ची	-10.4464
▁ूख	-10.4466
▁्जी	-10.4475
▁लाब	-10.4479
▁चांद	-10.4485
▁सव	-10.4486
▁रवी	-10.4507
▁मुद्र	-10.4513
लॉ	-10.4515
▁्मत	-10.4517
▁टव	-10.4539
▁खनन	-10.454
▁्ज	-10.4546
▁चाल	-10.4547
▁पीछ	-10.4549
▁ेजी	-10.4564
्योत	-10.4564
▁शोर	-10.4565
▁धारण	-10.457
▁्लू	-10.4573
▁जीव	-10.4576
▁ार्त	-10.4585
▁ंटन	-10.4592
िटी	-10.4599
▁रिंग	-10.4608
▁शान	-10.4611
▁रवा	-10.4619
▁रकम	-10.4619
▁नामा	-10.4639
▁ठा	-10.4645
▁चर्च	-10.4656
▁मात	-10.4662
▁150	-10.4665
▁रेन	-10.4679
▁ीएस	-10.4689
▁वित्	-10.4691
▁सील	-10.4694
▁अध्य	-10.4704
▁लक	-10.4752
एन	-10.4756
▁ीबी	-10.4765
▁लियन	-10.4785
▁जेड	-10.4788
▁टिव	-10.479
▁ैम	-10.4796
▁ऑफर	-10.4799
▁रेशन	-10.4803
▁ईस	-10.4811
▁विम	-10.4811
▁ाफी	-10.4823
▁ुक्ति	-10.4824
▁सद	-10.4829
▁ीक	-10.4831
▁पने	-10.4833
▁भव	-10.4839
▁34	-10.4841
▁रिस	-10.4855
▁ानु	-10.4866
ाख	-10.4872
▁सरा	-10.4878
▁जह	-10.4878
▁दन	-10.4887
ार्क	-10.4887
▁ेंशन	-10.4887
▁ोड	-10.4887
▁र्टी	-10.4895
▁इंग	-10.4903
▁ाधिक	-10.4907
▁ीजे	-10.4916
▁्राइ	-10.4929
ाऊ	-10.493
▁ैग	-10.4931
▁िना	-10.4937
▁गुन	-10.4956
▁ग्रे	-10.4959
▁हनों	-10.4964
▁विक्	-10.4968
▁फॉर	-10.4979
▁ोरो	-10.4981
▁घन	-10.4984
▁दशक	-10.4993
▁ीटी	-10.5002
▁चेन	-10.5003
▁रीफ	-10.501
श्वर	-10.501
▁्न	-10.5031
हा	-10.5034
▁बीत	-10.5041
▁कूट	-10.5041
▁रस्त	-10.5052
▁िलक	-10.506
▁्टर	-10.5066
6	-10.5067
▁डल	-10.5076
ऊ	-10.5081
रिय	-10.5096
▁खेड	-10.5105
▁ब्ज	-10.5124
▁जं	-10.5125
▁ूप	-10.5133
▁्फ	-10.5139
50	-10.514
▁ंगे	-10.5148
▁लत	-10.5165
1	-10.5166
▁बाध	-10.5183
▁्वान	-10.5194
▁िस्त	-10.5198
▁पंज	-10.5208
ीसी	-10.5218
्थ	-10.5221
▁बीमा	-10.5222
▁िकाय	-10.5247
▁्रम	-10.5252
▁बाला	-10.5257
▁मण	-10.5259
▁ष्ण	-10.5271
▁ैना	-10.5272
▁वाना	-10.5276
▁्भ	-10.5279
▁बग	-10.5288
▁रीवा	-10.5297
ौन	-10.5302
G	-10.5304
▁लख	-10.5305
र्मि	-10.5307
▁ड्र	-10.5311
▁ne	-10.5321
▁भोग	-10.5329
▁ेंसी	-10.5333
▁ऊर	-10.5336
▁डक	-10.5339
▁थ्	-10.5343
▁ामि	-10.5349
▁सला	-10.5351
्टेब	-10.5357
▁महि	-10.5357
▁च्छा	-10.538
▁राल	-10.5403
▁जंग	-10.5408
▁कली	-10.5411
▁ूंग	-10.5418
▁टर्	-10.5423
▁na	-10.5426
▁नसभा	-10.5435
▁इलाक	-10.5451
▁फॉ	-10.5454
▁चं	-10.5461
▁ेबाजी	-10.5477
▁रांच	-10.5498
▁ड़त	-10.5503
▁अखिल	-10.551
▁रीदा	-10.5555
▁महान	-10.5555
▁ात्म	-10.5562
▁वीरे	-10.5573
▁ाएगी	-10.5585
िवार	-10.5588
ेख	-10.5592
▁लॉक	-10.5607
▁कक्ष	-10.5615
▁ारो	-10.5621
ुरू	-10.5629
▁ोध	-10.5651
▁खार	-10.5664
▁अद	-10.5665
▁कद	-10.5666
▁ॉर्	-10.568
▁िन्ह	-10.5689
▁श्	-10.5695
▁ंजर	-10.571
शि	-10.5712
▁डिट	-10.5715
टक	-10.5737
▁ार्ज	-10.5742
▁मित्	-10.5747
जों	-10.575
▁करो	-10.5759
▁नाया	-10.5762
▁क्षित	-10.5771
▁्मण	-10.5779
▁पैस	-10.5794
्म	-10.5835
▁लेब	-10.5837
▁िच	-10.584
▁निशा	-10.5852
▁्रै	-10.5861
▁आब	-10.5872
▁वार्	-10.5877
▁मचा	-10.5895
▁चाय	-10.5903
इए	-10.591
▁काला	-10.592
▁ंद्रा	-10.5933
▁मुकदम	-10.5935
▁चाया	-10.5961
▁ायम	-10.5976
▁रुप	-10.5981
▁फूड	-10.5982
▁ऋ	-10.5989
▁X	-10.6007
▁करे	-10.6021
▁पदा	-10.6026
▁सत	-10.6026
▁ाड़िय	-10.6027
▁MP	-10.6033
▁आशा	-10.6037
▁55	-10.6043
▁जिम	-10.6056
▁्यादा	-10.6067
▁लॉन्	-10.6068
▁स्या	-10.6078
▁धां	-10.608
ेंद	-10.6082
▁ुर्	-10.6083
ढ़	-10.6087
▁चक	-10.6091
▁रेग	-10.6104
▁जद	-10.6109
▁मिक	-10.6112
▁भगव	-10.6112
िष्ठ	-10.6118
▁किन	-10.6119
▁जिस्	-10.6129
▁पमान	-10.6134
ूठ	-10.6141
▁मीन	-10.6144
▁्रेन	-10.6148
▁ोड़ी	-10.6176
▁37	-10.6177
▁G	-10.6188
▁ॉन	-10.6193
▁्रीम	-10.6199
▁बिक	-10.6208
▁पसी	-10.6217
▁ात्	-10.6233
▁तरीक	-10.6239
▁स्वा	-10.6243
▁राजे	-10.6252
▁अर	-10.6276
▁हूर	-10.6292
▁ेहा	-10.6307
▁्याव	-10.6325
ंड	-10.6328
▁ीड़	-10.6342
▁डम	-10.6344
▁ावित	-10.6348
▁रता	-10.6354
▁ोते	-10.6355
▁ाबर	-10.636
▁ोंक	-10.6361
▁ैय	-10.6362
7	-10.6363
▁ीव	-10.6365
▁v	-10.6379
▁नना	-10.638
▁उदय	-10.6381
▁टने	-10.6391
▁ोरा	-10.6417
▁गंग	-10.6423
▁ंचाई	-10.6424
को	-10.6425
▁नेशन	-10.6426
▁मोड	-10.6432
▁टि	-10.6469
▁जनों	-10.647
▁हॉल	-10.6503
▁पं	-10.6505
▁सीओ	-10.651
▁सर्क	-10.6511
▁लल	-10.6517
▁ुश	-10.6531
▁पना	-10.6537
▁क्ट	-10.6542
▁ऑन	-10.655
ियो	-10.6559
▁संस्थ	-10.6563
पा	-10.6571
▁बारी	-10.6574
▁ुति	-10.6614
▁र्मी	-10.6615
▁फंड	-10.6621
▁फा	-10.6624
▁t	-10.6625
▁ाएगा	-10.6632
▁ढा	-10.6637
▁तपुर	-10.6639
▁स्तु	-10.6643
▁तें	-10.6644
्रो	-10.6651
▁42	-10.6652
▁ोनी	-10.6655
▁रस्	-10.667
▁ैच	-10.6684
▁पीए	-10.6685
▁उल	-10.6685
▁ुड	-10.6695
▁UP	-10.6699
▁रिट	-10.6723
k	-10.6753
िस्ट	-10.6755
▁Ele	-10.6761
▁िनेश	-10.6768
▁ूर	-10.6772
▁कैश	-10.6774
▁टैक	-10.6775
▁रास्	-10.6777
▁कुम	-10.6777
▁ोकस	-10.6784
y	-10.681
▁होश	-10.6819
▁ोत्	-10.682
▁लच	-10.6854
▁जेडी	-10.6868
▁्वर	-10.687
▁निज	-10.6872
▁लेज	-10.6876
▁बेड	-10.6887
▁िवि	-10.6888
▁ुद्द	-10.6904
▁द्रा	-10.6914
▁नारे	-10.6923
▁अदा	-10.695
▁ॉस	-10.6954
▁राण	-10.6958
▁ैंस	-10.6963
श्च	-10.6965
▁ापत	-10.6976
▁सल	-10.6977
▁बीए	-10.6982
▁उसन	-10.6984
▁ोकर	-10.6999
▁ुनि	-10.7018
▁ED	-10.7023
▁स्टे	-10.7024
▁यंत	-10.7025
▁पेड़	-10.7026
▁हनी	-10.7035
▁्रोत	-10.7043
▁शक्त	-10.7058
▁सेक	-10.7066
▁्रमण	-10.7067
▁म्मत	-10.7068
िछ	-10.7084
▁िस्	-10.7095
d	-10.7098
▁टिंग	-10.7103
▁निव	-10.7111
▁तौ	-10.7139
▁षा	-10.7145
▁ियल	-10.7151
▁्रांत	-10.7161
▁ट्ठ	-10.7165
▁यप	-10.7187
▁घा	-10.7188
▁ापक	-10.7188
▁वस्था	-10.7191
▁मस	-10.7205
▁खल	-10.7213
20	-10.7216
▁ऑल	-10.7222
P	-10.7223
▁रामा	-10.7251
▁M	-10.728
▁छु	-10.7293
▁तिल	-10.7313
▁पीड़	-10.7316
▁मरी	-10.7317
एस	-10.7353
▁मः	-10.7363
▁िको	-10.7366
▁ेडी	-10.7396
▁अटल	-10.7397
▁डिस	-10.7399
▁आचार	-10.7428
▁te	-10.743
▁नक्	-10.7435
▁ुह	-10.7441
▁शिक	-10.7442
▁पंत	-10.745
लिया	-10.7455
▁लय	-10.7455
▁काले	-10.7457
▁्तान	-10.7471
▁IPL	-10.7473
▁्ले	-10.7487
▁चौर	-10.7491
▁रद	-10.75
▁मोट	-10.7519
▁ंधा	-10.7535
▁लस	-10.7542
▁थि	-10.7552
▁65	-10.7556
▁हाय	-10.7561
▁ईव	-10.7571
▁आलम	-10.7571
▁ीती	-10.7573
▁रेंस	-10.7577
▁लीज	-10.7578
▁ीसी	-10.7585
▁ैक्ट	-10.759
▁्टी	-10.7597
▁राक	-10.7599
▁V	-10.7601
▁38	-10.7604
▁वजन	-10.761
▁कृष्	-10.7616
▁टूर	-10.7616
▁ॉड	-10.7617
▁ज्	-10.7645
▁थम	-10.7647
▁वाग	-10.7649
ाध	-10.7653
▁ारात	-10.7655
▁AAP	-10.766
ho	-10.7664
12	-10.7691
▁पेम	-10.771
▁आधे	-10.7717
▁ारिया	-10.7721
▁झां	-10.7722
▁ढ़े	-10.7727
▁देन	-10.7729
▁तला	-10.7747
▁ंपा	-10.7761
▁शतक	-10.7783
▁जानत	-10.7787
▁मोर	-10.7814
ya	-10.7816
्लास	-10.7816
्र	-10.7818
▁nd	-10.7842
▁रक	-10.7851
▁यक	-10.7852
▁धो	-10.7854
▁द्दे	-10.7862
▁टें	-10.7873
▁फेल	-10.7879
▁मुख्	-10.7881
▁ैली	-10.7881
▁बहू	-10.7906
▁त्	-10.7911
▁लता	-10.7912
▁ईय	-10.7922
्फ	-10.794
▁ठाक	-10.796
▁ड्यू	-10.796
▁₹	-10.7966
▁me	-10.7972
▁ध्य	-10.7982
▁िजन	-10.7983
▁गुण	-10.7988
▁ैले	-10.7996
▁रती	-10.8022
▁निष	-10.8025
▁बाघ	-10.8036
▁टवा	-10.8036
▁ुं	-10.8047
▁कड़े	-10.8064
▁खत	-10.8071
▁रुपय	-10.8074
▁ीस	-10.8076
▁चेत	-10.8094
▁फु	-10.8101
▁्टेबल	-10.8142
िट	-10.815
▁ोहित	-10.8152
da	-10.8154
▁र्वा	-10.8158
▁ti	-10.816
▁उमस	-10.8164
▁ोस्ट	-10.8175
▁सौर	-10.8186
▁ठो	-10.82
▁बिश	-10.8208
DA	-10.8212
▁डिया	-10.8222
▁हां	-10.8225
▁ास्क	-10.8226
▁बीस	-10.8228
▁नारा	-10.8236
▁ालयों	-10.8244
▁शह	-10.8256
▁ाधा	-10.8258
▁्टि	-10.8273
▁ाच	-10.8279
▁ियार	-10.8282
▁्पी	-10.8294
▁फोट	-10.8301
▁्लिक	-10.8307
▁ैमर	-10.8307
रव	-10.832
▁ठान	-10.8321
▁जेश	-10.8329
▁नवा	-10.8331
▁F	-10.8332
▁दक	-10.8334
▁ड़िय	-10.8347
▁शरण	-10.835
▁ादि	-10.837
▁शनि	-10.8375
▁यंक	-10.8378
▁ंजू	-10.8399
▁िप्	-10.8416
▁ूरा	-10.842
▁थक	-10.8421
ीय	-10.8435
्घ	-10.8447
▁ेस्	-10.845
▁ंचन	-10.846
▁O	-10.8466
▁भगत	-10.8468
▁होम	-10.8471
▁नागर	-10.8484
▁सरो	-10.8488
▁्रतिभ	-10.8494
▁गद	-10.8501
▁विद्	-10.8502
▁लुक	-10.8515
ाच	-10.8521
▁लोगो	-10.8532
▁वारा	-10.8535
▁गुज	-10.8537
▁बैर	-10.8558
▁इंड	-10.8565
▁लाव	-10.8568
ेन	-10.858
ोर	-10.8581
8	-10.8585
ाना	-10.8596
▁बेट	-10.8601
▁जहर	-10.8606
g	-10.862
▁44	-10.8638
▁ारत	-10.8644
▁ोल्	-10.8653
▁नश	-10.8656
िलाफ	-10.8668
▁ढे	-10.8678
▁ूज	-10.868
▁ेहर	-10.8701
▁al	-10.8715
टोर	-10.8716
ीम	-10.874
▁सुधा	-10.8741
▁ुना	-10.8767
3	-10.8768
▁लाए	-10.8768
सुर	-10.8772
▁िष	-10.8775
70	-10.878
▁ानिय	-10.8786
▁यक्ष	-10.8787
▁ुटे	-10.8789
O	-10.8793
▁बिर	-10.8808
मपुर	-10.8813
▁फू	-10.8814
ुर्	-10.8815
▁देखे	-10.8822
▁ोब	-10.8826
▁िलना	-10.883
▁गरी	-10.8832
▁गये	-10.8835
▁टेंट	-10.8837
▁ामु	-10.8839
▁लिन	-10.8849
▁कल्	-10.8851
▁अतिथ	-10.8863
▁राया	-10.8865
▁्वि	-10.8871
▁चय	-10.8874
▁51	-10.8877
▁रुव	-10.8885
▁लोनी	-10.8896
▁ूली	-10.891
▁्वाल	-10.8911
▁रकर	-10.8914
▁िगर	-10.8953
▁ंजा	-10.8959
▁शिकाय	-10.8967
▁हारा	-10.8982
▁लका	-10.8984
▁ंटि	-10.8997
▁नित	-10.902
▁िसक	-10.9023
▁ृद्धि	-10.9024
▁मपुर	-10.9029
▁टीक	-10.9049
▁क्षत	-10.9051
▁टेस्	-10.9067
▁सोस	-10.907
▁ट्रो	-10.9091
▁39	-10.9106
▁re	-10.9115
▁ंपत	-10.9115
▁अभय	-10.9132
▁ेत	-10.9145
▁दाता	-10.9147
▁अड	-10.9153
▁ल्स	-10.9166
▁पड़ी	-10.9175
▁ष्क	-10.9186
शी	-10.9197
▁टाई	-10.9203
▁ुष्ट	-10.9211
▁46	-10.9225
ध्यम	-10.9228
▁ज़र	-10.9233
▁कपल	-10.9243
▁Indi	-10.9246
▁on	-10.9248
▁जाट	-10.9259
▁भूल	-10.9262
▁शं	-10.9273
▁AI	-10.9282
▁च्चे	-10.9288
▁बद	-10.9289
▁CCTV	-10.9292
▁ारिश	-10.9292
▁रेत	-10.9294
▁जागर	-10.9298
▁ुलस	-10.93
▁ेजर	-10.9311
▁गाना	-10.9322
▁थ्य	-10.9323
▁वितर	-10.9327
▁प्रक	-10.9341
तदान	-10.9353
▁लां	-10.9363
▁ारग	-10.9365
▁गड	-10.9368
▁युव	-10.9368
▁ुज	-10.9372
▁रवाल	-10.9385
▁दहन	-10.9392
ुकेश	-10.9397
कु	-10.94
▁W	-10.9405
▁िक्क	-10.941
▁ing	-10.9425
▁ेलो	-10.9425
गत	-10.9427
▁प्रत	-10.9441
▁योजन	-10.9445
▁दियों	-10.9449
▁ारद	-10.945
▁िज्	-10.9453
▁िरो	-10.9464
▁ानकार	-10.947
▁or	-10.9471
4	-10.9492
▁िजि	-10.9492
▁ेत्री	-10.9492
▁लह	-10.9493
▁सत्	-10.9495
▁विका	-10.9496
▁ऑप	-10.9496
▁हथ	-10.9497
10	-10.9498
▁ंचक	-10.9515
▁छवि	-10.9517
▁लवा	-10.9524
▁्द	-10.9533
▁41	-10.9542
▁फाई	-10.9548
▁Sab	-10.9553
▁घी	-10.9555
▁56	-10.9558
▁ार्ड	-10.9576
वर	-10.9586
▁ारित	-10.9587
हम	-10.9588
▁हाद	-10.9598
▁बई	-10.9618
ra	-10.9624
कार	-10.9629
▁लास	-10.9635
▁ुलाई	-10.9635
▁108	-10.9638
▁वाड	-10.9651
▁उड	-10.9665
▁ठी	-10.9676
▁ौरा	-10.9679
▁लार	-10.9706
▁ैश	-10.9707
्ट्	-10.9712
▁ोगी	-10.9714
▁ाके	-10.9731
▁वायर	-10.9734
ुई	-10.9751
▁डव	-10.976
▁शाद	-10.9761
ाफ	-10.9771
▁बैच	-10.9776
▁दुख	-10.9778
S	-10.9783
▁ूब	-10.9784
▁करि	-10.9799
▁लेंस	-10.9807
▁रात्र	-10.9819
▁झूठ	-10.9819
▁J	-10.9823
▁दरा	-10.9823
फ़	-10.9842
▁ैत	-10.9845
ेक्ट	-10.9846
▁कमा	-10.9862
▁43	-10.9862
▁रमण	-10.9865
▁कर्त	-10.987
▁लाड	-10.987
▁एक्	-10.9874
▁वक्	-10.9877
▁पंड	-10.9896
ैफ	-10.9903
▁िले	-10.9913
ायण	-10.9915
▁th	-10.9942
▁हत	-10.9945
एक	-10.9958
▁गां	-10.9964
▁िलान	-10.9978
▁रीक	-10.9984
▁मज	-10.9997
25	-11.0011
ro	-11.0015
▁फायद	-11.0017
▁रूर	-11.002
▁पोर	-11.0022
▁ख्या	-11.0022
▁ाठ	-11.0026
▁r	-11.0035
▁ंगो	-11.0037
▁गाम	-11.0049
SO	-11.0055
▁खिला	-11.0062
▁सीज	-11.0064
धी	-11.0078
ेंट	-11.0083
▁लब	-11.0106
▁फे	-11.0127
▁ुनिय	-11.0131
▁SP	-11.0152
▁समर्थ	-11.0161
▁लैब	-11.0162
▁ायत	-11.0163
▁ूला	-11.0169
ैड	-11.0205
▁हसन	-11.0213
▁सें	-11.0216
▁विभ	-11.022
▁ूट	-11.0223
▁र्धा	-11.0227
▁रूरत	-11.0229
▁प्रस	-11.0236
ान	-11.0239
▁इश	-11.0251
▁वेत	-11.0263
▁52	-11.0263
▁नाय	-11.027
▁तर्	-11.0298
▁थीम	-11.0307
त्स	-11.0313
▁कलन	-11.0323
िक्	-11.0326
▁चिंत	-11.033
▁आरा	-11.0334
▁द्य	-11.0345
▁47	-11.0359
▁मीक	-11.0384
▁ंसा	-11.0386
▁लीड	-11.0391
▁्रिय	-11.0397
ष्य	-11.0415
▁त्स	-11.0426
▁जार	-11.0427
▁धिक	-11.0432
ाद	-11.0449
▁Khan	-11.0481
▁टेड	-11.0486
ील	-11.0499
रद	-11.0511
and	-11.0513
▁इए	-11.0515
▁ेहत	-11.0516
▁1.	-11.0529
▁घोष	-11.053
▁ॉलो	-11.0536
▁ामन	-11.0536
▁छली	-11.0544
▁्यात	-11.0548
ET	-11.0548
▁la	-11.0554
▁गेम	-11.0556
▁ंजय	-11.0558
▁व्यू	-11.0583
▁्सी	-11.0596
रों	-11.0601
▁ाबी	-11.0603
जा	-11.0612
▁टिय	-11.0615
▁ोरी	-11.0615
▁दाल	-11.0625
▁ीए	-11.0654
▁तिम	-11.0655
▁K	-11.0668
णा	-11.0678
▁िरी	-11.0686
▁गोप	-11.0702
▁ास्	-11.0735
▁k	-11.0744
▁दाव	-11.0764
▁फो	-11.0778
▁चन	-11.0779
▁ुंद	-11.0803
▁कैच	-11.081
▁st	-11.0815
्लाई	-11.0822
▁ौह	-11.083
▁िल्	-11.0832
M	-11.0847
▁ंदगी	-11.0848
▁निदेश	-11.0851
m	-11.0856
▁िरा	-11.0866
▁र्ति	-11.0871
▁करी	-11.0873
▁नग	-11.0879
▁रश	-11.0879
▁विश्	-11.0888
▁ाइब	-11.0891
▁ास्त	-11.09
▁भागी	-11.0906
▁ंबि	-11.0924
▁्ध	-11.0931
▁72	-11.0938
ॉलोन	-11.0942
▁ोपी	-11.0955
▁बाह	-11.096
ok	-11.0961
सी	-11.0975
▁लहर	-11.0976
▁वनी	-11.0982
▁+	-11.0984
▁ाबा	-11.0991
▁E	-11.0993
▁छाप	-11.1017
▁ni	-11.1025
▁टेज	-11.1028
▁कॉर	-11.1033
▁e	-11.1036
▁्तर	-11.104
▁ैब	-11.1044
▁ोटो	-11.1047
▁संद	-11.1048
▁लै	-11.1055
▁बिल्ड	-11.1057
▁पूर	-11.1065
▁मीट	-11.1081
▁डिय	-11.1092
▁स्य	-11.1099
सिक	-11.1103
▁्रिप	-11.1104
▁बाब	-11.1106
▁्वज	-11.1116
▁ुग	-11.1131
"	-11.1135
▁ैज	-11.1143
▁Ka	-11.1148
▁बोध	-11.117
▁हन	-11.1174
▁ेन्द्	-11.1177
▁दत	-11.1188
वैध	-11.1196
▁िने	-11.122
▁माज	-11.1221
▁बचे	-11.1226
▁श्च	-11.1237
ce	-11.1238
▁हौ	-11.1242
▁भै	-11.1243
▁पयोग	-11.1249
▁AL	-11.1257
▁राने	-11.128
▁लिट	-11.1283
c	-11.1288
▁काज	-11.1293
▁यार	-11.1299
▁01	-11.1322
▁लात	-11.1331
▁वरण	-11.1335
▁रजी	-11.1345
▁ोशन	-11.1355
▁्टे	-11.1358
▁ेख	-11.1358
▁लाद	-11.1365
छ	-11.1369
▁रोष	-11.1386
▁इर	-11.1392
▁शय	-11.1396
▁ेलि	-11.1404
हित	-11.1421
ुद्र	-11.1436
▁ka	-11.1442
▁गवा	-11.1444
▁िफि	-11.1456
आई	-11.1462
GB	-11.1464
▁डॉग	-11.1472
▁ेके	-11.1485
▁85	-11.1487
▁नौत	-11.1487
▁ानद	-11.1497
▁आवेद	-11.1501
▁़र	-11.1501
▁थो	-11.1513
▁IAS	-11.1516
▁नमः	-11.1517
▁ामो	-11.1534
▁ed	-11.1537
F	-11.1538
▁्ता	-11.1549
▁सक	-11.1559
▁हिट	-11.1579
▁REA	-11.1583
▁मांक	-11.1585
▁ma	-11.1586
▁म्मी	-11.1586
▁टं	-11.1587
▁her	-11.1589
▁ानून	-11.1592
▁जर	-11.1618
▁रीत	-11.1632
▁शर्	-11.1644
▁बाढ़	-11.1658
▁सूर	-11.1662
▁प्ट	-11.1665
▁ैद	-11.1678
▁खोज	-11.1682
▁49	-11.169
▁ng	-11.1694
▁ालो	-11.1695
्यव	-11.17
▁शोक	-11.1705
▁अत	-11.1708
▁बुध	-11.1709
▁षण	-11.1714
▁द्वा	-11.172
60	-11.1721
▁ेपी	-11.1739
▁बाड	-11.174
▁पाक	-11.1767
▁समर्	-11.1771
▁छल	-11.1773
घु	-11.1776
▁कॉन	-11.1782
ेड	-11.1793
ld	-11.1802
▁शर्म	-11.1815
ta	-11.1818
▁माप	-11.1818
▁ड़ित	-11.1841
ाए	-11.1845
▁सवा	-11.1845
▁रला	-11.185
▁ैठ	-11.1877
▁्रह	-11.1878
▁सक्	-11.1884
▁चालन	-11.1903
क्र	-11.191
▁ाधि	-11.1942
▁र्ट्स	-11.1946
▁EV	-11.1947
▁एसए	-11.1973
▁टीए	-11.1973
▁02	-11.1979
ma	-11.1979
▁दिग	-11.198
▁निवा	-11.1989
▁de	-11.1995
▁पत्त	-11.2002
▁नकद	-11.202
▁िजिट	-11.2032
▁ta	-11.2033
ाव	-11.2034
▁्रव	-11.2035
9	-11.2037
▁क्रा	-11.2053
▁120	-11.2066
▁स्टा	-11.2067
▁क्षा	-11.2081
▁et	-11.2091
▁्तानी	-11.211
▁अप्र	-11.2117
ोल	-11.2122
▁ल्व	-11.2137
▁ाइवे	-11.2146
▁ेट्	-11.2153
▁जेंस	-11.216
▁राउ	-11.2162
▁ईद	-11.2168
▁यंस	-11.2173
th	-11.2181
▁कश	-11.2182
▁लज	-11.2196
▁रदा	-11.2199
▁थर	-11.2199
▁डीप	-11.2213
▁54	-11.2217
▁बाव	-11.2235
▁उपल	-11.2239
▁हास	-11.2251
▁झू	-11.2251
▁कैस	-11.2265
▁ाउ	-11.2266
▁ूटर	-11.2274
▁ऑफि	-11.2275
रमाण	-11.2276
▁Day	-11.2308
▁डैम	-11.2308
▁कोड	-11.2328
▁्रप	-11.2347
▁डीएस	-11.2351
▁थिय	-11.2364
▁बानी	-11.2365
▁Pro	-11.2396
-3	-11.2399
▁ारदा	-11.2415
▁एग्ज	-11.2418
▁ॉलर	-11.2425
▁यत	-11.246
▁li	-11.2469
▁कसा	-11.247
▁गित	-11.2471
▁फाइ	-11.2474
रख	-11.2474
▁होत्	-11.2483
▁मिया	-11.2486
▁िह	-11.2487
▁दबा	-11.2501
▁दग	-11.2509
n	-11.2514
▁राजस	-11.2535
▁ख्याल	-11.2559
▁हटान	-11.2582
हंग	-11.2602
री	-11.2619
▁वली	-11.2621
▁ेवा	-11.2621
▁ढ़ा	-11.2627
▁पाव	-11.2631
▁यकर	-11.2642
▁NE	-11.2642
▁at	-11.265
▁नक	-11.2655
▁लमा	-11.2667
त्न	-11.267
▁800	-11.2684
▁झलक	-11.2692
▁वर्स	-11.2692
▁ुक्	-11.271
▁िष्	-11.2716
▁्ची	-11.2721
दन	-11.2732
▁बत	-11.2732
▁िग्	-11.2735
र्ज	-11.2742
▁ंके	-11.2742
▁शे	-11.2759
ार्ग	-11.2764
▁ऋण	-11.277
▁मुला	-11.2774
▁मग्र	-11.2781
्रोफ	-11.2789
ाते	-11.2807
▁ंसी	-11.2823
▁58	-11.2828
▁खरा	-11.2838
▁आैर	-11.284
▁700	-11.284
▁लम	-11.2845
▁अय	-11.2871
▁फुल	-11.2893
इस	-11.2896
▁अन्	-11.2908
▁ादे	-11.291
षा	-11.2913
▁्ति	-11.2915
▁वीक	-11.2921
▁रें	-11.2937
▁़ान	-11.2946
▁ैंप	-11.2959
▁लखन	-11.2962
I	-11.2997
▁_	-11.3006
▁ॉइ	-11.3007
▁िक्षण	-11.3008
हज	-11.3014
▁ीक्ष	-11.3042
▁उर	-11.3064
-2	-11.3066
nd	-11.3067
रुण	-11.3068
▁ियान	-11.307
रात	-11.3077
▁ासक	-11.308
▁िपो	-11.3092
▁ऑफ़	-11.3092
▁ैसी	-11.3094
▁राजी	-11.31
▁नपु	-11.3101
▁्सो	-11.3107
▁फरा	-11.3125
▁ूरी	-11.3129
▁ैक्टर	-11.3132
▁दिस	-11.3145
▁ुल्ला	-11.3194
▁ाटन	-11.3234
▁्राउ	-11.325
SP	-11.3255
▁IND	-11.3268
▁ंन	-11.328
▁ट्रोल	-11.328
▁न्व	-11.3291
▁िपक	-11.3291
▁आएं	-11.3306
सर	-11.331
ोर्ड	-11.3328
▁नद	-11.3335
▁ाज़	-11.3349
▁्याद	-11.3349
5%	-11.337
▁ारन	-11.3373
▁मझ	-11.338
▁त्रा	-11.3403
र्च	-11.3412
▁किल	-11.3421
▁सहाय	-11.3423
▁Shar	-11.3426
ून	-11.3432
▁ान्	-11.3446
▁H	-11.3463
▁ce	-11.3468
▁el	-11.3478
▁सले	-11.3489
▁आदम	-11.349
▁ुष	-11.3496
▁ैनी	-11.3502
▁दित	-11.3503
▁ीमा	-11.3508
▁सीब	-11.3509
जब	-11.3515
▁फरी	-11.3516
▁ुल्ल	-11.3526
▁इसस	-11.3549
▁र्ष	-11.3553
ti	-11.3554
ैन	-11.3555
ूव	-11.3567
▁जानक	-11.358
▁पैक	-11.3585
▁तट	-11.36
▁मीद	-11.36
▁रेक	-11.3616
▁िनि	-11.3621
गल	-11.3626
▁ुब	-11.3632
र्फ	-11.3638
▁जाक	-11.3643
िवाद	-11.3643
▁ढेर	-11.3649
▁्सि	-11.3657
▁िर्	-11.3661
्जर	-11.3662
▁तवा	-11.367
▁De	-11.3683
hi	-11.3687
▁ar	-11.3697
▁han	-11.3707
▁्ण	-11.374
▁त्या	-11.3744
▁्रैक	-11.376
▁ाफ	-11.3762
▁Up	-11.3765
▁ाहु	-11.3773
▁साइक	-11.3789
▁an	-11.3796
▁ीपा	-11.3826
r	-11.3827
▁ेबाज	-11.3832
▁गाई	-11.3843
▁iP	-11.3844
▁िकी	-11.3851
▁03	-11.3853
टा	-11.3853
▁समर	-11.3859
▁Go	-11.386
▁मं	-11.3875
▁350	-11.3879
▁67	-11.3881
सा	-11.389
▁57	-11.3895
▁ोगे	-11.3903
▁बस्त	-11.3933
ेंड	-11.3943
▁तंज	-11.3943
▁लैस	-11.3944
▁तव	-11.3952
▁ग्ध	-11.3956
▁नेश	-11.396
▁पेड	-11.3962
▁ग्ल	-11.4009
▁हत्	-11.4012
ति	-11.4014
▁र्ता	-11.4024
▁रेण	-11.4025
▁ेखक	-11.4033
▁06	-11.404
▁भंग	-11.4043
यह	-11.4054
▁मॉल	-11.4059
▁बॉस	-11.4061
▁्यार	-11.4083
िए	-11.409
SI	-11.4094
▁ऑय	-11.4098
▁निश	-11.4099
ैंक	-11.4102
▁खरी	-11.4114
▁्को	-11.4125
▁हण	-11.4129
▁पमा	-11.413
▁नवी	-11.4139
▁रना	-11.416
▁यस	-11.4166
ही	-11.4168
▁ुर्ग	-11.4184
▁रक्ष	-11.4189
▁ाहि	-11.4193
▁भद	-11.4194
▁सीटी	-11.42
▁सप्त	-11.4202
▁मेडि	-11.4208
▁्की	-11.4209
▁्षण	-11.4217
▁व्	-11.4218
▁वक	-11.4222
▁जवा	-11.4227
▁ोर्	-11.4229
रि	-11.4234
▁ांदी	-11.4242
▁ैव	-11.4245
er	-11.4248
▁05	-11.4258
ुए	-11.4271
▁हरिय	-11.4278
▁सिं	-11.4279
▁कमि	-11.4286
▁कमर	-11.4293
ूद	-11.4314
▁रैल	-11.4334
▁संज	-11.4345
ओ	-11.4357
्चि	-11.436
▁ौक	-11.4369
▁आलू	-11.4383
HO	-11.4387
re	-11.4404
▁र्चा	-11.4421
▁ागी	-11.4424
कड़	-11.4451
टर	-11.4455
▁परव	-11.4473
▁नमी	-11.4475
▁डील	-11.4482
▁ॉफ	-11.4488
▁्रभार	-11.449
▁shi	-11.4503
▁कारो	-11.4508
बी	-11.4509
▁पिच	-11.4511
▁टख	-11.4514
▁ya	-11.4539
▁लोम	-11.4545
▁बची	-11.4546
ंच	-11.4553
▁आईं	-11.4569
▁ंग्ल	-11.4569
▁ठप	-11.457
▁इच	-11.4574
▁रध	-11.4582
▁प्रभा	-11.4594
day	-11.4595
▁to	-11.4605
▁59	-11.4608
▁यद	-11.4613
▁मेड	-11.4614
ुगत	-11.4615
▁53	-11.4618
ँ	-11.4625
▁ासि	-11.4626
15	-11.4634
ल्प	-11.467
-1	-11.4689
▁्वित	-11.4689
▁उच	-11.4691
▁hi	-11.4695
▁रप्	-11.471
p	-11.4751
▁बंग	-11.4761
▁िणी	-11.4763
▁ईश	-11.4766
▁mi	-11.4768
▁99	-11.4777
▁Re	-11.4779
▁खन	-11.4782
▁फन	-11.4787
▁वित	-11.48
▁लियो	-11.481
▁64	-11.4812
L	-11.4818
▁रिश	-11.4823
ad	-11.483
▁हाे	-11.485
चा	-11.4853
▁^	-11.4853
▁सुध	-11.487
▁ोहा	-11.4874
R	-11.4879
vi	-11.4893
▁i	-11.4897
▁On	-11.4913
▁ओव	-11.4938
हर	-11.4938
▁मनु	-11.4947
नि	-11.4967
▁पहु	-11.4967
▁बड	-11.497
▁ानू	-11.4974
▁शब	-11.4979
▁वों	-11.5
▁ृद्ध	-11.5004
▁फार	-11.5034
▁दीन	-11.5036
-4	-11.5037
▁रॉय	-11.504
▁हवन	-11.5042
▁अट	-11.5043
▁मृ	-11.5061
▁भट	-11.5077
▁बांग	-11.5098
▁िख	-11.51
▁्लि	-11.5108
▁वश्य	-11.5137
▁यी	-11.514
▁ंदि	-11.5145
▁िरफ्त	-11.5148
▁ुका	-11.5156
▁स्पी	-11.5166
▁बचत	-11.5166
▁गात	-11.5191
▁मग	-11.5194
▁िरि	-11.5209
▁पीस	-11.5211
▁बाक	-11.5212
▁जरि	-11.5243
▁एआ	-11.5246
▁68	-11.5253
▁चलन	-11.528
▁डाक	-11.5284
ni	-11.5314
▁राहा	-11.5332
▁66	-11.5336
रदीप	-11.5344
▁07	-11.5352
या	-11.5361
▁Sha	-11.5371
▁वट	-11.5411
▁सैफ	-11.5414
▁बैन	-11.5427
T	-11.5427
▁ताओ	-11.5455
▁सेल्स	-11.5457
▁र्मा	-11.5459
▁युग	-11.5472
▁नुस	-11.549
▁सटे	-11.5504
▁भास	-11.5511
▁कुर	-11.5524
▁ैसला	-11.5526
▁्यर	-11.5528
▁सूत	-11.5529
▁SC	-11.5533
▁Lo	-11.5544
▁Mah	-11.5559
▁यादा	-11.5586
ेल	-11.5593
▁हारी	-11.5648
पस्थ	-11.5653
▁ावि	-11.5662
▁लक्	-11.5663
डियो	-11.5676
▁जिल	-11.5679
▁78	-11.5684
▁ूच	-11.5685
▁धूल	-11.5688
▁95	-11.5693
▁़त	-11.57
▁गिरफ	-11.5703
▁सिव	-11.5723
ानते	-11.575
▁र्प	-11.5754
▁ेटी	-11.5754
▁भग	-11.5777
▁रई	-11.5778
▁िसन	-11.5781
▁62	-11.5788
▁त्ये	-11.5802
▁खाल	-11.5814
▁ुंब	-11.5833
▁डीन	-11.5841
▁छी	-11.5842
ताओं	-11.5853
▁Wea	-11.5867
▁SUV	-11.587
▁गढ	-11.5872
▁ICC	-11.5873
▁ापु	-11.5876
▁एपल	-11.5894
▁क्षि	-11.5909
▁Mod	-11.593
▁le	-11.5947
▁केशन	-11.5951
▁कवि	-11.5952
▁िनार	-11.5954
▁04	-11.5976
▁जारो	-11.5979
▁जेई	-11.5988
▁नीच	-11.5992
▁दौड़	-11.5996
▁61	-11.5997
टेशन	-11.6021
▁प्रथ	-11.6023
▁फिस	-11.6036
▁ss	-11.6045
▁बढ़ी	-11.6047
▁कड	-11.6081
▁RSS	-11.6086
▁ण्	-11.6132
▁शू	-11.6132
▁ाशि	-11.615
%	-11.6157
▁जॉन	-11.6175
▁of	-11.6175
▁स्स	-11.6175
▁नुमा	-11.618
▁षम	-11.6193
▁समस	-11.6194
▁रोब	-11.62
▁िं	-11.6209
▁ड़की	-11.6234
रांत	-11.6237
ैश	-11.6241
▁450	-11.6243
▁महे	-11.6258
इयों	-11.6258
टी	-11.6274
▁तभ	-11.6287
▁टान	-11.6295
▁्टेट	-11.6296
▁ालिक	-11.6297
▁जुआ	-11.6315
▁बोझ	-11.6317
va	-11.632
▁जट	-11.6341
▁नौकर	-11.6341
▁81	-11.635
▁मले	-11.635
▁श्क	-11.6351
rat	-11.6359
▁शेर	-11.6362
▁रका	-11.6364
▁x	-11.6383
▁्के	-11.6386
;	-11.6388
▁To	-11.6395
▁चो	-11.6402
▁दोप	-11.6412
▁स्ता	-11.6413
▁ॉस्	-11.6433
▁दिर	-11.6442
▁es	-11.6446
▁खां	-11.6459
▁गर्	-11.6461
na	-11.6472
▁चंड	-11.6476
मल	-11.6478
▁प्रि	-11.6488
मो	-11.6496
▁वश	-11.6504
75	-11.651
▁ेक्	-11.6512
▁भर्त	-11.6538
▁Ind	-11.654
ंदर	-11.6548
▁नाए	-11.655
▁ri	-11.6556
▁स्टो	-11.6561
▁ीरि	-11.6563
▁जूर	-11.6565
▁Pric	-11.6583
▁तंग	-11.6596
▁पदो	-11.6598
नों	-11.6601
▁ताव	-11.6603
▁भक्	-11.6619
▁हादस	-11.6621
▁णन	-11.6628
▁एश	-11.6637
▁हना	-11.6654
▁2.	-11.6665
▁com	-11.6673
▁US	-11.6677
▁U	-11.6687
▁्ट्रा	-11.669
बल	-11.6691
▁विभा	-11.6695
24	-11.671
ाहौ	-11.6752
▁टम	-11.676
▁ीदा	-11.6784
▁डिं	-11.6801
▁ट्रे	-11.6809
▁Cha	-11.6815
▁जेट	-11.6815
न्	-11.6816
PS	-11.6817
▁हं	-11.6849
▁िश्त	-11.6867
▁यना	-11.6875
▁भूम	-11.688
▁गे	-11.6906
देश	-11.6915
▁नब	-11.6924
▁कुं	-11.6961
▁मधु	-11.701
▁Pu	-11.7015
ठबंध	-11.702
▁सदी	-11.7026
▁मुद्	-11.7027
▁rt	-11.7043
ोटा	-11.7055
▁IM	-11.706
-0	-11.7061
ly	-11.7062
▁नकल	-11.7066
ve	-11.7072
▁नका	-11.7088
्रु	-11.7094
▁्यां	-11.7104
्ट्र	-11.7106
▁फ्ला	-11.7115
K	-11.7123
▁ुव	-11.7137
एफ	-11.7142
▁बैज	-11.7147
▁चें	-11.7149
बर	-11.7169
नक	-11.7174
▁जयप	-11.7191
▁फैसल	-11.7203
▁चूक	-11.7217
▁रजा	-11.7217
▁sha	-11.7218
▁जुर	-11.7221
▁िष्ठ	-11.7222
▁करन	-11.7247
▁ईन	-11.7251
▁ीराम	-11.7251
▁शौक	-11.7251
▁पिक	-11.7252
▁69	-11.7252
▁3.	-11.7254
▁तं	-11.7259
▁शनल	-11.7282
▁pa	-11.729
▁जीप	-11.7294
▁se	-11.7307
ेगी	-11.7327
▁धवन	-11.7342
▁हरिया	-11.7363
▁ओझा	-11.7367
▁ांध	-11.7367
▁दिला	-11.7368
▁°	-11.7369
▁74	-11.7374
▁ुरे	-11.7383
▁Mo	-11.7412
फर	-11.742
li	-11.7432
्रेट	-11.7446
▁76	-11.7458
▁Ma	-11.7458
▁तनी	-11.7492
▁खपत	-11.7497
28	-11.7516
▁रदान	-11.7519
▁तै	-11.7522
▁Kar	-11.7538
X	-11.7539
▁वाएं	-11.7547
.4	-11.7557
ox	-11.7557
▁DC	-11.7557
▁ंय	-11.7569
51	-11.7594
▁याच	-11.7597
▁ापि	-11.7602
▁्ला	-11.7604
CB	-11.7616
▁AQI	-11.7618
▁w	-11.7618
▁mA	-11.7618
▁ईटी	-11.7632
जत	-11.7634
▁भ्य	-11.7645
▁इय	-11.7664
▁गें	-11.7664
ानों	-11.7665
ाशी	-11.7677
▁ुवा	-11.77
▁ैस	-11.7704
▁63	-11.7717
▁4.	-11.7719
▁िवा	-11.774
▁लियर	-11.7744
▁लना	-11.7744
▁वॉर	-11.7752
▁िसा	-11.7755
▁ऑपरे	-11.7757
▁बैक	-11.7768
बू	-11.7774
▁जश	-11.7778
▁जड़	-11.7787
▁NH	-11.7787
दर	-11.7787
aj	-11.7797
ri	-11.7812
▁टमा	-11.7817
▁प्रब	-11.7827
ाणा	-11.7828
▁्नर	-11.7832
▁वड	-11.7836
ुआ	-11.7837
▁थापन	-11.7858
▁कैम	-11.7865
▁आदत	-11.7878
▁़े	-11.7879
▁सैम	-11.7881
▁ीडिय	-11.7882
▁ुष्	-11.7885
▁्वी	-11.7887
▁ंद्	-11.7893
▁180	-11.7899
▁Wor	-11.7902
▁टैग	-11.7906
▁उद	-11.7907
▁ैंग	-11.7908
▁ौं	-11.7942
▁In	-11.795
▁वध	-11.7959
▁Prad	-11.7966
निय	-11.797
▁09	-11.7972
MS	-11.7981
▁पचा	-11.7995
▁नड	-11.7996
▁Ram	-11.8007
▁77	-11.8009
▁*	-11.801
▁ty	-11.8023
▁्ने	-11.8037
▁मोड़	-11.8043
▁ुद	-11.8045
▁िटर	-11.8046
ng	-11.806
▁ूबर	-11.8076
▁मौस	-11.8089
ेद	-11.8115
▁धवा	-11.8129
14	-11.8129
▁ंदो	-11.8146
▁खाया	-11.8149
▁सगे	-11.8157
▁्तु	-11.8158
▁टच	-11.8161
▁ामू	-11.8167
21	-11.8169
ीड	-11.817
▁्रेश	-11.818
▁भगा	-11.8187
▁(1	-11.8201
▁73	-11.8223
gh	-11.8233
▁पंचा	-11.8238
ंद	-11.8243
▁Z	-11.8271
▁71	-11.8274
▁शॉप	-11.8278
▁खेप	-11.828
▁tri	-11.828
▁ुस	-11.8292
ः	-11.8297
▁MM	-11.831
▁याय	-11.8331
▁वाच	-11.835
▁अस्	-11.8359
▁्रय	-11.836
▁फैक	-11.8364
▁लदा	-11.8368
▁भ्र	-11.8383
▁काब	-11.8408
ार्	-11.841
▁a	-11.8423
▁ासिय	-11.8423
ल्ल	-11.8426
▁क्य	-11.8429
▁लेगा	-11.8445
▁सोर	-11.8447
▁Mar	-11.8451
SC	-11.8476
CI	-11.8485
वर्त	-11.8486
se	-11.8504
▁धूम	-11.8539
▁92	-11.8547
▁Video	-11.8552
▁Kap	-11.8559
W	-11.856
▁ट्य	-11.8562
▁रॉड	-11.8568
▁सुभ	-11.8601
▁णों	-11.8604
▁ाहा	-11.8615
▁िवर्	-11.8643
▁जों	-11.8645
17	-11.866
▁सीख	-11.8661
▁मर्	-11.8678
▁लड़ा	-11.868
▁VIDEO	-11.8693
पोर	-11.8694
▁4-5	-11.8703
PSC	-11.8714
▁ाहू	-11.8724
▁ुनिया	-11.8755
▁्लॉ	-11.8762
▁भगवा	-11.8766
▁AC	-11.8768
st	-11.877
le	-11.8777
▁ूजा	-11.8788
हल	-11.8798
▁दुष	-11.8802
▁लगन	-11.8807
▁बोस	-11.8813
▁जिसमे	-11.8839
▁भूष	-11.8844
▁ेशी	-11.8845
▁सुब	-11.8849
▁िरोध	-11.8852
▁सिट	-11.8853
▁आये	-11.8858
▁Off	-11.887
▁चरम	-11.8877
▁एग	-11.8882
U	-11.8884
▁ूष	-11.8894
▁डमी	-11.8895
▁्टै	-11.89
▁Sing	-11.8901
▁बरी	-11.891
▁जीन	-11.8932
2)	-11.8933
▁आड़	-11.8934
▁मुन	-11.8944
▁र्मि	-11.8953
▁7.	-11.8978
▁}	-11.8981
▁खौफ	-11.8981
मु	-11.8987
▁हड	-11.8995
▁संचा	-11.9003
ॉर्	-11.9015
िव	-11.9026
▁समन	-11.9038
▁83	-11.9049
▁मूर	-11.9052
ीष	-11.9076
दु	-11.9078
▁ोबा	-11.9083
▁सुं	-11.9087
▁िरदा	-11.9115
▁ृष	-11.9127
▁उध	-11.913
30	-11.9135
्किल	-11.9136
▁०	-11.9139
ीसदी	-11.914
▁ाढ	-11.9143
▁lt	-11.9153
▁Appl	-11.9154
▁140	-11.9159
16	-11.9164
▁फिल्	-11.9164
▁धि	-11.9169
ॉट	-11.9184
.3	-11.9189
it	-11.9194
▁Su	-11.9247
▁Ra	-11.9251
▁कृष	-11.9261
▁म्मा	-11.9283
ॉक	-11.929
▁ूचि	-11.9291
▁ंटा	-11.931
▁Pol	-11.9319
▁Raj	-11.9332
mi	-11.9344
▁Ki	-11.9346
बन	-11.9354
▁डीग	-11.9379
19	-11.9381
▁IT	-11.9399
▁पॉल	-11.9399
ter	-11.94
ST	-11.9405
▁84	-11.9435
ck	-11.944
▁डस्ट	-11.944
▁िध	-11.944
▁निस	-11.9448
-6	-11.9452
ka	-11.9456
▁88	-11.946
▁ोतवा	-11.9469
▁्ग	-11.9471
▁ीक्षा	-11.9474
▁्मान	-11.9483
▁Sa	-11.9485
रक्	-11.9486
▁तिह	-11.9488
▁शीट	-11.9491
up	-11.9497
▁लेक	-11.9508
▁महू	-11.9508
▁DM	-11.9509
▁Vi	-11.9512
mar	-11.9579
▁DSP	-11.9583
lus	-11.9589
▁BC	-11.9599
▁काउ	-11.9615
▁रवर	-11.9621
▁्का	-11.9632
▁त्प	-11.9644
्हा	-11.9645
जो	-11.9665
44	-11.9676
▁मची	-11.9679
▁हें	-11.9708
▁फाय	-11.9717
.1	-11.9722
▁चर्	-11.9723
@	-11.9739
▁साद	-11.974
▁शंका	-11.9745
▁ज्य	-11.9749
▁अपरा	-11.9773
▁ईवी	-11.9789
▁ंकल	-11.9807
▁ीक्	-11.9812
▁बसा	-11.9818
▁तरी	-11.982
▁SI	-11.984
23	-11.9857
▁ir	-11.9889
▁मैस	-11.9894
▁STF	-11.9898
▁Man	-11.9898
▁ro	-11.9911
प्र	-11.9927
▁जिम्	-11.9934
िम्म	-11.9936
▁्मा	-11.9953
ुसार	-11.9964
▁िदा	-11.9973
▁ND	-11.9986
▁नून	-11.9994
▁ur	-12.0008
▁म्मे	-12.0015
▁जाह	-12.0015
▁शां	-12.003
त्र	-12.0031
▁भीत	-12.0035
oll	-12.0042
मारी	-12.0055
▁मऊ	-12.0059
▁आफ	-12.0073
▁पूल	-12.0075
▁6.	-12.0078
तंब	-12.0085
▁प्रभ	-12.0094
ैंस	-12.0117
चक	-12.0128
▁गुड	-12.0134
▁शिका	-12.0137
32	-12.0138
र्म	-12.0148
90	-12.0163
▁दव	-12.0173
▁ईड	-12.018
▁जता	-12.0184
▁08	-12.0196
▁o	-12.0208
▁gov	-12.0223
▁ोषित	-12.0227
▁ीकी	-12.0227
26	-12.0237
z	-12.0246
▁ूव	-12.0277
▁ेबस	-12.0289
ाह	-12.029
22	-12.0305
▁ha	-12.0327
43	-12.0337
▁िंदू	-12.0344
▁96	-12.0344
▁98	-12.0347
▁िवर	-12.0356
ाज	-12.0362
▁महत्	-12.038
▁Nav	-12.038
खा	-12.0388
▁राजक	-12.0389
▁NCP	-12.039
▁SDM	-12.0391
▁मग्	-12.0394
▁ंट्री	-12.0394
▁कटा	-12.0407
RF	-12.0407
▁िकेट	-12.0408
▁याव	-12.0425
▁मिश	-12.0427
▁2'	-12.0427
▁650	-12.0433
me	-12.0468
▁सपो	-12.0476
▁Do	-12.048
ाँ	-12.0485
▁लगाता	-12.0489
्नी	-12.0489
ews	-12.053
▁िखा	-12.0535
▁vi	-12.0538
▁घटी	-12.0539
▁मौज	-12.054
▁RCB	-12.0559
▁कंट	-12.0569
▁ुमार	-12.0574
▁UG	-12.0581
▁Die	-12.0581
किस्	-12.0584
AI	-12.0594
▁Pet	-12.0599
वेश	-12.0608
िनार	-12.0645
▁ीरी	-12.0647
▁Ke	-12.0662
▁एसआ	-12.0666
▁ानो	-12.0675
▁97	-12.0677
▁पिय	-12.068
▁वाप	-12.0711
▁Mu	-12.0712
▁ब्य	-12.0712
वुड	-12.0714
ंगाल	-12.0726
IT	-12.0732
-8	-12.0742
▁सड़	-12.0747
प्	-12.076
▁दस्ता	-12.0776
▁रां	-12.08
MD	-12.0808
रंभ	-12.0809
▁नाट	-12.0875
जी	-12.0882
▁91	-12.0889
▁हाड	-12.0917
▁तीस	-12.0919
▁शौ	-12.0926
▁खाक	-12.093
▁ढह	-12.0939
▁सिस्	-12.0942
्क	-12.0944
▁Hi	-12.0945
▁र्सि	-12.0972
्रेस	-12.0974
▁ऋत	-12.1015
▁ुध	-12.102
▁AD	-12.1029
▁इंद	-12.1032
▁Po	-12.1034
▁सीर	-12.1045
▁82	-12.1047
अब	-12.1054
ch	-12.1084
गन	-12.1086
▁Bho	-12.1087
▁Aut	-12.1089
▁म्म	-12.1097
ंबर	-12.1098
तोष	-12.1109
▁Ji	-12.1116
िर	-12.1123
▁nav	-12.1128
▁किय	-12.1131
▁240	-12.1134
▁5.	-12.1138
▁y	-12.1144
▁93	-12.116
▁79	-12.1173
ru	-12.1197
▁Cas	-12.1215
▁हर्	-12.124
▁रची	-12.1247
Y	-12.1255
ंधी	-12.1257
▁िखाया	-12.1267
37	-12.1278
▁ेडि	-12.1292
sh	-12.1306
45	-12.1307
DP	-12.1312
▁wal	-12.1314
▁94	-12.132
ada	-12.1325
w	-12.1326
▁खीर	-12.1342
▁्वच	-12.1346
▁्जन	-12.1353
ोटे	-12.1357
▁p	-12.136
▁िल्ली	-12.1364
▁Har	-12.1371
LA	-12.1391
▁कप्	-12.1391
▁मठ	-12.1397
▁Ru	-12.14
▁मेष	-12.1403
▁चुक	-12.1404
▁ंचा	-12.1405
िज्ञ	-12.1421
थक	-12.1423
▁दुआ	-12.1426
▁Ar	-12.1432
la	-12.1445
▁SIT	-12.1453
▁विच	-12.1455
▁Panc	-12.146
55	-12.1461
▁रवाही	-12.1463
po	-12.1473
▁क्यो	-12.1475
▁pur	-12.148
▁Ed	-12.1528
▁मौन	-12.1532
▁ारती	-12.1538
▁िकर	-12.1541
27	-12.1542
▁Res	-12.1542
▁लीव	-12.1543
▁रिका	-12.1559
▁ुदा	-12.1568
03	-12.1572
▁घटक	-12.1604
!	-12.1609
▁g	-12.1614
▁ङ	-12.1642
MC	-12.1645
EO	-12.1652
▁बल्ले	-12.1652
▁Dev	-12.1662
▁शमी	-12.167
▁(4	-12.1692
▁षि	-12.1696
▁्वार	-12.1709
cs	-12.1722
si	-12.1737
eat	-12.1743
▁चैन	-12.1754
▁उपय	-12.1805
48	-12.1809
▁ियाना	-12.1818
ौज	-12.1818
▁मका	-12.1819
▁खेर	-12.1832
▁ागो	-12.184
▁ुमा	-12.1842
▁बढ	-12.1843
▁ल्या	-12.1853
▁अक	-12.1855
ेवी	-12.1861
88	-12.1863
▁SD	-12.1865
NG	-12.1867
▁ैक्	-12.188
ूट	-12.1887
▁d	-12.189
el	-12.1903
▁िषे	-12.1917
65	-12.1918
हे	-12.192
▁जव	-12.1922
SF	-12.1965
▁86	-12.1992
▁मिका	-12.1993
PO	-12.2024
ोई	-12.2055
▁2.0	-12.2055
▁ch	-12.2059
ja	-12.2059
▁्मच	-12.2062
▁डरा	-12.2064
▁देंग	-12.2079
रण	-12.208
▁ेडिय	-12.209
▁चेज	-12.2098
खर	-12.2103
▁आओ	-12.2105
▁रते	-12.2107
tra	-12.211
▁गाए	-12.2114
▁NS	-12.2165
टन	-12.2168
▁तां	-12.2168
▁SA	-12.2199
▁पढ	-12.2246
▁IP	-12.225
▁िस्से	-12.2254
▁संपत	-12.2262
▁ूनी	-12.2265
▁बच्	-12.2288
▁ुप्	-12.2292
▁CA	-12.2297
▁Air	-12.2333
▁लेग	-12.2334
ंबो	-12.234
▁जल्	-12.2362
▁ोरि	-12.2366
ूह	-12.2367
▁बिह	-12.2377
िल्म	-12.2384
▁hor	-12.2433
▁दखल	-12.2435
▁ियुक्	-12.2436
▁विक	-12.2465
at	-12.2472
▁ढ़ाई	-12.2478
सल	-12.2516
▁SE	-12.2524
र्ती	-12.2544
▁वाम	-12.2559
▁यूट	-12.2561
76	-12.26
वाह	-12.26
लन	-12.2603
▁ईक	-12.2614
.9	-12.2618
SK	-12.2623
▁मीडि	-12.2632
▁ोकन	-12.2643
72	-12.2645
▁Ku	-12.2654
▁विष्	-12.2656
33	-12.2676
▁वचन	-12.2682
▁राहु	-12.2716
40	-12.273
ें	-12.2739
घन	-12.274
-5	-12.2745
▁TV	-12.276
▁मौक	-12.2773
34	-12.2799
▁यूर	-12.2848
ूख	-12.2848
▁मॉड	-12.2867
▁PA	-12.2872
▁ver	-12.2875
▁योज	-12.2881
77	-12.289
▁दात	-12.2906
▁nc	-12.2913
▁उम्	-12.292
▁ियोज	-12.294
▁व्र	-12.2948
▁भला	-12.2957
▁हंग	-12.2962
E	-12.2971
▁करत	-12.2978
ंभ	-12.2979
▁जस्ट	-12.2982
▁am	-12.2985
ेस	-12.2993
▁हमे	-12.3006
▁nda	-12.3007
▁बीब	-12.3014
▁Rai	-12.3018
▁्यत	-12.3041
06	-12.3066
▁ीडि	-12.3069
▁तिव	-12.3071
द्धि	-12.3071
▁http	-12.3072
ala	-12.3074
▁फट	-12.3079
मेंट	-12.3082
▁कहर	-12.3105
▁कोष	-12.3112
▁िसान	-12.3114
▁Chat	-12.3119
▁Goo	-12.312
▁ोटि	-12.3138
41	-12.314
एशन	-12.3144
▁OB	-12.3147
▁Y	-12.3155
▁Car	-12.3188
▁रोहि	-12.319
▁87	-12.3197
▁फ्ता	-12.3204
▁हाट	-12.3212
▁हानी	-12.3213
ol	-12.3244
▁रछ	-12.3251
35	-12.3263
ाघ	-12.327
CP	-12.3284
▁अगस्	-12.3286
▁=	-12.3294
▁साग	-12.3294
▁ुलाय	-12.3297
▁b	-12.3316
▁for	-12.3316
ate	-12.3321
29	-12.336
ift	-12.3415
il	-12.3415
▁DG	-12.343
▁मियो	-12.3459
▁Bha	-12.346
तह	-12.3478
▁Mand	-12.3478
▁ारि	-12.3481
ive	-12.3495
▁Bud	-12.3499
▁हराय	-12.3507
▁New	-12.3521
▁Rahu	-12.3521
▁NIA	-12.3522
31	-12.3526
xy	-12.3527
▁हुं	-12.3528
.0	-12.3547
▁Chu	-12.3547
▁Ek	-12.3554
▁चीख	-12.3554
▁अंश	-12.3562
▁साउ	-12.3564
in	-12.357
▁gl	-12.3575
िष्य	-12.3586
▁Q	-12.3614
di	-12.363
80	-12.3673
ड़ा	-12.3678
▁OT	-12.3694
-7	-12.3716
▁ऑस्	-12.3729
▁Sal	-12.3735
▁ुत्	-12.3746
&	-12.3754
▁सईद	-12.3755
ॉम	-12.3763
▁लं	-12.3772
JI	-12.3774
▁ुनव	-12.3777
▁ामां	-12.3785
IM	-12.3786
▁89	-12.3803
▁आरए	-12.3829
ूड	-12.3861
▁िली	-12.3868
▁चलो	-12.3871
▁्दा	-12.3876
▁f	-12.3896
ड़क	-12.3898
शु	-12.3937
▁h	-12.3942
▁तानी	-12.3958
▁पैड	-12.3958
▁चिप	-12.3981
al	-12.4
han	-12.4002
▁ठेस	-12.4007
▁दोनो	-12.4017
har	-12.4018
96	-12.4019
▁कवच	-12.4031
▁ST	-12.4035
49	-12.4037
▁हम्म	-12.404
▁ck	-12.4043
▁डिश	-12.4079
▁ीपु	-12.4109
95	-12.4129
▁Pak	-12.4133
mp	-12.4135
8%	-12.414
▁िकित	-12.4151
▁लॉन	-12.418
▁तूल	-12.4211
68	-12.4214
▁ML	-12.4217
ग्रा	-12.4219
▁Ran	-12.4219
▁mb	-12.4221
▁ईब	-12.4229
र्ल्	-12.4232
प्ला	-12.4233
▁Li	-12.4235
▁Gand	-12.4241
18	-12.4245
▁आध	-12.4255
▁Hind	-12.426
LED	-12.4262
ne	-12.4262
▁कानो	-12.4263
▁मढ़	-12.4276
▁िज्ञ	-12.4278
▁ठे	-12.4282
▁102	-12.4289
▁टफ	-12.4292
▁पत्न	-12.4294
▁INDI	-12.4294
ोनो	-12.4304
▁कांग	-12.4315
▁ct	-12.4327
▁ुलि	-12.4349
54	-12.4353
v	-12.4357
▁दर्	-12.4358
▁्तन	-12.4365
▁Ya	-12.4389
11	-12.4397
मा	-12.4406
धीश	-12.4409
आज	-12.4413
▁मूड	-12.4422
▁Du	-12.4426
▁CI	-12.4441
पत	-12.445
▁उलट	-12.4451
▁Pur	-12.4461
x	-12.4461
▁्पिट	-12.4474
ऽ	-12.4486
▁ग्रा	-12.4488
▁hind	-12.4491
JP	-12.4496
▁ढक	-12.4518
▁UN	-12.4532
▁मैने	-12.4545
▁्रद	-12.4546
▁धुत	-12.4548
▁un	-12.4557
▁ौड	-12.4565
▁डेथ	-12.4566
iya	-12.458
de	-12.4584
▁ामल	-12.4606
▁Dha	-12.4624
56	-12.4628
▁Pri	-12.463
ak	-12.463
92	-12.4632
ेखन	-12.4634
▁बोधि	-12.4638
▁इंत	-12.4643
ीच	-12.4647
▁RR	-12.4658
▁न्हे	-12.4675
▁र्वि	-12.4683
▁Sup	-12.4687
63	-12.4714
▁MI	-12.4717
ki	-12.4733
13	-12.475
▁यि	-12.4751
चीत	-12.4755
▁Ana	-12.4758
▁ोबार	-12.4792
कल	-12.4794
ेग	-12.4805
▁ामप	-12.4808
OS	-12.4814
▁CE	-12.4819
▁आश्	-12.4827
▁8.	-12.483
co	-12.4836
▁2:	-12.4871
uja	-12.4895
▁आशु	-12.4901
▁FD	-12.492
▁िक्	-12.492
47	-12.4927
▁AM	-12.4931
▁राज्	-12.4935
▁गठ	-12.496
te	-12.4973
▁यून	-12.4991
▁Cour	-12.5006
▁ASP	-12.5008
▁The	-12.5015
pa	-12.5022
▁ाध्य	-12.5023
▁कथन	-12.5025
▁way	-12.5025
▁मंत	-12.5025
▁फं	-12.5028
▁ut	-12.5029
▁लॉस	-12.5031
▁si	-12.5033
▁138	-12.5036
▁ल्म	-12.504
▁ऐड	-12.5051
▁111	-12.5054
▁AII	-12.5077
▁ेंश	-12.5083
▁ाएंग	-12.5117
ुल	-12.5134
61	-12.5143
▁m	-12.515
▁िण	-12.5153
▁2)	-12.5162
मक	-12.5168
च्ची	-12.5184
▁He	-12.519
ंट	-12.5191
आप	-12.5212
▁ter	-12.5214
▁गाया	-12.5215
4%	-12.5218
ाड़	-12.524
est	-12.5243
▁Ba	-12.5255
▁Nar	-12.5255
▁्रेल	-12.5268
▁नसून	-12.5281
VP	-12.5285
▁अभ्य	-12.5287
रूरी	-12.5288
VE	-12.5309
▁युवत	-12.5309
▁नकार	-12.5313
pur	-12.5315
▁Dat	-12.5337
▁Kal	-12.5349
भा	-12.5356
▁रवाह	-12.5373
वो	-12.5376
▁AIM	-12.5377
▁गार्	-12.5379
▁्मो	-12.5403
▁पूज	-12.541
▁Sams	-12.542
▁पटक	-12.5424
▁ानव	-12.5433
▁रवन	-12.5434
▁सलम	-12.5436
▁Not	-12.5445
B	-12.5448
ाएं	-12.5457
▁घूस	-12.5459
ank	-12.5463
▁जले	-12.5494
▁HD	-12.5496
▁उज	-12.5529
▁जहा	-12.5542
39	-12.5543
▁•	-12.5553
53	-12.5559
▁rat	-12.5561
▁संख्	-12.5568
▁Mot	-12.5571
▁कॉलेज	-12.5578
▁Stre	-12.5578
TM	-12.5581
▁Se	-12.5582
▁CRP	-12.5586
▁सत्त	-12.5586
▁Ban	-12.5594
▁फीसद	-12.5603
hpur	-12.5615
▁जमी	-12.563
▁no	-12.5658
▁ेत्	-12.566
▁ric	-12.5681
▁Bo	-12.5681
▁Mi	-12.5685
▁ुनक	-12.5689
▁छाई	-12.5689
ूर्त	-12.5695
FC	-12.5701
▁़ा	-12.5702
रिक	-12.5702
पट	-12.5705
़	-12.571
▁stan	-12.5729
▁Min	-12.5739
av	-12.575
▁har	-12.5766
▁is	-12.5773
▁war	-12.5788
▁प्रख	-12.5789
▁UPS	-12.579
▁मोहल	-12.5794
kh	-12.5811
▁CO	-12.5823
▁Par	-12.5826
am	-12.5836
#	-12.5839
▁पड	-12.5846
▁...	-12.5849
दल	-12.5865
▁Bhar	-12.5866
HU	-12.5871
▁OS	-12.5876
▁(6	-12.5886
▁कूच	-12.589
▁rd	-12.5898
▁ba	-12.5917
▁230	-12.5923
▁जाओ	-12.5933
▁मेरि	-12.5936
वन	-12.594
▁ele	-12.5944
▁c	-12.5951
▁ाइबर	-12.5959
▁ोफ	-12.597
▁LI	-12.5977
▁भीष	-12.5979
▁Co	-12.5991
▁id	-12.6004
jay	-12.6006
▁Tat	-12.602
▁Ja	-12.6028
▁Te	-12.6029
▁da	-12.6062
▁खर्	-12.6073
रु	-12.6078
▁्रत	-12.6081
्राइ	-12.6082
▁भाज	-12.6093
AA	-12.6094
wi	-12.61
71	-12.6109
▁सहम	-12.611
su	-12.6112
▁Vis	-12.6121
▁कथ	-12.6123
▁us	-12.6125
▁cas	-12.6128
▁Rea	-12.6134
▁ंडिय	-12.6135
▁हनु	-12.6135
▁ster	-12.6136
▁अच्	-12.6138
▁उलझ	-12.6141
ard	-12.6143
▁Che	-12.6166
▁टीव	-12.6169
▁िग्र	-12.6201
SL	-12.6219
▁रेंग	-12.6239
▁वज	-12.6243
▁हल्	-12.6274
b	-12.6287
▁enc	-12.6302
▁क्श	-12.6322
▁पाय	-12.6325
▁ge	-12.6327
खी	-12.6329
7%	-12.6343
09	-12.6348
▁्ट्री	-12.637
99	-12.6382
▁ुस्	-12.6385
▁ry	-12.6387
+	-12.6405
▁GT	-12.6412
▁स्ट्	-12.6413
▁IC	-12.6417
▁KM	-12.6425
42	-12.6429
▁Wa	-12.6435
▁औऱ	-12.6437
डा	-12.6446
▁BNS	-12.645
▁ारियो	-12.6456
▁ल्य	-12.6468
▁चान	-12.6476
▁it	-12.6482
▁134	-12.6485
▁118	-12.6485
ary	-12.6491
▁ागर	-12.6492
ord	-12.6509
▁चारि	-12.6515
▁MB	-12.653
▁Cho	-12.6531
wa	-12.6541
▁रिवा	-12.6544
▁शरा	-12.6563
▁(5	-12.6568
▁पोज	-12.6575
f	-12.6583
lay	-12.6605
SE	-12.6606
▁गैप	-12.6607
H	-12.6609
ुरुष	-12.6629
▁ऑनर	-12.6636
्द्र	-12.6642
भर	-12.6642
▁ढो	-12.6657
▁धाल	-12.6659
79	-12.6661
57	-12.6665
▁लिस	-12.6675
82	-12.6683
▁रियो	-12.6695
ोजगा	-12.6729
ुष्प	-12.6732
▁ca	-12.6734
rt	-12.6748
▁्तुति	-12.6749
▁ार्रव	-12.6752
▁करोड	-12.676
▁Ali	-12.6768
▁्क्	-12.6777
pic	-12.6783
▁sa	-12.6806
▁उठी	-12.6808
▁माघ	-12.6811
▁हिला	-12.682
▁षड	-12.6824
▁गरम	-12.6827
ba	-12.6832
खाई	-12.6835
▁ia	-12.6838
38	-12.6842
▁जन्	-12.6861
ृह	-12.6864
▁You	-12.6865
▁550	-12.6881
▁टैक्	-12.6893
▁ड़ि	-12.6895
▁3'	-12.6897
SG	-12.6906
▁Pra	-12.6911
▁ेडिक	-12.6912
nu	-12.6926
▁En	-12.6929
▁Ama	-12.6932
▁Gro	-12.6933
2%	-12.6935
▁मुल	-12.6954
▁gn	-12.6962
▁Ju	-12.6972
▁Ut	-12.6974
▁Hol	-12.7021
ia	-12.7021
▁sht	-12.7028
UI	-12.7037
▁CG	-12.704
j	-12.7071
▁ph	-12.7076
du	-12.7081
▁AB	-12.7081
▁लाओ	-12.7087
▁मछ	-12.7093
▁MG	-12.7102
्रिक	-12.7122
▁tra	-12.7125
▁NT	-12.7128
▁घई	-12.7157
▁रतब	-12.7166
ish	-12.7169
▁Hy	-12.7169
▁खोद	-12.7174
▁Nat	-12.7175
▁लगान	-12.7185
▁Ro	-12.7202
RH	-12.7209
TI	-12.721
दे	-12.721
rk	-12.7212
▁राप	-12.7233
्वा	-12.7258
▁रोपी	-12.7267
▁दाब	-12.7277
▁Jan	-12.7282
▁ालात	-12.729
▁ताय	-12.7311
ist	-12.7336
▁Sen	-12.7355
▁co	-12.7365
▁मूर्	-12.7391
▁जमान	-12.7394
া	-12.7405
▁JMM	-12.7405
▁Bach	-12.7405
▁BAN	-12.7405
ideo	-12.7405
▁Kol	-12.7405
▁val	-12.7406
▁UPI	-12.7406
ge	-12.7415
▁Mal	-12.7421
▁ay	-12.7449
▁सजग	-12.7455
▁एरि	-12.7462
▁II	-12.7465
ath	-12.7469
▁5%	-12.7479
▁Pay	-12.7482
▁DR	-12.7499
▁्में	-12.7502
▁रपो	-12.7519
▁माश	-12.7533
ोबाइ	-12.7545
9%	-12.7555
▁दिय	-12.7557
ar	-12.7559
▁mo	-12.7576
▁Con	-12.7582
▁्रश	-12.7588
69	-12.7594
ow	-12.7601
ोक	-12.7609
▁Shi	-12.761
ाथ	-12.762
िर्द	-12.7633
▁Ne	-12.7663
▁जम्	-12.7667
ताप	-12.7684
▁फैक्ट	-12.77
▁ेबा	-12.7701
▁MS	-12.7709
▁तिष्	-12.773
64	-12.7735
▁कैब	-12.7739
▁रनी	-12.7748
▁For	-12.7751
▁मध्	-12.7758
▁Ash	-12.7775
▁Uni	-12.7775
▁पंथ	-12.7776
▁डटे	-12.7782
▁मजद	-12.779
83	-12.7794
87	-12.7795
▁ac	-12.7795
▁Acc	-12.7802
04	-12.7808
गा	-12.7815
▁़ि	-12.7835
मार	-12.7837
▁ालन	-12.7849
ॉल	-12.7855
CA	-12.7858
▁रमह	-12.7867
▁भरण	-12.787
▁Ga	-12.7878
▁वरा	-12.7884
en	-12.7885
कई	-12.7908
▁हिं	-12.791
▁Yo	-12.792
ोटल	-12.7928
AC	-12.793
▁Rep	-12.7938
वस्	-12.7939
नो	-12.7951
▁बाइ	-12.7977
▁डाला	-12.7985
▁तिथ	-12.8014
गवान	-12.8018
od	-12.8033
▁्राप	-12.8044
जे	-12.8049
98	-12.8062
▁il	-12.8067
▁भावन	-12.8068
36	-12.808
▁ुरान	-12.8086
UV	-12.8097
▁JDU	-12.8107
▁kh	-12.8113
▁ाउं	-12.8117
ang	-12.8122
▁दफा	-12.813
्छा	-12.8137
▁हरो	-12.8147
▁कसम	-12.8156
▁(8	-12.8165
▁फाग	-12.8169
▁जुड	-12.8178
▁ंख्य	-12.818
74	-12.8187
▁ॉर	-12.82
▁up	-12.8201
▁स्पेश	-12.8202
JD	-12.8227
▁Cre	-12.8242
फा	-12.8245
ww	-12.8263
्टि	-12.8273
▁Net	-12.8273
PF	-12.8275
3)	-12.8293
▁विष	-12.8297
▁wi	-12.8299
▁टड	-12.8301
▁ol	-12.8318
ke	-12.833
▁Red	-12.8334
▁An	-12.8335
▁Fa	-12.8336
ली	-12.8341
▁ुसा	-12.8387
94	-12.8409
3%	-12.8409
▁चढ़ा	-12.8432
ॐ	-12.8446
▁ki	-12.8457
अर	-12.8462
▁Hea	-12.8474
▁Deep	-12.8477
DC	-12.8479
▁ew	-12.848
▁bh	-12.8487
▁abh	-12.849
▁साख	-12.8492
MP	-12.8496
▁BSE	-12.85
शास	-12.8508
TA	-12.8516
▁नतई	-12.8523
ेक	-12.8523
▁185	-12.8529
▁113	-12.8536
84	-12.8563
▁ौट	-12.8576
बंध	-12.858
▁हनन	-12.858
▁लहा	-12.8586
▁SDO	-12.8598
▁ियु	-12.8613
्मो	-12.8627
्ट	-12.8636
▁जगा	-12.8659
und	-12.8663
▁Poll	-12.8688
6%	-12.8698
▁ja	-12.8713
▁प्राप	-12.8714
▁लियां	-12.8734
▁gra	-12.8738
▁HC	-12.8745
▁डरी	-12.8745
▁पंजा	-12.8745
▁ृद	-12.8756
▁गदर	-12.8767
▁इला	-12.8768
▁धड़	-12.8786
▁va	-12.8788
▁कैट	-12.8806
▁ठगे	-12.8808
▁Rev	-12.8817
ाबले	-12.8831
▁ाहन	-12.8833
▁रिप	-12.8847
▁ज्ञाप	-12.885
IA	-12.8859
ञ	-12.8861
▁Arjun	-12.8862
▁shmi	-12.8863
▁दफन	-12.8864
▁Aksh	-12.8865
▁य़	-12.8876
ृ	-12.888
ूक	-12.888
▁यूटी	-12.8908
▁नियो	-12.8911
▁No	-12.8912
▁raj	-12.8934
▁कटर	-12.8943
N	-12.8946
▁रकत	-12.8965
▁हाईव	-12.8967
bh	-12.8978
▁Ko	-12.8985
▁दंग	-12.9006
गध	-12.9009
▁IG	-12.903
▁Op	-12.9048
▁करान	-12.9049
TS	-12.9049
▁pra	-12.9051
▁ke	-12.9065
▁िरद	-12.9089
▁फर्ज	-12.9089
IS	-12.9098
▁shp	-12.91
ोन	-12.9121
▁एडी	-12.9144
V	-12.915
्रिं	-12.9164
▁ेंद	-12.9187
▁kW	-12.9189
▁Chi	-12.9191
▁7,	-12.9194
05	-12.9206
▁राऊ	-12.9208
▁शोज	-12.9223
▁RT	-12.9226
टे	-12.9228
▁िम्	-12.9257
▁KGMU	-12.9262
▁IPC	-12.9263
▁क्रे	-12.9267
67	-12.9271
▁ब्लॉ	-12.9272
▁सौं	-12.9283
▁EPF	-12.9311
▁Pand	-12.9314
▁पोस्	-12.9316
▁ंचाल	-12.9317
▁VIP	-12.9317
गी	-12.9325
▁NCR	-12.9328
▁ft	-12.9334
▁Me	-12.9361
▁Var	-12.9367
▁उसमे	-12.9368
▁खड	-12.9387
▁मिश्	-12.9388
▁िलो	-12.94
▁cal	-12.94
▁जलन	-12.9401
81	-12.9403
tar	-12.9406
▁Viv	-12.9409
▁Be	-12.9432
CL	-12.9432
TR	-12.9433
क़	-12.9456
▁छता	-12.9462
▁डोज	-12.9476
▁फैस	-12.9485
▁Sin	-12.9489
▁9.	-12.9495
▁ID	-12.9497
an	-12.9511
DU	-12.9515
▁Pat	-12.9521
▁Son	-12.9542
▁Pad	-12.9547
78	-12.9549
▁Sun	-12.955
▁जिं	-12.9556
▁्घ	-12.9566
िथि	-12.957
ुप्त	-12.9579
rd	-12.958
PM	-12.958
▁ic	-12.9582
mo	-12.9583
▁Da	-12.9585
▁एंग	-12.9593
▁ोहि	-12.9613
▁RA	-12.9613
▁चाव	-12.9618
mu	-12.9627
▁Biha	-12.9631
०	-12.9647
01	-12.966
▁OP	-12.9669
रेगा	-12.9669
▁CB	-12.9678
▁EOW	-12.9678
▁छोड	-12.9679
▁PCB	-12.9682
▁nna	-12.9683
▁Bre	-12.9683
▁डिग	-12.9685
BT	-12.969
र्व	-12.9693
▁She	-12.9697
▁NC	-12.9697
▁Ay	-12.97
▁307	-12.9712
लख	-12.972
▁ालु	-12.9725
▁Kang	-12.9727
▁अला	-12.9728
▁हस्	-12.9729
▁Ex	-12.9732
धन	-12.9733
▁नवाई	-12.9742
▁टैं	-12.9773
▁Hon	-12.9774
▁सिय	-12.978
▁हमा	-12.98
▁PB	-12.9809
▁फील	-12.9813
CU	-12.9818
▁कराय	-12.9837
▁ag	-12.9844
▁साबि	-12.9852
▁चारो	-12.9858
▁tt	-12.9859
▁दूज	-12.9867
▁Pre	-12.9886
▁नझ	-12.9899
नप	-12.9899
▁GR	-12.9903
▁mar	-12.9906
hya	-12.9911
▁फॉल	-12.9927
ंब	-12.9942
ईस	-12.997
ेष	-12.9987
इन	-12.9993
ंख	-13.0025
▁ऐं	-13.0035
लि	-13.0041
86	-13.0048
ood	-13.0064
▁2-	-13.0065
दो	-13.0068
▁ny	-13.0072
▁जिन्	-13.0083
▁तैय	-13.0092
▁Ho	-13.0097
दाता	-13.0107
▁त्क	-13.0107
ऱ	-13.0108
▁GMCH	-13.0113
▁ोगो	-13.0113
▁Kri	-13.0114
▁नज़र	-13.0115
▁Guru	-13.0116
▁new	-13.0122
▁AUS	-13.0124
▁योजि	-13.0124
PA	-13.0135
▁en	-13.0136
▁dha	-13.0149
▁146	-13.0157
▁Fina	-13.0168
BS	-13.0168
▁ंधि	-13.0173
cc	-13.018
इ	-13.0181
WD	-13.0204
▁Amb	-13.023
▁सपुर	-13.0246
▁60%	-13.0246
▁Sank	-13.0247
▁इत	-13.0269
▁ksh	-13.0273
▁दड	-13.0296
▁Sona	-13.0301
▁Stat	-13.0328
▁Fir	-13.0347
OC	-13.0347
▁तिनि	-13.0362
▁fi	-13.0367
▁ेश्	-13.0397
ग़	-13.0401
▁ऐन	-13.0402
▁बैल	-13.0411
▁छग	-13.043
▁Ta	-13.044
BC	-13.0461
डिंग	-13.0464
वी	-13.0471
▁sab	-13.0481
▁ISR	-13.0491
▁ve	-13.0516
▁Jun	-13.0521
▁रुद	-13.0528
▁Pa	-13.0531
07	-13.0532
▁UA	-13.0537
▁ISI	-13.0547
ে	-13.0568
▁Diwa	-13.0568
▁Shu	-13.0568
▁Fest	-13.0571
▁ंपत्त	-13.0572
▁पकड	-13.0575
▁ure	-13.0576
on	-13.058
▁Sma	-13.0586
▁क‍	-13.0593
्पि	-13.0614
▁मर्थ	-13.0627
hra	-13.0627
▁ुले	-13.0628
yo	-13.063
▁िश्	-13.063
▁संतो	-13.0641
छल	-13.0642
▁ग़	-13.0646
▁ित्	-13.0646
▁so	-13.0653
▁ैनि	-13.0676
▁go	-13.0687
▁इसमे	-13.0694
▁baz	-13.0708
▁टूल	-13.0724
MR	-13.0724
▁िंत	-13.073
▁Jay	-13.0733
he	-13.0753
▁हेग	-13.0804
▁ww	-13.0839
▁सैनि	-13.0858
sa	-13.0879
▁ज्यो	-13.0879
ran	-13.0888
PC	-13.0888
▁nu	-13.0894
▁as	-13.0897
hu	-13.09
▁BSN	-13.0903
▁थिया	-13.0906
▁1:	-13.0915
▁Ch	-13.0933
पिटल	-13.0934
▁चौह	-13.0941
▁May	-13.0948
▁All	-13.0957
▁ड़न	-13.0975
▁La	-13.0975
▁चार्	-13.0985
ॉफ	-13.0999
▁man	-13.1
▁िचा	-13.1008
झौ	-13.1012
॥	-13.1013
PL	-13.1013
▁चिट	-13.1016
ेफ	-13.1017
▁नती	-13.1018
ाप्त	-13.1022
▁ोस्	-13.1036
MW	-13.1041
▁KK	-13.1042
▁🔴	-13.1044
▁Rohi	-13.1044
▁सक्रि	-13.1047
▁्ती	-13.1051
▁हथिय	-13.1059
▁ad	-13.1061
▁PG	-13.1066
▁याचि	-13.107
TC	-13.1076
▁Jam	-13.1082
▁सदस्	-13.1082
▁Radh	-13.1095
no	-13.1097
▁मुक्	-13.1102
र्धा	-13.1107
▁बदर	-13.1115
▁CIS	-13.1128
▁रवान	-13.1128
▁Merc	-13.115
▁1-	-13.1151
FI	-13.1154
▁ाचि	-13.1162
▁Act	-13.1164
ir	-13.1164
ur	-13.1179
राष्	-13.1192
▁मुद	-13.1203
BSE	-13.1216
oda	-13.1227
hat	-13.1237
▁ईई	-13.124
▁डोम	-13.1242
▁$	-13.1253
▁SH	-13.1274
▁DA	-13.1288
ej	-13.1321
▁गेल	-13.1322
▁्ठ	-13.1324
▁qu	-13.1335
ीडिय	-13.1337
▁Jo	-13.1348
▁ेलव	-13.1384
▁बराम	-13.1398
▁ru	-13.1401
▁BE	-13.1411
▁ाथम	-13.1431
▁Gan	-13.1474
▁tha	-13.1483
▁Ass	-13.1486
▁रुआ	-13.1506
▁̈	-13.1544
▁Upay	-13.1544
▁Bad	-13.1545
▁EX	-13.1546
▁by	-13.1551
▁चढ	-13.1551
▁ंचालि	-13.1556
▁RE	-13.1572
66	-13.1583
▁अड़े	-13.1585
▁ंची	-13.1587
▁रअ	-13.159
▁तपु	-13.1594
▁लाओं	-13.1601
▁Tube	-13.1603
▁ंदोल	-13.1617
ut	-13.1642
ry	-13.1646
46	-13.1661
▁Bir	-13.1665
▁Big	-13.1667
▁Isr	-13.168
▁Janm	-13.169
▁आयो	-13.1708
tt	-13.1717
▁Fli	-13.1728
▁छो	-13.1734
RT	-13.1736
ष्	-13.1749
▁My	-13.1752
▁At	-13.1761
▁Shr	-13.1766
▁RJ	-13.1771
▁ll	-13.1774
▁रदी	-13.1786
योजन	-13.1795
CS	-13.182
▁Exp	-13.1822
▁kar	-13.183
▁Trai	-13.1842
ेक्	-13.1856
▁PS	-13.1867
▁pam	-13.1875
▁BS	-13.1892
/	-13.1911
▁So	-13.1917
▁ोहल	-13.192
▁ूदा	-13.1928
ज़	-13.1931
NA	-13.1964
▁reg	-13.1969
▁समि	-13.1977
▁ारिय	-13.1977
▁App	-13.1988
शर	-13.1989
▁El	-13.2006
62	-13.2018
▁सप्ल	-13.2022
▁MC	-13.2022
J	-13.2023
kra	-13.2057
]	-13.207
➤	-13.207
▁iQ	-13.207
▁Murd	-13.207
▁Vidhi	-13.207
▁Pit	-13.2072
▁Baj	-13.2072
▁Tro	-13.2074
▁झड़प	-13.2074
▁Amaz	-13.2076
▁By	-13.2076
IG	-13.2079
▁ावध	-13.2082
▁ठगा	-13.2084
▁im	-13.2085
▁वीड	-13.2086
▁om	-13.2092
▁इरा	-13.2114
▁ानप	-13.2124
▁टैब	-13.2135
▁202	-13.2136
▁ber	-13.2136
▁Ada	-13.2139
तन	-13.2149
▁Sat	-13.2171
▁शरी	-13.221
▁Sam	-13.2217
so	-13.2223
▁my	-13.2235
▁ार्य	-13.2238
▁वालो	-13.2267
▁MD	-13.2275
▁pi	-13.2275
▁थियो	-13.2287
▁IN	-13.2295
▁ent	-13.2297
▁चरस	-13.2319
▁AP	-13.2327
▁nch	-13.2329
▁दूं	-13.2334
▁Muh	-13.236
MU	-13.238
▁MU	-13.2385
vo	-13.2385
▁Ben	-13.2386
▁AT	-13.2389
▁ोलि	-13.2399
▁Wh	-13.241
▁TM	-13.2413
▁wa	-13.242
SS	-13.242
उ	-13.2424
▁ram	-13.2434
▁िहा	-13.2446
▁ंट्र	-13.2451
▁wan	-13.2477
▁फड़	-13.2482
▁WT	-13.2484
LD	-13.2485
▁WC	-13.2496
au	-13.2499
EE	-13.2505
MO	-13.253
ेगा	-13.2533
SA	-13.2534
▁SL	-13.2586
और	-13.2592
▁Ser	-13.261
ौहा	-13.2614
▁मोब	-13.2625
rom	-13.2625
▁km	-13.2625
▁SGPGI	-13.2626
▁Story	-13.2626
▁धरन	-13.2626
▁Xia	-13.2626
▁परेश	-13.2629
▁he	-13.2629
▁UK	-13.2631
▁लांक	-13.2636
▁cy	-13.2638
▁वर्ल	-13.2639
▁जेक्	-13.2639
▁वास्थ	-13.2643
▁्राप्	-13.2649
हचान	-13.2656
▁POC	-13.2664
AK	-13.2664
ver	-13.2684
▁167	-13.2684
▁506	-13.2684
▁Ni	-13.2686
aga	-13.2692
▁152	-13.2703
▁(9	-13.2703
▁SS	-13.2706
ुशी	-13.2707
▁गेज	-13.2711
58	-13.2714
यन	-13.2731
▁मान्	-13.2747
▁सबस	-13.2759
▁यर्	-13.2794
lo	-13.2834
lea	-13.2837
▁Bi	-13.286
ku	-13.2873
az	-13.2883
▁Sri	-13.2906
▁Inf	-13.2909
▁u	-13.2947
97	-13.2948
AS	-13.2963
▁रिष	-13.2972
▁do	-13.2979
ell	-13.2987
DEO	-13.2999
▁Far	-13.3003
▁Arm	-13.3007
चन	-13.3043
pri	-13.3059
▁इनमे	-13.3064
▁EC	-13.3091
रवरी	-13.3099
▁ाड़ि	-13.3099
▁बेग	-13.3112
▁Sury	-13.3129
▁Le	-13.3131
▁Att	-13.3147
GP	-13.3148
▁लाग	-13.3177
▁Pan	-13.3181
Q	-13.3181
91	-13.3181
पार	-13.3189
▁Mas	-13.3189
52	-13.3198
▁Lea	-13.3213
▁III	-13.3214
RI	-13.3214
▁র	-13.3217
▁Aar	-13.3224
DS	-13.3231
▁fe	-13.3251
▁ुके	-13.3262
▁Gau	-13.3266
▁Wom	-13.3266
▁162	-13.3271
bo	-13.3285
mit	-13.3291
बालि	-13.3291
59	-13.3296
TT	-13.3298
ast	-13.3304
वजूद	-13.3317
▁मारो	-13.3328
▁nya	-13.333
▁CPI	-13.3333
rah	-13.3341
▁Comm	-13.3346
▁ईट	-13.3352
▁फटे	-13.3354
▁ोलन	-13.3357
▁po	-13.3362
ide	-13.3365
▁Mai	-13.337
▁छात	-13.3372
▁ोग्	-13.3391
RP	-13.3415
▁Mic	-13.3419
▁Top	-13.3423
ot	-13.3427
▁रीक्	-13.3436
▁मारन	-13.3449
▁्लेट	-13.3471
▁पेक्	-13.3474
▁ADA	-13.3493
jr	-13.3495
▁Tra	-13.3499
▁HS	-13.3504
▁Kha	-13.352
▁सहा	-13.3523
▁Sto	-13.3524
▁कौल	-13.3558
▁vra	-13.3588
▁पढ़े	-13.3593
ड़ी	-13.3598
▁FA	-13.3625
▁Fu	-13.3631
▁पेक	-13.3631
▁ईए	-13.3636
▁तोड	-13.3648
▁z	-13.3656
▁Chin	-13.3674
▁Inte	-13.3683
▁Jha	-13.3687
HC	-13.3697
▁रमु	-13.3711
▁पटा	-13.3711
▁NCA	-13.3724
▁फ्रे	-13.373
ll	-13.3736
▁IOC	-13.3738
▁ku	-13.3741
▁झार	-13.3741
▁अध्	-13.3747
▁JJ	-13.3786
KS	-13.3804
85	-13.3805
▁MV	-13.3809
▁Can	-13.3831
️	-13.3839
🌟	-13.3839
▁Sidd	-13.3839
▁Award	-13.3839
▁Gour	-13.3839
▁NZ	-13.3839
योध्	-13.384
▁Bhu	-13.384
▁्लेटफ	-13.3841
▁LG	-13.3846
▁TOS	-13.3851
▁Tri	-13.3853
पलब्	-13.3858
▁cle	-13.3858
▁Tru	-13.3858
▁मैदा	-13.3868
▁INS	-13.3875
र्थ	-13.3875
▁Bla	-13.3879
▁Som	-13.3879
▁ओछ	-13.3884
▁ोफे	-13.3893
▁Fil	-13.3895
AT	-13.39
ाम	-13.3913
▁136	-13.3917
▁209	-13.3926
▁Sit	-13.3939
वह	-13.3954
FSS	-13.3958
▁Sk	-13.3959
▁रेक्	-13.3968
▁पालि	-13.3976
▁3-	-13.3981
▁आबा	-13.3995
▁IMA	-13.3996
KR	-13.4002
▁बंगा	-13.4002
▁ABS	-13.4015
▁4%	-13.4021
▁stat	-13.4022
GT	-13.4024
▁धब	-13.4031
वि	-13.4032
▁जिय	-13.4036
▁Rat	-13.4039
▁ci	-13.4042
▁तिहा	-13.4046
ep	-13.4066
▁Bu	-13.407
ust	-13.4077
▁खाय	-13.4078
OO	-13.408
▁लदी	-13.4089
▁़िया	-13.4091
मे	-13.41
▁8-	-13.4109
▁गोह	-13.4121
ud	-13.4126
▁Ha	-13.4148
▁ADG	-13.4151
▁ec	-13.4162
▁mp	-13.4184
▁Tim	-13.4186
AP	-13.4208
तई	-13.4227
▁LP	-13.4236
▁ईख	-13.4238
▁SGP	-13.4245
ef	-13.4269
▁कभ	-13.432
ree	-13.4343
तो	-13.4361
▁CH	-13.4392
▁di	-13.4394
ुभ	-13.4413
▁Adv	-13.4423
▁SO	-13.4426
▁CP	-13.4427
zu	-13.4439
▁सभ	-13.4444
▁Cy	-13.4448
▁Ope	-13.4464
▁ee	-13.4479
ऩ	-13.4506
▁॰	-13.4506
▁EMI	-13.4506
▁IED	-13.4507
▁Ul	-13.4508
▁Gu	-13.4508
▁ळ	-13.4511
▁Tul	-13.4535
▁pri	-13.4543
▁Oct	-13.4546
▁AK	-13.4548
▁Mon	-13.4549
▁197	-13.4556
▁mm	-13.4559
▁AF	-13.4561
▁दुका	-13.4567
रन	-13.4568
▁158	-13.4573
▁संगठ	-13.4581
▁Tip	-13.4583
▁246	-13.4593
▁Rak	-13.4594
▁KG	-13.4614
▁भावि	-13.4624
चु	-13.4634
▁Cont	-13.4644
▁560	-13.4648
▁शफ	-13.4663
GO	-13.467
▁Sch	-13.4672
▁Gen	-13.4685
▁्मे	-13.4698
▁तात	-13.4702
ME	-13.4706
▁bal	-13.471
▁ex	-13.4711
89	-13.4716
▁Si	-13.4719
fi	-13.4727
▁JF	-13.4731
▁acc	-13.4733
▁MA	-13.478
08	-13.4783
▁सडक	-13.48
▁अभ्	-13.4803
▁ीटि	-13.4804
▁घटे	-13.4809
▁sy	-13.482
DJ	-13.4824
ic	-13.4854
WS	-13.4861
ापित	-13.4908
▁्मि	-13.4909
▁CS	-13.4936
ixe	-13.495
▁BA	-13.4956
AD	-13.4958
▁ko	-13.4961
AN	-13.498
PI	-13.4986
▁Tel	-13.4992
fe	-13.4996
▁War	-13.5025
ाबाद	-13.5031
▁Viva	-13.5046
▁BP	-13.5051
▁LS	-13.5058
▁पटे	-13.507
▁बताय	-13.5087
ay	-13.5101
▁Rel	-13.5104
▁IS	-13.5128
▁pe	-13.5131
▁Ye	-13.5156
ky	-13.5175
wal	-13.5198
बाद	-13.5198
▁Vin	-13.5203
⁠	-13.522
▁Viral	-13.522
▁ANI	-13.522
▁Max	-13.522
▁PGI	-13.522
▁MLC	-13.5221
▁सप्रे	-13.5221
▁Aam	-13.5223
▁Rao	-13.5223
▁सख्	-13.5227
▁घड़ी	-13.5228
▁Bill	-13.5236
▁ुला	-13.5238
▁IIM	-13.5239
▁ek	-13.5249
yu	-13.5256
▁Comp	-13.5266
▁UCC	-13.5267
▁यदु	-13.5286
▁फिश	-13.529
▁्पिटल	-13.5293
dia	-13.5304
▁Adi	-13.5305
▁सीप	-13.5332
▁nka	-13.5335
/2	-13.5339
▁याशी	-13.5343
SR	-13.5344
▁0.9	-13.5346
▁ुश्क	-13.5359
▁TT	-13.5365
▁ऐश	-13.5376
▁bli	-13.5378
▁चाक	-13.5389
▁झाग	-13.5408
llu	-13.5415
ill	-13.5419
शन	-13.5429
FO	-13.5433
▁Star	-13.5439
▁िस्स	-13.5444
▁Sw	-13.5449
धू	-13.5457
▁ेन्द	-13.5472
RS	-13.5484
▁पढ़ा	-13.5485
▁wary	-13.5494
▁Tha	-13.5494
▁Vic	-13.5495
▁CR	-13.5507
RO	-13.5529
उस	-13.5533
▁दुनि	-13.5534
all	-13.555
▁nja	-13.5553
ss	-13.5561
लक	-13.5605
▁कौम	-13.5611
▁IDF	-13.5613
शा	-13.5626
▁Pap	-13.5637
ंट्स	-13.5644
1:	-13.5715
▁टेप	-13.5723
▁गेन	-13.5741
RC	-13.5753
▁win	-13.5777
▁जौ	-13.5781
िं	-13.5807
▁CAS	-13.5814
▁नोटि	-13.5817
▁इंजी	-13.5824
93	-13.5833
▁Bos	-13.5841
था	-13.5845
▁PP	-13.5854
▁MT	-13.5856
MCH	-13.5861
▁Wi	-13.5874
▁Ad	-13.5899
▁Cit	-13.5915
tm	-13.5935
▁टाय	-13.5944
▁Pres	-13.595
▁Tea	-13.5968
टो	-13.597
▁q	-13.5972
▁AR	-13.5973
▁(2	-13.5979
▁Jy	-13.5979
▁Shiv	-13.598
▁hp	-13.5989
▁SSB	-13.5989
▁Cab	-13.599
▁end	-13.5991
▁Vai	-13.5991
▁BMC	-13.5992
▁DL	-13.5992
▁Mau	-13.5993
ICI	-13.5997
▁WW	-13.5997
▁Han	-13.5997
▁Fore	-13.5998
▁LU	-13.5998
▁ओनर	-13.6004
▁4:	-13.601
▁Spo	-13.6027
▁AN	-13.6028
▁खोए	-13.6047
▁318	-13.6055
▁जाएग	-13.6073
▁sam	-13.6074
▁जरू	-13.6076
▁Chh	-13.6076
▁ओढ़	-13.6076
▁tal	-13.608
▁धोद	-13.6107
▁Gang	-13.6116
▁Bab	-13.6122
▁चाट	-13.613
▁6%	-13.6137
ee	-13.614
▁Baba	-13.6152
▁Swa	-13.6158
▁Sta	-13.6166
▁SKM	-13.6169
▁ंटो	-13.6174
▁वाहनो	-13.6191
▁Dus	-13.6195
▁Ti	-13.6207
▁RO	-13.6211
emp	-13.6216
▁ताबि	-13.622
▁We	-13.6233
▁रेफ	-13.6245
ga	-13.6263
▁फला	-13.6274
▁nat	-13.6274
▁be	-13.6278
▁nth	-13.6288
nt	-13.629
▁यरम	-13.6295
▁PD	-13.6318
▁ga	-13.6342
▁ीनिय	-13.6343
▁Wis	-13.6351
▁ाप्	-13.636
73	-13.6362
LB	-13.6404
CH	-13.641
▁आरो	-13.6416
सान	-13.6426
द्	-13.6435
▁ायि	-13.6453
AL	-13.6462
▁तहस	-13.6466
▁ढल	-13.6469
िसकी	-13.6488
▁lo	-13.6493
▁कुमा	-13.6516
uru	-13.6521
रदात	-13.6547
▁PR	-13.66
▁Cri	-13.6604
ाओ	-13.6608
▁(7	-13.664
▁Gov	-13.6641
▁sc	-13.6641
mbh	-13.6644
▁Sur	-13.6674
▁ुरक	-13.6683
यल	-13.6697
▁4-	-13.6706
रिष्	-13.6717
gi	-13.6734
▁5-	-13.6752
▁ूलो	-13.6754
▁pol	-13.6774
▁rp	-13.6781
WA	-13.6783
▁तरस	-13.6783
ऑल	-13.6791
▁Wat	-13.6791
▁Fi	-13.6798
▁pu	-13.6798
▁अफस	-13.6805
org	-13.6815
▁ক	-13.6823
२	-13.6823
▁Ujj	-13.6823
▁Scam	-13.6823
▁MOU	-13.6823
▁pre	-13.6823
pd	-13.6825
▁kg	-13.6825
▁CMHO	-13.6827
▁FI	-13.6832
▁Cer	-13.6835
▁stha	-13.6836
जल	-13.6852
▁Aad	-13.686
▁rj	-13.6869
▁308	-13.6876
▁Glo	-13.688
▁JN	-13.6882
▁304	-13.6888
▁सलमा	-13.6892
▁327	-13.6901
▁wer	-13.6916
▁per	-13.6917
▁ud	-13.693
▁Law	-13.6931
bi	-13.6936
▁मोबा	-13.6938
▁207	-13.6941
to	-13.6946
▁ECI	-13.6951
▁कॉक	-13.6965
BW	-13.6972
▁gh	-13.6972
▁con	-13.7007
▁Rain	-13.7015
▁ग्वा	-13.7015
sc	-13.7022
▁तवाल	-13.7027
▁Ab	-13.7035
▁Div	-13.7045
irl	-13.7055
▁Em	-13.7061
▁pro	-13.7064
bha	-13.7096
▁Nir	-13.7099
▁लिस्	-13.7099
▁Bol	-13.7106
ci	-13.7107
are	-13.7113
CC	-13.7119
▁Ame	-13.712
ah	-13.7133
▁जोड	-13.7137
▁RS	-13.7143
रपत	-13.7143
RE	-13.7158
▁्रें	-13.7161
▁Fo	-13.7171
edd	-13.7204
▁Tes	-13.7216
ft	-13.7249
▁Kis	-13.7271
▁NOT	-13.7289
▁Aga	-13.73
▁Lad	-13.7302
▁DE	-13.7303
▁gan	-13.7307
▁सरक	-13.732
gra	-13.7353
▁ंकन	-13.7354
▁lla	-13.7358
▁वेस्	-13.7384
▁्पि	-13.7408
▁aa	-13.742
▁Kan	-13.7428
बत	-13.7431
▁ोपि	-13.7456
▁bil	-13.7461
▁Nit	-13.7466
ek	-13.7483
▁Vid	-13.7488
▁Qu	-13.75
▁270	-13.7507
रत	-13.7508
▁Met	-13.7514
▁Gra	-13.7519
▁छड़	-13.7523
▁रहन	-13.7543
इल	-13.7544
▁बूट	-13.7576
PG	-13.7582
▁Sil	-13.7588
▁EN	-13.7602
▁BCA	-13.7611
▁Ze	-13.7622
▁Gha	-13.7623
oj	-13.7636
OP	-13.7646
घर	-13.7669
▁मीड	-13.7686
▁nj	-13.7698
▁Her	-13.7708
▁DI	-13.7714
▁बनाय	-13.7716
▁नुमत	-13.7723
▁भोपा	-13.7727
্	-13.7732
▁\	-13.7732
▁IRCTC	-13.7732
▁ंयुक्	-13.7732
▁wor	-13.7732
तृत्	-13.7732
▁Clo	-13.7733
▁BY	-13.7736
▁mba	-13.7736
▁िसानो	-13.7738
▁kmp	-13.7738
ैदान	-13.7739
▁Sna	-13.774
▁Tax	-13.7742
▁WI	-13.7745
AE	-13.7753
▁िनम	-13.7766
▁DN	-13.7769
▁Trip	-13.7774
▁Shan	-13.7779
pu	-13.7783
ber	-13.7785
▁TI	-13.7798
▁बाजा	-13.78
ix	-13.7808
▁fa	-13.7809
▁(30	-13.7809
▁नसू	-13.7816
▁Plan	-13.7816
▁ji	-13.7817
▁166	-13.7821
▁यका	-13.7824
▁गोल्	-13.7827
▁दिश	-13.7828
sto	-13.7832
et	-13.7841
▁Ri	-13.7849
▁Prat	-13.7879
▁बसई	-13.7883
▁JE	-13.7886
▁आगा	-13.7892
▁शुर	-13.7895
7)	-13.7897
▁पुष्	-13.7898
हो	-13.7917
ोए	-13.7922
▁िरफ	-13.7928
▁die	-13.7935
rza	-13.7936
▁Medi	-13.7938
▁Ve	-13.7955
▁Dis	-13.7955
▁za	-13.796
▁Mus	-13.7964
▁Am	-13.7969
▁GS	-13.7977
▁Tig	-13.7992
▁ोवि	-13.8003
ts	-13.803
▁जेक	-13.8036
eep	-13.8043
▁TD	-13.8046
त्रण	-13.8082
id	-13.8084
▁PW	-13.8132
▁रधा	-13.8134
▁ns	-13.8141
▁St	-13.8167
▁खली	-13.8189
▁qua	-13.819
▁chi	-13.8208
ush	-13.8212
▁दरव	-13.8213
▁gy	-13.8214
▁णत	-13.8216
▁ok	-13.8255
ंडित	-13.8256
▁Sara	-13.8263
▁ME	-13.8273
▁ंग्र	-13.8302
▁त्रो	-13.8345
▁डेढ	-13.8368
▁(3	-13.8384
NDIA	-13.8394
▁टूक	-13.8399
▁Char	-13.8427
▁RC	-13.8427
▁GI	-13.8427
▁Chau	-13.8445
▁अगल	-13.8463
▁लाखो	-13.8467
▁Marg	-13.8476
ren	-13.8481
▁Hard	-13.8499
▁दीए	-13.851
▁Khe	-13.852
▁Mr	-13.853
FS	-13.8535
▁ऊब	-13.854
if	-13.8542
ंश	-13.8563
▁Sho	-13.8587
TE	-13.8615
▁1/	-13.8624
ैल	-13.8633
▁RI	-13.8636
सभा	-13.8652
▁IO	-13.8653
sha	-13.8665
यास	-13.8696
ি	-13.8732
ి	-13.8732
▁Feb	-13.8732
▁BDO	-13.8732
▁BBA	-13.8732
▁IRE	-13.8732
▁Offer	-13.8732
▁Yogi	-13.8733
▁घटन	-13.8733
▁Cur	-13.8734
▁ff	-13.8734
▁GL	-13.8734
▁Cent	-13.8744
▁Ann	-13.8745
▁ामान्	-13.8747
▁rga	-13.8748
▁jo	-13.8749
▁3)	-13.8758
▁DRD	-13.8768
▁ृद्	-13.8768
DI	-13.8781
▁GP	-13.8785
lai	-13.8795
bir	-13.8798
▁173	-13.8798
▁BRIC	-13.8798
▁Hai	-13.8817
▁335	-13.8832
▁tar	-13.8839
ail	-13.885
▁DGC	-13.8854
IL	-13.8855
▁ईआ	-13.8857
▁Na	-13.8863
▁हटे	-13.8863
▁Im	-13.8869
▁Spa	-13.8869
फलता	-13.8884
▁239	-13.8886
ौ	-13.8893
खड़	-13.8897
▁Dig	-13.8902
▁Dai	-13.8905
▁CPR	-13.8934
TF	-13.894
▁7%	-13.8951
▁IA	-13.8951
▁रज़	-13.8953
आइ	-13.8967
▁CC	-13.8971
मीटर	-13.8976
BL	-13.8978
▁235	-13.8998
▁Hari	-13.9007
ny	-13.901
▁San	-13.9016
▁NAS	-13.904
▁Jai	-13.9064
▁Sar	-13.9072
▁Rang	-13.9081
▁Sky	-13.9088
मी	-13.9095
▁VX	-13.9107
▁Crim	-13.911
▁Enc	-13.9128
▁संस	-13.9147
▁समस्	-13.9163
▁Muk	-13.918
▁नहत	-13.9188
ca	-13.9191
▁Pi	-13.9199
▁फटा	-13.9203
▁िद्	-13.9224
ik	-13.9227
AR	-13.9262
▁Gree	-13.9265
▁nk	-13.9282
▁वाओ	-13.9289
▁AS	-13.9289
▁Nam	-13.9294
▁2%	-13.9298
▁Mat	-13.9298
▁SG	-13.931
▁VF	-13.9315
▁IR	-13.932
▁Assa	-13.933
act	-13.935
DM	-13.9365
▁ham	-13.9374
▁क्षो	-13.9374
▁-1	-13.9377
यू	-13.9386
ढ़त	-13.939
pte	-13.9411
▁ंभा	-13.9416
क्ति	-13.9423
▁VI	-13.9436
ing	-13.9444
▁क़द	-13.9456
▁Za	-13.9468
ES	-13.9477
▁Nad	-13.9481
▁डेज	-13.9497
▁NHA	-13.953
▁Us	-13.9537
▁ड़ो	-13.9558
▁Part	-13.9562
▁AA	-13.9575
AF	-13.9576
▁Sc	-13.9586
▁पोत	-13.9592
ali	-13.9601
▁Rap	-13.9607
▁sto	-13.9619
▁Sik	-13.9633
▁kha	-13.9651
▁Sawa	-13.9654
udi	-13.9659
▁्रस्	-13.9698
▁नाओ	-13.9699
▁Di	-13.971
tam	-13.9731
▁ip	-13.9743
GM	-13.9746
▁Madh	-13.9747
▁ोमी	-13.9749
▁KY	-13.9792
धे	-13.9823
▁बीड	-13.9839
vv	-13.9841
×	-13.9843
ত	-13.9843
ా	-13.9843
ు	-13.9843
్	-13.9843
▁िभिन्	-13.9843
▁Summ	-13.9843
▁Katha	-13.9843
▁DRL	-13.9843
▁bar	-13.9843
▁BRS	-13.9844
▁Sap	-13.9844
▁BBC	-13.9844
▁KV	-13.9846
▁Rave	-13.985
▁Meet	-13.9851
▁PDA	-13.9853
▁Sy	-13.9854
▁now	-13.9855
▁पेशल	-13.9858
▁झारख	-13.986
▁rain	-13.9866
▁Para	-13.9867
ssa	-13.9868
▁app	-13.987
मला	-13.9877
▁₹1	-13.9888
raj	-13.9907
▁Sale	-13.9914
▁293	-13.9914
▁all	-13.9917
▁ICE	-13.9917
▁ho	-13.992
▁ind	-13.9924
▁380	-13.9926
▁Exc	-13.9931
▁CU	-13.9932
▁440	-13.9944
UID	-13.9954
▁NCE	-13.9958
▁IB	-13.9958
▁ढ़न	-13.9962
▁Inst	-13.9965
▁CMS	-13.9976
rad	-13.9985
▁Ami	-13.9987
▁rm	-13.9999
VIP	-14.0001
▁299	-14.0009
▁अनुभ	-14.0012
▁cru	-14.0016
▁LC	-14.0017
eas	-14.0019
bur	-14.0029
▁VS	-14.0036
NN	-14.0044
वेज	-14.0047
▁SU	-14.0054
बिन	-14.0057
▁सकत	-14.0067
▁air	-14.0075
▁Driv	-14.0079
▁Hous	-14.0101
▁Yog	-14.0109
TO	-14.0118
▁बुझ	-14.0129
▁तियां	-14.0136
▁ॉले	-14.0155
▁तमा	-14.0162
▁Swi	-14.0183
▁Fig	-14.0184
▁Roya	-14.0195
▁पोर्	-14.0233
▁Kab	-14.024
tri	-14.0241
▁wat	-14.0244
cru	-14.0251
रो	-14.0252
TP	-14.0255
फे	-14.0256
▁Subh	-14.0279
▁Mad	-14.0291
▁बां	-14.0304
▁BAP	-14.0314
▁Lim	-14.032
▁MH	-14.0346
▁Ret	-14.035
RA	-14.0351
NU	-14.036
LIC	-14.0362
▁Per	-14.0392
ED	-14.0397
▁Is	-14.0403
▁Fou	-14.0415
▁Form	-14.0426
▁Agn	-14.0459
▁ser	-14.0459
▁mu	-14.0468
ac	-14.0493
▁bi	-14.0513
▁Mala	-14.0534
▁दहल	-14.0548
▁Fl	-14.0549
▁ीसद	-14.0553
▁रिपो	-14.056
MA	-14.0571
▁रिष्	-14.0578
▁Lau	-14.0579
ink	-14.0582
▁Abh	-14.0587
▁nam	-14.0597
▁CT	-14.0599
▁Yu	-14.0604
▁inc	-14.0612
▁RP	-14.0615
▁RL	-14.0636
▁शुक	-14.0646
▁FM	-14.0647
▁CL	-14.0648
ुल्क	-14.0657
▁Fac	-14.0674
सब	-14.0704
▁bo	-14.0746
▁HA	-14.0765
zi	-14.077
▁ab	-14.0779
्री	-14.0804
dha	-14.0811
▁ndu	-14.0814
▁um	-14.0828
नई	-14.0859
ंदेश	-14.0895
mer	-14.0905
▁ूर्	-14.0909
▁ze	-14.0914
▁वजू	-14.0927
▁Dr	-14.0929
▁ऐज	-14.0962
▁Of	-14.0982
▁OM	-14.1008
▁बूम	-14.1023
▁Sh	-14.1031
▁लेबा	-14.1033
▁PF	-14.1041
ऐ	-14.1048
▁Win	-14.1051
▁Jag	-14.1056
HS	-14.1059
ुओं	-14.1062
enz	-14.1088
▁ानसू	-14.109
­	-14.1093
ন	-14.1093
ల	-14.1093
▁জ	-14.1093
▁cour	-14.1093
▁Vast	-14.1093
▁सामा	-14.1094
▁OLED	-14.1094
▁हिलाओ	-14.1094
▁MPPSC	-14.1095
▁Au	-14.1096
TU	-14.1096
▁yal	-14.1098
▁క	-14.11
▁Gad	-14.11
▁io	-14.1101
▁Wal	-14.1105
▁Tran	-14.1106
▁shya	-14.1106
▁कानू	-14.1111
°	-14.1112
ॉड	-14.1121
▁Miss	-14.1124
▁mal	-14.1125
▁RV	-14.1128
▁SW	-14.1129
▁भिष	-14.1132
▁shtr	-14.1134
नए	-14.1142
▁जिलो	-14.1144
ऊद	-14.1151
▁रकश	-14.1155
OU	-14.1157
▁32%	-14.1161
LP	-14.1169
fri	-14.1174
▁sta	-14.1188
▁Sarf	-14.1189
ea	-14.1192
▁ाइय	-14.1201
▁PK	-14.1208
rba	-14.1212
▁वास्	-14.1217
▁(16	-14.122
छताछ	-14.1223
▁sit	-14.1225
▁5.1	-14.1231
▁लैं	-14.1248
▁TC	-14.1259
▁ef	-14.1269
▁Alt	-14.1277
int	-14.1281
▁ैबि	-14.1301
▁Twi	-14.1311
LO	-14.1314
गो	-14.1325
▁hed	-14.1329
▁इयर	-14.1334
ul	-14.1338
▁Pha	-14.134
▁कब्	-14.1355
▁229	-14.1365
anj	-14.1376
SW	-14.1379
DR	-14.1388
▁Un	-14.1397
▁Hot	-14.1401
▁करवाय	-14.1425
RV	-14.1432
▁Jod	-14.1433
▁Pran	-14.1442
▁mbl	-14.1446
▁NA	-14.1453
tu	-14.1454
▁खाए	-14.1469
▁Kher	-14.1479
्ठा	-14.1479
▁HP	-14.1485
▁JL	-14.1495
iv	-14.1497
ull	-14.15
▁माध्	-14.154
▁गाता	-14.1561
चे	-14.1579
▁शलम	-14.1592
▁ass	-14.1599
▁hal	-14.161
do	-14.1632
▁Dim	-14.1647
▁तस्क	-14.1652
▁अप्	-14.1655
▁Bik	-14.168
▁Redd	-14.1685
▁देशो	-14.1689
im	-14.1696
IC	-14.1704
र्षद	-14.1706
▁ंतो	-14.1715
▁Vot	-14.1733
▁दोस्	-14.1736
ंगठन	-14.1748
▁ईज	-14.1751
▁bu	-14.1752
▁ानग	-14.1757
▁योध	-14.1762
▁SF	-14.1776
▁Meh	-14.1802
▁AE	-14.1815
▁Ira	-14.1821
▁Ph	-14.1826
▁NO	-14.1837
▁BR	-14.1844
▁RG	-14.1868
ue	-14.1888
▁ारख	-14.1888
ढ	-14.1912
lla	-14.1917
बस	-14.1925
फी	-14.194
▁par	-14.1963
NL	-14.1969
▁Sala	-14.1973
▁AMC	-14.1975
▁ai	-14.1983
▁cr	-14.1993
▁hu	-14.1996
▁Cap	-14.2038
▁pt	-14.2045
णी	-14.2046
▁Nex	-14.2057
▁tte	-14.207
▁NDPS	-14.2083
▁Cla	-14.2087
NM	-14.2094
▁RD	-14.2107
iru	-14.2117
▁Harr	-14.2123
▁ssi	-14.2133
sla	-14.2166
▁VV	-14.2189
▁ii	-14.2213
ear	-14.2242
▁TP	-14.2253
▁मामल	-14.2294
माप्	-14.2295
▁mpi	-14.2325
▁Por	-14.2337
▁Tu	-14.235
▁Ent	-14.2356
aja	-14.2382
▁nm	-14.2384
▁ऊन	-14.2386
▁मजे	-14.2392
▁Bal	-14.2392
▁Coun	-14.24
कॉ	-14.2404
खट	-14.2405
▁अपी	-14.2405
‍	-14.2407
q	-14.2411
JM	-14.244
▁As	-14.2481
clo	-14.2483
Z	-14.2488
ব	-14.2521
ম	-14.2521
చ	-14.2521
▁Blue	-14.2521
▁🕐	-14.2521
●	-14.2521
▁Happ	-14.2521
▁HOD	-14.2521
▁bomb	-14.2521
▁OUT	-14.2521
▁Thre	-14.2521
▁Km	-14.2522
▁संबं	-14.2522
▁QU	-14.2522
▁Ear	-14.2522
▁fire	-14.2522
▁IFS	-14.2524
▁MF	-14.2527
▁आयोज	-14.2528
▁sco	-14.2529
▁Rish	-14.253
▁यकर्त	-14.2531
▁Dro	-14.2532
▁op	-14.254
▁FS	-14.255
▁garh	-14.2551
▁MIC	-14.2554
▁PCC	-14.2556
▁Guja	-14.2558
▁ap	-14.2559
▁Fact	-14.2562
▁Hasi	-14.2567
▁Work	-14.257
▁em	-14.2572
▁ठहर	-14.2585
▁Dilj	-14.2589
▁िकित्	-14.2595
▁Cham	-14.2599
▁53%	-14.26
▁Luc	-14.2618
▁8.1	-14.2618
AB	-14.2619
▁gi	-14.2623
▁JD	-14.2628
▁291	-14.2637
▁930	-14.2639
▁ADR	-14.2651
▁6-0	-14.2653
▁njh	-14.2667
FT	-14.2676
ty	-14.2683
ाखों	-14.2696
ंदू	-14.2699
▁Fam	-14.2705
▁6-3	-14.2738
GS	-14.274
▁""	-14.2759
xi	-14.2769
▁Mac	-14.2779
▁Rec	-14.2795
ed	-14.2803
▁Akh	-14.2833
▁खोर	-14.2844
▁Spec	-14.2862
▁Navy	-14.2877
SMC	-14.2892
▁gur	-14.292
▁rv	-14.2924
▁Nor	-14.2931
ीख	-14.2942
rain	-14.2947
▁िरास	-14.2956
▁Chad	-14.298
cy	-14.298
UP	-14.2985
▁झड़	-14.2994
▁घं	-14.3018
▁Deb	-14.302
▁sli	-14.3039
▁gar	-14.305
ुंदर	-14.3096
▁MR	-14.3136
▁नबर	-14.3138
▁Ros	-14.3138
▁Das	-14.3158
GL	-14.3158
odi	-14.3158
▁HR	-14.3161
aza	-14.3173
▁HPC	-14.3174
irc	-14.3182
ेड़	-14.32
धु	-14.3215
ble	-14.3235
▁JS	-14.3239
▁7-	-14.3257
▁IIF	-14.326
gar	-14.326
▁चलान	-14.327
EV	-14.3271
▁श्वा	-14.3272
PU	-14.3277
RK	-14.3288
न्य	-14.3294
EN	-14.3299
▁Cra	-14.3302
BA	-14.3304
▁bai	-14.3308
▁6-	-14.3309
▁Ati	-14.3341
▁CJ	-14.3347
▁Asi	-14.3363
eet	-14.3372
▁ुश्	-14.3387
फत	-14.3401
bb	-14.3407
▁Rich	-14.3412
▁car	-14.3413
▁सहय	-14.3434
▁sur	-14.3446
▁DS	-14.3446
▁NI	-14.348
▁NR	-14.35
िसका	-14.3502
▁Az	-14.3505
OG	-14.3518
▁ant	-14.3568
िलेश	-14.3581
▁san	-14.3594
mal	-14.3614
▁lk	-14.3614
IR	-14.3635
▁OC	-14.364
▁var	-14.3646
GRS	-14.3655
GA	-14.3657
be	-14.366
▁िशो	-14.3696
▁Zo	-14.3707
▁Nov	-14.3713
ैट	-14.3722
शो	-14.3722
02	-14.3724
▁vo	-14.3726
ाहुल	-14.3731
ूथ	-14.3739
▁तीनो	-14.374
▁SM	-14.3751
cu	-14.3779
▁Er	-14.3837
▁Sec	-14.3838
▁j	-14.3859
▁ोजेक	-14.3861
▁ेट्र	-14.3881
▁Sai	-14.3903
▁ER	-14.3906
▁रऊ	-14.3911
▁हॉक	-14.3911
▁Inc	-14.3912
▁AU	-14.3919
▁rb	-14.3921
▁Al	-14.3936
धा	-14.394
▁swa	-14.3969
▁ES	-14.3976
PT	-14.3977
▁थानी	-14.3986
▁BH	-14.4007
▁PH	-14.4044
▁comp	-14.405
ड़े	-14.4051
▁Expl	-14.407
▁ul	-14.407
or	-14.4071
ogi	-14.4096
ili	-14.4097
▁BN	-14.4112
VA	-14.4128
qf	-14.4135
▁Ur	-14.4137
zo	-14.4142
garh	-14.4154
*	-14.4156
bal	-14.4158
▁Gupt	-14.4187
>	-14.4188
३	-14.4188
४	-14.4188
ট	-14.4188
ো	-14.4188
ర	-14.4188
▁skar	-14.4188
▁ROB	-14.4188
▁Rupe	-14.4188
▁Vac	-14.4188
▁Wind	-14.4189
▁Kota	-14.4189
▁FOR	-14.4189
▁IRS	-14.419
rjun	-14.419
▁Dow	-14.4191
▁CAF	-14.4191
▁CBD	-14.4191
▁Dau	-14.4191
▁NSD	-14.4192
▁DY	-14.4192
▁Mp	-14.4194
▁JK	-14.4199
▁Ib	-14.4199
▁Free	-14.4201
▁int	-14.4205
▁Bas	-14.4205
▁Venu	-14.4211
▁Will	-14.4213
HP	-14.4214
▁Ravi	-14.4214
ip	-14.4215
▁ISS	-14.4219
▁Nu	-14.4223
▁sign	-14.4224
▁Vand	-14.4225
▁Nand	-14.4231
ION	-14.4235
▁Quot	-14.4241
▁ndi	-14.4246
▁tu	-14.4251
▁nse	-14.4258
▁ग़ल	-14.4261
▁Impo	-14.4263
aq	-14.4263
▁जागरू	-14.4269
▁rau	-14.4272
ठन	-14.4275
▁Scor	-14.428
▁Pen	-14.4284
▁cg	-14.4286
▁गौड	-14.4297
▁रमे	-14.43
▁Tab	-14.4302
▁भौ	-14.4309
▁िकार	-14.4316
▁3.9	-14.433
▁RTM	-14.4351
▁Maa	-14.4362
▁530	-14.4381
▁0.0	-14.4402
▁Hono	-14.4409
▁Port	-14.4413
▁crim	-14.4415
▁Lan	-14.4421
rus	-14.4428
▁Ny	-14.4435
▁ढही	-14.4437
▁यक्र	-14.4438
had	-14.444
▁22%	-14.4445
▁खत्	-14.4447
▁BJ	-14.4449
▁stud	-14.4489
▁Roz	-14.449
nk	-14.4495
▁DPS	-14.4502
▁LO	-14.4509
udd	-14.4514
्गा	-14.4521
vid	-14.4525
▁Vo	-14.4532
ओम	-14.4545
NB	-14.4552
▁Nag	-14.4567
qu	-14.4576
ws	-14.4579
▁Gol	-14.4585
OA	-14.4585
oss	-14.4596
▁NIC	-14.4625
▁्रध	-14.4645
▁नलाइ	-14.465
CM	-14.465
out	-14.4684
▁au	-14.4748
▁Run	-14.4762
▁Kama	-14.4774
ich	-14.4776
ug	-14.478
▁du	-14.4812
▁214	-14.4821
▁TRA	-14.4823
▁FT	-14.4858
▁cha	-14.4861
▁MO	-14.4864
▁GM	-14.4883
▁FR	-14.4902
योग	-14.4902
CG	-14.4906
▁Sac	-14.4919
▁Kat	-14.4928
▁Sel	-14.4931
▁Azm	-14.4945
▁CD	-14.497
▁Col	-14.4981
▁Pann	-14.4983
tro	-14.4985
ye	-14.4989
pe	-14.4995
▁IDC	-14.5013
▁Sou	-14.502
▁Kish	-14.5024
ब्ध	-14.5027
GI	-14.5034
▁can	-14.5038
ाचार	-14.5045
▁Mann	-14.5058
AM	-14.5063
▁JP	-14.5078
▁LA	-14.5087
DF	-14.5089
▁Shat	-14.5114
▁दिव्	-14.5116
▁यक्त	-14.5117
▁cu	-14.5117
ाग	-14.5118
DH	-14.5119
▁Pav	-14.5131
▁्रक	-14.5164
▁Sidh	-14.5168
▁एफआ	-14.5174
▁pay	-14.5194
▁Tur	-14.5198
nc	-14.5205
▁Eli	-14.5221
ौर	-14.5225
ाउ	-14.5227
▁Mei	-14.5235
▁Eas	-14.5242
▁sti	-14.5258
▁Ren	-14.5266
ms	-14.5277
TV	-14.5287
hee	-14.5329
▁PT	-14.5336
HD	-14.5339
man	-14.5351
VR	-14.5358
▁Ac	-14.536
MT	-14.5379
▁GN	-14.5381
idhi	-14.5386
▁Bus	-14.5402
GPS	-14.5405
▁बुज	-14.5409
▁Rs	-14.5411
▁Val	-14.5413
पोर्	-14.5417
हिए	-14.544
▁End	-14.5453
▁आवा	-14.5455
▁ाराय	-14.5457
▁सफ़	-14.5462
ER	-14.548
ind	-14.5507
▁ov	-14.5523
▁FB	-14.5548
ji	-14.5555
▁Sant	-14.5559
▁Dos	-14.5611
▁Tec	-14.5653
▁HT	-14.5664
▁Fe	-14.5685
BM	-14.5688
▁DO	-14.5699
lim	-14.5704
ick	-14.5727
▁GD	-14.5774
तं	-14.5779
▁mac	-14.5781
▁दिनो	-14.5782
▁Vik	-14.5784
▁िफ्	-14.5794
▁rab	-14.5795
▁fl	-14.5802
▁zi	-14.5816
▁Tw	-14.5842
▁Supe	-14.5864
▁rav	-14.5866
BD	-14.5875
OK	-14.5888
▁rg	-14.5891
▁Kh	-14.5907
▁Sub	-14.5922
▁sec	-14.5941
▁NM	-14.5943
ख़	-14.5963
▁EB	-14.5969
▁Ant	-14.5995
▁Sama	-14.6011
CO	-14.6013
▁Gam	-14.6018
unc	-14.6058
▁NMC	-14.6079
▁Dil	-14.609
▁Lu	-14.6092
▁Om	-14.6097
▁ACC	-14.6105
▁Aj	-14.611
▁NB	-14.6122
omb	-14.6127
▁lig	-14.6128
bri	-14.6128
▁EW	-14.6138
WC	-14.6146
▁nma	-14.6151
ube	-14.6153
▁ie	-14.6155
jo	-14.6167
yam	-14.617
▁दाऊ	-14.6171
To	-14.6172
घाटन	-14.6173
[	-14.6188
প	-14.6188
ু	-14.6188
ం	-14.6188
▁ল	-14.6188
▁KPK	-14.6188
▁महोत्	-14.6188
▁Civi	-14.6188
▁XZ	-14.6188
▁Hald	-14.6189
▁EQ	-14.6189
▁MGR	-14.6189
PAT	-14.6189
▁fact	-14.6189
▁CLIC	-14.619
▁Kiss	-14.619
▁mg	-14.619
▁Drea	-14.619
▁DDC	-14.6191
▁bhu	-14.6191
▁KMP	-14.6191
▁ZS	-14.6191
▁FL	-14.6193
▁Pod	-14.6194
▁shka	-14.6194
▁Tai	-14.6196
▁Cam	-14.6201
▁हाउ	-14.6203
▁XI	-14.6203
▁VC	-14.6204
▁Thi	-14.6206
▁Cru	-14.6208
OL	-14.6214
▁Spee	-14.6215
▁Hear	-14.6218
▁ाइयो	-14.6218
▁Sanj	-14.6222
LT	-14.6224
▁Vika	-14.6226
▁ear	-14.6228
▁cor	-14.623
▁AX	-14.6234
▁Sign	-14.6234
▁Or	-14.6236
▁Vol	-14.6237
▁Zin	-14.6247
▁oc	-14.6255
▁माध्य	-14.6259
▁Hyd	-14.6273
▁384	-14.6277
▁ADC	-14.628
▁SR	-14.6288
YC	-14.6292
▁Coac	-14.6294
▁sk	-14.6305
▁DT	-14.6314
▁च्चो	-14.632
▁DPR	-14.6327
▁RB	-14.6337
▁dis	-14.6343
▁Nik	-14.6364
▁ुजु	-14.6373
▁Pla	-14.6384
▁che	-14.6387
▁DU	-14.6396
CR	-14.6415
▁Bri	-14.6415
▁वसी	-14.6423
PN	-14.6439
▁6-1	-14.6445
▁UD	-14.6481
▁mpic	-14.6483
▁you	-14.6497
▁Inde	-14.6513
▁236	-14.6522
hri	-14.6526
▁Math	-14.6542
▁रक़	-14.6544
▁FII	-14.6557
▁Art	-14.6588
▁बोए	-14.6589
▁SEC	-14.6593
KO	-14.6611
tha	-14.6616
▁Leg	-14.663
▁off	-14.6631
US	-14.6664
▁चौधर	-14.6675
▁Pala	-14.668
▁श्कि	-14.6699
▁Dema	-14.6715
ff	-14.681
सह	-14.6811
eri	-14.6817
EL	-14.6822
IB	-14.6832
EA	-14.6865
▁रफ़	-14.6892
▁वारदा	-14.6908
▁कितन	-14.6913
▁दारो	-14.6914
PD	-14.6915
▁PL	-14.6971
iti	-14.6986
IV	-14.7007
dh	-14.7031
▁ेमार	-14.7036
▁सचि	-14.7039
ale	-14.7068
ीओ	-14.7078
▁Wo	-14.708
▁1-3	-14.7092
▁ठं	-14.7099
IMT	-14.7105
▁Shra	-14.7117
▁JA	-14.7124
▁Pe	-14.7139
rs	-14.7149
▁िपक्	-14.7153
▁Opt	-14.7175
▁cons	-14.7177
▁ऊध	-14.7187
▁PV	-14.7211
▁XE	-14.7212
▁तावे	-14.7213
ML	-14.7277
▁Mis	-14.7279
▁aj	-14.728
▁EO	-14.7295
bra	-14.7309
▁FE	-14.7323
▁शंक	-14.737
▁Ans	-14.7372
▁CDS	-14.7373
ila	-14.7381
▁Lat	-14.7386
▁ob	-14.7389
▁₹3	-14.7403
▁TS	-14.7411
AV	-14.7413
ps	-14.7439
raz	-14.746
▁por	-14.7484
तू	-14.7524
VS	-14.7531
▁Saf	-14.7535
▁NCS	-14.7537
▁pla	-14.7539
▁Disc	-14.7564
IP	-14.7574
▁rh	-14.7598
▁अरु	-14.7623
▁ारप	-14.7644
rab	-14.7646
▁NDR	-14.7647
▁Terr	-14.7662
▁णो	-14.7678
un	-14.7688
▁ावो	-14.7734
▁Stan	-14.7739
▁kur	-14.778
AX	-14.778
▁यक्	-14.7791
▁RU	-14.7797
▁eo	-14.7802
▁Cons	-14.7807
hind	-14.7813
▁nia	-14.7814
sp	-14.7831
▁Vr	-14.786
▁टली	-14.7905
aap	-14.792
▁Com	-14.7932
▁dra	-14.7951
▁Amer	-14.7951
▁Tot	-14.7954
थल	-14.796
ult	-14.7965
ंधित	-14.7968
▁अपन	-14.7976
▁ube	-14.798
GH	-14.7995
▁Nee	-14.8
▁Vir	-14.8026
▁उनक	-14.8083
RB	-14.8085
pi	-14.8091
▁vis	-14.8101
WI	-14.8106
▁BO	-14.8109
▁-25	-14.8137
my	-14.8147
▁ky	-14.8172
▁Ai	-14.8192
ury	-14.8214
▁9-	-14.8262
tta	-14.8285
▁comm	-14.8286
ap	-14.83
za	-14.8301
▁Fort	-14.8314
CD	-14.8318
▁cri	-14.8347
▁pp	-14.8402
▁ुगत	-14.8402
▁DMC	-14.8416
▁UI	-14.8417
▁Mil	-14.8441
nse	-14.8475
▁BK	-14.8476
हद	-14.8485
EC	-14.8488
go	-14.8488
▁PO	-14.8492
HA	-14.8526
▁KP	-14.8547
MI	-14.8549
▁Sco	-14.8552
▁जैम	-14.857
▁Bah	-14.8571
▁Bar	-14.8582
▁GW	-14.8593
KC	-14.8614
bhi	-14.8615
▁Tom	-14.8631
▁द्घ	-14.8632
LX	-14.8648
nm	-14.8658
Bo	-14.8666
▁fo	-14.8679
NV	-14.8686
▁fir	-14.8688
९	-14.8688
চ	-14.8688
ষ	-14.8688
স	-14.8688
ీ	-14.8688
▁এ	-14.8688
▁য	-14.8688
▁గ	-14.8688
▁ట	-14.8688
▁♈	-14.8688
▁~	-14.8688
▁Nawa	-14.8688
▁Pawar	-14.8688
▁JPN	-14.8688
▁nzia	-14.8688
▁pass	-14.8688
▁face	-14.8689
▁camp	-14.8689
▁Veda	-14.8689
▁bud	-14.8689
▁HBT	-14.8689
▁Naya	-14.8689
▁AFP	-14.8689
▁pul	-14.8689
▁मुताब	-14.869
▁Chri	-14.869
▁Heer	-14.869
▁fra	-14.869
▁kid	-14.8691
▁db	-14.8691
▁Syst	-14.8691
▁Tay	-14.8691
▁mini	-14.8692
▁Corp	-14.8693
▁१	-14.8694
▁kri	-14.8695
▁jai	-14.8697
▁Fra	-14.8699
▁Ky	-14.87
▁eM	-14.87
▁yad	-14.8702
▁Bare	-14.8702
▁HSR	-14.8703
▁ारीख	-14.8704
▁sb	-14.8704
▁Dol	-14.8712
▁टक्क	-14.8712
▁Clea	-14.8715
▁SN	-14.8716
▁Cel	-14.8716
▁घऱ	-14.8717
▁Def	-14.8719
उप	-14.8722
▁vu	-14.8723
▁Ess	-14.8724
▁lad	-14.8724
▁फिलहा	-14.8726
SEB	-14.8728
▁Sui	-14.873
▁ign	-14.8731
▁Ari	-14.8732
▁Stud	-14.8737
▁उतई	-14.8738
▁Gem	-14.8745
▁393	-14.8751
▁Divi	-14.8754
▁Hall	-14.8754
▁Jala	-14.8761
▁Yam	-14.8762
▁391	-14.8763
▁702	-14.8767
▁ani	-14.8768
▁804	-14.8776
▁Ou	-14.8779
▁809	-14.8782
tte	-14.8782
▁TEC	-14.8791
gy	-14.8792
▁Aka	-14.8801
▁ऐरी	-14.8802
▁474	-14.8803
▁Fast	-14.8812
▁MN	-14.8817
KU	-14.8818
▁ामलो	-14.8822
▁MRF	-14.8841
▁su	-14.8843
▁तैया	-14.885
▁miss	-14.8856
▁Huma	-14.8858
▁643	-14.8867
▁ृष्	-14.8868
GE	-14.8878
▁लज़	-14.8903
▁was	-14.8904
▁48%	-14.8915
▁प्रधा	-14.8916
▁Mel	-14.8917
ym	-14.892
▁यशो	-14.892
▁ंगलवा	-14.8935
▁CN	-14.8937
▁Jeet	-14.8941
EI	-14.8949
▁od	-14.8958
▁मढ	-14.8962
▁19%	-14.8986
▁MDM	-14.899
▁SLR	-14.8994
RN	-14.9005
▁Budd	-14.9021
▁धड़ा	-14.9026
▁lay	-14.9037
▁Ball	-14.9043
▁आशंक	-14.9055
▁मोहल्	-14.9078
pac	-14.908
▁lat	-14.9087
▁Vija	-14.9096
▁PC	-14.9106
▁Ap	-14.9125
▁Lal	-14.9166
▁धिकत	-14.9178
▁मॉर	-14.919
▁ble	-14.9196
▁Jawa	-14.9197
pm	-14.923
▁gha	-14.9236
ape	-14.9236
▁Dip	-14.924
row	-14.9255
NC	-14.9269
▁Din	-14.9289
▁Ric	-14.9291
▁NCL	-14.9324
ौल	-14.9325
▁Ci	-14.9346
▁wil	-14.9349
जार	-14.9363
AW	-14.9381
▁PRD	-14.9392
▁Sani	-14.9392
rna	-14.9397
▁Stor	-14.9399
▁Rin	-14.9399
FA	-14.9403
▁Emp	-14.9405
▁युक्	-14.9415
▁HI	-14.9436
▁PML	-14.9445
▁0.3	-14.9451
▁RIT	-14.9456
▁Zi	-14.9473
▁ext	-14.9486
धायक	-14.9499
rid	-14.9505
▁सीरी	-14.9544
LM	-14.9549
es	-14.9562
खत	-14.9564
ext	-14.957
▁Ven	-14.9598
▁CCS	-14.9603
▁Tit	-14.9666
asa	-14.9667
kha	-14.9668
▁bla	-14.9673
▁vot	-14.9691
▁SOS	-14.9701
▁bor	-14.9703
▁DD	-14.9704
रुष	-14.9706
ISS	-14.9715
LV	-14.9753
▁Aw	-14.9773
▁Kon	-14.978
एल	-14.9791
gni	-14.9798
▁Sp	-14.9801
ICE	-14.9816
▁Tek	-14.9824
om	-14.9829
dea	-14.9831
PV	-14.9856
▁जनत	-14.9857
▁sp	-14.9862
▁PSL	-14.9864
is	-14.9878
▁rea	-14.9883
▁CUE	-14.9892
▁Mid	-14.9908
▁Cr	-14.9927
▁RPS	-14.9933
▁TE	-14.9942
orm	-14.9948
▁eg	-14.9951
घाट	-14.9981
▁SMA	-15.0034
▁जैत	-15.0034
▁Sana	-15.0037
▁bs	-15.004
ech	-15.0047
▁gal	-15.005
विष्	-15.0051
▁Tam	-15.0062
anc	-15.0067
▁Marc	-15.0096
▁ART	-15.0097
▁Lam	-15.0103
▁राइव	-15.0105
ूजन	-15.0111
▁coun	-15.0115
▁ev	-15.0156
▁Ranj	-15.0157
▁Pate	-15.0158
▁HU	-15.0187
▁TO	-15.0188
▁Dec	-15.0194
▁AJ	-15.0197
PR	-15.0201
um	-15.0227
डू	-15.0228
▁exp	-15.0232
▁Ray	-15.0234
▁Kai	-15.0283
▁Srid	-15.0287
LI	-15.0288
▁हजम	-15.0297
▁UM	-15.0299
ोश	-15.0305
▁shar	-15.0324
RL	-15.0341
▁घाय	-15.0348
▁Ala	-15.0379
▁nit	-15.0399
rav	-15.0417
nni	-15.0425
डे	-15.0429
▁SB	-15.0447
▁Nai	-15.0462
▁Prem	-15.0469
▁4'	-15.0493
▁Fab	-15.0529
▁ISP	-15.0538
ini	-15.055
▁Hat	-15.0561
▁Dw	-15.0567
▁Ter	-15.0578
वास	-15.0585
we	-15.0586
गड़	-15.0588
▁WF	-15.0625
ffe	-15.0625
▁Pil	-15.0629
VF	-15.0666
▁ban	-15.0707
TB	-15.0734
Pay	-15.0746
ami	-15.0781
PP	-15.0807
▁रिव	-15.0866
▁nsh	-15.0879
urd	-15.0931
▁LN	-15.0993
▁अश	-15.1002
▁BD	-15.1042
ess	-15.1047
▁Fin	-15.1052
▁Gene	-15.1055
▁fal	-15.1058
▁ूल्	-15.1058
▁Hart	-15.1066
tr	-15.1075
आम	-15.109
ahu	-15.1112
ICC	-15.1126
LC	-15.1135
▁Nara	-15.1143
▁vio	-15.1146
▁nb	-15.117
iqu	-15.1171
▁NRM	-15.1189
▁Ak	-15.1194
▁SIS	-15.1197
MG	-15.1212
per	-15.1224
lu	-15.1252
▁viv	-15.1258
▁Mee	-15.1271
▁पोस	-15.128
ede	-15.129
▁Hoo	-15.1327
▁Gre	-15.1332
by	-15.1357
▁ICA	-15.1359
▁Raji	-15.136
▁ama	-15.1401
▁Joha	-15.141
▁भरो	-15.1421
▁तत	-15.1425
rap	-15.1428
▁nju	-15.1442
gg	-15.1448
▁dg	-15.145
ौस	-15.1451
▁DIO	-15.1458
▁Dh	-15.1472
▁Tie	-15.1494
ema	-15.1537
▁Hu	-15.1565
▁ाष्	-15.1567
▁Goa	-15.157
▁sma	-15.1574
▁मूल्	-15.1591
ुलिस	-15.1626
BO	-15.1648
▁COV	-15.1652
▁Ir	-15.1666
dd	-15.1666
▁KI	-15.1684
SN	-15.1691
▁SK	-15.1769
ैनिक	-15.1771
▁FC	-15.1796
▁cl	-15.1797
NR	-15.1823
▁इयो	-15.1852
▁Tal	-15.1875
▁GE	-15.1891
▁NF	-15.1896
▁दाख	-15.1903
▁sim	-15.1907
mra	-15.1908
▁ye	-15.1932
▁oi	-15.1949
▁rk	-15.1953
jj	-15.1967
्ञान	-15.1988
ळ	-15.1989
ङ	-15.199
now	-15.1991
pro	-15.1992
▁Cen	-15.1996
""	-15.1998
LU	-15.1999
Ji	-15.2001
▁गंभी	-15.2011
dy	-15.2013
ंदोल	-15.2013
▁Parv	-15.2019
ॊ	-15.2021
ছ	-15.2021
ড	-15.2021
দ	-15.2021
ধ	-15.2021
త	-15.2021
న	-15.2021
వ	-15.2021
స	-15.2021
⏱	-15.2021
▁Hizb	-15.2021
▁susp	-15.2021
▁♍	-15.2021
▁🇮🇳	-15.2021
⚠	-15.2021
⭐	-15.2021
🪐	-15.2021
▁Oreo	-15.2021
▁Naxa	-15.2021
▁Sequ	-15.2021
▁aff	-15.2021
▁Susp	-15.2021
▁ग़ज़	-15.2021
▁NBCC	-15.2022
▁summ	-15.2022
▁Coup	-15.2022
▁rov	-15.2022
▁liqu	-15.2022
▁mus	-15.2023
▁Baza	-15.2023
▁MQ	-15.2023
▁PPP	-15.2023
▁Raf	-15.2024
▁FTI	-15.2024
▁SGM	-15.2024
▁Gupta	-15.2025
▁SJ	-15.2025
▁VAS	-15.2025
▁बीजेप	-15.2025
avy	-15.2026
▁Ahm	-15.2026
▁Dog	-15.2026
▁दाधिक	-15.2026
▁Smit	-15.2027
▁Men	-15.2027
▁बाढ	-15.2027
▁Bhe	-15.2027
▁CSR	-15.2027
▁Tas	-15.2028
▁fy	-15.2028
▁FW	-15.2028
▁squ	-15.2029
▁ERV	-15.2029
▁ges	-15.2029
ax	-15.203
▁VAT	-15.2031
▁ndia	-15.2032
▁Say	-15.2032
▁HN	-15.2035
▁SX	-15.2037
▁Apar	-15.2038
▁HF	-15.2038
▁Jr	-15.2039
▁Cro	-15.2045
WF	-15.205
▁BBM	-15.2053
▁Ava	-15.2055
▁Sear	-15.2057
▁मौजू	-15.2062
▁sm	-15.2066
अल	-15.2075
▁Crow	-15.2078
▁due	-15.2086
▁nwa	-15.2094
▁Upe	-15.2094
▁Perf	-15.2103
▁885	-15.2109
▁cis	-15.2112
▁Are	-15.2112
▁पन्	-15.2113
▁Meg	-15.2119
▁फोड	-15.212
▁Pass	-15.2122
▁clo	-15.2123
▁3/	-15.2133
▁MSM	-15.2136
▁Bro	-15.2168
iga	-15.2177
jha	-15.2187
छह	-15.2189
▁841	-15.219
▁ग़म	-15.2193
▁full	-15.2203
acqu	-15.2204
▁शुल्	-15.2206
▁disp	-15.2215
▁नेताओ	-15.2216
▁Pac	-15.222
▁gun	-15.2224
▁गुप्	-15.2233
▁Des	-15.2241
SU	-15.2248
▁मतदा	-15.225
ija	-15.2265
▁5.0	-15.2266
▁EE	-15.2287
▁Mit	-15.229
▁Khal	-15.2298
▁IVR	-15.23
▁शामि	-15.23
▁Stri	-15.2306
SM	-15.2324
▁Bell	-15.2343
▁कलेक	-15.2344
▁Khur	-15.2369
ूर	-15.2373
▁Mor	-15.2373
▁Je	-15.2379
▁BT	-15.2387
ऊं	-15.2395
▁ESI	-15.2427
ens	-15.2428
▁चिक	-15.2435
AG	-15.2439
▁cb	-15.2461
▁fil	-15.2471
▁ूछ	-15.2476
avi	-15.249
▁नमे	-15.2502
▁cra	-15.2506
▁dr	-15.2507
▁झौ	-15.2511
UK	-15.2526
▁Kais	-15.2528
▁(0	-15.2541
ela	-15.2544
▁गांध	-15.2552
▁Dest	-15.2565
▁has	-15.2566
▁Rash	-15.2623
YO	-15.2627
wan	-15.2631
▁Jit	-15.2656
▁Mer	-15.2658
tor	-15.266
upi	-15.2661
shi	-15.2676
▁Sad	-15.268
ढ़ी	-15.2683
▁EM	-15.273
▁Kau	-15.2734
▁93,	-15.2756
▁नाराय	-15.2763
▁IV	-15.2769
▁COP	-15.2784
▁Ts	-15.283
▁gam	-15.2846
▁rich	-15.2861
▁Swe	-15.2866
▁Hel	-15.2875
▁खटा	-15.288
▁Ast	-15.2926
zia	-15.2937
▁712	-15.2938
षमता	-15.2946
▁hel	-15.2957
eo	-15.296
▁Jain	-15.2967
rug	-15.2992
VN	-15.3019
▁REE	-15.3058
upt	-15.3059
काब	-15.3061
▁hea	-15.3065
▁्रच	-15.3068
▁Dar	-15.3083
▁₹5	-15.3118
▁crea	-15.312
ORS	-15.3139
een	-15.3151
▁pet	-15.3166
▁रहत	-15.3172
▁HM	-15.3172
ure	-15.3177
SDM	-15.3192
▁ssc	-15.3194
▁Covi	-15.3195
ara	-15.3221
▁Ratn	-15.3242
CT	-15.3243
▁Ank	-15.3244
▁Cash	-15.3254
▁शश	-15.3265
▁लाका	-15.3286
▁lea	-15.3305
▁Hus	-15.3345
FK	-15.3349
▁ppe	-15.3349
▁Hor	-15.3367
▁LL	-15.3371
▁KT	-15.3383
ake	-15.3405
ub	-15.3409
▁Ver	-15.341
%)	-15.3438
▁God	-15.344
सन	-15.3441
▁UC	-15.3445
pp	-15.3453
▁LM	-15.3479
दोलन	-15.3501
▁not	-15.3503
Bj	-15.3515
गे	-15.3515
▁CHR	-15.3541
▁rbu	-15.3573
▁Tar	-15.3591
IMI	-15.3613
▁दैन	-15.3617
▁Pal	-15.3633
▁सदस	-15.3667
▁BG	-15.3673
KMC	-15.3679
▁Mam	-15.3685
▁Abr	-15.3686
ele	-15.3689
▁र्जु	-15.3702
▁Spi	-15.3722
▁ffi	-15.373
▁Uth	-15.3741
▁flo	-15.3752
▁BAR	-15.3762
▁Imm	-15.3764
ns	-15.377
टू	-15.3782
▁bir	-15.3786
▁zar	-15.3807
LW	-15.3835
▁दूस	-15.3838
▁CAP	-15.384
OR	-15.386
▁Yash	-15.3902
▁Disp	-15.3907
▁love	-15.3929
▁0-1	-15.3936
lli	-15.3939
EF	-15.396
olv	-15.3973
war	-15.3979
umm	-15.3997
ost	-15.4028
़ा	-15.4042
▁Dem	-15.4047
erna	-15.4054
▁pot	-15.408
▁Joh	-15.4094
▁Hit	-15.4118
SB	-15.414
▁fu	-15.4142
▁DV	-15.4148
▁TR	-15.4149
RDA	-15.4199
ml	-15.4218
▁LR	-15.4258
▁FTT	-15.4282
▁गौत	-15.4304
NT	-15.4316
▁BHI	-15.432
▁Ber	-15.4321
chi	-15.4325
▁एमई	-15.433
TH	-15.4342
awar	-15.4384
▁िधा	-15.4448
ूस	-15.4472
ाइल	-15.4472
oc	-15.4506
▁rele	-15.4509
▁DP	-15.4522
▁बल्ल	-15.4524
▁Sea	-15.455
ृष्ण	-15.458
▁MLR	-15.4637
▁DW	-15.4675
▁Wol	-15.4675
bu	-15.4702
▁NP	-15.476
aar	-15.4771
▁चूज	-15.478
लय	-15.4802
rip	-15.4807
▁लगाय	-15.4851
लव	-15.4873
▁MAC	-15.4901
lam	-15.4923
▁AG	-15.4929
▁Sher	-15.4945
▁Set	-15.495
▁GA	-15.4962
▁min	-15.5022
▁Soc	-15.5025
▁bec	-15.5036
NY	-15.5044
ृत	-15.5052
▁Seb	-15.5054
▁SLC	-15.5079
DO	-15.5098
asi	-15.51
fo	-15.5145
▁Aus	-15.5254
▁Map	-15.5256
LL	-15.5287
▁Roy	-15.5289
▁tta	-15.5295
▁gro	-15.534
▁ben	-15.5363
▁CIT	-15.5377
HE	-15.538
▁ABP	-15.5387
▁SGS	-15.5412
▁gu	-15.5428
▁भागो	-15.5453
वासी	-15.5472
ond	-15.5521
▁dec	-15.5529
rg	-15.5563
▁Hos	-15.5565
▁ंत्	-15.5568
▁टेब	-15.5569
▁hary	-15.5619
PCB	-15.5631
ou	-15.5692
▁jac	-15.5754
▁Trav	-15.5755
▁Spe	-15.5819
▁PE	-15.5824
▁TG	-15.5867
▁TF	-15.5874
rud	-15.5882
▁Fas	-15.5899
▁Eu	-15.5911
▁ACM	-15.5968
rea	-15.5978
अ	-15.5991
झा	-15.601
▁Tee	-15.6041
▁्तो	-15.6044
▁ामाज	-15.6052
RM	-15.6073
▁MPC	-15.6085
ुधि	-15.6107
▁Eve	-15.6116
hay	-15.6127
▁zo	-15.6146
itr	-15.6149
▁बंधि	-15.6179
▁GIM	-15.6187
▁edu	-15.6194
▁dev	-15.62
▁met	-15.6205
ॉस	-15.6222
CJ	-15.6228
▁kv	-15.6232
▁Hou	-15.6289
▁spa	-15.63
▁UPP	-15.6305
एम	-15.6306
▁Os	-15.6318
▁Aa	-15.6322
▁Sau	-15.6336
▁ूमि	-15.6345
adh	-15.6354
▁GO	-15.6362
▁LT	-15.6365
▁Uma	-15.6375
▁Roo	-15.6388
vt	-15.6395
▁dh	-15.6403
▁tea	-15.6424
▁Br	-15.6427
ew	-15.6451
▁Khu	-15.6482
mm	-15.6484
▁Neh	-15.6491
▁SIC	-15.6491
▁PU	-15.6497
▁GG	-15.6512
▁lau	-15.6527
▁HJ	-15.6569
▁sho	-15.6583
VX	-15.6583
▁og	-15.6596
▁"5	-15.66
▁SSO	-15.6604
▁ICS	-15.6617
fa	-15.6628
▁ig	-15.6645
▁yu	-15.6656
▁Ara	-15.6656
▁MPA	-15.6676
sti	-15.6703
▁mai	-15.6709
▁EP	-15.673
▁hy	-15.6741
▁Sain	-15.6758
▁ZA	-15.6767
▁Aer	-15.677
▁मतद	-15.6794
▁rah	-15.6795
xe	-15.6807
▁Warn	-15.6863
MM	-15.6864
ppe	-15.6875
▁Bel	-15.688
CE	-15.6895
िखाई	-15.6902
▁JR	-15.6903
swa	-15.691
kta	-15.6933
▁BU	-15.694
▁Id	-15.6948
▁TB	-15.6969
wad	-15.6976
RG	-15.6986
YM	-15.6987
క	-15.6988
র	-15.6989
₹	-15.699
ze	-15.6992
WW	-15.6993
wer	-15.6998
HR	-15.6998
gam	-15.6998
Km	-15.6999
ric	-15.7
KM	-15.7
kW	-15.7003
वल	-15.7007
car	-15.7014
£	-15.7021
ॆ	-15.7021
ॠ	-15.7021
ঁ	-15.7021
আ	-15.7021
ও	-15.7021
খন	-15.7021
়	-15.7021
ী	-15.7021
ప	-15.7021
శ	-15.7021
ూ	-15.7021
ె	-15.7021
⁄	-15.7021
▁ই	-15.7021
▁డ	-15.7021
▁♏	-15.7021
▁♐	-15.7021
▁♓	-15.7021
☀	-15.7021
♑	-15.7021
♒	-15.7021
🌙	-15.7021
🔵	-15.7021
▁কর	-15.7021
▁afc	-15.7021
▁Dorj	-15.7021
▁CSJM	-15.7021
▁wei	-15.7021
▁AIUD	-15.7022
▁Smok	-15.7022
▁year	-15.7022
▁Web	-15.7022
▁Jahan	-15.7022
▁ARR	-15.7022
▁Tens	-15.7022
▁zz	-15.7023
▁big	-15.7023
▁Sex	-15.7023
▁Kaml	-15.7023
▁MDL	-15.7023
▁Afg	-15.7023
▁Imd	-15.7023
▁far	-15.7023
▁Nana	-15.7023
▁Inj	-15.7024
▁hou	-15.7024
▁Get	-15.7024
▁TER	-15.7024
▁ReN	-15.7024
▁Aff	-15.7024
▁Kirt	-15.7024
▁TES	-15.7024
▁Tila	-15.7024
▁Vell	-15.7025
▁SHI	-15.7025
▁IFF	-15.7025
▁With	-15.7025
Hi	-15.7026
▁sji	-15.7026
▁RFI	-15.7026
▁Abu	-15.7027
▁cli	-15.7027
▁iX	-15.7028
▁ओझल	-15.7028
▁whi	-15.7029
▁just	-15.7029
▁NBC	-15.7031
▁ju	-15.7031
uhs	-15.7031
▁Keda	-15.7032
▁CRI	-15.7032
▁CVT	-15.7033
▁Naz	-15.7034
▁burn	-15.7034
▁Cry	-15.7034
Be	-15.7035
▁RY	-15.7035
▁side	-15.7036
HI	-15.7036
alg	-15.7036
▁Make	-15.7037
▁GX	-15.7037
▁Eric	-15.7039
▁Kul	-15.7039
ert	-15.704
▁say	-15.7041
▁RX	-15.7041
▁Maj	-15.7041
▁Wc	-15.7042
▁WB	-15.7042
▁XL	-15.7044
▁sci	-15.7044
▁Zu	-15.7045
▁Nip	-15.7045
ajh	-15.7046
िलीज	-15.7046
▁lac	-15.7047
▁OR	-15.7048
▁Gri	-15.7049
▁Ud	-15.7052
▁IU	-15.7054
▁Tou	-15.7061
hma	-15.7066
▁आखि	-15.7067
▁8°	-15.707
▁पहचा	-15.7072
▁Pale	-15.7072
▁Kmp	-15.7075
▁sup	-15.7075
▁NY	-15.7079
▁YM	-15.708
▁Pm	-15.7081
▁Wu	-15.7083
▁acqu	-15.7089
उन	-15.7093
▁Cli	-15.7095
gupt	-15.7098
▁एजें	-15.7101
▁turn	-15.7107
▁Gee	-15.711
ओए	-15.7111
▁Geo	-15.7114
भाग	-15.7119
ंथ	-15.7126
▁TPE	-15.7127
ward	-15.7131
▁Jer	-15.7135
▁AV	-15.7138
▁EL	-15.7148
▁gr	-15.7149
Fa	-15.7151
▁WP	-15.7154
Fi	-15.716
▁TBM	-15.7164
▁gre	-15.7172
सौ	-15.7174
▁sce	-15.7178
MV	-15.7185
▁Ik	-15.7185
▁iv	-15.7201
▁sd	-15.721
▁tit	-15.7235
▁Now	-15.7236
▁Slee	-15.7243
आओ	-15.7244
▁sla	-15.725
▁cla	-15.7272
▁दोपह	-15.7283
नौ	-15.7298
▁झोक	-15.7317
▁Fee	-15.7336
▁Io	-15.7341
ewe	-15.7358
Aa	-15.7366
jk	-15.7375
IO	-15.738
▁Gr	-15.7403
▁dre	-15.7428
▁/6	-15.7429
▁918	-15.7442
▁vic	-15.7442
▁Gaz	-15.7477
fu	-15.7482
▁805	-15.7483
▁bha	-15.7491
▁ea	-15.7518
CAS	-15.7567
▁3-7	-15.7581
VT	-15.7588
▁fp	-15.7594
wd	-15.7622
▁plan	-15.7644
ko	-15.7647
idd	-15.7684
▁BIA	-15.7691
▁2/	-15.7694
योति	-15.7766
▁Gla	-15.7769
▁SHA	-15.778
eer	-15.7787
WAC	-15.7789
भय	-15.7808
▁िश्र	-15.7829
agn	-15.7832
she	-15.784
▁नज़	-15.7849
▁educ	-15.7852
▁Pas	-15.7888
▁POS	-15.7894
▁'5	-15.7925
Sc	-15.7938
eci	-15.7947
ubs	-15.7963
▁yog	-15.7981
▁Que	-15.799
LE	-15.8002
▁smar	-15.8007
▁Bur	-15.8022
▁Deci	-15.8034
VV	-15.8042
▁expl	-15.8051
▁Mag	-15.8056
▁Dala	-15.8056
▁मपु	-15.8077
ipu	-15.8106
▁DIP	-15.819
▁ऐस	-15.8195
▁पहच	-15.8197
▁whe	-15.823
▁ुनाव	-15.8259
▁bann	-15.826
▁Oc	-15.8276
IJS	-15.8284
▁Est	-15.8293
▁tru	-15.8297
ani	-15.8338
▁RCM	-15.8343
▁bas	-15.8356
as	-15.8373
IY	-15.8373
▁रवड	-15.839
ism	-15.84
▁Sand	-15.8409
▁20-	-15.8429
▁bac	-15.8429
▁zer	-15.844
▁ुनवा	-15.847
▁Sham	-15.8478
lk	-15.852
▁conn	-15.8526
pam	-15.8541
iz	-15.8633
▁Jok	-15.8635
UT	-15.8644
तु	-15.8652
tory	-15.8692
▁ज्या	-15.8707
fer	-15.8746
▁83,	-15.8788
१	-16.6988
{	-16.6992
·	-16.7021
ï	-16.7021
ऍ	-16.7021
॑	-16.7021
५	-16.7021
६	-16.7021
८	-16.7021
অ	-16.7021
ঘ	-16.7021
ঠ	-16.7021
ণ	-16.7021
ઢ	-16.7021
ఇ	-16.7021
ఛ	-16.7021
జ	-16.7021
ణ	-16.7021
థ	-16.7021
ద	-16.7021
ఫ	-16.7021
బ	-16.7021
భ	-16.7021
ే	-16.7021
ొ	-16.7021
ో	-16.7021
‛	-16.7021
€	-16.7021
⏩	-16.7021
▪	-16.7021
○	-16.7021
♉	-16.7021
♊	-16.7021
♋	-16.7021
♌	-16.7021
♦	-16.7021
⚫	-16.7021
❓	-16.7021
❗	-16.7021
	-16.7021
🌅	-16.7021
🎉	-16.7021
🏅	-16.7021
🏹	-16.7021
🐉	-16.7021
💫	-16.7021
🗓	-16.7021
😉	-16.7021
😎	-16.7021
😜	-16.7021
😸	-16.7021
🤔	-16.7021
🤩	-16.7021
🦌	-16.7021
♓	-18.0781
♐	-18.0782
♏	-18.0783
డ	-18.0784
খ	-18.0785
ই	-18.0786
🇳	-18.0787
🇮	-18.0788
♍	-18.0789
♈	-18.079
ట	-18.0791
గ	-18.0792
য	-18.0793
এ	-18.0794
~	-18.0795
ল	-18.0796
🕐	-18.0797
জ	-18.0798
\	-18.0799
ক	-18.08
॰	-18.0801
̈	-18.0802
🔴	-18.0803
$	-18.0804
•	-18.0805
=	-18.0806
}	-18.0807
^	-18.0808
_	-18.0809
ऋ	-18.081
ऑ	-18.0811
(	-18.0812
औ	-18.0813
