{
  "version": "1.0",
  "truncation": null,
  "padding": null,
  "added_tokens": [
    {
      "id": 0,
      "content": "[UNK]",
      "single_word": false,
      "lstrip": false,
      "rstrip": false,
      "normalized": false,
      "special": true
    },
    {
      "id": 1,
      "content": "[CLS]",
      "single_word": false,
      "lstrip": false,
      "rstrip": false,
      "normalized": false,
      "special": true
    },
    {
      "id": 2,
      "content": "[SEP]",
      "single_word": false,
      "lstrip": false,
      "rstrip": false,
      "normalized": false,
      "special": true
    },
    {
      "id": 3,
      "content": "[PAD]",
      "single_word": false,
      "lstrip": false,
      "rstrip": false,
      "normalized": false,
      "special": true
    },
    {
      "id": 4,
      "content": "[MASK]",
      "single_word": false,
      "lstrip": false,
      "rstrip": false,
      "normalized": false,
      "special": true
    }
  ],
  "normalizer": {
    "type": "Sequence",
    "normalizers": [
      {
        "type": "NFKC"
      },
      {
        "type": "Lowercase"
      }
    ]
  },
  "pre_tokenizer": {
    "type": "Whitespace"
  },
  "post_processor": null,
  "decoder": {
    "type": "WordPiece",
    "prefix": "##",
    "cleanup": true
  },
  "model": {
    "type": "WordPiece",
    "unk_token": "[UNK]",
    "continuing_subword_prefix": "##",
    "max_input_chars_per_word": 100,
    "vocab": {
      "[UNK]": 0,
      "[CLS]": 1,
      "[SEP]": 2,
      "[PAD]": 3,
      "[MASK]": 4,
      "!": 5,
      "\"": 6,
      "#": 7,
      "$": 8,
      "%": 9,
      "&": 10,
      "'": 11,
      "(": 12,
      ")": 13,
      "*": 14,
      "+": 15,
      ",": 16,
      "-": 17,
      ".": 18,
      "/": 19,
      "0": 20,
      "1": 21,
      "2": 22,
      "3": 23,
      "4": 24,
      "5": 25,
      "6": 26,
      "7": 27,
      "8": 28,
      "9": 29,
      ":": 30,
      ";": 31,
      "=": 32,
      ">": 33,
      "?": 34,
      "@": 35,
      "[": 36,
      "\\": 37,
      "]": 38,
      "^": 39,
      "_": 40,
      "a": 41,
      "b": 42,
      "c": 43,
      "d": 44,
      "e": 45,
      "f": 46,
      "g": 47,
      "h": 48,
      "i": 49,
      "j": 50,
      "k": 51,
      "l": 52,
      "m": 53,
      "n": 54,
      "o": 55,
      "p": 56,
      "q": 57,
      "r": 58,
      "s": 59,
      "t": 60,
      "u": 61,
      "v": 62,
      "w": 63,
      "x": 64,
      "y": 65,
      "z": 66,
      "{": 67,
      "}": 68,
      "~": 69,
      "£": 70,
      "­": 71,
      "°": 72,
      "·": 73,
      "×": 74,
      "ï": 75,
      "̈": 76,
      "ँ": 77,
      "ं": 78,
      "ः": 79,
      "अ": 80,
      "आ": 81,
      "इ": 82,
      "ई": 83,
      "उ": 84,
      "ऊ": 85,
      "ऋ": 86,
      "ऍ": 87,
      "ए": 88,
      "ऐ": 89,
      "ऑ": 90,
      "ओ": 91,
      "औ": 92,
      "क": 93,
      "ख": 94,
      "ग": 95,
      "घ": 96,
      "ङ": 97,
      "च": 98,
      "छ": 99,
      "ज": 100,
      "झ": 101,
      "ञ": 102,
      "ट": 103,
      "ठ": 104,
      "ड": 105,
      "ढ": 106,
      "ण": 107,
      "त": 108,
      "थ": 109,
      "द": 110,
      "ध": 111,
      "न": 112,
      "ऩ": 113,
      "प": 114,
      "फ": 115,
      "ब": 116,
      "भ": 117,
      "म": 118,
      "य": 119,
      "र": 120,
      "ऱ": 121,
      "ल": 122,
      "ळ": 123,
      "व": 124,
      "श": 125,
      "ष": 126,
      "स": 127,
      "ह": 128,
      "़": 129,
      "ऽ": 130,
      "ा": 131,
      "ि": 132,
      "ी": 133,
      "ु": 134,
      "ू": 135,
      "ृ": 136,
      "ॅ": 137,
      "ॆ": 138,
      "े": 139,
      "ै": 140,
      "ॉ": 141,
      "ॊ": 142,
      "ो": 143,
      "ौ": 144,
      "्": 145,
      "ॐ": 146,
      "॑": 147,
      "ॠ": 148,
      "।": 149,
      "॥": 150,
      "०": 151,
      "१": 152,
      "२": 153,
      "३": 154,
      "४": 155,
      "५": 156,
      "६": 157,
      "८": 158,
      "९": 159,
      "॰": 160,
      "ঁ": 161,
      "অ": 162,
      "আ": 163,
      "ই": 164,
      "এ": 165,
      "ও": 166,
      "ক": 167,
      "খ": 168,
      "ঘ": 169,
      "চ": 170,
      "ছ": 171,
      "জ": 172,
      "ট": 173,
      "ঠ": 174,
      "ড": 175,
      "ণ": 176,
      "ত": 177,
      "দ": 178,
      "ধ": 179,
      "ন": 180,
      "প": 181,
      "ব": 182,
      "ম": 183,
      "য": 184,
      "র": 185,
      "ল": 186,
      "ষ": 187,
      "স": 188,
      "়": 189,
      "া": 190,
      "ি": 191,
      "ী": 192,
      "ু": 193,
      "ে": 194,
      "ো": 195,
      "্": 196,
      "ઢ": 197,
      "ం": 198,
      "ఇ": 199,
      "క": 200,
      "గ": 201,
      "చ": 202,
      "ఛ": 203,
      "జ": 204,
      "ట": 205,
      "డ": 206,
      "ణ": 207,
      "త": 208,
      "థ": 209,
      "ద": 210,
      "న": 211,
      "ప": 212,
      "ఫ": 213,
      "బ": 214,
      "భ": 215,
      "ర": 216,
      "ల": 217,
      "వ": 218,
      "శ": 219,
      "స": 220,
      "ా": 221,
      "ి": 222,
      "ీ": 223,
      "ు": 224,
      "ూ": 225,
      "ె": 226,
      "ే": 227,
      "ొ": 228,
      "ో": 229,
      "్": 230,
      "‌": 231,
      "‍": 232,
      "‎": 233,
      "‛": 234,
      "•": 235,
      "⁄": 236,
      "⁠": 237,
      "€": 238,
      "₹": 239,
      "⏩": 240,
      "⏱": 241,
      "▪": 242,
      "○": 243,
      "●": 244,
      "☀": 245,
      "♈": 246,
      "♉": 247,
      "♊": 248,
      "♋": 249,
      "♌": 250,
      "♍": 251,
      "♏": 252,
      "♐": 253,
      "♑": 254,
      "♒": 255,
      "♓": 256,
      "♦": 257,
      "⚠": 258,
      "⚫": 259,
      "❓": 260,
      "❗": 261,
      "➤": 262,
      "⭐": 263,
      "": 264,
      "️": 265,
      "🇮": 266,
      "🇳": 267,
      "🌅": 268,
      "🌙": 269,
      "🌟": 270,
      "🎉": 271,
      "🏅": 272,
      "🏹": 273,
      "🐉": 274,
      "💫": 275,
      "🔴": 276,
      "🔵": 277,
      "🕐": 278,
      "🗓": 279,
      "😉": 280,
      "😎": 281,
      "😜": 282,
      "😸": 283,
      "🤔": 284,
      "🤩": 285,
      "🦌": 286,
      "🧭": 287,
      "🪐": 288,
      "##ा": 289,
      "##म": 290,
      "##व": 291,
      "##ल": 292,
      "##ी": 293,
      "##य": 294,
      "##च": 295,
      "##स": 296,
      "##ं": 297,
      "##श": 298,
      "##्": 299,
      "##र": 300,
      "##ि": 301,
      "##े": 302,
      "##ड": 303,
      "##न": 304,
      "##ब": 305,
      "##द": 306,
      "##त": 307,
      "##ू": 308,
      "##क": 309,
      "##ो": 310,
      "##़": 311,
      "##2": 312,
      "##5": 313,
      "##ट": 314,
      "##l": 315,
      "##a": 316,
      "##v": 317,
      "##i": 318,
      "##s": 319,
      "##ु": 320,
      "##ख": 321,
      "##इ": 322,
      "##ज": 323,
      "##ै": 324,
      "##ग": 325,
      "##ह": 326,
      "##ष": 327,
      "##ठ": 328,
      "##7": 329,
      "##6": 330,
      "##4": 331,
      "##r": 332,
      "##p": 333,
      "##ढ": 334,
      "##t": 335,
      "##u": 336,
      "##ौ": 337,
      "##ए": 338,
      "##z": 339,
      "##e": 340,
      "##f": 341,
      "##फ": 342,
      "##ॉ": 343,
      "##आ": 344,
      "##ँ": 345,
      "##प": 346,
      "##ः": 347,
      "##h": 348,
      "##ृ": 349,
      "##छ": 350,
      "##अ": 351,
      "##ओ": 352,
      "##उ": 353,
      "##ध": 354,
      "##घ": 355,
      "##o": 356,
      "##d": 357,
      "##भ": 358,
      "##n": 359,
      "##3": 360,
      "##ई": 361,
      "##8": 362,
      "##थ": 363,
      "##0": 364,
      "##g": 365,
      "##‍": 366,
      "##1": 367,
      "##ॅ": 368,
      "##ण": 369,
      "##m": 370,
      "##c": 371,
      "##:": 372,
      "##9": 373,
      "##झ": 374,
      "##k": 375,
      "##b": 376,
      "##‌": 377,
      "##ऊ": 378,
      "##y": 379,
      "##w": 380,
      "##ञ": 381,
      "##x": 382,
      "##ऽ": 383,
      "##j": 384,
      "##q": 385,
      "##.": 386,
      "##ळ": 387,
      "##ే": 388,
      "##శ": 389,
      "##ా": 390,
      "##ర": 391,
      "##ు": 392,
      "##ङ": 393,
      "##!": 394,
      "##,": 395,
      "##।": 396,
      "##'": 397,
      "##औ": 398,
      "##ऐ": 399,
      "##ऱ": 400,
      "##_": 401,
      "##\"": 402,
      "##া": 403,
      "##ধ": 404,
      "##র": 405,
      "##ণ": 406,
      "##ল": 407,
      "##ব": 408,
      "##জ": 409,
      "##०": 410,
      "##-": 411,
      "##८": 412,
      "##१": 413,
      "##ऑ": 414,
      "##॥": 415,
      "##६": 416,
      "##)": 417,
      "##%": 418,
      "##খ": 419,
      "##ন": 420,
      "##=": 421,
      "##३": 422,
      "##ো": 423,
      "##স": 424,
      "##্": 425,
      "##ট": 426,
      "##ে": 427,
      "##;": 428,
      "##য": 429,
      "##ম": 430,
      "##+": 431,
      "##‎": 432,
      "##ॆ": 433,
      "##{": 434,
      "##?": 435,
      "##ऩ": 436,
      "##🇳": 437,
      "##క": 438,
      "##్": 439,
      "##త": 440,
      "##ి": 441,
      "##/": 442,
      "###": 443,
      "##*": 444,
      "##॰": 445,
      "##ऋ": 446,
      "##ি": 447,
      "##চ": 448,
      "##₹": 449,
      "##ల": 450,
      "##గ": 451,
      "##ু": 452,
      "##ড": 453,
      "##়": 454,
      "##న": 455,
      "##দ": 456,
      "##ঁ": 457,
      "##😜": 458,
      "##😸": 459,
      "##😎": 460,
      "##🤩": 461,
      "##ত": 462,
      "##ী": 463,
      "##ం": 464,
      "##డ": 465,
      "##ట": 466,
      "##ছ": 467,
      "##ీ": 468,
      "##ষ": 469,
      "##ক": 470,
      "##२": 471,
      "##@": 472,
      "##ॊ": 473,
      "##९": 474,
      "##­": 475,
      "##థ": 476,
      "##ో": 477,
      "##ঠ": 478,
      "##५": 479,
      "##ই": 480,
      "##స": 481,
      "##ూ": 482,
      "##\\": 483,
      "##}": 484,
      "##$": 485,
      "##ॠ": 486,
      "##": 487,
      "##ణ": 488,
      "##४": 489,
      "##ï": 490,
      "##(": 491,
      "##ె": 492,
      "##প": 493,
      "##>": 494,
      "##జ": 495,
      "##🤔": 496,
      "##^": 497,
      "##ও": 498,
      "##చ": 499,
      "##ొ": 500,
      "##ద": 501,
      "##॑": 502,
      "##ार": 503,
      "##ें": 504,
      "के": 505,
      "##्र": 506,
      "##या": 507,
      "में": 508,
      "है": 509,
      "##ान": 510,
      "की": 511,
      "##ों": 512,
      "को": 513,
      "##र्": 514,
      "से": 515,
      "##ने": 516,
      "कि": 517,
      "ने": 518,
      "का": 519,
      "##ता": 520,
      "कर": 521,
      "##ाल": 522,
      "पर": 523,
      "##िक": 524,
      "##ना": 525,
      "##्य": 526,
      "##िल": 527,
      "और": 528,
      "##स्": 529,
      "##क्": 530,
      "प्र": 531,
      "##ड़": 532,
      "##ां": 533,
      "##ाम": 534,
      "इस": 535,
      "##ही": 536,
      "##िया": 537,
      "हो": 538,
      "##वा": 539,
      "##ित": 540,
      "##के": 541,
      "बा": 542,
      "##हा": 543,
      "##कर": 544,
      "हैं": 545,
      "##ला": 546,
      "##िय": 547,
      "##िए": 548,
      "##िस": 549,
      "##ुर": 550,
      "##ंग": 551,
      "##ले": 552,
      "भी": 553,
      "वि": 554,
      "स्": 555,
      "##ते": 556,
      "##त्र": 557,
      "रा": 558,
      "##ेश": 559,
      "जा": 560,
      "##िन": 561,
      "##री": 562,
      "##ारी": 563,
      "##हीं": 564,
      "उन": 565,
      "सा": 566,
      "##ती": 567,
      "हु": 568,
      "##रा": 569,
      "##ुल": 570,
      "##्या": 571,
      "किया": 572,
      "##ति": 573,
      "##वार": 574,
      "लिए": 575,
      "एक": 576,
      "##से": 577,
      "सं": 578,
      "ले": 579,
      "##सी": 580,
      "##नी": 581,
      "##गा": 582,
      "गया": 583,
      "पह": 584,
      "##ंद": 585,
      "सम": 586,
      "##क्ष": 587,
      "##ोग": 588,
      "नहीं": 589,
      "दे": 590,
      "रह": 591,
      "था": 592,
      "##ाय": 593,
      "नि": 594,
      "कार": 595,
      "अप": 596,
      "मु": 597,
      "##िला": 598,
      "##ली": 599,
      "##का": 600,
      "##टी": 601,
      "##की": 602,
      "ही": 603,
      "बाद": 604,
      "सि": 605,
      "##ाने": 606,
      "##ियों": 607,
      "##त्": 608,
      "##ार्": 609,
      "##ास": 610,
      "##ंड": 611,
      "##्ह": 612,
      "साथ": 613,
      "पुल": 614,
      "##भा": 615,
      "##िर": 616,
      "##पी": 617,
      "यह": 618,
      "पुलिस": 619,
      "गई": 620,
      "##मा": 621,
      "पू": 622,
      "बता": 623,
      "कु": 624,
      "कहा": 625,
      "##ाद": 626,
      "##गी": 627,
      "करने": 628,
      "सु": 629,
      "##ढ़": 630,
      "##टर": 631,
      "उन्ह": 632,
      "दो": 633,
      "अध": 634,
      "सी": 635,
      "राज": 636,
      "##ंच": 637,
      "रहे": 638,
      "तो": 639,
      "थी": 640,
      "##्म": 641,
      "दिया": 642,
      "##रो": 643,
      "उस": 644,
      "##्री": 645,
      "##रे": 646,
      "लोग": 647,
      "वाल": 648,
      "##ाना": 649,
      "##्रे": 650,
      "मह": 651,
      "अन": 652,
      "##पुर": 653,
      "##ौर": 654,
      "##ाइ": 655,
      "तक": 656,
      "रहा": 657,
      "बताया": 658,
      "##ाज": 659,
      "##स्ट": 660,
      "##ल्": 661,
      "दी": 662,
      "20": 663,
      "##में": 664,
      "चु": 665,
      "##देश": 666,
      "##गे": 667,
      "##कार": 668,
      "##भी": 669,
      "मौ": 670,
      "हुए": 671,
      "मिल": 672,
      "##ाह": 673,
      "##ानी": 674,
      "##ष्": 675,
      "##ाई": 676,
      "##िश": 677,
      "##वी": 678,
      "##दी": 679,
      "##गर": 680,
      "##्त": 681,
      "##ंह": 682,
      "बार": 683,
      "रही": 684,
      "##दा": 685,
      "##्ष": 686,
      "थे": 687,
      "बी": 688,
      "##ंत्र": 689,
      "##कि": 690,
      "##ोज": 691,
      "जिस": 692,
      "##टे": 693,
      "##िव": 694,
      "##नों": 695,
      "##जी": 696,
      "##ोंने": 697,
      "##ओं": 698,
      "सिंह": 699,
      "##बर": 700,
      "##हर": 701,
      "##शन": 702,
      "सर": 703,
      "##वि": 704,
      "##जा": 705,
      "गए": 706,
      "उन्होंने": 707,
      "वह": 708,
      "##ड़ी": 709,
      "##र्ट": 710,
      "##मी": 711,
      "जो": 712,
      "##स्थ": 713,
      "मो": 714,
      "बे": 715,
      "हम": 716,
      "जाए": 717,
      "पहु": 718,
      "##जे": 719,
      "आरो": 720,
      "##ुप": 721,
      "##स्त": 722,
      "पहुंच": 723,
      "##ाप": 724,
      "##िंग": 725,
      "लेकर": 726,
      "##सा": 727,
      "लगा": 728,
      "पहले": 729,
      "दिन": 730,
      "मे": 731,
      "##ड़ा": 732,
      "स्थ": 733,
      "इसके": 734,
      "##द्र": 735,
      "##द्": 736,
      "##च्": 737,
      "अधिक": 738,
      "मै": 739,
      "लोगों": 740,
      "##ेल": 741,
      "भार": 742,
      "अपने": 743,
      "माम": 744,
      "पी": 745,
      "कार्य": 746,
      "ला": 747,
      "##पा": 748,
      "हुई": 749,
      "##किन": 750,
      "##्व": 751,
      "लेकिन": 752,
      "जब": 753,
      "##ंत्री": 754,
      "बै": 755,
      "##क्र": 756,
      "सो": 757,
      "परि": 758,
      "साल": 759,
      "टी": 760,
      "##मार": 761,
      "दौर": 762,
      "##र्म": 763,
      "इन": 764,
      "##ोक": 765,
      "जान": 766,
      "##वे": 767,
      "होने": 768,
      "##ंध": 769,
      "जी": 770,
      "गां": 771,
      "सक": 772,
      "वाले": 773,
      "क्ष": 774,
      "दौरान": 775,
      "अब": 776,
      "##ांच": 777,
      "##ंप": 778,
      "##र्ज": 779,
      "बि": 780,
      "##तर": 781,
      "##खा": 782,
      "##न्": 783,
      "##नाव": 784,
      "हुआ": 785,
      "साम": 786,
      "वर्": 787,
      "कै": 788,
      "कम": 789,
      "पि": 790,
      "बना": 791,
      "निर्": 792,
      "या": 793,
      "घर": 794,
      "दू": 795,
      "##ोट": 796,
      "##ीन": 797,
      "तर": 798,
      "बात": 799,
      "पा": 800,
      "##ष्ट": 801,
      "शिक": 802,
      "##धान": 803,
      "##ेट": 804,
      "##्रेस": 805,
      "##ेत्र": 806,
      "मां": 807,
      "##मान": 808,
      "सरकार": 809,
      "यु": 810,
      "##ूल": 811,
      "उप": 812,
      "##र्व": 813,
      "##कारी": 814,
      "शाम": 815,
      "शुर": 816,
      "रुप": 817,
      "करते": 818,
      "##ड़े": 819,
      "##टना": 820,
      "##च्च": 821,
      "आय": 822,
      "क्षेत्र": 823,
      "हर": 824,
      "##वं": 825,
      "##ेंद्र": 826,
      "##डी": 827,
      "##िप": 828,
      "कुमार": 829,
      "##वाल": 830,
      "चुनाव": 831,
      "आप": 832,
      "ये": 833,
      "##एम": 834,
      "अं": 835,
      "रू": 836,
      "##ोर": 837,
      "पार्": 838,
      "महिला": 839,
      "काम": 840,
      "डॉ": 841,
      "##्स": 842,
      "सभी": 843,
      "कह": 844,
      "जन": 845,
      "सू": 846,
      "##कों": 847,
      "##वर": 848,
      "##्ल": 849,
      "कुछ": 850,
      "##क्षा": 851,
      "##ून": 852,
      "बन": 853,
      "202": 854,
      "##क्त": 855,
      "लिया": 856,
      "##ोल": 857,
      "##स्प": 858,
      "दु": 859,
      "कई": 860,
      "पास": 861,
      "चल": 862,
      "##क्ट": 863,
      "##वाई": 864,
      "बढ़": 865,
      "10": 866,
      "सब": 867,
      "##जार": 868,
      "लग": 869,
      "मुख": 870,
      "##क्टर": 871,
      "थाना": 872,
      "अनु": 873,
      "वे": 874,
      "स्ट": 875,
      "भारत": 876,
      "कॉ": 877,
      "##सभा": 878,
      "गांव": 879,
      "##वारा": 880,
      "रो": 881,
      "द्": 882,
      "हि": 883,
      "प्रति": 884,
      "##ारा": 885,
      "##सर": 886,
      "गिर": 887,
      "मा": 888,
      "टीम": 889,
      "ग्र": 890,
      "##जन": 891,
      "उनके": 892,
      "जु": 893,
      "##भाग": 894,
      "बह": 895,
      "##बी": 896,
      "मामले": 897,
      "##ेंगे": 898,
      "कोई": 899,
      "भा": 900,
      "चौ": 901,
      "सह": 902,
      "कांग": 903,
      "व्य": 904,
      "नाम": 905,
      "##एस": 906,
      "ट्र": 907,
      "आज": 908,
      "दर्ज": 909,
      "विश": 910,
      "##ोड़": 911,
      "आरोप": 912,
      "##चार": 913,
      "##िम": 914,
      "द्वारा": 915,
      "##शी": 916,
      "##िका": 917,
      "समय": 918,
      "कांग्रेस": 919,
      "अपनी": 920,
      "##्यक्ष": 921,
      "##बंध": 922,
      "देख": 923,
      "##ीड": 924,
      "##टा": 925,
      "शुरू": 926,
      "बच्च": 927,
      "##ेज": 928,
      "##र्स": 929,
      "हाल": 930,
      "वहीं": 931,
      "उन्हें": 932,
      "खिला": 933,
      "घटना": 934,
      "##्यू": 935,
      "यहां": 936,
      "दोनों": 937,
      "विक": 938,
      "निक": 939,
      "जिल": 940,
      "##द्ध": 941,
      "बु": 942,
      "इं": 943,
      "अभ": 944,
      "गो": 945,
      "##णा": 946,
      "स्क": 947,
      "जै": 948,
      "एस": 949,
      "चाह": 950,
      "##ोर्ट": 951,
      "##िट": 952,
      "जिला": 953,
      "##ृत": 954,
      "बजे": 955,
      "##ताल": 956,
      "##यर": 957,
      "रुपए": 958,
      "अम": 959,
      "ना": 960,
      "अव": 961,
      "फिल": 962,
      "जांच": 963,
      "##ंबर": 964,
      "##ूर": 965,
      "पै": 966,
      "विभाग": 967,
      "आई": 968,
      "किसी": 969,
      "रूप": 970,
      "अल": 971,
      "राम": 972,
      "तरह": 973,
      "मुख्य": 974,
      "देश": 975,
      "रख": 976,
      "आरोपी": 977,
      "##मंत्री": 978,
      "बीच": 979,
      "युव": 980,
      "##फ्त": 981,
      "##्यों": 982,
      "उसके": 983,
      "##ायत": 984,
      "जानकारी": 985,
      "अग": 986,
      "##ंट": 987,
      "##00": 988,
      "##ंक": 989,
      "##ेर": 990,
      "##क्स": 991,
      "प्रदेश": 992,
      "गु": 993,
      "##दार": 994,
      "दूस": 995,
      "दिल": 996,
      "दि": 997,
      "लोक": 998,
      "लाख": 999,
      "डि": 1000,
      "शामिल": 1001,
      "##जू": 1002,
      "स्थित": 1003,
      "##्न": 1004,
      "##त्या": 1005,
      "##लय": 1006,
      "##चना": 1007,
      "एवं": 1008,
      "पु": 1009,
      "बद": 1010,
      "भाज": 1011,
      "छा": 1012,
      "##ाला": 1013,
      "नगर": 1014,
      "फिर": 1015,
      "##को": 1016,
      "बैठ": 1017,
      "अस्प": 1018,
      "##ाली": 1019,
      "भाजपा": 1020,
      "करी": 1021,
      "होगा": 1022,
      "##चा": 1023,
      "मैं": 1024,
      "अस्पताल": 1025,
      "##एं": 1026,
      "जाएगा": 1027,
      "##जर": 1028,
      "खु": 1029,
      "##वन": 1030,
      "##आई": 1031,
      "किए": 1032,
      "जाने": 1033,
      "##र्ड": 1034,
      "तै": 1035,
      "##म्म": 1036,
      "उसे": 1037,
      "##वासी": 1038,
      "इला": 1039,
      "##सान": 1040,
      "##ंस": 1041,
      "खिलाफ": 1042,
      "##दान": 1043,
      "जारी": 1044,
      "##क्रम": 1045,
      "कारण": 1046,
      "##ेशन": 1047,
      "उत्": 1048,
      "##्यादा": 1049,
      "जिले": 1050,
      "पार्टी": 1051,
      "पूर्व": 1052,
      "##ेंट": 1053,
      "सुर": 1054,
      "अन्य": 1055,
      "रात": 1056,
      "##ांस": 1057,
      "रे": 1058,
      "नी": 1059,
      "मान": 1060,
      "##ियां": 1061,
      "##प्": 1062,
      "शु": 1063,
      "##धार": 1064,
      "##बा": 1065,
      "याद": 1066,
      "##ुरु": 1067,
      "##वान": 1068,
      "करीब": 1069,
      "##ज्": 1070,
      "वो": 1071,
      "##फी": 1072,
      "##हत": 1073,
      "मंद": 1074,
      "उनकी": 1075,
      "आयोज": 1076,
      "सद": 1077,
      "नेता": 1078,
      "##क्ति": 1079,
      "ज्यादा": 1080,
      "परिवार": 1081,
      "सीट": 1082,
      "बो": 1083,
      "##र्थ": 1084,
      "गिरफ्त": 1085,
      "अध्यक्ष": 1086,
      "डी": 1087,
      "मार": 1088,
      "फै": 1089,
      "वाली": 1090,
      "##सार": 1091,
      "फिल्म": 1092,
      "मौके": 1093,
      "मंत्री": 1094,
      "आए": 1095,
      "ओर": 1096,
      "##तीय": 1097,
      "राज्य": 1098,
      "तीन": 1099,
      "वर्ष": 1100,
      "##हार": 1101,
      "##त्रा": 1102,
      "प्रश": 1103,
      "करना": 1104,
      "मंदिर": 1105,
      "कार्र": 1106,
      "जाता": 1107,
      "##पाल": 1108,
      "##्यालय": 1109,
      "सुब": 1110,
      "सामने": 1111,
      "कार्रवाई": 1112,
      "मौत": 1113,
      "लि": 1114,
      "ली": 1115,
      "##पर": 1116,
      "जग": 1117,
      "##ामी": 1118,
      "##ुत": 1119,
      "##गढ़": 1120,
      "शहर": 1121,
      "##लो": 1122,
      "हजार": 1123,
      "##धी": 1124,
      "सुबह": 1125,
      "कार्यक्रम": 1126,
      "स्कूल": 1127,
      "जह": 1128,
      "विध": 1129,
      "##ाया": 1130,
      "##्रीय": 1131,
      "मांग": 1132,
      "आद": 1133,
      "श्री": 1134,
      "सबसे": 1135,
      "हा": 1136,
      "देने": 1137,
      "क्या": 1138,
      "##्ली": 1139,
      "##जय": 1140,
      "12": 1141,
      "मार्": 1142,
      "##वास": 1143,
      "शिक्ष": 1144,
      "पिछ": 1145,
      "##्ला": 1146,
      "##ारे": 1147,
      "करोड़": 1148,
      "निवासी": 1149,
      "महा": 1150,
      "पो": 1151,
      "##गत": 1152,
      "यादव": 1153,
      "अलग": 1154,
      "इसी": 1155,
      "आर": 1156,
      "##नि": 1157,
      "पानी": 1158,
      "##ूम": 1159,
      "##ब्": 1160,
      "##र्मा": 1161,
      "सूचना": 1162,
      "यू": 1163,
      "##कान": 1164,
      "लड़": 1165,
      "जहां": 1166,
      "युवक": 1167,
      "बारिश": 1168,
      "##ायल": 1169,
      "ऐसे": 1170,
      "##भाव": 1171,
      "##ियो": 1172,
      "##जूद": 1173,
      "##ेत": 1174,
      "दिए": 1175,
      "##िता": 1176,
      "##ध्य": 1177,
      "कंप": 1178,
      "शिकायत": 1179,
      "मन": 1180,
      "##्ड": 1181,
      "क्र": 1182,
      "2024": 1183,
      "आने": 1184,
      "##ादी": 1185,
      "19": 1186,
      "##ूर्": 1187,
      "जर": 1188,
      "पहुंचे": 1189,
      "होगी": 1190,
      "जिसमें": 1191,
      "##ारियों": 1192,
      "##ोन": 1193,
      "इसमें": 1194,
      "आया": 1195,
      "##ंगल": 1196,
      "15": 1197,
      "##स्था": 1198,
      "गिरफ्तार": 1199,
      "##तार": 1200,
      "##ंब": 1201,
      "##दे": 1202,
      "सड़": 1203,
      "अधिकारी": 1204,
      "##ैन": 1205,
      "तैय": 1206,
      "इससे": 1207,
      "##ंत": 1208,
      "मिली": 1209,
      "##र्शन": 1210,
      "##ासन": 1211,
      "##ंदर": 1212,
      "मोदी": 1213,
      "जय": 1214,
      "##ोष": 1215,
      "भारतीय": 1216,
      "11": 1217,
      "पढ़": 1218,
      "##रण": 1219,
      "##ूं": 1220,
      "##श्": 1221,
      "##धिक": 1222,
      "दिल्ली": 1223,
      "मत": 1224,
      "अनुसार": 1225,
      "रहने": 1226,
      "पद": 1227,
      "##ायर": 1228,
      "कोर्ट": 1229,
      "शर्मा": 1230,
      "##ोजना": 1231,
      "##वाद": 1232,
      "शिव": 1233,
      "##धा": 1234,
      "आग": 1235,
      "राष्ट": 1236,
      "सकता": 1237,
      "पत्": 1238,
      "##ंज": 1239,
      "##ायक": 1240,
      "चाहिए": 1241,
      "बर": 1242,
      "प्रा": 1243,
      "रिप": 1244,
      "लोकसभा": 1245,
      "##ियर": 1246,
      "जिन": 1247,
      "##च्छ": 1248,
      "बाहर": 1249,
      "##मेंट": 1250,
      "ती": 1251,
      "कप": 1252,
      "##त्व": 1253,
      "वहां": 1254,
      "##ेंस": 1255,
      "चला": 1256,
      "##ये": 1257,
      "शव": 1258,
      "गुरु": 1259,
      "##राब": 1260,
      "संबंध": 1261,
      "##्रा": 1262,
      "##वल": 1263,
      "30": 1264,
      "##कर्": 1265,
      "स्व": 1266,
      "पिछले": 1267,
      "मामला": 1268,
      "किसान": 1269,
      "पूरी": 1270,
      "कर्म": 1271,
      "पिता": 1272,
      "निय": 1273,
      "मिले": 1274,
      "उसकी": 1275,
      "##ंगे": 1276,
      "क्यों": 1277,
      "इंड": 1278,
      "##र्फ": 1279,
      "##इक": 1280,
      "##ेम": 1281,
      "##सल": 1282,
      "मी": 1283,
      "विधान": 1284,
      "चे": 1285,
      "##ज्ञ": 1286,
      "##ाइन": 1287,
      "प्रद": 1288,
      "परी": 1289,
      "चार": 1290,
      "बंद": 1291,
      "शे": 1292,
      "पं": 1293,
      "##आर": 1294,
      "201": 1295,
      "मोह": 1296,
      "##प्र": 1297,
      "प्रधान": 1298,
      "ट्रे": 1299,
      "मिला": 1300,
      "एन": 1301,
      "##सम": 1302,
      "आगे": 1303,
      "##ूट": 1304,
      "##स्थान": 1305,
      "दर": 1306,
      "उठ": 1307,
      "ऑफ": 1308,
      "काफी": 1309,
      "बड़ी": 1310,
      "रिपोर्ट": 1311,
      "प्रत": 1312,
      "सहित": 1313,
      "केंद्र": 1314,
      "करें": 1315,
      "एम": 1316,
      "बस": 1317,
      "रवि": 1318,
      "##माण": 1319,
      "##िज": 1320,
      "स्वा": 1321,
      "विद": 1322,
      "समाज": 1323,
      "##ख्या": 1324,
      "जाएगी": 1325,
      "##चान": 1326,
      "जबकि": 1327,
      "सफ": 1328,
      "मृत": 1329,
      "घायल": 1330,
      "##ांड": 1331,
      "##..": 1332,
      "बहुत": 1333,
      "##था": 1334,
      "जीत": 1335,
      "पड़": 1336,
      "अला": 1337,
      "मही": 1338,
      "सड़क": 1339,
      "##योग": 1340,
      "##ोह": 1341,
      "हालां": 1342,
      "रोड": 1343,
      "अभी": 1344,
      "हालांकि": 1345,
      "जगह": 1346,
      "वीड": 1347,
      "विकास": 1348,
      "##ताब": 1349,
      "संग": 1350,
      "##ुक्त": 1351,
      "बां": 1352,
      "सदस": 1353,
      "##त्म": 1354,
      "दा": 1355,
      "मुख्यमंत्री": 1356,
      "##म्मी": 1357,
      "हत्या": 1358,
      "निर्देश": 1359,
      "होता": 1360,
      "##ोध": 1361,
      "##लाई": 1362,
      "अपना": 1363,
      "छात्र": 1364,
      "गा": 1365,
      "##ट्": 1366,
      "बैठक": 1367,
      "##ुक": 1368,
      "##लों": 1369,
      "विधानसभा": 1370,
      "मौजूद": 1371,
      "जिसके": 1372,
      "तहत": 1373,
      "व्यव": 1374,
      "दूसरे": 1375,
      "बच्चों": 1376,
      "वीडियो": 1377,
      "मीड": 1378,
      "25": 1379,
      "टे": 1380,
      "##ेंद": 1381,
      "##जह": 1382,
      "योजना": 1383,
      "उसने": 1384,
      "बारे": 1385,
      "स्प": 1386,
      "##ुआ": 1387,
      "सुन": 1388,
      "##गम": 1389,
      "बाइक": 1390,
      "##क्षण": 1391,
      "सकते": 1392,
      "अगर": 1393,
      "उम्मी": 1394,
      "##ंटे": 1395,
      "##बू": 1396,
      "उम्मीद": 1397,
      "अलावा": 1398,
      "पत्नी": 1399,
      "विधायक": 1400,
      "उनका": 1401,
      "कुल": 1402,
      "भग": 1403,
      "##ग्री": 1404,
      "मीडिया": 1405,
      "##ची": 1406,
      "मज": 1407,
      "##मु": 1408,
      "तब": 1409,
      "वै": 1410,
      "##ाइल": 1411,
      "बॉ": 1412,
      "वाह": 1413,
      "पता": 1414,
      "पूछ": 1415,
      "##ेष": 1416,
      "ब्र": 1417,
      "कंपनी": 1418,
      "कहना": 1419,
      "पुर": 1420,
      "सोम": 1421,
      "वजह": 1422,
      "##वरी": 1423,
      "##ोरी": 1424,
      "##तम": 1425,
      "भाग": 1426,
      "प्रभ": 1427,
      "इसे": 1428,
      "परीक्षा": 1429,
      "##ंगा": 1430,
      "पोस्ट": 1431,
      "संख्या": 1432,
      "आरोपियों": 1433,
      "शादी": 1434,
      "##लेज": 1435,
      "मंगल": 1436,
      "आम": 1437,
      "आस": 1438,
      "सुरक्षा": 1439,
      "प्रशासन": 1440,
      "##मिक": 1441,
      "##ष्ठ": 1442,
      "पंच": 1443,
      "जल": 1444,
      "पे": 1445,
      "##ेंड": 1446,
      "दिनों": 1447,
      "##ताओं": 1448,
      "फर": 1449,
      "हाथ": 1450,
      "कृ": 1451,
      "फी": 1452,
      "दिख": 1453,
      "रेल": 1454,
      "##फ्": 1455,
      "##खंड": 1456,
      "##राज": 1457,
      "सांस": 1458,
      "अधिकारियों": 1459,
      "ग्रामी": 1460,
      "पक": 1461,
      "जैसे": 1462,
      "ग्रामीण": 1463,
      "वोट": 1464,
      "##ार्थ": 1465,
      "आधार": 1466,
      "##झे": 1467,
      "हरिया": 1468,
      "तेज": 1469,
      "पत्र": 1470,
      "##शल": 1471,
      "लगे": 1472,
      "करता": 1473,
      "व्यक्ति": 1474,
      "मुताब": 1475,
      "तरफ": 1476,
      "##काल": 1477,
      "मुताबिक": 1478,
      "प्रो": 1479,
      "##णी": 1480,
      "कल": 1481,
      "पूरा": 1482,
      "##स्ता": 1483,
      "करेंगे": 1484,
      "होती": 1485,
      "##जेपी": 1486,
      "भाई": 1487,
      "बिज": 1488,
      "##वेद": 1489,
      "दुकान": 1490,
      "सच": 1491,
      "##ाक": 1492,
      "महीने": 1493,
      "भर": 1494,
      "##चाल": 1495,
      "##क्शन": 1496,
      "एक्स": 1497,
      "जे": 1498,
      "##चित": 1499,
      "##ात": 1500,
      "हों": 1501,
      "आयोजन": 1502,
      "गं": 1503,
      "पहुंची": 1504,
      "बनाने": 1505,
      "ऐसा": 1506,
      "थाने": 1507,
      "घंटे": 1508,
      "योग": 1509,
      "बीजेपी": 1510,
      "हरियाणा": 1511,
      "##an": 1512,
      "कान": 1513,
      "##तन": 1514,
      "मंड": 1515,
      "अर": 1516,
      "दिव": 1517,
      "नंबर": 1518,
      "विशेष": 1519,
      "न्या": 1520,
      "##र्य": 1521,
      "राय": 1522,
      "बाल": 1523,
      "सै": 1524,
      "नजर": 1525,
      "सम्म": 1526,
      "पीड़": 1527,
      "खेल": 1528,
      "साह": 1529,
      "सोमवार": 1530,
      "लगातार": 1531,
      "कॉलेज": 1532,
      "श्र": 1533,
      "डे": 1534,
      "##र्चा": 1535,
      "रन": 1536,
      "##वेश": 1537,
      "जिससे": 1538,
      "पूरे": 1539,
      "मद": 1540,
      "निर्माण": 1541,
      "डॉक्टर": 1542,
      "माल": 1543,
      "##बाद": 1544,
      "##दीप": 1545,
      "##िति": 1546,
      "इंद": 1547,
      "##लिए": 1548,
      "इसकी": 1549,
      "सीएम": 1550,
      "सांसद": 1551,
      "जून": 1552,
      "राह": 1553,
      "शनि": 1554,
      "हाई": 1555,
      "##तिक": 1556,
      "##ार्ड": 1557,
      "उद": 1558,
      "##शा": 1559,
      "##र्क": 1560,
      "##िकल": 1561,
      "सकती": 1562,
      "##िटी": 1563,
      "##जनों": 1564,
      "तैयार": 1565,
      "लाल": 1566,
      "पहली": 1567,
      "लगाया": 1568,
      "विश्व": 1569,
      "घोष": 1570,
      "##रीज": 1571,
      "हाद": 1572,
      "मिलने": 1573,
      "निगम": 1574,
      "##म्": 1575,
      "गर्": 1576,
      "14": 1577,
      "##भीर": 1578,
      "बिहार": 1579,
      "प्रदर्शन": 1580,
      "केस": 1581,
      "चंद": 1582,
      "कले": 1583,
      "वाला": 1584,
      "पांच": 1585,
      "##स्ते": 1586,
      "सौ": 1587,
      "सेवा": 1588,
      "##र्ती": 1589,
      "मुझे": 1590,
      "##स्क": 1591,
      "इसका": 1592,
      "बड़े": 1593,
      "मंगलवार": 1594,
      "बुध": 1595,
      "##ीय": 1596,
      "24": 1597,
      "##ज़": 1598,
      "हूं": 1599,
      "भगवान": 1600,
      "गंभीर": 1601,
      "जमी": 1602,
      "प्रधानमंत्री": 1603,
      "कराया": 1604,
      "ड्र": 1605,
      "##पति": 1606,
      "...": 1607,
      "शुक्र": 1608,
      "आदि": 1609,
      "13": 1610,
      "##र्च": 1611,
      "पंजा": 1612,
      "डिग्री": 1613,
      "देते": 1614,
      "नर": 1615,
      "इसलिए": 1616,
      "##ियन": 1617,
      "##ार्ट": 1618,
      "गांधी": 1619,
      "अफ": 1620,
      "मैच": 1621,
      "##वीर": 1622,
      "50": 1623,
      "समझ": 1624,
      "##बल": 1625,
      "##िस्ट": 1626,
      "##ियान": 1627,
      "व्यवस्था": 1628,
      "विरो": 1629,
      "##शत": 1630,
      "शनिवार": 1631,
      "प्रया": 1632,
      "हिस्": 1633,
      "रविवार": 1634,
      "नए": 1635,
      "व्या": 1636,
      "बड़ा": 1637,
      "भे": 1638,
      "बनाया": 1639,
      "खुद": 1640,
      "18": 1641,
      "जवा": 1642,
      "##ग्": 1643,
      "##यान": 1644,
      "करे": 1645,
      "नई": 1646,
      "जल्": 1647,
      "सवाल": 1648,
      "##निया": 1649,
      "##स्तान": 1650,
      "खान": 1651,
      "राजनी": 1652,
      "इलाज": 1653,
      "बज": 1654,
      "वाप": 1655,
      "##ल्ड": 1656,
      "##ष्ण": 1657,
      "शुक्रवार": 1658,
      "बुधवार": 1659,
      "प्रस": 1660,
      "माह": 1661,
      "जाती": 1662,
      "ताप": 1663,
      "##करण": 1664,
      "शिक्षा": 1665,
      "लगी": 1666,
      "संचाल": 1667,
      "##नाथ": 1668,
      "ट्रेन": 1669,
      "##षण": 1670,
      "##स्या": 1671,
      "##शि": 1672,
      "##बाज": 1673,
      "प्रभारी": 1674,
      "जेल": 1675,
      "एक्ट": 1676,
      "##इन": 1677,
      "##ीर": 1678,
      "रुपये": 1679,
      "मेड": 1680,
      "नौ": 1681,
      "पूजा": 1682,
      "##्ले": 1683,
      "पति": 1684,
      "##ैल": 1685,
      "अच्छ": 1686,
      "हे": 1687,
      "##ाट": 1688,
      "आयोजित": 1689,
      "16": 1690,
      "राजस्थान": 1691,
      "परेश": 1692,
      "##मुख": 1693,
      "पहचान": 1694,
      "पक्ष": 1695,
      "##काश": 1696,
      "##ांत": 1697,
      "देव": 1698,
      "तापमान": 1699,
      "बच": 1700,
      "समेत": 1701,
      "आदेश": 1702,
      "##ुम": 1703,
      "बिजली": 1704,
      "उसका": 1705,
      "सामान": 1706,
      "हिंद": 1707,
      "पंजाब": 1708,
      "परिजनों": 1709,
      "सदस्य": 1710,
      "गुरुवार": 1711,
      "भर्ती": 1712,
      "##बे": 1713,
      "संप": 1714,
      "अति": 1715,
      "स्थिति": 1716,
      "सित": 1717,
      "##ैंड": 1718,
      "##ाप्त": 1719,
      "लेने": 1720,
      "मौसम": 1721,
      "बेटे": 1722,
      "17": 1723,
      "खरी": 1724,
      "होते": 1725,
      "##िश्": 1726,
      "दें": 1727,
      "विभ": 1728,
      "दल": 1729,
      "शुरुआ": 1730,
      "स्थान": 1731,
      "##ॉल": 1732,
      "मध्य": 1733,
      "##बंधन": 1734,
      "राहुल": 1735,
      "देर": 1736,
      "इत": 1737,
      "बेह": 1738,
      "जमीन": 1739,
      "वन": 1740,
      "##िन्न": 1741,
      "दोप": 1742,
      "सरकारी": 1743,
      "नार": 1744,
      "बच्चे": 1745,
      "गै": 1746,
      "तस्": 1747,
      "होकर": 1748,
      "छो": 1749,
      "बनाए": 1750,
      "जुलाई": 1751,
      "फोन": 1752,
      "करवा": 1753,
      "बल": 1754,
      "जनता": 1755,
      "छोड़": 1756,
      "यात्रा": 1757,
      "बल्": 1758,
      "##र्श": 1759,
      "बेटी": 1760,
      "गठ": 1761,
      "रिक": 1762,
      "##िरा": 1763,
      "चाल": 1764,
      "चलते": 1765,
      "##न्द्र": 1766,
      "##डा": 1767,
      "रखा": 1768,
      "बाजार": 1769,
      "राष्ट्रीय": 1770,
      "चोरी": 1771,
      "##त्री": 1772,
      "रोक": 1773,
      "खे": 1774,
      "##ग्र": 1775,
      "क्योंकि": 1776,
      "थीं": 1777,
      "प्रतिशत": 1778,
      "##्वर": 1779,
      "भेज": 1780,
      "चुके": 1781,
      "हमला": 1782,
      "22": 1783,
      "उम": 1784,
      "विभिन्न": 1785,
      "दूसरी": 1786,
      "पीछ": 1787,
      "दोपहर": 1788,
      "सोशल": 1789,
      "अगस्त": 1790,
      "करके": 1791,
      "मि": 1792,
      "चर्चा": 1793,
      "##पास": 1794,
      "##स्ती": 1795,
      "मोब": 1796,
      "##जीत": 1797,
      "पार": 1798,
      "##दारी": 1799,
      "अभियान": 1800,
      "यून": 1801,
      "##स्थ्य": 1802,
      "तला": 1803,
      "अह": 1804,
      "वित": 1805,
      "##भग": 1806,
      "युवा": 1807,
      "अमेर": 1808,
      "##पूर्": 1809,
      "मदद": 1810,
      "##फर": 1811,
      "महिलाओं": 1812,
      "विरोध": 1813,
      "भो": 1814,
      "##ेक": 1815,
      "बने": 1816,
      "लॉ": 1817,
      "तथा": 1818,
      "समस्या": 1819,
      "##ूप": 1820,
      "##षद": 1821,
      "बयान": 1822,
      "स्वास्थ्य": 1823,
      "##हरा": 1824,
      "बैंक": 1825,
      "##्रम": 1826,
      "##ध्यक्ष": 1827,
      "सिर्फ": 1828,
      "अवसर": 1829,
      "रेलवे": 1830,
      "##चे": 1831,
      "जाते": 1832,
      "होंगे": 1833,
      "ट्रै": 1834,
      "पेश": 1835,
      "##ुन": 1836,
      "##श्य": 1837,
      "समिति": 1838,
      "##वाह": 1839,
      "पाकि": 1840,
      "अश": 1841,
      "लाइ": 1842,
      "फैस": 1843,
      "जयपुर": 1844,
      "चुकी": 1845,
      "प्रयास": 1846,
      "पाल": 1847,
      "अपरा": 1848,
      "सचिव": 1849,
      "##कु": 1850,
      "मृतक": 1851,
      "##गंज": 1852,
      "##ानीय": 1853,
      "मोबाइल": 1854,
      "जवाब": 1855,
      "##करी": 1856,
      "पूर्": 1857,
      "विवाद": 1858,
      "##वेदन": 1859,
      "स्थानीय": 1860,
      "सम्मान": 1861,
      "ची": 1862,
      "##क्षक": 1863,
      "वाहन": 1864,
      "दुर्": 1865,
      "सके": 1866,
      "मेरे": 1867,
      "##ल्प": 1868,
      "मिश": 1869,
      "##िंद": 1870,
      "मना": 1871,
      "जल्द": 1872,
      "प्रमुख": 1873,
      "ग्राम": 1874,
      "उम्मीदवार": 1875,
      "गल": 1876,
      "##न्न": 1877,
      "कौ": 1878,
      "##मत": 1879,
      "##ियम": 1880,
      "21": 1881,
      "##ोद": 1882,
      "दूर": 1883,
      "संत": 1884,
      "देखा": 1885,
      "##धि": 1886,
      "लगभग": 1887,
      "200": 1888,
      "दिस": 1889,
      "करती": 1890,
      "इंटर": 1891,
      "##ar": 1892,
      "##टल": 1893,
      "दीप": 1894,
      "शाह": 1895,
      "मिन": 1896,
      "इंडिया": 1897,
      "देवी": 1898,
      "जैन": 1899,
      "कार्यकर्": 1900,
      "अवै": 1901,
      "इलाके": 1902,
      "##ूबर": 1903,
      "बिल": 1904,
      "भूम": 1905,
      "अवैध": 1906,
      "##्यान": 1907,
      "माध्य": 1908,
      "साइ": 1909,
      "किसानों": 1910,
      "पंचायत": 1911,
      "##धिकारी": 1912,
      "गाड़ी": 1913,
      "सवार": 1914,
      "वापस": 1915,
      "अभि": 1916,
      "महत्व": 1917,
      "ता": 1918,
      "उत्तर": 1919,
      "##पूर्ण": 1920,
      "करा": 1921,
      "एड": 1922,
      "स्तर": 1923,
      "##केश": 1924,
      "##ठी": 1925,
      "मई": 1926,
      "##ंभ": 1927,
      "हॉ": 1928,
      "##पीट": 1929,
      "संघ": 1930,
      "राशि": 1931,
      "शराब": 1932,
      "पीएम": 1933,
      "पढ़ें": 1934,
      "##चर": 1935,
      "बराम": 1936,
      "कोश": 1937,
      "##शनल": 1938,
      "##रि": 1939,
      "अंदर": 1940,
      "##जाम": 1941,
      "शेयर": 1942,
      "लौ": 1943,
      "पीड़ित": 1944,
      "छात्रा": 1945,
      "जीवन": 1946,
      "सितंबर": 1947,
      "संगठ": 1948,
      "विजय": 1949,
      "राष्ट्र": 1950,
      "मंत्र": 1951,
      "धर्म": 1952,
      "##लाल": 1953,
      "##हाय": 1954,
      "पुत्र": 1955,
      "कोशिश": 1956,
      "##्‍": 1957,
      "इंदौर": 1958,
      "बरामद": 1959,
      "##ूड": 1960,
      "##पुरा": 1961,
      "कहते": 1962,
      "इम": 1963,
      "सें": 1964,
      "हमारे": 1965,
      "##ालय": 1966,
      "शुरुआत": 1967,
      "प्रभाव": 1968,
      "##यू": 1969,
      "मारपीट": 1970,
      "##पक्ष": 1971,
      "समर्थ": 1972,
      "अक्ट": 1973,
      "अक्टूबर": 1974,
      "##रिया": 1975,
      "दौ": 1976,
      "जरूर": 1977,
      "तीस": 1978,
      "कभी": 1979,
      "##हन": 1980,
      "##एल": 1981,
      "बढ़ा": 1982,
      "कलेक्टर": 1983,
      "रि": 1984,
      "सां": 1985,
      "वालों": 1986,
      "##सू": 1987,
      "##वीं": 1988,
      "##प्री": 1989,
      "##स्टर": 1990,
      "नोट": 1991,
      "पीछे": 1992,
      "निकल": 1993,
      "##क्कर": 1994,
      "खा": 1995,
      "##माश": 1996,
      "दिसंबर": 1997,
      "कट": 1998,
      "##फ़": 1999,
      "एज": 2000,
      "##उंड": 2001,
      "##ल्स": 2002,
      "##दि": 2003,
      "मैंने": 2004,
      "मार्ग": 2005,
      "##श्च": 2006,
      "टिक": 2007,
      "40": 2008,
      "पूछता": 2009,
      "वार": 2010,
      "##ूरी": 2011,
      "हादसे": 2012,
      "सर्": 2013,
      "##र्जी": 2014,
      "##ॉप": 2015,
      "##रिक": 2016,
      "##िली": 2017,
      "देकर": 2018,
      "ब्ल": 2019,
      "संभाव": 2020,
      "एयर": 2021,
      "##टक": 2022,
      "पूछताछ": 2023,
      "जाना": 2024,
      "लक्ष": 2025,
      "शा": 2026,
      "लिखा": 2027,
      "कार्यालय": 2028,
      "नवं": 2029,
      "##धरी": 2030,
      "केंद": 2031,
      "शुभ": 2032,
      "मेडिकल": 2033,
      "बदमाश": 2034,
      "नवंबर": 2035,
      "व्याप": 2036,
      "एसपी": 2037,
      "आसपास": 2038,
      "##यन": 2039,
      "##गू": 2040,
      "सर्व": 2041,
      "##्क": 2042,
      "रोज": 2043,
      "सहाय": 2044,
      "धन": 2045,
      "गण": 2046,
      "केंद्रीय": 2047,
      "##थि": 2048,
      "##र्ष": 2049,
      "चुका": 2050,
      "##ोस": 2051,
      "स्टे": 2052,
      "अंतर": 2053,
      "##धर": 2054,
      "माता": 2055,
      "##ंकर": 2056,
      "धम": 2057,
      "रज": 2058,
      "नियम": 2059,
      "गुप": 2060,
      "##एच": 2061,
      "रै": 2062,
      "प्राप्त": 2063,
      "प्ल": 2064,
      "केवल": 2065,
      "मतदान": 2066,
      "वा": 2067,
      "शो": 2068,
      "लख": 2069,
      "तौर": 2070,
      "##तृ": 2071,
      "##किंग": 2072,
      "आपको": 2073,
      "##ॉर्ड": 2074,
      "चौधरी": 2075,
      "बिना": 2076,
      "##खिल": 2077,
      "पड़ा": 2078,
      "स्टेशन": 2079,
      "अप्र": 2080,
      "पाकिस्तान": 2081,
      "##ंका": 2082,
      "##स्थित": 2083,
      "##ुर्": 2084,
      "जाएंगे": 2085,
      "देखने": 2086,
      "संय": 2087,
      "भोपाल": 2088,
      "अस": 2089,
      "##टन": 2090,
      "23": 2091,
      "##साइ": 2092,
      "##चारी": 2093,
      "##वत": 2094,
      "अंत": 2095,
      "मिनट": 2096,
      "##लर": 2097,
      "##ुओं": 2098,
      "दिखा": 2099,
      "मरीज": 2100,
      "किलो": 2101,
      "आवेदन": 2102,
      "एक्सप": 2103,
      "##्ता": 2104,
      "जिम": 2105,
      "##र्न": 2106,
      "नेताओं": 2107,
      "प्रत्या": 2108,
      "##विधा": 2109,
      "उपल": 2110,
      "निश": 2111,
      "##विद": 2112,
      "ध्यान": 2113,
      "##िसर": 2114,
      "##टेल": 2115,
      "हमें": 2116,
      "##भर": 2117,
      "भारी": 2118,
      "खास": 2119,
      "##लाइन": 2120,
      "##त्स": 2121,
      "नदी": 2122,
      "##at": 2123,
      "मार्च": 2124,
      "तह": 2125,
      "माध्यम": 2126,
      "रु": 2127,
      "विदेश": 2128,
      "ज्": 2129,
      "होना": 2130,
      "##मन": 2131,
      "लिख": 2132,
      "निरी": 2133,
      "##ांक": 2134,
      "लगाए": 2135,
      "लाभ": 2136,
      "##मे": 2137,
      "##केट": 2138,
      "##फा": 2139,
      "टै": 2140,
      "##िटल": 2141,
      "बदल": 2142,
      "ज़": 2143,
      "##जरा": 2144,
      "लाइन": 2145,
      "ते": 2146,
      "2023": 2147,
      "26": 2148,
      "##रज": 2149,
      "देखते": 2150,
      "##्यो": 2151,
      "##त्ती": 2152,
      "कैसे": 2153,
      "##माल": 2154,
      "सत": 2155,
      "खबर": 2156,
      "पश्च": 2157,
      "##ौल": 2158,
      "तोड़": 2159,
      "##हाल": 2160,
      "टिकट": 2161,
      "प्ले": 2162,
      "मुद्": 2163,
      "##ुद": 2164,
      "डाल": 2165,
      "##गल": 2166,
      "जनवरी": 2167,
      "निकाल": 2168,
      "##र्या": 2169,
      "गोली": 2170,
      "कर्मचारी": 2171,
      "##िशा": 2172,
      "अपराध": 2173,
      "बनी": 2174,
      "##पोर्ट": 2175,
      "बोर्ड": 2176,
      "##मार्ट": 2177,
      "कराने": 2178,
      "उठा": 2179,
      "##्मे": 2180,
      "सप्": 2181,
      "##त्ता": 2182,
      "विकेट": 2183,
      "जिसे": 2184,
      "आश": 2185,
      "##षा": 2186,
      "सुविधा": 2187,
      "फरार": 2188,
      "लो": 2189,
      "अग्र": 2190,
      "संबंधित": 2191,
      "ग्रामीणों": 2192,
      "##ीक": 2193,
      "बदला": 2194,
      "##ियार": 2195,
      "संभ": 2196,
      "उद्": 2197,
      "पदा": 2198,
      "##फिक": 2199,
      "##िरी": 2200,
      "यूपी": 2201,
      "अहम": 2202,
      "वार्ड": 2203,
      "##राम": 2204,
      "##एफ": 2205,
      "सीटों": 2206,
      "छात्रों": 2207,
      "##विद्यालय": 2208,
      "नव": 2209,
      "##र्प": 2210,
      "##क्रिया": 2211,
      "##सि": 2212,
      "##ंडी": 2213,
      "प्रसाद": 2214,
      "प्रक्रिया": 2215,
      "अगले": 2216,
      "संभावना": 2217,
      "यानी": 2218,
      "विद्य": 2219,
      "##सत": 2220,
      "##ारोह": 2221,
      "##फ्ट": 2222,
      "उपलब्": 2223,
      "##तरी": 2224,
      "शि": 2225,
      "सफल": 2226,
      "28": 2227,
      "समारोह": 2228,
      "संजय": 2229,
      "आयोग": 2230,
      "श्रद्ध": 2231,
      "तय": 2232,
      "##ॉक": 2233,
      "##िग": 2234,
      "##्रोल": 2235,
      "##चारियों": 2236,
      "##रों": 2237,
      "##देव": 2238,
      "पहुंचा": 2239,
      "##क्षित": 2240,
      "परेशान": 2241,
      "भेजा": 2242,
      "जिलों": 2243,
      "##ूक": 2244,
      "##ंबई": 2245,
      "##तृत्व": 2246,
      "आव": 2247,
      "##मारी": 2248,
      "सहयोग": 2249,
      "##त्तीस": 2250,
      "##ड़ों": 2251,
      "फोट": 2252,
      "चि": 2253,
      "छत्तीस": 2254,
      "##जल": 2255,
      "सुनी": 2256,
      "रण": 2257,
      "##िप्": 2258,
      "फीस": 2259,
      "पकड़": 2260,
      "##ड़ियों": 2261,
      "कर्मचारियों": 2262,
      "मानस": 2263,
      "दावा": 2264,
      "ऐसी": 2265,
      "##ेंसी": 2266,
      "छत्तीसगढ़": 2267,
      "वायर": 2268,
      "नेतृत्व": 2269,
      "मुंबई": 2270,
      "ज्ञ": 2271,
      "##ृति": 2272,
      "बांग": 2273,
      "अद": 2274,
      "रखने": 2275,
      "चले": 2276,
      "##ृह": 2277,
      "क्ल": 2278,
      "100": 2279,
      "न्याय": 2280,
      "27": 2281,
      "##काब": 2282,
      "जमा": 2283,
      "##ुरा": 2284,
      "बोले": 2285,
      "नरेंद्र": 2286,
      "##ूत": 2287,
      "##ोब": 2288,
      "आख": 2289,
      "चिक": 2290,
      "अप्रैल": 2291,
      "नीचे": 2292,
      "ताकि": 2293,
      "),": 2294,
      "गर्मी": 2295,
      "रंग": 2296,
      "नागर": 2297,
      "35": 2298,
      "तत्": 2299,
      "उर्फ": 2300,
      "##नात": 2301,
      "तलाश": 2302,
      "##ज्ञान": 2303,
      "दुनिया": 2304,
      "तैयारी": 2305,
      "पटना": 2306,
      "कब्": 2307,
      "कीमत": 2308,
      "हास": 2309,
      "##फे": 2310,
      "हिस्सा": 2311,
      "मंडल": 2312,
      "लगाने": 2313,
      "##ियल": 2314,
      "##धे": 2315,
      "माना": 2316,
      "गौ": 2317,
      "डाय": 2318,
      "टक्कर": 2319,
      "बल्कि": 2320,
      "##ील": 2321,
      "##स्ल": 2322,
      "##ीत": 2323,
      "इनमें": 2324,
      "##एन": 2325,
      "##असल": 2326,
      "प्रत्याशी": 2327,
      "##ूब": 2328,
      "##ापन": 2329,
      "दरअसल": 2330,
      "##्मी": 2331,
      "एल": 2332,
      "जम": 2333,
      "##धन": 2334,
      "जाकर": 2335,
      "गुप्ता": 2336,
      "कर्": 2337,
      "##यों": 2338,
      "##टो": 2339,
      "चंद्र": 2340,
      "बंग": 2341,
      "##नियर": 2342,
      "##चार्य": 2343,
      "ओवर": 2344,
      "राजनीतिक": 2345,
      "मॉ": 2346,
      "पेट": 2347,
      "##on": 2348,
      "फैसला": 2349,
      "संगठन": 2350,
      "##ंदा": 2351,
      "भाव": 2352,
      "##लोनी": 2353,
      "जिम्मे": 2354,
      "टेस्ट": 2355,
      "मकान": 2356,
      "##er": 2357,
      "क्रिक": 2358,
      "हासिल": 2359,
      "लखन": 2360,
      "बांग्ला": 2361,
      "##ाइम": 2362,
      "बचा": 2363,
      "पूर्ण": 2364,
      "##ॉर्म": 2365,
      "##ष्य": 2366,
      "किस": 2367,
      "##ड्": 2368,
      "अमेरिका": 2369,
      "गति": 2370,
      "वक्त": 2371,
      "सिर": 2372,
      "##एसपी": 2373,
      "तरी": 2374,
      "सदर": 2375,
      "फायर": 2376,
      "जुड़े": 2377,
      "चरण": 2378,
      "वृ": 2379,
      "रहते": 2380,
      "भवन": 2381,
      "##चन": 2382,
      "गाय": 2383,
      "##ित्र": 2384,
      "##स्तेमाल": 2385,
      "31": 2386,
      "इस्तेमाल": 2387,
      "##स्व": 2388,
      "हथ": 2389,
      "न्यू": 2390,
      "जन्म": 2391,
      "न्याया": 2392,
      "हमने": 2393,
      "स्थाप": 2394,
      "आन": 2395,
      "सीमा": 2396,
      "प्रे": 2397,
      "साफ": 2398,
      "वर्ग": 2399,
      "कहीं": 2400,
      "झार": 2401,
      "कला": 2402,
      "रहेगा": 2403,
      "फ़": 2404,
      "प्रकार": 2405,
      "##ियोग": 2406,
      "दोस्त": 2407,
      "सजा": 2408,
      "पल": 2409,
      "##ांति": 2410,
      "##तीश": 2411,
      "बांग्लादेश": 2412,
      "##वाने": 2413,
      "##लू": 2414,
      "##िन्": 2415,
      "ख़": 2416,
      "हालत": 2417,
      "चिकित": 2418,
      "##षि": 2419,
      "मजबू": 2420,
      "##िक्ष": 2421,
      "घु": 2422,
      "भीड़": 2423,
      "ड्राइ": 2424,
      "जता": 2425,
      "##बाल": 2426,
      "##िनि": 2427,
      "##त्ति": 2428,
      "##शे": 2429,
      "##चीत": 2430,
      "फु": 2431,
      "तीनों": 2432,
      "बातचीत": 2433,
      "उपलब्ध": 2434,
      "ति": 2435,
      "नया": 2436,
      "##क्ता": 2437,
      "पैसे": 2438,
      "मश": 2439,
      "##डे": 2440,
      "मैदान": 2441,
      "चालक": 2442,
      "हार": 2443,
      "पौ": 2444,
      "परिसर": 2445,
      "त्र": 2446,
      "##टने": 2447,
      "##वाड़ा": 2448,
      "प्राथ": 2449,
      "##श्यक": 2450,
      "##ायण": 2451,
      "अमित": 2452,
      "झारखंड": 2453,
      "बनने": 2454,
      "घोषणा": 2455,
      "##किल": 2456,
      "प्राथमिक": 2457,
      "ऑन": 2458,
      "पाए": 2459,
      "चौक": 2460,
      "##श्म": 2461,
      "बाबा": 2462,
      "महत्वपूर्ण": 2463,
      "##जरी": 2464,
      "##झा": 2465,
      "##गार": 2466,
      "##तरा": 2467,
      "फिलहाल": 2468,
      "कार्ड": 2469,
      "##in": 2470,
      "##ार्ज": 2471,
      "रोह": 2472,
      "खत्म": 2473,
      "कराई": 2474,
      "रिकॉर्ड": 2475,
      "ट्रांस": 2476,
      "यही": 2477,
      "प्रकाश": 2478,
      "##राह": 2479,
      "##्हें": 2480,
      "कैम": 2481,
      "ठीक": 2482,
      "मूल": 2483,
      "निजी": 2484,
      "मेरी": 2485,
      "दिवस": 2486,
      "विद्यालय": 2487,
      "29": 2488,
      "खो": 2489,
      "चुन": 2490,
      "स्टूड": 2491,
      "##बाजी": 2492,
      "तस्वीर": 2493,
      "##नगर": 2494,
      "मुक": 2495,
      "सिटी": 2496,
      "गठबंधन": 2497,
      "##वाली": 2498,
      "आवश्यक": 2499,
      "पड़े": 2500,
      "##विंद": 2501,
      "वी": 2502,
      "##वाही": 2503,
      "लखनऊ": 2504,
      "##कल": 2505,
      "बहन": 2506,
      "##ैनिक": 2507,
      "##रान": 2508,
      "##तिम": 2509,
      "चोर": 2510,
      "##ड्ड": 2511,
      "आपके": 2512,
      "वायरल": 2513,
      "##वें": 2514,
      "नागरिक": 2515,
      "##रल": 2516,
      "सिल": 2517,
      "बाव": 2518,
      "पहला": 2519,
      "ऊपर": 2520,
      "रव": 2521,
      "##ेय": 2522,
      "फोटो": 2523,
      "सेंटर": 2524,
      "45": 2525,
      "चै": 2526,
      "##हान": 2527,
      "स्वी": 2528,
      "लड़की": 2529,
      "अय": 2530,
      "##ंडा": 2531,
      "राष्ट्रपति": 2532,
      "खेत": 2533,
      "वरि": 2534,
      "##मता": 2535,
      "भु": 2536,
      "मिलकर": 2537,
      "मोहन": 2538,
      "घोषित": 2539,
      "##ेटी": 2540,
      "##्योग": 2541,
      "##ंगी": 2542,
      "##दम": 2543,
      "पांड": 2544,
      "एफ": 2545,
      "मुकाब": 2546,
      "खराब": 2547,
      "उपस्थित": 2548,
      "री": 2549,
      "##al": 2550,
      "##हरी": 2551,
      "अंतिम": 2552,
      "##जों": 2553,
      "अंक": 2554,
      "आवा": 2555,
      "##ांग": 2556,
      "उदय": 2557,
      "##नेश": 2558,
      "सफाई": 2559,
      "खुला": 2560,
      "सीसी": 2561,
      "##्रेट": 2562,
      "##मीटर": 2563,
      "चीन": 2564,
      "##ांव": 2565,
      "प्रेम": 2566,
      "##ित्य": 2567,
      "कमी": 2568,
      "हमारी": 2569,
      "कमेटी": 2570,
      "##इट": 2571,
      "तभी": 2572,
      "##व्य": 2573,
      "##षेक": 2574,
      "पाया": 2575,
      "उच्च": 2576,
      "धारा": 2577,
      "##डल": 2578,
      "सेना": 2579,
      "देना": 2580,
      "महारा": 2581,
      "##ंख": 2582,
      "जरिए": 2583,
      "खरीद": 2584,
      "##तियों": 2585,
      "गौर": 2586,
      "##ामा": 2587,
      "समा": 2588,
      "सुप्री": 2589,
      "बू": 2590,
      "धमकी": 2591,
      "##लिया": 2592,
      "चुना": 2593,
      "मीटर": 2594,
      "गिरा": 2595,
      "##ष्ट्र": 2596,
      "कित": 2597,
      "बोल": 2598,
      "लगाई": 2599,
      "हिंदू": 2600,
      "बुला": 2601,
      "सुप्रीम": 2602,
      "राज्यों": 2603,
      "स्टूडेंट": 2604,
      "प्रवेश": 2605,
      "वर्षीय": 2606,
      "विपक्ष": 2607,
      "दर्शन": 2608,
      "लु": 2609,
      "सभा": 2610,
      "##पन": 2611,
      "ट्रक": 2612,
      "##चानक": 2613,
      "शिक्षक": 2614,
      "##स्ताव": 2615,
      "अचानक": 2616,
      "मं": 2617,
      "##मेर": 2618,
      "##दात": 2619,
      "सुनवाई": 2620,
      "वरिष्ठ": 2621,
      "##ालत": 2622,
      "##स्कार": 2623,
      "महार": 2624,
      "कानून": 2625,
      "प्रस्ताव": 2626,
      "नम": 2627,
      "सही": 2628,
      "अग्रवाल": 2629,
      "विचार": 2630,
      "कॉन्": 2631,
      "##हास": 2632,
      "मुला": 2633,
      "##रीर": 2634,
      "सात": 2635,
      "समर्थन": 2636,
      "जरूरत": 2637,
      "आते": 2638,
      "वारदात": 2639,
      "चाहते": 2640,
      "प्रतियोग": 2641,
      "दक्ष": 2642,
      "प्रस्त": 2643,
      "कॉलोनी": 2644,
      "उसी": 2645,
      "##तंत्र": 2646,
      "समी": 2647,
      "परिजन": 2648,
      "धर": 2649,
      "लाप": 2650,
      "##द्धि": 2651,
      "उत्स": 2652,
      "अदालत": 2653,
      "##नु": 2654,
      "किन": 2655,
      "सदस्यों": 2656,
      "##ब्ल": 2657,
      "क्षेत्रों": 2658,
      "लंब": 2659,
      "सिक": 2660,
      "##ंघ": 2661,
      "##िशन": 2662,
      "उम्र": 2663,
      "फे": 2664,
      "क्रिकेट": 2665,
      "बावजूद": 2666,
      "##चिका": 2667,
      "##ौती": 2668,
      "लागू": 2669,
      "सामान्य": 2670,
      "गेट": 2671,
      "नुक": 2672,
      "चा": 2673,
      "##ैया": 2674,
      "पाठ": 2675,
      "##ंसा": 2676,
      "##मति": 2677,
      "जित": 2678,
      "##िद": 2679,
      "##शु": 2680,
      "प्रता": 2681,
      "संक": 2682,
      "##टिंग": 2683,
      "उनसे": 2684,
      "निवेश": 2685,
      "निरीक्षण": 2686,
      "फ्र": 2687,
      "होटल": 2688,
      "एंड": 2689,
      "सिव": 2690,
      "इंत": 2691,
      "##ेंडर": 2692,
      "विश्वविद्यालय": 2693,
      "कौन": 2694,
      "पटेल": 2695,
      "##ंता": 2696,
      "परिषद": 2697,
      "##ूह": 2698,
      "तैनात": 2699,
      "परिव": 2700,
      "याचिका": 2701,
      "अशोक": 2702,
      "##ाले": 2703,
      "ऑफिस": 2704,
      "बदलाव": 2705,
      "कही": 2706,
      "in": 2707,
      "##स्कर": 2708,
      "##टेड": 2709,
      "##ुदाय": 2710,
      "##िश्न": 2711,
      "एसडी": 2712,
      "##उट": 2713,
      "हथियार": 2714,
      "उल्": 2715,
      "लूट": 2716,
      "छोटे": 2717,
      "##िकी": 2718,
      "मनी": 2719,
      "##िब": 2720,
      "##ंदी": 2721,
      "राजनीति": 2722,
      "तत्काल": 2723,
      "बनाकर": 2724,
      "प्रभावित": 2725,
      "##खी": 2726,
      "कृष्ण": 2727,
      "##्याण": 2728,
      "##वाइ": 2729,
      "वर्मा": 2730,
      "निर्ण": 2731,
      "गेंद": 2732,
      "चढ़": 2733,
      "संब": 2734,
      "उत्प": 2735,
      "##वट": 2736,
      "##वर्": 2737,
      "##ख्त": 2738,
      "नेशनल": 2739,
      "बेहतर": 2740,
      "##ॉट": 2741,
      "##ुरी": 2742,
      "##प्शन": 2743,
      "कोच": 2744,
      "##र्द": 2745,
      "विन": 2746,
      "दिखाई": 2747,
      "गलत": 2748,
      "##as": 2749,
      "कारोब": 2750,
      "चां": 2751,
      "##चल": 2752,
      "रहता": 2753,
      "जरूरी": 2754,
      "##सों": 2755,
      "##िने": 2756,
      "##स्टम": 2757,
      "नुकसान": 2758,
      "रिज": 2759,
      "सुना": 2760,
      "कब": 2761,
      "रखी": 2762,
      "प्रतियोगिता": 2763,
      "उससे": 2764,
      "कॉल": 2765,
      "अजय": 2766,
      "असर": 2767,
      "##कम": 2768,
      "मजद": 2769,
      "हॉस्प": 2770,
      "गृह": 2771,
      "पदाधिकारी": 2772,
      "##टीवी": 2773,
      "उपयोग": 2774,
      "तुर": 2775,
      "फाइन": 2776,
      "बनाई": 2777,
      "करेगी": 2778,
      "##तिहास": 2779,
      "संस्थान": 2780,
      "##ध्या": 2781,
      "रास्ते": 2782,
      "##सील": 2783,
      "अयोध": 2784,
      "गुर": 2785,
      "राहत": 2786,
      "अफसर": 2787,
      "रिली": 2788,
      "ग्रुप": 2789,
      "विद्यार्थ": 2790,
      "डिज": 2791,
      "महाराष्ट्र": 2792,
      "भू": 2793,
      "##ूर्ति": 2794,
      "युवती": 2795,
      "तरीके": 2796,
      "हल्": 2797,
      "प्रदान": 2798,
      "##्वाल": 2799,
      "महाराज": 2800,
      "लगने": 2801,
      "मू": 2802,
      "##ठा": 2803,
      "जाम": 2804,
      "2019": 2805,
      "मिश्रा": 2806,
      "##es": 2807,
      "##or": 2808,
      "भूमिका": 2809,
      "दक्षि": 2810,
      "टा": 2811,
      "कार्यकर्ताओं": 2812,
      "सीसीटीवी": 2813,
      "हॉस्पिटल": 2814,
      "अयोध्या": 2815,
      "शांति": 2816,
      "##र्गत": 2817,
      "पंड": 2818,
      "राजेश": 2819,
      "मजबूत": 2820,
      "##यल": 2821,
      "##िड": 2822,
      "संस": 2823,
      "##ज्ज": 2824,
      "तुरंत": 2825,
      "##राव": 2826,
      "इतना": 2827,
      "हवा": 2828,
      "##खे": 2829,
      "ड्राइवर": 2830,
      "विष": 2831,
      "हमले": 2832,
      "स्वागत": 2833,
      "रिश्": 2834,
      "वाहनों": 2835,
      "भक्त": 2836,
      "किश": 2837,
      "##र्डर": 2838,
      "इले": 2839,
      "उपा": 2840,
      "##ट्र": 2841,
      "मर": 2842,
      "##ॉर्ट": 2843,
      "संस्था": 2844,
      "स्थल": 2845,
      "जोर": 2846,
      "लॉन्": 2847,
      "ताला": 2848,
      "मंच": 2849,
      "कपूर": 2850,
      "रिलीज": 2851,
      "##उस": 2852,
      "##कात": 2853,
      "लगाकर": 2854,
      "बजट": 2855,
      "हाईक": 2856,
      "नौकरी": 2857,
      "##ुण": 2858,
      "##न्ना": 2859,
      "अभिषेक": 2860,
      "आर्थ": 2861,
      "प्रचार": 2862,
      "छाप": 2863,
      "जागर": 2864,
      "पश्चिम": 2865,
      "बीते": 2866,
      "रायपुर": 2867,
      "जब्त": 2868,
      "फरवरी": 2869,
      "बंगाल": 2870,
      "लगता": 2871,
      "लौट": 2872,
      "कल्याण": 2873,
      "कृषि": 2874,
      "तेजी": 2875,
      "##सिंह": 2876,
      "सुख": 2877,
      "नाबाल": 2878,
      "जवान": 2879,
      "कोल": 2880,
      "फ्ल": 2881,
      "ठाक": 2882,
      "कोत": 2883,
      "लेते": 2884,
      "बेच": 2885,
      "संयुक्त": 2886,
      "##ेक्ट": 2887,
      "सीटें": 2888,
      "आत्म": 2889,
      "मिलेगा": 2890,
      "आनंद": 2891,
      "चोट": 2892,
      "सिविल": 2893,
      "##ंटी": 2894,
      "##िनी": 2895,
      "सोन": 2896,
      "आर्थिक": 2897,
      "तम": 2898,
      "यदि": 2899,
      "हट": 2900,
      "##उंट": 2901,
      "अली": 2902,
      "##घाट": 2903,
      "मेरा": 2904,
      "2022": 2905,
      "तहसील": 2906,
      "नोटिस": 2907,
      "फीसदी": 2908,
      "सल": 2909,
      "##्यून": 2910,
      "बताते": 2911,
      "छह": 2912,
      "##ताह": 2913,
      "संवि": 2914,
      "प्रतिनि": 2915,
      "##ंकी": 2916,
      "रहेगी": 2917,
      "नाबालिग": 2918,
      "##ारंभ": 2919,
      "ऑनलाइन": 2920,
      "##ोप": 2921,
      "एक्सप्रेस": 2922,
      "दीपक": 2923,
      "भवि": 2924,
      "मालिक": 2925,
      "##भव": 2926,
      "##ल्ट": 2927,
      "भास्कर": 2928,
      "जमकर": 2929,
      "##िक्र": 2930,
      "बेटा": 2931,
      "मुलाकात": 2932,
      "डा": 2933,
      "शी": 2934,
      "नाराज": 2935,
      "करेगा": 2936,
      "रोहित": 2937,
      "श्रद्धाल": 2938,
      "##म्मद": 2939,
      "कदम": 2940,
      "##कुमार": 2941,
      "गैंग": 2942,
      "निर्णय": 2943,
      "भविष्य": 2944,
      "अर्": 2945,
      "ठे": 2946,
      "अज": 2947,
      "##रासत": 2948,
      "प्रशिक्ष": 2949,
      "आत": 2950,
      "सामना": 2951,
      "मनोज": 2952,
      "ne": 2953,
      "दम": 2954,
      "पट": 2955,
      "##र्जा": 2956,
      "गिरफ्तारी": 2957,
      "पर्य": 2958,
      "##ha": 2959,
      "अतिरिक": 2960,
      "सागर": 2961,
      "पैर": 2962,
      "फर्जी": 2963,
      "##हरे": 2964,
      "रहती": 2965,
      "60": 2966,
      "निर्वा": 2967,
      "##डीए": 2968,
      "ठाकुर": 2969,
      "दूसरा": 2970,
      "अंतर्गत": 2971,
      "##त्रियों": 2972,
      "##ेश्वर": 2973,
      "##कीय": 2974,
      "संबोध": 2975,
      "खुल": 2976,
      "##कर्म": 2977,
      "तारी": 2978,
      "तेल": 2979,
      "##ादा": 2980,
      "##ti": 2981,
      "##िवर्स": 2982,
      "जिसकी": 2983,
      "अतिरिक्त": 2984,
      "सहायक": 2985,
      "खर्च": 2986,
      "##त्सव": 2987,
      "उदयपुर": 2988,
      "हाईकोर्ट": 2989,
      "सीरीज": 2990,
      "कार्यकर्ता": 2991,
      "हनु": 2992,
      "अज्ञ": 2993,
      "प्राइ": 2994,
      "व्यक्त": 2995,
      "खड़े": 2996,
      "करवाया": 2997,
      "बदमाशों": 2998,
      "32": 2999,
      "##दों": 3000,
      "##स्‍": 3001,
      "अपील": 3002,
      "हाउस": 3003,
      "##ांकन": 3004,
      "पॉ": 3005,
      "पर्व": 3006,
      "##ांसी": 3007,
      "##्तान": 3008,
      "##ोलन": 3009,
      "पीड़िता": 3010,
      "अज्ञात": 3011,
      "बांध": 3012,
      "संचालन": 3013,
      "फा": 3014,
      "##थम": 3015,
      "##्याम": 3016,
      "##बीर": 3017,
      "इलाकों": 3018,
      "सत्र": 3019,
      "हिस": 3020,
      "कंपन": 3021,
      "मुकद": 3022,
      "आंद": 3023,
      "दबा": 3024,
      "धो": 3025,
      "मल": 3026,
      "बैठे": 3027,
      "साहू": 3028,
      "सिस्टम": 3029,
      "स्पेश": 3030,
      "सुनील": 3031,
      "कां": 3032,
      "मोहम्मद": 3033,
      "अंजाम": 3034,
      "पार्षद": 3035,
      "देशों": 3036,
      "मंत्रालय": 3037,
      "##तल": 3038,
      "##तमान": 3039,
      "अनिल": 3040,
      "मिलते": 3041,
      "देंगे": 3042,
      "फाय": 3043,
      "प्रोज": 3044,
      "मतदा": 3045,
      "जाल": 3046,
      "मुस्ल": 3047,
      "अच्छी": 3048,
      "##ेंज": 3049,
      "मुश्": 3050,
      "बच्ची": 3051,
      "##त्मक": 3052,
      "संर": 3053,
      "जैसी": 3054,
      "सुपर": 3055,
      "##विध": 3056,
      "मामलों": 3057,
      "कोतवाली": 3058,
      "दब": 3059,
      "##वारी": 3060,
      "##इल": 3061,
      "##ेशा": 3062,
      "किलोमीटर": 3063,
      "पेट्रोल": 3064,
      "मुस्लिम": 3065,
      "पर्या": 3066,
      "राव": 3067,
      "जिंद": 3068,
      "सुधार": 3069,
      "प्रि": 3070,
      "##ोत्सव": 3071,
      "गुजरा": 3072,
      "आवास": 3073,
      "##पथ": 3074,
      "##ुड": 3075,
      "##ाजिक": 3076,
      "रक्षा": 3077,
      "##चंद": 3078,
      "सोने": 3079,
      "हनुमान": 3080,
      "##ृष्ट": 3081,
      "नीतीश": 3082,
      "##वादी": 3083,
      "##ैक": 3084,
      "युवाओं": 3085,
      "आशी": 3086,
      "बिक": 3087,
      "##्राम": 3088,
      "तुल": 3089,
      "फसल": 3090,
      "परेशानी": 3091,
      "कड़ी": 3092,
      "हटा": 3093,
      "उत": 3094,
      "झा": 3095,
      "निदेश": 3096,
      "प्रताप": 3097,
      "500": 3098,
      "केजरी": 3099,
      "##स्त्र": 3100,
      "दश": 3101,
      "भोज": 3102,
      "##िक्स": 3103,
      "डायरे": 3104,
      "केजरीवाल": 3105,
      "छु": 3106,
      "##स्ट्री": 3107,
      "स्पेशल": 3108,
      "प्रोजेक्ट": 3109,
      "घाट": 3110,
      "##प्रदेश": 3111,
      "विस्त": 3112,
      "##वरण": 3113,
      "आंदोलन": 3114,
      "जाय": 3115,
      "देखकर": 3116,
      "##दारों": 3117,
      "गंगा": 3118,
      "##वेट": 3119,
      "एक्ट्रेस": 3120,
      "रजिस्ट": 3121,
      "उत्पाद": 3122,
      "##फ्र": 3123,
      "अधिकार": 3124,
      "अच्छा": 3125,
      "कन": 3126,
      "मौका": 3127,
      "अलर्ट": 3128,
      "अंग": 3129,
      "धी": 3130,
      "##लपुर": 3131,
      "##ण्ड": 3132,
      "##्होंने": 3133,
      "##िश्चित": 3134,
      "##ॉन": 3135,
      "##पू": 3136,
      "वर्तमान": 3137,
      "घरों": 3138,
      "##खर": 3139,
      "##टेज": 3140,
      "पकड़ा": 3141,
      "मुश्किल": 3142,
      "##धानी": 3143,
      "मगर": 3144,
      "##तों": 3145,
      "अधी": 3146,
      "यूनिवर्स": 3147,
      "भूमि": 3148,
      "डर": 3149,
      "अखिल": 3150,
      "चली": 3151,
      "श्रे": 3152,
      "##en": 3153,
      "##िवारी": 3154,
      "साइबर": 3155,
      "बर्": 3156,
      "नामांकन": 3157,
      "शिविर": 3158,
      "मीणा": 3159,
      "डॉक्टरों": 3160,
      "अतिथि": 3161,
      "न्यायालय": 3162,
      "तिवारी": 3163,
      "दिशा": 3164,
      "##लाह": 3165,
      "आयुक्त": 3166,
      "इधर": 3167,
      "##फल": 3168,
      "वीर": 3169,
      "शासन": 3170,
      "##ir": 3171,
      "अधिकतम": 3172,
      "सालों": 3173,
      "बिग": 3174,
      "##्यार": 3175,
      "मैने": 3176,
      "निकाला": 3177,
      "सेक्टर": 3178,
      "यात्रियों": 3179,
      "पढ़ाई": 3180,
      "आब": 3181,
      "कैंप": 3182,
      "स्कूलों": 3183,
      "खाद": 3184,
      "मुकेश": 3185,
      "सुरक्षित": 3186,
      "योगी": 3187,
      "कश्म": 3188,
      "##ोश": 3189,
      "मनाया": 3190,
      "रैली": 3191,
      "चुनावी": 3192,
      "आकर": 3193,
      "गईं": 3194,
      "हमेशा": 3195,
      "चलने": 3196,
      "कब्जे": 3197,
      "कश्मीर": 3198,
      "नो": 3199,
      "उसमें": 3200,
      "##अप": 3201,
      "महिलाएं": 3202,
      "##्रमण": 3203,
      "प्लान": 3204,
      "पुरु": 3205,
      "सूर्य": 3206,
      "आल": 3207,
      "##डर": 3208,
      "##स्कृत": 3209,
      "दक्षिण": 3210,
      "संविधान": 3211,
      "पुरुष": 3212,
      "##ोई": 3213,
      "ऑटो": 3214,
      "##्यु": 3215,
      "देता": 3216,
      "जोड़": 3217,
      "इंटरने": 3218,
      "सर्वे": 3219,
      "गणेश": 3220,
      "##वां": 3221,
      "##ad": 3222,
      "##द्द": 3223,
      "युवकों": 3224,
      "पारी": 3225,
      "व्र": 3226,
      "हड़": 3227,
      "##jp": 3228,
      "##ेंशन": 3229,
      "विवाह": 3230,
      "पूछा": 3231,
      "शक्ति": 3232,
      "##मर": 3233,
      "प्लेट": 3234,
      "##मार्टम": 3235,
      "जिम्मेदारी": 3236,
      "यूनिवर्सिटी": 3237,
      "बढ़ाने": 3238,
      "##ांट": 3239,
      "अका": 3240,
      "सिद्ध": 3241,
      "सम्मानित": 3242,
      "तीसरे": 3243,
      "मरीजों": 3244,
      "जागरूक": 3245,
      "##वानी": 3246,
      "##सुर": 3247,
      "कुमारी": 3248,
      "इलेक्ट": 3249,
      "रिट": 3250,
      "सप्ताह": 3251,
      "गोल": 3252,
      "चयन": 3253,
      "रखे": 3254,
      "पोस्टमार्टम": 3255,
      "संबोधित": 3256,
      "नक": 3257,
      "##लेट": 3258,
      "कमरे": 3259,
      "एयरपोर्ट": 3260,
      "किनारे": 3261,
      "##स्तव": 3262,
      "सेक": 3263,
      "##वेज": 3264,
      "वर्ल्ड": 3265,
      "युद्ध": 3266,
      "पेपर": 3267,
      "मंडी": 3268,
      "खुलासा": 3269,
      "रिश्ते": 3270,
      "सामाजिक": 3271,
      "साध": 3272,
      "##नीय": 3273,
      "##ुर्ग": 3274,
      "##ष्ट्रीय": 3275,
      "##वाला": 3276,
      "नाग": 3277,
      "पस": 3278,
      "शिक्षकों": 3279,
      "उद्देश": 3280,
      "टू": 3281,
      "अभिय": 3282,
      "आंक": 3283,
      "हादसा": 3284,
      "##शाला": 3285,
      "##वुड": 3286,
      "##शिप": 3287,
      "रम": 3288,
      "उनको": 3289,
      "आठ": 3290,
      "खोल": 3291,
      "फॉ": 3292,
      "स्टूडेंट्स": 3293,
      "पाई": 3294,
      "##रीब": 3295,
      "खाली": 3296,
      "सपा": 3297,
      "गुजरात": 3298,
      "##लेश": 3299,
      "रहेंगे": 3300,
      "लिस्ट": 3301,
      "संपर्क": 3302,
      "रॉ": 3303,
      "पहुंचकर": 3304,
      "लाया": 3305,
      "अंब": 3306,
      "बेहद": 3307,
      "वित्त": 3308,
      "##णाम": 3309,
      "प्रबंधन": 3310,
      "जिसका": 3311,
      "##्यूटी": 3312,
      "अभ्य": 3313,
      "प्री": 3314,
      "राजा": 3315,
      "##्प": 3316,
      "दोष": 3317,
      "तकनी": 3318,
      "##ियस": 3319,
      "कार्यों": 3320,
      "70": 3321,
      "धार्": 3322,
      "फ्ला": 3323,
      "##उन": 3324,
      "सड़कों": 3325,
      "आइ": 3326,
      "वही": 3327,
      "##ुति": 3328,
      "80": 3329,
      "उड़": 3330,
      "##गण": 3331,
      "धार्मिक": 3332,
      "##िएशन": 3333,
      "बुज": 3334,
      "न्यून": 3335,
      "आयु": 3336,
      "भजन": 3337,
      "राजी": 3338,
      "##पुरी": 3339,
      "##ग्राम": 3340,
      "37": 3341,
      "##20": 3342,
      "समुदाय": 3343,
      "##कारों": 3344,
      "लंबे": 3345,
      "एक्": 3346,
      "##पत": 3347,
      "नारायण": 3348,
      "##ाफ": 3349,
      "33": 3350,
      "आता": 3351,
      "कौर": 3352,
      "न्यूनतम": 3353,
      "##बन": 3354,
      "##पंच": 3355,
      "बाकी": 3356,
      "##ंडल": 3357,
      "##ैर": 3358,
      "उपचार": 3359,
      "बुजुर्ग": 3360,
      "नग": 3361,
      "प्रखंड": 3362,
      "घुस": 3363,
      "##्रीन": 3364,
      "चौकी": 3365,
      "##सन": 3366,
      "##साय": 3367,
      "अधीक्षक": 3368,
      "##कत": 3369,
      "निर": 3370,
      "खूब": 3371,
      "##50": 3372,
      "पहल": 3373,
      "रेप": 3374,
      "आवाज": 3375,
      "खंड": 3376,
      "मुख्यालय": 3377,
      "प्रतिष्ठ": 3378,
      "पैसा": 3379,
      "जंगल": 3380,
      "##रत": 3381,
      "आदमी": 3382,
      "समाधान": 3383,
      "अभ्यर्थ": 3384,
      "मिस": 3385,
      "##गांव": 3386,
      "निर्धार": 3387,
      "पड़ी": 3388,
      "##लीवुड": 3389,
      "एक्टर": 3390,
      "प्रव": 3391,
      "पूजन": 3392,
      "इनके": 3393,
      "राकेश": 3394,
      "##जीव": 3395,
      "चौहान": 3396,
      "पोल": 3397,
      "##ाब": 3398,
      "##ुल्क": 3399,
      "पार्क": 3400,
      "कहानी": 3401,
      "199": 3402,
      "आखिरी": 3403,
      "सीजन": 3404,
      "मजदूर": 3405,
      "आउट": 3406,
      "ग्वाल": 3407,
      "शरीर": 3408,
      "##चु": 3409,
      "##le": 3410,
      "बताई": 3411,
      "मिलेगी": 3412,
      "ज्यो": 3413,
      "दिला": 3414,
      "खुश": 3415,
      "##परेशन": 3416,
      "व्रत": 3417,
      "##ेड़": 3418,
      "##it": 3419,
      "संदीप": 3420,
      "अमर": 3421,
      "मारने": 3422,
      "एजेंसी": 3423,
      "निर्वाचन": 3424,
      "##श्व": 3425,
      "एसोस": 3426,
      "ब्लॉक": 3427,
      "सफलता": 3428,
      "##ूस": 3429,
      "पुष्": 3430,
      "bjp": 3431,
      "वर्षों": 3432,
      "विषय": 3433,
      "##ानों": 3434,
      "इतनी": 3435,
      "इमेज": 3436,
      "प्राइवेट": 3437,
      "उद्देश्य": 3438,
      "##ानि": 3439,
      "लं": 3440,
      "लाने": 3441,
      "##सेना": 3442,
      "पहुंचने": 3443,
      "##मानत": 3444,
      "चेक": 3445,
      "थो": 3446,
      "ससुर": 3447,
      "##वाया": 3448,
      "रवाना": 3449,
      "उद्योग": 3450,
      "एग्": 3451,
      "अमृत": 3452,
      "स्पष्ट": 3453,
      "सुनिश्चित": 3454,
      "डेट": 3455,
      "फूल": 3456,
      "सेल्स": 3457,
      "रिस": 3458,
      "सत्ता": 3459,
      "हल": 3460,
      "काउ": 3461,
      "साब": 3462,
      "कमिश्न": 3463,
      "##वती": 3464,
      "##ढ़ी": 3465,
      "शुक्": 3466,
      "मानसून": 3467,
      "इंतजार": 3468,
      "परिणाम": 3469,
      "##फ्तार": 3470,
      "##ग्ध": 3471,
      "##र्पित": 3472,
      "वकी": 3473,
      "काल": 3474,
      "इंजी": 3475,
      "मार्केट": 3476,
      "सौंप": 3477,
      "फो": 3478,
      "##्रेन": 3479,
      "कैप्शन": 3480,
      "कहां": 3481,
      "स्टाफ": 3482,
      "खिलाड़ी": 3483,
      "आदित्य": 3484,
      "फाइनल": 3485,
      "ऑपरेशन": 3486,
      "सप": 3487,
      "##ेड": 3488,
      "##ारण": 3489,
      "##त्रि": 3490,
      "तुम": 3491,
      "प्रथम": 3492,
      "##वासियों": 3493,
      "भुगत": 3494,
      "##राय": 3495,
      "##गीय": 3496,
      "##रेन": 3497,
      "अमेरिकी": 3498,
      "उतर": 3499,
      "##ाजी": 3500,
      "फीट": 3501,
      "छोड़कर": 3502,
      "तिथि": 3503,
      "##ूषण": 3504,
      "##रु": 3505,
      "स्थापित": 3506,
      "##लिंग": 3507,
      "परिय": 3508,
      "मुह": 3509,
      "लक्ष्य": 3510,
      "शपथ": 3511,
      "राजधानी": 3512,
      "टाइ": 3513,
      "डिप्": 3514,
      "संतोष": 3515,
      "छात्राओं": 3516,
      "इतिहास": 3517,
      "##िये": 3518,
      "लॉन्च": 3519,
      "कमा": 3520,
      "##सित": 3521,
      "मिलता": 3522,
      "##क्सर": 3523,
      "प्रेर": 3524,
      "क्ला": 3525,
      "जम्म": 3526,
      "सूची": 3527,
      "रोकने": 3528,
      "ट्रैफिक": 3529,
      "विद्यार्थियों": 3530,
      "new": 3531,
      "परियोजना": 3532,
      "स्मार्ट": 3533,
      "सूत्र": 3534,
      "##कृत": 3535,
      "पार्ट": 3536,
      "##िमांड": 3537,
      "##िट्": 3538,
      "दबाव": 3539,
      "फायदा": 3540,
      "डिप्टी": 3541,
      "दस्ता": 3542,
      "##मैन": 3543,
      "##is": 3544,
      "किमी": 3545,
      "अरविंद": 3546,
      "माहौल": 3547,
      "जाति": 3548,
      "##ट्टी": 3549,
      "शंकर": 3550,
      "मेह": 3551,
      "प्रस्तुत": 3552,
      "निदेशक": 3553,
      "शै": 3554,
      "##यात": 3555,
      "सोनी": 3556,
      "##बीआई": 3557,
      "सहायता": 3558,
      "##ूनी": 3559,
      "##शील": 3560,
      "बुलाया": 3561,
      "इलेक्ट्र": 3562,
      "रफ्तार": 3563,
      "सौं": 3564,
      "उक्त": 3565,
      "शान": 3566,
      "बंध": 3567,
      "##र्जन": 3568,
      "चुनावों": 3569,
      "डीएम": 3570,
      "स्थानों": 3571,
      "प्रशिक्षण": 3572,
      "कक्षा": 3573,
      "36": 3574,
      "साथी": 3575,
      "##वीन": 3576,
      "जोन": 3577,
      "हिरासत": 3578,
      "जुड़ी": 3579,
      "ज्योति": 3580,
      "क़": 3581,
      "पेड़": 3582,
      "मशीन": 3583,
      "##त्त": 3584,
      "##ट्ट": 3585,
      "34": 3586,
      "किर": 3587,
      "गतिविध": 3588,
      "चिकित्": 3589,
      "ग्वालियर": 3590,
      "ड्यूटी": 3591,
      "##रेट": 3592,
      "गोपाल": 3593,
      "कंपनियों": 3594,
      "##ur": 3595,
      "बचाने": 3596,
      "मनीष": 3597,
      "बत": 3598,
      "मुर": 3599,
      "लै": 3600,
      "##वनी": 3601,
      "रोजगार": 3602,
      "हेम": 3603,
      "##गु": 3604,
      "समूह": 3605,
      "सैनी": 3606,
      "प्रिय": 3607,
      "##टेन": 3608,
      "जानते": 3609,
      "##न्द": 3610,
      "अनुमति": 3611,
      "##स्वी": 3612,
      "एसी": 3613,
      "##वधान": 3614,
      "प्रत्य": 3615,
      "महाम": 3616,
      "मध्यप्रदेश": 3617,
      "##di": 3618,
      "काट": 3619,
      "प्रम": 3620,
      "नीति": 3621,
      "पोस्टम": 3622,
      "बाढ़": 3623,
      "##क्का": 3624,
      "भाषा": 3625,
      "लापर": 3626,
      "रूम": 3627,
      "संचालक": 3628,
      "सेल्सियस": 3629,
      "इंजीनियर": 3630,
      "जम्मू": 3631,
      "चिंता": 3632,
      "सीनियर": 3633,
      "##्रेलिया": 3634,
      "##बीसी": 3635,
      "तारीख": 3636,
      "चिकित्सा": 3637,
      "पोस्टमॉर्ट": 3638,
      "अक्ष": 3639,
      "उज्ज": 3640,
      "विवे": 3641,
      "##क्रिय": 3642,
      "मुकदमा": 3643,
      "एसोसिएशन": 3644,
      "पोस्टमॉर्टम": 3645,
      "ऑस्ट": 3646,
      "टॉ": 3647,
      "बें": 3648,
      "##एंगे": 3649,
      "##द्दी": 3650,
      "स्कू": 3651,
      "मुकाबले": 3652,
      "मास": 3653,
      "शूट": 3654,
      "##am": 3655,
      "आरक्षण": 3656,
      "बॉलीवुड": 3657,
      "प्रिंस": 3658,
      "क्": 3659,
      "##ौन": 3660,
      "##थर": 3661,
      "##नेस": 3662,
      "करनी": 3663,
      "कप्तान": 3664,
      "चेयर": 3665,
      "फैसले": 3666,
      "कंट": 3667,
      "##्ब": 3668,
      "वेब": 3669,
      "निकले": 3670,
      "दास": 3671,
      "दाखिल": 3672,
      "बूथ": 3673,
      "##फॉर्म": 3674,
      "2021": 3675,
      "निर्धारित": 3676,
      "##क़": 3677,
      "संचालित": 3678,
      "जताई": 3679,
      "टूट": 3680,
      "निभा": 3681,
      "दाम": 3682,
      "फें": 3683,
      "##ay": 3684,
      "स्म": 3685,
      "रेड": 3686,
      "आरती": 3687,
      "ज्ञापन": 3688,
      "प्ला": 3689,
      "##ेन्द्र": 3690,
      "रखते": 3691,
      "फायरिंग": 3692,
      "जॉ": 3693,
      "जमानत": 3694,
      "धान": 3695,
      "##ौली": 3696,
      "##आईआर": 3697,
      "चांदी": 3698,
      "48": 3699,
      "##ंजन": 3700,
      "सेल": 3701,
      "##र्जर": 3702,
      "2025": 3703,
      "फैक्ट": 3704,
      "करवाई": 3705,
      "##्यता": 3706,
      "##काता": 3707,
      "000": 3708,
      "ग्रे": 3709,
      "मोटर": 3710,
      "##ांची": 3711,
      "रेफर": 3712,
      "क्रम": 3713,
      "##पेट": 3714,
      "##ाराम": 3715,
      "विश्": 3716,
      "कमिश्नर": 3717,
      "news": 3718,
      "झू": 3719,
      "भरा": 3720,
      "संपत्ति": 3721,
      "गौरव": 3722,
      "डायरेक्टर": 3723,
      "घूम": 3724,
      "चंडी": 3725,
      "##ेंगी": 3726,
      "नियंत्र": 3727,
      "मोहल्": 3728,
      "सप्लाई": 3729,
      "राजीव": 3730,
      "75": 3731,
      "नवा": 3732,
      "##स्टे": 3733,
      "पालन": 3734,
      "अट": 3735,
      "##ic": 3736,
      "सरपंच": 3737,
      "दुर्गा": 3738,
      "गिरावट": 3739,
      "टॉप": 3740,
      "हमारा": 3741,
      "पुराने": 3742,
      "स्टेट": 3743,
      "गोर": 3744,
      "दैनिक": 3745,
      "##स्ट्र": 3746,
      "कोलकाता": 3747,
      "रुक": 3748,
      "हरा": 3749,
      "##र्तन": 3750,
      "प्रत्येक": 3751,
      "स्पी": 3752,
      "इस्ती": 3753,
      "##व्यू": 3754,
      "लापरवाही": 3755,
      "अत": 3756,
      "खिलाड़ियों": 3757,
      "हिस्से": 3758,
      "उम्मीदवारों": 3759,
      "संसद": 3760,
      "किशोर": 3761,
      "दस": 3762,
      "चौथ": 3763,
      "हेड": 3764,
      "उपाध्यक्ष": 3765,
      "धीरे": 3766,
      "ठगी": 3767,
      "##ुक्ति": 3768,
      "किरा": 3769,
      "प्रदीप": 3770,
      "साउ": 3771,
      "##प्रीत": 3772,
      "ठंड": 3773,
      "सलाह": 3774,
      "सक्रिय": 3775,
      "करियर": 3776,
      "जिन्होंने": 3777,
      "55": 3778,
      "##ित्व": 3779,
      "##िलास": 3780,
      "आगामी": 3781,
      "ट्रैक्टर": 3782,
      "90": 3783,
      "खड़ा": 3784,
      "##ड़िया": 3785,
      "इंच": 3786,
      "वॉ": 3787,
      "##बारा": 3788,
      "रमेश": 3789,
      "पावर": 3790,
      "प्रतिमा": 3791,
      "डीसी": 3792,
      "साबित": 3793,
      "डॉलर": 3794,
      "सलमान": 3795,
      "क्षमता": 3796,
      "मांगी": 3797,
      "पुन": 3798,
      "उठाया": 3799,
      "पड़ता": 3800,
      "खाते": 3801,
      "जला": 3802,
      "नशे": 3803,
      "पहा": 3804,
      "करवाने": 3805,
      "जोध": 3806,
      "पैदा": 3807,
      "पसंद": 3808,
      "##लब": 3809,
      "संदेश": 3810,
      "अनुमान": 3811,
      "##म्प": 3812,
      "##ियाना": 3813,
      "विशाल": 3814,
      "चर": 3815,
      "तीसरी": 3816,
      "विस्तार": 3817,
      "अर्थ": 3818,
      "##पीएस": 3819,
      "स्टार": 3820,
      "जुट": 3821,
      "वितरण": 3822,
      "भावना": 3823,
      "विश्वास": 3824,
      "तिर": 3825,
      "मच": 3826,
      "##वंत": 3827,
      "##ेलन": 3828,
      "कमल": 3829,
      "स्टैंड": 3830,
      "अकाउंट": 3831,
      "##नाम": 3832,
      "ज्ञान": 3833,
      "आतंक": 3834,
      "चंडीगढ़": 3835,
      "अर्ज": 3836,
      "ओम": 3837,
      "##िमी": 3838,
      "##्रह": 3839,
      "प्रबंध": 3840,
      "इसको": 3841,
      "सोच": 3842,
      "इंडस्ट्री": 3843,
      "क्लब": 3844,
      "जोधपुर": 3845,
      "आती": 3846,
      "चुनौती": 3847,
      "हंग": 3848,
      "##ार्म": 3849,
      "आपकी": 3850,
      "तालाब": 3851,
      "कथा": 3852,
      "दवा": 3853,
      "भ्र": 3854,
      "फिल्मों": 3855,
      "कने": 3856,
      "गार्ड": 3857,
      "गोद": 3858,
      "##िनेट": 3859,
      "बुल": 3860,
      "इंस्प": 3861,
      "जिनमें": 3862,
      "नक्स": 3863,
      "##ाराण": 3864,
      "चाहता": 3865,
      "इंटरव्यू": 3866,
      "शही": 3867,
      "##्रेशन": 3868,
      "बढ़ने": 3869,
      "हालात": 3870,
      "##कर्मी": 3871,
      "##ेमारी": 3872,
      "##गणना": 3873,
      "cm": 3874,
      "एंट": 3875,
      "##नर": 3876,
      "##ंडर": 3877,
      "हाईवे": 3878,
      "छापेमारी": 3879,
      "साउथ": 3880,
      "इजरा": 3881,
      "पॉल": 3882,
      "##ईओ": 3883,
      "राजस्व": 3884,
      "महास": 3885,
      "घायलों": 3886,
      "संघर्ष": 3887,
      "मुद्दे": 3888,
      "वाराण": 3889,
      "विमान": 3890,
      "##राष्ट्रीय": 3891,
      "रूस": 3892,
      "वाराणसी": 3893,
      "##िड़": 3894,
      "##जिद": 3895,
      "##भार": 3896,
      "प्रमाण": 3897,
      "##ंदे": 3898,
      "##स्तर": 3899,
      "कर्मियों": 3900,
      "एफआईआर": 3901,
      "वाय": 3902,
      "##ेद": 3903,
      "##िले": 3904,
      "दूरी": 3905,
      "##ड्डा": 3906,
      "##घाटन": 3907,
      "कू": 3908,
      "प्यार": 3909,
      "##लेख": 3910,
      "निर्म": 3911,
      "##स्थल": 3912,
      "बिल्ड": 3913,
      "समीक्षा": 3914,
      "चाक": 3915,
      "हिंसा": 3916,
      "गुजर": 3917,
      "वोटिंग": 3918,
      "बल्ले": 3919,
      "निशाना": 3920,
      "चिकित्स": 3921,
      "##वली": 3922,
      "##्वी": 3923,
      "##ल्ल": 3924,
      "माध": 3925,
      "शेख": 3926,
      "योजनाओं": 3927,
      "ऑस्ट्रेलिया": 3928,
      "दान": 3929,
      "##सु": 3930,
      "##करा": 3931,
      "पुरानी": 3932,
      "टाइम": 3933,
      "बाग": 3934,
      "संदि": 3935,
      "खाना": 3936,
      "डिप": 3937,
      "भुगतान": 3938,
      "रद्द": 3939,
      "##ap": 3940,
      "कैब": 3941,
      "संदिग्ध": 3942,
      "खाने": 3943,
      "##ेक्टर": 3944,
      "##ुट": 3945,
      "##ैट": 3946,
      "बादल": 3947,
      "अनुप": 3948,
      "स्वतंत्र": 3949,
      "नियुक्त": 3950,
      "विभा": 3951,
      "ईरान": 3952,
      "##बार": 3953,
      "डेढ़": 3954,
      "दुर्घ": 3955,
      "स्थापना": 3956,
      "इंटरनेशनल": 3957,
      "##han": 3958,
      "भीतर": 3959,
      "##ार्व": 3960,
      "मॉडल": 3961,
      "एसडीएम": 3962,
      "प्रभा": 3963,
      "समाप्त": 3964,
      "##ोटा": 3965,
      "विकसित": 3966,
      "फैल": 3967,
      "यूनिट": 3968,
      "ठेके": 3969,
      "जबर": 3970,
      "सेंट": 3971,
      "##यं": 3972,
      "सकेंगे": 3973,
      "##सीय": 3974,
      "कानपुर": 3975,
      "विशेषज्ञ": 3976,
      "अच्छे": 3977,
      "फुटेज": 3978,
      "खड़ी": 3979,
      "##दल": 3980,
      "भीषण": 3981,
      "प्रेस": 3982,
      "दुर्घटना": 3983,
      "ओल": 3984,
      "पाली": 3985,
      "##मित": 3986,
      "##डियम": 3987,
      "##दिन": 3988,
      "शिकार": 3989,
      "सम्मेलन": 3990,
      "सर्विस": 3991,
      "##भाष": 3992,
      "गुल": 3993,
      "भरो": 3994,
      "##सीसी": 3995,
      "चलाया": 3996,
      "चेता": 3997,
      "दह": 3998,
      "राठ": 3999,
      "अंतरराष्ट्रीय": 4000,
      "अतिक": 4001,
      "रेट": 4002,
      "श्याम": 4003,
      "खुशी": 4004,
      "सत्य": 4005,
      "##ंती": 4006,
      "यात्री": 4007,
      "रांची": 4008,
      "।\"": 4009,
      "##णि": 4010,
      "लेना": 4011,
      "##ोजक": 4012,
      "छोटी": 4013,
      "वृद्धि": 4014,
      "नज": 4015,
      "##काम": 4016,
      "##स्टल": 4017,
      "उपाय": 4018,
      "गांवों": 4019,
      "नर्स": 4020,
      "##दास": 4021,
      "कार्यकाल": 4022,
      "वकील": 4023,
      "तार": 4024,
      "बम": 4025,
      "##ol": 4026,
      "##केशन": 4027,
      "##हाद": 4028,
      "रहीं": 4029,
      "सार्व": 4030,
      "नेट": 4031,
      "अध्यक्षता": 4032,
      "टैक्स": 4033,
      "हटाने": 4034,
      "पवन": 4035,
      "##िवार": 4036,
      "##ानगर": 4037,
      "स्वीकार": 4038,
      "गरीब": 4039,
      "लू": 4040,
      "होनी": 4041,
      "गठन": 4042,
      "आक्र": 4043,
      "कथ": 4044,
      "द्व": 4045,
      "##पद": 4046,
      "##नाड": 4047,
      "##्यास": 4048,
      "##धीश": 4049,
      "स्वामी": 4050,
      "आंख": 4051,
      "उतार": 4052,
      "##तक": 4053,
      "राजेंद्र": 4054,
      "2014": 4055,
      "ऊंच": 4056,
      "##िपा": 4057,
      "##छा": 4058,
      "कोटा": 4059,
      "##द्रा": 4060,
      "बजकर": 4061,
      "स्टेडियम": 4062,
      "पश्चिमी": 4063,
      "उद्घाटन": 4064,
      "डाला": 4065,
      "पोर्ट": 4066,
      "##तु": 4067,
      "शहरों": 4068,
      "लड़ाई": 4069,
      "##धिकार": 4070,
      "##स्टेबल": 4071,
      "अके": 4072,
      "खर": 4073,
      "चार्ज": 4074,
      "##id": 4075,
      "##सेज": 4076,
      "दोबारा": 4077,
      "बीमार": 4078,
      "सोना": 4079,
      "जुर्म": 4080,
      "फैंस": 4081,
      "कैमरे": 4082,
      "अतिक्रमण": 4083,
      "300": 4084,
      "pr": 4085,
      "एच": 4086,
      "विज": 4087,
      "##ोग्राम": 4088,
      "सुरेश": 4089,
      "स्वच्छ": 4090,
      "बध": 4091,
      "मीटिंग": 4092,
      "बढ़ावा": 4093,
      "आखिर": 4094,
      "श्रद्धालुओं": 4095,
      "सोरेन": 4096,
      "हरि": 4097,
      "ट्रॉ": 4098,
      "चाहती": 4099,
      "आशंका": 4100,
      "आंध": 4101,
      "एरिया": 4102,
      "##हण": 4103,
      "कोह": 4104,
      "##ंपिक": 4105,
      "सूरज": 4106,
      "अरब": 4107,
      "शानदार": 4108,
      "इंस्पेक्टर": 4109,
      "जस": 4110,
      "नाय": 4111,
      "मस्": 4112,
      "##तो": 4113,
      "##काने": 4114,
      "##दाबाद": 4115,
      "दिनेश": 4116,
      "पुरस्कार": 4117,
      "पंडित": 4118,
      "इक": 4119,
      "##नल": 4120,
      "विष्ण": 4121,
      "जिन्हें": 4122,
      "ip": 4123,
      "सुल": 4124,
      "सख्त": 4125,
      "महोत्सव": 4126,
      "##जनिक": 4127,
      "पदों": 4128,
      "सौर": 4129,
      "हित": 4130,
      "##ंदन": 4131,
      "##िपल": 4132,
      "कठ": 4133,
      "दर्द": 4134,
      "सिन्": 4135,
      "##त्मा": 4136,
      "सार्वजनिक": 4137,
      "##ंगर": 4138,
      "##ोलॉ": 4139,
      "नियुक्ति": 4140,
      "नती": 4141,
      "वार्": 4142,
      "##टका": 4143,
      "जगहों": 4144,
      "प्रोफे": 4145,
      "एक्शन": 4146,
      "##ढ़े": 4147,
      "मौजू": 4148,
      "मिशन": 4149,
      "गे": 4150,
      "विज्ञान": 4151,
      "##ाइड": 4152,
      "लाखों": 4153,
      "अखिलेश": 4154,
      "##ीता": 4155,
      "##ंटर": 4156,
      "कुश": 4157,
      "##्मण": 4158,
      "स्ट्र": 4159,
      "लड़के": 4160,
      "तस्कर": 4161,
      "बचाव": 4162,
      "भ्रष्ट": 4163,
      "38": 4164,
      "यश": 4165,
      "लुध": 4166,
      "मौजूदा": 4167,
      "नारे": 4168,
      "नियमों": 4169,
      "गह": 4170,
      "जू": 4171,
      "##लान": 4172,
      "##et": 4173,
      "प्रारंभ": 4174,
      "सीता": 4175,
      "जानिए": 4176,
      "2020": 4177,
      "अपराधियों": 4178,
      "गौतम": 4179,
      "कैबिनेट": 4180,
      "##डेट": 4181,
      "संस्कार": 4182,
      "दरवा": 4183,
      "समस्याओं": 4184,
      "लुधियाना": 4185,
      "',": 4186,
      "रानी": 4187,
      "संजीव": 4188,
      "कारोबार": 4189,
      "एप": 4190,
      "नहर": 4191,
      "##hi": 4192,
      "महेंद्र": 4193,
      "मिलती": 4194,
      "आपका": 4195,
      "वेतन": 4196,
      "अफसरों": 4197,
      "up": 4198,
      "असम": 4199,
      "पंक": 4200,
      "##कारा": 4201,
      "शोर": 4202,
      "##पण": 4203,
      "चलाने": 4204,
      "विदेशी": 4205,
      "मध": 4206,
      "सका": 4207,
      "##ंसर": 4208,
      "सिन्हा": 4209,
      "##गन": 4210,
      "पहुंचाया": 4211,
      "दिव्या": 4212,
      "400": 4213,
      "शास": 4214,
      "##ब्लिक": 4215,
      "हल्की": 4216,
      "##्वे": 4217,
      "प्रवक्ता": 4218,
      "प्रोफेसर": 4219,
      "व्": 4220,
      "##बीन": 4221,
      "चारों": 4222,
      "सांस्कृत": 4223,
      "कर्ना": 4224,
      "आबादी": 4225,
      "चपेट": 4226,
      "बातें": 4227,
      "##राबाद": 4228,
      "लक्ष्मी": 4229,
      "टिप्": 4230,
      "##यत": 4231,
      "अरुण": 4232,
      "विनोद": 4233,
      "चेतावनी": 4234,
      "कच": 4235,
      "जस्ट": 4236,
      "दलों": 4237,
      "पेंशन": 4238,
      "माय": 4239,
      "लिम": 4240,
      "कमज": 4241,
      "मंजू": 4242,
      "धरना": 4243,
      "गोरख": 4244,
      "सांस्कृतिक": 4245,
      "42": 4246,
      "अंडर": 4247,
      "नवीन": 4248,
      "##ानु": 4249,
      "##गरानी": 4250,
      "अनुभव": 4251,
      "ट्रंप": 4252,
      "मनो": 4253,
      "आदिवासी": 4254,
      "चोरों": 4255,
      "नमः": 4256,
      "उत्साह": 4257,
      "क्लास": 4258,
      "शौ": 4259,
      "##कृ": 4260,
      "इसरा": 4261,
      "एंट्री": 4262,
      "कर्नाटक": 4263,
      "इंग": 4264,
      "कंग": 4265,
      "##ौड़": 4266,
      "परम": 4267,
      "दिवसीय": 4268,
      "##चुनाव": 4269,
      "डूब": 4270,
      "##पट": 4271,
      "सुंदर": 4272,
      "pm": 4273,
      "ऊर्जा": 4274,
      "##हारी": 4275,
      "उपचुनाव": 4276,
      "निकाली": 4277,
      "##तरीय": 4278,
      "ट्रांसफर": 4279,
      "चाकू": 4280,
      "निगरानी": 4281,
      "##साइड": 4282,
      "पंकज": 4283,
      "ईडी": 4284,
      "##नन": 4285,
      "निरा": 4286,
      "समझौ": 4287,
      "बिक्री": 4288,
      "धार": 4289,
      "##ra": 4290,
      "##र्ण": 4291,
      "इंडियन": 4292,
      "खुले": 4293,
      "चौराह": 4294,
      "घटनास्थल": 4295,
      "##वासन": 4296,
      "ब्रि": 4297,
      "योगदान": 4298,
      "काउंस": 4299,
      "मस्जिद": 4300,
      "##चिव": 4301,
      "बाय": 4302,
      "प्राण": 4303,
      "गतिविधियों": 4304,
      "re": 4305,
      "रास्ता": 4306,
      "राजकुमार": 4307,
      "कपड़े": 4308,
      "साहिब": 4309,
      "##म्बर": 4310,
      "बधाई": 4311,
      "##िंदर": 4312,
      "##र्में": 4313,
      "स्तरीय": 4314,
      "##ुल्ला": 4315,
      "##ुलेंस": 4316,
      "लड़क": 4317,
      "धोखा": 4318,
      "पथ": 4319,
      "##िफ": 4320,
      "सुभाष": 4321,
      "बेस": 4322,
      "मेर": 4323,
      "गायब": 4324,
      "उज्जैन": 4325,
      "44": 4326,
      "फ्री": 4327,
      "फॉर्म": 4328,
      "सारे": 4329,
      "##लीय": 4330,
      "बेट": 4331,
      "##धिकारियों": 4332,
      "एनडीए": 4333,
      "##ट्टा": 4334,
      "झग": 4335,
      "झां": 4336,
      "##सेस": 4337,
      "इन्": 4338,
      "लल": 4339,
      "प्रयोग": 4340,
      "समान": 4341,
      "सब्": 4342,
      "##स्कृति": 4343,
      "भक्तों": 4344,
      "भव्य": 4345,
      "रोल": 4346,
      "##क्न": 4347,
      "##ाजा": 4348,
      "बैग": 4349,
      "क्राइम": 4350,
      "प्रोड": 4351,
      "##फ्रेंस": 4352,
      "तृ": 4353,
      "इन्हें": 4354,
      "गैस": 4355,
      "धाम": 4356,
      "हैद": 4357,
      "मेहन": 4358,
      "नजदी": 4359,
      "सैनिक": 4360,
      "पूर्वी": 4361,
      "##साइट": 4362,
      "मानसिक": 4363,
      "संकल्प": 4364,
      "प्रतिनिध": 4365,
      "कंट्रोल": 4366,
      "हंगामा": 4367,
      "ब्रे": 4368,
      "##स्थिति": 4369,
      "फैक्ट्री": 4370,
      "डो": 4371,
      "भूप": 4372,
      "##टरी": 4373,
      "##वाड़ी": 4374,
      "संस्कृति": 4375,
      "देती": 4376,
      "##ष्टि": 4377,
      "पंजी": 4378,
      "आर्ट": 4379,
      "घे": 4380,
      "##कृति": 4381,
      "मुज": 4382,
      "सुसाइड": 4383,
      "निकला": 4384,
      "स्वयं": 4385,
      "जीतने": 4386,
      "##ट्‌": 4387,
      "निशान": 4388,
      "पांडे": 4389,
      "परिवहन": 4390,
      "ससुराल": 4391,
      "आकर्": 4392,
      "##िमा": 4393,
      "गुण": 4394,
      "विष्णु": 4395,
      "साढ़े": 4396,
      "गैर": 4397,
      "लाइट": 4398,
      "छठ": 4399,
      "लगाते": 4400,
      "बोला": 4401,
      "श्रीवा": 4402,
      "भरत": 4403,
      "उत्सव": 4404,
      "घोट": 4405,
      "रिश": 4406,
      "##सवाल": 4407,
      "##्तीय": 4408,
      "होम": 4409,
      "पर्यावरण": 4410,
      "टो": 4411,
      "वर": 4412,
      "अग्न": 4413,
      "मुक्त": 4414,
      "##विंदर": 4415,
      "वर्षा": 4416,
      "वित्तीय": 4417,
      "एडम": 4418,
      "व्यापारी": 4419,
      "सुनाई": 4420,
      "आना": 4421,
      "##ंपरा": 4422,
      "गोल्ड": 4423,
      "विभागों": 4424,
      "एडी": 4425,
      "खार": 4426,
      "कैला": 4427,
      "198": 4428,
      "सूत्रों": 4429,
      "श्रीवास्तव": 4430,
      "##चक": 4431,
      "##िनियम": 4432,
      "साज": 4433,
      "बोली": 4434,
      "विधाय": 4435,
      "श्रीराम": 4436,
      "खोज": 4437,
      "सीधे": 4438,
      "##ृत्य": 4439,
      "आएंगे": 4440,
      "कौशल": 4441,
      "46": 4442,
      "अल्": 4443,
      "गीत": 4444,
      "मंज": 4445,
      "मिट्": 4446,
      "##यी": 4447,
      "तिल": 4448,
      "इनकी": 4449,
      "डीएसपी": 4450,
      "हिंदी": 4451,
      "##कू": 4452,
      "उनमें": 4453,
      "##रोज": 4454,
      "कहती": 4455,
      "हजारों": 4456,
      "कानूनी": 4457,
      "खी": 4458,
      "जुल": 4459,
      "शख": 4460,
      "काबू": 4461,
      "दौड़": 4462,
      "भ्रष्टा": 4463,
      "आचार्य": 4464,
      "परंपरा": 4465,
      "अधिनियम": 4466,
      "पकड़े": 4467,
      "वापसी": 4468,
      "कब्जा": 4469,
      "आश्": 4470,
      "दर्श": 4471,
      "##िटेड": 4472,
      "##ोसी": 4473,
      "अनुर": 4474,
      "उधर": 4475,
      "दृष्ट": 4476,
      "हवाई": 4477,
      "##श्त": 4478,
      "सिंध": 4479,
      "भारती": 4480,
      "कमाई": 4481,
      "वेबसाइट": 4482,
      "कमजोर": 4483,
      "अक्सर": 4484,
      "घट": 4485,
      "##र्त": 4486,
      "महेश": 4487,
      "एमपी": 4488,
      "प्रियंका": 4489,
      "चेयरमैन": 4490,
      "अर्जुन": 4491,
      "इंग्ल": 4492,
      "मेहनत": 4493,
      "शुल्क": 4494,
      "##ंवर": 4495,
      "जाट": 4496,
      "##रेज": 4497,
      "लागत": 4498,
      "पुण": 4499,
      "खेला": 4500,
      "दस्तावेज": 4501,
      "काे": 4502,
      "अपर": 4503,
      "दुर्ग": 4504,
      "##un": 4505,
      "##ंद्र": 4506,
      "आगरा": 4507,
      "##कर्मियों": 4508,
      "शहीद": 4509,
      "कोहली": 4510,
      "##क्सी": 4511,
      "सीबीआई": 4512,
      "##गेट": 4513,
      "##ूर्त": 4514,
      "##कर्ता": 4515,
      "दिखाया": 4516,
      "संरक्षण": 4517,
      "##ाकर": 4518,
      "प्रती": 4519,
      "##राहा": 4520,
      "पत्थर": 4521,
      "चैंप": 4522,
      "मुकाबला": 4523,
      "ओड": 4524,
      "राज्यपाल": 4525,
      "हाथों": 4526,
      "इतने": 4527,
      "पारा": 4528,
      "फल": 4529,
      "##िफिक": 4530,
      "वेस्ट": 4531,
      "##एसआई": 4532,
      "व्यापार": 4533,
      "केन्द्र": 4534,
      "##नाक": 4535,
      "##स्सा": 4536,
      "राइ": 4537,
      "वर्क": 4538,
      "पासवान": 4539,
      "जुटी": 4540,
      "बॉक्स": 4541,
      "सैक": 4542,
      "##ड्डी": 4543,
      "आवश्यकता": 4544,
      "पांडेय": 4545,
      "खाद्य": 4546,
      "प्रतिष्ठा": 4547,
      "उचित": 4548,
      "तु": 4549,
      "रोग": 4550,
      "दिग्": 4551,
      "मानव": 4552,
      "डिजाइन": 4553,
      "हिसाब": 4554,
      "शूटिंग": 4555,
      "घरे": 4556,
      "##दिक": 4557,
      "किशन": 4558,
      "##क्षी": 4559,
      "मतदाता": 4560,
      "प्रिंसिपल": 4561,
      "65": 4562,
      "भंड": 4563,
      "##घा": 4564,
      "जैसा": 4565,
      "##सूस": 4566,
      "अजमेर": 4567,
      "श्रेणी": 4568,
      "लंबी": 4569,
      "ऑड": 4570,
      "मुआ": 4571,
      "रणनी": 4572,
      "##हत्या": 4573,
      "निष्": 4574,
      "##प्प": 4575,
      "एडव": 4576,
      "41": 4577,
      "खून": 4578,
      "शब्": 4579,
      "##तायात": 4580,
      "प्रतिबंध": 4581,
      "मुद्दों": 4582,
      "दोषी": 4583,
      "गर्म": 4584,
      "ताल": 4585,
      "बढ़ो": 4586,
      "पदार्थ": 4587,
      "भोजन": 4588,
      "फ्लाइट": 4589,
      "आश्वासन": 4590,
      "घरेलू": 4591,
      "लें": 4592,
      "सिया": 4593,
      "लेख": 4594,
      "सिने": 4595,
      "पीने": 4596,
      "जीता": 4597,
      "यातायात": 4598,
      "दूध": 4599,
      "प्लांट": 4600,
      "अहमद": 4601,
      "तुलना": 4602,
      ".\"": 4603,
      "नित": 4604,
      "ममता": 4605,
      "##ब्र": 4606,
      "##गाह": 4607,
      "स्कोर": 4608,
      "##आईटी": 4609,
      "कैलाश": 4610,
      "विरा": 4611,
      "##ायी": 4612,
      "##बाग": 4613,
      "विधि": 4614,
      "मतगणना": 4615,
      "संयोजक": 4616,
      "##िन्द": 4617,
      "महासचिव": 4618,
      "47": 4619,
      "दिक": 4620,
      "पायल": 4621,
      "बुरी": 4622,
      "##फिया": 4623,
      "साथियों": 4624,
      "जनरल": 4625,
      "निकली": 4626,
      "##र्ग": 4627,
      "लाश": 4628,
      "बनकर": 4629,
      "यूक": 4630,
      "##इंट": 4631,
      "##har": 4632,
      "कैद": 4633,
      "गिरने": 4634,
      "अवधि": 4635,
      "अश्व": 4636,
      "चीज": 4637,
      "कराए": 4638,
      "गोरखपुर": 4639,
      "इनकार": 4640,
      "दुबे": 4641,
      "चक्र": 4642,
      "##डिंग": 4643,
      "मुद्दा": 4644,
      "आत्महत्या": 4645,
      "विधायकों": 4646,
      "39": 4647,
      "सन": 4648,
      "##ियत": 4649,
      "स्‍": 4650,
      "ट्रेनिंग": 4651,
      "पक्षों": 4652,
      "निकलने": 4653,
      "आशीष": 4654,
      "हाइ": 4655,
      "हर्ष": 4656,
      "##द्योग": 4657,
      "निरीक्षक": 4658,
      "संभव": 4659,
      "जस्टिस": 4660,
      "लिमिटेड": 4661,
      "हफ्": 4662,
      "बाइ": 4663,
      "राउंड": 4664,
      "अपडेट": 4665,
      "##रेस्ट": 4666,
      "दीवार": 4667,
      "मोर्चा": 4668,
      "जाएं": 4669,
      "जबलपुर": 4670,
      "सामग्री": 4671,
      "##्लो": 4672,
      "जिलाध्यक्ष": 4673,
      "अमन": 4674,
      "प्रतिनिधि": 4675,
      "शुक्ला": 4676,
      "भ्रष्टाचार": 4677,
      "##ित्त": 4678,
      "##ल्थ": 4679,
      "राज्यसभा": 4680,
      "ट्रैक": 4681,
      "चीफ": 4682,
      "वसू": 4683,
      "##शोध": 4684,
      "##ौज": 4685,
      "##स्त्री": 4686,
      "स्न": 4687,
      "बढ़ती": 4688,
      "टाटा": 4689,
      "हेमंत": 4690,
      "विवेक": 4691,
      "इस्तीफा": 4692,
      "##कृष्ण": 4693,
      "शख्स": 4694,
      "नशा": 4695,
      "##ग्न": 4696,
      "##दीय": 4697,
      "बरसा": 4698,
      "प्रदर्श": 4699,
      "##ज्ञानिक": 4700,
      "ऑल": 4701,
      "##गो": 4702,
      "प्रण": 4703,
      "साझा": 4704,
      "नियमित": 4705,
      "कथित": 4706,
      "आरा": 4707,
      "ध्व": 4708,
      "महसूस": 4709,
      "मेले": 4710,
      "बढ़कर": 4711,
      "नील": 4712,
      "पलट": 4713,
      "आर्": 4714,
      "ऐलान": 4715,
      "छूट": 4716,
      "पाने": 4717,
      "##el": 4718,
      "दुष्": 4719,
      "लापता": 4720,
      "खारिज": 4721,
      "##ांश": 4722,
      "आईपी": 4723,
      "प्रशासनिक": 4724,
      "मेडल": 4725,
      "मुजफ्": 4726,
      "51": 4727,
      "पाइ": 4728,
      "कैंसर": 4729,
      "कुलदीप": 4730,
      "तेजस्वी": 4731,
      "आयुष": 4732,
      "आकाश": 4733,
      "जख": 4734,
      "##ड़ियां": 4735,
      "इंस्ट": 4736,
      "अर्चना": 4737,
      "नियंत्रण": 4738,
      "छत": 4739,
      "##्ट": 4740,
      "##िलंब": 4741,
      "प्रकरण": 4742,
      "##वाड़": 4743,
      "महतो": 4744,
      "मेला": 4745,
      "2018": 4746,
      "दुकानों": 4747,
      "बेचने": 4748,
      "तमिल": 4749,
      "दिक्क": 4750,
      "बड़": 4751,
      "##लैंड": 4752,
      "##डेंट": 4753,
      "##दर्शन": 4754,
      "गोयल": 4755,
      "महाप": 4756,
      "ओडिशा": 4757,
      "ताक": 4758,
      "हरी": 4759,
      "##चर्स": 4760,
      "##ाइयों": 4761,
      "खेती": 4762,
      "पड़ेगा": 4763,
      "माइ": 4764,
      "##ीप": 4765,
      "##्द": 4766,
      "##ट्यू": 4767,
      "होली": 4768,
      "##स्थाप": 4769,
      "हिम": 4770,
      "शिफ्ट": 4771,
      "न्यायाधीश": 4772,
      "केरल": 4773,
      "##्रो": 4774,
      "##लाइ": 4775,
      "ग्रा": 4776,
      "दौरे": 4777,
      "रुख": 4778,
      "कर्मी": 4779,
      "आह": 4780,
      "त्यो": 4781,
      "##रीन": 4782,
      "संह": 4783,
      "बीएस": 4784,
      "जाया": 4785,
      "सिम": 4786,
      "##रेली": 4787,
      "ज्यादातर": 4788,
      "हड़ताल": 4789,
      "त्योहार": 4790,
      "अना": 4791,
      "मंग": 4792,
      "##पूत": 4793,
      "##्योर": 4794,
      "मारे": 4795,
      "डिजिटल": 4796,
      "मुजफ्फर": 4797,
      "टूर्": 4798,
      "##नामेंट": 4799,
      "##जात": 4800,
      "मारकर": 4801,
      "##ोलॉजी": 4802,
      "धूप": 4803,
      "पब्लिक": 4804,
      "##पणी": 4805,
      "पार्किंग": 4806,
      "गुना": 4807,
      "मैचों": 4808,
      "अभिने": 4809,
      "बिल्डिंग": 4810,
      "एश": 4811,
      "कना": 4812,
      "##ॉम": 4813,
      "प्रार्थ": 4814,
      "बीमारी": 4815,
      "डीजल": 4816,
      "मतलब": 4817,
      "आधारित": 4818,
      "नागरिकों": 4819,
      "टूर्नामेंट": 4820,
      "अंद": 4821,
      "चम": 4822,
      "छोटा": 4823,
      "फते": 4824,
      "##मोह": 4825,
      "##bi": 4826,
      "##क्चर": 4827,
      "उपभ": 4828,
      "अपराधी": 4829,
      "भरोसा": 4830,
      "हफ्ते": 4831,
      "संहिता": 4832,
      "पश": 4833,
      "माने": 4834,
      "##us": 4835,
      "##ृज": 4836,
      "##रीय": 4837,
      "राजद": 4838,
      "रूट": 4839,
      "प्रतिभा": 4840,
      "##म्मत": 4841,
      "साजिश": 4842,
      "शर": 4843,
      "##कोट": 4844,
      "बढ़े": 4845,
      "संकट": 4846,
      "मतदाताओं": 4847,
      "आक्रोश": 4848,
      "पोर्टल": 4849,
      "टिप्पणी": 4850,
      "05": 4851,
      "नाल": 4852,
      "##ंथ": 4853,
      "##नीत": 4854,
      "समापन": 4855,
      "बच्चा": 4856,
      "रखना": 4857,
      "लाइस": 4858,
      "नक्सल": 4859,
      "43": 4860,
      "##वै": 4861,
      "##ंडे": 4862,
      "अधिव": 4863,
      "जनस": 4864,
      "उत्तरा": 4865,
      "एक्सपर्ट": 4866,
      "पदाधिकारियों": 4867,
      "##ब्ल्यू": 4868,
      "एग्जाम": 4869,
      "आसान": 4870,
      "##घु": 4871,
      "##वाय": 4872,
      "बताए": 4873,
      "जोशी": 4874,
      "चाहे": 4875,
      "मान्यता": 4876,
      "जयंती": 4877,
      "बॉल": 4878,
      "ब्रह": 4879,
      "जिम्मेदार": 4880,
      "अंग्रे": 4881,
      "किरदार": 4882,
      "पर्": 4883,
      "बिलास": 4884,
      "##गज": 4885,
      "##da": 4886,
      "सेट": 4887,
      "##स्म": 4888,
      "मैन": 4889,
      "वोटर": 4890,
      "हिसार": 4891,
      "मैनेजर": 4892,
      "सौंपा": 4893,
      "सिनेमा": 4894,
      "पव": 4895,
      "##यात्रा": 4896,
      "प्रावधान": 4897,
      "एक्टिव": 4898,
      "फुट": 4899,
      "चौराहे": 4900,
      "बढ़ोतरी": 4901,
      "यूक्रेन": 4902,
      "अल्प": 4903,
      "आर्य": 4904,
      "इच्छ": 4905,
      "गंग": 4906,
      "ठग": 4907,
      "फंस": 4908,
      "सकी": 4909,
      "##प्त": 4910,
      "कुर्": 4911,
      "##हरण": 4912,
      "मैसेज": 4913,
      "निर्द": 4914,
      "प्रश्न": 4915,
      "पड़ोसी": 4916,
      "##जलि": 4917,
      "मूवी": 4918,
      "विराट": 4919,
      "बिलासपुर": 4920,
      "मारा": 4921,
      "##बद्ध": 4922,
      "विजे": 4923,
      "उसको": 4924,
      "जुड़": 4925,
      "रखें": 4926,
      "यूज": 4927,
      "वैसे": 4928,
      "शुरुआती": 4929,
      "##ड्‌": 4930,
      "तकनीकी": 4931,
      "झु": 4932,
      "डू": 4933,
      "##गीर": 4934,
      "##्वल": 4935,
      "##वाले": 4936,
      "थानाध्यक्ष": 4937,
      "संभाल": 4938,
      "अक": 4939,
      "तनाव": 4940,
      "##िणी": 4941,
      "##घर": 4942,
      "संशोध": 4943,
      "कार्यवाही": 4944,
      "पुष्टि": 4945,
      "परिवारों": 4946,
      "##प्रकाश": 4947,
      "सेंट्र": 4948,
      "इस्ल": 4949,
      "##ंतर": 4950,
      "जीते": 4951,
      "जुड़ा": 4952,
      "गुर्जर": 4953,
      "मांगों": 4954,
      "वैज्ञानिक": 4955,
      "दोस्तों": 4956,
      "प्रस्तुति": 4957,
      "कंगना": 4958,
      "भड़": 4959,
      "जिसने": 4960,
      "मास्टर": 4961,
      "लड़ने": 4962,
      "हिस्सों": 4963,
      "##्‍या": 4964,
      "दौरा": 4965,
      "विद्युत": 4966,
      "जागरूकता": 4967,
      "अक्षय": 4968,
      "उपभो": 4969,
      "##यक": 4970,
      "विहार": 4971,
      "##रेन्द्र": 4972,
      "गोविंद": 4973,
      "लीटर": 4974,
      "फाइल": 4975,
      "लोह": 4976,
      "शक": 4977,
      "##फोन": 4978,
      "लीक": 4979,
      "रिजल्ट": 4980,
      "##केत": 4981,
      "राधा": 4982,
      "सकें": 4983,
      "बदले": 4984,
      "ड्रोन": 4985,
      "52": 4986,
      "जज": 4987,
      "लेंगे": 4988,
      "##ूंगा": 4989,
      "##हल": 4990,
      "##यां": 4991,
      "साव": 4992,
      "पहन": 4993,
      "कैंड": 4994,
      "आपूर्ति": 4995,
      "कहने": 4996,
      "नीरज": 4997,
      "बालिका": 4998,
      "कलेक्ट": 4999,
      "दलित": 5000,
      "##ड्ढ": 5001,
      "तहसीलदार": 5002,
      "जिंदगी": 5003,
      "अभ्यर्थियों": 5004,
      "फेंक": 5005,
      "49": 5006,
      "fir": 5007,
      "कस्": 5008,
      "चित्र": 5009,
      "वाद": 5010,
      "##धाम": 5011,
      "समन": 5012,
      "निधन": 5013,
      "सिंघ": 5014,
      "##ल्टी": 5015,
      "घटनाओं": 5016,
      "##फ्टी": 5017,
      "सचिन": 5018,
      "संगठनों": 5019,
      "कारोबारी": 5020,
      "शांत": 5021,
      "##िवे": 5022,
      "रिजर्व": 5023,
      "जनपद": 5024,
      "बनाना": 5025,
      "चलता": 5026,
      "शुभारंभ": 5027,
      "लिखित": 5028,
      "जताया": 5029,
      "##tion": 5030,
      "कवि": 5031,
      "##ख्": 5032,
      "##जारी": 5033,
      "##र्वाद": 5034,
      "पड़ताल": 5035,
      "टेक्न": 5036,
      "##एचओ": 5037,
      "कॉन्फ्रेंस": 5038,
      "पुष्प": 5039,
      "बेंगल": 5040,
      "अर्पित": 5041,
      "##डकर": 5042,
      "ग्राह": 5043,
      "टोल": 5044,
      "पंप": 5045,
      "फांसी": 5046,
      "बिर": 5047,
      "भरी": 5048,
      "लीड": 5049,
      "सारी": 5050,
      "सैन": 5051,
      "##्की": 5052,
      "##ab": 5053,
      "टीमों": 5054,
      "केंद्रों": 5055,
      "सफर": 5056,
      "खेले": 5057,
      "सांप": 5058,
      "आशीर्वाद": 5059,
      "जंग": 5060,
      "बाघ": 5061,
      "जाह": 5062,
      "जानें": 5063,
      "##ंधर": 5064,
      "##वरूप": 5065,
      "दर्जन": 5066,
      "दिलीप": 5067,
      "मानना": 5068,
      "150": 5069,
      "कितनी": 5070,
      "तत्कालीन": 5071,
      "जुर्माना": 5072,
      "हैदराबाद": 5073,
      "गले": 5074,
      "##ct": 5075,
      "##ितीय": 5076,
      "टीचर": 5077,
      "उल्लेख": 5078,
      "पिक": 5079,
      "##नाल": 5080,
      "##बूर": 5081,
      "##ैक्ट": 5082,
      "##ंधे": 5083,
      "पर्यटन": 5084,
      "स्वतंत्रता": 5085,
      "आवं": 5086,
      "##याल": 5087,
      "बाई": 5088,
      "साइक": 5089,
      "##काई": 5090,
      "##स्तानी": 5091,
      "क्षेत्रीय": 5092,
      "कितना": 5093,
      "कनाडा": 5094,
      "गड़": 5095,
      "ढा": 5096,
      "देखी": 5097,
      "गुम": 5098,
      "विद्या": 5099,
      "पुराना": 5100,
      "जवानों": 5101,
      "नही": 5102,
      "नृत्य": 5103,
      "फं": 5104,
      "क्षति": 5105,
      "पिछली": 5106,
      "197": 5107,
      "प्राचार्य": 5108,
      "प्रयाग": 5109,
      "जितेंद्र": 5110,
      "गेम": 5111,
      "सिख": 5112,
      "पीठ": 5113,
      "ट्रस्ट": 5114,
      "पौधे": 5115,
      "बृज": 5116,
      "##मल": 5117,
      "##सारी": 5118,
      "##कांत": 5119,
      "पिट": 5120,
      "आलम": 5121,
      "56": 5122,
      "खतरा": 5123,
      "गज": 5124,
      "गीता": 5125,
      "चिन": 5126,
      "लड़ा": 5127,
      "##वाना": 5128,
      "##शाली": 5129,
      "##स्टी": 5130,
      "टीमें": 5131,
      "बिजनेस": 5132,
      "##ग्रस्त": 5133,
      "लाइफ": 5134,
      "विपक्षी": 5135,
      "##िडेट": 5136,
      "मेन": 5137,
      "देखें": 5138,
      "अफ्री": 5139,
      "तस्करी": 5140,
      "##ंख्य": 5141,
      "इश": 5142,
      "तल": 5143,
      "##ेन": 5144,
      "##वाहा": 5145,
      "बच्चन": 5146,
      "पालिका": 5147,
      "फाउंड": 5148,
      "बिगड़": 5149,
      "ओपन": 5150,
      "##सराय": 5151,
      "कोर": 5152,
      "इंजन": 5153,
      "शाखा": 5154,
      "बदलने": 5155,
      "परिवर्तन": 5156,
      "उत्पादन": 5157,
      "प्रेरित": 5158,
      "लाइसेंस": 5159,
      "रोका": 5160,
      "सदन": 5161,
      "कोचिंग": 5162,
      "सोनू": 5163,
      "सेंट्रल": 5164,
      "पेर": 5165,
      "सश": 5166,
      "अपहरण": 5167,
      "हिमा": 5168,
      "##ंटों": 5169,
      "श्रील": 5170,
      "चेहरे": 5171,
      "पत्रकार": 5172,
      "साहब": 5173,
      "कैंडिडेट": 5174,
      "फर्": 5175,
      "मूर्ति": 5176,
      "##फान": 5177,
      "##्याज": 5178,
      "सीकर": 5179,
      "##पात": 5180,
      "दिलाने": 5181,
      "जल्दी": 5182,
      "तहरीर": 5183,
      "##रजेंसी": 5184,
      "गर": 5185,
      "वादा": 5186,
      "##क्‍": 5187,
      "राजपूत": 5188,
      "##दीश": 5189,
      "मांगे": 5190,
      "बढ़ी": 5191,
      "पैदल": 5192,
      "खरीदी": 5193,
      "जायसवाल": 5194,
      "##द्दीन": 5195,
      "मंजूरी": 5196,
      "इसराइल": 5197,
      "चैंपियन": 5198,
      "पाइप": 5199,
      "नै": 5200,
      "सना": 5201,
      "##रस": 5202,
      "##डीह": 5203,
      "चौराहा": 5204,
      "मिट्टी": 5205,
      "सैकड़ों": 5206,
      "छीन": 5207,
      "रहना": 5208,
      "मुंह": 5209,
      "बेस्ट": 5210,
      "ग्रहण": 5211,
      "संबंधी": 5212,
      "संगीत": 5213,
      "विरोधी": 5214,
      "ऐप": 5215,
      "##वक": 5216,
      "##गति": 5217,
      "राजकीय": 5218,
      "##्रेड": 5219,
      "##ाइट": 5220,
      "विक्रम": 5221,
      "आईटी": 5222,
      "खेलने": 5223,
      "श्रद्धालु": 5224,
      "प्लेटफॉर्म": 5225,
      "मचा": 5226,
      "##संख्य": 5227,
      "पुत": 5228,
      "##लोड": 5229,
      "किराए": 5230,
      "गाली": 5231,
      "जहा": 5232,
      "##ho": 5233,
      "मंदिरों": 5234,
      "गाड़ियों": 5235,
      "देवेंद्र": 5236,
      "संपन्न": 5237,
      "इमरजेंसी": 5238,
      "नवरा": 5239,
      "प्रयागराज": 5240,
      "जिक्र": 5241,
      "सहमति": 5242,
      "जिनके": 5243,
      "सदस्यता": 5244,
      "सिलस": 5245,
      "शासकीय": 5246,
      "डांस": 5247,
      "देरी": 5248,
      "मांगा": 5249,
      "##000": 5250,
      "जगदीश": 5251,
      "ट्रेनों": 5252,
      "मिमी": 5253,
      "राजू": 5254,
      "पदक": 5255,
      "मजबूर": 5256,
      "मेरठ": 5257,
      "मुआव": 5258,
      "00": 5259,
      "पवार": 5260,
      "भरे": 5261,
      "मारी": 5262,
      "सतीश": 5263,
      "नेपाल": 5264,
      "महज": 5265,
      "खरीदने": 5266,
      "गली": 5267,
      "दायर": 5268,
      "सॉ": 5269,
      "##ोली": 5270,
      "##अल": 5271,
      "टी20": 5272,
      "गिरोह": 5273,
      "##ट्रो": 5274,
      "जालंधर": 5275,
      "रजिस्ट्रेशन": 5276,
      "दुष्कर्म": 5277,
      "एटी": 5278,
      "गिरी": 5279,
      "##il": 5280,
      "रहें": 5281,
      "अंसारी": 5282,
      "##वरों": 5283,
      "गुट": 5284,
      "##धिकरण": 5285,
      "भरने": 5286,
      "भेजने": 5287,
      "शोभा": 5288,
      "##वर्धन": 5289,
      "तमाम": 5290,
      "ग्राउंड": 5291,
      "99": 5292,
      "छेड़": 5293,
      "किरण": 5294,
      "काली": 5295,
      "मोड़": 5296,
      "महाकाल": 5297,
      "हेल्थ": 5298,
      "निकालने": 5299,
      "नाराजगी": 5300,
      "अमृतसर": 5301,
      "ग़": 5302,
      "पाप": 5303,
      "फरी": 5304,
      "नेहर": 5305,
      "मुसल": 5306,
      "##काया": 5307,
      "रोहत": 5308,
      "भागने": 5309,
      "लालू": 5310,
      "नरेश": 5311,
      "इलेक्ट्रिक": 5312,
      "ग्रीन": 5313,
      "दाय": 5314,
      "पर्स": 5315,
      "भोग": 5316,
      "##्तिक": 5317,
      "लाठी": 5318,
      "महाविद्यालय": 5319,
      "सुनकर": 5320,
      "टाइगर": 5321,
      "सौरभ": 5322,
      "श्रीलंका": 5323,
      "एएसआई": 5324,
      "लीग": 5325,
      "आइए": 5326,
      "फोर्स": 5327,
      "ठेकेदार": 5328,
      "58": 5329,
      "##्ति": 5330,
      "कार्तिक": 5331,
      "##ंपल": 5332,
      "बहस": 5333,
      "विकल्प": 5334,
      "12वीं": 5335,
      "##त्साह": 5336,
      "##ing": 5337,
      "नजदीक": 5338,
      "इव": 5339,
      "चैन": 5340,
      "##im": 5341,
      "प्रजा": 5342,
      "##न्स": 5343,
      "महादेव": 5344,
      "मुहूर्त": 5345,
      "मुसलमान": 5346,
      "धूम": 5347,
      "##रिए": 5348,
      "##कट": 5349,
      "करण": 5350,
      "प्रगति": 5351,
      "हुईं": 5352,
      "सैल": 5353,
      "बजाय": 5354,
      "##्‍य": 5355,
      "इंग्लैंड": 5356,
      "01": 5357,
      "बोर": 5358,
      "##मेट": 5359,
      "नाथ": 5360,
      "महीनों": 5361,
      "रोजाना": 5362,
      "##कारात्मक": 5363,
      "अने": 5364,
      "औसत": 5365,
      "पशु": 5366,
      "मस": 5367,
      "रेंज": 5368,
      "##राधिक": 5369,
      "निर्मा": 5370,
      "आपराधिक": 5371,
      "आदर्श": 5372,
      "उठाए": 5373,
      "त्रिपा": 5374,
      "थोड़ी": 5375,
      "दिक्कत": 5376,
      "त्रिपाठी": 5377,
      "उल": 5378,
      "##ak": 5379,
      "सेन": 5380,
      "##्यूल": 5381,
      "बाड़": 5382,
      "##ार्ग": 5383,
      "अब्द": 5384,
      "2017": 5385,
      "बिल्क": 5386,
      "##मोहन": 5387,
      "गड़ब": 5388,
      "मप्र": 5389,
      "लोन": 5390,
      "##बारी": 5391,
      "महंत": 5392,
      "##ष्टमी": 5393,
      "मात्रा": 5394,
      "आजम": 5395,
      "प्रतिक्र": 5396,
      "वसूली": 5397,
      "हिमाचल": 5398,
      "रोहतक": 5399,
      "घा": 5400,
      "बहाद": 5401,
      "रस": 5402,
      "##श्री": 5403,
      "##डिया": 5404,
      "##भूषण": 5405,
      "##र्टी": 5406,
      "रात्रि": 5407,
      "##जनक": 5408,
      "होंगी": 5409,
      "इंद्र": 5410,
      "पकड़ने": 5411,
      "मैनेज": 5412,
      "जबरद": 5413,
      "प्रतिक्रिया": 5414,
      "रिमांड": 5415,
      "##ंश": 5416,
      "##शंकर": 5417,
      "किताब": 5418,
      "##वार्": 5419,
      "##सीना": 5420,
      "पहुंचाने": 5421,
      "आरोपों": 5422,
      "कैमरा": 5423,
      "उल्ल": 5424,
      "आंध्र": 5425,
      "अस्थ": 5426,
      "एंब": 5427,
      "बस्ती": 5428,
      "भक्ति": 5429,
      "रथ": 5430,
      "सराह": 5431,
      "##पे": 5432,
      "प्राधिकरण": 5433,
      "व्यवसाय": 5434,
      "तीसरा": 5435,
      "आश्रम": 5436,
      "कनेक्शन": 5437,
      "बिल्कुल": 5438,
      "ज्व": 5439,
      "टेंडर": 5440,
      "करोड़ों": 5441,
      "बचने": 5442,
      "##ुनिक": 5443,
      "सकेगा": 5444,
      "पाठक": 5445,
      "स्वच्छता": 5446,
      "नायब": 5447,
      "बेंगलुरु": 5448,
      "नेहरू": 5449,
      "54": 5450,
      "आशा": 5451,
      "तेंद": 5452,
      "वाइ": 5453,
      "हेत": 5454,
      "जाप": 5455,
      "एकाद": 5456,
      "संभाग": 5457,
      "बढ़ते": 5458,
      "मीना": 5459,
      "प्रोत्साह": 5460,
      "##एडा": 5461,
      "बाब": 5462,
      "पीट": 5463,
      "##ज़ा": 5464,
      "कितने": 5465,
      "##ंघन": 5466,
      "डेटा": 5467,
      "झूठ": 5468,
      "72": 5469,
      "फंड": 5470,
      "बिश्न": 5471,
      "दीपा": 5472,
      "बॉर्डर": 5473,
      "एशिया": 5474,
      "रक्त": 5475,
      "##वस्था": 5476,
      "##िद्ध": 5477,
      "##पत्र": 5478,
      "##झी": 5479,
      "बैटरी": 5480,
      "जीव": 5481,
      "रखकर": 5482,
      "आदित्यनाथ": 5483,
      "##रुद्ध": 5484,
      "टकरा": 5485,
      "निलंब": 5486,
      "फोर": 5487,
      "##ction": 5488,
      "सुझा": 5489,
      "आपत्ति": 5490,
      "वोटों": 5491,
      "तलाशी": 5492,
      "द्वितीय": 5493,
      "##तिया": 5494,
      "अनुरा": 5495,
      "पीजी": 5496,
      "टीवी": 5497,
      "भाषण": 5498,
      "इंस्टा": 5499,
      "बिश्नोई": 5500,
      "गहरा": 5501,
      "नंद": 5502,
      "शीत": 5503,
      "##डन": 5504,
      "##भूम": 5505,
      "संसा": 5506,
      "मेट्रो": 5507,
      "संसदीय": 5508,
      "शीर्ष": 5509,
      "रिसर्च": 5510,
      "महामंत्री": 5511,
      "##नाडु": 5512,
      "रिश्व": 5513,
      "अल्पसंख्य": 5514,
      "साइकिल": 5515,
      "एंटी": 5516,
      "खनन": 5517,
      "##यम": 5518,
      "##ोत्": 5519,
      "##धड़ी": 5520,
      "लोकतंत्र": 5521,
      "##आरपी": 5522,
      "मृत्यु": 5523,
      "##ार्टमेंट": 5524,
      "नोएडा": 5525,
      "गढ़": 5526,
      "नाले": 5527,
      "##av": 5528,
      "केश": 5529,
      "##ोंक": 5530,
      "विरुद्ध": 5531,
      "रावत": 5532,
      "संवाद": 5533,
      "आजाद": 5534,
      "पोस्टर": 5535,
      "बीकाने": 5536,
      "कारणों": 5537,
      "तीर्थ": 5538,
      "पायलट": 5539,
      "इवेंट": 5540,
      "डिमांड": 5541,
      "सार": 5542,
      "मुझ": 5543,
      "##ोजन": 5544,
      "कैश": 5545,
      "देशभर": 5546,
      "मृतका": 5547,
      "प्रभु": 5548,
      "तुलसी": 5549,
      "बल्लेबाज": 5550,
      "जख्मी": 5551,
      "हेतु": 5552,
      "रिश्वत": 5553,
      "04": 5554,
      "अरेस्ट": 5555,
      "नरेन्द्र": 5556,
      "मक": 5557,
      "हार्": 5558,
      "दुख": 5559,
      "सुरेंद्र": 5560,
      "पढ़ने": 5561,
      "गठित": 5562,
      "समीप": 5563,
      "तमिलनाडु": 5564,
      "बीकानेर": 5565,
      "ओपी": 5566,
      "भती": 5567,
      "##मती": 5568,
      "विप": 5569,
      "एनसी": 5570,
      "दुकानदार": 5571,
      "जूनियर": 5572,
      "दिव्यांग": 5573,
      "##ांजलि": 5574,
      "##ंत्रित": 5575,
      "आएगी": 5576,
      "दावे": 5577,
      "वैश्व": 5578,
      "लड़कियों": 5579,
      "धोखाधड़ी": 5580,
      "ताकत": 5581,
      "एकादशी": 5582,
      "वैश्विक": 5583,
      "सर्क": 5584,
      "##कांड": 5585,
      "##धीन": 5586,
      "##िलाई": 5587,
      "##एसएस": 5588,
      "ऑफर": 5589,
      "##तिहासिक": 5590,
      "पटवारी": 5591,
      "नर्सिंग": 5592,
      "गुणव": 5593,
      "उल्लंघन": 5594,
      "गार": 5595,
      "भि": 5596,
      "शह": 5597,
      "##एमसी": 5598,
      "अभिन": 5599,
      "##देन": 5600,
      "स्नान": 5601,
      "02": 5602,
      "st": 5603,
      "घंटों": 5604,
      "डें": 5605,
      "पृ": 5606,
      "विस": 5607,
      "सच्च": 5608,
      "लेन": 5609,
      "मिश्र": 5610,
      "##साइकिल": 5611,
      "सहयोगी": 5612,
      "तस्वीरें": 5613,
      "जिंदा": 5614,
      "अकेले": 5615,
      "आकर्ष": 5616,
      "आधा": 5617,
      "चक्कर": 5618,
      "हॉल": 5619,
      "##डब्ल्यू": 5620,
      "##दर": 5621,
      "##परा": 5622,
      "काला": 5623,
      "##क्की": 5624,
      "बातों": 5625,
      "आपने": 5626,
      "सबूत": 5627,
      "प्रतिदिन": 5628,
      "मानते": 5629,
      "छोड़ने": 5630,
      "चाचा": 5631,
      "##ुल्लाह": 5632,
      "प्रार्थना": 5633,
      "बाड़मेर": 5634,
      "सुझाव": 5635,
      "बुरा": 5636,
      "भले": 5637,
      "शहरी": 5638,
      "##एएस": 5639,
      "##om": 5640,
      "लेवल": 5641,
      "स्क्रीन": 5642,
      "प्रशांत": 5643,
      "कृष्": 5644,
      "तोड़कर": 5645,
      "पूर्णिमा": 5646,
      "प्रेमी": 5647,
      "ब्रेक": 5648,
      "पिटाई": 5649,
      "53": 5650,
      "मथ": 5651,
      "शारी": 5652,
      "##सला": 5653,
      "निर्दलीय": 5654,
      "अफ्रीका": 5655,
      "खन्ना": 5656,
      "दुल": 5657,
      "रकम": 5658,
      "शिल": 5659,
      "##धित": 5660,
      "##िको": 5661,
      "एकड़": 5662,
      "पुलिसकर्मी": 5663,
      "एसटी": 5664,
      "बालक": 5665,
      "न्यायिक": 5666,
      "शारीरिक": 5667,
      "मणि": 5668,
      "साय": 5669,
      "##क्ष्य": 5670,
      "कार्यरत": 5671,
      "उपस्थिति": 5672,
      "रोशन": 5673,
      "गिरि": 5674,
      "जिनकी": 5675,
      "कॉलेजों": 5676,
      "इंदिरा": 5677,
      "यूनियन": 5678,
      "विद्यार्थी": 5679,
      "फ्लैट": 5680,
      "57": 5681,
      "लव": 5682,
      "##जिए": 5683,
      "देगा": 5684,
      "##्रीट": 5685,
      "मेघ": 5686,
      "प्रदूषण": 5687,
      "रिक्": 5688,
      "पर्याप्त": 5689,
      "छुट्टी": 5690,
      "##्योरिटी": 5691,
      "ऐतिहासिक": 5692,
      "पप्": 5693,
      "बांस": 5694,
      "##जान": 5695,
      "##गरी": 5696,
      "##ed": 5697,
      "##क्ताओं": 5698,
      "जनजा": 5699,
      "मुखिया": 5700,
      "कार्यक्रमों": 5701,
      "बसपा": 5702,
      "स्पोर्ट": 5703,
      "मूल्य": 5704,
      "अंकित": 5705,
      "मधु": 5706,
      "खत": 5707,
      "शाय": 5708,
      "शोध": 5709,
      "##ंगन": 5710,
      "उठाने": 5711,
      "कन्या": 5712,
      "गुणवत्ता": 5713,
      "09": 5714,
      "ईश": 5715,
      "नर्म": 5716,
      "बट": 5717,
      "##वर्क": 5718,
      "कांड": 5719,
      "##िसी": 5720,
      "##प्टर": 5721,
      "सब्जी": 5722,
      "सैन्य": 5723,
      "आधिकार": 5724,
      "फूड": 5725,
      "##रानी": 5726,
      "हुस": 5727,
      "अमिता": 5728,
      "ज़्यादा": 5729,
      "03": 5730,
      "85": 5731,
      "बंट": 5732,
      "##th": 5733,
      "##नाएं": 5734,
      "समृ": 5735,
      "राजन": 5736,
      "बैठकर": 5737,
      "रेस्क": 5738,
      "खेतों": 5739,
      "भजनलाल": 5740,
      "संशोधन": 5741,
      "बहादुर": 5742,
      "आधिकारिक": 5743,
      "##ैम": 5744,
      "जाये": 5745,
      "##कीम": 5746,
      "##स्टिक": 5747,
      "पात्र": 5748,
      "मिथ": 5749,
      "व्यापारियों": 5750,
      "जोरदार": 5751,
      "व्यक्तियों": 5752,
      "पॉइंट": 5753,
      "आलोक": 5754,
      "मोटरसाइकिल": 5755,
      "खींच": 5756,
      "कच्च": 5757,
      "डिली": 5758,
      "सपोर्ट": 5759,
      "##cc": 5760,
      "संकेत": 5761,
      "सिपा": 5762,
      "सुप": 5763,
      "##वीय": 5764,
      "अस्पतालों": 5765,
      "##पूर्व": 5766,
      "अभ्यर्थी": 5767,
      "राणा": 5768,
      "मुक्ति": 5769,
      "मात्र": 5770,
      "बैठा": 5771,
      "पीछा": 5772,
      "अरो": 5773,
      "देगी": 5774,
      "##वीण": 5775,
      "इनका": 5776,
      "##्यूज": 5777,
      "आसानी": 5778,
      "सुविधाओं": 5779,
      "##ध्याय": 5780,
      "मोहल्ले": 5781,
      "इंस्टाग्राम": 5782,
      "डेंगू": 5783,
      "रेस्क्यू": 5784,
      "सिपाही": 5785,
      "गये": 5786,
      "वास": 5787,
      "शरण": 5788,
      "प्रोग्राम": 5789,
      "मेयर": 5790,
      "सामुदाय": 5791,
      "गलती": 5792,
      "कॉन्स्टेबल": 5793,
      "सेकेंड": 5794,
      "ब्रह्म": 5795,
      "सामुदायिक": 5796,
      "भूल": 5797,
      "##वण": 5798,
      "सामूह": 5799,
      "लगते": 5800,
      "द्वार": 5801,
      "कलेक्शन": 5802,
      "प्राथमिकता": 5803,
      "प्रतीक": 5804,
      "कृष्णा": 5805,
      "सामूहिक": 5806,
      "तू": 5807,
      "धीर": 5808,
      "##हाबाद": 5809,
      "माफी": 5810,
      "मांगने": 5811,
      "पड़ोस": 5812,
      "अभियंता": 5813,
      "शरद": 5814,
      "नर्मदा": 5815,
      "कुर": 5816,
      "जश": 5817,
      "ढाई": 5818,
      "फेल": 5819,
      "मित्र": 5820,
      "कोर्स": 5821,
      "##पुरम": 5822,
      "##विड": 5823,
      "कमांड": 5824,
      "बसों": 5825,
      "मौजूदगी": 5826,
      "माध्यमिक": 5827,
      "सिक्योरिटी": 5828,
      "दशक": 5829,
      "अंबानी": 5830,
      "उत्तराखंड": 5831,
      "78": 5832,
      "ढूं": 5833,
      "धर्में": 5834,
      "##िंपिक": 5835,
      "संध्या": 5836,
      "##ाप्ति": 5837,
      "एसएसपी": 5838,
      "##वलप": 5839,
      "सुविधाएं": 5840,
      "कर्ज": 5841,
      "बरा": 5842,
      "##बॉल": 5843,
      "प्रवीण": 5844,
      "भील": 5845,
      "निप": 5846,
      "भेजे": 5847,
      "प्रसिद्ध": 5848,
      "सिलेंडर": 5849,
      "क्वि": 5850,
      "स्पीकर": 5851,
      "बरसात": 5852,
      "समन्व": 5853,
      "67": 5854,
      "##ुए": 5855,
      "##os": 5856,
      "अनंत": 5857,
      "##स्तक": 5858,
      "अवॉर्ड": 5859,
      "अगली": 5860,
      "डीजी": 5861,
      "जेपी": 5862,
      "संस्थानों": 5863,
      "मेहता": 5864,
      "पुणे": 5865,
      "महापौर": 5866,
      "सर्ट": 5867,
      "##निक": 5868,
      "सीईओ": 5869,
      "अधिकांश": 5870,
      "व्यवहार": 5871,
      "चीनी": 5872,
      "पौध": 5873,
      "चढ़ा": 5874,
      "मजदूरी": 5875,
      "##lection": 5876,
      "प्रमोद": 5877,
      "स्कूटी": 5878,
      "हराया": 5879,
      "चौथे": 5880,
      "मनोहर": 5881,
      "घोटाले": 5882,
      "मुजफ्फरपुर": 5883,
      "पप्पू": 5884,
      "धर्मेंद्र": 5885,
      "##ाग": 5886,
      "स्टी": 5887,
      "उन्": 5888,
      "##ाहरण": 5889,
      "##्वान": 5890,
      "पिस्टल": 5891,
      "शास्त्री": 5892,
      "रावण": 5893,
      "फॉर": 5894,
      "झगड़ा": 5895,
      "कलेक्ट्रेट": 5896,
      "सनातन": 5897,
      "अनेक": 5898,
      "06": 5899,
      "अवि": 5900,
      "आंगन": 5901,
      "रिल": 5902,
      "सीओ": 5903,
      "बीबीसी": 5904,
      "बिंद": 5905,
      "जिलाधिकारी": 5906,
      "गंभीरता": 5907,
      "नौकर": 5908,
      "तलाक": 5909,
      "मार्गदर्शन": 5910,
      "व्यापक": 5911,
      "स्मृति": 5912,
      "ललित": 5913,
      "जुलूस": 5914,
      "an": 5915,
      "अथ": 5916,
      "जि": 5917,
      "ताज": 5918,
      "तबी": 5919,
      "।'": 5920,
      "##ac": 5921,
      "सेमी": 5922,
      "##्वरी": 5923,
      "भागी": 5924,
      "निकाय": 5925,
      "आईं": 5926,
      "चंदन": 5927,
      "विजेता": 5928,
      "बग": 5929,
      "हसीना": 5930,
      "##ानंद": 5931,
      "रहकर": 5932,
      "196": 5933,
      "आग्रह": 5934,
      "परीक्षण": 5935,
      "ब्रिज": 5936,
      "चांद": 5937,
      "गोदाम": 5938,
      "##छाड़": 5939,
      "दीपावली": 5940,
      "अमिताभ": 5941,
      "ed": 5942,
      "हंस": 5943,
      "##कां": 5944,
      "काशी": 5945,
      "समर्पित": 5946,
      "बीमा": 5947,
      "बहु": 5948,
      "गेंदबाज": 5949,
      "आतंकी": 5950,
      "##स्‍ट": 5951,
      "##द्योगिक": 5952,
      "यूजर्स": 5953,
      "तबीयत": 5954,
      "95": 5955,
      "अमी": 5956,
      "आलो": 5957,
      "ईवी": 5958,
      "कं": 5959,
      "गाज": 5960,
      "ठिक": 5961,
      "भाइयों": 5962,
      "मर्डर": 5963,
      "##ri": 5964,
      "##ारायण": 5965,
      "आएगा": 5966,
      "लिंक": 5967,
      "ऑफिसर": 5968,
      "गर्ग": 5969,
      "##बेडकर": 5970,
      "एंबुलेंस": 5971,
      "रिक्शा": 5972,
      "एआई": 5973,
      "गाने": 5974,
      "जानी": 5975,
      "टर्म": 5976,
      "बजर": 5977,
      "रतन": 5978,
      "##सूर": 5979,
      "##डू": 5980,
      "##नपुर": 5981,
      "##जिट": 5982,
      "##षिक": 5983,
      "##सीबी": 5984,
      "पुलिसकर्मियों": 5985,
      "अनिवार": 5986,
      "जीती": 5987,
      "##एसटी": 5988,
      "गुस्सा": 5989,
      "धन्य": 5990,
      "चलेगा": 5991,
      "इंतजाम": 5992,
      "ट्रॉफी": 5993,
      "गव": 5994,
      "बघ": 5995,
      "मानी": 5996,
      "सारा": 5997,
      "स्वरूप": 5998,
      "बेहत": 5999,
      "कामया": 6000,
      "माफिया": 6001,
      "गुला": 6002,
      "संबंधों": 6003,
      "शेष": 6004,
      "##प्रत": 6005,
      "##म्ब": 6006,
      "बाजारों": 6007,
      "पाकिस्तानी": 6008,
      "वास्तव": 6009,
      "##चंद्र": 6010,
      "आति": 6011,
      "इकाई": 6012,
      "चिल": 6013,
      "बौ": 6014,
      "रंजन": 6015,
      "##ंजी": 6016,
      "शेड": 6017,
      "मिलाकर": 6018,
      "दिखे": 6019,
      "कटौती": 6020,
      "सुनीता": 6021,
      "64": 6022,
      "vs": 6023,
      "यहीं": 6024,
      "##ट्स": 6025,
      "##sp": 6026,
      "जनसभा": 6027,
      "चलाई": 6028,
      "स्वर्ण": 6029,
      "चीजों": 6030,
      "वायु": 6031,
      "##वरा": 6032,
      "##eo": 6033,
      "##पो": 6034,
      "सीख": 6035,
      "बिहारी": 6036,
      "##न्नी": 6037,
      "प्रतिपक्ष": 6038,
      "##एससी": 6039,
      "कुलपति": 6040,
      "तैयारियां": 6041,
      "बलराम": 6042,
      "मनाई": 6043,
      "डालने": 6044,
      "धाराओं": 6045,
      "काउंसिल": 6046,
      "रणनीति": 6047,
      "62": 6048,
      "खिल": 6049,
      "भीम": 6050,
      "पीएच": 6051,
      "बहुम": 6052,
      "अलवर": 6053,
      "रेस्ट": 6054,
      "चेन": 6055,
      "फार्म": 6056,
      "##पक": 6057,
      "##ांतर": 6058,
      "राध": 6059,
      "##क्षर": 6060,
      "बहनों": 6061,
      "##धीर": 6062,
      "जवाहर": 6063,
      "समर्थकों": 6064,
      "रीवा": 6065,
      "विभागीय": 6066,
      "नक्सलियों": 6067,
      "अधिवक्ता": 6068,
      "आभार": 6069,
      "गि": 6070,
      "##दाय": 6071,
      "##भाल": 6072,
      "कोट": 6073,
      "समक्ष": 6074,
      "##किट": 6075,
      "कमलेश": 6076,
      "ब्रांच": 6077,
      "चालू": 6078,
      "गुप्त": 6079,
      "प्रबंधक": 6080,
      "क्षतिग्रस्त": 6081,
      "फाउंडेशन": 6082,
      "##प्रतिनि": 6083,
      "ra": 6084,
      "मछ": 6085,
      "##वेल": 6086,
      "##ोकेट": 6087,
      "प्रॉप": 6088,
      "बढ़त": 6089,
      "समाजवादी": 6090,
      "छोड़ा": 6091,
      "पूर्णिया": 6092,
      "मजदूरों": 6093,
      "तिरंगा": 6094,
      "ओलिंपिक": 6095,
      "अग्नि": 6096,
      "पिकअप": 6097,
      "हुसैन": 6098,
      "कल्": 6099,
      "पंत": 6100,
      "##ोम": 6101,
      "किंग": 6102,
      "समस्त": 6103,
      "एससी": 6104,
      "2016": 6105,
      "ब्लड": 6106,
      "व्ही": 6107,
      "आह्वान": 6108,
      "एके": 6109,
      "मय": 6110,
      "माला": 6111,
      "##धुनिक": 6112,
      "##ok": 6113,
      "##ार्क": 6114,
      "सुमित": 6115,
      "बुक": 6116,
      "आईडी": 6117,
      "राशिफल": 6118,
      "कुशवाहा": 6119,
      "भूपेंद्र": 6120,
      "इच्छा": 6121,
      "इस्लाम": 6122,
      "सर्टिफिक": 6123,
      "टूर": 6124,
      "ब्ला": 6125,
      "हिन्द": 6126,
      "##तान": 6127,
      "पीटा": 6128,
      "उपकरण": 6129,
      "सेवाएं": 6130,
      "कलाकारों": 6131,
      "##ानिस्तान": 6132,
      "राठौड़": 6133,
      "एडवोकेट": 6134,
      "प्रणाली": 6135,
      "मथुरा": 6136,
      "शायद": 6137,
      "औद्योगिक": 6138,
      "खंग": 6139,
      "गड्ढ": 6140,
      "दफ्त": 6141,
      "लक": 6142,
      "सर्च": 6143,
      "हेल": 6144,
      "##नम": 6145,
      "##दर्": 6146,
      "##टिल": 6147,
      "प्रसार": 6148,
      "संज्ञान": 6149,
      "##िस्ट्रेट": 6150,
      "ज़र": 6151,
      "ढूंढ": 6152,
      "अटल": 6153,
      "फुल": 6154,
      "बं": 6155,
      "भगत": 6156,
      "हस्त": 6157,
      "##्का": 6158,
      "##डम": 6159,
      "जाएंगी": 6160,
      "जनप्रतिनि": 6161,
      "एसआई": 6162,
      "मंत्रियों": 6163,
      "उड़ान": 6164,
      "प्रभावी": 6165,
      "66": 6166,
      "अदा": 6167,
      "गयी": 6168,
      "विल": 6169,
      "##वर्ती": 6170,
      "##लेस": 6171,
      "कुत्": 6172,
      "बॉडी": 6173,
      "समर्थक": 6174,
      "रिश्तेदार": 6175,
      "इजराइल": 6176,
      "पवित्र": 6177,
      "59": 6178,
      "खात": 6179,
      "यौन": 6180,
      "##बंदी": 6181,
      "##कै": 6182,
      "काग": 6183,
      "विम": 6184,
      "##राइ": 6185,
      "अपमान": 6186,
      "##त्कार": 6187,
      "सीपी": 6188,
      "हाे": 6189,
      "हाथी": 6190,
      "##ार्थी": 6191,
      "फेस": 6192,
      "सपना": 6193,
      "स्पोर्ट्स": 6194,
      "डायल": 6195,
      "दर्": 6196,
      "सर्ज": 6197,
      "##ब्यू": 6198,
      "##टाला": 6199,
      "##धारी": 6200,
      "##वाज": 6201,
      "##ियंस": 6202,
      "एकत्र": 6203,
      "अध्य": 6204,
      "##ंचाई": 6205,
      "कैप": 6206,
      "चलती": 6207,
      "##र्पण": 6208,
      "कलाकार": 6209,
      "तकनीक": 6210,
      "दरवाजा": 6211,
      "07": 6212,
      "टन": 6213,
      "##ya": 6214,
      "विज्ञ": 6215,
      "हीट": 6216,
      "##क्टर्स": 6217,
      "कॉम": 6218,
      "हिंदुओं": 6219,
      "उतारा": 6220,
      "प्रॉपर्टी": 6221,
      "ऑर्डर": 6222,
      "चंप": 6223,
      "लैंड": 6224,
      "सीतार": 6225,
      "महान": 6226,
      "इंसान": 6227,
      "##बाड़ी": 6228,
      "पढ़िए": 6229,
      "मध्यम": 6230,
      "शास्त्र": 6231,
      "बतौर": 6232,
      "गेह": 6233,
      "नारेबाजी": 6234,
      "झांसी": 6235,
      "##जद": 6236,
      "##ौत": 6237,
      "##ॉड": 6238,
      "राशन": 6239,
      "बनर्जी": 6240,
      "फिरोज": 6241,
      "शिवसेना": 6242,
      "ब्राह": 6243,
      "व्यक्तिगत": 6244,
      "अनुरोध": 6245,
      "al": 6246,
      "असल": 6247,
      "लह": 6248,
      "हक": 6249,
      "##ंव": 6250,
      "##ारों": 6251,
      "करनाल": 6252,
      "एकता": 6253,
      "बीती": 6254,
      "बनाते": 6255,
      "चौटाला": 6256,
      "##ड्डू": 6257,
      "थोड़ा": 6258,
      "आंखों": 6259,
      "जाहिर": 6260,
      "हार्दिक": 6261,
      "बेहतरीन": 6262,
      "पटा": 6263,
      "##बत": 6264,
      "##क्यू": 6265,
      "##षभ": 6266,
      "##भि": 6267,
      "##सेन": 6268,
      "##पीओ": 6269,
      "##द्वारा": 6270,
      "चेहरा": 6271,
      "फीचर्स": 6272,
      "दिखाने": 6273,
      "ख़िला": 6274,
      "indi": 6275,
      "फतेह": 6276,
      "इको": 6277,
      "##चि": 6278,
      "##शियों": 6279,
      "##बरा": 6280,
      "##ह्न": 6281,
      "##नामा": 6282,
      "##क्षेत्र": 6283,
      "##गेड": 6284,
      "आपसी": 6285,
      "डिवाइ": 6286,
      "##ेंट्स": 6287,
      "##न्नई": 6288,
      "पार्टियों": 6289,
      "अत्य": 6290,
      "अनिवार्य": 6291,
      "अख": 6292,
      "गिल": 6293,
      "चाय": 6294,
      "फोक": 6295,
      "सीआई": 6296,
      "बढ़ाया": 6297,
      "रोम": 6298,
      "पेय": 6299,
      "तेलंग": 6300,
      "इंजीनियरिंग": 6301,
      "ब्रिगेड": 6302,
      "टेक्नोलॉजी": 6303,
      "पृथ": 6304,
      "धन्यवाद": 6305,
      "गवर्न": 6306,
      "फाइ": 6307,
      "##इंग": 6308,
      "मनु": 6309,
      "कपिल": 6310,
      "##ज़र": 6311,
      "श्रद्धांजलि": 6312,
      "##स्वामी": 6313,
      "##व्यवस्था": 6314,
      "स्मार्टफोन": 6315,
      "अनुराग": 6316,
      "एव": 6317,
      "चिरा": 6318,
      "धु": 6319,
      "फिट": 6320,
      "रौ": 6321,
      "रचना": 6322,
      "##सिया": 6323,
      "स्कीम": 6324,
      "आपस": 6325,
      "##भाग्य": 6326,
      "##िमंडल": 6327,
      "आसमान": 6328,
      "समझा": 6329,
      "एजेंस": 6330,
      "शुभकाम": 6331,
      "टाउन": 6332,
      "छेड़छाड़": 6333,
      "ख़िलाफ़": 6334,
      "तेलंगाना": 6335,
      "##िष्ट": 6336,
      "##दन": 6337,
      "बाबू": 6338,
      "##टेक": 6339,
      "##लोत": 6340,
      "चेकिंग": 6341,
      "जीतकर": 6342,
      "उदाहरण": 6343,
      "मिठ": 6344,
      "खाता": 6345,
      "क्विंट": 6346,
      "गला": 6347,
      "बारी": 6348,
      "रिव": 6349,
      "काटने": 6350,
      "जिसको": 6351,
      "जोड़ी": 6352,
      "स्टोर": 6353,
      "डिफ": 6354,
      "मनाने": 6355,
      "रिपोर्ट्स": 6356,
      "आमिर": 6357,
      "भेजी": 6358,
      "मिसाइल": 6359,
      "आचार": 6360,
      "ऋषि": 6361,
      "टार": 6362,
      "मरा": 6363,
      "लिये": 6364,
      "##मपुर": 6365,
      "##सद": 6366,
      "##हूर": 6367,
      "##ul": 6368,
      "##नाइ": 6369,
      "##ुलर": 6370,
      "सील": 6371,
      "##ूलाल": 6372,
      "250": 6373,
      "साइड": 6374,
      "खासकर": 6375,
      "चलेगी": 6376,
      "समझौता": 6377,
      "अरोड़ा": 6378,
      "टुक": 6379,
      "लाई": 6380,
      "रामल": 6381,
      "रेड्डी": 6382,
      "फिल्में": 6383,
      "जगत": 6384,
      "खेली": 6385,
      "संभावित": 6386,
      "मशहूर": 6387,
      "##्हा": 6388,
      "##क्के": 6389,
      "बाहरी": 6390,
      "हुड्डा": 6391,
      "मोड": 6392,
      "##ट्ठा": 6393,
      "##कालीन": 6394,
      "हिंदु": 6395,
      "लोकेशन": 6396,
      "उपाध्याय": 6397,
      "मोहल्ला": 6398,
      "अर्थव्यवस्था": 6399,
      "आलोचना": 6400,
      "सर्टिफिकेट": 6401,
      "su": 6402,
      "अजीत": 6403,
      "आसार": 6404,
      "खतर": 6405,
      "दृ": 6406,
      "##ोपुर": 6407,
      "##ॉय": 6408,
      "निम": 6409,
      "सुमन": 6410,
      "नीट": 6411,
      "यूरो": 6412,
      "चेन्नई": 6413,
      "टेली": 6414,
      "कलश": 6415,
      "डालकर": 6416,
      "##िवेदी": 6417,
      "ब्राह्मण": 6418,
      "टारगेट": 6419,
      "71": 6420,
      "गाइड": 6421,
      "घेर": 6422,
      "ठहरा": 6423,
      "डेम": 6424,
      "करो": 6425,
      "कारा": 6426,
      "सिंचाई": 6427,
      "कमला": 6428,
      "आजादी": 6429,
      "अमे": 6430,
      "ब्रांड": 6431,
      "किशोरी": 6432,
      "मलिक": 6433,
      "जोड़ने": 6434,
      "गारंटी": 6435,
      "जं": 6436,
      "शिर": 6437,
      "सेल्": 6438,
      "##ांशु": 6439,
      "सास": 6440,
      "मेक": 6441,
      "अनुसू": 6442,
      "लिहा": 6443,
      "महावीर": 6444,
      "शिवराज": 6445,
      "##ार्थियों": 6446,
      "उठाकर": 6447,
      "##शेखर": 6448,
      "विनय": 6449,
      "आंकड़े": 6450,
      "दर्शकों": 6451,
      "खतरे": 6452,
      "रियल": 6453,
      "सकारात्मक": 6454,
      "संदे": 6455,
      "अध्या": 6456,
      "बहू": 6457,
      "एनएच": 6458,
      "मजिस्ट्रेट": 6459,
      "##and": 6460,
      "लक्ष्मण": 6461,
      "कचरा": 6462,
      "सत्या": 6463,
      "##मेल": 6464,
      "##ौदा": 6465,
      "##em": 6466,
      "##ॉस": 6467,
      "##नाश": 6468,
      "लाए": 6469,
      "हरकत": 6470,
      "माया": 6471,
      "गाड़ियां": 6472,
      "शुक्ल": 6473,
      "गहलोत": 6474,
      "एडमिशन": 6475,
      "नितिन": 6476,
      "एटीएम": 6477,
      "बघेल": 6478,
      "अनी": 6479,
      "ब्याज": 6480,
      "शेर": 6481,
      "##जो": 6482,
      "##्रु": 6483,
      "##सीडेंट": 6484,
      "बेल": 6485,
      "आईएएस": 6486,
      "सुनने": 6487,
      "##िंदे": 6488,
      "लंबित": 6489,
      "नकली": 6490,
      "मासूम": 6491,
      "मैनेजमेंट": 6492,
      "94": 6493,
      "क्वाल": 6494,
      "चू": 6495,
      "छू": 6496,
      "##iv": 6497,
      "##धारा": 6498,
      "##ंचल": 6499,
      "श्रीकृष्ण": 6500,
      "रविंद्र": 6501,
      "संभल": 6502,
      "##तलब": 6503,
      "61": 6504,
      "आस्था": 6505,
      "गू": 6506,
      "चत": 6507,
      "हसन": 6508,
      "##साई": 6509,
      "बेरोज": 6510,
      "स्थिर": 6511,
      "बैं": 6512,
      "शुद्ध": 6513,
      "वैष्ण": 6514,
      "साइंस": 6515,
      "शाही": 6516,
      "स्वीकृति": 6517,
      "तिलक": 6518,
      "फर्स्ट": 6519,
      "निलंबित": 6520,
      "मणिपुर": 6521,
      "गेहूं": 6522,
      "गिन": 6523,
      "ग्लो": 6524,
      "जद": 6525,
      "ठाकर": 6526,
      "दाद": 6527,
      "रवी": 6528,
      "सक्": 6529,
      "##पल": 6530,
      "करंट": 6531,
      "होश": 6532,
      "सावन": 6533,
      "मुठ": 6534,
      "##ल्ला": 6535,
      "मेल": 6536,
      "महात्मा": 6537,
      "इंचार्ज": 6538,
      "कविता": 6539,
      "चिन्ह": 6540,
      "##रिएंट": 6541,
      "बहुमत": 6542,
      "..": 6543,
      "81": 6544,
      "चतु": 6545,
      "रघु": 6546,
      "##स्फ": 6547,
      "साझे": 6548,
      "समु": 6549,
      "पाते": 6550,
      "##वंशी": 6551,
      "नामक": 6552,
      "नाटक": 6553,
      "कृपा": 6554,
      "##स्वती": 6555,
      "वीरेंद्र": 6556,
      "मुआवजा": 6557,
      "क्विंटल": 6558,
      "76": 6559,
      "कल्प": 6560,
      "मवेश": 6561,
      "विनेश": 6562,
      "वेद": 6563,
      "घटनाएं": 6564,
      "आमजन": 6565,
      "गौरतलब": 6566,
      "अभियुक्त": 6567,
      "वार्ता": 6568,
      "मुठभ": 6569,
      "गत": 6570,
      "छिप": 6571,
      "हार्ट": 6572,
      "##माने": 6573,
      "##जुट": 6574,
      "##हित": 6575,
      "पैसों": 6576,
      "112": 6577,
      "पड़ने": 6578,
      "ड्रग": 6579,
      "अफग": 6580,
      "खरीदा": 6581,
      "निवेशकों": 6582,
      "चिराग": 6583,
      "ठाकरे": 6584,
      "68": 6585,
      "अत्या": 6586,
      "आवेद": 6587,
      "ऑप": 6588,
      "त्या": 6589,
      "बुर": 6590,
      "शिंदे": 6591,
      "##ैना": 6592,
      "##फोड़": 6593,
      "##थल": 6594,
      "काले": 6595,
      "##वारे": 6596,
      "सीधा": 6597,
      "कैप्": 6598,
      "थानाधिकारी": 6599,
      "करीबी": 6600,
      "2015": 6601,
      "खोलने": 6602,
      "रॉय": 6603,
      "मायके": 6604,
      "अंदाज": 6605,
      "रामलला": 6606,
      "63": 6607,
      "ma": 6608,
      "बजा": 6609,
      "भेंट": 6610,
      "##लक": 6611,
      "##ेस": 6612,
      "##बंद": 6613,
      "एकजुट": 6614,
      "सरस्वती": 6615,
      "देखना": 6616,
      "देखभाल": 6617,
      "बुकिंग": 6618,
      "अभय": 6619,
      "अवध": 6620,
      "टेबल": 6621,
      "डाउन": 6622,
      "दिग्गज": 6623,
      "डिलीवरी": 6624,
      "77": 6625,
      "73": 6626,
      "election": 6627,
      "ओबीसी": 6628,
      "हस्ता": 6629,
      "##टर्स": 6630,
      "##भंगा": 6631,
      "##वाकर": 6632,
      "समस्ती": 6633,
      "कार्यशाला": 6634,
      "बैक": 6635,
      "देखे": 6636,
      "श्रृ": 6637,
      "मदन": 6638,
      "एडिशन": 6639,
      "खोला": 6640,
      "निरस्त": 6641,
      "सराहना": 6642,
      "समस्तीपुर": 6643,
      "क्ली": 6644,
      "शतक": 6645,
      "सक्ष": 6646,
      "सवाई": 6647,
      "##पै": 6648,
      "##ियाबाद": 6649,
      "मोन": 6650,
      "उत्तरी": 6651,
      "मानें": 6652,
      "##ोषण": 6653,
      "गुरुग्राम": 6654,
      "दरभंगा": 6655,
      "करेंगी": 6656,
      "साहित्य": 6657,
      "सिद्धार्थ": 6658,
      "प्लास्टिक": 6659,
      "नेटवर्क": 6660,
      "तस्करों": 6661,
      "##ख्ती": 6662,
      "ढंग": 6663,
      "दादा": 6664,
      "पित": 6665,
      "लुक": 6666,
      "##बो": 6667,
      "##आउट": 6668,
      "##थियों": 6669,
      "हैरान": 6670,
      "अवगत": 6671,
      "निर्देशन": 6672,
      "डेवलप": 6673,
      "व्यास": 6674,
      "धनबाद": 6675,
      "पहाड़ी": 6676,
      "कस्बे": 6677,
      "गड़बड़ी": 6678,
      "ग्लोबल": 6679,
      "आधे": 6680,
      "##ंटा": 6681,
      "##थे": 6682,
      "##नाती": 6683,
      "##ायर्ड": 6684,
      "##माव": 6685,
      "##जीलैंड": 6686,
      "मेगा": 6687,
      "##वंश": 6688,
      "अनुस": 6689,
      "ट्रेलर": 6690,
      "भागलपुर": 6691,
      "एजेंट": 6692,
      "चतुर्थ": 6693,
      "69": 6694,
      "ch": 6695,
      "ईद": 6696,
      "तत्व": 6697,
      "बरेली": 6698,
      "##ड्र": 6699,
      "##sc": 6700,
      "कायम": 6701,
      "##वाए": 6702,
      "विरासत": 6703,
      "सुशील": 6704,
      "##कारिणी": 6705,
      "अनुम": 6706,
      "निकट": 6707,
      "रेखा": 6708,
      "##सलमेर": 6709,
      "रिटायर": 6710,
      "भरतपुर": 6711,
      "फोकस": 6712,
      "92": 6713,
      "झटका": 6714,
      "##ॉप्टर": 6715,
      "पहना": 6716,
      "दोस्ती": 6717,
      "सोल": 6718,
      "##वेयर": 6719,
      "चालकों": 6720,
      "पंडाल": 6721,
      "फसलों": 6722,
      "##ent": 6723,
      "ipl": 6724,
      "##ौरा": 6725,
      "##ेंजर": 6726,
      "किल": 6727,
      "##ंडन": 6728,
      "सुर्": 6729,
      "महंग": 6730,
      "जोड़ा": 6731,
      "जैसलमेर": 6732,
      "##प्ले": 6733,
      "सैम": 6734,
      "सैंपल": 6735,
      "सेवाओं": 6736,
      "निकालकर": 6737,
      "आर्मी": 6738,
      "मुठभेड़": 6739,
      "sp": 6740,
      "ऐश्व": 6741,
      "ड्रेस": 6742,
      "फंदे": 6743,
      "भट्ट": 6744,
      "लहर": 6745,
      "##वड़": 6746,
      "##तः": 6747,
      "##जब": 6748,
      "##्यम": 6749,
      "देसी": 6750,
      "सीए": 6751,
      "गांजा": 6752,
      "विशिष्ट": 6753,
      "पुजारी": 6754,
      "तैनाती": 6755,
      "शिवम": 6756,
      "प्रोफ": 6757,
      "सर्दी": 6758,
      "अंतरिम": 6759,
      "तोड़ने": 6760,
      "कीमतों": 6761,
      "डीसीपी": 6762,
      "##्वेस्ट": 6763,
      "सिंधिया": 6764,
      "अंग्रेजी": 6765,
      "##भूमि": 6766,
      "संसाधन": 6767,
      "दुल्ह": 6768,
      "##पूर्वक": 6769,
      "सर्जरी": 6770,
      "कक्ष": 6771,
      "खाल": 6772,
      "फिज": 6773,
      "##चीन": 6774,
      "##दियों": 6775,
      "##हे": 6776,
      "##वाणी": 6777,
      "स्वि": 6778,
      "स्नात": 6779,
      "राखी": 6780,
      "बहाने": 6781,
      "##्यूटर": 6782,
      "##प्पी": 6783,
      "एमएम": 6784,
      "##....": 6785,
      "रजत": 6786,
      "अटैक": 6787,
      "स्पीड": 6788,
      "वार्षिक": 6789,
      "दफ्तर": 6790,
      "छिंद": 6791,
      "रिया": 6792,
      "रतल": 6793,
      "वजन": 6794,
      "सेशन": 6795,
      "किये": 6796,
      "##सीम": 6797,
      "मिलेंगे": 6798,
      "हमास": 6799,
      "अंबेडकर": 6800,
      "नीम": 6801,
      "लगेगा": 6802,
      "बचे": 6803,
      "लौटा": 6804,
      "मरम्मत": 6805,
      "लंबा": 6806,
      "कूद": 6807,
      "शब्द": 6808,
      "गाजियाबाद": 6809,
      "रतलाम": 6810,
      "aap": 6811,
      "##कंप": 6812,
      "##धाना": 6813,
      "सफेद": 6814,
      "एक्सीडेंट": 6815,
      "बताने": 6816,
      "सियासी": 6817,
      "फंसे": 6818,
      "पृथ्वी": 6819,
      "अनुसंध": 6820,
      "महंगाई": 6821,
      "##ोर्स": 6822,
      "##फाइन": 6823,
      "2000": 6824,
      "##वीप": 6825,
      "##्तार": 6826,
      "अधिकतर": 6827,
      "फैला": 6828,
      "##श्चित": 6829,
      "दरबार": 6830,
      "फील्ड": 6831,
      "बनेगा": 6832,
      "वृद्ध": 6833,
      "प्राथमिकी": 6834,
      "आंकड़ों": 6835,
      "शुभकामनाएं": 6836,
      "सुर्ख": 6837,
      "उछ": 6838,
      "तट": 6839,
      "धमा": 6840,
      "##ig": 6841,
      "प्रज": 6842,
      "##ासा": 6843,
      "अन्न": 6844,
      "विक्की": 6845,
      "195": 6846,
      "स्वस्थ": 6847,
      "##क्षणिक": 6848,
      "चालान": 6849,
      "रिहा": 6850,
      "असली": 6851,
      "प्रत्याशियों": 6852,
      "अहमदाबाद": 6853,
      "सौंपी": 6854,
      "पेरिस": 6855,
      "अनुसंधान": 6856,
      "83": 6857,
      "थानों": 6858,
      "सभाग": 6859,
      "##ौरी": 6860,
      "##ांगी": 6861,
      "##करार": 6862,
      "##ायती": 6863,
      "##ंडों": 6864,
      "मौल": 6865,
      "##जारा": 6866,
      "##ंबल": 6867,
      "##वेदनशील": 6868,
      "इमरान": 6869,
      "वाटर": 6870,
      "प्रस्तावित": 6871,
      "ind": 6872,
      "##खेड़ा": 6873,
      "स्कूली": 6874,
      "अनुसूचित": 6875,
      "mo": 6876,
      "चेत": 6877,
      "चोप": 6878,
      "जहर": 6879,
      "रंज": 6880,
      "शार": 6881,
      "##सास": 6882,
      "##रेंस": 6883,
      "##ion": 6884,
      "##ंगार": 6885,
      "कार्यकारिणी": 6886,
      "108": 6887,
      "##बीएस": 6888,
      "लड़का": 6889,
      "बचपन": 6890,
      "उमस": 6891,
      "अश्ली": 6892,
      "प्रयासों": 6893,
      "गलौज": 6894,
      "संतुल": 6895,
      "लिखी": 6896,
      "कन्ह": 6897,
      "रिटायर्ड": 6898,
      "दहेज": 6899,
      "सैनिकों": 6900,
      "प्रदर्शनी": 6901,
      "अनाज": 6902,
      "मुझसे": 6903,
      "बजरंग": 6904,
      "पेयजल": 6905,
      "74": 6906,
      "क्यू": 6907,
      "चुरा": 6908,
      "##्मा": 6909,
      "##दपुर": 6910,
      "##पाई": 6911,
      "कोरिया": 6912,
      "परफ": 6913,
      "थीम": 6914,
      "##िशियल": 6915,
      "##सागर": 6916,
      "परिच": 6917,
      "जानने": 6918,
      "##ंसल": 6919,
      "बोतल": 6920,
      "120": 6921,
      "खेलते": 6922,
      "प्रेरणा": 6923,
      "शैक्षणिक": 6924,
      "प्रारंभिक": 6925,
      "गूगल": 6926,
      "अश्लील": 6927,
      "vid": 6928,
      "फर्म": 6929,
      "शॉर्ट": 6930,
      "हवाले": 6931,
      "##डोर": 6932,
      "##ुद्दीन": 6933,
      "##ैग": 6934,
      "सेवान": 6935,
      "##टरिंग": 6936,
      "कहकर": 6937,
      "##ंकू": 6938,
      "##ंतु": 6939,
      "जेई": 6940,
      "वनडे": 6941,
      "पारंप": 6942,
      "##श्यप": 6943,
      "अभिभाव": 6944,
      "हथियारों": 6945,
      "हटाया": 6946,
      "गोलियां": 6947,
      "राठौर": 6948,
      "अध्ययन": 6949,
      "चतुर्": 6950,
      "द्र": 6951,
      "वस्त": 6952,
      "सस्प": 6953,
      "।।": 6954,
      "##युक्त": 6955,
      "##शनी": 6956,
      "##बली": 6957,
      "##बुक": 6958,
      "##ia": 6959,
      "##ैप": 6960,
      "##थन": 6961,
      "##ार्पण": 6962,
      "पूनम": 6963,
      "##ाइक": 6964,
      "हमलों": 6965,
      "परिस्थित": 6966,
      "जुटा": 6967,
      "डीए": 6968,
      "##प्रिय": 6969,
      "दिवाली": 6970,
      "डेब्यू": 6971,
      "चंद्रशेखर": 6972,
      "##ाजीपुर": 6973,
      "आतंकवाद": 6974,
      "व्हा": 6975,
      "तृतीय": 6976,
      "पारंपरिक": 6977,
      "इरा": 6978,
      "डबल": 6979,
      "##ेब": 6980,
      "##़ी": 6981,
      "प्रतिबद्ध": 6982,
      "डिस्प": 6983,
      "मनोर": 6984,
      "हत्याकांड": 6985,
      "एक्टिंग": 6986,
      "बुलाकर": 6987,
      "जायजा": 6988,
      "रिटर्न": 6989,
      "मकसद": 6990,
      "जश्न": 6991,
      "सेवानिव": 6992,
      "उजा": 6993,
      "यो": 6994,
      "सख्ती": 6995,
      "##तौर": 6996,
      "##टिव": 6997,
      "##खल": 6998,
      "##ग्रा": 6999,
      "बाज": 7000,
      "लेटर": 7001,
      "##्रीम": 7002,
      "बीए": 7003,
      "इंस्टी": 7004,
      "छाए": 7005,
      "लाइव": 7006,
      "##ोदय": 7007,
      "न्यूजीलैंड": 7008,
      "प्रताड़": 7009,
      "##ट्रिक": 7010,
      "##स्थापक": 7011,
      "अभिनेता": 7012,
      "प्रोत्साहित": 7013,
      "भागीदारी": 7014,
      "रेस्टोर": 7015,
      "चित्त": 7016,
      "नशी": 7017,
      "पच": 7018,
      "पन": 7019,
      "हवाला": 7020,
      "##दर्श": 7021,
      "प्रधाना": 7022,
      "अधि": 7023,
      "##न्ड": 7024,
      "बढ़ता": 7025,
      "नाव": 7026,
      "दिमा": 7027,
      "पूछे": 7028,
      "सांसदों": 7029,
      "बेहोश": 7030,
      "असिस्ट": 7031,
      "शिखर": 7032,
      "तारीफ": 7033,
      "आबकारी": 7034,
      "am": 7035,
      "गों": 7036,
      "छान": 7037,
      "फंसा": 7038,
      "मद्": 7039,
      "##ोला": 7040,
      "##क्टे": 7041,
      "राघ": 7042,
      "निवास": 7043,
      "निश्चित": 7044,
      "बीज": 7045,
      "पीढ़ी": 7046,
      "बैच": 7047,
      "##ंपर": 7048,
      "गुहार": 7049,
      "रेत": 7050,
      "चावल": 7051,
      "##फ्रेंड": 7052,
      "सेकंड": 7053,
      "झांसा": 7054,
      "आजमगढ़": 7055,
      "ज्वेल": 7056,
      "88": 7057,
      "इट": 7058,
      "ब्यू": 7059,
      "वेल": 7060,
      "हां": 7061,
      "##झाने": 7062,
      "कोय": 7063,
      "प्राप्ति": 7064,
      "बाधा": 7065,
      "निष": 7066,
      "सीन": 7067,
      "अनूप": 7068,
      "बारात": 7069,
      "##शीट": 7070,
      "घटनाक्रम": 7071,
      "शिकायतों": 7072,
      "लिखकर": 7073,
      "न्यूज": 7074,
      "पाएंगे": 7075,
      "दिलाई": 7076,
      "डूबने": 7077,
      "समझौते": 7078,
      "आईपीएल": 7079,
      "##abha": 7080,
      "ऐश्वर्या": 7081,
      "ईयर": 7082,
      "जमु": 7083,
      "म्यूज": 7084,
      "यमु": 7085,
      "रत्": 7086,
      "##ूली": 7087,
      "##ोच्च": 7088,
      "##भू": 7089,
      "कोरो": 7090,
      "##सीन": 7091,
      "स्थायी": 7092,
      "पार्टन": 7093,
      "दुब": 7094,
      "दुश्म": 7095,
      "यूजी": 7096,
      "पहुंचेगी": 7097,
      "तैयारियों": 7098,
      "एनटी": 7099,
      "सतर्क": 7100,
      "फ़ै": 7101,
      "दबिश": 7102,
      "शोरूम": 7103,
      "चीजें": 7104,
      "अल्पसंख्यक": 7105,
      "छिंदवाड़ा": 7106,
      "08": 7107,
      "91": 7108,
      "mp": 7109,
      "##पर्ड": 7110,
      "##िलिटी": 7111,
      "##जेडी": 7112,
      "ट्रायल": 7113,
      "टेक": 7114,
      "मिड": 7115,
      "सर्वा": 7116,
      "सिरसा": 7117,
      "##ोपण": 7118,
      "संदेह": 7119,
      "सक्षम": 7120,
      "ओटी": 7121,
      "रिम": 7122,
      "##चरण": 7123,
      "##टिया": 7124,
      "##टकों": 7125,
      "##खड़": 7126,
      "हैंड": 7127,
      "कुंड": 7128,
      "निर्भर": 7129,
      "पैनल": 7130,
      "आईएम": 7131,
      "डिटेल": 7132,
      "श्रमिक": 7133,
      "....": 7134,
      "##ath": 7135,
      "बोलने": 7136,
      "उतरे": 7137,
      "घूमने": 7138,
      "दहशत": 7139,
      "बेटियों": 7140,
      "ईश्वर": 7141,
      "कन्हैया": 7142,
      "600": 7143,
      "lok": 7144,
      "##तू": 7145,
      "##पेय": 7146,
      "##स्ड": 7147,
      "बाधित": 7148,
      "##ेश्वरी": 7149,
      "देवर": 7150,
      "तोमर": 7151,
      "##्मान": 7152,
      "##रेटर": 7153,
      "बेर": 7154,
      "लगती": 7155,
      "विश्ले": 7156,
      "डिवी": 7157,
      "मनमोहन": 7158,
      "जलस्तर": 7159,
      "दौसा": 7160,
      "तोड़फोड़": 7161,
      "आंकड़ा": 7162,
      "घुसकर": 7163,
      "निभाई": 7164,
      "अतुल": 7165,
      "ओलंपिक": 7166,
      "उपायुक्त": 7167,
      "अंधे": 7168,
      "क्रेड": 7169,
      "भिव": 7170,
      "शरी": 7171,
      "##शाह": 7172,
      "##ेटर": 7173,
      "करार": 7174,
      "सिंगर": 7175,
      "##वालों": 7176,
      "मुखब": 7177,
      "दिलच": 7178,
      "##धारण": 7179,
      "श्रम": 7180,
      "##्‍ह": 7181,
      "ब्लैक": 7182,
      "खुलकर": 7183,
      "सिलसिला": 7184,
      "चोपड़ा": 7185,
      "as": 7186,
      "जोग": 7187,
      "बकाया": 7188,
      "##खार": 7189,
      "विराज": 7190,
      "संवेदनशील": 7191,
      "##पीड़": 7192,
      "बेगू": 7193,
      "पहुंचते": 7194,
      "मोहित": 7195,
      "कलर": 7196,
      "पंजाबी": 7197,
      "गैंगस्टर": 7198,
      "कांस्टेबल": 7199,
      "हड़कंप": 7200,
      "नकदी": 7201,
      "चिकित्सकों": 7202,
      "दरवाजे": 7203,
      "##ड्‌डा": 7204,
      "इंस्टीट्यू": 7205,
      "आफ": 7206,
      "घी": 7207,
      "तप": 7208,
      "फट": 7209,
      "बर्फ": 7210,
      "बस्तर": 7211,
      "भय": 7212,
      "हिर": 7213,
      "कोषा": 7214,
      "विस्फ": 7215,
      "स्ल": 7216,
      "##ोग्रा": 7217,
      "लोगो": 7218,
      "##कारियों": 7219,
      "##दीव": 7220,
      "बीत": 7221,
      "इन्होंने": 7222,
      "डॉक्टर्स": 7223,
      "##ज़ार": 7224,
      "##यूवी": 7225,
      "चिह्न": 7226,
      "काटकर": 7227,
      "शोभायात्रा": 7228,
      "विस्फोट": 7229,
      "ट्यू": 7230,
      "स्क्": 7231,
      "चुने": 7232,
      "मामा": 7233,
      "स्टोरी": 7234,
      "देखिए": 7235,
      "यूजर": 7236,
      "जिनका": 7237,
      "परीक्ष": 7238,
      "एमडी": 7239,
      "##ोहित": 7240,
      "मालूम": 7241,
      "##ate": 7242,
      "आयुष्मान": 7243,
      "ब्यूरो": 7244,
      "बेगूसराय": 7245,
      "ai": 7246,
      "इमार": 7247,
      "गश्त": 7248,
      "शर्म": 7249,
      "शशि": 7250,
      "##रियर": 7251,
      "##नीश": 7252,
      "सोया": 7253,
      "बिछ": 7254,
      "बनना": 7255,
      "अनुश": 7256,
      "प्रतिभाग": 7257,
      "नामजद": 7258,
      "उत्पीड़": 7259,
      "दुकानदारों": 7260,
      "मालदीव": 7261,
      "टैंकर": 7262,
      "शिवा": 7263,
      "श्रद्धा": 7264,
      "चमक": 7265,
      "लोहे": 7266,
      "हिन्दू": 7267,
      "रेस्टोरेंट": 7268,
      "उद्ध": 7269,
      "कश्यप": 7270,
      "फीड": 7271,
      "भै": 7272,
      "लटका": 7273,
      "##ंझ": 7274,
      "##्टी": 7275,
      "##स्को": 7276,
      "मोती": 7277,
      "बैंड": 7278,
      "जुटे": 7279,
      "प्राचीन": 7280,
      "एमएल": 7281,
      "##ंगाबाद": 7282,
      "करवाए": 7283,
      "एजु": 7284,
      "जन्मदिन": 7285,
      "##रुख": 7286,
      "इलेक्ट्रॉन": 7287,
      "चिकित्सक": 7288,
      "इकट्ठा": 7289,
      "निष्पक्ष": 7290,
      "डाक": 7291,
      "बाला": 7292,
      "सिस": 7293,
      "##नियों": 7294,
      "##नामी": 7295,
      "मुद्रा": 7296,
      "पार्वती": 7297,
      "इंफ": 7298,
      "डीपी": 7299,
      "जेडी": 7300,
      "दीपिका": 7301,
      "शाहरुख": 7302,
      "डायव": 7303,
      "फ्रंट": 7304,
      "मुकदमे": 7305,
      "बेंच": 7306,
      "सुल्तान": 7307,
      "फरीदाबाद": 7308,
      "केशव": 7309,
      "ईवीएम": 7310,
      "97": 7311,
      "कटा": 7312,
      "गवाह": 7313,
      "जर्म": 7314,
      "##इली": 7315,
      "##थी": 7316,
      "##ानन": 7317,
      "##स्से": 7318,
      "प्रको": 7319,
      "##िनल": 7320,
      "साई": 7321,
      "लेपर्ड": 7322,
      "अगु": 7323,
      "एनडी": 7324,
      "सड़कें": 7325,
      "उमेश": 7326,
      "हॉस्टल": 7327,
      "अंबाला": 7328,
      "ब्रिटेन": 7329,
      "##िकोण": 7330,
      "अफगानिस्तान": 7331,
      "दुल्हन": 7332,
      "सभागार": 7333,
      "मद्देन": 7334,
      "##क्टेयर": 7335,
      "on": 7336,
      "खाम": 7337,
      "डोन": 7338,
      "दहन": 7339,
      "##िंट": 7340,
      "##ुणा": 7341,
      "##घ्र": 7342,
      "पुलिया": 7343,
      "मिलना": 7344,
      "कार्यकारी": 7345,
      "टीआई": 7346,
      "एम्स": 7347,
      "पुरी": 7348,
      "पेमेंट": 7349,
      "भेद": 7350,
      "सवालों": 7351,
      "सांग": 7352,
      "##िनेशन": 7353,
      "विषयों": 7354,
      "संस्थाओं": 7355,
      "रजिस्ट्री": 7356,
      "लैब": 7357,
      "विसर्जन": 7358,
      "खतरनाक": 7359,
      "आधुनिक": 7360,
      "एएसपी": 7361,
      "जर्जर": 7362,
      "दंप": 7363,
      "भ्रमण": 7364,
      "वस": 7365,
      "शैल": 7366,
      "##वमेंट": 7367,
      "##ॉन्": 7368,
      "##ारिया": 7369,
      "##केज": 7370,
      "साधा": 7371,
      "##तिर": 7372,
      "##ंचित": 7373,
      "##ोजर": 7374,
      "बेड": 7375,
      "स्थलों": 7376,
      "मामूली": 7377,
      "##िप्त": 7378,
      "1000": 7379,
      "फैम": 7380,
      "शेखा": 7381,
      "ब्रज": 7382,
      "भागवत": 7383,
      "कंपनियां": 7384,
      "तुम्ह": 7385,
      "ऊंचाई": 7386,
      "प्रतिनिधित्व": 7387,
      "छानबीन": 7388,
      "##पेयी": 7389,
      "भिवानी": 7390,
      "87": 7391,
      "im": 7392,
      "ईरानी": 7393,
      "शर्त": 7394,
      "##कर्मा": 7395,
      "##so": 7396,
      "##ter": 7397,
      "##ॉफ": 7398,
      "##र्धा": 7399,
      "कैसा": 7400,
      "सबको": 7401,
      "##श्चा": 7402,
      "पत्रकारों": 7403,
      "दुकानें": 7404,
      "विश्वनाथ": 7405,
      "हेल्प": 7406,
      "वाता": 7407,
      "जबरन": 7408,
      "पशुओं": 7409,
      "नालंदा": 7410,
      "उपभोक्ताओं": 7411,
      "मुसलमानों": 7412,
      "डीजीपी": 7413,
      "एजेंसियों": 7414,
      "उत्पीड़न": 7415,
      "96": 7416,
      "तथ": 7417,
      "दाना": 7418,
      "मजा": 7419,
      "यज्ञ": 7420,
      "##कृष्ट": 7421,
      "निच": 7422,
      "##टीआई": 7423,
      "सोनिया": 7424,
      "कैच": 7425,
      "एसयूवी": 7426,
      "एम्ब": 7427,
      "लॉरेंस": 7428,
      "चरणों": 7429,
      "##ॉट्स": 7430,
      "इंटरनेट": 7431,
      "प्रीम": 7432,
      "विशेषज्ञों": 7433,
      "हरीश": 7434,
      "ग्राहकों": 7435,
      "गिनती": 7436,
      "हस्ताक्षर": 7437,
      "परफॉ": 7438,
      "क्रेडिट": 7439,
      "वातावरण": 7440,
      "sabha": 7441,
      "कमेंट": 7442,
      "फाज": 7443,
      "##मूर्ति": 7444,
      "##ृद": 7445,
      "लेबन": 7446,
      "निधि": 7447,
      "##न्नाथ": 7448,
      "रोशनी": 7449,
      "अवकाश": 7450,
      "जयशंकर": 7451,
      "कपल": 7452,
      "संग्रह": 7453,
      "बॉय": 7454,
      "योगेश": 7455,
      "अतिथियों": 7456,
      "##ोदिया": 7457,
      "गार्डन": 7458,
      "शौचाल": 7459,
      "नवरात्रि": 7460,
      "चैनल": 7461,
      "जबरदस्त": 7462,
      "82": 7463,
      "cbi": 7464,
      "पठ": 7465,
      "वाज": 7466,
      "सज": 7467,
      "##फार्म": 7468,
      "##30": 7469,
      "प्रैक्ट": 7470,
      "##लेवा": 7471,
      "##टीक": 7472,
      "सिंगल": 7473,
      "##जीब": 7474,
      "इन्वेस्ट": 7475,
      "कैटे": 7476,
      "कॉपी": 7477,
      "##िकासी": 7478,
      "रेवाड़ी": 7479,
      "##ज्जर": 7480,
      "आराम": 7481,
      "गुरुद्वारा": 7482,
      "##फ़ी": 7483,
      "लुटे": 7484,
      "हवाओं": 7485,
      "संरक्षक": 7486,
      "पुष्पा": 7487,
      "वरुण": 7488,
      "दृष्टि": 7489,
      "उल्लेखनीय": 7490,
      "किलोग्राम": 7491,
      "प्रज्वल": 7492,
      "पार्टनर": 7493,
      "डिवीजन": 7494,
      "फाजिल": 7495,
      "कस": 7496,
      "गर्व": 7497,
      "चक": 7498,
      "छवि": 7499,
      "माली": 7500,
      "##तूस": 7501,
      "##ोड": 7502,
      "##ेंच": 7503,
      "कोड": 7504,
      "कारतूस": 7505,
      "कहता": 7506,
      "लोकप्रिय": 7507,
      "शिवपुरी": 7508,
      "प्रोसेस": 7509,
      "रायगढ़": 7510,
      "2009": 7511,
      "प्लानिंग": 7512,
      "पुनर्": 7513,
      "पॉलिसी": 7514,
      "नतीजे": 7515,
      "अब्दुल": 7516,
      "मुखबिर": 7517,
      "कोषाध्यक्ष": 7518,
      "फैमिली": 7519,
      "cct": 7520,
      "go": 7521,
      "झुल": 7522,
      "##विक": 7523,
      "राजम": 7524,
      "जानलेवा": 7525,
      "अंज": 7526,
      "2013": 7527,
      "सर्किट": 7528,
      "शुभम": 7529,
      "पकड़कर": 7530,
      "##one": 7531,
      "क्रिकेटर": 7532,
      "मरने": 7533,
      "कैंपस": 7534,
      "आवंट": 7535,
      "कामयाब": 7536,
      "साझेदारी": 7537,
      "उजागर": 7538,
      "cctv": 7539,
      "चिप": 7540,
      "ध्रु": 7541,
      "नष्ट": 7542,
      "बंसल": 7543,
      "##नस": 7544,
      "##सेवी": 7545,
      "##रेख": 7546,
      "##जीवन": 7547,
      "निर्यात": 7548,
      "10वीं": 7549,
      "लगाना": 7550,
      "बैठी": 7551,
      "जगन्नाथ": 7552,
      "शिकायतें": 7553,
      "रोडवेज": 7554,
      "##ट्टे": 7555,
      "##ुमो": 7556,
      "त्रि": 7557,
      "##ice": 7558,
      "चौथी": 7559,
      "दृष्टिकोण": 7560,
      "सशक्त": 7561,
      "धूमधाम": 7562,
      "गुलाब": 7563,
      "खातों": 7564,
      "असिस्टेंट": 7565,
      "of": 7566,
      "डैम": 7567,
      "##िस्तान": 7568,
      "सेवन": 7569,
      "##ाल्ड": 7570,
      "##स्सी": 7571,
      "##क्क": 7572,
      "मुना": 7573,
      "##धानिक": 7574,
      "सूचित": 7575,
      "विक्र": 7576,
      "एसएचओ": 7577,
      "आईसी": 7578,
      "पोषण": 7579,
      "आरक्षक": 7580,
      "पीड़ितों": 7581,
      "फेस्ट": 7582,
      "##कृतिक": 7583,
      "800": 7584,
      "ऋषभ": 7585,
      "कव": 7586,
      "नज़र": 7587,
      "पेज": 7588,
      "मल्ल": 7589,
      "रित": 7590,
      "##रित": 7591,
      "##ेप": 7592,
      "##ुद्ध": 7593,
      "##थान": 7594,
      "##ायंस": 7595,
      "##कीन": 7596,
      "मोर": 7597,
      "लाकर": 7598,
      "सोलर": 7599,
      "##एमएस": 7600,
      "विधेय": 7601,
      "निर्देशित": 7602,
      "##गमन": 7603,
      "विश्वकर्मा": 7604,
      "##र्नल": 7605,
      "कमीशन": 7606,
      "फ्लोर": 7607,
      "जॉब": 7608,
      "बीमारियों": 7609,
      "##वार्टर": 7610,
      "बलरामपुर": 7611,
      "कल्पना": 7612,
      "दिमाग": 7613,
      "कोरोना": 7614,
      "to": 7615,
      "खड़": 7616,
      "नॉ": 7617,
      "निकासी": 7618,
      "रं": 7619,
      "श्रा": 7620,
      "##ोर्": 7621,
      "##ch": 7622,
      "सम्प": 7623,
      "सीधी": 7624,
      "सीमित": 7625,
      "##वासीय": 7626,
      "रणवीर": 7627,
      "निर्मला": 7628,
      "कुर्सी": 7629,
      "उपभोक्ता": 7630,
      "बाबूलाल": 7631,
      "जदयू": 7632,
      "परिस्थितियों": 7633,
      "इंस्टीट्यूट": 7634,
      "मद्देनजर": 7635,
      "उड़ा": 7636,
      "गहरी": 7637,
      "ट्वी": 7638,
      "नल": 7639,
      "रेज": 7640,
      "शू": 7641,
      "##चार्ज": 7642,
      "##नक": 7643,
      "##पुट": 7644,
      "##धना": 7645,
      "मेंबर": 7646,
      "कराना": 7647,
      "संस्थापक": 7648,
      "दीन": 7649,
      "उपमुख": 7650,
      "परीक्षाओं": 7651,
      "खेलों": 7652,
      "दिखाकर": 7653,
      "रणबीर": 7654,
      "गेंदबाजी": 7655,
      "परियोजनाओं": 7656,
      "समृद्धि": 7657,
      "भीलवाड़ा": 7658,
      "सोलंकी": 7659,
      "##श्चात": 7660,
      "इर": 7661,
      "धक्का": 7662,
      "नाज": 7663,
      "बक्सर": 7664,
      "मित्त": 7665,
      "हाज": 7666,
      "##हो": 7667,
      "##पंथ": 7668,
      "##mp": 7669,
      "##लाइट": 7670,
      "##िसू": 7671,
      "लेता": 7672,
      "सुधीर": 7673,
      "मांझी": 7674,
      "##ोरेशन": 7675,
      "अनुज": 7676,
      "उत्कृष्ट": 7677,
      "सुराग": 7678,
      "केंद्रित": 7679,
      "बालू": 7680,
      "श्रवण": 7681,
      "पारित": 7682,
      "पाठ्य": 7683,
      "##वाइंट": 7684,
      "रिश्ता": 7685,
      "अश्विन": 7686,
      "रक्तदान": 7687,
      "सर्किल": 7688,
      "79": 7689,
      "ठोस": 7690,
      "दर्जा": 7691,
      "शोषण": 7692,
      "सऊ": 7693,
      "सर्जन": 7694,
      "##शिक": 7695,
      "##िंक": 7696,
      "##बिन": 7697,
      "कालेज": 7698,
      "##क्कत": 7699,
      "##ेशनों": 7700,
      "सोसाइ": 7701,
      "कैल": 7702,
      "बढ़ाई": 7703,
      "आईआईटी": 7704,
      "छाया": 7705,
      "धरने": 7706,
      "चोटें": 7707,
      "पर्यटकों": 7708,
      "पुरुषों": 7709,
      "ओमप्रकाश": 7710,
      "कठिन": 7711,
      "निराकरण": 7712,
      "चैंपियनशिप": 7713,
      "अमेठी": 7714,
      "परिचय": 7715,
      "एम्बुलेंस": 7716,
      "फाजिल्का": 7717,
      "मित्तल": 7718,
      "सोसाइटी": 7719,
      "इज": 7720,
      "घन": 7721,
      "डाली": 7722,
      "नह": 7723,
      "फेज": 7724,
      "##मू": 7725,
      "##रन": 7726,
      "स्त्री": 7727,
      "तोड़ा": 7728,
      "चौंक": 7729,
      "रेस": 7730,
      "व्याव": 7731,
      "पारिवार": 7732,
      "एसडीओ": 7733,
      "बल्लेबाजी": 7734,
      "##र्मेंस": 7735,
      "दुबई": 7736,
      "पारिवारिक": 7737,
      "84": 7738,
      "आधी": 7739,
      "कंटे": 7740,
      "छिपा": 7741,
      "जन्": 7742,
      "भिड़": 7743,
      "वंचित": 7744,
      "हीरो": 7745,
      "मोर्च": 7746,
      "आयुर्": 7747,
      "आपदा": 7748,
      "अवस्था": 7749,
      "##आईसी": 7750,
      "लीला": 7751,
      "लड़कों": 7752,
      "194": 7753,
      "पदस्थ": 7754,
      "बरकरार": 7755,
      "समस्याएं": 7756,
      "2008": 7757,
      "लौटे": 7758,
      "मशक्कत": 7759,
      "विद्यालयों": 7760,
      "विस्तृत": 7761,
      "खंडवा": 7762,
      "बुलड": 7763,
      "पॉलिट": 7764,
      "प्रभात": 7765,
      "भतीजे": 7766,
      "दर्शा": 7767,
      "जंक्शन": 7768,
      "चित्तौड़": 7769,
      "आवंटित": 7770,
      "ट्वीट": 7771,
      "अड्ड": 7772,
      "एग्री": 7773,
      "गायक": 7774,
      "गहरे": 7775,
      "बगल": 7776,
      "रच": 7777,
      "##श्याम": 7778,
      "##कुम": 7779,
      "##ee": 7780,
      "##अर": 7781,
      "उन्‍ह": 7782,
      "##ोगु": 7783,
      "देहा": 7784,
      "##्हे": 7785,
      "जीएसटी": 7786,
      "दर्जनों": 7787,
      "2012": 7788,
      "तबाद": 7789,
      "मदर": 7790,
      "ट्रांसपोर्ट": 7791,
      "खूबसूर": 7792,
      "आंधी": 7793,
      "मंजिल": 7794,
      "किशनगंज": 7795,
      "पशुप": 7796,
      "अकाली": 7797,
      "कड़ा": 7798,
      "वाई": 7799,
      "##न्यू": 7800,
      "##नारायण": 7801,
      "##गारी": 7802,
      "##णु": 7803,
      "जाद": 7804,
      "संस्कृत": 7805,
      "दीक्षित": 7806,
      "बीआर": 7807,
      "रूपए": 7808,
      "आरजेडी": 7809,
      "स्पॉट": 7810,
      "दिखी": 7811,
      "खरीदारी": 7812,
      "शीघ्र": 7813,
      "कैप्टन": 7814,
      "सेवानिवृ": 7815,
      "कैटेगरी": 7816,
      "आत्मा": 7817,
      "ऑप्शन": 7818,
      "चाइ": 7819,
      "डोर": 7820,
      "नायक": 7821,
      "भां": 7822,
      "##tt": 7823,
      "नेहा": 7824,
      "विवि": 7825,
      "##लीम": 7826,
      "##द्दा": 7827,
      "अंश": 7828,
      "पैमाने": 7829,
      "आईजी": 7830,
      "गर्भव": 7831,
      "चंद्रा": 7832,
      "वितरित": 7833,
      "लौटने": 7834,
      "प्लॉट": 7835,
      "खबरें": 7836,
      "तत्वा": 7837,
      "गौरी": 7838,
      "एलान": 7839,
      "दबंग": 7840,
      "दिलाया": 7841,
      "डिपार्टमेंट": 7842,
      "डूंगर": 7843,
      "video": 7844,
      "गर्भवती": 7845,
      "700": 7846,
      "नू": 7847,
      "नाइट": 7848,
      "मल्टी": 7849,
      "लड्डू": 7850,
      "सरा": 7851,
      "##मढ़ी": 7852,
      "##बां": 7853,
      "##cb": 7854,
      "मेंटेन": 7855,
      "##पीठ": 7856,
      "##डीपी": 7857,
      "सब्स": 7858,
      "हिट": 7859,
      "बुनिया": 7860,
      "पुत्री": 7861,
      "बढ़ाकर": 7862,
      "लिखे": 7863,
      "आवागमन": 7864,
      "माइक्र": 7865,
      "जनजाति": 7866,
      "एकेड": 7867,
      "सस्पेंड": 7868,
      "प्रतिभागियों": 7869,
      "ad": 7870,
      "आवासीय": 7871,
      "झलक": 7872,
      "फेम": 7873,
      "बंदर": 7874,
      "सवारी": 7875,
      "##ानिया": 7876,
      "##ादक": 7877,
      "पाकर": 7878,
      "स्ट्रीट": 7879,
      "योग्य": 7880,
      "आवंटन": 7881,
      "मिठाई": 7882,
      "सुर्खियों": 7883,
      "परफॉर्मेंस": 7884,
      "ar": 7885,
      "नान": 7886,
      "फि": 7887,
      "बया": 7888,
      "भैर": 7889,
      "रनों": 7890,
      "निस्त": 7891,
      "मैर": 7892,
      "स्टेशनों": 7893,
      "रखता": 7894,
      "प्राकृतिक": 7895,
      "आमने": 7896,
      "अफवाह": 7897,
      "भोले": 7898,
      "पेशे": 7899,
      "छात्राएं": 7900,
      "अंतरिक्ष": 7901,
      "चुनौ": 7902,
      "फ्रांस": 7903,
      "दोषियों": 7904,
      "##ट्टू": 7905,
      "सेलिब": 7906,
      "कनेक्ट": 7907,
      "निर्मित": 7908,
      "काउंसलिंग": 7909,
      "पापा": 7910,
      "बराबर": 7911,
      "वास्तविक": 7912,
      "लेबनान": 7913,
      "उपमुख्य": 7914,
      "सऊदी": 7915,
      "ख्या": 7916,
      "गाना": 7917,
      "दली": 7918,
      "बलों": 7919,
      "भिलाई": 7920,
      "हिल": 7921,
      "##वों": 7922,
      "##रिस": 7923,
      "##ce": 7924,
      "सेले": 7925,
      "अपलोड": 7926,
      "सिंग": 7927,
      "##ंधा": 7928,
      "एमबी": 7929,
      "बॉन्ड": 7930,
      "बालाजी": 7931,
      "दक्षिणी": 7932,
      "पार्षदों": 7933,
      "इजरायल": 7934,
      "93": 7935,
      "khan": 7936,
      "आलिया": 7937,
      "शॉप": 7938,
      "हद": 7939,
      "##िहार": 7940,
      "##कुल": 7941,
      "##फार": 7942,
      "अधीन": 7943,
      "अनिय": 7944,
      "##विंग": 7945,
      "कम्प": 7946,
      "कामना": 7947,
      "रामायण": 7948,
      "##ब्दी": 7949,
      "शवों": 7950,
      "##आरएफ": 7951,
      "वन्य": 7952,
      "बोलते": 7953,
      "सिक्": 7954,
      "गृहमंत्री": 7955,
      "दमकल": 7956,
      "नगरीय": 7957,
      "बोलीं": 7958,
      "प्रतिबंधित": 7959,
      "स्नातक": 7960,
      "ईंट": 7961,
      "झाम": 7962,
      "दंड": 7963,
      "दादी": 7964,
      "नवन": 7965,
      "भव": 7966,
      "##हाँ": 7967,
      "##ेशर": 7968,
      "सिद्दी": 7969,
      "पिच": 7970,
      "स्टो": 7971,
      "##क्रमण": 7972,
      "शिकायतकर्ता": 7973,
      "पद्म": 7974,
      "बरत": 7975,
      "##्राट": 7976,
      "##ष्ठी": 7977,
      "सजाया": 7978,
      "##ash": 7979,
      "हल्के": 7980,
      "दस्तावे": 7981,
      "सत्यापन": 7982,
      "चतुर्थी": 7983,
      "विधेयक": 7984,
      "उपमुख्यमंत्री": 7985,
      "अमाव": 7986,
      "चर्च": 7987,
      "चन्द्र": 7988,
      "तड़": 7989,
      "थप्प": 7990,
      "हमी": 7991,
      "##ंजय": 7992,
      "##ष्टी": 7993,
      "##जेक्शन": 7994,
      "क्रू": 7995,
      "चलाए": 7996,
      "##ट्टर": 7997,
      "जेब": 7998,
      "##म्भ": 7999,
      "ट्रेनें": 8000,
      "हेली": 8001,
      "छात्रावास": 8002,
      "रैंक": 8003,
      "स्वीकृत": 8004,
      "दशहरा": 8005,
      "चयनित": 8006,
      "मुरैना": 8007,
      "जूझ": 8008,
      "सॉफ्ट": 8009,
      "आकर्षक": 8010,
      "निपटने": 8011,
      "जमुई": 8012,
      "उद्धव": 8013,
      "चित्तौड़गढ़": 8014,
      "टंकी": 8015,
      "टोंक": 8016,
      "तर्क": 8017,
      "वंदे": 8018,
      "शिश": 8019,
      "##शर": 8020,
      "##रक": 8021,
      "##दिया": 8022,
      "##ai": 8023,
      "##णिक": 8024,
      "लेती": 8025,
      "जोख": 8026,
      "बैल": 8027,
      "डॉग": 8028,
      "सूरत": 8029,
      "बहाल": 8030,
      "यूट्यू": 8031,
      "मिर्जा": 8032,
      "सेंसे": 8033,
      "रिंकू": 8034,
      "##वर्गीय": 8035,
      "फायदे": 8036,
      "फूलों": 8037,
      "प्रोडक्ट": 8038,
      "जापान": 8039,
      "ओपीडी": 8040,
      "उन्हीं": 8041,
      "सक्सेना": 8042,
      "एजुकेशन": 8043,
      "शौचालय": 8044,
      "अनियंत्रित": 8045,
      "गम": 8046,
      "बला": 8047,
      "भौ": 8048,
      "##ेयर": 8049,
      "##ऊंगा": 8050,
      "सम्राट": 8051,
      "##लीला": 8052,
      "सीने": 8053,
      "दीं": 8054,
      "मौर्य": 8055,
      "ट्रेंड": 8056,
      "##श्ती": 8057,
      "हमलावर": 8058,
      "टैंक": 8059,
      "गेंदों": 8060,
      "फाइनेंस": 8061,
      "अधिकारों": 8062,
      "माधोपुर": 8063,
      "कठोर": 8064,
      "एडिशनल": 8065,
      "रंजिश": 8066,
      "चुनौतियों": 8067,
      "आभूषण": 8068,
      "गंद": 8069,
      "ढांच": 8070,
      "दाल": 8071,
      "प्": 8072,
      "##शान": 8073,
      "##ठे": 8074,
      "##लेन": 8075,
      "मुफ्त": 8076,
      "कुंभ": 8077,
      "कुचल": 8078,
      "##ढ़ा": 8079,
      "सीएच": 8080,
      "मिलियन": 8081,
      "सरदार": 8082,
      "##विजय": 8083,
      "बैनर": 8084,
      "कैंट": 8085,
      "आरोपित": 8086,
      "बुद्ध": 8087,
      "अभ्यास": 8088,
      "लोकल": 8089,
      "जहरी": 8090,
      "आरपी": 8091,
      "पानीपत": 8092,
      "मृतकों": 8093,
      "जेवर": 8094,
      "##िश्वास": 8095,
      "जितना": 8096,
      "श्रेय": 8097,
      "नोडल": 8098,
      "ज्योतिष": 8099,
      "एसीबी": 8100,
      "नक्सली": 8101,
      "##ानुसार": 8102,
      "जहाज": 8103,
      "सच्चाई": 8104,
      "कारावास": 8105,
      "अमावस्या": 8106,
      "nda": 8107,
      "अद्": 8108,
      "वक्": 8109,
      "वंद": 8110,
      "##la": 8111,
      "कीर्तन": 8112,
      "बाप": 8113,
      "हुड्‌डा": 8114,
      "सुश": 8115,
      "बैठने": 8116,
      "##प्रदाय": 8117,
      "##समंद": 8118,
      "रायब": 8119,
      "ब्लै": 8120,
      "बंधक": 8121,
      "प्रतिनिधियों": 8122,
      "अनुरूप": 8123,
      "शब्दों": 8124,
      "आर्यन": 8125,
      "ग्राहक": 8126,
      "वैष्णव": 8127,
      "शेखावत": 8128,
      "थप्पड़": 8129,
      "सेंसेक्स": 8130,
      "अखा": 8131,
      "ईस्ट": 8132,
      "ढेर": 8133,
      "##वड़ा": 8134,
      "##रियल": 8135,
      "##िस्टर": 8136,
      "परमाण": 8137,
      "स्ने": 8138,
      "##रोल": 8139,
      "##स्टार": 8140,
      "सोचा": 8141,
      "परिचाल": 8142,
      "वेरिएंट": 8143,
      "स्टार्ट": 8144,
      "कॉर्प": 8145,
      "श्रीग": 8146,
      "ट्रेड": 8147,
      "बलि": 8148,
      "लॉक": 8149,
      "फ़िल": 8150,
      "प्रीति": 8151,
      "मासिक": 8152,
      "गेस्ट": 8153,
      "शीतल": 8154,
      "रायबरेली": 8155,
      "परमाणु": 8156,
      "दत्त": 8157,
      "पेंट": 8158,
      "वेट": 8159,
      "सराय": 8160,
      "##वकों": 8161,
      "##लांग": 8162,
      "##ुष": 8163,
      "##ro": 8164,
      "रहमान": 8165,
      "जीआरपी": 8166,
      "स्टॉक": 8167,
      "हिम्मत": 8168,
      "गोवा": 8169,
      "##प्ति": 8170,
      "पिछड़ा": 8171,
      "##निवास": 8172,
      "क्रॉस": 8173,
      "खेड़ा": 8174,
      "हॉकी": 8175,
      "सतना": 8176,
      "उपलब्धि": 8177,
      "मॉनि": 8178,
      "आनन": 8179,
      "प्लेटफार्म": 8180,
      "निरंतर": 8181,
      "गहने": 8182,
      "गरबा": 8183,
      "##ांतरण": 8184,
      "लकड़ी": 8185,
      "\"\"": 8186,
      "क्‍या": 8187,
      "पान": 8188,
      "##साद": 8189,
      "##ारस": 8190,
      "##ंगत": 8191,
      "##गाट": 8192,
      "समित": 8193,
      "निपट": 8194,
      "राजेन्द्र": 8195,
      "##रोध": 8196,
      "##ष्‍": 8197,
      "परिचित": 8198,
      "चलाते": 8199,
      "समाजसेवी": 8200,
      "पड़ती": 8201,
      "महीना": 8202,
      "जेसीबी": 8203,
      "समझने": 8204,
      "बलिया": 8205,
      "शेयरों": 8206,
      "सर्वेक्षण": 8207,
      "फॉलो": 8208,
      "झुंझ": 8209,
      "राधिका": 8210,
      "विज्ञापन": 8211,
      "5g": 8212,
      "कवर": 8213,
      "ताजा": 8214,
      "दरो": 8215,
      "नु": 8216,
      "फानन": 8217,
      "रिए": 8218,
      "वें": 8219,
      "हायर": 8220,
      "##कता": 8221,
      "औरंगाबाद": 8222,
      "प्राइम": 8223,
      "प्रकृति": 8224,
      "मुनि": 8225,
      "सुद": 8226,
      "कमाल": 8227,
      "पासपोर्ट": 8228,
      "महासभा": 8229,
      "##ूर्ण": 8230,
      "##्राष्ट्रीय": 8231,
      "हाथरस": 8232,
      "हेक्टेयर": 8233,
      "दलाल": 8234,
      "गणपति": 8235,
      "रणजीत": 8236,
      "न्यायमूर्ति": 8237,
      "बचाया": 8238,
      "भूषण": 8239,
      "सेक्रेट": 8240,
      "समन्वय": 8241,
      "शेड्यूल": 8242,
      "मछली": 8243,
      "मयंक": 8244,
      "डिफेंस": 8245,
      "गंदगी": 8246,
      "वक्फ": 8247,
      "अंचल": 8248,
      "आपात": 8249,
      "ईमान": 8250,
      "चिर": 8251,
      "डंडे": 8252,
      "भद": 8253,
      "##लोग": 8254,
      "##षित": 8255,
      "##फरी": 8256,
      "##धियों": 8257,
      "##ma": 8258,
      "जावेद": 8259,
      "##क्षेप": 8260,
      "अपन": 8261,
      "##जाही": 8262,
      "##मान्य": 8263,
      "कॉलो": 8264,
      "कंप्यूटर": 8265,
      "##ेंसिक": 8266,
      "विदाई": 8267,
      "अफ़": 8268,
      "कराकर": 8269,
      "दिखाते": 8270,
      "जमशे": 8271,
      "अलीगढ़": 8272,
      "बर्बाद": 8273,
      "क्वार्टर": 8274,
      "pro": 8275,
      "पथराव": 8276,
      "लीडर": 8277,
      "डोनाल्ड": 8278,
      "चूं": 8279,
      "झेल": 8280,
      "तिरा": 8281,
      "नमा": 8282,
      "बहा": 8283,
      "मस्क": 8284,
      "लंदन": 8285,
      "##रू": 8286,
      "##ss": 8287,
      "##खोर": 8288,
      "##ालाल": 8289,
      "साक्ष्य": 8290,
      "##रेप": 8291,
      "चुप": 8292,
      "##मीत": 8293,
      "सालाना": 8294,
      "अवतार": 8295,
      "रेव": 8296,
      "##देही": 8297,
      "रिकार्ड": 8298,
      "##ग्रह": 8299,
      "विजयवर्गीय": 8300,
      "मजबूती": 8301,
      "आवाजाही": 8302,
      "अग्निवीर": 8303,
      "इकोन": 8304,
      "बुलडोजर": 8305,
      "बुनियादी": 8306,
      "जोखिम": 8307,
      "दरोगा": 8308,
      "इनाम": 8309,
      "छुप": 8310,
      "थिए": 8311,
      "पत": 8312,
      "स्रो": 8313,
      "##िडी": 8314,
      "##िंडा": 8315,
      "##se": 8316,
      "##गुरु": 8317,
      "##ार्मर": 8318,
      "##मात्र": 8319,
      "सरगु": 8320,
      "##पाट": 8321,
      "बनेंगे": 8322,
      "व्यस्त": 8323,
      "##ंसिल": 8324,
      "##प्पा": 8325,
      "डीआर": 8326,
      "मुताबिक़": 8327,
      "शातिर": 8328,
      "टैग": 8329,
      "खोले": 8330,
      "नकद": 8331,
      "370": 8332,
      "प्रमो": 8333,
      "फैलाने": 8334,
      "बायो": 8335,
      "##भिषेक": 8336,
      "निषाद": 8337,
      "अगुवाई": 8338,
      "पाठ्यक्रम": 8339,
      "झामुमो": 8340,
      "सरगुजा": 8341,
      "98": 8342,
      "कूल": 8343,
      "घंटा": 8344,
      "थर्ड": 8345,
      "पिल": 8346,
      "##बैक": 8347,
      "##टू": 8348,
      "##टके": 8349,
      "##टर्न": 8350,
      "##प्ल": 8351,
      "स्क्र": 8352,
      "अधिसू": 8353,
      "बिख": 8354,
      "रोष": 8355,
      "स्कॉ": 8356,
      "##आईजी": 8357,
      "लालच": 8358,
      "स्टेज": 8359,
      "निकाले": 8360,
      "चढ़कर": 8361,
      "मल्ह": 8362,
      "टूटा": 8363,
      "read": 8364,
      "हिमांशु": 8365,
      "प्रजापति": 8366,
      "सैलरी": 8367,
      "सर्वाधिक": 8368,
      "वसूल": 8369,
      "फेस्टिव": 8370,
      "रंजीत": 8371,
      "सिद्दीकी": 8372,
      "89": 8373,
      "day": 8374,
      "जां": 8375,
      "धा": 8376,
      "बवाल": 8377,
      "भिज": 8378,
      "##rat": 8379,
      "संभा": 8380,
      "निंदा": 8381,
      "##काउ": 8382,
      "सिफार": 8383,
      "##माइ": 8384,
      "कुएं": 8385,
      "जींद": 8386,
      "##ंटू": 8387,
      "##वानों": 8388,
      "डील": 8389,
      "##ग्रहण": 8390,
      "डाले": 8391,
      "क्लिक": 8392,
      "वायनाड": 8393,
      "नतीजों": 8394,
      "झांकी": 8395,
      "आक्रोशित": 8396,
      "पर्सनल": 8397,
      "##ोत्तम": 8398,
      "अविनाश": 8399,
      "समुद्र": 8400,
      "संतुलन": 8401,
      "ev": 8402,
      "इकल": 8403,
      "उर": 8404,
      "गाल": 8405,
      "तकरी": 8406,
      "दुर": 8407,
      "भाद": 8408,
      "भार्ग": 8409,
      "लड़े": 8410,
      "##मंद": 8411,
      "##ूनों": 8412,
      "##ोच": 8413,
      "##ोरा": 8414,
      "##ut": 8415,
      "लेट": 8416,
      "देवास": 8417,
      "सिखा": 8418,
      "वाल्मी": 8419,
      "##्रेसी": 8420,
      "पीयू": 8421,
      "पाटी": 8422,
      "रूसी": 8423,
      "ग्रो": 8424,
      "सहकारी": 8425,
      "बुम": 8426,
      "इलाका": 8427,
      "##आरसी": 8428,
      "बसें": 8429,
      "##ुआं": 8430,
      "जलकर": 8431,
      "मालवीय": 8432,
      "गर्ल": 8433,
      "हमलावरों": 8434,
      "साइट": 8435,
      "कर्त": 8436,
      "सिल्वर": 8437,
      "अजित": 8438,
      "अकाद": 8439,
      "ऑडिट": 8440,
      "अभिनेत्री": 8441,
      "देहात": 8442,
      "अस्त": 8443,
      "खिता": 8444,
      "चैल": 8445,
      "टकर": 8446,
      "बर्थ": 8447,
      "##बड़": 8448,
      "##णम": 8449,
      "सेहत": 8450,
      "सेफ्टी": 8451,
      "अनियम": 8452,
      "##दाता": 8453,
      "जानकार": 8454,
      "कामका": 8455,
      "डिस्": 8456,
      "##ंसक": 8457,
      "##पालिका": 8458,
      "125": 8459,
      "आरके": 8460,
      "आरटी": 8461,
      "मिलीमीटर": 8462,
      "उठे": 8463,
      "एजेंड": 8464,
      "##ंडीज": 8465,
      "350": 8466,
      "वृक्ष": 8467,
      "पलवल": 8468,
      "##शुदा": 8469,
      "नवादा": 8470,
      "लड़कियां": 8471,
      "दायरे": 8472,
      "स्टील": 8473,
      "गड्ढे": 8474,
      "जन्मा": 8475,
      "वंदना": 8476,
      "झुंझुन": 8477,
      "सिफारिश": 8478,
      "तकरीबन": 8479,
      "कन्न": 8480,
      "छी": 8481,
      "तंत्र": 8482,
      "पट्टी": 8483,
      "फार": 8484,
      "लिव": 8485,
      "##मण": 8486,
      "##ंकार": 8487,
      "##cp": 8488,
      "केन्द": 8489,
      "हैरिस": 8490,
      "विंग": 8491,
      "निखिल": 8492,
      "बेनी": 8493,
      "बनती": 8494,
      "सबके": 8495,
      "कॉमे": 8496,
      "लिफ्ट": 8497,
      "एमएस": 8498,
      "अर्ध": 8499,
      "फोगाट": 8500,
      "किराया": 8501,
      "ठगों": 8502,
      "फेसबुक": 8503,
      "india": 8504,
      "श्रीगंग": 8505,
      "बुमराह": 8506,
      "केन्द्रीय": 8507,
      "एथ": 8508,
      "वैन": 8509,
      "वस्त्र": 8510,
      "सत्स": 8511,
      "##सले": 8512,
      "##तूल": 8513,
      "##ॉग": 8514,
      "##‍च": 8515,
      "##ऐप": 8516,
      "पहने": 8517,
      "पहिया": 8518,
      "समर": 8519,
      "##माही": 8520,
      "##ंत्रिक": 8521,
      "पहलेलेख": 8522,
      "पीडब्ल्यू": 8523,
      "एसओ": 8524,
      "जेवरा": 8525,
      "करवाकर": 8526,
      "##कुश": 8527,
      "2007": 8528,
      "मंत्रिमंडल": 8529,
      "खबरों": 8530,
      "##ार्जुन": 8531,
      "अंबिका": 8532,
      "गरीबों": 8533,
      "ट्रॉली": 8534,
      "इन्हीं": 8535,
      "प्रोडक्शन": 8536,
      "आकर्षण": 8537,
      "टोला": 8538,
      "एडवांस": 8539,
      "ज़रूर": 8540,
      "एकत्रित": 8541,
      "also": 8542,
      "डिवाइस": 8543,
      "##फाइनल": 8544,
      "डिस्प्ले": 8545,
      "सेक्रेटरी": 8546,
      "भार्गव": 8547,
      "श्रीगंगानगर": 8548,
      "पहलेलेखक": 8549,
      "ias": 8550,
      "गूं": 8551,
      "नॉन": 8552,
      "पला": 8553,
      "लटक": 8554,
      "वॉट्स": 8555,
      "##यरी": 8556,
      "##ंसी": 8557,
      "##ख़": 8558,
      "##हमी": 8559,
      "##ियाला": 8560,
      "देह": 8561,
      "##्तानी": 8562,
      "एनकाउ": 8563,
      "स्पिन": 8564,
      "अरुणा": 8565,
      "गणना": 8566,
      "प्लेयर": 8567,
      "वृंदा": 8568,
      "सुनाया": 8569,
      "##ृष्टि": 8570,
      "नवरात्र": 8571,
      "प्रैक्टिस": 8572,
      "चौंकाने": 8573,
      "सीएचसी": 8574,
      "चूंकि": 8575,
      "de": 8576,
      "आर्म": 8577,
      "एह": 8578,
      "खनि": 8579,
      "तन": 8580,
      "धारण": 8581,
      "फिस": 8582,
      "शोक": 8583,
      "सहर": 8584,
      "हृद": 8585,
      "##बाई": 8586,
      "##25": 8587,
      "##up": 8588,
      "##98": 8589,
      "करूंगा": 8590,
      "##नायक": 8591,
      "साइन": 8592,
      "बीएन": 8593,
      "##विधि": 8594,
      "अनुक": 8595,
      "नीतियों": 8596,
      "शिक्षिका": 8597,
      "ब्रिट": 8598,
      "नारन": 8599,
      "सर्वोच्च": 8600,
      "लोड": 8601,
      "चिंत": 8602,
      "वीजा": 8603,
      "जितने": 8604,
      "पर्यटक": 8605,
      "जोड़कर": 8606,
      "क़ान": 8607,
      "क्रमांक": 8608,
      "##िफिकेशन": 8609,
      "मेकर्स": 8610,
      "रवींद्र": 8611,
      "राजमार्ग": 8612,
      "एनकाउंटर": 8613,
      "86": 8614,
      "अटक": 8615,
      "जॉन": 8616,
      "तारा": 8617,
      "पश्चात": 8618,
      "बसे": 8619,
      "शाल": 8620,
      "शाला": 8621,
      "हेर": 8622,
      "##आम": 8623,
      "##gb": 8624,
      "हैंडल": 8625,
      "कार्": 8626,
      "##ल्‍": 8627,
      "कामों": 8628,
      "##सरों": 8629,
      "गिरकर": 8630,
      "रामगढ़": 8631,
      "जीतू": 8632,
      "डेयरी": 8633,
      "प्रदर्शनकारियों": 8634,
      "प्रसंग": 8635,
      "निशुल्क": 8636,
      "मूवमेंट": 8637,
      "शांतिपूर्ण": 8638,
      "बंटवारे": 8639,
      "अत्याचार": 8640,
      "डेवलपमेंट": 8641,
      "सिसोदिया": 8642,
      "आयुर्वेद": 8643,
      "अड्डे": 8644,
      "सत्संग": 8645,
      "sc": 8646,
      "कंस": 8647,
      "चौर": 8648,
      "डु": 8649,
      "डकै": 8650,
      "माइन": 8651,
      "लघु": 8652,
      "##ik": 8653,
      "##हिया": 8654,
      "##पारा": 8655,
      "##भराव": 8656,
      "सेठ": 8657,
      "##स्पी": 8658,
      "प्रवर्": 8659,
      "##ोगी": 8660,
      "कारों": 8661,
      "कार्म": 8662,
      "अपे": 8663,
      "##द्वाज": 8664,
      "युग": 8665,
      "बच्चियों": 8666,
      "बुलेट": 8667,
      "नींद": 8668,
      "जलाने": 8669,
      "डेड": 8670,
      "कटिहार": 8671,
      "उठाते": 8672,
      "धरती": 8673,
      "सलाहकार": 8674,
      "पुण्य": 8675,
      "तलवार": 8676,
      "पुतिन": 8677,
      "जायेगा": 8678,
      "सेमीफाइनल": 8679,
      "क्वालिटी": 8680,
      "यमुना": 8681,
      "जमशेदपुर": 8682,
      "अनियमित": 8683,
      "जन्माष्टमी": 8684,
      "cr": 8685,
      "आध्या": 8686,
      "खज": 8687,
      "खरा": 8688,
      "तंज": 8689,
      "लिप": 8690,
      "##मानी": 8691,
      "##इंडीज": 8692,
      "##ta": 8693,
      "##ौफ": 8694,
      "##भु": 8695,
      "##र्ति": 8696,
      "कास्ट": 8697,
      "विविध": 8698,
      "कुशल": 8699,
      "##रोवर": 8700,
      "##टेस्ट": 8701,
      "भारद्वाज": 8702,
      "##ोकन": 8703,
      "गोस्वामी": 8704,
      "##ंकन": 8705,
      "डिब्": 8706,
      "जलभराव": 8707,
      "##ana": 8708,
      "समझाया": 8709,
      "रीजन": 8710,
      "प्रेमिका": 8711,
      "##डरेशन": 8712,
      "झगड़े": 8713,
      "नर्मदापुरम": 8714,
      "पौधों": 8715,
      "पठान": 8716,
      "मेंटेनेंस": 8717,
      "sd": 8718,
      "गहन": 8719,
      "गरज": 8720,
      "घो": 8721,
      "छिड़": 8722,
      "त्वर": 8723,
      "शक्त": 8724,
      "किस्": 8725,
      "सीव": 8726,
      "महिंद": 8727,
      "##ंत्रण": 8728,
      "लगाएं": 8729,
      "सोसाय": 8730,
      "##चारिक": 8731,
      "पैलेस": 8732,
      "विधिक": 8733,
      "महाय": 8734,
      "इसीलिए": 8735,
      "प्रत्यक्ष": 8736,
      "आदिवासियों": 8737,
      "रुके": 8738,
      "तरीका": 8739,
      "ट्रांसफ": 8740,
      "उत्पन्न": 8741,
      "विवाहिता": 8742,
      "साधक": 8743,
      "जॉइन": 8744,
      "चरम": 8745,
      "नायडू": 8746,
      "निराश": 8747,
      "घोटाला": 8748,
      "ऑडियो": 8749,
      "भिंड": 8750,
      "वाजपेयी": 8751,
      "बयानों": 8752,
      "इकोनॉ": 8753,
      "क्व": 8754,
      "डंपर": 8755,
      "नारा": 8756,
      "भंग": 8757,
      "सवा": 8758,
      "सरोज": 8759,
      "##डु": 8760,
      "##aj": 8761,
      "##गिल": 8762,
      "##ालन": 8763,
      "प्रौ": 8764,
      "##राद": 8765,
      "##ाइश": 8766,
      "जोड़े": 8767,
      "दिनभर": 8768,
      "अनुदान": 8769,
      "सहारा": 8770,
      "गोप": 8771,
      "पैस": 8772,
      "2011": 8773,
      "ऑफ़": 8774,
      "पेन": 8775,
      "रनौत": 8776,
      "सौभाग्य": 8777,
      "अपराधों": 8778,
      "गतिविधि": 8779,
      "गायत्री": 8780,
      "हवाएं": 8781,
      "पटरी": 8782,
      "ग्रेड": 8783,
      "घेराव": 8784,
      "इशारा": 8785,
      "कुत्ते": 8786,
      "अनीता": 8787,
      "शरीफ": 8788,
      "चिह्नित": 8789,
      "इमारत": 8790,
      "वाल्मीकि": 8791,
      "अभाव": 8792,
      "खिड़": 8793,
      "चाली": 8794,
      "झाला": 8795,
      "थम": 8796,
      "धौल": 8797,
      "पाद": 8798,
      "बठ": 8799,
      "##पिंग": 8800,
      "केवी": 8801,
      "परेड": 8802,
      "जाग": 8803,
      "राजगढ़": 8804,
      "##दाश्त": 8805,
      "बैतूल": 8806,
      "गोवंश": 8807,
      "फैशन": 8808,
      "एनएस": 8809,
      "##बूझ": 8810,
      "##ang": 8811,
      "पंचायतों": 8812,
      "खाड़ी": 8813,
      "निदेशालय": 8814,
      "प्रदर्शित": 8815,
      "सिलसिले": 8816,
      "प्रताड़ित": 8817,
      "जेडीयू": 8818,
      "भेदभाव": 8819,
      "सेवानिवृत्त": 8820,
      "तत्वावधान": 8821,
      "त्वरित": 8822,
      "shar": 8823,
      "इजा": 8824,
      "कस्टम": 8825,
      "गी": 8826,
      "जियो": 8827,
      "दयाल": 8828,
      "वाट": 8829,
      "सनी": 8830,
      "##ip": 8831,
      "##आइ": 8832,
      "##पु": 8833,
      "##ृत्ति": 8834,
      "केयर": 8835,
      "प्रांत": 8836,
      "##हीर": 8837,
      "##हीन": 8838,
      "##रेगा": 8839,
      "मांस": 8840,
      "रोड़": 8841,
      "एसएस": 8842,
      "रामपुर": 8843,
      "इलाहाबाद": 8844,
      "##धारोपण": 8845,
      "डीजे": 8846,
      "श्रीम": 8847,
      "कप्तानी": 8848,
      "संभाला": 8849,
      "सहयोगियों": 8850,
      "पौधारोपण": 8851,
      "इलेक्शन": 8852,
      "खुली": 8853,
      "खुलने": 8854,
      "##लेश्वर": 8855,
      "क़रीब": 8856,
      "हाइवे": 8857,
      "निर्माता": 8858,
      "जर्मनी": 8859,
      "निस्तारण": 8860,
      "मॉनिटरिंग": 8861,
      "पीडब्ल्यूडी": 8862,
      "खुर": 8863,
      "फू": 8864,
      "भंवर": 8865,
      "सत्": 8866,
      "##ाध्यक्ष": 8867,
      "##नो": 8868,
      "##दयाल": 8869,
      "##हाना": 8870,
      "##ौनी": 8871,
      "##hone": 8872,
      "राउ": 8873,
      "महल": 8874,
      "##ल्ले": 8875,
      "##स्तों": 8876,
      "बिट्टू": 8877,
      "कमान": 8878,
      "##ुतोष": 8879,
      "मीरा": 8880,
      "संगीता": 8881,
      "पंचांग": 8882,
      "पेटी": 8883,
      "प्रसन्न": 8884,
      "संचालकों": 8885,
      "##र्शियल": 8886,
      "रिक्त": 8887,
      "भेजकर": 8888,
      "गणतंत्र": 8889,
      "लखी": 8890,
      "##र्निंग": 8891,
      "वार्डों": 8892,
      "समाचार": 8893,
      "फास्ट": 8894,
      "कांवड़": 8895,
      "झाड़": 8896,
      "नगरी": 8897,
      "प्लाजा": 8898,
      "महेंद्रगढ़": 8899,
      "पदार्थों": 8900,
      "आंगनबाड़ी": 8901,
      "जनप्रतिनिधियों": 8902,
      "कॉमर्स": 8903,
      "##जोत": 8904,
      "तत्वों": 8905,
      "दानापुर": 8906,
      "जेवरात": 8907,
      "अड": 8908,
      "उग्र": 8909,
      "झंडा": 8910,
      "मूर्": 8911,
      "मादक": 8912,
      "शेट": 8913,
      "##षक": 8914,
      "##um": 8915,
      "सेम": 8916,
      "इसने": 8917,
      "##त्रु": 8918,
      "साड़ी": 8919,
      "एकमात्र": 8920,
      "महंगा": 8921,
      "##देशक": 8922,
      "जानता": 8923,
      "##णाधीन": 8924,
      "रामलीला": 8925,
      "आगमन": 8926,
      "चलाकर": 8927,
      "वैभव": 8928,
      "##ष्ठा": 8929,
      "भरकर": 8930,
      "खाकर": 8931,
      "निशाने": 8932,
      "आशुतोष": 8933,
      "##ियारपुर": 8934,
      "कैमरों": 8935,
      "##कलन": 8936,
      "समीकरण": 8937,
      "प्रतापगढ़": 8938,
      "मुहैया": 8939,
      "एसीपी": 8940,
      "स्ट्राइक": 8941,
      "नीलम": 8942,
      "##वैधानिक": 8943,
      "चैलेंज": 8944,
      "झुंझुनूं": 8945,
      "महिंद्रा": 8946,
      "इजाफा": 8947,
      "कबीर": 8948,
      "गड": 8949,
      "डरा": 8950,
      "नाला": 8951,
      "लता": 8952,
      "##कल्प": 8953,
      "##जनी": 8954,
      "##गित": 8955,
      "कोहरा": 8956,
      "##ित्री": 8957,
      "##्यांकन": 8958,
      "देनी": 8959,
      "निवार": 8960,
      "##्तों": 8961,
      "बैटिंग": 8962,
      "उपर": 8963,
      "अभद्र": 8964,
      "कपड़ों": 8965,
      "2010": 8966,
      "आमंत्रित": 8967,
      "2005": 8968,
      "शाहिद": 8969,
      "परेशानियों": 8970,
      "परिवर्त": 8971,
      "पोलिंग": 8972,
      "मेहमान": 8973,
      "निर्मल": 8974,
      "चार्जिंग": 8975,
      "फुटबॉल": 8976,
      "आकर्षित": 8977,
      "दादरी": 8978,
      "इलेक्ट्रॉनिक": 8979,
      "परिचालन": 8980,
      "खिताब": 8981,
      "अख्त": 8982,
      "चचे": 8983,
      "तां": 8984,
      "रश्म": 8985,
      "सलीम": 8986,
      "##मो": 8987,
      "##लत": 8988,
      "##कूट": 8989,
      "##कॉम": 8990,
      "##st": 8991,
      "##भूत": 8992,
      "##ोंग": 8993,
      "विफल": 8994,
      "दीदी": 8995,
      "वर्दी": 8996,
      "##ूराम": 8997,
      "आईपीएस": 8998,
      "110": 8999,
      "बंदूक": 9000,
      "भगवंत": 9001,
      "फरिया": 9002,
      "##णीय": 9003,
      "मंडला": 9004,
      "सैफ": 9005,
      "पारस": 9006,
      "शिना": 9007,
      "मॉड": 9008,
      "प्रकाशित": 9009,
      "एसडीपीओ": 9010,
      "बर्दाश्त": 9011,
      "घुसपै": 9012,
      "एग्जिट": 9013,
      "गतिविधियां": 9014,
      "निर्माणाधीन": 9015,
      "वाइस": 9016,
      "झूठे": 9017,
      "शिवाजी": 9018,
      "बठिंडा": 9019,
      "घुसपैठ": 9020,
      "घबरा": 9021,
      "झील": 9022,
      "दाह": 9023,
      "दोगु": 9024,
      "पेंड": 9025,
      "मीन": 9026,
      "हत": 9027,
      "##चू": 9028,
      "##दु": 9029,
      "##हू": 9030,
      "##एप": 9031,
      "##याम": 9032,
      "कोविड": 9033,
      "होल": 9034,
      "साक्षी": 9035,
      "संल": 9036,
      "दोहरा": 9037,
      "रखेंगे": 9038,
      "पुस्तक": 9039,
      "राज्यमंत्री": 9040,
      "सीएमएचओ": 9041,
      "माहेश्वरी": 9042,
      "वारंट": 9043,
      "अंतर्राष्ट्रीय": 9044,
      "##फिकेशन": 9045,
      "विचारधारा": 9046,
      "सिद्धांत": 9047,
      "द्विवेदी": 9048,
      "जबरदस्ती": 9049,
      "ठिकानों": 9050,
      "डेमोक": 9051,
      "बैंकों": 9052,
      "मजाक": 9053,
      "दस्तावेजों": 9054,
      "बलात्कार": 9055,
      "कंड": 9056,
      "कड़े": 9057,
      "खट": 9058,
      "ताइ": 9059,
      "दांव": 9060,
      "दवाइ": 9061,
      "मऊ": 9062,
      "लाना": 9063,
      "शिप": 9064,
      "##डनी": 9065,
      "##ब्रे": 9066,
      "##तोड़": 9067,
      "##खों": 9068,
      "##ैच": 9069,
      "##he": 9070,
      "##िकरण": 9071,
      "सम्": 9072,
      "##क्ष्मी": 9073,
      "सीरिया": 9074,
      "##ष्कार": 9075,
      "बेल्ट": 9076,
      "पाता": 9077,
      "बुलाई": 9078,
      "बुझाने": 9079,
      "प्रदेशाध्यक्ष": 9080,
      "##ंसू": 9081,
      "कपड़ा": 9082,
      "मज़": 9083,
      "बॉस": 9084,
      "संपूर्ण": 9085,
      "गैंगरेप": 9086,
      "टूटने": 9087,
      "##ट्‌टी": 9088,
      "दिग्विजय": 9089,
      "बढ़ेगी": 9090,
      "मेघवाल": 9091,
      "सीताराम": 9092,
      "बेरोजगारी": 9093,
      "झुलस": 9094,
      "मल्लिक": 9095,
      "फिसल": 9096,
      "सोसायटी": 9097,
      "धौलपुर": 9098,
      "ap": 9099,
      "ऑयल": 9100,
      "ओला": 9101,
      "कट्टा": 9102,
      "घात": 9103,
      "चारा": 9104,
      "भटक": 9105,
      "भैया": 9106,
      "##वला": 9107,
      "##घरों": 9108,
      "##10": 9109,
      "##्रार": 9110,
      "कोठी": 9111,
      "स्मार": 9112,
      "निभ": 9113,
      "##त्तियों": 9114,
      "महानगर": 9115,
      "##हराम": 9116,
      "पहुंचेंगे": 9117,
      "##वेन्यू": 9118,
      "##डीसी": 9119,
      "देखरेख": 9120,
      "रामा": 9121,
      "मानक": 9122,
      "##प्ट": 9123,
      "स्पेस": 9124,
      "आमतौर": 9125,
      "उद्यम": 9126,
      "व्याख्या": 9127,
      "नौसेना": 9128,
      "बनेगी": 9129,
      "चीख": 9130,
      "2004": 9131,
      "निकलकर": 9132,
      "पाएगा": 9133,
      "##नेश्वर": 9134,
      "मूंग": 9135,
      "##esh": 9136,
      "साधना": 9137,
      "सोनीपत": 9138,
      "प्रोड्यू": 9139,
      "वेस्टइंडीज": 9140,
      "पर्ची": 9141,
      "बौद्ध": 9142,
      "हस्तक्षेप": 9143,
      "हिंदुस्तान": 9144,
      "अवधेश": 9145,
      "विराजमान": 9146,
      "ब्रिटिश": 9147,
      "कार्मिक": 9148,
      "ट्रांसफार्मर": 9149,
      "आलू": 9150,
      "चप्प": 9151,
      "धूल": 9152,
      "नड्डा": 9153,
      "मच्छ": 9154,
      "मिज": 9155,
      "##मनी": 9156,
      "##ख्ता": 9157,
      "कोहरे": 9158,
      "सेग": 9159,
      "##नाई": 9160,
      "राख": 9161,
      "मुंडा": 9162,
      "बताकर": 9163,
      "बताती": 9164,
      "राजनाथ": 9165,
      "##ल्ली": 9166,
      "पीटीआई": 9167,
      "बैज": 9168,
      "स्टाइल": 9169,
      "कॉरि": 9170,
      "##कर्ताओं": 9171,
      "हेरो": 9172,
      "सचिवालय": 9173,
      "दुनियाभर": 9174,
      "##est": 9175,
      "##ताहिक": 9176,
      "रिश्तेदारों": 9177,
      "रॉयल": 9178,
      "काउंटर": 9179,
      "नतीजा": 9180,
      "धारदार": 9181,
      "पंजीयन": 9182,
      "घटकर": 9183,
      "##द्योगिकी": 9184,
      "तूफान": 9185,
      "फतेहपुर": 9186,
      "कोयला": 9187,
      "म्यूजिक": 9188,
      "##िंटन": 9189,
      "नहाने": 9190,
      "वृंदावन": 9191,
      "आैर": 9192,
      "जया": 9193,
      "टु": 9194,
      "शंभ": 9195,
      "##लि": 9196,
      "##ंबा": 9197,
      "##जुए": 9198,
      "##एगा": 9199,
      "##पूर": 9200,
      "प्रह": 9201,
      "विवरण": 9202,
      "साप्": 9203,
      "एकल": 9204,
      "सुध": 9205,
      "अनदे": 9206,
      "##मीन": 9207,
      "जानवरों": 9208,
      "##ांचल": 9209,
      "कमर": 9210,
      "##डीओ": 9211,
      "कहे": 9212,
      "वेडिंग": 9213,
      "कॉम्": 9214,
      "रखती": 9215,
      "गुड": 9216,
      "बसंत": 9217,
      "##ांडा": 9218,
      "पुरोहित": 9219,
      "साहिल": 9220,
      "...'": 9221,
      "जितनी": 9222,
      "ठेका": 9223,
      "पटियाला": 9224,
      "धोनी": 9225,
      "वकीलों": 9226,
      "बूथों": 9227,
      "भरोसे": 9228,
      "अश्विनी": 9229,
      "ग़ज़ा": 9230,
      "इरफान": 9231,
      "घनश्याम": 9232,
      "वॉट्सऐप": 9233,
      "हृदय": 9234,
      "मियां": 9235,
      "शत": 9236,
      "हू": 9237,
      "हरे": 9238,
      "##वर्ष": 9239,
      "##ंठ": 9240,
      "##्वि": 9241,
      "##होर": 9242,
      "##पाली": 9243,
      "##िएट": 9244,
      "##रात्रि": 9245,
      "मुन": 9246,
      "##पीसी": 9247,
      "##िशंकर": 9248,
      "##स्तौल": 9249,
      "##द्वार": 9250,
      "कार्यपाल": 9251,
      "बनाता": 9252,
      "सहार": 9253,
      "पढ़ा": 9254,
      "स्वाति": 9255,
      "योजनाएं": 9256,
      "राहगी": 9257,
      "सितम्बर": 9258,
      "##डेजा": 9259,
      "संविदा": 9260,
      "बंधन": 9261,
      "टॉस": 9262,
      "सोनाक्षी": 9263,
      "रिलायंस": 9264,
      "अनुमंडल": 9265,
      "प्रोफेशन": 9266,
      "निचले": 9267,
      "ध्रुव": 9268,
      "मैरिज": 9269,
      "कॉरिडोर": 9270,
      "हेरोइन": 9271,
      "साप्ताहिक": 9272,
      "co": 9273,
      "se": 9274,
      "we": 9275,
      "ऋण": 9276,
      "कतार": 9277,
      "खैर": 9278,
      "छपरा": 9279,
      "तुर्": 9280,
      "बची": 9281,
      "हौ": 9282,
      "हवन": 9283,
      "##शिंग": 9284,
      "##़ा": 9285,
      "##ुसार": 9286,
      "##हट": 9287,
      "##47": 9288,
      "##ढे": 9289,
      "##ॉर": 9290,
      "केदार": 9291,
      "कालोनी": 9292,
      "##ामे": 9293,
      "##ायन": 9294,
      "मुर्म": 9295,
      "मेजब": 9296,
      "बैन": 9297,
      "पिस्तौल": 9298,
      "इंटेल": 9299,
      "##क्सो": 9300,
      "गुस्से": 9301,
      "डिस्क": 9302,
      "शिक्षण": 9303,
      "क्रिस": 9304,
      "बांट": 9305,
      "निर्देशक": 9306,
      "पुरा": 9307,
      "सकेगी": 9308,
      "विकेटकी": 9309,
      "लोकेश": 9310,
      "##ादाबाद": 9311,
      "##्युनि": 9312,
      "नागपुर": 9313,
      "प्रतिष्ठित": 9314,
      "खोजबीन": 9315,
      "गीतों": 9316,
      "भंडार": 9317,
      "आराधना": 9318,
      "विपिन": 9319,
      "सेल्फी": 9320,
      "त्याग": 9321,
      "हेल्पलाइन": 9322,
      "पीयूष": 9323,
      "पाटीदार": 9324,
      "प्रवर्तन": 9325,
      "खां": 9326,
      "खाई": 9327,
      "जले": 9328,
      "मॉल": 9329,
      "रमन": 9330,
      "शत्रु": 9331,
      "##ud": 9332,
      "##उंस": 9333,
      "कीर्ति": 9334,
      "काटा": 9335,
      "प्रेशर": 9336,
      "##गाई": 9337,
      "अपार्टमेंट": 9338,
      "बेन": 9339,
      "दूसरों": 9340,
      "आयकर": 9341,
      "##एसएल": 9342,
      "फैन": 9343,
      "मार्क": 9344,
      "##ख्यात": 9345,
      "डेरा": 9346,
      "संतों": 9347,
      "धमक": 9348,
      "तिमाही": 9349,
      "नागरिकता": 9350,
      "फ्रॉड": 9351,
      "प्रिंट": 9352,
      "सिद्धू": 9353,
      "मुरादाबाद": 9354,
      "सीतामढ़ी": 9355,
      "भड़क": 9356,
      "धीरज": 9357,
      "ब्लास्ट": 9358,
      "कागजात": 9359,
      "अत्यंत": 9360,
      "शूटर": 9361,
      "एकेडमी": 9362,
      "फेस्टिवल": 9363,
      "खनिज": 9364,
      "सहरसा": 9365,
      "सीवरेज": 9366,
      "प्रौद्योगिकी": 9367,
      "राहगीरों": 9368,
      "चूर": 9369,
      "जडेजा": 9370,
      "तर्ज": 9371,
      "श्वे": 9372,
      "##भान": 9373,
      "##ामक": 9374,
      "बाउंड": 9375,
      "जाओ": 9376,
      "संदर्": 9377,
      "##मावत": 9378,
      "##ाइजी": 9379,
      "##ल्व": 9380,
      "##ुपयोग": 9381,
      "##वेदी": 9382,
      "निर्व": 9383,
      "द्वि": 9384,
      "द्वीप": 9385,
      "नामों": 9386,
      "विक्रे": 9387,
      "शिवलिंग": 9388,
      "प्रदोष": 9389,
      "हाथियों": 9390,
      "कराते": 9391,
      "रजनी": 9392,
      "##ind": 9393,
      "जालोर": 9394,
      "सुपरस्टार": 9395,
      "बाइडन": 9396,
      "##स्थापित": 9397,
      "गजेंद्र": 9398,
      "दायित्व": 9399,
      "मिथुन": 9400,
      "रिलेशन": 9401,
      "##दर्शी": 9402,
      "ड्रग्स": 9403,
      "श्रृंगार": 9404,
      "राघव": 9405,
      "ओटीटी": 9406,
      "दिलचस्प": 9407,
      "अधिसूचना": 9408,
      "सेगमेंट": 9409,
      "खि": 9410,
      "घसी": 9411,
      "जेट": 9412,
      "लाह": 9413,
      "वां": 9414,
      "##लें": 9415,
      "कास": 9416,
      "##तिथि": 9417,
      "##सेवक": 9418,
      "समग्र": 9419,
      "समुद": 9420,
      "सीमेंट": 9421,
      "##्वयन": 9422,
      "सोह": 9423,
      "पाटिल": 9424,
      "सरकारों": 9425,
      "सूर्या": 9426,
      "पैकेट": 9427,
      "पैकेज": 9428,
      "जगद": 9429,
      "आरएसएस": 9430,
      "##ष्ठान": 9431,
      "फीचर": 9432,
      "सीएमओ": 9433,
      "रिफ": 9434,
      "धमका": 9435,
      "प्लस": 9436,
      "##ुर्द": 9437,
      "याचिकाकर्ता": 9438,
      "कबूल": 9439,
      "पर्यवे": 9440,
      "उतरने": 9441,
      "नियंत्रित": 9442,
      "##पीएससी": 9443,
      "चार्जशीट": 9444,
      "इकबाल": 9445,
      "इसराइली": 9446,
      "नजदीकी": 9447,
      "चक्रवा": 9448,
      "योगा": 9449,
      "नमाज": 9450,
      "थिएटर": 9451,
      "अरुणाचल": 9452,
      "श्वेता": 9453,
      "संदर्भ": 9454,
      "समुद्री": 9455,
      "कुरु": 9456,
      "खेर": 9457,
      "पाय": 9458,
      "बिन": 9459,
      "हांसी": 9460,
      "हज़ार": 9461,
      "##यर्स": 9462,
      "##श्रे": 9463,
      "##न्या": 9464,
      "##दड़": 9465,
      "##णवी": 9466,
      "##र्चित": 9467,
      "सेक्शन": 9468,
      "काफ़ी": 9469,
      "##स्स": 9470,
      "##लेव": 9471,
      "##लेशन": 9472,
      "##रीत": 9473,
      "उन्न": 9474,
      "संचार": 9475,
      "संजू": 9476,
      "मुस्त": 9477,
      "सीएस": 9478,
      "##ल्हा": 9479,
      "##स्थी": 9480,
      "स्थगित": 9481,
      "इनसे": 9482,
      "उपज": 9483,
      "जनगणना": 9484,
      "बुखार": 9485,
      "रखवाया": 9486,
      "पुस्त": 9487,
      "इलाक़": 9488,
      "प्रशंसा": 9489,
      "उमर": 9490,
      "विवादों": 9491,
      "संतु": 9492,
      "नोटिफिकेशन": 9493,
      "रुचि": 9494,
      "मूल्यांकन": 9495,
      "तस्वीरों": 9496,
      "मोहनलाल": 9497,
      "गुरू": 9498,
      "बांधकर": 9499,
      "##चुअल": 9500,
      "हिस्सेदारी": 9501,
      "एडीएम": 9502,
      "रणनीतिक": 9503,
      "कोरबा": 9504,
      "बांसवाड़ा": 9505,
      "यूरोप": 9506,
      "##ather": 9507,
      "भैंस": 9508,
      "डूंगरपुर": 9509,
      "किस्मत": 9510,
      "अख्तर": 9511,
      "is": 9512,
      "एएन": 9513,
      "झड़": 9514,
      "मकर": 9515,
      "##बर्ग": 9516,
      "##ूंगी": 9517,
      "काब": 9518,
      "पराम": 9519,
      "समीर": 9520,
      "##ायुक्त": 9521,
      "##ादर": 9522,
      "राजसमंद": 9523,
      "मिलन": 9524,
      "सरेंडर": 9525,
      "##स्पति": 9526,
      "मुख्तार": 9527,
      "हिस्ट्री": 9528,
      "ग्रह": 9529,
      "भाटी": 9530,
      "चौथा": 9531,
      "कांग्रेसी": 9532,
      "1500": 9533,
      "सुनते": 9534,
      "पेड़ों": 9535,
      "दिखने": 9536,
      "सैय": 9537,
      "जमीनी": 9538,
      "##ाटक": 9539,
      "उपलक्ष्य": 9540,
      "फेडरेशन": 9541,
      "छापा": 9542,
      "निर्वाचित": 9543,
      "हाउसिंग": 9544,
      "उत्पादों": 9545,
      "खोलकर": 9546,
      "चिकित्सालय": 9547,
      "##सुनी": 9548,
      "जाटव": 9549,
      "नीलामी": 9550,
      "पहनकर": 9551,
      "अमीर": 9552,
      "ठहराया": 9553,
      "अधिग्रहण": 9554,
      "रत्न": 9555,
      "##ोर्टर": 9556,
      "ब्लैकम": 9557,
      "एहसास": 9558,
      "पैसेंजर": 9559,
      "डेमोक्रेट": 9560,
      "weather": 9561,
      "उतरी": 9562,
      "गाजीपुर": 9563,
      "लहरा": 9564,
      "वरीय": 9565,
      "##ाफ्ट": 9566,
      "##तियां": 9567,
      "##ष्म": 9568,
      "##एगी": 9569,
      "सेरे": 9570,
      "कागज": 9571,
      "##तांत्रिक": 9572,
      "परमार": 9573,
      "##लाद": 9574,
      "##ुराम": 9575,
      "साधारण": 9576,
      "##ंदगांव": 9577,
      "##माता": 9578,
      "सुचार": 9579,
      "बैर": 9580,
      "टीका": 9581,
      "पाउ": 9582,
      "विक्ष": 9583,
      "##आईपी": 9584,
      "रेन": 9585,
      "##बाबू": 9586,
      "महाकु": 9587,
      "निर्देशों": 9588,
      "वैध": 9589,
      "##तमंद": 9590,
      "बजरी": 9591,
      "मार्गों": 9592,
      "ब्लू": 9593,
      "गोलीबारी": 9594,
      "घुसे": 9595,
      "##िक्रमा": 9596,
      "धीमी": 9597,
      "पहलुओं": 9598,
      "बुलंद": 9599,
      "पड़ोसियों": 9600,
      "अभिभावकों": 9601,
      "नवनि": 9602,
      "अंबिकापुर": 9603,
      "शेट्टी": 9604,
      "परिवर्तित": 9605,
      "शिनाख्त": 9606,
      "इंटेलिज": 9607,
      "com": 9608,
      "mar": 9609,
      "आड": 9610,
      "आला": 9611,
      "आकार": 9612,
      "क्रे": 9613,
      "##सनी": 9614,
      "##बानी": 9615,
      "##ॉर्क": 9616,
      "##धू": 9617,
      "##oc": 9618,
      "##णिज": 9619,
      "##ड़ने": 9620,
      "होल्ड": 9621,
      "राइट": 9622,
      "निफ्टी": 9623,
      "मुंग": 9624,
      "##काव": 9625,
      "राजना": 9626,
      "##ानाबाद": 9627,
      "##ोजित": 9628,
      "मैथ": 9629,
      "स्टडी": 9630,
      "##र्सन": 9631,
      "गोवर्धन": 9632,
      "पैन": 9633,
      "ऑफिशियल": 9634,
      "हेमा": 9635,
      "दीपेंद्र": 9636,
      "बदलकर": 9637,
      "##फेयर": 9638,
      "मॉर्च": 9639,
      "प्रेसि": 9640,
      "मनीषा": 9641,
      "दवाओं": 9642,
      "डोडा": 9643,
      "##कांक्षा": 9644,
      "मवेशी": 9645,
      "ऑपरेटर": 9646,
      "चतुर्वेदी": 9647,
      "दंपती": 9648,
      "प्रमोशन": 9649,
      "अती": 9650,
      "खै": 9651,
      "खदान": 9652,
      "चिट्": 9653,
      "टें": 9654,
      "नाना": 9655,
      "वॉक": 9656,
      "##स्य": 9657,
      "##ब्स": 9658,
[...]
