<unk>	0
<s>	0
</s>	0
▁क	-0
▁स	-1
▁म	-2
▁प	-3
▁ह	-4
▁र	-5
▁न	-6
▁ा	-7
▁ब	-8
ें	-9
▁के	-10
▁ज	-11
▁ल	-12
▁द	-13
▁व	-14
ार	-15
्र	-16
या	-17
▁में	-18
▁है	-19
▁ग	-20
▁त	-21
▁अ	-22
▁ी	-23
▁की	-24
ों	-25
▁ि	-26
▁।	-27
▁को	-28
ने	-29
▁कर	-30
▁ने	-31
▁भ	-32
▁से	-33
▁आ	-34
▁श	-35
▁,	-36
▁कि	-37
▁का	-38
र्	-39
▁इ	-40
▁े	-41
ान	-42
▁उ	-43
▁च	-44
▁ए	-45
▁य	-46
▁थ	-47
▁पर	-48
्य	-49
ाल	-50
▁औ	-51
▁और	-52
ता	-53
▁ट	-54
िल	-55
ड़	-56
ना	-57
▁ों	-58
▁ं	-59
क्	-60
▁इस	-61
▁रा	-62
▁फ	-63
ही	-64
▁जा	-65
हा	-66
▁स्	-67
▁हो	-68
▁प्र	-69
▁ख	-70
▁ड	-71
▁सा	-72
▁लि	-73
▁बा	-74
▁2	-75
▁ो	-76
▁वि	-77
▁्	-78
▁हैं	-79
▁दि	-80
ंग	-81
के	-82
स्	-83
▁भी	-84
▁1	-85
▁्र	-86
वा	-87
▁-	-88
त्र	-89
िक	-90
▁पु	-91
▁दे	-92
ित	-93
ाम	-94
ले	-95
िस	-96
▁उन	-97
हीं	-98
▁हु	-99
कर	-100
▁ें	-101
▁किया	-102
▁ु	-103
▁ले	-104
ला	-105
ते	-106
▁0	-107
▁घ	-108
▁लिए	-109
▁एक	-110
▁क्	-111
▁नि	-112
▁ध	-113
▁था	-114
▁कार	-115
▁गया	-116
▁पह	-117
री	-118
ति	-119
▁रह	-120
▁नहीं	-121
क्ष	-122
से	-123
▁सं	-124
रा	-125
ोग	-126
गा	-127
ेश	-128
▁सि	-129
▁रि	-130
का	-131
नी	-132
ारी	-133
ंद	-134
▁कु	-135
▁र्	-136
▁बाद	-137
ती	-138
▁ही	-139
ां	-140
▁अप	-141
▁मु	-142
त्	-143
ुर	-144
▁.	-145
्ह	-146
▁सम	-147
▁साथ	-148
▁ू	-149
िला	-150
ंच	-151
▁ओ	-152
▁पुल	-153
▁ला	-154
▁वा	-155
▁सु	-156
▁राज	-157
▁पुलिस	-158
▁सी	-159
▁कहा	-160
▁गई	-161
▁बता	-162
▁पू	-163
▁िय	-164
▁या	-165
वार	-166
▁वाल	-167
▁3	-168
▁करने	-169
कि	-170
▁छ	-171
्म	-172
िर	-173
ढ़	-174
ंड	-175
▁उन्ह	-176
▁ाल	-177
▁रे	-178
▁दो	-179
▁उस	-180
▁थी	-181
▁तो	-182
▁रहे	-183
▁4	-184
की	-185
▁दिया	-186
िय	-187
▁लोग	-188
▁मा	-189
▁5	-190
▁ता	-191
▁दी	-192
▁पा	-193
र्ट	-194
्या	-195
▁तक	-196
ौर	-197
सी	-198
रो	-199
▁भा	-200
▁रहा	-201
▁बताया	-202
▁ना	-203
▁िक	-204
▁चु	-205
ाय	-206
▁्य	-207
▁यह	-208
▁हुए	-209
गी	-210
ष्	-211
▁ार	-212
भी	-213
▁बार	-214
▁मौ	-215
▁मिल	-216
▁रो	-217
▁अध	-218
▁ियों	-219
गर	-220
▁मह	-221
▁रही	-222
▁थे	-223
पी	-224
▁बी	-225
▁सिं	-226
▁सिंह	-227
ली	-228
रे	-229
शन	-230
मा	-231
गे	-232
▁क्ष	-233
ाना	-234
▁ोंने	-235
▁हम	-236
हां	-237
टर	-238
▁ान	-239
▁(	-240
▁गए	-241
▁पी	-242
▁ै	-243
▁जी	-244
▁:	-245
्च	-246
ेट	-247
▁स्थ	-248
▁दिन	-249
▁दर्	-250
▁)	-251
▁टी	-252
ल्	-253
▁पहु	-254
देश	-255
▁ती	-256
▁आरो	-257
▁9	-258
▁पहुंच	-259
▁लेकर	-260
हर	-261
▁पहले	-262
▁अन	-263
दी	-264
▁ड़	-265
▁मै	-266
▁इसके	-267
द्र	-268
जन	-269
भा	-270
▁रु	-271
▁ंत्र	-272
कार	-273
▁हा	-274
▁ट्र	-275
▁ॉ	-276
▁लोगों	-277
▁अपने	-278
▁जो	-279
▁री	-280
▁यु	-281
▁कार्	-282
▁शा	-283
स्ट	-284
▁ित	-285
▁6	-286
▁जब	-287
▁जाए	-288
द्	-289
▁हुई	-290
▁मे	-291
▁माम	-292
▁ते	-293
▁कम	-294
किन	-295
▁लेकिन	-296
▁ओं	-297
▁7	-298
सा	-299
▁ंत्री	-300
▁बना	-301
्त	-302
▁नी	-303
▁द्	-304
▁सर	-305
पा	-306
में	-307
▁इन	-308
▁8	-309
▁जिस	-310
▁'	-311
तर	-312
▁साल	-313
▁वह	-314
▁दौर	-315
▁लगा	-316
▁बै	-317
▁सक	-318
▁बि	-319
▁ठ	-320
ार्	-321
मार	-322
▁िंग	-323
ानी	-324
ंब	-325
▁एस	-326
▁ाव	-327
▁रू	-328
▁होने	-329
▁वाले	-330
▁गां	-331
जे	-332
▁निर्	-333
▁देश	-334
▁वे	-335
जा	-336
▁दौरान	-337
▁ई	-338
▁ग्र	-339
▁हर	-340
▁िया	-341
▁ऐ	-342
▁्स	-343
नाव	-344
▁जन	-345
▁चल	-346
दा	-347
▁घर	-348
▁हुआ	-349
▁पुर	-350
▁पि	-351
ंट	-352
▁कुमार	-353
वास	-354
▁तर	-355
ंध	-356
▁अब	-357
▁दू	-358
▁प्रति	-359
वि	-360
▁लो	-361
▁ऑ	-362
नों	-363
▁चुनाव	-364
▁सरकार	-365
▁ेत्र	-366
▁"	-367
▁रुप	-368
▁शुर	-369
▁शाम	-370
र्व	-371
▁साम	-372
▁करते	-373
▁सू	-374
▁ये	-375
▁भार	-376
▁देख	-377
▁स्ट	-378
▁कै	-379
▁ाइ	-380
▁श्र	-381
िन	-382
▁वर्	-383
▁काम	-384
▁जु	-385
▁चा	-386
ष्ट	-387
बा	-388
▁ां	-389
टना	-390
▁झ	-391
▁राम	-392
▁सो	-393
▁महिला	-394
▁रख	-395
्ल	-396
ेल	-397
▁कार्य	-398
▁सभी	-399
िव	-400
▁डॉ	-401
▁लिया	-402
▁आई	-403
▁कुछ	-404
ंग्	-405
▁यो	-406
▁बड़	-407
▁वार	-408
िया	-409
▁पास	-410
▁कई	-411
▁रेस	-412
▁व्य	-413
ोट	-414
कारी	-415
यर	-416
्व	-417
▁नगर	-418
▁ण	-419
▁बढ़	-420
टी	-421
▁गिर	-422
▁लग	-423
▁टीम	-424
▁थाना	-425
मी	-426
▁गांव	-427
▁यू	-428
ूल	-429
क्र	-430
▁भारत	-431
क्त	-432
स्त	-433
▁द्वार	-434
▁दु	-435
▁यों	-436
▁ीड	-437
िए	-438
▁गु	-439
ंप	-440
▁पो	-441
ख्य	-442
▁आप	-443
▁उनके	-444
▁ालय	-445
पुर	-446
▁ति	-447
▁चौ	-448
▁बात	-449
▁मामले	-450
▁घटना	-451
▁कोई	-452
जी	-453
▁हाल	-454
▁नाम	-455
▁ली	-456
▁सब	-457
▁मो	-458
▁ाय	-459
▁गा	-460
▁कांग्	-461
▁मी	-462
▁उप	-463
▁समय	-464
▁गो	-465
ृत	-466
▁करा	-467
▁डी	-468
स्प	-469
▁आरोप	-470
▁अपनी	-471
▁सह	-472
िश	-473
▁रूप	-474
▁शुरू	-475
▁ार्ट	-476
▁बन	-477
सर	-478
▁वहीं	-479
ोड़	-480
▁्यक्ष	-481
▁डि	-482
▁हि	-483
▁दर्ज	-484
▁परि	-485
▁्रदेश	-486
▁योज	-487
▁जिल	-488
▁यहां	-489
▁निक	-490
▁लोक	-491
▁दोनों	-492
क्षा	-493
ंक	-494
▁चाह	-495
वाई	-496
्न	-497
▁जिला	-498
फ्	-499
▁कह	-500
जार	-501
▁बजे	-502
▁़	-503
▁वी	-504
▁ेंद्र	-505
▁रुपए	-506
▁बच	-507
▁छा	-508
▁ौ	-509
▁बह	-510
▁एक्	-511
▁खु	-512
▁जांच	-513
ंस	-514
▁खिला	-515
▁विभा	-516
वी	-517
▁शु	-518
▁दिल	-519
ारा	-520
▁किसी	-521
▁तरह	-522
▁विभाग	-523
▁पूर्व	-524
▁बो	-525
ंत	-526
▁युव	-527
▁आरोपी	-528
▁विश	-529
धान	-530
▁पड़	-531
▁उसके	-532
▁िका	-533
▁एव	-534
▁आज	-535
▁बीच	-536
▁नकारी	-537
▁स्त	-538
ड़क	-539
एम	-540
▁नु	-541
▁10	-542
▁कॉ	-543
▁पै	-544
▁ग्राम	-545
▁दूस	-546
▁लाख	-547
वे	-548
▁शामिल	-549
वर	-550
▁जै	-551
▁ाई	-552
▁ीय	-553
▁एवं	-554
▁िकारी	-555
नि	-556
▁प्	-557
▁भाज	-558
▁रात	-559
▁अल	-560
▁ेंगे	-561
▁राज्य	-562
▁करी	-563
▁तार	-564
▁सूच	-565
▁भाजपा	-566
▁आय	-567
▁ंड	-568
▁एम	-569
▁िस	-570
▁अव	-571
▁जारी	-572
▁बैठ	-573
▁फिर	-574
▁क्र	-575
▁मैं	-576
▁होगा	-577
स्पत	-578
▁अस्पत	-579
▁बे	-580
▁जाएगा	-581
जू	-582
▁जाने	-583
▁किए	-584
▁पत्	-585
▁मांग	-586
▁मंद	-587
▁उसे	-588
▁मार	-589
▁जीत	-590
▁करीब	-591
▁खिलाफ	-592
▁कारण	-593
▁फिल	-594
▁तै	-595
बर	-596
▁जिले	-597
▁ार्टी	-598
▁ेड	-599
▁अन्य	-600
सान	-601
▁ार्	-602
▁बद	-603
▁चार	-604
▁‍	-605
▁ेंट	-606
▁दा	-607
▁बेट	-608
▁ाने	-609
ून	-610
▁याद	-611
▁स्क	-612
▁महा	-613
णा	-614
▁सीट	-615
▁मान	-616
▁सद	-617
▁ंच	-618
▁टे	-619
▁उनकी	-620
▁सभा	-621
▁रिवार	-622
▁ज्या	-623
▁ज्याद	-624
▁ारी	-625
▁धिक	-626
▁िल	-627
▁युवक	-628
जर	-629
▁्ट	-630
▁वाली	-631
▁फिल्म	-632
▁मंदिर	-633
▁शास	-634
▁मौके	-635
▁इं	-636
▁तीन	-637
▁गिरफ्	-638
▁श्री	-639
▁निवास	-640
▁फै	-641
▁करना	-642
▁छात्र	-643
▁रवाई	-644
▁जाता	-645
▁शहर	-646
▁्थ	-647
▁सामने	-648
▁यक्र	-649
▁यक्रम	-650
▁मौत	-651
▁ंद	-652
▁ल्	-653
▁अग	-654
▁ओर	-655
▁सुब	-656
▁्री	-657
▁जग	-658
▁लाल	-659
▁सुबह	-660
▁ज्	-661
▁एं	-662
▁कोर्ट	-663
िति	-664
▁तह	-665
▁ाया	-666
▁खा	-667
ध्य	-668
▁योग	-669
ूट	-670
र्म	-671
▁आर	-672
प्त	-673
▁राष्ट	-674
▁वो	-675
द्य	-676
▁न्	-677
▁स्व	-678
▁क्या	-679
▁सबसे	-680
▁देने	-681
ड़ी	-682
लो	-683
जय	-684
▁गुर	-685
▁पिछ	-686
▁गं	-687
र्च	-688
▁सूचना	-689
▁िन	-690
▁हजार	-691
वाल	-692
▁च्च	-693
▁अलग	-694
▁इला	-695
▁करोड़	-696
▁अधिक	-697
▁पाल	-698
▁रेल	-699
▁पानी	-700
▁एन	-701
▁जहां	-702
▁यादव	-703
ुत	-704
▁देव	-705
▁इसी	-706
▁दिख	-707
ूर	-708
ेज	-709
▁िकाय	-710
▁कर्	-711
इन	-712
ंबर	-713
▁कृ	-714
▁बारिश	-715
वन	-716
▁राह	-717
▁दर्शन	-718
▁ऐसे	-719
द्ध	-720
▁बु	-721
▁नुस	-722
जूद	-723
▁दिए	-724
▁मिली	-725
चार	-726
▁भाग	-727
▁कंप	-728
▁आने	-729
▁बंद	-730
▁स्कूल	-731
▁धिकार	-732
▁होगी	-733
▁ात	-734
पर	-735
▁जर	-736
▁नुसार	-737
▁ीन	-738
▁िसमें	-739
▁मन	-740
▁अनु	-741
▁जि	-742
▁इसमें	-743
दान	-744
▁शिव	-745
▁त्	-746
हार	-747
▁मि	-748
▁आए	-749
▁िकायत	-750
▁तैय	-751
▁जय	-752
▁इससे	-753
ोर	-754
▁पोर्ट	-755
▁ंग	-756
▁तैयार	-757
▁ारती	-758
म्म	-759
्यू	-760
▁शर्	-761
▁ोदी	-762
कान	-763
▁पद	-764
▁विद्य	-765
▁बाहर	-766
▁ज्ञ	-767
हन	-768
▁मत	-769
ेत	-770
▁रवि	-771
▁ारतीय	-772
वान	-773
ेन	-774
▁िश	-775
▁ष	-776
▁ाम	-777
टा	-778
▁नेता	-779
▁आया	-780
▁दिल्ल	-781
▁मार्	-782
▁बंध	-783
बंध	-784
▁शव	-785
▁रहने	-786
▁जान	-787
▁मुख्य	-788
▁सफ	-789
▁शासन	-790
▁यात्र	-791
▁शर्मा	-792
▁स्थान	-793
ंगल	-794
▁गुरु	-795
था	-796
▁रक्षा	-797
▁ेद	-798
▁योजना	-799
▁कुल	-800
▁टर	-801
▁सकता	-802
▁हत्	-803
ेक	-804
▁भर	-805
▁मां	-806
▁चाहिए	-807
▁कर्म	-808
सभ	-809
▁लोकसभ	-810
▁पढ़	-811
▁ेश	-812
फी	-813
▁खेल	-814
▁ढ	-815
▁जे	-816
सल	-817
्छ	-818
▁वहां	-819
ियो	-820
▁स्थित	-821
▁समा	-822
▁पूरी	-823
▁हत्या	-824
▁ंद्र	-825
▁किसान	-826
ाई	-827
▁पिछले	-828
▁ड्	-829
▁पिता	-830
▁मंड	-831
▁मामला	-832
ुल	-833
▁अम	-834
▁शे	-835
ओं	-836
▁पां	-837
▁सड़क	-838
▁उसकी	-839
▁्या	-840
▁?	-841
▁िध	-842
▁उत्	-843
▁ढ़	-844
▁शि	-845
▁क्टर	-846
▁व्यव	-847
▁विका	-848
ंदर	-849
तार	-850
▁पति	-851
▁प्रो	-852
ायक	-853
▁S	-854
▁िधायक	-855
▁ियां	-856
लाई	-857
▁गढ़	-858
▁विधान	-859
▁रन	-860
▁रीक्ष	-861
▁ाए	-862
▁रिय	-863
ेशन	-864
▁ऑफ	-865
धा	-866
▁ट्	-867
▁आगे	-868
▁नव	-869
▁काफी	-870
▁उठ	-871
ख्यम	-872
▁ुख्यम	-873
▁बच्च	-874
▁भू	-875
▁बड़ी	-876
▁ेर	-877
त्व	-878
▁दर	-879
▁अच	-880
धी	-881
▁अं	-882
▁इंड	-883
▁मृत	-884
▁सहित	-885
▁संभ	-886
लेक्	-887
इल	-888
▁समाज	-889
▁विकास	-890
▁जाएगी	-891
▁ंख	-892
▁घाय	-893
▁घायल	-894
एस	-895
▁जबकि	-896
ोष	-897
▁दीप	-898
▁रोड	-899
▁माल	-900
▁बहुत	-901
मान	-902
र्ण	-903
▁िग	-904
▁घंट	-905
▁सै	-906
कड़	-907
धार	-908
▁हालां	-909
इक	-910
▁अभी	-911
▁बैठक	-912
▁जगह	-913
▁ोम	-914
र्फ	-915
▁तब	-916
▁ीडियो	-917
▁सदस	-918
▁सदस्य	-919
▁व्यक्	-920
▁निकल	-921
▁परिजन	-922
को	-923
▁फी	-924
र्ड	-925
▁एक्स	-926
▁होता	-927
▁20	-928
▁धार	-929
▁ाह	-930
▁A	-931
▁मौजूद	-932
▁मद	-933
ायर	-934
▁तहत	-935
▁अला	-936
▁जिन	-937
▁जिसके	-938
▁लिख	-939
▁च्चों	-940
▁दूसरे	-941
▁बाइक	-942
▁ीण	-943
▁ऊ	-944
ीत	-945
▁ताब	-946
▁ेगा	-947
▁संग	-948
▁उसने	-949
▁धान	-950
▁चि	-951
▁भग	-952
▁न्या	-953
▁बारे	-954
▁मही	-955
▁अपना	-956
▁मिला	-957
▁ीडिया	-958
ोल	-959
▁पत्नी	-960
▁सकते	-961
▁करें	-962
ंगा	-963
▁अलावा	-964
ंत्र	-965
▁ज़	-966
ंगे	-967
▁अगर	-968
टल	-969
▁आग	-970
▁उनका	-971
▁ाना	-972
ेम	-973
राब	-974
▁C	-975
▁मंगल	-976
▁पं	-977
▁चंद	-978
▁बाल	-979
▁ृ	-980
▁अभ	-981
▁ंख्या	-982
▁वज	-983
▁ाकर	-984
▁दें	-985
▁टू	-986
▁ीजे	-987
▁पता	-988
▁ारा	-989
▁कंपनी	-990
▁ंप	-991
▁ेक्	-992
▁कहना	-993
▁15	-994
▁्रभ	-995
ब्	-996
दि	-997
▁फर	-998
सि	-999
▁भाव	-1000
▁वजह	-1001
▁मेंट	-1002
▁स्था	-1003
▁इसे	-1004
क्षक	-1005
▁तेज	-1006
▁12	-1007
▁शादी	-1008
तम	-1009
▁बर	-1010
▁म्म	-1011
▁म्	-1012
▁त्र	-1013
▁पल	-1014
▁ार्थ	-1015
ष्ठ	-1016
ोजन	-1017
▁सौ	-1018
▁दिनों	-1019
▁हाथ	-1020
▁माण	-1021
▁सें	-1022
▁वर्ष	-1023
▁युक्त	-1024
शि	-1025
पाल	-1026
▁करता	-1027
▁मज	-1028
▁जैसे	-1029
▁सांस	-1030
▁्रीय	-1031
▁हों	-1032
▁साइ	-1033
▁नजर	-1034
▁पूरा	-1035
बू	-1036
▁बिज	-1037
▁सेवा	-1038
▁तरफ	-1039
▁बल	-1040
▁पक्ष	-1041
▁विवा	-1042
▁आयोजन	-1043
▁बिहार	-1044
▁दिव	-1045
आई	-1046
▁सच	-1047
▁भाई	-1048
▁मुझ	-1049
▁ताबिक	-1050
▁ीद	-1051
▁हू	-1052
▁ास्	-1053
▁होती	-1054
▁पकड़	-1055
केट	-1056
▁ट्रेन	-1057
▁दुकान	-1058
▁सवाल	-1059
▁वाला	-1060
ारे	-1061
▁महीने	-1062
▁स्प	-1063
▁फो	-1064
▁निकाल	-1065
▁श्च	-1066
ट्	-1067
▁ास	-1068
▁शी	-1069
▁बनाने	-1070
▁घंटे	-1071
▁ऐसा	-1072
▁थाने	-1073
▁ियाणा	-1074
▁अति	-1075
▁ीजेपी	-1076
▁हाद	-1077
▁नंबर	-1078
▁जुड़	-1079
ेष	-1080
▁ाबा	-1081
▁11	-1082
▁विशेष	-1083
▁रेश	-1084
▁पत्र	-1085
▁वै	-1086
लेज	-1087
▁न्याय	-1088
▁ष्ट	-1089
▁हाई	-1090
▁ोमवार	-1091
ये	-1092
सम	-1093
▁रण	-1094
▁गातार	-1095
ड़ित	-1096
रण	-1097
▁ॉलेज	-1098
▁जून	-1099
▁ेगी	-1100
▁पूरे	-1101
▁जिससे	-1102
ष्ण	-1103
ग्र	-1104
▁निय	-1105
▁घोष	-1106
▁्थिति	-1107
न्	-1108
▁स्तान	-1109
▁n	-1110
▁सीएम	-1111
▁केस	-1112
▁पार्	-1113
▁इसकी	-1114
▁चाल	-1115
▁शन	-1116
▁नई	-1117
▁छोड़	-1118
▁सांसद	-1119
▁मस्	-1120
▁शनि	-1121
▁मेर	-1122
▁लड़क	-1123
▁राय	-1124
▁ाड़	-1125
▁ेशन	-1126
▁संस्	-1127
धि	-1128
योग	-1129
▁नौ	-1130
▁विश्व	-1131
▁P	-1132
र्य	-1133
▁ाउ	-1134
▁सकती	-1135
▁भो	-1136
▁शत	-1137
ेस	-1138
▁लगाया	-1139
▁ाबाद	-1140
▁पहली	-1141
▁वन	-1142
▁ेट	-1143
▁ब्	-1144
ाइ	-1145
रोध	-1146
▁मिलने	-1147
▁फोन	-1148
▁s	-1149
▁िगम	-1150
▁बॉ	-1151
▁लॉ	-1152
▁लगे	-1153
▁बस	-1154
हम	-1155
▁रोक	-1156
▁एफ	-1157
▁नाथ	-1158
▁बड़े	-1159
▁मुझे	-1160
▁इसका	-1161
▁कराया	-1162
▁धानम	-1163
▁एल	-1164
▁गांधी	-1165
▁उत्तर	-1166
▁भगवान	-1167
▁गंभी	-1168
▁गंभीर	-1169
▁पांच	-1170
▁हूं	-1171
त्म	-1172
▁30	-1173
▁एंगे	-1174
▁कलेक्	-1175
▁्रम	-1176
▁विरोध	-1177
ियों	-1178
▁डिग्र	-1179
▁कर्ता	-1180
▁I	-1181
र्थ	-1182
▁आधार	-1183
▁सचिव	-1184
▁मृतक	-1185
▁पंजा	-1186
▁ची	-1187
▁चला	-1188
▁B	-1189
▁खान	-1190
▁समझ	-1191
▁लड़	-1192
▁दार	-1193
वरी	-1194
▁मैच	-1195
▁देते	-1196
लिए	-1197
▁इसलिए	-1198
चा	-1199
▁र्ष	-1200
▁पंजाब	-1201
▁माह	-1202
द्द	-1203
▁शुक्र	-1204
▁हार	-1205
▁आम	-1206
▁जल	-1207
▁गण	-1208
▁श्	-1209
िम	-1210
▁ुध	-1211
लास	-1212
▁जमी	-1213
▁बेह	-1214
गत	-1215
▁ाद	-1216
▁शनिवा	-1217
▁स्तर	-1218
▁रविवा	-1219
▁वाप	-1220
▁चर्च	-1221
▁योजित	-1222
▁भेज	-1223
▁बनाया	-1224
▁नए	-1225
▁ुक	-1226
▁मंडल	-1227
▁िक्षा	-1228
▁बड़ा	-1229
▁ंट	-1230
▁एड	-1231
▁घा	-1232
▁इलाज	-1233
▁जमीन	-1234
▁करे	-1235
▁ुधवार	-1236
▁जाती	-1237
▁खुद	-1238
क्षण	-1239
स्टम	-1240
▁ताप	-1241
▁रीय	-1242
▁कल	-1243
ठन	-1244
चान	-1245
▁वापस	-1246
▁प्रा	-1247
▁भर्	-1248
▁संबंध	-1249
▁पूजा	-1250
▁ंत	-1251
▁आस	-1252
▁पहचान	-1253
▁रुपये	-1254
▁गल	-1255
▁बज	-1256
▁ाते	-1257
▁बैंक	-1258
▁शुरु	-1259
त्त	-1260
▁ाप्त	-1261
▁्प	-1262
▁अच्छ	-1263
▁ेंड	-1264
▁्व	-1265
▁थान	-1266
▁N	-1267
▁ब्र	-1268
▁खड़	-1269
▁हिंद	-1270
▁ेड़	-1271
▁मौसम	-1272
▁M	-1273
▁डाल	-1274
▁सामान	-1275
▁तु	-1276
ार्ड	-1277
▁नीति	-1278
▁मीटर	-1279
▁न्द्र	-1280
▁जेल	-1281
▁बाजार	-1282
्वर	-1283
▁सम्	-1284
▁तापम	-1285
िका	-1286
▁धर्म	-1287
▁रेशान	-1288
▁समेत	-1289
▁ेंस	-1290
▁आदेश	-1291
▁लगी	-1292
▁गै	-1293
▁बिजली	-1294
▁उसका	-1295
जि	-1296
वेश	-1297
▁लाइन	-1298
▁भर्ती	-1299
▁50	-1300
▁गी	-1301
▁सित	-1302
▁दल	-1303
तन	-1304
▁चो	-1305
▁वोट	-1306
▁बेटे	-1307
▁लेने	-1308
▁रंग	-1309
▁जवा	-1310
▁होते	-1311
▁पट	-1312
▁ोर	-1313
▁समिति	-1314
▁ोह	-1315
शी	-1316
▁शुरुआ	-1317
▁शाह	-1318
▁देर	-1319
▁बच्चे	-1320
▁शो	-1321
▁राहुल	-1322
▁िरा	-1323
▁सर्व	-1324
▁रकारी	-1325
▁फा	-1326
प्	-1327
▁यन	-1328
▁दोप	-1329
▁बया	-1330
▁बयान	-1331
▁ेल	-1332
▁होकर	-1333
▁जुलाई	-1334
▁ेता	-1335
▁25	-1336
▁काल	-1337
▁जनता	-1338
दन	-1339
▁सुर	-1340
ियान	-1341
▁भियान	-1342
▁बेटी	-1343
▁तौर	-1344
▁्वा	-1345
िन्न	-1346
▁भिन्न	-1347
▁बू	-1348
▁मिन	-1349
▁पुत्र	-1350
▁साह	-1351
▁चलते	-1352
डी	-1353
▁गत	-1354
▁वीर	-1355
▁बदल	-1356
शा	-1357
▁रम	-1358
▁चोरी	-1359
वल	-1360
▁ंब	-1361
▁योंकि	-1362
▁दान	-1363
▁पे	-1364
▁शां	-1365
▁लौ	-1366
▁नीत	-1367
▁थीं	-1368
▁रखा	-1369
▁गंज	-1370
▁ट्रै	-1371
▁बल्	-1372
▁जवाब	-1373
▁चर्चा	-1374
▁चुके	-1375
▁ोज	-1376
शल	-1377
▁तल	-1378
ेंस	-1379
▁ुर	-1380
▁दोपहर	-1381
▁पीछ	-1382
▁डे	-1383
▁दूसरी	-1384
▁ध्या	-1385
▁करके	-1386
▁सोशल	-1387
▁ाप	-1388
▁पूर्ण	-1389
▁कट	-1390
▁ज्ञान	-1391
▁ोबा	-1392
▁अगस्त	-1393
ायत	-1394
▁ीट	-1395
▁ंचायत	-1396
▁i	-1397
क्स	-1398
▁जाते	-1399
▁टिक	-1400
▁युवा	-1401
▁्थ्य	-1402
▁विजय	-1403
▁यां	-1404
▁मिले	-1405
▁मेरिक	-1406
▁घाट	-1407
▁मदद	-1408
षद	-1409
▁मस्या	-1410
▁तथा	-1411
र्स	-1412
▁स्वास	-1413
▁फ्	-1414
दात	-1415
▁जीवन	-1416
यास	-1417
▁अवसर	-1418
▁्रयास	-1419
ग्	-1420
▁ागर	-1421
▁रेलवे	-1422
▁सिर्फ	-1423
थम	-1424
▁माता	-1425
▁होंगे	-1426
▁R	-1427
▁विवाद	-1428
▁ंस	-1429
▁ीदवार	-1430
▁जल्	-1431
षण	-1432
▁दूर	-1433
▁त्य	-1434
▁उम्म	-1435
▁वाहन	-1436
ha	-1437
▁जयपुर	-1438
▁रोल	-1439
▁ाज	-1440
▁थानी	-1441
▁चुकी	-1442
▁फैस	-1443
▁ोबाइल	-1444
▁अपरा	-1445
▁तोड़	-1446
▁देवी	-1447
▁कौ	-1448
▁ंक	-1449
▁ाक	-1450
खंड	-1451
▁थानीय	-1452
स्थ	-1453
▁धन	-1454
▁पेश	-1455
▁ोर्ट	-1456
▁बिल	-1457
▁मध्य	-1458
▁इंडिय	-1459
▁बोल	-1460
▁गाड़ी	-1461
ियर	-1462
▁तृ	-1463
▁खरी	-1464
▁मेरे	-1465
ुख	-1466
▁निर	-1467
▁वालों	-1468
▁तला	-1469
▁बनाए	-1470
▁ुन	-1471
▁जल्द	-1472
▁्रमुख	-1473
▁रियों	-1474
▁दौ	-1475
▁धम	-1476
▁पेट	-1477
▁िप	-1478
▁राशि	-1479
▁महत्व	-1480
▁पोस्ट	-1481
िंग	-1482
मत	-1483
▁्यू	-1484
▁र्म	-1485
▁देखा	-1486
▁पाकि	-1487
▁मार्ग	-1488
▁लगभ	-1489
▁ोड़	-1490
▁इंटर	-1491
▁लगभग	-1492
ाला	-1493
▁करती	-1494
▁ाध्य	-1495
▁अपराध	-1496
▁जैन	-1497
▁ाध	-1498
▁रिया	-1499
▁कप	-1500
▁ाली	-1501
▁ीकर	-1502
▁शराब	-1503
▁इलाके	-1504
▁नेशन	-1505
▁दिस	-1506
▁इंद	-1507
▁रै	-1508
▁पार	-1509
ैध	-1510
▁अवैध	-1511
▁िस्	-1512
▁विष	-1513
▁जम	-1514
▁आदि	-1515
▁लाइ	-1516
▁ाध्यम	-1517
▁संत	-1518
▁अंत	-1519
▁बराम	-1520
ेड	-1521
▁ेज	-1522
▁14	-1523
▁चंद्र	-1524
▁आवे	-1525
▁िंद	-1526
▁रोह	-1527
▁िर	-1528
▁शेयर	-1529
▁स्थल	-1530
▁वीं	-1531
▁बरामद	-1532
▁उद्	-1533
▁खरीद	-1534
▁13	-1535
▁ंज	-1536
▁अंदर	-1537
▁धर	-1538
▁अक्	-1539
▁्टेशन	-1540
▁मई	-1541
▁इस्	-1542
▁नोट	-1543
▁हॉ	-1544
▁इंदौर	-1545
▁करण	-1546
केश	-1547
▁किलो	-1548
▁पुरा	-1549
▁कृष्ण	-1550
▁D	-1551
▁सके	-1552
श्	-1553
▁फ़	-1554
▁24	-1555
▁उम	-1556
▁कोश	-1557
ाराज	-1558
▁सवार	-1559
▁टूबर	-1560
▁कोशिश	-1561
▁सितंब	-1562
▁ीना	-1563
▁हमारे	-1564
▁कहते	-1565
▁चुन	-1566
पीट	-1567
▁ारपीट	-1568
▁पीएम	-1569
विध	-1570
▁ंडा	-1571
▁एज	-1572
▁ांग	-1573
थि	-1574
▁जरूर	-1575
▁कभी	-1576
▁त्या	-1577
▁आश	-1578
ल्ड	-1579
▁ीं	-1580
▁अभि	-1581
▁पीछे	-1582
▁अर	-1583
▁वाड़	-1584
▁ंचाल	-1585
▁ेडिक	-1586
▁िव	-1587
▁दिसंब	-1588
▁ांक	-1589
▁लौट	-1590
▁ूर्	-1591
▁ेयर	-1592
▁दिवस	-1593
▁चुका	-1594
▁एयर	-1595
▁हमला	-1596
▁संगठन	-1597
▁शुभ	-1598
▁मैंने	-1599
▁नरे	-1600
▁इम	-1601
▁क्य	-1602
▁पदा	-1603
छता	-1604
▁व्या	-1605
रीज	-1606
▁हादसे	-1607
▁ेडिकल	-1608
▁इत	-1609
▁तलाश	-1610
बल	-1611
▁देकर	-1612
▁वाद	-1613
▁भि	-1614
▁जाना	-1615
▁कें	-1616
छताछ	-1617
▁ूछताछ	-1618
▁मर्थ	-1619
▁सीसी	-1620
काश	-1621
▁गुप्त	-1622
ैंड	-1623
▁्रकाश	-1624
माश	-1625
▁बदमाश	-1626
▁ेश्वर	-1627
कों	-1628
▁केंद्	-1629
▁नवंबर	-1630
त्य	-1631
▁भाष	-1632
▁आवेदन	-1633
मि	-1634
पास	-1635
▁लिखा	-1636
▁आसपास	-1637
▁खास	-1638
▁ीड़ित	-1639
▁चे	-1640
▁ांड	-1641
▁कान	-1642
▁ीर	-1643
▁बंधित	-1644
▁प्री	-1645
▁वाह	-1646
▁ट्री	-1647
▁नर	-1648
▁पर्य	-1649
▁प्ले	-1650
▁रस	-1651
▁केवल	-1652
▁मतदान	-1653
▁16	-1654
▁प्ल	-1655
▁बने	-1656
▁खंड	-1657
▁र्ड	-1658
ताव	-1659
▁टै	-1660
▁चौध	-1661
▁राइ	-1662
▁त्याश	-1663
▁िता	-1664
▁आपको	-1665
▁लख	-1666
▁केट	-1667
▁चौधरी	-1668
▁चै	-1669
▁ांस	-1670
▁्रा	-1671
▁बिना	-1672
▁फोट	-1673
▁परिस	-1674
▁वाया	-1675
▁ेन	-1676
▁ब्ल	-1677
▁एक्सप	-1678
▁भोपाल	-1679
साद	-1680
▁नेशनल	-1681
▁राव	-1682
▁मजबू	-1683
▁एच	-1684
▁देखने	-1685
▁हरा	-1686
▁खेत	-1687
▁्रसाद	-1688
▁मिनट	-1689
▁छोट	-1690
किल	-1691
▁तारी	-1692
▁मोहन	-1693
▁ध्यान	-1694
▁40	-1695
▁खिल	-1696
▁ेताओं	-1697
विधा	-1698
▁ुविधा	-1699
▁नदी	-1700
▁हमें	-1701
ेर	-1702
▁कों	-1703
▁वाई	-1704
▁18	-1705
▁ीए	-1706
▁पड़ा	-1707
▁क्रम	-1708
▁क्यों	-1709
▁रव	-1710
▁मॉ	-1711
ल्ल	-1712
▁भारी	-1713
▁कं	-1714
▁ाग	-1715
▁ेदार	-1716
▁बचा	-1717
▁िक्र	-1718
▁जुट	-1719
▁मार्च	-1720
▁वार्ड	-1721
▁लाभ	-1722
▁खबर	-1723
▁थाप	-1724
▁मंत्र	-1725
▁ाही	-1726
▁होना	-1727
▁्रि	-1728
▁अमित	-1729
▁कर्मच	-1730
▁बोर्ड	-1731
▁जन्म	-1732
▁17	-1733
▁पढ़ें	-1734
▁सफल	-1735
▁t	-1736
▁/	-1737
▁ुल	-1738
▁वर्ग	-1739
ूड	-1740
ात	-1741
▁चरण	-1742
▁ओवर	-1743
▁देखते	-1744
▁चालक	-1745
▁र्स	-1746
▁श्चिम	-1747
▁शं	-1748
▁साफ	-1749
▁ियर	-1750
▁कैसे	-1751
▁न्यू	-1752
▁ूम	-1753
▁टिकट	-1754
▁कल्	-1755
▁टेस्ट	-1756
▁बनी	-1757
▁फरार	-1758
▁्ल	-1759
▁भवन	-1760
▁दर्श	-1761
▁दोस्त	-1762
▁नीतिक	-1763
▁ंघ	-1764
▁गोली	-1765
निय	-1766
▁ठा	-1767
▁उपस्थ	-1768
▁ष्ठ	-1769
▁यानी	-1770
▁कराने	-1771
▁गर्	-1772
▁अग्र	-1773
वाज	-1774
▁विकेट	-1775
▁घु	-1776
▁जिसे	-1777
▁िस्सा	-1778
चे	-1779
दीप	-1780
▁ीम	-1781
▁र्द	-1782
▁सिल	-1783
्रा	-1784
▁मनो	-1785
▁ीणों	-1786
▁ेह	-1787
▁जनवरी	-1788
▁िटल	-1789
▁बदला	-1790
▁प्रक्	-1791
▁कड़	-1792
ra	-1793
▁निधि	-1794
▁भे	-1795
▁ावना	-1796
▁अहम	-1797
▁कीमत	-1798
▁हास	-1799
▁ानी	-1800
▁मारो	-1801
▁ोस्टम	-1802
▁ख़	-1803
▁वश	-1804
▁र्थ	-1805
▁अंतर	-1806
▁सीटों	-1807
▁तीस	-1808
▁रें	-1809
▁पदाध	-1810
▁सल	-1811
▁22	-1812
▁तय	-1813
▁गौर	-1814
▁अगले	-1815
▁्रप	-1816
▁ील	-1817
▁चार्य	-1818
▁मारोह	-1819
ेंद	-1820
▁फॉ	-1821
ूब	-1822
▁संघ	-1823
▁स्वी	-1824
▁हस	-1825
▁जाय	-1826
▁ामा	-1827
▁संजय	-1828
ब्ध	-1829
▁अद	-1830
▁फीस	-1831
▁l	-1832
▁फर्	-1833
▁ठी	-1834
▁पलब्ध	-1835
▁श्रद्	-1836
▁सहयोग	-1837
▁गेट	-1838
▁आयोग	-1839
▁दुर्	-1840
▁लगाए	-1841
▁वायर	-1842
▁त्म	-1843
▁भेजा	-1844
▁गलत	-1845
▁जिलों	-1846
▁फोटो	-1847
▁िड	-1848
दार	-1849
▁्त	-1850
▁अधि	-1851
▁मं	-1852
▁्ड	-1853
▁धु	-1854
▁दय	-1855
▁र्व	-1856
▁दावा	-1857
▁मना	-1858
▁जिम्म	-1859
ंबई	-1860
▁ऐसी	-1861
▁e	-1862
▁मुंबई	-1863
▁पन	-1864
▁ांव	-1865
▁नल	-1866
▁िम	-1867
▁कार्ड	-1868
▁तृत्व	-1869
क्ति	-1870
सव	-1871
▁साध	-1872
▁यूपी	-1873
▁रखने	-1874
▁गर्मी	-1875
▁पैसे	-1876
▁चौक	-1877
▁ूर्ति	-1878
क्ट	-1879
▁ग्रह	-1880
▁दुनिय	-1881
▁एंट	-1882
▁ताकि	-1883
▁व्याप	-1884
▁नीचे	-1885
▁र्मचा	-1886
दम	-1887
ैल	-1888
▁पूछ	-1889
▁मूल	-1890
▁पटना	-1891
▁माना	-1892
▁प्रैल	-1893
▁ीप	-1894
▁टक्	-1895
▁कब्	-1896
▁तरी	-1897
▁उर्फ	-1898
▁धारा	-1899
▁लगाने	-1900
▁ीक्षक	-1901
▁म्मी	-1902
▁ीस	-1903
▁ीनियर	-1904
▁पण	-1905
▁वश्य	-1906
▁टक्कर	-1907
▁बल्कि	-1908
▁K	-1909
▁रत	-1910
▁सौंप	-1911
▁इनमें	-1912
▁नियम	-1913
▁जाम	-1914
▁तुल	-1915
▁रिल	-1916
▁िदेश	-1917
▁दरअ	-1918
▁फायर	-1919
▁बेहतर	-1920
▁र्ज	-1921
▁दरअसल	-1922
▁सर्	-1923
▁ूर्ण	-1924
▁सिर	-1925
▁जाकर	-1926
▁द्य	-1927
▁प्रीम	-1928
▁E	-1929
▁लखन	-1930
▁लादेश	-1931
▁लिय	-1932
▁सिटी	-1933
▁टाइ	-1934
▁टन	-1935
▁िए	-1936
▁डा	-1937
▁फैसला	-1938
▁बांग्	-1939
▁सीमा	-1940
▁घोषणा	-1941
▁ून	-1942
▁हासिल	-1943
नात	-1944
▁डेट	-1945
▁ट्रक	-1946
▁मकान	-1947
▁तैनात	-1948
▁टॉ	-1949
▁कल्प	-1950
▁रल	-1951
▁मेल	-1952
▁ेदारी	-1953
माल	-1954
▁तस्	-1955
▁वक्त	-1956
▁तेमाल	-1957
▁सदर	-1958
▁ीत	-1959
▁मैदान	-1960
▁्रपति	-1961
▁रहते	-1962
शु	-1963
▁19	-1964
▁ड्ड	-1965
▁ुरा	-1966
▁्रेस	-1967
▁शिक्ष	-1968
लों	-1969
▁वृ	-1970
▁ेक्टर	-1971
▁रिकेट	-1972
▁आख	-1973
▁हमने	-1974
▁ाता	-1975
▁्रधान	-1976
▁21	-1977
▁बेच	-1978
▁ॉलो	-1979
▁तत्	-1980
▁कानून	-1981
▁ीएम	-1982
▁बाबा	-1983
▁कहीं	-1984
▁a	-1985
सत	-1986
▁रहेगा	-1987
▁काट	-1988
▁वक्	-1989
▁्रकार	-1990
▁T	-1991
▁उच	-1992
▁ऊपर	-1993
▁फाइन	-1994
▁पौ	-1995
▁ेम	-1996
▁हालत	-1997
▁कॉर्ड	-1998
ोक	-1999
ल्क	-2000
▁ाथम	-2001
▁दास	-2002
▁लक्ष	-2003
हाल	-2004
▁ाड़ी	-2005
▁िलहाल	-2006
▁ेय	-2007
▁िन्	-2008
▁खोल	-2009
▁ेना	-2010
▁वित्त	-2011
▁सैन	-2012
▁तीनों	-2013
चीत	-2014
▁ातचीत	-2015
▁गृ	-2016
▁गृह	-2017
▁दश	-2018
▁बोले	-2019
▁खराब	-2020
▁परिसर	-2021
▁ारखंड	-2022
▁ेस	-2023
▁वश्यक	-2024
▁रिज	-2025
▁वायरल	-2026
▁ाथमिक	-2027
▁ठीक	-2028
▁नया	-2029
▁बनने	-2030
▁क्ल	-2031
▁पत्ति	-2032
बी	-2033
▁पार्क	-2034
▁गंगा	-2035
▁जमा	-2036
▁जरूरत	-2037
▁रं	-2038
▁शंकर	-2039
▁ॉल	-2040
▁सुनी	-2041
▁रोज	-2042
▁मेरी	-2043
▁खुल	-2044
▁बहन	-2045
▁विचार	-2046
▁थानों	-2047
▁ावत	-2048
▁िटी	-2049
▁खत्म	-2050
▁सेंटर	-2051
▁काली	-2052
▁टि	-2053
▁कराई	-2054
▁ुनवाई	-2055
बंधन	-2056
▁यही	-2057
▁ठबंधन	-2058
▁घोषित	-2059
टक	-2060
▁निजी	-2061
▁स्टूड	-2062
▁भीड़	-2063
▁सेक्	-2064
▁हिस्	-2065
▁वें	-2066
▁िंदर	-2067
▁म्मान	-2068
▁हन	-2069
▁मनी	-2070
▁पांड	-2071
▁म्मीद	-2072
▁लखनऊ	-2073
षि	-2074
▁ुट	-2075
▁लूट	-2076
▁जवान	-2077
▁त्व	-2078
▁आपके	-2079
▁सात	-2080
▁स्ल	-2081
▁ागरिक	-2082
▁िट	-2083
▁पहला	-2084
▁याच	-2085
▁राउ	-2086
▁ाइव	-2087
▁ायल	-2088
▁लव	-2089
स्था	-2090
▁होटल	-2091
▁जिन्ह	-2092
▁ूं	-2093
▁रानी	-2094
▁न्ना	-2095
▁िलकर	-2096
▁चीन	-2097
तिम	-2098
▁ोट	-2099
▁उठा	-2100
▁जोर	-2101
▁रेड	-2102
▁सागर	-2103
▁द्योग	-2104
▁अंतिम	-2105
▁वेद	-2106
▁बाग	-2107
▁अंतर्	-2108
▁मजबूत	-2109
▁वास	-2110
▁परिषद	-2111
▁ाओं	-2112
▁कॉन्	-2113
▁सफाई	-2114
▁कृत	-2115
▁बंग	-2116
▁िश्न	-2117
▁ड़ा	-2118
▁रोहित	-2119
▁मित	-2120
▁वाने	-2121
▁कॉल	-2122
▁ोत्	-2123
ेटी	-2124
▁कमेटी	-2125
▁प्रेम	-2126
▁भिष	-2127
▁रखी	-2128
▁्रवेश	-2129
▁लु	-2130
▁कमी	-2131
▁ात्र	-2132
▁हमारी	-2133
▁उच्च	-2134
▁पाया	-2135
▁ौर	-2136
▁तभी	-2137
▁देना	-2138
▁क़	-2139
▁रोब	-2140
▁G	-2141
▁जरिए	-2142
▁ल्या	-2143
▁भिषेक	-2144
▁एंड	-2145
▁ोली	-2146
▁र्षी	-2147
▁थिय	-2148
▁र्षीय	-2149
▁सिद्ध	-2150
▁िक्षक	-2151
▁धमकी	-2152
▁रक्षण	-2153
▁26	-2154
▁आं	-2155
▁ीक	-2156
▁उतर	-2157
▁हे	-2158
▁लगाई	-2159
▁हिंदू	-2160
▁यूनि	-2161
ानक	-2162
▁नाल	-2163
▁चिक	-2164
ालत	-2165
▁सही	-2166
▁अचानक	-2167
▁क्ष्य	-2168
▁स्ताव	-2169
▁अदालत	-2170
▁महारा	-2171
▁कब	-2172
▁ोय	-2173
▁साब	-2174
▁करवा	-2175
▁अग्रव	-2176
▁रिष्ठ	-2177
▁पाठ	-2178
▁चिकित	-2179
▁ालू	-2180
▁क्षि	-2181
▁भूमि	-2182
▁100	-2183
▁जोड़	-2184
▁मर्थन	-2185
▁आते	-2186
▁लाग	-2187
▁ारदात	-2188
▁F	-2189
▁लित	-2190
▁फल	-2191
▁चाहते	-2192
▁अश	-2193
▁ॉलोनी	-2194
▁ोल	-2195
▁उसी	-2196
▁ीक्षण	-2197
▁कारी	-2198
▁स्तुत	-2199
▁क्षण	-2200
▁कूल	-2201
▁सपा	-2202
▁अशोक	-2203
▁निवेश	-2204
▁अंक	-2205
▁उम्र	-2206
▁जाति	-2207
▁ावजूद	-2208
▁इंत	-2209
▁ायब	-2210
▁लागू	-2211
▁23	-2212
▁ूस	-2213
▁ेंडर	-2214
▁ग्	-2215
▁ैम	-2216
▁गौ	-2217
▁त्त	-2218
▁ल्याण	-2219
▁धारित	-2220
्ड	-2221
जों	-2222
▁उनसे	-2223
▁प्रिय	-2224
▁आन	-2225
▁केज	-2226
▁पटेल	-2227
▁शांति	-2228
▁यर	-2229
▁न्न	-2230
▁कौन	-2231
▁टूट	-2232
▁सहा	-2233
▁ाराय	-2234
▁याचिक	-2235
▁गेंद	-2236
▁नौकर	-2237
▁कही	-2238
▁शिक	-2239
▁दम	-2240
▁ारायण	-2241
▁बदलाव	-2242
▁शक्ति	-2243
▁्ष	-2244
▁तुर	-2245
▁लैंड	-2246
▁थियार	-2247
दाय	-2248
▁हट	-2249
on	-2250
▁बांध	-2251
▁मजद	-2252
▁छोटे	-2253
▁सिव	-2254
▁योगित	-2255
▁रूम	-2256
र्ष	-2257
▁भावित	-2258
▁रिक्त	-2259
ील	-2260
▁वक्ता	-2261
▁वर्मा	-2262
▁श्चित	-2263
▁जरू	-2264
▁र्ट	-2265
▁लान	-2266
▁बनाकर	-2267
पन	-2268
ar	-2269
▁ित्र	-2270
▁षित	-2271
▁त्रि	-2272
▁ारे	-2273
▁ंदन	-2274
▁रुक	-2275
▁शेख	-2276
▁सजा	-2277
▁ऋ	-2278
▁डिज	-2279
▁सहाय	-2280
▁दिखाई	-2281
▁सां	-2282
▁ुकसान	-2283
▁र्क	-2284
▁ाइज	-2285
▁ऑफिस	-2286
▁तिहा	-2287
▁विदेश	-2288
▁स्टार	-2289
चन	-2290
▁रहता	-2291
▁रोबार	-2292
▁जरूरी	-2293
▁किस	-2294
▁सत्	-2295
▁दिग्	-2296
ुप	-2297
▁टाल	-2298
▁मारी	-2299
▁बंधन	-2300
▁ांकन	-2301
▁िफ्	-2302
▁बंगाल	-2303
▁राउंड	-2304
▁उससे	-2305
▁अजय	-2306
▁तने	-2307
▁आवास	-2308
▁उपयोग	-2309
▁न्य	-2310
▁स्म	-2311
▁ास्ते	-2312
▁पीड़ित	-2313
▁हॉस्प	-2314
an	-2315
▁ैक	-2316
▁सार	-2317
▁हिस्स	-2318
▁िफ्ट	-2319
▁मजदूर	-2320
▁असर	-2321
▁चित	-2322
▁पाई	-2323
▁बनाई	-2324
▁्त्र	-2325
▁करेगी	-2326
▁सकें	-2327
▁ेस्ट	-2328
▁नो	-2329
▁ाइन	-2330
▁तिहास	-2331
▁गोल	-2332
▁फैल	-2333
उट	-2334
▁आउट	-2335
▁किश	-2336
▁क्ति	-2337
▁हवा	-2338
▁आत्म	-2339
▁ष्ट्र	-2340
▁आत	-2341
▁ीकरण	-2342
▁राहत	-2343
▁िज	-2344
▁्म	-2345
▁ग्रुप	-2346
सद	-2347
▁कर्मी	-2348
▁लक्ष्	-2349
▁28	-2350
▁अज	-2351
▁क्क	-2352
▁युवती	-2353
▁ोत	-2354
▁तरीके	-2355
▁्रदान	-2356
▁इक	-2357
▁प्शन	-2358
▁िश्रा	-2359
खिल	-2360
▁प्त	-2361
▁ुर्	-2362
▁लगने	-2363
▁इंतजा	-2364
▁योध्य	-2365
▁क्रिय	-2366
▁जब्त	-2367
▁राइवर	-2368
▁ीवी	-2369
▁U	-2370
▁रंप	-2371
▁ाला	-2372
▁सीसीट	-2373
▁ूमिका	-2374
▁चय	-2375
▁कॉम	-2376
▁्यु	-2377
▁धू	-2378
▁लंब	-2379
▁क्षिण	-2380
▁चोट	-2381
▁31	-2382
▁चेक	-2383
▁डीए	-2384
▁ेल्	-2385
▁जिनक	-2386
▁सुख	-2387
▁किशोर	-2388
▁ताला	-2389
▁ट्रां	-2390
▁शील	-2391
रात	-2392
▁27	-2393
▁ाण	-2394
▁वान	-2395
▁र्डर	-2396
▁एजेंस	-2397
ीज	-2398
▁आनंद	-2399
▁्वागत	-2400
धर	-2401
▁घुस	-2402
▁च्छ	-2403
▁कड़ी	-2404
▁तुरंत	-2405
▁रिलीज	-2406
▁हटा	-2407
▁इतना	-2408
▁वॉ	-2409
▁रजि	-2410
▁हमले	-2411
▁नम	-2412
सील	-2413
▁कपूर	-2414
▁तहसील	-2415
▁रजिस्	-2416
▁ाहनों	-2417
िग	-2418
▁यम	-2419
▁बजट	-2420
▁खर्च	-2421
▁ैया	-2422
▁्रचार	-2423
▁णय	-2424
▁लर	-2425
▁श्म	-2426
▁ेरा	-2427
▁दिशा	-2428
▁वर्क	-2429
▁दोष	-2430
▁ॉर्ट	-2431
▁्रता	-2432
▁इंट	-2433
▁नौकरी	-2434
▁लगाकर	-2435
▁िफ	-2436
▁प्प	-2437
▁राग	-2438
▁िंक	-2439
▁बीमार	-2440
▁नला	-2441
▁खिलाड	-2442
▁सलमान	-2443
उस	-2444
▁अमर	-2445
▁मुख	-2446
▁मिशन	-2447
▁फरवरी	-2448
▁णी	-2449
▁ुआ	-2450
▁उपा	-2451
▁मेरा	-2452
▁शांत	-2453
▁ालिका	-2454
▁टा	-2455
▁ुज	-2456
▁र्य	-2457
▁उपाध	-2458
▁L	-2459
▁धाल	-2460
▁कृषि	-2461
▁संसद	-2462
▁बालिग	-2463
▁राजेश	-2464
▁बीते	-2465
▁लगता	-2466
▁नलाइन	-2467
▁मुद्द	-2468
▁राध	-2469
▁रेट	-2470
▁तेल	-2471
▁ैंड	-2472
▁तेजी	-2473
▁सूर्य	-2474
▁ंध	-2475
▁काउ	-2476
▁हनु	-2477
▁आवाज	-2478
▁घरों	-2479
▁चांद	-2480
▁छत्त	-2481
▁कदम	-2482
▁ठाक	-2483
▁लेते	-2484
▁गर	-2485
▁हाउस	-2486
▁सीटें	-2487
▁वर	-2488
▁र्थिक	-2489
▁सिविल	-2490
▁ीश	-2491
▁गार	-2492
▁यदि	-2493
▁ज्ञात	-2494
▁बीर	-2495
ीर	-2496
▁दीपक	-2497
▁इलेक्	-2498
▁ृत	-2499
▁नोटिस	-2500
▁ः	-2501
▁ेला	-2502
▁फीसदी	-2503
▁बताते	-2504
▁फाय	-2505
▁ायक	-2506
▁ास्त	-2507
▁पॉ	-2508
र्क	-2509
▁छह	-2510
▁रहेगी	-2511
▁ोक	-2512
▁फंस	-2513
▁पौध	-2514
▁ारं	-2515
▁मालिक	-2516
▁लाका	-2517
▁्यास	-2518
▁ास्कर	-2519
▁लेख	-2520
▁ंस्था	-2521
▁कमल	-2522
▁क्यू	-2523
▁जमकर	-2524
▁ारंभ	-2525
्याम	-2526
▁नेट	-2527
▁विषय	-2528
▁श्याम	-2529
▁अर्	-2530
▁लाकात	-2531
ताह	-2532
▁मू	-2533
▁सेव	-2534
▁एक्ट	-2535
▁बेटा	-2536
▁शाला	-2537
▁आयु	-2538
▁चले	-2539
▁भजन	-2540
▁हाय	-2541
▁धालु	-2542
▁प्ताह	-2543
▁आइ	-2544
▁ाठ	-2545
▁मैन	-2546
▁सीध	-2547
▁तस्कर	-2548
ोध	-2549
गढ़	-2550
▁धाम	-2551
▁करेगा	-2552
▁नाराज	-2553
▁ीसगढ़	-2554
▁जू	-2555
▁कला	-2556
▁गैंग	-2557
▁जेक्ट	-2558
गार	-2559
▁ोप	-2560
▁विज	-2561
▁सला	-2562
▁विष्य	-2563
▁ोजगार	-2564
▁मण	-2565
▁ईडी	-2566
▁लें	-2567
▁उतार	-2568
▁हनुम	-2569
▁डर	-2570
▁सफर	-2571
▁r	-2572
▁खाल	-2573
▁देह	-2574
▁िरासत	-2575
▁वती	-2576
▁संब	-2577
▁डायर	-2578
▁मनोज	-2579
▁सामना	-2580
हम्	-2581
▁ब्द	-2582
▁चौरा	-2583
▁मोहम्	-2584
▁िस्टम	-2585
▁ण्ड	-2586
▁सहायक	-2587
▁ेली	-2588
▁ेव	-2589
▁पीट	-2590
▁लाश	-2591
▁पचार	-2592
▁ूत	-2593
▁ेरी	-2594
▁ठाकुर	-2595
▁m	-2596
▁आव	-2597
▁अपील	-2598
▁रहती	-2599
▁फर्जी	-2600
▁जुड़े	-2601
▁संबोध	-2602
▁्रताप	-2603
▁दूसरा	-2604
▁रेप	-2605
▁हरि	-2606
▁पालन	-2607
▁मंच	-2608
▁यूज	-2609
▁ड़े	-2610
▁नत	-2611
▁हाज	-2612
▁हल	-2613
▁खुलास	-2614
▁दयपुर	-2615
▁एग्	-2616
▁आतंक	-2617
▁श्रम	-2618
▁सीरीज	-2619
▁मिट	-2620
▁जिसकी	-2621
▁हरी	-2622
▁ियम	-2623
ूक	-2624
▁ेग	-2625
▁हिम	-2626
▁हाराज	-2627
▁नार	-2628
▁इन्ह	-2629
▁ोत्सव	-2630
▁राठ	-2631
▁ंचालन	-2632
▁सरा	-2633
▁अनिल	-2634
▁राजा	-2635
▁सुधार	-2636
▁वां	-2637
▁ंजाम	-2638
▁साहू	-2639
▁मतदात	-2640
▁टेन	-2641
▁तवाल	-2642
▁काउंट	-2643
▁देशों	-2644
▁खड़े	-2645
▁लाकों	-2646
▁सुनील	-2647
▁गरी	-2648
▁राइल	-2649
▁ोर्स	-2650
▁रिश	-2651
▁ार्षद	-2652
▁टक	-2653
▁चली	-2654
▁सत्र	-2655
▁29	-2656
▁रमा	-2657
▁्लो	-2658
▁ंपर्क	-2659
▁चौराह	-2660
▁विवाह	-2661
▁देंगे	-2662
▁स्लिम	-2663
▁फार	-2664
▁व्र	-2665
▁ंदोल	-2666
▁मिलते	-2667
▁स्वीर	-2668
▁िद	-2669
ञा	-2670
▁अच्छी	-2671
▁तंत्र	-2672
▁पेट्	-2673
▁योगी	-2674
▁कंपनि	-2675
▁छु	-2676
▁नाई	-2677
▁वर्तम	-2678
▁ाइड	-2679
▁तवाली	-2680
▁बच्ची	-2681
▁र्ग	-2682
साह	-2683
▁त्साह	-2684
▁फाइनल	-2685
▁ामलों	-2686
ांस	-2687
▁लेट	-2688
▁ांत	-2689
▁चना	-2690
▁मेह	-2691
▁जैसी	-2692
▁मंडी	-2693
▁लपुर	-2694
▁रज	-2695
▁बैठे	-2696
▁पोल	-2697
▁जंगल	-2698
▁स्टा	-2699
▁िहार	-2700
▁एक्ट्	-2701
ौत	-2702
▁V	-2703
▁नाग	-2704
ेशल	-2705
▁तिथि	-2706
▁चुनौत	-2707
▁्पेशल	-2708
▁पैर	-2709
▁शान	-2710
▁पर्व	-2711
▁र्सि	-2712
▁सोच	-2713
▁ग्न	-2714
▁कृति	-2715
▁अच्छा	-2716
▁सख	-2717
▁नक्	-2718
▁पहन	-2719
▁फसल	-2720
▁बाज	-2721
▁ेरि	-2722
▁ंदोलन	-2723
तीश	-2724
▁मगर	-2725
▁नीतीश	-2726
▁रांच	-2727
यों	-2728
▁ेंग	-2729
▁भु	-2730
▁सेल	-2731
▁ाएं	-2732
▁;	-2733
▁चर	-2734
▁सोने	-2735
▁आद	-2736
▁ीरे	-2737
▁्राइ	-2738
▁दित्य	-2739
▁ामाजि	-2740
▁फ्र	-2741
ुष	-2742
▁डीसी	-2743
▁श्किल	-2744
▁सुरक्	-2745
▁गति	-2746
▁्रेड	-2747
▁केजरी	-2748
▁H	-2749
▁इंज	-2750
▁यात	-2751
▁ुद्द	-2752
▁क्व	-2753
▁र्प	-2754
▁िला	-2755
▁ांसी	-2756
▁सालों	-2757
▁ड़त	-2758
▁यून	-2759
पाद	-2760
▁टॉप	-2761
▁पंच	-2762
▁मोह	-2763
▁त्पाद	-2764
▁देखकर	-2765
▁चढ़	-2766
ञापन	-2767
▁अलर्ट	-2768
▁्ञापन	-2769
▁जार	-2770
▁पहल	-2771
▁मौका	-2772
▁मल	-2773
▁लका	-2774
▁पुरी	-2775
▁सत्ता	-2776
▁स्तार	-2777
▁्वामी	-2778
▁माय	-2779
▁कीय	-2780
▁दबा	-2781
▁अतिथि	-2782
▁थापित	-2783
▁c	-2784
▁गज	-2785
▁तिक	-2786
▁िनी	-2787
▁ुजरात	-2788
टो	-2789
▁ल्ड	-2790
▁खो	-2791
▁शिविर	-2792
▁साइबर	-2793
▁हेम	-2794
▁ावर	-2795
▁मरीज	-2796
▁व्रत	-2797
▁चार्	-2798
▁ेख	-2799
▁ाटा	-2800
▁्रो	-2801
▁मीणा	-2802
▁तिविध	-2803
▁रैली	-2804
▁एक्टर	-2805
▁उड़	-2806
▁िदेशक	-2807
▁िवारी	-2808
▁गणेश	-2809
▁चलने	-2810
▁ंचालक	-2811
▁आईटी	-2812
▁कूलों	-2813
▁सर्वे	-2814
▁्पष्ट	-2815
ॉक	-2816
▁ीएस	-2817
▁धिकतम	-2818
▁ंदा	-2819
▁इधर	-2820
▁द्ध	-2821
▁छाप	-2822
▁कैंप	-2823
▁मैने	-2824
▁सूत्र	-2825
▁ैर	-2826
▁ऑटो	-2827
▁टर्	-2828
▁ाले	-2829
▁वृद्ध	-2830
प्ट	-2831
▁60	-2832
▁फॉर्म	-2833
▁गन	-2834
▁नू	-2835
▁ाट	-2836
▁ॉक	-2837
▁ठंड	-2838
▁भ्य	-2839
▁ुनाव	-2840
▁श्वास	-2841
▁दस्	-2842
▁ाढ़	-2843
▁वितर	-2844
▁सीता	-2845
▁बिग	-2846
▁नाटक	-2847
▁मुकेश	-2848
▁ुनावी	-2849
▁तू	-2850
▁खाली	-2851
▁हमेश	-2852
▁प्लान	-2853
▁एप	-2854
▁टोल	-2855
▁बढ़ा	-2856
▁मनाया	-2857
▁35	-2858
▁गईं	-2859
▁पाए	-2860
▁पुरुष	-2861
▁हमेशा	-2862
▁आकर	-2863
▁एशन	-2864
▁ोटी	-2865
▁उसमें	-2866
▁रने	-2867
▁युद्ध	-2868
▁अंग	-2869
▁एसड	-2870
▁गड़	-2871
▁श्रे	-2872
▁कब्जे	-2873
नेश	-2874
▁लू	-2875
▁सप	-2876
▁पूजन	-2877
ुड	-2878
▁क्स	-2879
▁नेस	-2880
▁पेपर	-2881
▁र्सिट	-2882
▁ुझ	-2883
▁संविध	-2884
▁चार्ज	-2885
▁देता	-2886
▁मनीष	-2887
▁लिस्ट	-2888
▁ार्टम	-2889
▁लीव	-2890
▁ाइट	-2891
▁एयरप	-2892
▁यक	-2893
▁वत	-2894
▁पन्न	-2895
▁पारी	-2896
▁राजी	-2897
▁मानित	-2898
▁यूनिव	-2899
JP	-2900
▁पस	-2901
▁पार्ट	-2902
▁डो	-2903
▁वेस्ट	-2904
▁ंदे	-2905
▁पूछा	-2906
▁ावरण	-2907
▁चयन	-2908
▁गोपाल	-2909
▁प्लेट	-2910
▁ागरूक	-2911
▁ईर	-2912
▁रीजों	-2913
▁तीसरे	-2914
भाव	-2915
▁घू	-2916
▁अमृत	-2917
▁शीर्	-2918
▁्रभाव	-2919
er	-2920
▁शल	-2921
▁ोध	-2922
▁खूब	-2923
▁साइड	-2924
▁इज	-2925
▁खुश	-2926
▁मश	-2927
▁यल	-2928
▁शिप	-2929
▁ैसा	-2930
▁कमरे	-2931
▁ास्ट	-2932
▁ानपुर	-2933
▁ईरान	-2934
▁र्ल्ड	-2935
▁िनारे	-2936
▁सन	-2937
▁म्प	-2938
▁ांट	-2939
▁ुद्ध	-2940
▁वजन	-2941
▁ावा	-2942
▁ावधान	-2943
▁बॉल	-2944
▁ास्तव	-2945
्स	-2946
▁ेंट्स	-2947
▁चौथ	-2948
सून	-2949
▁उनको	-2950
▁देश्य	-2951
▁सख्त	-2952
▁हादसा	-2953
शीन	-2954
▁ड़ी	-2955
▁मशीन	-2956
▁ंत्रि	-2957
▁नज	-2958
▁इनक	-2959
▁एसएस	-2960
▁रिश्त	-2961
▁काश	-2962
▁ुला	-2963
▁सेंस	-2964
▁in	-2965
▁आठ	-2966
▁वाचन	-2967
▁वानी	-2968
▁फार्म	-2969
▁मैनेज	-2970
▁काब	-2971
▁रूस	-2972
▁विधि	-2973
▁सफलता	-2974
▁शोध	-2975
▁आरती	-2976
▁समान	-2977
▁सुनि	-2978
फर	-2979
▁बेहद	-2980
▁लाया	-2981
▁ाराम	-2982
▁डीज	-2983
▁ाइल	-2984
▁कथा	-2985
▁प्रथम	-2986
▁ेप	-2987
▁सुपर	-2988
▁धार्म	-2989
▁ब्लॉक	-2990
▁कू	-2991
▁तलब	-2992
▁जिलाध	-2993
▁जिसका	-2994
▁ुम	-2995
▁शरी	-2996
▁मुदाय	-2997
▁अली	-2998
▁चौह	-2999
▁सत्य	-3000
▁परेशन	-3001
▁रवाना	-3002
▁ीच	-3003
▁गणना	-3004
▁पशु	-3005
▁जुर्	-3006
▁शुक्	-3007
▁प्रीत	-3008
▁ाच	-3009
▁्ला	-3010
▁ूनतम	-3011
▁नाव	-3012
▁वही	-3013
▁ब्ब	-3014
▁लंबे	-3015
▁लाम	-3016
▁लॉन	-3017
▁चौकी	-3018
नीक	-3019
▁आता	-3020
▁बाकी	-3021
▁मोटर	-3022
▁जुर्ग	-3023
▁तकनीक	-3024
▁संतोष	-3025
▁प्रेस	-3026
▁्रखंड	-3027
▁अवध	-3028
▁पंड	-3029
▁टेक्	-3030
▁नुमान	-3031
▁़ी	-3032
▁कौर	-3033
▁चंड	-3034
▁हने	-3035
▁शप	-3036
▁कोच	-3037
▁लाइट	-3038
▁क्रमण	-3039
▁भ्यर्	-3040
▁यंत्र	-3041
▁प्लाई	-3042
▁माधान	-3043
▁लीवुड	-3044
▁पाट	-3045
▁पैसा	-3046
▁एसो	-3047
▁दीक	-3048
▁द्र	-3049
▁फीट	-3050
▁आदमी	-3051
▁शरीर	-3052
▁ानसून	-3053
▁िपक्ष	-3054
्वाल	-3055
▁गाय	-3056
▁िस्ट	-3057
▁ग्वाल	-3058
▁र्पित	-3059
▁म्ब	-3060
▁हित	-3061
▁J	-3062
ंता	-3063
▁जनप	-3064
▁चौहान	-3065
▁दह	-3066
▁इनके	-3067
▁आखि	-3068
▁कहानी	-3069
▁राकेश	-3070
▁मिस	-3071
▁आसान	-3072
▁उज	-3073
▁ीने	-3074
▁आखिरी	-3075
▁बताई	-3076
▁संदीप	-3077
hi	-3078
▁O	-3079
▁ोभ	-3080
▁एसोसि	-3081
▁कृतिक	-3082
▁गार्ड	-3083
▁हरण	-3084
▁चिंता	-3085
▁मारने	-3086
▁दब	-3087
▁ोई	-3088
▁प्य	-3089
▁रखे	-3090
▁़ियों	-3091
णाम	-3092
▁ाकू	-3093
▁इमेज	-3094
▁गुजर	-3095
▁भाषा	-3096
▁सीजन	-3097
▁दाखिल	-3098
▁रिणाम	-3099
▁जता	-3100
▁वकी	-3101
▁ाठी	-3102
▁एसआई	-3103
▁जमान	-3104
▁BJP	-3105
▁जोन	-3106
▁इतनी	-3107
▁मार्ट	-3108
▁र्षों	-3109
▁ाइवेट	-3110
▁साय	-3111
▁हता	-3112
▁लाने	-3113
▁इंडस्	-3114
▁र्ण	-3115
▁मानव	-3116
▁सूर	-3117
▁ेक्स	-3118
ew	-3119
▁ख्	-3120
▁ैन	-3121
▁टेक	-3122
▁ापुर	-3123
▁गैर	-3124
▁टरी	-3125
▁नवी	-3126
▁साझ	-3127
▁पसंद	-3128
▁ानंद	-3129
▁स्टाफ	-3130
▁नश	-3131
▁निश	-3132
▁खाना	-3133
▁प्रेर	-3134
▁धानी	-3135
▁कालीन	-3136
▁िश्नर	-3137
▁योजक	-3138
nd	-3139
बाज	-3140
▁80	-3141
▁ासन	-3142
▁कहां	-3143
ौल	-3144
▁रुख	-3145
▁लाह	-3146
▁हेड	-3147
▁द्वि	-3148
▁वकील	-3149
▁नने	-3150
▁िंट	-3151
▁सेना	-3152
▁इंस्ट	-3153
▁सिय	-3154
▁बादल	-3155
▁फु	-3156
▁शुक्ल	-3157
▁शुल्क	-3158
▁ुलाया	-3159
▁ाती	-3160
al	-3161
▁ुरी	-3162
▁लॉन्च	-3163
▁चोर	-3164
▁र्जी	-3165
▁मान्य	-3166
▁रॉ	-3167
▁रच	-3168
▁शपथ	-3169
▁अहमद	-3170
▁ाउंड	-3171
▁ट्रैफ	-3172
▁रविंद	-3173
▁एससी	-3174
▁सूची	-3175
▁प्यार	-3176
▁रान	-3177
ामी	-3178
▁70	-3179
▁श्न	-3180
▁मिलता	-3181
▁मॉड	-3182
▁त्ती	-3183
▁घो	-3184
▁ोस	-3185
▁पीठ	-3186
▁बीआई	-3187
▁हायता	-3188
▁खाने	-3189
▁सेंट	-3190
▁भावना	-3191
▁रोकने	-3192
at	-3193
▁पथ	-3194
▁ोन	-3195
▁अरु	-3196
▁जम्म	-3197
▁डिप्ट	-3198
▁किमी	-3199
▁दबाव	-3200
▁जम्मू	-3201
▁फायदा	-3202
▁ंथ	-3203
▁ेंगी	-3204
▁माहौल	-3205
▁रफ्	-3206
▁शूट	-3207
▁साथी	-3208
▁प्रशि	-3209
▁ामी	-3210
▁ीकृत	-3211
ूह	-3212
▁गली	-3213
▁अरुण	-3214
▁चेयर	-3215
▁सोनी	-3216
▁ल्ह	-3217
▁जमानत	-3218
▁दिवास	-3219
▁उज्	-3220
▁ड्य	-3221
▁तान	-3222
▁िकल	-3223
▁उक्त	-3224
▁समूह	-3225
▁साइट	-3226
मता	-3227
▁र्श	-3228
▁क्सर	-3229
▁ड्यूट	-3230
▁चू	-3231
▁ड़क	-3232
▁गरीब	-3233
▁कक्षा	-3234
▁टैक्स	-3235
▁पारा	-3236
मति	-3237
▁रक	-3238
▁निग	-3239
▁ल्यू	-3240
▁नुमति	-3241
▁रेलिय	-3242
▁गोद	-3243
▁नस	-3244
▁फ्ट	-3245
▁ीआई	-3246
▁क्त	-3247
▁फैक्	-3248
▁ाउंस	-3249
▁ाइकिल	-3250
▁्षमता	-3251
लर	-3252
▁ंगा	-3253
▁सैनी	-3254
▁W	-3255
▁रथ	-3256
▁प्तान	-3257
▁बचाने	-3258
▁एडव	-3259
ष्प	-3260
▁जॉ	-3261
▁ाभ	-3262
▁सार्	-3263
▁्क	-3264
▁ंगल	-3265
▁वेल	-3266
▁ीजी	-3267
▁दीवा	-3268
▁ुर्गा	-3269
▁अंब	-3270
▁चालित	-3271
▁जानते	-3272
▁मध्यप	-3273
▁्रिंस	-3274
or	-3275
ैन	-3276
▁जिद	-3277
▁लोड	-3278
▁ाइप	-3279
▁संभाल	-3280
▁िये	-3281
▁थानाध	-3282
▁दिव्य	-3283
▁दृ	-3284
▁पड़े	-3285
▁घूम	-3286
▁तरा	-3287
▁नर्	-3288
▁र्भ	-3289
▁ोयल	-3290
▁सियस	-3291
▁काबले	-3292
नेट	-3293
परव	-3294
▁वस	-3295
▁200	-3296
▁द्द	-3297
▁उज्ज	-3298
▁ट्टी	-3299
▁लापरव	-3300
▁मंजू	-3301
▁्त्री	-3302
▁खर	-3303
▁ाउन	-3304
▁कांत	-3305
▁तावे	-3306
▁विवे	-3307
▁धो	-3308
▁बहु	-3309
▁वेब	-3310
▁ापन	-3311
▁डिस्	-3312
▁%	-3313
दमा	-3314
▁कोर	-3315
▁टका	-3316
▁डूब	-3317
▁ीरा	-3318
▁रेफर	-3319
▁ुकदमा	-3320
▁ॉर्टम	-3321
पंच	-3322
▁ीह	-3323
▁ूर	-3324
▁देग	-3325
▁निभ	-3326
▁सेन	-3327
▁्ती	-3328
▁बारा	-3329
▁तारीख	-3330
▁सरपंच	-3331
▁ाब	-3332
▁एफआई	-3333
▁माप्त	-3334
▁नील	-3335
▁सेट	-3336
▁करनी	-3337
▁फैसले	-3338
▁बूथ	-3339
▁हिं	-3340
▁ेमी	-3341
▁स्टेट	-3342
▁इंडि	-3343
▁त्मक	-3344
▁तावेज	-3345
▁ाफ	-3346
▁कने	-3347
▁ेवर	-3348
▁्सा	-3349
▁क्की	-3350
▁फि	-3351
▁ज्ज	-3352
▁बरस	-3353
▁जताई	-3354
▁र्जर	-3355
▁र्जु	-3356
▁वादी	-3357
▁ीपुर	-3358
▁लीग	-3359
▁नियु	-3360
▁एक्शन	-3361
▁ाएंगे	-3362
▁कव	-3363
▁पलट	-3364
▁ियन	-3365
▁बेस	-3366
▁त्ता	-3367
▁बीसी	-3368
▁रखते	-3369
▁र्जुन	-3370
▁ांच	-3371
▁ाजी	-3372
▁चंडी	-3373
▁हेल्	-3374
▁ानें	-3375
▁नाड	-3376
▁मॉडल	-3377
▁रेस्	-3378
▁्ट्र	-3379
▁चांदी	-3380
▁रास्त	-3381
▁ॉट	-3382
▁करवाई	-3383
▁श्त	-3384
▁ागत	-3385
▁गौरव	-3386
▁राजीव	-3387
▁घट	-3388
▁रभ	-3389
▁अरब	-3390
▁कस्	-3391
▁कुश	-3392
▁ऑस्ट	-3393
▁डीएम	-3394
▁पावर	-3395
▁ोहल्ल	-3396
▁मोर्च	-3397
ews	-3398
▁ठेक	-3399
▁अश्	-3400
▁जाल	-3401
▁ुंड	-3402
▁नर्स	-3403
▁दैन	-3404
▁हंग	-3405
▁तुलन	-3406
▁िलास	-3407
▁सकेंग	-3408
वट	-3409
▁45	-3410
▁रकार	-3411
▁हमारा	-3412
▁िरावट	-3413
▁लील	-3414
▁टाइम	-3415
▁पुरस्	-3416
▁ुराने	-3417
▁फें	-3418
▁भरा	-3419
▁माइ	-3420
▁र्च	-3421
▁ारण	-3422
▁्रति	-3423
▁त्येक	-3424
▁दैनिक	-3425
▁लकाता	-3426
▁स्टोर	-3427
▁दस	-3428
▁दाम	-3429
▁नकर	-3430
▁फेंक	-3431
▁सर्च	-3432
▁थापना	-3433
▁ंडर	-3434
▁मास	-3435
▁लाई	-3436
▁ट्रॉ	-3437
▁्तीफ	-3438
▁रग	-3439
▁्रदीप	-3440
▁मर	-3441
▁रमेश	-3442
▁क्लास	-3443
▁ूद	-3444
▁ल्प	-3445
▁कारा	-3446
▁सलाह	-3447
▁मुक्त	-3448
▁वसूल	-3449
▁संभव	-3450
▁शिकार	-3451
▁िब	-3452
▁मणि	-3453
▁यान	-3454
▁माने	-3455
▁k	-3456
▁ठगी	-3457
▁रबा	-3458
▁िंड	-3459
▁क्कत	-3460
▁यमित	-3461
▁्याप	-3462
▁करियर	-3463
▁ंभ	-3464
▁कर्ष	-3465
▁गाड़	-3466
▁होनी	-3467
▁आगामी	-3468
▁शर	-3469
▁ूल	-3470
▁गोर	-3471
▁ॉक्स	-3472
▁विशाल	-3473
▁हिंसा	-3474
▁छठ	-3475
▁ॉप	-3476
▁उल्	-3477
▁्वच	-3478
▁प्रद	-3479
▁ेडिय	-3480
▁वीकार	-3481
▁ीख	-3482
▁ंकी	-3483
▁इंच	-3484
▁वेश	-3485
▁डॉलर	-3486
▁बीएस	-3487
▁स्ती	-3488
▁वितरण	-3489
▁साबित	-3490
▁एर	-3491
▁्यो	-3492
▁संदेश	-3493
▁नशे	-3494
▁हरे	-3495
▁टायर	-3496
▁रंजन	-3497
▁उठाया	-3498
▁मांगी	-3499
▁टिस	-3500
▁साउ	-3501
▁ाइस	-3502
▁बाबू	-3503
▁एफआईआ	-3504
▁चंडीग	-3505
आर	-3506
▁मेलन	-3507
▁ुटेज	-3508
▁ॉर्म	-3509
▁ट्रेट	-3510
▁जाया	-3511
▁ऑस्ट्	-3512
▁तालाब	-3513
▁तीसरी	-3514
▁पब	-3515
▁नहर	-3516
▁खाते	-3517
▁इंटरव	-3518
▁मूल्य	-3519
▁कोट	-3520
▁पुष्प	-3521
▁ोधपुर	-3522
▁छत	-3523
▁शै	-3524
▁ion	-3525
▁राट	-3526
▁क्लब	-3527
▁मियों	-3528
▁आजा	-3529
▁मीक्ष	-3530
▁इसको	-3531
▁एसटी	-3532
▁्टैंड	-3533
▁िकर	-3534
▁ुगत	-3535
▁बुला	-3536
▁आती	-3537
▁आजाद	-3538
▁आपकी	-3539
▁ष्ठा	-3540
▁छापेम	-3541
▁कैद	-3542
▁नवर	-3543
▁ेन्	-3544
▁रोड़	-3545
▁यूनिट	-3546
▁खी	-3547
▁मक	-3548
▁यं	-3549
▁अनुभ	-3550
▁वाड़ा	-3551
▁िनमें	-3552
जीव	-3553
माण	-3554
▁काबू	-3555
▁ंघर्ष	-3556
▁चाहता	-3557
▁ुगतान	-3558
▁्रमाण	-3559
हीद	-3560
▁गठन	-3561
▁फ्त	-3562
▁ोहर	-3563
▁क्का	-3564
▁च्चा	-3565
▁शहीद	-3566
▁कनेक्	-3567
▁ग्रहण	-3568
▁नक्सल	-3569
▁हालात	-3570
▁िक्रम	-3571
▁वहन	-3572
▁ावल	-3573
▁अर्थ	-3574
▁साउथ	-3575
▁हाईवे	-3576
▁ोटिंग	-3577
▁CM	-3578
▁ॉलि	-3579
▁ुद्दे	-3580
णस	-3581
▁बैग	-3582
▁ानू	-3583
▁िनो	-3584
▁इंस्प	-3585
▁विमान	-3586
▁ाराणस	-3587
▁ोफ	-3588
▁डिव	-3589
▁ौली	-3590
▁नाना	-3591
▁सीबी	-3592
▁बध	-3593
▁रद्द	-3594
▁ीज	-3595
▁नती	-3596
▁दूरी	-3597
▁शाना	-3598
▁श्वर	-3599
▁ंगर	-3600
▁भीतर	-3601
▁अनुभव	-3602
▁दर्जन	-3603
da	-3604
le	-3605
▁बेर	-3606
▁िकस	-3607
▁ीएच	-3608
▁क्रि	-3609
▁पैदा	-3610
▁ुरानी	-3611
▁नवीन	-3612
▁िकसित	-3613
▁कोटा	-3614
▁दिग्ध	-3615
▁ार्थी	-3616
▁लभ	-3617
▁सिन	-3618
▁लाना	-3619
▁ुत	-3620
▁ॉन्	-3621
▁दर्द	-3622
▁िंदा	-3623
▁ोरों	-3624
▁ंश	-3625
▁टें	-3626
▁घाटन	-3627
▁खि	-3628
▁ुब	-3629
▁लोह	-3630
▁विन	-3631
▁ाका	-3632
▁अच्छे	-3633
▁लेबाज	-3634
▁ट्ट	-3635
▁हंगाम	-3636
रीय	-3637
▁किंग	-3638
▁लेना	-3639
▁सोना	-3640
▁्तरीय	-3641
▁फैंस	-3642
▁राना	-3643
▁प्राण	-3644
ri	-3645
▁हव	-3646
▁भरो	-3647
▁रेव	-3648
▁भीषण	-3649
▁र्विस	-3650
▁्रांस	-3651
▁्रेशन	-3652
▁गोव	-3653
▁जनक	-3654
▁याज	-3655
▁मर्थक	-3656
▁बुल	-3657
▁ीका	-3658
▁तुर्	-3659
▁्लांट	-3660
ष्णु	-3661
▁मता	-3662
▁ामक	-3663
▁ीरज	-3664
▁खुशी	-3665
▁प्रज	-3666
▁बंदी	-3667
▁भरोस	-3668
▁संगीत	-3669
▁िष्णु	-3670
्लि	-3671
▁तम	-3672
▁पब्लि	-3673
▁लाखों	-3674
▁भ्र	-3675
▁ेलर	-3676
▁भक्त	-3677
▁र्जन	-3678
▁सराय	-3679
▁ितना	-3680
▁िन्द	-3681
▁रांची	-3682
▁्च	-3683
▁जित	-3684
▁ानक	-3685
▁रेंज	-3686
▁ांवों	-3687
▁कश्	-3688
▁धोख	-3689
▁रेज	-3690
▁रोग	-3691
▁उपाय	-3692
▁महाप	-3693
▁ूंगा	-3694
▁लाकार	-3695
▁कंट	-3696
▁डाय	-3697
▁यश	-3698
▁यकाल	-3699
▁पवन	-3700
▁ेंच	-3701
▁सुंदर	-3702
▁ीटिंग	-3703
▁्यापक	-3704
▁नंद	-3705
▁मंज	-3706
▁फाइल	-3707
▁फ्ला	-3708
▁रहीं	-3709
▁हस्त	-3710
▁हफ	-3711
▁गरा	-3712
▁मीर	-3713
▁ाणी	-3714
▁सैनिक	-3715
▁हटाने	-3716
▁ओम	-3717
▁ेडियम	-3718
▁मच	-3719
▁ौत	-3720
▁आंख	-3721
▁अक्ष	-3722
▁आश्व	-3723
▁संव	-3724
▁नतीज	-3725
▁कामना	-3726
▁कठ	-3727
▁राधिक	-3728
▁ऊंच	-3729
▁मुह	-3730
▁हिर	-3731
▁ंपिक	-3732
▁बजकर	-3733
▁सूरज	-3734
▁ैमरे	-3735
▁जुर्म	-3736
▁पढ़ाई	-3737
▁्वच्छ	-3738
▁एएस	-3739
▁लीट	-3740
▁ोवि	-3741
▁टिप्	-3742
▁रदार	-3743
▁िनोद	-3744
▁टेक्न	-3745
▁शहरों	-3746
▁गि	-3747
▁वल	-3748
▁फूल	-3749
▁बाई	-3750
▁मरा	-3751
▁रसा	-3752
▁सबक	-3753
▁विवेक	-3754
▁सुरेश	-3755
▁बम	-3756
▁मप	-3757
▁ंसर	-3758
▁जात	-3759
▁सुन	-3760
▁आखिर	-3761
रेन	-3762
▁तिन	-3763
▁ोटर	-3764
▁ोफे	-3765
▁किशन	-3766
▁सोरेन	-3767
ंका	-3768
▁गाज	-3769
▁गैस	-3770
▁ंकित	-3771
▁आशंका	-3772
▁चाहती	-3773
▁पंडित	-3774
▁बिनेट	-3775
▁शानदा	-3776
▁श्मीर	-3777
▁ाख	-3778
▁चीज	-3779
▁जगद	-3780
▁टीच	-3781
▁कब्ज	-3782
▁एरिया	-3783
▁दिनेश	-3784
▁न्यूज	-3785
▁ंह	-3786
▁लेश	-3787
▁ल्ट	-3788
▁आरपी	-3789
▁जिंद	-3790
▁नीता	-3791
▁बंधक	-3792
▁गोल्ड	-3793
▁भागों	-3794
▁कां	-3795
▁गुल	-3796
▁ेले	-3797
▁News	-3798
▁कारि	-3799
▁जयंत	-3800
▁ड़ताल	-3801
▁्राइम	-3802
▁पदों	-3803
▁पाली	-3804
▁वादा	-3805
▁स्टल	-3806
▁ांज	-3807
▁ँ	-3808
▁बचाव	-3809
▁वजनिक	-3810
▁इन्	-3811
▁त्मा	-3812
▁ोविंद	-3813
▁बुक	-3814
▁वाट	-3815
▁पीएस	-3816
▁प्रव	-3817
▁ल्की	-3818
▁जगहों	-3819
▁संजीव	-3820
▁खिलेश	-3821
▁वर्तन	-3822
▁िक्री	-3823
▁िन्हा	-3824
▁पें	-3825
▁ियो	-3826
▁ेती	-3827
▁छुट्	-3828
▁रोशन	-3829
▁ल्टी	-3830
▁ंत्रण	-3831
केल	-3832
▁ीष	-3833
जूदा	-3834
▁ंशु	-3835
▁लुध	-3836
▁अकेल	-3837
▁पत्थ	-3838
▁रेंड	-3839
▁ितनी	-3840
▁निशान	-3841
▁ौजूदा	-3842
ur	-3843
▁ंजन	-3844
ya	-3845
▁कत	-3846
▁गौतम	-3847
▁भूषण	-3848
▁विस्	-3849
▁वेतन	-3850
▁ाक्ष	-3851
▁समस्त	-3852
▁ियमों	-3853
▁90	-3854
▁ऐप	-3855
▁अनि	-3856
▁ाहक	-3857
▁रपुर	-3858
▁िताब	-3859
▁क्रेन	-3860
▁जानिए	-3861
▁रक्षक	-3862
▁p	-3863
▁ंबी	-3864
▁फसर	-3865
▁ंबित	-3866
▁धरना	-3867
▁ोफेसर	-3868
▁रौ	-3869
▁ोद	-3870
▁सका	-3871
▁टर्न	-3872
▁ृत्य	-3873
▁चेताव	-3874
▁दरवाज	-3875
▁फसरों	-3876
▁सांस्	-3877
▁ूठ	-3878
▁ऊर्	-3879
▁पंक	-3880
▁आपका	-3881
▁गोरख	-3882
▁िसने	-3883
▁मिलती	-3884
▁लुधिय	-3885
▁पिल	-3886
▁ांप	-3887
▁ातक	-3888
▁्रू	-3889
▁ंकड़	-3890
▁पाने	-3891
▁बद्ध	-3892
▁बादी	-3893
▁ावास	-3894
▁ाइयों	-3895
▁कच	-3896
▁ंकट	-3897
▁ाद्य	-3898
▁चलाने	-3899
▁v	-3900
▁ोसी	-3901
▁निया	-3902
▁अजम	-3903
▁गीत	-3904
▁बीन	-3905
▁िशन	-3906
▁मति	-3907
▁ांश	-3908
▁ानि	-3909
▁झा	-3910
▁गना	-3911
▁ातें	-3912
▁हराया	-3913
▁एट	-3914
▁अपर	-3915
▁चारों	-3916
▁िदेशी	-3917
▁्रेंस	-3918
▁पत	-3919
▁शाख	-3920
▁एमपी	-3921
▁काबल	-3922
▁ांगा	-3923
▁ालि	-3924
▁ग्नि	-3925
▁ेक्ट	-3926
▁धव	-3927
▁दलों	-3928
▁ानना	-3929
▁पेंशन	-3930
▁दाय	-3931
▁व्ह	-3932
▁ोगा	-3933
▁स्टे	-3934
▁ाचार	-3935
▁ट्रैक	-3936
▁पांडे	-3937
▁नाक	-3938
▁ेकर	-3939
▁ेरे	-3940
▁ट्रि	-3941
▁्यपाल	-3942
▁ंगी	-3943
▁ेटर	-3944
▁सिंग	-3945
▁दुर्ग	-3946
▁!	-3947
▁32	-3948
▁ाऊ	-3949
▁पने	-3950
▁्यक्त	-3951
▁सिया	-3952
▁ाँ	-3953
▁ैप	-3954
▁द्व	-3955
▁मंग	-3956
▁म्ह	-3957
▁लड	-3958
▁मला	-3959
▁करार	-3960
▁म्बर	-3961
▁्टिव	-3962
▁अफ	-3963
▁फत	-3964
▁500	-3965
▁मुज	-3966
▁सीम	-3967
▁िकरण	-3968
▁हब	-3969
▁केत	-3970
▁सुरा	-3971
▁दस्त	-3972
▁फ्री	-3973
▁राधा	-3974
▁अख	-3975
▁ाचल	-3976
▁कंट्	-3977
▁रंट	-3978
▁ीडी	-3979
▁ल्दी	-3980
▁र्षा	-3981
▁क्तों	-3982
▁PM	-3983
▁टोर	-3984
▁िंध	-3985
▁ियत	-3986
ंश	-3987
▁ीएसपी	-3988
▁एगा	-3989
▁रीद	-3990
▁सिम	-3991
▁ालक	-3992
▁ुओं	-3993
▁त्सव	-3994
▁लिंग	-3995
▁स्क्र	-3996
▁नै	-3997
▁घेर	-3998
▁नेह	-3999
▁पान	-4000
▁हती	-4001
▁ीपी	-4002
▁ग्री	-4003
▁मानसि	-4004
▁टाचार	-4005
▁ोव	-4006
▁ंपि	-4007
▁िते	-4008
▁त्तीस	-4009
▁अफसर	-4010
▁ट्रिक	-4011
▁श्रीव	-4012
▁ठि	-4013
▁डक्	-4014
▁दुष्	-4015
▁ईओ	-4016
▁ीओ	-4017
▁ेब	-4018
▁गीर	-4019
▁म्स	-4020
▁लाप	-4021
▁ायन	-4022
▁ट्टा	-4023
ct	-4024
▁छि	-4025
▁टेल	-4026
▁लेन	-4027
▁हली	-4028
▁िपल	-4029
▁लै	-4030
▁उन्	-4031
▁बूत	-4032
▁राद	-4033
▁वंश	-4034
▁ातर	-4035
▁ायर	-4036
▁ंदर	-4037
▁जलि	-4038
▁महत	-4039
▁रंपर	-4040
▁ंपर	-4041
▁अल्	-4042
▁तिर	-4043
▁ीआर	-4044
▁्यूट	-4045
▁ंवर	-4046
▁ायु	-4047
▁निष्	-4048
▁रहें	-4049
▁स्वत	-4050
▁भ्रष्	-4051
▁ताक	-4052
▁सुल	-4053
▁एमसी	-4054
▁पक्षी	-4055
▁पेय	-4056
▁मात्र	-4057
▁िरदार	-4058
▁ंका	-4059
▁ंग्	-4060
▁रोन	-4061
▁वाए	-4062
▁जारों	-4063
▁भारती	-4064
▁तृत	-4065
▁ट्यू	-4066
▁कर्मि	-4067
▁ाथ	-4068
▁किन	-4069
▁वाय	-4070
▁एगी	-4071
▁एसी	-4072
▁नीय	-4073
▁फ्ल	-4074
▁साव	-4075
▁ेटा	-4076
▁नमें	-4077
▁िराज	-4078
▁क्षों	-4079
▁sh	-4080
▁ख्त	-4081
▁ब्रि	-4082
▁ोहरा	-4083
▁ानूनी	-4084
▁ड्डा	-4085
▁जुल	-4086
▁्सक	-4087
▁37	-4088
▁जस	-4089
▁सेज	-4090
▁ीदार	-4091
▁जनस	-4092
▁हार्	-4093
▁ष्टि	-4094
▁हाड़	-4095
▁ra	-4096
▁अस	-4097
▁तीज	-4098
▁बेल	-4099
▁ैसे	-4100
▁ोहार	-4101
▁फ्लाइ	-4102
▁ाघ	-4103
▁र्ध	-4104
▁33	-4105
▁णव	-4106
▁फुट	-4107
▁स्त्र	-4108
▁ौज	-4109
▁रूट	-4110
▁पर्स	-4111
▁ारकर	-4112
▁ोख	-4113
▁जला	-4114
▁णाल	-4115
▁हिल	-4116
▁क्शन	-4117
▁हर्ष	-4118
▁ड़कों	-4119
▁ओड	-4120
▁शख	-4121
▁ज़ा	-4122
▁ास्टर	-4123
▁नन	-4124
▁पात	-4125
▁रंज	-4126
▁नेर	-4127
▁बोर	-4128
▁दिखा	-4129
▁जस्	-4130
▁मेट	-4131
▁सान	-4132
▁सीन	-4133
▁ीयू	-4134
▁्ते	-4135
▁नय	-4136
▁ांद	-4137
▁नक	-4138
▁अंद	-4139
▁भूप	-4140
▁तियों	-4141
▁लीक	-4142
▁ोजन	-4143
▁बढ़त	-4144
▁ायात	-4145
▁चाहे	-4146
▁रेस्ट	-4147
▁खन	-4148
▁टल	-4149
▁गिन	-4150
▁ताज	-4151
▁पिछल	-4152
▁हेश	-4153
▁ायद	-4154
▁राजप	-4155
▁निवार	-4156
▁हक	-4157
▁रंगा	-4158
▁पड़ता	-4159
▁नॉ	-4160
▁ंडल	-4161
▁ाइक	-4162
▁वेदन	-4163
▁शॉ	-4164
▁लंक	-4165
▁पीड	-4166
▁ावे	-4167
▁ुबे	-4168
▁बताए	-4169
▁ेहरा	-4170
▁्डिंग	-4171
▁माफ	-4172
▁ापा	-4173
▁बाजी	-4174
▁ेफ	-4175
▁ॉय	-4176
▁न्ह	-4177
▁ुल्	-4178
▁ोषण	-4179
▁तन	-4180
▁विर	-4181
▁सों	-4182
▁आह	-4183
▁चिन	-4184
▁ाधी	-4185
▁ेडल	-4186
▁मारा	-4187
ro	-4188
▁Ra	-4189
▁िशा	-4190
▁ीला	-4191
▁चिंग	-4192
▁जाएं	-4193
▁निंग	-4194
▁ाधीश	-4195
▁गय	-4196
▁र्ब	-4197
▁सिक्	-4198
▁ठित	-4199
▁चेहर	-4200
▁नाने	-4201
▁र्ना	-4202
▁डिल	-4203
▁फोर	-4204
▁सिख	-4205
▁थित	-4206
▁राब	-4207
▁शेष	-4208
▁वाही	-4209
▁ोल्ड	-4210
▁्रेक	-4211
▁दवा	-4212
▁ावली	-4213
▁्रस्त	-4214
ol	-4215
▁तीर	-4216
▁र्न	-4217
▁हेल	-4218
▁ेमा	-4219
▁्वय	-4220
▁ेखा	-4221
▁खुले	-4222
▁रोश	-4223
▁हान	-4224
▁ेक्शन	-4225
▁ंसल	-4226
▁बरा	-4227
▁ठग	-4228
▁रफ	-4229
▁लप	-4230
▁मिश	-4231
▁राश	-4232
▁ाल्	-4233
▁सीपी	-4234
▁खून	-4235
▁्रल	-4236
▁h	-4237
▁चीफ	-4238
▁ज्व	-4239
▁बीज	-4240
▁ोशी	-4241
▁क्ता	-4242
▁36	-4243
▁णा	-4244
▁नेक	-4245
▁फान	-4246
▁ीएल	-4247
▁ेटि	-4248
▁बग	-4249
▁ह्	-4250
▁आर्	-4251
▁काय	-4252
▁हिस	-4253
▁निरा	-4254
▁बिल्	-4255
▁ंवा	-4256
▁काे	-4257
▁गला	-4258
▁ॅ	-4259
▁जरी	-4260
▁ध्य	-4261
▁ावी	-4262
▁ौती	-4263
▁प्रश	-4264
▁जिश	-4265
▁लोन	-4266
▁ेवल	-4267
▁क्षी	-4268
de	-4269
▁गम	-4270
▁ेठ	-4271
▁ोष	-4272
▁दिक	-4273
▁निध	-4274
▁रवा	-4275
▁सीव	-4276
▁दायर	-4277
▁हिता	-4278
▁ेक्ष	-4279
▁ाओ	-4280
▁ह्म	-4281
▁मारे	-4282
▁िक्स	-4283
▁ीफ	-4284
▁ंबा	-4285
▁ैल	-4286
▁आक्	-4287
▁रोध	-4288
▁सिप	-4289
▁ारस	-4290
▁75	-4291
▁रुण	-4292
▁सेक	-4293
▁स्कू	-4294
▁हिसा	-4295
▁ाउंट	-4296
▁डन	-4297
▁मेन	-4298
▁बहा	-4299
▁लिक	-4300
▁पिट	-4301
▁दौरा	-4302
▁सारी	-4303
▁िक्ष	-4304
▁िल्ल	-4305
▁्रेज	-4306
▁g	-4307
▁कॉप	-4308
▁जर्	-4309
▁ज्य	-4310
▁नशा	-4311
▁सको	-4312
▁ीचर	-4313
▁्रॉ	-4314
▁शिया	-4315
▁गू	-4316
▁याग	-4317
▁ालव	-4318
▁गर्म	-4319
▁ोरिय	-4320
्रो	-4321
▁IP	-4322
▁जज	-4323
▁तीक	-4324
▁स्न	-4325
▁ावन	-4326
▁ीवर	-4327
▁ूवी	-4328
▁ेंज	-4329
▁ेसर	-4330
▁क्कर	-4331
▁भोज	-4332
▁सिस	-4333
▁ौड़	-4334
▁रेटर	-4335
▁ल्ला	-4336
▁्राध	-4337
▁शक	-4338
▁सॉ	-4339
▁्रै	-4340
▁रखें	-4341
▁वासी	-4342
▁हिमा	-4343
.5	-4344
▁w	-4345
▁असम	-4346
▁सिक	-4347
▁सुरे	-4348
▁तीय	-4349
▁ादर	-4350
▁राजन	-4351
▁ीके	-4352
▁टिया	-4353
▁वासि	-4354
▁ंडि	-4355
▁ीयत	-4356
▁ताया	-4357
▁टु	-4358
▁ंझ	-4359
▁चम	-4360
▁रार	-4361
▁रित	-4362
▁हंगा	-4363
▁थियों	-4364
▁ौल	-4365
▁गले	-4366
▁गान	-4367
▁याल	-4368
▁ीवाल	-4369
▁लेंगे	-4370
▁णे	-4371
▁ोश	-4372
▁48	-4373
▁ंडी	-4374
▁ादा	-4375
▁गुना	-4376
▁त्रता	-4377
in	-4378
▁इमर	-4379
▁ीति	-4380
▁्योति	-4381
re	-4382
ेत्	-4383
▁लेव	-4384
▁स्तक	-4385
▁्षेत्	-4386
ay	-4387
▁400	-4388
▁राख	-4389
▁गीता	-4390
▁मानी	-4391
▁हज	-4392
▁िद्या	-4393
▁तीश	-4394
▁FI	-4395
▁Sa	-4396
▁मय	-4397
▁सज	-4398
▁ंतर	-4399
▁जाग	-4400
▁मोद	-4401
▁वंत	-4402
▁ायी	-4403
▁ेसी	-4404
▁्लै	-4405
▁स्वतं	-4406
▁ओल	-4407
▁ाड	-4408
▁ंबे	-4409
▁रस्ट	-4410
▁इव	-4411
▁सत	-4412
▁आपस	-4413
▁ताल	-4414
▁ूरत	-4415
▁्रीक	-4416
BI	-4417
अप	-4418
▁34	-4419
▁नह	-4420
▁कअप	-4421
▁चने	-4422
▁रिक	-4423
▁गिरा	-4424
▁ॐ	-4425
han	-4426
▁आल	-4427
▁खात	-4428
▁निम	-4429
▁न्द	-4430
▁रीर	-4431
▁र्ल	-4432
▁गाने	-4433
ेंसी	-4434
▁टिफ	-4435
▁धमक	-4436
▁नही	-4437
▁रक्	-4438
▁्टे	-4439
▁रिक्	-4440
▁जेंसी	-4441
▁मार्क	-4442
▁संख्य	-4443
▁ेट्रो	-4444
ho	-4445
▁हद	-4446
▁कराए	-4447
▁टवार	-4448
▁रप	-4449
▁बान	-4450
▁्याय	-4451
▁सव	-4452
▁ेक	-4453
▁रीब	-4454
▁टिफि	-4455
▁300	-4456
▁ंता	-4457
▁तुम	-4458
▁परम	-4459
▁यास	-4460
▁ाणा	-4461
▁ारक	-4462
▁िड़	-4463
▁ॉर्ड	-4464
▁कट्	-4465
▁ोले	-4466
▁्राफ	-4467
▁ंजी	-4468
▁धूप	-4469
▁पैद	-4470
▁ुरु	-4471
▁ूक	-4472
▁ालं	-4473
ce	-4474
▁डकर	-4475
▁दाद	-4476
▁राए	-4477
▁कॉर्	-4478
ia	-4479
▁छू	-4480
▁रब	-4481
▁ढ़ी	-4482
▁लाक	-4483
▁िमी	-4484
▁ोग	-4485
ष्टि	-4486
▁कांड	-4487
▁ृष्टि	-4488
▁जनी	-4489
▁भरी	-4490
▁लेत	-4491
▁ावट	-4492
▁लल	-4493
▁बर्	-4494
▁त्रिप	-4495
▁नाश	-4496
▁र्तन	-4497
▁धा	-4498
▁खिय	-4499
▁निर्द	-4500
▁िंद्र	-4501
▁टो	-4502
▁ंडे	-4503
▁ंदी	-4504
▁तना	-4505
▁नान	-4506
▁सकी	-4507
▁कुर्	-4508
▁टीवी	-4509
▁na	-4510
▁कद	-4511
▁शाल	-4512
▁सदन	-4513
▁स्थि	-4514
▁्यूज	-4515
▁्रीन	-4516
▁तप	-4517
▁तिया	-4518
▁त्री	-4519
▁महीन	-4520
▁ामों	-4521
▁उल	-4522
▁िथ	-4523
▁पवा	-4524
▁सोम	-4525
▁ाजा	-4526
▁ींद	-4527
▁अभिय	-4528
▁जेपी	-4529
▁FIR	-4530
▁महज	-4531
▁ेबल	-4532
▁्डी	-4533
▁ेच	-4534
▁ैं	-4535
▁दूध	-4536
▁नात	-4537
▁ुक्त	-4538
▁मांगे	-4539
▁{	-4540
▁जबर	-4541
▁िट्	-4542
▁ृत्	-4543
▁ोंक	-4544
ॉज	-4545
▁ओप	-4546
▁डु	-4547
▁़्	-4548
▁दुर	-4549
▁ीरो	-4550
▁ूर्त	-4551
▁ोलॉज	-4552
▁॥	-4553
▁विद	-4554
▁ीजा	-4555
▁स्सा	-4556
▁होंग	-4557
▁b	-4558
▁nt	-4559
▁आंध	-4560
▁योर	-4561
▁रोप	-4562
▁ल्ल	-4563
▁िश्	-4564
▁वस्थ	-4565
▁उद	-4566
▁ीब	-4567
▁आना	-4568
▁िसर	-4569
▁लक	-4570
▁शिय	-4571
▁ष्म	-4572
▁ैक्स	-4573
▁55	-4574
▁िष	-4575
▁िशि	-4576
▁डीपी	-4577
▁राकर	-4578
▁ोड़ा	-4579
▁पर्यट	-4580
▁ात्रा	-4581
▁लीय	-4582
▁वाज	-4583
▁महाम	-4584
▁रियर	-4585
▁रिश्	-4586
▁ोता	-4587
▁उल्ल	-4588
▁मप्र	-4589
▁ंबर	-4590
▁सोन	-4591
▁ुरू	-4592
▁जिम	-4593
▁मांड	-4594
▁दन	-4595
▁आईप	-4596
▁औसत	-4597
▁याब	-4598
▁र्त	-4599
▁वेज	-4600
▁हड़	-4601
▁तीसर	-4602
▁स्टर	-4603
▁Re	-4604
▁ईं	-4605
▁झु	-4606
▁रों	-4607
▁श्य	-4608
▁हमल	-4609
▁हिय	-4610
▁िजि	-4611
▁क्षम	-4612
▁ब्यू	-4613
▁कन	-4614
▁थल	-4615
▁भय	-4616
▁ौन	-4617
▁उर्	-4618
▁खाद	-4619
▁छूट	-4620
▁रील	-4621
▁विध	-4622
▁ृति	-4623
▁ट्रा	-4624
▁तेंद	-4625
▁ाड़ा	-4626
▁कोल	-4627
▁ैरा	-4628
▁er	-4629
▁वण	-4630
▁लाय	-4631
▁रियल	-4632
▁्रबंध	-4633
▁UP	-4634
▁ीव	-4635
▁ंकर	-4636
▁कंड	-4637
▁माव	-4638
▁ायो	-4639
▁ॉली	-4640
▁दारों	-4641
▁ाशी	-4642
▁मस	-4643
▁ाटी	-4644
▁ांति	-4645
▁माध	-4646
▁ीएन	-4647
▁ेरो	-4648
▁ोने	-4649
▁साधन	-4650
▁ऋष	-4651
▁ध्व	-4652
▁पदक	-4653
▁सोल	-4654
▁िमा	-4655
▁ज्यो	-4656
▁ूह	-4657
▁अमन	-4658
▁फेस	-4659
▁मल्	-4660
▁विम	-4661
▁ंदिर	-4662
▁मिश्र	-4663
▁लॉज	-4664
ांड	-4665
▁ाश	-4666
▁टार	-4667
▁धीर	-4668
▁ाफा	-4669
▁नामा	-4670
▁िमांड	-4671
▁65	-4672
▁सीए	-4673
▁ूषण	-4674
▁ोला	-4675
▁श्वि	-4676
▁मिलना	-4677
▁झू	-4678
▁लत	-4679
▁रतन	-4680
▁रास	-4681
▁रेख	-4682
▁ीजन	-4683
▁एसडी	-4684
▁टियों	-4685
▁वीरें	-4686
▁ुख	-4687
▁्ब	-4688
▁थु	-4689
▁ीनी	-4690
▁्न	-4691
▁मुर	-4692
▁टेबल	-4693
▁प्रे	-4694
▁डिप	-4695
▁ाचा	-4696
▁्रु	-4697
▁ख्या	-4698
▁समझा	-4699
▁ात्रि	-4700
▁िश्ते	-4701
▁ंटी	-4702
▁आधा	-4703
▁तिश	-4704
▁बहस	-4705
▁विस	-4706
▁सली	-4707
▁सील	-4708
▁पीसी	-4709
▁ातों	-4710
▁ानते	-4711
▁िलाई	-4712
▁डल	-4713
▁करो	-4714
▁गाड	-4715
▁परा	-4716
▁मात	-4717
▁वैध	-4718
▁ेबा	-4719
▁ज्योत	-4720
▁कस	-4721
▁भले	-4722
▁यूरो	-4723
▁शियल	-4724
▁st	-4725
▁जं	-4726
▁ूख	-4727
▁जीव	-4728
▁ेतन	-4729
▁ंतु	-4730
▁शोर	-4731
▁42	-4732
▁ंगन	-4733
▁भरे	-4734
▁रवी	-4735
▁रूर	-4736
▁लाब	-4737
▁ेजी	-4738
▁्जी	-4739
▁चित्	-4740
▁रिंग	-4741
▁मुद्र	-4742
▁ंटन	-4743
▁पंप	-4744
▁ादी	-4745
▁ुड़	-4746
▁्मत	-4747
▁जह	-4748
▁भव	-4749
▁खनन	-4750
▁रिस	-4751
▁ैरि	-4752
▁ोना	-4753
▁ृद्ध	-4754
▁्राह	-4755
▁्लू	-4756
▁धारण	-4757
▁ार्त	-4758
▁मदा	-4759
▁रकम	-4760
▁विप	-4761
▁Vi	-4762
▁टव	-4763
▁150	-4764
▁ऑफर	-4765
▁वित्	-4766
▁X	-4767
▁रोम	-4768
▁अध्य	-4769
▁स्टेब	-4770
▁ंगत	-4771
▁राल	-4772
▁ीबी	-4773
▁कीम	-4774
▁ानु	-4775
▁लियन	-4776
▁वारी	-4777
▁गुन	-4778
▁जेड	-4779
▁टिव	-4780
▁िना	-4781
▁रेशन	-4782
▁न्त	-4783
▁सेस	-4784
▁ाफी	-4785
▁रस्त	-4786
▁ुदाय	-4787
▁ुक्ति	-4788
DA	-4789
▁ूप	-4790
▁ोड	-4791
▁इंग	-4792
▁ग्ग	-4793
▁रेन	-4794
▁इनका	-4795
▁र्टी	-4796
▁हनों	-4797
▁र्फ	-4798
▁ीटी	-4799
▁ंगाल	-4800
▁ेंशन	-4801
▁ैग	-4802
▁सेम	-4803
▁दशक	-4804
▁फॉर	-4805
▁बीत	-4806
▁िलक	-4807
▁्टर	-4808
▁ंगे	-4809
▁आलो	-4810
▁कूट	-4811
▁चेन	-4812
▁निट	-4813
▁निल	-4814
▁ब्ज	-4815
▁रीफ	-4816
▁ुप	-4817
▁Ind	-4818
▁जिट	-4819
▁बिन	-4820
▁मानत	-4821
ma	-4822
▁ऑन	-4823
▁चं	-4824
▁तिग	-4825
▁पंज	-4826
▁सास	-4827
▁राजे	-4828
st	-4829
▁ष्	-4830
▁खेड	-4831
▁बाध	-4832
▁कैप्	-4833
▁बाला	-4834
di	-4835
▁थ्	-4836
▁ोती	-4837
▁वाना	-4838
▁टने	-4839
▁वात	-4840
▁झांस	-4841
▁्वान	-4842
▁डक	-4843
▁्भ	-4844
▁ष्ण	-4845
▁ैना	-4846
▁ेंसी	-4847
▁आइए	-4848
▁महि	-4849
▁मुक	-4850
▁वाइ	-4851
▁शार	-4852
▁अभिन	-4853
▁बीमा	-4854
▁महान	-4855
▁कली	-4856
▁जंग	-4857
▁कक्ष	-4858
▁भोग	-4859
▁मिक	-4860
▁ोक्	-4861
▁च्छा	-4862
▁ड़ों	-4863
▁ीरिय	-4864
▁जद	-4865
▁ne	-4866
▁चक	-4867
▁रता	-4868
▁ूंग	-4869
▁बैठा	-4870
▁तरे	-4871
▁लीन	-4872
▁ात्	-4873
▁नसभा	-4874
▁वीरे	-4875
▁ीजों	-4876
▁MP	-4877
lect	-4878
▁इलाक	-4879
▁काला	-4880
▁रीवा	-4881
▁ेबाजी	-4882
AP	-4883
▁डब	-4884
▁पुन	-4885
▁अखिल	-4886
▁रीदा	-4887
▁वार्	-4888
▁ात्म	-4889
▁AI	-4890
▁ीग	-4891
▁खार	-4892
▁लॉक	-4893
▁डिट	-4894
▁ारो	-4895
▁स्वा	-4896
▁ाएगी	-4897
▁िन्ह	-4898
▁ंजर	-4899
▁बिक	-4900
▁ंद्रा	-4901
▁Ma	-4902
▁भल	-4903
▁लस	-4904
▁जरा	-4905
▁ेनी	-4906
▁ार्ज	-4907
▁लती	-4908
▁ॉर्	-4909
▁मित्	-4910
▁हल्क	-4911
▁जाएंग	-4912
▁ाये	-4913
▁नाया	-4914
▁क्षित	-4915
▁आब	-4916
▁िच	-4917
▁िछ	-4918
▁ढाई	-4919
▁पैस	-4920
▁लेब	-4921
▁ामि	-4922
▁ीड़	-4923
▁ीती	-4924
▁्मण	-4925
▁o	-4926
▁मचा	-4927
▁लों	-4928
▁्रग	-4929
▁्ले	-4930
▁लॉन्	-4931
▁चाय	-4932
▁पना	-4933
▁मीन	-4934
▁संध	-4935
▁जिस्	-4936
▁निशा	-4937
▁्लास	-4938
▁रद	-4939
▁शरद	-4940
▁ायम	-4941
▁पमान	-4942
▁बारी	-4943
▁्टिक	-4944
▁38	-4945
▁चाया	-4946
▁मुकदम	-4947
▁ऑप	-4948
▁आशा	-4949
▁फूड	-4950
▁रस्	-4951
▁्रीम	-4952
ौन	-4953
▁De	-4954
▁नग	-4955
▁नना	-4956
▁ध्यम	-4957
▁ाड़िय	-4958
▁दीव	-4959
▁धां	-4960
▁स्या	-4961
▁्रेन	-4962
▁्यादा	-4963
▁क्ट	-4964
▁मिर	-4965
▁जिसक	-4966
▁ोड़ी	-4967
▁पसी	-4968
▁भगव	-4969
▁यौन	-4970
▁शुद	-4971
▁तिष्ठ	-4972
▁वेट	-4973
▁होम	-4974
▁ेहा	-4975
▁्योर	-4976
▁डू	-4977
▁ोते	-4978
▁ोरा	-4979
▁ंगान	-4980
▁्रिया	-4981
SP	-4982
▁नता	-4983
▁हूर	-4984
▁ाबर	-4985
▁तरीक	-4986
▁हिंदु	-4987
▁जनों	-4988
har	-4989
▁खल	-4990
▁लच	-4991
▁गंग	-4992
▁िकट	-4993
▁रामा	-4994
▁वारि	-4995
▁ावित	-4996
▁घन	-4997
▁ैय	-4998
▁उदय	-4999
▁44	-5000
▁कुम	-5001
▁मोड	-5002
▁ारू	-5003
▁ेवी	-5004
▁ंचाई	-5005
▁र्वा	-5006
▁किल	-5007
▁रिफ	-5008
▁हॉल	-5009
▁ेमि	-5010
▁सर्क	-5011
▁साहित	-5012
▁भाल	-5013
▁षिक	-5014
▁सीओ	-5015
▁ड़ने	-5016
▁्रेट	-5017
▁सिस्ट	-5018
▁खतर	-5019
▁ोनी	-5020
▁तपुर	-5021
▁संस्थ	-5022
▁f	-5023
▁u	-5024
▁फंड	-5025
▁लेज	-5026
▁ुति	-5027
▁र्मी	-5028
▁्फ	-5029
▁होश	-5030
▁स्तु	-5031
▁ाएगा	-5032
▁ालिया	-5033
▁Ka	-5034
▁ुड	-5035
▁ुफ	-5036
▁ैच	-5037
▁निज	-5038
▁ोकस	-5039
▁कैश	-5040
▁राण	-5041
▁करि	-5042
▁टैक	-5043
▁त्थ	-5044
▁रती	-5045
▁नारे	-5046
▁िनेश	-5047
▁प्राच	-5048
▁आंक	-5049
▁भरत	-5050
▁िक्	-5051
▁ैसल	-5052
▁ोकर	-5053
▁ग्रे	-5054
▁्राइव	-5055
▁अदा	-5056
▁तिल	-5057
▁बेड	-5058
▁हनी	-5059
▁जेडी	-5060
▁द्रा	-5061
▁िलाफ	-5062
▁41	-5063
▁िख	-5064
▁ोब	-5065
▁ोटा	-5066
▁ठाकर	-5067
▁िफिक	-5068
▁Elect	-5069
ok	-5070
▁(2	-5071
▁39	-5072
▁ऑल	-5073
▁ापत	-5074
▁ुनि	-5075
▁ैंस	-5076
▁दक	-5077
▁ध्	-5078
▁यप	-5079
▁षा	-5080
▁पंत	-5081
▁बीए	-5082
▁यंत	-5083
se	-5084
▁2-	-5085
▁ED	-5086
▁छी	-5087
▁लय	-5088
▁ंडो	-5089
▁निव	-5090
▁्वर	-5091
▁पेड़	-5092
▁्रोत	-5093
धे	-5094
▁₹	-5095
▁इजर	-5096
▁ियल	-5097
▁ैंक	-5098
▁काले	-5099
▁टिंग	-5100
▁म्मत	-5101
▁शक्त	-5102
▁्रमण	-5103
▁51	-5104
▁पश	-5105
▁मने	-5106
▁क्रव	-5107
ांत	-5108
▁ट्ठ	-5109
▁हकर	-5110
▁ापक	-5111
▁ेडी	-5112
▁ारों	-5113
▁्रिक	-5114
▁वस्था	-5115
▁्रांत	-5116
▁te	-5117
▁ॉन	-5118
▁काज	-5119
▁मरी	-5120
▁ाके	-5121
▁नाते	-5122
▁पीड़	-5123
▁झी	-5124
▁कैल	-5125
▁मानस	-5126
il	-5127
▁िब्	-5128
▁िवि	-5129
▁ोरो	-5130
▁्जर	-5131
▁nd	-5132
▁मः	-5133
▁ढंग	-5134
▁िज्	-5135
▁ढा	-5136
▁धे	-5137
▁अटल	-5138
▁मेड	-5139
▁िको	-5140
▁पारि	-5141
▁ंधा	-5142
▁देन	-5143
▁मोट	-5144
▁लीज	-5145
▁ीसी	-5146
▁आचार	-5147
▁46	-5148
▁ईव	-5149
▁खव	-5150
▁IPL	-5151
▁जाट	-5152
▁टूर	-5153
▁राई	-5154
▁रिटी	-5155
▁्तान	-5156
am	-5157
▁re	-5158
▁तौ	-5159
▁लम	-5160
▁मोर	-5161
▁्टी	-5162
▁वारा	-5163
▁श्रा	-5164
▁ारात	-5165
▁ाष्ट	-5166
▁47	-5167
▁आलम	-5168
▁चौर	-5169
▁ढ़े	-5170
▁लता	-5171
▁रेंस	-5172
▁विदा	-5173
CC	-5174
he	-5175
bha	-5176
▁ॉड	-5177
▁ॉस	-5178
▁नसे	-5179
▁कृष्	-5180
▁मलों	-5181
▁ैक्ट	-5182
▁थि	-5183
▁AAP	-5184
▁ंपा	-5185
▁शतक	-5186
▁िले	-5187
ja	-5188
▁ाे	-5189
▁ेत	-5190
▁आधे	-5191
▁रकर	-5192
▁ाकु	-5193
▁िवा	-5194
▁जानत	-5195
▁त्तर	-5196
▁ेंसि	-5197
▁ारिया	-5198
▁56	-5199
▁IN	-5200
▁तं	-5201
▁ैट	-5202
▁पट्	-5203
▁पेम	-5204
▁रिट	-5205
▁्नी	-5206
▁कलश	-5207
▁नवा	-5208
▁डेढ़	-5209
▁ियार	-5210
▁िस्त	-5211
▁्रिट	-5212
▁ात्मक	-5213
▁52	-5214
▁me	-5215
▁डम	-5216
▁शह	-5217
▁त्न	-5218
▁फेल	-5219
▁वाग	-5220
▁ैली	-5221
▁मुख्	-5222
▁प्राइ	-5223
ta	-5224
▁ऋषि	-5225
▁बहू	-5226
▁रजत	-5227
▁िजन	-5228
▁ड्यू	-5229
▁द्दे	-5230
▁ालयों	-5231
▁ैस	-5232
▁गुण	-5233
▁ेस्	-5234
▁ैले	-5235
▁कड़े	-5236
en	-5237
▁al	-5238
▁सस	-5239
▁ुं	-5240
▁पीए	-5241
▁बाघ	-5242
▁सौर	-5243
▁ढ़ने	-5244
▁Mo	-5245
▁आईस	-5246
▁लिका	-5247
▁सुना	-5248
▁िकास	-5249
▁ti	-5250
▁काद	-5251
▁चेत	-5252
▁बीस	-5253
▁नारा	-5254
▁रुपय	-5255
▁उमस	-5256
▁जेश	-5257
▁लां	-5258
▁लेस	-5259
▁हां	-5260
▁डिया	-5261
▁ोहित	-5262
▁्टेबल	-5263
AS	-5264
▁हथ	-5265
▁ड्र	-5266
▁बिश	-5267
▁र्घ	-5268
▁ाधा	-5269
▁ोस्ट	-5270
▁बैर	-5271
▁्पी	-5272
▁बनान	-5273
▁ास्क	-5274
CT	-5275
▁Y	-5276
▁थक	-5277
▁छाए	-5278
▁ठान	-5279
▁यंक	-5280
▁ादि	-5281
▁ैमर	-5282
▁प्रक	-5283
▁ुकेश	-5284
▁्याव	-5285
▁्लिक	-5286
▁र्वाच	-5287
▁43	-5288
▁शरण	-5289
▁ूरा	-5290
▁नागर	-5291
▁मिलन	-5292
▁प्रत्	-5293
and	-5294
▁ढे	-5295
▁ंजू	-5296
▁गुज	-5297
▁मेश	-5298
▁देखे	-5299
▁ानों	-5300
▁ासिक	-5301
▁ामपुर	-5302
▁गद	-5303
▁ुई	-5304
▁थीम	-5305
▁नित	-5306
▁भगत	-5307
▁प्रोफ	-5308
ir	-5309
om	-5310
▁ुण	-5311
▁ुश	-5312
▁250	-5313
▁छीन	-5314
▁बिर	-5315
▁लुक	-5316
▁सरो	-5317
▁ारत	-5318
▁ेजा	-5319
▁लोगो	-5320
▁्रतिभ	-5321
▁(1	-5322
▁आईए	-5323
▁जहर	-5324
▁रिह	-5325
▁लिन	-5326
▁ानन	-5327
▁रांत	-5328
▁राया	-5329
▁or	-5330
▁ेहर	-5331
▁ोल्	-5332
▁मपुर	-5333
▁क्वा	-5334
▁रास्	-5335
▁हारा	-5336
▁ांगी	-5337
▁ानिय	-5338
▁िल्क	-5339
ad	-5340
▁लह	-5341
▁कमा	-5342
▁कलर	-5343
▁याम	-5344
▁लाए	-5345
▁ुना	-5346
▁एनडी	-5347
hu	-5348
▁अड	-5349
▁असल	-5350
▁गये	-5351
▁टीक	-5352
▁ामु	-5353
▁िरु	-5354
▁ुटे	-5355
▁यक्ष	-5356
▁सुधा	-5357
▁Lok	-5358
▁विल	-5359
▁हाव	-5360
▁जागर	-5361
▁टेंट	-5362
▁ससुर	-5363
▁िलना	-5364
▁्वाल	-5365
▁ेत्री	-5366
▁ंचन	-5367
▁ंजा	-5368
▁ूली	-5369
▁अतिथ	-5370
▁तारा	-5371
▁लोनी	-5372
▁ाधिक	-5373
it	-5374
na	-5375
▁ंटि	-5376
▁ज़र	-5377
▁पड़ी	-5378
▁प्रत	-5379
▁धी	-5380
▁ंधी	-5381
▁किर	-5382
▁तोष	-5383
▁रुव	-5384
▁ल्स	-5385
▁सने	-5386
▁क्रो	-5387
▁स्ते	-5388
▁शिकाय	-5389
▁54	-5390
▁72	-5391
▁ईस	-5392
▁मदन	-5393
▁ट्रो	-5394
▁विक्	-5395
▁ृद्धि	-5396
▁्रैक्	-5397
SC	-5398
▁49	-5399
▁अत	-5400
▁ंपत	-5401
▁भूल	-5402
▁मूव	-5403
▁सोस	-5404
▁्चर	-5405
▁टेस्	-5406
▁पश्च	-5407
ैर	-5408
▁on	-5409
▁ंव	-5410
▁अभय	-5411
▁टाई	-5412
▁डबल	-5413
▁डमि	-5414
▁तें	-5415
▁ष्य	-5416
▁ेजर	-5417
▁दाता	-5418
▁विद्	-5419
▁गड	-5420
▁चन	-5421
▁CBI	-5422
▁कपल	-5423
▁ुष्ट	-5424
▁घी	-5425
▁दहन	-5426
▁रेत	-5427
▁ुलस	-5428
▁गाना	-5429
▁च्चे	-5430
▁रेंट	-5431
CTV	-5432
▁vs	-5433
▁थ्य	-5434
▁लार	-5435
▁लास	-5436
▁सक्	-5437
▁सुम	-5438
▁ारग	-5439
▁ारद	-5440
▁CCTV	-5441
▁लाकर	-5442
▁ारिश	-5443
ve	-5444
▁डव	-5445
▁जगत	-5446
▁पाद	-5447
▁ेलो	-5448
▁्वि	-5449
▁क्षत	-5450
▁खड़ी	-5451
▁परिच	-5452
▁महंग	-5453
▁रवाल	-5454
▁दियों	-5455
▁थम	-5456
▁बई	-5457
▁ing	-5458
▁राक	-5459
▁तदान	-5460
▁िक्क	-5461
▁85	-5462
▁इर	-5463
▁ाझ	-5464
▁जाद	-5465
▁दरा	-5466
▁नीट	-5467
▁फाई	-5468
▁रेग	-5469
▁िरो	-5470
▁योजन	-5471
▁Sabha	-5472
▁ानकार	-5473
▁112	-5474
▁छवि	-5475
▁ायण	-5476
▁ैक्	-5477
▁ौरा	-5478
▁र्ती	-5479
▁िंदु	-5480
▁उड	-5481
▁बत	-5482
▁ोच	-5483
▁आरा	-5484
▁वता	-5485
▁डियो	-5486
▁निस्	-5487
▁ारित	-5488
▁ार्ड	-5489
▁नप	-5490
▁ूब	-5491
▁108	-5492
▁वाड	-5493
▁िर्	-5494
▁ुलाई	-5495
▁्लाई	-5496
▁India	-5497
टे	-5498
ट्स	-5499
▁ैश	-5500
▁दुख	-5501
▁परव	-5502
▁शाद	-5503
▁ादल	-5504
▁ोगी	-5505
▁कर्त	-5506
▁ार्ग	-5507
sh	-5508
▁ठो	-5509
▁ौद	-5510
▁ंकि	-5511
▁ट्स	-5512
▁बैच	-5513
▁िसे	-5514
▁्सी	-5515
▁प्रस	-5516
▁र्जा	-5517
▁लेंस	-5518
▁वकों	-5519
SO	-5520
▁हत	-5521
▁ैत	-5522
▁झूठ	-5523
▁ठोस	-5524
▁पोर	-5525
▁मेज	-5526
▁्चि	-5527
▁रात्र	-5528
AD	-5529
▁लज	-5530
▁लन	-5531
▁वट	-5532
▁IND	-5533
▁नाय	-5534
▁रमण	-5535
▁लाड	-5536
▁लिप	-5537
▁सीज	-5538
▁ितर	-5539
एक	-5540
▁RE	-5541
▁दत	-5542
▁जॉब	-5543
▁वेत	-5544
▁िलान	-5545
▁ुनिय	-5546
▁58	-5547
▁Su	-5548
▁la	-5549
▁तर्	-5550
▁द्धि	-5551
▁SP	-5552
▁रके	-5553
▁ूला	-5554
▁फायद	-5555
ic	-5556
▁पम	-5557
▁ंसा	-5558
▁कलन	-5559
▁बोध	-5560
▁हसन	-5561
▁ायत	-5562
▁ोटे	-5563
CB	-5564
र्त	-5565
▁लब	-5566
▁गाम	-5567
▁राफ	-5568
▁लैब	-5569
▁वनी	-5570
▁ज्ञा	-5571
▁र्धा	-5572
▁समर्थ	-5573
po	-5574
▁ईयर	-5575
▁गुट	-5576
▁मीक	-5577
▁विभ	-5578
▁क्षा	-5579
▁खड़ा	-5580
▁रूरत	-5581
▁व्यू	-5582
▁Go	-5583
▁इश	-5584
▁शय	-5585
▁ूच	-5586
▁ओपन	-5587
▁त्स	-5588
▁वों	-5589
▁त्रित	-5590
▁ूट	-5591
▁आधी	-5592
▁दाल	-5593
▁यार	-5594
▁लीड	-5595
▁शशि	-5596
▁चिंत	-5597
▁पियो	-5598
▁राने	-5599
▁इए	-5600
▁रट	-5601
▁स्य	-5602
▁दारी	-5603
▁ूलों	-5604
ET	-5605
▁रश	-5606
▁ंगो	-5607
▁गेम	-5608
▁टिय	-5609
▁टेड	-5610
▁निष	-5611
▁समु	-5612
▁ाबी	-5613
▁ोरी	-5614
▁लवार	-5615
▁सिद्	-5616
▁्यात	-5617
▁ैब	-5618
▁Cha	-5619
▁ंक्	-5620
▁ंजय	-5621
▁छली	-5622
▁लवा	-5623
▁संद	-5624
▁ेहत	-5625
▁ोहन	-5626
▁रमाण	-5627
▁3-	-5628
▁अट	-5629
▁NDA	-5630
▁गोप	-5631
▁हला	-5632
▁ामन	-5633
▁िरी	-5634
▁अर्ज	-5635
▁भागी	-5636
MC	-5637
▁वक	-5638
▁उपल	-5639
▁ऋषभ	-5640
▁मीट	-5641
▁ैटर	-5642
▁Khan	-5643
▁ड़िय	-5644
▁व्	-5645
▁़र	-5646
▁कैच	-5647
▁दाव	-5648
▁ीले	-5649
▁ेके	-5650
▁ोंग	-5651
▁ोचन	-5652
▁ीक्ष	-5653
ka	-5654
▁53	-5655
▁अय	-5656
▁टं	-5657
▁रर	-5658
▁केन	-5659
▁जना	-5660
▁हीर	-5661
▁ासप	-5662
▁ीता	-5663
▁प्रि	-5664
▁विश्	-5665
▁ेशनल	-5666
ni	-5667
eat	-5668
▁उर	-5669
▁ंबि	-5670
▁सपर	-5671
▁हीन	-5672
▁ोपी	-5673
▁ंदगी	-5674
▁र्ति	-5675
▁निदेश	-5676
लोन	-5677
▁्ध	-5678
▁टेज	-5679
▁बाह	-5680
▁रीक	-5681
▁लहर	-5682
▁लात	-5683
▁ाइब	-5684
▁काने	-5685
▁लिटी	-5686
▁कॉलोन	-5687
▁+	-5688
त्स	-5689
▁IM	-5690
▁कॉर	-5691
▁कोड	-5692
▁न्स	-5693
▁पूर	-5694
▁्तर	-5695
▁ायरे	-5696
▁ुग	-5697
▁उधर	-5698
▁बचे	-5699
▁माज	-5700
▁रमन	-5701
▁ोटो	-5702
▁मुस्	-5703
▁्रिप	-5704
▁कित्स	-5705
▁बिल्ड	-5706
vi	-5707
▁तट	-5708
▁थर	-5709
▁ुए	-5710
▁ुस	-5711
▁ैज	-5712
▁गिल	-5713
▁बाब	-5714
▁सवा	-5715
▁ाकि	-5716
▁िगर	-5717
EO	-5718
SS	-5719
gh	-5720
▁01	-5721
▁नद	-5722
▁भै	-5723
▁मझ	-5724
▁कवर	-5725
▁जाक	-5726
▁डिय	-5727
▁ित्व	-5728
▁ेन्द्	-5729
va	-5730
▁2.	-5731
▁AL	-5732
▁छल	-5733
▁ॉम	-5734
▁Sha	-5735
▁एआई	-5736
▁कौश	-5737
▁गयी	-5738
▁डॉग	-5739
▁नौत	-5740
▁मोत	-5741
▁रजी	-5742
▁लाद	-5743
▁साज	-5744
▁्वत	-5745
▁देशी	-5746
▁पयोग	-5747
ga	-5748
li	-5749
▁57	-5750
▁67	-5751
▁Di	-5752
▁ar	-5753
▁फू	-5754
▁ेष	-5755
▁ंचक	-5756
▁रला	-5757
▁रीज	-5758
▁वरण	-5759
▁ेलि	-5760
▁ोशन	-5761
▁मांक	-5762
▁hi	-5763
▁हौ	-5764
▁ूज	-5765
▁मन्	-5766
▁रोष	-5767
▁वाब	-5768
▁ालो	-5769
▁प्रण	-5770
▁िविध	-5771
▁्यता	-5772
SI	-5773
▁li	-5774
▁ठे	-5775
▁600	-5776
▁रीत	-5777
▁हिट	-5778
▁कड़ा	-5779
▁टेंड	-5780
▁स्क्	-5781
▁स्टम	-5782
▁ुद्र	-5783
▁प्रस्	-5784
CP	-5785
la	-5786
▁St	-5787
▁ed	-5788
▁IAS	-5789
▁एमए	-5790
▁जेब	-5791
▁नमः	-5792
▁प्ट	-5793
▁ानद	-5794
▁ेपी	-5795
▁आवेद	-5796
▁वरात	-5797
▁ानदार	-5798
ti	-5799
▁de	-5800
▁षण	-5801
▁her	-5802
▁जोश	-5803
▁शोक	-5804
▁हाइ	-5805
▁ALSO	-5806
▁READ	-5807
▁देशक	-5808
▁निका	-5809
▁ानून	-5810
▁िण	-5811
▁खोज	-5812
▁गाल	-5813
▁बगल	-5814
▁बुध	-5815
▁ेसि	-5816
▁द्वा	-5817
▁प्रम	-5818
▁बाढ़	-5819
▁राजस	-5820
▁ायदा	-5821
▁डै	-5822
▁मट	-5823
▁ैड	-5824
▁बाड	-5825
▁माप	-5826
▁ाफ़	-5827
▁ेट्	-5828
▁्वज	-5829
▁क्रा	-5830
▁समर्	-5831
घु	-5832
पत	-5833
▁कश	-5834
▁गे	-5835
▁दग	-5836
▁ैद	-5837
▁्ज	-5838
▁फेज	-5839
▁्रह	-5840
▁ड़ित	-5841
▁शर्म	-5842
▁ार्क	-5843
et	-5844
▁02	-5845
▁Up	-5846
▁फन	-5847
▁षक	-5848
▁ैठ	-5849
▁्द	-5850
▁दिग	-5851
▁नेश	-5852
▁ल्व	-5853
▁्रव	-5854
▁चालन	-5855
▁59	-5856
▁EV	-5857
▁SD	-5858
▁ईद	-5859
▁जट	-5860
▁फे	-5861
▁एसए	-5862
▁किम	-5863
▁कैस	-5864
▁टीए	-5865
▁डीप	-5866
▁ाति	-5867
▁ाधि	-5868
▁ासा	-5869
▁्ता	-5870
▁पत्त	-5871
▁मिया	-5872
▁स्पि	-5873
▁स्से	-5874
▁प्रता	-5875
▁र्ट्स	-5876
▁et	-5877
▁ni	-5878
▁शौ	-5879
▁ूड	-5880
▁120	-5881
▁नकद	-5882
▁वीन	-5883
▁वैन	-5884
▁सिले	-5885
▁िजिट	-5886
▁1.	-5887
▁मध	-5888
▁ढ़ा	-5889
▁बाव	-5890
▁यंस	-5891
▁ेवा	-5892
▁अप्र	-5893
▁ाइवे	-5894
▁्तानी	-5895
▁ka	-5896
▁ta	-5897
▁ऑफि	-5898
▁डिस	-5899
▁ीदी	-5900
▁जेंस	-5901
▁दायि	-5902
▁होत्	-5903
▁d	-5904
▁िह	-5905
▁तिम	-5906
▁फाइ	-5907
▁रश्	-5908
▁ूटर	-5909
▁ॉलर	-5910
▁डीएस	-5911
▁ाकार	-5912
▁आरक्ष	-5913
ate	-5914
▁4-	-5915
▁95	-5916
▁Ba	-5917
▁Day	-5918
▁गित	-5919
▁डैम	-5920
▁र्र	-5921
▁बानी	-5922
▁ब्रा	-5923
▁मारक	-5924
▁Pro	-5925
▁ओपी	-5926
▁कास	-5927
▁रना	-5928
▁लीप	-5929
▁एग्ज	-5930
▁च्ची	-5931
▁दूसर	-5932
▁ारदा	-5933
▁कानों	-5934
▁1-	-5935
▁64	-5936
▁झल	-5937
▁Pra	-5938
▁ंके	-5939
▁यकर	-5940
▁ंतरि	-5941
▁डिंग	-5942
▁िवाद	-5943
th	-5944
▁नाब	-5945
▁बका	-5946
▁रेम	-5947
▁लघु	-5948
▁लाव	-5949
▁वली	-5950
▁ुक्	-5951
▁जिया	-5952
▁ख्याल	-5953
▁x	-5954
▁NE	-5955
▁at	-5956
▁ीठ	-5957
▁800	-5958
▁ंसी	-5959
▁खरा	-5960
▁जाप	-5961
▁लमा	-5962
▁ान्	-5963
▁िकी	-5964
▁ंगों	-5965
▁किरा	-5966
▁वर्स	-5967
▁स्टि	-5968
▁ियान	-5969
▁होंने	-5970
▁el	-5971
▁ma	-5972
▁रध	-5973
▁ुह	-5974
▁अन्	-5975
▁कमर	-5976
▁कॉन	-5977
▁झलक	-5978
▁ादे	-5979
▁िग्	-5980
▁्ची	-5981
▁मुला	-5982
HO	-5983
▁3.	-5984
▁ऋण	-5985
▁700	-5986
▁आैर	-5987
▁दीन	-5988
▁भान	-5989
▁रीन	-5990
▁वीक	-5991
▁सरे	-5992
▁्ति	-5993
▁्सि	-5994
▁उद्य	-5995
▁मग्र	-5996
▁वर्त	-5997
षा	-5998
▁99	-5999
▁गठ	-6000
▁Pri	-6001
▁जीर	-6002
▁नीर	-6003
▁फरा	-6004
▁फुल	-6005
▁सनी	-6006
▁कैंस	-6007
▁्राल	-6008
▁केदार	-6009
▁विक्र	-6010
▁5-	-6011
▁SI	-6012
▁ंन	-6013
▁अत्	-6014
▁खाई	-6015
▁टीट	-6016
▁न्व	-6017
▁बाय	-6018
▁़ान	-6019
▁ासक	-6020
▁ैंप	-6021
▁ोधी	-6022
▁्रज	-6023
▁द्धा	-6024
us	-6025
▁_	-6026
▁62	-6027
▁करन	-6028
▁चुर	-6029
▁पाक	-6030
▁फिक	-6031
▁लिट	-6032
▁वैश	-6033
▁होल	-6034
▁ाजन	-6035
▁ाटक	-6036
▁िकॉ	-6037
▁्सो	-6038
▁आक्र	-6039
▁ोर्ड	-6040
▁िक्षण	-6041
▁ng	-6042
▁णि	-6043
▁ॉइ	-6044
▁ंजल	-6045
▁आएं	-6046
▁ऑफ़	-6047
▁नते	-6048
▁श्व	-6049
▁सले	-6050
▁ाटन	-6051
▁िपो	-6052
▁ूरी	-6053
▁ैसी	-6054
▁एकड़	-6055
▁ैक्टर	-6056
▁Z	-6057
▁तव	-6058
▁नट	-6059
▁भद	-6060
▁यद	-6061
▁जों	-6062
▁र्यव	-6063
▁हिंस	-6064
▁ुल्ला	-6065
UV	-6066
▁an	-6067
▁मग	-6068
▁ुच	-6069
▁केर	-6070
▁संज	-6071
▁समर	-6072
▁िपक	-6073
▁ुंद	-6074
▁ेनि	-6075
▁त्रा	-6076
▁नपुर	-6077
▁निभा	-6078
▁्राउ	-6079
▁ट्रोल	-6080
IA	-6081
ch	-6082
▁61	-6083
▁66	-6084
▁Te	-6085
▁यत	-6086
▁रय	-6087
▁370	-6088
▁झील	-6089
▁दित	-6090
▁रूक	-6091
▁ाज़	-6092
▁ीपा	-6093
▁जानक	-6094
▁्याद	-6095
mi	-6096
मे	-6097
यल	-6098
▁68	-6099
▁In	-6100
▁Pu	-6101
▁जूझ	-6102
▁तवा	-6103
▁नाइ	-6104
▁पैक	-6105
▁फरी	-6106
▁सीब	-6107
▁ारन	-6108
▁ेखर	-6109
▁ैनी	-6110
▁बस्त	-6111
▁िवर्त	-6112
si	-6113
▁78	-6114
▁GB	-6115
▁टम	-6116
▁रई	-6117
▁षध	-6118
▁आदम	-6119
▁कमि	-6120
▁दया	-6121
▁महल	-6122
▁मीद	-6123
▁रदा	-6124
▁रेक	-6125
▁वाओं	-6126
▁ुल्ल	-6127
▁स्ट्र	-6128
▁Bo	-6129
▁गस	-6130
▁भट	-6131
▁टॉस	-6132
▁ढेर	-6133
▁पेज	-6134
▁ल्क	-6135
▁वित	-6136
▁ाधन	-6137
▁ामो	-6138
▁िष्	-6139
▁ीमत	-6140
▁शकों	-6141
▁ानिक	-6142
▁्रेर	-6143
इस	-6144
▁टख	-6145
▁ऑयल	-6146
▁गाई	-6147
▁हीट	-6148
▁िनि	-6149
▁िने	-6150
▁िल्म	-6151
pp	-6152
▁03	-6153
▁05	-6154
▁ce	-6155
▁यस	-6156
▁ुष	-6157
▁कसा	-6158
▁नपु	-6159
▁नेम	-6160
▁फिट	-6161
▁फैन	-6162
▁रिए	-6163
▁Weat	-6164
▁ताओं	-6165
▁ल्ले	-6166
▁साइक	-6167
▁िप्ट	-6168
ne	-6169
▁iP	-6170
▁350	-6171
▁डील	-6172
▁तंज	-6173
▁तों	-6174
▁दीय	-6175
▁पेड	-6176
▁भंग	-6177
▁लक्	-6178
▁ोगे	-6179
▁सीटी	-6180
▁ेबाज	-6181
▁06	-6182
▁Ar	-6183
▁Na	-6184
▁To	-6185
▁बड	-6186
▁ईंट	-6187
▁ग्ध	-6188
▁जपा	-6189
▁पील	-6190
▁बॉस	-6191
▁मॉल	-6192
▁लैस	-6193
▁सीड	-6194
▁िखा	-6195
▁िजा	-6196
▁ोरे	-6197
▁पिटल	-6198
▁र्ता	-6199
▁ारने	-6200
▁ावों	-6201
यह	-6202
▁81	-6203
▁शम	-6204
▁हण	-6205
▁ईसी	-6206
▁केश	-6207
▁गवा	-6208
▁ग्ल	-6209
▁पमा	-6210
▁रेण	-6211
▁वाक	-6212
▁ेखक	-6213
▁रेगा	-6214
ut	-6215
▁आईं	-6216
▁िपा	-6217
▁्की	-6218
▁्को	-6219
▁्रय	-6220
▁भुगत	-6221
▁हरिय	-6222
▁रहेंग	-6223
▁71	-6224
▁कथ	-6225
▁ैव	-6226
▁ौह	-6227
▁shi	-6228
▁गरि	-6229
▁चलन	-6230
▁मक्	-6231
▁रैल	-6232
▁ागी	-6233
▁ाहि	-6234
▁िरफ	-6235
▁िल्	-6236
▁ुहा	-6237
▁्षण	-6238
▁NEET	-6239
▁डिप्	-6240
▁मेडि	-6241
▁सप्त	-6242
▁ांदी	-6243
▁ुर्ग	-6244
▁th	-6245
▁इच	-6246
▁ठप	-6247
▁यी	-6248
▁han	-6249
▁जया	-6250
▁भीम	-6251
▁रीम	-6252
▁ांध	-6253
▁ीक्	-6254
▁र्चा	-6255
▁स्टी	-6256
▁किस्त	-6257
▁BS	-6258
▁आलू	-6259
▁नमी	-6260
▁बची	-6261
▁सीआ	-6262
▁ोर्	-6263
▁्यर	-6264
▁ताते	-6265
▁िकों	-6266
su	-6267
▁ST	-6268
▁खे	-6269
▁बक	-6270
▁वध	-6271
▁शब	-6272
▁ॉफ	-6273
▁कैप	-6274
▁खों	-6275
▁नाए	-6276
▁नेग	-6277
▁पिच	-6278
▁सुध	-6279
▁ोसा	-6280
▁इयों	-6281
▁कारो	-6282
▁्रभार	-6283
day	-6284
▁Pa	-6285
▁VI	-6286
▁to	-6287
▁कड	-6288
▁ृह	-6289
▁पिक	-6290
▁ोदा	-6291
▁्तु	-6292
▁्मू	-6293
▁आईपी	-6294
▁ड्रा	-6295
▁प्रभा	-6296
▁76	-6297
▁Pl	-6298
▁नमन	-6299
▁ोहा	-6300
▁्वे	-6301
▁iPho	-6302
▁ंग्ल	-6303
▁्वित	-6304
IM	-6305
pa	-6306
oli	-6307
▁4.	-6308
▁उपज	-6309
▁कूद	-6310
▁भीत	-6311
▁रॉय	-6312
▁हाे	-6313
▁िटा	-6314
▁िणी	-6315
▁्ही	-6316
▁रदीप	-6317
▁स्पी	-6318
▁वासिय	-6319
▁^	-6320
oll	-6321
▁ोए	-6322
▁केल	-6323
▁मनु	-6324
▁यूथ	-6325
▁लोम	-6326
▁ष्क	-6327
▁ीमा	-6328
▁ुकी	-6329
▁ोटल	-6330
▁्लि	-6331
▁लियो	-6332
fi	-6333
me	-6334
▁ya	-6335
▁1.5	-6336
▁हवन	-6337
▁ादु	-6338
▁ुका	-6339
▁ष्कर	-6340
deo	-6341
▁ss	-6342
▁vi	-6343
▁मृ	-6344
▁ंदि	-6345
▁ंदु	-6346
▁गहन	-6347
▁बचत	-6348
▁बाक	-6349
▁बैन	-6350
▁ठेके	-6351
▁बढ़ी	-6352
▁राहा	-6353
▁र्दे	-6354
▁लेगी	-6355
▁63	-6356
▁69	-6357
▁ASI	-6358
▁आवक	-6359
▁उमर	-6360
▁जरि	-6361
▁डाक	-6362
▁डीन	-6363
▁भास	-6364
▁रंभ	-6365
▁शॉट	-6366
▁सना	-6367
▁सैफ	-6368
▁ासि	-6369
▁ेलन	-6370
▁हारी	-6371
▁िरफ्त	-6372
▁07	-6373
▁SC	-6374
▁केव	-6375
▁स्स	-6376
▁ाखा	-6377
▁ुस्त	-6378
▁ha	-6379
▁हं	-6380
▁ाजम	-6381
▁ायप	-6382
▁िरि	-6383
▁ेटी	-6384
▁Upda	-6385
▁बांग	-6386
▁यादा	-6387
▁र्मा	-6388
▁सेल्	-6389
▁िनेट	-6390
▁73	-6391
▁92	-6392
▁Hi	-6393
▁mi	-6394
▁नब	-6395
▁पग	-6396
▁IMD	-6397
▁किय	-6398
▁छठे	-6399
▁तले	-6400
▁महे	-6401
▁युग	-6402
▁सटे	-6403
▁सूत	-6404
▁ावि	-6405
▁ाहर	-6406
▁पस्थ	-6407
▁प्रथ	-6408
▁ैसला	-6409
▁ड़िया	-6410
▁सेल्स	-6411
▁74	-6412
▁le	-6413
▁com	-6414
▁अरव	-6415
▁कुर	-6416
▁छुट	-6417
▁टवा	-6418
▁धूल	-6419
▁भक्	-6420
▁िंस	-6421
▁त्ये	-6422
▁लावा	-6423
▁स्कर	-6424
▁्रित	-6425
▁of	-6426
▁़त	-6427
▁125	-6428
▁चुप	-6429
▁मले	-6430
▁मील	-6431
▁Modi	-6432
▁गिरफ	-6433
▁ार्य	-6434
▁ur	-6435
▁ण्	-6436
▁पक	-6437
▁Mar	-6438
▁एपल	-6439
▁बित	-6440
▁रोस	-6441
▁शेड	-6442
▁ाशि	-6443
GP	-6444
ala	-6445
rat	-6446
▁04	-6447
▁खू	-6448
▁गढ	-6449
▁बट	-6450
▁शू	-6451
▁ICC	-6452
▁SUV	-6453
▁Sin	-6454
▁कवि	-6455
▁ताव	-6456
▁नीच	-6457
▁रसी	-6458
▁समस	-6459
▁ापु	-6460
▁ाहु	-6461
▁िप्	-6462
▁ैला	-6463
▁केशन	-6464
▁टेशन	-6465
▁द्री	-6466
▁ल्ली	-6467
▁िनार	-6468
▁77	-6469
▁Li	-6470
▁ओव	-6471
▁जेई	-6472
▁फिस	-6473
▁मुन	-6474
▁रका	-6475
▁ीटर	-6476
▁ुंब	-6477
▁जारो	-6478
▁दौड़	-6479
▁न्हा	-6480
▁स्ता	-6481
▁ायिक	-6482
▁िलों	-6483
▁ाधिका	-6484
up	-6485
▁y	-6486
▁83	-6487
▁ंय	-6488
▁ईन	-6489
▁णन	-6490
▁RSS	-6491
▁ंटे	-6492
▁ंबो	-6493
▁गदी	-6494
▁जेट	-6495
▁जॉन	-6496
▁भूख	-6497
▁वॉक	-6498
▁शेर	-6499
▁िगत	-6500
▁ड़की	-6501
▁ल्कि	-6502
▁ालिक	-6503
▁्टेट	-6504
es	-6505
ase	-6506
▁II	-6507
▁तभ	-6508
▁षम	-6509
▁450	-6510
▁जुआ	-6511
▁ताओ	-6512
▁दिर	-6513
▁यना	-6514
▁रैक	-6515
▁सेठ	-6516
▁हना	-6517
▁नुमा	-6518
▁निर्ण	-6519
▁लेक्ट	-6520
▁110	-6521
▁अमल	-6522
▁खां	-6523
▁जूर	-6524
▁टों	-6525
▁तंग	-6526
▁नॉन	-6527
▁बोझ	-6528
▁मकर	-6529
▁श्क	-6530
▁सदी	-6531
▁ीदा	-6532
▁स्को	-6533
▁Price	-6534
▁्वालि	-6535
tt	-6536
▁84	-6537
▁AD	-6538
▁Ro	-6539
▁एआ	-6540
▁डोर	-6541
▁पीस	-6542
▁पों	-6543
▁बसे	-6544
▁मर्	-6545
▁ीरि	-6546
▁ेने	-6547
▁यकार	-6548
▁िष्य	-6549
mar	-6550
▁Of	-6551
▁Man	-6552
▁कहे	-6553
▁कुं	-6554
▁चीत	-6555
▁जीप	-6556
▁टान	-6557
▁न्फ	-6558
▁पदो	-6559
▁माई	-6560
▁रचा	-6561
▁राथ	-6562
▁िसक	-6563
▁्दी	-6564
▁भर्त	-6565
▁स्टो	-6566
▁्ट्रा	-6567
▁Ja	-6568
▁NH	-6569
▁अस्	-6570
▁ईशा	-6571
▁कीर	-6572
▁नका	-6573
▁भूम	-6574
▁ाहौ	-6575
▁्पन	-6576
▁दिला	-6577
▁हादस	-6578
▁ावनी	-6579
▁लियों	-6580
ba	-6581
ck	-6582
जब	-6583
▁82	-6584
▁es	-6585
▁ri	-6586
▁एए	-6587
▁थो	-6588
▁ौक	-6589
▁App	-6590
▁Kar	-6591
▁कील	-6592
▁कैम	-6593
▁दंड	-6594
▁रजा	-6595
▁रप्	-6596
▁शनल	-6597
▁ादन	-6598
▁ॉस्	-6599
▁प्रब	-6600
▁मोड़	-6601
▁ित्य	-6602
▁ोलिय	-6603
▁्यार	-6604
▁्लाद	-6605
▁्यार्	-6606
LA	-6607
झा	-6608
▁वड	-6609
▁ुव	-6610
▁sha	-6611
▁कोह	-6612
▁तनी	-6613
▁पाव	-6614
▁बुआ	-6615
▁यिक	-6616
▁लना	-6617
▁लाज	-6618
▁ाडा	-6619
▁ाहे	-6620
▁्णा	-6621
▁रूरी	-6622
▁र्कि	-6623
▁िश्त	-6624
▁्किल	-6625
PF	-6626
ter	-6627
▁88	-6628
▁93	-6629
▁नड	-6630
▁Har	-6631
▁Wor	-6632
▁जयप	-6633
▁जुर	-6634
▁नकल	-6635
▁बैज	-6636
▁मधु	-6637
▁्यां	-6638
▁गठबंध	-6639
▁्रत्य	-6640
ru	-6641
▁चूक	-6642
▁चें	-6643
▁जड़	-6644
▁जुन	-6645
▁डिं	-6646
▁ताई	-6647
▁यूं	-6648
▁सरल	-6649
▁ीएफ	-6650
▁्ने	-6651
▁बिजन	-6652
▁मॉर्	-6653
▁वाजा	-6654
▁िष्ठ	-6655
▁ीराम	-6656
▁ूनिय	-6657
QI	-6658
sa	-6659
▁CA	-6660
▁Mu	-6661
▁US	-6662
▁se	-6663
▁जप	-6664
▁आहत	-6665
▁एकल	-6666
▁ओला	-6667
▁धवन	-6668
▁नगद	-6669
▁शौक	-6670
▁िरक	-6671
▁ुरे	-6672
▁फैसल	-6673
▁िम्म	-6674
▁यरिंग	-6675
▁हरिया	-6676
▁°	-6677
▁91	-6678
▁94	-6679
▁NC	-6680
▁एश	-6681
▁जश	-6682
▁पच	-6683
▁Pan	-6684
▁RBI	-6685
▁एलन	-6686
▁ओझा	-6687
▁गात	-6688
▁छठी	-6689
▁तंब	-6690
▁नये	-6691
▁संर	-6692
▁सोर	-6693
▁िसा	-6694
▁ेखन	-6695
▁्पो	-6696
▁रपोर	-6697
▁राजक	-6698
▁िंदग	-6699
▁्रक्	-6700
ou	-6701
▁IT	-6702
▁rt	-6703
▁टच	-6704
▁Ban	-6705
▁खपत	-6706
▁चमक	-6707
▁पेन	-6708
▁बैक	-6709
▁म्य	-6710
▁वॉर	-6711
▁ाहा	-6712
▁ुजा	-6713
▁्हा	-6714
▁news	-6715
▁चाने	-6716
▁रदान	-6717
▁लियर	-6718
▁वाएं	-6719
▁वाहि	-6720
▁पालिक	-6721
▁mA	-6722
▁ौश	-6723
▁AQI	-6724
▁and	-6725
▁ईटी	-6726
▁उषा	-6727
▁गें	-6728
▁चक्	-6729
▁सैम	-6730
▁ाकी	-6731
▁िटर	-6732
▁ुवा	-6733
▁्वी	-6734
▁नियों	-6735
▁ार्यव	-6736
el	-6737
▁(3	-6738
▁5.	-6739
▁ंद्	-6740
▁आजम	-6741
▁जीन	-6742
▁पैन	-6743
▁वरी	-6744
▁समन	-6745
▁सुं	-6746
▁हुल	-6747
▁ियु	-6748
▁्नर	-6749
▁Kapo	-6750
▁ंट्र	-6751
▁उत्स	-6752
▁मुद्	-6753
BC	-6754
co	-6755
mp	-6756
▁09	-6757
▁Bi	-6758
▁़े	-6759
▁180	-6760
▁nce	-6761
▁आदत	-6762
▁टैग	-6763
▁धवा	-6764
▁पचा	-6765
▁ब्त	-6766
▁सिट	-6767
▁सुप	-6768
▁सून	-6769
▁ैंग	-6770
▁्के	-6771
▁थापन	-6772
▁र्षि	-6773
▁लड़ा	-6774
▁ीडिय	-6775
▁्रेम	-6776
DP	-6777
ED	-6778
ci	-6779
▁*	-6780
▁7.	-6781
▁MM	-6782
▁NS	-6783
▁PA	-6784
▁en	-6785
▁ीई	-6786
▁IPS	-6787
▁SHO	-6788
▁mAh	-6789
▁आड़	-6790
▁एनए	-6791
▁कसर	-6792
▁मौस	-6793
▁यूक	-6794
▁रिच	-6795
▁शॉप	-6796
▁िथि	-6797
▁ूबर	-6798
▁्ये	-6799
▁पंचा	-6800
▁लदार	-6801
▁ीसदी	-6802
▁ुसार	-6803
▁ोस्त	-6804
20	-6805
lhi	-6806
▁79	-6807
▁96	-6808
▁go	-6809
▁ऊं	-6810
▁जव	-6811
▁दव	-6812
▁ौं	-6813
▁2.5	-6814
▁ंदो	-6815
▁णों	-6816
▁पिय	-6817
▁भगा	-6818
▁याय	-6819
▁वाच	-6820
▁सगे	-6821
▁ाईक	-6822
▁ामू	-6823
▁खाया	-6824
▁्रेश	-6825
▁संरक्	-6826
ud	-6827
▁(4	-6828
▁97	-6829
▁98	-6830
▁िं	-6831
▁ect	-6832
▁tri	-6833
▁ंधन	-6834
▁कबर	-6835
▁किट	-6836
▁खेप	-6837
▁घने	-6838
▁जाह	-6839
▁फैक	-6840
▁ौहा	-6841
▁ार्म	-6842
▁िबंध	-6843
▁्यून	-6844
▁Delhi	-6845
▁कारों	-6846
▁स्वाम	-6847
▁Do	-6848
▁आफ	-6849
▁धि	-6850
▁लट	-6851
▁160	-6852
▁2-2	-6853
▁2-3	-6854
▁धूम	-6855
▁सीख	-6856
▁ामे	-6857
▁ेशी	-6858
▁अंबा	-6859
▁गाते	-6860
▁लेगा	-6861
▁श्चि	-6862
od	-6863
▁Q	-6864
DEO	-6865
▁An	-6866
▁एग	-6867
▁भन	-6868
▁हड	-6869
▁आये	-6870
▁उठे	-6871
▁ऋचा	-6872
▁केक	-6873
▁बरी	-6874
▁म्र	-6875
▁रॉड	-6876
▁हॉट	-6877
▁िसं	-6878
▁ीकी	-6879
▁विधा	-6880
▁स्टॉ	-6881
▁ासिय	-6882
▁Video	-6883
ld	-6884
pur	-6885
▁No	-6886
▁ुद	-6887
▁4-5	-6888
▁ंटा	-6889
▁एके	-6890
▁एवज	-6891
▁गदा	-6892
▁चरम	-6893
▁टमा	-6894
▁ट्य	-6895
▁थार	-6896
▁नास	-6897
▁निस	-6898
▁बसा	-6899
▁बोस	-6900
▁लेक	-6901
▁विक	-6902
▁सीर	-6903
▁हंस	-6904
▁ाहू	-6905
▁ूजा	-6906
▁ेजन	-6907
▁ोमा	-6908
▁ऑपरे	-6909
▁द्दा	-6910
▁भगवा	-6911
▁हाईक	-6912
▁ादेश	-6913
▁Singh	-6914
▁VIDEO	-6915
▁ग्रेस	-6916
▁ुनिया	-6917
ki	-6918
▁CS	-6919
▁Co	-6920
▁ूष	-6921
▁उमा	-6922
▁डमी	-6923
▁थोक	-6924
▁नमक	-6925
▁पूल	-6926
▁फूट	-6927
▁भूष	-6928
▁मूर	-6929
▁मेद	-6930
▁सड़	-6931
▁साद	-6932
▁ालत	-6933
▁ोका	-6934
▁्टि	-6935
▁Offi	-6936
▁Vrat	-6937
▁द्दी	-6938
▁र्मि	-6939
▁स्पत	-6940
▁िरोध	-6941
▁्लाइ	-6942
▁जिसमे	-6943
ee	-6944
ौफ	-6945
▁}	-6946
▁फट	-6947
▁(2)	-6948
▁Box	-6949
▁खौफ	-6950
▁नाट	-6951
▁ल्म	-6952
▁वेव	-6953
▁हर्	-6954
▁ोनो	-6955
▁Shar	-6956
▁लेक्	-6957
▁संचा	-6958
▁ट्रेस	-6959
▁तर्गत	-6960
▁तिवार	-6961
ST	-6962
ge	-6963
lo	-6964
ेद	-6965
▁०	-6966
▁0.	-6967
▁6.	-6968
▁87	-6969
▁ro	-6970
▁ty	-6971
▁अक	-6972
▁मठ	-6973
▁ाढ	-6974
▁ैफ	-6975
▁140	-6976
▁चर्	-6977
▁जगर	-6978
▁डीग	-6979
▁पॉल	-6980
▁शीट	-6981
▁सेफ	-6982
▁ेटे	-6983
▁्पर	-6984
▁Poli	-6985
▁फिल्	-6986
▁िरदा	-6987
RF	-6988
bh	-6989
▁IC	-6990
▁Ke	-6991
▁नं	-6992
▁ृष	-6993
etro	-6994
▁Ram	-6995
▁कृष	-6996
▁ढोल	-6997
▁तिह	-6998
▁त्प	-6999
▁रते	-7000
▁ापि	-7001
▁ुशी	-7002
▁ूचि	-7003
▁म्मा	-7004
▁िसके	-7005
▁ियोजन	-7006
▁िस्ता	-7007
IC	-7008
wa	-7009
▁Si	-7010
▁इय	-7011
▁ूव	-7012
▁900	-7013
▁ंकल	-7014
▁ईपी	-7015
▁कटा	-7016
▁परे	-7017
▁महू	-7018
▁यमि	-7019
▁ललन	-7020
▁लाध	-7021
▁हें	-7022
▁ुट्	-7023
▁्का	-7024
▁्पि	-7025
▁Maha	-7026
▁डस्ट	-7027
▁फोर्	-7028
▁्मान	-7029
▁Apple	-7030
▁ार्थि	-7031
▁ीक्षा	-7032
चक	-7033
▁AT	-7034
▁Am	-7035
▁DM	-7036
▁ir	-7037
▁lt	-7038
▁णु	-7039
▁सई	-7040
▁DSP	-7041
▁अना	-7042
▁औचक	-7043
▁डार	-7044
▁ढ़त	-7045
▁पीक	-7046
▁भनक	-7047
▁मची	-7048
▁मैस	-7049
▁लदा	-7050
▁सपो	-7051
▁िजी	-7052
▁ंडित	-7053
▁गवान	-7054
▁दिल्	-7055
▁र्टि	-7056
▁किनार	-7057
▁ाकिस्	-7058
AI	-7059
▁@	-7060
▁6-	-7061
▁Me	-7062
▁Car	-7063
▁ईवी	-7064
▁नून	-7065
▁ब्य	-7066
▁रजे	-7067
▁रोत	-7068
▁िदा	-7069
▁्मा	-7070
▁Indo	-7071
▁अलाव	-7072
▁जीतन	-7073
▁रामद	-7074
▁शंका	-7075
▁स्वर	-7076
▁िंदू	-7077
▁धीक्ष	-7078
▁ोतवाल	-7079
▁्यावर	-7080
OC	-7081
OS	-7082
wi	-7083
बन	-7084
▁86	-7085
▁89	-7086
▁AC	-7087
▁खत	-7088
▁मऊ	-7089
▁लं	-7090
▁50%	-7091
▁STF	-7092
▁डेड	-7093
▁धुन	-7094
▁बेन	-7095
▁याव	-7096
▁ीरी	-7097
▁ुष्	-7098
▁्टन	-7099
▁जिम्	-7100
▁प्रभ	-7101
▁्राव	-7102
BS	-7103
ps	-7104
te	-7105
CCI	-7106
▁08	-7107
▁OT	-7108
▁ईड	-7109
▁वद	-7110
▁SSP	-7111
▁गुड	-7112
▁बला	-7113
▁यलो	-7114
▁लटक	-7115
▁्लॉ	-7116
▁उद्द	-7117
▁शिका	-7118
▁ांची	-7119
▁िकेश	-7120
▁ैसले	-7121
▁्रीव	-7122
▁क्षता	-7123
aj	-7124
ata	-7125
▁2'	-7126
▁ऊँ	-7127
▁यज	-7128
▁षी	-7129
▁ौस	-7130
▁3-4	-7131
▁Con	-7132
▁Ran	-7133
▁gov	-7134
▁ऑर्	-7135
▁गरज	-7136
▁तां	-7137
▁मीड	-7138
▁रोट	-7139
▁सहज	-7140
▁ाइफ	-7141
▁ेबस	-7142
▁ौरव	-7143
▁ग्रव	-7144
▁ड़के	-7145
▁नाओं	-7146
▁महत्	-7147
▁रप्र	-7148
▁िकेट	-7149
▁ोषित	-7150
▁्यूटी	-7151
ss	-7152
▁(5	-7153
▁Ex	-7154
▁He	-7155
▁kh	-7156
▁़न	-7157
▁650	-7158
▁NCP	-7159
▁SDM	-7160
▁एसआ	-7161
▁घटी	-7162
▁ताे	-7163
▁दमा	-7164
▁परी	-7165
▁भील	-7166
▁मका	-7167
▁मग्	-7168
▁मौज	-7169
▁रत्	-7170
▁सकल	-7171
▁सुस	-7172
▁हिए	-7173
▁ीते	-7174
▁ोखा	-7175
▁्जा	-7176
▁्पा	-7177
▁्मल	-7178
▁्रे	-7179
▁Plus	-7180
▁ुष्क	-7181
▁ंट्री	-7182
▁लगाता	-7183
NG	-7184
ndi	-7185
▁NT	-7186
▁UG	-7187
▁RCB	-7188
▁आला	-7189
▁घना	-7190
▁घास	-7191
▁वुड	-7192
▁साई	-7193
▁ानो	-7194
▁BCCI	-7195
▁क्सल	-7196
▁World	-7197
▁दस्ता	-7198
un	-7199
▁AM	-7200
▁गट	-7201
▁Aaj	-7202
▁One	-7203
▁खाक	-7204
▁चैक	-7205
▁टखट	-7206
▁बटन	-7207
▁मुल	-7208
▁रबी	-7209
▁शटर	-7210
▁ागा	-7211
▁िवर	-7212
▁ीचे	-7213
▁मानन	-7214
▁रामप	-7215
▁ालों	-7216
▁ुमार	-7217
▁ुर्म	-7218
▁ुल्क	-7219
▁्वार	-7220
▁Petro	-7221
▁क्ष्म	-7222
▁DC	-7223
▁ऋत	-7224
▁(1)	-7225
▁For	-7226
▁अवर	-7227
▁आदी	-7228
▁छोर	-7229
▁पलक	-7230
▁मौन	-7231
▁विच	-7232
▁हमे	-7233
▁हाड	-7234
▁ेडि	-7235
▁UPSC	-7236
▁गाकर	-7237
▁िसान	-7238
▁्तों	-7239
▁Share	-7240
▁Today	-7241
▁प्रसा	-7242
▁वर्ल्	-7243
▁्रष्ट	-7244
ft	-7245
za	-7246
अब	-7247
▁Al	-7248
▁DR	-7249
▁दफ	-7250
▁101	-7251
▁240	-7252
▁Aut	-7253
▁Bho	-7254
▁ंचा	-7255
▁कप्	-7256
▁करम	-7257
▁खीर	-7258
▁ड़ल	-7259
▁नें	-7260
▁माँ	-7261
▁यूर	-7262
▁रची	-7263
▁लगन	-7264
▁शीर	-7265
▁सती	-7266
▁द्रो	-7267
▁राओं	-7268
▁सर्ज	-7269
▁िधान	-7270
▁ंडिया	-7271
IS	-7272
हल	-7273
▁CP	-7274
▁तस	-7275
▁नभ	-7276
▁मम	-7277
▁1-1	-7278
▁EVM	-7279
▁Nav	-7280
▁OBC	-7281
▁nav	-7282
▁गबन	-7283
▁घोर	-7284
▁चुक	-7285
▁चैन	-7286
▁डरा	-7287
▁दुआ	-7288
▁धीश	-7289
▁नवल	-7290
▁मेष	-7291
▁शौच	-7292
▁हुत	-7293
▁ाजे	-7294
▁ापर	-7295
▁्जन	-7296
▁्ली	-7297
▁क्षे	-7298
▁रक्ष	-7299
▁रिका	-7300
▁मुलाक	-7301
▁िखाया	-7302
▁िल्ली	-7303
DU	-7304
qu	-7305
गन	-7306
्ञ	-7307
▁En	-7308
▁SE	-7309
▁ईक	-7310
▁SIT	-7311
▁Sam	-7312
▁ऋतु	-7313
▁घटक	-7314
▁चैट	-7315
▁जने	-7316
▁डरे	-7317
▁ढ़क	-7318
▁नमो	-7319
▁नूर	-7320
▁मिड	-7321
▁रां	-7322
▁वाम	-7323
▁सुभ	-7324
▁िलि	-7325
▁ूरे	-7326
▁Coll	-7327
▁Dies	-7328
▁क्यो	-7329
▁हरों	-7330
▁्याल	-7331
▁रवाही	-7332
▁विज्ञ	-7333
CA	-7334
जो	-7335
▁ङ	-7336
▁2,	-7337
▁Fa	-7338
▁Ni	-7339
▁Po	-7340
▁Ti	-7341
▁sa	-7342
▁130	-7343
▁Sal	-7344
▁Tra	-7345
▁wal	-7346
▁उपय	-7347
▁कोष	-7348
▁खेर	-7349
▁नुक	-7350
▁यूट	-7351
▁शमी	-7352
▁ोजि	-7353
▁Panc	-7354
▁राजग	-7355
▁राज्	-7356
▁सिस्	-7357
▁बल्ले	-7358
▁म्मेद	-7359
▁ियाना	-7360
नो	-7361
▁3,	-7362
▁CR	-7363
▁Ji	-7364
▁Ru	-7365
▁mb	-7366
▁बढ	-7367
▁San	-7368
▁pur	-7369
▁ंध्	-7370
▁खैर	-7371
▁चेज	-7372
▁फेक	-7373
▁बाप	-7374
▁मजा	-7375
▁मेत	-7376
▁रवर	-7377
▁सप्	-7378
▁ागो	-7379
▁ुमा	-7380
▁ूनी	-7381
▁देंग	-7382
▁मिका	-7383
▁याना	-7384
▁िसकी	-7385
▁त्रिय	-7386
-8	-7387
PSC	-7388
▁8.	-7389
▁Ju	-7390
▁TV	-7391
▁cs	-7392
▁no	-7393
▁आओ	-7394
▁दख	-7395
▁्ग	-7396
मेंट	-7397
▁105	-7398
▁2.0	-7399
▁Air	-7400
▁Jan	-7401
▁TMC	-7402
▁एटा	-7403
▁कदर	-7404
▁कहर	-7405
▁गाए	-7406
▁टलर	-7407
▁धनु	-7408
▁नेत	-7409
▁बच्	-7410
▁रजक	-7411
▁ासी	-7412
▁ोरि	-7413
▁्मच	-7414
▁Case	-7415
▁नाकर	-7416
▁पर्क	-7417
▁ार्व	-7418
▁टमेंट	-7419
▁राजस्	-7420
▁रेक्ट	-7421
▁ाताओं	-7422
▁Ku	-7423
▁Ne	-7424
▁पड	-7425
▁पढ	-7426
▁बय	-7427
▁ंटर	-7428
▁जली	-7429
▁जोध	-7430
▁दात	-7431
▁बलि	-7432
▁बिह	-7433
▁रपा	-7434
▁रिप	-7435
▁िली	-7436
▁िषे	-7437
▁्बा	-7438
▁ंजीव	-7439
▁विष्	-7440
▁हिरा	-7441
▁ुष्प	-7442
▁इंटरन	-7443
▁िस्से	-7444
ep	-7445
to	-7446
ww	-7447
ौज	-7448
old	-7449
▁7,	-7450
▁CJ	-7451
▁La	-7452
▁ba	-7453
▁़ा	-7454
▁Ama	-7455
▁Par	-7456
▁Son	-7457
▁day	-7458
▁hor	-7459
▁ंती	-7460
▁अंड	-7461
▁अड़	-7462
▁करत	-7463
▁तिव	-7464
▁दखल	-7465
▁भटक	-7466
▁भला	-7467
▁रनी	-7468
▁रपत	-7469
▁ारि	-7470
▁छापे	-7471
▁ढ़ाई	-7472
▁त्का	-7473
▁िएशन	-7474
▁िकित	-7475
▁िसका	-7476
▁ियुक्	-7477
ke	-7478
घन	-7479
▁As	-7480
▁On	-7481
▁RT	-7482
▁Ta	-7483
▁Yo	-7484
▁उध	-7485
▁टप	-7486
▁ढह	-7487
▁मब	-7488
▁220	-7489
▁Bud	-7490
▁MLA	-7491
▁war	-7492
▁उम्	-7493
▁जगन	-7494
▁टरन	-7495
▁तरण	-7496
▁दही	-7497
▁नीम	-7498
▁मंे	-7499
▁मौक	-7500
▁वचन	-7501
▁साग	-7502
▁हैक	-7503
▁ाबू	-7504
▁ोकन	-7505
▁कलाक	-7506
▁मीडि	-7507
▁राहु	-7508
▁रिवर	-7509
▁संपत	-7510
▁ारिक	-7511
▁िकता	-7512
▁ीमार	-7513
▁ुंदर	-7514
PS	-7515
gi	-7516
vo	-7517
▁(6	-7518
▁BA	-7519
▁Ki	-7520
▁मड	-7521
▁रड	-7522
▁103	-7523
▁144	-7524
▁5-6	-7525
▁BSF	-7526
▁CAA	-7527
▁nda	-7528
▁pal	-7529
▁ver	-7530
▁www	-7531
▁अबू	-7532
▁ईको	-7533
▁जफर	-7534
▁झेल	-7535
▁बीब	-7536
▁बॉय	-7537
▁मंत	-7538
▁लला	-7539
▁ल्द	-7540
▁सूट	-7541
▁सैर	-7542
▁होन	-7543
▁ाक्	-7544
▁ीडि	-7545
▁ॉक्	-7546
▁ोलक	-7547
▁जस्ट	-7548
▁ट्रे	-7549
▁ाबला	-7550
▁ित्त	-7551
▁िमान	-7552
▁प्रिं	-7553
▁सप्ला	-7554
▁1,	-7555
▁4,	-7556
▁Op	-7557
▁si	-7558
▁रछ	-7559
▁लद	-7560
▁ाछ	-7561
▁ूथ	-7562
▁10%	-7563
▁CEO	-7564
▁CSK	-7565
▁htt	-7566
▁असद	-7567
▁ईआर	-7568
▁टनल	-7569
▁ताए	-7570
▁नपा	-7571
▁पाध	-7572
▁फौज	-7573
▁भीख	-7574
▁भीर	-7575
▁रैम	-7576
▁वसर	-7577
▁वॉल	-7578
▁शयन	-7579
▁सघन	-7580
▁हनत	-7581
▁हाट	-7582
▁ासव	-7583
▁ोटि	-7584
▁्रद	-7585
▁Chat	-7586
▁Real	-7587
▁ंचकर	-7588
▁मानो	-7589
▁मियो	-7590
▁रोहि	-7591
▁स्तो	-7592
▁हल्ल	-7593
▁हानी	-7594
▁ाखों	-7595
▁निर्म	-7596
JD	-7597
SR	-7598
do	-7599
▁=	-7600
urt	-7601
▁BH	-7602
▁Da	-7603
▁ID	-7604
▁Mi	-7605
▁ac	-7606
▁am	-7607
▁10,	-7608
▁121	-7609
▁80%	-7610
▁CJI	-7611
▁OTT	-7612
▁for	-7613
▁gle	-7614
▁the	-7615
▁खरे	-7616
▁टीआ	-7617
▁थमा	-7618
▁पाय	-7619
▁मकी	-7620
▁हैड	-7621
▁Resu	-7622
▁अगस्	-7623
▁टाने	-7624
▁तानी	-7625
▁हराय	-7626
▁ीतने	-7627
▁ुलाय	-7628
pre	-7629
▁ईय	-7630
▁टफ	-7631
▁वम	-7632
kada	-7633
ग्रा	-7634
▁750	-7635
▁Bha	-7636
▁NIA	-7637
▁New	-7638
▁SBI	-7639
▁अंश	-7640
▁गगन	-7641
▁चलो	-7642
▁चिप	-7643
▁चीख	-7644
▁तूल	-7645
▁नोज	-7646
▁पैड	-7647
▁बास	-7648
▁बैड	-7649
▁यंग	-7650
▁रम्	-7651
▁लभर	-7652
▁शीत	-7653
▁सतत	-7654
▁हुं	-7655
▁ालन	-7656
▁ुपा	-7657
▁Rahu	-7658
▁निवा	-7659
▁पत्न	-7660
▁प्रख	-7661
▁ामां	-7662
▁िगरा	-7663
▁िन्न	-7664
▁िप्प	-7665
▁ोग्रा	-7666
VP	-7667
▁z	-7668
dhi	-7669
वाह	-7670
▁SA	-7671
▁वय	-7672
▁115	-7673
▁135	-7674
▁Chi	-7675
▁Chu	-7676
▁DCP	-7677
▁GST	-7678
▁Goo	-7679
▁Shi	-7680
▁आगर	-7681
▁आरए	-7682
▁इको	-7683
▁इसक	-7684
▁जले	-7685
▁डॉन	-7686
▁पैट	-7687
▁मढ़	-7688
▁रसि	-7689
▁लबल	-7690
▁सईद	-7691
▁सतह	-7692
▁ानव	-7693
▁िसन	-7694
▁ुत्	-7695
▁ुनव	-7696
▁्दा	-7697
▁Date	-7698
▁Puja	-7699
▁Shah	-7700
▁ंदेश	-7701
▁ग्रा	-7702
▁र्वे	-7703
▁वामी	-7704
▁िर्द	-7705
▁्रिय	-7706
▁निश्च	-7707
▁परवाह	-7708
SL	-7709
kh	-7710
ly	-7711
आज	-7712
IMS	-7713
▁SR	-7714
▁ck	-7715
▁जत	-7716
▁डस	-7717
▁यि	-7718
▁12,	-7719
▁JJP	-7720
▁ऑस्	-7721
▁कवच	-7722
▁टकर	-7723
▁ठेस	-7724
▁डिश	-7725
▁नों	-7726
▁मॉक	-7727
▁मों	-7728
▁रमि	-7729
▁लने	-7730
▁़ों	-7731
▁ीणा	-7732
▁ीपु	-7733
▁ूजन	-7734
▁ेंक	-7735
▁ेत्	-7736
▁Mahi	-7737
▁hang	-7738
▁इसरा	-7739
▁दोनो	-7740
▁मोबा	-7741
▁हम्म	-7742
▁INDIA	-7743
▁Kumar	-7744
▁Rahul	-7745
IV	-7746
are	-7747
▁2:	-7748
▁9.	-7749
▁CO	-7750
▁RR	-7751
▁Tu	-7752
▁Va	-7753
▁ंर	-7754
▁पय	-7755
▁्ण	-7756
▁102	-7757
▁170	-7758
▁175	-7759
▁IIT	-7760
▁LED	-7761
▁nti	-7762
▁अटक	-7763
▁उलट	-7764
▁कन्	-7765
▁घाव	-7766
▁दड़	-7767
▁धुत	-7768
▁फेम	-7769
▁बोट	-7770
▁मरे	-7771
▁मूड	-7772
▁मैप	-7773
▁रबत	-7774
▁रैन	-7775
▁लकी	-7776
▁शिश	-7777
▁हाफ	-7778
▁िफा	-7779
▁िरं	-7780
▁्तन	-7781
▁Gala	-7782
▁Gora	-7783
▁shta	-7784
▁भड़क	-7785
▁मोर्	-7786
▁राष्	-7787
▁रिस्	-7788
▁हिला	-7789
▁्रयो	-7790
▁Navra	-7791
▁khpur	-7792
GM	-7793
PC	-7794
pe	-7795
आप	-7796
▁j	-7797
MCH	-7798
ali	-7799
ath	-7800
▁2)	-7801
▁FD	-7802
▁Sc	-7803
▁ch	-7804
▁ct	-7805
▁xy	-7806
▁छे	-7807
▁यव	-7808
▁ौड	-7809
▁106	-7810
▁210	-7811
▁ACB	-7812
▁DGP	-7813
▁Pre	-7814
▁टॉम	-7815
▁डेथ	-7816
▁णाम	-7817
▁पटक	-7818
▁बैट	-7819
▁सहम	-7820
▁हीं	-7821
▁ामप	-7822
▁ेंश	-7823
▁Gand	-7824
▁Maru	-7825
▁परिय	-7826
▁मस्त	-7827
▁र्वि	-7828
▁ष्टा	-7829
▁िद्ध	-7830
▁्पिट	-7831
▁Ekada	-7832
▁वानों	-7833
▁ऽ	-7834
ini	-7835
ree	-7836
▁..	-7837
▁BN	-7838
▁Ha	-7839
▁Hy	-7840
▁IR	-7841
▁LS	-7842
▁MI	-7843
▁ly	-7844
▁ईब	-7845
▁कफ	-7846
▁116	-7847
▁Ana	-7848
▁And	-7849
▁Cup	-7850
▁Dev	-7851
▁Dha	-7852
▁Raj	-7853
▁ter	-7854
▁अचल	-7855
▁अतः	-7856
▁आनी	-7857
▁आशु	-7858
▁कित	-7859
▁कैब	-7860
▁जिक	-7861
▁जैक	-7862
▁ड़ि	-7863
▁पका	-7864
▁पते	-7865
▁पाप	-7866
▁बुच	-7867
▁लॉस	-7868
▁वीड	-7869
▁सता	-7870
▁ियस	-7871
▁ुझे	-7872
▁्फ्	-7873
▁Live	-7874
▁Mand	-7875
▁tter	-7876
▁कानो	-7877
▁गाया	-7878
▁मुश्	-7879
▁वस्त	-7880
▁ाकों	-7881
▁िलेश	-7882
▁ेंटर	-7883
▁ोबार	-7884
▁Salma	-7885
▁hindi	-7886
▁https	-7887
FC	-7888
WD	-7889
वई	-7890
jay	-7891
▁Fe	-7892
▁KM	-7893
▁Se	-7894
▁Vs	-7895
▁ऐड	-7896
▁ढक	-7897
▁111	-7898
▁138	-7899
▁3-3	-7900
▁ASP	-7901
▁Pho	-7902
▁Pur	-7903
▁The	-7904
▁ric	-7905
▁कथन	-7906
▁कमे	-7907
▁कात	-7908
▁जहा	-7909
▁ताह	-7910
▁रवन	-7911
▁हले	-7912
▁ीबा	-7913
▁ैके	-7914
▁Gold	-7915
▁इंतज	-7916
▁गार्	-7917
▁चाहत	-7918
▁तिमा	-7919
▁तिशत	-7920
▁नकार	-7921
▁मोहल	-7922
▁रवरी	-7923
▁ाइनल	-7924
▁ाएंग	-7925
▁ुरुष	-7926
▁्रेल	-7927
▁sthan	-7928
▁मूर्त	-7929
▁हम्मद	-7930
GI	-7931
▁5,	-7932
▁Du	-7933
▁HD	-7934
▁Is	-7935
▁UN	-7936
▁Ya	-7937
▁is	-7938
▁un	-7939
▁ut	-7940
▁ुभ	-7941
▁AIM	-7942
▁Kia	-7943
▁NTA	-7944
▁way	-7945
▁कटे	-7946
▁कलह	-7947
▁खर्	-7948
▁गजब	-7949
▁गुम	-7950
▁घटा	-7951
▁घूस	-7952
▁जाब	-7953
▁जूस	-7954
▁टीव	-7955
▁पीर	-7956
▁पूज	-7957
▁भीष	-7958
▁मदर	-7959
▁शरा	-7960
▁संख	-7961
▁सलम	-7962
▁साक	-7963
▁सूल	-7964
▁ुता	-7965
▁ुप्	-7966
▁ुलि	-7967
▁ूपे	-7968
▁ेशक	-7969
▁अभ्य	-7970
▁ग्रस	-7971
▁नसून	-7972
▁युवत	-7973
▁रवाह	-7974
▁लगान	-7975
▁सोमव	-7976
▁ानगर	-7977
▁ुप्त	-7978
▁AIIMS	-7979
▁Court	-7980
▁Prade	-7981
TC	-7982
be	-7983
▁•	-7984
ill	-7985
ina	-7986
tra	-7987
▁GT	-7988
▁KK	-7989
▁MG	-7990
▁SM	-7991
▁pa	-7992
▁BHU	-7993
▁Kan	-7994
▁आरओ	-7995
▁कैफ	-7996
▁घात	-7997
▁चहल	-7998
▁छाई	-7999
▁जन्	-8000
▁डंप	-8001
▁ताऊ	-8002
▁ताय	-8003
▁थिक	-8004
▁दबे	-8005
▁दाे	-8006
▁नको	-8007
▁ननद	-8008
▁पाइ	-8009
▁बजा	-8010
▁राप	-8011
▁लंच	-8012
▁ल्य	-8013
▁सखी	-8014
▁सहन	-8015
▁िरन	-8016
▁ुझा	-8017
▁ुनक	-8018
▁्मो	-8019
▁्रत	-8020
▁shpa	-8021
▁चारि	-8022
▁फीसद	-8023
▁सत्त	-8024
▁ापित	-8025
▁ियोग	-8026
▁Prado	-8027
▁कॉलेज	-8028
▁क्राइ	-8029
▁िज्ञा	-8030
▁#	-8031
eri	-8032
ran	-8033
▁At	-8034
▁Le	-8035
▁MB	-8036
▁OS	-8037
▁di	-8038
▁घल	-8039
▁तग	-8040
▁...	-8041
▁230	-8042
▁90%	-8043
▁Com	-8044
▁Gan	-8045
▁IPO	-8046
▁Red	-8047
▁har	-8048
▁rat	-8049
▁आनन	-8050
▁उठी	-8051
▁कनी	-8052
▁कूच	-8053
▁गिय	-8054
▁ग्ज	-8055
▁छता	-8056
▁जाओ	-8057
▁तीफ	-8058
▁लिस	-8059
▁वरा	-8060
▁ालु	-8061
▁ुदा	-8062
▁ेंद	-8063
▁Bhar	-8064
▁Play	-8065
▁Tata	-8066
▁ence	-8067
▁stan	-8068
▁ंट्स	-8069
▁कांग	-8070
▁दक्ष	-8071
▁नेक्	-8072
▁रदात	-8073
▁लाड़	-8074
▁वासन	-8075
▁संख्	-8076
▁ाइबर	-8077
▁ाधान	-8078
▁िग्र	-8079
▁िट्ट	-8080
▁Samsu	-8081
▁ांग्ल	-8082
शास	-8083
▁-1	-8084
▁Ac	-8085
▁Ak	-8086
▁EO	-8087
▁Sh	-8088
▁ग़	-8089
▁104	-8090
▁3.5	-8091
▁5-5	-8092
▁7-8	-8093
▁SGP	-8094
▁TDP	-8095
▁अच्	-8096
▁उलझ	-8097
▁एपी	-8098
▁कटर	-8099
▁क्श	-8100
▁धरी	-8101
▁मगध	-8102
▁रैफ	-8103
▁लिव	-8104
▁लेग	-8105
▁वॉच	-8106
▁शॉल	-8107
▁सूद	-8108
▁सोई	-8109
▁हाक	-8110
▁ामल	-8111
▁्क्	-8112
▁्यत	-8113
▁case	-8114
▁ster	-8115
▁ंचने	-8116
▁टैंड	-8117
▁डाला	-8118
▁फलता	-8119
▁रियो	-8120
▁रिवा	-8121
▁ाबले	-8122
▁्द्र	-8123
▁elect	-8124
▁बच्चो	-8125
▁्ट्री	-8126
RP	-8127
UI	-8128
वो	-8129
IVE	-8130
ard	-8131
hat	-8132
ord	-8133
▁(8	-8134
▁AB	-8135
▁AN	-8136
▁Ad	-8137
▁CE	-8138
▁DI	-8139
▁EC	-8140
▁Fi	-8141
▁IG	-8142
▁औऱ	-8143
▁कण	-8144
▁धक	-8145
▁107	-8146
▁114	-8147
▁118	-8148
▁134	-8149
▁25%	-8150
▁360	-8151
▁40%	-8152
▁Che	-8153
▁Cho	-8154
▁Gro	-8155
▁LSG	-8156
▁Sen	-8157
▁iOS	-8158
▁आश्	-8159
▁ऑनर	-8160
▁कतर	-8161
▁कैट	-8162
▁गरम	-8163
▁गैप	-8164
▁जम्	-8165
▁डेम	-8166
▁दिय	-8167
▁दुल	-8168
▁नां	-8169
▁परत	-8170
▁पोज	-8171
▁बाइ	-8172
▁महम	-8173
▁माघ	-8174
▁रहल	-8175
▁लकर	-8176
▁लदे	-8177
▁सरी	-8178
▁ाको	-8179
▁ायस	-8180
▁ौका	-8181
▁Bank	-8182
▁LIVE	-8183
▁Moto	-8184
▁Raja	-8185
▁आईआर	-8186
▁परिण	-8187
▁श्ते	-8188
▁्लेट	-8189
▁Purni	-8190
▁एंट्र	-8191
▁रोजगा	-8192
▁लियां	-8193
▁ारियो	-8194
MM	-8195
mu	-8196
़र	-8197
all	-8198
dit	-8199
jun	-8200
rea	-8201
्रव	-8202
▁3'	-8203
▁Ga	-8204
▁ML	-8205
▁co	-8206
▁it	-8207
▁चप	-8208
▁मछ	-8209
▁षड	-8210
▁127	-8211
▁128	-8212
▁20%	-8213
▁550	-8214
▁Ben	-8215
▁MSP	-8216
▁RJD	-8217
▁ary	-8218
▁iya	-8219
▁pic	-8220
▁sya	-8221
▁twi	-8222
▁urt	-8223
▁आबा	-8224
▁एबी	-8225
▁झूम	-8226
▁ड़न	-8227
▁पतन	-8228
▁पाम	-8229
▁यबर	-8230
▁रईस	-8231
▁सजी	-8232
▁ापस	-8233
▁ाहन	-8234
▁ोनि	-8235
▁्टो	-8236
▁Budg	-8237
▁CRPF	-8238
▁Edit	-8239
▁Mini	-8240
▁Rail	-8241
▁करान	-8242
▁करोड	-8243
▁चारी	-8244
▁टैक्	-8245
▁फ्ता	-8246
▁रेंग	-8247
▁सपुर	-8248
▁ालात	-8249
▁्यान	-8250
▁उन्हे	-8251
▁पेक्ट	-8252
▁ार्रव	-8253
▁ेलिया	-8254
▁्तुति	-8255
OP	-8256
RS	-8257
US	-8258
ed	-8259
lu	-8260
छा	-8261
▁&	-8262
▁5%	-8263
▁BM	-8264
▁Ca	-8265
▁Ch	-8266
▁Ho	-8267
▁LP	-8268
▁Nm	-8269
▁Wi	-8270
▁da	-8271
▁qu	-8272
▁rd	-8273
▁इड	-8274
▁घई	-8275
▁दं	-8276
▁11,	-8277
▁117	-8278
▁151	-8279
▁3.0	-8280
▁SRH	-8281
▁mar	-8282
▁एआर	-8283
▁खोद	-8284
▁घिर	-8285
▁चाई	-8286
▁चान	-8287
▁टीन	-8288
▁थाम	-8289
▁धड़	-8290
▁रतब	-8291
▁लाओ	-8292
▁सब्	-8293
▁साख	-8294
▁सूख	-8295
▁हमा	-8296
▁हूँ	-8297
▁ेजे	-8298
▁SDRF	-8299
▁रोपी	-8300
▁स्टै	-8301
▁ांडे	-8302
▁िनिय	-8303
▁्में	-8304
▁AIMIM	-8305
▁Harya	-8306
NA	-8307
▁Ab	-8308
▁CH	-8309
▁Hz	-8310
▁Ko	-8311
▁ND	-8312
▁ay	-8313
▁ry	-8314
▁अथ	-8315
▁टड	-8316
▁़ि	-8317
▁्घ	-8318
olka	-8319
▁(4)	-8320
▁132	-8321
▁137	-8322
▁155	-8323
▁4.5	-8324
▁6.5	-8325
▁Anu	-8326
▁BAN	-8327
▁BNS	-8328
▁Hon	-8329
▁JMM	-8330
▁KKR	-8331
▁UPI	-8332
▁tra	-8333
▁val	-8334
▁ंदू	-8335
▁उपर	-8336
▁ऊंट	-8337
▁एरि	-8338
▁ओली	-8339
▁छठा	-8340
▁जगा	-8341
▁जूट	-8342
▁ठोक	-8343
▁दाब	-8344
▁दाह	-8345
▁बफर	-8346
▁भेद	-8347
▁माश	-8348
▁वतन	-8349
▁शेफ	-8350
▁सजग	-8351
▁िके	-8352
▁Bach	-8353
▁Bang	-8354
▁Holi	-8355
▁NSUI	-8356
▁Paki	-8357
▁mber	-8358
▁कराय	-8359
▁कसान	-8360
▁भावन	-8361
▁मास्	-8362
▁यवस्	-8363
▁ल्मो	-8364
▁ाहुल	-8365
▁िलता	-8366
▁्रोज	-8367
▁Amava	-8368
▁video	-8369
▁फैक्ट	-8370
▁मोबाइ	-8371
AC	-8372
du	-8373
mo	-8374
yo	-8375
भर	-8376
▁া	-8377
dav	-8378
▁DG	-8379
▁Lo	-8380
▁Wa	-8381
▁ia	-8382
▁ja	-8383
▁ki	-8384
▁up	-8385
▁उग	-8386
▁च्	-8387
▁नझ	-8388
▁ॉर	-8389
▁्ठ	-8390
▁1.2	-8391
▁109	-8392
▁119	-8393
▁123	-8394
▁190	-8395
▁315	-8396
▁ATM	-8397
▁CIS	-8398
▁Pay	-8399
▁Sur	-8400
▁Uni	-8401
▁ंचे	-8402
▁अथक	-8403
▁आयी	-8404
▁उभर	-8405
▁एडी	-8406
▁कथक	-8407
▁किं	-8408
▁टपट	-8409
▁टिम	-8410
▁डटे	-8411
▁तिथ	-8412
▁दशा	-8413
▁नके	-8414
▁पंथ	-8415
▁पौष	-8416
▁भरण	-8417
▁मध्	-8418
▁याप	-8419
▁रमह	-8420
▁लहा	-8421
▁विं	-8422
▁शों	-8423
▁संस	-8424
▁हरो	-8425
▁ीमो	-8426
▁ेश्	-8427
▁्चे	-8428
▁Mani	-8429
▁Nare	-8430
▁Test	-8431
▁ंख्य	-8432
▁चढ़ा	-8433
▁रवार	-8434
▁ुरान	-8435
▁्राप	-8436
▁Bachc	-8437
▁Kolka	-8438
▁Sense	-8439
▁Supre	-8440
BT	-8441
ish	-8442
jri	-8443
▁(7	-8444
▁6,	-8445
▁MS	-8446
▁PR	-8447
▁as	-8448
▁fi	-8449
▁il	-8450
▁ol	-8451
▁जक	-8452
▁122	-8453
▁139	-8454
▁145	-8455
▁4-4	-8456
▁7.5	-8457
▁CNG	-8458
▁FSL	-8459
▁JDU	-8460
▁Kal	-8461
▁आटा	-8462
▁आयो	-8463
▁एसई	-8464
▁कसम	-8465
▁किआ	-8466
▁खते	-8467
▁चलर	-8468
▁छिप	-8469
▁जलन	-8470
▁जुड	-8471
▁जेठ	-8472
▁डरी	-8473
▁डॉट	-8474
▁दंग	-8475
▁दफा	-8476
▁धंस	-8477
▁नसी	-8478
▁नाच	-8479
▁पॉश	-8480
▁फाग	-8481
▁राऊ	-8482
▁रूल	-8483
▁सदा	-8484
▁ाउं	-8485
▁ानप	-8486
▁िटि	-8487
▁ुड्	-8488
▁ुम्	-8489
▁्छा	-8490
▁CISF	-8491
▁Repo	-8492
▁टर्स	-8493
▁तिष्	-8494
▁ार्च	-8495
▁ालने	-8496
▁Bihar	-8497
▁न्हें	-8498
▁प्राप	-8499
▁स्पेश	-8500
▁िवर्स	-8501
GB	-8502
MP	-8503
NL	-8504
अर	-8505
fty	-8506
▁Ay	-8507
▁HC	-8508
▁MD	-8509
▁SS	-8510
▁ew	-8511
▁gn	-8512
▁id	-8513
▁mp	-8514
▁wa	-8515
▁उट	-8516
▁खड	-8517
▁चत	-8518
▁छो	-8519
▁वग	-8520
▁सट	-8521
▁ृद	-8522
▁्ख	-8523
▁(3)	-8524
▁113	-8525
▁164	-8526
▁185	-8527
▁195	-8528
▁2-1	-8529
▁303	-8530
▁351	-8531
▁BSE	-8532
▁TVS	-8533
▁Tri	-8534
▁WTC	-8535
▁You	-8536
▁अध्	-8537
▁आबू	-8538
▁आभा	-8539
▁एंग	-8540
▁एअर	-8541
▁खाप	-8542
▁गदर	-8543
▁चों	-8544
▁जूम	-8545
▁जैव	-8546
▁झार	-8547
▁ठगे	-8548
▁दाध	-8549
▁नतई	-8550
▁नेज	-8551
▁नोक	-8552
▁पक्	-8553
▁फतह	-8554
▁बीट	-8555
▁यरन	-8556
▁लिम	-8557
▁वरि	-8558
▁वसी	-8559
▁शीन	-8560
▁समी	-8561
▁हनन	-8562
▁ित्	-8563
▁ीनो	-8564
▁्चन	-8565
▁्टा	-8566
▁hand	-8567
▁ड़कर	-8568
▁नियो	-8569
▁बढ़े	-8570
▁मुक्	-8571
▁मूर्	-8572
▁हाईव	-8573
▁ृतिक	-8574
▁Nifty	-8575
▁Stree	-8576
▁ज्ञाप	-8577
AT	-8578
FI	-8579
hy	-8580
so	-8581
▁ञ	-8582
uru	-8583
▁3:	-8584
▁Au	-8585
▁OP	-8586
▁SL	-8587
▁kW	-8588
▁mo	-8589
▁गछ	-8590
▁दड	-8591
▁नख	-8592
▁य़	-8593
▁(20	-8594
▁148	-8595
▁30%	-8596
▁320	-8597
▁Net	-8598
▁PAK	-8599
▁She	-8600
▁abh	-8601
▁अरे	-8602
▁ऊषा	-8603
▁जगी	-8604
▁झड़	-8605
▁डिग	-8606
▁तपन	-8607
▁दफन	-8608
▁दीं	-8609
▁नबी	-8610
▁नरम	-8611
▁पके	-8612
▁फील	-8613
▁बैल	-8614
▁भेल	-8615
▁यति	-8616
▁रकत	-8617
▁रहर	-8618
▁रेर	-8619
▁वस्	-8620
▁शोज	-8621
▁सौं	-8622
▁़िल	-8623
▁ावध	-8624
▁िडे	-8625
▁िरद	-8626
▁ीफा	-8627
▁ुस्	-8628
▁ABVP	-8629
▁Jaya	-8630
▁SEBI	-8631
▁परेश	-8632
▁फर्ज	-8633
▁बोधि	-8634
▁यूटी	-8635
▁Arjun	-8636
DS	-8637
PM	-8638
RT	-8639
GMU	-8640
rah	-8641
sti	-8642
urd	-8643
ver	-8644
▁8-	-8645
▁9,	-8646
▁ex	-8647
▁ge	-8648
▁ke	-8649
▁va	-8650
▁ईट	-8651
▁दद	-8652
▁बश	-8653
▁(5)	-8654
▁1-2	-8655
▁126	-8656
▁5.5	-8657
▁DNA	-8658
▁EPF	-8659
▁IPC	-8660
▁Jio	-8661
▁NCR	-8662
▁Nat	-8663
▁VIP	-8664
▁आटे	-8665
▁कटी	-8666
▁चाव	-8667
▁टूल	-8668
▁टेट	-8669
▁डोज	-8670
▁तात	-8671
▁दाग	-8672
▁नकी	-8673
▁भूत	-8674
▁रुम	-8675
▁रॉक	-8676
▁समि	-8677
▁हस्	-8678
▁हात	-8679
▁िलो	-8680
▁ुनी	-8681
▁ोहि	-8682
▁्सर	-8683
▁Amit	-8684
▁Card	-8685
▁KGMU	-8686
▁Poll	-8687
▁उड़द	-8688
▁गामी	-8689
▁नाएं	-8690
▁पोस्	-8691
▁ब्लॉ	-8692
▁रीका	-8693
▁Kalki	-8694
▁Kejri	-8695
▁Yadav	-8696
▁स्कार	-8697
IT	-8698
ul	-8699
ृज	-8700
ero	-8701
hit	-8702
iti	-8703
lea	-8704
▁(9	-8705
▁CB	-8706
▁PB	-8707
▁Sk	-8708
▁ft	-8709
▁ny	-8710
▁ऐन	-8711
▁सड	-8712
▁ीध	-8713
▁20,	-8714
▁307	-8715
▁CIA	-8716
▁DIG	-8717
▁EOW	-8718
▁Hyu	-8719
▁PCB	-8720
▁Rai	-8721
▁XUV	-8722
▁nna	-8723
▁pra	-8724
▁आसन	-8725
▁गलग	-8726
▁चिट	-8727
▁छोड	-8728
▁जमे	-8729
▁टैं	-8730
▁दमन	-8731
▁दूज	-8732
▁दों	-8733
▁नईम	-8734
▁नहट	-8735
▁नीक	-8736
▁फॉल	-8737
▁बृज	-8738
▁ब्ध	-8739
▁रसद	-8740
▁रुद	-8741
▁वहा	-8742
▁शिफ	-8743
▁सरस	-8744
▁़ें	-8745
▁ीवा	-8746
▁्गा	-8747
▁्रश	-8748
▁Rana	-8749
▁ndai	-8750
▁गामा	-8751
▁चारो	-8752
▁नवाई	-8753
▁फोड़	-8754
▁लकों	-8755
▁साबि	-8756
▁सुभा	-8757
▁स्ट्	-8758
▁्केट	-8759
▁्रमो	-8760
▁Redmi	-8761
▁sabha	-8762
DO	-8763
MR	-8764
PO	-8765
fe	-8766
shi	-8767
▁1/	-8768
▁1:	-8769
▁AF	-8770
▁NR	-8771
▁PG	-8772
▁RA	-8773
▁ईल	-8774
▁ईश	-8775
▁ऐं	-8776
▁टस	-8777
दाता	-8778
▁13,	-8779
▁146	-8780
▁15,	-8781
▁2-0	-8782
▁25,	-8783
▁260	-8784
▁60%	-8785
▁70%	-8786
▁ACP	-8787
▁AUS	-8788
▁CMO	-8789
▁ISI	-8790
▁ISR	-8791
▁Kri	-8792
▁Mer	-8793
▁PWD	-8794
▁Pad	-8795
▁dha	-8796
▁gra	-8797
▁ंभव	-8798
▁आेर	-8799
▁कनक	-8800
▁नयी	-8801
▁बशर	-8802
▁मुद	-8803
▁यमन	-8804
▁रुआ	-8805
▁सजे	-8806
▁िलए	-8807
▁ुले	-8808
▁ोगो	-8809
▁ोशि	-8810
▁GMCH	-8811
▁List	-8812
▁NHAI	-8813
▁Note	-8814
▁Pand	-8815
▁Stor	-8816
▁क्रे	-8817
▁ख़ान	-8818
▁तिनि	-8819
▁नज़र	-8820
▁मिश्	-8821
▁यार्	-8822
▁योजि	-8823
▁ारिय	-8824
▁ूत्र	-8825
▁ेल्स	-8826
▁shtra	-8827
▁तदाता	-8828
▁विधाय	-8829
▁सुप्र	-8830
▁्रशास	-8831
DC	-8832
as	-8833
ग़	-8834
छल	-8835
फा	-8836
ोन	-8837
▁$	-8838
BSE	-8839
ith	-8840
sha	-8841
▁(0	-8842
▁8,	-8843
▁Ag	-8844
▁CG	-8845
▁El	-8846
▁Jo	-8847
▁MA	-8848
▁Pi	-8849
▁TT	-8850
▁ca	-8851
▁nb	-8852
▁ru	-8853
▁us	-8854
▁क‍	-8855
▁गॉ	-8856
▁बं	-8857
▁षो	-8858
atch	-8859
atra	-8860
ttar	-8861
▁(6)	-8862
▁143	-8863
▁17,	-8864
▁176	-8865
▁206	-8866
▁228	-8867
▁Ali	-8868
▁Cri	-8869
▁IMF	-8870
▁Shu	-8871
▁cal	-8872
▁hya	-8873
▁ine	-8874
▁kar	-8875
▁man	-8876
▁ure	-8877
▁ंने	-8878
▁उछल	-8879
▁ओरी	-8880
▁खेद	-8881
▁जां	-8882
▁टॉक	-8883
▁डोम	-8884
▁नयन	-8885
▁नरक	-8886
▁नहा	-8887
▁नीष	-8888
▁पकड	-8889
▁पनप	-8890
▁फेर	-8891
▁बदर	-8892
▁भोर	-8893
▁माच	-8894
▁मैट	-8895
▁रणो	-8896
▁रमल	-8897
▁रहन	-8898
▁लूज	-8899
▁ाषा	-8900
▁ुरं	-8901
▁ोस्	-8902
▁्दे	-8903
▁्पत	-8904
▁BSNL	-8905
▁Cong	-8906
▁Diwa	-8907
▁EPFO	-8908
▁Guru	-8909
▁High	-8910
▁June	-8911
▁Muhu	-8912
▁NDRF	-8913
▁Rate	-8914
▁Vivo	-8915
▁इसमे	-8916
▁कोर्	-8917
▁गौड़	-8918
▁थिया	-8919
▁फ़ग़	-8920
▁भिड़	-8921
▁लड़े	-8922
▁लांट	-8923
▁वसीय	-8924
▁संतो	-8925
▁सैनि	-8926
▁्याण	-8927
▁Chand	-8928
▁Janma	-8929
▁Kanga	-8930
▁Karti	-8931
▁Shard	-8932
▁Uttar	-8933
▁ंट्रो	-8934
▁ंपत्त	-8935
AE	-8936
EE	-8937
pu	-8938
ry	-8939
ty	-8940
कई	-8941
▁ে	-8942
▁🔴	-8943
ida	-8944
्रि	-8945
▁Ap	-8946
▁CI	-8947
▁Gu	-8948
▁MV	-8949
▁Qu	-8950
▁ad	-8951
▁he	-8952
▁ic	-8953
▁nj	-8954
▁nu	-8955
▁so	-8956
▁अह	-8957
▁इट	-8958
▁ईई	-8959
▁औल	-8960
▁वच	-8961
▁्ह	-8962
▁1-0	-8963
▁141	-8964
▁142	-8965
▁147	-8966
▁169	-8967
▁172	-8968
▁223	-8969
▁234	-8970
▁302	-8971
▁420	-8972
▁ADA	-8973
▁Act	-8974
▁BMW	-8975
▁BSP	-8976
▁Cre	-8977
▁DMK	-8978
▁ICU	-8979
▁Jam	-8980
▁LPG	-8981
▁May	-8982
▁SMS	-8983
▁Sri	-8984
▁con	-8985
▁kWh	-8986
▁nga	-8987
▁nic	-8988
▁unt	-8989
▁ंची	-8990
▁ंधि	-8991
▁ंसे	-8992
▁इतर	-8993
▁इरा	-8994
▁ओरण	-8995
▁कवा	-8996
▁क‍ि	-8997
▁गेल	-8998
▁जिं	-8999
▁जिय	-9000
▁जोस	-9001
▁पकी	-9002
▁पटा	-9003
▁बंट	-9004
▁मझौ	-9005
▁महक	-9006
▁लवे	-9007
▁हिन	-9008
▁हेग	-9009
▁ुश्	-9010
▁ूदा	-9011
▁ेफर	-9012
▁ेलव	-9013
▁ोहल	-9014
▁्ना	-9015
▁Amba	-9016
▁Deep	-9017
▁Hind	-9018
▁Rukh	-9019
▁Sona	-9020
▁What	-9021
▁उड़ा	-9022
▁चिका	-9023
▁याचि	-9024
▁रवान	-9025
▁र्षद	-9026
▁लाओं	-9027
▁सदस्	-9028
▁हथिय	-9029
▁ामला	-9030
▁ाहित	-9031
▁िससे	-9032
▁Cheta	-9033
▁Karna	-9034
▁राप्त	-9035
▁सक्रि	-9036
▁ाराष्	-9037
▁िर्धा	-9038
CS	-9039
LD	-9040
TA	-9041
TI	-9042
gg	-9043
my	-9044
▁̈	-9045
ami	-9046
▁-2	-9047
▁BE	-9048
▁Be	-9049
▁EM	-9050
▁EX	-9051
▁Fu	-9052
▁NG	-9053
▁PS	-9054
▁SO	-9055
▁by	-9056
▁fa	-9057
▁nc	-9058
▁गह	-9059
▁चढ	-9060
▁छग	-9061
▁झक	-9062
▁डं	-9063
▁रअ	-9064
▁ेण	-9065
▁।।	-9066
mart	-9067
▁(25	-9068
▁165	-9069
▁181	-9070
▁288	-9071
▁3-0	-9072
▁305	-9073
▁35%	-9074
▁ENG	-9075
▁Fli	-9076
▁Sid	-9077
▁Swi	-9078
▁phy	-9079
▁raj	-9080
▁tha	-9081
▁आरव	-9082
▁गेज	-9083
▁चरस	-9084
▁चेस	-9085
▁छिन	-9086
▁छुप	-9087
▁जिप	-9088
▁जैद	-9089
▁ठगा	-9090
▁ड़व	-9091
▁तपु	-9092
▁तिप	-9093
▁धरन	-9094
▁फड़	-9095
▁फीड	-9096
▁बसी	-9097
▁यर्	-9098
▁रदी	-9099
▁रीट	-9100
▁सटा	-9101
▁सटी	-9102
▁सबस	-9103
▁सीप	-9104
▁ाचि	-9105
▁िफि	-9106
▁ेका	-9107
▁ेजो	-9108
▁ैनि	-9109
▁ोमी	-9110
▁्वस	-9111
▁Acci	-9112
▁Arvi	-9113
▁Ayod	-9114
▁BPSC	-9115
▁Isra	-9116
▁Pari	-9117
▁RPSC	-9118
▁Shan	-9119
▁Upay	-9120
▁baza	-9121
▁अड़े	-9122
▁गुड़	-9123
▁त्रण	-9124
▁पढ़े	-9125
▁पताल	-9126
▁रदेश	-9127
▁ामिल	-9128
▁ुड़ी	-9129
▁ृत्व	-9130
▁ेजरी	-9131
▁्वास	-9132
▁Champ	-9133
▁Hindi	-9134
▁Honda	-9135
▁Rohit	-9136
▁state	-9137
▁ंचालि	-9138
▁ंद्री	-9139
▁पूछता	-9140
▁वीडिय	-9141
WS	-9142
no	-9143
मन	-9144
रन	-9145
▁➤	-9146
cto	-9147
ear	-9148
ite	-9149
per	-9150
▁1%	-9151
▁AP	-9152
▁Aw	-9153
▁BR	-9154
▁By	-9155
▁Ed	-9156
▁JN	-9157
▁My	-9158
▁Sp	-9159
▁iQ	-9160
▁om	-9161
▁po	-9162
▁wi	-9163
▁ओन	-9164
▁ठन	-9165
▁मख	-9166
▁सभ	-9167
atha	-9168
irth	-9169
▁(10	-9170
▁(12	-9171
▁(24	-9172
▁1.3	-9173
▁124	-9174
▁149	-9175
▁154	-9176
▁174	-9177
▁177	-9178
▁191	-9179
▁202	-9180
▁24,	-9181
▁280	-9182
▁30,	-9183
▁7.6	-9184
▁DDU	-9185
▁Far	-9186
▁GRP	-9187
▁Kha	-9188
▁OPD	-9189
▁Pit	-9190
▁Sar	-9191
▁Sat	-9192
▁Tro	-9193
▁Who	-9194
▁ber	-9195
▁gan	-9196
▁vra	-9197
▁wan	-9198
▁आदर	-9199
▁एंव	-9200
▁ओले	-9201
▁औंस	-9202
▁औलख	-9203
▁कंस	-9204
▁करव	-9205
▁चरक	-9206
▁जंप	-9207
▁जाे	-9208
▁टैब	-9209
▁डेल	-9210
▁तरल	-9211
▁तोड	-9212
▁दूं	-9213
▁धनी	-9214
▁नैक	-9215
▁नैन	-9216
▁पटल	-9217
▁पला	-9218
▁पैठ	-9219
▁बले	-9220
▁रहम	-9221
▁रूह	-9222
▁लदी	-9223
▁शंख	-9224
▁सगर	-9225
▁सबब	-9226
▁हीद	-9227
▁िचा	-9228
▁िहा	-9229
▁ुके	-9230
▁्प्	-9231
▁्मी	-9232
▁्यम	-9233
▁ADAS	-9234
▁Allu	-9235
▁Amaz	-9236
▁ISRO	-9237
▁Mark	-9238
▁Revi	-9239
▁ंडिय	-9240
▁उमड़	-9241
▁जेक्	-9242
▁झड़प	-9243
▁फाड़	-9244
▁मारन	-9245
▁रिकी	-9246
▁वालो	-9247
▁ाड़ि	-9248
▁ैनिक	-9249
▁्रदर	-9250
▁Festi	-9251
▁Sinha	-9252
▁Smart	-9253
▁Vidhi	-9254
▁परिवा	-9255
▁फ्तार	-9256
▁ात्री	-9257
▁्यर्थ	-9258
ji	-9259
ku	-9260
और	-9261
दो	-9262
वह	-9263
▁ऱ	-9264
ili	-9265
oda	-9266
rom	-9267
्रे	-9268
▁BB	-9269
▁DA	-9270
▁FY	-9271
▁GP	-9272
▁HA	-9273
▁LL	-9274
▁MC	-9275
▁MO	-9276
▁MU	-9277
▁NO	-9278
▁SH	-9279
▁UK	-9280
▁cy	-9281
▁km	-9282
▁ll	-9283
▁my	-9284
▁ve	-9285
▁ईए	-9286
▁ढल	-9287
▁थन	-9288
▁भज	-9289
reak	-9290
स्पि	-9291
▁(21	-9292
▁(22	-9293
▁15%	-9294
▁152	-9295
▁153	-9296
▁167	-9297
▁188	-9298
▁205	-9299
▁225	-9300
▁375	-9301
▁506	-9302
▁6-7	-9303
▁950	-9304
▁ATS	-9305
▁Gen	-9306
▁MVA	-9307
▁Mal	-9308
▁NSE	-9309
▁POC	-9310
▁RPF	-9311
▁UGC	-9312
▁USA	-9313
▁Xia	-9314
▁ent	-9315
▁pam	-9316
▁pho	-9317
▁ram	-9318
▁shm	-9319
▁आंत	-9320
▁एजी	-9321
▁एडम	-9322
▁एवम	-9323
▁कतई	-9324
▁कना	-9325
▁कौल	-9326
▁खफा	-9327
▁छात	-9328
▁झुक	-9329
▁पसर	-9330
▁पिन	-9331
▁फला	-9332
▁बहल	-9333
▁बेग	-9334
▁बोन	-9335
▁मोब	-9336
▁रको	-9337
▁रपो	-9338
▁रबल	-9339
▁रिष	-9340
▁लेह	-9341
▁वेन	-9342
▁िंत	-9343
▁िमि	-9344
▁िम्	-9345
▁ियं	-9346
▁ेशल	-9347
▁ोलन	-9348
▁ौटा	-9349
▁Aish	-9350
▁Aksh	-9351
▁Bigg	-9352
▁Gane	-9353
▁MBBS	-9354
▁Mali	-9355
▁Murd	-9356
▁Yoja	-9357
▁उसमे	-9358
▁जिन्	-9359
▁जेंद	-9360
▁न्हे	-9361
▁पढ़ा	-9362
▁बल्क	-9363
▁रताप	-9364
▁रीक्	-9365
▁वजूद	-9366
▁हचान	-9367
▁ांधी	-9368
▁ालीन	-9369
▁ुराल	-9370
▁Birth	-9371
▁Jammu	-9372
▁Priya	-9373
▁SGPGI	-9374
▁Shani	-9375
▁Story	-9376
▁Surya	-9377
▁warya	-9378
▁नावों	-9379
▁बोधित	-9380
▁वरिष्	-9381
▁वर्षो	-9382
▁वालिय	-9383
▁वास्थ	-9384
▁ास्ता	-9385
▁िर्वा	-9386
▁ॉस्पि	-9387
▁्राप्	-9388
bo	-9389
एं	-9390
जल	-9391
▁র	-9392
ame	-9393
ing	-9394
sta	-9395
vah	-9396
ालि	-9397
▁0-	-9398
▁AR	-9399
▁JP	-9400
▁MT	-9401
▁PD	-9402
▁Ri	-9403
▁TR	-9404
▁WC	-9405
▁bi	-9406
▁ey	-9407
▁im	-9408
▁lo	-9409
▁pi	-9410
▁अॉ	-9411
▁ईख	-9412
▁डग	-9413
▁धब	-9414
▁वई	-9415
▁वु	-9416
▁षद	-9417
▁ौट	-9418
▁₹1	-9419
▁(15	-9420
▁131	-9421
▁162	-9422
▁171	-9423
▁18,	-9424
▁201	-9425
▁243	-9426
▁272	-9427
▁3.6	-9428
▁310	-9429
▁365	-9430
▁4.2	-9431
▁4.6	-9432
▁543	-9433
▁8.5	-9434
▁Aar	-9435
▁Ash	-9436
▁CHC	-9437
▁DEO	-9438
▁III	-9439
▁IOC	-9440
▁LDA	-9441
▁Mic	-9442
▁PAC	-9443
▁UAE	-9444
▁War	-9445
▁Wom	-9446
▁age	-9447
▁hra	-9448
▁nya	-9449
▁अनस	-9450
▁आइस	-9451
▁औरत	-9452
▁खाय	-9453
▁गोह	-9454
▁छलक	-9455
▁जेन	-9456
▁टहल	-9457
▁डीह	-9458
▁ढहा	-9459
▁तैर	-9460
▁धरा	-9461
▁पंख	-9462
▁पटे	-9463
▁पवई	-9464
▁पेक	-9465
▁पोप	-9466
▁फटे	-9467
▁फाफ	-9468
▁मनन	-9469
▁रमु	-9470
▁रहट	-9471
▁शेप	-9472
▁सबा	-9473
▁ुपर	-9474
▁ूजर	-9475
▁ूटी	-9476
▁ेते	-9477
▁ेवे	-9478
▁Atta	-9479
▁Beng	-9480
▁Boss	-9481
▁CBSE	-9482
▁Chha	-9483
▁HDFC	-9484
▁Land	-9485
▁Open	-9486
▁SDOP	-9487
▁Tube	-9488
▁kshi	-9489
▁mark	-9490
▁mbly	-9491
▁ंधित	-9492
▁डॉक्	-9493
▁दाबा	-9494
▁पेक्	-9495
▁फ्रे	-9496
▁रिजन	-9497
▁र्शन	-9498
▁लांक	-9499
▁ाशों	-9500
▁िस्स	-9501
▁ेरिक	-9502
▁्रैक	-9503
▁Inter	-9504
▁Radhi	-9505
▁Relea	-9506
▁Worth	-9507
▁जीनिय	-9508
▁पत्रक	-9509
▁यापार	-9510
▁सार्व	-9511
▁ाबालि	-9512
▁ार्यो	-9513
▁िलाएं	-9514
▁ॉक्टर	-9515
24	-9516
KS	-9517
MA	-9518
bi	-9519
by	-9520
ef	-9521
sc	-9522
फे	-9523
▁🌟	-9524
PCL	-9525
ale	-9526
ati	-9527
ine	-9528
ock	-9529
rad	-9530
ोध्	-9531
▁4%	-9532
▁5:	-9533
▁Bu	-9534
▁Im	-9535
▁LG	-9536
▁NZ	-9537
▁RO	-9538
▁SK	-9539
▁cc	-9540
▁ci	-9541
▁ku	-9542
▁कझ	-9543
▁कभ	-9544
▁टब	-9545
▁तच	-9546
▁शट	-9547
▁शफ	-9548
▁़ब	-9549
▁ॉज	-9550
▁(14	-9551
▁(8)	-9552
▁0.5	-9553
▁133	-9554
▁136	-9555
▁156	-9556
▁168	-9557
▁19,	-9558
▁192	-9559
▁209	-9560
▁23,	-9561
▁251	-9562
▁3.1	-9563
▁5.8	-9564
▁75%	-9565
▁ABS	-9566
▁Bhu	-9567
▁Bla	-9568
▁CPI	-9569
▁Can	-9570
▁Dho	-9571
▁Gau	-9572
▁IMA	-9573
▁INS	-9574
▁Mon	-9575
▁Som	-9576
▁Tru	-9577
▁WHO	-9578
▁nad	-9579
▁nch	-9580
▁ncy	-9581
▁nta	-9582
▁अधर	-9583
▁अॉफ	-9584
▁आफत	-9585
▁उगल	-9586
▁उबर	-9587
▁उरई	-9588
▁एमी	-9589
▁ऐंठ	-9590
▁ओटी	-9591
▁कलम	-9592
▁कीट	-9593
▁कैग	-9594
▁खिर	-9595
▁गमन	-9596
▁घटे	-9597
▁घनी	-9598
▁जीभ	-9599
▁जूद	-9600
▁टाफ	-9601
▁डोल	-9602
▁तकन	-9603
▁दवे	-9604
▁पचु	-9605
▁पहर	-9606
▁पॉप	-9607
▁बली	-9608
▁मवा	-9609
▁मीत	-9610
▁रहो	-9611
▁वंद	-9612
▁शीश	-9613
▁सगी	-9614
▁सनम	-9615
▁सेब	-9616
▁हेट	-9617
▁ाचन	-9618
▁ाजप	-9619
▁ीटि	-9620
▁ीतर	-9621
▁ेहद	-9622
▁ोगि	-9623
▁ोजे	-9624
▁ोलि	-9625
▁्कर	-9626
▁्दो	-9627
▁्मे	-9628
▁Band	-9629
▁Doct	-9630
▁Fina	-9631
▁Gour	-9632
▁MUDA	-9633
▁SGPC	-9634
▁Temp	-9635
▁Xiao	-9636
▁from	-9637
▁rega	-9638
▁shti	-9639
▁ंदीप	-9640
▁कड़ो	-9641
▁डियम	-9642
▁पढ़ी	-9643
▁पालि	-9644
▁बंगा	-9645
▁भावि	-9646
▁मैदा	-9647
▁रेक्	-9648
▁र्गा	-9649
▁़िया	-9650
▁ारोह	-9651
▁्मों	-9652
▁्वर्	-9653
▁Award	-9654
▁Break	-9655
▁China	-9656
▁Micro	-9657
▁अयोध्	-9658
▁उपलब्	-9659
▁दाबाद	-9660
▁ितंबर	-9661
▁ेमारी	-9662
▁्लेटफ	-9663
▁्वारा	-9664
FS	-9665
OO	-9666
PL	-9667
ca	-9668
dh	-9669
zu	-9670
थर	-9671
दर	-9672
लन	-9673
▁ळ	-9674
▁॰	-9675
dia	-9676
ilm	-9677
jaj	-9678
lia	-9679
mer	-9680
ral	-9681
she	-9682
▁2"	-9683
▁3%	-9684
▁7-	-9685
▁AK	-9686
▁Cy	-9687
▁FA	-9688
▁HS	-9689
▁IA	-9690
▁JF	-9691
▁KG	-9692
▁PP	-9693
▁do	-9694
▁ee	-9695
▁fe	-9696
▁ईग	-9697
▁खप	-9698
▁तज	-9699
▁यट	-9700
▁हग	-9701
SSAI	-9702
hark	-9703
▁158	-9704
▁16,	-9705
▁182	-9706
▁197	-9707
▁199	-9708
▁246	-9709
▁26,	-9710
▁341	-9711
▁5-7	-9712
▁560	-9713
▁6.7	-9714
▁8-8	-9715
▁850	-9716
▁Ada	-9717
▁EMI	-9718
▁GDP	-9719
▁IED	-9720
▁NOC	-9721
▁Ola	-9722
▁PHO	-9723
▁Rec	-9724
▁SAD	-9725
▁TOS	-9726
▁bad	-9727
▁bal	-9728
▁cle	-9729
▁pri	-9730
▁ंभी	-9731
▁अबु	-9732
▁अभ्	-9733
▁अलख	-9734
▁आंच	-9735
▁ईडन	-9736
▁ईसा	-9737
▁एसओ	-9738
▁ऑडी	-9739
▁क़े	-9740
▁कीं	-9741
▁कुक	-9742
▁कैन	-9743
▁कौम	-9744
▁गवई	-9745
▁गेर	-9746
▁चाक	-9747
▁छेद	-9748
▁जॉय	-9749
▁झोन	-9750
▁टाय	-9751
▁तेग	-9752
▁तोप	-9753
▁दंत	-9754
▁फदर	-9755
▁बदन	-9756
▁भाऊ	-9757
▁यथा	-9758
▁यरम	-9759
▁यहा	-9760
▁रबर	-9761
▁लहट	-9762
▁लाफ	-9763
▁सडक	-9764
▁सलि	-9765
▁सुई	-9766
▁सोए	-9767
▁़ता	-9768
▁ाप्	-9769
▁ुसा	-9770
▁ूजी	-9771
▁ोके	-9772
▁ोति	-9773
▁्ठा	-9774
▁्तम	-9775
▁Army	-9776
▁Hero	-9777
▁Hima	-9778
▁Mang	-9779
▁Tela	-9780
▁Viol	-9781
▁Waya	-9782
▁ंस्ट	-9783
▁आबाद	-9784
▁इंजी	-9785
▁कियो	-9786
▁क्सी	-9787
▁दुका	-9788
▁बताय	-9789
▁बारि	-9790
▁लंबि	-9791
▁लिस्	-9792
▁वर्ल	-9793
▁संगठ	-9794
▁सामा	-9795
▁हड़प	-9796
▁ीतिक	-9797
▁ेन्द	-9798
▁ोजना	-9799
▁्तिय	-9800
▁्लेब	-9801
▁Aarya	-9802
▁Bajaj	-9803
▁Chief	-9804
▁FSSAI	-9805
▁Force	-9806
▁Group	-9807
▁Pitru	-9808
▁Yatra	-9809
▁shmir	-9810
FO	-9811
ME	-9812
td	-9813
tm	-9814
हे	-9815
▁q	-9816
▁ক	-9817
▁⁠	-9818
ent	-9819
hli	-9820
kra	-9821
xel	-9822
▁4:	-9823
▁CC	-9824
▁CN	-9825
▁CU	-9826
▁JS	-9827
▁NA	-9828
▁Vo	-9829
▁az	-9830
▁sc	-9831
▁ऐश	-9832
▁ओछ	-9833
▁खम	-9834
▁णत	-9835
▁धत	-9836
▁वप	-9837
▁0.1	-9838
▁0.9	-9839
▁12%	-9840
▁129	-9841
▁18%	-9842
▁184	-9843
▁196	-9844
▁2.4	-9845
▁262	-9846
▁340	-9847
▁376	-9848
▁8-9	-9849
▁AMU	-9850
▁ANI	-9851
▁Aam	-9852
▁Adi	-9853
▁Ani	-9854
▁CAS	-9855
▁Fir	-9856
▁Han	-9857
▁IIM	-9858
▁LAC	-9859
▁MLC	-9860
▁Max	-9861
▁Poo	-9862
▁RTI	-9863
▁RTO	-9864
▁Rak	-9865
▁Rao	-9866
▁Top	-9867
▁Var	-9868
▁thi	-9869
▁ंकन	-9870
▁ंबई	-9871
▁आगा	-9872
▁आशय	-9873
▁एथर	-9874
▁एमप	-9875
▁कीव	-9876
▁ख़ा	-9877
▁गता	-9878
▁गरब	-9879
▁गहर	-9880
▁गेन	-9881
▁घुल	-9882
▁चाट	-9883
▁छपी	-9884
▁जुए	-9885
▁झाग	-9886
▁टड़	-9887
▁टेप	-9888
▁डवा	-9889
▁ढाल	-9890
▁तनु	-9891
▁तरस	-9892
▁तिब	-9893
▁दबी	-9894
▁दला	-9895
▁निए	-9896
▁नोच	-9897
▁पदम	-9898
▁फिश	-9899
▁बरत	-9900
▁बरल	-9901
▁बस्	-9902
▁बां	-9903
▁यदु	-9904
▁रफी	-9905
▁लवी	-9906
▁वधू	-9907
▁शॉक	-9908
▁सकर	-9909
▁सख्	-9910
▁सूप	-9911
▁हक़	-9912
▁हते	-9913
▁होप	-9914
▁ेकि	-9915
▁ेदन	-9916
▁ोग्	-9917
▁्मि	-9918
▁Ajay	-9919
▁Apri	-9920
▁Asse	-9921
▁Deol	-9922
▁Exit	-9923
▁Film	-9924
▁Flip	-9925
▁INDI	-9926
▁Iran	-9927
▁Janh	-9928
▁Kera	-9929
▁Khar	-9930
▁Lord	-9931
▁Noth	-9932
▁PMLA	-9933
▁Seri	-9934
▁Star	-9935
▁Suni	-9936
▁Tips	-9937
▁Visi	-9938
▁ganj	-9939
▁iQOO	-9940
▁upda	-9941
▁ंतर्	-9942
▁करिय	-9943
▁घड़ी	-9944
▁जाएग	-9945
▁दोलन	-9946
▁नोटि	-9947
▁पुष्	-9948
▁मवार	-9949
▁याशी	-9950
▁ीनिय	-9951
▁Jhark	-9952
▁Karee	-9953
▁Kohli	-9954
▁Pixel	-9955
▁Swift	-9956
▁Viral	-9957
▁Virat	-9958
▁Vivah	-9959
▁Women	-9960
▁डस्ट्	-9961
▁निर्व	-9962
▁भक्तो	-9963
▁माजिक	-9964
▁सप्रे	-9965
▁स्थाप	-9966
▁्पिटल	-9967
ES	-9968
TM	-9969
YC	-9970
ak	-9971
ej	-9972
fa	-9973
sp	-9974
ym	-9975
zi	-9976
ICI	-9977
ald	-9978
ank	-9979
arh	-9980
ble	-9981
cky	-9982
lic	-9983
lsi	-9984
▁6%	-9985
▁CL	-9986
▁DL	-9987
▁IO	-9988
▁LU	-9989
▁RS	-9990
▁Sy	-9991
▁Ul	-9992
▁Ve	-9993
▁WI	-9994
▁hp	-9995
▁ko	-9996
▁ईज	-9997
▁ऊल	-9998
▁गभ	-9999
▁जौ	-10000
▁फस	-10001
▁यग	-10002
▁(26	-10003
▁1/2	-10004
▁14,	-10005
▁159	-10006
▁161	-10007
▁178	-10008
▁204	-10009
▁255	-10010
▁261	-10011
▁268	-10012
▁27,	-10013
▁28,	-10014
▁290	-10015
▁292	-10016
▁318	-10017
▁336	-10018
▁580	-10019
▁BJD	-10020
▁BMC	-10021
▁Gre	-10022
▁HAL	-10023
▁Khe	-10024
▁LLB	-10025
▁MBA	-10026
▁Mau	-10027
▁NGO	-10028
▁NHM	-10029
▁NPS	-10030
▁NTR	-10031
▁Neo	-10032
▁OMR	-10033
▁Por	-10034
▁SOG	-10035
▁SSB	-10036
▁Tha	-10037
▁UBT	-10038
▁UCC	-10039
▁end	-10040
▁nat	-10041
▁nge	-10042
▁nka	-10043
▁org	-10044
▁sam	-10045
▁tal	-10046
▁und	-10047
▁ंटो	-10048
▁ऋणी	-10049
▁ओढ़	-10050
▁ओनर	-10051
▁केप	-10052
▁कॉक	-10053
▁खोए	-10054
▁गजल	-10055
▁गने	-10056
▁गरू	-10057
▁घोल	-10058
▁चलक	-10059
▁चास	-10060
▁जंक	-10061
▁जतन	-10062
▁जेक	-10063
▁जोड	-10064
▁झूल	-10065
▁टैप	-10066
▁ढका	-10067
▁तहस	-10068
▁दुब	-10069
▁देय	-10070
▁धुर	-10071
▁धोद	-10072
▁फैट	-10073
▁बसु	-10074
▁बाण	-10075
▁बूट	-10076
▁भीग	-10077
▁भुज	-10078
▁मखम	-10079
▁मेघ	-10080
▁मैक	-10081
▁रथल	-10082
▁रीड	-10083
▁रूफ	-10084
▁रेफ	-10085
▁लॉग	-10086
▁वॉश	-10087
▁सरक	-10088
▁सहर	-10089
▁साए	-10090
▁हटे	-10091
▁हमद	-10092
▁ाइं	-10093
▁ाइय	-10094
▁िजय	-10095
▁िनक	-10096
▁िनम	-10097
▁ुरक	-10098
▁Cars	-10099
▁Cont	-10100
▁Fore	-10101
▁Grah	-10102
▁ISIS	-10103
▁Mant	-10104
▁Masi	-10105
▁Niti	-10106
▁Octo	-10107
▁Shai	-10108
▁Suzu	-10109
▁Teej	-10110
▁Time	-10111
▁Vish	-10112
▁Year	-10113
▁atta	-10114
▁blic	-10115
▁njay	-10116
▁with	-10117
▁कुमा	-10118
▁क्टि	-10119
▁ताबि	-10120
▁पेशल	-10121
▁बनाय	-10122
▁बाजा	-10123
▁वेस्	-10124
▁सप्ल	-10125
▁साफ़	-10126
▁ुश्क	-10127
▁ैदान	-10128
▁ोधित	-10129
▁Death	-10130
▁Deepi	-10131
▁Enter	-10132
▁Expre	-10133
▁ICICI	-10134
▁Merce	-10135
▁Presi	-10136
▁State	-10137
▁Tulsi	-10138
▁Vicky	-10139
▁Wishe	-10140
▁आरोपि	-10141
▁यक्ति	-10142
▁वाहनो	-10143
30	-10144
50	-10145
BW	-10146
IP	-10147
PI	-10148
RA	-10149
WA	-10150
gn	-10151
pd	-10152
rd	-10153
ऑल	-10154
घर	-10155
▁२	-10156
ber	-10157
bin	-10158
dha	-10159
edd	-10160
ell	-10161
jja	-10162
omb	-10163
ore	-10164
oun	-10165
wan	-10166
▁1)	-10167
▁8:	-10168
▁Az	-10169
▁BG	-10170
▁DE	-10171
▁Gw	-10172
▁HM	-10173
▁IS	-10174
▁Lu	-10175
▁RL	-10176
▁SG	-10177
▁Sw	-10178
▁TI	-10179
▁Ut	-10180
▁VV	-10181
▁XE	-10182
▁be	-10183
▁kg	-10184
▁pu	-10185
▁rp	-10186
▁sy	-10187
▁ts	-10188
▁ul	-10189
▁आध	-10190
▁ठल	-10191
▁तख	-10192
▁रझ	-10193
ervi	-10194
lood	-10195
rude	-10196
usse	-10197
▁(18	-10198
▁1.4	-10199
▁1.6	-10200
▁1.7	-10201
▁1.8	-10202
▁157	-10203
▁163	-10204
▁194	-10205
▁198	-10206
▁203	-10207
▁207	-10208
▁208	-10209
▁21,	-10210
▁212	-10211
▁222	-10212
▁241	-10213
▁256	-10214
▁265	-10215
▁266	-10216
▁270	-10217
▁275	-10218
▁304	-10219
▁308	-10220
▁327	-10221
▁35,	-10222
▁352	-10223
▁4.3	-10224
▁415	-10225
▁470	-10226
▁525	-10227
▁720	-10228
▁9.5	-10229
▁ADM	-10230
▁Aad	-10231
▁Ale	-10232
▁CSP	-10233
▁Dri	-10234
▁ECI	-10235
▁Glo	-10236
▁ITI	-10237
▁JCB	-10238
▁JEE	-10239
▁JNU	-10240
▁Law	-10241
▁Ltd	-10242
▁MOU	-10243
▁NCB	-10244
▁NSA	-10245
▁PGI	-10246
▁PTI	-10247
▁Pak	-10248
▁Sho	-10249
▁UPS	-10250
▁ast	-10251
▁lai	-10252
▁lla	-10253
▁nja	-10254
▁nth	-10255
▁pre	-10256
▁pro	-10257
▁tar	-10258
▁tty	-10259
▁tya	-10260
▁wer	-10261
▁win	-10262
▁yaa	-10263
▁ंसद	-10264
▁अतर	-10265
▁अता	-10266
▁अफस	-10267
▁आगम	-10268
▁आवा	-10269
▁ऐरन	-10270
▁ओछी	-10271
▁करघ	-10272
▁करब	-10273
▁खाट	-10274
▁खोह	-10275
▁गधे	-10276
▁चमन	-10277
▁टूक	-10278
▁डेज	-10279
▁ढंक	-10280
▁तमा	-10281
▁दरव	-10282
▁दीए	-10283
▁धूं	-10284
▁नली	-10285
▁परख	-10286
▁पित	-10287
▁फजल	-10288
▁फेड	-10289
▁बडी	-10290
▁बरे	-10291
▁बहे	-10292
▁मूक	-10293
▁मून	-10294
▁मेक	-10295
▁मोल	-10296
▁रति	-10297
▁रबन	-10298
▁रवे	-10299
▁रीख	-10300
▁रीश	-10301
▁रुथ	-10302
▁रुष	-10303
▁वड़	-10304
▁वधा	-10305
▁शबद	-10306
▁समद	-10307
▁सैल	-10308
▁हल्	-10309
▁ापे	-10310
▁ुरस	-10311
▁ुरो	-10312
▁ोपि	-10313
▁ोरख	-10314
▁Baba	-10315
▁Bill	-10316
▁CMHO	-10317
▁DGCA	-10318
▁Face	-10319
▁Heat	-10320
▁Hema	-10321
▁IRCT	-10322
▁Late	-10323
▁Love	-10324
▁Miya	-10325
▁Oppo	-10326
▁PBKS	-10327
▁Padu	-10328
▁Road	-10329
▁Scam	-10330
▁Varu	-10331
▁Wedd	-10332
▁acci	-10333
▁gram	-10334
▁hami	-10335
▁wide	-10336
▁एसपी	-10337
▁क्षक	-10338
▁ख़ास	-10339
▁गढ़ी	-10340
▁गोल्	-10341
▁ग्वा	-10342
▁च्छी	-10343
▁थिति	-10344
▁न्हो	-10345
▁यात्	-10346
▁रायण	-10347
▁विरा	-10348
▁सम्म	-10349
▁सलमा	-10350
▁होड़	-10351
▁ांगे	-10352
▁ापना	-10353
▁ामना	-10354
▁िखाई	-10355
▁ोकने	-10356
▁्तिक	-10357
▁्रें	-10358
▁्वजन	-10359
▁Aamir	-10360
▁Cabin	-10361
▁Dusse	-10362
▁Gwali	-10363
▁Hindu	-10364
▁Krish	-10365
▁Noida	-10366
▁Paytm	-10367
▁Rajku	-10368
▁Recru	-10369
▁Skoda	-10370
▁ट्रेल	-10371
▁रियाण	-10372
▁स्पेक	-10373
25	-10374
CL	-10375
EA	-10376
ac	-10377
ht	-10378
ot	-10379
ye	-10380
▁\	-10381
▁]	-10382
▁্	-10383
IDA	-10384
ere	-10385
ilv	-10386
sto	-10387
ुक्	-10388
ृत्	-10389
▁00	-10390
▁3)	-10391
▁9-	-10392
▁AA	-10393
▁AE	-10394
▁BY	-10395
▁DJ	-10396
▁GL	-10397
▁Kh	-10398
▁Mr	-10399
▁NI	-10400
▁OL	-10401
▁RI	-10402
▁aa	-10403
▁av	-10404
▁ga	-10405
▁ji	-10406
▁ok	-10407
▁pe	-10408
▁rj	-10409
▁sk	-10410
▁su	-10411
▁ud	-10412
▁ऊर	-10413
▁छप	-10414
▁नथ	-10415
▁फं	-10416
▁(28	-10417
▁(30	-10418
▁(7)	-10419
▁166	-10420
▁2.1	-10421
▁2.2	-10422
▁2.6	-10423
▁216	-10424
▁22,	-10425
▁226	-10426
▁233	-10427
▁252	-10428
▁3.8	-10429
▁317	-10430
▁325	-10431
▁330	-10432
▁333	-10433
▁338	-10434
▁390	-10435
▁425	-10436
▁475	-10437
▁5-0	-10438
▁8.6	-10439
▁Aga	-10440
▁Ame	-10441
▁Aro	-10442
▁Cit	-10443
▁EWS	-10444
▁Hea	-10445
▁Hou	-10446
▁IDF	-10447
▁Jyo	-10448
▁NET	-10449
▁Nir	-10450
▁OIS	-10451
▁Odi	-10452
▁Out	-10453
▁PDP	-10454
▁PRO	-10455
▁SDO	-10456
▁SIP	-10457
▁Sna	-10458
▁Sun	-10459
▁Tax	-10460
▁Vai	-10461
▁ZIM	-10462
▁aga	-10463
▁chi	-10464
▁ght	-10465
▁ida	-10466
▁kmp	-10467
▁lth	-10468
▁mba	-10469
▁nme	-10470
▁per	-10471
▁que	-10472
▁uru	-10473
▁wor	-10474
▁ंभा	-10475
▁अगल	-10476
▁अपी	-10477
▁आईओ	-10478
▁आका	-10479
▁इति	-10480
▁एआइ	-10481
▁ऑइल	-10482
▁ओके	-10483
▁ओवल	-10484
▁किक	-10485
▁खने	-10486
▁खली	-10487
▁ख़ु	-10488
▁गजट	-10489
▁गाद	-10490
▁गोट	-10491
▁घटन	-10492
▁चीर	-10493
▁चोक	-10494
▁छड़	-10495
▁छाछ	-10496
▁छुए	-10497
▁जोत	-10498
▁टिन	-10499
▁डॉक	-10500
▁ढ़न	-10501
▁ढील	-10502
▁तकर	-10503
▁ताश	-10504
▁तैश	-10505
▁थूक	-10506
▁दंश	-10507
▁दिश	-10508
▁दूत	-10509
▁धुल	-10510
▁नतम	-10511
▁नसू	-10512
▁नाप	-10513
▁पाओ	-10514
▁पेच	-10515
▁पेस	-10516
▁फटी	-10517
▁फोक	-10518
▁फोम	-10519
▁बसई	-10520
▁मेस	-10521
▁मैम	-10522
▁रधा	-10523
▁रया	-10524
▁रसन	-10525
▁रुट	-10526
▁वधु	-10527
▁शहद	-10528
▁सिह	-10529
▁हसी	-10530
▁हिक	-10531
▁ानग	-10532
▁ानस	-10533
▁ाबि	-10534
▁ामग	-10535
▁ारख	-10536
▁ितं	-10537
▁ीमे	-10538
▁ीसर	-10539
▁ूलो	-10540
▁ॉले	-10541
▁ोंन	-10542
▁्लब	-10543
▁Abhi	-10544
▁Asha	-10545
▁Bada	-10546
▁Bhai	-10547
▁Char	-10548
▁Emer	-10549
▁Fund	-10550
▁Hanu	-10551
▁Head	-10552
▁Kala	-10553
▁NOTA	-10554
▁POCO	-10555
▁Plan	-10556
▁Rain	-10557
▁Rule	-10558
▁SDPO	-10559
▁Sank	-10560
▁Toyo	-10561
▁Ujja	-10562
▁Vara	-10563
▁Vina	-10564
▁hant	-10565
▁npur	-10566
▁shmi	-10567
▁stri	-10568
▁ंग्र	-10569
▁कंपन	-10570
▁केंद	-10571
▁क्षो	-10572
▁ट्रं	-10573
▁त्रो	-10574
▁नुमत	-10575
▁पनिय	-10576
▁भोपा	-10577
▁यमों	-10578
▁रशास	-10579
▁रिष्	-10580
▁र्मे	-10581
▁लड़ी	-10582
▁लाखो	-10583
▁िकार	-10584
▁ियोज	-10585
▁ृष्ण	-10586
▁्लॉक	-10587
▁Bhatt	-10588
▁IRCTC	-10589
▁Indep	-10590
▁Karan	-10591
▁Prime	-10592
▁Sanka	-10593
▁Trail	-10594
▁Train	-10595
▁Ultra	-10596
▁ंयुक्	-10597
▁कैबिन	-10598
▁िसानो	-10599
▁ेतृत्	-10600
40	-10601
CH	-10602
RC	-10603
hp	-10604
is	-10605
nu	-10606
सब	-10607
▁ి	-10608
MCA	-10609
WDC	-10610
amp	-10611
anc	-10612
fer	-10613
int	-10614
irl	-10615
iru	-10616
ood	-10617
tel	-10618
ull	-10619
urg	-10620
war	-10621
खड़	-10622
ान्	-10623
▁2%	-10624
▁3"	-10625
▁7%	-10626
▁7:	-10627
▁CT	-10628
▁Cr	-10629
▁GR	-10630
▁Hu	-10631
▁IB	-10632
▁QR	-10633
▁RC	-10634
▁SU	-10635
▁TS	-10636
▁VX	-10637
▁ek	-10638
▁ff	-10639
▁gy	-10640
▁jo	-10641
▁um	-10642
▁vo	-10643
▁za	-10644
▁इल	-10645
▁ऐज	-10646
▁गश	-10647
▁घं	-10648
▁छः	-10649
▁ढम	-10650
▁वं	-10651
▁सआ	-10652
GPSC	-10653
▁(17	-10654
▁(29	-10655
▁02,	-10656
▁09,	-10657
▁1.1	-10658
▁173	-10659
▁179	-10660
▁187	-10661
▁193	-10662
▁2.3	-10663
▁2.7	-10664
▁215	-10665
▁227	-10666
▁232	-10667
▁235	-10668
▁239	-10669
▁247	-10670
▁248	-10671
▁263	-10672
▁282	-10673
▁287	-10674
▁295	-10675
▁3-1	-10676
▁3.4	-10677
▁312	-10678
▁335	-10679
▁337	-10680
▁406	-10681
▁5.6	-10682
▁6-6	-10683
▁6.8	-10684
▁670	-10685
▁7.2	-10686
▁710	-10687
▁ADG	-10688
▁BBA	-10689
▁BDO	-10690
▁BIS	-10691
▁BYD	-10692
▁Bad	-10693
▁CID	-10694
▁CPR	-10695
▁Cur	-10696
▁Dil	-10697
▁Dis	-10698
▁Feb	-10699
▁Gha	-10700
▁Hai	-10701
▁IOA	-10702
▁IRE	-10703
▁KYC	-10704
▁Kai	-10705
▁LCA	-10706
▁LJP	-10707
▁Mir	-10708
▁MoU	-10709
▁Mus	-10710
▁NAS	-10711
▁NRI	-10712
▁Nar	-10713
▁OTP	-10714
▁Pat	-10715
▁RAS	-10716
▁Roy	-10717
▁Sum	-10718
▁TCS	-10719
▁act	-10720
▁bhp	-10721
▁cri	-10722
▁est	-10723
▁gon	-10724
▁qua	-10725
▁rga	-10726
▁sli	-10727
▁tam	-10728
▁yak	-10729
▁अवि	-10730
▁अवी	-10731
▁आटो	-10732
▁आपा	-10733
▁कईं	-10734
▁कैथ	-10735
▁कोत	-10736
▁खोई	-10737
▁गनर	-10738
▁चपत	-10739
▁चुघ	-10740
▁चूर	-10741
▁छुआ	-10742
▁जाइ	-10743
▁जाई	-10744
▁टवन	-10745
▁टोन	-10746
▁ड़ो	-10747
▁डेढ	-10748
▁तजा	-10749
▁दहल	-10750
▁धरम	-10751
▁नबर	-10752
▁नहत	-10753
▁पनि	-10754
▁पोत	-10755
▁पौन	-10756
▁फटा	-10757
▁फॉग	-10758
▁बरन	-10759
▁बिड	-10760
▁बीड	-10761
▁बीम	-10762
▁बूम	-10763
▁भेट	-10764
▁यपु	-10765
▁रघु	-10766
▁रज़	-10767
▁रणा	-10768
▁रदे	-10769
▁रवल	-10770
▁राच	-10771
▁रूख	-10772
▁रौब	-10773
▁लचर	-10774
▁लवर	-10775
▁लूप	-10776
▁शफी	-10777
▁सन्	-10778
▁सरन	-10779
▁हटी	-10780
▁ाउथ	-10781
▁ाग्	-10782
▁ाद्	-10783
▁िद्	-10784
▁िरस	-10785
▁ृद्	-10786
▁ौकी	-10787
▁्चा	-10788
▁्बे	-10789
▁Acti	-10790
▁Agni	-10791
▁Airt	-10792
▁Alia	-10793
▁BRIC	-10794
▁Cent	-10795
▁Chai	-10796
▁DRDO	-10797
▁Deva	-10798
▁Figh	-10799
▁Hari	-10800
▁Indi	-10801
▁Infi	-10802
▁Janu	-10803
▁Khel	-10804
▁Kisa	-10805
▁Lead	-10806
▁Mein	-10807
▁Moha	-10808
▁Para	-10809
▁Rama	-10810
▁SUVs	-10811
▁Sara	-10812
▁Sche	-10813
▁Silv	-10814
▁Sita	-10815
▁Teas	-10816
▁Tiru	-10817
▁Trip	-10818
▁Visa	-10819
▁WWDC	-10820
▁Yogi	-10821
▁mbai	-10822
▁nald	-10823
▁nbir	-10824
▁njab	-10825
▁अड़ा	-10826
▁आदित	-10827
▁आवश्	-10828
▁इंडस	-10829
▁उखड़	-10830
▁कसभा	-10831
▁क्ट्	-10832
▁ख़ुद	-10833
▁थियो	-10834
▁दोस्	-10835
▁द्या	-10836
▁नियर	-10837
▁प्रय	-10838
▁वास्	-10839
▁समस्	-10840
▁समें	-10841
▁हमार	-10842
▁ागों	-10843
▁िल्ड	-10844
▁िवाह	-10845
▁्याम	-10846
▁्रस्	-10847
▁्विस	-10848
▁Black	-10849
▁CGPSC	-10850
▁Hardi	-10851
▁Intel	-10852
▁Kriti	-10853
▁Offer	-10854
▁Relia	-10855
▁Satna	-10856
▁Sawan	-10857
▁Shrad	-10858
▁Shubh	-10859
▁Siddi	-10860
▁Snapd	-10861
▁Trump	-10862
▁Vijay	-10863
▁सियों	-10864
▁स्मार	-10865
▁ामान्	-10866
▁िग्री	-10867
▁ोमीटर	-10868
10	-10869
BL	-10870
FA	-10871
OR	-10872
PA	-10873
RV	-10874
ap	-10875
cu	-10876
iv	-10877
ue	-10878
vv	-10879
तो	-10880
नई	-10881
ाट	-10882
▁×	-10883
▁ি	-10884
▁ా	-10885
▁ు	-10886
▁్	-10887
APA	-10888
cce	-10889
ewa	-10890
hra	-10891
ild	-10892
ink	-10893
nau	-10894
ome	-10895
ude	-10896
ush	-10897
भिन	-10898
▁6:	-10899
▁8%	-10900
▁AS	-10901
▁BK	-10902
▁CD	-10903
▁IV	-10904
▁JE	-10905
▁KP	-10906
▁KV	-10907
▁LC	-10908
▁MH	-10909
▁NB	-10910
▁PH	-10911
▁PK	-10912
▁TE	-10913
▁VF	-10914
▁VS	-10915
▁ak	-10916
▁ik	-10917
▁ip	-10918
▁mm	-10919
▁nk	-10920
▁ns	-10921
▁ऊब	-10922
▁तई	-10923
▁नफ	-10924
▁षे	-10925
alai	-10926
epte	-10927
oren	-10928
भिन्	-10929
▁(13	-10930
▁(32	-10931
▁(50	-10932
▁(9)	-10933
▁0.2	-10934
▁0.6	-10935
▁11%	-10936
▁186	-10937
▁2.8	-10938
▁245	-10939
▁253	-10940
▁277	-10941
▁283	-10942
▁293	-10943
▁299	-10944
▁3.7	-10945
▁319	-10946
▁329	-10947
▁331	-10948
▁334	-10949
▁342	-10950
▁353	-10951
▁37,	-10952
▁377	-10953
▁380	-10954
▁4.4	-10955
▁4.7	-10956
▁4.8	-10957
▁407	-10958
▁440	-10959
▁480	-10960
▁5.3	-10961
▁534	-10962
▁551	-10963
▁6.4	-10964
▁65%	-10965
▁95%	-10966
▁BAP	-10967
▁BBC	-10968
▁BCA	-10969
▁BRS	-10970
▁CET	-10971
▁CMS	-10972
▁CNN	-10973
▁Cla	-10974
▁DFO	-10975
▁DRG	-10976
▁DRL	-10977
▁Eng	-10978
▁FBI	-10979
▁Fin	-10980
▁GDA	-10981
▁Gam	-10982
▁Gup	-10983
▁How	-10984
▁ITR	-10985
▁JSW	-10986
▁LBW	-10987
▁LIC	-10988
▁MPV	-10989
▁NCE	-10990
▁Oly	-10991
▁PDA	-10992
▁PLA	-10993
▁RLP	-10994
▁Rau	-10995
▁SSC	-10996
▁Sap	-10997
▁Spe	-10998
▁Spo	-10999
▁TTP	-11000
▁UPA	-11001
▁Ven	-11002
▁WFI	-11003
▁app	-11004
▁bar	-11005
▁eld	-11006
▁ell	-11007
▁gen	-11008
▁kha	-11009
▁now	-11010
▁oil	-11011
▁qui	-11012
▁अंध	-11013
▁अजब	-11014
▁अप्	-11015
▁आढ़	-11016
▁आमद	-11017
▁ओका	-11018
▁कंठ	-11019
▁कपट	-11020
▁कलत	-11021
▁काई	-11022
▁किड	-11023
▁कोण	-11024
▁कोन	-11025
▁कोस	-11026
▁खोर	-11027
▁गलन	-11028
▁चुग	-11029
▁छगन	-11030
▁जेफ	-11031
▁झटक	-11032
▁टपक	-11033
▁टीज	-11034
▁टीस	-11035
▁डीड	-11036
▁डैन	-11037
▁तका	-11038
▁ददन	-11039
▁दरी	-11040
▁देब	-11041
▁धाक	-11042
▁नाओ	-11043
▁नाध	-11044
▁पिं	-11045
▁बुझ	-11046
▁बॉब	-11047
▁भेष	-11048
▁मगज	-11049
▁मचे	-11050
▁मजे	-11051
▁मड़	-11052
▁मॉब	-11053
▁रनर	-11054
▁रपट	-11055
▁रमे	-11056
▁रसल	-11057
▁रिम	-11058
▁लबत	-11059
▁लॉट	-11060
▁लोस	-11061
▁वाओ	-11062
▁वेक	-11063
▁वेड	-11064
▁शंक	-11065
▁शकर	-11066
▁शलम	-11067
▁शुक	-11068
▁शॉन	-11069
▁सकत	-11070
▁सरग	-11071
▁साठ	-11072
▁सोप	-11073
▁हम्	-11074
▁होग	-11075
▁होद	-11076
▁ाईव	-11077
▁ादव	-11078
▁ुधा	-11079
▁ुधि	-11080
▁ुलन	-11081
▁ोशल	-11082
▁्यक	-11083
▁्रं	-11084
▁्रक	-11085
▁AMCA	-11086
▁Adva	-11087
▁Anni	-11088
▁Arba	-11089
▁Arti	-11090
▁Audi	-11091
▁Benz	-11092
▁CBFC	-11093
▁Chau	-11094
▁Govi	-11095
▁INLD	-11096
▁Indu	-11097
▁Lite	-11098
▁Meet	-11099
▁NCAP	-11100
▁Nord	-11101
▁Oath	-11102
▁Rape	-11103
▁Rave	-11104
▁Reva	-11105
▁SECL	-11106
▁Savi	-11107
▁Shri	-11108
▁Skym	-11109
▁Stat	-11110
▁Tige	-11111
▁UAPA	-11112
▁VVIP	-11113
▁iPad	-11114
▁kmph	-11115
▁mmar	-11116
▁rain	-11117
▁raja	-11118
▁resu	-11119
▁ssia	-11120
▁आयड़	-11121
▁झारख	-11122
▁टमार	-11123
▁पोर्	-11124
▁बाइल	-11125
▁मेरि	-11126
▁म्मे	-11127
▁रायप	-11128
▁र्टम	-11129
▁लेबा	-11130
▁विंद	-11131
▁सरों	-11132
▁िशान	-11133
▁्कर्	-11134
▁्मिक	-11135
▁Aadha	-11136
▁Commi	-11137
▁Curvv	-11138
▁Forec	-11139
▁Ganga	-11140
▁Gover	-11141
▁Green	-11142
▁Harri	-11143
▁Hinde	-11144
▁Karwa	-11145
▁Katha	-11146
▁Maida	-11147
▁Marga	-11148
▁Mirza	-11149
▁SKMCH	-11150
▁Septe	-11151
▁Soren	-11152
▁Stock	-11153
▁Subha	-11154
▁Super	-11155
▁nburg	-11156
▁price	-11157
▁आदित्	-11158
▁तियां	-11159
▁व्यवस	-11160
▁िभिन्	-11161
-3	-11162
1:	-11163
AR	-11164
HS	-11165
MU	-11166
PR	-11167
TF	-11168
UT	-11169
ny	-11170
ऊद	-11171
खर	-11172
ज़	-11173
णम	-11174
णी	-11175
दल	-11176
धन	-11177
नए	-11178
यू	-11179
लव	-11180
सह	-11181
ॉल	-11182
▁­	-11183
▁ऩ	-11184
▁জ	-11185
▁ত	-11186
▁ন	-11187
▁క	-11188
▁️	-11189
dya	-11190
eek	-11191
ens	-11192
ily	-11193
ond	-11194
pla	-11195
rak	-11196
stu	-11197
ure	-11198
ंसफ	-11199
▁-3	-11200
▁5)	-11201
▁AU	-11202
▁BC	-11203
▁GN	-11204
▁Ge	-11205
▁HO	-11206
▁HP	-11207
▁HT	-11208
▁JL	-11209
▁PC	-11210
▁PF	-11211
▁PN	-11212
▁PO	-11213
▁Pe	-11214
▁RD	-11215
▁SF	-11216
▁SW	-11217
▁So	-11218
▁Th	-11219
▁We	-11220
▁Za	-11221
▁ai	-11222
▁bo	-11223
▁ef	-11224
▁ho	-11225
▁ii	-11226
▁io	-11227
▁rb	-11228
▁tt	-11229
▁उत	-11230
▁ऊन	-11231
▁ओस	-11232
▁खख	-11233
▁खट	-11234
▁घे	-11235
▁यथ	-11236
▁लफ	-11237
▁सग	-11238
▁सठ	-11239
▁हई	-11240
▁ीछ	-11241
▁ौध	-11242
▁॥॥	-11243
addu	-11244
arth	-11245
brah	-11246
olly	-11247
ounc	-11248
rash	-11249
ssam	-11250
विष्	-11251
▁(11	-11252
▁(16	-11253
▁(27	-11254
▁01,	-11255
▁07,	-11256
▁1.9	-11257
▁2.9	-11258
▁221	-11259
▁229	-11260
▁238	-11261
▁267	-11262
▁279	-11263
▁285	-11264
▁29,	-11265
▁296	-11266
▁301	-11267
▁309	-11268
▁32%	-11269
▁323	-11270
▁324	-11271
▁343	-11272
▁345	-11273
▁354	-11274
▁363	-11275
▁364	-11276
▁39,	-11277
▁4.0	-11278
▁4.9	-11279
▁40,	-11280
▁403	-11281
▁405	-11282
▁409	-11283
▁411	-11284
▁417	-11285
▁432	-11286
▁457	-11287
▁460	-11288
▁49%	-11289
▁5.1	-11290
▁5.7	-11291
▁50,	-11292
▁51,	-11293
▁538	-11294
▁6.6	-11295
▁645	-11296
▁7.4	-11297
▁9.4	-11298
▁ACC	-11299
▁Ang	-11300
▁Aru	-11301
▁Aug	-11302
▁BEO	-11303
▁BGT	-11304
▁Bab	-11305
▁Bre	-11306
▁Cap	-11307
▁DAP	-11308
▁DRS	-11309
▁ESC	-11310
▁FDI	-11311
▁Fou	-11312
▁Gad	-11313
▁Gya	-11314
▁Hot	-11315
▁ICE	-11316
▁JDS	-11317
▁JPC	-11318
▁Jai	-11319
▁Jee	-11320
▁Jod	-11321
▁KTM	-11322
▁Kab	-11323
▁Lau	-11324
▁MIC	-11325
▁Mac	-11326
▁Mad	-11327
▁NCA	-11328
▁NDP	-11329
▁Nex	-11330
▁PSC	-11331
▁Pha	-11332
▁PoK	-11333
▁Ric	-11334
▁Row	-11335
▁Sai	-11336
▁TRE	-11337
▁UNI	-11338
▁YSR	-11339
▁air	-11340
▁bha	-11341
▁kra	-11342
▁lok	-11343
▁mal	-11344
▁mic	-11345
▁nam	-11346
▁ndu	-11347
▁nsi	-11348
▁nva	-11349
▁par	-11350
▁rma	-11351
▁sit	-11352
▁tti	-11353
▁ust	-11354
▁yal	-11355
▁yan	-11356
▁ंतो	-11357
▁अगम	-11358
▁अजा	-11359
▁अलम	-11360
▁आरी	-11361
▁आशू	-11362
▁आहट	-11363
▁इयर	-11364
▁इशू	-11365
▁ईगल	-11366
▁उगा	-11367
▁एरर	-11368
▁एशा	-11369
▁ओणम	-11370
▁कटक	-11371
▁करक	-11372
▁कसी	-11373
▁काफ	-11374
▁कूप	-11375
▁खत्	-11376
▁खना	-11377
▁खाए	-11378
▁गंध	-11379
▁गनी	-11380
▁गस्	-11381
▁गिग	-11382
▁चरा	-11383
▁चॉल	-11384
▁छपा	-11385
▁जकर	-11386
▁जयस	-11387
▁जूं	-11388
▁टाक	-11389
▁टिप	-11390
▁टॉय	-11391
▁टोक	-11392
▁डंग	-11393
▁तपा	-11394
▁तौल	-11395
▁दगल	-11396
▁द्घ	-11397
▁धरे	-11398
▁धवल	-11399
▁नॉट	-11400
▁नोद	-11401
▁पठन	-11402
▁परक	-11403
▁पर्	-11404
▁पीच	-11405
▁पैग	-11406
▁फखर	-11407
▁फैज	-11408
▁बसर	-11409
▁बीफ	-11410
▁बुज	-11411
▁बैस	-11412
▁बोई	-11413
▁भाट	-11414
▁मकई	-11415
▁मटन	-11416
▁मटर	-11417
▁मलय	-11418
▁युत	-11419
▁योध	-11420
▁रकश	-11421
▁रगन	-11422
▁रजई	-11423
▁रैप	-11424
▁लुट	-11425
▁लैं	-11426
▁वसा	-11427
▁वाघ	-11428
▁वृत	-11429
▁वैट	-11430
▁शित	-11431
▁शूज	-11432
▁सऊद	-11433
▁सनथ	-11434
▁हुक	-11435
▁ाइम	-11436
▁ायि	-11437
▁ारप	-11438
▁िंह	-11439
▁िकि	-11440
▁ीवु	-11441
▁ेशा	-11442
▁ैबि	-11443
▁्टै	-11444
▁Abdu	-11445
▁BMCM	-11446
▁Bale	-11447
▁Bord	-11448
▁CUET	-11449
▁Call	-11450
▁Cere	-11451
▁Dece	-11452
▁Digi	-11453
▁Edge	-11454
▁Enco	-11455
▁Farm	-11456
▁GRAP	-11457
▁Hath	-11458
▁Limi	-11459
▁Merc	-11460
▁Movi	-11461
▁Muke	-11462
▁Musk	-11463
▁NASA	-11464
▁OLED	-11465
▁Repu	-11466
▁Rewa	-11467
▁Sale	-11468
▁Tand	-11469
▁Tran	-11470
▁Week	-11471
▁kart	-11472
▁land	-11473
▁lead	-11474
▁lige	-11475
▁list	-11476
▁seat	-11477
▁seri	-11478
▁shya	-11479
▁viol	-11480
▁will	-11481
▁wood	-11482
▁ंगठन	-11483
▁आड़े	-11484
▁आढ़त	-11485
▁इनमे	-11486
▁कानू	-11487
▁किस्	-11488
▁गाता	-11489
▁गोड़	-11490
▁छताछ	-11491
▁जिलो	-11492
▁तरफ़	-11493
▁तस्क	-11494
▁तुति	-11495
▁देशो	-11496
▁नबरस	-11497
▁फ़ूड	-11498
▁माध्	-11499
▁मामल	-11500
▁म्मू	-11501
▁रिकॉ	-11502
▁रिपो	-11503
▁रेन्	-11504
▁श्वा	-11505
▁स्का	-11506
▁ानसू	-11507
▁ापार	-11508
▁ामने	-11509
▁िंता	-11510
▁िरिक	-11511
▁िलाध	-11512
▁िसर्	-11513
▁ुलिस	-11514
▁ूसरी	-11515
▁्राम	-11516
▁Aksha	-11517
▁BRICS	-11518
▁Credi	-11519
▁Crisi	-11520
▁Daily	-11521
▁Febru	-11522
▁Gambh	-11523
▁Histo	-11524
▁House	-11525
▁Insta	-11526
▁Johar	-11527
▁MPPSC	-11528
▁Malai	-11529
▁Marri	-11530
▁Media	-11531
▁Month	-11532
▁NCERT	-11533
▁Paper	-11534
▁Party	-11535
▁Prati	-11536
▁Ravee	-11537
▁Royal	-11538
▁Somva	-11539
▁Strea	-11540
▁Succe	-11541
▁Summi	-11542
▁Watch	-11543
▁crude	-11544
▁करवाय	-11545
▁गांवो	-11546
▁भविष्	-11547
▁रांसफ	-11548
▁लांकि	-11549
▁समाप्	-11550
▁हिलाओ	-11551
▁ालुओं	-11552
16	-11553
AN	-11554
DI	-11555
EL	-11556
FT	-11557
GS	-11558
MS	-11559
SA	-11560
TU	-11561
dy	-11562
id	-11563
ll	-11564
आम	-11565
कम	-11566
पट	-11567
मल	-11568
▁ম	-11569
▁చ	-11570
▁●	-11571
▁🕐	-11572
bby	-11573
clo	-11574
gra	-11575
mal	-11576
ort	-11577
pil	-11578
sse	-11579
ste	-11580
utt	-11581
vid	-11582
▁""	-11583
▁'1	-11584
▁9%	-11585
▁Af	-11586
▁CW	-11587
▁CX	-11588
▁DS	-11589
▁DT	-11590
▁FT	-11591
▁Fo	-11592
▁IL	-11593
▁Km	-11594
▁MF	-11595
▁MR	-11596
▁PI	-11597
▁PL	-11598
▁QU	-11599
▁RV	-11600
▁Tw	-11601
▁UD	-11602
▁Ur	-11603
▁Us	-11604
▁Yu	-11605
▁Zo	-11606
▁ag	-11607
▁ap	-11608
▁bu	-11609
▁ep	-11610
▁gi	-11611
▁hu	-11612
▁op	-11613
▁ot	-11614
▁sg	-11615
▁sp	-11616
▁ईआ	-11617
▁एब	-11618
▁चख	-11619
▁ठं	-11620
▁डऩ	-11621
▁बव	-11622
▁रआ	-11623
▁रऊ	-11624
▁रठ	-11625
▁रष	-11626
IDAI	-11627
itha	-11628
परेश	-11629
▁(31	-11630
▁03,	-11631
▁04,	-11632
▁11:	-11633
▁13%	-11634
▁17%	-11635
▁189	-11636
▁213	-11637
▁218	-11638
▁219	-11639
▁231	-11640
▁244	-11641
▁254	-11642
▁271	-11643
▁284	-11644
▁291	-11645
▁3-2	-11646
▁3.3	-11647
▁313	-11648
▁339	-11649
▁347	-11650
▁355	-11651
▁361	-11652
▁374	-11653
▁396	-11654
▁4-1	-11655
▁401	-11656
▁44%	-11657
▁444	-11658
▁45%	-11659
▁455	-11660
▁47,	-11661
▁482	-11662
▁501	-11663
▁514	-11664
▁516	-11665
▁53%	-11666
▁540	-11667
▁555	-11668
▁570	-11669
▁6-0	-11670
▁6-3	-11671
▁6.9	-11672
▁7.7	-11673
▁7.8	-11674
▁725	-11675
▁75,	-11676
▁8.1	-11677
▁8.8	-11678
▁814	-11679
▁85%	-11680
▁9.6	-11681
▁9.7	-11682
▁930	-11683
▁99%	-11684
▁ADR	-11685
▁AFG	-11686
▁AMG	-11687
▁All	-11688
▁Ati	-11689
▁Aur	-11690
▁Blu	-11691
▁CMF	-11692
▁DST	-11693
▁Dol	-11694
▁Dro	-11695
▁Dzi	-11696
▁EOU	-11697
▁Eco	-11698
▁GPT	-11699
▁Gra	-11700
▁HDR	-11701
▁HMD	-11702
▁HOD	-11703
▁IAF	-11704
▁ISS	-11705
▁Inf	-11706
▁Kat	-11707
▁LCD	-11708
▁Meh	-11709
▁NCC	-11710
▁NGT	-11711
▁OLA	-11712
▁OUT	-11713
▁PCC	-11714
▁PMO	-11715
▁Per	-11716
▁Quo	-11717
▁RAM	-11718
▁SRK	-11719
▁Spa	-11720
▁Tar	-11721
▁Ter	-11722
▁VFX	-11723
▁all	-11724
▁ban	-11725
▁bho	-11726
▁cro	-11727
▁ede	-11728
▁eep	-11729
▁hai	-11730
▁hal	-11731
▁inc	-11732
▁ind	-11733
▁ini	-11734
▁mpi	-11735
▁rda	-11736
▁tel	-11737
▁ura	-11738
▁आशी	-11739
▁उगे	-11740
▁उवि	-11741
▁ऊना	-11742
▁एएन	-11743
▁एटक	-11744
▁एटम	-11745
▁एरा	-11746
▁ओरल	-11747
▁औरा	-11748
▁कफन	-11749
▁करख	-11750
▁कहो	-11751
▁क़द	-11752
▁क़र	-11753
▁खलल	-11754
▁गटर	-11755
▁गॉल	-11756
▁गों	-11757
▁गौस	-11758
▁छत्	-11759
▁जदू	-11760
▁जनत	-11761
▁जीए	-11762
▁जेम	-11763
▁झाल	-11764
▁टला	-11765
▁टूड	-11766
▁ठहर	-11767
▁डंक	-11768
▁ड़म	-11769
▁ढुल	-11770
▁दुध	-11771
▁दुष	-11772
▁दून	-11773
▁देई	-11774
▁दोन	-11775
▁ध्र	-11776
▁परं	-11777
▁पश्	-11778
▁पष्	-11779
▁पैच	-11780
▁बंप	-11781
▁बटर	-11782
▁बडे	-11783
▁बफे	-11784
▁बबन	-11785
▁बुश	-11786
▁बेक	-11787
▁बैश	-11788
▁भली	-11789
▁भून	-11790
▁महो	-11791
▁मीम	-11792
▁यक्	-11793
▁यरे	-11794
▁येक	-11795
▁रकल	-11796
▁रदह	-11797
▁रफा	-11798
▁रमक	-11799
▁रौन	-11800
▁लपक	-11801
▁लसन	-11802
▁लौह	-11803
▁वजू	-11804
▁वेग	-11805
▁वैद	-11806
▁वॉट	-11807
▁शक्	-11808
▁शमन	-11809
▁शरत	-11810
▁शेन	-11811
▁ष्प	-11812
▁सजल	-11813
▁सबल	-11814
▁सहय	-11815
▁हॉक	-11816
▁ाजि	-11817
▁िदन	-11818
▁ीर्	-11819
▁ूची	-11820
▁ेशो	-11821
▁ोधन	-11822
▁ोपा	-11823
▁्जु	-11824
▁्यस	-11825
▁्रध	-11826
▁ADGP	-11827
▁Acco	-11828
▁Adve	-11829
▁Agra	-11830
▁BPCL	-11831
▁Bane	-11832
▁Bike	-11833
▁Book	-11834
▁Buds	-11835
▁Chak	-11836
▁Comp	-11837
▁Crew	-11838
▁Cyli	-11839
▁Elon	-11840
▁Elvi	-11841
▁Enfi	-11842
▁Favo	-11843
▁Fire	-11844
▁Form	-11845
▁Fuel	-11846
▁HPCL	-11847
▁Happ	-11848
▁Home	-11849
▁IGRS	-11850
▁IOCL	-11851
▁Inco	-11852
▁Isla	-11853
▁Jaba	-11854
▁Leak	-11855
▁Luck	-11856
▁Miss	-11857
▁NDPS	-11858
▁Name	-11859
▁Neha	-11860
▁Nove	-11861
▁PMCH	-11862
▁Pate	-11863
▁Praj	-11864
▁Pran	-11865
▁Rank	-11866
▁Sala	-11867
▁Sama	-11868
▁Shei	-11869
▁Shiv	-11870
▁Sony	-11871
▁Syro	-11872
▁Work	-11873
▁bomb	-11874
▁dies	-11875
▁fire	-11876
▁garh	-11877
▁http	-11878
▁llah	-11879
▁lpur	-11880
▁mand	-11881
▁murd	-11882
▁njya	-11883
▁poll	-11884
▁repo	-11885
▁time	-11886
▁wave	-11887
▁आयोज	-11888
▁जड़े	-11889
▁ज़ोर	-11890
▁तरीय	-11891
▁तीनो	-11892
▁दिनो	-11893
▁मिलक	-11894
▁रमुख	-11895
▁रसाद	-11896
▁र्थक	-11897
▁वागत	-11898
▁संबं	-11899
▁ांसद	-11900
▁ाइवर	-11901
▁ालिग	-11902
▁िरास	-11903
▁ीटों	-11904
▁ोपिय	-11905
▁्रार	-11906
▁Assam	-11907
▁Bobby	-11908
▁Bolly	-11909
▁Check	-11910
▁Compa	-11911
▁Creta	-11912
▁Cyclo	-11913
▁Drive	-11914
▁Final	-11915
▁First	-11916
▁Flood	-11917
▁Harta	-11918
▁Kapil	-11919
▁Malli	-11920
▁Nirma	-11921
▁POCSO	-11922
▁Parli	-11923
▁Patna	-11924
▁Porsc	-11925
▁Reddy	-11926
▁Shiva	-11927
▁Sitha	-11928
▁Sunny	-11929
▁UIDAI	-11930
▁Vastu	-11931
▁Vidya	-11932
▁compa	-11933
▁court	-11934
▁share	-11935
▁ऑपरेश	-11936
▁क्षमत	-11937
▁प्रदा	-11938
▁यकर्त	-11939
▁र्यका	-11940
▁सपोर्	-11941
▁िकित्	-11942
55	-11943
75	-11944
CM	-11945
HP	-11946
JM	-11947
JS	-11948
ON	-11949
VT	-11950
XO	-11951
ih	-11952
wn	-11953
zo	-11954
ओम	-11955
कल	-11956
तू	-11957
धक	-11958
बस	-11959
ौम	-11960
▁४	-11961
▁ট	-11962
▁ো	-11963
▁ల	-11964
adu	-11965
ani	-11966
bal	-11967
dac	-11968
eet	-11969
ele	-11970
epa	-11971
ess	-11972
ick	-11973
rie	-11974
ssa	-11975
ssi	-11976
vya	-11977
्री	-11978
▁+2	-11979
▁4)	-11980
▁BL	-11981
▁BP	-11982
▁Cl	-11983
▁DO	-11984
▁DV	-11985
▁DY	-11986
▁EB	-11987
▁EN	-11988
▁ER	-11989
▁Er	-11990
▁FR	-11991
▁GS	-11992
▁JA	-11993
▁JK	-11994
▁KI	-11995
▁MY	-11996
▁Mk	-11997
▁Nu	-11998
▁Sm	-11999
▁TC	-12000
▁TP	-12001
▁Un	-12002
▁WA	-12003
▁Wo	-12004
▁ab	-12005
▁em	-12006
▁ie	-12007
▁lk	-12008
▁pt	-12009
▁rv	-12010
▁tu	-12011
▁ze	-12012
▁आक	-12013
▁ओज	-12014
▁चट	-12015
▁जध	-12016
▁टत	-12017
▁डच	-12018
▁डट	-12019
▁भक	-12020
▁लई	-12021
▁सय	-12022
▁हए	-12023
▁ैध	-12024
anka	-12025
krai	-12026
▁(45	-12027
▁0.0	-12028
▁05,	-12029
▁1/4	-12030
▁13.	-12031
▁14%	-12032
▁183	-12033
▁211	-12034
▁214	-12035
▁217	-12036
▁22%	-12037
▁224	-12038
▁249	-12039
▁257	-12040
▁274	-12041
▁28%	-12042
▁297	-12043
▁3.9	-12044
▁314	-12045
▁316	-12046
▁32,	-12047
▁321	-12048
▁326	-12049
▁33%	-12050
▁33,	-12051
▁344	-12052
▁356	-12053
▁368	-12054
▁37%	-12055
▁378	-12056
▁379	-12057
▁38,	-12058
▁392	-12059
▁4-0	-12060
▁408	-12061
▁412	-12062
▁413	-12063
▁42%	-12064
▁44,	-12065
▁448	-12066
▁451	-12067
▁468	-12068
▁471	-12069
▁496	-12070
▁498	-12071
▁504	-12072
▁509	-12073
▁51%	-12074
▁510	-12075
▁52%	-12076
▁530	-12077
▁549	-12078
▁575	-12079
▁583	-12080
▁60,	-12081
▁620	-12082
▁654	-12083
▁67%	-12084
▁70,	-12085
▁715	-12086
▁737	-12087
▁760	-12088
▁80,	-12089
▁824	-12090
▁890	-12091
▁911	-12092
▁917	-12093
▁925	-12094
▁940	-12095
▁98%	-12096
▁ACS	-12097
▁AMO	-12098
▁ANM	-12099
▁BSA	-12100
▁Bri	-12101
▁CAF	-12102
▁CBD	-12103
▁CEC	-12104
▁Clo	-12105
▁Cor	-12106
▁Cro	-12107
▁Das	-12108
▁Deb	-12109
▁End	-12110
▁Exc	-12111
▁FOR	-12112
▁GPS	-12113
▁Goc	-12114
▁IMX	-12115
▁IRS	-12116
▁Imp	-12117
▁Ira	-12118
▁JVP	-12119
▁Jye	-12120
▁LOC	-12121
▁MCB	-12122
▁MDU	-12123
▁MEA	-12124
▁NIC	-12125
▁NSD	-12126
▁NSG	-12127
▁OSD	-12128
▁PAN	-12129
▁RLD	-12130
▁ROB	-12131
▁RTM	-12132
▁Run	-12133
▁Rup	-12134
▁SAI	-12135
▁SFI	-12136
▁SFJ	-12137
▁SKM	-12138
▁Sou	-12139
▁Swa	-12140
▁TTD	-12141
▁Twi	-12142
▁Tyo	-12143
▁Vat	-12144
▁Vir	-12145
▁WPL	-12146
▁Win	-12147
▁ant	-12148
▁cat	-12149
▁dia	-12150
▁esy	-12151
▁gar	-12152
▁gur	-12153
▁hed	-12154
▁ich	-12155
▁int	-12156
▁ksh	-12157
▁lia	-12158
▁ndi	-12159
▁njh	-12160
▁noj	-12161
▁nse	-12162
▁ogi	-12163
▁pay	-12164
▁pio	-12165
▁put	-12166
▁rau	-12167
▁rce	-12168
▁rge	-12169
▁rya	-12170
▁san	-12171
▁sco	-12172
▁sta	-12173
▁var	-12174
▁ंडस	-12175
▁आयन	-12176
▁इंक	-12177
▁इनर	-12178
▁उधम	-12179
▁उनक	-12180
▁एएम	-12181
▁एनी	-12182
▁एफआ	-12183
▁ऐडन	-12184
▁ऐपल	-12185
▁ओंस	-12186
▁कंग	-12187
▁ग़ल	-12188
▁गॉड	-12189
▁गौड	-12190
▁घर्	-12191
▁चटक	-12192
▁चरन	-12193
▁चिर	-12194
▁चूम	-12195
▁छटा	-12196
▁छपे	-12197
▁छान	-12198
▁छाल	-12199
▁जगे	-12200
▁जब्	-12201
▁जिओ	-12202
▁जीई	-12203
▁झपट	-12204
▁टपर	-12205
▁टरफ	-12206
▁टली	-12207
▁ड़द	-12208
▁डाई	-12209
▁ढही	-12210
▁तरि	-12211
▁तोल	-12212
▁थके	-12213
▁थाई	-12214
▁थोप	-12215
▁दाई	-12216
▁दाऊ	-12217
▁धधक	-12218
▁धोक	-12219
▁पीओ	-12220
▁फनी	-12221
▁बकर	-12222
▁बही	-12223
▁बाठ	-12224
▁बाथ	-12225
▁भात	-12226
▁भौम	-12227
▁मगन	-12228
▁मवई	-12229
▁मसा	-12230
▁मॉम	-12231
▁येल	-12232
▁रऊफ	-12233
▁रजम	-12234
▁रतल	-12235
▁रदर	-12236
▁रफ़	-12237
▁रबस	-12238
▁रमर	-12239
▁रहज	-12240
▁रहत	-12241
▁राड	-12242
▁रीच	-12243
▁रूथ	-12244
▁लखा	-12245
▁लवन	-12246
▁लसर	-12247
▁विग	-12248
▁वेस	-12249
▁शटल	-12250
▁शमा	-12251
▁शलभ	-12252
▁शाई	-12253
▁शाप	-12254
▁शूल	-12255
▁संक	-12256
▁संप	-12257
▁सगा	-12258
▁सरख	-12259
▁सीक	-12260
▁हजम	-12261
▁हतर	-12262
▁हॉफ	-12263
▁होत	-12264
▁ापम	-12265
▁िजल	-12266
▁िषद	-12267
▁िसी	-12268
▁ीसद	-12269
▁ोहम	-12270
▁ौंप	-12271
▁्यव	-12272
▁्शा	-12273
▁ADCP	-12274
▁Arre	-12275
▁Asia	-12276
▁Auto	-12277
▁Baat	-12278
▁Baby	-12279
▁Bade	-12280
▁Bala	-12281
▁Blue	-12282
▁Bond	-12283
▁CRPC	-12284
▁Chad	-12285
▁City	-12286
▁Dime	-12287
▁Dosa	-12288
▁Dutt	-12289
▁Ener	-12290
▁Fact	-12291
▁Fami	-12292
▁Fold	-12293
▁Free	-12294
▁Girl	-12295
▁Guja	-12296
▁Gupt	-12297
▁HSSC	-12298
▁Hasi	-12299
▁Hear	-12300
▁Inve	-12301
▁Jiti	-12302
▁Jodo	-12303
▁Kher	-12304
▁King	-12305
▁Kota	-12306
▁MSME	-12307
▁Maih	-12308
▁Mith	-12309
▁NTPC	-12310
▁Nata	-12311
▁Nava	-12312
▁Nave	-12313
▁Navy	-12314
▁Nepa	-12315
▁Oper	-12316
▁PPBL	-12317
▁Pant	-12318
▁Pens	-12319
▁QUAD	-12320
▁REET	-12321
▁Rese	-12322
▁Ring	-12323
▁Rish	-12324
▁Rosh	-12325
▁Scho	-12326
▁Shak	-12327
▁Shik	-12328
▁Sika	-12329
▁Tami	-12330
▁Taro	-12331
▁Tech	-12332
▁Thar	-12333
▁Vehi	-12334
▁Wind	-12335
▁Yoga	-12336
▁Zahe	-12337
▁arre	-12338
▁asse	-12339
▁bhav	-12340
▁bile	-12341
▁cdac	-12342
▁haya	-12343
▁high	-12344
▁poli	-12345
▁rjun	-12346
▁skar	-12347
▁stry	-12348
▁temp	-12349
▁अनुस	-12350
▁ऑनला	-12351
▁कोलक	-12352
▁चढ़े	-12353
▁दिव्	-12354
▁नलाइ	-12355
▁नौती	-12356
▁पेमा	-12357
▁बल्ल	-12358
▁बावज	-12359
▁माजि	-12360
▁मानि	-12361
▁रीढ़	-12362
▁र्के	-12363
▁शामि	-12364
▁शास्	-12365
▁षमता	-12366
▁सफ़र	-12367
▁सोसि	-12368
▁स्मा	-12369
▁ामले	-12370
▁ाराज	-12371
▁ारीख	-12372
▁ालकर	-12373
▁ावेज	-12374
▁िग्ध	-12375
▁िलाड	-12376
▁िलीज	-12377
▁ीवास	-12378
▁ुमान	-12379
▁ुरेश	-12380
▁ेट्र	-12381
▁ेमार	-12382
▁्यों	-12383
▁Bahra	-12384
▁Board	-12385
▁Canne	-12386
▁Carni	-12387
▁Chatu	-12388
▁Counc	-12389
▁Crash	-12390
▁Crime	-12391
▁Deepa	-12392
▁Dilji	-12393
▁Divya	-12394
▁Expla	-12395
▁Gener	-12396
▁Happy	-12397
▁Honor	-12398
▁IREDA	-12399
▁Katri	-12400
▁Kaush	-12401
▁Manmo	-12402
▁March	-12403
▁Match	-12404
▁Metro	-12405
▁Monso	-12406
▁Patel	-12407
▁Point	-12408
▁Prabh	-12409
▁Ranve	-12410
▁Remal	-12411
▁Sapta	-12412
▁Sarva	-12413
▁Servi	-12414
▁Speci	-12415
▁Spoil	-12416
▁Srika	-12417
▁Stamp	-12418
▁Surve	-12419
▁Ukrai	-12420
▁sgarh	-12421
▁जागरू	-12422
▁राचार	-12423
▁शास्त	-12424
▁ासियो	-12425
▁ुप्री	-12426
▁ुरुवा	-12427
▁ोजेक्	-12428
▁्रोफे	-12429
18	-12430
19	-12431
21	-12432
23	-12433
27	-12434
3:	-12435
65	-12436
BA	-12437
BM	-12438
ER	-12439
ML	-12440
To	-12441
ff	-12442
fo	-12443
go	-12444
hD	-12445
jo	-12446
jp	-12447
ju	-12448
ng	-12449
nt	-12450
qf	-12451
एल	-12452
शो	-12453
़म	-12454
ीट	-12455
▁[	-12456
▁প	-12457
▁ব	-12458
▁ল	-12459
▁ু	-12460
▁ం	-12461
▁ర	-12462
MCG	-12463
bri	-12464
cni	-12465
eld	-12466
eno	-12467
gar	-12468
gni	-12469
had	-12470
ila	-12471
irc	-12472
mas	-12473
oud	-12474
plo	-12475
pox	-12476
sla	-12477
tte	-12478
ube	-12479
ugh	-12480
utu	-12481
ved	-12482
xis	-12483
yam	-12484
yay	-12485
ाटन	-12486
▁'5	-12487
▁'6	-12488
▁-6	-12489
▁-7	-12490
▁0,	-12491
▁AX	-12492
▁Aj	-12493
▁BJ	-12494
▁BO	-12495
▁DU	-12496
▁DW	-12497
▁Dr	-12498
▁EQ	-12499
▁ES	-12500
▁EU	-12501
▁FB	-12502
▁FE	-12503
▁FL	-12504
▁GM	-12505
▁GW	-12506
▁HR	-12507
▁IF	-12508
▁KL	-12509
▁LM	-12510
▁LO	-12511
▁LT	-12512
▁MK	-12513
▁NM	-12514
▁OM	-12515
▁Om	-12516
▁PV	-12517
▁RG	-12518
▁RU	-12519
▁Rs	-12520
▁TO	-12521
▁VC	-12522
▁XI	-12523
▁XZ	-12524
▁Ye	-12525
▁ZS	-12526
▁aj	-12527
▁au	-12528
▁cg	-12529
▁cu	-12530
▁du	-12531
▁ec	-12532
▁gu	-12533
▁mg	-12534
▁ms	-12535
▁mu	-12536
▁nm	-12537
▁nz	-12538
▁sw	-12539
▁ue	-12540
▁yo	-12541
▁zi	-12542
▁zo	-12543
▁अण	-12544
▁ऊध	-12545
▁एई	-12546
▁ओट	-12547
▁टग	-12548
▁णो	-12549
▁नण	-12550
▁मथ	-12551
▁यड	-12552
▁लए	-12553
▁हच	-12554
▁₹3	-12555
VPAT	-12556
ello	-12557
raud	-12558
rith	-12559
▁(09	-12560
▁(19	-12561
▁(23	-12562
▁-25	-12563
▁0-3	-12564
▁0.8	-12565
▁08,	-12566
▁1-3	-12567
▁11.	-12568
▁236	-12569
▁237	-12570
▁242	-12571
▁276	-12572
▁286	-12573
▁289	-12574
▁328	-12575
▁332	-12576
▁34,	-12577
▁349	-12578
▁357	-12579
▁358	-12580
▁366	-12581
▁367	-12582
▁369	-12583
▁371	-12584
▁372	-12585
▁383	-12586
▁384	-12587
▁395	-12588
▁397	-12589
▁404	-12590
▁41,	-12591
▁410	-12592
▁424	-12593
▁427	-12594
▁446	-12595
▁45,	-12596
▁46,	-12597
▁477	-12598
▁479	-12599
▁48,	-12600
▁483	-12601
▁495	-12602
▁5.2	-12603
▁5.4	-12604
▁5.9	-12605
▁520	-12606
▁528	-12607
▁54%	-12608
▁545	-12609
▁55%	-12610
▁557	-12611
▁565	-12612
▁586	-12613
▁59,	-12614
▁590	-12615
▁6-1	-12616
▁6.1	-12617
▁614	-12618
▁619	-12619
▁625	-12620
▁628	-12621
▁640	-12622
▁655	-12623
▁657	-12624
▁660	-12625
▁672	-12626
▁7-7	-12627
▁7.1	-12628
▁7.3	-12629
▁708	-12630
▁709	-12631
▁730	-12632
▁755	-12633
▁756	-12634
▁761	-12635
▁787	-12636
▁794	-12637
▁8.7	-12638
▁8.9	-12639
▁820	-12640
▁830	-12641
▁875	-12642
▁9.2	-12643
▁920	-12644
▁94%	-12645
▁949	-12646
▁955	-12647
▁959	-12648
▁960	-12649
▁AMT	-12650
▁ARO	-12651
▁Ara	-12652
▁Ayu	-12653
▁BMO	-12654
▁BNP	-12655
▁Bar	-12656
▁Bus	-12657
▁CAP	-12658
▁CFO	-12659
▁CWC	-12660
▁Civ	-12661
▁DDC	-12662
▁DLF	-12663
▁DPR	-12664
▁DPS	-12665
▁DRI	-12666
▁EBD	-12667
▁Eid	-12668
▁Eye	-12669
▁FIL	-12670
▁FIT	-12671
▁HIV	-12672
▁HSR	-12673
▁Hor	-12674
▁IFS	-12675
▁ILT	-12676
▁KMP	-12677
▁KPK	-12678
▁LPD	-12679
▁LSD	-12680
▁MCA	-12681
▁MCD	-12682
▁MDH	-12683
▁MGR	-12684
▁MMS	-12685
▁MPL	-12686
▁Maa	-12687
▁Moo	-12688
▁NCW	-12689
▁NIT	-12690
▁Nan	-12691
▁OPS	-12692
▁PCS	-12693
▁PDF	-12694
▁PNB	-12695
▁PNG	-12696
▁PhD	-12697
▁Pod	-12698
▁RAW	-12699
▁RRR	-12700
▁RWA	-12701
▁SCO	-12702
▁SWP	-12703
▁Sel	-12704
▁Set	-12705
▁TRP	-12706
▁TTE	-12707
▁Tai	-12708
▁Thi	-12709
▁Tur	-12710
▁USB	-12711
▁USC	-12712
▁VHP	-12713
▁VXI	-12714
▁Vin	-12715
▁Vol	-12716
▁XEV	-12717
▁YoY	-12718
▁Zin	-12719
▁bai	-12720
▁bhu	-12721
▁cha	-12722
▁che	-12723
▁chu	-12724
▁cor	-12725
▁gna	-12726
▁ian	-12727
▁ity	-12728
▁ive	-12729
▁kab	-12730
▁lix	-12731
▁lly	-12732
▁mac	-12733
▁mph	-12734
▁nac	-12735
▁new	-12736
▁nia	-12737
▁nma	-12738
▁out	-12739
▁ple	-12740
▁rab	-12741
▁rav	-12742
▁rme	-12743
▁rth	-12744
▁sad	-12745
▁see	-12746
▁tho	-12747
▁use	-12748
▁who	-12749
▁̈सह	-12750
▁ंधक	-12751
▁ंशन	-12752
▁अदन	-12753
▁अदब	-12754
▁अपन	-12755
▁अभा	-12756
▁आत्	-12757
▁आयत	-12758
▁ईगो	-12759
▁ईड़	-12760
▁ईवा	-12761
▁उंस	-12762
▁उनि	-12763
▁उसक	-12764
▁ऊनी	-12765
▁एना	-12766
▁एयू	-12767
▁एली	-12768
▁ऐंड	-12769
▁कते	-12770
▁कैत	-12771
▁खीझ	-12772
▁खोट	-12773
▁गोठ	-12774
▁गौत	-12775
▁चुभ	-12776
▁छले	-12777
▁जशन	-12778
▁जहन	-12779
▁जीओ	-12780
▁जेस	-12781
▁जेह	-12782
▁जैप	-12783
▁जैम	-12784
▁टंच	-12785
▁टाप	-12786
▁ठाठ	-12787
▁डक़	-12788
▁डली	-12789
▁डाॅ	-12790
▁डिक	-12791
▁डोप	-12792
▁ढके	-12793
▁ढड़	-12794
▁ढाब	-12795
▁तसर	-12796
▁थका	-12797
▁थमी	-12798
▁थमे	-12799
▁दगा	-12800
▁दमी	-12801
▁दरत	-12802
▁दशम	-12803
▁दाख	-12804
▁धूत	-12805
▁ननि	-12806
▁नमे	-12807
▁नाद	-12808
▁नेल	-12809
▁नॉक	-12810
▁पटी	-12811
▁पन्	-12812
▁पाश	-12813
▁पीन	-12814
▁फलक	-12815
▁फिन	-12816
▁बंक	-12817
▁बडा	-12818
▁बलम	-12819
▁बेज	-12820
▁बेथ	-12821
▁बैद	-12822
▁बोए	-12823
▁भाप	-12824
▁भोई	-12825
▁मंथ	-12826
▁मरण	-12827
▁मवि	-12828
▁मेग	-12829
▁मेव	-12830
▁मॉर	-12831
▁येन	-12832
▁रकज	-12833
▁रकट	-12834
▁रड़	-12835
▁रतम	-12836
▁रिं	-12837
▁रैं	-12838
▁लहक	-12839
▁लीच	-12840
▁लेप	-12841
▁वॉन	-12842
▁शशी	-12843
▁सचि	-12844
▁सधी	-12845
▁सपन	-12846
▁ससे	-12847
▁हनक	-12848
▁हमर	-12849
▁हाउ	-12850
▁हिप	-12851
▁होए	-12852
▁हौं	-12853
▁हौज	-12854
▁हौल	-12855
▁ामद	-12856
▁ावो	-12857
▁िदए	-12858
▁िनट	-12859
▁िपु	-12860
▁िशो	-12861
▁ूल्	-12862
▁ैठा	-12863
▁ोसि	-12864
▁AICC	-12865
▁AKTU	-12866
▁Akhi	-12867
▁Amar	-12868
▁Assa	-12869
▁Aust	-12870
▁Axis	-12871
▁Azam	-12872
▁Azmi	-12873
▁Bide	-12874
▁Bomb	-12875
▁Brez	-12876
▁Budh	-12877
▁CLIC	-12878
▁Cand	-12879
▁Cele	-12880
▁Circ	-12881
▁Conf	-12882
▁DMCH	-12883
▁Down	-12884
▁Exam	-12885
▁Ford	-12886
▁Good	-12887
▁Grow	-12888
▁IDBI	-12889
▁IIFA	-12890
▁Inau	-12891
▁Jaga	-12892
▁Kaif	-12893
▁Kama	-12894
▁Kish	-12895
▁Kiss	-12896
▁Lava	-12897
▁Life	-12898
▁MIRV	-12899
▁Mann	-12900
▁Mayo	-12901
▁Meta	-12902
▁Mine	-12903
▁More	-12904
▁Mpox	-12905
▁Mutu	-12906
▁Nadu	-12907
▁Netf	-12908
▁Nyay	-12909
▁Onli	-12910
▁Pala	-12911
▁Pata	-12912
▁Port	-12913
▁RTGS	-12914
▁Raid	-12915
▁Raje	-12916
▁Rand	-12917
▁Rani	-12918
▁Ravi	-12919
▁Read	-12920
▁Resi	-12921
▁Scor	-12922
▁Seas	-12923
▁Seat	-12924
▁Sess	-12925
▁Shat	-12926
▁Show	-12927
▁Sidd	-12928
▁Song	-12929
▁Spee	-12930
▁Thre	-12931
▁Trad	-12932
▁Triu	-12933
▁UNSC	-12934
▁Urva	-12935
▁Vand	-12936
▁Vika	-12937
▁Voti	-12938
▁Wala	-12939
▁Waqf	-12940
▁Will	-12941
▁advi	-12942
▁bhar	-12943
▁bili	-12944
▁brat	-12945
▁cand	-12946
▁chat	-12947
▁ghan	-12948
▁gran	-12949
▁hike	-12950
▁lakh	-12951
▁live	-12952
▁mpic	-12953
▁nter	-12954
▁ntha	-12955
▁panc	-12956
▁rape	-12957
▁shir	-12958
▁sign	-12959
▁stra	-12960
▁sure	-12961
▁weat	-12962
▁what	-12963
▁work	-12964
▁कितन	-12965
▁क्री	-12966
▁ख़बर	-12967
▁ग़लत	-12968
▁घाड़	-12969
▁चीज़	-12970
▁चौधर	-12971
▁च्चो	-12972
▁जड़ी	-12973
▁तजार	-12974
▁त्ति	-12975
▁दारो	-12976
▁देश्	-12977
▁निगम	-12978
▁फ़ीट	-12979
▁फ़ोन	-12980
▁बिक्	-12981
▁बीड़	-12982
▁भेड़	-12983
▁मान्	-12984
▁मेढ़	-12985
▁रवेश	-12986
▁रुद्	-12987
▁र्थी	-12988
▁लोमी	-12989
▁श्कि	-12990
▁ांग्	-12991
▁ाइयो	-12992
▁ान्य	-12993
▁ासिल	-12994
▁िज्ञ	-12995
▁िपक्	-12996
▁िशोर	-12997
▁्तार	-12998
▁्याश	-12999
▁्योत	-13000
▁AIMTC	-13001
▁Amaze	-13002
▁Ashta	-13003
▁Babil	-13004
▁Cance	-13005
▁Citro	-13006
▁Cloud	-13007
▁Conce	-13008
▁Daugh	-13009
▁FORDA	-13010
▁Fligh	-13011
▁Found	-13012
▁Gadka	-13013
▁Hamas	-13014
▁Hrith	-13015
▁Hybri	-13016
▁Ibrah	-13017
▁Javed	-13018
▁Laddu	-13019
▁Lanka	-13020
▁Masse	-13021
▁Narzo	-13022
▁Navin	-13023
▁Niyam	-13024
▁Pannu	-13025
▁Predi	-13026
▁Quote	-13027
▁Ranbi	-13028
▁Sacni	-13029
▁Sanon	-13030
▁Sarfi	-13031
▁Shaba	-13032
▁Space	-13033
▁Tesla	-13034
▁Triti	-13035
▁VVPAT	-13036
▁Vikra	-13037
▁india	-13038
▁kshmi	-13039
▁shyap	-13040
▁stock	-13041
▁stude	-13042
▁terro	-13043
▁आयुक्	-13044
▁उपाध्	-13045
▁कारिय	-13046
▁क्षेत	-13047
▁जिस्ट	-13048
▁द्देश	-13049
▁महोत्	-13050
▁माध्य	-13051
▁मामलो	-13052
▁रियां	-13053
▁रीवाल	-13054
▁वारदा	-13055
▁सामाज	-13056
▁िलाड़	-13057
▁्घाटन	-13058
▁्रतिम	-13059
-1	-13060
/-	-13061
/8	-13062
15	-13063
45	-13064
Bo	-13065
CR	-13066
CU	-13067
DR	-13068
EB	-13069
GE	-13070
HD	-13071
Hz	-13072
KO	-13073
NV	-13074
RL	-13075
TR	-13076
UP	-13077
VM	-13078
gs	-13079
gy	-13080
nm	-13081
xy	-13082
yu	-13083
उप	-13084
एन	-13085
चल	-13086
तक	-13087
थल	-13088
दस	-13089
नन	-13090
फक	-13091
सच	-13092
़न	-13093
▁>	-13094
▁~	-13095
▁१	-13096
▁३	-13097
▁এ	-13098
▁চ	-13099
▁য	-13100
▁ষ	-13101
▁স	-13102
▁గ	-13103
▁ట	-13104
▁ీ	-13105
▁♈	-13106
adh	-13107
cci	-13108
cro	-13109
ena	-13110
iRT	-13111
ide	-13112
ino	-13113
kha	-13114
kta	-13115
lat	-13116
lki	-13117
mad	-13118
mbh	-13119
mri	-13120
ola	-13121
ong	-13122
rav	-13123
sea	-13124
tke	-13125
udd	-13126
unc	-13127
upi	-13128
xit	-13129
ताब	-13130
ेंट	-13131
▁',	-13132
▁'2	-13133
▁-5	-13134
▁1'	-13135
▁3/	-13136
▁4'	-13137
▁Ai	-13138
▁Em	-13139
▁FC	-13140
▁FS	-13141
▁GI	-13142
▁Iq	-13143
▁JD	-13144
▁KR	-13145
▁Ky	-13146
▁LN	-13147
▁ME	-13148
▁MN	-13149
▁Or	-13150
▁PT	-13151
▁PW	-13152
▁RJ	-13153
▁RP	-13154
▁SN	-13155
▁TH	-13156
▁TM	-13157
▁UI	-13158
▁af	-13159
▁ah	-13160
▁cr	-13161
▁db	-13162
▁eo	-13163
▁ju	-13164
▁ky	-13165
▁oc	-13166
▁od	-13167
▁oj	-13168
▁ov	-13169
▁ow	-13170
▁pp	-13171
▁rh	-13172
▁rs	-13173
▁sb	-13174
▁vu	-13175
▁इद	-13176
▁ईफ	-13177
▁ईम	-13178
▁ओग	-13179
▁ओऱ	-13180
▁ओह	-13181
▁खब	-13182
▁खस	-13183
▁घऱ	-13184
▁झट	-13185
▁टट	-13186
▁टह	-13187
▁दभ	-13188
▁धस	-13189
▁नच	-13190
▁पऊ	-13191
▁भई	-13192
▁मढ	-13193
▁यण	-13194
▁रघ	-13195
▁वफ	-13196
▁शश	-13197
▁षि	-13198
▁हठ	-13199
▁हय	-13200
▁ाष	-13201
▁ौथ	-13202
▁्श	-13203
▁₹5	-13204
adna	-13205
coot	-13206
hind	-13207
irst	-13208
last	-13209
llus	-13210
okia	-13211
orth	-13212
quad	-13213
ream	-13214
rish	-13215
▁(0)	-13216
▁(42	-13217
▁(53	-13218
▁(58	-13219
▁(60	-13220
▁-17	-13221
▁0-2	-13222
▁0.3	-13223
▁0.7	-13224
▁0/-	-13225
▁10.	-13226
▁16%	-13227
▁16-	-13228
▁17'	-13229
▁19%	-13230
▁2',	-13231
▁2-4	-13232
▁21%	-13233
▁24%	-13234
▁258	-13235
▁273	-13236
▁278	-13237
▁294	-13238
▁3-5	-13239
▁3.2	-13240
▁31,	-13241
▁311	-13242
▁34%	-13243
▁346	-13244
▁348	-13245
▁36,	-13246
▁362	-13247
▁381	-13248
▁391	-13249
▁393	-13250
▁399	-13251
▁4.1	-13252
▁414	-13253
▁419	-13254
▁42,	-13255
▁421	-13256
▁43%	-13257
▁43,	-13258
▁435	-13259
▁436	-13260
▁442	-13261
▁447	-13262
▁454	-13263
▁456	-13264
▁46%	-13265
▁461	-13266
▁474	-13267
▁476	-13268
▁48%	-13269
▁485	-13270
▁488	-13271
▁492	-13272
▁493	-13273
▁50+	-13274
▁518	-13275
▁522	-13276
▁529	-13277
▁533	-13278
▁535	-13279
▁537	-13280
▁54,	-13281
▁546	-13282
▁55,	-13283
▁554	-13284
▁556	-13285
▁558	-13286
▁563	-13287
▁567	-13288
▁582	-13289
▁588	-13290
▁59%	-13291
▁596	-13292
▁597	-13293
▁598	-13294
▁6-4	-13295
▁6-8	-13296
▁6.2	-13297
▁6.3	-13298
▁61,	-13299
▁612	-13300
▁615	-13301
▁618	-13302
▁626	-13303
▁629	-13304
▁633	-13305
▁635	-13306
▁643	-13307
▁67,	-13308
▁675	-13309
▁676	-13310
▁68,	-13311
▁680	-13312
▁682	-13313
▁685	-13314
▁695	-13315
▁698	-13316
▁7.0	-13317
▁7.9	-13318
▁702	-13319
▁716	-13320
▁718	-13321
▁740	-13322
▁762	-13323
▁784	-13324
▁8.4	-13325
▁804	-13326
▁809	-13327
▁810	-13328
▁82%	-13329
▁825	-13330
▁836	-13331
▁840	-13332
▁844	-13333
▁87%	-13334
▁870	-13335
▁88%	-13336
▁888	-13337
▁89%	-13338
▁9.8	-13339
▁9.9	-13340
▁906	-13341
▁912	-13342
▁999	-13343
▁AAI	-13344
▁ADJ	-13345
▁AFP	-13346
▁AFS	-13347
▁AIR	-13348
▁ANC	-13349
▁ART	-13350
▁Aka	-13351
▁Alt	-13352
▁Apa	-13353
▁Ari	-13354
▁Ave	-13355
▁Avi	-13356
▁BGL	-13357
▁BKU	-13358
▁BSc	-13359
▁Baj	-13360
▁Bio	-13361
▁CAG	-13362
▁CBT	-13363
▁COV	-13364
▁CPL	-13365
▁Coa	-13366
▁DCL	-13367
▁DKS	-13368
▁DLS	-13369
▁DMC	-13370
▁DRM	-13371
▁DVR	-13372
▁Dhu	-13373
▁EBI	-13374
▁EQA	-13375
▁EVs	-13376
▁FHD	-13377
▁FII	-13378
▁FTA	-13379
▁Fab	-13380
▁GHz	-13381
▁GLS	-13382
▁GMP	-13383
▁GNM	-13384
▁GPU	-13385
▁HBT	-13386
▁HTS	-13387
▁Hal	-13388
▁Hyd	-13389
▁IMT	-13390
▁ISO	-13391
▁ISP	-13392
▁IVF	-13393
▁JLR	-13394
▁JPN	-13395
▁Jau	-13396
▁Kon	-13397
▁LUX	-13398
▁MRF	-13399
▁Mid	-13400
▁Mix	-13401
▁Mrs	-13402
▁NCS	-13403
▁NER	-13404
▁NMC	-13405
▁NRC	-13406
▁NSS	-13407
▁Nag	-13408
▁Nik	-13409
▁ODI	-13410
▁Oil	-13411
▁Oxy	-13412
▁PIL	-13413
▁PLI	-13414
▁PPF	-13415
▁PRD	-13416
▁PSL	-13417
▁PSO	-13418
▁Pya	-13419
▁RAC	-13420
▁RAF	-13421
▁RIT	-13422
▁Rat	-13423
▁Ret	-13424
▁Rou	-13425
▁Rox	-13426
▁SLR	-13427
▁SOS	-13428
▁Sec	-13429
▁Ska	-13430
▁Sub	-13431
▁Tay	-13432
▁Tho	-13433
▁Tom	-13434
▁UFS	-13435
▁Ver	-13436
▁WPI	-13437
▁Wal	-13438
▁Why	-13439
▁Woh	-13440
▁Wol	-13441
▁ZEE	-13442
▁ala	-13443
▁ali	-13444
▁ama	-13445
▁ani	-13446
▁are	-13447
▁bud	-13448
▁car	-13449
▁dra	-13450
▁edu	-13451
▁ggy	-13452
▁hee	-13453
▁hip	-13454
▁ist	-13455
▁kid	-13456
▁kur	-13457
▁lay	-13458
▁lsa	-13459
▁nai	-13460
▁nci	-13461
▁nit	-13462
▁nli	-13463
▁noi	-13464
▁nue	-13465
▁oda	-13466
▁off	-13467
▁pad	-13468
▁pul	-13469
▁rag	-13470
▁raz	-13471
▁roz	-13472
▁rpm	-13473
▁sti	-13474
▁ult	-13475
▁ury	-13476
▁usa	-13477
▁van	-13478
▁ves	-13479
▁wat	-13480
▁ंत्	-13481
▁अदद	-13482
▁आमस	-13483
▁ईबर	-13484
▁ईरज	-13485
▁ईसर	-13486
▁उतई	-13487
▁उथल	-13488
▁उरी	-13489
▁ऊधम	-13490
▁एएओ	-13491
▁एकम	-13492
▁ऐदल	-13493
▁ऐरी	-13494
▁ऑवर	-13495
▁ओजस	-13496
▁कडू	-13497
▁कढ़	-13498
▁कता	-13499
▁कबल	-13500
▁करध	-13501
▁करभ	-13502
▁करह	-13503
▁काठ	-13504
▁कुआ	-13505
▁कोख	-13506
▁खटक	-13507
▁खडे	-13508
▁खुर	-13509
▁गजक	-13510
▁गलस	-13511
▁गोआ	-13512
▁चंग	-13513
▁चखा	-13514
▁चतर	-13515
▁चील	-13516
▁छतर	-13517
▁जुई	-13518
▁जैत	-13519
▁जैल	-13520
▁जैश	-13521
▁ठगो	-13522
▁डंस	-13523
▁ड़स	-13524
▁डीओ	-13525
▁डैड	-13526
▁डॉ०	-13527
▁णकर	-13528
▁तकी	-13529
▁तड़	-13530
▁तनय	-13531
▁तरन	-13532
▁तली	-13533
▁तवन	-13534
▁तवे	-13535
▁तुत	-13536
▁थंब	-13537
▁देक	-13538
▁धनं	-13539
▁धाय	-13540
▁धूर	-13541
▁नईब	-13542
▁नखत	-13543
▁नजम	-13544
▁नबस	-13545
▁नवो	-13546
▁नाउ	-13547
▁नीड	-13548
▁पटन	-13549
▁पडी	-13550
▁पतट	-13551
▁पाग	-13552
▁पिए	-13553
▁पॉम	-13554
▁पोस	-13555
▁फफक	-13556
▁फेथ	-13557
▁फेन	-13558
▁बंब	-13559
▁बरई	-13560
▁बाम	-13561
▁बिछ	-13562
▁बिट	-13563
▁भीड	-13564
▁माओ	-13565
▁मैथ	-13566
▁मोठ	-13567
▁यशो	-13568
▁याश	-13569
▁रखत	-13570
▁रचे	-13571
▁रनल	-13572
▁रीव	-13573
▁रूठ	-13574
▁लंग	-13575
▁लज़	-13576
▁लमल	-13577
▁ललक	-13578
▁लहन	-13579
▁लीं	-13580
▁लेड	-13581
▁लौर	-13582
▁वको	-13583
▁वश्	-13584
▁वसई	-13585
▁वीज	-13586
▁शक़	-13587
▁शेल	-13588
▁शेव	-13589
▁शोल	-13590
▁षड़	-13591
▁सईम	-13592
▁सरई	-13593
▁सहि	-13594
▁सिए	-13595
▁सौप	-13596
▁हंट	-13597
▁हलर	-13598
▁हाँ	-13599
▁हील	-13600
▁हैः	-13601
▁ाष्	-13602
▁िकए	-13603
▁ीनि	-13604
▁ृष्	-13605
▁्कू	-13606
▁्रच	-13607
▁्हे	-13608
▁₹15	-13609
▁₹20	-13610
▁ACJM	-13611
▁ACKO	-13612
▁AMFI	-13613
▁Ansa	-13614
▁Auct	-13615
▁BBAU	-13616
▁BCAS	-13617
▁Bare	-13618
▁Basa	-13619
▁Best	-13620
▁Bhad	-13621
▁Bish	-13622
▁Bole	-13623
▁CBDT	-13624
▁CERT	-13625
▁CPCB	-13626
▁Cana	-13627
▁Care	-13628
▁Chri	-13629
▁Cond	-13630
▁Cool	-13631
▁Crim	-13632
▁DENV	-13633
▁DMRC	-13634
▁Data	-13635
▁Dead	-13636
▁Demo	-13637
▁Deve	-13638
▁Died	-13639
▁Divi	-13640
▁Divo	-13641
▁Duca	-13642
▁Expo	-13643
▁FADA	-13644
▁FAME	-13645
▁FMCG	-13646
▁Fake	-13647
▁Faru	-13648
▁Fort	-13649
▁Full	-13650
▁GIDA	-13651
▁GNSS	-13652
▁Gang	-13653
▁HSBC	-13654
▁HSRP	-13655
▁Hike	-13656
▁ICMR	-13657
▁IDCA	-13658
▁Imra	-13659
▁Insu	-13660
▁Jeep	-13661
▁Kari	-13662
▁Kava	-13663
▁Labo	-13664
▁Laws	-13665
▁Liqu	-13666
▁Look	-13667
▁Made	-13668
▁Mahe	-13669
▁Main	-13670
▁Mama	-13671
▁Mara	-13672
▁Math	-13673
▁Mukh	-13674
▁NBFC	-13675
▁Naga	-13676
▁Nawa	-13677
▁Naya	-13678
▁Omar	-13679
▁Opin	-13680
▁Opti	-13681
▁Over	-13682
▁Pahu	-13683
▁Paym	-13684
▁Poco	-13685
▁Prei	-13686
▁Rang	-13687
▁Roti	-13688
▁Shro	-13689
▁Sonu	-13690
▁Suha	-13691
▁Supe	-13692
▁TSMC	-13693
▁Taap	-13694
▁Tank	-13695
▁Teac	-13696
▁Trai	-13697
▁UPSR	-13698
▁Veda	-13699
▁Wate	-13700
▁West	-13701
▁Yama	-13702
▁Yout	-13703
▁Zero	-13704
▁able	-13705
▁back	-13706
▁bhit	-13707
▁coll	-13708
▁cong	-13709
▁cont	-13710
▁date	-13711
▁exam	-13712
▁face	-13713
▁fall	-13714
▁form	-13715
▁frie	-13716
▁heat	-13717
▁hing	-13718
▁kill	-13719
▁lict	-13720
▁mini	-13721
▁ndup	-13722
▁nnai	-13723
▁nzia	-13724
▁over	-13725
▁puja	-13726
▁reco	-13727
▁resi	-13728
▁rjan	-13729
▁rpur	-13730
▁secu	-13731
▁shka	-13732
▁slim	-13733
▁stru	-13734
▁targ	-13735
▁thre	-13736
▁vraj	-13737
▁wife	-13738
▁zodi	-13739
▁आशंक	-13740
▁उड़े	-13741
▁गुढ़	-13742
▁गोवि	-13743
▁छेड़	-13744
▁टक्क	-13745
▁डियन	-13746
▁डेंट	-13747
▁ताड़	-13748
▁तेज़	-13749
▁तैया	-13750
▁धड़ा	-13751
▁धायक	-13752
▁धिकत	-13753
▁बगड़	-13754
▁मूल्	-13755
▁यर्थ	-13756
▁याणा	-13757
▁यापक	-13758
▁यावर	-13759
▁युक्	-13760
▁योति	-13761
▁रकड़	-13762
▁रकतउ	-13763
▁रज़ा	-13764
▁रणमल	-13765
▁रहेग	-13766
▁राइव	-13767
▁रात्	-13768
▁र्णय	-13769
▁लगाय	-13770
▁विके	-13771
▁विभि	-13772
▁विशा	-13773
▁सीरी	-13774
▁हयोग	-13775
▁ाकेश	-13776
▁ामलो	-13777
▁िचार	-13778
▁िलोम	-13779
▁िविल	-13780
▁ीटें	-13781
▁ुजुर	-13782
▁ुलास	-13783
▁ुलें	-13784
▁ेश्य	-13785
▁ोजेक	-13786
▁्योग	-13787
▁Adani	-13788
▁Ameri	-13789
▁Bhind	-13790
▁Blast	-13791
▁Build	-13792
▁CLICK	-13793
▁Caste	-13794
▁Child	-13795
▁Civil	-13796
▁Class	-13797
▁Commu	-13798
▁Crest	-13799
▁Crick	-13800
▁Crude	-13801
▁David	-13802
▁Disco	-13803
▁Diwas	-13804
▁Dixit	-13805
▁Dolla	-13806
▁Earth	-13807
▁FLiRT	-13808
▁Fadna	-13809
▁Gauri	-13810
▁Harsh	-13811
▁Hooda	-13812
▁Illus	-13813
▁Impor	-13814
▁Infra	-13815
▁Iqbal	-13816
▁Jigra	-13817
▁Kaila	-13818
▁Karda	-13819
▁Kargi	-13820
▁MacBo	-13821
▁Madhu	-13822
▁Maldi	-13823
▁Manda	-13824
▁Mehta	-13825
▁Nirja	-13826
▁Nissa	-13827
▁Nokia	-13828
▁North	-13829
▁Pawar	-13830
▁Pradh	-13831
▁Preet	-13832
▁Pulki	-13833
▁Rakul	-13834
▁Rangi	-13835
▁Renau	-13836
▁Richa	-13837
▁Rupee	-13838
▁Sagar	-13839
▁Samra	-13840
▁Sanju	-13841
▁Scoot	-13842
▁Selto	-13843
▁Sport	-13844
▁Stand	-13845
▁Stank	-13846
▁Start	-13847
▁Store	-13848
▁Swati	-13849
▁Table	-13850
▁Terro	-13851
▁Totke	-13852
▁Vacci	-13853
▁Venue	-13854
▁Vista	-13855
▁Voter	-13856
▁Zinta	-13857
▁crime	-13858
▁earth	-13859
▁ekada	-13860
▁first	-13861
▁flood	-13862
▁iQube	-13863
▁kumbh	-13864
▁nawar	-13865
▁stani	-13866
▁world	-13867
▁ंगलवा	-13868
▁ंग्रे	-13869
▁तिनिध	-13870
▁द्घाट	-13871
▁प्रधा	-13872
▁फिलहा	-13873
▁मुताब	-13874
▁मोहल्	-13875
▁युवाओ	-13876
▁रवाने	-13877
▁र्वजन	-13878
▁सुविध	-13879
▁िवासी	-13880
▁िष्ठा	-13881
""	-13882
-7	-13883
IB	-13884
IR	-13885
PN	-13886
RB	-13887
TB	-13888
YO	-13889
au	-13890
bu	-13891
op	-13892
sk	-13893
vy	-13894
wd	-13895
ँस	-13896
अल	-13897
ऊं	-13898
डर	-13899
AM	-13900
EC	-13901
GA	-13902
ag	-13903
im	-13904
je	-13905
डे	-13906
तह	-13907
मक	-13908
यन	-13909
सन	-13910
▁ॊ	-13911
▁ড	-13912
▁দ	-13913
▁ধ	-13914
▁వ	-13915
▁స	-13916
▁⏱	-13917
▁♍	-13918
▁⭐	-13919
▁🇮	-13920
CPA	-13921
DPO	-13922
ITI	-13923
KUS	-13924
LAT	-13925
MAX	-13926
MCL	-13927
PMS	-13928
amo	-13929
ays	-13930
bad	-13931
bar	-13932
bra	-13933
cno	-13934
dea	-13935
hee	-13936
hoi	-13937
ice	-13938
ilk	-13939
itr	-13940
lan	-13941
laq	-13942
lep	-13943
lla	-13944
mat	-13945
olo	-13946
ppu	-13947
pro	-13948
qui	-13949
rap	-13950
reo	-13951
swa	-13952
try	-13953
tto	-13954
ung	-13955
usi	-13956
vek	-13957
vel	-13958
wal	-13959
wiv	-13960
जेप	-13961
▁"5	-13962
▁"9	-13963
▁8)	-13964
▁AJ	-13965
▁DD	-13966
▁EE	-13967
▁EI	-13968
▁FM	-13969
▁FW	-13970
▁GD	-13971
▁GE	-13972
▁HU	-13973
▁JH	-13974
▁Jr	-13975
▁KS	-13976
▁LR	-13977
▁MQ	-13978
▁OB	-13979
▁OC	-13980
▁ON	-13981
▁PU	-13982
▁QC	-13983
▁RB	-13984
▁SB	-13985
▁SJ	-13986
▁SX	-13987
▁TB	-13988
▁TD	-13989
▁TG	-13990
▁UC	-13991
▁ZC	-13992
▁Ze	-13993
▁bs	-13994
▁dr	-13995
▁eV	-13996
▁ei	-13997
▁ev	-13998
▁fu	-13999
-2	-14000
35	-14001
70	-14002
AB	-14003
DE	-14004
Ji	-14005
PP	-14006
RE	-14007
WE	-14008
WF	-14009
pi	-14010
vt	-14011
we	-14012
wh	-14013
उफ	-14014
ख़	-14015
गल	-14016
छह	-14017
फ़	-14018
मर	-14019
हद	-14020
▁९	-14021
▁త	-14022
▁⚠	-14023
▁🪐	-14024
AST	-14025
ICE	-14026
aja	-14027
ffe	-14028
hri	-14029
ric	-14030
zta	-14031
ञान	-14032
▁iM	-14033
▁ig	-14034
▁ml	-14035
▁pm	-14036
▁rk	-14037
▁rm	-14038
▁wn	-14039
▁ye	-14040
▁आड	-14041
▁ऐस	-14042
▁ऑर	-14043
▁ओझ	-14044
▁कक	-14045
▁कग	-14046
▁कय	-14047
▁गऊ	-14048
▁गग	-14049
▁छट	-14050
▁छब	-14051
▁जई	-14052
▁झौ	-14053
▁डफ	-14054
▁ढन	-14055
▁ढव	-14056
▁तथ	-14057
▁तद	-14058
▁दै	-14059
▁पव	-14060
▁वव	-14061
▁शद	-14062
▁सः	-14063
▁₹8	-14064
▁⏱️	-14065
▁🇮🇳	-14066
ampa	-14067
ensu	-14068
erid	-14069
ilip	-14070
inku	-14071
itco	-14072
itle	-14073
ktaa	-14074
mplo	-14075
nigh	-14076
odha	-14077
ssay	-14078
ंदोल	-14079
▁'13	-14080
▁(04	-14081
▁(07	-14082
▁(35	-14083
▁(40	-14084
▁(44	-14085
▁(46	-14086
▁(57	-14087
▁(70	-14088
▁-24	-14089
▁0-5	-14090
▁06,	-14091
▁1.0	-14092
▁11-	-14093
▁12.	-14094
▁12:	-14095
▁14-	-14096
▁15.	-14097
▁16'	-14098
▁16)	-14099
NGA	-14100
now	-14101
▁0%	-14102
▁DP	-14103
▁HF	-14104
▁QI	-14105
▁Ts	-14106
▁UM	-14107
▁dy	-14108
▁nw	-14109
▁ob	-14110
▁ओक	-14111
▁टश	-14112
▁थई	-14113
▁धल	-14114
▁फई	-14115
▁ूछ	-14116
ligh	-14117
▁'67	-14118
▁-13	-14119
▁0-1	-14120
▁10:	-14121
▁19.	-14122
▁26%	-14123
▁264	-14124
▁27%	-14125
▁298	-14126
▁31%	-14127
▁322	-14128
▁35.	-14129
▁373	-14130
▁38%	-14131
▁382	-14132
▁385	-14133
▁386	-14134
▁388	-14135
▁389	-14136
▁4-6	-14137
▁429	-14138
▁445	-14139
▁449	-14140
▁452	-14141
▁463	-14142
▁465	-14143
▁469	-14144
▁473	-14145
▁481	-14146
▁490	-14147
▁491	-14148
▁494	-14149
▁499	-14150
▁5-2	-14151
▁5.0	-14152
▁505	-14153
▁511	-14154
▁512	-14155
▁52,	-14156
▁523	-14157
▁524	-14158
▁531	-14159
▁532	-14160
▁547	-14161
▁552	-14162
▁553	-14163
▁56,	-14164
▁562	-14165
▁57%	-14166
▁571	-14167
▁572	-14168
▁576	-14169
▁577	-14170
▁578	-14171
▁579	-14172
▁58%	-14173
▁581	-14174
▁584	-14175
▁585	-14176
▁592	-14177
▁599	-14178
▁613	-14179
▁63%	-14180
▁630	-14181
▁636	-14182
▁64%	-14183
▁64,	-14184
▁656	-14185
▁661	-14186
▁665	-14187
▁666	-14188
▁667	-14189
▁671	-14190
▁688	-14191
▁689	-14192
▁696	-14193
▁7/8	-14194
▁704	-14195
▁711	-14196
▁712	-14197
▁719	-14198
▁722	-14199
34	-14200
NI	-14201
xt	-14202
गो	-14203
ॉट	-14204
que	-14205
zal	-14206
काब	-14207
▁'4	-14208
▁9:	-14209
▁Ah	-14210
▁LA	-14211
▁औक	-14212
▁छऊ	-14213
▁डड	-14214
▁भए	-14215
▁-12	-14216
▁36%	-14217
▁387	-14218
▁4-2	-14219
▁467	-14220
▁472	-14221
▁58,	-14222
▁724	-14223
▁728	-14224
▁735	-14225
▁74,	-14226
▁748	-14227
▁751	-14228
▁76%	-14229
▁771	-14230
▁774	-14231
▁775	-14232
▁78,	-14233
▁782	-14234
▁785	-14235
▁786	-14236
▁790	-14237
▁8.2	-14238
▁818	-14239
▁829	-14240
▁831	-14241
▁837	-14242
▁84%	-14243
▁841	-14244
▁852	-14245
▁853	-14246
▁86%	-14247
▁860	-14248
▁872	-14249
▁876	-14250
▁880	-14251
▁885	-14252
▁899	-14253
▁904	-14254
▁905	-14255
▁91,	-14256
▁92%	-14257
▁926	-14258
▁928	-14259
▁93,	-14260
▁931	-14261
▁932	-14262
▁938	-14263
▁941	-14264
▁948	-14265
▁96%	-14266
▁97%	-14267
▁977	-14268
▁984	-14269
▁990	-14270
▁995	-14271
▁AAO	-14272
▁ADC	-14273
▁APP	-14274
▁APS	-14275
▁AUM	-14276
▁Abo	-14277
▁Add	-14278
▁Aft	-14279
▁Ala	-14280
▁Ant	-14281
▁Are	-14282
▁Ast	-14283
▁BBD	-14284
▁BBM	-14285
▁BCB	-14286
▁BDS	-14287
▁BKC	-14288
▁BLO	-14289
▁BPL	-14290
▁BWF	-14291
▁Bel	-14292
▁Ber	-14293
▁Bhe	-14294
▁Bil	-14295
▁Bra	-14296
▁Bro	-14297
▁CBN	-14298
▁CBU	-14299
▁CCS	-14300
▁CDS	-14301
▁CHO	-14302
▁CHR	-14303
▁CMC	-14304
▁CNY	-14305
▁COP	-14306
▁CPM	-14307
▁CUV	-14308
▁Cle	-14309
▁DAE	-14310
▁DBT	-14311
▁DCW	-14312
▁DOP	-14313
▁DPL	-14314
▁Dar	-14315
▁Dhi	-14316
▁DoT	-14317
▁Dum	-14318
▁ECR	-14319
▁EPA	-14320
▁ERV	-14321
▁ESI	-14322
▁EVX	-14323
▁Ear	-14324
▁Eli	-14325
▁FDC	-14326
▁FIX	-14327
▁FMR	-14328
▁FPI	-14329
▁FPO	-14330
▁FTI	-14331
▁GLC	-14332
▁GPF	-14333
▁GPM	-14334
▁GSS	-14335
▁GTS	-14336
▁Goa	-14337
▁HAU	-14338
▁HCS	-14339
▁Hiz	-14340
▁Hus	-14341
▁ICS	-14342
▁IDC	-14343
▁IMC	-14344
▁ING	-14345
▁ISC	-14346
▁ITC	-14347
▁IVR	-14348
▁JAY	-14349
▁JDA	-14350
▁Jet	-14351
▁Job	-14352
▁Jon	-14353
▁KBC	-14354
▁KGF	-14355
▁KIA	-14356
▁Kam	-14357
▁Khu	-14358
▁Kim	-14359
▁Kis	-14360
▁Koc	-14361
▁LBS	-14362
▁LDC	-14363
▁Lad	-14364
▁Lal	-14365
▁Lam	-14366
▁MAN	-14367
▁MDM	-14368
▁MIG	-14369
▁MRP	-14370
▁Mat	-14371
▁Mel	-14372
▁Men	-14373
▁Mor	-14374
▁Mot	-14375
▁NAA	-14376
▁NBW	-14377
▁NCL	-14378
▁NEP	-14379
▁NPP	-14380
▁NSO	-14381
▁Nax	-14382
▁OLX	-14383
▁OPI	-14384
▁OTR	-14385
▁PCI	-14386
▁PDM	-14387
▁PET	-14388
▁PHC	-14389
▁PKC	-14390
▁PML	-14391
▁PNR	-14392
▁POK	-14393
▁PPP	-14394
▁PVC	-14395
▁Pal	-14396
▁RCA	-14397
▁RIL	-14398
▁RPI	-14399
▁RPS	-14400
▁RRB	-14401
▁RTE	-14402
▁Rae	-14403
▁Ray	-14404
▁SCI	-14405
▁SGM	-14406
▁SIS	-14407
▁SME	-14408
▁SOP	-14409
▁SPO	-14410
▁SSK	-14411
▁SSO	-14412
▁SST	-14413
▁SSY	-14414
▁Sim	-14415
▁Sta	-14416
▁Sui	-14417
▁TDA	-14418
▁TDS	-14419
▁TET	-14420
▁TFT	-14421
▁TOI	-14422
▁TOP	-14423
▁TRA	-14424
▁TWS	-14425
▁Tab	-14426
▁Tal	-14427
▁Tek	-14428
▁Tim	-14429
▁USD	-14430
▁Und	-14431
▁Upa	-14432
▁Upe	-14433
▁VAS	-14434
▁VAT	-14435
▁VBA	-14436
▁VDA	-14437
▁VPN	-14438
▁VTR	-14439
▁VXi	-14440
▁Vik	-14441
▁WWE	-14442
▁XEN	-14443
▁Yog	-14444
▁ard	-14445
▁ben	-14446
▁bjp	-14447
▁ble	-14448
▁bor	-14449
▁can	-14450
▁cis	-14451
▁clo	-14452
▁eli	-14453
▁esh	-14454
▁fic	-14455
▁gal	-14456
▁ges	-14457
▁gma	-14458
▁gre	-14459
▁gro	-14460
▁hea	-14461
▁hme	-14462
▁ice	-14463
▁ift	-14464
▁ign	-14465
▁ile	-14466
▁ill	-14467
▁ink	-14468
▁jai	-14469
▁kal	-14470
▁ker	-14471
▁lat	-14472
▁lau	-14473
▁lli	-14474
▁low	-14475
▁lpa	-14476
▁lud	-14477
▁mAH	-14478
▁mau	-14479
▁may	-14480
▁met	-14481
▁mus	-14482
▁ner	-14483
▁nkh	-14484
▁nne	-14485
▁one	-14486
▁orm	-14487
▁pak	-14488
▁peo	-14489
▁pla	-14490
▁por	-14491
▁rad	-14492
▁reg	-14493
▁ria	-14494
▁rov	-14495
▁sei	-14496
▁sho	-14497
▁shu	-14498
▁sma	-14499
▁sse	-14500
▁sso	-14501
▁sto	-14502
▁sum	-14503
▁sus	-14504
▁swa	-14505
▁tru	-14506
▁tte	-14507
▁tur	-14508
▁ube	-14509
▁usi	-14510
▁vie	-14511
▁vis	-14512
▁vya	-14513
▁was	-14514
▁xAI	-14515
▁you	-14516
▁yya	-14517
▁zia	-14518
▁अटा	-14519
▁अणे	-14520
▁अदम	-14521
▁अमा	-14522
▁असी	-14523
▁आंग	-14524
▁आईज	-14525
▁आऊं	-14526
▁आगू	-14527
▁आरे	-14528
▁आसा	-14529
▁इगा	-14530
▁इयो	-14531
▁ईंख	-14532
▁ईधन	-14533
▁उंट	-14534
▁उगी	-14535
▁उधव	-14536
▁उसम	-14537
▁ऊतक	-14538
▁ऊदल	-14539
▁ऋतू	-14540
▁ऋषव	-14541
▁ऋषी	-14542
▁एमई	-14543
▁एरी	-14544
▁ऑयन	-14545
▁ऑरा	-14546
▁ओएस	-14547
▁ओड़	-14548
▁ओशन	-14549
▁ओशो	-14550
▁औैर	-14551
▁कटु	-14552
▁कतल	-14553
▁कवन	-14554
▁कवल	-14555
▁कशन	-14556
▁कसे	-14557
▁कहत	-14558
▁कीन	-14559
▁कुई	-14560
▁केे	-14561
▁कॉज	-14562
▁कॉट	-14563
▁खटा	-14564
▁खपा	-14565
▁खरब	-14566
▁खेम	-14567
▁खोत	-14568
▁गढा	-14569
▁गधा	-14570
▁गमी	-14571
▁गयो	-14572
▁गवर	-14573
▁ग़म	-14574
▁गाव	-14575
▁गिव	-14576
▁गॉफ	-14577
▁गोन	-14578
▁गोफ	-14579
▁गौण	-14580
▁घड़	-14581
▁घरो	-14582
▁चटा	-14583
▁चिब	-14584
▁चीट	-14585
▁चूज	-14586
▁चेह	-14587
▁चैत	-14588
▁छटे	-14589
▁छुई	-14590
▁छैल	-14591
▁जकी	-14592
▁जटा	-14593
▁जनम	-14594
▁जपे	-14595
▁जयं	-14596
▁जरव	-14597
▁जलज	-14598
▁ज़ब	-14599
▁जूड	-14600
▁जौन	-14601
▁टेब	-14602
▁टॉल	-14603
▁टोह	-14604
▁ठाय	-14605
▁ठेल	-14606
▁डगर	-14607
▁डटी	-14608
▁डलक	-14609
▁डही	-14610
▁डीआ	-14611
▁डीई	-14612
▁डेफ	-14613
▁डेर	-14614
▁डेव	-14615
▁डैश	-14616
▁डॉल	-14617
▁डोड	-14618
▁ढ़ख	-14619
▁ढ़ग	-14620
▁ढाक	-14621
▁ढोक	-14622
▁तकि	-14623
▁तबर	-14624
▁तरु	-14625
▁तवी	-14626
▁तहे	-14627
▁थड़	-14628
▁ददई	-14629
▁दीफ	-14630
▁देत	-14631
▁देस	-14632
▁दोज	-14633
▁दोस	-14634
▁धणी	-14635
▁धों	-14636
▁नखट	-14637
▁नगा	-14638
▁नफे	-14639
▁नवं	-14640
▁नवण	-14641
▁नवम	-14642
▁नाऊ	-14643
▁नेब	-14644
▁न्म	-14645
▁पंस	-14646
▁परड	-14647
▁परब	-14648
▁पिस	-14649
▁पीई	-14650
▁पूत	-14651
▁पूस	-14652
▁पेठ	-14653
▁पॉट	-14654
▁पॉड	-14655
▁फली	-14656
▁फिच	-14657
▁फूप	-14658
▁फूस	-14659
▁फोड	-14660
▁बकल	-14661
▁बचन	-14662
▁बबल	-14663
▁बसव	-14664
▁बाट	-14665
▁बाढ	-14666
▁बिच	-14667
▁बीई	-14668
▁बेत	-14669
▁बॉट	-14670
▁भवः	-14671
▁मकल	-14672
▁मतद	-14673
▁मदम	-14674
▁मरद	-14675
▁मरू	-14676
▁महं	-14677
▁मूट	-14678
▁मोम	-14679
▁मो०	-14680
▁यड़	-14681
▁यथल	-14682
▁यमल	-14683
▁याण	-14684
▁रआन	-14685
▁रउफ	-14686
▁रखम	-14687
▁रख़	-14688
▁रखो	-14689
▁रजब	-14690
▁रतर	-14691
▁रमी	-14692
▁रीस	-14693
▁रुई	-14694
▁रुल	-14695
▁रॉन	-14696
▁रॉस	-14697
▁लखी	-14698
▁लबन	-14699
▁लाट	-14700
▁लिं	-14701
▁लिग	-14702
▁लीफ	-14703
▁लुई	-14704
▁लूं	-14705
▁लूम	-14706
▁लैप	-14707
▁लोई	-14708
▁लोट	-14709
▁लोभ	-14710
▁वटी	-14711
▁वना	-14712
▁वरद	-14713
▁वरन	-14714
▁वरम	-14715
▁वसन	-14716
▁वाे	-14717
▁वृष	-14718
▁शेक	-14719
▁शैल	-14720
▁शैव	-14721
▁संच	-14722
▁संय	-14723
▁सदफ	-14724
▁सनत	-14725
▁सफा	-14726
▁सफी	-14727
▁सरत	-14728
▁सवन	-14729
▁सीई	-14730
▁सुए	-14731
▁सुत	-14732
▁सूआ	-14733
▁सैट	-14734
▁सैप	-14735
▁हलई	-14736
▁हवस	-14737
▁हुड	-14738
▁हूल	-14739
▁हैर	-14740
▁हॉज	-14741
▁होय	-14742
▁ानं	-14743
▁ावज	-14744
▁िमल	-14745
▁ीटो	-14746
▁ूमि	-14747
▁ूसर	-14748
▁्नो	-14749
▁्यप	-14750
▁्हो	-14751
▁₹10	-14752
▁₹25	-14753
▁₹50	-14754
▁ABSA	-14755
▁ACCU	-14756
▁AISA	-14757
▁ARTO	-14758
▁Acha	-14759
▁Adre	-14760
▁Afri	-14761
▁Ahoi	-14762
▁Ajit	-14763
▁Amri	-14764
▁Anna	-14765
▁Apac	-14766
▁Arab	-14767
▁Arma	-14768
▁Assi	-14769
▁Atal	-14770
▁Atto	-14771
▁BNSS	-14772
▁Back	-14773
▁Bage	-14774
▁Ball	-14775
▁Bedi	-14776
▁Beta	-14777
▁Brah	-14778
▁Budd	-14779
▁CAPF	-14780
▁COVI	-14781
▁Cham	-14782
▁Chaw	-14783
▁Chhi	-14784
▁Chro	-14785
▁Cine	-14786
▁Citi	-14787
▁Corp	-14788
▁Coup	-14789
▁CrPC	-14790
▁DGGI	-14791
▁Deal	-14792
▁Defe	-14793
▁Dema	-14794
▁Depu	-14795
▁Dese	-14796
▁Devs	-14797
▁Dist	-14798
▁Dood	-14799
▁Drav	-14800
▁Dule	-14801
▁Dwiv	-14802
▁ERCP	-14803
▁Ease	-14804
▁Envi	-14805
▁Erti	-14806
▁Exci	-14807
▁FAST	-14808
▁FRAS	-14809
▁Fail	-14810
▁Fast	-14811
▁Fate	-14812
▁Fest	-14813
▁Find	-14814
▁GIMS	-14815
▁GPay	-14816
▁Game	-14817
▁Gate	-14818
▁Gava	-14819
▁Gemi	-14820
▁Ghai	-14821
▁Gopa	-14822
▁HBTU	-14823
▁HSVP	-14824
▁Hald	-14825
▁Hall	-14826
▁Heal	-14827
▁Heer	-14828
▁Heli	-14829
▁Horo	-14830
▁Hots	-14831
▁Huma	-14832
▁ICAI	-14833
▁IDFC	-14834
▁ISBT	-14835
▁ISRL	-14836
▁Idea	-14837
▁Inno	-14838
▁Isha	-14839
▁JSSC	-14840
▁Jack	-14841
▁Jala	-14842
▁Jara	-14843
▁Jawa	-14844
▁Jind	-14845
▁Jupi	-14846
▁KISS	-14847
▁KMPH	-14848
▁Kajo	-14849
▁Kaur	-14850
▁Kira	-14851
▁Laga	-14852
▁Leag	-14853
▁Ligh	-14854
▁Limo	-14855
▁Loan	-14856
▁MRFA	-14857
▁Madh	-14858
▁Manu	-14859
▁Mast	-14860
▁Mata	-14861
▁Medi	-14862
▁Mega	-14863
▁Most	-14864
▁MyJi	-14865
▁NBCC	-14866
▁NEWS	-14867
▁NION	-14868
▁NIRF	-14869
▁NMCH	-14870
▁Nand	-14871
▁Neet	-14872
▁Nora	-14873
▁Oreo	-14874
▁PHED	-14875
▁Paci	-14876
▁Papa	-14877
▁Pare	-14878
▁Park	-14879
▁Pavi	-14880
▁Pili	-14881
▁Piyu	-14882
▁Prat	-14883
▁Preg	-14884
▁RBSE	-14885
▁REEL	-14886
▁RERA	-14887
▁Race	-14888
▁Raha	-14889
▁Raji	-14890
▁Rata	-14891
▁Reel	-14892
▁Reso	-14893
▁Reti	-14894
▁Revo	-14895
▁Rice	-14896
▁Rose	-14897
▁Roza	-14898
▁Rozi	-14899
▁Ruth	-14900
▁SIST	-14901
▁Safe	-14902
▁Saha	-14903
▁Saif	-14904
▁Sana	-14905
▁Sear	-14906
▁Seco	-14907
▁Seda	-14908
▁Seth	-14909
▁Sheh	-14910
▁Shre	-14911
▁Sing	-14912
▁Siri	-14913
▁Spam	-14914
▁Stri	-14915
▁Supp	-14916
▁Sure	-14917
▁Syst	-14918
▁TPMS	-14919
▁Team	-14920
▁Topp	-14921
▁Trag	-14922
▁Turk	-14923
▁UNGA	-14924
▁Umar	-14925
▁Utha	-14926
▁Utpa	-14927
▁Vale	-14928
▁Volk	-14929
▁Wall	-14930
▁Wave	-14931
▁Wint	-14932
▁Yech	-14933
▁Zili	-14934
▁arvi	-14935
▁bail	-14936
▁bang	-14937
▁bank	-14938
▁budg	-14939
▁call	-14940
▁canc	-14941
▁card	-14942
▁died	-14943
▁eMAX	-14944
▁exit	-14945
▁fell	-14946
▁file	-14947
▁girl	-14948
▁hhar	-14949
▁inde	-14950
▁infe	-14951
▁khan	-14952
▁mani	-14953
▁mata	-14954
▁ndia	-14955
▁pass	-14956
▁prep	-14957
▁pter	-14958
▁reas	-14959
▁reme	-14960
▁roll	-14961
▁rule	-14962
▁scho	-14963
▁shid	-14964
▁sing	-14965
▁stor	-14966
▁vote	-14967
▁waka	-14968
▁wali	-14969
▁wani	-14970
▁want	-14971
▁wara	-14972
▁ware	-14973
▁zudd	-14974
▁ंगीत	-14975
▁ंतोष	-14976
▁इस्त	-14977
▁ओढ़ा	-14978
▁कढ़ी	-14979
▁क़दम	-14980
▁क़मर	-14981
▁खरड़	-14982
▁ग़ज़	-14983
▁गांध	-14984
▁गुप्	-14985
▁चढ़ी	-14986
▁चलान	-14987
▁चानक	-14988
▁छिड़	-14989
▁जड़ा	-14990
▁जानि	-14991
▁झाड़	-14992
▁डिकल	-14993
▁ढ़ेर	-14994
▁तड़प	-14995
▁दिवा	-14996
▁दुनि	-14997
▁फड़ी	-14998
▁फ़सल	-14999
▁बंधि	-15000
▁बाड़	-15001
▁ब्लि	-15002
▁भागो	-15003
▁भाड़	-15004
▁मड़ई	-15005
▁मतदा	-15006
▁माड़	-15007
▁मौजू	-15008
▁रक़म	-15009
▁रधान	-15010
▁रबड़	-15011
▁रवड़	-15012
▁रिके	-15013
▁रुख़	-15014
▁रुवा	-15015
▁रोज़	-15016
▁लब्ध	-15017
▁लास्	-15018
▁शुल्	-15019
▁शेख़	-15020
▁स्तव	-15021
▁ांस्	-15022
▁ाचिक	-15023
▁ातार	-15024
▁िवार	-15025
▁ीकार	-15026
▁ीसीट	-15027
▁ुस्ल	-15028
▁ूल्य	-15029
▁्ञान	-15030
▁्सिय	-15031
▁AUKUS	-15032
▁Allia	-15033
▁Brent	-15034
▁Briti	-15035
▁CSMCL	-15036
▁Censu	-15037
▁Cervi	-15038
▁Chali	-15039
▁Clavi	-15040
▁Close	-15041
▁Coach	-15042
▁Const	-15043
▁Dilip	-15044
▁Diplo	-15045
▁Dream	-15046
▁Ektaa	-15047
▁Elite	-15048
▁Emplo	-15049
▁Encro	-15050
▁Entry	-15051
▁Essay	-15052
▁Farru	-15053
▁Fazal	-15054
▁Field	-15055
▁Fortu	-15056
▁Great	-15057
▁Guide	-15058
▁Gupta	-15059
▁Harry	-15060
▁Heart	-15061
▁JPNIC	-15062
▁Jagra	-15063
▁Jeeta	-15064
▁Kahan	-15065
▁Kanya	-15066
▁Katch	-15067
▁Khali	-15068
▁Khand	-15069
▁Knigh	-15070
▁Kotak	-15071
▁Kylaq	-15072
▁Lawre	-15073
▁Madha	-15074
▁Malho	-15075
▁Merid	-15076
▁Nanda	-15077
▁Narak	-15078
▁Nidhi	-15079
▁Padma	-15080
▁Pahar	-15081
▁Palak	-15082
▁Pappu	-15083
▁Patha	-15084
▁Patra	-15085
▁Pavel	-15086
▁Perak	-15087
▁Pitch	-15088
▁Plant	-15089
▁Pollu	-15090
▁Produ	-15091
▁RITES	-15092
▁Radha	-15093
▁Rajya	-15094
▁Ranji	-15095
▁Rasha	-15096
▁Recha	-15097
▁Rekha	-15098
▁Relat	-15099
▁Riche	-15100
▁Rinku	-15101
▁Rizta	-15102
▁Sabar	-15103
▁Sambh	-15104
▁Samso	-15105
▁Sania	-15106
▁Santa	-15107
▁Santo	-15108
▁Sapha	-15109
▁Sarfa	-15110
▁Secur	-15111
▁Shami	-15112
▁Sharm	-15113
▁Small	-15114
▁South	-15115
▁Squad	-15116
▁Sride	-15117
▁Srina	-15118
▁Stude	-15119
▁Swami	-15120
▁Swara	-15121
▁Taaja	-15122
▁Tecno	-15123
▁Title	-15124
▁Track	-15125
▁Tuber	-15126
▁Twink	-15127
▁UPPSC	-15128
▁Vedaa	-15129
▁Vikas	-15130
▁Villa	-15131
▁Virus	-15132
▁Vivek	-15133
▁Wipro	-15134
▁Yello	-15135
▁Yodha	-15136
▁blast	-15137
▁conse	-15138
▁const	-15139
▁disea	-15140
▁facel	-15141
▁facto	-15142
▁fligh	-15143
▁force	-15144
▁fraud	-15145
▁katha	-15146
▁kejri	-15147
▁kidna	-15148
▁krish	-15149
▁laddu	-15150
▁launc	-15151
▁missi	-15152
▁navra	-15153
▁petro	-15154
▁presi	-15155
▁relea	-15156
▁sband	-15157
▁servi	-15158
▁shman	-15159
▁shrad	-15160
▁swati	-15161
▁trave	-15162
▁watch	-15163
▁yatra	-15164
▁zipur	-15165
▁आंदोल	-15166
▁ग्रेज	-15167
▁ट्रपत	-15168
▁दाधिक	-15169
▁नाराय	-15170
▁नेताओ	-15171
▁परीक्	-15172
▁बीजेप	-15173
▁मुकाब	-15174
▁रज़ख़	-15175
▁रफ्ता	-15176
▁िश्वा	-15177
CHA	-15178
DAI	-15179
EFA	-15180
FPA	-15181
FSA	-15182
FSI	-15183
GPV	-15184
GTF	-15185
IBO	-15186
IMI	-15187
JSU	-15188
KYC	-15189
NCB	-15190
OSE	-15191
RPU	-15192
RSE	-15193
TMU	-15194
YLD	-15195
alg	-15196
alo	-15197
asi	-15198
bse	-15199
ang	-15200
ari	-15201
bsi	-15202
cla	-15203
cqu	-15204
cta	-15205
dar	-15206
ert	-15207
ewe	-15208
fah	-15209
fus	-15210
gde	-15211
hma	-15212
hup	-15213
ilo	-15214
jji	-15215
kTo	-15216
man	-15217
mid	-15218
ndu	-15219
oom	-15220
orj	-15221
ped	-15222
ppo	-15223
quo	-15224
rid	-15225
scu	-15226
sin	-15227
spi	-15228
tar	-15229
tor	-15230
tre	-15231
uro	-15232
usa	-15233
uss	-15234
wad	-15235
wda	-15236
xmi	-15237
yer	-15238
zbo	-15239
फ़र	-15240
▁!!	-15241
▁+9	-15242
▁HJ	-15243
▁HY	-15244
▁JR	-15245
▁Ly	-15246
▁UA	-15247
▁WF	-15248
▁WL	-15249
▁Wc	-15250
▁XL	-15251
▁ZA	-15252
▁ZR	-15253
▁dh	-15254
▁fy	-15255
▁hy	-15256
▁hz	-15257
▁jk	-15258
▁mc	-15259
▁pO	-15260
▁ps	-15261
▁qi	-15262
▁rg	-15263
▁yd	-15264
▁zz	-15265
▁ऋज	-15266
▁॥9	-15267
▁কর	-15268
▁লব	-15269
▁₹4	-15270
ORLD	-15271
adka	-15272
elco	-15273
erna	-15274
essa	-15275
ewer	-15276
hang	-15277
itra	-15278
mail	-15279
mita	-15280
mpri	-15281
ouns	-15282
ount	-15283
rugs	-15284
scar	-15285
▁"10	-15286
▁"16	-15287
▁"18	-15288
▁"24	-15289
▁"75	-15290
▁'30	-15291
▁(33	-15292
▁(34	-15293
▁(36	-15294
▁(38	-15295
▁(39	-15296
▁(51	-15297
▁(54	-15298
▁(65	-15299
eed	-15300
hay	-15301
hlo	-15302
jha	-15303
ram	-15304
ren	-15305
▁/6	-15306
▁Dh	-15307
▁Dy	-15308
▁EL	-15309
▁RK	-15310
▁RM	-15311
▁XP	-15312
▁iv	-15313
▁og	-15314
▁os	-15315
cind	-15316
erti	-15317
▁(87	-15318
▁(90	-15319
▁+92	-15320
▁-10	-15321
▁-19	-15322
▁-1:	-15323
▁-20	-15324
▁-35	-15325
▁-50	-15326
▁0.4	-15327
▁06:	-15328
▁13'	-15329
▁13+	-15330
▁14.	-15331
▁16.	-15332
▁16:	-15333
▁18'	-15334
▁22.	-15335
▁24)	-15336
▁25)	-15337
▁269	-15338
▁3/4	-15339
▁36'	-15340
▁394	-15341
▁4-3	-15342
▁402	-15343
▁41%	-15344
▁426	-15345
▁437	-15346
▁441	-15347
▁462	-15348
▁47%	-15349
▁486	-15350
▁497	-15351
▁5%,	-15352
▁50-	-15353
▁503	-15354
▁507	-15355
▁508	-15356
▁515	-15357
▁517	-15358
▁526	-15359
▁541	-15360
▁548	-15361
▁568	-15362
▁587	-15363
▁594	-15364
▁6-2	-15365
▁611	-15366
▁62,	-15367
▁622	-15368
▁624	-15369
▁627	-15370
▁634	-15371
▁637	-15372
▁648	-15373
▁66%	-15374
▁66,	-15375
▁668	-15376
▁686	-15377
▁69,	-15378
▁690	-15379
▁7-9	-15380
▁703	-15381
▁705	-15382
▁706	-15383
▁713	-15384
▁721	-15385
▁73,	-15386
▁732	-15387
▁736	-15388
▁739	-15389
▁74%	-15390
▁754	-15391
▁758	-15392
▁763	-15393
▁766	-15394
▁768	-15395
▁769	-15396
▁770	-15397
▁779	-15398
▁78%	-15399
ico	-15400
oke	-15401
▁?"	-15402
▁BU	-15403
▁BV	-15404
▁IU	-15405
▁IW	-15406
▁IX	-15407
▁Ic	-15408
▁Ir	-15409
▁td	-15410
▁we	-15411
▁ढप	-15412
hanu	-15413
▁1-4	-15414
▁12-	-15415
▁18-	-15416
▁20-	-15417
▁259	-15418
▁30-	-15419
▁306	-15420
▁38)	-15421
▁603	-15422
▁649	-15423
▁78.	-15424
▁783	-15425
▁798	-15426
▁8-2	-15427
▁8.3	-15428
▁803	-15429
▁805	-15430
▁806	-15431
▁81,	-15432
▁812	-15433
▁815	-15434
▁816	-15435
▁819	-15436
▁823	-15437
▁826	-15438
▁828	-15439
▁83,	-15440
▁832	-15441
▁835	-15442
▁846	-15443
▁848	-15444
▁859	-15445
▁863	-15446
▁881	-15447
▁882	-15448
▁896	-15449
▁9.0	-15450
▁902	-15451
▁907	-15452
▁915	-15453
▁918	-15454
▁93%	-15455
▁935	-15456
▁946	-15457
▁96,	-15458
▁965	-15459
▁966	-15460
▁971	-15461
▁978	-15462
▁993	-15463
▁?",	-15464
▁AAA	-15465
▁ADO	-15466
▁AEN	-15467
▁AGM	-15468
▁AGS	-15469
▁AIG	-15470
▁AJK	-15471
▁AMP	-15472
▁ARR	-15473
▁ASE	-15474
▁ATA	-15475
▁ATP	-15476
▁Aay	-15477
▁Abu	-15478
▁Ado	-15479
▁Age	-15480
▁Akh	-15481
▁Ank	-15482
▁Arc	-15483
▁Aus	-15484
▁Avo	-15485
▁Aye	-15486
▁BDC	-15487
▁BGM	-15488
▁BHE	-15489
▁BHI	-15490
▁BIA	-15491
▁BJA	-15492
▁BLA	-15493
▁BLW	-15494
▁BMD	-15495
▁BPT	-15496
▁Bai	-15497
▁Big	-15498
▁Bjp	-15499
ppe	-15500
▁HQ	-15501
▁NY	-15502
▁OR	-15503
▁WM	-15504
▁Zi	-15505
▁णघ	-15506
▁णब	-15507
▁णम	-15508
▁(69	-15509
▁-16	-15510
▁10-	-15511
▁2-5	-15512
▁5-3	-15513
▁57,	-15514
▁780	-15515
▁795	-15516
▁BMS	-15517
▁Boe	-15518
▁Bru	-15519
▁CDM	-15520
▁CDO	-15521
▁CEF	-15522
▁CII	-15523
▁CIT	-15524
▁CIV	-15525
▁CJM	-15526
▁CLO	-15527
▁CMA	-15528
▁CMD	-15529
▁CRI	-15530
▁CSR	-15531
▁Cry	-15532
▁DAT	-15533
▁DAV	-15534
▁DIO	-15535
▁DPI	-15536
▁Dog	-15537
▁Don	-15538
▁Dwa	-15539
▁EBC	-15540
▁ECM	-15541
▁ENT	-15542
▁EOI	-15543
▁EPC	-15544
▁EPS	-15545
▁ESP	-15546
▁Eas	-15547
▁Edu	-15548
▁Eri	-15549
▁Eve	-15550
▁FDA	-15551
▁FSB	-15552
▁FSD	-15553
▁FST	-15554
▁FTT	-15555
▁Fut	-15556
▁GLA	-15557
▁GLE	-15558
▁GTR	-15559
▁Gee	-15560
▁Get	-15561
▁Gma	-15562
▁Guj	-15563
▁HMS	-15564
▁HUI	-15565
▁Her	-15566
▁Hit	-15567
▁Hub	-15568
▁Hyp	-15569
▁ICA	-15570
▁ICJ	-15571
▁IES	-15572
▁IGL	-15573
▁IMR	-15574
▁IPX	-15575
▁IST	-15576
▁Ima	-15577
▁Imd	-15578
▁Inj	-15579
▁Iro	-15580
▁JFF	-15581
▁Jal	-15582
▁Jer	-15583
▁Joh	-15584
▁KKC	-15585
▁KSS	-15586
▁Key	-15587
▁Kir	-15588
▁Kmp	-15589
▁Kul	-15590
▁LLC	-15591
▁LLM	-15592
▁LMG	-15593
▁LOP	-15594
▁LPU	-15595
▁LTE	-15596
▁Laa	-15597
▁Lay	-15598
▁Llo	-15599
63	-15600
Fi	-15601
NW	-15602
VN	-15603
▁♑	-15604
SIR	-15605
hta	-15606
upt	-15607
▁'3	-15608
▁Ci	-15609
▁GO	-15610
▁ax	-15611
▁sX	-15612
▁sd	-15613
▁yu	-15614
▁ईत	-15615
▁दथ	-15616
▁पठ	-15617
▁मउ	-15618
▁रढ	-15619
▁वठ	-15620
▁20:	-15621
▁487	-15622
▁542	-15623
▁56%	-15624
▁591	-15625
▁8-3	-15626
▁834	-15627
▁994	-15628
▁ECB	-15629
▁Hur	-15630
▁MAC	-15631
▁MAX	-15632
▁MCX	-15633
▁MDL	-15634
▁MED	-15635
▁MHA	-15636
▁MLR	-15637
▁MPA	-15638
▁MRI	-15639
▁MSC	-15640
▁MSc	-15641
▁MTV	-15642
▁MVR	-15643
▁Mag	-15644
▁Maj	-15645
▁Mam	-15646
▁Met	-15647
▁MiG	-15648
▁Mia	-15649
▁Mil	-15650
▁Mit	-15651
▁Mok	-15652
▁MrB	-15653
▁Mya	-15654
▁NAT	-15655
▁NBC	-15656
▁NBD	-15657
▁NPA	-15658
▁Nau	-15659
▁Nee	-15660
▁OFS	-15661
▁OMC	-15662
▁OMG	-15663
▁ONE	-15664
▁ORS	-15665
▁Opt	-15666
▁PAY	-15667
▁PCT	-15668
▁PDS	-15669
▁PEL	-15670
▁PRI	-15671
▁PSI	-15672
▁PSU	-15673
▁PTM	-15674
▁Pap	-15675
▁Pen	-15676
▁Pok	-15677
▁Pvt	-15678
▁QIB	-15679
▁Que	-15680
▁RAD	-15681
▁RCC	-15682
▁RCF	-15683
▁RCS	-15684
▁RDF	-15685
▁RET	-15686
▁RFI	-15687
▁RML	-15688
▁RRC	-15689
▁RTR	-15690
▁Rap	-15691
▁Rav	-15692
▁ReN	-15693
▁Res	-15694
▁Rid	-15695
▁SAF	-15696
▁SAM	-15697
▁SEZ	-15698
▁SGS	-15699
%)	-15700
QM	-15701
SM	-15702
YM	-15703
aS	-15704
cy	-15705
कछ	-15706
আর	-15707
▁£	-15708
▁ॆ	-15709
▁ঁ	-15710
▁়	-15711
▁ప	-15712
▁శ	-15713
▁♏	-15714
▁♒	-15715
DMA	-15716
भाग	-15717
▁.5	-15718
▁WD	-15719
▁XC	-15720
▁गफ	-15721
▁चड	-15722
▁जभ	-15723
▁यय	-15724
▁रङ	-15725
▁আর	-15726
▁₹9	-15727
▁(%)	-15728
▁(61	-15729
▁12'	-15730
▁17.	-15731
▁20.	-15732
▁747	-15733
▁98,	-15734
▁99,	-15735
▁ATF	-15736
▁BRD	-15737
▁ETF	-15738
▁IBA	-15739
▁Jha	-15740
▁SDF	-15741
▁SHG	-15742
▁SHI	-15743
▁SHM	-15744
▁SIC	-15745
▁SMA	-15746
▁SMO	-15747
▁SPG	-15748
▁SSL	-15749
▁STO	-15750
▁SUP	-15751
▁Sau	-15752
▁See	-15753
▁Seg	-15754
▁Seh	-15755
▁Sex	-15756
▁Sik	-15757
▁Six	-15758
▁Sle	-15759
▁Sto	-15760
▁TAT	-15761
▁TEC	-15762
▁TED	-15763
▁TES	-15764
▁TGV	-15765
▁THC	-15766
▁TMK	-15767
▁TPO	-15768
▁TSE	-15769
▁Tat	-15770
▁Tie	-15771
▁Tig	-15772
▁Tou	-15773
▁Two	-15774
▁UAN	-15775
▁UIT	-15776
▁UKG	-15777
▁URL	-15778
▁USP	-15779
▁Uma	-15780
▁VRS	-15781
▁VVT	-15782
▁Van	-15783
▁WAV	-15784
▁WCR	-15785
▁WTI	-15786
▁Web	-15787
▁Whe	-15788
▁Whi	-15789
▁YRF	-15790
▁Zee	-15791
▁aar	-15792
▁acc	-15793
▁ade	-15794
▁afc	-15795
▁agn	-15796
▁ara	-15797
▁bat	-15798
▁bay	-15799
02	-15800
KM	-15801
Km	-15802
TS	-15803
WX	-15804
jh	-15805
आओ	-15806
ऊँ	-15807
ओए	-15808
नौ	-15809
सौ	-15810
খন	-15811
▁ॠ	-15812
▁ই	-15813
▁ী	-15814
▁♓	-15815
▁🌙	-15816
gam	-15817
▁8°	-15818
▁HL	-15819
▁UW	-15820
▁cl	-15821
▁ठठ	-15822
▁दध	-15823
▁पई	-15824
▁बछ	-15825
▁मघ	-15826
▁वू	-15827
lajh	-15828
▁26'	-15829
▁418	-15830
▁430	-15831
▁607	-15832
▁8-7	-15833
▁9-9	-15834
▁APK	-15835
▁CWA	-15836
▁DMF	-15837
▁God	-15838
▁Jim	-15839
▁MIA	-15840
▁Mei	-15841
▁OYO	-15842
▁RDA	-15843
▁SCR	-15844
▁SRM	-15845
▁TPE	-15846
▁UWW	-15847
▁XEn	-15848
▁baz	-15849
▁box	-15850
▁cla	-15851
▁cup	-15852
▁den	-15853
▁dev	-15854
▁dge	-15855
▁dsp	-15856
▁due	-15857
▁eWX	-15858
▁eat	-15859
▁ech	-15860
▁eci	-15861
▁een	-15862
▁ege	-15863
▁ere	-15864
▁eve	-15865
▁fer	-15866
▁ffi	-15867
▁fut	-15868
▁gam	-15869
▁gat	-15870
▁ger	-15871
▁gha	-15872
▁gun	-15873
▁hes	-15874
▁hou	-15875
▁iga	-15876
▁ija	-15877
▁ila	-15878
▁ili	-15879
▁ipa	-15880
▁ipu	-15881
▁ita	-15882
▁jac	-15883
▁jan	-15884
▁khi	-15885
▁kla	-15886
▁kta	-15887
▁kya	-15888
▁lah	-15889
▁lee	-15890
▁ley	-15891
▁mai	-15892
▁mas	-15893
▁min	-15894
▁mot	-15895
▁myA	-15896
▁nap	-15897
▁niv	-15898
▁nju	-15899
85	-15900
Fa	-15901
उन	-15902
खा	-15903
लक	-15904
सो	-15905
▁ছ	-15906
▁ె	-15907
▁🔵	-15908
ेडि	-15909
▁4°	-15910
▁5/	-15911
▁LX	-15912
▁Pm	-15913
▁गध	-15914
▁जड	-15915
▁वब	-15916
olli	-15917
▁422	-15918
▁433	-15919
▁593	-15920
▁602	-15921
▁72,	-15922
▁807	-15923
▁845	-15924
▁936	-15925
▁BSC	-15926
▁CVT	-15927
▁CWI	-15928
▁Din	-15929
▁GAI	-15930
▁HER	-15931
▁Khi	-15932
▁MTS	-15933
▁Phi	-15934
▁iny	-15935
▁jam	-15936
▁mer	-15937
▁nec	-15938
▁nki	-15939
▁nku	-15940
▁nra	-15941
▁nsh	-15942
▁nvi	-15943
▁nyu	-15944
▁oba	-15945
▁ord	-15946
▁ort	-15947
▁pOL	-15948
▁pap	-15949
▁phe	-15950
▁pol	-15951
▁pot	-15952
▁ppo	-15953
▁rah	-15954
▁rcy	-15955
▁rea	-15956
▁rej	-15957
▁rna	-15958
▁row	-15959
▁rve	-15960
▁saa	-15961
▁sar	-15962
▁sce	-15963
▁ser	-15964
▁sex	-15965
▁sia	-15966
▁sim	-15967
▁sji	-15968
▁sla	-15969
▁spa	-15970
▁spe	-15971
▁ssc	-15972
▁ste	-15973
▁stu	-15974
▁sur	-15975
▁svi	-15976
▁tea	-15977
▁ted	-15978
▁tin	-15979
▁tit	-15980
▁tme	-15981
▁tro	-15982
▁uch	-15983
▁ull	-15984
▁umm	-15985
▁uni	-15986
▁ups	-15987
▁upt	-15988
▁urn	-15989
▁vir	-15990
▁vli	-15991
▁wag	-15992
▁wei	-15993
▁whi	-15994
▁yad	-15995
▁zar	-15996
▁ंट्	-15997
▁ंप्	-15998
▁अखर	-15999
/5	-16000
1,	-16001
29	-16002
31	-16003
60	-16004
AG	-16005
FM	-16006
VE	-16007
hs	-16008
pl	-16009
xi	-16010
zy	-16011
गट	-16012
टू	-16013
भय	-16014
यश	-16015
यस	-16016
లన	-16017
▁ూ	-16018
▁♐	-16019
☀️	-16020
act	-16021
▁-4	-16022
▁-8	-16023
▁GA	-16024
▁GX	-16025
▁अा	-16026
▁औड	-16027
▁तझ	-16028
▁☀️	-16029
▁000	-16030
▁13:	-16031
▁30'	-16032
▁49,	-16033
▁CCI	-16034
▁Fra	-16035
▁GoM	-16036
▁Gur	-16037
▁IFA	-16038
▁KMC	-16039
▁LUR	-16040
▁Leg	-16041
▁TSI	-16042
▁UDF	-16043
▁ale	-16044
▁ene	-16045
▁far	-16046
▁iim	-16047
▁ism	-16048
▁jee	-16049
▁law	-16050
▁nei	-16051
▁net	-16052
▁ngi	-16053
▁rhi	-16054
▁sci	-16055
▁tta	-16056
▁अटी	-16057
▁अनय	-16058
▁अमी	-16059
▁अरज	-16060
▁आगत	-16061
▁आपी	-16062
▁आबे	-16063
▁आमज	-16064
▁आयू	-16065
▁आलय	-16066
▁आवन	-16067
▁आवर	-16068
▁आसप	-16069
▁इगो	-16070
▁इज़	-16071
▁इदं	-16072
▁इशु	-16073
▁ईएफ	-16074
▁ईजी	-16075
▁ईदी	-16076
▁ईफत	-16077
▁ईबी	-16078
▁ईरा	-16079
▁ईशू	-16080
▁उझा	-16081
▁उदर	-16082
▁उमं	-16083
▁ऊदा	-16084
▁ऊबर	-16085
▁ऊसर	-16086
▁ऋजु	-16087
▁एओए	-16088
▁एगर	-16089
▁एटी	-16090
▁एटो	-16091
▁एमल	-16092
▁एम०	-16093
▁एवी	-16094
▁ऐके	-16095
▁ऐनी	-16096
▁ऐमा	-16097
▁ओएन	-16098
▁ओछा	-16099
),	-16100
-4	-16101
05	-16102
06	-16103
77	-16104
LO	-16105
NC	-16106
TV	-16107
kW	-16108
tr	-16109
xe	-16110
रब	-16111
हो	-16112
▁డ	-16113
▁$8	-16114
▁JT	-16115
▁MX	-16116
▁iX	-16117
▁उक	-16118
▁ऑड	-16119
▁जए	-16120
▁ढो	-16121
▁शस	-16122
▁सध	-16123
▁₹7	-16124
lima	-16125
▁"30	-16126
▁-11	-16127
▁-60	-16128
▁699	-16129
▁72%	-16130
▁79,	-16131
▁894	-16132
▁ABP	-16133
▁ASL	-16134
▁AWD	-16135
▁GIS	-16136
▁Joe	-16137
▁Kun	-16138
▁Low	-16139
▁OME	-16140
▁PHD	-16141
▁POS	-16142
▁Sli	-16143
▁aft	-16144
▁but	-16145
▁cto	-16146
▁glo	-16147
▁nto	-16148
▁rni	-16149
▁ंको	-16150
▁आहर	-16151
▁ओछे	-16152
▁ओझल	-16153
▁ओटो	-16154
▁ओपो	-16155
▁ओमी	-16156
▁ओम्	-16157
▁ओरम	-16158
▁ओरा	-16159
▁ओवन	-16160
▁ओसत	-16161
▁औऱ्	-16162
▁कक्	-16163
▁कडी	-16164
▁कडे	-16165
▁कणम	-16166
▁कदा	-16167
▁कनन	-16168
▁कबध	-16169
▁करै	-16170
▁कले	-16171
▁कहँ	-16172
▁कहं	-16173
▁की‍	-16174
▁केा	-16175
▁कैं	-16176
▁कैर	-16177
▁खडग	-16178
▁खनि	-16179
▁खूह	-16180
▁गंप	-16181
▁गटक	-16182
▁गरई	-16183
▁गाह	-16184
▁गैल	-16185
▁गॉट	-16186
▁गॉव	-16187
▁घणी	-16188
▁घयल	-16189
▁घृत	-16190
▁घोट	-16191
▁चलु	-16192
▁चेट	-16193
▁चैस	-16194
▁चॉक	-16195
▁चोल	-16196
▁छना	-16197
▁छाव	-16198
▁छील	-16199
-9	-16200
Hi	-16201
LU	-16202
ौद	-16203
⁄2	-16204
jad	-16205
zar	-16206
▁GG	-16207
▁KT	-16208
▁WB	-16209
▁eg	-16210
▁ux	-16211
▁इब	-16212
▁ईठ	-16213
▁एत	-16214
▁एह	-16215
▁ओत	-16216
▁गब	-16217
▁चग	-16218
▁चह	-16219
▁तत	-16220
▁यः	-16221
▁शथ	-16222
▁(05	-16223
▁1⁄2	-16224
▁281	-16225
▁453	-16226
▁513	-16227
▁681	-16228
▁687	-16229
▁796	-16230
▁851	-16231
▁924	-16232
▁AGE	-16233
▁API	-16234
▁ARQ	-16235
▁BSO	-16236
▁ECG	-16237
▁Gho	-16238
▁MCC	-16239
▁MOS	-16240
▁MPC	-16241
▁NED	-16242
▁PDI	-16243
▁UDH	-16244
▁Voc	-16245
▁ema	-16246
▁irl	-16247
▁kti	-16248
▁onn	-16249
▁sup	-16250
▁अज्	-16251
▁एएल	-16252
▁एला	-16253
▁ओखा	-16254
▁करथ	-16255
▁काक	-16256
▁कोक	-16257
▁खौल	-16258
▁छिल	-16259
▁जबल	-16260
▁जयम	-16261
▁जलई	-16262
▁ज़ी	-16263
▁जाच	-16264
▁जुग	-16265
▁जैज	-16266
▁जैब	-16267
▁जोई	-16268
▁जोक	-16269
▁जोल	-16270
▁झनन	-16271
▁झमक	-16272
▁झमन	-16273
▁झोक	-16274
▁टकट	-16275
▁टके	-16276
▁टरज	-16277
▁टशन	-16278
▁टसल	-16279
▁टिं	-16280
▁टॉच	-16281
▁टोप	-16282
▁ठनक	-16283
▁डसर	-16284
▁डाग	-16285
▁डाट	-16286
▁डीस	-16287
▁डेन	-16288
▁ढकी	-16289
▁ढपई	-16290
▁ढ़ड	-16291
▁ढ़स	-16292
▁ढाय	-16293
▁णगर	-16294
▁णना	-16295
▁तखत	-16296
▁तलक	-16297
▁तलत	-16298
▁तवत	-16299
LM	-16300
ms	-16301
ze	-16302
़ा	-16303
▁1?	-16304
▁2।	-16305
▁Ik	-16306
▁NL	-16307
▁RX	-16308
▁Zu	-16309
▁ea	-16310
▁fo	-16311
▁औा	-16312
▁कए	-16313
▁खज	-16314
▁खफ	-16315
▁छर	-16316
▁नछ	-16317
▁ुछ	-16318
▁502	-16319
▁741	-16320
▁777	-16321
▁892	-16322
▁95,	-16323
▁AIU	-16324
▁ATC	-16325
▁Cam	-16326
▁MCL	-16327
▁MGN	-16328
▁MLD	-16329
▁Nai	-16330
▁SSN	-16331
▁USG	-16332
▁bur	-16333
▁eVX	-16334
▁lac	-16335
▁not	-16336
▁ong	-16337
▁ped	-16338
▁pup	-16339
▁ude	-16340
▁vat	-16341
▁ंवि	-16342
▁अकल	-16343
▁आके	-16344
▁उता	-16345
▁एभी	-16346
▁एमा	-16347
▁औने	-16348
▁कीे	-16349
▁जरक	-16350
▁जीण	-16351
▁डला	-16352
▁ड़ज	-16353
▁डेस	-16354
▁तूर	-16355
▁तेन	-16356
▁तैल	-16357
▁त्क	-16358
▁थाल	-16359
▁थाह	-16360
▁दकर	-16361
▁दमक	-16362
▁दरक	-16363
▁दाउ	-16364
▁दुक	-16365
▁दृग	-16366
▁देम	-16367
▁धरण	-16368
▁धसक	-16369
▁धास	-16370
▁धुप	-16371
▁धोल	-16372
▁नं०	-16373
▁नक़	-16374
▁नझन	-16375
▁नवत	-16376
▁नवस	-16377
▁नहन	-16378
▁नहस	-16379
▁नीव	-16380
▁नुर	-16381
▁नूं	-16382
▁नेड	-16383
▁नैण	-16384
▁नोन	-16385
▁पईन	-16386
▁पऊआ	-16387
▁पदर	-16388
▁पनी	-16389
▁परो	-16390
▁पलर	-16391
▁पुआ	-16392
▁पुट	-16393
▁फँस	-16394
▁फईम	-16395
▁फट्	-16396
▁फणी	-16397
▁फरह	-16398
▁फलो	-16399
कब	-16400
ौस	-16401
▁4"	-16402
▁Id	-16403
▁ईथ	-16404
▁गइ	-16405
▁णग	-16406
▁शज	-16407
▁458	-16408
▁595	-16409
▁646	-16410
▁691	-16411
▁714	-16412
▁733	-16413
▁797	-16414
▁811	-16415
▁97,	-16416
▁ACM	-16417
▁CUP	-16418
▁DPO	-16419
▁EDL	-16420
▁GWh	-16421
▁HRA	-16422
▁Lee	-16423
▁MSG	-16424
▁Mou	-16425
▁PRV	-16426
▁PSS	-16427
▁Pow	-16428
▁UDA	-16429
▁ari	-16430
▁eco	-16431
▁gri	-16432
▁hro	-16433
▁lar	-16434
▁lea	-16435
▁tpu	-16436
▁अनी	-16437
▁अौर	-16438
▁इका	-16439
▁एएफ	-16440
▁कपम	-16441
▁कुए	-16442
▁कोथ	-16443
▁खरई	-16444
▁खीच	-16445
▁गवन	-16446
▁चां	-16447
▁छंद	-16448
▁डिम	-16449
▁णघस	-16450
▁तवर	-16451
▁ताछ	-16452
▁धता	-16453
▁धना	-16454
▁धर्	-16455
▁धौस	-16456
▁नजद	-16457
▁पहच	-16458
▁फहद	-16459
▁फाल	-16460
▁फीब	-16461
▁बंड	-16462
▁बजह	-16463
▁बजी	-16464
▁बसो	-16465
▁बहत	-16466
▁बुथ	-16467
▁बून	-16468
▁बैध	-16469
▁बॉड	-16470
▁भकत	-16471
▁भड़	-16472
▁भयो	-16473
▁भवर	-16474
▁भीं	-16475
▁भुई	-16476
▁भोआ	-16477
▁मंझ	-16478
▁मझा	-16479
▁मडी	-16480
▁मतर	-16481
▁मदई	-16482
▁मधू	-16483
▁मपु	-16484
▁मरो	-16485
▁मवर	-16486
▁महट	-16487
▁मिग	-16488
▁मृग	-16489
▁मैड	-16490
▁मॉप	-16491
▁मोई	-16492
▁यकल	-16493
▁यडन	-16494
▁यथन	-16495
▁यवर	-16496
▁यशा	-16497
▁यशी	-16498
▁यूई	-16499
um	-16500
art	-16501
▁6'	-16502
▁6)	-16503
▁ET	-16504
▁RY	-16505
▁Wu	-16506
▁kv	-16507
▁29%	-16508
▁3-7	-16509
▁539	-16510
▁791	-16511
▁Ano	-16512
▁BHK	-16513
▁CDR	-16514
▁Peo	-16515
▁SCP	-16516
▁TGM	-16517
▁VST	-16518
▁has	-16519
▁ruv	-16520
▁set	-16521
▁अनम	-16522
▁अरी	-16523
▁आले	-16524
▁इमा	-16525
▁उगर	-16526
▁छका	-16527
▁जपी	-16528
▁झलप	-16529
▁दंभ	-16530
▁धनि	-16531
▁नज़	-16532
▁नाज	-16533
▁पीत	-16534
▁पोट	-16535
▁बी०	-16536
▁महर	-16537
▁यूए	-16538
▁यॉट	-16539
▁रंक	-16540
▁रकन	-16541
▁रकस	-16542
▁रक़	-16543
▁रखन	-16544
▁रझन	-16545
▁रणु	-16546
▁रतव	-16547
▁रपं	-16548
▁रपल	-16549
▁रपी	-16550
▁रमट	-16551
▁रमथ	-16552
▁रमो	-16553
▁रवड	-16554
▁रसत	-16555
▁रहण	-16556
▁रिन	-16557
▁रिव	-16558
▁रूड	-16559
▁रू०	-16560
▁रैश	-16561
▁रोई	-16562
▁रोए	-16563
▁रोच	-16564
▁लईक	-16565
▁लको	-16566
▁लगत	-16567
▁लतर	-16568
▁लधन	-16569
▁लपट	-16570
▁लपर	-16571
▁लेई	-16572
▁लैश	-16573
▁वंड	-16574
▁वकर	-16575
▁वगत	-16576
▁वफा	-16577
▁वाश	-16578
▁वैर	-16579
▁वैस	-16580
▁वॉग	-16581
▁वोक	-16582
▁वोग	-16583
▁शमर	-16584
▁शरई	-16585
▁शरथ	-16586
▁शरू	-16587
▁शवो	-16588
▁शात	-16589
▁शिल	-16590
▁षिण	-16591
▁षेक	-16592
▁सकट	-16593
▁सखा	-16594
▁सजन	-16595
▁सतन	-16596
▁सति	-16597
▁सधे	-16598
▁सनन	-16599
▁सलर	-16600
▁सहस	-16601
▁सा०	-16602
▁सिउ	-16603
▁सीत	-16604
▁सीस	-16605
▁सुआ	-16606
▁सुक	-16607
▁सूज	-16608
▁सेद	-16609
▁सैड	-16610
▁सैश	-16611
▁सॉस	-16612
▁सोक	-16613
▁सोय	-16614
▁हरक	-16615
▁हरन	-16616
▁हाप	-16617
▁हिज	-16618
▁हुऐ	-16619
▁हेर	-16620
▁हैै	-16621
▁होई	-16622
▁होक	-16623
▁होज	-16624
▁होठ	-16625
▁ादस	-16626
▁ाहत	-16627
▁िखे	-16628
▁िधा	-16629
▁िशे	-16630
▁ुंच	-16631
▁ुबह	-16632
▁ूरो	-16633
▁ृतक	-16634
▁ैंन	-16635
▁्ट्	-16636
▁्डर	-16637
▁्तो	-16638
▁्द्	-16639
▁्मन	-16640
▁।""	-16641
▁॥9॥	-16642
▁కలన	-16643
▁₹16	-16644
▁₹30	-16645
▁₹55	-16646
▁ACME	-16647
▁ADGC	-16648
▁AGTF	-16649
▁AJSU	-16650
▁AMMA	-16651
▁ARPU	-16652
▁ATGM	-16653
▁Aayu	-16654
▁Abro	-16655
▁Acce	-16656
▁Adah	-16657
▁Aero	-16658
▁Agar	-16659
▁Ahme	-16660
▁Airc	-16661
▁Airl	-16662
▁Alam	-16663
▁Alca	-16664
▁Allo	-16665
▁Alto	-16666
▁Ambe	-16667
▁Amee	-16668
▁Anti	-16669
▁Apar	-16670
▁Argh	-16671
▁Arha	-16672
▁Arya	-16673
▁Ashi	-16674
▁Asho	-16675
▁Atte	-16676
▁Atul	-16677
▁BARC	-16678
▁BBMF	-16679
▁BDPO	-16680
▁BGMI	-16681
▁BJYM	-16682
▁BPTP	-16683
▁BTMU	-16684
▁Babu	-16685
▁Bado	-16686
▁Bahu	-16687
▁Bano	-16688
▁Base	-16689
▁Baza	-16690
▁Beat	-16691
▁Beau	-16692
▁Bell	-16693
▁Beti	-16694
▁Bhav	-16695
▁Bibi	-16696
▁Bind	-16697
▁Bose	-16698
▁Brid	-16699
▁Buch	-16700
▁Bull	-16701
▁Bush	-16702
▁CBEO	-16703
▁CCSI	-16704
▁CDSL	-16705
▁CEAT	-16706
▁CEIR	-16707
▁CIRB	-16708
▁CLAT	-16709
▁CLSA	-16710
▁COAI	-16711
▁CPEC	-16712
▁CPRO	-16713
▁CRMC	-16714
▁CSDS	-16715
▁CSEB	-16716
▁CSIR	-16717
▁CTET	-16718
▁Came	-16719
▁Cash	-16720
▁Chah	-16721
▁Chir	-16722
▁Chou	-16723
▁Coac	-16724
▁Cold	-16725
▁Colo	-16726
▁Covi	-16727
▁DEEO	-16728
▁DIOS	-16729
▁DOGE	-16730
▁DPRO	-16731
▁DRCC	-16732
▁DWAC	-16733
▁DYSP	-16734
▁Daha	-16735
▁Dali	-16736
▁Dati	-16737
▁Debt	-16738
▁Deci	-16739
▁Deco	-16740
▁Deor	-16741
▁Dest	-16742
▁Devi	-16743
▁Dham	-16744
▁Dhar	-16745
▁Dire	-16746
▁Disa	-16747
▁Doda	-16748
▁Drea	-16749
▁Drip	-16750
▁Drop	-16751
▁Dust	-16752
▁ECIR	-16753
▁ESIC	-16754
▁Elep	-16755
▁Erdo	-16756
▁Euro	-16757
▁Ever	-16758
▁FCPA	-16759
▁FIIT	-16760
▁FTII	-16761
▁FTTH	-16762
▁Falg	-16763
▁Fame	-16764
▁Faro	-16765
▁Feat	-16766
▁Fell	-16767
▁File	-16768
▁Fitr	-16769
▁Four	-16770
▁Fusi	-16771
▁GRSE	-16772
▁Gain	-16773
▁Gare	-16774
▁Gaza	-16775
▁Gene	-16776
▁Gill	-16777
▁Glow	-16778
▁Gova	-16779
▁Grab	-16780
▁Guer	-16781
▁Guna	-16782
▁HIBO	-16783
▁HTET	-16784
▁HUID	-16785
▁Hect	-16786
▁Hera	-16787
▁Hina	-16788
▁Hizb	-16789
▁Hola	-16790
▁Hone	-16791
▁Hugh	-16792
▁Hyda	-16793
▁ICCC	-16794
▁IPHS	-16795
▁Immi	-16796
▁Impo	-16797
▁Imti	-16798
▁Inci	-16799
▁Inde	-16800
▁Iyer	-16801
▁JFSL	-16802
▁Jain	-16803
▁Jewe	-16804
▁Jite	-16805
▁Jivi	-16806
▁Jodh	-16807
▁John	-16808
▁Jona	-16809
▁Jung	-16810
▁KPKB	-16811
▁Kaal	-16812
▁Kang	-16813
▁Karo	-16814
▁Kaun	-16815
▁Keir	-16816
▁Kesh	-16817
▁Khlo	-16818
▁Khur	-16819
▁Kill	-16820
▁LNMU	-16821
▁LURN	-16822
▁Lada	-16823
▁Ladi	-16824
▁Lali	-16825
▁Lege	-16826
▁Lemo	-16827
▁Leno	-16828
▁Lice	-16829
▁Link	-16830
▁MMDR	-16831
▁MPCA	-16832
▁Magh	-16833
▁Maho	-16834
▁Make	-16835
▁Maps	-16836
▁Marc	-16837
▁Maya	-16838
▁Meer	-16839
▁Mela	-16840
▁Melo	-16841
▁Mesh	-16842
▁Mira	-16843
▁Mish	-16844
▁Mode	-16845
▁Mosc	-16846
▁Moti	-16847
▁MrBe	-16848
▁NCRB	-16849
▁NFSA	-16850
▁NHPC	-16851
▁NIFT	-16852
▁NMDC	-16853
▁NRMU	-16854
▁Nair	-16855
▁Nara	-16856
▁Nari	-16857
▁Neem	-16858
▁Neer	-16859
▁Nest	-16860
▁Neta	-16861
▁Next	-16862
▁Nita	-16863
▁Nost	-16864
▁Noti	-16865
▁Ntor	-16866
▁OCHA	-16867
▁OPPO	-16868
▁Octa	-16869
▁Orry	-16870
▁PRDF	-16871
▁PSEB	-16872
▁Padi	-16873
▁Pale	-16874
▁Pani	-16875
▁Pano	-16876
▁Part	-16877
▁Parv	-16878
▁Pass	-16879
▁Pati	-16880
▁Peri	-16881
▁Phal	-16882
▁Phar	-16883
▁Pilo	-16884
▁Pods	-16885
▁Pram	-16886
▁Prem	-16887
▁Proj	-16888
▁Puri	-16889
▁Purp	-16890
▁Quad	-16891
▁Qure	-16892
▁REGA	-16893
▁REIT	-16894
▁RGPV	-16895
▁ROSE	-16896
▁RRTS	-16897
▁RUHS	-16898
▁RVNL	-16899
▁Ragh	-16900
▁Ragi	-16901
▁Ratn	-16902
▁Raza	-16903
▁Remo	-16904
▁Reno	-16905
▁Retd	-16906
▁Rete	-16907
▁Reve	-16908
▁Runs	-16909
▁Rupe	-16910
▁Russ	-16911
▁SAAR	-16912
▁SDGM	-16913
▁SGFI	-16914
▁SHAR	-16915
▁SIAM	-16916
▁SLCM	-16917
▁SLRM	-16918
▁SMAT	-16919
▁SNCU	-16920
▁SOSA	-16921
▁SSOC	-16922
▁STSS	-16923
▁SaaS	-16924
▁Sach	-16925
▁Sadh	-16926
▁Safa	-16927
▁Sage	-16928
▁Sahi	-16929
▁Same	-16930
▁Sati	-16931
▁Says	-16932
▁Sebi	-16933
▁Sher	-16934
▁Shim	-16935
▁Ship	-16936
▁Shwe	-16937
▁Sign	-16938
▁Sikh	-16939
▁Sikk	-16940
▁Sile	-16941
▁Soci	-16942
▁Sock	-16943
▁Sone	-16944
▁Soni	-16945
▁Spea	-16946
▁Stal	-16947
▁Stok	-16948
▁Subh	-16949
▁Suri	-16950
▁Susp	-16951
▁TECT	-16952
▁TFSI	-16953
▁TRAI	-16954
▁Taja	-16955
▁Task	-16956
▁Tayl	-16957
▁Taza	-16958
▁Teja	-16959
▁Tele	-16960
▁Teri	-16961
▁Term	-16962
▁Text	-16963
▁Tiwa	-16964
▁Toll	-16965
▁Toma	-16966
▁Toss	-16967
▁Tray	-16968
▁Tula	-16969
▁UEFA	-16970
▁UMIS	-16971
▁UPCA	-16972
▁User	-16973
▁Usha	-16974
▁Utsa	-16975
▁VSHO	-16976
▁Vaca	-16977
▁Vall	-16978
▁Veno	-16979
▁Venu	-16980
▁Vida	-16981
▁View	-16982
▁Vire	-16983
▁Vita	-16984
▁WION	-16985
▁WYLD	-16986
▁Wait	-16987
▁Ward	-16988
▁Wata	-16989
▁When	-16990
▁WiFi	-16991
▁Wiki	-16992
▁Wild	-16993
▁Wolf	-16994
▁Wolv	-16995
▁Xoom	-16996
▁Yami	-16997
▁Zeno	-16998
▁Zika	-16999
▁Zoma	-17000
▁affa	-17001
▁also	-17002
▁anno	-17003
▁appe	-17004
▁army	-17005
▁ayod	-17006
▁base	-17007
▁beam	-17008
▁beco	-17009
▁beni	-17010
▁berc	-17011
▁bike	-17012
▁boil	-17013
▁book	-17014
▁bord	-17015
▁bull	-17016
▁camp	-17017
▁care	-17018
▁cbse	-17019
▁cent	-17020
▁cere	-17021
▁chip	-17022
▁cisf	-17023
▁citi	-17024
▁coac	-17025
▁comm	-17026
▁crim	-17027
▁dead	-17028
▁deci	-17029
▁disa	-17030
▁disp	-17031
▁draw	-17032
▁drdo	-17033
▁exte	-17034
▁fact	-17035
▁fema	-17036
▁figh	-17037
▁fore	-17038
▁full	-17039
▁gand	-17040
▁gave	-17041
▁ghat	-17042
▁graj	-17043
▁hare	-17044
▁hary	-17045
▁havo	-17046
▁hede	-17047
▁heli	-17048
▁htar	-17049
▁inci	-17050
▁inve	-17051
▁issu	-17052
▁jail	-17053
▁jind	-17054
▁kmpl	-17055
▁kuwa	-17056
▁laws	-17057
▁leak	-17058
▁lift	-17059
▁ligh	-17060
▁like	-17061
▁line	-17062
▁liqu	-17063
▁llji	-17064
▁long	-17065
▁lost	-17066
▁love	-17067
▁madh	-17068
▁mahi	-17069
▁manu	-17070
▁mmad	-17071
▁modi	-17072
▁more	-17073
▁myAa	-17074
▁nbad	-17075
▁nchi	-17076
▁nigh	-17077
▁njiv	-17078
▁njur	-17079
▁nmar	-17080
▁nyay	-17081
▁pama	-17082
▁part	-17083
▁paym	-17084
▁pink	-17085
▁plan	-17086
▁port	-17087
▁post	-17088
▁pped	-17089
▁pran	-17090
▁proj	-17091
▁puri	-17092
▁rahu	-17093
▁rais	-17094
▁rbud	-17095
▁read	-17096
▁rece	-17097
▁regi	-17098
▁rich	-17099
▁rime	-17100
▁rukh	-17101
▁sale	-17102
▁sanc	-17103
▁seco	-17104
▁sect	-17105
▁shar	-17106
▁shif	-17107
▁shwi	-17108
▁side	-17109
▁simu	-17110
▁skym	-17111
▁smri	-17112
▁snow	-17113
▁soci	-17114
▁stay	-17115
▁stha	-17116
▁stia	-17117
▁stic	-17118
▁stma	-17119
▁stro	-17120
▁trag	-17121
▁tran	-17122
▁trud	-17123
▁ttee	-17124
▁uber	-17125
▁unce	-17126
▁veer	-17127
▁visi	-17128
▁vivo	-17129
▁vrat	-17130
▁wala	-17131
▁ward	-17132
▁wati	-17133
▁well	-17134
▁year	-17135
▁zero	-17136
▁आज़म	-17137
▁उजड़	-17138
▁उड़ी	-17139
▁एजें	-17140
▁एड़ी	-17141
▁ऑफ़र	-17142
▁कड़क	-17143
▁करेग	-17144
▁कलसर	-17145
▁कलेक	-17146
▁कामन	-17147
▁खड़क	-17148
▁ख़ाक	-17149
▁खोड़	-17150
▁गड़े	-17151
▁गढ़े	-17152
▁ग्ला	-17153
▁घड़े	-17154
▁छड़ी	-17155
▁जगार	-17156
▁ज़रा	-17157
▁ज़ोन	-17158
▁झड़ी	-17159
▁ढ़ाव	-17160
▁दलकछ	-17161
▁दित्	-17162
▁दृढ़	-17163
▁दोपह	-17164
▁नथड़	-17165
▁नाज़	-17166
▁पहचा	-17167
▁प्ला	-17168
▁फ़तह	-17169
▁फ़ौज	-17170
▁बफ़र	-17171
▁बुजु	-17172
▁भूड़	-17173
▁मुड़	-17174
▁यक्त	-17175
▁यरमल	-17176
▁रकाश	-17177
▁रगड़	-17178
▁रतरग	-17179
▁रफ़ी	-17180
▁रवाज	-17181
▁रसड़	-17182
▁रावट	-17183
▁रासत	-17184
▁रीके	-17185
▁रेंद	-17186
▁लतहर	-17187
▁लमान	-17188
▁लोड़	-17189
▁वज़न	-17190
▁शियो	-17191
▁संदी	-17192
▁सज़ा	-17193
▁सडक़	-17194
▁सड़ी	-17195
▁समाध	-17196
▁समार	-17197
▁सुवि	-17198
▁हेगा	-17199
▁ानिए	-17200
▁ालां	-17201
▁िभाग	-17202
▁िलें	-17203
▁िव्य	-17204
▁िशाल	-17205
▁िश्र	-17206
▁िषेक	-17207
▁िसकर	-17208
▁ुंबई	-17209
▁ुत्र	-17210
▁ुनवा	-17211
▁ूसरा	-17212
▁ेलवे	-17213
▁ोतवा	-17214
▁्ताह	-17215
▁्राण	-17216
▁्लान	-17217
▁्वाद	-17218
▁्सिट	-17219
▁ADITI	-17220
▁Abram	-17221
▁Amend	-17222
▁Amjad	-17223
▁Appli	-17224
▁Astro	-17225
▁Badla	-17226
▁Bajra	-17227
▁Barco	-17228
▁Barei	-17229
▁Benja	-17230
▁Bitco	-17231
▁Brain	-17232
▁Bujji	-17233
▁Capri	-17234
▁Centr	-17235
▁Chaba	-17236
▁Chaud	-17237
▁Chill	-17238
▁Chine	-17239
▁Clean	-17240
▁Comme	-17241
▁Crowd	-17242
▁Darsh	-17243
▁Debba	-17244
▁Debut	-17245
▁Demat	-17246
▁Devdu	-17247
▁Dimri	-17248
▁Disha	-17249
▁Disne	-17250
▁Dolby	-17251
▁Drivi	-17252
▁Early	-17253
▁Easwa	-17254
▁Ebrah	-17255
▁Email	-17256
▁Exclu	-17257
▁Exter	-17258
▁FICCI	-17259
▁FWICE	-17260
▁Fahad	-17261
▁Fashi	-17262
▁Fawad	-17263
▁Ferna	-17264
▁Forbe	-17265
▁Forei	-17266
▁Fraud	-17267
▁Freed	-17268
▁Gadar	-17269
▁Gowda	-17270
▁Grand	-17271
▁Haldi	-17272
▁Hansa	-17273
▁Harda	-17274
▁Hezbo	-17275
▁Horro	-17276
▁Hospi	-17277
▁Hurri	-17278
▁Husba	-17279
▁IRDAI	-17280
▁Imsha	-17281
▁Jacqu	-17282
▁Jagde	-17283
▁Jahan	-17284
▁Jihad	-17285
▁KaiOS	-17286
▁Kaisa	-17287
▁Khera	-17288
▁Laapa	-17289
▁Laund	-17290
▁Laxmi	-17291
▁Lyric	-17292
▁Madra	-17293
▁Mahta	-17294
▁Mamta	-17295
▁Mandi	-17296
▁Marle	-17297
▁Meena	-17298
▁Mehbo	-17299
▁Mehra	-17300
▁Messa	-17301
▁Mista	-17302
▁Nadav	-17303
▁Nahay	-17304
▁Narma	-17305
▁Navya	-17306
▁Naxal	-17307
▁Nayak	-17308
▁Nigam	-17309
▁Nikhi	-17310
▁Oscar	-17311
▁PGIMS	-17312
▁Panna	-17313
▁Param	-17314
▁Paswa	-17315
▁Paush	-17316
▁Perfo	-17317
▁Perso	-17318
▁Polli	-17319
▁Prash	-17320
▁Praya	-17321
▁Premi	-17322
▁Previ	-17323
▁Prici	-17324
▁Priva	-17325
▁Rafah	-17326
▁Raisi	-17327
▁Range	-17328
▁Ratha	-17329
▁Rawal	-17330
▁React	-17331
▁Rehma	-17332
▁Rover	-17333
▁Rufus	-17334
▁Saeed	-17335
▁Saina	-17336
▁Saira	-17337
▁Samaj	-17338
▁Samma	-17339
▁Saraf	-17340
▁Sarma	-17341
▁Scind	-17342
▁Sequo	-17343
▁Setba	-17344
▁Sewer	-17345
▁Shank	-17346
▁Shark	-17347
▁Sibal	-17348
▁Sidha	-17349
▁Sidhi	-17350
▁Sidhu	-17351
▁Signi	-17352
▁Sixes	-17353
▁Smita	-17354
▁Sonam	-17355
▁Sonbh	-17356
▁Sover	-17357
▁Spice	-17358
▁Spoti	-17359
▁Starl	-17360
▁Starm	-17361
▁Stick	-17362
▁Sudha	-17363
▁Sukra	-17364
▁Sunro	-17365
▁Sussa	-17366
▁Swear	-17367
▁Sweet	-17368
▁Tahri	-17369
▁Tayca	-17370
▁Temer	-17371
▁TikTo	-17372
▁Trick	-17373
▁Truck	-17374
▁Trust	-17375
▁Tweet	-17376
▁UNFPA	-17377
▁UPPCL	-17378
▁Ulajh	-17379
▁Upasa	-17380
▁Uthup	-17381
▁VASTU	-17382
▁Vaish	-17383
▁Vidha	-17384
▁VinFa	-17385
▁Vinod	-17386
▁WORLD	-17387
▁Walma	-17388
▁Waree	-17389
▁Warne	-17390
▁Welco	-17391
▁Winne	-17392
▁Woman	-17393
▁Yasha	-17394
▁allia	-17395
▁amava	-17396
▁apply	-17397
▁borgh	-17398
▁build	-17399
[...]
