<unk>	0
<s>	0
</s>	0
▁क	-0
▁स	-1
▁म	-2
▁प	-3
▁ह	-4
▁र	-5
▁न	-6
▁ा	-7
▁ब	-8
ें	-9
▁के	-10
▁ज	-11
▁ल	-12
▁द	-13
▁व	-14
ार	-15
्र	-16
या	-17
▁में	-18
▁है	-19
▁ग	-20
▁त	-21
▁अ	-22
▁ी	-23
▁की	-24
ों	-25
▁ि	-26
▁।	-27
▁को	-28
ने	-29
▁कर	-30
▁ने	-31
▁भ	-32
▁से	-33
▁आ	-34
▁श	-35
▁,	-36
▁कि	-37
▁का	-38
र्	-39
▁इ	-40
▁े	-41
ान	-42
▁उ	-43
▁च	-44
▁ए	-45
▁य	-46
▁थ	-47
▁पर	-48
्य	-49
ाल	-50
▁औ	-51
▁और	-52
ता	-53
▁ट	-54
िल	-55
ड़	-56
ना	-57
▁ों	-58
▁ं	-59
क्	-60
▁इस	-61
▁रा	-62
▁फ	-63
ही	-64
▁जा	-65
हा	-66
▁स्	-67
▁हो	-68
▁प्र	-69
▁ख	-70
▁ड	-71
▁सा	-72
▁लि	-73
▁बा	-74
▁2	-75
▁ो	-76
▁वि	-77
▁्	-78
▁हैं	-79
▁दि	-80
ंग	-81
के	-82
स्	-83
▁भी	-84
▁1	-85
▁्र	-86
वा	-87
▁-	-88
त्र	-89
िक	-90
▁पु	-91
▁दे	-92
ित	-93
ाम	-94
ले	-95
िस	-96
▁उन	-97
हीं	-98
▁हु	-99
कर	-100
▁ें	-101
▁किया	-102
▁ु	-103
▁ले	-104
ला	-105
ते	-106
▁0	-107
▁घ	-108
▁लिए	-109
▁एक	-110
▁क्	-111
▁नि	-112
▁ध	-113
▁था	-114
▁कार	-115
▁गया	-116
▁पह	-117
री	-118
ति	-119
▁रह	-120
▁नहीं	-121
क्ष	-122
से	-123
▁सं	-124
रा	-125
ोग	-126
गा	-127
ेश	-128
▁सि	-129
▁रि	-130
का	-131
नी	-132
ारी	-133
ंद	-134
▁कु	-135
▁र्	-136
▁बाद	-137
ती	-138
▁ही	-139
ां	-140
▁अप	-141
▁मु	-142
त्	-143
ुर	-144
▁.	-145
्ह	-146
▁सम	-147
▁साथ	-148
▁ू	-149
िला	-150
ंच	-151
▁ओ	-152
▁पुल	-153
▁ला	-154
▁वा	-155
▁सु	-156
▁राज	-157
▁पुलिस	-158
▁सी	-159
▁कहा	-160
▁गई	-161
▁बता	-162
▁पू	-163
▁िय	-164
▁या	-165
वार	-166
▁वाल	-167
▁3	-168
▁करने	-169
कि	-170
▁छ	-171
्म	-172
िर	-173
ढ़	-174
ंड	-175
▁उन्ह	-176
▁ाल	-177
▁रे	-178
▁दो	-179
▁उस	-180
▁थी	-181
▁तो	-182
▁रहे	-183
▁4	-184
की	-185
▁दिया	-186
िय	-187
▁लोग	-188
▁मा	-189
▁5	-190
▁ता	-191
▁दी	-192
▁पा	-193
र्ट	-194
्या	-195
▁तक	-196
ौर	-197
सी	-198
रो	-199
▁भा	-200
▁रहा	-201
▁बताया	-202
▁ना	-203
▁िक	-204
▁चु	-205
ाय	-206
▁्य	-207
▁यह	-208
▁हुए	-209
गी	-210
ष्	-211
▁ार	-212
भी	-213
▁बार	-214
▁मौ	-215
▁मिल	-216
▁रो	-217
▁अध	-218
▁ियों	-219
गर	-220
▁मह	-221
▁रही	-222
▁थे	-223
पी	-224
▁बी	-225
▁सिं	-226
▁सिंह	-227
ली	-228
रे	-229
शन	-230
मा	-231
गे	-232
▁क्ष	-233
ाना	-234
▁ोंने	-235
▁हम	-236
हां	-237
टर	-238
▁ान	-239
▁(	-240
▁गए	-241
▁पी	-242
▁ै	-243
▁जी	-244
▁:	-245
्च	-246
ेट	-247
▁स्थ	-248
▁दिन	-249
▁दर्	-250
▁)	-251
▁टी	-252
ल्	-253
▁पहु	-254
देश	-255
▁ती	-256
▁आरो	-257
▁9	-258
▁पहुंच	-259
▁लेकर	-260
हर	-261
▁पहले	-262
▁अन	-263
दी	-264
▁ड़	-265
▁मै	-266
▁इसके	-267
द्र	-268
जन	-269
भा	-270
▁रु	-271
▁ंत्र	-272
कार	-273
▁हा	-274
▁ट्र	-275
▁ॉ	-276
▁लोगों	-277
▁अपने	-278
▁जो	-279
▁री	-280
▁यु	-281
▁कार्	-282
▁शा	-283
स्ट	-284
▁ित	-285
▁6	-286
▁जब	-287
▁जाए	-288
द्	-289
▁हुई	-290
▁मे	-291
▁माम	-292
▁ते	-293
▁कम	-294
किन	-295
▁लेकिन	-296
▁ओं	-297
▁7	-298
सा	-299
▁ंत्री	-300
▁बना	-301
्त	-302
▁नी	-303
▁द्	-304
▁सर	-305
पा	-306
में	-307
▁इन	-308
▁8	-309
▁जिस	-310
▁'	-311
तर	-312
▁साल	-313
▁वह	-314
▁दौर	-315
▁लगा	-316
▁बै	-317
▁सक	-318
▁बि	-319
▁ठ	-320
ार्	-321
मार	-322
▁िंग	-323
ानी	-324
ंब	-325
▁एस	-326
▁ाव	-327
▁रू	-328
▁होने	-329
▁वाले	-330
▁गां	-331
जे	-332
▁निर्	-333
▁देश	-334
▁वे	-335
जा	-336
▁दौरान	-337
▁ई	-338
▁ग्र	-339
▁हर	-340
▁िया	-341
▁ऐ	-342
▁्स	-343
नाव	-344
▁जन	-345
▁चल	-346
दा	-347
▁घर	-348
▁हुआ	-349
▁पुर	-350
▁पि	-351
ंट	-352
▁कुमार	-353
वास	-354
▁तर	-355
ंध	-356
▁अब	-357
▁दू	-358
▁प्रति	-359
वि	-360
▁लो	-361
▁ऑ	-362
नों	-363
▁चुनाव	-364
▁सरकार	-365
▁ेत्र	-366
▁"	-367
▁रुप	-368
▁शुर	-369
▁शाम	-370
र्व	-371
▁साम	-372
▁करते	-373
▁सू	-374
▁ये	-375
▁भार	-376
▁देख	-377
▁स्ट	-378
▁कै	-379
▁ाइ	-380
▁श्र	-381
िन	-382
▁वर्	-383
▁काम	-384
▁जु	-385
▁चा	-386
ष्ट	-387
बा	-388
▁ां	-389
टना	-390
▁झ	-391
▁राम	-392
▁सो	-393
▁महिला	-394
▁रख	-395
्ल	-396
ेल	-397
▁कार्य	-398
▁सभी	-399
िव	-400
▁डॉ	-401
▁लिया	-402
▁आई	-403
▁कुछ	-404
ंग्	-405
▁यो	-406
▁बड़	-407
▁वार	-408
िया	-409
▁पास	-410
▁कई	-411
▁रेस	-412
▁व्य	-413
ोट	-414
कारी	-415
यर	-416
्व	-417
▁नगर	-418
▁ण	-419
▁बढ़	-420
टी	-421
▁गिर	-422
▁लग	-423
▁टीम	-424
▁थाना	-425
मी	-426
▁गांव	-427
▁यू	-428
ूल	-429
क्र	-430
▁भारत	-431
क्त	-432
स्त	-433
▁द्वार	-434
▁दु	-435
▁यों	-436
▁ीड	-437
िए	-438
▁गु	-439
ंप	-440
▁पो	-441
ख्य	-442
▁आप	-443
▁उनके	-444
▁ालय	-445
पुर	-446
▁ति	-447
▁चौ	-448
▁बात	-449
▁मामले	-450
▁घटना	-451
▁कोई	-452
जी	-453
▁हाल	-454
▁नाम	-455
▁ली	-456
▁सब	-457
▁मो	-458
▁ाय	-459
▁गा	-460
▁कांग्	-461
▁मी	-462
▁उप	-463
▁समय	-464
▁गो	-465
ृत	-466
▁करा	-467
▁डी	-468
स्प	-469
▁आरोप	-470
▁अपनी	-471
▁सह	-472
िश	-473
▁रूप	-474
▁शुरू	-475
▁ार्ट	-476
▁बन	-477
सर	-478
▁वहीं	-479
ोड़	-480
▁्यक्ष	-481
▁डि	-482
▁हि	-483
▁दर्ज	-484
▁परि	-485
▁्रदेश	-486
▁योज	-487
▁जिल	-488
▁यहां	-489
▁निक	-490
▁लोक	-491
▁दोनों	-492
क्षा	-493
ंक	-494
▁चाह	-495
वाई	-496
्न	-497
▁जिला	-498
फ्	-499
▁कह	-500
जार	-501
▁बजे	-502
▁़	-503
▁वी	-504
▁ेंद्र	-505
▁रुपए	-506
▁बच	-507
▁छा	-508
▁ौ	-509
▁बह	-510
▁एक्	-511
▁खु	-512
▁जांच	-513
ंस	-514
▁खिला	-515
▁विभा	-516
वी	-517
▁शु	-518
▁दिल	-519
ारा	-520
▁किसी	-521
▁तरह	-522
▁विभाग	-523
▁पूर्व	-524
▁बो	-525
ंत	-526
▁युव	-527
▁आरोपी	-528
▁विश	-529
धान	-530
▁पड़	-531
▁उसके	-532
▁िका	-533
▁एव	-534
▁आज	-535
▁बीच	-536
▁नकारी	-537
▁स्त	-538
ड़क	-539
एम	-540
▁नु	-541
▁10	-542
▁कॉ	-543
▁पै	-544
▁ग्राम	-545
▁दूस	-546
▁लाख	-547
वे	-548
▁शामिल	-549
वर	-550
▁जै	-551
▁ाई	-552
▁ीय	-553
▁एवं	-554
▁िकारी	-555
नि	-556
▁प्	-557
▁भाज	-558
▁रात	-559
▁अल	-560
▁ेंगे	-561
▁राज्य	-562
▁करी	-563
▁तार	-564
▁सूच	-565
▁भाजपा	-566
▁आय	-567
▁ंड	-568
▁एम	-569
▁िस	-570
▁अव	-571
▁जारी	-572
▁बैठ	-573
▁फिर	-574
▁क्र	-575
▁मैं	-576
▁होगा	-577
स्पत	-578
▁अस्पत	-579
▁बे	-580
▁जाएगा	-581
जू	-582
▁जाने	-583
▁किए	-584
▁पत्	-585
▁मांग	-586
▁मंद	-587
▁उसे	-588
▁मार	-589
▁जीत	-590
▁करीब	-591
▁खिलाफ	-592
▁कारण	-593
▁फिल	-594
▁तै	-595
बर	-596
▁जिले	-597
▁ार्टी	-598
▁ेड	-599
▁अन्य	-600
सान	-601
▁ार्	-602
▁बद	-603
▁चार	-604
▁‍	-605
▁ेंट	-606
▁दा	-607
▁बेट	-608
▁ाने	-609
ून	-610
▁याद	-611
▁स्क	-612
▁महा	-613
णा	-614
▁सीट	-615
▁मान	-616
▁सद	-617
▁ंच	-618
▁टे	-619
▁उनकी	-620
▁सभा	-621
▁रिवार	-622
▁ज्या	-623
▁ज्याद	-624
▁ारी	-625
▁धिक	-626
▁िल	-627
▁युवक	-628
जर	-629
▁्ट	-630
▁वाली	-631
▁फिल्म	-632
▁मंदिर	-633
▁शास	-634
▁मौके	-635
▁इं	-636
▁तीन	-637
▁गिरफ्	-638
▁श्री	-639
▁निवास	-640
▁फै	-641
▁करना	-642
▁छात्र	-643
▁रवाई	-644
▁जाता	-645
▁शहर	-646
▁्थ	-647
▁सामने	-648
▁यक्र	-649
▁यक्रम	-650
▁मौत	-651
▁ंद	-652
▁ल्	-653
▁अग	-654
▁ओर	-655
▁सुब	-656
▁्री	-657
▁जग	-658
▁लाल	-659
▁सुबह	-660
▁ज्	-661
▁एं	-662
▁कोर्ट	-663
िति	-664
▁तह	-665
▁ाया	-666
▁खा	-667
ध्य	-668
▁योग	-669
ूट	-670
र्म	-671
▁आर	-672
प्त	-673
▁राष्ट	-674
▁वो	-675
द्य	-676
▁न्	-677
▁स्व	-678
▁क्या	-679
▁सबसे	-680
▁देने	-681
ड़ी	-682
लो	-683
जय	-684
▁गुर	-685
▁पिछ	-686
▁गं	-687
र्च	-688
▁सूचना	-689
▁िन	-690
▁हजार	-691
वाल	-692
▁च्च	-693
▁अलग	-694
▁इला	-695
▁करोड़	-696
▁अधिक	-697
▁पाल	-698
▁रेल	-699
▁पानी	-700
▁एन	-701
▁जहां	-702
▁यादव	-703
ुत	-704
▁देव	-705
▁इसी	-706
▁दिख	-707
ूर	-708
ेज	-709
▁िकाय	-710
▁कर्	-711
इन	-712
ंबर	-713
▁कृ	-714
▁बारिश	-715
वन	-716
▁राह	-717
▁दर्शन	-718
▁ऐसे	-719
द्ध	-720
▁बु	-721
▁नुस	-722
जूद	-723
▁दिए	-724
▁मिली	-725
चार	-726
▁भाग	-727
▁कंप	-728
▁आने	-729
▁बंद	-730
▁स्कूल	-731
▁धिकार	-732
▁होगी	-733
▁ात	-734
पर	-735
▁जर	-736
▁नुसार	-737
▁ीन	-738
▁िसमें	-739
▁मन	-740
▁अनु	-741
▁जि	-742
▁इसमें	-743
दान	-744
▁शिव	-745
▁त्	-746
हार	-747
▁मि	-748
▁आए	-749
▁िकायत	-750
▁तैय	-751
▁जय	-752
▁इससे	-753
ोर	-754
▁पोर्ट	-755
▁ंग	-756
▁तैयार	-757
▁ारती	-758
म्म	-759
्यू	-760
▁शर्	-761
▁ोदी	-762
कान	-763
▁पद	-764
▁विद्य	-765
▁बाहर	-766
▁ज्ञ	-767
हन	-768
▁मत	-769
ेत	-770
▁रवि	-771
▁ारतीय	-772
वान	-773
ेन	-774
▁िश	-775
▁ष	-776
▁ाम	-777
टा	-778
▁नेता	-779
▁आया	-780
▁दिल्ल	-781
▁मार्	-782
▁बंध	-783
बंध	-784
▁शव	-785
▁रहने	-786
▁जान	-787
▁मुख्य	-788
▁सफ	-789
▁शासन	-790
▁यात्र	-791
▁शर्मा	-792
▁स्थान	-793
ंगल	-794
▁गुरु	-795
था	-796
▁रक्षा	-797
▁ेद	-798
▁योजना	-799
▁कुल	-800
▁टर	-801
▁सकता	-802
▁हत्	-803
ेक	-804
▁भर	-805
▁मां	-806
▁चाहिए	-807
▁कर्म	-808
सभ	-809
▁लोकसभ	-810
▁पढ़	-811
▁ेश	-812
फी	-813
▁खेल	-814
▁ढ	-815
▁जे	-816
सल	-817
्छ	-818
▁वहां	-819
ियो	-820
▁स्थित	-821
▁समा	-822
▁पूरी	-823
▁हत्या	-824
▁ंद्र	-825
▁किसान	-826
ाई	-827
▁पिछले	-828
▁ड्	-829
▁पिता	-830
▁मंड	-831
▁मामला	-832
ुल	-833
▁अम	-834
▁शे	-835
ओं	-836
▁पां	-837
▁सड़क	-838
▁उसकी	-839
▁्या	-840
▁?	-841
▁िध	-842
▁उत्	-843
▁ढ़	-844
▁शि	-845
▁क्टर	-846
▁व्यव	-847
▁विका	-848
ंदर	-849
तार	-850
▁पति	-851
▁प्रो	-852
ायक	-853
▁S	-854
▁िधायक	-855
▁ियां	-856
लाई	-857
▁गढ़	-858
▁विधान	-859
▁रन	-860
▁रीक्ष	-861
▁ाए	-862
▁रिय	-863
ेशन	-864
▁ऑफ	-865
धा	-866
▁ट्	-867
▁आगे	-868
▁नव	-869
▁काफी	-870
▁उठ	-871
ख्यम	-872
▁ुख्यम	-873
▁बच्च	-874
▁भू	-875
▁बड़ी	-876
▁ेर	-877
त्व	-878
▁दर	-879
▁अच	-880
धी	-881
▁अं	-882
▁इंड	-883
▁मृत	-884
▁सहित	-885
▁संभ	-886
लेक्	-887
इल	-888
▁समाज	-889
▁विकास	-890
▁जाएगी	-891
▁ंख	-892
▁घाय	-893
▁घायल	-894
एस	-895
▁जबकि	-896
ोष	-897
▁दीप	-898
▁रोड	-899
▁माल	-900
▁बहुत	-901
मान	-902
र्ण	-903
▁िग	-904
▁घंट	-905
▁सै	-906
कड़	-907
धार	-908
▁हालां	-909
इक	-910
▁अभी	-911
▁बैठक	-912
▁जगह	-913
▁ोम	-914
र्फ	-915
▁तब	-916
▁ीडियो	-917
▁सदस	-918
▁सदस्य	-919
▁व्यक्	-920
▁निकल	-921
▁परिजन	-922
को	-923
▁फी	-924
र्ड	-925
▁एक्स	-926
▁होता	-927
▁20	-928
▁धार	-929
▁ाह	-930
▁A	-931
▁मौजूद	-932
▁मद	-933
ायर	-934
▁तहत	-935
▁अला	-936
▁जिन	-937
▁जिसके	-938
▁लिख	-939
▁च्चों	-940
▁दूसरे	-941
▁बाइक	-942
▁ीण	-943
▁ऊ	-944
ीत	-945
▁ताब	-946
▁ेगा	-947
▁संग	-948
▁उसने	-949
▁धान	-950
▁चि	-951
▁भग	-952
▁न्या	-953
▁बारे	-954
▁मही	-955
▁अपना	-956
▁मिला	-957
▁ीडिया	-958
ोल	-959
▁पत्नी	-960
▁सकते	-961
▁करें	-962
ंगा	-963
▁अलावा	-964
ंत्र	-965
▁ज़	-966
ंगे	-967
▁अगर	-968
टल	-969
▁आग	-970
▁उनका	-971
▁ाना	-972
ेम	-973
राब	-974
▁C	-975
▁मंगल	-976
▁पं	-977
▁चंद	-978
▁बाल	-979
▁ृ	-980
▁अभ	-981
▁ंख्या	-982
▁वज	-983
▁ाकर	-984
▁दें	-985
▁टू	-986
▁ीजे	-987
▁पता	-988
▁ारा	-989
▁कंपनी	-990
▁ंप	-991
▁ेक्	-992
▁कहना	-993
▁15	-994
▁्रभ	-995
ब्	-996
दि	-997
▁फर	-998
सि	-999
▁भाव	-1000
▁वजह	-1001
▁मेंट	-1002
▁स्था	-1003
▁इसे	-1004
क्षक	-1005
▁तेज	-1006
▁12	-1007
▁शादी	-1008
तम	-1009
▁बर	-1010
▁म्म	-1011
▁म्	-1012
▁त्र	-1013
▁पल	-1014
▁ार्थ	-1015
ष्ठ	-1016
ोजन	-1017
▁सौ	-1018
▁दिनों	-1019
▁हाथ	-1020
▁माण	-1021
▁सें	-1022
▁वर्ष	-1023
▁युक्त	-1024
शि	-1025
पाल	-1026
▁करता	-1027
▁मज	-1028
▁जैसे	-1029
▁सांस	-1030
▁्रीय	-1031
▁हों	-1032
▁साइ	-1033
▁नजर	-1034
▁पूरा	-1035
बू	-1036
▁बिज	-1037
▁सेवा	-1038
▁तरफ	-1039
▁बल	-1040
▁पक्ष	-1041
▁विवा	-1042
▁आयोजन	-1043
▁बिहार	-1044
▁दिव	-1045
आई	-1046
▁सच	-1047
▁भाई	-1048
▁मुझ	-1049
▁ताबिक	-1050
▁ीद	-1051
▁हू	-1052
▁ास्	-1053
▁होती	-1054
▁पकड़	-1055
केट	-1056
▁ट्रेन	-1057
▁दुकान	-1058
▁सवाल	-1059
▁वाला	-1060
ारे	-1061
▁महीने	-1062
▁स्प	-1063
▁फो	-1064
▁निकाल	-1065
▁श्च	-1066
ट्	-1067
▁ास	-1068
▁शी	-1069
▁बनाने	-1070
▁घंटे	-1071
▁ऐसा	-1072
▁थाने	-1073
▁ियाणा	-1074
▁अति	-1075
▁ीजेपी	-1076
▁हाद	-1077
▁नंबर	-1078
▁जुड़	-1079
ेष	-1080
▁ाबा	-1081
▁11	-1082
▁विशेष	-1083
▁रेश	-1084
▁पत्र	-1085
▁वै	-1086
लेज	-1087
▁न्याय	-1088
▁ष्ट	-1089
▁हाई	-1090
▁ोमवार	-1091
ये	-1092
सम	-1093
▁रण	-1094
▁गातार	-1095
ड़ित	-1096
रण	-1097
▁ॉलेज	-1098
▁जून	-1099
▁ेगी	-1100
▁पूरे	-1101
▁जिससे	-1102
ष्ण	-1103
ग्र	-1104
▁निय	-1105
▁घोष	-1106
▁्थिति	-1107
न्	-1108
▁स्तान	-1109
▁n	-1110
▁सीएम	-1111
▁केस	-1112
▁पार्	-1113
▁इसकी	-1114
▁चाल	-1115
▁शन	-1116
▁नई	-1117
▁छोड़	-1118
▁सांसद	-1119
▁मस्	-1120
▁शनि	-1121
▁मेर	-1122
▁लड़क	-1123
▁राय	-1124
▁ाड़	-1125
▁ेशन	-1126
▁संस्	-1127
धि	-1128
योग	-1129
▁नौ	-1130
▁विश्व	-1131
▁P	-1132
र्य	-1133
▁ाउ	-1134
▁सकती	-1135
▁भो	-1136
▁शत	-1137
ेस	-1138
▁लगाया	-1139
▁ाबाद	-1140
▁पहली	-1141
▁वन	-1142
▁ेट	-1143
▁ब्	-1144
ाइ	-1145
रोध	-1146
▁मिलने	-1147
▁फोन	-1148
▁s	-1149
▁िगम	-1150
▁बॉ	-1151
▁लॉ	-1152
▁लगे	-1153
▁बस	-1154
हम	-1155
▁रोक	-1156
▁एफ	-1157
▁नाथ	-1158
▁बड़े	-1159
▁मुझे	-1160
▁इसका	-1161
▁कराया	-1162
▁धानम	-1163
▁एल	-1164
▁गांधी	-1165
▁उत्तर	-1166
▁भगवान	-1167
▁गंभी	-1168
▁गंभीर	-1169
▁पांच	-1170
▁हूं	-1171
त्म	-1172
▁30	-1173
▁एंगे	-1174
▁कलेक्	-1175
▁्रम	-1176
▁विरोध	-1177
ियों	-1178
▁डिग्र	-1179
▁कर्ता	-1180
▁I	-1181
र्थ	-1182
▁आधार	-1183
▁सचिव	-1184
▁मृतक	-1185
▁पंजा	-1186
▁ची	-1187
▁चला	-1188
▁B	-1189
▁खान	-1190
▁समझ	-1191
▁लड़	-1192
▁दार	-1193
वरी	-1194
▁मैच	-1195
▁देते	-1196
लिए	-1197
▁इसलिए	-1198
चा	-1199
▁र्ष	-1200
▁पंजाब	-1201
▁माह	-1202
द्द	-1203
▁शुक्र	-1204
▁हार	-1205
▁आम	-1206
▁जल	-1207
▁गण	-1208
▁श्	-1209
िम	-1210
▁ुध	-1211
लास	-1212
▁जमी	-1213
▁बेह	-1214
गत	-1215
▁ाद	-1216
▁शनिवा	-1217
▁स्तर	-1218
▁रविवा	-1219
▁वाप	-1220
▁चर्च	-1221
▁योजित	-1222
▁भेज	-1223
▁बनाया	-1224
▁नए	-1225
▁ुक	-1226
▁मंडल	-1227
▁िक्षा	-1228
▁बड़ा	-1229
▁ंट	-1230
▁एड	-1231
▁घा	-1232
▁इलाज	-1233
▁जमीन	-1234
▁करे	-1235
▁ुधवार	-1236
▁जाती	-1237
▁खुद	-1238
क्षण	-1239
स्टम	-1240
▁ताप	-1241
▁रीय	-1242
▁कल	-1243
ठन	-1244
चान	-1245
▁वापस	-1246
▁प्रा	-1247
▁भर्	-1248
▁संबंध	-1249
▁पूजा	-1250
▁ंत	-1251
▁आस	-1252
▁पहचान	-1253
▁रुपये	-1254
▁गल	-1255
▁बज	-1256
▁ाते	-1257
▁बैंक	-1258
▁शुरु	-1259
त्त	-1260
▁ाप्त	-1261
▁्प	-1262
▁अच्छ	-1263
▁ेंड	-1264
▁्व	-1265
▁थान	-1266
▁N	-1267
▁ब्र	-1268
▁खड़	-1269
▁हिंद	-1270
▁ेड़	-1271
▁मौसम	-1272
▁M	-1273
▁डाल	-1274
▁सामान	-1275
▁तु	-1276
ार्ड	-1277
▁नीति	-1278
▁मीटर	-1279
▁न्द्र	-1280
▁जेल	-1281
▁बाजार	-1282
्वर	-1283
▁सम्	-1284
▁तापम	-1285
िका	-1286
▁धर्म	-1287
▁रेशान	-1288
▁समेत	-1289
▁ेंस	-1290
▁आदेश	-1291
▁लगी	-1292
▁गै	-1293
▁बिजली	-1294
▁उसका	-1295
जि	-1296
वेश	-1297
▁लाइन	-1298
▁भर्ती	-1299
▁50	-1300
▁गी	-1301
▁सित	-1302
▁दल	-1303
तन	-1304
▁चो	-1305
▁वोट	-1306
▁बेटे	-1307
▁लेने	-1308
▁रंग	-1309
▁जवा	-1310
▁होते	-1311
▁पट	-1312
▁ोर	-1313
▁समिति	-1314
▁ोह	-1315
शी	-1316
▁शुरुआ	-1317
▁शाह	-1318
▁देर	-1319
▁बच्चे	-1320
▁शो	-1321
▁राहुल	-1322
▁िरा	-1323
▁सर्व	-1324
▁रकारी	-1325
▁फा	-1326
प्	-1327
▁यन	-1328
▁दोप	-1329
▁बया	-1330
▁बयान	-1331
▁ेल	-1332
▁होकर	-1333
▁जुलाई	-1334
▁ेता	-1335
▁25	-1336
▁काल	-1337
▁जनता	-1338
दन	-1339
▁सुर	-1340
ियान	-1341
▁भियान	-1342
▁बेटी	-1343
▁तौर	-1344
▁्वा	-1345
िन्न	-1346
▁भिन्न	-1347
▁बू	-1348
▁मिन	-1349
▁पुत्र	-1350
▁साह	-1351
▁चलते	-1352
डी	-1353
▁गत	-1354
▁वीर	-1355
▁बदल	-1356
शा	-1357
▁रम	-1358
▁चोरी	-1359
वल	-1360
▁ंब	-1361
▁योंकि	-1362
▁दान	-1363
▁पे	-1364
▁शां	-1365
▁लौ	-1366
▁नीत	-1367
▁थीं	-1368
▁रखा	-1369
▁गंज	-1370
▁ट्रै	-1371
▁बल्	-1372
▁जवाब	-1373
▁चर्चा	-1374
▁चुके	-1375
▁ोज	-1376
शल	-1377
▁तल	-1378
ेंस	-1379
▁ुर	-1380
▁दोपहर	-1381
▁पीछ	-1382
▁डे	-1383
▁दूसरी	-1384
▁ध्या	-1385
▁करके	-1386
▁सोशल	-1387
▁ाप	-1388
▁पूर्ण	-1389
▁कट	-1390
▁ज्ञान	-1391
▁ोबा	-1392
▁अगस्त	-1393
ायत	-1394
▁ीट	-1395
▁ंचायत	-1396
▁i	-1397
क्स	-1398
▁जाते	-1399
▁टिक	-1400
▁युवा	-1401
▁्थ्य	-1402
▁विजय	-1403
▁यां	-1404
▁मिले	-1405
▁मेरिक	-1406
▁घाट	-1407
▁मदद	-1408
षद	-1409
▁मस्या	-1410
▁तथा	-1411
र्स	-1412
▁स्वास	-1413
▁फ्	-1414
दात	-1415
▁जीवन	-1416
यास	-1417
▁अवसर	-1418
▁्रयास	-1419
ग्	-1420
▁ागर	-1421
▁रेलवे	-1422
▁सिर्फ	-1423
थम	-1424
▁माता	-1425
▁होंगे	-1426
▁R	-1427
▁विवाद	-1428
▁ंस	-1429
▁ीदवार	-1430
▁जल्	-1431
षण	-1432
▁दूर	-1433
▁त्य	-1434
▁उम्म	-1435
▁वाहन	-1436
ha	-1437
▁जयपुर	-1438
▁रोल	-1439
▁ाज	-1440
▁थानी	-1441
▁चुकी	-1442
▁फैस	-1443
▁ोबाइल	-1444
▁अपरा	-1445
▁तोड़	-1446
▁देवी	-1447
▁कौ	-1448
▁ंक	-1449
▁ाक	-1450
खंड	-1451
▁थानीय	-1452
स्थ	-1453
▁धन	-1454
▁पेश	-1455
▁ोर्ट	-1456
▁बिल	-1457
▁मध्य	-1458
▁इंडिय	-1459
▁बोल	-1460
▁गाड़ी	-1461
ियर	-1462
▁तृ	-1463
▁खरी	-1464
▁मेरे	-1465
ुख	-1466
▁निर	-1467
▁वालों	-1468
▁तला	-1469
▁बनाए	-1470
▁ुन	-1471
▁जल्द	-1472
▁्रमुख	-1473
▁रियों	-1474
▁दौ	-1475
▁धम	-1476
▁पेट	-1477
▁िप	-1478
▁राशि	-1479
▁महत्व	-1480
▁पोस्ट	-1481
िंग	-1482
मत	-1483
▁्यू	-1484
▁र्म	-1485
▁देखा	-1486
▁पाकि	-1487
▁मार्ग	-1488
▁लगभ	-1489
▁ोड़	-1490
▁इंटर	-1491
▁लगभग	-1492
ाला	-1493
▁करती	-1494
▁ाध्य	-1495
▁अपराध	-1496
▁जैन	-1497
▁ाध	-1498
▁रिया	-1499
▁कप	-1500
▁ाली	-1501
▁ीकर	-1502
▁शराब	-1503
▁इलाके	-1504
▁नेशन	-1505
▁दिस	-1506
▁इंद	-1507
▁रै	-1508
▁पार	-1509
ैध	-1510
▁अवैध	-1511
▁िस्	-1512
▁विष	-1513
▁जम	-1514
▁आदि	-1515
▁लाइ	-1516
▁ाध्यम	-1517
▁संत	-1518
▁अंत	-1519
▁बराम	-1520
ेड	-1521
▁ेज	-1522
▁14	-1523
▁चंद्र	-1524
▁आवे	-1525
▁िंद	-1526
▁रोह	-1527
▁िर	-1528
▁शेयर	-1529
▁स्थल	-1530
▁वीं	-1531
▁बरामद	-1532
▁उद्	-1533
▁खरीद	-1534
▁13	-1535
▁ंज	-1536
▁अंदर	-1537
▁धर	-1538
▁अक्	-1539
▁्टेशन	-1540
▁मई	-1541
▁इस्	-1542
▁नोट	-1543
▁हॉ	-1544
▁इंदौर	-1545
▁करण	-1546
केश	-1547
▁किलो	-1548
▁पुरा	-1549
▁कृष्ण	-1550
▁D	-1551
▁सके	-1552
श्	-1553
▁फ़	-1554
▁24	-1555
▁उम	-1556
▁कोश	-1557
ाराज	-1558
▁सवार	-1559
▁टूबर	-1560
▁कोशिश	-1561
▁सितंब	-1562
▁ीना	-1563
▁हमारे	-1564
▁कहते	-1565
▁चुन	-1566
पीट	-1567
▁ारपीट	-1568
▁पीएम	-1569
विध	-1570
▁ंडा	-1571
▁एज	-1572
▁ांग	-1573
थि	-1574
▁जरूर	-1575
▁कभी	-1576
▁त्या	-1577
▁आश	-1578
ल्ड	-1579
▁ीं	-1580
▁अभि	-1581
▁पीछे	-1582
▁अर	-1583
▁वाड़	-1584
▁ंचाल	-1585
▁ेडिक	-1586
▁िव	-1587
▁दिसंब	-1588
▁ांक	-1589
▁लौट	-1590
▁ूर्	-1591
▁ेयर	-1592
▁दिवस	-1593
▁चुका	-1594
▁एयर	-1595
▁हमला	-1596
▁संगठन	-1597
▁शुभ	-1598
▁मैंने	-1599
▁नरे	-1600
▁इम	-1601
▁क्य	-1602
▁पदा	-1603
छता	-1604
▁व्या	-1605
रीज	-1606
▁हादसे	-1607
▁ेडिकल	-1608
▁इत	-1609
▁तलाश	-1610
बल	-1611
▁देकर	-1612
▁वाद	-1613
▁भि	-1614
▁जाना	-1615
▁कें	-1616
छताछ	-1617
▁ूछताछ	-1618
▁मर्थ	-1619
▁सीसी	-1620
काश	-1621
▁गुप्त	-1622
ैंड	-1623
▁्रकाश	-1624
माश	-1625
▁बदमाश	-1626
▁ेश्वर	-1627
कों	-1628
▁केंद्	-1629
▁नवंबर	-1630
त्य	-1631
▁भाष	-1632
▁आवेदन	-1633
मि	-1634
पास	-1635
▁लिखा	-1636
▁आसपास	-1637
▁खास	-1638
▁ीड़ित	-1639
▁चे	-1640
▁ांड	-1641
▁कान	-1642
▁ीर	-1643
▁बंधित	-1644
▁प्री	-1645
▁वाह	-1646
▁ट्री	-1647
▁नर	-1648
▁पर्य	-1649
▁प्ले	-1650
▁रस	-1651
▁केवल	-1652
▁मतदान	-1653
▁16	-1654
▁प्ल	-1655
▁बने	-1656
▁खंड	-1657
▁र्ड	-1658
ताव	-1659
▁टै	-1660
▁चौध	-1661
▁राइ	-1662
▁त्याश	-1663
▁िता	-1664
▁आपको	-1665
▁लख	-1666
▁केट	-1667
▁चौधरी	-1668
▁चै	-1669
▁ांस	-1670
▁्रा	-1671
▁बिना	-1672
▁फोट	-1673
▁परिस	-1674
▁वाया	-1675
▁ेन	-1676
▁ब्ल	-1677
▁एक्सप	-1678
▁भोपाल	-1679
साद	-1680
▁नेशनल	-1681
▁राव	-1682
▁मजबू	-1683
▁एच	-1684
▁देखने	-1685
▁हरा	-1686
▁खेत	-1687
▁्रसाद	-1688
▁मिनट	-1689
▁छोट	-1690
किल	-1691
▁तारी	-1692
▁मोहन	-1693
▁ध्यान	-1694
▁40	-1695
▁खिल	-1696
▁ेताओं	-1697
विधा	-1698
▁ुविधा	-1699
▁नदी	-1700
▁हमें	-1701
ेर	-1702
▁कों	-1703
▁वाई	-1704
▁18	-1705
▁ीए	-1706
▁पड़ा	-1707
▁क्रम	-1708
▁क्यों	-1709
▁रव	-1710
▁मॉ	-1711
ल्ल	-1712
▁भारी	-1713
▁कं	-1714
▁ाग	-1715
▁ेदार	-1716
▁बचा	-1717
▁िक्र	-1718
▁जुट	-1719
▁मार्च	-1720
▁वार्ड	-1721
▁लाभ	-1722
▁खबर	-1723
▁थाप	-1724
▁मंत्र	-1725
▁ाही	-1726
▁होना	-1727
▁्रि	-1728
▁अमित	-1729
▁कर्मच	-1730
▁बोर्ड	-1731
▁जन्म	-1732
▁17	-1733
▁पढ़ें	-1734
▁सफल	-1735
▁t	-1736
▁/	-1737
▁ुल	-1738
▁वर्ग	-1739
ूड	-1740
ात	-1741
▁चरण	-1742
▁ओवर	-1743
▁देखते	-1744
▁चालक	-1745
▁र्स	-1746
▁श्चिम	-1747
▁शं	-1748
▁साफ	-1749
▁ियर	-1750
▁कैसे	-1751
▁न्यू	-1752
▁ूम	-1753
▁टिकट	-1754
▁कल्	-1755
▁टेस्ट	-1756
▁बनी	-1757
▁फरार	-1758
▁्ल	-1759
▁भवन	-1760
▁दर्श	-1761
▁दोस्त	-1762
▁नीतिक	-1763
▁ंघ	-1764
▁गोली	-1765
निय	-1766
▁ठा	-1767
▁उपस्थ	-1768
▁ष्ठ	-1769
▁यानी	-1770
▁कराने	-1771
▁गर्	-1772
▁अग्र	-1773
वाज	-1774
▁विकेट	-1775
▁घु	-1776
▁जिसे	-1777
▁िस्सा	-1778
चे	-1779
दीप	-1780
▁ीम	-1781
▁र्द	-1782
▁सिल	-1783
्रा	-1784
▁मनो	-1785
▁ीणों	-1786
▁ेह	-1787
▁जनवरी	-1788
▁िटल	-1789
▁बदला	-1790
▁प्रक्	-1791
▁कड़	-1792
ra	-1793
▁निधि	-1794
▁भे	-1795
▁ावना	-1796
▁अहम	-1797
▁कीमत	-1798
▁हास	-1799
▁ानी	-1800
▁मारो	-1801
▁ोस्टम	-1802
▁ख़	-1803
▁वश	-1804
▁र्थ	-1805
▁अंतर	-1806
▁सीटों	-1807
▁तीस	-1808
▁रें	-1809
▁पदाध	-1810
▁सल	-1811
▁22	-1812
▁तय	-1813
▁गौर	-1814
▁अगले	-1815
▁्रप	-1816
▁ील	-1817
▁चार्य	-1818
▁मारोह	-1819
ेंद	-1820
▁फॉ	-1821
ूब	-1822
▁संघ	-1823
▁स्वी	-1824
▁हस	-1825
▁जाय	-1826
▁ामा	-1827
▁संजय	-1828
ब्ध	-1829
▁अद	-1830
▁फीस	-1831
▁l	-1832
▁फर्	-1833
▁ठी	-1834
▁पलब्ध	-1835
▁श्रद्	-1836
▁सहयोग	-1837
▁गेट	-1838
▁आयोग	-1839
▁दुर्	-1840
▁लगाए	-1841
▁वायर	-1842
▁त्म	-1843
▁भेजा	-1844
▁गलत	-1845
▁जिलों	-1846
▁फोटो	-1847
▁िड	-1848
दार	-1849
▁्त	-1850
▁अधि	-1851
▁मं	-1852
▁्ड	-1853
▁धु	-1854
▁दय	-1855
▁र्व	-1856
▁दावा	-1857
▁मना	-1858
▁जिम्म	-1859
ंबई	-1860
▁ऐसी	-1861
▁e	-1862
▁मुंबई	-1863
▁पन	-1864
▁ांव	-1865
▁नल	-1866
▁िम	-1867
▁कार्ड	-1868
▁तृत्व	-1869
क्ति	-1870
सव	-1871
▁साध	-1872
▁यूपी	-1873
▁रखने	-1874
▁गर्मी	-1875
▁पैसे	-1876
▁चौक	-1877
▁ूर्ति	-1878
क्ट	-1879
▁ग्रह	-1880
▁दुनिय	-1881
▁एंट	-1882
▁ताकि	-1883
▁व्याप	-1884
▁नीचे	-1885
▁र्मचा	-1886
दम	-1887
ैल	-1888
▁पूछ	-1889
▁मूल	-1890
▁पटना	-1891
▁माना	-1892
▁प्रैल	-1893
▁ीप	-1894
▁टक्	-1895
▁कब्	-1896
▁तरी	-1897
▁उर्फ	-1898
▁धारा	-1899
▁लगाने	-1900
▁ीक्षक	-1901
▁म्मी	-1902
▁ीस	-1903
▁ीनियर	-1904
▁पण	-1905
▁वश्य	-1906
▁टक्कर	-1907
▁बल्कि	-1908
▁K	-1909
▁रत	-1910
▁सौंप	-1911
▁इनमें	-1912
▁नियम	-1913
▁जाम	-1914
▁तुल	-1915
▁रिल	-1916
▁िदेश	-1917
▁दरअ	-1918
▁फायर	-1919
▁बेहतर	-1920
▁र्ज	-1921
▁दरअसल	-1922
▁सर्	-1923
▁ूर्ण	-1924
▁सिर	-1925
▁जाकर	-1926
▁द्य	-1927
▁प्रीम	-1928
▁E	-1929
▁लखन	-1930
▁लादेश	-1931
▁लिय	-1932
▁सिटी	-1933
▁टाइ	-1934
▁टन	-1935
▁िए	-1936
▁डा	-1937
▁फैसला	-1938
▁बांग्	-1939
▁सीमा	-1940
▁घोषणा	-1941
▁ून	-1942
▁हासिल	-1943
नात	-1944
▁डेट	-1945
▁ट्रक	-1946
▁मकान	-1947
▁तैनात	-1948
▁टॉ	-1949
▁कल्प	-1950
▁रल	-1951
▁मेल	-1952
▁ेदारी	-1953
माल	-1954
▁तस्	-1955
▁वक्त	-1956
▁तेमाल	-1957
▁सदर	-1958
▁ीत	-1959
▁मैदान	-1960
▁्रपति	-1961
▁रहते	-1962
शु	-1963
▁19	-1964
▁ड्ड	-1965
▁ुरा	-1966
▁्रेस	-1967
▁शिक्ष	-1968
लों	-1969
▁वृ	-1970
▁ेक्टर	-1971
▁रिकेट	-1972
▁आख	-1973
▁हमने	-1974
▁ाता	-1975
▁्रधान	-1976
▁21	-1977
▁बेच	-1978
▁ॉलो	-1979
▁तत्	-1980
▁कानून	-1981
▁ीएम	-1982
▁बाबा	-1983
▁कहीं	-1984
▁a	-1985
सत	-1986
▁रहेगा	-1987
▁काट	-1988
▁वक्	-1989
▁्रकार	-1990
▁T	-1991
▁उच	-1992
▁ऊपर	-1993
▁फाइन	-1994
▁पौ	-1995
▁ेम	-1996
▁हालत	-1997
▁कॉर्ड	-1998
ोक	-1999
ल्क	-2000
▁ाथम	-2001
▁दास	-2002
▁लक्ष	-2003
हाल	-2004
▁ाड़ी	-2005
▁िलहाल	-2006
▁ेय	-2007
▁िन्	-2008
▁खोल	-2009
▁ेना	-2010
▁वित्त	-2011
▁सैन	-2012
▁तीनों	-2013
चीत	-2014
▁ातचीत	-2015
▁गृ	-2016
▁गृह	-2017
▁दश	-2018
▁बोले	-2019
▁खराब	-2020
▁परिसर	-2021
▁ारखंड	-2022
▁ेस	-2023
▁वश्यक	-2024
▁रिज	-2025
▁वायरल	-2026
▁ाथमिक	-2027
▁ठीक	-2028
▁नया	-2029
▁बनने	-2030
▁क्ल	-2031
▁पत्ति	-2032
बी	-2033
▁पार्क	-2034
▁गंगा	-2035
▁जमा	-2036
▁जरूरत	-2037
▁रं	-2038
▁शंकर	-2039
▁ॉल	-2040
▁सुनी	-2041
▁रोज	-2042
▁मेरी	-2043
▁खुल	-2044
▁बहन	-2045
▁विचार	-2046
▁थानों	-2047
▁ावत	-2048
▁िटी	-2049
▁खत्म	-2050
▁सेंटर	-2051
▁काली	-2052
▁टि	-2053
▁कराई	-2054
▁ुनवाई	-2055
बंधन	-2056
▁यही	-2057
▁ठबंधन	-2058
▁घोषित	-2059
टक	-2060
▁निजी	-2061
▁स्टूड	-2062
▁भीड़	-2063
▁सेक्	-2064
▁हिस्	-2065
▁वें	-2066
▁िंदर	-2067
▁म्मान	-2068
▁हन	-2069
▁मनी	-2070
▁पांड	-2071
▁म्मीद	-2072
▁लखनऊ	-2073
षि	-2074
▁ुट	-2075
▁लूट	-2076
▁जवान	-2077
▁त्व	-2078
▁आपके	-2079
▁सात	-2080
▁स्ल	-2081
▁ागरिक	-2082
▁िट	-2083
▁पहला	-2084
▁याच	-2085
▁राउ	-2086
▁ाइव	-2087
▁ायल	-2088
▁लव	-2089
स्था	-2090
▁होटल	-2091
▁जिन्ह	-2092
▁ूं	-2093
▁रानी	-2094
▁न्ना	-2095
▁िलकर	-2096
▁चीन	-2097
तिम	-2098
▁ोट	-2099
▁उठा	-2100
▁जोर	-2101
▁रेड	-2102
▁सागर	-2103
▁द्योग	-2104
▁अंतिम	-2105
▁वेद	-2106
▁बाग	-2107
▁अंतर्	-2108
▁मजबूत	-2109
▁वास	-2110
▁परिषद	-2111
▁ाओं	-2112
▁कॉन्	-2113
▁सफाई	-2114
▁कृत	-2115
▁बंग	-2116
▁िश्न	-2117
▁ड़ा	-2118
▁रोहित	-2119
▁मित	-2120
▁वाने	-2121
▁कॉल	-2122
▁ोत्	-2123
ेटी	-2124
▁कमेटी	-2125
▁प्रेम	-2126
▁भिष	-2127
▁रखी	-2128
▁्रवेश	-2129
▁लु	-2130
▁कमी	-2131
▁ात्र	-2132
▁हमारी	-2133
▁उच्च	-2134
▁पाया	-2135
▁ौर	-2136
▁तभी	-2137
▁देना	-2138
▁क़	-2139
▁रोब	-2140
▁G	-2141
▁जरिए	-2142
▁ल्या	-2143
▁भिषेक	-2144
▁एंड	-2145
▁ोली	-2146
▁र्षी	-2147
▁थिय	-2148
▁र्षीय	-2149
▁सिद्ध	-2150
▁िक्षक	-2151
▁धमकी	-2152
▁रक्षण	-2153
▁26	-2154
▁आं	-2155
▁ीक	-2156
▁उतर	-2157
▁हे	-2158
▁लगाई	-2159
▁हिंदू	-2160
▁यूनि	-2161
ानक	-2162
▁नाल	-2163
▁चिक	-2164
ालत	-2165
▁सही	-2166
▁अचानक	-2167
▁क्ष्य	-2168
▁स्ताव	-2169
▁अदालत	-2170
▁महारा	-2171
▁कब	-2172
▁ोय	-2173
▁साब	-2174
▁करवा	-2175
▁अग्रव	-2176
▁रिष्ठ	-2177
▁पाठ	-2178
▁चिकित	-2179
▁ालू	-2180
▁क्षि	-2181
▁भूमि	-2182
▁100	-2183
▁जोड़	-2184
▁मर्थन	-2185
▁आते	-2186
▁लाग	-2187
▁ारदात	-2188
▁F	-2189
▁लित	-2190
▁फल	-2191
▁चाहते	-2192
▁अश	-2193
▁ॉलोनी	-2194
▁ोल	-2195
▁उसी	-2196
▁ीक्षण	-2197
▁कारी	-2198
▁स्तुत	-2199
▁क्षण	-2200
▁कूल	-2201
▁सपा	-2202
▁अशोक	-2203
▁निवेश	-2204
▁अंक	-2205
▁उम्र	-2206
▁जाति	-2207
▁ावजूद	-2208
▁इंत	-2209
▁ायब	-2210
▁लागू	-2211
▁23	-2212
▁ूस	-2213
▁ेंडर	-2214
▁ग्	-2215
▁ैम	-2216
▁गौ	-2217
▁त्त	-2218
▁ल्याण	-2219
▁धारित	-2220
्ड	-2221
जों	-2222
▁उनसे	-2223
▁प्रिय	-2224
▁आन	-2225
▁केज	-2226
▁पटेल	-2227
▁शांति	-2228
▁यर	-2229
▁न्न	-2230
▁कौन	-2231
▁टूट	-2232
▁सहा	-2233
▁ाराय	-2234
▁याचिक	-2235
▁गेंद	-2236
▁नौकर	-2237
▁कही	-2238
▁शिक	-2239
▁दम	-2240
▁ारायण	-2241
▁बदलाव	-2242
▁शक्ति	-2243
▁्ष	-2244
▁तुर	-2245
▁लैंड	-2246
▁थियार	-2247
दाय	-2248
▁हट	-2249
on	-2250
▁बांध	-2251
▁मजद	-2252
▁छोटे	-2253
▁सिव	-2254
▁योगित	-2255
▁रूम	-2256
र्ष	-2257
▁भावित	-2258
▁रिक्त	-2259
ील	-2260
▁वक्ता	-2261
▁वर्मा	-2262
▁श्चित	-2263
▁जरू	-2264
▁र्ट	-2265
▁लान	-2266
▁बनाकर	-2267
पन	-2268
ar	-2269
▁ित्र	-2270
▁षित	-2271
▁त्रि	-2272
▁ारे	-2273
▁ंदन	-2274
▁रुक	-2275
▁शेख	-2276
▁सजा	-2277
▁ऋ	-2278
▁डिज	-2279
▁सहाय	-2280
▁दिखाई	-2281
▁सां	-2282
▁ुकसान	-2283
▁र्क	-2284
▁ाइज	-2285
▁ऑफिस	-2286
▁तिहा	-2287
▁विदेश	-2288
▁स्टार	-2289
चन	-2290
▁रहता	-2291
▁रोबार	-2292
▁जरूरी	-2293
▁किस	-2294
▁सत्	-2295
▁दिग्	-2296
ुप	-2297
▁टाल	-2298
▁मारी	-2299
▁बंधन	-2300
▁ांकन	-2301
▁िफ्	-2302
▁बंगाल	-2303
▁राउंड	-2304
▁उससे	-2305
▁अजय	-2306
▁तने	-2307
▁आवास	-2308
▁उपयोग	-2309
▁न्य	-2310
▁स्म	-2311
▁ास्ते	-2312
▁पीड़ित	-2313
▁हॉस्प	-2314
an	-2315
▁ैक	-2316
▁सार	-2317
▁हिस्स	-2318
▁िफ्ट	-2319
▁मजदूर	-2320
▁असर	-2321
▁चित	-2322
▁पाई	-2323
▁बनाई	-2324
▁्त्र	-2325
▁करेगी	-2326
▁सकें	-2327
▁ेस्ट	-2328
▁नो	-2329
▁ाइन	-2330
▁तिहास	-2331
▁गोल	-2332
▁फैल	-2333
उट	-2334
▁आउट	-2335
▁किश	-2336
▁क्ति	-2337
▁हवा	-2338
▁आत्म	-2339
▁ष्ट्र	-2340
▁आत	-2341
▁ीकरण	-2342
▁राहत	-2343
▁िज	-2344
▁्म	-2345
▁ग्रुप	-2346
सद	-2347
▁कर्मी	-2348
▁लक्ष्	-2349
▁28	-2350
▁अज	-2351
▁क्क	-2352
▁युवती	-2353
▁ोत	-2354
▁तरीके	-2355
▁्रदान	-2356
▁इक	-2357
▁प्शन	-2358
▁िश्रा	-2359
खिल	-2360
▁प्त	-2361
▁ुर्	-2362
▁लगने	-2363
▁इंतजा	-2364
▁योध्य	-2365
▁क्रिय	-2366
▁जब्त	-2367
▁राइवर	-2368
▁ीवी	-2369
▁U	-2370
▁रंप	-2371
▁ाला	-2372
▁सीसीट	-2373
▁ूमिका	-2374
▁चय	-2375
▁कॉम	-2376
▁्यु	-2377
▁धू	-2378
▁लंब	-2379
▁क्षिण	-2380
▁चोट	-2381
▁31	-2382
▁चेक	-2383
▁डीए	-2384
▁ेल्	-2385
▁जिनक	-2386
▁सुख	-2387
▁किशोर	-2388
▁ताला	-2389
▁ट्रां	-2390
▁शील	-2391
रात	-2392
▁27	-2393
▁ाण	-2394
▁वान	-2395
▁र्डर	-2396
▁एजेंस	-2397
ीज	-2398
▁आनंद	-2399
▁्वागत	-2400
धर	-2401
▁घुस	-2402
▁च्छ	-2403
▁कड़ी	-2404
▁तुरंत	-2405
▁रिलीज	-2406
▁हटा	-2407
▁इतना	-2408
▁वॉ	-2409
▁रजि	-2410
▁हमले	-2411
▁नम	-2412
सील	-2413
▁कपूर	-2414
▁तहसील	-2415
▁रजिस्	-2416
▁ाहनों	-2417
िग	-2418
▁यम	-2419
▁बजट	-2420
▁खर्च	-2421
▁ैया	-2422
▁्रचार	-2423
▁णय	-2424
▁लर	-2425
▁श्म	-2426
▁ेरा	-2427
▁दिशा	-2428
▁वर्क	-2429
▁दोष	-2430
▁ॉर्ट	-2431
▁्रता	-2432
▁इंट	-2433
▁नौकरी	-2434
▁लगाकर	-2435
▁िफ	-2436
▁प्प	-2437
▁राग	-2438
▁िंक	-2439
▁बीमार	-2440
▁नला	-2441
▁खिलाड	-2442
▁सलमान	-2443
उस	-2444
▁अमर	-2445
▁मुख	-2446
▁मिशन	-2447
▁फरवरी	-2448
▁णी	-2449
▁ुआ	-2450
▁उपा	-2451
▁मेरा	-2452
▁शांत	-2453
▁ालिका	-2454
▁टा	-2455
▁ुज	-2456
▁र्य	-2457
▁उपाध	-2458
▁L	-2459
▁धाल	-2460
▁कृषि	-2461
▁संसद	-2462
▁बालिग	-2463
▁राजेश	-2464
▁बीते	-2465
▁लगता	-2466
▁नलाइन	-2467
▁मुद्द	-2468
▁राध	-2469
▁रेट	-2470
▁तेल	-2471
▁ैंड	-2472
▁तेजी	-2473
▁सूर्य	-2474
▁ंध	-2475
▁काउ	-2476
▁हनु	-2477
▁आवाज	-2478
▁घरों	-2479
▁चांद	-2480
▁छत्त	-2481
▁कदम	-2482
▁ठाक	-2483
▁लेते	-2484
▁गर	-2485
▁हाउस	-2486
▁सीटें	-2487
▁वर	-2488
▁र्थिक	-2489
▁सिविल	-2490
▁ीश	-2491
▁गार	-2492
▁यदि	-2493
▁ज्ञात	-2494
▁बीर	-2495
ीर	-2496
▁दीपक	-2497
▁इलेक्	-2498
▁ृत	-2499
▁नोटिस	-2500
▁ः	-2501
▁ेला	-2502
▁फीसदी	-2503
▁बताते	-2504
▁फाय	-2505
▁ायक	-2506
▁ास्त	-2507
▁पॉ	-2508
र्क	-2509
▁छह	-2510
▁रहेगी	-2511
▁ोक	-2512
▁फंस	-2513
▁पौध	-2514
▁ारं	-2515
▁मालिक	-2516
▁लाका	-2517
▁्यास	-2518
▁ास्कर	-2519
▁लेख	-2520
▁ंस्था	-2521
▁कमल	-2522
▁क्यू	-2523
▁जमकर	-2524
▁ारंभ	-2525
्याम	-2526
▁नेट	-2527
▁विषय	-2528
▁श्याम	-2529
▁अर्	-2530
▁लाकात	-2531
ताह	-2532
▁मू	-2533
▁सेव	-2534
▁एक्ट	-2535
▁बेटा	-2536
▁शाला	-2537
▁आयु	-2538
▁चले	-2539
▁भजन	-2540
▁हाय	-2541
▁धालु	-2542
▁प्ताह	-2543
▁आइ	-2544
▁ाठ	-2545
▁मैन	-2546
▁सीध	-2547
▁तस्कर	-2548
ोध	-2549
गढ़	-2550
▁धाम	-2551
▁करेगा	-2552
▁नाराज	-2553
▁ीसगढ़	-2554
▁जू	-2555
▁कला	-2556
▁गैंग	-2557
▁जेक्ट	-2558
गार	-2559
▁ोप	-2560
▁विज	-2561
▁सला	-2562
▁विष्य	-2563
▁ोजगार	-2564
▁मण	-2565
▁ईडी	-2566
▁लें	-2567
▁उतार	-2568
▁हनुम	-2569
▁डर	-2570
▁सफर	-2571
▁r	-2572
▁खाल	-2573
▁देह	-2574
▁िरासत	-2575
▁वती	-2576
▁संब	-2577
▁डायर	-2578
▁मनोज	-2579
▁सामना	-2580
हम्	-2581
▁ब्द	-2582
▁चौरा	-2583
▁मोहम्	-2584
▁िस्टम	-2585
▁ण्ड	-2586
▁सहायक	-2587
▁ेली	-2588
▁ेव	-2589
▁पीट	-2590
▁लाश	-2591
▁पचार	-2592
▁ूत	-2593
▁ेरी	-2594
▁ठाकुर	-2595
▁m	-2596
▁आव	-2597
▁अपील	-2598
▁रहती	-2599
▁फर्जी	-2600
▁जुड़े	-2601
▁संबोध	-2602
▁्रताप	-2603
▁दूसरा	-2604
▁रेप	-2605
▁हरि	-2606
▁पालन	-2607
▁मंच	-2608
▁यूज	-2609
▁ड़े	-2610
▁नत	-2611
▁हाज	-2612
▁हल	-2613
▁खुलास	-2614
▁दयपुर	-2615
▁एग्	-2616
▁आतंक	-2617
▁श्रम	-2618
▁सीरीज	-2619
▁मिट	-2620
▁जिसकी	-2621
▁हरी	-2622
▁ियम	-2623
ूक	-2624
▁ेग	-2625
▁हिम	-2626
▁हाराज	-2627
▁नार	-2628
▁इन्ह	-2629
▁ोत्सव	-2630
▁राठ	-2631
▁ंचालन	-2632
▁सरा	-2633
▁अनिल	-2634
▁राजा	-2635
▁सुधार	-2636
▁वां	-2637
▁ंजाम	-2638
▁साहू	-2639
▁मतदात	-2640
▁टेन	-2641
▁तवाल	-2642
▁काउंट	-2643
▁देशों	-2644
▁खड़े	-2645
▁लाकों	-2646
▁सुनील	-2647
▁गरी	-2648
▁राइल	-2649
▁ोर्स	-2650
▁रिश	-2651
▁ार्षद	-2652
▁टक	-2653
▁चली	-2654
▁सत्र	-2655
▁29	-2656
▁रमा	-2657
▁्लो	-2658
▁ंपर्क	-2659
▁चौराह	-2660
▁विवाह	-2661
▁देंगे	-2662
▁स्लिम	-2663
▁फार	-2664
▁व्र	-2665
▁ंदोल	-2666
▁मिलते	-2667
▁स्वीर	-2668
▁िद	-2669
ञा	-2670
▁अच्छी	-2671
▁तंत्र	-2672
▁पेट्	-2673
▁योगी	-2674
▁कंपनि	-2675
▁छु	-2676
▁नाई	-2677
▁वर्तम	-2678
▁ाइड	-2679
▁तवाली	-2680
▁बच्ची	-2681
▁र्ग	-2682
साह	-2683
▁त्साह	-2684
▁फाइनल	-2685
▁ामलों	-2686
ांस	-2687
▁लेट	-2688
▁ांत	-2689
▁चना	-2690
▁मेह	-2691
▁जैसी	-2692
▁मंडी	-2693
▁लपुर	-2694
▁रज	-2695
▁बैठे	-2696
▁पोल	-2697
▁जंगल	-2698
▁स्टा	-2699
▁िहार	-2700
▁एक्ट्	-2701
ौत	-2702
▁V	-2703
▁नाग	-2704
ेशल	-2705
▁तिथि	-2706
▁चुनौत	-2707
▁्पेशल	-2708
▁पैर	-2709
▁शान	-2710
▁पर्व	-2711
▁र्सि	-2712
▁सोच	-2713
▁ग्न	-2714
▁कृति	-2715
▁अच्छा	-2716
▁सख	-2717
▁नक्	-2718
▁पहन	-2719
▁फसल	-2720
▁बाज	-2721
▁ेरि	-2722
▁ंदोलन	-2723
तीश	-2724
▁मगर	-2725
▁नीतीश	-2726
▁रांच	-2727
यों	-2728
▁ेंग	-2729
▁भु	-2730
▁सेल	-2731
▁ाएं	-2732
▁;	-2733
▁चर	-2734
▁सोने	-2735
▁आद	-2736
▁ीरे	-2737
▁्राइ	-2738
▁दित्य	-2739
▁ामाजि	-2740
▁फ्र	-2741
ुष	-2742
▁डीसी	-2743
▁श्किल	-2744
▁सुरक्	-2745
▁गति	-2746
▁्रेड	-2747
▁केजरी	-2748
▁H	-2749
▁इंज	-2750
▁यात	-2751
▁ुद्द	-2752
▁क्व	-2753
▁र्प	-2754
▁िला	-2755
▁ांसी	-2756
▁सालों	-2757
▁ड़त	-2758
▁यून	-2759
पाद	-2760
▁टॉप	-2761
▁पंच	-2762
▁मोह	-2763
▁त्पाद	-2764
▁देखकर	-2765
▁चढ़	-2766
ञापन	-2767
▁अलर्ट	-2768
▁्ञापन	-2769
▁जार	-2770
▁पहल	-2771
▁मौका	-2772
▁मल	-2773
▁लका	-2774
▁पुरी	-2775
▁सत्ता	-2776
▁स्तार	-2777
▁्वामी	-2778
▁माय	-2779
▁कीय	-2780
▁दबा	-2781
▁अतिथि	-2782
▁थापित	-2783
▁c	-2784
▁गज	-2785
▁तिक	-2786
▁िनी	-2787
▁ुजरात	-2788
टो	-2789
▁ल्ड	-2790
▁खो	-2791
▁शिविर	-2792
▁साइबर	-2793
▁हेम	-2794
▁ावर	-2795
▁मरीज	-2796
▁व्रत	-2797
▁चार्	-2798
▁ेख	-2799
▁ाटा	-2800
▁्रो	-2801
▁मीणा	-2802
▁तिविध	-2803
▁रैली	-2804
▁एक्टर	-2805
▁उड़	-2806
▁िदेशक	-2807
▁िवारी	-2808
▁गणेश	-2809
▁चलने	-2810
▁ंचालक	-2811
▁आईटी	-2812
▁कूलों	-2813
▁सर्वे	-2814
▁्पष्ट	-2815
ॉक	-2816
▁ीएस	-2817
▁धिकतम	-2818
▁ंदा	-2819
▁इधर	-2820
▁द्ध	-2821
▁छाप	-2822
▁कैंप	-2823
▁मैने	-2824
▁सूत्र	-2825
▁ैर	-2826
▁ऑटो	-2827
▁टर्	-2828
▁ाले	-2829
▁वृद्ध	-2830
प्ट	-2831
▁60	-2832
▁फॉर्म	-2833
▁गन	-2834
▁नू	-2835
▁ाट	-2836
▁ॉक	-2837
▁ठंड	-2838
▁भ्य	-2839
▁ुनाव	-2840
▁श्वास	-2841
▁दस्	-2842
▁ाढ़	-2843
▁वितर	-2844
▁सीता	-2845
▁बिग	-2846
▁नाटक	-2847
▁मुकेश	-2848
▁ुनावी	-2849
▁तू	-2850
▁खाली	-2851
▁हमेश	-2852
▁प्लान	-2853
▁एप	-2854
▁टोल	-2855
▁बढ़ा	-2856
▁मनाया	-2857
▁35	-2858
▁गईं	-2859
▁पाए	-2860
▁पुरुष	-2861
▁हमेशा	-2862
▁आकर	-2863
▁एशन	-2864
▁ोटी	-2865
▁उसमें	-2866
▁रने	-2867
▁युद्ध	-2868
▁अंग	-2869
▁एसड	-2870
▁गड़	-2871
▁श्रे	-2872
▁कब्जे	-2873
नेश	-2874
▁लू	-2875
▁सप	-2876
▁पूजन	-2877
ुड	-2878
▁क्स	-2879
▁नेस	-2880
▁पेपर	-2881
▁र्सिट	-2882
▁ुझ	-2883
▁संविध	-2884
▁चार्ज	-2885
▁देता	-2886
▁मनीष	-2887
▁लिस्ट	-2888
▁ार्टम	-2889
▁लीव	-2890
▁ाइट	-2891
▁एयरप	-2892
▁यक	-2893
▁वत	-2894
▁पन्न	-2895
▁पारी	-2896
▁राजी	-2897
▁मानित	-2898
▁यूनिव	-2899
JP	-2900
▁पस	-2901
▁पार्ट	-2902
▁डो	-2903
▁वेस्ट	-2904
▁ंदे	-2905
▁पूछा	-2906
▁ावरण	-2907
▁चयन	-2908
▁गोपाल	-2909
▁प्लेट	-2910
▁ागरूक	-2911
▁ईर	-2912
▁रीजों	-2913
▁तीसरे	-2914
भाव	-2915
▁घू	-2916
▁अमृत	-2917
▁शीर्	-2918
▁्रभाव	-2919
er	-2920
▁शल	-2921
▁ोध	-2922
▁खूब	-2923
▁साइड	-2924
▁इज	-2925
▁खुश	-2926
▁मश	-2927
▁यल	-2928
▁शिप	-2929
▁ैसा	-2930
▁कमरे	-2931
▁ास्ट	-2932
▁ानपुर	-2933
▁ईरान	-2934
▁र्ल्ड	-2935
▁िनारे	-2936
▁सन	-2937
▁म्प	-2938
▁ांट	-2939
▁ुद्ध	-2940
▁वजन	-2941
▁ावा	-2942
▁ावधान	-2943
▁बॉल	-2944
▁ास्तव	-2945
्स	-2946
▁ेंट्स	-2947
▁चौथ	-2948
सून	-2949
▁उनको	-2950
▁देश्य	-2951
▁सख्त	-2952
▁हादसा	-2953
शीन	-2954
▁ड़ी	-2955
▁मशीन	-2956
▁ंत्रि	-2957
▁नज	-2958
▁इनक	-2959
▁एसएस	-2960
▁रिश्त	-2961
▁काश	-2962
▁ुला	-2963
▁सेंस	-2964
▁in	-2965
▁आठ	-2966
▁वाचन	-2967
▁वानी	-2968
▁फार्म	-2969
▁मैनेज	-2970
▁काब	-2971
▁रूस	-2972
▁विधि	-2973
▁सफलता	-2974
▁शोध	-2975
▁आरती	-2976
▁समान	-2977
▁सुनि	-2978
फर	-2979
▁बेहद	-2980
▁लाया	-2981
▁ाराम	-2982
▁डीज	-2983
▁ाइल	-2984
▁कथा	-2985
▁प्रथम	-2986
▁ेप	-2987
▁सुपर	-2988
▁धार्म	-2989
▁ब्लॉक	-2990
▁कू	-2991
▁तलब	-2992
▁जिलाध	-2993
▁जिसका	-2994
▁ुम	-2995
▁शरी	-2996
▁मुदाय	-2997
▁अली	-2998
▁चौह	-2999
▁सत्य	-3000
▁परेशन	-3001
▁रवाना	-3002
▁ीच	-3003
▁गणना	-3004
▁पशु	-3005
▁जुर्	-3006
▁शुक्	-3007
▁प्रीत	-3008
▁ाच	-3009
▁्ला	-3010
▁ूनतम	-3011
▁नाव	-3012
▁वही	-3013
▁ब्ब	-3014
▁लंबे	-3015
▁लाम	-3016
▁लॉन	-3017
▁चौकी	-3018
नीक	-3019
▁आता	-3020
▁बाकी	-3021
▁मोटर	-3022
▁जुर्ग	-3023
▁तकनीक	-3024
▁संतोष	-3025
▁प्रेस	-3026
▁्रखंड	-3027
▁अवध	-3028
▁पंड	-3029
▁टेक्	-3030
▁नुमान	-3031
▁़ी	-3032
▁कौर	-3033
▁चंड	-3034
▁हने	-3035
▁शप	-3036
▁कोच	-3037
▁लाइट	-3038
▁क्रमण	-3039
▁भ्यर्	-3040
▁यंत्र	-3041
▁प्लाई	-3042
▁माधान	-3043
▁लीवुड	-3044
▁पाट	-3045
▁पैसा	-3046
▁एसो	-3047
▁दीक	-3048
▁द्र	-3049
▁फीट	-3050
▁आदमी	-3051
▁शरीर	-3052
▁ानसून	-3053
▁िपक्ष	-3054
्वाल	-3055
▁गाय	-3056
▁िस्ट	-3057
▁ग्वाल	-3058
▁र्पित	-3059
▁म्ब	-3060
▁हित	-3061
▁J	-3062
ंता	-3063
▁जनप	-3064
▁चौहान	-3065
▁दह	-3066
▁इनके	-3067
▁आखि	-3068
▁कहानी	-3069
▁राकेश	-3070
▁मिस	-3071
▁आसान	-3072
▁उज	-3073
▁ीने	-3074
▁आखिरी	-3075
▁बताई	-3076
▁संदीप	-3077
hi	-3078
▁O	-3079
▁ोभ	-3080
▁एसोसि	-3081
▁कृतिक	-3082
▁गार्ड	-3083
▁हरण	-3084
▁चिंता	-3085
▁मारने	-3086
▁दब	-3087
▁ोई	-3088
▁प्य	-3089
▁रखे	-3090
▁़ियों	-3091
णाम	-3092
▁ाकू	-3093
▁इमेज	-3094
▁गुजर	-3095
▁भाषा	-3096
▁सीजन	-3097
▁दाखिल	-3098
▁रिणाम	-3099
▁जता	-3100
▁वकी	-3101
▁ाठी	-3102
▁एसआई	-3103
▁जमान	-3104
▁BJP	-3105
▁जोन	-3106
▁इतनी	-3107
▁मार्ट	-3108
▁र्षों	-3109
▁ाइवेट	-3110
▁साय	-3111
▁हता	-3112
▁लाने	-3113
▁इंडस्	-3114
▁र्ण	-3115
▁मानव	-3116
▁सूर	-3117
▁ेक्स	-3118
ew	-3119
▁ख्	-3120
▁ैन	-3121
▁टेक	-3122
▁ापुर	-3123
▁गैर	-3124
▁टरी	-3125
▁नवी	-3126
▁साझ	-3127
▁पसंद	-3128
▁ानंद	-3129
▁स्टाफ	-3130
▁नश	-3131
▁निश	-3132
▁खाना	-3133
▁प्रेर	-3134
▁धानी	-3135
▁कालीन	-3136
▁िश्नर	-3137
▁योजक	-3138
nd	-3139
बाज	-3140
▁80	-3141
▁ासन	-3142
▁कहां	-3143
ौल	-3144
▁रुख	-3145
▁लाह	-3146
▁हेड	-3147
▁द्वि	-3148
▁वकील	-3149
▁नने	-3150
▁िंट	-3151
▁सेना	-3152
▁इंस्ट	-3153
▁सिय	-3154
▁बादल	-3155
▁फु	-3156
▁शुक्ल	-3157
▁शुल्क	-3158
▁ुलाया	-3159
▁ाती	-3160
al	-3161
▁ुरी	-3162
▁लॉन्च	-3163
▁चोर	-3164
▁र्जी	-3165
▁मान्य	-3166
▁रॉ	-3167
▁रच	-3168
▁शपथ	-3169
▁अहमद	-3170
▁ाउंड	-3171
▁ट्रैफ	-3172
▁रविंद	-3173
▁एससी	-3174
▁सूची	-3175
▁प्यार	-3176
▁रान	-3177
ामी	-3178
▁70	-3179
▁श्न	-3180
▁मिलता	-3181
▁मॉड	-3182
▁त्ती	-3183
▁घो	-3184
▁ोस	-3185
▁पीठ	-3186
▁बीआई	-3187
▁हायता	-3188
▁खाने	-3189
▁सेंट	-3190
▁भावना	-3191
▁रोकने	-3192
at	-3193
▁पथ	-3194
▁ोन	-3195
▁अरु	-3196
▁जम्म	-3197
▁डिप्ट	-3198
▁किमी	-3199
▁दबाव	-3200
▁जम्मू	-3201
▁फायदा	-3202
▁ंथ	-3203
▁ेंगी	-3204
▁माहौल	-3205
▁रफ्	-3206
▁शूट	-3207
▁साथी	-3208
▁प्रशि	-3209
▁ामी	-3210
▁ीकृत	-3211
ूह	-3212
▁गली	-3213
▁अरुण	-3214
▁चेयर	-3215
▁सोनी	-3216
▁ल्ह	-3217
▁जमानत	-3218
▁दिवास	-3219
▁उज्	-3220
▁ड्य	-3221
▁तान	-3222
▁िकल	-3223
▁उक्त	-3224
▁समूह	-3225
▁साइट	-3226
मता	-3227
▁र्श	-3228
▁क्सर	-3229
▁ड्यूट	-3230
▁चू	-3231
▁ड़क	-3232
▁गरीब	-3233
▁कक्षा	-3234
▁टैक्स	-3235
▁पारा	-3236
मति	-3237
▁रक	-3238
▁निग	-3239
▁ल्यू	-3240
▁नुमति	-3241
▁रेलिय	-3242
▁गोद	-3243
▁नस	-3244
▁फ्ट	-3245
▁ीआई	-3246
▁क्त	-3247
▁फैक्	-3248
▁ाउंस	-3249
▁ाइकिल	-3250
▁्षमता	-3251
लर	-3252
▁ंगा	-3253
▁सैनी	-3254
▁W	-3255
▁रथ	-3256
▁प्तान	-3257
▁बचाने	-3258
▁एडव	-3259
ष्प	-3260
▁जॉ	-3261
▁ाभ	-3262
▁सार्	-3263
▁्क	-3264
▁ंगल	-3265
▁वेल	-3266
▁ीजी	-3267
▁दीवा	-3268
▁ुर्गा	-3269
▁अंब	-3270
▁चालित	-3271
▁जानते	-3272
▁मध्यप	-3273
▁्रिंस	-3274
or	-3275
ैन	-3276
▁जिद	-3277
▁लोड	-3278
▁ाइप	-3279
▁संभाल	-3280
▁िये	-3281
▁थानाध	-3282
▁दिव्य	-3283
▁दृ	-3284
▁पड़े	-3285
▁घूम	-3286
▁तरा	-3287
▁नर्	-3288
▁र्भ	-3289
▁ोयल	-3290
▁सियस	-3291
▁काबले	-3292
नेट	-3293
परव	-3294
▁वस	-3295
▁200	-3296
▁द्द	-3297
▁उज्ज	-3298
▁ट्टी	-3299
▁लापरव	-3300
▁मंजू	-3301
▁्त्री	-3302
▁खर	-3303
▁ाउन	-3304
▁कांत	-3305
▁तावे	-3306
▁विवे	-3307
▁धो	-3308
▁बहु	-3309
▁वेब	-3310
▁ापन	-3311
▁डिस्	-3312
▁%	-3313
दमा	-3314
▁कोर	-3315
▁टका	-3316
▁डूब	-3317
▁ीरा	-3318
▁रेफर	-3319
▁ुकदमा	-3320
▁ॉर्टम	-3321
पंच	-3322
▁ीह	-3323
▁ूर	-3324
▁देग	-3325
▁निभ	-3326
▁सेन	-3327
▁्ती	-3328
▁बारा	-3329
▁तारीख	-3330
▁सरपंच	-3331
▁ाब	-3332
▁एफआई	-3333
▁माप्त	-3334
▁नील	-3335
▁सेट	-3336
▁करनी	-3337
▁फैसले	-3338
▁बूथ	-3339
▁हिं	-3340
▁ेमी	-3341
▁स्टेट	-3342
▁इंडि	-3343
▁त्मक	-3344
▁तावेज	-3345
▁ाफ	-3346
▁कने	-3347
▁ेवर	-3348
▁्सा	-3349
▁क्की	-3350
▁फि	-3351
▁ज्ज	-3352
▁बरस	-3353
▁जताई	-3354
▁र्जर	-3355
▁र्जु	-3356
▁वादी	-3357
▁ीपुर	-3358
▁लीग	-3359
▁नियु	-3360
▁एक्शन	-3361
▁ाएंगे	-3362
▁कव	-3363
▁पलट	-3364
▁ियन	-3365
▁बेस	-3366
▁त्ता	-3367
▁बीसी	-3368
▁रखते	-3369
▁र्जुन	-3370
▁ांच	-3371
▁ाजी	-3372
▁चंडी	-3373
▁हेल्	-3374
▁ानें	-3375
▁नाड	-3376
▁मॉडल	-3377
▁रेस्	-3378
▁्ट्र	-3379
▁चांदी	-3380
▁रास्त	-3381
▁ॉट	-3382
▁करवाई	-3383
▁श्त	-3384
▁ागत	-3385
▁गौरव	-3386
▁राजीव	-3387
▁घट	-3388
▁रभ	-3389
▁अरब	-3390
▁कस्	-3391
▁कुश	-3392
▁ऑस्ट	-3393
▁डीएम	-3394
▁पावर	-3395
▁ोहल्ल	-3396
▁मोर्च	-3397
ews	-3398
▁ठेक	-3399
▁अश्	-3400
▁जाल	-3401
▁ुंड	-3402
▁नर्स	-3403
▁दैन	-3404
▁हंग	-3405
▁तुलन	-3406
▁िलास	-3407
▁सकेंग	-3408
वट	-3409
▁45	-3410
▁रकार	-3411
▁हमारा	-3412
▁िरावट	-3413
▁लील	-3414
▁टाइम	-3415
▁पुरस्	-3416
▁ुराने	-3417
▁फें	-3418
▁भरा	-3419
▁माइ	-3420
▁र्च	-3421
▁ारण	-3422
▁्रति	-3423
▁त्येक	-3424
▁दैनिक	-3425
▁लकाता	-3426
▁स्टोर	-3427
▁दस	-3428
▁दाम	-3429
▁नकर	-3430
▁फेंक	-3431
▁सर्च	-3432
▁थापना	-3433
▁ंडर	-3434
▁मास	-3435
▁लाई	-3436
▁ट्रॉ	-3437
▁्तीफ	-3438
▁रग	-3439
▁्रदीप	-3440
▁मर	-3441
▁रमेश	-3442
▁क्लास	-3443
▁ूद	-3444
▁ल्प	-3445
▁कारा	-3446
▁सलाह	-3447
▁मुक्त	-3448
▁वसूल	-3449
▁संभव	-3450
▁शिकार	-3451
▁िब	-3452
▁मणि	-3453
▁यान	-3454
▁माने	-3455
▁k	-3456
▁ठगी	-3457
▁रबा	-3458
▁िंड	-3459
▁क्कत	-3460
▁यमित	-3461
▁्याप	-3462
▁करियर	-3463
▁ंभ	-3464
▁कर्ष	-3465
▁गाड़	-3466
▁होनी	-3467
▁आगामी	-3468
▁शर	-3469
▁ूल	-3470
▁गोर	-3471
▁ॉक्स	-3472
▁विशाल	-3473
▁हिंसा	-3474
▁छठ	-3475
▁ॉप	-3476
▁उल्	-3477
▁्वच	-3478
▁प्रद	-3479
▁ेडिय	-3480
▁वीकार	-3481
▁ीख	-3482
▁ंकी	-3483
▁इंच	-3484
▁वेश	-3485
▁डॉलर	-3486
▁बीएस	-3487
▁स्ती	-3488
▁वितरण	-3489
▁साबित	-3490
▁एर	-3491
▁्यो	-3492
▁संदेश	-3493
▁नशे	-3494
▁हरे	-3495
▁टायर	-3496
▁रंजन	-3497
▁उठाया	-3498
▁मांगी	-3499
▁टिस	-3500
▁साउ	-3501
▁ाइस	-3502
▁बाबू	-3503
▁एफआईआ	-3504
▁चंडीग	-3505
आर	-3506
▁मेलन	-3507
▁ुटेज	-3508
▁ॉर्म	-3509
▁ट्रेट	-3510
▁जाया	-3511
▁ऑस्ट्	-3512
▁तालाब	-3513
▁तीसरी	-3514
▁पब	-3515
▁नहर	-3516
▁खाते	-3517
▁इंटरव	-3518
▁मूल्य	-3519
▁कोट	-3520
▁पुष्प	-3521
▁ोधपुर	-3522
▁छत	-3523
▁शै	-3524
▁ion	-3525
▁राट	-3526
▁क्लब	-3527
▁मियों	-3528
▁आजा	-3529
▁मीक्ष	-3530
▁इसको	-3531
▁एसटी	-3532
▁्टैंड	-3533
▁िकर	-3534
▁ुगत	-3535
▁बुला	-3536
▁आती	-3537
▁आजाद	-3538
▁आपकी	-3539
▁ष्ठा	-3540
▁छापेम	-3541
▁कैद	-3542
▁नवर	-3543
▁ेन्	-3544
▁रोड़	-3545
▁यूनिट	-3546
▁खी	-3547
▁मक	-3548
▁यं	-3549
▁अनुभ	-3550
▁वाड़ा	-3551
▁िनमें	-3552
जीव	-3553
माण	-3554
▁काबू	-3555
▁ंघर्ष	-3556
▁चाहता	-3557
▁ुगतान	-3558
▁्रमाण	-3559
हीद	-3560
▁गठन	-3561
▁फ्त	-3562
▁ोहर	-3563
▁क्का	-3564
▁च्चा	-3565
▁शहीद	-3566
▁कनेक्	-3567
▁ग्रहण	-3568
▁नक्सल	-3569
▁हालात	-3570
▁िक्रम	-3571
▁वहन	-3572
▁ावल	-3573
▁अर्थ	-3574
▁साउथ	-3575
▁हाईवे	-3576
▁ोटिंग	-3577
▁CM	-3578
▁ॉलि	-3579
▁ुद्दे	-3580
णस	-3581
▁बैग	-3582
▁ानू	-3583
▁िनो	-3584
▁इंस्प	-3585
▁विमान	-3586
▁ाराणस	-3587
▁ोफ	-3588
▁डिव	-3589
▁ौली	-3590
▁नाना	-3591
▁सीबी	-3592
▁बध	-3593
▁रद्द	-3594
▁ीज	-3595
▁नती	-3596
▁दूरी	-3597
▁शाना	-3598
▁श्वर	-3599
▁ंगर	-3600
▁भीतर	-3601
▁अनुभव	-3602
▁दर्जन	-3603
da	-3604
le	-3605
▁बेर	-3606
▁िकस	-3607
▁ीएच	-3608
▁क्रि	-3609
▁पैदा	-3610
▁ुरानी	-3611
▁नवीन	-3612
▁िकसित	-3613
▁कोटा	-3614
▁दिग्ध	-3615
▁ार्थी	-3616
▁लभ	-3617
▁सिन	-3618
▁लाना	-3619
▁ुत	-3620
▁ॉन्	-3621
▁दर्द	-3622
▁िंदा	-3623
▁ोरों	-3624
▁ंश	-3625
▁टें	-3626
▁घाटन	-3627
▁खि	-3628
▁ुब	-3629
▁लोह	-3630
▁विन	-3631
▁ाका	-3632
▁अच्छे	-3633
▁लेबाज	-3634
▁ट्ट	-3635
▁हंगाम	-3636
रीय	-3637
▁किंग	-3638
▁लेना	-3639
▁सोना	-3640
▁्तरीय	-3641
▁फैंस	-3642
▁राना	-3643
▁प्राण	-3644
ri	-3645
▁हव	-3646
▁भरो	-3647
▁रेव	-3648
▁भीषण	-3649
▁र्विस	-3650
▁्रांस	-3651
▁्रेशन	-3652
▁गोव	-3653
▁जनक	-3654
▁याज	-3655
▁मर्थक	-3656
▁बुल	-3657
▁ीका	-3658
▁तुर्	-3659
▁्लांट	-3660
ष्णु	-3661
▁मता	-3662
▁ामक	-3663
▁ीरज	-3664
▁खुशी	-3665
▁प्रज	-3666
▁बंदी	-3667
▁भरोस	-3668
▁संगीत	-3669
▁िष्णु	-3670
्लि	-3671
▁तम	-3672
▁पब्लि	-3673
▁लाखों	-3674
▁भ्र	-3675
▁ेलर	-3676
▁भक्त	-3677
▁र्जन	-3678
▁सराय	-3679
▁ितना	-3680
▁िन्द	-3681
▁रांची	-3682
▁्च	-3683
▁जित	-3684
▁ानक	-3685
▁रेंज	-3686
▁ांवों	-3687
▁कश्	-3688
▁धोख	-3689
▁रेज	-3690
▁रोग	-3691
▁उपाय	-3692
▁महाप	-3693
▁ूंगा	-3694
▁लाकार	-3695
▁कंट	-3696
▁डाय	-3697
▁यश	-3698
▁यकाल	-3699
▁पवन	-3700
▁ेंच	-3701
▁सुंदर	-3702
▁ीटिंग	-3703
▁्यापक	-3704
▁नंद	-3705
▁मंज	-3706
▁फाइल	-3707
▁फ्ला	-3708
▁रहीं	-3709
▁हस्त	-3710
▁हफ	-3711
▁गरा	-3712
▁मीर	-3713
▁ाणी	-3714
▁सैनिक	-3715
▁हटाने	-3716
▁ओम	-3717
▁ेडियम	-3718
▁मच	-3719
▁ौत	-3720
▁आंख	-3721
▁अक्ष	-3722
▁आश्व	-3723
▁संव	-3724
▁नतीज	-3725
▁कामना	-3726
▁कठ	-3727
▁राधिक	-3728
▁ऊंच	-3729
▁मुह	-3730
▁हिर	-3731
▁ंपिक	-3732
▁बजकर	-3733
▁सूरज	-3734
▁ैमरे	-3735
▁जुर्म	-3736
▁पढ़ाई	-3737
▁्वच्छ	-3738
▁एएस	-3739
▁लीट	-3740
▁ोवि	-3741
▁टिप्	-3742
▁रदार	-3743
▁िनोद	-3744
▁टेक्न	-3745
▁शहरों	-3746
▁गि	-3747
▁वल	-3748
▁फूल	-3749
▁बाई	-3750
▁मरा	-3751
▁रसा	-3752
▁सबक	-3753
▁विवेक	-3754
▁सुरेश	-3755
▁बम	-3756
▁मप	-3757
▁ंसर	-3758
▁जात	-3759
▁सुन	-3760
▁आखिर	-3761
रेन	-3762
▁तिन	-3763
▁ोटर	-3764
▁ोफे	-3765
▁किशन	-3766
▁सोरेन	-3767
ंका	-3768
▁गाज	-3769
▁गैस	-3770
▁ंकित	-3771
▁आशंका	-3772
▁चाहती	-3773
▁पंडित	-3774
▁बिनेट	-3775
▁शानदा	-3776
▁श्मीर	-3777
▁ाख	-3778
▁चीज	-3779
▁जगद	-3780
▁टीच	-3781
▁कब्ज	-3782
▁एरिया	-3783
▁दिनेश	-3784
▁न्यूज	-3785
▁ंह	-3786
▁लेश	-3787
▁ल्ट	-3788
▁आरपी	-3789
▁जिंद	-3790
▁नीता	-3791
▁बंधक	-3792
▁गोल्ड	-3793
▁भागों	-3794
▁कां	-3795
▁गुल	-3796
▁ेले	-3797
▁News	-3798
▁कारि	-3799
▁जयंत	-3800
▁ड़ताल	-3801
▁्राइम	-3802
▁पदों	-3803
▁पाली	-3804
▁वादा	-3805
▁स्टल	-3806
▁ांज	-3807
▁ँ	-3808
▁बचाव	-3809
▁वजनिक	-3810
▁इन्	-3811
▁त्मा	-3812
▁ोविंद	-3813
▁बुक	-3814
▁वाट	-3815
▁पीएस	-3816
▁प्रव	-3817
▁ल्की	-3818
▁जगहों	-3819
▁संजीव	-3820
▁खिलेश	-3821
▁वर्तन	-3822
▁िक्री	-3823
▁िन्हा	-3824
▁पें	-3825
▁ियो	-3826
▁ेती	-3827
▁छुट्	-3828
▁रोशन	-3829
▁ल्टी	-3830
▁ंत्रण	-3831
केल	-3832
▁ीष	-3833
जूदा	-3834
▁ंशु	-3835
▁लुध	-3836
▁अकेल	-3837
▁पत्थ	-3838
▁रेंड	-3839
▁ितनी	-3840
▁निशान	-3841
▁ौजूदा	-3842
ur	-3843
▁ंजन	-3844
ya	-3845
▁कत	-3846
▁गौतम	-3847
▁भूषण	-3848
▁विस्	-3849
▁वेतन	-3850
▁ाक्ष	-3851
▁समस्त	-3852
▁ियमों	-3853
▁90	-3854
▁ऐप	-3855
▁अनि	-3856
▁ाहक	-3857
▁रपुर	-3858
▁िताब	-3859
▁क्रेन	-3860
▁जानिए	-3861
▁रक्षक	-3862
▁p	-3863
▁ंबी	-3864
▁फसर	-3865
▁ंबित	-3866
▁धरना	-3867
▁ोफेसर	-3868
▁रौ	-3869
▁ोद	-3870
▁सका	-3871
▁टर्न	-3872
▁ृत्य	-3873
▁चेताव	-3874
▁दरवाज	-3875
▁फसरों	-3876
▁सांस्	-3877
▁ूठ	-3878
▁ऊर्	-3879
▁पंक	-3880
▁आपका	-3881
▁गोरख	-3882
▁िसने	-3883
▁मिलती	-3884
▁लुधिय	-3885
▁पिल	-3886
▁ांप	-3887
▁ातक	-3888
▁्रू	-3889
▁ंकड़	-3890
▁पाने	-3891
▁बद्ध	-3892
▁बादी	-3893
▁ावास	-3894
▁ाइयों	-3895
▁कच	-3896
▁ंकट	-3897
▁ाद्य	-3898
▁चलाने	-3899
▁v	-3900
▁ोसी	-3901
▁निया	-3902
▁अजम	-3903
▁गीत	-3904
▁बीन	-3905
▁िशन	-3906
▁मति	-3907
▁ांश	-3908
▁ानि	-3909
▁झा	-3910
▁गना	-3911
▁ातें	-3912
▁हराया	-3913
▁एट	-3914
▁अपर	-3915
▁चारों	-3916
▁िदेशी	-3917
▁्रेंस	-3918
▁पत	-3919
▁शाख	-3920
▁एमपी	-3921
▁काबल	-3922
▁ांगा	-3923
▁ालि	-3924
▁ग्नि	-3925
▁ेक्ट	-3926
▁धव	-3927
▁दलों	-3928
▁ानना	-3929
▁पेंशन	-3930
▁दाय	-3931
▁व्ह	-3932
▁ोगा	-3933
▁स्टे	-3934
▁ाचार	-3935
▁ट्रैक	-3936
▁पांडे	-3937
▁नाक	-3938
▁ेकर	-3939
▁ेरे	-3940
▁ट्रि	-3941
▁्यपाल	-3942
▁ंगी	-3943
▁ेटर	-3944
▁सिंग	-3945
▁दुर्ग	-3946
▁!	-3947
▁32	-3948
▁ाऊ	-3949
▁पने	-3950
▁्यक्त	-3951
▁सिया	-3952
▁ाँ	-3953
▁ैप	-3954
▁द्व	-3955
▁मंग	-3956
▁म्ह	-3957
▁लड	-3958
▁मला	-3959
▁करार	-3960
▁म्बर	-3961
▁्टिव	-3962
▁अफ	-3963
▁फत	-3964
▁500	-3965
▁मुज	-3966
▁सीम	-3967
▁िकरण	-3968
▁हब	-3969
▁केत	-3970
▁सुरा	-3971
▁दस्त	-3972
▁फ्री	-3973
▁राधा	-3974
▁अख	-3975
▁ाचल	-3976
▁कंट्	-3977
▁रंट	-3978
▁ीडी	-3979
▁ल्दी	-3980
▁र्षा	-3981
▁क्तों	-3982
▁PM	-3983
▁टोर	-3984
▁िंध	-3985
▁ियत	-3986
ंश	-3987
▁ीएसपी	-3988
▁एगा	-3989
▁रीद	-3990
▁सिम	-3991
▁ालक	-3992
▁ुओं	-3993
▁त्सव	-3994
▁लिंग	-3995
▁स्क्र	-3996
▁नै	-3997
▁घेर	-3998
▁नेह	-3999
▁पान	-4000
▁हती	-4001
▁ीपी	-4002
▁ग्री	-4003
▁मानसि	-4004
▁टाचार	-4005
▁ोव	-4006
▁ंपि	-4007
▁िते	-4008
▁त्तीस	-4009
▁अफसर	-4010
▁ट्रिक	-4011
▁श्रीव	-4012
▁ठि	-4013
▁डक्	-4014
▁दुष्	-4015
▁ईओ	-4016
▁ीओ	-4017
▁ेब	-4018
▁गीर	-4019
▁म्स	-4020
▁लाप	-4021
▁ायन	-4022
▁ट्टा	-4023
ct	-4024
▁छि	-4025
▁टेल	-4026
▁लेन	-4027
▁हली	-4028
▁िपल	-4029
▁लै	-4030
▁उन्	-4031
▁बूत	-4032
▁राद	-4033
▁वंश	-4034
▁ातर	-4035
▁ायर	-4036
▁ंदर	-4037
▁जलि	-4038
▁महत	-4039
▁रंपर	-4040
▁ंपर	-4041
▁अल्	-4042
▁तिर	-4043
▁ीआर	-4044
▁्यूट	-4045
▁ंवर	-4046
▁ायु	-4047
▁निष्	-4048
▁रहें	-4049
▁स्वत	-4050
▁भ्रष्	-4051
▁ताक	-4052
▁सुल	-4053
▁एमसी	-4054
▁पक्षी	-4055
▁पेय	-4056
▁मात्र	-4057
▁िरदार	-4058
▁ंका	-4059
▁ंग्	-4060
▁रोन	-4061
▁वाए	-4062
▁जारों	-4063
▁भारती	-4064
▁तृत	-4065
▁ट्यू	-4066
▁कर्मि	-4067
▁ाथ	-4068
▁किन	-4069
▁वाय	-4070
▁एगी	-4071
▁एसी	-4072
▁नीय	-4073
▁फ्ल	-4074
▁साव	-4075
▁ेटा	-4076
▁नमें	-4077
▁िराज	-4078
▁क्षों	-4079
▁sh	-4080
▁ख्त	-4081
▁ब्रि	-4082
▁ोहरा	-4083
▁ानूनी	-4084
▁ड्डा	-4085
▁जुल	-4086
▁्सक	-4087
▁37	-4088
▁जस	-4089
▁सेज	-4090
▁ीदार	-4091
▁जनस	-4092
▁हार्	-4093
▁ष्टि	-4094
▁हाड़	-4095
▁ra	-4096
▁अस	-4097
▁तीज	-4098
▁बेल	-4099
▁ैसे	-4100
▁ोहार	-4101
▁फ्लाइ	-4102
▁ाघ	-4103
▁र्ध	-4104
▁33	-4105
▁णव	-4106
▁फुट	-4107
▁स्त्र	-4108
▁ौज	-4109
▁रूट	-4110
▁पर्स	-4111
▁ारकर	-4112
▁ोख	-4113
▁जला	-4114
▁णाल	-4115
▁हिल	-4116
▁क्शन	-4117
▁हर्ष	-4118
▁ड़कों	-4119
▁ओड	-4120
▁शख	-4121
▁ज़ा	-4122
▁ास्टर	-4123
▁नन	-4124
▁पात	-4125
▁रंज	-4126
▁नेर	-4127
▁बोर	-4128
▁दिखा	-4129
▁जस्	-4130
▁मेट	-4131
▁सान	-4132
▁सीन	-4133
▁ीयू	-4134
▁्ते	-4135
▁नय	-4136
▁ांद	-4137
▁नक	-4138
▁अंद	-4139
▁भूप	-4140
▁तियों	-4141
▁लीक	-4142
▁ोजन	-4143
▁बढ़त	-4144
▁ायात	-4145
▁चाहे	-4146
▁रेस्ट	-4147
▁खन	-4148
▁टल	-4149
▁गिन	-4150
▁ताज	-4151
▁पिछल	-4152
▁हेश	-4153
▁ायद	-4154
▁राजप	-4155
▁निवार	-4156
▁हक	-4157
▁रंगा	-4158
▁पड़ता	-4159
▁नॉ	-4160
▁ंडल	-4161
▁ाइक	-4162
▁वेदन	-4163
▁शॉ	-4164
▁लंक	-4165
▁पीड	-4166
▁ावे	-4167
▁ुबे	-4168
▁बताए	-4169
▁ेहरा	-4170
▁्डिंग	-4171
▁माफ	-4172
▁ापा	-4173
▁बाजी	-4174
▁ेफ	-4175
▁ॉय	-4176
▁न्ह	-4177
▁ुल्	-4178
▁ोषण	-4179
▁तन	-4180
▁विर	-4181
▁सों	-4182
▁आह	-4183
▁चिन	-4184
▁ाधी	-4185
▁ेडल	-4186
▁मारा	-4187
ro	-4188
▁Ra	-4189
▁िशा	-4190
▁ीला	-4191
▁चिंग	-4192
▁जाएं	-4193
▁निंग	-4194
▁ाधीश	-4195
▁गय	-4196
▁र्ब	-4197
▁सिक्	-4198
▁ठित	-4199
▁चेहर	-4200
▁नाने	-4201
▁र्ना	-4202
▁डिल	-4203
▁फोर	-4204
▁सिख	-4205
▁थित	-4206
▁राब	-4207
▁शेष	-4208
▁वाही	-4209
▁ोल्ड	-4210
▁्रेक	-4211
▁दवा	-4212
▁ावली	-4213
▁्रस्त	-4214
ol	-4215
▁तीर	-4216
▁र्न	-4217
▁हेल	-4218
▁ेमा	-4219
▁्वय	-4220
▁ेखा	-4221
▁खुले	-4222
▁रोश	-4223
▁हान	-4224
▁ेक्शन	-4225
▁ंसल	-4226
▁बरा	-4227
▁ठग	-4228
▁रफ	-4229
▁लप	-4230
▁मिश	-4231
▁राश	-4232
▁ाल्	-4233
▁सीपी	-4234
▁खून	-4235
▁्रल	-4236
▁h	-4237
▁चीफ	-4238
▁ज्व	-4239
▁बीज	-4240
▁ोशी	-4241
▁क्ता	-4242
▁36	-4243
▁णा	-4244
▁नेक	-4245
▁फान	-4246
▁ीएल	-4247
▁ेटि	-4248
▁बग	-4249
▁ह्	-4250
▁आर्	-4251
▁काय	-4252
▁हिस	-4253
▁निरा	-4254
▁बिल्	-4255
▁ंवा	-4256
▁काे	-4257
▁गला	-4258
▁ॅ	-4259
▁जरी	-4260
▁ध्य	-4261
▁ावी	-4262
▁ौती	-4263
▁प्रश	-4264
▁जिश	-4265
▁लोन	-4266
▁ेवल	-4267
▁क्षी	-4268
de	-4269
▁गम	-4270
▁ेठ	-4271
▁ोष	-4272
▁दिक	-4273
▁निध	-4274
▁रवा	-4275
▁सीव	-4276
▁दायर	-4277
▁हिता	-4278
▁ेक्ष	-4279
▁ाओ	-4280
▁ह्म	-4281
▁मारे	-4282
▁िक्स	-4283
▁ीफ	-4284
▁ंबा	-4285
▁ैल	-4286
▁आक्	-4287
▁रोध	-4288
▁सिप	-4289
▁ारस	-4290
▁75	-4291
▁रुण	-4292
▁सेक	-4293
▁स्कू	-4294
▁हिसा	-4295
▁ाउंट	-4296
▁डन	-4297
▁मेन	-4298
▁बहा	-4299
▁लिक	-4300
▁पिट	-4301
▁दौरा	-4302
▁सारी	-4303
▁िक्ष	-4304
▁िल्ल	-4305
▁्रेज	-4306
▁g	-4307
▁कॉप	-4308
▁जर्	-4309
▁ज्य	-4310
▁नशा	-4311
▁सको	-4312
▁ीचर	-4313
▁्रॉ	-4314
▁शिया	-4315
▁गू	-4316
▁याग	-4317
▁ालव	-4318
▁गर्म	-4319
▁ोरिय	-4320
्रो	-4321
▁IP	-4322
▁जज	-4323
▁तीक	-4324
▁स्न	-4325
▁ावन	-4326
▁ीवर	-4327
▁ूवी	-4328
▁ेंज	-4329
▁ेसर	-4330
▁क्कर	-4331
▁भोज	-4332
▁सिस	-4333
▁ौड़	-4334
▁रेटर	-4335
▁ल्ला	-4336
▁्राध	-4337
▁शक	-4338
▁सॉ	-4339
▁्रै	-4340
▁रखें	-4341
▁वासी	-4342
▁हिमा	-4343
.5	-4344
▁w	-4345
▁असम	-4346
▁सिक	-4347
▁सुरे	-4348
▁तीय	-4349
▁ादर	-4350
▁राजन	-4351
▁ीके	-4352
▁टिया	-4353
▁वासि	-4354
▁ंडि	-4355
▁ीयत	-4356
▁ताया	-4357
▁टु	-4358
▁ंझ	-4359
▁चम	-4360
▁रार	-4361
▁रित	-4362
▁हंगा	-4363
▁थियों	-4364
▁ौल	-4365
▁गले	-4366
▁गान	-4367
▁याल	-4368
▁ीवाल	-4369
▁लेंगे	-4370
▁णे	-4371
▁ोश	-4372
▁48	-4373
▁ंडी	-4374
▁ादा	-4375
▁गुना	-4376
▁त्रता	-4377
in	-4378
▁इमर	-4379
▁ीति	-4380
▁्योति	-4381
re	-4382
ेत्	-4383
▁लेव	-4384
▁स्तक	-4385
▁्षेत्	-4386
ay	-4387
▁400	-4388
▁राख	-4389
▁गीता	-4390
▁मानी	-4391
▁हज	-4392
▁िद्या	-4393
▁तीश	-4394
▁FI	-4395
▁Sa	-4396
▁मय	-4397
▁सज	-4398
▁ंतर	-4399
▁जाग	-4400
▁मोद	-4401
▁वंत	-4402
▁ायी	-4403
▁ेसी	-4404
▁्लै	-4405
▁स्वतं	-4406
▁ओल	-4407
▁ाड	-4408
▁ंबे	-4409
▁रस्ट	-4410
▁इव	-4411
▁सत	-4412
▁आपस	-4413
▁ताल	-4414
▁ूरत	-4415
▁्रीक	-4416
BI	-4417
अप	-4418
▁34	-4419
▁नह	-4420
▁कअप	-4421
▁चने	-4422
▁रिक	-4423
▁गिरा	-4424
▁ॐ	-4425
han	-4426
▁आल	-4427
▁खात	-4428
▁निम	-4429
▁न्द	-4430
▁रीर	-4431
▁र्ल	-4432
▁गाने	-4433
ेंसी	-4434
▁टिफ	-4435
▁धमक	-4436
▁नही	-4437
▁रक्	-4438
▁्टे	-4439
▁रिक्	-4440
▁जेंसी	-4441
▁मार्क	-4442
▁संख्य	-4443
▁ेट्रो	-4444
ho	-4445
▁हद	-4446
▁कराए	-4447
▁टवार	-4448
▁रप	-4449
▁बान	-4450
▁्याय	-4451
▁सव	-4452
▁ेक	-4453
▁रीब	-4454
▁टिफि	-4455
▁300	-4456
▁ंता	-4457
▁तुम	-4458
▁परम	-4459
▁यास	-4460
▁ाणा	-4461
▁ारक	-4462
▁िड़	-4463
▁ॉर्ड	-4464
▁कट्	-4465
▁ोले	-4466
▁्राफ	-4467
▁ंजी	-4468
▁धूप	-4469
▁पैद	-4470
▁ुरु	-4471
▁ूक	-4472
▁ालं	-4473
ce	-4474
▁डकर	-4475
▁दाद	-4476
▁राए	-4477
▁कॉर्	-4478
ia	-4479
▁छू	-4480
▁रब	-4481
▁ढ़ी	-4482
▁लाक	-4483
▁िमी	-4484
▁ोग	-4485
ष्टि	-4486
▁कांड	-4487
▁ृष्टि	-4488
▁जनी	-4489
▁भरी	-4490
▁लेत	-4491
▁ावट	-4492
▁लल	-4493
▁बर्	-4494
▁त्रिप	-4495
▁नाश	-4496
▁र्तन	-4497
▁धा	-4498
▁खिय	-4499
▁निर्द	-4500
▁िंद्र	-4501
▁टो	-4502
▁ंडे	-4503
▁ंदी	-4504
▁तना	-4505
▁नान	-4506
▁सकी	-4507
▁कुर्	-4508
▁टीवी	-4509
▁na	-4510
▁कद	-4511
▁शाल	-4512
▁सदन	-4513
▁स्थि	-4514
▁्यूज	-4515
▁्रीन	-4516
▁तप	-4517
▁तिया	-4518
▁त्री	-4519
▁महीन	-4520
▁ामों	-4521
▁उल	-4522
▁िथ	-4523
▁पवा	-4524
▁सोम	-4525
▁ाजा	-4526
▁ींद	-4527
▁अभिय	-4528
▁जेपी	-4529
▁FIR	-4530
▁महज	-4531
▁ेबल	-4532
▁्डी	-4533
▁ेच	-4534
▁ैं	-4535
▁दूध	-4536
▁नात	-4537
▁ुक्त	-4538
▁मांगे	-4539
▁{	-4540
▁जबर	-4541
▁िट्	-4542
▁ृत्	-4543
▁ोंक	-4544
ॉज	-4545
▁ओप	-4546
▁डु	-4547
▁़्	-4548
▁दुर	-4549
▁ीरो	-4550
▁ूर्त	-4551
▁ोलॉज	-4552
▁॥	-4553
▁विद	-4554
▁ीजा	-4555
▁स्सा	-4556
▁होंग	-4557
▁b	-4558
▁nt	-4559
▁आंध	-4560
▁योर	-4561
▁रोप	-4562
▁ल्ल	-4563
▁िश्	-4564
▁वस्थ	-4565
▁उद	-4566
▁ीब	-4567
▁आना	-4568
▁िसर	-4569
▁लक	-4570
▁शिय	-4571
▁ष्म	-4572
▁ैक्स	-4573
▁55	-4574
▁िष	-4575
▁िशि	-4576
▁डीपी	-4577
▁राकर	-4578
▁ोड़ा	-4579
▁पर्यट	-4580
▁ात्रा	-4581
▁लीय	-4582
▁वाज	-4583
▁महाम	-4584
▁रियर	-4585
▁रिश्	-4586
▁ोता	-4587
▁उल्ल	-4588
▁मप्र	-4589
▁ंबर	-4590
▁सोन	-4591
▁ुरू	-4592
▁जिम	-4593
▁मांड	-4594
▁दन	-4595
▁आईप	-4596
▁औसत	-4597
▁याब	-4598
▁र्त	-4599
▁वेज	-4600
▁हड़	-4601
▁तीसर	-4602
▁स्टर	-4603
▁Re	-4604
▁ईं	-4605
▁झु	-4606
▁रों	-4607
▁श्य	-4608
▁हमल	-4609
▁हिय	-4610
▁िजि	-4611
▁क्षम	-4612
▁ब्यू	-4613
▁कन	-4614
▁थल	-4615
▁भय	-4616
▁ौन	-4617
▁उर्	-4618
▁खाद	-4619
▁छूट	-4620
▁रील	-4621
▁विध	-4622
▁ृति	-4623
▁ट्रा	-4624
▁तेंद	-4625
▁ाड़ा	-4626
▁कोल	-4627
▁ैरा	-4628
▁er	-4629
▁वण	-4630
▁लाय	-4631
▁रियल	-4632
▁्रबंध	-4633
▁UP	-4634
▁ीव	-4635
▁ंकर	-4636
▁कंड	-4637
▁माव	-4638
▁ायो	-4639
▁ॉली	-4640
▁दारों	-4641
▁ाशी	-4642
▁मस	-4643
▁ाटी	-4644
▁ांति	-4645
▁माध	-4646
▁ीएन	-4647
▁ेरो	-4648
▁ोने	-4649
▁साधन	-4650
▁ऋष	-4651
▁ध्व	-4652
▁पदक	-4653
▁सोल	-4654
▁िमा	-4655
▁ज्यो	-4656
▁ूह	-4657
▁अमन	-4658
▁फेस	-4659
▁मल्	-4660
▁विम	-4661
▁ंदिर	-4662
▁मिश्र	-4663
▁लॉज	-4664
ांड	-4665
▁ाश	-4666
▁टार	-4667
▁धीर	-4668
▁ाफा	-4669
▁नामा	-4670
▁िमांड	-4671
▁65	-4672
▁सीए	-4673
▁ूषण	-4674
▁ोला	-4675
▁श्वि	-4676
▁मिलना	-4677
▁झू	-4678
▁लत	-4679
▁रतन	-4680
▁रास	-4681
▁रेख	-4682
▁ीजन	-4683
▁एसडी	-4684
▁टियों	-4685
▁वीरें	-4686
▁ुख	-4687
▁्ब	-4688
▁थु	-4689
▁ीनी	-4690
▁्न	-4691
▁मुर	-4692
▁टेबल	-4693
▁प्रे	-4694
▁डिप	-4695
▁ाचा	-4696
▁्रु	-4697
▁ख्या	-4698
▁समझा	-4699
▁ात्रि	-4700
▁िश्ते	-4701
▁ंटी	-4702
▁आधा	-4703
▁तिश	-4704
▁बहस	-4705
▁विस	-4706
▁सली	-4707
▁सील	-4708
▁पीसी	-4709
▁ातों	-4710
▁ानते	-4711
▁िलाई	-4712
▁डल	-4713
▁करो	-4714
▁गाड	-4715
▁परा	-4716
▁मात	-4717
▁वैध	-4718
▁ेबा	-4719
▁ज्योत	-4720
▁कस	-4721
▁भले	-4722
▁यूरो	-4723
▁शियल	-4724
▁st	-4725
▁जं	-4726
▁ूख	-4727
▁जीव	-4728
▁ेतन	-4729
▁ंतु	-4730
▁शोर	-4731
▁42	-4732
▁ंगन	-4733
▁भरे	-4734
▁रवी	-4735
▁रूर	-4736
▁लाब	-4737
▁ेजी	-4738
▁्जी	-4739
▁चित्	-4740
▁रिंग	-4741
▁मुद्र	-4742
▁ंटन	-4743
▁पंप	-4744
▁ादी	-4745
▁ुड़	-4746
▁्मत	-4747
▁जह	-4748
▁भव	-4749
▁खनन	-4750
▁रिस	-4751
▁ैरि	-4752
▁ोना	-4753
▁ृद्ध	-4754
▁्राह	-4755
▁्लू	-4756
▁धारण	-4757
▁ार्त	-4758
▁मदा	-4759
▁रकम	-4760
▁विप	-4761
▁Vi	-4762
▁टव	-4763
▁150	-4764
▁ऑफर	-4765
▁वित्	-4766
▁X	-4767
▁रोम	-4768
▁अध्य	-4769
▁स्टेब	-4770
▁ंगत	-4771
▁राल	-4772
▁ीबी	-4773
▁कीम	-4774
▁ानु	-4775
▁लियन	-4776
▁वारी	-4777
▁गुन	-4778
▁जेड	-4779
▁टिव	-4780
▁िना	-4781
▁रेशन	-4782
▁न्त	-4783
▁सेस	-4784
▁ाफी	-4785
▁रस्त	-4786
▁ुदाय	-4787
▁ुक्ति	-4788
DA	-4789
▁ूप	-4790
▁ोड	-4791
▁इंग	-4792
▁ग्ग	-4793
▁रेन	-4794
▁इनका	-4795
▁र्टी	-4796
▁हनों	-4797
▁र्फ	-4798
▁ीटी	-4799
▁ंगाल	-4800
▁ेंशन	-4801
▁ैग	-4802
▁सेम	-4803
▁दशक	-4804
▁फॉर	-4805
▁बीत	-4806
▁िलक	-4807
▁्टर	-4808
▁ंगे	-4809
▁आलो	-4810
▁कूट	-4811
▁चेन	-4812
▁निट	-4813
▁निल	-4814
▁ब्ज	-4815
▁रीफ	-4816
▁ुप	-4817
▁Ind	-4818
▁जिट	-4819
▁बिन	-4820
▁मानत	-4821
ma	-4822
▁ऑन	-4823
▁चं	-4824
▁तिग	-4825
▁पंज	-4826
▁सास	-4827
▁राजे	-4828
st	-4829
▁ष्	-4830
▁खेड	-4831
▁बाध	-4832
▁कैप्	-4833
▁बाला	-4834
di	-4835
▁थ्	-4836
▁ोती	-4837
▁वाना	-4838
▁टने	-4839
▁वात	-4840
▁झांस	-4841
▁्वान	-4842
▁डक	-4843
▁्भ	-4844
▁ष्ण	-4845
▁ैना	-4846
▁ेंसी	-4847
▁आइए	-4848
▁महि	-4849
▁मुक	-4850
▁वाइ	-4851
▁शार	-4852
▁अभिन	-4853
▁बीमा	-4854
▁महान	-4855
▁कली	-4856
▁जंग	-4857
▁कक्ष	-4858
▁भोग	-4859
▁मिक	-4860
▁ोक्	-4861
▁च्छा	-4862
▁ड़ों	-4863
▁ीरिय	-4864
▁जद	-4865
▁ne	-4866
▁चक	-4867
▁रता	-4868
▁ूंग	-4869
▁बैठा	-4870
▁तरे	-4871
▁लीन	-4872
▁ात्	-4873
▁नसभा	-4874
▁वीरे	-4875
▁ीजों	-4876
▁MP	-4877
lect	-4878
▁इलाक	-4879
▁काला	-4880
▁रीवा	-4881
▁ेबाजी	-4882
AP	-4883
▁डब	-4884
▁पुन	-4885
▁अखिल	-4886
▁रीदा	-4887
▁वार्	-4888
▁ात्म	-4889
▁AI	-4890
▁ीग	-4891
▁खार	-4892
▁लॉक	-4893
▁डिट	-4894
▁ारो	-4895
▁स्वा	-4896
▁ाएगी	-4897
▁िन्ह	-4898
▁ंजर	-4899
▁बिक	-4900
▁ंद्रा	-4901
▁Ma	-4902
▁भल	-4903
▁लस	-4904
▁जरा	-4905
▁ेनी	-4906
▁ार्ज	-4907
▁लती	-4908
▁ॉर्	-4909
▁मित्	-4910
▁हल्क	-4911
▁जाएंग	-4912
▁ाये	-4913
▁नाया	-4914
▁क्षित	-4915
▁आब	-4916
▁िच	-4917
▁िछ	-4918
▁ढाई	-4919
▁पैस	-4920
▁लेब	-4921
▁ामि	-4922
▁ीड़	-4923
▁ीती	-4924
▁्मण	-4925
▁o	-4926
▁मचा	-4927
▁लों	-4928
▁्रग	-4929
▁्ले	-4930
▁लॉन्	-4931
▁चाय	-4932
▁पना	-4933
▁मीन	-4934
▁संध	-4935
▁जिस्	-4936
▁निशा	-4937
▁्लास	-4938
▁रद	-4939
▁शरद	-4940
▁ायम	-4941
▁पमान	-4942
▁बारी	-4943
▁्टिक	-4944
▁38	-4945
▁चाया	-4946
▁मुकदम	-4947
▁ऑप	-4948
▁आशा	-4949
▁फूड	-4950
▁रस्	-4951
▁्रीम	-4952
ौन	-4953
▁De	-4954
▁नग	-4955
▁नना	-4956
▁ध्यम	-4957
▁ाड़िय	-4958
▁दीव	-4959
▁धां	-4960
▁स्या	-4961
▁्रेन	-4962
▁्यादा	-4963
▁क्ट	-4964
▁मिर	-4965
▁जिसक	-4966
▁ोड़ी	-4967
▁पसी	-4968
▁भगव	-4969
▁यौन	-4970
▁शुद	-4971
▁तिष्ठ	-4972
▁वेट	-4973
▁होम	-4974
▁ेहा	-4975
▁्योर	-4976
▁डू	-4977
▁ोते	-4978
▁ोरा	-4979
▁ंगान	-4980
▁्रिया	-4981
SP	-4982
▁नता	-4983
▁हूर	-4984
▁ाबर	-4985
▁तरीक	-4986
▁हिंदु	-4987
▁जनों	-4988
har	-4989
▁खल	-4990
▁लच	-4991
▁गंग	-4992
▁िकट	-4993
▁रामा	-4994
▁वारि	-4995
▁ावित	-4996
▁घन	-4997
▁ैय	-4998
▁उदय	-4999
▁44	-5000
▁कुम	-5001
▁मोड	-5002
▁ारू	-5003
▁ेवी	-5004
▁ंचाई	-5005
▁र्वा	-5006
▁किल	-5007
▁रिफ	-5008
▁हॉल	-5009
▁ेमि	-5010
▁सर्क	-5011
▁साहित	-5012
▁भाल	-5013
▁षिक	-5014
▁सीओ	-5015
▁ड़ने	-5016
▁्रेट	-5017
▁सिस्ट	-5018
▁खतर	-5019
▁ोनी	-5020
▁तपुर	-5021
▁संस्थ	-5022
▁f	-5023
▁u	-5024
▁फंड	-5025
▁लेज	-5026
▁ुति	-5027
▁र्मी	-5028
▁्फ	-5029
▁होश	-5030
▁स्तु	-5031
▁ाएगा	-5032
▁ालिया	-5033
▁Ka	-5034
▁ुड	-5035
▁ुफ	-5036
▁ैच	-5037
▁निज	-5038
▁ोकस	-5039
▁कैश	-5040
▁राण	-5041
▁करि	-5042
▁टैक	-5043
▁त्थ	-5044
▁रती	-5045
▁नारे	-5046
▁िनेश	-5047
▁प्राच	-5048
▁आंक	-5049
▁भरत	-5050
▁िक्	-5051
▁ैसल	-5052
▁ोकर	-5053
▁ग्रे	-5054
▁्राइव	-5055
▁अदा	-5056
▁तिल	-5057
▁बेड	-5058
▁हनी	-5059
▁जेडी	-5060
▁द्रा	-5061
▁िलाफ	-5062
▁41	-5063
▁िख	-5064
▁ोब	-5065
▁ोटा	-5066
▁ठाकर	-5067
▁िफिक	-5068
▁Elect	-5069
ok	-5070
▁(2	-5071
▁39	-5072
▁ऑल	-5073
▁ापत	-5074
▁ुनि	-5075
▁ैंस	-5076
▁दक	-5077
▁ध्	-5078
▁यप	-5079
▁षा	-5080
▁पंत	-5081
▁बीए	-5082
▁यंत	-5083
se	-5084
▁2-	-5085
▁ED	-5086
▁छी	-5087
▁लय	-5088
▁ंडो	-5089
▁निव	-5090
▁्वर	-5091
▁पेड़	-5092
▁्रोत	-5093
धे	-5094
▁₹	-5095
▁इजर	-5096
▁ियल	-5097
▁ैंक	-5098
▁काले	-5099
▁टिंग	-5100
▁म्मत	-5101
▁शक्त	-5102
▁्रमण	-5103
▁51	-5104
▁पश	-5105
▁मने	-5106
▁क्रव	-5107
ांत	-5108
▁ट्ठ	-5109
▁हकर	-5110
▁ापक	-5111
▁ेडी	-5112
▁ारों	-5113
▁्रिक	-5114
▁वस्था	-5115
▁्रांत	-5116
▁te	-5117
▁ॉन	-5118
▁काज	-5119
▁मरी	-5120
▁ाके	-5121
▁नाते	-5122
▁पीड़	-5123
▁झी	-5124
▁कैल	-5125
▁मानस	-5126
il	-5127
▁िब्	-5128
▁िवि	-5129
▁ोरो	-5130
▁्जर	-5131
▁nd	-5132
▁मः	-5133
▁ढंग	-5134
▁िज्	-5135
▁ढा	-5136
▁धे	-5137
▁अटल	-5138
▁मेड	-5139
▁िको	-5140
▁पारि	-5141
▁ंधा	-5142
▁देन	-5143
▁मोट	-5144
▁लीज	-5145
▁ीसी	-5146
▁आचार	-5147
▁46	-5148
▁ईव	-5149
▁खव	-5150
▁IPL	-5151
▁जाट	-5152
▁टूर	-5153
▁राई	-5154
▁रिटी	-5155
▁्तान	-5156
am	-5157
▁re	-5158
▁तौ	-5159
▁लम	-5160
▁मोर	-5161
▁्टी	-5162
▁वारा	-5163
▁श्रा	-5164
▁ारात	-5165
▁ाष्ट	-5166
▁47	-5167
▁आलम	-5168
▁चौर	-5169
▁ढ़े	-5170
▁लता	-5171
▁रेंस	-5172
▁विदा	-5173
CC	-5174
he	-5175
bha	-5176
▁ॉड	-5177
▁ॉस	-5178
▁नसे	-5179
▁कृष्	-5180
▁मलों	-5181
▁ैक्ट	-5182
▁थि	-5183
▁AAP	-5184
▁ंपा	-5185
▁शतक	-5186
▁िले	-5187
ja	-5188
▁ाे	-5189
▁ेत	-5190
▁आधे	-5191
▁रकर	-5192
▁ाकु	-5193
▁िवा	-5194
▁जानत	-5195
▁त्तर	-5196
▁ेंसि	-5197
▁ारिया	-5198
▁56	-5199
▁IN	-5200
▁तं	-5201
▁ैट	-5202
▁पट्	-5203
▁पेम	-5204
▁रिट	-5205
▁्नी	-5206
▁कलश	-5207
▁नवा	-5208
▁डेढ़	-5209
▁ियार	-5210
▁िस्त	-5211
▁्रिट	-5212
▁ात्मक	-5213
▁52	-5214
▁me	-5215
▁डम	-5216
▁शह	-5217
▁त्न	-5218
▁फेल	-5219
▁वाग	-5220
▁ैली	-5221
▁मुख्	-5222
▁प्राइ	-5223
ta	-5224
▁ऋषि	-5225
▁बहू	-5226
▁रजत	-5227
▁िजन	-5228
▁ड्यू	-5229
▁द्दे	-5230
▁ालयों	-5231
▁ैस	-5232
▁गुण	-5233
▁ेस्	-5234
▁ैले	-5235
▁कड़े	-5236
en	-5237
▁al	-5238
▁सस	-5239
▁ुं	-5240
▁पीए	-5241
▁बाघ	-5242
▁सौर	-5243
▁ढ़ने	-5244
▁Mo	-5245
▁आईस	-5246
▁लिका	-5247
▁सुना	-5248
▁िकास	-5249
▁ti	-5250
▁काद	-5251
▁चेत	-5252
▁बीस	-5253
▁नारा	-5254
▁रुपय	-5255
▁उमस	-5256
▁जेश	-5257
▁लां	-5258
▁लेस	-5259
▁हां	-5260
▁डिया	-5261
▁ोहित	-5262
▁्टेबल	-5263
AS	-5264
▁हथ	-5265
▁ड्र	-5266
▁बिश	-5267
▁र्घ	-5268
▁ाधा	-5269
▁ोस्ट	-5270
▁बैर	-5271
▁्पी	-5272
▁बनान	-5273
▁ास्क	-5274
CT	-5275
▁Y	-5276
▁थक	-5277
▁छाए	-5278
▁ठान	-5279
▁यंक	-5280
▁ादि	-5281
▁ैमर	-5282
▁प्रक	-5283
▁ुकेश	-5284
▁्याव	-5285
▁्लिक	-5286
▁र्वाच	-5287
▁43	-5288
▁शरण	-5289
▁ूरा	-5290
▁नागर	-5291
▁मिलन	-5292
▁प्रत्	-5293
and	-5294
▁ढे	-5295
▁ंजू	-5296
▁गुज	-5297
▁मेश	-5298
▁देखे	-5299
▁ानों	-5300
▁ासिक	-5301
▁ामपुर	-5302
▁गद	-5303
▁ुई	-5304
▁थीम	-5305
▁नित	-5306
▁भगत	-5307
▁प्रोफ	-5308
ir	-5309
om	-5310
▁ुण	-5311
▁ुश	-5312
▁250	-5313
▁छीन	-5314
▁बिर	-5315
▁लुक	-5316
▁सरो	-5317
▁ारत	-5318
▁ेजा	-5319
▁लोगो	-5320
▁्रतिभ	-5321
▁(1	-5322
▁आईए	-5323
▁जहर	-5324
▁रिह	-5325
▁लिन	-5326
▁ानन	-5327
▁रांत	-5328
▁राया	-5329
▁or	-5330
▁ेहर	-5331
▁ोल्	-5332
▁मपुर	-5333
▁क्वा	-5334
▁रास्	-5335
▁हारा	-5336
▁ांगी	-5337
▁ानिय	-5338
▁िल्क	-5339
ad	-5340
▁लह	-5341
▁कमा	-5342
▁कलर	-5343
▁याम	-5344
▁लाए	-5345
▁ुना	-5346
▁एनडी	-5347
hu	-5348
▁अड	-5349
▁असल	-5350
▁गये	-5351
▁टीक	-5352
▁ामु	-5353
▁िरु	-5354
▁ुटे	-5355
▁यक्ष	-5356
▁सुधा	-5357
▁Lok	-5358
▁विल	-5359
▁हाव	-5360
▁जागर	-5361
▁टेंट	-5362
▁ससुर	-5363
▁िलना	-5364
▁्वाल	-5365
▁ेत्री	-5366
▁ंचन	-5367
▁ंजा	-5368
▁ूली	-5369
▁अतिथ	-5370
▁तारा	-5371
▁लोनी	-5372
▁ाधिक	-5373
it	-5374
na	-5375
▁ंटि	-5376
▁ज़र	-5377
▁पड़ी	-5378
▁प्रत	-5379
▁धी	-5380
▁ंधी	-5381
▁किर	-5382
▁तोष	-5383
▁रुव	-5384
▁ल्स	-5385
▁सने	-5386
▁क्रो	-5387
▁स्ते	-5388
▁शिकाय	-5389
▁54	-5390
▁72	-5391
▁ईस	-5392
▁मदन	-5393
▁ट्रो	-5394
▁विक्	-5395
▁ृद्धि	-5396
▁्रैक्	-5397
SC	-5398
▁49	-5399
▁अत	-5400
▁ंपत	-5401
▁भूल	-5402
▁मूव	-5403
▁सोस	-5404
▁्चर	-5405
▁टेस्	-5406
▁पश्च	-5407
ैर	-5408
▁on	-5409
▁ंव	-5410
▁अभय	-5411
▁टाई	-5412
▁डबल	-5413
▁डमि	-5414
▁तें	-5415
▁ष्य	-5416
▁ेजर	-5417
▁दाता	-5418
▁विद्	-5419
▁गड	-5420
▁चन	-5421
▁CBI	-5422
▁कपल	-5423
▁ुष्ट	-5424
▁घी	-5425
▁दहन	-5426
▁रेत	-5427
▁ुलस	-5428
▁गाना	-5429
▁च्चे	-5430
▁रेंट	-5431
CTV	-5432
▁vs	-5433
▁थ्य	-5434
▁लार	-5435
▁लास	-5436
▁सक्	-5437
▁सुम	-5438
▁ारग	-5439
▁ारद	-5440
▁CCTV	-5441
▁लाकर	-5442
▁ारिश	-5443
ve	-5444
▁डव	-5445
▁जगत	-5446
▁पाद	-5447
▁ेलो	-5448
▁्वि	-5449
▁क्षत	-5450
▁खड़ी	-5451
▁परिच	-5452
▁महंग	-5453
▁रवाल	-5454
▁दियों	-5455
▁थम	-5456
▁बई	-5457
▁ing	-5458
▁राक	-5459
▁तदान	-5460
▁िक्क	-5461
▁85	-5462
▁इर	-5463
▁ाझ	-5464
▁जाद	-5465
▁दरा	-5466
▁नीट	-5467
▁फाई	-5468
▁रेग	-5469
▁िरो	-5470
▁योजन	-5471
▁Sabha	-5472
▁ानकार	-5473
▁112	-5474
▁छवि	-5475
▁ायण	-5476
▁ैक्	-5477
▁ौरा	-5478
▁र्ती	-5479
▁िंदु	-5480
▁उड	-5481
▁बत	-5482
▁ोच	-5483
▁आरा	-5484
▁वता	-5485
▁डियो	-5486
▁निस्	-5487
▁ारित	-5488
▁ार्ड	-5489
▁नप	-5490
▁ूब	-5491
▁108	-5492
▁वाड	-5493
▁िर्	-5494
▁ुलाई	-5495
▁्लाई	-5496
▁India	-5497
टे	-5498
ट्स	-5499
▁ैश	-5500
▁दुख	-5501
▁परव	-5502
▁शाद	-5503
▁ादल	-5504
▁ोगी	-5505
▁कर्त	-5506
▁ार्ग	-5507
sh	-5508
▁ठो	-5509
▁ौद	-5510
▁ंकि	-5511
▁ट्स	-5512
▁बैच	-5513
▁िसे	-5514
▁्सी	-5515
▁प्रस	-5516
▁र्जा	-5517
▁लेंस	-5518
▁वकों	-5519
SO	-5520
▁हत	-5521
▁ैत	-5522
▁झूठ	-5523
▁ठोस	-5524
▁पोर	-5525
▁मेज	-5526
▁्चि	-5527
▁रात्र	-5528
AD	-5529
▁लज	-5530
▁लन	-5531
▁वट	-5532
▁IND	-5533
▁नाय	-5534
▁रमण	-5535
▁लाड	-5536
▁लिप	-5537
▁सीज	-5538
▁ितर	-5539
एक	-5540
▁RE	-5541
▁दत	-5542
▁जॉब	-5543
▁वेत	-5544
▁िलान	-5545
▁ुनिय	-5546
▁58	-5547
▁Su	-5548
▁la	-5549
▁तर्	-5550
▁द्धि	-5551
▁SP	-5552
▁रके	-5553
▁ूला	-5554
▁फायद	-5555
ic	-5556
▁पम	-5557
▁ंसा	-5558
▁कलन	-5559
▁बोध	-5560
▁हसन	-5561
▁ायत	-5562
▁ोटे	-5563
CB	-5564
र्त	-5565
▁लब	-5566
▁गाम	-5567
▁राफ	-5568
▁लैब	-5569
▁वनी	-5570
▁ज्ञा	-5571
▁र्धा	-5572
▁समर्थ	-5573
po	-5574
▁ईयर	-5575
▁गुट	-5576
▁मीक	-5577
▁विभ	-5578
▁क्षा	-5579
▁खड़ा	-5580
▁रूरत	-5581
▁व्यू	-5582
▁Go	-5583
▁इश	-5584
▁शय	-5585
▁ूच	-5586
▁ओपन	-5587
▁त्स	-5588
▁वों	-5589
▁त्रित	-5590
▁ूट	-5591
▁आधी	-5592
▁दाल	-5593
▁यार	-5594
▁लीड	-5595
▁शशि	-5596
▁चिंत	-5597
▁पियो	-5598
▁राने	-5599
▁इए	-5600
▁रट	-5601
▁स्य	-5602
▁दारी	-5603
▁ूलों	-5604
ET	-5605
▁रश	-5606
▁ंगो	-5607
▁गेम	-5608
▁टिय	-5609
▁टेड	-5610
▁निष	-5611
▁समु	-5612
▁ाबी	-5613
▁ोरी	-5614
▁लवार	-5615
▁सिद्	-5616
▁्यात	-5617
▁ैब	-5618
▁Cha	-5619
▁ंक्	-5620
▁ंजय	-5621
▁छली	-5622
▁लवा	-5623
▁संद	-5624
▁ेहत	-5625
▁ोहन	-5626
▁रमाण	-5627
▁3-	-5628
▁अट	-5629
▁NDA	-5630
▁गोप	-5631
▁हला	-5632
▁ामन	-5633
▁िरी	-5634
▁अर्ज	-5635
▁भागी	-5636
MC	-5637
▁वक	-5638
▁उपल	-5639
▁ऋषभ	-5640
▁मीट	-5641
▁ैटर	-5642
▁Khan	-5643
▁ड़िय	-5644
▁व्	-5645
▁़र	-5646
▁कैच	-5647
▁दाव	-5648
▁ीले	-5649
▁ेके	-5650
▁ोंग	-5651
▁ोचन	-5652
▁ीक्ष	-5653
ka	-5654
▁53	-5655
▁अय	-5656
▁टं	-5657
▁रर	-5658
▁केन	-5659
▁जना	-5660
▁हीर	-5661
▁ासप	-5662
▁ीता	-5663
▁प्रि	-5664
▁विश्	-5665
▁ेशनल	-5666
ni	-5667
eat	-5668
▁उर	-5669
▁ंबि	-5670
▁सपर	-5671
▁हीन	-5672
▁ोपी	-5673
▁ंदगी	-5674
▁र्ति	-5675
▁निदेश	-5676
लोन	-5677
▁्ध	-5678
▁टेज	-5679
▁बाह	-5680
▁रीक	-5681
▁लहर	-5682
▁लात	-5683
▁ाइब	-5684
▁काने	-5685
▁लिटी	-5686
▁कॉलोन	-5687
▁+	-5688
त्स	-5689
▁IM	-5690
▁कॉर	-5691
▁कोड	-5692
▁न्स	-5693
▁पूर	-5694
▁्तर	-5695
▁ायरे	-5696
▁ुग	-5697
▁उधर	-5698
▁बचे	-5699
▁माज	-5700
▁रमन	-5701
▁ोटो	-5702
▁मुस्	-5703
▁्रिप	-5704
▁कित्स	-5705
▁बिल्ड	-5706
vi	-5707
▁तट	-5708
▁थर	-5709
▁ुए	-5710
▁ुस	-5711
▁ैज	-5712
▁गिल	-5713
▁बाब	-5714
▁सवा	-5715
▁ाकि	-5716
▁िगर	-5717
EO	-5718
SS	-5719
gh	-5720
▁01	-5721
▁नद	-5722
▁भै	-5723
▁मझ	-5724
▁कवर	-5725
▁जाक	-5726
▁डिय	-5727
▁ित्व	-5728
▁ेन्द्	-5729
va	-5730
▁2.	-5731
▁AL	-5732
▁छल	-5733
▁ॉम	-5734
▁Sha	-5735
▁एआई	-5736
▁कौश	-5737
▁गयी	-5738
▁डॉग	-5739
▁नौत	-5740
▁मोत	-5741
▁रजी	-5742
▁लाद	-5743
▁साज	-5744
▁्वत	-5745
▁देशी	-5746
▁पयोग	-5747
ga	-5748
li	-5749
▁57	-5750
▁67	-5751
▁Di	-5752
▁ar	-5753
▁फू	-5754
▁ेष	-5755
▁ंचक	-5756
▁रला	-5757
▁रीज	-5758
▁वरण	-5759
▁ेलि	-5760
▁ोशन	-5761
▁मांक	-5762
▁hi	-5763
▁हौ	-5764
▁ूज	-5765
▁मन्	-5766
▁रोष	-5767
▁वाब	-5768
▁ालो	-5769
▁प्रण	-5770
▁िविध	-5771
▁्यता	-5772
SI	-5773
▁li	-5774
▁ठे	-5775
▁600	-5776
▁रीत	-5777
▁हिट	-5778
▁कड़ा	-5779
▁टेंड	-5780
▁स्क्	-5781
▁स्टम	-5782
▁ुद्र	-5783
▁प्रस्	-5784
CP	-5785
la	-5786
▁St	-5787
▁ed	-5788
▁IAS	-5789
▁एमए	-5790
▁जेब	-5791
▁नमः	-5792
▁प्ट	-5793
▁ानद	-5794
▁ेपी	-5795
▁आवेद	-5796
▁वरात	-5797
▁ानदार	-5798
ti	-5799
▁de	-5800
▁षण	-5801
▁her	-5802
▁जोश	-5803
▁शोक	-5804
▁हाइ	-5805
▁ALSO	-5806
▁READ	-5807
▁देशक	-5808
▁निका	-5809
▁ानून	-5810
▁िण	-5811
▁खोज	-5812
▁गाल	-5813
▁बगल	-5814
▁बुध	-5815
▁ेसि	-5816
▁द्वा	-5817
▁प्रम	-5818
▁बाढ़	-5819
▁राजस	-5820
▁ायदा	-5821
▁डै	-5822
▁मट	-5823
▁ैड	-5824
▁बाड	-5825
▁माप	-5826
▁ाफ़	-5827
▁ेट्	-5828
▁्वज	-5829
▁क्रा	-5830
▁समर्	-5831
घु	-5832
पत	-5833
▁कश	-5834
▁गे	-5835
▁दग	-5836
▁ैद	-5837
▁्ज	-5838
▁फेज	-5839
▁्रह	-5840
▁ड़ित	-5841
▁शर्म	-5842
▁ार्क	-5843
et	-5844
▁02	-5845
▁Up	-5846
▁फन	-5847
▁षक	-5848
▁ैठ	-5849
▁्द	-5850
▁दिग	-5851
▁नेश	-5852
▁ल्व	-5853
▁्रव	-5854
▁चालन	-5855
▁59	-5856
▁EV	-5857
▁SD	-5858
▁ईद	-5859
▁जट	-5860
▁फे	-5861
▁एसए	-5862
▁किम	-5863
▁कैस	-5864
▁टीए	-5865
▁डीप	-5866
▁ाति	-5867
▁ाधि	-5868
▁ासा	-5869
▁्ता	-5870
▁पत्त	-5871
▁मिया	-5872
▁स्पि	-5873
▁स्से	-5874
▁प्रता	-5875
▁र्ट्स	-5876
▁et	-5877
▁ni	-5878
▁शौ	-5879
▁ूड	-5880
▁120	-5881
▁नकद	-5882
▁वीन	-5883
▁वैन	-5884
▁सिले	-5885
▁िजिट	-5886
▁1.	-5887
▁मध	-5888
▁ढ़ा	-5889
▁बाव	-5890
▁यंस	-5891
▁ेवा	-5892
▁अप्र	-5893
▁ाइवे	-5894
▁्तानी	-5895
▁ka	-5896
▁ta	-5897
▁ऑफि	-5898
▁डिस	-5899
▁ीदी	-5900
▁जेंस	-5901
▁दायि	-5902
▁होत्	-5903
▁d	-5904
▁िह	-5905
▁तिम	-5906
▁फाइ	-5907
▁रश्	-5908
▁ूटर	-5909
▁ॉलर	-5910
▁डीएस	-5911
▁ाकार	-5912
▁आरक्ष	-5913
ate	-5914
▁4-	-5915
▁95	-5916
▁Ba	-5917
▁Day	-5918
▁गित	-5919
▁डैम	-5920
▁र्र	-5921
▁बानी	-5922
▁ब्रा	-5923
▁मारक	-5924
▁Pro	-5925
▁ओपी	-5926
▁कास	-5927
▁रना	-5928
▁लीप	-5929
▁एग्ज	-5930
▁च्ची	-5931
▁दूसर	-5932
▁ारदा	-5933
▁कानों	-5934
▁1-	-5935
▁64	-5936
▁झल	-5937
▁Pra	-5938
▁ंके	-5939
▁यकर	-5940
▁ंतरि	-5941
▁डिंग	-5942
▁िवाद	-5943
th	-5944
▁नाब	-5945
▁बका	-5946
▁रेम	-5947
▁लघु	-5948
▁लाव	-5949
▁वली	-5950
▁ुक्	-5951
▁जिया	-5952
▁ख्याल	-5953
▁x	-5954
▁NE	-5955
▁at	-5956
▁ीठ	-5957
▁800	-5958
▁ंसी	-5959
▁खरा	-5960
▁जाप	-5961
▁लमा	-5962
▁ान्	-5963
▁िकी	-5964
▁ंगों	-5965
▁किरा	-5966
▁वर्स	-5967
▁स्टि	-5968
▁ियान	-5969
▁होंने	-5970
▁el	-5971
▁ma	-5972
▁रध	-5973
▁ुह	-5974
▁अन्	-5975
▁कमर	-5976
▁कॉन	-5977
▁झलक	-5978
▁ादे	-5979
▁िग्	-5980
▁्ची	-5981
▁मुला	-5982
HO	-5983
▁3.	-5984
▁ऋण	-5985
▁700	-5986
▁आैर	-5987
▁दीन	-5988
▁भान	-5989
▁रीन	-5990
▁वीक	-5991
▁सरे	-5992
▁्ति	-5993
▁्सि	-5994
▁उद्य	-5995
▁मग्र	-5996
▁वर्त	-5997
षा	-5998
▁99	-5999
▁गठ	-6000
▁Pri	-6001
▁जीर	-6002
▁नीर	-6003
▁फरा	-6004
▁फुल	-6005
▁सनी	-6006
▁कैंस	-6007
▁्राल	-6008
▁केदार	-6009
▁विक्र	-6010
▁5-	-6011
▁SI	-6012
▁ंन	-6013
▁अत्	-6014
▁खाई	-6015
▁टीट	-6016
▁न्व	-6017
▁बाय	-6018
▁़ान	-6019
▁ासक	-6020
▁ैंप	-6021
▁ोधी	-6022
▁्रज	-6023
▁द्धा	-6024
us	-6025
▁_	-6026
▁62	-6027
▁करन	-6028
▁चुर	-6029
▁पाक	-6030
▁फिक	-6031
▁लिट	-6032
▁वैश	-6033
▁होल	-6034
▁ाजन	-6035
▁ाटक	-6036
▁िकॉ	-6037
▁्सो	-6038
▁आक्र	-6039
▁ोर्ड	-6040
▁िक्षण	-6041
▁ng	-6042
▁णि	-6043
▁ॉइ	-6044
▁ंजल	-6045
▁आएं	-6046
▁ऑफ़	-6047
▁नते	-6048
▁श्व	-6049
▁सले	-6050
▁ाटन	-6051
▁िपो	-6052
▁ूरी	-6053
▁ैसी	-6054
▁एकड़	-6055
▁ैक्टर	-6056
▁Z	-6057
▁तव	-6058
▁नट	-6059
▁भद	-6060
▁यद	-6061
▁जों	-6062
▁र्यव	-6063
▁हिंस	-6064
▁ुल्ला	-6065
UV	-6066
▁an	-6067
▁मग	-6068
▁ुच	-6069
▁केर	-6070
▁संज	-6071
▁समर	-6072
▁िपक	-6073
▁ुंद	-6074
▁ेनि	-6075
▁त्रा	-6076
▁नपुर	-6077
▁निभा	-6078
▁्राउ	-6079
▁ट्रोल	-6080
IA	-6081
ch	-6082
▁61	-6083
▁66	-6084
▁Te	-6085
▁यत	-6086
▁रय	-6087
▁370	-6088
▁झील	-6089
▁दित	-6090
▁रूक	-6091
▁ाज़	-6092
▁ीपा	-6093
▁जानक	-6094
▁्याद	-6095
mi	-6096
मे	-6097
यल	-6098
▁68	-6099
▁In	-6100
▁Pu	-6101
▁जूझ	-6102
▁तवा	-6103
▁नाइ	-6104
▁पैक	-6105
▁फरी	-6106
▁सीब	-6107
▁ारन	-6108
▁ेखर	-6109
▁ैनी	-6110
▁बस्त	-6111
▁िवर्त	-6112
si	-6113
▁78	-6114
▁GB	-6115
▁टम	-6116
▁रई	-6117
▁षध	-6118
▁आदम	-6119
▁कमि	-6120
▁दया	-6121
▁महल	-6122
▁मीद	-6123
▁रदा	-6124
▁रेक	-6125
▁वाओं	-6126
▁ुल्ल	-6127
▁स्ट्र	-6128
▁Bo	-6129
▁गस	-6130
▁भट	-6131
▁टॉस	-6132
▁ढेर	-6133
▁पेज	-6134
▁ल्क	-6135
▁वित	-6136
▁ाधन	-6137
▁ामो	-6138
▁िष्	-6139
▁ीमत	-6140
▁शकों	-6141
▁ानिक	-6142
▁्रेर	-6143
इस	-6144
▁टख	-6145
▁ऑयल	-6146
▁गाई	-6147
▁हीट	-6148
▁िनि	-6149
▁िने	-6150
▁िल्म	-6151
pp	-6152
▁03	-6153
▁05	-6154
▁ce	-6155
▁यस	-6156
▁ुष	-6157
▁कसा	-6158
▁नपु	-6159
▁नेम	-6160
▁फिट	-6161
▁फैन	-6162
▁रिए	-6163
▁Weat	-6164
▁ताओं	-6165
▁ल्ले	-6166
▁साइक	-6167
▁िप्ट	-6168
ne	-6169
▁iP	-6170
▁350	-6171
▁डील	-6172
▁तंज	-6173
▁तों	-6174
▁दीय	-6175
▁पेड	-6176
▁भंग	-6177
▁लक्	-6178
▁ोगे	-6179
▁सीटी	-6180
▁ेबाज	-6181
▁06	-6182
▁Ar	-6183
▁Na	-6184
▁To	-6185
▁बड	-6186
▁ईंट	-6187
▁ग्ध	-6188
▁जपा	-6189
▁पील	-6190
▁बॉस	-6191
▁मॉल	-6192
▁लैस	-6193
▁सीड	-6194
▁िखा	-6195
▁िजा	-6196
▁ोरे	-6197
▁पिटल	-6198
▁र्ता	-6199
▁ारने	-6200
▁ावों	-6201
यह	-6202
▁81	-6203
▁शम	-6204
▁हण	-6205
▁ईसी	-6206
▁केश	-6207
▁गवा	-6208
▁ग्ल	-6209
▁पमा	-6210
▁रेण	-6211
▁वाक	-6212
▁ेखक	-6213
▁रेगा	-6214
ut	-6215
▁आईं	-6216
▁िपा	-6217
▁्की	-6218
▁्को	-6219
▁्रय	-6220
▁भुगत	-6221
▁हरिय	-6222
▁रहेंग	-6223
▁71	-6224
▁कथ	-6225
▁ैव	-6226
▁ौह	-6227
▁shi	-6228
▁गरि	-6229
▁चलन	-6230
▁मक्	-6231
▁रैल	-6232
▁ागी	-6233
▁ाहि	-6234
▁िरफ	-6235
▁िल्	-6236
▁ुहा	-6237
▁्षण	-6238
▁NEET	-6239
▁डिप्	-6240
▁मेडि	-6241
▁सप्त	-6242
▁ांदी	-6243
▁ुर्ग	-6244
▁th	-6245
▁इच	-6246
▁ठप	-6247
▁यी	-6248
▁han	-6249
▁जया	-6250
▁भीम	-6251
▁रीम	-6252
▁ांध	-6253
▁ीक्	-6254
▁र्चा	-6255
▁स्टी	-6256
▁किस्त	-6257
▁BS	-6258
▁आलू	-6259
▁नमी	-6260
▁बची	-6261
▁सीआ	-6262
▁ोर्	-6263
▁्यर	-6264
▁ताते	-6265
▁िकों	-6266
su	-6267
▁ST	-6268
▁खे	-6269
▁बक	-6270
▁वध	-6271
▁शब	-6272
▁ॉफ	-6273
▁कैप	-6274
▁खों	-6275
▁नाए	-6276
▁नेग	-6277
▁पिच	-6278
▁सुध	-6279
▁ोसा	-6280
▁इयों	-6281
▁कारो	-6282
▁्रभार	-6283
day	-6284
▁Pa	-6285
▁VI	-6286
▁to	-6287
▁कड	-6288
▁ृह	-6289
▁पिक	-6290
▁ोदा	-6291
▁्तु	-6292
▁्मू	-6293
▁आईपी	-6294
▁ड्रा	-6295
▁प्रभा	-6296
▁76	-6297
▁Pl	-6298
▁नमन	-6299
▁ोहा	-6300
▁्वे	-6301
▁iPho	-6302
▁ंग्ल	-6303
▁्वित	-6304
IM	-6305
pa	-6306
oli	-6307
▁4.	-6308
▁उपज	-6309
▁कूद	-6310
▁भीत	-6311
▁रॉय	-6312
▁हाे	-6313
▁िटा	-6314
▁िणी	-6315
▁्ही	-6316
▁रदीप	-6317
▁स्पी	-6318
▁वासिय	-6319
▁^	-6320
oll	-6321
▁ोए	-6322
▁केल	-6323
▁मनु	-6324
▁यूथ	-6325
▁लोम	-6326
▁ष्क	-6327
▁ीमा	-6328
▁ुकी	-6329
▁ोटल	-6330
▁्लि	-6331
▁लियो	-6332
fi	-6333
me	-6334
▁ya	-6335
▁1.5	-6336
▁हवन	-6337
▁ादु	-6338
▁ुका	-6339
▁ष्कर	-6340
deo	-6341
▁ss	-6342
▁vi	-6343
▁मृ	-6344
▁ंदि	-6345
▁ंदु	-6346
▁गहन	-6347
▁बचत	-6348
▁बाक	-6349
▁बैन	-6350
▁ठेके	-6351
▁बढ़ी	-6352
▁राहा	-6353
▁र्दे	-6354
▁लेगी	-6355
▁63	-6356
▁69	-6357
▁ASI	-6358
▁आवक	-6359
▁उमर	-6360
▁जरि	-6361
▁डाक	-6362
▁डीन	-6363
▁भास	-6364
▁रंभ	-6365
▁शॉट	-6366
▁सना	-6367
▁सैफ	-6368
▁ासि	-6369
▁ेलन	-6370
▁हारी	-6371
▁िरफ्त	-6372
▁07	-6373
▁SC	-6374
▁केव	-6375
▁स्स	-6376
▁ाखा	-6377
▁ुस्त	-6378
▁ha	-6379
▁हं	-6380
▁ाजम	-6381
▁ायप	-6382
▁िरि	-6383
▁ेटी	-6384
▁Upda	-6385
▁बांग	-6386
▁यादा	-6387
▁र्मा	-6388
▁सेल्	-6389
▁िनेट	-6390
▁73	-6391
▁92	-6392
▁Hi	-6393
▁mi	-6394
▁नब	-6395
▁पग	-6396
▁IMD	-6397
▁किय	-6398
▁छठे	-6399
▁तले	-6400
▁महे	-6401
▁युग	-6402
▁सटे	-6403
▁सूत	-6404
▁ावि	-6405
▁ाहर	-6406
▁पस्थ	-6407
▁प्रथ	-6408
▁ैसला	-6409
▁ड़िया	-6410
▁सेल्स	-6411
▁74	-6412
▁le	-6413
▁com	-6414
▁अरव	-6415
▁कुर	-6416
▁छुट	-6417
▁टवा	-6418
▁धूल	-6419
▁भक्	-6420
▁िंस	-6421
▁त्ये	-6422
▁लावा	-6423
▁स्कर	-6424
▁्रित	-6425
▁of	-6426
▁़त	-6427
▁125	-6428
▁चुप	-6429
▁मले	-6430
▁मील	-6431
▁Modi	-6432
▁गिरफ	-6433
▁ार्य	-6434
▁ur	-6435
▁ण्	-6436
▁पक	-6437
▁Mar	-6438
▁एपल	-6439
▁बित	-6440
▁रोस	-6441
▁शेड	-6442
▁ाशि	-6443
GP	-6444
ala	-6445
rat	-6446
▁04	-6447
▁खू	-6448
▁गढ	-6449
▁बट	-6450
▁शू	-6451
▁ICC	-6452
▁SUV	-6453
▁Sin	-6454
▁कवि	-6455
▁ताव	-6456
▁नीच	-6457
▁रसी	-6458
▁समस	-6459
▁ापु	-6460
▁ाहु	-6461
▁िप्	-6462
▁ैला	-6463
▁केशन	-6464
▁टेशन	-6465
▁द्री	-6466
▁ल्ली	-6467
▁िनार	-6468
▁77	-6469
▁Li	-6470
▁ओव	-6471
▁जेई	-6472
▁फिस	-6473
▁मुन	-6474
▁रका	-6475
▁ीटर	-6476
▁ुंब	-6477
▁जारो	-6478
▁दौड़	-6479
▁न्हा	-6480
▁स्ता	-6481
▁ायिक	-6482
▁िलों	-6483
▁ाधिका	-6484
up	-6485
▁y	-6486
▁83	-6487
▁ंय	-6488
▁ईन	-6489
▁णन	-6490
▁RSS	-6491
▁ंटे	-6492
▁ंबो	-6493
▁गदी	-6494
▁जेट	-6495
▁जॉन	-6496
▁भूख	-6497
▁वॉक	-6498
▁शेर	-6499
▁िगत	-6500
▁ड़की	-6501
▁ल्कि	-6502
▁ालिक	-6503
▁्टेट	-6504
es	-6505
ase	-6506
▁II	-6507
▁तभ	-6508
▁षम	-6509
▁450	-6510
▁जुआ	-6511
▁ताओ	-6512
▁दिर	-6513
▁यना	-6514
▁रैक	-6515
▁सेठ	-6516
▁हना	-6517
▁नुमा	-6518
▁निर्ण	-6519
▁लेक्ट	-6520
▁110	-6521
▁अमल	-6522
▁खां	-6523
▁जूर	-6524
▁टों	-6525
▁तंग	-6526
▁नॉन	-6527
▁बोझ	-6528
▁मकर	-6529
▁श्क	-6530
▁सदी	-6531
▁ीदा	-6532
▁स्को	-6533
▁Price	-6534
▁्वालि	-6535
tt	-6536
▁84	-6537
▁AD	-6538
▁Ro	-6539
▁एआ	-6540
▁डोर	-6541
▁पीस	-6542
▁पों	-6543
▁बसे	-6544
▁मर्	-6545
▁ीरि	-6546
▁ेने	-6547
▁यकार	-6548
▁िष्य	-6549
mar	-6550
▁Of	-6551
▁Man	-6552
▁कहे	-6553
▁कुं	-6554
▁चीत	-6555
▁जीप	-6556
▁टान	-6557
▁न्फ	-6558
▁पदो	-6559
▁माई	-6560
▁रचा	-6561
▁राथ	-6562
▁िसक	-6563
▁्दी	-6564
▁भर्त	-6565
▁स्टो	-6566
▁्ट्रा	-6567
▁Ja	-6568
▁NH	-6569
▁अस्	-6570
▁ईशा	-6571
▁कीर	-6572
▁नका	-6573
▁भूम	-6574
▁ाहौ	-6575
▁्पन	-6576
▁दिला	-6577
▁हादस	-6578
▁ावनी	-6579
▁लियों	-6580
ba	-6581
ck	-6582
जब	-6583
▁82	-6584
▁es	-6585
▁ri	-6586
▁एए	-6587
▁थो	-6588
▁ौक	-6589
▁App	-6590
▁Kar	-6591
▁कील	-6592
▁कैम	-6593
▁दंड	-6594
▁रजा	-6595
▁रप्	-6596
▁शनल	-6597
▁ादन	-6598
▁ॉस्	-6599
▁प्रब	-6600
▁मोड़	-6601
▁ित्य	-6602
▁ोलिय	-6603
▁्यार	-6604
▁्लाद	-6605
▁्यार्	-6606
LA	-6607
झा	-6608
▁वड	-6609
▁ुव	-6610
▁sha	-6611
▁कोह	-6612
▁तनी	-6613
▁पाव	-6614
▁बुआ	-6615
▁यिक	-6616
▁लना	-6617
▁लाज	-6618
▁ाडा	-6619
▁ाहे	-6620
▁्णा	-6621
▁रूरी	-6622
▁र्कि	-6623
▁िश्त	-6624
▁्किल	-6625
PF	-6626
ter	-6627
▁88	-6628
▁93	-6629
▁नड	-6630
▁Har	-6631
▁Wor	-6632
▁जयप	-6633
▁जुर	-6634
▁नकल	-6635
▁बैज	-6636
▁मधु	-6637
▁्यां	-6638
▁गठबंध	-6639
▁्रत्य	-6640
ru	-6641
▁चूक	-6642
▁चें	-6643
▁जड़	-6644
▁जुन	-6645
▁डिं	-6646
▁ताई	-6647
▁यूं	-6648
▁सरल	-6649
▁ीएफ	-6650
▁्ने	-6651
▁बिजन	-6652
▁मॉर्	-6653
▁वाजा	-6654
▁िष्ठ	-6655
▁ीराम	-6656
▁ूनिय	-6657
QI	-6658
sa	-6659
▁CA	-6660
▁Mu	-6661
▁US	-6662
▁se	-6663
▁जप	-6664
▁आहत	-6665
▁एकल	-6666
▁ओला	-6667
▁धवन	-6668
▁नगद	-6669
▁शौक	-6670
▁िरक	-6671
▁ुरे	-6672
▁फैसल	-6673
▁िम्म	-6674
▁यरिंग	-6675
▁हरिया	-6676
▁°	-6677
▁91	-6678
▁94	-6679
▁NC	-6680
▁एश	-6681
▁जश	-6682
▁पच	-6683
▁Pan	-6684
▁RBI	-6685
▁एलन	-6686
▁ओझा	-6687
▁गात	-6688
▁छठी	-6689
▁तंब	-6690
▁नये	-6691
▁संर	-6692
▁सोर	-6693
▁िसा	-6694
▁ेखन	-6695
▁्पो	-6696
▁रपोर	-6697
▁राजक	-6698
▁िंदग	-6699
▁्रक्	-6700
ou	-6701
▁IT	-6702
▁rt	-6703
▁टच	-6704
▁Ban	-6705
▁खपत	-6706
▁चमक	-6707
▁पेन	-6708
▁बैक	-6709
▁म्य	-6710
▁वॉर	-6711
▁ाहा	-6712
▁ुजा	-6713
▁्हा	-6714
▁news	-6715
▁चाने	-6716
▁रदान	-6717
▁लियर	-6718
▁वाएं	-6719
▁वाहि	-6720
▁पालिक	-6721
▁mA	-6722
▁ौश	-6723
▁AQI	-6724
▁and	-6725
▁ईटी	-6726
▁उषा	-6727
▁गें	-6728
▁चक्	-6729
▁सैम	-6730
▁ाकी	-6731
▁िटर	-6732
▁ुवा	-6733
▁्वी	-6734
▁नियों	-6735
▁ार्यव	-6736
el	-6737
▁(3	-6738
▁5.	-6739
▁ंद्	-6740
▁आजम	-6741
▁जीन	-6742
▁पैन	-6743
▁वरी	-6744
▁समन	-6745
▁सुं	-6746
▁हुल	-6747
▁ियु	-6748
▁्नर	-6749
▁Kapo	-6750
▁ंट्र	-6751
▁उत्स	-6752
▁मुद्	-6753
BC	-6754
co	-6755
mp	-6756
▁09	-6757
▁Bi	-6758
▁़े	-6759
▁180	-6760
▁nce	-6761
▁आदत	-6762
▁टैग	-6763
▁धवा	-6764
▁पचा	-6765
▁ब्त	-6766
▁सिट	-6767
▁सुप	-6768
▁सून	-6769
▁ैंग	-6770
▁्के	-6771
▁थापन	-6772
▁र्षि	-6773
▁लड़ा	-6774
▁ीडिय	-6775
▁्रेम	-6776
DP	-6777
ED	-6778
ci	-6779
▁*	-6780
▁7.	-6781
▁MM	-6782
▁NS	-6783
▁PA	-6784
▁en	-6785
▁ीई	-6786
▁IPS	-6787
▁SHO	-6788
▁mAh	-6789
▁आड़	-6790
▁एनए	-6791
▁कसर	-6792
▁मौस	-6793
▁यूक	-6794
▁रिच	-6795
▁शॉप	-6796
▁िथि	-6797
▁ूबर	-6798
▁्ये	-6799
▁पंचा	-6800
▁लदार	-6801
▁ीसदी	-6802
▁ुसार	-6803
▁ोस्त	-6804
20	-6805
lhi	-6806
▁79	-6807
▁96	-6808
▁go	-6809
▁ऊं	-6810
▁जव	-6811
▁दव	-6812
▁ौं	-6813
▁2.5	-6814
▁ंदो	-6815
▁णों	-6816
▁पिय	-6817
▁भगा	-6818
▁याय	-6819
▁वाच	-6820
▁सगे	-6821
▁ाईक	-6822
▁ामू	-6823
▁खाया	-6824
▁्रेश	-6825
▁संरक्	-6826
ud	-6827
▁(4	-6828
▁97	-6829
▁98	-6830
▁िं	-6831
▁ect	-6832
▁tri	-6833
▁ंधन	-6834
▁कबर	-6835
▁किट	-6836
▁खेप	-6837
▁घने	-6838
▁जाह	-6839
▁फैक	-6840
▁ौहा	-6841
▁ार्म	-6842
▁िबंध	-6843
▁्यून	-6844
▁Delhi	-6845
▁कारों	-6846
▁स्वाम	-6847
▁Do	-6848
▁आफ	-6849
▁धि	-6850
▁लट	-6851
▁160	-6852
▁2-2	-6853
▁2-3	-6854
▁धूम	-6855
▁सीख	-6856
▁ामे	-6857
▁ेशी	-6858
▁अंबा	-6859
▁गाते	-6860
▁लेगा	-6861
▁श्चि	-6862
od	-6863
▁Q	-6864
DEO	-6865
▁An	-6866
▁एग	-6867
▁भन	-6868
▁हड	-6869
▁आये	-6870
▁उठे	-6871
▁ऋचा	-6872
▁केक	-6873
▁बरी	-6874
▁म्र	-6875
▁रॉड	-6876
▁हॉट	-6877
▁िसं	-6878
▁ीकी	-6879
▁विधा	-6880
▁स्टॉ	-6881
▁ासिय	-6882
▁Video	-6883
ld	-6884
pur	-6885
▁No	-6886
▁ुद	-6887
▁4-5	-6888
▁ंटा	-6889
▁एके	-6890
▁एवज	-6891
▁गदा	-6892
▁चरम	-6893
▁टमा	-6894
▁ट्य	-6895
▁थार	-6896
▁नास	-6897
▁निस	-6898
▁बसा	-6899
▁बोस	-6900
▁लेक	-6901
▁विक	-6902
▁सीर	-6903
▁हंस	-6904
▁ाहू	-6905
▁ूजा	-6906
▁ेजन	-6907
▁ोमा	-6908
▁ऑपरे	-6909
▁द्दा	-6910
▁भगवा	-6911
▁हाईक	-6912
▁ादेश	-6913
▁Singh	-6914
▁VIDEO	-6915
▁ग्रेस	-6916
▁ुनिया	-6917
ki	-6918
▁CS	-6919
▁Co	-6920
▁ूष	-6921
▁उमा	-6922
▁डमी	-6923
▁थोक	-6924
▁नमक	-6925
▁पूल	-6926
▁फूट	-6927
▁भूष	-6928
▁मूर	-6929
▁मेद	-6930
▁सड़	-6931
▁साद	-6932
▁ालत	-6933
▁ोका	-6934
▁्टि	-6935
▁Offi	-6936
▁Vrat	-6937
▁द्दी	-6938
▁र्मि	-6939
▁स्पत	-6940
▁िरोध	-6941
▁्लाइ	-6942
▁जिसमे	-6943
ee	-6944
ौफ	-6945
▁}	-6946
▁फट	-6947
▁(2)	-6948
▁Box	-6949
▁खौफ	-6950
▁नाट	-6951
▁ल्म	-6952
▁वेव	-6953
▁हर्	-6954
▁ोनो	-6955
▁Shar	-6956
▁लेक्	-6957
▁संचा	-6958
▁ट्रेस	-6959
▁तर्गत	-6960
▁तिवार	-6961
ST	-6962
ge	-6963
lo	-6964
ेद	-6965
▁०	-6966
▁0.	-6967
▁6.	-6968
▁87	-6969
▁ro	-6970
▁ty	-6971
▁अक	-6972
▁मठ	-6973
▁ाढ	-6974
▁ैफ	-6975
▁140	-6976
▁चर्	-6977
▁जगर	-6978
▁डीग	-6979
▁पॉल	-6980
▁शीट	-6981
▁सेफ	-6982
▁ेटे	-6983
▁्पर	-6984
▁Poli	-6985
▁फिल्	-6986
▁िरदा	-6987
RF	-6988
bh	-6989
▁IC	-6990
▁Ke	-6991
▁नं	-6992
▁ृष	-6993
etro	-6994
▁Ram	-6995
▁कृष	-6996
▁ढोल	-6997
▁तिह	-6998
▁त्प	-6999
▁रते	-7000
▁ापि	-7001
▁ुशी	-7002
▁ूचि	-7003
▁म्मा	-7004
▁िसके	-7005
▁ियोजन	-7006
▁िस्ता	-7007
IC	-7008
wa	-7009
▁Si	-7010
▁इय	-7011
▁ूव	-7012
▁900	-7013
▁ंकल	-7014
▁ईपी	-7015
▁कटा	-7016
▁परे	-7017
▁महू	-7018
▁यमि	-7019
▁ललन	-7020
▁लाध	-7021
▁हें	-7022
▁ुट्	-7023
▁्का	-7024
▁्पि	-7025
▁Maha	-7026
▁डस्ट	-7027
▁फोर्	-7028
▁्मान	-7029
▁Apple	-7030
▁ार्थि	-7031
▁ीक्षा	-7032
चक	-7033
▁AT	-7034
▁Am	-7035
▁DM	-7036
▁ir	-7037
▁lt	-7038
▁णु	-7039
▁सई	-7040
▁DSP	-7041
▁अना	-7042
▁औचक	-7043
▁डार	-7044
▁ढ़त	-7045
▁पीक	-7046
▁भनक	-7047
▁मची	-7048
▁मैस	-7049
▁लदा	-7050
▁सपो	-7051
▁िजी	-7052
▁ंडित	-7053
▁गवान	-7054
▁दिल्	-7055
▁र्टि	-7056
▁किनार	-7057
▁ाकिस्	-7058
AI	-7059
▁@	-7060
▁6-	-7061
▁Me	-7062
▁Car	-7063
▁ईवी	-7064
▁नून	-7065
▁ब्य	-7066
▁रजे	-7067
▁रोत	-7068
▁िदा	-7069
▁्मा	-7070
▁Indo	-7071
▁अलाव	-7072
▁जीतन	-7073
▁रामद	-7074
▁शंका	-7075
▁स्वर	-7076
▁िंदू	-7077
▁धीक्ष	-7078
▁ोतवाल	-7079
▁्यावर	-7080
OC	-7081
OS	-7082
wi	-7083
बन	-7084
▁86	-7085
▁89	-7086
▁AC	-7087
▁खत	-7088
▁मऊ	-7089
▁लं	-7090
▁50%	-7091
▁STF	-7092
▁डेड	-7093
▁धुन	-7094
▁बेन	-7095
▁याव	-7096
▁ीरी	-7097
▁ुष्	-7098
▁्टन	-7099
▁जिम्	-7100
▁प्रभ	-7101
▁्राव	-7102
BS	-7103
ps	-7104
te	-7105
CCI	-7106
▁08	-7107
▁OT	-7108
▁ईड	-7109
▁वद	-7110
▁SSP	-7111
▁गुड	-7112
▁बला	-7113
▁यलो	-7114
▁लटक	-7115
▁्लॉ	-7116
▁उद्द	-7117
▁शिका	-7118
▁ांची	-7119
▁िकेश	-7120
▁ैसले	-7121
▁्रीव	-7122
▁क्षता	-7123
aj	-7124
ata	-7125
▁2'	-7126
▁ऊँ	-7127
▁यज	-7128
▁षी	-7129
▁ौस	-7130
▁3-4	-7131
▁Con	-7132
▁Ran	-7133
▁gov	-7134
▁ऑर्	-7135
▁गरज	-7136
▁तां	-7137
▁मीड	-7138
▁रोट	-7139
▁सहज	-7140
▁ाइफ	-7141
▁ेबस	-7142
▁ौरव	-7143
▁ग्रव	-7144
▁ड़के	-7145
▁नाओं	-7146
▁महत्	-7147
▁रप्र	-7148
▁िकेट	-7149
▁ोषित	-7150
▁्यूटी	-7151
ss	-7152
▁(5	-7153
▁Ex	-7154
▁He	-7155
▁kh	-7156
▁़न	-7157
▁650	-7158
▁NCP	-7159
▁SDM	-7160
▁एसआ	-7161
▁घटी	-7162
▁ताे	-7163
▁दमा	-7164
▁परी	-7165
▁भील	-7166
▁मका	-7167
▁मग्	-7168
▁मौज	-7169
▁रत्	-7170
▁सकल	-7171
▁सुस	-7172
▁हिए	-7173
▁ीते	-7174
▁ोखा	-7175
▁्जा	-7176
▁्पा	-7177
▁्मल	-7178
▁्रे	-7179
▁Plus	-7180
▁ुष्क	-7181
▁ंट्री	-7182
▁लगाता	-7183
NG	-7184
ndi	-7185
▁NT	-7186
▁UG	-7187
▁RCB	-7188
▁आला	-7189
▁घना	-7190
▁घास	-7191
▁वुड	-7192
▁साई	-7193
▁ानो	-7194
▁BCCI	-7195
▁क्सल	-7196
▁World	-7197
▁दस्ता	-7198
un	-7199
▁AM	-7200
▁गट	-7201
▁Aaj	-7202
▁One	-7203
▁खाक	-7204
▁चैक	-7205
▁टखट	-7206
▁बटन	-7207
▁मुल	-7208
▁रबी	-7209
▁शटर	-7210
▁ागा	-7211
▁िवर	-7212
▁ीचे	-7213
▁मानन	-7214
▁रामप	-7215
▁ालों	-7216
▁ुमार	-7217
▁ुर्म	-7218
▁ुल्क	-7219
▁्वार	-7220
▁Petro	-7221
▁क्ष्म	-7222
▁DC	-7223
▁ऋत	-7224
▁(1)	-7225
▁For	-7226
▁अवर	-7227
▁आदी	-7228
▁छोर	-7229
▁पलक	-7230
▁मौन	-7231
▁विच	-7232
▁हमे	-7233
▁हाड	-7234
▁ेडि	-7235
▁UPSC	-7236
▁गाकर	-7237
▁िसान	-7238
▁्तों	-7239
▁Share	-7240
▁Today	-7241
▁प्रसा	-7242
▁वर्ल्	-7243
▁्रष्ट	-7244
ft	-7245
za	-7246
अब	-7247
▁Al	-7248
▁DR	-7249
▁दफ	-7250
▁101	-7251
▁240	-7252
▁Aut	-7253
▁Bho	-7254
▁ंचा	-7255
▁कप्	-7256
▁करम	-7257
▁खीर	-7258
▁ड़ल	-7259
▁नें	-7260
▁माँ	-7261
▁यूर	-7262
▁रची	-7263
▁लगन	-7264
▁शीर	-7265
▁सती	-7266
▁द्रो	-7267
▁राओं	-7268
▁सर्ज	-7269
▁िधान	-7270
▁ंडिया	-7271
IS	-7272
हल	-7273
▁CP	-7274
▁तस	-7275
▁नभ	-7276
▁मम	-7277
▁1-1	-7278
▁EVM	-7279
▁Nav	-7280
▁OBC	-7281
▁nav	-7282
▁गबन	-7283
▁घोर	-7284
▁चुक	-7285
▁चैन	-7286
▁डरा	-7287
▁दुआ	-7288
▁धीश	-7289
▁नवल	-7290
▁मेष	-7291
▁शौच	-7292
▁हुत	-7293
▁ाजे	-7294
▁ापर	-7295
▁्जन	-7296
▁्ली	-7297
▁क्षे	-7298
▁रक्ष	-7299
▁रिका	-7300
▁मुलाक	-7301
▁िखाया	-7302
▁िल्ली	-7303
DU	-7304
qu	-7305
गन	-7306
्ञ	-7307
▁En	-7308
▁SE	-7309
▁ईक	-7310
▁SIT	-7311
▁Sam	-7312
▁ऋतु	-7313
▁घटक	-7314
▁चैट	-7315
▁जने	-7316
▁डरे	-7317
▁ढ़क	-7318
▁नमो	-7319
▁नूर	-7320
▁मिड	-7321
▁रां	-7322
▁वाम	-7323
▁सुभ	-7324
▁िलि	-7325
▁ूरे	-7326
▁Coll	-7327
▁Dies	-7328
▁क्यो	-7329
▁हरों	-7330
▁्याल	-7331
▁रवाही	-7332
▁विज्ञ	-7333
CA	-7334
जो	-7335
▁ङ	-7336
▁2,	-7337
▁Fa	-7338
▁Ni	-7339
▁Po	-7340
▁Ti	-7341
▁sa	-7342
▁130	-7343
▁Sal	-7344
▁Tra	-7345
▁wal	-7346
▁उपय	-7347
▁कोष	-7348
▁खेर	-7349
▁नुक	-7350
▁यूट	-7351
▁शमी	-7352
▁ोजि	-7353
▁Panc	-7354
▁राजग	-7355
▁राज्	-7356
▁सिस्	-7357
▁बल्ले	-7358
▁म्मेद	-7359
▁ियाना	-7360
नो	-7361
▁3,	-7362
▁CR	-7363
▁Ji	-7364
▁Ru	-7365
▁mb	-7366
▁बढ	-7367
▁San	-7368
▁pur	-7369
▁ंध्	-7370
▁खैर	-7371
▁चेज	-7372
▁फेक	-7373
▁बाप	-7374
▁मजा	-7375
▁मेत	-7376
▁रवर	-7377
▁सप्	-7378
▁ागो	-7379
▁ुमा	-7380
▁ूनी	-7381
▁देंग	-7382
▁मिका	-7383
▁याना	-7384
▁िसकी	-7385
▁त्रिय	-7386
-8	-7387
PSC	-7388
▁8.	-7389
▁Ju	-7390
▁TV	-7391
▁cs	-7392
▁no	-7393
▁आओ	-7394
▁दख	-7395
▁्ग	-7396
मेंट	-7397
▁105	-7398
▁2.0	-7399
▁Air	-7400
▁Jan	-7401
▁TMC	-7402
▁एटा	-7403
▁कदर	-7404
▁कहर	-7405
▁गाए	-7406
▁टलर	-7407
▁धनु	-7408
▁नेत	-7409
▁बच्	-7410
▁रजक	-7411
▁ासी	-7412
▁ोरि	-7413
▁्मच	-7414
▁Case	-7415
▁नाकर	-7416
▁पर्क	-7417
▁ार्व	-7418
▁टमेंट	-7419
▁राजस्	-7420
▁रेक्ट	-7421
▁ाताओं	-7422
▁Ku	-7423
▁Ne	-7424
▁पड	-7425
▁पढ	-7426
▁बय	-7427
▁ंटर	-7428
▁जली	-7429
▁जोध	-7430
▁दात	-7431
▁बलि	-7432
▁बिह	-7433
▁रपा	-7434
▁रिप	-7435
▁िली	-7436
▁िषे	-7437
▁्बा	-7438
▁ंजीव	-7439
▁विष्	-7440
▁हिरा	-7441
▁ुष्प	-7442
▁इंटरन	-7443
▁िस्से	-7444
ep	-7445
to	-7446
ww	-7447
ौज	-7448
old	-7449
▁7,	-7450
▁CJ	-7451
▁La	-7452
▁ba	-7453
▁़ा	-7454
▁Ama	-7455
▁Par	-7456
▁Son	-7457
▁day	-7458
▁hor	-7459
▁ंती	-7460
▁अंड	-7461
▁अड़	-7462
▁करत	-7463
▁तिव	-7464
▁दखल	-7465
▁भटक	-7466
▁भला	-7467
▁रनी	-7468
▁रपत	-7469
▁ारि	-7470
▁छापे	-7471
▁ढ़ाई	-7472
▁त्का	-7473
▁िएशन	-7474
▁िकित	-7475
▁िसका	-7476
▁ियुक्	-7477
ke	-7478
घन	-7479
▁As	-7480
▁On	-7481
▁RT	-7482
▁Ta	-7483
▁Yo	-7484
▁उध	-7485
▁टप	-7486
▁ढह	-7487
▁मब	-7488
▁220	-7489
▁Bud	-7490
▁MLA	-7491
▁war	-7492
▁उम्	-7493
▁जगन	-7494
▁टरन	-7495
▁तरण	-7496
▁दही	-7497
▁नीम	-7498
▁मंे	-7499
▁मौक	-7500
▁वचन	-7501
▁साग	-7502
▁हैक	-7503
▁ाबू	-7504
▁ोकन	-7505
▁कलाक	-7506
▁मीडि	-7507
▁राहु	-7508
▁रिवर	-7509
▁संपत	-7510
▁ारिक	-7511
▁िकता	-7512
▁ीमार	-7513
▁ुंदर	-7514
PS	-7515
gi	-7516
vo	-7517
▁(6	-7518
▁BA	-7519
▁Ki	-7520
▁मड	-7521
▁रड	-7522
▁103	-7523
▁144	-7524
▁5-6	-7525
▁BSF	-7526
▁CAA	-7527
▁nda	-7528
▁pal	-7529
▁ver	-7530
▁www	-7531
▁अबू	-7532
▁ईको	-7533
▁जफर	-7534
▁झेल	-7535
▁बीब	-7536
▁बॉय	-7537
▁मंत	-7538
▁लला	-7539
▁ल्द	-7540
▁सूट	-7541
▁सैर	-7542
▁होन	-7543
▁ाक्	-7544
▁ीडि	-7545
▁ॉक्	-7546
▁ोलक	-7547
▁जस्ट	-7548
▁ट्रे	-7549
▁ाबला	-7550
▁ित्त	-7551
▁िमान	-7552
▁प्रिं	-7553
▁सप्ला	-7554
▁1,	-7555
▁4,	-7556
▁Op	-7557
▁si	-7558
▁रछ	-7559
▁लद	-7560
▁ाछ	-7561
▁ूथ	-7562
▁10%	-7563
▁CEO	-7564
▁CSK	-7565
▁htt	-7566
▁असद	-7567
▁ईआर	-7568
▁टनल	-7569
▁ताए	-7570
▁नपा	-7571
▁पाध	-7572
▁फौज	-7573
▁भीख	-7574
▁भीर	-7575
▁रैम	-7576
▁वसर	-7577
▁वॉल	-7578
▁शयन	-7579
▁सघन	-7580
▁हनत	-7581
▁हाट	-7582
▁ासव	-7583
▁ोटि	-7584
▁्रद	-7585
▁Chat	-7586
▁Real	-7587
▁ंचकर	-7588
▁मानो	-7589
▁मियो	-7590
▁रोहि	-7591
▁स्तो	-7592
▁हल्ल	-7593
▁हानी	-7594
▁ाखों	-7595
▁निर्म	-7596
JD	-7597
SR	-7598
do	-7599
▁=	-7600
urt	-7601
▁BH	-7602
▁Da	-7603
▁ID	-7604
▁Mi	-7605
▁ac	-7606
▁am	-7607
▁10,	-7608
▁121	-7609
▁80%	-7610
▁CJI	-7611
▁OTT	-7612
▁for	-7613
▁gle	-7614
▁the	-7615
▁खरे	-7616
▁टीआ	-7617
▁थमा	-7618
▁पाय	-7619
▁मकी	-7620
▁हैड	-7621
▁Resu	-7622
▁अगस्	-7623
▁टाने	-7624
▁तानी	-7625
▁हराय	-7626
▁ीतने	-7627
▁ुलाय	-7628
pre	-7629
▁ईय	-7630
▁टफ	-7631
▁वम	-7632
kada	-7633
ग्रा	-7634
▁750	-7635
▁Bha	-7636
▁NIA	-7637
▁New	-7638
▁SBI	-7639
▁अंश	-7640
▁गगन	-7641
▁चलो	-7642
▁चिप	-7643
▁चीख	-7644
▁तूल	-7645
▁नोज	-7646
▁पैड	-7647
▁बास	-7648
▁बैड	-7649
▁यंग	-7650
▁रम्	-7651
▁लभर	-7652
▁शीत	-7653
▁सतत	-7654
▁हुं	-7655
▁ालन	-7656
▁ुपा	-7657
▁Rahu	-7658
▁निवा	-7659
▁पत्न	-7660
▁प्रख	-7661
▁ामां	-7662
▁िगरा	-7663
▁िन्न	-7664
▁िप्प	-7665
▁ोग्रा	-7666
VP	-7667
▁z	-7668
dhi	-7669
वाह	-7670
▁SA	-7671
▁वय	-7672
▁115	-7673
▁135	-7674
▁Chi	-7675
▁Chu	-7676
▁DCP	-7677
▁GST	-7678
▁Goo	-7679
▁Shi	-7680
▁आगर	-7681
▁आरए	-7682
▁इको	-7683
▁इसक	-7684
▁जले	-7685
▁डॉन	-7686
▁पैट	-7687
▁मढ़	-7688
▁रसि	-7689
▁लबल	-7690
▁सईद	-7691
▁सतह	-7692
▁ानव	-7693
▁िसन	-7694
▁ुत्	-7695
▁ुनव	-7696
▁्दा	-7697
▁Date	-7698
▁Puja	-7699
▁Shah	-7700
▁ंदेश	-7701
▁ग्रा	-7702
▁र्वे	-7703
▁वामी	-7704
▁िर्द	-7705
▁्रिय	-7706
▁निश्च	-7707
▁परवाह	-7708
SL	-7709
kh	-7710
ly	-7711
आज	-7712
IMS	-7713
▁SR	-7714
▁ck	-7715
▁जत	-7716
▁डस	-7717
▁यि	-7718
▁12,	-7719
▁JJP	-7720
▁ऑस्	-7721
▁कवच	-7722
▁टकर	-7723
▁ठेस	-7724
▁डिश	-7725
▁नों	-7726
▁मॉक	-7727
▁मों	-7728
▁रमि	-7729
▁लने	-7730
▁़ों	-7731
▁ीणा	-7732
▁ीपु	-7733
▁ूजन	-7734
▁ेंक	-7735
▁ेत्	-7736
▁Mahi	-7737
▁hang	-7738
▁इसरा	-7739
▁दोनो	-7740
▁मोबा	-7741
▁हम्म	-7742
▁INDIA	-7743
▁Kumar	-7744
▁Rahul	-7745
IV	-7746
are	-7747
▁2:	-7748
▁9.	-7749
▁CO	-7750
▁RR	-7751
▁Tu	-7752
▁Va	-7753
▁ंर	-7754
▁पय	-7755
▁्ण	-7756
▁102	-7757
▁170	-7758
▁175	-7759
▁IIT	-7760
▁LED	-7761
▁nti	-7762
▁अटक	-7763
▁उलट	-7764
▁कन्	-7765
▁घाव	-7766
▁दड़	-7767
▁धुत	-7768
▁फेम	-7769
▁बोट	-7770
▁मरे	-7771
▁मूड	-7772
▁मैप	-7773
▁रबत	-7774
▁रैन	-7775
▁लकी	-7776
▁शिश	-7777
▁हाफ	-7778
▁िफा	-7779
▁िरं	-7780
▁्तन	-7781
▁Gala	-7782
▁Gora	-7783
▁shta	-7784
▁भड़क	-7785
▁मोर्	-7786
▁राष्	-7787
▁रिस्	-7788
▁हिला	-7789
▁्रयो	-7790
▁Navra	-7791
▁khpur	-7792
GM	-7793
PC	-7794
pe	-7795
आप	-7796
▁j	-7797
MCH	-7798
ali	-7799
ath	-7800
▁2)	-7801
▁FD	-7802
▁Sc	-7803
▁ch	-7804
▁ct	-7805
▁xy	-7806
▁छे	-7807
▁यव	-7808
▁ौड	-7809
▁106	-7810
▁210	-7811
▁ACB	-7812
▁DGP	-7813
▁Pre	-7814
▁टॉम	-7815
▁डेथ	-7816
▁णाम	-7817
▁पटक	-7818
▁बैट	-7819
▁सहम	-7820
▁हीं	-7821
▁ामप	-7822
▁ेंश	-7823
▁Gand	-7824
▁Maru	-7825
▁परिय	-7826
▁मस्त	-7827
▁र्वि	-7828
▁ष्टा	-7829
▁िद्ध	-7830
▁्पिट	-7831
▁Ekada	-7832
▁वानों	-7833
▁ऽ	-7834
ini	-7835
ree	-7836
▁..	-7837
▁BN	-7838
▁Ha	-7839
▁Hy	-7840
▁IR	-7841
▁LS	-7842
▁MI	-7843
▁ly	-7844
▁ईब	-7845
▁कफ	-7846
▁116	-7847
▁Ana	-7848
▁And	-7849
▁Cup	-7850
▁Dev	-7851
▁Dha	-7852
▁Raj	-7853
▁ter	-7854
▁अचल	-7855
▁अतः	-7856
▁आनी	-7857
▁आशु	-7858
▁कित	-7859
▁कैब	-7860
▁जिक	-7861
▁जैक	-7862
▁ड़ि	-7863
▁पका	-7864
▁पते	-7865
▁पाप	-7866
▁बुच	-7867
▁लॉस	-7868
▁वीड	-7869
▁सता	-7870
▁ियस	-7871
▁ुझे	-7872
▁्फ्	-7873
▁Live	-7874
▁Mand	-7875
▁tter	-7876
▁कानो	-7877
▁गाया	-7878
▁मुश्	-7879
▁वस्त	-7880
▁ाकों	-7881
▁िलेश	-7882
▁ेंटर	-7883
▁ोबार	-7884
▁Salma	-7885
▁hindi	-7886
▁https	-7887
FC	-7888
WD	-7889
वई	-7890
jay	-7891
▁Fe	-7892
▁KM	-7893
▁Se	-7894
▁Vs	-7895
▁ऐड	-7896
▁ढक	-7897
▁111	-7898
▁138	-7899
▁3-3	-7900
▁ASP	-7901
▁Pho	-7902
▁Pur	-7903
▁The	-7904
▁ric	-7905
▁कथन	-7906
▁कमे	-7907
▁कात	-7908
▁जहा	-7909
▁ताह	-7910
▁रवन	-7911
▁हले	-7912
▁ीबा	-7913
▁ैके	-7914
▁Gold	-7915
▁इंतज	-7916
▁गार्	-7917
▁चाहत	-7918
▁तिमा	-7919
▁तिशत	-7920
▁नकार	-7921
▁मोहल	-7922
▁रवरी	-7923
▁ाइनल	-7924
▁ाएंग	-7925
▁ुरुष	-7926
▁्रेल	-7927
▁sthan	-7928
▁मूर्त	-7929
▁हम्मद	-7930
GI	-7931
▁5,	-7932
▁Du	-7933
▁HD	-7934
▁Is	-7935
▁UN	-7936
▁Ya	-7937
▁is	-7938
▁un	-7939
▁ut	-7940
▁ुभ	-7941
▁AIM	-7942
▁Kia	-7943
▁NTA	-7944
▁way	-7945
▁कटे	-7946
▁कलह	-7947
▁खर्	-7948
▁गजब	-7949
▁गुम	-7950
▁घटा	-7951
▁घूस	-7952
▁जाब	-7953
▁जूस	-7954
▁टीव	-7955
▁पीर	-7956
▁पूज	-7957
▁भीष	-7958
▁मदर	-7959
▁शरा	-7960
▁संख	-7961
▁सलम	-7962
▁साक	-7963
▁सूल	-7964
▁ुता	-7965
▁ुप्	-7966
▁ुलि	-7967
▁ूपे	-7968
▁ेशक	-7969
▁अभ्य	-7970
▁ग्रस	-7971
▁नसून	-7972
▁युवत	-7973
▁रवाह	-7974
▁लगान	-7975
▁सोमव	-7976
▁ानगर	-7977
▁ुप्त	-7978
▁AIIMS	-7979
▁Court	-7980
▁Prade	-7981
TC	-7982
be	-7983
▁•	-7984
ill	-7985
ina	-7986
tra	-7987
▁GT	-7988
▁KK	-7989
▁MG	-7990
▁SM	-7991
▁pa	-7992
▁BHU	-7993
▁Kan	-7994
▁आरओ	-7995
▁कैफ	-7996
▁घात	-7997
▁चहल	-7998
▁छाई	-7999
▁जन्	-8000
▁डंप	-8001
▁ताऊ	-8002
▁ताय	-8003
▁थिक	-8004
▁दबे	-8005
▁दाे	-8006
▁नको	-8007
▁ननद	-8008
▁पाइ	-8009
▁बजा	-8010
▁राप	-8011
▁लंच	-8012
▁ल्य	-8013
▁सखी	-8014
▁सहन	-8015
▁िरन	-8016
▁ुझा	-8017
▁ुनक	-8018
▁्मो	-8019
▁्रत	-8020
▁shpa	-8021
▁चारि	-8022
▁फीसद	-8023
▁सत्त	-8024
▁ापित	-8025
▁ियोग	-8026
▁Prado	-8027
▁कॉलेज	-8028
▁क्राइ	-8029
▁िज्ञा	-8030
▁#	-8031
eri	-8032
ran	-8033
▁At	-8034
▁Le	-8035
▁MB	-8036
▁OS	-8037
▁di	-8038
▁घल	-8039
▁तग	-8040
▁...	-8041
▁230	-8042
▁90%	-8043
▁Com	-8044
▁Gan	-8045
▁IPO	-8046
▁Red	-8047
▁har	-8048
▁rat	-8049
▁आनन	-8050
▁उठी	-8051
▁कनी	-8052
▁कूच	-8053
▁गिय	-8054
▁ग्ज	-8055
▁छता	-8056
▁जाओ	-8057
▁तीफ	-8058
▁लिस	-8059
▁वरा	-8060
▁ालु	-8061
▁ुदा	-8062
▁ेंद	-8063
▁Bhar	-8064
▁Play	-8065
▁Tata	-8066
▁ence	-8067
▁stan	-8068
▁ंट्स	-8069
▁कांग	-8070
▁दक्ष	-8071
▁नेक्	-8072
▁रदात	-8073
▁लाड़	-8074
▁वासन	-8075
▁संख्	-8076
▁ाइबर	-8077
▁ाधान	-8078
▁िग्र	-8079
▁िट्ट	-8080
▁Samsu	-8081
▁ांग्ल	-8082
शास	-8083
▁-1	-8084
▁Ac	-8085
▁Ak	-8086
▁EO	-8087
▁Sh	-8088
▁ग़	-8089
▁104	-8090
▁3.5	-8091
▁5-5	-8092
▁7-8	-8093
▁SGP	-8094
▁TDP	-8095
▁अच्	-8096
▁उलझ	-8097
▁एपी	-8098
▁कटर	-8099
▁क्श	-8100
▁धरी	-8101
▁मगध	-8102
▁रैफ	-8103
▁लिव	-8104
▁लेग	-8105
▁वॉच	-8106
▁शॉल	-8107
▁सूद	-8108
▁सोई	-8109
▁हाक	-8110
▁ामल	-8111
▁्क्	-8112
▁्यत	-8113
▁case	-8114
▁ster	-8115
▁ंचने	-8116
▁टैंड	-8117
▁डाला	-8118
▁फलता	-8119
▁रियो	-8120
▁रिवा	-8121
▁ाबले	-8122
▁्द्र	-8123
▁elect	-8124
▁बच्चो	-8125
▁्ट्री	-8126
RP	-8127
UI	-8128
वो	-8129
IVE	-8130
ard	-8131
hat	-8132
ord	-8133
▁(8	-8134
▁AB	-8135
▁AN	-8136
▁Ad	-8137
▁CE	-8138
▁DI	-8139
▁EC	-8140
▁Fi	-8141
▁IG	-8142
▁औऱ	-8143
▁कण	-8144
▁धक	-8145
▁107	-8146
▁114	-8147
▁118	-8148
▁134	-8149
▁25%	-8150
▁360	-8151
▁40%	-8152
▁Che	-8153
▁Cho	-8154
▁Gro	-8155
▁LSG	-8156
▁Sen	-8157
▁iOS	-8158
▁आश्	-8159
▁ऑनर	-8160
▁कतर	-8161
▁कैट	-8162
▁गरम	-8163
▁गैप	-8164
▁जम्	-8165
▁डेम	-8166
▁दिय	-8167
▁दुल	-8168
▁नां	-8169
▁परत	-8170
▁पोज	-8171
▁बाइ	-8172
▁महम	-8173
▁माघ	-8174
▁रहल	-8175
▁लकर	-8176
▁लदे	-8177
▁सरी	-8178
▁ाको	-8179
▁ायस	-8180
▁ौका	-8181
▁Bank	-8182
▁LIVE	-8183
▁Moto	-8184
▁Raja	-8185
▁आईआर	-8186
▁परिण	-8187
▁श्ते	-8188
▁्लेट	-8189
▁Purni	-8190
▁एंट्र	-8191
▁रोजगा	-8192
▁लियां	-8193
▁ारियो	-8194
MM	-8195
mu	-8196
़र	-8197
all	-8198
dit	-8199
jun	-8200
rea	-8201
्रव	-8202
▁3'	-8203
▁Ga	-8204
▁ML	-8205
▁co	-8206
▁it	-8207
▁चप	-8208
▁मछ	-8209
▁षड	-8210
▁127	-8211
▁128	-8212
▁20%	-8213
▁550	-8214
▁Ben	-8215
▁MSP	-8216
▁RJD	-8217
▁ary	-8218
▁iya	-8219
▁pic	-8220
▁sya	-8221
▁twi	-8222
▁urt	-8223
▁आबा	-8224
▁एबी	-8225
▁झूम	-8226
▁ड़न	-8227
▁पतन	-8228
▁पाम	-8229
▁यबर	-8230
▁रईस	-8231
▁सजी	-8232
▁ापस	-8233
▁ाहन	-8234
▁ोनि	-8235
▁्टो	-8236
▁Budg	-8237
▁CRPF	-8238
▁Edit	-8239
▁Mini	-8240
▁Rail	-8241
▁करान	-8242
▁करोड	-8243
▁चारी	-8244
▁टैक्	-8245
▁फ्ता	-8246
▁रेंग	-8247
▁सपुर	-8248
▁ालात	-8249
▁्यान	-8250
▁उन्हे	-8251
▁पेक्ट	-8252
▁ार्रव	-8253
▁ेलिया	-8254
▁्तुति	-8255
OP	-8256
RS	-8257
US	-8258
ed	-8259
lu	-8260
छा	-8261
▁&	-8262
▁5%	-8263
▁BM	-8264
▁Ca	-8265
▁Ch	-8266
▁Ho	-8267
▁LP	-8268
▁Nm	-8269
▁Wi	-8270
▁da	-8271
▁qu	-8272
▁rd	-8273
▁इड	-8274
▁घई	-8275
▁दं	-8276
▁11,	-8277
▁117	-8278
▁151	-8279
▁3.0	-8280
▁SRH	-8281
▁mar	-8282
▁एआर	-8283
▁खोद	-8284
▁घिर	-8285
▁चाई	-8286
▁चान	-8287
▁टीन	-8288
▁थाम	-8289
▁धड़	-8290
▁रतब	-8291
▁लाओ	-8292
▁सब्	-8293
▁साख	-8294
▁सूख	-8295
▁हमा	-8296
▁हूँ	-8297
▁ेजे	-8298
▁SDRF	-8299
▁रोपी	-8300
▁स्टै	-8301
▁ांडे	-8302
▁िनिय	-8303
▁्में	-8304
▁AIMIM	-8305
▁Harya	-8306
NA	-8307
▁Ab	-8308
▁CH	-8309
▁Hz	-8310
▁Ko	-8311
▁ND	-8312
▁ay	-8313
▁ry	-8314
▁अथ	-8315
▁टड	-8316
▁़ि	-8317
▁्घ	-8318
olka	-8319
▁(4)	-8320
▁132	-8321
▁137	-8322
▁155	-8323
▁4.5	-8324
▁6.5	-8325
▁Anu	-8326
▁BAN	-8327
▁BNS	-8328
▁Hon	-8329
▁JMM	-8330
▁KKR	-8331
▁UPI	-8332
▁tra	-8333
▁val	-8334
▁ंदू	-8335
▁उपर	-8336
▁ऊंट	-8337
▁एरि	-8338
▁ओली	-8339
▁छठा	-8340
▁जगा	-8341
▁जूट	-8342
▁ठोक	-8343
▁दाब	-8344
▁दाह	-8345
▁बफर	-8346
▁भेद	-8347
▁माश	-8348
▁वतन	-8349
▁शेफ	-8350
▁सजग	-8351
▁िके	-8352
▁Bach	-8353
▁Bang	-8354
▁Holi	-8355
▁NSUI	-8356
▁Paki	-8357
▁mber	-8358
▁कराय	-8359
▁कसान	-8360
▁भावन	-8361
▁मास्	-8362
▁यवस्	-8363
▁ल्मो	-8364
▁ाहुल	-8365
▁िलता	-8366
▁्रोज	-8367
▁Amava	-8368
▁video	-8369
▁फैक्ट	-8370
▁मोबाइ	-8371
AC	-8372
du	-8373
mo	-8374
yo	-8375
भर	-8376
▁া	-8377
dav	-8378
▁DG	-8379
▁Lo	-8380
▁Wa	-8381
▁ia	-8382
▁ja	-8383
▁ki	-8384
▁up	-8385
▁उग	-8386
▁च्	-8387
▁नझ	-8388
▁ॉर	-8389
▁्ठ	-8390
▁1.2	-8391
▁109	-8392
▁119	-8393
▁123	-8394
▁190	-8395
▁315	-8396
▁ATM	-8397
▁CIS	-8398
▁Pay	-8399
▁Sur	-8400
▁Uni	-8401
▁ंचे	-8402
▁अथक	-8403
▁आयी	-8404
▁उभर	-8405
▁एडी	-8406
▁कथक	-8407
▁किं	-8408
▁टपट	-8409
▁टिम	-8410
▁डटे	-8411
▁तिथ	-8412
▁दशा	-8413
▁नके	-8414
▁पंथ	-8415
▁पौष	-8416
▁भरण	-8417
▁मध्	-8418
▁याप	-8419
▁रमह	-8420
▁लहा	-8421
▁विं	-8422
▁शों	-8423
▁संस	-8424
▁हरो	-8425
▁ीमो	-8426
▁ेश्	-8427
▁्चे	-8428
▁Mani	-8429
▁Nare	-8430
▁Test	-8431
▁ंख्य	-8432
▁चढ़ा	-8433
▁रवार	-8434
▁ुरान	-8435
▁्राप	-8436
▁Bachc	-8437
▁Kolka	-8438
▁Sense	-8439
▁Supre	-8440
BT	-8441
ish	-8442
jri	-8443
▁(7	-8444
▁6,	-8445
▁MS	-8446
▁PR	-8447
▁as	-8448
▁fi	-8449
▁il	-8450
▁ol	-8451
▁जक	-8452
▁122	-8453
▁139	-8454
▁145	-8455
▁4-4	-8456
▁7.5	-8457
▁CNG	-8458
▁FSL	-8459
▁JDU	-8460
▁Kal	-8461
▁आटा	-8462
▁आयो	-8463
▁एसई	-8464
▁कसम	-8465
▁किआ	-8466
▁खते	-8467
▁चलर	-8468
▁छिप	-8469
▁जलन	-8470
▁जुड	-8471
▁जेठ	-8472
▁डरी	-8473
▁डॉट	-8474
▁दंग	-8475
▁दफा	-8476
▁धंस	-8477
▁नसी	-8478
▁नाच	-8479
▁पॉश	-8480
▁फाग	-8481
▁राऊ	-8482
▁रूल	-8483
▁सदा	-8484
▁ाउं	-8485
▁ानप	-8486
▁िटि	-8487
▁ुड्	-8488
▁ुम्	-8489
▁्छा	-8490
▁CISF	-8491
▁Repo	-8492
▁टर्स	-8493
▁तिष्	-8494
▁ार्च	-8495
▁ालने	-8496
▁Bihar	-8497
▁न्हें	-8498
▁प्राप	-8499
▁स्पेश	-8500
▁िवर्स	-8501
GB	-8502
MP	-8503
NL	-8504
अर	-8505
fty	-8506
▁Ay	-8507
▁HC	-8508
▁MD	-8509
▁SS	-8510
▁ew	-8511
▁gn	-8512
▁id	-8513
▁mp	-8514
▁wa	-8515
▁उट	-8516
▁खड	-8517
▁चत	-8518
▁छो	-8519
▁वग	-8520
▁सट	-8521
▁ृद	-8522
▁्ख	-8523
▁(3)	-8524
▁113	-8525
▁164	-8526
▁185	-8527
▁195	-8528
▁2-1	-8529
▁303	-8530
▁351	-8531
▁BSE	-8532
▁TVS	-8533
▁Tri	-8534
▁WTC	-8535
▁You	-8536
▁अध्	-8537
▁आबू	-8538
▁आभा	-8539
▁एंग	-8540
▁एअर	-8541
▁खाप	-8542
▁गदर	-8543
▁चों	-8544
▁जूम	-8545
▁जैव	-8546
▁झार	-8547
▁ठगे	-8548
▁दाध	-8549
▁नतई	-8550
▁नेज	-8551
▁नोक	-8552
▁पक्	-8553
▁फतह	-8554
▁बीट	-8555
▁यरन	-8556
▁लिम	-8557
▁वरि	-8558
▁वसी	-8559
▁शीन	-8560
▁समी	-8561
▁हनन	-8562
▁ित्	-8563
▁ीनो	-8564
▁्चन	-8565
▁्टा	-8566
▁hand	-8567
▁ड़कर	-8568
▁नियो	-8569
▁बढ़े	-8570
▁मुक्	-8571
▁मूर्	-8572
▁हाईव	-8573
▁ृतिक	-8574
▁Nifty	-8575
▁Stree	-8576
▁ज्ञाप	-8577
AT	-8578
FI	-8579
hy	-8580
so	-8581
▁ञ	-8582
uru	-8583
▁3:	-8584
▁Au	-8585
▁OP	-8586
▁SL	-8587
▁kW	-8588
▁mo	-8589
▁गछ	-8590
▁दड	-8591
▁नख	-8592
▁य़	-8593
▁(20	-8594
▁148	-8595
▁30%	-8596
▁320	-8597
▁Net	-8598
▁PAK	-8599
▁She	-8600
▁abh	-8601
▁अरे	-8602
▁ऊषा	-8603
▁जगी	-8604
▁झड़	-8605
▁डिग	-8606
▁तपन	-8607
▁दफन	-8608
▁दीं	-8609
▁नबी	-8610
▁नरम	-8611
▁पके	-8612
▁फील	-8613
▁बैल	-8614
▁भेल	-8615
▁यति	-8616
▁रकत	-8617
▁रहर	-8618
▁रेर	-8619
▁वस्	-8620
▁शोज	-8621
▁सौं	-8622
▁़िल	-8623
▁ावध	-8624
▁िडे	-8625
▁िरद	-8626
▁ीफा	-8627
▁ुस्	-8628
▁ABVP	-8629
▁Jaya	-8630
▁SEBI	-8631
▁परेश	-8632
▁फर्ज	-8633
▁बोधि	-8634
▁यूटी	-8635
▁Arjun	-8636
DS	-8637
PM	-8638
RT	-8639
GMU	-8640
rah	-8641
sti	-8642
urd	-8643
ver	-8644
▁8-	-8645
▁9,	-8646
▁ex	-8647
▁ge	-8648
▁ke	-8649
▁va	-8650
▁ईट	-8651
▁दद	-8652
▁बश	-8653
▁(5)	-8654
▁1-2	-8655
▁126	-8656
▁5.5	-8657
▁DNA	-8658
▁EPF	-8659
▁IPC	-8660
▁Jio	-8661
▁NCR	-8662
▁Nat	-8663
▁VIP	-8664
▁आटे	-8665
▁कटी	-8666
▁चाव	-8667
▁टूल	-8668
▁टेट	-8669
▁डोज	-8670
▁तात	-8671
▁दाग	-8672
▁नकी	-8673
▁भूत	-8674
▁रुम	-8675
▁रॉक	-8676
▁समि	-8677
▁हस्	-8678
▁हात	-8679
▁िलो	-8680
▁ुनी	-8681
▁ोहि	-8682
▁्सर	-8683
▁Amit	-8684
▁Card	-8685
▁KGMU	-8686
▁Poll	-8687
▁उड़द	-8688
▁गामी	-8689
▁नाएं	-8690
▁पोस्	-8691
▁ब्लॉ	-8692
▁रीका	-8693
▁Kalki	-8694
▁Kejri	-8695
▁Yadav	-8696
▁स्कार	-8697
IT	-8698
ul	-8699
ृज	-8700
ero	-8701
hit	-8702
iti	-8703
lea	-8704
▁(9	-8705
▁CB	-8706
▁PB	-8707
▁Sk	-8708
▁ft	-8709
▁ny	-8710
▁ऐन	-8711
▁सड	-8712
▁ीध	-8713
▁20,	-8714
▁307	-8715
▁CIA	-8716
▁DIG	-8717
▁EOW	-8718
▁Hyu	-8719
▁PCB	-8720
▁Rai	-8721
▁XUV	-8722
▁nna	-8723
▁pra	-8724
▁आसन	-8725
▁गलग	-8726
▁चिट	-8727
▁छोड	-8728
▁जमे	-8729
▁टैं	-8730
▁दमन	-8731
▁दूज	-8732
▁दों	-8733
▁नईम	-8734
▁नहट	-8735
▁नीक	-8736
▁फॉल	-8737
▁बृज	-8738
▁ब्ध	-8739
▁रसद	-8740
▁रुद	-8741
▁वहा	-8742
▁शिफ	-8743
▁सरस	-8744
▁़ें	-8745
▁ीवा	-8746
▁्गा	-8747
▁्रश	-8748
▁Rana	-8749
▁ndai	-8750
▁गामा	-8751
▁चारो	-8752
▁नवाई	-8753
▁फोड़	-8754
▁लकों	-8755
▁साबि	-8756
▁सुभा	-8757
▁स्ट्	-8758
▁्केट	-8759
▁्रमो	-8760
▁Redmi	-8761
▁sabha	-8762
DO	-8763
MR	-8764
PO	-8765
fe	-8766
shi	-8767
▁1/	-8768
▁1:	-8769
▁AF	-8770
▁NR	-8771
▁PG	-8772
▁RA	-8773
▁ईल	-8774
▁ईश	-8775
▁ऐं	-8776
▁टस	-8777
दाता	-8778
▁13,	-8779
▁146	-8780
▁15,	-8781
▁2-0	-8782
▁25,	-8783
▁260	-8784
▁60%	-8785
▁70%	-8786
▁ACP	-8787
▁AUS	-8788
▁CMO	-8789
▁ISI	-8790
▁ISR	-8791
▁Kri	-8792
▁Mer	-8793
▁PWD	-8794
▁Pad	-8795
▁dha	-8796
▁gra	-8797
▁ंभव	-8798
▁आेर	-8799
▁कनक	-8800
▁नयी	-8801
▁बशर	-8802
▁मुद	-8803
▁यमन	-8804
▁रुआ	-8805
▁सजे	-8806
▁िलए	-8807
▁ुले	-8808
▁ोगो	-8809
▁ोशि	-8810
▁GMCH	-8811
▁List	-8812
▁NHAI	-8813
▁Note	-8814
▁Pand	-8815
▁Stor	-8816
▁क्रे	-8817
▁ख़ान	-8818
▁तिनि	-8819
▁नज़र	-8820
▁मिश्	-8821
▁यार्	-8822
▁योजि	-8823
▁ारिय	-8824
▁ूत्र	-8825
▁ेल्स	-8826
▁shtra	-8827
▁तदाता	-8828
▁विधाय	-8829
▁सुप्र	-8830
▁्रशास	-8831
DC	-8832
as	-8833
ग़	-8834
छल	-8835
फा	-8836
ोन	-8837
▁$	-8838
BSE	-8839
ith	-8840
sha	-8841
▁(0	-8842
▁8,	-8843
▁Ag	-8844
▁CG	-8845
▁El	-8846
▁Jo	-8847
▁MA	-8848
▁Pi	-8849
▁TT	-8850
▁ca	-8851
▁nb	-8852
▁ru	-8853
▁us	-8854
▁क‍	-8855
▁गॉ	-8856
▁बं	-8857
▁षो	-8858
atch	-8859
atra	-8860
ttar	-8861
▁(6)	-8862
▁143	-8863
▁17,	-8864
▁176	-8865
▁206	-8866
▁228	-8867
▁Ali	-8868
▁Cri	-8869
▁IMF	-8870
▁Shu	-8871
▁cal	-8872
▁hya	-8873
▁ine	-8874
▁kar	-8875
▁man	-8876
▁ure	-8877
▁ंने	-8878
▁उछल	-8879
▁ओरी	-8880
▁खेद	-8881
▁जां	-8882
▁टॉक	-8883
▁डोम	-8884
▁नयन	-8885
▁नरक	-8886
▁नहा	-8887
▁नीष	-8888
▁पकड	-8889
▁पनप	-8890
▁फेर	-8891
▁बदर	-8892
▁भोर	-8893
▁माच	-8894
▁मैट	-8895
▁रणो	-8896
▁रमल	-8897
▁रहन	-8898
▁लूज	-8899
▁ाषा	-8900
▁ुरं	-8901
▁ोस्	-8902
▁्दे	-8903
▁्पत	-8904
▁BSNL	-8905
▁Cong	-8906
▁Diwa	-8907
▁EPFO	-8908
▁Guru	-8909
▁High	-8910
▁June	-8911
▁Muhu	-8912
▁NDRF	-8913
▁Rate	-8914
▁Vivo	-8915
▁इसमे	-8916
▁कोर्	-8917
▁गौड़	-8918
▁थिया	-8919
▁फ़ग़	-8920
▁भिड़	-8921
▁लड़े	-8922
▁लांट	-8923
▁वसीय	-8924
▁संतो	-8925
▁सैनि	-8926
▁्याण	-8927
▁Chand	-8928
▁Janma	-8929
▁Kanga	-8930
▁Karti	-8931
▁Shard	-8932
▁Uttar	-8933
▁ंट्रो	-8934
▁ंपत्त	-8935
AE	-8936
EE	-8937
pu	-8938
ry	-8939
ty	-8940
कई	-8941
▁ে	-8942
▁🔴	-8943
ida	-8944
्रि	-8945
▁Ap	-8946
▁CI	-8947
▁Gu	-8948
▁MV	-8949
▁Qu	-8950
▁ad	-8951
▁he	-8952
▁ic	-8953
▁nj	-8954
▁nu	-8955
▁so	-8956
▁अह	-8957
▁इट	-8958
▁ईई	-8959
▁औल	-8960
▁वच	-8961
▁्ह	-8962
▁1-0	-8963
▁141	-8964
▁142	-8965
▁147	-8966
▁169	-8967
▁172	-8968
▁223	-8969
▁234	-8970
▁302	-8971
▁420	-8972
▁ADA	-8973
▁Act	-8974
▁BMW	-8975
▁BSP	-8976
▁Cre	-8977
▁DMK	-8978
▁ICU	-8979
▁Jam	-8980
▁LPG	-8981
▁May	-8982
▁SMS	-8983
▁Sri	-8984
▁con	-8985
▁kWh	-8986
▁nga	-8987
▁nic	-8988
▁unt	-8989
▁ंची	-8990
▁ंधि	-8991
▁ंसे	-8992
▁इतर	-8993
▁इरा	-8994
▁ओरण	-8995
▁कवा	-8996
▁क‍ि	-8997
▁गेल	-8998
▁जिं	-8999
▁जिय	-9000
▁जोस	-9001
▁पकी	-9002
▁पटा	-9003
▁बंट	-9004
▁मझौ	-9005
▁महक	-9006
▁लवे	-9007
▁हिन	-9008
▁हेग	-9009
▁ुश्	-9010
▁ूदा	-9011
▁ेफर	-9012
▁ेलव	-9013
▁ोहल	-9014
▁्ना	-9015
▁Amba	-9016
▁Deep	-9017
▁Hind	-9018
▁Rukh	-9019
▁Sona	-9020
▁What	-9021
▁उड़ा	-9022
▁चिका	-9023
▁याचि	-9024
▁रवान	-9025
▁र्षद	-9026
▁लाओं	-9027
▁सदस्	-9028
▁हथिय	-9029
▁ामला	-9030
▁ाहित	-9031
▁िससे	-9032
▁Cheta	-9033
▁Karna	-9034
▁राप्त	-9035
▁सक्रि	-9036
▁ाराष्	-9037
▁िर्धा	-9038
CS	-9039
LD	-9040
TA	-9041
TI	-9042
gg	-9043
my	-9044
▁̈	-9045
ami	-9046
▁-2	-9047
▁BE	-9048
▁Be	-9049
▁EM	-9050
▁EX	-9051
▁Fu	-9052
▁NG	-9053
▁PS	-9054
▁SO	-9055
▁by	-9056
▁fa	-9057
▁nc	-9058
▁गह	-9059
▁चढ	-9060
▁छग	-9061
▁झक	-9062
▁डं	-9063
▁रअ	-9064
▁ेण	-9065
▁।।	-9066
mart	-9067
▁(25	-9068
▁165	-9069
▁181	-9070
▁288	-9071
▁3-0	-9072
▁305	-9073
▁35%	-9074
▁ENG	-9075
▁Fli	-9076
▁Sid	-9077
▁Swi	-9078
▁phy	-9079
▁raj	-9080
▁tha	-9081
▁आरव	-9082
▁गेज	-9083
▁चरस	-9084
▁चेस	-9085
▁छिन	-9086
▁छुप	-9087
▁जिप	-9088
▁जैद	-9089
▁ठगा	-9090
▁ड़व	-9091
▁तपु	-9092
▁तिप	-9093
▁धरन	-9094
▁फड़	-9095
▁फीड	-9096
▁बसी	-9097
▁यर्	-9098
▁रदी	-9099
▁रीट	-9100
▁सटा	-9101
▁सटी	-9102
▁सबस	-9103
▁सीप	-9104
▁ाचि	-9105
▁िफि	-9106
▁ेका	-9107
▁ेजो	-9108
▁ैनि	-9109
▁ोमी	-9110
▁्वस	-9111
▁Acci	-9112
▁Arvi	-9113
▁Ayod	-9114
▁BPSC	-9115
▁Isra	-9116
▁Pari	-9117
▁RPSC	-9118
▁Shan	-9119
▁Upay	-9120
▁baza	-9121
▁अड़े	-9122
▁गुड़	-9123
▁त्रण	-9124
▁पढ़े	-9125
▁पताल	-9126
▁रदेश	-9127
▁ामिल	-9128
▁ुड़ी	-9129
▁ृत्व	-9130
▁ेजरी	-9131
▁्वास	-9132
▁Champ	-9133
▁Hindi	-9134
▁Honda	-9135
▁Rohit	-9136
▁state	-9137
▁ंचालि	-9138
▁ंद्री	-9139
▁पूछता	-9140
▁वीडिय	-9141
WS	-9142
no	-9143
मन	-9144
रन	-9145
▁➤	-9146
cto	-9147
ear	-9148
ite	-9149
per	-9150
▁1%	-9151
▁AP	-9152
▁Aw	-9153
▁BR	-9154
▁By	-9155
▁Ed	-9156
▁JN	-9157
▁My	-9158
▁Sp	-9159
▁iQ	-9160
▁om	-9161
▁po	-9162
▁wi	-9163
▁ओन	-9164
▁ठन	-9165
▁मख	-9166
▁सभ	-9167
atha	-9168
irth	-9169
▁(10	-9170
▁(12	-9171
▁(24	-9172
▁1.3	-9173
▁124	-9174
▁149	-9175
▁154	-9176
▁174	-9177
▁177	-9178
▁191	-9179
▁202	-9180
▁24,	-9181
▁280	-9182
▁30,	-9183
▁7.6	-9184
▁DDU	-9185
▁Far	-9186
▁GRP	-9187
▁Kha	-9188
▁OPD	-9189
▁Pit	-9190
▁Sar	-9191
▁Sat	-9192
▁Tro	-9193
▁Who	-9194
▁ber	-9195
▁gan	-9196
▁vra	-9197
▁wan	-9198
▁आदर	-9199
▁एंव	-9200
▁ओले	-9201
▁औंस	-9202
▁औलख	-9203
▁कंस	-9204
▁करव	-9205
▁चरक	-9206
▁जंप	-9207
▁जाे	-9208
▁टैब	-9209
▁डेल	-9210
▁तरल	-9211
▁तोड	-9212
▁दूं	-9213
▁धनी	-9214
▁नैक	-9215
▁नैन	-9216
▁पटल	-9217
▁पला	-9218
▁पैठ	-9219
▁बले	-9220
▁रहम	-9221
▁रूह	-9222
▁लदी	-9223
▁शंख	-9224
▁सगर	-9225
▁सबब	-9226
▁हीद	-9227
▁िचा	-9228
▁िहा	-9229
▁ुके	-9230
▁्प्	-9231
▁्मी	-9232
▁्यम	-9233
▁ADAS	-9234
▁Allu	-9235
▁Amaz	-9236
▁ISRO	-9237
▁Mark	-9238
▁Revi	-9239
▁ंडिय	-9240
▁उमड़	-9241
▁जेक्	-9242
▁झड़प	-9243
▁फाड़	-9244
▁मारन	-9245
▁रिकी	-9246
▁वालो	-9247
▁ाड़ि	-9248
▁ैनिक	-9249
▁्रदर	-9250
▁Festi	-9251
▁Sinha	-9252
▁Smart	-9253
▁Vidhi	-9254
▁परिवा	-9255
▁फ्तार	-9256
▁ात्री	-9257
▁्यर्थ	-9258
ji	-9259
ku	-9260
और	-9261
दो	-9262
वह	-9263
▁ऱ	-9264
ili	-9265
oda	-9266
rom	-9267
्रे	-9268
▁BB	-9269
▁DA	-9270
▁FY	-9271
▁GP	-9272
▁HA	-9273
▁LL	-9274
▁MC	-9275
▁MO	-9276
▁MU	-9277
▁NO	-9278
▁SH	-9279
▁UK	-9280
▁cy	-9281
▁km	-9282
▁ll	-9283
▁my	-9284
▁ve	-9285
▁ईए	-9286
▁ढल	-9287
▁थन	-9288
▁भज	-9289
reak	-9290
स्पि	-9291
▁(21	-9292
▁(22	-9293
▁15%	-9294
▁152	-9295
▁153	-9296
▁167	-9297
▁188	-9298
▁205	-9299
▁225	-9300
▁375	-9301
▁506	-9302
▁6-7	-9303
▁950	-9304
▁ATS	-9305
▁Gen	-9306
▁MVA	-9307
▁Mal	-9308
▁NSE	-9309
▁POC	-9310
▁RPF	-9311
▁UGC	-9312
▁USA	-9313
▁Xia	-9314
▁ent	-9315
▁pam	-9316
▁pho	-9317
▁ram	-9318
▁shm	-9319
▁आंत	-9320
▁एजी	-9321
▁एडम	-9322
▁एवम	-9323
▁कतई	-9324
▁कना	-9325
▁कौल	-9326
▁खफा	-9327
▁छात	-9328
▁झुक	-9329
▁पसर	-9330
▁पिन	-9331
▁फला	-9332
▁बहल	-9333
▁बेग	-9334
▁बोन	-9335
▁मोब	-9336
▁रको	-9337
▁रपो	-9338
▁रबल	-9339
▁रिष	-9340
▁लेह	-9341
▁वेन	-9342
▁िंत	-9343
▁िमि	-9344
▁िम्	-9345
▁ियं	-9346
▁ेशल	-9347
▁ोलन	-9348
▁ौटा	-9349
▁Aish	-9350
▁Aksh	-9351
▁Bigg	-9352
▁Gane	-9353
▁MBBS	-9354
▁Mali	-9355
▁Murd	-9356
▁Yoja	-9357
▁उसमे	-9358
▁जिन्	-9359
▁जेंद	-9360
▁न्हे	-9361
▁पढ़ा	-9362
▁बल्क	-9363
▁रताप	-9364
▁रीक्	-9365
▁वजूद	-9366
▁हचान	-9367
▁ांधी	-9368
▁ालीन	-9369
▁ुराल	-9370
▁Birth	-9371
▁Jammu	-9372
▁Priya	-9373
▁SGPGI	-9374
▁Shani	-9375
▁Story	-9376
▁Surya	-9377
▁warya	-9378
▁नावों	-9379
▁बोधित	-9380
▁वरिष्	-9381
▁वर्षो	-9382
▁वालिय	-9383
▁वास्थ	-9384
▁ास्ता	-9385
▁िर्वा	-9386
▁ॉस्पि	-9387
▁्राप्	-9388
bo	-9389
एं	-9390
जल	-9391
▁র	-9392
ame	-9393
ing	-9394
sta	-9395
vah	-9396
ालि	-9397
▁0-	-9398
▁AR	-9399
▁JP	-9400
▁MT	-9401
▁PD	-9402
▁Ri	-9403
▁TR	-9404
▁WC	-9405
▁bi	-9406
▁ey	-9407
▁im	-9408
▁lo	-9409
▁pi	-9410
▁अॉ	-9411
▁ईख	-9412
▁डग	-9413
▁धब	-9414
▁वई	-9415
▁वु	-9416
▁षद	-9417
▁ौट	-9418
▁₹1	-9419
▁(15	-9420
▁131	-9421
▁162	-9422
▁171	-9423
▁18,	-9424
▁201	-9425
▁243	-9426
▁272	-9427
▁3.6	-9428
▁310	-9429
▁365	-9430
▁4.2	-9431
▁4.6	-9432
▁543	-9433
▁8.5	-9434
▁Aar	-9435
▁Ash	-9436
▁CHC	-9437
▁DEO	-9438
▁III	-9439
▁IOC	-9440
▁LDA	-9441
▁Mic	-9442
▁PAC	-9443
▁UAE	-9444
▁War	-9445
▁Wom	-9446
▁age	-9447
▁hra	-9448
▁nya	-9449
▁अनस	-9450
▁आइस	-9451
▁औरत	-9452
▁खाय	-9453
▁गोह	-9454
▁छलक	-9455
▁जेन	-9456
▁टहल	-9457
▁डीह	-9458
▁ढहा	-9459
▁तैर	-9460
▁धरा	-9461
▁पंख	-9462
▁पटे	-9463
▁पवई	-9464
▁पेक	-9465
▁पोप	-9466
▁फटे	-9467
▁फाफ	-9468
▁मनन	-9469
▁रमु	-9470
▁रहट	-9471
▁शेप	-9472
▁सबा	-9473
▁ुपर	-9474
▁ूजर	-9475
▁ूटी	-9476
▁ेते	-9477
▁ेवे	-9478
▁Atta	-9479
▁Beng	-9480
▁Boss	-9481
▁CBSE	-9482
▁Chha	-9483
▁HDFC	-9484
▁Land	-9485
▁Open	-9486
▁SDOP	-9487
▁Tube	-9488
▁kshi	-9489
▁mark	-9490
▁mbly	-9491
▁ंधित	-9492
▁डॉक्	-9493
▁दाबा	-9494
▁पेक्	-9495
▁फ्रे	-9496
▁रिजन	-9497
▁र्शन	-9498
▁लांक	-9499
▁ाशों	-9500
▁िस्स	-9501
▁ेरिक	-9502
▁्रैक	-9503
▁Inter	-9504
▁Radhi	-9505
▁Relea	-9506
▁Worth	-9507
▁जीनिय	-9508
▁पत्रक	-9509
▁यापार	-9510
▁सार्व	-9511
▁ाबालि	-9512
▁ार्यो	-9513
▁िलाएं	-9514
▁ॉक्टर	-9515
24	-9516
KS	-9517
MA	-9518
bi	-9519
by	-9520
ef	-9521
sc	-9522
फे	-9523
▁🌟	-9524
PCL	-9525
ale	-9526
ati	-9527
ine	-9528
ock	-9529
rad	-9530
ोध्	-9531
▁4%	-9532
▁5:	-9533
▁Bu	-9534
▁Im	-9535
▁LG	-9536
▁NZ	-9537
▁RO	-9538
▁SK	-9539
▁cc	-9540
▁ci	-9541
▁ku	-9542
▁कझ	-9543
▁कभ	-9544
▁टब	-9545
▁तच	-9546
▁शट	-9547
▁शफ	-9548
▁़ब	-9549
▁ॉज	-9550
▁(14	-9551
▁(8)	-9552
▁0.5	-9553
▁133	-9554
▁136	-9555
▁156	-9556
▁168	-9557
▁19,	-9558
▁192	-9559
▁209	-9560
▁23,	-9561
▁251	-9562
▁3.1	-9563
▁5.8	-9564
▁75%	-9565
▁ABS	-9566
▁Bhu	-9567
▁Bla	-9568
▁CPI	-9569
▁Can	-9570
▁Dho	-9571
▁Gau	-9572
▁IMA	-9573
▁INS	-9574
▁Mon	-9575
▁Som	-9576
▁Tru	-9577
▁WHO	-9578
▁nad	-9579
▁nch	-9580
▁ncy	-9581
▁nta	-9582
▁अधर	-9583
▁अॉफ	-9584
▁आफत	-9585
▁उगल	-9586
▁उबर	-9587
▁उरई	-9588
▁एमी	-9589
▁ऐंठ	-9590
▁ओटी	-9591
▁कलम	-9592
▁कीट	-9593
▁कैग	-9594
▁खिर	-9595
▁गमन	-9596
▁घटे	-9597
▁घनी	-9598
▁जीभ	-9599
▁जूद	-9600
▁टाफ	-9601
▁डोल	-9602
▁तकन	-9603
▁दवे	-9604
▁पचु	-9605
▁पहर	-9606
▁पॉप	-9607
▁बली	-9608
▁मवा	-9609
▁मीत	-9610
▁रहो	-9611
▁वंद	-9612
▁शीश	-9613
▁सगी	-9614
▁सनम	-9615
▁सेब	-9616
▁हेट	-9617
▁ाचन	-9618
▁ाजप	-9619
▁ीटि	-9620
▁ीतर	-9621
▁ेहद	-9622
▁ोगि	-9623
▁ोजे	-9624
▁ोलि	-9625
▁्कर	-9626
▁्दो	-9627
▁्मे	-9628
▁Band	-9629
▁Doct	-9630
▁Fina	-9631
▁Gour	-9632
▁MUDA	-9633
▁SGPC	-9634
▁Temp	-9635
▁Xiao	-9636
▁from	-9637
▁rega	-9638
▁shti	-9639
▁ंदीप	-9640
▁कड़ो	-9641
▁डियम	-9642
▁पढ़ी	-9643
▁पालि	-9644
▁बंगा	-9645
▁भावि	-9646
▁मैदा	-9647
▁रेक्	-9648
▁र्गा	-9649
▁़िया	-9650
▁ारोह	-9651
▁्मों	-9652
▁्वर्	-9653
▁Award	-9654
▁Break	-9655
▁China	-9656
▁Micro	-9657
▁अयोध्	-9658
▁उपलब्	-9659
▁दाबाद	-9660
▁ितंबर	-9661
▁ेमारी	-9662
▁्लेटफ	-9663
▁्वारा	-9664
FS	-9665
OO	-9666
PL	-9667
ca	-9668
dh	-9669
zu	-9670
थर	-9671
दर	-9672
लन	-9673
▁ळ	-9674
▁॰	-9675
dia	-9676
ilm	-9677
jaj	-9678
lia	-9679
mer	-9680
ral	-9681
she	-9682
▁2"	-9683
▁3%	-9684
▁7-	-9685
▁AK	-9686
▁Cy	-9687
▁FA	-9688
▁	-9689
ा	-9690
र	-9691
क	-9692
े	-9693
ी	-9694
न	-9695
्	-9696
स	-9697
ि	-9698
ं	-9699
म	-9700
ह	-9701
ल	-9702
त	-9703
ो	-9704
प	-9705
य	-9706
व	-9707
द	-9708
ज	-9709
ग	-9710
ब	-9711
ु	-9712
।	-9713
ै	-9714
ट	-9715
श	-9716
ए	-9717
ड	-9718
च	-9719
भ	-9720
अ	-9721
थ	-9722
ू	-9723
,	-9724
आ	-9725
इ	-9726
ध	-9727
ख	-9728
उ	-9729
ई	-9730
़	-9731
फ	-9732
ष	-9733
औ	-9734
ौ	-9735
ण	-9736
2	-9737
0	-9738
1	-9739
-	-9740
छ	-9741
ॉ	-9742
घ	-9743
.	-9744
ठ	-9745
ओ	-9746
5	-9747
3	-9748
4	-9749
ढ	-9750
ृ	-9751
9	-9752
6	-9753
झ	-9754
a	-9755
7	-9756
8	-9757
:	-9758
)	-9759
(	-9760
'	-9761
ऐ	-9762
e	-9763
i	-9764
"	-9765
ऑ	-9766
n	-9767
r	-9768
o	-9769
t	-9770
S	-9771
P	-9772
h	-9773
C	-9774
s	-9775
A	-9776
‍	-9777
I	-9778
l	-9779
ऊ	-9780
ञ	-9781
?	-9782
M	-9783
d	-9784
D	-9785
B	-9786
u	-9787
R	-9788
N	-9789
m	-9790
c	-9791
T	-9792
E	-9793
p	-9794
y	-9795
G	-9796
O	-9797
L	-9798
k	-9799
F	-9800
g	-9801
J	-9802
K	-9803
V	-9804
U	-9805
w	-9806
%	-9807
/	-9808
v	-9809
ः	-9810
H	-9811
ँ	-9812
b	-9813
ऋ	-9814
W	-9815
;	-9816
f	-9817
j	-9818
!	-9819
X	-9820
x	-9821
ॅ	-9822
ॐ	-9823
॥	-9824
{	-9825
Y	-9826
z	-9827
₹	-9828
Q	-9829
+	-9830
Z	-9831
_	-9832
^	-9833
°	-9834
०	-9835
q	-9836
*	-9837
}	-9838
@	-9839
ऱ	-9840
ङ	-9841
=	-9842
&	-9843
ऽ	-9844
•	-9845
#	-9846
া	-9847
$	-9848
ে	-9849
র	-9850
🔴	-9851
̈	-9852
]	-9853
➤	-9854
ळ	-9855
️	-9856
🌟	-9857
ऩ	-9858
॰	-9859
ক	-9860
⁠	-9861
२	-9862
\	-9863
্	-9864
ন	-9865
ি	-9866
క	-9867
ి	-9868
×	-9869
ত	-9870
ా	-9871
ు	-9872
్	-9873
­	-9874
জ	-9875
ల	-9876
ব	-9877
ম	-9878
చ	-9879
●	-9880
🕐	-9881
>	-9882
३	-9883
४	-9884
ট	-9885
ো	-9886
ర	-9887
[	-9888
१	-9889
প	-9890
ল	-9891
ু	-9892
ం	-9893
~	-9894
९	-9895
এ	-9896
চ	-9897
য	-9898
ষ	-9899
স	-9900
గ	-9901
ట	-9902
ీ	-9903
♈	-9904
ॊ	-9905
ছ	-9906
ড	-9907
দ	-9908
ধ	-9909
త	-9910
న	-9911
వ	-9912
స	-9913
⏱	-9914
♍	-9915
⚠	-9916
⭐	-9917
🇮	-9918
🇳	-9919
🪐	-9920
£	-9921
ॆ	-9922
ॠ	-9923
ঁ	-9924
আ	-9925
ই	-9926
ও	-9927
খ	-9928
়	-9929
ী	-9930
డ	-9931
ప	-9932
శ	-9933
ూ	-9934
ె	-9935
⁄	-9936
☀	-9937
♏	-9938
♐	-9939
♑	-9940
♒	-9941
♓	-9942
🌙	-9943
🔵	-9944
·	-9945
ï	-9946
ऍ	-9947
॑	-9948
५	-9949
६	-9950
८	-9951
অ	-9952
ঘ	-9953
ঠ	-9954
ণ	-9955
ઢ	-9956
ఇ	-9957
ఛ	-9958
జ	-9959
ణ	-9960
థ	-9961
ద	-9962
ఫ	-9963
బ	-9964
భ	-9965
ే	-9966
ొ	-9967
ో	-9968
‛	-9969
€	-9970
⏩	-9971
▪	-9972
○	-9973
♉	-9974
♊	-9975
♋	-9976
♌	-9977
♦	-9978
⚫	-9979
❓	-9980
❗	-9981
	-9982
🌅	-9983
🎉	-9984
🏅	-9985
🏹	-9986
🐉	-9987
💫	-9988
🗓	-9989
😉	-9990
😎	-9991
😜	-9992
😸	-9993
🤔	-9994
🤩	-9995
🦌	-9996
