[UNK]	0
[CLS]	1
[SEP]	2
[PAD]	3
[MASK]	4
!	5
"	6
#	7
$	8
%	9
&	10
'	11
(	12
)	13
*	14
+	15
,	16
-	17
.	18
/	19
0	20
1	21
2	22
3	23
4	24
5	25
6	26
7	27
8	28
9	29
:	30
;	31
=	32
>	33
?	34
@	35
[	36
\	37
]	38
^	39
_	40
a	41
b	42
c	43
d	44
e	45
f	46
g	47
h	48
i	49
j	50
k	51
l	52
m	53
n	54
o	55
p	56
q	57
r	58
s	59
t	60
u	61
v	62
w	63
x	64
y	65
z	66
{	67
}	68
~	69
£	70
­	71
°	72
·	73
×	74
ï	75
̈	76
ँ	77
ं	78
ः	79
अ	80
आ	81
इ	82
ई	83
उ	84
ऊ	85
ऋ	86
ऍ	87
ए	88
ऐ	89
ऑ	90
ओ	91
औ	92
क	93
ख	94
ग	95
घ	96
ङ	97
च	98
छ	99
ज	100
झ	101
ञ	102
ट	103
ठ	104
ड	105
ढ	106
ण	107
त	108
थ	109
द	110
ध	111
न	112
ऩ	113
प	114
फ	115
ब	116
भ	117
म	118
य	119
र	120
ऱ	121
ल	122
ळ	123
व	124
श	125
ष	126
स	127
ह	128
़	129
ऽ	130
ा	131
ि	132
ी	133
ु	134
ू	135
ृ	136
ॅ	137
ॆ	138
े	139
ै	140
ॉ	141
ॊ	142
ो	143
ौ	144
्	145
ॐ	146
॑	147
ॠ	148
।	149
॥	150
०	151
१	152
२	153
३	154
४	155
५	156
६	157
८	158
९	159
॰	160
ঁ	161
অ	162
আ	163
ই	164
এ	165
ও	166
ক	167
খ	168
ঘ	169
চ	170
ছ	171
জ	172
ট	173
ঠ	174
ড	175
ণ	176
ত	177
দ	178
ধ	179
ন	180
প	181
ব	182
ম	183
য	184
র	185
ল	186
ষ	187
স	188
়	189
া	190
ি	191
ী	192
ু	193
ে	194
ো	195
্	196
ઢ	197
ం	198
ఇ	199
క	200
గ	201
చ	202
ఛ	203
జ	204
ట	205
డ	206
ణ	207
త	208
థ	209
ద	210
న	211
ప	212
ఫ	213
బ	214
భ	215
ర	216
ల	217
వ	218
శ	219
స	220
ా	221
ి	222
ీ	223
ు	224
ూ	225
ె	226
ే	227
ొ	228
ో	229
్	230
‌	231
‍	232
‎	233
‛	234
•	235
⁄	236
⁠	237
€	238
₹	239
⏩	240
⏱	241
▪	242
○	243
●	244
☀	245
♈	246
♉	247
♊	248
♋	249
♌	250
♍	251
♏	252
♐	253
♑	254
♒	255
♓	256
♦	257
⚠	258
⚫	259
❓	260
❗	261
➤	262
⭐	263
	264
️	265
🇮	266
🇳	267
🌅	268
🌙	269
🌟	270
🎉	271
🏅	272
🏹	273
🐉	274
💫	275
🔴	276
🔵	277
🕐	278
🗓	279
😉	280
😎	281
😜	282
😸	283
🤔	284
🤩	285
🦌	286
🧭	287
🪐	288
##ड	289
##्	290
##‌	291
##ढ	292
##े	293
##व	294
##द	295
##श	296
##ं	297
##स	298
##ल	299
##ट	300
##ि	301
##ग	302
##ी	303
##ै	304
##प	305
##न	306
##ो	307
##ा	308
##र	309
##म	310
##4	311
##7	312
##1	313
##8	314
##क	315
##त	316
##o	317
##़	318
##च	319
##य	320
##ज	321
##फ	322
##ह	323
##r	324
##i	325
##c	326
##e	327
##ू	328
##ु	329
##थ	330
##ौ	331
##ध	332
##ए	333
##ॉ	334
##ण	335
##9	336
##5	337
##झ	338
##l	339
##s	340
##ब	341
##p	342
##छ	343
##इ	344
##ॅ	345
##j	346
##d	347
##ओ	348
##a	349
##g	350
##ई	351
##आ	352
##ष	353
##‍	354
##ऊ	355
##n	356
##u	357
##b	358
##0	359
##ख	360
##t	361
##w	362
##h	363
##x	364
##m	365
##'	366
##ठ	367
##भ	368
##f	369
##3	370
##ृ	371
##ञ	372
##k	373
##y	374
##v	375
##ङ	376
##6	377
##उ	378
##2	379
##घ	380
##q	381
##ः	382
##ো	383
##স	384
##্	385
##ট	386
##ে	387
##র	388
##ऽ	389
##।	390
##া	391
##ন	392
##ড	393
##?	394
##.	395
##ँ	396
##z	397
##०	398
##२	399
##४	400
##अ	401
##ऱ	402
##,	403
##(	404
###	405
##औ	406
##చ	407
##్	408
##ా	409
##డ	410
##ు	411
##३	412
##ి	413
##ల	414
##క	415
##న	416
##জ	417
##"	418
##ঁ	419
##-	420
##ॊ	421
##ऑ	422
##థ	423
##ం	424
##ో	425
##ত	426
##ি	427
##দ	428
##ল	429
##ব	430
##🤔	431
##ম	432
##/	433
##ऐ	434
##ర	435
##గ	436
##ణ	437
##స	438
##త	439
##ూ	440
##ু	441
##_	442
##@	443
##ळ	444
##॑	445
##😸	446
##😎	447
##🤩	448
##ె	449
##ట	450
##జ	451
##ీ	452
##ॆ	453
##*	454
##ই	455
##ছ	456
##)	457
##१	458
##ঠ	459
##চ	460
##ক	461
##९	462
##ষ	463
##ऋ	464
##­	465
##ॠ	466
##!	467
##প	468
##য	469
##়	470
##	471
##:	472
##ধ	473
##ণ	474
##ী	475
##‎	476
##ऩ	477
##ే	478
##శ	479
##॰	480
##६	481
##=	482
##খ	483
##५	484
##+	485
##॥	486
##🇳	487
##८	488
##;	489
##$	490
##ొ	491
##ద	492
##ार	493
##ें	494
के	495
##्र	496
##या	497
में	498
है	499
की	500
##ान	501
##ों	502
को	503
##र्	504
से	505
##ने	506
कि	507
ने	508
का	509
कर	510
##ता	511
##ाल	512
पर	513
##िक	514
##्य	515
##ना	516
##िल	517
और	518
##स्	519
प्र	520
##क्	521
##ड़	522
##ां	523
इस	524
##ाम	525
##ही	526
हो	527
##िया	528
##ित	529
##वा	530
बा	531
##हा	532
हैं	533
##के	534
##ला	535
##कर	536
##िए	537
##िय	538
##िस	539
##ुर	540
##ंग	541
भी	542
##ले	543
वि	544
स्	545
रा	546
##ते	547
##त्र	548
##ेश	549
जा	550
##िन	551
##ारी	552
##री	553
##हीं	554
सा	555
उन	556
हु	557
##ती	558
##रा	559
##्या	560
##ुल	561
किया	562
##ति	563
लिए	564
ले	565
सं	566
एक	567
##वार	568
##से	569
##नी	570
##गा	571
गया	572
##सी	573
पह	574
##ंद	575
सम	576
##क्ष	577
दे	578
नहीं	579
##ोग	580
था	581
रह	582
कार	583
नि	584
##ाय	585
अप	586
मु	587
##िला	588
सि	589
ही	590
##ली	591
बाद	592
##का	593
##टी	594
##की	595
##ाने	596
##ियों	597
##त्	598
##ार्	599
##ास	600
##ंड	601
साथ	602
##्ह	603
पुल	604
##भा	605
##िर	606
यह	607
##पी	608
पुलिस	609
गई	610
पू	611
कु	612
##मा	613
बता	614
कहा	615
##ाद	616
सु	617
##गी	618
करने	619
##ढ़	620
सी	621
##टर	622
राज	623
उन्ह	624
दो	625
अध	626
तो	627
रहे	628
##ंच	629
वाल	630
थी	631
दिया	632
##्म	633
उस	634
##रो	635
##्री	636
##रे	637
लोग	638
##ाना	639
मह	640
##्रे	641
अन	642
##ौर	643
##ाइ	644
तक	645
रहा	646
दी	647
बताया	648
20	649
##ाज	650
चु	651
##स्ट	652
##ल्	653
##देश	654
##गे	655
##भी	656
##में	657
मौ	658
हुए	659
मिल	660
##कार	661
##ाह	662
##ष्	663
##पुर	664
##ाई	665
##ानी	666
##गर	667
##िश	668
##वी	669
सिं	670
##्त	671
##दी	672
बार	673
बी	674
रही	675
##्ष	676
थे	677
##ंत्र	678
##दा	679
##ोज	680
##कि	681
जिस	682
सिंह	683
##टे	684
##िव	685
##ोंने	686
##नों	687
##बर	688
##ओं	689
##शन	690
##हर	691
सर	692
##जी	693
गए	694
उन्होंने	695
वह	696
##वि	697
##जा	698
##र्ट	699
जो	700
##ड़ी	701
मो	702
हम	703
बे	704
##स्थ	705
##र्म	706
जाए	707
ला	708
पहु	709
आरो	710
पहुंच	711
##ुप	712
##स्त	713
मे	714
लेकर	715
##जे	716
दिन	717
लगा	718
पहले	719
स्थ	720
##सा	721
इसके	722
##ड़ा	723
##च्	724
##द्र	725
##द्	726
अधिक	727
मै	728
##िंग	729
पी	730
लोगों	731
भार	732
##ेल	733
अपने	734
माम	735
कार्य	736
##पा	737
##ीन	738
हुई	739
##किन	740
##ाप	741
##्व	742
जब	743
बै	744
सो	745
लेकिन	746
##ंत्री	747
टी	748
परि	749
##क्र	750
जी	751
साल	752
##मार	753
कम	754
इन	755
दौर	756
##ोक	757
गां	758
जान	759
होने	760
वाले	761
##र्व	762
सक	763
क्ष	764
दौरान	765
अब	766
वर्	767
##ांच	768
बि	769
##ंध	770
या	771
##ेट	772
##ंप	773
##खा	774
##तर	775
##नाव	776
हुआ	777
##र्ज	778
साम	779
कै	780
पि	781
पा	782
##न्	783
बना	784
घर	785
दू	786
निर्	787
तर	788
बात	789
##ोट	790
मां	791
यु	792
शिक	793
##ष्ट	794
##ेत्र	795
##्रेस	796
##धान	797
सरकार	798
उप	799
##मान	800
##ूल	801
शाम	802
शुर	803
रुप	804
##कारी	805
करते	806
हर	807
आय	808
क्षेत्र	809
##टना	810
##च्च	811
##ड़े	812
ये	813
कुमार	814
रू	815
चुनाव	816
##वं	817
##ेंद्र	818
आप	819
##िप	820
अं	821
जन	822
पार्	823
महिला	824
डॉ	825
सू	826
##ोर	827
लिया	828
काम	829
सभी	830
##वे	831
##िम	832
कह	833
##एम	834
रो	835
कुछ	836
बन	837
##क्षा	838
##्ल	839
##ून	840
202	841
##डी	842
##वर	843
##क्त	844
दु	845
10	846
कई	847
पास	848
चल	849
##कों	850
##स्प	851
##क्ट	852
वे	853
##वाल	854
बढ़	855
मुख	856
##वाई	857
सब	858
##जार	859
गांव	860
लग	861
##्स	862
स्ट	863
##क्टर	864
थाना	865
मा	866
अनु	867
कॉ	868
द्	869
भारत	870
ग्र	871
प्रति	872
##सभा	873
##ारा	874
गिर	875
##वारा	876
टीम	877
ना	878
##ोल	879
##सर	880
जु	881
उनके	882
##जन	883
भा	884
बह	885
##भाग	886
मामले	887
कोई	888
चौ	889
सह	890
व्य	891
नाम	892
कांग	893
ट्र	894
##ेंगे	895
हि	896
दर्ज	897
विश	898
आज	899
द्वारा	900
आरोप	901
##बी	902
समय	903
##ीड	904
कांग्रेस	905
अपनी	906
##्यक्ष	907
##ोड़	908
##चार	909
देख	910
##टा	911
##बंध	912
शुरू	913
बच्च	914
निक	915
##ेज	916
हाल	917
##शी	918
राम	919
वहीं	920
उन्हें	921
खिला	922
एस	923
घटना	924
##एस	925
##्यू	926
गो	927
विक	928
यहां	929
दोनों	930
अम	931
बु	932
जिल	933
इं	934
##द्ध	935
##िका	936
स्क	937
अभ	938
जै	939
चाह	940
##ोर्ट	941
आई	942
जिला	943
##णा	944
##ृत	945
बजे	946
##यर	947
रुपए	948
##िट	949
##ताल	950
##र्स	951
फिल	952
अव	953
जांच	954
##ंबर	955
पै	956
रूप	957
विभाग	958
किसी	959
देश	960
मुख्य	961
तरह	962
अल	963
##ूर	964
रख	965
##मी	966
नगर	967
आरोपी	968
बीच	969
युव	970
##फ्त	971
##मंत्री	972
उसके	973
##्यों	974
##ायत	975
गु	976
जानकारी	977
अग	978
प्रदेश	979
##ंक	980
##ंट	981
##क्स	982
##ेर	983
दूस	984
दिल	985
डि	986
दि	987
लोक	988
लाख	989
स्थित	990
शामिल	991
छा	992
##दार	993
##00	994
##्न	995
##जू	996
पु	997
##त्या	998
एवं	999
##चना	1000
##लय	1001
बद	1002
भाज	1003
##ाला	1004
फिर	1005
करी	1006
बैठ	1007
नी	1008
अस्प	1009
भाजपा	1010
खु	1011
मैं	1012
होगा	1013
अस्पताल	1014
##चा	1015
जाएगा	1016
##जर	1017
##ाली	1018
किए	1019
जाने	1020
डी	1021
पुर	1022
तै	1023
रे	1024
उसे	1025
इला	1026
##र्ड	1027
पूर्व	1028
##सान	1029
जारी	1030
##वन	1031
खिलाफ	1032
##ंस	1033
कारण	1034
##क्रम	1035
उत्	1036
##वासी	1037
जिले	1038
##्यादा	1039
पार्टी	1040
सुर	1041
##्मी	1042
##एं	1043
रात	1044
##ेंट	1045
अन्य	1046
##दान	1047
मान	1048
ली	1049
##ेशन	1050
शु	1051
##ांस	1052
##आई	1053
याद	1054
वो	1055
करीब	1056
मंद	1057
##धार	1058
बो	1059
##प्	1060
##हत	1061
उम	1062
उनकी	1063
वाली	1064
आयोज	1065
##वान	1066
सद	1067
##ज्	1068
नेता	1069
##फी	1070
##क्ति	1071
मार	1072
परिवार	1073
ज्यादा	1074
##र्थ	1075
सीट	1076
गिरफ्त	1077
अध्यक्ष	1078
##पर	1079
मंत्री	1080
फै	1081
##बा	1082
मौके	1083
आए	1084
राज्य	1085
वर्ष	1086
ओर	1087
तीन	1088
मंदिर	1089
लि	1090
##सार	1091
##तीय	1092
##ियां	1093
करना	1094
##हार	1095
प्रश	1096
छात्र	1097
कार्र	1098
जाता	1099
फिल्म	1100
सुब	1101
##्यालय	1102
सामने	1103
कार्रवाई	1104
मौत	1105
##धी	1106
जग	1107
शहर	1108
##ुत	1109
हजार	1110
##ामी	1111
सुबह	1112
हा	1113
कार्यक्रम	1114
गुर	1115
श्री	1116
##पाल	1117
स्कूल	1118
##लो	1119
12	1120
विध	1121
जह	1122
मांग	1123
आर	1124
आद	1125
##्रीय	1126
##ाया	1127
सबसे	1128
क्या	1129
मार्	1130
देने	1131
##्ली	1132
##जय	1133
##को	1134
शिक्ष	1135
यू	1136
महा	1137
पिछ	1138
पो	1139
करोड़	1140
निवासी	1141
##्ला	1142
जम	1143
##ारे	1144
##गढ़	1145
यादव	1146
पानी	1147
इसी	1148
अलग	1149
##गत	1150
सूचना	1151
##ब्	1152
मन	1153
##र्मा	1154
##ूम	1155
लड़	1156
युवक	1157
जहां	1158
##कान	1159
बारिश	1160
##ायल	1161
##वास	1162
ऐसे	1163
##जूद	1164
##ेत	1165
क्र	1166
##ियो	1167
##भाव	1168
19	1169
दिए	1170
##नि	1171
कंप	1172
##ध्य	1173
शिकायत	1174
##ादी	1175
15	1176
कर्म	1177
2024	1178
आने	1179
जर	1180
##्ड	1181
पहुंचे	1182
होगी	1183
##िता	1184
जिसमें	1185
##ारियों	1186
इसमें	1187
आया	1188
गिरफ्तार	1189
##स्था	1190
##ंगल	1191
##ंत	1192
सड़	1193
अधिकारी	1194
तैय	1195
ती	1196
##ूं	1197
इससे	1198
##ोन	1199
##ूर्	1200
##तार	1201
मिली	1202
##र्शन	1203
जय	1204
##ंब	1205
11	1206
मत	1207
मोदी	1208
##ासन	1209
##ंदर	1210
भारतीय	1211
पढ़	1212
##ोष	1213
##ैन	1214
##रण	1215
##श्	1216
दिल्ली	1217
पद	1218
अनुसार	1219
रहने	1220
##ायर	1221
कोर्ट	1222
##धिक	1223
शर्मा	1224
##ोजना	1225
शिव	1226
पत्	1227
राष्ट	1228
##धा	1229
प्रा	1230
आग	1231
सकता	1232
बर	1233
##ायक	1234
चाहिए	1235
जिन	1236
##ंज	1237
##ियर	1238
लोकसभा	1239
रिप	1240
बाहर	1241
कप	1242
##दे	1243
##च्छ	1244
##वाद	1245
30	1246
चला	1247
गुरु	1248
##त्व	1249
वहां	1250
शव	1251
स्व	1252
संबंध	1253
##ेंस	1254
मी	1255
निय	1256
##राब	1257
पिछले	1258
किसान	1259
मामला	1260
##ंगे	1261
##मेंट	1262
पूरी	1263
पिता	1264
मिले	1265
एम	1266
##वल	1267
उसकी	1268
##्रा	1269
चे	1270
##ये	1271
क्यों	1272
इंड	1273
##ाइन	1274
##इक	1275
एन	1276
##र्फ	1277
बंद	1278
चार	1279
विधान	1280
##ेम	1281
गा	1282
प्रद	1283
शे	1284
परी	1285
पं	1286
मोह	1287
मिला	1288
दर	1289
##सल	1290
##ज्ञ	1291
##सम	1292
यात्र	1293
201	1294
प्रधान	1295
ट्रे	1296
जीत	1297
आगे	1298
दा	1299
ऑफ	1300
##ूट	1301
बड़ी	1302
काफी	1303
विद	1304
उठ	1305
##स्थान	1306
रवि	1307
केंद्र	1308
रिपोर्ट	1309
सहित	1310
बस	1311
करें	1312
##माण	1313
स्वा	1314
समाज	1315
सफ	1316
जाएगी	1317
प्रत	1318
##ख्या	1319
मृत	1320
##चान	1321
जबकि	1322
घायल	1323
बहुत	1324
पड़	1325
रोड	1326
##ांड	1327
टे	1328
सड़क	1329
##िज	1330
अला	1331
मही	1332
हालां	1333
विकास	1334
संग	1335
अभी	1336
हालांकि	1337
जगह	1338
वीड	1339
बां	1340
सदस	1341
##ताब	1342
##योग	1343
##था	1344
25	1345
हत्या	1346
मुख्यमंत्री	1347
निर्देश	1348
होता	1349
##आर	1350
अपना	1351
##त्म	1352
##ोह	1353
बैठक	1354
स्प	1355
व्यव	1356
##ोध	1357
##ुक्त	1358
मौजूद	1359
विधानसभा	1360
तहत	1361
##लाई	1362
जिसके	1363
बच्चों	1364
दूसरे	1365
वीडियो	1366
मीड	1367
##..	1368
##ुक	1369
##ाइल	1370
कुल	1371
##ट्	1372
योजना	1373
##जह	1374
उसने	1375
बारे	1376
सुन	1377
बाइक	1378
अगर	1379
सकते	1380
उम्मी	1381
विधायक	1382
उम्मीद	1383
##क्षण	1384
बॉ	1385
##ेंद	1386
अलावा	1387
पत्नी	1388
वै	1389
##ंटे	1390
उनका	1391
##गम	1392
##बू	1393
मीडिया	1394
भग	1395
##ग्री	1396
मज	1397
वाह	1398
तब	1399
पता	1400
##प्र	1401
##ुआ	1402
ब्र	1403
पूछ	1404
##ची	1405
##ेष	1406
कंपनी	1407
ता	1408
##लों	1409
##ंगा	1410
भाग	1411
कहना	1412
पे	1413
##कर्	1414
प्रभ	1415
सोम	1416
परीक्षा	1417
वजह	1418
##ुख	1419
पोस्ट	1420
इसे	1421
संख्या	1422
जल	1423
कृ	1424
मंगल	1425
पत्र	1426
आरोपियों	1427
शादी	1428
##लेज	1429
सुरक्षा	1430
##ोरी	1431
आम	1432
##वरी	1433
प्रशासन	1434
पंच	1435
फी	1436
##तम	1437
##ष्ठ	1438
कल	1439
आस	1440
लाल	1441
##मिक	1442
दिनों	1443
रेल	1444
जे	1445
फर	1446
हाथ	1447
##ेंड	1448
सांस	1449
अधिकारियों	1450
दिख	1451
पक	1452
ग्रामी	1453
ग्रामीण	1454
हरिया	1455
जैसे	1456
आधार	1457
तेज	1458
वोट	1459
##फ्	1460
भाई	1461
प्रो	1462
##झे	1463
##खंड	1464
तरफ	1465
##शल	1466
व्यक्ति	1467
लगे	1468
मुताब	1469
पूरा	1470
करता	1471
##ताओं	1472
मुताबिक	1473
भर	1474
करेंगे	1475
##स्ता	1476
मंड	1477
होती	1478
##जेपी	1479
डे	1480
सच	1481
बिज	1482
एक्स	1483
दुकान	1484
महीने	1485
योग	1486
हों	1487
##ार्थ	1488
ों	1489
आयोजन	1490
##काल	1491
राय	1492
गं	1493
##चाल	1494
##क्शन	1495
पहुंची	1496
बनाने	1497
घंटे	1498
थाने	1499
##ात	1500
##णी	1501
ऐसा	1502
कान	1503
##चित	1504
अर	1505
हरियाणा	1506
बीजेपी	1507
वाला	1508
न्या	1509
दिव	1510
रन	1511
नंबर	1512
विशेष	1513
बाल	1514
##र्य	1515
सै	1516
चंद	1517
साह	1518
नजर	1519
##तन	1520
श्र	1521
माल	1522
सम्म	1523
कॉलेज	1524
सोमवार	1525
खेल	1526
पीड़	1527
लगातार	1528
##र्चा	1529
मद	1530
पूरे	1531
जिससे	1532
निर्माण	1533
डॉक्टर	1534
##वेश	1535
सीएम	1536
इंद	1537
##िति	1538
##an	1539
इसकी	1540
##वेद	1541
14	1542
राह	1543
हाई	1544
जून	1545
सांसद	1546
शनि	1547
##लिए	1548
##राज	1549
उद	1550
##शा	1551
##िकल	1552
सकती	1553
घोष	1554
50	1555
प्रम	1556
तैयार	1557
##र्क	1558
विश्व	1559
##तिक	1560
लगाया	1561
24	1562
सेवा	1563
पहली	1564
##बाद	1565
##ार्ड	1566
...	1567
निगम	1568
हाद	1569
मिलने	1570
बिहार	1571
##भीर	1572
सौ	1573
प्रदर्शन	1574
##रीज	1575
कले	1576
##दीप	1577
13	1578
##जनों	1579
##स्ते	1580
पांच	1581
बड़े	1582
केस	1583
वा	1584
मुझे	1585
इसका	1586
मंगलवार	1587
बुध	1588
हूं	1589
##र्ती	1590
भगवान	1591
##िटी	1592
आदि	1593
गंभीर	1594
ड्र	1595
प्रधानमंत्री	1596
कराया	1597
##स्क	1598
##र्च	1599
शुक्र	1600
डिग्री	1601
पंजा	1602
वी	1603
सर्व	1604
नर	1605
##ीय	1606
देते	1607
गांधी	1608
इसलिए	1609
देव	1610
18	1611
मैच	1612
अफ	1613
समझ	1614
बड़ा	1615
व्यवस्था	1616
व्या	1617
विरो	1618
##पति	1619
##ियन	1620
##ार्ट	1621
शनिवार	1622
प्रया	1623
नए	1624
##शत	1625
खे	1626
भे	1627
रविवार	1628
हिस्	1629
##ियान	1630
बनाया	1631
खुद	1632
खान	1633
पति	1634
##बल	1635
प्रस	1636
नई	1637
शिक्षा	1638
जवा	1639
सवाल	1640
हे	1641
करे	1642
इलाज	1643
16	1644
जल्	1645
बुधवार	1646
##स्तान	1647
राजनी	1648
वाप	1649
##यान	1650
##ग्	1651
माह	1652
शुक्रवार	1653
लगी	1654
बज	1655
##वीर	1656
जाती	1657
##ष्ण	1658
ताप	1659
संचाल	1660
ट्रेन	1661
##ज़	1662
##षण	1663
##ल्ड	1664
एक्ट	1665
जेल	1666
प्रभारी	1667
नौ	1668
##म्	1669
##्ले	1670
मेड	1671
पूजा	1672
##स्या	1673
##िस्ट	1674
रुपये	1675
##शि	1676
आयोजित	1677
अच्छ	1678
राजस्थान	1679
##निया	1680
परेश	1681
पक्ष	1682
वन	1683
पहचान	1684
##करण	1685
तापमान	1686
17	1687
समेत	1688
##काश	1689
##ैल	1690
बच	1691
अति	1692
आदेश	1693
सदस्य	1694
##श्व	1695
बिजली	1696
नार	1697
बल	1698
सामान	1699
हिंद	1700
पाल	1701
उसका	1702
पंजाब	1703
परिजनों	1704
स्थिति	1705
गुरुवार	1706
भर्ती	1707
दल	1708
##र्मी	1709
स्थान	1710
संप	1711
सित	1712
##ाप्त	1713
मौसम	1714
खरी	1715
लेने	1716
बेटे	1717
##िश्	1718
होते	1719
##इन	1720
दें	1721
##ैंड	1722
विभ	1723
मध्य	1724
##ांत	1725
शुरुआ	1726
##बंधन	1727
##ुम	1728
देर	1729
इत	1730
जमीन	1731
राहुल	1732
फोन	1733
सरकारी	1734
बेह	1735
तस्	1736
गै	1737
यात्रा	1738
बच्चे	1739
##बाज	1740
दोप	1741
हॉ	1742
##िन्न	1743
होकर	1744
छो	1745
जुलाई	1746
बनाए	1747
करवा	1748
जनता	1749
छोड़	1750
##ाक	1751
लॉ	1752
बाजार	1753
चाल	1754
##टन	1755
बल्	1756
बेटी	1757
रिक	1758
गठ	1759
##र्श	1760
रखा	1761
चलते	1762
राष्ट्रीय	1763
##बे	1764
रोक	1765
चोरी	1766
##न्द्र	1767
##नाथ	1768
##िरा	1769
पार	1770
क्योंकि	1771
थीं	1772
प्रतिशत	1773
भेज	1774
22	1775
पूर्	1776
##र्ग	1777
चुके	1778
तला	1779
हमला	1780
विभिन्न	1781
अगस्त	1782
दोपहर	1783
पीछ	1784
दूसरी	1785
सोशल	1786
मोब	1787
चर्चा	1788
वित	1789
##ुन	1790
अभियान	1791
भो	1792
##डा	1793
युवा	1794
यून	1795
##स्थ्य	1796
अमेर	1797
लाइ	1798
मदद	1799
विरोध	1800
अह	1801
##पास	1802
महिलाओं	1803
बने	1804
##भग	1805
तथा	1806
बैंक	1807
ची	1808
स्वास्थ्य	1809
समस्या	1810
बयान	1811
दीप	1812
##फर	1813
##षद	1814
ट्रै	1815
अवसर	1816
##स्ती	1817
पुत्र	1818
सिर्फ	1819
रेलवे	1820
पेश	1821
जाते	1822
समिति	1823
होंगे	1824
##दारी	1825
##ेक	1826
ग्राम	1827
सचिव	1828
##श्य	1829
फैस	1830
##ध्यक्ष	1831
पाकि	1832
जयपुर	1833
प्रयास	1834
चुकी	1835
मोबाइल	1836
##्रम	1837
अपरा	1838
##क्षक	1839
मृतक	1840
वाहन	1841
जवाब	1842
##ानीय	1843
##वेदन	1844
विवाद	1845
देवी	1846
सम्मान	1847
##हरा	1848
स्थानीय	1849
मना	1850
मिश	1851
##वाह	1852
200	1853
मेरे	1854
सके	1855
संत	1856
खा	1857
गल	1858
##ूप	1859
##करी	1860
प्रमुख	1861
जल्द	1862
##पूर्	1863
##चे	1864
##धि	1865
##ल्प	1866
दूर	1867
उम्मीदवार	1868
कौ	1869
मिन	1870
शाह	1871
##ग्र	1872
रि	1873
देखा	1874
साइ	1875
लगभग	1876
अभि	1877
##जीत	1878
इंटर	1879
बिल	1880
करती	1881
इंडिया	1882
दिस	1883
जैन	1884
##न्न	1885
ते	1886
करा	1887
##िंद	1888
वार	1889
भूम	1890
कार्यकर्	1891
इलाके	1892
21	1893
##ियम	1894
##ूबर	1895
गाड़ी	1896
अवै	1897
##टल	1898
स्तर	1899
सवार	1900
उत्तर	1901
##मत	1902
माध्य	1903
अवैध	1904
किसानों	1905
पंचायत	1906
वापस	1907
महत्व	1908
मई	1909
पीएम	1910
संघ	1911
##ar	1912
शा	1913
एड	1914
##्यान	1915
##ोद	1916
राशि	1917
##धिकारी	1918
वालों	1919
मंत्र	1920
लौ	1921
पढ़ें	1922
##ंभ	1923
शराब	1924
##ॉल	1925
##पीट	1926
बराम	1927
##यों	1928
जीवन	1929
##शनल	1930
धर्म	1931
शेयर	1932
अंदर	1933
##टक	1934
##शिश	1935
राष्ट्र	1936
##रि	1937
पीड़ित	1938
विजय	1939
छात्रा	1940
##ठी	1941
संगठ	1942
सितंबर	1943
##्‍	1944
##जाम	1945
कोशिश	1946
दौ	1947
इंदौर	1948
##हाय	1949
हमारे	1950
बरामद	1951
##चर	1952
कहते	1953
प्रभाव	1954
40	1955
इम	1956
मारपीट	1957
शुरुआत	1958
##ूड	1959
अक्ट	1960
समर्थ	1961
मि	1962
सां	1963
अक्टूबर	1964
बढ़ा	1965
##पक्ष	1966
तीस	1967
जरूर	1968
सें	1969
##पूर्ण	1970
कभी	1971
मार्ग	1972
गण	1973
नोट	1974
कलेक्टर	1975
पीछे	1976
निकल	1977
कट	1978
दिसंबर	1979
##माश	1980
टिक	1981
##क्कर	1982
##केश	1983
##स्टर	1984
एज	1985
लक्ष	1986
##हन	1987
##उंड	1988
मैंने	1989
##कु	1990
##ूरी	1991
ब्ल	1992
##श्च	1993
पूछता	1994
धन	1995
हादसे	1996
##ालय	1997
##ॉप	1998
देकर	1999
रोज	2000
जाना	2001
लिखा	2002
एयर	2003
संभाव	2004
##रिक	2005
मेडिकल	2006
शुभ	2007
पूछताछ	2008
स्टे	2009
कार्यालय	2010
एसपी	2011
##सू	2012
##यन	2013
बदमाश	2014
व्याप	2015
नवं	2016
##र्जी	2017
माता	2018
##धरी	2019
नवंबर	2020
##गंज	2021
##रिया	2022
केंद	2023
##िली	2024
##वीं	2025
सहाय	2026
##दि	2027
आसपास	2028
##एल	2029
ज़	2030
नियम	2031
##्क	2032
रै	2033
##गू	2034
केंद्रीय	2035
धम	2036
चुका	2037
गुप	2038
शो	2039
##थि	2040
##यू	2041
प्ल	2042
अंतर	2043
##प्री	2044
##रज	2045
रज	2046
तौर	2047
प्राप्त	2048
मतदान	2049
##ंकर	2050
केवल	2051
पड़ा	2052
लख	2053
जाएंगे	2054
री	2055
आपको	2056
बिना	2057
##र्ष	2058
चौधरी	2059
##तृ	2060
स्टेशन	2061
##ुष	2062
##धर	2063
##ॉर्ड	2064
पाकिस्तान	2065
##खिल	2066
##लर	2067
भोपाल	2068
संय	2069
देखने	2070
जिम	2071
अंत	2072
किलो	2073
दिखा	2074
मिनट	2075
23	2076
##टेल	2077
लो	2078
##ंका	2079
मरीज	2080
##स्थित	2081
आवेदन	2082
ज्	2083
##वत	2084
लाइन	2085
अप्र	2086
##विधा	2087
##ुओं	2088
##चारी	2089
ध्यान	2090
नेताओं	2091
##ोस	2092
उपल	2093
प्रत्या	2094
एक्सप	2095
भारी	2096
हमें	2097
##फ़	2098
खास	2099
निश	2100
##किंग	2101
##िसर	2102
##्ता	2103
##र्न	2104
नदी	2105
##साइ	2106
26	2107
मार्च	2108
माध्यम	2109
तह	2110
विदेश	2111
##त्स	2112
##ल्स	2113
लाभ	2114
अस	2115
लिख	2116
टै	2117
होना	2118
##िटल	2119
##एच	2120
निरी	2121
लगाए	2122
##र्द	2123
प्ले	2124
##्मे	2125
अश	2126
##भर	2127
2023	2128
सत	2129
खबर	2130
तोड़	2131
देखते	2132
बदल	2133
पश्च	2134
##लाल	2135
बोर्ड	2136
कैसे	2137
पश्चिम	2138
##फा	2139
##ांक	2140
मुद्	2141
##त्ती	2142
टिकट	2143
##जरा	2144
जनवरी	2145
##केट	2146
##लाइन	2147
डाल	2148
गोली	2149
##विद	2150
##ुद	2151
बनी	2152
##र्प	2153
निकाल	2154
कर्मचारी	2155
सुविधा	2156
शि	2157
अपराध	2158
28	2159
##्यो	2160
##र्या	2161
उठा	2162
विकेट	2163
कराने	2164
सप्	2165
##ौल	2166
##हाल	2167
उद्	2168
जिसे	2169
फरार	2170
प्रसाद	2171
अग्र	2172
##पोर्ट	2173
##मार्ट	2174
##िशा	2175
दुर्	2176
यानी	2177
##त्ता	2178
संबंधित	2179
ग्रामीणों	2180
बदला	2181
##षा	2182
संभ	2183
वार्ड	2184
यूपी	2185
अहम	2186
##गल	2187
पदा	2188
नव	2189
सीटों	2190
छात्रों	2191
चि	2192
##फिक	2193
विद्य	2194
##at	2195
##क्रिया	2196
प्रक्रिया	2197
मानस	2198
संभावना	2199
##ियार	2200
अगले	2201
रण	2202
##विद्यालय	2203
उपलब्	2204
##ॉक	2205
##ारोह	2206
समारोह	2207
##िरी	2208
सफल	2209
##सत	2210
संजय	2211
ज्ञ	2212
##फ्ट	2213
श्रद्ध	2214
##तरी	2215
तय	2216
##मन	2217
आयोग	2218
पहुंचा	2219
##ेस	2220
##चारियों	2221
परेशान	2222
शी	2223
सहयोग	2224
भेजा	2225
एल	2226
वायर	2227
जिलों	2228
35	2229
##ंबई	2230
##तृत्व	2231
100	2232
रंग	2233
फोट	2234
चंद्र	2235
##त्तीस	2236
मंडल	2237
पूर्ण	2238
##क्षित	2239
छत्तीस	2240
्स	2241
फीस	2242
27	2243
सुनी	2244
दावा	2245
कर्मचारियों	2246
पकड़	2247
##्रोल	2248
ऐसी	2249
##िप्	2250
क्ल	2251
छत्तीसगढ़	2252
आव	2253
जमा	2254
##माल	2255
मुंबई	2256
##ृह	2257
##ेंसी	2258
नेतृत्व	2259
##मारी	2260
न्याय	2261
गौ	2262
##ंडी	2263
चले	2264
##ालि	2265
##दम	2266
##ृति	2267
रखने	2268
बांग	2269
##ूक	2270
चिक	2271
माना	2272
बोले	2273
##ुरा	2274
नरेंद्र	2275
दुनिया	2276
गर्मी	2277
अप्रैल	2278
##जल	2279
ताकि	2280
नीचे	2281
नागर	2282
आख	2283
तत्	2284
##काब	2285
अद	2286
##राम	2287
##ियल	2288
पटना	2289
उर्फ	2290
हास	2291
##ड़ियों	2292
डाय	2293
तलाश	2294
कीमत	2295
##नात	2296
तैयारी	2297
ति	2298
##ूत	2299
##धे	2300
##ड़ों	2301
कब्	2302
हिस्सा	2303
लगाने	2304
घा	2305
कला	2306
भाव	2307
पेट	2308
फ़	2309
##त्री	2310
टक्कर	2311
बल्कि	2312
आश	2313
इनमें	2314
गुप्ता	2315
ओवर	2316
##असल	2317
##ज्ञान	2318
प्रत्याशी	2319
##स्ल	2320
दरअसल	2321
##ापन	2322
जाकर	2323
मॉ	2324
##एफ	2325
वृ	2326
##चार्य	2327
##ोब	2328
राजनीतिक	2329
##म्म	2330
बंग	2331
##नियर	2332
##ूब	2333
चरण	2334
सिर	2335
टेस्ट	2336
फैसला	2337
संगठन	2338
हार	2339
जिम्मे	2340
जुड़े	2341
लखन	2342
हासिल	2343
मकान	2344
##लोनी	2345
क्रिक	2346
बचा	2347
न्यू	2348
##ीक	2349
गति	2350
गाय	2351
वक्त	2352
फायर	2353
##ाइम	2354
बांग्ला	2355
##ॉर्म	2356
##ंदा	2357
भवन	2358
पल	2359
सदर	2360
तरी	2361
अमेरिका	2362
एफ	2363
##on	2364
वर्ग	2365
##रों	2366
##ित्र	2367
##घा	2368
##ड्	2369
रहते	2370
इस्ते	2371
जन्म	2372
सीमा	2373
##देव	2374
इस्तेमाल	2375
##जु	2376
##धन	2377
साफ	2378
31	2379
स्थाप	2380
ख़	2381
झार	2382
सजा	2383
हथ	2384
किस	2385
कहीं	2386
आन	2387
हमने	2388
न्याया	2389
##चन	2390
प्रकार	2391
रहेगा	2392
##ांति	2393
##फे	2394
##षि	2395
चिकित	2396
दोस्त	2397
##एसपी	2398
##तीश	2399
बांग्लादेश	2400
हालत	2401
जता	2402
मजबू	2403
ड्राइ	2404
चालक	2405
##लू	2406
##टो	2407
बाबा	2408
भीड़	2409
29	2410
फु	2411
##त्ति	2412
त्र	2413
प्रकाश	2414
घु	2415
उपलब्ध	2416
नया	2417
मश	2418
##ियोग	2419
तीनों	2420
खो	2421
बातची	2422
बातचीत	2423
##er	2424
##ायण	2425
पैसे	2426
पौ	2427
समी	2428
कार्ड	2429
मैदान	2430
चौक	2431
घोषणा	2432
परिसर	2433
प्राथ	2434
सिटी	2435
अमित	2436
झारखंड	2437
##श्यक	2438
##िनि	2439
ऑन	2440
पाए	2441
प्राथमिक	2442
##स्व	2443
बनने	2444
##झा	2445
##िन्	2446
महत्वपूर्ण	2447
##क्ता	2448
मूल	2449
45	2450
##िक्ष	2451
##शे	2452
मेरी	2453
विद्यालय	2454
रोह	2455
फिलहाल	2456
कराई	2457
##ार्ज	2458
कैम	2459
खत्म	2460
ट्रांस	2461
रिकॉर्ड	2462
ठीक	2463
मोहन	2464
यही	2465
दिवस	2466
निजी	2467
गठबंधन	2468
in	2469
##जरी	2470
तस्वीर	2471
पड़े	2472
चुन	2473
स्टूड	2474
##किल	2475
##्हें	2476
##्वर	2477
##पुरा	2478
##ेय	2479
चा	2480
मुक	2481
आवश्यक	2482
चोर	2483
रु	2484
##टने	2485
बहन	2486
लखनऊ	2487
मं	2488
##ील	2489
##एन	2490
##ष्य	2491
##राह	2492
##ंडा	2493
##ैनिक	2494
अंक	2495
##तिम	2496
वायरल	2497
स्वी	2498
सिल	2499
फोटो	2500
नागरिक	2501
खेत	2502
चै	2503
भु	2504
##गार	2505
बाव	2506
सीसी	2507
सेंटर	2508
ऊपर	2509
##तरा	2510
पहला	2511
##रान	2512
##हान	2513
आपके	2514
लड़की	2515
घोषित	2516
##ड्ड	2517
राष्ट्रपति	2518
वरि	2519
##विंद	2520
अय	2521
##मता	2522
धी	2523
मिलकर	2524
रव	2525
##रल	2526
##वाही	2527
मुकाब	2528
पांड	2529
##तों	2530
प्रेम	2531
धारा	2532
उपस्थित	2533
##्योग	2534
खराब	2535
अंतिम	2536
गी	2537
##ेटी	2538
चीन	2539
उदय	2540
आवा	2541
बू	2542
सफाई	2543
सेना	2544
खुला	2545
मीटर	2546
##ित्य	2547
दर्शन	2548
समा	2549
कमी	2550
पाया	2551
सभा	2552
##्रेट	2553
कमेटी	2554
लु	2555
##वाने	2556
हमारी	2557
उच्च	2558
महारा	2559
तभी	2560
##जों	2561
##षेक	2562
##िड	2563
देना	2564
खरीद	2565
##बाजी	2566
##मे	2567
गिरा	2568
जरिए	2569
##व्य	2570
चुना	2571
गेट	2572
शिक्षक	2573
धर	2574
सुप्री	2575
धमकी	2576
टा	2577
##मीटर	2578
वर्षीय	2579
गौर	2580
बोल	2581
##ंख	2582
प्रवेश	2583
हिंदू	2584
##डल	2585
बुला	2586
ट्रक	2587
##ामा	2588
लगाई	2589
सुप्रीम	2590
स्टूडेंट	2591
कित	2592
राज्यों	2593
संक	2594
##al	2595
##ांग	2596
विपक्ष	2597
##ष्ट्र	2598
अचान	2599
##द्धि	2600
##स्ताव	2601
अचानक	2602
अदाल	2603
##वें	2604
##तियों	2605
##स्कार	2606
मुला	2607
नम	2608
विचार	2609
कॉन्	2610
सुनवाई	2611
वरिष्ठ	2612
प्रस्ताव	2613
कानून	2614
अग्रवाल	2615
##वाड़ा	2616
सही	2617
प्रता	2618
समर्थन	2619
आते	2620
वारदा	2621
##मेर	2622
##रीर	2623
चाहते	2624
दक्ष	2625
##पन	2626
महार	2627
प्रतियोग	2628
##नु	2629
कॉलोनी	2630
प्रस्त	2631
उसी	2632
पाठ	2633
मनी	2634
##हरी	2635
##हास	2636
परिजन	2637
क्षेत्रों	2638
लंब	2639
उत्स	2640
सदस्यों	2641
किन	2642
##ंगी	2643
उम्र	2644
क्रिकेट	2645
##ंसा	2646
बावजूद	2647
सिक	2648
##तंत्र	2649
सामान्य	2650
फ्र	2651
लागू	2652
जित	2653
नुक	2654
##ेंडर	2655
##चिका	2656
सिव	2657
परिषद	2658
कृष्ण	2659
##ौती	2660
निवेश	2661
एंड	2662
##ब्ल	2663
उनसे	2664
निरीक्षण	2665
पटेल	2666
िया	2667
सात	2668
होटल	2669
इंत	2670
भू	2671
कौन	2672
##इट	2673
विश्वविद्यालय	2674
उल्	2675
##मति	2676
##उट	2677
परिव	2678
याचिका	2679
तैनात	2680
अशोक	2681
##कत	2682
ऑफिस	2683
बदलाव	2684
कही	2685
##डे	2686
##ुदाय	2687
##ूह	2688
##कल	2689
हथियार	2690
लूट	2691
गृह	2692
##िशन	2693
##ंता	2694
विन	2695
##िश्न	2696
राजनीति	2697
चढ़	2698
डा	2699
प्रभावित	2700
तत्काल	2701
वर्मा	2702
एसडी	2703
नेशनल	2704
##्याण	2705
बनाकर	2706
##वाली	2707
कॉल	2708
फा	2709
##ॉट	2710
निर्ण	2711
रिज	2712
रखी	2713
चां	2714
##त्रा	2715
संब	2716
बेहतर	2717
गेंद	2718
##ख्त	2719
##स्कर	2720
##तल	2721
##in	2722
##ाले	2723
##प्शन	2724
दिखाई	2725
गलत	2726
कब	2727
नुकसान	2728
जरूरी	2729
##ुरी	2730
उत्प	2731
अदालत	2732
##शु	2733
रहता	2734
कारोब	2735
##स्टम	2736
जरूरत	2737
प्रतियोगिता	2738
सुना	2739
फाइन	2740
कोच	2741
असर	2742
उससे	2743
छोटे	2744
अजय	2745
उपयोग	2746
##वट	2747
##िकी	2748
##स्पिटल	2749
पदाधिकारी	2750
मजद	2751
बनाई	2752
करेगी	2753
तुर	2754
##िद	2755
रास्ते	2756
संस्थान	2757
स्थल	2758
##तिहास	2759
मू	2760
अयोध	2761
भक्त	2762
अफसर	2763
डिज	2764
हल्	2765
राहत	2766
),	2767
##टिंग	2768
ग्रुप	2769
विद्यार्थ	2770
कर्	2771
मर	2772
रिली	2773
महाराष्ट्र	2774
##चल	2775
##टीवी	2776
##सील	2777
युवती	2778
##ूर्ति	2779
वारदात	2780
हवा	2781
##ध्या	2782
प्रदान	2783
हॉस्पिटल	2784
तरीके	2785
शांति	2786
ताला	2787
##वाइ	2788
##as	2789
महाराज	2790
##ैया	2791
सुख	2792
लगने	2793
मिश्रा	2794
2019	2795
##िने	2796
##यल	2797
किश	2798
भूमिका	2799
अयोध्या	2800
राजेश	2801
दक्षि	2802
##लिया	2803
कार्यकर्ताओं	2804
सीसीटीवी	2805
##र्गत	2806
जाम	2807
##सों	2808
##ठा	2809
संस	2810
मजबूत	2811
पंड	2812
विष	2813
##ंदी	2814
स्वागत	2815
तुरंत	2816
सागर	2817
जोर	2818
इतना	2819
ड्राइवर	2820
इले	2821
रिश्	2822
हमले	2823
मंच	2824
संस्था	2825
##र्डर	2826
##टेड	2827
वाहनों	2828
कल्याण	2829
##नेश	2830
##ज्ज	2831
कपूर	2832
जागर	2833
तम	2834
लॉन्	2835
अभिषेक	2836
रिलीज	2837
बजट	2838
उपा	2839
फ्ल	2840
##or	2841
लगाकर	2842
नौकरी	2843
घाट	2844
सल	2845
प्रचार	2846
हाईक	2847
##कात	2848
##ल्ट	2849
हट	2850
फरवरी	2851
रायपुर	2852
मल	2853
आर्थ	2854
##ॉर्ट	2855
बीते	2856
जब्त	2857
##ैक	2858
##न्ना	2859
नाब	2860
कृषि	2861
बंगाल	2862
जवान	2863
लगता	2864
लौट	2865
##उस	2866
तेजी	2867
संयुक्त	2868
##ेक्ट	2869
60	2870
ठाक	2871
मेरा	2872
आनंद	2873
लेते	2874
सीटें	2875
चोट	2876
आत्म	2877
राव	2878
मिलेगा	2879
सिविल	2880
आर्थिक	2881
अली	2882
यदि	2883
बेच	2884
सोन	2885
प्रतिनि	2886
##उंट	2887
कोत	2888
तहसील	2889
##ुण	2890
कोल	2891
नोटिस	2892
बताते	2893
फीसदी	2894
##ालिग	2895
छह	2896
दीपक	2897
##ंटी	2898
नाबालिग	2899
##्यून	2900
संवि	2901
रहेगी	2902
2022	2903
##ारंभ	2904
ऑनलाइन	2905
मालिक	2906
अर्	2907
भास्कर	2908
ne	2909
##भव	2910
प्री	2911
एक्सप्रेस	2912
##ताह	2913
जमकर	2914
भवि	2915
कदम	2916
मुलाकात	2917
बेटा	2918
रोहित	2919
##िक्र	2920
करेगा	2921
नाराज	2922
निर्णय	2923
##म्मद	2924
श्रद्धाल	2925
हाउस	2926
भविष्य	2927
गैंग	2928
##रासत	2929
प्रशिक्ष	2930
आत	2931
##्वाल	2932
मनोज	2933
दम	2934
##ंकी	2935
सामना	2936
अज	2937
पर्य	2938
पट	2939
निर्वा	2940
कड़ी	2941
गिरफ्तारी	2942
अतिरिक	2943
पैर	2944
##र्जा	2945
प्रि	2946
ठाकुर	2947
फर्जी	2948
हनु	2949
##वर्	2950
रहती	2951
गंगा	2952
पर्व	2953
##ha	2954
पॉ	2955
##िब	2956
##्रो	2957
प्राइ	2958
दूसरा	2959
अंतर्गत	2960
संबोध	2961
तारी	2962
बांध	2963
धो	2964
##खी	2965
अतिरिक्त	2966
तेल	2967
##राव	2968
##ादा	2969
झा	2970
अपील	2971
जिसकी	2972
सहायक	2973
उदयपुर	2974
हाईकोर्ट	2975
सीरीज	2976
##िवर्स	2977
खड़े	2978
खर्च	2979
कार्यकर्ता	2980
खुल	2981
##ti	2982
व्यक्त	2983
##त्सव	2984
500	2985
##्तान	2986
करवाया	2987
32	2988
##श्मी	2989
##हरे	2990
##िनी	2991
##डीए	2992
बदमाशों	2993
कां	2994
मतदा	2995
नो	2996
बैठे	2997
##श्वर	2998
अज्ञ	2999
##्याम	3000
देशों	3001
साहू	3002
पीड़िता	3003
संचालन	3004
अज्ञात	3005
सिस्टम	3006
##कीय	3007
स्पेश	3008
हिस	3009
##ांसी	3010
इलाकों	3011
सुनील	3012
आंद	3013
कंपन	3014
मोहम्मद	3015
दबा	3016
सत्र	3017
पार्षद	3018
##ांकन	3019
देंगे	3020
रक्षा	3021
अनिल	3022
अंजाम	3023
फाय	3024
मिलते	3025
वीर	3026
जाल	3027
##तमान	3028
सुपर	3029
##ोलन	3030
अच्छी	3031
कश्मी	3032
मुश्	3033
मुस्ल	3034
सुधार	3035
ठे	3036
##इल	3037
##ेंज	3038
संर	3039
बच्ची	3040
जैसी	3041
मुस्लिम	3042
प्रोज	3043
मामलों	3044
##ष्टि	3045
कोतवाली	3046
दब	3047
##ेड	3048
##थम	3049
जिंद	3050
किलोमीटर	3051
पेट्रोल	3052
तुल	3053
हनुमान	3054
पर्या	3055
हटा	3056
गुजरा	3057
आवास	3058
डर	3059
भूमि	3060
##दों	3061
##ाजिक	3062
भोज	3063
##ेशा	3064
सोने	3065
नीतीश	3066
स्पेशल	3067
फसल	3068
बिक	3069
अधी	3070
युवाओं	3071
छु	3072
आशी	3073
##विध	3074
परेशानी	3075
उत	3076
मंत्रालय	3077
डायरे	3078
दश	3079
निदेश	3080
##स्त्र	3081
##त्मक	3082
##es	3083
##ांव	3084
##ुड	3085
केजरी	3086
प्रताप	3087
प्रोजेक्ट	3088
केजरीवाल	3089
##वरण	3090
##्राम	3091
##बीर	3092
आंदोलन	3093
विस्त	3094
अच्छा	3095
शक्ति	3096
जाय	3097
देखकर	3098
रजिस्ट	3099
अधिकार	3100
एक्ट्रेस	3101
उत्पाद	3102
##पथ	3103
अलर्ट	3104
कन	3105
मौका	3106
अंग	3107
घरों	3108
##नगर	3109
##लाह	3110
##टेज	3111
पकड़ा	3112
चली	3113
छाप	3114
##ंद्र	3115
अतिथि	3116
##िश्चित	3117
##्होंने	3118
वर्तमान	3119
##प्रदेश	3120
मुश्किल	3121
श्रे	3122
शिविर	3123
दिशा	3124
मगर	3125
##खर	3126
साइबर	3127
अखिल	3128
तिव	3129
बिग	3130
नामांकन	3131
80	3132
यूनिवर्स	3133
तिवारी	3134
मीणा	3135
योगी	3136
##कुमार	3137
यात्रियों	3138
डॉक्टरों	3139
##वारी	3140
##स्‍	3141
शासन	3142
##कम	3143
न्यायालय	3144
बर्	3145
##ण्ड	3146
आयुक्त	3147
##ोप	3148
इधर	3149
##ुरु	3150
अधिकतम	3151
मैने	3152
सालों	3153
गढ़	3154
कैंप	3155
व्र	3156
##धानी	3157
70	3158
सेक्टर	3159
निकाला	3160
##कर्म	3161
पढ़ाई	3162
मंडी	3163
रैली	3164
टू	3165
##स्ट्री	3166
स्कूलों	3167
मुकेश	3168
सुरक्षित	3169
चुनावी	3170
खाद	3171
##ोत्सव	3172
##्यार	3173
प्लान	3174
सूर्य	3175
मनाया	3176
##फ्र	3177
गईं	3178
हमेशा	3179
चलने	3180
पुरुष	3181
कब्जे	3182
कश्मीर	3183
आकर	3184
जॉ	3185
उसमें	3186
आब	3187
ऑटो	3188
महिलाएं	3189
हड़	3190
##लपुर	3191
कुमारी	3192
##दारों	3193
गणेश	3194
##स्कृत	3195
दक्षिण	3196
गोल	3197
सर्वे	3198
नारायण	3199
##्रमण	3200
संविधान	3201
विवाह	3202
##ांट	3203
देता	3204
युवकों	3205
प्लेट	3206
पारी	3207
जोड़	3208
आल	3209
दास	3210
जागरूक	3211
##तु	3212
##ir	3213
युद्ध	3214
इंटरने	3215
##फल	3216
सिद्ध	3217
##द्द	3218
पूछा	3219
जिम्मेदारी	3220
##jp	3221
राजा	3222
इलेक्ट	3223
यूनिवर्सिटी	3224
क्	3225
बढ़ाने	3226
चयन	3227
##वेट	3228
मरीजों	3229
##ोश	3230
##ेंशन	3231
##्रिक	3232
सम्मानित	3233
तीसरे	3234
33	3235
ड़	3236
लिस्ट	3237
##मार्टम	3238
अका	3239
रम	3240
सप्ताह	3241
रिट	3242
##धिया	3243
रखे	3244
##en	3245
कमरे	3246
पेपर	3247
पोस्टमार्टम	3248
संबोधित	3249
किनारे	3250
रिश्ते	3251
रॉ	3252
एयरपोर्ट	3253
खुलासा	3254
साध	3255
वर्ल्ड	3256
गर्	3257
लाया	3258
पाई	3259
##वादी	3260
सामाजिक	3261
##्यु	3262
##स्तव	3263
सपा	3264
उद्देश	3265
नाग	3266
शिक्षकों	3267
हादसा	3268
फॉ	3269
उनको	3270
अभिय	3271
नक	3272
##वेज	3273
आंक	3274
##ार्म	3275
स्टूडेंट्स	3276
नग	3277
##ad	3278
संपर्क	3279
आठ	3280
आउट	3281
##ोई	3282
वित्त	3283
##सुर	3284
प्रबंधन	3285
रहेंगे	3286
गुजरात	3287
37	3288
खोल	3289
खाली	3290
पस	3291
##णाम	3292
दोष	3293
##प्प	3294
खंड	3295
फ्ला	3296
##िक्स	3297
पहुंचकर	3298
अभ्य	3299
बेहद	3300
##अप	3301
##रीब	3302
जिसका	3303
कार्यों	3304
##ष्ट्रीय	3305
अंब	3306
कौर	3307
पोल	3308
##वुड	3309
वही	3310
तकनी	3311
##्प	3312
धार्	3313
##नीय	3314
सड़कों	3315
धार्मिक	3316
भजन	3317
##ाफ	3318
सेक	3319
आइ	3320
न्यून	3321
##िएशन	3322
राजी	3323
उड़	3324
सर्	3325
दृ	3326
हल	3327
##्रीन	3328
पड़ी	3329
समुदाय	3330
लंबे	3331
##ियस	3332
##शाला	3333
उपचार	3334
चौकी	3335
न्यूनतम	3336
आता	3337
बुजु	3338
घुस	3339
व्रत	3340
बाकी	3341
प्रखंड	3342
##ेश्वर	3343
##्यूटी	3344
रेप	3345
बुजुर्ग	3346
अधीक्षक	3347
आवाज	3348
75	3349
मिस	3350
निर्धार	3351
प्रतिष्ठ	3352
खूब	3353
जंगल	3354
ज्यो	3355
पहल	3356
निर	3357
पार्क	3358
शंकर	3359
##रत	3360
##उन	3361
पूजन	3362
##शिप	3363
##लेट	3364
मुख्यालय	3365
पैसा	3366
समाधान	3367
अभ्यर्थ	3368
##पंच	3369
आदमी	3370
लं	3371
##पत	3372
##क्सर	3373
##ुल्क	3374
199	3375
एक्टर	3376
थो	3377
धार	3378
शरीर	3379
चौहान	3380
##ंह	3381
ब्लॉक	3382
राकेश	3383
##लीवुड	3384
सीजन	3385
इनके	3386
कहानी	3387
अमर	3388
दिला	3389
खुश	3390
##परेशन	3391
मिलेगी	3392
आखिरी	3393
मजदूर	3394
ग्वाल	3395
प्रव	3396
संदीप	3397
बताई	3398
विषय	3399
डेट	3400
फो	3401
##ैर	3402
एसोस	3403
निर्वाचन	3404
bjp	3405
##साय	3406
काल	3407
पुष्	3408
मारने	3409
एजेंसी	3410
##ेड़	3411
सत्ता	3412
##le	3413
सफलता	3414
फूल	3415
लाने	3416
##ुति	3417
अमृत	3418
पुरा	3419
वर्षों	3420
चेक	3421
इमेज	3422
##जीव	3423
रवाना	3424
उद्देश्य	3425
##ाब	3426
प्रेस	3427
इतनी	3428
प्राइवेट	3429
मार्केट	3430
ससुर	3431
##ेद	3432
सेल्स	3433
पहुंचने	3434
##मानत	3435
स्पष्ट	3436
उद्योग	3437
ऑपरेशन	3438
एग्	3439
सुनिश्चित	3440
भुगत	3441
##बन	3442
##ानि	3443
परिणाम	3444
फीट	3445
34	3446
36	3447
कमिश्न	3448
शुक्	3449
मानसून	3450
इंतजार	3451
फाइनल	3452
##चु	3453
आदित्य	3454
##र्पित	3455
##ंडल	3456
##कारों	3457
इंजी	3458
तुम	3459
##ूस	3460
##त्रि	3461
कहां	3462
स्टाफ	3463
##ग्ध	3464
वकी	3465
प्रथम	3466
##सेना	3467
कैप्शन	3468
खिलाड़ी	3469
##फ्तार	3470
सौंप	3471
तिथि	3472
काउ	3473
साब	3474
रिस	3475
सूत्र	3476
उतर	3477
हरा	3478
छोड़कर	3479
अमेरिकी	3480
स्थापित	3481
बंध	3482
##गीय	3483
लॉन्च	3484
गोपाल	3485
लक्ष्य	3486
डीएम	3487
शपथ	3488
प्रिय	3489
संतोष	3490
डिप्	3491
लै	3492
सप	3493
##it	3494
मुह	3495
राजधानी	3496
##्रेन	3497
पार्ट	3498
सूची	3499
छात्राओं	3500
विद्यार्थियों	3501
इतिहास	3502
कमा	3503
शान	3504
प्रेर	3505
क़	3506
क्ला	3507
दस्ता	3508
##दमा	3509
परिय	3510
##रेन	3511
मिलता	3512
टाइ	3513
##क्का	3514
जाति	3515
new	3516
निदेशक	3517
ज्योति	3518
स्मार्ट	3519
परियोजना	3520
##सित	3521
जोन	3522
जम्म	3523
रोकने	3524
ट्रैफिक	3525
##ग्राम	3526
नीति	3527
डिप्टी	3528
शै	3529
किमी	3530
##िमांड	3531
अरविंद	3532
दबाव	3533
फायदा	3534
मेह	3535
माहौल	3536
बत	3537
पेड़	3538
सौं	3539
##क्सी	3540
सोनी	3541
सहायता	3542
##सन	3543
##िट्	3544
रफ्तार	3545
बुलाया	3546
प्रस्तुत	3547
उक्त	3548
##यात	3549
स्थानों	3550
चिकित्	3551
प्रशिक्षण	3552
चुनावों	3553
मशीन	3554
कक्षा	3555
जुड़ी	3556
##ट्टी	3557
साथी	3558
हिरासत	3559
##बीआई	3560
मुर	3561
समूह	3562
##न्द	3563
रूम	3564
ग्वालियर	3565
सैनी	3566
55	3567
ड्यूटी	3568
##कृ	3569
##वीन	3570
बचाने	3571
रोजगार	3572
90	3573
##ूनी	3574
भाषा	3575
गतिविध	3576
कंपनियों	3577
धान	3578
अनुमति	3579
मनीष	3580
मास	3581
प्रत्य	3582
##ेस्ट	3583
##खे	3584
काट	3585
बाग	3586
जानते	3587
एसी	3588
##क़	3589
इंजीनियर	3590
टॉ	3591
##वां	3592
मध्यप्रदेश	3593
दान	3594
##त्त	3595
चिकित्सा	3596
हेम	3597
##ूषण	3598
##िये	3599
रेड	3600
भरा	3601
##वानी	3602
##वधान	3603
बाढ़	3604
संचालक	3605
चिंता	3606
48	3607
लापर	3608
पोस्टम	3609
मुकाबले	3610
एसोसिएशन	3611
सेल्सियस	3612
जम्मू	3613
##लिंग	3614
##ानों	3615
##ाजी	3616
कर्मियों	3617
##शील	3618
प्ला	3619
##वनी	3620
##स्वी	3621
विवे	3622
सीनियर	3623
##रेट	3624
##्रेलिया	3625
##क्रिय	3626
##ट्ट	3627
तारीख	3628
उज्ज	3629
एच	3630
चेयर	3631
मुकदमा	3632
##ॉर्टम	3633
प्रिंस	3634
पोस्टमॉर्टम	3635
ऑस्ट	3636
नवा	3637
बें	3638
शूट	3639
##गण	3640
##कृत	3641
निर्धारित	3642
अक्ष	3643
कंट	3644
दाम	3645
##वती	3646
करनी	3647
स्म	3648
आरक्षण	3649
बॉलीवुड	3650
000	3651
##is	3652
स्कू	3653
कप्तान	3654
फैसले	3655
टूट	3656
##ur	3657
सेल	3658
निभा	3659
##टेन	3660
निकले	3661
क्रम	3662
बूथ	3663
वेब	3664
आरती	3665
दाखिल	3666
कमिश्नर	3667
मोटर	3668
ग्रे	3669
##ंघ	3670
##वाया	3671
संचालित	3672
ज्ञापन	3673
जताई	3674
किशोर	3675
##ौन	3676
जमानत	3677
फें	3678
##थर	3679
##र्जर	3680
पालन	3681
टॉप	3682
2021	3683
रखते	3684
फायरिंग	3685
##्ब	3686
##राय	3687
फैक्ट	3688
चांदी	3689
घूम	3690
वॉ	3691
2025	3692
संपत्ति	3693
दुर्गा	3694
करवाई	3695
रेफर	3696
मोहल्	3697
news	3698
##ांची	3699
डीसी	3700
हेड	3701
स्टेट	3702
त्रि	3703
गौरव	3704
राजीव	3705
गोर	3706
वारा	3707
##काता	3708
नियंत्र	3709
चंडी	3710
वर	3711
##्यता	3712
##ढ़ी	3713
विश्	3714
स्पी	3715
झू	3716
##ay	3717
सप्लाई	3718
अर्ज	3719
चर	3720
सरपंच	3721
##ंजन	3722
हमारा	3723
गिरावट	3724
डायरेक्टर	3725
##di	3726
##र्तन	3727
पुराने	3728
अट	3729
खड़ा	3730
दैनिक	3731
रुक	3732
महाम	3733
कोलकाता	3734
प्रत्येक	3735
जला	3736
##द्दी	3737
हरि	3738
इस्ती	3739
##फॉर्म	3740
##ॉन	3741
पावर	3742
खिलाड़ियों	3743
ट्रैक्टर	3744
किर	3745
##बीसी	3746
##आईआर	3747
ज्ञान	3748
लापरवाही	3749
तालाब	3750
पहा	3751
##नेस	3752
कमल	3753
चौथ	3754
खाते	3755
उपाध्यक्ष	3756
ठंड	3757
लू	3758
िंग	3759
##ुक्ति	3760
क्षमता	3761
स्टार	3762
हिस्से	3763
उम्मीदवारों	3764
धीरे	3765
संसद	3766
खाना	3767
दस	3768
सलाह	3769
सक्रिय	3770
प्रदीप	3771
ठगी	3772
##नर	3773
##am	3774
पाली	3775
##धपुर	3776
करियर	3777
साउ	3778
प्रतिमा	3779
जिन्होंने	3780
##िलास	3781
आगामी	3782
रमेश	3783
हिम	3784
मांगी	3785
विशाल	3786
विश्वास	3787
कथा	3788
##व्यू	3789
डॉलर	3790
भावना	3791
अत	3792
इंच	3793
स्टैंड	3794
वितरण	3795
सलमान	3796
साबित	3797
मच	3798
##ित्व	3799
संदेश	3800
पड़ता	3801
नशे	3802
बुल	3803
करवाने	3804
अनुमान	3805
पैदा	3806
उठाया	3807
पसंद	3808
किरा	3809
कू	3810
दवा	3811
अकाउंट	3812
रेट	3813
विस्तार	3814
cm	3815
अर्थ	3816
ओम	3817
गार्ड	3818
तीसरी	3819
##पेट	3820
सोच	3821
माध	3822
नाथ	3823
##ic	3824
टाइम	3825
पॉल	3826
जोधपुर	3827
क्लब	3828
आती	3829
कने	3830
##बारा	3831
जुट	3832
आतंक	3833
चंडीगढ़	3834
##ेन्द्र	3835
##लब	3836
##20	3837
प्रबंध	3838
गोद	3839
इंडस्ट्री	3840
300	3841
##ेलन	3842
चुनौती	3843
भ्र	3844
श्याम	3845
##डर	3846
तिर	3847
वाय	3848
फिल्मों	3849
##हण	3850
##वंत	3851
इंस्प	3852
सेंट	3853
हंग	3854
##्रेशन	3855
आपकी	3856
जिनमें	3857
मुद्दे	3858
खाने	3859
##स्टे	3860
बढ़ने	3861
चाहता	3862
इंटरव्यू	3863
##िनेट	3864
भुगतान	3865
एंट	3866
टो	3867
नक्स	3868
शही	3869
##जिद	3870
प्रमाण	3871
##ंडर	3872
रूस	3873
हालात	3874
पुन	3875
संघर्ष	3876
##िड़	3877
निर्म	3878
राजस्व	3879
##ेमारी	3880
हाईवे	3881
##म्प	3882
छापेमारी	3883
साउथ	3884
इजरा	3885
##णसी	3886
विमान	3887
घायलों	3888
समीक्षा	3889
वाराणसी	3890
##णि	3891
विभा	3892
दूरी	3893
##वासियों	3894
शेख	3895
बिल्ड	3896
एफआईआर	3897
##मैन	3898
##ईओ	3899
##गणना	3900
प्यार	3901
रानी	3902
प्रभा	3903
हिंसा	3904
गुजर	3905
बल्ले	3906
खी	3907
खड़ी	3908
चाक	3909
स्वामी	3910
वोटिंग	3911
निशाना	3912
मॉडल	3913
ऑस्ट्रेलिया	3914
तार	3915
##गु	3916
कैब	3917
योजनाओं	3918
##घाटन	3919
चिकित्स	3920
डिप	3921
धाम	3922
पारा	3923
संदि	3924
विकसित	3925
पुरानी	3926
लक्ष्मी	3927
गुल	3928
बम	3929
रद्द	3930
##्वी	3931
नेट	3932
##ड्डा	3933
##राष्ट्रीय	3934
संदिग्ध	3935
बादल	3936
स्वतंत्र	3937
नियुक्त	3938
वास	3939
##मर	3940
अनुप	3941
स्थापना	3942
फुटेज	3943
एसडीएम	3944
इंटरनेशनल	3945
##ेक्टर	3946
##ार्व	3947
अच्छे	3948
ईरान	3949
कोटा	3950
सकेंगे	3951
आईपी	3952
डेढ़	3953
दह	3954
##घटना	3955
##लेख	3956
##ंदे	3957
फैल	3958
यूनिट	3959
दुर्घटना	3960
ठेके	3961
##भार	3962
भीतर	3963
समाप्त	3964
संगी	3965
##यं	3966
##ोजक	3967
कानपुर	3968
भीषण	3969
##ल्ल	3970
यात्री	3971
विशेषज्ञ	3972
वृद्धि	3973
400	3974
##यत	3975
शिकार	3976
खुशी	3977
सर्विस	3978
नर्स	3979
पोर्ट	3980
भरो	3981
हित	3982
लेना	3983
चेता	3984
सम्मेलन	3985
ओल	3986
##डियम	3987
चलाया	3988
##करा	3989
सत्य	3990
रांची	3991
राठ	3992
अंतरराष्ट्रीय	3993
##लेश	3994
pr	3995
जबर	3996
द्व	3997
##ंती	3998
उपाय	3999
छोटी	4000
टैक्स	4001
##िले	4002
##भाष	4003
##स्तर	4004
गांवों	4005
रहीं	4006
##ैट	4007
कार्यकाल	4008
वकील	4009
अतिक	4010
गरीब	4011
जू	4012
डाला	4013
सार्व	4014
अध्यक्षता	4015
पवन	4016
##han	4017
##्यास	4018
##स्टल	4019
##द्रा	4020
##ोटा	4021
गठन	4022
स्वीकार	4023
प्रे	4024
सोना	4025
हटाने	4026
चार्ज	4027
नज	4028
##मित	4029
##केशन	4030
आंख	4031
होनी	4032
राजेंद्र	4033
##ap	4034
##वाला	4035
65	4036
आक्र	4037
वार्	4038
##धिकार	4039
2014	4040
स्टेडियम	4041
उद्घाटन	4042
ऊंच	4043
खर	4044
जस	4045
ियों	4046
##पुरी	4047
जुर्म	4048
बजकर	4049
कैमरे	4050
कथ	4051
##नाड	4052
बेस	4053
##ंपिक	4054
ट्रॉ	4055
फैंस	4056
शहरों	4057
लड़ाई	4058
स्वच्छ	4059
मिशन	4060
##स्टेबल	4061
अतिक्रमण	4062
उतार	4063
##दल	4064
दोबारा	4065
महोत्सव	4066
बीमार	4067
सुरेश	4068
महास	4069
तु	4070
##हाद	4071
बढ़ावा	4072
श्रद्धालुओं	4073
इंस्पेक्टर	4074
अके	4075
##दिन	4076
सोरेन	4077
##िपल	4078
सूरज	4079
मीटिंग	4080
अरब	4081
आखिर	4082
##ोग्राम	4083
चाहती	4084
पुरस्कार	4085
पश्चिमी	4086
आशंका	4087
पंडित	4088
शानदार	4089
आंध	4090
एरिया	4091
दर्द	4092
बध	4093
##िवार	4094
विष्ण	4095
##ंदन	4096
##त्मा	4097
दिनेश	4098
मस्	4099
सख्त	4100
पदों	4101
कठ	4102
नाय	4103
##नाम	4104
##सीय	4105
##र्जन	4106
जिन्हें	4107
सौर	4108
सिन्	4109
##वली	4110
विज्ञान	4111
##्मण	4112
##दाबाद	4113
नियुक्ति	4114
कराए	4115
ip	4116
डो	4117
##नल	4118
##स्थल	4119
##जनिक	4120
बचाव	4121
सार्वजनिक	4122
##ंगर	4123
सीता	4124
स्ट्र	4125
तस्कर	4126
इक	4127
नती	4128
व्	4129
##ol	4130
##छा	4131
मौजू	4132
जगहों	4133
एक्शन	4134
शोर	4135
##ौली	4136
संस्कार	4137
38	4138
नारे	4139
सुल	4140
##ंटर	4141
कुश	4142
लाखों	4143
अखिलेश	4144
यश	4145
##ष्टा	4146
लड़के	4147
मौजूदा	4148
गह	4149
गौतम	4150
##ारण	4151
कोह	4152
प्रारंभ	4153
मैन	4154
वेतन	4155
नियमों	4156
कैबिनेट	4157
up	4158
सका	4159
##ाइड	4160
जानिए	4161
समस्याओं	4162
अपराधियों	4163
एप	4164
##टका	4165
विज	4166
लुधिया	4167
लुधियाना	4168
pm	4169
##िफिक	4170
संजीव	4171
दरवा	4172
कारोबार	4173
असम	4174
नहर	4175
माय	4176
शास	4177
##काने	4178
##बार	4179
##सेज	4180
महेंद्र	4181
मिलती	4182
आपका	4183
अफसरों	4184
2020	4185
प्रोफे	4186
प्रवक्ता	4187
क्लास	4188
पथ	4189
पंक	4190
चलाने	4191
मनो	4192
सांस्कृत	4193
विदेशी	4194
सिन्हा	4195
लिम	4196
##पण	4197
##hi	4198
दिव्या	4199
दिवसीय	4200
##प्रीत	4201
##ुद्ध	4202
सुंदर	4203
पहुंचाया	4204
##ब्लिक	4205
विनोद	4206
फॉर्म	4207
##ंसर	4208
##लान	4209
##ढ़े	4210
हल्की	4211
जस्ट	4212
##काम	4213
##नाटक	4214
मुक्त	4215
चारों	4216
लाइट	4217
धरना	4218
कर्नाटक	4219
प्रोफेसर	4220
re	4221
##डेट	4222
बातें	4223
अरुण	4224
आबादी	4225
चपेट	4226
##म्बर	4227
चेतावनी	4228
सांस्कृतिक	4229
नवीन	4230
पेंशन	4231
मध	4232
##ेंगी	4233
अनुभव	4234
##तरीय	4235
मंजू	4236
गोरख	4237
ईडी	4238
टिप्	4239
दलों	4240
सन	4241
##कर्मी	4242
कमज	4243
नमः	4244
उत्साह	4245
अंडर	4246
ट्रंप	4247
आदिवासी	4248
चोरों	4249
कंग	4250
शौ	4251
##id	4252
##ड़िया	4253
बाय	4254
##गरानी	4255
एंट्री	4256
कच	4257
वाद	4258
##सीसी	4259
निकाली	4260
खुले	4261
इंग	4262
ऊर्जा	4263
डूब	4264
##बीन	4265
स्तरीय	4266
उपचु	4267
ट्रांसफर	4268
चाकू	4269
पंकज	4270
उपचुनाव	4271
इसरा	4272
निगरानी	4273
##कारा	4274
प्राण	4275
साहिब	4276
समझौ	4277
बिक्री	4278
##ानगर	4279
इंडियन	4280
योगदान	4281
भक्तों	4282
विष्णु	4283
##ौड़	4284
मेर	4285
बैग	4286
मस्जिद	4287
46	4288
##तक	4289
##ra	4290
##र्ण	4291
निरा	4292
घटनास्थल	4293
##एससी	4294
##ट्टा	4295
ब्रि	4296
गतिविधियों	4297
फ्री	4298
##पद	4299
बाई	4300
रास्ता	4301
कपड़े	4302
एमपी	4303
काउंस	4304
##नन	4305
राजकुमार	4306
आयु	4307
एनडीए	4308
गैस	4309
बधाई	4310
ब्रे	4311
##्रह	4312
चौराह	4313
गुण	4314
बोला	4315
धोखा	4316
उज्जैन	4317
सारे	4318
##et	4319
समान	4320
सुभाष	4321
##राबाद	4322
##साइड	4323
गायब	4324
झां	4325
भव्य	4326
सैनिक	4327
##ुलेंस	4328
संकल्प	4329
कंट्रोल	4330
झग	4331
प्रयोग	4332
बेट	4333
लड़क	4334
पंजी	4335
घे	4336
##तो	4337
परम	4338
गैर	4339
प्रतिनिध	4340
लल	4341
सिया	4342
इन्हें	4343
##वासन	4344
कर्मी	4345
आर्ट	4346
तृ	4347
##लीय	4348
क्राइम	4349
पूर्वी	4350
##िंदर	4351
##र्में	4352
संस्क	4353
रोल	4354
स्वयं	4355
##फ्रेंस	4356
संस्कृति	4357
हैद	4358
मेहन	4359
सब्	4360
नजदी	4361
44	4362
##चिव	4363
मानसिक	4364
फैक्ट्री	4365
हंगामा	4366
आना	4367
स्‍	4368
निकला	4369
निशान	4370
ससुराल	4371
देती	4372
वर्षा	4373
##धीश	4374
प्रोड	4375
भरत	4376
आकर्	4377
##टरी	4378
सुसाइड	4379
इन्	4380
जीतने	4381
पांडे	4382
परिवहन	4383
साढ़े	4384
कौशल	4385
उत्सव	4386
खार	4387
घोट	4388
छठ	4389
##कृति	4390
##हारी	4391
मुज	4392
##ाजा	4393
##स्थिति	4394
लगाते	4395
##ंपरा	4396
##ृत्य	4397
##साइट	4398
भूप	4399
##क्न	4400
अग्न	4401
एडम	4402
पर्यावरण	4403
फल	4404
गोल्ड	4405
198	4406
व्यापारी	4407
##्तीय	4408
कैला	4409
विभागों	4410
बोली	4411
श्रीवा	4412
वित्तीय	4413
सुनाई	4414
हरी	4415
राइ	4416
सूत्रों	4417
चतु	4418
रिश	4419
होम	4420
दुर्ग	4421
डीएसपी	4422
कब्जा	4423
श्रीवास्तव	4424
##पट	4425
खोज	4426
परंपरा	4427
सीधे	4428
वर्क	4429
आएंगे	4430
##ट्‌	4431
अर्जुन	4432
आचार्य	4433
मिट्	4434
शुल्क	4435
##िनियम	4436
जुल	4437
रोग	4438
##धिकारियों	4439
कानूनी	4440
हिंदी	4441
42	4442
घट	4443
##सवाल	4444
उनमें	4445
महेश	4446
इनकी	4447
कहती	4448
हजारों	4449
श्रीराम	4450
वापसी	4451
तिल	4452
शख	4453
##िमा	4454
##गन	4455
किशन	4456
काे	4457
काबू	4458
वेस्ट	4459
पकड़े	4460
चेयरमैन	4461
एडी	4462
मंज	4463
जाट	4464
अधिनियम	4465
भारती	4466
बॉक्स	4467
भ्रष्टा	4468
आश्	4469
हवाई	4470
##ोसी	4471
साज	4472
बताए	4473
ग्रा	4474
खेला	4475
दौड़	4476
कमाई	4477
दस्तावेज	4478
वेबसाइट	4479
उधर	4480
##श्त	4481
पुण	4482
पत्थर	4483
प्रियंका	4484
प्रिंसिपल	4485
कमजोर	4486
मेहनत	4487
अक्सर	4488
##्ट	4489
केन्द्र	4490
##ानु	4491
प्रतिष्ठा	4492
शहीद	4493
##र्त	4494
अपर	4495
लागत	4496
विधाय	4497
इंग्ल	4498
दर्श	4499
##ंवर	4500
##िटेड	4501
विधि	4502
व्यापार	4503
##सेस	4504
अनुर	4505
आगरा	4506
मुकाबला	4507
कोहली	4508
रिया	4509
सीबीआई	4510
हाथों	4511
दिखाया	4512
डिजाइन	4513
संरक्षण	4514
लें	4515
##कू	4516
प्रती	4517
विर	4518
##ोलॉ	4519
मानव	4520
चैंप	4521
भंड	4522
##विंदर	4523
राज्यपाल	4524
इतने	4525
हिसाब	4526
खाद्य	4527
ओड	4528
##सि	4529
##ाइट	4530
पासवान	4531
आवश्यकता	4532
मतदाता	4533
##स्सा	4534
जुटी	4535
##सूस	4536
पांडेय	4537
शूटिंग	4538
उचित	4539
चक्र	4540
##नाक	4541
इंस्ट	4542
जैसा	4543
दिग्	4544
##ूर्त	4545
अजमेर	4546
कैलाश	4547
आश्वासन	4548
लेख	4549
##रेज	4550
पदार्थ	4551
एडव	4552
##ड्डी	4553
श्रेणी	4554
',	4555
गर्म	4556
घरे	4557
सिम	4558
जीता	4559
सैक	4560
लंबी	4561
ऑड	4562
नित	4563
शब्	4564
##गो	4565
##गांव	4566
निष्	4567
प्लांट	4568
संयोजक	4569
रणनी	4570
फ्लाइट	4571
खून	4572
दिक	4573
चौरा	4574
भोजन	4575
ममता	4576
##तायात	4577
मुआ	4578
सिने	4579
यातायात	4580
प्रतिबंध	4581
ट्रैक	4582
मुद्दों	4583
दोषी	4584
##क्षी	4585
##रोज	4586
लाश	4587
अवधि	4588
घरेलू	4589
47	4590
पायल	4591
बुरी	4592
##दिक	4593
##यी	4594
करण	4595
पीने	4596
जनरल	4597
मतगणना	4598
अहमद	4599
तुलना	4600
अश्व	4601
##ुल्ला	4602
साथियों	4603
स्कोर	4604
महासचिव	4605
हर्ष	4606
बनकर	4607
विवेक	4608
##un	4609
राउंड	4610
बढ़ो	4611
निकली	4612
यूक	4613
प्रतिनिधि	4614
##चक	4615
##ौज	4616
विरा	4617
दूध	4618
बॉल	4619
गोरखपुर	4620
39	4621
ध्व	4622
##पता	4623
जाएं	4624
कैद	4625
गिरने	4626
चीज	4627
नशा	4628
##इंट	4629
दीवार	4630
मेला	4631
इनकार	4632
दुबे	4633
अमन	4634
मनम	4635
टाटा	4636
##सु	4637
##ाकर	4638
##हत्या	4639
चीफ	4640
मुद्दा	4641
आत्महत्या	4642
आशीष	4643
फे	4644
##ल्टी	4645
##िमी	4646
जिलाध्यक्ष	4647
ट्रेनिंग	4648
पक्षों	4649
निकलने	4650
निरीक्षक	4651
संभव	4652
जस्टिस	4653
ऑल	4654
##ग्न	4655
##ित्त	4656
अपडेट	4657
मोर्चा	4658
जबलपुर	4659
लिमिटेड	4660
विधायकों	4661
05	4662
बड़	4663
हफ्	4664
##चंद	4665
स्न	4666
सामग्री	4667
नील	4668
शुक्ला	4669
हेमंत	4670
भ्रष्टाचार	4671
डू	4672
##क्‍	4673
##ल्थ	4674
राज्यसभा	4675
बरसा	4676
पलट	4677
इस्तीफा	4678
छूट	4679
वसू	4680
##द्योग	4681
बढ़ती	4682
शख्स	4683
गे	4684
फाइल	4685
प्रण	4686
##वाड़ी	4687
साझा	4688
नियमित	4689
##ज्ञानिक	4690
आरा	4691
##्द	4692
##फिया	4693
##har	4694
##्लो	4695
दुष्	4696
मेडल	4697
##tion	4698
कथित	4699
ऐलान	4700
##शोध	4701
##रेस्ट	4702
महसूस	4703
##दीय	4704
मेले	4705
बढ़कर	4706
##आईटी	4707
प्रदर्श	4708
छत	4709
पाने	4710
लापता	4711
##िन्द	4712
खारिज	4713
पाइ	4714
##ियत	4715
##गाह	4716
आयुष	4717
प्रशासनिक	4718
मुजफ्	4719
बाइ	4720
कैंसर	4721
गोयल	4722
कुलदीप	4723
तेजस्वी	4724
नियंत्रण	4725
आकाश	4726
रुख	4727
शर	4728
##स्त्री	4729
##ांश	4730
प्रकरण	4731
##ायी	4732
महतो	4733
2018	4734
दुकानों	4735
तमिल	4736
बेचने	4737
अर्चना	4738
दिक्क	4739
##ट्यू	4740
##्रल	4741
##गेट	4742
मेट	4743
##एसआई	4744
मारे	4745
न्यायाधीश	4746
ओडिशा	4747
त्यो	4748
माइ	4749
##दास	4750
सेट	4751
##िलंब	4752
विद्या	4753
खेती	4754
पड़ेगा	4755
डिजिटल	4756
मारा	4757
गुना	4758
महाप	4759
शिफ्ट	4760
हड़ताल	4761
जख	4762
मंग	4763
केरल	4764
दौरे	4765
छोटा	4766
नाल	4767
##ीप	4768
होली	4769
जाया	4770
त्योहार	4771
माने	4772
##पूत	4773
##ृज	4774
##घु	4775
##्योर	4776
ज्यादातर	4777
एक्टिव	4778
##ब्ल्यू	4779
ओं	4780
धूप	4781
##el	4782
पोर्टल	4783
मुजफ्फर	4784
अंद	4785
एश	4786
पब्लिक	4787
रूट	4788
डीजल	4789
मारकर	4790
मतलब	4791
बिल्डिंग	4792
गर	4793
फते	4794
##नामेंट	4795
अधिव	4796
पार्किंग	4797
यूज	4798
मैचों	4799
मतदाताओं	4800
49	4801
टूर्	4802
##पणी	4803
##हिता	4804
विहार	4805
संहिता	4806
बीमारी	4807
मेन	4808
बढ़े	4809
आधारित	4810
लाइस	4811
अपराधी	4812
अभिने	4813
नागरिकों	4814
भरोसा	4815
साजिश	4816
टूर्नामेंट	4817
##चर्स	4818
प्रार्थ	4819
समापन	4820
##ाइयों	4821
##स्थाप	4822
प्रतिभा	4823
ब्रह	4824
संकट	4825
आक्रोश	4826
विराट	4827
हफ्ते	4828
आह	4829
कना	4830
ढा	4831
##वाड़	4832
जोशी	4833
उपभ	4834
बच्चा	4835
चाहे	4836
चम	4837
##श्म	4838
##रीन	4839
वोटर	4840
पदाधिकारियों	4841
जिम्मेदार	4842
फुट	4843
टिप्पणी	4844
झु	4845
##ाराम	4846
##रेली	4847
मास्टर	4848
रखना	4849
पुष्टि	4850
लीटर	4851
जयंती	4852
एक्सपर्ट	4853
एग्जाम	4854
##कृष्ण	4855
नक्सल	4856
41	4857
चित्र	4858
##डिंग	4859
##दर्शन	4860
##नीत	4861
विद्युत	4862
मैनेजर	4863
अना	4864
आसान	4865
मारी	4866
##ंतर	4867
राधा	4868
राजद	4869
गोविंद	4870
मान्यता	4871
दौरा	4872
अंग्रे	4873
सौंपा	4874
किरदार	4875
सिनेमा	4876
आर्य	4877
ठग	4878
पर्	4879
बिलास	4880
##bi	4881
##क्चर	4882
गुर्जर	4883
प्रश्न	4884
हिसार	4885
चौराहे	4886
यूक्रेन	4887
कवि	4888
गिरी	4889
पव	4890
फंस	4891
भरी	4892
सकी	4893
मैसेज	4894
पीठ	4895
प्रावधान	4896
प्रस्तुति	4897
बढ़ोतरी	4898
इच्छ	4899
निर्द	4900
लीक	4901
पड़ोसी	4902
मूवी	4903
जागरूकता	4904
बिलासपुर	4905
##प्त	4906
##da	4907
उसको	4908
वैसे	4909
शुरुआती	4910
तकनीकी	4911
अल्प	4912
मूर्ति	4913
शक	4914
##ेदी	4915
विजे	4916
थानाध्यक्ष	4917
रखें	4918
परिवारों	4919
वैज्ञानिक	4920
##जलि	4921
गड़	4922
तनाव	4923
लड़ा	4924
लेंगे	4925
##गज	4926
##रीय	4927
संशोध	4928
##जात	4929
कार्यवाही	4930
बदले	4931
##ड्‌	4932
इस्ल	4933
भड़	4934
##ड़ियां	4935
स्वर	4936
साव	4937
##गीर	4938
##स्ट्र	4939
जुड़ा	4940
उत्तरा	4941
मांगों	4942
ड्रोन	4943
उठाए	4944
संभाल	4945
दोस्तों	4946
अक्षय	4947
कंगना	4948
जज	4949
सारी	4950
जिसने	4951
##्वल	4952
लड़ने	4953
हिस्सों	4954
लिखित	4955
रिजर्व	4956
टोल	4957
सैन	4958
##पु	4959
##ct	4960
साइक	4961
बालिका	4962
##कर्मियों	4963
फेंक	4964
उपभो	4965
तल	4966
लोह	4967
##िफ	4968
##केत	4969
जीते	4970
रिजल्ट	4971
समन	4972
##हरण	4973
आपूर्ति	4974
संगठनों	4975
तहसीलदार	4976
अक	4977
कस्	4978
गज	4979
पश	4980
शांत	4981
##लैंड	4982
##ंडे	4983
कहने	4984
नीरज	4985
दलित	4986
जिंदगी	4987
अभ्यर्थियों	4988
fir	4989
##ॉम	4990
निधन	4991
जनपद	4992
घटनाओं	4993
##फ्टी	4994
सचिन	4995
##ड्ढ	4996
कारोबारी	4997
##यक	4998
##us	4999
##स्म	5000
##रेन्द्र	5001
सकें	5002
कैंड	5003
बनाना	5004
ग्राह	5005
कलेक्ट	5006
खेले	5007
##्‍या	5008
शुभारंभ	5009
बिर	5010
चलता	5011
पड़ताल	5012
जताया	5013
हैदराबाद	5014
पंप	5015
##र्वाद	5016
काली	5017
ग्रहण	5018
150	5019
केंद्रों	5020
सफर	5021
##कर्ता	5022
कॉन्फ्रेंस	5023
पुष्प	5024
बेंगल	5025
."	5026
अर्पित	5027
गले	5028
फं	5029
सना	5030
##बद्ध	5031
##ंधर	5032
दर्जन	5033
टेक्न	5034
सांप	5035
फांसी	5036
लीड	5037
##याल	5038
पहन	5039
टीमों	5040
मानना	5041
आशीर्वाद	5042
जुर्माना	5043
##िणी	5044
बाघ	5045
टीचर	5046
जानें	5047
गुम	5048
दिलीप	5049
197	5050
प्रयाग	5051
पालिका	5052
कितनी	5053
तत्कालीन	5054
पिक	5055
बृज	5056
##पू	5057
##ख्	5058
करन	5059
##ितीय	5060
सिख	5061
क्षेत्रीय	5062
पुराना	5063
##एचओ	5064
पौधे	5065
गीता	5066
उल्लेख	5067
आलम	5068
स्वतंत्रता	5069
##ोलॉजी	5070
अल्	5071
जंग	5072
##बूर	5073
##ंधे	5074
जुड़	5075
प्राचार्य	5076
शाखा	5077
पर्यटन	5078
आवं	5079
नृत्य	5080
##्की	5081
##वाय	5082
जाह	5083
साहब	5084
कितना	5085
कनाडा	5086
नही	5087
क्षति	5088
पिट	5089
ट्रस्ट	5090
देखी	5091
लाइफ	5092
जितेंद्र	5093
जवानों	5094
गेम	5095
भोग	5096
##वै	5097
##फोन	5098
पिछली	5099
हाइ	5100
##ंश	5101
##ैक्ट	5102
मोड़	5103
तस्करी	5104
बिगड़	5105
खतरा	5106
जनस	5107
इंजन	5108
बिजनेस	5109
##िडेट	5110
परिवर्तन	5111
सेंट्रल	5112
43	5113
56	5114
##यात्रा	5115
टीमें	5116
हिमा	5117
विरोधी	5118
विपक्षी	5119
प्रेरित	5120
99	5121
गंज	5122
चिन	5123
नै	5124
वादा	5125
##ab	5126
अफ्री	5127
लाइसेंस	5128
ऐप	5129
ओपन	5130
देखें	5131
बच्चन	5132
सदन	5133
##ंख्य	5134
फाउंड	5135
सोनू	5136
गली	5137
##जारी	5138
रोका	5139
विक्रम	5140
बदलने	5141
उत्पादन	5142
00	5143
पेर	5144
फर्	5145
भि	5146
##मेल	5147
अपहरण	5148
सीकर	5149
राजपूत	5150
पत्रकार	5151
कोचिंग	5152
कैंडिडेट	5153
an	5154
इका	5155
दाय	5156
##वाहा	5157
राजू	5158
आईटी	5159
दिलाने	5160
चेहरे	5161
जल्दी	5162
छीन	5163
जहा	5164
मणि	5165
##डकर	5166
##सारी	5167
##्याज	5168
##स्तानी	5169
##रजेंसी	5170
तहरीर	5171
चैंपियन	5172
पाइप	5173
##शाली	5174
##फान	5175
बढ़ी	5176
पैदल	5177
गाड़ियों	5178
खरीदी	5179
शोभा	5180
जायसवाल	5181
मंजूरी	5182
इसराइल	5183
मिट्टी	5184
सैकड़ों	5185
मचा	5186
रस	5187
लोन	5188
सश	5189
##ब्र	5190
बेस्ट	5191
गुट	5192
##बाग	5193
संबंधी	5194
##प्रकाश	5195
संगीत	5196
शासकीय	5197
चौराहा	5198
51	5199
जि	5200
नंद	5201
##ंथ	5202
##कांत	5203
कोर	5204
रहना	5205
राजकीय	5206
##दीश	5207
सहमति	5208
पुत	5209
ग्राउंड	5210
गाली	5211
मिमी	5212
सॉ	5213
##वक	5214
मंदिरों	5215
##ोहन	5216
खेलने	5217
श्रद्धालु	5218
प्लेटफॉर्म	5219
उल	5220
सेन	5221
प्रग	5222
##ंटों	5223
##लोड	5224
संपन्न	5225
किराए	5226
st	5227
डांस	5228
##संख्य	5229
##पात	5230
देवेंद्र	5231
इमरजेंसी	5232
नवरा	5233
प्रयागराज	5234
जिक्र	5235
भरे	5236
##अल	5237
कुर्	5238
मांगे	5239
जगदीश	5240
मजबूर	5241
सदस्यता	5242
दुष्कर्म	5243
इश	5244
छेड़	5245
पर्स	5246
सतीश	5247
देरी	5248
मुंह	5249
##्रेड	5250
श्रील	5251
महादेव	5252
ट्रेनों	5253
सिलस	5254
एटी	5255
ओपी	5256
गंग	5257
ताल	5258
पवार	5259
बोर	5260
सिंघ	5261
मांगा	5262
पदक	5263
जिनके	5264
खेड़ा	5265
रजिस्ट्रेशन	5266
मेरठ	5267
मुआव	5268
ग्रीन	5269
दायर	5270
मस	5271
वाइ	5272
##स्टी	5273
महज	5274
भेजने	5275
खरीदने	5276
फोर्स	5277
टी20	5278
गिरोह	5279
लालू	5280
तमाम	5281
जालंधर	5282
नेपाल	5283
अंसारी	5284
महाकाल	5285
##धिकरण	5286
भरने	5287
नरेश	5288
रथ	5289
किरण	5290
बहस	5291
भागने	5292
हेल्थ	5293
ज़र	5294
निकालने	5295
नाराजगी	5296
अमृतसर	5297
ग़	5298
##रस	5299
मुसल	5300
##्तिक	5301
इलेक्ट्रिक	5302
आइए	5303
##द्दीन	5304
एएसआई	5305
चैन	5306
नेहर	5307
प्रजा	5308
कार्तिक	5309
लाठी	5310
##पाठी	5311
जीव	5312
महाविद्यालय	5313
मीना	5314
सुनकर	5315
टाइगर	5316
ठेकेदार	5317
सौरभ	5318
श्रीलंका	5319
बस्ती	5320
ें	5321
##सराय	5322
रात्रि	5323
रोहत	5324
लीग	5325
नजदीक	5326
कं	5327
फरी	5328
बहाद	5329
रेंज	5330
##ho	5331
##यां	5332
बाड़	5333
बीएस	5334
विकल्प	5335
आदर्श	5336
सैल	5337
मुहूर्त	5338
पशु	5339
भक्ति	5340
सार	5341
पुरी	5342
12वीं	5343
दिक्कत	5344
मेट्रो	5345
प्रगति	5346
मुसलमान	5347
ज्व	5348
धूम	5349
##कोट	5350
रहें	5351
हुईं	5352
निर्मा	5353
2017	5354
##्‍य	5355
गीत	5356
इंग्लैंड	5357
##्ति	5358
टीवी	5359
महीनों	5360
बजाय	5361
रोजाना	5362
##त्साह	5363
##कारात्मक	5364
साइकिल	5365
85	5366
औसत	5367
विम	5368
##राधिक	5369
महंत	5370
आपराधिक	5371
मात्रा	5372
प्रभु	5373
ब्लैक	5374
थोड़ी	5375
त्रिपाठी	5376
हिमाचल	5377
01	5378
अने	5379
इव	5380
##ेन	5381
##il	5382
##्यूल	5383
पाठक	5384
58	5385
ra	5386
आशा	5387
गहरा	5388
मप्र	5389
##हल	5390
केश	5391
##वरों	5392
बिल्क	5393
मैनेज	5394
वसूली	5395
रोहतक	5396
गि	5397
##लाइ	5398
दीपा	5399
पीट	5400
##ष्टमी	5401
आजम	5402
प्रतिक्र	5403
होंगी	5404
##ग्रस्त	5405
पकड़ने	5406
कैमरा	5407
##ंघन	5408
आंध्र	5409
प्रतिक्रिया	5410
अस्थ	5411
टेंडर	5412
टकरा	5413
रिमांड	5414
सराह	5415
##मु	5416
##र्टी	5417
किताब	5418
जाप	5419
सुझा	5420
पहुंचाने	5421
आरोपों	5422
उल्ल	5423
कनेक्शन	5424
स्वच्छता	5425
नेहरू	5426
फंड	5427
फोर	5428
रक्त	5429
हेत	5430
राणा	5431
अब्द	5432
प्राधिकरण	5433
व्यवसाय	5434
बचने	5435
तीसरा	5436
आश्रम	5437
जबरद	5438
बिल्कुल	5439
धु	5440
संभाग	5441
एकाद	5442
##सीना	5443
करोड़ों	5444
##ुनिक	5445
सकेगा	5446
डेटा	5447
नायब	5448
गड़ब	5449
बेंगलुरु	5450
एंब	5451
तेंद	5452
रावत	5453
पीजी	5454
बढ़ते	5455
भाषण	5456
बॉर्डर	5457
##यम	5458
##एडा	5459
संवाद	5460
मृत्यु	5461
प्रोत्साह	5462
इंद्र	5463
शीर्ष	5464
कितने	5465
झूठ	5466
एशिया	5467
बैटरी	5468
आपत्ति	5469
रखकर	5470
तीर्थ	5471
संसदीय	5472
नोएडा	5473
द्वितीय	5474
गार	5475
निलंब	5476
##वार्	5477
एनसी	5478
आदित्यनाथ	5479
इंस्टा	5480
ed	5481
वोटों	5482
##ज़ा	5483
तलाशी	5484
बिश्न	5485
अनुरा	5486
गिरि	5487
लोकतंत्र	5488
कृष्	5489
विरुद्ध	5490
बिश्नोई	5491
##झी	5492
साय	5493
संसा	5494
दुकानदार	5495
रिसर्च	5496
महामंत्री	5497
मधु	5498
रिश्व	5499
एंटी	5500
खनन	5501
नाले	5502
##डन	5503
##im	5504
##ोंक	5505
कैश	5506
##वर्धन	5507
प्रेमी	5508
##नाडु	5509
अल्पसंख्य	5510
इवेंट	5511
तू	5512
मुझ	5513
आजाद	5514
पोस्टर	5515
जूनियर	5516
##ार्टमेंट	5517
तुलसी	5518
पायलट	5519
रिश्वत	5520
बुरा	5521
##कट	5522
बाब	5523
लेन	5524
##काया	5525
बीकाने	5526
देशभर	5527
कारणों	5528
मृतका	5529
समीप	5530
धोखाध	5531
उल्लंघन	5532
बीकानेर	5533
डें	5534
डिमांड	5535
##फार्म	5536
##ंपल	5537
गठित	5538
बल्लेबाज	5539
दिव्यांग	5540
जख्मी	5541
हेतु	5542
अरेस्ट	5543
नरेन्द्र	5544
लैंड	5545
##मेट	5546
सुरेंद्र	5547
आएगी	5548
पढ़ने	5549
मिश्र	5550
तमिलनाडु	5551
सर्क	5552
##षित	5553
कोट	5554
काला	5555
कांड	5556
एसटी	5557
दावे	5558
ताकत	5559
पूर्णिमा	5560
लड़कियों	5561
स्नान	5562
निर्दलीय	5563
एकादशी	5564
पृ	5565
भती	5566
##बारी	5567
##घर	5568
##ंत्रित	5569
स्क्रीन	5570
वैश्व	5571
हॉल	5572
पटवारी	5573
ब्रेक	5574
धोखाधड़ी	5575
वैश्विक	5576
बट	5577
लेवल	5578
##जनक	5579
##तिहासिक	5580
जिंदा	5581
नर्सिंग	5582
चक्कर	5583
दुल	5584
शह	5585
सच्च	5586
##वस्था	5587
##षक	5588
मुखिया	5589
ऑफर	5590
रिक्	5591
सहयोगी	5592
मिसाइल	5593
09	5594
78	5595
घंटों	5596
मक	5597
माला	5598
शरण	5599
##्रीट	5600
बातों	5601
दुख	5602
सबूत	5603
छोड़ने	5604
यूनियन	5605
तस्वीरें	5606
अकेले	5607
गुणव	5608
बहादुर	5609
52	5610
आधा	5611
हार्	5612
##एंगे	5613
विप	5614
##कीम	5615
द्वार	5616
प्रतिदिन	5617
मानते	5618
चाचा	5619
सिक्योर	5620
प्रार्थना	5621
बाड़मेर	5622
सुझाव	5623
57	5624
ma	5625
भले	5626
मित्र	5627
लव	5628
##ction	5629
आपने	5630
रोशन	5631
प्रशांत	5632
तोड़कर	5633
न्यायिक	5634
फ्लैट	5635
पिटाई	5636
95	5637
फूड	5638
विस	5639
शारी	5640
##ोत्	5641
पात्र	5642
उपस्थिति	5643
##आरपी	5644
स्पोर्ट	5645
अफ्रीका	5646
खन्ना	5647
रकम	5648
शोध	5649
एकड़	5650
##िलाई	5651
##ार्ग	5652
पुलिसकर्मी	5653
बालक	5654
शारीरिक	5655
54	5656
जमी	5657
मथ	5658
शहरी	5659
##धीन	5660
देगा	5661
कार्यरत	5662
जिनकी	5663
इंदिरा	5664
मूल्य	5665
विद्यार्थी	5666
कन्या	5667
सैन्य	5668
ऐतिहासिक	5669
खत	5670
##क्ष्य	5671
मुक्ति	5672
##स्टिक	5673
कार्यक्रमों	5674
प्रदूषण	5675
अंकित	5676
पर्याप्त	5677
छुट्टी	5678
04	5679
बांस	5680
शिल	5681
शाय	5682
##जिए	5683
##धित	5684
##प्टर	5685
बसपा	5686
जेपी	5687
प्रसि	5688
पॉइंट	5689
मोटरसाइ	5690
गुणवत्ता	5691
नर्म	5692
मय	5693
##परा	5694
##कांड	5695
मेघ	5696
##देन	5697
उठाने	5698
##प्पू	5699
##ांजलि	5700
कॉलेजों	5701
सब्जी	5702
कृष्णा	5703
फार्म	5704
बंट	5705
सपोर्ट	5706
।"	5707
किंग	5708
हुस	5709
राजन	5710
##ोजन	5711
बैठा	5712
ज़्यादा	5713
ब्रह्म	5714
आधिकार	5715
रंजन	5716
##तिया	5717
समृ	5718
देगी	5719
वेद	5720
अमिता	5721
बैठकर	5722
रेस्क	5723
पीछा	5724
शास्त्र	5725
मिथ	5726
खेतों	5727
व्यक्तियों	5728
भजनलाल	5729
प्रतीक	5730
संशोधन	5731
आधिकारिक	5732
##सला	5733
कोर्स	5734
##ंगन	5735
संकेत	5736
व्यापारियों	5737
जोरदार	5738
आलोक	5739
अभ्यर्थी	5740
खींच	5741
मोटरसाइकिल	5742
03	5743
02	5744
कच्च	5745
डिली	5746
##क्ताओं	5747
##वीण	5748
अस्पतालों	5749
सुविधाओं	5750
##ध्याय	5751
बरा	5752
मानी	5753
##ak	5754
##क्की	5755
सिपा	5756
मात्र	5757
अभिन	5758
गलती	5759
मेयर	5760
जनजा	5761
आसानी	5762
शास्त्री	5763
कॉन्स्टेबल	5764
चांद	5765
सेकेंड	5766
इंस्टाग्राम	5767
डेंगू	5768
रेस्क्यू	5769
सिपाही	5770
अवि	5771
गये	5772
ढाई	5773
फेल	5774
##वाना	5775
##धाम	5776
##भूम	5777
##भूषण	5778
प्रोग्राम	5779
बिंद	5780
सामुदाय	5781
पड़ोस	5782
व्यवहार	5783
स्वरूप	5784
सिक्योरिटी	5785
सामुदायिक	5786
भूल	5787
##वण	5788
प्रवीण	5789
##हाबाद	5790
उन्	5791
अनंत	5792
कमांड	5793
इनका	5794
सामूह	5795
कैप	5796
लगते	5797
चेन	5798
कलेक्शन	5799
प्राथमिकता	5800
दशक	5801
स्पीकर	5802
शरद	5803
नर्मदा	5804
सामूहिक	5805
एआई	5806
सारा	5807
##om	5808
##एएस	5809
सीओ	5810
##विड	5811
माफी	5812
भागी	5813
मांगने	5814
बसों	5815
माध्यमिक	5816
सुविधाएं	5817
चढ़ा	5818
इलेक्ट्र	5819
फॉर	5820
अभियंता	5821
स्मृति	5822
महापौर	5823
अरो	5824
जश	5825
जं	5826
##av	5827
संध्या	5828
अवॉर्ड	5829
मौजूदगी	5830
अंबानी	5831
मनोहर	5832
उत्तराखंड	5833
प्रसिद्ध	5834
कर्ज	5835
रतन	5836
##वीय	5837
अधिकांश	5838
##ाप्ति	5839
बिहारी	5840
एसएसपी	5841
##्यूज	5842
ब्रिज	5843
क्वि	5844
मेहता	5845
मोहल्ले	5846
झगड़ा	5847
समन्व	5848
72	5849
टन	5850
ढूं	5851
##िसी	5852
स्टी	5853
सीईओ	5854
##स्तक	5855
##्वान	5856
लिंक	5857
##वलप	5858
चीनी	5859
सिलेंडर	5860
रावण	5861
घोटाले	5862
बरसात	5863
पप्पू	5864
##नाएं	5865
अगली	5866
शेड	5867
संस्थानों	5868
##स्‍ट	5869
हराया	5870
स्कूटी	5871
ललित	5872
पुणे	5873
आंगन	5874
जानी	5875
धर्में	5876
लाई	5877
सर्ट	5878
निप	5879
प्रमोद	5880
मजदूरी	5881
चौथे	5882
अग्नि	5883
मुजफ्फरपुर	5884
सनातन	5885
अनेक	5886
धर्मेंद्र	5887
फुल	5888
हंस	5889
##वर्क	5890
##ैम	5891
##षिक	5892
##ाहरण	5893
पिस्टल	5894
जिलाधिकारी	5895
डीजी	5896
भेजे	5897
व्यापक	5898
विजेता	5899
कलेक्ट्रेट	5900
बं	5901
समर्पित	5902
बीबीसी	5903
निकाय	5904
आईं	5905
196	5906
शेष	5907
गंभीरता	5908
नौकर	5909
तलाक	5910
मार्गदर्शन	5911
धन्य	5912
##lection	5913
वायु	5914
ट्रॉफी	5915
जुलूस	5916
ताज	5917
बग	5918
##गरी	5919
##रानी	5920
##मती	5921
##िको	5922
भील	5923
बहु	5924
एससी	5925
चंदन	5926
ओलि	5927
दीपावली	5928
रिक्शा	5929
अमिताभ	5930
67	5931
अथ	5932
ईवी	5933
कुर	5934
टर्म	5935
रिल	5936
हसीना	5937
##ाग	5938
##ूंगा	5939
रहकर	5940
बुक	5941
रेस्ट	5942
आग्रह	5943
परीक्षण	5944
गोदाम	5945
##छाड़	5946
रणनीति	5947
##द्योगिक	5948
तबी	5949
काशी	5950
भीम	5951
अनिवार	5952
बीमा	5953
कामया	5954
##डीपी	5955
पौध	5956
आतंकी	5957
व्ही	5958
यूजर्स	5959
तबीयत	5960
06	5961
एक्	5962
कल्	5963
गाज	5964
गर्ग	5965
बौ	5966
बजर	5967
भाइयों	5968
मर्डर	5969
##शंकर	5970
##निक	5971
जाये	5972
सीपी	5973
गुस्सा	5974
आएगा	5975
स्वर्ण	5976
ऑफिसर	5977
मंत्रियों	5978
इंतजाम	5979
गेंदबाज	5980
एंबुलेंस	5981
खिल	5982
गत	5983
गाने	5984
##जिट	5985
##th	5986
पुलिसकर्मियों	5987
बेहत	5988
जीती	5989
माफिया	5990
बहुम	5991
संबंधों	5992
##बेडकर	5993
चलेगा	5994
अधिवक्ता	5995
vs	5996
ठिक	5997
##जान	5998
##िएंट	5999
कॉम	6000
वास्तव	6001
बाजारों	6002
गुप्त	6003
इच्छा	6004
हुसैन	6005
आति	6006
आलो	6007
चिल	6008
पंत	6009
##डेंट	6010
प्रतिपक्ष	6011
आईडी	6012
##000	6013
चलाई	6014
मिलाकर	6015
दिखे	6016
पाकिस्तानी	6017
कटौती	6018
सुनीता	6019
विभागीय	6020
इकाई	6021
दर्	6022
यहीं	6023
##ri	6024
##eo	6025
##क्षर	6026
जनसभा	6027
एसआई	6028
तैयारियां	6029
जवाहर	6030
चीजों	6031
प्रबंधक	6032
al	6033
टूर	6034
बघ	6035
लक	6036
गुला	6037
कुलपति	6038
बलराम	6039
मनाई	6040
रीवा	6041
डालने	6042
धाराओं	6043
काउंसिल	6044
##ुल्लाह	6045
गव	6046
हस्त	6047
हेल	6048
##पत्र	6049
##बान	6050
बाबू	6051
सीख	6052
पीएच	6053
बहनों	6054
अलवर	6055
ब्रांच	6056
पूर्णिया	6057
मथुरा	6058
भगत	6059
हिन्द	6060
समक्ष	6061
बेल	6062
चालू	6063
समर्थकों	6064
नक्सलियों	6065
क्षतिग्रस्त	6066
ओलिंपिक	6067
53	6068
आभार	6069
ऋषि	6070
फेस	6071
##पे	6072
सेमी	6073
संज्ञान	6074
##त्कार	6075
सेवाएं	6076
ब्लड	6077
टाउन	6078
उड़ान	6079
फाउंडेशन	6080
59	6081
##मुख	6082
समस्त	6083
बढ़त	6084
समाजवादी	6085
छोड़ा	6086
मजदूरों	6087
तिरंगा	6088
राठौड़	6089
आह्वान	6090
पिकअप	6091
पन	6092
मछ	6093
सर्च	6094
##पक	6095
##ch	6096
##धुनिक	6097
##sp	6098
प्रॉप	6099
पीटा	6100
##धीर	6101
##ानिस्तान	6102
प्रभावी	6103
सर्टिफिक	6104
अदा	6105
एके	6106
ब्ला	6107
##ोकेट	6108
##cc	6109
राध	6110
सुमित	6111
राशिफल	6112
कुशवाहा	6113
भूपेंद्र	6114
एडवोकेट	6115
इस्लाम	6116
औद्योगिक	6117
पटा	6118
विल	6119
हक	6120
##सूर	6121
##नम	6122
##भाल	6123
प्रसार	6124
उपकरण	6125
2016	6126
##िस्ट्रेट	6127
कलाकारों	6128
प्रणाली	6129
शायद	6130
एं	6131
दफ्त	6132
बारी	6133
##सीबी	6134
##किट	6135
जीएस	6136
ढूंढ	6137
अटल	6138
खंग	6139
गिल	6140
गड्ढ	6141
##ok	6142
कुत्	6143
महान	6144
जाएंगी	6145
डीपी	6146
हाे	6147
बॉडी	6148
पवित्र	6149
गयी	6150
फिट	6151
रौ	6152
##्का	6153
सीआई	6154
हाथी	6155
मध्यम	6156
समर्थक	6157
कलाकार	6158
रिश्तेदार	6159
तकनीक	6160
इजराइल	6161
स्पोर्ट्स	6162
डायल	6163
यौन	6164
सर्ज	6165
##टिल	6166
##ya	6167
एकत्र	6168
अपमान	6169
हीट	6170
चलती	6171
समझा	6172
शाही	6173
##र्पण	6174
सपना	6175
लिये	6176
##ट्स	6177
##तान	6178
##बॉल	6179
अध्य	6180
##ंचाई	6181
##न्नी	6182
मदन	6183
दरवाजा	6184
इको	6185
##जद	6186
##ार्क	6187
##एमसी	6188
स्टोर	6189
हिंदुओं	6190
साइड	6191
उतारा	6192
बतौर	6193
फतेह	6194
प्रॉपर्टी	6195
64	6196
ऑर्डर	6197
गला	6198
यो	6199
शेर	6200
सरा	6201
##डब्ल्यू	6202
##चि	6203
##ब्यू	6204
राशन	6205
एकता	6206
लाए	6207
इंसान	6208
पढ़िए	6209
ब्राह	6210
थोड़ा	6211
नारेबाजी	6212
धन्यवाद	6213
07	6214
झांसी	6215
फोक	6216
मरा	6217
रियल	6218
ेश्वर	6219
##वेल	6220
##दर्	6221
##टू	6222
##टाला	6223
##कां	6224
सील	6225
सीतार	6226
बनर्जी	6227
फिरोज	6228
शिवसेना	6229
##प्रत	6230
व्यक्तिगत	6231
##ड्डू	6232
अनुरोध	6233
बेहतरीन	6234
66	6235
असल	6236
चाय	6237
##डू	6238
##पो	6239
##ोली	6240
##षभ	6241
##ांतर	6242
बीती	6243
बनाते	6244
जनप्रत	6245
##वाले	6246
चौटाला	6247
रेड्डी	6248
जगत	6249
पेय	6250
आंखों	6251
करनाल	6252
जाहिर	6253
हार्दिक	6254
जनप्रतिनि	6255
खात	6256
चंप	6257
विज्ञ	6258
##गेड	6259
कमलेश	6260
##न्स	6261
##िमंडल	6262
चेहरा	6263
चेन्न	6264
फीचर्स	6265
दिखाने	6266
ख़िला	6267
indi	6268
गेह	6269
अनिवार्य	6270
एव	6271
##वरा	6272
कारा	6273
सीए	6274
आपसी	6275
रोम	6276
टेक	6277
250	6278
पार्टियों	6279
इंजीनियरिंग	6280
अत्य	6281
ब्रिगेड	6282
टेक्नोलॉजी	6283
चिरा	6284
रचना	6285
लह	6286
##वर्ती	6287
##ह्न	6288
##बरा	6289
##ियंस	6290
बैक	6291
बढ़ाया	6292
डिवाइ	6293
ियां	6294
दृष्ट	6295
अनुराग	6296
##ॉड	6297
स्कीम	6298
##्वे	6299
कपिल	6300
चेकिंग	6301
ब्रांड	6302
खाता	6303
शुभकाम	6304
श्रद्धांजलि	6305
स्मार्टफोन	6306
छेड़छाड़	6307
पृथ	6308
गवर्न	6309
68	6310
चू	6311
##डम	6312
##ंगाना	6313
आपस	6314
##भाग्य	6315
आसमान	6316
तेलंगाना	6317
मोहल्ला	6318
तिलक	6319
चेन्नई	6320
ख़िलाफ़	6321
डेम	6322
रिव	6323
##शियों	6324
##ed	6325
##इंग	6326
सास	6327
जोड़ी	6328
मोड	6329
माया	6330
जीतकर	6331
टेबल	6332
उदाहरण	6333
भेजी	6334
##ज़र	6335
टार	6336
िक	6337
काटने	6338
##वाज	6339
##क्टर्स	6340
यूरो	6341
महावीर	6342
मनाने	6343
रिपोर्ट्स	6344
आमिर	6345
खेली	6346
मिठ	6347
एजेंस	6348
लक्ष्मण	6349
लोकेशन	6350
चलेगी	6351
मशह	6352
##ing	6353
क्विंट	6354
हसन	6355
##्हा	6356
##श्री	6357
##िष्ट	6358
जिसको	6359
##लोत	6360
कलश	6361
हिंदु	6362
खासकर	6363
चुनौ	6364
विनय	6365
समझौता	6366
अरोड़ा	6367
मशहूर	6368
su	6369
अजीत	6370
##पल	6371
सुमन	6372
मेक	6373
कमला	6374
फिल्में	6375
195	6376
संभावित	6377
सर्टिफिकेट	6378
टारगेट	6379
आचार	6380
बाहरी	6381
हुड्डा	6382
एनएच	6383
टेली	6384
कृपा	6385
एजेंट	6386
##व्यवस्था	6387
उपाध्याय	6388
अर्थव्यवस्था	6389
दर्शकों	6390
आलोचना	6391
ब्राह्मण	6392
खतर	6393
टुक	6394
रामल	6395
डिफ	6396
##ट्ठा	6397
मजिस्ट्रेट	6398
डालकर	6399
मलिक	6400
आंकड़े	6401
अख	6402
आसार	6403
गाइड	6404
ठहरा	6405
दादा	6406
काग	6407
निम	6408
सिंचाई	6409
##ंचल	6410
बहू	6411
आजादी	6412
नीट	6413
स्वीकृति	6414
किशोरी	6415
जोड़ने	6416
चिन्ह	6417
गारंटी	6418
गू	6419
सत्या	6420
सकारात्मक	6421
करो	6422
##क्के	6423
बाज	6424
सावन	6425
संदे	6426
अध्या	6427
##िवेदी	6428
हरकत	6429
लिहा	6430
उठाकर	6431
कचरा	6432
खतरे	6433
ग्लो	6434
घेर	6435
शिर	6436
##दाय	6437
अनुसू	6438
रेखा	6439
शिवराज	6440
गाड़ियां	6441
साइंस	6442
##िंदे	6443
नितिन	6444
कल्प	6445
छि	6446
वां	6447
##सद	6448
मोन	6449
संभल	6450
##शेखर	6451
नकली	6452
शुक्ल	6453
गहलोत	6454
एडमिशन	6455
एटीएम	6456
मैनेजमेंट	6457
बघेल	6458
62	6459
ब्याज	6460
रघु	6461
##ौदा	6462
##ul	6463
##भि	6464
सेल्	6465
##ुलर	6466
कुंड	6467
##डीह	6468
अमे	6469
आईएएस	6470
रविंद्र	6471
सुनने	6472
वैष्ण	6473
लंबित	6474
मासूम	6475
##सिंह	6476
फर्स्ट	6477
अनी	6478
आस्था	6479
छू	6480
##मल	6481
##क्यू	6482
##os	6483
##बत	6484
पाते	6485
##प्पी	6486
श्रीकृष्ण	6487
वार्ता	6488
अंदाज	6489
मणिपुर	6490
ठाकर	6491
तत्व	6492
##कै	6493
##थियों	6494
##ल्ला	6495
बेरोज	6496
स्थिर	6497
बैं	6498
महात्मा	6499
डाउन	6500
##तलब	6501
इंचार्ज	6502
निलंबित	6503
बहुमत	6504
गेहूं	6505
क्यू	6506
जद	6507
त्या	6508
रवी	6509
सक्	6510
हार्ट	6511
##रिएंट	6512
##्रु	6513
करंट	6514
शुद्ध	6515
श्रृ	6516
##ज़ार	6517
निरस्त	6518
कविता	6519
क्विंटल	6520
ऑप	6521
दार	6522
वाई	6523
##डिया	6524
साझे	6525
समु	6526
मुठ	6527
नाटक	6528
नामक	6529
फील्ड	6530
##ार्थी	6531
मुकदम	6532
वीरेंद्र	6533
मुआवजा	6534
दाद	6535
पित	6536
मवेश	6537
लुक	6538
शतक	6539
शिंदे	6540
##ंव	6541
##ीर	6542
काले	6543
होश	6544
विनेश	6545
सरस्व	6546
मेल	6547
घटनाएं	6548
अभय	6549
आमजन	6550
गौरतलब	6551
अभियुक्त	6552
वार्षिक	6553
चिराग	6554
ठाकरे	6555
मुठभ	6556
सरस्वती	6557
गिन	6558
छिप	6559
कायम	6560
##लेस	6561
##्यूटर	6562
पैसों	6563
पड़ने	6564
प्रोफ	6565
ड्रग	6566
अफग	6567
खरीदा	6568
##िडेंट	6569
निवेशकों	6570
मरम्म	6571
स्पीड	6572
रामलला	6573
अत्या	6574
नु	6575
##टिव	6576
##ोपुर	6577
##iv	6578
##नामा	6579
##स्फ	6580
एकजु	6581
##सेन	6582
सीधा	6583
अधि	6584
2000	6585
मेगा	6586
थानाधिकारी	6587
देखे	6588
करीबी	6589
गुरुद्	6590
2015	6591
डेवलप	6592
##म्ब	6593
रॉय	6594
खोलने	6595
प्लास्टिक	6596
पहाड़ी	6597
मायके	6598
एकजुट	6599
..	6600
election	6601
mp	6602
sp	6603
ड्रेस	6604
भेंट	6605
हस्ता	6606
##मपुर	6607
##em	6608
##नाश	6609
सोल	6610
देखना	6611
देखभाल	6612
बुकिंग	6613
साहित्य	6614
व्यास	6615
तस्करों	6616
दिग्गज	6617
डिलीवरी	6618
ग्लोबल	6619
ch	6620
ओबीसी	6621
क्ली	6622
निया	6623
##ोम	6624
##ॉस	6625
##भंगा	6626
##ारायण	6627
समस्ती	6628
कार्यशाला	6629
दरभंगा	6630
एडिशन	6631
खोला	6632
नेटवर्क	6633
सराहना	6634
मुठभेड़	6635
समस्तीपुर	6636
600	6637
बजा	6638
सक्ष	6639
सवाई	6640
##बंदी	6641
##्रीम	6642
उत्तरी	6643
मानें	6644
##ोषण	6645
गुरुग्राम	6646
करेंगी	6647
सिद्धार्थ	6648
रिटायर	6649
कस्बे	6650
##पूर्व	6651
##ख्ती	6652
आवेद	6653
इट	6654
ढंग	6655
बुर	6656
##्मा	6657
##दर	6658
##लक	6659
##बाल	6660
हैरान	6661
कैप्	6662
अवगत	6663
भागलपुर	6664
धनबाद	6665
फोकस	6666
69	6667
आधे	6668
वें	6669
##ॉप्टर	6670
विरासत	6671
##जीलैंड	6672
जोड़ा	6673
ट्रेलर	6674
भरतपुर	6675
चतुर्थ	6676
कक्ष	6677
क्व	6678
झटका	6679
बरेली	6680
ान	6681
##ंजी	6682
##ैना	6683
सेशन	6684
##नाइ	6685
##ियाबाद	6686
सुशील	6687
बीए	6688
कार्यकार	6689
निकट	6690
एमएम	6691
दरबार	6692
##सलमेर	6693
निर्देशन	6694
रिहा	6695
गड़बड़ी	6696
संसाधन	6697
ईद	6698
चेत	6699
फाइ	6700
फिज	6701
भट्ट	6702
हां	6703
स्वि	6704
साई	6705
देसी	6706
दोस्ती	6707
अन्न	6708
##पुरम	6709
##िशियल	6710
##ूलाल	6711
##वंश	6712
डीए	6713
सफेद	6714
सेवाओं	6715
वाटर	6716
चालकों	6717
लौटा	6718
पंडाल	6719
फसलों	6720
लंबा	6721
ipl	6722
सर्जरी	6723
94	6724
आर्मी	6725
ऐश्व	6726
चुरा	6727
प्	6728
लहर	6729
##ia	6730
किये	6731
##ांशु	6732
संवेदन	6733
##ंडन	6734
##्तार	6735
विशिष्ट	6736
जैसलमेर	6737
##कालीन	6738
सैम	6739
सैंपल	6740
अंतरिम	6741
निकालकर	6742
##स्वामी	6743
शब्द	6744
अंग्रेजी	6745
मरम्मत	6746
फंदे	6747
बाला	6748
रत्	6749
वजन	6750
##ंटा	6751
किल	6752
##नाती	6753
##ायर्ड	6754
सिंधिया	6755
गांजा	6756
अनुम	6757
पुजारी	6758
नीम	6759
तैनाती	6760
रजत	6761
तोड़ने	6762
कीमतों	6763
सर्दी	6764
प्रेरणा	6765
अटैक	6766
""	6767
##शान	6768
##संध	6769
##फोड़	6770
##ेंजर	6771
स्नात	6772
राखी	6773
##वारे	6774
##क्षेत्र	6775
##माव	6776
बहाने	6777
फैला	6778
##and	6779
बचे	6780
दफ्तर	6781
छिंद	6782
रतल	6783
##र्ख	6784
पहना	6785
मिलेंगे	6786
हमास	6787
अंबेडकर	6788
आरएस	6789
लगेगा	6790
वृद्ध	6791
##ent	6792
बताने	6793
डीसीपी	6794
कूद	6795
दुल्ह	6796
गाजियाबाद	6797
शुभकामनाएं	6798
रतलाम	6799
92	6800
एक्सी	6801
गों	6802
तट	6803
##पै	6804
##ंगाई	6805
सुर्ख	6806
महंगाई	6807
बेर	6808
##्वेस्ट	6809
अनुसंध	6810
112	6811
प्राथमिकी	6812
सैनिकों	6813
सियासी	6814
फंसे	6815
पृथ्वी	6816
एक्सीडेंट	6817
अनुसंधान	6818
76	6819
am	6820
aap	6821
mo	6822
चक	6823
जहर	6824
वस्त	6825
##नपुर	6826
##धारा	6827
##सीम	6828
सीन	6829
##वीप	6830
बीज	6831
अधिकतर	6832
##श्चित	6833
चालान	6834
बनेगा	6835
ind	6836
आंकड़ों	6837
पुनर्	6838
अनाज	6839
उछ	6840
चित्त	6841
थानों	6842
धमा	6843
वेल	6844
##रेशन	6845
##राइ	6846
लेटर	6847
##जारा	6848
विक्की	6849
स्वस्थ	6850
##क्षणिक	6851
प्रत्याशियों	6852
असली	6853
अहमदाबाद	6854
शैक्षणिक	6855
सौंपी	6856
पेरिस	6857
बजरंग	6858
सभाग	6859
##साई	6860
##धाना	6861
प्रज	6862
##ायती	6863
थीम	6864
##वेयर	6865
##ंसल	6866
##ार्थियों	6867
बचपन	6868
संतुल	6869
इमरान	6870
लिखी	6871
प्रस्तावित	6872
स्कूली	6873
दहेज	6874
##स्थापक	6875
भागीदारी	6876
अनुसूचित	6877
कार्यकारिणी	6878
ai	6879
vid	6880
फर्म	6881
शार	6882
##ेटर	6883
##वड़	6884
##चीन	6885
पूनम	6886
नाव	6887
उमस	6888
लड़का	6889
प्रयासों	6890
गलौज	6891
अश्ली	6892
रिटायर्ड	6893
प्रदर्शनी	6894
मुझसे	6895
पेयजल	6896
संवेदनशील	6897
##ेब	6898
##ुणा	6899
##ॉय	6900
कोरिया	6901
##करार	6902
##ंगार	6903
जानने	6904
जुटा	6905
अवध	6906
बोतल	6907
##प्ले	6908
श्रम	6909
खेलते	6910
अभिभाव	6911
शिखर	6912
जायजा	6913
प्रारंभिक	6914
अध्ययन	6915
गूगल	6916
अश्लील	6917
इरा	6918
डबल	6919
द्र	6920
शॉर्ट	6921
हवाले	6922
##तः	6923
##थल	6924
मौल	6925
##टेक	6926
बैच	6927
कहकर	6928
शिवम	6929
डेब्यू	6930
वनडे	6931
पारंप	6932
##श्यप	6933
चंद्रशेखर	6934
हथियारों	6935
हटाया	6936
गोलियां	6937
राठौर	6938
800	6939
चोप	6940
रंज	6941
सस्प	6942
##सिया	6943
सेवान	6944
##्यम	6945
प्रधाना	6946
निवास	6947
##ार्पण	6948
हमलों	6949
पीढ़ी	6950
छाए	6951
120	6952
पूछे	6953
जेई	6954
दिवाली	6955
न्यूज	6956
कन्ह	6957
##ाजीपुर	6958
आतंकवाद	6959
तृतीय	6960
पारंपरिक	6961
सेवानिव	6962
as	6963
ब्यू	6964
सख्ती	6965
##ig	6966
दीन	6967
परिच	6968
प्रतिबद्ध	6969
##ंतु	6970
हत्याकांड	6971
एक्टिंग	6972
लाइव	6973
फ़ै	6974
न्यूजीलैंड	6975
##घाट	6976
बुलाकर	6977
रिटर्न	6978
व्हा	6979
मकसद	6980
जश्न	6981
उजा	6982
माली	6983
म्यूज	6984
शशि	6985
##सास	6986
##रेंस	6987
प्राप्ति	6988
##्मान	6989
##ाइक	6990
यूजी	6991
श्रद्धा	6992
प्रताड़	6993
तारीफ	6994
अभिनेता	6995
प्रोत्साहित	6996
डंप	6997
पच	6998
लटका	6999
हवाला	7000
##शनी	7001
##कंप	7002
बाधा	7003
राघ	7004
निधि	7005
बारात	7006
बेड	7007
##वंशी	7008
बढ़ता	7009
ट्रायल	7010
इंस्टी	7011
दिमा	7012
मनोर	7013
सांसदों	7014
बेहोश	7015
असिस्ट	7016
चावल	7017
आबकारी	7018
ड़ा	7019
सेकंड	7020
रेस्टोर	7021
77	7022
on	7023
छान	7024
नशी	7025
फंसा	7026
##ोर्स	7027
निश्चित	7028
##ंडों	7029
स्थायी	7030
गुहार	7031
रेत	7032
मिड	7033
पाएंगे	7034
आईपीएल	7035
ओलंपिक	7036
झांसा	7037
ज्वेल	7038
आजमगढ़	7039
ऐश्वर्या	7040
ईयर	7041
ओटी	7042
मद्	7043
##फाइन	7044
##sc	7045
निष	7046
अनूप	7047
घटनाक्रम	7048
शिकायतों	7049
एमएल	7050
एनटी	7051
लिखकर	7052
##ate	7053
सिरसा	7054
दिलाई	7055
वासियों	7056
डूबने	7057
समझौते	7058
##abha	7059
संदेह	7060
घी	7061
दाना	7062
शरी	7063
##हित	7064
##ुई	7065
बाधित	7066
बैंड	7067
पार्टन	7068
दुश्म	7069
आईएम	7070
डिवी	7071
पहुंचेगी	7072
तैयारियों	7073
बॉय	7074
सतर्क	7075
कांस्टेबल	7076
दबिश	7077
शोरूम	7078
चीजें	7079
अल्पसंख्यक	7080
छिंदवाड़ा	7081
भय	7082
##पाई	7083
##ांगी	7084
सिंगर	7085
##शीट	7086
डिस्प	7087
डिटेल	7088
##ेंट्स	7089
आरपी	7090
कलर	7091
चिह्न	7092
गैंगस्टर	7093
उतरे	7094
लैब	7095
अतुल	7096
उपायुक्त	7097
केशव	7098
सक्षम	7099
ईश्वर	7100
कड़ा	7101
फट	7102
##ड्र	7103
##टकों	7104
##ट्रिक	7105
##तू	7106
##जो	7107
कोरो	7108
करार	7109
परफ	7110
##वाणी	7111
हैंड	7112
लेप	7113
परिस्थित	7114
निर्भर	7115
1000	7116
विश्ले	7117
##ंकू	7118
मोहित	7119
श्रमिक	7120
दौसा	7121
शिवा	7122
बोलने	7123
घूमने	7124
दहशत	7125
बेटियों	7126
कन्हैया	7127
lok	7128
कटा	7129
क्रेड	7130
रिम	7131
##डोर	7132
##ोच्च	7133
##रियर	7134
कोय	7135
##टरिंग	7136
तोमर	7137
स्थलों	7138
मामा	7139
लगती	7140
पैनल	7141
एमडी	7142
जलस्तर	7143
##ोपण	7144
##फ्रेंड	7145
आंकड़ा	7146
सर्वा	7147
घुसकर	7148
निभाई	7149
मनमोहन	7150
चोपड़ा	7151
रेस्टोरेंट	7152
अंधे	7153
ट्यू	7154
भिव	7155
##दर्श	7156
##पेय	7157
##तौर	7158
##चंद्र	7159
##ूली	7160
##थन	7161
##झाने	7162
##बुक	7163
##क्टे	7164
##रेटर	7165
दुब	7166
स्टोरी	7167
जेडी	7168
मालूम	7169
....	7170
भेद	7171
सांग	7172
खुलकर	7173
चिकित्सकों	7174
सिलसिला	7175
कश्यप	7176
नाइट	7177
बकाया	7178
##ैप	7179
##भू	7180
विराज	7181
स्क्	7182
बेगू	7183
पहुंचते	7184
टीआई	7185
##बीएस	7186
रेस	7187
पंजाबी	7188
हड़कंप	7189
नकदी	7190
काटकर	7191
दरवाजे	7192
शोभायात्रा	7193
आफ	7194
बर्फ	7195
बस्तर	7196
##ैग	7197
कोषा	7198
##वाए	7199
विस्फ	7200
स्ल	7201
##िनल	7202
लोगो	7203
इन्होंने	7204
डॉक्टर्स	7205
108	7206
दिलच	7207
##्‍ह	7208
फ्रंट	7209
बेंच	7210
##ड्‌डा	7211
हिन्दू	7212
ब्यूरो	7213
इंस्टीट्यू	7214
विस्फोट	7215
700	7216
##खल	7217
##स्ड	7218
##ड़न	7219
चुने	7220
बीत	7221
सोया	7222
मुखब	7223
प्रतिभाग	7224
जुटे	7225
नामजद	7226
देखिए	7227
##बाड़ी	7228
यूजर	7229
प्राचीन	7230
जिनका	7231
##ोहित	7232
हॉस्टल	7233
शाहर	7234
टैंकर	7235
तोड़फोड़	7236
डायव	7237
चिकित्सक	7238
आयुष्मान	7239
लोहे	7240
दुल्हन	7241
बेगूसराय	7242
73	7243
इमार	7244
गश्त	7245
डोन	7246
तप	7247
फि	7248
फीड	7249
भै	7250
लिप	7251
शैल	7252
हिर	7253
##टिया	7254
##टर्स	7255
##ासी	7256
##िलिटी	7257
##दीव	7258
मोती	7259
##जेडी	7260
बनना	7261
उत्पी	7262
##धारण	7263
ब्रज	7264
दुकानदारों	7265
मालदीव	7266
##ath	7267
इलेक्ट्रॉन	7268
im	7269
उद्ध	7270
शर्म	7271
शर्त	7272
##बंद	7273
##बली	7274
मुद्रा	7275
##ासा	7276
##ोजर	7277
सोनिया	7278
पार्वती	7279
##ोदय	7280
एजु	7281
##यूवी	7282
रजनी	7283
जन्मदिन	7284
इकट्ठा	7285
प्रतिनिधित्व	7286
निष्पक्ष	7287
चमक	7288
##भूमि	7289
अफगानिस्तान	7290
83	7291
डाक	7292
नल	7293
##ग्रा	7294
##तियां	7295
##खार	7296
##खड़	7297
##घ्र	7298
पुलिया	7299
##जीब	7300
मोर	7301
##न्ड	7302
उमेश	7303
भागवत	7304
दीपिका	7305
भूषण	7306
सुल्तान	7307
ब्रिटेन	7308
फरीदाबाद	7309
##िकोण	7310
ईवीएम	7311
मुकदमे	7312
शाहरुख	7313
आधुनिक	7314
गवाह	7315
चन्द्र	7316
छवि	7317
जर्म	7318
शू	7319
किस्	7320
प्रको	7321
साधा	7322
##त्थ	7323
मिलना	7324
अगु	7325
कपल	7326
एम्स	7327
सड़कें	7328
##ंगाबाद	7329
पेमेंट	7330
करवाए	7331
संस्थाओं	7332
अंबाला	7333
दृष्टि	7334
हस्ताक्षर	7335
सभागार	7336
डिवीजन	7337
लेपर्ड	7338
##क्टेयर	7339
88	7340
दंप	7341
दहन	7342
यज्ञ	7343
वाज	7344
सिस	7345
##ंझ	7346
##ce	7347
##आउट	7348
##ाल्ड	7349
देवर	7350
##ंचित	7351
कार्यकारी	7352
परीक्ष	7353
##प्रिय	7354
रायगढ़	7355
सवालों	7356
विषयों	7357
रजिस्ट्री	7358
टोला	7359
विसर्जन	7360
खतरनाक	7361
मद्देन	7362
एएसपी	7363
कस	7364
जर्जर	7365
भ्रमण	7366
रित	7367
##बानी	7368
##ानन	7369
मामूली	7370
फैम	7371
चरणों	7372
कंपनियां	7373
संरक्षक	7374
पुष्पा	7375
गार्डन	7376
ऊंचाई	7377
छानबीन	7378
पार्टनर	7379
भिवानी	7380
##पेयी	7381
उत्पीड़न	7382
ar	7383
go	7384
sabha	7385
ईरानी	7386
नज़र	7387
पठ	7388
मजा	7389
रं	7390
रेज	7391
##वमेंट	7392
कोड	7393
##र्धा	7394
##तिर	7395
बिछ	7396
कैसा	7397
सबको	7398
अनुश	7399
इंफ	7400
##श्चा	7401
शेखा	7402
पत्रकारों	7403
दुकानें	7404
विश्वनाथ	7405
हेल्प	7406
जबरन	7407
नालंदा	7408
उपभोक्ताओं	7409
पशुओं	7410
ग्राहकों	7411
चैनल	7412
मुसलमानों	7413
अब्दुल	7414
डीजीपी	7415
एजेंसियों	7416
क्रेडिट	7417
जोग	7418
डैम	7419
तथ	7420
नॉ	7421
##कर्मा	7422
##इली	7423
##ृद	7424
##तावरण	7425
##केज	7426
निच	7427
कैच	7428
कॉपी	7429
एसयूवी	7430
लोकप्रिय	7431
एनएस	7432
वातावरण	7433
लॉरेंस	7434
प्रीम	7435
इंटरनेट	7436
तुम्ह	7437
##कृष्ट	7438
विशेषज्ञों	7439
नतीजे	7440
हरीश	7441
गिनती	7442
कमेंट	7443
खाम	7444
गर्व	7445
##ेंच	7446
##नामी	7447
संस्थापक	7448
सिंग	7449
सिंगल	7450
##टीक	7451
##ढ़ा	7452
राजम	7453
##कारियों	7454
##न्नाथ	7455
मांझी	7456
रोशनी	7457
जगन्नाथ	7458
जयशंकर	7459
##ंबल	7460
एम्ब	7461
योगेश	7462
अतिथियों	7463
शौचाल	7464
नवरात्रि	7465
जबरदस्त	7466
किलोग्राम	7467
परफॉ	7468
कोषाध्यक्ष	7469
97	7470
cbi	7471
de	7472
खड़	7473
ध्रु	7474
पेज	7475
फाज	7476
##तूस	7477
##ौरी	7478
प्रैक्ट	7479
लेबन	7480
कारतूस	7481
इन्वेस्ट	7482
सूचित	7483
अवकाश	7484
रेवाड़ी	7485
##ज्जर	7486
लुटे	7487
हवाओं	7488
फ्लोर	7489
कैंपस	7490
सर्किट	7491
वरुण	7492
उल्लेखनीय	7493
गुलाब	7494
गुरुद्वारा	7495
प्रज्वल	7496
फाजिल	7497
डोर	7498
नष्ट	7499
वस	7500
##्टी	7501
##दपुर	7502
##युक्त	7503
लाकर	7504
कहता	7505
आराम	7506
शिवपुरी	7507
2009	7508
प्लानिंग	7509
पॉलिसी	7510
सशक्त	7511
कामयाब	7512
मुखबिर	7513
फैमिली	7514
74	7515
cct	7516
of	7517
to	7518
इज	7519
चिप	7520
झुल	7521
ट्वी	7522
मल्ल	7523
##माने	7524
##़ी	7525
##ॉफ	7526
##so	7527
##लेवा	7528
##्वरी	7529
जानलेवा	7530
कैटे	7531
लगाना	7532
2013	7533
स्पेस	7534
प्रोसेस	7535
विश्वकर्मा	7536
रणवीर	7537
पकड़कर	7538
क्रिकेटर	7539
##one	7540
मरने	7541
आवंट	7542
धूमधाम	7543
साझेदारी	7544
उजागर	7545
cctv	7546
घन	7547
धा	7548
नह	7549
नायक	7550
फेड	7551
फेस्ट	7552
बंसल	7553
सर्जन	7554
कराना	7555
लेट	7556
##पीओ	7557
सोलर	7558
निर्यात	7559
10वीं	7560
आईआईटी	7561
छाया	7562
बैठी	7563
लीला	7564
आरटी	7565
पोषण	7566
शिकायतें	7567
रोडवेज	7568
##ुमो	7569
प्लॉट	7570
चौथी	7571
##वार्टर	7572
समृद्धि	7573
खातों	7574
दृष्टिकोण	7575
कल्पना	7576
असिस्टेंट	7577
इंस्टीट्यूट	7578
ट्वीट	7579
81	7580
ad	7581
इर	7582
दत्त	7583
सेवन	7584
##क्षे	7585
##ायंस	7586
बीआर	7587
##धानिक	7588
एसएचओ	7589
आरक्षक	7590
एमएस	7591
पीड़ितों	7592
शुभम	7593
जॉब	7594
कोरोना	7595
ऋषभ	7596
पट्टी	7597
श्रा	7598
शोषण	7599
सान	7600
स्त्री	7601
##सेवी	7602
##सीन	7603
विधेय	7604
निर्देशित	7605
वितर	7606
कमीशन	7607
बीमारियों	7608
बलरामपुर	7609
दिमाग	7610
71	7611
अड्ड	7612
डाली	7613
##णु	7614
मुना	7615
##कीन	7616
सुप	7617
सीधी	7618
सीमित	7619
तोड़ा	7620
अनुज	7621
निकासी	7622
विक्र	7623
##वासीय	7624
##ट्टे	7625
श्रवण	7626
रणबीर	7627
##वाइंट	7628
परियोजनाओं	7629
##कृतिक	7630
निर्मला	7631
प्रभात	7632
उपभोक्ता	7633
कुर्सी	7634
रक्तदान	7635
बाबूलाल	7636
सर्किल	7637
जीएसटी	7638
जदयू	7639
परिस्थितियों	7640
मद्देनजर	7641
##श्चात	7642
63	7643
उड़ा	7644
गहरी	7645
दंड	7646
हाज	7647
मेंबर	7648
##स्सी	7649
संस्कृत	7650
सुधीर	7651
##रेख	7652
एसएस	7653
आईसी	7654
सुराग	7655
केंद्रित	7656
स्पॉट	7657
परीक्षाओं	7658
खेलों	7659
दिखाकर	7660
##र्नल	7661
गेंदबाजी	7662
##पुट	7663
भीलवाड़ा	7664
दर्शा	7665
सोलंकी	7666
चित्तौड़	7667
परिचय	7668
08	7669
धक्का	7670
पान	7671
फेज	7672
बक्सर	7673
भिड़	7674
ाय	7675
##नियों	7676
लेता	7677
सम्प	7678
मुनि	7679
##ोरेशन	7680
उत्कृष्ट	7681
बालू	7682
पारित	7683
##फ़ी	7684
धरने	7685
पाठ्य	7686
##ॉट्स	7687
रिश्ता	7688
माधोपुर	7689
बायो	7690
अश्विन	7691
डूंगर	7692
गायक	7693
ठोस	7694
दर्जा	7695
नाज	7696
भां	7697
मित्त	7698
सऊ	7699
हद	7700
##शाह	7701
##िंट	7702
##क्क	7703
##क्कत	7704
सोसाइ	7705
अंश	7706
बढ़ाई	7707
##गमन	7708
मदर	7709
शीघ्र	7710
एसडीओ	7711
चोटें	7712
पर्यटकों	7713
पुरुषों	7714
ओमप्रकाश	7715
##ice	7716
बल्लेबाजी	7717
कठिन	7718
निराकरण	7719
##र्मेंस	7720
चैंपियनशिप	7721
अमेठी	7722
एम्बुलेंस	7723
फाजिल्का	7724
कैटेगरी	7725
मित्तल	7726
सोसाइटी	7727
जन्	7728
बगल	7729
वंचित	7730
सराय	7731
##चार्ज	7732
##धना	7733
##ारों	7734
विवि	7735
बीपी	7736
अंज	7737
लड़कों	7738
व्याव	7739
पारिवार	7740
2008	7741
विद्यालयों	7742
##िनेशन	7743
विस्तृत	7744
खंडवा	7745
निर्मित	7746
दुबई	7747
पारिवारिक	7748
आधी	7749
आत्मा	7750
पत	7751
रच	7752
वेट	7753
##धारी	7754
कालेज	7755
हीरो	7756
मोर्च	7757
कैल	7758
आपदा	7759
स्ट्रीट	7760
हिट	7761
दर्जनों	7762
अवस्था	7763
पदस्थ	7764
बरकरार	7765
समस्याएं	7766
गौरी	7767
मशक्कत	7768
बुलड	7769
पॉलिट	7770
भतीजे	7771
जंक्शन	7772
छिपा	7773
video	7774
आवंटित	7775
एग्री	7776
गहरे	7777
्‍	7778
##चरण	7779
##ॉन्	7780
##ta	7781
नेहा	7782
##िसू	7783
##ोग्रा	7784
चौंक	7785
डिस्	7786
125	7787
तबाद	7788
चंद्रा	7789
खरीदारी	7790
लौटे	7791
खूबसूर	7792
आंधी	7793
किशनगंज	7794
मंजिल	7795
अकाली	7796
जनजाति	7797
गम	7798
गाना	7799
चाइ	7800
झलक	7801
डु	7802
##cb	7803
##लीम	7804
दीक्षित	7805
बैल	7806
आईजी	7807
रूपए	7808
आरजेडी	7809
पेन	7810
दिखी	7811
रैंक	7812
एलान	7813
दिलाया	7814
पशुप	7815
कैप्टन	7816
सेवानिवृ	7817
वितरित	7818
ऑप्शन	7819
कंटे	7820
बंदर	7821
भव	7822
शाला	7823
हिल	7824
##पंथ	7825
##ोर्	7826
##हे	7827
##la	7828
उन्‍ह	7829
देहा	7830
##ोगु	7831
##्हे	7832
पैमाने	7833
एमबी	7834
2012	7835
लौटने	7836
खबरें	7837
तत्वा	7838
##भवती	7839
दबंग	7840
ड़ी	7841
गर्भवती	7842
कनेक्ट	7843
डिपार्टमेंट	7844
प्रतिभागियों	7845
आवासीय	7846
नान	7847
भौ	7848
मल्टी	7849
रनों	7850
लड्डू	7851
सवारी	7852
##नक	7853
##मढ़ी	7854
मेंटेन	7855
##वाकर	7856
##ंधा	7857
कामना	7858
सब्स	7859
रामायण	7860
बुनिया	7861
अफवाह	7862
बढ़ाकर	7863
आवागमन	7864
फ्रांस	7865
माइक्र	7866
एकेड	7867
सस्पेंड	7868
परफॉर्मेंस	7869
79	7870
ईंट	7871
बलों	7872
##ेशनों	7873
जाद	7874
कारों	7875
##ादक	7876
##्मत	7877
पाकर	7878
पापा	7879
स्टेशनों	7880
रखता	7881
194	7882
बरत	7883
जेब	7884
भोले	7885
टैंक	7886
आवंटन	7887
मिठाई	7888
सुर्खियों	7889
उर	7890
घो	7891
दाल	7892
फेम	7893
भैर	7894
शॉप	7895
##वरेज	7896
रहमान	7897
अपलोड	7898
##जीवन	7899
सूरत	7900
स्टो	7901
बहाल	7902
प्राकृतिक	7903
बालाजी	7904
पुत्री	7905
पेशे	7906
छात्राएं	7907
अंतरिक्ष	7908
ट्रांसपोर्ट	7909
फाइनेंस	7910
दोषियों	7911
काउंसलिंग	7912
बराबर	7913
वास्तविक	7914
स्नातक	7915
लेबनान	7916
सऊदी	7917
ख्या	7918
दली	7919
बया	7920
बला	7921
भिलाई	7922
##शिक	7923
##िंक	7924
##स्को	7925
##ेशर	7926
निस्त	7927
##द्दा	7928
मैर	7929
पीटी	7930
बैनर	7931
अभ्यास	7932
बॉन्ड	7933
लिखे	7934
दक्षिणी	7935
पार्षदों	7936
नगरीय	7937
सेलिब	7938
इजरायल	7939
सत्यापन	7940
khan	7941
आर्	7942
आलिया	7943
तारा	7944
दादी	7945
##दियों	7946
##न्यू	7947
##रिस	7948
##बिन	7949
कुंभ	7950
अधीन	7951
अनिय	7952
पिच	7953
डॉग	7954
स्टॉक	7955
क्रू	7956
शवों	7957
ट्रेड	7958
जेवर	7959
हेली	7960
वन्य	7961
##िश्वास	7962
शीतल	7963
सजाया	7964
बोलते	7965
सिक्	7966
गृहमंत्री	7967
दमकल	7968
##प्पड़	7969
जूझ	7970
बोलीं	7971
प्रतिबंधित	7972
##पूर्वक	7973
चर्च	7974
शिश	7975
##रन	7976
##रियल	7977
##्यमंत्री	7978
सिद्दी	7979
उपमुख	7980
##ब्दी	7981
क्रॉस	7982
शिकायतकर्ता	7983
योग्य	7984
लॉक	7985
मिर्जा	7986
हल्के	7987
##ट्टू	7988
आकर्षक	7989
चतुर्थी	7990
उद्धव	7991
विधेयक	7992
उपमुख्यमंत्री	7993
गेस्ट	7994
टोंक	7995
तड़	7996
तर्क	7997
शिप	7998
सज	7999
##मूर्ति	8000
सरदार	8001
गोवा	8002
जमुई	8003
कंप्यूटर	8004
पद्म	8005
ट्रेनें	8006
बलि	8007
हमलावर	8008
साइट	8009
छात्रावास	8010
स्वीकृत	8011
दशहरा	8012
श्रेय	8013
चयनित	8014
मुरैना	8015
pro	8016
प्रोडक्ट	8017
जहाज	8018
सॉफ्ट	8019
निपटने	8020
रंजिश	8021
अनियंत्रित	8022
day	8023
अद्	8024
अमाव	8025
तन	8026
तंत्र	8027
थप्पड़	8028
नवन	8029
वंदे	8030
##नस	8031
##ter	8032
लेती	8033
सम्रा	8034
मिलियन	8035
परिचित	8036
कैंट	8037
माथ	8038
ट्रेंड	8039
##क्रमण	8040
यूट्यू	8041
पिछड़ा	8042
##ट्टर	8043
##ष्ठी	8044
वासी	8045
रिंकू	8046
##ोदिया	8047
वृक्ष	8048
फायदे	8049
नगरी	8050
फूलों	8051
ज्योतिष	8052
ओपीडी	8053
जापान	8054
उन्हीं	8055
वैष्णव	8056
सक्सेना	8057
एजुकेशन	8058
शौचालय	8059
चित्तौड़गढ़	8060
सम्राट	8061
nda	8062
ईस्ट	8063
कारी	8064
टंकी	8065
बहा	8066
##ेयर	8067
##ट्र	8068
##फार	8069
##थान	8070
##ारिया	8071
कीर्तन	8072
##हाँ	8073
कुचल	8074
सीने	8075
दीं	8076
मौर्य	8077
##जेक्शन	8078
स्टार्ट	8079
कॉर्प	8080
आरोपित	8081
लोकल	8082
##श्ती	8083
गेंदों	8084
प्रीति	8085
अधिकारों	8086
मासिक	8087
हिम्मत	8088
नक्सली	8089
कठोर	8090
शेड्यूल	8091
चुनौतियों	8092
एडिशनल	8093
87	8094
आभूषण	8095
ढांच	8096
ढेर	8097
पेंट	8098
##मू	8099
##ai	8100
मुफ्त	8101
पैस	8102
डीआर	8103
##आईसी	8104
पानीपत	8105
मृतकों	8106
बलिया	8107
धीर	8108
जितना	8109
नोडल	8110
अनुरूप	8111
लीडर	8112
सच्चाई	8113
कारावास	8114
अमावस्या	8115
93	8116
96	8117
अखा	8118
कवर	8119
मीन	8120
वंद	8121
##िग	8122
##ौत	8123
##ौरा	8124
स्ने	8125
हुड्‌डा	8126
##सेक्स	8127
सीएच	8128
जोख	8129
बैठने	8130
चलाए	8131
##समंद	8132
सेंसेक्स	8133
गणपति	8134
रणजीत	8135
मॉनि	8136
बंधक	8137
दस्तावे	8138
एसीबी	8139
प्रतिनिधियों	8140
शब्दों	8141
गरबा	8142
आर्यन	8143
ग्राहक	8144
शेखावत	8145
गंद	8146
घंटा	8147
दयाल	8148
लता	8149
##ंजय	8150
##गारी	8151
##re	8152
##बरेली	8153
##अर	8154
##र्की	8155
परमाण	8156
##ष्टी	8157
बैर	8158
सोचा	8159
परिचाल	8160
वेरिएंट	8161
जहरी	8162
आरके	8163
हाथरस	8164
रायबरेली	8165
फ़िल	8166
370	8167
गहने	8168
डोनाल्ड	8169
परमाणु	8170
61	8171
कूल	8172
क्‍या	8173
वक्	8174
हायर	8175
ेगी	8176
##दु	8177
##िहार	8178
##िस्टर	8179
##se	8180
प्रकृति	8181
विंग	8182
निपट	8183
राजेन्द्र	8184
जीआरपी	8185
कम्प	8186
एसएम	8187
इंट	8188
लिफ्ट	8189
##निवास	8190
चलाते	8191
हॉकी	8192
टैग	8193
सतना	8194
उपलब्धि	8195
आनन	8196
प्लेटफार्म	8197
निरंतर	8198
झुंझ	8199
लकड़ी	8200
राधिका	8201
वक्फ	8202
अंचल	8203
चिर	8204
झाम	8205
पाप	8206
स्रो	8207
हू	8208
##कुम	8209
सेले	8210
बाप	8211
देह	8212
निंदा	8213
सुश	8214
##सागर	8215
रेव	8216
##प्ति	8217
समाजसेवी	8218
पड़ती	8219
महीना	8220
जेसीबी	8221
समझने	8222
दलाल	8223
शेयरों	8224
सर्वेक्षण	8225
क्वार्टर	8226
फॉलो	8227
पर्सनल	8228
मयंक	8229
विज्ञापन	8230
बुलडोजर	8231
छल	8232
ताजा	8233
फानन	8234
लिव	8235
हज़ार	8236
##श्याम	8237
प्राइम	8238
सम्	8239
सुद	8240
##रोध	8241
##मान्य	8242
पासपोर्ट	8243
अवतार	8244
महासभा	8245
##्राष्ट्रीय	8246
हेक्टेयर	8247
स्टेज	8248
न्यायमूर्ति	8249
बचाया	8250
सेक्रेट	8251
मछली	8252
##ांतरण	8253
डिफेंस	8254
##क्षेप	8255
गंदगी	8256
आपात	8257
ईमान	8258
क्वाल	8259
डंडे	8260
तकरी	8261
दरो	8262
मस्क	8263
सवा	8264
##ोला	8265
##ारस	8266
औरंगाबाद	8267
बाजी	8268
जावेद	8269
##गाट	8270
##लीला	8271
व्यस्त	8272
##्मीकि	8273
जमशे	8274
##ेंसिक	8275
विदाई	8276
##प्रदाय	8277
कराकर	8278
दिखाते	8279
खोले	8280
अलीगढ़	8281
बर्बाद	8282
पथराव	8283
समन्वय	8284
अग्निवीर	8285
5g	8286
91	8287
इनाम	8288
कों	8289
दुर	8290
नमा	8291
रिए	8292
लंदन	8293
िय	8294
##वों	8295
##फरी	8296
##ss	8297
##ut	8298
कास्ट	8299
साक्ष्य	8300
समर	8301
##जाही	8302
सालाना	8303
कमाल	8304
बुद्ध	8305
डील	8306
लालच	8307
डेड	8308
अफ़	8309
रिकार्ड	8310
शातिर	8311
विजयवर्	8312
निकाले	8313
आवाजाही	8314
बुनियादी	8315
जोखिम	8316
दरोगा	8317
विजयवर्गीय	8318
sc	8319
ंगी	8320
खरा	8321
चूं	8322
जियो	8323
झेल	8324
लड़े	8325
##विक	8326
##शर	8327
##िडी	8328
##णिक	8329
##mp	8330
अपन	8331
##मात्र	8332
सरगु	8333
रोष	8334
बनेंगे	8335
एसओ	8336
स्कॉ	8337
मुताबिक़	8338
क्लिक	8339
##ash	8340
नकद	8341
फैलाने	8342
नवरात्र	8343
प्रजापति	8344
अविनाश	8345
इकोन	8346
निषाद	8347
अगुवाई	8348
पाठ्यक्रम	8349
देहात	8350
झामुमो	8351
सरगुजा	8352
तिरा	8353
थम	8354
थिए	8355
थर्ड	8356
वैन	8357
##खोर	8358
स्क्र	8359
समित	8360
##रेप	8361
चुप	8362
##विजय	8363
कॉलो	8364
इलाका	8365
श्रीग	8366
मालवीय	8367
प्रमो	8368
##म्भ	8369
चिंत	8370
350	8371
मजबूती	8372
प्रीत	8373
अजित	8374
टूटा	8375
गर्ल	8376
हिमांशु	8377
##िफिकेशन	8378
आक्रोशित	8379
सैलरी	8380
india	8381
समुद्र	8382
संतुलन	8383
सर्वाधिक	8384
रंजीत	8385
वसूल	8386
फेस्टिव	8387
सिद्दीकी	8388
ev	8389
नारा	8390
फार	8391
बवाल	8392
वस्त्र	8393
##वकों	8394
##बां	8395
##ठे	8396
##ामक	8397
पहने	8398
सिखा	8399
सिफार	8400
कुएं	8401
कुशल	8402
जींद	8403
बिख	8404
पाटी	8405
ग्रो	8406
##आरएफ	8407
डाले	8408
चढ़कर	8409
वायनाड	8410
नतीजों	8411
read	8412
झांकी	8413
गड्ढे	8414
डिवाइस	8415
कृत	8416
छुप	8417
पिल	8418
भिज	8419
भार्ग	8420
माइन	8421
।।	8422
##ro	8423
##र्ति	8424
##लेन	8425
अधिसू	8426
##पाट	8427
जानकार	8428
रूसी	8429
सहकारी	8430
बुम	8431
##ंकन	8432
##ंसक	8433
##ंसिल	8434
बसें	8435
जलकर	8436
हमलावरों	8437
##ियमित	8438
मंत्रिमंडल	8439
लोड	8440
##ंडीज	8441
सिल्वर	8442
कर्त	8443
मल्ह	8444
अकाद	8445
पहलवान	8446
धारण	8447
पुण्य	8448
अभिनेत्री	8449
##ोत्तम	8450
स्टील	8451
जन्मा	8452
भार्गव	8453
82	8454
खिता	8455
पला	8456
बर्थ	8457
##सले	8458
##ोच	8459
सेहत	8460
सेफ्टी	8461
साइन	8462
संभा	8463
पहिया	8464
देवास	8465
##स्टार	8466
बीर	8467
##विंग	8468
कामका	8469
रोड़	8470
मिलीमीटर	8471
उठे	8472
एजेंड	8473
##कुश	8474
पलवल	8475
नवादा	8476
लड़कियां	8477
एडवांस	8478
ऑडिट	8479
ठगों	8480
दायरे	8481
वंदना	8482
झुंझुन	8483
तकरीबन	8484
सिफारिश	8485
बुमराह	8486
98	8487
इकल	8488
एथ	8489
चैल	8490
भाद	8491
शोक	8492
##धियों	8493
केन्द	8494
हैरिस	8495
बाड़ी	8496
##ंगत	8497
निखिल	8498
##काउ	8499
##पीठ	8500
वाल्मीकि	8501
महल	8502
##्रेसी	8503
बेनी	8504
युग	8505
बनती	8506
सबके	8507
डीआई	8508
शिक्षिका	8509
मीरा	8510
गणना	8511
फास्ट	8512
अर्ध	8513
पर्यटक	8514
फोगाट	8515
किराया	8516
फेसबुक	8517
शरीफ	8518
पठान	8519
अड्डे	8520
सेक्रेटरी	8521
केन्द्रीय	8522
अस्त	8523
आर्म	8524
कन्न	8525
खि	8526
खनि	8527
छी	8528
नाला	8529
फू	8530
लघु	8531
सनी	8532
##ोड	8533
केयर	8534
कोठी	8535
##ंगानगर	8536
बीएन	8537
पहलेलेख	8538
कॉमे	8539
रामपुर	8540
एनकाउ	8541
करवाकर	8542
प्लेयर	8543
खबरों	8544
वृंदा	8545
अंबिका	8546
गरीबों	8547
ट्रॉली	8548
प्रोडक्शन	8549
आकर्षण	8550
इन्हीं	8551
ज़रूर	8552
also	8553
एकत्रित	8554
मेकर्स	8555
अत्याचार	8556
डेवलपमेंट	8557
श्रीगंगानगर	8558
पहलेलेखक	8559
ias	8560
एह	8561
गाल	8562
चौर	8563
छिड़	8564
नॉन	8565
पश्चात	8566
मऊ	8567
सत्स	8568
हृद	8569
##कूल	8570
##तूल	8571
##हमी	8572
##ूनों	8573
कार्	8574
##ष्‍	8575
##ंत्रिक	8576
जोड़े	8577
पीयू	8578
##र्वेद	8579
##िप्त	8580
नीतियों	8581
स्पिन	8582
अरुणा	8583
2007	8584
##ार्जुन	8585
धरती	8586
सुनाया	8587
जोड़कर	8588
क़ान	8589
डिस्प्ले	8590
प्रैक्टिस	8591
चौंकाने	8592
सीएचसी	8593
चूंकि	8594
एनकाउंटर	8595
सत्संग	8596
at	8597
गूं	8598
जां	8599
पाद	8600
बसे	8601
भद	8602
वॉट्स	8603
हेर	8604
##िंडा	8605
##नारायण	8606
##ुए	8607
करूंगा	8608
##नायक	8609
प्रवर्	8610
हैंडल	8611
##लाइट	8612
##माही	8613
अनियमित	8614
जेवरा	8615
वीजा	8616
सर्वोच्च	8617
प्रसंग	8618
नारन	8619
##ग्रह	8620
शीत	8621
जितने	8622
शांतिपूर्ण	8623
क्रमांक	8624
आयुर्वेद	8625
ऑडियो	8626
भिंड	8627
पुतिन	8628
नर्मदापुरम	8629
रवींद्र	8630
इमारत	8631
राजमार्ग	8632
se	8633
अटक	8634
कड़े	8635
गहन	8636
टकर	8637
फिस	8638
भंग	8639
##टके	8640
##यरी	8641
##बैक	8642
##‍च	8643
##ऐप	8644
##ियाला	8645
##ेश्वरी	8646
##रोवर	8647
##्तानी	8648
पीडब्ल्यू	8649
कामों	8650
गिरकर	8651
पैट	8652
##देही	8653
जीतू	8654
##ुआं	8655
ब्रिट	8656
डेयरी	8657
प्रदर्शनकारियों	8658
वीं	8659
निशुल्क	8660
मूवमेंट	8661
ग्रेड	8662
##मुना	8663
बंटवारे	8664
जायेगा	8665
सेमीफाइन	8666
अधिग्र	8667
सिसोदिया	8668
सेमीफाइनल	8669
गरज	8670
घात	8671
डकै	8672
तंज	8673
यमुना	8674
सहर	8675
##ेक्षा	8676
##st	8677
##इंडीज	8678
##भराव	8679
विविध	8680
##विधि	8681
मेज	8682
##द्वाज	8683
बच्चियों	8684
बुलेट	8685
गुस्	8686
नींद	8687
रेन	8688
जलाने	8689
समझाया	8690
कटिहार	8691
उठाते	8692
गतिविधि	8693
गायत्री	8694
जॉइन	8695
विवाहिता	8696
साधक	8697
सलाहकार	8698
तलवार	8699
क्वालिटी	8700
जमशेदपुर	8701
जन्माष्टमी	8702
sd	8703
आध्या	8704
खिड़	8705
झाला	8706
टु	8707
हरे	8708
##cp	8709
##ौफ	8710
##णम	8711
##ृष्टि	8712
जाग	8713
कार्म	8714
भारद्वाज	8715
सोसाय	8716
कमान	8717
गोस्वामी	8718
##मीत	8719
डिब्	8720
गुरू	8721
ऑफ़	8722
जलभराव	8723
सौभाग्य	8724
लखी	8725
रीजन	8726
रुके	8727
प्रेमिका	8728
चरम	8729
झगड़े	8730
घोटाला	8731
पौधों	8732
मेंटेनेंस	8733
चाली	8734
त्वर	8735
धौल	8736
लाना	8737
सरोज	8738
सलीम	8739
##ंसी	8740
##प्ल	8741
##मण	8742
##rat	8743
##hone	8744
परेड	8745
प्रौ	8746
राजगढ़	8747
लगाएं	8748
मांस	8749
सहारा	8750
##चारिक	8751
रामगढ़	8752
पैलेस	8753
इलाहाबाद	8754
विधिक	8755
इसीलिए	8756
##ूर्ण	8757
प्रत्यक्ष	8758
संग्रह	8759
आदिवासियों	8760
प्रसन्न	8761
तरीका	8762
उत्पन्न	8763
नायडू	8764
निराश	8765
निर्माता	8766
वाजपेयी	8767
सेवानिवृत्त	8768
बयानों	8769
इकोनॉ	8770
चैलेंज	8771
त्वरित	8772
84	8773
co	8774
कंस	8775
खुर	8776
घबरा	8777
झंडा	8778
बठ	8779
शेट	8780
##ॉग	8781
कीर्ति	8782
##ालन	8783
महिंद	8784
##ाइश	8785
##देशक	8786
##ंत्रण	8787
दिनभर	8788
अनुदान	8789
गोवंश	8790
डीजे	8791
फैशन	8792
मनु	8793
रनौत	8794
सैफ	8795
अपराधों	8796
ट्रांसफार्म	8797
हवाएं	8798
पटरी	8799
घेराव	8800
इशारा	8801
कुत्ते	8802
अनीता	8803
रत्न	8804
डंपर	8805
चिह्नित	8806
900	8807
अभाव	8808
खज	8809
डरा	8810
भैया	8811
रिंग	8812
##थी	8813
##50	8814
##आम	8815
प्रिया	8816
बैतूल	8817
रामा	8818
##पालिका	8819
कप्तानी	8820
पंचांग	8821
डेरा	8822
##ana	8823
रिक्त	8824
खाड़ी	8825
शाहिद	8826
पंचायतों	8827
गणतंत्र	8828
परिवर्त	8829
कांवड़	8830
निदेशालय	8831
क़रीब	8832
भंडार	8833
प्रदर्शित	8834
सिलसिले	8835
तत्वों	8836
प्रताड़ित	8837
जेडीयू	8838
भेदभाव	8839
तत्वावधान	8840
जेवरात	8841
cr	8842
इजा	8843
कस्टम	8844
झील	8845
मियां	8846
मूर्	8847
रमन	8848
सत्	8849
ाें	8850
##लत	8851
##ion	8852
##ोंग	8853
प्रांत	8854
##दाश्त	8855
##टेस्ट	8856
स्टाइल	8857
##धारोपण	8858
वैभव	8859
##बूझ	8860
पेटी	8861
##र्शियल	8862
संभाला	8863
सहयोगियों	8864
पौधारोपण	8865
समाचार	8866
इलेक्शन	8867
झाड़	8868
खुली	8869
खुलने	8870
एसीपी	8871
पदार्थों	8872
हाइवे	8873
आंगनबाड़ी	8874
जनप्रतिनिधियों	8875
जर्मनी	8876
ध्रुव	8877
निस्तारण	8878
मॉनिटरिंग	8879
हृदय	8880
पीडब्ल्यूडी	8881
ka	8882
th	8883
उग्र	8884
कट्टा	8885
खां	8886
बान	8887
भंवर	8888
शत्र	8889
शक्त	8890
##up	8891
कोहरा	8892
राउ	8893
साड़ी	8894
सीएस	8895
महंगा	8896
बेन	8897
बिट्टू	8898
मानक	8899
##प्पा	8900
##ुतोष	8901
मार्क	8902
2011	8903
भगवंत	8904
आमने	8905
संचालकों	8906
भेजकर	8907
वार्डों	8908
प्रकाशित	8909
मेहमान	8910
प्लाजा	8911
महेंद्रगढ़	8912
##ानुसार	8913
वाइस	8914
कॉमर्स	8915
दानापुर	8916
इलेक्ट्रॉनिक	8917
बलात्कार	8918
89	8919
shar	8920
कबीर	8921
जले	8922
दाह	8923
मादक	8924
हत	8925
##gb	8926
सेठ	8927
प्रेशर	8928
##हीर	8929
##्यांकन	8930
एकमात्र	8931
देनी	8932
मुंडा	8933
##ल्ले	8934
##स्तों	8935
##ोकन	8936
जानता	8937
उपर	8938
महाय	8939
आगमन	8940
चलाकर	8941
कलां	8942
सीएमएचओ	8943
2005	8944
निशाने	8945
आशुतोष	8946
समीकरण	8947
कैमरों	8948
प्रतापगढ़	8949
जॉन	8950
रॉयल	8951
मुहैया	8952
निर्मल	8953
संगीता	8954
चार्जिंग	8955
स्ट्राइक	8956
नीलम	8957
राघव	8958
परिचालन	8959
झुंझुनूं	8960
महिंद्रा	8961
इजाफा	8962
we	8963
ंगे	8964
खट	8965
गड	8966
तां	8967
##लि	8968
राख	8969
##ार्द	8970
दीदी	8971
बेल्ट	8972
बैटिंग	8973
वर्दी	8974
रामलीला	8975
अभद्र	8976
##णाधीन	8977
रखेंगे	8978
कपड़ों	8979
2010	8980
ऑफिशियल	8981
आमंत्रित	8982
चीख	8983
खाकर	8984
वारंट	8985
शिना	8986
परेशानियों	8987
रुचि	8988
पोलिंग	8989
आकर्षित	8990
##क्‍स	8991
फुटबॉल	8992
##वैधानिक	8993
दायित्व	8994
निर्माणाधीन	8995
##भिषेक	8996
दादरी	8997
अवधेश	8998
खिताब	8999
बठिंडा	9000
अख्त	9001
कव	9002
चारा	9003
चचे	9004
ट्	9005
दांव	9006
लटक	9007
##वड़ा	9008
##गिल	9009
##गित	9010
##गुरु	9011
##कुल	9012
##कल्प	9013
##हो	9014
##धु	9015
##aj	9016
##um	9017
किड	9018
##ालाल	9019
विवरण	9020
विफल	9021
स्मार	9022
साक्षी	9023
##राद	9024
निवार	9025
##माइ	9026
##्तों	9027
##सरों	9028
गुड	9029
##ंटू	9030
बंदूक	9031
बॉस	9032
फरिया	9033
एसडीपीओ	9034
##शुदा	9035
बर्दाश्त	9036
सिद्धांत	9037
घुसपै	9038
एग्जिट	9039
गतिविधियां	9040
पहाड़	9041
आईपीएस	9042
चित्रक	9043
झूठे	9044
सीताराम	9045
शिवाजी	9046
घुसपैठ	9047
ऑयल	9048
ओला	9049
रश्म	9050
##ाध्यक्ष	9051
##हाना	9052
##एप	9053
##ऊंगा	9054
##ृत्ति	9055
केवी	9056
कोविड	9057
##स्पी	9058
संल	9059
##रेगा	9060
युक्त	9061
कॉम्	9062
गोप	9063
प्रदेशाध्यक्ष	9064
पुस्तक	9065
पूर्वक	9066
राज्यमंत्री	9067
मज़	9068
भरकर	9069
माहेश्वरी	9070
संपूर्ण	9071
पारस	9072
अंतर्राष्ट्रीय	9073
##र्निंग	9074
##ियारपुर	9075
मॉड	9076
पाएगा	9077
विचारधारा	9078
द्विवेदी	9079
जबरदस्ती	9080
तूफान	9081
ठिकानों	9082
डेमोक	9083
बैंकों	9084
मजाक	9085
दस्तावेजों	9086
कार्मिक	9087
सोसायटी	9088
धौलपुर	9089
अड	9090
आलू	9091
दवाइ	9092
पेंड	9093
होल	9094
सीरिया	9095
बैज	9096
पाता	9097
कहे	9098
द्वि	9099
बुलाई	9100
बुझाने	9101
फैन	9102
क्रिस	9103
कपड़ा	9104
2004	9105
गीतों	9106
मूंग	9107
गैंगरेप	9108
प्रिंट	9109
बंधन	9110
टूटने	9111
##ट्‌टी	9112
वेस्टइंडीज	9113
दिग्विजय	9114
बढ़ेगी	9115
मेघवाल	9116
बौद्ध	9117
फतेहपुर	9118
बेरोजगारी	9119
त्याग	9120
कोयला	9121
पाटीदार	9122
वृंदावन	9123
फिसल	9124
शत्रु	9125
ऋण	9126
गर्द	9127
छपरा	9128
ताइ	9129
दोगु	9130
धूल	9131
भटक	9132
##बो	9133
##बड़	9134
##ित्री	9135
साप्	9136
निर्व	9137
राजनाथ	9138
दोहरा	9139
महानगर	9140
मिलन	9141
##ष्कार	9142
पहुंचेंगे	9143
कमर	9144
ग्रह	9145
देखरेख	9146
##ंसू	9147
पढ़ा	9148
आमतौर	9149
उद्यम	9150
व्याख्या	9151
नौसेना	9152
बनेगी	9153
निकलकर	9154
##ताहिक	9155
साधना	9156
सोनीपत	9157
टॉस	9158
प्रोड्यू	9159
पर्ची	9160
हस्तक्षेप	9161
हिंदुस्तान	9162
विराजमान	9163
मल्लिक	9164
ब्रिटिश	9165
ट्रांसफार्मर	9166
ap	9167
man	9168
खाई	9169
चप्प	9170
जेट	9171
नड्डा	9172
मच्छ	9173
मिज	9174
शत	9175
##होर	9176
##ॉर	9177
कोहरे	9178
बताकर	9179
बताती	9180
जानवरों	9181
##वेन्यू	9182
कॉरि	9183
नामों	9184
डीह	9185
बसंत	9186
सचिवालय	9187
दुनियाभर	9188
रिश्तेदारों	9189
धारदार	9190
काउंटर	9191
बूथों	9192
भरोसे	9193
नतीजा	9194
पंजीयन	9195
घटकर	9196
अश्विनी	9197
प्रोफेशन	9198
नहाने	9199
मैरिज	9200
पीटीआई	9201
आैर	9202
कंड	9203
कतार	9204
चूर	9205
जया	9206
बिन	9207
वॉक	9208
ेश	9209
##मंद	9210
##ख्ता	9211
काटा	9212
##िएट	9213
सीमेंट	9214
##िशंकर	9215
वेडिंग	9216
इंटेल	9217
रखती	9218
पुरोहित	9219
श्रीम	9220
साहिल	9221
हेरो	9222
प्लस	9223
जितनी	9224
पटियाला	9225
धोनी	9226
ठेका	9227
वकीलों	9228
##द्योगिकी	9229
ग़ज़ा	9230
अनुमंडल	9231
म्यूजिक	9232
घनश्याम	9233
इरफान	9234
फेस्टिवल	9235
वॉट्सऐप	9236
साप्ताहिक	9237
कॉरिडोर	9238
is	9239
खेर	9240
खैर	9241
गन	9242
बची	9243
मॉल	9244
वादी	9245
शंभ	9246
हौ	9247
हवन	9248
ाइ	9249
##लोग	9250
##गमेंट	9251
##़ा	9252
##जनी	9253
##ik	9254
केदार	9255
प्रह	9256
राइट	9257
एकल	9258
सुध	9259
कार्यपाल	9260
बनाता	9261
पुस्त	9262
स्वाति	9263
##ांडा	9264
योजनाएं	9265
मंडला	9266
सीएमओ	9267
...'	9268
सितम्बर	9269
रिफ	9270
##जुए	9271
450	9272
संविदा	9273
सोनाक्षी	9274
चार्जशीट	9275
आराधना	9276
रिलायंस	9277
हेल्पलाइन	9278
निचले	9279
पीयूष	9280
हेरोइन	9281
जडे	9282
टें	9283
वान	9284
श्वे	9285
##चू	9286
##बु	9287
##्रार	9288
कालोनी	9289
##त्तियों	9290
कुम	9291
##रोल	9292
अनदे	9293
##स्तौल	9294
पिस्तौल	9295
पाटिल	9296
सहार	9297
शिक्षण	9298
बांट	9299
निर्देशक	9300
खेड़ी	9301
सकेगी	9302
ब्लू	9303
##सूद	9304
धमक	9305
##फिकेशन	9306
घाटी	9307
##ादाबाद	9308
नागपुर	9309
प्रतिष्ठित	9310
मुरादाबाद	9311
खोजबीन	9312
विपिन	9313
मिथुन	9314
रिलेशन	9315
ब्लास्ट	9316
योगा	9317
सेल्फी	9318
शूटर	9319
फेडरेशन	9320
##िंटन	9321
प्रवर्तन	9322
गुस्से	9323
प्रौद्योगिकी	9324
अख्तर	9325
श्वेता	9326
di	9327
डब्ल्यू	9328
धारी	9329
वंश	9330
शम	9331
##ंठ	9332
##घरों	9333
मेंट	9334
होल्ड	9335
बाउंड	9336
निभ	9337
अपार्टमेंट	9338
मुर्म	9339
मुस्त	9340
##गीरों	9341
सीवरेज	9342
##हराम	9343
दूसरों	9344
आयकर	9345
पैन	9346
डिस्क	9347
खुर्द	9348
##ख्यात	9349
##....	9350
##ष्ठा	9351
##णीय	9352
राहगीरों	9353
संतों	9354
मिनी	9355
तिमाही	9356
नागरिकता	9357
धीरज	9358
फ्रॉड	9359
जालोर	9360
सिद्धू	9361
सीतामढ़ी	9362
and	9363
अत्यंत	9364
कागजात	9365
झुलस	9366
एकेडमी	9367
खनिज	9368
अंबिकापुर	9369
सहरसा	9370
परिवर्तित	9371
खदान	9372
झड़	9373
टायर	9374
तर्ज	9375
पाय	9376
भगा	9377
मकर	9378
##ाफ्ट	9379
सेवक	9380
सेगमेंट	9381
कागज	9382
##रात्रि	9383
संदर्	9384
##ोगी	9385
##ाइजी	9386
##ल्व	9387
बैन	9388
सूर्या	9389
द्वीप	9390
विक्रे	9391
अमीर	9392
बुखार	9393
##क्सो	9394
1500	9395
110	9396
शिवलिंग	9397
प्रदोष	9398
हाथियों	9399
लॉज	9400
संतु	9401
कराते	9402
नोटिफिकेशन	9403
मूल्यांकन	9404
सुपरस्टार	9405
लैस	9406
जाटव	9407
बाइडन	9408
भड़क	9409
गजेंद्र	9410
कोरबा	9411
यूरोप	9412
श्रृंगार	9413
ड्रग्स	9414
ओटीटी	9415
##जोत	9416
दिलचस्प	9417
अधिसूचना	9418
जडेजा	9419
संदर्भ	9420
mar	9421
फाल	9422
लाह	9423
लक्षण	9424
लहरा	9425
हांसी	9426
##डु	9427
##ैच	9428
##कॉम	9429
##बुल्लाह	9430
##भूत	9431
समग्र	9432
समुद	9433
सिद्धि	9434
##दाता	9435
##ुपयोग	9436
##्वयन	9437
सोह	9438
सरकारों	9439
##डीओ	9440
ग्रंथ	9441
पैकेट	9442
पैकेज	9443
रखवाया	9444
उमर	9445
फीचर	9446
##ष्ठान	9447
##मिकल	9448
सैय	9449
धमका	9450
विकेटकी	9451
समीर	9452
याचिकाकर्ता	9453
कबूल	9454
पर्यवे	9455
बांधकर	9456
##्युनि	9457
##चुअल	9458
उतरने	9459
नियंत्रित	9460
डोडा	9461
इकबाल	9462
इसराइली	9463
नजदीकी	9464
एडीएम	9465
चक्रवा	9466
बांसवाड़ा	9467
आरएसएस	9468
किस्मत	9469
डूंगरपुर	9470
नमाज	9471
थिएटर	9472
अरुणाचल	9473
शेट्टी	9474
समुद्री	9475
एएन	9476
कुरु	9477
खालि	9478
नाना	9479
नूं	9480
यों	9481
##शिंग	9482
##उंस	9483
##याम	9484
##र्चित	9485
सेक्शन	9486
काफ़ी	9487
जाओ	9488
साधारण	9489
उन्न	9490
संचार	9491
संजू	9492
##नीश	9493
सरेंडर	9494
स्थगित	9495
##ांचल	9496
जनगणना	9497
गोला	9498
प्रशंसा	9499
जगद	9500
निर्देशों	9501
विवादों	9502
लोकेश	9503
उपलक्ष्य	9504
एफएस	9505
मोहनलाल	9506
तस्वीरों	9507
निर्वाचित	9508
हिस्सेदारी	9509
बुलंद	9510
स्वयंसे	9511
शारदा	9512
ख्याल	9513
शिनाख्त	9514
क्रे	9515
घसी	9516
चो	9517
थै	9518
नमी	9519
फिन	9520
वरीय	9521
##मिन	9522
##णवी	9523
##ब्रे	9524
##ख़	9525
##खों	9526
##रीत	9527
##ायन	9528
राजसमंद	9529
##स्पति	9530
मुख्तार	9531
भाटी	9532
चौथा	9533
हिस्ट्री	9534
छापा	9535
इलाक़	9536
##प्ट	9537
सुनते	9538
पेड़ों	9539
दिखने	9540
वीक	9541
हेमा	9542
फाटक	9543
हाउसिंग	9544
उत्पादों	9545
खोलकर	9546
चिकित्सालय	9547
नीलामी	9548
##स्थापित	9549
पहनकर	9550
जमीनी	9551
ठहराया	9552
अभिभावकों	9553
##ather	9554
पैसेंजर	9555
कामकाज	9556
एहसास	9557
गूंज	9558
अधिग्रहण	9559
weather	9560
डेमोक्रेट	9561
ban	9562
आला	9563
उतरी	9564
गाजीपुर	9565
घटा	9566
टेल	9567
शॉट	9568
##साद	9569
##पिंग	9570
##ip	9571
##dra	9572
पराम	9573
परमार	9574
प्रकट	9575
##गाई	9576
सुचार	9577
बीघा	9578
बेचा	9579
##स्थी	9580
मैथ	9581
पाउ	9582
##वालों	9583
स्टडी	9584
कांग्रेसी	9585
एसके	9586
विक्ष	9587
बंदी	9588
टेन	9589
##आरसी	9590
वैध	9591
बजरी	9592
मार्गों	9593
गणित	9594
प्लेस	9595
गोलीबारी	9596
गायन	9597
घुसे	9598
धीमी	9599
डायरेक्ट	9600
पहलुओं	9601
विभाजन	9602
##सुनी	9603
पड़ोसियों	9604
भैंस	9605
शिशु	9606
इंटेलिज	9607
com	9608
sh	9609
आड	9610
आकार	9611
जड़	9612
हज	9613
##वला	9614
##दड़	9615
##दयाल	9616
##रक	9617
##ौनी	9618
##णिज	9619
##तांत्रिक	9620
परंतु	9621
##नांद	9622
निफ्टी	9623
टीका	9624
कमरा	9625
##र्वेदी	9626
उपज	9627
लग्	9628
रामेश्वर	9629
गोवर्धन	9630
भाग्य	9631
पंचायती	9632
सदस्यीय	9633
दीपेंद्र	9634
इमाम	9635
मॉर्च	9636
मनीषा	9637
##ase	9638
जागरण	9639
##िक्रमा	9640
5000	9641
भोजपुर	9642
भावनाओं	9643
दवाओं	9644
कचरे	9645
चतुर्वेदी	9646
लिहाज	9647
ऑपरेटर	9648
मवेशी	9649
दंपती	9650
प्रमोशन	9651
अखंड	9652
एस्ट	9653
क्ले	9654
छत्र	9655
पॉप	9656
फड	9657
भूत	9658
मम	9659
मुल	9660
हनी	9661
##शय	9662
##श्रे	9663
##ंबा	9664
##ॉर्क	9665
##ष्म	9666
##tt	9667
नेत्र	9668
काउंट	9669
मुंग	9670
##मावत	9671
सुधा	9672
राजनांद	9673
##ल्हा	9674
जीजा	9675
बनता	9676
करीना	9677
महाकु	9678
##समैन	9679
टेस्‍ट	9680
वैशाली	9681
पांचवें	9682
बोलेरो	9683
सभापति	9684
फ्रेंच	9685
मालिकों	9686
दशकों	9687
बुजुर्गों	9688
माधव	9689
आतंकवादी	9690
डिपो	9691
हितों	9692
जसप्रीत	9693
आखिरकार	9694
तृणम	9695
सिनेमाघरों	9696
ब्लैकमेल	9697
तेंदुए	9698
विपरीत	9699
समन्वयक	9700
आतिशी	9701
##दर्शी	9702
अत्यधिक	9703
शिरोम	9704
डाउनलोड	9705
प्वाइंट	9706
नवनि	9707
अकादमी	9708
बेनीवाल	9709
ज़रूरत	9710
बाउंड्री	9711
राजनांदगांव	9712
तृणमूल	9713
खै	9714
झांक	9715
लिंग	9716
##विश्वास	9717
##िस्तान	9718
##हट	9719
##णाल	9720
##ब्स	9721
##ud	9722
बाएं	9723
लेफ्ट	9724
##काव	9725
##ादर	9726
सुक	9727
टीचर्स	9728
बहि	9729
हिंसक	9730
एनर्जी	9731
वैल	9732
वैदिक	9733
##तमंद	9734
रजिस्टर	9735
बदलकर	9736
न्यूय	9737
ड्राइव	9738
सिकंदर	9739
आतंकियों	9740
दर्दनाक	9741
घेरा	9742
रणनीतिक	9743
वैज्ञानिकों	9744
अथवा	9745
##कांक्षा	9746
सीतारमण	9747
रोमांच	9748
मायावती	9749
धमाके	9750
प्रधानाचार्य	9751
नानक	9752
फ़िल्म	9753
अपनाने	9754
मल्लिकार्जुन	9755
अती	9756
उमा	9757
ओझा	9758
कटे	9759
चिट्	9760
सद्	9761
हजारी	9762
ीय	9763
##ढे	9764
##ोरेट	9765
##हू	9766
##ूण	9767
##भु	9768
केसर	9769
##िकरण	9770
प्रस्थान	9771
##क्ख	9772
##लाद	9773
##लेव	9774
मुन	9775
मुर्	9776
कैंसिल	9777
##वेव	9778
बनते	9779
उत्तम	9780
भारतीयों	9781
पहुंचीं	9782
देवताओं	9783
बजाज	9784
अहिर	9785
विवादित	9786
##रिकेड	9787
neet	9788
मुरली	9789
टाइम्स	9790
अनुपम	9791
तुर्की	9792
मेरिट	9793
पंजीकरण	9794
मंजूर	9795
ढाका	9796
वोटरों	9797
रसोई	9798
आतिश	9799
हेलमेट	9800
हीटवेव	9801
ानंद	9802
उछाल	9803
प्रतिबद्धता	9804
कंटेनर	9805
उन्‍होंने	9806
सब्सिडी	9807
स्रोत	9808
नूंह	9809
##णिज्य	9810
शिरोमणि	9811
आंतर	9812
एंटर	9813
ढोल	9814
तख्त	9815
नन	9816
रोट	9817
वॉल	9818
##पूर	9819
##पचारिक	9820
##यर्स	9821
##ck	9822
##धू	9823
सेरे	9824
##नेश्वर	9825
काब	9826
पराली	9827
##ामे	9828
अन्त	9829
चुप्पी	9830
बारह	9831
जानबूझ	9832
पिंड	9833
सूबे	9834
गिरे	9835
नाट	9836
नाक	9837
गोता	9838
##र्सन	9839
लोकार्पण	9840
पूर्वानु	9841
जहाना	9842
रिपोर्	9843
शेखर	9844
मोहाली	9845
अफरा	9846
##esh	9847
रजिस्टर्ड	9848
नागौर	9849
दृश्य	9850
दामाद	9851
ग्रेजुए	9852
शेखपुरा	9853
उतारने	9854
भूपेश	9855
फतेहाबाद	9856
बीएसएफ	9857
गिफ्ट	9858
आपत्तिजनक	9859
निकायों	9860
चिन्हित	9861
मिर्जापुर	9862
इकलौ	9863
गडकरी	9864
ट्वि	9865
परामर्श	9866
आंतरिक	9867
पूर्वानुमान	9868
रिपोर्टर	9869
अष्टमी	9870
आंसू	9871
कन्	9872
जौन	9873
डीन	9874
नसी	9875
नूर	9876
नदियों	9877
फूट	9878
बबल	9879
मन्न	9880
यहाँ	9881
##शियल	9882
##लें	9883
##गना	9884
##ोव	9885
##मनी	9886
##चुरी	9887
##क्व	9888
##लेरिया	9889
##रीबी	9890
निवासियों	9891
राजभ	9892
अधू	9893
##ष्क	9894
लाड	9895
जीरो	9896
पाण्ड	9897
रोटी	9898
सबका	9899
नाकाब	9900
पैरा	9901
एमजी	9902
उठाना	9903
समझाने	9904
बलौदा	9905
छोड़ी	9906
लाइब्रे	9907
लौटी	9908
धर्मशाला	9909
मकानों	9910
##फेयर	9911
बूंदा	9912
##कलन	9913
##सायिक	9914
हराकर	9915
सपने	9916
इस्तीफे	9917
आक्रामक	9918
एडमिट	9919
गहराई	9920
सेकेंडरी	9921
पितृ	9922
##प्लेक्स	9923
फटकार	9924
बर्फबारी	9925
सोयाबीन	9926
धीरेंद्र	9927
आध्यात्म	9928
इंटेलिजेंस	9929
##श्रेष्ठ	9930
नाकाबंदी	9931
पग	9932
फंदा	9933
शाल	9934
शिम	9935
्ड	9936
##सनी	9937
##मो	9938
##हिया	9939
केबल	9940
##र्वा	9941
##स्स	9942
प्राय	9943
जातीय	9944
##तिथि	9945
निशा	9946
अपेक्षा	9947
पूंजी	9948
सीवान	9949
राजे	9950
##ल्ली	9951
##िवे	9952
##जीर	9953
पीर	9954
पीआर	9955
क्षण	9956
पावन	9957
जनक	9958
दिग	9959
डीलर	9960
लीजिए	9961
आरक्षित	9962
आयात	9963
##च्छेद	9964
दिव्य	9965
मालवा	9966
व्यवस्थाओं	9967
नवजात	9968
भूख	9969
घाटों	9970
हटाकर	9971
साधु	9972
गर्ल्स	9973
उद्योगों	9974
##ish	9975
upd	9976
इन्फ	9977
ओपनिंग	9978
इंद्रजीत	9979
गिरिडीह	9980
टर्मिनल	9981
व्हील	9982
##ट्सएप	9983
वस्तु	9984
व्यावसायिक	9985
खूबसूरत	9986
फेमस	9987
आवारा	9988
चंबल	9989
छतर	9990
छोट	9991
टेंट	9992
दस्त	9993
नक्	9994
नाली	9995
नमन	9996
##कॉप्टर	9997
##जेशन	9998
##फाई	9999
