{
  "version": "1.0",
  "truncation": null,
  "padding": null,
  "added_tokens": [
    {
      "id": 0,
      "content": "[UNK]",
      "single_word": false,
      "lstrip": false,
      "rstrip": false,
      "normalized": false,
      "special": true
    },
    {
      "id": 1,
      "content": "[CLS]",
      "single_word": false,
      "lstrip": false,
      "rstrip": false,
      "normalized": false,
      "special": true
    },
    {
      "id": 2,
      "content": "[SEP]",
      "single_word": false,
      "lstrip": false,
      "rstrip": false,
      "normalized": false,
      "special": true
    },
    {
      "id": 3,
      "content": "[PAD]",
      "single_word": false,
      "lstrip": false,
      "rstrip": false,
      "normalized": false,
      "special": true
    },
    {
      "id": 4,
      "content": "[MASK]",
      "single_word": false,
      "lstrip": false,
      "rstrip": false,
      "normalized": false,
      "special": true
    }
  ],
  "normalizer": {
    "type": "Sequence",
    "normalizers": [
      {
        "type": "NFKC"
      },
      {
        "type": "Lowercase"
      }
    ]
  },
  "pre_tokenizer": {
    "type": "Whitespace"
  },
  "post_processor": null,
  "decoder": {
    "type": "WordPiece",
    "prefix": "##",
    "cleanup": true
  },
  "model": {
    "type": "WordPiece",
    "unk_token": "[UNK]",
    "continuing_subword_prefix": "##",
    "max_input_chars_per_word": 100,
    "vocab": {
      "[UNK]": 0,
      "[CLS]": 1,
      "[SEP]": 2,
      "[PAD]": 3,
      "[MASK]": 4,
      "!": 5,
      "\"": 6,
      "#": 7,
      "$": 8,
      "%": 9,
      "&": 10,
      "'": 11,
      "(": 12,
      ")": 13,
      "*": 14,
      "+": 15,
      ",": 16,
      "-": 17,
      ".": 18,
      "/": 19,
      "0": 20,
      "1": 21,
      "2": 22,
      "3": 23,
      "4": 24,
      "5": 25,
      "6": 26,
      "7": 27,
      "8": 28,
      "9": 29,
      ":": 30,
      ";": 31,
      "=": 32,
      ">": 33,
      "?": 34,
      "@": 35,
      "[": 36,
      "\\": 37,
      "]": 38,
      "^": 39,
      "_": 40,
      "a": 41,
      "b": 42,
      "c": 43,
      "d": 44,
      "e": 45,
      "f": 46,
      "g": 47,
      "h": 48,
      "i": 49,
      "j": 50,
      "k": 51,
      "l": 52,
      "m": 53,
      "n": 54,
      "o": 55,
      "p": 56,
      "q": 57,
      "r": 58,
      "s": 59,
      "t": 60,
      "u": 61,
      "v": 62,
      "w": 63,
      "x": 64,
      "y": 65,
      "z": 66,
      "{": 67,
      "}": 68,
      "~": 69,
      "£": 70,
      "­": 71,
      "°": 72,
      "·": 73,
      "×": 74,
      "ï": 75,
      "̈": 76,
      "ँ": 77,
      "ं": 78,
      "ः": 79,
      "अ": 80,
      "आ": 81,
      "इ": 82,
      "ई": 83,
      "उ": 84,
      "ऊ": 85,
      "ऋ": 86,
      "ऍ": 87,
      "ए": 88,
      "ऐ": 89,
      "ऑ": 90,
      "ओ": 91,
      "औ": 92,
      "क": 93,
      "ख": 94,
      "ग": 95,
      "घ": 96,
      "ङ": 97,
      "च": 98,
      "छ": 99,
      "ज": 100,
      "झ": 101,
      "ञ": 102,
      "ट": 103,
      "ठ": 104,
      "ड": 105,
      "ढ": 106,
      "ण": 107,
      "त": 108,
      "थ": 109,
      "द": 110,
      "ध": 111,
      "न": 112,
      "ऩ": 113,
      "प": 114,
      "फ": 115,
      "ब": 116,
      "भ": 117,
      "म": 118,
      "य": 119,
      "र": 120,
      "ऱ": 121,
      "ल": 122,
      "ळ": 123,
      "व": 124,
      "श": 125,
      "ष": 126,
      "स": 127,
      "ह": 128,
      "़": 129,
      "ऽ": 130,
      "ा": 131,
      "ि": 132,
      "ी": 133,
      "ु": 134,
      "ू": 135,
      "ृ": 136,
      "ॅ": 137,
      "ॆ": 138,
      "े": 139,
      "ै": 140,
      "ॉ": 141,
      "ॊ": 142,
      "ो": 143,
      "ौ": 144,
      "्": 145,
      "ॐ": 146,
      "॑": 147,
      "ॠ": 148,
      "।": 149,
      "॥": 150,
      "०": 151,
      "१": 152,
      "२": 153,
      "३": 154,
      "४": 155,
      "५": 156,
      "६": 157,
      "८": 158,
      "९": 159,
      "॰": 160,
      "ঁ": 161,
      "অ": 162,
      "আ": 163,
      "ই": 164,
      "এ": 165,
      "ও": 166,
      "ক": 167,
      "খ": 168,
      "ঘ": 169,
      "চ": 170,
      "ছ": 171,
      "জ": 172,
      "ট": 173,
      "ঠ": 174,
      "ড": 175,
      "ণ": 176,
      "ত": 177,
      "দ": 178,
      "ধ": 179,
      "ন": 180,
      "প": 181,
      "ব": 182,
      "ম": 183,
      "য": 184,
      "র": 185,
      "ল": 186,
      "ষ": 187,
      "স": 188,
      "়": 189,
      "া": 190,
      "ি": 191,
      "ী": 192,
      "ু": 193,
      "ে": 194,
      "ো": 195,
      "্": 196,
      "ઢ": 197,
      "ం": 198,
      "ఇ": 199,
      "క": 200,
      "గ": 201,
      "చ": 202,
      "ఛ": 203,
      "జ": 204,
      "ట": 205,
      "డ": 206,
      "ణ": 207,
      "త": 208,
      "థ": 209,
      "ద": 210,
      "న": 211,
      "ప": 212,
      "ఫ": 213,
      "బ": 214,
      "భ": 215,
      "ర": 216,
      "ల": 217,
      "వ": 218,
      "శ": 219,
      "స": 220,
      "ా": 221,
      "ి": 222,
      "ీ": 223,
      "ు": 224,
      "ూ": 225,
      "ె": 226,
      "ే": 227,
      "ొ": 228,
      "ో": 229,
      "్": 230,
      "‌": 231,
      "‍": 232,
      "‎": 233,
      "‛": 234,
      "•": 235,
      "⁄": 236,
      "⁠": 237,
      "€": 238,
      "₹": 239,
      "⏩": 240,
      "⏱": 241,
      "▪": 242,
      "○": 243,
      "●": 244,
      "☀": 245,
      "♈": 246,
      "♉": 247,
      "♊": 248,
      "♋": 249,
      "♌": 250,
      "♍": 251,
      "♏": 252,
      "♐": 253,
      "♑": 254,
      "♒": 255,
      "♓": 256,
      "♦": 257,
      "⚠": 258,
      "⚫": 259,
      "❓": 260,
      "❗": 261,
      "➤": 262,
      "⭐": 263,
      "": 264,
      "️": 265,
      "🇮": 266,
      "🇳": 267,
      "🌅": 268,
      "🌙": 269,
      "🌟": 270,
      "🎉": 271,
      "🏅": 272,
      "🏹": 273,
      "🐉": 274,
      "💫": 275,
      "🔴": 276,
      "🔵": 277,
      "🕐": 278,
      "🗓": 279,
      "😉": 280,
      "😎": 281,
      "😜": 282,
      "😸": 283,
      "🤔": 284,
      "🤩": 285,
      "🦌": 286,
      "🧭": 287,
      "🪐": 288,
      "##ी": 289,
      "##ग": 290,
      "##m": 291,
      "##a": 292,
      "##r": 293,
      "##t": 294,
      "##क": 295,
      "##u": 296,
      "##n": 297,
      "##i": 298,
      "##ा": 299,
      "##ठ": 300,
      "##ू": 301,
      "##ज": 302,
      "##ब": 303,
      "##र": 304,
      "##्": 305,
      "##य": 306,
      "##h": 307,
      "##े": 308,
      "##ई": 309,
      "##d": 310,
      "##o": 311,
      "##x": 312,
      "##ं": 313,
      "##p": 314,
      "##e": 315,
      "##ट": 316,
      "##b": 317,
      "##न": 318,
      "##ह": 319,
      "##ृ": 320,
      "##त": 321,
      "##5": 322,
      "##ि": 323,
      "##f": 324,
      "##4": 325,
      "##6": 326,
      "##l": 327,
      "##स": 328,
      "##म": 329,
      "##इ": 330,
      "##ख": 331,
      "##g": 332,
      "##s": 333,
      "##8": 334,
      "##1": 335,
      "##फ": 336,
      "##ड": 337,
      "##ल": 338,
      "##ो": 339,
      "##ऊ": 340,
      "##व": 341,
      "##़": 342,
      "##c": 343,
      "##2": 344,
      "##0": 345,
      "##w": 346,
      "##ण": 347,
      "##ॉ": 348,
      "##7": 349,
      "##k": 350,
      "##ে": 351,
      "##च": 352,
      "##j": 353,
      "##द": 354,
      "##प": 355,
      "##ए": 356,
      "##ु": 357,
      "##श": 358,
      "##v": 359,
      "##ध": 360,
      "##झ": 361,
      "##9": 362,
      "##थ": 363,
      "##ै": 364,
      "##q": 365,
      "##आ": 366,
      "##ऱ": 367,
      "##y": 368,
      "##3": 369,
      "##)": 370,
      "##छ": 371,
      "##घ": 372,
      "##भ": 373,
      "##z": 374,
      "##ष": 375,
      "##‍": 376,
      "##ओ": 377,
      "##।": 378,
      "##ढ": 379,
      "##‌": 380,
      "##ँ": 381,
      "##ः": 382,
      "##०": 383,
      "##ौ": 384,
      "##ऐ": 385,
      "##उ": 386,
      "##,": 387,
      "##ळ": 388,
      "##१": 389,
      "##ত": 390,
      "##క": 391,
      "##খ": 392,
      "##ন": 393,
      "##ञ": 394,
      "##ও": 395,
      "##ऩ": 396,
      "##अ": 397,
      "##ॅ": 398,
      "##-": 399,
      "##!": 400,
      "##औ": 401,
      "##.": 402,
      "##'": 403,
      "##ऽ": 404,
      "##\"": 405,
      "##র": 406,
      "##>": 407,
      "##ర": 408,
      "##🇳": 409,
      "##%": 410,
      "##ङ": 411,
      "##३": 412,
      "##‎": 413,
      "##ణ": 414,
      "##া": 415,
      "##ছ": 416,
      "##ব": 417,
      "##ি": 418,
      "##॥": 419,
      "##ల": 420,
      "##న": 421,
      "##{": 422,
      "##₹": 423,
      "##ণ": 424,
      "के": 425,
      "##ें": 426,
      "##ार": 427,
      "में": 428,
      "है": 429,
      "##या": 430,
      "##्र": 431,
      "की": 432,
      "को": 433,
      "##ान": 434,
      "कर": 435,
      "ने": 436,
      "से": 437,
      "कि": 438,
      "का": 439,
      "##र्": 440,
      "##ने": 441,
      "पर": 442,
      "##ाल": 443,
      "##ों": 444,
      "और": 445,
      "##ता": 446,
      "##िल": 447,
      "ों": 448,
      "##क्": 449,
      "##ना": 450,
      "##्य": 451,
      "इस": 452,
      "रा": 453,
      "##ही": 454,
      "##हा": 455,
      "##ड़": 456,
      "स्": 457,
      "हो": 458,
      "जा": 459,
      "प्र": 460,
      "##ंग": 461,
      "सा": 462,
      "लि": 463,
      "बा": 464,
      "वि": 465,
      "हैं": 466,
      "दि": 467,
      "##के": 468,
      "##स्": 469,
      "भी": 470,
      "्र": 471,
      "##वा": 472,
      "##त्र": 473,
      "##िक": 474,
      "पु": 475,
      "दे": 476,
      "##ित": 477,
      "##ाम": 478,
      "##ले": 479,
      "##िस": 480,
      "उन": 481,
      "##हीं": 482,
      "हु": 483,
      "##कर": 484,
      "किया": 485,
      "ले": 486,
      "##ते": 487,
      "##ंद": 488,
      "##ला": 489,
      "एक": 490,
      "लिए": 491,
      "क्": 492,
      "नि": 493,
      "कार": 494,
      "गया": 495,
      "पह": 496,
      "##री": 497,
      "था": 498,
      "##ति": 499,
      "रह": 500,
      "नहीं": 501,
      "##क्ष": 502,
      "##से": 503,
      "##ोग": 504,
      "##रा": 505,
      "##ेश": 506,
      "सि": 507,
      "सं": 508,
      "रि": 509,
      "##का": 510,
      "##ां": 511,
      "##गा": 512,
      "##ारी": 513,
      "कु": 514,
      "र्": 515,
      "बाद": 516,
      "##नी": 517,
      "##ती": 518,
      "ही": 519,
      "अप": 520,
      "मु": 521,
      "##त्": 522,
      "##ुर": 523,
      "ें": 524,
      "##्ह": 525,
      "सम": 526,
      "साथ": 527,
      "##िला": 528,
      "##ंच": 529,
      "पुल": 530,
      "सु": 531,
      "राज": 532,
      "ला": 533,
      "पुलिस": 534,
      "सी": 535,
      "कहा": 536,
      "गई": 537,
      "बता": 538,
      "वा": 539,
      "पू": 540,
      "िय": 541,
      "##वार": 542,
      "वाल": 543,
      "करने": 544,
      "##कि": 545,
      "##्म": 546,
      "##िर": 547,
      "##ंड": 548,
      "उन्ह": 549,
      "ाल": 550,
      "दो": 551,
      "रे": 552,
      "उस": 553,
      "थी": 554,
      "तो": 555,
      "रहे": 556,
      "##ाने": 557,
      "##की": 558,
      "दिया": 559,
      "##ास": 560,
      "##िय": 561,
      "लोग": 562,
      "ता": 563,
      "दी": 564,
      "##र्ट": 565,
      "##्या": 566,
      "तक": 567,
      "मा": 568,
      "##सी": 569,
      "##रो": 570,
      "भा": 571,
      "##ढ़": 572,
      "रहा": 573,
      "बताया": 574,
      "िक": 575,
      "##ाय": 576,
      "या": 577,
      "चु": 578,
      "यह": 579,
      "ना": 580,
      "्य": 581,
      "##ौर": 582,
      "हुए": 583,
      "ार": 584,
      "##भी": 585,
      "बार": 586,
      "मौ": 587,
      "मिल": 588,
      "##गी": 589,
      "रो": 590,
      "अध": 591,
      "ियों": 592,
      "##गर": 593,
      "मह": 594,
      "रही": 595,
      "थे": 596,
      "बी": 597,
      "##पी": 598,
      "सिं": 599,
      "सिंह": 600,
      "##ली": 601,
      "##्ट": 602,
      "##रे": 603,
      "##शन": 604,
      "##मा": 605,
      "क्ष": 606,
      "हम": 607,
      "##ाना": 608,
      "ोंने": 609,
      "##हां": 610,
      "##टर": 611,
      "ान": 612,
      "गए": 613,
      "पी": 614,
      "जी": 615,
      "##्च": 616,
      "##ेट": 617,
      "स्थ": 618,
      "दिन": 619,
      "दर्": 620,
      "टी": 621,
      "##ल्": 622,
      "पहु": 623,
      "ती": 624,
      "आरो": 625,
      "पहुंच": 626,
      "लेकर": 627,
      "पहले": 628,
      "अन": 629,
      "##हर": 630,
      "ड़": 631,
      "मै": 632,
      "इसके": 633,
      "##जन": 634,
      "##देश": 635,
      "##भा": 636,
      "रु": 637,
      "ंत्र": 638,
      "##कार": 639,
      "ट्र": 640,
      "लोगों": 641,
      "जो": 642,
      "अपने": 643,
      "##दी": 644,
      "री": 645,
      "यु": 646,
      "कार्": 647,
      "##ानी": 648,
      "जब": 649,
      "ित": 650,
      "##स्ट": 651,
      "जाए": 652,
      "हुई": 653,
      "मे": 654,
      "माम": 655,
      "लग": 656,
      "ते": 657,
      "कम": 658,
      "लेकि": 659,
      "लेकिन": 660,
      "ओं": 661,
      "##सा": 662,
      "ंत्री": 663,
      "##्त": 664,
      "नी": 665,
      "द्": 666,
      "सर": 667,
      "हा": 668,
      "##में": 669,
      "इन": 670,
      "जिस": 671,
      "##तर": 672,
      "साल": 673,
      "वह": 674,
      "दौर": 675,
      "बै": 676,
      "सक": 677,
      "बि": 678,
      "##मार": 679,
      "िंग": 680,
      "पा": 681,
      "##ंब": 682,
      "एस": 683,
      "ाव": 684,
      "रू": 685,
      "होने": 686,
      "चल": 687,
      "वाले": 688,
      "गां": 689,
      "##जे": 690,
      "निर्": 691,
      "देश": 692,
      "वे": 693,
      "##जा": 694,
      "##द्": 695,
      "दौरान": 696,
      "हर": 697,
      "ग्र": 698,
      "िया": 699,
      "जन": 700,
      "्स": 701,
      "वार": 702,
      "##नाव": 703,
      "##दा": 704,
      "घर": 705,
      "हुआ": 706,
      "पुर": 707,
      "पि": 708,
      "##ंट": 709,
      "कुमार": 710,
      "##वास": 711,
      "मार": 712,
      "तर": 713,
      "अब": 714,
      "लगा": 715,
      "##ंध": 716,
      "##पा": 717,
      "बन": 718,
      "दू": 719,
      "प्रति": 720,
      "##वि": 721,
      "लो": 722,
      "चुनाव": 723,
      "सरकार": 724,
      "ेत्र": 725,
      "रुप": 726,
      "शुर": 727,
      "शाम": 728,
      "##नों": 729,
      "##र्व": 730,
      "साम": 731,
      "ये": 732,
      "करते": 733,
      "##ाह": 734,
      "सू": 735,
      "भार": 736,
      "##ंगे": 737,
      "देख": 738,
      "स्ट": 739,
      "कै": 740,
      "श्र": 741,
      "ाइ": 742,
      "##िन": 743,
      "वर्": 744,
      "काम": 745,
      "जु": 746,
      "##बा": 747,
      "बना": 748,
      "ां": 749,
      "##टना": 750,
      "##ंद्र": 751,
      "राम": 752,
      "सो": 753,
      "महिला": 754,
      "रख": 755,
      "##्ल": 756,
      "##ेल": 757,
      "कार्य": 758,
      "सभी": 759,
      "##िव": 760,
      "डॉ": 761,
      "लिया": 762,
      "आई": 763,
      "कुछ": 764,
      "##ंग्": 765,
      "यो": 766,
      "ंद": 767,
      "बड़": 768,
      "##िया": 769,
      "कई": 770,
      "पास": 771,
      "रेस": 772,
      "व्य": 773,
      "##ोट": 774,
      "##कारी": 775,
      "##्व": 776,
      "नगर": 777,
      "##यर": 778,
      "बढ़": 779,
      "गिर": 780,
      "टीम": 781,
      "यू": 782,
      "थाना": 783,
      "##मी": 784,
      "गांव": 785,
      "##ूल": 786,
      "##क्र": 787,
      "भारत": 788,
      "##क्त": 789,
      "##स्त": 790,
      "द्वार": 791,
      "दु": 792,
      "यों": 793,
      "ीड": 794,
      "##िए": 795,
      "गु": 796,
      "##ंप": 797,
      "पो": 798,
      "आप": 799,
      "##ख्य": 800,
      "उनके": 801,
      "ालय": 802,
      "ति": 803,
      "##पुर": 804,
      "चौ": 805,
      "बात": 806,
      "मामले": 807,
      "घटना": 808,
      "कोई": 809,
      "##जी": 810,
      "हाल": 811,
      "सब": 812,
      "नाम": 813,
      "ली": 814,
      "मो": 815,
      "ाय": 816,
      "कांग्": 817,
      "मी": 818,
      "उप": 819,
      "गो": 820,
      "समय": 821,
      "डी": 822,
      "##स्प": 823,
      "आरोप": 824,
      "अपनी": 825,
      "सह": 826,
      "##िश": 827,
      "##गे": 828,
      "रूप": 829,
      "शुरू": 830,
      "ार्ट": 831,
      "##टी": 832,
      "##सर": 833,
      "वहीं": 834,
      "##ोड़": 835,
      "्यक्ष": 836,
      "डि": 837,
      "हि": 838,
      "गा": 839,
      "दर्ज": 840,
      "परि": 841,
      "्रदेश": 842,
      "योज": 843,
      "जिल": 844,
      "यहां": 845,
      "निक": 846,
      "लोक": 847,
      "दोनों": 848,
      "##क्षा": 849,
      "##ंक": 850,
      "चाह": 851,
      "##वाई": 852,
      "##्न": 853,
      "जिला": 854,
      "कह": 855,
      "वी": 856,
      "##जार": 857,
      "बजे": 858,
      "ेंद्र": 859,
      "रुपए": 860,
      "बच": 861,
      "छा": 862,
      "बह": 863,
      "एक्": 864,
      "खु": 865,
      "जांच": 866,
      "##ंस": 867,
      "खिला": 868,
      "विभा": 869,
      "शु": 870,
      "##वी": 871,
      "दिल": 872,
      "किसी": 873,
      "##ष्": 874,
      "##ृत": 875,
      "तरह": 876,
      "विभाग": 877,
      "पूर्व": 878,
      "बो": 879,
      "##ष्ट": 880,
      "##ंत": 881,
      "युव": 882,
      "आरोपी": 883,
      "विश": 884,
      "##धान": 885,
      "पड़": 886,
      "आज": 887,
      "उसके": 888,
      "िका": 889,
      "एव": 890,
      "बीच": 891,
      "नकारी": 892,
      "स्त": 893,
      "##ड़क": 894,
      "चार": 895,
      "##एम": 896,
      "नु": 897,
      "10": 898,
      "कॉ": 899,
      "पै": 900,
      "ग्राम": 901,
      "दूस": 902,
      "##ारा": 903,
      "लाख": 904,
      "##वे": 905,
      "शामिल": 906,
      "##वर": 907,
      "जै": 908,
      "ाई": 909,
      "ीय": 910,
      "एवं": 911,
      "िकारी": 912,
      "##नि": 913,
      "करा": 914,
      "भाज": 915,
      "रात": 916,
      "अल": 917,
      "ेंगे": 918,
      "राज्य": 919,
      "तार": 920,
      "करी": 921,
      "सूच": 922,
      "भाजपा": 923,
      "आय": 924,
      "ंड": 925,
      "एम": 926,
      "िस": 927,
      "अव": 928,
      "##फ्": 929,
      "जारी": 930,
      "बैठ": 931,
      "फिर": 932,
      "क्र": 933,
      "मैं": 934,
      "होगा": 935,
      "अस्प": 936,
      "अस्पत": 937,
      "प्": 938,
      "बे": 939,
      "जाएगा": 940,
      "##जू": 941,
      "जाने": 942,
      "किए": 943,
      "पत्": 944,
      "मंद": 945,
      "उसे": 946,
      "जीत": 947,
      "करीब": 948,
      "खिलाफ": 949,
      "कारण": 950,
      "फिल": 951,
      "तै": 952,
      "##बर": 953,
      "जिले": 954,
      "ार्टी": 955,
      "ेड": 956,
      "अन्य": 957,
      "##सान": 958,
      "ार्": 959,
      "बद": 960,
      "ेंट": 961,
      "बेट": 962,
      "ाने": 963,
      "##ून": 964,
      "याद": 965,
      "##्ड": 966,
      "स्क": 967,
      "महा": 968,
      "##णा": 969,
      "सीट": 970,
      "मान": 971,
      "मांग": 972,
      "सद": 973,
      "ंच": 974,
      "टे": 975,
      "उनकी": 976,
      "शा": 977,
      "सभा": 978,
      "रिवार": 979,
      "ज्या": 980,
      "ज्याद": 981,
      "ारी": 982,
      "धिक": 983,
      "िल": 984,
      "युवक": 985,
      "##जर": 986,
      "्ट": 987,
      "वाली": 988,
      "फिल्म": 989,
      "मंदिर": 990,
      "शास": 991,
      "मौके": 992,
      "इं": 993,
      "श्री": 994,
      "तीन": 995,
      "गिरफ्": 996,
      "निवास": 997,
      "फै": 998,
      "करना": 999,
      "छात्र": 1000,
      "रवाई": 1001,
      "जाता": 1002,
      "शहर": 1003,
      "्थ": 1004,
      "सामने": 1005,
      "यक्र": 1006,
      "यक्रम": 1007,
      "मौत": 1008,
      "अग": 1009,
      "ओर": 1010,
      "सुब": 1011,
      "्री": 1012,
      "जग": 1013,
      "लाल": 1014,
      "सुबह": 1015,
      "ज्": 1016,
      "एं": 1017,
      "कोर्ट": 1018,
      "##िति": 1019,
      "तह": 1020,
      "ाया": 1021,
      "##ध्य": 1022,
      "योग": 1023,
      "##ूट": 1024,
      "वो": 1025,
      "आर": 1026,
      "##र्म": 1027,
      "##प्त": 1028,
      "राष्ट": 1029,
      "##द्य": 1030,
      "न्": 1031,
      "स्व": 1032,
      "क्या": 1033,
      "सबसे": 1034,
      "देने": 1035,
      "##ड़ी": 1036,
      "##लो": 1037,
      "गुर": 1038,
      "##जय": 1039,
      "पिछ": 1040,
      "गं": 1041,
      "िन": 1042,
      "##र्च": 1043,
      "सूचना": 1044,
      "हजार": 1045,
      "##वाल": 1046,
      "च्च": 1047,
      "अलग": 1048,
      "इला": 1049,
      "करोड़": 1050,
      "अधिक": 1051,
      "रेल": 1052,
      "पाल": 1053,
      "एन": 1054,
      "पानी": 1055,
      "जहां": 1056,
      "यादव": 1057,
      "##ुत": 1058,
      "देव": 1059,
      "पार": 1060,
      "इसी": 1061,
      "दिख": 1062,
      "##ूर": 1063,
      "##ेज": 1064,
      "िकाय": 1065,
      "कर्": 1066,
      "##ंबर": 1067,
      "##इन": 1068,
      "कृ": 1069,
      "बारिश": 1070,
      "राह": 1071,
      "दर्शन": 1072,
      "ऐसे": 1073,
      "##द्ध": 1074,
      "##वन": 1075,
      "बु": 1076,
      "नुस": 1077,
      "##जूद": 1078,
      "दिए": 1079,
      "मिली": 1080,
      "##चार": 1081,
      "भाग": 1082,
      "कंप": 1083,
      "आने": 1084,
      "बंद": 1085,
      "स्कूल": 1086,
      "##पर": 1087,
      "धिकार": 1088,
      "होगी": 1089,
      "ात": 1090,
      "जर": 1091,
      "नुसार": 1092,
      "मन": 1093,
      "ीन": 1094,
      "िसमें": 1095,
      "अनु": 1096,
      "जि": 1097,
      "इसमें": 1098,
      "##दान": 1099,
      "जय": 1100,
      "दा": 1101,
      "शिव": 1102,
      "त्": 1103,
      "##हार": 1104,
      "मि": 1105,
      "आए": 1106,
      "िकायत": 1107,
      "तैय": 1108,
      "इससे": 1109,
      "##ोर": 1110,
      "पोर्ट": 1111,
      "ंग": 1112,
      "तैयार": 1113,
      "##्यू": 1114,
      "ारती": 1115,
      "##म्म": 1116,
      "शर्": 1117,
      "ोदी": 1118,
      "##कान": 1119,
      "विद्य": 1120,
      "पद": 1121,
      "बाहर": 1122,
      "ज्ञ": 1123,
      "मत": 1124,
      "##हन": 1125,
      "##ेत": 1126,
      "रवि": 1127,
      "ारतीय": 1128,
      "##वान": 1129,
      "##ेन": 1130,
      "िश": 1131,
      "ाम": 1132,
      "नेता": 1133,
      "आया": 1134,
      "दिल्ल": 1135,
      "बंध": 1136,
      "##बंध": 1137,
      "शव": 1138,
      "रहने": 1139,
      "जान": 1140,
      "मुख्य": 1141,
      "सफ": 1142,
      "शासन": 1143,
      "यात्र": 1144,
      "शर्मा": 1145,
      "स्थान": 1146,
      "##ंगल": 1147,
      "गुरु": 1148,
      "##था": 1149,
      "रक्षा": 1150,
      "ेद": 1151,
      "योजना": 1152,
      "कुल": 1153,
      "टर": 1154,
      "सकता": 1155,
      "हत्": 1156,
      "##ाई": 1157,
      "##ेक": 1158,
      "भर": 1159,
      "मां": 1160,
      "चाहिए": 1161,
      "कर्म": 1162,
      "##सभ": 1163,
      "लोकसभ": 1164,
      "पढ़": 1165,
      "ेश": 1166,
      "##फी": 1167,
      "खेल": 1168,
      "जे": 1169,
      "##सल": 1170,
      "##्छ": 1171,
      "वहां": 1172,
      "##ियो": 1173,
      "स्थित": 1174,
      "समा": 1175,
      "पूरी": 1176,
      "हत्या": 1177,
      "ंद्र": 1178,
      "किसान": 1179,
      "अम": 1180,
      "पिछले": 1181,
      "पिता": 1182,
      "मंड": 1183,
      "मामला": 1184,
      "##ुल": 1185,
      "शे": 1186,
      "##ओं": 1187,
      "पां": 1188,
      "सड़क": 1189,
      "उसकी": 1190,
      "्या": 1191,
      "उत्": 1192,
      "िध": 1193,
      "ढ़": 1194,
      "शि": 1195,
      "क्टर": 1196,
      "व्यव": 1197,
      "विका": 1198,
      "##ंदर": 1199,
      "##तार": 1200,
      "पति": 1201,
      "प्रो": 1202,
      "##ायक": 1203,
      "िधायक": 1204,
      "ियां": 1205,
      "गढ़": 1206,
      "##लाई": 1207,
      "विधान": 1208,
      "रन": 1209,
      "रीक्ष": 1210,
      "ाए": 1211,
      "रिय": 1212,
      "##ेशन": 1213,
      "ऑफ": 1214,
      "##धा": 1215,
      "आगे": 1216,
      "नव": 1217,
      "काफी": 1218,
      "उठ": 1219,
      "ुख्य": 1220,
      "ुख्यम": 1221,
      "भू": 1222,
      "बच्च": 1223,
      "ेर": 1224,
      "बड़ी": 1225,
      "##त्व": 1226,
      "दर": 1227,
      "अच": 1228,
      "##धी": 1229,
      "##सप": 1230,
      "इंड": 1231,
      "अं": 1232,
      "मृत": 1233,
      "सहित": 1234,
      "संभ": 1235,
      "##लेक्": 1236,
      "##इल": 1237,
      "समाज": 1238,
      "विकास": 1239,
      "ंख": 1240,
      "जाएगी": 1241,
      "घाय": 1242,
      "घायल": 1243,
      "जबकि": 1244,
      "##ोष": 1245,
      "##एस": 1246,
      "दीप": 1247,
      "रोड": 1248,
      "माल": 1249,
      "बहुत": 1250,
      "##मान": 1251,
      "िग": 1252,
      "##र्ण": 1253,
      "घंट": 1254,
      "सै": 1255,
      "##कड़": 1256,
      "##धार": 1257,
      "हालां": 1258,
      "##इक": 1259,
      "अभी": 1260,
      "बैठक": 1261,
      "जगह": 1262,
      "ोम": 1263,
      "मार्": 1264,
      "तब": 1265,
      "##र्फ": 1266,
      "ीडियो": 1267,
      "20": 1268,
      "सदस": 1269,
      "सदस्य": 1270,
      "व्यक्": 1271,
      "निकल": 1272,
      "परिजन": 1273,
      "##को": 1274,
      "फी": 1275,
      "##र्ड": 1276,
      "होता": 1277,
      "धार": 1278,
      "ाह": 1279,
      "##ायर": 1280,
      "मौजूद": 1281,
      "मद": 1282,
      "तहत": 1283,
      "अला": 1284,
      "जिन": 1285,
      "जिसके": 1286,
      "लिख": 1287,
      "दूसरे": 1288,
      "च्चों": 1289,
      "बाइक": 1290,
      "ीण": 1291,
      "##ीत": 1292,
      "ताब": 1293,
      "ेट": 1294,
      "ेगा": 1295,
      "संग": 1296,
      "उसने": 1297,
      "चि": 1298,
      "धान": 1299,
      "न्या": 1300,
      "भग": 1301,
      "बारे": 1302,
      "मही": 1303,
      "अपना": 1304,
      "मिला": 1305,
      "ीडिया": 1306,
      "##ोल": 1307,
      "पत्नी": 1308,
      "सकते": 1309,
      "करें": 1310,
      "##ंगा": 1311,
      "अलावा": 1312,
      "ज़": 1313,
      "##ंत्र": 1314,
      "अगर": 1315,
      "आग": 1316,
      "ल्": 1317,
      "##टल": 1318,
      "उनका": 1319,
      "ाना": 1320,
      "##ेम": 1321,
      "##राब": 1322,
      "मंगल": 1323,
      "पं": 1324,
      "बाल": 1325,
      "अभ": 1326,
      "ंख्या": 1327,
      "वज": 1328,
      "ाकर": 1329,
      "दें": 1330,
      "टू": 1331,
      "ीजे": 1332,
      "पता": 1333,
      "ारा": 1334,
      "15": 1335,
      "कंपनी": 1336,
      "ंप": 1337,
      "ेक्": 1338,
      "कहना": 1339,
      "्रभ": 1340,
      "##ब्": 1341,
      "फर": 1342,
      "##दि": 1343,
      "##सि": 1344,
      "भाव": 1345,
      "12": 1346,
      "वजह": 1347,
      "मेंट": 1348,
      "स्था": 1349,
      "इसे": 1350,
      "##क्षक": 1351,
      "तेज": 1352,
      "म्": 1353,
      "शादी": 1354,
      "##तम": 1355,
      "बर": 1356,
      "म्म": 1357,
      "त्र": 1358,
      "पल": 1359,
      "ार्थ": 1360,
      "सौ": 1361,
      "##ोजन": 1362,
      "दिनों": 1363,
      "हाथ": 1364,
      "सें": 1365,
      "माण": 1366,
      "वर्ष": 1367,
      "युक्त": 1368,
      "##शि": 1369,
      "##पाल": 1370,
      "करता": 1371,
      "मज": 1372,
      "हार": 1373,
      "जैसे": 1374,
      "सांस": 1375,
      "्रीय": 1376,
      "हों": 1377,
      "साइ": 1378,
      "नजर": 1379,
      "पूरा": 1380,
      "##बू": 1381,
      "सेवा": 1382,
      "बिज": 1383,
      "तरफ": 1384,
      "पक्ष": 1385,
      "बल": 1386,
      "विवा": 1387,
      "आयोजन": 1388,
      "सच": 1389,
      "बिहार": 1390,
      "दिव": 1391,
      "भाई": 1392,
      "ास्": 1393,
      "##आई": 1394,
      "मुझ": 1395,
      "ताबिक": 1396,
      "ीद": 1397,
      "##केट": 1398,
      "हू": 1399,
      "होती": 1400,
      "पकड़": 1401,
      "ट्रेन": 1402,
      "दुकान": 1403,
      "सवाल": 1404,
      "वाला": 1405,
      "##ारे": 1406,
      "महीने": 1407,
      "स्प": 1408,
      "फो": 1409,
      "निकाल": 1410,
      "श्च": 1411,
      "##द्र": 1412,
      "शी": 1413,
      "बनाने": 1414,
      "घंटे": 1415,
      "ऐसा": 1416,
      "थाने": 1417,
      "ियाणा": 1418,
      "अति": 1419,
      "ीजेपी": 1420,
      "हाद": 1421,
      "11": 1422,
      "नंबर": 1423,
      "##ेष": 1424,
      "जुड़": 1425,
      "ाबा": 1426,
      "विशेष": 1427,
      "रेश": 1428,
      "वै": 1429,
      "पत्र": 1430,
      "##लेज": 1431,
      "न्याय": 1432,
      "ष्ट": 1433,
      "हाई": 1434,
      "ोमवार": 1435,
      "##सम": 1436,
      "रण": 1437,
      "गातार": 1438,
      "##ड़ित": 1439,
      "ेगी": 1440,
      "ॉलेज": 1441,
      "##रण": 1442,
      "ुर": 1443,
      "जून": 1444,
      "पूरे": 1445,
      "जिससे": 1446,
      "##ग्र": 1447,
      "निय": 1448,
      "घोष": 1449,
      "स्तान": 1450,
      "्थिति": 1451,
      "##न्": 1452,
      "नई": 1453,
      "सीएम": 1454,
      "केस": 1455,
      "इसकी": 1456,
      "चाल": 1457,
      "शन": 1458,
      "छोड़": 1459,
      "सांसद": 1460,
      "ास": 1461,
      "मस्": 1462,
      "शनि": 1463,
      "मेर": 1464,
      "लड़क": 1465,
      "राय": 1466,
      "ाड़": 1467,
      "ेशन": 1468,
      "संस्": 1469,
      "वन": 1470,
      "##धि": 1471,
      "नौ": 1472,
      "##योग": 1473,
      "विश्व": 1474,
      "##ये": 1475,
      "##र्य": 1476,
      "ाउ": 1477,
      "##ट्": 1478,
      "सकती": 1479,
      "##ेस": 1480,
      "भो": 1481,
      "शत": 1482,
      "लगाया": 1483,
      "ाबाद": 1484,
      "पहली": 1485,
      "ब्": 1486,
      "##ाइ": 1487,
      "##रोध": 1488,
      "मिलने": 1489,
      "फोन": 1490,
      "िगम": 1491,
      "बॉ": 1492,
      "बस": 1493,
      "लॉ": 1494,
      "##टा": 1495,
      "लगे": 1496,
      "रोक": 1497,
      "एफ": 1498,
      "नाथ": 1499,
      "बड़े": 1500,
      "मुझे": 1501,
      "इसका": 1502,
      "कराया": 1503,
      "30": 1504,
      "धानम": 1505,
      "एल": 1506,
      "गांधी": 1507,
      "उत्तर": 1508,
      "भगवान": 1509,
      "गंभी": 1510,
      "गंभीर": 1511,
      "##वरी": 1512,
      "पांच": 1513,
      "हूं": 1514,
      "##त्म": 1515,
      "एंगे": 1516,
      "कलेक्": 1517,
      "विरोध": 1518,
      "्रम": 1519,
      "##ियों": 1520,
      "डिग्र": 1521,
      "कर्ता": 1522,
      "##र्थ": 1523,
      "आधार": 1524,
      "सचिव": 1525,
      "मृतक": 1526,
      "पंजा": 1527,
      "ची": 1528,
      "खान": 1529,
      "समझ": 1530,
      "लड़": 1531,
      "दार": 1532,
      "देते": 1533,
      "मैच": 1534,
      "ड्": 1535,
      "##लिए": 1536,
      "इसलिए": 1537,
      "##चा": 1538,
      "र्ष": 1539,
      "पंजाब": 1540,
      "माह": 1541,
      "आम": 1542,
      "##द्द": 1543,
      "शुक्र": 1544,
      "जल": 1545,
      "गण": 1546,
      "श्": 1547,
      "##िम": 1548,
      "ुध": 1549,
      "##लास": 1550,
      "जमी": 1551,
      "बेह": 1552,
      "ाद": 1553,
      "##गत": 1554,
      "शनिवा": 1555,
      "स्तर": 1556,
      "रविवा": 1557,
      "वाप": 1558,
      "नए": 1559,
      "चर्च": 1560,
      "योजित": 1561,
      "ंट": 1562,
      "भेज": 1563,
      "बनाया": 1564,
      "ुक": 1565,
      "िक्षा": 1566,
      "##ष्ण": 1567,
      "मंडल": 1568,
      "बड़ा": 1569,
      "एड": 1570,
      "इलाज": 1571,
      "खा": 1572,
      "जमीन": 1573,
      "करे": 1574,
      "ुधवार": 1575,
      "##हम": 1576,
      "जाती": 1577,
      "खुद": 1578,
      "##क्षण": 1579,
      "##स्टम": 1580,
      "कल": 1581,
      "ताप": 1582,
      "रीय": 1583,
      "##ठन": 1584,
      "##चान": 1585,
      "वापस": 1586,
      "प्रा": 1587,
      "भर्": 1588,
      "संबंध": 1589,
      "पूजा": 1590,
      "ंत": 1591,
      "घा": 1592,
      "पहचान": 1593,
      "रुपये": 1594,
      "गल": 1595,
      "बज": 1596,
      "ाते": 1597,
      "बैंक": 1598,
      "शुरु": 1599,
      "##त्त": 1600,
      "ाप्त": 1601,
      "्प": 1602,
      "अच्छ": 1603,
      "ेंड": 1604,
      "्व": 1605,
      "थान": 1606,
      "हिंद": 1607,
      "ब्र": 1608,
      "खड़": 1609,
      "ेड़": 1610,
      "मौसम": 1611,
      "डाल": 1612,
      "सामान": 1613,
      "तु": 1614,
      "नीति": 1615,
      "न्द्र": 1616,
      "मीटर": 1617,
      "जेल": 1618,
      "बाजार": 1619,
      "सम्": 1620,
      "##्वर": 1621,
      "तापम": 1622,
      "##िका": 1623,
      "धर्म": 1624,
      "रेशान": 1625,
      "समेत": 1626,
      "ेंस": 1627,
      "आदेश": 1628,
      "लगी": 1629,
      "50": 1630,
      "गै": 1631,
      "बिजली": 1632,
      "उसका": 1633,
      "##जि": 1634,
      "##वेश": 1635,
      "लाइन": 1636,
      "गी": 1637,
      "भर्ती": 1638,
      "सित": 1639,
      "दल": 1640,
      "ोर": 1641,
      "##तन": 1642,
      "चो": 1643,
      "वोट": 1644,
      "लेने": 1645,
      "बेटे": 1646,
      "रंग": 1647,
      "जवा": 1648,
      "ोह": 1649,
      "##त्य": 1650,
      "होते": 1651,
      "पट": 1652,
      "समिति": 1653,
      "##शी": 1654,
      "शुरुआ": 1655,
      "25": 1656,
      "शाह": 1657,
      "देर": 1658,
      "बच्चे": 1659,
      "शो": 1660,
      "राहुल": 1661,
      "िरा": 1662,
      "फा": 1663,
      "सर्व": 1664,
      "रकारी": 1665,
      "यन": 1666,
      "दोप": 1667,
      "बया": 1668,
      "बयान": 1669,
      "ेल": 1670,
      "होकर": 1671,
      "जुलाई": 1672,
      "िप": 1673,
      "ेता": 1674,
      "काल": 1675,
      "जनता": 1676,
      "##दन": 1677,
      "सुर": 1678,
      "भिया": 1679,
      "भियान": 1680,
      "बेटी": 1681,
      "तौर": 1682,
      "्वा": 1683,
      "भिन": 1684,
      "##वल": 1685,
      "भिन्न": 1686,
      "बू": 1687,
      "##डी": 1688,
      "मिन": 1689,
      "पुत्र": 1690,
      "साह": 1691,
      "चलते": 1692,
      "गत": 1693,
      "वीर": 1694,
      "बदल": 1695,
      "चा": 1696,
      "रम": 1697,
      "चोरी": 1698,
      "ंब": 1699,
      "योंकि": 1700,
      "दान": 1701,
      "पे": 1702,
      "शां": 1703,
      "लौ": 1704,
      "नीत": 1705,
      "थीं": 1706,
      "रखा": 1707,
      "गंज": 1708,
      "ष्": 1709,
      "ट्रै": 1710,
      "बल्": 1711,
      "चर्चा": 1712,
      "जवाब": 1713,
      "ाप": 1714,
      "चुके": 1715,
      "ोज": 1716,
      "##शा": 1717,
      "##शल": 1718,
      "तल": 1719,
      "डे": 1720,
      "##ेंस": 1721,
      "दोपहर": 1722,
      "पीछ": 1723,
      "ध्या": 1724,
      "दूसरी": 1725,
      "करके": 1726,
      "सोशल": 1727,
      "कट": 1728,
      "पूर्ण": 1729,
      "ज्ञान": 1730,
      "ोबा": 1731,
      "अगस्त": 1732,
      "##ायत": 1733,
      "ीट": 1734,
      "ंचायत": 1735,
      "##क्स": 1736,
      "जाते": 1737,
      "टिक": 1738,
      "युवा": 1739,
      "्थ्य": 1740,
      "विजय": 1741,
      "यां": 1742,
      "मिले": 1743,
      "मेरिक": 1744,
      "घाट": 1745,
      "मदद": 1746,
      "##षद": 1747,
      "मस्या": 1748,
      "तथा": 1749,
      "##र्स": 1750,
      "स्वास": 1751,
      "##दात": 1752,
      "जीवन": 1753,
      "##यास": 1754,
      "अवसर": 1755,
      "्रयास": 1756,
      "##ग्": 1757,
      "ागर": 1758,
      "रेलवे": 1759,
      "सिर्फ": 1760,
      "माता": 1761,
      "##थम": 1762,
      "होंगे": 1763,
      "विवाद": 1764,
      "ंस": 1765,
      "ीदवार": 1766,
      "जल्": 1767,
      "त्य": 1768,
      "##षण": 1769,
      "दूर": 1770,
      "उम्म": 1771,
      "वाहन": 1772,
      "जयपुर": 1773,
      "िफ": 1774,
      "रोल": 1775,
      "थानी": 1776,
      "ाज": 1777,
      "चुकी": 1778,
      "फैस": 1779,
      "ोबाइल": 1780,
      "देवी": 1781,
      "अपरा": 1782,
      "तोड़": 1783,
      "कौ": 1784,
      "ंक": 1785,
      "धन": 1786,
      "ाक": 1787,
      "##खंड": 1788,
      "थानीय": 1789,
      "##स्थ": 1790,
      "पेश": 1791,
      "ोर्ट": 1792,
      "बिल": 1793,
      "मध्य": 1794,
      "गाड़ी": 1795,
      "इंडिय": 1796,
      "बोल": 1797,
      "कप": 1798,
      "##ियर": 1799,
      "खरी": 1800,
      "तृ": 1801,
      "मेरे": 1802,
      "चला": 1803,
      "##ुख": 1804,
      "निर": 1805,
      "वालों": 1806,
      "तला": 1807,
      "बनाए": 1808,
      "ुन": 1809,
      "जल्द": 1810,
      "्रमुख": 1811,
      "रियों": 1812,
      "दौ": 1813,
      "धम": 1814,
      "पेट": 1815,
      "राशि": 1816,
      "महत्व": 1817,
      "मार्ग": 1818,
      "पोस्ट": 1819,
      "##िंग": 1820,
      "##मत": 1821,
      "्यू": 1822,
      "पाकि": 1823,
      "र्म": 1824,
      "देखा": 1825,
      "ोड़": 1826,
      "लगभ": 1827,
      "इंटर": 1828,
      "लगभग": 1829,
      "##ाला": 1830,
      "करती": 1831,
      "ाध्य": 1832,
      "अपराध": 1833,
      "जैन": 1834,
      "ाध": 1835,
      "रिया": 1836,
      "ाली": 1837,
      "शराब": 1838,
      "ीकर": 1839,
      "इलाके": 1840,
      "नेशन": 1841,
      "दिस": 1842,
      "इंद": 1843,
      "रै": 1844,
      "##ैध": 1845,
      "अवैध": 1846,
      "14": 1847,
      "िस्": 1848,
      "विष": 1849,
      "आदि": 1850,
      "जम": 1851,
      "लाइ": 1852,
      "पार्": 1853,
      "ाध्यम": 1854,
      "संत": 1855,
      "अंत": 1856,
      "बराम": 1857,
      "ेज": 1858,
      "##ेड": 1859,
      "चंद्र": 1860,
      "आवे": 1861,
      "24": 1862,
      "रोह": 1863,
      "13": 1864,
      "िर": 1865,
      "शेयर": 1866,
      "स्थल": 1867,
      "वीं": 1868,
      "बरामद": 1869,
      "उद्": 1870,
      "ट्": 1871,
      "खरीद": 1872,
      "ंज": 1873,
      "अंदर": 1874,
      "्टेशन": 1875,
      "अक्": 1876,
      "धर": 1877,
      "नोट": 1878,
      "मई": 1879,
      "इस्": 1880,
      "हॉ": 1881,
      "इंदौर": 1882,
      "कान": 1883,
      "करण": 1884,
      "##केश": 1885,
      "कृष्ण": 1886,
      "किलो": 1887,
      "पुरा": 1888,
      "सके": 1889,
      "##श्": 1890,
      "फ़": 1891,
      "उम": 1892,
      "कोश": 1893,
      "सवार": 1894,
      "##ाराज": 1895,
      "टूबर": 1896,
      "कोशिश": 1897,
      "सितंब": 1898,
      "ीना": 1899,
      "हमारे": 1900,
      "कहते": 1901,
      "चुन": 1902,
      "ारपी": 1903,
      "ारपीट": 1904,
      "पीएम": 1905,
      "ंडा": 1906,
      "##विध": 1907,
      "एज": 1908,
      "ांग": 1909,
      "##थि": 1910,
      "जरूर": 1911,
      "कभी": 1912,
      "त्या": 1913,
      "आश": 1914,
      "##ल्ड": 1915,
      "िव": 1916,
      "##ha": 1917,
      "ीं": 1918,
      "अभि": 1919,
      "पीछे": 1920,
      "अर": 1921,
      "वाड़": 1922,
      "ंचाल": 1923,
      "ेडिक": 1924,
      "दिसंब": 1925,
      "ांक": 1926,
      "ूर्": 1927,
      "ेयर": 1928,
      "लौट": 1929,
      "दिवस": 1930,
      "चुका": 1931,
      "एयर": 1932,
      "हमला": 1933,
      "संगठन": 1934,
      "शुभ": 1935,
      "मैंने": 1936,
      "नरे": 1937,
      "इम": 1938,
      "क्य": 1939,
      "पदा": 1940,
      "##छता": 1941,
      "व्या": 1942,
      "##रीज": 1943,
      "हादसे": 1944,
      "ेडिकल": 1945,
      "इत": 1946,
      "ट्ट": 1947,
      "तलाश": 1948,
      "##बल": 1949,
      "देकर": 1950,
      "##ैंड": 1951,
      "वाद": 1952,
      "भि": 1953,
      "जाना": 1954,
      "गार": 1955,
      "केंद": 1956,
      "ूछता": 1957,
      "ूछताछ": 1958,
      "मर्थ": 1959,
      "सीसी": 1960,
      "##काश": 1961,
      "गुप्त": 1962,
      "्रकाश": 1963,
      "##माश": 1964,
      "बदमाश": 1965,
      "एक्स": 1966,
      "ेश्वर": 1967,
      "##कों": 1968,
      "नवंबर": 1969,
      "केंद्": 1970,
      "सार": 1971,
      "भाष": 1972,
      "आवेदन": 1973,
      "आसप": 1974,
      "##मि": 1975,
      "लिखा": 1976,
      "आसपास": 1977,
      "खास": 1978,
      "ीड़ित": 1979,
      "चे": 1980,
      "ांड": 1981,
      "ीर": 1982,
      "बंधित": 1983,
      "प्री": 1984,
      "16": 1985,
      "वाह": 1986,
      "ट्री": 1987,
      "नर": 1988,
      "पर्य": 1989,
      "रस": 1990,
      "प्ले": 1991,
      "केवल": 1992,
      "मतदान": 1993,
      "प्ल": 1994,
      "बने": 1995,
      "खंड": 1996,
      "र्ड": 1997,
      "##ताव": 1998,
      "टै": 1999,
      "राइ": 2000,
      "चौध": 2001,
      "त्याश": 2002,
      "िता": 2003,
      "आपको": 2004,
      "एक्सप": 2005,
      "लख": 2006,
      "केट": 2007,
      "चौधरी": 2008,
      "चै": 2009,
      "बिना": 2010,
      "ांस": 2011,
      "फोट": 2012,
      "परिस": 2013,
      "वाया": 2014,
      "ेन": 2015,
      "ब्ल": 2016,
      "भोपाल": 2017,
      "##साद": 2018,
      "नेशनल": 2019,
      "राव": 2020,
      "मजबू": 2021,
      "एच": 2022,
      "हरा": 2023,
      "देखने": 2024,
      "खेत": 2025,
      "्रसाद": 2026,
      "हट": 2027,
      "मिनट": 2028,
      "18": 2029,
      "छोट": 2030,
      "##किल": 2031,
      "तारी": 2032,
      "मोहन": 2033,
      "ध्यान": 2034,
      "40": 2035,
      "वाई": 2036,
      "खिल": 2037,
      "ेताओं": 2038,
      "ुवि": 2039,
      "ुविधा": 2040,
      "नदी": 2041,
      "हमें": 2042,
      "##ेर": 2043,
      "कों": 2044,
      "रव": 2045,
      "ीए": 2046,
      "पड़ा": 2047,
      "क्रम": 2048,
      "क्यों": 2049,
      "मॉ": 2050,
      "भारी": 2051,
      "##ल्ल": 2052,
      "कं": 2053,
      "ाग": 2054,
      "ेदार": 2055,
      "िक्र": 2056,
      "जुट": 2057,
      "वार्ड": 2058,
      "मार्च": 2059,
      "लाभ": 2060,
      "17": 2061,
      "खबर": 2062,
      "मंत्र": 2063,
      "थाप": 2064,
      "ाही": 2065,
      "होना": 2066,
      "्रि": 2067,
      "बोर्ड": 2068,
      "कर्मच": 2069,
      "अमित": 2070,
      "जन्म": 2071,
      "पढ़ें": 2072,
      "सफल": 2073,
      "ुल": 2074,
      "वर्ग": 2075,
      "##ूड": 2076,
      "##ात": 2077,
      "ेंग": 2078,
      "चरण": 2079,
      "ओवर": 2080,
      "न्यू": 2081,
      "देखते": 2082,
      "चालक": 2083,
      "र्स": 2084,
      "श्चिम": 2085,
      "शं": 2086,
      "साफ": 2087,
      "ियर": 2088,
      "कैसे": 2089,
      "ूम": 2090,
      "टिकट": 2091,
      "कल्": 2092,
      "टेस्ट": 2093,
      "जनवरी": 2094,
      "बनी": 2095,
      "फरार": 2096,
      "संद": 2097,
      "्ल": 2098,
      "भवन": 2099,
      "दोस्त": 2100,
      "दर्श": 2101,
      "नीतिक": 2102,
      "ंघ": 2103,
      "गोली": 2104,
      "ठा": 2105,
      "##निय": 2106,
      "उपस्थ": 2107,
      "ष्ठ": 2108,
      "यानी": 2109,
      "##्ज": 2110,
      "कराने": 2111,
      "गर्": 2112,
      "िंद": 2113,
      "अग्र": 2114,
      "विकेट": 2115,
      "##वाज": 2116,
      "घु": 2117,
      "जिसे": 2118,
      "िस्सा": 2119,
      "##चे": 2120,
      "##ष्ठ": 2121,
      "22": 2122,
      "सिल": 2123,
      "ीम": 2124,
      "र्द": 2125,
      "##्रा": 2126,
      "मनो": 2127,
      "ीणों": 2128,
      "ेह": 2129,
      "िटल": 2130,
      "प्रक्": 2131,
      "बदला": 2132,
      "कड़": 2133,
      "निधि": 2134,
      "भे": 2135,
      "ावना": 2136,
      "अहम": 2137,
      "कीमत": 2138,
      "हास": 2139,
      "ानी": 2140,
      "ोस्टम": 2141,
      "मारो": 2142,
      "ख़": 2143,
      "वश": 2144,
      "र्थ": 2145,
      "सीटों": 2146,
      "अंतर": 2147,
      "रें": 2148,
      "तीस": 2149,
      "पदाध": 2150,
      "सल": 2151,
      "तय": 2152,
      "गौर": 2153,
      "अगले": 2154,
      "जाय": 2155,
      "्रप": 2156,
      "ील": 2157,
      "चार्य": 2158,
      "in": 2159,
      "मारोह": 2160,
      "फॉ": 2161,
      "##ेंद": 2162,
      "ामा": 2163,
      "##ूब": 2164,
      "स्वी": 2165,
      "संघ": 2166,
      "हस": 2167,
      "संजय": 2168,
      "अद": 2169,
      "फीस": 2170,
      "##ब्ध": 2171,
      "फर्": 2172,
      "ठी": 2173,
      "श्रद्": 2174,
      "सहयोग": 2175,
      "पलब्ध": 2176,
      "गेट": 2177,
      "आयोग": 2178,
      "वायर": 2179,
      "लगाए": 2180,
      "दुर्": 2181,
      "त्म": 2182,
      "भेजा": 2183,
      "जिलों": 2184,
      "गलत": 2185,
      "फोटो": 2186,
      "िड": 2187,
      "्त": 2188,
      "##दार": 2189,
      "अधि": 2190,
      "मं": 2191,
      "्ड": 2192,
      "धु": 2193,
      "दय": 2194,
      "र्व": 2195,
      "दावा": 2196,
      "मना": 2197,
      "जिम्म": 2198,
      "ऐसी": 2199,
      "##ंबई": 2200,
      "मुंबई": 2201,
      "पन": 2202,
      "ांव": 2203,
      "नल": 2204,
      "िम": 2205,
      "कार्ड": 2206,
      "तृत्व": 2207,
      "##क्ति": 2208,
      "##सव": 2209,
      "साध": 2210,
      "यूपी": 2211,
      "रखने": 2212,
      "गर्मी": 2213,
      "पैसे": 2214,
      "चौक": 2215,
      "ूर्ति": 2216,
      "##ैल": 2217,
      "##क्ट": 2218,
      "ग्रह": 2219,
      "दुनिय": 2220,
      "प्रैल": 2221,
      "एंट": 2222,
      "ताकि": 2223,
      "व्याप": 2224,
      "नीचे": 2225,
      "र्मचा": 2226,
      "मूल": 2227,
      "पूछ": 2228,
      "फ्": 2229,
      "##दम": 2230,
      "पटना": 2231,
      "माना": 2232,
      "ीप": 2233,
      "टक्": 2234,
      "कब्": 2235,
      "उर्फ": 2236,
      "तरी": 2237,
      "धारा": 2238,
      "ीक्षक": 2239,
      "लगाने": 2240,
      "म्मी": 2241,
      "ीस": 2242,
      "ीनियर": 2243,
      "पण": 2244,
      "वश्य": 2245,
      "फायर": 2246,
      "बल्कि": 2247,
      "टक्कर": 2248,
      "तुल": 2249,
      "रत": 2250,
      "इनमें": 2251,
      "सौंप": 2252,
      "नियम": 2253,
      "रिल": 2254,
      "िदेश": 2255,
      "जाम": 2256,
      "दरअ": 2257,
      "बेहतर": 2258,
      "र्ज": 2259,
      "दरअसल": 2260,
      "सर्": 2261,
      "ूर्ण": 2262,
      "द्य": 2263,
      "जाकर": 2264,
      "सिर": 2265,
      "प्रीम": 2266,
      "लादेश": 2267,
      "लखन": 2268,
      "लिय": 2269,
      "सिटी": 2270,
      "टाइ": 2271,
      "टन": 2272,
      "िए": 2273,
      "डा": 2274,
      "बांग्": 2275,
      "्रा": 2276,
      "फैसला": 2277,
      "सीमा": 2278,
      "घोषणा": 2279,
      "ून": 2280,
      "हासिल": 2281,
      "डेट": 2282,
      "मकान": 2283,
      "##नात": 2284,
      "ट्रक": 2285,
      "तैनात": 2286,
      "टॉ": 2287,
      "कल्प": 2288,
      "21": 2289,
      "रल": 2290,
      "मेल": 2291,
      "ेदारी": 2292,
      "तस्": 2293,
      "वक्त": 2294,
      "##माल": 2295,
      "तेमाल": 2296,
      "19": 2297,
      "सदर": 2298,
      "ीत": 2299,
      "##an": 2300,
      "्रेस": 2301,
      "मैदान": 2302,
      "रिकेट": 2303,
      "्रपति": 2304,
      "रहते": 2305,
      "##शु": 2306,
      "ड्ड": 2307,
      "वृ": 2308,
      "शिक्ष": 2309,
      "##लों": 2310,
      "ेक्टर": 2311,
      "आख": 2312,
      "हमने": 2313,
      "ाता": 2314,
      "्रधान": 2315,
      "ॉलो": 2316,
      "बेच": 2317,
      "तत्": 2318,
      "कानून": 2319,
      "ीएम": 2320,
      "बाबा": 2321,
      "कहीं": 2322,
      "रहेगा": 2323,
      "वक्": 2324,
      "##सत": 2325,
      "काट": 2326,
      "्रकार": 2327,
      "फाइन": 2328,
      "चंद": 2329,
      "उच": 2330,
      "ऊपर": 2331,
      "िन्": 2332,
      "पौ": 2333,
      "ेम": 2334,
      "हालत": 2335,
      "कॉर्ड": 2336,
      "ाथम": 2337,
      "##ोक": 2338,
      "##ल्क": 2339,
      "दास": 2340,
      "लक्ष": 2341,
      "ेय": 2342,
      "ाड़ी": 2343,
      "##हाल": 2344,
      "िलहाल": 2345,
      "खोल": 2346,
      "ेना": 2347,
      "वित्त": 2348,
      "तीनों": 2349,
      "सैन": 2350,
      "##चीत": 2351,
      "ातचीत": 2352,
      "गृ": 2353,
      "गृह": 2354,
      "दश": 2355,
      "बोले": 2356,
      "खराब": 2357,
      "ारखंड": 2358,
      "परिसर": 2359,
      "ेस": 2360,
      "वश्यक": 2361,
      "नया": 2362,
      "रिज": 2363,
      "वायरल": 2364,
      "ाथमिक": 2365,
      "बनने": 2366,
      "ठीक": 2367,
      "क्ल": 2368,
      "पत्ति": 2369,
      "पार्क": 2370,
      "गंगा": 2371,
      "##बी": 2372,
      "जमा": 2373,
      "जरूरत": 2374,
      "रं": 2375,
      "शंकर": 2376,
      "िट": 2377,
      "ne": 2378,
      "ॉल": 2379,
      "सुनी": 2380,
      "रोज": 2381,
      "मेरी": 2382,
      "विचार": 2383,
      "बहन": 2384,
      "खुल": 2385,
      "थानों": 2386,
      "खत्म": 2387,
      "िटी": 2388,
      "ावत": 2389,
      "सेंटर": 2390,
      "काली": 2391,
      "टि": 2392,
      "कराई": 2393,
      "ुनवाई": 2394,
      "ठबंध": 2395,
      "यही": 2396,
      "ठबंधन": 2397,
      "घोषित": 2398,
      "##टक": 2399,
      "निजी": 2400,
      "स्टूड": 2401,
      "भीड़": 2402,
      "सेक्": 2403,
      "हिस्": 2404,
      "##प्": 2405,
      "वें": 2406,
      "िंदर": 2407,
      "म्मान": 2408,
      "मनी": 2409,
      "हन": 2410,
      "पांड": 2411,
      "राउ": 2412,
      "म्मीद": 2413,
      "##ar": 2414,
      "लखनऊ": 2415,
      "ुट": 2416,
      "##षि": 2417,
      "जवान": 2418,
      "लूट": 2419,
      "त्व": 2420,
      "आपके": 2421,
      "लव": 2422,
      "स्ल": 2423,
      "सात": 2424,
      "ागरिक": 2425,
      "पहला": 2426,
      "याच": 2427,
      "ाइव": 2428,
      "ायल": 2429,
      "होटल": 2430,
      "##स्था": 2431,
      "जिन्ह": 2432,
      "रानी": 2433,
      "ूं": 2434,
      "न्ना": 2435,
      "िलकर": 2436,
      "चीन": 2437,
      "##तिम": 2438,
      "ोट": 2439,
      "उठा": 2440,
      "जोर": 2441,
      "सागर": 2442,
      "रेड": 2443,
      "द्योग": 2444,
      "वेद": 2445,
      "अंतिम": 2446,
      "बाग": 2447,
      "वास": 2448,
      "अंतर्": 2449,
      "मजबूत": 2450,
      "परिषद": 2451,
      "कृत": 2452,
      "ाओं": 2453,
      "कॉन्": 2454,
      "सफाई": 2455,
      "बंग": 2456,
      "िश्न": 2457,
      "ड़ा": 2458,
      "रोहित": 2459,
      "26": 2460,
      "मित": 2461,
      "लु": 2462,
      "वाने": 2463,
      "ात्र": 2464,
      "ोत्": 2465,
      "कॉल": 2466,
      "प्रेम": 2467,
      "##ेटी": 2468,
      "कमेटी": 2469,
      "्रवेश": 2470,
      "रखी": 2471,
      "भिष": 2472,
      "हमारी": 2473,
      "कमी": 2474,
      "पाया": 2475,
      "उच्च": 2476,
      "हे": 2477,
      "तभी": 2478,
      "ौर": 2479,
      "देना": 2480,
      "क़": 2481,
      "रोब": 2482,
      "ल्या": 2483,
      "जरिए": 2484,
      "भिषेक": 2485,
      "एंड": 2486,
      "ोली": 2487,
      "र्षी": 2488,
      "थिय": 2489,
      "िक्षक": 2490,
      "सिद्ध": 2491,
      "र्षीय": 2492,
      "धमकी": 2493,
      "रक्षण": 2494,
      "आं": 2495,
      "ीक": 2496,
      "उतर": 2497,
      "लगाई": 2498,
      "हिंदू": 2499,
      "यूनि": 2500,
      "##ानक": 2501,
      "नाल": 2502,
      "चिक": 2503,
      "क्ष्य": 2504,
      "कब": 2505,
      "सही": 2506,
      "##ालत": 2507,
      "स्ताव": 2508,
      "अचानक": 2509,
      "महारा": 2510,
      "अदालत": 2511,
      "ोय": 2512,
      "करवा": 2513,
      "साब": 2514,
      "रिष्ठ": 2515,
      "अग्रव": 2516,
      "क्षि": 2517,
      "पाठ": 2518,
      "चिकित": 2519,
      "ालू": 2520,
      "भूमि": 2521,
      "जोड़": 2522,
      "100": 2523,
      "मर्थन": 2524,
      "आते": 2525,
      "लाग": 2526,
      "ारदात": 2527,
      "लित": 2528,
      "फल": 2529,
      "चाहते": 2530,
      "अश": 2531,
      "ॉलोनी": 2532,
      "ोल": 2533,
      "उसी": 2534,
      "ीक्षण": 2535,
      "23": 2536,
      "कारी": 2537,
      "क्षण": 2538,
      "स्तुत": 2539,
      "कूल": 2540,
      "सपा": 2541,
      "निवेश": 2542,
      "अशोक": 2543,
      "अंक": 2544,
      "उम्र": 2545,
      "जाति": 2546,
      "ावजूद": 2547,
      "इंत": 2548,
      "ायब": 2549,
      "लागू": 2550,
      "ूस": 2551,
      "ेंडर": 2552,
      "गौ": 2553,
      "ैम": 2554,
      "प्रिय": 2555,
      "त्त": 2556,
      "ल्याण": 2557,
      "यर": 2558,
      "ल्ट": 2559,
      "धारित": 2560,
      "आन": 2561,
      "##जों": 2562,
      "उनसे": 2563,
      "लैंड": 2564,
      "केज": 2565,
      "पटेल": 2566,
      "शांति": 2567,
      "न्न": 2568,
      "कौन": 2569,
      "टूट": 2570,
      "सहा": 2571,
      "ाराय": 2572,
      "याचिक": 2573,
      "गेंद": 2574,
      "नौकर": 2575,
      "कही": 2576,
      "शिक": 2577,
      "दम": 2578,
      "ारायण": 2579,
      "शक्ति": 2580,
      "बदलाव": 2581,
      "तुर": 2582,
      "्ष": 2583,
      "थियार": 2584,
      "##दाय": 2585,
      "बांध": 2586,
      "मजद": 2587,
      "छोटे": 2588,
      "सिव": 2589,
      "योगित": 2590,
      "रूम": 2591,
      "ग्": 2592,
      "##र्ष": 2593,
      "रिक्त": 2594,
      "भावित": 2595,
      "##ील": 2596,
      "वर्मा": 2597,
      "श्चित": 2598,
      "वक्ता": 2599,
      "लान": 2600,
      "ित्र": 2601,
      "र्ट": 2602,
      "बनाकर": 2603,
      "जरू": 2604,
      "##पन": 2605,
      "त्रि": 2606,
      "षित": 2607,
      "ारे": 2608,
      "रुक": 2609,
      "ंदन": 2610,
      "सजा": 2611,
      "शेख": 2612,
      "डिज": 2613,
      "राउंड": 2614,
      "दिखाई": 2615,
      "ास्ते": 2616,
      "सहाय": 2617,
      "सां": 2618,
      "ुकसान": 2619,
      "विदेश": 2620,
      "र्क": 2621,
      "स्टार": 2622,
      "ाइज": 2623,
      "तिहा": 2624,
      "ऑफिस": 2625,
      "##चन": 2626,
      "रहता": 2627,
      "रोबार": 2628,
      "जरूरी": 2629,
      "सत्": 2630,
      "किस": 2631,
      "दिग्": 2632,
      "टाल": 2633,
      "मारी": 2634,
      "##ुप": 2635,
      "नो": 2636,
      "बंधन": 2637,
      "ांकन": 2638,
      "बंगाल": 2639,
      "उससे": 2640,
      "अजय": 2641,
      "आवास": 2642,
      "तने": 2643,
      "उपयोग": 2644,
      "न्य": 2645,
      "स्म": 2646,
      "पीड़ित": 2647,
      "पाई": 2648,
      "हॉस्प": 2649,
      "28": 2650,
      "ैक": 2651,
      "हिस्स": 2652,
      "िफ्ट": 2653,
      "मजदूर": 2654,
      "असर": 2655,
      "चित": 2656,
      "्त्र": 2657,
      "बनाई": 2658,
      "करेगी": 2659,
      "ेस्ट": 2660,
      "सकें": 2661,
      "ाइन": 2662,
      "तिहास": 2663,
      "गोल": 2664,
      "फैल": 2665,
      "आउ": 2666,
      "किश": 2667,
      "क्ति": 2668,
      "आउट": 2669,
      "आत्म": 2670,
      "हवा": 2671,
      "ष्ट्र": 2672,
      "आत": 2673,
      "राहत": 2674,
      "ीकरण": 2675,
      "्म": 2676,
      "िज": 2677,
      "ग्रुप": 2678,
      "##सद": 2679,
      "डिप": 2680,
      "कर्मी": 2681,
      "लक्ष्": 2682,
      "अज": 2683,
      "क्क": 2684,
      "युवती": 2685,
      "ाला": 2686,
      "ोत": 2687,
      "्रदान": 2688,
      "तरीके": 2689,
      "इक": 2690,
      "प्शन": 2691,
      "31": 2692,
      "िश्रा": 2693,
      "##खिल": 2694,
      "प्त": 2695,
      "ुर्": 2696,
      "लगने": 2697,
      "योध्य": 2698,
      "इंतजा": 2699,
      "क्रिय": 2700,
      "जब्त": 2701,
      "राइवर": 2702,
      "क्षिण": 2703,
      "ीवी": 2704,
      "रंप": 2705,
      "सीसीट": 2706,
      "ूमिका": 2707,
      "27": 2708,
      "चय": 2709,
      "्यु": 2710,
      "कॉम": 2711,
      "धू": 2712,
      "लंब": 2713,
      "चोट": 2714,
      "चेक": 2715,
      "ेल्": 2716,
      "डीए": 2717,
      "जिनक": 2718,
      "सुख": 2719,
      "किशोर": 2720,
      "ताला": 2721,
      "ट्रां": 2722,
      "शील": 2723,
      "नम": 2724,
      "वान": 2725,
      "ाण": 2726,
      "##रात": 2727,
      "ra": 2728,
      "एजेंस": 2729,
      "र्डर": 2730,
      "##ीज": 2731,
      "्वागत": 2732,
      "आनंद": 2733,
      "कड़ी": 2734,
      "च्छ": 2735,
      "##धर": 2736,
      "घुस": 2737,
      "रिलीज": 2738,
      "तुरंत": 2739,
      "इतना": 2740,
      "रजि": 2741,
      "वॉ": 2742,
      "हमले": 2743,
      "यम": 2744,
      "##सील": 2745,
      "तहसील": 2746,
      "ाहनों": 2747,
      "कपूर": 2748,
      "रजिस्": 2749,
      "खर्च": 2750,
      "##िग": 2751,
      "बजट": 2752,
      "ैया": 2753,
      "्रचार": 2754,
      "णय": 2755,
      "लर": 2756,
      "श्म": 2757,
      "ेरा": 2758,
      "दिशा": 2759,
      "वर्क": 2760,
      "ॉर्ट": 2761,
      "्रता": 2762,
      "दोष": 2763,
      "इंट": 2764,
      "लगाकर": 2765,
      "नौकरी": 2766,
      "िंक": 2767,
      "राग": 2768,
      "प्प": 2769,
      "बीमार": 2770,
      "नला": 2771,
      "खिलाड": 2772,
      "सलमान": 2773,
      "मुख": 2774,
      "मिशन": 2775,
      "अमर": 2776,
      "फरवरी": 2777,
      "र्य": 2778,
      "उपा": 2779,
      "णी": 2780,
      "ुआ": 2781,
      "ालिका": 2782,
      "मेरा": 2783,
      "शांत": 2784,
      "ुज": 2785,
      "उपाध": 2786,
      "धाल": 2787,
      "संसद": 2788,
      "राजेश": 2789,
      "कृषि": 2790,
      "बालिग": 2791,
      "मुद्द": 2792,
      "बीते": 2793,
      "लगता": 2794,
      "नलाइन": 2795,
      "राध": 2796,
      "रेट": 2797,
      "ैंड": 2798,
      "तेल": 2799,
      "तेजी": 2800,
      "सूर्य": 2801,
      "ंध": 2802,
      "काउ": 2803,
      "हाउ": 2804,
      "आवाज": 2805,
      "घरों": 2806,
      "चांद": 2807,
      "हनु": 2808,
      "छत्त": 2809,
      "कदम": 2810,
      "लेते": 2811,
      "ठाक": 2812,
      "गर": 2813,
      "वर": 2814,
      "सीटें": 2815,
      "हाउस": 2816,
      "र्थिक": 2817,
      "सिविल": 2818,
      "यदि": 2819,
      "ीश": 2820,
      "ज्ञात": 2821,
      "बीर": 2822,
      "इलेक्": 2823,
      "##ीर": 2824,
      "दीपक": 2825,
      "नोटिस": 2826,
      "ेला": 2827,
      "बताते": 2828,
      "फीसदी": 2829,
      "छह": 2830,
      "फाय": 2831,
      "ास्त": 2832,
      "ायक": 2833,
      "पॉ": 2834,
      "##र्क": 2835,
      "रहेगी": 2836,
      "फंस": 2837,
      "ोक": 2838,
      "ारं": 2839,
      "पौध": 2840,
      "मालिक": 2841,
      "लाका": 2842,
      "्यास": 2843,
      "ास्कर": 2844,
      "ंस्था": 2845,
      "लेख": 2846,
      "क्यू": 2847,
      "श्या": 2848,
      "कमल": 2849,
      "जमकर": 2850,
      "ारंभ": 2851,
      "श्याम": 2852,
      "नेट": 2853,
      "विषय": 2854,
      "अर्": 2855,
      "मू": 2856,
      "लाकात": 2857,
      "शाला": 2858,
      "सेव": 2859,
      "##ताह": 2860,
      "एक्ट": 2861,
      "बेटा": 2862,
      "ाठ": 2863,
      "चले": 2864,
      "भजन": 2865,
      "हाय": 2866,
      "आयु": 2867,
      "प्ताह": 2868,
      "धालु": 2869,
      "आइ": 2870,
      "सीध": 2871,
      "मैन": 2872,
      "तस्कर": 2873,
      "धाम": 2874,
      "नाराज": 2875,
      "##गढ़": 2876,
      "##ोध": 2877,
      "करेगा": 2878,
      "ीसगढ़": 2879,
      "कला": 2880,
      "जू": 2881,
      "जेक्ट": 2882,
      "गैंग": 2883,
      "डर": 2884,
      "ण्ड": 2885,
      "सला": 2886,
      "ोप": 2887,
      "##गार": 2888,
      "विज": 2889,
      "ोजगार": 2890,
      "विष्य": 2891,
      "मण": 2892,
      "ईडी": 2893,
      "उतार": 2894,
      "लें": 2895,
      "हनुम": 2896,
      "सफर": 2897,
      "खाल": 2898,
      "देह": 2899,
      "िरासत": 2900,
      "डायर": 2901,
      "वती": 2902,
      "संब": 2903,
      "सामना": 2904,
      "मनोज": 2905,
      "टा": 2906,
      "िस्टम": 2907,
      "चौरा": 2908,
      "मोहम": 2909,
      "ब्द": 2910,
      "मोहम्": 2911,
      "सहायक": 2912,
      "ेली": 2913,
      "पचार": 2914,
      "ेव": 2915,
      "लाश": 2916,
      "पीट": 2917,
      "ूत": 2918,
      "ेरी": 2919,
      "ठाकुर": 2920,
      "आव": 2921,
      "##ra": 2922,
      "रहती": 2923,
      "अपील": 2924,
      "फर्जी": 2925,
      "बचा": 2926,
      "जुड़े": 2927,
      "्रताप": 2928,
      "संबोध": 2929,
      "दूसरा": 2930,
      "रेप": 2931,
      "हरि": 2932,
      "पालन": 2933,
      "मंच": 2934,
      "यूज": 2935,
      "ड़े": 2936,
      "नत": 2937,
      "हाज": 2938,
      "हल": 2939,
      "खुलास": 2940,
      "दयपुर": 2941,
      "एग्": 2942,
      "सीरीज": 2943,
      "श्रम": 2944,
      "आतंक": 2945,
      "जिसकी": 2946,
      "मिट": 2947,
      "29": 2948,
      "हरी": 2949,
      "ियम": 2950,
      "हाराज": 2951,
      "ेग": 2952,
      "##ूक": 2953,
      "हिम": 2954,
      "नार": 2955,
      "इन्ह": 2956,
      "ोत्सव": 2957,
      "राठ": 2958,
      "ंचालन": 2959,
      "सरा": 2960,
      "सुधार": 2961,
      "राजा": 2962,
      "अनिल": 2963,
      "वां": 2964,
      "मतदात": 2965,
      "साहू": 2966,
      "ंजाम": 2967,
      "तवाल": 2968,
      "देशों": 2969,
      "टेन": 2970,
      "काउंट": 2971,
      "लाकों": 2972,
      "खड़े": 2973,
      "सुनील": 2974,
      "गरी": 2975,
      "ोर्स": 2976,
      "राइल": 2977,
      "रिश": 2978,
      "ार्षद": 2979,
      "चली": 2980,
      "टक": 2981,
      "सत्र": 2982,
      "विवाह": 2983,
      "रमा": 2984,
      "्लो": 2985,
      "ंपर्क": 2986,
      "चौराह": 2987,
      "देंगे": 2988,
      "स्लिम": 2989,
      "फार": 2990,
      "व्र": 2991,
      "मिलते": 2992,
      "ंदोल": 2993,
      "स्वीर": 2994,
      "िद": 2995,
      "तंत्र": 2996,
      "##ञा": 2997,
      "अच्छी": 2998,
      "योगी": 2999,
      "कंपनि": 3000,
      "पेट्": 3001,
      "छु": 3002,
      "नाई": 3003,
      "वर्तम": 3004,
      "फाइनल": 3005,
      "र्ग": 3006,
      "ाइड": 3007,
      "बच्ची": 3008,
      "तवाली": 3009,
      "##साह": 3010,
      "त्साह": 3011,
      "ामलों": 3012,
      "लेट": 3013,
      "##ांस": 3014,
      "ांत": 3015,
      "चना": 3016,
      "लपुर": 3017,
      "मेह": 3018,
      "जैसी": 3019,
      "मंडी": 3020,
      "रज": 3021,
      "िहार": 3022,
      "बैठे": 3023,
      "जंगल": 3024,
      "स्टा": 3025,
      "पोल": 3026,
      "एक्ट्": 3027,
      "##on": 3028,
      "##ौत": 3029,
      "नाग": 3030,
      "##ेशल": 3031,
      "तिथि": 3032,
      "्पेशल": 3033,
      "चुनौत": 3034,
      "पर्व": 3035,
      "शान": 3036,
      "र्सि": 3037,
      "सोच": 3038,
      "पैर": 3039,
      "ग्न": 3040,
      "कृति": 3041,
      "अच्छा": 3042,
      "नक्": 3043,
      "फसल": 3044,
      "सख": 3045,
      "बाज": 3046,
      "पहन": 3047,
      "ेरि": 3048,
      "ंदोलन": 3049,
      "मगर": 3050,
      "##तीश": 3051,
      "नीतीश": 3052,
      "रांच": 3053,
      "##यों": 3054,
      "भु": 3055,
      "सेल": 3056,
      "ाएं": 3057,
      "चर": 3058,
      "सोने": 3059,
      "आद": 3060,
      "ीरे": 3061,
      "्राइ": 3062,
      "दित्य": 3063,
      "ामाजि": 3064,
      "फ्र": 3065,
      "##ुष": 3066,
      "डीसी": 3067,
      "श्किल": 3068,
      "सुरक्": 3069,
      "sh": 3070,
      "गति": 3071,
      "्रेड": 3072,
      "केजरी": 3073,
      "ुद्द": 3074,
      "यात": 3075,
      "इंज": 3076,
      "िला": 3077,
      "क्व": 3078,
      "र्प": 3079,
      "सालों": 3080,
      "ांसी": 3081,
      "ड़त": 3082,
      "यून": 3083,
      "पंच": 3084,
      "##पाद": 3085,
      "देखकर": 3086,
      "मोह": 3087,
      "त्पाद": 3088,
      "टॉप": 3089,
      "चढ़": 3090,
      "्ञा": 3091,
      "अलर्ट": 3092,
      "्ञापन": 3093,
      "जार": 3094,
      "मल": 3095,
      "पहल": 3096,
      "मौका": 3097,
      "लका": 3098,
      "पुरी": 3099,
      "माय": 3100,
      "चलने": 3101,
      "स्तार": 3102,
      "्वामी": 3103,
      "सत्ता": 3104,
      "तिक": 3105,
      "दबा": 3106,
      "कीय": 3107,
      "अतिथि": 3108,
      "थापित": 3109,
      "गज": 3110,
      "िनी": 3111,
      "ुजरात": 3112,
      "खो": 3113,
      "ल्ड": 3114,
      "##टो": 3115,
      "शिविर": 3116,
      "साइबर": 3117,
      "मरीज": 3118,
      "हेम": 3119,
      "ावर": 3120,
      "व्रत": 3121,
      "ाटा": 3122,
      "ेख": 3123,
      "्रो": 3124,
      "तिविध": 3125,
      "मीणा": 3126,
      "एक्टर": 3127,
      "रैली": 3128,
      "उड़": 3129,
      "िवारी": 3130,
      "िदेशक": 3131,
      "60": 3132,
      "गणेश": 3133,
      "ंचालक": 3134,
      "आईटी": 3135,
      "्पष्ट": 3136,
      "सर्वे": 3137,
      "कूलों": 3138,
      "ीएस": 3139,
      "##ॉक": 3140,
      "धिकतम": 3141,
      "ंदा": 3142,
      "इधर": 3143,
      "द्ध": 3144,
      "तू": 3145,
      "मैने": 3146,
      "सूत्र": 3147,
      "कैंप": 3148,
      "छाप": 3149,
      "ऑटो": 3150,
      "गन": 3151,
      "टर्": 3152,
      "ाले": 3153,
      "ैर": 3154,
      "वृद्ध": 3155,
      "35": 3156,
      "क्स": 3157,
      "फॉर्म": 3158,
      "ठंड": 3159,
      "नू": 3160,
      "भ्य": 3161,
      "ाट": 3162,
      "ुनाव": 3163,
      "ॉक": 3164,
      "सीता": 3165,
      "श्वास": 3166,
      "दस्": 3167,
      "ाढ़": 3168,
      "वितर": 3169,
      "मुकेश": 3170,
      "नाटक": 3171,
      "बिग": 3172,
      "ुनावी": 3173,
      "हमेश": 3174,
      "प्लान": 3175,
      "खाली": 3176,
      "एप": 3177,
      "टोल": 3178,
      "##da": 3179,
      "बढ़ा": 3180,
      "मनाया": 3181,
      "गईं": 3182,
      "पाए": 3183,
      "पुरुष": 3184,
      "हमेशा": 3185,
      "आकर": 3186,
      "एशन": 3187,
      "ोटी": 3188,
      "##er": 3189,
      "उसमें": 3190,
      "अमृत": 3191,
      "रने": 3192,
      "युद्ध": 3193,
      "अंग": 3194,
      "गड़": 3195,
      "एसड": 3196,
      "श्रे": 3197,
      "कब्जे": 3198,
      "##नेश": 3199,
      "लू": 3200,
      "सप": 3201,
      "पूजन": 3202,
      "##ुड": 3203,
      "नेस": 3204,
      "पेपर": 3205,
      "र्सिट": 3206,
      "ुझ": 3207,
      "संविध": 3208,
      "चार्ज": 3209,
      "लिस्ट": 3210,
      "देता": 3211,
      "ार्टम": 3212,
      "मनीष": 3213,
      "वेस्ट": 3214,
      "ाइट": 3215,
      "लीव": 3216,
      "एयरप": 3217,
      "पारी": 3218,
      "यक": 3219,
      "वत": 3220,
      "राजी": 3221,
      "मानित": 3222,
      "पन्न": 3223,
      "यूनिव": 3224,
      "पस": 3225,
      "पार्ट": 3226,
      "डो": 3227,
      "ावरण": 3228,
      "ंदे": 3229,
      "पूछा": 3230,
      "गोपाल": 3231,
      "प्लेट": 3232,
      "चयन": 3233,
      "ागरूक": 3234,
      "ईर": 3235,
      "रीजों": 3236,
      "्रभा": 3237,
      "तीसरे": 3238,
      "्रभाव": 3239,
      "घू": 3240,
      "शीर्": 3241,
      "खूब": 3242,
      "शल": 3243,
      "ोध": 3244,
      "साइड": 3245,
      "इज": 3246,
      "सन": 3247,
      "खुश": 3248,
      "मश": 3249,
      "यल": 3250,
      "ास्ट": 3251,
      "ैसा": 3252,
      "ानपुर": 3253,
      "कमरे": 3254,
      "शिप": 3255,
      "र्ल्ड": 3256,
      "िनारे": 3257,
      "ईरान": 3258,
      "re": 3259,
      "##jp": 3260,
      "ांट": 3261,
      "ुद्ध": 3262,
      "म्प": 3263,
      "वजन": 3264,
      "ावा": 3265,
      "ावधान": 3266,
      "बॉल": 3267,
      "ास्तव": 3268,
      "##्स": 3269,
      "ेंट्स": 3270,
      "चौथ": 3271,
      "##सून": 3272,
      "उनको": 3273,
      "देश्य": 3274,
      "हादसा": 3275,
      "सख्त": 3276,
      "मशी": 3277,
      "सुपर": 3278,
      "ड़ी": 3279,
      "ंत्रि": 3280,
      "मशीन": 3281,
      "नज": 3282,
      "इनक": 3283,
      "एसएस": 3284,
      "रिश्त": 3285,
      "ुला": 3286,
      "काश": 3287,
      "सेंस": 3288,
      "आठ": 3289,
      "वानी": 3290,
      "वाचन": 3291,
      "फार्म": 3292,
      "मैनेज": 3293,
      "काब": 3294,
      "विधि": 3295,
      "रूस": 3296,
      "सफलता": 3297,
      "शोध": 3298,
      "समान": 3299,
      "सुनि": 3300,
      "आरती": 3301,
      "##फर": 3302,
      "लाया": 3303,
      "ाराम": 3304,
      "बेहद": 3305,
      "डीज": 3306,
      "ाइल": 3307,
      "कथा": 3308,
      "प्रथम": 3309,
      "ेप": 3310,
      "धार्म": 3311,
      "##दीप": 3312,
      "ब्लॉक": 3313,
      "कू": 3314,
      "जिसका": 3315,
      "जिलाध": 3316,
      "तलब": 3317,
      "शरी": 3318,
      "सत्य": 3319,
      "ुम": 3320,
      "मुदाय": 3321,
      "अली": 3322,
      "परेशन": 3323,
      "चौह": 3324,
      "रवाना": 3325,
      "ीच": 3326,
      "गणना": 3327,
      "पशु": 3328,
      "जुर्": 3329,
      "प्रीत": 3330,
      "शुक्": 3331,
      "्ला": 3332,
      "ूनतम": 3333,
      "वही": 3334,
      "नाव": 3335,
      "ाच": 3336,
      "ब्ब": 3337,
      "लंबे": 3338,
      "लाम": 3339,
      "चौकी": 3340,
      "लॉन": 3341,
      "आता": 3342,
      "##नीक": 3343,
      "बाकी": 3344,
      "तकनीक": 3345,
      "मोटर": 3346,
      "संतोष": 3347,
      "जुर्ग": 3348,
      "प्रेस": 3349,
      "्रखंड": 3350,
      "म्ब": 3351,
      "पंड": 3352,
      "नुमान": 3353,
      "अवध": 3354,
      "टेक्": 3355,
      "कौर": 3356,
      "चंड": 3357,
      "हने": 3358,
      "़ी": 3359,
      "यंत्र": 3360,
      "शप": 3361,
      "कोच": 3362,
      "लाइट": 3363,
      "क्रमण": 3364,
      "भ्यर्": 3365,
      "माधान": 3366,
      "प्लाई": 3367,
      "लीवुड": 3368,
      "पाट": 3369,
      "पैसा": 3370,
      "गाय": 3371,
      "द्र": 3372,
      "दीक": 3373,
      "ानसून": 3374,
      "एसो": 3375,
      "फीट": 3376,
      "िपक्ष": 3377,
      "आदमी": 3378,
      "शरीर": 3379,
      "ग्व": 3380,
      "िस्ट": 3381,
      "र्पित": 3382,
      "ग्वाल": 3383,
      "हित": 3384,
      "##ंता": 3385,
      "जनप": 3386,
      "चौहान": 3387,
      "दह": 3388,
      "इनके": 3389,
      "राकेश": 3390,
      "कहानी": 3391,
      "आखि": 3392,
      "आसान": 3393,
      "मिस": 3394,
      "संदी": 3395,
      "उज": 3396,
      "ीने": 3397,
      "आखिरी": 3398,
      "ोभ": 3399,
      "##al": 3400,
      "बताई": 3401,
      "संदीप": 3402,
      "एसोसि": 3403,
      "bjp": 3404,
      "गार्ड": 3405,
      "कृतिक": 3406,
      "हरण": 3407,
      "मारने": 3408,
      "चिंता": 3409,
      "दब": 3410,
      "प्य": 3411,
      "़ियों": 3412,
      "ोई": 3413,
      "रखे": 3414,
      "##णाम": 3415,
      "रिणाम": 3416,
      "सीजन": 3417,
      "गुजर": 3418,
      "दाखिल": 3419,
      "ाकू": 3420,
      "इमेज": 3421,
      "भाषा": 3422,
      "जता": 3423,
      "जमान": 3424,
      "वकी": 3425,
      "एसआई": 3426,
      "ाठी": 3427,
      "जोन": 3428,
      "मार्ट": 3429,
      "र्षों": 3430,
      "इतनी": 3431,
      "ाइवेट": 3432,
      "लाने": 3433,
      "हता": 3434,
      "साय": 3435,
      "र्ण": 3436,
      "इंडस्": 3437,
      "मानव": 3438,
      "सूर": 3439,
      "ेक्स": 3440,
      "ख्": 3441,
      "ैन": 3442,
      "ापुर": 3443,
      "टेक": 3444,
      "टरी": 3445,
      "##ct": 3446,
      "गैर": 3447,
      "नवी": 3448,
      "साझ": 3449,
      "ानंद": 3450,
      "स्टाफ": 3451,
      "पसंद": 3452,
      "खाना": 3453,
      "नश": 3454,
      "प्रेर": 3455,
      "निश": 3456,
      "80": 3457,
      "धानी": 3458,
      "कालीन": 3459,
      "िश्नर": 3460,
      "योजक": 3461,
      "कहां": 3462,
      "द्वि": 3463,
      "##बाज": 3464,
      "ासन": 3465,
      "हेड": 3466,
      "##ौल": 3467,
      "लाह": 3468,
      "रुख": 3469,
      "वकील": 3470,
      "नने": 3471,
      "िंट": 3472,
      "सेना": 3473,
      "इंस्ट": 3474,
      "सिय": 3475,
      "बादल": 3476,
      "फु": 3477,
      "शुल्क": 3478,
      "ुलाया": 3479,
      "शुक्ल": 3480,
      "ाती": 3481,
      "ुरी": 3482,
      "लॉन्च": 3483,
      "70": 3484,
      "चोर": 3485,
      "र्जी": 3486,
      "मान्य": 3487,
      "रॉ": 3488,
      "रच": 3489,
      "रविंद": 3490,
      "ाउंड": 3491,
      "ट्रैफ": 3492,
      "अहमद": 3493,
      "शपथ": 3494,
      "एससी": 3495,
      "सूची": 3496,
      "प्यार": 3497,
      "रान": 3498,
      "श्न": 3499,
      "##ामी": 3500,
      "मिलता": 3501,
      "new": 3502,
      "त्ती": 3503,
      "मॉड": 3504,
      "घो": 3505,
      "ोस": 3506,
      "बीआई": 3507,
      "पीठ": 3508,
      "हायता": 3509,
      "खाने": 3510,
      "जम्म": 3511,
      "पथ": 3512,
      "##at": 3513,
      "भावना": 3514,
      "सेंट": 3515,
      "रोकने": 3516,
      "ोन": 3517,
      "अरु": 3518,
      "डिप्ट": 3519,
      "जम्मू": 3520,
      "किमी": 3521,
      "फायदा": 3522,
      "दबाव": 3523,
      "ंथ": 3524,
      "माहौल": 3525,
      "ेंगी": 3526,
      "रफ्": 3527,
      "शूट": 3528,
      "प्रशि": 3529,
      "साथी": 3530,
      "ामी": 3531,
      "ीकृत": 3532,
      "गली": 3533,
      "##ूह": 3534,
      "सोनी": 3535,
      "चेयर": 3536,
      "अरुण": 3537,
      "तान": 3538,
      "ल्ह": 3539,
      "दिवास": 3540,
      "जमानत": 3541,
      "उक्त": 3542,
      "ड्य": 3543,
      "समूह": 3544,
      "िकल": 3545,
      "साइट": 3546,
      "##मता": 3547,
      "क्सर": 3548,
      "र्श": 3549,
      "रेलिय": 3550,
      "ड्यूट": 3551,
      "कक्षा": 3552,
      "चू": 3553,
      "ड़क": 3554,
      "टैक्स": 3555,
      "गरीब": 3556,
      "पारा": 3557,
      "गोद": 3558,
      "रक": 3559,
      "ल्यू": 3560,
      "##मति": 3561,
      "निग": 3562,
      "नुमति": 3563,
      "नस": 3564,
      "फ्ट": 3565,
      "ीआई": 3566,
      "क्त": 3567,
      "ाइकिल": 3568,
      "फैक्": 3569,
      "ाउंस": 3570,
      "्षमता": 3571,
      "ंगा": 3572,
      "रथ": 3573,
      "##लर": 3574,
      "सैनी": 3575,
      "्क": 3576,
      "बचाने": 3577,
      "प्तान": 3578,
      "एडव": 3579,
      "जॉ": 3580,
      "ाभ": 3581,
      "ीजी": 3582,
      "दीवा": 3583,
      "वेल": 3584,
      "ंगल": 3585,
      "ुर्गा": 3586,
      "अंब": 3587,
      "जानते": 3588,
      "चालित": 3589,
      "मध्यप": 3590,
      "्रिंस": 3591,
      "##ैन": 3592,
      "लोड": 3593,
      "ाइप": 3594,
      "जिद": 3595,
      "संभाल": 3596,
      "िये": 3597,
      "थानाध": 3598,
      "दिव्य": 3599,
      "दृ": 3600,
      "ुरा": 3601,
      "पड़े": 3602,
      "र्भ": 3603,
      "##ष्प": 3604,
      "तरा": 3605,
      "नर्": 3606,
      "ोयल": 3607,
      "घूम": 3608,
      "काबले": 3609,
      "सियस": 3610,
      "वस": 3611,
      "##नेट": 3612,
      "लापर": 3613,
      "द्द": 3614,
      "200": 3615,
      "ट्टी": 3616,
      "उज्ज": 3617,
      "लापरव": 3618,
      "मंजू": 3619,
      "्त्री": 3620,
      "खर": 3621,
      "कांत": 3622,
      "विवे": 3623,
      "तावे": 3624,
      "ाउन": 3625,
      "धो": 3626,
      "वेब": 3627,
      "डिस्": 3628,
      "बहु": 3629,
      "ापन": 3630,
      "टका": 3631,
      "डूब": 3632,
      "ीरा": 3633,
      "##दमा": 3634,
      "कोर": 3635,
      "रेफर": 3636,
      "ुकदमा": 3637,
      "ॉर्टम": 3638,
      "ीह": 3639,
      "ूर": 3640,
      "्ती": 3641,
      "##ir": 3642,
      "##पंच": 3643,
      "सेन": 3644,
      "देग": 3645,
      "निभ": 3646,
      "बारा": 3647,
      "सरपंच": 3648,
      "तारीख": 3649,
      "ाब": 3650,
      "ेमी": 3651,
      "माप्त": 3652,
      "एफआई": 3653,
      "करनी": 3654,
      "सेट": 3655,
      "नील": 3656,
      "फैसले": 3657,
      "सार्": 3658,
      "स्टेट": 3659,
      "हिं": 3660,
      "बूथ": 3661,
      "इंडि": 3662,
      "त्मक": 3663,
      "तावेज": 3664,
      "कने": 3665,
      "ाफ": 3666,
      "ेवर": 3667,
      "्सा": 3668,
      "क्की": 3669,
      "आस": 3670,
      "फि": 3671,
      "ीपुर": 3672,
      "र्जर": 3673,
      "वादी": 3674,
      "ज्ज": 3675,
      "बरस": 3676,
      "र्जु": 3677,
      "जताई": 3678,
      "लीग": 3679,
      "एक्शन": 3680,
      "ाएंगे": 3681,
      "नियु": 3682,
      "कव": 3683,
      "ियन": 3684,
      "पलट": 3685,
      "ॉट": 3686,
      "बीसी": 3687,
      "रखते": 3688,
      "बेस": 3689,
      "त्ता": 3690,
      "र्जुन": 3691,
      "ांच": 3692,
      "ाजी": 3693,
      "##di": 3694,
      "ानें": 3695,
      "हेल्": 3696,
      "चंडी": 3697,
      "ऑस्ट": 3698,
      "रास्त": 3699,
      "लाई": 3700,
      "रेस्": 3701,
      "नाड": 3702,
      "्ट्र": 3703,
      "चांदी": 3704,
      "मॉडल": 3705,
      "45": 3706,
      "करवाई": 3707,
      "श्त": 3708,
      "ागत": 3709,
      "गौरव": 3710,
      "राजीव": 3711,
      "news": 3712,
      "कस्": 3713,
      "घट": 3714,
      "रभ": 3715,
      "कुश": 3716,
      "पावर": 3717,
      "डीएम": 3718,
      "ोहल्ल": 3719,
      "अरब": 3720,
      "मोर्च": 3721,
      "ठेक": 3722,
      "अश्": 3723,
      "जाल": 3724,
      "नर्स": 3725,
      "ुंड": 3726,
      "दस": 3727,
      "दैन": 3728,
      "हंग": 3729,
      "िलास": 3730,
      "तुलन": 3731,
      "सकेंग": 3732,
      "रकार": 3733,
      "##वट": 3734,
      "हमारा": 3735,
      "िरावट": 3736,
      "र्च": 3737,
      "पुरस्": 3738,
      "लील": 3739,
      "ुराने": 3740,
      "टाइम": 3741,
      "फें": 3742,
      "भरा": 3743,
      "्रति": 3744,
      "माइ": 3745,
      "ारण": 3746,
      "स्टोर": 3747,
      "त्येक": 3748,
      "लकाता": 3749,
      "दैनिक": 3750,
      "दाम": 3751,
      "नकर": 3752,
      "सर्च": 3753,
      "थापना": 3754,
      "फेंक": 3755,
      "मास": 3756,
      "ट्रॉ": 3757,
      "ंडर": 3758,
      "्तीफ": 3759,
      "रग": 3760,
      "्रदीप": 3761,
      "मर": 3762,
      "क्लास": 3763,
      "रमेश": 3764,
      "ूद": 3765,
      "कारा": 3766,
      "मुक्त": 3767,
      "ल्प": 3768,
      "सलाह": 3769,
      "संभव": 3770,
      "शिकार": 3771,
      "मणि": 3772,
      "वसूल": 3773,
      "माने": 3774,
      "यान": 3775,
      "िब": 3776,
      "ठगी": 3777,
      "रबा": 3778,
      "िंड": 3779,
      "करियर": 3780,
      "्याप": 3781,
      "क्कत": 3782,
      "यमित": 3783,
      "ंभ": 3784,
      "होनी": 3785,
      "गाड़": 3786,
      "कर्ष": 3787,
      "आगामी": 3788,
      "छठ": 3789,
      "शर": 3790,
      "ूल": 3791,
      "ॉक्स": 3792,
      "गोर": 3793,
      "विशाल": 3794,
      "हिंसा": 3795,
      "उल्": 3796,
      "ॉप": 3797,
      "प्रद": 3798,
      "वीकार": 3799,
      "ेडिय": 3800,
      "्वच": 3801,
      "ंकी": 3802,
      "इंच": 3803,
      "वेश": 3804,
      "ीख": 3805,
      "स्ती": 3806,
      "बीएस": 3807,
      "डॉलर": 3808,
      "साबित": 3809,
      "वितरण": 3810,
      "एर": 3811,
      "्यो": 3812,
      "संदेश": 3813,
      "टायर": 3814,
      "हरे": 3815,
      "##ri": 3816,
      "मांगी": 3817,
      "रंजन": 3818,
      "उठाया": 3819,
      "नशे": 3820,
      "टिस": 3821,
      "साउ": 3822,
      "बाबू": 3823,
      "ाइस": 3824,
      "एफआईआ": 3825,
      "चंडीग": 3826,
      "ऑस्ट्": 3827,
      "ॉर्म": 3828,
      "मेलन": 3829,
      "ुटेज": 3830,
      "st": 3831,
      "##आर": 3832,
      "ट्रेट": 3833,
      "जाया": 3834,
      "तीसरी": 3835,
      "तालाब": 3836,
      "नहर": 3837,
      "पब": 3838,
      "खाते": 3839,
      "इंटरव": 3840,
      "मूल्य": 3841,
      "ion": 3842,
      "कोट": 3843,
      "पुष्प": 3844,
      "ोधपुर": 3845,
      "छत": 3846,
      "मियों": 3847,
      "शै": 3848,
      "राट": 3849,
      "क्लब": 3850,
      "आजा": 3851,
      "मीक्ष": 3852,
      "इसको": 3853,
      "एसटी": 3854,
      "्टैंड": 3855,
      "िकर": 3856,
      "ुगत": 3857,
      "बुला": 3858,
      "आती": 3859,
      "आपकी": 3860,
      "ष्ठा": 3861,
      "छापेम": 3862,
      "आजाद": 3863,
      "नवर": 3864,
      "ेन्": 3865,
      "कैद": 3866,
      "##le": 3867,
      "रोड़": 3868,
      "यूनिट": 3869,
      "cm": 3870,
      "खी": 3871,
      "मक": 3872,
      "यं": 3873,
      "िनमें": 3874,
      "अनुभ": 3875,
      "वाड़ा": 3876,
      "काबू": 3877,
      "्रमा": 3878,
      "##जीव": 3879,
      "चाहता": 3880,
      "ंघर्ष": 3881,
      "ुगतान": 3882,
      "्रमाण": 3883,
      "गठन": 3884,
      "फ्त": 3885,
      "शही": 3886,
      "ोहर": 3887,
      "क्का": 3888,
      "हालात": 3889,
      "च्चा": 3890,
      "िक्रम": 3891,
      "ग्रहण": 3892,
      "नक्सल": 3893,
      "कनेक्": 3894,
      "शहीद": 3895,
      "अर्थ": 3896,
      "वहन": 3897,
      "ावल": 3898,
      "हाईवे": 3899,
      "ोटिंग": 3900,
      "साउथ": 3901,
      "ॉलि": 3902,
      "ुद्दे": 3903,
      "ीज": 3904,
      "##णस": 3905,
      "विमान": 3906,
      "ानू": 3907,
      "बैग": 3908,
      "इंस्प": 3909,
      "िनो": 3910,
      "ाराणस": 3911,
      "डिव": 3912,
      "नाना": 3913,
      "ोफ": 3914,
      "ौली": 3915,
      "सीबी": 3916,
      "बध": 3917,
      "रद्द": 3918,
      "नती": 3919,
      "शाना": 3920,
      "श्वर": 3921,
      "दूरी": 3922,
      "ंगर": 3923,
      "भीतर": 3924,
      "दर्जन": 3925,
      "अनुभव": 3926,
      "िकस": 3927,
      "पैदा": 3928,
      "क्रि": 3929,
      "बेर": 3930,
      "ुरानी": 3931,
      "ीएच": 3932,
      "नवीन": 3933,
      "िकसित": 3934,
      "कोटा": 3935,
      "सिन": 3936,
      "ार्थी": 3937,
      "दिग्ध": 3938,
      "लभ": 3939,
      "लाना": 3940,
      "ुत": 3941,
      "ॉन्": 3942,
      "दर्द": 3943,
      "ोरों": 3944,
      "िंदा": 3945,
      "ंश": 3946,
      "टें": 3947,
      "घाटन": 3948,
      "खि": 3949,
      "ाका": 3950,
      "ुब": 3951,
      "विन": 3952,
      "लेबाज": 3953,
      "लोह": 3954,
      "अच्छे": 3955,
      "हंगाम": 3956,
      "किंग": 3957,
      "लेना": 3958,
      "##रीय": 3959,
      "सोना": 3960,
      "्तरीय": 3961,
      "राना": 3962,
      "फैंस": 3963,
      "प्राण": 3964,
      "भरो": 3965,
      "हव": 3966,
      "भीषण": 3967,
      "्रेशन": 3968,
      "्रांस": 3969,
      "रेव": 3970,
      "र्विस": 3971,
      "याज": 3972,
      "जनक": 3973,
      "गोव": 3974,
      "मर्थक": 3975,
      "ीका": 3976,
      "बुल": 3977,
      "तुर्": 3978,
      "्लांट": 3979,
      "तम": 3980,
      "मता": 3981,
      "िष्ण": 3982,
      "प्रज": 3983,
      "खुशी": 3984,
      "बंदी": 3985,
      "ामक": 3986,
      "संगीत": 3987,
      "ीरज": 3988,
      "भरोस": 3989,
      "िष्णु": 3990,
      "भक्त": 3991,
      "##्लि": 3992,
      "लाखों": 3993,
      "पब्लि": 3994,
      "भ्र": 3995,
      "र्जन": 3996,
      "ितना": 3997,
      "ेलर": 3998,
      "िन्द": 3999,
      "सराय": 4000,
      "रांची": 4001,
      "जित": 4002,
      "्च": 4003,
      "ानक": 4004,
      "रेंज": 4005,
      "ांवों": 4006,
      "ओम": 4007,
      "कश्": 4008,
      "डाय": 4009,
      "यश": 4010,
      "रोग": 4011,
      "ूंगा": 4012,
      "लाकार": 4013,
      "रेज": 4014,
      "उपाय": 4015,
      "महाप": 4016,
      "धोख": 4017,
      "कंट": 4018,
      "ma": 4019,
      "यकाल": 4020,
      "पवन": 4021,
      "ेंच": 4022,
      "सुंदर": 4023,
      "ीटिंग": 4024,
      "्यापक": 4025,
      "नंद": 4026,
      "रहीं": 4027,
      "वल": 4028,
      "हस्त": 4029,
      "फाइल": 4030,
      "मंज": 4031,
      "फ्ला": 4032,
      "vi": 4033,
      "गरा": 4034,
      "हफ": 4035,
      "मीर": 4036,
      "हटाने": 4037,
      "सैनिक": 4038,
      "ाणी": 4039,
      "ेडियम": 4040,
      "अक्ष": 4041,
      "मच": 4042,
      "ौत": 4043,
      "आश्व": 4044,
      "आंख": 4045,
      "संव": 4046,
      "कामना": 4047,
      "नतीज": 4048,
      "ip": 4049,
      "कठ": 4050,
      "राधिक": 4051,
      "ऊंच": 4052,
      "रसा": 4053,
      "हिर": 4054,
      "मुह": 4055,
      "जुर्म": 4056,
      "पढ़ाई": 4057,
      "ंपिक": 4058,
      "बजकर": 4059,
      "ैमरे": 4060,
      "सूरज": 4061,
      "्वच्छ": 4062,
      "एएस": 4063,
      "रदार": 4064,
      "ोवि": 4065,
      "लीट": 4066,
      "शहरों": 4067,
      "टिप्": 4068,
      "टेक्न": 4069,
      "िनोद": 4070,
      "गि": 4071,
      "फूल": 4072,
      "मरा": 4073,
      "बाई": 4074,
      "सबक": 4075,
      "सुरेश": 4076,
      "विवेक": 4077,
      "ंसर": 4078,
      "बम": 4079,
      "मप": 4080,
      "जात": 4081,
      "सुन": 4082,
      "आखिर": 4083,
      "तिन": 4084,
      "ोटर": 4085,
      "किशन": 4086,
      "लेश": 4087,
      "##रेन": 4088,
      "सोरेन": 4089,
      "न्यूज": 4090,
      "ोफे": 4091,
      "##ंका": 4092,
      "बिनेट": 4093,
      "गाज": 4094,
      "चाहती": 4095,
      "गैस": 4096,
      "ंकित": 4097,
      "आशंका": 4098,
      "श्मीर": 4099,
      "शानदा": 4100,
      "पंडित": 4101,
      "ाख": 4102,
      "दिनेश": 4103,
      "टीच": 4104,
      "जगद": 4105,
      "चीज": 4106,
      "कब्ज": 4107,
      "एरिया": 4108,
      "ंह": 4109,
      "नीता": 4110,
      "गोल्ड": 4111,
      "आरपी": 4112,
      "भागों": 4113,
      "जिंद": 4114,
      "बंधक": 4115,
      "ेले": 4116,
      "कां": 4117,
      "कारि": 4118,
      "गुल": 4119,
      "जयंत": 4120,
      "्राइम": 4121,
      "ड़ताल": 4122,
      "वादा": 4123,
      "स्टल": 4124,
      "पाली": 4125,
      "पदों": 4126,
      "ांज": 4127,
      "बचाव": 4128,
      "वजनिक": 4129,
      "इन्": 4130,
      "त्मा": 4131,
      "लुध": 4132,
      "ोविंद": 4133,
      "प्रव": 4134,
      "संजीव": 4135,
      "वाट": 4136,
      "पीएस": 4137,
      "बुक": 4138,
      "जगहों": 4139,
      "ल्की": 4140,
      "वर्तन": 4141,
      "खिलेश": 4142,
      "िक्री": 4143,
      "िन्हा": 4144,
      "पें": 4145,
      "ेती": 4146,
      "ियो": 4147,
      "रोशन": 4148,
      "ंत्रण": 4149,
      "ल्टी": 4150,
      "छुट्": 4151,
      "up": 4152,
      "ंशु": 4153,
      "अके": 4154,
      "ीष": 4155,
      "ौजू": 4156,
      "ितनी": 4157,
      "पत्थ": 4158,
      "रेंड": 4159,
      "निशान": 4160,
      "अकेल": 4161,
      "ौजूदा": 4162,
      "90": 4163,
      "ंजन": 4164,
      "भूषण": 4165,
      "गौतम": 4166,
      "कत": 4167,
      "ाक्ष": 4168,
      "विस्": 4169,
      "समस्त": 4170,
      "वेतन": 4171,
      "ियमों": 4172,
      "लुधिय": 4173,
      "ऐप": 4174,
      "रपुर": 4175,
      "रक्षक": 4176,
      "अनि": 4177,
      "क्रेन": 4178,
      "जानिए": 4179,
      "ाहक": 4180,
      "िताब": 4181,
      "फसर": 4182,
      "ंबी": 4183,
      "ंबित": 4184,
      "धरना": 4185,
      "ोफेसर": 4186,
      "रौ": 4187,
      "सका": 4188,
      "ृत्य": 4189,
      "ोद": 4190,
      "दरवाज": 4191,
      "चेताव": 4192,
      "सांस्": 4193,
      "टर्न": 4194,
      "फसरों": 4195,
      "sa": 4196,
      "ऊर्": 4197,
      "पंक": 4198,
      "ूठ": 4199,
      "मिलती": 4200,
      "आपका": 4201,
      "िसने": 4202,
      "गोरख": 4203,
      "ंकड़": 4204,
      "पिल": 4205,
      "पाने": 4206,
      "बद्ध": 4207,
      "ावास": 4208,
      "ाद्य": 4209,
      "्रू": 4210,
      "बादी": 4211,
      "ाइयों": 4212,
      "ांप": 4213,
      "ातक": 4214,
      "कच": 4215,
      "चलाने": 4216,
      "ंकट": 4217,
      "ोसी": 4218,
      "निया": 4219,
      "na": 4220,
      "गीत": 4221,
      "िशन": 4222,
      "##in": 4223,
      "बीन": 4224,
      "अजम": 4225,
      "32": 4226,
      "झा": 4227,
      "मति": 4228,
      "ानि": 4229,
      "ांश": 4230,
      "गना": 4231,
      "ातें": 4232,
      "हराया": 4233,
      "एट": 4234,
      "दाय": 4235,
      "्रेंस": 4236,
      "अपर": 4237,
      "चारों": 4238,
      "िदेशी": 4239,
      "pm": 4240,
      "पत": 4241,
      "ांगा": 4242,
      "काबल": 4243,
      "एमपी": 4244,
      "शाख": 4245,
      "ालि": 4246,
      "ेक्ट": 4247,
      "ग्नि": 4248,
      "धव": 4249,
      "ाचार": 4250,
      "ानना": 4251,
      "दलों": 4252,
      "पेंशन": 4253,
      "व्ह": 4254,
      "ोगा": 4255,
      "स्टे": 4256,
      "ट्रैक": 4257,
      "पांडे": 4258,
      "ेकर": 4259,
      "ेरे": 4260,
      "नाक": 4261,
      "्यपाल": 4262,
      "ट्रि": 4263,
      "ंगी": 4264,
      "ेटर": 4265,
      "सिंग": 4266,
      "दुर्ग": 4267,
      "पने": 4268,
      "ाऊ": 4269,
      "्यक्त": 4270,
      "सिया": 4271,
      "मंग": 4272,
      "म्ह": 4273,
      "ाँ": 4274,
      "ैप": 4275,
      "द्व": 4276,
      "मला": 4277,
      "लड": 4278,
      "करार": 4279,
      "्टिव": 4280,
      "म्बर": 4281,
      "अफ": 4282,
      "फत": 4283,
      "मुज": 4284,
      "सीम": 4285,
      "500": 4286,
      "िकरण": 4287,
      "हब": 4288,
      "केत": 4289,
      "सुरा": 4290,
      "दस्त": 4291,
      "नेह": 4292,
      "राधा": 4293,
      "फ्री": 4294,
      "अख": 4295,
      "ाचल": 4296,
      "कंट्": 4297,
      "रंट": 4298,
      "ीडी": 4299,
      "ल्दी": 4300,
      "र्षा": 4301,
      "क्तों": 4302,
      "टोर": 4303,
      "िंध": 4304,
      "ियत": 4305,
      "##ंश": 4306,
      "ीएसपी": 4307,
      "एगा": 4308,
      "ुओं": 4309,
      "स्क्र": 4310,
      "लिंग": 4311,
      "सिम": 4312,
      "ालक": 4313,
      "रीद": 4314,
      "त्सव": 4315,
      "घेर": 4316,
      "नै": 4317,
      "पान": 4318,
      "हती": 4319,
      "ीपी": 4320,
      "ग्री": 4321,
      "मानसि": 4322,
      "ोव": 4323,
      "टाचार": 4324,
      "िते": 4325,
      "ंपि": 4326,
      "त्तीस": 4327,
      "ट्रिक": 4328,
      "श्रीव": 4329,
      "अफसर": 4330,
      "ठि": 4331,
      "डक्": 4332,
      "##ro": 4333,
      "दुष्": 4334,
      "ईओ": 4335,
      "ीओ": 4336,
      "ेब": 4337,
      "लाप": 4338,
      "ायन": 4339,
      "म्स": 4340,
      "गीर": 4341,
      "ट्टा": 4342,
      "छि": 4343,
      "टेल": 4344,
      "हली": 4345,
      "लेन": 4346,
      "िपल": 4347,
      "लै": 4348,
      "वंश": 4349,
      "ातर": 4350,
      "ायर": 4351,
      "##re": 4352,
      "राद": 4353,
      "उन्": 4354,
      "बूत": 4355,
      "महत": 4356,
      "ंदर": 4357,
      "जलि": 4358,
      "रंपर": 4359,
      "ंपर": 4360,
      "अल्": 4361,
      "तिर": 4362,
      "ीआर": 4363,
      "##ay": 4364,
      "्यूट": 4365,
      "ंवर": 4366,
      "निष्": 4367,
      "रहें": 4368,
      "ायु": 4369,
      "स्वत": 4370,
      "भ्रष्": 4371,
      "सुल": 4372,
      "ताक": 4373,
      "एमसी": 4374,
      "ंग्": 4375,
      "पक्षी": 4376,
      "पेय": 4377,
      "al": 4378,
      "मात्र": 4379,
      "िरदार": 4380,
      "ंका": 4381,
      "वाए": 4382,
      "रोन": 4383,
      "भारती": 4384,
      "जारों": 4385,
      "ट्यू": 4386,
      "तृत": 4387,
      "साव": 4388,
      "कर्मि": 4389,
      "ाथ": 4390,
      "किन": 4391,
      "वाय": 4392,
      "एसी": 4393,
      "एगी": 4394,
      "नमें": 4395,
      "फ्ल": 4396,
      "क्षों": 4397,
      "नीय": 4398,
      "ेटा": 4399,
      "िराज": 4400,
      "ख्त": 4401,
      "ब्रि": 4402,
      "ोहरा": 4403,
      "ानूनी": 4404,
      "ड्डा": 4405,
      "37": 4406,
      "्सक": 4407,
      "जुल": 4408,
      "जस": 4409,
      "सेज": 4410,
      "ीदार": 4411,
      "जनस": 4412,
      "हार्": 4413,
      "33": 4414,
      "हाड़": 4415,
      "ष्टि": 4416,
      "अस": 4417,
      "बेल": 4418,
      "ैसे": 4419,
      "ोहार": 4420,
      "तीज": 4421,
      "फ्लाइ": 4422,
      "ाघ": 4423,
      "र्ध": 4424,
      "णव": 4425,
      "स्त्र": 4426,
      "फुट": 4427,
      "de": 4428,
      "पर्स": 4429,
      "ौज": 4430,
      "ारकर": 4431,
      "रूट": 4432,
      "जला": 4433,
      "णाल": 4434,
      "नन": 4435,
      "हिल": 4436,
      "हर्ष": 4437,
      "ोख": 4438,
      "क्शन": 4439,
      "ड़कों": 4440,
      "ओड": 4441,
      "शख": 4442,
      "ज़ा": 4443,
      "ास्टर": 4444,
      "पात": 4445,
      "रंज": 4446,
      "नेर": 4447,
      "बोर": 4448,
      "दिखा": 4449,
      "जस्": 4450,
      "मेट": 4451,
      "सान": 4452,
      "्ते": 4453,
      "सीन": 4454,
      "ीयू": 4455,
      "नय": 4456,
      "ांद": 4457,
      "अंद": 4458,
      "तियों": 4459,
      "नक": 4460,
      "##as": 4461,
      "भूप": 4462,
      "ोजन": 4463,
      "बढ़त": 4464,
      "लीक": 4465,
      "ायात": 4466,
      "रेस्ट": 4467,
      "चाहे": 4468,
      "##ap": 4469,
      "खन": 4470,
      "गिन": 4471,
      "टल": 4472,
      "ताज": 4473,
      "पिछल": 4474,
      "लंक": 4475,
      "हेश": 4476,
      "निवार": 4477,
      "राजप": 4478,
      "ायद": 4479,
      "रंगा": 4480,
      "हक": 4481,
      "पड़ता": 4482,
      "नॉ": 4483,
      "वेदन": 4484,
      "ाइक": 4485,
      "ंडल": 4486,
      "शॉ": 4487,
      "बताए": 4488,
      "पीड": 4489,
      "ावे": 4490,
      "ेहरा": 4491,
      "्डिंग": 4492,
      "ुबे": 4493,
      "ापा": 4494,
      "बाजी": 4495,
      "माफ": 4496,
      "तन": 4497,
      "न्ह": 4498,
      "ुल्": 4499,
      "ेफ": 4500,
      "ॉय": 4501,
      "ोषण": 4502,
      "सों": 4503,
      "विर": 4504,
      "an": 4505,
      "ed": 4506,
      "आह": 4507,
      "चिन": 4508,
      "ाधी": 4509,
      "मारा": 4510,
      "ेडल": 4511,
      "ीला": 4512,
      "निंग": 4513,
      "जाएं": 4514,
      "िशा": 4515,
      "चिंग": 4516,
      "ाधीश": 4517,
      "गय": 4518,
      "सिक्": 4519,
      "र्ब": 4520,
      "ठित": 4521,
      "नाने": 4522,
      "र्ना": 4523,
      "चेहर": 4524,
      "डिल": 4525,
      "फोर": 4526,
      "सिख": 4527,
      "थित": 4528,
      "ोल्ड": 4529,
      "राब": 4530,
      "्रेक": 4531,
      "वाही": 4532,
      "शेष": 4533,
      "दवा": 4534,
      "्रस्त": 4535,
      "ावली": 4536,
      "हेल": 4537,
      "ेमा": 4538,
      "र्न": 4539,
      "तीर": 4540,
      "्वय": 4541,
      "खुले": 4542,
      "ेखा": 4543,
      "हान": 4544,
      "रोश": 4545,
      "ेक्शन": 4546,
      "ंसल": 4547,
      "ठग": 4548,
      "बरा": 4549,
      "मिश": 4550,
      "रफ": 4551,
      "लप": 4552,
      "राश": 4553,
      "सीपी": 4554,
      "ाल्": 4555,
      "36": 4556,
      "खून": 4557,
      "्रल": 4558,
      "ज्व": 4559,
      "ोशी": 4560,
      "##ho": 4561,
      "क्ता": 4562,
      "बीज": 4563,
      "चीफ": 4564,
      "णा": 4565,
      "फान": 4566,
      "बग": 4567,
      "ह्": 4568,
      "हटा": 4569,
      "नेक": 4570,
      "ेटि": 4571,
      "ीएल": 4572,
      "आर्": 4573,
      "हिस": 4574,
      "काय": 4575,
      "निरा": 4576,
      "बिल्": 4577,
      "ंवा": 4578,
      "गला": 4579,
      "काे": 4580,
      "nt": 4581,
      "जरी": 4582,
      "ध्य": 4583,
      "ौती": 4584,
      "प्रश": 4585,
      "ावी": 4586,
      "जिश": 4587,
      "ेवल": 4588,
      "क्षी": 4589,
      "लोन": 4590,
      "गम": 4591,
      "दायर": 4592,
      "ह्म": 4593,
      "ेठ": 4594,
      "ेक्ष": 4595,
      "ोष": 4596,
      "दिक": 4597,
      "निध": 4598,
      "सीव": 4599,
      "हिता": 4600,
      "75": 4601,
      "ाओ": 4602,
      "िक्स": 4603,
      "##ur": 4604,
      "मारे": 4605,
      "ंबा": 4606,
      "ीफ": 4607,
      "आक्": 4608,
      "ैल": 4609,
      "सिप": 4610,
      "ारस": 4611,
      "रोध": 4612,
      "रवा": 4613,
      "सेक": 4614,
      "रुण": 4615,
      "स्कू": 4616,
      "ाउंट": 4617,
      "हिसा": 4618,
      "डन": 4619,
      "शिया": 4620,
      "मेन": 4621,
      "बहा": 4622,
      "ृत": 4623,
      "##ol": 4624,
      "लिक": 4625,
      "सारी": 4626,
      "िक्ष": 4627,
      "िल्ल": 4628,
      "्रेज": 4629,
      "पिट": 4630,
      "दौरा": 4631,
      "जर्": 4632,
      "ज्य": 4633,
      "नशा": 4634,
      "्रॉ": 4635,
      "सको": 4636,
      "कॉप": 4637,
      "ीचर": 4638,
      "गू": 4639,
      "गर्म": 4640,
      "##or": 4641,
      "##bi": 4642,
      "ालव": 4643,
      "याग": 4644,
      "ोरिय": 4645,
      "जज": 4646,
      "ीवर": 4647,
      "ूवी": 4648,
      "ेसर": 4649,
      "##्रो": 4650,
      "स्न": 4651,
      "क्कर": 4652,
      "ेंज": 4653,
      "तीक": 4654,
      "ावन": 4655,
      "शक": 4656,
      "सिस": 4657,
      "ौड़": 4658,
      "्रै": 4659,
      "रेटर": 4660,
      "ल्ला": 4661,
      "भोज": 4662,
      "्राध": 4663,
      "सॉ": 4664,
      "वासी": 4665,
      "रखें": 4666,
      "हिमा": 4667,
      "असम": 4668,
      "सिक": 4669,
      "सुरे": 4670,
      "राजन": 4671,
      "तीय": 4672,
      "ादर": 4673,
      "टिया": 4674,
      "ीके": 4675,
      "वासि": 4676,
      "ताया": 4677,
      "ीयत": 4678,
      "ंडि": 4679,
      "टु": 4680,
      "ंझ": 4681,
      "चम": 4682,
      "थियों": 4683,
      "रार": 4684,
      "रित": 4685,
      "हंगा": 4686,
      "48": 4687,
      "गान": 4688,
      "गले": 4689,
      "याल": 4690,
      "ीवाल": 4691,
      "ौल": 4692,
      "लेंगे": 4693,
      "fir": 4694,
      "णे": 4695,
      "ोश": 4696,
      "ादा": 4697,
      "ीति": 4698,
      "गुना": 4699,
      "ंडी": 4700,
      "त्रता": 4701,
      "te": 4702,
      "इमर": 4703,
      "्योति": 4704,
      "##ेत्": 4705,
      "लेव": 4706,
      "स्तक": 4707,
      "्रीक": 4708,
      "गीता": 4709,
      "्षेत्": 4710,
      "मानी": 4711,
      "हज": 4712,
      "##ce": 4713,
      "राख": 4714,
      "400": 4715,
      "िद्या": 4716,
      "तीश": 4717,
      "ंतर": 4718,
      "मय": 4719,
      "वंत": 4720,
      "सज": 4721,
      "ेसी": 4722,
      "जाग": 4723,
      "मोद": 4724,
      "ायी": 4725,
      "न्द": 4726,
      "्लै": 4727,
      "स्वतं": 4728,
      "34": 4729,
      "ओल": 4730,
      "रस्ट": 4731,
      "सत": 4732,
      "ाड": 4733,
      "##it": 4734,
      "ंबे": 4735,
      "इव": 4736,
      "ताल": 4737,
      "आपस": 4738,
      "ूरत": 4739,
      "आल": 4740,
      "कअ": 4741,
      "चने": 4742,
      "नह": 4743,
      "रिक": 4744,
      "गिरा": 4745,
      "कअप": 4746,
      "गाने": 4747,
      "निम": 4748,
      "र्ल": 4749,
      "रीर": 4750,
      "खात": 4751,
      "जें": 4752,
      "नही": 4753,
      "रक्": 4754,
      "संख्य": 4755,
      "रिक्": 4756,
      "्टे": 4757,
      "मार्क": 4758,
      "ेट्रो": 4759,
      "धमक": 4760,
      "टिफ": 4761,
      "जेंसी": 4762,
      "टवार": 4763,
      "हद": 4764,
      "कराए": 4765,
      "बान": 4766,
      "रप": 4767,
      "##ad": 4768,
      "्याय": 4769,
      "सव": 4770,
      "ेक": 4771,
      "रीब": 4772,
      "टिफि": 4773,
      "ंता": 4774,
      "यास": 4775,
      "ाणा": 4776,
      "िड़": 4777,
      "ॉर्ड": 4778,
      "परम": 4779,
      "ारक": 4780,
      "300": 4781,
      "तुम": 4782,
      "कट्": 4783,
      "ोले": 4784,
      "्राफ": 4785,
      "ंजी": 4786,
      "पैद": 4787,
      "ुरु": 4788,
      "धूप": 4789,
      "रब": 4790,
      "ूक": 4791,
      "ालं": 4792,
      "डकर": 4793,
      "राए": 4794,
      "कॉर्": 4795,
      "दाद": 4796,
      "छू": 4797,
      "िमी": 4798,
      "लाक": 4799,
      "ढ़ी": 4800,
      "ृष्ट": 4801,
      "ोग": 4802,
      "कांड": 4803,
      "ृष्टि": 4804,
      "जनी": 4805,
      "भरी": 4806,
      "लेत": 4807,
      "ावट": 4808,
      "त्रिप": 4809,
      "बर्": 4810,
      "लल": 4811,
      "र्तन": 4812,
      "नाश": 4813,
      "खिय": 4814,
      "नान": 4815,
      "िंद्र": 4816,
      "निर्द": 4817,
      "ंदी": 4818,
      "टो": 4819,
      "तना": 4820,
      "सकी": 4821,
      "कुर्": 4822,
      "टीवी": 4823,
      "ंडे": 4824,
      "कद": 4825,
      "धा": 4826,
      "शाल": 4827,
      "स्थि": 4828,
      "सदन": 4829,
      "्रीन": 4830,
      "्यूज": 4831,
      "तप": 4832,
      "तिया": 4833,
      "सोम": 4834,
      "ामों": 4835,
      "महीन": 4836,
      "त्री": 4837,
      "उल": 4838,
      "पवा": 4839,
      "ाजा": 4840,
      "िथ": 4841,
      "ींद": 4842,
      "जेपी": 4843,
      "अभिय": 4844,
      "sha": 4845,
      "ेबल": 4846,
      "्डी": 4847,
      "नात": 4848,
      "महज": 4849,
      "er": 4850,
      "ुक्त": 4851,
      "ेच": 4852,
      "ैं": 4853,
      "मांगे": 4854,
      "दूध": 4855,
      "ृत्": 4856,
      "ोंक": 4857,
      "जबर": 4858,
      "ओप": 4859,
      "डु": 4860,
      "दुर": 4861,
      "़्": 4862,
      "ीरो": 4863,
      "##ॉज": 4864,
      "ूर्त": 4865,
      "ोलॉज": 4866,
      "ीजा": 4867,
      "स्सा": 4868,
      "विद": 4869,
      "होंग": 4870,
      "55": 4871,
      "आंध": 4872,
      "ल्ल": 4873,
      "वस्थ": 4874,
      "रोप": 4875,
      "योर": 4876,
      "िश्": 4877,
      "आना": 4878,
      "उद": 4879,
      "लक": 4880,
      "िसर": 4881,
      "ीब": 4882,
      "शिय": 4883,
      "ष्म": 4884,
      "ैक्स": 4885,
      "##de": 4886,
      "##ya": 4887,
      "िष": 4888,
      "राकर": 4889,
      "डीपी": 4890,
      "िशि": 4891,
      "ोड़ा": 4892,
      "पर्यट": 4893,
      "ात्रा": 4894,
      "रियर": 4895,
      "रिश्": 4896,
      "वाज": 4897,
      "लीय": 4898,
      "महाम": 4899,
      "उल्ल": 4900,
      "मः": 4901,
      "ोता": 4902,
      "मप्र": 4903,
      "ंबर": 4904,
      "सोन": 4905,
      "ुरू": 4906,
      "जिम": 4907,
      "मांड": 4908,
      "औसत": 4909,
      "दन": 4910,
      "भय": 4911,
      "हड़": 4912,
      "स्टर": 4913,
      "र्त": 4914,
      "याब": 4915,
      "तीसर": 4916,
      "वेज": 4917,
      "आईप": 4918,
      "ईं": 4919,
      "झु": 4920,
      "ब्यू": 4921,
      "रों": 4922,
      "श्य": 4923,
      "हिय": 4924,
      "िजि": 4925,
      "क्षम": 4926,
      "हमल": 4927,
      "उर्": 4928,
      "कन": 4929,
      "छूट": 4930,
      "तेंद": 4931,
      "थल": 4932,
      "ृति": 4933,
      "ौन": 4934,
      "विध": 4935,
      "ट्रा": 4936,
      "रील": 4937,
      "ाड़ा": 4938,
      "खाद": 4939,
      "ैरा": 4940,
      "कोल": 4941,
      "वण": 4942,
      "##hi": 4943,
      "्रबंध": 4944,
      "लाय": 4945,
      "एसडी": 4946,
      "रियल": 4947,
      "ंकर": 4948,
      "कंड": 4949,
      "ीव": 4950,
      "ॉली": 4951,
      "माव": 4952,
      "ायो": 4953,
      "दारों": 4954,
      "ाशी": 4955,
      "मस": 4956,
      "ाटी": 4957,
      "##st": 4958,
      "ांति": 4959,
      "ेरो": 4960,
      "ोने": 4961,
      "सीए": 4962,
      "माध": 4963,
      "ीएन": 4964,
      "साधन": 4965,
      "ऋष": 4966,
      "ध्व": 4967,
      "िमा": 4968,
      "सोल": 4969,
      "पदक": 4970,
      "ज्यो": 4971,
      "फेस": 4972,
      "मल्": 4973,
      "ूह": 4974,
      "विम": 4975,
      "ंदिर": 4976,
      "अमन": 4977,
      "मिश्र": 4978,
      "65": 4979,
      "##ma": 4980,
      "लॉज": 4981,
      "टार": 4982,
      "धीर": 4983,
      "ाश": 4984,
      "##ांड": 4985,
      "नामा": 4986,
      "िमांड": 4987,
      "ाफा": 4988,
      "ूषण": 4989,
      "ोला": 4990,
      "मिलना": 4991,
      "श्वि": 4992,
      "me": 4993,
      "झू": 4994,
      "टियों": 4995,
      "रतन": 4996,
      "लत": 4997,
      "ीजन": 4998,
      "रास": 4999,
      "रेख": 5000,
      "वीरें": 5001,
      "ुख": 5002,
      "्ब": 5003,
      "थु": 5004,
      "ीनी": 5005,
      "mp": 5006,
      "ख्या": 5007,
      "्न": 5008,
      "प्रे": 5009,
      "मुर": 5010,
      "टेबल": 5011,
      "ात्रि": 5012,
      "su": 5013,
      "जं": 5014,
      "ाचा": 5015,
      "्रु": 5016,
      "समझा": 5017,
      "िश्ते": 5018,
      "ंटी": 5019,
      "आधा": 5020,
      "सली": 5021,
      "िलाई": 5022,
      "विस": 5023,
      "सील": 5024,
      "ानते": 5025,
      "पीसी": 5026,
      "तिश": 5027,
      "बहस": 5028,
      "ातों": 5029,
      "42": 5030,
      "डल": 5031,
      "ेबा": 5032,
      "करो": 5033,
      "परा": 5034,
      "मात": 5035,
      "गाड": 5036,
      "वैध": 5037,
      "ज्योत": 5038,
      "कस": 5039,
      "भले": 5040,
      "यूरो": 5041,
      "शियल": 5042,
      "ूख": 5043,
      "ेतन": 5044,
      "जीव": 5045,
      "on": 5046,
      "शोर": 5047,
      "ंतु": 5048,
      "ai": 5049,
      "भरे": 5050,
      "रवी": 5051,
      "िट्": 5052,
      "ेजी": 5053,
      "्जी": 5054,
      "रिंग": 5055,
      "मुद्र": 5056,
      "लाब": 5057,
      "रूर": 5058,
      "ंगन": 5059,
      "चित्": 5060,
      "पंप": 5061,
      "ादी": 5062,
      "ुड़": 5063,
      "्मत": 5064,
      "ंटन": 5065,
      "li": 5066,
      "जह": 5067,
      "भव": 5068,
      "रिस": 5069,
      "ृद्ध": 5070,
      "ोना": 5071,
      "्राह": 5072,
      "ैरि": 5073,
      "खनन": 5074,
      "ार्त": 5075,
      "धारण": 5076,
      "्लू": 5077,
      "co": 5078,
      "मदा": 5079,
      "विप": 5080,
      "वित्": 5081,
      "रकम": 5082,
      "टव": 5083,
      "ऑफर": 5084,
      "150": 5085,
      "रोम": 5086,
      "अध्य": 5087,
      "स्टेब": 5088,
      "राल": 5089,
      "ीबी": 5090,
      "##et": 5091,
      "##ss": 5092,
      "ंगत": 5093,
      "वारी": 5094,
      "कीम": 5095,
      "ानु": 5096,
      "लियन": 5097,
      "टिव": 5098,
      "न्त": 5099,
      "रेशन": 5100,
      "िना": 5101,
      "गुन": 5102,
      "जेड": 5103,
      "रस्त": 5104,
      "ाफी": 5105,
      "ुक्ति": 5106,
      "ुदाय": 5107,
      "सेस": 5108,
      "इंग": 5109,
      "हनों": 5110,
      "ूप": 5111,
      "ोड": 5112,
      "र्टी": 5113,
      "रेन": 5114,
      "इनका": 5115,
      "ग्ग": 5116,
      "ीटी": 5117,
      "र्फ": 5118,
      "ेंशन": 5119,
      "ंगाल": 5120,
      "ar": 5121,
      "ैग": 5122,
      "सेम": 5123,
      "्टर": 5124,
      "बीत": 5125,
      "िलक": 5126,
      "फॉर": 5127,
      "दशक": 5128,
      "ंगे": 5129,
      "आलो": 5130,
      "कूट": 5131,
      "चेन": 5132,
      "निल": 5133,
      "निट": 5134,
      "रीफ": 5135,
      "ब्ज": 5136,
      "ुप": 5137,
      "बिन": 5138,
      "मानत": 5139,
      "जिट": 5140,
      "ऑन": 5141,
      "चं": 5142,
      "सास": 5143,
      "राजे": 5144,
      "तिग": 5145,
      "पंज": 5146,
      "ni": 5147,
      "खेड": 5148,
      "बाध": 5149,
      "कैप्": 5150,
      "बाला": 5151,
      "थ्": 5152,
      "वाना": 5153,
      "ोती": 5154,
      "ष्ण": 5155,
      "ti": 5156,
      "झांस": 5157,
      "टने": 5158,
      "्वान": 5159,
      "वात": 5160,
      "ka": 5161,
      "डक": 5162,
      "ैना": 5163,
      "्भ": 5164,
      "ेंसी": 5165,
      "शार": 5166,
      "मुक": 5167,
      "वाइ": 5168,
      "महि": 5169,
      "महान": 5170,
      "बीमा": 5171,
      "अभिन": 5172,
      "आइए": 5173,
      "कक्ष": 5174,
      "कली": 5175,
      "जंग": 5176,
      "##sp": 5177,
      "भोग": 5178,
      "मिक": 5179,
      "ोक्": 5180,
      "ड़ों": 5181,
      "ीरिय": 5182,
      "च्छा": 5183,
      "ele": 5184,
      "जद": 5185,
      "चक": 5186,
      "रता": 5187,
      "ूंग": 5188,
      "बैठा": 5189,
      "vs": 5190,
      "तरे": 5191,
      "ात्": 5192,
      "ीजों": 5193,
      "लीन": 5194,
      "वीरे": 5195,
      "नसभा": 5196,
      "काला": 5197,
      "रीवा": 5198,
      "इलाक": 5199,
      "ेबाजी": 5200,
      "अखिल": 5201,
      "डब": 5202,
      "ात्म": 5203,
      "##cc": 5204,
      "पुन": 5205,
      "रीदा": 5206,
      "वार्": 5207,
      "elect": 5208,
      "खार": 5209,
      "ीग": 5210,
      "लॉक": 5211,
      "mo": 5212,
      "ारो": 5213,
      "स्वा": 5214,
      "डिट": 5215,
      "िन्ह": 5216,
      "ाएगी": 5217,
      "ंजर": 5218,
      "बिक": 5219,
      "##si": 5220,
      "ंद्रा": 5221,
      "जरा": 5222,
      "भल": 5223,
      "लस": 5224,
      "ेनी": 5225,
      "ार्ज": 5226,
      "लती": 5227,
      "हल्क": 5228,
      "ॉर्": 5229,
      "जाएंग": 5230,
      "मित्": 5231,
      "नाया": 5232,
      "क्षित": 5233,
      "ाये": 5234,
      "lo": 5235,
      "आब": 5236,
      "ढाई": 5237,
      "िच": 5238,
      "िछ": 5239,
      "ीड़": 5240,
      "ीती": 5241,
      "लेब": 5242,
      "पैस": 5243,
      "ामि": 5244,
      "्मण": 5245,
      "मचा": 5246,
      "लों": 5247,
      "्ले": 5248,
      "्रग": 5249,
      "लॉन्": 5250,
      "38": 5251,
      "चाय": 5252,
      "पना": 5253,
      "्लास": 5254,
      "निशा": 5255,
      "संध": 5256,
      "मीन": 5257,
      "जिस्": 5258,
      "nd": 5259,
      "पमान": 5260,
      "बारी": 5261,
      "रद": 5262,
      "रस्": 5263,
      "ायम": 5264,
      "्टिक": 5265,
      "शरद": 5266,
      "चाया": 5267,
      "मुकदम": 5268,
      "आशा": 5269,
      "ऑप": 5270,
      "फूड": 5271,
      "्रीम": 5272,
      "नग": 5273,
      "नना": 5274,
      "##ौन": 5275,
      "ाड़िय": 5276,
      "ध्यम": 5277,
      "धां": 5278,
      "स्या": 5279,
      "्रेन": 5280,
      "दीव": 5281,
      "्यादा": 5282,
      "मिर": 5283,
      "ोड़ी": 5284,
      "क्ट": 5285,
      "जिसक": 5286,
      "पसी": 5287,
      "यौन": 5288,
      "तिष्ठ": 5289,
      "शुद": 5290,
      "भगव": 5291,
      "##han": 5292,
      "to": 5293,
      "खल": 5294,
      "वेट": 5295,
      "ेहा": 5296,
      "होम": 5297,
      "्योर": 5298,
      "indi": 5299,
      "डू": 5300,
      "ोते": 5301,
      "ोरा": 5302,
      "्रिया": 5303,
      "ंगान": 5304,
      "नता": 5305,
      "हूर": 5306,
      "ाबर": 5307,
      "हिंदु": 5308,
      "तरीक": 5309,
      "44": 5310,
      "जनों": 5311,
      "at": 5312,
      "se": 5313,
      "गंग": 5314,
      "घन": 5315,
      "लच": 5316,
      "रामा": 5317,
      "िकट": 5318,
      "ावित": 5319,
      "वारि": 5320,
      "go": 5321,
      "ैय": 5322,
      "उदय": 5323,
      "ऑल": 5324,
      "ेवी": 5325,
      "कुम": 5326,
      "र्वा": 5327,
      "ारू": 5328,
      "मोड": 5329,
      "ंचाई": 5330,
      "ेमि": 5331,
      "किल": 5332,
      "रिफ": 5333,
      "साहित": 5334,
      "हॉल": 5335,
      "सर्क": 5336,
      "भाल": 5337,
      "षिक": 5338,
      "्रेट": 5339,
      "सिस्ट": 5340,
      "सीओ": 5341,
      "ड़ने": 5342,
      "खतर": 5343,
      "तपुर": 5344,
      "ोनी": 5345,
      "संस्थ": 5346,
      "फंड": 5347,
      "ुति": 5348,
      "लेज": 5349,
      "र्मी": 5350,
      "्फ": 5351,
      "होश": 5352,
      "ालिया": 5353,
      "स्तु": 5354,
      "ाएगा": 5355,
      "di": 5356,
      "ुफ": 5357,
      "ुड": 5358,
      "ैच": 5359,
      "निज": 5360,
      "ोकस": 5361,
      "la": 5362,
      "राण": 5363,
      "कैश": 5364,
      "नारे": 5365,
      "रती": 5366,
      "िनेश": 5367,
      "करि": 5368,
      "त्थ": 5369,
      "प्राच": 5370,
      "टैक": 5371,
      "आंक": 5372,
      "िक्": 5373,
      "ैसल": 5374,
      "ोकर": 5375,
      "ग्रे": 5376,
      "भरत": 5377,
      "्राइव": 5378,
      "39": 5379,
      "41": 5380,
      "अदा": 5381,
      "तिल": 5382,
      "द्रा": 5383,
      "हनी": 5384,
      "बेड": 5385,
      "जेडी": 5386,
      "िलाफ": 5387,
      "िख": 5388,
      "ोब": 5389,
      "ोटा": 5390,
      "िफिक": 5391,
      "ठाकर": 5392,
      "51": 5393,
      "ुनि": 5394,
      "ैंस": 5395,
      "ापत": 5396,
      "दक": 5397,
      "ध्": 5398,
      "पंत": 5399,
      "यप": 5400,
      "यंत": 5401,
      "षा": 5402,
      "बीए": 5403,
      "##and": 5404,
      "छी": 5405,
      "लय": 5406,
      "्वर": 5407,
      "निव": 5408,
      "ंडो": 5409,
      "पेड़": 5410,
      "्रोत": 5411,
      "इजर": 5412,
      "टिंग": 5413,
      "शक्त": 5414,
      "ैंक": 5415,
      "##धे": 5416,
      "काले": 5417,
      "ियल": 5418,
      "म्मत": 5419,
      "्रमण": 5420,
      "sp": 5421,
      "पश": 5422,
      "मने": 5423,
      "क्रव": 5424,
      "वस्था": 5425,
      "हकर": 5426,
      "्रिक": 5427,
      "्रां": 5428,
      "ारों": 5429,
      "ेडी": 5430,
      "ापक": 5431,
      "ट्ठ": 5432,
      "्रांत": 5433,
      "मरी": 5434,
      "ाके": 5435,
      "ॉन": 5436,
      "काज": 5437,
      "नाते": 5438,
      "पीड़": 5439,
      "मानस": 5440,
      "झी": 5441,
      "##am": 5442,
      "कैल": 5443,
      "india": 5444,
      "िवि": 5445,
      "िब्": 5446,
      "ोरो": 5447,
      "्जर": 5448,
      "46": 5449,
      "ढंग": 5450,
      "िज्": 5451,
      "mi": 5452,
      "अटल": 5453,
      "ढा": 5454,
      "धे": 5455,
      "िको": 5456,
      "मेड": 5457,
      "पारि": 5458,
      "ipl": 5459,
      "ंधा": 5460,
      "आचार": 5461,
      "मोट": 5462,
      "ीसी": 5463,
      "देन": 5464,
      "लीज": 5465,
      "ईव": 5466,
      "खव": 5467,
      "टूर": 5468,
      "##la": 5469,
      "राई": 5470,
      "जाट": 5471,
      "रिटी": 5472,
      "्तान": 5473,
      "तौ": 5474,
      "लम": 5475,
      "ाष्ट": 5476,
      "्टी": 5477,
      "##ve": 5478,
      "विदा": 5479,
      "वारा": 5480,
      "श्रा": 5481,
      "मोर": 5482,
      "ारात": 5483,
      "47": 5484,
      "चौर": 5485,
      "रेंस": 5486,
      "लता": 5487,
      "ढ़े": 5488,
      "आलम": 5489,
      "aap": 5490,
      "ce": 5491,
      "नसे": 5492,
      "मलों": 5493,
      "ैक्ट": 5494,
      "ॉस": 5495,
      "ॉड": 5496,
      "##bha": 5497,
      "कृष्": 5498,
      "56": 5499,
      "ंपा": 5500,
      "थि": 5501,
      "िले": 5502,
      "ेत": 5503,
      "शतक": 5504,
      "आधे": 5505,
      "रकर": 5506,
      "ाे": 5507,
      "िवा": 5508,
      "ेंसि": 5509,
      "ारिया": 5510,
      "जानत": 5511,
      "ाकु": 5512,
      "त्तर": 5513,
      "52": 5514,
      "तं": 5515,
      "पेम": 5516,
      "पट्": 5517,
      "ैट": 5518,
      "्नी": 5519,
      "रिट": 5520,
      "डम": 5521,
      "त्न": 5522,
      "नवा": 5523,
      "िस्त": 5524,
      "ियार": 5525,
      "कलश": 5526,
      "डेढ़": 5527,
      "्रिट": 5528,
      "ात्मक": 5529,
      "फेल": 5530,
      "शह": 5531,
      "ैली": 5532,
      "प्राइ": 5533,
      "वाग": 5534,
      "मुख्": 5535,
      "ch": 5536,
      "ऋषि": 5537,
      "ड्यू": 5538,
      "िजन": 5539,
      "ालयों": 5540,
      "बहू": 5541,
      "रजत": 5542,
      "द्दे": 5543,
      "nda": 5544,
      "ेस्": 5545,
      "ैस": 5546,
      "ैले": 5547,
      "गुण": 5548,
      "कड़े": 5549,
      "th": 5550,
      "सस": 5551,
      "सौर": 5552,
      "ुं": 5553,
      "बाघ": 5554,
      "पीए": 5555,
      "ढ़ने": 5556,
      "##sc": 5557,
      "लिका": 5558,
      "सुना": 5559,
      "आईस": 5560,
      "िकास": 5561,
      "चेत": 5562,
      "नारा": 5563,
      "काद": 5564,
      "बीस": 5565,
      "रुपय": 5566,
      "जेश": 5567,
      "डिया": 5568,
      "लां": 5569,
      "हां": 5570,
      "##il": 5571,
      "लेस": 5572,
      "ोहित": 5573,
      "उमस": 5574,
      "्टेबल": 5575,
      "or": 5576,
      "ड्र": 5577,
      "हथ": 5578,
      "ाधा": 5579,
      "ोस्ट": 5580,
      "र्घ": 5581,
      "बिश": 5582,
      "ind": 5583,
      "sabha": 5584,
      "्पी": 5585,
      "##so": 5586,
      "बैर": 5587,
      "बनान": 5588,
      "ास्क": 5589,
      "43": 5590,
      "ठान": 5591,
      "थक": 5592,
      "यंक": 5593,
      "ादि": 5594,
      "ुकेश": 5595,
      "प्रक": 5596,
      "छाए": 5597,
      "्याव": 5598,
      "्लिक": 5599,
      "ैमर": 5600,
      "र्वाच": 5601,
      "शरण": 5602,
      "ूरा": 5603,
      "प्रत्": 5604,
      "नागर": 5605,
      "मिलन": 5606,
      "ंजू": 5607,
      "ढे": 5608,
      "मेश": 5609,
      "ानों": 5610,
      "देखे": 5611,
      "गुज": 5612,
      "ामपुर": 5613,
      "ासिक": 5614,
      "lok": 5615,
      "am": 5616,
      "गद": 5617,
      "नित": 5618,
      "ुई": 5619,
      "थीम": 5620,
      "प्रोफ": 5621,
      "भगत": 5622,
      "बिर": 5623,
      "सरो": 5624,
      "ुण": 5625,
      "ुश": 5626,
      "ेजा": 5627,
      "्वाल": 5628,
      "लोगो": 5629,
      "ारत": 5630,
      "250": 5631,
      "लुक": 5632,
      "्रतिभ": 5633,
      "छीन": 5634,
      "जहर": 5635,
      "राया": 5636,
      "रांत": 5637,
      "लिन": 5638,
      "रिह": 5639,
      "ानन": 5640,
      "आईए": 5641,
      "मपुर": 5642,
      "ेहर": 5643,
      "ोल्": 5644,
      "हारा": 5645,
      "िल्क": 5646,
      "ुना": 5647,
      "रास्": 5648,
      "क्वा": 5649,
      "ानिय": 5650,
      "ांगी": 5651,
      "nc": 5652,
      "कमा": 5653,
      "याम": 5654,
      "लह": 5655,
      "लाए": 5656,
      "एनडी": 5657,
      "कलर": 5658,
      "अड": 5659,
      "असल": 5660,
      "गये": 5661,
      "यक्ष": 5662,
      "सुधा": 5663,
      "टीक": 5664,
      "ामु": 5665,
      "िरु": 5666,
      "ुटे": 5667,
      "विल": 5668,
      "जागर": 5669,
      "हाव": 5670,
      "ेत्री": 5671,
      "िलना": 5672,
      "टेंट": 5673,
      "ससुर": 5674,
      "ंजा": 5675,
      "तारा": 5676,
      "ूली": 5677,
      "लोनी": 5678,
      "ंचन": 5679,
      "अतिथ": 5680,
      "ाधिक": 5681,
      "54": 5682,
      "72": 5683,
      "प्रत": 5684,
      "पड़ी": 5685,
      "ज़र": 5686,
      "ंटि": 5687,
      "of": 5688,
      "ंधी": 5689,
      "ईस": 5690,
      "धी": 5691,
      "सने": 5692,
      "##ta": 5693,
      "किर": 5694,
      "स्ते": 5695,
      "तोष": 5696,
      "रुव": 5697,
      "क्रो": 5698,
      "ल्स": 5699,
      "शिकाय": 5700,
      "यार": 5701,
      "##sh": 5702,
      "विक्": 5703,
      "ट्रो": 5704,
      "मदन": 5705,
      "्रैक्": 5706,
      "ृद्धि": 5707,
      "49": 5708,
      "अत": 5709,
      "भूल": 5710,
      "सोस": 5711,
      "टेस्": 5712,
      "ंपत": 5713,
      "मूव": 5714,
      "्चर": 5715,
      "पश्च": 5716,
      "cbi": 5717,
      "im": 5718,
      "ंव": 5719,
      "टाई": 5720,
      "डबल": 5721,
      "डमि": 5722,
      "तें": 5723,
      "ष्य": 5724,
      "ेजर": 5725,
      "##ja": 5726,
      "##ैर": 5727,
      "विद्": 5728,
      "दाता": 5729,
      "अभय": 5730,
      "day": 5731,
      "गड": 5732,
      "चन": 5733,
      "ुष्ट": 5734,
      "##ti": 5735,
      "कपल": 5736,
      "cct": 5737,
      "गाना": 5738,
      "घी": 5739,
      "दहन": 5740,
      "रेत": 5741,
      "च्चे": 5742,
      "ुलस": 5743,
      "रेंट": 5744,
      "ing": 5745,
      "cctv": 5746,
      "थ्य": 5747,
      "लार": 5748,
      "सक्": 5749,
      "##se": 5750,
      "सुम": 5751,
      "लास": 5752,
      "लाकर": 5753,
      "ारग": 5754,
      "ारद": 5755,
      "ारिश": 5756,
      "खड़ी": 5757,
      "डव": 5758,
      "रवाल": 5759,
      "ेलो": 5760,
      "्वि": 5761,
      "दियों": 5762,
      "महंग": 5763,
      "क्षत": 5764,
      "पाद": 5765,
      "परिच": 5766,
      "जगत": 5767,
      "ba": 5768,
      "तदान": 5769,
      "थम": 5770,
      "बई": 5771,
      "##र्त": 5772,
      "राक": 5773,
      "िक्क": 5774,
      "85": 5775,
      "ro": 5776,
      "ta": 5777,
      "इर": 5778,
      "दरा": 5779,
      "फाई": 5780,
      "ाझ": 5781,
      "िरो": 5782,
      "जाद": 5783,
      "रेग": 5784,
      "ानकार": 5785,
      "नीट": 5786,
      "योजन": 5787,
      "en": 5788,
      "le": 5789,
      "छवि": 5790,
      "ैक्": 5791,
      "ौरा": 5792,
      "र्ती": 5793,
      "ायण": 5794,
      "112": 5795,
      "िंदु": 5796,
      "आरा": 5797,
      "उड": 5798,
      "डियो": 5799,
      "बत": 5800,
      "वता": 5801,
      "ोच": 5802,
      "निस्": 5803,
      "ारित": 5804,
      "ार्ड": 5805,
      "si": 5806,
      "नप": 5807,
      "िर्": 5808,
      "ुलाई": 5809,
      "ूब": 5810,
      "्लाई": 5811,
      "वाड": 5812,
      "108": 5813,
      "58": 5814,
      "ैश": 5815,
      "ोगी": 5816,
      "##टे": 5817,
      "कर्त": 5818,
      "परव": 5819,
      "दुख": 5820,
      "ार्ग": 5821,
      "शाद": 5822,
      "##ट्स": 5823,
      "ादल": 5824,
      "##deo": 5825,
      "ंकि": 5826,
      "ठो": 5827,
      "लेंस": 5828,
      "वकों": 5829,
      "िसे": 5830,
      "ौद": 5831,
      "्सी": 5832,
      "##ch": 5833,
      "प्रस": 5834,
      "र्जा": 5835,
      "बैच": 5836,
      "ट्स": 5837,
      "video": 5838,
      "नाय": 5839,
      "रश": 5840,
      "हत": 5841,
      "ैत": 5842,
      "रात्र": 5843,
      "्यार": 5844,
      "मेज": 5845,
      "पोर": 5846,
      "्चि": 5847,
      "झूठ": 5848,
      "ठोस": 5849,
      "लज": 5850,
      "लन": 5851,
      "वट": 5852,
      "लिप": 5853,
      "लाड": 5854,
      "सीज": 5855,
      "ितर": 5856,
      "रमण": 5857,
      "दत": 5858,
      "वेत": 5859,
      "िलान": 5860,
      "ुनिय": 5861,
      "जॉब": 5862,
      "pa": 5863,
      "तर्": 5864,
      "##li": 5865,
      "द्धि": 5866,
      "रके": 5867,
      "ूला": 5868,
      "##ni": 5869,
      "##va": 5870,
      "फायद": 5871,
      "ri": 5872,
      "ंसा": 5873,
      "पम": 5874,
      "##vi": 5875,
      "ायत": 5876,
      "बोध": 5877,
      "कलन": 5878,
      "हसन": 5879,
      "ोटे": 5880,
      "hi": 5881,
      "ng": 5882,
      "गाम": 5883,
      "लब": 5884,
      "वनी": 5885,
      "स्य": 5886,
      "राफ": 5887,
      "र्धा": 5888,
      "समर्थ": 5889,
      "ज्ञा": 5890,
      "लैब": 5891,
      "khan": 5892,
      "ईयर": 5893,
      "विभ": 5894,
      "क्षा": 5895,
      "व्यू": 5896,
      "गुट": 5897,
      "मीक": 5898,
      "त्स": 5899,
      "खड़ा": 5900,
      "रूरत": 5901,
      "इश": 5902,
      "ओपन": 5903,
      "वों": 5904,
      "शय": 5905,
      "ूच": 5906,
      "त्रित": 5907,
      "ac": 5908,
      "her": 5909,
      "आधी": 5910,
      "दाल": 5911,
      "पियो": 5912,
      "राने": 5913,
      "शशि": 5914,
      "ूट": 5915,
      "लीड": 5916,
      "चिंत": 5917,
      "इए": 5918,
      "दारी": 5919,
      "रट": 5920,
      "ूलों": 5921,
      "##mi": 5922,
      "53": 5923,
      "sc": 5924,
      "गेम": 5925,
      "टिय": 5926,
      "लवार": 5927,
      "ाबी": 5928,
      "ोरी": 5929,
      "##na": 5930,
      "निष": 5931,
      "सिद्": 5932,
      "समु": 5933,
      "टेड": 5934,
      "ंगो": 5935,
      "्यात": 5936,
      "no": 5937,
      "ंक्": 5938,
      "ंजय": 5939,
      "छली": 5940,
      "लवा": 5941,
      "ैब": 5942,
      "ोहन": 5943,
      "गोप": 5944,
      "ेहत": 5945,
      "रमाण": 5946,
      "अट": 5947,
      "हला": 5948,
      "िरी": 5949,
      "भागी": 5950,
      "ामन": 5951,
      "अर्ज": 5952,
      "cha": 5953,
      "वक": 5954,
      "ैटर": 5955,
      "ड़िय": 5956,
      "मीट": 5957,
      "उपल": 5958,
      "ऋषभ": 5959,
      "व्": 5960,
      "़र": 5961,
      "ीता": 5962,
      "ीले": 5963,
      "ीक्ष": 5964,
      "ेके": 5965,
      "ोचन": 5966,
      "्ध": 5967,
      "ोंग": 5968,
      "कैच": 5969,
      "दाव": 5970,
      "pro": 5971,
      "we": 5972,
      "अय": 5973,
      "जना": 5974,
      "टं": 5975,
      "रर": 5976,
      "ासप": 5977,
      "##hu": 5978,
      "केन": 5979,
      "प्रि": 5980,
      "हीर": 5981,
      "विश्": 5982,
      "ेशनल": 5983,
      "उर": 5984,
      "सपर": 5985,
      "ोपी": 5986,
      "निदेश": 5987,
      "र्ति": 5988,
      "हीन": 5989,
      "ंदगी": 5990,
      "ंबि": 5991,
      "काने": 5992,
      "लहर": 5993,
      "लिटी": 5994,
      "बाह": 5995,
      "लात": 5996,
      "रीक": 5997,
      "ाइब": 5998,
      "कॉलो": 5999,
      "टेज": 6000,
      "कॉलोन": 6001,
      "5g": 6002,
      "el": 6003,
      "्तर": 6004,
      "##gh": 6005,
      "कोड": 6006,
      "##त्स": 6007,
      "पूर": 6008,
      "ायरे": 6009,
      "कॉर": 6010,
      "न्स": 6011,
      "67": 6012,
      "ap": 6013,
      "उधर": 6014,
      "ुग": 6015,
      "##en": 6016,
      "##ka": 6017,
      "कित्स": 6018,
      "मुस्": 6019,
      "माज": 6020,
      "बचे": 6021,
      "रमन": 6022,
      "बिल्ड": 6023,
      "्रिप": 6024,
      "ोटो": 6025,
      "नमः": 6026,
      "01": 6027,
      "57": 6028,
      "गिल": 6029,
      "तट": 6030,
      "थर": 6031,
      "सवा": 6032,
      "ाकि": 6033,
      "िगर": 6034,
      "ुस": 6035,
      "ुए": 6036,
      "ैज": 6037,
      "बाब": 6038,
      "read": 6039,
      "कवर": 6040,
      "डिय": 6041,
      "नद": 6042,
      "भै": 6043,
      "मझ": 6044,
      "ित्व": 6045,
      "जाक": 6046,
      "ेन्द्": 6047,
      "pra": 6048,
      "एआई": 6049,
      "छल": 6050,
      "पयोग": 6051,
      "रजी": 6052,
      "िण": 6053,
      "ॉम": 6054,
      "साज": 6055,
      "लाद": 6056,
      "देशी": 6057,
      "डॉग": 6058,
      "मोत": 6059,
      "नौत": 6060,
      "्वत": 6061,
      "कौश": 6062,
      "shi": 6063,
      "गयी": 6064,
      "फू": 6065,
      "रला": 6066,
      "वरण": 6067,
      "ेष": 6068,
      "ोशन": 6069,
      "रीज": 6070,
      "ंचक": 6071,
      "मांक": 6072,
      "ेलि": 6073,
      "ev": 6074,
      "pu": 6075,
      "हौ": 6076,
      "िविध": 6077,
      "ूज": 6078,
      "प्रण": 6079,
      "वाब": 6080,
      "ालो": 6081,
      "्यता": 6082,
      "रोष": 6083,
      "मन्": 6084,
      "bo": 6085,
      "ठे": 6086,
      "ुद्र": 6087,
      "स्क्": 6088,
      "प्रस्": 6089,
      "रीत": 6090,
      "स्टम": 6091,
      "हिट": 6092,
      "कड़ा": 6093,
      "600": 6094,
      "टेंड": 6095,
      "also": 6096,
      "ias": 6097,
      "प्ट": 6098,
      "वरात": 6099,
      "ेपी": 6100,
      "ानद": 6101,
      "ानदार": 6102,
      "एमए": 6103,
      "जेब": 6104,
      "आवेद": 6105,
      "et": 6106,
      "pri": 6107,
      "षण": 6108,
      "ानून": 6109,
      "जोश": 6110,
      "हाइ": 6111,
      "देशक": 6112,
      "निका": 6113,
      "शोक": 6114,
      "ad": 6115,
      "गाल": 6116,
      "ेसि": 6117,
      "प्रम": 6118,
      "बाढ़": 6119,
      "राजस": 6120,
      "द्वा": 6121,
      "ायदा": 6122,
      "बुध": 6123,
      "खोज": 6124,
      "बगल": 6125,
      "02": 6126,
      "डै": 6127,
      "मट": 6128,
      "ैड": 6129,
      "बाड": 6130,
      "समर्": 6131,
      "माप": 6132,
      "एसए": 6133,
      "क्रा": 6134,
      "ेट्": 6135,
      "्वज": 6136,
      "##ang": 6137,
      "ाफ़": 6138,
      "sd": 6139,
      "कश": 6140,
      "गे": 6141,
      "दग": 6142,
      "फन": 6143,
      "फेज": 6144,
      "शर्म": 6145,
      "ैद": 6146,
      "्ज": 6147,
      "##पत": 6148,
      "##घु": 6149,
      "्रह": 6150,
      "्रव": 6151,
      "ड़ित": 6152,
      "ार्क": 6153,
      "ल्व": 6154,
      "षक": 6155,
      "ैठ": 6156,
      "्द": 6157,
      "नेश": 6158,
      "दिग": 6159,
      "चालन": 6160,
      "59": 6161,
      "ईद": 6162,
      "जट": 6163,
      "फे": 6164,
      "मिया": 6165,
      "ाति": 6166,
      "ासा": 6167,
      "ाधि": 6168,
      "्ता": 6169,
      "##su": 6170,
      "किम": 6171,
      "स्से": 6172,
      "प्रता": 6173,
      "र्ट्स": 6174,
      "टीए": 6175,
      "कैस": 6176,
      "डीप": 6177,
      "पत्त": 6178,
      "स्पि": 6179,
      "शौ": 6180,
      "ूड": 6181,
      "वीन": 6182,
      "120": 6183,
      "वैन": 6184,
      "सिले": 6185,
      "नकद": 6186,
      "िजिट": 6187,
      "मध": 6188,
      "यंस": 6189,
      "ेवा": 6190,
      "##tt": 6191,
      "बाव": 6192,
      "अप्र": 6193,
      "ाइवे": 6194,
      "ढ़ा": 6195,
      "्तानी": 6196,
      "जेंस": 6197,
      "डिस": 6198,
      "ीदी": 6199,
      "होत्": 6200,
      "ऑफि": 6201,
      "दायि": 6202,
      "95": 6203,
      "फाइ": 6204,
      "रश्": 6205,
      "ाकार": 6206,
      "िह": 6207,
      "ूटर": 6208,
      "तिम": 6209,
      "डीएस": 6210,
      "आरक्ष": 6211,
      "ॉलर": 6212,
      "गित": 6213,
      "बानी": 6214,
      "र्र": 6215,
      "##th": 6216,
      "मारक": 6217,
      "ब्रा": 6218,
      "डैम": 6219,
      "ओपी": 6220,
      "रना": 6221,
      "कास": 6222,
      "ारदा": 6223,
      "दूसर": 6224,
      "लीप": 6225,
      "च्ची": 6226,
      "कानों": 6227,
      "एग्ज": 6228,
      "com": 6229,
      "64": 6230,
      "mar": 6231,
      "ya": 6232,
      "ंके": 6233,
      "झल": 6234,
      "यकर": 6235,
      "##fi": 6236,
      "डिंग": 6237,
      "िवर्त": 6238,
      "ंतरि": 6239,
      "िवाद": 6240,
      "जिया": 6241,
      "बका": 6242,
      "लघु": 6243,
      "वली": 6244,
      "ुक्": 6245,
      "लाव": 6246,
      "रेम": 6247,
      "नाब": 6248,
      "ख्याल": 6249,
      "ंसी": 6250,
      "खरा": 6251,
      "लमा": 6252,
      "िकी": 6253,
      "ीठ": 6254,
      "##us": 6255,
      "किरा": 6256,
      "जाप": 6257,
      "ान्": 6258,
      "ियान": 6259,
      "स्टि": 6260,
      "वर्स": 6261,
      "ंगों": 6262,
      "होंने": 6263,
      "800": 6264,
      "रध": 6265,
      "ुह": 6266,
      "मुला": 6267,
      "अन्": 6268,
      "कमर": 6269,
      "कॉन": 6270,
      "िग्": 6271,
      "ादे": 6272,
      "्ची": 6273,
      "झलक": 6274,
      "99": 6275,
      "आैर": 6276,
      "उद्य": 6277,
      "ऋण": 6278,
      "भान": 6279,
      "मग्र": 6280,
      "सरे": 6281,
      "ूरी": 6282,
      "्ति": 6283,
      "दीन": 6284,
      "रीन": 6285,
      "्सि": 6286,
      "वर्त": 6287,
      "वीक": 6288,
      "700": 6289,
      "गठ": 6290,
      "फरा": 6291,
      "फुल": 6292,
      "सनी": 6293,
      "##षा": 6294,
      "केदार": 6295,
      "विक्र": 6296,
      "्राल": 6297,
      "जीर": 6298,
      "नीर": 6299,
      "कैंस": 6300,
      "ंन": 6301,
      "अत्": 6302,
      "खाई": 6303,
      "न्व": 6304,
      "़ान": 6305,
      "ैंप": 6306,
      "ोधी": 6307,
      "बाय": 6308,
      "्रज": 6309,
      "टीट": 6310,
      "द्धा": 6311,
      "ासक": 6312,
      "##har": 6313,
      "62": 6314,
      "आक्र": 6315,
      "चुर": 6316,
      "फिक": 6317,
      "ाजन": 6318,
      "ाटक": 6319,
      "िक्षण": 6320,
      "ोर्ड": 6321,
      "करन": 6322,
      "होल": 6323,
      "लिट": 6324,
      "िकॉ": 6325,
      "पाक": 6326,
      "्सो": 6327,
      "वैश": 6328,
      "णि": 6329,
      "तव": 6330,
      "नते": 6331,
      "श्व": 6332,
      "सले": 6333,
      "ैसी": 6334,
      "ॉइ": 6335,
      "एकड़": 6336,
      "आएं": 6337,
      "ऑफ़": 6338,
      "िपो": 6339,
      "ंजल": 6340,
      "ाटन": 6341,
      "ैक्टर": 6342,
      "61": 6343,
      "har": 6344,
      "जों": 6345,
      "नट": 6346,
      "भद": 6347,
      "यद": 6348,
      "##sa": 6349,
      "वाक": 6350,
      "हिंस": 6351,
      "त्रा": 6352,
      "र्यव": 6353,
      "ुल्ला": 6354,
      "66": 6355,
      "ki": 6356,
      "नपुर": 6357,
      "मग": 6358,
      "ुच": 6359,
      "ुंद": 6360,
      "ेनि": 6361,
      "केर": 6362,
      "निभा": 6363,
      "संज": 6364,
      "समर": 6365,
      "ट्रोल": 6366,
      "िपक": 6367,
      "्राउ": 6368,
      "kar": 6369,
      "झील": 6370,
      "यत": 6371,
      "रय": 6372,
      "ीपा": 6373,
      "दित": 6374,
      "रूक": 6375,
      "जानक": 6376,
      "्याद": 6377,
      "ाज़": 6378,
      "370": 6379,
      "weat": 6380,
      "68": 6381,
      "78": 6382,
      "ab": 6383,
      "cs": 6384,
      "gb": 6385,
      "ऑय": 6386,
      "तवा": 6387,
      "फरी": 6388,
      "बस्त": 6389,
      "ैनी": 6390,
      "##me": 6391,
      "##मे": 6392,
      "सीब": 6393,
      "नाइ": 6394,
      "ारन": 6395,
      "पैक": 6396,
      "जूझ": 6397,
      "ेखर": 6398,
      "05": 6399,
      "आदम": 6400,
      "टम": 6401,
      "दया": 6402,
      "रई": 6403,
      "रदा": 6404,
      "षध": 6405,
      "ुल्ल": 6406,
      "वाओं": 6407,
      "रेक": 6408,
      "महल": 6409,
      "कमि": 6410,
      "स्ट्र": 6411,
      "मीद": 6412,
      "and": 6413,
      "गस": 6414,
      "ढेर": 6415,
      "पेज": 6416,
      "भट": 6417,
      "यस": 6418,
      "शकों": 6419,
      "िष्": 6420,
      "ीमत": 6421,
      "##cb": 6422,
      "वित": 6423,
      "्रेर": 6424,
      "ानिक": 6425,
      "ामो": 6426,
      "ल्क": 6427,
      "ाधन": 6428,
      "टॉस": 6429,
      "06": 6430,
      "03": 6431,
      "टख": 6432,
      "िने": 6433,
      "िनि": 6434,
      "##un": 6435,
      "हीट": 6436,
      "गाई": 6437,
      "िल्म": 6438,
      "ऑयल": 6439,
      "he": 6440,
      "कसा": 6441,
      "ुष": 6442,
      "##ba": 6443,
      "नेम": 6444,
      "साइक": 6445,
      "रिए": 6446,
      "ताओं": 6447,
      "फैन": 6448,
      "ल्ले": 6449,
      "िप्ट": 6450,
      "फिट": 6451,
      "नपु": 6452,
      "pol": 6453,
      "तों": 6454,
      "भंग": 6455,
      "लक्": 6456,
      "ेबाज": 6457,
      "ोगे": 6458,
      "##te": 6459,
      "्रय": 6460,
      "सीटी": 6461,
      "दीय": 6462,
      "डील": 6463,
      "पेड": 6464,
      "350": 6465,
      "##ate": 6466,
      "तंज": 6467,
      "81": 6468,
      "pl": 6469,
      "ss": 6470,
      "ईंट": 6471,
      "जपा": 6472,
      "बड": 6473,
      "िजा": 6474,
      "ोरे": 6475,
      "र्ता": 6476,
      "सीड": 6477,
      "ारने": 6478,
      "पील": 6479,
      "ावों": 6480,
      "पिटल": 6481,
      "बॉस": 6482,
      "मॉल": 6483,
      "neet": 6484,
      "ग्ध": 6485,
      "लैस": 6486,
      "िखा": 6487,
      "ca": 6488,
      "ईसी": 6489,
      "गवा": 6490,
      "ग्ल": 6491,
      "पमा": 6492,
      "शम": 6493,
      "हण": 6494,
      "केश": 6495,
      "रेण": 6496,
      "रेगा": 6497,
      "ेखक": 6498,
      "upda": 6499,
      "ir": 6500,
      "िपा": 6501,
      "्की": 6502,
      "्को": 6503,
      "चलन": 6504,
      "हरिय": 6505,
      "आईं": 6506,
      "भुगत": 6507,
      "रहेंग": 6508,
      "71": 6509,
      "कथ": 6510,
      "मक्": 6511,
      "सप्त": 6512,
      "ागी": 6513,
      "िल्": 6514,
      "ुहा": 6515,
      "ैव": 6516,
      "ौह": 6517,
      "्षण": 6518,
      "डिप्": 6519,
      "ाहि": 6520,
      "रैल": 6521,
      "िरफ": 6522,
      "ुर्ग": 6523,
      "गरि": 6524,
      "ांदी": 6525,
      "मेडि": 6526,
      "rt": 6527,
      "इच": 6528,
      "जया": 6529,
      "ठप": 6530,
      "यी": 6531,
      "ांध": 6532,
      "ीक्": 6533,
      "किस्त": 6534,
      "भीम": 6535,
      "र्चा": 6536,
      "रीम": 6537,
      "स्टी": 6538,
      "nav": 6539,
      "mu": 6540,
      "नमी": 6541,
      "ोर्": 6542,
      "सीआ": 6543,
      "ताते": 6544,
      "िकों": 6545,
      "्यर": 6546,
      "बची": 6547,
      "आलू": 6548,
      "asi": 6549,
      "cas": 6550,
      "po": 6551,
      "इयों": 6552,
      "खे": 6553,
      "खों": 6554,
      "बक": 6555,
      "वध": 6556,
      "शब": 6557,
      "ॉफ": 6558,
      "ोसा": 6559,
      "##ps": 6560,
      "नेग": 6561,
      "प्रभा": 6562,
      "कारो": 6563,
      "सुध": 6564,
      "नाए": 6565,
      "पिच": 6566,
      "कैप": 6567,
      "्रभार": 6568,
      "ipho": 6569,
      "76": 6570,
      "bi": 6571,
      "कड": 6572,
      "ड्रा": 6573,
      "पिक": 6574,
      "ृह": 6575,
      "ोदा": 6576,
      "आईपी": 6577,
      "्तु": 6578,
      "्मू": 6579,
      "is": 6580,
      "ोहा": 6581,
      "्वे": 6582,
      "##mc": 6583,
      "ंग्ल": 6584,
      "्वित": 6585,
      "नमन": 6586,
      "ex": 6587,
      "रदीप": 6588,
      "िटा": 6589,
      "्ही": 6590,
      "स्पी": 6591,
      "भीत": 6592,
      "हाे": 6593,
      "उपज": 6594,
      "वासिय": 6595,
      "कूद": 6596,
      "रॉय": 6597,
      "िणी": 6598,
      "07": 6599,
      "ीमा": 6600,
      "ुकी": 6601,
      "ोए": 6602,
      "ोटल": 6603,
      "##mp": 6604,
      "केल": 6605,
      "लोम": 6606,
      "यूथ": 6607,
      "मनु": 6608,
      "ष्क": 6609,
      "्लि": 6610,
      "लियो": 6611,
      "69": 6612,
      "63": 6613,
      "हवन": 6614,
      "ुका": 6615,
      "##ut": 6616,
      "##ga": 6617,
      "ादु": 6618,
      "ष्कर": 6619,
      "it": 6620,
      "tri": 6621,
      "गहन": 6622,
      "मृ": 6623,
      "राहा": 6624,
      "बाक": 6625,
      "लेगी": 6626,
      "बैन": 6627,
      "ंदि": 6628,
      "ंदु": 6629,
      "बढ़ी": 6630,
      "बचत": 6631,
      "र्दे": 6632,
      "ठेके": 6633,
      "73": 6634,
      "92": 6635,
      "do": 6636,
      "भास": 6637,
      "सना": 6638,
      "हारी": 6639,
      "ासि": 6640,
      "##du": 6641,
      "डीन": 6642,
      "जरि": 6643,
      "सैफ": 6644,
      "ेलन": 6645,
      "उमर": 6646,
      "डाक": 6647,
      "रंभ": 6648,
      "आवक": 6649,
      "शॉट": 6650,
      "िरफ्त": 6651,
      "dc": 6652,
      "ुस्त": 6653,
      "केव": 6654,
      "स्स": 6655,
      "ाखा": 6656,
      "imd": 6657,
      "ci": 6658,
      "हं": 6659,
      "िनेट": 6660,
      "ेटी": 6661,
      "सेल्": 6662,
      "बांग": 6663,
      "र्मा": 6664,
      "यादा": 6665,
      "ायप": 6666,
      "ाजम": 6667,
      "िरि": 6668,
      "modi": 6669,
      "app": 6670,
      "price": 6671,
      "mm": 6672,
      "man": 6673,
      "ण्": 6674,
      "तले": 6675,
      "नब": 6676,
      "पग": 6677,
      "पस्थ": 6678,
      "सटे": 6679,
      "ाहर": 6680,
      "##ck": 6681,
      "किय": 6682,
      "प्रथ": 6683,
      "महे": 6684,
      "ड़िया": 6685,
      "युग": 6686,
      "ावि": 6687,
      "सूत": 6688,
      "छठे": 6689,
      "##cci": 6690,
      "ैसला": 6691,
      "सेल्स": 6692,
      "04": 6693,
      "74": 6694,
      "sin": 6695,
      "wor": 6696,
      "टवा": 6697,
      "धूल": 6698,
      "भक्": 6699,
      "िंस": 6700,
      "##pa": 6701,
      "##ld": 6702,
      "स्कर": 6703,
      "्रित": 6704,
      "कुर": 6705,
      "लावा": 6706,
      "त्ये": 6707,
      "अरव": 6708,
      "छुट": 6709,
      "मले": 6710,
      "़त": 6711,
      "चुप": 6712,
      "गिरफ": 6713,
      "मील": 6714,
      "ार्य": 6715,
      "125": 6716,
      "icc": 6717,
      "us": 6718,
      "पक": 6719,
      "बित": 6720,
      "ाशि": 6721,
      "##ru": 6722,
      "रोस": 6723,
      "शेड": 6724,
      "एपल": 6725,
      "un": 6726,
      "कवि": 6727,
      "खू": 6728,
      "गढ": 6729,
      "टेशन": 6730,
      "बट": 6731,
      "रसी": 6732,
      "शू": 6733,
      "ैला": 6734,
      "##gp": 6735,
      "केशन": 6736,
      "समस": 6737,
      "ताव": 6738,
      "नीच": 6739,
      "िनार": 6740,
      "ाहु": 6741,
      "ल्ली": 6742,
      "िप्": 6743,
      "ापु": 6744,
      "##rat": 6745,
      "द्री": 6746,
      "##ala": 6747,
      "suv": 6748,
      "77": 6749,
      "83": 6750,
      "for": 6751,
      "rss": 6752,
      "ओव": 6753,
      "फिस": 6754,
      "रका": 6755,
      "ीटर": 6756,
      "ुंब": 6757,
      "स्ता": 6758,
      "मुन": 6759,
      "ायिक": 6760,
      "िलों": 6761,
      "न्हा": 6762,
      "जेई": 6763,
      "दौड़": 6764,
      "ाधिका": 6765,
      "जारो": 6766,
      "ke": 6767,
      "ंय": 6768,
      "ईन": 6769,
      "गदी": 6770,
      "जेट": 6771,
      "णन": 6772,
      "##up": 6773,
      "ालिक": 6774,
      "ड़की": 6775,
      "्टेट": 6776,
      "शेर": 6777,
      "भूख": 6778,
      "िगत": 6779,
      "ल्कि": 6780,
      "ंटे": 6781,
      "ंबो": 6782,
      "ram": 6783,
      "वॉक": 6784,
      "sho": 6785,
      "जॉन": 6786,
      "84": 6787,
      "es": 6788,
      "pan": 6789,
      "तभ": 6790,
      "यना": 6791,
      "षम": 6792,
      "हना": 6793,
      "##po": 6794,
      "सेठ": 6795,
      "दिर": 6796,
      "लेक्ट": 6797,
      "ताओ": 6798,
      "निर्ण": 6799,
      "जुआ": 6800,
      "नुमा": 6801,
      "रैक": 6802,
      "450": 6803,
      "pur": 6804,
      "so": 6805,
      "खां": 6806,
      "जूर": 6807,
      "टों": 6808,
      "तंग": 6809,
      "मकर": 6810,
      "सदी": 6811,
      "ीदा": 6812,
      "##es": 6813,
      "बोझ": 6814,
      "स्को": 6815,
      "अमल": 6816,
      "110": 6817,
      "श्क": 6818,
      "नॉन": 6819,
      "्वालि": 6820,
      "एआ": 6821,
      "डोर": 6822,
      "पों": 6823,
      "बसे": 6824,
      "मर्": 6825,
      "यकार": 6826,
      "ेने": 6827,
      "पीस": 6828,
      "ीरि": 6829,
      "िष्य": 6830,
      "da": 6831,
      "hin": 6832,
      "ja": 6833,
      "चीत": 6834,
      "टान": 6835,
      "रचा": 6836,
      "्दी": 6837,
      "राथ": 6838,
      "कुं": 6839,
      "माई": 6840,
      "जीप": 6841,
      "स्टो": 6842,
      "कहे": 6843,
      "िसक": 6844,
      "्ट्रा": 6845,
      "न्फ": 6846,
      "पदो": 6847,
      "भर्त": 6848,
      "ban": 6849,
      "yo": 6850,
      "अस्": 6851,
      "ईशा": 6852,
      "दिला": 6853,
      "नका": 6854,
      "##ca": 6855,
      "कीर": 6856,
      "ावनी": 6857,
      "भूम": 6858,
      "ाहौ": 6859,
      "हादस": 6860,
      "्पन": 6861,
      "लियों": 6862,
      "82": 6863,
      "aa": 6864,
      "kap": 6865,
      "एए": 6866,
      "थो": 6867,
      "दंड": 6868,
      "रजा": 6869,
      "रप्": 6870,
      "ॉस्": 6871,
      "ौक": 6872,
      "कील": 6873,
      "प्रब": 6874,
      "ित्य": 6875,
      "कैम": 6876,
      "यूक": 6877,
      "मोड़": 6878,
      "शनल": 6879,
      "ादन": 6880,
      "ोलिय": 6881,
      "्लाद": 6882,
      "्यार्": 6883,
      "93": 6884,
      "bu": 6885,
      "तनी": 6886,
      "यिक": 6887,
      "लना": 6888,
      "वड": 6889,
      "ुव": 6890,
      "्णा": 6891,
      "्किल": 6892,
      "कोह": 6893,
      "र्कि": 6894,
      "लाज": 6895,
      "पाव": 6896,
      "रूरी": 6897,
      "बुआ": 6898,
      "िश्त": 6899,
      "ाहे": 6900,
      "mah": 6901,
      "ाडा": 6902,
      "case": 6903,
      "88": 6904,
      "kh": 6905,
      "ओझ": 6906,
      "जुर": 6907,
      "नड": 6908,
      "##ter": 6909,
      "##pf": 6910,
      "्रत्य": 6911,
      "बैज": 6912,
      "जयप": 6913,
      "्यां": 6914,
      "नकल": 6915,
      "मधु": 6916,
      "गठबंध": 6917,
      "con": 6918,
      "चें": 6919,
      "चूक": 6920,
      "जड़": 6921,
      "िष्ठ": 6922,
      "ूनिय": 6923,
      "्ने": 6924,
      "##lo": 6925,
      "##wa": 6926,
      "वाजा": 6927,
      "ताई": 6928,
      "सरल": 6929,
      "बिजन": 6930,
      "जुन": 6931,
      "यूं": 6932,
      "डिं": 6933,
      "ीराम": 6934,
      "ीएफ": 6935,
      "मॉर्": 6936,
      "the": 6937,
      "09": 6938,
      "91": 6939,
      "aq": 6940,
      "han": 6941,
      "rbi": 6942,
      "ओला": 6943,
      "जप": 6944,
      "धवन": 6945,
      "म्य": 6946,
      "िम्म": 6947,
      "ुरे": 6948,
      "एकल": 6949,
      "हरिया": 6950,
      "फैसल": 6951,
      "िरक": 6952,
      "यरिंग": 6953,
      "आहत": 6954,
      "नगद": 6955,
      "शौक": 6956,
      "94": 6957,
      "lt": 6958,
      "ru": 6959,
      "tra": 6960,
      "एश": 6961,
      "जश": 6962,
      "टच": 6963,
      "तंब": 6964,
      "नये": 6965,
      "पच": 6966,
      "िसा": 6967,
      "##gi": 6968,
      "्रक्": 6969,
      "संर": 6970,
      "राजक": 6971,
      "सोर": 6972,
      "गात": 6973,
      "एलन": 6974,
      "्पो": 6975,
      "िंदग": 6976,
      "ेखन": 6977,
      "छठी": 6978,
      "रपोर": 6979,
      "ओझा": 6980,
      "op": 6981,
      "खपत": 6982,
      "चाने": 6983,
      "पेन": 6984,
      "रदान": 6985,
      "ाहा": 6986,
      "ुजा": 6987,
      "्हा": 6988,
      "लियर": 6989,
      "बैक": 6990,
      "पालिक": 6991,
      "वाहि": 6992,
      "वॉर": 6993,
      "वाएं": 6994,
      "चमक": 6995,
      "aqi": 6996,
      "sit": 6997,
      "ईटी": 6998,
      "उषा": 6999,
      "गें": 7000,
      "चक्": 7001,
      "ाकी": 7002,
      "िटर": 7003,
      "ुवा": 7004,
      "ौश": 7005,
      "्वी": 7006,
      "##sf": 7007,
      "सैम": 7008,
      "नियों": 7009,
      "ार्यव": 7010,
      "nce": 7011,
      "ंद्": 7012,
      "वरी": 7013,
      "हुल": 7014,
      "मुद्": 7015,
      "समन": 7016,
      "सुं": 7017,
      "ियु": 7018,
      "जीन": 7019,
      "आजम": 7020,
      "पैन": 7021,
      "उत्स": 7022,
      "ंट्र": 7023,
      "्नर": 7024,
      "kapo": 7025,
      "96": 7026,
      "ic": 7027,
      "pi": 7028,
      "ty": 7029,
      "धवा": 7030,
      "पचा": 7031,
      "ब्त": 7032,
      "याय": 7033,
      "़े": 7034,
      "ैंग": 7035,
      "्के": 7036,
      "##ms": 7037,
      "##bc": 7038,
      "्रेम": 7039,
      "सिट": 7040,
      "सुप": 7041,
      "सून": 7042,
      "ीडिय": 7043,
      "लड़ा": 7044,
      "र्षि": 7045,
      "टैग": 7046,
      "180": 7047,
      "थापन": 7048,
      "आदत": 7049,
      "live": 7050,
      "आड़": 7051,
      "कसर": 7052,
      "लदार": 7053,
      "िथि": 7054,
      "ीई": 7055,
      "ूबर": 7056,
      "ोस्त": 7057,
      "##ki": 7058,
      "रिच": 7059,
      "्ये": 7060,
      "मौस": 7061,
      "एनए": 7062,
      "ीसदी": 7063,
      "पंचा": 7064,
      "ips": 7065,
      "शॉप": 7066,
      "ुसार": 7067,
      "79": 7068,
      "ऊं": 7069,
      "जव": 7070,
      "णों": 7071,
      "दव": 7072,
      "पिय": 7073,
      "भगा": 7074,
      "सगे": 7075,
      "ौं": 7076,
      "##lhi": 7077,
      "##ji": 7078,
      "्रेश": 7079,
      "वाच": 7080,
      "ंदो": 7081,
      "ाईक": 7082,
      "ामू": 7083,
      "खाया": 7084,
      "delhi": 7085,
      "संरक्": 7086,
      "98": 7087,
      "97": 7088,
      "car": 7089,
      "ect": 7090,
      "mb": 7091,
      "कबर": 7092,
      "घने": 7093,
      "िं": 7094,
      "िबंध": 7095,
      "ौहा": 7096,
      "##mar": 7097,
      "किट": 7098,
      "जाह": 7099,
      "कारों": 7100,
      "्यून": 7101,
      "ार्म": 7102,
      "फैक": 7103,
      "ंधन": 7104,
      "स्वाम": 7105,
      "poli": 7106,
      "खेप": 7107,
      "fa": 7108,
      "id": 7109,
      "आफ": 7110,
      "धि": 7111,
      "लट": 7112,
      "##co": 7113,
      "लेगा": 7114,
      "सीख": 7115,
      "गाते": 7116,
      "ामे": 7117,
      "ेशी": 7118,
      "श्चि": 7119,
      "160": 7120,
      "धूम": 7121,
      "अंबा": 7122,
      "##oll": 7123,
      "shar": 7124,
      "ii": 7125,
      "io": 7126,
      "ur": 7127,
      "vrat": 7128,
      "ऋचा": 7129,
      "एग": 7130,
      "बरी": 7131,
      "भन": 7132,
      "म्र": 7133,
      "हड": 7134,
      "ीकी": 7135,
      "##do": 7136,
      "केक": 7137,
      "विधा": 7138,
      "स्टॉ": 7139,
      "आये": 7140,
      "िसं": 7141,
      "उठे": 7142,
      "ासिय": 7143,
      "हॉट": 7144,
      "रॉड": 7145,
      "gov": 7146,
      "ho": 7147,
      "pho": 7148,
      "ंटा": 7149,
      "एके": 7150,
      "गदा": 7151,
      "ट्य": 7152,
      "टमा": 7153,
      "थार": 7154,
      "निस": 7155,
      "नास": 7156,
      "बसा": 7157,
      "हंस": 7158,
      "ादेश": 7159,
      "ुद": 7160,
      "ूजा": 7161,
      "ेजन": 7162,
      "ोमा": 7163,
      "##ee": 7164,
      "विक": 7165,
      "लेक": 7166,
      "सीर": 7167,
      "द्दा": 7168,
      "ग्रेस": 7169,
      "बोस": 7170,
      "एवज": 7171,
      "ाहू": 7172,
      "भगवा": 7173,
      "हाईक": 7174,
      "ुनिया": 7175,
      "चरम": 7176,
      "ऑपरे": 7177,
      "offi": 7178,
      "box": 7179,
      "singh": 7180,
      "87": 7181,
      "dm": 7182,
      "par": 7183,
      "war": 7184,
      "उमा": 7185,
      "डमी": 7186,
      "थोक": 7187,
      "फूट": 7188,
      "मूर": 7189,
      "सड़": 7190,
      "िरोध": 7191,
      "ूष": 7192,
      "ोका": 7193,
      "##ge": 7194,
      "##wi": 7195,
      "साद": 7196,
      "लेक्": 7197,
      "पूल": 7198,
      "ालत": 7199,
      "मेद": 7200,
      "द्दी": 7201,
      "जिसमे": 7202,
      "्टि": 7203,
      "भूष": 7204,
      "स्पत": 7205,
      "र्मि": 7206,
      "नमक": 7207,
      "्लाइ": 7208,
      "खौ": 7209,
      "फट": 7210,
      "ल्म": 7211,
      "हर्": 7212,
      "संचा": 7213,
      "नाट": 7214,
      "ट्रेस": 7215,
      "वेव": 7216,
      "तिवार": 7217,
      "ोनो": 7218,
      "sam": 7219,
      "तर्गत": 7220,
      "खौफ": 7221,
      "अक": 7222,
      "चर्": 7223,
      "जगर": 7224,
      "मठ": 7225,
      "ाढ": 7226,
      "ैफ": 7227,
      "्पर": 7228,
      "##ेद": 7229,
      "##pur": 7230,
      "सेफ": 7231,
      "डीग": 7232,
      "फिल्": 7233,
      "ेटे": 7234,
      "शीट": 7235,
      "140": 7236,
      "िरदा": 7237,
      "पॉल": 7238,
      "dsp": 7239,
      "ढोल": 7240,
      "नं": 7241,
      "रते": 7242,
      "ुशी": 7243,
      "ृष": 7244,
      "ियोजन": 7245,
      "तिह": 7246,
      "िसके": 7247,
      "कृष": 7248,
      "त्प": 7249,
      "म्मा": 7250,
      "ापि": 7251,
      "िस्ता": 7252,
      "maha": 7253,
      "ूचि": 7254,
      "du": 7255,
      "ku": 7256,
      "pet": 7257,
      "इय": 7258,
      "ईपी": 7259,
      "कटा": 7260,
      "डस्ट": 7261,
      "यमि": 7262,
      "हें": 7263,
      "ीक्षा": 7264,
      "ुट्": 7265,
      "ूव": 7266,
      "्का": 7267,
      "्मान": 7268,
      "परे": 7269,
      "लाध": 7270,
      "महू": 7271,
      "ार्थि": 7272,
      "फोर्": 7273,
      "्पि": 7274,
      "ंकल": 7275,
      "900": 7276,
      "ललन": 7277,
      "apple": 7278,
      "be": 7279,
      "fe": 7280,
      "अना": 7281,
      "औच": 7282,
      "गवान": 7283,
      "डार": 7284,
      "णु": 7285,
      "लदा": 7286,
      "सई": 7287,
      "िजी": 7288,
      "##mu": 7289,
      "##dp": 7290,
      "पीक": 7291,
      "मैस": 7292,
      "दिल्": 7293,
      "ंडित": 7294,
      "ढ़त": 7295,
      "र्टि": 7296,
      "सपो": 7297,
      "मची": 7298,
      "किनार": 7299,
      "indo": 7300,
      "ाकिस्": 7301,
      "world": 7302,
      "भनक": 7303,
      "औचक": 7304,
      "08": 7305,
      "86": 7306,
      "air": 7307,
      "fi": 7308,
      "ईवी": 7309,
      "नून": 7310,
      "ब्य": 7311,
      "रजे": 7312,
      "िदा": 7313,
      "्मा": 7314,
      "##ft": 7315,
      "##20": 7316,
      "स्वर": 7317,
      "रोत": 7318,
      "रामद": 7319,
      "जीतन": 7320,
      "्यावर": 7321,
      "अलाव": 7322,
      "शंका": 7323,
      "िंदू": 7324,
      "ोतवाल": 7325,
      "share": 7326,
      "धीक्ष": 7327,
      "89": 7328,
      "ak": 7329,
      "bho": 7330,
      "nh": 7331,
      "ssp": 7332,
      "ऊँ": 7333,
      "खत": 7334,
      "मऊ": 7335,
      "लं": 7336,
      "ीरी": 7337,
      "ुष्": 7338,
      "##rf": 7339,
      "##to": 7340,
      "##बन": 7341,
      "##ci": 7342,
      "प्रभ": 7343,
      "याव": 7344,
      "बेन": 7345,
      "्टन": 7346,
      "डेड": 7347,
      "धुन": 7348,
      "्राव": 7349,
      "stf": 7350,
      "जिम्": 7351,
      "one": 7352,
      "dha": 7353,
      "san": 7354,
      "ईड": 7355,
      "उद्द": 7356,
      "बला": 7357,
      "यलो": 7358,
      "लटक": 7359,
      "वद": 7360,
      "शिका": 7361,
      "िकेश": 7362,
      "क्षता": 7363,
      "गुड": 7364,
      "्रीव": 7365,
      "्लॉ": 7366,
      "ांची": 7367,
      "ैसले": 7368,
      "qu": 7369,
      "ww": 7370,
      "wal": 7371,
      "ऑर्": 7372,
      "तां": 7373,
      "यज": 7374,
      "षी": 7375,
      "िकेट": 7376,
      "ौस": 7377,
      "नाओं": 7378,
      "रोट": 7379,
      "महत्": 7380,
      "ड़के": 7381,
      "ग्रव": 7382,
      "ाइफ": 7383,
      "मीड": 7384,
      "सहज": 7385,
      "्यूटी": 7386,
      "ौरव": 7387,
      "गरज": 7388,
      "ेबस": 7389,
      "ोषित": 7390,
      "रप्र": 7391,
      "dies": 7392,
      "petro": 7393,
      "ug": 7394,
      "घटी": 7395,
      "दमा": 7396,
      "मका": 7397,
      "मग्": 7398,
      "रत्": 7399,
      "हिए": 7400,
      "़न": 7401,
      "ीते": 7402,
      "्जा": 7403,
      "्पा": 7404,
      "परी": 7405,
      "भील": 7406,
      "्रे": 7407,
      "सुस": 7408,
      "ताे": 7409,
      "मौज": 7410,
      "सकल": 7411,
      "एसआ": 7412,
      "लगाता": 7413,
      "्मल": 7414,
      "ोखा": 7415,
      "650": 7416,
      "ncp": 7417,
      "sdm": 7418,
      "plus": 7419,
      "ंट्री": 7420,
      "ुष्क": 7421,
      "bcci": 7422,
      "cr": 7423,
      "coll": 7424,
      "dr": 7425,
      "ji": 7426,
      "rcb": 7427,
      "t20": 7428,
      "आला": 7429,
      "घना": 7430,
      "घास": 7431,
      "वुड": 7432,
      "साई": 7433,
      "क्सल": 7434,
      "ानो": 7435,
      "दस्ता": 7436,
      "hindi": 7437,
      "aaj": 7438,
      "ha": 7439,
      "km": 7440,
      "गट": 7441,
      "रबी": 7442,
      "शटर": 7443,
      "ागा": 7444,
      "िवर": 7445,
      "ीचे": 7446,
      "ुमार": 7447,
      "ुर्म": 7448,
      "ुल्क": 7449,
      "्वार": 7450,
      "मुल": 7451,
      "ालों": 7452,
      "क्ष्म": 7453,
      "रामप": 7454,
      "मानन": 7455,
      "खाक": 7456,
      "चैक": 7457,
      "##ata": 7458,
      "upsc": 7459,
      "टखट": 7460,
      "बटन": 7461,
      "panc": 7462,
      "ay": 7463,
      "aut": 7464,
      "bhu": 7465,
      "अवर": 7466,
      "आदी": 7467,
      "ऋत": 7468,
      "छोर": 7469,
      "##od": 7470,
      "प्रसा": 7471,
      "विच": 7472,
      "्रष्ट": 7473,
      "मौन": 7474,
      "हमे": 7475,
      "हाड": 7476,
      "वर्ल्": 7477,
      "गाकर": 7478,
      "िसान": 7479,
      "ेडि": 7480,
      "पलक": 7481,
      "्तों": 7482,
      "##day": 7483,
      "today": 7484,
      "sal": 7485,
      "खीर": 7486,
      "दफ": 7487,
      "नें": 7488,
      "सती": 7489,
      "िधान": 7490,
      "करम": 7491,
      "राओं": 7492,
      "माँ": 7493,
      "ड़ल": 7494,
      "लगन": 7495,
      "यूर": 7496,
      "101": 7497,
      "ंडिया": 7498,
      "ंचा": 7499,
      "शीर": 7500,
      "कप्": 7501,
      "240": 7502,
      "सर्ज": 7503,
      "द्रो": 7504,
      "रची": 7505,
      "obc": 7506,
      "wi": 7507,
      "गबन": 7508,
      "घोर": 7509,
      "डरा": 7510,
      "तस": 7511,
      "नभ": 7512,
      "मम": 7513,
      "रक्ष": 7514,
      "रिका": 7515,
      "ाजे": 7516,
      "ापर": 7517,
      "्ली": 7518,
      "्जन": 7519,
      "##हल": 7520,
      "हुत": 7521,
      "चुक": 7522,
      "क्षे": 7523,
      "मेष": 7524,
      "दुआ": 7525,
      "नवल": 7526,
      "चैन": 7527,
      "raj": 7528,
      "धीश": 7529,
      "evm": 7530,
      "शौच": 7531,
      "मुलाक": 7532,
      "िखाया": 7533,
      "िल्ली": 7534,
      "ama": 7535,
      "ईक": 7536,
      "घटक": 7537,
      "जने": 7538,
      "डरे": 7539,
      "नूर": 7540,
      "वाम": 7541,
      "ूरे": 7542,
      "##गन": 7543,
      "##्ञ": 7544,
      "रां": 7545,
      "सुभ": 7546,
      "हरों": 7547,
      "िलि": 7548,
      "मिड": 7549,
      "्याल": 7550,
      "ढ़क": 7551,
      "ोरि": 7552,
      "क्यो": 7553,
      "चैट": 7554,
      "नमो": 7555,
      "विज्ञ": 7556,
      "resu": 7557,
      "रवाही": 7558,
      "ऋतु": 7559,
      "cp": 7560,
      "jan": 7561,
      "kg": 7562,
      "pre": 7563,
      "rj": 7564,
      "tv": 7565,
      "way": 7566,
      "आओ": 7567,
      "खेर": 7568,
      "शमी": 7569,
      "ोजि": 7570,
      "##psc": 7571,
      "कोष": 7572,
      "सिस्": 7573,
      "राजग": 7574,
      "राज्": 7575,
      "ियाना": 7576,
      "यूट": 7577,
      "उपय": 7578,
      "नुक": 7579,
      "म्मेद": 7580,
      "बल्ले": 7581,
      "130": 7582,
      "nta": 7583,
      "bha": 7584,
      "pal": 7585,
      "ran": 7586,
      "ver": 7587,
      "खैर": 7588,
      "चेज": 7589,
      "फेक": 7590,
      "बढ": 7591,
      "मजा": 7592,
      "मिका": 7593,
      "याना": 7594,
      "रवर": 7595,
      "सप्": 7596,
      "ुमा": 7597,
      "ूनी": 7598,
      "बाप": 7599,
      "मेत": 7600,
      "िसकी": 7601,
      "देंग": 7602,
      "त्रिय": 7603,
      "ागो": 7604,
      "ंध्": 7605,
      "bud": 7606,
      "hor": 7607,
      "sk": 7608,
      "tmc": 7609,
      "एटा": 7610,
      "कहर": 7611,
      "टमें": 7612,
      "टलर": 7613,
      "दख": 7614,
      "पर्क": 7615,
      "ासी": 7616,
      "ार्व": 7617,
      "्ग": 7618,
      "##el": 7619,
      "##ke": 7620,
      "नेत": 7621,
      "राजस्": 7622,
      "रेक्ट": 7623,
      "नाकर": 7624,
      "गाए": 7625,
      "बच्": 7626,
      "105": 7627,
      "धनु": 7628,
      "ाताओं": 7629,
      "्मच": 7630,
      "रजक": 7631,
      "कदर": 7632,
      "chat": 7633,
      "टमेंट": 7634,
      "by": 7635,
      "son": 7636,
      "ter": 7637,
      "ut": 7638,
      "ंटर": 7639,
      "ंजीव": 7640,
      "जली": 7641,
      "पड": 7642,
      "पढ": 7643,
      "बय": 7644,
      "रपा": 7645,
      "िली": 7646,
      "ुष्प": 7647,
      "्बा": 7648,
      "विष्": 7649,
      "रिप": 7650,
      "जोध": 7651,
      "बिह": 7652,
      "हिरा": 7653,
      "दात": 7654,
      "बलि": 7655,
      "इंटरन": 7656,
      "िस्से": 7657,
      "##old": 7658,
      "िषे": 7659,
      "ct": 7660,
      "gra": 7661,
      "ंती": 7662,
      "अड़": 7663,
      "अंड": 7664,
      "तिव": 7665,
      "भला": 7666,
      "भटक": 7667,
      "रनी": 7668,
      "़ा": 7669,
      "##ौज": 7670,
      "करत": 7671,
      "दोन": 7672,
      "िकित": 7673,
      "ारि": 7674,
      "िसका": 7675,
      "त्का": 7676,
      "ढ़ाई": 7677,
      "िएशन": 7678,
      "छापे": 7679,
      "रपत": 7680,
      "sup": 7681,
      "ियुक्": 7682,
      "दखल": 7683,
      "cb": 7684,
      "gle": 7685,
      "mla": 7686,
      "nar": 7687,
      "tu": 7688,
      "उध": 7689,
      "टप": 7690,
      "ढह": 7691,
      "दही": 7692,
      "मब": 7693,
      "वचन": 7694,
      "ाबू": 7695,
      "ीमार": 7696,
      "ुंदर": 7697,
      "##vo": 7698,
      "हैक": 7699,
      "साग": 7700,
      "संपत": 7701,
      "रिवर": 7702,
      "िकता": 7703,
      "ारिक": 7704,
      "मौक": 7705,
      "नीम": 7706,
      "तरण": 7707,
      "जगन": 7708,
      "राहु": 7709,
      "टरन": 7710,
      "उम्": 7711,
      "220": 7712,
      "मंे": 7713,
      "ोकन": 7714,
      "कलाक": 7715,
      "nia": 7716,
      "chu": 7717,
      "मीडि": 7718,
      "bsf": 7719,
      "date": 7720,
      "ko": 7721,
      "min": 7722,
      "ईको": 7723,
      "जस्ट": 7724,
      "जफर": 7725,
      "झेल": 7726,
      "मड": 7727,
      "मंत": 7728,
      "रड": 7729,
      "लला": 7730,
      "ाक्": 7731,
      "िमान": 7732,
      "ित्त": 7733,
      "ॉक्": 7734,
      "##घन": 7735,
      "होन": 7736,
      "्रद": 7737,
      "्रश": 7738,
      "बीब": 7739,
      "ट्रे": 7740,
      "अबू": 7741,
      "सूट": 7742,
      "ीडि": 7743,
      "103": 7744,
      "सैर": 7745,
      "ल्द": 7746,
      "बॉय": 7747,
      "144": 7748,
      "ोलक": 7749,
      "ाबला": 7750,
      "ceo": 7751,
      "प्रिं": 7752,
      "puja": 7753,
      "caa": 7754,
      "www": 7755,
      "सप्ला": 7756,
      "as": 7757,
      "htt": 7758,
      "mand": 7759,
      "असद": 7760,
      "ईआर": 7761,
      "नपा": 7762,
      "फौज": 7763,
      "मियो": 7764,
      "रछ": 7765,
      "लद": 7766,
      "वसर": 7767,
      "सघन": 7768,
      "हानी": 7769,
      "हल्ल": 7770,
      "ाछ": 7771,
      "ूथ": 7772,
      "##pc": 7773,
      "##za": 7774,
      "भीर": 7775,
      "भीख": 7776,
      "ताए": 7777,
      "हाट": 7778,
      "पाध": 7779,
      "निर्म": 7780,
      "स्तो": 7781,
      "मानो": 7782,
      "ंचकर": 7783,
      "ासव": 7784,
      "रैम": 7785,
      "रोहि": 7786,
      "हराय": 7787,
      "टनल": 7788,
      "हनत": 7789,
      "ोटि": 7790,
      "rahu": 7791,
      "वॉल": 7792,
      "real": 7793,
      "ाखों": 7794,
      "cour": 7795,
      "शयन": 7796,
      "csk": 7797,
      "cji": 7798,
      "nm": 7799,
      "ott": 7800,
      "va": 7801,
      "खरे": 7802,
      "टाने": 7803,
      "तानी": 7804,
      "थमा": 7805,
      "पाय": 7806,
      "मकी": 7807,
      "रसि": 7808,
      "हैड": 7809,
      "टीआ": 7810,
      "अगस्": 7811,
      "121": 7812,
      "ीतने": 7813,
      "ुलाय": 7814,
      "eka": 7815,
      "mal": 7816,
      "sbi": 7817,
      "ईय": 7818,
      "गगन": 7819,
      "टफ": 7820,
      "तूल": 7821,
      "यंग": 7822,
      "वम": 7823,
      "शीत": 7824,
      "ुपा": 7825,
      "ोग्र": 7826,
      "##mo": 7827,
      "##ia": 7828,
      "प्रख": 7829,
      "बास": 7830,
      "हुं": 7831,
      "निवा": 7832,
      "ालन": 7833,
      "बैड": 7834,
      "चलो": 7835,
      "पैड": 7836,
      "पत्न": 7837,
      "िन्न": 7838,
      "ामां": 7839,
      "अंश": 7840,
      "िगरा": 7841,
      "चिप": 7842,
      "चीख": 7843,
      "रम्": 7844,
      "नोज": 7845,
      "लभर": 7846,
      "mahi": 7847,
      "750": 7848,
      "सतत": 7849,
      "goo": 7850,
      "navra": 7851,
      "िप्प": 7852,
      "court": 7853,
      "ekada": 7854,
      "ोग्रा": 7855,
      "ck": 7856,
      "cup": 7857,
      "ga": 7858,
      "gst": 7859,
      "hy": 7860,
      "ia": 7861,
      "om": 7862,
      "sr": 7863,
      "ंदेश": 7864,
      "आगर": 7865,
      "इको": 7866,
      "जले": 7867,
      "मढ़": 7868,
      "लबल": 7869,
      "वय": 7870,
      "वामी": 7871,
      "ुत्": 7872,
      "्दा": 7873,
      "##dhi": 7874,
      "##ly": 7875,
      "##vp": 7876,
      "परवा": 7877,
      "इसक": 7878,
      "्रिय": 7879,
      "र्वे": 7880,
      "ानव": 7881,
      "ग्रा": 7882,
      "डॉन": 7883,
      "पैट": 7884,
      "िसन": 7885,
      "आरए": 7886,
      "115": 7887,
      "ुनव": 7888,
      "135": 7889,
      "निश्च": 7890,
      "सतह": 7891,
      "shah": 7892,
      "िर्द": 7893,
      "dcp": 7894,
      "सईद": 7895,
      "परवाह": 7896,
      "cn": 7897,
      "gand": 7898,
      "gala": 7899,
      "hang": 7900,
      "iit": 7901,
      "jo": 7902,
      "jjp": 7903,
      "ly": 7904,
      "mg": 7905,
      "ऑस्": 7906,
      "जत": 7907,
      "टकर": 7908,
      "ठेस": 7909,
      "डस": 7910,
      "डिश": 7911,
      "नों": 7912,
      "मों": 7913,
      "यि": 7914,
      "लने": 7915,
      "़ों": 7916,
      "ीणा": 7917,
      "ूजन": 7918,
      "ेत्": 7919,
      "##bh": 7920,
      "##sg": 7921,
      "इसरा": 7922,
      "ेंक": 7923,
      "हम्म": 7924,
      "मोबा": 7925,
      "रमि": 7926,
      "मॉक": 7927,
      "ीपु": 7928,
      "raja": 7929,
      "कवच": 7930,
      "led": 7931,
      "kumar": 7932,
      "दोनो": 7933,
      "rahul": 7934,
      "ass": 7935,
      "ew": 7936,
      "gan": 7937,
      "my": 7938,
      "rr": 7939,
      "xy": 7940,
      "ंर": 7941,
      "अटक": 7942,
      "कन्": 7943,
      "दड़": 7944,
      "धुत": 7945,
      "पय": 7946,
      "फेम": 7947,
      "बोट": 7948,
      "भड़क": 7949,
      "मरे": 7950,
      "मूड": 7951,
      "लकी": 7952,
      "शिश": 7953,
      "हिला": 7954,
      "्ण": 7955,
      "्तन": 7956,
      "##ed": 7957,
      "##fc": 7958,
      "राष्": 7959,
      "रिस्": 7960,
      "मैप": 7961,
      "हाफ": 7962,
      "मोर्": 7963,
      "102": 7964,
      "घाव": 7965,
      "िफा": 7966,
      "रैन": 7967,
      "िरं": 7968,
      "175": 7969,
      "170": 7970,
      "rat": 7971,
      "shta": 7972,
      "dev": 7973,
      "nti": 7974,
      "रबत": 7975,
      "उलट": 7976,
      "gora": 7977,
      "pak": 7978,
      "kia": 7979,
      "्रयो": 7980,
      "khpur": 7981,
      "asp": 7982,
      "bn": 7983,
      "bhar": 7984,
      "dgp": 7985,
      "gold": 7986,
      "nat": 7987,
      "rd": 7988,
      "who": 7989,
      "छे": 7990,
      "णाम": 7991,
      "मस्त": 7992,
      "यव": 7993,
      "िद्ध": 7994,
      "ौड": 7995,
      "##ims": 7996,
      "##kh": 7997,
      "परिय": 7998,
      "र्वि": 7999,
      "हीं": 8000,
      "ेंश": 8001,
      "बैट": 8002,
      "सहम": 8003,
      "106": 8004,
      "ामप": 8005,
      "ष्टा": 8006,
      "पटक": 8007,
      "डेथ": 8008,
      "टॉम": 8009,
      "210": 8010,
      "वानों": 8011,
      "stan": 8012,
      "ana": 8013,
      "acb": 8014,
      "maru": 8015,
      "्पिट": 8016,
      "..": 8017,
      "au": 8018,
      "tter": 8019,
      "uni": 8020,
      "आनी": 8021,
      "ईब": 8022,
      "कफ": 8023,
      "जिक": 8024,
      "पते": 8025,
      "पका": 8026,
      "वस्त": 8027,
      "सता": 8028,
      "्फ्": 8029,
      "##mm": 8030,
      "कित": 8031,
      "मुश्": 8032,
      "ेंटर": 8033,
      "ियस": 8034,
      "ड़ि": 8035,
      "पाप": 8036,
      "कैब": 8037,
      "गाया": 8038,
      "वीड": 8039,
      "जैक": 8040,
      "बुच": 8041,
      "अचल": 8042,
      "116": 8043,
      "लॉस": 8044,
      "ाकों": 8045,
      "कानो": 8046,
      "आशु": 8047,
      "net": 8048,
      "मूर्त": 8049,
      "ुझे": 8050,
      "##ath": 8051,
      "##ina": 8052,
      "ोबार": 8053,
      "िलेश": 8054,
      "अतः": 8055,
      "salma": 8056,
      "https": 8057,
      "ge": 8058,
      "il": 8059,
      "ig": 8060,
      "os": 8061,
      "pay": 8062,
      "twi": 8063,
      "ऐड": 8064,
      "जहा": 8065,
      "ढक": 8066,
      "नकार": 8067,
      "रवन": 8068,
      "रवरी": 8069,
      "हले": 8070,
      "ीबा": 8071,
      "ैके": 8072,
      "##be": 8073,
      "##lu": 8074,
      "##sl": 8075,
      "##वई": 8076,
      "##jay": 8077,
      "कात": 8078,
      "्रेल": 8079,
      "ताह": 8080,
      "कमे": 8081,
      "तिमा": 8082,
      "चाहत": 8083,
      "ाएंग": 8084,
      "111": 8085,
      "ुरुष": 8086,
      "138": 8087,
      "गार्": 8088,
      "इंतज": 8089,
      "ाइनल": 8090,
      "मोहल": 8091,
      "sthan": 8092,
      "##ree": 8093,
      "तिशत": 8094,
      "ric": 8095,
      "prade": 8096,
      "कथन": 8097,
      "हम्मद": 8098,
      "ag": 8099,
      "cho": 8100,
      "eo": 8101,
      "hd": 8102,
      "val": 8103,
      "खर्": 8104,
      "घटा": 8105,
      "नसून": 8106,
      "शरा": 8107,
      "ुभ": 8108,
      "ुता": 8109,
      "ुप्त": 8110,
      "ुप्": 8111,
      "जाब": 8112,
      "साक": 8113,
      "भीष": 8114,
      "संख": 8115,
      "पूज": 8116,
      "ानगर": 8117,
      "पीर": 8118,
      "टीव": 8119,
      "लगान": 8120,
      "ग्रस": 8121,
      "सूल": 8122,
      "गुम": 8123,
      "युवत": 8124,
      "ेशक": 8125,
      "मदर": 8126,
      "अभ्य": 8127,
      "कलह": 8128,
      "कटे": 8129,
      "ुलि": 8130,
      "सलम": 8131,
      "जूस": 8132,
      "गजब": 8133,
      "घूस": 8134,
      "रवाह": 8135,
      "सोमव": 8136,
      "aiims": 8137,
      "ूपे": 8138,
      "bank": 8139,
      "mini": 8140,
      "ada": 8141,
      "gt": 8142,
      "gro": 8143,
      "kk": 8144,
      "ll": 8145,
      "ph": 8146,
      "wa": 8147,
      "चहल": 8148,
      "डंप": 8149,
      "थिक": 8150,
      "नको": 8151,
      "बजा": 8152,
      "ल्य": 8153,
      "लंच": 8154,
      "सत्त": 8155,
      "##tc": 8156,
      "##tra": 8157,
      "राप": 8158,
      "्रत": 8159,
      "ियोग": 8160,
      "ताय": 8161,
      "ताऊ": 8162,
      "पाइ": 8163,
      "जन्": 8164,
      "कैफ": 8165,
      "सहन": 8166,
      "छाई": 8167,
      "चारि": 8168,
      "कॉलेज": 8169,
      "क्राइ": 8170,
      "आरओ": 8171,
      "दाे": 8172,
      "घात": 8173,
      "ापित": 8174,
      "ुनक": 8175,
      "िरन": 8176,
      "फीसद": 8177,
      "##ara": 8178,
      "वासन": 8179,
      "्मो": 8180,
      "सखी": 8181,
      "shpa": 8182,
      "ुझा": 8183,
      "दबे": 8184,
      "ipo": 8185,
      "ननद": 8186,
      "िज्ञा": 8187,
      "prado": 8188,
      "mark": 8189,
      "play": 8190,
      "cal": 8191,
      "fo": 8192,
      "gn": 8193,
      "ny": 8194,
      "ser": 8195,
      "tt": 8196,
      "tata": 8197,
      "ंट्स": 8198,
      "कनी": 8199,
      "गिय": 8200,
      "ग्ज": 8201,
      "घल": 8202,
      "छता": 8203,
      "तग": 8204,
      "दक्ष": 8205,
      "रदात": 8206,
      "वरा": 8207,
      "ाधान": 8208,
      "ुदा": 8209,
      "ेंद": 8210,
      "##dd": 8211,
      "##cs": 8212,
      "नेक्": 8213,
      "कांग": 8214,
      "जाओ": 8215,
      "लिस": 8216,
      "लाड़": 8217,
      "ालु": 8218,
      "तीफ": 8219,
      "ाइबर": 8220,
      "उठी": 8221,
      "िग्र": 8222,
      "ांग्ल": 8223,
      "िट्ट": 8224,
      "230": 8225,
      "आनन": 8226,
      "repo": 8227,
      "कूच": 8228,
      "##ill": 8229,
      "ence": 8230,
      "samsu": 8231,
      "budg": 8232,
      "...": 8233,
      "संख्": 8234,
      "ben": 8235,
      "cy": 8236,
      "cri": 8237,
      "nb": 8238,
      "sgp": 8239,
      "tdp": 8240,
      "एपी": 8241,
      "ओवल": 8242,
      "कटर": 8243,
      "ग़": 8244,
      "टैंड": 8245,
      "धरी": 8246,
      "्क्": 8247,
      "्द्र": 8248,
      "##ak": 8249,
      "##dc": 8250,
      "लिव": 8251,
      "लेग": 8252,
      "क्श": 8253,
      "रिवा": 8254,
      "्यत": 8255,
      "हाक": 8256,
      "सूद": 8257,
      "सोई": 8258,
      "104": 8259,
      "ंचने": 8260,
      "ामल": 8261,
      "रियो": 8262,
      "बच्चो": 8263,
      "अच्": 8264,
      "डाला": 8265,
      "रैफ": 8266,
      "फलता": 8267,
      "वॉच": 8268,
      "ाबले": 8269,
      "्ट्री": 8270,
      "ster": 8271,
      "शॉल": 8272,
      "उलझ": 8273,
      "मगध": 8274,
      "bang": 8275,
      "chi": 8276,
      "hol": 8277,
      "iya": 8278,
      "ju": 8279,
      "lsg": 8280,
      "ml": 8281,
      "tha": 8282,
      "आश्": 8283,
      "औऱ": 8284,
      "कण": 8285,
      "कतर": 8286,
      "डेम": 8287,
      "धक": 8288,
      "नां": 8289,
      "लकर": 8290,
      "सरी": 8291,
      "ाको": 8292,
      "ौका": 8293,
      "##mch": 8294,
      "##rp": 8295,
      "परत": 8296,
      "बाइ": 8297,
      "दिय": 8298,
      "रहल": 8299,
      "माघ": 8300,
      "ारियो": 8301,
      "महम": 8302,
      "कैट": 8303,
      "लियां": 8304,
      "आईआर": 8305,
      "दुल": 8306,
      "पोज": 8307,
      "ायस": 8308,
      "परिण": 8309,
      "107": 8310,
      "114": 8311,
      "118": 8312,
      "श्ते": 8313,
      "गैप": 8314,
      "जम्": 8315,
      "134": 8316,
      "एंट्र": 8317,
      "रोजगा": 8318,
      "गरम": 8319,
      "state": 8320,
      "##aya": 8321,
      "ani": 8322,
      "360": 8323,
      "##ord": 8324,
      "ऑनर": 8325,
      "moto": 8326,
      "्लेट": 8327,
      "sen": 8328,
      "purni": 8329,
      "ios": 8330,
      "लदे": 8331,
      "af": 8332,
      "acci": 8333,
      "bad": 8334,
      "edi": 8335,
      "hz": 8336,
      "kal": 8337,
      "msp": 8338,
      "ry": 8339,
      "sya": 8340,
      "ve": 8341,
      "wo": 8342,
      "आबा": 8343,
      "एबी": 8344,
      "चप": 8345,
      "चारी": 8346,
      "पाम": 8347,
      "पतन": 8348,
      "मछ": 8349,
      "यबर": 8350,
      "षड": 8351,
      "सपुर": 8352,
      "सजी": 8353,
      "ाहन": 8354,
      "ोनि": 8355,
      "##ida": 8356,
      "##़र": 8357,
      "##्रव": 8358,
      "करान": 8359,
      "उन्हे": 8360,
      "ार्रव": 8361,
      "ड़न": 8362,
      "्टो": 8363,
      "्यान": 8364,
      "128": 8365,
      "127": 8366,
      "ेलिया": 8367,
      "पेक्ट": 8368,
      "ापस": 8369,
      "टैक्": 8370,
      "रेंग": 8371,
      "फ्ता": 8372,
      "ालात": 8373,
      "rail": 8374,
      "550": 8375,
      "झूम": 8376,
      "करोड": 8377,
      "ary": 8378,
      "harya": 8379,
      "रईस": 8380,
      "्तुति": 8381,
      "mani": 8382,
      "pic": 8383,
      "urt": 8384,
      "crpf": 8385,
      "amava": 8386,
      "rjd": 8387,
      "edit": 8388,
      "act": 8389,
      "cre": 8390,
      "gur": 8391,
      "hon": 8392,
      "hal": 8393,
      "kol": 8394,
      "lp": 8395,
      "इड": 8396,
      "एआर": 8397,
      "घई": 8398,
      "घिर": 8399,
      "चान": 8400,
      "चाई": 8401,
      "थाम": 8402,
      "दं": 8403,
      "धड़": 8404,
      "हमा": 8405,
      "ेजे": 8406,
      "्में": 8407,
      "##ep": 8408,
      "##sn": 8409,
      "##wd": 8410,
      "##छा": 8411,
      "साख": 8412,
      "लाओ": 8413,
      "रोपी": 8414,
      "टीन": 8415,
      "सूख": 8416,
      "स्टै": 8417,
      "सब्": 8418,
      "िनिय": 8419,
      "151": 8420,
      "हूँ": 8421,
      "117": 8422,
      "ांडे": 8423,
      "रतब": 8424,
      "खोद": 8425,
      "##ast": 8426,
      "aimi": 8427,
      "list": 8428,
      "##ami": 8429,
      "bach": 8430,
      "##anga": 8431,
      "sdrf": 8432,
      "you": 8433,
      "srh": 8434,
      "bns": 8435,
      "aimim": 8436,
      "bal": 8437,
      "jmm": 8438,
      "nsu": 8439,
      "ol": 8440,
      "अथ": 8441,
      "ऊंट": 8442,
      "ओली": 8443,
      "कसान": 8444,
      "जगा": 8445,
      "जूट": 8446,
      "टड": 8447,
      "ठोक": 8448,
      "दाह": 8449,
      "बफर": 8450,
      "वतन": 8451,
      "़ि": 8452,
      "िके": 8453,
      "्घ": 8454,
      "##yo": 8455,
      "कराय": 8456,
      "माश": 8457,
      "मास्": 8458,
      "भावन": 8459,
      "ंदू": 8460,
      "उपर": 8461,
      "िलता": 8462,
      "फैक्ट": 8463,
      "दाब": 8464,
      "शेफ": 8465,
      "ाहुल": 8466,
      "155": 8467,
      "132": 8468,
      "137": 8469,
      "भेद": 8470,
      "्रोज": 8471,
      "छठा": 8472,
      "एरि": 8473,
      "sto": 8474,
      "upi": 8475,
      "anu": 8476,
      "test": 8477,
      "सजग": 8478,
      "atta": 8479,
      "mic": 8480,
      "eng": 8481,
      "paki": 8482,
      "cisf": 8483,
      "mber": 8484,
      "ल्मो": 8485,
      "nare": 8486,
      "मोबाइ": 8487,
      "यवस्": 8488,
      "kkr": 8489,
      "holi": 8490,
      "kolka": 8491,
      "nsui": 8492,
      "cc": 8493,
      "dg": 8494,
      "ft": 8495,
      "fd": 8496,
      "md": 8497,
      "ms": 8498,
      "mer": 8499,
      "nu": 8500,
      "win": 8501,
      "ंख्य": 8502,
      "उग": 8503,
      "उभ": 8504,
      "च्": 8505,
      "टिम": 8506,
      "डटे": 8507,
      "दशा": 8508,
      "नझ": 8509,
      "नके": 8510,
      "रवार": 8511,
      "लहा": 8512,
      "शों": 8513,
      "हरो": 8514,
      "ॉर": 8515,
      "्ठ": 8516,
      "्चे": 8517,
      "##ll": 8518,
      "किं": 8519,
      "विं": 8520,
      "संस": 8521,
      "याप": 8522,
      "ानप": 8523,
      "तिथ": 8524,
      "109": 8525,
      "आयी": 8526,
      "ार्च": 8527,
      "ंचे": 8528,
      "भरण": 8529,
      "ेश्": 8530,
      "पंथ": 8531,
      "123": 8532,
      "119": 8533,
      "ुरान": 8534,
      "एडी": 8535,
      "रमह": 8536,
      "ीमो": 8537,
      "्राप": 8538,
      "190": 8539,
      "पौष": 8540,
      "315": 8541,
      "चढ़ा": 8542,
      "##dav": 8543,
      "##eta": 8544,
      "nift": 8545,
      "atm": 8546,
      "sebi": 8547,
      "मध्": 8548,
      "poll": 8549,
      "कथक": 8550,
      "bihar": 8551,
      "supre": 8552,
      "टपट": 8553,
      "sense": 8554,
      "bachc": 8555,
      "अथक": 8556,
      "उभर": 8557,
      "bh": 8558,
      "bse": 8559,
      "fsl": 8560,
      "jdu": 8561,
      "kw": 8562,
      "lu": 8563,
      "sw": 8564,
      "sur": 8565,
      "आटा": 8566,
      "कसम": 8567,
      "खते": 8568,
      "जक": 8569,
      "टर्स": 8570,
      "डरी": 8571,
      "दंग": 8572,
      "धंस": 8573,
      "नसी": 8574,
      "सदा": 8575,
      "्छा": 8576,
      "##rs": 8577,
      "##uv": 8578,
      "##gb": 8579,
      "##jri": 8580,
      "किआ": 8581,
      "राऊ": 8582,
      "ालने": 8583,
      "नाच": 8584,
      "एसई": 8585,
      "रूल": 8586,
      "चलर": 8587,
      "जुड": 8588,
      "डॉट": 8589,
      "तिष्": 8590,
      "आयो": 8591,
      "जेठ": 8592,
      "122": 8593,
      "स्पेश": 8594,
      "ाउं": 8595,
      "जलन": 8596,
      "प्राप": 8597,
      "फाग": 8598,
      "145": 8599,
      "139": 8600,
      "िवर्स": 8601,
      "##hat": 8602,
      "िटि": 8603,
      "rai": 8604,
      "पॉश": 8605,
      "she": 8606,
      "red": 8607,
      "ुम्": 8608,
      "छिप": 8609,
      "न्हें": 8610,
      "ुड्": 8611,
      "high": 8612,
      "sdo": 8613,
      "exp": 8614,
      "kejri": 8615,
      "card": 8616,
      "दफा": 8617,
      "tvs": 8618,
      "cng": 8619,
      "gen": 8620,
      "hand": 8621,
      "jaya": 8622,
      "kri": 8623,
      "pad": 8624,
      "sl": 8625,
      "wtc": 8626,
      "आभा": 8627,
      "आबू": 8628,
      "उट": 8629,
      "एअ": 8630,
      "एंग": 8631,
      "खड": 8632,
      "चत": 8633,
      "चों": 8634,
      "छो": 8635,
      "झार": 8636,
      "ठगे": 8637,
      "नोक": 8638,
      "पक्": 8639,
      "वग": 8640,
      "वसी": 8641,
      "सट": 8642,
      "ित्": 8643,
      "ृद": 8644,
      "्ख": 8645,
      "्चन": 8646,
      "##ne": 8647,
      "##ds": 8648,
      "##war": 8649,
      "नेज": 8650,
      "लिम": 8651,
      "मुक्": 8652,
      "समी": 8653,
      "अध्": 8654,
      "बीट": 8655,
      "ड़कर": 8656,
      "बढ़े": 8657,
      "जैव": 8658,
      "्टा": 8659,
      "ीनो": 8660,
      "दाध": 8661,
      "शीन": 8662,
      "113": 8663,
      "हाईव": 8664,
      "नियो": 8665,
      "303": 8666,
      "खाप": 8667,
      "164": 8668,
      "185": 8669,
      "195": 8670,
      "हनन": 8671,
      "यरन": 8672,
      "वरि": 8673,
      "मूर्": 8674,
      "जूम": 8675,
      "नतई": 8676,
      "351": 8677,
      "stree": 8678,
      "फतह": 8679,
      "ali": 8680,
      "ृतिक": 8681,
      "nic": 8682,
      "गदर": 8683,
      "ज्ञाप": 8684,
      "yadav": 8685,
      "abh": 8686,
      "cong": 8687,
      "jio": 8688,
      "nifty": 8689,
      "एअर": 8690,
      "az": 8691,
      "cg": 8692,
      "chan": 8693,
      "ec": 8694,
      "gu": 8695,
      "mur": 8696,
      "s2": 8697,
      "vo": 8698,
      "what": 8699,
      "अरे": 8700,
      "ईट": 8701,
      "ऊषा": 8702,
      "गछ": 8703,
      "जगी": 8704,
      "झड़": 8705,
      "तपन": 8706,
      "दड": 8707,
      "नख": 8708,
      "नबी": 8709,
      "पके": 8710,
      "भेल": 8711,
      "य़": 8712,
      "यति": 8713,
      "वस्": 8714,
      "़िल": 8715,
      "ुस्": 8716,
      "##ku": 8717,
      "##jun": 8718,
      "##qu": 8719,
      "परेश": 8720,
      "रहर": 8721,
      "रेर": 8722,
      "दीं": 8723,
      "बैल": 8724,
      "ावध": 8725,
      "यूटी": 8726,
      "डिग": 8727,
      "बोधि": 8728,
      "फील": 8729,
      "सौं": 8730,
      "शोज": 8731,
      "148": 8732,
      "िरद": 8733,
      "##hai": 8734,
      "नरम": 8735,
      "फर्ज": 8736,
      "िडे": 8737,
      "रकत": 8738,
      "ipc": 8739,
      "320": 8740,
      "ीफा": 8741,
      "arjun": 8742,
      "abvp": 8743,
      "दफन": 8744,
      "aus": 8745,
      "bm": 8746,
      "bre": 8747,
      "dna": 8748,
      "epf": 8749,
      "kha": 8750,
      "land": 8751,
      "nit": 8752,
      "sy": 8753,
      "uk": 8754,
      "आटे": 8755,
      "कटी": 8756,
      "गामी": 8757,
      "टेट": 8758,
      "टूल": 8759,
      "दद": 8760,
      "नकी": 8761,
      "बश": 8762,
      "रॉक": 8763,
      "हस्": 8764,
      "ुनी": 8765,
      "##ran": 8766,
      "##tm": 8767,
      "##pu": 8768,
      "##bt": 8769,
      "स्कार": 8770,
      "समि": 8771,
      "तात": 8772,
      "रुम": 8773,
      "रीका": 8774,
      "हात": 8775,
      "्सर": 8776,
      "पोस्": 8777,
      "चार्": 8778,
      "िलो": 8779,
      "दाग": 8780,
      "भूत": 8781,
      "126": 8782,
      "ोहि": 8783,
      "चाव": 8784,
      "ब्लॉ": 8785,
      "shu": 8786,
      "उड़द": 8787,
      "डोज": 8788,
      "vip": 8789,
      "dig": 8790,
      "amit": 8791,
      "ncr": 8792,
      "नाएं": 8793,
      "cia": 8794,
      "kgmu": 8795,
      "rana": 8796,
      "kalki": 8797,
      "murd": 8798,
      "bsn": 8799,
      "em": 8800,
      "hc": 8801,
      "jun": 8802,
      "mba": 8803,
      "nse": 8804,
      "nna": 8805,
      "pb": 8806,
      "pand": 8807,
      "pcb": 8808,
      "ul": 8809,
      "xuv": 8810,
      "ye": 8811,
      "ऐं": 8812,
      "ऐन": 8813,
      "दों": 8814,
      "नवाई": 8815,
      "फोड़": 8816,
      "बृ": 8817,
      "लकों": 8818,
      "वहा": 8819,
      "सड": 8820,
      "़ें": 8821,
      "ीध": 8822,
      "ीवा": 8823,
      "्गा": 8824,
      "्केट": 8825,
      "##fe": 8826,
      "सुभा": 8827,
      "रुद": 8828,
      "नीक": 8829,
      "सरस": 8830,
      "दूज": 8831,
      "स्ट्": 8832,
      "चारो": 8833,
      "शिफ": 8834,
      "चिट": 8835,
      "नईम": 8836,
      "ब्ध": 8837,
      "307": 8838,
      "्रमो": 8839,
      "गलग": 8840,
      "जमे": 8841,
      "रसद": 8842,
      "टैं": 8843,
      "फॉल": 8844,
      "साबि": 8845,
      "दमन": 8846,
      "आसन": 8847,
      "vivo": 8848,
      "sad": 8849,
      "नहट": 8850,
      "##sti": 8851,
      "##ssa": 8852,
      "mou": 8853,
      "ndai": 8854,
      "गामा": 8855,
      "acp": 8856,
      "note": 8857,
      "hyu": 8858,
      "eow": 8859,
      "redmi": 8860,
      "छोड": 8861,
      "bsnl": 8862,
      "बृज": 8863,
      "can": 8864,
      "ey": 8865,
      "fli": 8866,
      "gmch": 8867,
      "isi": 8868,
      "jam": 8869,
      "kat": 8870,
      "nhai": 8871,
      "ot": 8872,
      "out": 8873,
      "pwd": 8874,
      "sar": 8875,
      "usa": 8876,
      "आेर": 8877,
      "ईल": 8878,
      "ईश": 8879,
      "टस": 8880,
      "तदा": 8881,
      "सजे": 8882,
      "ुले": 8883,
      "ूत्र": 8884,
      "ोशि": 8885,
      "##nu": 8886,
      "##pe": 8887,
      "##bs": 8888,
      "##fa": 8889,
      "मुद": 8890,
      "ारिय": 8891,
      "रुआ": 8892,
      "योजि": 8893,
      "क्रे": 8894,
      "िलए": 8895,
      "146": 8896,
      "ख़ान": 8897,
      "260": 8898,
      "ेल्स": 8899,
      "rate": 8900,
      "यमन": 8901,
      "shtra": 8902,
      "नज़र": 8903,
      "ंभव": 8904,
      "##lea": 8905,
      "cmo": 8906,
      "viol": 8907,
      "तिनि": 8908,
      "नयी": 8909,
      "मिश्": 8910,
      "ोगो": 8911,
      "कनक": 8912,
      "विधाय": 8913,
      "arvi": 8914,
      "यार्": 8915,
      "ent": 8916,
      "##und": 8917,
      "muhu": 8918,
      "rukh": 8919,
      "सुप्र": 8920,
      "्रशास": 8921,
      "guru": 8922,
      "kwh": 8923,
      "chand": 8924,
      "बशर": 8925,
      "तदाता": 8926,
      "aga": 8927,
      "ber": 8928,
      "bir": 8929,
      "far": 8930,
      "hya": 8931,
      "kanga": 8932,
      "ola": 8933,
      "sg": 8934,
      "ts": 8935,
      "ure": 8936,
      "utt": 8937,
      "ंने": 8938,
      "उछ": 8939,
      "ओरी": 8940,
      "क‍": 8941,
      "गॉ": 8942,
      "थिया": 8943,
      "नहा": 8944,
      "फेर": 8945,
      "बं": 8946,
      "भोर": 8947,
      "षो": 8948,
      "ाषा": 8949,
      "ोस्": 8950,
      "##ग़": 8951,
      "##फा": 8952,
      "##ोन": 8953,
      "कोर्": 8954,
      "इसमे": 8955,
      "जां": 8956,
      "रहन": 8957,
      "माच": 8958,
      "मैट": 8959,
      "नीष": 8960,
      "बदर": 8961,
      "्याण": 8962,
      "सैनि": 8963,
      "206": 8964,
      "ंपत्त": 8965,
      "रणो": 8966,
      "ुरं": 8967,
      "लड़े": 8968,
      "ंट्रो": 8969,
      "्पत": 8970,
      "रमल": 8971,
      "143": 8972,
      "संतो": 8973,
      "फ़ग़": 8974,
      "भिड़": 8975,
      "नरक": 8976,
      "176": 8977,
      "228": 8978,
      "ine": 8979,
      "पनप": 8980,
      "टॉक": 8981,
      "गौड़": 8982,
      "लूज": 8983,
      "डोम": 8984,
      "##atra": 8985,
      "stor": 8986,
      "नयन": 8987,
      "temp": 8988,
      "ndrf": 8989,
      "लांट": 8990,
      "amba": 8991,
      "imf": 8992,
      "baza": 8993,
      "्दे": 8994,
      "karti": 8995,
      "खेद": 8996,
      "big": 8997,
      "पकड": 8998,
      "shard": 8999,
      "ayod": 9000,
      "janma": 9001,
      "seri": 9002,
      "वसीय": 9003,
      "epfo": 9004,
      "june": 9005,
      "uttar": 9006,
      "उछल": 9007,
      "age": 9008,
      "bar": 9009,
      "bsp": 9010,
      "fy": 9011,
      "hu": 9012,
      "hp": 9013,
      "nz": 9014,
      "pp": 9015,
      "pg": 9016,
      "ps": 9017,
      "per": 9018,
      "pit": 9019,
      "sat": 9020,
      "sri": 9021,
      "sms": 9022,
      "smar": 9023,
      "tro": 9024,
      "var": 9025,
      "wan": 9026,
      "ंसे": 9027,
      "ंधि": 9028,
      "अह": 9029,
      "इट": 9030,
      "इरा": 9031,
      "इतर": 9032,
      "ईई": 9033,
      "औल": 9034,
      "कवा": 9035,
      "गेल": 9036,
      "चिका": 9037,
      "जिय": 9038,
      "पकी": 9039,
      "पटा": 9040,
      "बंट": 9041,
      "रवान": 9042,
      "लवे": 9043,
      "वच": 9044,
      "हिन": 9045,
      "ुश्": 9046,
      "ूदा": 9047,
      "ेफर": 9048,
      "्ह": 9049,
      "्ना": 9050,
      "##rd": 9051,
      "##no": 9052,
      "##fo": 9053,
      "##cl": 9054,
      "##्रि": 9055,
      "राप्त": 9056,
      "लाओं": 9057,
      "महक": 9058,
      "जोस": 9059,
      "सक्रि": 9060,
      "िससे": 9061,
      "सदस्": 9062,
      "ंची": 9063,
      "ओरण": 9064,
      "जिं": 9065,
      "ामला": 9066,
      "ाहित": 9067,
      "ाराष्": 9068,
      "302": 9069,
      "र्षद": 9070,
      "ोहल": 9071,
      "ेलव": 9072,
      "141": 9073,
      "142": 9074,
      "147": 9075,
      "169": 9076,
      "172": 9077,
      "223": 9078,
      "याचि": 9079,
      "हेग": 9080,
      "234": 9081,
      "उड़ा": 9082,
      "vidhi": 9083,
      "upay": 9084,
      "deep": 9085,
      "##ith": 9086,
      "420": 9087,
      "top": 9088,
      "cheta": 9089,
      "हथिय": 9090,
      "िर्धा": 9091,
      "nga": 9092,
      "मझौ": 9093,
      "karna": 9094,
      "isra": 9095,
      "unt": 9096,
      "icu": 9097,
      "dmk": 9098,
      "pari": 9099,
      "festi": 9100,
      "sona": 9101,
      "lpg": 9102,
      "bmw": 9103,
      "क‍ि": 9104,
      "bpsc": 9105,
      "ddu": 9106,
      "fu": 9107,
      "fil": 9108,
      "iq": 9109,
      "ks": 9110,
      "rs": 9111,
      "rpsc": 9112,
      "s1": 9113,
      "swi": 9114,
      "गह": 9115,
      "गेज": 9116,
      "चढ": 9117,
      "चेस": 9118,
      "छग": 9119,
      "छिन": 9120,
      "छुप": 9121,
      "झक": 9122,
      "ठगा": 9123,
      "डं": 9124,
      "फड़": 9125,
      "बसी": 9126,
      "यर्": 9127,
      "रअ": 9128,
      "रदेश": 9129,
      "रदी": 9130,
      "सटी": 9131,
      "सटा": 9132,
      "ुड़ी": 9133,
      "ृत्व": 9134,
      "ेण": 9135,
      "ेका": 9136,
      "ैनि": 9137,
      "ोमी": 9138,
      "्वास": 9139,
      "।।": 9140,
      "##ac": 9141,
      "##ud": 9142,
      "##is": 9143,
      "##hit": 9144,
      "##oo": 9145,
      "सीप": 9146,
      "पूछता": 9147,
      "ड़व": 9148,
      "रीट": 9149,
      "गुड़": 9150,
      "तिप": 9151,
      "सबस": 9152,
      "जैद": 9153,
      "आरव": 9154,
      "जिप": 9155,
      "ामिल": 9156,
      "पढ़े": 9157,
      "ंद्री": 9158,
      "फीड": 9159,
      "त्रण": 9160,
      "305": 9161,
      "्वस": 9162,
      "िफि": 9163,
      "ेजो": 9164,
      "ेजरी": 9165,
      "धरन": 9166,
      "ंचालि": 9167,
      "165": 9168,
      "181": 9169,
      "288": 9170,
      "rain": 9171,
      "चरस": 9172,
      "shm": 9173,
      "revi": 9174,
      "relea": 9175,
      "ाचि": 9176,
      "उज्": 9177,
      "पताल": 9178,
      "##ite": 9179,
      "तपु": 9180,
      "time": 9181,
      "rohit": 9182,
      "champ": 9183,
      "isro": 9184,
      "amaz": 9185,
      "अड़े": 9186,
      "asse": 9187,
      "वीडिय": 9188,
      "phy": 9189,
      "honda": 9190,
      "story": 9191,
      "smart": 9192,
      "aar": 9193,
      "cer": 9194,
      "cit": 9195,
      "grp": 9196,
      "hra": 9197,
      "ima": 9198,
      "jee": 9199,
      "ky": 9200,
      "nj": 9201,
      "pe": 9202,
      "rp": 9203,
      "tar": 9204,
      "thi": 9205,
      "tru": 9206,
      "ua": 9207,
      "vra": 9208,
      "za": 9209,
      "ओन": 9210,
      "ओले": 9211,
      "औंस": 9212,
      "कंस": 9213,
      "जंप": 9214,
      "ठन": 9215,
      "डेल": 9216,
      "धनी": 9217,
      "नैन": 9218,
      "पला": 9219,
      "पटल": 9220,
      "बले": 9221,
      "मख": 9222,
      "लदी": 9223,
      "सभ": 9224,
      "सगर": 9225,
      "िहा": 9226,
      "िचा": 9227,
      "ुके": 9228,
      "्मी": 9229,
      "##nt": 9230,
      "##bo": 9231,
      "करव": 9232,
      "जाे": 9233,
      "रहम": 9234,
      "हीद": 9235,
      "वालो": 9236,
      "तोड": 9237,
      "्यम": 9238,
      "्यर्थ": 9239,
      "रूह": 9240,
      "मारन": 9241,
      "तरल": 9242,
      "दूं": 9243,
      "सबब": 9244,
      "परिवा": 9245,
      "पैठ": 9246,
      "ंडिय": 9247,
      "एंव": 9248,
      "जेक्": 9249,
      "202": 9250,
      "154": 9251,
      "124": 9252,
      "ाड़ि": 9253,
      "्प्": 9254,
      "फाड़": 9255,
      "149": 9256,
      "उमड़": 9257,
      "टैब": 9258,
      "174": 9259,
      "177": 9260,
      "शंख": 9261,
      "inter": 9262,
      "191": 9263,
      "ात्री": 9264,
      "280": 9265,
      "चरक": 9266,
      "आदर": 9267,
      "##ali": 9268,
      "ैनिक": 9269,
      "##cto": 9270,
      "##atch": 9271,
      "फ्तार": 9272,
      "may": 9273,
      "##ind": 9274,
      "नैक": 9275,
      "allu": 9276,
      "रिकी": 9277,
      "aish": 9278,
      "arm": 9279,
      "ats": 9280,
      "sinha": 9281,
      "opd": 9282,
      "cbse": 9283,
      "्रदर": 9284,
      "gane": 9285,
      "adas": 9286,
      "झड़प": 9287,
      "birth": 9288,
      "औलख": 9289,
      "acc": 9290,
      "ash": 9291,
      "awar": 9292,
      "bri": 9293,
      "cu": 9294,
      "cle": 9295,
      "dri": 9296,
      "gp": 9297,
      "gar": 9298,
      "kmp": 9299,
      "mva": 9300,
      "ns": 9301,
      "pap": 9302,
      "por": 9303,
      "pam": 9304,
      "rpf": 9305,
      "ud": 9306,
      "wc": 9307,
      "xia": 9308,
      "yatra": 9309,
      "zi": 9310,
      "आंत": 9311,
      "ईए": 9312,
      "एजी": 9313,
      "कना": 9314,
      "खफा": 9315,
      "जेंद": 9316,
      "ढल": 9317,
      "थन": 9318,
      "पसर": 9319,
      "फला": 9320,
      "भज": 9321,
      "रको": 9322,
      "रबल": 9323,
      "वजूद": 9324,
      "हचान": 9325,
      "िंत": 9326,
      "िमि": 9327,
      "ॉस्प": 9328,
      "ौटा": 9329,
      "##ry": 9330,
      "##nd": 9331,
      "##्रे": 9332,
      "लेह": 9333,
      "रिष": 9334,
      "वास्थ": 9335,
      "ियं": 9336,
      "वालिय": 9337,
      "उसमे": 9338,
      "रीक्": 9339,
      "वेन": 9340,
      "पिन": 9341,
      "मोब": 9342,
      "छात": 9343,
      "बहल": 9344,
      "बोन": 9345,
      "एवम": 9346,
      "बेग": 9347,
      "पढ़ा": 9348,
      "ेशल": 9349,
      "205": 9350,
      "जिन्": 9351,
      "152": 9352,
      "153": 9353,
      "वर्षो": 9354,
      "ास्ता": 9355,
      "ुराल": 9356,
      "एडम": 9357,
      "506": 9358,
      "बल्क": 9359,
      "कौल": 9360,
      "ालीन": 9361,
      "167": 9362,
      "188": 9363,
      "225": 9364,
      "िम्": 9365,
      "्राप्": 9366,
      "ोलन": 9367,
      "rega": 9368,
      "नावों": 9369,
      "ups": 9370,
      "कतई": 9371,
      "##rom": 9372,
      "375": 9373,
      "न्हे": 9374,
      "रपो": 9375,
      "shani": 9376,
      "झुक": 9377,
      "##sse": 9378,
      "रताप": 9379,
      "diwa": 9380,
      "chha": 9381,
      "end": 9382,
      "lead": 9383,
      "िर्वा": 9384,
      "pac": 9385,
      "बोधित": 9386,
      "boss": 9387,
      "priya": 9388,
      "950": 9389,
      "ांधी": 9390,
      "worth": 9391,
      "force": 9392,
      "yoja": 9393,
      "mbbs": 9394,
      "iii": 9395,
      "warya": 9396,
      "aksh": 9397,
      "ugc": 9398,
      "mali": 9399,
      "sgpgi": 9400,
      "wom": 9401,
      "surya": 9402,
      "वरिष्": 9403,
      "jammu": 9404,
      "bigg": 9405,
      "ॉस्पि": 9406,
      "2nd": 9407,
      "3d": 9408,
      "a1": 9409,
      "band": 9410,
      "ee": 9411,
      "from": 9412,
      "gh": 9413,
      "gw": 9414,
      "lda": 9415,
      "mt": 9416,
      "mon": 9417,
      "pat": 9418,
      "अॉ": 9419,
      "ईख": 9420,
      "खाय": 9421,
      "जेन": 9422,
      "टहल": 9423,
      "डग": 9424,
      "ढहा": 9425,
      "धब": 9426,
      "धरा": 9427,
      "पेक": 9428,
      "पवई": 9429,
      "फटे": 9430,
      "वई": 9431,
      "वु": 9432,
      "षद": 9433,
      "सबा": 9434,
      "ुपर": 9435,
      "ूटी": 9436,
      "ूजर": 9437,
      "ेते": 9438,
      "ेवे": 9439,
      "ौट": 9440,
      "##dha": 9441,
      "##oda": 9442,
      "##by": 9443,
      "##एं": 9444,
      "##ालि": 9445,
      "औरत": 9446,
      "रहट": 9447,
      "रिजन": 9448,
      "र्शन": 9449,
      "जीनिय": 9450,
      "अनस": 9451,
      "डॉक्": 9452,
      "पोप": 9453,
      "गोह": 9454,
      "डीह": 9455,
      "तैर": 9456,
      "मनन": 9457,
      "दाबा": 9458,
      "शेप": 9459,
      "ेरिक": 9460,
      "201": 9461,
      "पंख": 9462,
      "पत्रक": 9463,
      "पटे": 9464,
      "फाफ": 9465,
      "रमु": 9466,
      "पेक्": 9467,
      "िस्स": 9468,
      "243": 9469,
      "131": 9470,
      "सार्व": 9471,
      "162": 9472,
      "171": 9473,
      "310": 9474,
      "272": 9475,
      "radhi": 9476,
      "ंधित": 9477,
      "आइस": 9478,
      "फ्रे": 9479,
      "िलाएं": 9480,
      "ाबालि": 9481,
      "viva": 9482,
      "nad": 9483,
      "deo": 9484,
      "365": 9485,
      "्रैक": 9486,
      "ाशों": 9487,
      "lac": 9488,
      "che": 9489,
      "chc": 9490,
      "लांक": 9491,
      "nch": 9492,
      "543": 9493,
      "छलक": 9494,
      "exit": 9495,
      "ार्यो": 9496,
      "cont": 9497,
      "open": 9498,
      "mbly": 9499,
      "hai": 9500,
      "cpi": 9501,
      "tube": 9502,
      "ॉक्टर": 9503,
      "gau": 9504,
      "hdfc": 9505,
      "beng": 9506,
      "यापार": 9507,
      "sdop": 9508,
      "break": 9509,
      "kshi": 9510,
      "uae": 9511,
      "army": 9512,
      "award": 9513,
      "aj": 9514,
      "adi": 9515,
      "aro": 9516,
      "ast": 9517,
      "cl": 9518,
      "clo": 9519,
      "dho": 9520,
      "ek": 9521,
      "emi": 9522,
      "fina": 9523,
      "gre": 9524,
      "je": 9525,
      "lg": 9526,
      "mc": 9527,
      "odi": 9528,
      "rb": 9529,
      "sm": 9530,
      "tal": 9531,
      "ंदीप": 9532,
      "उबर": 9533,
      "एमी": 9534,
      "ओटी": 9535,
      "कझ": 9536,
      "कभ": 9537,
      "खिर": 9538,
      "घनी": 9539,
      "टब": 9540,
      "डोल": 9541,
      "तच": 9542,
      "दवे": 9543,
      "बली": 9544,
      "बंगा": 9545,
      "मवा": 9546,
      "वंद": 9547,
      "शट": 9548,
      "शफ": 9549,
      "सगी": 9550,
      "हेट": 9551,
      "़ब": 9552,
      "़िया": 9553,
      "ाचन": 9554,
      "ीतर": 9555,
      "ॉज": 9556,
      "ोजे": 9557,
      "्कर": 9558,
      "##mb": 9559,
      "##फे": 9560,
      "##ks": 9561,
      "कीट": 9562,
      "सेब": 9563,
      "पहर": 9564,
      "रहो": 9565,
      "र्गा": 9566,
      "रेक्": 9567,
      "तकन": 9568,
      "भावि": 9569,
      "अधर": 9570,
      "जीभ": 9571,
      "मैदा": 9572,
      "ितंबर": 9573,
      "कैग": 9574,
      "मीत": 9575,
      "पालि": 9576,
      "पढ़ी": 9577,
      "209": 9578,
      "156": 9579,
      "शीश": 9580,
      "कलम": 9581,
      "्वर्": 9582,
      "251": 9583,
      "ीटि": 9584,
      "ाजप": 9585,
      "136": 9586,
      "133": 9587,
      "168": 9588,
      "ेहद": 9589,
      "कड़ो": 9590,
      "inde": 9591,
      "192": 9592,
      "ेमारी": 9593,
      "ोलि": 9594,
      "्मे": 9595,
      "्मों": 9596,
      "rau": 9597,
      "पॉप": 9598,
      "##ोध्": 9599,
      "जूद": 9600,
      "टाफ": 9601,
      "##rad": 9602,
      "##ral": 9603,
      "shti": 9604,
      "सनम": 9605,
      "घटे": 9606,
      "star": 9607,
      "mau": 9608,
      "max": 9609,
      "visi": 9610,
      "viral": 9611,
      "गमन": 9612,
      "ोगि": 9613,
      "##sta": 9614,
      "tips": 9615,
      "ारोह": 9616,
      "gour": 9617,
      "china": 9618,
      "amu": 9619,
      "ncy": 9620,
      "hero": 9621,
      "उपलब्": 9622,
      "अयोध्": 9623,
      "उरई": 9624,
      "डियम": 9625,
      "्दो": 9626,
      "heat": 9627,
      "muda": 9628,
      "doct": 9629,
      "und": 9630,
      "पचु": 9631,
      "face": 9632,
      "आफत": 9633,
      "्वारा": 9634,
      "presi": 9635,
      "waya": 9636,
      "##pcl": 9637,
      "group": 9638,
      "sgpc": 9639,
      "chie": 9640,
      "्लेटफ": 9641,
      "micro": 9642,
      "उगल": 9643,
      "year": 9644,
      "ऐंठ": 9645,
      "pitru": 9646,
      "xiao": 9647,
      "अॉफ": 9648,
      "दाबाद": 9649,
      "vivah": 9650,
      "5जी": 9651,
      "bj": 9652,
      "bla": 9653,
      "bli": 9654,
      "cap": 9655,
      "fssa": 9656,
      "gam": 9657,
      "gdp": 9658,
      "ib": 9659,
      "ied": 9660,
      "jf": 9661,
      "jhar": 9662,
      "mir": 9663,
      "mang": 9664,
      "nir": 9665,
      "nya": 9666,
      "pd": 9667,
      "sn": 9668,
      "ंभी": 9669,
      "ंस्ट": 9670,
      "आंच": 9671,
      "ईग": 9672,
      "ईसा": 9673,
      "ऑडी": 9674,
      "खम": 9675,
      "खप": 9676,
      "गेर": 9677,
      "गवई": 9678,
      "छेद": 9679,
      "झोन": 9680,
      "टाय": 9681,
      "तज": 9682,
      "दंत": 9683,
      "फद": 9684,
      "यट": 9685,
      "यहा": 9686,
      "यथा": 9687,
      "रबर": 9688,
      "हग": 9689,
      "़ता": 9690,
      "ुसा": 9691,
      "ूजी": 9692,
      "ोके": 9693,
      "ोति": 9694,
      "्तम": 9695,
      "्मि": 9696,
      "##id": 9697,
      "##pl": 9698,
      "##sha": 9699,
      "##लन": 9700,
      "##थर": 9701,
      "##zu": 9702,
      "हैl": 9703,
      "कीं": 9704,
      "सामा": 9705,
      "लिस्": 9706,
      "क्सी": 9707,
      "कुक": 9708,
      "सुई": 9709,
      "लाफ": 9710,
      "बताय": 9711,
      "तोप": 9712,
      "भाऊ": 9713,
      "बारि": 9714,
      "तेग": 9715,
      "एसओ": 9716,
      "अबु": 9717,
      "कैन": 9718,
      "वर्ल": 9719,
      "सोए": 9720,
      "दुका": 9721,
      "अलख": 9722,
      "बदन": 9723,
      "इंजी": 9724,
      "संगठ": 9725,
      "अभ्": 9726,
      "158": 9727,
      "चाक": 9728,
      "ाप्": 9729,
      "ोजना": 9730,
      "कौम": 9731,
      "246": 9732,
      "182": 9733,
      "सलि": 9734,
      "ins": 9735,
      "197": 9736,
      "199": 9737,
      "ीतिक": 9738,
      "क़े": 9739,
      "यरम": 9740,
      "लंबि": 9741,
      "rec": 9742,
      "जॉय": 9743,
      "##dia": 9744,
      "ेन्द": 9745,
      "sai": 9746,
      "pmla": 9747,
      "death": 9748,
      "tela": 9749,
      "341": 9750,
      "हड़प": 9751,
      "kai": 9752,
      "love": 9753,
      "्लेब": 9754,
      "tos": 9755,
      "560": 9756,
      "लहट": 9757,
      "##jaj": 9758,
      "bajaj": 9759,
      "850": 9760,
      "##lia": 9761,
      "hima": 9762,
      "noc": 9763,
      "्तिय": 9764,
      "poco": 9765,
      "कियो": 9766,
      "cars": 9767,
      "iim": 9768,
      "ईडन": 9769,
      "fore": 9770,
      "आबाद": 9771,
      "्ठा": 9772,
      "krish": 9773,
      "सडक": 9774,
      "film": 9775,
      "shmir": 9776,
      "aarya": 9777,
      "chief": 9778,
      "fssai": 9779,
      "jhark": 9780,
      "फदर": 9781,
      "6e": 9782,
      "8gb": 9783,
      "av": 9784,
      "ale": 9785,
      "aam": 9786,
      "ajay": 9787,
      "bg": 9788,
      "cru": 9789,
      "dl": 9790,
      "gi": 9791,
      "glo": 9792,
      "khar": 9793,
      "lord": 9794,
      "octo": 9795,
      "pgi": 9796,
      "rv": 9797,
      "rti": 9798,
      "with": 9799,
      "आगा": 9800,
      "ईज": 9801,
      "एथर": 9802,
      "ऐश": 9803,
      "ओछ": 9804,
      "गता": 9805,
      "गहर": 9806,
      "गेन": 9807,
      "घड़ी": 9808,
      "घुल": 9809,
      "छपी": 9810,
      "टड़": 9811,
      "डवा": 9812,
      "ढाल": 9813,
      "णत": 9814,
      "दला": 9815,
      "दबी": 9816,
      "धत": 9817,
      "फिश": 9818,
      "बस्": 9819,
      "मवार": 9820,
      "रफी": 9821,
      "लवी": 9822,
      "वप": 9823,
      "शॉक": 9824,
      "सकर": 9825,
      "हते": 9826,
      "ेकि": 9827,
      "ोग्": 9828,
      "##tu": 9829,
      "##जल": 9830,
      "##hli": 9831,
      "##ok": 9832,
      "##xi": 9833,
      "##xel": 9834,
      "##ver": 9835,
      "##ym": 9836,
      "##zi": 9837,
      "कीव": 9838,
      "करिय": 9839,
      "होप": 9840,
      "बां": 9841,
      "पुष्": 9842,
      "निए": 9843,
      "दोलन": 9844,
      "याशी": 9845,
      "जाएग": 9846,
      "निर्व": 9847,
      "तरस": 9848,
      "सूप": 9849,
      "जुए": 9850,
      "तिब": 9851,
      "एमप": 9852,
      "टेप": 9853,
      "ीनिय": 9854,
      "पदम": 9855,
      "ेदन": 9856,
      "129": 9857,
      "स्थाप": 9858,
      "बरत": 9859,
      "बरल": 9860,
      "ंतर्": 9861,
      "चाट": 9862,
      "ंबई": 9863,
      "ंकन": 9864,
      "नोटि": 9865,
      "आशय": 9866,
      "184": 9867,
      "196": 9868,
      "262": 9869,
      "नोच": 9870,
      "rao": 9871,
      "rape": 9872,
      "गरब": 9873,
      "सख्": 9874,
      "सप्रे": 9875,
      "##ati": 9876,
      "stri": 9877,
      "भक्तो": 9878,
      "virat": 9879,
      "##ing": 9880,
      "झाग": 9881,
      "##rea": 9882,
      "all": 9883,
      "376": 9884,
      "deol": 9885,
      "हक़": 9886,
      "तनु": 9887,
      "fire": 9888,
      "tee": 9889,
      "340": 9890,
      "suni": 9891,
      "law": 9892,
      "off": 9893,
      "##she": 9894,
      "enter": 9895,
      "##che": 9896,
      "noth": 9897,
      "apri": 9898,
      "माजिक": 9899,
      "compa": 9900,
      "यदु": 9901,
      "karee": 9902,
      "hea": 9903,
      "iran": 9904,
      "rto": 9905,
      "poo": 9906,
      "वधू": 9907,
      "##cky": 9908,
      "kera": 9909,
      "som": 9910,
      "rule": 9911,
      "oppo": 9912,
      "pixel": 9913,
      "डस्ट्": 9914,
      "्पिटल": 9915,
      "que": 9916,
      "wishe": 9917,
      "janh": 9918,
      "kohli": 9919,
      "ganj": 9920,
      "mlc": 9921,
      "stock": 9922,
      "expre": 9923,
      "flip": 9924,
      "iqoo": 9925,
      "swift": 9926,
      "women": 9927,
      "4g": 9928,
      "8mp": 9929,
      "aad": 9930,
      "bmc": 9931,
      "bill": 9932,
      "c3": 9933,
      "cro": 9934,
      "hs": 9935,
      "iv": 9936,
      "iti": 9937,
      "kan": 9938,
      "lad": 9939,
      "late": 9940,
      "mr": 9941,
      "mus": 9942,
      "nka": 9943,
      "nps": 9944,
      "njay": 9945,
      "ok": 9946,
      "oil": 9947,
      "pn": 9948,
      "pti": 9949,
      "rl": 9950,
      "tya": 9951,
      "uj": 9952,
      "ucc": 9953,
      "ubt": 9954,
      "will": 9955,
      "ऊल": 9956,
      "ओढ़": 9957,
      "गभ": 9958,
      "गने": 9959,
      "घोल": 9960,
      "चास": 9961,
      "जौ": 9962,
      "जंक": 9963,
      "जेक": 9964,
      "जतन": 9965,
      "झूल": 9966,
      "ढका": 9967,
      "धुर": 9968,
      "फस": 9969,
      "बूट": 9970,
      "यग": 9971,
      "यक्ति": 9972,
      "सहर": 9973,
      "िजय": 9974,
      "ैदान": 9975,
      "##ici": 9976,
      "##रन": 9977,
      "##dh": 9978,
      "##lsi": 9979,
      "##cp": 9980,
      "केप": 9981,
      "साए": 9982,
      "बाण": 9983,
      "बाजा": 9984,
      "भीग": 9985,
      "देय": 9986,
      "कुमा": 9987,
      "रेफ": 9988,
      "हमद": 9989,
      "मैक": 9990,
      "जोड": 9991,
      "रीड": 9992,
      "मेघ": 9993,
      "सरक": 9994,
      "रूफ": 9995,
      "चलक": 9996,
      "वेस्": 9997,
      "ाइय": 9998,
      "ाइं": 9999
    }
  }
}