[UNK]	0
[CLS]	1
[SEP]	2
[PAD]	3
[MASK]	4
!	5
"	6
#	7
$	8
%	9
&	10
'	11
(	12
)	13
*	14
+	15
,	16
-	17
.	18
/	19
0	20
1	21
2	22
3	23
4	24
5	25
6	26
7	27
8	28
9	29
:	30
;	31
=	32
>	33
?	34
@	35
[	36
\	37
]	38
^	39
_	40
a	41
b	42
c	43
d	44
e	45
f	46
g	47
h	48
i	49
j	50
k	51
l	52
m	53
n	54
o	55
p	56
q	57
r	58
s	59
t	60
u	61
v	62
w	63
x	64
y	65
z	66
{	67
}	68
~	69
£	70
­	71
°	72
·	73
×	74
ï	75
̈	76
ँ	77
ं	78
ः	79
अ	80
आ	81
इ	82
ई	83
उ	84
ऊ	85
ऋ	86
ऍ	87
ए	88
ऐ	89
ऑ	90
ओ	91
औ	92
क	93
ख	94
ग	95
घ	96
ङ	97
च	98
छ	99
ज	100
झ	101
ञ	102
ट	103
ठ	104
ड	105
ढ	106
ण	107
त	108
थ	109
द	110
ध	111
न	112
ऩ	113
प	114
फ	115
ब	116
भ	117
म	118
य	119
र	120
ऱ	121
ल	122
ळ	123
व	124
श	125
ष	126
स	127
ह	128
़	129
ऽ	130
ा	131
ि	132
ी	133
ु	134
ू	135
ृ	136
ॅ	137
ॆ	138
े	139
ै	140
ॉ	141
ॊ	142
ो	143
ौ	144
्	145
ॐ	146
॑	147
ॠ	148
।	149
॥	150
०	151
१	152
२	153
३	154
४	155
५	156
६	157
८	158
९	159
॰	160
ঁ	161
অ	162
আ	163
ই	164
এ	165
ও	166
ক	167
খ	168
ঘ	169
চ	170
ছ	171
জ	172
ট	173
ঠ	174
ড	175
ণ	176
ত	177
দ	178
ধ	179
ন	180
প	181
ব	182
ম	183
য	184
র	185
ল	186
ষ	187
স	188
়	189
া	190
ি	191
ী	192
ু	193
ে	194
ো	195
্	196
ઢ	197
ం	198
ఇ	199
క	200
గ	201
చ	202
ఛ	203
జ	204
ట	205
డ	206
ణ	207
త	208
థ	209
ద	210
న	211
ప	212
ఫ	213
బ	214
భ	215
ర	216
ల	217
వ	218
శ	219
స	220
ా	221
ి	222
ీ	223
ు	224
ూ	225
ె	226
ే	227
ొ	228
ో	229
్	230
‌	231
‍	232
‎	233
‛	234
•	235
⁄	236
⁠	237
€	238
₹	239
⏩	240
⏱	241
▪	242
○	243
●	244
☀	245
♈	246
♉	247
♊	248
♋	249
♌	250
♍	251
♏	252
♐	253
♑	254
♒	255
♓	256
♦	257
⚠	258
⚫	259
❓	260
❗	261
➤	262
⭐	263
	264
️	265
🇮	266
🇳	267
🌅	268
🌙	269
🌟	270
🎉	271
🏅	272
🏹	273
🐉	274
💫	275
🔴	276
🔵	277
🕐	278
🗓	279
😉	280
😎	281
😜	282
😸	283
🤔	284
🤩	285
🦌	286
🧭	287
🪐	288
##ड	289
##़	290
##प	291
##a	292
##d	293
##स	294
##्	295
##ल	296
##e	297
##r	298
##i	299
##श	300
##ि	301
##ख	302
##ा	303
##ै	304
##च	305
##s	306
##h	307
##o	308
##5	309
##2	310
##र	311
##u	312
##b	313
##g	314
##ई	315
##ं	316
##ग	317
##े	318
##व	319
##ू	320
##आ	321
##t	322
##क	323
##j	324
##m	325
##ट	326
##य	327
##ॉ	328
##k	329
##त	330
##ध	331
##थ	332
##ब	333
##ो	334
##c	335
##न	336
##ष	337
##म	338
##n	339
##y	340
##इ	341
##x	342
##4	343
##p	344
##f	345
##l	346
##उ	347
##0	348
##9	349
##3	350
##द	351
##ह	352
##ज	353
##z	354
##7	355
##1	356
##ी	357
##ठ	358
##भ	359
##झ	360
##ढ	361
##ु	362
##छ	363
##w	364
##ौ	365
##ए	366
##v	367
##फ	368
##ृ	369
##घ	370
##8	371
##ण	372
##6	373
##ओ	374
##ः	375
##ॅ	376
##‌	377
##-	378
##q	379
##"	380
##ऊ	381
##औ	382
##ञ	383
##ँ	384
##३	385
##.	386
##₹	387
##ি	388
##अ	389
##ে	390
##ন	391
##ও	392
##०	393
##‍	394
##র	395
##।	396
##া	397
##ऽ	398
##ऱ	399
##,	400
##)	401
##ణ	402
##খ	403
##%	404
##ङ	405
##🇳	406
##'	407
##క	408
##ছ	409
##ळ	410
##ర	411
##‎	412
##॥	413
##ऩ	414
##ऐ	415
##ত	416
##!	417
##ব	418
##१	419
##{	420
##ণ	421
##ల	422
##న	423
##>	424
के	425
##ें	426
##ार	427
में	428
है	429
##या	430
##्र	431
की	432
को	433
##ान	434
कर	435
ने	436
से	437
कि	438
का	439
##र्	440
##ने	441
पर	442
##ाल	443
##ों	444
और	445
##ता	446
##िल	447
ों	448
##क्	449
##ना	450
##्य	451
इस	452
रा	453
##ही	454
##हा	455
##ड़	456
स्	457
हो	458
जा	459
प्र	460
##ंग	461
सा	462
लि	463
बा	464
वि	465
हैं	466
दि	467
##के	468
##स्	469
भी	470
्र	471
##वा	472
##त्र	473
##िक	474
पु	475
दे	476
##ित	477
##ाम	478
##ले	479
##िस	480
उन	481
##हीं	482
हु	483
##कर	484
किया	485
ले	486
##ते	487
##ंद	488
##ला	489
एक	490
लिए	491
क्	492
नि	493
कार	494
गया	495
पह	496
##री	497
था	498
##ति	499
रह	500
नहीं	501
##क्ष	502
##से	503
##ोग	504
##रा	505
##ेश	506
सि	507
सं	508
रि	509
##का	510
##ां	511
##गा	512
##ारी	513
कु	514
र्	515
बाद	516
##नी	517
##ती	518
ही	519
अप	520
मु	521
##त्	522
##ुर	523
ें	524
##्ह	525
सम	526
साथ	527
##िला	528
##ंच	529
पुल	530
सु	531
राज	532
ला	533
पुलिस	534
सी	535
कहा	536
गई	537
बता	538
वा	539
पू	540
िय	541
##वार	542
वाल	543
करने	544
##कि	545
##्म	546
##िर	547
##ंड	548
उन्ह	549
ाल	550
दो	551
रे	552
उस	553
थी	554
तो	555
रहे	556
##ाने	557
##की	558
दिया	559
##ास	560
##िय	561
लोग	562
ता	563
दी	564
##र्ट	565
##्या	566
तक	567
मा	568
##सी	569
##रो	570
भा	571
##ढ़	572
रहा	573
बताया	574
िक	575
##ाय	576
या	577
चु	578
यह	579
ना	580
्य	581
##ौर	582
हुए	583
ार	584
##भी	585
बार	586
मौ	587
मिल	588
##गी	589
रो	590
अध	591
ियों	592
##गर	593
मह	594
रही	595
थे	596
बी	597
##पी	598
सिं	599
सिंह	600
##ली	601
##्ट	602
##रे	603
##शन	604
##मा	605
क्ष	606
हम	607
##ाना	608
ोंने	609
##हां	610
##टर	611
ान	612
गए	613
पी	614
जी	615
##्च	616
##ेट	617
स्थ	618
दिन	619
दर्	620
टी	621
##ल्	622
पहु	623
ती	624
आरो	625
पहुंच	626
लेकर	627
पहले	628
अन	629
##हर	630
ड़	631
मै	632
इसके	633
##जन	634
##देश	635
##भा	636
रु	637
ंत्र	638
##कार	639
ट्र	640
लोगों	641
जो	642
अपने	643
##दी	644
री	645
यु	646
कार्	647
##ानी	648
जब	649
ित	650
##स्ट	651
जाए	652
हुई	653
मे	654
माम	655
लग	656
ते	657
कम	658
लेकि	659
लेकिन	660
ओं	661
##सा	662
ंत्री	663
##्त	664
नी	665
द्	666
सर	667
हा	668
##में	669
इन	670
जिस	671
##तर	672
साल	673
वह	674
दौर	675
बै	676
सक	677
बि	678
##मार	679
िंग	680
पा	681
##ंब	682
एस	683
ाव	684
रू	685
होने	686
चल	687
वाले	688
गां	689
##जे	690
निर्	691
देश	692
वे	693
##जा	694
##द्	695
दौरान	696
हर	697
ग्र	698
िया	699
जन	700
्स	701
वार	702
##नाव	703
##दा	704
घर	705
हुआ	706
पुर	707
पि	708
##ंट	709
कुमार	710
##वास	711
मार	712
तर	713
अब	714
लगा	715
##ंध	716
##पा	717
बन	718
दू	719
प्रति	720
##वि	721
लो	722
चुनाव	723
सरकार	724
ेत्र	725
रुप	726
शुर	727
शाम	728
##नों	729
##र्व	730
साम	731
ये	732
करते	733
##ाह	734
सू	735
भार	736
##ंगे	737
देख	738
स्ट	739
कै	740
श्र	741
ाइ	742
##िन	743
वर्	744
काम	745
जु	746
##बा	747
बना	748
ां	749
##टना	750
##ंद्र	751
राम	752
सो	753
महिला	754
रख	755
##्ल	756
##ेल	757
कार्य	758
सभी	759
##िव	760
डॉ	761
लिया	762
आई	763
कुछ	764
##ंग्	765
यो	766
ंद	767
बड़	768
##िया	769
कई	770
पास	771
रेस	772
व्य	773
##ोट	774
##कारी	775
##्व	776
नगर	777
##यर	778
बढ़	779
गिर	780
टीम	781
यू	782
थाना	783
##मी	784
गांव	785
##ूल	786
##क्र	787
भारत	788
##क्त	789
##स्त	790
द्वार	791
दु	792
यों	793
ीड	794
##िए	795
गु	796
##ंप	797
पो	798
आप	799
##ख्य	800
उनके	801
ालय	802
ति	803
##पुर	804
चौ	805
बात	806
मामले	807
घटना	808
कोई	809
##जी	810
हाल	811
सब	812
नाम	813
ली	814
मो	815
ाय	816
कांग्	817
मी	818
उप	819
गो	820
समय	821
डी	822
##स्प	823
आरोप	824
अपनी	825
सह	826
##िश	827
##गे	828
रूप	829
शुरू	830
ार्ट	831
##टी	832
##सर	833
वहीं	834
##ोड़	835
्यक्ष	836
डि	837
हि	838
गा	839
दर्ज	840
परि	841
्रदेश	842
योज	843
जिल	844
यहां	845
निक	846
लोक	847
दोनों	848
##क्षा	849
##ंक	850
चाह	851
##वाई	852
##्न	853
जिला	854
कह	855
वी	856
##जार	857
बजे	858
ेंद्र	859
रुपए	860
बच	861
छा	862
बह	863
एक्	864
खु	865
जांच	866
##ंस	867
खिला	868
विभा	869
शु	870
##वी	871
दिल	872
किसी	873
##ष्	874
##ृत	875
तरह	876
विभाग	877
पूर्व	878
बो	879
##ष्ट	880
##ंत	881
युव	882
आरोपी	883
विश	884
##धान	885
पड़	886
आज	887
उसके	888
िका	889
एव	890
बीच	891
नकारी	892
स्त	893
##ड़क	894
चार	895
##एम	896
नु	897
10	898
कॉ	899
पै	900
ग्राम	901
दूस	902
##ारा	903
लाख	904
##वे	905
शामिल	906
##वर	907
जै	908
ाई	909
ीय	910
एवं	911
िकारी	912
##नि	913
करा	914
भाज	915
रात	916
अल	917
ेंगे	918
राज्य	919
तार	920
करी	921
सूच	922
भाजपा	923
आय	924
ंड	925
एम	926
िस	927
अव	928
##फ्	929
जारी	930
बैठ	931
फिर	932
क्र	933
मैं	934
होगा	935
अस्प	936
अस्पत	937
प्	938
बे	939
जाएगा	940
##जू	941
जाने	942
किए	943
पत्	944
मंद	945
उसे	946
जीत	947
करीब	948
खिलाफ	949
कारण	950
फिल	951
तै	952
##बर	953
जिले	954
ार्टी	955
ेड	956
अन्य	957
##सान	958
ार्	959
बद	960
ेंट	961
बेट	962
ाने	963
##ून	964
याद	965
##्ड	966
स्क	967
महा	968
##णा	969
सीट	970
मान	971
मांग	972
सद	973
ंच	974
टे	975
उनकी	976
शा	977
सभा	978
रिवार	979
ज्या	980
ज्याद	981
ारी	982
धिक	983
िल	984
युवक	985
##जर	986
्ट	987
वाली	988
फिल्म	989
मंदिर	990
शास	991
मौके	992
इं	993
श्री	994
तीन	995
गिरफ्	996
निवास	997
फै	998
करना	999
छात्र	1000
रवाई	1001
जाता	1002
शहर	1003
्थ	1004
सामने	1005
यक्र	1006
यक्रम	1007
मौत	1008
अग	1009
ओर	1010
सुब	1011
्री	1012
जग	1013
लाल	1014
सुबह	1015
ज्	1016
एं	1017
कोर्ट	1018
##िति	1019
तह	1020
ाया	1021
##ध्य	1022
योग	1023
##ूट	1024
वो	1025
आर	1026
##र्म	1027
##प्त	1028
राष्ट	1029
##द्य	1030
न्	1031
स्व	1032
क्या	1033
सबसे	1034
देने	1035
##ड़ी	1036
##लो	1037
गुर	1038
##जय	1039
पिछ	1040
गं	1041
िन	1042
##र्च	1043
सूचना	1044
हजार	1045
##वाल	1046
च्च	1047
अलग	1048
इला	1049
करोड़	1050
अधिक	1051
रेल	1052
पाल	1053
एन	1054
पानी	1055
जहां	1056
यादव	1057
##ुत	1058
देव	1059
पार	1060
इसी	1061
दिख	1062
##ूर	1063
##ेज	1064
िकाय	1065
कर्	1066
##ंबर	1067
##इन	1068
कृ	1069
बारिश	1070
राह	1071
दर्शन	1072
ऐसे	1073
##द्ध	1074
##वन	1075
बु	1076
नुस	1077
##जूद	1078
दिए	1079
मिली	1080
##चार	1081
भाग	1082
कंप	1083
आने	1084
बंद	1085
स्कूल	1086
##पर	1087
धिकार	1088
होगी	1089
ात	1090
जर	1091
नुसार	1092
मन	1093
ीन	1094
िसमें	1095
अनु	1096
जि	1097
इसमें	1098
##दान	1099
जय	1100
दा	1101
शिव	1102
त्	1103
##हार	1104
मि	1105
आए	1106
िकायत	1107
तैय	1108
इससे	1109
##ोर	1110
पोर्ट	1111
ंग	1112
तैयार	1113
##्यू	1114
ारती	1115
##म्म	1116
शर्	1117
ोदी	1118
##कान	1119
विद्य	1120
पद	1121
बाहर	1122
ज्ञ	1123
मत	1124
##हन	1125
##ेत	1126
रवि	1127
ारतीय	1128
##वान	1129
##ेन	1130
िश	1131
ाम	1132
नेता	1133
आया	1134
दिल्ल	1135
बंध	1136
##बंध	1137
शव	1138
रहने	1139
जान	1140
मुख्य	1141
सफ	1142
शासन	1143
यात्र	1144
शर्मा	1145
स्थान	1146
##ंगल	1147
गुरु	1148
##था	1149
रक्षा	1150
ेद	1151
योजना	1152
कुल	1153
टर	1154
सकता	1155
हत्	1156
##ाई	1157
##ेक	1158
भर	1159
मां	1160
चाहिए	1161
कर्म	1162
##सभ	1163
लोकसभ	1164
पढ़	1165
ेश	1166
##फी	1167
खेल	1168
जे	1169
##सल	1170
##्छ	1171
वहां	1172
##ियो	1173
स्थित	1174
समा	1175
पूरी	1176
हत्या	1177
ंद्र	1178
किसान	1179
अम	1180
पिछले	1181
पिता	1182
मंड	1183
मामला	1184
##ुल	1185
शे	1186
##ओं	1187
पां	1188
सड़क	1189
उसकी	1190
्या	1191
उत्	1192
िध	1193
ढ़	1194
शि	1195
क्टर	1196
व्यव	1197
विका	1198
##ंदर	1199
##तार	1200
पति	1201
प्रो	1202
##ायक	1203
िधायक	1204
ियां	1205
गढ़	1206
##लाई	1207
विधान	1208
रन	1209
रीक्ष	1210
ाए	1211
रिय	1212
##ेशन	1213
ऑफ	1214
##धा	1215
आगे	1216
नव	1217
काफी	1218
उठ	1219
ुख्य	1220
ुख्यम	1221
भू	1222
बच्च	1223
ेर	1224
बड़ी	1225
##त्व	1226
दर	1227
अच	1228
##धी	1229
##सप	1230
इंड	1231
अं	1232
मृत	1233
सहित	1234
संभ	1235
##लेक्	1236
##इल	1237
समाज	1238
विकास	1239
ंख	1240
जाएगी	1241
घाय	1242
घायल	1243
जबकि	1244
##ोष	1245
##एस	1246
दीप	1247
रोड	1248
माल	1249
बहुत	1250
##मान	1251
िग	1252
##र्ण	1253
घंट	1254
सै	1255
##कड़	1256
##धार	1257
हालां	1258
##इक	1259
अभी	1260
बैठक	1261
जगह	1262
ोम	1263
मार्	1264
तब	1265
##र्फ	1266
ीडियो	1267
20	1268
सदस	1269
सदस्य	1270
व्यक्	1271
निकल	1272
परिजन	1273
##को	1274
फी	1275
##र्ड	1276
होता	1277
धार	1278
ाह	1279
##ायर	1280
मौजूद	1281
मद	1282
तहत	1283
अला	1284
जिन	1285
जिसके	1286
लिख	1287
दूसरे	1288
च्चों	1289
बाइक	1290
ीण	1291
##ीत	1292
ताब	1293
ेट	1294
ेगा	1295
संग	1296
उसने	1297
चि	1298
धान	1299
न्या	1300
भग	1301
बारे	1302
मही	1303
अपना	1304
मिला	1305
ीडिया	1306
##ोल	1307
पत्नी	1308
सकते	1309
करें	1310
##ंगा	1311
अलावा	1312
ज़	1313
##ंत्र	1314
अगर	1315
आग	1316
ल्	1317
##टल	1318
उनका	1319
ाना	1320
##ेम	1321
##राब	1322
मंगल	1323
पं	1324
बाल	1325
अभ	1326
ंख्या	1327
वज	1328
ाकर	1329
दें	1330
टू	1331
ीजे	1332
पता	1333
ारा	1334
15	1335
कंपनी	1336
ंप	1337
ेक्	1338
कहना	1339
्रभ	1340
##ब्	1341
फर	1342
##दि	1343
##सि	1344
भाव	1345
12	1346
वजह	1347
मेंट	1348
स्था	1349
इसे	1350
##क्षक	1351
तेज	1352
म्	1353
शादी	1354
##तम	1355
बर	1356
म्म	1357
त्र	1358
पल	1359
ार्थ	1360
सौ	1361
##ोजन	1362
दिनों	1363
हाथ	1364
सें	1365
माण	1366
वर्ष	1367
युक्त	1368
##शि	1369
##पाल	1370
करता	1371
मज	1372
हार	1373
जैसे	1374
सांस	1375
्रीय	1376
हों	1377
साइ	1378
नजर	1379
पूरा	1380
##बू	1381
सेवा	1382
बिज	1383
तरफ	1384
पक्ष	1385
बल	1386
विवा	1387
आयोजन	1388
सच	1389
बिहार	1390
दिव	1391
भाई	1392
ास्	1393
##आई	1394
मुझ	1395
ताबिक	1396
ीद	1397
##केट	1398
हू	1399
होती	1400
पकड़	1401
ट्रेन	1402
दुकान	1403
सवाल	1404
वाला	1405
##ारे	1406
महीने	1407
स्प	1408
फो	1409
निकाल	1410
श्च	1411
##द्र	1412
शी	1413
बनाने	1414
घंटे	1415
ऐसा	1416
थाने	1417
ियाणा	1418
अति	1419
ीजेपी	1420
हाद	1421
11	1422
नंबर	1423
##ेष	1424
जुड़	1425
ाबा	1426
विशेष	1427
रेश	1428
वै	1429
पत्र	1430
##लेज	1431
न्याय	1432
ष्ट	1433
हाई	1434
ोमवार	1435
##सम	1436
रण	1437
गातार	1438
##ड़ित	1439
ेगी	1440
ॉलेज	1441
##रण	1442
ुर	1443
जून	1444
पूरे	1445
जिससे	1446
##ग्र	1447
निय	1448
घोष	1449
स्तान	1450
्थिति	1451
##न्	1452
नई	1453
सीएम	1454
केस	1455
इसकी	1456
चाल	1457
शन	1458
छोड़	1459
सांसद	1460
ास	1461
मस्	1462
शनि	1463
मेर	1464
लड़क	1465
राय	1466
ाड़	1467
ेशन	1468
संस्	1469
वन	1470
##धि	1471
नौ	1472
##योग	1473
विश्व	1474
##ये	1475
##र्य	1476
ाउ	1477
##ट्	1478
सकती	1479
##ेस	1480
भो	1481
शत	1482
लगाया	1483
ाबाद	1484
पहली	1485
ब्	1486
##ाइ	1487
##रोध	1488
मिलने	1489
फोन	1490
िगम	1491
बॉ	1492
बस	1493
लॉ	1494
##टा	1495
लगे	1496
रोक	1497
एफ	1498
नाथ	1499
बड़े	1500
मुझे	1501
इसका	1502
कराया	1503
30	1504
धानम	1505
एल	1506
गांधी	1507
उत्तर	1508
भगवान	1509
गंभी	1510
गंभीर	1511
##वरी	1512
पांच	1513
हूं	1514
##त्म	1515
एंगे	1516
कलेक्	1517
विरोध	1518
्रम	1519
##ियों	1520
डिग्र	1521
कर्ता	1522
##र्थ	1523
आधार	1524
सचिव	1525
मृतक	1526
पंजा	1527
ची	1528
खान	1529
समझ	1530
लड़	1531
दार	1532
देते	1533
मैच	1534
ड्	1535
##लिए	1536
इसलिए	1537
##चा	1538
र्ष	1539
पंजाब	1540
माह	1541
आम	1542
##द्द	1543
शुक्र	1544
जल	1545
गण	1546
श्	1547
##िम	1548
ुध	1549
##लास	1550
जमी	1551
बेह	1552
ाद	1553
##गत	1554
शनिवा	1555
स्तर	1556
रविवा	1557
वाप	1558
नए	1559
चर्च	1560
योजित	1561
ंट	1562
भेज	1563
बनाया	1564
ुक	1565
िक्षा	1566
##ष्ण	1567
मंडल	1568
बड़ा	1569
एड	1570
इलाज	1571
खा	1572
जमीन	1573
करे	1574
ुधवार	1575
##हम	1576
जाती	1577
खुद	1578
##क्षण	1579
##स्टम	1580
कल	1581
ताप	1582
रीय	1583
##ठन	1584
##चान	1585
वापस	1586
प्रा	1587
भर्	1588
संबंध	1589
पूजा	1590
ंत	1591
घा	1592
पहचान	1593
रुपये	1594
गल	1595
बज	1596
ाते	1597
बैंक	1598
शुरु	1599
##त्त	1600
ाप्त	1601
्प	1602
अच्छ	1603
ेंड	1604
्व	1605
थान	1606
हिंद	1607
ब्र	1608
खड़	1609
ेड़	1610
मौसम	1611
डाल	1612
सामान	1613
तु	1614
नीति	1615
न्द्र	1616
मीटर	1617
जेल	1618
बाजार	1619
सम्	1620
##्वर	1621
तापम	1622
##िका	1623
धर्म	1624
रेशान	1625
समेत	1626
ेंस	1627
आदेश	1628
लगी	1629
50	1630
गै	1631
बिजली	1632
उसका	1633
##जि	1634
##वेश	1635
लाइन	1636
गी	1637
भर्ती	1638
सित	1639
दल	1640
ोर	1641
##तन	1642
चो	1643
वोट	1644
लेने	1645
बेटे	1646
रंग	1647
जवा	1648
ोह	1649
##त्य	1650
होते	1651
पट	1652
समिति	1653
##शी	1654
शुरुआ	1655
25	1656
शाह	1657
देर	1658
बच्चे	1659
शो	1660
राहुल	1661
िरा	1662
फा	1663
सर्व	1664
रकारी	1665
यन	1666
दोप	1667
बया	1668
बयान	1669
ेल	1670
होकर	1671
जुलाई	1672
िप	1673
ेता	1674
काल	1675
जनता	1676
##दन	1677
सुर	1678
भिया	1679
भियान	1680
बेटी	1681
तौर	1682
्वा	1683
भिन	1684
##वल	1685
भिन्न	1686
बू	1687
##डी	1688
मिन	1689
पुत्र	1690
साह	1691
चलते	1692
गत	1693
वीर	1694
बदल	1695
चा	1696
रम	1697
चोरी	1698
ंब	1699
योंकि	1700
दान	1701
पे	1702
शां	1703
लौ	1704
नीत	1705
थीं	1706
रखा	1707
गंज	1708
ष्	1709
ट्रै	1710
बल्	1711
चर्चा	1712
जवाब	1713
ाप	1714
चुके	1715
ोज	1716
##शा	1717
##शल	1718
तल	1719
डे	1720
##ेंस	1721
दोपहर	1722
पीछ	1723
ध्या	1724
दूसरी	1725
करके	1726
सोशल	1727
कट	1728
पूर्ण	1729
ज्ञान	1730
ोबा	1731
अगस्त	1732
##ायत	1733
ीट	1734
ंचायत	1735
##क्स	1736
जाते	1737
टिक	1738
युवा	1739
्थ्य	1740
विजय	1741
यां	1742
मिले	1743
मेरिक	1744
घाट	1745
मदद	1746
##षद	1747
मस्या	1748
तथा	1749
##र्स	1750
स्वास	1751
##दात	1752
जीवन	1753
##यास	1754
अवसर	1755
्रयास	1756
##ग्	1757
ागर	1758
रेलवे	1759
सिर्फ	1760
माता	1761
##थम	1762
होंगे	1763
विवाद	1764
ंस	1765
ीदवार	1766
जल्	1767
त्य	1768
##षण	1769
दूर	1770
उम्म	1771
वाहन	1772
जयपुर	1773
िफ	1774
रोल	1775
थानी	1776
ाज	1777
चुकी	1778
फैस	1779
ोबाइल	1780
देवी	1781
अपरा	1782
तोड़	1783
कौ	1784
ंक	1785
धन	1786
ाक	1787
##खंड	1788
थानीय	1789
##स्थ	1790
पेश	1791
ोर्ट	1792
बिल	1793
मध्य	1794
गाड़ी	1795
इंडिय	1796
बोल	1797
कप	1798
##ियर	1799
खरी	1800
तृ	1801
मेरे	1802
चला	1803
##ुख	1804
निर	1805
वालों	1806
तला	1807
बनाए	1808
ुन	1809
जल्द	1810
्रमुख	1811
रियों	1812
दौ	1813
धम	1814
पेट	1815
राशि	1816
महत्व	1817
मार्ग	1818
पोस्ट	1819
##िंग	1820
##मत	1821
्यू	1822
पाकि	1823
र्म	1824
देखा	1825
ोड़	1826
लगभ	1827
इंटर	1828
लगभग	1829
##ाला	1830
करती	1831
ाध्य	1832
अपराध	1833
जैन	1834
ाध	1835
रिया	1836
ाली	1837
शराब	1838
ीकर	1839
इलाके	1840
नेशन	1841
दिस	1842
इंद	1843
रै	1844
##ैध	1845
अवैध	1846
14	1847
िस्	1848
विष	1849
आदि	1850
जम	1851
लाइ	1852
पार्	1853
ाध्यम	1854
संत	1855
अंत	1856
बराम	1857
ेज	1858
##ेड	1859
चंद्र	1860
आवे	1861
24	1862
रोह	1863
13	1864
िर	1865
शेयर	1866
स्थल	1867
वीं	1868
बरामद	1869
उद्	1870
ट्	1871
खरीद	1872
ंज	1873
अंदर	1874
्टेशन	1875
अक्	1876
धर	1877
नोट	1878
मई	1879
इस्	1880
हॉ	1881
इंदौर	1882
कान	1883
करण	1884
##केश	1885
कृष्ण	1886
किलो	1887
पुरा	1888
सके	1889
##श्	1890
फ़	1891
उम	1892
कोश	1893
सवार	1894
##ाराज	1895
टूबर	1896
कोशिश	1897
सितंब	1898
ीना	1899
हमारे	1900
कहते	1901
चुन	1902
ारपी	1903
ारपीट	1904
पीएम	1905
ंडा	1906
##विध	1907
एज	1908
ांग	1909
##थि	1910
जरूर	1911
कभी	1912
त्या	1913
आश	1914
##ल्ड	1915
िव	1916
##ha	1917
ीं	1918
अभि	1919
पीछे	1920
अर	1921
वाड़	1922
ंचाल	1923
ेडिक	1924
दिसंब	1925
ांक	1926
ूर्	1927
ेयर	1928
लौट	1929
दिवस	1930
चुका	1931
एयर	1932
हमला	1933
संगठन	1934
शुभ	1935
मैंने	1936
नरे	1937
इम	1938
क्य	1939
पदा	1940
##छता	1941
व्या	1942
##रीज	1943
हादसे	1944
ेडिकल	1945
इत	1946
ट्ट	1947
तलाश	1948
##बल	1949
देकर	1950
##ैंड	1951
वाद	1952
भि	1953
जाना	1954
गार	1955
केंद	1956
ूछता	1957
ूछताछ	1958
मर्थ	1959
सीसी	1960
##काश	1961
गुप्त	1962
्रकाश	1963
##माश	1964
बदमाश	1965
एक्स	1966
ेश्वर	1967
##कों	1968
नवंबर	1969
केंद्	1970
सार	1971
भाष	1972
आवेदन	1973
आसप	1974
##मि	1975
लिखा	1976
आसपास	1977
खास	1978
ीड़ित	1979
चे	1980
ांड	1981
ीर	1982
बंधित	1983
प्री	1984
16	1985
वाह	1986
ट्री	1987
नर	1988
पर्य	1989
रस	1990
प्ले	1991
केवल	1992
मतदान	1993
प्ल	1994
बने	1995
खंड	1996
र्ड	1997
##ताव	1998
टै	1999
राइ	2000
चौध	2001
त्याश	2002
िता	2003
आपको	2004
एक्सप	2005
लख	2006
केट	2007
चौधरी	2008
चै	2009
बिना	2010
ांस	2011
फोट	2012
परिस	2013
वाया	2014
ेन	2015
ब्ल	2016
भोपाल	2017
##साद	2018
नेशनल	2019
राव	2020
मजबू	2021
एच	2022
हरा	2023
देखने	2024
खेत	2025
्रसाद	2026
हट	2027
मिनट	2028
18	2029
छोट	2030
##किल	2031
तारी	2032
मोहन	2033
ध्यान	2034
40	2035
वाई	2036
खिल	2037
ेताओं	2038
ुवि	2039
ुविधा	2040
नदी	2041
हमें	2042
##ेर	2043
कों	2044
रव	2045
ीए	2046
पड़ा	2047
क्रम	2048
क्यों	2049
मॉ	2050
भारी	2051
##ल्ल	2052
कं	2053
ाग	2054
ेदार	2055
िक्र	2056
जुट	2057
वार्ड	2058
मार्च	2059
लाभ	2060
17	2061
खबर	2062
मंत्र	2063
थाप	2064
ाही	2065
होना	2066
्रि	2067
बोर्ड	2068
कर्मच	2069
अमित	2070
जन्म	2071
पढ़ें	2072
सफल	2073
ुल	2074
वर्ग	2075
##ूड	2076
##ात	2077
ेंग	2078
चरण	2079
ओवर	2080
न्यू	2081
देखते	2082
चालक	2083
र्स	2084
श्चिम	2085
शं	2086
साफ	2087
ियर	2088
कैसे	2089
ूम	2090
टिकट	2091
कल्	2092
टेस्ट	2093
जनवरी	2094
बनी	2095
फरार	2096
संद	2097
्ल	2098
भवन	2099
दोस्त	2100
दर्श	2101
नीतिक	2102
ंघ	2103
गोली	2104
ठा	2105
##निय	2106
उपस्थ	2107
ष्ठ	2108
यानी	2109
##्ज	2110
कराने	2111
गर्	2112
िंद	2113
अग्र	2114
विकेट	2115
##वाज	2116
घु	2117
जिसे	2118
िस्सा	2119
##चे	2120
##ष्ठ	2121
22	2122
सिल	2123
ीम	2124
र्द	2125
##्रा	2126
मनो	2127
ीणों	2128
ेह	2129
िटल	2130
प्रक्	2131
बदला	2132
कड़	2133
निधि	2134
भे	2135
ावना	2136
अहम	2137
कीमत	2138
हास	2139
ानी	2140
ोस्टम	2141
मारो	2142
ख़	2143
वश	2144
र्थ	2145
सीटों	2146
अंतर	2147
रें	2148
तीस	2149
पदाध	2150
सल	2151
तय	2152
गौर	2153
अगले	2154
जाय	2155
्रप	2156
ील	2157
चार्य	2158
in	2159
मारोह	2160
फॉ	2161
##ेंद	2162
ामा	2163
##ूब	2164
स्वी	2165
संघ	2166
हस	2167
संजय	2168
अद	2169
फीस	2170
##ब्ध	2171
फर्	2172
ठी	2173
श्रद्	2174
सहयोग	2175
पलब्ध	2176
गेट	2177
आयोग	2178
वायर	2179
लगाए	2180
दुर्	2181
त्म	2182
भेजा	2183
जिलों	2184
गलत	2185
फोटो	2186
िड	2187
्त	2188
##दार	2189
अधि	2190
मं	2191
्ड	2192
धु	2193
दय	2194
र्व	2195
दावा	2196
मना	2197
जिम्म	2198
ऐसी	2199
##ंबई	2200
मुंबई	2201
पन	2202
ांव	2203
नल	2204
िम	2205
कार्ड	2206
तृत्व	2207
##क्ति	2208
##सव	2209
साध	2210
यूपी	2211
रखने	2212
गर्मी	2213
पैसे	2214
चौक	2215
ूर्ति	2216
##ैल	2217
##क्ट	2218
ग्रह	2219
दुनिय	2220
प्रैल	2221
एंट	2222
ताकि	2223
व्याप	2224
नीचे	2225
र्मचा	2226
मूल	2227
पूछ	2228
फ्	2229
##दम	2230
पटना	2231
माना	2232
ीप	2233
टक्	2234
कब्	2235
उर्फ	2236
तरी	2237
धारा	2238
ीक्षक	2239
लगाने	2240
म्मी	2241
ीस	2242
ीनियर	2243
पण	2244
वश्य	2245
फायर	2246
बल्कि	2247
टक्कर	2248
तुल	2249
रत	2250
इनमें	2251
सौंप	2252
नियम	2253
रिल	2254
िदेश	2255
जाम	2256
दरअ	2257
बेहतर	2258
र्ज	2259
दरअसल	2260
सर्	2261
ूर्ण	2262
द्य	2263
जाकर	2264
सिर	2265
प्रीम	2266
लादेश	2267
लखन	2268
लिय	2269
सिटी	2270
टाइ	2271
टन	2272
िए	2273
डा	2274
बांग्	2275
्रा	2276
फैसला	2277
सीमा	2278
घोषणा	2279
ून	2280
हासिल	2281
डेट	2282
मकान	2283
##नात	2284
ट्रक	2285
तैनात	2286
टॉ	2287
कल्प	2288
21	2289
रल	2290
मेल	2291
ेदारी	2292
तस्	2293
वक्त	2294
##माल	2295
तेमाल	2296
19	2297
सदर	2298
ीत	2299
##an	2300
्रेस	2301
मैदान	2302
रिकेट	2303
्रपति	2304
रहते	2305
##शु	2306
ड्ड	2307
वृ	2308
शिक्ष	2309
##लों	2310
ेक्टर	2311
आख	2312
हमने	2313
ाता	2314
्रधान	2315
ॉलो	2316
बेच	2317
तत्	2318
कानून	2319
ीएम	2320
बाबा	2321
कहीं	2322
रहेगा	2323
वक्	2324
##सत	2325
काट	2326
्रकार	2327
फाइन	2328
चंद	2329
उच	2330
ऊपर	2331
िन्	2332
पौ	2333
ेम	2334
हालत	2335
कॉर्ड	2336
ाथम	2337
##ोक	2338
##ल्क	2339
दास	2340
लक्ष	2341
ेय	2342
ाड़ी	2343
##हाल	2344
िलहाल	2345
खोल	2346
ेना	2347
वित्त	2348
तीनों	2349
सैन	2350
##चीत	2351
ातचीत	2352
गृ	2353
गृह	2354
दश	2355
बोले	2356
खराब	2357
ारखंड	2358
परिसर	2359
ेस	2360
वश्यक	2361
नया	2362
रिज	2363
वायरल	2364
ाथमिक	2365
बनने	2366
ठीक	2367
क्ल	2368
पत्ति	2369
पार्क	2370
गंगा	2371
##बी	2372
जमा	2373
जरूरत	2374
रं	2375
शंकर	2376
िट	2377
ne	2378
ॉल	2379
सुनी	2380
रोज	2381
मेरी	2382
विचार	2383
बहन	2384
खुल	2385
थानों	2386
खत्म	2387
िटी	2388
ावत	2389
सेंटर	2390
काली	2391
टि	2392
कराई	2393
ुनवाई	2394
ठबंध	2395
यही	2396
ठबंधन	2397
घोषित	2398
##टक	2399
निजी	2400
स्टूड	2401
भीड़	2402
सेक्	2403
हिस्	2404
##प्	2405
वें	2406
िंदर	2407
म्मान	2408
मनी	2409
हन	2410
पांड	2411
राउ	2412
म्मीद	2413
##ar	2414
लखनऊ	2415
ुट	2416
##षि	2417
जवान	2418
लूट	2419
त्व	2420
आपके	2421
लव	2422
स्ल	2423
सात	2424
ागरिक	2425
पहला	2426
याच	2427
ाइव	2428
ायल	2429
होटल	2430
##स्था	2431
जिन्ह	2432
रानी	2433
ूं	2434
न्ना	2435
िलकर	2436
चीन	2437
##तिम	2438
ोट	2439
उठा	2440
जोर	2441
सागर	2442
रेड	2443
द्योग	2444
वेद	2445
अंतिम	2446
बाग	2447
वास	2448
अंतर्	2449
मजबूत	2450
परिषद	2451
कृत	2452
ाओं	2453
कॉन्	2454
सफाई	2455
बंग	2456
िश्न	2457
ड़ा	2458
रोहित	2459
26	2460
मित	2461
लु	2462
वाने	2463
ात्र	2464
ोत्	2465
कॉल	2466
प्रेम	2467
##ेटी	2468
कमेटी	2469
्रवेश	2470
रखी	2471
भिष	2472
हमारी	2473
कमी	2474
पाया	2475
उच्च	2476
हे	2477
तभी	2478
ौर	2479
देना	2480
क़	2481
रोब	2482
ल्या	2483
जरिए	2484
भिषेक	2485
एंड	2486
ोली	2487
र्षी	2488
थिय	2489
िक्षक	2490
सिद्ध	2491
र्षीय	2492
धमकी	2493
रक्षण	2494
आं	2495
ीक	2496
उतर	2497
लगाई	2498
हिंदू	2499
यूनि	2500
##ानक	2501
नाल	2502
चिक	2503
क्ष्य	2504
कब	2505
सही	2506
##ालत	2507
स्ताव	2508
अचानक	2509
महारा	2510
अदालत	2511
ोय	2512
करवा	2513
साब	2514
रिष्ठ	2515
अग्रव	2516
क्षि	2517
पाठ	2518
चिकित	2519
ालू	2520
भूमि	2521
जोड़	2522
100	2523
मर्थन	2524
आते	2525
लाग	2526
ारदात	2527
लित	2528
फल	2529
चाहते	2530
अश	2531
ॉलोनी	2532
ोल	2533
उसी	2534
ीक्षण	2535
23	2536
कारी	2537
क्षण	2538
स्तुत	2539
कूल	2540
सपा	2541
निवेश	2542
अशोक	2543
अंक	2544
उम्र	2545
जाति	2546
ावजूद	2547
इंत	2548
ायब	2549
लागू	2550
ूस	2551
ेंडर	2552
गौ	2553
ैम	2554
प्रिय	2555
त्त	2556
ल्याण	2557
यर	2558
ल्ट	2559
धारित	2560
आन	2561
##जों	2562
उनसे	2563
लैंड	2564
केज	2565
पटेल	2566
शांति	2567
न्न	2568
कौन	2569
टूट	2570
सहा	2571
ाराय	2572
याचिक	2573
गेंद	2574
नौकर	2575
कही	2576
शिक	2577
दम	2578
ारायण	2579
शक्ति	2580
बदलाव	2581
तुर	2582
्ष	2583
थियार	2584
##दाय	2585
बांध	2586
मजद	2587
छोटे	2588
सिव	2589
योगित	2590
रूम	2591
ग्	2592
##र्ष	2593
रिक्त	2594
भावित	2595
##ील	2596
वर्मा	2597
श्चित	2598
वक्ता	2599
लान	2600
ित्र	2601
र्ट	2602
बनाकर	2603
जरू	2604
##पन	2605
त्रि	2606
षित	2607
ारे	2608
रुक	2609
ंदन	2610
सजा	2611
शेख	2612
डिज	2613
राउंड	2614
दिखाई	2615
ास्ते	2616
सहाय	2617
सां	2618
ुकसान	2619
विदेश	2620
र्क	2621
स्टार	2622
ाइज	2623
तिहा	2624
ऑफिस	2625
##चन	2626
रहता	2627
रोबार	2628
जरूरी	2629
सत्	2630
किस	2631
दिग्	2632
टाल	2633
मारी	2634
##ुप	2635
नो	2636
बंधन	2637
ांकन	2638
बंगाल	2639
उससे	2640
अजय	2641
आवास	2642
तने	2643
उपयोग	2644
न्य	2645
स्म	2646
पीड़ित	2647
पाई	2648
हॉस्प	2649
28	2650
ैक	2651
हिस्स	2652
िफ्ट	2653
मजदूर	2654
असर	2655
चित	2656
्त्र	2657
बनाई	2658
करेगी	2659
ेस्ट	2660
सकें	2661
ाइन	2662
तिहास	2663
गोल	2664
फैल	2665
आउ	2666
किश	2667
क्ति	2668
आउट	2669
आत्म	2670
हवा	2671
ष्ट्र	2672
आत	2673
राहत	2674
ीकरण	2675
्म	2676
िज	2677
ग्रुप	2678
##सद	2679
डिप	2680
कर्मी	2681
लक्ष्	2682
अज	2683
क्क	2684
युवती	2685
ाला	2686
ोत	2687
्रदान	2688
तरीके	2689
इक	2690
प्शन	2691
31	2692
िश्रा	2693
##खिल	2694
प्त	2695
ुर्	2696
लगने	2697
योध्य	2698
इंतजा	2699
क्रिय	2700
जब्त	2701
राइवर	2702
क्षिण	2703
ीवी	2704
रंप	2705
सीसीट	2706
ूमिका	2707
27	2708
चय	2709
्यु	2710
कॉम	2711
धू	2712
लंब	2713
चोट	2714
चेक	2715
ेल्	2716
डीए	2717
जिनक	2718
सुख	2719
किशोर	2720
ताला	2721
ट्रां	2722
शील	2723
नम	2724
वान	2725
ाण	2726
##रात	2727
ra	2728
एजेंस	2729
र्डर	2730
##ीज	2731
्वागत	2732
आनंद	2733
कड़ी	2734
च्छ	2735
##धर	2736
घुस	2737
रिलीज	2738
तुरंत	2739
इतना	2740
रजि	2741
वॉ	2742
हमले	2743
यम	2744
##सील	2745
तहसील	2746
ाहनों	2747
कपूर	2748
रजिस्	2749
खर्च	2750
##िग	2751
बजट	2752
ैया	2753
्रचार	2754
णय	2755
लर	2756
श्म	2757
ेरा	2758
दिशा	2759
वर्क	2760
ॉर्ट	2761
्रता	2762
दोष	2763
इंट	2764
लगाकर	2765
नौकरी	2766
िंक	2767
राग	2768
प्प	2769
बीमार	2770
नला	2771
खिलाड	2772
सलमान	2773
मुख	2774
मिशन	2775
अमर	2776
फरवरी	2777
र्य	2778
उपा	2779
णी	2780
ुआ	2781
ालिका	2782
मेरा	2783
शांत	2784
ुज	2785
उपाध	2786
धाल	2787
संसद	2788
राजेश	2789
कृषि	2790
बालिग	2791
मुद्द	2792
बीते	2793
लगता	2794
नलाइन	2795
राध	2796
रेट	2797
ैंड	2798
तेल	2799
तेजी	2800
सूर्य	2801
ंध	2802
काउ	2803
हाउ	2804
आवाज	2805
घरों	2806
चांद	2807
हनु	2808
छत्त	2809
कदम	2810
लेते	2811
ठाक	2812
गर	2813
वर	2814
सीटें	2815
हाउस	2816
र्थिक	2817
सिविल	2818
यदि	2819
ीश	2820
ज्ञात	2821
बीर	2822
इलेक्	2823
##ीर	2824
दीपक	2825
नोटिस	2826
ेला	2827
बताते	2828
फीसदी	2829
छह	2830
फाय	2831
ास्त	2832
ायक	2833
पॉ	2834
##र्क	2835
रहेगी	2836
फंस	2837
ोक	2838
ारं	2839
पौध	2840
मालिक	2841
लाका	2842
्यास	2843
ास्कर	2844
ंस्था	2845
लेख	2846
क्यू	2847
श्या	2848
कमल	2849
जमकर	2850
ारंभ	2851
श्याम	2852
नेट	2853
विषय	2854
अर्	2855
मू	2856
लाकात	2857
शाला	2858
सेव	2859
##ताह	2860
एक्ट	2861
बेटा	2862
ाठ	2863
चले	2864
भजन	2865
हाय	2866
आयु	2867
प्ताह	2868
धालु	2869
आइ	2870
सीध	2871
मैन	2872
तस्कर	2873
धाम	2874
नाराज	2875
##गढ़	2876
##ोध	2877
करेगा	2878
ीसगढ़	2879
कला	2880
जू	2881
जेक्ट	2882
गैंग	2883
डर	2884
ण्ड	2885
सला	2886
ोप	2887
##गार	2888
विज	2889
ोजगार	2890
विष्य	2891
मण	2892
ईडी	2893
उतार	2894
लें	2895
हनुम	2896
सफर	2897
खाल	2898
देह	2899
िरासत	2900
डायर	2901
वती	2902
संब	2903
सामना	2904
मनोज	2905
टा	2906
िस्टम	2907
चौरा	2908
मोहम	2909
ब्द	2910
मोहम्	2911
सहायक	2912
ेली	2913
पचार	2914
ेव	2915
लाश	2916
पीट	2917
ूत	2918
ेरी	2919
ठाकुर	2920
आव	2921
##ra	2922
रहती	2923
अपील	2924
फर्जी	2925
बचा	2926
जुड़े	2927
्रताप	2928
संबोध	2929
दूसरा	2930
रेप	2931
हरि	2932
पालन	2933
मंच	2934
यूज	2935
ड़े	2936
नत	2937
हाज	2938
हल	2939
खुलास	2940
दयपुर	2941
एग्	2942
सीरीज	2943
श्रम	2944
आतंक	2945
जिसकी	2946
मिट	2947
29	2948
हरी	2949
ियम	2950
हाराज	2951
ेग	2952
##ूक	2953
हिम	2954
नार	2955
इन्ह	2956
ोत्सव	2957
राठ	2958
ंचालन	2959
सरा	2960
सुधार	2961
राजा	2962
अनिल	2963
वां	2964
मतदात	2965
साहू	2966
ंजाम	2967
तवाल	2968
देशों	2969
टेन	2970
काउंट	2971
लाकों	2972
खड़े	2973
सुनील	2974
गरी	2975
ोर्स	2976
राइल	2977
रिश	2978
ार्षद	2979
चली	2980
टक	2981
सत्र	2982
विवाह	2983
रमा	2984
्लो	2985
ंपर्क	2986
चौराह	2987
देंगे	2988
स्लिम	2989
फार	2990
व्र	2991
मिलते	2992
ंदोल	2993
स्वीर	2994
िद	2995
तंत्र	2996
##ञा	2997
अच्छी	2998
योगी	2999
कंपनि	3000
पेट्	3001
छु	3002
नाई	3003
वर्तम	3004
फाइनल	3005
र्ग	3006
ाइड	3007
बच्ची	3008
तवाली	3009
##साह	3010
त्साह	3011
ामलों	3012
लेट	3013
##ांस	3014
ांत	3015
चना	3016
लपुर	3017
मेह	3018
जैसी	3019
मंडी	3020
रज	3021
िहार	3022
बैठे	3023
जंगल	3024
स्टा	3025
पोल	3026
एक्ट्	3027
##on	3028
##ौत	3029
नाग	3030
##ेशल	3031
तिथि	3032
्पेशल	3033
चुनौत	3034
पर्व	3035
शान	3036
र्सि	3037
सोच	3038
पैर	3039
ग्न	3040
कृति	3041
अच्छा	3042
नक्	3043
फसल	3044
सख	3045
बाज	3046
पहन	3047
ेरि	3048
ंदोलन	3049
मगर	3050
##तीश	3051
नीतीश	3052
रांच	3053
##यों	3054
भु	3055
सेल	3056
ाएं	3057
चर	3058
सोने	3059
आद	3060
ीरे	3061
्राइ	3062
दित्य	3063
ामाजि	3064
फ्र	3065
##ुष	3066
डीसी	3067
श्किल	3068
सुरक्	3069
sh	3070
गति	3071
्रेड	3072
केजरी	3073
ुद्द	3074
यात	3075
इंज	3076
िला	3077
क्व	3078
र्प	3079
सालों	3080
ांसी	3081
ड़त	3082
यून	3083
पंच	3084
##पाद	3085
देखकर	3086
मोह	3087
त्पाद	3088
टॉप	3089
चढ़	3090
्ञा	3091
अलर्ट	3092
्ञापन	3093
जार	3094
मल	3095
पहल	3096
मौका	3097
लका	3098
पुरी	3099
माय	3100
चलने	3101
स्तार	3102
्वामी	3103
सत्ता	3104
तिक	3105
दबा	3106
कीय	3107
अतिथि	3108
थापित	3109
गज	3110
िनी	3111
ुजरात	3112
खो	3113
ल्ड	3114
##टो	3115
शिविर	3116
साइबर	3117
मरीज	3118
हेम	3119
ावर	3120
व्रत	3121
ाटा	3122
ेख	3123
्रो	3124
तिविध	3125
मीणा	3126
एक्टर	3127
रैली	3128
उड़	3129
िवारी	3130
िदेशक	3131
60	3132
गणेश	3133
ंचालक	3134
आईटी	3135
्पष्ट	3136
सर्वे	3137
कूलों	3138
ीएस	3139
##ॉक	3140
धिकतम	3141
ंदा	3142
इधर	3143
द्ध	3144
तू	3145
मैने	3146
सूत्र	3147
कैंप	3148
छाप	3149
ऑटो	3150
गन	3151
टर्	3152
ाले	3153
ैर	3154
वृद्ध	3155
35	3156
क्स	3157
फॉर्म	3158
ठंड	3159
नू	3160
भ्य	3161
ाट	3162
ुनाव	3163
ॉक	3164
सीता	3165
श्वास	3166
दस्	3167
ाढ़	3168
वितर	3169
मुकेश	3170
नाटक	3171
बिग	3172
ुनावी	3173
हमेश	3174
प्लान	3175
खाली	3176
एप	3177
टोल	3178
##da	3179
बढ़ा	3180
मनाया	3181
गईं	3182
पाए	3183
पुरुष	3184
हमेशा	3185
आकर	3186
एशन	3187
ोटी	3188
##er	3189
उसमें	3190
अमृत	3191
रने	3192
युद्ध	3193
अंग	3194
गड़	3195
एसड	3196
श्रे	3197
कब्जे	3198
##नेश	3199
लू	3200
सप	3201
पूजन	3202
##ुड	3203
नेस	3204
पेपर	3205
र्सिट	3206
ुझ	3207
संविध	3208
चार्ज	3209
लिस्ट	3210
देता	3211
ार्टम	3212
मनीष	3213
वेस्ट	3214
ाइट	3215
लीव	3216
एयरप	3217
पारी	3218
यक	3219
वत	3220
राजी	3221
मानित	3222
पन्न	3223
यूनिव	3224
पस	3225
पार्ट	3226
डो	3227
ावरण	3228
ंदे	3229
पूछा	3230
गोपाल	3231
प्लेट	3232
चयन	3233
ागरूक	3234
ईर	3235
रीजों	3236
्रभा	3237
तीसरे	3238
्रभाव	3239
घू	3240
शीर्	3241
खूब	3242
शल	3243
ोध	3244
साइड	3245
इज	3246
सन	3247
खुश	3248
मश	3249
यल	3250
ास्ट	3251
ैसा	3252
ानपुर	3253
कमरे	3254
शिप	3255
र्ल्ड	3256
िनारे	3257
ईरान	3258
re	3259
##jp	3260
ांट	3261
ुद्ध	3262
म्प	3263
वजन	3264
ावा	3265
ावधान	3266
बॉल	3267
ास्तव	3268
##्स	3269
ेंट्स	3270
चौथ	3271
##सून	3272
उनको	3273
देश्य	3274
हादसा	3275
सख्त	3276
मशी	3277
सुपर	3278
ड़ी	3279
ंत्रि	3280
मशीन	3281
नज	3282
इनक	3283
एसएस	3284
रिश्त	3285
ुला	3286
काश	3287
सेंस	3288
आठ	3289
वानी	3290
वाचन	3291
फार्म	3292
मैनेज	3293
काब	3294
विधि	3295
रूस	3296
सफलता	3297
शोध	3298
समान	3299
सुनि	3300
आरती	3301
##फर	3302
लाया	3303
ाराम	3304
बेहद	3305
डीज	3306
ाइल	3307
कथा	3308
प्रथम	3309
ेप	3310
धार्म	3311
##दीप	3312
ब्लॉक	3313
कू	3314
जिसका	3315
जिलाध	3316
तलब	3317
शरी	3318
सत्य	3319
ुम	3320
मुदाय	3321
अली	3322
परेशन	3323
चौह	3324
रवाना	3325
ीच	3326
गणना	3327
पशु	3328
जुर्	3329
प्रीत	3330
शुक्	3331
्ला	3332
ूनतम	3333
वही	3334
नाव	3335
ाच	3336
ब्ब	3337
लंबे	3338
लाम	3339
चौकी	3340
लॉन	3341
आता	3342
##नीक	3343
बाकी	3344
तकनीक	3345
मोटर	3346
संतोष	3347
जुर्ग	3348
प्रेस	3349
्रखंड	3350
म्ब	3351
पंड	3352
नुमान	3353
अवध	3354
टेक्	3355
कौर	3356
चंड	3357
हने	3358
़ी	3359
यंत्र	3360
शप	3361
कोच	3362
लाइट	3363
क्रमण	3364
भ्यर्	3365
माधान	3366
प्लाई	3367
लीवुड	3368
पाट	3369
पैसा	3370
गाय	3371
द्र	3372
दीक	3373
ानसून	3374
एसो	3375
फीट	3376
िपक्ष	3377
आदमी	3378
शरीर	3379
ग्व	3380
िस्ट	3381
र्पित	3382
ग्वाल	3383
हित	3384
##ंता	3385
जनप	3386
चौहान	3387
दह	3388
इनके	3389
राकेश	3390
कहानी	3391
आखि	3392
आसान	3393
मिस	3394
संदी	3395
उज	3396
ीने	3397
आखिरी	3398
ोभ	3399
##al	3400
बताई	3401
संदीप	3402
एसोसि	3403
bjp	3404
गार्ड	3405
कृतिक	3406
हरण	3407
मारने	3408
चिंता	3409
दब	3410
प्य	3411
़ियों	3412
ोई	3413
रखे	3414
##णाम	3415
रिणाम	3416
सीजन	3417
गुजर	3418
दाखिल	3419
ाकू	3420
इमेज	3421
भाषा	3422
जता	3423
जमान	3424
वकी	3425
एसआई	3426
ाठी	3427
जोन	3428
मार्ट	3429
र्षों	3430
इतनी	3431
ाइवेट	3432
लाने	3433
हता	3434
साय	3435
र्ण	3436
इंडस्	3437
मानव	3438
सूर	3439
ेक्स	3440
ख्	3441
ैन	3442
ापुर	3443
टेक	3444
टरी	3445
##ct	3446
गैर	3447
नवी	3448
साझ	3449
ानंद	3450
स्टाफ	3451
पसंद	3452
खाना	3453
नश	3454
प्रेर	3455
निश	3456
80	3457
धानी	3458
कालीन	3459
िश्नर	3460
योजक	3461
कहां	3462
द्वि	3463
##बाज	3464
ासन	3465
हेड	3466
##ौल	3467
लाह	3468
रुख	3469
वकील	3470
नने	3471
िंट	3472
सेना	3473
इंस्ट	3474
सिय	3475
बादल	3476
फु	3477
शुल्क	3478
ुलाया	3479
शुक्ल	3480
ाती	3481
ुरी	3482
लॉन्च	3483
70	3484
चोर	3485
र्जी	3486
मान्य	3487
रॉ	3488
रच	3489
रविंद	3490
ाउंड	3491
ट्रैफ	3492
अहमद	3493
शपथ	3494
एससी	3495
सूची	3496
प्यार	3497
रान	3498
श्न	3499
##ामी	3500
मिलता	3501
new	3502
त्ती	3503
मॉड	3504
घो	3505
ोस	3506
बीआई	3507
पीठ	3508
हायता	3509
खाने	3510
जम्म	3511
पथ	3512
##at	3513
भावना	3514
सेंट	3515
रोकने	3516
ोन	3517
अरु	3518
डिप्ट	3519
जम्मू	3520
किमी	3521
फायदा	3522
दबाव	3523
ंथ	3524
माहौल	3525
ेंगी	3526
रफ्	3527
शूट	3528
प्रशि	3529
साथी	3530
ामी	3531
ीकृत	3532
गली	3533
##ूह	3534
सोनी	3535
चेयर	3536
अरुण	3537
तान	3538
ल्ह	3539
दिवास	3540
जमानत	3541
उक्त	3542
ड्य	3543
समूह	3544
िकल	3545
साइट	3546
##मता	3547
क्सर	3548
र्श	3549
रेलिय	3550
ड्यूट	3551
कक्षा	3552
चू	3553
ड़क	3554
टैक्स	3555
गरीब	3556
पारा	3557
गोद	3558
रक	3559
ल्यू	3560
##मति	3561
निग	3562
नुमति	3563
नस	3564
फ्ट	3565
ीआई	3566
क्त	3567
ाइकिल	3568
फैक्	3569
ाउंस	3570
्षमता	3571
ंगा	3572
रथ	3573
##लर	3574
सैनी	3575
्क	3576
बचाने	3577
प्तान	3578
एडव	3579
जॉ	3580
ाभ	3581
ीजी	3582
दीवा	3583
वेल	3584
ंगल	3585
ुर्गा	3586
अंब	3587
जानते	3588
चालित	3589
मध्यप	3590
्रिंस	3591
##ैन	3592
लोड	3593
ाइप	3594
जिद	3595
संभाल	3596
िये	3597
थानाध	3598
दिव्य	3599
दृ	3600
ुरा	3601
पड़े	3602
र्भ	3603
##ष्प	3604
तरा	3605
नर्	3606
ोयल	3607
घूम	3608
काबले	3609
सियस	3610
वस	3611
##नेट	3612
लापर	3613
द्द	3614
200	3615
ट्टी	3616
उज्ज	3617
लापरव	3618
मंजू	3619
्त्री	3620
खर	3621
कांत	3622
विवे	3623
तावे	3624
ाउन	3625
धो	3626
वेब	3627
डिस्	3628
बहु	3629
ापन	3630
टका	3631
डूब	3632
ीरा	3633
##दमा	3634
कोर	3635
रेफर	3636
ुकदमा	3637
ॉर्टम	3638
ीह	3639
ूर	3640
्ती	3641
##पंच	3642
##ir	3643
सेन	3644
देग	3645
निभ	3646
बारा	3647
सरपंच	3648
तारीख	3649
ाब	3650
ेमी	3651
माप्त	3652
एफआई	3653
करनी	3654
सेट	3655
नील	3656
फैसले	3657
सार्	3658
स्टेट	3659
हिं	3660
बूथ	3661
इंडि	3662
त्मक	3663
तावेज	3664
कने	3665
ाफ	3666
ेवर	3667
्सा	3668
क्की	3669
आस	3670
फि	3671
ीपुर	3672
र्जर	3673
वादी	3674
ज्ज	3675
बरस	3676
र्जु	3677
जताई	3678
लीग	3679
एक्शन	3680
ाएंगे	3681
नियु	3682
कव	3683
ियन	3684
पलट	3685
ॉट	3686
बीसी	3687
रखते	3688
बेस	3689
त्ता	3690
र्जुन	3691
ांच	3692
ाजी	3693
##di	3694
ानें	3695
हेल्	3696
चंडी	3697
ऑस्ट	3698
रास्त	3699
लाई	3700
रेस्	3701
नाड	3702
्ट्र	3703
चांदी	3704
मॉडल	3705
45	3706
करवाई	3707
श्त	3708
ागत	3709
गौरव	3710
राजीव	3711
news	3712
कस्	3713
घट	3714
रभ	3715
कुश	3716
पावर	3717
डीएम	3718
ोहल्ल	3719
अरब	3720
मोर्च	3721
ठेक	3722
अश्	3723
जाल	3724
नर्स	3725
ुंड	3726
दस	3727
दैन	3728
हंग	3729
िलास	3730
तुलन	3731
सकेंग	3732
रकार	3733
##वट	3734
हमारा	3735
िरावट	3736
र्च	3737
पुरस्	3738
लील	3739
ुराने	3740
टाइम	3741
फें	3742
भरा	3743
्रति	3744
माइ	3745
ारण	3746
स्टोर	3747
त्येक	3748
लकाता	3749
दैनिक	3750
दाम	3751
नकर	3752
सर्च	3753
थापना	3754
फेंक	3755
मास	3756
ट्रॉ	3757
ंडर	3758
्तीफ	3759
रग	3760
्रदीप	3761
मर	3762
क्लास	3763
रमेश	3764
ूद	3765
कारा	3766
मुक्त	3767
ल्प	3768
सलाह	3769
संभव	3770
शिकार	3771
मणि	3772
वसूल	3773
माने	3774
यान	3775
िब	3776
ठगी	3777
रबा	3778
िंड	3779
करियर	3780
्याप	3781
क्कत	3782
यमित	3783
ंभ	3784
होनी	3785
गाड़	3786
कर्ष	3787
आगामी	3788
छठ	3789
शर	3790
ूल	3791
ॉक्स	3792
गोर	3793
विशाल	3794
हिंसा	3795
उल्	3796
ॉप	3797
प्रद	3798
वीकार	3799
ेडिय	3800
्वच	3801
ंकी	3802
इंच	3803
वेश	3804
ीख	3805
स्ती	3806
बीएस	3807
डॉलर	3808
साबित	3809
वितरण	3810
एर	3811
्यो	3812
संदेश	3813
टायर	3814
हरे	3815
##ri	3816
मांगी	3817
रंजन	3818
उठाया	3819
नशे	3820
टिस	3821
साउ	3822
बाबू	3823
ाइस	3824
एफआईआ	3825
चंडीग	3826
ऑस्ट्	3827
ॉर्म	3828
मेलन	3829
ुटेज	3830
st	3831
##आर	3832
ट्रेट	3833
जाया	3834
तीसरी	3835
तालाब	3836
नहर	3837
पब	3838
खाते	3839
इंटरव	3840
मूल्य	3841
ion	3842
कोट	3843
पुष्प	3844
ोधपुर	3845
छत	3846
मियों	3847
शै	3848
राट	3849
क्लब	3850
आजा	3851
मीक्ष	3852
इसको	3853
एसटी	3854
्टैंड	3855
िकर	3856
ुगत	3857
बुला	3858
आती	3859
आपकी	3860
ष्ठा	3861
छापेम	3862
आजाद	3863
नवर	3864
ेन्	3865
कैद	3866
##le	3867
रोड़	3868
यूनिट	3869
cm	3870
खी	3871
मक	3872
यं	3873
िनमें	3874
अनुभ	3875
वाड़ा	3876
काबू	3877
्रमा	3878
##जीव	3879
चाहता	3880
ंघर्ष	3881
ुगतान	3882
्रमाण	3883
गठन	3884
फ्त	3885
शही	3886
ोहर	3887
क्का	3888
हालात	3889
च्चा	3890
िक्रम	3891
ग्रहण	3892
नक्सल	3893
कनेक्	3894
शहीद	3895
अर्थ	3896
वहन	3897
ावल	3898
हाईवे	3899
ोटिंग	3900
साउथ	3901
ॉलि	3902
ुद्दे	3903
ीज	3904
##णस	3905
विमान	3906
ानू	3907
बैग	3908
इंस्प	3909
िनो	3910
ाराणस	3911
डिव	3912
नाना	3913
ोफ	3914
ौली	3915
सीबी	3916
बध	3917
रद्द	3918
नती	3919
शाना	3920
श्वर	3921
दूरी	3922
ंगर	3923
भीतर	3924
दर्जन	3925
अनुभव	3926
िकस	3927
पैदा	3928
क्रि	3929
बेर	3930
ुरानी	3931
ीएच	3932
नवीन	3933
िकसित	3934
कोटा	3935
सिन	3936
ार्थी	3937
दिग्ध	3938
लभ	3939
लाना	3940
ुत	3941
ॉन्	3942
दर्द	3943
ोरों	3944
िंदा	3945
ंश	3946
टें	3947
घाटन	3948
खि	3949
ाका	3950
ुब	3951
विन	3952
लेबाज	3953
लोह	3954
अच्छे	3955
हंगाम	3956
किंग	3957
लेना	3958
##रीय	3959
सोना	3960
्तरीय	3961
राना	3962
फैंस	3963
प्राण	3964
भरो	3965
हव	3966
भीषण	3967
्रेशन	3968
्रांस	3969
रेव	3970
र्विस	3971
याज	3972
जनक	3973
गोव	3974
मर्थक	3975
ीका	3976
बुल	3977
तुर्	3978
्लांट	3979
तम	3980
मता	3981
िष्ण	3982
प्रज	3983
खुशी	3984
बंदी	3985
ामक	3986
संगीत	3987
ीरज	3988
भरोस	3989
िष्णु	3990
भक्त	3991
##्लि	3992
लाखों	3993
पब्लि	3994
भ्र	3995
र्जन	3996
ितना	3997
ेलर	3998
िन्द	3999
सराय	4000
रांची	4001
जित	4002
्च	4003
ानक	4004
रेंज	4005
ांवों	4006
ओम	4007
कश्	4008
डाय	4009
यश	4010
रोग	4011
ूंगा	4012
लाकार	4013
रेज	4014
उपाय	4015
महाप	4016
धोख	4017
कंट	4018
ma	4019
यकाल	4020
पवन	4021
ेंच	4022
सुंदर	4023
ीटिंग	4024
्यापक	4025
नंद	4026
रहीं	4027
वल	4028
हस्त	4029
फाइल	4030
मंज	4031
फ्ला	4032
vi	4033
गरा	4034
हफ	4035
मीर	4036
हटाने	4037
सैनिक	4038
ाणी	4039
ेडियम	4040
अक्ष	4041
मच	4042
ौत	4043
आश्व	4044
आंख	4045
संव	4046
कामना	4047
नतीज	4048
ip	4049
कठ	4050
राधिक	4051
ऊंच	4052
रसा	4053
हिर	4054
मुह	4055
जुर्म	4056
पढ़ाई	4057
ंपिक	4058
बजकर	4059
ैमरे	4060
सूरज	4061
्वच्छ	4062
एएस	4063
रदार	4064
ोवि	4065
लीट	4066
शहरों	4067
टिप्	4068
टेक्न	4069
िनोद	4070
गि	4071
फूल	4072
मरा	4073
बाई	4074
सबक	4075
सुरेश	4076
विवेक	4077
ंसर	4078
बम	4079
मप	4080
जात	4081
सुन	4082
आखिर	4083
तिन	4084
ोटर	4085
किशन	4086
लेश	4087
##रेन	4088
सोरेन	4089
न्यूज	4090
ोफे	4091
##ंका	4092
बिनेट	4093
गाज	4094
चाहती	4095
गैस	4096
ंकित	4097
आशंका	4098
श्मीर	4099
शानदा	4100
पंडित	4101
ाख	4102
दिनेश	4103
टीच	4104
जगद	4105
चीज	4106
कब्ज	4107
एरिया	4108
ंह	4109
नीता	4110
गोल्ड	4111
आरपी	4112
भागों	4113
जिंद	4114
बंधक	4115
ेले	4116
कां	4117
कारि	4118
गुल	4119
जयंत	4120
्राइम	4121
ड़ताल	4122
वादा	4123
स्टल	4124
पाली	4125
पदों	4126
ांज	4127
बचाव	4128
वजनिक	4129
इन्	4130
त्मा	4131
लुध	4132
ोविंद	4133
प्रव	4134
संजीव	4135
वाट	4136
पीएस	4137
बुक	4138
जगहों	4139
ल्की	4140
वर्तन	4141
खिलेश	4142
िक्री	4143
िन्हा	4144
पें	4145
ेती	4146
ियो	4147
रोशन	4148
ंत्रण	4149
ल्टी	4150
छुट्	4151
up	4152
ंशु	4153
अके	4154
ीष	4155
ौजू	4156
ितनी	4157
पत्थ	4158
रेंड	4159
निशान	4160
अकेल	4161
ौजूदा	4162
90	4163
ंजन	4164
भूषण	4165
गौतम	4166
कत	4167
ाक्ष	4168
विस्	4169
समस्त	4170
वेतन	4171
ियमों	4172
लुधिय	4173
ऐप	4174
रपुर	4175
रक्षक	4176
अनि	4177
क्रेन	4178
जानिए	4179
ाहक	4180
िताब	4181
फसर	4182
ंबी	4183
ंबित	4184
धरना	4185
ोफेसर	4186
रौ	4187
सका	4188
ृत्य	4189
ोद	4190
दरवाज	4191
चेताव	4192
सांस्	4193
टर्न	4194
फसरों	4195
sa	4196
ऊर्	4197
पंक	4198
ूठ	4199
मिलती	4200
आपका	4201
िसने	4202
गोरख	4203
ंकड़	4204
पिल	4205
पाने	4206
बद्ध	4207
ावास	4208
ाद्य	4209
्रू	4210
बादी	4211
ाइयों	4212
ांप	4213
ातक	4214
कच	4215
चलाने	4216
ंकट	4217
ोसी	4218
निया	4219
na	4220
गीत	4221
िशन	4222
##in	4223
बीन	4224
अजम	4225
32	4226
झा	4227
मति	4228
ानि	4229
ांश	4230
गना	4231
ातें	4232
हराया	4233
एट	4234
दाय	4235
्रेंस	4236
अपर	4237
चारों	4238
िदेशी	4239
pm	4240
पत	4241
ांगा	4242
काबल	4243
एमपी	4244
शाख	4245
ालि	4246
ेक्ट	4247
ग्नि	4248
धव	4249
ाचार	4250
ानना	4251
दलों	4252
पेंशन	4253
व्ह	4254
ोगा	4255
स्टे	4256
ट्रैक	4257
पांडे	4258
ेकर	4259
ेरे	4260
नाक	4261
्यपाल	4262
ट्रि	4263
ंगी	4264
ेटर	4265
सिंग	4266
दुर्ग	4267
पने	4268
ाऊ	4269
्यक्त	4270
सिया	4271
मंग	4272
म्ह	4273
ाँ	4274
ैप	4275
द्व	4276
मला	4277
लड	4278
करार	4279
्टिव	4280
म्बर	4281
अफ	4282
फत	4283
मुज	4284
सीम	4285
500	4286
िकरण	4287
हब	4288
केत	4289
सुरा	4290
दस्त	4291
नेह	4292
राधा	4293
फ्री	4294
अख	4295
ाचल	4296
कंट्	4297
रंट	4298
ीडी	4299
ल्दी	4300
र्षा	4301
क्तों	4302
टोर	4303
िंध	4304
ियत	4305
##ंश	4306
ीएसपी	4307
एगा	4308
ुओं	4309
स्क्र	4310
लिंग	4311
सिम	4312
ालक	4313
रीद	4314
त्सव	4315
घेर	4316
नै	4317
पान	4318
हती	4319
ीपी	4320
ग्री	4321
मानसि	4322
ोव	4323
टाचार	4324
िते	4325
ंपि	4326
त्तीस	4327
ट्रिक	4328
श्रीव	4329
अफसर	4330
ठि	4331
डक्	4332
##ro	4333
दुष्	4334
ईओ	4335
ीओ	4336
ेब	4337
लाप	4338
ायन	4339
म्स	4340
गीर	4341
ट्टा	4342
छि	4343
टेल	4344
हली	4345
लेन	4346
िपल	4347
लै	4348
वंश	4349
ातर	4350
ायर	4351
##re	4352
राद	4353
उन्	4354
बूत	4355
महत	4356
ंदर	4357
जलि	4358
रंपर	4359
ंपर	4360
अल्	4361
तिर	4362
ीआर	4363
##ay	4364
्यूट	4365
ंवर	4366
निष्	4367
रहें	4368
ायु	4369
स्वत	4370
भ्रष्	4371
सुल	4372
ताक	4373
एमसी	4374
ंग्	4375
पक्षी	4376
पेय	4377
al	4378
मात्र	4379
िरदार	4380
ंका	4381
वाए	4382
रोन	4383
भारती	4384
जारों	4385
ट्यू	4386
तृत	4387
साव	4388
कर्मि	4389
ाथ	4390
किन	4391
वाय	4392
एसी	4393
एगी	4394
नमें	4395
फ्ल	4396
क्षों	4397
नीय	4398
ेटा	4399
िराज	4400
ख्त	4401
ब्रि	4402
ोहरा	4403
ानूनी	4404
ड्डा	4405
37	4406
्सक	4407
जुल	4408
जस	4409
सेज	4410
ीदार	4411
जनस	4412
हार्	4413
33	4414
हाड़	4415
ष्टि	4416
अस	4417
बेल	4418
ैसे	4419
ोहार	4420
तीज	4421
फ्लाइ	4422
ाघ	4423
र्ध	4424
णव	4425
स्त्र	4426
फुट	4427
de	4428
पर्स	4429
ौज	4430
ारकर	4431
रूट	4432
जला	4433
णाल	4434
नन	4435
हिल	4436
हर्ष	4437
ोख	4438
क्शन	4439
ड़कों	4440
ओड	4441
शख	4442
ज़ा	4443
ास्टर	4444
पात	4445
रंज	4446
नेर	4447
बोर	4448
दिखा	4449
जस्	4450
मेट	4451
सान	4452
्ते	4453
सीन	4454
ीयू	4455
नय	4456
ांद	4457
अंद	4458
तियों	4459
नक	4460
##as	4461
भूप	4462
ोजन	4463
बढ़त	4464
लीक	4465
ायात	4466
रेस्ट	4467
चाहे	4468
##ap	4469
खन	4470
गिन	4471
टल	4472
ताज	4473
पिछल	4474
लंक	4475
हेश	4476
निवार	4477
राजप	4478
ायद	4479
रंगा	4480
हक	4481
पड़ता	4482
नॉ	4483
वेदन	4484
ाइक	4485
ंडल	4486
शॉ	4487
बताए	4488
पीड	4489
ावे	4490
ेहरा	4491
्डिंग	4492
ुबे	4493
ापा	4494
बाजी	4495
माफ	4496
तन	4497
न्ह	4498
ुल्	4499
ेफ	4500
ॉय	4501
ोषण	4502
सों	4503
विर	4504
an	4505
ed	4506
आह	4507
चिन	4508
ाधी	4509
मारा	4510
ेडल	4511
ीला	4512
निंग	4513
जाएं	4514
िशा	4515
चिंग	4516
ाधीश	4517
गय	4518
सिक्	4519
र्ब	4520
ठित	4521
नाने	4522
र्ना	4523
चेहर	4524
डिल	4525
फोर	4526
सिख	4527
थित	4528
ोल्ड	4529
राब	4530
्रेक	4531
वाही	4532
शेष	4533
दवा	4534
्रस्त	4535
ावली	4536
हेल	4537
ेमा	4538
र्न	4539
तीर	4540
्वय	4541
खुले	4542
ेखा	4543
हान	4544
रोश	4545
ेक्शन	4546
ंसल	4547
ठग	4548
बरा	4549
मिश	4550
रफ	4551
लप	4552
राश	4553
सीपी	4554
ाल्	4555
36	4556
खून	4557
्रल	4558
ज्व	4559
ोशी	4560
##ho	4561
क्ता	4562
बीज	4563
चीफ	4564
णा	4565
फान	4566
बग	4567
ह्	4568
हटा	4569
नेक	4570
ेटि	4571
ीएल	4572
आर्	4573
हिस	4574
काय	4575
निरा	4576
बिल्	4577
ंवा	4578
गला	4579
काे	4580
nt	4581
जरी	4582
ध्य	4583
ौती	4584
प्रश	4585
ावी	4586
जिश	4587
ेवल	4588
क्षी	4589
लोन	4590
गम	4591
दायर	4592
ह्म	4593
ेठ	4594
ेक्ष	4595
ोष	4596
दिक	4597
निध	4598
सीव	4599
हिता	4600
75	4601
ाओ	4602
िक्स	4603
##ur	4604
मारे	4605
ंबा	4606
ीफ	4607
आक्	4608
ैल	4609
सिप	4610
ारस	4611
रोध	4612
रवा	4613
सेक	4614
रुण	4615
स्कू	4616
ाउंट	4617
हिसा	4618
डन	4619
शिया	4620
मेन	4621
बहा	4622
ृत	4623
##ol	4624
लिक	4625
सारी	4626
िक्ष	4627
िल्ल	4628
्रेज	4629
पिट	4630
दौरा	4631
जर्	4632
ज्य	4633
नशा	4634
्रॉ	4635
सको	4636
कॉप	4637
ीचर	4638
गू	4639
गर्म	4640
##or	4641
##bi	4642
ालव	4643
याग	4644
ोरिय	4645
जज	4646
ीवर	4647
ूवी	4648
ेसर	4649
##्रो	4650
स्न	4651
क्कर	4652
ेंज	4653
तीक	4654
ावन	4655
शक	4656
सिस	4657
ौड़	4658
्रै	4659
रेटर	4660
ल्ला	4661
भोज	4662
्राध	4663
सॉ	4664
वासी	4665
रखें	4666
हिमा	4667
असम	4668
सिक	4669
सुरे	4670
राजन	4671
तीय	4672
ादर	4673
टिया	4674
ीके	4675
वासि	4676
ताया	4677
ीयत	4678
ंडि	4679
टु	4680
ंझ	4681
चम	4682
थियों	4683
रार	4684
रित	4685
हंगा	4686
48	4687
गान	4688
गले	4689
याल	4690
ीवाल	4691
ौल	4692
लेंगे	4693
fir	4694
णे	4695
ोश	4696
ादा	4697
ीति	4698
गुना	4699
ंडी	4700
त्रता	4701
te	4702
इमर	4703
्योति	4704
##ेत्	4705
लेव	4706
स्तक	4707
्रीक	4708
गीता	4709
्षेत्	4710
मानी	4711
हज	4712
##ce	4713
राख	4714
400	4715
िद्या	4716
तीश	4717
ंतर	4718
मय	4719
वंत	4720
सज	4721
ेसी	4722
जाग	4723
मोद	4724
ायी	4725
न्द	4726
्लै	4727
स्वतं	4728
34	4729
ओल	4730
रस्ट	4731
सत	4732
ाड	4733
##it	4734
ंबे	4735
इव	4736
ताल	4737
आपस	4738
ूरत	4739
आल	4740
कअ	4741
चने	4742
नह	4743
रिक	4744
गिरा	4745
कअप	4746
गाने	4747
निम	4748
र्ल	4749
रीर	4750
खात	4751
जें	4752
नही	4753
रक्	4754
संख्य	4755
रिक्	4756
्टे	4757
मार्क	4758
ेट्रो	4759
धमक	4760
टिफ	4761
जेंसी	4762
टवार	4763
हद	4764
कराए	4765
बान	4766
रप	4767
##ad	4768
्याय	4769
सव	4770
ेक	4771
रीब	4772
टिफि	4773
ंता	4774
यास	4775
ाणा	4776
िड़	4777
ॉर्ड	4778
परम	4779
ारक	4780
300	4781
तुम	4782
कट्	4783
ोले	4784
्राफ	4785
ंजी	4786
पैद	4787
ुरु	4788
धूप	4789
रब	4790
ूक	4791
ालं	4792
डकर	4793
राए	4794
कॉर्	4795
दाद	4796
छू	4797
िमी	4798
लाक	4799
ढ़ी	4800
ृष्ट	4801
ोग	4802
कांड	4803
ृष्टि	4804
जनी	4805
भरी	4806
लेत	4807
ावट	4808
त्रिप	4809
बर्	4810
लल	4811
र्तन	4812
नाश	4813
खिय	4814
नान	4815
िंद्र	4816
निर्द	4817
ंदी	4818
टो	4819
तना	4820
सकी	4821
कुर्	4822
टीवी	4823
ंडे	4824
कद	4825
धा	4826
शाल	4827
स्थि	4828
सदन	4829
्रीन	4830
्यूज	4831
तप	4832
तिया	4833
सोम	4834
ामों	4835
महीन	4836
त्री	4837
उल	4838
पवा	4839
ाजा	4840
िथ	4841
ींद	4842
जेपी	4843
अभिय	4844
sha	4845
ेबल	4846
्डी	4847
नात	4848
महज	4849
er	4850
ुक्त	4851
ेच	4852
ैं	4853
मांगे	4854
दूध	4855
ृत्	4856
ोंक	4857
जबर	4858
ओप	4859
डु	4860
दुर	4861
़्	4862
ीरो	4863
##ॉज	4864
ूर्त	4865
ोलॉज	4866
ीजा	4867
स्सा	4868
विद	4869
होंग	4870
55	4871
आंध	4872
ल्ल	4873
वस्थ	4874
रोप	4875
योर	4876
िश्	4877
आना	4878
उद	4879
लक	4880
िसर	4881
ीब	4882
शिय	4883
ष्म	4884
ैक्स	4885
##de	4886
##ya	4887
िष	4888
राकर	4889
डीपी	4890
िशि	4891
ोड़ा	4892
पर्यट	4893
ात्रा	4894
रियर	4895
रिश्	4896
वाज	4897
लीय	4898
महाम	4899
उल्ल	4900
मः	4901
ोता	4902
मप्र	4903
ंबर	4904
सोन	4905
ुरू	4906
जिम	4907
मांड	4908
औसत	4909
दन	4910
भय	4911
हड़	4912
स्टर	4913
र्त	4914
याब	4915
तीसर	4916
वेज	4917
आईप	4918
ईं	4919
झु	4920
ब्यू	4921
रों	4922
श्य	4923
हिय	4924
िजि	4925
क्षम	4926
हमल	4927
उर्	4928
कन	4929
छूट	4930
तेंद	4931
थल	4932
ृति	4933
ौन	4934
विध	4935
ट्रा	4936
रील	4937
ाड़ा	4938
खाद	4939
ैरा	4940
कोल	4941
वण	4942
##hi	4943
्रबंध	4944
लाय	4945
एसडी	4946
रियल	4947
ंकर	4948
कंड	4949
ीव	4950
ॉली	4951
माव	4952
ायो	4953
दारों	4954
ाशी	4955
मस	4956
ाटी	4957
##st	4958
ांति	4959
ेरो	4960
ोने	4961
सीए	4962
माध	4963
ीएन	4964
साधन	4965
ऋष	4966
ध्व	4967
िमा	4968
सोल	4969
पदक	4970
ज्यो	4971
फेस	4972
मल्	4973
ूह	4974
विम	4975
ंदिर	4976
अमन	4977
मिश्र	4978
65	4979
##ma	4980
लॉज	4981
टार	4982
धीर	4983
ाश	4984
##ांड	4985
नामा	4986
िमांड	4987
ाफा	4988
ूषण	4989
ोला	4990
मिलना	4991
श्वि	4992
me	4993
झू	4994
टियों	4995
रतन	4996
लत	4997
ीजन	4998
रास	4999
