<unk>	0
<s>	0
</s>	0
▁क	-0
▁स	-1
▁म	-2
▁प	-3
▁ह	-4
▁र	-5
▁न	-6
▁ा	-7
▁ब	-8
ें	-9
▁के	-10
▁ज	-11
▁ल	-12
▁द	-13
▁व	-14
ार	-15
्र	-16
या	-17
▁में	-18
▁है	-19
▁ग	-20
▁त	-21
▁अ	-22
▁ी	-23
▁की	-24
ों	-25
▁ि	-26
▁।	-27
▁को	-28
ने	-29
▁कर	-30
▁ने	-31
▁भ	-32
▁से	-33
▁आ	-34
▁श	-35
▁,	-36
▁कि	-37
▁का	-38
र्	-39
▁इ	-40
▁े	-41
ान	-42
▁उ	-43
▁च	-44
▁ए	-45
▁य	-46
▁थ	-47
▁पर	-48
्य	-49
ाल	-50
▁औ	-51
▁और	-52
ता	-53
▁ट	-54
िल	-55
ड़	-56
ना	-57
▁ों	-58
▁ं	-59
क्	-60
▁इस	-61
▁रा	-62
▁फ	-63
ही	-64
▁जा	-65
हा	-66
▁स्	-67
▁हो	-68
▁प्र	-69
▁ख	-70
▁ड	-71
▁सा	-72
▁लि	-73
▁बा	-74
▁2	-75
▁ो	-76
▁वि	-77
▁्	-78
▁हैं	-79
▁दि	-80
ंग	-81
के	-82
स्	-83
▁भी	-84
▁1	-85
▁्र	-86
वा	-87
▁-	-88
त्र	-89
िक	-90
▁पु	-91
▁दे	-92
ित	-93
ाम	-94
ले	-95
िस	-96
▁उन	-97
हीं	-98
▁हु	-99
कर	-100
▁ें	-101
▁किया	-102
▁ु	-103
▁ले	-104
ला	-105
ते	-106
▁0	-107
▁घ	-108
▁लिए	-109
▁एक	-110
▁क्	-111
▁नि	-112
▁ध	-113
▁था	-114
▁कार	-115
▁गया	-116
▁पह	-117
री	-118
ति	-119
▁रह	-120
▁नहीं	-121
क्ष	-122
से	-123
▁सं	-124
रा	-125
ोग	-126
गा	-127
ेश	-128
▁सि	-129
▁रि	-130
का	-131
नी	-132
ारी	-133
ंद	-134
▁कु	-135
▁र्	-136
▁बाद	-137
ती	-138
▁ही	-139
ां	-140
▁अप	-141
▁मु	-142
त्	-143
ुर	-144
▁.	-145
्ह	-146
▁सम	-147
▁साथ	-148
▁ू	-149
िला	-150
ंच	-151
▁ओ	-152
▁पुल	-153
▁ला	-154
▁वा	-155
▁सु	-156
▁राज	-157
▁पुलिस	-158
▁सी	-159
▁कहा	-160
▁गई	-161
▁बता	-162
▁पू	-163
▁िय	-164
▁या	-165
वार	-166
▁वाल	-167
▁3	-168
▁करने	-169
कि	-170
▁छ	-171
्म	-172
िर	-173
ढ़	-174
ंड	-175
▁उन्ह	-176
▁ाल	-177
▁रे	-178
▁दो	-179
▁उस	-180
▁थी	-181
▁तो	-182
▁रहे	-183
▁4	-184
की	-185
▁दिया	-186
िय	-187
▁लोग	-188
▁मा	-189
▁5	-190
▁ता	-191
▁दी	-192
▁पा	-193
र्ट	-194
्या	-195
▁तक	-196
ौर	-197
सी	-198
रो	-199
▁भा	-200
▁रहा	-201
▁बताया	-202
▁ना	-203
▁िक	-204
▁चु	-205
ाय	-206
▁्य	-207
▁यह	-208
▁हुए	-209
गी	-210
ष्	-211
▁ार	-212
भी	-213
▁बार	-214
▁मौ	-215
▁मिल	-216
▁रो	-217
▁अध	-218
▁ियों	-219
गर	-220
▁मह	-221
▁रही	-222
▁थे	-223
पी	-224
▁बी	-225
▁सिं	-226
▁सिंह	-227
ली	-228
रे	-229
शन	-230
मा	-231
गे	-232
▁क्ष	-233
ाना	-234
▁ोंने	-235
▁हम	-236
हां	-237
टर	-238
▁ान	-239
▁(	-240
▁गए	-241
▁पी	-242
▁ै	-243
▁जी	-244
▁:	-245
्च	-246
ेट	-247
▁स्थ	-248
▁दिन	-249
▁दर्	-250
▁)	-251
▁टी	-252
ल्	-253
▁पहु	-254
देश	-255
▁ती	-256
▁आरो	-257
▁9	-258
▁पहुंच	-259
▁लेकर	-260
हर	-261
▁पहले	-262
▁अन	-263
दी	-264
▁ड़	-265
▁मै	-266
▁इसके	-267
द्र	-268
जन	-269
भा	-270
▁रु	-271
▁ंत्र	-272
कार	-273
▁हा	-274
▁ट्र	-275
▁ॉ	-276
▁लोगों	-277
▁अपने	-278
▁जो	-279
▁री	-280
▁यु	-281
▁कार्	-282
▁शा	-283
स्ट	-284
▁ित	-285
▁6	-286
▁जब	-287
▁जाए	-288
द्	-289
▁हुई	-290
▁मे	-291
▁माम	-292
▁ते	-293
▁कम	-294
किन	-295
▁लेकिन	-296
▁ओं	-297
▁7	-298
सा	-299
▁ंत्री	-300
▁बना	-301
्त	-302
▁नी	-303
▁द्	-304
▁सर	-305
पा	-306
में	-307
▁इन	-308
▁8	-309
▁जिस	-310
▁'	-311
तर	-312
▁साल	-313
▁वह	-314
▁दौर	-315
▁लगा	-316
▁बै	-317
▁सक	-318
▁बि	-319
▁ठ	-320
ार्	-321
मार	-322
▁िंग	-323
ानी	-324
ंब	-325
▁एस	-326
▁ाव	-327
▁रू	-328
▁होने	-329
▁वाले	-330
▁गां	-331
जे	-332
▁निर्	-333
▁देश	-334
▁वे	-335
जा	-336
▁दौरान	-337
▁ई	-338
▁ग्र	-339
▁हर	-340
▁िया	-341
▁ऐ	-342
▁्स	-343
नाव	-344
▁जन	-345
▁चल	-346
दा	-347
▁घर	-348
▁हुआ	-349
▁पुर	-350
▁पि	-351
ंट	-352
▁कुमार	-353
वास	-354
▁तर	-355
ंध	-356
▁अब	-357
▁दू	-358
▁प्रति	-359
वि	-360
▁लो	-361
▁ऑ	-362
नों	-363
▁चुनाव	-364
▁सरकार	-365
▁ेत्र	-366
▁"	-367
▁रुप	-368
▁शुर	-369
▁शाम	-370
र्व	-371
▁साम	-372
▁करते	-373
▁सू	-374
▁ये	-375
▁भार	-376
▁देख	-377
▁स्ट	-378
▁कै	-379
▁ाइ	-380
▁श्र	-381
िन	-382
▁वर्	-383
▁काम	-384
▁जु	-385
▁चा	-386
ष्ट	-387
बा	-388
▁ां	-389
टना	-390
▁झ	-391
▁राम	-392
▁सो	-393
▁महिला	-394
▁रख	-395
्ल	-396
ेल	-397
▁कार्य	-398
▁सभी	-399
िव	-400
▁डॉ	-401
▁लिया	-402
▁आई	-403
▁कुछ	-404
ंग्	-405
▁यो	-406
▁बड़	-407
▁वार	-408
िया	-409
▁पास	-410
▁कई	-411
▁रेस	-412
▁व्य	-413
ोट	-414
कारी	-415
यर	-416
्व	-417
▁नगर	-418
▁ण	-419
▁बढ़	-420
टी	-421
▁गिर	-422
▁लग	-423
▁टीम	-424
▁थाना	-425
मी	-426
▁गांव	-427
▁यू	-428
ूल	-429
क्र	-430
▁भारत	-431
क्त	-432
स्त	-433
▁द्वार	-434
▁दु	-435
▁यों	-436
▁ीड	-437
िए	-438
▁गु	-439
ंप	-440
▁पो	-441
ख्य	-442
▁आप	-443
▁उनके	-444
▁ालय	-445
पुर	-446
▁ति	-447
▁चौ	-448
▁बात	-449
▁मामले	-450
▁घटना	-451
▁कोई	-452
जी	-453
▁हाल	-454
▁नाम	-455
▁ली	-456
▁सब	-457
▁मो	-458
▁ाय	-459
▁गा	-460
▁कांग्	-461
▁मी	-462
▁उप	-463
▁समय	-464
▁गो	-465
ृत	-466
▁करा	-467
▁डी	-468
स्प	-469
▁आरोप	-470
▁अपनी	-471
▁सह	-472
िश	-473
▁रूप	-474
▁शुरू	-475
▁ार्ट	-476
▁बन	-477
सर	-478
▁वहीं	-479
ोड़	-480
▁्यक्ष	-481
▁डि	-482
▁हि	-483
▁दर्ज	-484
▁परि	-485
▁्रदेश	-486
▁योज	-487
▁जिल	-488
▁यहां	-489
▁निक	-490
▁लोक	-491
▁दोनों	-492
क्षा	-493
ंक	-494
▁चाह	-495
वाई	-496
्न	-497
▁जिला	-498
फ्	-499
▁कह	-500
जार	-501
▁बजे	-502
▁़	-503
▁वी	-504
▁ेंद्र	-505
▁रुपए	-506
▁बच	-507
▁छा	-508
▁ौ	-509
▁बह	-510
▁एक्	-511
▁खु	-512
▁जांच	-513
ंस	-514
▁खिला	-515
▁विभा	-516
वी	-517
▁शु	-518
▁दिल	-519
ारा	-520
▁किसी	-521
▁तरह	-522
▁विभाग	-523
▁पूर्व	-524
▁बो	-525
ंत	-526
▁युव	-527
▁आरोपी	-528
▁विश	-529
धान	-530
▁पड़	-531
▁उसके	-532
▁िका	-533
▁एव	-534
▁आज	-535
▁बीच	-536
▁नकारी	-537
▁स्त	-538
ड़क	-539
एम	-540
▁नु	-541
▁10	-542
▁कॉ	-543
▁पै	-544
▁ग्राम	-545
▁दूस	-546
▁लाख	-547
वे	-548
▁शामिल	-549
वर	-550
▁जै	-551
▁ाई	-552
▁ीय	-553
▁एवं	-554
▁िकारी	-555
नि	-556
▁प्	-557
▁भाज	-558
▁रात	-559
▁अल	-560
▁ेंगे	-561
▁राज्य	-562
▁करी	-563
▁तार	-564
▁सूच	-565
▁भाजपा	-566
▁आय	-567
▁ंड	-568
▁एम	-569
▁िस	-570
▁अव	-571
▁जारी	-572
▁बैठ	-573
▁फिर	-574
▁क्र	-575
▁मैं	-576
▁होगा	-577
स्पत	-578
▁अस्पत	-579
▁बे	-580
▁जाएगा	-581
जू	-582
▁जाने	-583
▁किए	-584
▁पत्	-585
▁मांग	-586
▁मंद	-587
▁उसे	-588
▁मार	-589
▁जीत	-590
▁करीब	-591
▁खिलाफ	-592
▁कारण	-593
▁फिल	-594
▁तै	-595
बर	-596
▁जिले	-597
▁ार्टी	-598
▁ेड	-599
▁अन्य	-600
सान	-601
▁ार्	-602
▁बद	-603
▁चार	-604
▁‍	-605
▁ेंट	-606
▁दा	-607
▁बेट	-608
▁ाने	-609
ून	-610
▁याद	-611
▁स्क	-612
▁महा	-613
णा	-614
▁सीट	-615
▁मान	-616
▁सद	-617
▁ंच	-618
▁टे	-619
▁उनकी	-620
▁सभा	-621
▁रिवार	-622
▁ज्या	-623
▁ज्याद	-624
▁ारी	-625
▁धिक	-626
▁िल	-627
▁युवक	-628
जर	-629
▁्ट	-630
▁वाली	-631
▁फिल्म	-632
▁मंदिर	-633
▁शास	-634
▁मौके	-635
▁इं	-636
▁तीन	-637
▁गिरफ्	-638
▁श्री	-639
▁निवास	-640
▁फै	-641
▁करना	-642
▁छात्र	-643
▁रवाई	-644
▁जाता	-645
▁शहर	-646
▁्थ	-647
▁सामने	-648
▁यक्र	-649
▁यक्रम	-650
▁मौत	-651
▁ंद	-652
▁ल्	-653
▁अग	-654
▁ओर	-655
▁सुब	-656
▁्री	-657
▁जग	-658
▁लाल	-659
▁सुबह	-660
▁ज्	-661
▁एं	-662
▁कोर्ट	-663
िति	-664
▁तह	-665
▁ाया	-666
▁खा	-667
ध्य	-668
▁योग	-669
ूट	-670
र्म	-671
▁आर	-672
प्त	-673
▁राष्ट	-674
▁वो	-675
द्य	-676
▁न्	-677
▁स्व	-678
▁क्या	-679
▁सबसे	-680
▁देने	-681
ड़ी	-682
लो	-683
जय	-684
▁गुर	-685
▁पिछ	-686
▁गं	-687
र्च	-688
▁सूचना	-689
▁िन	-690
▁हजार	-691
वाल	-692
▁च्च	-693
▁अलग	-694
▁इला	-695
▁करोड़	-696
▁अधिक	-697
▁पाल	-698
▁रेल	-699
▁पानी	-700
▁एन	-701
▁जहां	-702
▁यादव	-703
ुत	-704
▁देव	-705
▁इसी	-706
▁दिख	-707
ूर	-708
ेज	-709
▁िकाय	-710
▁कर्	-711
इन	-712
ंबर	-713
▁कृ	-714
▁बारिश	-715
वन	-716
▁राह	-717
▁दर्शन	-718
▁ऐसे	-719
द्ध	-720
▁बु	-721
▁नुस	-722
जूद	-723
▁दिए	-724
▁मिली	-725
चार	-726
▁भाग	-727
▁कंप	-728
▁आने	-729
▁बंद	-730
▁स्कूल	-731
▁धिकार	-732
▁होगी	-733
▁ात	-734
पर	-735
▁जर	-736
▁नुसार	-737
▁ीन	-738
▁िसमें	-739
▁मन	-740
▁अनु	-741
▁जि	-742
▁इसमें	-743
दान	-744
▁शिव	-745
▁त्	-746
हार	-747
▁मि	-748
▁आए	-749
▁िकायत	-750
▁तैय	-751
▁जय	-752
▁इससे	-753
ोर	-754
▁पोर्ट	-755
▁ंग	-756
▁तैयार	-757
▁ारती	-758
म्म	-759
्यू	-760
▁शर्	-761
▁ोदी	-762
कान	-763
▁पद	-764
▁विद्य	-765
▁बाहर	-766
▁ज्ञ	-767
हन	-768
▁मत	-769
ेत	-770
▁रवि	-771
▁ारतीय	-772
वान	-773
ेन	-774
▁िश	-775
▁ष	-776
▁ाम	-777
टा	-778
▁नेता	-779
▁आया	-780
▁दिल्ल	-781
▁मार्	-782
▁बंध	-783
बंध	-784
▁शव	-785
▁रहने	-786
▁जान	-787
▁मुख्य	-788
▁सफ	-789
▁शासन	-790
▁यात्र	-791
▁शर्मा	-792
▁स्थान	-793
ंगल	-794
▁गुरु	-795
था	-796
▁रक्षा	-797
▁ेद	-798
▁योजना	-799
▁कुल	-800
▁टर	-801
▁सकता	-802
▁हत्	-803
ेक	-804
▁भर	-805
▁मां	-806
▁चाहिए	-807
▁कर्म	-808
सभ	-809
▁लोकसभ	-810
▁पढ़	-811
▁ेश	-812
फी	-813
▁खेल	-814
▁ढ	-815
▁जे	-816
सल	-817
्छ	-818
▁वहां	-819
ियो	-820
▁स्थित	-821
▁समा	-822
▁पूरी	-823
▁हत्या	-824
▁ंद्र	-825
▁किसान	-826
ाई	-827
▁पिछले	-828
▁ड्	-829
▁पिता	-830
▁मंड	-831
▁मामला	-832
ुल	-833
▁अम	-834
▁शे	-835
ओं	-836
▁पां	-837
▁सड़क	-838
▁उसकी	-839
▁्या	-840
▁?	-841
▁िध	-842
▁उत्	-843
▁ढ़	-844
▁शि	-845
▁क्टर	-846
▁व्यव	-847
▁विका	-848
ंदर	-849
तार	-850
▁पति	-851
▁प्रो	-852
ायक	-853
▁S	-854
▁िधायक	-855
▁ियां	-856
लाई	-857
▁गढ़	-858
▁विधान	-859
▁रन	-860
▁रीक्ष	-861
▁ाए	-862
▁रिय	-863
ेशन	-864
▁ऑफ	-865
धा	-866
▁ट्	-867
▁आगे	-868
▁नव	-869
▁काफी	-870
▁उठ	-871
ख्यम	-872
▁ुख्यम	-873
▁बच्च	-874
▁भू	-875
▁बड़ी	-876
▁ेर	-877
त्व	-878
▁दर	-879
▁अच	-880
धी	-881
▁अं	-882
▁इंड	-883
▁मृत	-884
▁सहित	-885
▁संभ	-886
लेक्	-887
इल	-888
▁समाज	-889
▁विकास	-890
▁जाएगी	-891
▁ंख	-892
▁घाय	-893
▁घायल	-894
एस	-895
▁जबकि	-896
ोष	-897
▁दीप	-898
▁रोड	-899
▁माल	-900
▁बहुत	-901
मान	-902
र्ण	-903
▁िग	-904
▁घंट	-905
▁सै	-906
कड़	-907
धार	-908
▁हालां	-909
इक	-910
▁अभी	-911
▁बैठक	-912
▁जगह	-913
▁ोम	-914
र्फ	-915
▁तब	-916
▁ीडियो	-917
▁सदस	-918
▁सदस्य	-919
▁व्यक्	-920
▁निकल	-921
▁परिजन	-922
को	-923
▁फी	-924
र्ड	-925
▁एक्स	-926
▁होता	-927
▁20	-928
▁धार	-929
▁ाह	-930
▁A	-931
▁मौजूद	-932
▁मद	-933
ायर	-934
▁तहत	-935
▁अला	-936
▁जिन	-937
▁जिसके	-938
▁लिख	-939
▁च्चों	-940
▁दूसरे	-941
▁बाइक	-942
▁ीण	-943
▁ऊ	-944
ीत	-945
▁ताब	-946
▁ेगा	-947
▁संग	-948
▁उसने	-949
▁धान	-950
▁चि	-951
▁भग	-952
▁न्या	-953
▁बारे	-954
▁मही	-955
▁अपना	-956
▁मिला	-957
▁ीडिया	-958
ोल	-959
▁पत्नी	-960
▁सकते	-961
▁करें	-962
ंगा	-963
▁अलावा	-964
ंत्र	-965
▁ज़	-966
ंगे	-967
▁अगर	-968
टल	-969
▁आग	-970
▁उनका	-971
▁ाना	-972
ेम	-973
राब	-974
▁C	-975
▁मंगल	-976
▁पं	-977
▁चंद	-978
▁बाल	-979
▁ृ	-980
▁अभ	-981
▁ंख्या	-982
▁वज	-983
▁ाकर	-984
▁दें	-985
▁टू	-986
▁ीजे	-987
▁पता	-988
▁ारा	-989
▁कंपनी	-990
▁ंप	-991
▁ेक्	-992
▁कहना	-993
▁15	-994
▁्रभ	-995
ब्	-996
दि	-997
▁फर	-998
सि	-999
▁भाव	-1000
▁वजह	-1001
▁मेंट	-1002
▁स्था	-1003
▁इसे	-1004
क्षक	-1005
▁तेज	-1006
▁12	-1007
▁शादी	-1008
तम	-1009
▁बर	-1010
▁म्म	-1011
▁म्	-1012
▁त्र	-1013
▁पल	-1014
▁ार्थ	-1015
ष्ठ	-1016
ोजन	-1017
▁सौ	-1018
▁दिनों	-1019
▁हाथ	-1020
▁माण	-1021
▁सें	-1022
▁वर्ष	-1023
▁युक्त	-1024
शि	-1025
पाल	-1026
▁करता	-1027
▁मज	-1028
▁जैसे	-1029
▁सांस	-1030
▁्रीय	-1031
▁हों	-1032
▁साइ	-1033
▁नजर	-1034
▁पूरा	-1035
बू	-1036
▁बिज	-1037
▁सेवा	-1038
▁तरफ	-1039
▁बल	-1040
▁पक्ष	-1041
▁विवा	-1042
▁आयोजन	-1043
▁बिहार	-1044
▁दिव	-1045
आई	-1046
▁सच	-1047
▁भाई	-1048
▁मुझ	-1049
▁ताबिक	-1050
▁ीद	-1051
▁हू	-1052
▁ास्	-1053
▁होती	-1054
▁पकड़	-1055
केट	-1056
▁ट्रेन	-1057
▁दुकान	-1058
▁सवाल	-1059
▁वाला	-1060
ारे	-1061
▁महीने	-1062
▁स्प	-1063
▁फो	-1064
▁निकाल	-1065
▁श्च	-1066
ट्	-1067
▁ास	-1068
▁शी	-1069
▁बनाने	-1070
▁घंटे	-1071
▁ऐसा	-1072
▁थाने	-1073
▁ियाणा	-1074
▁अति	-1075
▁ीजेपी	-1076
▁हाद	-1077
▁नंबर	-1078
▁जुड़	-1079
ेष	-1080
▁ाबा	-1081
▁11	-1082
▁विशेष	-1083
▁रेश	-1084
▁पत्र	-1085
▁वै	-1086
लेज	-1087
▁न्याय	-1088
▁ष्ट	-1089
▁हाई	-1090
▁ोमवार	-1091
ये	-1092
सम	-1093
▁रण	-1094
▁गातार	-1095
ड़ित	-1096
रण	-1097
▁ॉलेज	-1098
▁जून	-1099
▁ेगी	-1100
▁पूरे	-1101
▁जिससे	-1102
ष्ण	-1103
ग्र	-1104
▁निय	-1105
▁घोष	-1106
▁्थिति	-1107
न्	-1108
▁स्तान	-1109
▁n	-1110
▁सीएम	-1111
▁केस	-1112
▁पार्	-1113
▁इसकी	-1114
▁चाल	-1115
▁शन	-1116
▁नई	-1117
▁छोड़	-1118
▁सांसद	-1119
▁मस्	-1120
▁शनि	-1121
▁मेर	-1122
▁लड़क	-1123
▁राय	-1124
▁ाड़	-1125
▁ेशन	-1126
▁संस्	-1127
धि	-1128
योग	-1129
▁नौ	-1130
▁विश्व	-1131
▁P	-1132
र्य	-1133
▁ाउ	-1134
▁सकती	-1135
▁भो	-1136
▁शत	-1137
ेस	-1138
▁लगाया	-1139
▁ाबाद	-1140
▁पहली	-1141
▁वन	-1142
▁ेट	-1143
▁ब्	-1144
ाइ	-1145
रोध	-1146
▁मिलने	-1147
▁फोन	-1148
▁s	-1149
▁िगम	-1150
▁बॉ	-1151
▁लॉ	-1152
▁लगे	-1153
▁बस	-1154
हम	-1155
▁रोक	-1156
▁एफ	-1157
▁नाथ	-1158
▁बड़े	-1159
▁मुझे	-1160
▁इसका	-1161
▁कराया	-1162
▁धानम	-1163
▁एल	-1164
▁गांधी	-1165
▁उत्तर	-1166
▁भगवान	-1167
▁गंभी	-1168
▁गंभीर	-1169
▁पांच	-1170
▁हूं	-1171
त्म	-1172
▁30	-1173
▁एंगे	-1174
▁कलेक्	-1175
▁्रम	-1176
▁विरोध	-1177
ियों	-1178
▁डिग्र	-1179
▁कर्ता	-1180
▁I	-1181
र्थ	-1182
▁आधार	-1183
▁सचिव	-1184
▁मृतक	-1185
▁पंजा	-1186
▁ची	-1187
▁चला	-1188
▁B	-1189
▁खान	-1190
▁समझ	-1191
▁लड़	-1192
▁दार	-1193
वरी	-1194
▁मैच	-1195
▁देते	-1196
लिए	-1197
▁इसलिए	-1198
चा	-1199
▁र्ष	-1200
▁पंजाब	-1201
▁माह	-1202
द्द	-1203
▁शुक्र	-1204
▁हार	-1205
▁आम	-1206
▁जल	-1207
▁गण	-1208
▁श्	-1209
िम	-1210
▁ुध	-1211
लास	-1212
▁जमी	-1213
▁बेह	-1214
गत	-1215
▁ाद	-1216
▁शनिवा	-1217
▁स्तर	-1218
▁रविवा	-1219
▁वाप	-1220
▁चर्च	-1221
▁योजित	-1222
▁भेज	-1223
▁बनाया	-1224
▁नए	-1225
▁ुक	-1226
▁मंडल	-1227
▁िक्षा	-1228
▁बड़ा	-1229
▁ंट	-1230
▁एड	-1231
▁घा	-1232
▁इलाज	-1233
▁जमीन	-1234
▁करे	-1235
▁ुधवार	-1236
▁जाती	-1237
▁खुद	-1238
क्षण	-1239
स्टम	-1240
▁ताप	-1241
▁रीय	-1242
▁कल	-1243
ठन	-1244
चान	-1245
▁वापस	-1246
▁प्रा	-1247
▁भर्	-1248
▁संबंध	-1249
▁पूजा	-1250
▁ंत	-1251
▁आस	-1252
▁पहचान	-1253
▁रुपये	-1254
▁गल	-1255
▁बज	-1256
▁ाते	-1257
▁बैंक	-1258
▁शुरु	-1259
त्त	-1260
▁ाप्त	-1261
▁्प	-1262
▁अच्छ	-1263
▁ेंड	-1264
▁्व	-1265
▁थान	-1266
▁N	-1267
▁ब्र	-1268
▁खड़	-1269
▁हिंद	-1270
▁ेड़	-1271
▁मौसम	-1272
▁M	-1273
▁डाल	-1274
▁सामान	-1275
▁तु	-1276
ार्ड	-1277
▁नीति	-1278
▁मीटर	-1279
▁न्द्र	-1280
▁जेल	-1281
▁बाजार	-1282
्वर	-1283
▁सम्	-1284
▁तापम	-1285
िका	-1286
▁धर्म	-1287
▁रेशान	-1288
▁समेत	-1289
▁ेंस	-1290
▁आदेश	-1291
▁लगी	-1292
▁गै	-1293
▁बिजली	-1294
▁उसका	-1295
जि	-1296
वेश	-1297
▁लाइन	-1298
▁भर्ती	-1299
▁50	-1300
▁गी	-1301
▁सित	-1302
▁दल	-1303
तन	-1304
▁चो	-1305
▁वोट	-1306
▁बेटे	-1307
▁लेने	-1308
▁रंग	-1309
▁जवा	-1310
▁होते	-1311
▁पट	-1312
▁ोर	-1313
▁समिति	-1314
▁ोह	-1315
शी	-1316
▁शुरुआ	-1317
▁शाह	-1318
▁देर	-1319
▁बच्चे	-1320
▁शो	-1321
▁राहुल	-1322
▁िरा	-1323
▁सर्व	-1324
▁रकारी	-1325
▁फा	-1326
प्	-1327
▁यन	-1328
▁दोप	-1329
▁बया	-1330
▁बयान	-1331
▁ेल	-1332
▁होकर	-1333
▁जुलाई	-1334
▁ेता	-1335
▁25	-1336
▁काल	-1337
▁जनता	-1338
दन	-1339
▁सुर	-1340
ियान	-1341
▁भियान	-1342
▁बेटी	-1343
▁तौर	-1344
▁्वा	-1345
िन्न	-1346
▁भिन्न	-1347
▁बू	-1348
▁मिन	-1349
▁पुत्र	-1350
▁साह	-1351
▁चलते	-1352
डी	-1353
▁गत	-1354
▁वीर	-1355
▁बदल	-1356
शा	-1357
▁रम	-1358
▁चोरी	-1359
वल	-1360
▁ंब	-1361
▁योंकि	-1362
▁दान	-1363
▁पे	-1364
▁शां	-1365
▁लौ	-1366
▁नीत	-1367
▁थीं	-1368
▁रखा	-1369
▁गंज	-1370
▁ट्रै	-1371
▁बल्	-1372
▁जवाब	-1373
▁चर्चा	-1374
▁चुके	-1375
▁ोज	-1376
शल	-1377
▁तल	-1378
ेंस	-1379
▁ुर	-1380
▁दोपहर	-1381
▁पीछ	-1382
▁डे	-1383
▁दूसरी	-1384
▁ध्या	-1385
▁करके	-1386
▁सोशल	-1387
▁ाप	-1388
▁पूर्ण	-1389
▁कट	-1390
▁ज्ञान	-1391
▁ोबा	-1392
▁अगस्त	-1393
ायत	-1394
▁ीट	-1395
▁ंचायत	-1396
▁i	-1397
क्स	-1398
▁जाते	-1399
▁टिक	-1400
▁युवा	-1401
▁्थ्य	-1402
▁विजय	-1403
▁यां	-1404
▁मिले	-1405
▁मेरिक	-1406
▁घाट	-1407
▁मदद	-1408
षद	-1409
▁मस्या	-1410
▁तथा	-1411
र्स	-1412
▁स्वास	-1413
▁फ्	-1414
दात	-1415
▁जीवन	-1416
यास	-1417
▁अवसर	-1418
▁्रयास	-1419
ग्	-1420
▁ागर	-1421
▁रेलवे	-1422
▁सिर्फ	-1423
थम	-1424
▁माता	-1425
▁होंगे	-1426
▁R	-1427
▁विवाद	-1428
▁ंस	-1429
▁ीदवार	-1430
▁जल्	-1431
षण	-1432
▁दूर	-1433
▁त्य	-1434
▁उम्म	-1435
▁वाहन	-1436
ha	-1437
▁जयपुर	-1438
▁रोल	-1439
▁ाज	-1440
▁थानी	-1441
▁चुकी	-1442
▁फैस	-1443
▁ोबाइल	-1444
▁अपरा	-1445
▁तोड़	-1446
▁देवी	-1447
▁कौ	-1448
▁ंक	-1449
▁ाक	-1450
खंड	-1451
▁थानीय	-1452
स्थ	-1453
▁धन	-1454
▁पेश	-1455
▁ोर्ट	-1456
▁बिल	-1457
▁मध्य	-1458
▁इंडिय	-1459
▁बोल	-1460
▁गाड़ी	-1461
ियर	-1462
▁तृ	-1463
▁खरी	-1464
▁मेरे	-1465
ुख	-1466
▁निर	-1467
▁वालों	-1468
▁तला	-1469
▁बनाए	-1470
▁ुन	-1471
▁जल्द	-1472
▁्रमुख	-1473
▁रियों	-1474
▁दौ	-1475
▁धम	-1476
▁पेट	-1477
▁िप	-1478
▁राशि	-1479
▁महत्व	-1480
▁पोस्ट	-1481
िंग	-1482
मत	-1483
▁्यू	-1484
▁र्म	-1485
▁देखा	-1486
▁पाकि	-1487
▁मार्ग	-1488
▁लगभ	-1489
▁ोड़	-1490
▁इंटर	-1491
▁लगभग	-1492
ाला	-1493
▁करती	-1494
▁ाध्य	-1495
▁अपराध	-1496
▁जैन	-1497
▁ाध	-1498
▁रिया	-1499
▁कप	-1500
▁ाली	-1501
▁ीकर	-1502
▁शराब	-1503
▁इलाके	-1504
▁नेशन	-1505
▁दिस	-1506
▁इंद	-1507
▁रै	-1508
▁पार	-1509
ैध	-1510
▁अवैध	-1511
▁िस्	-1512
▁विष	-1513
▁जम	-1514
▁आदि	-1515
▁लाइ	-1516
▁ाध्यम	-1517
▁संत	-1518
▁अंत	-1519
▁बराम	-1520
ेड	-1521
▁ेज	-1522
▁14	-1523
▁चंद्र	-1524
▁आवे	-1525
▁िंद	-1526
▁रोह	-1527
▁िर	-1528
▁शेयर	-1529
▁स्थल	-1530
▁वीं	-1531
▁बरामद	-1532
▁उद्	-1533
▁खरीद	-1534
▁13	-1535
▁ंज	-1536
▁अंदर	-1537
▁धर	-1538
▁अक्	-1539
▁्टेशन	-1540
▁मई	-1541
▁इस्	-1542
▁नोट	-1543
▁हॉ	-1544
▁इंदौर	-1545
▁करण	-1546
केश	-1547
▁किलो	-1548
▁पुरा	-1549
▁कृष्ण	-1550
▁D	-1551
▁सके	-1552
श्	-1553
▁फ़	-1554
▁24	-1555
▁उम	-1556
▁कोश	-1557
ाराज	-1558
▁सवार	-1559
▁टूबर	-1560
▁कोशिश	-1561
▁सितंब	-1562
▁ीना	-1563
▁हमारे	-1564
▁कहते	-1565
▁चुन	-1566
पीट	-1567
▁ारपीट	-1568
▁पीएम	-1569
विध	-1570
▁ंडा	-1571
▁एज	-1572
▁ांग	-1573
थि	-1574
▁जरूर	-1575
▁कभी	-1576
▁त्या	-1577
▁आश	-1578
ल्ड	-1579
▁ीं	-1580
▁अभि	-1581
▁पीछे	-1582
▁अर	-1583
▁वाड़	-1584
▁ंचाल	-1585
▁ेडिक	-1586
▁िव	-1587
▁दिसंब	-1588
▁ांक	-1589
▁लौट	-1590
▁ूर्	-1591
▁ेयर	-1592
▁दिवस	-1593
▁चुका	-1594
▁एयर	-1595
▁हमला	-1596
▁संगठन	-1597
▁शुभ	-1598
▁मैंने	-1599
▁नरे	-1600
▁इम	-1601
▁क्य	-1602
▁पदा	-1603
छता	-1604
▁व्या	-1605
रीज	-1606
▁हादसे	-1607
▁ेडिकल	-1608
▁इत	-1609
▁तलाश	-1610
बल	-1611
▁देकर	-1612
▁वाद	-1613
▁भि	-1614
▁जाना	-1615
▁कें	-1616
छताछ	-1617
▁ूछताछ	-1618
▁मर्थ	-1619
▁सीसी	-1620
काश	-1621
▁गुप्त	-1622
ैंड	-1623
▁्रकाश	-1624
माश	-1625
▁बदमाश	-1626
▁ेश्वर	-1627
कों	-1628
▁केंद्	-1629
▁नवंबर	-1630
त्य	-1631
▁भाष	-1632
▁आवेदन	-1633
मि	-1634
पास	-1635
▁लिखा	-1636
▁आसपास	-1637
▁खास	-1638
▁ीड़ित	-1639
▁चे	-1640
▁ांड	-1641
▁कान	-1642
▁ीर	-1643
▁बंधित	-1644
▁प्री	-1645
▁वाह	-1646
▁ट्री	-1647
▁नर	-1648
▁पर्य	-1649
▁प्ले	-1650
▁रस	-1651
▁केवल	-1652
▁मतदान	-1653
▁16	-1654
▁प्ल	-1655
▁बने	-1656
▁खंड	-1657
▁र्ड	-1658
ताव	-1659
▁टै	-1660
▁चौध	-1661
▁राइ	-1662
▁त्याश	-1663
▁िता	-1664
▁आपको	-1665
▁लख	-1666
▁केट	-1667
▁चौधरी	-1668
▁चै	-1669
▁ांस	-1670
▁्रा	-1671
▁बिना	-1672
▁फोट	-1673
▁परिस	-1674
▁वाया	-1675
▁ेन	-1676
▁ब्ल	-1677
▁एक्सप	-1678
▁भोपाल	-1679
साद	-1680
▁नेशनल	-1681
▁राव	-1682
▁मजबू	-1683
▁एच	-1684
▁देखने	-1685
▁हरा	-1686
▁खेत	-1687
▁्रसाद	-1688
▁मिनट	-1689
▁छोट	-1690
किल	-1691
▁तारी	-1692
▁मोहन	-1693
▁ध्यान	-1694
▁40	-1695
▁खिल	-1696
▁ेताओं	-1697
विधा	-1698
▁ुविधा	-1699
▁नदी	-1700
▁हमें	-1701
ेर	-1702
▁कों	-1703
▁वाई	-1704
▁18	-1705
▁ीए	-1706
▁पड़ा	-1707
▁क्रम	-1708
▁क्यों	-1709
▁रव	-1710
▁मॉ	-1711
ल्ल	-1712
▁भारी	-1713
▁कं	-1714
▁ाग	-1715
▁ेदार	-1716
▁बचा	-1717
▁िक्र	-1718
▁जुट	-1719
▁मार्च	-1720
▁वार्ड	-1721
▁लाभ	-1722
▁खबर	-1723
▁थाप	-1724
▁मंत्र	-1725
▁ाही	-1726
▁होना	-1727
▁्रि	-1728
▁अमित	-1729
▁कर्मच	-1730
▁बोर्ड	-1731
▁जन्म	-1732
▁17	-1733
▁पढ़ें	-1734
▁सफल	-1735
▁t	-1736
▁/	-1737
▁ुल	-1738
▁वर्ग	-1739
ूड	-1740
ात	-1741
▁चरण	-1742
▁ओवर	-1743
▁देखते	-1744
▁चालक	-1745
▁र्स	-1746
▁श्चिम	-1747
▁शं	-1748
▁साफ	-1749
▁ियर	-1750
▁कैसे	-1751
▁न्यू	-1752
▁ूम	-1753
▁टिकट	-1754
▁कल्	-1755
▁टेस्ट	-1756
▁बनी	-1757
▁फरार	-1758
▁्ल	-1759
▁भवन	-1760
▁दर्श	-1761
▁दोस्त	-1762
▁नीतिक	-1763
▁ंघ	-1764
▁गोली	-1765
निय	-1766
▁ठा	-1767
▁उपस्थ	-1768
▁ष्ठ	-1769
▁यानी	-1770
▁कराने	-1771
▁गर्	-1772
▁अग्र	-1773
वाज	-1774
▁विकेट	-1775
▁घु	-1776
▁जिसे	-1777
▁िस्सा	-1778
चे	-1779
दीप	-1780
▁ीम	-1781
▁र्द	-1782
▁सिल	-1783
्रा	-1784
▁मनो	-1785
▁ीणों	-1786
▁ेह	-1787
▁जनवरी	-1788
▁िटल	-1789
▁बदला	-1790
▁प्रक्	-1791
▁कड़	-1792
ra	-1793
▁निधि	-1794
▁भे	-1795
▁ावना	-1796
▁अहम	-1797
▁कीमत	-1798
▁हास	-1799
▁ानी	-1800
▁मारो	-1801
▁ोस्टम	-1802
▁ख़	-1803
▁वश	-1804
▁र्थ	-1805
▁अंतर	-1806
▁सीटों	-1807
▁तीस	-1808
▁रें	-1809
▁पदाध	-1810
▁सल	-1811
▁22	-1812
▁तय	-1813
▁गौर	-1814
▁अगले	-1815
▁्रप	-1816
▁ील	-1817
▁चार्य	-1818
▁मारोह	-1819
ेंद	-1820
▁फॉ	-1821
ूब	-1822
▁संघ	-1823
▁स्वी	-1824
▁हस	-1825
▁जाय	-1826
▁ामा	-1827
▁संजय	-1828
ब्ध	-1829
▁अद	-1830
▁फीस	-1831
▁l	-1832
▁फर्	-1833
▁ठी	-1834
▁पलब्ध	-1835
▁श्रद्	-1836
▁सहयोग	-1837
▁गेट	-1838
▁आयोग	-1839
▁दुर्	-1840
▁लगाए	-1841
▁वायर	-1842
▁त्म	-1843
▁भेजा	-1844
▁गलत	-1845
▁जिलों	-1846
▁फोटो	-1847
▁िड	-1848
दार	-1849
▁्त	-1850
▁अधि	-1851
▁मं	-1852
▁्ड	-1853
▁धु	-1854
▁दय	-1855
▁र्व	-1856
▁दावा	-1857
▁मना	-1858
▁जिम्म	-1859
ंबई	-1860
▁ऐसी	-1861
▁e	-1862
▁मुंबई	-1863
▁पन	-1864
▁ांव	-1865
▁नल	-1866
▁िम	-1867
▁कार्ड	-1868
▁तृत्व	-1869
क्ति	-1870
सव	-1871
▁साध	-1872
▁यूपी	-1873
▁रखने	-1874
▁गर्मी	-1875
▁पैसे	-1876
▁चौक	-1877
▁ूर्ति	-1878
क्ट	-1879
▁ग्रह	-1880
▁दुनिय	-1881
▁एंट	-1882
▁ताकि	-1883
▁व्याप	-1884
▁नीचे	-1885
▁र्मचा	-1886
दम	-1887
ैल	-1888
▁पूछ	-1889
▁मूल	-1890
▁पटना	-1891
▁माना	-1892
▁प्रैल	-1893
▁ीप	-1894
▁टक्	-1895
▁कब्	-1896
▁तरी	-1897
▁उर्फ	-1898
▁धारा	-1899
▁लगाने	-1900
▁ीक्षक	-1901
▁म्मी	-1902
▁ीस	-1903
▁ीनियर	-1904
▁पण	-1905
▁वश्य	-1906
▁टक्कर	-1907
▁बल्कि	-1908
▁K	-1909
▁रत	-1910
▁सौंप	-1911
▁इनमें	-1912
▁नियम	-1913
▁जाम	-1914
▁तुल	-1915
▁रिल	-1916
▁िदेश	-1917
▁दरअ	-1918
▁फायर	-1919
▁बेहतर	-1920
▁र्ज	-1921
▁दरअसल	-1922
▁सर्	-1923
▁ूर्ण	-1924
▁सिर	-1925
▁जाकर	-1926
▁द्य	-1927
▁प्रीम	-1928
▁E	-1929
▁लखन	-1930
▁लादेश	-1931
▁लिय	-1932
▁सिटी	-1933
▁टाइ	-1934
▁टन	-1935
▁िए	-1936
▁डा	-1937
▁फैसला	-1938
▁बांग्	-1939
▁सीमा	-1940
▁घोषणा	-1941
▁ून	-1942
▁हासिल	-1943
नात	-1944
▁डेट	-1945
▁ट्रक	-1946
▁मकान	-1947
▁तैनात	-1948
▁टॉ	-1949
▁कल्प	-1950
▁रल	-1951
▁मेल	-1952
▁ेदारी	-1953
माल	-1954
▁तस्	-1955
▁वक्त	-1956
▁तेमाल	-1957
▁सदर	-1958
▁ीत	-1959
▁मैदान	-1960
▁्रपति	-1961
▁रहते	-1962
शु	-1963
▁19	-1964
▁ड्ड	-1965
▁ुरा	-1966
▁्रेस	-1967
▁शिक्ष	-1968
लों	-1969
▁वृ	-1970
▁ेक्टर	-1971
▁रिकेट	-1972
▁आख	-1973
▁हमने	-1974
▁ाता	-1975
▁्रधान	-1976
▁21	-1977
▁बेच	-1978
▁ॉलो	-1979
▁तत्	-1980
▁कानून	-1981
▁ीएम	-1982
▁बाबा	-1983
▁कहीं	-1984
▁a	-1985
सत	-1986
▁रहेगा	-1987
▁काट	-1988
▁वक्	-1989
▁्रकार	-1990
▁T	-1991
▁उच	-1992
▁ऊपर	-1993
▁फाइन	-1994
▁पौ	-1995
▁ेम	-1996
▁हालत	-1997
▁कॉर्ड	-1998
ोक	-1999
ल्क	-2000
▁ाथम	-2001
▁दास	-2002
▁लक्ष	-2003
हाल	-2004
▁ाड़ी	-2005
▁िलहाल	-2006
▁ेय	-2007
▁िन्	-2008
▁खोल	-2009
▁ेना	-2010
▁वित्त	-2011
▁सैन	-2012
▁तीनों	-2013
चीत	-2014
▁ातचीत	-2015
▁गृ	-2016
▁गृह	-2017
▁दश	-2018
▁बोले	-2019
▁खराब	-2020
▁परिसर	-2021
▁ारखंड	-2022
▁ेस	-2023
▁वश्यक	-2024
▁रिज	-2025
▁वायरल	-2026
▁ाथमिक	-2027
▁ठीक	-2028
▁नया	-2029
▁बनने	-2030
▁क्ल	-2031
▁पत्ति	-2032
बी	-2033
▁पार्क	-2034
▁गंगा	-2035
▁जमा	-2036
▁जरूरत	-2037
▁रं	-2038
▁शंकर	-2039
▁ॉल	-2040
▁सुनी	-2041
▁रोज	-2042
▁मेरी	-2043
▁खुल	-2044
▁बहन	-2045
▁विचार	-2046
▁थानों	-2047
▁ावत	-2048
▁िटी	-2049
▁खत्म	-2050
▁सेंटर	-2051
▁काली	-2052
▁टि	-2053
▁कराई	-2054
▁ुनवाई	-2055
बंधन	-2056
▁यही	-2057
▁ठबंधन	-2058
▁घोषित	-2059
टक	-2060
▁निजी	-2061
▁स्टूड	-2062
▁भीड़	-2063
▁सेक्	-2064
▁हिस्	-2065
▁वें	-2066
▁िंदर	-2067
▁म्मान	-2068
▁हन	-2069
▁मनी	-2070
▁पांड	-2071
▁म्मीद	-2072
▁लखनऊ	-2073
षि	-2074
▁ुट	-2075
▁लूट	-2076
▁जवान	-2077
▁त्व	-2078
▁आपके	-2079
▁सात	-2080
▁स्ल	-2081
▁ागरिक	-2082
▁िट	-2083
▁पहला	-2084
▁याच	-2085
▁राउ	-2086
▁ाइव	-2087
▁ायल	-2088
▁लव	-2089
स्था	-2090
▁होटल	-2091
▁जिन्ह	-2092
▁ूं	-2093
▁रानी	-2094
▁न्ना	-2095
▁िलकर	-2096
▁चीन	-2097
तिम	-2098
▁ोट	-2099
▁उठा	-2100
▁जोर	-2101
▁रेड	-2102
▁सागर	-2103
▁द्योग	-2104
▁अंतिम	-2105
▁वेद	-2106
▁बाग	-2107
▁अंतर्	-2108
▁मजबूत	-2109
▁वास	-2110
▁परिषद	-2111
▁ाओं	-2112
▁कॉन्	-2113
▁सफाई	-2114
▁कृत	-2115
▁बंग	-2116
▁िश्न	-2117
▁ड़ा	-2118
▁रोहित	-2119
▁मित	-2120
▁वाने	-2121
▁कॉल	-2122
▁ोत्	-2123
ेटी	-2124
▁कमेटी	-2125
▁प्रेम	-2126
▁भिष	-2127
▁रखी	-2128
▁्रवेश	-2129
▁लु	-2130
▁कमी	-2131
▁ात्र	-2132
▁हमारी	-2133
▁उच्च	-2134
▁पाया	-2135
▁ौर	-2136
▁तभी	-2137
▁देना	-2138
▁क़	-2139
▁रोब	-2140
▁G	-2141
▁जरिए	-2142
▁ल्या	-2143
▁भिषेक	-2144
▁एंड	-2145
▁ोली	-2146
▁र्षी	-2147
▁थिय	-2148
▁र्षीय	-2149
▁सिद्ध	-2150
▁िक्षक	-2151
▁धमकी	-2152
▁रक्षण	-2153
▁26	-2154
▁आं	-2155
▁ीक	-2156
▁उतर	-2157
▁हे	-2158
▁लगाई	-2159
▁हिंदू	-2160
▁यूनि	-2161
ानक	-2162
▁नाल	-2163
▁चिक	-2164
ालत	-2165
▁सही	-2166
▁अचानक	-2167
▁क्ष्य	-2168
▁स्ताव	-2169
▁अदालत	-2170
▁महारा	-2171
▁कब	-2172
▁ोय	-2173
▁साब	-2174
▁करवा	-2175
▁अग्रव	-2176
▁रिष्ठ	-2177
▁पाठ	-2178
▁चिकित	-2179
▁ालू	-2180
▁क्षि	-2181
▁भूमि	-2182
▁100	-2183
▁जोड़	-2184
▁मर्थन	-2185
▁आते	-2186
▁लाग	-2187
▁ारदात	-2188
▁F	-2189
▁लित	-2190
▁फल	-2191
▁चाहते	-2192
▁अश	-2193
▁ॉलोनी	-2194
▁ोल	-2195
▁उसी	-2196
▁ीक्षण	-2197
▁कारी	-2198
▁स्तुत	-2199
▁क्षण	-2200
▁कूल	-2201
▁सपा	-2202
▁अशोक	-2203
▁निवेश	-2204
▁अंक	-2205
▁उम्र	-2206
▁जाति	-2207
▁ावजूद	-2208
▁इंत	-2209
▁ायब	-2210
▁लागू	-2211
▁23	-2212
▁ूस	-2213
▁ेंडर	-2214
▁ग्	-2215
▁ैम	-2216
▁गौ	-2217
▁त्त	-2218
▁ल्याण	-2219
▁धारित	-2220
्ड	-2221
जों	-2222
▁उनसे	-2223
▁प्रिय	-2224
▁आन	-2225
▁केज	-2226
▁पटेल	-2227
▁शांति	-2228
▁यर	-2229
▁न्न	-2230
▁कौन	-2231
▁टूट	-2232
▁सहा	-2233
▁ाराय	-2234
▁याचिक	-2235
▁गेंद	-2236
▁नौकर	-2237
▁कही	-2238
▁शिक	-2239
▁दम	-2240
▁ारायण	-2241
▁बदलाव	-2242
▁शक्ति	-2243
▁्ष	-2244
▁तुर	-2245
▁लैंड	-2246
▁थियार	-2247
दाय	-2248
▁हट	-2249
on	-2250
▁बांध	-2251
▁मजद	-2252
▁छोटे	-2253
▁सिव	-2254
▁योगित	-2255
▁रूम	-2256
र्ष	-2257
▁भावित	-2258
▁रिक्त	-2259
ील	-2260
▁वक्ता	-2261
▁वर्मा	-2262
▁श्चित	-2263
▁जरू	-2264
▁र्ट	-2265
▁लान	-2266
▁बनाकर	-2267
पन	-2268
ar	-2269
▁ित्र	-2270
▁षित	-2271
▁त्रि	-2272
▁ारे	-2273
▁ंदन	-2274
▁रुक	-2275
▁शेख	-2276
▁सजा	-2277
▁ऋ	-2278
▁डिज	-2279
▁सहाय	-2280
▁दिखाई	-2281
▁सां	-2282
▁ुकसान	-2283
▁र्क	-2284
▁ाइज	-2285
▁ऑफिस	-2286
▁तिहा	-2287
▁विदेश	-2288
▁स्टार	-2289
चन	-2290
▁रहता	-2291
▁रोबार	-2292
▁जरूरी	-2293
▁किस	-2294
▁सत्	-2295
▁दिग्	-2296
ुप	-2297
▁टाल	-2298
▁मारी	-2299
▁बंधन	-2300
▁ांकन	-2301
▁िफ्	-2302
▁बंगाल	-2303
▁राउंड	-2304
▁उससे	-2305
▁अजय	-2306
▁तने	-2307
▁आवास	-2308
▁उपयोग	-2309
▁न्य	-2310
▁स्म	-2311
▁ास्ते	-2312
▁पीड़ित	-2313
▁हॉस्प	-2314
an	-2315
▁ैक	-2316
▁सार	-2317
▁हिस्स	-2318
▁िफ्ट	-2319
▁मजदूर	-2320
▁असर	-2321
▁चित	-2322
▁पाई	-2323
▁बनाई	-2324
▁्त्र	-2325
▁करेगी	-2326
▁सकें	-2327
▁ेस्ट	-2328
▁नो	-2329
▁ाइन	-2330
▁तिहास	-2331
▁गोल	-2332
▁फैल	-2333
उट	-2334
▁आउट	-2335
▁किश	-2336
▁क्ति	-2337
▁हवा	-2338
▁आत्म	-2339
▁ष्ट्र	-2340
▁आत	-2341
▁ीकरण	-2342
▁राहत	-2343
▁िज	-2344
▁्म	-2345
▁ग्रुप	-2346
सद	-2347
▁कर्मी	-2348
▁लक्ष्	-2349
▁28	-2350
▁अज	-2351
▁क्क	-2352
▁युवती	-2353
▁ोत	-2354
▁तरीके	-2355
▁्रदान	-2356
▁इक	-2357
▁प्शन	-2358
▁िश्रा	-2359
खिल	-2360
▁प्त	-2361
▁ुर्	-2362
▁लगने	-2363
▁इंतजा	-2364
▁योध्य	-2365
▁क्रिय	-2366
▁जब्त	-2367
▁राइवर	-2368
▁ीवी	-2369
▁U	-2370
▁रंप	-2371
▁ाला	-2372
▁सीसीट	-2373
▁ूमिका	-2374
▁चय	-2375
▁कॉम	-2376
▁्यु	-2377
▁धू	-2378
▁लंब	-2379
▁क्षिण	-2380
▁चोट	-2381
▁31	-2382
▁चेक	-2383
▁डीए	-2384
▁ेल्	-2385
▁जिनक	-2386
▁सुख	-2387
▁किशोर	-2388
▁ताला	-2389
▁ट्रां	-2390
▁शील	-2391
रात	-2392
▁27	-2393
▁ाण	-2394
▁वान	-2395
▁र्डर	-2396
▁एजेंस	-2397
ीज	-2398
▁आनंद	-2399
▁्वागत	-2400
धर	-2401
▁घुस	-2402
▁च्छ	-2403
▁कड़ी	-2404
▁तुरंत	-2405
▁रिलीज	-2406
▁हटा	-2407
▁इतना	-2408
▁वॉ	-2409
▁रजि	-2410
▁हमले	-2411
▁नम	-2412
सील	-2413
▁कपूर	-2414
▁तहसील	-2415
▁रजिस्	-2416
▁ाहनों	-2417
िग	-2418
▁यम	-2419
▁बजट	-2420
▁खर्च	-2421
▁ैया	-2422
▁्रचार	-2423
▁णय	-2424
▁लर	-2425
▁श्म	-2426
▁ेरा	-2427
▁दिशा	-2428
▁वर्क	-2429
▁दोष	-2430
▁ॉर्ट	-2431
▁्रता	-2432
▁इंट	-2433
▁नौकरी	-2434
▁लगाकर	-2435
▁िफ	-2436
▁प्प	-2437
▁राग	-2438
▁िंक	-2439
▁बीमार	-2440
▁नला	-2441
▁खिलाड	-2442
▁सलमान	-2443
उस	-2444
▁अमर	-2445
▁मुख	-2446
▁मिशन	-2447
▁फरवरी	-2448
▁णी	-2449
▁ुआ	-2450
▁उपा	-2451
▁मेरा	-2452
▁शांत	-2453
▁ालिका	-2454
▁टा	-2455
▁ुज	-2456
▁र्य	-2457
▁उपाध	-2458
▁L	-2459
▁धाल	-2460
▁कृषि	-2461
▁संसद	-2462
▁बालिग	-2463
▁राजेश	-2464
▁बीते	-2465
▁लगता	-2466
▁नलाइन	-2467
▁मुद्द	-2468
▁राध	-2469
▁रेट	-2470
▁तेल	-2471
▁ैंड	-2472
▁तेजी	-2473
▁सूर्य	-2474
▁ंध	-2475
▁काउ	-2476
▁हनु	-2477
▁आवाज	-2478
▁घरों	-2479
▁चांद	-2480
▁छत्त	-2481
▁कदम	-2482
▁ठाक	-2483
▁लेते	-2484
▁गर	-2485
▁हाउस	-2486
▁सीटें	-2487
▁वर	-2488
▁र्थिक	-2489
▁सिविल	-2490
▁ीश	-2491
▁गार	-2492
▁यदि	-2493
▁ज्ञात	-2494
▁बीर	-2495
ीर	-2496
▁दीपक	-2497
▁इलेक्	-2498
▁ृत	-2499
▁नोटिस	-2500
▁ः	-2501
▁ेला	-2502
▁फीसदी	-2503
▁बताते	-2504
▁फाय	-2505
▁ायक	-2506
▁ास्त	-2507
▁पॉ	-2508
र्क	-2509
▁छह	-2510
▁रहेगी	-2511
▁ोक	-2512
▁फंस	-2513
▁पौध	-2514
▁ारं	-2515
▁मालिक	-2516
▁लाका	-2517
▁्यास	-2518
▁ास्कर	-2519
▁लेख	-2520
▁ंस्था	-2521
▁कमल	-2522
▁क्यू	-2523
▁जमकर	-2524
▁ारंभ	-2525
्याम	-2526
▁नेट	-2527
▁विषय	-2528
▁श्याम	-2529
▁अर्	-2530
▁लाकात	-2531
ताह	-2532
▁मू	-2533
▁सेव	-2534
▁एक्ट	-2535
▁बेटा	-2536
▁शाला	-2537
▁आयु	-2538
▁चले	-2539
▁भजन	-2540
▁हाय	-2541
▁धालु	-2542
▁प्ताह	-2543
▁आइ	-2544
▁ाठ	-2545
▁मैन	-2546
▁सीध	-2547
▁तस्कर	-2548
ोध	-2549
गढ़	-2550
▁धाम	-2551
▁करेगा	-2552
▁नाराज	-2553
▁ीसगढ़	-2554
▁जू	-2555
▁कला	-2556
▁गैंग	-2557
▁जेक्ट	-2558
गार	-2559
▁ोप	-2560
▁विज	-2561
▁सला	-2562
▁विष्य	-2563
▁ोजगार	-2564
▁मण	-2565
▁ईडी	-2566
▁लें	-2567
▁उतार	-2568
▁हनुम	-2569
▁डर	-2570
▁सफर	-2571
▁r	-2572
▁खाल	-2573
▁देह	-2574
▁िरासत	-2575
▁वती	-2576
▁संब	-2577
▁डायर	-2578
▁मनोज	-2579
▁सामना	-2580
हम्	-2581
▁ब्द	-2582
▁चौरा	-2583
▁मोहम्	-2584
▁िस्टम	-2585
▁ण्ड	-2586
▁सहायक	-2587
▁ेली	-2588
▁ेव	-2589
▁पीट	-2590
▁लाश	-2591
▁पचार	-2592
▁ूत	-2593
▁ेरी	-2594
▁ठाकुर	-2595
▁m	-2596
▁आव	-2597
▁अपील	-2598
▁रहती	-2599
▁फर्जी	-2600
▁जुड़े	-2601
▁संबोध	-2602
▁्रताप	-2603
▁दूसरा	-2604
▁रेप	-2605
▁हरि	-2606
▁पालन	-2607
▁मंच	-2608
▁यूज	-2609
▁ड़े	-2610
▁नत	-2611
▁हाज	-2612
▁हल	-2613
▁खुलास	-2614
▁दयपुर	-2615
▁एग्	-2616
▁आतंक	-2617
▁श्रम	-2618
▁सीरीज	-2619
▁मिट	-2620
▁जिसकी	-2621
▁हरी	-2622
▁ियम	-2623
ूक	-2624
▁ेग	-2625
▁हिम	-2626
▁हाराज	-2627
▁नार	-2628
▁इन्ह	-2629
▁ोत्सव	-2630
▁राठ	-2631
▁ंचालन	-2632
▁सरा	-2633
▁अनिल	-2634
▁राजा	-2635
▁सुधार	-2636
▁वां	-2637
▁ंजाम	-2638
▁साहू	-2639
▁मतदात	-2640
▁टेन	-2641
▁तवाल	-2642
▁काउंट	-2643
▁देशों	-2644
▁खड़े	-2645
▁लाकों	-2646
▁सुनील	-2647
▁गरी	-2648
▁राइल	-2649
▁ोर्स	-2650
▁रिश	-2651
▁ार्षद	-2652
▁टक	-2653
▁चली	-2654
▁सत्र	-2655
▁29	-2656
▁रमा	-2657
▁्लो	-2658
▁ंपर्क	-2659
▁चौराह	-2660
▁विवाह	-2661
▁देंगे	-2662
▁स्लिम	-2663
▁फार	-2664
▁व्र	-2665
▁ंदोल	-2666
▁मिलते	-2667
▁स्वीर	-2668
▁िद	-2669
ञा	-2670
▁अच्छी	-2671
▁तंत्र	-2672
▁पेट्	-2673
▁योगी	-2674
▁कंपनि	-2675
▁छु	-2676
▁नाई	-2677
▁वर्तम	-2678
▁ाइड	-2679
▁तवाली	-2680
▁बच्ची	-2681
▁र्ग	-2682
साह	-2683
▁त्साह	-2684
▁फाइनल	-2685
▁ामलों	-2686
ांस	-2687
▁लेट	-2688
▁ांत	-2689
▁चना	-2690
▁मेह	-2691
▁जैसी	-2692
▁मंडी	-2693
▁लपुर	-2694
▁रज	-2695
▁बैठे	-2696
▁पोल	-2697
▁जंगल	-2698
▁स्टा	-2699
▁िहार	-2700
▁एक्ट्	-2701
ौत	-2702
▁V	-2703
▁नाग	-2704
ेशल	-2705
▁तिथि	-2706
▁चुनौत	-2707
▁्पेशल	-2708
▁पैर	-2709
▁शान	-2710
▁पर्व	-2711
▁र्सि	-2712
▁सोच	-2713
▁ग्न	-2714
▁कृति	-2715
▁अच्छा	-2716
▁सख	-2717
▁नक्	-2718
▁पहन	-2719
▁फसल	-2720
▁बाज	-2721
▁ेरि	-2722
▁ंदोलन	-2723
तीश	-2724
▁मगर	-2725
▁नीतीश	-2726
▁रांच	-2727
यों	-2728
▁ेंग	-2729
▁भु	-2730
▁सेल	-2731
▁ाएं	-2732
▁;	-2733
▁चर	-2734
▁सोने	-2735
▁आद	-2736
▁ीरे	-2737
▁्राइ	-2738
▁दित्य	-2739
▁ामाजि	-2740
▁फ्र	-2741
ुष	-2742
▁डीसी	-2743
▁श्किल	-2744
▁सुरक्	-2745
▁गति	-2746
▁्रेड	-2747
▁केजरी	-2748
▁H	-2749
▁इंज	-2750
▁यात	-2751
▁ुद्द	-2752
▁क्व	-2753
▁र्प	-2754
▁िला	-2755
▁ांसी	-2756
▁सालों	-2757
▁ड़त	-2758
▁यून	-2759
पाद	-2760
▁टॉप	-2761
▁पंच	-2762
▁मोह	-2763
▁त्पाद	-2764
▁देखकर	-2765
▁चढ़	-2766
ञापन	-2767
▁अलर्ट	-2768
▁्ञापन	-2769
▁जार	-2770
▁पहल	-2771
▁मौका	-2772
▁मल	-2773
▁लका	-2774
▁पुरी	-2775
▁सत्ता	-2776
▁स्तार	-2777
▁्वामी	-2778
▁माय	-2779
▁कीय	-2780
▁दबा	-2781
▁अतिथि	-2782
▁थापित	-2783
▁c	-2784
▁गज	-2785
▁तिक	-2786
▁िनी	-2787
▁ुजरात	-2788
टो	-2789
▁ल्ड	-2790
▁खो	-2791
▁शिविर	-2792
▁साइबर	-2793
▁हेम	-2794
▁ावर	-2795
▁मरीज	-2796
▁व्रत	-2797
▁चार्	-2798
▁ेख	-2799
▁ाटा	-2800
▁्रो	-2801
▁मीणा	-2802
▁तिविध	-2803
▁रैली	-2804
▁एक्टर	-2805
▁उड़	-2806
▁िदेशक	-2807
▁िवारी	-2808
▁गणेश	-2809
▁चलने	-2810
▁ंचालक	-2811
▁आईटी	-2812
▁कूलों	-2813
▁सर्वे	-2814
▁्पष्ट	-2815
ॉक	-2816
▁ीएस	-2817
▁धिकतम	-2818
▁ंदा	-2819
▁इधर	-2820
▁द्ध	-2821
▁छाप	-2822
▁कैंप	-2823
▁मैने	-2824
▁सूत्र	-2825
▁ैर	-2826
▁ऑटो	-2827
▁टर्	-2828
▁ाले	-2829
▁वृद्ध	-2830
प्ट	-2831
▁60	-2832
▁फॉर्म	-2833
▁गन	-2834
▁नू	-2835
▁ाट	-2836
▁ॉक	-2837
▁ठंड	-2838
▁भ्य	-2839
▁ुनाव	-2840
▁श्वास	-2841
▁दस्	-2842
▁ाढ़	-2843
▁वितर	-2844
▁सीता	-2845
▁बिग	-2846
▁नाटक	-2847
▁मुकेश	-2848
▁ुनावी	-2849
▁तू	-2850
▁खाली	-2851
▁हमेश	-2852
▁प्लान	-2853
▁एप	-2854
▁टोल	-2855
▁बढ़ा	-2856
▁मनाया	-2857
▁35	-2858
▁गईं	-2859
▁पाए	-2860
▁पुरुष	-2861
▁हमेशा	-2862
▁आकर	-2863
▁एशन	-2864
▁ोटी	-2865
▁उसमें	-2866
▁रने	-2867
▁युद्ध	-2868
▁अंग	-2869
▁एसड	-2870
▁गड़	-2871
▁श्रे	-2872
▁कब्जे	-2873
नेश	-2874
▁लू	-2875
▁सप	-2876
▁पूजन	-2877
ुड	-2878
▁क्स	-2879
▁नेस	-2880
▁पेपर	-2881
▁र्सिट	-2882
▁ुझ	-2883
▁संविध	-2884
▁चार्ज	-2885
▁देता	-2886
▁मनीष	-2887
▁लिस्ट	-2888
▁ार्टम	-2889
▁लीव	-2890
▁ाइट	-2891
▁एयरप	-2892
▁यक	-2893
▁वत	-2894
▁पन्न	-2895
▁पारी	-2896
▁राजी	-2897
▁मानित	-2898
▁यूनिव	-2899
JP	-2900
▁पस	-2901
▁पार्ट	-2902
▁डो	-2903
▁वेस्ट	-2904
▁ंदे	-2905
▁पूछा	-2906
▁ावरण	-2907
▁चयन	-2908
▁गोपाल	-2909
▁प्लेट	-2910
▁ागरूक	-2911
▁ईर	-2912
▁रीजों	-2913
▁तीसरे	-2914
भाव	-2915
▁घू	-2916
▁अमृत	-2917
▁शीर्	-2918
▁्रभाव	-2919
er	-2920
▁शल	-2921
▁ोध	-2922
▁खूब	-2923
▁साइड	-2924
▁इज	-2925
▁खुश	-2926
▁मश	-2927
▁यल	-2928
▁शिप	-2929
▁ैसा	-2930
▁कमरे	-2931
▁ास्ट	-2932
▁ानपुर	-2933
▁ईरान	-2934
▁र्ल्ड	-2935
▁िनारे	-2936
▁सन	-2937
▁म्प	-2938
▁ांट	-2939
▁ुद्ध	-2940
▁वजन	-2941
▁ावा	-2942
▁ावधान	-2943
▁बॉल	-2944
▁ास्तव	-2945
्स	-2946
▁ेंट्स	-2947
▁चौथ	-2948
सून	-2949
▁उनको	-2950
▁देश्य	-2951
▁सख्त	-2952
▁हादसा	-2953
शीन	-2954
▁ड़ी	-2955
▁मशीन	-2956
▁ंत्रि	-2957
▁नज	-2958
▁इनक	-2959
▁एसएस	-2960
▁रिश्त	-2961
▁काश	-2962
▁ुला	-2963
▁सेंस	-2964
▁in	-2965
▁आठ	-2966
▁वाचन	-2967
▁वानी	-2968
▁फार्म	-2969
▁मैनेज	-2970
▁काब	-2971
▁रूस	-2972
▁विधि	-2973
▁सफलता	-2974
▁शोध	-2975
▁आरती	-2976
▁समान	-2977
▁सुनि	-2978
फर	-2979
▁बेहद	-2980
▁लाया	-2981
▁ाराम	-2982
▁डीज	-2983
▁ाइल	-2984
▁कथा	-2985
▁प्रथम	-2986
▁ेप	-2987
▁सुपर	-2988
▁धार्म	-2989
▁ब्लॉक	-2990
▁कू	-2991
▁तलब	-2992
▁जिलाध	-2993
▁जिसका	-2994
▁ुम	-2995
▁शरी	-2996
▁मुदाय	-2997
▁अली	-2998
▁चौह	-2999
▁सत्य	-3000
▁परेशन	-3001
▁रवाना	-3002
▁ीच	-3003
▁गणना	-3004
▁पशु	-3005
▁जुर्	-3006
▁शुक्	-3007
▁प्रीत	-3008
▁ाच	-3009
▁्ला	-3010
▁ूनतम	-3011
▁नाव	-3012
▁वही	-3013
▁ब्ब	-3014
▁लंबे	-3015
▁लाम	-3016
▁लॉन	-3017
▁चौकी	-3018
नीक	-3019
▁आता	-3020
▁बाकी	-3021
▁मोटर	-3022
▁जुर्ग	-3023
▁तकनीक	-3024
▁संतोष	-3025
▁प्रेस	-3026
▁्रखंड	-3027
▁अवध	-3028
▁पंड	-3029
▁टेक्	-3030
▁नुमान	-3031
▁़ी	-3032
▁कौर	-3033
▁चंड	-3034
▁हने	-3035
▁शप	-3036
▁कोच	-3037
▁लाइट	-3038
▁क्रमण	-3039
▁भ्यर्	-3040
▁यंत्र	-3041
▁प्लाई	-3042
▁माधान	-3043
▁लीवुड	-3044
▁पाट	-3045
▁पैसा	-3046
▁एसो	-3047
▁दीक	-3048
▁द्र	-3049
▁फीट	-3050
▁आदमी	-3051
▁शरीर	-3052
▁ानसून	-3053
▁िपक्ष	-3054
्वाल	-3055
▁गाय	-3056
▁िस्ट	-3057
▁ग्वाल	-3058
▁र्पित	-3059
▁म्ब	-3060
▁हित	-3061
▁J	-3062
ंता	-3063
▁जनप	-3064
▁चौहान	-3065
▁दह	-3066
▁इनके	-3067
▁आखि	-3068
▁कहानी	-3069
▁राकेश	-3070
▁मिस	-3071
▁आसान	-3072
▁उज	-3073
▁ीने	-3074
▁आखिरी	-3075
▁बताई	-3076
▁संदीप	-3077
hi	-3078
▁O	-3079
▁ोभ	-3080
▁एसोसि	-3081
▁कृतिक	-3082
▁गार्ड	-3083
▁हरण	-3084
▁चिंता	-3085
▁मारने	-3086
▁दब	-3087
▁ोई	-3088
▁प्य	-3089
▁रखे	-3090
▁़ियों	-3091
णाम	-3092
▁ाकू	-3093
▁इमेज	-3094
▁गुजर	-3095
▁भाषा	-3096
▁सीजन	-3097
▁दाखिल	-3098
▁रिणाम	-3099
▁जता	-3100
▁वकी	-3101
▁ाठी	-3102
▁एसआई	-3103
▁जमान	-3104
▁BJP	-3105
▁जोन	-3106
▁इतनी	-3107
▁मार्ट	-3108
▁र्षों	-3109
▁ाइवेट	-3110
▁साय	-3111
▁हता	-3112
▁लाने	-3113
▁इंडस्	-3114
▁र्ण	-3115
▁मानव	-3116
▁सूर	-3117
▁ेक्स	-3118
ew	-3119
▁ख्	-3120
▁ैन	-3121
▁टेक	-3122
▁ापुर	-3123
▁गैर	-3124
▁टरी	-3125
▁नवी	-3126
▁साझ	-3127
▁पसंद	-3128
▁ानंद	-3129
▁स्टाफ	-3130
▁नश	-3131
▁निश	-3132
▁खाना	-3133
▁प्रेर	-3134
▁धानी	-3135
▁कालीन	-3136
▁िश्नर	-3137
▁योजक	-3138
nd	-3139
बाज	-3140
▁80	-3141
▁ासन	-3142
▁कहां	-3143
ौल	-3144
▁रुख	-3145
▁लाह	-3146
▁हेड	-3147
▁द्वि	-3148
▁वकील	-3149
▁नने	-3150
▁िंट	-3151
▁सेना	-3152
▁इंस्ट	-3153
▁सिय	-3154
▁बादल	-3155
▁फु	-3156
▁शुक्ल	-3157
▁शुल्क	-3158
▁ुलाया	-3159
▁ाती	-3160
al	-3161
▁ुरी	-3162
▁लॉन्च	-3163
▁चोर	-3164
▁र्जी	-3165
▁मान्य	-3166
▁रॉ	-3167
▁रच	-3168
▁शपथ	-3169
▁अहमद	-3170
▁ाउंड	-3171
▁ट्रैफ	-3172
▁रविंद	-3173
▁एससी	-3174
▁सूची	-3175
▁प्यार	-3176
▁रान	-3177
ामी	-3178
▁70	-3179
▁श्न	-3180
▁मिलता	-3181
▁मॉड	-3182
▁त्ती	-3183
▁घो	-3184
▁ोस	-3185
▁पीठ	-3186
▁बीआई	-3187
▁हायता	-3188
▁खाने	-3189
▁सेंट	-3190
▁भावना	-3191
▁रोकने	-3192
at	-3193
▁पथ	-3194
▁ोन	-3195
▁अरु	-3196
▁जम्म	-3197
▁डिप्ट	-3198
▁किमी	-3199
▁दबाव	-3200
▁जम्मू	-3201
▁फायदा	-3202
▁ंथ	-3203
▁ेंगी	-3204
▁माहौल	-3205
▁रफ्	-3206
▁शूट	-3207
▁साथी	-3208
▁प्रशि	-3209
▁ामी	-3210
▁ीकृत	-3211
ूह	-3212
▁गली	-3213
▁अरुण	-3214
▁चेयर	-3215
▁सोनी	-3216
▁ल्ह	-3217
▁जमानत	-3218
▁दिवास	-3219
▁उज्	-3220
▁ड्य	-3221
▁तान	-3222
▁िकल	-3223
▁उक्त	-3224
▁समूह	-3225
▁साइट	-3226
मता	-3227
▁र्श	-3228
▁क्सर	-3229
▁ड्यूट	-3230
▁चू	-3231
▁ड़क	-3232
▁गरीब	-3233
▁कक्षा	-3234
▁टैक्स	-3235
▁पारा	-3236
मति	-3237
▁रक	-3238
▁निग	-3239
▁ल्यू	-3240
▁नुमति	-3241
▁रेलिय	-3242
▁गोद	-3243
▁नस	-3244
▁फ्ट	-3245
▁ीआई	-3246
▁क्त	-3247
▁फैक्	-3248
▁ाउंस	-3249
▁ाइकिल	-3250
▁्षमता	-3251
लर	-3252
▁ंगा	-3253
▁सैनी	-3254
▁W	-3255
▁रथ	-3256
▁प्तान	-3257
▁बचाने	-3258
▁एडव	-3259
ष्प	-3260
▁जॉ	-3261
▁ाभ	-3262
▁सार्	-3263
▁्क	-3264
▁ंगल	-3265
▁वेल	-3266
▁ीजी	-3267
▁दीवा	-3268
▁ुर्गा	-3269
▁अंब	-3270
▁चालित	-3271
▁जानते	-3272
▁मध्यप	-3273
▁्रिंस	-3274
or	-3275
ैन	-3276
▁जिद	-3277
▁लोड	-3278
▁ाइप	-3279
▁संभाल	-3280
▁िये	-3281
▁थानाध	-3282
▁दिव्य	-3283
▁दृ	-3284
▁पड़े	-3285
▁घूम	-3286
▁तरा	-3287
▁नर्	-3288
▁र्भ	-3289
▁ोयल	-3290
▁सियस	-3291
▁काबले	-3292
नेट	-3293
परव	-3294
▁वस	-3295
▁200	-3296
▁द्द	-3297
▁उज्ज	-3298
▁ट्टी	-3299
▁लापरव	-3300
▁मंजू	-3301
▁्त्री	-3302
▁खर	-3303
▁ाउन	-3304
▁कांत	-3305
▁तावे	-3306
▁विवे	-3307
▁धो	-3308
▁बहु	-3309
▁वेब	-3310
▁ापन	-3311
▁डिस्	-3312
▁%	-3313
दमा	-3314
▁कोर	-3315
▁टका	-3316
▁डूब	-3317
▁ीरा	-3318
▁रेफर	-3319
▁ुकदमा	-3320
▁ॉर्टम	-3321
पंच	-3322
▁ीह	-3323
▁ूर	-3324
▁देग	-3325
▁निभ	-3326
▁सेन	-3327
▁्ती	-3328
▁बारा	-3329
▁तारीख	-3330
▁सरपंच	-3331
▁ाब	-3332
▁एफआई	-3333
▁माप्त	-3334
▁नील	-3335
▁सेट	-3336
▁करनी	-3337
▁फैसले	-3338
▁बूथ	-3339
▁हिं	-3340
▁ेमी	-3341
▁स्टेट	-3342
▁इंडि	-3343
▁त्मक	-3344
▁तावेज	-3345
▁ाफ	-3346
▁कने	-3347
▁ेवर	-3348
▁्सा	-3349
▁क्की	-3350
▁फि	-3351
▁ज्ज	-3352
▁बरस	-3353
▁जताई	-3354
▁र्जर	-3355
▁र्जु	-3356
▁वादी	-3357
▁ीपुर	-3358
▁लीग	-3359
▁नियु	-3360
▁एक्शन	-3361
▁ाएंगे	-3362
▁कव	-3363
▁पलट	-3364
▁ियन	-3365
▁बेस	-3366
▁त्ता	-3367
▁बीसी	-3368
▁रखते	-3369
▁र्जुन	-3370
▁ांच	-3371
▁ाजी	-3372
▁चंडी	-3373
▁हेल्	-3374
▁ानें	-3375
▁नाड	-3376
▁मॉडल	-3377
▁रेस्	-3378
▁्ट्र	-3379
▁चांदी	-3380
▁रास्त	-3381
▁ॉट	-3382
▁करवाई	-3383
▁श्त	-3384
▁ागत	-3385
▁गौरव	-3386
▁राजीव	-3387
▁घट	-3388
▁रभ	-3389
▁अरब	-3390
▁कस्	-3391
▁कुश	-3392
▁ऑस्ट	-3393
▁डीएम	-3394
▁पावर	-3395
▁ोहल्ल	-3396
▁मोर्च	-3397
ews	-3398
▁ठेक	-3399
▁अश्	-3400
▁जाल	-3401
▁ुंड	-3402
▁नर्स	-3403
▁दैन	-3404
▁हंग	-3405
▁तुलन	-3406
▁िलास	-3407
▁सकेंग	-3408
वट	-3409
▁45	-3410
▁रकार	-3411
▁हमारा	-3412
▁िरावट	-3413
▁लील	-3414
▁टाइम	-3415
▁पुरस्	-3416
▁ुराने	-3417
▁फें	-3418
▁भरा	-3419
▁माइ	-3420
▁र्च	-3421
▁ारण	-3422
▁्रति	-3423
▁त्येक	-3424
▁दैनिक	-3425
▁लकाता	-3426
▁स्टोर	-3427
▁दस	-3428
▁दाम	-3429
▁नकर	-3430
▁फेंक	-3431
▁सर्च	-3432
▁थापना	-3433
▁ंडर	-3434
▁मास	-3435
▁लाई	-3436
▁ट्रॉ	-3437
▁्तीफ	-3438
▁रग	-3439
▁्रदीप	-3440
▁मर	-3441
▁रमेश	-3442
▁क्लास	-3443
▁ूद	-3444
▁ल्प	-3445
▁कारा	-3446
▁सलाह	-3447
▁मुक्त	-3448
▁वसूल	-3449
▁संभव	-3450
▁शिकार	-3451
▁िब	-3452
▁मणि	-3453
▁यान	-3454
▁माने	-3455
▁k	-3456
▁ठगी	-3457
▁रबा	-3458
▁िंड	-3459
▁क्कत	-3460
▁यमित	-3461
▁्याप	-3462
▁करियर	-3463
▁ंभ	-3464
▁कर्ष	-3465
▁गाड़	-3466
▁होनी	-3467
▁आगामी	-3468
▁शर	-3469
▁ूल	-3470
▁गोर	-3471
▁ॉक्स	-3472
▁विशाल	-3473
▁हिंसा	-3474
▁छठ	-3475
▁ॉप	-3476
▁उल्	-3477
▁्वच	-3478
▁प्रद	-3479
▁ेडिय	-3480
▁वीकार	-3481
▁ीख	-3482
▁ंकी	-3483
▁इंच	-3484
▁वेश	-3485
▁डॉलर	-3486
▁बीएस	-3487
▁स्ती	-3488
▁वितरण	-3489
▁साबित	-3490
▁एर	-3491
▁्यो	-3492
▁संदेश	-3493
▁नशे	-3494
▁हरे	-3495
▁टायर	-3496
▁रंजन	-3497
▁उठाया	-3498
▁मांगी	-3499
▁टिस	-3500
▁साउ	-3501
▁ाइस	-3502
▁बाबू	-3503
▁एफआईआ	-3504
▁चंडीग	-3505
आर	-3506
▁मेलन	-3507
▁ुटेज	-3508
▁ॉर्म	-3509
▁ट्रेट	-3510
▁जाया	-3511
▁ऑस्ट्	-3512
▁तालाब	-3513
▁तीसरी	-3514
▁पब	-3515
▁नहर	-3516
▁खाते	-3517
▁इंटरव	-3518
▁मूल्य	-3519
▁कोट	-3520
▁पुष्प	-3521
▁ोधपुर	-3522
▁छत	-3523
▁शै	-3524
▁ion	-3525
▁राट	-3526
▁क्लब	-3527
▁मियों	-3528
▁आजा	-3529
▁मीक्ष	-3530
▁इसको	-3531
▁एसटी	-3532
▁्टैंड	-3533
▁िकर	-3534
▁ुगत	-3535
▁बुला	-3536
▁आती	-3537
▁आजाद	-3538
▁आपकी	-3539
▁ष्ठा	-3540
▁छापेम	-3541
▁कैद	-3542
▁नवर	-3543
▁ेन्	-3544
▁रोड़	-3545
▁यूनिट	-3546
▁खी	-3547
▁मक	-3548
▁यं	-3549
▁अनुभ	-3550
▁वाड़ा	-3551
▁िनमें	-3552
जीव	-3553
माण	-3554
▁काबू	-3555
▁ंघर्ष	-3556
▁चाहता	-3557
▁ुगतान	-3558
▁्रमाण	-3559
हीद	-3560
▁गठन	-3561
▁फ्त	-3562
▁ोहर	-3563
▁क्का	-3564
▁च्चा	-3565
▁शहीद	-3566
▁कनेक्	-3567
▁ग्रहण	-3568
▁नक्सल	-3569
▁हालात	-3570
▁िक्रम	-3571
▁वहन	-3572
▁ावल	-3573
▁अर्थ	-3574
▁साउथ	-3575
▁हाईवे	-3576
▁ोटिंग	-3577
▁CM	-3578
▁ॉलि	-3579
▁ुद्दे	-3580
णस	-3581
▁बैग	-3582
▁ानू	-3583
▁िनो	-3584
▁इंस्प	-3585
▁विमान	-3586
▁ाराणस	-3587
▁ोफ	-3588
▁डिव	-3589
▁ौली	-3590
▁नाना	-3591
▁सीबी	-3592
▁बध	-3593
▁रद्द	-3594
▁ीज	-3595
▁नती	-3596
▁दूरी	-3597
▁शाना	-3598
▁श्वर	-3599
▁ंगर	-3600
▁भीतर	-3601
▁अनुभव	-3602
▁दर्जन	-3603
da	-3604
le	-3605
▁बेर	-3606
▁िकस	-3607
▁ीएच	-3608
▁क्रि	-3609
▁पैदा	-3610
▁ुरानी	-3611
▁नवीन	-3612
▁िकसित	-3613
▁कोटा	-3614
▁दिग्ध	-3615
▁ार्थी	-3616
▁लभ	-3617
▁सिन	-3618
▁लाना	-3619
▁ुत	-3620
▁ॉन्	-3621
▁दर्द	-3622
▁िंदा	-3623
▁ोरों	-3624
▁ंश	-3625
▁टें	-3626
▁घाटन	-3627
▁खि	-3628
▁ुब	-3629
▁लोह	-3630
▁विन	-3631
▁ाका	-3632
▁अच्छे	-3633
▁लेबाज	-3634
▁ट्ट	-3635
▁हंगाम	-3636
रीय	-3637
▁किंग	-3638
▁लेना	-3639
▁सोना	-3640
▁्तरीय	-3641
▁फैंस	-3642
▁राना	-3643
▁प्राण	-3644
ri	-3645
▁हव	-3646
▁भरो	-3647
▁रेव	-3648
▁भीषण	-3649
▁र्विस	-3650
▁्रांस	-3651
▁्रेशन	-3652
▁गोव	-3653
▁जनक	-3654
▁याज	-3655
▁मर्थक	-3656
▁बुल	-3657
▁ीका	-3658
▁तुर्	-3659
▁्लांट	-3660
ष्णु	-3661
▁मता	-3662
▁ामक	-3663
▁ीरज	-3664
▁खुशी	-3665
▁प्रज	-3666
▁बंदी	-3667
▁भरोस	-3668
▁संगीत	-3669
▁िष्णु	-3670
्लि	-3671
▁तम	-3672
▁पब्लि	-3673
▁लाखों	-3674
▁भ्र	-3675
▁ेलर	-3676
▁भक्त	-3677
▁र्जन	-3678
▁सराय	-3679
▁ितना	-3680
▁िन्द	-3681
▁रांची	-3682
▁्च	-3683
▁जित	-3684
▁ानक	-3685
▁रेंज	-3686
▁ांवों	-3687
▁कश्	-3688
▁धोख	-3689
▁रेज	-3690
▁रोग	-3691
▁उपाय	-3692
▁महाप	-3693
▁ूंगा	-3694
▁लाकार	-3695
▁कंट	-3696
▁डाय	-3697
▁यश	-3698
▁यकाल	-3699
▁पवन	-3700
▁ेंच	-3701
▁सुंदर	-3702
▁ीटिंग	-3703
▁्यापक	-3704
▁नंद	-3705
▁मंज	-3706
▁फाइल	-3707
▁फ्ला	-3708
▁रहीं	-3709
▁हस्त	-3710
▁हफ	-3711
▁गरा	-3712
▁मीर	-3713
▁ाणी	-3714
▁सैनिक	-3715
▁हटाने	-3716
▁ओम	-3717
▁ेडियम	-3718
▁मच	-3719
▁ौत	-3720
▁आंख	-3721
▁अक्ष	-3722
▁आश्व	-3723
▁संव	-3724
▁नतीज	-3725
▁कामना	-3726
▁कठ	-3727
▁राधिक	-3728
▁ऊंच	-3729
▁मुह	-3730
▁हिर	-3731
▁ंपिक	-3732
▁बजकर	-3733
▁सूरज	-3734
▁ैमरे	-3735
▁जुर्म	-3736
▁पढ़ाई	-3737
▁्वच्छ	-3738
▁एएस	-3739
▁लीट	-3740
▁ोवि	-3741
▁टिप्	-3742
▁रदार	-3743
▁िनोद	-3744
▁टेक्न	-3745
▁शहरों	-3746
▁गि	-3747
▁वल	-3748
▁फूल	-3749
▁बाई	-3750
▁मरा	-3751
▁रसा	-3752
▁सबक	-3753
▁विवेक	-3754
▁सुरेश	-3755
▁बम	-3756
▁मप	-3757
▁ंसर	-3758
▁जात	-3759
▁सुन	-3760
▁आखिर	-3761
रेन	-3762
▁तिन	-3763
▁ोटर	-3764
▁ोफे	-3765
▁किशन	-3766
▁सोरेन	-3767
ंका	-3768
▁गाज	-3769
▁गैस	-3770
▁ंकित	-3771
▁आशंका	-3772
▁चाहती	-3773
▁पंडित	-3774
▁बिनेट	-3775
▁शानदा	-3776
▁श्मीर	-3777
▁ाख	-3778
▁चीज	-3779
▁जगद	-3780
▁टीच	-3781
▁कब्ज	-3782
▁एरिया	-3783
▁दिनेश	-3784
▁न्यूज	-3785
▁ंह	-3786
▁लेश	-3787
▁ल्ट	-3788
▁आरपी	-3789
▁जिंद	-3790
▁नीता	-3791
▁बंधक	-3792
▁गोल्ड	-3793
▁भागों	-3794
▁कां	-3795
▁गुल	-3796
▁ेले	-3797
▁News	-3798
▁कारि	-3799
▁जयंत	-3800
▁ड़ताल	-3801
▁्राइम	-3802
▁पदों	-3803
▁पाली	-3804
▁वादा	-3805
▁स्टल	-3806
▁ांज	-3807
▁ँ	-3808
▁बचाव	-3809
▁वजनिक	-3810
▁इन्	-3811
▁त्मा	-3812
▁ोविंद	-3813
▁बुक	-3814
▁वाट	-3815
▁पीएस	-3816
▁प्रव	-3817
▁ल्की	-3818
▁जगहों	-3819
▁संजीव	-3820
▁खिलेश	-3821
▁वर्तन	-3822
▁िक्री	-3823
▁िन्हा	-3824
▁पें	-3825
▁ियो	-3826
▁ेती	-3827
▁छुट्	-3828
▁रोशन	-3829
▁ल्टी	-3830
▁ंत्रण	-3831
केल	-3832
▁ीष	-3833
जूदा	-3834
▁ंशु	-3835
▁लुध	-3836
▁अकेल	-3837
▁पत्थ	-3838
▁रेंड	-3839
▁ितनी	-3840
▁निशान	-3841
▁ौजूदा	-3842
ur	-3843
▁ंजन	-3844
ya	-3845
▁कत	-3846
▁गौतम	-3847
▁भूषण	-3848
▁विस्	-3849
▁वेतन	-3850
▁ाक्ष	-3851
▁समस्त	-3852
▁ियमों	-3853
▁90	-3854
▁ऐप	-3855
▁अनि	-3856
▁ाहक	-3857
▁रपुर	-3858
▁िताब	-3859
▁क्रेन	-3860
▁जानिए	-3861
▁रक्षक	-3862
▁p	-3863
▁ंबी	-3864
▁फसर	-3865
▁ंबित	-3866
▁धरना	-3867
▁ोफेसर	-3868
▁रौ	-3869
▁ोद	-3870
▁सका	-3871
▁टर्न	-3872
▁ृत्य	-3873
▁चेताव	-3874
▁दरवाज	-3875
▁फसरों	-3876
▁सांस्	-3877
▁ूठ	-3878
▁ऊर्	-3879
▁पंक	-3880
▁आपका	-3881
▁गोरख	-3882
▁िसने	-3883
▁मिलती	-3884
▁लुधिय	-3885
▁पिल	-3886
▁ांप	-3887
▁ातक	-3888
▁्रू	-3889
▁ंकड़	-3890
▁पाने	-3891
▁बद्ध	-3892
▁बादी	-3893
▁ावास	-3894
▁ाइयों	-3895
▁कच	-3896
▁ंकट	-3897
▁ाद्य	-3898
▁चलाने	-3899
▁v	-3900
▁ोसी	-3901
▁निया	-3902
▁अजम	-3903
▁गीत	-3904
▁बीन	-3905
▁िशन	-3906
▁मति	-3907
▁ांश	-3908
▁ानि	-3909
▁झा	-3910
▁गना	-3911
▁ातें	-3912
▁हराया	-3913
▁एट	-3914
▁अपर	-3915
▁चारों	-3916
▁िदेशी	-3917
▁्रेंस	-3918
▁पत	-3919
▁शाख	-3920
▁एमपी	-3921
▁काबल	-3922
▁ांगा	-3923
▁ालि	-3924
▁ग्नि	-3925
▁ेक्ट	-3926
▁धव	-3927
▁दलों	-3928
▁ानना	-3929
▁पेंशन	-3930
▁दाय	-3931
▁व्ह	-3932
▁ोगा	-3933
▁स्टे	-3934
▁ाचार	-3935
▁ट्रैक	-3936
▁पांडे	-3937
▁नाक	-3938
▁ेकर	-3939
▁ेरे	-3940
▁ट्रि	-3941
▁्यपाल	-3942
▁ंगी	-3943
▁ेटर	-3944
▁सिंग	-3945
▁दुर्ग	-3946
▁!	-3947
▁32	-3948
▁ाऊ	-3949
▁पने	-3950
▁्यक्त	-3951
▁सिया	-3952
▁ाँ	-3953
▁ैप	-3954
▁द्व	-3955
▁मंग	-3956
▁म्ह	-3957
▁लड	-3958
▁मला	-3959
▁करार	-3960
▁म्बर	-3961
▁्टिव	-3962
▁अफ	-3963
▁फत	-3964
▁500	-3965
▁मुज	-3966
▁सीम	-3967
▁िकरण	-3968
▁हब	-3969
▁केत	-3970
▁सुरा	-3971
▁दस्त	-3972
▁फ्री	-3973
▁राधा	-3974
▁अख	-3975
▁ाचल	-3976
▁कंट्	-3977
▁रंट	-3978
▁ीडी	-3979
▁ल्दी	-3980
▁र्षा	-3981
▁क्तों	-3982
▁PM	-3983
▁टोर	-3984
▁िंध	-3985
▁ियत	-3986
ंश	-3987
▁ीएसपी	-3988
▁एगा	-3989
▁रीद	-3990
▁सिम	-3991
▁ालक	-3992
▁ुओं	-3993
▁त्सव	-3994
▁लिंग	-3995
▁स्क्र	-3996
▁नै	-3997
▁घेर	-3998
▁नेह	-3999
▁पान	-4000
▁हती	-4001
▁ीपी	-4002
▁ग्री	-4003
▁मानसि	-4004
▁टाचार	-4005
▁ोव	-4006
▁ंपि	-4007
▁िते	-4008
▁त्तीस	-4009
▁अफसर	-4010
▁ट्रिक	-4011
▁श्रीव	-4012
▁ठि	-4013
▁डक्	-4014
▁दुष्	-4015
▁ईओ	-4016
▁ीओ	-4017
▁ेब	-4018
▁गीर	-4019
▁म्स	-4020
▁लाप	-4021
▁ायन	-4022
▁ट्टा	-4023
ct	-4024
▁छि	-4025
▁टेल	-4026
▁लेन	-4027
▁हली	-4028
▁िपल	-4029
▁लै	-4030
▁उन्	-4031
▁बूत	-4032
▁राद	-4033
▁वंश	-4034
▁ातर	-4035
▁ायर	-4036
▁ंदर	-4037
▁जलि	-4038
▁महत	-4039
▁रंपर	-4040
▁ंपर	-4041
▁अल्	-4042
▁तिर	-4043
▁ीआर	-4044
▁्यूट	-4045
▁ंवर	-4046
▁ायु	-4047
▁निष्	-4048
▁रहें	-4049
▁स्वत	-4050
▁भ्रष्	-4051
▁ताक	-4052
▁सुल	-4053
▁एमसी	-4054
▁पक्षी	-4055
▁पेय	-4056
▁मात्र	-4057
▁िरदार	-4058
▁ंका	-4059
▁ंग्	-4060
▁रोन	-4061
▁वाए	-4062
▁जारों	-4063
▁भारती	-4064
▁तृत	-4065
▁ट्यू	-4066
▁कर्मि	-4067
▁ाथ	-4068
▁किन	-4069
▁वाय	-4070
▁एगी	-4071
▁एसी	-4072
▁नीय	-4073
▁फ्ल	-4074
▁साव	-4075
▁ेटा	-4076
▁नमें	-4077
▁िराज	-4078
▁क्षों	-4079
▁sh	-4080
▁ख्त	-4081
▁ब्रि	-4082
▁ोहरा	-4083
▁ानूनी	-4084
▁ड्डा	-4085
▁जुल	-4086
▁्सक	-4087
▁37	-4088
▁जस	-4089
▁सेज	-4090
▁ीदार	-4091
▁जनस	-4092
▁हार्	-4093
▁ष्टि	-4094
▁हाड़	-4095
▁ra	-4096
▁अस	-4097
▁तीज	-4098
▁बेल	-4099
▁ैसे	-4100
▁ोहार	-4101
▁फ्लाइ	-4102
▁ाघ	-4103
▁र्ध	-4104
▁33	-4105
▁णव	-4106
▁फुट	-4107
▁स्त्र	-4108
▁ौज	-4109
▁रूट	-4110
▁पर्स	-4111
▁ारकर	-4112
▁ोख	-4113
▁जला	-4114
▁णाल	-4115
▁हिल	-4116
▁क्शन	-4117
▁हर्ष	-4118
▁ड़कों	-4119
▁ओड	-4120
▁शख	-4121
▁ज़ा	-4122
▁ास्टर	-4123
▁नन	-4124
▁पात	-4125
▁रंज	-4126
▁नेर	-4127
▁बोर	-4128
▁दिखा	-4129
▁जस्	-4130
▁मेट	-4131
▁सान	-4132
▁सीन	-4133
▁ीयू	-4134
▁्ते	-4135
▁नय	-4136
▁ांद	-4137
▁नक	-4138
▁अंद	-4139
▁भूप	-4140
▁तियों	-4141
▁लीक	-4142
▁ोजन	-4143
▁बढ़त	-4144
▁ायात	-4145
▁चाहे	-4146
▁रेस्ट	-4147
▁खन	-4148
▁टल	-4149
▁गिन	-4150
▁ताज	-4151
▁पिछल	-4152
▁हेश	-4153
▁ायद	-4154
▁राजप	-4155
▁निवार	-4156
▁हक	-4157
▁रंगा	-4158
▁पड़ता	-4159
▁नॉ	-4160
▁ंडल	-4161
▁ाइक	-4162
▁वेदन	-4163
▁शॉ	-4164
▁लंक	-4165
▁पीड	-4166
▁ावे	-4167
▁ुबे	-4168
▁बताए	-4169
▁ेहरा	-4170
▁्डिंग	-4171
▁माफ	-4172
▁ापा	-4173
▁बाजी	-4174
▁ेफ	-4175
▁ॉय	-4176
▁न्ह	-4177
▁ुल्	-4178
▁ोषण	-4179
▁तन	-4180
▁विर	-4181
▁सों	-4182
▁आह	-4183
▁चिन	-4184
▁ाधी	-4185
▁ेडल	-4186
▁मारा	-4187
ro	-4188
▁Ra	-4189
▁िशा	-4190
▁ीला	-4191
▁चिंग	-4192
▁जाएं	-4193
▁निंग	-4194
▁ाधीश	-4195
▁गय	-4196
▁र्ब	-4197
▁सिक्	-4198
▁ठित	-4199
▁चेहर	-4200
▁नाने	-4201
▁र्ना	-4202
▁डिल	-4203
▁फोर	-4204
▁सिख	-4205
▁थित	-4206
▁राब	-4207
▁शेष	-4208
▁वाही	-4209
▁ोल्ड	-4210
▁्रेक	-4211
▁दवा	-4212
▁ावली	-4213
▁्रस्त	-4214
ol	-4215
▁तीर	-4216
▁र्न	-4217
▁हेल	-4218
▁ेमा	-4219
▁्वय	-4220
▁ेखा	-4221
▁खुले	-4222
▁रोश	-4223
▁हान	-4224
▁ेक्शन	-4225
▁ंसल	-4226
▁बरा	-4227
▁ठग	-4228
▁रफ	-4229
▁लप	-4230
▁मिश	-4231
▁राश	-4232
▁ाल्	-4233
▁सीपी	-4234
▁खून	-4235
▁्रल	-4236
▁h	-4237
▁चीफ	-4238
▁ज्व	-4239
▁बीज	-4240
▁ोशी	-4241
▁क्ता	-4242
▁36	-4243
▁णा	-4244
▁नेक	-4245
▁फान	-4246
▁ीएल	-4247
▁ेटि	-4248
▁बग	-4249
▁ह्	-4250
▁आर्	-4251
▁काय	-4252
▁हिस	-4253
▁निरा	-4254
▁बिल्	-4255
▁ंवा	-4256
▁काे	-4257
▁गला	-4258
▁ॅ	-4259
▁जरी	-4260
▁ध्य	-4261
▁ावी	-4262
▁ौती	-4263
▁प्रश	-4264
▁जिश	-4265
▁लोन	-4266
▁ेवल	-4267
▁क्षी	-4268
de	-4269
▁गम	-4270
▁ेठ	-4271
▁ोष	-4272
▁दिक	-4273
▁निध	-4274
▁रवा	-4275
▁सीव	-4276
▁दायर	-4277
▁हिता	-4278
▁ेक्ष	-4279
▁ाओ	-4280
▁ह्म	-4281
▁मारे	-4282
▁िक्स	-4283
▁ीफ	-4284
▁ंबा	-4285
▁ैल	-4286
▁आक्	-4287
▁रोध	-4288
▁सिप	-4289
▁ारस	-4290
▁75	-4291
▁रुण	-4292
▁सेक	-4293
▁स्कू	-4294
▁हिसा	-4295
▁ाउंट	-4296
▁डन	-4297
▁मेन	-4298
▁बहा	-4299
▁लिक	-4300
▁पिट	-4301
▁दौरा	-4302
▁सारी	-4303
▁िक्ष	-4304
▁िल्ल	-4305
▁्रेज	-4306
▁g	-4307
▁कॉप	-4308
▁जर्	-4309
▁ज्य	-4310
▁नशा	-4311
▁सको	-4312
▁ीचर	-4313
▁्रॉ	-4314
▁शिया	-4315
▁गू	-4316
▁याग	-4317
▁ालव	-4318
▁गर्म	-4319
▁ोरिय	-4320
्रो	-4321
▁IP	-4322
▁जज	-4323
▁तीक	-4324
▁स्न	-4325
▁ावन	-4326
▁ीवर	-4327
▁ूवी	-4328
▁ेंज	-4329
▁ेसर	-4330
▁क्कर	-4331
▁भोज	-4332
▁सिस	-4333
▁ौड़	-4334
▁रेटर	-4335
▁ल्ला	-4336
▁्राध	-4337
▁शक	-4338
▁सॉ	-4339
▁्रै	-4340
▁रखें	-4341
▁वासी	-4342
▁हिमा	-4343
.5	-4344
▁w	-4345
▁असम	-4346
▁सिक	-4347
▁सुरे	-4348
▁तीय	-4349
▁ादर	-4350
▁राजन	-4351
▁ीके	-4352
▁टिया	-4353
▁वासि	-4354
▁ंडि	-4355
▁ीयत	-4356
▁ताया	-4357
▁टु	-4358
▁ंझ	-4359
▁चम	-4360
▁रार	-4361
▁रित	-4362
▁हंगा	-4363
▁थियों	-4364
▁ौल	-4365
▁गले	-4366
▁गान	-4367
▁याल	-4368
▁ीवाल	-4369
▁लेंगे	-4370
▁णे	-4371
▁ोश	-4372
▁48	-4373
▁ंडी	-4374
▁ादा	-4375
▁गुना	-4376
▁त्रता	-4377
in	-4378
▁इमर	-4379
▁ीति	-4380
▁्योति	-4381
re	-4382
ेत्	-4383
▁लेव	-4384
▁स्तक	-4385
▁्षेत्	-4386
ay	-4387
▁400	-4388
▁राख	-4389
▁गीता	-4390
▁मानी	-4391
▁हज	-4392
▁िद्या	-4393
▁तीश	-4394
▁FI	-4395
▁Sa	-4396
▁मय	-4397
▁सज	-4398
▁ंतर	-4399
▁जाग	-4400
▁मोद	-4401
▁वंत	-4402
▁ायी	-4403
▁ेसी	-4404
▁्लै	-4405
▁स्वतं	-4406
▁ओल	-4407
▁ाड	-4408
▁ंबे	-4409
▁रस्ट	-4410
▁इव	-4411
▁सत	-4412
▁आपस	-4413
▁ताल	-4414
▁ूरत	-4415
▁्रीक	-4416
BI	-4417
अप	-4418
▁34	-4419
▁नह	-4420
▁कअप	-4421
▁चने	-4422
▁रिक	-4423
▁गिरा	-4424
▁ॐ	-4425
han	-4426
▁आल	-4427
▁खात	-4428
▁निम	-4429
▁न्द	-4430
▁रीर	-4431
▁र्ल	-4432
▁गाने	-4433
ेंसी	-4434
▁टिफ	-4435
▁धमक	-4436
▁नही	-4437
▁रक्	-4438
▁्टे	-4439
▁रिक्	-4440
▁जेंसी	-4441
▁मार्क	-4442
▁संख्य	-4443
▁ेट्रो	-4444
ho	-4445
▁हद	-4446
▁कराए	-4447
▁टवार	-4448
▁रप	-4449
▁बान	-4450
▁्याय	-4451
▁सव	-4452
▁ेक	-4453
▁रीब	-4454
▁टिफि	-4455
▁300	-4456
▁ंता	-4457
▁तुम	-4458
▁परम	-4459
▁यास	-4460
▁ाणा	-4461
▁ारक	-4462
▁िड़	-4463
▁ॉर्ड	-4464
▁कट्	-4465
▁ोले	-4466
▁्राफ	-4467
▁ंजी	-4468
▁धूप	-4469
▁पैद	-4470
▁ुरु	-4471
▁ूक	-4472
▁ालं	-4473
ce	-4474
▁डकर	-4475
▁दाद	-4476
▁राए	-4477
▁कॉर्	-4478
ia	-4479
▁छू	-4480
▁रब	-4481
▁ढ़ी	-4482
▁लाक	-4483
▁िमी	-4484
▁ोग	-4485
ष्टि	-4486
▁कांड	-4487
▁ृष्टि	-4488
▁जनी	-4489
▁भरी	-4490
▁लेत	-4491
▁ावट	-4492
▁लल	-4493
▁बर्	-4494
▁त्रिप	-4495
▁नाश	-4496
▁र्तन	-4497
▁धा	-4498
▁खिय	-4499
▁निर्द	-4500
▁िंद्र	-4501
▁टो	-4502
▁ंडे	-4503
▁ंदी	-4504
▁तना	-4505
▁नान	-4506
▁सकी	-4507
▁कुर्	-4508
▁टीवी	-4509
▁na	-4510
▁कद	-4511
▁शाल	-4512
▁सदन	-4513
▁स्थि	-4514
▁्यूज	-4515
▁्रीन	-4516
▁तप	-4517
▁तिया	-4518
▁त्री	-4519
▁महीन	-4520
▁ामों	-4521
▁उल	-4522
▁िथ	-4523
▁पवा	-4524
▁सोम	-4525
▁ाजा	-4526
▁ींद	-4527
▁अभिय	-4528
▁जेपी	-4529
▁FIR	-4530
▁महज	-4531
▁ेबल	-4532
▁्डी	-4533
▁ेच	-4534
▁ैं	-4535
▁दूध	-4536
▁नात	-4537
▁ुक्त	-4538
▁मांगे	-4539
▁{	-4540
▁जबर	-4541
▁िट्	-4542
▁ृत्	-4543
▁ोंक	-4544
ॉज	-4545
▁ओप	-4546
▁डु	-4547
▁़्	-4548
▁दुर	-4549
▁ीरो	-4550
▁ूर्त	-4551
▁ोलॉज	-4552
▁॥	-4553
▁विद	-4554
▁ीजा	-4555
▁स्सा	-4556
▁होंग	-4557
▁b	-4558
▁nt	-4559
▁आंध	-4560
▁योर	-4561
▁रोप	-4562
▁ल्ल	-4563
▁िश्	-4564
▁वस्थ	-4565
▁उद	-4566
▁ीब	-4567
▁आना	-4568
▁िसर	-4569
▁लक	-4570
▁शिय	-4571
▁ष्म	-4572
▁ैक्स	-4573
▁55	-4574
▁िष	-4575
▁िशि	-4576
▁डीपी	-4577
▁राकर	-4578
▁ोड़ा	-4579
▁पर्यट	-4580
▁ात्रा	-4581
▁लीय	-4582
▁वाज	-4583
▁महाम	-4584
▁रियर	-4585
▁रिश्	-4586
▁ोता	-4587
▁उल्ल	-4588
▁मप्र	-4589
▁ंबर	-4590
▁सोन	-4591
▁ुरू	-4592
▁जिम	-4593
▁मांड	-4594
▁दन	-4595
▁आईप	-4596
▁औसत	-4597
▁याब	-4598
▁र्त	-4599
▁वेज	-4600
▁हड़	-4601
▁तीसर	-4602
▁स्टर	-4603
▁Re	-4604
▁ईं	-4605
▁झु	-4606
▁रों	-4607
▁श्य	-4608
▁हमल	-4609
▁हिय	-4610
▁िजि	-4611
▁क्षम	-4612
▁ब्यू	-4613
▁कन	-4614
▁थल	-4615
▁भय	-4616
▁ौन	-4617
▁उर्	-4618
▁खाद	-4619
▁छूट	-4620
▁रील	-4621
▁विध	-4622
▁ृति	-4623
▁ट्रा	-4624
▁तेंद	-4625
▁ाड़ा	-4626
▁कोल	-4627
▁ैरा	-4628
▁er	-4629
▁वण	-4630
▁लाय	-4631
▁रियल	-4632
▁्रबंध	-4633
▁UP	-4634
▁ीव	-4635
▁ंकर	-4636
▁कंड	-4637
▁माव	-4638
▁ायो	-4639
▁ॉली	-4640
▁दारों	-4641
▁ाशी	-4642
▁मस	-4643
▁ाटी	-4644
▁ांति	-4645
▁माध	-4646
▁ीएन	-4647
▁ेरो	-4648
▁ोने	-4649
▁साधन	-4650
▁ऋष	-4651
▁ध्व	-4652
▁पदक	-4653
▁सोल	-4654
▁िमा	-4655
▁ज्यो	-4656
▁ूह	-4657
▁अमन	-4658
▁फेस	-4659
▁मल्	-4660
▁विम	-4661
▁ंदिर	-4662
▁मिश्र	-4663
▁लॉज	-4664
ांड	-4665
▁ाश	-4666
▁टार	-4667
▁धीर	-4668
▁ाफा	-4669
▁नामा	-4670
▁िमांड	-4671
▁65	-4672
▁सीए	-4673
▁ूषण	-4674
▁ोला	-4675
▁श्वि	-4676
▁मिलना	-4677
▁झू	-4678
▁लत	-4679
▁रतन	-4680
▁रास	-4681
▁रेख	-4682
▁ीजन	-4683
▁एसडी	-4684
▁टियों	-4685
▁वीरें	-4686
▁ुख	-4687
▁्ब	-4688
▁	-4689
ा	-4690
र	-4691
क	-4692
े	-4693
ी	-4694
न	-4695
्	-4696
स	-4697
ि	-4698
ं	-4699
म	-4700
ह	-4701
ल	-4702
त	-4703
ो	-4704
प	-4705
य	-4706
व	-4707
द	-4708
ज	-4709
ग	-4710
ब	-4711
ु	-4712
।	-4713
ै	-4714
ट	-4715
श	-4716
ए	-4717
ड	-4718
च	-4719
भ	-4720
अ	-4721
थ	-4722
ू	-4723
,	-4724
आ	-4725
इ	-4726
ध	-4727
ख	-4728
उ	-4729
ई	-4730
़	-4731
फ	-4732
ष	-4733
औ	-4734
ौ	-4735
ण	-4736
2	-4737
0	-4738
1	-4739
-	-4740
छ	-4741
ॉ	-4742
घ	-4743
.	-4744
ठ	-4745
ओ	-4746
5	-4747
3	-4748
4	-4749
ढ	-4750
ृ	-4751
9	-4752
6	-4753
झ	-4754
a	-4755
7	-4756
8	-4757
:	-4758
)	-4759
(	-4760
'	-4761
ऐ	-4762
e	-4763
i	-4764
"	-4765
ऑ	-4766
n	-4767
r	-4768
o	-4769
t	-4770
S	-4771
P	-4772
h	-4773
C	-4774
s	-4775
A	-4776
‍	-4777
I	-4778
l	-4779
ऊ	-4780
ञ	-4781
?	-4782
M	-4783
d	-4784
D	-4785
B	-4786
u	-4787
R	-4788
N	-4789
m	-4790
c	-4791
T	-4792
E	-4793
p	-4794
y	-4795
G	-4796
O	-4797
L	-4798
k	-4799
F	-4800
g	-4801
J	-4802
K	-4803
V	-4804
U	-4805
w	-4806
%	-4807
/	-4808
v	-4809
ः	-4810
H	-4811
ँ	-4812
b	-4813
ऋ	-4814
W	-4815
;	-4816
f	-4817
j	-4818
!	-4819
X	-4820
x	-4821
ॅ	-4822
ॐ	-4823
॥	-4824
{	-4825
Y	-4826
z	-4827
₹	-4828
Q	-4829
+	-4830
Z	-4831
_	-4832
^	-4833
°	-4834
०	-4835
q	-4836
*	-4837
}	-4838
@	-4839
ऱ	-4840
ङ	-4841
=	-4842
&	-4843
ऽ	-4844
•	-4845
#	-4846
া	-4847
$	-4848
ে	-4849
র	-4850
🔴	-4851
̈	-4852
]	-4853
➤	-4854
ळ	-4855
️	-4856
🌟	-4857
ऩ	-4858
॰	-4859
ক	-4860
⁠	-4861
२	-4862
\	-4863
্	-4864
ন	-4865
ি	-4866
క	-4867
ి	-4868
×	-4869
ত	-4870
ా	-4871
ు	-4872
్	-4873
­	-4874
জ	-4875
ల	-4876
ব	-4877
ম	-4878
చ	-4879
●	-4880
🕐	-4881
>	-4882
३	-4883
४	-4884
ট	-4885
ো	-4886
ర	-4887
[	-4888
१	-4889
প	-4890
ল	-4891
ু	-4892
ం	-4893
~	-4894
९	-4895
এ	-4896
চ	-4897
য	-4898
ষ	-4899
স	-4900
గ	-4901
ట	-4902
ీ	-4903
♈	-4904
ॊ	-4905
ছ	-4906
ড	-4907
দ	-4908
ধ	-4909
త	-4910
న	-4911
వ	-4912
స	-4913
⏱	-4914
♍	-4915
⚠	-4916
⭐	-4917
🇮	-4918
🇳	-4919
🪐	-4920
£	-4921
ॆ	-4922
ॠ	-4923
ঁ	-4924
আ	-4925
ই	-4926
ও	-4927
খ	-4928
়	-4929
ী	-4930
డ	-4931
ప	-4932
శ	-4933
ూ	-4934
ె	-4935
⁄	-4936
☀	-4937
♏	-4938
♐	-4939
♑	-4940
♒	-4941
♓	-4942
🌙	-4943
🔵	-4944
·	-4945
ï	-4946
ऍ	-4947
॑	-4948
५	-4949
६	-4950
८	-4951
অ	-4952
ঘ	-4953
ঠ	-4954
ণ	-4955
ઢ	-4956
ఇ	-4957
ఛ	-4958
జ	-4959
ణ	-4960
థ	-4961
ద	-4962
ఫ	-4963
బ	-4964
భ	-4965
ే	-4966
ొ	-4967
ో	-4968
‛	-4969
€	-4970
⏩	-4971
▪	-4972
○	-4973
♉	-4974
♊	-4975
♋	-4976
♌	-4977
♦	-4978
⚫	-4979
❓	-4980
❗	-4981
	-4982
🌅	-4983
🎉	-4984
🏅	-4985
🏹	-4986
🐉	-4987
💫	-4988
🗓	-4989
😉	-4990
😎	-4991
😜	-4992
😸	-4993
🤔	-4994
🤩	-4995
🦌	-4996
