[UNK]	0
[CLS]	1
[SEP]	2
[PAD]	3
[MASK]	4
!	5
"	6
#	7
$	8
%	9
&	10
'	11
(	12
)	13
*	14
+	15
,	16
-	17
.	18
/	19
0	20
1	21
2	22
3	23
4	24
5	25
6	26
7	27
8	28
9	29
:	30
;	31
<	32
=	33
>	34
?	35
@	36
[	37
\	38
]	39
^	40
_	41
`	42
a	43
b	44
c	45
d	46
e	47
f	48
g	49
h	50
i	51
j	52
k	53
l	54
m	55
n	56
o	57
p	58
q	59
r	60
s	61
t	62
u	63
v	64
w	65
x	66
y	67
z	68
{	69
}	70
	71
¡	72
£	73
¤	74
§	75
©	76
­	77
®	78
°	79
±	80
·	81
¿	82
×	83
ß	84
à	85
á	86
â	87
ã	88
ä	89
å	90
ç	91
è	92
é	93
ê	94
ë	95
ì	96
í	97
î	98
ï	99
ð	100
ñ	101
ò	102
ó	103
ô	104
õ	105
ö	106
ø	107
ù	108
ú	109
û	110
ü	111
ý	112
ā	113
ă	114
ą	115
ć	116
ĉ	117
č	118
ď	119
đ	120
ē	121
ė	122
ę	123
ě	124
ğ	125
ı	126
ľ	127
ł	128
ń	129
ň	130
ō	131
ő	132
ř	133
ś	134
ş	135
š	136
ţ	137
ū	138
ů	139
ź	140
ż	141
ž	142
ƙ	143
ȃ	144
ȉ	145
ȑ	146
ȗ	147
ș	148
ț	149
ə	150
ʟ	151
̇	152
̈	153
̊	154
̋	155
̌	156
̧	157
έ	158
ή	159
α	160
γ	161
δ	162
μ	163
ο	164
π	165
ρ	166
ς	167
τ	168
υ	169
χ	170
ω	171
ό	172
а	173
е	174
к	175
л	176
н	177
о	178
ь	179
і	180
ј	181
ґ	182
ӣ	183
ӧ	184
ི	185
ྀ	186
ṓ	187
ṣ	188
ọ	189
ố	190
ἀ	191
‍	192
‎	193
‐	194
‒	195
―	196
‖	197
‟	198
•	199
‰	200
′	201
⁄	202
⁠	203
€	204
↑	205
⇒	206
−	207
∶	208
⏱	209
■	210
▪	211
▶	212
►	213
○	214
●	215
☀	216
☃	217
☑	218
☘	219
☺	220
♀	221
♡	222
♥	223
♦	224
♬	225
⚠	226
⚤	227
⚫	228
⚽	229
✓	230
✔	231
✠	232
✨	233
❄	234
❤	235
シ	236
传	237
多	238
陈	239
	240
	241
️	242
🇦	243
🇧	244
🇫	245
🇬	246
🇭	247
🇮	248
🇱	249
🇵	250
🇷	251
🇸	252
🇺	253
🇾	254
🌋	255
🌐	256
🌠	257
🌧	258
🌨	259
🌸	260
🌺	261
🌻	262
🍉	263
🍊	264
🎀	265
🎁	266
🎗	267
🏡	268
🏻	269
🐄	270
🐥	271
🐦	272
🐱	273
🐶	274
👀	275
👁	276
👇	277
👣	278
👶	279
💅	280
💋	281
💎	282
💕	283
💘	284
💙	285
💚	286
💟	287
💪	288
💯	289
📌	290
📢	291
📱	292
📸	293
🔄	294
🔥	295
🔹	296
🕓	297
🕷	298
🕸	299
🖥	300
😀	301
😁	302
😂	303
😅	304
😉	305
😊	306
😍	307
😎	308
😏	309
😬	310
😭	311
🙂	312
🙌	313
🙏	314
🛁	315
🟡	316
🟨	317
🤍	318
🤔	319
🤢	320
🤦	321
🤩	322
🤪	323
🤯	324
🥚	325
🥥	326
🥰	327
🥲	328
🥹	329
🥺	330
🦟	331
🩹	332
🩺	333
🪐	334
🫒	335
🫠	336
🫶	337
##v	338
##a	339
##c	340
##i	341
##j	342
##r	343
##t	344
##n	345
##l	346
##d	347
##o	348
##š	349
##č	350
##z	351
##g	352
##e	353
##ć	354
##k	355
##b	356
##s	357
##m	358
##u	359
##3	360
##9	361
##p	362
##ž	363
##h	364
##_	365
##2	366
##7	367
##1	368
##8	369
##5	370
##0	371
##y	372
##f	373
##6	374
##đ	375
##é	376
##x	377
##4	378
##w	379
##è	380
##á	381
##🇷	382
##ü	383
##е	384
##q	385
##â	386
##ø	387
##ö	388
##ò	389
##í	390
##ß	391
##ó	392
##ł	393
##ğ	394
##ç	395
##/	396
##传	397
##多	398
##}	399
##,	400
##{	401
##"	402
##ê	403
##ř	404
##😏	405
##­	406
##↑	407
##.	408
##ä	409
##ï	410
##💙	411
##ı	412
##?	413
##🤩	414
##🫠	415
##ń	416
##î	417
##ū	418
##ú	419
##ì	420
##)	421
##õ	422
##[	423
##🇸	424
##à	425
##ã	426
##;	427
##:	428
##>	429
##û	430
##å	431
##ō	432
##′	433
##ś	434
##+	435
##ñ	436
##!	437
##¿	438
##¡	439
##'	440
##😂	441
##а	442
##о	443
##$	444
##%	445
##-	446
##]	447
##ĉ	448
###	449
##ā	450
##ë	451
##ě	452
##ă	453
##🏻	454
##👣	455
##ȑ	456
##ù	457
##ј	458
##ṓ	459
##¤	460
##ȉ	461
##ô	462
##\	463
##&	464
##ý	465
##ț	466
##ė	467
##🔥	468
##ż	469
##̇	470
##🇧	471
##🇺	472
##🇦	473
##🇵	474
##🇱	475
##🇮	476
##🍊	477
##🌻	478
##ή	479
##ρ	480
##ọ	481
##ố	482
##ą	483
##`	484
##χ	485
##ο	486
##ς	487
##🇾	488
##ȗ	489
##ω	490
##τ	491
##ό	492
##υ	493
##π	494
##ş	495
##і	496
##̌	497
##*	498
##🤢	499
##ē	500
##ţ	501
##γ	502
##ð	503
##έ	504
##🛁	505
##@	506
##<	507
##✨	508
##ź	509
##🤯	510
##ę	511
##🔄	512
##ӣ	513
##ə	514
##л	515
##н	516
##ľ	517
##ő	518
##ི	519
##ྀ	520
##μ	521
##🕷	522
##ů	523
##🙏	524
##ș	525
##🥚	526
##ṣ	527
##ь	528
##ӧ	529
##ȃ	530
##ď	531
##シ	532
##je	533
##ra	534
je	535
##ti	536
##ni	537
na	538
##li	539
##ro	540
po	541
##no	542
##la	543
##re	544
##ko	545
##ri	546
##va	547
##ta	548
##na	549
##ja	550
##ma	551
##te	552
##vi	553
za	554
##vo	555
ko	556
##di	557
##ji	558
##to	559
##ka	560
##ju	561
##ne	562
da	563
##da	564
se	565
##ci	566
##ca	567
do	568
##lo	569
##ve	570
su	571
ne	572
ka	573
##st	574
od	575
bi	576
##mo	577
iz	578
##le	579
##ije	580
pro	581
##ru	582
sa	583
##ki	584
##me	585
##nu	586
ra	587
##sta	588
##go	589
pre	590
##ke	591
pri	592
mo	593
##nje	594
##ku	595
##ron	596
##sti	597
##caron	598
to	599
##ga	600
go	601
te	602
ma	603
##de	604
##zi	605
##lu	606
re	607
##nja	608
##lje	609
##bi	610
no	611
##po	612
##mi	613
mi	614
##pa	615
##cu	616
##tu	617
##ba	618
##bo	619
##či	620
##si	621
ni	622
##ce	623
##sko	624
pa	625
vi	626
ve	627
koji	628
##če	629
ccaron	630
ta	631
ca	632
##še	633
##ći	634
##ski	635
##za	636
##sa	637
će	638
##lja	639
##sto	640
##du	641
##ča	642
##že	643
##gu	644
##pi	645
##gra	646
godi	647
##do	648
me	649
ja	650
st	651
što	652
##cute	653
cacute	654
##će	655
li	656
va	657
ima	658
bo	659
##rva	660
##se	661
ob	662
pu	663
vo	664
os	665
##ća	666
##ša	667
##ža	668
##vje	669
##nog	670
in	671
##nom	672
##dni	673
##lj	674
tre	675
##lji	676
kako	677
##ži	678
zcaron	679
di	680
##vr	681
nje	682
hrva	683
sta	684
##ske	685
##cija	686
svo	687
##en	688
##nih	689
##pu	690
##ši	691
hrvat	692
naj	693
dru	694
##pe	695
##be	696
sve	697
##rije	698
ali	699
ba	700
##ran	701
nije	702
##vu	703
##nim	704
raz	705
##gi	706
pred	707
##su	708
ti	709
koje	710
gra	711
eu	712
si	713
##vije	714
##zo	715
de	716
##nji	717
=>	718
##lju	719
ku	720
##dje	721
jo	722
kao	723
##nju	724
20	725
pr	726
##kon	727
##mje	728
##ge	729
##vno	730
##cije	731
##kom	732
pos	733
##ho	734
",	735
pe	736
če	737
##jo	738
sam	739
##ska	740
##đe	741
##tak	742
##ze	743
be	744
pi	745
is	746
ga	747
nakon	748
pod	749
##mu	750
pra	751
jed	752
tu	753
pot	754
ju	755
du	756
zna	757
mje	758
ru	759
##stu	760
##pre	761
lo	762
godine	763
##pra	764
##vić	765
##vni	766
la	767
pla	768
mu	769
ovo	770
dje	771
lju	772
fi	773
smo	774
ili	775
##rža	776
biti	777
##tni	778
dana	779
ot	780
##zu	781
##sje	782
ro	783
kon	784
##zna	785
koja	786
gla	787
##so	788
samo	789
##sni	790
##rt	791
tako	792
bu	793
uz	794
##đa	795
##đu	796
više	797
prije	798
##bu	799
bio	800
tra	801
##tno	802
##liko	803
nji	804
us	805
##vlja	806
##dio	807
svi	808
##govo	809
##skog	810
##rno	811
##tra	812
kra	813
##",	814
ži	815
igra	816
##rati	817
poli	818
##dno	819
vla	820
##men	821
##kao	822
##dan	823
još	824
može	825
že	826
"",	827
či	828
##or	829
##šta	830
##gle	831
jer	832
stra	833
zbo	834
##fi	835
##ha	836
##gre	837
##rni	838
##tiv	839
spo	840
zbog	841
osta	842
le	843
##ste	844
##čki	845
treba	846
##lni	847
on	848
au	849
ova	850
ki	851
sva	852
ha	853
rekao	854
mogu	855
##nije	856
euro	857
an	858
ci	859
posto	860
##stro	861
bro	862
vr	863
##vanje	864
slu	865
##00	866
##skoj	867
##sno	868
bilo	869
rije	870
##tje	871
##ču	872
##vio	873
veli	874
vje	875
godina	876
op	877
##gla	878
":	879
##lno	880
##vati	881
##bro	882
":"	883
##dra	884
##mije	885
##skom	886
##ciju	887
##skih	888
uk	889
##he	890
##stva	891
##telji	892
##št	893
##šte	894
dok	895
vrije	896
cije	897
##sku	898
202	899
ih	900
##telj	901
##fe	902
radi	903
obja	904
kada	905
sre	906
##sjedni	907
sto	908
doda	909
oso	910
##vali	911
ze	912
obi	913
već	914
##vlje	915
tri	916
prema	917
oko	918
kri	919
##čno	920
om	921
eura	922
bila	923
##van	924
##stra	925
##lije	926
##vanja	927
dstro	928
dstrok	929
fo	930
mora	931
predsjedni	932
utak	933
utakmi	934
tije	935
##ren	936
novi	937
ako	938
sla	939
zagre	940
dobi	941
##kla	942
19	943
njego	944
##rija	945
##nici	946
drža	947
##vori	948
pob	949
##tro	950
##ven	951
##ću	952
##pli	953
kad	954
##tar	955
##..	956
posta	957
or	958
sr	959
ak	960
##čko	961
##stvo	962
jp	963
fa	964
izbo	965
jpg	966
živo	967
##ona	968
ri	969
među	970
im	971
##reme	972
##što	973
##20	974
##kri	975
lu	976
##ter	977
so	978
##lim	979
##joj	980
10	981
ljudi	982
nas	983
odlu	984
##hi	985
kre	986
ho	987
auto	988
ča	989
sje	990
##ng	991
ove	992
##jom	993
kori	994
##kre	995
##ner	996
dva	997
jedan	998
##viti	999
slo	1000
svoje	1001
##tko	1002
##tom	1003
svje	1004
##bli	1005
bez	1006
##ciji	1007
neko	1008
tr	1009
mla	1010
##nika	1011
...	1012
sti	1013
protiv	1014
##nica	1015
bra	1016
".	1017
##om	1018
njiho	1019
odno	1020
sada	1021
##vom	1022
nema	1023
stva	1024
##šti	1025
poče	1026
drugi	1027
nasta	1028
##80	1029
iza	1030
upra	1031
##lazi	1032
##vima	1033
##rom	1034
##bno	1035
mar	1036
klu	1037
##ško	1038
##jte	1039
##pri	1040
mili	1041
pita	1042
gdje	1043
nam	1044
še	1045
##gleda	1046
##ble	1047
stu	1048
##žu	1049
##nima	1050
##spo	1051
europ	1052
lije	1053
##dar	1054
##voj	1055
osi	1056
##pisa	1057
##čke	1058
taj	1059
nego	1060
izra	1061
pje	1062
broj	1063
##met	1064
trenu	1065
prvi	1066
##jek	1067
##40	1068
sigu	1069
par	1070
##sla	1071
##cima	1072
sma	1073
sad	1074
##nt	1075
pobje	1076
dije	1077
pomo	1078
dobro	1079
##ruč	1080
prija	1081
##log	1082
obra	1083
ste	1084
tvr	1085
##kup	1086
ovi	1087
nisu	1088
ši	1089
zdra	1090
danas	1091
##rao	1092
pove	1093
##godi	1094
##vila	1095
##sre	1096
ce	1097
##tka	1098
##pje	1099
hrvatske	1100
toga	1101
##šao	1102
##stup	1103
##for	1104
##cij	1105
##nski	1106
vrijeme	1107
##nost	1108
##nuti	1109
##jući	1110
##_2	1111
##tvr	1112
fina	1113
##iz	1114
##dne	1115
pozi	1116
kod	1117
mini	1118
ško	1119
nu	1120
##nik	1121
##lan	1122
proble	1123
al	1124
društ	1125
poka	1126
godiš	1127
zaje	1128
politi	1129
grad	1130
svije	1131
predsta	1132
proš	1133
ide	1134
dio	1135
popu	1136
dina	1137
žu	1138
##ndi	1139
lje	1140
##nuo	1141
napa	1142
##nosti	1143
spli	1144
neki	1145
medi	1146
##tor	1147
isto	1148
##on	1149
##tua	1150
oz	1151
##tim	1152
##lom	1153
zah	1154
isti	1155
bili	1156
sezo	1157
drugo	1158
mjese	1159
pose	1160
potre	1161
tijekom	1162
najbo	1163
kom	1164
ov	1165
##el	1166
ar	1167
##dom	1168
poslje	1169
##vao	1170
##star	1171
##skim	1172
gu	1173
##meta	1174
nekoliko	1175
##man	1176
rea	1177
en	1178
kro	1179
##vara	1180
dra	1181
cr	1182
zem	1183
oba	1184
tje	1185
foto	1186
doma	1187
dan	1188
vide	1189
##vijek	1190
istra	1191
svoji	1192
ukra	1193
zavr	1194
mis	1195
poru	1196
##nko	1197
##tjeca	1198
koju	1199
),	1200
pozna	1201
dvo	1202
##ciona	1203
12	1204
otkri	1205
##lne	1206
upo	1207
##vaju	1208
proiz	1209
dr	1210
##bra	1211
uspje	1212
##gao	1213
##pan	1214
kaza	1215
##lek	1216
jedno	1217
orga	1218
##dna	1219
fe	1220
umje	1221
##rio	1222
kaže	1223
##nice	1224
##ška	1225
nogo	1226
malo	1227
osje	1228
sati	1229
nika	1230
ša	1231
##diti	1232
##sam	1233
prili	1234
sna	1235
ona	1236
sku	1237
br	1238
projek	1239
15	1240
hi	1241
miliju	1242
##dnji	1243
prva	1244
##pla	1245
odgovo	1246
ge	1247
##rta	1248
puno	1249
##vija	1250
uvijek	1251
##vog	1252
##čio	1253
hrvatskoj	1254
##zira	1255
jedna	1256
nešto	1257
sigurno	1258
poslo	1259
##dnje	1260
27	1261
proizvo	1262
oni	1263
##zul	1264
##vne	1265
##đer	1266
put	1267
##niji	1268
##meri	1269
tome	1270
jako	1271
nad	1272
također	1273
##gen	1274
##nira	1275
##tku	1276
pono	1277
hrvatska	1278
pet	1279
organi	1280
njezi	1281
##tan	1282
tro	1283
jedi	1284
##žbe	1285
dvije	1286
##nk	1287
inte	1288
oče	1289
zapo	1290
##zen	1291
##rima	1292
poja	1293
vozi	1294
ameri	1295
##tivno	1296
##stve	1297
##vna	1298
ukraji	1299
##ako	1300
rezul	1301
ovaj	1302
##nosi	1303
##nti	1304
##vore	1305
##klju	1306
he	1307
izme	1308
##lano	1309
svjet	1310
##đen	1311
##tne	1312
##vala	1313
fil	1314
##nio	1315
bri	1316
##kvi	1317
##_27	1318
##vnog	1319
##hu	1320
cen	1321
##ver	1322
201	1323
iako	1324
tek	1325
sko	1326
ono	1327
govori	1328
ope	1329
##volj	1330
prote	1331
30	1332
##čka	1333
gle	1334
haj	1335
predsjednik	1336
ču	1337
ple	1338
doga	1339
najve	1340
ras	1341
##jem	1342
##rak	1343
ministar	1344
##čin	1345
##red	1346
budu	1347
vreme	1348
##klo	1349
pogo	1350
održa	1351
kojima	1352
##vili	1353
fran	1354
ke	1355
rekla	1356
rezulta	1357
neće	1358
voj	1359
##nd	1360
##telja	1361
##ss	1362
milijuna	1363
vu	1364
##vši	1365
čak	1366
vrlo	1367
napra	1368
##risti	1369
onda	1370
ista	1371
video	1372
##voji	1373
##dova	1374
##njem	1375
##gli	1376
imaju	1377
kojem	1378
##tio	1379
veći	1380
##nj	1381
##ted	1382
##tiri	1383
gleda	1384
tru	1385
dese	1386
##žno	1387
zagreba	1388
hajdu	1389
sli	1390
dalje	1391
uvje	1392
##zenta	1393
mnog	1394
spa	1395
##čni	1396
navo	1397
tko	1398
područ	1399
sluča	1400
##in	1401
vodi	1402
uklju	1403
koliko	1404
svoj	1405
između	1406
tom	1407
situa	1408
##op	1409
poku	1410
##pak	1411
vra	1412
naš	1413
kroz	1414
vije	1415
veliki	1416
nova	1417
11	1418
progra	1419
##nda	1420
kojoj	1421
vam	1422
mre	1423
##jan	1424
repre	1425
razli	1426
njema	1427
##nija	1428
##tovo	1429
vara	1430
kr	1431
tada	1432
##više	1433
pokaza	1434
##kra	1435
prosto	1436
događa	1437
svojim	1438
##njak	1439
njih	1440
reprezenta	1441
naše	1442
##vnom	1443
##vreme	1444
mom	1445
bli	1446
##niti	1447
građa	1448
dugo	1449
dola	1450
joj	1451
##dru	1452
##forma	1453
smje	1454
susta	1455
pripre	1456
bit	1457
ćemo	1458
##nera	1459
publi	1460
četvr	1461
##dri	1462
##stru	1463
obje	1464
ula	1465
##bri	1466
##smo	1467
svoju	1468
##kr	1469
sup	1470
##đi	1471
neka	1472
uči	1473
kvali	1474
loka	1475
župa	1476
##čić	1477
smatra	1478
glaz	1479
##nta	1480
bor	1481
glu	1482
##stri	1483
##čne	1484
komen	1485
##ks	1486
##vla	1487
##kli	1488
bih	1489
##tke	1490
zajedni	1491
mjesto	1492
##čkog	1493
minu	1494
pret	1495
puta	1496
pogleda	1497
ljuba	1498
hd	1499
18	1500
##tira	1501
##zne	1502
poput	1503
fu	1504
##vor	1505
radio	1506
##nama	1507
##roja	1508
vidje	1509
ime	1510
##kle	1511
zo	1512
ure	1513
13	1514
prona	1515
inter	1516
konce	1517
kandi	1518
##nske	1519
pora	1520
jednom	1521
zašti	1522
prven	1523
##bio	1524
##ždi	1525
zdrav	1526
##noj	1527
##24	1528
preko	1529
##an	1530
osoba	1531
2024	1532
vrati	1533
četiri	1534
osigu	1535
slobo	1536
varaždi	1537
##tima	1538
istak	1539
iva	1540
##nova	1541
dinamo	1542
službe	1543
mladi	1544
društve	1545
osim	1546
##ct	1547
split	1548
želi	1549
##titi	1550
zat	1551
izja	1552
##nače	1553
',	1554
pokuša	1555
način	1556
##per	1557
##lova	1558
primje	1559
hra	1560
gr	1561
tak	1562
život	1563
17	1564
druge	1565
grada	1566
000	1567
zra	1568
##ry	1569
##ški	1570
naja	1571
osvoji	1572
javno	1573
kar	1574
posje	1575
uda	1576
kul	1577
tisu	1578
##kto	1579
podi	1580
##vim	1581
##nci	1582
hrvatski	1583
##riti	1584
##vede	1585
manje	1586
utakmice	1587
doš	1588
piše	1589
odnosno	1590
ipak	1591
imao	1592
kru	1593
##šnje	1594
##šnji	1595
sport	1596
kandida	1597
nastu	1598
##mis	1599
hr	1600
povije	1601
##ll	1602
spre	1603
##rna	1604
prvo	1605
##štu	1606
gru	1607
##co	1608
##stvu	1609
mnogi	1610
##mir	1611
##rne	1612
sura	1613
##sao	1614
##čiti	1615
teško	1616
##movi	1617
promje	1618
bla	1619
hdz	1620
##fa	1621
susre	1622
50	1623
srp	1624
navija	1625
ski	1626
tim	1627
pone	1628
##bije	1629
skupi	1630
ovom	1631
stran	1632
obitelji	1633
vas	1634
pokre	1635
##ksi	1636
##vesti	1637
razi	1638
16	1639
##bora	1640
pravo	1641
dubro	1642
dogodi	1643
ener	1644
posebno	1645
##com	1646
##tara	1647
sezone	1648
uli	1649
natjeca	1650
nove	1651
usta	1652
vode	1653
gro	1654
kla	1655
er	1656
viso	1657
naciona	1658
ovog	1659
odu	1660
##nula	1661
maj	1662
##čili	1663
nisam	1664
ulo	1665
potvr	1666
završi	1667
##šu	1668
##jeli	1669
##nal	1670
##mpa	1671
vlasti	1672
svako	1673
gotovo	1674
koristi	1675
##šić	1676
strane	1677
teh	1678
##dam	1679
čo	1680
gospo	1681
vremena	1682
poveća	1683
##pada	1684
##cted	1685
zaklju	1686
regi	1687
##čer	1688
##vanju	1689
##ck	1690
##ljede	1691
([	1692
fotogra	1693
##nali	1694
##mobi	1695
1024	1696
##cijama	1697
protected	1698
##tri	1699
svih	1700
##plo	1701
potpu	1702
##ime	1703
mari	1704
pote	1705
##tet	1706
unu	1707
kazao	1708
one	1709
informa	1710
mjesta	1711
proda	1712
25	1713
tere	1714
naši	1715
automobi	1716
šu	1717
##rac	1718
njega	1719
##glasi	1720
##nka	1721
organiza	1722
##lma	1723
odre	1724
##lić	1725
premije	1726
baš	1727
rodi	1728
##sne	1729
14	1730
##žda	1731
imati	1732
##vnih	1733
vidi	1734
kultu	1735
##ch	1736
obitelj	1737
##pusti	1738
).	1739
ostva	1740
stude	1741
poda	1742
sudje	1743
rje	1744
##ške	1745
##govara	1746
kraju	1747
una	1748
nagra	1749
##ment	1750
##čkih	1751
##tre	1752
možda	1753
oda	1754
##ljivo	1755
of	1756
sasta	1757
ništa	1758
nosi	1759
kli	1760
sredi	1761
##rica	1762
kolo	1763
##mp	1764
bude	1765
zato	1766
upravo	1767
glazbe	1768
isku	1769
co	1770
knji	1771
nju	1772
##čan	1773
##zni	1774
obo	1775
sm	1776
teme	1777
rad	1778
odma	1779
##ranje	1780
at	1781
milano	1782
part	1783
utakmica	1784
supru	1785
##pozna	1786
muška	1787
##čaj	1788
for	1789
policija	1790
##ar	1791
##vra	1792
mogao	1793
mode	1794
##cio	1795
kazne	1796
emo	1797
njima	1798
momča	1799
zagrebu	1800
dire	1801
##teta	1802
mate	1803
##hva	1804
##tem	1805
##80x	1806
uo	1807
polu	1808
200	1809
riječ	1810
radni	1811
##lna	1812
ivan	1813
nesre	1814
grado	1815
em	1816
klju	1817
sred	1818
##40x	1819
neke	1820
##riji	1821
najbolji	1822
istraži	1823
vlada	1824
tran	1825
nedje	1826
##ljem	1827
izgu	1828
godinu	1829
napo	1830
svaki	1831
spe	1832
tele	1833
osjeća	1834
##čkoj	1835
zapa	1836
stru	1837
plenko	1838
francu	1839
deset	1840
kojeg	1841
object	1842
##as	1843
##mogu	1844
njegova	1845
čeka	1846
##lnih	1847
djela	1848
njegov	1849
##prije	1850
##dili	1851
##tin	1852
##uze	1853
##tna	1854
pogledajte	1855
21	1856
imamo	1857
dodao	1858
##snije	1859
napada	1860
and	1861
24	1862
##san	1863
pitanje	1864
špan	1865
##rić	1866
otvore	1867
##dila	1868
zla	1869
##ković	1870
##hvati	1871
##rana	1872
##kav	1873
podr	1874
##čna	1875
zi	1876
karije	1877
imali	1878
opa	1879
##vih	1880
##kuje	1881
priča	1882
##ljen	1883
često	1884
bar	1885
šest	1886
zako	1887
##oj	1888
promet	1889
##sna	1890
##šnja	1891
inf	1892
druga	1893
važ	1894
bolni	1895
upozo	1896
##lnik	1897
nja	1898
subo	1899
##vica	1900
prizna	1901
pru	1902
##rali	1903
zado	1904
repu	1905
##ncija	1906
##pro	1907
dalma	1908
id	1909
napisa	1910
dne	1911
mislim	1912
##zak	1913
##_271	1914
novo	1915
posla	1916
svom	1917
španjo	1918
pjes	1919
izgleda	1920
mjestu	1921
niko	1922
čini	1923
##lnog	1924
##sle	1925
##lio	1926
##ton	1927
eki	1928
vlasni	1929
bolje	1930
ovdje	1931
##kve	1932
00	1933
stvari	1934
možemo	1935
podsje	1936
##čkom	1937
uspo	1938
zašto	1939
podu	1940
trgo	1941
##vnik	1942
struč	1943
pomoć	1944
sebe	1945
##bija	1946
##rovi	1947
oti	1948
ukup	1949
##cje	1950
##er	1951
njegovo	1952
##mpe	1953
kraj	1954
naime	1955
dosta	1956
novina	1957
republi	1958
optu	1959
##jedi	1960
opći	1961
raspo	1962
ponu	1963
posao	1964
poz	1965
##bar	1966
##kova	1967
odra	1968
hu	1969
traži	1970
ću	1971
##lle	1972
problem	1973
čovje	1974
sd	1975
##pio	1976
dobio	1977
##bor	1978
##ljak	1979
predsjednika	1980
izrael	1981
voza	1982
##rojatno	1983
cu	1984
posti	1985
kasnije	1986
španjol	1987
udru	1988
2720	1989
opo	1990
odmah	1991
neo	1992
zajedno	1993
uče	1994
kate	1995
##dovi	1996
minuti	1997
##čar	1998
svim	1999
poma	2000
života	2001
obzi	2002
##glo	2003
##ćem	2004
kraja	2005
raču	2006
elek	2007
zahva	2008
utjeca	2009
vjeru	2010
uži	2011
stano	2012
odi	2013
polj	2014
sud	2015
znači	2016
ad	2017
##cla	2018
##tki	2019
##pred	2020
prošle	2021
##rani	2022
trener	2023
najviše	2024
pp	2025
izda	2026
osno	2027
##vljen	2028
##nskog	2029
##tkom	2030
pobije	2031
vozila	2032
hrvatsku	2033
velika	2034
priro	2035
bole	2036
posljednji	2037
ugovo	2038
##rtu	2039
zagreb	2040
veliko	2041
hrvatskog	2042
name	2043
save	2044
nalazi	2045
komu	2046
savje	2047
tamo	2048
kola	2049
idu	2050
nov	2051
svijetu	2052
gi	2053
##nata	2054
sun	2055
minuta	2056
ska	2057
nogomet	2058
odje	2059
postoji	2060
the	2061
##rava	2062
##šlja	2063
domaći	2064
##vnim	2065
##rma	2066
uključu	2067
##ktor	2068
pola	2069
kontro	2070
vrijedno	2071
##dnja	2072
olim	2073
poči	2074
sce	2075
međutim	2076
djece	2077
možete	2078
film	2079
gol	2080
100	2081
##blje	2082
##class	2083
##stima	2084
aktivno	2085
neda	2086
predstavlja	2087
trži	2088
pona	2089
mogli	2090
##zuje	2091
ponovno	2092
oči	2093
##dclass	2094
dolazi	2095
stdclass	2096
izvo	2097
sljede	2098
22	2099
zlo	2100
##ved	2101
osu	2102
djelo	2103
##ut	2104
naro	2105
##opće	2106
neza	2107
##tali	2108
##raju	2109
niti	2110
##nović	2111
##piti	2112
prvaka	2113
##rala	2114
pjeva	2115
ispo	2116
tisuća	2117
izne	2118
##zima	2119
uni	2120
toliko	2121
##nin	2122
olimpi	2123
evo	2124
ovu	2125
odli	2126
utakmicu	2127
suda	2128
sklo	2129
prati	2130
##žen	2131
proce	2132
##čku	2133
##loga	2134
##ćen	2135
problema	2136
##ljiv	2137
##rka	2138
##che	2139
gor	2140
jednu	2141
##jski	2142
odigra	2143
##nde	2144
##pravo	2145
ivo	2146
##il	2147
klub	2148
ranije	2149
##nuli	2150
##vnika	2151
provo	2152
##šli	2153
image	2154
omogu	2155
pore	2156
profe	2157
sum	2158
##njen	2159
##12	2160
##naro	2161
osobe	2162
jednosta	2163
kvalite	2164
##tnika	2165
lige	2166
kole	2167
pravi	2168
##lnim	2169
nave	2170
##kti	2171
oto	2172
23	2173
zapravo	2174
plo	2175
nara	2176
prava	2177
##slu	2178
##voljno	2179
području	2180
najveći	2181
##kva	2182
srije	2183
produ	2184
šte	2185
##ratu	2186
##rili	2187
##renje	2188
jednog	2189
eko	2190
##vre	2191
plaća	2192
tempe	2193
kluba	2194
##tnih	2195
bije	2196
festi	2197
##šku	2198
##ris	2199
##kako	2200
demo	2201
##lina	2202
izgra	2203
svog	2204
ozbi	2205
##čila	2206
time	2207
netko	2208
##fina	2209
mno	2210
##gije	2211
##sija	2212
ljubav	2213
veza	2214
policij	2215
moguć	2216
upravlja	2217
reći	2218
deta	2219
iznena	2220
##bje	2221
2023	2222
zahtje	2223
ben	2224
šo	2225
bivši	2226
turisti	2227
sudjelo	2228
##vaja	2229
##nac	2230
kilo	2231
ozlije	2232
oku	2233
vatro	2234
temperatu	2235
trenutku	2236
##mbe	2237
##zem	2238
boga	2239
vjerojatno	2240
kona	2241
sja	2242
eks	2243
##jna	2244
petak	2245
obzirom	2246
##nstve	2247
manda	2248
imala	2249
tradi	2250
##rice	2251
zastup	2252
super	2253
##rnik	2254
##rem	2255
hajduk	2256
##up	2257
##kama	2258
##žava	2259
og	2260
ponedje	2261
##she	2262
##stitu	2263
##feren	2264
unutar	2265
nismo	2266
prvom	2267
##br	2268
##cama	2269
##al	2270
vlade	2271
tog	2272
igrača	2273
gospodar	2274
utvr	2275
drugom	2276
##jske	2277
pisa	2278
crve	2279
kojim	2280
izazo	2281
nogometa	2282
zemlje	2283
kup	2284
##đenje	2285
najbolje	2286
brzo	2287
stan	2288
40	2289
##lar	2290
##lue	2291
djevoj	2292
ty	2293
##mira	2294
genera	2295
##ktu	2296
##dnim	2297
pomoći	2298
misli	2299
##gled	2300
##kaza	2301
##čima	2302
zdravstve	2303
nedo	2304
##tnik	2305
potom	2306
##vića	2307
trans	2308
##ksu	2309
##čen	2310
zele	2311
člano	2312
##son	2313
gradonače	2314
sedam	2315
per	2316
##lost	2317
opet	2318
luka	2319
godišnji	2320
opre	2321
čega	2322
korisni	2323
##tić	2324
##laze	2325
studi	2326
finan	2327
fotografi	2328
objavio	2329
međunaro	2330
rješe	2331
##šće	2332
##lih	2333
##mat	2334
##den	2335
##nak	2336
očeki	2337
mjeseci	2338
povje	2339
alias	2340
hla	2341
##bre	2342
##nos	2343
##shed	2344
aj	2345
ok	2346
zgra	2347
##lin	2348
##žiti	2349
published	2350
isko	2351
izvje	2352
mene	2353
svijeta	2354
snim	2355
##mina	2356
##lov	2357
raditi	2358
svojoj	2359
sdp	2360
##čnih	2361
izvr	2362
##pis	2363
##tnu	2364
##nicu	2365
##zor	2366
promije	2367
intere	2368
osam	2369
izvan	2370
rada	2371
zanim	2372
biv	2373
##spe	2374
##bom	2375
priva	2376
##lima	2377
mogla	2378
##đeno	2379
##rila	2380
##nad	2381
josi	2382
odvje	2383
potpuno	2384
nikad	2385
mreža	2386
##mor	2387
##šava	2388
dosa	2389
žena	2390
poduze	2391
##vijesti	2392
svega	2393
##rnost	2394
##vac	2395
##đena	2396
vatroga	2397
##dnih	2398
nama	2399
##boj	2400
navodi	2401
vidjeti	2402
slije	2403
stoji	2404
##sci	2405
insta	2406
velike	2407
istaknuo	2408
prosje	2409
funk	2410
ozbilj	2411
bile	2412
##ban	2413
znam	2414
##zda	2415
tali	2416
lip	2417
postoje	2418
##dnju	2419
razvo	2420
ji	2421
mije	2422
smije	2423
##lnu	2424
preda	2425
razgovo	2426
ovih	2427
cilj	2428
zau	2429
doku	2430
parla	2431
eli	2432
##rd	2433
group	2434
26	2435
ovoj	2436
##teljica	2437
##novi	2438
##čkim	2439
##slav	2440
sprem	2441
subotu	2442
##zije	2443
projekt	2444
usko	2445
##deri	2446
glavni	2447
2022	2448
##ćeg	2449
am	2450
očekuje	2451
agen	2452
pojedi	2453
puto	2454
##dnik	2455
nesta	2456
vrhu	2457
država	2458
##nca	2459
institu	2460
osob	2461
bru	2462
prve	2463
##teljima	2464
199	2465
namje	2466
##jima	2467
dovoljno	2468
neu	2469
##žio	2470
nom	2471
plenković	2472
slučaju	2473
društvenim	2474
povra	2475
razdo	2476
##cijom	2477
##njima	2478
veče	2479
gradu	2480
polo	2481
##mom	2482
listo	2483
trav	2484
ogra	2485
domovi	2486
priprema	2487
rado	2488
.,	2489
##bili	2490
osije	2491
##som	2492
##žić	2493
##čica	2494
##20x	2495
naravno	2496
##tori	2497
priliku	2498
##nike	2499
##der	2500
zaba	2501
jasno	2502
zaposle	2503
objasni	2504
##telje	2505
##480	2506
##gom	2507
maksi	2508
jezi	2509
##ster	2510
ugo	2511
bira	2512
planira	2513
uspješ	2514
##zija	2515
financij	2516
##rti	2517
sho	2518
brani	2519
tjedna	2520
upu	2521
psi	2522
nedjelju	2523
kriti	2524
drugih	2525
zadar	2526
##mišlja	2527
svojih	2528
uto	2529
##šla	2530
tur	2531
čla	2532
turni	2533
nedavno	2534
we	2535
lop	2536
##kuplja	2537
trebao	2538
ponedjeljak	2539
ža	2540
##menta	2541
milanović	2542
rezultat	2543
type	2544
emi	2545
##nce	2546
##ranja	2547
##tica	2548
moj	2549
poslije	2550
razu	2551
##tila	2552
ig	2553
turi	2554
##fo	2555
uslu	2556
andre	2557
rata	2558
rade	2559
premi	2560
##šen	2561
marko	2562
##vnu	2563
odnosu	2564
##zma	2565
program	2566
##tine	2567
igrati	2568
dijete	2569
##gor	2570
obu	2571
uju	2572
##fika	2573
naglasi	2574
izbje	2575
trenutno	2576
mnogo	2577
koli	2578
smi	2579
jugo	2580
##taka	2581
zatim	2582
donije	2583
skla	2584
ispri	2585
europske	2586
ivana	2587
tih	2588
ini	2589
nitko	2590
hrvatskih	2591
uzro	2592
dogovo	2593
najma	2594
obilje	2595
value	2596
posve	2597
orderi	2598
pretho	2599
ordering	2600
anali	2601
##njoj	2602
##spi	2603
cijene	2604
##1280	2605
28	2606
##ista	2607
##pisu	2608
kva	2609
moguće	2610
ele	2611
oru	2612
godini	2613
čita	2614
##ty	2615
premijer	2616
ske	2617
poveza	2618
preki	2619
##poru	2620
zemlji	2621
##drža	2622
katego	2623
deve	2624
sjeve	2625
##ns	2626
buduć	2627
##th	2628
djecu	2629
nastupa	2630
došao	2631
rat	2632
inače	2633
prepozna	2634
##jemo	2635
novog	2636
spome	2637
ovim	2638
potencija	2639
ava	2640
gre	2641
ispred	2642
značaj	2643
sije	2644
prome	2645
rijeka	2646
izbora	2647
zvije	2648
kuće	2649
uhi	2650
odr	2651
off	2652
putem	2653
poseb	2654
iznosi	2655
kupa	2656
'.	2657
29	2658
tehno	2659
##dnu	2660
##dana	2661
nog	2662
##kić	2663
##rce	2664
##dnog	2665
##laz	2666
srijedu	2667
kampa	2668
dinama	2669
##jno	2670
##tru	2671
cijena	2672
##nić	2673
tvrdi	2674
uje	2675
##đenja	2676
umjesto	2677
stranke	2678
svima	2679
io	2680
potro	2681
konferen	2682
moramo	2683
drugim	2684
stre	2685
bodova	2686
utorak	2687
##jar	2688
glasa	2689
osobi	2690
dijelu	2691
varaždin	2692
sustav	2693
momčad	2694
zamje	2695
##voza	2696
djeca	2697
hote	2698
##vine	2699
sata	2700
izlo	2701
nikada	2702
ug	2703
60	2704
modri	2705
želje	2706
pozo	2707
ravna	2708
obrazo	2709
član	2710
novu	2711
pak	2712
godišnje	2713
hoće	2714
investi	2715
donosi	2716
##gova	2717
niz	2718
medici	2719
povr	2720
##dak	2721
##stupa	2722
ćete	2723
nedosta	2724
com	2725
dobar	2726
otvori	2727
mr	2728
prosi	2729
izbor	2730
povijesti	2731
##čnu	2732
ser	2733
ut	2734
meni	2735
##tog	2736
kojih	2737
metara	2738
##dnom	2739
nazi	2740
##logi	2741
##bina	2742
doći	2743
svijet	2744
##tirao	2745
##vremeno	2746
dobiti	2747
škole	2748
upozna	2749
##gnu	2750
godinama	2751
##stava	2752
mjeseca	2753
##kna	2754
ispu	2755
svjedo	2756
ističe	2757
poža	2758
dija	2759
dobili	2760
##pita	2761
glumi	2762
republike	2763
okru	2764
naša	2765
dakle	2766
kata	2767
zdravlje	2768
situacija	2769
osvojio	2770
godišnjak	2771
##liti	2772
utakmici	2773
35	2774
ap	2775
gori	2776
sin	2777
potra	2778
##tili	2779
##rina	2780
##vid	2781
županije	2782
mirovi	2783
države	2784
glaso	2785
##nove	2786
mir	2787
##čita	2788
##sak	2789
##žan	2790
prvu	2791
##lnom	2792
pari	2793
razini	2794
moći	2795
1280x	2796
suko	2797
njemu	2798
##šiti	2799
strana	2800
rizi	2801
unato	2802
vaše	2803
popula	2804
doži	2805
prvog	2806
man	2807
obli	2808
har	2809
njegove	2810
diza	2811
para	2812
traja	2813
##ple	2814
##kata	2815
provje	2816
##dese	2817
svib	2818
njihov	2819
rt	2820
ljude	2821
##kretni	2822
##veo	2823
moglo	2824
važno	2825
centra	2826
640x	2827
rijeke	2828
##loba	2829
splitu	2830
##ljan	2831
prošlo	2832
moraju	2833
##tion	2834
vatre	2835
živi	2836
pobjedu	2837
činje	2838
posljednje	2839
##tina	2840
##kar	2841
zemlja	2842
tvrtke	2843
80	2844
##timo	2845
fizi	2846
##tle	2847
uključujući	2848
wi	2849
45	2850
##rg	2851
zara	2852
##gan	2853
cijeli	2854
##rci	2855
došlo	2856
new	2857
podijeli	2858
##ogra	2859
zakon	2860
prosla	2861
nih	2862
ljud	2863
otkrio	2864
##nte	2865
snage	2866
dro	2867
ete	2868
obve	2869
srbi	2870
vladi	2871
potrebno	2872
mrežama	2873
indu	2874
postao	2875
##vlju	2876
##jka	2877
žele	2878
milijar	2879
stvarno	2880
poručio	2881
ukupno	2882
trebalo	2883
organizira	2884
hajduka	2885
dolara	2886
dogodilo	2887
##jih	2888
sebi	2889
prima	2890
novih	2891
jednostavno	2892
čemu	2893
lipnja	2894
ica	2895
fili	2896
pobjede	2897
odgovor	2898
##tivni	2899
pros	2900
vre	2901
marija	2902
uprave	2903
plat	2904
opera	2905
##wi	2906
##jeva	2907
toj	2908
zabra	2909
potreb	2910
posljednjih	2911
manji	2912
##voje	2913
objavila	2914
javnosti	2915
napraviti	2916
igre	2917
##vite	2918
profi	2919
lako	2920
ispod	2921
480x	2922
pogi	2923
##vora	2924
otkrila	2925
prilikom	2926
af	2927
nasi	2928
kažu	2929
razvoj	2930
##nke	2931
##ksa	2932
čovjek	2933
ugla	2934
der	2935
340x	2936
bre	2937
dre	2938
nepo	2939
igrač	2940
dodaje	2941
socija	2942
biste	2943
sveu	2944
šibe	2945
poljo	2946
kuha	2947
sporta	2948
zabio	2949
vanj	2950
izaz	2951
žene	2952
oduše	2953
olimpij	2954
##11	2955
kame	2956
##šten	2957
razmišlja	2958
engle	2959
zadovolj	2960
novac	2961
cro	2962
ek	2963
zaslu	2964
##stre	2965
stati	2966
poljopri	2967
zadnji	2968
njihove	2969
instagra	2970
rekli	2971
podrža	2972
##ndo	2973
##renja	2974
dale	2975
##zuju	2976
##rnoj	2977
postup	2978
##žni	2979
pada	2980
sjever	2981
##dnika	2982
snima	2983
##lla	2984
stoga	2985
prostor	2986
##tnog	2987
##wa	2988
##veli	2989
##kovi	2990
##čenje	2991
##čak	2992
ponaša	2993
blo	2994
cha	2995
njihova	2996
izjavio	2997
pobo	2998
prisu	2999
hrvatskom	3000
uglavnom	3001
##blja	3002
##lak	3003
zahvalju	3004
zausta	3005
kine	3006
gubi	3007
nada	3008
teni	3009
##vljaju	3010
trebali	3011
isklju	3012
šan	3013
brzi	3014
##mac	3015
san	3016
##đene	3017
odluka	3018
prijatelj	3019
škola	3020
kor	3021
odla	3022
siječ	3023
bes	3024
sustava	3025
##šću	3026
##gdje	3027
##jelo	3028
kolu	3029
njezin	3030
##krša	3031
stadio	3032
izborima	3033
##tivi	3034
polju	3035
##đeni	3036
započe	3037
momčadi	3038
iznim	3039
ljubi	3040
##tinu	3041
norma	3042
jedne	3043
festiva	3044
natje	3045
##dić	3046
##fije	3047
bismo	3048
bolji	3049
kući	3050
poslu	3051
aktivnosti	3052
travnja	3053
##štvo	3054
90	3055
##kcije	3056
pročita	3057
##nicima	3058
posjeti	3059
ite	3060
##siji	3061
sc	3062
sabor	3063
##ćih	3064
posljedi	3065
uze	3066
##štva	3067
##žba	3068
##tic	3069
stvar	3070
drugog	3071
napre	3072
god	3073
##šlje	3074
nevje	3075
promjene	3076
##90	3077
##ranju	3078
parki	3079
terenu	3080
unatoč	3081
onih	3082
prijed	3083
umi	3084
##čnim	3085
##vice	3086
##ljeća	3087
##dnici	3088
##tova	3089
rast	3090
mijenja	3091
##ur	3092
svakodne	3093
stručnja	3094
##vku	3095
##_480	3096
veliku	3097
##zam	3098
31	3099
pli	3100
koša	3101
dao	3102
ale	3103
##line	3104
tomi	3105
meda	3106
direktor	3107
korište	3108
##nskih	3109
vod	3110
dodatno	3111
mlade	3112
##nila	3113
nado	3114
##loški	3115
smanji	3116
četvrtak	3117
televi	3118
najmanje	3119
kojom	3120
##žnje	3121
ljudima	3122
materija	3123
gradonačelnik	3124
primi	3125
ispla	3126
konku	3127
##đuje	3128
##rske	3129
takvi	3130
legen	3131
##lnoj	3132
##nicama	3133
ulaga	3134
devet	3135
trebala	3136
objavlje	3137
##snu	3138
vele	3139
##lnosti	3140
dali	3141
##sima	3142
večer	3143
indi	3144
životu	3145
reda	3146
##ženje	3147
centar	3148
obe	3149
mjesec	3150
tehni	3151
bolesti	3152
ispriča	3153
poljoprivre	3154
epi	3155
pripa	3156
zema	3157
pitanja	3158
elektri	3159
con	3160
##šća	3161
rujna	3162
70	3163
##dima	3164
pacije	3165
previše	3166
imam	3167
partne	3168
prenosi	3169
umjetni	3170
##tivne	3171
zakona	3172
reko	3173
##_220	3174
poznati	3175
##vci	3176
potpisa	3177
##dro	3178
doz	3179
ugovor	3180
car	3181
##tnosti	3182
građana	3183
upa	3184
dati	3185
##mer	3186
##gama	3187
mali	3188
treći	3189
barem	3190
strate	3191
ministarstvo	3192
policije	3193
računa	3194
pobolj	3195
sutra	3196
defi	3197
opasno	3198
kuća	3199
europe	3200
novom	3201
liječ	3202
##sli	3203
##pr	3204
navede	3205
izvijesti	3206
rođen	3207
iskustvo	3208
doče	3209
##mos	3210
##ktora	3211
napisao	3212
ana	3213
ožu	3214
##ben	3215
##tiva	3216
navodno	3217
##tnom	3218
##rano	3219
prora	3220
pala	3221
moja	3222
projekta	3223
razloga	3224
tjedan	3225
##jni	3226
prosvje	3227
##nska	3228
##pom	3229
odluku	3230
##stan	3231
nekretni	3232
kak	3233
lak	3234
okoli	3235
skup	3236
##tnim	3237
##rane	3238
odgovara	3239
##sobno	3240
##metara	3241
otvara	3242
dozvo	3243
uvo	3244
sadrža	3245
##vlada	3246
majka	3247
pruža	3248
mobi	3249
##pušta	3250
ograni	3251
dozna	3252
priti	3253
##sen	3254
srpnja	3255
##tac	3256
gosti	3257
znanstve	3258
uoči	3259
dalj	3260
demokra	3261
##kcija	3262
vese	3263
tiče	3264
listopada	3265
##mati	3266
##čina	3267
##čuje	3268
dom	3269
mađa	3270
plaće	3271
ostati	3272
susret	3273
sklopu	3274
plu	3275
##njo	3276
izvor	3277
vike	3278
alko	3279
podršku	3280
##siona	3281
pale	3282
kralje	3283
##ray	3284
##lnika	3285
iskoristi	3286
##gh	3287
suo	3288
preuze	3289
reprezentacije	3290
##tt	3291
##gne	3292
predvi	3293
programa	3294
##ljiva	3295
brojne	3296
napad	3297
tv	3298
dobila	3299
početka	3300
vraća	3301
hn	3302
##šio	3303
kompa	3304
##lac	3305
##jica	3306
##88	3307
kape	3308
sat	3309
voli	3310
nekim	3311
mladih	3312
340	3313
vrata	3314
građani	3315
##kul	3316
##min	3317
dodala	3318
ubr	3319
##ljena	3320
##mija	3321
ukrajini	3322
##qu	3323
##vina	3324
budući	3325
27202	3326
ostali	3327
uopće	3328
##mini	3329
objek	3330
aktua	3331
33	3332
##žili	3333
početkom	3334
konkuren	3335
shvati	3336
##rba	3337
prvenstva	3338
sveučili	3339
europi	3340
trump	3341
automobila	3342
ošte	3343
ulogu	3344
sazna	3345
loše	3346
sjeća	3347
zemalja	3348
nagla	3349
tijelo	3350
počinje	3351
alkoho	3352
smanje	3353
atmos	3354
220x	3355
prila	3356
reali	3357
ala	3358
upi	3359
pristup	3360
ruko	3361
##vnici	3362
poziva	3363
savez	3364
are	3365
##tora	3366
strani	3367
sigurnosti	3368
kolovoza	3369
vrijednosti	3370
slove	3371
zrako	3372
##riju	3373
krimi	3374
atmosfe	3375
božić	3376
većina	3377
rtl	3378
korak	3379
putu	3380
tvrtka	3381
podsjetimo	3382
raspra	3383
lan	3384
igrao	3385
poslova	3386
troško	3387
dubrova	3388
##nzi	3389
diljem	3390
real	3391
##bila	3392
ligi	3393
globa	3394
ina	3395
priopće	3396
različi	3397
žrt	3398
dostup	3399
2021	3400
župani	3401
ujutro	3402
##ali	3403
izla	3404
prekrša	3405
velja	3406
##osta	3407
duž	3408
skog	3409
talijan	3410
che	3411
##rs	3412
##10	3413
##kad	3414
upisa	3415
beogra	3416
traže	3417
##dnoj	3418
tradiciona	3419
##raca	3420
presu	3421
ministarstva	3422
##55	3423
van	3424
##tnoj	3425
dosad	3426
uskoro	3427
##struktu	3428
##vka	3429
najva	3430
stigao	3431
reagi	3432
wa	3433
##ras	3434
odluke	3435
##čnog	3436
seku	3437
rela	3438
cijelo	3439
mediji	3440
bivše	3441
redu	3442
imate	3443
digi	3444
sjedi	3445
slučaj	3446
profesiona	3447
svibnja	3448
##vrše	3449
jučer	3450
koncert	3451
500	3452
zvu	3453
##nose	3454
dopri	3455
preh	3456
bal	3457
stup	3458
primjer	3459
##klu	3460
jest	3461
##baci	3462
komenta	3463
polica	3464
ostao	3465
kazali	3466
##zno	3467
ter	3468
staja	3469
ovako	3470
nastaviti	3471
najavio	3472
vjero	3473
izbore	3474
područja	3475
natjecanja	3476
dodi	3477
top	3478
##žila	3479
##vnoj	3480
##ziju	3481
izrazi	3482
##vač	3483
znaju	3484
infra	3485
udruge	3486
##gno	3487
##tere	3488
iznad	3489
gola	3490
male	3491
##luje	3492
pobjeda	3493
susje	3494
##razu	3495
seksu	3496
sudio	3497
cati	3498
foku	3499
sigurnost	3500
stanje	3501
sim	3502
face	3503
financi	3504
pripremi	3505
naših	3506
josip	3507
budi	3508
čiji	3509
došli	3510
asi	3511
pol	3512
daleko	3513
34	3514
svaka	3515
oruž	3516
zanima	3517
obrane	3518
cesta	3519
interne	3520
vratiti	3521
energe	3522
proraču	3523
##pt	3524
##27	3525
zabora	3526
krea	3527
poboljša	3528
otac	3529
napusti	3530
procje	3531
sama	3532
meta	3533
dubo	3534
jedini	3535
lice	3536
čet	3537
kontak	3538
##štaj	3539
tijela	3540
identi	3541
energi	3542
specija	3543
##ok	3544
završe	3545
ozna	3546
nače	3547
##zan	3548
##by	3549
kore	3550
novim	3551
##ly	3552
##14	3553
##vici	3554
##čava	3555
vjen	3556
pitanju	3557
informacije	3558
##snih	3559
boda	3560
##vremenu	3561
polufina	3562
ći	3563
koriste	3564
portu	3565
##dija	3566
razgovara	3567
prvoj	3568
ići	3569
madri	3570
jući	3571
##lnost	3572
##_1280	3573
mani	3574
znamo	3575
dječ	3576
infrastruktu	3577
moje	3578
bel	3579
##šnjeg	3580
drago	3581
##nskom	3582
mati	3583
uspio	3584
fakul	3585
hrt	3586
sprije	3587
##dran	3588
##bc	3589
njezina	3590
dolaze	3591
završio	3592
supruga	3593
dobra	3594
noć	3595
##celo	3596
##tnici	3597
komunika	3598
koma	3599
32	3600
naba	3601
poh	3602
plan	3603
smrt	3604
36	3605
##jskog	3606
borbe	3607
nau	3608
priop	3609
topli	3610
europskog	3611
društva	3612
kazala	3613
smrti	3614
##sije	3615
naz	3616
resto	3617
array	3618
njemačkoj	3619
640	3620
um	3621
dobri	3622
visoko	3623
vru	3624
takav	3625
##vjeti	3626
iste	3627
##štvu	3628
nastavlja	3629
temperatura	3630
platfor	3631
##rski	3632
##kov	3633
društvo	3634
događaja	3635
##79	3636
naža	3637
mjere	3638
čime	3639
standar	3640
nažalost	3641
jadra	3642
njegovu	3643
##_2720	3644
zu	3645
##podne	3646
osobito	3647
pročitajte	3648
hnl	3649
##rp	3650
nato	3651
noći	3652
roditelji	3653
##_2719	3654
##rira	3655
zavo	3656
zadrža	3657
izmje	3658
##nut	3659
radova	3660
##tnost	3661
hrane	3662
okre	3663
nastup	3664
##šenje	3665
finala	3666
##zom	3667
2025	3668
facebo	3669
zaista	3670
protu	3671
presta	3672
##njuje	3673
prijet	3674
želim	3675
sub	3676
nim	3677
muze	3678
završ	3679
sk	3680
zabri	3681
pau	3682
razlog	3683
anti	3684
ulici	3685
portuga	3686
it	3687
##nili	3688
prika	3689
stabi	3690
odlučio	3691
klubo	3692
preporu	3693
##stom	3694
kratko	3695
sluša	3696
nogome	3697
klasi	3698
porta	3699
##stina	3700
ber	3701
ispa	3702
skupine	3703
energije	3704
sni	3705
##blju	3706
česti	3707
uslije	3708
šiben	3709
umiro	3710
##vilo	3711
svakako	3712
ai	3713
ispra	3714
želj	3715
mogućnost	3716
siječnja	3717
mišlje	3718
drugu	3719
sezonu	3720
prvenstvu	3721
prosinca	3722
odgo	3723
stari	3724
blizi	3725
fotografije	3726
##nsko	3727
##vit	3728
##čević	3729
ulaz	3730
##bla	3731
nakna	3732
##cira	3733
stro	3734
inci	3735
##zer	3736
mnoge	3737
robe	3738
pokazuje	3739
migra	3740
veze	3741
osvaja	3742
##llery	3743
naglasio	3744
rh	3745
vezi	3746
##vlji	3747
red	3748
var	3749
proizvoda	3750
zadovo	3751
##lira	3752
pridru	3753
peri	3754
sunča	3755
koali	3756
##dina	3757
gale	3758
održi	3759
##kan	3760
svemu	3761
ljeta	3762
priče	3763
situaciju	3764
blag	3765
doka	3766
očito	3767
##tih	3768
zada	3769
ruke	3770
##žbi	3771
redo	3772
postala	3773
mlado	3774
omogući	3775
##šno	3776
zadnje	3777
prihva	3778
prilika	3779
##rska	3780
##les	3781
##ljeni	3782
ostaje	3783
as	3784
prihvati	3785
krajem	3786
spasi	3787
##čnom	3788
##kove	3789
proši	3790
vaš	3791
jutar	3792
profeso	3793
ch	3794
jela	3795
povo	3796
poklo	3797
zabi	3798
##rca	3799
vid	3800
##pen	3801
sara	3802
škol	3803
pogotovo	3804
prostora	3805
##ker	3806
svojom	3807
svakom	3808
naslov	3809
##njom	3810
##šnjava	3811
el	3812
okvi	3813
konzu	3814
igrači	3815
klubu	3816
##cha	3817
radu	3818
##čenja	3819
##mentar	3820
godišnja	3821
intenzi	3822
itali	3823
uboj	3824
voda	3825
jednoj	3826
digita	3827
##ela	3828
stvori	3829
postaje	3830
trenuta	3831
albu	3832
ino	3833
obzira	3834
komentira	3835
kandidata	3836
dubrovnik	3837
un	3838
##stavlja	3839
##mpi	3840
počeo	3841
istraživanje	3842
don	3843
nemaju	3844
pokazao	3845
kvalifika	3846
omi	3847
##var	3848
doba	3849
kakav	3850
brita	3851
našim	3852
zabilje	3853
##vito	3854
##žne	3855
##vela	3856
tema	3857
##rnosti	3858
2020	3859
navode	3860
rješenje	3861
imovi	3862
nadam	3863
##rin	3864
##jim	3865
prometa	3866
gore	3867
svake	3868
##snog	3869
ozlje	3870
##mnji	3871
primije	3872
##kuju	3873
traje	3874
soli	3875
ljeto	3876
ugosti	3877
more	3878
cijelu	3879
pjesme	3880
općine	3881
27203	3882
##čine	3883
nadle	3884
pokazala	3885
supro	3886
automobil	3887
žen	3888
govore	3889
##cem	3890
igrali	3891
minute	3892
ocje	3893
##640	3894
sina	3895
city	3896
autor	3897
promjena	3898
##vama	3899
priho	3900
ver	3901
spek	3902
novca	3903
obeća	3904
##rij	3905
kova	3906
zaključio	3907
najvaž	3908
55	3909
riječi	3910
##ćuje	3911
napisala	3912
htje	3913
##sk	3914
odo	3915
tale	3916
srbije	3917
europski	3918
dijela	3919
herce	3920
javnost	3921
eksplo	3922
posu	3923
lijepo	3924
napravio	3925
smjeru	3926
nikola	3927
vjerujem	3928
visi	3929
pusti	3930
vidjeli	3931
susreta	3932
dizaj	3933
##lija	3934
kopri	3935
##biti	3936
broja	3937
filma	3938
ekipa	3939
umirovlje	3940
iran	3941
dob	3942
kana	3943
paž	3944
vina	3945
anga	3946
1024x	3947
scena	3948
ugro	3949
uspjeli	3950
##nijih	3951
površi	3952
ep	3953
ita	3954
##čeno	3955
državlja	3956
redovi	3957
finale	3958
koristiti	3959
bran	3960
edu	3961
##rku	3962
##30	3963
pogre	3964
ovogodi	3965
ekonom	3966
zahvaljujući	3967
iznimno	3968
kće	3969
##rović	3970
laga	3971
slavo	3972
životi	3973
nekih	3974
ured	3975
##pije	3976
dani	3977
proma	3978
ovoga	3979
zoran	3980
primjerice	3981
##misije	3982
##cionira	3983
odvjetni	3984
skri	3985
##tera	3986
izuze	3987
došla	3988
##rke	3989
dođe	3990
cat	3991
glas	3992
ante	3993
vrti	3994
show	3995
čko	3996
##nito	3997
##ćoj	3998
##kade	3999
##siju	4000
pao	4001
volim	4002
nemo	4003
početku	4004
ozljede	4005
05	4006
##32	4007
sveča	4008
iskre	4009
partner	4010
osumnji	4011
noj	4012
sposobno	4013
križe	4014
našeg	4015
izgubio	4016
##ya	4017
pritom	4018
bora	4019
velikim	4020
vratio	4021
ić	4022
reci	4023
uređa	4024
kraljev	4025
skom	4026
rece	4027
##pad	4028
građe	4029
nudi	4030
centru	4031
izd	4032
reži	4033
trenera	4034
postati	4035
##štine	4036
drugoj	4037
okuplja	4038
ubije	4039
potica	4040
izno	4041
stanju	4042
prijatelji	4043
snaga	4044
mogućnosti	4045
iti	4046
ljubavi	4047
muškarac	4048
kilometara	4049
vodstvo	4050
eva	4051
oglasi	4052
##let	4053
promo	4054
pam	4055
statu	4056
potrebe	4057
drži	4058
zvijezda	4059
festival	4060
dp	4061
##jam	4062
miro	4063
autobu	4064
karijere	4065
kilogra	4066
objasnio	4067
##škom	4068
točno	4069
##čeni	4070
stje	4071
stalno	4072
gradi	4073
sed	4074
##kim	4075
poznato	4076
yo	4077
##68	4078
##nese	4079
##šević	4080
##vljena	4081
zajednice	4082
regiona	4083
inicija	4084
medija	4085
kulture	4086
utje	4087
##ol	4088
nor	4089
podru	4090
govorio	4091
pokreta	4092
odusta	4093
vjenča	4094
udar	4095
##am	4096
vidio	4097
strije	4098
##ser	4099
njim	4100
austri	4101
anto	4102
sredstva	4103
nizo	4104
mjera	4105
problemi	4106
dvoje	4107
pjesmu	4108
38	4109
obno	4110
asiste	4111
##reno	4112
##din	4113
bitno	4114
regu	4115
##šni	4116
odbora	4117
kombina	4118
ožujka	4119
##slo	4120
rezultate	4121
incide	4122
preu	4123
##ćenja	4124
trebaju	4125
##prili	4126
stanovni	4127
razumije	4128
glasova	4129
300	4130
##vju	4131
##ranu	4132
##lili	4133
##lica	4134
##plika	4135
trenutak	4136
komentirao	4137
prvenstvo	4138
bren	4139
svr	4140
##kt	4141
list	4142
gallery	4143
prav	4144
##cijski	4145
politike	4146
vijeća	4147
##_27179	4148
udruga	4149
##snim	4150
prisje	4151
##por	4152
##rnica	4153
izbornik	4154
##nskim	4155
nekada	4156
intervju	4157
psiho	4158
andrej	4159
blizini	4160
avio	4161
prvih	4162
##land	4163
šta	4164
##niju	4165
gosto	4166
usmje	4167
poziv	4168
sezoni	4169
2019	4170
slobodna	4171
postu	4172
priču	4173
##zin	4174
baby	4175
##ger	4176
uspjeh	4177
ani	4178
sjaj	4179
ps	4180
tera	4181
":""	4182
sezona	4183
jedino	4184
tomislav	4185
##340	4186
##žena	4187
volje	4188
postavlja	4189
kreta	4190
pronaći	4191
simbo	4192
uzbu	4193
odnos	4194
onaj	4195
jedinstve	4196
otišao	4197
bje	4198
##vak	4199
kome	4200
prakti	4201
strada	4202
probleme	4203
velikom	4204
##čnoj	4205
gri	4206
##id	4207
##ćom	4208
##yo	4209
izved	4210
promi	4211
##rup	4212
lasa	4213
osjećaj	4214
pošto	4215
diplo	4216
lani	4217
ostale	4218
loptu	4219
39	4220
##prav	4221
svjetskog	4222
seksua	4223
obla	4224
učinko	4225
parizu	4226
posa	4227
##keta	4228
privla	4229
boja	4230
dužno	4231
##tte	4232
dovo	4233
##ženi	4234
poraza	4235
najboljih	4236
budućnosti	4237
##igra	4238
##tirati	4239
nase	4240
savrše	4241
grupe	4242
spremni	4243
km	4244
ović	4245
ex	4246
##tive	4247
##ligen	4248
moru	4249
jutro	4250
logi	4251
proizvođa	4252
##deset	4253
epizo	4254
##ny	4255
razgova	4256
društvu	4257
zrakoplo	4258
naru	4259
kali	4260
moto	4261
vrijednost	4262
bici	4263
mario	4264
potpo	4265
loko	4266
glasno	4267
osobno	4268
vijest	4269
reprezentacija	4270
takve	4271
kandidat	4272
energet	4273
agre	4274
##ld	4275
##zbo	4276
##len	4277
sasto	4278
kupo	4279
skupina	4280
potvrdio	4281
fotografija	4282
prilago	4283
jadran	4284
turu	4285
vjetar	4286
imena	4287
osijek	4288
njoj	4289
##kih	4290
plani	4291
europskom	4292
tvrde	4293
ponekad	4294
kora	4295
nega	4296
##nulo	4297
toma	4298
goran	4299
hrvatsko	4300
pokazuju	4301
informacija	4302
nesreće	4303
zanimljivo	4304
##sh	4305
##đuju	4306
sloven	4307
početak	4308
barcelo	4309
apso	4310
37	4311
domi	4312
prista	4313
rusija	4314
##rnice	4315
cilje	4316
sudac	4317
mandata	4318
##znu	4319
stigla	4320
našu	4321
##54	4322
raste	4323
milo	4324
brojni	4325
vozač	4326
##mio	4327
veće	4328
staro	4329
kojemu	4330
počela	4331
ceste	4332
inteligen	4333
zatvore	4334
proces	4335
filip	4336
lakše	4337
##um	4338
##rova	4339
rasta	4340
teren	4341
prijevo	4342
##tković	4343
učiniti	4344
iskustva	4345
raspore	4346
zamije	4347
##pušte	4348
izbori	4349
finalu	4350
splita	4351
situacije	4352
povijest	4353
suradnji	4354
nao	4355
##pila	4356
trenin	4357
##rnici	4358
rijeci	4359
državnog	4360
ljest	4361
treće	4362
znati	4363
ruku	4364
odnosi	4365
poraz	4366
nagradu	4367
dalmacija	4368
hvala	4369
##rena	4370
##ljivi	4371
tuži	4372
osvojila	4373
##ght	4374
nizozem	4375
akade	4376
kapa	4377
##čaje	4378
bori	4379
ujedno	4380
industri	4381
dužnosni	4382
##skr	4383
##nite	4384
##lila	4385
puca	4386
najvi	4387
##ham	4388
austra	4389
##škog	4390
svlada	4391
švica	4392
listi	4393
oslo	4394
vremenu	4395
želimo	4396
htio	4397
##lon	4398
predi	4399
##ljep	4400
zaštite	4401
budućnost	4402
povu	4403
sami	4404
ravno	4405
##ljene	4406
osvr	4407
ruski	4408
ostala	4409
pp_	4410
navi	4411
fri	4412
##voren	4413
dose	4414
vodo	4415
čine	4416
sv	4417
##fu	4418
##ziji	4419
javlja	4420
bay	4421
sindi	4422
pojača	4423
bolnici	4424
provodi	4425
članovi	4426
pohvali	4427
jadranu	4428
dijelo	4429
unutra	4430
radnika	4431
slijedi	4432
alek	4433
opisa	4434
##mpo	4435
##rov	4436
##nov	4437
##hor	4438
slike	4439
grupa	4440
tržištu	4441
kriminali	4442
karak	4443
jača	4444
titu	4445
lov	4446
zraka	4447
nesreća	4448
primo	4449
##čice	4450
med	4451
poznata	4452
stranka	4453
##ziran	4454
pad	4455
##ćima	4456
##ber	4457
##logije	4458
vukova	4459
košarka	4460
##pić	4461
odgovorio	4462
gledati	4463
četvrt	4464
karijeri	4465
pregovo	4466
##šenja	4467
##tivna	4468
brazi	4469
poznat	4470
bespla	4471
75	4472
##lice	4473
##rine	4474
inozem	4475
##teo	4476
##dobno	4477
parti	4478
novinar	4479
instagramu	4480
##ft	4481
nasto	4482
##lacije	4483
##voru	4484
##dite	4485
ruske	4486
rješenja	4487
oj	4488
##šnjem	4489
popla	4490
serije	4491
##mena	4492
glavnog	4493
##nijeti	4494
školu	4495
dobre	4496
##ljeno	4497
razo	4498
opće	4499
državni	4500
velikog	4501
skr	4502
halji	4503
postoja	4504
našoj	4505
priopćenju	4506
sra	4507
##vrije	4508
##ret	4509
zapovje	4510
razvoja	4511
razdoblju	4512
plju	4513
smis	4514
##đenih	4515
različiti	4516
našem	4517
navijači	4518
obožava	4519
sru	4520
tvo	4521
196	4522
europskih	4523
iznos	4524
##nuto	4525
stana	4526
##vljeni	4527
istaknula	4528
svakog	4529
tenisa	4530
defini	4531
##est	4532
bur	4533
poruka	4534
zgrade	4535
izbjega	4536
poko	4537
razliku	4538
karijeru	4539
zvo	4540
##boru	4541
papi	4542
dogodila	4543
povećanje	4544
festivala	4545
derbi	4546
lokomo	4547
ama	4548
##tek	4549
minima	4550
lista	4551
65	4552
ice	4553
##gna	4554
kolek	4555
inspi	4556
gar	4557
prošlog	4558
rezultati	4559
enje	4560
ila	4561
obrati	4562
igraju	4563
objašnjava	4564
vremen	4565
iska	4566
##jedna	4567
boje	4568
srca	4569
ideja	4570
zahvali	4571
iš	4572
uzima	4573
##tivan	4574
kop	4575
provede	4576
jak	4577
borbi	4578
osigura	4579
zatvora	4580
utjecaj	4581
nevjeroja	4582
flo	4583
##ziva	4584
istraživanja	4585
mor	4586
svjetski	4587
britan	4588
održati	4589
nagrada	4590
serija	4591
pravila	4592
##poznati	4593
kapetan	4594
##_272090	4595
poe	4596
##vile	4597
dar	4598
navečer	4599
##nec	4600
donio	4601
##lena	4602
##dera	4603
##graf	4604
##rea	4605
kog	4606
golova	4607
##šan	4608
moram	4609
novča	4610
lji	4611
cijele	4612
zahtjev	4613
##sc	4614
##mani	4615
bilje	4616
kim	4617
##vljeno	4618
198	4619
luke	4620
kreće	4621
odigrao	4622
yor	4623
##kvih	4624
slika	4625
programu	4626
trgovi	4627
raspolo	4628
turnira	4629
##vljuje	4630
kilograma	4631
olu	4632
kara	4633
##gara	4634
nik	4635
kupu	4636
spor	4637
voditelj	4638
temelju	4639
milijardi	4640
priopći	4641
64	4642
##lli	4643
lica	4644
##han	4645
hama	4646
velik	4647
arhi	4648
amerika	4649
završila	4650
glumica	4651
etvr	4652
etiri	4653
špi	4654
kama	4655
##mova	4656
osni	4657
stavlja	4658
sporazu	4659
njihovu	4660
zaštitu	4661
blago	4662
modrić	4663
mobite	4664
##mana	4665
spomi	4666
poruku	4667
sumnja	4668
##ćim	4669
stariji	4670
simp	4671
londo	4672
smatraju	4673
ulice	4674
koga	4675
progno	4676
pribli	4677
##zacije	4678
igrama	4679
školi	4680
pjesma	4681
mandat	4682
maksima	4683
zvijez	4684
teri	4685
razvija	4686
martin	4687
navijača	4688
nagrade	4689
konačno	4690
##jska	4691
##naca	4692
tisuće	4693
premijera	4694
prijedlog	4695
##kte	4696
nost	4697
tam	4698
##pili	4699
treni	4700
jednako	4701
kapaci	4702
potak	4703
dovesti	4704
sas	4705
novoj	4706
roman	4707
njezine	4708
američki	4709
blizu	4710
kategoriji	4711
bron	4712
ulazi	4713
šved	4714
tor	4715
sjedni	4716
otkriva	4717
elektro	4718
supa	4719
plas	4720
talija	4721
hercego	4722
podni	4723
##zirati	4724
prednost	4725
ostalim	4726
stvara	4727
ovisno	4728
prošli	4729
skoj	4730
##nes	4731
petra	4732
konkre	4733
stoljeća	4734
tjele	4735
pozvao	4736
saveza	4737
zbi	4738
##lega	4739
baca	4740
predvo	4741
djeci	4742
trage	4743
žive	4744
uvjetima	4745
igru	4746
48	4747
wil	4748
popra	4749
##ženja	4750
večeras	4751
prigo	4752
predlo	4753
ostalo	4754
42	4755
##ana	4756
##us	4757
proba	4758
##kin	4759
##štava	4760
medije	4761
ulica	4762
dokaza	4763
##mentu	4764
adre	4765
demokrat	4766
apsolu	4767
ori	4768
##žna	4769
košta	4770
petro	4771
pobijedio	4772
ivot	4773
članova	4774
usluga	4775
donijeti	4776
evi	4777
hva	4778
##stvima	4779
menta	4780
javnog	4781
##put	4782
potpred	4783
brod	4784
slova	4785
velikih	4786
podataka	4787
potpredsjedni	4788
ara	4789
##kciju	4790
nalaze	4791
izjedna	4792
##njeva	4793
##bacio	4794
trene	4795
autoce	4796
širo	4797
aplika	4798
##cm	4799
dogo	4800
##kinja	4801
rastu	4802
kuću	4803
##sport	4804
nukle	4805
pokušava	4806
pozdra	4807
uživa	4808
detalj	4809
uspješno	4810
trenutačno	4811
postupak	4812
vši	4813
mal	4814
tikto	4815
##burg	4816
##žuje	4817
obavlja	4818
vijesti	4819
udarac	4820
bolnice	4821
porez	4822
dosada	4823
zadnjih	4824
kriminalisti	4825
esto	4826
##kro	4827
##čara	4828
prednosti	4829
znak	4830
obično	4831
njegovim	4832
##cijske	4833
obave	4834
sredstava	4835
neovi	4836
##es	4837
##mlja	4838
bom	4839
##njim	4840
vrsta	4841
197	4842
spreman	4843
rješa	4844
velikoj	4845
isključi	4846
##dama	4847
četvrti	4848
formi	4849
pjevačica	4850
redovito	4851
cjelo	4852
##vca	4853
pored	4854
zag	4855
sino	4856
organizacije	4857
studenog	4858
temperature	4859
servi	4860
ratu	4861
desni	4862
znate	4863
igrače	4864
opti	4865
##fer	4866
morao	4867
srce	4868
odgovornost	4869
pravosu	4870
##119	4871
\/	4872
ušao	4873
progla	4874
moć	4875
mala	4876
ukrajine	4877
uobi	4878
njegovom	4879
skladu	4880
jaki	4881
čovjeka	4882
##reni	4883
dodje	4884
##rnika	4885
prvak	4886
trgova	4887
manife	4888
##snom	4889
prošao	4890
propusti	4891
##sira	4892
inspe	4893
##nijela	4894
tehnologi	4895
eg	4896
##ncu	4897
##čije	4898
naći	4899
kakva	4900
odmor	4901
prijatelja	4902
poziciju	4903
skoro	4904
najveća	4905
podacima	4906
ati	4907
ur	4908
donal	4909
radovi	4910
##sad	4911
##ženo	4912
hrvatskim	4913
rok	4914
brat	4915
odmo	4916
##ljenje	4917
##ture	4918
kuhi	4919
znatno	4920
rumu	4921
nastavku	4922
pokazali	4923
promijeniti	4924
palesti	4925
ubrzo	4926
52	4927
uki	4928
doista	4929
bod	4930
predsjednica	4931
##godišnji	4932
mreže	4933
izvu	4934
loši	4935
##tnica	4936
napravili	4937
domovinskog	4938
mrt	4939
##the	4940
##kati	4941
##vec	4942
destina	4943
srbija	4944
aktivi	4945
idea	4946
idemo	4947
filmu	4948
prostoru	4949
interven	4950
rekor	4951
sasvim	4952
##jnu	4953
##bran	4954
vale	4955
vodio	4956
1920x	4957
ljepo	4958
interes	4959
jugosla	4960
ravnatelj	4961
##_271988	4962
ujedi	4963
##ori	4964
jef	4965
moli	4966
##ćev	4967
znao	4968
##fici	4969
sadr	4970
medijima	4971
zim	4972
opora	4973
ivica	4974
##dit	4975
tero	4976
samosta	4977
2018	4978
model	4979
odnose	4980
vozilo	4981
rizik	4982
četvrtfina	4983
h_	4984
njom	4985
##ps	4986
##lacija	4987
##dilo	4988
##bama	4989
podra	4990
tijeku	4991
cesti	4992
glasnogovo	4993
44	4994
snije	4995
čije	4996
teške	4997
znanja	4998
kontinu	4999
riječima	5000
##skup	5001
##ments	5002
povratak	5003
stupnjeva	5004
iji	5005
k_	5006
olak	5007
##spje	5008
preži	5009
##čani	5010
razmje	5011
odlučili	5012
cel	5013
istom	5014
ističu	5015
njemačke	5016
odabra	5017
milanovi	5018
studija	5019
činjenica	5020
##ira	5021
##hn	5022
jednim	5023
##miru	5024
##ćena	5025
##ljka	5026
##ljive	5027
##vniku	5028
ovisi	5029
politički	5030
ukrajinu	5031
skupini	5032
eduka	5033
smislu	5034
400	5035
2016	5036
prvenstve	5037
usluge	5038
##ticle	5039
koprivni	5040
rumunj	5041
damir	5042
neiz	5043
morati	5044
##šili	5045
##tivnih	5046
##čnost	5047
građane	5048
rođendan	5049
.)	5050
##od	5051
postupa	5052
korup	5053
most	5054
##njeno	5055
mira	5056
najljep	5057
broju	5058
favori	5059
njemačka	5060
dogoditi	5061
inova	5062
domu	5063
##bice	5064
inde	5065
vidimo	5066
dokumenta	5067
chi	5068
qu	5069
##ssi	5070
##zama	5071
vama	5072
situaciji	5073
##prijed	5074
domaćin	5075
najvećih	5076
dogodio	5077
##nior	5078
komi	5079
odvija	5080
duho	5081
odluči	5082
hoda	5083
stiže	5084
napadu	5085
vjeruje	5086
##cka	5087
##jić	5088
teški	5089
nici	5090
niste	5091
val	5092
baci	5093
fanta	5094
nastavio	5095
pogodio	5096
pretpo	5097
račun	5098
funkcionira	5099
šanse	5100
izuzetno	5101
sudu	5102
prekra	5103
privu	5104
makar	5105
##zirao	5106
roku	5107
najbolja	5108
poruke	5109
smr	5110
priznao	5111
ugovora	5112
ote	5113
onima	5114
##nsku	5115
##listi	5116
##ćenje	5117
najče	5118
title	5119
riješiti	5120
zemlju	5121
27119	5122
pokazati	5123
susretu	5124
##zij	5125
grani	5126
potpunosti	5127
knjige	5128
dalmati	5129
()	5130
##16	5131
zatra	5132
##čena	5133
vodu	5134
stambe	5135
opskr	5136
postigao	5137
##pisuje	5138
o_	5139
tz	5140
##ction	5141
##žnja	5142
prem	5143
gostu	5144
vole	5145
##šak	5146
ing	5147
letje	5148
njihovim	5149
pobjedni	5150
crkve	5151
nadzor	5152
##_2717955	5153
62	5154
##nku	5155
net	5156
starije	5157
granice	5158
fer	5159
govoriti	5160
uvjete	5161
regiji	5162
vlasnik	5163
opor	5164
uključuje	5165
naveo	5166
preminuo	5167
##strije	5168
sabora	5169
##ket	5170
##čića	5171
perio	5172
glavu	5173
siguran	5174
požar	5175
srbiji	5176
liga	5177
putin	5178
ispita	5179
prodaje	5180
različitih	5181
apa	5182
nami	5183
pokri	5184
raka	5185
preci	5186
ligu	5187
pravu	5188
ostalih	5189
temelj	5190
alkohola	5191
simpto	5192
ulja	5193
ća	5194
neku	5195
prolazi	5196
pišu	5197
slaven	5198
podatke	5199
legenda	5200
sekundi	5201
planu	5202
opro	5203
morate	5204
##...	5205
hit	5206
krvi	5207
parlamentar	5208
char	5209
sank	5210
vino	5211
star	5212
njegovi	5213
njihovih	5214
počeli	5215
varaždina	5216
policijski	5217
potroša	5218
uma	5219
##šo	5220
povla	5221
mosta	5222
međi	5223
##vjela	5224
znanosti	5225
##tnije	5226
dijelom	5227
županija	5228
podsjeća	5229
konferenciji	5230
46	5231
##šnjo	5232
##dije	5233
##tovi	5234
##lović	5235
mami	5236
javne	5237
čija	5238
odlučila	5239
kontinui	5240
68	5241
veća	5242
razre	5243
nekog	5244
dugoro	5245
##cioni	5246
policijske	5247
ozbiljno	5248
agencija	5249
bivšeg	5250
portal	5251
##strija	5252
sanja	5253
##zaciju	5254
tvrtki	5255
uvjer	5256
nekad	5257
fotografiju	5258
vatrogasci	5259
##scipli	5260
stručnjaci	5261
međimu	5262
teži	5263
bavi	5264
samom	5265
alba	5266
tržište	5267
naroda	5268
primor	5269
teo	5270
##dove	5271
##njih	5272
srednje	5273
far	5274
zdravlja	5275
milijun	5276
trumpa	5277
klimat	5278
primorac	5279
pogodi	5280
prave	5281
tribi	5282
##ravak	5283
šibenik	5284
korištenje	5285
##liga	5286
sela	5287
šef	5288
prilike	5289
reprezentaciju	5290
građanima	5291
varaždinu	5292
takva	5293
ostvari	5294
podaci	5295
bogat	5296
prometu	5297
conta	5298
oslobo	5299
eri	5300
zadru	5301
mama	5302
boji	5303
##peri	5304
pis	5305
stranici	5306
stopa	5307
područje	5308
sportski	5309
republika	5310
učenika	5311
zemljama	5312
povodom	5313
enja	5314
zadra	5315
dala	5316
pas	5317
hrvati	5318
ange	5319
luksu	5320
publika	5321
varaždinske	5322
humani	5323
detalje	5324
igara	5325
kg	5326
##jevima	5327
##vani	5328
znali	5329
svaku	5330
ministri	5331
lokalne	5332
bolnicu	5333
procije	5334
pregleda	5335
##pisi	5336
bog	5337
gat	5338
gazi	5339
krenuo	5340
snagu	5341
640x4	5342
veljače	5343
pože	5344
dobije	5345
tima	5346
jedva	5347
plasti	5348
vrh	5349
uklo	5350
nastavak	5351
europska	5352
razvoju	5353
!"	5354
##tije	5355
##jice	5356
kakve	5357
politika	5358
istina	5359
glumac	5360
sumnje	5361
ogrom	5362
josipa	5363
članica	5364
policaj	5365
manifesta	5366
ane	5367
##et	5368
pristupa	5369
hrvata	5370
svatko	5371
##čuju	5372
izabra	5373
uprava	5374
ukrajina	5375
pokret	5376
građevi	5377
iznosu	5378
poni	5379
##čari	5380
##hom	5381
objave	5382
morali	5383
slavi	5384
sigurni	5385
kvalitete	5386
zastupnika	5387
položa	5388
dobru	5389
##ds	5390
##tov	5391
doj	5392
##tnice	5393
kombi	5394
sljedeće	5395
večeri	5396
blagdan	5397
220	5398
crno	5399
uka	5400
vanje	5401
...'	5402
jedina	5403
razinu	5404
kultur	5405
prometne	5406
you	5407
##is	5408
kiša	5409
proizvodnje	5410
zajednica	5411
napome	5412
šoki	5413
kbc	5414
##tti	5415
##šnjoj	5416
##69	5417
##njena	5418
##bano	5419
vita	5420
vrste	5421
##slava	5422
obranu	5423
pripreme	5424
vidim	5425
suprug	5426
atra	5427
##lt	5428
nare	5429
libano	5430
##intere	5431
##misli	5432
natjecanje	5433
knjiže	5434
images	5435
ulaganja	5436
es	5437
sme	5438
sha	5439
##zmu	5440
##laga	5441
##tetu	5442
najpoznati	5443
šeće	5444
dvostru	5445
najveće	5446
glum	5447
partnera	5448
forma	5449
španjolske	5450
pomaže	5451
stanovnika	5452
plasman	5453
uobičaje	5454
ade	5455
ev	5456
ocije	5457
pripada	5458
nice	5459
radili	5460
službeno	5461
agencije	5462
##rskoj	5463
zaintere	5464
preo	5465
prese	5466
priori	5467
magi	5468
mail	5469
liste	5470
gradske	5471
##_272	5472
platformi	5473
##ys	5474
prido	5475
stav	5476
pena	5477
pokušao	5478
1280x8	5479
nekretnine	5480
naglašava	5481
even	5482
teška	5483
potporu	5484
plasi	5485
brojnim	5486
dijeli	5487
satima	5488
pogodak	5489
dolazak	5490
otvoreno	5491
generacije	5492
portugal	5493
sen	5494
prikaza	5495
prince	5496
##čaja	5497
##žem	5498
samog	5499
političke	5500
150	5501
desetak	5502
robert	5503
ao	5504
oču	5505
##kta	5506
biden	5507
raj	5508
link	5509
##snost	5510
nacional	5511
analiti	5512
rekord	5513
sveučilišta	5514
mlije	5515
svu	5516
nacija	5517
##lanja	5518
odlazi	5519
propisa	5520
mara	5521
##žer	5522
plenkovi	5523
":""",	5524
isključivo	5525
ol	5526
proje	5527
ran	5528
osmi	5529
pratiti	5530
briga	5531
slično	5532
putovanja	5533
ii	5534
oca	5535
##nc	5536
##šne	5537
##ms	5538
##28	5539
zalju	5540
##ler	5541
##sob	5542
kriv	5543
kaznenog	5544
##zerva	5545
cijenu	5546
uru	5547
šteta	5548
##zme	5549
##žnom	5550
##valo	5551
##ntima	5552
izjavila	5553
štetu	5554
pažnju	5555
eni	5556
pije	5557
##luju	5558
vala	5559
voditi	5560
vrijedi	5561
odnosa	5562
borbu	5563
hranu	5564
telef	5565
njegovog	5566
razdoblje	5567
sjevero	5568
ul	5569
naju	5570
propa	5571
mag	5572
važan	5573
duga	5574
njihovo	5575
liječni	5576
domaće	5577
njegovoj	5578
##uthor	5579
povjeren	5580
hotel	5581
vanjskih	5582
##niku	5583
##njeg	5584
##bić	5585
javni	5586
ciljem	5587
trofe	5588
uključi	5589
dubrovnika	5590
završiti	5591
značajno	5592
galerija	5593
fantasti	5594
gran	5595
oprav	5596
proti	5597
##njene	5598
##stiti	5599
mile	5600
njihovi	5601
europskim	5602
##ndro	5603
razine	5604
kolege	5605
nogometaši	5606
poslijepodne	5607
internet	5608
šću	5609
##con	5610
##šnju	5611
pou	5612
post	5613
##cifi	5614
izi	5615
prolaz	5616
bana	5617
današnji	5618
trgu	5619
posebice	5620
američke	5621
prodaju	5622
neobi	5623
čvr	5624
##_ar	5625
men	5626
meteo	5627
discipli	5628
##zora	5629
2017	5630
struktu	5631
interesa	5632
instagram	5633
duboko	5634
afe	5635
sp	5636
bijeli	5637
mos	5638
##miju	5639
dubra	5640
ruka	5641
otprili	5642
komp	5643
pojasni	5644
suradnju	5645
odlično	5646
harris	5647
različite	5648
prijevoz	5649
otprilike	5650
47	5651
ine	5652
đu	5653
##mna	5654
postro	5655
##sigu	5656
nica	5657
tad	5658
drugima	5659
pobjedom	5660
poseban	5661
crne	5662
skih	5663
španjolska	5664
odvjetnik	5665
obrazovanja	5666
normalno	5667
##juće	5668
nekom	5669
okolnosti	5670
onoga	5671
potez	5672
muškaraca	5673
izvođa	5674
kvalitetu	5675
psihi	5676
vikenda	5677
aleksan	5678
ira	5679
uko	5680
napu	5681
dis	5682
##gija	5683
##presi	5684
##snik	5685
njegovih	5686
kreve	5687
osobama	5688
osigurati	5689
zadovoljni	5690
premda	5691
fron	5692
ora	5693
pen	5694
preven	5695
make	5696
##hoto	5697
civi	5698
cilja	5699
svjesni	5700
dubrovniku	5701
katastro	5702
potrebna	5703
gattu	5704
poti	5705
popis	5706
najpo	5707
##hani	5708
objavi	5709
predstavni	5710
##veden	5711
##chester	5712
uskok	5713
220x14	5714
saraje	5715
//	5716
49	5717
eno	5718
uku	5719
##nuta	5720
testi	5721
##šića	5722
otpada	5723
cijela	5724
rezultata	5725
temelji	5726
statisti	5727
oružja	5728
optimi	5729
63	5730
tt	5731
##dbe	5732
koše	5733
mila	5734
##šati	5735
razno	5736
siro	5737
isho	5738
glasi	5739
živjeti	5740
čast	5741
prijave	5742
održava	5743
želite	5744
milanovića	5745
poslao	5746
uža	5747
preosta	5748
##bin	5749
vaša	5750
rusije	5751
djeteta	5752
državne	5753
postane	5754
fazi	5755
luci	5756
braka	5757
gradskog	5758
borba	5759
napomi	5760
ponavlja	5761
zgrada	5762
kvadra	5763
pozornost	5764
43	5765
##čaka	5766
sveti	5767
glavna	5768
sretan	5769
nemamo	5770
pješa	5771
prijateljima	5772
župan	5773
umjetnosti	5774
izgubili	5775
turnir	5776
svakodnevno	5777
facebook	5778
oli	5779
##jsko	5780
##žbu	5781
##kete	5782
##traj	5783
želja	5784
rim	5785
ministra	5786
sukoba	5787
manchester	5788
kompanija	5789
58	5790
600	5791
našao	5792
##jak	5793
datu	5794
##mila	5795
##ljom	5796
nekako	5797
zdravstva	5798
dnevnik	5799
korisnika	5800
godišnjeg	5801
poljudu	5802
posljedice	5803
načelnik	5804
##gro	5805
jelo	5806
koj	5807
davor	5808
prolje	5809
meto	5810
svoja	5811
najte	5812
john	5813
petar	5814
policiji	5815
vlast	5816
istoku	5817
upotre	5818
troje	5819
hezbo	5820
web	5821
related	5822
mišljenje	5823
"...	5824
41	5825
54	5826
ape	5827
klije	5828
##ff	5829
##vero	5830
sal	5831
vezu	5832
pušta	5833
##gledu	5834
objavili	5835
geo	5836
organizaciji	5837
knjiga	5838
##proda	5839
utjecati	5840
kolega	5841
očekivati	5842
neugo	5843
turizma	5844
nasilja	5845
unutrašnjo	5846
##rh	5847
##kvu	5848
selu	5849
najgo	5850
banke	5851
peti	5852
krenuli	5853
stigli	5854
očekuju	5855
nositi	5856
francuska	5857
podijelila	5858
lasagna	5859
projekata	5860
bjeli	5861
igor	5862
ošt	5863
zri	5864
##jd	5865
##lti	5866
namije	5867
##lizira	5868
##vicu	5869
gostima	5870
##ziv	5871
##mice	5872
2000	5873
roditelja	5874
takvih	5875
ispričao	5876
status	5877
aja	5878
zauze	5879
sekto	5880
nepozna	5881
negdje	5882
motor	5883
##zao	5884
kupiti	5885
tjedana	5886
događaj	5887
napadač	5888
važnost	5889
općina	5890
pomalo	5891
##tkinja	5892
ambi	5893
itekako	5894
ući	5895
##dy	5896
##šna	5897
##mla	5898
zasad	5899
##letio	5900
proved	5901
preva	5902
baze	5903
braku	5904
zove	5905
sportske	5906
francuske	5907
vlasništvu	5908
crveni	5909
bivša	5910
putovanje	5911
afri	5912
340x2	5913
definitivno	5914
poena	5915
dvori	5916
proveo	5917
invali	5918
platiti	5919
dobiva	5920
državi	5921
##hing	5922
##ština	5923
dvobo	5924
pogledati	5925
muškarca	5926
napokon	5927
preuzima	5928
origi	5929
##50	5930
pogled	5931
revi	5932
rezer	5933
vez	5934
bolja	5935
gradova	5936
stranu	5937
širi	5938
obavje	5939
heliko	5940
ulazak	5941
udara	5942
otvorena	5943
;,	5944
eka	5945
fra	5946
seve	5947
saboru	5948
rano	5949
boži	5950
radimo	5951
međuvremenu	5952
grmlja	5953
suradnje	5954
nezavi	5955
emisiji	5956
sinoć	5957
et	5958
##tski	5959
poreme	5960
daju	5961
mak	5962
većinom	5963
izgubila	5964
podrška	5965
otoka	5966
smanjenje	5967
beogradu	5968
##žnog	5969
##tivac	5970
##mili	5971
##njuju	5972
cijeni	5973
sobom	5974
mlađi	5975
istovremeno	5976
proizvode	5977
zatvor	5978
##hvaća	5979
upozorava	5980
trgovine	5981
obliku	5982
helikop	5983
ac	5984
kne	5985
upla	5986
##jskom	5987
pokra	5988
##tura	5989
##zapa	5990
valja	5991
čim	5992
misle	5993
proizvodi	5994
student	5995
direk	5996
gospodarstva	5997
snimke	5998
ate	5999
##zanje	6000
ispi	6001
uskr	6002
uspjela	6003
komentara	6004
splitsko	6005
suprugom	6006
##hvat	6007
stadionu	6008
vikend	6009
najčešće	6010
##tego	6011
razne	6012
naslova	6013
nemam	6014
protekli	6015
vojska	6016
voditeljica	6017
ostvariti	6018
uspore	6019
izvanre	6020
was	6021
pretra	6022
##činu	6023
feno	6024
podrške	6025
stručnjak	6026
nogometaš	6027
razgovor	6028
480x3	6029
pritisak	6030
madrid	6031
nemojte	6032
aju	6033
poto	6034
##toli	6035
##zacija	6036
liva	6037
dim	6038
banka	6039
ispiti	6040
uskla	6041
pobjednik	6042
šire	6043
guž	6044
reakcije	6045
prilično	6046
vojske	6047
razlike	6048
otoku	6049
dokumen	6050
kampanje	6051
norve	6052
willi	6053
koševa	6054
ena	6055
istu	6056
ogla	6057
ust	6058
nepri	6059
temu	6060
maro	6061
maso	6062
nosti	6063
jam	6064
akcije	6065
ekipe	6066
usposta	6067
ustvr	6068
jte	6069
##220	6070
##ziti	6071
miha	6072
vožnje	6073
europsko	6074
obavijesti	6075
svjetlo	6076
izazov	6077
hotela	6078
posljedica	6079
faceboo	6080
naf	6081
danima	6082
kaznu	6083
##zio	6084
vaši	6085
marka	6086
svjetskom	6087
pokazalo	6088
publiku	6089
društvene	6090
hrana	6091
visoke	6092
nogometnog	6093
parlament	6094
željko	6095
komplek	6096
##_in	6097
##naj	6098
izlazi	6099
proći	6100
stri	6101
bol	6102
bate	6103
rijetko	6104
osobu	6105
marke	6106
otkrili	6107
##đenju	6108
kontroli	6109
zdravstvene	6110
jezika	6111
catitem	6112
motoci	6113
##47	6114
kosti	6115
pregled	6116
linija	6117
##hat	6118
alter	6119
imeno	6120
##pustiti	6121
specifi	6122
otići	6123
smanjiti	6124
energiju	6125
67	6126
##mr	6127
##ćeni	6128
jur	6129
nacionalne	6130
gimna	6131
sumnji	6132
promatra	6133
preokre	6134
imu	6135
okri	6136
uhvati	6137
##kola	6138
##vinu	6139
obr	6140
njem	6141
prate	6142
rukama	6143
hitne	6144
reprezentativac	6145
informacijama	6146
sastav	6147
poduzetni	6148
sch	6149
##ntra	6150
##dr	6151
##laže	6152
##ljenja	6153
##pović	6154
##vjeli	6155
posljednja	6156
osvojili	6157
majsto	6158
savjet	6159
detalji	6160
ozljeda	6161
78	6162
eti	6163
ene	6164
mra	6165
##vski	6166
##unt	6167
##nisti	6168
##ror	6169
rak	6170
putnika	6171
rusi	6172
strah	6173
ostavio	6174
srpski	6175
marin	6176
direkto	6177
prepoznat	6178
prikazuje	6179
životinja	6180
proteklih	6181
53	6182
neto	6183
rafa	6184
##tivnim	6185
dvojica	6186
vremenom	6187
dnevno	6188
kontrolu	6189
institucije	6190
objasnila	6191
jezik	6192
87	6193
##45	6194
kazna	6195
##miti	6196
jaja	6197
dodajte	6198
postali	6199
projekte	6200
organizacija	6201
uzrok	6202
##prje	6203
sunčano	6204
album	6205
italije	6206
razgovarati	6207
##tona	6208
prisi	6209
reu	6210
##sama	6211
vanja	6212
otkako	6213
akcija	6214
nećemo	6215
##vremena	6216
sustavu	6217
važna	6218
naziva	6219
iskreno	6220
ubo	6221
napla	6222
max	6223
##žene	6224
##ćeno	6225
vati	6226
play	6227
##štima	6228
zapošlja	6229
koncerta	6230
zlostavlja	6231
poreza	6232
osijeka	6233
oporbe	6234
ška	6235
##lazak	6236
##tove	6237
##leti	6238
##posla	6239
vete	6240
osnova	6241
ondje	6242
kiše	6243
ciklu	6244
klupi	6245
poziciji	6246
##kvim	6247
operati	6248
udario	6249
desetlje	6250
započeo	6251
veleposla	6252
glasnogovornik	6253
57	6254
anu	6255
ovje	6256
bož	6257
volo	6258
lau	6259
brojnih	6260
ovla	6261
raspu	6262
ureda	6263
nesreći	6264
drugači	6265
uspored	6266
razgovoru	6267
mc	6268
##tton	6269
##gnuti	6270
##86	6271
##ravaju	6272
##tite	6273
port	6274
##vana	6275
##menata	6276
##nule	6277
mogle	6278
svjetske	6279
većinu	6280
drugačije	6281
olimpijske	6282
zastupnik	6283
olimpijskim	6284
##que	6285
ugostitelj	6286
##jskih	6287
##ls	6288
##we	6289
zadu	6290
##kala	6291
dalić	6292
izgled	6293
sau	6294
preve	6295
vater	6296
rusiji	6297
anđe	6298
osjet	6299
skupa	6300
razlika	6301
određe	6302
postignu	6303
pobijediti	6304
scene	6305
tržišta	6306
odlazak	6307
zvijezde	6308
vaterpo	6309
66	6310
podje	6311
##rene	6312
katoli	6313
pete	6314
##kladno	6315
orke	6316
park	6317
poslovni	6318
nedjelje	6319
upravljanja	6320
djevojka	6321
spomenuti	6322
##ati	6323
koor	6324
##move	6325
pat	6326
mehani	6327
čelni	6328
pronašli	6329
studeno	6330
počini	6331
areni	6332
opravda	6333
hns	6334
kije	6335
poča	6336
bide	6337
mikro	6338
kuna	6339
južno	6340
usred	6341
##štena	6342
naslo	6343
komple	6344
posloda	6345
proizvodnju	6346
centi	6347
vojnika	6348
krugu	6349
desetljeća	6350
optuž	6351
plus	6352
apsolutno	6353
##ts	6354
##logu	6355
prit	6356
mac	6357
##porta	6358
##sić	6359
##šila	6360
otka	6361
dinami	6362
uvjeti	6363
ulozi	6364
gradonačelnika	6365
cestama	6366
nogometni	6367
##vrijeme	6368
tzv	6369
isu	6370
komisije	6371
##njava	6372
imat	6373
stare	6374
##bur	6375
opcija	6376
cijelog	6377
odjela	6378
osijeku	6379
zadovoljstvo	6380
ispričala	6381
proračuna	6382
ae	6383
dojam	6384
##stven	6385
##stao	6386
##deći	6387
revo	6388
najmla	6389
klup	6390
##šković	6391
dinamu	6392
osnovne	6393
prirode	6394
isporu	6395
uništi	6396
ekst	6397
nadokna	6398
razgovarali	6399
zavoda	6400
zadovoljan	6401
76	6402
seg	6403
ner	6404
##njeni	6405
noge	6406
##dor	6407
##ence	6408
debi	6409
djeluje	6410
brak	6411
pitali	6412
politiku	6413
njemački	6414
slobodno	6415
brazil	6416
280	6417
85	6418
##tit	6419
zate	6420
dona	6421
prof	6422
radom	6423
##čeki	6424
licu	6425
obrana	6426
dvorani	6427
službenici	6428
pokušaj	6429
nastupi	6430
terena	6431
uhićen	6432
strijelac	6433
bayer	6434
!'	6435
74	6436
item	6437
##ženju	6438
otpo	6439
stranicama	6440
krite	6441
argen	6442
istrage	6443
ukrajinski	6444
vratar	6445
vijeć	6446
osiguranje	6447
ustavni	6448
majke	6449
nogometne	6450
nezado	6451
##_article	6452
##jati	6453
iznaj	6454
sav	6455
prera	6456
vir	6457
##vjet	6458
stanova	6459
radila	6460
obavije	6461
plesa	6462
oduze	6463
poluvremenu	6464
uživati	6465
sjajno	6466
opasnosti	6467
ubojstvo	6468
ija	6469
seriji	6470
ton	6471
rezo	6472
vodom	6473
stanja	6474
tip	6475
kuć	6476
kredi	6477
mlada	6478
vijeće	6479
koncentra	6480
##lly	6481
vozača	6482
savjeto	6483
takvim	6484
rasporedu	6485
emisije	6486
čki	6487
##35	6488
##žnih	6489
##list	6490
##larni	6491
##jana	6492
koso	6493
bore	6494
boksa	6495
rujnu	6496
kise	6497
nacionalnog	6498
upozorenje	6499
pobijedila	6500
sudaca	6501
maksimiru	6502
prethodno	6503
podržava	6504
opasnost	6505
dužnosti	6506
kćeri	6507
kći	6508
##jsku	6509
kapita	6510
bilj	6511
goste	6512
papa	6513
kojega	6514
belu	6515
uspjeha	6516
društvenih	6517
želio	6518
natjecanju	6519
showa	6520
nedostaje	6521
žrtve	6522
klubova	6523
jutarnji	6524
73	6525
čka	6526
##kl	6527
##blji	6528
##žnim	6529
načina	6530
poštu	6531
sestra	6532
dono	6533
sil	6534
čelu	6535
stranih	6536
broda	6537
lud	6538
2015	6539
kršća	6540
plenkovića	6541
ponudu	6542
turističke	6543
sukob	6544
prošlosti	6545
alterna	6546
69	6547
##isto	6548
same	6549
pretje	6550
refor	6551
osvoje	6552
trend	6553
državnom	6554
nekoga	6555
odabi	6556
operacije	6557
učinkovito	6558
##jku	6559
##vano	6560
##mar	6561
##lozi	6562
izbaci	6563
njen	6564
gastro	6565
djecom	6566
uspije	6567
čić	6568
državno	6569
riba	6570
naslje	6571
publike	6572
sudjelovao	6573
najvažnije	6574
jutros	6575
ela	6576
##ir	6577
##linu	6578
##vaca	6579
dopu	6580
suve	6581
vani	6582
trećem	6583
dip	6584
kontek	6585
sretni	6586
dobit	6587
mreži	6588
dogovor	6589
gen	6590
iv	6591
##8_	6592
jese	6593
##vale	6594
pamet	6595
pande	6596
volio	6597
loš	6598
##vanjem	6599
radim	6600
europskoj	6601
videu	6602
osvojiti	6603
kazneno	6604
izvora	6605
otvorio	6606
vladimir	6607
prekršaja	6608
reuter	6609
ekstrem	6610
77	6611
neću	6612
japan	6613
vož	6614
raznih	6615
peto	6616
kralji	6617
stol	6618
slavlje	6619
otišla	6620
učenici	6621
bolest	6622
osvrnuo	6623
humanitar	6624
she	6625
ue	6626
##jac	6627
##vini	6628
mol	6629
golom	6630
main	6631
oblje	6632
predme	6633
mješta	6634
rock	6635
vrho	6636
##eld	6637
formu	6638
sudjelovati	6639
ponašanje	6640
gostiju	6641
različitim	6642
##at	6643
##dbi	6644
##šlo	6645
##nit	6646
suz	6647
sus	6648
##mon	6649
regije	6650
##zati	6651
meč	6652
obro	6653
treća	6654
bero	6655
##snika	6656
online	6657
##vljene	6658
fon	6659
krenula	6660
njihovom	6661
uživo	6662
admini	6663
požara	6664
natječaj	6665
potpisao	6666
61	6667
##tivu	6668
nat	6669
pošte	6670
kota	6671
live	6672
djeti	6673
županiji	6674
iduće	6675
sceni	6676
utvrđeno	6677
doživlja	6678
nevjerojatno	6679
ulaznice	6680
oglasio	6681
##porter	6682
arhite	6683
jefti	6684
facebooku	6685
raki	6686
moz	6687
teku	6688
maga	6689
trebamo	6690
obrambe	6691
zagrebačkom	6692
krug	6693
registri	6694
modela	6695
predviđa	6696
59	6697
56	6698
ed	6699
##jaca	6700
proglasi	6701
teža	6702
živ	6703
igračima	6704
europa	6705
korist	6706
##godišnje	6707
predstavnici	6708
mrežu	6709
zlato	6710
bloki	6711
izvijestio	6712
air	6713
htjeli	6714
unutrašnjosti	6715
##isti	6716
##jne	6717
##ye	6718
povremeno	6719
##rite	6720
##jicu	6721
##nel	6722
izo	6723
rekon	6724
pan	6725
javnom	6726
linije	6727
##sur	6728
mjeri	6729
početi	6730
obrani	6731
njezinu	6732
##_270	6733
događaju	6734
izjave	6735
##šnjih	6736
zahtjeva	6737
pisali	6738
tehnologije	6739
festivalu	6740
okoliša	6741
beograd	6742
napustio	6743
dječje	6744
profesor	6745
washing	6746
adri	6747
tho	6748
##kse	6749
seks	6750
sana	6751
##njenih	6752
mjestima	6753
vladu	6754
##rnicu	6755
napravila	6756
istraživa	6757
dnevni	6758
transpa	6759
četvero	6760
vrtića	6761
71	6762
oš	6763
joe	6764
let	6765
tijelu	6766
rezultatom	6767
zagrebačke	6768
sastanak	6769
povjerenje	6770
pojedina	6771
alex	6772
vidljivo	6773
osumnjiče	6774
incident	6775
##tam	6776
neret	6777
##stara	6778
govor	6779
memo	6780
stanu	6781
čišće	6782
projekti	6783
proizvod	6784
prometna	6785
parlamenta	6786
igri	6787
neposre	6788
zrakoplov	6789
titulu	6790
zainteresi	6791
51	6792
kni	6793
oh	6794
plina	6795
##26	6796
##jedno	6797
##nilo	6798
motivi	6799
mia	6800
menad	6801
kontine	6802
ostane	6803
autori	6804
dragi	6805
istraga	6806
gluma	6807
marina	6808
roditeljima	6809
emociona	6810
obzir	6811
skanda	6812
kategorije	6813
kakvu	6814
preuzeo	6815
vjerovati	6816
angaži	6817
"}	6818
ulje	6819
ya	6820
đo	6821
##nstvo	6822
david	6823
nep	6824
pav	6825
infe	6826
prijeti	6827
nikakve	6828
čuli	6829
smještaj	6830
francuski	6831
upozorio	6832
vatrogasa	6833
donijela	6834
izvijestila	6835
htjela	6836
sposobnosti	6837
regula	6838
##slovno	6839
gattuso	6840
iznajm	6841
crije	6842
klo	6843
##tice	6844
nape	6845
sestre	6846
suvreme	6847
nemogu	6848
provesti	6849
prete	6850
gole	6851
limu	6852
predmet	6853
pilo	6854
juri	6855
dug	6856
glavi	6857
bura	6858
optere	6859
slab	6860
pitao	6861
čuva	6862
vojne	6863
karte	6864
šut	6865
novinarima	6866
potencijal	6867
utrke	6868
mirovinu	6869
medalje	6870
pljusko	6871
sala	6872
goo	6873
staviti	6874
petka	6875
otvoren	6876
uzne	6877
vježba	6878
##ćuju	6879
izašao	6880
žup	6881
gospodarstvo	6882
razdoblja	6883
uzroko	6884
obrazovanje	6885
##vljuju	6886
nekretnina	6887
sadržaj	6888
fokus	6889
rekonstru	6890
cje	6891
##cy	6892
suge	6893
nose	6894
prvim	6895
predstavio	6896
dramati	6897
publici	6898
zatvori	6899
priznala	6900
pobijedili	6901
procesu	6902
štete	6903
miješa	6904
stajali	6905
turudić	6906
kle	6907
pristu	6908
mas	6909
viru	6910
##vnost	6911
##teljice	6912
automat	6913
mlađe	6914
predstavnika	6915
splića	6916
poslove	6917
vozilom	6918
domaćih	6919
icu	6920
##rnih	6921
##vena	6922
praz	6923
impresi	6924
zatvara	6925
nadolaze	6926
photo	6927
uza	6928
##vke	6929
##gri	6930
##link	6931
pop	6932
polja	6933
##tama	6934
probu	6935
table	6936
boli	6937
pun	6938
otpa	6939
buga	6940
##tivnu	6941
izraela	6942
geor	6943
američkog	6944
zagrebački	6945
pretvori	6946
kandidati	6947
čokola	6948
info	6949
izgradnju	6950
sudjelovali	6951
dokaz	6952
trening	6953
revolu	6954
2f	6955
##ves	6956
##ljenih	6957
isla	6958
multi	6959
trajek	6960
open	6961
slavio	6962
izbornoj	6963
tekst	6964
kemi	6965
kvalitet	6966
tražiti	6967
transfe	6968
razgovora	6969
turniru	6970
stadion	6971
avan	6972
eve	6973
ura	6974
čkom	6975
##šom	6976
jede	6977
doja	6978
donese	6979
##love	6980
odbija	6981
masli	6982
##cent	6983
##snoj	6984
uloge	6985
čekaju	6986
otvorenom	6987
dalmatin	6988
eksperi	6989
mirovine	6990
transparen	6991
ika	6992
##pp	6993
##laca	6994
otkaza	6995
mjesecima	6996
reakcija	6997
##nković	6998
##panj	6999
malolje	7000
takti	7001
##mpati	7002
ostvario	7003
muškarci	7004
ponude	7005
upravljanje	7006
atmosfera	7007
spektak	7008
bicikli	7009
1920x10	7010
prvenstveno	7011
95	7012
hnk	7013
##naest	7014
odbio	7015
pame	7016
instru	7017
raznim	7018
križa	7019
krenuti	7020
dragan	7021
umjeren	7022
poslovanja	7023
2012	7024
spaša	7025
slučajeva	7026
hrabro	7027
institucija	7028
liječnici	7029
veseli	7030
makedo	7031
88	7032
##vin	7033
sukladno	7034
mog	7035
mane	7036
njihovoj	7037
draga	7038
pojavila	7039
narod	7040
iskoristiti	7041
infrastrukture	7042
zapovjednik	7043
120	7044
okup	7045
##tho	7046
##nis	7047
kono	7048
doveo	7049
kašte	7050
izgle	7051
nizu	7052
vene	7053
dodatne	7054
akciju	7055
smatram	7056
izdanje	7057
birača	7058
financijski	7059
serge	7060
potrebne	7061
kompanije	7062
troškova	7063
problemima	7064
tehnologija	7065
640x427	7066
1280x854	7067
480x320	7068
##ina	7069
##nstva	7070
##lie	7071
##rist	7072
dosto	7073
kami	7074
##stio	7075
malih	7076
listu	7077
najprije	7078
razma	7079
ostavlja	7080
prošla	7081
trumpo	7082
hajduku	7083
lokacija	7084
sprema	7085
dalmaciji	7086
novinara	7087
pomaga	7088
ekono	7089
okupi	7090
croati	7091
tomašević	7092
tjelesne	7093
##sigurno	7094
aspe	7095
vrt	7096
##iner	7097
##brati	7098
##vida	7099
##lesa	7100
toni	7101
teže	7102
milan	7103
##sata	7104
##žavaju	7105
najsta	7106
roka	7107
pobjedi	7108
pozicije	7109
obali	7110
2014	7111
održavanje	7112
vuko	7113
spava	7114
vidjet	7115
takvu	7116
mnogim	7117
srpske	7118
24sata	7119
ponuda	7120
1000	7121
oružje	7122
zadatak	7123
prihoda	7124
dv	7125
eska	7126
neslu	7127
prou	7128
gaze	7129
jugu	7130
kralj	7131
poznate	7132
projektu	7133
vučić	7134
zorana	7135
zaštiti	7136
slobode	7137
istaknuti	7138
uloga	7139
određene	7140
influ	7141
utjecajem	7142
adven	7143
korisnici	7144
redatelj	7145
upisao	7146
nazvao	7147
kćer	7148
djetinj	7149
anje	7150
fre	7151
##gnosti	7152
##my	7153
##96	7154
##vide	7155
zare	7156
vizu	7157
glazbu	7158
skija	7159
vidite	7160
kolegi	7161
lipnju	7162
kvar	7163
šibeniku	7164
sjećanja	7165
doprinos	7166
vrući	7167
čkog	7168
vukovar	7169
podnije	7170
fru	7171
##tter	7172
##rama	7173
##nat	7174
##teri	7175
##viju	7176
##lor	7177
##ley	7178
presti	7179
vinko	7180
japa	7181
boriti	7182
silo	7183
postaju	7184
sol	7185
dvoboj	7186
27201	7187
uzeti	7188
tužitelj	7189
sindikata	7190
##lect	7191
glave	7192
samou	7193
njezino	7194
dolaska	7195
vlastite	7196
250	7197
srednjo	7198
slijede	7199
skladi	7200
##desetak	7201
640x8	7202
480x6	7203
340x4	7204
postupka	7205
sjevernom	7206
zabrinuto	7207
ubojstva	7208
imovine	7209
sposobnost	7210
agresi	7211
sektoru	7212
nezadovolj	7213
hor	7214
istre	7215
ore	7216
##lik	7217
##vimo	7218
##padu	7219
nicu	7220
viši	7221
##ljava	7222
konzerva	7223
ham	7224
euroson	7225
sreću	7226
krivo	7227
tajnik	7228
priprem	7229
branitelja	7230
goriva	7231
recimo	7232
ukoliko	7233
u0	7234
##mpu	7235
##kali	7236
##cara	7237
karo	7238
odbor	7239
baviti	7240
ruje	7241
ministarstvu	7242
takvo	7243
vatreni	7244
milijarde	7245
korištenja	7246
atmosferu	7247
polufinalu	7248
perišić	7249
savršeno	7250
razoča	7251
##tegory	7252
##kat	7253
prikuplja	7254
##vršen	7255
##sten	7256
srećom	7257
nude	7258
ukrajinske	7259
održana	7260
studenti	7261
muzeja	7262
220x147	7263
saudi	7264
800	7265
99	7266
n1	7267
spi	7268
unije	7269
jeze	7270
##loge	7271
priklju	7272
##gađa	7273
maja	7274
##grad	7275
##dov	7276
jaka	7277
boru	7278
granica	7279
podne	7280
nastala	7281
poručila	7282
nikako	7283
ponovo	7284
zaključila	7285
bijele	7286
željezni	7287
svibnju	7288
medalju	7289
intervjuu	7290
potpredsjednik	7291
google	7292
1920x1080	7293
adi	7294
inje	7295
##shi	7296
doslovno	7297
##goj	7298
miri	7299
pali	7300
libe	7301
ruskog	7302
tragi	7303
ostavku	7304
morala	7305
prijava	7306
porast	7307
splitski	7308
potvrdila	7309
zakonu	7310
omogućuje	7311
vezano	7312
1280x16	7313
napredak	7314
cijeloj	7315
komentarima	7316
okviru	7317
potpore	7318
ljestvici	7319
skrb	7320
talijanski	7321
ise	7322
oc	7323
##čnije	7324
##{"	7325
sektora	7326
master	7327
plavi	7328
filo	7329
počelo	7330
istog	7331
sredinom	7332
središtu	7333
oboje	7334
razum	7335
andreja	7336
zamjenik	7337
##logiju	7338
1280x1280	7339
640x640	7340
480x480	7341
340x340	7342
partneri	7343
220x220	7344
rukometa	7345
kontakt	7346
nogometu	7347
prihvat	7348
640x814	7349
480x611	7350
340x432	7351
1280x1628	7352
bjelo	7353
čke	7354
##žnu	7355
##vod	7356
##dovima	7357
inva	7358
robo	7359
spomen	7360
jedinici	7361
državama	7362
dresu	7363
italiji	7364
1024x68	7365
##scri	7366
teritori	7367
psa	7368
##ntu	7369
##zz	7370
##jevi	7371
kafi	7372
proto	7373
##čene	7374
putni	7375
osvje	7376
##gić	7377
junior	7378
dugi	7379
ostalog	7380
stože	7381
područjima	7382
povećava	7383
knjiž	7384
ključni	7385
ponudi	7386
zelenski	7387
snimka	7388
šibenika	7389
medalja	7390
dužnost	7391
grija	7392
opu	7393
ušli	7394
zve	7395
##lci	7396
##dnjoj	7397
##ed	7398
##xt	7399
jedni	7400
jedana	7401
jelena	7402
##lum	7403
nima	7404
##ranj	7405
kontra	7406
trag	7407
##snosti	7408
rijeku	7409
stolje	7410
luku	7411
ideo	7412
onako	7413
reprezentativ	7414
srpnju	7415
barba	7416
sljedeći	7417
skloni	7418
otok	7419
profilu	7420
komentirala	7421
apart	7422
studenoga	7423
81	7424
##nni	7425
zaosta	7426
done	7427
euru	7428
konstru	7429
službi	7430
šet	7431
num	7432
istoj	7433
pojavio	7434
pogor	7435
osigurava	7436
slobodu	7437
povećati	7438
gradovima	7439
domovinski	7440
sportaši	7441
telefon	7442
meteoro	7443
egi	7444
rs	7445
##tija	7446
##loške	7447
##moć	7448
##zivanje	7449
##stop	7450
##dugo	7451
##grafi	7452
boris	7453
trenira	7454
##stupan	7455
plana	7456
##har	7457
služba	7458
čuti	7459
zajednički	7460
radionice	7461
navijačima	7462
organizatori	7463
zlatko	7464
sudjelovanje	7465
naziv	7466
školama	7467
standard	7468
angaž	7469
##_2723	7470
influence	7471
bd	7472
ilega	7473
##ad	7474
##ight	7475
##nskoj	7476
##mz	7477
##novima	7478
dos	7479
moji	7480
##minira	7481
turne	7482
dulje	7483
glavom	7484
lei	7485
vjetro	7486
slabo	7487
upora	7488
mnogima	7489
ulicama	7490
direktora	7491
ekipu	7492
odigrali	7493
transforma	7494
odvjetnika	7495
listopadu	7496
oruža	7497
spriječiti	7498
turudi	7499
num_	7500
72	7501
ano	7502
cvje	7503
cor	7504
##ten	7505
zasta	7506
komo	7507
domina	7508
radno	7509
##stoj	7510
baka	7511
europu	7512
rimac	7513
##rtava	7514
##misliti	7515
raspolaga	7516
unutarnjih	7517
liječnika	7518
slovenije	7519
težak	7520
azi	7521
jesti	7522
##tacije	7523
##metra	7524
miru	7525
##pix	7526
kih	7527
kina	7528
fol	7529
izborni	7530
potres	7531
drama	7532
jedinica	7533
vratila	7534
skim	7535
kolovo	7536
atleti	7537
komunici	7538
očekivanja	7539
hladno	7540
1991	7541
kampanju	7542
ponašanja	7543
fakulteta	7544
romanti	7545
anja	7546
tla	7547
##phi	7548
##wn	7549
##mara	7550
##dis	7551
reporter	7552
najja	7553
size	7554
gađa	7555
znala	7556
mjesti	7557
plane	7558
ronal	7559
vrijedan	7560
stil	7561
trenucima	7562
trenutka	7563
pogotka	7564
priznanje	7565
utjecaja	7566
perspe	7567
opreme	7568
zanimlji	7569
turizam	7570
izložbe	7571
prosincu	7572
harry	7573
cropix	7574
proračun	7575
sporazum	7576
snijeg	7577
##jeve	7578
##ling	7579
selo	7580
##gon	7581
##mit	7582
##tuje	7583
vić	7584
##žavanja	7585
peter	7586
leđa	7587
radić	7588
napade	7589
poručili	7590
vojni	7591
zagrebačkoj	7592
subote	7593
uputio	7594
žao	7595
nazivom	7596
vašem	7597
stadiona	7598
zrak	7599
zasigurno	7600
dove	7601
micha	7602
lik	7603
##enzi	7604
##žuju	7605
pjesama	7606
sudjelova	7607
struje	7608
zlata	7609
pobijedi	7610
preuzeti	7611
eppo	7612
gvar	7613
krva	7614
odred	7615
proče	7616
stani	7617
##gira	7618
uzvra	7619
ostatak	7620
dodajući	7621
sjeda	7622
svojem	7623
stižu	7624
martina	7625
##đivati	7626
lokalnih	7627
vidjela	7628
važne	7629
kontrole	7630
fizički	7631
odlaska	7632
sadržaja	7633
umro	7634
william	7635
cm	7636
ega	7637
ist	7638
kvi	7639
okon	7640
uveli	7641
wo	7642
##šći	7643
popisu	7644
korije	7645
##dira	7646
##tovima	7647
priku	7648
privreme	7649
##žite	7650
prijenos	7651
##trag	7652
ovakav	7653
stotine	7654
zagrep	7655
djevojke	7656
izazvao	7657
asistencija	7658
sastoj	7659
najviša	7660
hezbola	7661
twi	7662
##jma	7663
nazo	7664
por	7665
##nema	7666
##ciran	7667
aute	7668
odlukom	7669
pokušati	7670
ustavnog	7671
kulturu	7672
prometnoj	7673
lansi	7674
eventua	7675
katastrofa	7676
siroma	7677
size0	7678
nk	7679
udo	7680
urba	7681
##ndu	7682
##dbu	7683
##nati	7684
##torija	7685
dođu	7686
izre	7687
##duje	7688
##dović	7689
##šajte	7690
roma	7691
ovak	7692
vrtić	7693
objavu	7694
postavio	7695
njihovog	7696
škot	7697
završava	7698
gledatelja	7699
nadamo	7700
izdvoji	7701
teroristi	7702
zabrinutost	7703
79	7704
?"	7705
dže	7706
eto	7707
inu	7708
smeta	7709
up	7710
štraj	7711
##taciju	7712
##loj	7713
niji	7714
##ranji	7715
sviđa	7716
stope	7717
predsjednikom	7718
nastavila	7719
ideje	7720
rezultatima	7721
supersport	7722
kategorija	7723
daljnje	7724
aktualni	7725
troškove	7726
chef	7727
polufinale	7728
belgi	7729
recept	7730
nuklea	7731
que	7732
legendarni	7733
bjelica	7734
cvije	7735
dvoj	7736
eš	7737
era	7738
donose	7739
radne	7740
prepu	7741
golu	7742
##pone	7743
##siti	7744
stara	7745
glavnom	7746
##štaja	7747
ovakve	7748
cijelom	7749
##vljenje	7750
kreši	7751
popular	7752
kekin	7753
moderni	7754
tranzi	7755
izraelski	7756
kontrover	7757
turista	7758
dres	7759
zavod	7760
uređaja	7761
uga	7762
##chi	7763
##tz	7764
##36	7765
##ting	7766
zanema	7767
nerije	7768
rečeno	7769
nogu	7770
niže	7771
vili	7772
batu	7773
policiju	7774
sreće	7775
istragu	7776
gledali	7777
zagrebačkog	7778
vratili	7779
##šnjim	7780
pjevač	7781
izazove	7782
zaposlenika	7783
podijelio	7784
legendar	7785
pacijenti	7786
balka	7787
omogućiti	7788
razgovarao	7789
ab	7790
efe	7791
##_640	7792
nai	7793
poro	7794
poza	7795
##vat	7796
##toj	7797
dorh	7798
##mes	7799
privremeno	7800
##turu	7801
los	7802
##šteni	7803
trg	7804
izravno	7805
mladić	7806
zatvoru	7807
vlasnika	7808
procesa	7809
ivota	7810
upravljao	7811
studije	7812
emisija	7813
dijagnosti	7814
prisustvo	7815
upit	7816
umr	7817
prijetnje	7818
zvoni	7819
reuters	7820
filozo	7821
gvardio	7822
ave	7823
čku	7824
##cki	7825
##ding	7826
suci	7827
meksi	7828
jan	7829
javio	7830
bakte	7831
grama	7832
tram	7833
žesto	7834
uklanja	7835
pobjednika	7836
kažem	7837
odgovornosti	7838
američkih	7839
her	7840
podije	7841
važnosti	7842
predstavljaju	7843
travnju	7844
kampanji	7845
vodstvom	7846
općenito	7847
razreda	7848
ludbre	7849
croatia	7850
neslužbe	7851
84	7852
art	7853
đa	7854
##lama	7855
##tao	7856
zaro	7857
zamo	7858
##menu	7859
##ćene	7860
isc	7861
##tniji	7862
krene	7863
situacijama	7864
promjenu	7865
roditelj	7866
izgradnje	7867
doznajemo	7868
prekršaj	7869
muzej	7870
uslijed	7871
postroj	7872
direktorica	7873
dh	7874
den	7875
imo	7876
##kula	7877
tata	7878
##šeno	7879
##škoj	7880
obraća	7881
potrebu	7882
##ell	7883
crkvi	7884
govorili	7885
uvjeren	7886
novinare	7887
ravnateljica	7888
utrka	7889
upoznati	7890
nasilje	7891
rukomet	7892
susjed	7893
sudionika	7894
plin	7895
sprje	7896
th	7897
resur	7898
ispro	7899
čisto	7900
mogući	7901
smanjuje	7902
dionica	7903
arse	7904
spaja	7905
##smom	7906
krumpi	7907
suradnja	7908
svakoj	7909
poteško	7910
ostvarili	7911
atp	7912
radnici	7913
otišli	7914
osuđen	7915
izazovima	7916
zaposlenih	7917
uzeo	7918
mijenjati	7919
materijala	7920
veljači	7921
britanski	7922
stanovništva	7923
uzbud	7924
naoru	7925
jakirović	7926
atrak	7927
grmljavi	7928
perspekti	7929
išao	7930
##spa	7931
##,{"	7932
##racija	7933
pomi	7934
sugovo	7935
malom	7936
##dnica	7937
razvije	7938
češće	7939
traga	7940
želju	7941
##stero	7942
sjednici	7943
upravi	7944
prijavu	7945
politička	7946
predstavnik	7947
potreban	7948
full	7949
stranci	7950
zaključuje	7951
unaprijed	7952
posebnu	7953
iznosila	7954
ubrza	7955
konkurenciji	7956
terapi	7957
aero	7958
"},{"	7959
istar	7960
oja	7961
##rnog	7962
##l_	7963
##sse	7964
##19	7965
popodne	7966
##kol	7967
komer	7968
izvori	7969
##zisti	7970
jadro	7971
bosne	7972
##sniji	7973
han	7974
2026	7975
olimpijskih	7976
parkirali	7977
kriminal	7978
prioritet	7979
shi	7980
uisti	7981
##kos	7982
##jum	7983
tay	7984
##dow	7985
gala	7986
jug	7987
znanje	7988
krip	7989
stvaranje	7990
nadzo	7991
skokova	7992
učinio	7993
visoki	7994
francuskoj	7995
djelatnosti	7996
dalmacije	7997
vjeruju	7998
polako	7999
provode	8000
člana	8001
živimo	8002
industrije	8003
siječnju	8004
započela	8005
površine	8006
križevci	8007
recep	8008
inozemstvu	8009
skrbi	8010
napominje	8011
340x227	8012
uistinu	8013
nba	8014
skuplja	8015
##nirati	8016
##taba	8017
kože	8018
paša	8019
strp	8020
boj	8021
stavite	8022
tine	8023
sig	8024
pravom	8025
lea	8026
trebate	8027
dodatni	8028
izaći	8029
mislio	8030
##play	8031
poslovne	8032
većini	8033
knjigu	8034
parlamentu	8035
okoliš	8036
dovodi	8037
hercegovine	8038
koordina	8039
onog	8040
##elu	8041
##ph	8042
##roman	8043
domo	8044
prepre	8045
remi	8046
##bit	8047
mil	8048
pile	8049
dječak	8050
igrala	8051
ostaju	8052
održat	8053
##đivanje	8054
osiguranja	8055
registar	8056
radnih	8057
podsjetio	8058
tražio	8059
pomažu	8060
financijske	8061
spomenu	8062
izložba	8063
doživio	8064
prosvjed	8065
matija	8066
fakultetu	8067
spekta	8068
utječe	8069
ljestvice	8070
ministrica	8071
700	8072
98	8073
;.	8074
nskog	8075
uva	8076
jeste	8077
jesen	8078
##tent	8079
izlaz	8080
##ruje	8081
nina	8082
niza	8083
liver	8084
ispada	8085
srednji	8086
financija	8087
hitno	8088
vozio	8089
navijače	8090
suprugu	8091
neočeki	8092
elektra	8093
posebna	8094
tradicionalno	8095
catite	8096
italija	8097
talenti	8098
##303	8099
nuklear	8100
favorit	8101
rezolu	8102
liverpo	8103
onim	8104
##ele	8105
##_340	8106
##niran	8107
povolj	8108
##kovima	8109
##canje	8110
masa	8111
##mić	8112
puni	8113
svetog	8114
ruskih	8115
možeš	8116
##tivnog	8117
anketa	8118
objavljen	8119
dobrom	8120
upot	8121
svjetskih	8122
2013	8123
govorimo	8124
splitskog	8125
potvrdili	8126
gospodin	8127
zločin	8128
problemati	8129
izbjegli	8130
prehra	8131
1024x1	8132
##zapadni	8133
kontekstu	8134
uefa	8135
dvd	8136
dhmz	8137
opisu	8138
uzor	8139
##rnu	8140
pobu	8141
##dia	8142
selak	8143
kari	8144
proz	8145
##ljo	8146
##pularni	8147
logo	8148
ženama	8149
radilo	8150
časo	8151
gene	8152
franjo	8153
novak	8154
krv	8155
mnogih	8156
ponegdje	8157
razina	8158
kazneni	8159
jeziku	8160
prekida	8161
objavljena	8162
alkohol	8163
pucao	8164
najpopularni	8165
poremeća	8166
ustvrdio	8167
upita	8168
##čnici	8169
##lian	8170
progovo	8171
prezi	8172
prire	8173
paki	8174
mel	8175
ostaviti	8176
kreću	8177
trbu	8178
zahvati	8179
hidro	8180
geno	8181
američka	8182
svjetsko	8183
2011	8184
##ins	8185
pronašao	8186
pronašla	8187
hrvoje	8188
radnog	8189
ključna	8190
sunca	8191
##financi	8192
iznenađenje	8193
izvješće	8194
kampanja	8195
otvoriti	8196
zrakop	8197
kapaciteta	8198
grand	8199
1024x683	8200
96	8201
##dth	8202
naran	8203
navra	8204
##lika	8205
poha	8206
##nar	8207
sufinanci	8208
nes	8209
nepre	8210
##lesu	8211
##gović	8212
pregle	8213
mon	8214
##ming	8215
javnim	8216
lovre	8217
button	8218
cija	8219
dodaju	8220
trča	8221
obraz	8222
drve	8223
filmova	8224
čuo	8225
održan	8226
uvjeta	8227
događanja	8228
lokalnim	8229
izjava	8230
nosila	8231
osjećam	8232
postići	8233
zaustaviti	8234
pacijenata	8235
visokog	8236
sramo	8237
##tabase	8238
zrakoplova	8239
navrata	8240
bbc	8241
žrtava	8242
zakla	8243
ode	8244
gora	8245
mirno	8246
obna	8247
prat	8248
duh	8249
cima	8250
stoje	8251
kompli	8252
procedu	8253
prosjeku	8254
poginuli	8255
kamere	8256
posjetitelji	8257
##kluzi	8258
varte	8259
mladosti	8260
stvoriti	8261
evaku	8262
dijelovima	8263
york	8264
zagrija	8265
rezervi	8266
raspudić	8267
neprija	8268
autenti	8269
jadroli	8270
sor	8271
đur	8272
##nosa	8273
kap	8274
##zivanja	8275
inzisti	8276
stavio	8277
startu	8278
najno	8279
bari	8280
kongre	8281
opse	8282
političkih	8283
gradskom	8284
crna	8285
obale	8286
poslovanje	8287
protek	8288
sportskih	8289
glazbene	8290
novosti	8291
aktivnost	8292
zastupnici	8293
general	8294
prosječna	8295
operacija	8296
gubitak	8297
završetka	8298
vukovara	8299
hg	8300
pd	8301
##res	8302
##danje	8303
##sion	8304
obnove	8305
njena	8306
najbli	8307
jom	8308
potpi	8309
ženu	8310
živote	8311
čaro	8312
otkriti	8313
federa	8314
većine	8315
koncer	8316
pokušavaju	8317
ustanova	8318
nogometna	8319
nogometaša	8320
generacija	8321
izvješću	8322
maksimir	8323
stručnjaka	8324
otvaranje	8325
relativno	8326
dobrim	8327
održivo	8328
scenarij	8329
antonio	8330
hrvatskoga	8331
policajci	8332
trofej	8333
pojasnio	8334
bdp	8335
utim	8336
zgo	8337
zvje	8338
##rje	8339
##rata	8340
##vari	8341
reper	8342
##skop	8343
javila	8344
najnovi	8345
duha	8346
bunde	8347
lega	8348
legi	8349
##lnica	8350
služi	8351
hol	8352
pozitivan	8353
potreba	8354
skupo	8355
brine	8356
reprezentaciji	8357
zračne	8358
šuma	8359
obiteljske	8360
ključnih	8361
zločina	8362
zaboraviti	8363
specijali	8364
restorana	8365
##_271947	8366
zadržati	8367
proizvođača	8368
spominje	8369
##ysq	8370
ekra	8371
nske	8372
##ot	8373
##title	8374
##tijeva	8375
zaigra	8376
##date	8377
##biji	8378
valj	8379
##žavanje	8380
##dnicima	8381
mur	8382
spoj	8383
cijom	8384
izabran	8385
ljep	8386
medite	8387
zahtijeva	8388
potresa	8389
##tanya	8390
održao	8391
našli	8392
društvenoj	8393
nastupiti	8394
nezako	8395
kupnju	8396
članice	8397
naglasila	8398
upoznali	8399
trajati	8400
zaredom	8401
##tanyahu	8402
dc	8403
ilu	8404
##brao	8405
##xel	8406
##wo	8407
zadnja	8408
netanyahu	8409
kave	8410
kamo	8411
propu	8412
gost	8413
reso	8414
pazi	8415
vio	8416
intim	8417
kupio	8418
glava	8419
rijetki	8420
državu	8421
horva	8422
dvadeset	8423
sliku	8424
vodeći	8425
krajnje	8426
izdanju	8427
šok	8428
napredo	8429
oznaka	8430
konzuma	8431
simbol	8432
naselja	8433
dalmatinske	8434
contains	8435
vatrogasaca	8436
tinejd	8437
tj	8438
ute	8439
##vcima	8440
##jskoj	8441
##15	8442
dopušte	8443
druk	8444
baj	8445
bave	8446
##vnica	8447
antu	8448
marti	8449
liječenje	8450
parku	8451
dražen	8452
integra	8453
lokacije	8454
karlova	8455
##ard	8456
upozoravaju	8457
vjerujemo	8458
lopta	8459
izazvala	8460
šansu	8461
infrastrukturu	8462
praktički	8463
datum	8464
original	8465
ema	8466
udje	8467
udio	8468
koe	8469
suca	8470
motiva	8471
malim	8472
milje	8473
can	8474
##čana	8475
meso	8476
osloba	8477
deba	8478
berna	8479
duže	8480
mup	8481
eurovi	8482
nasmija	8483
lijepe	8484
pjesmom	8485
trenutke	8486
pozitivno	8487
rezultira	8488
kvaliteta	8489
ustanove	8490
odakle	8491
glazbeni	8492
kaznena	8493
ozlijeđen	8494
stres	8495
izrazio	8496
identitet	8497
bilježi	8498
mobitel	8499
maksimalno	8500
direktno	8501
by	8502
##fan	8503
##rona	8504
##čicu	8505
##sar	8506
##don	8507
tuma	8508
plaću	8509
##ficije	8510
predsjedniku	8511
srcu	8512
ribe	8513
lucija	8514
tajna	8515
dijele	8516
snažno	8517
ponosni	8518
gledao	8519
osigurao	8520
sportskog	8521
nacionalni	8522
regija	8523
glazbenik	8524
nezabora	8525
##ily	8526
osobni	8527
prekid	8528
otvorila	8529
rizika	8530
postupku	8531
ožujku	8532
ciljeve	8533
inteligencije	8534
elektroni	8535
tragedija	8536
kontinuirano	8537
penava	8538
komercija	8539
1024x1303	8540
83	8541
glo	8542
##tiran	8543
##vidu	8544
seriju	8545
##veno	8546
izvla	8547
točnije	8548
miris	8549
gabri	8550
dubi	8551
lon	8552
194	8553
mladen	8554
kroni	8555
projektima	8556
omoguća	8557
korisnicima	8558
radove	8559
ugodno	8560
stranaka	8561
kakvo	8562
fokusi	8563
prihvatiti	8564
stjepan	8565
diplomat	8566
karakte	8567
crnoj	8568
swi	8569
učin	8570
ušla	8571
##ak	8572
set	8573
nepro	8574
princ	8575
livaja	8576
##žim	8577
najdra	8578
del	8579
planove	8580
današnje	8581
##ficira	8582
brojem	8583
šesto	8584
gradski	8585
istodobno	8586
mjesečno	8587
šar	8588
onome	8589
130	8590
kolegama	8591
navela	8592
najboljeg	8593
lopte	8594
hotelu	8595
platforma	8596
primio	8597
definira	8598
termi	8599
spasio	8600
ciljeva	8601
lokomotive	8602
hamas	8603
ovjek	8604
spektakl	8605
valjda	8606
svla	8607
##_id	8608
naprijed	8609
priu	8610
test	8611
##mima	8612
valo	8613
bad	8614
glavne	8615
##vljava	8616
kralja	8617
lijepa	8618
predstava	8619
učinak	8620
vratima	8621
nacionalnih	8622
roditelje	8623
sudjeluju	8624
upozorenja	8625
vlasnici	8626
djelovanja	8627
odličan	8628
odigrati	8629
zdravstvenih	8630
socijalne	8631
albuma	8632
derbiju	8633
ultra	8634
severina	8635
štiti	8636
promovi	8637
modu	8638
rele	8639
jabu	8640
##sea	8641
puk	8642
puna	8643
vol	8644
trećeg	8645
svoga	8646
##vnosti	8647
prijelaz	8648
brodu	8649
lokaciji	8650
karton	8651
teret	8652
nosio	8653
sredstvima	8654
izgubi	8655
zapad	8656
tražili	8657
oporavak	8658
aktivnostima	8659
naveli	8660
bruno	8661
električne	8662
doznaje	8663
mađar	8664
suočava	8665
sloveniji	8666
preporučuje	8667
ulaznica	8668
lagano	8669
treninga	8670
nastoja	8671
donalda	8672
najljepši	8673
dostojan	8674
04	8675
ec	8676
hz	8677
wol	8678
##7_	8679
##lini	8680
##renju	8681
##vača	8682
daily	8683
##loškog	8684
malu	8685
mid	8686
tren	8687
stavo	8688
prlja	8689
našla	8690
lokalno	8691
kandidatkinja	8692
prvoliga	8693
natjecanjima	8694
sastavu	8695
djelatnika	8696
zelene	8697
snimku	8698
izvršni	8699
dijagno	8700
strateški	8701
izrazito	8702
prihvaća	8703
yorku	8704
adekva	8705
napeto	8706
taylor	8707
ken	8708
##laska	8709
##stin	8710
pasti	8711
javnih	8712
javljaju	8713
##berg	8714
simpati	8715
jor	8716
austrija	8717
upravnog	8718
predstaviti	8719
brže	8720
koncertu	8721
pokušaja	8722
najam	8723
posjet	8724
informaciju	8725
sastanka	8726
emocije	8727
priznati	8728
ponaj	8729
sjajan	8730
međunarodni	8731
spremna	8732
donosimo	8733
utrci	8734
##qui	8735
reagirao	8736
kreativno	8737
asisten	8738
teritorija	8739
valenti	8740
neizvje	8741
komisija	8742
teškim	8743
nska	8744
##kciji	8745
##rizo	8746
##tant	8747
kosu	8748
sektor	8749
select	8750
##can	8751
proveli	8752
mono	8753
ten	8754
##pora	8755
tabli	8756
vagi	8757
boravak	8758
pune	8759
osmije	8760
fir	8761
cijenama	8762
objava	8763
dodatnih	8764
svojevr	8765
nastavi	8766
##škol	8767
najbolju	8768
umjetne	8769
hero	8770
mladima	8771
izjavu	8772
pokušali	8773
potvrđuje	8774
završili	8775
utakmicama	8776
iskori	8777
ravnatelja	8778
posljednjem	8779
news	8780
brzine	8781
posjetitelje	8782
individu	8783
izvijestili	8784
poboljšati	8785
fakultet	8786
subven	8787
pravde	8788
bjelova	8789
dužnosnici	8790
servis	8791
usporedbi	8792
isproba	8793
!",	8794
dri	8795
ud	8796
##rirati	8797
##tović	8798
dodu	8799
prekri	8800
prebaci	8801
gospi	8802
mai	8803
palo	8804
infor	8805
stranica	8806
1920	8807
##štinu	8808
potrebi	8809
odgovorila	8810
jedinice	8811
americi	8812
visokim	8813
španjolskoj	8814
okus	8815
konačnici	8816
bruxel	8817
zadarske	8818
količine	8819
popularni	8820
oblik	8821
posjetitelja	8822
branko	8823
otkaz	8824
##display	8825
prehrambe	8826
doduše	8827
cla	8828
##vko	8829
##bne	8830
##redo	8831
##riraju	8832
zar	8833
dovolj	8834
pregovara	8835
##kujem	8836
mat	8837
##ston	8838
voća	8839
sveće	8840
##đenim	8841
prijela	8842
zbor	8843
odnosima	8844
brojke	8845
politici	8846
osigurali	8847
ofenzi	8848
međunarodnog	8849
elemen	8850
nedostatak	8851
ljudska	8852
obveza	8853
manipu	8854
dobrih	8855
##ditetom	8856
destinacija	8857
invaliditetom	8858
ubla	8859
nevi	8860
pal	8861
jači	8862
liko	8863
##ljko	8864
najni	8865
graditi	8866
podno	8867
čisti	8868
stranice	8869
##nijeli	8870
krize	8871
europsku	8872
snazi	8873
zagrebačka	8874
službene	8875
hrani	8876
zapadne	8877
napadača	8878
zakonom	8879
domaćina	8880
provoditi	8881
investicije	8882
objavljeno	8883
shvatio	8884
naknade	8885
poklon	8886
zamijeniti	8887
donald	8888
pretpostavlja	8889
namirnice	8890
aleksandar	8891
ekuje	8892
istri	8893
onu	8894
##znica	8895
pogla	8896
zavi	8897
zapri	8898
kal	8899
jandro	8900
##zirali	8901
odavno	8902
privatni	8903
uglji	8904
procjenjuje	8905
sedmo	8906
srušio	8907
odmora	8908
container	8909
iscrp	8910
92	8911
mü	8912
ome	8913
##drije	8914
##šnih	8915
##mske	8916
##ral	8917
##laciju	8918
sugla	8919
##čajan	8920
mer	8921
metro	8922
jasan	8923
##njiv	8924
##mjese	8925
otva	8926
sretna	8927
dodavši	8928
src	8929
međusob	8930
nemate	8931
sigurna	8932
političkog	8933
svijesti	8934
ideju	8935
guar	8936
proizvodnja	8937
2010	8938
vodili	8939
smjera	8940
objekata	8941
izjavi	8942
poslali	8943
nikoga	8944
demograf	8945
međunarodne	8946
povratka	8947
west	8948
sjeverno	8949
konferencije	8950
vašeg	8951
partnerima	8952
pripremiti	8953
restoran	8954
sjednice	8955
luksuz	8956
nimalo	8957
kolovozu	8958
%)	8959
inja	8960
wal	8961
žal	8962
##tsa	8963
bizni	8964
prevlada	8965
tole	8966
##šenju	8967
dimen	8968
distri	8969
petković	8970
cilju	8971
akciji	8972
brata	8973
##štini	8974
pomor	8975
drže	8976
ponosan	8977
njemačku	8978
komentar	8979
zone	8980
tisuću	8981
kolod	8982
ključno	8983
ključne	8984
djelatnici	8985
komunal	8986
izvješta	8987
smijeh	8988
provjeriti	8989
činjenice	8990
poginuo	8991
sjeverne	8992
itema	8993
budite	8994
komada	8995
vruće	8996
križeva	8997
dominik	8998
ukazuje	8999
ishod	9000
administra	9001
đoković	9002
pretežno	9003
ici	9004
jda	9005
osti	9006
slje	9007
##mljen	9008
nadu	9009
kose	9010
danijela	9011
##rur	9012
toki	9013
masla	9014
##cuje	9015
varija	9016
bolju	9017
von	9018
##šavaju	9019
ban	9020
##ljuje	9021
pišto	9022
bulj	9023
##dnost	9024
sportu	9025
audi	9026
luk	9027
krei	9028
stupa	9029
poveo	9030
povezuje	9031
##_269	9032
nužno	9033
gradska	9034
šalje	9035
tekstu	9036
održavanja	9037
nastupio	9038
oduvijek	9039
sastanku	9040
count	9041
telefo	9042
izgledati	9043
stanovnici	9044
uključuju	9045
potencijalno	9046
medicine	9047
znanstvenici	9048
županijskog	9049
mišljenja	9050
talent	9051
izdvaja	9052
kriminalističko	9053
molit	9054
korupcije	9055
psihija	9056
anušić	9057
karakteristi	9058
82	9059
eta	9060
ly	9061
orije	9062
usa	9063
##mble	9064
pok	9065
##rie	9066
##nela	9067
propi	9068
##king	9069
rake	9070
##stić	9071
govora	9072
imalo	9073
puti	9074
puli	9075
tin	9076
eur	9077
##hol	9078
bea	9079
trau	9080
kratki	9081
postaviti	9082
uspjeti	9083
lokalni	9084
blaga	9085
supruge	9086
2009	9087
njak	9088
republici	9089
studiju	9090
promijenio	9091
sjeveru	9092
prepoznati	9093
napustiti	9094
1961	9095
crnogor	9096
pouzda	9097
okrivlje	9098
magazin	9099
jdatabase	9100
elje	9101
nskom	9102
wor	9103
##blo	9104
##91	9105
zapre	9106
provela	9107
rane	9108
maru	9109
ref	9110
mega	9111
lisi	9112
vao	9113
##djeti	9114
jutra	9115
duži	9116
spon	9117
trebati	9118
vješta	9119
držati	9120
postalo	9121
autora	9122
stilu	9123
odgovoriti	9124
gledatelji	9125
trud	9126
grbin	9127
skupinu	9128
visoka	9129
vlastitu	9130
podatak	9131
sudjeluje	9132
telegra	9133
izdanja	9134
detalja	9135
smiju	9136
smisla	9137
utrku	9138
obveze	9139
kapeta	9140
troškovi	9141
zaljublje	9142
uzrokovati	9143
gvardiol	9144
apo	9145
ivi	9146
ky	9147
ost	9148
phi	9149
##žom	9150
##_the	9151
##licu	9152
nevrijeme	9153
radnje	9154
toplo	9155
##čenju	9156
jaku	9157
značajan	9158
figu	9159
šefa	9160
prijaviti	9161
obraču	9162
##cijskih	9163
svjetska	9164
ples	9165
##vilima	9166
slučaja	9167
vodila	9168
najavila	9169
studenom	9170
otvoreni	9171
karijera	9172
optužbe	9173
##ller	9174
odlična	9175
mislili	9176
potrazi	9177
saborski	9178
materijal	9179
pripadnici	9180
dozvole	9181
žrtva	9182
sjedište	9183
nemoguće	9184
koeficije	9185
etka	9186
skra	9187
##jskim	9188
nac	9189
zago	9190
suho	9191
izva	9192
protivni	9193
vali	9194
najza	9195
kupi	9196
čin	9197
ley	9198
##lnostima	9199
krimina	9200
glazba	9201
zdravstvo	9202
slobodan	9203
ivanu	9204
službeni	9205
rodila	9206
sredine	9207
bolnica	9208
priznaje	9209
dnevna	9210
izgradnja	9211
investicija	9212
mirovina	9213
sandra	9214
iskoristio	9215
platforme	9216
okvir	9217
životinje	9218
industriji	9219
samim	9220
darko	9221
čišćenje	9222
sergej	9223
rujevici	9224
mjestimice	9225
93	9226
dj	9227
nski	9228
shvaća	9229
žan	9230
##šnog	9231
##sr	9232
##ws	9233
nenad	9234
kalo	9235
kapi	9236
bilja	9237
savršen	9238
rasko	9239
prelazi	9240
##ganje	9241
mata	9242
manja	9243
voyo	9244
ospo	9245
##šice	9246
gara	9247
tuđ	9248
##šteno	9249
napao	9250
tjedno	9251
poslovnih	9252
ostvarila	9253
novinari	9254
odradio	9255
bijelu	9256
članovima	9257
očekujemo	9258
provjere	9259
industrija	9260
prilagodi	9261
##razumije	9262
londonu	9263
##ficiran	9264
youtu	9265
magistra	9266
relevan	9267
##_o	9268
##rit	9269
##tati	9270
kavu	9271
gorice	9272
##mično	9273
metra	9274
##rijet	9275
delega	9276
znaš	9277
dječaka	9278
otpad	9279
##dnosti	9280
radite	9281
horo	9282
stipen	9283
izašli	9284
projektila	9285
blaže	9286
pokrenuo	9287
povećanja	9288
mateo	9289
izgublje	9290
prometnih	9291
pružiti	9292
ozlijeđenih	9293
mislite	9294
zanimljiv	9295
poduzeća	9296
prosjeka	9297
preminula	9298
pozornici	9299
upoznao	9300
##gnut	9301
izazvati	9302
zvuk	9303
zadovolji	9304
showu	9305
izbjegava	9306
proglašen	9307
pretposta	9308
86	9309
91	9310
ht	9311
đi	9312
##znice	9313
##9_	9314
##remo	9315
dario	9316
dort	9317
rasti	9318
##ken	9319
met	9320
javna	9321
bud	9322
višestru	9323
story	9324
odlučiti	9325
argu	9326
reala	9327
videa	9328
prostorima	9329
istaknuli	9330
klini	9331
vladaju	9332
poslati	9333
gita	9334
##nder	9335
najvećim	9336
ozbiljne	9337
visini	9338
svladao	9339
fondova	9340
dortmu	9341
aran	9342
oi	9343
ubacio	9344
zona	9345
##ić	9346
##gs	9347
##bljen	9348
##tiji	9349
poje	9350
##stica	9351
##pou	9352
tret	9353
bak	9354
baštine	9355
sir	9356
bespo	9357
pix	9358
konven	9359
leta	9360
trebale	9361
cipe	9362
brodo	9363
vjetra	9364
vještine	9365
tajne	9366
hibri	9367
dugogodišnji	9368
pretvara	9369
najavljuje	9370
registra	9371
2008	9372
poslala	9373
vozači	9374
scenu	9375
univer	9376
turistička	9377
medicinske	9378
poginulo	9379
ljubim	9380
četvor	9381
kovačić	9382
baye	9383
zahvalio	9384
flori	9385
pravosuđa	9386
##mislite	9387
protivnik	9388
beroš	9389
adria	9390
crijeva	9391
krešimir	9392
blue	9393
ks	9394
oce	9395
zre	9396
nade	9397
##liji	9398
poprili	9399
##torica	9400
##daš	9401
kance	9402
odgova	9403
referen	9404
nico	9405
pasa	9406
##bel	9407
bara	9408
pravne	9409
dugu	9410
njime	9411
svjestan	9412
stvaraju	9413
nastavljaju	9414
lijepi	9415
dobrodo	9416
poručuje	9417
poznatog	9418
radionica	9419
osigurala	9420
muškarce	9421
matemati	9422
inflacije	9423
gordan	9424
plaćanja	9425
benzi	9426
sudjelovala	9427
snimanja	9428
odgovaraju	9429
madrida	9430
izmjene	9431
pohvalio	9432
tenisač	9433
protivnika	9434
atenta	9435
genoci	9436
")	9437
elnik	9438
snje	9439
pogledu	9440
dostupan	9441
tebe	9442
##cep	9443
##sel	9444
svejedno	9445
slavili	9446
izboru	9447
međusobno	9448
izaziva	9449
crkva	9450
poručuju	9451
voziti	9452
komentirati	9453
united	9454
vezane	9455
ozlijedio	9456
jim	9457
dozvola	9458
dizajn	9459
daniel	9460
ravnote	9461
potaknuti	9462
četvrtfinale	9463
periodu	9464
raspolaganju	9465
distribu	9466
este	9467
opra	9468
skre	9469
umo	9470
usi	9471
šti	9472
##žo	9473
##rove	9474
##tala	9475
nebo	9476
morna	9477
torci	9478
##des	9479
##čera	9480
bogu	9481
puc	9482
predmeta	9483
sinj	9484
poskup	9485
pisao	9486
jura	9487
ljublja	9488
glavnih	9489
rit	9490
slučajno	9491
zajednici	9492
napisali	9493
djelovanje	9494
posvećen	9495
svjedoči	9496
večernji	9497
uvođenje	9498
rasprava	9499
etvrtak	9500
tambu	9501
tiktok	9502
princeza	9503
dviju	9504
##nn	9505
##sve	9506
##riran	9507
danije	9508
selek	9509
kamen	9510
kasno	9511
izgla	9512
mato	9513
##ljenog	9514
puha	9515
dize	9516
tipa	9517
kule	9518
pića	9519
podrijet	9520
rusiju	9521
koncu	9522
slave	9523
##ndić	9524
istinu	9525
teksto	9526
zoni	9527
kultura	9528
sredini	9529
zapadu	9530
izraelske	9531
komunisti	9532
producent	9533
benda	9534
ogroman	9535
ponedjeljka	9536
dokumentar	9537
srbiju	9538
marijan	9539
televizi	9540
televiziji	9541
čkoj	9542
barcelona	9543
najviši	9544
sadrži	9545
potiče	9546
pokraj	9547
pandemije	9548
evoj	9549
ive	9550
irana	9551
mba	9552
ovima	9553
plje	9554
uvr	9555
##bni	9556
##žja	9557
jel	9558
napušta	9559
##tanja	9560
##daka	9561
senior	9562
dopusti	9563
sudeći	9564
kaz	9565
prezenta	9566
tea	9567
##lus	9568
reka	9569
melo	9570
njegu	9571
##đenog	9572
pismo	9573
loša	9574
##vnice	9575
izraelu	9576
predstave	9577
započi	9578
američkim	9579
mladim	9580
pokrenula	9581
španjolski	9582
##uth	9583
obilježava	9584
posebnim	9585
socijal	9586
sportaša	9587
brzinu	9588
poljoprivrede	9589
carlo	9590
liječnik	9591
internetu	9592
obnovu	9593
dijelove	9594
opisao	9595
##reated	9596
hamasa	9597
nerijetko	9598
priušti	9599
97	9600
##cro	9601
##un	9602
jem	9603
pog	9604
##vanjima	9605
##vita	9606
premje	9607
prešao	9608
nomina	9609
min	9610
voka	9611
stao	9612
svemir	9613
juga	9614
joško	9615
kini	9616
okolnostima	9617
sou	9618
nekome	9619
gradskoj	9620
zahtije	9621
poznaje	9622
čuje	9623
spada	9624
sloboda	9625
karti	9626
izgubiti	9627
ponuditi	9628
bruta	9629
droge	9630
alen	9631
primili	9632
skupštine	9633
prijetnja	9634
skrom	9635
berlinu	9636
incidenta	9637
razumijevanje	9638
lokomotiva	9639
najuspje	9640
bayern	9641
##video	9642
pdv	9643
išli	9644
out	9645
##vcu	9646
dari	9647
kaj	9648
##leta	9649
jazz	9650
imaš	9651
bazi	9652
nijem	9653
razred	9654
spoji	9655
stipe	9656
brojna	9657
##cijskog	9658
pozivaju	9659
idem	9660
govorila	9661
pretr	9662
interpre	9663
zdravlju	9664
promjenama	9665
visokih	9666
sunce	9667
djevojčica	9668
korisnik	9669
premium	9670
primanja	9671
snimanje	9672
mađarska	9673
rasprave	9674
financira	9675
poticaj	9676
logisti	9677
index	9678
uvjerljivo	9679
a1	9680
##mno	9681
##mski	9682
##ries	9683
##tete	9684
mojoj	9685
##mid	9686
##par	9687
##sio	9688
tan	9689
staze	9690
ruska	9691
lom	9692
led	9693
nekoj	9694
prijatelje	9695
slučajevima	9696
programe	9697
kruh	9698
priznanja	9699
trgovina	9700
pomak	9701
donijeli	9702
podijeliti	9703
podržati	9704
kolum	9705
sudionici	9706
poboljšanje	9707
komunikacija	9708
kvalifikacija	9709
brenda	9710
spominja	9711
kompleks	9712
suvereni	9713
ojača	9714
cre	9715
uniji	9716
ubija	9717
##pzi	9718
##_i	9719
##lici	9720
pošti	9721
##vodi	9722
##voda	9723
biza	9724
##zanja	9725
##čaju	9726
##sell	9727
stanice	9728
stakle	9729
gradom	9730
granicu	9731
sini	9732
kratkom	9733
igrat	9734
sobe	9735
dvaput	9736
svježe	9737
istim	9738
domaćem	9739
umjetnika	9740
raspisa	9741
##rojatnije	9742
imenom	9743
pokušaju	9744
obiteljima	9745
kulturne	9746
klima	9747
podupi	9748
golman	9749
izazova	9750
mislila	9751
hladni	9752
instituta	9753
osobne	9754
objasniti	9755
željeli	9756
posljednjeg	9757
upitan	9758
dubrovački	9759
odob	9760
potpora	9761
dominira	9762
tiktoku	9763
charles	9764
analitičar	9765
gužve	9766
centimetara	9767
uzastop	9768
leipzi	9769
cli	9770
ere	9771
franje	9772
sy	9773
đe	9774
##jmo	9775
##tlja	9776
##690	9777
##tilo	9778
##tike	9779
##vane	9780
##tetom	9781
zamr	9782
danu	9783
nere	9784
biskup	9785
##ruju	9786
saču	9787
lin	9788
imale	9789
inženje	9790
njene	9791
##šica	9792
##berne	9793
gradili	9794
##prave	9795
samopou	9796
opcije	9797
kristi	9798
državnih	9799
sopić	9800
##cionalno	9801
čudo	9802
najveću	9803
zaštita	9804
automobilu	9805
automobilom	9806
2006	9807
funkciju	9808
amba	9809
bruto	9810
modrića	9811
upoznala	9812
vatrenih	9813
činjenicu	9814
koalicije	9815
mladog	9816
starog	9817
fenomen	9818
jeseni	9819
maslino	9820
samopouzda	9821
?!	9822
astro	9823
alost	9824
zbu	9825
št	9826
pope	9827
motiv	9828
miche	9829
mesa	9830
vašu	9831
##set	9832
stiglo	9833
godišnjoj	9834
raskri	9835
nositelj	9836
kaznenih	9837
poljske	9838
prirodi	9839
ploča	9840
zabavlja	9841
okruženju	9842
tehnički	9843
završnici	9844
itd	9845
odvjetništvo	9846
inicijativu	9847
simboli	9848
oblaka	9849
bogatstvo	9850
kombinira	9851
ocijenio	9852
suspen	9853
mozga	9854
01	9855
enju	9856
ije	9857
##jević	9858
##vis	9859
ković	9860
suđenje	9861
preba	9862
redom	9863
valu	9864
boy	9865
najvje	9866
predra	9867
depo	9868
dečki	9869
dekla	9870
duge	9871
muzi	9872
vrstu	9873
vrijeđa	9874
predsjednički	9875
izraču	9876
političku	9877
uspješan	9878
njezini	9879
svjetla	9880
gledaju	9881
grupi	9882
koristio	9883
izgledalo	9884
raspored	9885
ozbiljan	9886
oprema	9887
vrhunac	9888
doživjela	9889
engleski	9890
tomislava	9891
shvatiti	9892
##1024	9893
skriva	9894
brend	9895
svrhu	9896
sporazuma	9897
šećera	9898
salz	9899
desetljećima	9900
neslužbeno	9901
otu	9902
omje	9903
uro	9904
vri	9905
##jnog	9906
koka	9907
doho	9908
prebi	9909
##bijan	9910
paket	9911
category	9912
str	9913
##šavanje	9914
inc	9915
grafi	9916
kur	9917
podrazumije	9918
##snici	9919
strahu	9920
ovakvim	9921
doktor	9922
faze	9923
pogodaka	9924
gledamo	9925
pokrenuti	9926
poluvremena	9927
nikome	9928
sdss	9929
crvenog	9930
dostupne	9931
dodijeli	9932
klubovi	9933
izvedbe	9934
autocesti	9935
jugoslavije	9936
drugačiji	9937
neposredno	9938
george	9939
štrajk	9940
horvat	9941
opušte	9942
##bl	9943
##sho	9944
##nijom	9945
nago	9946
##stalom	9947
##čev	9948
##zabe	9949
jake	9950
##tnicu	9951
kiberne	9952
svašta	9953
horizo	9954
pitaju	9955
dobrog	9956
majku	9957
tereta	9958
obiteljski	9959
temeljem	9960
uostalom	9961
osjećaju	9962
nikolina	9963
sljedećih	9964
crvenom	9965
članove	9966
izvješća	9967
namjera	9968
neutra	9969
kritike	9970
pozornicu	9971
reagirati	9972
kretanja	9973
ravnopra	9974
karakter	9975
priopćila	9976
povjerenstvo	9977
obavještaj	9978
oslobađa	9979
najuspješ	9980
kiberneti	9981
aso	9982
mlje	9983
onom	9984
tvari	9985
##dle	9986
##ppe	9987
##xi	9988
##rek	9989
kopa	9990
matu	9991
vira	9992
james	9993
obliko	9994
punom	9995
treću	9996
##vniji	9997
butković	9998
živio	9999
krila	10000
sofi	10001
jakov	10002
njezinom	10003
amerike	10004
bliza	10005
takvog	10006
najboljim	10007
zida	10008
pozvala	10009
elizabe	10010
osobnih	10011
tehnološki	10012
pripadnika	10013
navedeno	10014
arena	10015
suprotno	10016
boravka	10017
austriji	10018
sarajevu	10019
kontinenta	10020
vizua	10021
folklo	10022
pixsell	10023
94	10024
cho	10025
emu	10026
elim	10027
fla	10028
krije	10029
##rnim	10030
##šoj	10031
##ktivno	10032
##pti	10033
##53	10034
zape	10035
zastra	10036
kanal	10037
prikup	10038
moju	10039
mit	10040
patri	10041
bosi	10042
##giju	10043
bene	10044
stoti	10045
parka	10046
napadi	10047
napravi	10048
dugog	10049
pripremu	10050
srpskog	10051
budem	10052
##_27186	10053
odjednom	10054
mandatu	10055
crvena	10056
zgradi	10057
privatnom	10058
zabave	10059
količina	10060
kamera	10061
naknadno	10062
kvalifikacije	10063
govoreći	10064
osumnjičeni	10065
oglasila	10066
proizvođač	10067
razmatra	10068
podnijeti	10069
turudića	10070
mediteran	10071
mün	10072
##_26996	10073
eo	10074
il	10075
mnom	10076
opušta	10077
utor	10078
user	10079
##žnji	10080
##jen	10081
jenni	10082
##nina	10083
##car	10084
##tur	10085
tanju	10086
cari	10087
divlja	10088
cibo	10089
faza	10090
sobi	10091
soft	10092
naslije	10093
pomogao	10094
arhe	10095
domaćeg	10096
završilo	10097
studenata	10098
radnike	10099
bartu	10100
ivotu	10101
pravilo	10102
sjajna	10103
crvene	10104
zeleni	10105
nestabi	10106
emitira	10107
dogovorili	10108
korču	10109
natječaja	10110
televizij	10111
umirovljenika	10112
pohvaliti	10113
zahvaliti	10114
aplikacije	10115
dvostruko	10116
tramva	10117
omogućava	10118
youtube	10119
ip	10120
spusti	10121
ždrije	10122
##nia	10123
##viji	10124
zapada	10125
##kalo	10126
supe	10127
malog	10128
##šena	10129
bosan	10130
dia	10131
druženje	10132
##gio	10133
labora	10134
rođena	10135
cirku	10136
moraš	10137
##onal	10138
soci	10139
cesto	10140
pozicija	10141
##lanta	10142
odgovore	10143
natjecatelj	10144
svakoga	10145
ekipi	10146
oporba	10147
komuna	10148
odjel	10149
##linar	10150
vjerojatnost	10151
##larm	10152
povjerenja	10153
glasati	10154
marijana	10155
kombinacija	10156
gostovanju	10157
konkretno	10158
period	10159
položaj	10160
veznjak	10161
pritvor	10162
okonča	10163
svlačio	10164
prebivali	10165
išla	10166
kranj	10167
uve	10168
nadi	10169
##val	10170
##mas	10171
rakete	10172
##njenim	10173
matić	10174
##čavanje	10175
lit	10176
vanju	10177
trećoj	10178
##žih	10179
lana	10180
straha	10181
##tivnom	10182
moguća	10183
slavni	10184
fazu	10185
ceremo	10186
školo	10187
napadima	10188
buduće	10189
prostorija	10190
smjer	10191
vidjelo	10192
odredi	10193
zlatne	10194
ukupne	10195
općini	10196
zauvijek	10197
osobnog	10198
stresa	10199
pariz	10200
zabrane	10201
manjina	10202
postupno	10203
mađarske	10204
sveučilištu	10205
školske	10206
ubijeno	10207
##_2717954	10208
besplatno	10209
osnivač	10210
cjelokup	10211
namirnica	10212
najgore	10213
počinitelj	10214
obavijest	10215
rakitić	10216
krumpir	10217
uteme	10218
hen	10219
initi	10220
uvid	10221
pogle	10222
zali	10223
dovr	10224
##lovima	10225
prove	10226
##njenje	10227
##zivati	10228
pavić	10229
vic	10230
##ping	10231
jače	10232
jasna	10233
bože	10234
stalo	10235
konsta	10236
usvoji	10237
trž	10238
šimu	10239
većim	10240
njemačkom	10241
uređenja	10242
službenim	10243
0000	10244
najavili	10245
promjenji	10246
marić	10247
muškar	10248
nedjelja	10249
odjeću	10250
iznenadio	10251
pisalo	10252
dokument	10253
neuro	10254
domovinskom	10255
obuhvaća	10256
zaustavlja	10257
ulaganje	10258
objekt	10259
sekunde	10260
dodije	10261
epizoda	10262
pregovora	10263
gostuju	10264
civilne	10265
namijenjen	10266
dvoboja	10267
nafte	10268
zvonimir	10269
obrazlo	10270
;&	10271
hvali	10272
htt	10273
win	10274
##šljen	10275
namet	10276
danom	10277
##lea	10278
prilog	10279
točke	10280
točka	10281
noćenja	10282
miran	10283
##čito	10284
nivo	10285
viktor	10286
##čavaju	10287
borac	10288
puljak	10289
start	10290
rubu	10291
konzul	10292
igramo	10293
brodova	10294
dodali	10295
nastave	10296
marković	10297
dvorane	10298
hitnu	10299
ger	10300
nadbi	10301
vojnog	10302
određeni	10303
središte	10304
radnom	10305
2007	10306
odraditi	10307
ozlijeđeno	10308
perfor	10309
promijenila	10310
privatne	10311
radost	10312
premier	10313
izbjeći	10314
jugoisto	10315
prethodne	10316
povezan	10317
trajanja	10318
poznatih	10319
restoranu	10320
portugala	10321
mladost	10322
asfa	10323
nekadašnji	10324
posade	10325
razvijati	10326
petrović	10327
kvadrata	10328
dvoboju	10329
bidena	10330
pilot	10331
u010	10332
##ysqli	10333
?'	10334
ast	10335
dla	10336
išta	10337
ms	10338
ry	10339
##3_	10340
##tal	10341
nedugo	10342
raketa	10343
prezen	10344
mike	10345
stvo	10346
timu	10347
kum	10348
kuku	10349
prijevoza	10350
vlak	10351
leona	10352
##lnici	10353
slam	10354
ribar	10355
godišnju	10356
kompro	10357
petri	10358
čudno	10359
slične	10360
bliskom	10361
primjera	10362
kulturno	10363
##ljivost	10364
ukupna	10365
jednostavan	10366
ploče	10367
transfer	10368
privatnog	10369
razumje	10370
zemljišta	10371
posebne	10372
katarina	10373
vreći	10374
kineski	10375
uzeli	10376
daljnji	10377
odgoj	10378
aviona	10379
predizbo	10380
tragedije	10381
četvrtfinalu	10382
aleksandra	10383
jedanae	10384
89	10385
crni	10386
knin	10387
##ara	10388
##oni	10389
##bs	10390
##rad	10391
##rač	10392
##raz	10393
##nau	10394
zavje	10395
##vene	10396
odšte	10397
proko	10398
##mene	10399
mona	10400
mae	10401
nović	10402
nogama	10403
nija	10404
veo	10405
##zapad	10406
osla	10407
disa	10408
bačić	10409
usredo	10410
##rativ	10411
farma	10412
fasci	10413
stvarima	10414
nastao	10415
pitala	10416
interak	10417
bliski	10418
dolaskom	10419
glazbenika	10420
oboga	10421
čekati	10422
tradicije	10423
kupci	10424
djevojčice	10425
nedostaja	10426
konzumi	10427
kvalifikacijama	10428
okupljanje	10429
poštovanje	10430
obratio	10431
suparni	10432
neovisno	10433
bombar	10434
dječjeg	10435
neretvan	10436
180	10437
480	10438
ari	10439
grije	10440
nt	10441
pče	10442
plije	10443
##šle	10444
##4_	10445
počne	10446
kožu	10447
salo	10448
gorica	10449
mislav	10450
##zaciji	10451
bosni	10452
##dnice	10453
tiho	10454
##vnije	10455
traju	10456
čimbe	10457
austrije	10458
objašnje	10459
krem	10460
##krea	10461
branio	10462
mark	10463
dijelova	10464
all	10465
svijest	10466
ljetne	10467
obalu	10468
domagoj	10469
dolasku	10470
nacionalnoj	10471
prodaja	10472
knjizi	10473
osnovnih	10474
izvoz	10475
policijska	10476
opremu	10477
##desetih	10478
bloka	10479
partnerom	10480
objekta	10481
sjećam	10482
talijanskog	10483
zvuči	10484
prestati	10485
christi	10486
autobus	10487
špiju	10488
starijih	10489
olakša	10490
washington	10491
naoruža	10492
https	10493
thi	10494
##sca	10495
##ssa	10496
##pta	10497
pomis	10498
##text	10499
zadr	10500
mau	10501
##demo	10502
verba	10503
obnova	10504
rude	10505
lou	10506
plave	10507
ljubo	10508
roko	10509
##field	10510
ciju	10511
izborne	10512
izbornika	10513
krenulo	10514
pitanjima	10515
dionice	10516
umjetnost	10517
dugogodi	10518
ulaska	10519
zaštititi	10520
stranku	10521
potvrda	10522
budemo	10523
prirodno	10524
savjete	10525
poduzetnika	10526
namjerno	10527
igno	10528
povezanost	10529
cijelosti	10530
željka	10531
temama	10532
graditelj	10533
udarca	10534
epizode	10535
poplava	10536
oluja	10537
manifestacija	10538
oštro	10539
tekući	10540
jennifer	10541
arheo	10542
anima	10543
zagor	10544
zamisliti	10545
daj	10546
dama	10547
dotak	10548
##lovi	10549
##vera	10550
##veni	10551
kade	10552
##leko	10553
govo	10554
##tus	10555
viša	10556
##zad	10557
##ljni	10558
dino	10559
tina	10560
granici	10561
pravilima	10562
muški	10563
ovome	10564
leža	10565
odluci	10566
prijavio	10567
širom	10568
pozitivne	10569
sigurnosne	10570
očekujem	10571
zatvoren	10572
obolje	10573
2005	10574
inflacija	10575
postigli	10576
zlou	10577
bend	10578
šoka	10579
tradiciju	10580
promijenilo	10581
zanimljiva	10582
vrhunski	10583
1990	10584
povratku	10585
naučiti	10586
zadnjem	10587
akademi	10588
austral	10589
poplave	10590
oliver	10591
ovlasti	10592
najnovije	10593
':	10594
aro	10595
ijom	10596
opisuje	10597
use	10598
zime	10599
##2_	10600
dalji	10601
##loška	10602
princi	10603
molim	10604
motora	10605
tepi	10606
##pova	10607
##posle	10608
viđa	10609
osna	10610
dir	10611
pere	10612
peru	10613
čelnik	10614
beba	10615
jučera	10616
ruci	10617
živa	10618
ovac	10619
riješi	10620
trik	10621
kriza	10622
foru	10623
državna	10624
pomogli	10625
tromjese	10626
održavaju	10627
trudi	10628
grup	10629
izgledaju	10630
nezaposle	10631
zahtjeve	10632
izvješ	10633
turske	10634
engleske	10635
slovenija	10636
reagira	10637
sjedinjene	10638
energija	10639
nabave	10640
detaljno	10641
oprosti	10642
mamić	10643
otvaranju	10644
horoskop	10645
900	10646
bm	10647
ilo	10648
kno	10649
##int	10650
##tch	10651
##šci	10652
##mg	10653
##ladi	10654
##jaka	10655
iznose	10656
prozor	10657
miši	10658
oscara	10659
stanica	10660
jure	10661
otpu	10662
rob	10663
##mentira	10664
dodatnu	10665
krista	10666
##čnosti	10667
morat	10668
izasla	10669
marku	10670
tvrtku	10671
guver	10672
reakciju	10673
snažan	10674
pojava	10675
vozilima	10676
france	10677
trudno	10678
pronađeno	10679
odrasta	10680
poljska	10681
ugovore	10682
savjetuje	10683
pratite	10684
financijskih	10685
trajanju	10686
prijedloga	10687
redatelja	10688
dozvolu	10689
financiranje	10690
paul	10691
kombinaciji	10692
barcelone	10693
samostalno	10694
ispitanika	10695
mlijeka	10696
najstariji	10697
iko	10698
pse	10699
##vp	10700
##šnim	10701
##znost	10702
poba	10703
kamp	10704
raski	10705
mojim	10706
##bine	10707
parova	10708
liniju	10709
##žile	10710
najbi	10711
peci	10712
plaži	10713
krama	10714
##ord	10715
auta	10716
anton	10717
objaviti	10718
aktivni	10719
hod	10720
lijek	10721
crnu	10722
##plasi	10723
teksta	10724
istan	10725
bitna	10726
glazbi	10727
karlov	10728
udalje	10729
##vedena	10730
automobile	10731
matej	10732
custom	10733
zdravstveni	10734
nestala	10735
neuspje	10736
planiraju	10737
otvorili	10738
poginula	10739
ograničenja	10740
vraćaju	10741
komentari	10742
policajaca	10743
identiteta	10744
ubijen	10745
diploma	10746
vukovaru	10747
nastoji	10748
trgovini	10749
suparnika	10750
hercegovini	10751
automatski	10752
eurosongu	10753
ometa	10754
##lit	10755
zao	10756
zapi	10757
izosta	10758
saša	10759
priči	10760
##del	10761
reče	10762
##ljev	10763
misija	10764
##bac	10765
##čevi	10766
##građa	10767
putina	10768
din	10769
starta	10770
deli	10771
ruskom	10772
laži	10773
plaža	10774
buk	10775
leti	10776
ciji	10777
ciga	10778
srebro	10779
državnim	10780
sobu	10781
svojedobno	10782
obranio	10783
tjednu	10784
njezinim	10785
nećete	10786
visok	10787
očima	10788
bivšim	10789
zabavu	10790
uzrokova	10791
kupaca	10792
shvatila	10793
madridu	10794
slušati	10795
digitalne	10796
visine	10797
naselju	10798
počast	10799
najmlađi	10800
baturina	10801
performan	10802
?",	10803
iona	10804
tlo	10805
ušte	10806
zma	10807
ćo	10808
##zde	10809
##pljen	10810
napro	10811
##tolog	10812
davno	10813
dou	10814
kat	10815
iznio	10816
nožem	10817
##dol	10818
meg	10819
oslanja	10820
predlaže	10821
jose	10822
petko	10823
pija	10824
kino	10825
anke	10826
fonda	10827
pomogne	10828
predstavu	10829
žuti	10830
integri	10831
grob	10832
kladio	10833
organizaciju	10834
covid	10835
radnik	10836
zgradu	10837
interesu	10838
spremno	10839
namjerava	10840
financijska	10841
ispuniti	10842
zaslužuje	10843
dostupna	10844
presuda	10845
presude	10846
kazališta	10847
termin	10848
prijetnji	10849
uslijedio	10850
blagdana	10851
odobre	10852
autobusa	10853
avion	10854
voljela	10855
naselje	10856
povukao	10857
mobitela	10858
broncu	10859
parlamentarne	10860
##_info	10861
bjeloru	10862
stožera	10863
podrazumijeva	10864
ionako	10865
blan	10866
ola	10867
spu	10868
##ine	10869
##šnjak	10870
##zra	10871
##use	10872
##plus	10873
##diran	10874
setu	10875
donje	10876
doveli	10877
neven	10878
bitan	10879
radna	10880
magne	10881
rej	10882
##povi	10883
tamara	10884
##duju	10885
pupo	10886
sveta	10887
debe	10888
peda	10889
dulji	10890
rukom	10891
lova	10892
djeluju	10893
sposob	10894
lee	10895
opsta	10896
##štene	10897
dodatak	10898
slaže	10899
šesti	10900
studio	10901
liječenja	10902
prijateljica	10903
šić	10904
političari	10905
dvorana	10906
njezinog	10907
govorim	10908
vuče	10909
hranom	10910
kruga	10911
srpska	10912
tereti	10913
emocija	10914
djelomično	10915
pratili	10916
poduzeti	10917
jima	10918
osobnim	10919
naglasiti	10920
sklada	10921
željela	10922
svjedoci	10923
profil	10924
vodstva	10925
isplati	10926
kakvom	10927
dječji	10928
šibensko	10929
migranata	10930
državljanin	10931
vjenčanja	10932
korake	10933
mentalno	10934
ciklus	10935
uvelike	10936
đurđe	10937
utorka	10938
usredoto	10939
iri	10940
plja	10941
##llo	10942
##klom	10943
##scima	10944
##hd	10945
pohva	10946
kot	10947
##diju	10948
kau	10949
odvoje	10950
prođe	10951
sajam	10952
##mero	10953
prizor	10954
toli	10955
rekrea	10956
##njavaju	10957
noka	10958
ćeš	10959
die	10960
divlje	10961
najskup	10962
pepe	10963
južne	10964
znakovi	10965
konte	10966
##sov	10967
uzv	10968
slatki	10969
gradskim	10970
prošlost	10971
nadma	10972
raspro	10973
uređenje	10974
vlastiti	10975
koristili	10976
sastava	10977
party	10978
učenike	10979
izgradnji	10980
sjevernoj	10981
dijabe	10982
primiti	10983
raspravlja	10984
susjedi	10985
stabilnost	10986
dončić	10987
solida	10988
prisjeća	10989
treningu	10990
belupo	10991
iznajmljiva	10992
htv	10993
poprilično	10994
./	10995
ada	10996
aku	10997
ogleda	10998
##lsea	10999
##gnuo	11000
koljena	11001
dovrše	11002
kanali	11003
##bai	11004
nigdje	11005
##ček	11006
care	11007
##čat	11008
mešt	11009
pul	11010
vođa	11011
dezin	11012
kut	11013
juven	11014
jurić	11015
ruše	11016
činiti	11017
ovakvih	11018
soba	11019
autorica	11020
klupe	11021
lijevo	11022
gradnje	11023
mjesecu	11024
pojave	11025
vratara	11026
smještaja	11027
futsa	11028
zovu	11029
posjetiti	11030
andrija	11031
dnevnika	11032
poljskoj	11033
pratitelja	11034
turizmu	11035
greške	11036
konferencijske	11037
izbornog	11038
oduševila	11039
otvaranja	11040
dubrovačko	11041
chelsea	11042
suprot	11043
kovačević	11044
ekonomski	11045
naobla	11046
jačanje	11047
pregovore	11048
zagr	11049
helikopter	11050
vožnju	11051
michael	11052
upotrije	11053
pohađa	11054
dortmund	11055
futsal	11056
06	11057
unija	11058
##fli	11059
##rat	11060
nađe	11061
##ney	11062
kan	11063
kava	11064
kale	11065
kasni	11066
##med	11067
ratne	11068
mojih	11069
##ganja	11070
reme	11071
viro	11072
vekić	11073
štoviše	11074
lici	11075
bodove	11076
svome	11077
tipi	11078
juna	11079
rod	11080
žiri	11081
strašno	11082
leži	11083
vješti	11084
stoper	11085
stotina	11086
slado	11087
dobiju	11088
195	11089
fanovi	11090
ritam	11091
hodo	11092
trga	11093
izašla	11094
##ntna	11095
cestu	11096
tjedni	11097
odgovoran	11098
##nijim	11099
očevid	11100
sličan	11101
prostorije	11102
bliže	11103
smješten	11104
koncept	11105
kandidi	11106
takvom	11107
nikole	11108
odradili	11109
učenicima	11110
funkciona	11111
donijelo	11112
sjeverni	11113
mrša	11114
popularna	11115
zaradio	11116
droga	11117
vladimira	11118
oduševio	11119
brzinom	11120
shvatili	11121
komunikacije	11122
sky	11123
klubovima	11124
slavoniji	11125
iznosa	11126
inicijativa	11127
rješavanje	11128
veterina	11129
kraljica	11130
mještani	11131
pozadi	11132
leyen	11133
bayerna	11134
ata	11135
ble	11136
evan	11137
ir	11138
icom	11139
ml	11140
okrša	11141
##kvog	11142
##ption	11143
##hen	11144
##w_	11145
načinu	11146
##lišta	11147
sakri	11148
većem	11149
##čane	11150
bošnja	11151
osve	11152
stabili	11153
##đenjem	11154
benja	11155
piz	11156
podca	11157
duje	11158
duna	11159
glavnu	11160
živim	11161
ženi	11162
ansam	11163
objavlji	11164
stoj	11165
dvadesetak	11166
organizirati	11167
gledam	11168
uvjet	11169
##đivanja	11170
posjeta	11171
2004	11172
otvorene	11173
učesta	11174
izdao	11175
prirodni	11176
savjeta	11177
skandi	11178
demon	11179
korisnike	11180
proslavio	11181
ljudskih	11182
stvarnosti	11183
prehrane	11184
policajac	11185
jadrana	11186
prihvatio	11187
donna	11188
miroslav	11189
podnio	11190
adresu	11191
izvući	11192
zatražio	11193
proljeće	11194
preveze	11195
##scription	11196
angažman	11197
zaroblje	11198
neprijatelj	11199
bundesli	11200
rekavši	11201
istanbu	11202
7plus	11203
cjeli	11204
ivanje	11205
zvao	11206
##krati	11207
nared	11208
koš	11209
##loško	11210
pristi	11211
modi	11212
gotovi	11213
##čilo	11214
##čem	11215
jana	11216
##sezo	11217
##ćama	11218
razve	11219
kuka	11220
potpisuje	11221
otpor	11222
uzme	11223
prijesto	11224
king	11225
objavljuje	11226
tribina	11227
dobivaju	11228
holly	11229
trenutaka	11230
##landa	11231
predstavljen	11232
drugoga	11233
trojica	11234
skok	11235
najvećeg	11236
vojsku	11237
povijesni	11238
##colum	11239
ustav	11240
djelovati	11241
ekološki	11242
ekskluzi	11243
pripremama	11244
prometni	11245
zamjenu	11246
sukobu	11247
parale	11248
provjerite	11249
započeti	11250
snimio	11251
naknada	11252
inicijative	11253
psg	11254
svladali	11255
dijelovi	11256
partiza	11257
obratiti	11258
predvodio	11259
najljepše	11260
izvođača	11261
##query	11262
advent	11263
jdatabasequery	11264
najvjerojatnije	11265
hs	11266
lj	11267
##znog	11268
natrag	11269
##liju	11270
##rinu	11271
##kana	11272
doigra	11273
suigra	11274
biraju	11275
izdrža	11276
miho	11277
stvore	11278
pušten	11279
##ljima	11280
bespi	11281
ruskim	11282
lar	11283
djelu	11284
lete	11285
orban	11286
rio	11287
širenje	11288
nekima	11289
ovci	11290
gume	11291
drasti	11292
proizvodnji	11293
njezinih	11294
##hua	11295
ulaze	11296
pronađen	11297
istaknu	11298
splitskom	11299
posjetio	11300
##comments	11301
iskusni	11302
francuskog	11303
zid	11304
subota	11305
##_2710	11306
novinarka	11307
pozvali	11308
##kovac	11309
srijede	11310
pojedinim	11311
emisiju	11312
analiza	11313
analize	11314
razmišljati	11315
polufinala	11316
okrenuti	11317
roberta	11318
spasiti	11319
intenzivno	11320
uređaj	11321
##tten	11322
planina	11323
barceloni	11324
snijega	11325
teških	11326
simptomi	11327
tribine	11328
zapošljavanje	11329
čelnici	11330
menadžer	11331
uznemi	11332
cjepi	11333
ekonomi	11334
filozof	11335
middle	11336
reflek	11337
uzvrati	11338
bespilo	11339
av	11340
ero	11341
efika	11342
ella	11343
oka	11344
sco	11345
špa	11346
##ano	11347
##cke	11348
##jnim	11349
##čnik	11350
##ek	11351
##racije	11352
napi	11353
načine	11354
sel	11355
dopustiti	11356
odba	11357
rasi	11358
marije	11359
##ženih	11360
bok	11361
##ljivim	11362
bala	11363
sira	11364
sing	11365
čelnika	11366
praksi	11367
ljuti	11368
žirija	11369
čista	11370
dodati	11371
son	11372
socio	11373
svojeg	11374
šesna	11375
gradnju	11376
obaviti	11377
odgovora	11378
intelek	11379
brige	11380
pogon	11381
njemačkog	11382
dugotra	11383
publikom	11384
koncent	11385
zdravko	11386
klara	11387
temelje	11388
radnim	11389
nesreću	11390
sredstvo	11391
zapadni	11392
prometnu	11393
važnu	11394
izraelska	11395
uživaju	11396
odjeće	11397
pravilu	11398
ozlijeđena	11399
pisati	11400
razgovori	11401
dogovora	11402
zabranjeno	11403
pritiska	11404
oštećenja	11405
smanjenja	11406
povodu	11407
komentirali	11408
sjajne	11409
učinkoviti	11410
kalinić	11411
dužnosnika	11412
obožavatelji	11413
glumca	11414
imuni	11415
južnoj	11416
obljetnice	11417
itemauthor	11418
započinje	11419
bmw	11420
alu	11421
aba	11422
iju	11423
oluje	11424
x2	11425
##drom	11426
sugrađa	11427
nez	11428
kakvi	11429
odboj	11430
##kica	11431
rati	11432
preveli	11433
##gaja	11434
requi	11435
vesna	11436
lika	11437
banko	11438
siste	11439
##zore	11440
##zori	11441
kud	11442
piće	11443
praksa	11444
musi	11445
konstan	11446
vjerni	11447
fond	11448
gur	11449
realno	11450
troši	11451
pronađena	11452
vlastitim	11453
##znicu	11454
gradovi	11455
ključ	11456
predstavljanje	11457
naročito	11458
povezani	11459
poljud	11460
aler	11461
pozivamo	11462
županijske	11463
profesionalni	11464
stupnja	11465
kontaktu	11466
redovima	11467
obećao	11468
manifestacije	11469
napomenuo	11470
najteže	11471
pokraji	11472
obrtni	11473
argenti	11474
pašalić	11475
jandroković	11476
avi	11477
upis	11478
wc	11479
##it	11480
##ncima	11481
##znim	11482
##lilo	11483
pomije	11484
##namje	11485
##tes	11486
##canja	11487
izba	11488
##media	11489
ratni	11490
teškom	11491
nives	11492
pažnje	11493
venti	11494
##pija	11495
##dora	11496
mete	11497
liniji	11498
boju	11499
najdu	11500
podzem	11501
las	11502
otkad	11503
krajeva	11504
ankete	11505
zet	11506
postaja	11507
postavljen	11508
nastavit	11509
političkim	11510
kompone	11511
miss	11512
poslovnog	11513
270	11514
svjetskim	11515
minus	11516
minutu	11517
ivane	11518
maria	11519
počinio	11520
djevojku	11521
zaposlenici	11522
wimble	11523
##width	11524
zadovoljna	11525
dodik	11526
koprivnici	11527
odvjetništvu	11528
prisjetio	11529
privlači	11530
primorsko	11531
smeće	11532
belupa	11533
twitter	11534
umrla	11535
metropo	11536
biznis	11537
ivanja	11538
uvesti	11539
ugled	11540
war	11541
##gr	11542
##krije	11543
prepo	11544
##pat	11545
##zar	11546
lider	11547
bojan	11548
trendo	11549
grana	11550
sinu	11551
##hod	11552
dušu	11553
živjela	11554
##strom	11555
vrha	11556
2027	11557
slavila	11558
soa	11559
sigur	11560
##ford	11561
domaća	11562
nikakav	11563
urednik	11564
koncerata	11565
sportskim	11566
onemogu	11567
katedra	11568
narodne	11569
bijela	11570
turski	11571
gubitka	11572
električnih	11573
površina	11574
branka	11575
fotografijama	11576
široko	11577
inspektora	11578
terori	11579
klimatske	11580
neugodno	11581
origina	11582
marketin	11583
samouprave	11584
individua	11585
tambura	11586
incpt	11587
cnn	11588
spušta	11589
ww	11590
zbri	11591
##vred	11592
##zdi	11593
##33	11594
##nij	11595
##nicom	11596
##rilo	11597
##vost	11598
##dile	11599
sur	11600
kazni	11601
prolaze	11602
presre	11603
mou	11604
masno	11605
mio	11606
merce	11607
jane	11608
##ćenih	11609
staza	11610
##pez	11611
##zon	11612
dečko	11613
bebe	11614
ruži	11615
ručak	11616
ostavite	11617
hak	11618
vježbe	11619
##trotext	11620
čan	11621
stupanj	11622
zdrave	11623
ljeti	11624
posljednjoj	11625
dragu	11626
##brani	11627
umjereno	11628
osjetio	11629
pojas	11630
hek	11631
čudi	11632
##tiraju	11633
potpuni	11634
premijeru	11635
činilo	11636
vozače	11637
idući	11638
idućih	11639
oprez	11640
zauzima	11641
##tovalu	11642
pacijent	11643
prehranu	11644
portala	11645
naknadu	11646
koalicija	11647
primijetili	11648
dizajner	11649
sastoji	11650
kopnu	11651
najpoznatijih	11652
##content	11653
front	11654
napominju	11655
pantov	11656
alexan	11657
trajekt	11658
donesena	11659
pogorša	11660
kriptovalu	11661
naranča	11662
incptvo	11663
cru	11664
gli	11665
umije	11666
##nga	11667
##fs	11668
##kore	11669
##manu	11670
dat	11671
suk	11672
nei	11673
nemi	11674
odlaze	11675
birali	11676
##movima	11677
proše	11678
##stav	11679
##govi	11680
reha	11681
##njaka	11682
vida	11683
vidović	11684
##čare	11685
##gue	11686
meča	11687
jack	11688
borila	11689
voze	11690
bau	11691
razd	11692
predsto	11693
samoj	11694
##vljenih	11695
krijum	11696
držao	11697
faši	11698
odlučuju	11699
stvaranju	11700
nastavili	11701
prijavila	11702
dvojice	11703
##braja	11704
nikakvih	11705
vozilu	11706
spavati	11707
smatramo	11708
zajednicu	11709
nastupe	11710
fotograf	11711
organizator	11712
zlatni	11713
njaci	11714
##tkinje	11715
benčić	11716
kilometra	11717
temperaturu	11718
bogate	11719
studij	11720
popularnost	11721
zabrana	11722
prisutnost	11723
pritiskom	11724
izlaska	11725
komentator	11726
interneta	11727
smrtno	11728
osvajanje	11729
verzija	11730
seksualno	11731
aplikacija	11732
propustio	11733
jugoslaven	11734
ambicio	11735
fenomena	11736
preokret	11737
tonči	11738
kapital	11739
perspektive	11740
world	11741
##zapadnjak	11742
sladole	11743
ic	11744
sletio	11745
zvi	11746
##šnu	11747
##žnost	11748
##mak	11749
zaprije	11750
kocki	11751
seta	11752
izveo	11753
prola	11754
saj	11755
predan	11756
mosto	11757
##gar	11758
##port	11759
mela	11760
stroja	11761
litara	11762
##šaka	11763
tiska	11764
##zović	11765
potje	11766
rusko	11767
glavnim	11768
spozna	11769
osobom	11770
stiho	11771
braniti	11772
nula	11773
održala	11774
vojnu	11775
četvrta	11776
učinili	11777
osjećati	11778
opasne	11779
pričati	11780
upozorila	11781
kontrolom	11782
nedaleko	11783
olimpijski	11784
pravilno	11785
povjere	11786
povjesni	11787
pojedinci	11788
1995	11789
kvarta	11790
izazvalo	11791
oduševljeni	11792
navedene	11793
budimpe	11794
protuzra	11795
zabrinuti	11796
ozljedama	11797
umirovljenici	11798
svečano	11799
koraka	11800
sjednica	11801
hvale	11802
izjednačio	11803
vinogra	11804
iii	11805
volodi	11806
nervo	11807
prezime	11808
rehabili	11809
ah	11810
dnu	11811
kel	11812
mm	11813
spri	11814
##slje	11815
##_ca	11816
pošta	11817
##noda	11818
zab	11819
##cati	11820
suću	11821
odvo	11822
press	11823
mobili	11824
reli	11825
##pama	11826
nijan	11827
boban	11828
##ljno	11829
najbr	11830
kupili	11831
pratio	11832
bub	11833
habijan	11834
slasti	11835
slabi	11836
dobitnik	11837
životom	11838
pobjegao	11839
nutri	11840
potrebama	11841
article	11842
istražuje	11843
ponoći	11844
prekomje	11845
slobodne	11846
dinamom	11847
gospođa	11848
određenih	11849
zlatnu	11850
zakonoda	11851
općinskog	11852
neod	11853
posljednjim	11854
međunarodnim	11855
iskorak	11856
interese	11857
predavanja	11858
konferencija	11859
operaciju	11860
profimedia	11861
raspravu	11862
energijom	11863
koristeći	11864
mišljenju	11865
održivog	11866
zabilježen	11867
primijetio	11868
dizajne	11869
regionalne	11870
epizodi	11871
brigade	11872
čvrsto	11873
metoda	11874
rusijom	11875
anđel	11876
orkestar	11877
kijev	11878
teritoriju	11879
middleton	11880
snova	11881
tki	11882
##author	11883
##zdan	11884
##pper	11885
##win	11886
naglo	11887
##rovima	11888
##kovića	11889
##nen	11890
ram	11891
##lude	11892
##pol	11893
likvi	11894
##ljić	11895
sila	11896
sile	11897
jones	11898
duša	11899
plaže	11900
muž	11901
rome	11902
stranim	11903
ostanak	11904
antho	11905
richa	11906
sola	11907
poveli	11908
ministara	11909
otkriveno	11910
uspjehe	11911
ponovio	11912
ponoviti	11913
##njski	11914
##krat	11915
kardio	11916
potvrditi	11917
koristite	11918
radnicima	11919
zapadnoj	11920
podršci	11921
utvrditi	11922
međunarodnom	11923
očekivao	11924
institucijama	11925
milanoviću	11926
količinu	11927
čitav	11928
break	11929
uvoz	11930
beograda	11931
pripremili	11932
ispao	11933
odobri	11934
pažljivo	11935
dovoljan	11936
frizu	11937
medved	11938
izbjegavati	11939
minimalno	11940
obaveza	11941
kuhinji	11942
gostujući	11943
##cioniran	11944
farmer	11945
tribinama	11946
očuvanje	11947
povjerenstva	11948
najgori	11949
dvorištu	11950
kneže	11951
odabir	11952
opus	11953
sudjelovalo	11954
grmljavinom	11955
psihijatri	11956
dizel	11957
incptvocm	11958
anthony	11959
hy	11960
itelj	11961
my	11962
##zmi	11963
##gni	11964
##nine	11965
##tost	11966
##nea	11967
odbije	11968
odbaci	11969
##mović	11970
tota	11971
govoru	11972
tešku	11973
maje	11974
##čini	11975
nisi	11976
nijih	11977
pavi	11978
parovi	11979
##sand	11980
##bet	11981
beno	11982
podnosi	11983
pranje	11984
field	11985
##sona	11986
takoz	11987
stići	11988
lijeve	11989
medijske	11990
crta	11991
pojašnjava	11992
brigu	11993
zajedničke	11994
službenoj	11995
povijesne	11996
160	11997
unaro	11998
poluvrijeme	11999
stručni	12000
domaćini	12001
provoka	12002
otocima	12003
iznenada	12004
kupcima	12005
zdravstvenog	12006
zeleno	12007
očekivali	12008
poduzetnik	12009
instant	12010
smijemo	12011
predavanje	12012
financijsku	12013
analizira	12014
varaždinska	12015
povrća	12016
ljudski	12017
manjine	12018
zaustavio	12019
smanjio	12020
epide	12021
budimir	12022
zadnjeg	12023
spasila	12024
mjerama	12025
postavljanje	12026
nizozemska	12027
samih	12028
sindikat	12029
pregovori	12030
haljini	12031
haljinu	12032
kopne	12033
amerikanci	12034
zadužen	12035
petero	12036
teritorij	12037
dobrodošli	12038
laboratori	12039
03	12040
h_272090	12041
ića	12042
nsku	12043
npr	12044
o_272090	12045
s_	12046
tka	12047
uop	12048
udobno	12049
zvali	12050
čkih	12051
##znici	12052
##zmom	12053
##jela	12054
##tis	12055
porije	12056
poviše	12057
##vare	12058
##teljem	12059
##logom	12060
ranim	12061
vile	12062
##želj	12063
##gua	12064
jah	12065
obnovi	12066
##ćan	12067
##žilo	12068
hrvate	12069
najo	12070
tić	12071
sisa	12072
dubai	12073
mješa	12074
otku	12075
rom	12076
bubre	12077
lepo	12078
vjere	12079
##her	12080
osoblje	12081
krivi	12082
izborio	12083
životne	12084
riski	12085
imple	12086
odlučuje	12087
zdravi	12088
političkom	12089
arti	12090
posljednju	12091
fener	12092
hitna	12093
sigurnosnih	12094
njezinoj	12095
frank	12096
slikar	12097
četvrto	12098
nastupila	12099
kulturi	12100
##cht	12101
odabrati	12102
obojica	12103
ključan	12104
struko	12105
pp_272090	12106
isposta	12107
plovid	12108
policijskih	12109
zdravstveno	12110
međunarodna	12111
funkcije	12112
ambije	12113
uspješna	12114
weight	12115
prethodnih	12116
kućan	12117
komad	12118
starih	12119
ocjenji	12120
pogreške	12121
pogrešno	12122
vjenčanje	12123
strijel	12124
prisjetila	12125
kretanje	12126
promila	12127
oblačno	12128
sjednicu	12129
indeks	12130
telefona	12131
krevet	12132
krevetu	12133
suzdrža	12134
liverpool	12135
osmijeh	12136
##_the_	12137
agro	12138
cle	12139
cristi	12140
eras	12141
irati	12142
kw	12143
k_272090	12144
oži	12145
tlak	12146
##rda	12147
pole	12148
##rec	12149
zale	12150
zastupa	12151
kolnika	12152
dolje	12153
kažnja	12154
izma	12155
##kinje	12156
manj	12157
rezi	12158
mirni	12159
vedran	12160
tag	12161
janko	12162
starom	12163
##bert	12164
depre	12165
desno	12166
piro	12167
svira	12168
straho	12169
ostavila	12170
audio	12171
kinu	12172
veličine	12173
krema	12174
tvrdio	12175
predstavila	12176
napali	12177
pojaviti	12178
hd_	12179
porasla	12180
taksi	12181
karlo	12182
podizanje	12183
surađi	12184
nacionalnu	12185
odabrao	12186
središnjoj	12187
opasna	12188
prirodne	12189
odjelu	12190
domaćim	12191
gorju	12192
##ktivni	12193
vezan	12194
šoku	12195
turistički	12196
okusa	12197
hladnja	12198
1998	12199
pripremaju	12200
branitelj	12201
turska	12202
andrea	12203
obusta	12204
zabranu	12205
vanjske	12206
engleskog	12207
prisutni	12208
prosvjeda	12209
izlazak	12210
zanimanja	12211
izmjenama	12212
uslijedila	12213
strogo	12214
odustati	12215
extra	12216
demokratske	12217
smrto	12218
simptome	12219
pogodila	12220
kulturnog	12221
milana	12222
ciklusa	12223
kredita	12224
učinkovitost	12225
thomas	12226
hezbolah	12227
arsenal	12228
nadzorni	12229
swift	12230
toleran	12231
danijel	12232
("	12233
ole	12234
uhva	12235
žar	12236
##dba	12237
##čom	12238
##žnosti	12239
##wer	12240
naji	12241
##ree	12242
zače	12243
dalo	12244
suze	12245
##metar	12246
reza	12247
##zaka	12248
lić	12249
stavili	12250
penal	12251
##mula	12252
duše	12253
usvaja	12254
uspr	12255
kirur	12256
civili	12257
cijep	12258
##lijeva	12259
tijesto	12260
190	12261
marce	12262
lijekova	12263
zdravo	12264
zajec	12265
drame	12266
šarić	12267
pogotkom	12268
događaje	12269
događalo	12270
borna	12271
službenika	12272
visoku	12273
gospoda	12274
regiju	12275
čekanja	12276
osnovi	12277
porezne	12278
bogata	12279
vatrogasne	12280
članak	12281
gorivo	12282
ljudsko	12283
razmišljanja	12284
ekstra	12285
navedeni	12286
lakši	12287
pluća	12288
talijanske	12289
stajati	12290
najvažnijih	12291
okupljanja	12292
oporavka	12293
šećer	12294
vožnji	12295
arhitektu	12296
virus	12297
barbara	12298
oružanih	12299
tromjeseč	12300
usprkos	12301
az	12302
cop	12303
len	12304
wel	12305
##ttom	12306
##mb	12307
##rator	12308
##tika	12309
naci	12310
pokva	12311
kosi	12312
##loškom	12313
izmije	12314
pristo	12315
mare	12316
matt	12317
repe	12318
nosa	12319
##tuzija	12320
padne	12321
putnici	12322
voće	12323
##šavanja	12324
##šina	12325
##njić	12326
##ljuju	12327
kuri	12328
pijan	12329
prakse	12330
djetetu	12331
glavno	12332
spot	12333
opg	12334
postanu	12335
životni	12336
klubom	12337
političara	12338
dionici	12339
ljetnih	12340
entuzija	12341
trošak	12342
pojavlji	12343
ukrajinskih	12344
brinuti	12345
vijeću	12346
četvrtine	12347
uredu	12348
internati	12349
pokušala	12350
grmo	12351
posjeduje	12352
transak	12353
tražila	12354
čovjeku	12355
gornji	12356
produže	12357
iznenađenja	12358
okupa	12359
elite	12360
elegan	12361
prekinuti	12362
potencijalne	12363
uhićenja	12364
povrće	12365
mirko	12366
trajao	12367
ljudske	12368
filipa	12369
nadalje	12370
strategije	12371
skupštini	12372
tvrtkama	12373
kazalištu	12374
susjeda	12375
ugostiti	12376
london	12377
mrtvih	12378
podrav	12379
uskrs	12380
vašim	12381
skandal	12382
otpadom	12383
djetinjstva	12384
nezadovoljstvo	12385
kviz	12386
tretman	12387
kontej	12388
09	12389
created	12390
etku	12391
lja	12392
opis	12393
##smje	12394
nasu	12395
polje	12396
pogađa	12397
pojma	12398
##rirao	12399
zadnjoj	12400
section	12401
mole	12402
padu	12403
##šene	12404
##section	12405
intri	12406
stavila	12407
balan	12408
nijedan	12409
čekao	12410
beka	12411
podvr	12412
podnese	12413
potpisi	12414
junio	12415
rođenja	12416
prijete	12417
trajno	12418
živjeli	12419
strast	12420
državnoj	12421
stije	12422
prošlu	12423
proizvodima	12424
ponosna	12425
jedin	12426
slobodnog	12427
kandidatima	12428
središnji	12429
glazbena	12430
pričao	12431
ids	12432
idućeg	12433
počinju	12434
očiju	12435
vezana	12436
tradicija	12437
zastupnica	12438
snimci	12439
funkciji	12440
polovici	12441
uslugu	12442
uzrokuje	12443
green	12444
##gnuta	12445
##plet	12446
proslave	12447
schol	12448
preuzela	12449
saznanja	12450
reality	12451
dostupni	12452
izmjena	12453
subsection	12454
##kovec	12455
cityja	12456
izdr	12457
egzi	12458
klimatskih	12459
libanonu	12460
sarajevo	12461
neprihvat	12462
baterija	12463
##burgu	12464
##_article_id	12465
main_article_id	12466
invazije	12467
nepresta	12468
poginulih	12469
##wood	12470
asistencije	12471
##_ocm	12472
veoma	12473
intelektua	12474
hranji	12475
pjaca	12476
ugra	12477
ugleda	12478
##uta	12479
##žniji	12480
porno	12481
##dine	12482
dame	12483
davati	12484
seksa	12485
sesve	12486
sučić	12487
nepa	12488
presko	12489
##politi	12490
cama	12491
javili	12492
life	12493
bazen	12494
desne	12495
prsten	12496
pravni	12497
lopez	12498
##sjeda	12499
##rth	12500
služe	12501
vrijedne	12502
sjede	12503
lijep	12504
prvaci	12505
odgovorili	12506
nadzora	12507
ponos	12508
vojnici	12509
dugom	12510
sustave	12511
splitske	12512
kandidaturu	12513
vlastitom	12514
prodati	12515
odras	12516
cure	12517
osnovnoj	12518
sljedećeg	12519
times	12520
funkcioni	12521
večera	12522
jugozapadni	12523
prepoznali	12524
iznosio	12525
street	12526
zahvaljujem	12527
posljedicama	12528
volimo	12529
priopćenje	12530
komentare	12531
belgija	12532
profesora	12533
britaniji	12534
ovogodišnje	12535
ovogodišnji	12536
obnovlji	12537
dužnosnik	12538
išlo	12539
popraviti	12540
autocesta	12541
idealno	12542
vrhovni	12543
thomp	12544
hgss	12545
dohodak	12546
zastrašu	12547
guverner	12548
www	12549
h_271988	12550
ito	12551
uvre	12552
štet	12553
##dnjom	12554
##bru	12555
##fur	12556
##rami	12557
nar	12558
povi	12559
zapu	12560
koži	12561
kampu	12562
odvoji	12563
sar	12564
prigovo	12565
nos	12566
##bala	12567
page	12568
##pin	12569
lisa	12570
puko	12571
stava	12572
eufo	12573
kupila	12574
peć	12575
rura	12576
log	12577
land	12578
musk	12579
svidje	12580
vještina	12581
radika	12582
slavlja	12583
trka	12584
braća	12585
pitati	12586
izrade	12587
dobrobit	12588
stepe	12589
tvrdnje	12590
gradskih	12591
istok	12592
gusto	12593
tjeste	12594
##cional	12595
otkrivaju	12596
odgovorni	12597
vuk	12598
funti	12599
mladića	12600
udalji	12601
podići	12602
grupu	12603
visokom	12604
određen	12605
središnje	12606
djelatni	12607
subot	12608
pp_271988	12609
mnoštvo	12610
crveno	12611
razgovore	12612
povrat	12613
birači	12614
uspješne	12615
analizu	12616
podijelili	12617
mijenjaju	12618
računati	12619
pružaju	12620
pozivam	12621
putuje	12622
doprinosi	12623
procjene	12624
##kovca	12625
reguli	12626
zatvorena	12627
međimur	12628
primorca	12629
moskvi	12630
postroje	12631
provedbu	12632
božića	12633
livaković	12634
volonte	12635
hormo	12636
spektakula	12637
odgovarati	12638
socijaldemo	12639
ms_	12640
pedago	12641
_1280	12642
##sce	12643
##mpom	12644
##nist	12645
zabili	12646
##tore	12647
odsje	12648
odbila	12649
izlaze	12650
sani	12651
rang	12652
mozak	12653
masti	12654
renata	12655
miste	12656
vatra	12657
divlji	12658
stane	12659
drugdje	12660
baza	12661
bacio	12662
desi	12663
devede	12664
laž	12665
ancelo	12666
##glav	12667
rija	12668
rivi	12669
importa	12670
izabrati	12671
najboljem	12672
rasproda	12673
ulazu	12674
nastupu	12675
automobili	12676
šum	12677
šume	12678
gradona	12679
napore	12680
##produ	12681
vlasnica	12682
savjetnik	12683
##chenu	12684
kvaliteti	12685
okupili	12686
zdravstvenim	12687
snimljen	12688
prosječne	12689
elimo	12690
nestao	12691
institut	12692
kritika	12693
konferenciju	12694
doživjeti	12695
proslava	12696
dronova	12697
pliva	12698
naglasak	12699
žrtvama	12700
termina	12701
stabilno	12702
vašoj	12703
stvorio	12704
prihod	12705
antonija	12706
pravda	12707
energetske	12708
slovenski	12709
trgovinu	12710
autoceste	12711
bomba	12712
odabrala	12713
uobičajeno	12714
banaka	12715
optimisti	12716
božinović	12717
ispitivanja	12718
prikazujemo	12719
doživljaj	12720
memorija	12721
zainteresirani	12722
hezbolaha	12723
gabriel	12724
napetosti	12725
bespovra	12726
hektara	12727
ancelotti	12728
elo	12729
##_na	12730
zap	12731
kolni	12732
košu	12733
dabro	12734
dovela	12735
proži	12736
saslu	12737
raza	12738
rađa	12739
predo	12740
monta	12741
gotov	12742
nin	12743
papri	12744
paketa	12745
bombe	12746
##dnike	12747
##ljivih	12748
njenom	12749
stabla	12750
bake	12751
##jor	12752
piva	12753
potpis	12754
ostavili	12755
sreća	12756
dodatna	12757
##vljenja	12758
životno	12759
čaj	12760
predstavi	12761
krov	12762
dram	12763
dragovo	12764
poznatim	12765
dvoranu	12766
glue	12767
kartu	12768
kandidate	12769
##znike	12770
kaznenom	12771
2003	12772
ključnu	12773
zadobio	12774
odrasle	12775
kontrolira	12776
kolestero	12777
plaćaju	12778
pisanju	12779
vrhunske	12780
večere	12781
elements	12782
popularne	12783
dočekao	12784
volite	12785
smanjenju	12786
završetku	12787
kratkoro	12788
pamti	12789
utječu	12790
kalifor	12791
agresije	12792
negativno	12793
opisala	12794
haljina	12795
predložio	12796
trenerom	12797
jakirovi	12798
napomenuti	12799
stričak	12800
detaljima	12801
ubojica	12802
kijevu	12803
macron	12804
gastronom	12805
spašavanja	12806
prepreka	12807
##element	12808
varteks	12809
proteklog	12810
usavr	12811
cigare	12812
jdatabasequeryelement	12813
##furl_	12814
ei	12815
ogor	12816
uti	12817
čkim	12818
##obu	12819
##ews	12820
##knuti	12821
##sco	12822
##lia	12823
povre	12824
povrije	12825
kovi	12826
dopušta	12827
suče	12828
izlet	12829
prolazak	12830
##mez	12831
prepla	12832
prim	12833
pridrža	12834
totten	12835
##gati	12836
temi	12837
tech	12838
##pao	12839
tagi	12840
janje	12841
punu	12842
druženja	12843
pedija	12844
garan	12845
krapi	12846
leo	12847
opciju	12848
cijevi	12849
slatko	12850
holi	12851
čas	12852
stvarati	12853
počele	12854
izraže	12855
političkoj	12856
osjetiti	12857
sigurnosni	12858
organizirao	12859
gledajući	12860
karci	12861
kruno	12862
teškoj	12863
black	12864
dubrov	12865
gradove	12866
optužen	12867
##llen	12868
uživali	12869
kvalitetno	12870
kvalitetan	12871
ozbiljna	12872
gorici	12873
trajala	12874
zaraditi	12875
afp	12876
prijateljstva	12877
uzela	12878
objavljeni	12879
iskoristili	12880
putuju	12881
toplije	12882
snimili	12883
ocjenu	12884
razumijevanja	12885
sjajnu	12886
zamijenio	12887
potrošača	12888
povlači	12889
trofeja	12890
hezbolla	12891
infekcije	12892
libera	12893
bjelovar	12894
pokrovi	12895
clu	12896
ivati	12897
uđe	12898
whi	12899
zde	12900
štima	12901
##cker	12902
##1_	12903
##fon	12904
##60	12905
doru	12906
##lošku	12907
ratnih	12908
golove	12909
remija	12910
rezerva	12911
##pov	12912
##mine	12913
##boli	12914
##sice	12915
##size	12916
vice	12917
##grafije	12918
jar	12919
boro	12920
##žana	12921
##žit	12922
##šin	12923
bank	12924
tion	12925
prtlja	12926
dublje	12927
planovi	12928
današnjeg	12929
krajevima	12930
aktivan	12931
stvaranja	12932
izacija	12933
certi	12934
istine	12935
ovca	12936
guma	12937
bliži	12938
lokacijama	12939
imenu	12940
slobodni	12941
društveno	12942
vlastitog	12943
prirodu	12944
predanost	12945
plenkoviću	12946
zabava	12947
turbu	12948
proslavila	12949
berlin	12950
državljana	12951
ovogodišnjeg	12952
prognoza	12953
kapacitet	12954
##ther	12955
sadrže	12956
ogromna	12957
moskva	12958
gimnasti	12959
majstor	12960
uspijeva	12961
biciklisti	12962
eurosonga	12963
##script	12964
doslje	12965
izdvojiti	12966
postrojbe	12967
dovoljna	12968
pokrovitelj	12969
cy	12970
evu	12971
igo	12972
osa	12973
tvoje	12974
štu	12975
##are	12976
##ranih	12977
jesu	12978
##lažu	12979
##vira	12980
##torima	12981
odveo	12982
birati	12983
izri	12984
##lene	12985
rana	12986
toksi	12987
gorana	12988
##zić	12989
noga	12990
mišić	12991
##bah	12992
pate	12993
##ljke	12994
posre	12995
ispisa	12996
praćenje	12997
love	12998
krajo	12999
civila	13000
obilaz	13001
pobri	13002
izradu	13003
pomoću	13004
šala	13005
cent	13006
većih	13007
ljubavni	13008
porastao	13009
splitska	13010
zaključiti	13011
srednju	13012
istraživanju	13013
osjećate	13014
zlatna	13015
novcem	13016
pratiteljima	13017
izgraditi	13018
uputili	13019
obrazovanju	13020
medicinska	13021
legende	13022
otvaraju	13023
znanstveno	13024
saznati	13025
poštovanja	13026
vremenske	13027
osniva	13028
arap	13029
celzije	13030
ispit	13031
virtua	13032
vrhovnog	13033
pljuskovi	13034
dragana	13035
krivot	13036
influencerica	13037
##phic	13038
martinović	13039
""	13040
h_2717955	13041
umor	13042
čvo	13043
špe	13044
##au	13045
jean	13046
##lića	13047
poša	13048
##tanje	13049
suditi	13050
bisku	13051
izbio	13052
izbacio	13053
sabo	13054
##stal	13055
##gona	13056
prenose	13057
prenijeti	13058
##ljenim	13059
##sing	13060
vidu	13061
njenog	13062
tuče	13063
otkup	13064
romana	13065
stravi	13066
##fica	13067
ovakva	13068
kinja	13069
optima	13070
sreb	13071
trideset	13072
križ	13073
kristina	13074
predsjedništva	13075
izborna	13076
ludo	13077
čar	13078
prijavi	13079
##mand	13080
ukratko	13081
pojavljuje	13082
##ntiran	13083
110	13084
ulaže	13085
podigao	13086
razinama	13087
ustava	13088
klapa	13089
error	13090
tehnika	13091
prodaji	13092
##tems	13093
francusku	13094
djelatnost	13095
pomoćnik	13096
pp_2717955	13097
oprezni	13098
ajno	13099
zanimljive	13100
razvod	13101
1992	13102
kritizira	13103
smisao	13104
element	13105
nedostatka	13106
izbornu	13107
with	13108
podržavaju	13109
nadaju	13110
prijateljstvo	13111
parking	13112
tehničke	13113
okolici	13114
realizira	13115
kazalište	13116
nazvati	13117
zube	13118
odgoji	13119
kanalu	13120
seksualne	13121
inteligencija	13122
akademije	13123
zapovjednika	13124
tvornice	13125
priopćio	13126
evide	13127
tehnologiju	13128
intervencija	13129
ujedinje	13130
stambene	13131
dugoročno	13132
ukazuju	13133
baterije	13134
nastupima	13135
kapitala	13136
ohra	13137
domolju	13138
kapetana	13139
kancelar	13140
razumjeti	13141
##mgsize	13142
##columns	13143
konstantno	13144
mercedes	13145
est	13146
eru	13147
o_271988	13148
đako	13149
##dge	13150
##kne	13151
##word	13152
##nimo	13153
##nisa	13154
naki	13155
povreme	13156
##ricu	13157
##tacija	13158
koba	13159
sema	13160
##run	13161
saz	13162
sate	13163
rame	13164
ranji	13165
prefe	13166
retro	13167
mišića	13168
vege	13169
##šeni	13170
##dum	13171
jase	13172
##ćevoj	13173
osva	13174
bati	13175
petom	13176
pravnim	13177
lav	13178
glavo	13179
vrtu	13180
radija	13181
izboriti	13182
bilić	13183
endan	13184
##cionar	13185
umjetna	13186
pojasa	13187
ukrajinci	13188
pleme	13189
franković	13190
slična	13191
ivani	13192
zraku	13193
odabe	13194
oborine	13195
vladajuće	13196
nedjeljom	13197
struka	13198
struke	13199
zimi	13200
španjolsku	13201
opozi	13202
gorskom	13203
bijelog	13204
pojedinih	13205
spomenik	13206
izložbi	13207
medicinskih	13208
witho	13209
filipović	13210
nepotre	13211
zanimalo	13212
muzeju	13213
ispravno	13214
prihvatila	13215
jutarnjim	13216
sedmi	13217
garde	13218
igračem	13219
ljepote	13220
privukla	13221
ferra	13222
apelira	13223
određenim	13224
orkestra	13225
suzbija	13226
kamion	13227
karogla	13228
najjači	13229
srednjih	13230
federacije	13231
zahtijevaju	13232
meghan	13233
adam	13234
ugle	13235
ukaza	13236
##os	13237
##zro	13238
##žnjen	13239
jez	13240
##las	13241
##tach	13242
korona	13243
##jici	13244
suđenja	13245
nepoznati	13246
preli	13247
prired	13248
prizem	13249
mad	13250
##misti	13251
##cer	13252
vis	13253
vikto	13254
većeg	13255
##čanin	13256
punim	13257
##peut	13258
sveobu	13259
siriji	13260
deman	13261
##djeli	13262
jogu	13263
pila	13264
junak	13265
djed	13266
##sor	13267
bull	13268
kišom	13269
cijske	13270
193	13271
fali	13272
stvarnost	13273
alcara	13274
tadašnji	13275
učinila	13276
ivanec	13277
##count	13278
klase	13279
marine	13280
studente	13281
unapre	13282
klinike	13283
čekali	13284
čekamo	13285
važni	13286
dnevne	13287
opore	13288
osnovna	13289
predstavljati	13290
gospodarske	13291
očekivano	13292
privatnim	13293
zemljište	13294
značajne	13295
potrošnju	13296
izložbu	13297
vanjski	13298
zaustavili	13299
televizija	13300
električni	13301
doček	13302
odgovarajući	13303
saznali	13304
bivšem	13305
sudionike	13306
proračunu	13307
komunikaciju	13308
naučio	13309
pridružio	13310
profesorica	13311
vrtiću	13312
pamćenje	13313
nizozemske	13314
akadem	13315
švicar	13316
švicarske	13317
medvje	13318
koprivničko	13319
privukao	13320
dalmatinski	13321
simptoma	13322
proglasio	13323
prouzro	13324
skladište	13325
stoljeću	13326
##grafiju	13327
anonim	13328
##tachments	13329
sveobuhva	13330
_640	13331
adu	13332
shva	13333
wta	13334
xi	13335
štan	13336
##vce	13337
##rča	13338
##nix	13339
##lište	13340
##litet	13341
##tarni	13342
##teda	13343
zagovara	13344
koz	13345
kovač	13346
##cia	13347
##cao	13348
dori	13349
neče	13350
##gode	13351
mana	13352
reše	13353
minera	13354
nić	13355
pake	13356
##dona	13357
dikta	13358
bas	13359
prste	13360
##đenom	13361
bej	13362
današnjem	13363
leže	13364
##broj	13365
sretno	13366
stolu	13367
stotinu	13368
stožer	13369
svježi	13370
izam	13371
klupu	13372
##ntne	13373
nikakvu	13374
šah	13375
poslovnom	13376
američkom	13377
brinu	13378
desert	13379
spavanja	13380
lokalnoj	13381
radman	13382
atlet	13383
transport	13384
ukupni	13385
ukupnom	13386
fotografiji	13387
##logija	13388
manjim	13389
olimpijskog	13390
engleska	13391
sjeverna	13392
primila	13393
objavljene	13394
predviđeno	13395
globalno	13396
prehrani	13397
stvorili	13398
navodeći	13399
eksplozije	13400
kretati	13401
exc	13402
energetsku	13403
svladala	13404
dodjeli	13405
parlamentarnih	13406
parlamentarnim	13407
težine	13408
albanije	13409
preselio	13410
neprimje	13411
vaših	13412
biljke	13413
osvojenih	13414
kotaru	13415
##_2704	13416
transfera	13417
iselje	13418
komore	13419
imot	13420
sugovornik	13421
upitao	13422
koeficijent	13423
zadovoljiti	13424
siniša	13425
najbitnije	13426
viroviti	13427
razvese	13428
mma	13429
nca	13430
upe	13431
##raciju	13432
##roni	13433
##nor	13434
kosa	13435
kozme	13436
sevi	13437
doris	13438
susjedni	13439
bil	13440
big	13441
modne	13442
##biju	13443
nicom	13444
pass	13445
meču	13446
javiti	13447
##ćeva	13448
borili	13449
razlozi	13450
tik	13451
sinom	13452
desnog	13453
piti	13454
layo	13455
objašnja	13456
predsjedničke	13457
slažu	13458
ring	13459
brane	13460
lijekove	13461
stekao	13462
##cijsku	13463
predstavili	13464
crte	13465
završen	13466
snažnu	13467
hipo	13468
odgovorno	13469
hep	13470
svjetlu	13471
gledatelje	13472
župana	13473
##tirali	13474
ivanom	13475
posjetili	13476
sportska	13477
povećanju	13478
šuta	13479
##mber	13480
unutarnje	13481
privatno	13482
##rds	13483
shop	13484
dogovoru	13485
potencijalni	13486
potraga	13487
doživjeli	13488
prošloj	13489
vatrene	13490
filipi	13491
derbija	13492
brzina	13493
isplate	13494
upala	13495
skupština	13496
aktualnog	13497
lošeg	13498
atmosferi	13499
walesa	13500
financiranja	13501
prijetnju	13502
koaliciju	13503
obećava	13504
umirovljeni	13505
usmjeren	13506
pohvalila	13507
eviden	13508
ukidanje	13509
rumunjska	13510
razredu	13511
mlijeko	13512
statistiku	13513
"...,	13514
oštri	13515
imuno	13516
podjedna	13517
##portal	13518
vijećnici	13519
izoli	13520
limuna	13521
konoba	13522
ronaldo	13523
evakui	13524
##_2719473	13525
tuđman	13526
pogrije	13527
fenerbah	13528
devedese	13529
layout	13530
):	13531
edi	13532
ocem	13533
sle	13534
unos	13535
##tta	13536
##žnije	13537
##52	13538
##nista	13539
##mal	13540
zabija	13541
##div	13542
##vel	13543
odjek	13544
izvesti	13545
prevo	13546
redova	13547
##bie	13548
paid	13549
višak	13550
jas	13551
pute	13552
vođenje	13553
vožnja	13554
inse	13555
stali	13556
pivo	13557
prag	13558
južnom	13559
rundi	13560
lat	13561
mudro	13562
roland	13563
ostalima	13564
##stein	13565
kišu	13566
rimu	13567
kompe	13568
dvojicu	13569
##hur	13570
##klop	13571
##njskog	13572
javnoj	13573
pokrenuli	13574
boljeg	13575
poduzima	13576
ponudio	13577
turističkih	13578
superscript	13579
gospodarski	13580
##miranja	13581
postojeće	13582
1993	13583
radosti	13584
350	13585
provjera	13586
manjih	13587
padati	13588
posjetiteljima	13589
##ticles	13590
pacijentima	13591
potpisan	13592
strategija	13593
iskustvom	13594
dočekati	13595
dočekali	13596
dubrovačke	13597
tradicionalni	13598
balkan	13599
završetak	13600
prestaje	13601
##mpion	13602
recikli	13603
poticanje	13604
švicarska	13605
besplatan	13606
inspiracija	13607
ukida	13608
intervencije	13609
letjeli	13610
najpoznatiji	13611
analitičari	13612
užas	13613
kontrolirati	13614
donošenje	13615
pretjerano	13616
istraživači	13617
maneke	13618
dovelo	13619
fullhd	13620
spektaku	13621
jadrolinije	13622
ponajprije	13623
guardio	13624
pištolj	13625
prilagoditi	13626
brodogra	13627
četvornih	13628
nadbiskup	13629
maestra	13630
required	13631
grmoja	13632
neprestano	13633
important	13634
glavobo	13635
exclude	13636
a3	13637
alan	13638
iranje	13639
ože	13640
o_2717955	13641
sl	13642
tlu	13643
uzo	13644
##ago	13645
##ngu	13646
##šnice	13647
##78	13648
nači	13649
##teh	13650
##day	13651
seba	13652
domini	13653
domova	13654
sudar	13655
odboru	13656
bija	13657
##lec	13658
prozi	13659
sapu	13660
pretko	13661
##gana	13662
reklo	13663
mik	13664
##site	13665
paziti	13666
vite	13667
##pite	13668
javnu	13669
važe	13670
osmini	13671
najra	13672
pravima	13673
znaku	13674
rusku	13675
fio	13676
želu	13677
##gledno	13678
srebre	13679
krizu	13680
predsjedničkih	13681
##terdisplay	13682
sjeo	13683
mlađa	13684
stigne	13685
stvarala	13686
pomogla	13687
šime	13688
povela	13689
političar	13690
ljetni	13691
gura	13692
snagama	13693
skupu	13694
brilji	13695
vojnih	13696
četvrtka	13697
učiti	13698
lokaciju	13699
službena	13700
zračni	13701
sportskom	13702
ulicu	13703
francuskom	13704
##cher	13705
izazovi	13706
nestanka	13707
upute	13708
sklapa	13709
##pisuju	13710
povezane	13711
prekidu	13712
glasanje	13713
okruženje	13714
harmo	13715
odlasku	13716
normalan	13717
sjedinjenim	13718
5000	13719
standarda	13720
čestitke	13721
režim	13722
strijelci	13723
bicikl	13724
negativne	13725
##ljiviji	13726
haljine	13727
raspoloženje	13728
destinacije	13729
osminu	13730
sjeveroisto	13731
kreveta	13732
fronta	13733
##352	13734
tužiteljstvo	13735
mirisa	13736
zaklade	13737
pratnji	13738
pazite	13739
volks	13740
telegram	13741
sound	13742
nijemci	13743
bosilj	13744
jedanaeste	13745
hodoča	13746
predstoje	13747
etak	13748
flek	13749
ogled	13750
sh	13751
tportal	13752
uba	13753
šmi	13754
##cr	13755
##cho	13756
##dl	13757
##zga	13758
##slov	13759
##ffe	13760
##xa	13761
##ranom	13762
jeli	13763
popisa	13764
##rela	13765
dalla	13766
dora	13767
kapu	13768
karta	13769
##staj	13770
priveden	13771
##bon	13772
##ljoj	13773
njeno	13774
##gins	13775
peta	13776
pir	13777
rodri	13778
##song	13779
uzva	13780
usput	13781
##fil	13782
##hei	13783
doktora	13784
radit	13785
solo	13786
##hid	13787
sjesti	13788
zdrava	13789
pokaže	13790
napala	13791
jednokra	13792
poslovima	13793
poslovnim	13794
271	13795
hajdaš	13796
vremenima	13797
održavati	13798
imenova	13799
nastupom	13800
teškog	13801
##tarac	13802
ulicom	13803
oduzima	13804
vlastitih	13805
unatrag	13806
modeli	13807
upozora	13808
izgledao	13809
prirodnih	13810
odlične	13811
bijelo	13812
demokrati	13813
bogati	13814
kupnje	13815
izvještava	13816
polovicu	13817
kritizirao	13818
posvetio	13819
nastupao	13820
mirjana	13821
oblika	13822
započeli	13823
ljubitelji	13824
uvodi	13825
pružanje	13826
alat	13827
četr	13828
završena	13829
chri	13830
eksplozija	13831
ekonomske	13832
terapije	13833
izvedbi	13834
milosr	13835
australiji	13836
košarkaši	13837
postojanja	13838
nevjerojatan	13839
kupuju	13840
sportova	13841
zbivanja	13842
treneri	13843
molimo	13844
celtic	13845
opskrbe	13846
letjelica	13847
angelesu	13848
poništi	13849
položaja	13850
bijelih	13851
moskve	13852
izvođač	13853
rafale	13854
segmentu	13855
zatvoriti	13856
jezera	13857
zanemari	13858
bakterija	13859
signali	13860
održivosti	13861
mbappe	13862
naprosto	13863
__ocm	13864
bb	13865
etkom	13866
usu	13867
what	13868
štra	13869
##urne	13870
##ninu	13871
naletio	13872
popović	13873
##rici	13874
zaga	13875
zakaza	13876
zastava	13877
##tonu	13878
sestri	13879
kati	13880
satu	13881
predu	13882
morski	13883
##njenja	13884
testo	13885
vince	13886
vesla	13887
metar	13888
vaju	13889
bojim	13890
pula	13891
##živanja	13892
diri	13893
##vud	13894
##giran	13895
denis	13896
kaos	13897
pera	13898
perili	13899
best	13900
beču	13901
platio	13902
rodnom	13903
##sova	13904
##fiel	13905
ostanu	13906
leon	13907
eurosong	13908
objavilo	13909
ribo	13910
solin	13911
sloj	13912
liječenju	13913
parce	13914
pobjeći	13915
pomoglo	13916
##cijsko	13917
##_2352	13918
pozivu	13919
šalice	13920
brz	13921
brze	13922
poslovanju	13923
sustavi	13924
##đite	13925
zoo	13926
potvrđeno	13927
glazbenih	13928
andro	13929
upozorili	13930
udruzi	13931
filmski	13932
kvalitetni	13933
sudjelovanja	13934
bogatu	13935
osobnu	13936
osoblja	13937
1996	13938
turskoj	13939
smiri	13940
prekinuo	13941
apple	13942
potragu	13943
engleskom	13944
prisutna	13945
stručnjakinja	13946
doprinose	13947
proširiti	13948
imovinu	13949
jedinstveni	13950
jedinstvena	13951
dominika	13952
tužitelja	13953
navika	13954
1989	13955
kupuje	13956
torbi	13957
##ssia	13958
sankcije	13959
dojke	13960
zainteresira	13961
sjeverozapadni	13962
upotrebu	13963
transparent	13964
srednjoškol	13965
eventualno	13966
zaigrati	13967
bruxellesu	13968
suglasnost	13969
tokiju	13970
propisima	13971
pucnja	13972
kremlj	13973
zloupora	13974
international	13975
##_235255	13976
zgro	13977
##šk	13978
##ud	13979
##ralo	13980
nata	13981
##nas	13982
##tero	13983
zama	13984
koko	13985
davao	13986
nena	13987
nevremena	13988
odnio	13989
##lera	13990
propušta	13991
prekr	13992
##gart	13993
##pana	13994
##sica	13995
niče	13996
##cea	13997
taman	13998
meti	13999
jal	14000
boce	14001
##dniji	14002
2030	14003
tunel	14004
ilić	14005
prijepodne	14006
želji	14007
vjera	14008
##rent	14009
##stvom	14010
hospi	14011
tvrdo	14012
jednoga	14013
projektom	14014
hiper	14015
ponosno	14016
pojasu	14017
##stveno	14018
skočio	14019
najvećem	14020
truda	14021
deseto	14022
glume	14023
kartona	14024
udaraca	14025
kruha	14026
nacionalna	14027
koristila	14028
tehnike	14029
obiteljskog	14030
rješava	14031
matea	14032
infla	14033
dnevnom	14034
odražava	14035
izraelskih	14036
španjolci	14037
udruženja	14038
izvodi	14039
sljedeću	14040
gordana	14041
jednostavna	14042
zdravstvenom	14043
zelena	14044
međunarodnih	14045
dokumenata	14046
posvetiti	14047
povezati	14048
potrošnje	14049
potrošnja	14050
zamjena	14051
investitor	14052
medicinu	14053
svjedok	14054
trajalo	14055
organizirali	14056
kuhar	14057
dočekuje	14058
načelnika	14059
skro	14060
blagda	14061
zabilježeno	14062
ocjena	14063
austrijski	14064
stanovnike	14065
svrhe	14066
gostovanje	14067
navike	14068
karaktera	14069
švedskoj	14070
glumci	14071
afere	14072
diskri	14073
provedbe	14074
bazena	14075
kemika	14076
pročelnik	14077
sjedala	14078
kulenović	14079
##guage	14080
08	14081
140	14082
ye	14083
##šnom	14084
##57	14085
##lis	14086
##rijski	14087
zalaga	14088
daro	14089
daru	14090
##cirati	14091
ned	14092
nest	14093
neop	14094
kala	14095
kakvim	14096
izvede	14097
rai	14098
rani	14099
prepri	14100
mont	14101
##stila	14102
mamu	14103
##zivao	14104
##povije	14105
##žet	14106
javi	14107
vatru	14108
osmo	14109
##ent	14110
##vuda	14111
dežu	14112
dejan	14113
##mus	14114
potru	14115
lovi	14116
plavih	14117
otpje	14118
krasi	14119
vlaho	14120
vlašić	14121
##fija	14122
riješili	14123
postavili	14124
fal	14125
stutt	14126
lijevom	14127
tajnika	14128
pobjednici	14129
stefan	14130
##cijska	14131
istočnoj	14132
drugome	14133
danska	14134
dvornik	14135
nikakva	14136
prvakinja	14137
pojavi	14138
čuvati	14139
vuka	14140
vuči	14141
uvjeriti	14142
pokazale	14143
dugotraj	14144
glupo	14145
zajedničkog	14146
društveni	14147
udala	14148
nacionalnom	14149
majkom	14150
potvrdu	14151
informati	14152
emotivno	14153
2002	14154
otvorenje	14155
zlatka	14156
račune	14157
gine	14158
pratila	14159
odigrala	14160
kvalitetne	14161
plaćati	14162
bijeloj	14163
policijsku	14164
iznenađuju	14165
konačnih	14166
međunarodnoj	14167
privatnih	14168
razvoda	14169
1994	14170
večeru	14171
polovica	14172
uspješni	14173
smith	14174
obilježavanja	14175
ratnog	14176
zasluženo	14177
##wagen	14178
nadah	14179
umjetničke	14180
palače	14181
pozivajući	14182
talijanska	14183
doprinijeti	14184
fokusu	14185
procjenu	14186
četvori	14187
standarde	14188
čestitao	14189
okvira	14190
ženske	14191
igralište	14192
kanala	14193
stanovništvo	14194
proizvođači	14195
titule	14196
tvornica	14197
tvornici	14198
švedska	14199
treneru	14200
idealan	14201
ističući	14202
favorita	14203
inovacije	14204
dokumentaciju	14205
olmo	14206
mentor	14207
predstavnicima	14208
nadoknadi	14209
diplom	14210
kninske	14211
sugerira	14212
zaostatka	14213
zvjezdi	14214
najljepših	14215
obračun	14216
kalorija	14217
izbjegavajte	14218
izglasa	14219
magnet	14220
tjednima	14221
scholz	14222
volkswagen	14223
02	14224
320	14225
:/	14226
dna	14227
k_271988	14228
mlina	14229
usam	14230
učio	14231
šku	14232
##prva	14233
##ranog	14234
nalog	14235
##vaj	14236
##tat	14237
##mato	14238
konja	14239
##tol	14240
nebu	14241
katu	14242
izvi	14243
##meni	14244
ranu	14245
tok	14246
noću	14247
mimo	14248
paok	14249
##šem	14250
stvu	14251
vaga	14252
stavi	14253
tita	14254
posvuda	14255
čević	14256
pier	14257
gab	14258
##mum	14259
planova	14260
kratke	14261
##mente	14262
cijski	14263
postavljena	14264
fan	14265
korisno	14266
mlad	14267
dobroj	14268
gradnja	14269
istočne	14270
##mann	14271
proizlazi	14272
pojavljuju	14273
vul	14274
desetke	14275
hajdukov	14276
spavanje	14277
programima	14278
četvrtom	14279
prekora	14280
grudi	14281
skupio	14282
stručno	14283
opasni	14284
dnevnog	14285
vlasništvo	14286
uspomene	14287
optužbi	14288
učenje	14289
učenik	14290
benzin	14291
zastupni	14292
putovati	14293
zaposlenicima	14294
povezana	14295
spomenuo	14296
zamjenica	14297
svjedoče	14298
fizičke	14299
potrebni	14300
mađarskoj	14301
prekršajni	14302
sjedinjenih	14303
subjek	14304
zabrinjavaju	14305
omiljeni	14306
ocjene	14307
prihodi	14308
ovogodišnjem	14309
razumijem	14310
jedinstvenu	14311
izvedba	14312
logično	14313
narud	14314
razot	14315
prognoze	14316
trenirati	14317
talijani	14318
hvaru	14319
trgovačkog	14320
oporavlja	14321
olakšati	14322
sankcija	14323
tribini	14324
geopoliti	14325
najmlađe	14326
pristupiti	14327
##grafija	14328
arsena	14329
aranž	14330
adriatic	14331
ždrijeb	14332
holivud	14333
sebasti	14334
://	14335
240	14336
amo	14337
dno	14338
k_2717955	14339
oki	14340
ogu	14341
pja	14342
rske	14343
yu	14344
##zli	14345
##]",	14346
##rams	14347
jedu	14348
nazna	14349
natali	14350
##lat	14351
##renih	14352
kokte	14353
##nect	14354
izve	14355
promišlja	14356
prikri	14357
monte	14358
golma	14359
tenko	14360
team	14361
##bat	14362
pano	14363
pauze	14364
meme	14365
bon	14366
bonu	14367
stabala	14368
back	14369
=>)	14370
##vnote	14371
pero	14372
pin	14373
isk	14374
podgo	14375
praši	14376
mjeru	14377
rujan	14378
ostat	14379
postotak	14380
predsjedničkim	14381
tijelima	14382
faktor	14383
bravo	14384
lijevi	14385
problemu	14386
draže	14387
him	14388
##ssije	14389
deseci	14390
krši	14391
138	14392
posjedo	14393
prvotno	14394
ustavnih	14395
klau	14396
šubi	14397
obiteljskih	14398
sredinu	14399
optužio	14400
izraelskim	14401
sudbi	14402
sljedećem	14403
plaćanje	14404
transp	14405
promijeni	14406
prosječno	14407
predao	14408
maksimum	14409
zadarski	14410
žalo	14411
igrom	14412
obuhva	14413
iznositi	14414
milijardu	14415
socijalnu	14416
televizije	14417
prenosimo	14418
kućama	14419
veselim	14420
reagirali	14421
izrazili	14422
oznake	14423
stroj	14424
nadležnosti	14425
promašio	14426
švicarskoj	14427
pojačanje	14428
pregovorima	14429
garro	14430
trgovinama	14431
kuhinje	14432
rekorder	14433
pokriva	14434
precizno	14435
vitamina	14436
preostalih	14437
imenovan	14438
optužnica	14439
isus	14440
administ	14441
uravnote	14442
dojavu	14443
borussije	14444
reporterka	14445
sastojci	14446
žestoko	14447
spomenute	14448
liverpoo	14449
torcida	14450
otuđi	14451
paralelno	14452
alexander	14453
volodimir	14454
jedinstven	14455
nestrp	14456
**	14457
aze	14458
esti	14459
nskoj	14460
##cks	14461
##lp	14462
##gru	14463
##ep	14464
##25	14465
zapje	14466
dakako	14467
secon	14468
odbacio	14469
##kušić	14470
tou	14471
goru	14472
##mica	14473
vel	14474
tal	14475
##bec	14476
razbija	14477
pelje	14478
##jović	14479
tunela	14480
loren	14481
rovi	14482
uzra	14483
trake	14484
onko	14485
vrši	14486
srebr	14487
postavi	14488
krenule	14489
brašno	14490
tvrđa	14491
poznaju	14492
dvor	14493
##vers	14494
čula	14495
rasvje	14496
franci	14497
uključe	14498
vrate	14499
događajima	14500
##strira	14501
izjavama	14502
pravomoć	14503
pravobrani	14504
odrediti	14505
određena	14506
studentima	14507
oborina	14508
vladajući	14509
zakone	14510
izgledala	14511
postizanje	14512
nogometnom	14513
kontrola	14514
pratitelji	14515
pratitelje	14516
članka	14517
organizirala	14518
padaju	14519
nadal	14520
boljim	14521
poboljšava	14522
navedenog	14523
suočavaju	14524
sveučilište	14525
županijski	14526
označava	14527
prikaz	14528
dokaze	14529
epizodu	14530
švedske	14531
adresi	14532
dosadašnji	14533
loših	14534
stambenih	14535
pismu	14536
neobično	14537
nezavisni	14538
postignuća	14539
naslovom	14540
otpornosti	14541
pavli	14542
stajališta	14543
kamiona	14544
jedanaest	14545
prepun	14546
registarskih	14547
legitim	14548
bartulica	14549
muškarcima	14550
kompromi	14551
kramarić	14552
dezinforma	14553
lepogla	14554
fioren	14555
hell	14556
ištu	14557
očaj	14558
spisa	14559
smet	14560
tvoj	14561
čna	14562
##dnjak	14563
##war	14564
##rod	14565
##reen	14566
##rile	14567
##java	14568
##ving	14569
nesu	14570
sand	14571
ranih	14572
pripra	14573
prikla	14574
tony	14575
rene	14576
##bile	14577
##mitelj	14578
mitro	14579
##sibi	14580
tat	14581
bolova	14582
punih	14583
puhat	14584
razmo	14585
razmislite	14586
znanost	14587
rupe	14588
muči	14589
##vljanje	14590
##lnice	14591
hali	14592
eurozo	14593
ciklo	14594
food	14595
slavu	14596
slože	14597
nekoć	14598
mladu	14599
šepa	14600
pjevati	14601
istinski	14602
genija	14603
pojavili	14604
centri	14605
hajdukom	14606
##opskr	14607
sustavom	14608
lokalnom	14609
glazbom	14610
pretpla	14611
navijač	14612
pokretu	14613
natjecatelja	14614
majci	14615
povećao	14616
automobilima	14617
kaznenu	14618
zapalio	14619
zapadnog	14620
španjolskog	14621
produlji	14622
šokan	14623
sjajni	14624
ozbiljnije	14625
namjeru	14626
ugri	14627
ispunjava	14628
glasovi	14629
brekalo	14630
postupke	14631
potpisali	14632
prehrana	14633
okrenuo	14634
perišića	14635
proširenje	14636
inovati	14637
najvažnija	14638
površinu	14639
svečanosti	14640
kombinacije	14641
lasagne	14642
posavec	14643
pristao	14644
navikli	14645
vodoopskr	14646
iskaza	14647
karata	14648
pozdrav	14649
ambicije	14650
donošenja	14651
maslina	14652
dalmatinska	14653
robot	14654
signal	14655
karlovac	14656
predrag	14657
##nault	14658
suprotsta	14659
imunitet	14660
fleksibi	14661
brati	14662
dža	14663
hv	14664
nka	14665
##ise	14666
##mba	14667
##768	14668
naje	14669
naiz	14670
naklo	14671
nagađa	14672
##janje	14673
##dian	14674
sestara	14675
dol	14676
neba	14677
kai	14678
kanta	14679
kašnje	14680
kalen	14681
progu	14682
proljeća	14683
##gol	14684
##key	14685
manu	14686
##zite	14687
redar	14688
retori	14689
##mišlje	14690
mirna	14691
vila	14692
##zanju	14693
lim	14694
boo	14695
state	14696
staru	14697
grade	14698
sinja	14699
dur	14700
ruti	14701
##prem	14702
lobi	14703
##pravi	14704
platili	14705
djevo	14706
rođa	14707
robu	14708
glavnoj	14709
buku	14710
sporo	14711
##lnije	14712
rijekom	14713
veličan	14714
krivim	14715
risto	14716
sok	14717
##ngham	14718
nastaje	14719
nastavu	14720
liječi	14721
lijepu	14722
pjevala	14723
obraza	14724
gradsko	14725
prošloga	14726
osjeti	14727
šalju	14728
milijune	14729
očevida	14730
ukrajinskog	14731
filmove	14732
opena	14733
vojno	14734
uključen	14735
događaji	14736
blizak	14737
smjene	14738
hrabri	14739
grčke	14740
hrgović	14741
groblju	14742
nacionalnim	14743
mariju	14744
2001	14745
osjećao	14746
dostavlja	14747
značilo	14748
osnovan	14749
savezu	14750
sljedeća	14751
perso	14752
izvanred	14753
spomenika	14754
članku	14755
nazivaju	14756
obvezu	14757
tenis	14758
odlaga	14759
objavljenom	14760
upani	14761
upisala	14762
digitali	14763
oružjem	14764
korek	14765
koreje	14766
toplinski	14767
platformu	14768
uslijedilo	14769
ozljedu	14770
režima	14771
režiji	14772
industriju	14773
povući	14774
sram	14775
tenisačica	14776
vremenski	14777
priopćili	14778
etvrti	14779
dokazati	14780
izvukli	14781
postupaka	14782
pobjednički	14783
prikazan	14784
drugačija	14785
uništiti	14786
masterche	14787
dominan	14788
kategorijama	14789
evakua	14790
heroj	14791
sjedištem	14792
podrijetla	14793
prebivalište	14794
prostorijama	14795
promjenjivo	14796
povjesničar	14797
karoglan	14798
mlinarić	14799
administrati	14800
azerba	14801
kalendar	14802
cra	14803
gp	14804
lne	14805
{"	14806
##elek	14807
##_ga	14808
##ria	14809
##mage	14810
zaru	14811
sefurl_	14812
doveden	14813
nedi	14814
neprav	14815
izvore	14816
izgor	14817
preferen	14818
tori	14819
gon	14820
tex	14821
tego	14822
mame	14823
##ljenost	14824
mija	14825
nisko	14826
##cen	14827
villa	14828
##gur	14829
did	14830
##rant	14831
razrije	14832
prednja	14833
bezu	14834
ruši	14835
djelima	14836
igranja	14837
##mentirao	14838
antio	14839
slabije	14840
1945	14841
srča	14842
homo	14843
lijevog	14844
medijski	14845
istoka	14846
kazah	14847
umjerena	14848
šali	14849
higije	14850
svjetskoj	14851
napravite	14852
desetaka	14853
fury	14854
pronađe	14855
interve	14856
dinamov	14857
službenom	14858
grlić	14859
marihua	14860
prodao	14861
glazbenog	14862
ključnim	14863
pjesmi	14864
filmske	14865
plovila	14866
jednogla	14867
mnoga	14868
generalno	14869
percep	14870
oprem	14871
pojedini	14872
žalost	14873
greška	14874
dizajna	14875
šansa	14876
saznao	14877
saznala	14878
rukome	14879
stajala	14880
asisti	14881
infrastruktura	14882
inciden	14883
pridružiti	14884
galeriji	14885
omogućio	14886
posudbu	14887
pustiti	14888
3000	14889
gostovanja	14890
diplomi	14891
kalini	14892
dodjelu	14893
propustite	14894
oteža	14895
disciplini	14896
afera	14897
ispitivanje	14898
gennaro	14899
kafića	14900
turneje	14901
atletico	14902
tlaka	14903
privremeni	14904
uklanjanje	14905
reperto	14906
najnoviji	14907
kreativnost	14908
valentina	14909
stotinjak	14910
prokomentirao	14911
knoll	14912
otputo	14913
šesnae	14914
music	14915
pomiješajte	14916
krivotvore	14917
##_gallery	14918
antioksi	14919
alo	14920
ea	14921
kk	14922
uč	14923
une	14924
ustra	14925
##rini	14926
##jicom	14927
##cipi	14928
nepravi	14929
##mora	14930
probija	14931
##meteo	14932
##state	14933
##stili	14934
tel	14935
temat	14936
manjak	14937
##zijom	14938
nominira	14939
##siv	14940
nike	14941
pati	14942
vega	14943
tao	14944
##piju	14945
punk	14946
volju	14947
osmis	14948
bek	14949
pravog	14950
značiti	14951
##vnicu	14952
čiste	14953
trebam	14954
hake	14955
tijek	14956
impe	14957
kredit	14958
dvanaest	14959
prijavljen	14960
ovića	14961
pozive	14962
otkrivanje	14963
centara	14964
rasho	14965
sličnim	14966
uvjereni	14967
kršenje	14968
##đivan	14969
najavljuju	14970
surađuje	14971
povećan	14972
##chen	14973
ostvarenje	14974
središnjem	14975
atlan	14976
svakih	14977
važnije	14978
ukupnog	14979
odrastao	14980
nalazio	14981
suncu	14982
nogometnih	14983
plod	14984
srijeda	14985
bijelom	14986
kupce	14987
godišnjicu	14988
predaje	14989
pojedinaca	14990
osobna	14991
ogradu	14992
posvećena	14993
uhitila	14994
##loginja	14995
mirror	14996
korpo	14997
prijedlogu	14998
potpisati	14999
doznati	15000
objekte	15001
sjećanje	15002
dodir	15003
seksual	15004
napustili	15005
standardima	15006
zub	15007
preporuka	15008
snimila	15009
osvajač	15010
italiju	15011
dobavlja	15012
najvažniji	15013
papira	15014
sportom	15015
priopćilo	15016
obavezno	15017
desničar	15018
edukacije	15019
neizbje	15020
oslobođen	15021
pripadaju	15022
maraton	15023
struktura	15024
apel	15025
obavještava	15026
motocikli	15027
uhvatio	15028
anđela	15029
koordi	15030
##burga	15031
molda	15032
čokolade	15033
eksperiment	15034
borussia	15035
egipat	15036
nuklearne	15037
osposo	15038
priuštiti	15039
rejting	15040
ružiča	15041
##elektra	15042
nepravilnosti	15043
##meteoro	15044
##db	15045
##dre	15046
##gge	15047
##sso	15048
##18	15049
nacije	15050
##rića	15051
##varu	15052
##nan	15053
##tok	15054
davanja	15055
davis	15056
##davno	15057
domove	15058
kakvih	15059
kažnjen	15060
odve	15061
bibli	15062
probio	15063
sadu	15064
rasla	15065
moza	15066
modni	15067
may	15068
maske	15069
##zit	15070
mika	15071
##sine	15072
nizom	15073
cate	15074
bolog	15075
stalni	15076
starija	15077
stavljaju	15078
balo	15079
babić	15080
kusto	15081
konstitu	15082
čip	15083
aut	15084
autu	15085
ovakvu	15086
kita	15087
hana	15088
vrijedna	15089
stopu	15090
zero	15091
srba	15092
fasa	15093
stigle	15094
ideal	15095
istoime	15096
crnom	15097
maloj	15098
hitove	15099
interije	15100
čude	15101
rash	15102
održano	15103
održavanju	15104
spas	15105
pokazatelj	15106
##đima	15107
uredno	15108
najava	15109
najavljeno	15110
suradnika	15111
prodava	15112
premijerom	15113
unaprje	15114
glazbenu	15115
zapam	15116
važnih	15117
dalmaciju	15118
uživanje	15119
stanovanja	15120
zločine	15121
pratimo	15122
poretku	15123
bivših	15124
ozlijeđeni	15125
okupio	15126
crvenu	15127
djevojčicu	15128
funkcija	15129
jih	15130
planiranje	15131
lopti	15132
dogovorio	15133
elemenata	15134
čitatelj	15135
pozornice	15136
plinom	15137
nadove	15138
defici	15139
liječnica	15140
##tivaca	15141
atmosfere	15142
language	15143
koreogra	15144
paula	15145
preporuke	15146
jelačića	15147
igrališta	15148
slavonije	15149
svečanost	15150
promociju	15151
stjepana	15152
regionalni	15153
stradao	15154
prilagođa	15155
postojanje	15156
idealna	15157
ujedinjenih	15158
zimske	15159
čijem	15160
netfli	15161
princeze	15162
očuvanju	15163
krivnju	15164
magda	15165
helikoptera	15166
bankar	15167
određenu	15168
vaterpol	15169
reforme	15170
islam	15171
stožeru	15172
knjižnice	15173
zastave	15174
sastojke	15175
rijetkih	15176
svećenik	15177
samopouzdanje	15178
farmace	15179
objašnjenje	15180
hollywood	15181
stuttgart	15182
razotkri	15183
azerbajd	15184
netflix	15185
dy	15186
dži	15187
ster	15188
shu	15189
uta	15190
udi	15191
##taju	15192
kov	15193
kos	15194
dometa	15195
dovede	15196
##venih	15197
nera	15198
odvaja	15199
iznu	15200
progre	15201
rap	15202
golovima	15203
redak	15204
##ljenjem	15205
liti	15206
limit	15207
##dnije	15208
div	15209
bale	15210
deko	15211
pire	15212
lanca	15213
prijetio	15214
svinje	15215
haa	15216
andri	15217
trijum	15218
postaji	15219
braće	15220
mary	15221
širem	15222
prošlom	15223
ljetnim	15224
1200	15225
##gent	15226
troše	15227
vojna	15228
gledala	15229
trudna	15230
vrat	15231
ustano	15232
uložiti	15233
gospodina	15234
poteza	15235
kolona	15236
naposlje	15237
osjećaja	15238
pozvani	15239
španjolskom	15240
prirodnim	15241
narodu	15242
iznenaditi	15243
branitelji	15244
dogovoriti	15245
povezanih	15246
povezanosti	15247
kupao	15248
varaždinskoj	15249
glumio	15250
organiziraju	15251
aff	15252
socijalni	15253
kuhanje	15254
razmišljanje	15255
##bljava	15256
zahvaljuju	15257
pacijente	15258
rođendana	15259
ograničenje	15260
daljnjem	15261
suočiti	15262
presudu	15263
vjerovali	15264
stabilnosti	15265
redoviti	15266
konzumira	15267
nadležnom	15268
verziju	15269
pustio	15270
bježa	15271
gripe	15272
inozemstva	15273
servisa	15274
podravka	15275
dokumentarni	15276
mostaru	15277
kulturnih	15278
oraša	15279
segment	15280
poštuju	15281
jeftinije	15282
balkanu	15283
dopušteno	15284
drukči	15285
udjela	15286
hzzo	15287
informi	15288
pretrpje	15289
neretvanske	15290
naposljetku	15291
ažu	15292
anama	15293
blje	15294
cri	15295
elja	15296
fle	15297
irala	15298
nd	15299
ocu	15300
okr	15301
##ille	15302
##rc	15303
##rljiv	15304
##zbor	15305
##udio	15306
##žje	15307
pogu	15308
koru	15309
##diji	15310
##nek	15311
sena	15312
serie	15313
##cat	15314
nede	15315
kabine	15316
bitka	15317
izvela	15318
ray	15319
prilo	15320
tona	15321
točan	15322
gotova	15323
mah	15324
##zina	15325
reba	15326
##njavanje	15327
vinici	15328
talaca	15329
##ševi	15330
##čavanja	15331
jastu	15332
jasnu	15333
janković	15334
bob	15335
disko	15336
njenu	15337
##šite	15338
balisti	15339
kuli	15340
penja	15341
lasto	15342
rog	15343
rođeni	15344
uzgoj	15345
prijeći	15346
zbora	15347
spore	15348
auti	15349
služiti	15350
##vljenog	15351
krizi	15352
novine	15353
počevši	15354
tajnica	15355
pozirala	15356
godišnjem	15357
dioni	15358
poznatom	15359
umjetnik	15360
poslovi	15361
hezo	15362
svjetsku	15363
filmovima	15364
rasli	15365
vučko	15366
trumpu	15367
uključiti	15368
##ople	15369
vijek	15370
programom	15371
zajedničkom	15372
zajedničkim	15373
porasle	15374
porazom	15375
zdravstvu	15376
grčka	15377
170	15378
pokreće	15379
vodećih	15380
##mpatije	15381
koloni	15382
istražiti	15383
pozvan	15384
neovla	15385
ugovoru	15386
golf	15387
tržištima	15388
djelomice	15389
##ndez	15390
zelenih	15391
1999	15392
elega	15393
prošlogodi	15394
potrebnu	15395
blok	15396
velebi	15397
dočeka	15398
uvođenja	15399
tradicionalne	15400
napustila	15401
metaboli	15402
nazvali	15403
prikazuju	15404
starim	15405
stvorila	15406
eksplodi	15407
pamtiti	15408
odustao	15409
promicanje	15410
milorad	15411
starosti	15412
naoča	15413
nizozemski	15414
predizbor	15415
sindika	15416
postojala	15417
pozdravlja	15418
glasnogovornica	15419
bacila	15420
međimurje	15421
pridonijeti	15422
zrinka	15423
zauzela	15424
debitirao	15425
obrok	15426
obroka	15427
washingtonu	15428
rukometaši	15429
transformacije	15430
planeta	15431
efekt	15432
aerodro	15433
tinejdže	15434
tinejdžer	15435
nadigra	15436
zaprijetio	15437
celzijevih	15438
štrajka	15439
gabrije	15440
iskren	15441
elu	15442
from	15443
irske	15444
irska	15445
mg	15446
snove	15447
##cc	15448
##cci	15449
##rm	15450
##photo	15451
##8_480	15452
##xe	15453
##vir	15454
dane	15455
odgodi	15456
izu	15457
prevr	15458
mostar	15459
mandić	15460
ren	15461
respe	15462
niske	15463
via	15464
cap	15465
##ljavaju	15466
bogo	15467
obrt	15468
##ljivanje	15469
stakla	15470
druži	15471
kurs	15472
poslom	15473
znakova	15474
ruža	15475
rudar	15476
rublja	15477
plamen	15478
fiska	15479
roy	15480
rošti	15481
uzgo	15482
žita	15483
čina	15484
sponta	15485
objavom	15486
fox	15487
autoh	15488
tajni	15489
izraz	15490
politikom	15491
media	15492
krovi	15493
domaću	15494
osjetno	15495
osjetila	15496
brza	15497
ameriku	15498
govorilo	15499
vojsci	15500
naprave	15501
zagrebačkih	15502
smješta	15503
sustavima	15504
imenima	15505
primjene	15506
zračnoj	15507
surađivati	15508
ulogama	15509
organizatora	15510
odaz	15511
radnja	15512
nedjelj	15513
osjećala	15514
struju	15515
tražimo	15516
postigla	15517
stanovanje	15518
uništa	15519
bijes	15520
ozlijeđene	15521
misliti	15522
agenciji	15523
obilježja	15524
posebni	15525
posebnom	15526
glumice	15527
sukobi	15528
afga	15529
razmišljao	15530
engleskoj	15531
##way	15532
prisutan	15533
materijalna	15534
mališa	15535
računala	15536
doznali	15537
aktualne	15538
alata	15539
saveznici	15540
pripremio	15541
prihode	15542
državljani	15543
kraljevske	15544
regionalnog	15545
lovro	15546
stanari	15547
vremenskim	15548
spominju	15549
pjesmama	15550
desnica	15551
propustiti	15552
egzo	15553
kuhinju	15554
ljepotu	15555
privući	15556
pisma	15557
izabrani	15558
strukture	15559
temeljito	15560
upotrebe	15561
provedbi	15562
dokumente	15563
gimnazije	15564
zlostavljanje	15565
koncentracija	15566
kraljice	15567
glumaca	15568
hrabrosti	15569
kaštela	15570
japanu	15571
resursa	15572
najpopularnijih	15573
procedura	15574
antun	15575
jordan	15576
najniža	15577
ugljiko	15578
sjevernokore	15579
biljaka	15580
juraj	15581
horizont	15582
pritvorskom	15583
nivou	15584
nedostajalo	15585
adap	15586
nadzorniku	15587
tromjesečju	15588
sasluša	15589
bejru	15590
neopho	15591
07	15592
drva	15593
ište	15594
irali	15595
sliko	15596
uši	15597
ubaci	15598
##alarm	15599
##žju	15600
jeva	15601
##tivom	15602
##nic	15603
zaslo	15604
##kasnije	15605
kanad	15606
proči	15607
provali	15608
##rurg	15609
ranog	15610
##goda	15611
##kulira	15612
tetova	15613
magla	15614
##ljenima	15615
##pati	15616
##sin	15617
##sili	15618
##sila	15619
vica	15620
vidno	15621
viziju	15622
##ljavanje	15623
najlo	15624
najkasnije	15625
druže	15626
razni	15627
razviti	15628
people	15629
island	15630
južni	15631
laj	15632
traj	15633
židov	15634
##mentima	15635
##hati	15636
svađa	15637
sredo	15638
stola	15639
postale	15640
##him	15641
pozira	15642
škor	15643
kompo	15644
1500	15645
odgovori	15646
proteina	15647
čuvaju	15648
raspa	15649
franko	15650
voditelja	15651
krsta	15652
ljubavne	15653
vratimo	15654
najavi	15655
povijesno	15656
suradnik	15657
##prijeko	15658
novoro	15659
optuže	15660
pozvati	15661
zahvalan	15662
izdano	15663
vezani	15664
mislimo	15665
perković	15666
međunarodno	15667
promijenili	15668
putovanju	15669
polovice	15670
količi	15671
čitati	15672
prepoznao	15673
značajna	15674
mržnje	15675
izbornih	15676
požaru	15677
profila	15678
zaslužili	15679
ponašanju	15680
besprijeko	15681
strategiju	15682
budućim	15683
objektu	15684
realizaciju	15685
božićni	15686
globalne	15687
izlaga	15688
izlasku	15689
tražeći	15690
profesionalno	15691
procjena	15692
koreja	15693
##lyn	15694
spriječili	15695
##kovcu	15696
periši	15697
jutarnja	15698
povod	15699
britanije	15700
herceg	15701
boravi	15702
kraljevski	15703
podruž	15704
kombinaciju	15705
izvedbu	15706
vodovod	15707
nevjerojatna	15708
morh	15709
približava	15710
petrov	15711
dokumentacije	15712
baciti	15713
prekrasno	15714
dvostruki	15715
dubravka	15716
glasine	15717
zatekli	15718
poštuje	15719
reformi	15720
humanitarne	15721
suvremene	15722
uznemiru	15723
makedonije	15724
orešković	15725
reprezentativci	15726
službama	15727
nezakonito	15728
kamoli	15729
promovira	15730
jabuke	15731
prvoligaša	15732
inženjer	15733
obavještajne	15734
u0107	15735
kandidirati	15736
benjamin	15737
clo	15738
ever	15739
ivu	15740
kvo	15741
ny	15742
old	15743
ujka	15744
čnu	15745
##13	15746
##190	15747
##8_220	15748
jev	15749
jen	15750
nazad	15751
##rijom	15752
##vanog	15753
##jala	15754
zadi	15755
kocka	15756
dapa	15757
suce	15758
sutkinja	15759
izgovo	15760
##lete	15761
mosk	15762
toyo	15763
gospe	15764
manju	15765
##lud	15766
##čeve	15767
##zale	15768
##čavanju	15769
vat	15770
borio	15771
putnik	15772
intu	15773
diva	15774
barije	15775
##gin	15776
##sula	15777
pranja	15778
duhu	15779
dužan	15780
mješo	15781
rublje	15782
plati	15783
ljut	15784
otkrije	15785
rose	15786
rodbi	15787
burić	15788
žila	15789
##štar	15790
leđima	15791
trebat	15792
vršnja	15793
riješio	15794
kadar	15795
obilazi	15796
premalo	15797
fore	15798
aktivne	15799
sovjet	15800
krenu	15801
automati	15802
dvaju	15803
nekolici	15804
brad	15805
izađe	15806
tajvan	15807
prijavili	15808
##cijskoj	15809
župe	15810
komplika	15811
crnog	15812
uspjelo	15813
rezultirati	15814
112	15815
momci	15816
blic	15817
četvrtog	15818
pronala	15819
splitskoj	15820
podigli	15821
skida	15822
modelu	15823
osjećaje	15824
opasan	15825
pričali	15826
novost	15827
bolesni	15828
nogometnu	15829
izvode	15830
produktivno	15831
utvrđena	15832
nedovoljno	15833
travnjak	15834
domovinu	15835
planirano	15836
turiste	15837
streljiva	15838
glasali	15839
katalo	15840
zarade	15841
proslavi	15842
afd	15843
oduševljen	15844
ljubitelje	15845
svakodnevni	15846
televiziju	15847
navedenih	15848
demokracije	15849
aktualna	15850
konkurencija	15851
počinjenje	15852
dostupnim	15853
županijskom	15854
stajao	15855
portalu	15856
dokazi	15857
omiljena	15858
ugrožava	15859
statusa	15860
odustaje	15861
vjenčali	15862
seksualni	15863
seksualnog	15864
energetski	15865
amater	15866
provedeno	15867
britanska	15868
zbilja	15869
obavljati	15870
urban	15871
odmoru	15872
sankcioniran	15873
pridonosi	15874
meteoalarm	15875
bazenu	15876
veleposlanik	15877
alternativa	15878
učinkovitosti	15879
beroša	15880
airline	15881
vukovarsko	15882
##_272327	15883
anketama	15884
drukčije	15885
višestruko	15886
univerza	15887
ravnotežu	15888
ljubljani	15889
vokal	15890
asfal	15891
juventus	15892
smrtono	15893
kontejner	15894
devedesetih	15895
brodogradili	15896
##fields	15897
_t	15898
asa	15899
k_2720	15900
mysqli	15901
pti	15902
spra	15903
trom	15904
šve	15905
šted	15906
##isa	15907
##jder	15908
##nkom	15909
##bser	15910
##_1	15911
##_photo	15912
##yle	15913
##non	15914
zase	15915
kol	15916
koro	15917
domet	15918
donira	15919
neči	15920
izvana	15921
##rum	15922
prega	15923
prepusti	15924
prerano	15925
tempo	15926
maski	15927
##description	15928
##zivaju	15929
milja	15930
##čici	15931
##pisom	15932
like	15933
lidera	15934
trešnje	15935
hrvatima	15936
svetom	15937
predsjeda	15938
tiši	15939
silno	15940
detek	15941
##press	15942
labu	15943
igračke	15944
stranicu	15945
lec	15946
mogućih	15947
vrto	15948
vjer	15949
općoj	15950
##height	15951
slaba	15952
192	15953
lučić	15954
sokol	15955
svjesna	15956
brašna	15957
marco	15958
šez	15959
tajnu	15960
brojka	15961
stečaj	15962
final	15963
istih	15964
obala	15965
misije	15966
uspjehu	15967
kazati	15968
##version	15969
ker	15970
kevin	15971
vojnike	15972
napravljen	15973
zajedništva	15974
hd_27	15975
zonu	15976
koncep	15977
porasti	15978
pokušavali	15979
grčkoj	15980
sportsko	15981
razigra	15982
nacionalno	15983
zaključak	15984
oneči	15985
ostvaruje	15986
##ljivosti	15987
središta	15988
ivanca	15989
struja	15990
francuz	15991
stručne	15992
humor	15993
zahvalnosti	15994
osnovnu	15995
union	15996
iznenadila	15997
zahtjevima	15998
međunarodnu	15999
prosjek	16000
namjere	16001
branič	16002
članicama	16003
kategoriju	16004
članstvo	16005
investitora	16006
width	16007
sportaš	16008
podržao	16009
večernjim	16010
upale	16011
skuplji	16012
hnb	16013
##mintrotext	16014
dubrovačkog	16015
žrtvu	16016
upisati	16017
belling	16018
dragocje	16019
zadržao	16020
završni	16021
ispali	16022
prihvatili	16023
proširila	16024
ženska	16025
pustite	16026
iranski	16027
uredbe	16028
catfe	16029
nemoć	16030
prijateljice	16031
podrum	16032
nastoje	16033
zapovjedni	16034
trenirao	16035
rješavati	16036
desnice	16037
aktivisti	16038
preživio	16039
preživjeti	16040
celziju	16041
odabrali	16042
koprivnice	16043
miletić	16044
statistika	16045
mihael	16046
kaštel	16047
nezadovoljni	16048
##_2723190	16049
bakterije	16050
elektrane	16051
catitema	16052
nuklearnog	16053
sramota	16054
cipele	16055
atentata	16056
##_items	16057
prebačen	16058
kukuru	16059
okršaj	16060
ventila	16061
iseljenika	16062
bellingham	16063
azij	16064
flu	16065
fbi	16066
hre	16067
irao	16068
ivice	16069
sq	16070
snu	16071
zvati	16072
zmija	16073
ški	16074
##vske	16075
##aa	16076
##rki	16077
##lton	16078
##pto	16079
##žnju	16080
##_link	16081
##fron	16082
##wan	16083
##lant	16084
##ređen	16085
##vik	16086
donji	16087
nek	16088
rafi	16089
prekretni	16090
##gale	16091
##tuju	16092
pay	16093
vedra	16094
##ćenost	16095
bodom	16096
društava	16097
bazu	16098
bavio	16099
joh	16100
pic	16101
značenje	16102
lanovi	16103
musli	16104
roči	16105
igranje	16106
lever	16107
##tjeti	16108
faktora	16109
izborili	16110
riva	16111
rich	16112
##kret	16113
stimu	16114
bračni	16115
##škovi	16116
stupio	16117
izražava	16118
##cijskom	16119
##dney	16120
političko	16121
ljevica	16122
istini	16123
gube	16124
crkvu	16125
fotogale	16126
istražni	16127
porukom	16128
nogom	16129
hidra	16130
vojnom	16131
razlikuje	16132
smještena	16133
porasta	16134
najave	16135
najavlji	16136
skupinama	16137
povećala	16138
određeno	16139
kulturni	16140
obiteljskom	16141
ford	16142
srednjoj	16143
zapadnom	16144
francuzi	16145
pruge	16146
zahvalna	16147
savezni	16148
osudio	16149
odlič	16150
sudara	16151
ivošević	16152
utvrdili	16153
pisac	16154
izvrsnosti	16155
pojedine	16156
nestale	16157
uputila	16158
razumiju	16159
##fore	16160
preminu	16161
prethodni	16162
prometnice	16163
pozornosti	16164
potražnja	16165
potrebnih	16166
prisutne	16167
saborskog	16168
umjetnički	16169
##jniran	16170
preuzeli	16171
##miniran	16172
konkurent	16173
naglaskom	16174
procjenama	16175
nabavi	16176
topline	16177
nazvala	16178
umre	16179
prestane	16180
chris	16181
ženski	16182
pustili	16183
odvjetništva	16184
držimo	16185
ciljevi	16186
australije	16187
etvrt	16188
suparnik	16189
dodjele	16190
rumunjskoj	16191
teorije	16192
angeles	16193
ukloniti	16194
potiču	16195
zauzeo	16196
dvorište	16197
preuzimanje	16198
mlađim	16199
motocikla	16200
poslodavci	16201
kiseline	16202
lošije	16203
rakiti	16204
joea	16205
infekcija	16206
putnike	16207
korijena	16208
poteškoće	16209
progovorila	16210
preglede	16211
guardian	16212
orijenta	16213
genocid	16214
carlos	16215
##_2718650	16216
skladatelj	16217
##_271069	16218
funkcionirati	16219
leverku	16220
_er	16221
hvar	16222
oly	16223
pl	16224
rb	16225
uveo	16226
xa	16227
##znika	16228
##fc	16229
##rez	16230
donjem	16231
suza	16232
bitku	16233
iznova	16234
sandro	16235
raš	16236
prebro	16237
princa	16238
tonu	16239
text	16240
##turi	16241
ville	16242
tar	16243
cav	16244
##ljac	16245
lipo	16246
obdu	16247
nijedna	16248
jos	16249
joom	16250
beto	16251
prazni	16252
tuga	16253
ruskoj	16254
lavo	16255
lanac	16256
lažne	16257
planovima	16258
strasti	16259
kin	16260
vjeri	16261
predsjednicu	16262
order	16263
izacije	16264
lijekovi	16265
smanjuju	16266
širiti	16267
cestom	16268
prošlih	16269
reak	16270
porukama	16271
uporno	16272
snažna	16273
odgovoru	16274
brisa	16275
učiteljica	16276
urednica	16277
službenik	16278
posjed	16279
udaljen	16280
podignuta	16281
potvrđuju	16282
##jelima	16283
šumi	16284
šušnja	16285
premijerno	16286
vidiš	16287
iskustava	16288
napora	16289
čekam	16290
cur	16291
stanovi	16292
osnovno	16293
osnovao	16294
priroda	16295
procese	16296
bijeg	16297
vezama	16298
turistima	16299
okupiti	16300
snimljena	16301
izvrsno	16302
biračima	16303
koliki	16304
svjedoka	16305
dijalog	16306
pariza	16307
harki	16308
primarno	16309
postupcima	16310
poljoprivredi	16311
iskoristila	16312
330	16313
raspravi	16314
globalni	16315
nabava	16316
visokoj	16317
migracija	16318
pridruži	16319
intenzitet	16320
visina	16321
tvrdeći	16322
pojačanja	16323
inspiriran	16324
osiguravaju	16325
nevjerojatnih	16326
četvrtfinala	16327
koprivnica	16328
pisme	16329
220x146	16330
raznoliko	16331
namijenjena	16332
nezavisna	16333
uskrsni	16334
gužva	16335
zlostavljanja	16336
osnovana	16337
božje	16338
spomenutih	16339
silovanje	16340
resurse	16341
terapija	16342
elektrana	16343
atentat	16344
omjer	16345
münchenu	16346
bombardi	16347
rudeš	16348
karlovcu	16349
nokaut	16350
ansambl	16351
istanbul	16352
tottenham	16353
čvorova	16354
##_270435	16355
password	16356
golmana	16357
[...]
