<unk>	0
<s>	0
</s>	0
je	-0
▁s	-1
▁p	-2
na	-3
ra	-4
▁i	-5
ko	-6
ni	-7
ti	-8
▁d	-9
▁o	-10
▁u	-11
no	-12
▁je	-13
li	-14
re	-15
ro	-16
ta	-17
la	-18
va	-19
ri	-20
▁na	-21
ja	-22
ka	-23
ne	-24
▁po	-25
ma	-26
te	-27
vi	-28
to	-29
▁z	-30
vo	-31
▁b	-32
ca	-33
▁m	-34
ju	-35
di	-36
ji	-37
ve	-38
▁za	-39
▁ko	-40
ci	-41
da	-42
lo	-43
go	-44
▁se	-45
▁da	-46
▁su	-47
▁a	-48
▁do	-49
st	-50
ru	-51
mo	-52
▁ne	-53
le	-54
ki	-55
nje	-56
▁od	-57
▁ka	-58
ku	-59
nu	-60
▁iz	-61
▁bi	-62
▁t	-63
me	-64
▁pro	-65
sta	-66
ga	-67
ke	-68
▁P	-69
▁S	-70
▁sa	-71
će	-72
sti	-73
ron	-74
caron	-75
▁ra	-76
▁pre	-77
▁pri	-78
▁M	-79
mi	-80
▁N	-81
zi	-82
bi	-83
lje	-84
lu	-85
nja	-86
či	-87
če	-88
▁mo	-89
po	-90
de	-91
▁š	-92
▁D	-93
▁g	-94
▁k	-95
pa	-96
tu	-97
cu	-98
ce	-99
ba	-100
bo	-101
▁to	-102
si	-103
▁go	-104
▁B	-105
▁te	-106
▁ni	-107
▁K	-108
sko	-109
▁re	-110
že	-111
▁v	-112
za	-113
▁T	-114
ča	-115
sa	-116
▁koji	-117
▁H	-118
ski	-119
ći	-120
▁I	-121
še	-122
ccaron	-123
▁O	-124
▁U	-125
ži	-126
▁A	-127
lja	-128
du	-129
do	-130
pi	-131
sto	-132
▁1	-133
gu	-134
▁V	-135
▁će	-136
gra	-137
jo	-138
▁R	-139
▁"	-140
▁mi	-141
lju	-142
▁no	-143
▁2	-144
nji	-145
▁ve	-146
▁vi	-147
▁e	-148
cute	-149
cacute	-150
se	-151
nom	-152
▁pa	-153
ća	-154
▁Z	-155
rva	-156
rije	-157
▁što	-158
nog	-159
▁ta	-160
▁godi	-161
nih	-162
▁-	-163
ža	-164
▁f	-165
ša	-166
vje	-167
nim	-168
tra	-169
cije	-170
lji	-171
▁G	-172
▁ob	-173
su	-174
▁ma	-175
▁J	-176
ske	-177
pu	-178
vr	-179
▁li	-180
▁h	-181
be	-182
ši	-183
cija	-184
gi	-185
zcaron	-186
▁L	-187
▁Na	-188
▁svo	-189
▁me	-190
so	-191
nju	-192
rvat	-193
vu	-194
▁tre	-195
▁ima	-196
▁Ma	-197
dni	-198
pe	-199
▁vo	-200
lj	-201
▁kako	-202
▁bo	-203
ge	-204
sje	-205
zo	-206
đe	-207
ze	-208
▁di	-209
▁pu	-210
▁koje	-211
vije	-212
▁dru	-213
▁Po	-214
▁(	-215
dje	-216
▁naj	-217
▁sta	-218
kom	-219
▁raz	-220
▁ti	-221
▁&	-222
▁Za	-223
mje	-224
▁E	-225
▁nije	-226
kon	-227
▁va	-228
",	-229
▁in	-230
▁pred	-231
▁ja	-232
ska	-233
▁nje	-234
▁si	-235
▁sve	-236
vno	-237
▁kao	-238
mu	-239
▁C	-240
▁ali	-241
ho	-242
tak	-243
▁20	-244
dno	-245
▁F	-246
pre	-247
▁pr	-248
stu	-249
▁sam	-250
pra	-251
▁Ka	-252
▁de	-253
▁is	-254
ran	-255
▁če	-256
rati	-257
▁gra	-258
▁Hrvat	-259
nije	-260
▁godine	-261
▁ku	-262
▁mje	-263
vni	-264
▁Mi	-265
zu	-266
or	-267
▁pos	-268
zna	-269
..	-270
rža	-271
▁smo	-272
▁zna	-273
tni	-274
bu	-275
vić	-276
▁pod	-277
▁biti	-278
▁pot	-279
▁pi	-280
▁koja	-281
đu	-282
đa	-283
▁jo	-284
skog	-285
▁st	-286
▁dje	-287
tno	-288
00	-289
ina	-290
govo	-291
ču	-292
liko	-293
vlja	-294
▁nakon	-295
▁ot	-296
an	-297
▁pla	-298
rno	-299
▁samo	-300
▁ili	-301
▁dana	-302
▁više	-303
▁stra	-304
▁pra	-305
▁Š	-306
▁lju	-307
▁kon	-308
sni	-309
sno	-310
▁Ne	-311
▁us	-312
kao	-313
nta	-314
▁prije	-315
dio	-316
▁'	-317
▁gla	-318
▁mu	-319
▁bio	-320
▁nji	-321
▁tu	-322
rt	-323
▁tra	-324
▁eu	-325
šta	-326
▁jed	-327
ste	-328
▁Do	-329
▁uz	-330
dan	-331
▁igra	-332
ije	-333
▁svi	-334
▁Da	-335
čki	-336
vanje	-337
▁3	-338
tiv	-339
▁ga	-340
er	-341
ha	-342
gre	-343
▁tako	-344
rni	-345
▁ovo	-346
▁ži	-347
bog	-348
skoj	-349
▁ba	-350
▁kra	-351
ću	-352
gle	-353
tje	-354
▁može	-355
vati	-356
▁jer	-357
▁još	-358
▁du	-359
dst	-360
skom	-361
▁ru	-362
skih	-363
lni	-364
▁be	-365
▁poli	-366
dra	-367
▁To	-368
▁že	-369
žu	-370
gla	-371
▁osta	-372
▁pe	-373
▁Ko	-374
vio	-375
nti	-376
telji	-377
sku	-378
bro	-379
▁rekao	-380
nda	-381
▁treba	-382
mije	-383
▁mogu	-384
fi	-385
lno	-386
ciju	-387
▁godina	-388
▁Mo	-389
▁zbog	-390
vali	-391
▁posto	-392
▁spo	-393
šte	-394
godi	-395
rok	-396
ar	-397
▁či	-398
▁slu	-399
št	-400
▁sva	-401
vanja	-402
▁Sa	-403
stra	-404
▁bilo	-405
vlje	-406
lije	-407
fe	-408
sjedni	-409
▁bu	-410
▁No	-411
stva	-412
▁vr	-413
▁bro	-414
▁lo	-415
▁vrije	-416
▁obja	-417
kla	-418
vom	-419
nici	-420
kra	-421
rija	-422
▁oso	-423
▁Ra	-424
čko	-425
čno	-426
ako	-427
▁os	-428
▁veli	-429
▁vje	-430
▁ro	-431
▁oko	-432
▁eura	-433
▁202	-434
reme	-435
takmi	-436
▁obi	-437
dstrok	-438
bje	-439
▁cije	-440
tro	-441
▁dobi	-442
ona	-443
▁dok	-444
tom	-445
▁Bi	-446
in	-447
▁hrvat	-448
red	-449
▁vla	-450
pli	-451
jom	-452
▁utakmi	-453
kri	-454
▁već	-455
▁doda	-456
telj	-457
▁au	-458
▁Re	-459
van	-460
uro	-461
vori	-462
joj	-463
što	-464
klju	-465
▁bila	-466
▁tri	-467
om	-468
▁posta	-469
▁Ja	-470
kre	-471
lim	-472
nt	-473
▁Pa	-474
▁Bo	-475
▁4	-476
▁radi	-477
▁Me	-478
nika	-479
▁izbo	-480
rom	-481
he	-482
▁živo	-483
nci	-484
▁kada	-485
viti	-486
▁op	-487
nica	-488
▁mora	-489
▁5	-490
...	-491
▁nas	-492
▁tije	-493
tko	-494
nima	-495
pri	-496
▁predsjedni	-497
".	-498
▁njego	-499
▁ju	-500
il	-501
skim	-502
vara	-503
vima	-504
nosti	-505
▁Ba	-506
▁Euro	-507
▁sto	-508
▁iza	-509
vih	-510
kti	-511
▁č	-512
ter	-513
▁ljudi	-514
▁Pe	-515
▁prema	-516
▁c	-517
risti	-518
šti	-519
▁svoje	-520
ško	-521
▁odlu	-522
voj	-523
sla	-524
▁drža	-525
▁neko	-526
jući	-527
▁Ha	-528
▁odno	-529
rani	-530
▁dva	-531
lazi	-532
ven	-533
spo	-534
stvo	-535
▁ih	-536
ner	-537
hi	-538
▁Ni	-539
▁la	-540
vim	-541
▁protiv	-542
▁kri	-543
▁ze	-544
▁Be	-545
▁Ve	-546
čke	-547
▁Va	-548
▁19	-549
cima	-550
▁ova	-551
pisa	-552
▁auto	-553
▁Zagre	-554
iz	-555
▁njiho	-556
▁bez	-557
▁nasta	-558
▁nam	-559
▁Je	-560
ble	-561
nost	-562
▁jedan	-563
▁poče	-564
ndi	-565
),	-566
▁drugi	-567
ciji	-568
▁6	-569
▁gdje	-570
tar	-571
▁rije	-572
▁nego	-573
▁sre	-574
▁kre	-575
met	-576
rao	-577
ruč	-578
njem	-579
tka	-580
▁klu	-581
nuti	-582
godiš	-583
▁sla	-584
lom	-585
nd	-586
pje	-587
▁kad	-588
▁mili	-589
▁sada	-590
▁Pro	-591
sre	-592
vila	-593
jte	-594
▁mla	-595
▁ce	-596
▁nema	-597
kup	-598
▁pomo	-599
tvr	-600
for	-601
▁pita	-602
vao	-603
▁Iz	-604
bli	-605
dne	-606
šao	-607
▁dije	-608
▁Go	-609
▁tr	-610
▁pobje	-611
▁ki	-612
▁svje	-613
▁toga	-614
▁im	-615
▁nisu	-616
▁trenu	-617
▁sje	-618
▁Vi	-619
▁pove	-620
stup	-621
pla	-622
gleda	-623
vaju	-624
bno	-625
jek	-626
▁Jo	-627
dna	-628
▁Du	-629
el	-630
▁pje	-631
▁broj	-632
dom	-633
nuo	-634
▁vrijeme	-635
▁Li	-636
▁dobro	-637
▁prija	-638
▁Mar	-639
▁Pre	-640
▁tvr	-641
▁Ru	-642
▁sigu	-643
▁sma	-644
▁upra	-645
▁poka	-646
▁ci	-647
▁lije	-648
▁svije	-649
▁među	-650
▁Ta	-651
pada	-652
tim	-653
tua	-654
▁W	-655
▁ča	-656
4.	-657
▁or	-658
0.	-659
ren	-660
▁ove	-661
▁stu	-662
▁popu	-663
sli	-664
rima	-665
nski	-666
▁društ	-667
▁Č	-668
lova	-669
▁predsta	-670
▁proble	-671
▁7	-672
vog	-673
▁pozi	-674
▁fo	-675
lne	-676
▁fina	-677
jim	-678
meta	-679
▁še	-680
jem	-681
▁politi	-682
▁ako	-683
▁novi	-684
▁taj	-685
▁sti	-686
rio	-687
rbi	-688
star	-689
▁sezo	-690
nice	-691
▁obra	-692
▁on	-693
1.	-694
▁zaje	-695
▁Gra	-696
▁dio	-697
bra	-698
▁kod	-699
vijek	-700
tjeca	-701
log	-702
▁oz	-703
▁proš	-704
▁ide	-705
▁Su	-706
ška	-707
▁par	-708
▁Ž	-709
▁zdra	-710
zira	-711
▁koju	-712
nik	-713
gao	-714
rta	-715
▁mjese	-716
sam	-717
diti	-718
▁nekoliko	-719
▁upo	-720
kto	-721
▁stva	-722
▁potre	-723
▁Dina	-724
▁so	-725
noj	-726
niji	-727
▁proiz	-728
▁zah	-729
▁le	-730
vija	-731
▁danas	-732
nira	-733
▁zavr	-734
▁drugo	-735
cij	-736
2.	-737
▁tje	-738
▁Ro	-739
▁poru	-740
▁medi	-741
▁sati	-742
▁Ju	-743
vala	-744
voji	-745
▁sna	-746
čio	-747
▁pose	-748
▁ško	-749
ciona	-750
gani	-751
dar	-752
▁Pri	-753
▁najbo	-754
▁neki	-755
3.	-756
čin	-757
vne	-758
▁miliju	-759
lano	-760
▁zem	-761
▁Bu	-762
lan	-763
klo	-764
▁uspje	-765
▁bili	-766
meri	-767
▁oba	-768
▁poslje	-769
hu	-770
pan	-771
vna	-772
▁ste	-773
stve	-774
tku	-775
▁otkri	-776
čka	-777
▁osi	-778
dnji	-779
▁prili	-780
kraji	-781
zul	-782
đer	-783
▁Lu	-784
rne	-785
lek	-786
nosi	-787
▁kro	-788
en	-789
▁Hrvatske	-790
▁Od	-791
▁ho	-792
vši	-793
▁izra	-794
▁kaže	-795
▁kori	-796
5.	-797
sjeti	-798
pro	-799
▁lje	-800
▁isto	-801
žbe	-802
vore	-803
ng	-804
▁tome	-805
▁jedno	-806
tne	-807
▁proizvo	-808
▁odgovo	-809
▁prvi	-810
▁tijekom	-811
▁isti	-812
▁nešto	-813
▁Nakon	-814
▁vreme	-815
▁8	-816
rak	-817
▁sr	-818
zao	-819
▁doma	-820
telja	-821
▁zapo	-822
▁pozna	-823
▁istra	-824
▁Rije	-825
tan	-826
vnog	-827
▁Lo	-828
kupi	-829
▁nogo	-830
▁Hrvatskoj	-831
▁puno	-832
▁sigurno	-833
nija	-834
▁Nje	-835
menta	-836
▁umje	-837
▁malo	-838
▁kom	-839
▁fa	-840
volj	-841
ković	-842
▁uvijek	-843
vili	-844
▁žu	-845
▁prva	-846
▁izme	-847
▁dvije	-848
vla	-849
man	-850
▁Vla	-851
▁put	-852
▁vozi	-853
▁organi	-854
▁inte	-855
nistar	-856
zulta	-857
▁pono	-858
din	-859
▁Pu	-860
▁La	-861
al	-862
▁slo	-863
▁Tu	-864
op	-865
▁nad	-866
▁Spli	-867
▁poja	-868
▁kojima	-869
nio	-870
dru	-871
im	-872
▁njezi	-873
bije	-874
gađa	-875
▁Sve	-876
len	-877
▁201	-878
dova	-879
gli	-880
▁milijuna	-881
▁nika	-882
jdu	-883
▁održa	-884
bri	-885
šu	-886
bio	-887
dnje	-888
▁kojem	-889
▁br	-890
vnom	-891
tiri	-892
▁sad	-893
vreme	-894
rje	-895
▁pogo	-896
▁dr	-897
niti	-898
▁ona	-899
zenta	-900
▁jedna	-901
▁ri	-902
▁napra	-903
nama	-904
▁Se	-905
više	-906
▁oče	-907
▁rekla	-908
▁Le	-909
vodi	-910
stru	-911
pak	-912
▁neće	-913
▁imaju	-914
▁fil	-915
▁tro	-916
▁područ	-917
tre	-918
▁rezulta	-919
).	-920
čkog	-921
▁najve	-922
▁uklju	-923
▁kojoj	-924
▁dvo	-925
kli	-926
smo	-927
ime	-928
▁dalje	-929
rana	-930
tovo	-931
▁An	-932
▁sluča	-933
▁onda	-934
▁Hajdu	-935
leda	-936
▁svoj	-937
▁govori	-938
▁vrlo	-939
▁Hrvatska	-940
đi	-941
▁uvje	-942
▁između	-943
▁In	-944
forma	-945
prezenta	-946
000	-947
kovi	-948
▁euro	-949
▁Te	-950
tri	-951
▁jako	-952
▁situa	-953
▁budu	-954
▁9	-955
▁mre	-956
jan	-957
čne	-958
▁dan	-959
com	-960
▁pet	-961
▁osje	-962
zne	-963
▁ope	-964
▁tek	-965
▁dese	-966
▁vam	-967
▁ćemo	-968
▁reprezenta	-969
tke	-970
▁Vo	-971
▁voj	-972
▁razli	-973
▁prosto	-974
▁događa	-975
▁Ku	-976
žno	-977
▁Europ	-978
▁veći	-979
ver	-980
▁svojim	-981
tio	-982
dri	-983
stri	-984
▁susta	-985
▁smje	-986
jih	-987
▁gu	-988
▁Kako	-989
nera	-990
▁De	-991
▁svoju	-992
▁projek	-993
▁kroz	-994
',	-995
čni	-996
nj	-997
▁Ga	-998
kle	-999
▁njih	-1000
▁čak	-1001
▁naše	-1002
▁oni	-1003
▁rea	-1004
▁joj	-1005
▁Osi	-1006
▁dola	-1007
▁10	-1008
▁poku	-1009
▁progra	-1010
roja	-1011
stak	-1012
▁poslo	-1013
nske	-1014
kr	-1015
▁ču	-1016
▁mom	-1017
rali	-1018
vanju	-1019
6.	-1020
▁tak	-1021
▁četvr	-1022
riti	-1023
▁predsjednik	-1024
čić	-1025
raž	-1026
ški	-1027
▁kvali	-1028
▁loka	-1029
▁također	-1030
▁ak	-1031
▁mjesto	-1032
8.	-1033
vac	-1034
▁gleda	-1035
▁puta	-1036
▁veliki	-1037
vnosti	-1038
▁poput	-1039
▁hi	-1040
▁minu	-1041
▁ula	-1042
▁pora	-1043
▁ono	-1044
▁Ukraji	-1045
▁ras	-1046
▁pripre	-1047
šli	-1048
▁zajedni	-1049
7.	-1050
▁prven	-1051
▁vra	-1052
nače	-1053
čiti	-1054
▁osoba	-1055
▁zašti	-1056
▁svjet	-1057
rna	-1058
▁glaz	-1059
dije	-1060
▁uda	-1061
▁građa	-1062
▁prona	-1063
▁osigu	-1064
ncija	-1065
ndida	-1066
▁jednom	-1067
▁koliko	-1068
čili	-1069
▁izja	-1070
nka	-1071
▁vodi	-1072
▁Si	-1073
uze	-1074
▁napa	-1075
movi	-1076
vijesti	-1077
▁Ako	-1078
▁ge	-1079
▁grad	-1080
vede	-1081
ks	-1082
tna	-1083
▁društve	-1084
bora	-1085
▁bra	-1086
govara	-1087
nula	-1088
štu	-1089
ksi	-1090
▁konce	-1091
▁mnog	-1092
▁ovaj	-1093
čkih	-1094
▁način	-1095
▁utakmice	-1096
▁četiri	-1097
▁sli	-1098
▁zat	-1099
▁tada	-1100
▁ime	-1101
▁tisu	-1102
šnje	-1103
▁15	-1104
▁dugo	-1105
▁pret	-1106
▁druge	-1107
▁smatra	-1108
vor	-1109
▁Dinamo	-1110
▁jedi	-1111
ćem	-1112
▁nastu	-1113
cijama	-1114
▁osvoji	-1115
▁odnosno	-1116
▁neka	-1117
▁Tako	-1118
sao	-1119
nali	-1120
▁europ	-1121
DZ	-1122
tor	-1123
rac	-1124
sle	-1125
nova	-1126
▁istak	-1127
hva	-1128
▁vidje	-1129
▁službe	-1130
tima	-1131
▁preko	-1132
▁naja	-1133
▁vrati	-1134
sne	-1135
▁spa	-1136
▁ši	-1137
stvu	-1138
▁ure	-1139
vesti	-1140
▁sura	-1141
slu	-1142
nke	-1143
rica	-1144
▁Fran	-1145
plo	-1146
menti	-1147
▁fi	-1148
▁Vu	-1149
▁piše	-1150
▁glu	-1151
▁zra	-1152
▁foto	-1153
▁lu	-1154
▁pokuša	-1155
▁kandida	-1156
▁obitelji	-1157
vnih	-1158
njak	-1159
▁Iva	-1160
▁razi	-1161
šnji	-1162
▁bli	-1163
▁dogodi	-1164
čkom	-1165
pusti	-1166
mati	-1167
▁sezone	-1168
▁imao	-1169
▁tko	-1170
▁pokre	-1171
▁tom	-1172
▁ulo	-1173
mobi	-1174
▁HDZ	-1175
čkoj	-1176
▁želi	-1177
▁promje	-1178
ranje	-1179
lima	-1180
▁kul	-1181
▁akti	-1182
▁zdrav	-1183
dam	-1184
▁Au	-1185
▁Varaž	-1186
▁strane	-1187
lna	-1188
▁spre	-1189
▁Di	-1190
pozna	-1191
ljivo	-1192
▁manje	-1193
mpa	-1194
▁nu	-1195
▁cr	-1196
▁skupi	-1197
▁susre	-1198
ljede	-1199
▁primje	-1200
vra	-1201
▁mladi	-1202
▁pone	-1203
glasi	-1204
▁natjeca	-1205
co	-1206
▁regi	-1207
dila	-1208
ške	-1209
▁vremena	-1210
▁Naj	-1211
rala	-1212
▁vije	-1213
▁zaklju	-1214
sna	-1215
men	-1216
▁župa	-1217
▁pokaza	-1218
per	-1219
đen	-1220
▁život	-1221
▁vlasti	-1222
čer	-1223
▁završi	-1224
▁ener	-1225
žda	-1226
▁EU	-1227
▁vas	-1228
▁odre	-1229
▁poveća	-1230
▁potvr	-1231
▁koristi	-1232
cama	-1233
pru	-1234
▁al	-1235
▁inter	-1236
▁navija	-1237
dili	-1238
▁svih	-1239
▁pravo	-1240
mir	-1241
teta	-1242
fa	-1243
▁12	-1244
ljem	-1245
▁neo	-1246
lnih	-1247
▁imati	-1248
prije	-1249
▁pote	-1250
▁sasta	-1251
▁svako	-1252
nk	-1253
lić	-1254
jedi	-1255
▁Među	-1256
▁unu	-1257
▁mjesta	-1258
mogu	-1259
▁kraju	-1260
▁Al	-1261
▁njega	-1262
oj	-1263
šla	-1264
mr	-1265
▁automobi	-1266
ovje	-1267
▁kru	-1268
▁rad	-1269
▁gotovo	-1270
rod	-1271
▁fotogra	-1272
▁informa	-1273
9.	-1274
▁poda	-1275
▁ljuba	-1276
▁ostva	-1277
▁Dra	-1278
▁Ima	-1279
▁tere	-1280
▁bri	-1281
čna	-1282
▁teško	-1283
▁vode	-1284
▁oda	-1285
jka	-1286
raju	-1287
▁potpu	-1288
rvi	-1289
čan	-1290
▁sudje	-1291
cio	-1292
rka	-1293
▁viso	-1294
▁Milano	-1295
pnja	-1296
ID	-1297
▁bude	-1298
jemo	-1299
pravo	-1300
snije	-1301
▁Ova	-1302
▁bit	-1303
rane	-1304
zni	-1305
rovi	-1306
▁Zagrebu	-1307
nskog	-1308
▁kazao	-1309
▁suda	-1310
logi	-1311
čaj	-1312
▁Tre	-1313
▁ovom	-1314
▁Pi	-1315
kova	-1316
dovi	-1317
▁proda	-1318
šić	-1319
lnog	-1320
▁odu	-1321
▁uči	-1322
▁naši	-1323
▁Srbi	-1324
▁rje	-1325
▁mogao	-1326
▁teh	-1327
▁Ali	-1328
▁prati	-1329
ture	-1330
▁isku	-1331
▁polu	-1332
▁Njema	-1333
hvati	-1334
▁posebno	-1335
▁kojeg	-1336
kve	-1337
▁supru	-1338
▁kolo	-1339
▁nagra	-1340
▁Plen	-1341
▁teme	-1342
▁nesre	-1343
▁momča	-1344
rtu	-1345
novi	-1346
▁organiza	-1347
▁godinu	-1348
▁ameri	-1349
▁kazne	-1350
šnja	-1351
▁Ovo	-1352
▁obitelj	-1353
riji	-1354
fo	-1355
bor	-1356
▁Fi	-1357
pred	-1358
▁gospo	-1359
kav	-1360
▁Ši	-1361
▁Ho	-1362
▁part	-1363
esti	-1364
▁premije	-1365
▁izgu	-1366
▁glazbe	-1367
▁knji	-1368
blje	-1369
rić	-1370
▁Ti	-1371
▁ovog	-1372
▁podr	-1373
▁odma	-1374
▁stude	-1375
slim	-1376
tara	-1377
▁nedje	-1378
lio	-1379
ak	-1380
▁2024.	-1381
▁So	-1382
vica	-1383
▁tim	-1384
▁prvo	-1385
▁dra	-1386
▁djela	-1387
mpe	-1388
▁one	-1389
▁sredi	-1390
▁obo	-1391
▁Ivan	-1392
▁ništa	-1393
mp	-1394
▁napisa	-1395
EO	-1396
titi	-1397
panjo	-1398
▁podu	-1399
▁Iako	-1400
▁bolni	-1401
ck	-1402
čku	-1403
▁Ri	-1404
▁karije	-1405
▁svom	-1406
▁mode	-1407
▁napada	-1408
▁mjestu	-1409
▁11	-1410
govi	-1411
zak	-1412
▁nosi	-1413
▁Mu	-1414
▁Što	-1415
▁vide	-1416
▁Tru	-1417
ch	-1418
cje	-1419
▁baš	-1420
jske	-1421
tki	-1422
▁neke	-1423
▁sport	-1424
vnim	-1425
▁ok	-1426
publi	-1427
▁dire	-1428
▁Dubro	-1429
▁Fo	-1430
▁zado	-1431
IDEO	-1432
▁pru	-1433
tali	-1434
▁posla	-1435
▁pitanje	-1436
▁muška	-1437
▁financi	-1438
nzi	-1439
▁200	-1440
▁sebe	-1441
-1	-1442
▁=	-1443
▁upozo	-1444
▁odra	-1445
▁posti	-1446
▁vidi	-1447
▁važ	-1448
▁Rusi	-1449
▁osjeća	-1450
loga	-1451
▁klju	-1452
tet	-1453
▁subo	-1454
čima	-1455
▁prizna	-1456
▁=>	-1457
▁tran	-1458
▁deset	-1459
tkom	-1460
▁uli	-1461
▁VIDEO	-1462
som	-1463
glo	-1464
žiti	-1465
mina	-1466
gom	-1467
nča	-1468
▁uspo	-1469
▁šest	-1470
▁18	-1471
čkim	-1472
dnja	-1473
rojatno	-1474
panjol	-1475
▁pjes	-1476
▁čeka	-1477
nata	-1478
lnim	-1479
▁izda	-1480
▁često	-1481
▁Sla	-1482
▁nove	-1483
pio	-1484
ljak	-1485
▁minuti	-1486
▁izgleda	-1487
kuje	-1488
▁stvari	-1489
▁opo	-1490
▁otvore	-1491
bar	-1492
▁Fa	-1493
▁osno	-1494
TO	-1495
lnik	-1496
▁slobo	-1497
▁naš	-1498
njoj	-1499
▁rodi	-1500
▁priča	-1501
▁pomoć	-1502
▁raspo	-1503
▁najbolji	-1504
▁(1	-1505
▁bih	-1506
▁oti	-1507
▁svim	-1508
▁obzi	-1509
▁ponu	-1510
▁kraja	-1511
▁njegovo	-1512
▁promet	-1513
ćih	-1514
fina	-1515
▁njima	-1516
▁spe	-1517
DP	-1518
miš	-1519
nde	-1520
▁bor	-1521
▁novina	-1522
digra	-1523
▁dosta	-1524
misi	-1525
▁nisam	-1526
limpi	-1527
▁napo	-1528
bre	-1529
▁imali	-1530
▁dobio	-1531
▁predsjednika	-1532
vjetni	-1533
▁vlasni	-1534
▁stru	-1535
ali	-1536
▁vozila	-1537
▁svijetu	-1538
▁gru	-1539
▁bolje	-1540
▁grado	-1541
stro	-1542
▁utjeca	-1543
▁ministar	-1544
njima	-1545
▁minuta	-1546
▁Prema	-1547
▁istraži	-1548
▁30	-1549
▁pobije	-1550
▁života	-1551
▁fu	-1552
▁uo	-1553
▁optu	-1554
stima	-1555
▁utakmica	-1556
tnih	-1557
▁Ministar	-1558
▁Ca	-1559
▁upravo	-1560
jna	-1561
▁poma	-1562
▁dodao	-1563
▁ugovo	-1564
▁kr	-1565
rili	-1566
▁Uz	-1567
▁navo	-1568
▁And	-1569
nuli	-1570
▁Poli	-1571
▁uključu	-1572
▁Nije	-1573
▁Zagreba	-1574
rem	-1575
▁djece	-1576
nce	-1577
spe	-1578
jski	-1579
▁kraj	-1580
vnika	-1581
▁druga	-1582
jima	-1583
▁svaki	-1584
▁možda	-1585
gova	-1586
▁opa	-1587
▁bole	-1588
nga	-1589
▁pona	-1590
ved	-1591
ranja	-1592
▁raču	-1593
▁Op	-1594
AD	-1595
nca	-1596
kva	-1597
▁bla	-1598
▁njegov	-1599
čila	-1600
che	-1601
▁njegova	-1602
bili	-1603
kako	-1604
it	-1605
opće	-1606
vca	-1607
▁mnogi	-1608
▁Pred	-1609
rice	-1610
▁tisuća	-1611
vnik	-1612
▁trži	-1613
lina	-1614
▁Sta	-1615
▁zajedno	-1616
▁poz	-1617
▁Grad	-1618
▁ipak	-1619
▁nalazi	-1620
▁prvaka	-1621
rina	-1622
▁Izra	-1623
san	-1624
▁[	-1625
▁13	-1626
nicu	-1627
▁tele	-1628
▁čovje	-1629
▁Slo	-1630
▁Lju	-1631
▁ispo	-1632
laz	-1633
šku	-1634
▁predstavlja	-1635
▁poči	-1636
▁omogu	-1637
▁uče	-1638
mom	-1639
rava	-1640
nović	-1641
tura	-1642
dnika	-1643
▁uži	-1644
▁stano	-1645
godišnji	-1646
▁problem	-1647
▁neza	-1648
▁vrijedno	-1649
▁kasnije	-1650
žio	-1651
▁izvo	-1652
šlo	-1653
▁odmah	-1654
▁hrvatski	-1655
▁ukup	-1656
zima	-1657
zem	-1658
▁idu	-1659
▁kaza	-1660
vdje	-1661
▁Dru	-1662
▁struč	-1663
▁Ze	-1664
slo	-1665
▁sklo	-1666
▁dolazi	-1667
▁nogomet	-1668
▁sred	-1669
▁kole	-1670
▁Zagreb	-1671
▁području	-1672
▁pol	-1673
greba	-1674
▁ponovno	-1675
▁utakmicu	-1676
▁elek	-1677
▁nedo	-1678
vez	-1679
▁jednu	-1680
▁Y	-1681
▁kla	-1682
▁kontro	-1683
šće	-1684
mpera	-1685
▁proce	-1686
▁odigra	-1687
▁Republi	-1688
▁Ameri	-1689
▁prošle	-1690
▁smi	-1691
▁mogli	-1692
kama	-1693
▁(2	-1694
tori	-1695
▁znači	-1696
nena	-1697
vaja	-1698
veo	-1699
ktor	-1700
▁zapa	-1701
ivo	-1702
▁iako	-1703
zuje	-1704
▁kvalite	-1705
▁svog	-1706
▁usta	-1707
čnih	-1708
teljima	-1709
▁Že	-1710
▁sud	-1711
▁odje	-1712
▁možete	-1713
voljno	-1714
vjet	-1715
đena	-1716
laze	-1717
▁osobe	-1718
▁inf	-1719
lnu	-1720
▁Ki	-1721
▁plaća	-1722
dnjih	-1723
▁imamo	-1724
▁zagreba	-1725
ry	-1726
bom	-1727
▁niti	-1728
▁osu	-1729
▁javno	-1730
▁sljede	-1731
▁Bar	-1732
▁odli	-1733
▁voza	-1734
kaza	-1735
▁sce	-1736
▁komu	-1737
▁Naime	-1738
▁djelo	-1739
rske	-1740
▁jednog	-1741
▁trenutku	-1742
▁neu	-1743
▁čini	-1744
▁upravlja	-1745
▁kilo	-1746
LE	-1747
▁0	-1748
▁zlo	-1749
piti	-1750
lih	-1751
▁Kad	-1752
lma	-1753
jeva	-1754
lovi	-1755
ravno	-1756
▁najviše	-1757
đenje	-1758
▁1.	-1759
▁eki	-1760
br	-1761
▁novo	-1762
▁ž	-1763
▁zato	-1764
rila	-1765
stitu	-1766
tnu	-1767
renje	-1768
▁izgra	-1769
dina	-1770
▁Osim	-1771
▁Co	-1772
▁Kra	-1773
▁posao	-1774
▁Pod	-1775
▁trener	-1776
▁toliko	-1777
ksu	-1778
▁HN	-1779
▁grada	-1780
▁postoji	-1781
▁profe	-1782
▁energi	-1783
mbe	-1784
lija	-1785
▁publi	-1786
nike	-1787
ris	-1788
▁obzirom	-1789
▁14	-1790
lar	-1791
▁zako	-1792
▁moguć	-1793
▁2023.	-1794
nska	-1795
▁Zo	-1796
vizi	-1797
▁kojim	-1798
▁zahtje	-1799
▁for	-1800
telje	-1801
▁prava	-1802
▁ranije	-1803
▁radio	-1804
▁reći	-1805
rnost	-1806
▁Niko	-1807
▁pomoći	-1808
▁ponedje	-1809
šenje	-1810
nac	-1811
▁Hrvatsku	-1812
▁kluba	-1813
▁naciona	-1814
▁unutar	-1815
ati	-1816
▁ozbi	-1817
▁tamo	-1818
hr	-1819
▁policija	-1820
dnju	-1821
▁mjeseci	-1822
rma	-1823
▁zašto	-1824
▁izazo	-1825
▁igrača	-1826
▁manda	-1827
čica	-1828
▁mno	-1829
▁Split	-1830
▁iznena	-1831
▁tempera	-1832
▁Pr	-1833
▁petak	-1834
▁17	-1835
▁sum	-1836
ll	-1837
zda	-1838
▁isko	-1839
teljica	-1840
▁svijeta	-1841
▁16	-1842
▁neda	-1843
▁produ	-1844
▁riječ	-1845
▁jednosta	-1846
lnom	-1847
▁Hajduk	-1848
▁una	-1849
▁čega	-1850
▁ozlije	-1851
vića	-1852
▁svojoj	-1853
▁zapravo	-1854
▁osob	-1855
▁utvr	-1856
▁objavio	-1857
veli	-1858
đeno	-1859
ćeg	-1860
cijom	-1861
▁tradi	-1862
io	-1863
ton	-1864
▁problema	-1865
kad	-1866
▁zau	-1867
tin	-1868
stava	-1869
bija	-1870
▁smr	-1871
▁24	-1872
▁deta	-1873
▁netko	-1874
▁raditi	-1875
▁Dana	-1876
▁klub	-1877
rnik	-1878
troga	-1879
▁brzo	-1880
▁upu	-1881
▁SAD	-1882
nad	-1883
▁25	-1884
▁ovi	-1885
▁zdravstve	-1886
▁srije	-1887
lost	-1888
▁kola	-1889
▁fotografi	-1890
sci	-1891
▁ću	-1892
mira	-1893
▁pore	-1894
šću	-1895
▁imala	-1896
ut	-1897
spi	-1898
▁Varaždin	-1899
▁preda	-1900
▁Josi	-1901
▁ša	-1902
drža	-1903
▁svega	-1904
mor	-1905
▁vidjeti	-1906
vnu	-1907
▁opre	-1908
▁mreža	-1909
▁komenti	-1910
▁nepo	-1911
▁možemo	-1912
▁zemlje	-1913
▁oto	-1914
▁velika	-1915
▁zahva	-1916
▁navodi	-1917
rd	-1918
ena	-1919
▁On	-1920
▁gospodar	-1921
▁kar	-1922
▁tog	-1923
▁promije	-1924
dija	-1925
nak	-1926
▁Šibe	-1927
▁misli	-1928
▁mogla	-1929
▁nesta	-1930
▁sedam	-1931
▁člano	-1932
vre	-1933
▁Mari	-1934
▁subotu	-1935
▁korisni	-1936
rba	-1937
20	-1938
struk	-1939
▁veza	-1940
▁prvom	-1941
▁kate	-1942
▁SDP	-1943
▁sja	-1944
▁zgra	-1945
▁pravi	-1946
▁zastup	-1947
lica	-1948
▁eks	-1949
▁intere	-1950
▁vjerojatno	-1951
tić	-1952
zma	-1953
▁oči	-1954
▁djevoj	-1955
▁najbolje	-1956
▁pjeva	-1957
gled	-1958
'.	-1959
tnika	-1960
▁slučaju	-1961
▁ovdje	-1962
▁izno	-1963
▁razvo	-1964
dnik	-1965
taka	-1966
▁osam	-1967
nskih	-1968
▁demo	-1969
▁brani	-1970
▁He	-1971
▁Kri	-1972
▁Kada	-1973
▁posjeti	-1974
▁šte	-1975
▁izvan	-1976
▁razdo	-1977
▁poduze	-1978
▁mene	-1979
▁veliko	-1980
voje	-1981
▁vjeru	-1982
▁film	-1983
▁podi	-1984
▁stvara	-1985
▁Đ	-1986
mišlja	-1987
den	-1988
ss	-1989
pisu	-1990
▁društvenim	-1991
gro	-1992
▁pola	-1993
terija	-1994
▁listo	-1995
tr	-1996
▁funk	-1997
nove	-1998
▁eko	-1999
▁trav	-2000
▁komenta	-2001
▁priliku	-2002
▁sko	-2003
kuplja	-2004
boj	-2005
▁priva	-2006
▁Francu	-2007
▁Plenković	-2008
▁Če	-2009
▁2022.	-2010
▁Veli	-2011
▁priro	-2012
▁potpuno	-2013
▁rada	-2014
fika	-2015
▁199	-2016
ima	-2017
nin	-2018
▁opet	-2019
▁razgovo	-2020
tem	-2021
▁odvjetni	-2022
▁očeki	-2023
▁drugih	-2024
liti	-2025
▁vlada	-2026
▁nedjelju	-2027
,5	-2028
vrše	-2029
▁izvje	-2030
▁svojih	-2031
▁sudjelo	-2032
▁udru	-2033
▁drugom	-2034
▁genera	-2035
▁tru	-2036
▁boga	-2037
▁gol	-2038
▁PO	-2039
ista	-2040
▁ozbilj	-2041
šava	-2042
▁pogleda	-2043
nte	-2044
▁kultu	-2045
▁50	-2046
ranu	-2047
▁biv	-2048
osta	-2049
žava	-2050
▁puto	-2051
▁sprem	-2052
▁vrhu	-2053
▁Međutim	-2054
▁Španjol	-2055
TE	-2056
▁bile	-2057
▁zaba	-2058
▁domaći	-2059
▁ha	-2060
▁doku	-2061
▁tjedna	-2062
godišnja	-2063
tog	-2064
žić	-2065
▁podije	-2066
▁dosa	-2067
▁smije	-2068
▁odnosu	-2069
▁stoji	-2070
▁Milanović	-2071
▁uto	-2072
tica	-2073
▁povje	-2074
▁Gla	-2075
stupa	-2076
▁namje	-2077
▁Sto	-2078
▁parla	-2079
▁istaknuo	-2080
▁snim	-2081
dić	-2082
lin	-2083
pita	-2084
▁turni	-2085
jno	-2086
▁trans	-2087
gen	-2088
▁Andre	-2089
30	-2090
▁jezi	-2091
▁povije	-2092
manje	-2093
čnu	-2094
voza	-2095
ster	-2096
▁gradonače	-2097
▁povra	-2098
▁hrvatske	-2099
▁kona	-2100
▁igrati	-2101
▁ponedjeljak	-2102
▁uslu	-2103
▁objasni	-2104
▁Ar	-2105
▁mini	-2106
▁prosje	-2107
▁dovoljno	-2108
▁nogometa	-2109
tt	-2110
▁Bra	-2111
▁Ivana	-2112
biti	-2113
dana	-2114
▁donije	-2115
son	-2116
tnog	-2117
▁ugo	-2118
ple	-2119
▁ogra	-2120
▁100	-2121
plit	-2122
▁mije	-2123
▁pisa	-2124
▁trebao	-2125
▁čla	-2126
▁proje	-2127
▁godini	-2128
vrši	-2129
ksa	-2130
▁dogovo	-2131
AJ	-2132
▁Sva	-2133
đenja	-2134
▁vatroga	-2135
▁ovu	-2136
▁žena	-2137
žan	-2138
▁Hrva	-2139
poru	-2140
▁nastupa	-2141
▁turisti	-2142
▁katego	-2143
tine	-2144
▁Kao	-2145
▁skla	-2146
▁zaposle	-2147
slav	-2148
▁Marko	-2149
rži	-2150
dro	-2151
▁potom	-2152
zor	-2153
▁ar	-2154
▁obilje	-2155
šno	-2156
▁sami	-2157
▁djecu	-2158
▁prome	-2159
dese	-2160
dite	-2161
▁hla	-2162
▁posve	-2163
stavlja	-2164
nicima	-2165
▁iznosi	-2166
▁bije	-2167
vlju	-2168
dnici	-2169
▁rata	-2170
▁ispri	-2171
▁izbora	-2172
▁sije	-2173
▁prve	-2174
▁lop	-2175
▁srijedu	-2176
▁bira	-2177
▁kriti	-2178
đeni	-2179
ment	-2180
▁kuće	-2181
▁dijete	-2182
nskom	-2183
misli	-2184
▁turi	-2185
▁zara	-2186
▁Dinama	-2187
▁dne	-2188
sob	-2189
▁nova	-2190
▁osim	-2191
▁nismo	-2192
tnom	-2193
▁pretho	-2194
▁mnogo	-2195
▁jasno	-2196
▁planira	-2197
▁aktivnosti	-2198
sima	-2199
▁Zbog	-2200
▁potencija	-2201
rska	-2202
emo	-2203
▁bivši	-2204
▁putem	-2205
▁poveza	-2206
dak	-2207
ete	-2208
njeg	-2209
glasio	-2210
▁buduć	-2211
▁NA	-2212
njom	-2213
▁veče	-2214
▁preki	-2215
▁bodova	-2216
▁pojedi	-2217
žili	-2218
▁znam	-2219
▁ban	-2220
▁sata	-2221
▁Prije	-2222
vljen	-2223
▁upozna	-2224
ntra	-2225
▁maj	-2226
▁prote	-2227
rano	-2228
rp	-2229
▁emo	-2230
▁pozo	-2231
ndo	-2232
čnim	-2233
▁dijelu	-2234
mio	-2235
▁Zna	-2236
▁nikad	-2237
▁prepozna	-2238
▁Luka	-2239
▁ćete	-2240
▁postoje	-2241
▁stranke	-2242
bina	-2243
▁posje	-2244
bila	-2245
▁obu	-2246
vanjem	-2247
čita	-2248
▁nama	-2249
▁festi	-2250
nal	-2251
▁šu	-2252
▁kojih	-2253
nicama	-2254
▁izbje	-2255
▁metara	-2256
▁rezultat	-2257
jar	-2258
dnom	-2259
▁došao	-2260
veza	-2261
▁Svi	-2262
▁ispu	-2263
▁slije	-2264
▁velike	-2265
▁Gr	-2266
kata	-2267
lnoj	-2268
▁srp	-2269
▁razu	-2270
▁poseb	-2271
▁ispred	-2272
▁povijesti	-2273
kna	-2274
ogra	-2275
upa	-2276
▁doži	-2277
▁potra	-2278
vama	-2279
▁Bri	-2280
rena	-2281
tova	-2282
▁zemlji	-2283
▁Gu	-2284
▁dobiti	-2285
tina	-2286
štva	-2287
▁potro	-2288
šenja	-2289
▁doći	-2290
▁utakmici	-2291
dnu	-2292
▁nazi	-2293
▁kampa	-2294
▁moguće	-2295
dima	-2296
lnosti	-2297
▁zamje	-2298
miti	-2299
vremeno	-2300
kvi	-2301
zija	-2302
▁Grada	-2303
▁utorak	-2304
▁priprema	-2305
▁Vje	-2306
▁deve	-2307
vora	-2308
▁tehno	-2309
▁razini	-2310
sak	-2311
zam	-2312
tnim	-2313
rnoj	-2314
jedno	-2315
▁nado	-2316
▁Republike	-2317
kić	-2318
▁Dan	-2319
nciji	-2320
▁sjeve	-2321
ur	-2322
vci	-2323
▁at	-2324
▁svima	-2325
pis	-2326
▁spome	-2327
▁mirovi	-2328
▁zo	-2329
▁oru	-2330
▁svib	-2331
wa	-2332
▁Ke	-2333
vite	-2334
ljena	-2335
▁drugim	-2336
▁mjeseca	-2337
▁21	-2338
▁kup	-2339
▁institu	-2340
▁zla	-2341
▁škole	-2342
▁cijene	-2343
nić	-2344
loba	-2345
▁uhi	-2346
▁Splitu	-2347
▁poslije	-2348
tnoj	-2349
▁značaj	-2350
nite	-2351
▁BiH	-2352
ljiva	-2353
▁osvojio	-2354
rski	-2355
▁split	-2356
▁ig	-2357
▁Bro	-2358
▁time	-2359
▁obrazo	-2360
▁investi	-2361
th	-2362
▁osobi	-2363
▁zanim	-2364
▁momčad	-2365
renja	-2366
kretni	-2367
▁donosi	-2368
▁Ce	-2369
▁pak	-2370
▁čita	-2371
▁ža	-2372
▁glaso	-2373
gnu	-2374
▁obli	-2375
▁glasa	-2376
is	-2377
▁godinama	-2378
▁županije	-2379
đene	-2380
▁otvori	-2381
▁anali	-2382
▁ističe	-2383
vnoj	-2384
▁prosi	-2385
▁rizi	-2386
žen	-2387
▁šo	-2388
lov	-2389
limpij	-2390
▁gradu	-2391
▁Rijeka	-2392
▁mrežama	-2393
▁Ci	-2394
▁Spo	-2395
▁izlo	-2396
▁uključujući	-2397
šiti	-2398
▁suko	-2399
▁cijena	-2400
▁nedosta	-2401
▁Drža	-2402
od	-2403
tora	-2404
▁psi	-2405
fere	-2406
▁emisi	-2407
ndar	-2408
▁dobar	-2409
▁dolara	-2410
▁rade	-2411
tnosti	-2412
▁ljude	-2413
▁tvrtke	-2414
▁pobjedu	-2415
ana	-2416
▁niz	-2417
▁tih	-2418
▁zvije	-2419
▁Hajduka	-2420
▁moći	-2421
▁traja	-2422
▁moraju	-2423
▁Također	-2424
line	-2425
▁moglo	-2426
▁njemu	-2427
▁glavni	-2428
▁milijar	-2429
▁okru	-2430
▁snage	-2431
▁sustav	-2432
▁pobjede	-2433
▁projekt	-2434
svje	-2435
▁naro	-2436
▁izbor	-2437
▁međuna	-2438
▁40	-2439
▁njegove	-2440
ngle	-2441
▁ple	-2442
čenje	-2443
▁član	-2444
▁tvrdi	-2445
▁lipnja	-2446
lak	-2447
pom	-2448
tih	-2449
žnje	-2450
▁hrvatskih	-2451
▁napraviti	-2452
der	-2453
▁javnosti	-2454
▁koli	-2455
štvo	-2456
ban	-2457
ljen	-2458
lla	-2459
čar	-2460
stre	-2461
ženje	-2462
▁savje	-2463
▁zatim	-2464
▁medici	-2465
▁čemu	-2466
▁njema	-2467
▁poručio	-2468
toč	-2469
▁obje	-2470
▁ovoj	-2471
▁Vlade	-2472
▁novih	-2473
kul	-2474
▁Doda	-2475
▁prvog	-2476
▁izaz	-2477
▁dobili	-2478
▁Foto	-2479
▁sebi	-2480
vljena	-2481
▁postao	-2482
jopri	-2483
▁poža	-2484
▁Modri	-2485
▁trgovi	-2486
▁objavila	-2487
▁nedavno	-2488
▁hote	-2489
▁prvu	-2490
▁žele	-2491
▁Opći	-2492
stagra	-2493
▁program	-2494
▁gr	-2495
▁hrvatskog	-2496
zuju	-2497
▁ovih	-2498
▁zaslu	-2499
ela	-2500
em	-2501
▁toj	-2502
vlada	-2503
▁Fili	-2504
gdje	-2505
leko	-2506
ntar	-2507
vela	-2508
zije	-2509
cijski	-2510
▁dogodilo	-2511
jne	-2512
▁cilj	-2513
▁Domovi	-2514
To	-2515
LED	-2516
fije	-2517
▁Tra	-2518
vku	-2519
tera	-2520
loški	-2521
▁nada	-2522
▁diza	-2523
▁biste	-2524
mac	-2525
tivne	-2526
▁otvara	-2527
nila	-2528
▁novog	-2529
glavnom	-2530
žila	-2531
▁plo	-2532
učili	-2533
▁želje	-2534
▁situacija	-2535
niju	-2536
▁Kon	-2537
▁kva	-2538
▁nasi	-2539
▁postup	-2540
▁trenutno	-2541
mija	-2542
▁došlo	-2543
▁nikada	-2544
▁podrža	-2545
ljan	-2546
▁prošlo	-2547
tinu	-2548
▁trebalo	-2549
riju	-2550
▁St	-2551
erce	-2552
▁dija	-2553
▁izvr	-2554
▁izjavio	-2555
čak	-2556
▁Fe	-2557
▁HR	-2558
▁Pla	-2559
▁Ovaj	-2560
▁Marija	-2561
▁POG	-2562
pušta	-2563
▁svjedo	-2564
čnom	-2565
▁Danas	-2566
snu	-2567
krša	-2568
▁nitko	-2569
▁fizi	-2570
▁prosla	-2571
▁svijet	-2572
▁travnja	-2573
jni	-2574
zvo	-2575
▁novu	-2576
▁vaše	-2577
▁siječ	-2578
ktora	-2579
▁sustava	-2580
AJTE	-2581
▁Kar	-2582
▁sredst	-2583
liza	-2584
ramo	-2585
čnog	-2586
▁Novi	-2587
▁POGLED	-2588
▁popula	-2589
▁otkrila	-2590
▁Instagra	-2591
▁Mla	-2592
▁pogi	-2593
▁poslu	-2594
▁očekuje	-2595
▁meda	-2596
▁bismo	-2597
▁činje	-2598
▁mislim	-2599
▁započe	-2600
▁/	-2601
▁pobo	-2602
▁ispod	-2603
▁otkrio	-2604
▁zemlja	-2605
▁POGLEDAJTE	-2606
JE	-2607
▁zabio	-2608
▁Izrael	-2609
▁organizira	-2610
reni	-2611
stan	-2612
▁manji	-2613
gama	-2614
mini	-2615
čina	-2616
▁Sje	-2617
vljaju	-2618
matra	-2619
dnih	-2620
▁vanj	-2621
▁izborima	-2622
gor	-2623
lila	-2624
▁ponaša	-2625
▁strana	-2626
▁suo	-2627
ljeća	-2628
▁ravna	-2629
▁muškar	-2630
▁potreb	-2631
▁razvoj	-2632
Ne	-2633
▁kak	-2634
▁teni	-2635
▁djeca	-2636
▁njihove	-2637
:1	-2638
sh	-2639
igra	-2640
▁Har	-2641
▁sporta	-2642
žba	-2643
▁ad	-2644
laga	-2645
nsko	-2646
▁video	-2647
▁onih	-2648
▁isklju	-2649
▁terenu	-2650
vka	-2651
▁(3	-2652
tere	-2653
▁Tomi	-2654
▁snima	-2655
vnici	-2656
▁Može	-2657
blja	-2658
mica	-2659
▁stre	-2660
▁Svjet	-2661
▁države	-2662
▁momčadi	-2663
▁razmišlja	-2664
ćen	-2665
baci	-2666
▁igre	-2667
▁plat	-2668
▁igrač	-2669
▁provo	-2670
▁Hrvatski	-2671
▁sho	-2672
▁Predsjedni	-2673
šća	-2674
▁Vr	-2675
▁crve	-2676
▁New	-2677
▁indu	-2678
▁bolji	-2679
žni	-2680
▁San	-2681
▁partne	-2682
▁poljopri	-2683
pisao	-2684
▁kojom	-2685
eno	-2686
▁trebali	-2687
▁oduše	-2688
aj	-2689
zom	-2690
-2	-2691
gan	-2692
lnika	-2693
▁kući	-2694
▁potrebno	-2695
▁jedne	-2696
▁natje	-2697
▁prisu	-2698
njo	-2699
dnoj	-2700
tili	-2701
▁novac	-2702
▁njihov	-2703
▁ukraji	-2704
▁Pari	-2705
▁bolesti	-2706
▁poslova	-2707
lac	-2708
▁2.	-2709
vice	-2710
▁promjene	-2711
đuje	-2712
vljeni	-2713
▁životu	-2714
Po	-2715
▁rujna	-2716
▁prenosi	-2717
▁uni	-2718
▁ljudima	-2719
▁ljud	-2720
▁stvar	-2721
cem	-2722
▁FO	-2723
▁prilikom	-2724
▁posljednjih	-2725
▁he	-2726
▁Bilo	-2727
▁22	-2728
▁šan	-2729
ili	-2730
▁Ipak	-2731
▁lako	-2732
▁rado	-2733
▁opera	-2734
▁provje	-2735
▁smanji	-2736
▁najveći	-2737
▁svakodne	-2738
▁Ste	-2739
▁brzi	-2740
▁škola	-2741
;,	-2742
nijih	-2743
▁kame	-2744
▁mijenja	-2745
vča	-2746
sjetimo	-2747
▁stadio	-2748
▁policije	-2749
nstve	-2750
▁četvrtak	-2751
▁dro	-2752
▁sku	-2753
▁zadovolj	-2754
▁Slove	-2755
▁pitanja	-2756
▁prostor	-2757
▁Dje	-2758
▁Sre	-2759
ljenje	-2760
cha	-2761
▁izvijesti	-2762
▁Bio	-2763
▁odgovor	-2764
▁kažu	-2765
▁ulaga	-2766
▁napre	-2767
▁rekli	-2768
▁smanje	-2769
siona	-2770
▁projekta	-2771
kar	-2772
jskog	-2773
▁pada	-2774
metara	-2775
▁konku	-2776
lle	-2777
dnog	-2778
cijske	-2779
▁trebala	-2780
▁RT	-2781
▁zema	-2782
▁ispla	-2783
▁razloga	-2784
ini	-2785
▁okoli	-2786
▁umjetni	-2787
gne	-2788
▁dao	-2789
▁Tije	-2790
▁odgovara	-2791
kog	-2792
mos	-2793
▁doče	-2794
▁posljedi	-2795
rnosti	-2796
▁Europe	-2797
▁cijeli	-2798
▁ukupno	-2799
▁ožu	-2800
▁iznim	-2801
▁Cr	-2802
▁Ber	-2803
▁cje	-2804
sjeća	-2805
snih	-2806
▁premijer	-2807
bla	-2808
▁uzro	-2809
▁parki	-2810
▁srpnja	-2811
▁Oni	-2812
▁živi	-2813
▁prora	-2814
▁socija	-2815
▁korište	-2816
▁napisao	-2817
bur	-2818
▁pobolj	-2819
▁prijed	-2820
nese	-2821
▁elektri	-2822
▁nekretni	-2823
ila	-2824
ljeni	-2825
▁Dalma	-2826
▁pruža	-2827
▁sklopu	-2828
▁dodatno	-2829
▁materija	-2830
▁listopada	-2831
ber	-2832
▁ispriča	-2833
▁bes	-2834
▁moj	-2835
▁država	-2836
▁FOTO	-2837
▁reko	-2838
▁žene	-2839
▁računa	-2840
am	-2841
ine	-2842
▁pripa	-2843
▁vrata	-2844
▁nevje	-2845
▁umi	-2846
lazak	-2847
▁kupa	-2848
▁reak	-2849
▁mlade	-2850
▁1,	-2851
▁dati	-2852
▁rast	-2853
▁tiče	-2854
-0	-2855
▁uvo	-2856
▁Samo	-2857
on	-2858
▁Gor	-2859
▁Mate	-2860
▁reprezentacije	-2861
iti	-2862
▁am	-2863
▁lige	-2864
▁moramo	-2865
▁opasno	-2866
▁tjedan	-2867
koho	-2868
mili	-2869
raca	-2870
▁reda	-2871
▁Zadar	-2872
▁početka	-2873
▁epi	-2874
▁sadrža	-2875
▁Ukrajini	-2876
▁ovim	-2877
▁razgovara	-2878
▁Mislim	-2879
▁mladih	-2880
▁ostati	-2881
▁građana	-2882
▁dozna	-2883
▁previše	-2884
▁obe	-2885
▁kolu	-2886
▁predvi	-2887
▁uglavnom	-2888
▁podršku	-2889
▁jednostavno	-2890
▁Ge	-2891
pušte	-2892
▁pacije	-2893
ya	-2894
kim	-2895
rke	-2896
šio	-2897
▁hoće	-2898
▁Europi	-2899
fu	-2900
razu	-2901
▁god	-2902
tivno	-2903
▁koša	-2904
▁zada	-2905
▁barem	-2906
▁preuze	-2907
▁automobila	-2908
▁Par	-2909
▁dozvo	-2910
▁zemalja	-2911
▁drugog	-2912
▁prijatelj	-2913
▁Zla	-2914
▁vodst	-2915
klu	-2916
▁nekim	-2917
▁ulogu	-2918
tac	-2919
slje	-2920
snim	-2921
▁važno	-2922
▁dodaje	-2923
NA	-2924
▁veliku	-2925
;.	-2926
▁strate	-2927
▁kolovoza	-2928
▁sigurnosti	-2929
▁Rijeke	-2930
▁vrijednosti	-2931
▁ograni	-2932
▁prvenstva	-2933
▁X	-2934
snog	-2935
▁kli	-2936
vjeti	-2937
▁defi	-2938
▁priti	-2939
▁kuća	-2940
▁odluku	-2941
▁najmanje	-2942
ly	-2943
▁polo	-2944
vremenu	-2945
▁23	-2946
0.000	-2947
lijan	-2948
ras	-2949
tske	-2950
▁gubi	-2951
▁susje	-2952
▁dobila	-2953
ih	-2954
▁Bru	-2955
jutro	-2956
▁završe	-2957
▁kuha	-2958
▁norma	-2959
▁uopće	-2960
▁Tr	-2961
▁vike	-2962
▁prima	-2963
čuje	-2964
žena	-2965
skoro	-2966
▁čovjek	-2967
▁Europske	-2968
▁projekti	-2969
tski	-2970
▁Bje	-2971
▁Nova	-2972
▁navede	-2973
▁iskoristi	-2974
▁Trump	-2975
vid	-2976
mila	-2977
▁mobi	-2978
▁počinje	-2979
▁60	-2980
▁Još	-2981
▁RTL	-2982
▁dalj	-2983
▁ošte	-2984
ssi	-2985
▁velja	-2986
gno	-2987
bilje	-2988
▁premi	-2989
▁umjesto	-2990
▁hu	-2991
▁doka	-2992
▁diljem	-2993
▁polufina	-2994
▁programa	-2995
▁treni	-2996
rova	-2997
▁hra	-2998
▁brojne	-2999
▁odluka	-3000
50	-3001
▁fran	-3002
▁njezin	-3003
▁profi	-3004
▁izrael	-3005
▁troško	-3006
pad	-3007
ćeni	-3008
▁Raz	-3009
nskim	-3010
jedinje	-3011
▁različi	-3012
▁svibnja	-3013
▁direktor	-3014
čeni	-3015
▁uze	-3016
▁loše	-3017
▁Evo	-3018
▁gro	-3019
▁Usta	-3020
▁kompa	-3021
čen	-3022
luje	-3023
tiva	-3024
▁lak	-3025
▁putu	-3026
▁prila	-3027
▁stari	-3028
▁njihova	-3029
▁televizi	-3030
by	-3031
kove	-3032
vlji	-3033
▁utr	-3034
stina	-3035
▁opći	-3036
▁Jedan	-3037
▁priopće	-3038
▁Cha	-3039
▁w	-3040
▁naša	-3041
▁bivše	-3042
▁mjesec	-3043
▁naba	-3044
▁dopri	-3045
▁sazna	-3046
šati	-3047
▁meni	-3048
▁raspra	-3049
▁područja	-3050
▁nastaviti	-3051
kih	-3052
tek	-3053
škom	-3054
▁treći	-3055
▁izbore	-3056
▁presu	-3057
▁reagi	-3058
▁shvati	-3059
▁natjecanja	-3060
štvu	-3061
▁naših	-3062
▁alkoho	-3063
lena	-3064
▁Wa	-3065
▁zi	-3066
▁per	-3067
▁The	-3068
▁blo	-3069
▁ozna	-3070
▁traži	-3071
ing	-3072
▁žrt	-3073
▁posljednje	-3074
▁oruž	-3075
▁zausta	-3076
▁tehnologi	-3077
▁zrako	-3078
mer	-3079
▁Sti	-3080
▁devet	-3081
▁prosvje	-3082
ljev	-3083
▁nagla	-3084
rastruk	-3085
▁napusti	-3086
šni	-3087
▁oku	-3088
▁gola	-3089
▁prika	-3090
▁ljubav	-3091
▁ugovor	-3092
eli	-3093
▁(4	-3094
▁stručnja	-3095
val	-3096
tlji	-3097
njuje	-3098
▁jedin	-3099
▁obrane	-3100
kro	-3101
▁Upra	-3102
▁pitanju	-3103
▁prekrša	-3104
jska	-3105
▁Dok	-3106
▁zabra	-3107
celo	-3108
▁duž	-3109
▁2021.	-3110
▁napad	-3111
▁znaju	-3112
spje	-3113
▁atmos	-3114
▁dostup	-3115
podne	-3116
ad	-3117
formi	-3118
▁Nema	-3119
▁redu	-3120
▁seku	-3121
▁Tijekom	-3122
tila	-3123
▁Pra	-3124
▁igrao	-3125
BC	-3126
tije	-3127
turu	-3128
tnost	-3129
▁jugo	-3130
▁cijelo	-3131
RI	-3132
stom	-3133
▁dre	-3134
tija	-3135
▁sat	-3136
▁energe	-3137
▁tijelo	-3138
▁profesiona	-3139
▁okre	-3140
▁zadrža	-3141
eni	-3142
mbo	-3143
▁Ot	-3144
čenja	-3145
▁preh	-3146
Ccaron	-3147
▁gosti	-3148
▁tradiciona	-3149
▁liječ	-3150
▁zdravlje	-3151
▁ruko	-3152
▁aktua	-3153
ao	-3154
blju	-3155
lice	-3156
čine	-3157
▁asi	-3158
▁iznad	-3159
▁proraču	-3160
▁Taj	-3161
▁Radi	-3162
▁priop	-3163
▁vraća	-3164
▁događaja	-3165
ljene	-3166
žalost	-3167
▁3.	-3168
stao	-3169
▁tehni	-3170
▁odluke	-3171
▁Šu	-3172
▁pli	-3173
čitajte	-3174
▁tijela	-3175
▁njegovu	-3176
gh	-3177
▁20.	-3178
▁vratiti	-3179
▁iskustvo	-3180
▁sigurnost	-3181
▁Hu	-3182
nili	-3183
▁Jadra	-3184
▁stigao	-3185
▁francu	-3186
▁zabora	-3187
lmati	-3188
▁Vladi	-3189
▁ostao	-3190
▁sutra	-3191
▁izrazi	-3192
▁sprije	-3193
▁infrastruk	-3194
kta	-3195
▁jest	-3196
▁cesta	-3197
▁korak	-3198
▁traže	-3199
▁ostali	-3200
▁ujutro	-3201
▁Podsjetimo	-3202
▁Še	-3203
▁kontak	-3204
▁početkom	-3205
žne	-3206
▁finala	-3207
▁Hrvatskog	-3208
▁TV	-3209
čića	-3210
▁Sin	-3211
▁prvoj	-3212
▁zakon	-3213
▁majka	-3214
boo	-3215
dran	-3216
vilo	-3217
▁miš	-3218
▁koriste	-3219
skr	-3220
fici	-3221
▁boda	-3222
▁smrti	-3223
▁sudio	-3224
▁stvarno	-3225
▁Jako	-3226
▁Lige	-3227
▁Real	-3228
▁najva	-3229
▁mediji	-3230
▁zanima	-3231
▁energije	-3232
▁HNL	-3233
▁naz	-3234
feren	-3235
▁Osije	-3236
▁strani	-3237
▁informacije	-3238
▁HRT	-3239
kinja	-3240
▁identi	-3241
▁Stu	-3242
stati	-3243
dama	-3244
▁upa	-3245
▁tema	-3246
▁pristup	-3247
čice	-3248
▁Sada	-3249
▁borbe	-3250
▁navodno	-3251
▁ke	-3252
▁cent	-3253
▁čime	-3254
▁blizi	-3255
▁uspio	-3256
▁stanje	-3257
▁siječnja	-3258
▁Njemačkoj	-3259
▁ubr	-3260
▁ispa	-3261
▁nave	-3262
▁interne	-3263
▁najavio	-3264
▁prvenstvu	-3265
lega	-3266
▁zvu	-3267
▁Plenkovi	-3268
▁Kre	-3269
rtuga	-3270
▁učin	-3271
▁globa	-3272
▁završio	-3273
▁došli	-3274
▁hrane	-3275
:0	-3276
▁NATO	-3277
vljeno	-3278
▁klubo	-3279
▁prijet	-3280
▁prosinca	-3281
kov	-3282
mani	-3283
njen	-3284
▁skupine	-3285
ava	-3286
mnji	-3287
▁age	-3288
▁ski	-3289
▁posu	-3290
▁dolaze	-3291
gita	-3292
▁poh	-3293
▁anti	-3294
▁svemu	-3295
ćima	-3296
▁proizvoda	-3297
▁nju	-3298
ceboo	-3299
▁izmje	-3300
▁centra	-3301
▁daleko	-3302
var	-3303
▁evo	-3304
▁nau	-3305
vrije	-3306
▁Treba	-3307
▁novim	-3308
▁resto	-3309
▁seksu	-3310
yo	-3311
ala	-3312
▁Gru	-3313
ita	-3314
ziva	-3315
tnici	-3316
▁dodala	-3317
jam	-3318
▁proti	-3319
▁demokra	-3320
▁sezonu	-3321
▁odlučio	-3322
▁Zdra	-3323
▁mani	-3324
▁Beogra	-3325
▁procje	-3326
▁omogući	-3327
▁nastavlja	-3328
koj	-3329
▁noći	-3330
▁tvrtka	-3331
▁zahvalju	-3332
tnik	-3333
lnost	-3334
▁uoči	-3335
ir	-3336
ps	-3337
▁rat	-3338
▁nače	-3339
▁slučaj	-3340
▁supruga	-3341
kuju	-3342
rite	-3343
listi	-3344
čević	-3345
▁lege	-3346
▁ljeta	-3347
▁voli	-3348
▁čiji	-3349
▁Župa	-3350
▁znanstve	-3351
ćoj	-3352
žbi	-3353
▁Madri	-3354
▁protu	-3355
▁osvaja	-3356
qu	-3357
▁RH	-3358
▁Više	-3359
▁kape	-3360
▁vjero	-3361
▁radova	-3362
▁prostora	-3363
▁zabri	-3364
enje	-3365
mima	-3366
▁polica	-3367
▁mr	-3368
lili	-3369
nina	-3370
čeno	-3371
▁Vlada	-3372
▁kazali	-3373
jnu	-3374
ćom	-3375
čnoj	-3376
▁Prvi	-3377
▁postala	-3378
▁situaciju	-3379
▁savrše	-3380
▁komunika	-3381
▁kandidata	-3382
ženi	-3383
▁doba	-3384
▁proši	-3385
▁obzira	-3386
▁sposob	-3387
▁osobito	-3388
jskih	-3389
▁Isto	-3390
▁plaće	-3391
nsku	-3392
▁15.	-3393
vnost	-3394
▁nastup	-3395
▁pridru	-3396
vina	-3397
grama	-3398
stoji	-3399
▁mjere	-3400
▁uprave	-3401
▁primjer	-3402
▁pokazuje	-3403
ncu	-3404
▁Is	-3405
vici	-3406
rović	-3407
▁odgo	-3408
▁koali	-3409
▁kratko	-3410
sk	-3411
ram	-3412
▁sni	-3413
▁iste	-3414
▁Josip	-3415
▁ispra	-3416
▁sunča	-3417
▁mogućnost	-3418
▁parlamenta	-3419
dinu	-3420
vale	-3421
▁okvi	-3422
▁ruke	-3423
▁vezi	-3424
▁savez	-3425
▁kazala	-3426
▁životi	-3427
▁Policija	-3428
mena	-3429
▁redo	-3430
▁maksi	-3431
cionira	-3432
▁jednoj	-3433
▁drugači	-3434
▁Kla	-3435
ljeno	-3436
prili	-3437
▁Stra	-3438
▁nadle	-3439
▁svakom	-3440
ziju	-3441
▁upi	-3442
▁našim	-3443
▁prilika	-3444
▁prometa	-3445
▁prihvati	-3446
Na	-3447
▁Or	-3448
▁ek	-3449
▁gradonačelnik	-3450
▁Udru	-3451
ol	-3452
ćim	-3453
jama	-3454
▁koma	-3455
▁priče	-3456
▁nogome	-3457
▁svojom	-3458
▁zabilje	-3459
et	-3460
yja	-3461
rine	-3462
rnih	-3463
▁Car	-3464
▁održi	-3465
▁Srbije	-3466
▁riječi	-3467
▁uskoro	-3468
▁Faceboo	-3469
▁nakna	-3470
nku	-3471
▁imam	-3472
▁skup	-3473
▁traje	-3474
▁smjeru	-3475
▁društva	-3476
▁naravno	-3477
▁specija	-3478
▁vese	-3479
▁2025.	-3480
▁Itali	-3481
202	-3482
štine	-3483
Zcaron	-3484
▁jučer	-3485
▁sjeća	-3486
sen	-3487
▁ljubi	-3488
▁poklo	-3489
▁dijela	-3490
▁poziva	-3491
▁zaključio	-3492
jedna	-3493
▁zele	-3494
▁filma	-3495
▁inače	-3496
▁minute	-3497
mana	-3498
stiti	-3499
▁supro	-3500
▁ino	-3501
▁pala	-3502
▁imovi	-3503
▁društvo	-3504
▁napisala	-3505
▁pokazala	-3506
▁ap	-3507
▁preu	-3508
▁ozlje	-3509
▁dokumenta	-3510
▁Pročitajte	-3511
▁fotografije	-3512
ns	-3513
nicija	-3514
▁klubu	-3515
▁stabi	-3516
▁površi	-3517
▁susret	-3518
▁koristiti	-3519
nos	-3520
▁Ša	-3521
▁foku	-3522
▁nemaju	-3523
▁pjesme	-3524
▁stvori	-3525
▁zadovo	-3526
▁zaista	-3527
▁pokazao	-3528
▁preporu	-3529
lka	-3530
por	-3531
čena	-3532
▁odo	-3533
rnica	-3534
▁veze	-3535
▁vrti	-3536
zirati	-3537
▁intenzi	-3538
▁državlja	-3539
▁ca	-3540
niku	-3541
reno	-3542
▁nekih	-3543
▁pobjeda	-3544
▁susreta	-3545
▁poljoprivre	-3546
▁inci	-3547
lizira	-3548
▁drugu	-3549
▁studi	-3550
▁temperatura	-3551
Za	-3552
▁vru	-3553
ćenja	-3554
▁priho	-3555
JA	-3556
bru	-3557
zbo	-3558
▁Ona	-3559
rskoj	-3560
▁otac	-3561
▁stati	-3562
▁početku	-3563
zan	-3564
▁Os	-3565
žnju	-3566
▁Jer	-3567
▁Zato	-3568
▁umiro	-3569
▁kvalifika	-3570
sio	-3571
▁of	-3572
kade	-3573
▁radni	-3574
▁njezina	-3575
ld	-3576
▁7.	-3577
▁dubo	-3578
▁klasi	-3579
▁novca	-3580
▁građani	-3581
▁rješenje	-3582
▁17.	-3583
rnice	-3584
▁sabor	-3585
ljka	-3586
▁kće	-3587
▁anga	-3588
▁ugro	-3589
▁takav	-3590
▁postaje	-3591
rko	-3592
▁postati	-3593
ćuje	-3594
▁ići	-3595
▁Dakle	-3596
▁dobri	-3597
▁atmosfe	-3598
▁primije	-3599
▁trenera	-3600
mpi	-3601
dera	-3602
▁izd	-3603
▁mali	-3604
▁ovak	-3605
▁uboj	-3606
▁rođen	-3607
mpo	-3608
▁5.	-3609
škog	-3610
▁Mnog	-3611
▁moje	-3612
šnjava	-3613
▁Polju	-3614
▁našeg	-3615
gencije	-3616
▁napravio	-3617
▁kilometara	-3618
RA	-3619
▁26	-3620
▁sama	-3621
▁pogre	-3622
▁ozljede	-3623
▁karijere	-3624
▁90	-3625
▁novom	-3626
▁okupi	-3627
▁Bre	-3628
▁dođe	-3629
▁provodi	-3630
▁Kova	-3631
▁Mađa	-3632
▁albu	-3633
▁prihva	-3634
▁stanju	-3635
▁javnost	-3636
▁ljubavi	-3637
▁velikim	-3638
naca	-3639
vana	-3640
tivna	-3641
▁uspješ	-3642
\/	-3643
vec	-3644
dnim	-3645
▁Zoran	-3646
jati	-3647
▁Ško	-3648
laska	-3649
▁navode	-3650
▁pojača	-3651
▁Naciona	-3652
rin	-3653
snom	-3654
čara	-3655
plika	-3656
▁para	-3657
▁dobra	-3658
nose	-3659
▁Bla	-3660
godišnjeg	-3661
lli	-3662
znu	-3663
▁ska	-3664
▁Ante	-3665
▁derbi	-3666
▁Nikola	-3667
▁ostaje	-3668
gna	-3669
tle	-3670
đenih	-3671
▁Neki	-3672
▁obeća	-3673
▁#	-3674
kada	-3675
▁mnoge	-3676
▁cijelu	-3677
▁drugoj	-3678
▁svakako	-3679
▁stanovni	-3680
▁Vije	-3681
▁blag	-3682
▁koncert	-3683
▁potrebe	-3684
▁utje	-3685
▁Sara	-3686
▁2020.	-3687
▁izuze	-3688
▁potica	-3689
▁pogotovo	-3690
valo	-3691
veze	-3692
▁naru	-3693
▁Herce	-3694
▁počeo	-3695
▁ožujka	-3696
▁blizini	-3697
▁profeso	-3698
▁mogućnosti	-3699
vju	-3700
miru	-3701
nulo	-3702
rnici	-3703
▁škol	-3704
▁dvoji	-3705
▁promjena	-3706
▁plu	-3707
▁njim	-3708
▁Jan	-3709
▁Ono	-3710
▁noć	-3711
▁čet	-3712
brani	-3713
dnije	-3714
▁Cije	-3715
ljenja	-3716
▁snaga	-3717
▁uslije	-3718
▁izgubio	-3719
▁kulture	-3720
▁rezultate	-3721
▁11.	-3722
▁ovako	-3723
▁igrali	-3724
▁jedini	-3725
▁naglasio	-3726
ene	-3727
▁uređa	-3728
▁digita	-3729
▁eksplo	-3730
▁pjesmu	-3731
▁Portuga	-3732
▁uspjeli	-3733
ger	-3734
▁nao	-3735
▁fakul	-3736
▁pokreta	-3737
▁pronaći	-3738
▁politike	-3739
Mo	-3740
▁Hr	-3741
stoj	-3742
▁Anto	-3743
▁sina	-3744
▁skri	-3745
▁Maksi	-3746
▁došla	-3747
▁ovoga	-3748
▁probleme	-3749
▁sezoni	-3750
ker	-3751
bama	-3752
love	-3753
▁sin	-3754
▁asiste	-3755
raz	-3756
▁plan	-3757
▁povo	-3758
▁broja	-3759
▁Naravno	-3760
njih	-3761
teri	-3762
▁gosto	-3763
▁krajem	-3764
▁Dubrovnik	-3765
gresi	-3766
▁radu	-3767
▁Parizu	-3768
▁centar	-3769
▁sredstva	-3770
cka	-3771
▁ljeto	-3772
▁svake	-3773
▁ubije	-3774
▁finale	-3775
tru	-3776
jskom	-3777
▁kata	-3778
▁dosad	-3779
▁porta	-3780
▁znamo	-3781
▁medija	-3782
▁vratio	-3783
predsjedni	-3784
,2	-3785
zin	-3786
▁budućnosti	-3787
▁htje	-3788
▁nase	-3789
▁stro	-3790
▁poraza	-3791
▁kombina	-3792
▁intervju	-3793
vda	-3794
tost	-3795
ćena	-3796
▁obno	-3797
▁stup	-3798
▁Istra	-3799
▁usmje	-3800
▁naslov	-3801
godišnjak	-3802
čaje	-3803
▁Ove	-3804
▁nudi	-3805
▁Jedna	-3806
▁topli	-3807
▁najvaž	-3808
▁većina	-3809
▁Pogleda	-3810
▁okuplja	-3811
šića	-3812
▁Doma	-3813
▁reži	-3814
▁priču	-3815
▁prvih	-3816
▁mandata	-3817
▁zanimlji	-3818
teo	-3819
▁DP	-3820
ljep	-3821
štaj	-3822
▁Lasa	-3823
▁ocje	-3824
▁česti	-3825
▁raspore	-3826
▁automobil	-3827
▁(5	-3828
pora	-3829
▁udar	-3830
▁svlada	-3831
▁trebaju	-3832
sad	-3833
vcu	-3834
▁epizo	-3835
▁izved	-3836
▁podru	-3837
▁objasnio	-3838
▁prvenstvo	-3839
boru	-3840
▁12.	-3841
▁redovi	-3842
▁roditelji	-3843
gri	-3844
▁4.	-3845
minali	-3846
▁ekipa	-3847
▁građe	-3848
,3	-3849
lit	-3850
rup	-3851
▁Kr	-3852
voru	-3853
▁ukra	-3854
▁imate	-3855
▁postu	-3856
▁hrvatskom	-3857
▁Ministarstva	-3858
,4	-3859
dilo	-3860
▁ulaz	-3861
▁simbo	-3862
▁društvu	-3863
▁iznimno	-3864
▁trenutak	-3865
▁Predsjednik	-3866
vit	-3867
▁Ana	-3868
▁moja	-3869
▁mjera	-3870
▁završ	-3871
▁stranka	-3872
▁talijan	-3873
▁najboljih	-3874
mla	-3875
▁27	-3876
▁Gi	-3877
vile	-3878
đuju	-3879
▁zatvore	-3880
▁Ch	-3881
▁Fu	-3882
djela	-3883
▁zavo	-3884
▁unije	-3885
▁pokazuju	-3886
▁Tri	-3887
▁našu	-3888
▁kojemu	-3889
▁uspjeh	-3890
▁vjenča	-3891
▁glasova	-3892
▁prijevo	-3893
▁zajednice	-3894
min	-3895
šnjeg	-3896
▁uzbu	-3897
žnosni	-3898
▁konzu	-3899
▁Splita	-3900
▁učiniti	-3901
▁suradnji	-3902
-3	-3903
tira	-3904
▁198	-3905
▁dječ	-3906
▁iskre	-3907
us	-3908
cep	-3909
▁8.	-3910
▁povu	-3911
lacije	-3912
▁cilje	-3913
▁zamije	-3914
▁nesreće	-3915
VD	-3916
mrt	-3917
▁80	-3918
▁Ope	-3919
▁ele	-3920
njena	-3921
▁nega	-3922
▁finalu	-3923
▁inteli	-3924
▁osigura	-3925
žna	-3926
▁vid	-3927
tfina	-3928
šević	-3929
▁avio	-3930
▁dose	-3931
▁Super	-3932
▁loptu	-3933
▁statu	-3934
▁We	-3935
kati	-3936
nskoj	-3937
▁razo	-3938
▁dvoje	-3939
▁igrači	-3940
▁situacije	-3941
,1	-3942
▁vaš	-3943
skoga	-3944
zirao	-3945
zozem	-3946
▁regu	-3947
▁predi	-3948
▁Barcelo	-3949
▁potpisa	-3950
▁Tomislav	-3951
mova	-3952
nche	-3953
▁18.	-3954
▁pam	-3955
tković	-3956
▁migra	-3957
▁razlog	-3958
▁trenuta	-3959
▁informacija	-3960
les	-3961
▁Af	-3962
▁10.	-3963
▁svr	-3964
▁daje	-3965
▁znati	-3966
KO	-3967
▁35	-3968
njim	-3969
▁imena	-3970
:00	-3971
mentu	-3972
▁Toma	-3973
▁lijepo	-3974
▁inicija	-3975
▁zaštite	-3976
▁jedinstve	-3977
,8	-3978
BA	-3979
▁Ob	-3980
▁Mario	-3981
▁točno	-3982
▁autobu	-3983
▁Jadranu	-3984
▁bolnici	-3985
▁iskustva	-3986
▁reprezentacija	-3987
▁visi	-3988
▁ceste	-3989
▁očito	-3990
fer	-3991
▁Zako	-3992
▁diplo	-3993
▁Rusija	-3994
▁otišao	-3995
ler	-3996
▁Tko	-3997
▁Bran	-3998
▁odnos	-3999
▁popra	-4000
put	-4001
tive	-4002
▁Alek	-4003
▁lakše	-4004
▁objek	-4005
▁ulici	-4006
▁tržištu	-4007
▁posljednji	-4008
Ma	-4009
▁Ži	-4010
▁Turu	-4011
▁iska	-4012
▁vele	-4013
▁ljest	-4014
▁tvrde	-4015
▁zraka	-4016
▁Ć	-4017
nuta	-4018
cikli	-4019
▁opra	-4020
▁govore	-4021
▁poznati	-4022
▁list	-4023
▁obla	-4024
▁zvijezda	-4025
▁Prvo	-4026
▁navi	-4027
▁prakti	-4028
▁osvojila	-4029
▁potvrdio	-4030
OR	-4031
▁Cro	-4032
▁ruku	-4033
▁Osijek	-4034
▁kandidat	-4035
▁Instagramu	-4036
▁Ministarstvo	-4037
▁karijeri	-4038
▁poboljša	-4039
▁razumije	-4040
▁Pogledajte	-4041
▁super	-4042
▁tjele	-4043
▁javlja	-4044
▁odnosi	-4045
ica	-4046
▁vu	-4047
▁19.	-4048
▁Cit	-4049
▁sed	-4050
▁Peri	-4051
▁kreta	-4052
▁inozem	-4053
ljko	-4054
čava	-4055
▁21.	-4056
▁lice	-4057
▁svaka	-4058
▁prilago	-4059
ou	-4060
hom	-4061
ivot	-4062
vljuje	-4063
▁Andrej	-4064
▁Amerika	-4065
▁proizvođa	-4066
▁priopćenju	-4067
▁Eu	-4068
isto	-4069
komo	-4070
▁unutra	-4071
▁razdoblju	-4072
AR	-4073
nec	-4074
yer	-4075
▁70	-4076
jsku	-4077
▁Baby	-4078
▁bora	-4079
▁kupo	-4080
govarati	-4081
▁razvoja	-4082
reda	-4083
▁scena	-4084
▁incide	-4085
▁obrani	-4086
▁dužnosni	-4087
,6	-4088
tte	-4089
vani	-4090
ntima	-4091
proda	-4092
rnika	-4093
▁meta	-4094
tivnih	-4095
▁Sveučili	-4096
▁istraživanje	-4097
gara	-4098
▁Una	-4099
slava	-4100
▁poraz	-4101
▁stoga	-4102
▁postavlja	-4103
dove	-4104
▁ostale	-4105
▁pregovo	-4106
▁zad	-4107
nijeg	-4108
▁kapa	-4109
▁kora	-4110
▁onaj	-4111
▁Riječ	-4112
▁povijest	-4113
▁zrakoplo	-4114
SS	-4115
▁Dne	-4116
▁gre	-4117
▁karak	-4118
▁vidio	-4119
▁zatra	-4120
▁želim	-4121
▁vidjeli	-4122
▁dogodila	-4123
▁različiti	-4124
rnu	-4125
solu	-4126
vniku	-4127
▁moru	-4128
▁moto	-4129
▁veće	-4130
▁teren	-4131
▁tenisa	-4132
ama	-4133
lgi	-4134
ženo	-4135
▁Vin	-4136
▁njoj	-4137
▁osjeti	-4138
▁stigla	-4139
▁strada	-4140
▁radnika	-4141
▁hrvatska	-4142
▁komentirao	-4143
,7	-4144
▁196	-4145
presi	-4146
▁Bije	-4147
▁gori	-4148
▁klima	-4149
▁Olimpij	-4150
▁velikom	-4151
vak	-4152
enja	-4153
▁Ben	-4154
▁edu	-4155
ženja	-4156
▁oslo	-4157
▁Slavo	-4158
▁raste	-4159
▁upisa	-4160
▁stalno	-4161
▁govorio	-4162
▁partner	-4163
čari	-4164
▁Ban	-4165
▁Robe	-4166
▁borbi	-4167
▁nekada	-4168
▁serije	-4169
▁sezona	-4170
▁pohvali	-4171
▁zatvora	-4172
▁prijatelji	-4173
bav	-4174
etiri	-4175
▁more	-4176
▁listi	-4177
▁popla	-4178
▁privla	-4179
▁održati	-4180
pisi	-4181
dnica	-4182
▁Polj	-4183
▁svakog	-4184
▁unatoč	-4185
▁zakona	-4186
▁rješenja	-4187
▁odgovorio	-4188
▁Pose	-4189
▁našoj	-4190
▁psiho	-4191
▁sveča	-4192
rira	-4193
gurno	-4194
▁izvor	-4195
▁našem	-4196
▁zgrade	-4197
▁razliku	-4198
▁spremni	-4199
▁umirovlje	-4200
▁bre	-4201
▁top	-4202
stvom	-4203
▁vina	-4204
▁nastupi	-4205
▁28	-4206
anta	-4207
lini	-4208
▁kakav	-4209
▁osumnji	-4210
▁španjol	-4211
▁vrijednost	-4212
ny	-4213
vine	-4214
koliko	-4215
▁Inače	-4216
▁vatre	-4217
▁bespla	-4218
uje	-4219
▁ter	-4220
lesti	-4221
▁kine	-4222
▁odmo	-4223
▁titu	-4224
▁Kopri	-4225
▁poznato	-4226
▁kilograma	-4227
zno	-4228
žnja	-4229
▁Gre	-4230
▁Yor	-4231
▁sru	-4232
▁Brita	-4233
▁Nisam	-4234
▁nepri	-4235
▁školu	-4236
▁golova	-4237
▁nagradu	-4238
▁temelju	-4239
▁turnira	-4240
▁milijardi	-4241
tona	-4242
▁Wil	-4243
fek	-4244
rnog	-4245
▁centru	-4246
▁cijele	-4247
▁počela	-4248
aju	-4249
▁dom	-4250
▁srca	-4251
▁treće	-4252
▁ugosti	-4253
▁njihovu	-4254
▁vremenu	-4255
▁zaštitu	-4256
▁međunaro	-4257
▁programu	-4258
▁kriminali	-4259
pić	-4260
▁13.	-4261
▁Bila	-4262
▁priopći	-4263
esto	-4264
etvr	-4265
▁presta	-4266
▁regiona	-4267
▁skupina	-4268
naj	-4269
▁6.	-4270
▁Nji	-4271
▁donio	-4272
godišnje	-4273
▁karijeru	-4274
▁navijača	-4275
zmu	-4276
▁sk	-4277
tama	-4278
▁halji	-4279
▁Lokomo	-4280
▁ostala	-4281
rti	-4282
turi	-4283
▁Joh	-4284
vljene	-4285
▁pribli	-4286
▁navečer	-4287
▁budućnost	-4288
▁premijera	-4289
Do	-4290
ret	-4291
jica	-4292
▁Primo	-4293
▁gledati	-4294
▁osjećaj	-4295
ova	-4296
rnim	-4297
bacio	-4298
▁2019.	-4299
▁policij	-4300
▁kategoriji	-4301
▁UN	-4302
ćenje	-4303
▁Mnogi	-4304
▁iznos	-4305
▁dovesti	-4306
▁standar	-4307
tetu	-4308
▁teri	-4309
▁takve	-4310
▁vijest	-4311
▁godišnje	-4312
▁stoljeća	-4313
▁km	-4314
▁Bor	-4315
njeva	-4316
▁htio	-4317
▁soli	-4318
▁obrati	-4319
▁proces	-4320
▁strije	-4321
▁Per	-4322
▁mlado	-4323
▁poruku	-4324
▁izjedna	-4325
▁nesreća	-4326
▁početak	-4327
▁europskih	-4328
kin	-4329
▁og	-4330
mlja	-4331
▁Nor	-4332
▁Već	-4333
▁uka	-4334
▁neiz	-4335
▁bitno	-4336
▁trene	-4337
▁agresi	-4338
▁međunarod	-4339
šle	-4340
rene	-4341
▁omi	-4342
stoje	-4343
▁poziv	-4344
▁pošto	-4345
▁Rijeci	-4346
▁igraju	-4347
▁izbori	-4348
▁minima	-4349
▁mobite	-4350
▁ostalim	-4351
▁uvjetima	-4352
▁pogledajte	-4353
TA	-4354
▁197	-4355
▁dobre	-4356
▁novča	-4357
▁kapaci	-4358
▁razvija	-4359
▁Hercegovi	-4360
,9	-4361
▁Br	-4362
▁Don	-4363
▁boje	-4364
▁školi	-4365
▁Jadran	-4366
▁zapovje	-4367
▁14.	-4368
▁drži	-4369
▁Sport	-4370
▁jutro	-4371
▁Možemo	-4372
▁medije	-4373
▁US	-4374
▁fe	-4375
▁Filip	-4376
▁grupe	-4377
▁rasta	-4378
▁ravno	-4379
▁odigrao	-4380
▁provede	-4381
▁članova	-4382
▁donijeti	-4383
▁podataka	-4384
▁smatraju	-4385
▁plas	-4386
▁čine	-4387
▁Petra	-4388
▁staja	-4389
▁Koliko	-4390
▁zahvaljujući	-4391
šen	-4392
▁adre	-4393
▁muze	-4394
nirati	-4395
▁povećanje	-4396
ul	-4397
šan	-4398
mice	-4399
▁odr	-4400
▁kome	-4401
▁ulazi	-4402
▁poznat	-4403
▁naglasi	-4404
▁zahvali	-4405
▁industri	-4406
10	-4407
una	-4408
▁Ser	-4409
▁tera	-4410
lacija	-4411
▁Engle	-4412
▁njezine	-4413
▁velikih	-4414
nut	-4415
godio	-4416
▁Nove	-4417
▁dina	-4418
▁budući	-4419
▁nalaze	-4420
▁ujedno	-4421
▁raspolo	-4422
▁sredstava	-4423
▁objašnjava	-4424
ov	-4425
siti	-4426
▁Mje	-4427
jskim	-4428
▁inspi	-4429
▁potak	-4430
▁zadnje	-4431
▁njegovim	-4432
▁9.	-4433
▁maksima	-4434
▁četvrtfina	-4435
liga	-4436
vimo	-4437
nisti	-4438
terna	-4439
▁Hama	-4440
▁tuži	-4441
▁studenog	-4442
ham	-4443
▁preo	-4444
▁tale	-4445
▁engle	-4446
▁usluga	-4447
▁Ukrajine	-4448
Mi	-4449
graf	-4450
tovi	-4451
▁igru	-4452
▁lani	-4453
nijeti	-4454
▁blizu	-4455
▁završila	-4456
▁istaknula	-4457
moć	-4458
▁For	-4459
dnice	-4460
▁autoce	-4461
▁skladu	-4462
▁nepozna	-4463
▁obavlja	-4464
▁prednost	-4465
nov	-4466
▁Tik	-4467
▁supa	-4468
▁poruka	-4469
▁udarac	-4470
žem	-4471
prija	-4472
▁jača	-4473
▁rake	-4474
▁žive	-4475
▁udruge	-4476
▁bolnice	-4477
▁pravosu	-4478
▁izbornik	-4479
▁njegovom	-4480
▁podacima	-4481
lira	-4482
zacije	-4483
▁lista	-4484
▁odbora	-4485
▁prošlog	-4486
▁čovjeka	-4487
"",	-4488
svim	-4489
čeki	-4490
▁Tro	-4491
▁papi	-4492
▁show	-4493
▁spomi	-4494
▁velikog	-4495
▁propusti	-4496
▁pobijedio	-4497
▁istraživanja	-4498
:2	-4499
▁EP	-4500
ncima	-4501
▁Njiho	-4502
▁nastavku	-4503
▁promijeniti	-4504
šnjem	-4505
▁djeci	-4506
▁neovi	-4507
▁stana	-4508
▁vrsta	-4509
snogovo	-4510
▁dosada	-4511
pije	-4512
timi	-4513
žuje	-4514
▁kuću	-4515
▁plju	-4516
bičaje	-4517
▁košta	-4518
▁košarka	-4519
▁članovi	-4520
dimo	-4521
▁30.	-4522
voren	-4523
▁Odlu	-4524
▁naju	-4525
nijela	-4526
▁Petro	-4527
▁rješa	-4528
▁Austra	-4529
▁nagrade	-4530
▁samosta	-4531
bice	-4532
▁16.	-4533
▁Ale	-4534
▁znak	-4535
▁Donal	-4536
▁prijatelja	-4537
00.	-4538
ljivi	-4539
▁Osta	-4540
▁baze	-4541
▁filmu	-4542
▁Poslje	-4543
▁medijima	-4544
RO	-4545
šo	-4546
tivi	-4547
vamo	-4548
tosti	-4549
šnjoj	-4550
▁Nada	-4551
▁izvu	-4552
▁naći	-4553
▁servi	-4554
▁staro	-4555
▁volje	-4556
▁odnose	-4557
▁Milanovi	-4558
▁prostoru	-4559
▁um	-4560
noga	-4561
šten	-4562
▁pao	-4563
▁poznata	-4564
rbe	-4565
brova	-4566
▁arhi	-4567
▁voda	-4568
▁slika	-4569
▁igrače	-4570
▁predlo	-4571
▁progno	-4572
▁pravila	-4573
▁isključi	-4574
▁riječima	-4575
▁prednosti	-4576
pr	-4577
▁Modrić	-4578
▁mandat	-4579
▁tijeku	-4580
PO	-4581
oko	-4582
rek	-4583
▁prido	-4584
▁ekonom	-4585
▁postupa	-4586
▁Ukrajinu	-4587
▁stupnjeva	-4588
▁°	-4589
šne	-4590
lika	-4591
▁laga	-4592
lovima	-4593
▁Možda	-4594
▁vlade	-4595
▁jedino	-4596
▁konkre	-4597
ntu	-4598
uju	-4599
zama	-4600
▁baca	-4601
▁prio	-4602
▁ratu	-4603
▁smislu	-4604
▁konfere	-4605
šna	-4606
▁indi	-4607
▁reze	-4608
▁nukle	-4609
▁opora	-4610
▁sudac	-4611
▁aplika	-4612
▁dogoditi	-4613
▁organizacije	-4614
toj	-4615
spek	-4616
▁bru	-4617
snost	-4618
▁ušao	-4619
▁Križe	-4620
▁masli	-4621
▁prigo	-4622
▁javnog	-4623
▁morati	-4624
▁pozvao	-4625
▁godišnji	-4626
▁poziciju	-4627
▁nevjeroja	-4628
dbe	-4629
tnice	-4630
▁Umje	-4631
▁broju	-4632
▁rastu	-4633
▁muškarac	-4634
▁najvećih	-4635
▁situaciji	-4636
isti	-4637
slije	-4638
▁Kate	-4639
strije	-4640
▁Ivica	-4641
▁napadu	-4642
▁odvija	-4643
▁progla	-4644
▁izbjega	-4645
▁zadnjih	-4646
▁Varaždina	-4647
▁Domovinskog	-4648
▁funkcionira	-4649
gije	-4650
jana	-4651
ljom	-4652
▁Igra	-4653
▁sluša	-4654
▁novinar	-4655
ara	-4656
port	-4657
▁Cel	-4658
▁roku	-4659
▁dizaj	-4660
▁istom	-4661
▁mreže	-4662
▁ruske	-4663
▁obožava	-4664
▁skupini	-4665
▁uspješno	-4666
ye	-4667
▁Dr	-4668
▁Bez	-4669
festa	-4670
▁male	-4671
▁sino	-4672
▁Slobo	-4673
▁rizik	-4674
▁destina	-4675
▁spreman	-4676
▁susretu	-4677
▁postupak	-4678
▁odgovornost	-4679
▁Sad	-4680
▁zbi	-4681
▁Dani	-4682
▁ostalo	-4683
▁prošao	-4684
▁tisuće	-4685
▁znatno	-4686
▁temperature	-4687
▁29	-4688
▁45	-4689
linu	-4690
▁puca	-4691
pisuje	-4692
▁Imamo	-4693
▁TikTo	-4694
▁blago	-4695
▁morao	-4696
▁velik	-4697
▁odluči	-4698
▁pozdra	-4699
▁znanja	-4700
▁postigao	-4701
▁kriminalisti	-4702
lon	-4703
rov	-4704
tice	-4705
tinui	-4706
▁Tada	-4707
▁Zele	-4708
▁dali	-4709
▁sudu	-4710
▁Drugi	-4711
▁preži	-4712
▁razmje	-4713
▁njihovim	-4714
▁pokazati	-4715
▁potpunosti	-4716
zapa	-4717
žnom	-4718
ranju	-4719
▁Gori	-4720
▁olak	-4721
tivnim	-4722
▁2018.	-4723
▁Bayer	-4724
▁uvjete	-4725
▁dogodio	-4726
▁riješiti	-4727
dit	-4728
munj	-4729
zora	-4730
šlja	-4731
▁Bli	-4732
▁uki	-4733
tnica	-4734
vnica	-4735
▁nami	-4736
▁napla	-4737
▁privu	-4738
▁Srbiji	-4739
▁regiji	-4740
▁sjever	-4741
▁telefo	-4742
▁Župani	-4743
▁pokazali	-4744
at	-4745
lici	-4746
vena	-4747
▁Indi	-4748
▁ljepo	-4749
▁perio	-4750
▁ispita	-4751
▁usluge	-4752
▁vozilo	-4753
▁ponekad	-4754
▁zahtjev	-4755
▁pregleda	-4756
▁različitih	-4757
zio	-4758
▁Kod	-4759
▁Kor	-4760
▁mrt	-4761
▁Kata	-4762
▁povr	-4763
▁smrt	-4764
▁prvak	-4765
▁sporazu	-4766
▁kontinui	-4767
NI	-4768
šak	-4769
stoja	-4770
▁glavu	-4771
▁kreće	-4772
▁volim	-4773
▁brojni	-4774
▁detalj	-4775
▁favori	-4776
▁igrama	-4777
▁elektro	-4778
▁pogodio	-4779
▁sekundi	-4780
▁alkohola	-4781
▁prijedlog	-4782
▁Hi	-4783
leti	-4784
šnjo	-4785
▁eli	-4786
▁proba	-4787
▁Upravo	-4788
▁prista	-4789
▁dubrova	-4790
▁konačno	-4791
roma	-4792
uzda	-4793
▁Bit	-4794
rskog	-4795
vjela	-4796
▁koga	-4797
scipli	-4798
▁gostu	-4799
▁šanse	-4800
▁ističu	-4801
▁zvijez	-4802
▁građane	-4803
▁olimpij	-4804
▁njihovih	-4805
gov	-4806
zme	-4807
▁osni	-4808
strija	-4809
▁dakle	-4810
▁jednim	-4811
▁prošli	-4812
▁serija	-4813
▁jednako	-4814
rku	-4815
lović	-4816
▁Lije	-4817
▁neku	-4818
intere	-4819
▁vijeća	-4820
▁granice	-4821
▁starije	-4822
▁odlučili	-4823
ziti	-4824
▁Char	-4825
▁Ljudi	-4826
▁Najbo	-4827
▁formi	-4828
▁grupa	-4829
▁inova	-4830
▁teške	-4831
▁aktivi	-4832
▁polovi	-4833
▁prolazi	-4834
ft	-4835
nes	-4836
đimu	-4837
▁bron	-4838
▁bilje	-4839
▁promo	-4840
▁trage	-4841
▁napravili	-4842
▁Ča	-4843
dobno	-4844
▁osvr	-4845
▁srce	-4846
▁2016.	-4847
▁odmor	-4848
▁rekor	-4849
▁vodio	-4850
▁naroda	-4851
▁sumnja	-4852
▁vjetar	-4853
▁Europskog	-4854
▁sudjelova	-4855
miju	-4856
▁uma	-4857
▁Jugo	-4858
zacija	-4859
▁Stoga	-4860
▁Zadru	-4861
▁sasvim	-4862
▁otkriva	-4863
▁rođendan	-4864
nar	-4865
ndu	-4866
ših	-4867
čaja	-4868
▁22.	-4869
njeni	-4870
▁najvi	-4871
▁samom	-4872
▁teški	-4873
▁Trumpa	-4874
▁doista	-4875
▁pjesma	-4876
▁uključuje	-4877
peri	-4878
sira	-4879
tove	-4880
žene	-4881
▁the	-4882
▁zag	-4883
vnice	-4884
minira	-4885
▁Brazi	-4886
▁dokaza	-4887
▁knjige	-4888
▁podatke	-4889
▁Primorac	-4890
▁Varaždinu	-4891
▁prvenstve	-4892
/2	-4893
wi	-4894
juće	-4895
deset	-4896
▁doga	-4897
▁krvi	-4898
jevima	-4899
▁desni	-4900
▁nekog	-4901
▁tvrtki	-4902
▁međutim	-4903
▁konferen	-4904
▁zemljama	-4905
▁tvo	-4906
▁vre	-4907
ravak	-4908
▁menta	-4909
▁skoro	-4910
▁bivšeg	-4911
▁postoja	-4912
▁prometu	-4913
▁redovito	-4914
▁konferenciji	-4915
▁reprezentaciju	-4916
ttps	-4917
▁kop	-4918
▁simp	-4919
▁akade	-4920
▁tribi	-4921
▁Švica	-4922
▁Martin	-4923
▁dugoro	-4924
▁konkure	-4925
▁četvrti	-4926
▁primjerice	-4927
bano	-4928
nior	-4929
▁ote	-4930
▁dodje	-4931
▁pokri	-4932
▁snagu	-4933
▁dijelom	-4934
▁nagrada	-4935
▁ugovora	-4936
fti	-4937
kala	-4938
▁Kro	-4939
▁upla	-4940
▁večer	-4941
▁bolnicu	-4942
▁razvoju	-4943
▁veljače	-4944
▁učinkovi	-4945
▁znanosti	-4946
▁politički	-4947
let	-4948
▁an	-4949
rama	-4950
šili	-4951
▁Slu	-4952
▁Spa	-4953
▁Kine	-4954
▁Podra	-4955
▁onima	-4956
▁povla	-4957
▁komisi	-4958
▁učenika	-4959
▁Europskom	-4960
jskoj	-4961
▁anke	-4962
▁gradi	-4963
▁Hrvata	-4964
▁iznosu	-4965
▁glumica	-4966
▁ostalih	-4967
▁33	-4968
rata	-4969
▁misi	-4970
▁Zadra	-4971
▁planu	-4972
▁porez	-4973
▁Vukova	-4974
▁pretpo	-4975
▁zastupnika	-4976
▁potpredsjedni	-4977
lića	-4978
čuju	-4979
▁Var	-4980
njeno	-4981
▁kupu	-4982
▁ligi	-4983
▁raka	-4984
snosti	-4985
▁stambe	-4986
▁priznao	-4987
▁prodaje	-4988
▁nastavio	-4989
CI	-4990
grafi	-4991
▁Milo	-4992
▁Time	-4993
▁glas	-4994
prijed	-4995
▁najpo	-4996
▁prekra	-4997
▁razinu	-4998
//	-4999
aja	-5000
sve	-5001
tti	-5002
▁36	-5003
▁Jaki	-5004
▁Poče	-5005
▁tero	-5006
sjetio	-5007
▁narod	-5008
▁Josipa	-5009
▁pogodi	-5010
▁glavnog	-5011
▁prilike	-5012
▁festivala	-5013
▁kvalitete	-5014
▁fotografiju	-5015
▁proizvodnje	-5016
šim	-5017
▁vodu	-5018
▁poruke	-5019
▁sumnje	-5020
luju	-5021
▁vole	-5022
▁Damir	-5023
▁apsolu	-5024
▁objave	-5025
▁pritom	-5026
▁želimo	-5027
▁odlučila	-5028
cho	-5029
rigi	-5030
▁KBC	-5031
čnost	-5032
▁poni	-5033
▁Vjeru	-5034
▁potroša	-5035
▁procije	-5036
▁tržište	-5037
▁stanovnika	-5038
demo	-5039
▁far	-5040
▁Putin	-5041
▁korup	-5042
▁položa	-5043
▁temelj	-5044
▁govoriti	-5045
▁interesa	-5046
▁stranici	-5047
sse	-5048
RIJA	-5049
▁logi	-5050
▁vama	-5051
zaciju	-5052
▁Festi	-5053
▁novoj	-5054
▁Olimpi	-5055
▁zdravlja	-5056
▁platformi	-5057
▁Ange	-5058
▁City	-5059
dovolj	-5060
▁Dobro	-5061
▁Zašto	-5062
▁recep	-5063
▁humani	-5064
▁osobno	-5065
▁najljep	-5066
▁partnera	-5067
▁građanima	-5068
dy	-5069
limo	-5070
▁Cen	-5071
▁šta	-5072
▁teži	-5073
▁dobru	-5074
▁svaku	-5075
▁visoko	-5076
▁interes	-5077
▁Šibenik	-5078
▁fotografija	-5079
ttu	-5080
hani	-5081
veni	-5082
▁oču	-5083
▁nekom	-5084
▁samog	-5085
▁vrste	-5086
▁satima	-5087
▁simpto	-5088
▁zadnji	-5089
▁Nizozem	-5090
▁milijun	-5091
▁utjecaj	-5092
-4	-5093
▁500	-5094
▁opro	-5095
▁znao	-5096
▁pravu	-5097
▁račun	-5098
▁vozač	-5099
▁odabra	-5100
▁područje	-5101
▁32	-5102
činu	-5103
žnog	-5104
▁Iza	-5105
▁moć	-5106
▁pad	-5107
stara	-5108
▁Mogu	-5109
▁pišu	-5110
▁poko	-5111
▁Božić	-5112
▁Londo	-5113
▁Unatoč	-5114
▁obično	-5115
▁oslobo	-5116
▁krimina	-5117
://	-5118
ALE	-5119
▁sank	-5120
▁šeće	-5121
tkinja	-5122
▁ideja	-5123
▁luksu	-5124
▁model	-5125
▁detalje	-5126
▁potporu	-5127
▁večeras	-5128
▁ulaganja	-5129
cy	-5130
um	-5131
...'	-5132
gram	-5133
logu	-5134
▁25.	-5135
▁jela	-5136
▁vodo	-5137
▁čija	-5138
▁forma	-5139
▁stopa	-5140
▁obranu	-5141
▁trgova	-5142
▁večeri	-5143
▁zemlju	-5144
▁lokalne	-5145
▁Ukrajina	-5146
▁navijači	-5147
▁rezultati	-5148
ševa	-5149
gnuti	-5150
▁Alba	-5151
▁uklo	-5152
▁ulice	-5153
prilike	-5154
▁rekord	-5155
▁direkto	-5156
▁nekretnine	-5157
dine	-5158
vero	-5159
vski	-5160
▁Večer	-5161
▁najveća	-5162
▁slijedi	-5163
▁prometne	-5164
▁(6	-5165
▁sv	-5166
laže	-5167
▁gor	-5168
manti	-5169
▁boji	-5170
▁duho	-5171
▁najče	-5172
▁svjetski	-5173
ct	-5174
jete	-5175
stio	-5176
▁mir	-5177
▁Prva	-5178
▁krea	-5179
▁niko	-5180
▁pake	-5181
▁reci	-5182
▁Goran	-5183
▁cesti	-5184
▁cijenu	-5185
▁postro	-5186
▁sjevero	-5187
▁članica	-5188
▁vanjskih	-5189
UP	-5190
bit	-5191
štima	-5192
▁štetu	-5193
▁ciljem	-5194
▁odnosa	-5195
▁brojnim	-5196
▁njegovog	-5197
▁njegovoj	-5198
▁putovanja	-5199
lti	-5200
▁Ras	-5201
▁teo	-5202
▁Obje	-5203
▁jesu	-5204
▁posa	-5205
▁ocije	-5206
▁Srbija	-5207
▁izuzetno	-5208
▁završiti	-5209
▁županija	-5210
▁hrvatskim	-5211
▁Dubrovnika	-5212
▁reprezentati	-5213
hat	-5214
udi	-5215
skup	-5216
ćeno	-5217
čaka	-5218
▁bje	-5219
▁svu	-5220
▁Miro	-5221
▁poti	-5222
▁veća	-5223
▁borbu	-5224
▁drago	-5225
▁nikak	-5226
ALERIJA	-5227
antasti	-5228
▁ostvari	-5229
▁manifesta	-5230
▁isključivo	-5231
:4	-5232
▁El	-5233
pula	-5234
▁napu	-5235
▁ured	-5236
▁mlije	-5237
▁odusta	-5238
▁pripada	-5239
▁izjavila	-5240
▁povratak	-5241
▁pristupa	-5242
MA	-5243
▁Q	-5244
vke	-5245
▁300	-5246
▁sme	-5247
đenju	-5248
▁Ligi	-5249
▁kuhi	-5250
▁naveo	-5251
▁potpo	-5252
▁zalju	-5253
▁počeli	-5254
▁razine	-5255
▁pratiti	-5256
▁državnog	-5257
▁konkuren	-5258
▁ozbiljno	-5259
▁suradnju	-5260
ff	-5261
jić	-5262
jmo	-5263
ćina	-5264
▁kor	-5265
▁Nogo	-5266
▁Novo	-5267
▁izab	-5268
▁prese	-5269
▁stiže	-5270
▁Međuna	-5271
▁knjiže	-5272
▁zaosta	-5273
▁drugima	-5274
▁propisa	-5275
▁obrazovanja	-5276
vač	-5277
ljenih	-5278
▁niste	-5279
▁krenuo	-5280
▁građevi	-5281
▁europske	-5282
▁vjerujem	-5283
▁muškaraca	-5284
▁generacije	-5285
▁predsjednica	-5286
mda	-5287
▁Fer	-5288
▁spek	-5289
▁bogat	-5290
▁pogodak	-5291
▁vikenda	-5292
05	-5293
ani	-5294
rie	-5295
žbu	-5296
cifi	-5297
land	-5298
letio	-5299
▁eduka	-5300
▁Općine	-5301
▁saveza	-5302
▁udruga	-5303
▁nažalost	-5304
▁njegovih	-5305
▁sljedeće	-5306
▁Dubrovniku	-5307
ite	-5308
ljiv	-5309
padu	-5310
▁26.	-5311
dište	-5312
▁kana	-5313
▁šoki	-5314
▁https	-5315
▁podno	-5316
▁prodaju	-5317
▁osigurati	-5318
Su	-5319
ges	-5320
čene	-5321
▁Mos	-5322
▁atra	-5323
▁hoda	-5324
▁stan	-5325
▁Pozna	-5326
▁neobi	-5327
▁onoga	-5328
▁preci	-5329
▁osobama	-5330
▁zaintere	-5331
▁kvalitetu	-5332
▁razdoblje	-5333
▁zajednica	-5334
dže	-5335
alno	-5336
deći	-5337
onal	-5338
▁Klu	-5339
snika	-5340
vajući	-5341
▁cilja	-5342
▁nadam	-5343
▁sekto	-5344
▁oružja	-5345
▁agencija	-5346
▁rezultata	-5347
jku	-5348
▁apa	-5349
tskih	-5350
▁dvobo	-5351
▁propa	-5352
▁uvjer	-5353
▁Rusije	-5354
▁dvostru	-5355
▁pozornost	-5356
▁Milanovića	-5357
▁trenutačno	-5358
imna	-5359
kali	-5360
▁zao	-5361
ština	-5362
▁teku	-5363
▁hranu	-5364
▁pažnju	-5365
▁djeteta	-5366
▁vijesti	-5367
sama	-5368
▁van	-5369
rskom	-5370
▁dala	-5371
▁Gattu	-5372
▁ovisi	-5373
▁struk	-5374
▁zauze	-5375
▁domaće	-5376
▁vlasnik	-5377
▁nastavak	-5378
▁političke	-5379
▁natjecanje	-5380
!"	-5381
shi	-5382
valu	-5383
hvaća	-5384
kovića	-5385
▁Biden	-5386
▁Jutar	-5387
▁Vatre	-5388
▁trofe	-5389
▁otpada	-5390
▁pristu	-5391
▁sukoba	-5392
▁upotre	-5393
▁Poljudu	-5394
▁legenda	-5395
▁najveće	-5396
▁postane	-5397
▁pripreme	-5398
▁službeno	-5399
▁umjetnosti	-5400
we	-5401
vce	-5402
▁we	-5403
snik	-5404
vano	-5405
▁vrh	-5406
gledu	-5407
▁spor	-5408
▁ulja	-5409
▁Dubra	-5410
▁svoja	-5411
nitivno	-5412
vremena	-5413
▁radili	-5414
▁njegovi	-5415
▁stavlja	-5416
▁festival	-5417
▁zdravstva	-5418
rs	-5419
snio	-5420
vaca	-5421
▁bak	-5422
▁zim	-5423
▁Kore	-5424
▁uzima	-5425
▁Zakona	-5426
▁morali	-5427
▁odlazi	-5428
▁uključi	-5429
▁ministra	-5430
▁najpozna	-5431
▁preminuo	-5432
▁utjecati	-5433
▁značajno	-5434
▁činjenica	-5435
/1	-5436
chi	-5437
ele	-5438
mić	-5439
rij	-5440
▁29.	-5441
▁isho	-5442
▁briga	-5443
▁kolek	-5444
▁neugo	-5445
▁ogrom	-5446
▁opisa	-5447
▁pored	-5448
▁ubrzo	-5449
▁Smatra	-5450
▁pomaže	-5451
▁korisnika	-5452
▁očekivati	-5453
▁različite	-5454
▁Srp	-5455
▁uru	-5456
tivan	-5457
▁Stje	-5458
▁glum	-5459
čnosti	-5460
▁Hezbo	-5461
▁kombi	-5462
▁Harris	-5463
▁policiji	-5464
▁projekata	-5465
▁34	-5466
žnim	-5467
▁Tvr	-5468
▁ite	-5469
▁olu	-5470
▁tam	-5471
njuju	-5472
zanje	-5473
▁Budi	-5474
▁fazi	-5475
▁kiša	-5476
▁rela	-5477
▁božić	-5478
▁kreve	-5479
▁nasilja	-5480
▁siguran	-5481
▁tjedana	-5482
▁vodstvo	-5483
▁organizaciji	-5484
snoj	-5485
tska	-5486
▁javne	-5487
▁važan	-5488
▁zadar	-5489
pustiti	-5490
▁Hrvati	-5491
▁Slaven	-5492
▁Veliko	-5493
▁nacija	-5494
▁plasti	-5495
▁državni	-5496
▁najbolja	-5497
▁voditelj	-5498
▁unutrašnjo	-5499
.,	-5500
rci	-5501
vko	-5502
▁PU	-5503
rsku	-5504
stvr	-5505
šnju	-5506
žnih	-5507
▁Net	-5508
▁špi	-5509
▁napome	-5510
▁voditi	-5511
▁studija	-5512
▁pogledati	-5513
▁roditelja	-5514
▁II	-5515
▁23.	-5516
▁Fil	-5517
▁Mir	-5518
▁Tor	-5519
▁rok	-5520
davno	-5521
šajte	-5522
▁Auto	-5523
▁bavi	-5524
▁otka	-5525
▁2017.	-5526
▁našao	-5527
▁poena	-5528
▁testi	-5529
▁Robert	-5530
▁invali	-5531
▁desetak	-5532
▁gradova	-5533
▁Sjedinje	-5534
▁uobičaje	-5535
▁okolnosti	-5536
est	-5537
▁cu	-5538
vred	-5539
▁oca	-5540
▁Dugo	-5541
▁gore	-5542
▁neto	-5543
▁klije	-5544
▁optimi	-5545
▁Dubrova	-5546
▁itekako	-5547
▁neprija	-5548
▁pokušao	-5549
▁turizma	-5550
▁Njemačka	-5551
▁suradnje	-5552
▁glasnogovo	-5553
▁međuvremenu	-5554
elu	-5555
inje	-5556
▁Oče	-5557
▁ver	-5558
teoro	-5559
▁Boži	-5560
▁moram	-5561
▁liječni	-5562
▁temelji	-5563
▁Beogradu	-5564
▁pobjedom	-5565
čnije	-5566
▁bori	-5567
▁pješa	-5568
▁sobom	-5569
▁objavi	-5570
▁predvo	-5571
▁gostima	-5572
▁kaznenog	-5573
▁posebice	-5574
▁31	-5575
nule	-5576
▁jedina	-5577
▁Lasagna	-5578
▁emisiji	-5579
▁korištenje	-5580
lski	-5581
vene	-5582
▁Rado	-5583
▁igara	-5584
▁kakve	-5585
▁vlast	-5586
▁poslao	-5587
▁proveo	-5588
▁Jugosla	-5589
▁policaj	-5590
▁prikaza	-5591
▁politika	-5592
▁Hrvatskom	-5593
▁komentara	-5594
▁podijelila	-5595
gana	-5596
jevi	-5597
▁Seve	-5598
▁domu	-5599
▁direk	-5600
▁opskr	-5601
▁izvođa	-5602
▁naslova	-5603
▁plasman	-5604
▁usposta	-5605
▁suprugom	-5606
▁europskim	-5607
▁proizvode	-5608
▁vlasništvu	-5609
▁gospodarstva	-5610
han	-5611
▁Ču	-5612
blji	-5613
lama	-5614
lana	-5615
raka	-5616
▁Budu	-5617
▁Vale	-5618
▁šibe	-5619
▁Marin	-5620
▁kolege	-5621
▁morate	-5622
▁proved	-5623
▁podrške	-5624
▁posljed	-5625
▁ostvariti	-5626
kse	-5627
"...	-5628
lite	-5629
lozi	-5630
▁Gazi	-5631
▁Kali	-5632
metaši	-5633
▁liste	-5634
▁najte	-5635
▁državi	-5636
▁koševa	-5637
▁stranu	-5638
▁suprug	-5639
▁podnije	-5640
▁povodom	-5641
▁vjeruje	-5642
▁kampanje	-5643
▁muškarca	-5644
▁stadionu	-5645
▁mišljenje	-5646
nilo	-5647
rove	-5648
▁Gar	-5649
▁Ita	-5650
terpo	-5651
ženju	-5652
▁Iran	-5653
▁Tele	-5654
▁dovo	-5655
▁mala	-5656
▁Ljubav	-5657
▁kvadra	-5658
▁njihovo	-5659
▁publika	-5660
▁podsjeća	-5661
▁obavijesti	-5662
▁Žu	-5663
▁24.	-5664
rnicu	-5665
▁Igor	-5666
▁zadu	-5667
▁čije	-5668
▁cjelo	-5669
▁preva	-5670
▁stože	-5671
▁namije	-5672
▁vidimo	-5673
▁odlično	-5674
▁američki	-5675
▁današnji	-5676
▁naglašava	-5677
▁pjevačica	-5678
par	-5679
žite	-5680
▁Zvo	-5681
▁che	-5682
▁mar	-5683
▁komp	-5684
▁širo	-5685
▁Willi	-5686
▁braku	-5687
▁razno	-5688
▁takva	-5689
▁grmlja	-5690
▁takvih	-5691
▁dolazak	-5692
▁objavili	-5693
▁svjetskog	-5694
AT	-5695
sr	-5696
▁Er	-5697
▁sc	-5698
manu	-5699
▁Che	-5700
▁hit	-5701
posla	-5702
▁osobu	-5703
▁dodije	-5704
▁jezika	-5705
▁kupiti	-5706
▁radovi	-5707
▁vožnje	-5708
▁ispričao	-5709
▁prijateljima	-5710
dbi	-5711
▁Mc	-5712
▁Šo	-5713
klih	-5714
tion	-5715
▁28.	-5716
▁Tim	-5717
▁pis	-5718
likop	-5719
štena	-5720
▁Miha	-5721
▁dvori	-5722
▁psihi	-5723
▁ruski	-5724
▁Velika	-5725
▁kapetan	-5726
▁GALERIJA	-5727
▁sportski	-5728
▁Instagram	-5729
gori	-5730
tite	-5731
▁Čak	-5732
▁Bide	-5733
▁lica	-5734
▁meto	-5735
▁čast	-5736
▁Davor	-5737
▁marke	-5738
▁proći	-5739
▁Manche	-5740
▁izgubili	-5741
▁ministri	-5742
▁smanjiti	-5743
lesa	-5744
▁Zri	-5745
▁bom	-5746
▁red	-5747
▁ubo	-5748
▁prisi	-5749
▁udara	-5750
teljice	-5751
▁britan	-5752
▁istoku	-5753
▁poreme	-5754
▁pretra	-5755
▁Njegova	-5756
▁platiti	-5757
▁uspjela	-5758
▁važnost	-5759
▁energiju	-5760
▁izgubila	-5761
▁Ad	-5762
novo	-5763
tiji	-5764
▁bod	-5765
slobo	-5766
▁boja	-5767
logije	-5768
▁sindi	-5769
▁negdje	-5770
▁sloven	-5771
▁zadovoljni	-5772
▁svakodnevno	-5773
▁poslijepodne	-5774
▁informacijama	-5775
▁reprezentativac	-5776
ane	-5777
▁(19	-5778
▁Bog	-5779
kcija	-5780
vjeli	-5781
▁John	-5782
▁bana	-5783
▁datu	-5784
▁šire	-5785
▁ekipe	-5786
▁otići	-5787
▁varaž	-5788
▁Međimu	-5789
▁pokret	-5790
▁Željko	-5791
▁diploma	-5792
▁pobjedni	-5793
▁kompanija	-5794
▁otprilike	-5795
šom	-5796
prje	-5797
▁ispi	-5798
▁Slova	-5799
▁kaznu	-5800
▁nekad	-5801
▁nepre	-5802
▁polju	-5803
▁prave	-5804
▁razne	-5805
vrijeme	-5806
▁prirod	-5807
▁uspore	-5808
▁državne	-5809
▁izvješta	-5810
▁preuzima	-5811
rat	-5812
laca	-5813
mjese	-5814
okola	-5815
▁Malo	-5816
spekti	-5817
▁Rekao	-5818
▁banke	-5819
▁uživa	-5820
▁vidim	-5821
▁izlazi	-5822
▁podaci	-5823
▁Italije	-5824
▁opravda	-5825
▁preosta	-5826
▁živjeti	-5827
▁poduzetni	-5828
-6	-5829
Ni	-5830
▁ući	-5831
njaka	-5832
▁Obja	-5833
▁ambi	-5834
▁Najve	-5835
▁imeno	-5836
▁naslo	-5837
▁prete	-5838
▁nositi	-5839
▁vojske	-5840
▁domaćin	-5841
▁katastro	-5842
▁projekte	-5843
es	-5844
▁(7	-5845
tirati	-5846
▁Uprave	-5847
▁Osijeka	-5848
▁preokre	-5849
▁publiku	-5850
▁sustavu	-5851
▁svjetlo	-5852
▁fantasti	-5853
▁koncerta	-5854
bić	-5855
▁čvr	-5856
genti	-5857
đenim	-5858
▁nape	-5859
menata	-5860
▁ekono	-5861
▁klupi	-5862
▁naime	-5863
▁potez	-5864
▁uskla	-5865
▁prolaz	-5866
▁njihovi	-5867
▁započeo	-5868
▁discipli	-5869
▁otvoreno	-5870
▁upozorava	-5871
tam	-5872
mojte	-5873
ovjek	-5874
▁daju	-5875
▁tima	-5876
▁vezu	-5877
klanja	-5878
▁Posao	-5879
▁idemo	-5880
▁znali	-5881
▁Uvijek	-5882
▁obliku	-5883
▁visoke	-5884
▁nuklear	-5885
▁očekuju	-5886
▁putnika	-5887
▁vrijedi	-5888
▁kontrolu	-5889
▁razgovoru	-5890
▁institucije	-5891
ORH	-5892
kru	-5893
nsi	-5894
▁38	-5895
▁zu	-5896
grad	-5897
čani	-5898
▁Tom	-5899
▁naf	-5900
▁udo	-5901
▁istu	-5902
▁kriv	-5903
▁ogla	-5904
ravaju	-5905
▁kakva	-5906
▁akcije	-5907
▁rukama	-5908
▁status	-5909
▁zatvor	-5910
▁nesreći	-5911
▁razlike	-5912
▁ponavlja	-5913
▁zdravstvene	-5914
škoj	-5915
▁Ivo	-5916
▁ala	-5917
ljive	-5918
tivni	-5919
▁poje	-5920
▁sjaj	-5921
cijskih	-5922
▁cijeni	-5923
▁glumac	-5924
▁isporu	-5925
▁nemogu	-5926
▁životinja	-5927
▁pobijediti	-5928
▁posljedica	-5929
▁zlostavlja	-5930
▁Varaždinske	-5931
lci	-5932
vane	-5933
▁domo	-5934
▁izla	-5935
▁jelo	-5936
▁Rumunj	-5937
▁Rusiji	-5938
▁ispiti	-5939
▁kolega	-5940
▁pomalo	-5941
▁brojnih	-5942
▁poseban	-5943
▁interven	-5944
▁normalno	-5945
▁zapošlja	-5946
FA	-5947
zv	-5948
▁Obi	-5949
▁Pan	-5950
▁suz	-5951
tivnu	-5952
▁jese	-5953
▁kiše	-5954
▁donese	-5955
▁analiti	-5956
▁blagdan	-5957
▁ozljeda	-5958
▁Nažalost	-5959
▁kontroli	-5960
▁potrebna	-5961
▁trgovine	-5962
Da	-5963
NK	-5964
dim	-5965
plici	-5966
▁Napo	-5967
logiju	-5968
žavaju	-5969
▁krugu	-5970
▁hotela	-5971
▁nekako	-5972
▁većinom	-5973
▁vojnika	-5974
▁nedjelje	-5975
▁desetljeća	-5976
▁upravljanja	-5977
15	-5978
spa	-5979
čem	-5980
▁194	-5981
▁Flo	-5982
▁Oli	-5983
njaci	-5984
▁izre	-5985
▁kredi	-5986
▁prate	-5987
▁ulozi	-5988
▁osvoje	-5989
▁ulazak	-5990
▁cestama	-5991
▁održava	-5992
▁pokušava	-5993
▁prijevoz	-5994
▁posljedice	-5995
▁proizvodnju	-5996
▁SP	-5997
▁150	-5998
▁Van	-5999
tanje	-6000
▁feno	-6001
▁misle	-6002
▁mogle	-6003
▁oduze	-6004
▁origi	-6005
▁rezul	-6006
▁samou	-6007
▁poreza	-6008
▁prince	-6009
▁vojska	-6010
▁Osijeku	-6011
▁cijelog	-6012
▁sigurni	-6013
▁tržišta	-6014
▁statisti	-6015
▁proračuna	-6016
%2	-6017
ice	-6018
▁šef	-6019
▁civi	-6020
▁prav	-6021
▁zate	-6022
▁bolja	-6023
▁centi	-6024
▁letje	-6025
▁Dinamu	-6026
▁Umjesto	-6027
▁desetlje	-6028
▁pritisak	-6029
▁zanimljivo	-6030
▁gradonačelnika	-6031
mar	-6032
sur	-6033
ence	-6034
fera	-6035
tivu	-6036
pović	-6037
▁Kristi	-6038
▁krenuli	-6039
▁podrška	-6040
▁prirode	-6041
▁europski	-6042
▁razgovarati	-6043
Ja	-6044
jaca	-6045
rnom	-6046
žnji	-6047
▁Rafa	-6048
▁izabra	-6049
▁terena	-6050
▁udario	-6051
▁nadokna	-6052
▁ostavio	-6053
▁Ujedinje	-6054
▁poziciji	-6055
▁prilično	-6056
▁smanjenje	-6057
▁Španjolska	-6058
:3	-6059
VDJE	-6060
viju	-6061
zati	-6062
▁31.	-6063
ivota	-6064
▁poto	-6065
▁Drago	-6066
▁skupa	-6067
▁duboko	-6068
▁zgrada	-6069
▁događaj	-6070
▁kraljev	-6071
▁otvorena	-6072
▁postignu	-6073
▁nogometnog	-6074
▁vatrogasci	-6075
sić	-6076
▁39	-6077
gore	-6078
▁Ili	-6079
ncije	-6080
▁Maro	-6081
kladno	-6082
tivnog	-6083
▁javni	-6084
▁snimke	-6085
▁Njemačke	-6086
▁osvojili	-6087
▁promatra	-6088
▁poluvremenu	-6089
IP	-6090
OV	-6091
:30	-6092
eka	-6093
eki	-6094
jac	-6095
ćene	-6096
▁Pau	-6097
▁ošt	-6098
▁uku	-6099
mente	-6100
shing	-6101
▁Belu	-6102
▁štra	-6103
▁jedva	-6104
▁Aleksa	-6105
▁prijave	-6106
▁opasnosti	-6107
▁rasporedu	-6108
▁stranicama	-6109
▁Španjolske	-6110
ssa	-6111
ćeva	-6112
▁HNS	-6113
▁kupi	-6114
▁pože	-6115
▁zasi	-6116
▁Marka	-6117
▁ciklu	-6118
▁Primor	-6119
▁Saraje	-6120
▁predme	-6121
▁stigli	-6122
▁turnir	-6123
▁sunčano	-6124
▁Europski	-6125
▁agencije	-6126
▁najčešće	-6127
▁pokazalo	-6128
▁vremenom	-6129
▁Maksimiru	-6130
▁drugačije	-6131
▁nogometne	-6132
▁objasnila	-6133
▁Zu	-6134
voda	-6135
ranih	-6136
redbi	-6137
▁kuna	-6138
▁čelu	-6139
▁Šved	-6140
▁Petar	-6141
▁nepro	-6142
▁Sjever	-6143
▁kojega	-6144
▁opcija	-6145
▁oporbe	-6146
▁sudaca	-6147
▁istrage	-6148
▁dužnosti	-6149
▁društvenih	-6150
▁natjecanju	-6151
ot	-6152
Ovo	-6153
▁37	-6154
cent	-6155
jača	-6156
loge	-6157
▁Glu	-6158
▁Lov	-6159
▁njom	-6160
▁vino	-6161
▁OVDJE	-6162
▁plasi	-6163
▁rujnu	-6164
▁ustvr	-6165
▁Austri	-6166
▁Njegov	-6167
▁danima	-6168
▁dnevno	-6169
▁prolje	-6170
▁većinu	-6171
▁komplek	-6172
▁specifi	-6173
▁uspjeha	-6174
▁američke	-6175
▁prošlosti	-6176
▁ug	-6177
gija	-6178
ruža	-6179
vinu	-6180
▁27.	-6181
▁guž	-6182
▁brat	-6183
▁brod	-6184
▁Svaki	-6185
▁Vrije	-6186
▁jezik	-6187
▁pamet	-6188
▁showa	-6189
▁troje	-6190
▁načina	-6191
▁radimo	-6192
▁sumnji	-6193
▁želite	-6194
▁klubova	-6195
id	-6196
ty	-6197
tika	-6198
▁vez	-6199
▁klup	-6200
tljivo	-6201
▁Zahva	-6202
▁doslo	-6203
▁kćeri	-6204
▁optuž	-6205
▁otoku	-6206
▁sinoć	-6207
▁zasta	-6208
▁djecom	-6209
▁nadzor	-6210
▁nekoga	-6211
▁emisije	-6212
▁platfor	-6213
▁publike	-6214
▁hrvatsku	-6215
▁politiku	-6216
▁Plenkovića	-6217
Ra	-6218
jke	-6219
▁Kli	-6220
čnici	-6221
▁duga	-6222
▁maso	-6223
terije	-6224
▁Belgi	-6225
▁dojam	-6226
▁scene	-6227
▁napokon	-6228
▁postali	-6229
▁uživati	-6230
▁ispričala	-6231
▁odvjetnik	-6232
▁putovanje	-6233
▁+	-6234
tao	-6235
dini	-6236
jeve	-6237
vača	-6238
▁Domi	-6239
▁Zaje	-6240
▁jaja	-6241
▁noge	-6242
▁prit	-6243
▁save	-6244
vješta	-6245
▁Zanim	-6246
▁prera	-6247
▁najmla	-6248
▁stanja	-6249
▁otkrili	-6250
▁prekršaja	-6251
▁Manchester	-6252
▁sposobnosti	-6253
ziv	-6254
toli	-6255
▁Mal	-6256
▁Tho	-6257
▁fri	-6258
Sport	-6259
govor	-6260
loške	-6261
▁Cilj	-6262
▁Dali	-6263
▁šteta	-6264
▁izvora	-6265
▁kontek	-6266
▁seriji	-6267
▁vozača	-6268
▁helikop	-6269
▁stranih	-6270
▁pobijedila	-6271
▁službenici	-6272
▁Sveučilišta	-6273
▁HA	-6274
nema	-6275
▁Film	-6276
▁boksa	-6277
▁kazna	-6278
▁mreži	-6279
▁otoka	-6280
▁Centra	-6281
▁izazov	-6282
▁dvorani	-6283
▁gostiju	-6284
▁posloda	-6285
▁različitim	-6286
era	-6287
tla	-6288
/202	-6289
burg	-6290
▁seg	-6291
sobno	-6292
▁nara	-6293
▁orke	-6294
▁zove	-6295
▁širi	-6296
▁iznaj	-6297
▁požar	-6298
▁požara	-6299
▁uništi	-6300
▁njihovom	-6301
▁proteklih	-6302
inu	-6303
kula	-6304
▁tzv	-6305
▁Kije	-6306
▁bilj	-6307
▁poča	-6308
stvima	-6309
▁videu	-6310
▁Udruge	-6311
▁domovi	-6312
▁komple	-6313
▁napomi	-6314
▁portal	-6315
▁uhvati	-6316
▁operati	-6317
▁rijetko	-6318
▁Facebooku	-6319
▁Francuska	-6320
▁koncentra	-6321
!'	-6322
jsko	-6323
tala	-6324
vida	-6325
▁ista	-6326
▁osla	-6327
▁selu	-6328
▁Dodao	-6329
▁Jedno	-6330
▁teška	-6331
▁žrtve	-6332
▁ponudu	-6333
▁svjesni	-6334
▁razgovor	-6335
▁spomenuti	-6336
▁definitivno	-6337
KOK	-6338
pti	-6339
▁55	-6340
▁kuć	-6341
dalma	-6342
▁same	-6343
▁temu	-6344
novića	-6345
tivnom	-6346
▁Dalić	-6347
▁borba	-6348
▁crkve	-6349
▁popis	-6350
▁Veliki	-6351
▁austri	-6352
▁cijela	-6353
▁dinami	-6354
▁knjiga	-6355
▁regije	-6356
▁djeluje	-6357
▁igračima	-6358
▁nadolaze	-6359
▁osvojiti	-6360
▁sudjelovati	-6361
▁unutrašnjosti	-6362
ove	-6363
minu	-6364
rona	-6365
tinj	-6366
volu	-6367
šila	-6368
▁san	-6369
▁Bero	-6370
▁ruka	-6371
▁Otkri	-6372
▁nepra	-6373
▁naslje	-6374
▁početi	-6375
▁uprava	-6376
▁njezinu	-6377
▁reakcije	-6378
▁operacije	-6379
▁Dva	-6380
tniji	-6381
▁prof	-6382
▁golom	-6383
▁goste	-6384
▁jutar	-6385
▁Washing	-6386
▁okoliša	-6387
▁događaju	-6388
▁opasnost	-6389
▁pronašli	-6390
▁nogometaš	-6391
▁parlament	-6392
▁tehnologije	-6393
Ima	-6394
vari	-6395
▁geo	-6396
▁Gran	-6397
▁magi	-6398
vljuju	-6399
▁mrežu	-6400
▁pošte	-6401
▁izbaci	-6402
▁linije	-6403
▁pretje	-6404
▁tijelu	-6405
▁vrtića	-6406
▁kazneno	-6407
▁Facebook	-6408
▁mjestima	-6409
▁ponašanje	-6410
▁ravnatelj	-6411
▁rezultatom	-6412
vat	-6413
risa	-6414
▁Sha	-6415
▁and	-6416
▁uza	-6417
lnici	-6418
▁dono	-6419
▁2015.	-6420
▁Sjeve	-6421
▁slavi	-6422
▁vodom	-6423
▁znate	-6424
▁želja	-6425
▁nemamo	-6426
▁otvorio	-6427
▁proizvodi	-6428
▁izvijestio	-6429
tov	-6430
▁Đo	-6431
vide	-6432
ziji	-6433
▁Ara	-6434
▁Liva	-6435
▁Vele	-6436
▁kota	-6437
▁Areni	-6438
▁kosti	-6439
▁važna	-6440
desetak	-6441
▁Libano	-6442
▁Utakmi	-6443
▁korist	-6444
▁počini	-6445
dalmacija	-6446
▁potpisao	-6447
▁slobodno	-6448
▁društvene	-6449
▁vjerovati	-6450
▁roditeljima	-6451
jekt	-6452
meni	-6453
▁Bož	-6454
▁imu	-6455
▁ovla	-6456
službe	-6457
▁angaži	-6458
▁glavna	-6459
▁modela	-6460
▁pogled	-6461
▁župani	-6462
▁priklju	-6463
▁Zdravlje	-6464
▁organizacija	-6465
RE	-6466
uz	-6467
hla	-6468
mbi	-6469
žim	-6470
▁48	-6471
dnost	-6472
veden	-6473
▁odabi	-6474
▁utrke	-6475
financi	-6476
▁ovisno	-6477
▁medalje	-6478
▁odlazak	-6479
▁savjeto	-6480
▁mirovinu	-6481
▁varaždin	-6482
▁zahtjeva	-6483
▁kategorije	-6484
▁novinarima	-6485
▁ugostitelj	-6486
LA	-6487
ght	-6488
mpu	-6489
malo	-6490
nava	-6491
sata	-6492
sila	-6493
vent	-6494
▁Pot	-6495
▁web	-6496
▁doja	-6497
▁mira	-6498
▁okri	-6499
kovima	-6500
▁mjeri	-6501
▁vijeć	-6502
▁komuna	-6503
▁sestra	-6504
▁titulu	-6505
▁Posebno	-6506
▁provesti	-6507
▁savjetni	-6508
▁sveučili	-6509
▁razdoblja	-6510
▁povjerenje	-6511
KA	-6512
wo	-6513
nel	-6514
▁Sil	-6515
▁izo	-6516
šnjih	-6517
šković	-6518
▁crije	-6519
▁sceni	-6520
▁Talija	-6521
▁admini	-6522
▁izjave	-6523
▁vaterpo	-6524
▁zatvara	-6525
▁napustio	-6526
▁zastupnik	-6527
▁nekretnina	-6528
jice	-6529
rate	-6530
▁moz	-6531
▁uža	-6532
ranom	-6533
▁ikad	-6534
▁nare	-6535
▁USKOK	-6536
▁gimna	-6537
▁jefti	-6538
▁rekon	-6539
▁usred	-6540
▁linija	-6541
▁zatvori	-6542
▁Jutarnji	-6543
▁donijela	-6544
▁sudjelovao	-6545
▁izvijestila	-6546
jma	-6547
žnu	-6548
▁Joe	-6549
▁Sam	-6550
ndova	-6551
▁šali	-6552
▁grani	-6553
▁prvim	-6554
▁dobiva	-6555
▁kreati	-6556
▁mehani	-6557
▁naziva	-6558
▁uvjeti	-6559
▁malolje	-6560
▁pljusko	-6561
▁poslove	-6562
▁procesu	-6563
▁doživlja	-6564
▁humanitar	-6565
▁predstavnika	-6566
tike	-6567
uter	-6568
čini	-6569
▁Kru	-6570
▁You	-6571
zerva	-6572
▁Alex	-6573
▁igri	-6574
tovima	-6575
▁Premi	-6576
▁iduće	-6577
dalmati	-6578
▁Splića	-6579
▁sjajno	-6580
▁takvim	-6581
▁Izraela	-6582
▁domaćih	-6583
▁stanova	-6584
▁staviti	-6585
▁europskog	-6586
▁financija	-6587
▁osiguranje	-6588
eg	-6589
ser	-6590
kedo	-6591
▁jak	-6592
▁Grbi	-6593
▁Bivši	-6594
▁Trenu	-6595
▁ulica	-6596
▁radila	-6597
▁raznih	-6598
▁slično	-6599
▁svatko	-6600
▁preuzeo	-6601
▁publici	-6602
▁suvreme	-6603
▁turniru	-6604
▁milijarde	-6605
▁vatrogasa	-6606
▁Policijske	-6607
▁([	-6608
anje	-6609
kraj	-6610
leta	-6611
rića	-6612
tsku	-6613
ćuju	-6614
čito	-6615
▁Fina	-6616
▁Kupa	-6617
▁Sigu	-6618
▁Zapa	-6619
▁baci	-6620
▁obve	-6621
▁sadr	-6622
▁suge	-6623
dovima	-6624
đivati	-6625
▁autor	-6626
▁obzir	-6627
▁zasad	-6628
▁Trumpo	-6629
▁tražiti	-6630
▁zvijezde	-6631
▁izgradnju	-6632
▁napravila	-6633
gni	-6634
ley	-6635
dića	-6636
duše	-6637
mine	-6638
stop	-6639
đani	-6640
▁ape	-6641
▁lip	-6642
▁crno	-6643
▁kise	-6644
▁koor	-6645
▁veću	-6646
▁vita	-6647
images	-6648
torija	-6649
▁Sabor	-6650
▁oblje	-6651
▁proma	-6652
cijskog	-6653
▁oglasi	-6654
▁presti	-6655
▁vikend	-6656
▁zaigra	-6657
▁razlika	-6658
▁pobjednik	-6659
▁razgovora	-6660
▁Olimpijskim	-6661
jp	-6662
dia	-6663
▁42	-6664
▁400	-6665
▁Sal	-6666
▁menad	-6667
▁petka	-6668
▁valja	-6669
▁vojne	-6670
▁Madrid	-6671
▁javnom	-6672
▁općine	-6673
▁ponude	-6674
▁sastav	-6675
▁predviđa	-6676
▁slučajeva	-6677
▁pobijedili	-6678
▁institucija	-6679
nis	-6680
rca	-6681
žak	-6682
tero	-6683
▁Isu	-6684
▁Moj	-6685
▁Oba	-6686
đenog	-6687
▁Osno	-6688
▁Vuko	-6689
stupan	-6690
▁Drugo	-6691
▁album	-6692
▁ikada	-6693
▁izgle	-6694
▁pande	-6695
▁iznajm	-6696
▁online	-6697
▁obrambe	-6698
▁spomenu	-6699
▁vozilom	-6700
▁njihovoj	-6701
▁županiji	-6702
▁poslovanja	-6703
cki	-6704
sija	-6705
▁Han	-6706
njene	-6707
▁krug	-6708
▁neod	-6709
cijska	-6710
gnosti	-6711
▁mikro	-6712
▁radom	-6713
▁birača	-6714
▁dijeli	-6715
▁regula	-6716
slobodna	-6717
▁troškova	-6718
godišnjaka	-6719
▁nezadovolj	-6720
▁predstavio	-6721
▁problemima	-6722
▁iskoristiti	-6723
au	-6724
rtava	-6725
▁dona	-6726
▁nizu	-6727
▁tona	-6728
▁uzne	-6729
▁Serge	-6730
▁bloki	-6731
▁Croati	-6732
▁obrana	-6733
▁ostane	-6734
▁raznim	-6735
▁bicikli	-6736
▁izdanje	-6737
▁krenuti	-6738
▁nikakve	-6739
▁obavije	-6740
▁pregled	-6741
▁četvero	-6742
▁pretvori	-6743
▁Dalmaciji	-6744
▁nedostaje	-6745
▁posljednja	-6746
▁zadovoljan	-6747
▁sudjelovali	-6748
dbu	-6749
loj	-6750
mara	-6751
▁Pav	-6752
▁meč	-6753
▁skr	-6754
fenzi	-6755
tskog	-6756
vrati	-6757
▁Luke	-6758
▁otpa	-6759
▁stav	-6760
▁hrana	-6761
▁najma	-6762
▁odbio	-6763
▁poštu	-6764
vanjima	-6765
▁Proble	-6766
▁mnogim	-6767
▁Gattuso	-6768
▁Hajduku	-6769
▁prihoda	-6770
▁zamisli	-6771
▁načelnik	-6772
▁novinara	-6773
▁pojedina	-6774
▁tjelesne	-6775
▁hrvatskoj	-6776
ST	-6777
The	-6778
zra	-6779
▁Mia	-6780
▁bar	-6781
▁nes	-6782
▁Geor	-6783
▁kama	-6784
▁limu	-6785
šavaju	-6786
▁gluma	-6787
▁Zorana	-6788
▁čokola	-6789
▁detalji	-6790
▁transpa	-6791
▁zaštiti	-6792
▁ostvario	-6793
▁strijelac	-6794
▁utjecajem	-6795
▁obrazovanje	-6796
2)	-6797
5,	-6798
dugo	-6799
▁nov	-6800
nstva	-6801
slike	-6802
▁Koso	-6803
▁jugu	-6804
▁vete	-6805
rajući	-6806
▁braka	-6807
▁hotel	-6808
▁plesa	-6809
▁izgled	-6810
▁lipnju	-6811
▁motivi	-6812
▁oružje	-6813
▁otišla	-6814
▁emociona	-6815
▁Šibeniku	-6816
▁upozorenje	-6817
▁ministarstvo	-6818
jpg	-6819
▁kći	-6820
▁men	-6821
metra	-6822
strem	-6823
tnije	-6824
tskom	-6825
▁Isla	-6826
▁fron	-6827
▁odab	-6828
▁poza	-6829
▁Inter	-6830
▁plani	-6831
▁Glavni	-6832
▁krenula	-6833
▁realiza	-6834
▁zabrinu	-6835
▁istaknuti	-6836
my	-6837
▁Anu	-6838
▁even	-6839
▁Marti	-6840
▁Nismo	-6841
šavanja	-6842
▁Primje	-6843
▁gastro	-6844
▁htjeli	-6845
▁kapita	-6846
▁nećemo	-6847
▁Turisti	-6848
▁djetinj	-6849
▁dvojica	-6850
▁sektoru	-6851
▁trening	-6852
▁postupka	-6853
▁projektu	-6854
▁vlastite	-6855
▁veleposla	-6856
▁stručnjaci	-6857
ovi	-6858
anja	-6859
zina	-6860
▁Med	-6861
tskim	-6862
▁liga	-6863
dnosti	-6864
▁Struč	-6865
▁plina	-6866
▁štete	-6867
▁pozicije	-6868
▁ubojstvo	-6869
▁prethodno	-6870
▁nacionalne	-6871
ET	-6872
Pro	-6873
cke	-6874
ćev	-6875
sona	-6876
šena	-6877
▁Air	-6878
▁Dvo	-6879
▁Tek	-6880
▁dis	-6881
▁pas	-6882
▁sen	-6883
grada	-6884
▁Adri	-6885
▁Hoće	-6886
▁Poja	-6887
▁Vučić	-6888
▁zlato	-6889
žavanja	-6890
▁bolest	-6891
▁istina	-6892
▁slavio	-6893
▁stolje	-6894
▁uzroko	-6895
▁kontine	-6896
▁republi	-6897
▁zadatak	-6898
▁djevojka	-6899
▁ostavlja	-6900
▁potrebne	-6901
▁smještaj	-6902
▁američkog	-6903
▁kompanije	-6904
▁otvorenom	-6905
▁stručnjak	-6906
▁polufinalu	-6907
▁zainteresi	-6908
bne	-6909
ppe	-6910
▁HNK	-6911
▁Spe	-6912
▁bur	-6913
▁Bili	-6914
▁majke	-6915
▁ondje	-6916
▁takti	-6917
▁tragi	-6918
▁želio	-6919
▁pisali	-6920
▁imovine	-6921
▁umjeren	-6922
▁kvalitet	-6923
▁mirovine	-6924
▁branitelja	-6925
▁infrastrukture	-6926
Re	-6927
eš	-6928
lly	-6929
▁Raki	-6930
▁Vodi	-6931
▁benzi	-6932
▁doveo	-6933
▁kakvu	-6934
▁malih	-6935
▁nared	-6936
▁stope	-6937
▁boriti	-6938
▁eksperi	-6939
▁medalju	-6940
▁svibnju	-6941
▁Vladimir	-6942
▁priznala	-6943
▁intervjuu	-6944
▁prikuplja	-6945
▁zaključila	-6946
▁upravljanje	-6947
01	-6948
MZ	-6949
Ako	-6950
fal	-6951
wit	-6952
▁Cu	-6953
veno	-6954
čicu	-6955
telju	-6956
▁bore	-6957
▁gole	-6958
▁kćer	-6959
▁nose	-6960
rirati	-6961
▁Gospo	-6962
▁Hvala	-6963
▁Norve	-6964
▁glumi	-6965
vljenje	-6966
▁izašao	-6967
▁izosta	-6968
▁sretan	-6969
▁cijeloj	-6970
▁dodatne	-6971
▁dolaska	-6972
▁ostavku	-6973
▁palesti	-6974
▁registri	-6975
▁upozorio	-6976
▁komentarima	-6977
ard	-6978
lie	-6979
šica	-6980
ških	-6981
▁Dio	-6982
▁tad	-6983
▁tip	-6984
▁Poku	-6985
▁nazo	-6986
▁rano	-6987
▁slab	-6988
▁Unite	-6989
▁obali	-6990
▁uzeti	-6991
▁Dragan	-6992
▁Reuter	-6993
▁pomaga	-6994
▁određene	-6995
▁partneri	-6996
▁sastanak	-6997
▁vidljivo	-6998
▁ljestvici	-6999
▁gospodarstvo	-7000
▁poljoprivred	-7001
mora	-7002
▁dug	-7003
▁ise	-7004
▁nai	-7005
lnica	-7006
šteni	-7007
▁mama	-7008
▁Potre	-7009
▁Raspu	-7010
▁dresu	-7011
▁ilega	-7012
▁mlađe	-7013
▁čišće	-7014
šavanje	-7015
▁Object	-7016
▁akcija	-7017
▁goriva	-7018
▁Andreja	-7019
▁alterna	-7020
▁intelige	-7021
▁izbornoj	-7022
▁središtu	-7023
▁Tomašević	-7024
▁nogometni	-7025
▁policijski	-7026
▁predstavni	-7027
ritet	-7028
stero	-7029
▁Gaze	-7030
▁avan	-7031
luence	-7032
novima	-7033
▁2014.	-7034
▁bivša	-7035
▁dobit	-7036
▁krivo	-7037
▁mlađi	-7038
▁ponaj	-7039
▁sukob	-7040
▁upita	-7041
▁zapri	-7042
▁okviru	-7043
▁upisao	-7044
▁medalja	-7045
▁otvoren	-7046
▁spektak	-7047
▁Europsko	-7048
▁Šibenika	-7049
▁područjima	-7050
▁voditeljica	-7051
Ko	-7052
gić	-7053
vicu	-7054
▁čuti	-7055
▁Prija	-7056
▁kršća	-7057
dnicima	-7058
▁Sabora	-7059
▁otkako	-7060
▁srpnju	-7061
▁tajnik	-7062
▁Italiji	-7063
▁postaju	-7064
▁Zelenski	-7065
▁povećati	-7066
▁atmosferu	-7067
Tu	-7068
goj	-7069
remo	-7070
▁Ovi	-7071
šenju	-7072
▁kafi	-7073
▁zamo	-7074
politi	-7075
▁radim	-7076
▁dovodi	-7077
▁majsto	-7078
▁najsta	-7079
▁Turudić	-7080
▁pokušaj	-7081
▁predmet	-7082
▁nogometu	-7083
▁problemi	-7084
▁reakcija	-7085
▁povremeno	-7086
▁transforma	-7087
EP	-7088
ano	-7089
har	-7090
que	-7091
rea	-7092
▁Ol	-7093
▁kg	-7094
▁ina	-7095
▁mog	-7096
stili	-7097
▁mane	-7098
▁Teško	-7099
▁glavi	-7100
▁sreću	-7101
đivanje	-7102
▁baviti	-7103
▁hrabro	-7104
▁optere	-7105
▁suigra	-7106
▁ostalog	-7107
▁poručila	-7108
▁gradovima	-7109
▁raspolaga	-7110
▁studenoga	-7111
LI	-7112
xa	-7113
trag	-7114
znih	-7115
▁Sko	-7116
djeli	-7117
kcije	-7118
trije	-7119
▁1000	-7120
▁Naša	-7121
▁zare	-7122
▁zaro	-7123
▁David	-7124
▁Nadam	-7125
▁Pobje	-7126
▁istoj	-7127
▁očeku	-7128
▁stare	-7129
▁uloge	-7130
▁glazbu	-7131
▁kolegi	-7132
▁čekaju	-7133
▁dužnost	-7134
▁gradske	-7135
▁profilu	-7136
▁direktora	-7137
▁listopadu	-7138
▁najvažnije	-7139
▁odvjetnika	-7140
jak	-7141
lor	-7142
ntan	-7143
ntna	-7144
▁Jen	-7145
▁Lau	-7146
▁Naš	-7147
▁Wal	-7148
▁Tamo	-7149
▁2012.	-7150
▁glave	-7151
▁takvu	-7152
▁trend	-7153
▁Europu	-7154
▁Moramo	-7155
▁glavom	-7156
▁htjela	-7157
▁službi	-7158
▁oglasio	-7159
▁slobodu	-7160
▁školama	-7161
▁natječaj	-7162
▁Francuske	-7163
▁Slovenije	-7164
▁liječnika	-7165
▁unutarnjih	-7166
Sa	-7167
teh	-7168
ralo	-7169
▁Gro	-7170
▁jam	-7171
vajte	-7172
▁Dodi	-7173
▁bici	-7174
▁eska	-7175
▁otpo	-7176
▁ulje	-7177
zirali	-7178
▁stanu	-7179
▁automa	-7180
▁jedana	-7181
▁odbija	-7182
▁granica	-7183
▁potpore	-7184
▁srednje	-7185
▁Zahvalju	-7186
▁jedinici	-7187
▁pojavila	-7188
▁mjesecima	-7189
▁omogućuje	-7190
▁potvrdila	-7191
▁istovremeno	-7192
8)	-7193
NE	-7194
mah	-7195
▁Nu	-7196
▁Kne	-7197
▁Mer	-7198
rijama	-7199
▁Balka	-7200
▁parti	-7201
▁pogor	-7202
▁probu	-7203
mentima	-7204
zivanje	-7205
▁pobjedi	-7206
▁priprem	-7207
▁Europska	-7208
▁kampanju	-7209
▁prosincu	-7210
▁sjećanja	-7211
▁trenutka	-7212
▁utjecaja	-7213
▁trenucima	-7214
▁spriječiti	-7215
1)	-7216
nc	-7217
jeg	-7218
tana	-7219
trka	-7220
ziran	-7221
đenom	-7222
šnjim	-7223
▁Boru	-7224
▁dopu	-7225
▁čuli	-7226
▁Istre	-7227
▁Marina	-7228
▁napade	-7229
▁subote	-7230
▁uputio	-7231
▁izložbe	-7232
▁napadač	-7233
▁nazivom	-7234
▁pogotka	-7235
▁ubojstva	-7236
▁ponašanja	-7237
▁asistencija	-7238
evi	-7239
dile	-7240
▁Lje	-7241
▁Opa	-7242
djelo	-7243
ispla	-7244
▁Kana	-7245
loškog	-7246
▁Kreši	-7247
▁jutros	-7248
▁skanda	-7249
▁struje	-7250
▁neuspje	-7251
▁pjesama	-7252
▁velikoj	-7253
▁jedinica	-7254
▁utvrđeno	-7255
▁Domovinski	-7256
▁komentirala	-7257
▁zagrebačkom	-7258
▁zadovoljstvo	-7259
ily	-7260
rale	-7261
šnog	-7262
žuju	-7263
▁Chi	-7264
tenti	-7265
▁loši	-7266
▁Izvor	-7267
▁hitne	-7268
▁uloga	-7269
▁akciju	-7270
▁kolovo	-7271
▁obveza	-7272
▁opreme	-7273
▁ponovo	-7274
▁seksua	-7275
▁sugovo	-7276
▁Argenti	-7277
▁Najviše	-7278
▁nastala	-7279
▁romanti	-7280
▁smješta	-7281
▁učenici	-7282
godišnjem	-7283
▁dodajući	-7284
▁stadiona	-7285
▁teritori	-7286
▁sufinanci	-7287
▁navijačima	-7288
▁razgovarali	-7289
▁predstavnici	-7290
sca	-7291
tit	-7292
ves	-7293
lass	-7294
nosa	-7295
pija	-7296
rsko	-7297
tuje	-7298
▁Kona	-7299
▁Maja	-7300
▁Toni	-7301
▁imat	-7302
▁jeze	-7303
▁sela	-7304
▁skrb	-7305
▁Harry	-7306
▁Pjeva	-7307
▁onako	-7308
▁prepu	-7309
▁putni	-7310
▁skija	-7311
▁uzrok	-7312
▁Europa	-7313
▁koncep	-7314
▁nezavi	-7315
▁nikako	-7316
▁uhićen	-7317
▁dogovor	-7318
▁prijava	-7319
▁srednjo	-7320
▁Najbolji	-7321
▁državnom	-7322
▁izvanred	-7323
▁komunici	-7324
▁proizvod	-7325
▁korištenja	-7326
ega	-7327
▁eg	-7328
feri	-7329
▁Mac	-7330
▁Sch	-7331
tović	-7332
čenju	-7333
▁Gore	-7334
▁okon	-7335
ljenog	-7336
porter	-7337
▁Autor	-7338
▁Rimac	-7339
▁ekipu	-7340
▁infek	-7341
▁motor	-7342
▁nadzo	-7343
▁nemam	-7344
▁obvez	-7345
▁strah	-7346
▁upora	-7347
▁Zagrep	-7348
▁ponuda	-7349
▁izazvao	-7350
▁objekti	-7351
▁odlaska	-7352
▁origina	-7353
▁stajali	-7354
▁ulicama	-7355
▁lokacija	-7356
▁napredak	-7357
▁svjetske	-7358
▁osumnjiče	-7359
▁prometnoj	-7360
▁zajednički	-7361
▁financijski	-7362
lesu	-7363
čaju	-7364
čana	-7365
▁Goo	-7366
▁pun	-7367
porta	-7368
▁Puno	-7369
▁Star	-7370
▁dane	-7371
▁vaša	-7372
stojan	-7373
▁Muška	-7374
▁dulje	-7375
▁mlada	-7376
▁osvje	-7377
▁Zlatko	-7378
▁koncer	-7379
▁nazvao	-7380
▁samopo	-7381
▁Hezbola	-7382
▁izborni	-7383
▁zabrani	-7384
▁lokalnih	-7385
dov	-7386
lea	-7387
mes	-7388
▁AI	-7389
duje	-7390
▁gri	-7391
▁ika	-7392
danje	-7393
kupno	-7394
nstvo	-7395
tanja	-7396
istinu	-7397
▁Micha	-7398
▁Radio	-7399
▁glasi	-7400
▁turne	-7401
▁Centar	-7402
▁prošla	-7403
▁razoča	-7404
▁Martina	-7405
▁pojavio	-7406
▁prikupi	-7407
▁pokušati	-7408
▁preuzeti	-7409
▁sadržaja	-7410
▁troškove	-7411
▁vrijedan	-7412
▁apsolutno	-7413
▁održavanje	-7414
Je	-7415
lus	-7416
ninu	-7417
▁Her	-7418
▁Obo	-7419
▁žup	-7420
kinje	-7421
vrata	-7422
▁Mile	-7423
▁ideo	-7424
▁teže	-7425
▁angaž	-7426
▁listu	-7427
▁pitao	-7428
▁uživo	-7429
▁olimpi	-7430
▁popisu	-7431
▁porast	-7432
▁preven	-7433
▁služba	-7434
▁trenin	-7435
▁Bjelica	-7436
▁aktivno	-7437
▁uređaja	-7438
▁Vjerujem	-7439
▁njihovog	-7440
▁objavlje	-7441
▁Zanimljivo	-7442
▁prvenstveno	-7443
▁rezultatima	-7444
Vi	-7445
ljo	-7446
mid	-7447
tmu	-7448
▁75	-7449
bala	-7450
bara	-7451
ruje	-7452
teru	-7453
vači	-7454
▁nogu	-7455
▁nude	-7456
▁skre	-7457
▁ušli	-7458
▁Kašte	-7459
▁Potom	-7460
▁Saboru	-7461
▁ruskog	-7462
▁sprema	-7463
▁vratar	-7464
▁cijelom	-7465
▁izazove	-7466
▁definira	-7467
▁podržava	-7468
▁postavio	-7469
▁podijelio	-7470
▁Olimpijske	-7471
▁predsjednikom	-7472
Bi	-7473
Ve	-7474
Cro	-7475
ngu	-7476
pone	-7477
zali	-7478
znim	-7479
▁20-	-7480
▁Ide	-7481
▁obr	-7482
▁Euru	-7483
▁Jela	-7484
▁inva	-7485
torica	-7486
▁apart	-7487
▁ideje	-7488
▁domina	-7489
▁kontra	-7490
▁vježba	-7491
▁dramati	-7492
▁procesa	-7493
▁slavlje	-7494
▁trebamo	-7495
▁zatvoru	-7496
▁omogućiti	-7497
▁OŠ	-7498
dbre	-7499
lozo	-7500
panj	-7501
pova	-7502
ting	-7503
▁600	-7504
▁Sli	-7505
njava	-7506
tirao	-7507
▁Japa	-7508
▁Ruje	-7509
▁luka	-7510
vardio	-7511
▁Milan	-7512
▁Premije	-7513
▁poteško	-7514
▁travnju	-7515
▁uklanja	-7516
▁kontrole	-7517
▁poručili	-7518
▁povjeren	-7519
▁pripremi	-7520
▁savršeno	-7521
▁vodstvom	-7522
▁radionice	-7523
▁pobjednika	-7524
▁sposobnost	-7525
un	-7526
pto	-7527
▁iš	-7528
drije	-7529
mpati	-7530
▁Afri	-7531
▁peti	-7532
donače	-7533
ljenim	-7534
▁Boris	-7535
▁sreće	-7536
▁crveni	-7537
▁Kraljev	-7538
▁popular	-7539
▁postroj	-7540
▁razreda	-7541
▁turista	-7542
▁festivalu	-7543
▁upravljao	-7544
▁situacijama	-7545
▁zaposlenika	-7546
▁predstavljaju	-7547
efi	-7548
vod	-7549
zlo	-7550
šem	-7551
▁(8	-7552
enju	-7553
djeti	-7554
▁Izbo	-7555
▁Voza	-7556
▁pilo	-7557
▁trgo	-7558
▁vani	-7559
▁vizu	-7560
ljenju	-7561
▁istog	-7562
▁skrbi	-7563
▁instru	-7564
▁morala	-7565
▁siroma	-7566
▁zanema	-7567
▁dugotra	-7568
▁eventua	-7569
▁istragu	-7570
▁izdvoji	-7571
▁održana	-7572
▁policiju	-7573
▁promjenu	-7574
▁izgradnje	-7575
▁kandidati	-7576
▁zasigurno	-7577
▁sudjelovanje	-7578
4)	-7579
5)	-7580
▁PS	-7581
smom	-7582
▁Gri	-7583
▁sub	-7584
▁Osca	-7585
▁neću	-7586
ćenito	-7587
▁Radić	-7588
▁resur	-7589
▁uveli	-7590
vjeroja	-7591
▁Jelena	-7592
▁korije	-7593
▁pitali	-7594
▁svakoj	-7595
▁osnovne	-7596
▁student	-7597
▁veljači	-7598
▁upoznati	-7599
▁izazovima	-7600
▁mijenjati	-7601
▁ostvarili	-7602
▁sudionika	-7603
▁materijala	-7604
▁stanovništva	-7605
2,	-7606
dC	-7607
ONA	-7608
hra	-7609
ija	-7610
kan	-7611
liju	-7612
mske	-7613
▁azi	-7614
▁čim	-7615
▁šet	-7616
rskih	-7617
▁Eura	-7618
▁Osje	-7619
▁dođu	-7620
▁seks	-7621
▁1991.	-7622
▁sprje	-7623
▁vašem	-7624
▁želju	-7625
▁donose	-7626
▁nerije	-7627
▁vjetro	-7628
▁Borussi	-7629
▁daljnje	-7630
▁izravno	-7631
▁potrebu	-7632
▁stariji	-7633
▁iznosila	-7634
▁konkurenciji	-7635
pp	-7636
Lju	-7637
lca	-7638
šći	-7639
šeno	-7640
▁Jur	-7641
▁uga	-7642
nicom	-7643
snici	-7644
▁kemi	-7645
▁okup	-7646
▁Gleda	-7647
zivanja	-7648
▁Budući	-7649
▁svojem	-7650
▁trećem	-7651
▁dodajte	-7652
▁kulturu	-7653
▁grmljavi	-7654
▁privreme	-7655
▁važnosti	-7656
▁vlasnika	-7657
▁osigurava	-7658
▁očekivanja	-7659
▁odgovornosti	-7660
Ca	-7661
ls	-7662
bna	-7663
lik	-7664
▁46	-7665
šice	-7666
▁Ton	-7667
▁psa	-7668
▁tla	-7669
verpo	-7670
▁Crne	-7671
▁DORH	-7672
▁Stan	-7673
taciju	-7674
▁Gradu	-7675
▁grama	-7676
▁takvo	-7677
▁važne	-7678
▁vojni	-7679
▁župan	-7680
▁Google	-7681
▁kralji	-7682
▁mješta	-7683
▁odobre	-7684
▁vidite	-7685
▁fizički	-7686
▁seksual	-7687
▁skokova	-7688
▁doprinos	-7689
▁kampanji	-7690
▁površine	-7691
▁siječnju	-7692
▁sportske	-7693
▁Dalmacije	-7694
▁perspekti	-7695
▁priznanje	-7696
▁sjevernom	-7697
▁inozemstvu	-7698
▁djelatnosti	-7699
▁zapovjednik	-7700
▁nevjerojatno	-7701
▁glasnogovornik	-7702
1,	-7703
CM	-7704
rur	-7705
▁HT	-7706
mera	-7707
nela	-7708
renu	-7709
vaku	-7710
šnih	-7711
▁Red	-7712
prema	-7713
zisti	-7714
▁Kola	-7715
▁krei	-7716
▁Zakon	-7717
▁broda	-7718
▁jedni	-7719
▁lansi	-7720
▁prepre	-7721
▁Gvardio	-7722
▁William	-7723
▁provode	-7724
▁sadržaj	-7725
▁sjednici	-7726
▁Jakirović	-7727
▁parkirali	-7728
▁dijagnosti	-7729
▁gledatelja	-7730
▁Hercegovine	-7731
Ka	-7732
ip	-7733
▁44	-7734
▁Em	-7735
▁co	-7736
gora	-7737
gura	-7738
menu	-7739
▁Mor	-7740
▁NBA	-7741
▁nat	-7742
plova	-7743
▁Pono	-7744
▁horo	-7745
▁kože	-7746
▁najo	-7747
▁stdC	-7748
▁Novom	-7749
▁dokaz	-7750
▁dobije	-7751
▁najbli	-7752
▁objavu	-7753
▁Perišić	-7754
▁Ustavni	-7755
▁dalmati	-7756
▁slobode	-7757
▁zagrija	-7758
▁doslovno	-7759
▁novinare	-7760
▁stdClass	-7761
▁sukladno	-7762
▁parlamentu	-7763
▁zaposlenih	-7764
▁tehnologija	-7765
":	-7766
▁,	-7767
eri	-7768
rve	-7769
tati	-7770
vidu	-7771
▁120	-7772
▁Zem	-7773
▁bol	-7774
rišta	-7775
▁Buga	-7776
▁leđa	-7777
▁ubio	-7778
▁Bosne	-7779
▁hvala	-7780
▁potpi	-7781
▁proto	-7782
▁ubrza	-7783
▁Makedo	-7784
▁tranzi	-7785
▁utječe	-7786
▁Institu	-7787
▁prijavu	-7788
▁suprugu	-7789
▁djevojke	-7790
▁muškarci	-7791
▁atmosfera	-7792
▁prijetnje	-7793
▁SuperSport	-7794
HMZ	-7795
jum	-7796
žom	-7797
utim	-7798
zolu	-7799
šali	-7800
▁isc	-7801
▁Juri	-7802
▁Kroz	-7803
▁Ligu	-7804
▁Pore	-7805
▁Viso	-7806
▁zrak	-7807
koviti	-7808
▁Mladi	-7809
pularni	-7810
▁motoci	-7811
▁održat	-7812
▁njezino	-7813
▁poznate	-7814
▁Križevci	-7815
▁konzerva	-7816
▁odigrali	-7817
▁nastavila	-7818
▁svjetskih	-7819
▁industrije	-7820
Pa	-7821
nea	-7822
teme	-7823
zite	-7824
škol	-7825
▁DVD	-7826
▁Los	-7827
▁Ore	-7828
▁ora	-7829
kluzi	-7830
stala	-7831
▁dvoj	-7832
▁ekra	-7833
▁kono	-7834
▁pije	-7835
▁ispro	-7836
▁izaći	-7837
▁ureda	-7838
▁uzvra	-7839
zapadni	-7840
▁jeziku	-7841
▁dopušte	-7842
▁ključni	-7843
▁mnogima	-7844
▁popodne	-7845
▁prekida	-7846
▁turizam	-7847
▁sredinom	-7848
▁zrakoplov	-7849
▁direktorica	-7850
TP	-7851
chu	-7852
letje	-7853
posle	-7854
renju	-7855
▁luke	-7856
▁pobu	-7857
▁Kekin	-7858
▁cvije	-7859
▁knjiž	-7860
▁proče	-7861
▁člana	-7862
▁dvoboj	-7863
▁mnogih	-7864
▁ponudi	-7865
▁Nedavno	-7866
▁progovo	-7867
▁trenira	-7868
▁prometna	-7869
▁kontekstu	-7870
▁kapaciteta	-7871
▁polufinale	-7872
▁potencijal	-7873
koni	-7874
lian	-7875
viji	-7876
▁She	-7877
▁šut	-7878
droli	-7879
ćevoj	-7880
▁EPPO	-7881
▁tram	-7882
tacije	-7883
▁Ronal	-7884
▁Stude	-7885
▁plana	-7886
▁Hrvoje	-7887
▁ispada	-7888
▁ruskih	-7889
▁uvjeta	-7890
teljstvo	-7891
▁Istraži	-7892
▁ekstrem	-7893
▁filmova	-7894
▁navrata	-7895
▁postići	-7896
▁vratila	-7897
▁zahvati	-7898
▁događanja	-7899
▁pacijenata	-7900
▁zaustaviti	-7901
▁zrakoplova	-7902
rad	-7903
licu	-7904
▁Cor	-7905
▁pau	-7906
▁Medi	-7907
▁Meni	-7908
▁trgu	-7909
nijeli	-7910
▁Imali	-7911
▁uzbud	-7912
▁znala	-7913
▁dobrom	-7914
▁radnih	-7915
▁većini	-7916
▁Croatia	-7917
▁dionica	-7918
▁nasmija	-7919
▁prijeti	-7920
▁vjeruju	-7921
▁Splitsko	-7922
▁otvoriti	-7923
▁prosjeku	-7924
▁započela	-7925
▁ljestvice	-7926
▁dijelovima	-7927
▁privremeno	-7928
▁zaključuje	-7929
▁reprezentativ	-7930
7,	-7931
Bo	-7932
IV	-7933
!",	-7934
llo	-7935
net	-7936
pix	-7937
▁Či	-7938
redo	-7939
čuna	-7940
▁BBC	-7941
▁ist	-7942
▁Kama	-7943
▁bura	-7944
▁inde	-7945
▁Druga	-7946
▁Istak	-7947
▁Nitko	-7948
▁križa	-7949
▁najja	-7950
▁opisu	-7951
▁slike	-7952
▁znača	-7953
▁Pritom	-7954
▁Velike	-7955
▁krumpi	-7956
▁pravom	-7957
▁doživio	-7958
▁istraga	-7959
▁karakte	-7960
▁Vukovara	-7961
▁današnje	-7962
▁hrvatsko	-7963
▁incident	-7964
▁lokalnim	-7965
▁korisnici	-7966
▁prisustvo	-7967
▁završetka	-7968
▁rekonstruk	-7969
6)	-7970
rbu	-7971
▁Đu	-7972
stav	-7973
▁Fin	-7974
▁nez	-7975
dekva	-7976
dović	-7977
vosti	-7978
▁mate	-7979
▁obna	-7980
▁stje	-7981
▁trbu	-7982
▁ugra	-7983
▁2013.	-7984
▁Jeste	-7985
▁Selak	-7986
▁propu	-7987
▁radne	-7988
ferenci	-7989
▁hladno	-7990
▁obnove	-7991
▁sestre	-7992
▁većine	-7993
▁ženama	-7994
▁živote	-7995
▁Talijan	-7996
▁naselja	-7997
▁neočeki	-7998
▁osvrnuo	-7999
▁otkriti	-8000
▁neslužbe	-8001
▁smanjuje	-8002
▁studenti	-8003
▁stvoriti	-8004
▁ustanova	-8005
▁zamjenik	-8006
▁željezni	-8007
▁Svjetskom	-8008
▁poslovanje	-8009
▁ukrajinske	-8010
ZO	-8011
ell	-8012
mon	-8013
nej	-8014
▁65	-8015
cida	-8016
đenu	-8017
▁Pet	-8018
▁Tay	-8019
▁pop	-8020
plasi	-8021
▁Nina	-8022
▁boli	-8023
▁njen	-8024
▁onim	-8025
▁orga	-8026
zirani	-8027
▁2011.	-8028
▁Ovdje	-8029
▁Slije	-8030
▁radno	-8031
▁slabo	-8032
▁traga	-8033
▁treća	-8034
▁zlata	-8035
▁češće	-8036
▁žesto	-8037
▁Organi	-8038
▁mjesti	-8039
▁žrtava	-8040
▁Liverpo	-8041
▁glavnom	-8042
▁Međunaro	-8043
▁Portugal	-8044
▁izbjegli	-8045
▁zadržati	-8046
▁obavješta	-8047
▁restorana	-8048
▁zaboraviti	-8049
▁proizvođača	-8050
▁reprezentaciji	-8051
SA	-8052
as	-8053
Sve	-8054
kat	-8055
mno	-8056
mail	-8057
yahu	-8058
▁Rea	-8059
▁Vene	-8060
▁pomi	-8061
▁silo	-8062
▁urba	-8063
▁časo	-8064
▁2026.	-8065
▁Netan	-8066
▁inspe	-8067
▁ovakve	-8068
▁sastoj	-8069
▁Velikoj	-8070
▁moderni	-8071
▁potreba	-8072
▁procedu	-8073
▁sektora	-8074
▁stranci	-8075
▁trajati	-8076
▁zaredom	-8077
▁Trenutno	-8078
▁navijače	-8079
▁ostaviti	-8080
▁Dalmacija	-8081
▁nastupiti	-8082
▁zaljublje	-8083
▁društvenoj	-8084
▁nogometaša	-8085
?"	-8086
mak	-8087
▁Wi	-8088
▁it	-8089
▁Lovre	-8090
▁podje	-8091
▁prire	-8092
mercija	-8093
▁kupnju	-8094
▁obraća	-8095
▁počelo	-8096
▁izdanju	-8097
▁potresa	-8098
▁zločina	-8099
▁ključnih	-8100
▁ponegdje	-8101
▁profesor	-8102
▁sljedeći	-8103
▁potvrdili	-8104
▁osiguranja	-8105
▁stručnjaka	-8106
▁turističke	-8107
▁vatrogasaca	-8108
▁ministarstva	-8109
uti	-8110
čao	-8111
sije	-8112
▁One	-8113
▁poha	-8114
Displa	-8115
▁Bjelo	-8116
▁Zatim	-8117
▁formu	-8118
▁jesti	-8119
▁prezi	-8120
Display	-8121
▁javnim	-8122
▁radnog	-8123
▁revolu	-8124
▁rijeke	-8125
▁tražio	-8126
godišnju	-8127
▁neizvje	-8128
▁slijede	-8129
▁izazvala	-8130
▁njemački	-8131
▁povećava	-8132
▁Netanyahu	-8133
▁političkih	-8134
iva	-8135
ONAL	-8136
ljda	-8137
žnoj	-8138
▁Ver	-8139
gović	-8140
title	-8141
▁Muze	-8142
▁pame	-8143
ncijom	-8144
▁spaja	-8145
▁sviđa	-8146
▁šansu	-8147
▁Matija	-8148
▁državu	-8149
▁fokusi	-8150
▁ofenzi	-8151
▁otišli	-8152
▁pomažu	-8153
▁uistinu	-8154
▁poremeća	-8155
▁poslovne	-8156
▁pronašao	-8157
▁prikazuje	-8158
▁financijske	-8159
▁Ministarstvu	-8160
▁infrastrukturu	-8161
dor	-8162
xel	-8163
▁HG	-8164
king	-8165
sili	-8166
varu	-8167
▁195	-8168
▁Oko	-8169
▁Uni	-8170
▁vrt	-8171
burgu	-8172
ranog	-8173
▁Glaz	-8174
▁Isti	-8175
▁Moja	-8176
▁Vrlo	-8177
▁York	-8178
▁odla	-8179
▁onog	-8180
▁svla	-8181
▁ubla	-8182
loških	-8183
▁smeta	-8184
▁tekst	-8185
▁odjela	-8186
▁otkaza	-8187
▁pregle	-8188
▁rizika	-8189
▁startu	-8190
▁ciljeve	-8191
▁rukomet	-8192
▁skuplja	-8193
▁stadion	-8194
▁vidjela	-8195
▁postupku	-8196
▁prvoliga	-8197
▁završava	-8198
▁doznajemo	-8199
▁republika	-8200
▁problemati	-8201
▁inteligencije	-8202
▁49	-8203
▁Us	-8204
▁ae	-8205
▁fra	-8206
▁gar	-8207
namje	-8208
ndard	-8209
▁NACI	-8210
▁dugi	-8211
▁suca	-8212
▁Čini	-8213
▁izvla	-8214
▁sliku	-8215
▁šesto	-8216
▁najdra	-8217
▁održao	-8218
▁ožujku	-8219
▁rečeno	-8220
▁snijeg	-8221
▁Antonio	-8222
▁nasilje	-8223
▁neposre	-8224
▁rezervi	-8225
▁trebate	-8226
▁komisije	-8227
▁stranaka	-8228
▁trenutke	-8229
▁prihvatiti	-8230
▁razgovarao	-8231
▁korisnicima	-8232
▁predsjedniku	-8233
the	-8234
čera	-8235
▁Lan	-8236
krati	-8237
▁Male	-8238
▁dove	-8239
▁plus	-8240
▁strp	-8241
▁Zvoni	-8242
▁emiti	-8243
▁evaku	-8244
▁onome	-8245
▁plaću	-8246
▁Ludbre	-8247
▁Navija	-8248
▁Udruga	-8249
▁Većina	-8250
▁kamere	-8251
▁knjigu	-8252
▁učinio	-8253
teljstva	-8254
▁Postoji	-8255
▁autenti	-8256
▁ciljeva	-8257
▁planove	-8258
▁vratili	-8259
▁Festival	-8260
▁izvješću	-8261
▁kolegama	-8262
▁pronašla	-8263
▁ulaznice	-8264
▁Europskoj	-8265
▁stvaranje	-8266
▁teroristi	-8267
▁projektima	-8268
dd	-8269
,00	-8270
▁43	-8271
▁ID	-8272
ltra	-8273
ranj	-8274
ževa	-8275
▁250	-8276
▁BDP	-8277
sniji	-8278
▁Neka	-8279
▁iran	-8280
▁Sanja	-8281
▁govor	-8282
▁podne	-8283
▁primi	-8284
▁spava	-8285
▁brojem	-8286
▁izvori	-8287
lnostima	-8288
▁Italija	-8289
▁Valenti	-8290
▁napredo	-8291
▁pomisli	-8292
▁posebnu	-8293
▁razvije	-8294
▁Ustavnog	-8295
▁odigrati	-8296
▁osigurao	-8297
▁obiteljske	-8298
Be	-8299
ER	-8300
dr	-8301
Pre	-8302
don	-8303
fle	-8304
kvu	-8305
use	-8306
▁tj	-8307
elim	-8308
šeni	-8309
knuti	-8310
sport	-8311
stila	-8312
štinu	-8313
▁Karo	-8314
▁Suda	-8315
▁dres	-8316
▁druk	-8317
▁poro	-8318
tijeva	-8319
▁obale	-8320
▁Trener	-8321
▁albuma	-8322
▁izgubi	-8323
▁polako	-8324
▁derbiju	-8325
▁ključna	-8326
▁odlukom	-8327
▁studije	-8328
▁Sloveniji	-8329
▁Svjetskog	-8330
▁pregovara	-8331
▁pokušavaju	-8332
▁aktivnostima	-8333
adi	-8334
▁Lin	-8335
ženih	-8336
▁Antu	-8337
▁Puti	-8338
▁licu	-8339
▁opse	-8340
▁prat	-8341
▁roka	-8342
▁suve	-8343
▁uzeo	-8344
laciju	-8345
▁Mosta	-8346
▁Yorku	-8347
▁prste	-8348
▁volio	-8349
žavanje	-8350
▁Lucija	-8351
▁Penava	-8352
▁ovakav	-8353
▁oznaka	-8354
▁srpski	-8355
▁učinak	-8356
▁Donalda	-8357
▁nastavi	-8358
▁omoguća	-8359
▁pjesmom	-8360
▁sastavu	-8361
▁NACIONAL	-8362
▁Nekoliko	-8363
▁treninga	-8364
▁liječnici	-8365
▁sportskih	-8366
▁djelatnika	-8367
▁natjecanjima	-8368
▁tradicionalno	-8369
ek	-8370
zz	-8371
mene	-8372
ntne	-8373
ston	-8374
ušti	-8375
ndidi	-8376
▁Most	-8377
▁bave	-8378
▁mađa	-8379
00.000	-8380
▁Daily	-8381
▁Nikad	-8382
▁Petri	-8383
▁Sindi	-8384
▁hitno	-8385
▁intim	-8386
▁sjeda	-8387
▁sugla	-8388
▁dijele	-8389
▁Jadroli	-8390
▁Rezulta	-8391
▁ostatak	-8392
▁svojevr	-8393
▁uslijed	-8394
▁vratima	-8395
▁nezabora	-8396
▁pokušaja	-8397
▁ustanove	-8398
▁pozitivan	-8399
▁Primjerice	-8400
▁djelovanja	-8401
▁sredstvima	-8402
▁predstaviti	-8403
▁zagrebačkoj	-8404
45	-8405
res	-8406
▁SD	-8407
sezo	-8408
znom	-8409
▁Baš	-8410
bolje	-8411
šanje	-8412
▁Batu	-8413
▁Kara	-8414
▁Onda	-8415
▁Svje	-8416
▁Uskr	-8417
▁dubi	-8418
▁miro	-8419
▁uspi	-8420
▁Bruno	-8421
▁karte	-8422
▁oboje	-8423
▁svoga	-8424
▁utrci	-8425
grafije	-8426
sjetila	-8427
▁Jandro	-8428
▁Livaja	-8429
▁autori	-8430
▁brzine	-8431
▁okoliš	-8432
▁premda	-8433
▁spekta	-8434
▁kaznena	-8435
▁mladima	-8436
▁članice	-8437
▁Utakmica	-8438
▁cijenama	-8439
▁dodatnih	-8440
▁koncertu	-8441
▁reagirao	-8442
▁sastanka	-8443
▁kontrover	-8444
▁usporedbi	-8445
▁invalidite	-8446
▁ravnatelja	-8447
▁posljednjem	-8448
%,	-8449
žja	-8450
daka	-8451
povi	-8452
▁Ham	-8453
▁Man	-8454
▁ate	-8455
▁pat	-8456
avaju	-8457
▁Arse	-8458
▁Vide	-8459
▁moji	-8460
▁srcu	-8461
▁stil	-8462
▁Brani	-8463
▁kažem	-8464
▁najza	-8465
▁motiva	-8466
▁Americi	-8467
▁doznaje	-8468
▁inzisti	-8469
▁istaknu	-8470
▁nestabi	-8471
▁Premijer	-8472
▁Raspudić	-8473
▁Severina	-8474
▁izgublje	-8475
▁količine	-8476
▁lokacije	-8477
▁lokaciji	-8478
▁konačnici	-8479
▁politička	-8480
▁utakmicama	-8481
▁upozoravaju	-8482
▁zabrinutost	-8483
▁posjetitelje	-8484
▁zdravstvenih	-8485
9)	-8486
žo	-8487
vin	-8488
klom	-8489
ševi	-8490
sjeda	-8491
šteno	-8492
▁Anđe	-8493
▁niza	-8494
▁uzor	-8495
▁Sredi	-8496
▁filmo	-8497
▁sanja	-8498
▁stižu	-8499
▁sugra	-8500
▁tabli	-8501
vljenih	-8502
▁Franjo	-8503
▁mogući	-8504
▁vezano	-8505
▁iskreno	-8506
▁kazneni	-8507
▁krajnje	-8508
▁promovi	-8509
▁dostojan	-8510
▁odnosima	-8511
▁oporavak	-8512
▁ulaznica	-8513
▁osigurali	-8514
▁pozitivno	-8515
▁praktički	-8516
▁električne	-8517
▁maksimalno	-8518
▁poboljšati	-8519
▁teritorija	-8520
▁nacionalnih	-8521
▁posjetitelja	-8522
▁invaliditetom	-8523
Ba	-8524
▁@	-8525
▁Mr	-8526
lona	-8527
šima	-8528
▁Vil	-8529
▁ske	-8530
▁deba	-8531
▁tuma	-8532
pisima	-8533
racija	-8534
torima	-8535
▁Novak	-8536
▁banka	-8537
▁hidro	-8538
▁javio	-8539
▁krene	-8540
▁mirno	-8541
▁našli	-8542
▁snazi	-8543
▁vrtić	-8544
▁2024.,	-8545
▁Prošle	-8546
▁dobrih	-8547
▁javila	-8548
▁primio	-8549
▁razina	-8550
▁stavio	-8551
▁teškim	-8552
▁znanje	-8553
▁Dalmati	-8554
▁napušta	-8555
▁stotine	-8556
▁umjetne	-8557
▁govorili	-8558
▁napadača	-8559
▁Republika	-8560
▁influence	-8561
▁zahtijeva	-8562
▁generacija	-8563
▁zamijeniti	-8564
▁iznenađenje	-8565
4/	-8566
7)	-8567
fri	-8568
▁58	-8569
▁as	-8570
beno	-8571
kore	-8572
rilo	-8573
veća	-8574
▁Sun	-8575
ljaka	-8576
tskoj	-8577
▁Vrho	-8578
▁jede	-8579
▁komo	-8580
▁krva	-8581
▁udio	-8582
▁Misli	-8583
▁Sveti	-8584
▁oblik	-8585
▁Branko	-8586
▁Bruxel	-8587
▁izjava	-8588
▁odmora	-8589
▁Dnevnik	-8590
▁izrazio	-8591
▁visokim	-8592
▁Austrija	-8593
▁direktno	-8594
▁mjesečno	-8595
▁prihvaća	-8596
▁spominje	-8597
▁elektroni	-8598
▁provoditi	-8599
▁relativno	-8600
▁socijalne	-8601
▁izvijestili	-8602
':	-8603
3)	-8604
IC	-8605
ira	-8606
ten	-8607
▁""	-8608
▁47	-8609
▁Sr	-8610
▁Smi	-8611
▁umr	-8612
▁ura	-8613
▁val	-8614
štini	-8615
▁brže	-8616
▁mari	-8617
▁meso	-8618
▁niže	-8619
▁ušla	-8620
▁vagi	-8621
lanovi	-8622
pustio	-8623
đenjem	-8624
žljivo	-8625
▁fokus	-8626
▁kreću	-8627
▁reali	-8628
▁stavo	-8629
▁težak	-8630
▁Euroso	-8631
▁nikoga	-8632
▁nosila	-8633
▁odakle	-8634
▁povolj	-8635
▁vješta	-8636
▁dodatni	-8637
▁meteoro	-8638
▁preveze	-8639
▁rijetki	-8640
▁talenti	-8641
▁domaćina	-8642
▁kolovozu	-8643
▁objekata	-8644
▁otvorila	-8645
▁američkih	-8646
▁Aleksandar	-8647
▁Lokomotive	-8648
▁partnerima	-8649
▁pripremiti	-8650
▁upozorenja	-8651
▁konferencije	-8652
cea	-8653
tel	-8654
ćeve	-8655
▁Com	-8656
▁MUP	-8657
▁VAR	-8658
▁umo	-8659
pendi	-8660
vniji	-8661
▁2024	-8662
▁Guar	-8663
▁duže	-8664
▁ligu	-8665
▁memo	-8666
▁otok	-8667
▁pale	-8668
▁riba	-8669
▁Svaka	-8670
▁Varte	-8671
▁cilju	-8672
▁hrani	-8673
▁izlaz	-8674
▁malim	-8675
▁našla	-8676
▁Komisi	-8677
▁izjavu	-8678
▁javnih	-8679
▁osloba	-8680
▁recimo	-8681
▁zavoda	-8682
▁kandidi	-8683
▁lokalno	-8684
▁individu	-8685
▁poginuli	-8686
▁politici	-8687
▁poslovni	-8688
▁povratka	-8689
▁stranice	-8690
▁liječenje	-8691
▁roditelje	-8692
▁sudjeluju	-8693
▁Konferenci	-8694
▁.	-8695
hin	-8696
vaj	-8697
šoj	-8698
▁HZ	-8699
etka	-8700
liji	-8701
pila	-8702
▁Rim	-8703
▁lik	-8704
▁med	-8705
lniku	-8706
rskim	-8707
činje	-8708
▁Mili	-8709
▁jabu	-8710
▁peto	-8711
▁sala	-8712
▁ženu	-8713
▁Ništa	-8714
▁šalje	-8715
▁Rijeku	-8716
▁izjavi	-8717
▁pravde	-8718
▁prekri	-8719
razumije	-8720
▁integra	-8721
▁prijela	-8722
▁promica	-8723
▁fakulteta	-8724
▁izgledati	-8725
▁sportskog	-8726
▁uključuju	-8727
▁objavljena	-8728
▁investicije	-8729
DV	-8730
MO	-8731
500	-8732
jnog	-8733
prem	-8734
vera	-8735
vito	-8736
▁Max	-8737
▁Plo	-8738
▁ner	-8739
tnicu	-8740
▁2000	-8741
▁Mila	-8742
▁išao	-8743
▁kosu	-8744
vilima	-8745
▁Imate	-8746
▁Nasta	-8747
▁Peter	-8748
▁Ruski	-8749
▁grija	-8750
▁naziv	-8751
▁pušta	-8752
▁stoje	-8753
▁utrka	-8754
▁navela	-8755
▁dodavši	-8756
▁gubitak	-8757
▁radnici	-8758
▁uspjeti	-8759
▁Danijela	-8760
▁Gradskog	-8761
▁govorimo	-8762
▁naprijed	-8763
▁pojasnio	-8764
▁korupcije	-8765
▁napustiti	-8766
▁unaprijed	-8767
▁odgovorila	-8768
▁provjeriti	-8769
**	-8770
60	-8771
nia	-8772
▁41	-8773
▁MO	-8774
▁Uo	-8775
ming	-8776
neta	-8777
sigu	-8778
tonu	-8779
▁Egi	-8780
nijom	-8781
▁Navo	-8782
▁Ured	-8783
▁brak	-8784
▁debi	-8785
▁opće	-8786
▁umro	-8787
Cropix	-8788
ljenom	-8789
čavaju	-8790
▁Mlado	-8791
▁ideal	-8792
▁izgla	-8793
▁krize	-8794
▁stilu	-8795
▁autora	-8796
▁inspek	-8797
▁komada	-8798
▁obveze	-8799
▁osmije	-8800
▁smjera	-8801
▁upravi	-8802
▁zračne	-8803
▁Reuters	-8804
▁detalja	-8805
▁dijagno	-8806
▁elektra	-8807
▁impresi	-8808
▁izaziva	-8809
▁izdvaja	-8810
▁kontakt	-8811
▁naknade	-8812
▁pročita	-8813
▁sjeveru	-8814
▁supruge	-8815
▁sjednice	-8816
▁komercija	-8817
▁najboljeg	-8818
▁platforma	-8819
▁održavanja	-8820
▁ukrajinski	-8821
▁destinacija	-8822
▁informaciju	-8823
gio	-8824
▁Mü	-8825
▁NK	-8826
giju	-8827
jicu	-8828
list	-8829
žile	-8830
▁Dor	-8831
▁Maj	-8832
▁Pje	-8833
▁raj	-8834
▁Kaže	-8835
▁nere	-8836
▁remi	-8837
▁trag	-8838
▁viru	-8839
▁Istri	-8840
▁Ljubi	-8841
▁brata	-8842
▁ideju	-8843
▁možeš	-8844
▁najno	-8845
▁predo	-8846
▁pretr	-8847
▁preve	-8848
▁snije	-8849
eficije	-8850
▁Dražen	-8851
▁ostaju	-8852
▁radove	-8853
▁smisla	-8854
▁sportu	-8855
▁tisuću	-8856
▁boravak	-8857
▁dozvole	-8858
▁međusob	-8859
▁potrazi	-8860
▁proveli	-8861
▁spremna	-8862
▁najprije	-8863
▁općenito	-8864
▁registar	-8865
▁reporter	-8866
▁studenom	-8867
▁suradnja	-8868
▁francuski	-8869
▁ozlijeđen	-8870
▁prijaviti	-8871
▁Francuskoj	-8872
▁predstavnik	-8873
▁karakteristi	-8874
▁potencijalno	-8875
▁€	-8876
EFA	-8877
ray	-8878
bacu	-8879
lera	-8880
sada	-8881
škim	-8882
▁Oso	-8883
nikom	-8884
rište	-8885
▁DHMZ	-8886
▁Stri	-8887
▁gale	-8888
▁mesa	-8889
▁robo	-8890
▁šefa	-8891
▁Gabri	-8892
▁multi	-8893
▁ojača	-8894
▁pišto	-8895
▁rasko	-8896
▁teret	-8897
▁tinej	-8898
▁uglji	-8899
▁hotelu	-8900
▁izlaga	-8901
▁snimka	-8902
▁tekstu	-8903
▁prebaci	-8904
▁sredine	-8905
▁ukazuje	-8906
▁Petković	-8907
▁Rujevici	-8908
▁jedinice	-8909
▁koordina	-8910
▁potreban	-8911
▁proračun	-8912
▁sastanku	-8913
▁aktivnost	-8914
▁iskoristio	-8915
▁prepoznati	-8916
70	-8917
;&	-8918
kl	-8919
▁Ex	-8920
pati	-8921
▁Oto	-8922
▁Wol	-8923
▁sig	-8924
▁Đur	-8925
▁Crve	-8926
▁dodi	-8927
▁izva	-8928
▁kore	-8929
▁kose	-8930
▁nago	-8931
▁port	-8932
▁Grand	-8933
▁Važno	-8934
▁kolod	-8935
▁napao	-8936
▁Donald	-8937
▁Sandra	-8938
▁brojke	-8939
▁opušte	-8940
▁sretni	-8941
▁Kasnije	-8942
▁emocije	-8943
▁prelazi	-8944
▁provela	-8945
▁skupinu	-8946
▁najbolju	-8947
▁prevlada	-8948
▁ustvrdio	-8949
▁završili	-8950
donačelnik	-8951
▁Hrvatskih	-8952
▁ostvarila	-8953
▁članovima	-8954
▁Nogometaši	-8955
▁administra	-8956
▁odgovoriti	-8957
des	-8958
dža	-8959
▁Can	-8960
▁ilu	-8961
▁čuo	-8962
dnicu	-8963
ljiti	-8964
ljuje	-8965
▁kamo	-8966
▁miru	-8967
static	-8968
▁Ivanu	-8969
▁Odmah	-8970
▁Saudi	-8971
▁imalo	-8972
▁kroni	-8973
▁nužno	-8974
▁showu	-8975
đivanja	-8976
▁Gorice	-8977
▁akciji	-8978
▁dobrim	-8979
▁osuđen	-8980
▁savjet	-8981
▁talija	-8982
▁varija	-8983
mentirao	-8984
▁Londonu	-8985
▁dječaka	-8986
▁favorit	-8987
▁konzuma	-8988
▁priušti	-8989
▁shvatio	-8990
▁javljaju	-8991
▁nastupio	-8992
▁poduzeća	-8993
▁pokrenuo	-8994
▁prosjeka	-8995
▁redatelj	-8996
▁stipendi	-8997
▁stranica	-8998
▁pacijenti	-8999
▁povećanja	-9000
▁pozornici	-9001
▁prometnih	-9002
▁projektila	-9003
▁samopouzda	-9004
ić	-9005
jk	-9006
blo	-9007
lse	-9008
sso	-9009
4/05	-9010
jnih	-9011
mite	-9012
vost	-9013
zmom	-9014
▁EUR	-9015
▁Far	-9016
▁Svo	-9017
▁der	-9018
grani	-9019
losti	-9020
loška	-9021
vcima	-9022
▁Mami	-9023
▁Nisu	-9024
▁nadu	-9025
▁odvo	-9026
▁zape	-9027
▁Čako	-9028
▁Flori	-9029
▁Mateo	-9030
▁lopta	-9031
▁najam	-9032
▁plovi	-9033
▁poveo	-9034
▁držati	-9035
▁naveli	-9036
▁ugodno	-9037
▁vijeće	-9038
▁fondova	-9039
▁izdanja	-9040
▁najnovi	-9041
▁naoruža	-9042
▁pružiti	-9043
▁suočava	-9044
▁svladao	-9045
▁zahtije	-9046
▁izazvati	-9047
▁vlastitu	-9048
▁nogometna	-9049
▁operacija	-9050
▁poslovnih	-9051
▁potvrđuje	-9052
▁činjenice	-9053
▁kontinuirano	-9054
%.	-9055
EN	-9056
La	-9057
UD	-9058
del	-9059
rit	-9060
biji	-9061
elje	-9062
čevi	-9063
▁Cla	-9064
▁Mag	-9065
▁Rad	-9066
gorje	-9067
ivotu	-9068
ljana	-9069
ranim	-9070
ćenih	-9071
▁Koji	-9072
▁Puli	-9073
▁Voyo	-9074
▁drže	-9075
▁naji	-9076
▁obro	-9077
▁zavi	-9078
▁2009.	-9079
▁Mjese	-9080
▁atrak	-9081
▁lopte	-9082
▁pogla	-9083
▁smiju	-9084
▁toplo	-9085
▁videa	-9086
cijskom	-9087
▁visini	-9088
▁Sigurno	-9089
▁baštine	-9090
▁crijeva	-9091
▁gledali	-9092
▁odličan	-9093
▁trebale	-9094
▁Đoković	-9095
▁izrazito	-9096
▁priznati	-9097
▁proglasi	-9098
▁pravosuđa	-9099
▁prostorima	-9100
Co	-9101
nit	-9102
žih	-9103
bera	-9104
berg	-9105
ljno	-9106
novu	-9107
skop	-9108
zana	-9109
▁2-0	-9110
▁sun	-9111
▁uvr	-9112
dosta	-9113
stali	-9114
▁Mata	-9115
▁Toki	-9116
▁luci	-9117
▁malu	-9118
▁suci	-9119
▁Gospi	-9120
▁sedmo	-9121
▁spoji	-9122
▁produk	-9123
▁radnje	-9124
▁teksto	-9125
/2024/05	-9126
▁Madrida	-9127
▁arhitek	-9128
▁ljudska	-9129
▁naslije	-9130
▁poslati	-9131
▁slučaja	-9132
▁povezuje	-9133
▁pretvara	-9134
▁vještine	-9135
▁inflacije	-9136
▁naglasila	-9137
▁namirnice	-9138
▁napominje	-9139
▁splitskog	-9140
▁životinje	-9141
▁industriji	-9142
▁objavljeno	-9143
▁protivnika	-9144
▁uzrokovati	-9145
wn	-9146
sel	-9147
jnim	-9148
kalo	-9149
lilo	-9150
ricu	-9151
tlja	-9152
▁1,5	-9153
▁rak	-9154
mično	-9155
tijih	-9156
ventu	-9157
▁Maru	-9158
▁Nico	-9159
▁Orba	-9160
▁polj	-9161
▁suho	-9162
▁Darko	-9163
▁Meksi	-9164
▁iscrp	-9165
▁scenu	-9166
▁skupo	-9167
čavanje	-9168
▁glavne	-9169
▁izboru	-9170
▁karton	-9171
▁skloni	-9172
▁vjetra	-9173
▁Program	-9174
▁periodu	-9175
▁poginuo	-9176
▁pogledu	-9177
▁postalo	-9178
▁tražili	-9179
▁mirovina	-9180
▁odlučiti	-9181
▁prijelaz	-9182
▁sjedište	-9183
▁fakultetu	-9184
▁kvaliteta	-9185
▁osigurala	-9186
▁postaviti	-9187
▁sudjeluje	-9188
▁promijenio	-9189
▁raspolaganju	-9190
ček	-9191
▁Qu	-9192
nine	-9193
nkom	-9194
▁mra	-9195
cioni	-9196
▁Bari	-9197
▁Neza	-9198
▁UEFA	-9199
▁tret	-9200
▁ušte	-9201
stribu	-9202
žnosti	-9203
▁Bunde	-9204
▁Dario	-9205
▁Novog	-9206
▁brine	-9207
▁kakvo	-9208
▁nosio	-9209
▁utrku	-9210
▁štiti	-9211
▁Master	-9212
▁igrala	-9213
▁nimalo	-9214
▁održan	-9215
▁osobni	-9216
▁simbol	-9217
▁srušio	-9218
▁tjedno	-9219
▁dozvola	-9220
▁glavnih	-9221
▁ključne	-9222
▁podatak	-9223
▁slavili	-9224
▁trebati	-9225
▁aktualni	-9226
▁glazbene	-9227
▁napisali	-9228
▁predmeta	-9229
▁roditelj	-9230
▁snimanja	-9231
▁upoznali	-9232
▁Republici	-9233
▁platforme	-9234
▁potaknuti	-9235
▁prilagodi	-9236
▁zajednici	-9237
▁odgovaraju	-9238
kne	-9239
tta	-9240
▁Ap	-9241
▁ZA	-9242
enih	-9243
nder	-9244
nita	-9245
zvao	-9246
žemo	-9247
▁ama	-9248
▁usu	-9249
zanja	-9250
▁Krem	-9251
▁Skup	-9252
▁idea	-9253
▁kavu	-9254
▁stol	-9255
▁zadr	-9256
groman	-9257
strana	-9258
▁bespo	-9259
▁bolju	-9260
▁dviju	-9261
▁koncu	-9262
▁kupio	-9263
▁vozio	-9264
▁Srbiju	-9265
▁dovolj	-9266
▁izvrši	-9267
▁snažno	-9268
▁ugleda	-9269
▁posebna	-9270
▁sredini	-9271
▁poručuje	-9272
▁programe	-9273
▁službene	-9274
▁pandemije	-9275
▁ministrica	-9276
▁talijanski	-9277
▁ponedjeljka	-9278
▁organizatori	-9279
▁ravnateljica	-9280
ww	-9281
sov	-9282
▁IT	-9283
pili	-9284
site	-9285
▁Jor	-9286
▁kvi	-9287
levan	-9288
▁Boga	-9289
▁Bulj	-9290
▁Imam	-9291
▁geno	-9292
▁jaka	-9293
▁praz	-9294
▁saču	-9295
▁zamr	-9296
loškom	-9297
sandra	-9298
vedena	-9299
▁karti	-9300
▁odbor	-9301
▁pucao	-9302
▁refor	-9303
▁sunca	-9304
▁Hamasa	-9305
▁brzinu	-9306
▁katoli	-9307
▁muzeja	-9308
▁obnovu	-9309
▁potiče	-9310
▁Beograd	-9311
▁depresi	-9312
▁planina	-9313
▁potrebi	-9314
▁Koprivni	-9315
▁kampanja	-9316
▁komentar	-9317
▁najavila	-9318
▁plaćanja	-9319
▁poznatog	-9320
▁pretežno	-9321
▁splitski	-9322
▁internetu	-9323
▁pokrenula	-9324
▁komentirati	-9325
▁sudjelovala	-9326
▁poljoprivrede	-9327
,0	-9328
▁(0	-9329
▁Ky	-9330
▁OP	-9331
vita	-9332
čite	-9333
šnim	-9334
▁pog	-9335
▁Znam	-9336
▁done	-9337
▁gene	-9338
▁park	-9339
▁puni	-9340
▁sana	-9341
▁tebe	-9342
▁upit	-9343
▁Reala	-9344
▁molit	-9345
▁sramo	-9346
▁zavje	-9347
▁mladim	-9348
▁nekome	-9349
▁nomina	-9350
▁snimku	-9351
▁zadnja	-9352
▁Izraelu	-9353
▁mobitel	-9354
▁poslala	-9355
▁ravnote	-9356
▁izgubiti	-9357
▁magistra	-9358
▁ponuditi	-9359
▁standard	-9360
▁višestru	-9361
▁međusobno	-9362
▁mišljenja	-9363
▁predstave	-9364
▁zdravstvo	-9365
▁okolnostima	-9366
90	-9367
eo	-9368
▁PA	-9369
šite	-9370
▁Tuđ	-9371
▁Vol	-9372
ekuje	-9373
prave	-9374
▁Klub	-9375
▁napi	-9376
riraju	-9377
zivati	-9378
▁Carlo	-9379
▁benda	-9380
▁crkvi	-9381
▁jutra	-9382
▁služi	-9383
▁spada	-9384
▁vrući	-9385
▁Općina	-9386
▁Rusiju	-9387
▁lagano	-9388
▁odavno	-9389
▁premje	-9390
▁seriju	-9391
▁shvaća	-9392
▁ubacio	-9393
▁živimo	-9394
▁Berlinu	-9395
▁bolnica	-9396
▁poprili	-9397
▁stavite	-9398
▁Njemačku	-9399
▁ozbiljne	-9400
▁incidenta	-9401
▁koeficije	-9402
▁kombinira	-9403
▁otvaranje	-9404
▁promjenama	-9405
▁ozlijeđenih	-9406
▁dugogodišnji	-9407
Go	-9408
OK	-9409
▁Am	-9410
▁Oz	-9411
ding	-9412
hati	-9413
zaka	-9414
▁1-0	-9415
▁Gen	-9416
▁Kim	-9417
▁fol	-9418
▁hor	-9419
▁sav	-9420
stica	-9421
▁Kina	-9422
▁Posa	-9423
▁Rena	-9424
▁dugu	-9425
▁čaro	-9426
▁Dvije	-9427
▁jasan	-9428
▁naran	-9429
▁nekoj	-9430
▁njegu	-9431
▁pogle	-9432
▁prebi	-9433
▁vašeg	-9434
▁drukči	-9435
▁kralja	-9436
▁vezane	-9437
▁Palesti	-9438
▁Problem	-9439
▁bilježi	-9440
▁izabran	-9441
▁menadže	-9442
▁potpora	-9443
▁simboli	-9444
▁demograf	-9445
▁dijelove	-9446
▁najvećim	-9447
▁posebnim	-9448
▁zdravlju	-9449
▁dužnosnici	-9450
▁investicija	-9451
▁slučajevima	-9452
▁zagrebačkog	-9453
▁kandidatkinja	-9454
ed	-9455
pao	-9456
ria	-9457
rim	-9458
▁DJ	-9459
....	-9460
tore	-9461
čilo	-9462
▁otu	-9463
spješ	-9464
▁bazi	-9465
▁cipe	-9466
▁kave	-9467
▁pasa	-9468
▁puna	-9469
▁pune	-9470
logija	-9471
stavno	-9472
▁Joško	-9473
▁Konce	-9474
▁Nijem	-9475
▁bizni	-9476
▁droge	-9477
▁hibri	-9478
▁istim	-9479
cijskim	-9480
▁kratki	-9481
▁ljubim	-9482
▁prehra	-9483
▁prešao	-9484
▁radilo	-9485
▁recept	-9486
▁odradio	-9487
▁podrije	-9488
▁uzastop	-9489
▁izvješće	-9490
▁jugoisto	-9491
▁podržati	-9492
▁privatni	-9493
▁sportaša	-9494
▁stvaraju	-9495
▁značajan	-9496
▁objasniti	-9497
▁umjetnika	-9498
▁medicinske	-9499
▁televiziji	-9500
▁Olimpijskih	-9501
▁centimetara	-9502
▁Španjolskoj	-9503
▁četvrtfinale	-9504
6,	-9505
:5	-9506
ED	-9507
cao	-9508
lda	-9509
oni	-9510
src	-9511
uma	-9512
bran	-9513
dice	-9514
inom	-9515
vate	-9516
▁Sho	-9517
▁doj	-9518
berne	-9519
dišta	-9520
tropo	-9521
▁Imao	-9522
▁bren	-9523
▁kalo	-9524
▁masa	-9525
▁reso	-9526
▁Grbin	-9527
▁imale	-9528
▁masla	-9529
▁suspe	-9530
▁sveće	-9531
▁vruće	-9532
▁adekva	-9533
▁trećeg	-9534
▁Očekuje	-9535
▁Poslije	-9536
▁TikToku	-9537
▁Vrijeme	-9538
▁domaćem	-9539
▁emisija	-9540
▁izazova	-9541
▁kratkom	-9542
▁novosti	-9543
▁obaveza	-9544
▁visokih	-9545
▁Svjetsko	-9546
▁funkciju	-9547
▁pokušaju	-9548
▁svijesti	-9549
▁ozlijedio	-9550
▁automobilu	-9551
▁djelatnici	-9552
▁industrija	-9553
▁mjestimice	-9554
▁obiteljima	-9555
▁političkog	-9556
▁automobilom	-9557
▁najpopularni	-9558
OS	-9559
uk	-9560
bni	-9561
lko	-9562
▁Haj	-9563
licom	-9564
▁Demo	-9565
▁Jura	-9566
▁Luci	-9567
▁Paša	-9568
▁doho	-9569
▁ljep	-9570
▁sobe	-9571
▁spoj	-9572
▁spon	-9573
▁vašu	-9574
▁šuma	-9575
ivanja	-9576
▁metra	-9577
▁odred	-9578
▁odšte	-9579
▁skrom	-9580
▁tajna	-9581
etvrtak	-9582
▁Sergej	-9583
▁Taylor	-9584
▁imenom	-9585
▁jeseni	-9586
▁naobla	-9587
▁objava	-9588
▁opcije	-9589
▁sektor	-9590
▁vodeći	-9591
▁Modrića	-9592
▁Njihova	-9593
▁dobrodo	-9594
▁izvanre	-9595
▁nastoja	-9596
▁optužbe	-9597
▁prirodi	-9598
▁simpati	-9599
▁kaznenih	-9600
▁rasprave	-9601
▁spektakl	-9602
▁zabavlja	-9603
▁okruženju	-9604
▁prijetnja	-9605
▁proizvodnja	-9606
sha	-9607
sho	-9608
▁ud	-9609
rinu	-9610
vske	-9611
▁Ple	-9612
▁Sim	-9613
▁nei	-9614
lista	-9615
migra	-9616
nijem	-9617
▁Mali	-9618
▁Mara	-9619
▁mono	-9620
▁plin	-9621
▁tipa	-9622
▁šved	-9623
tanski	-9624
▁2006.	-9625
▁2008.	-9626
▁bruto	-9627
▁mozga	-9628
▁nespo	-9629
▁svrhu	-9630
▁vrstu	-9631
▁Vijeća	-9632
▁govora	-9633
▁sabora	-9634
▁uspije	-9635
▁valjda	-9636
▁Najveći	-9637
▁Projekt	-9638
▁Stjepan	-9639
▁jedanae	-9640
▁upoznao	-9641
▁zauzima	-9642
▁državnih	-9643
▁medicine	-9644
▁razmatra	-9645
▁shvatiti	-9646
▁zaroblje	-9647
▁Tomislava	-9648
▁doživjela	-9649
▁promjenji	-9650
▁završnici	-9651
▁najavljuje	-9652
▁zastupnici	-9653
▁kvalifikacija	-9654
▁potpredsjednik	-9655
tvo	-9656
▁Ak	-9657
gnuo	-9658
ipzi	-9659
jala	-9660
mski	-9661
šene	-9662
▁Mba	-9663
▁fru	-9664
▁žal	-9665
djelu	-9666
▁Alen	-9667
▁Kini	-9668
▁Rade	-9669
▁Salz	-9670
▁gara	-9671
▁omje	-9672
▁zone	-9673
▁Karlo	-9674
▁Video	-9675
▁otkaz	-9676
▁pusti	-9677
▁žrtva	-9678
▁Dortmu	-9679
▁dodaju	-9680
▁podupi	-9681
▁raskri	-9682
▁spasio	-9683
▁granicu	-9684
▁kulturne	-9685
▁pogodaka	-9686
▁registra	-9687
▁troškovi	-9688
▁autocesti	-9689
▁objavljen	-9690
▁činjenicu	-9691
▁djelovanje	-9692
▁poluvremena	-9693
40	-9694
emu	-9695
▁KS	-9696
▁Čo	-9697
dica	-9698
miji	-9699
pana	-9700
redu	-9701
zori	-9702
želj	-9703
▁PDV	-9704
▁ano	-9705
▁dže	-9706
ljenu	-9707
renih	-9708
vijet	-9709
▁Gdje	-9710
▁Rodi	-9711
▁Sini	-9712
▁West	-9713
▁argu	-9714
▁rock	-9715
▁utor	-9716
lizabe	-9717
▁2010.	-9718
▁Djeca	-9719
▁kamio	-9720
▁orije	-9721
▁rasti	-9722
▁umije	-9723
desetih	-9724
▁istinu	-9725
▁osobne	-9726
▁prikup	-9727
▁spomen	-9728
▁zelene	-9729
▁Postoje	-9730
▁poslali	-9731
▁psihija	-9732
▁smatram	-9733
▁Večernji	-9734
▁dominira	-9735
▁dostupan	-9736
▁državama	-9737
▁legendar	-9738
▁osjećaju	-9739
▁slučajno	-9740
▁identitet	-9741
▁istaknuli	-9742
▁podsjetio	-9743
▁pozornicu	-9744
▁prioritet	-9745
▁priznanja	-9746
▁reagirati	-9747
IN	-9748
lue	-9749
zer	-9750
lodi	-9751
▁2-1	-9752
▁Imo	-9753
▁itd	-9754
▁onu	-9755
▁Jose	-9756
▁Scho	-9757
▁cvje	-9758
▁pića	-9759
retvan	-9760
▁njime	-9761
berneti	-9762
▁Danije	-9763
▁dovrše	-9764
▁opisao	-9765
▁sadrži	-9766
▁sjajan	-9767
▁Amerike	-9768
▁boravka	-9769
▁graditi	-9770
▁integri	-9771
▁interve	-9772
▁isproba	-9773
▁izvedbe	-9774
▁nemojte	-9775
▁Austriji	-9776
▁donijeli	-9777
▁njezinom	-9778
▁predizbo	-9779
▁vlasnici	-9780
▁pokrenuti	-9781
▁policajci	-9782
▁prehrambe	-9783
▁priopćila	-9784
▁podijeliti	-9785
▁zagrebački	-9786
Od	-9787
yu	-9788
-1.	-9789
šnu	-9790
▁Ur	-9791
dona	-9792
sova	-9793
▁Bur	-9794
▁Eko	-9795
▁Tur	-9796
alost	-9797
burga	-9798
tetom	-9799
štava	-9800
▁Bara	-9801
▁Dječ	-9802
▁Mato	-9803
▁Pone	-9804
▁mati	-9805
▁modu	-9806
▁voća	-9807
tinjak	-9808
▁Nenad	-9809
▁Ulica	-9810
▁drama	-9811
▁kirur	-9812
▁manja	-9813
▁mojoj	-9814
▁otpad	-9815
▁slova	-9816
▁tvari	-9817
▁Daniel	-9818
▁atenta	-9819
▁poklon	-9820
▁pouzda	-9821
▁voziti	-9822
▁šećera	-9823
▁Kovačić	-9824
▁Ljublja	-9825
▁konzumi	-9826
▁mandatu	-9827
▁članove	-9828
▁Muškarac	-9829
▁Nikolina	-9830
▁Sarajevu	-9831
▁glazbeni	-9832
▁gradskog	-9833
▁koristio	-9834
▁restoran	-9835
▁podnijeti	-9836
▁privatnom	-9837
▁sindikata	-9838
▁nedostatak	-9839
▁pripadnika	-9840
▁Jugoslavije	-9841
▁neprijatelj	-9842
▁kriminalističko	-9843
ky	-9844
?",	-9845
iji	-9846
▁AP	-9847
▁Ža	-9848
deri	-9849
gove	-9850
rist	-9851
ruju	-9852
stić	-9853
▁Mel	-9854
▁Nad	-9855
▁Ran	-9856
▁ome	-9857
▁umu	-9858
▁šar	-9859
logom	-9860
scima	-9861
tvore	-9862
▁faze	-9863
▁gađa	-9864
▁liko	-9865
▁moju	-9866
▁tole	-9867
▁zoni	-9868
teljem	-9869
▁Hamas	-9870
▁Ravna	-9871
▁blaga	-9872
▁budem	-9873
▁datum	-9874
▁samim	-9875
▁staze	-9876
njavaju	-9877
▁Godine	-9878
▁buduće	-9879
▁izašli	-9880
▁opušta	-9881
▁srpske	-9882
▁strahu	-9883
▁svježe	-9884
▁zakonu	-9885
▁Vatroga	-9886
▁Zapravo	-9887
▁odlična	-9888
▁ogroman	-9889
▁osobnih	-9890
▁radnike	-9891
▁studiju	-9892
▁Turudića	-9893
▁distribu	-9894
▁nemoguće	-9895
▁osjetlji	-9896
▁pripremu	-9897
▁spominja	-9898
▁zahvalio	-9899
▁Barcelona	-9900
▁natječaja	-9901
▁nerijetko	-9902
▁pohvaliti	-9903
▁zahvaliti	-9904
▁zaustavlja	-9905
▁nastavljaju	-9906
▁umirovljenika	-9907
-5	-9908
ES	-9909
IS	-9910
ave	-9911
čim	-9912
▁Ed	-9913
▁MA	-9914
bile	-9915
naka	-9916
voja	-9917
▁203	-9918
▁Smo	-9919
▁hva	-9920
▁krv	-9921
nciju	-9922
▁Bogu	-9923
▁Neće	-9924
▁Nika	-9925
▁chef	-9926
▁gita	-9927
▁gost	-9928
▁sobi	-9929
▁zlou	-9930
sumnji	-9931
▁Bartu	-9932
▁Beroš	-9933
▁Ivani	-9934
▁Japan	-9935
▁Stipe	-9936
▁mosta	-9937
▁zavod	-9938
mislite	-9939
▁Anušić	-9940
▁dobrog	-9941
▁mislio	-9942
▁sretna	-9943
▁trajek	-9944
▁vidjet	-9945
▁visoka	-9946
▁Dominik	-9947
▁domaćeg	-9948
▁izmjene	-9949
▁logisti	-9950
▁sigurna	-9951
▁vladaju	-9952
▁Državnog	-9953
▁fenomena	-9954
▁kretanja	-9955
▁matemati	-9956
▁poginulo	-9957
▁pohvalio	-9958
▁sporazum	-9959
▁koalicije	-9960
▁studenata	-9961
▁Lokomotiva	-9962
▁podrazumije	-9963
71	-9964
9,	-9965
jao	-9966
ore	-9967
čun	-9968
▁OI	-9969
▁Ty	-9970
žilo	-9971
▁30-	-9972
▁Boy	-9973
jućih	-9974
▁100.	-9975
▁Atle	-9976
▁Pret	-9977
▁Regi	-9978
▁kaos	-9979
▁legi	-9980
▁test	-9981
ivanje	-9982
vjeren	-9983
▁Jenni	-9984
▁malom	-9985
▁oboga	-9986
▁pasti	-9987
▁stara	-9988
▁Četvr	-9989
grafija	-9990
▁Leipzi	-9991
▁Premda	-9992
▁vodili	-9993
▁zgradi	-9994
▁Obitelj	-9995
▁glasati	-9996
▁manjina	-9997
▁najveću	-9998
▁odrasli	-9999
▁razumje	-10000
▁svlačio	-10001
▁uvjeren	-10002
▁Marijana	-10003
▁dostupne	-10004
▁napadima	-10005
▁pokušali	-10006
▁saborski	-10007
▁svejedno	-10008
▁čišćenje	-10009
▁gostovanju	-10010
▁identifici	-10011
▁odvjetništvo	-10012
21	-10013
8,	-10014
AN	-10015
sal	-10016
▁51	-10017
▁52	-10018
kvih	-10019
sica	-10020
ćama	-10021
▁Ade	-10022
▁iko	-10023
▁oži	-10024
znice	-10025
▁Naja	-10026
▁duži	-10027
▁kari	-10028
▁ospo	-10029
▁sate	-10030
▁tata	-10031
povije	-10032
▁Patri	-10033
▁Poslo	-10034
▁Ulici	-10035
▁nafte	-10036
▁namet	-10037
▁pismo	-10038
▁punom	-10039
▁takvi	-10040
▁brenda	-10041
▁posjet	-10042
▁straha	-10043
▁stresa	-10044
▁zabave	-10045
▁gostuju	-10046
▁podnese	-10047
▁pozvala	-10048
▁sekunde	-10049
▁suparni	-10050
▁vrijeđa	-10051
▁prezenta	-10052
▁tromjese	-10053
▁upoznala	-10054
▁zauvijek	-10055
▁najboljim	-10056
▁namirnica	-10057
▁političku	-10058
▁pregovora	-10059
▁preminula	-10060
VP	-10061
can	-10062
oma	-10063
set	-10064
zad	-10065
▁54	-10066
▁15-	-10067
▁Gol	-10068
▁uro	-10069
dnike	-10070
ivati	-10071
likom	-10072
lovac	-10073
zenti	-10074
▁Sela	-10075
▁hero	-10076
▁nivo	-10077
▁prou	-10078
▁star	-10079
▁zvuk	-10080
lirati	-10081
zirana	-10082
šenjem	-10083
▁pošti	-10084
▁tajne	-10085
▁većim	-10086
loginja	-10087
▁Bidena	-10088
▁Otvore	-10089
▁Puljak	-10090
▁dvaput	-10091
▁neutra	-10092
▁općina	-10093
▁pokraj	-10094
▁posade	-10095
▁pristi	-10096
▁četvor	-10097
▁Elizabe	-10098
▁brodova	-10099
▁dvoboja	-10100
▁ključno	-10101
▁napravi	-10102
▁noćenja	-10103
▁obrazlo	-10104
▁primili	-10105
▁uzvrati	-10106
▁zaprije	-10107
▁Krešimir	-10108
▁poručuju	-10109
▁sjeverno	-10110
▁trajanja	-10111
▁trgovina	-10112
▁Portugala	-10113
▁britanski	-10114
▁kiberneti	-10115
▁prebivali	-10116
▁predstava	-10117
▁proglašen	-10118
▁razvijati	-10119
▁restoranu	-10120
▁sljedećih	-10121
▁prepoznatlji	-10122
):	-10123
80	-10124
up	-10125
ere	-10126
nge	-10127
ngi	-10128
▁("	-10129
▁CN	-10130
duju	-10131
nogo	-10132
sice	-10133
čare	-10134
šina	-10135
▁700	-10136
▁Kup	-10137
▁Ter	-10138
▁fir	-10139
rnera	-10140
valio	-10141
čarka	-10142
▁Cibo	-10143
▁SDSS	-10144
▁fazu	-10145
▁zagr	-10146
▁zvje	-10147
▁Šimu	-10148
▁Miche	-10149
▁Pavić	-10150
▁YouTu	-10151
▁Znate	-10152
▁vreći	-10153
▁Bayern	-10154
▁Država	-10155
▁dizajn	-10156
▁dnevna	-10157
▁izdrža	-10158
▁lijepi	-10159
▁mladog	-10160
▁odjeću	-10161
▁prekid	-10162
▁razred	-10163
▁servis	-10164
▁smijeh	-10165
▁trudno	-10166
▁vodila	-10167
▁dvoboju	-10168
▁izbjeći	-10169
▁pomogao	-10170
▁stanice	-10171
▁Petrović	-10172
▁odraditi	-10173
▁oduvijek	-10174
▁pozivaju	-10175
▁primanja	-10176
▁službenim	-10177
▁tragedije	-10178
▁zemljišta	-10179
▁Aleksandra	-10180
▁aplikacije	-10181
▁legendarni	-10182
▁inicijativu	-10183
▁poboljšanje	-10184
▁posljednjeg	-10185
▁desetljećima	-10186
▁četvrtfinalu	-10187
?!	-10188
ffe	-10189
jko	-10190
šci	-10191
▁64	-10192
mero	-10193
nala	-10194
tono	-10195
vska	-10196
▁zbu	-10197
▁šok	-10198
rević	-10199
šnjak	-10200
▁Mati	-10201
▁Neke	-10202
▁Trgu	-10203
▁duge	-10204
▁nade	-10205
▁reka	-10206
▁uvid	-10207
vizije	-10208
ziraju	-10209
▁Matić	-10210
▁Ovako	-10211
▁Sopić	-10212
▁Volim	-10213
▁ekipi	-10214
▁njena	-10215
▁pisao	-10216
vljenja	-10217
vljenog	-10218
▁Službe	-10219
▁filozo	-10220
▁gledao	-10221
▁junior	-10222
▁nogama	-10223
▁obliko	-10224
▁obolje	-10225
▁usvoji	-10226
▁Nemojte	-10227
▁dvorane	-10228
▁nastave	-10229
▁visokog	-10230
▁željeli	-10231
▁Butković	-10232
▁Gvardiol	-10233
▁Katarina	-10234
▁kvadrata	-10235
▁poznatih	-10236
▁rasprava	-10237
▁ravnopra	-10238
▁stvarima	-10239
▁tinejdže	-10240
▁uzrokova	-10241
▁Međunarod	-10242
▁prijevoza	-10243
▁tradicije	-10244
▁glazbenika	-10245
▁prijatelje	-10246
▁pripadnici	-10247
▁Domovinskom	-10248
▁posjetitelji	-10249
▁Gradonačelnik	-10250
▁kvalifikacijama	-10251
fan	-10252
und	-10253
vis	-10254
yju	-10255
▁Wo	-10256
biju	-10257
diju	-10258
kica	-10259
ntri	-10260
smje	-10261
tico	-10262
znog	-10263
▁ATP	-10264
▁duh	-10265
▁eta	-10266
metni	-10267
ženog	-10268
▁News	-10269
▁Stre	-10270
▁este	-10271
▁loša	-10272
▁mnom	-10273
▁rubu	-10274
zaciji	-10275
▁kance	-10276
▁kasno	-10277
▁obalu	-10278
▁okvir	-10279
▁oruža	-10280
▁pokoj	-10281
▁reper	-10282
▁ubija	-10283
▁ukaza	-10284
▁čimbe	-10285
▁2023.,	-10286
▁aviona	-10287
▁pitaju	-10288
▁radnom	-10289
▁rodila	-10290
▁takvog	-10291
▁tereta	-10292
▁trećoj	-10293
▁Christi	-10294
▁objekta	-10295
▁osobnog	-10296
▁ovakvim	-10297
▁svjetla	-10298
▁Austrije	-10299
▁dijelova	-10300
▁govorila	-10301
▁otvoreni	-10302
▁pobijedi	-10303
▁prestati	-10304
▁uređenja	-10305
▁partnerom	-10306
▁prethodne	-10307
▁Policijski	-10308
CO	-10309
EL	-10310
Li	-10311
VI	-10312
-0.	-10313
cia	-10314
gru	-10315
ted	-10316
dovo	-10317
mula	-10318
▁usa	-10319
stven	-10320
▁Lege	-10321
▁danu	-10322
▁dize	-10323
▁kapi	-10324
▁nebo	-10325
▁pari	-10326
▁poba	-10327
▁pope	-10328
▁stao	-10329
▁čuva	-10330
zujemo	-10331
▁Bosni	-10332
▁miris	-10333
▁vladu	-10334
▁Glazbe	-10335
▁Gordan	-10336
▁budemo	-10337
▁kanali	-10338
▁opremu	-10339
▁rakete	-10340
▁rezolu	-10341
▁trofej	-10342
▁udarca	-10343
▁Željka	-10344
▁epizoda	-10345
▁epizode	-10346
▁inženje	-10347
▁klubovi	-10348
▁poplava	-10349
▁relevan	-10350
▁savjete	-10351
▁zaštita	-10352
▁ocijenio	-10353
▁starijih	-10354
▁cijelosti	-10355
▁izbornika	-10356
▁nezaposle	-10357
▁pitanjima	-10358
▁obilježava	-10359
▁međunarodne	-10360
▁poduzetnika	-10361
▁procjenjuje	-10362
▁pretpostavlja	-10363
ok	-10364
:0,	-10365
dre	-10366
yen	-10367
▁85	-10368
dora	-10369
fter	-10370
ndić	-10371
samo	-10372
vese	-10373
štem	-10374
živo	-10375
▁Vra	-10376
▁eto	-10377
▁žao	-10378
vskog	-10379
znica	-10380
▁Stru	-10381
▁Vese	-10382
▁nevi	-10383
▁reče	-10384
ktivno	-10385
▁brodo	-10386
▁gužve	-10387
▁jesen	-10388
▁kompe	-10389
▁najdu	-10390
▁ovome	-10391
▁prlja	-10392
▁raski	-10393
▁slave	-10394
▁uteme	-10395
▁Govori	-10396
▁Münche	-10397
▁United	-10398
▁knjizi	-10399
▁lijepe	-10400
▁ulaska	-10401
▁Bjelova	-10402
▁gledaju	-10403
▁granici	-10404
▁isplati	-10405
▁lokalni	-10406
▁obratio	-10407
▁točnije	-10408
▁zadnjem	-10409
▁Jennifer	-10410
▁količina	-10411
▁nezakoni	-10412
▁određeni	-10413
▁osnovnih	-10414
▁ozbiljan	-10415
▁postigli	-10416
▁privatne	-10417
▁priznaje	-10418
▁svjedoči	-10419
▁svjestan	-10420
▁glazbenik	-10421
▁pozitivne	-10422
▁zamisliti	-10423
▁promijenilo	-10424
Jo	-10425
No	-10426
ph	-10427
-3,	-10428
heo	-10429
mit	-10430
rda	-10431
▁BM	-10432
gode	-10433
ljke	-10434
šaka	-10435
▁izu	-10436
▁poe	-10437
▁puc	-10438
▁Mike	-10439
▁Obra	-10440
▁Roma	-10441
ktivni	-10442
redoto	-10443
▁Thoma	-10444
▁Znači	-10445
▁asfal	-10446
▁cesto	-10447
▁neuro	-10448
▁table	-10449
▁širom	-10450
▁Države	-10451
▁Gotovo	-10452
▁Mislav	-10453
▁nabave	-10454
▁ogleda	-10455
▁senior	-10456
▁stiglo	-10457
▁stvore	-10458
▁zastra	-10459
▁izvršni	-10460
▁kultura	-10461
▁naučiti	-10462
▁druženje	-10463
▁izvješća	-10464
▁korisnik	-10465
▁obuhvaća	-10466
▁povratku	-10467
▁uspješan	-10468
▁usredoto	-10469
▁zahtjeve	-10470
▁završilo	-10471
▁bogatstvo	-10472
▁izgledaju	-10473
▁održavaju	-10474
▁otvaranju	-10475
▁pravilima	-10476
▁tradiciju	-10477
▁zaštititi	-10478
▁kontinenta	-10479
▁zagrebačke	-10480
▁promijenila	-10481
EC	-10482
bac	-10483
dba	-10484
lia	-10485
▁57	-10486
▁61	-10487
▁62	-10488
▁cm	-10489
dino	-10490
gona	-10491
kana	-10492
knuo	-10493
krea	-10494
ljić	-10495
pozi	-10496
čati	-10497
▁Neu	-10498
▁Upi	-10499
▁dim	-10500
▁loš	-10501
▁set	-10502
Hrvat	-10503
Super	-10504
bijan	-10505
metar	-10506
rijem	-10507
▁išli	-10508
▁zali	-10509
▁Dragi	-10510
▁bruta	-10511
▁grupi	-10512
▁majku	-10513
▁ometa	-10514
▁točke	-10515
▁Oscara	-10516
▁iznose	-10517
▁izvješ	-10518
▁kompro	-10519
▁nadamo	-10520
▁nikome	-10521
▁talent	-10522
▁temama	-10523
▁visoki	-10524
▁vozači	-10525
▁Predsta	-10526
▁dozvolu	-10527
▁mlijeka	-10528
▁pritvor	-10529
▁školske	-10530
▁Mađarska	-10531
▁interpre	-10532
▁naknadno	-10533
▁objašnje	-10534
▁oslobađa	-10535
▁prekršaj	-10536
▁reakciju	-10537
▁trajanju	-10538
▁vozilima	-10539
▁izgledalo	-10540
▁najuspješ	-10541
▁pretposta	-10542
▁prosječna	-10543
▁radionica	-10544
▁redatelja	-10545
▁ispitanika	-10546
▁povjerenja	-10547
▁kombinaciji	-10548
▁talijanskog	-10549
010	-10550
aje	-10551
dva	-10552
dnio	-10553
gare	-10554
rile	-10555
tten	-10556
vini	-10557
▁193	-10558
▁Zra	-10559
▁ane	-10560
▁šti	-10561
gazin	-10562
▁Mail	-10563
▁baka	-10564
▁grup	-10565
▁okus	-10566
▁plje	-10567
▁volo	-10568
▁šoka	-10569
forman	-10570
kratko	-10571
ranjem	-10572
▁Bačić	-10573
▁plaži	-10574
▁razum	-10575
▁sjedi	-10576
▁treću	-10577
▁Često	-10578
▁Gorica	-10579
▁Protiv	-10580
▁delega	-10581
▁motora	-10582
▁nastao	-10583
▁solida	-10584
▁tvrtku	-10585
▁ukupne	-10586
▁vojnog	-10587
▁čekati	-10588
▁Charles	-10589
▁Premier	-10590
▁daljnji	-10591
▁dolasku	-10592
▁kritike	-10593
▁nastoji	-10594
▁ovlasti	-10595
▁stranku	-10596
▁svakoga	-10597
▁Vukovaru	-10598
▁fakultet	-10599
▁kulturno	-10600
▁mladosti	-10601
▁najavili	-10602
▁objaviti	-10603
▁pozicija	-10604
▁protuzra	-10605
▁privatnog	-10606
▁suparnika	-10607
▁djevojčice	-10608
▁identiteta	-10609
▁policajaca	-10610
▁prijedloga	-10611
▁Hercegovini	-10612
godišnjakinja	-10613
▁dijagnostici	-10614
TI	-10615
kg	-10616
ast	-10617
gon	-10618
sco	-10619
čom	-10620
fona	-10621
među	-10622
pise	-10623
timo	-10624
▁Ala	-10625
▁Mou	-10626
▁Swi	-10627
▁flo	-10628
▁use	-10629
kovac	-10630
naest	-10631
onako	-10632
songu	-10633
▁Rude	-10634
▁kale	-10635
▁ruci	-10636
▁sobu	-10637
▁zale	-10638
▁zona	-10639
▁2000.	-10640
▁2005.	-10641
▁James	-10642
▁Pariz	-10643
▁dalji	-10644
▁dezin	-10645
▁dimen	-10646
▁njene	-10647
▁Britan	-10648
▁George	-10649
▁Provje	-10650
▁Putina	-10651
▁brojna	-10652
▁nemate	-10653
▁pjevač	-10654
▁teksta	-10655
▁zabavu	-10656
▁zločin	-10657
▁Madridu	-10658
▁državno	-10659
▁gledamo	-10660
▁položaj	-10661
▁pomogli	-10662
▁ponosni	-10663
▁preveli	-10664
▁sugrađa	-10665
▁termina	-10666
▁ubijeno	-10667
▁Maksimir	-10668
▁državnim	-10669
▁njezinim	-10670
▁trgovini	-10671
▁digitalne	-10672
▁drugačiji	-10673
▁nevrijeme	-10674
▁planiraju	-10675
▁rezultira	-10676
▁tragedija	-10677
▁dogovorili	-10678
▁uvjerljivo	-10679
▁ograničenja	-10680
▁razumijevanje	-10681
gr	-10682
Dst	-10683
Pri	-10684
gar	-10685
tpu	-10686
▁Ćo	-10687
ling	-10688
ping	-10689
▁kap	-10690
▁let	-10691
▁sor	-10692
2024.	-10693
ngham	-10694
nijim	-10695
zapad	-10696
▁Maka	-10697
▁Mešt	-10698
▁Saša	-10699
▁auta	-10700
▁biza	-10701
▁ribe	-10702
▁tepi	-10703
Dstrok	-10704
▁2007.	-10705
▁Crnoj	-10706
▁Leona	-10707
▁Pravi	-10708
▁krije	-10709
▁mojim	-10710
▁očima	-10711
▁vladi	-10712
ljenjem	-10713
▁glazba	-10714
▁lijepa	-10715
▁miješa	-10716
▁mladić	-10717
▁starta	-10718
▁visine	-10719
▁zgradu	-10720
▁obranio	-10721
▁opisuje	-10722
▁posebne	-10723
▁raspisa	-10724
▁svijest	-10725
▁interesu	-10726
▁ispuniti	-10727
▁konstruk	-10728
▁okrivlje	-10729
▁prezenti	-10730
▁Barcelone	-10731
▁Eurosongu	-10732
▁namjerava	-10733
▁predstavu	-10734
▁realizira	-10735
▁katastrofa	-10736
▁Nacionalnog	-10737
▁nacionalnog	-10738
▁Zahvaljujući	-10739
▁financijskih	-10740
Du	-10741
jer	-10742
zza	-10743
piju	-10744
sine	-10745
sret	-10746
▁Pen	-10747
▁Sud	-10748
▁Upo	-10749
▁trž	-10750
janje	-10751
znicu	-10752
▁Dino	-10753
▁golu	-10754
▁imaš	-10755
▁išla	-10756
▁krip	-10757
▁kvar	-10758
▁logo	-10759
▁zime	-10760
▁znaš	-10761
tkinje	-10762
▁Kranj	-10763
▁aerod	-10764
▁bisku	-10765
▁igrat	-10766
▁kruga	-10767
▁makar	-10768
▁oprem	-10769
▁rukom	-10770
▁sunce	-10771
▁10.000	-10772
▁Cijeli	-10773
▁Njezin	-10774
▁Ranije	-10775
▁TikTok	-10776
▁bivšim	-10777
▁dijabe	-10778
▁glazbi	-10779
▁kamera	-10780
▁liniju	-10781
▁objekt	-10782
▁parova	-10783
▁podsje	-10784
▁utorka	-10785
▁YouTube	-10786
▁izborne	-10787
▁naselju	-10788
▁nepotre	-10789
▁presude	-10790
▁uvelike	-10791
▁Baturina	-10792
▁Marković	-10793
▁autobusa	-10794
▁blagdana	-10795
▁mobitela	-10796
▁rasproda	-10797
▁scenarij	-10798
▁suprotno	-10799
▁besplatno	-10800
▁izgradnja	-10801
▁liječenja	-10802
▁popularni	-10803
▁Stručnjaci	-10804
▁povezanost	-10805
▁samostalno	-10806
▁vjerojatnost	-10807
▁kvalifikacije	-10808
ea	-10809
enu	-10810
ise	-10811
ito	-10812
llu	-10813
žit	-10814
▁73	-10815
▁76	-10816
▁FI	-10817
fiel	-10818
gera	-10819
jalo	-10820
kida	-10821
zore	-10822
▁2,5	-10823
▁Ama	-10824
▁gle	-10825
krije	-10826
čenih	-10827
žnije	-10828
▁revi	-10829
čevića	-10830
▁Krama	-10831
▁istar	-10832
▁krila	-10833
▁plavi	-10834
▁špiju	-10835
▁Dodaje	-10836
▁ceremo	-10837
▁folklo	-10838
▁korake	-10839
▁princi	-10840
ljenosti	-10841
▁Domagoj	-10842
▁Rakitić	-10843
▁dodatnu	-10844
▁emocija	-10845
▁osobnim	-10846
▁podignu	-10847
▁pojasni	-10848
▁ponosan	-10849
▁pravilo	-10850
▁primiti	-10851
▁sastava	-10852
▁navedeno	-10853
▁službeni	-10854
▁snimanje	-10855
▁treningu	-10856
▁vlastiti	-10857
/2024/05/1	-10858
▁izgradnji	-10859
▁koristili	-10860
▁naglasiti	-10861
▁prijetnji	-10862
▁Sjedinjene	-10863
▁Washington	-10864
▁gledatelji	-10865
Va	-10866
ket	-10867
mis	-10868
▁53	-10869
▁DC	-10870
▁SO	-10871
Plus	-10872
bura	-10873
elek	-10874
ller	-10875
stim	-10876
vare	-10877
▁Wor	-10878
▁uko	-10879
ženom	-10880
▁Kule	-10881
▁Zapo	-10882
▁dale	-10883
▁dani	-10884
▁disa	-10885
▁miri	-10886
▁osmo	-10887
▁osna	-10888
▁voka	-10889
▁čudo	-10890
▁Marić	-10891
▁Petko	-10892
▁klupe	-10893
▁odije	-10894
▁priči	-10895
▁točka	-10896
▁traju	-10897
▁verba	-10898
▁Chelse	-10899
▁Drugom	-10900
▁Tamara	-10901
▁Vjetar	-10902
▁dječak	-10903
▁iznosa	-10904
▁maneke	-10905
▁odvoje	-10906
▁pojave	-10907
▁suprot	-10908
▁svašta	-10909
▁Državni	-10910
▁Marijan	-10911
▁Poljske	-10912
▁Vatreni	-10913
▁koljena	-10914
▁mjesecu	-10915
▁osjećam	-10916
▁ovakvih	-10917
▁pomogne	-10918
▁povezan	-10919
▁suđenje	-10920
▁tenisač	-10921
▁ukoliko	-10922
▁europska	-10923
▁predvodi	-10924
▁slobodan	-10925
▁uređenje	-10926
▁otvaranja	-10927
▁posjetiti	-10928
▁smještaja	-10929
▁sudionici	-10930
▁zanimljiv	-10931
▁pratitelja	-10932
▁kombinacija	-10933
▁komunikacija	-10934
kt	-10935
:0.	-10936
pus	-10937
čje	-10938
▁63	-10939
▁66	-10940
brzo	-10941
ille	-10942
noda	-10943
▁Con	-10944
▁Lou	-10945
▁aku	-10946
▁ber	-10947
dniji	-10948
ljuju	-10949
strom	-10950
venci	-10951
▁kruh	-10952
▁miši	-10953
▁onom	-10954
▁palo	-10955
▁timu	-10956
Ljubav	-10957
njenih	-10958
▁Benja	-10959
▁golma	-10960
▁mojih	-10961
▁nadbi	-10962
▁počne	-10963
▁sudbi	-10964
▁svome	-10965
▁tanju	-10966
▁Želim	-10967
▁Osjeća	-10968
▁bodove	-10969
▁moguća	-10970
▁obuhva	-10971
▁slične	-10972
injenica	-10973
▁Bayerna	-10974
▁brzinom	-10975
▁djeluju	-10976
▁oslanja	-10977
▁stotina	-10978
▁turizmu	-10979
▁vratara	-10980
▁donijelo	-10981
▁liječnik	-10982
▁novinari	-10983
▁odgovore	-10984
▁odradili	-10985
▁temeljem	-10986
▁uvođenje	-10987
▁Slavoniji	-10988
▁Slovenija	-10989
▁Vladimira	-10990
▁funkciona	-10991
▁klubovima	-10992
▁materijal	-10993
▁pregovore	-10994
▁vjenčanja	-10995
dalmatinske	-10996
▁prostorije	-10997
tec	-10998
ura	-10999
feru	-11000
krca	-11001
ndom	-11002
ntho	-11003
pama	-11004
rici	-11005
tiku	-11006
tini	-11007
▁HTV	-11008
▁Ken	-11009
▁zre	-11010
▁ćeš	-11011
elnik	-11012
spilo	-11013
štene	-11014
▁Inde	-11015
▁Tran	-11016
▁jači	-11017
▁naje	-11018
▁viša	-11019
rovima	-11020
vković	-11021
▁Donna	-11022
▁Leyen	-11023
▁Nešto	-11024
▁cirku	-11025
▁najni	-11026
▁proko	-11027
▁prove	-11028
vljanje	-11029
▁Alexan	-11030
▁Sljede	-11031
▁bijele	-11032
▁hranom	-11033
▁načinu	-11034
▁podnio	-11035
▁radite	-11036
▁sklada	-11037
▁takvom	-11038
▁Jadrana	-11039
▁Juventu	-11040
▁alkohol	-11041
▁gospoda	-11042
▁gradili	-11043
▁nizozem	-11044
▁onemogu	-11045
▁pokraji	-11046
▁povukao	-11047
▁učenike	-11048
▁Sjeverne	-11049
▁Upravnog	-11050
▁dostupna	-11051
▁prehrane	-11052
▁prijavio	-11053
▁prijenos	-11054
▁prijesto	-11055
▁prisjeća	-11056
▁zatražio	-11057
▁iznenadio	-11058
▁korisnike	-11059
▁započinje	-11060
▁automatski	-11061
▁automobile	-11062
▁raspravlja	-11063
▁sigurnosne	-11064
▁stvarnosti	-11065
▁transparen	-11066
vjerojatnije	-11067
▁jednostavan	-11068
▁Konferencijske	-11069
0-	-11070
24	-11071
Ro	-11072
-2,	-11073
ang	-11074
sar	-11075
sce	-11076
tic	-11077
bilo	-11078
cite	-11079
rami	-11080
zila	-11081
čane	-11082
▁Kur	-11083
▁dla	-11084
▁rej	-11085
elimo	-11086
media	-11087
▁Klju	-11088
▁Naši	-11089
▁Roko	-11090
▁luku	-11091
▁toli	-11092
tovalu	-11093
▁Arena	-11094
▁Majka	-11095
▁Mamić	-11096
▁Napra	-11097
▁iznio	-11098
▁morna	-11099
▁prola	-11100
▁sakri	-11101
▁Belupo	-11102
▁France	-11103
▁Nikole	-11104
▁adresu	-11105
▁dovrši	-11106
▁greške	-11107
▁izvući	-11108
▁kladio	-11109
▁kupaca	-11110
▁oblaka	-11111
▁prepla	-11112
▁rođena	-11113
▁sukobu	-11114
▁veseli	-11115
▁vojsku	-11116
▁vožnju	-11117
▁krenulo	-11118
▁nestala	-11119
▁poplave	-11120
▁zakonom	-11121
▁karijera	-11122
▁njezinog	-11123
▁obratiti	-11124
▁oglasila	-11125
▁protivni	-11126
▁svladali	-11127
▁ulaganje	-11128
▁djelovati	-11129
▁izraelski	-11130
▁predvodio	-11131
▁savjetuje	-11132
▁sporazuma	-11133
▁trenutaka	-11134
▁obiteljski	-11135
▁pripremama	-11136
▁stabilnost	-11137
▁komunikacije	-11138
MS	-11139
are	-11140
bin	-11141
gue	-11142
iza	-11143
kte	-11144
kša	-11145
▁Sv	-11146
gaja	-11147
pera	-11148
▁800	-11149
▁Mom	-11150
▁Voj	-11151
▁Ška	-11152
ljima	-11153
misti	-11154
đivao	-11155
▁Midd	-11156
▁efek	-11157
▁jače	-11158
▁lega	-11159
▁leža	-11160
▁most	-11161
▁nemi	-11162
▁post	-11163
▁real	-11164
cijsku	-11165
roviti	-11166
▁cestu	-11167
▁nadma	-11168
▁plije	-11169
▁posre	-11170
▁redom	-11171
▁roman	-11172
▁ulaze	-11173
▁2022.,	-11174
▁Promet	-11175
▁dobiju	-11176
▁doigra	-11177
▁kažnje	-11178
▁period	-11179
▁pojava	-11180
▁svemir	-11181
▁Roberta	-11182
▁Zdravko	-11183
▁bespilo	-11184
▁interak	-11185
▁posjeta	-11186
▁slušati	-11187
▁snijega	-11188
▁srijede	-11189
▁vidjelo	-11190
▁zabrane	-11191
▁zamjenu	-11192
▁zaradio	-11193
▁zastupa	-11194
▁dobivaju	-11195
▁neovisno	-11196
▁njezinih	-11197
▁odjednom	-11198
▁postupno	-11199
▁Roditelji	-11200
▁izraelske	-11201
▁najnovije	-11202
▁proslavio	-11203
▁zadovolja	-11204
▁djevojčica	-11205
▁ozlijeđeno	-11206
▁proizvodnji	-11207
▁razmišljati	-11208
fs	-11209
cro	-11210
ure	-11211
▁56	-11212
▁HS	-11213
▁gi	-11214
▁hr	-11215
hove	-11216
prva	-11217
šiću	-11218
šnom	-11219
▁192	-11220
▁Dom	-11221
imble	-11222
komje	-11223
vnije	-11224
▁laži	-11225
▁paki	-11226
▁uskr	-11227
▁zapu	-11228
▁zače	-11229
stanbu	-11230
zirala	-11231
▁Klara	-11232
▁Korču	-11233
▁Moram	-11234
▁Najvi	-11235
▁Situa	-11236
▁Zakla	-11237
▁evide	-11238
▁kopri	-11239
▁većem	-11240
grafiju	-11241
▁Mladen	-11242
▁Odluka	-11243
▁Poljud	-11244
▁broncu	-11245
▁načine	-11246
▁odjeće	-11247
▁odlaga	-11248
▁odluci	-11249
▁pohađa	-11250
▁povodu	-11251
▁praksi	-11252
▁pravne	-11253
▁prilog	-11254
▁ruskim	-11255
▁svojeg	-11256
▁trendo	-11257
▁žirija	-11258
▁dopušta	-11259
▁gradski	-11260
▁nesreću	-11261
▁obaviti	-11262
▁pravilu	-11263
▁savršen	-11264
▁spasiti	-11265
▁uživaju	-11266
▁prirodno	-11267
▁publikom	-11268
▁dopustiti	-11269
▁europskom	-11270
▁oštećenja	-11271
▁Posljednji	-11272
▁dužnosnika	-11273
▁kategorija	-11274
▁kriptovalu	-11275
anu	-11276
dol	-11277
tha	-11278
tur	-11279
uta	-11280
zde	-11281
čju	-11282
info	-11283
zili	-11284
▁Bad	-11285
▁Bea	-11286
▁Fre	-11287
▁Kle	-11288
▁PSG	-11289
▁Sja	-11290
initi	-11291
jenja	-11292
nošću	-11293
ograd	-11294
ziste	-11295
škovi	-11296
▁Koli	-11297
▁Pupo	-11298
▁igno	-11299
▁noka	-11300
▁pile	-11301
▁piće	-11302
▁soft	-11303
loškim	-11304
▁Netko	-11305
▁Neven	-11306
▁fasci	-11307
▁nožem	-11308
▁opozi	-11309
▁pohva	-11310
▁preba	-11311
▁prođe	-11312
▁punje	-11313
▁stres	-11314
▁uniji	-11315
▁Brazil	-11316
▁Ukupno	-11317
▁bombar	-11318
▁dodati	-11319
▁igramo	-11320
▁izašla	-11321
▁odbaci	-11322
▁snažan	-11323
▁srebro	-11324
▁terori	-11325
▁Nadalje	-11326
▁dizajne	-11327
▁dodatak	-11328
▁izložba	-11329
▁njezini	-11330
▁potvrda	-11331
▁stanica	-11332
▁stupnja	-11333
▁čelnika	-11334
▁američka	-11335
▁dogovora	-11336
▁kontaktu	-11337
▁odgovora	-11338
▁provjere	-11339
▁prošlost	-11340
▁Kovačević	-11341
▁migranata	-11342
▁oduševila	-11343
▁očekujemo	-11344
▁pronađeno	-11345
▁Zagrebačke	-11346
▁policijske	-11347
▁stanovnici	-11348
▁natjecatelj	-11349
▁organizirati	-11350
▁manifestacije	-11351
▁parlamentarne	-11352
Vo	-11353
2),	-11354
Kad	-11355
amo	-11356
ari	-11357
her	-11358
kol	-11359
nat	-11360
ola	-11361
bota	-11362
nimo	-11363
▁Dre	-11364
▁Hil	-11365
▁tlo	-11366
▁Paul	-11367
▁Uoči	-11368
▁crne	-11369
▁faza	-11370
▁nera	-11371
▁setu	-11372
▁valu	-11373
▁vira	-11374
▁Fakul	-11375
▁Parti	-11376
▁Vekić	-11377
▁dulji	-11378
▁javna	-11379
▁prevo	-11380
▁ratne	-11381
tnicima	-11382
▁Belupa	-11383
▁Kongre	-11384
▁Middle	-11385
▁Možete	-11386
▁Odbora	-11387
▁Razlog	-11388
▁atleti	-11389
▁branio	-11390
▁liniji	-11391
▁pažnje	-11392
▁podzem	-11393
▁presko	-11394
▁ždrije	-11395
neretvan	-11396
▁Andrija	-11397
▁Bliskom	-11398
▁Građani	-11399
▁krajeva	-11400
▁poznaje	-11401
▁počinio	-11402
▁rekavši	-11403
▁tribina	-11404
▁vodstva	-11405
▁zapadne	-11406
▁Poljskoj	-11407
▁Zvonimir	-11408
▁energija	-11409
▁izvođača	-11410
▁najvećeg	-11411
▁poginula	-11412
▁redovima	-11413
▁shvatila	-11414
▁shvatili	-11415
▁tehnički	-11416
▁američkim	-11417
▁protivnik	-11418
▁smanjenja	-11419
▁vlastitim	-11420
▁zaslužuje	-11421
▁Koprivnici	-11422
▁neposredno	-11423
▁odvjetništvu	-11424
▁predsjednički	-11425
25	-11426
38	-11427
Iz	-11428
ilo	-11429
lip	-11430
lix	-11431
ney	-11432
tes	-11433
▁Zi	-11434
dena	-11435
pala	-11436
pali	-11437
zdra	-11438
▁BMW	-11439
▁Emi	-11440
▁Kva	-11441
▁Obu	-11442
rniku	-11443
čkoga	-11444
▁Duje	-11445
▁Novu	-11446
▁Stor	-11447
▁Supe	-11448
▁duha	-11449
▁idem	-11450
▁izvi	-11451
▁naci	-11452
▁odbo	-11453
▁soba	-11454
▁viši	-11455
▁Akade	-11456
▁aspek	-11457
▁davno	-11458
▁dekla	-11459
▁hitnu	-11460
▁izdao	-11461
▁čisto	-11462
▁Branka	-11463
▁Medite	-11464
▁Srećom	-11465
▁biraju	-11466
▁doveli	-11467
▁glavnu	-11468
▁ionako	-11469
▁izvodi	-11470
▁labora	-11471
▁pisalo	-11472
▁počast	-11473
▁pripra	-11474
▁uvesti	-11475
▁civilne	-11476
▁gradnje	-11477
▁gubitka	-11478
▁kompone	-11479
▁najskup	-11480
▁tribine	-11481
▁dvadeset	-11482
▁neprihva	-11483
▁okrenuti	-11484
▁započeti	-11485
▁koncerata	-11486
▁performan	-11487
▁pojedinim	-11488
▁umjetnost	-11489
▁obljetnice	-11490
▁samouprave	-11491
▁Jandroković	-11492
▁električnih	-11493
▁prijateljica	-11494
▁fotografijama	-11495
-7	-11496
ds	-11497
1),	-11498
lis	-11499
žar	-11500
▁SU	-11501
lene	-11502
ljni	-11503
pina	-11504
teni	-11505
tića	-11506
čeva	-11507
▁pok	-11508
▁sol	-11509
▁zap	-11510
▁Šte	-11511
ameri	-11512
kvali	-11513
lnije	-11514
lošku	-11515
nički	-11516
posto	-11517
venih	-11518
▁Broj	-11519
▁Miho	-11520
▁pija	-11521
▁play	-11522
tional	-11523
▁Genna	-11524
▁Jakov	-11525
▁Priča	-11526
▁Rekla	-11527
▁Vladu	-11528
▁brend	-11529
▁dečki	-11530
▁droga	-11531
▁grafi	-11532
▁kanal	-11533
▁kopnu	-11534
▁parku	-11535
▁slaga	-11536
▁izasla	-11537
▁spozna	-11538
▁teških	-11539
▁dopusti	-11540
▁poticaj	-11541
▁prolaze	-11542
▁širenje	-11543
▁Mađarske	-11544
▁Navijači	-11545
▁blagoslo	-11546
▁komisija	-11547
▁komplici	-11548
▁oduševio	-11549
▁posjetio	-11550
▁prehranu	-11551
▁proljeće	-11552
▁prometni	-11553
▁svjetska	-11554
▁premijeru	-11555
▁svjetskim	-11556
▁vjerujemo	-11557
▁Vjerojatno	-11558
▁polufinala	-11559
▁financiranje	-11560
▁organizaciju	-11561
▁najpoznatijih	-11562
BI	-11563
LO	-11564
hy	-11565
ivi	-11566
kni	-11567
nie	-11568
ult	-11569
larm	-11570
mane	-11571
mona	-11572
stin	-11573
toga	-11574
▁Hol	-11575
▁Phi	-11576
▁Put	-11577
▁Val	-11578
▁Zah	-11579
▁mal	-11580
▁zvo	-11581
snica	-11582
▁Crna	-11583
▁Nama	-11584
▁Pala	-11585
▁koka	-11586
▁kožu	-11587
▁leži	-11588
▁muzi	-11589
habili	-11590
vedeni	-11591
▁Anali	-11592
▁Vesna	-11593
▁Znamo	-11594
▁banko	-11595
▁bitna	-11596
▁centa	-11597
▁kralj	-11598
▁motiv	-11599
▁okrša	-11600
▁oštro	-11601
▁paket	-11602
▁plaža	-11603
▁samoj	-11604
▁slado	-11605
▁šesna	-11606
▁Cijene	-11607
▁Horvat	-11608
▁Sloven	-11609
▁debiti	-11610
▁glumca	-11611
▁napadi	-11612
▁poviše	-11613
▁protek	-11614
▁radost	-11615
▁ruskom	-11616
▁tekući	-11617
▁tjednu	-11618
▁vozilu	-11619
▁činiti	-11620
▁Vukovar	-11621
▁inspiri	-11622
▁namjera	-11623
▁portala	-11624
▁pratili	-11625
▁prijeno	-11626
▁sastoja	-11627
godišnjoj	-11628
▁dijelovi	-11629
▁nikakvih	-11630
▁poduzeti	-11631
▁pritiska	-11632
▁Barceloni	-11633
▁kazališta	-11634
▁kilometra	-11635
▁odgovoran	-11636
▁potpisuje	-11637
▁pritiskom	-11638
▁stvaranju	-11639
▁učenicima	-11640
▁zajednicu	-11641
▁objavljuje	-11642
▁poprilično	-11643
▁perspektive	-11644
▁temperaturu	-11645
lec	-11646
sor	-11647
▁Yo	-11648
hama	-11649
kera	-11650
urop	-11651
usta	-11652
zona	-11653
▁Kno	-11654
▁Mur	-11655
▁dar	-11656
njski	-11657
▁Atla	-11658
▁Bože	-11659
▁Papa	-11660
▁Poru	-11661
▁kade	-11662
▁osve	-11663
▁zbri	-11664
▁zida	-11665
▁Merce	-11666
▁Profi	-11667
▁Sjeća	-11668
▁dotak	-11669
▁konte	-11670
▁prozi	-11671
▁selek	-11672
▁subje	-11673
▁važnu	-11674
▁visok	-11675
▁Volodi	-11676
▁kvarta	-11677
▁litara	-11678
▁natrag	-11679
▁praksa	-11680
▁sletio	-11681
▁svježi	-11682
▁štrajk	-11683
▁Budimpe	-11684
▁Navodno	-11685
▁Zajedno	-11686
▁dvojice	-11687
▁glavnim	-11688
▁gradska	-11689
▁intelek	-11690
▁izlaska	-11691
▁mislili	-11692
▁naknadu	-11693
▁nastupe	-11694
▁održala	-11695
▁stožera	-11696
▁cjelokup	-11697
▁djevojku	-11698
▁izazvalo	-11699
▁ljudskih	-11700
▁otvorili	-11701
▁površina	-11702
▁princeza	-11703
▁transfer	-11704
▁vrhunski	-11705
▁interneta	-11706
▁ozljedama	-11707
▁prihvatio	-11708
▁dvadesetak	-11709
▁političkim	-11710
▁posljednjoj	-11711
▁manifestacija	-11712
23	-11713
NO	-11714
Naj	-11715
obu	-11716
rum	-11717
▁2,	-11718
▁Ya	-11719
fija	-11720
lske	-11721
mpom	-11722
rkos	-11723
▁(20	-11724
▁180	-11725
▁CNN	-11726
▁ten	-11727
misle	-11728
produ	-11729
▁Deta	-11730
▁Gale	-11731
▁Godi	-11732
▁aler	-11733
▁deli	-11734
▁dušu	-11735
▁isla	-11736
▁kabi	-11737
▁meča	-11738
▁peda	-11739
▁zaru	-11740
▁zbor	-11741
jković	-11742
ljivih	-11743
tirali	-11744
šnjaka	-11745
▁2004.	-11746
▁Mlina	-11747
▁Polja	-11748
▁brodu	-11749
▁kazni	-11750
▁nijan	-11751
▁podca	-11752
▁predu	-11753
▁uzeli	-11754
▁venti	-11755
▁Cristi	-11756
▁Njihov	-11757
▁dnevni	-11758
▁izmije	-11759
▁jučera	-11760
▁kakvom	-11761
▁koraka	-11762
▁minutu	-11763
▁regija	-11764
▁sjajna	-11765
▁snimio	-11766
▁stakle	-11767
▁vješti	-11768
▁Dinamom	-11769
▁Legenda	-11770
▁Rusijom	-11771
▁braniti	-11772
▁epizodi	-11773
▁slavila	-11774
▁suzdrža	-11775
▁učinili	-11776
▁vrhunac	-11777
▁Štoviše	-11778
▁životom	-11779
▁Miroslav	-11780
▁interese	-11781
▁mentalno	-11782
▁povezani	-11783
▁energijom	-11784
▁mišljenju	-11785
▁određenih	-11786
▁operaciju	-11787
▁potrebama	-11788
▁zabrinuti	-11789
-11	-11790
OCM	-11791
ovu	-11792
uth	-11793
čeve	-11794
čile	-11795
▁Lea	-11796
▁Sna	-11797
▁dob	-11798
▁izi	-11799
▁pse	-11800
▁pče	-11801
▁žan	-11802
ljela	-11803
▁Blan	-11804
▁Dire	-11805
▁Kape	-11806
▁Kori	-11807
▁Snim	-11808
▁Vara	-11809
▁Vili	-11810
▁leta	-11811
▁mase	-11812
▁rasi	-11813
▁selo	-11814
▁vrha	-11815
▁Crkve	-11816
▁Iskre	-11817
▁Nives	-11818
▁Richa	-11819
▁Topli	-11820
▁bitan	-11821
▁bliže	-11822
▁izveo	-11823
▁smeće	-11824
▁socio	-11825
▁vojnu	-11826
▁čudno	-11827
cijskoj	-11828
▁Federa	-11829
▁Viktor	-11830
▁bogate	-11831
▁drasti	-11832
▁ekstra	-11833
▁imigra	-11834
▁odobri	-11835
▁osobom	-11836
▁ponoći	-11837
▁teškom	-11838
▁analize	-11839
▁brigade	-11840
▁kuhinji	-11841
▁mislite	-11842
▁podršci	-11843
▁spremno	-11844
▁veznjak	-11845
▁vraćaju	-11846
▁detaljno	-11847
▁horoskop	-11848
▁količinu	-11849
▁namjerno	-11850
▁objavlji	-11851
▁ponoviti	-11852
▁prometnu	-11853
▁raspravu	-11854
▁kontrolom	-11855
▁ministara	-11856
▁osvajanje	-11857
▁radnicima	-11858
▁tribinama	-11859
▁hrvatskoga	-11860
▁nogometaši	-11861
▁prisutnost	-11862
▁rješavanje	-11863
▁grmljavinom	-11864
▁inicijative	-11865
▁izbjegavati	-11866
▁institucijama	-11867
▁najvjerojatnije	-11868
.)	-11869
bel	-11870
ile	-11871
knu	-11872
neu	-11873
pta	-11874
sic	-11875
svi	-11876
cati	-11877
etku	-11878
kića	-11879
kšić	-11880
lago	-11881
▁Blo	-11882
▁Den	-11883
▁Hit	-11884
▁Ina	-11885
▁Shi	-11886
ljivu	-11887
prkos	-11888
tnike	-11889
▁Prve	-11890
▁Sred	-11891
▁otpu	-11892
▁stri	-11893
▁usko	-11894
▁zaga	-11895
▁Berna	-11896
▁Nagra	-11897
▁Prona	-11898
▁astro	-11899
▁brige	-11900
▁grije	-11901
▁imuni	-11902
▁japan	-11903
▁najra	-11904
▁proži	-11905
▁ručak	-11906
▁samih	-11907
▁smjer	-11908
▁tešku	-11909
▁švica	-11910
genciju	-11911
▁Franje	-11912
▁Jedino	-11913
▁dodali	-11914
▁obećao	-11915
▁povrća	-11916
▁tereti	-11917
▁Pašalić	-11918
▁dionice	-11919
▁hladnja	-11920
▁manjine	-11921
▁nepravi	-11922
▁nikakav	-11923
▁prezime	-11924
▁smanjio	-11925
zapadnjak	-11926
▁Američki	-11927
▁Beograda	-11928
▁Dortmund	-11929
▁Zadarske	-11930
▁gradskim	-11931
▁izbornog	-11932
▁njemačke	-11933
▁objašnja	-11934
▁održivog	-11935
▁osjećati	-11936
▁utvrditi	-11937
▁potvrditi	-11938
▁Milanoviću	-11939
▁inspektora	-11940
▁teritoriju	-11941
▁državljanin	-11942
▁komentirali	-11943
▁ovogodišnji	-11944
▁poluvrijeme	-11945
4,	-11946
98	-11947
▁Sy	-11948
boli	-11949
cira	-11950
doča	-11951
ljio	-11952
pote	-11953
uzro	-11954
šala	-11955
▁10-	-11956
▁Mio	-11957
▁Sce	-11958
▁Win	-11959
▁uop	-11960
▁zgo	-11961
▁čin	-11962
landa	-11963
vatre	-11964
vnicu	-11965
znike	-11966
▁Loka	-11967
▁Lope	-11968
▁Osvr	-11969
▁Tina	-11970
▁bend	-11971
▁kami	-11972
▁mara	-11973
▁prim	-11974
▁rođe	-11975
▁uzme	-11976
prosto	-11977
ranske	-11978
slaven	-11979
▁Pravo	-11980
▁Stani	-11981
▁Svako	-11982
▁Tonči	-11983
▁cjepi	-11984
▁ispao	-11985
▁korek	-11986
▁malog	-11987
▁moraš	-11988
▁naglo	-11989
▁najbr	-11990
▁nervo	-11991
▁podvr	-11992
▁riski	-11993
▁siste	-11994
▁snova	-11995
▁takoz	-11996
▁zvuči	-11997
▁čelni	-11998
▁šesti	-11999
▁školo	-12000
▁Andrea	-12001
▁Benčić	-12002
▁Dončić	-12003
▁Hrvate	-12004
▁Marije	-12005
▁Poziva	-12006
▁Uskoro	-12007
▁pisati	-12008
▁radnim	-12009
▁slasti	-12010
▁sličan	-12011
▁Istanbu	-12012
▁Tempera	-12013
▁informi	-12014
▁izborio	-12015
▁krevetu	-12016
▁pojedin	-12017
▁pričati	-12018
▁promila	-12019
▁Bundesli	-12020
▁Hrvatsko	-12021
▁Znanstve	-12022
▁donesena	-12023
▁dvorištu	-12024
▁ekskluzi	-12025
▁funkcije	-12026
▁njezinoj	-12027
▁nositelj	-12028
▁pogreške	-12029
▁Middleton	-12030
▁Razgovara	-12031
▁nastupila	-12032
▁omogućava	-12033
▁prisjetio	-12034
▁propustio	-12035
▁službenoj	-12036
▁splitskom	-12037
▁transpare	-12038
▁djelomično	-12039
▁izjednačio	-12040
▁okupljanje	-12041
▁prethodnih	-12042
▁zanimljiva	-12043
▁policijskih	-12044
▁posljednjim	-12045
▁sigurnosnih	-12046
▁zapošljavanje	-12047
IA	-12048
cm	-12049
glu	-12050
rja	-12051
▁yo	-12052
▁Ći	-12053
ford	-12054
pite	-12055
rita	-12056
sson	-12057
ther	-12058
zala	-12059
▁Dim	-12060
▁Idu	-12061
▁oka	-12062
▁von	-12063
dnima	-12064
ldemo	-12065
vanog	-12066
zović	-12067
činom	-12068
žnost	-12069
▁Duba	-12070
▁Grmo	-12071
▁Otka	-12072
▁Sana	-12073
▁skro	-12074
▁trud	-12075
▁udob	-12076
▁Čeka	-12077
▁šoku	-12078
stičke	-12079
stveni	-12080
▁1998.	-12081
▁Posta	-12082
▁Uspje	-12083
▁brigu	-12084
▁danom	-12085
▁insta	-12086
▁ishod	-12087
▁proše	-12088
▁saslu	-12089
▁stalo	-12090
▁Istina	-12091
▁Milana	-12092
▁Nikada	-12093
▁kapeta	-12094
▁lijeve	-12095
▁obnova	-12096
▁odlaze	-12097
▁pogađa	-12098
▁presre	-12099
▁sjajne	-12100
▁svetog	-12101
▁uznemi	-12102
▁zakaza	-12103
▁zakoni	-12104
▁čelnik	-12105
▁Interna	-12106
▁Michael	-12107
▁ciklusa	-12108
▁naknada	-12109
▁ostanak	-12110
▁porasla	-12111
▁povjere	-12112
▁presuda	-12113
▁sastoji	-12114
▁smijemo	-12115
▁angažman	-12116
▁gradskom	-12117
▁odlučuju	-12118
▁odustati	-12119
▁pojaviti	-12120
▁simptome	-12121
▁telefona	-12122
▁upotrije	-12123
▁Pjevačica	-12124
▁prosvjeda	-12125
▁Amerikanci	-12126
▁pripremaju	-12127
▁svojedobno	-12128
▁Jednostavno	-12129
▁primijetili	-12130
LS	-12131
PI	-12132
lub	-12133
obi	-12134
oto	-12135
Što	-12136
▁Đa	-12137
crta	-12138
jnom	-12139
njić	-12140
nome	-12141
obra	-12142
ovoj	-12143
▁Omi	-12144
▁Teh	-12145
▁hek	-12146
varno	-12147
▁Anti	-12148
▁Optu	-12149
▁žiri	-12150
▁Marce	-12151
▁Marku	-12152
▁frizu	-12153
▁imple	-12154
▁južno	-12155
▁kriza	-12156
▁kupci	-12157
▁lijek	-12158
▁okusa	-12159
▁radna	-12160
▁Strije	-12161
▁Wimble	-12162
▁birali	-12163
▁obusta	-12164
▁poveli	-12165
▁regiju	-12166
▁slatki	-12167
▁sudeći	-12168
▁tramva	-12169
▁Bjeloru	-12170
▁jačanje	-12171
▁kolnika	-12172
▁povrije	-12173
▁referen	-12174
▁stabili	-12175
▁transak	-12176
▁zabranu	-12177
▁čekanja	-12178
▁događaje	-12179
▁engleski	-12180
▁naročito	-12181
▁oporavka	-12182
▁podsjeti	-12183
▁veličine	-12184
▁doprinosi	-12185
▁komunisti	-12186
▁pronađena	-12187
▁zanimanja	-12188
▁francuskog	-12189
▁okupljanja	-12190
▁političari	-12191
▁predavanja	-12192
▁službenika	-12193
▁spektakula	-12194
▁najvažnijih	-12195
▁predstavila	-12196
▁preporučuje	-12197
▁razmišljanja	-12198
▁zdravstvenog	-12199
bah	-12200
ror	-12201
vam	-12202
▁59	-12203
rnuo	-12204
tkri	-12205
▁DIP	-12206
▁Mat	-12207
▁SOA	-12208
▁usi	-12209
▁uva	-12210
5.000	-12211
jević	-12212
ktori	-12213
pogla	-12214
ranti	-12215
▁Izvr	-12216
▁Mona	-12217
▁Usko	-12218
▁boju	-12219
▁gume	-12220
▁mrša	-12221
▁nađe	-12222
▁trik	-12223
▁vlak	-12224
▁vođa	-12225
ljivim	-12226
witter	-12227
▁Neret	-12228
▁kućan	-12229
▁nazna	-12230
▁pobri	-12231
▁ultra	-12232
▁Domaći	-12233
▁Filipa	-12234
▁kardio	-12235
▁manipu	-12236
▁mrtvih	-12237
▁nećete	-12238
▁nigdje	-12239
▁opasne	-12240
▁porije	-12241
▁prakse	-12242
▁smrtno	-12243
▁visoku	-12244
▁vožnji	-12245
▁Želimo	-12246
▁Barbara	-12247
▁Poljska	-12248
▁Vidović	-12249
▁djetetu	-12250
▁gradnju	-12251
▁haljinu	-12252
▁najviša	-12253
▁prouzro	-12254
▁signali	-12255
▁susjeda	-12256
▁lijekova	-12257
▁medijske	-12258
▁odabrati	-12259
▁predlaže	-12260
▁splitsko	-12261
▁tvrtkama	-12262
▁ugostiti	-12263
▁zakonoda	-12264
▁sportskim	-12265
▁upozorila	-12266
▁političara	-12267
▁središnjoj	-12268
▁djetinjstva	-12269
▁Županijskog	-12270
▁podrazumijeva	-12271
▁profesionalni	-12272
3,	-12273
-1,	-12274
daš	-12275
dow	-12276
iju	-12277
nic	-12278
▁67	-12279
▁En	-12280
jali	-12281
tete	-12282
toru	-12283
čega	-12284
▁19-	-12285
▁Age	-12286
▁Spi	-12287
llywo	-12288
čniji	-12289
žniji	-12290
▁Brod	-12291
▁Cent	-12292
▁Gala	-12293
▁Izlo	-12294
▁Mora	-12295
▁entu	-12296
▁suče	-12297
▁Bojan	-12298
▁Borna	-12299
▁Jasno	-12300
▁Kakav	-12301
▁djelu	-12302
▁efika	-12303
▁junio	-12304
▁masno	-12305
▁parka	-12306
▁plaže	-12307
▁pluća	-12308
▁ritam	-12309
vencije	-12310
▁Cityja	-12311
▁klubom	-12312
▁osnovi	-12313
▁pitala	-12314
▁snimci	-12315
▁starih	-12316
▁Najviša	-12317
▁emisiju	-12318
▁rođenja	-12319
▁verzija	-12320
▁znakovi	-12321
▁čovjeku	-12322
▁Izbornik	-12323
▁Jakirovi	-12324
▁Libanonu	-12325
▁donosimo	-12326
▁državnoj	-12327
▁entuzija	-12328
▁invazije	-12329
▁odlučuje	-12330
▁ostavila	-12331
▁pobjegao	-12332
▁pogotkom	-12333
▁pogrešno	-12334
▁polovici	-12335
▁preuzela	-12336
▁proslave	-12337
▁saznanja	-12338
▁sjednicu	-12339
▁inflacija	-12340
▁istražuje	-12341
▁minimalno	-12342
▁poginulih	-12343
▁prijavila	-12344
▁klimatskih	-12345
▁neslužbeno	-12346
▁ozlijeđena	-12347
▁učinkoviti	-12348
▁zajedničke	-12349
▁asistencije	-12350
▁financijsku	-12351
▁iznenađenja	-12352
▁kandidatima	-12353
▁ukrajinskih	-12354
▁potencijalne	-12355
II	-12356
".,	-12357
sma	-12358
zbi	-12359
zon	-12360
đim	-12361
▁Ly	-12362
fica	-12363
čiću	-12364
▁50-	-12365
▁Art	-12366
▁Hen	-12367
▁Mon	-12368
nirao	-12369
tekti	-12370
turom	-12371
ženim	-12372
▁HGSS	-12373
▁Rome	-12374
▁beba	-12375
▁duše	-12376
▁povi	-12377
▁uvre	-12378
▁vjen	-12379
▁čuje	-12380
gledno	-12381
liraju	-12382
▁Jurić	-12383
▁Jučer	-12384
▁Schol	-12385
▁Sutra	-12386
▁hvale	-12387
▁pojma	-12388
▁seksa	-12389
▁stići	-12390
▁ugled	-12391
▁unija	-12392
▁čista	-12393
ljenost	-12394
ravnote	-12395
▁Dodala	-12396
▁Genera	-12397
▁Zavoda	-12398
▁gradom	-12399
▁kažnja	-12400
▁krijum	-12401
▁odbije	-12402
▁parale	-12403
▁prizem	-12404
▁radika	-12405
▁spušta	-12406
▁usvaja	-12407
▁Čovjek	-12408
▁Financi	-12409
▁brinuti	-12410
▁državna	-12411
▁kredita	-12412
▁kupcima	-12413
▁mjerama	-12414
▁nadzora	-12415
▁najgore	-12416
▁odabrao	-12417
▁oduzima	-12418
▁sustave	-12419
▁životne	-12420
▁Istaknuo	-12421
▁Sportske	-12422
▁funkciji	-12423
▁najmlađi	-12424
▁obnovlji	-12425
▁očuvanje	-12426
▁pogodila	-12427
▁rehabili	-12428
▁Britaniji	-12429
▁dvostruko	-12430
▁nastavili	-12431
▁profesora	-12432
▁vlastitom	-12433
▁analitičar	-12434
▁intenzivno	-12435
▁nacionalnu	-12436
▁odgovorili	-12437
▁poštovanje	-12438
▁kandidaturu	-12439
▁proizvodima	-12440
▁sudjelovalo	-12441
▁zdravstveni	-12442
▁zdravstveno	-12443
▁posljedicama	-12444
▁nezadovoljstvo	-12445
16	-12446
CA	-12447
SK	-12448
Te	-12449
lum	-12450
npr	-12451
rcu	-12452
Kako	-12453
gira	-12454
keta	-12455
losr	-12456
nada	-12457
siju	-12458
ženu	-12459
▁18-	-12460
▁Leo	-12461
▁OPG	-12462
▁Trg	-12463
rstva	-12464
stite	-12465
▁Bosi	-12466
▁Gora	-12467
▁Jane	-12468
▁Knji	-12469
▁Pogo	-12470
▁istr	-12471
▁izri	-12472
▁neči	-12473
▁padu	-12474
▁rura	-12475
▁zovu	-12476
▁čudi	-12477
▁Žena	-12478
▁Antho	-12479
▁Fener	-12480
▁Matej	-12481
▁Sesve	-12482
▁Times	-12483
▁ansam	-12484
▁funti	-12485
▁kopne	-12486
▁pokva	-12487
▁princ	-12488
▁ruska	-12489
▁torbi	-12490
▁uvodi	-12491
▁živio	-12492
▁Vijeće	-12493
▁blagda	-12494
▁borila	-12495
▁dječje	-12496
▁gorivo	-12497
▁izrade	-12498
▁kulina	-12499
▁ljetne	-12500
▁vozače	-12501
▁Glavnog	-12502
▁Pitanje	-12503
▁Ponekad	-12504
▁ambicio	-12505
▁iznosio	-12506
▁mladića	-12507
▁oblačno	-12508
▁postanu	-12509
▁pružaju	-12510
▁susjedi	-12511
▁zadnjoj	-12512
▁Primorca	-12513
▁Priprema	-12514
▁dobrobit	-12515
▁kratkoro	-12516
▁orkestar	-12517
▁pojavlji	-12518
▁povjesni	-12519
▁prekomje	-12520
▁suvereni	-12521
▁uzrokuje	-12522
▁vještina	-12523
▁Općinskog	-12524
▁godišnjoj	-12525
▁komentare	-12526
▁mijenjaju	-12527
▁razgovore	-12528
▁automobili	-12529
▁intelektua	-12530
▁nacionalni	-12531
▁odgovarati	-12532
▁podijelili	-12533
▁Sveučilištu	-12534
▁nacionalnoj	-12535
▁učinkovitost	-12536
Le	-12537
ON	-12538
:1.	-12539
▁72	-12540
▁PR	-12541
▁Ry	-12542
miro	-12543
▁33.	-12544
▁90-	-12545
▁Jug	-12546
▁Kul	-12547
▁Sum	-12548
▁Uma	-12549
▁Vic	-12550
dstva	-12551
jućim	-12552
ndana	-12553
nzije	-12554
renim	-12555
stana	-12556
tions	-12557
tnija	-12558
znost	-12559
zvali	-12560
šnice	-12561
▁Alca	-12562
▁Loši	-12563
▁Ovim	-12564
▁Sama	-12565
▁Save	-12566
▁aran	-12567
▁eufo	-12568
▁mlje	-12569
▁seta	-12570
čarima	-12571
▁1995.	-12572
▁Gradi	-12573
▁Irana	-12574
▁Prvom	-12575
▁Ustav	-12576
▁Zapad	-12577
▁bubre	-12578
▁jeste	-12579
▁očiju	-12580
▁polaz	-12581
▁ulazu	-12582
▁Šarić	-12583
bijanje	-12584
▁Ancelo	-12585
▁Moskvi	-12586
▁Uslije	-12587
▁banaka	-12588
▁divlja	-12589
▁genoci	-12590
▁napali	-12591
▁napore	-12592
▁oporba	-12593
▁potres	-12594
▁srećom	-12595
▁uslugu	-12596
▁zabili	-12597
▁gradovi	-12598
▁hektara	-12599
▁iskorak	-12600
▁nastupu	-12601
▁odrasta	-12602
▁osmisli	-12603
▁otocima	-12604
▁otpadom	-12605
▁spavati	-12606
▁uspjehe	-12607
▁žrtvama	-12608
cionirati	-12609
▁Organiza	-12610
▁događalo	-12611
▁izabrati	-12612
▁neprimje	-12613
▁odabrala	-12614
▁raspored	-12615
▁središte	-12616
▁stabilno	-12617
▁Hezbolaha	-12618
▁autoceste	-12619
▁doživjeti	-12620
▁kvaliteti	-12621
▁najboljem	-12622
▁njemačkog	-12623
▁otkrivaju	-12624
▁pojedinci	-12625
▁prekinuti	-12626
▁producent	-12627
▁zaustavio	-12628
▁popularnost	-12629
▁zaposlenici	-12630
DA	-12631
Gra	-12632
jci	-12633
nne	-12634
srp	-12635
zić	-12636
▁(9	-12637
▁68	-12638
▁GP	-12639
riva	-12640
roni	-12641
tter	-12642
▁Ari	-12643
▁Eri	-12644
▁Hla	-12645
▁Por	-12646
▁Tea	-12647
▁Tin	-12648
▁kal	-12649
▁oce	-12650
▁uzo	-12651
canje	-12652
hrvat	-12653
klapa	-12654
leksi	-12655
vskoj	-12656
▁Foku	-12657
▁Mini	-12658
▁debe	-12659
▁papa	-12660
▁razd	-12661
▁rece	-12662
▁viđa	-12663
▁zapi	-12664
strati	-12665
▁Pjaca	-12666
▁Vozač	-12667
▁demon	-12668
▁kartu	-12669
▁magne	-12670
▁oprez	-12671
▁staza	-12672
▁vašim	-12673
elektra	-12674
▁Božića	-12675
▁Kijevu	-12676
▁Radovi	-12677
▁Renata	-12678
▁Zastup	-12679
▁ambije	-12680
▁domaća	-12681
▁dovela	-12682
▁odbila	-12683
▁podići	-12684
▁pranje	-12685
▁prepri	-12686
▁realno	-12687
▁utječu	-12688
▁čvrsto	-12689
▁Gradske	-12690
▁Kalinić	-12691
▁dionici	-12692
▁dronova	-12693
▁odrasle	-12694
▁pisanju	-12695
▁plaćaju	-12696
▁potpisi	-12697
▁pozvali	-12698
▁srpskog	-12699
▁ugovore	-12700
▁zadobio	-12701
▁Antonija	-12702
▁agresije	-12703
▁kaznenom	-12704
▁nedaleko	-12705
▁provedbu	-12706
▁sjednica	-12707
▁trenerom	-12708
▁klimatske	-12709
▁obavijest	-12710
▁odgovorni	-12711
▁popraviti	-12712
▁popularna	-12713
▁slobodnog	-12714
▁smanjenju	-12715
▁teritorij	-12716
▁zatvorena	-12717
▁završetku	-12718
fterDisplay	-12719
▁Profimedia	-12720
▁napomenuti	-12721
▁prepoznali	-12722
▁primijetio	-12723
▁financijska	-12724
▁jugozapadni	-12725
▁sjeveroisto	-12726
▁zdravstvenim	-12727
De	-12728
Di	-12729
VA	-12730
os	-12731
ale	-12732
ben	-12733
ida	-12734
tal	-12735
ghan	-12736
ryja	-12737
sove	-12738
▁130	-12739
▁2:1	-12740
▁III	-12741
▁Klo	-12742
▁Špi	-12743
dnjom	-12744
ntica	-12745
▁Jure	-12746
▁Step	-12747
▁izba	-12748
▁izdr	-12749
▁plja	-12750
▁sing	-12751
▁sira	-12752
▁udje	-12753
▁upis	-12754
▁zvao	-12755
▁Šime	-12756
tljiva	-12757
zirane	-12758
▁Thomp	-12759
▁Zapre	-12760
▁broji	-12761
▁držao	-12762
▁glava	-12763
▁morat	-12764
▁Đurđe	-12765
▁Gorici	-12766
▁hranji	-12767
▁lijevo	-12768
▁mobili	-12769
▁opciju	-12770
▁petero	-12771
▁povrće	-12772
▁rekrea	-12773
▁trajao	-12774
▁domaćim	-12775
▁haljini	-12776
▁izglasa	-12777
▁izlazak	-12778
▁kulturi	-12779
▁slavlja	-12780
▁dokument	-12781
▁dolaskom	-12782
▁druženja	-12783
▁neugodno	-12784
▁prosvjed	-12785
▁računati	-12786
▁trgovinu	-12787
▁uhićenja	-12788
▁zaraditi	-12789
▁detaljima	-12790
▁engleskog	-12791
▁koristeći	-12792
▁potrošača	-12793
▁svjetskom	-12794
▁uslijedio	-12795
▁počinitelj	-12796
▁spašavanja	-12797
▁iskoristili	-12798
Pu	-12799
ts	-12800
hen	-12801
tex	-12802
zmi	-12803
▁Ah	-12804
Nije	-12805
kija	-12806
pove	-12807
taju	-12808
ćevu	-12809
čali	-12810
đite	-12811
▁Biv	-12812
▁War	-12813
▁dnu	-12814
▁jez	-12815
▁kim	-12816
dniku	-12817
ljeva	-12818
ćenog	-12819
▁Ella	-12820
▁Naše	-12821
▁Vaša	-12822
▁kino	-12823
▁reli	-12824
▁samu	-12825
▁tren	-12826
▁zaka	-12827
▁Ivane	-12828
▁Sudac	-12829
▁Vikto	-12830
▁desne	-12831
▁dragi	-12832
▁gorju	-12833
▁pošta	-12834
▁ratni	-12835
▁sjede	-12836
▁stepe	-12837
▁zapje	-12838
čavanja	-12839
▁Totten	-12840
▁cijevi	-12841
▁civili	-12842
▁fanovi	-12843
▁govoru	-12844
▁idućih	-12845
▁nesigu	-12846
▁paketa	-12847
▁prizor	-12848
▁sadrže	-12849
▁ubijen	-12850
▁vježbe	-12851
cionalno	-12852
▁Ukoliko	-12853
▁djelova	-12854
▁dohodak	-12855
▁fenomen	-12856
▁gradove	-12857
▁maslina	-12858
▁osoblje	-12859
▁prirodu	-12860
▁prodati	-12861
▁stvorio	-12862
▁temelje	-12863
▁trofeja	-12864
▁tvrdnje	-12865
▁vanjske	-12866
▁zabrana	-12867
▁Hezbolla	-12868
▁baterija	-12869
▁bespovra	-12870
▁brodogra	-12871
▁eksplodi	-12872
▁koprivni	-12873
▁nepresta	-12874
▁osjetiti	-12875
▁otvorene	-12876
▁očekivao	-12877
▁prehrani	-12878
▁pronađen	-12879
▁unaprije	-12880
▁veterina	-12881
▁vrhunske	-12882
▁vrijedne	-12883
▁Eurosonga	-12884
▁geopoliti	-12885
▁istodobno	-12886
▁izdvojiti	-12887
▁krajevima	-12888
▁novinarka	-12889
▁poslovnog	-12890
▁postrojbe	-12891
▁seksualno	-12892
▁državljana	-12893
▁lokacijama	-12894
▁nekadašnji	-12895
▁političkom	-12896
▁pripremili	-12897
▁prisjetila	-12898
▁strategije	-12899
▁zadovoljna	-12900
▁organizirao	-12901
▁međunarodnim	-12902
Ho	-12903
Me	-12904
iš	-12905
wer	-12906
šek	-12907
▁83	-12908
kupa	-12909
mann	-12910
nića	-12911
rovu	-12912
rtua	-12913
tilo	-12914
čala	-12915
žimo	-12916
▁190	-12917
▁Ger	-12918
▁Inf	-12919
▁Kel	-12920
▁Oda	-12921
▁ada	-12922
▁har	-12923
▁tor	-12924
rirao	-12925
rodne	-12926
tehni	-12927
čenim	-12928
žević	-12929
▁Dubo	-12930
▁Peru	-12931
▁Selo	-12932
▁budi	-12933
▁crta	-12934
▁neis	-12935
▁piro	-12936
▁raza	-12937
▁sinu	-12938
obuhva	-12939
pisuju	-12940
▁Jones	-12941
▁dečko	-12942
▁nutri	-12943
▁popri	-12944
▁povre	-12945
▁slaže	-12946
▁vašoj	-12947
▁Prizna	-12948
▁Tvrtka	-12949
▁ankete	-12950
▁biznis	-12951
▁ciklus	-12952
▁civila	-12953
▁devede	-12954
▁gledam	-12955
▁izgovo	-12956
▁izradu	-12957
▁metoda	-12958
▁odgoji	-12959
▁riješi	-12960
▁skriva	-12961
▁stabla	-12962
▁učesta	-12963
▁vezana	-12964
▁zdrave	-12965
▁100.000	-12966
▁Dragana	-12967
▁Habijan	-12968
▁demanti	-12969
▁dvorana	-12970
▁isposta	-12971
▁izmjena	-12972
▁ljudske	-12973
▁najteže	-12974
▁počinju	-12975
▁prijete	-12976
▁saznati	-12977
▁strašno	-12978
▁trojica	-12979
▁gradskih	-12980
▁karakter	-12981
▁muškarce	-12982
▁porastao	-12983
▁poznatim	-12984
▁stvarati	-12985
▁izgraditi	-12986
▁komentari	-12987
▁najljepše	-12988
▁napetosti	-12989
▁četvrtine	-12990
predsjednik	-12991
▁političkoj	-12992
▁proslavila	-12993
▁zaključiti	-12994
▁iznajmljiva	-12995
▁osumnjičeni	-12996
▁prikazujemo	-12997
▁istraživanju	-12998
▁ovogodišnjeg	-12999
▁pratiteljima	-13000
?'	-13001
EK	-13002
3),	-13003
lce	-13004
čvr	-13005
▁IN	-13006
▁OV	-13007
▁RS	-13008
lako	-13009
▁6-4	-13010
▁Pao	-13011
▁spi	-13012
▁uđe	-13013
braja	-13014
mskog	-13015
tinga	-13016
štvom	-13017
▁Dori	-13018
▁King	-13019
▁Otac	-13020
▁Veče	-13021
▁mega	-13022
▁nosa	-13023
▁ohla	-13024
▁tlak	-13025
licama	-13026
lozima	-13027
njskog	-13028
tirala	-13029
vačica	-13030
▁Imaju	-13031
▁Kruno	-13032
▁Maria	-13033
▁Svoje	-13034
▁Swift	-13035
▁arheo	-13036
▁farma	-13037
▁imenu	-13038
▁krajo	-13039
▁krema	-13040
▁papri	-13041
▁pogon	-13042
▁stupa	-13043
▁većih	-13044
▁zasje	-13045
▁Brojni	-13046
▁Djevoj	-13047
▁Dnevni	-13048
▁Ustava	-13049
▁kanalu	-13050
▁nekima	-13051
▁obnovi	-13052
▁ocjenu	-13053
▁pomoću	-13054
▁poskup	-13055
▁počele	-13056
▁prošlu	-13057
▁prtlja	-13058
▁putuju	-13059
▁saboru	-13060
▁skandi	-13061
▁tjeste	-13062
▁tvrdio	-13063
▁unapre	-13064
▁vjerni	-13065
▁Španjo	-13066
▁drugdje	-13067
▁dvoranu	-13068
▁govorim	-13069
▁ključnu	-13070
▁nazvati	-13071
▁opisala	-13072
▁podigao	-13073
▁prenose	-13074
▁pridrža	-13075
▁stranim	-13076
▁toplije	-13077
▁trajala	-13078
▁ukazuju	-13079
▁životni	-13080
▁životno	-13081
▁Nacional	-13082
▁Sarajevo	-13083
▁Uglavnom	-13084
▁baterije	-13085
▁navedene	-13086
▁prepreka	-13087
▁priopćio	-13088
▁priorite	-13089
▁prirodne	-13090
▁razinama	-13091
▁Rezultati	-13092
▁Situacija	-13093
▁dostavlja	-13094
▁dužnosnik	-13095
▁ekonomski	-13096
▁nastupima	-13097
▁očekivali	-13098
▁podizanje	-13099
▁predanost	-13100
▁prenijeti	-13101
▁razumjeti	-13102
▁stvaranja	-13103
▁nedostatka	-13104
▁objavljeni	-13105
▁podržavaju	-13106
▁rukometaši	-13107
▁zanimljive	-13108
▁ispitivanja	-13109
▁oduševljeni	-13110
▁zapovjednika	-13111
▁znanstvenici	-13112
▁inteligencija	-13113
Pi	-13114
kvo	-13115
cker	-13116
kola	-13117
loma	-13118
mato	-13119
seno	-13120
vkom	-13121
vuda	-13122
ward	-13123
▁Cru	-13124
▁Mil	-13125
▁Sma	-13126
▁pou	-13127
brije	-13128
zivao	-13129
šanja	-13130
▁Odli	-13131
▁Opet	-13132
▁Ulaz	-13133
▁name	-13134
▁shva	-13135
▁vrtu	-13136
▁zube	-13137
▁Šubi	-13138
▁2003.	-13139
▁2027.	-13140
▁Kijev	-13141
▁Potvr	-13142
▁Proiz	-13143
▁borac	-13144
▁grana	-13145
▁izvoz	-13146
▁muzej	-13147
▁potje	-13148
▁ribar	-13149
▁slabi	-13150
▁start	-13151
▁učili	-13152
▁veoma	-13153
▁zraku	-13154
rivanje	-13155
živanja	-13156
▁Gorana	-13157
▁Oliver	-13158
▁adresi	-13159
▁evakui	-13160
▁izlaze	-13161
▁njenom	-13162
▁novcem	-13163
▁pretko	-13164
▁remija	-13165
▁starog	-13166
▁trošak	-13167
▁upitao	-13168
▁Budimir	-13169
▁Karogla	-13170
▁Ronaldo	-13171
▁analizu	-13172
▁dočekao	-13173
▁ispunje	-13174
▁izložbi	-13175
▁kritika	-13176
▁ljepote	-13177
▁okolici	-13178
▁pogrije	-13179
▁provoka	-13180
▁razvese	-13181
▁tijesto	-13182
▁urednik	-13183
▁Kristina	-13184
▁dovoljan	-13185
▁kapitala	-13186
▁prolazak	-13187
▁provjera	-13188
▁uspješne	-13189
▁zatvoren	-13190
▁dokumenti	-13191
▁iskorišta	-13192
▁koalicija	-13193
▁pojedinih	-13194
▁povijesne	-13195
▁energetske	-13196
▁talijanske	-13197
▁turistička	-13198
▁tehnologiju	-13199
▁zahtijevaju	-13200
▁postavljanje	-13201
99	-13202
Ru	-13203
ero	-13204
eti	-13205
jor	-13206
nor	-13207
čad	-13208
čla	-13209
▁ml	-13210
bert	-13211
ovog	-13212
sing	-13213
strp	-13214
čnik	-13215
▁Bal	-13216
▁Bel	-13217
▁Fra	-13218
▁Sky	-13219
▁mae	-13220
▁nor	-13221
▁uba	-13222
basti	-13223
lskog	-13224
rijom	-13225
▁Jesu	-13226
▁Luku	-13227
▁Odje	-13228
▁Pože	-13229
▁guma	-13230
▁išlo	-13231
▁manj	-13232
▁neop	-13233
▁sveu	-13234
▁temi	-13235
▁voće	-13236
▁živa	-13237
cjenji	-13238
planta	-13239
socija	-13240
značaj	-13241
▁1992.	-13242
▁Dodik	-13243
▁Lonča	-13244
▁Mirko	-13245
▁Vinko	-13246
▁Zelen	-13247
▁epide	-13248
▁gusto	-13249
▁likvi	-13250
▁mozak	-13251
▁odgoj	-13252
▁pojas	-13253
▁Između	-13254
▁Saveza	-13255
▁Siriji	-13256
▁Svatko	-13257
▁Turske	-13258
▁Turudi	-13259
▁golman	-13260
▁marihu	-13261
▁nadaju	-13262
▁pratio	-13263
▁teškoj	-13264
▁trajno	-13265
▁uništa	-13266
▁vrtiću	-13267
▁vukova	-13268
▁Posjeti	-13269
▁drugoga	-13270
▁igračem	-13271
▁koncept	-13272
▁okupili	-13273
▁ponovio	-13274
▁suđenja	-13275
▁učinila	-13276
▁visokom	-13277
▁vojnici	-13278
▁zadnjeg	-13279
▁četvrto	-13280
▁Šibenča	-13281
▁Slobodna	-13282
▁izboriti	-13283
▁iznenada	-13284
▁kapetana	-13285
▁stoljeću	-13286
▁studente	-13287
▁Festivala	-13288
▁kolestero	-13289
▁optimisti	-13290
▁popularne	-13291
▁potrošnju	-13292
▁pregovori	-13293
▁pridružio	-13294
▁proglasio	-13295
▁proračunu	-13296
▁zamijenio	-13297
▁Martinović	-13298
▁Ukrajinski	-13299
▁aplikacija	-13300
▁pojavljuje	-13301
▁regionalne	-13302
▁turistički	-13303
▁komunikaciju	-13304
▁povjerenstvo	-13305
▁predstavljati	-13306
12	-13307
MI	-13308
UR	-13309
ep	-13310
-2.	-13311
dao	-13312
ptu	-13313
uli	-13314
čja	-13315
▁78	-13316
▁DA	-13317
▁Es	-13318
▁kW	-13319
elom	-13320
nesu	-13321
stih	-13322
▁Kom	-13323
▁Lit	-13324
▁Pal	-13325
llery	-13326
lnice	-13327
terom	-13328
tisti	-13329
verza	-13330
▁Lisi	-13331
▁Mira	-13332
▁Post	-13333
▁figu	-13334
▁komi	-13335
▁punu	-13336
▁tipi	-13337
▁vala	-13338
cirati	-13339
vedeno	-13340
▁Dabro	-13341
▁Lopez	-13342
▁Održa	-13343
▁Volks	-13344
▁belgi	-13345
▁bloka	-13346
▁brazi	-13347
▁certi	-13348
▁dolje	-13349
▁hvali	-13350
▁karci	-13351
▁klupu	-13352
▁krivi	-13353
▁masti	-13354
▁mješa	-13355
▁obave	-13356
▁odveo	-13357
▁oteža	-13358
▁plave	-13359
▁polja	-13360
▁suvla	-13361
▁turbu	-13362
▁vaših	-13363
▁zatre	-13364
▁čekao	-13365
▁Cijena	-13366
▁Jedini	-13367
▁Macron	-13368
▁Moskva	-13369
▁Nezavi	-13370
▁Turska	-13371
▁bogata	-13372
▁dublje	-13373
▁ekstre	-13374
▁gotovi	-13375
▁korona	-13376
▁nuklea	-13377
▁opasna	-13378
▁popisa	-13379
▁strast	-13380
▁strogo	-13381
▁težine	-13382
▁udjela	-13383
▁uređaj	-13384
▁zapadu	-13385
▁Kandida	-13386
▁izbacio	-13387
▁katedra	-13388
▁osjetio	-13389
▁povreme	-13390
▁pratite	-13391
▁prodaja	-13392
▁savjeta	-13393
▁stupanj	-13394
▁telefon	-13395
▁uputili	-13396
▁čelnici	-13397
▁željela	-13398
▁Albanije	-13399
▁Fenerbah	-13400
▁Povjeren	-13401
▁autorica	-13402
▁devedese	-13403
▁dizajner	-13404
▁domaćini	-13405
▁navodeći	-13406
▁pokušala	-13407
▁pravilno	-13408
▁spavanja	-13409
▁stambene	-13410
▁suspendi	-13411
▁svladala	-13412
▁značajne	-13413
▁Ukrajinci	-13414
▁napomenuo	-13415
▁određenim	-13416
▁policajac	-13417
▁predložio	-13418
▁razgovori	-13419
▁savjetnik	-13420
▁stvarnost	-13421
▁transfera	-13422
▁Plenkoviću	-13423
▁kvalitetno	-13424
▁španjolski	-13425
▁medicinskih	-13426
▁obrazovanju	-13427
▁zadovoljiti	-13428
▁konferenciju	-13429
aa	-13430
▁x	-13431
SEL	-13432
gge	-13433
jmu	-13434
tis	-13435
vud	-13436
▁At	-13437
▁CO	-13438
nisa	-13439
tari	-13440
zale	-13441
čici	-13442
▁Glo	-13443
▁Lee	-13444
▁Sco	-13445
▁Top	-13446
▁peć	-13447
▁zvi	-13448
▁čvo	-13449
kciju	-13450
venim	-13451
▁Crno	-13452
▁Lisa	-13453
▁Matt	-13454
▁Pere	-13455
▁nisi	-13456
▁poša	-13457
▁tota	-13458
▁uhva	-13459
stveno	-13460
tiraju	-13461
zivaju	-13462
▁Orban	-13463
▁desno	-13464
▁garde	-13465
▁otkad	-13466
▁slažu	-13467
▁stolu	-13468
▁subot	-13469
▁sveti	-13470
▁ubaci	-13471
▁vezan	-13472
▁većeg	-13473
bitnije	-13474
gallery	-13475
▁Ivanom	-13476
▁Walesa	-13477
▁biljke	-13478
▁bliski	-13479
▁hodoča	-13480
▁idućeg	-13481
▁istine	-13482
▁misija	-13483
▁nedugo	-13484
▁odvoji	-13485
▁pedago	-13486
▁revizi	-13487
▁studij	-13488
▁Četiri	-13489
ljavanje	-13490
▁Mladost	-13491
▁aktivan	-13492
▁analiza	-13493
▁derbija	-13494
▁mnoštvo	-13495
▁nikakvu	-13496
▁ocjenji	-13497
▁prodaji	-13498
▁prošloj	-13499
▁svjetlu	-13500
▁ukupnom	-13501
▁volonte	-13502
▁Komisije	-13503
▁dogovoru	-13504
▁europsku	-13505
▁lijekove	-13506
▁lokalnoj	-13507
▁otvaraju	-13508
▁rukometa	-13509
▁simptoma	-13510
▁Livaković	-13511
▁doživjeli	-13512
▁jutarnjim	-13513
▁kandidate	-13514
▁kvalifici	-13515
▁pljuskovi	-13516
▁povećanju	-13517
▁predstavi	-13518
▁predstoje	-13519
▁prijetnju	-13520
▁suprotsta	-13521
▁sveobuhva	-13522
▁vladajuće	-13523
▁djelatnost	-13524
▁gledatelje	-13525
▁pojašnjava	-13526
▁zastupnica	-13527
▁fotografiji	-13528
▁predstavili	-13529
▁intervencija	-13530
▁predsjedničke	-13531
▁prijateljstva	-13532
▁predstavljanje	-13533
VO	-13534
5),	-13535
dge	-13536
las	-13537
mba	-13538
nki	-13539
pat	-13540
pen	-13541
pod	-13542
zga	-13543
budu	-13544
nete	-13545
trom	-13546
zovi	-13547
▁...	-13548
▁Hra	-13549
▁IDS	-13550
▁Ure	-13551
▁ZET	-13552
▁alu	-13553
▁kle	-13554
▁zid	-13555
"...,	-13556
menka	-13557
▁Nata	-13558
▁Rimu	-13559
▁Tere	-13560
▁nemo	-13561
▁peri	-13562
▁reme	-13563
▁skra	-13564
▁tomu	-13565
▁uvoz	-13566
▁žuti	-13567
vijest	-13568
▁Ferra	-13569
▁World	-13570
▁avion	-13571
▁elega	-13572
▁grupu	-13573
▁kišom	-13574
▁krite	-13575
▁refle	-13576
▁sinom	-13577
▁stije	-13578
▁Grmoja	-13579
▁Kralje	-13580
▁Napada	-13581
▁Odgovo	-13582
▁Siniša	-13583
▁Uprava	-13584
▁Vedran	-13585
▁dovelo	-13586
▁limuna	-13587
▁manjih	-13588
▁snažnu	-13589
▁stekao	-13590
▁župana	-13591
lizacije	-13592
▁Guardio	-13593
▁Stvarno	-13594
▁autobus	-13595
▁dodjeli	-13596
▁ponudio	-13597
▁produce	-13598
▁produže	-13599
▁spasila	-13600
▁stavili	-13601
▁uživali	-13602
▁Dnevnika	-13603
▁dočekali	-13604
▁dočekati	-13605
▁gradskoj	-13606
▁ostalima	-13607
▁ostavili	-13608
▁pamćenje	-13609
▁srednjih	-13610
▁umjereno	-13611
▁zagovara	-13612
▁atmosferi	-13613
▁društveno	-13614
▁iskustvom	-13615
▁koaliciju	-13616
▁napominju	-13617
▁negativno	-13618
▁osvojenih	-13619
▁poslovnom	-13620
▁privatnim	-13621
▁četvornih	-13622
▁Nizozemska	-13623
▁kvalitetan	-13624
▁statistiku	-13625
▁pacijentima	-13626
▁prilagoditi	-13627
▁posjetiteljima	-13628
""	-13629
NIK	-13630
▁MI	-13631
▁WC	-13632
diji	-13633
djet	-13634
hoda	-13635
komu	-13636
lity	-13637
lska	-13638
mpio	-13639
viru	-13640
žina	-13641
▁3-0	-13642
▁Ive	-13643
▁Las	-13644
▁Nas	-13645
▁Olu	-13646
▁Sen	-13647
▁upe	-13648
Split	-13649
broji	-13650
etkom	-13651
ganje	-13652
kujem	-13653
lišta	-13654
ments	-13655
▁Elek	-13656
▁Jeli	-13657
▁Komu	-13658
▁Lici	-13659
▁Musk	-13660
▁OVAJ	-13661
▁Sevi	-13662
▁crnu	-13663
▁grob	-13664
▁kišu	-13665
▁meču	-13666
▁pali	-13667
▁rezi	-13668
▁usmr	-13669
▁voze	-13670
▁Đako	-13671
protec	-13672
▁Prati	-13673
▁Ulice	-13674
▁kamen	-13675
▁kocki	-13676
▁komad	-13677
▁otpor	-13678
▁prepo	-13679
▁taksi	-13680
▁umrla	-13681
▁ustra	-13682
▁Drugog	-13683
▁Meghan	-13684
▁glavno	-13685
▁nagađa	-13686
▁nestao	-13687
▁optima	-13688
▁osmini	-13689
▁osminu	-13690
▁očevid	-13691
▁pucnja	-13692
▁ratnih	-13693
▁struke	-13694
▁utjelo	-13695
▁vojnih	-13696
▁Danijel	-13697
▁Iskreno	-13698
▁Trenuta	-13699
▁aktivni	-13700
▁izazovi	-13701
▁izbornu	-13702
▁izvesti	-13703
▁ključan	-13704
▁najboga	-13705
▁najgori	-13706
▁pratnji	-13707
▁pravima	-13708
▁prekidu	-13709
▁radosti	-13710
▁sloboda	-13711
▁snagama	-13712
protected	-13713
▁Engleske	-13714
▁Sjeverna	-13715
▁Svjetski	-13716
▁nestanka	-13717
▁orkestra	-13718
▁prirodni	-13719
▁privukao	-13720
▁simptomi	-13721
▁smješten	-13722
▁splitske	-13723
▁četvrtka	-13724
▁izmjenama	-13725
▁okruženje	-13726
▁seksualne	-13727
▁sljedećeg	-13728
▁standarda	-13729
▁jedanaeste	-13730
▁prihvatila	-13731
▁uobičajeno	-13732
▁zabilježen	-13733
▁zaustavili	-13734
▁Posljednjih	-13735
▁Sjedinjenim	-13736
▁destinacije	-13737
▁parlamentarnih	-13738
▁parlamentarnim	-13739
-8	-13740
HDZ	-13741
isa	-13742
uri	-13743
▁by	-13744
cher	-13745
inte	-13746
loka	-13747
pića	-13748
rada	-13749
toma	-13750
urne	-13751
zbor	-13752
▁50.	-13753
▁Dro	-13754
▁Psi	-13755
▁Vas	-13756
▁Zlo	-13757
▁šmi	-13758
berta	-13759
ljama	-13760
njama	-13761
ntnog	-13762
vačke	-13763
▁1961	-13764
▁Dije	-13765
▁Jack	-13766
▁Njih	-13767
▁Uspo	-13768
▁Vodo	-13769
▁bezu	-13770
▁govo	-13771
▁jogu	-13772
▁kuka	-13773
▁nadi	-13774
▁naki	-13775
▁nasu	-13776
▁ocem	-13777
▁ples	-13778
▁pogu	-13779
▁sema	-13780
▁sila	-13781
▁ugri	-13782
▁utro	-13783
▁uzra	-13784
kujemo	-13785
rijera	-13786
tacija	-13787
▁1990.	-13788
▁Boban	-13789
▁Dalla	-13790
▁Idemo	-13791
▁Izvje	-13792
▁balan	-13793
▁dosti	-13794
▁drame	-13795
▁idući	-13796
▁javnu	-13797
▁krizu	-13798
▁lošeg	-13799
▁opore	-13800
▁rundi	-13801
▁skupu	-13802
▁zvjez	-13803
▁Centru	-13804
▁Moskve	-13805
▁Pripre	-13806
▁Završi	-13807
▁anonim	-13808
▁davati	-13809
▁divlji	-13810
▁doduše	-13811
▁domova	-13812
▁izvrše	-13813
▁komore	-13814
▁kotaru	-13815
▁kupili	-13816
▁kupnje	-13817
▁manjim	-13818
▁napala	-13819
▁oblika	-13820
▁pomije	-13821
▁predan	-13822
▁profil	-13823
▁prvaci	-13824
▁stoper	-13825
▁večera	-13826
▁volimo	-13827
▁Nijemci	-13828
▁general	-13829
▁gospođa	-13830
▁kreveta	-13831
▁ljudski	-13832
▁metropo	-13833
▁oborine	-13834
▁primila	-13835
▁smrtono	-13836
▁stavila	-13837
▁stotinu	-13838
▁treneri	-13839
▁unatrag	-13840
▁upozora	-13841
▁Angelesu	-13842
▁bombardi	-13843
▁eksplozi	-13844
▁gospodin	-13845
▁izgledao	-13846
▁nastupom	-13847
▁ozbiljna	-13848
▁pažljivo	-13849
▁položaja	-13850
▁privukla	-13851
▁segmentu	-13852
▁sportaši	-13853
▁sportova	-13854
▁stvorili	-13855
▁treninzi	-13856
▁uspješna	-13857
▁započeli	-13858
▁Liverpool	-13859
▁autocesta	-13860
▁dugoročno	-13861
▁letjelica	-13862
▁njemačkom	-13863
▁održavati	-13864
▁poslovima	-13865
▁prosječne	-13866
▁sportskom	-13867
▁strateški	-13868
▁tradicija	-13869
▁unutarnje	-13870
▁Australiji	-13871
▁dobrodošli	-13872
▁postavljen	-13873
▁poštovanja	-13874
▁inicijativa	-13875
▁turističkih	-13876
▁financiranja	-13877
▁razumijevanja	-13878
▁predsjedničkih	-13879
Ta	-13880
%),	-13881
cca	-13882
ire	-13883
mus	-13884
▁As	-13885
OVID	-13886
lita	-13887
radi	-13888
reen	-13889
rini	-13890
vanu	-13891
▁160	-13892
▁Cle	-13893
▁Der	-13894
▁Fri	-13895
▁Vir	-13896
▁klo	-13897
▁ode	-13898
▁sir	-13899
▁tki	-13900
opskr	-13901
renom	-13902
rstvo	-13903
stanu	-13904
vanih	-13905
čišće	-13906
▁Beču	-13907
▁Jana	-13908
▁duća	-13909
▁iznu	-13910
▁košu	-13911
▁ogor	-13912
▁pole	-13913
▁rang	-13914
▁suze	-13915
▁šume	-13916
▁želu	-13917
avanje	-13918
bacuje	-13919
lnikom	-13920
nirala	-13921
nosimo	-13922
verner	-13923
ševića	-13924
▁Očito	-13925
▁Sučić	-13926
▁jasna	-13927
▁klase	-13928
▁kozme	-13929
▁modne	-13930
▁ranji	-13931
▁uredu	-13932
▁zaobi	-13933
▁Česti	-13934
ljivost	-13935
▁Franci	-13936
▁Ivanec	-13937
▁Kalini	-13938
▁Mbappe	-13939
▁Odjela	-13940
▁Srpske	-13941
▁Tokiju	-13942
▁birati	-13943
▁bogatu	-13944
▁odabir	-13945
▁pedija	-13946
▁perili	-13947
▁pričao	-13948
▁rasple	-13949
▁raspro	-13950
▁rasvje	-13951
▁redova	-13952
▁straho	-13953
▁struko	-13954
▁zaokru	-13955
fikacije	-13956
ljivanje	-13957
žavajući	-13958
▁Demokra	-13959
▁Njezina	-13960
▁gradona	-13961
▁izvedbi	-13962
▁konstan	-13963
▁mislila	-13964
▁mlijeko	-13965
▁pomogla	-13966
▁poništi	-13967
▁potragu	-13968
▁recikli	-13969
▁stručni	-13970
▁sustavi	-13971
▁tražila	-13972
▁internet	-13973
▁kraljica	-13974
▁kretanje	-13975
▁lokaciju	-13976
▁namješta	-13977
▁objavilo	-13978
▁povezane	-13979
▁privlači	-13980
▁pružanje	-13981
▁stvarala	-13982
▁uspijeva	-13983
▁zaigrati	-13984
▁Filipović	-13985
▁aktualnog	-13986
▁američkom	-13987
▁bakterija	-13988
▁branitelj	-13989
▁današnjeg	-13990
▁glazbenih	-13991
▁infekcije	-13992
▁kazalištu	-13993
▁načelnika	-13994
▁proširiti	-13995
▁tužitelja	-13996
▁vlastitih	-13997
▁vlastitog	-13998
▁zatvoriti	-13999
▁Bruxellesu	-14000
▁Glasnogovo	-14001
▁održivosti	-14002
▁poduzetnik	-14003
▁poslovanju	-14004
▁prihvatlji	-14005
▁zabranjeno	-14006
▁Jadrolinije	-14007
▁intervencije	-14008
▁sudjelovanja	-14009
▁specijalizira	-14010
HO	-14011
Lu	-14012
On	-14013
SP	-14014
4),	-14015
eva	-14016
leu	-14017
med	-14018
▁Og	-14019
▁oc	-14020
klop	-14021
lažu	-14022
mska	-14023
nile	-14024
▁000	-14025
▁3,5	-14026
▁jah	-14027
▁suk	-14028
kupio	-14029
ljubi	-14030
lovcu	-14031
mirom	-14032
stici	-14033
▁Mare	-14034
▁bake	-14035
▁crte	-14036
▁faši	-14037
▁juga	-14038
▁kamp	-14039
▁ohra	-14040
▁osva	-14041
▁pete	-14042
▁sola	-14043
Mislim	-14044
laskom	-14045
stanak	-14046
vljava	-14047
đujemo	-14048
▁Apple	-14049
▁Barba	-14050
▁Grupa	-14051
▁Kluba	-14052
▁Makar	-14053
▁Nedje	-14054
▁Preko	-14055
▁Profe	-14056
▁bombe	-14057
▁brinu	-14058
▁glavo	-14059
▁glume	-14060
▁imuno	-14061
▁kruha	-14062
▁nadah	-14063
▁punim	-14064
▁svrhe	-14065
▁testo	-14066
▁toksi	-14067
▁ubiti	-14068
bijanja	-14069
lamenta	-14070
▁Medved	-14071
▁Srpski	-14072
▁Upozna	-14073
▁bivšem	-14074
▁boljeg	-14075
▁divlje	-14076
▁kupuju	-14077
▁libano	-14078
▁minera	-14079
▁naučio	-14080
▁navika	-14081
▁navike	-14082
▁nestrp	-14083
▁obilaz	-14084
▁ostanu	-14085
▁raketa	-14086
▁teškog	-14087
Hrvatska	-14088
ljavanja	-14089
▁Stričak	-14090
▁crvenom	-14091
▁imovinu	-14092
▁jednoga	-14093
▁kartona	-14094
▁kretati	-14095
▁naletio	-14096
▁osmijeh	-14097
▁osoblja	-14098
▁pokrovi	-14099
▁pomoglo	-14100
▁ponosna	-14101
▁posveće	-14102
▁potpuni	-14103
▁udaraca	-14104
▁uspored	-14105
▁zapadni	-14106
▁zastava	-14107
▁dostupni	-14108
▁jednogla	-14109
▁medicinu	-14110
▁najvećem	-14111
▁poduzima	-14112
▁prestaje	-14113
▁prisutni	-14114
▁privatno	-14115
▁zloupora	-14116
▁Švedskoj	-14117
▁Božinović	-14118
▁Sindikata	-14119
▁današnjem	-14120
▁doprinose	-14121
▁francuske	-14122
▁karaktera	-14123
▁konkretno	-14124
▁liječenju	-14125
▁nevremena	-14126
▁poslovnim	-14127
▁posvetiti	-14128
▁poticanje	-14129
▁prirodnih	-14130
▁propisima	-14131
▁skladište	-14132
▁vjenčanje	-14133
▁dokumenata	-14134
▁eksplozije	-14135
▁posljednju	-14136
▁prijepodne	-14137
▁međunarodnih	-14138
▁obožavatelji	-14139
▁predstavljen	-14140
▁zainteresira	-14141
▁zdravstvenom	-14142
▁prijateljstvo	-14143
61	-14144
FC	-14145
NC	-14146
tz	-14147
-19	-14148
ago	-14149
eve	-14150
hod	-14151
jde	-14152
rki	-14153
žje	-14154
▁99	-14155
bnog	-14156
enog	-14157
gena	-14158
kina	-14159
▁27-	-14160
▁7-6	-14161
▁vio	-14162
bjega	-14163
elite	-14164
novog	-14165
pisom	-14166
renog	-14167
upani	-14168
zanju	-14169
▁Jona	-14170
▁crni	-14171
▁dalo	-14172
▁depo	-14173
▁odva	-14174
▁uzva	-14175
štenje	-14176
▁1996.	-14177
▁Anton	-14178
▁Bilić	-14179
▁Doris	-14180
▁Matea	-14181
▁Messi	-14182
▁Mogli	-14183
▁Rodri	-14184
▁Ureda	-14185
▁dogra	-14186
▁dojke	-14187
▁klini	-14188
▁ljeti	-14189
▁osmiš	-14190
▁otpje	-14191
▁padne	-14192
▁razmo	-14193
▁tiska	-14194
▁truda	-14195
▁znaku	-14196
meteoro	-14197
ostalom	-14198
rnicama	-14199
čavanju	-14200
▁Predra	-14201
▁Roland	-14202
▁Zlatka	-14203
▁bazena	-14204
▁bijeli	-14205
▁cigare	-14206
▁desnog	-14207
▁fokusu	-14208
▁modeli	-14209
▁njenog	-14210
▁paziti	-14211
▁pitati	-14212
▁povela	-14213
▁pozivu	-14214
▁rumunj	-14215
▁sestri	-14216
▁večeru	-14217
▁zdravo	-14218
▁činilo	-14219
▁šalice	-14220
▁Gordana	-14221
▁Koncert	-14222
▁dodatna	-14223
▁dragovo	-14224
▁drugome	-14225
▁formira	-14226
▁idealno	-14227
▁lijevom	-14228
▁ljudsko	-14229
▁nijedan	-14230
▁odlasku	-14231
▁opskrbe	-14232
▁plaćati	-14233
▁pobjeći	-14234
▁portuga	-14235
▁posjedo	-14236
▁razvoda	-14237
▁srednju	-14238
▁tajnika	-14239
▁treneru	-14240
▁živjeli	-14241
▁Viroviti	-14242
▁favorita	-14243
▁ističući	-14244
▁odigrala	-14245
▁pokazale	-14246
▁povezati	-14247
▁preselio	-14248
▁propušta	-14249
▁sljedeću	-14250
▁sredstvo	-14251
▁uvjeriti	-14252
▁zastrašu	-14253
▁Ancelotti	-14254
▁negativne	-14255
▁postojeće	-14256
▁potrošnje	-14257
▁povijesni	-14258
▁privatnih	-14259
▁standarde	-14260
▁sudionike	-14261
▁zaostatka	-14262
▁Zagrebački	-14263
▁energetsku	-14264
▁najljepših	-14265
▁suglasnost	-14266
▁svečanosti	-14267
▁uslijedila	-14268
▁Međunarodni	-14269
▁organizirali	-14270
▁dokumentaciju	-14271
▁predstavnicima	-14272
HA	-14273
NL	-14274
8),	-14275
avi	-14276
dou	-14277
tum	-14278
war	-14279
▁77	-14280
▁81	-14281
▁84	-14282
▁95	-14283
▁OS	-14284
2024	-14285
bnih	-14286
kuru	-14287
pima	-14288
rela	-14289
vaka	-14290
▁Del	-14291
▁Kit	-14292
▁Uhi	-14293
▁tlu	-14294
▁uve	-14295
livud	-14296
loško	-14297
ntnim	-14298
▁Blue	-14299
▁Chri	-14300
▁Ener	-14301
▁Glas	-14302
▁Kraj	-14303
▁Lana	-14304
▁Mark	-14305
▁Open	-14306
▁rane	-14307
▁slje	-14308
▁vidu	-14309
▁zvez	-14310
larnih	-14311
portal	-14312
rijski	-14313
zujući	-14314
▁COVID	-14315
▁Hvaru	-14316
▁Konzu	-14317
▁Njezi	-14318
▁Risto	-14319
▁Savez	-14320
▁Stutt	-14321
▁Zajec	-14322
▁afere	-14323
▁bosan	-14324
▁hajdu	-14325
▁sajam	-14326
▁udala	-14327
▁uvjet	-14328
▁važni	-14329
▁vjere	-14330
▁šećer	-14331
ljenima	-14332
▁Hajdaš	-14333
▁Promje	-14334
▁Velebi	-14335
▁dobroj	-14336
▁fronta	-14337
▁izlije	-14338
▁kanala	-14339
▁komuni	-14340
▁obavez	-14341
▁okvira	-14342
▁sjajnu	-14343
▁virtua	-14344
▁zalaga	-14345
▁čekali	-14346
▁čuvati	-14347
▁Dodajte	-14348
▁Kalifor	-14349
▁Osumnji	-14350
▁Poznati	-14351
▁Volkswa	-14352
▁doktora	-14353
▁inciden	-14354
▁optužbi	-14355
▁planova	-14356
▁potvrdu	-14357
▁pretpla	-14358
▁rezerva	-14359
▁tehnika	-14360
▁tribini	-14361
▁Hezbolah	-14362
▁Naglasio	-14363
▁Njemački	-14364
▁Uostalom	-14365
▁naglasak	-14366
▁najmlađe	-14367
▁olakšati	-14368
▁posvetio	-14369
▁posvećen	-14370
▁provedbe	-14371
▁sankcija	-14372
▁tadašnji	-14373
▁upotrebu	-14374
▁uspomene	-14375
▁Franković	-14376
▁besplatan	-14377
▁donošenje	-14378
▁kulturnog	-14379
▁odgovorno	-14380
▁proizlazi	-14381
▁vremenima	-14382
▁Švicarske	-14383
▁disciplini	-14384
▁izraelskih	-14385
▁kvalitetne	-14386
▁pristupiti	-14387
▁psihijatri	-14388
▁sugovornik	-14389
▁Sjedinjenih	-14390
▁doprinijeti	-14391
▁gospodarski	-14392
▁obilježavanja	-14393
▁zaposlenicima	-14394
DC	-14395
JU	-14396
icu	-14397
usa	-14398
▁Ab	-14399
▁TZ	-14400
ajno	-14401
chen	-14402
like	-14403
vođa	-14404
čama	-14405
▁24-	-14406
▁Edu	-14407
▁Jas	-14408
▁Rio	-14409
▁ana	-14410
▁dir	-14411
▁saz	-14412
jović	-14413
kinju	-14414
rativ	-14415
▁Doku	-14416
▁Melo	-14417
▁Moje	-14418
▁Pula	-14419
▁amba	-14420
▁bezo	-14421
▁lete	-14422
▁mole	-14423
▁pute	-14424
▁sapu	-14425
▁suću	-14426
▁trka	-14427
▁vrho	-14428
Cacute	-14429
kontro	-14430
nirali	-14431
orenti	-14432
▁1993.	-14433
▁2030.	-14434
▁Dobra	-14435
▁Frank	-14436
▁Garro	-14437
▁Gosti	-14438
▁Grani	-14439
▁Imala	-14440
▁Kakva	-14441
▁Publi	-14442
▁Ubrzo	-14443
▁Uskrs	-14444
▁dikta	-14445
▁jesam	-14446
▁kakvi	-14447
▁parce	-14448
▁pauze	-14449
▁porno	-14450
▁redak	-14451
▁uzela	-14452
▁vatru	-14453
▁želji	-14454
teljicu	-14455
▁London	-14456
▁borili	-14457
▁budite	-14458
▁dočeka	-14459
▁javiti	-14460
▁jezera	-14461
▁kućama	-14462
▁obrtni	-14463
▁oprema	-14464
▁prikri	-14465
▁slatko	-14466
▁slavni	-14467
▁titule	-14468
▁usvoje	-14469
▁članak	-14470
▁Gorskom	-14471
▁Smatram	-14472
▁Student	-14473
▁cjelovi	-14474
▁diplomi	-14475
▁haljina	-14476
▁izložbu	-14477
▁kuhinje	-14478
▁legende	-14479
▁ljetnih	-14480
▁maksimu	-14481
▁optužio	-14482
▁postavi	-14483
▁stabala	-14484
▁transpo	-14485
▁zaposli	-14486
▁iznositi	-14487
▁izrazili	-14488
▁jednokra	-14489
▁nastupao	-14490
▁prekinuo	-14491
▁problemu	-14492
▁procjene	-14493
▁sankcije	-14494
▁tehničke	-14495
▁ukidanje	-14496
▁vlasnica	-14497
▁Borussije	-14498
▁prenosimo	-14499
▁promišlja	-14500
▁prvakinja	-14501
▁skupštine	-14502
▁sljedećem	-14503
▁Zagrebačka	-14504
▁programima	-14505
▁sigurnosni	-14506
▁stanovnike	-14507
▁međunarodni	-14508
▁ovogodišnje	-14509
▁proizvođači	-14510
▁ovogodišnjem	-14511
▁predsjedničkim	-14512
▁zainteresirani	-14513
Pe	-14514
ia	-14515
ide	-14516
tea	-14517
way	-14518
▁HB	-14519
atic	-14520
greb	-14521
oksi	-14522
puno	-14523
reba	-14524
▁Lew	-14525
▁adu	-14526
▁str	-14527
canja	-14528
danja	-14529
ljica	-14530
snice	-14531
zerba	-14532
▁5000	-14533
▁Ilić	-14534
▁Odno	-14535
▁PAOK	-14536
▁Pale	-14537
▁Part	-14538
▁Ukup	-14539
▁Vino	-14540
▁anđe	-14541
▁itko	-14542
▁leže	-14543
▁naiz	-14544
▁snje	-14545
▁uzgo	-14546
▁zadi	-14547
▁Žene	-14548
gitali	-14549
čenjem	-14550
▁Array	-14551
▁Donje	-14552
▁Društ	-14553
▁Supru	-14554
▁Vlaho	-14555
▁izbio	-14556
▁ljuti	-14557
▁londo	-14558
▁oluje	-14559
▁reklo	-14560
▁upala	-14561
ljenika	-14562
▁Celtic	-14563
▁Govore	-14564
▁Matije	-14565
▁Prosje	-14566
▁Srebre	-14567
▁Thomas	-14568
▁Upitan	-14569
▁boljim	-14570
▁dokaze	-14571
▁istini	-14572
▁majkom	-14573
▁medite	-14574
▁parovi	-14575
▁prihod	-14576
▁stravi	-14577
▁tunela	-14578
▁zakone	-14579
▁članka	-14580
lističke	-14581
▁Državno	-14582
▁Izgleda	-14583
▁Njegovo	-14584
▁Stuttga	-14585
▁beograd	-14586
▁desetke	-14587
▁dvojicu	-14588
▁haljine	-14589
▁isplate	-14590
▁istoime	-14591
▁kamiona	-14592
▁sjedala	-14593
▁snimili	-14594
▁tehnike	-14595
ferencija	-14596
▁Prilikom	-14597
▁globalno	-14598
▁izjavama	-14599
▁kalorija	-14600
▁konzulta	-14601
▁naslovom	-14602
▁navedeni	-14603
▁odrediti	-14604
▁određena	-14605
▁polovicu	-14606
▁praćenje	-14607
▁upotrebe	-14608
▁Bartulica	-14609
▁Rumunjska	-14610
▁društveni	-14611
▁izgledala	-14612
▁milijardu	-14613
▁nepoznati	-14614
▁reagirali	-14615
▁suočavaju	-14616
▁vijećnici	-14617
▁vremenske	-14618
▁Španjolci	-14619
▁Vatrogasci	-14620
▁dezinforma	-14621
▁događajima	-14622
▁kontrolira	-14623
▁muškarcima	-14624
▁otpornosti	-14625
▁ponajprije	-14626
▁postojanja	-14627
▁priopćenje	-14628
▁studentima	-14629
▁trgovinama	-14630
▁gospodarske	-14631
▁jedinstvenu	-14632
▁nadležnosti	-14633
▁obiteljskih	-14634
▁obiteljskog	-14635
▁pregovorima	-14636
▁profesorica	-14637
▁kontrolirati	-14638
▁organizirala	-14639
▁registarskih	-14640
▁stanovništvo	-14641
EA	-14642
Spa	-14643
▁71	-14644
▁BI	-14645
Nema	-14646
broj	-14647
enom	-14648
hija	-14649
nute	-14650
plom	-14651
šine	-14652
▁191	-14653
▁60-	-14654
▁HAK	-14655
▁tao	-14656
ganja	-14657
mskih	-14658
vački	-14659
čićem	-14660
▁Jean	-14661
▁Tiho	-14662
▁Zvez	-14663
▁noću	-14664
▁sreb	-14665
larnog	-14666
nirana	-14667
zerbaj	-14668
▁2002.	-14669
▁Kazao	-14670
▁Proda	-14671
▁Vrati	-14672
▁bacio	-14673
▁cijep	-14674
▁dječa	-14675
▁dugog	-14676
▁harmo	-14677
▁loših	-14678
▁meteo	-14679
▁narud	-14680
▁odjel	-14681
▁okupa	-14682
▁pamti	-14683
▁služe	-14684
▁stani	-14685
leksibi	-14686
žavanju	-14687
▁Jednom	-14688
▁Svjedo	-14689
▁brilji	-14690
▁diskri	-14691
▁eurozo	-14692
▁osobnu	-14693
▁oznake	-14694
▁smisao	-14695
▁stigne	-14696
▁zalije	-14697
▁Popović	-14698
▁epizodu	-14699
▁iskusni	-14700
▁kaznenu	-14701
▁namjeru	-14702
▁pokretu	-14703
▁povećao	-14704
▁pristao	-14705
▁putnici	-14706
▁razredu	-14707
▁sredinu	-14708
▁ubojica	-14709
godišnjim	-14710
▁Hajdukom	-14711
▁Perišića	-14712
▁Početkom	-14713
▁Talijani	-14714
▁ambicije	-14715
▁dovoljna	-14716
▁lokalnom	-14717
▁orijenti	-14718
▁postupke	-14719
▁površinu	-14720
▁razotkri	-14721
▁tijelima	-14722
▁Volodimir	-14723
▁motocikli	-14724
▁pohvalila	-14725
▁potpisali	-14726
▁socijalnu	-14727
▁upozorili	-14728
▁vodoopskr	-14729
▁izraelskim	-14730
▁jugoslaven	-14731
▁pratitelje	-14732
▁predavanje	-14733
▁proširenje	-14734
▁televizije	-14735
▁vatrogasne	-14736
▁srednjoškol	-14737
▁zajedničkog	-14738
▁Međunarodnog	-14739
▁automobilima	-14740
▁međunarodnog	-14741
▁natjecatelja	-14742
.'	-14743
EM	-14744
Mar	-14745
Slo	-14746
Svi	-14747
blu	-14748
ffa	-14749
nem	-14750
pov	-14751
ula	-14752
dent	-14753
dere	-14754
faši	-14755
nter	-14756
ovih	-14757
pani	-14758
sell	-14759
žiča	-14760
▁60.	-14761
▁Aja	-14762
▁Eki	-14763
▁Eli	-14764
▁HEP	-14765
▁Pol	-14766
▁Uči	-14767
▁aro	-14768
▁brz	-14769
▁nos	-14770
▁out	-14771
▁spu	-14772
Braka	-14773
ercep	-14774
janja	-14775
lište	-14776
▁Deve	-14777
▁Duna	-14778
▁Inte	-14779
▁Olmo	-14780
▁arti	-14781
▁juna	-14782
▁lobi	-14783
▁nebu	-14784
▁repe	-14785
▁repu	-14786
▁sile	-14787
▁tego	-14788
ljivom	-14789
porati	-14790
raciju	-14791
stvari	-14792
tjecaj	-14793
vicama	-14794
▁Bivša	-14795
▁Mitro	-14796
▁Požar	-14797
▁Radni	-14798
▁Sinja	-14799
▁Staro	-14800
▁Treći	-14801
▁konja	-14802
▁kupao	-14803
▁molim	-14804
▁otuđi	-14805
▁penal	-14806
▁promi	-14807
▁sedmi	-14808
▁trake	-14809
▁upute	-14810
kasnije	-14811
▁Koreje	-14812
▁Krajem	-14813
▁Medici	-14814
▁Radman	-14815
▁Rafale	-14816
▁Toliko	-14817
▁Zakonu	-14818
▁Zemlje	-14819
▁birači	-14820
▁biskup	-14821
▁blizak	-14822
▁javnoj	-14823
▁platio	-14824
▁račune	-14825
▁režiji	-14826
▁režima	-14827
▁smjene	-14828
▁volite	-14829
▁zdravi	-14830
▁članku	-14831
▁Mirjana	-14832
▁Posavec	-14833
▁filmove	-14834
▁groblju	-14835
▁nadigra	-14836
▁nadogra	-14837
▁nastaje	-14838
▁nastavu	-14839
▁odlične	-14840
▁okrenuo	-14841
▁oružjem	-14842
▁ozljedu	-14843
▁očevida	-14844
▁pjevati	-14845
▁planovi	-14846
▁pokreće	-14847
▁rješava	-14848
▁saznali	-14849
▁svečano	-14850
▁toleran	-14851
▁upisala	-14852
▁vanjski	-14853
▁značilo	-14854
▁Fiorenti	-14855
▁automati	-14856
▁događaji	-14857
▁dokazati	-14858
▁dočekuje	-14859
▁glazbena	-14860
▁izabrani	-14861
▁ljubavni	-14862
▁nastavit	-14863
▁nazivaju	-14864
▁normalan	-14865
▁podjedna	-14866
▁pojavili	-14867
▁povezana	-14868
▁procjenu	-14869
▁proljeća	-14870
▁sustavom	-14871
▁vitamina	-14872
▁zbivanja	-14873
▁Instituta	-14874
▁inovacije	-14875
▁platformu	-14876
▁pokrenuli	-14877
▁postupaka	-14878
▁sjedištem	-14879
▁središnje	-14880
▁kritizirao	-14881
▁postignuća	-14882
▁stajališta	-14883
▁znanstveno	-14884
▁jednostavna	-14885
▁kombinacije	-14886
▁objavljenom	-14887
▁olimpijskog	-14888
▁kategorijama	-14889
▁prostorijama	-14890
▁sjeverozapadni	-14891
Ju	-14892
kos	-14893
▁00	-14894
▁3,	-14895
▁Ul	-14896
cipi	-14897
ning	-14898
rone	-14899
đima	-14900
▁1:0	-14901
▁Ole	-14902
▁PRO	-14903
▁Pin	-14904
▁piz	-14905
▁sra	-14906
njske	-14907
tivom	-14908
zijom	-14909
▁Mela	-14910
▁Miss	-14911
▁Opus	-14912
▁Tagi	-14913
▁bene	-14914
▁brze	-14915
▁klau	-14916
▁robu	-14917
▁smet	-14918
▁srbi	-14919
▁tune	-14920
▁1994.	-14921
▁Dosta	-14922
▁Porta	-14923
▁Spome	-14924
▁infla	-14925
▁kampu	-14926
▁kasni	-14927
▁lider	-14928
▁lijep	-14929
▁miste	-14930
▁mjeru	-14931
▁mudro	-14932
[...]
