[UNK]	0
[CLS]	1
[SEP]	2
[PAD]	3
[MASK]	4
!	5
"	6
#	7
$	8
%	9
&	10
'	11
(	12
)	13
*	14
+	15
,	16
-	17
.	18
/	19
0	20
1	21
2	22
3	23
4	24
5	25
6	26
7	27
8	28
9	29
:	30
;	31
<	32
=	33
>	34
?	35
@	36
[	37
\	38
]	39
^	40
_	41
`	42
a	43
b	44
c	45
d	46
e	47
f	48
g	49
h	50
i	51
j	52
k	53
l	54
m	55
n	56
o	57
p	58
q	59
r	60
s	61
t	62
u	63
v	64
w	65
x	66
y	67
z	68
{	69
}	70
	71
¡	72
£	73
¤	74
§	75
©	76
­	77
®	78
°	79
±	80
·	81
¿	82
×	83
ß	84
à	85
á	86
â	87
ã	88
ä	89
å	90
ç	91
è	92
é	93
ê	94
ë	95
ì	96
í	97
î	98
ï	99
ð	100
ñ	101
ò	102
ó	103
ô	104
õ	105
ö	106
ø	107
ù	108
ú	109
û	110
ü	111
ý	112
ā	113
ă	114
ą	115
ć	116
ĉ	117
č	118
ď	119
đ	120
ē	121
ė	122
ę	123
ě	124
ğ	125
ı	126
ľ	127
ł	128
ń	129
ň	130
ō	131
ő	132
ř	133
ś	134
ş	135
š	136
ţ	137
ū	138
ů	139
ź	140
ż	141
ž	142
ƙ	143
ȃ	144
ȉ	145
ȑ	146
ȗ	147
ș	148
ț	149
ə	150
ʟ	151
̇	152
̈	153
̊	154
̋	155
̌	156
̧	157
έ	158
ή	159
α	160
γ	161
δ	162
μ	163
ο	164
π	165
ρ	166
ς	167
τ	168
υ	169
χ	170
ω	171
ό	172
а	173
е	174
к	175
л	176
н	177
о	178
ь	179
і	180
ј	181
ґ	182
ӣ	183
ӧ	184
ི	185
ྀ	186
ṓ	187
ṣ	188
ọ	189
ố	190
ἀ	191
‍	192
‎	193
‐	194
‒	195
―	196
‖	197
‟	198
•	199
‰	200
′	201
⁄	202
⁠	203
€	204
↑	205
⇒	206
−	207
∶	208
⏱	209
■	210
▪	211
▶	212
►	213
○	214
●	215
☀	216
☃	217
☑	218
☘	219
☺	220
♀	221
♡	222
♥	223
♦	224
♬	225
⚠	226
⚤	227
⚫	228
⚽	229
✓	230
✔	231
✠	232
✨	233
❄	234
❤	235
シ	236
传	237
多	238
陈	239
	240
	241
️	242
🇦	243
🇧	244
🇫	245
🇬	246
🇭	247
🇮	248
🇱	249
🇵	250
🇷	251
🇸	252
🇺	253
🇾	254
🌋	255
🌐	256
🌠	257
🌧	258
🌨	259
🌸	260
🌺	261
🌻	262
🍉	263
🍊	264
🎀	265
🎁	266
🎗	267
🏡	268
🏻	269
🐄	270
🐥	271
🐦	272
🐱	273
🐶	274
👀	275
👁	276
👇	277
👣	278
👶	279
💅	280
💋	281
💎	282
💕	283
💘	284
💙	285
💚	286
💟	287
💪	288
💯	289
📌	290
📢	291
📱	292
📸	293
🔄	294
🔥	295
🔹	296
🕓	297
🕷	298
🕸	299
🖥	300
😀	301
😁	302
😂	303
😅	304
😉	305
😊	306
😍	307
😎	308
😏	309
😬	310
😭	311
🙂	312
🙌	313
🙏	314
🛁	315
🟡	316
🟨	317
🤍	318
🤔	319
🤢	320
🤦	321
🤩	322
🤪	323
🤯	324
🥚	325
🥥	326
🥰	327
🥲	328
🥹	329
🥺	330
🦟	331
🩹	332
🩺	333
🪐	334
🫒	335
🫠	336
🫶	337
##u	338
##j	339
##i	340
##č	341
##ć	342
##l	343
##e	344
##z	345
##r	346
##a	347
##m	348
##o	349
##_	350
##2	351
##7	352
##3	353
##1	354
##9	355
##0	356
##6	357
##n	358
##s	359
##c	360
##v	361
##k	362
##ž	363
##'	364
##d	365
##b	366
##g	367
##p	368
##t	369
##5	370
##f	371
##h	372
##š	373
##4	374
##y	375
##8	376
##ı	377
##é	378
##w	379
##&	380
##đ	381
##x	382
##ì	383
##è	384
##ü	385
##ä	386
##ö	387
##q	388
##:	389
##[	390
##"	391
##.	392
##;	393
##í	394
##á	395
##ó	396
##!	397
##}	398
##å	399
##,	400
##ł	401
##ô	402
##ï	403
##*	404
##ø	405
##`	406
##ç	407
##/	408
##?	409
##传	410
##多	411
##ă	412
##)	413
##î	414
##$	415
###	416
##е	417
##-	418
##ğ	419
##\	420
##😂	421
##]	422
##ý	423
##έ	424
##ρ	425
##ο	426
##ς	427
##à	428
##ú	429
##ñ	430
##ë	431
##ľ	432
##💙	433
##′	434
##ȉ	435
##ā	436
##🔥	437
##ń	438
##ţ	439
##>	440
##ӧ	441
##ê	442
##🇸	443
##🏻	444
##👣	445
##­	446
##ą	447
##{	448
##ő	449
##ή	450
##ż	451
##ě	452
##γ	453
##ј	454
##ş	455
##ə	456
##🫠	457
##ό	458
##μ	459
##%	460
##ß	461
##🤩	462
##ò	463
##シ	464
##🙏	465
##ė	466
##ō	467
##â	468
##ȗ	469
##ď	470
##õ	471
##<	472
##ē	473
##+	474
##ù	475
##¤	476
##û	477
##ã	478
##а	479
##о	480
##¿	481
##¡	482
##ū	483
##ĉ	484
##ȃ	485
##ố	486
##🇾	487
##ș	488
##🇷	489
##@	490
##ӣ	491
##ð	492
##і	493
##̌	494
##🕷	495
##л	496
##н	497
##ω	498
##τ	499
##υ	500
##π	501
##ȑ	502
##🤯	503
##ț	504
##🥚	505
##ь	506
##ę	507
##ř	508
##ś	509
##ṓ	510
##̇	511
##✨	512
##ṣ	513
##ọ	514
##ི	515
##ྀ	516
##χ	517
##ů	518
##ź	519
##😏	520
##🔄	521
##🛁	522
##🇧	523
##🇺	524
##🇦	525
##🇵	526
##🇱	527
##🇮	528
##🍊	529
##🌻	530
##🤢	531
##↑	532
##je	533
##ra	534
je	535
##ti	536
##ni	537
na	538
##li	539
##ro	540
po	541
##no	542
##la	543
##re	544
##ko	545
##ri	546
##va	547
##ta	548
##na	549
##ja	550
##ma	551
##te	552
##vi	553
za	554
##vo	555
ko	556
##di	557
##ji	558
##to	559
##ka	560
##ju	561
##ne	562
da	563
##da	564
se	565
##ci	566
##ca	567
do	568
##lo	569
##ve	570
su	571
ne	572
ka	573
##st	574
od	575
bi	576
##mo	577
iz	578
##le	579
##ije	580
pro	581
##ru	582
sa	583
##ki	584
##me	585
##nu	586
ra	587
##sta	588
##go	589
pre	590
##ke	591
pri	592
mo	593
##nje	594
##ku	595
##ron	596
##sti	597
##caron	598
to	599
##ga	600
go	601
te	602
ma	603
##de	604
##zi	605
##lu	606
re	607
##nja	608
##lje	609
##bi	610
no	611
##po	612
##mi	613
mi	614
##pa	615
##cu	616
##tu	617
##ba	618
##bo	619
##či	620
##si	621
ni	622
##ce	623
##sko	624
pa	625
vi	626
ve	627
koji	628
##če	629
ccaron	630
ta	631
ca	632
##še	633
##ći	634
##ski	635
##za	636
##sa	637
će	638
##lja	639
##sto	640
##du	641
##ča	642
##že	643
##gu	644
##pi	645
##gra	646
godi	647
##do	648
me	649
ja	650
st	651
što	652
##cute	653
cacute	654
##će	655
li	656
va	657
ima	658
bo	659
##rva	660
##se	661
ob	662
pu	663
vo	664
os	665
##ća	666
##ša	667
##ža	668
##vje	669
##nog	670
in	671
##nom	672
##dni	673
##lj	674
tre	675
##lji	676
kako	677
##ži	678
zcaron	679
di	680
##vr	681
nje	682
hrva	683
sta	684
##ske	685
##cija	686
svo	687
##en	688
##nih	689
##pu	690
##ši	691
hrvat	692
naj	693
dru	694
##pe	695
##be	696
sve	697
##rije	698
ali	699
ba	700
##ran	701
nije	702
##vu	703
##nim	704
raz	705
##gi	706
pred	707
##su	708
ti	709
koje	710
gra	711
eu	712
si	713
##vije	714
##zo	715
de	716
##nji	717
=>	718
##lju	719
ku	720
##dje	721
jo	722
kao	723
##nju	724
20	725
pr	726
##kon	727
##mje	728
##ge	729
##vno	730
##cije	731
##kom	732
pos	733
##ho	734
",	735
pe	736
če	737
##jo	738
sam	739
##ska	740
##đe	741
##tak	742
##ze	743
be	744
pi	745
is	746
ga	747
nakon	748
pod	749
##mu	750
pra	751
jed	752
tu	753
pot	754
ju	755
du	756
zna	757
mje	758
ru	759
##stu	760
##pre	761
lo	762
godine	763
##pra	764
##vić	765
##vni	766
la	767
pla	768
mu	769
ovo	770
dje	771
lju	772
fi	773
smo	774
ili	775
##rža	776
biti	777
##tni	778
dana	779
ot	780
##zu	781
##sje	782
ro	783
kon	784
##zna	785
koja	786
gla	787
##so	788
samo	789
##sni	790
##rt	791
tako	792
bu	793
uz	794
##đa	795
##đu	796
više	797
prije	798
##bu	799
bio	800
tra	801
##tno	802
##liko	803
nji	804
us	805
##vlja	806
##dio	807
svi	808
##govo	809
##skog	810
##rno	811
##tra	812
kra	813
##",	814
ži	815
igra	816
##rati	817
poli	818
##dno	819
vla	820
##men	821
##kao	822
##dan	823
još	824
može	825
že	826
"",	827
či	828
##or	829
##šta	830
##gle	831
jer	832
stra	833
zbo	834
##fi	835
##ha	836
##gre	837
##rni	838
##tiv	839
spo	840
zbog	841
osta	842
le	843
##ste	844
##čki	845
treba	846
##lni	847
on	848
au	849
ova	850
ki	851
sva	852
ha	853
rekao	854
mogu	855
##nije	856
euro	857
an	858
ci	859
posto	860
##stro	861
bro	862
vr	863
##vanje	864
slu	865
##00	866
##skoj	867
##sno	868
bilo	869
rije	870
##tje	871
##ču	872
##vio	873
veli	874
vje	875
godina	876
op	877
##gla	878
":	879
##lno	880
##vati	881
##bro	882
":"	883
##dra	884
##mije	885
##skom	886
##ciju	887
##skih	888
uk	889
##he	890
##stva	891
##telji	892
##št	893
##šte	894
dok	895
vrije	896
cije	897
##sku	898
202	899
ih	900
##telj	901
##fe	902
radi	903
obja	904
kada	905
sre	906
##sjedni	907
sto	908
doda	909
oso	910
##vali	911
ze	912
obi	913
već	914
##vlje	915
tri	916
prema	917
oko	918
kri	919
##čno	920
om	921
eura	922
bila	923
##van	924
##stra	925
##lije	926
##vanja	927
dstro	928
dstrok	929
fo	930
mora	931
predsjedni	932
utak	933
utakmi	934
tije	935
##ren	936
novi	937
ako	938
sla	939
zagre	940
dobi	941
##kla	942
19	943
njego	944
##rija	945
##nici	946
drža	947
##vori	948
pob	949
##tro	950
##ven	951
##ću	952
##pli	953
kad	954
##tar	955
##..	956
posta	957
or	958
sr	959
ak	960
##čko	961
##stvo	962
jp	963
fa	964
izbo	965
jpg	966
živo	967
##ona	968
ri	969
među	970
im	971
##reme	972
##što	973
##20	974
##kri	975
lu	976
##ter	977
so	978
##lim	979
##joj	980
10	981
ljudi	982
nas	983
odlu	984
##hi	985
kre	986
ho	987
auto	988
ča	989
sje	990
##ng	991
ove	992
##jom	993
kori	994
##kre	995
##ner	996
dva	997
jedan	998
##viti	999
slo	1000
svoje	1001
##tko	1002
##tom	1003
svje	1004
##bli	1005
bez	1006
##ciji	1007
neko	1008
tr	1009
mla	1010
##nika	1011
...	1012
sti	1013
protiv	1014
##nica	1015
bra	1016
".	1017
##om	1018
njiho	1019
odno	1020
sada	1021
##vom	1022
nema	1023
stva	1024
##šti	1025
poče	1026
drugi	1027
nasta	1028
##80	1029
iza	1030
upra	1031
##lazi	1032
##vima	1033
##rom	1034
##bno	1035
mar	1036
klu	1037
##ško	1038
##jte	1039
##pri	1040
mili	1041
pita	1042
gdje	1043
nam	1044
še	1045
##gleda	1046
##ble	1047
stu	1048
##žu	1049
##nima	1050
##spo	1051
europ	1052
lije	1053
##dar	1054
##voj	1055
osi	1056
##pisa	1057
##čke	1058
taj	1059
nego	1060
izra	1061
pje	1062
broj	1063
##met	1064
trenu	1065
prvi	1066
##jek	1067
##40	1068
sigu	1069
par	1070
##sla	1071
##cima	1072
sma	1073
sad	1074
##nt	1075
pobje	1076
dije	1077
pomo	1078
dobro	1079
##ruč	1080
prija	1081
##log	1082
obra	1083
ste	1084
tvr	1085
##kup	1086
ovi	1087
nisu	1088
ši	1089
zdra	1090
danas	1091
##rao	1092
pove	1093
##godi	1094
##vila	1095
##sre	1096
ce	1097
##tka	1098
##pje	1099
hrvatske	1100
toga	1101
##šao	1102
##stup	1103
##for	1104
##cij	1105
##nski	1106
vrijeme	1107
##nost	1108
##nuti	1109
##jući	1110
##_2	1111
##tvr	1112
fina	1113
##iz	1114
##dne	1115
pozi	1116
kod	1117
mini	1118
ško	1119
nu	1120
##nik	1121
##lan	1122
proble	1123
al	1124
društ	1125
poka	1126
godiš	1127
zaje	1128
politi	1129
grad	1130
svije	1131
predsta	1132
proš	1133
ide	1134
dio	1135
popu	1136
dina	1137
žu	1138
##ndi	1139
lje	1140
##nuo	1141
napa	1142
##nosti	1143
spli	1144
neki	1145
medi	1146
##tor	1147
isto	1148
##on	1149
##tua	1150
oz	1151
##tim	1152
##lom	1153
zah	1154
isti	1155
bili	1156
sezo	1157
drugo	1158
mjese	1159
pose	1160
potre	1161
tijekom	1162
najbo	1163
kom	1164
ov	1165
##el	1166
ar	1167
##dom	1168
poslje	1169
##vao	1170
##star	1171
##skim	1172
gu	1173
##meta	1174
nekoliko	1175
##man	1176
rea	1177
en	1178
kro	1179
##vara	1180
dra	1181
cr	1182
zem	1183
oba	1184
tje	1185
foto	1186
doma	1187
dan	1188
vide	1189
##vijek	1190
istra	1191
svoji	1192
ukra	1193
zavr	1194
mis	1195
poru	1196
##nko	1197
##tjeca	1198
koju	1199
),	1200
pozna	1201
dvo	1202
##ciona	1203
12	1204
otkri	1205
##lne	1206
upo	1207
##vaju	1208
proiz	1209
dr	1210
##bra	1211
uspje	1212
##gao	1213
##pan	1214
kaza	1215
##lek	1216
jedno	1217
orga	1218
##dna	1219
fe	1220
umje	1221
##rio	1222
kaže	1223
##nice	1224
##ška	1225
nogo	1226
malo	1227
osje	1228
sati	1229
nika	1230
ša	1231
##diti	1232
##sam	1233
prili	1234
sna	1235
ona	1236
sku	1237
br	1238
projek	1239
15	1240
hi	1241
miliju	1242
##dnji	1243
prva	1244
##pla	1245
odgovo	1246
ge	1247
##rta	1248
puno	1249
##vija	1250
uvijek	1251
##vog	1252
##čio	1253
hrvatskoj	1254
##zira	1255
jedna	1256
nešto	1257
sigurno	1258
poslo	1259
##dnje	1260
27	1261
proizvo	1262
oni	1263
##zul	1264
##vne	1265
##đer	1266
put	1267
##niji	1268
##meri	1269
tome	1270
jako	1271
nad	1272
također	1273
##gen	1274
##nira	1275
##tku	1276
pono	1277
hrvatska	1278
pet	1279
organi	1280
njezi	1281
##tan	1282
tro	1283
jedi	1284
##žbe	1285
dvije	1286
##nk	1287
inte	1288
oče	1289
zapo	1290
##zen	1291
##rima	1292
poja	1293
vozi	1294
ameri	1295
##tivno	1296
##stve	1297
##vna	1298
ukraji	1299
##ako	1300
rezul	1301
ovaj	1302
##nosi	1303
##nti	1304
##vore	1305
##klju	1306
he	1307
izme	1308
##lano	1309
svjet	1310
##đen	1311
##tne	1312
##vala	1313
fil	1314
##nio	1315
bri	1316
##kvi	1317
##_27	1318
##vnog	1319
##hu	1320
cen	1321
##ver	1322
201	1323
iako	1324
tek	1325
sko	1326
ono	1327
govori	1328
ope	1329
##volj	1330
prote	1331
30	1332
##čka	1333
gle	1334
haj	1335
predsjednik	1336
ču	1337
ple	1338
doga	1339
najve	1340
ras	1341
##jem	1342
##rak	1343
ministar	1344
##čin	1345
##red	1346
budu	1347
vreme	1348
##klo	1349
pogo	1350
održa	1351
kojima	1352
##vili	1353
fran	1354
ke	1355
rekla	1356
rezulta	1357
neće	1358
voj	1359
##nd	1360
##telja	1361
##ss	1362
milijuna	1363
vu	1364
##vši	1365
čak	1366
vrlo	1367
napra	1368
##risti	1369
onda	1370
ista	1371
video	1372
##voji	1373
##dova	1374
##njem	1375
##gli	1376
imaju	1377
kojem	1378
##tio	1379
veći	1380
##nj	1381
##ted	1382
##tiri	1383
gleda	1384
tru	1385
dese	1386
##žno	1387
zagreba	1388
hajdu	1389
sli	1390
dalje	1391
uvje	1392
##zenta	1393
mnog	1394
spa	1395
##čni	1396
navo	1397
tko	1398
područ	1399
sluča	1400
##in	1401
vodi	1402
uklju	1403
koliko	1404
svoj	1405
između	1406
tom	1407
situa	1408
##op	1409
poku	1410
##pak	1411
vra	1412
naš	1413
kroz	1414
vije	1415
veliki	1416
nova	1417
11	1418
progra	1419
##nda	1420
kojoj	1421
vam	1422
mre	1423
##jan	1424
repre	1425
razli	1426
njema	1427
##nija	1428
##tovo	1429
vara	1430
kr	1431
tada	1432
##više	1433
pokaza	1434
##kra	1435
prosto	1436
događa	1437
svojim	1438
##njak	1439
njih	1440
reprezenta	1441
naše	1442
##vnom	1443
##vreme	1444
mom	1445
bli	1446
##niti	1447
građa	1448
dugo	1449
dola	1450
joj	1451
##dru	1452
##forma	1453
smje	1454
susta	1455
pripre	1456
bit	1457
ćemo	1458
##nera	1459
publi	1460
četvr	1461
##dri	1462
##stru	1463
obje	1464
ula	1465
##smo	1466
##bri	1467
svoju	1468
##kr	1469
sup	1470
##đi	1471
neka	1472
uči	1473
kvali	1474
loka	1475
župa	1476
##čić	1477
smatra	1478
glaz	1479
##nta	1480
bor	1481
glu	1482
##stri	1483
##čne	1484
komen	1485
##ks	1486
##vla	1487
##kli	1488
bih	1489
##tke	1490
zajedni	1491
mjesto	1492
##čkog	1493
minu	1494
pret	1495
puta	1496
pogleda	1497
ljuba	1498
hd	1499
18	1500
##tira	1501
##zne	1502
poput	1503
fu	1504
##vor	1505
radio	1506
##nama	1507
##roja	1508
vidje	1509
ime	1510
##kle	1511
zo	1512
ure	1513
13	1514
prona	1515
inter	1516
konce	1517
kandi	1518
##nske	1519
pora	1520
jednom	1521
zašti	1522
prven	1523
##bio	1524
##ždi	1525
zdrav	1526
##noj	1527
##24	1528
preko	1529
##an	1530
osoba	1531
2024	1532
vrati	1533
četiri	1534
osigu	1535
slobo	1536
varaždi	1537
##tima	1538
istak	1539
iva	1540
##nova	1541
dinamo	1542
službe	1543
mladi	1544
društve	1545
osim	1546
##ct	1547
split	1548
želi	1549
##titi	1550
zat	1551
izja	1552
##nače	1553
',	1554
pokuša	1555
način	1556
##per	1557
##lova	1558
primje	1559
hra	1560
gr	1561
tak	1562
život	1563
17	1564
druge	1565
grada	1566
000	1567
zra	1568
##ry	1569
##ški	1570
naja	1571
osvoji	1572
javno	1573
kar	1574
posje	1575
uda	1576
kul	1577
tisu	1578
##kto	1579
podi	1580
##vim	1581
##nci	1582
hrvatski	1583
##riti	1584
##vede	1585
manje	1586
utakmice	1587
doš	1588
piše	1589
odnosno	1590
ipak	1591
imao	1592
kru	1593
##šnje	1594
##šnji	1595
sport	1596
kandida	1597
nastu	1598
##mis	1599
hr	1600
povije	1601
##ll	1602
spre	1603
##rna	1604
prvo	1605
##štu	1606
gru	1607
##co	1608
##stvu	1609
mnogi	1610
##mir	1611
##rne	1612
sura	1613
##sao	1614
##čiti	1615
teško	1616
##movi	1617
promje	1618
bla	1619
hdz	1620
##fa	1621
susre	1622
50	1623
srp	1624
navija	1625
ski	1626
tim	1627
pone	1628
##bije	1629
skupi	1630
ovom	1631
stran	1632
obitelji	1633
vas	1634
pokre	1635
##ksi	1636
##vesti	1637
razi	1638
16	1639
##bora	1640
pravo	1641
dubro	1642
dogodi	1643
ener	1644
posebno	1645
##com	1646
##tara	1647
sezone	1648
uli	1649
natjeca	1650
nove	1651
usta	1652
vode	1653
gro	1654
kla	1655
er	1656
viso	1657
naciona	1658
ovog	1659
odu	1660
##nula	1661
maj	1662
##čili	1663
nisam	1664
ulo	1665
potvr	1666
završi	1667
##šu	1668
##jeli	1669
##nal	1670
##mpa	1671
vlasti	1672
svako	1673
gotovo	1674
koristi	1675
##šić	1676
strane	1677
teh	1678
##dam	1679
čo	1680
gospo	1681
vremena	1682
poveća	1683
##pada	1684
##cted	1685
zaklju	1686
regi	1687
##čer	1688
##vanju	1689
##ck	1690
##ljede	1691
([	1692
fotogra	1693
##nali	1694
##mobi	1695
1024	1696
##cijama	1697
protected	1698
##tri	1699
svih	1700
##plo	1701
potpu	1702
##ime	1703
mari	1704
pote	1705
##tet	1706
unu	1707
kazao	1708
one	1709
informa	1710
mjesta	1711
proda	1712
25	1713
tere	1714
naši	1715
automobi	1716
šu	1717
##rac	1718
njega	1719
##glasi	1720
##nka	1721
organiza	1722
##lma	1723
odre	1724
##lić	1725
premije	1726
baš	1727
rodi	1728
##sne	1729
14	1730
##žda	1731
imati	1732
##vnih	1733
vidi	1734
kultu	1735
##ch	1736
obitelj	1737
##pusti	1738
).	1739
ostva	1740
stude	1741
poda	1742
sudje	1743
rje	1744
##ške	1745
##govara	1746
kraju	1747
una	1748
nagra	1749
##ment	1750
##čkih	1751
##tre	1752
možda	1753
oda	1754
##ljivo	1755
of	1756
sasta	1757
ništa	1758
nosi	1759
kli	1760
sredi	1761
##rica	1762
kolo	1763
##mp	1764
bude	1765
zato	1766
upravo	1767
glazbe	1768
isku	1769
co	1770
knji	1771
nju	1772
##čan	1773
##zni	1774
obo	1775
sm	1776
teme	1777
rad	1778
odma	1779
##ranje	1780
at	1781
milano	1782
part	1783
utakmica	1784
supru	1785
##pozna	1786
muška	1787
##čaj	1788
for	1789
policija	1790
##ar	1791
##vra	1792
mogao	1793
mode	1794
##cio	1795
kazne	1796
emo	1797
njima	1798
momča	1799
zagrebu	1800
dire	1801
##teta	1802
mate	1803
##hva	1804
##tem	1805
##80x	1806
uo	1807
polu	1808
200	1809
riječ	1810
radni	1811
##lna	1812
ivan	1813
nesre	1814
grado	1815
em	1816
klju	1817
sred	1818
##40x	1819
neke	1820
##riji	1821
najbolji	1822
istraži	1823
vlada	1824
tran	1825
nedje	1826
##ljem	1827
izgu	1828
godinu	1829
napo	1830
svaki	1831
spe	1832
tele	1833
osjeća	1834
##čkoj	1835
zapa	1836
stru	1837
plenko	1838
francu	1839
deset	1840
kojeg	1841
object	1842
##as	1843
##mogu	1844
njegova	1845
čeka	1846
##lnih	1847
djela	1848
njegov	1849
##prije	1850
##dili	1851
##tin	1852
##uze	1853
##tna	1854
pogledajte	1855
21	1856
imamo	1857
dodao	1858
##snije	1859
napada	1860
and	1861
24	1862
##san	1863
pitanje	1864
špan	1865
##rić	1866
otvore	1867
##dila	1868
zla	1869
##ković	1870
##hvati	1871
##rana	1872
##kav	1873
podr	1874
##čna	1875
zi	1876
karije	1877
imali	1878
opa	1879
##vih	1880
##kuje	1881
priča	1882
##ljen	1883
često	1884
bar	1885
šest	1886
zako	1887
##oj	1888
promet	1889
##sna	1890
##šnja	1891
inf	1892
druga	1893
važ	1894
bolni	1895
upozo	1896
##lnik	1897
nja	1898
subo	1899
##vica	1900
prizna	1901
pru	1902
##rali	1903
zado	1904
repu	1905
##ncija	1906
##pro	1907
dalma	1908
id	1909
napisa	1910
dne	1911
mislim	1912
##zak	1913
##_271	1914
novo	1915
posla	1916
svom	1917
španjo	1918
pjes	1919
izgleda	1920
mjestu	1921
niko	1922
čini	1923
##lnog	1924
##sle	1925
##lio	1926
##ton	1927
eki	1928
vlasni	1929
bolje	1930
ovdje	1931
##kve	1932
00	1933
stvari	1934
možemo	1935
podsje	1936
##čkom	1937
uspo	1938
zašto	1939
podu	1940
trgo	1941
##vnik	1942
struč	1943
pomoć	1944
sebe	1945
##bija	1946
##rovi	1947
oti	1948
ukup	1949
##er	1950
##cje	1951
njegovo	1952
##mpe	1953
kraj	1954
naime	1955
dosta	1956
novina	1957
republi	1958
optu	1959
##jedi	1960
opći	1961
raspo	1962
ponu	1963
posao	1964
poz	1965
##bar	1966
##kova	1967
odra	1968
hu	1969
traži	1970
ću	1971
##lle	1972
problem	1973
čovje	1974
sd	1975
##pio	1976
dobio	1977
##bor	1978
##ljak	1979
predsjednika	1980
izrael	1981
voza	1982
##rojatno	1983
cu	1984
posti	1985
kasnije	1986
španjol	1987
udru	1988
2720	1989
opo	1990
odmah	1991
neo	1992
zajedno	1993
uče	1994
kate	1995
##dovi	1996
minuti	1997
##čar	1998
svim	1999
poma	2000
života	2001
obzi	2002
##glo	2003
##ćem	2004
kraja	2005
raču	2006
elek	2007
zahva	2008
utjeca	2009
vjeru	2010
uži	2011
stano	2012
odi	2013
polj	2014
sud	2015
znači	2016
ad	2017
##cla	2018
##tki	2019
##pred	2020
prošle	2021
##rani	2022
trener	2023
najviše	2024
pp	2025
izda	2026
osno	2027
##vljen	2028
##nskog	2029
##tkom	2030
pobije	2031
vozila	2032
hrvatsku	2033
velika	2034
priro	2035
bole	2036
posljednji	2037
ugovo	2038
##rtu	2039
zagreb	2040
veliko	2041
hrvatskog	2042
name	2043
save	2044
nalazi	2045
komu	2046
savje	2047
tamo	2048
kola	2049
idu	2050
nov	2051
svijetu	2052
gi	2053
##nata	2054
sun	2055
minuta	2056
ska	2057
nogomet	2058
odje	2059
postoji	2060
the	2061
##rava	2062
##šlja	2063
domaći	2064
##rma	2065
##vnim	2066
uključu	2067
##ktor	2068
pola	2069
kontro	2070
vrijedno	2071
##dnja	2072
olim	2073
poči	2074
sce	2075
međutim	2076
djece	2077
možete	2078
film	2079
gol	2080
100	2081
##blje	2082
##class	2083
##stima	2084
aktivno	2085
neda	2086
predstavlja	2087
trži	2088
pona	2089
mogli	2090
##zuje	2091
ponovno	2092
oči	2093
##dclass	2094
dolazi	2095
stdclass	2096
izvo	2097
sljede	2098
22	2099
zlo	2100
##ved	2101
osu	2102
djelo	2103
##ut	2104
naro	2105
##opće	2106
neza	2107
##tali	2108
##raju	2109
niti	2110
##nović	2111
##piti	2112
prvaka	2113
##rala	2114
pjeva	2115
ispo	2116
tisuća	2117
izne	2118
##zima	2119
uni	2120
toliko	2121
##nin	2122
olimpi	2123
evo	2124
ovu	2125
odli	2126
utakmicu	2127
suda	2128
sklo	2129
prati	2130
##žen	2131
proce	2132
##čku	2133
##loga	2134
##ćen	2135
problema	2136
##ljiv	2137
##rka	2138
##che	2139
gor	2140
jednu	2141
##jski	2142
odigra	2143
##nde	2144
##pravo	2145
ivo	2146
##il	2147
klub	2148
ranije	2149
##nuli	2150
##vnika	2151
provo	2152
##šli	2153
image	2154
omogu	2155
pore	2156
profe	2157
sum	2158
##njen	2159
##12	2160
##naro	2161
osobe	2162
jednosta	2163
kvalite	2164
##tnika	2165
lige	2166
kole	2167
pravi	2168
##lnim	2169
nave	2170
##kti	2171
oto	2172
23	2173
zapravo	2174
plo	2175
nara	2176
prava	2177
##slu	2178
##voljno	2179
području	2180
najveći	2181
##kva	2182
srije	2183
produ	2184
šte	2185
##ratu	2186
##rili	2187
##renje	2188
jednog	2189
eko	2190
##vre	2191
plaća	2192
tempe	2193
kluba	2194
##tnih	2195
bije	2196
festi	2197
##šku	2198
##ris	2199
##kako	2200
demo	2201
##lina	2202
izgra	2203
svog	2204
ozbi	2205
##čila	2206
time	2207
netko	2208
##fina	2209
mno	2210
##gije	2211
##sija	2212
ljubav	2213
veza	2214
policij	2215
moguć	2216
upravlja	2217
reći	2218
deta	2219
iznena	2220
##bje	2221
2023	2222
zahtje	2223
ben	2224
šo	2225
bivši	2226
turisti	2227
sudjelo	2228
##vaja	2229
##nac	2230
kilo	2231
ozlije	2232
oku	2233
vatro	2234
temperatu	2235
trenutku	2236
##mbe	2237
##zem	2238
boga	2239
vjerojatno	2240
kona	2241
sja	2242
eks	2243
##jna	2244
petak	2245
obzirom	2246
##nstve	2247
manda	2248
imala	2249
tradi	2250
##rice	2251
zastup	2252
super	2253
##rnik	2254
##rem	2255
hajduk	2256
##up	2257
##kama	2258
##žava	2259
og	2260
ponedje	2261
##she	2262
##stitu	2263
##feren	2264
unutar	2265
nismo	2266
prvom	2267
##br	2268
##cama	2269
##al	2270
vlade	2271
tog	2272
igrača	2273
gospodar	2274
utvr	2275
drugom	2276
##jske	2277
pisa	2278
crve	2279
kojim	2280
izazo	2281
nogometa	2282
zemlje	2283
kup	2284
##đenje	2285
najbolje	2286
brzo	2287
stan	2288
40	2289
##lar	2290
##lue	2291
djevoj	2292
ty	2293
##mira	2294
genera	2295
##ktu	2296
##dnim	2297
pomoći	2298
misli	2299
##gled	2300
##kaza	2301
##čima	2302
zdravstve	2303
nedo	2304
##tnik	2305
potom	2306
##vića	2307
trans	2308
##ksu	2309
##čen	2310
zele	2311
člano	2312
##son	2313
gradonače	2314
sedam	2315
per	2316
##lost	2317
opet	2318
luka	2319
godišnji	2320
opre	2321
čega	2322
korisni	2323
##tić	2324
##laze	2325
studi	2326
finan	2327
fotografi	2328
objavio	2329
međunaro	2330
rješe	2331
##šće	2332
##lih	2333
##mat	2334
##den	2335
##nak	2336
očeki	2337
mjeseci	2338
povje	2339
alias	2340
hla	2341
##bre	2342
##nos	2343
##shed	2344
aj	2345
ok	2346
zgra	2347
##lin	2348
##žiti	2349
published	2350
isko	2351
izvje	2352
mene	2353
svijeta	2354
snim	2355
##mina	2356
##lov	2357
raditi	2358
svojoj	2359
sdp	2360
##čnih	2361
izvr	2362
##pis	2363
##tnu	2364
##nicu	2365
##zor	2366
promije	2367
intere	2368
osam	2369
izvan	2370
rada	2371
zanim	2372
biv	2373
##spe	2374
##bom	2375
priva	2376
##lima	2377
mogla	2378
##đeno	2379
##rila	2380
##nad	2381
josi	2382
odvje	2383
potpuno	2384
nikad	2385
mreža	2386
##mor	2387
##šava	2388
dosa	2389
žena	2390
poduze	2391
##vijesti	2392
svega	2393
##rnost	2394
##vac	2395
##đena	2396
vatroga	2397
##dnih	2398
nama	2399
##boj	2400
navodi	2401
vidjeti	2402
slije	2403
stoji	2404
##sci	2405
insta	2406
velike	2407
istaknuo	2408
prosje	2409
funk	2410
ozbilj	2411
bile	2412
##ban	2413
znam	2414
##zda	2415
tali	2416
lip	2417
postoje	2418
##dnju	2419
razvo	2420
ji	2421
mije	2422
smije	2423
##lnu	2424
preda	2425
razgovo	2426
ovih	2427
cilj	2428
zau	2429
doku	2430
parla	2431
eli	2432
##rd	2433
group	2434
26	2435
ovoj	2436
##teljica	2437
##novi	2438
##čkim	2439
##slav	2440
sprem	2441
subotu	2442
##zije	2443
projekt	2444
usko	2445
##deri	2446
glavni	2447
2022	2448
##ćeg	2449
am	2450
očekuje	2451
agen	2452
pojedi	2453
puto	2454
##dnik	2455
nesta	2456
vrhu	2457
država	2458
##nca	2459
institu	2460
osob	2461
bru	2462
prve	2463
##teljima	2464
199	2465
namje	2466
##jima	2467
dovoljno	2468
neu	2469
##žio	2470
nom	2471
plenković	2472
slučaju	2473
društvenim	2474
povra	2475
razdo	2476
##cijom	2477
##njima	2478
veče	2479
gradu	2480
polo	2481
##mom	2482
listo	2483
trav	2484
ogra	2485
domovi	2486
priprema	2487
rado	2488
.,	2489
##bili	2490
osije	2491
##som	2492
##žić	2493
##čica	2494
##20x	2495
naravno	2496
##tori	2497
priliku	2498
##nike	2499
##der	2500
zaba	2501
jasno	2502
zaposle	2503
objasni	2504
##telje	2505
##480	2506
##gom	2507
maksi	2508
jezi	2509
##ster	2510
ugo	2511
bira	2512
planira	2513
uspješ	2514
##zija	2515
financij	2516
##rti	2517
sho	2518
brani	2519
tjedna	2520
upu	2521
psi	2522
nedjelju	2523
kriti	2524
drugih	2525
zadar	2526
##mišlja	2527
svojih	2528
uto	2529
##šla	2530
tur	2531
čla	2532
turni	2533
nedavno	2534
we	2535
lop	2536
##kuplja	2537
trebao	2538
ponedjeljak	2539
ža	2540
##menta	2541
milanović	2542
rezultat	2543
type	2544
emi	2545
##nce	2546
##ranja	2547
##tica	2548
moj	2549
poslije	2550
razu	2551
##tila	2552
ig	2553
turi	2554
##fo	2555
uslu	2556
andre	2557
rata	2558
rade	2559
premi	2560
##šen	2561
marko	2562
##vnu	2563
odnosu	2564
##zma	2565
program	2566
##tine	2567
igrati	2568
dijete	2569
##gor	2570
obu	2571
uju	2572
##fika	2573
naglasi	2574
izbje	2575
trenutno	2576
mnogo	2577
koli	2578
smi	2579
jugo	2580
##taka	2581
zatim	2582
donije	2583
skla	2584
ispri	2585
europske	2586
ivana	2587
tih	2588
ini	2589
nitko	2590
hrvatskih	2591
uzro	2592
dogovo	2593
najma	2594
obilje	2595
value	2596
posve	2597
orderi	2598
pretho	2599
ordering	2600
anali	2601
##njoj	2602
##spi	2603
cijene	2604
##1280	2605
28	2606
##ista	2607
##pisu	2608
kva	2609
moguće	2610
ele	2611
oru	2612
godini	2613
čita	2614
##ty	2615
premijer	2616
ske	2617
poveza	2618
preki	2619
##poru	2620
zemlji	2621
##drža	2622
katego	2623
deve	2624
sjeve	2625
##ns	2626
buduć	2627
##th	2628
djecu	2629
nastupa	2630
došao	2631
rat	2632
inače	2633
prepozna	2634
##jemo	2635
novog	2636
spome	2637
ovim	2638
potencija	2639
ava	2640
gre	2641
ispred	2642
značaj	2643
sije	2644
prome	2645
rijeka	2646
izbora	2647
zvije	2648
kuće	2649
uhi	2650
odr	2651
off	2652
putem	2653
poseb	2654
iznosi	2655
kupa	2656
'.	2657
29	2658
tehno	2659
##dnu	2660
##dana	2661
nog	2662
##kić	2663
##rce	2664
##dnog	2665
##laz	2666
srijedu	2667
kampa	2668
dinama	2669
##jno	2670
##tru	2671
cijena	2672
##nić	2673
tvrdi	2674
uje	2675
##đenja	2676
umjesto	2677
stranke	2678
svima	2679
io	2680
potro	2681
konferen	2682
moramo	2683
drugim	2684
stre	2685
bodova	2686
utorak	2687
##jar	2688
glasa	2689
osobi	2690
dijelu	2691
varaždin	2692
sustav	2693
momčad	2694
zamje	2695
##voza	2696
djeca	2697
hote	2698
##vine	2699
sata	2700
izlo	2701
nikada	2702
ug	2703
60	2704
modri	2705
želje	2706
pozo	2707
ravna	2708
obrazo	2709
član	2710
novu	2711
pak	2712
godišnje	2713
hoće	2714
investi	2715
donosi	2716
##gova	2717
niz	2718
medici	2719
povr	2720
##dak	2721
##stupa	2722
ćete	2723
nedosta	2724
com	2725
dobar	2726
otvori	2727
mr	2728
prosi	2729
izbor	2730
povijesti	2731
##čnu	2732
ser	2733
ut	2734
meni	2735
##tog	2736
kojih	2737
metara	2738
##dnom	2739
nazi	2740
##logi	2741
##bina	2742
doći	2743
svijet	2744
##tirao	2745
##vremeno	2746
dobiti	2747
škole	2748
upozna	2749
##gnu	2750
godinama	2751
##stava	2752
mjeseca	2753
##kna	2754
ispu	2755
svjedo	2756
ističe	2757
poža	2758
dija	2759
dobili	2760
##pita	2761
glumi	2762
republike	2763
okru	2764
naša	2765
dakle	2766
kata	2767
zdravlje	2768
situacija	2769
osvojio	2770
godišnjak	2771
##liti	2772
utakmici	2773
35	2774
ap	2775
gori	2776
sin	2777
potra	2778
##tili	2779
##rina	2780
##vid	2781
županije	2782
mirovi	2783
države	2784
glaso	2785
##nove	2786
mir	2787
##čita	2788
##sak	2789
##žan	2790
prvu	2791
##lnom	2792
pari	2793
razini	2794
moći	2795
1280x	2796
suko	2797
njemu	2798
##šiti	2799
strana	2800
rizi	2801
unato	2802
vaše	2803
popula	2804
doži	2805
prvog	2806
man	2807
obli	2808
har	2809
njegove	2810
diza	2811
para	2812
traja	2813
##ple	2814
##kata	2815
provje	2816
##dese	2817
svib	2818
njihov	2819
rt	2820
ljude	2821
##kretni	2822
##veo	2823
moglo	2824
važno	2825
centra	2826
640x	2827
rijeke	2828
##loba	2829
splitu	2830
##ljan	2831
prošlo	2832
moraju	2833
##tion	2834
vatre	2835
živi	2836
pobjedu	2837
činje	2838
posljednje	2839
##tina	2840
##kar	2841
zemlja	2842
tvrtke	2843
80	2844
##timo	2845
fizi	2846
##tle	2847
uključujući	2848
wi	2849
45	2850
##rg	2851
zara	2852
##gan	2853
cijeli	2854
##rci	2855
došlo	2856
new	2857
podijeli	2858
##ogra	2859
zakon	2860
prosla	2861
nih	2862
ljud	2863
otkrio	2864
##nte	2865
snage	2866
dro	2867
ete	2868
obve	2869
srbi	2870
vladi	2871
potrebno	2872
mrežama	2873
indu	2874
postao	2875
##jka	2876
##vlju	2877
žele	2878
milijar	2879
stvarno	2880
poručio	2881
ukupno	2882
trebalo	2883
organizira	2884
hajduka	2885
dolara	2886
dogodilo	2887
##jih	2888
sebi	2889
prima	2890
novih	2891
jednostavno	2892
čemu	2893
lipnja	2894
ica	2895
fili	2896
pobjede	2897
odgovor	2898
##tivni	2899
pros	2900
vre	2901
marija	2902
uprave	2903
plat	2904
opera	2905
##wi	2906
##jeva	2907
toj	2908
zabra	2909
potreb	2910
posljednjih	2911
manji	2912
##voje	2913
objavila	2914
javnosti	2915
napraviti	2916
igre	2917
##vite	2918
profi	2919
lako	2920
ispod	2921
480x	2922
pogi	2923
##vora	2924
otkrila	2925
prilikom	2926
af	2927
nasi	2928
kažu	2929
razvoj	2930
##nke	2931
##ksa	2932
čovjek	2933
ugla	2934
der	2935
340x	2936
bre	2937
dre	2938
nepo	2939
igrač	2940
dodaje	2941
socija	2942
biste	2943
sveu	2944
šibe	2945
poljo	2946
kuha	2947
sporta	2948
zabio	2949
vanj	2950
izaz	2951
žene	2952
oduše	2953
olimpij	2954
##11	2955
kame	2956
##šten	2957
razmišlja	2958
engle	2959
zadovolj	2960
novac	2961
cro	2962
ek	2963
zaslu	2964
##stre	2965
stati	2966
poljopri	2967
zadnji	2968
njihove	2969
instagra	2970
rekli	2971
podrža	2972
##ndo	2973
##renja	2974
dale	2975
##zuju	2976
##rnoj	2977
postup	2978
##žni	2979
pada	2980
sjever	2981
##dnika	2982
snima	2983
##lla	2984
stoga	2985
prostor	2986
##tnog	2987
##wa	2988
##veli	2989
##kovi	2990
##čenje	2991
##čak	2992
ponaša	2993
blo	2994
cha	2995
njihova	2996
izjavio	2997
pobo	2998
prisu	2999
hrvatskom	3000
uglavnom	3001
##blja	3002
##lak	3003
zahvalju	3004
zausta	3005
kine	3006
gubi	3007
nada	3008
teni	3009
##vljaju	3010
trebali	3011
isklju	3012
šan	3013
brzi	3014
##mac	3015
san	3016
##đene	3017
odluka	3018
prijatelj	3019
škola	3020
kor	3021
odla	3022
siječ	3023
bes	3024
sustava	3025
##gdje	3026
##šću	3027
##jelo	3028
kolu	3029
njezin	3030
##krša	3031
stadio	3032
izborima	3033
##tivi	3034
polju	3035
##đeni	3036
započe	3037
momčadi	3038
iznim	3039
ljubi	3040
##tinu	3041
norma	3042
jedne	3043
festiva	3044
natje	3045
##dić	3046
##fije	3047
bismo	3048
bolji	3049
kući	3050
poslu	3051
aktivnosti	3052
travnja	3053
##štvo	3054
90	3055
##kcije	3056
pročita	3057
##nicima	3058
posjeti	3059
ite	3060
##siji	3061
sc	3062
sabor	3063
##ćih	3064
posljedi	3065
uze	3066
##štva	3067
##žba	3068
##tic	3069
stvar	3070
drugog	3071
napre	3072
god	3073
##šlje	3074
nevje	3075
promjene	3076
##90	3077
##ranju	3078
parki	3079
terenu	3080
unatoč	3081
onih	3082
prijed	3083
umi	3084
##čnim	3085
##vice	3086
##ljeća	3087
##dnici	3088
##tova	3089
rast	3090
mijenja	3091
##ur	3092
svakodne	3093
stručnja	3094
##_480	3095
##vku	3096
veliku	3097
##zam	3098
31	3099
pli	3100
koša	3101
dao	3102
ale	3103
##line	3104
tomi	3105
meda	3106
direktor	3107
korište	3108
##nskih	3109
vod	3110
dodatno	3111
mlade	3112
##nila	3113
nado	3114
##loški	3115
smanji	3116
četvrtak	3117
televi	3118
najmanje	3119
kojom	3120
##žnje	3121
ljudima	3122
materija	3123
gradonačelnik	3124
primi	3125
ispla	3126
konku	3127
##đuje	3128
##rske	3129
takvi	3130
legen	3131
##lnoj	3132
##nicama	3133
ulaga	3134
devet	3135
trebala	3136
objavlje	3137
##snu	3138
vele	3139
##lnosti	3140
dali	3141
##sima	3142
večer	3143
indi	3144
životu	3145
reda	3146
##ženje	3147
centar	3148
obe	3149
mjesec	3150
tehni	3151
bolesti	3152
ispriča	3153
poljoprivre	3154
epi	3155
pripa	3156
zema	3157
pitanja	3158
elektri	3159
con	3160
##šća	3161
rujna	3162
70	3163
##dima	3164
pacije	3165
previše	3166
imam	3167
partne	3168
prenosi	3169
umjetni	3170
##tivne	3171
zakona	3172
reko	3173
##_220	3174
poznati	3175
##vci	3176
potpisa	3177
##dro	3178
doz	3179
ugovor	3180
car	3181
##tnosti	3182
građana	3183
upa	3184
dati	3185
##mer	3186
##gama	3187
mali	3188
treći	3189
barem	3190
strate	3191
ministarstvo	3192
policije	3193
računa	3194
pobolj	3195
sutra	3196
defi	3197
opasno	3198
kuća	3199
europe	3200
novom	3201
liječ	3202
##sli	3203
##pr	3204
navede	3205
izvijesti	3206
rođen	3207
iskustvo	3208
doče	3209
##mos	3210
##ktora	3211
napisao	3212
ana	3213
ožu	3214
##ben	3215
##tiva	3216
navodno	3217
##tnom	3218
##rano	3219
prora	3220
pala	3221
moja	3222
projekta	3223
razloga	3224
tjedan	3225
##jni	3226
prosvje	3227
##nska	3228
##pom	3229
odluku	3230
##stan	3231
nekretni	3232
kak	3233
lak	3234
okoli	3235
skup	3236
##tnim	3237
##rane	3238
odgovara	3239
##sobno	3240
##metara	3241
otvara	3242
dozvo	3243
uvo	3244
sadrža	3245
##vlada	3246
majka	3247
pruža	3248
mobi	3249
##pušta	3250
ograni	3251
dozna	3252
priti	3253
##sen	3254
srpnja	3255
##tac	3256
gosti	3257
znanstve	3258
uoči	3259
dalj	3260
demokra	3261
##kcija	3262
vese	3263
tiče	3264
listopada	3265
##mati	3266
##čina	3267
##čuje	3268
dom	3269
mađa	3270
plaće	3271
ostati	3272
susret	3273
sklopu	3274
plu	3275
##njo	3276
izvor	3277
vike	3278
alko	3279
podršku	3280
##siona	3281
pale	3282
kralje	3283
##ray	3284
##lnika	3285
iskoristi	3286
##gh	3287
suo	3288
preuze	3289
reprezentacije	3290
##gne	3291
##tt	3292
predvi	3293
programa	3294
##ljiva	3295
brojne	3296
napad	3297
tv	3298
dobila	3299
početka	3300
vraća	3301
hn	3302
##šio	3303
kompa	3304
##lac	3305
##jica	3306
##88	3307
kape	3308
sat	3309
voli	3310
nekim	3311
mladih	3312
340	3313
vrata	3314
građani	3315
##kul	3316
##min	3317
dodala	3318
ubr	3319
##ljena	3320
##mija	3321
ukrajini	3322
##qu	3323
##vina	3324
budući	3325
27202	3326
ostali	3327
uopće	3328
##mini	3329
objek	3330
aktua	3331
33	3332
##žili	3333
početkom	3334
konkuren	3335
shvati	3336
##rba	3337
prvenstva	3338
sveučili	3339
europi	3340
trump	3341
automobila	3342
ošte	3343
ulogu	3344
sazna	3345
loše	3346
sjeća	3347
zemalja	3348
nagla	3349
tijelo	3350
počinje	3351
alkoho	3352
smanje	3353
atmos	3354
220x	3355
prila	3356
reali	3357
ala	3358
upi	3359
pristup	3360
ruko	3361
##vnici	3362
poziva	3363
savez	3364
are	3365
##tora	3366
strani	3367
sigurnosti	3368
kolovoza	3369
vrijednosti	3370
slove	3371
zrako	3372
##riju	3373
krimi	3374
atmosfe	3375
božić	3376
većina	3377
rtl	3378
korak	3379
putu	3380
tvrtka	3381
podsjetimo	3382
raspra	3383
lan	3384
igrao	3385
poslova	3386
troško	3387
dubrova	3388
##nzi	3389
diljem	3390
real	3391
##bila	3392
ligi	3393
globa	3394
ina	3395
priopće	3396
različi	3397
žrt	3398
dostup	3399
2021	3400
župani	3401
ujutro	3402
##ali	3403
izla	3404
prekrša	3405
velja	3406
##osta	3407
duž	3408
skog	3409
talijan	3410
che	3411
##rs	3412
##10	3413
##kad	3414
upisa	3415
beogra	3416
traže	3417
##dnoj	3418
tradiciona	3419
##raca	3420
presu	3421
ministarstva	3422
##55	3423
van	3424
##tnoj	3425
dosad	3426
uskoro	3427
##struktu	3428
##vka	3429
najva	3430
stigao	3431
reagi	3432
wa	3433
##ras	3434
odluke	3435
##čnog	3436
seku	3437
rela	3438
cijelo	3439
mediji	3440
bivše	3441
redu	3442
imate	3443
digi	3444
sjedi	3445
slučaj	3446
profesiona	3447
svibnja	3448
##vrše	3449
jučer	3450
koncert	3451
500	3452
zvu	3453
##nose	3454
dopri	3455
preh	3456
bal	3457
stup	3458
primjer	3459
##klu	3460
jest	3461
##baci	3462
komenta	3463
polica	3464
ostao	3465
kazali	3466
##zno	3467
ter	3468
staja	3469
ovako	3470
nastaviti	3471
najavio	3472
vjero	3473
izbore	3474
područja	3475
natjecanja	3476
dodi	3477
top	3478
##žila	3479
##vnoj	3480
##ziju	3481
izrazi	3482
##vač	3483
znaju	3484
infra	3485
udruge	3486
##gno	3487
##tere	3488
iznad	3489
gola	3490
male	3491
##luje	3492
pobjeda	3493
susje	3494
##razu	3495
seksu	3496
sudio	3497
cati	3498
foku	3499
sigurnost	3500
stanje	3501
sim	3502
face	3503
financi	3504
pripremi	3505
naših	3506
josip	3507
budi	3508
čiji	3509
došli	3510
asi	3511
pol	3512
daleko	3513
34	3514
svaka	3515
oruž	3516
zanima	3517
obrane	3518
cesta	3519
interne	3520
vratiti	3521
energe	3522
proraču	3523
##27	3524
##pt	3525
zabora	3526
krea	3527
poboljša	3528
otac	3529
napusti	3530
procje	3531
sama	3532
meta	3533
dubo	3534
jedini	3535
lice	3536
čet	3537
kontak	3538
##štaj	3539
tijela	3540
identi	3541
energi	3542
specija	3543
##ok	3544
završe	3545
ozna	3546
nače	3547
##zan	3548
##by	3549
kore	3550
novim	3551
##ly	3552
##14	3553
##vici	3554
##čava	3555
vjen	3556
pitanju	3557
informacije	3558
##snih	3559
boda	3560
##vremenu	3561
polufina	3562
ći	3563
koriste	3564
portu	3565
##dija	3566
razgovara	3567
prvoj	3568
ići	3569
madri	3570
jući	3571
##lnost	3572
##_1280	3573
mani	3574
znamo	3575
dječ	3576
infrastruktu	3577
moje	3578
bel	3579
##šnjeg	3580
drago	3581
##nskom	3582
mati	3583
uspio	3584
fakul	3585
hrt	3586
sprije	3587
##dran	3588
##bc	3589
njezina	3590
dolaze	3591
završio	3592
supruga	3593
dobra	3594
noć	3595
##celo	3596
##tnici	3597
komunika	3598
koma	3599
32	3600
naba	3601
poh	3602
plan	3603
smrt	3604
36	3605
##jskog	3606
borbe	3607
nau	3608
priop	3609
topli	3610
europskog	3611
društva	3612
kazala	3613
smrti	3614
##sije	3615
naz	3616
resto	3617
array	3618
njemačkoj	3619
640	3620
um	3621
dobri	3622
visoko	3623
vru	3624
takav	3625
##vjeti	3626
iste	3627
##štvu	3628
nastavlja	3629
temperatura	3630
platfor	3631
##rski	3632
##kov	3633
društvo	3634
događaja	3635
##79	3636
naža	3637
mjere	3638
čime	3639
standar	3640
nažalost	3641
jadra	3642
njegovu	3643
##_2720	3644
zu	3645
##podne	3646
osobito	3647
pročitajte	3648
hnl	3649
##rp	3650
nato	3651
noći	3652
roditelji	3653
##_2719	3654
##rira	3655
zavo	3656
zadrža	3657
izmje	3658
##nut	3659
radova	3660
##tnost	3661
hrane	3662
okre	3663
nastup	3664
##šenje	3665
finala	3666
##zom	3667
2025	3668
facebo	3669
zaista	3670
protu	3671
presta	3672
##njuje	3673
prijet	3674
želim	3675
sub	3676
nim	3677
muze	3678
završ	3679
sk	3680
zabri	3681
pau	3682
razlog	3683
anti	3684
ulici	3685
portuga	3686
it	3687
##nili	3688
prika	3689
stabi	3690
odlučio	3691
klubo	3692
preporu	3693
##stom	3694
kratko	3695
sluša	3696
nogome	3697
klasi	3698
porta	3699
##stina	3700
ber	3701
ispa	3702
skupine	3703
energije	3704
sni	3705
##blju	3706
česti	3707
uslije	3708
šiben	3709
umiro	3710
##vilo	3711
svakako	3712
ai	3713
ispra	3714
želj	3715
mogućnost	3716
siječnja	3717
mišlje	3718
drugu	3719
sezonu	3720
prvenstvu	3721
prosinca	3722
odgo	3723
stari	3724
blizi	3725
fotografije	3726
##nsko	3727
##vit	3728
##čević	3729
ulaz	3730
##bla	3731
nakna	3732
##cira	3733
stro	3734
inci	3735
##zer	3736
mnoge	3737
robe	3738
pokazuje	3739
migra	3740
veze	3741
osvaja	3742
##llery	3743
naglasio	3744
rh	3745
vezi	3746
##vlji	3747
red	3748
var	3749
proizvoda	3750
zadovo	3751
##lira	3752
pridru	3753
peri	3754
sunča	3755
koali	3756
##dina	3757
gale	3758
održi	3759
##kan	3760
svemu	3761
ljeta	3762
priče	3763
situaciju	3764
blag	3765
doka	3766
očito	3767
##tih	3768
zada	3769
ruke	3770
##žbi	3771
redo	3772
postala	3773
mlado	3774
omogući	3775
##šno	3776
zadnje	3777
prihva	3778
prilika	3779
##rska	3780
##les	3781
##ljeni	3782
ostaje	3783
as	3784
prihvati	3785
krajem	3786
spasi	3787
##čnom	3788
##kove	3789
proši	3790
vaš	3791
jutar	3792
profeso	3793
ch	3794
jela	3795
povo	3796
poklo	3797
zabi	3798
##rca	3799
vid	3800
##pen	3801
sara	3802
škol	3803
pogotovo	3804
prostora	3805
##ker	3806
svojom	3807
svakom	3808
naslov	3809
##njom	3810
##šnjava	3811
el	3812
okvi	3813
konzu	3814
igrači	3815
klubu	3816
##cha	3817
radu	3818
##čenja	3819
##mentar	3820
godišnja	3821
intenzi	3822
itali	3823
uboj	3824
voda	3825
jednoj	3826
digita	3827
##ela	3828
stvori	3829
postaje	3830
trenuta	3831
albu	3832
ino	3833
obzira	3834
komentira	3835
kandidata	3836
dubrovnik	3837
un	3838
##stavlja	3839
##mpi	3840
počeo	3841
istraživanje	3842
don	3843
nemaju	3844
pokazao	3845
kvalifika	3846
omi	3847
##var	3848
doba	3849
kakav	3850
brita	3851
našim	3852
zabilje	3853
##vito	3854
##žne	3855
##vela	3856
tema	3857
##rnosti	3858
2020	3859
navode	3860
rješenje	3861
imovi	3862
nadam	3863
##rin	3864
##jim	3865
prometa	3866
gore	3867
svake	3868
##snog	3869
ozlje	3870
##mnji	3871
primije	3872
##kuju	3873
traje	3874
soli	3875
ljeto	3876
ugosti	3877
more	3878
cijelu	3879
pjesme	3880
općine	3881
27203	3882
##čine	3883
nadle	3884
pokazala	3885
supro	3886
automobil	3887
žen	3888
govore	3889
##cem	3890
igrali	3891
minute	3892
ocje	3893
##640	3894
sina	3895
city	3896
autor	3897
promjena	3898
##vama	3899
priho	3900
ver	3901
spek	3902
novca	3903
obeća	3904
##rij	3905
kova	3906
zaključio	3907
najvaž	3908
55	3909
riječi	3910
##ćuje	3911
napisala	3912
htje	3913
##sk	3914
odo	3915
tale	3916
srbije	3917
europski	3918
dijela	3919
herce	3920
javnost	3921
eksplo	3922
posu	3923
lijepo	3924
napravio	3925
smjeru	3926
nikola	3927
vjerujem	3928
visi	3929
pusti	3930
vidjeli	3931
susreta	3932
dizaj	3933
##lija	3934
kopri	3935
##biti	3936
broja	3937
filma	3938
ekipa	3939
umirovlje	3940
iran	3941
dob	3942
kana	3943
paž	3944
vina	3945
anga	3946
1024x	3947
scena	3948
ugro	3949
uspjeli	3950
##nijih	3951
površi	3952
ep	3953
ita	3954
##čeno	3955
državlja	3956
redovi	3957
finale	3958
koristiti	3959
bran	3960
edu	3961
##rku	3962
##30	3963
pogre	3964
ovogodi	3965
ekonom	3966
zahvaljujući	3967
iznimno	3968
kće	3969
##rović	3970
laga	3971
slavo	3972
životi	3973
nekih	3974
ured	3975
##pije	3976
dani	3977
proma	3978
ovoga	3979
zoran	3980
primjerice	3981
##misije	3982
##cionira	3983
odvjetni	3984
skri	3985
##tera	3986
izuze	3987
došla	3988
##rke	3989
dođe	3990
cat	3991
glas	3992
ante	3993
vrti	3994
show	3995
čko	3996
##nito	3997
##ćoj	3998
##kade	3999
##siju	4000
pao	4001
volim	4002
nemo	4003
početku	4004
ozljede	4005
05	4006
##32	4007
sveča	4008
iskre	4009
partner	4010
osumnji	4011
noj	4012
sposobno	4013
križe	4014
našeg	4015
izgubio	4016
##ya	4017
pritom	4018
bora	4019
velikim	4020
vratio	4021
ić	4022
reci	4023
uređa	4024
kraljev	4025
skom	4026
rece	4027
##pad	4028
građe	4029
nudi	4030
centru	4031
izd	4032
reži	4033
trenera	4034
postati	4035
##štine	4036
drugoj	4037
okuplja	4038
ubije	4039
potica	4040
izno	4041
stanju	4042
prijatelji	4043
snaga	4044
mogućnosti	4045
iti	4046
ljubavi	4047
muškarac	4048
kilometara	4049
vodstvo	4050
eva	4051
oglasi	4052
##let	4053
promo	4054
pam	4055
statu	4056
potrebe	4057
drži	4058
zvijezda	4059
festival	4060
dp	4061
##jam	4062
miro	4063
autobu	4064
karijere	4065
kilogra	4066
objasnio	4067
##škom	4068
točno	4069
##čeni	4070
stje	4071
stalno	4072
gradi	4073
sed	4074
##kim	4075
poznato	4076
yo	4077
##68	4078
##nese	4079
##šević	4080
##vljena	4081
zajednice	4082
regiona	4083
inicija	4084
medija	4085
kulture	4086
utje	4087
##ol	4088
nor	4089
podru	4090
govorio	4091
pokreta	4092
odusta	4093
vjenča	4094
udar	4095
##am	4096
vidio	4097
strije	4098
##ser	4099
njim	4100
austri	4101
anto	4102
sredstva	4103
nizo	4104
mjera	4105
problemi	4106
dvoje	4107
pjesmu	4108
38	4109
obno	4110
asiste	4111
##reno	4112
##din	4113
bitno	4114
regu	4115
##šni	4116
odbora	4117
kombina	4118
ožujka	4119
##slo	4120
rezultate	4121
incide	4122
preu	4123
##ćenja	4124
trebaju	4125
##prili	4126
stanovni	4127
razumije	4128
glasova	4129
300	4130
##vju	4131
##ranu	4132
##lili	4133
##lica	4134
##plika	4135
trenutak	4136
komentirao	4137
prvenstvo	4138
bren	4139
svr	4140
##kt	4141
list	4142
gallery	4143
prav	4144
##cijski	4145
politike	4146
vijeća	4147
##_27179	4148
udruga	4149
##snim	4150
prisje	4151
##por	4152
##rnica	4153
izbornik	4154
##nskim	4155
nekada	4156
intervju	4157
psiho	4158
andrej	4159
blizini	4160
avio	4161
prvih	4162
##land	4163
šta	4164
##niju	4165
gosto	4166
usmje	4167
poziv	4168
sezoni	4169
2019	4170
slobodna	4171
postu	4172
priču	4173
##zin	4174
baby	4175
##ger	4176
uspjeh	4177
ani	4178
sjaj	4179
ps	4180
tera	4181
":""	4182
sezona	4183
jedino	4184
tomislav	4185
##340	4186
##žena	4187
volje	4188
postavlja	4189
kreta	4190
pronaći	4191
simbo	4192
uzbu	4193
odnos	4194
onaj	4195
jedinstve	4196
otišao	4197
bje	4198
##vak	4199
kome	4200
prakti	4201
strada	4202
probleme	4203
velikom	4204
##čnoj	4205
gri	4206
##id	4207
##ćom	4208
##yo	4209
izved	4210
promi	4211
##rup	4212
lasa	4213
osjećaj	4214
pošto	4215
diplo	4216
lani	4217
ostale	4218
loptu	4219
39	4220
##prav	4221
svjetskog	4222
seksua	4223
obla	4224
učinko	4225
parizu	4226
posa	4227
##keta	4228
privla	4229
boja	4230
dužno	4231
##tte	4232
dovo	4233
##ženi	4234
poraza	4235
najboljih	4236
budućnosti	4237
##igra	4238
##tirati	4239
nase	4240
savrše	4241
grupe	4242
spremni	4243
km	4244
ović	4245
ex	4246
##tive	4247
##ligen	4248
moru	4249
jutro	4250
logi	4251
proizvođa	4252
##deset	4253
epizo	4254
##ny	4255
razgova	4256
društvu	4257
zrakoplo	4258
naru	4259
kali	4260
moto	4261
vrijednost	4262
bici	4263
mario	4264
potpo	4265
loko	4266
glasno	4267
osobno	4268
vijest	4269
reprezentacija	4270
takve	4271
kandidat	4272
energet	4273
agre	4274
##ld	4275
##zbo	4276
##len	4277
sasto	4278
kupo	4279
skupina	4280
potvrdio	4281
fotografija	4282
prilago	4283
jadran	4284
turu	4285
vjetar	4286
imena	4287
osijek	4288
njoj	4289
##kih	4290
plani	4291
europskom	4292
tvrde	4293
ponekad	4294
kora	4295
nega	4296
##nulo	4297
toma	4298
goran	4299
hrvatsko	4300
pokazuju	4301
informacija	4302
nesreće	4303
zanimljivo	4304
##sh	4305
##đuju	4306
sloven	4307
početak	4308
barcelo	4309
apso	4310
37	4311
domi	4312
prista	4313
rusija	4314
##rnice	4315
cilje	4316
sudac	4317
mandata	4318
##znu	4319
stigla	4320
našu	4321
##54	4322
raste	4323
milo	4324
brojni	4325
vozač	4326
##mio	4327
veće	4328
staro	4329
kojemu	4330
počela	4331
ceste	4332
inteligen	4333
zatvore	4334
proces	4335
filip	4336
lakše	4337
##um	4338
##rova	4339
rasta	4340
teren	4341
prijevo	4342
##tković	4343
učiniti	4344
iskustva	4345
raspore	4346
zamije	4347
##pušte	4348
izbori	4349
finalu	4350
splita	4351
situacije	4352
povijest	4353
suradnji	4354
nao	4355
##pila	4356
trenin	4357
##rnici	4358
rijeci	4359
državnog	4360
ljest	4361
treće	4362
znati	4363
ruku	4364
odnosi	4365
poraz	4366
nagradu	4367
dalmacija	4368
hvala	4369
##rena	4370
##ljivi	4371
tuži	4372
osvojila	4373
##ght	4374
nizozem	4375
akade	4376
kapa	4377
##čaje	4378
bori	4379
ujedno	4380
industri	4381
dužnosni	4382
##skr	4383
##nite	4384
##lila	4385
puca	4386
najvi	4387
##ham	4388
austra	4389
##škog	4390
svlada	4391
švica	4392
listi	4393
oslo	4394
vremenu	4395
želimo	4396
htio	4397
##lon	4398
predi	4399
##ljep	4400
zaštite	4401
budućnost	4402
povu	4403
sami	4404
ravno	4405
##ljene	4406
osvr	4407
ruski	4408
ostala	4409
pp_	4410
navi	4411
fri	4412
##voren	4413
dose	4414
vodo	4415
čine	4416
sv	4417
##fu	4418
##ziji	4419
javlja	4420
bay	4421
sindi	4422
pojača	4423
bolnici	4424
provodi	4425
članovi	4426
pohvali	4427
jadranu	4428
dijelo	4429
unutra	4430
radnika	4431
slijedi	4432
alek	4433
opisa	4434
##mpo	4435
##rov	4436
##nov	4437
##hor	4438
slike	4439
grupa	4440
tržištu	4441
kriminali	4442
karak	4443
jača	4444
titu	4445
lov	4446
zraka	4447
nesreća	4448
primo	4449
##čice	4450
med	4451
poznata	4452
stranka	4453
##ziran	4454
pad	4455
##ćima	4456
##ber	4457
##logije	4458
vukova	4459
košarka	4460
##pić	4461
odgovorio	4462
gledati	4463
četvrt	4464
karijeri	4465
pregovo	4466
##šenja	4467
##tivna	4468
brazi	4469
poznat	4470
bespla	4471
75	4472
##lice	4473
##rine	4474
inozem	4475
##teo	4476
##dobno	4477
parti	4478
novinar	4479
instagramu	4480
##ft	4481
nasto	4482
##lacije	4483
##voru	4484
##dite	4485
ruske	4486
rješenja	4487
oj	4488
##šnjem	4489
popla	4490
serije	4491
##mena	4492
glavnog	4493
##nijeti	4494
školu	4495
dobre	4496
##ljeno	4497
razo	4498
opće	4499
državni	4500
velikog	4501
skr	4502
halji	4503
postoja	4504
našoj	4505
priopćenju	4506
sra	4507
##vrije	4508
##ret	4509
zapovje	4510
razvoja	4511
razdoblju	4512
plju	4513
smis	4514
##đenih	4515
različiti	4516
našem	4517
navijači	4518
obožava	4519
sru	4520
tvo	4521
196	4522
europskih	4523
iznos	4524
##nuto	4525
stana	4526
##vljeni	4527
istaknula	4528
svakog	4529
tenisa	4530
defini	4531
##est	4532
bur	4533
poruka	4534
zgrade	4535
izbjega	4536
poko	4537
razliku	4538
karijeru	4539
zvo	4540
##boru	4541
papi	4542
dogodila	4543
povećanje	4544
festivala	4545
derbi	4546
lokomo	4547
ama	4548
##tek	4549
minima	4550
lista	4551
65	4552
ice	4553
##gna	4554
kolek	4555
inspi	4556
gar	4557
prošlog	4558
rezultati	4559
enje	4560
ila	4561
obrati	4562
igraju	4563
objašnjava	4564
vremen	4565
iska	4566
##jedna	4567
boje	4568
srca	4569
ideja	4570
zahvali	4571
iš	4572
uzima	4573
##tivan	4574
kop	4575
provede	4576
jak	4577
borbi	4578
osigura	4579
zatvora	4580
utjecaj	4581
nevjeroja	4582
flo	4583
##ziva	4584
istraživanja	4585
mor	4586
svjetski	4587
britan	4588
održati	4589
nagrada	4590
serija	4591
pravila	4592
##poznati	4593
kapetan	4594
##_272090	4595
poe	4596
##vile	4597
dar	4598
navečer	4599
##nec	4600
donio	4601
##lena	4602
##dera	4603
##graf	4604
##rea	4605
kog	4606
golova	4607
##šan	4608
moram	4609
novča	4610
lji	4611
cijele	4612
zahtjev	4613
##sc	4614
##mani	4615
bilje	4616
kim	4617
##vljeno	4618
198	4619
luke	4620
kreće	4621
odigrao	4622
yor	4623
##kvih	4624
slika	4625
programu	4626
trgovi	4627
raspolo	4628
turnira	4629
##vljuje	4630
kilograma	4631
olu	4632
kara	4633
##gara	4634
nik	4635
kupu	4636
spor	4637
voditelj	4638
temelju	4639
milijardi	4640
priopći	4641
64	4642
##lli	4643
lica	4644
##han	4645
hama	4646
velik	4647
arhi	4648
amerika	4649
završila	4650
glumica	4651
etvr	4652
etiri	4653
špi	4654
kama	4655
##mova	4656
osni	4657
stavlja	4658
sporazu	4659
njihovu	4660
zaštitu	4661
blago	4662
modrić	4663
mobite	4664
##mana	4665
spomi	4666
poruku	4667
sumnja	4668
##ćim	4669
stariji	4670
simp	4671
londo	4672
smatraju	4673
ulice	4674
koga	4675
progno	4676
pribli	4677
##zacije	4678
igrama	4679
školi	4680
pjesma	4681
mandat	4682
maksima	4683
zvijez	4684
teri	4685
razvija	4686
martin	4687
navijača	4688
nagrade	4689
konačno	4690
##jska	4691
##naca	4692
tisuće	4693
premijera	4694
prijedlog	4695
##kte	4696
nost	4697
tam	4698
##pili	4699
treni	4700
jednako	4701
kapaci	4702
potak	4703
dovesti	4704
sas	4705
novoj	4706
roman	4707
njezine	4708
američki	4709
blizu	4710
kategoriji	4711
bron	4712
ulazi	4713
šved	4714
tor	4715
sjedni	4716
otkriva	4717
elektro	4718
supa	4719
plas	4720
talija	4721
hercego	4722
podni	4723
##zirati	4724
prednost	4725
ostalim	4726
stvara	4727
ovisno	4728
prošli	4729
skoj	4730
##nes	4731
petra	4732
konkre	4733
stoljeća	4734
tjele	4735
pozvao	4736
saveza	4737
zbi	4738
##lega	4739
baca	4740
predvo	4741
djeci	4742
trage	4743
žive	4744
uvjetima	4745
igru	4746
48	4747
wil	4748
popra	4749
##ženja	4750
večeras	4751
prigo	4752
predlo	4753
ostalo	4754
42	4755
##us	4756
##ana	4757
proba	4758
##kin	4759
##štava	4760
medije	4761
ulica	4762
dokaza	4763
##mentu	4764
adre	4765
demokrat	4766
apsolu	4767
ori	4768
##žna	4769
košta	4770
petro	4771
pobijedio	4772
ivot	4773
članova	4774
usluga	4775
donijeti	4776
evi	4777
hva	4778
##stvima	4779
menta	4780
javnog	4781
##put	4782
potpred	4783
brod	4784
slova	4785
velikih	4786
podataka	4787
potpredsjedni	4788
ara	4789
##kciju	4790
nalaze	4791
izjedna	4792
##njeva	4793
##bacio	4794
trene	4795
autoce	4796
širo	4797
aplika	4798
##cm	4799
dogo	4800
##kinja	4801
rastu	4802
kuću	4803
##sport	4804
nukle	4805
pokušava	4806
pozdra	4807
uživa	4808
detalj	4809
uspješno	4810
trenutačno	4811
postupak	4812
vši	4813
mal	4814
tikto	4815
##burg	4816
##žuje	4817
obavlja	4818
vijesti	4819
udarac	4820
bolnice	4821
porez	4822
dosada	4823
zadnjih	4824
kriminalisti	4825
esto	4826
##kro	4827
##čara	4828
prednosti	4829
znak	4830
obično	4831
njegovim	4832
##cijske	4833
obave	4834
sredstava	4835
neovi	4836
##es	4837
##mlja	4838
bom	4839
##njim	4840
vrsta	4841
197	4842
spreman	4843
rješa	4844
velikoj	4845
isključi	4846
##dama	4847
četvrti	4848
formi	4849
pjevačica	4850
redovito	4851
cjelo	4852
##vca	4853
pored	4854
zag	4855
sino	4856
organizacije	4857
studenog	4858
temperature	4859
servi	4860
ratu	4861
desni	4862
znate	4863
igrače	4864
opti	4865
##fer	4866
morao	4867
srce	4868
odgovornost	4869
pravosu	4870
##119	4871
\/	4872
ušao	4873
progla	4874
moć	4875
mala	4876
ukrajine	4877
uobi	4878
njegovom	4879
skladu	4880
jaki	4881
čovjeka	4882
##reni	4883
dodje	4884
##rnika	4885
prvak	4886
trgova	4887
manife	4888
##snom	4889
prošao	4890
propusti	4891
##sira	4892
inspe	4893
##nijela	4894
tehnologi	4895
eg	4896
##čije	4897
##ncu	4898
naći	4899
kakva	4900
odmor	4901
prijatelja	4902
poziciju	4903
skoro	4904
najveća	4905
podacima	4906
ati	4907
ur	4908
donal	4909
radovi	4910
##sad	4911
##ženo	4912
hrvatskim	4913
rok	4914
brat	4915
odmo	4916
##ljenje	4917
##ture	4918
kuhi	4919
znatno	4920
rumu	4921
nastavku	4922
pokazali	4923
promijeniti	4924
palesti	4925
ubrzo	4926
52	4927
uki	4928
doista	4929
bod	4930
predsjednica	4931
##godišnji	4932
mreže	4933
izvu	4934
loši	4935
##tnica	4936
napravili	4937
domovinskog	4938
mrt	4939
##the	4940
##kati	4941
##vec	4942
destina	4943
srbija	4944
aktivi	4945
idea	4946
idemo	4947
filmu	4948
prostoru	4949
interven	4950
rekor	4951
sasvim	4952
##jnu	4953
##bran	4954
vale	4955
vodio	4956
1920x	4957
ljepo	4958
interes	4959
jugosla	4960
ravnatelj	4961
##_271988	4962
ujedi	4963
##ori	4964
jef	4965
moli	4966
##ćev	4967
znao	4968
##fici	4969
sadr	4970
medijima	4971
zim	4972
opora	4973
ivica	4974
##dit	4975
tero	4976
samosta	4977
2018	4978
model	4979
odnose	4980
vozilo	4981
rizik	4982
četvrtfina	4983
h_	4984
njom	4985
##ps	4986
##lacija	4987
##dilo	4988
##bama	4989
podra	4990
tijeku	4991
cesti	4992
glasnogovo	4993
44	4994
snije	4995
čije	4996
teške	4997
znanja	4998
kontinu	4999
