{
  "version": "1.0",
  "truncation": null,
  "padding": null,
  "added_tokens": [
    {
      "id": 0,
      "content": "[UNK]",
      "single_word": false,
      "lstrip": false,
      "rstrip": false,
      "normalized": false,
      "special": true
    },
    {
      "id": 1,
      "content": "[CLS]",
      "single_word": false,
      "lstrip": false,
      "rstrip": false,
      "normalized": false,
      "special": true
    },
    {
      "id": 2,
      "content": "[SEP]",
      "single_word": false,
      "lstrip": false,
      "rstrip": false,
      "normalized": false,
      "special": true
    },
    {
      "id": 3,
      "content": "[PAD]",
      "single_word": false,
      "lstrip": false,
      "rstrip": false,
      "normalized": false,
      "special": true
    },
    {
      "id": 4,
      "content": "[MASK]",
      "single_word": false,
      "lstrip": false,
      "rstrip": false,
      "normalized": false,
      "special": true
    }
  ],
  "normalizer": {
    "type": "Sequence",
    "normalizers": [
      {
        "type": "NFKC"
      },
      {
        "type": "Lowercase"
      }
    ]
  },
  "pre_tokenizer": {
    "type": "Whitespace"
  },
  "post_processor": null,
  "decoder": {
    "type": "WordPiece",
    "prefix": "##",
    "cleanup": true
  },
  "model": {
    "type": "WordPiece",
    "unk_token": "[UNK]",
    "continuing_subword_prefix": "##",
    "max_input_chars_per_word": 100,
    "vocab": {
      "[UNK]": 0,
      "[CLS]": 1,
      "[SEP]": 2,
      "[PAD]": 3,
      "[MASK]": 4,
      "!": 5,
      "\"": 6,
      "#": 7,
      "$": 8,
      "%": 9,
      "&": 10,
      "'": 11,
      "(": 12,
      ")": 13,
      "*": 14,
      "+": 15,
      ",": 16,
      "-": 17,
      ".": 18,
      "/": 19,
      "0": 20,
      "1": 21,
      "2": 22,
      "3": 23,
      "4": 24,
      "5": 25,
      "6": 26,
      "7": 27,
      "8": 28,
      "9": 29,
      ":": 30,
      ";": 31,
      "<": 32,
      "=": 33,
      ">": 34,
      "?": 35,
      "@": 36,
      "[": 37,
      "\\": 38,
      "]": 39,
      "^": 40,
      "_": 41,
      "`": 42,
      "a": 43,
      "b": 44,
      "c": 45,
      "d": 46,
      "e": 47,
      "f": 48,
      "g": 49,
      "h": 50,
      "i": 51,
      "j": 52,
      "k": 53,
      "l": 54,
      "m": 55,
      "n": 56,
      "o": 57,
      "p": 58,
      "q": 59,
      "r": 60,
      "s": 61,
      "t": 62,
      "u": 63,
      "v": 64,
      "w": 65,
      "x": 66,
      "y": 67,
      "z": 68,
      "{": 69,
      "}": 70,
      "": 71,
      "¡": 72,
      "£": 73,
      "¤": 74,
      "§": 75,
      "©": 76,
      "­": 77,
      "®": 78,
      "°": 79,
      "±": 80,
      "·": 81,
      "¿": 82,
      "×": 83,
      "ß": 84,
      "à": 85,
      "á": 86,
      "â": 87,
      "ã": 88,
      "ä": 89,
      "å": 90,
      "ç": 91,
      "è": 92,
      "é": 93,
      "ê": 94,
      "ë": 95,
      "ì": 96,
      "í": 97,
      "î": 98,
      "ï": 99,
      "ð": 100,
      "ñ": 101,
      "ò": 102,
      "ó": 103,
      "ô": 104,
      "õ": 105,
      "ö": 106,
      "ø": 107,
      "ù": 108,
      "ú": 109,
      "û": 110,
      "ü": 111,
      "ý": 112,
      "ā": 113,
      "ă": 114,
      "ą": 115,
      "ć": 116,
      "ĉ": 117,
      "č": 118,
      "ď": 119,
      "đ": 120,
      "ē": 121,
      "ė": 122,
      "ę": 123,
      "ě": 124,
      "ğ": 125,
      "ı": 126,
      "ľ": 127,
      "ł": 128,
      "ń": 129,
      "ň": 130,
      "ō": 131,
      "ő": 132,
      "ř": 133,
      "ś": 134,
      "ş": 135,
      "š": 136,
      "ţ": 137,
      "ū": 138,
      "ů": 139,
      "ź": 140,
      "ż": 141,
      "ž": 142,
      "ƙ": 143,
      "ȃ": 144,
      "ȉ": 145,
      "ȑ": 146,
      "ȗ": 147,
      "ș": 148,
      "ț": 149,
      "ə": 150,
      "ʟ": 151,
      "́": 152,
      "̇": 153,
      "̈": 154,
      "̊": 155,
      "̋": 156,
      "̌": 157,
      "̣": 158,
      "̧": 159,
      "έ": 160,
      "ή": 161,
      "α": 162,
      "γ": 163,
      "δ": 164,
      "μ": 165,
      "ο": 166,
      "π": 167,
      "ρ": 168,
      "ς": 169,
      "τ": 170,
      "υ": 171,
      "χ": 172,
      "ω": 173,
      "ό": 174,
      "а": 175,
      "е": 176,
      "к": 177,
      "л": 178,
      "н": 179,
      "о": 180,
      "ь": 181,
      "і": 182,
      "ј": 183,
      "ґ": 184,
      "ӣ": 185,
      "ӧ": 186,
      "ི": 187,
      "ྀ": 188,
      "ṓ": 189,
      "ṣ": 190,
      "ọ": 191,
      "ố": 192,
      "ἀ": 193,
      "‍": 194,
      "‎": 195,
      "‐": 196,
      "‒": 197,
      "―": 198,
      "‖": 199,
      "‟": 200,
      "•": 201,
      "‰": 202,
      "′": 203,
      "⁄": 204,
      "⁠": 205,
      "€": 206,
      "↑": 207,
      "⇒": 208,
      "−": 209,
      "∶": 210,
      "⏱": 211,
      "■": 212,
      "▪": 213,
      "▶": 214,
      "►": 215,
      "○": 216,
      "●": 217,
      "☀": 218,
      "☃": 219,
      "☑": 220,
      "☘": 221,
      "☺": 222,
      "♀": 223,
      "♡": 224,
      "♥": 225,
      "♦": 226,
      "♬": 227,
      "⚠": 228,
      "⚤": 229,
      "⚫": 230,
      "⚽": 231,
      "✓": 232,
      "✔": 233,
      "✠": 234,
      "✨": 235,
      "❄": 236,
      "❤": 237,
      "シ": 238,
      "传": 239,
      "多": 240,
      "陈": 241,
      "": 242,
      "": 243,
      "️": 244,
      "🇦": 245,
      "🇧": 246,
      "🇫": 247,
      "🇬": 248,
      "🇭": 249,
      "🇮": 250,
      "🇱": 251,
      "🇵": 252,
      "🇷": 253,
      "🇸": 254,
      "🇺": 255,
      "🇾": 256,
      "🌋": 257,
      "🌐": 258,
      "🌠": 259,
      "🌧": 260,
      "🌨": 261,
      "🌸": 262,
      "🌺": 263,
      "🌻": 264,
      "🍉": 265,
      "🍊": 266,
      "🎀": 267,
      "🎁": 268,
      "🎗": 269,
      "🏡": 270,
      "🏻": 271,
      "🐄": 272,
      "🐥": 273,
      "🐦": 274,
      "🐱": 275,
      "🐶": 276,
      "👀": 277,
      "👁": 278,
      "👇": 279,
      "👣": 280,
      "👶": 281,
      "💅": 282,
      "💋": 283,
      "💎": 284,
      "💕": 285,
      "💘": 286,
      "💙": 287,
      "💚": 288,
      "💟": 289,
      "💪": 290,
      "💯": 291,
      "📌": 292,
      "📢": 293,
      "📱": 294,
      "📸": 295,
      "🔄": 296,
      "🔥": 297,
      "🔹": 298,
      "🕓": 299,
      "🕷": 300,
      "🕸": 301,
      "🖥": 302,
      "😀": 303,
      "😁": 304,
      "😂": 305,
      "😅": 306,
      "😉": 307,
      "😊": 308,
      "😍": 309,
      "😎": 310,
      "😏": 311,
      "😬": 312,
      "😭": 313,
      "🙂": 314,
      "🙌": 315,
      "🙏": 316,
      "🛁": 317,
      "🟡": 318,
      "🟨": 319,
      "🤍": 320,
      "🤔": 321,
      "🤢": 322,
      "🤦": 323,
      "🤩": 324,
      "🤪": 325,
      "🤯": 326,
      "🥚": 327,
      "🥥": 328,
      "🥰": 329,
      "🥲": 330,
      "🥹": 331,
      "🥺": 332,
      "🦟": 333,
      "🩹": 334,
      "🩺": 335,
      "🪐": 336,
      "🫒": 337,
      "🫠": 338,
      "🫶": 339,
      "##o": 340,
      "##k": 341,
      "##s": 342,
      "##a": 343,
      "##_": 344,
      "##2": 345,
      "##7": 346,
      "##1": 347,
      "##9": 348,
      "##8": 349,
      "##3": 350,
      "##4": 351,
      "##0": 352,
      "##č": 353,
      "##r": 354,
      "##n": 355,
      "##š": 356,
      "##b": 357,
      "##i": 358,
      "##j": 359,
      "##z": 360,
      "##l": 361,
      "##d": 362,
      "##e": 363,
      "##t": 364,
      "##h": 365,
      "##w": 366,
      "##u": 367,
      "##c": 368,
      "##p": 369,
      "##f": 370,
      "##g": 371,
      "##y": 372,
      "##q": 373,
      "##m": 374,
      "##ž": 375,
      "##đ": 376,
      "##v": 377,
      "##ó": 378,
      "##ö": 379,
      "##传": 380,
      "##多": 381,
      "##5": 382,
      "##ć": 383,
      "##è": 384,
      "##x": 385,
      "##é": 386,
      "##6": 387,
      "##å": 388,
      "##ı": 389,
      "##ç": 390,
      "##í": 391,
      "##à": 392,
      "##ě": 393,
      "##ọ": 394,
      "##á": 395,
      "##)": 396,
      "##,": 397,
      "##ï": 398,
      "##ú": 399,
      "##ř": 400,
      "##â": 401,
      "##ü": 402,
      "##.": 403,
      "##🛁": 404,
      "##ò": 405,
      "##ß": 406,
      "##ô": 407,
      "##υ": 408,
      "##π": 409,
      "##ο": 410,
      "##ς": 411,
      "##ä": 412,
      "##î": 413,
      "##ø": 414,
      "##]": 415,
      "##\"": 416,
      "##ő": 417,
      "##ñ": 418,
      "##′": 419,
      "##💙": 420,
      "##ù": 421,
      "##ë": 422,
      "##е": 423,
      "##ã": 424,
      "##ė": 425,
      "##:": 426,
      "##ğ": 427,
      "##🤢": 428,
      "##+": 429,
      "##!": 430,
      "##ì": 431,
      "##&": 432,
      "##*": 433,
      "##ј": 434,
      "##ý": 435,
      "##}": 436,
      "##<": 437,
      "##ł": 438,
      "##>": 439,
      "##?": 440,
      "##🇸": 441,
      "##ş": 442,
      "##χ": 443,
      "##-": 444,
      "##ρ": 445,
      "##'": 446,
      "##ê": 447,
      "##ȗ": 448,
      "##ą": 449,
      "##ď": 450,
      "##[": 451,
      "##ȉ": 452,
      "##ș": 453,
      "##🇾": 454,
      "##а": 455,
      "##ə": 456,
      "##🥚": 457,
      "##γ": 458,
      "##ӧ": 459,
      "##ō": 460,
      "##↑": 461,
      "##ś": 462,
      "##л": 463,
      "##н": 464,
      "##/": 465,
      "##🔄": 466,
      "##;": 467,
      "##ż": 468,
      "##ð": 469,
      "##ț": 470,
      "##ľ": 471,
      "##­": 472,
      "##ӣ": 473,
      "##ā": 474,
      "##ă": 475,
      "##ṓ": 476,
      "##🇷": 477,
      "##õ": 478,
      "##û": 479,
      "##ȑ": 480,
      "##ṣ": 481,
      "##ố": 482,
      "##✨": 483,
      "##ů": 484,
      "##❤": 485,
      "##ń": 486,
      "##{": 487,
      "##ę": 488,
      "##🫠": 489,
      "##ţ": 490,
      "##ό": 491,
      "##μ": 492,
      "##о": 493,
      "##ź": 494,
      "##̇": 495,
      "##ω": 496,
      "##τ": 497,
      "##je": 498,
      "je": 499,
      "na": 500,
      "pr": 501,
      "po": 502,
      "##ra": 503,
      "##ti": 504,
      "##an": 505,
      "##ko": 506,
      "##li": 507,
      "za": 508,
      "##va": 509,
      "ko": 510,
      "##st": 511,
      "##ar": 512,
      "##en": 513,
      "##ma": 514,
      "##la": 515,
      "ni": 516,
      "##ja": 517,
      "se": 518,
      "da": 519,
      "ne": 520,
      "st": 521,
      "##in": 522,
      "do": 523,
      "ra": 524,
      "on": 525,
      "od": 526,
      "##vo": 527,
      "##te": 528,
      "om": 529,
      "bi": 530,
      "ka": 531,
      "iz": 532,
      "su": 533,
      "no": 534,
      "##ije": 535,
      "in": 536,
      "##ji": 537,
      "##od": 538,
      "en": 539,
      "##ju": 540,
      "re": 541,
      "ov": 542,
      "an": 543,
      "pre": 544,
      "##to": 545,
      "##ka": 546,
      "sa": 547,
      "pro": 548,
      "##re": 549,
      "mo": 550,
      "to": 551,
      "##lj": 552,
      "##av": 553,
      "##lo": 554,
      "##car": 555,
      "te": 556,
      "##ri": 557,
      "##mo": 558,
      "##no": 559,
      "ti": 560,
      "##ro": 561,
      "ac": 562,
      "ic": 563,
      "##da": 564,
      "io": 565,
      "##sk": 566,
      "ma": 567,
      "##ru": 568,
      "li": 569,
      "##er": 570,
      "##ta": 571,
      "os": 572,
      "og": 573,
      "ob": 574,
      "ih": 575,
      "pri": 576,
      "ima": 577,
      "sk": 578,
      "la": 579,
      "im": 580,
      "ve": 581,
      "jed": 582,
      "##ij": 583,
      "vi": 584,
      "##na": 585,
      "##or": 586,
      "##le": 587,
      "nje": 588,
      "##ve": 589,
      "me": 590,
      "ta": 591,
      "##vi": 592,
      "mi": 593,
      "koji": 594,
      "##ran": 595,
      "ije": 596,
      "god": 597,
      "ccar": 598,
      "iti": 599,
      "go": 600,
      "ak": 601,
      "ro": 602,
      "##di": 603,
      "će": 604,
      "##ute": 605,
      "ja": 606,
      "ili": 607,
      "vo": 608,
      "pa": 609,
      "acute": 610,
      "što": 611,
      "ju": 612,
      "##lu": 613,
      "va": 614,
      "ar": 615,
      "lo": 616,
      "ij": 617,
      "##up": 618,
      "al": 619,
      "gra": 620,
      "##vat": 621,
      "##anj": 622,
      "##ga": 623,
      "hr": 624,
      "ali": 625,
      "##tn": 626,
      "godin": 627,
      "##me": 628,
      "mje": 629,
      "raz": 630,
      "is": 631,
      "##al": 632,
      "ovi": 633,
      "ite": 634,
      "sko": 635,
      "##ut": 636,
      "sp": 637,
      "kako": 638,
      "ri": 639,
      "##vor": 640,
      "or": 641,
      "dru": 642,
      "##gu": 643,
      "oj": 644,
      "ija": 645,
      "##nj": 646,
      "er": 647,
      "hrvat": 648,
      "zcar": 649,
      "nije": 650,
      "##ni": 651,
      "##et": 652,
      "##il": 653,
      "vr": 654,
      "##še": 655,
      "aj": 656,
      "##is": 657,
      "ila": 658,
      "ova": 659,
      "ić": 660,
      "op": 661,
      "dan": 662,
      "sve": 663,
      "##tu": 664,
      "ski": 665,
      "ot": 666,
      "##go": 667,
      "eu": 668,
      "##el": 669,
      "##kon": 670,
      "koje": 671,
      "bo": 672,
      "ru": 673,
      "##jed": 674,
      "iv": 675,
      "##ba": 676,
      "pred": 677,
      "##tiv": 678,
      "##vr": 679,
      "pu": 680,
      "=>": 681,
      "##ći": 682,
      "di": 683,
      "##že": 684,
      "ica": 685,
      "up": 686,
      "ost": 687,
      "kao": 688,
      "##zi": 689,
      "##za": 690,
      "zna": 691,
      "ig": 692,
      "nos": 693,
      "em": 694,
      "##on": 695,
      "ci": 696,
      "##ki": 697,
      "lje": 698,
      "sam": 699,
      "naj": 700,
      "nja": 701,
      "##št": 702,
      "dje": 703,
      "nji": 704,
      "##de": 705,
      "##ku": 706,
      "ama": 707,
      "svo": 708,
      "es": 709,
      "gla": 710,
      "it": 711,
      "nakon": 712,
      "##lik": 713,
      "jo": 714,
      "et": 715,
      "tre": 716,
      "##du": 717,
      "sta": 718,
      "ist": 719,
      "##ca": 720,
      "##ov": 721,
      "##ci": 722,
      "##sn": 723,
      "lju": 724,
      "uz": 725,
      "tu": 726,
      "biti": 727,
      "##bo": 728,
      "govor": 729,
      "stav": 730,
      "##men": 731,
      "us": 732,
      "du": 733,
      "de": 734,
      "##jav": 735,
      "ava": 736,
      "ič": 737,
      "vod": 738,
      "oli": 739,
      "dob": 740,
      "ice": 741,
      "nik": 742,
      "če": 743,
      "rije": 744,
      "ira": 745,
      "ku": 746,
      "mu": 747,
      "smo": 748,
      "ske": 749,
      "ga": 750,
      "vije": 751,
      "dr": 752,
      "dana": 753,
      "ovo": 754,
      "vje": 755,
      "preds": 756,
      "koja": 757,
      "lu": 758,
      "##ne": 759,
      "više": 760,
      "min": 761,
      "tako": 762,
      "##kt": 763,
      "nu": 764,
      "bio": 765,
      "ik": 766,
      "samo": 767,
      "itelj": 768,
      "le": 769,
      "tr": 770,
      "##it": 771,
      "##im": 772,
      "tra": 773,
      "pod": 774,
      "iš": 775,
      "ici": 776,
      "kr": 777,
      "av": 778,
      "ud": 779,
      "rad": 780,
      "igra": 781,
      "jedn": 782,
      "el": 783,
      "prije": 784,
      "##ent": 785,
      "##ac": 786,
      "već": 787,
      "drug": 788,
      "ović": 789,
      "##rav": 790,
      "##tak": 791,
      "osti": 792,
      "##vn": 793,
      "nov": 794,
      "ako": 795,
      "lja": 796,
      "##mp": 797,
      "##ir": 798,
      "##ča": 799,
      "kup": 800,
      "jer": 801,
      "##ijel": 802,
      "ut": 803,
      "njeg": 804,
      "be": 805,
      "još": 806,
      "ki": 807,
      "##ke": 808,
      "tar": 809,
      "##lje": 810,
      "##čn": 811,
      "vla": 812,
      "ove": 813,
      "##bor": 814,
      "##ven": 815,
      "kon": 816,
      "##ce": 817,
      "##đu": 818,
      "velik": 819,
      "pra": 820,
      "##ša": 821,
      "##ter": 822,
      "uje": 823,
      "##čk": 824,
      "##ul": 825,
      "zbo": 826,
      "uk": 827,
      "zbog": 828,
      "sto": 829,
      "svi": 830,
      "##kao": 831,
      "mogu": 832,
      "oko": 833,
      "ag": 834,
      "##sp": 835,
      "radi": 836,
      "##rn": 837,
      "az": 838,
      "kra": 839,
      "euro": 840,
      "grad": 841,
      "au": 842,
      "dok": 843,
      "red": 844,
      "oliko": 845,
      "stup": 846,
      "bu": 847,
      "ol": 848,
      "uč": 849,
      "rekao": 850,
      "##un": 851,
      "poli": 852,
      "##jo": 853,
      "bilo": 854,
      "##šk": 855,
      "treba": 856,
      "##ća": 857,
      "sm": 858,
      "pos": 859,
      "##će": 860,
      "man": 861,
      "ska": 862,
      "enje": 863,
      "si": 864,
      "njih": 865,
      "##avn": 866,
      "ži": 867,
      "##jet": 868,
      "ad": 869,
      "iran": 870,
      "##sto": 871,
      "sva": 872,
      "sv": 873,
      "ek": 874,
      "as": 875,
      "##jn": 876,
      "može": 877,
      "pla": 878,
      "br": 879,
      "ijsk": 880,
      "##su": 881,
      "iju": 882,
      "tri": 883,
      "ati": 884,
      "##pa": 885,
      "oz": 886,
      "am": 887,
      "eg": 888,
      "##dje": 889,
      "##ob": 890,
      "uju": 891,
      "ika": 892,
      "at": 893,
      "iji": 894,
      "##am": 895,
      "europ": 896,
      "ok": 897,
      "utak": 898,
      "godi": 899,
      "ab": 900,
      "##em": 901,
      "skog": 902,
      "mar": 903,
      "kada": 904,
      "kl": 905,
      "sti": 906,
      "gle": 907,
      "nek": 908,
      "##cij": 909,
      "prema": 910,
      "##sta": 911,
      "tva": 912,
      "##ao": 913,
      "ljen": 914,
      "##lij": 915,
      "ub": 916,
      "eura": 917,
      "##lan": 918,
      "dst": 919,
      "drž": 920,
      "##ijen": 921,
      "ren": 922,
      "zi": 923,
      "dstro": 924,
      "kad": 925,
      "##om": 926,
      "##reb": 927,
      "ona": 928,
      "vrije": 929,
      "bro": 930,
      "nju": 931,
      "bila": 932,
      "isp": 933,
      "utakm": 934,
      "ev": 935,
      "nog": 936,
      "ina": 937,
      "##red": 938,
      "##se": 939,
      "stran": 940,
      "jp": 941,
      "gr": 942,
      "##var": 943,
      "jedan": 944,
      "skoj": 945,
      "slu": 946,
      "remen": 947,
      "##ži": 948,
      "##dr": 949,
      "nika": 950,
      "ba": 951,
      "među": 952,
      "##lav": 953,
      "rotiv": 954,
      "##tin": 955,
      "ilo": 956,
      "vid": 957,
      "pis": 958,
      "lan": 959,
      "tvr": 960,
      "ca": 961,
      "ur": 962,
      "godiš": 963,
      "##če": 964,
      "##tor": 965,
      "izbor": 966,
      "lije": 967,
      "dva": 968,
      "mjest": 969,
      "tan": 970,
      "rod": 971,
      "aci": 972,
      "bez": 973,
      "ing": 974,
      "##kv": 975,
      "##jen": 976,
      "ori": 977,
      "lji": 978,
      "ed": 979,
      "id": 980,
      "pi": 981,
      "pravo": 982,
      "un": 983,
      "gdje": 984,
      "nim": 985,
      "ran": 986,
      "oni": 987,
      "aš": 988,
      "bolj": 989,
      "##ln": 990,
      "mat": 991,
      "ljudi": 992,
      "polic": 993,
      "par": 994,
      "či": 995,
      "ča": 996,
      "rep": 997,
      "enja": 998,
      "odlu": 999,
      "##est": 1000,
      "##či": 1001,
      "ul": 1002,
      "##voj": 1003,
      "iva": 1004,
      "prem": 1005,
      "##rat": 1006,
      "##ira": 1007,
      "ho": 1008,
      "ust": 1009,
      "osl": 1010,
      "tren": 1011,
      "eti": 1012,
      "svak": 1013,
      "##si": 1014,
      "prav": 1015,
      "klju": 1016,
      "nam": 1017,
      "pe": 1018,
      "jedno": 1019,
      "##tur": 1020,
      "nih": 1021,
      "dijel": 1022,
      "##joj": 1023,
      "##rak": 1024,
      "##lad": 1025,
      "ent": 1026,
      "tru": 1027,
      "klu": 1028,
      "pet": 1029,
      "##kol": 1030,
      "icu": 1031,
      "tav": 1032,
      "met": 1033,
      "##ijek": 1034,
      "rav": 1035,
      "nad": 1036,
      "nj": 1037,
      "jedin": 1038,
      "##gr": 1039,
      "ani": 1040,
      "##đen": 1041,
      "objav": 1042,
      "##tel": 1043,
      "##ge": 1044,
      "nosti": 1045,
      "skih": 1046,
      "##lem": 1047,
      "osob": 1048,
      "##enc": 1049,
      "kri": 1050,
      "zd": 1051,
      "skom": 1052,
      "posto": 1053,
      "imo": 1054,
      "ia": 1055,
      "sr": 1056,
      "##što": 1057,
      "ec": 1058,
      "##dat": 1059,
      "seb": 1060,
      "nego": 1061,
      "##raž": 1062,
      "gleda": 1063,
      "##val": 1064,
      "slo": 1065,
      "svoje": 1066,
      "oka": 1067,
      "odr": 1068,
      "mjer": 1069,
      "bili": 1070,
      "ivo": 1071,
      "##đa": 1072,
      "ke": 1073,
      "##ši": 1074,
      "tek": 1075,
      "##rad": 1076,
      "igu": 1077,
      "##he": 1078,
      "mora": 1079,
      "fo": 1080,
      "tje": 1081,
      "danas": 1082,
      "##ješ": 1083,
      "služ": 1084,
      "ame": 1085,
      "##po": 1086,
      "sad": 1087,
      "kan": 1088,
      "glas": 1089,
      "ključ": 1090,
      "nas": 1091,
      "jen": 1092,
      "poz": 1093,
      "mog": 1094,
      "agreb": 1095,
      "toga": 1096,
      "##ris": 1097,
      "až": 1098,
      "ljiv": 1099,
      "nisu": 1100,
      "##sti": 1101,
      "kom": 1102,
      "zdrav": 1103,
      "minis": 1104,
      "voz": 1105,
      "##zon": 1106,
      "svoj": 1107,
      "kod": 1108,
      "ir": 1109,
      "novi": 1110,
      "poru": 1111,
      "tom": 1112,
      "sada": 1113,
      "ivanj": 1114,
      "blem": 1115,
      "##tsk": 1116,
      "##rov": 1117,
      "nici": 1118,
      "##ok": 1119,
      "poč": 1120,
      "lj": 1121,
      "tim": 1122,
      "ari": 1123,
      "fi": 1124,
      "est": 1125,
      "##gi": 1126,
      "il": 1127,
      "kar": 1128,
      "zv": 1129,
      "prvi": 1130,
      "##kr": 1131,
      "ivan": 1132,
      "ao": 1133,
      "auto": 1134,
      "anj": 1135,
      "društ": 1136,
      "rek": 1137,
      "slav": 1138,
      "sku": 1139,
      "##cu": 1140,
      "sezon": 1141,
      "broj": 1142,
      "##mi": 1143,
      "že": 1144,
      "čin": 1145,
      "ativ": 1146,
      "gor": 1147,
      "eni": 1148,
      "vijek": 1149,
      "vijet": 1150,
      "itu": 1151,
      "voji": 1152,
      "##dij": 1153,
      "dobro": 1154,
      "građ": 1155,
      "zem": 1156,
      "malo": 1157,
      "gram": 1158,
      "kre": 1159,
      "dv": 1160,
      "igurn": 1161,
      "inf": 1162,
      "milij": 1163,
      "minut": 1164,
      "##den": 1165,
      "##gan": 1166,
      "##nu": 1167,
      "ele": 1168,
      "ast": 1169,
      "##vić": 1170,
      "bje": 1171,
      "din": 1172,
      "živo": 1173,
      "rez": 1174,
      "ši": 1175,
      "ač": 1176,
      "sl": 1177,
      "škol": 1178,
      "##pad": 1179,
      "ustav": 1180,
      "tijek": 1181,
      "prvo": 1182,
      "mis": 1183,
      "ini": 1184,
      "isk": 1185,
      "igrač": 1186,
      "um": 1187,
      "##tr": 1188,
      "koju": 1189,
      "##log": 1190,
      "cijen": 1191,
      "##ze": 1192,
      "ht": 1193,
      "##vez": 1194,
      "##nic": 1195,
      "##jel": 1196,
      "##tit": 1197,
      "insk": 1198,
      "zemlj": 1199,
      "tp": 1200,
      "fil": 1201,
      "ada": 1202,
      "##bil": 1203,
      "##vrš": 1204,
      "iona": 1205,
      "inter": 1206,
      "itet": 1207,
      "tran": 1208,
      "##vod": 1209,
      "moguć": 1210,
      "##gur": 1211,
      "ap": 1212,
      "##jer": 1213,
      "##rug": 1214,
      "##tk": 1215,
      "##at": 1216,
      "nač": 1217,
      "usp": 1218,
      "nost": 1219,
      "##vu": 1220,
      "izira": 1221,
      "nema": 1222,
      "rž": 1223,
      "kaže": 1224,
      "život": 1225,
      "ional": 1226,
      "otp": 1227,
      "##lit": 1228,
      "ine": 1229,
      "zab": 1230,
      "##io": 1231,
      "stvo": 1232,
      "##čaj": 1233,
      "##tov": 1234,
      "##aln": 1235,
      "tvor": 1236,
      "javn": 1237,
      "metn": 1238,
      "taj": 1239,
      "gol": 1240,
      "dio": 1241,
      "lin": 1242,
      "stva": 1243,
      "##laz": 1244,
      "kojem": 1245,
      "##rij": 1246,
      "gu": 1247,
      "njem": 1248,
      "sna": 1249,
      "oja": 1250,
      "jekt": 1251,
      "glavn": 1252,
      "takođ": 1253,
      "završ": 1254,
      "sigur": 1255,
      "cijel": 1256,
      "##kom": 1257,
      "telj": 1258,
      "##ks": 1259,
      "nešto": 1260,
      "nogo": 1261,
      "##deo": 1262,
      "stven": 1263,
      "tome": 1264,
      "jeti": 1265,
      "##šta": 1266,
      "ameri": 1267,
      "pje": 1268,
      "rasp": 1269,
      "nom": 1270,
      "zg": 1271,
      "doma": 1272,
      "omo": 1273,
      "pop": 1274,
      "tro": 1275,
      "objed": 1276,
      "itanj": 1277,
      "ovaj": 1278,
      "vjer": 1279,
      "zra": 1280,
      "10": 1281,
      "##gao": 1282,
      "put": 1283,
      "skim": 1284,
      "ant": 1285,
      "pl": 1286,
      "mjen": 1287,
      "##as": 1288,
      "nica": 1289,
      "jav": 1290,
      "##bn": 1291,
      "naš": 1292,
      "ono": 1293,
      "ch": 1294,
      "puno": 1295,
      "sati": 1296,
      "##nos": 1297,
      "sre": 1298,
      "ep": 1299,
      "kaz": 1300,
      "aka": 1301,
      "djelj": 1302,
      "držav": 1303,
      "vodi": 1304,
      "jak": 1305,
      "##nik": 1306,
      "##ret": 1307,
      "dvije": 1308,
      "uprav": 1309,
      "iako": 1310,
      "kaza": 1311,
      "ji": 1312,
      "mno": 1313,
      "zme": 1314,
      "##god": 1315,
      "una": 1316,
      "tat": 1317,
      "matra": 1318,
      "##duć": 1319,
      "kro": 1320,
      "etvr": 1321,
      "znat": 1322,
      "etvrt": 1323,
      "##mac": 1324,
      "rezul": 1325,
      "jednj": 1326,
      "prva": 1327,
      "upan": 1328,
      "fin": 1329,
      "zn": 1330,
      "mir": 1331,
      "vija": 1332,
      "ovanj": 1333,
      "ćemo": 1334,
      "bor": 1335,
      "##duk": 1336,
      "njez": 1337,
      "stor": 1338,
      "oš": 1339,
      "neki": 1340,
      "zent": 1341,
      "ljub": 1342,
      "lazi": 1343,
      "izv": 1344,
      "ilje": 1345,
      "vis": 1346,
      "spor": 1347,
      "dalje": 1348,
      "##enj": 1349,
      "kont": 1350,
      "##tko": 1351,
      "organ": 1352,
      "emo": 1353,
      "način": 1354,
      "tor": 1355,
      "koris": 1356,
      "foto": 1357,
      "##las": 1358,
      "of": 1359,
      "djel": 1360,
      "mijen": 1361,
      "važ": 1362,
      "bli": 1363,
      "hvat": 1364,
      "gotov": 1365,
      "split": 1366,
      "čak": 1367,
      "##rt": 1368,
      "##lim": 1369,
      "rač": 1370,
      "log": 1371,
      "manje": 1372,
      "nis": 1373,
      "izvod": 1374,
      "##rod": 1375,
      "ce": 1376,
      "ora": 1377,
      "stoji": 1378,
      "uv": 1379,
      "etiri": 1380,
      "mla": 1381,
      "##us": 1382,
      "izac": 1383,
      "oc": 1384,
      "ajduk": 1385,
      "lučaj": 1386,
      "zmeđu": 1387,
      "ituac": 1388,
      "jatel": 1389,
      "grada": 1390,
      "rekla": 1391,
      "brz": 1392,
      "nosi": 1393,
      "##raj": 1394,
      "imaju": 1395,
      "tvara": 1396,
      "medij": 1397,
      "ven": 1398,
      "##čj": 1399,
      "dno": 1400,
      "govar": 1401,
      "kojoj": 1402,
      "##do": 1403,
      "##ad": 1404,
      "onda": 1405,
      "mor": 1406,
      "dručj": 1407,
      "alo": 1408,
      "vrlo": 1409,
      "##nen": 1410,
      "##ur": 1411,
      "kraj": 1412,
      "njema": 1413,
      "vez": 1414,
      "žel": 1415,
      "ož": 1416,
      "eno": 1417,
      "prot": 1418,
      "final": 1419,
      "ras": 1420,
      "održ": 1421,
      "acije": 1422,
      "meta": 1423,
      "vam": 1424,
      "ste": 1425,
      "ile": 1426,
      "repre": 1427,
      "##kaz": 1428,
      "film": 1429,
      "vojim": 1430,
      "men": 1431,
      "jve": 1432,
      "sjed": 1433,
      "video": 1434,
      "ijal": 1435,
      "adi": 1436,
      "sin": 1437,
      "kroz": 1438,
      "ovima": 1439,
      "##um": 1440,
      "lob": 1441,
      "tko": 1442,
      "bit": 1443,
      "pust": 1444,
      "klub": 1445,
      "rast": 1446,
      "sje": 1447,
      "olo": 1448,
      "jetsk": 1449,
      "stvar": 1450,
      "jako": 1451,
      "pun": 1452,
      "lobod": 1453,
      "##zb": 1454,
      "ana": 1455,
      "polit": 1456,
      "rt": 1457,
      "kin": 1458,
      "vijes": 1459,
      "račun": 1460,
      "eset": 1461,
      "joj": 1462,
      "bih": 1463,
      "rener": 1464,
      "##jev": 1465,
      "ala": 1466,
      "vor": 1467,
      "odluč": 1468,
      "svoju": 1469,
      "okaza": 1470,
      "riječ": 1471,
      "mod": 1472,
      "zap": 1473,
      "##led": 1474,
      "##ha": 1475,
      "udar": 1476,
      "čki": 1477,
      "reg": 1478,
      "ržavn": 1479,
      "rež": 1480,
      "20": 1481,
      "oč": 1482,
      "vozil": 1483,
      "inj": 1484,
      "aca": 1485,
      "roš": 1486,
      "let": 1487,
      "one": 1488,
      "ita": 1489,
      "nut": 1490,
      "jući": 1491,
      "miš": 1492,
      "##kc": 1493,
      "nice": 1494,
      "duž": 1495,
      "kol": 1496,
      "aktiv": 1497,
      "hd": 1498,
      "pozna": 1499,
      "tjeca": 1500,
      "##ben": 1501,
      "##čer": 1502,
      "tk": 1503,
      "##mor": 1504,
      "šp": 1505,
      "osvoj": 1506,
      "poput": 1507,
      "hran": 1508,
      "ide": 1509,
      "neće": 1510,
      "list": 1511,
      "ime": 1512,
      "opa": 1513,
      "puta": 1514,
      "jel": 1515,
      "drugi": 1516,
      "ostav": 1517,
      "##anc": 1518,
      "bod": 1519,
      "pada": 1520,
      "služb": 1521,
      "##ver": 1522,
      "ijest": 1523,
      "ijama": 1524,
      "njima": 1525,
      "##ert": 1526,
      "andr": 1527,
      "rijed": 1528,
      "asn": 1529,
      "glazb": 1530,
      "ativn": 1531,
      "osim": 1532,
      "iranj": 1533,
      "prven": 1534,
      "volj": 1535,
      "inanc": 1536,
      "gost": 1537,
      "vrš": 1538,
      "##der": 1539,
      "nosno": 1540,
      "tanov": 1541,
      "odluk": 1542,
      "uo": 1543,
      "car": 1544,
      "sred": 1545,
      "ničk": 1546,
      "štit": 1547,
      "živ": 1548,
      "zagr": 1549,
      "napad": 1550,
      "ej": 1551,
      "domać": 1552,
      "milan": 1553,
      "kor": 1554,
      "##nov": 1555,
      "vol": 1556,
      "komp": 1557,
      "avanj": 1558,
      "ito": 1559,
      "noj": 1560,
      "per": 1561,
      "inar": 1562,
      "straž": 1563,
      "top": 1564,
      "dar": 1565,
      "preko": 1566,
      "bac": 1567,
      "dobr": 1568,
      "takv": 1569,
      "sli": 1570,
      "cilj": 1571,
      "didat": 1572,
      "pozi": 1573,
      "real": 1574,
      "čeka": 1575,
      "ener": 1576,
      "skr": 1577,
      "zgrad": 1578,
      "##šl": 1579,
      "acija": 1580,
      "##lar": 1581,
      "tisu": 1582,
      "##ško": 1583,
      "enju": 1584,
      "dnost": 1585,
      "##nim": 1586,
      "št": 1587,
      "ubo": 1588,
      "kat": 1589,
      "ukraj": 1590,
      "pot": 1591,
      "lak": 1592,
      "njak": 1593,
      "eki": 1594,
      "mjese": 1595,
      "nac": 1596,
      "##gl": 1597,
      "eri": 1598,
      "stavn": 1599,
      "piše": 1600,
      "tkri": 1601,
      "isti": 1602,
      "zajed": 1603,
      "eta": 1604,
      "voj": 1605,
      "##nji": 1606,
      "biv": 1607,
      "kuć": 1608,
      "iza": 1609,
      "ćen": 1610,
      "nova": 1611,
      "irati": 1612,
      "poruč": 1613,
      "pad": 1614,
      "##pnj": 1615,
      "stan": 1616,
      "pjes": 1617,
      "hdz": 1618,
      "##oba": 1619,
      "gled": 1620,
      "anje": 1621,
      "hod": 1622,
      "ter": 1623,
      "jelo": 1624,
      "vas": 1625,
      "plat": 1626,
      "sjet": 1627,
      "misl": 1628,
      "nc": 1629,
      "baš": 1630,
      "sc": 1631,
      "vode": 1632,
      "inu": 1633,
      "##nir": 1634,
      "ate": 1635,
      "mije": 1636,
      "15": 1637,
      "jte": 1638,
      "ože": 1639,
      "th": 1640,
      "žen": 1641,
      "dra": 1642,
      "ubrov": 1643,
      "tvrtk": 1644,
      "mjetn": 1645,
      "zakon": 1646,
      "##met": 1647,
      "mišlj": 1648,
      "eb": 1649,
      "vaš": 1650,
      "okol": 1651,
      "narod": 1652,
      "nij": 1653,
      "jeli": 1654,
      "imao": 1655,
      "zad": 1656,
      "mlad": 1657,
      "kojeg": 1658,
      "vrh": 1659,
      "stati": 1660,
      "ički": 1661,
      "varaž": 1662,
      "##čit": 1663,
      "novo": 1664,
      "pak": 1665,
      "anja": 1666,
      "dugo": 1667,
      "jesta": 1668,
      "udjel": 1669,
      "gen": 1670,
      "šest": 1671,
      "brojn": 1672,
      "vlad": 1673,
      "hval": 1674,
      "##ted": 1675,
      "uli": 1676,
      "##stv": 1677,
      "##pe": 1678,
      "prvak": 1679,
      "doda": 1680,
      "ected": 1681,
      "cu": 1682,
      "var": 1683,
      "tisuć": 1684,
      "##vol": 1685,
      "orm": 1686,
      "čko": 1687,
      "sud": 1688,
      "jas": 1689,
      "sebno": 1690,
      "raf": 1691,
      "teh": 1692,
      "##ol": 1693,
      "int": 1694,
      "energ": 1695,
      "laga": 1696,
      "svim": 1697,
      "30": 1698,
      "dovol": 1699,
      "osoba": 1700,
      "ultur": 1701,
      "tvari": 1702,
      "klo": 1703,
      "ravno": 1704,
      "eo": 1705,
      "jvi": 1706,
      "komen": 1707,
      "mobil": 1708,
      "traž": 1709,
      "cest": 1710,
      "glu": 1711,
      "staje": 1712,
      "gađa": 1713,
      "uh": 1714,
      "nep": 1715,
      "obran": 1716,
      "rijek": 1717,
      "učin": 1718,
      "12": 1719,
      "jese": 1720,
      "razin": 1721,
      "##lat": 1722,
      "mogao": 1723,
      "avaju": 1724,
      "##ću": 1725,
      "##tno": 1726,
      "voza": 1727,
      "##kuj": 1728,
      "še": 1729,
      "mijer": 1730,
      "##ct": 1731,
      "arn": 1732,
      "ević": 1733,
      "svih": 1734,
      "jesec": 1735,
      "trebn": 1736,
      "najav": 1737,
      "rtn": 1738,
      "imati": 1739,
      "glav": 1740,
      "cent": 1741,
      "ez": 1742,
      "tada": 1743,
      "buduć": 1744,
      "šir": 1745,
      "icama": 1746,
      "ha": 1747,
      "jever": 1748,
      "veden": 1749,
      "bran": 1750,
      "sreć": 1751,
      "vatr": 1752,
      "avi": 1753,
      "ea": 1754,
      "eli": 1755,
      "kraju": 1756,
      "lož": 1757,
      "oru": 1758,
      "njega": 1759,
      "prošl": 1760,
      "metar": 1761,
      "pal": 1762,
      "##gov": 1763,
      "ništ": 1764,
      "teško": 1765,
      "toč": 1766,
      "inamo": 1767,
      "sport": 1768,
      "bar": 1769,
      "rus": 1770,
      "eba": 1771,
      "lanov": 1772,
      "radio": 1773,
      "af": 1774,
      "rijav": 1775,
      "oto": 1776,
      "##enk": 1777,
      "ogled": 1778,
      "ard": 1779,
      "azi": 1780,
      "ormac": 1781,
      "##rem": 1782,
      "ovog": 1783,
      "smanj": 1784,
      "visok": 1785,
      "pomen": 1786,
      "tež": 1787,
      "oku": 1788,
      "už": 1789,
      "srb": 1790,
      "usret": 1791,
      "večer": 1792,
      "kval": 1793,
      "plan": 1794,
      "isto": 1795,
      "kazao": 1796,
      "kupin": 1797,
      "lijed": 1798,
      "ovje": 1799,
      "alno": 1800,
      "bude": 1801,
      "voljn": 1802,
      "nikad": 1803,
      "otreb": 1804,
      "rafij": 1805,
      "mal": 1806,
      "radn": 1807,
      "jveć": 1808,
      "gre": 1809,
      "vojn": 1810,
      "član": 1811,
      "čekuj": 1812,
      "eći": 1813,
      "iljež": 1814,
      "ovom": 1815,
      "##kor": 1816,
      "ijen": 1817,
      "vel": 1818,
      "gosp": 1819,
      "des": 1820,
      "razn": 1821,
      "nio": 1822,
      "obav": 1823,
      "rusk": 1824,
      "stvu": 1825,
      "išta": 1826,
      "bav": 1827,
      "knji": 1828,
      "ujući": 1829,
      "čan": 1830,
      "and": 1831,
      "ivota": 1832,
      "borb": 1833,
      "neka": 1834,
      "ure": 1835,
      "##ćin": 1836,
      "ike": 1837,
      "nap": 1838,
      "ostal": 1839,
      "znač": 1840,
      "demo": 1841,
      "bject": 1842,
      "ben": 1843,
      "eš": 1844,
      "##kuš": 1845,
      "tručn": 1846,
      "luk": 1847,
      "iskus": 1848,
      "ravi": 1849,
      "ale": 1850,
      "##nij": 1851,
      "kap": 1852,
      "voren": 1853,
      "pjesm": 1854,
      "uj": 1855,
      "plenk": 1856,
      "izjav": 1857,
      "dalj": 1858,
      "elnik": 1859,
      "trank": 1860,
      "jela": 1861,
      "eme": 1862,
      "ovjek": 1863,
      "glum": 1864,
      "pita": 1865,
      "##raz": 1866,
      "ena": 1867,
      "pokuš": 1868,
      "rješ": 1869,
      "##tan": 1870,
      "oma": 1871,
      "raž": 1872,
      "usk": 1873,
      "prof": 1874,
      "##šao": 1875,
      "šte": 1876,
      "pozor": 1877,
      "uprug": 1878,
      "##gub": 1879,
      "aju": 1880,
      "ću": 1881,
      "surad": 1882,
      "nt": 1883,
      "vik": 1884,
      "tvrd": 1885,
      "islim": 1886,
      "loš": 1887,
      "mas": 1888,
      "ban": 1889,
      "sum": 1890,
      "rtner": 1891,
      "fran": 1892,
      "##ska": 1893,
      "jan": 1894,
      "druga": 1895,
      "obi": 1896,
      "ačk": 1897,
      "ništa": 1898,
      "vezan": 1899,
      "karij": 1900,
      "zadnj": 1901,
      "van": 1902,
      "mnogi": 1903,
      "gal": 1904,
      "vu": 1905,
      "##jedn": 1906,
      "tjedn": 1907,
      "gru": 1908,
      "##op": 1909,
      "polu": 1910,
      "zor": 1911,
      "svom": 1912,
      "elekt": 1913,
      "lik": 1914,
      "oda": 1915,
      "nuo": 1916,
      "znam": 1917,
      "tuden": 1918,
      "##ža": 1919,
      "gro": 1920,
      "trag": 1921,
      "maj": 1922,
      "ip": 1923,
      "ču": 1924,
      "neke": 1925,
      "nove": 1926,
      "stupa": 1927,
      "##kac": 1928,
      "##žu": 1929,
      "liku": 1930,
      "ortsk": 1931,
      "izgub": 1932,
      "ansk": 1933,
      "koš": 1934,
      "ajte": 1935,
      "ičn": 1936,
      "vlasn": 1937,
      "jut": 1938,
      "##ch": 1939,
      "enz": 1940,
      "##rom": 1941,
      "treć": 1942,
      "dobio": 1943,
      "sumnj": 1944,
      "end": 1945,
      "asnij": 1946,
      "stala": 1947,
      "dub": 1948,
      "sebe": 1949,
      "ozi": 1950,
      "gospo": 1951,
      "poruk": 1952,
      "veo": 1953,
      "slov": 1954,
      "daj": 1955,
      "laz": 1956,
      "vijač": 1957,
      "fotog": 1958,
      "ator": 1959,
      "sla": 1960,
      "##rek": 1961,
      "vrat": 1962,
      "liječ": 1963,
      "ebačk": 1964,
      "##lji": 1965,
      "##ćn": 1966,
      "liti": 1967,
      "posla": 1968,
      "aciju": 1969,
      "pojav": 1970,
      "često": 1971,
      "akn": 1972,
      "stat": 1973,
      "pli": 1974,
      "okaln": 1975,
      "##mah": 1976,
      "str": 1977,
      "rin": 1978,
      "talij": 1979,
      "brzo": 1980,
      "emelj": 1981,
      "hva": 1982,
      "ze": 1983,
      "ičar": 1984,
      "dne": 1985,
      "11": 1986,
      "nima": 1987,
      "the": 1988,
      "ublik": 1989,
      "vlast": 1990,
      "ionic": 1991,
      "pone": 1992,
      "tog": 1993,
      "roda": 1994,
      "gađaj": 1995,
      "pub": 1996,
      "štet": 1997,
      "vjed": 1998,
      "većin": 1999,
      "uto": 2000,
      "mladi": 2001,
      "jviše": 2002,
      "ipa": 2003,
      "laze": 2004,
      "srbij": 2005,
      "dvo": 2006,
      "rošle": 2007,
      "ijom": 2008,
      "vlada": 2009,
      "stanj": 2010,
      "mage": 2011,
      "polj": 2012,
      "otkr": 2013,
      "##kiv": 2014,
      "kraja": 2015,
      "##kov": 2016,
      "olnic": 2017,
      "dava": 2018,
      "odnos": 2019,
      "bijed": 2020,
      "čekiv": 2021,
      "nisam": 2022,
      "jede": 2023,
      "ex": 2024,
      "tešk": 2025,
      "fer": 2026,
      "zrak": 2027,
      "svog": 2028,
      "##tic": 2029,
      "otvr": 2030,
      "##vno": 2031,
      "spe": 2032,
      "##ub": 2033,
      "važn": 2034,
      "otvrd": 2035,
      "mate": 2036,
      "imali": 2037,
      "ići": 2038,
      "optu": 2039,
      "sd": 2040,
      "orisn": 2041,
      "stao": 2042,
      "name": 2043,
      "evo": 2044,
      "niz": 2045,
      "aznen": 2046,
      "mogli": 2047,
      "ogu": 2048,
      "ostup": 2049,
      "ijan": 2050,
      "utje": 2051,
      "smrt": 2052,
      "res": 2053,
      "gradu": 2054,
      "pov": 2055,
      "uš": 2056,
      "okr": 2057,
      "trump": 2058,
      "mož": 2059,
      "dodao": 2060,
      "dvoj": 2061,
      "prat": 2062,
      "jeća": 2063,
      "cat": 2064,
      "rem": 2065,
      "icom": 2066,
      "spješ": 2067,
      "##jom": 2068,
      "irao": 2069,
      "##iz": 2070,
      "zlo": 2071,
      "nul": 2072,
      "aza": 2073,
      "clas": 2074,
      "imen": 2075,
      "okup": 2076,
      "ožete": 2077,
      "ose": 2078,
      "djece": 2079,
      "ulic": 2080,
      "stoje": 2081,
      "sh": 2082,
      "direk": 2083,
      "počel": 2084,
      "std": 2085,
      "ell": 2086,
      "mos": 2087,
      "nosu": 2088,
      "class": 2089,
      "čij": 2090,
      "laza": 2091,
      "uvjet": 2092,
      "akav": 2093,
      "ponu": 2094,
      "pokr": 2095,
      "jub": 2096,
      "trans": 2097,
      "ment": 2098,
      "doga": 2099,
      "jubav": 2100,
      "##mu": 2101,
      "možda": 2102,
      "anjo": 2103,
      "slovn": 2104,
      "aust": 2105,
      "otvor": 2106,
      "novno": 2107,
      "mješt": 2108,
      "omoć": 2109,
      "ie": 2110,
      "ajn": 2111,
      "ranij": 2112,
      "ncert": 2113,
      "##vet": 2114,
      "bolje": 2115,
      "oveća": 2116,
      "naše": 2117,
      "odršk": 2118,
      "arl": 2119,
      "ipak": 2120,
      "zan": 2121,
      "imp": 2122,
      "jeva": 2123,
      "franc": 2124,
      "ponud": 2125,
      "rži": 2126,
      "serij": 2127,
      "icima": 2128,
      "enu": 2129,
      "genc": 2130,
      "ijaln": 2131,
      "rusij": 2132,
      "18": 2133,
      "##leg": 2134,
      "avjet": 2135,
      "oper": 2136,
      "trgov": 2137,
      "dom": 2138,
      "lazak": 2139,
      "##sa": 2140,
      "odi": 2141,
      "redi": 2142,
      "ang": 2143,
      "odmah": 2144,
      "50": 2145,
      "oje": 2146,
      "rol": 2147,
      "mil": 2148,
      "ty": 2149,
      "nes": 2150,
      "ian": 2151,
      "pozic": 2152,
      "utjec": 2153,
      "aknu": 2154,
      "ef": 2155,
      "priča": 2156,
      "plas": 2157,
      "imir": 2158,
      "ib": 2159,
      "##zd": 2160,
      "tira": 2161,
      "hn": 2162,
      "svaki": 2163,
      "znak": 2164,
      "ista": 2165,
      "pisa": 2166,
      "htjev": 2167,
      "inama": 2168,
      "znan": 2169,
      "bira": 2170,
      "temp": 2171,
      "ulj": 2172,
      "ovati": 2173,
      "snim": 2174,
      "ratur": 2175,
      "tvarn": 2176,
      "ijek": 2177,
      "kolo": 2178,
      "scen": 2179,
      "ravil": 2180,
      "kretn": 2181,
      "amb": 2182,
      "bil": 2183,
      "estiv": 2184,
      "mirov": 2185,
      "stv": 2186,
      "##vin": 2187,
      "ivn": 2188,
      "ero": 2189,
      "dogod": 2190,
      "so": 2191,
      "ša": 2192,
      "osobn": 2193,
      "ković": 2194,
      "inst": 2195,
      "ozbil": 2196,
      "for": 2197,
      "litik": 2198,
      "hit": 2199,
      "aša": 2200,
      "niti": 2201,
      "utku": 2202,
      "stigl": 2203,
      "pisao": 2204,
      "bla": 2205,
      "sob": 2206,
      "klon": 2207,
      "ten": 2208,
      "etalj": 2209,
      "bivš": 2210,
      "imamo": 2211,
      "##ime": 2212,
      "pokaz": 2213,
      "osobe": 2214,
      "ved": 2215,
      "azov": 2216,
      "13": 2217,
      "ulog": 2218,
      "uper": 2219,
      "plaća": 2220,
      "rodn": 2221,
      "daje": 2222,
      "ara": 2223,
      "ema": 2224,
      "ion": 2225,
      "boj": 2226,
      "naime": 2227,
      "reći": 2228,
      "bud": 2229,
      "zrael": 2230,
      "ukr": 2231,
      "učen": 2232,
      "ay": 2233,
      "nedo": 2234,
      "oga": 2235,
      "onač": 2236,
      "opasn": 2237,
      "##tom": 2238,
      "lanir": 2239,
      "vra": 2240,
      "kamp": 2241,
      "val": 2242,
      "boga": 2243,
      "ekip": 2244,
      "viđ": 2245,
      "dug": 2246,
      "ašnj": 2247,
      "aknuo": 2248,
      "stupn": 2249,
      "zirom": 2250,
      "centr": 2251,
      "zb": 2252,
      "vjetn": 2253,
      "evi": 2254,
      "aut": 2255,
      "eva": 2256,
      "rati": 2257,
      "posao": 2258,
      "nutar": 2259,
      "zo": 2260,
      "ovrat": 2261,
      "radic": 2262,
      "##pt": 2263,
      "padn": 2264,
      "ogr": 2265,
      "park": 2266,
      "##ik": 2267,
      "oslen": 2268,
      "fun": 2269,
      "kva": 2270,
      "sel": 2271,
      "injen": 2272,
      "vin": 2273,
      "omoći": 2274,
      "uda": 2275,
      "ljanj": 2276,
      "tkril": 2277,
      "kojim": 2278,
      "stali": 2279,
      "ište": 2280,
      "mogla": 2281,
      "ličit": 2282,
      "jaš": 2283,
      "prava": 2284,
      "optuž": 2285,
      "vrt": 2286,
      "iznos": 2287,
      "17": 2288,
      "zl": 2289,
      "jes": 2290,
      "har": 2291,
      "##ck": 2292,
      "nijel": 2293,
      "zanim": 2294,
      "##dam": 2295,
      "tamo": 2296,
      "blag": 2297,
      "rat": 2298,
      "znači": 2299,
      "sja": 2300,
      "iste": 2301,
      "čega": 2302,
      "dnevn": 2303,
      "pravn": 2304,
      "##ment": 2305,
      "tvrđ": 2306,
      "rada": 2307,
      "vrhu": 2308,
      "poraz": 2309,
      "šao": 2310,
      "alias": 2311,
      "ete": 2312,
      "mad": 2313,
      "erv": 2314,
      "encij": 2315,
      "##ton": 2316,
      "##les": 2317,
      "kluba": 2318,
      "bliz": 2319,
      "nd": 2320,
      "jedeć": 2321,
      "ržišt": 2322,
      "era": 2323,
      "she": 2324,
      "izvan": 2325,
      "14": 2326,
      "oran": 2327,
      "zašto": 2328,
      "petak": 2329,
      "sata": 2330,
      "igrao": 2331,
      "brod": 2332,
      "petr": 2333,
      "##lam": 2334,
      "ljučn": 2335,
      "kop": 2336,
      "sljed": 2337,
      "##rok": 2338,
      "tempe": 2339,
      "inac": 2340,
      "ovu": 2341,
      "vojoj": 2342,
      "caron": 2343,
      "cr": 2344,
      "tarij": 2345,
      "čić": 2346,
      "zato": 2347,
      "pros": 2348,
      "publi": 2349,
      "anjol": 2350,
      "shed": 2351,
      "like": 2352,
      "ovn": 2353,
      "##ces": 2354,
      "vozač": 2355,
      "ruš": 2356,
      "19": 2357,
      "16": 2358,
      "uzi": 2359,
      "sdp": 2360,
      "loven": 2361,
      "tin": 2362,
      "andat": 2363,
      "son": 2364,
      "rade": 2365,
      "moj": 2366,
      "##psk": 2367,
      "dati": 2368,
      "roces": 2369,
      "savez": 2370,
      "tres": 2371,
      "zva": 2372,
      "dala": 2373,
      "arlam": 2374,
      "troš": 2375,
      "mak": 2376,
      "komun": 2377,
      "netko": 2378,
      "pular": 2379,
      "kilo": 2380,
      "tpu": 2381,
      "ogas": 2382,
      "jug": 2383,
      "luka": 2384,
      "adran": 2385,
      "bodov": 2386,
      "tpuno": 2387,
      "25": 2388,
      "rata": 2389,
      "vesti": 2390,
      "čn": 2391,
      "time": 2392,
      "osam": 2393,
      "davno": 2394,
      "bogat": 2395,
      "ital": 2396,
      "pol": 2397,
      "imala": 2398,
      "erenc": 2399,
      "##sip": 2400,
      "kakv": 2401,
      "tih": 2402,
      "opet": 2403,
      "tičk": 2404,
      "ark": 2405,
      "čke": 2406,
      "##jeh": 2407,
      "sedam": 2408,
      "spjeh": 2409,
      "ivši": 2410,
      "funkc": 2411,
      "šiben": 2412,
      "ajin": 2413,
      "josip": 2414,
      "uci": 2415,
      "vrst": 2416,
      "ey": 2417,
      "##tim": 2418,
      "cima": 2419,
      "rtv": 2420,
      "ured": 2421,
      "svega": 2422,
      "ikac": 2423,
      "ill": 2424,
      "##lov": 2425,
      "boles": 2426,
      "jiv": 2427,
      "sijek": 2428,
      "nijet": 2429,
      "atelj": 2430,
      "dao": 2431,
      "riop": 2432,
      "bož": 2433,
      "ton": 2434,
      "venim": 2435,
      "uređ": 2436,
      "riopć": 2437,
      "ubotu": 2438,
      "prvom": 2439,
      "dajte": 2440,
      "nicu": 2441,
      "ovih": 2442,
      "redov": 2443,
      "akc": 2444,
      "##dic": 2445,
      "premn": 2446,
      "akle": 2447,
      "uvjer": 2448,
      "mene": 2449,
      "tion": 2450,
      "njim": 2451,
      "ređen": 2452,
      "ovdje": 2453,
      "izvor": 2454,
      "zabav": 2455,
      "mr": 2456,
      "iznen": 2457,
      "lasti": 2458,
      "vatn": 2459,
      "kazn": 2460,
      "##min": 2461,
      "sadr": 2462,
      "čel": 2463,
      "jutro": 2464,
      "eka": 2465,
      "bile": 2466,
      "ušt": 2467,
      "lipnj": 2468,
      "koleg": 2469,
      "ijete": 2470,
      "ber": 2471,
      "jatno": 2472,
      "utova": 2473,
      "znanj": 2474,
      "etn": 2475,
      "ovjer": 2476,
      "doblj": 2477,
      "šli": 2478,
      "stru": 2479,
      "njen": 2480,
      "kid": 2481,
      "korak": 2482,
      "želi": 2483,
      "##sad": 2484,
      "grama": 2485,
      "zljed": 2486,
      "dodat": 2487,
      "repub": 2488,
      "logij": 2489,
      "vši": 2490,
      "rah": 2491,
      "rođen": 2492,
      "borav": 2493,
      "orij": 2494,
      "##ud": 2495,
      "lika": 2496,
      "vlač": 2497,
      "bjeg": 2498,
      "novac": 2499,
      "topl": 2500,
      "ps": 2501,
      "utno": 2502,
      "##lož": 2503,
      "ćete": 2504,
      "group": 2505,
      "rof": 2506,
      "djevo": 2507,
      "vojih": 2508,
      "lav": 2509,
      "tur": 2510,
      "glasa": 2511,
      "kola": 2512,
      "metaš": 2513,
      "grup": 2514,
      "nikol": 2515,
      "ijent": 2516,
      "slab": 2517,
      "ument": 2518,
      "glaš": 2519,
      "urnir": 2520,
      "romet": 2521,
      "lov": 2522,
      "druž": 2523,
      "deset": 2524,
      "jeru": 2525,
      "išl": 2526,
      "osebn": 2527,
      "uži": 2528,
      "##odn": 2529,
      "kriv": 2530,
      "uzima": 2531,
      "neza": 2532,
      "ane": 2533,
      "ozna": 2534,
      "pute": 2535,
      "##sko": 2536,
      "eč": 2537,
      "sije": 2538,
      "tip": 2539,
      "zapo": 2540,
      "skoro": 2541,
      "iši": 2542,
      "ljep": 2543,
      "dosad": 2544,
      "ijeva": 2545,
      "sjeća": 2546,
      "ome": 2547,
      "vaja": 2548,
      "traja": 2549,
      "type": 2550,
      "datak": 2551,
      "islav": 2552,
      "slije": 2553,
      "jeruj": 2554,
      "tigao": 2555,
      "ah": 2556,
      "order": 2557,
      "##đe": 2558,
      "eksp": 2559,
      "ident": 2560,
      "lakš": 2561,
      "rok": 2562,
      "almac": 2563,
      "##rez": 2564,
      "duše": 2565,
      "rednj": 2566,
      "ijezd": 2567,
      "rađ": 2568,
      "vjero": 2569,
      "autor": 2570,
      "lako": 2571,
      "rujn": 2572,
      "gub": 2573,
      "okus": 2574,
      "jašnj": 2575,
      "ovoj": 2576,
      "antn": 2577,
      "valu": 2578,
      "##ste": 2579,
      "nor": 2580,
      "cel": 2581,
      "tijel": 2582,
      "ug": 2583,
      "tudij": 2584,
      "lopt": 2585,
      "graf": 2586,
      "##živ": 2587,
      "otenc": 2588,
      "raća": 2589,
      "ešk": 2590,
      "ozlij": 2591,
      "ivana": 2592,
      "dinam": 2593,
      "gener": 2594,
      "gar": 2595,
      "ištu": 2596,
      "anjsk": 2597,
      "snag": 2598,
      "hol": 2599,
      "value": 2600,
      "##kl": 2601,
      "uživa": 2602,
      "povr": 2603,
      "muš": 2604,
      "ritan": 2605,
      "čini": 2606,
      "astav": 2607,
      "događ": 2608,
      "pošt": 2609,
      "jam": 2610,
      "vjet": 2611,
      "hi": 2612,
      "##teg": 2613,
      "40": 2614,
      "kiš": 2615,
      "pjeva": 2616,
      "kog": 2617,
      "##end": 2618,
      "slova": 2619,
      "mark": 2620,
      "pogod": 2621,
      "etku": 2622,
      "istin": 2623,
      "potom": 2624,
      "rodaj": 2625,
      "he": 2626,
      "kateg": 2627,
      "rist": 2628,
      "uktur": 2629,
      "žena": 2630,
      "post": 2631,
      "seks": 2632,
      "prič": 2633,
      "ijih": 2634,
      "nače": 2635,
      "sklad": 2636,
      "oruž": 2637,
      "aja": 2638,
      "ući": 2639,
      "##tal": 2640,
      "austr": 2641,
      "vib": 2642,
      "spred": 2643,
      "jasno": 2644,
      "dosta": 2645,
      "mater": 2646,
      "oguće": 2647,
      "nter": 2648,
      "vjež": 2649,
      "manj": 2650,
      "##20": 2651,
      "elen": 2652,
      "ojatn": 2653,
      "ozem": 2654,
      "24": 2655,
      "uca": 2656,
      "rend": 2657,
      "sno": 2658,
      "djecu": 2659,
      "prve": 2660,
      "sami": 2661,
      "uslu": 2662,
      "njoj": 2663,
      "koj": 2664,
      "nč": 2665,
      "rsk": 2666,
      "##roš": 2667,
      "abil": 2668,
      "veli": 2669,
      "##isa": 2670,
      "azva": 2671,
      "tnj": 2672,
      "vijeć": 2673,
      "ivati": 2674,
      "mnogo": 2675,
      "lošk": 2676,
      "smije": 2677,
      "ništv": 2678,
      "muška": 2679,
      "itn": 2680,
      "kovi": 2681,
      "bis": 2682,
      "elj": 2683,
      "lig": 2684,
      "otroš": 2685,
      "nismo": 2686,
      "rid": 2687,
      "razov": 2688,
      "troj": 2689,
      "oramo": 2690,
      "ektor": 2691,
      "torak": 2692,
      "##uz": 2693,
      "thodn": 2694,
      "putem": 2695,
      "oji": 2696,
      "##čad": 2697,
      "estr": 2698,
      "ene": 2699,
      "došao": 2700,
      "sadrž": 2701,
      "omčad": 2702,
      "uslug": 2703,
      "noć": 2704,
      "off": 2705,
      "pušta": 2706,
      "moglo": 2707,
      "##_2": 2708,
      "vođa": 2709,
      "srpnj": 2710,
      "##enu": 2711,
      "obr": 2712,
      "anic": 2713,
      "sat": 2714,
      "ljan": 2715,
      "fr": 2716,
      "rea": 2717,
      "mag": 2718,
      "uć": 2719,
      "co": 2720,
      "che": 2721,
      "tekl": 2722,
      "naći": 2723,
      "kok": 2724,
      "leks": 2725,
      "plav": 2726,
      "olog": 2727,
      "ionir": 2728,
      "ispit": 2729,
      "mlađ": 2730,
      "vjedo": 2731,
      "crn": 2732,
      "kojih": 2733,
      "kuša": 2734,
      "ujuć": 2735,
      "tehno": 2736,
      "oman": 2737,
      "model": 2738,
      "ord": 2739,
      "nekad": 2740,
      "ulaz": 2741,
      "lad": 2742,
      "marko": 2743,
      "def": 2744,
      "stiče": 2745,
      "atn": 2746,
      "edi": 2747,
      "rasta": 2748,
      "drag": 2749,
      "oziva": 2750,
      "ažnj": 2751,
      "##lop": 2752,
      "##gle": 2753,
      "nato": 2754,
      "drugo": 2755,
      "dig": 2756,
      "ekt": 2757,
      "ivotu": 2758,
      "snovn": 2759,
      "sklop": 2760,
      "rig": 2761,
      "stavk": 2762,
      "snaž": 2763,
      "vuk": 2764,
      "doći": 2765,
      "nimk": 2766,
      "inc": 2767,
      "rim": 2768,
      "dobil": 2769,
      "svjet": 2770,
      "regij": 2771,
      "titi": 2772,
      "nose": 2773,
      "krv": 2774,
      "zitiv": 2775,
      "daju": 2776,
      "dobar": 2777,
      "rasl": 2778,
      "##jas": 2779,
      "djela": 2780,
      "stoj": 2781,
      "rvu": 2782,
      "##lip": 2783,
      "diz": 2784,
      "skrb": 2785,
      "21": 2786,
      "osje": 2787,
      "obnov": 2788,
      "vica": 2789,
      "cjen": 2790,
      "rvoj": 2791,
      "atr": 2792,
      "##mal": 2793,
      "ravnj": 2794,
      "idej": 2795,
      "ovim": 2796,
      "trud": 2797,
      "spec": 2798,
      "##orn": 2799,
      "čemu": 2800,
      "venc": 2801,
      "mjene": 2802,
      "onačn": 2803,
      "entar": 2804,
      "knjig": 2805,
      "ncu": 2806,
      "rh": 2807,
      "artin": 2808,
      "esn": 2809,
      "konz": 2810,
      "ato": 2811,
      "ored": 2812,
      "rkv": 2813,
      "##kob": 2814,
      "devet": 2815,
      "konf": 2816,
      "vibnj": 2817,
      "krug": 2818,
      "dolar": 2819,
      "takt": 2820,
      "ler": 2821,
      "likom": 2822,
      "svima": 2823,
      "brak": 2824,
      "kna": 2825,
      "##es": 2826,
      "ruk": 2827,
      "bjed": 2828,
      "neu": 2829,
      "fra": 2830,
      "hlad": 2831,
      "ph": 2832,
      "##\",": 2833,
      "ron": 2834,
      "konc": 2835,
      "oraju": 2836,
      "plitu": 2837,
      "tiče": 2838,
      "##eb": 2839,
      "rel": 2840,
      "sebi": 2841,
      "šić": 2842,
      "sil": 2843,
      "desn": 2844,
      "riješ": 2845,
      "čkoj": 2846,
      "šan": 2847,
      "ank": 2848,
      "abr": 2849,
      "\"\",": 2850,
      "net": 2851,
      "doživ": 2852,
      "##kur": 2853,
      "bin": 2854,
      "dbor": 2855,
      "eđen": 2856,
      "psi": 2857,
      "zlat": 2858,
      "ijski": 2859,
      "gan": 2860,
      "iskor": 2861,
      "uzrok": 2862,
      "prvog": 2863,
      "gl": 2864,
      "olje": 2865,
      "etkom": 2866,
      "ičko": 2867,
      "biva": 2868,
      "bija": 2869,
      "##zir": 2870,
      "išt": 2871,
      "aks": 2872,
      "zrač": 2873,
      "arin": 2874,
      "moći": 2875,
      "sjajn": 2876,
      "rijet": 2877,
      "emis": 2878,
      "dječ": 2879,
      "jezi": 2880,
      "ozorn": 2881,
      "noge": 2882,
      "novog": 2883,
      "medic": 2884,
      "##dus": 2885,
      "lijep": 2886,
      "zoran": 2887,
      "dal": 2888,
      "rov": 2889,
      "poče": 2890,
      "uči": 2891,
      "tkrio": 2892,
      "zas": 2893,
      "opće": 2894,
      "vršen": 2895,
      "loga": 2896,
      "ičin": 2897,
      "iraju": 2898,
      "ušten": 2899,
      "jud": 2900,
      "ort": 2901,
      "jevač": 2902,
      "dušev": 2903,
      "smjer": 2904,
      "dlog": 2905,
      "zim": 2906,
      "lijev": 2907,
      "vrata": 2908,
      "ris": 2909,
      "urg": 2910,
      "čita": 2911,
      "new": 2912,
      "fizi": 2913,
      "tuž": 2914,
      "lež": 2915,
      "bjedu": 2916,
      "sukob": 2917,
      "crven": 2918,
      "\":": 2919,
      "ljude": 2920,
      "knad": 2921,
      "želj": 2922,
      "onaša": 2923,
      "išić": 2924,
      "laska": 2925,
      "ner": 2926,
      "siječ": 2927,
      "tal": 2928,
      "njemu": 2929,
      "odli": 2930,
      "insta": 2931,
      "tis": 2932,
      "igi": 2933,
      "kupno": 2934,
      "otin": 2935,
      "nama": 2936,
      "##isl": 2937,
      "snage": 2938,
      "\":\"": 2939,
      "eku": 2940,
      "oslav": 2941,
      "kić": 2942,
      "držan": 2943,
      "ravna": 2944,
      "sretn": 2945,
      "jezik": 2946,
      "nepo": 2947,
      "riz": 2948,
      "ity": 2949,
      "alost": 2950,
      "dis": 2951,
      "toj": 2952,
      "obvez": 2953,
      "oć": 2954,
      "##lja": 2955,
      "laž": 2956,
      "soc": 2957,
      "##mov": 2958,
      "očet": 2959,
      "vođ": 2960,
      "dija": 2961,
      "besp": 2962,
      "redst": 2963,
      "ata": 2964,
      "esi": 2965,
      "posob": 2966,
      "novih": 2967,
      "jećaj": 2968,
      "zatim": 2969,
      "bijel": 2970,
      "evin": 2971,
      "komb": 2972,
      "teren": 2973,
      "obzir": 2974,
      "akter": 2975,
      "alb": 2976,
      "trij": 2977,
      "all": 2978,
      "išao": 2979,
      "kcij": 2980,
      "ljet": 2981,
      "minal": 2982,
      "vlade": 2983,
      "hotel": 2984,
      "tenis": 2985,
      "domov": 2986,
      "uboj": 2987,
      "alent": 2988,
      "oži": 2989,
      "unij": 2990,
      "dinsk": 2991,
      "pogo": 2992,
      "doz": 2993,
      "ovakv": 2994,
      "privr": 2995,
      "bliž": 2996,
      "judsk": 2997,
      "##ss": 2998,
      "##id": 2999,
      "objas": 3000,
      "vela": 3001,
      "esel": 3002,
      "hor": 3003,
      "ovao": 3004,
      "kuha": 3005,
      "koga": 3006,
      "ratko": 3007,
      "općin": 3008,
      "sho": 3009,
      "tvo": 3010,
      "##kan": 3011,
      "klup": 3012,
      "60": 3013,
      "eć": 3014,
      "aket": 3015,
      "enjem": 3016,
      "rap": 3017,
      "tpor": 3018,
      "poziv": 3019,
      "vođač": 3020,
      "kal": 3021,
      "osjet": 3022,
      "ičke": 3023,
      "vedb": 3024,
      "jpg": 3025,
      "hvalj": 3026,
      "podr": 3027,
      "otpun": 3028,
      "##_27": 3029,
      "db": 3030,
      "biste": 3031,
      "ink": 3032,
      "tvrdi": 3033,
      "der": 3034,
      "doš": 3035,
      "ign": 3036,
      "filip": 3037,
      "utin": 3038,
      "glasn": 3039,
      "učil": 3040,
      "sprem": 3041,
      "otok": 3042,
      "jč": 3043,
      "klad": 3044,
      "uri": 3045,
      "udrug": 3046,
      "došlo": 3047,
      "stiž": 3048,
      "adion": 3049,
      "lask": 3050,
      "alij": 3051,
      "marin": 3052,
      "pravi": 3053,
      "sličn": 3054,
      "svet": 3055,
      "amben": 3056,
      "nitko": 3057,
      "novu": 3058,
      "linij": 3059,
      "mča": 3060,
      "mčadi": 3061,
      "sabor": 3062,
      "mon": 3063,
      "žele": 3064,
      "zel": 3065,
      "etan": 3066,
      "##šaj": 3067,
      "ispod": 3068,
      "bivši": 3069,
      "bank": 3070,
      "ađ": 3071,
      "avor": 3072,
      "kažu": 3073,
      "lige": 3074,
      "kršaj": 3075,
      "zvao": 3076,
      "počeo": 3077,
      "han": 3078,
      "srpsk": 3079,
      "22": 3080,
      "indus": 3081,
      "ursk": 3082,
      "udac": 3083,
      "onj": 3084,
      "lici": 3085,
      "oval": 3086,
      "##kar": 3087,
      "pogle": 3088,
      "rib": 3089,
      "istr": 3090,
      "##nev": 3091,
      "ožić": 3092,
      "šok": 3093,
      "star": 3094,
      "lokac": 3095,
      "zraz": 3096,
      "100": 3097,
      "mirn": 3098,
      "bismo": 3099,
      "jest": 3100,
      "odnev": 3101,
      "natoč": 3102,
      "opor": 3103,
      "olimp": 3104,
      "ekst": 3105,
      "zabio": 3106,
      "djeca": 3107,
      "levi": 3108,
      "oblik": 3109,
      "show": 3110,
      "niž": 3111,
      "ray": 3112,
      "erz": 3113,
      "stra": 3114,
      "sut": 3115,
      "igre": 3116,
      "bjekt": 3117,
      "poljo": 3118,
      "leviz": 3119,
      "odmor": 3120,
      "erce": 3121,
      "turis": 3122,
      "zbor": 3123,
      "đen": 3124,
      "erenu": 3125,
      "java": 3126,
      "stalo": 3127,
      "onih": 3128,
      "stane": 3129,
      "aknul": 3130,
      "etimo": 3131,
      "iduć": 3132,
      "pcij": 3133,
      "##ves": 3134,
      "goj": 3135,
      "rimor": 3136,
      "cikl": 3137,
      "ituc": 3138,
      "glo": 3139,
      "nosn": 3140,
      "djet": 3141,
      "nuti": 3142,
      "platf": 3143,
      "if": 3144,
      "udi": 3145,
      "viz": 3146,
      "smisl": 3147,
      "ock": 3148,
      "zadr": 3149,
      "tv": 3150,
      "ng": 3151,
      "ver": 3152,
      "silj": 3153,
      "pravd": 3154,
      "ou": 3155,
      "eakc": 3156,
      "psih": 3157,
      "fa": 3158,
      "insp": 3159,
      "mamo": 3160,
      "nali": 3161,
      "dion": 3162,
      "renul": 3163,
      "ivot": 3164,
      "kojom": 3165,
      "onkur": 3166,
      "ajka": 3167,
      "ijelo": 3168,
      "ojača": 3169,
      "datno": 3170,
      "land": 3171,
      "čast": 3172,
      "pogi": 3173,
      "pao": 3174,
      "ečen": 3175,
      "raš": 3176,
      "prim": 3177,
      "ruža": 3178,
      "minj": 3179,
      "iven": 3180,
      "krat": 3181,
      "egend": 3182,
      "godio": 3183,
      "rekli": 3184,
      "ratn": 3185,
      "oder": 3186,
      "viš": 3187,
      "##nih": 3188,
      "uoč": 3189,
      "očetk": 3190,
      "pp": 3191,
      "##ic": 3192,
      "razum": 3193,
      "irali": 3194,
      "kul": 3195,
      "lat": 3196,
      "jedne": 3197,
      "tajn": 3198,
      "nepri": 3199,
      "ds": 3200,
      "iln": 3201,
      "ekcij": 3202,
      "tand": 3203,
      "fikac": 3204,
      "##žar": 3205,
      "ražen": 3206,
      "nčan": 3207,
      "budu": 3208,
      "ološk": 3209,
      "modr": 3210,
      "kim": 3211,
      "izam": 3212,
      "današ": 3213,
      "iječ": 3214,
      "čka": 3215,
      "ern": 3216,
      "anič": 3217,
      "vodno": 3218,
      "krit": 3219,
      "arem": 3220,
      "pava": 3221,
      "zvješ": 3222,
      "jveći": 3223,
      "ich": 3224,
      "rac": 3225,
      "priv": 3226,
      "ukl": 3227,
      "ue": 3228,
      "##80": 3229,
      "kav": 3230,
      "ojsk": 3231,
      "znaju": 3232,
      "pods": 3233,
      "por": 3234,
      "prod": 3235,
      "laže": 3236,
      "požar": 3237,
      "ročit": 3238,
      "oznat": 3239,
      "ruč": 3240,
      "abra": 3241,
      "astan": 3242,
      "spri": 3243,
      "div": 3244,
      "lesk": 3245,
      "adaš": 3246,
      "oči": 3247,
      "jez": 3248,
      "olov": 3249,
      "istič": 3250,
      "ft": 3251,
      "ham": 3252,
      "leg": 3253,
      "gres": 3254,
      "štr": 3255,
      "ano": 3256,
      "porez": 3257,
      "##riš": 3258,
      "vidi": 3259,
      "ljetn": 3260,
      "abiln": 3261,
      "amp": 3262,
      "tenj": 3263,
      "rinc": 3264,
      "baln": 3265,
      "##ski": 3266,
      "iže": 3267,
      "jk": 3268,
      "pam": 3269,
      "rilik": 3270,
      "ork": 3271,
      "ešć": 3272,
      "rak": 3273,
      "brani": 3274,
      "gon": 3275,
      "zemal": 3276,
      "iru": 3277,
      "ukov": 3278,
      "rec": 3279,
      "izik": 3280,
      "norm": 3281,
      "povez": 3282,
      "opis": 3283,
      "zvan": 3284,
      "gira": 3285,
      "pru": 3286,
      "dali": 3287,
      "izm": 3288,
      "ožu": 3289,
      "ualn": 3290,
      "mali": 3291,
      "veći": 3292,
      "ers": 3293,
      "pisal": 3294,
      "mol": 3295,
      "rirod": 3296,
      "znao": 3297,
      "etka": 3298,
      "opada": 3299,
      "pola": 3300,
      "aknut": 3301,
      "slik": 3302,
      "isa": 3303,
      "tekst": 3304,
      "ači": 3305,
      "##ine": 3306,
      "latn": 3307,
      "kupa": 3308,
      "pisan": 3309,
      "žene": 3310,
      "inja": 3311,
      "jur": 3312,
      "tječ": 3313,
      "ravn": 3314,
      "premi": 3315,
      "avez": 3316,
      "nst": 3317,
      "ref": 3318,
      "uhi": 3319,
      "ilj": 3320,
      "ćenj": 3321,
      "radil": 3322,
      "ažnij": 3323,
      "ariz": 3324,
      "indi": 3325,
      "stoja": 3326,
      "anti": 3327,
      "zon": 3328,
      "iljem": 3329,
      "odstv": 3330,
      "ekon": 3331,
      "nf": 3332,
      "uru": 3333,
      "abran": 3334,
      "ail": 3335,
      "rael": 3336,
      "renut": 3337,
      "šću": 3338,
      "omu": 3339,
      "alko": 3340,
      "dž": 3341,
      "reba": 3342,
      "tez": 3343,
      "ior": 3344,
      "edan": 3345,
      "imb": 3346,
      "najp": 3347,
      "kvali": 3348,
      "alj": 3349,
      "rab": 3350,
      "onij": 3351,
      "voje": 3352,
      "ično": 3353,
      "plov": 3354,
      "selj": 3355,
      "iden": 3356,
      "epi": 3357,
      "iel": 3358,
      "rekor": 3359,
      "duh": 3360,
      "danj": 3361,
      "nimn": 3362,
      "ktu": 3363,
      "azna": 3364,
      "sprič": 3365,
      "ktual": 3366,
      "23": 3367,
      "inira": 3368,
      "ujemo": 3369,
      "ađa": 3370,
      "oh": 3371,
      "noći": 3372,
      "iše": 3373,
      "ow": 3374,
      "omb": 3375,
      "rest": 3376,
      "lice": 3377,
      "mit": 3378,
      "abl": 3379,
      "hoće": 3380,
      "akon": 3381,
      "kolu": 3382,
      "nekim": 3383,
      "mre": 3384,
      "ond": 3385,
      "arm": 3386,
      "voda": 3387,
      "nalaz": 3388,
      "##upn": 3389,
      "duz": 3390,
      "anju": 3391,
      "akv": 3392,
      "run": 3393,
      "staju": 3394,
      "utra": 3395,
      "čist": 3396,
      "enik": 3397,
      "ere": 3398,
      "ook": 3399,
      "izma": 3400,
      "lago": 3401,
      "ljenj": 3402,
      "les": 3403,
      "ašk": 3404,
      "stol": 3405,
      "fe": 3406,
      "zapad": 3407,
      "jaci": 3408,
      "aciji": 3409,
      "reć": 3410,
      "juč": 3411,
      "mom": 3412,
      "važno": 3413,
      "rtl": 3414,
      "ratio": 3415,
      "akul": 3416,
      "svjed": 3417,
      "podsj": 3418,
      "apad": 3419,
      "atič": 3420,
      "brat": 3421,
      "dmet": 3422,
      "uput": 3423,
      "##bot": 3424,
      "ukupn": 3425,
      "zabr": 3426,
      "duzet": 3427,
      "eor": 3428,
      "voran": 3429,
      "trk": 3430,
      "ljava": 3431,
      "naša": 3432,
      "bijen": 3433,
      "eogr": 3434,
      "ater": 3435,
      "pomo": 3436,
      "tic": 3437,
      "olim": 3438,
      "dp": 3439,
      "gn": 3440,
      "etsk": 3441,
      "ež": 3442,
      "ortu": 3443,
      "posl": 3444,
      "čkog": 3445,
      "ge": 3446,
      "maju": 3447,
      "produ": 3448,
      "rediš": 3449,
      "esion": 3450,
      "zov": 3451,
      "igr": 3452,
      "uze": 3453,
      "onal": 3454,
      "proiz": 3455,
      "ajk": 3456,
      "preuz": 3457,
      "##ljiv": 3458,
      "elu": 3459,
      "rtal": 3460,
      "pas": 3461,
      "ai": 3462,
      "plać": 3463,
      "enuo": 3464,
      "eret": 3465,
      "anstv": 3466,
      "eks": 3467,
      "atiti": 3468,
      "eur": 3469,
      "dvor": 3470,
      "eter": 3471,
      "san": 3472,
      "limp": 3473,
      "26": 3474,
      "ijel": 3475,
      "aksim": 3476,
      "otiv": 3477,
      "rsn": 3478,
      "dam": 3479,
      "ših": 3480,
      "meni": 3481,
      "obič": 3482,
      "naliz": 3483,
      "noš": 3484,
      "hoda": 3485,
      "kovit": 3486,
      "uc": 3487,
      "akl": 3488,
      "vako": 3489,
      "krš": 3490,
      "ario": 3491,
      "zelen": 3492,
      "ly": 3493,
      "staln": 3494,
      "reš": 3495,
      "lič": 3496,
      "gosti": 3497,
      "deb": 3498,
      "ade": 3499,
      "bert": 3500,
      "štin": 3501,
      "regi": 3502,
      "ričn": 3503,
      "ostat": 3504,
      "tehni": 3505,
      "koriš": 3506,
      "tac": 3507,
      "trad": 3508,
      "uva": 3509,
      "podne": 3510,
      "dem": 3511,
      "ljaju": 3512,
      "ry": 3513,
      "strat": 3514,
      "olin": 3515,
      "kart": 3516,
      "struk": 3517,
      "ain": 3518,
      "ideo": 3519,
      "ktiv": 3520,
      "njom": 3521,
      "eng": 3522,
      "nič": 3523,
      "entn": 3524,
      "stale": 3525,
      "upo": 3526,
      "ikl": 3527,
      "novc": 3528,
      "ranj": 3529,
      "škar": 3530,
      "bij": 3531,
      "reza": 3532,
      "entr": 3533,
      "ostao": 3534,
      "rvo": 3535,
      "godn": 3536,
      "ića": 3537,
      "čeln": 3538,
      "port": 3539,
      "ovan": 3540,
      "otic": 3541,
      "javno": 3542,
      "matsk": 3543,
      "amet": 3544,
      "arij": 3545,
      "bus": 3546,
      "anima": 3547,
      "redu": 3548,
      "esu": 3549,
      "##40": 3550,
      "tič": 3551,
      "posve": 3552,
      "atij": 3553,
      "rvi": 3554,
      "obje": 3555,
      "aps": 3556,
      "kući": 3557,
      "kle": 3558,
      "kov": 3559,
      "suz": 3560,
      "##jun": 3561,
      "ncusk": 3562,
      "erij": 3563,
      "upa": 3564,
      "lozi": 3565,
      "pekt": 3566,
      "otpis": 3567,
      "plin": 3568,
      "aljev": 3569,
      "tpisa": 3570,
      "aleko": 3571,
      "uti": 3572,
      "oment": 3573,
      "roč": 3574,
      "rikaz": 3575,
      "kot": 3576,
      "sen": 3577,
      "inca": 3578,
      "irani": 3579,
      "javlj": 3580,
      "dić": 3581,
      "ljivo": 3582,
      "uženj": 3583,
      "pel": 3584,
      "stal": 3585,
      "odom": 3586,
      "ige": 3587,
      "kinj": 3588,
      "podu": 3589,
      "movin": 3590,
      "onos": 3591,
      "neg": 3592,
      "kata": 3593,
      "sist": 3594,
      "ipl": 3595,
      "tele": 3596,
      "hrt": 3597,
      "ocjen": 3598,
      "cem": 3599,
      "niji": 3600,
      "ino": 3601,
      "drav": 3602,
      "nazi": 3603,
      "opri": 3604,
      "ikad": 3605,
      "ept": 3606,
      "pćin": 3607,
      "lok": 3608,
      "vjesn": 3609,
      "kih": 3610,
      "aran": 3611,
      "ljuč": 3612,
      "oks": 3613,
      "ziva": 3614,
      "ljsk": 3615,
      "šeg": 3616,
      "urist": 3617,
      "šin": 3618,
      "ram": 3619,
      "uoči": 3620,
      "odlič": 3621,
      "rut": 3622,
      "tiv": 3623,
      "čiji": 3624,
      "greš": 3625,
      "fon": 3626,
      "bolji": 3627,
      "vješt": 3628,
      "otor": 3629,
      "don": 3630,
      "dokaz": 3631,
      "onta": 3632,
      "alic": 3633,
      "hnl": 3634,
      "hal": 3635,
      "iskr": 3636,
      "boda": 3637,
      "ein": 3638,
      "##bc": 3639,
      "kralj": 3640,
      "ivi": 3641,
      "itk": 3642,
      "tirao": 3643,
      "##ava": 3644,
      "anjen": 3645,
      "vir": 3646,
      "ovisn": 3647,
      "orb": 3648,
      "irala": 3649,
      "kreta": 3650,
      "seg": 3651,
      "dolaz": 3652,
      "liv": 3653,
      "muze": 3654,
      "azil": 3655,
      "osnov": 3656,
      "škarc": 3657,
      "ać": 3658,
      "spo": 3659,
      "ijev": 3660,
      "enata": 3661,
      "ruke": 3662,
      "novim": 3663,
      "jno": 3664,
      "dram": 3665,
      "omaš": 3666,
      "muzej": 3667,
      "70": 3668,
      "čet": 3669,
      "latk": 3670,
      "osta": 3671,
      "ster": 3672,
      "our": 3673,
      "poj": 3674,
      "iječi": 3675,
      "alić": 3676,
      "poseb": 3677,
      "hvać": 3678,
      "inv": 3679,
      "mjeru": 3680,
      "ins": 3681,
      "lanj": 3682,
      "moćn": 3683,
      "kazal": 3684,
      "šta": 3685,
      "jetn": 3686,
      "rag": 3687,
      "omil": 3688,
      "civ": 3689,
      "traš": 3690,
      "esor": 3691,
      "torij": 3692,
      "eru": 3693,
      "rij": 3694,
      "oglas": 3695,
      "ložen": 3696,
      "usta": 3697,
      "att": 3698,
      "med": 3699,
      "pac": 3700,
      "agn": 3701,
      "rn": 3702,
      "izlož": 3703,
      "ljeni": 3704,
      "ardi": 3705,
      "ljuje": 3706,
      "oljeć": 3707,
      "ći": 3708,
      "lijun": 3709,
      "hu": 3710,
      "okv": 3711,
      "čkih": 3712,
      "ensk": 3713,
      "ovsk": 3714,
      "teg": 3715,
      "tarnj": 3716,
      "##hi": 3717,
      "amer": 3718,
      "lazn": 3719,
      "eća": 3720,
      "iver": 3721,
      "živi": 3722,
      "tjer": 3723,
      "sječ": 3724,
      "apa": 3725,
      "šim": 3726,
      "redb": 3727,
      "počet": 3728,
      "gran": 3729,
      "ujem": 3730,
      "misij": 3731,
      "kome": 3732,
      "las": 3733,
      "##ard": 3734,
      "28": 3735,
      "đe": 3736,
      "oćn": 3737,
      "jek": 3738,
      "nav": 3739,
      "ong": 3740,
      "ind": 3741,
      "ravk": 3742,
      "kriva": 3743,
      "eci": 3744,
      "jst": 3745,
      "dor": 3746,
      "sus": 3747,
      "ruž": 3748,
      "lica": 3749,
      "adar": 3750,
      "asto": 3751,
      "bol": 3752,
      "rijel": 3753,
      "mani": 3754,
      "azala": 3755,
      "napo": 3756,
      "lud": 3757,
      "stil": 3758,
      "estit": 3759,
      "akov": 3760,
      "redn": 3761,
      "den": 3762,
      "inves": 3763,
      "und": 3764,
      "tjel": 3765,
      "arija": 3766,
      "ole": 3767,
      "upnj": 3768,
      "jih": 3769,
      "sni": 3770,
      "lada": 3771,
      "vide": 3772,
      "kret": 3773,
      "redit": 3774,
      "amo": 3775,
      "mam": 3776,
      "vezi": 3777,
      "dobit": 3778,
      "pala": 3779,
      "itno": 3780,
      "aze": 3781,
      "talno": 3782,
      "očn": 3783,
      "ick": 3784,
      "ispun": 3785,
      "strag": 3786,
      "idu": 3787,
      "kvar": 3788,
      "most": 3789,
      "lic": 3790,
      "imam": 3791,
      "veze": 3792,
      "mjena": 3793,
      "agan": 3794,
      "ekao": 3795,
      "tema": 3796,
      "darsk": 3797,
      "ugr": 3798,
      "stičk": 3799,
      "omsk": 3800,
      "trg": 3801,
      "mjera": 3802,
      "zgled": 3803,
      "opriv": 3804,
      "sir": 3805,
      "iješ": 3806,
      "ros": 3807,
      "jep": 3808,
      "ktivn": 3809,
      "rtic": 3810,
      "wi": 3811,
      "inale": 3812,
      "eve": 3813,
      "noga": 3814,
      "ovali": 3815,
      "traj": 3816,
      "icira": 3817,
      "čito": 3818,
      "29": 3819,
      "abor": 3820,
      "nosit": 3821,
      "podrž": 3822,
      "nča": 3823,
      "enim": 3824,
      "prona": 3825,
      "skup": 3826,
      "pap": 3827,
      "brin": 3828,
      "oba": 3829,
      "voga": 3830,
      "alan": 3831,
      "cip": 3832,
      "ižev": 3833,
      "art": 3834,
      "rugu": 3835,
      "even": 3836,
      "out": 3837,
      "esk": 3838,
      "eut": 3839,
      "hum": 3840,
      "ier": 3841,
      "rakt": 3842,
      "najv": 3843,
      "mun": 3844,
      "zbu": 3845,
      "vent": 3846,
      "inut": 3847,
      "ovit": 3848,
      "cija": 3849,
      "edu": 3850,
      "rven": 3851,
      "ješa": 3852,
      "traje": 3853,
      "našl": 3854,
      "80": 3855,
      "mjere": 3856,
      "luj": 3857,
      "aši": 3858,
      "inic": 3859,
      "nte": 3860,
      "ugod": 3861,
      "neo": 3862,
      "anta": 3863,
      "arb": 3864,
      "manji": 3865,
      "ošte": 3866,
      "gin": 3867,
      "osp": 3868,
      "laka": 3869,
      "ošla": 3870,
      "ebr": 3871,
      "kuplj": 3872,
      "asa": 3873,
      "amir": 3874,
      "ičkih": 3875,
      "sama": 3876,
      "opt": 3877,
      "etanj": 3878,
      "luša": 3879,
      "27": 3880,
      "jm": 3881,
      "raj": 3882,
      "jasn": 3883,
      "zid": 3884,
      "ečer": 3885,
      "vil": 3886,
      "godil": 3887,
      "šal": 3888,
      "ret": 3889,
      "ogo": 3890,
      "ozn": 3891,
      "jka": 3892,
      "jeć": 3893,
      "jače": 3894,
      "putn": 3895,
      "splat": 3896,
      "ljena": 3897,
      "lod": 3898,
      "osn": 3899,
      "trenu": 3900,
      "rošlo": 3901,
      "lor": 3902,
      "ml": 3903,
      "enti": 3904,
      "onsk": 3905,
      "ivač": 3906,
      "iro": 3907,
      "čk": 3908,
      "juje": 3909,
      "##19": 3910,
      "kru": 3911,
      "ijes": 3912,
      "estin": 3913,
      "km": 3914,
      "anin": 3915,
      "##dim": 3916,
      "alen": 3917,
      "ever": 3918,
      "fest": 3919,
      "maš": 3920,
      "meč": 3921,
      "ička": 3922,
      "išn": 3923,
      "nstru": 3924,
      "ei": 3925,
      "izlaz": 3926,
      "majk": 3927,
      "dli": 3928,
      "oy": 3929,
      "vj": 3930,
      "gno": 3931,
      "oza": 3932,
      "nado": 3933,
      "štvu": 3934,
      "eko": 3935,
      "bitn": 3936,
      "kama": 3937,
      "rob": 3938,
      "uspor": 3939,
      "ive": 3940,
      "klas": 3941,
      "onaln": 3942,
      "jač": 3943,
      "ual": 3944,
      "onč": 3945,
      "ans": 3946,
      "znaje": 3947,
      "inske": 3948,
      "jin": 3949,
      "inov": 3950,
      "avu": 3951,
      "nađen": 3952,
      "isam": 3953,
      "najs": 3954,
      "odu": 3955,
      "jni": 3956,
      "ura": 3957,
      "utr": 3958,
      "gramu": 3959,
      "blis": 3960,
      "##res": 3961,
      "četv": 3962,
      "odav": 3963,
      "omin": 3964,
      "uzd": 3965,
      "zval": 3966,
      "omn": 3967,
      "izb": 3968,
      "dim": 3969,
      "smij": 3970,
      "##inj": 3971,
      "edn": 3972,
      "pove": 3973,
      "lue": 3974,
      "vršn": 3975,
      "amen": 3976,
      "##lin": 3977,
      "onov": 3978,
      "ruko": 3979,
      "igran": 3980,
      "najm": 3981,
      "amar": 3982,
      "čuva": 3983,
      "ažn": 3984,
      "rs": 3985,
      "ječ": 3986,
      "alne": 3987,
      "ogor": 3988,
      "štvo": 3989,
      "pan": 3990,
      "naši": 3991,
      "astoj": 3992,
      "lić": 3993,
      "orc": 3994,
      "ljev": 3995,
      "kanal": 3996,
      "##skoj": 3997,
      "ijepo": 3998,
      "šten": 3999,
      "raga": 4000,
      "ganiz": 4001,
      "##co": 4002,
      "ća": 4003,
      "zira": 4004,
      "umu": 4005,
      "javi": 4006,
      "primi": 4007,
      "ovac": 4008,
      "kli": 4009,
      "ted": 4010,
      "emij": 4011,
      "35": 4012,
      "roba": 4013,
      "opć": 4014,
      "lično": 4015,
      "lavn": 4016,
      "đu": 4017,
      "jedna": 4018,
      "grade": 4019,
      "ote": 4020,
      "traži": 4021,
      "unjen": 4022,
      "raspo": 4023,
      "com": 4024,
      "uđ": 4025,
      "tok": 4026,
      "edm": 4027,
      "adu": 4028,
      "oo": 4029,
      "ula": 4030,
      "voli": 4031,
      "međ": 4032,
      "juž": 4033,
      "asti": 4034,
      "fic": 4035,
      "iri": 4036,
      "zah": 4037,
      "neko": 4038,
      "suv": 4039,
      "urb": 4040,
      "31": 4041,
      "enul": 4042,
      "znati": 4043,
      "ajuć": 4044,
      "err": 4045,
      "svr": 4046,
      "##kal": 4047,
      "znato": 4048,
      "uče": 4049,
      "počin": 4050,
      "polož": 4051,
      "dsjet": 4052,
      "jača": 4053,
      "nogi": 4054,
      "ržava": 4055,
      "ont": 4056,
      "vet": 4057,
      "von": 4058,
      "rank": 4059,
      "rst": 4060,
      "zij": 4061,
      "ser": 4062,
      "točno": 4063,
      "rum": 4064,
      "ičen": 4065,
      "unut": 4066,
      "čkom": 4067,
      "bije": 4068,
      "reme": 4069,
      "iće": 4070,
      "ruku": 4071,
      "esl": 4072,
      "enici": 4073,
      "teri": 4074,
      "roj": 4075,
      "nimal": 4076,
      "aest": 4077,
      "gi": 4078,
      "rva": 4079,
      "uza": 4080,
      "obil": 4081,
      "idr": 4082,
      "sav": 4083,
      "avati": 4084,
      "kompl": 4085,
      "rca": 4086,
      "uću": 4087,
      "azum": 4088,
      "jesen": 4089,
      "ijeć": 4090,
      "dužno": 4091,
      "abo": 4092,
      "asp": 4093,
      "we": 4094,
      "šem": 4095,
      "mp": 4096,
      "rv": 4097,
      "##lak": 4098,
      "ondo": 4099,
      "nudi": 4100,
      "human": 4101,
      "kos": 4102,
      "ode": 4103,
      "imi": 4104,
      "ovač": 4105,
      "ičkog": 4106,
      "jeto": 4107,
      "motiv": 4108,
      "akva": 4109,
      "jun": 4110,
      "alni": 4111,
      "rud": 4112,
      "avl": 4113,
      "raspr": 4114,
      "dličn": 4115,
      "edr": 4116,
      "prekr": 4117,
      "plaće": 4118,
      "običn": 4119,
      "ugl": 4120,
      "kruž": 4121,
      "eh": 4122,
      "ugo": 4123,
      "##88": 4124,
      "rago": 4125,
      "proje": 4126,
      "emu": 4127,
      "ljeć": 4128,
      "veće": 4129,
      "spekt": 4130,
      "rska": 4131,
      "nula": 4132,
      "želim": 4133,
      "uf": 4134,
      "uha": 4135,
      "lid": 4136,
      "diza": 4137,
      "vjes": 4138,
      "ratil": 4139,
      "šut": 4140,
      "razv": 4141,
      "raka": 4142,
      "riv": 4143,
      "nsk": 4144,
      "ožemo": 4145,
      "dobi": 4146,
      "eln": 4147,
      "vorn": 4148,
      "naziv": 4149,
      "žal": 4150,
      "kuh": 4151,
      "apl": 4152,
      "španj": 4153,
      "ifi": 4154,
      "elim": 4155,
      "evet": 4156,
      "elo": 4157,
      "nic": 4158,
      "stud": 4159,
      "aljen": 4160,
      "luc": 4161,
      "olsk": 4162,
      "ivao": 4163,
      "očinj": 4164,
      "rijen": 4165,
      "poduz": 4166,
      "jko": 4167,
      "olik": 4168,
      "pob": 4169,
      "visin": 4170,
      "tet": 4171,
      "lišt": 4172,
      "erg": 4173,
      "90": 4174,
      "form": 4175,
      "tl": 4176,
      "ijenj": 4177,
      "znala": 4178,
      "dep": 4179,
      "esto": 4180,
      "ormi": 4181,
      "eza": 4182,
      "akve": 4183,
      "šla": 4184,
      "tima": 4185,
      "traže": 4186,
      "ijim": 4187,
      "ix": 4188,
      "rsta": 4189,
      "nisk": 4190,
      "dop": 4191,
      "anim": 4192,
      "rop": 4193,
      "lom": 4194,
      "ačko": 4195,
      "##_2719": 4196,
      "##_271988": 4197,
      "loč": 4198,
      "ess": 4199,
      "lar": 4200,
      "ulje": 4201,
      "arsk": 4202,
      "čen": 4203,
      "ponov": 4204,
      "bitel": 4205,
      "inom": 4206,
      "tere": 4207,
      "činje": 4208,
      "misli": 4209,
      "pruž": 4210,
      "ael": 4211,
      "pen": 4212,
      "rp": 4213,
      "edin": 4214,
      "rč": 4215,
      "rg": 4216,
      "utor": 4217,
      "doba": 4218,
      "ečk": 4219,
      "izme": 4220,
      "preki": 4221,
      "tivn": 4222,
      "lus": 4223,
      "subot": 4224,
      "išu": 4225,
      "spr": 4226,
      "olar": 4227,
      "nten": 4228,
      "ota": 4229,
      "yo": 4230,
      "kasn": 4231,
      "her": 4232,
      "ovačk": 4233,
      "djelu": 4234,
      "kus": 4235,
      "njsk": 4236,
      "ire": 4237,
      "iku": 4238,
      "utn": 4239,
      "teme": 4240,
      "judi": 4241,
      "mari": 4242,
      "enuti": 4243,
      "aru": 4244,
      "treće": 4245,
      "obal": 4246,
      "arh": 4247,
      "udsk": 4248,
      "ožda": 4249,
      "jeci": 4250,
      "sal": 4251,
      "govin": 4252,
      "ismo": 4253,
      "adr": 4254,
      "##ek": 4255,
      "##fa": 4256,
      "odre": 4257,
      "edij": 4258,
      "uzetn": 4259,
      "ela": 4260,
      "prez": 4261,
      "ermin": 4262,
      "kratk": 4263,
      "abora": 4264,
      "drži": 4265,
      "stro": 4266,
      "lim": 4267,
      "osu": 4268,
      "lacij": 4269,
      "ass": 4270,
      "ii": 4271,
      "kć": 4272,
      "loz": 4273,
      "odigr": 4274,
      "alna": 4275,
      "ajno": 4276,
      "jern": 4277,
      "ival": 4278,
      "atur": 4279,
      "olu": 4280,
      "ash": 4281,
      "pamt": 4282,
      "pješ": 4283,
      "rce": 4284,
      "zam": 4285,
      "rc": 4286,
      "anij": 4287,
      "adn": 4288,
      "etin": 4289,
      "sreds": 4290,
      "rske": 4291,
      "ew": 4292,
      "tić": 4293,
      "staja": 4294,
      "iču": 4295,
      "oris": 4296,
      "veza": 4297,
      "rovod": 4298,
      "visi": 4299,
      "ačno": 4300,
      "araj": 4301,
      "lam": 4302,
      "rit": 4303,
      "avak": 4304,
      "atko": 4305,
      "lani": 4306,
      "peri": 4307,
      "jihov": 4308,
      "gij": 4309,
      "koč": 4310,
      "tikt": 4311,
      "imu": 4312,
      "ovod": 4313,
      "ljač": 4314,
      "zivn": 4315,
      "eto": 4316,
      "zer": 4317,
      "jež": 4318,
      "nve": 4319,
      "remi": 4320,
      "vira": 4321,
      "atke": 4322,
      "acima": 4323,
      "jviš": 4324,
      "dlu": 4325,
      "uka": 4326,
      "ograd": 4327,
      "age": 4328,
      "jon": 4329,
      "##bin": 4330,
      "jev": 4331,
      "nat": 4332,
      "porn": 4333,
      "obro": 4334,
      "imaln": 4335,
      "ostan": 4336,
      "vješ": 4337,
      "nud": 4338,
      "prati": 4339,
      "erija": 4340,
      "nvest": 4341,
      "##ot": 4342,
      "enom": 4343,
      "jači": 4344,
      "upc": 4345,
      "čev": 4346,
      "četi": 4347,
      "ect": 4348,
      "čkim": 4349,
      "pon": 4350,
      "200": 4351,
      "anket": 4352,
      "aste": 4353,
      "enut": 4354,
      "radit": 4355,
      "iam": 4356,
      "lt": 4357,
      "line": 4358,
      "jet": 4359,
      "dani": 4360,
      "etk": 4361,
      "tric": 4362,
      "umir": 4363,
      "rb": 4364,
      "šu": 4365,
      "žu": 4366,
      "enk": 4367,
      "tad": 4368,
      "tle": 4369,
      "nila": 4370,
      "stic": 4371,
      "niv": 4372,
      "tičn": 4373,
      "roz": 4374,
      "otk": 4375,
      "ohn": 4376,
      "##bu": 4377,
      "ovin": 4378,
      "maks": 4379,
      "tak": 4380,
      "onz": 4381,
      "vaju": 4382,
      "emi": 4383,
      "ntin": 4384,
      "ušao": 4385,
      "etv": 4386,
      "čine": 4387,
      "pored": 4388,
      "jstvo": 4389,
      "anc": 4390,
      "##_2720": 4391,
      "sov": 4392,
      "čku": 4393,
      "riž": 4394,
      "lagan": 4395,
      "otpor": 4396,
      "adić": 4397,
      "ratu": 4398,
      "tep": 4399,
      "ket": 4400,
      "mot": 4401,
      "ašto": 4402,
      "kand": 4403,
      "šanse": 4404,
      "ačić": 4405,
      "odin": 4406,
      "listi": 4407,
      "roku": 4408,
      "tarn": 4409,
      "rano": 4410,
      "ašl": 4411,
      "ešt": 4412,
      "iral": 4413,
      "lub": 4414,
      "alat": 4415,
      "ućn": 4416,
      "rać": 4417,
      "lit": 4418,
      "stavi": 4419,
      "ular": 4420,
      "()": 4421,
      "ois": 4422,
      "odn": 4423,
      "pat": 4424,
      "znali": 4425,
      "najve": 4426,
      "tiral": 4427,
      "ćan": 4428,
      "rolaz": 4429,
      "ert": 4430,
      "većan": 4431,
      "tegor": 4432,
      "##24": 4433,
      "nevn": 4434,
      "erb": 4435,
      "kis": 4436,
      "ndi": 4437,
      "izd": 4438,
      "upit": 4439,
      "istra": 4440,
      "onic": 4441,
      "astu": 4442,
      "uta": 4443,
      "čar": 4444,
      "##zen": 4445,
      "rava": 4446,
      "reće": 4447,
      "led": 4448,
      "ijske": 4449,
      "egr": 4450,
      "žev": 4451,
      "jelom": 4452,
      "naž": 4453,
      "obraz": 4454,
      "ljk": 4455,
      "apan": 4456,
      "uđen": 4457,
      "ope": 4458,
      "eće": 4459,
      "račn": 4460,
      "retan": 4461,
      "##orm": 4462,
      "rub": 4463,
      "tart": 4464,
      "truk": 4465,
      "klop": 4466,
      "reko": 4467,
      "ijer": 4468,
      "onim": 4469,
      "moto": 4470,
      "šlj": 4471,
      "onu": 4472,
      "orit": 4473,
      "udio": 4474,
      "nform": 4475,
      "##ker": 4476,
      "tljiv": 4477,
      "vodn": 4478,
      "ovića": 4479,
      "iban": 4480,
      "nički": 4481,
      "last": 4482,
      "adam": 4483,
      "eral": 4484,
      "##jan": 4485,
      "##ved": 4486,
      "ičan": 4487,
      "gas": 4488,
      "avk": 4489,
      "učiv": 4490,
      "aro": 4491,
      "##ed": 4492,
      "itik": 4493,
      "ivlj": 4494,
      "dir": 4495,
      "etar": 4496,
      "avan": 4497,
      "atra": 4498,
      "igur": 4499,
      "olož": 4500,
      "odaci": 4501,
      "elit": 4502,
      "duš": 4503,
      "nike": 4504,
      "##_27209": 4505,
      "33": 4506,
      "niza": 4507,
      "lag": 4508,
      "orn": 4509,
      "uzet": 4510,
      "agen": 4511,
      "jave": 4512,
      "dres": 4513,
      "45": 4514,
      "ger": 4515,
      "lon": 4516,
      "vanje": 4517,
      "topa": 4518,
      "maže": 4519,
      "licu": 4520,
      "elio": 4521,
      "gri": 4522,
      "snij": 4523,
      "##per": 4524,
      "rugo": 4525,
      "isklj": 4526,
      "cm": 4527,
      "rl": 4528,
      "nako": 4529,
      "davn": 4530,
      "stov": 4531,
      "asno": 4532,
      "rizna": 4533,
      "etak": 4534,
      "hel": 4535,
      "čim": 4536,
      "nacij": 4537,
      "set": 4538,
      "bes": 4539,
      "esta": 4540,
      "oro": 4541,
      "rge": 4542,
      "rip": 4543,
      "avid": 4544,
      "idim": 4545,
      "nkc": 4546,
      "zar": 4547,
      "ement": 4548,
      "ado": 4549,
      "stič": 4550,
      "okret": 4551,
      "čas": 4552,
      "ičkim": 4553,
      "ordan": 4554,
      "itor": 4555,
      "kbc": 4556,
      "rz": 4557,
      "mid": 4558,
      "ake": 4559,
      "pit": 4560,
      "iol": 4561,
      "ester": 4562,
      "inski": 4563,
      "uma": 4564,
      "rađen": 4565,
      "akcij": 4566,
      "vama": 4567,
      "pisu": 4568,
      "ačn": 4569,
      "đur": 4570,
      "raca": 4571,
      "suđ": 4572,
      "reb": 4573,
      "mih": 4574,
      "atima": 4575,
      "anđ": 4576,
      "ult": 4577,
      "uhva": 4578,
      "rd": 4579,
      "rskoj": 4580,
      "ijep": 4581,
      "vrdi": 4582,
      "čević": 4583,
      "##djel": 4584,
      "aziva": 4585,
      "rijsk": 4586,
      "isc": 4587,
      "jima": 4588,
      "alnog": 4589,
      "wit": 4590,
      "tine": 4591,
      "##mas": 4592,
      "auz": 4593,
      "zaht": 4594,
      "##ćer": 4595,
      "odan": 4596,
      "ijem": 4597,
      "ijeme": 4598,
      "arni": 4599,
      "ljuju": 4600,
      "azu": 4601,
      "tehn": 4602,
      "ovor": 4603,
      "rza": 4604,
      "ječe": 4605,
      "obn": 4606,
      "roje": 4607,
      "upu": 4608,
      "mušk": 4609,
      "urs": 4610,
      "ealn": 4611,
      "orist": 4612,
      "adio": 4613,
      "uklju": 4614,
      "urban": 4615,
      "36": 4616,
      "ikov": 4617,
      "lađ": 4618,
      "ajal": 4619,
      "idjel": 4620,
      "valj": 4621,
      "kun": 4622,
      "jenje": 4623,
      "nsti": 4624,
      "##uj": 4625,
      "jesu": 4626,
      "tož": 4627,
      "ilišt": 4628,
      "poslu": 4629,
      "egij": 4630,
      "bazen": 4631,
      "šećer": 4632,
      "nstit": 4633,
      "naz": 4634,
      "ijeg": 4635,
      "rom": 4636,
      "enih": 4637,
      "jna": 4638,
      "uća": 4639,
      "vanj": 4640,
      "nev": 4641,
      "čije": 4642,
      "šć": 4643,
      "kova": 4644,
      "etra": 4645,
      "rate": 4646,
      "taš": 4647,
      "cira": 4648,
      "##ber": 4649,
      "odab": 4650,
      "lavi": 4651,
      "32": 4652,
      "arr": 4653,
      "orin": 4654,
      "trav": 4655,
      "jesti": 4656,
      "kacij": 4657,
      "gore": 4658,
      "ojev": 4659,
      "tik": 4660,
      "arton": 4661,
      "usko": 4662,
      "udu": 4663,
      "ars": 4664,
      "avno": 4665,
      "fu": 4666,
      "rugi": 4667,
      "metni": 4668,
      "anđel": 4669,
      "olid": 4670,
      "tožer": 4671,
      "lis": 4672,
      "igl": 4673,
      "ivaj": 4674,
      "jera": 4675,
      "prost": 4676,
      "lum": 4677,
      "ješ": 4678,
      "nel": 4679,
      "odjel": 4680,
      "vezn": 4681,
      "nit": 4682,
      "marij": 4683,
      "mogl": 4684,
      "kazuj": 4685,
      "jeći": 4686,
      "ize": 4687,
      "obo": 4688,
      "nijih": 4689,
      "aje": 4690,
      "pav": 4691,
      "kona": 4692,
      "ratit": 4693,
      "itar": 4694,
      "užn": 4695,
      "andi": 4696,
      "tem": 4697,
      "tern": 4698,
      "obno": 4699,
      "ičkom": 4700,
      "ulja": 4701,
      "jetil": 4702,
      "čit": 4703,
      "tivno": 4704,
      "miris": 4705,
      "tualn": 4706,
      "usa": 4707,
      "ziv": 4708,
      "lanic": 4709,
      "edit": 4710,
      "sn": 4711,
      "rik": 4712,
      "rijev": 4713,
      "ede": 4714,
      "kam": 4715,
      "vala": 4716,
      "esen": 4717,
      "ektiv": 4718,
      "info": 4719,
      "omat": 4720,
      "500": 4721,
      "radu": 4722,
      "anac": 4723,
      "erk": 4724,
      "jetio": 4725,
      "bave": 4726,
      "jezin": 4727,
      "dljiv": 4728,
      "mlja": 4729,
      "##zz": 4730,
      "anci": 4731,
      "ilm": 4732,
      "ožen": 4733,
      "šef": 4734,
      "ušk": 4735,
      "wa": 4736,
      "dah": 4737,
      "lasi": 4738,
      "tab": 4739,
      "vaki": 4740,
      "utk": 4741,
      "bavi": 4742,
      "odig": 4743,
      "jesni": 4744,
      "eško": 4745,
      "jd": 4746,
      "jemo": 4747,
      "stre": 4748,
      "ams": 4749,
      "moram": 4750,
      "iben": 4751,
      "my": 4752,
      "nin": 4753,
      "dale": 4754,
      "itko": 4755,
      "podru": 4756,
      "adnik": 4757,
      "vanja": 4758,
      "jnij": 4759,
      "ovd": 4760,
      "osao": 4761,
      "eran": 4762,
      "rne": 4763,
      "rpsk": 4764,
      "mira": 4765,
      "alkan": 4766,
      "esa": 4767,
      "ljubi": 4768,
      "araž": 4769,
      "uni": 4770,
      "enat": 4771,
      "enstv": 4772,
      "visn": 4773,
      "bori": 4774,
      "gim": 4775,
      "odao": 4776,
      "vač": 4777,
      "ivali": 4778,
      "vina": 4779,
      "ače": 4780,
      "apo": 4781,
      "jar": 4782,
      "nzi": 4783,
      "šav": 4784,
      "kaž": 4785,
      "ace": 4786,
      "ijeti": 4787,
      "trak": 4788,
      "snik": 4789,
      "hla": 4790,
      "zu": 4791,
      "pogr": 4792,
      "sec": 4793,
      "omij": 4794,
      "ops": 4795,
      "nuli": 4796,
      "ustr": 4797,
      "ački": 4798,
      "gura": 4799,
      "stank": 4800,
      "ašava": 4801,
      "sobn": 4802,
      "ll": 4803,
      "rajn": 4804,
      "omp": 4805,
      "preb": 4806,
      "stot": 4807,
      "inir": 4808,
      "vima": 4809,
      "plj": 4810,
      "tt": 4811,
      "nemo": 4812,
      "boln": 4813,
      "aba": 4814,
      "mc": 4815,
      "tno": 4816,
      "urn": 4817,
      "sub": 4818,
      "anija": 4819,
      "300": 4820,
      "iž": 4821,
      "ore": 4822,
      "edo": 4823,
      "part": 4824,
      "elat": 4825,
      "nk": 4826,
      "čno": 4827,
      "paul": 4828,
      "itan": 4829,
      "atl": 4830,
      "emat": 4831,
      "##raf": 4832,
      "racij": 4833,
      "asc": 4834,
      "tinsk": 4835,
      "atori": 4836,
      "tičar": 4837,
      "can": 4838,
      "rk": 4839,
      "šar": 4840,
      "rev": 4841,
      "moc": 4842,
      "iho": 4843,
      "mica": 4844,
      "mjes": 4845,
      "ase": 4846,
      "34": 4847,
      "##man": 4848,
      "roat": 4849,
      "ukra": 4850,
      "agi": 4851,
      "edb": 4852,
      "ažu": 4853,
      "tov": 4854,
      "ism": 4855,
      "iša": 4856,
      "edv": 4857,
      "štva": 4858,
      "wo": 4859,
      "atin": 4860,
      "rta": 4861,
      "rci": 4862,
      "ude": 4863,
      "ya": 4864,
      "reću": 4865,
      "max": 4866,
      "isao": 4867,
      "ovak": 4868,
      "visno": 4869,
      "udij": 4870,
      "druge": 4871,
      "zne": 4872,
      "##fe": 4873,
      "nomi": 4874,
      "ico": 4875,
      "vezu": 4876,
      "jelov": 4877,
      "unj": 4878,
      "ravo": 4879,
      "upn": 4880,
      "ičku": 4881,
      "leda": 4882,
      "uška": 4883,
      "irekt": 4884,
      "ega": 4885,
      "eđa": 4886,
      "oci": 4887,
      "telja": 4888,
      "imat": 4889,
      "vit": 4890,
      "pali": 4891,
      "oprav": 4892,
      "cion": 4893,
      "ljeća": 4894,
      "zorn": 4895,
      "uše": 4896,
      "##zij": 4897,
      "jaja": 4898,
      "vaj": 4899,
      "vara": 4900,
      "ezo": 4901,
      "etnj": 4902,
      "ajem": 4903,
      "kit": 4904,
      "oi": 4905,
      "rup": 4906,
      "tili": 4907,
      "arhit": 4908,
      "ee": 4909,
      "eon": 4910,
      "izvo": 4911,
      "ovr": 4912,
      "obu": 4913,
      "šire": 4914,
      "akir": 4915,
      "juju": 4916,
      "isij": 4917,
      "djec": 4918,
      "oliti": 4919,
      "guž": 4920,
      "aše": 4921,
      "lač": 4922,
      "etro": 4923,
      "istu": 4924,
      "vjeti": 4925,
      "hns": 4926,
      "eras": 4927,
      "eću": 4928,
      "pil": 4929,
      "dol": 4930,
      "alja": 4931,
      "ijat": 4932,
      "opad": 4933,
      "čani": 4934,
      "denti": 4935,
      "kisel": 4936,
      "prep": 4937,
      "alnim": 4938,
      "alnih": 4939,
      "sredn": 4940,
      "snici": 4941,
      "##10": 4942,
      "načaj": 4943,
      "##ho": 4944,
      "titu": 4945,
      "itim": 4946,
      "erc": 4947,
      "umije": 4948,
      "rosje": 4949,
      "ff": 4950,
      "uduć": 4951,
      "žn": 4952,
      "nese": 4953,
      "aval": 4954,
      "sluša": 4955,
      "alon": 4956,
      "elem": 4957,
      "sf": 4958,
      "##šti": 4959,
      "ander": 4960,
      "mob": 4961,
      "spol": 4962,
      "avao": 4963,
      "chef": 4964,
      "kvart": 4965,
      "eđ": 4966,
      "ksi": 4967,
      "oe": 4968,
      "enta": 4969,
      "ann": 4970,
      "rođ": 4971,
      "amal": 4972,
      "taro": 4973,
      "repor": 4974,
      "ograf": 4975,
      "prima": 4976,
      "tum": 4977,
      "jenja": 4978,
      "mena": 4979,
      "ck": 4980,
      "len": 4981,
      "##ef": 4982,
      "onte": 4983,
      "ovine": 4984,
      "arstv": 4985,
      "ido": 4986,
      "del": 4987,
      "etu": 4988,
      "ese": 4989,
      "azin": 4990,
      "aziv": 4991,
      "geo": 4992,
      "takm": 4993,
      "oče": 4994,
      "uga": 4995,
      "zašti": 4996,
      "mb": 4997,
      "zvor": 4998,
      "skl": 4999
    }
  }
}