{
  "version": "1.0",
  "truncation": null,
  "padding": null,
  "added_tokens": [
    {
      "id": 0,
      "content": "[UNK]",
      "single_word": false,
      "lstrip": false,
      "rstrip": false,
      "normalized": false,
      "special": true
    },
    {
      "id": 1,
      "content": "[CLS]",
      "single_word": false,
      "lstrip": false,
      "rstrip": false,
      "normalized": false,
      "special": true
    },
    {
      "id": 2,
      "content": "[SEP]",
      "single_word": false,
      "lstrip": false,
      "rstrip": false,
      "normalized": false,
      "special": true
    },
    {
      "id": 3,
      "content": "[PAD]",
      "single_word": false,
      "lstrip": false,
      "rstrip": false,
      "normalized": false,
      "special": true
    },
    {
      "id": 4,
      "content": "[MASK]",
      "single_word": false,
      "lstrip": false,
      "rstrip": false,
      "normalized": false,
      "special": true
    }
  ],
  "normalizer": {
    "type": "Sequence",
    "normalizers": [
      {
        "type": "NFKC"
      },
      {
        "type": "Lowercase"
      }
    ]
  },
  "pre_tokenizer": {
    "type": "Whitespace"
  },
  "post_processor": null,
  "decoder": {
    "type": "WordPiece",
    "prefix": "##",
    "cleanup": true
  },
  "model": {
    "type": "WordPiece",
    "unk_token": "[UNK]",
    "continuing_subword_prefix": "##",
    "max_input_chars_per_word": 100,
    "vocab": {
      "[UNK]": 0,
      "[CLS]": 1,
      "[SEP]": 2,
      "[PAD]": 3,
      "[MASK]": 4,
      "!": 5,
      "\"": 6,
      "#": 7,
      "$": 8,
      "%": 9,
      "&": 10,
      "'": 11,
      "(": 12,
      ")": 13,
      "*": 14,
      "+": 15,
      ",": 16,
      "-": 17,
      ".": 18,
      "/": 19,
      "0": 20,
      "1": 21,
      "2": 22,
      "3": 23,
      "4": 24,
      "5": 25,
      "6": 26,
      "7": 27,
      "8": 28,
      "9": 29,
      ":": 30,
      ";": 31,
      "<": 32,
      "=": 33,
      ">": 34,
      "?": 35,
      "@": 36,
      "[": 37,
      "\\": 38,
      "]": 39,
      "^": 40,
      "_": 41,
      "`": 42,
      "a": 43,
      "b": 44,
      "c": 45,
      "d": 46,
      "e": 47,
      "f": 48,
      "g": 49,
      "h": 50,
      "i": 51,
      "j": 52,
      "k": 53,
      "l": 54,
      "m": 55,
      "n": 56,
      "o": 57,
      "p": 58,
      "q": 59,
      "r": 60,
      "s": 61,
      "t": 62,
      "u": 63,
      "v": 64,
      "w": 65,
      "x": 66,
      "y": 67,
      "z": 68,
      "{": 69,
      "}": 70,
      "": 71,
      "¡": 72,
      "£": 73,
      "¤": 74,
      "§": 75,
      "©": 76,
      "­": 77,
      "®": 78,
      "°": 79,
      "±": 80,
      "·": 81,
      "¿": 82,
      "×": 83,
      "ß": 84,
      "à": 85,
      "á": 86,
      "â": 87,
      "ã": 88,
      "ä": 89,
      "å": 90,
      "ç": 91,
      "è": 92,
      "é": 93,
      "ê": 94,
      "ë": 95,
      "ì": 96,
      "í": 97,
      "î": 98,
      "ï": 99,
      "ð": 100,
      "ñ": 101,
      "ò": 102,
      "ó": 103,
      "ô": 104,
      "õ": 105,
      "ö": 106,
      "ø": 107,
      "ù": 108,
      "ú": 109,
      "û": 110,
      "ü": 111,
      "ý": 112,
      "ā": 113,
      "ă": 114,
      "ą": 115,
      "ć": 116,
      "ĉ": 117,
      "č": 118,
      "ď": 119,
      "đ": 120,
      "ē": 121,
      "ė": 122,
      "ę": 123,
      "ě": 124,
      "ğ": 125,
      "ı": 126,
      "ľ": 127,
      "ł": 128,
      "ń": 129,
      "ň": 130,
      "ō": 131,
      "ő": 132,
      "ř": 133,
      "ś": 134,
      "ş": 135,
      "š": 136,
      "ţ": 137,
      "ū": 138,
      "ů": 139,
      "ź": 140,
      "ż": 141,
      "ž": 142,
      "ƙ": 143,
      "ȃ": 144,
      "ȉ": 145,
      "ȑ": 146,
      "ȗ": 147,
      "ș": 148,
      "ț": 149,
      "ə": 150,
      "ʟ": 151,
      "́": 152,
      "̇": 153,
      "̈": 154,
      "̊": 155,
      "̋": 156,
      "̌": 157,
      "̣": 158,
      "̧": 159,
      "έ": 160,
      "ή": 161,
      "α": 162,
      "γ": 163,
      "δ": 164,
      "μ": 165,
      "ο": 166,
      "π": 167,
      "ρ": 168,
      "ς": 169,
      "τ": 170,
      "υ": 171,
      "χ": 172,
      "ω": 173,
      "ό": 174,
      "а": 175,
      "е": 176,
      "к": 177,
      "л": 178,
      "н": 179,
      "о": 180,
      "ь": 181,
      "і": 182,
      "ј": 183,
      "ґ": 184,
      "ӣ": 185,
      "ӧ": 186,
      "ི": 187,
      "ྀ": 188,
      "ṓ": 189,
      "ṣ": 190,
      "ọ": 191,
      "ố": 192,
      "ἀ": 193,
      "‍": 194,
      "‎": 195,
      "‐": 196,
      "‒": 197,
      "―": 198,
      "‖": 199,
      "‟": 200,
      "•": 201,
      "‰": 202,
      "′": 203,
      "⁄": 204,
      "⁠": 205,
      "€": 206,
      "↑": 207,
      "⇒": 208,
      "−": 209,
      "∶": 210,
      "⏱": 211,
      "■": 212,
      "▪": 213,
      "▶": 214,
      "►": 215,
      "○": 216,
      "●": 217,
      "☀": 218,
      "☃": 219,
      "☑": 220,
      "☘": 221,
      "☺": 222,
      "♀": 223,
      "♡": 224,
      "♥": 225,
      "♦": 226,
      "♬": 227,
      "⚠": 228,
      "⚤": 229,
      "⚫": 230,
      "⚽": 231,
      "✓": 232,
      "✔": 233,
      "✠": 234,
      "✨": 235,
      "❄": 236,
      "❤": 237,
      "シ": 238,
      "传": 239,
      "多": 240,
      "陈": 241,
      "": 242,
      "": 243,
      "️": 244,
      "🇦": 245,
      "🇧": 246,
      "🇫": 247,
      "🇬": 248,
      "🇭": 249,
      "🇮": 250,
      "🇱": 251,
      "🇵": 252,
      "🇷": 253,
      "🇸": 254,
      "🇺": 255,
      "🇾": 256,
      "🌋": 257,
      "🌐": 258,
      "🌠": 259,
      "🌧": 260,
      "🌨": 261,
      "🌸": 262,
      "🌺": 263,
      "🌻": 264,
      "🍉": 265,
      "🍊": 266,
      "🎀": 267,
      "🎁": 268,
      "🎗": 269,
      "🏡": 270,
      "🏻": 271,
      "🐄": 272,
      "🐥": 273,
      "🐦": 274,
      "🐱": 275,
      "🐶": 276,
      "👀": 277,
      "👁": 278,
      "👇": 279,
      "👣": 280,
      "👶": 281,
      "💅": 282,
      "💋": 283,
      "💎": 284,
      "💕": 285,
      "💘": 286,
      "💙": 287,
      "💚": 288,
      "💟": 289,
      "💪": 290,
      "💯": 291,
      "📌": 292,
      "📢": 293,
      "📱": 294,
      "📸": 295,
      "🔄": 296,
      "🔥": 297,
      "🔹": 298,
      "🕓": 299,
      "🕷": 300,
      "🕸": 301,
      "🖥": 302,
      "😀": 303,
      "😁": 304,
      "😂": 305,
      "😅": 306,
      "😉": 307,
      "😊": 308,
      "😍": 309,
      "😎": 310,
      "😏": 311,
      "😬": 312,
      "😭": 313,
      "🙂": 314,
      "🙌": 315,
      "🙏": 316,
      "🛁": 317,
      "🟡": 318,
      "🟨": 319,
      "🤍": 320,
      "🤔": 321,
      "🤢": 322,
      "🤦": 323,
      "🤩": 324,
      "🤪": 325,
      "🤯": 326,
      "🥚": 327,
      "🥥": 328,
      "🥰": 329,
      "🥲": 330,
      "🥹": 331,
      "🥺": 332,
      "🦟": 333,
      "🩹": 334,
      "🩺": 335,
      "🪐": 336,
      "🫒": 337,
      "🫠": 338,
      "🫶": 339,
      "##_": 340,
      "##2": 341,
      "##7": 342,
      "##0": 343,
      "##9": 344,
      "##8": 345,
      "##4": 346,
      "##1": 347,
      "##6": 348,
      "##o": 349,
      "##s": 350,
      "##e": 351,
      "##c": 352,
      "##u": 353,
      "##r": 354,
      "##i": 355,
      "##x": 356,
      "##3": 357,
      "##a": 358,
      "##t": 359,
      "##l": 360,
      "##v": 361,
      "##š": 362,
      "##f": 363,
      "##m": 364,
      "##č": 365,
      "##n": 366,
      "##z": 367,
      "##ž": 368,
      "##k": 369,
      "##b": 370,
      "##g": 371,
      "##p": 372,
      "##h": 373,
      "##d": 374,
      "##j": 375,
      "##y": 376,
      "##ç": 377,
      "##ć": 378,
      "##á": 379,
      "##w": 380,
      "##5": 381,
      "##đ": 382,
      "##q": 383,
      "##ü": 384,
      "##ú": 385,
      "##î": 386,
      "##í": 387,
      "##é": 388,
      "##ò": 389,
      "##!": 390,
      "##õ": 391,
      "##;": 392,
      "##💙": 393,
      "##ë": 394,
      "##ñ": 395,
      "##ö": 396,
      "##-": 397,
      "##ï": 398,
      "##ã": 399,
      "##â": 400,
      "##å": 401,
      "##ä": 402,
      "##ğ": 403,
      "##🥚": 404,
      "##е": 405,
      "##ą": 406,
      "##ė": 407,
      "##ê": 408,
      "##.": 409,
      "##+": 410,
      "##ó": 411,
      "##ź": 412,
      "##🇸": 413,
      "##,": 414,
      "##ı": 415,
      "##ȉ": 416,
      "##ȑ": 417,
      "##è": 418,
      "##ā": 419,
      "##:": 420,
      "##\"": 421,
      "##ð": 422,
      "##传": 423,
      "##多": 424,
      "##ù": 425,
      "##ě": 426,
      "##ß": 427,
      "##ô": 428,
      "##)": 429,
      "##ρ": 430,
      "##ο": 431,
      "##ς": 432,
      "##🔄": 433,
      "##ş": 434,
      "##ă": 435,
      "##[": 436,
      "##ṣ": 437,
      "##🤢": 438,
      "##<": 439,
      "##}": 440,
      "##]": 441,
      "##ř": 442,
      "##🇷": 443,
      "##'": 444,
      "##?": 445,
      "##ę": 446,
      "##ł": 447,
      "##ś": 448,
      "##ì": 449,
      "##ø": 450,
      "##ý": 451,
      "##ό": 452,
      "##μ": 453,
      "##ő": 454,
      "##❤": 455,
      "##ț": 456,
      "##>": 457,
      "##{": 458,
      "##ӣ": 459,
      "##à": 460,
      "##ố": 461,
      "##ż": 462,
      "##̇": 463,
      "##ţ": 464,
      "##🫠": 465,
      "##χ": 466,
      "##/": 467,
      "##л": 468,
      "##н": 469,
      "##🛁": 470,
      "##υ": 471,
      "##π": 472,
      "##ľ": 473,
      "##′": 474,
      "##ṓ": 475,
      "##ə": 476,
      "##ω": 477,
      "##τ": 478,
      "##а": 479,
      "##ď": 480,
      "##✨": 481,
      "##о": 482,
      "##*": 483,
      "##&": 484,
      "##ō": 485,
      "##↑": 486,
      "##🇾": 487,
      "##ј": 488,
      "##ń": 489,
      "##ș": 490,
      "##­": 491,
      "##γ": 492,
      "##ů": 493,
      "##ọ": 494,
      "##ӧ": 495,
      "##û": 496,
      "##ȗ": 497,
      "##je": 498,
      "je": 499,
      "na": 500,
      "pr": 501,
      "po": 502,
      "##ra": 503,
      "##ti": 504,
      "##an": 505,
      "##ko": 506,
      "##li": 507,
      "za": 508,
      "##va": 509,
      "ko": 510,
      "##st": 511,
      "##ar": 512,
      "##en": 513,
      "##ma": 514,
      "##la": 515,
      "ni": 516,
      "##ja": 517,
      "se": 518,
      "da": 519,
      "ne": 520,
      "st": 521,
      "##in": 522,
      "do": 523,
      "ra": 524,
      "on": 525,
      "od": 526,
      "##vo": 527,
      "##te": 528,
      "om": 529,
      "bi": 530,
      "ka": 531,
      "iz": 532,
      "su": 533,
      "no": 534,
      "##ije": 535,
      "in": 536,
      "##ji": 537,
      "##od": 538,
      "en": 539,
      "##ju": 540,
      "re": 541,
      "ov": 542,
      "an": 543,
      "pre": 544,
      "##to": 545,
      "##ka": 546,
      "sa": 547,
      "pro": 548,
      "##re": 549,
      "mo": 550,
      "to": 551,
      "##lj": 552,
      "##av": 553,
      "##lo": 554,
      "##car": 555,
      "te": 556,
      "##ri": 557,
      "##mo": 558,
      "##no": 559,
      "ti": 560,
      "##ro": 561,
      "ac": 562,
      "ic": 563,
      "##da": 564,
      "io": 565,
      "##sk": 566,
      "ma": 567,
      "##ru": 568,
      "li": 569,
      "##er": 570,
      "##ta": 571,
      "os": 572,
      "og": 573,
      "ob": 574,
      "ih": 575,
      "pri": 576,
      "ima": 577,
      "sk": 578,
      "la": 579,
      "im": 580,
      "ve": 581,
      "jed": 582,
      "##ij": 583,
      "vi": 584,
      "##na": 585,
      "##or": 586,
      "##le": 587,
      "nje": 588,
      "##ve": 589,
      "me": 590,
      "ta": 591,
      "##vi": 592,
      "mi": 593,
      "koji": 594,
      "##ran": 595,
      "ije": 596,
      "god": 597,
      "ccar": 598,
      "iti": 599,
      "go": 600,
      "ak": 601,
      "ro": 602,
      "##di": 603,
      "će": 604,
      "##ute": 605,
      "ja": 606,
      "ili": 607,
      "vo": 608,
      "pa": 609,
      "acute": 610,
      "što": 611,
      "ju": 612,
      "##lu": 613,
      "va": 614,
      "ar": 615,
      "lo": 616,
      "ij": 617,
      "##up": 618,
      "al": 619,
      "gra": 620,
      "##vat": 621,
      "##anj": 622,
      "##ga": 623,
      "hr": 624,
      "ali": 625,
      "##tn": 626,
      "godin": 627,
      "##me": 628,
      "mje": 629,
      "raz": 630,
      "is": 631,
      "##al": 632,
      "ovi": 633,
      "ite": 634,
      "sko": 635,
      "##ut": 636,
      "sp": 637,
      "kako": 638,
      "ri": 639,
      "##vor": 640,
      "or": 641,
      "dru": 642,
      "##gu": 643,
      "oj": 644,
      "ija": 645,
      "##nj": 646,
      "er": 647,
      "hrvat": 648,
      "zcar": 649,
      "nije": 650,
      "##ni": 651,
      "##et": 652,
      "##il": 653,
      "vr": 654,
      "##še": 655,
      "aj": 656,
      "##is": 657,
      "ila": 658,
      "ova": 659,
      "ić": 660,
      "op": 661,
      "dan": 662,
      "sve": 663,
      "##tu": 664,
      "ski": 665,
      "ot": 666,
      "##go": 667,
      "eu": 668,
      "##el": 669,
      "##kon": 670,
      "koje": 671,
      "bo": 672,
      "ru": 673,
      "##jed": 674,
      "iv": 675,
      "##ba": 676,
      "pred": 677,
      "##tiv": 678,
      "##vr": 679,
      "pu": 680,
      "=>": 681,
      "##ći": 682,
      "di": 683,
      "##že": 684,
      "ica": 685,
      "up": 686,
      "ost": 687,
      "kao": 688,
      "##zi": 689,
      "##za": 690,
      "zna": 691,
      "ig": 692,
      "nos": 693,
      "em": 694,
      "##on": 695,
      "ci": 696,
      "##ki": 697,
      "lje": 698,
      "sam": 699,
      "naj": 700,
      "nja": 701,
      "##št": 702,
      "dje": 703,
      "nji": 704,
      "##de": 705,
      "##ku": 706,
      "ama": 707,
      "svo": 708,
      "es": 709,
      "gla": 710,
      "it": 711,
      "nakon": 712,
      "##lik": 713,
      "jo": 714,
      "et": 715,
      "tre": 716,
      "##du": 717,
      "sta": 718,
      "ist": 719,
      "##ca": 720,
      "##ov": 721,
      "##ci": 722,
      "##sn": 723,
      "lju": 724,
      "uz": 725,
      "tu": 726,
      "biti": 727,
      "##bo": 728,
      "govor": 729,
      "stav": 730,
      "##men": 731,
      "us": 732,
      "du": 733,
      "de": 734,
      "##jav": 735,
      "ava": 736,
      "ič": 737,
      "vod": 738,
      "oli": 739,
      "dob": 740,
      "ice": 741,
      "nik": 742,
      "če": 743,
      "rije": 744,
      "ira": 745,
      "ku": 746,
      "mu": 747,
      "smo": 748,
      "ske": 749,
      "ga": 750,
      "vije": 751,
      "dr": 752,
      "dana": 753,
      "ovo": 754,
      "vje": 755,
      "preds": 756,
      "koja": 757,
      "lu": 758,
      "##ne": 759,
      "više": 760,
      "min": 761,
      "tako": 762,
      "##kt": 763,
      "nu": 764,
      "bio": 765,
      "ik": 766,
      "samo": 767,
      "itelj": 768,
      "le": 769,
      "tr": 770,
      "##it": 771,
      "##im": 772,
      "tra": 773,
      "pod": 774,
      "iš": 775,
      "ici": 776,
      "kr": 777,
      "av": 778,
      "ud": 779,
      "rad": 780,
      "igra": 781,
      "jedn": 782,
      "el": 783,
      "prije": 784,
      "##ent": 785,
      "##ac": 786,
      "već": 787,
      "drug": 788,
      "ović": 789,
      "##rav": 790,
      "##tak": 791,
      "osti": 792,
      "##vn": 793,
      "nov": 794,
      "ako": 795,
      "lja": 796,
      "##mp": 797,
      "##ir": 798,
      "##ča": 799,
      "kup": 800,
      "jer": 801,
      "##ijel": 802,
      "ut": 803,
      "njeg": 804,
      "be": 805,
      "još": 806,
      "ki": 807,
      "##ke": 808,
      "tar": 809,
      "##lje": 810,
      "##čn": 811,
      "vla": 812,
      "ove": 813,
      "##bor": 814,
      "##ven": 815,
      "kon": 816,
      "##ce": 817,
      "##đu": 818,
      "velik": 819,
      "pra": 820,
      "##ša": 821,
      "##ter": 822,
      "uje": 823,
      "##čk": 824,
      "##ul": 825,
      "zbo": 826,
      "uk": 827,
      "zbog": 828,
      "sto": 829,
      "svi": 830,
      "##kao": 831,
      "mogu": 832,
      "oko": 833,
      "ag": 834,
      "##sp": 835,
      "radi": 836,
      "##rn": 837,
      "az": 838,
      "kra": 839,
      "euro": 840,
      "grad": 841,
      "au": 842,
      "dok": 843,
      "red": 844,
      "oliko": 845,
      "stup": 846,
      "bu": 847,
      "ol": 848,
      "uč": 849,
      "rekao": 850,
      "##un": 851,
      "poli": 852,
      "##jo": 853,
      "bilo": 854,
      "##šk": 855,
      "treba": 856,
      "##ća": 857,
      "sm": 858,
      "pos": 859,
      "##će": 860,
      "man": 861,
      "ska": 862,
      "enje": 863,
      "si": 864,
      "njih": 865,
      "##avn": 866,
      "ži": 867,
      "##jet": 868,
      "ad": 869,
      "iran": 870,
      "##sto": 871,
      "sva": 872,
      "sv": 873,
      "ek": 874,
      "as": 875,
      "##jn": 876,
      "može": 877,
      "pla": 878,
      "br": 879,
      "ijsk": 880,
      "##su": 881,
      "iju": 882,
      "tri": 883,
      "ati": 884,
      "##pa": 885,
      "oz": 886,
      "am": 887,
      "eg": 888,
      "##dje": 889,
      "##ob": 890,
      "uju": 891,
      "ika": 892,
      "at": 893,
      "iji": 894,
      "##am": 895,
      "europ": 896,
      "ok": 897,
      "utak": 898,
      "godi": 899,
      "ab": 900,
      "##em": 901,
      "skog": 902,
      "mar": 903,
      "kada": 904,
      "kl": 905,
      "sti": 906,
      "gle": 907,
      "nek": 908,
      "##cij": 909,
      "prema": 910,
      "##sta": 911,
      "tva": 912,
      "##ao": 913,
      "ljen": 914,
      "##lij": 915,
      "ub": 916,
      "eura": 917,
      "##lan": 918,
      "dst": 919,
      "drž": 920,
      "##ijen": 921,
      "ren": 922,
      "zi": 923,
      "dstro": 924,
      "kad": 925,
      "##om": 926,
      "##reb": 927,
      "ona": 928,
      "vrije": 929,
      "bro": 930,
      "nju": 931,
      "bila": 932,
      "isp": 933,
      "utakm": 934,
      "ev": 935,
      "nog": 936,
      "ina": 937,
      "##red": 938,
      "##se": 939,
      "stran": 940,
      "jp": 941,
      "gr": 942,
      "##var": 943,
      "jedan": 944,
      "skoj": 945,
      "slu": 946,
      "remen": 947,
      "##ži": 948,
      "##dr": 949,
      "nika": 950,
      "ba": 951,
      "među": 952,
      "##lav": 953,
      "rotiv": 954,
      "##tin": 955,
      "ilo": 956,
      "vid": 957,
      "pis": 958,
      "lan": 959,
      "tvr": 960,
      "ca": 961,
      "ur": 962,
      "godiš": 963,
      "##če": 964,
      "##tor": 965,
      "izbor": 966,
      "lije": 967,
      "dva": 968,
      "mjest": 969,
      "tan": 970,
      "rod": 971,
      "aci": 972,
      "bez": 973,
      "ing": 974,
      "##kv": 975,
      "##jen": 976,
      "ori": 977,
      "lji": 978,
      "ed": 979,
      "id": 980,
      "pi": 981,
      "pravo": 982,
      "un": 983,
      "gdje": 984,
      "nim": 985,
      "ran": 986,
      "oni": 987,
      "aš": 988,
      "bolj": 989,
      "##ln": 990,
      "mat": 991,
      "ljudi": 992,
      "polic": 993,
      "par": 994,
      "či": 995,
      "ča": 996,
      "rep": 997,
      "enja": 998,
      "odlu": 999,
      "##est": 1000,
      "##či": 1001,
      "ul": 1002,
      "##voj": 1003,
      "iva": 1004,
      "prem": 1005,
      "##rat": 1006,
      "##ira": 1007,
      "ho": 1008,
      "ust": 1009,
      "osl": 1010,
      "tren": 1011,
      "eti": 1012,
      "svak": 1013,
      "##si": 1014,
      "prav": 1015,
      "klju": 1016,
      "nam": 1017,
      "pe": 1018,
      "jedno": 1019,
      "##tur": 1020,
      "nih": 1021,
      "dijel": 1022,
      "##joj": 1023,
      "##rak": 1024,
      "##lad": 1025,
      "ent": 1026,
      "tru": 1027,
      "klu": 1028,
      "pet": 1029,
      "##kol": 1030,
      "icu": 1031,
      "tav": 1032,
      "met": 1033,
      "##ijek": 1034,
      "rav": 1035,
      "nad": 1036,
      "nj": 1037,
      "jedin": 1038,
      "##gr": 1039,
      "ani": 1040,
      "##đen": 1041,
      "objav": 1042,
      "##tel": 1043,
      "##ge": 1044,
      "nosti": 1045,
      "skih": 1046,
      "##lem": 1047,
      "osob": 1048,
      "##enc": 1049,
      "kri": 1050,
      "zd": 1051,
      "skom": 1052,
      "posto": 1053,
      "imo": 1054,
      "ia": 1055,
      "sr": 1056,
      "##što": 1057,
      "ec": 1058,
      "##dat": 1059,
      "seb": 1060,
      "nego": 1061,
      "##raž": 1062,
      "gleda": 1063,
      "##val": 1064,
      "slo": 1065,
      "svoje": 1066,
      "oka": 1067,
      "odr": 1068,
      "mjer": 1069,
      "bili": 1070,
      "ivo": 1071,
      "##đa": 1072,
      "ke": 1073,
      "##ši": 1074,
      "tek": 1075,
      "##rad": 1076,
      "igu": 1077,
      "##he": 1078,
      "mora": 1079,
      "fo": 1080,
      "tje": 1081,
      "danas": 1082,
      "##ješ": 1083,
      "služ": 1084,
      "ame": 1085,
      "##po": 1086,
      "sad": 1087,
      "kan": 1088,
      "glas": 1089,
      "ključ": 1090,
      "nas": 1091,
      "jen": 1092,
      "poz": 1093,
      "mog": 1094,
      "agreb": 1095,
      "toga": 1096,
      "##ris": 1097,
      "až": 1098,
      "ljiv": 1099,
      "nisu": 1100,
      "##sti": 1101,
      "kom": 1102,
      "zdrav": 1103,
      "minis": 1104,
      "voz": 1105,
      "##zon": 1106,
      "svoj": 1107,
      "kod": 1108,
      "ir": 1109,
      "novi": 1110,
      "poru": 1111,
      "tom": 1112,
      "sada": 1113,
      "ivanj": 1114,
      "blem": 1115,
      "##tsk": 1116,
      "##rov": 1117,
      "nici": 1118,
      "##ok": 1119,
      "poč": 1120,
      "lj": 1121,
      "tim": 1122,
      "ari": 1123,
      "fi": 1124,
      "est": 1125,
      "##gi": 1126,
      "il": 1127,
      "kar": 1128,
      "zv": 1129,
      "prvi": 1130,
      "##kr": 1131,
      "ivan": 1132,
      "ao": 1133,
      "auto": 1134,
      "anj": 1135,
      "društ": 1136,
      "rek": 1137,
      "slav": 1138,
      "sku": 1139,
      "##cu": 1140,
      "sezon": 1141,
      "broj": 1142,
      "##mi": 1143,
      "že": 1144,
      "čin": 1145,
      "ativ": 1146,
      "gor": 1147,
      "eni": 1148,
      "vijek": 1149,
      "vijet": 1150,
      "itu": 1151,
      "voji": 1152,
      "##dij": 1153,
      "dobro": 1154,
      "građ": 1155,
      "zem": 1156,
      "malo": 1157,
      "gram": 1158,
      "kre": 1159,
      "dv": 1160,
      "igurn": 1161,
      "inf": 1162,
      "milij": 1163,
      "minut": 1164,
      "##den": 1165,
      "##gan": 1166,
      "##nu": 1167,
      "ele": 1168,
      "ast": 1169,
      "##vić": 1170,
      "bje": 1171,
      "din": 1172,
      "živo": 1173,
      "rez": 1174,
      "ši": 1175,
      "ač": 1176,
      "sl": 1177,
      "škol": 1178,
      "##pad": 1179,
      "ustav": 1180,
      "tijek": 1181,
      "prvo": 1182,
      "mis": 1183,
      "ini": 1184,
      "isk": 1185,
      "igrač": 1186,
      "um": 1187,
      "##tr": 1188,
      "koju": 1189,
      "##log": 1190,
      "cijen": 1191,
      "##ze": 1192,
      "ht": 1193,
      "##vez": 1194,
      "##nic": 1195,
      "##jel": 1196,
      "##tit": 1197,
      "insk": 1198,
      "zemlj": 1199,
      "tp": 1200,
      "fil": 1201,
      "ada": 1202,
      "##bil": 1203,
      "##vrš": 1204,
      "iona": 1205,
      "inter": 1206,
      "itet": 1207,
      "tran": 1208,
      "##vod": 1209,
      "moguć": 1210,
      "##gur": 1211,
      "ap": 1212,
      "##jer": 1213,
      "##rug": 1214,
      "##tk": 1215,
      "##at": 1216,
      "nač": 1217,
      "usp": 1218,
      "nost": 1219,
      "##vu": 1220,
      "izira": 1221,
      "nema": 1222,
      "rž": 1223,
      "kaže": 1224,
      "život": 1225,
      "ional": 1226,
      "otp": 1227,
      "##lit": 1228,
      "ine": 1229,
      "zab": 1230,
      "##io": 1231,
      "stvo": 1232,
      "##čaj": 1233,
      "##tov": 1234,
      "##aln": 1235,
      "tvor": 1236,
      "javn": 1237,
      "metn": 1238,
      "taj": 1239,
      "gol": 1240,
      "dio": 1241,
      "lin": 1242,
      "stva": 1243,
      "##laz": 1244,
      "kojem": 1245,
      "##rij": 1246,
      "gu": 1247,
      "njem": 1248,
      "sna": 1249,
      "oja": 1250,
      "jekt": 1251,
      "glavn": 1252,
      "takođ": 1253,
      "završ": 1254,
      "sigur": 1255,
      "cijel": 1256,
      "##kom": 1257,
      "telj": 1258,
      "##ks": 1259,
      "nešto": 1260,
      "nogo": 1261,
      "##deo": 1262,
      "stven": 1263,
      "tome": 1264,
      "jeti": 1265,
      "##šta": 1266,
      "ameri": 1267,
      "pje": 1268,
      "rasp": 1269,
      "nom": 1270,
      "zg": 1271,
      "doma": 1272,
      "omo": 1273,
      "pop": 1274,
      "tro": 1275,
      "objed": 1276,
      "itanj": 1277,
      "ovaj": 1278,
      "vjer": 1279,
      "zra": 1280,
      "10": 1281,
      "##gao": 1282,
      "put": 1283,
      "skim": 1284,
      "ant": 1285,
      "pl": 1286,
      "mjen": 1287,
      "##as": 1288,
      "nica": 1289,
      "jav": 1290,
      "##bn": 1291,
      "naš": 1292,
      "ono": 1293,
      "ch": 1294,
      "puno": 1295,
      "sati": 1296,
      "##nos": 1297,
      "sre": 1298,
      "ep": 1299,
      "kaz": 1300,
      "aka": 1301,
      "djelj": 1302,
      "držav": 1303,
      "vodi": 1304,
      "jak": 1305,
      "##nik": 1306,
      "##ret": 1307,
      "dvije": 1308,
      "uprav": 1309,
      "iako": 1310,
      "kaza": 1311,
      "ji": 1312,
      "mno": 1313,
      "zme": 1314,
      "##god": 1315,
      "una": 1316,
      "tat": 1317,
      "matra": 1318,
      "##duć": 1319,
      "kro": 1320,
      "etvr": 1321,
      "znat": 1322,
      "etvrt": 1323,
      "##mac": 1324,
      "rezul": 1325,
      "jednj": 1326,
      "prva": 1327,
      "upan": 1328,
      "fin": 1329,
      "zn": 1330,
      "mir": 1331,
      "vija": 1332,
      "ovanj": 1333,
      "ćemo": 1334,
      "bor": 1335,
      "##duk": 1336,
      "njez": 1337,
      "stor": 1338,
      "oš": 1339,
      "neki": 1340,
      "zent": 1341,
      "ljub": 1342,
      "lazi": 1343,
      "izv": 1344,
      "ilje": 1345,
      "vis": 1346,
      "spor": 1347,
      "dalje": 1348,
      "##enj": 1349,
      "kont": 1350,
      "##tko": 1351,
      "organ": 1352,
      "emo": 1353,
      "način": 1354,
      "tor": 1355,
      "koris": 1356,
      "foto": 1357,
      "##las": 1358,
      "of": 1359,
      "djel": 1360,
      "mijen": 1361,
      "važ": 1362,
      "bli": 1363,
      "hvat": 1364,
      "gotov": 1365,
      "split": 1366,
      "čak": 1367,
      "##rt": 1368,
      "##lim": 1369,
      "rač": 1370,
      "log": 1371,
      "manje": 1372,
      "nis": 1373,
      "izvod": 1374,
      "##rod": 1375,
      "ce": 1376,
      "ora": 1377,
      "stoji": 1378,
      "uv": 1379,
      "etiri": 1380,
      "mla": 1381,
      "##us": 1382,
      "izac": 1383,
      "oc": 1384,
      "ajduk": 1385,
      "lučaj": 1386,
      "zmeđu": 1387,
      "ituac": 1388,
      "jatel": 1389,
      "grada": 1390,
      "rekla": 1391,
      "brz": 1392,
      "nosi": 1393,
      "##raj": 1394,
      "imaju": 1395,
      "tvara": 1396,
      "medij": 1397,
      "ven": 1398,
      "##čj": 1399,
      "dno": 1400,
      "govar": 1401,
      "kojoj": 1402,
      "##do": 1403,
      "##ad": 1404,
      "onda": 1405,
      "mor": 1406,
      "dručj": 1407,
      "alo": 1408,
      "vrlo": 1409,
      "##nen": 1410,
      "##ur": 1411,
      "kraj": 1412,
      "njema": 1413,
      "vez": 1414,
      "žel": 1415,
      "ož": 1416,
      "eno": 1417,
      "prot": 1418,
      "final": 1419,
      "ras": 1420,
      "održ": 1421,
      "acije": 1422,
      "meta": 1423,
      "vam": 1424,
      "ste": 1425,
      "ile": 1426,
      "repre": 1427,
      "##kaz": 1428,
      "film": 1429,
      "vojim": 1430,
      "men": 1431,
      "jve": 1432,
      "sjed": 1433,
      "video": 1434,
      "ijal": 1435,
      "adi": 1436,
      "sin": 1437,
      "kroz": 1438,
      "ovima": 1439,
      "##um": 1440,
      "lob": 1441,
      "tko": 1442,
      "bit": 1443,
      "pust": 1444,
      "klub": 1445,
      "rast": 1446,
      "sje": 1447,
      "olo": 1448,
      "jetsk": 1449,
      "stvar": 1450,
      "jako": 1451,
      "pun": 1452,
      "lobod": 1453,
      "##zb": 1454,
      "ana": 1455,
      "polit": 1456,
      "rt": 1457,
      "kin": 1458,
      "vijes": 1459,
      "račun": 1460,
      "eset": 1461,
      "joj": 1462,
      "bih": 1463,
      "rener": 1464,
      "##jev": 1465,
      "ala": 1466,
      "vor": 1467,
      "odluč": 1468,
      "svoju": 1469,
      "okaza": 1470,
      "riječ": 1471,
      "mod": 1472,
      "zap": 1473,
      "##led": 1474,
      "##ha": 1475,
      "udar": 1476,
      "čki": 1477,
      "reg": 1478,
      "ržavn": 1479,
      "rež": 1480,
      "20": 1481,
      "oč": 1482,
      "vozil": 1483,
      "inj": 1484,
      "aca": 1485,
      "roš": 1486,
      "let": 1487,
      "one": 1488,
      "ita": 1489,
      "nut": 1490,
      "jući": 1491,
      "miš": 1492,
      "##kc": 1493,
      "nice": 1494,
      "duž": 1495,
      "kol": 1496,
      "aktiv": 1497,
      "hd": 1498,
      "pozna": 1499,
      "tjeca": 1500,
      "##ben": 1501,
      "##čer": 1502,
      "tk": 1503,
      "##mor": 1504,
      "šp": 1505,
      "osvoj": 1506,
      "poput": 1507,
      "hran": 1508,
      "ide": 1509,
      "neće": 1510,
      "list": 1511,
      "ime": 1512,
      "opa": 1513,
      "puta": 1514,
      "jel": 1515,
      "drugi": 1516,
      "ostav": 1517,
      "##anc": 1518,
      "bod": 1519,
      "pada": 1520,
      "služb": 1521,
      "##ver": 1522,
      "ijest": 1523,
      "ijama": 1524,
      "njima": 1525,
      "##ert": 1526,
      "andr": 1527,
      "rijed": 1528,
      "asn": 1529,
      "glazb": 1530,
      "ativn": 1531,
      "osim": 1532,
      "iranj": 1533,
      "prven": 1534,
      "volj": 1535,
      "inanc": 1536,
      "gost": 1537,
      "vrš": 1538,
      "##der": 1539,
      "nosno": 1540,
      "tanov": 1541,
      "odluk": 1542,
      "uo": 1543,
      "car": 1544,
      "sred": 1545,
      "ničk": 1546,
      "štit": 1547,
      "živ": 1548,
      "zagr": 1549,
      "napad": 1550,
      "ej": 1551,
      "domać": 1552,
      "milan": 1553,
      "kor": 1554,
      "##nov": 1555,
      "vol": 1556,
      "komp": 1557,
      "avanj": 1558,
      "ito": 1559,
      "noj": 1560,
      "per": 1561,
      "inar": 1562,
      "straž": 1563,
      "top": 1564,
      "dar": 1565,
      "preko": 1566,
      "bac": 1567,
      "dobr": 1568,
      "takv": 1569,
      "sli": 1570,
      "cilj": 1571,
      "didat": 1572,
      "pozi": 1573,
      "real": 1574,
      "čeka": 1575,
      "ener": 1576,
      "skr": 1577,
      "zgrad": 1578,
      "##šl": 1579,
      "acija": 1580,
      "##lar": 1581,
      "tisu": 1582,
      "##ško": 1583,
      "enju": 1584,
      "dnost": 1585,
      "##nim": 1586,
      "št": 1587,
      "ubo": 1588,
      "kat": 1589,
      "ukraj": 1590,
      "pot": 1591,
      "lak": 1592,
      "njak": 1593,
      "eki": 1594,
      "mjese": 1595,
      "nac": 1596,
      "##gl": 1597,
      "eri": 1598,
      "stavn": 1599,
      "piše": 1600,
      "tkri": 1601,
      "isti": 1602,
      "zajed": 1603,
      "eta": 1604,
      "voj": 1605,
      "##nji": 1606,
      "biv": 1607,
      "kuć": 1608,
      "iza": 1609,
      "ćen": 1610,
      "nova": 1611,
      "irati": 1612,
      "poruč": 1613,
      "pad": 1614,
      "##pnj": 1615,
      "stan": 1616,
      "pjes": 1617,
      "hdz": 1618,
      "##oba": 1619,
      "gled": 1620,
      "anje": 1621,
      "hod": 1622,
      "ter": 1623,
      "jelo": 1624,
      "vas": 1625,
      "plat": 1626,
      "sjet": 1627,
      "misl": 1628,
      "nc": 1629,
      "baš": 1630,
      "sc": 1631,
      "vode": 1632,
      "inu": 1633,
      "##nir": 1634,
      "ate": 1635,
      "mije": 1636,
      "15": 1637,
      "jte": 1638,
      "ože": 1639,
      "th": 1640,
      "žen": 1641,
      "dra": 1642,
      "ubrov": 1643,
      "tvrtk": 1644,
      "mjetn": 1645,
      "zakon": 1646,
      "##met": 1647,
      "mišlj": 1648,
      "eb": 1649,
      "vaš": 1650,
      "okol": 1651,
      "narod": 1652,
      "nij": 1653,
      "jeli": 1654,
      "imao": 1655,
      "zad": 1656,
      "mlad": 1657,
      "kojeg": 1658,
      "vrh": 1659,
      "stati": 1660,
      "ički": 1661,
      "varaž": 1662,
      "##čit": 1663,
      "novo": 1664,
      "pak": 1665,
      "anja": 1666,
      "dugo": 1667,
      "jesta": 1668,
      "udjel": 1669,
      "gen": 1670,
      "šest": 1671,
      "brojn": 1672,
      "vlad": 1673,
      "hval": 1674,
      "##ted": 1675,
      "uli": 1676,
      "##stv": 1677,
      "##pe": 1678,
      "prvak": 1679,
      "doda": 1680,
      "ected": 1681,
      "cu": 1682,
      "var": 1683,
      "tisuć": 1684,
      "##vol": 1685,
      "orm": 1686,
      "čko": 1687,
      "sud": 1688,
      "jas": 1689,
      "sebno": 1690,
      "raf": 1691,
      "teh": 1692,
      "##ol": 1693,
      "int": 1694,
      "energ": 1695,
      "laga": 1696,
      "svim": 1697,
      "30": 1698,
      "dovol": 1699,
      "osoba": 1700,
      "ultur": 1701,
      "tvari": 1702,
      "klo": 1703,
      "ravno": 1704,
      "eo": 1705,
      "jvi": 1706,
      "komen": 1707,
      "mobil": 1708,
      "traž": 1709,
      "cest": 1710,
      "glu": 1711,
      "staje": 1712,
      "gađa": 1713,
      "uh": 1714,
      "nep": 1715,
      "obran": 1716,
      "rijek": 1717,
      "učin": 1718,
      "12": 1719,
      "jese": 1720,
      "razin": 1721,
      "##lat": 1722,
      "mogao": 1723,
      "avaju": 1724,
      "##ću": 1725,
      "##tno": 1726,
      "voza": 1727,
      "##kuj": 1728,
      "še": 1729,
      "mijer": 1730,
      "##ct": 1731,
      "arn": 1732,
      "ević": 1733,
      "svih": 1734,
      "jesec": 1735,
      "trebn": 1736,
      "najav": 1737,
      "rtn": 1738,
      "imati": 1739,
      "glav": 1740,
      "cent": 1741,
      "ez": 1742,
      "tada": 1743,
      "buduć": 1744,
      "šir": 1745,
      "icama": 1746,
      "ha": 1747,
      "jever": 1748,
      "veden": 1749,
      "bran": 1750,
      "sreć": 1751,
      "vatr": 1752,
      "avi": 1753,
      "ea": 1754,
      "eli": 1755,
      "kraju": 1756,
      "lož": 1757,
      "oru": 1758,
      "njega": 1759,
      "prošl": 1760,
      "metar": 1761,
      "pal": 1762,
      "##gov": 1763,
      "ništ": 1764,
      "teško": 1765,
      "toč": 1766,
      "inamo": 1767,
      "sport": 1768,
      "bar": 1769,
      "rus": 1770,
      "eba": 1771,
      "lanov": 1772,
      "radio": 1773,
      "af": 1774,
      "rijav": 1775,
      "oto": 1776,
      "##enk": 1777,
      "ogled": 1778,
      "ard": 1779,
      "azi": 1780,
      "ormac": 1781,
      "##rem": 1782,
      "ovog": 1783,
      "smanj": 1784,
      "visok": 1785,
      "pomen": 1786,
      "tež": 1787,
      "oku": 1788,
      "už": 1789,
      "srb": 1790,
      "usret": 1791,
      "večer": 1792,
      "kval": 1793,
      "plan": 1794,
      "isto": 1795,
      "kazao": 1796,
      "kupin": 1797,
      "lijed": 1798,
      "ovje": 1799,
      "alno": 1800,
      "bude": 1801,
      "voljn": 1802,
      "nikad": 1803,
      "otreb": 1804,
      "rafij": 1805,
      "mal": 1806,
      "radn": 1807,
      "jveć": 1808,
      "gre": 1809,
      "vojn": 1810,
      "član": 1811,
      "čekuj": 1812,
      "eći": 1813,
      "iljež": 1814,
      "ovom": 1815,
      "##kor": 1816,
      "ijen": 1817,
      "vel": 1818,
      "gosp": 1819,
      "des": 1820,
      "razn": 1821,
      "nio": 1822,
      "obav": 1823,
      "rusk": 1824,
      "stvu": 1825,
      "išta": 1826,
      "bav": 1827,
      "knji": 1828,
      "ujući": 1829,
      "čan": 1830,
      "and": 1831,
      "ivota": 1832,
      "borb": 1833,
      "neka": 1834,
      "ure": 1835,
      "##ćin": 1836,
      "ike": 1837,
      "nap": 1838,
      "ostal": 1839,
      "znač": 1840,
      "demo": 1841,
      "bject": 1842,
      "ben": 1843,
      "eš": 1844,
      "##kuš": 1845,
      "tručn": 1846,
      "luk": 1847,
      "iskus": 1848,
      "ravi": 1849,
      "ale": 1850,
      "##nij": 1851,
      "kap": 1852,
      "voren": 1853,
      "pjesm": 1854,
      "uj": 1855,
      "plenk": 1856,
      "izjav": 1857,
      "dalj": 1858,
      "elnik": 1859,
      "trank": 1860,
      "jela": 1861,
      "eme": 1862,
      "ovjek": 1863,
      "glum": 1864,
      "pita": 1865,
      "##raz": 1866,
      "ena": 1867,
      "pokuš": 1868,
      "rješ": 1869,
      "##tan": 1870,
      "oma": 1871,
      "raž": 1872,
      "usk": 1873,
      "prof": 1874,
      "##šao": 1875,
      "šte": 1876,
      "pozor": 1877,
      "uprug": 1878,
      "##gub": 1879,
      "aju": 1880,
      "ću": 1881,
      "surad": 1882,
      "nt": 1883,
      "vik": 1884,
      "tvrd": 1885,
      "islim": 1886,
      "loš": 1887,
      "mas": 1888,
      "ban": 1889,
      "sum": 1890,
      "rtner": 1891,
      "fran": 1892,
      "##ska": 1893,
      "jan": 1894,
      "druga": 1895,
      "obi": 1896,
      "ačk": 1897,
      "ništa": 1898,
      "vezan": 1899,
      "karij": 1900,
      "zadnj": 1901,
      "van": 1902,
      "mnogi": 1903,
      "gal": 1904,
      "vu": 1905,
      "##jedn": 1906,
      "tjedn": 1907,
      "gru": 1908,
      "##op": 1909,
      "polu": 1910,
      "zor": 1911,
      "svom": 1912,
      "elekt": 1913,
      "lik": 1914,
      "oda": 1915,
      "nuo": 1916,
      "znam": 1917,
      "tuden": 1918,
      "##ža": 1919,
      "gro": 1920,
      "trag": 1921,
      "maj": 1922,
      "ip": 1923,
      "ču": 1924,
      "neke": 1925,
      "nove": 1926,
      "stupa": 1927,
      "##kac": 1928,
      "##žu": 1929,
      "liku": 1930,
      "ortsk": 1931,
      "izgub": 1932,
      "ansk": 1933,
      "koš": 1934,
      "ajte": 1935,
      "ičn": 1936,
      "vlasn": 1937,
      "jut": 1938,
      "##ch": 1939,
      "enz": 1940,
      "##rom": 1941,
      "treć": 1942,
      "dobio": 1943,
      "sumnj": 1944,
      "end": 1945,
      "asnij": 1946,
      "stala": 1947,
      "dub": 1948,
      "sebe": 1949,
      "ozi": 1950,
      "gospo": 1951,
      "poruk": 1952,
      "veo": 1953,
      "slov": 1954,
      "daj": 1955,
      "laz": 1956,
      "vijač": 1957,
      "fotog": 1958,
      "ator": 1959,
      "sla": 1960,
      "##rek": 1961,
      "vrat": 1962,
      "liječ": 1963,
      "ebačk": 1964,
      "##lji": 1965,
      "##ćn": 1966,
      "liti": 1967,
      "posla": 1968,
      "aciju": 1969,
      "pojav": 1970,
      "često": 1971,
      "akn": 1972,
      "stat": 1973,
      "pli": 1974,
      "okaln": 1975,
      "##mah": 1976,
      "str": 1977,
      "rin": 1978,
      "talij": 1979,
      "brzo": 1980,
      "emelj": 1981,
      "hva": 1982,
      "ze": 1983,
      "ičar": 1984,
      "dne": 1985,
      "11": 1986,
      "nima": 1987,
      "the": 1988,
      "ublik": 1989,
      "vlast": 1990,
      "ionic": 1991,
      "pone": 1992,
      "tog": 1993,
      "roda": 1994,
      "gađaj": 1995,
      "pub": 1996,
      "štet": 1997,
      "vjed": 1998,
      "većin": 1999,
      "uto": 2000,
      "mladi": 2001,
      "jviše": 2002,
      "ipa": 2003,
      "laze": 2004,
      "srbij": 2005,
      "dvo": 2006,
      "rošle": 2007,
      "ijom": 2008,
      "vlada": 2009,
      "stanj": 2010,
      "mage": 2011,
      "polj": 2012,
      "otkr": 2013,
      "##kiv": 2014,
      "kraja": 2015,
      "##kov": 2016,
      "olnic": 2017,
      "dava": 2018,
      "odnos": 2019,
      "bijed": 2020,
      "čekiv": 2021,
      "nisam": 2022,
      "jede": 2023,
      "ex": 2024,
      "tešk": 2025,
      "fer": 2026,
      "zrak": 2027,
      "svog": 2028,
      "##tic": 2029,
      "otvr": 2030,
      "##vno": 2031,
      "spe": 2032,
      "##ub": 2033,
      "važn": 2034,
      "otvrd": 2035,
      "mate": 2036,
      "imali": 2037,
      "ići": 2038,
      "optu": 2039,
      "sd": 2040,
      "orisn": 2041,
      "stao": 2042,
      "name": 2043,
      "evo": 2044,
      "niz": 2045,
      "aznen": 2046,
      "mogli": 2047,
      "ogu": 2048,
      "ostup": 2049,
      "ijan": 2050,
      "utje": 2051,
      "smrt": 2052,
      "res": 2053,
      "gradu": 2054,
      "pov": 2055,
      "uš": 2056,
      "okr": 2057,
      "trump": 2058,
      "mož": 2059,
      "dodao": 2060,
      "dvoj": 2061,
      "prat": 2062,
      "jeća": 2063,
      "cat": 2064,
      "rem": 2065,
      "icom": 2066,
      "spješ": 2067,
      "##jom": 2068,
      "irao": 2069,
      "##iz": 2070,
      "zlo": 2071,
      "nul": 2072,
      "aza": 2073,
      "clas": 2074,
      "imen": 2075,
      "okup": 2076,
      "ožete": 2077,
      "ose": 2078,
      "djece": 2079,
      "ulic": 2080,
      "stoje": 2081,
      "sh": 2082,
      "direk": 2083,
      "počel": 2084,
      "std": 2085,
      "ell": 2086,
      "mos": 2087,
      "nosu": 2088,
      "class": 2089,
      "čij": 2090,
      "laza": 2091,
      "uvjet": 2092,
      "akav": 2093,
      "ponu": 2094,
      "pokr": 2095,
      "jub": 2096,
      "trans": 2097,
      "ment": 2098,
      "doga": 2099,
      "jubav": 2100,
      "##mu": 2101,
      "možda": 2102,
      "anjo": 2103,
      "slovn": 2104,
      "aust": 2105,
      "otvor": 2106,
      "novno": 2107,
      "mješt": 2108,
      "omoć": 2109,
      "ie": 2110,
      "ajn": 2111,
      "ranij": 2112,
      "ncert": 2113,
      "##vet": 2114,
      "bolje": 2115,
      "oveća": 2116,
      "naše": 2117,
      "odršk": 2118,
      "arl": 2119,
      "ipak": 2120,
      "zan": 2121,
      "imp": 2122,
      "jeva": 2123,
      "franc": 2124,
      "ponud": 2125,
      "rži": 2126,
      "serij": 2127,
      "icima": 2128,
      "enu": 2129,
      "genc": 2130,
      "ijaln": 2131,
      "rusij": 2132,
      "18": 2133,
      "##leg": 2134,
      "avjet": 2135,
      "oper": 2136,
      "trgov": 2137,
      "dom": 2138,
      "lazak": 2139,
      "##sa": 2140,
      "odi": 2141,
      "redi": 2142,
      "ang": 2143,
      "odmah": 2144,
      "50": 2145,
      "oje": 2146,
      "rol": 2147,
      "mil": 2148,
      "ty": 2149,
      "nes": 2150,
      "ian": 2151,
      "pozic": 2152,
      "utjec": 2153,
      "aknu": 2154,
      "ef": 2155,
      "priča": 2156,
      "plas": 2157,
      "imir": 2158,
      "ib": 2159,
      "##zd": 2160,
      "tira": 2161,
      "hn": 2162,
      "svaki": 2163,
      "znak": 2164,
      "ista": 2165,
      "pisa": 2166,
      "htjev": 2167,
      "inama": 2168,
      "znan": 2169,
      "bira": 2170,
      "temp": 2171,
      "ulj": 2172,
      "ovati": 2173,
      "snim": 2174,
      "ratur": 2175,
      "tvarn": 2176,
      "ijek": 2177,
      "kolo": 2178,
      "scen": 2179,
      "ravil": 2180,
      "kretn": 2181,
      "amb": 2182,
      "bil": 2183,
      "estiv": 2184,
      "mirov": 2185,
      "stv": 2186,
      "##vin": 2187,
      "ivn": 2188,
      "ero": 2189,
      "dogod": 2190,
      "so": 2191,
      "ša": 2192,
      "osobn": 2193,
      "ković": 2194,
      "inst": 2195,
      "ozbil": 2196,
      "for": 2197,
      "litik": 2198,
      "hit": 2199,
      "aša": 2200,
      "niti": 2201,
      "utku": 2202,
      "stigl": 2203,
      "pisao": 2204,
      "bla": 2205,
      "sob": 2206,
      "klon": 2207,
      "ten": 2208,
      "etalj": 2209,
      "bivš": 2210,
      "imamo": 2211,
      "##ime": 2212,
      "pokaz": 2213,
      "osobe": 2214,
      "ved": 2215,
      "azov": 2216,
      "13": 2217,
      "ulog": 2218,
      "uper": 2219,
      "plaća": 2220,
      "rodn": 2221,
      "daje": 2222,
      "ara": 2223,
      "ema": 2224,
      "ion": 2225,
      "boj": 2226,
      "naime": 2227,
      "reći": 2228,
      "bud": 2229,
      "zrael": 2230,
      "ukr": 2231,
      "učen": 2232,
      "ay": 2233,
      "nedo": 2234,
      "oga": 2235,
      "onač": 2236,
      "opasn": 2237,
      "##tom": 2238,
      "lanir": 2239,
      "vra": 2240,
      "kamp": 2241,
      "val": 2242,
      "boga": 2243,
      "ekip": 2244,
      "viđ": 2245,
      "dug": 2246,
      "ašnj": 2247,
      "aknuo": 2248,
      "stupn": 2249,
      "zirom": 2250,
      "centr": 2251,
      "zb": 2252,
      "vjetn": 2253,
      "evi": 2254,
      "aut": 2255,
      "eva": 2256,
      "rati": 2257,
      "posao": 2258,
      "nutar": 2259,
      "zo": 2260,
      "ovrat": 2261,
      "radic": 2262,
      "##pt": 2263,
      "padn": 2264,
      "ogr": 2265,
      "park": 2266,
      "##ik": 2267,
      "oslen": 2268,
      "fun": 2269,
      "kva": 2270,
      "sel": 2271,
      "injen": 2272,
      "vin": 2273,
      "omoći": 2274,
      "uda": 2275,
      "ljanj": 2276,
      "tkril": 2277,
      "kojim": 2278,
      "stali": 2279,
      "ište": 2280,
      "mogla": 2281,
      "ličit": 2282,
      "jaš": 2283,
      "prava": 2284,
      "optuž": 2285,
      "vrt": 2286,
      "iznos": 2287,
      "17": 2288,
      "zl": 2289,
      "jes": 2290,
      "har": 2291,
      "##ck": 2292,
      "nijel": 2293,
      "zanim": 2294,
      "##dam": 2295,
      "tamo": 2296,
      "blag": 2297,
      "rat": 2298,
      "znači": 2299,
      "sja": 2300,
      "iste": 2301,
      "čega": 2302,
      "dnevn": 2303,
      "pravn": 2304,
      "##ment": 2305,
      "tvrđ": 2306,
      "rada": 2307,
      "vrhu": 2308,
      "poraz": 2309,
      "šao": 2310,
      "alias": 2311,
      "ete": 2312,
      "mad": 2313,
      "erv": 2314,
      "encij": 2315,
      "##ton": 2316,
      "##les": 2317,
      "kluba": 2318,
      "bliz": 2319,
      "nd": 2320,
      "jedeć": 2321,
      "ržišt": 2322,
      "era": 2323,
      "she": 2324,
      "izvan": 2325,
      "14": 2326,
      "oran": 2327,
      "zašto": 2328,
      "petak": 2329,
      "sata": 2330,
      "igrao": 2331,
      "brod": 2332,
      "petr": 2333,
      "##lam": 2334,
      "ljučn": 2335,
      "kop": 2336,
      "sljed": 2337,
      "##rok": 2338,
      "tempe": 2339,
      "inac": 2340,
      "ovu": 2341,
      "vojoj": 2342,
      "caron": 2343,
      "cr": 2344,
      "tarij": 2345,
      "čić": 2346,
      "zato": 2347,
      "pros": 2348,
      "publi": 2349,
      "anjol": 2350,
      "shed": 2351,
      "like": 2352,
      "ovn": 2353,
      "##ces": 2354,
      "vozač": 2355,
      "ruš": 2356,
      "19": 2357,
      "16": 2358,
      "uzi": 2359,
      "sdp": 2360,
      "loven": 2361,
      "tin": 2362,
      "andat": 2363,
      "son": 2364,
      "rade": 2365,
      "moj": 2366,
      "##psk": 2367,
      "dati": 2368,
      "roces": 2369,
      "savez": 2370,
      "tres": 2371,
      "zva": 2372,
      "dala": 2373,
      "arlam": 2374,
      "troš": 2375,
      "mak": 2376,
      "komun": 2377,
      "netko": 2378,
      "pular": 2379,
      "kilo": 2380,
      "tpu": 2381,
      "ogas": 2382,
      "jug": 2383,
      "luka": 2384,
      "adran": 2385,
      "bodov": 2386,
      "tpuno": 2387,
      "25": 2388,
      "rata": 2389,
      "vesti": 2390,
      "čn": 2391,
      "time": 2392,
      "osam": 2393,
      "davno": 2394,
      "bogat": 2395,
      "ital": 2396,
      "pol": 2397,
      "imala": 2398,
      "erenc": 2399,
      "##sip": 2400,
      "kakv": 2401,
      "tih": 2402,
      "opet": 2403,
      "tičk": 2404,
      "ark": 2405,
      "čke": 2406,
      "##jeh": 2407,
      "sedam": 2408,
      "spjeh": 2409,
      "ivši": 2410,
      "funkc": 2411,
      "šiben": 2412,
      "ajin": 2413,
      "josip": 2414,
      "uci": 2415,
      "vrst": 2416,
      "ey": 2417,
      "##tim": 2418,
      "cima": 2419,
      "rtv": 2420,
      "ured": 2421,
      "svega": 2422,
      "ikac": 2423,
      "ill": 2424,
      "##lov": 2425,
      "boles": 2426,
      "jiv": 2427,
      "sijek": 2428,
      "nijet": 2429,
      "atelj": 2430,
      "dao": 2431,
      "riop": 2432,
      "bož": 2433,
      "ton": 2434,
      "venim": 2435,
      "uređ": 2436,
      "riopć": 2437,
      "ubotu": 2438,
      "prvom": 2439,
      "dajte": 2440,
      "nicu": 2441,
      "ovih": 2442,
      "redov": 2443,
      "akc": 2444,
      "##dic": 2445,
      "premn": 2446,
      "akle": 2447,
      "uvjer": 2448,
      "mene": 2449,
      "tion": 2450,
      "njim": 2451,
      "ređen": 2452,
      "ovdje": 2453,
      "izvor": 2454,
      "zabav": 2455,
      "mr": 2456,
      "iznen": 2457,
      "lasti": 2458,
      "vatn": 2459,
      "kazn": 2460,
      "##min": 2461,
      "sadr": 2462,
      "čel": 2463,
      "jutro": 2464,
      "eka": 2465,
      "bile": 2466,
      "ušt": 2467,
      "lipnj": 2468,
      "koleg": 2469,
      "ijete": 2470,
      "ber": 2471,
      "jatno": 2472,
      "utova": 2473,
      "znanj": 2474,
      "etn": 2475,
      "ovjer": 2476,
      "doblj": 2477,
      "šli": 2478,
      "stru": 2479,
      "njen": 2480,
      "kid": 2481,
      "korak": 2482,
      "želi": 2483,
      "##sad": 2484,
      "grama": 2485,
      "zljed": 2486,
      "dodat": 2487,
      "repub": 2488,
      "logij": 2489,
      "vši": 2490,
      "rah": 2491,
      "rođen": 2492,
      "borav": 2493,
      "orij": 2494,
      "##ud": 2495,
      "lika": 2496,
      "vlač": 2497,
      "bjeg": 2498,
      "novac": 2499,
      "topl": 2500,
      "ps": 2501,
      "utno": 2502,
      "##lož": 2503,
      "ćete": 2504,
      "group": 2505,
      "rof": 2506,
      "djevo": 2507,
      "vojih": 2508,
      "lav": 2509,
      "tur": 2510,
      "glasa": 2511,
      "kola": 2512,
      "metaš": 2513,
      "grup": 2514,
      "nikol": 2515,
      "ijent": 2516,
      "slab": 2517,
      "ument": 2518,
      "glaš": 2519,
      "urnir": 2520,
      "romet": 2521,
      "lov": 2522,
      "druž": 2523,
      "deset": 2524,
      "jeru": 2525,
      "išl": 2526,
      "osebn": 2527,
      "uži": 2528,
      "##odn": 2529,
      "kriv": 2530,
      "uzima": 2531,
      "neza": 2532,
      "ane": 2533,
      "ozna": 2534,
      "pute": 2535,
      "##sko": 2536,
      "eč": 2537,
      "sije": 2538,
      "tip": 2539,
      "zapo": 2540,
      "skoro": 2541,
      "iši": 2542,
      "ljep": 2543,
      "dosad": 2544,
      "ijeva": 2545,
      "sjeća": 2546,
      "ome": 2547,
      "vaja": 2548,
      "traja": 2549,
      "type": 2550,
      "datak": 2551,
      "islav": 2552,
      "slije": 2553,
      "jeruj": 2554,
      "tigao": 2555,
      "ah": 2556,
      "order": 2557,
      "##đe": 2558,
      "eksp": 2559,
      "ident": 2560,
      "lakš": 2561,
      "rok": 2562,
      "almac": 2563,
      "##rez": 2564,
      "duše": 2565,
      "rednj": 2566,
      "ijezd": 2567,
      "rađ": 2568,
      "vjero": 2569,
      "autor": 2570,
      "lako": 2571,
      "rujn": 2572,
      "gub": 2573,
      "okus": 2574,
      "jašnj": 2575,
      "ovoj": 2576,
      "antn": 2577,
      "valu": 2578,
      "##ste": 2579,
      "nor": 2580,
      "cel": 2581,
      "tijel": 2582,
      "ug": 2583,
      "tudij": 2584,
      "lopt": 2585,
      "graf": 2586,
      "##živ": 2587,
      "otenc": 2588,
      "raća": 2589,
      "ešk": 2590,
      "ozlij": 2591,
      "ivana": 2592,
      "dinam": 2593,
      "gener": 2594,
      "gar": 2595,
      "ištu": 2596,
      "anjsk": 2597,
      "snag": 2598,
      "hol": 2599,
      "value": 2600,
      "##kl": 2601,
      "uživa": 2602,
      "povr": 2603,
      "muš": 2604,
      "ritan": 2605,
      "čini": 2606,
      "astav": 2607,
      "događ": 2608,
      "pošt": 2609,
      "jam": 2610,
      "vjet": 2611,
      "hi": 2612,
      "##teg": 2613,
      "40": 2614,
      "kiš": 2615,
      "pjeva": 2616,
      "kog": 2617,
      "##end": 2618,
      "slova": 2619,
      "mark": 2620,
      "pogod": 2621,
      "etku": 2622,
      "istin": 2623,
      "potom": 2624,
      "rodaj": 2625,
      "he": 2626,
      "kateg": 2627,
      "rist": 2628,
      "uktur": 2629,
      "žena": 2630,
      "post": 2631,
      "seks": 2632,
      "prič": 2633,
      "ijih": 2634,
      "nače": 2635,
      "sklad": 2636,
      "oruž": 2637,
      "aja": 2638,
      "ući": 2639,
      "##tal": 2640,
      "austr": 2641,
      "vib": 2642,
      "spred": 2643,
      "jasno": 2644,
      "dosta": 2645,
      "mater": 2646,
      "oguće": 2647,
      "nter": 2648,
      "vjež": 2649,
      "manj": 2650,
      "##20": 2651,
      "elen": 2652,
      "ojatn": 2653,
      "ozem": 2654,
      "24": 2655,
      "uca": 2656,
      "rend": 2657,
      "sno": 2658,
      "djecu": 2659,
      "prve": 2660,
      "sami": 2661,
      "uslu": 2662,
      "njoj": 2663,
      "koj": 2664,
      "nč": 2665,
      "rsk": 2666,
      "##roš": 2667,
      "abil": 2668,
      "veli": 2669,
      "##isa": 2670,
      "azva": 2671,
      "tnj": 2672,
      "vijeć": 2673,
      "ivati": 2674,
      "mnogo": 2675,
      "lošk": 2676,
      "smije": 2677,
      "ništv": 2678,
      "muška": 2679,
      "itn": 2680,
      "kovi": 2681,
      "bis": 2682,
      "elj": 2683,
      "lig": 2684,
      "otroš": 2685,
      "nismo": 2686,
      "rid": 2687,
      "razov": 2688,
      "troj": 2689,
      "oramo": 2690,
      "ektor": 2691,
      "torak": 2692,
      "##uz": 2693,
      "thodn": 2694,
      "putem": 2695,
      "oji": 2696,
      "##čad": 2697,
      "estr": 2698,
      "ene": 2699,
      "došao": 2700,
      "sadrž": 2701,
      "omčad": 2702,
      "uslug": 2703,
      "noć": 2704,
      "off": 2705,
      "pušta": 2706,
      "moglo": 2707,
      "##_2": 2708,
      "vođa": 2709,
      "srpnj": 2710,
      "##enu": 2711,
      "obr": 2712,
      "anic": 2713,
      "sat": 2714,
      "ljan": 2715,
      "fr": 2716,
      "rea": 2717,
      "mag": 2718,
      "uć": 2719,
      "co": 2720,
      "che": 2721,
      "tekl": 2722,
      "naći": 2723,
      "kok": 2724,
      "leks": 2725,
      "plav": 2726,
      "olog": 2727,
      "ionir": 2728,
      "ispit": 2729,
      "mlađ": 2730,
      "vjedo": 2731,
      "crn": 2732,
      "kojih": 2733,
      "kuša": 2734,
      "ujuć": 2735,
      "tehno": 2736,
      "oman": 2737,
      "model": 2738,
      "ord": 2739,
      "nekad": 2740,
      "ulaz": 2741,
      "lad": 2742,
      "marko": 2743,
      "def": 2744,
      "stiče": 2745,
      "atn": 2746,
      "edi": 2747,
      "rasta": 2748,
      "drag": 2749,
      "oziva": 2750,
      "ažnj": 2751,
      "##lop": 2752,
      "##gle": 2753,
      "nato": 2754,
      "drugo": 2755,
      "dig": 2756,
      "ekt": 2757,
      "ivotu": 2758,
      "snovn": 2759,
      "sklop": 2760,
      "rig": 2761,
      "stavk": 2762,
      "snaž": 2763,
      "vuk": 2764,
      "doći": 2765,
      "nimk": 2766,
      "inc": 2767,
      "rim": 2768,
      "dobil": 2769,
      "svjet": 2770,
      "regij": 2771,
      "titi": 2772,
      "nose": 2773,
      "krv": 2774,
      "zitiv": 2775,
      "daju": 2776,
      "dobar": 2777,
      "rasl": 2778,
      "##jas": 2779,
      "djela": 2780,
      "stoj": 2781,
      "rvu": 2782,
      "##lip": 2783,
      "diz": 2784,
      "skrb": 2785,
      "21": 2786,
      "osje": 2787,
      "obnov": 2788,
      "vica": 2789,
      "cjen": 2790,
      "rvoj": 2791,
      "atr": 2792,
      "##mal": 2793,
      "ravnj": 2794,
      "idej": 2795,
      "ovim": 2796,
      "trud": 2797,
      "spec": 2798,
      "##orn": 2799,
      "čemu": 2800,
      "venc": 2801,
      "mjene": 2802,
      "onačn": 2803,
      "entar": 2804,
      "knjig": 2805,
      "ncu": 2806,
      "rh": 2807,
      "artin": 2808,
      "esn": 2809,
      "konz": 2810,
      "ato": 2811,
      "ored": 2812,
      "rkv": 2813,
      "##kob": 2814,
      "devet": 2815,
      "konf": 2816,
      "vibnj": 2817,
      "krug": 2818,
      "dolar": 2819,
      "takt": 2820,
      "ler": 2821,
      "likom": 2822,
      "svima": 2823,
      "brak": 2824,
      "kna": 2825,
      "##es": 2826,
      "ruk": 2827,
      "bjed": 2828,
      "neu": 2829,
      "fra": 2830,
      "hlad": 2831,
      "ph": 2832,
      "##\",": 2833,
      "ron": 2834,
      "konc": 2835,
      "oraju": 2836,
      "plitu": 2837,
      "tiče": 2838,
      "##eb": 2839,
      "rel": 2840,
      "sebi": 2841,
      "šić": 2842,
      "sil": 2843,
      "desn": 2844,
      "riješ": 2845,
      "čkoj": 2846,
      "šan": 2847,
      "ank": 2848,
      "abr": 2849,
      "\"\",": 2850,
      "net": 2851,
      "doživ": 2852,
      "##kur": 2853,
      "bin": 2854,
      "dbor": 2855,
      "eđen": 2856,
      "psi": 2857,
      "zlat": 2858,
      "ijski": 2859,
      "gan": 2860,
      "iskor": 2861,
      "uzrok": 2862,
      "prvog": 2863,
      "gl": 2864,
      "olje": 2865,
      "etkom": 2866,
      "ičko": 2867,
      "biva": 2868,
      "bija": 2869,
      "##zir": 2870,
      "išt": 2871,
      "aks": 2872,
      "zrač": 2873,
      "arin": 2874,
      "moći": 2875,
      "sjajn": 2876,
      "rijet": 2877,
      "emis": 2878,
      "dječ": 2879,
      "jezi": 2880,
      "ozorn": 2881,
      "noge": 2882,
      "novog": 2883,
      "medic": 2884,
      "##dus": 2885,
      "lijep": 2886,
      "zoran": 2887,
      "dal": 2888,
      "rov": 2889,
      "poče": 2890,
      "uči": 2891,
      "tkrio": 2892,
      "zas": 2893,
      "opće": 2894,
      "vršen": 2895,
      "loga": 2896,
      "ičin": 2897,
      "iraju": 2898,
      "ušten": 2899,
      "jud": 2900,
      "ort": 2901,
      "jevač": 2902,
      "dušev": 2903,
      "smjer": 2904,
      "dlog": 2905,
      "zim": 2906,
      "lijev": 2907,
      "vrata": 2908,
      "ris": 2909,
      "urg": 2910,
      "čita": 2911,
      "new": 2912,
      "fizi": 2913,
      "tuž": 2914,
      "lež": 2915,
      "bjedu": 2916,
      "sukob": 2917,
      "crven": 2918,
      "\":": 2919,
      "ljude": 2920,
      "knad": 2921,
      "želj": 2922,
      "onaša": 2923,
      "išić": 2924,
      "laska": 2925,
      "ner": 2926,
      "siječ": 2927,
      "tal": 2928,
      "njemu": 2929,
      "odli": 2930,
      "insta": 2931,
      "tis": 2932,
      "igi": 2933,
      "kupno": 2934,
      "otin": 2935,
      "nama": 2936,
      "##isl": 2937,
      "snage": 2938,
      "\":\"": 2939,
      "eku": 2940,
      "oslav": 2941,
      "kić": 2942,
      "držan": 2943,
      "ravna": 2944,
      "sretn": 2945,
      "jezik": 2946,
      "nepo": 2947,
      "riz": 2948,
      "ity": 2949,
      "alost": 2950,
      "dis": 2951,
      "toj": 2952,
      "obvez": 2953,
      "oć": 2954,
      "##lja": 2955,
      "laž": 2956,
      "soc": 2957,
      "##mov": 2958,
      "očet": 2959,
      "vođ": 2960,
      "dija": 2961,
      "besp": 2962,
      "redst": 2963,
      "ata": 2964,
      "esi": 2965,
      "posob": 2966,
      "novih": 2967,
      "jećaj": 2968,
      "zatim": 2969,
      "bijel": 2970,
      "evin": 2971,
      "komb": 2972,
      "teren": 2973,
      "obzir": 2974,
      "akter": 2975,
      "alb": 2976,
      "trij": 2977,
      "all": 2978,
      "išao": 2979,
      "kcij": 2980,
      "ljet": 2981,
      "minal": 2982,
      "vlade": 2983,
      "hotel": 2984,
      "tenis": 2985,
      "domov": 2986,
      "uboj": 2987,
      "alent": 2988,
      "oži": 2989,
      "unij": 2990,
      "dinsk": 2991,
      "pogo": 2992,
      "doz": 2993,
      "ovakv": 2994,
      "privr": 2995,
      "bliž": 2996,
      "judsk": 2997,
      "##ss": 2998,
      "##id": 2999,
      "objas": 3000,
      "vela": 3001,
      "esel": 3002,
      "hor": 3003,
      "ovao": 3004,
      "kuha": 3005,
      "koga": 3006,
      "ratko": 3007,
      "općin": 3008,
      "sho": 3009,
      "tvo": 3010,
      "##kan": 3011,
      "klup": 3012,
      "60": 3013,
      "eć": 3014,
      "aket": 3015,
      "enjem": 3016,
      "rap": 3017,
      "tpor": 3018,
      "poziv": 3019,
      "vođač": 3020,
      "kal": 3021,
      "osjet": 3022,
      "ičke": 3023,
      "vedb": 3024,
      "jpg": 3025,
      "hvalj": 3026,
      "podr": 3027,
      "otpun": 3028,
      "##_27": 3029,
      "db": 3030,
      "biste": 3031,
      "ink": 3032,
      "tvrdi": 3033,
      "der": 3034,
      "doš": 3035,
      "ign": 3036,
      "filip": 3037,
      "utin": 3038,
      "glasn": 3039,
      "učil": 3040,
      "sprem": 3041,
      "otok": 3042,
      "jč": 3043,
      "klad": 3044,
      "uri": 3045,
      "udrug": 3046,
      "došlo": 3047,
      "stiž": 3048,
      "adion": 3049,
      "lask": 3050,
      "alij": 3051,
      "marin": 3052,
      "pravi": 3053,
      "sličn": 3054,
      "svet": 3055,
      "amben": 3056,
      "nitko": 3057,
      "novu": 3058,
      "linij": 3059,
      "mča": 3060,
      "mčadi": 3061,
      "sabor": 3062,
      "mon": 3063,
      "žele": 3064,
      "zel": 3065,
      "etan": 3066,
      "##šaj": 3067,
      "ispod": 3068,
      "bivši": 3069,
      "bank": 3070,
      "ađ": 3071,
      "avor": 3072,
      "kažu": 3073,
      "lige": 3074,
      "kršaj": 3075,
      "zvao": 3076,
      "počeo": 3077,
      "han": 3078,
      "srpsk": 3079,
      "22": 3080,
      "indus": 3081,
      "ursk": 3082,
      "udac": 3083,
      "onj": 3084,
      "lici": 3085,
      "oval": 3086,
      "##kar": 3087,
      "pogle": 3088,
      "rib": 3089,
      "istr": 3090,
      "##nev": 3091,
      "ožić": 3092,
      "šok": 3093,
      "star": 3094,
      "lokac": 3095,
      "zraz": 3096,
      "100": 3097,
      "mirn": 3098,
      "bismo": 3099,
      "jest": 3100,
      "odnev": 3101,
      "natoč": 3102,
      "opor": 3103,
      "olimp": 3104,
      "ekst": 3105,
      "zabio": 3106,
      "djeca": 3107,
      "levi": 3108,
      "oblik": 3109,
      "show": 3110,
      "niž": 3111,
      "ray": 3112,
      "erz": 3113,
      "stra": 3114,
      "sut": 3115,
      "igre": 3116,
      "bjekt": 3117,
      "poljo": 3118,
      "leviz": 3119,
      "odmor": 3120,
      "erce": 3121,
      "turis": 3122,
      "zbor": 3123,
      "đen": 3124,
      "erenu": 3125,
      "java": 3126,
      "stalo": 3127,
      "onih": 3128,
      "stane": 3129,
      "aknul": 3130,
      "etimo": 3131,
      "iduć": 3132,
      "pcij": 3133,
      "##ves": 3134,
      "goj": 3135,
      "rimor": 3136,
      "cikl": 3137,
      "ituc": 3138,
      "glo": 3139,
      "nosn": 3140,
      "djet": 3141,
      "nuti": 3142,
      "platf": 3143,
      "if": 3144,
      "udi": 3145,
      "viz": 3146,
      "smisl": 3147,
      "ock": 3148,
      "zadr": 3149,
      "tv": 3150,
      "ng": 3151,
      "ver": 3152,
      "silj": 3153,
      "pravd": 3154,
      "ou": 3155,
      "eakc": 3156,
      "psih": 3157,
      "fa": 3158,
      "insp": 3159,
      "mamo": 3160,
      "nali": 3161,
      "dion": 3162,
      "renul": 3163,
      "ivot": 3164,
      "kojom": 3165,
      "onkur": 3166,
      "ajka": 3167,
      "ijelo": 3168,
      "ojača": 3169,
      "datno": 3170,
      "land": 3171,
      "čast": 3172,
      "pogi": 3173,
      "pao": 3174,
      "ečen": 3175,
      "raš": 3176,
      "prim": 3177,
      "ruža": 3178,
      "minj": 3179,
      "iven": 3180,
      "krat": 3181,
      "egend": 3182,
      "godio": 3183,
      "rekli": 3184,
      "ratn": 3185,
      "oder": 3186,
      "viš": 3187,
      "##nih": 3188,
      "uoč": 3189,
      "očetk": 3190,
      "pp": 3191,
      "##ic": 3192,
      "razum": 3193,
      "irali": 3194,
      "kul": 3195,
      "lat": 3196,
      "jedne": 3197,
      "tajn": 3198,
      "nepri": 3199,
      "ds": 3200,
      "iln": 3201,
      "ekcij": 3202,
      "tand": 3203,
      "fikac": 3204,
      "##žar": 3205,
      "ražen": 3206,
      "nčan": 3207,
      "budu": 3208,
      "ološk": 3209,
      "modr": 3210,
      "kim": 3211,
      "izam": 3212,
      "današ": 3213,
      "iječ": 3214,
      "čka": 3215,
      "ern": 3216,
      "anič": 3217,
      "vodno": 3218,
      "krit": 3219,
      "arem": 3220,
      "pava": 3221,
      "zvješ": 3222,
      "jveći": 3223,
      "ich": 3224,
      "rac": 3225,
      "priv": 3226,
      "ukl": 3227,
      "ue": 3228,
      "##80": 3229,
      "kav": 3230,
      "ojsk": 3231,
      "znaju": 3232,
      "pods": 3233,
      "por": 3234,
      "prod": 3235,
      "laže": 3236,
      "požar": 3237,
      "ročit": 3238,
      "oznat": 3239,
      "ruč": 3240,
      "abra": 3241,
      "astan": 3242,
      "spri": 3243,
      "div": 3244,
      "lesk": 3245,
      "adaš": 3246,
      "oči": 3247,
      "jez": 3248,
      "olov": 3249,
      "istič": 3250,
      "ft": 3251,
      "ham": 3252,
      "leg": 3253,
      "gres": 3254,
      "štr": 3255,
      "ano": 3256,
      "porez": 3257,
      "##riš": 3258,
      "vidi": 3259,
      "ljetn": 3260,
      "abiln": 3261,
      "amp": 3262,
      "tenj": 3263,
      "rinc": 3264,
      "baln": 3265,
      "##ski": 3266,
      "iže": 3267,
      "jk": 3268,
      "pam": 3269,
      "rilik": 3270,
      "ork": 3271,
      "ešć": 3272,
      "rak": 3273,
      "brani": 3274,
      "gon": 3275,
      "zemal": 3276,
      "iru": 3277,
      "ukov": 3278,
      "rec": 3279,
      "izik": 3280,
      "norm": 3281,
      "povez": 3282,
      "opis": 3283,
      "zvan": 3284,
      "gira": 3285,
      "pru": 3286,
      "dali": 3287,
      "izm": 3288,
      "ožu": 3289,
      "ualn": 3290,
      "mali": 3291,
      "veći": 3292,
      "ers": 3293,
      "pisal": 3294,
      "mol": 3295,
      "rirod": 3296,
      "znao": 3297,
      "etka": 3298,
      "opada": 3299,
      "pola": 3300,
      "aknut": 3301,
      "slik": 3302,
      "isa": 3303,
      "tekst": 3304,
      "ači": 3305,
      "##ine": 3306,
      "latn": 3307,
      "kupa": 3308,
      "pisan": 3309,
      "žene": 3310,
      "inja": 3311,
      "jur": 3312,
      "tječ": 3313,
      "ravn": 3314,
      "premi": 3315,
      "avez": 3316,
      "nst": 3317,
      "ref": 3318,
      "uhi": 3319,
      "ilj": 3320,
      "ćenj": 3321,
      "radil": 3322,
      "ažnij": 3323,
      "ariz": 3324,
      "indi": 3325,
      "stoja": 3326,
      "anti": 3327,
      "zon": 3328,
      "iljem": 3329,
      "odstv": 3330,
      "ekon": 3331,
      "nf": 3332,
      "uru": 3333,
      "abran": 3334,
      "ail": 3335,
      "rael": 3336,
      "renut": 3337,
      "šću": 3338,
      "omu": 3339,
      "alko": 3340,
      "dž": 3341,
      "reba": 3342,
      "tez": 3343,
      "ior": 3344,
      "edan": 3345,
      "imb": 3346,
      "najp": 3347,
      "kvali": 3348,
      "alj": 3349,
      "rab": 3350,
      "onij": 3351,
      "voje": 3352,
      "ično": 3353,
      "plov": 3354,
      "selj": 3355,
      "iden": 3356,
      "epi": 3357,
      "iel": 3358,
      "rekor": 3359,
      "duh": 3360,
      "danj": 3361,
      "nimn": 3362,
      "ktu": 3363,
      "azna": 3364,
      "sprič": 3365,
      "ktual": 3366,
      "23": 3367,
      "inira": 3368,
      "ujemo": 3369,
      "ađa": 3370,
      "oh": 3371,
      "noći": 3372,
      "iše": 3373,
      "ow": 3374,
      "omb": 3375,
      "rest": 3376,
      "lice": 3377,
      "mit": 3378,
      "abl": 3379,
      "hoće": 3380,
      "akon": 3381,
      "kolu": 3382,
      "nekim": 3383,
      "mre": 3384,
      "ond": 3385,
      "arm": 3386,
      "voda": 3387,
      "nalaz": 3388,
      "##upn": 3389,
      "duz": 3390,
      "anju": 3391,
      "akv": 3392,
      "run": 3393,
      "staju": 3394,
      "utra": 3395,
      "čist": 3396,
      "enik": 3397,
      "ere": 3398,
      "ook": 3399,
      "izma": 3400,
      "lago": 3401,
      "ljenj": 3402,
      "les": 3403,
      "ašk": 3404,
      "stol": 3405,
      "fe": 3406,
      "zapad": 3407,
      "jaci": 3408,
      "aciji": 3409,
      "reć": 3410,
      "juč": 3411,
      "mom": 3412,
      "važno": 3413,
      "rtl": 3414,
      "ratio": 3415,
      "akul": 3416,
      "svjed": 3417,
      "podsj": 3418,
      "apad": 3419,
      "atič": 3420,
      "brat": 3421,
      "dmet": 3422,
      "uput": 3423,
      "##bot": 3424,
      "ukupn": 3425,
      "zabr": 3426,
      "duzet": 3427,
      "eor": 3428,
      "voran": 3429,
      "trk": 3430,
      "ljava": 3431,
      "naša": 3432,
      "bijen": 3433,
      "eogr": 3434,
      "ater": 3435,
      "pomo": 3436,
      "tic": 3437,
      "olim": 3438,
      "dp": 3439,
      "gn": 3440,
      "etsk": 3441,
      "ež": 3442,
      "ortu": 3443,
      "posl": 3444,
      "čkog": 3445,
      "ge": 3446,
      "maju": 3447,
      "produ": 3448,
      "rediš": 3449,
      "esion": 3450,
      "zov": 3451,
      "igr": 3452,
      "uze": 3453,
      "onal": 3454,
      "proiz": 3455,
      "ajk": 3456,
      "preuz": 3457,
      "##ljiv": 3458,
      "elu": 3459,
      "rtal": 3460,
      "pas": 3461,
      "ai": 3462,
      "plać": 3463,
      "enuo": 3464,
      "eret": 3465,
      "anstv": 3466,
      "eks": 3467,
      "atiti": 3468,
      "eur": 3469,
      "dvor": 3470,
      "eter": 3471,
      "san": 3472,
      "limp": 3473,
      "26": 3474,
      "ijel": 3475,
      "aksim": 3476,
      "otiv": 3477,
      "rsn": 3478,
      "dam": 3479,
      "ših": 3480,
      "meni": 3481,
      "obič": 3482,
      "naliz": 3483,
      "noš": 3484,
      "hoda": 3485,
      "kovit": 3486,
      "uc": 3487,
      "akl": 3488,
      "vako": 3489,
      "krš": 3490,
      "ario": 3491,
      "zelen": 3492,
      "ly": 3493,
      "staln": 3494,
      "reš": 3495,
      "lič": 3496,
      "gosti": 3497,
      "deb": 3498,
      "ade": 3499,
      "bert": 3500,
      "štin": 3501,
      "regi": 3502,
      "ričn": 3503,
      "ostat": 3504,
      "tehni": 3505,
      "koriš": 3506,
      "tac": 3507,
      "trad": 3508,
      "uva": 3509,
      "podne": 3510,
      "dem": 3511,
      "ljaju": 3512,
      "ry": 3513,
      "strat": 3514,
      "olin": 3515,
      "kart": 3516,
      "struk": 3517,
      "ain": 3518,
      "ideo": 3519,
      "ktiv": 3520,
      "njom": 3521,
      "eng": 3522,
      "nič": 3523,
      "entn": 3524,
      "stale": 3525,
      "upo": 3526,
      "ikl": 3527,
      "novc": 3528,
      "ranj": 3529,
      "škar": 3530,
      "bij": 3531,
      "reza": 3532,
      "entr": 3533,
      "ostao": 3534,
      "rvo": 3535,
      "godn": 3536,
      "ića": 3537,
      "čeln": 3538,
      "port": 3539,
      "ovan": 3540,
      "otic": 3541,
      "javno": 3542,
      "matsk": 3543,
      "amet": 3544,
      "arij": 3545,
      "bus": 3546,
      "anima": 3547,
      "redu": 3548,
      "esu": 3549,
      "##40": 3550,
      "tič": 3551,
      "posve": 3552,
      "atij": 3553,
      "rvi": 3554,
      "obje": 3555,
      "aps": 3556,
      "kući": 3557,
      "kle": 3558,
      "kov": 3559,
      "suz": 3560,
      "##jun": 3561,
      "ncusk": 3562,
      "erij": 3563,
      "upa": 3564,
      "lozi": 3565,
      "pekt": 3566,
      "otpis": 3567,
      "plin": 3568,
      "aljev": 3569,
      "tpisa": 3570,
      "aleko": 3571,
      "uti": 3572,
      "oment": 3573,
      "roč": 3574,
      "rikaz": 3575,
      "kot": 3576,
      "sen": 3577,
      "inca": 3578,
      "irani": 3579,
      "javlj": 3580,
      "dić": 3581,
      "ljivo": 3582,
      "uženj": 3583,
      "pel": 3584,
      "stal": 3585,
      "odom": 3586,
      "ige": 3587,
      "kinj": 3588,
      "podu": 3589,
      "movin": 3590,
      "onos": 3591,
      "neg": 3592,
      "kata": 3593,
      "sist": 3594,
      "ipl": 3595,
      "tele": 3596,
      "hrt": 3597,
      "ocjen": 3598,
      "cem": 3599,
      "niji": 3600,
      "ino": 3601,
      "drav": 3602,
      "nazi": 3603,
      "opri": 3604,
      "ikad": 3605,
      "ept": 3606,
      "pćin": 3607,
      "lok": 3608,
      "vjesn": 3609,
      "kih": 3610,
      "aran": 3611,
      "ljuč": 3612,
      "oks": 3613,
      "ziva": 3614,
      "ljsk": 3615,
      "šeg": 3616,
      "urist": 3617,
      "šin": 3618,
      "ram": 3619,
      "uoči": 3620,
      "odlič": 3621,
      "rut": 3622,
      "tiv": 3623,
      "čiji": 3624,
      "greš": 3625,
      "fon": 3626,
      "bolji": 3627,
      "vješt": 3628,
      "otor": 3629,
      "don": 3630,
      "dokaz": 3631,
      "onta": 3632,
      "alic": 3633,
      "hnl": 3634,
      "hal": 3635,
      "iskr": 3636,
      "boda": 3637,
      "ein": 3638,
      "##bc": 3639,
      "kralj": 3640,
      "ivi": 3641,
      "itk": 3642,
      "tirao": 3643,
      "##ava": 3644,
      "anjen": 3645,
      "vir": 3646,
      "ovisn": 3647,
      "orb": 3648,
      "irala": 3649,
      "kreta": 3650,
      "seg": 3651,
      "dolaz": 3652,
      "liv": 3653,
      "muze": 3654,
      "azil": 3655,
      "osnov": 3656,
      "škarc": 3657,
      "ać": 3658,
      "spo": 3659,
      "ijev": 3660,
      "enata": 3661,
      "ruke": 3662,
      "novim": 3663,
      "jno": 3664,
      "dram": 3665,
      "omaš": 3666,
      "muzej": 3667,
      "70": 3668,
      "čet": 3669,
      "latk": 3670,
      "osta": 3671,
      "ster": 3672,
      "our": 3673,
      "poj": 3674,
      "iječi": 3675,
      "alić": 3676,
      "poseb": 3677,
      "hvać": 3678,
      "inv": 3679,
      "mjeru": 3680,
      "ins": 3681,
      "lanj": 3682,
      "moćn": 3683,
      "kazal": 3684,
      "šta": 3685,
      "jetn": 3686,
      "rag": 3687,
      "omil": 3688,
      "civ": 3689,
      "traš": 3690,
      "esor": 3691,
      "torij": 3692,
      "eru": 3693,
      "rij": 3694,
      "oglas": 3695,
      "ložen": 3696,
      "usta": 3697,
      "att": 3698,
      "med": 3699,
      "pac": 3700,
      "agn": 3701,
      "rn": 3702,
      "izlož": 3703,
      "ljeni": 3704,
      "ardi": 3705,
      "ljuje": 3706,
      "oljeć": 3707,
      "ći": 3708,
      "lijun": 3709,
      "hu": 3710,
      "okv": 3711,
      "čkih": 3712,
      "ensk": 3713,
      "ovsk": 3714,
      "teg": 3715,
      "tarnj": 3716,
      "##hi": 3717,
      "amer": 3718,
      "lazn": 3719,
      "eća": 3720,
      "iver": 3721,
      "živi": 3722,
      "tjer": 3723,
      "sječ": 3724,
      "apa": 3725,
      "šim": 3726,
      "redb": 3727,
      "počet": 3728,
      "gran": 3729,
      "ujem": 3730,
      "misij": 3731,
      "kome": 3732,
      "las": 3733,
      "##ard": 3734,
      "28": 3735,
      "đe": 3736,
      "oćn": 3737,
      "jek": 3738,
      "nav": 3739,
      "ong": 3740,
      "ind": 3741,
      "ravk": 3742,
      "kriva": 3743,
      "eci": 3744,
      "jst": 3745,
      "dor": 3746,
      "sus": 3747,
      "ruž": 3748,
      "lica": 3749,
      "adar": 3750,
      "asto": 3751,
      "bol": 3752,
      "rijel": 3753,
      "mani": 3754,
      "azala": 3755,
      "napo": 3756,
      "lud": 3757,
      "stil": 3758,
      "estit": 3759,
      "akov": 3760,
      "redn": 3761,
      "den": 3762,
      "inves": 3763,
      "und": 3764,
      "tjel": 3765,
      "arija": 3766,
      "ole": 3767,
      "upnj": 3768,
      "jih": 3769,
      "sni": 3770,
      "lada": 3771,
      "vide": 3772,
      "kret": 3773,
      "redit": 3774,
      "amo": 3775,
      "mam": 3776,
      "vezi": 3777,
      "dobit": 3778,
      "pala": 3779,
      "itno": 3780,
      "aze": 3781,
      "talno": 3782,
      "očn": 3783,
      "ick": 3784,
      "ispun": 3785,
      "strag": 3786,
      "idu": 3787,
      "kvar": 3788,
      "most": 3789,
      "lic": 3790,
      "imam": 3791,
      "veze": 3792,
      "mjena": 3793,
      "agan": 3794,
      "ekao": 3795,
      "tema": 3796,
      "darsk": 3797,
      "ugr": 3798,
      "stičk": 3799,
      "omsk": 3800,
      "trg": 3801,
      "mjera": 3802,
      "zgled": 3803,
      "opriv": 3804,
      "sir": 3805,
      "iješ": 3806,
      "ros": 3807,
      "jep": 3808,
      "ktivn": 3809,
      "rtic": 3810,
      "wi": 3811,
      "inale": 3812,
      "eve": 3813,
      "noga": 3814,
      "ovali": 3815,
      "traj": 3816,
      "icira": 3817,
      "čito": 3818,
      "29": 3819,
      "abor": 3820,
      "nosit": 3821,
      "podrž": 3822,
      "nča": 3823,
      "enim": 3824,
      "prona": 3825,
      "skup": 3826,
      "pap": 3827,
      "brin": 3828,
      "oba": 3829,
      "voga": 3830,
      "alan": 3831,
      "cip": 3832,
      "ižev": 3833,
      "art": 3834,
      "rugu": 3835,
      "even": 3836,
      "out": 3837,
      "esk": 3838,
      "eut": 3839,
      "hum": 3840,
      "ier": 3841,
      "rakt": 3842,
      "najv": 3843,
      "mun": 3844,
      "zbu": 3845,
      "vent": 3846,
      "inut": 3847,
      "ovit": 3848,
      "cija": 3849,
      "edu": 3850,
      "rven": 3851,
      "ješa": 3852,
      "traje": 3853,
      "našl": 3854,
      "80": 3855,
      "mjere": 3856,
      "luj": 3857,
      "aši": 3858,
      "inic": 3859,
      "nte": 3860,
      "ugod": 3861,
      "neo": 3862,
      "anta": 3863,
      "arb": 3864,
      "manji": 3865,
      "ošte": 3866,
      "gin": 3867,
      "osp": 3868,
      "laka": 3869,
      "ošla": 3870,
      "ebr": 3871,
      "kuplj": 3872,
      "asa": 3873,
      "amir": 3874,
      "ičkih": 3875,
      "sama": 3876,
      "opt": 3877,
      "etanj": 3878,
      "luša": 3879,
      "27": 3880,
      "jm": 3881,
      "raj": 3882,
      "jasn": 3883,
      "zid": 3884,
      "ečer": 3885,
      "vil": 3886,
      "godil": 3887,
      "šal": 3888,
      "ret": 3889,
      "ogo": 3890,
      "ozn": 3891,
      "jka": 3892,
      "jeć": 3893,
      "jače": 3894,
      "putn": 3895,
      "splat": 3896,
      "ljena": 3897,
      "lod": 3898,
      "osn": 3899,
      "trenu": 3900,
      "rošlo": 3901,
      "lor": 3902,
      "ml": 3903,
      "enti": 3904,
      "onsk": 3905,
      "ivač": 3906,
      "iro": 3907,
      "čk": 3908,
      "juje": 3909,
      "##19": 3910,
      "kru": 3911,
      "ijes": 3912,
      "estin": 3913,
      "km": 3914,
      "anin": 3915,
      "##dim": 3916,
      "alen": 3917,
      "ever": 3918,
      "fest": 3919,
      "maš": 3920,
      "meč": 3921,
      "ička": 3922,
      "išn": 3923,
      "nstru": 3924,
      "ei": 3925,
      "izlaz": 3926,
      "majk": 3927,
      "dli": 3928,
      "oy": 3929,
      "vj": 3930,
      "gno": 3931,
      "oza": 3932,
      "nado": 3933,
      "štvu": 3934,
      "eko": 3935,
      "bitn": 3936,
      "kama": 3937,
      "rob": 3938,
      "uspor": 3939,
      "ive": 3940,
      "klas": 3941,
      "onaln": 3942,
      "jač": 3943,
      "ual": 3944,
      "onč": 3945,
      "ans": 3946,
      "znaje": 3947,
      "inske": 3948,
      "jin": 3949,
      "inov": 3950,
      "avu": 3951,
      "nađen": 3952,
      "isam": 3953,
      "najs": 3954,
      "odu": 3955,
      "jni": 3956,
      "ura": 3957,
      "utr": 3958,
      "gramu": 3959,
      "blis": 3960,
      "##res": 3961,
      "četv": 3962,
      "odav": 3963,
      "omin": 3964,
      "uzd": 3965,
      "zval": 3966,
      "omn": 3967,
      "izb": 3968,
      "dim": 3969,
      "smij": 3970,
      "##inj": 3971,
      "edn": 3972,
      "pove": 3973,
      "lue": 3974,
      "vršn": 3975,
      "amen": 3976,
      "##lin": 3977,
      "onov": 3978,
      "ruko": 3979,
      "igran": 3980,
      "najm": 3981,
      "amar": 3982,
      "čuva": 3983,
      "ažn": 3984,
      "rs": 3985,
      "ječ": 3986,
      "alne": 3987,
      "ogor": 3988,
      "štvo": 3989,
      "pan": 3990,
      "naši": 3991,
      "astoj": 3992,
      "lić": 3993,
      "orc": 3994,
      "ljev": 3995,
      "kanal": 3996,
      "##skoj": 3997,
      "ijepo": 3998,
      "šten": 3999,
      "raga": 4000,
      "ganiz": 4001,
      "##co": 4002,
      "ća": 4003,
      "zira": 4004,
      "umu": 4005,
      "javi": 4006,
      "primi": 4007,
      "ovac": 4008,
      "kli": 4009,
      "ted": 4010,
      "emij": 4011,
      "35": 4012,
      "roba": 4013,
      "opć": 4014,
      "lično": 4015,
      "lavn": 4016,
      "đu": 4017,
      "jedna": 4018,
      "grade": 4019,
      "ote": 4020,
      "traži": 4021,
      "unjen": 4022,
      "raspo": 4023,
      "com": 4024,
      "uđ": 4025,
      "tok": 4026,
      "edm": 4027,
      "adu": 4028,
      "oo": 4029,
      "ula": 4030,
      "voli": 4031,
      "međ": 4032,
      "juž": 4033,
      "asti": 4034,
      "fic": 4035,
      "iri": 4036,
      "zah": 4037,
      "neko": 4038,
      "suv": 4039,
      "urb": 4040,
      "31": 4041,
      "enul": 4042,
      "znati": 4043,
      "ajuć": 4044,
      "err": 4045,
      "svr": 4046,
      "##kal": 4047,
      "znato": 4048,
      "uče": 4049,
      "počin": 4050,
      "polož": 4051,
      "dsjet": 4052,
      "jača": 4053,
      "nogi": 4054,
      "ržava": 4055,
      "ont": 4056,
      "vet": 4057,
      "von": 4058,
      "rank": 4059,
      "rst": 4060,
      "zij": 4061,
      "ser": 4062,
      "točno": 4063,
      "rum": 4064,
      "ičen": 4065,
      "unut": 4066,
      "čkom": 4067,
      "bije": 4068,
      "reme": 4069,
      "iće": 4070,
      "ruku": 4071,
      "esl": 4072,
      "enici": 4073,
      "teri": 4074,
      "roj": 4075,
      "nimal": 4076,
      "aest": 4077,
      "gi": 4078,
      "rva": 4079,
      "uza": 4080,
      "obil": 4081,
      "idr": 4082,
      "sav": 4083,
      "avati": 4084,
      "kompl": 4085,
      "rca": 4086,
      "uću": 4087,
      "azum": 4088,
      "jesen": 4089,
      "ijeć": 4090,
      "dužno": 4091,
      "abo": 4092,
      "asp": 4093,
      "we": 4094,
      "šem": 4095,
      "mp": 4096,
      "rv": 4097,
      "##lak": 4098,
      "ondo": 4099,
      "nudi": 4100,
      "human": 4101,
      "kos": 4102,
      "ode": 4103,
      "imi": 4104,
      "ovač": 4105,
      "ičkog": 4106,
      "jeto": 4107,
      "motiv": 4108,
      "akva": 4109,
      "jun": 4110,
      "alni": 4111,
      "rud": 4112,
      "avl": 4113,
      "raspr": 4114,
      "dličn": 4115,
      "edr": 4116,
      "prekr": 4117,
      "plaće": 4118,
      "običn": 4119,
      "ugl": 4120,
      "kruž": 4121,
      "eh": 4122,
      "ugo": 4123,
      "##88": 4124,
      "rago": 4125,
      "proje": 4126,
      "emu": 4127,
      "ljeć": 4128,
      "veće": 4129,
      "spekt": 4130,
      "rska": 4131,
      "nula": 4132,
      "želim": 4133,
      "uf": 4134,
      "uha": 4135,
      "lid": 4136,
      "diza": 4137,
      "vjes": 4138,
      "ratil": 4139,
      "šut": 4140,
      "razv": 4141,
      "raka": 4142,
      "riv": 4143,
      "nsk": 4144,
      "ožemo": 4145,
      "dobi": 4146,
      "eln": 4147,
      "vorn": 4148,
      "naziv": 4149,
      "žal": 4150,
      "kuh": 4151,
      "apl": 4152,
      "španj": 4153,
      "ifi": 4154,
      "elim": 4155,
      "evet": 4156,
      "elo": 4157,
      "nic": 4158,
      "stud": 4159,
      "aljen": 4160,
      "luc": 4161,
      "olsk": 4162,
      "ivao": 4163,
      "očinj": 4164,
      "rijen": 4165,
      "poduz": 4166,
      "jko": 4167,
      "olik": 4168,
      "pob": 4169,
      "visin": 4170,
      "tet": 4171,
      "lišt": 4172,
      "erg": 4173,
      "90": 4174,
      "form": 4175,
      "tl": 4176,
      "ijenj": 4177,
      "znala": 4178,
      "dep": 4179,
      "esto": 4180,
      "ormi": 4181,
      "eza": 4182,
      "akve": 4183,
      "šla": 4184,
      "tima": 4185,
      "traže": 4186,
      "ijim": 4187,
      "ix": 4188,
      "rsta": 4189,
      "nisk": 4190,
      "dop": 4191,
      "anim": 4192,
      "rop": 4193,
      "lom": 4194,
      "ačko": 4195,
      "##_2719": 4196,
      "##_271988": 4197,
      "loč": 4198,
      "ess": 4199,
      "lar": 4200,
      "ulje": 4201,
      "arsk": 4202,
      "čen": 4203,
      "ponov": 4204,
      "bitel": 4205,
      "inom": 4206,
      "tere": 4207,
      "činje": 4208,
      "misli": 4209,
      "pruž": 4210,
      "ael": 4211,
      "pen": 4212,
      "rp": 4213,
      "edin": 4214,
      "rč": 4215,
      "rg": 4216,
      "utor": 4217,
      "doba": 4218,
      "ečk": 4219,
      "izme": 4220,
      "preki": 4221,
      "tivn": 4222,
      "lus": 4223,
      "subot": 4224,
      "išu": 4225,
      "spr": 4226,
      "olar": 4227,
      "nten": 4228,
      "ota": 4229,
      "yo": 4230,
      "kasn": 4231,
      "her": 4232,
      "ovačk": 4233,
      "djelu": 4234,
      "kus": 4235,
      "njsk": 4236,
      "ire": 4237,
      "iku": 4238,
      "utn": 4239,
      "teme": 4240,
      "judi": 4241,
      "mari": 4242,
      "enuti": 4243,
      "aru": 4244,
      "treće": 4245,
      "obal": 4246,
      "arh": 4247,
      "udsk": 4248,
      "ožda": 4249,
      "jeci": 4250,
      "sal": 4251,
      "govin": 4252,
      "ismo": 4253,
      "adr": 4254,
      "##ek": 4255,
      "##fa": 4256,
      "odre": 4257,
      "edij": 4258,
      "uzetn": 4259,
      "ela": 4260,
      "prez": 4261,
      "ermin": 4262,
      "kratk": 4263,
      "abora": 4264,
      "drži": 4265,
      "stro": 4266,
      "lim": 4267,
      "osu": 4268,
      "lacij": 4269,
      "ass": 4270,
      "ii": 4271,
      "kć": 4272,
      "loz": 4273,
      "odigr": 4274,
      "alna": 4275,
      "ajno": 4276,
      "jern": 4277,
      "ival": 4278,
      "atur": 4279,
      "olu": 4280,
      "ash": 4281,
      "pamt": 4282,
      "pješ": 4283,
      "rce": 4284,
      "zam": 4285,
      "rc": 4286,
      "anij": 4287,
      "adn": 4288,
      "etin": 4289,
      "sreds": 4290,
      "rske": 4291,
      "ew": 4292,
      "tić": 4293,
      "staja": 4294,
      "iču": 4295,
      "oris": 4296,
      "veza": 4297,
      "rovod": 4298,
      "visi": 4299,
      "ačno": 4300,
      "araj": 4301,
      "lam": 4302,
      "rit": 4303,
      "avak": 4304,
      "atko": 4305,
      "lani": 4306,
      "peri": 4307,
      "jihov": 4308,
      "gij": 4309,
      "koč": 4310,
      "tikt": 4311,
      "imu": 4312,
      "ovod": 4313,
      "ljač": 4314,
      "zivn": 4315,
      "eto": 4316,
      "zer": 4317,
      "jež": 4318,
      "nve": 4319,
      "remi": 4320,
      "vira": 4321,
      "atke": 4322,
      "acima": 4323,
      "jviš": 4324,
      "dlu": 4325,
      "uka": 4326,
      "ograd": 4327,
      "age": 4328,
      "jon": 4329,
      "##bin": 4330,
      "jev": 4331,
      "nat": 4332,
      "porn": 4333,
      "obro": 4334,
      "imaln": 4335,
      "ostan": 4336,
      "vješ": 4337,
      "nud": 4338,
      "prati": 4339,
      "erija": 4340,
      "nvest": 4341,
      "##ot": 4342,
      "enom": 4343,
      "jači": 4344,
      "upc": 4345,
      "čev": 4346,
      "četi": 4347,
      "ect": 4348,
      "čkim": 4349,
      "pon": 4350,
      "200": 4351,
      "anket": 4352,
      "aste": 4353,
      "enut": 4354,
      "radit": 4355,
      "iam": 4356,
      "lt": 4357,
      "line": 4358,
      "jet": 4359,
      "dani": 4360,
      "etk": 4361,
      "tric": 4362,
      "umir": 4363,
      "rb": 4364,
      "šu": 4365,
      "žu": 4366,
      "enk": 4367,
      "tad": 4368,
      "tle": 4369,
      "nila": 4370,
      "stic": 4371,
      "niv": 4372,
      "tičn": 4373,
      "roz": 4374,
      "otk": 4375,
      "ohn": 4376,
      "##bu": 4377,
      "ovin": 4378,
      "maks": 4379,
      "tak": 4380,
      "onz": 4381,
      "vaju": 4382,
      "emi": 4383,
      "ntin": 4384,
      "ušao": 4385,
      "etv": 4386,
      "čine": 4387,
      "pored": 4388,
      "jstvo": 4389,
      "anc": 4390,
      "##_2720": 4391,
      "sov": 4392,
      "čku": 4393,
      "riž": 4394,
      "lagan": 4395,
      "otpor": 4396,
      "adić": 4397,
      "ratu": 4398,
      "tep": 4399,
      "ket": 4400,
      "mot": 4401,
      "ašto": 4402,
      "kand": 4403,
      "šanse": 4404,
      "ačić": 4405,
      "odin": 4406,
      "listi": 4407,
      "roku": 4408,
      "tarn": 4409,
      "rano": 4410,
      "ašl": 4411,
      "ešt": 4412,
      "iral": 4413,
      "lub": 4414,
      "alat": 4415,
      "ućn": 4416,
      "rać": 4417,
      "lit": 4418,
      "stavi": 4419,
      "ular": 4420,
      "()": 4421,
      "ois": 4422,
      "odn": 4423,
      "pat": 4424,
      "znali": 4425,
      "najve": 4426,
      "tiral": 4427,
      "ćan": 4428,
      "rolaz": 4429,
      "ert": 4430,
      "većan": 4431,
      "tegor": 4432,
      "##24": 4433,
      "nevn": 4434,
      "erb": 4435,
      "kis": 4436,
      "ndi": 4437,
      "izd": 4438,
      "upit": 4439,
      "istra": 4440,
      "onic": 4441,
      "astu": 4442,
      "uta": 4443,
      "čar": 4444,
      "##zen": 4445,
      "rava": 4446,
      "reće": 4447,
      "led": 4448,
      "ijske": 4449,
      "egr": 4450,
      "žev": 4451,
      "jelom": 4452,
      "naž": 4453,
      "obraz": 4454,
      "ljk": 4455,
      "apan": 4456,
      "uđen": 4457,
      "ope": 4458,
      "eće": 4459,
      "račn": 4460,
      "retan": 4461,
      "##orm": 4462,
      "rub": 4463,
      "tart": 4464,
      "truk": 4465,
      "klop": 4466,
      "reko": 4467,
      "ijer": 4468,
      "onim": 4469,
      "moto": 4470,
      "šlj": 4471,
      "onu": 4472,
      "orit": 4473,
      "udio": 4474,
      "nform": 4475,
      "##ker": 4476,
      "tljiv": 4477,
      "vodn": 4478,
      "ovića": 4479,
      "iban": 4480,
      "nički": 4481,
      "last": 4482,
      "adam": 4483,
      "eral": 4484,
      "##jan": 4485,
      "##ved": 4486,
      "ičan": 4487,
      "gas": 4488,
      "avk": 4489,
      "učiv": 4490,
      "aro": 4491,
      "##ed": 4492,
      "itik": 4493,
      "ivlj": 4494,
      "dir": 4495,
      "etar": 4496,
      "avan": 4497,
      "atra": 4498,
      "igur": 4499,
      "olož": 4500,
      "odaci": 4501,
      "elit": 4502,
      "duš": 4503,
      "nike": 4504,
      "##_27209": 4505,
      "33": 4506,
      "niza": 4507,
      "lag": 4508,
      "orn": 4509,
      "uzet": 4510,
      "agen": 4511,
      "jave": 4512,
      "dres": 4513,
      "45": 4514,
      "ger": 4515,
      "lon": 4516,
      "vanje": 4517,
      "topa": 4518,
      "maže": 4519,
      "licu": 4520,
      "elio": 4521,
      "gri": 4522,
      "snij": 4523,
      "##per": 4524,
      "rugo": 4525,
      "isklj": 4526,
      "cm": 4527,
      "rl": 4528,
      "nako": 4529,
      "davn": 4530,
      "stov": 4531,
      "asno": 4532,
      "rizna": 4533,
      "etak": 4534,
      "hel": 4535,
      "čim": 4536,
      "nacij": 4537,
      "set": 4538,
      "bes": 4539,
      "esta": 4540,
      "oro": 4541,
      "rge": 4542,
      "rip": 4543,
      "avid": 4544,
      "idim": 4545,
      "nkc": 4546,
      "zar": 4547,
      "ement": 4548,
      "ado": 4549,
      "stič": 4550,
      "okret": 4551,
      "čas": 4552,
      "ičkim": 4553,
      "ordan": 4554,
      "itor": 4555,
      "kbc": 4556,
      "rz": 4557,
      "mid": 4558,
      "ake": 4559,
      "pit": 4560,
      "iol": 4561,
      "ester": 4562,
      "inski": 4563,
      "uma": 4564,
      "rađen": 4565,
      "akcij": 4566,
      "vama": 4567,
      "pisu": 4568,
      "ačn": 4569,
      "đur": 4570,
      "raca": 4571,
      "suđ": 4572,
      "reb": 4573,
      "mih": 4574,
      "atima": 4575,
      "anđ": 4576,
      "ult": 4577,
      "uhva": 4578,
      "rd": 4579,
      "rskoj": 4580,
      "ijep": 4581,
      "vrdi": 4582,
      "čević": 4583,
      "##djel": 4584,
      "aziva": 4585,
      "rijsk": 4586,
      "isc": 4587,
      "jima": 4588,
      "alnog": 4589,
      "wit": 4590,
      "tine": 4591,
      "##mas": 4592,
      "auz": 4593,
      "zaht": 4594,
      "##ćer": 4595,
      "odan": 4596,
      "ijem": 4597,
      "ijeme": 4598,
      "arni": 4599,
      "ljuju": 4600,
      "azu": 4601,
      "tehn": 4602,
      "ovor": 4603,
      "rza": 4604,
      "ječe": 4605,
      "obn": 4606,
      "roje": 4607,
      "upu": 4608,
      "mušk": 4609,
      "urs": 4610,
      "ealn": 4611,
      "orist": 4612,
      "adio": 4613,
      "uklju": 4614,
      "urban": 4615,
      "36": 4616,
      "ikov": 4617,
      "lađ": 4618,
      "ajal": 4619,
      "idjel": 4620,
      "valj": 4621,
      "kun": 4622,
      "jenje": 4623,
      "nsti": 4624,
      "##uj": 4625,
      "jesu": 4626,
      "tož": 4627,
      "ilišt": 4628,
      "poslu": 4629,
      "egij": 4630,
      "bazen": 4631,
      "šećer": 4632,
      "nstit": 4633,
      "naz": 4634,
      "ijeg": 4635,
      "rom": 4636,
      "enih": 4637,
      "jna": 4638,
      "uća": 4639,
      "vanj": 4640,
      "nev": 4641,
      "čije": 4642,
      "šć": 4643,
      "kova": 4644,
      "etra": 4645,
      "rate": 4646,
      "taš": 4647,
      "cira": 4648,
      "##ber": 4649,
      "odab": 4650,
      "lavi": 4651,
      "32": 4652,
      "arr": 4653,
      "orin": 4654,
      "trav": 4655,
      "jesti": 4656,
      "kacij": 4657,
      "gore": 4658,
      "ojev": 4659,
      "tik": 4660,
      "arton": 4661,
      "usko": 4662,
      "udu": 4663,
      "ars": 4664,
      "avno": 4665,
      "fu": 4666,
      "rugi": 4667,
      "metni": 4668,
      "anđel": 4669,
      "olid": 4670,
      "tožer": 4671,
      "lis": 4672,
      "igl": 4673,
      "ivaj": 4674,
      "jera": 4675,
      "prost": 4676,
      "lum": 4677,
      "ješ": 4678,
      "nel": 4679,
      "odjel": 4680,
      "vezn": 4681,
      "nit": 4682,
      "marij": 4683,
      "mogl": 4684,
      "kazuj": 4685,
      "jeći": 4686,
      "ize": 4687,
      "obo": 4688,
      "nijih": 4689,
      "aje": 4690,
      "pav": 4691,
      "kona": 4692,
      "ratit": 4693,
      "itar": 4694,
      "užn": 4695,
      "andi": 4696,
      "tem": 4697,
      "tern": 4698,
      "obno": 4699,
      "ičkom": 4700,
      "ulja": 4701,
      "jetil": 4702,
      "čit": 4703,
      "tivno": 4704,
      "miris": 4705,
      "tualn": 4706,
      "usa": 4707,
      "ziv": 4708,
      "lanic": 4709,
      "edit": 4710,
      "sn": 4711,
      "rik": 4712,
      "rijev": 4713,
      "ede": 4714,
      "kam": 4715,
      "vala": 4716,
      "esen": 4717,
      "ektiv": 4718,
      "info": 4719,
      "omat": 4720,
      "500": 4721,
      "radu": 4722,
      "anac": 4723,
      "erk": 4724,
      "jetio": 4725,
      "bave": 4726,
      "jezin": 4727,
      "dljiv": 4728,
      "mlja": 4729,
      "##zz": 4730,
      "anci": 4731,
      "ilm": 4732,
      "ožen": 4733,
      "šef": 4734,
      "ušk": 4735,
      "wa": 4736,
      "dah": 4737,
      "lasi": 4738,
      "tab": 4739,
      "vaki": 4740,
      "utk": 4741,
      "bavi": 4742,
      "odig": 4743,
      "jesni": 4744,
      "eško": 4745,
      "jd": 4746,
      "jemo": 4747,
      "stre": 4748,
      "ams": 4749,
      "moram": 4750,
      "iben": 4751,
      "my": 4752,
      "nin": 4753,
      "dale": 4754,
      "itko": 4755,
      "podru": 4756,
      "adnik": 4757,
      "vanja": 4758,
      "jnij": 4759,
      "ovd": 4760,
      "osao": 4761,
      "eran": 4762,
      "rne": 4763,
      "rpsk": 4764,
      "mira": 4765,
      "alkan": 4766,
      "esa": 4767,
      "ljubi": 4768,
      "araž": 4769,
      "uni": 4770,
      "enat": 4771,
      "enstv": 4772,
      "visn": 4773,
      "bori": 4774,
      "gim": 4775,
      "odao": 4776,
      "vač": 4777,
      "ivali": 4778,
      "vina": 4779,
      "ače": 4780,
      "apo": 4781,
      "jar": 4782,
      "nzi": 4783,
      "šav": 4784,
      "kaž": 4785,
      "ace": 4786,
      "ijeti": 4787,
      "trak": 4788,
      "snik": 4789,
      "hla": 4790,
      "zu": 4791,
      "pogr": 4792,
      "sec": 4793,
      "omij": 4794,
      "ops": 4795,
      "nuli": 4796,
      "ustr": 4797,
      "ački": 4798,
      "gura": 4799,
      "stank": 4800,
      "ašava": 4801,
      "sobn": 4802,
      "ll": 4803,
      "rajn": 4804,
      "omp": 4805,
      "preb": 4806,
      "stot": 4807,
      "inir": 4808,
      "vima": 4809,
      "plj": 4810,
      "tt": 4811,
      "nemo": 4812,
      "boln": 4813,
      "aba": 4814,
      "mc": 4815,
      "tno": 4816,
      "urn": 4817,
      "sub": 4818,
      "anija": 4819,
      "300": 4820,
      "iž": 4821,
      "ore": 4822,
      "edo": 4823,
      "part": 4824,
      "elat": 4825,
      "nk": 4826,
      "čno": 4827,
      "paul": 4828,
      "itan": 4829,
      "atl": 4830,
      "emat": 4831,
      "##raf": 4832,
      "racij": 4833,
      "asc": 4834,
      "tinsk": 4835,
      "atori": 4836,
      "tičar": 4837,
      "can": 4838,
      "rk": 4839,
      "šar": 4840,
      "rev": 4841,
      "moc": 4842,
      "iho": 4843,
      "mica": 4844,
      "mjes": 4845,
      "ase": 4846,
      "34": 4847,
      "##man": 4848,
      "roat": 4849,
      "ukra": 4850,
      "agi": 4851,
      "edb": 4852,
      "ažu": 4853,
      "tov": 4854,
      "ism": 4855,
      "iša": 4856,
      "edv": 4857,
      "štva": 4858,
      "wo": 4859,
      "atin": 4860,
      "rta": 4861,
      "rci": 4862,
      "ude": 4863,
      "ya": 4864,
      "reću": 4865,
      "max": 4866,
      "isao": 4867,
      "ovak": 4868,
      "visno": 4869,
      "udij": 4870,
      "druge": 4871,
      "zne": 4872,
      "##fe": 4873,
      "nomi": 4874,
      "ico": 4875,
      "vezu": 4876,
      "jelov": 4877,
      "unj": 4878,
      "ravo": 4879,
      "upn": 4880,
      "ičku": 4881,
      "leda": 4882,
      "uška": 4883,
      "irekt": 4884,
      "ega": 4885,
      "eđa": 4886,
      "oci": 4887,
      "telja": 4888,
      "imat": 4889,
      "vit": 4890,
      "pali": 4891,
      "oprav": 4892,
      "cion": 4893,
      "ljeća": 4894,
      "zorn": 4895,
      "uše": 4896,
      "##zij": 4897,
      "jaja": 4898,
      "vaj": 4899,
      "vara": 4900,
      "ezo": 4901,
      "etnj": 4902,
      "ajem": 4903,
      "kit": 4904,
      "oi": 4905,
      "rup": 4906,
      "tili": 4907,
      "arhit": 4908,
      "ee": 4909,
      "eon": 4910,
      "izvo": 4911,
      "ovr": 4912,
      "obu": 4913,
      "šire": 4914,
      "akir": 4915,
      "juju": 4916,
      "isij": 4917,
      "djec": 4918,
      "oliti": 4919,
      "guž": 4920,
      "aše": 4921,
      "lač": 4922,
      "etro": 4923,
      "istu": 4924,
      "vjeti": 4925,
      "hns": 4926,
      "eras": 4927,
      "eću": 4928,
      "pil": 4929,
      "dol": 4930,
      "alja": 4931,
      "ijat": 4932,
      "opad": 4933,
      "čani": 4934,
      "denti": 4935,
      "kisel": 4936,
      "prep": 4937,
      "alnim": 4938,
      "alnih": 4939,
      "sredn": 4940,
      "snici": 4941,
      "##10": 4942,
      "načaj": 4943,
      "##ho": 4944,
      "titu": 4945,
      "itim": 4946,
      "erc": 4947,
      "umije": 4948,
      "rosje": 4949,
      "ff": 4950,
      "uduć": 4951,
      "žn": 4952,
      "nese": 4953,
      "aval": 4954,
      "sluša": 4955,
      "alon": 4956,
      "elem": 4957,
      "sf": 4958,
      "##šti": 4959,
      "ander": 4960,
      "mob": 4961,
      "spol": 4962,
      "avao": 4963,
      "chef": 4964,
      "kvart": 4965,
      "eđ": 4966,
      "ksi": 4967,
      "oe": 4968,
      "enta": 4969,
      "ann": 4970,
      "rođ": 4971,
      "amal": 4972,
      "taro": 4973,
      "repor": 4974,
      "ograf": 4975,
      "prima": 4976,
      "tum": 4977,
      "jenja": 4978,
      "mena": 4979,
      "ck": 4980,
      "len": 4981,
      "##ef": 4982,
      "onte": 4983,
      "ovine": 4984,
      "arstv": 4985,
      "ido": 4986,
      "del": 4987,
      "etu": 4988,
      "ese": 4989,
      "azin": 4990,
      "aziv": 4991,
      "geo": 4992,
      "takm": 4993,
      "oče": 4994,
      "uga": 4995,
      "zašti": 4996,
      "mb": 4997,
      "zvor": 4998,
      "skl": 4999,
      "reni": 5000,
      "ziran": 5001,
      "aster": 5002,
      "osjeć": 5003,
      "mreža": 5004,
      "olest": 5005,
      "lti": 5006,
      "##ič": 5007,
      "##ql": 5008,
      "kost": 5009,
      "nest": 5010,
      "los": 5011,
      "stog": 5012,
      "uho": 5013,
      "##80x": 5014,
      "##40x": 5015,
      "arsen": 5016,
      "web": 5017,
      "sjedn": 5018,
      "ebe": 5019,
      "avrš": 5020,
      "zub": 5021,
      "lasn": 5022,
      "njav": 5023,
      "vjere": 5024,
      "37": 5025,
      "arov": 5026,
      "bal": 5027,
      "wal": 5028,
      "bilj": 5029,
      "vozi": 5030,
      "ček": 5031,
      "mand": 5032,
      "ačke": 5033,
      "enost": 5034,
      "zborn": 5035,
      "oki": 5036,
      "oće": 5037,
      "reka": 5038,
      "osm": 5039,
      "roni": 5040,
      "para": 5041,
      "ljud": 5042,
      "uso": 5043,
      "udn": 5044,
      "ukla": 5045,
      "dluk": 5046,
      "55": 5047,
      "atu": 5048,
      "ećin": 5049,
      "zgr": 5050,
      "dat": 5051,
      "akar": 5052,
      "elja": 5053,
      "ekiv": 5054,
      "ača": 5055,
      "eda": 5056,
      "rj": 5057,
      "sab": 5058,
      "ojan": 5059,
      "num": 5060,
      "rado": 5061,
      "novan": 5062,
      "redo": 5063,
      "##_272090": 5064,
      "jn": 5065,
      "rlj": 5066,
      "isu": 5067,
      "els": 5068,
      "ćenje": 5069,
      "ašao": 5070,
      "orav": 5071,
      "osud": 5072,
      "rug": 5073,
      "olič": 5074,
      "ekc": 5075,
      "poveć": 5076,
      "pt": 5077,
      "zir": 5078,
      "aku": 5079,
      "vat": 5080,
      "vad": 5081,
      "##mes": 5082,
      "asil": 5083,
      "kut": 5084,
      "uro": 5085,
      "šum": 5086,
      "izij": 5087,
      "obar": 5088,
      "laš": 5089,
      "ijed": 5090,
      "puš": 5091,
      "oriti": 5092,
      "enog": 5093,
      "150": 5094,
      "kn": 5095,
      "nić": 5096,
      "enn": 5097,
      "aren": 5098,
      "konst": 5099,
      "lans": 5100,
      "enad": 5101,
      "tona": 5102,
      "oslov": 5103,
      "stava": 5104,
      "rena": 5105,
      "otom": 5106,
      "sjaj": 5107,
      "uskok": 5108,
      "ial": 5109,
      "lut": 5110,
      "nski": 5111,
      "lider": 5112,
      "mio": 5113,
      "enama": 5114,
      "ivim": 5115,
      "38": 5116,
      "inij": 5117,
      "reci": 5118,
      "anu": 5119,
      "lovo": 5120,
      "avin": 5121,
      "ivala": 5122,
      "75": 5123,
      "ses": 5124,
      "ance": 5125,
      "mah": 5126,
      "pris": 5127,
      "erge": 5128,
      "upe": 5129,
      "žić": 5130,
      "ublj": 5131,
      "aćen": 5132,
      "lup": 5133,
      "tef": 5134,
      "##gon": 5135,
      "ljaj": 5136,
      "alnom": 5137,
      "mrt": 5138,
      "uno": 5139,
      "nite": 5140,
      "mov": 5141,
      "osni": 5142,
      "emit": 5143,
      "erim": 5144,
      "aviti": 5145,
      "fak": 5146,
      "rš": 5147,
      "onf": 5148,
      "ajna": 5149,
      "ovara": 5150,
      "olju": 5151,
      "srbi": 5152,
      "ola": 5153,
      "koln": 5154,
      "alma": 5155,
      "ljiva": 5156,
      "ivost": 5157,
      "slavi": 5158,
      "col": 5159,
      "evoj": 5160,
      "otov": 5161,
      "kaš": 5162,
      "mjeri": 5163,
      "ruga": 5164,
      "muž": 5165,
      "ikada": 5166,
      "wor": 5167,
      "##be": 5168,
      "staj": 5169,
      "avn": 5170,
      "kupn": 5171,
      "ekin": 5172,
      "rodu": 5173,
      "este": 5174,
      "bl": 5175,
      "dn": 5176,
      "nca": 5177,
      "čenj": 5178,
      "reži": 5179,
      "veti": 5180,
      "aštel": 5181,
      "kril": 5182,
      "eške": 5183,
      "hnk": 5184,
      "kvad": 5185,
      "dalek": 5186,
      "det": 5187,
      "mama": 5188,
      "alt": 5189,
      "ors": 5190,
      "anak": 5191,
      "vard": 5192,
      "pogot": 5193,
      "alog": 5194,
      "ezon": 5195,
      "došl": 5196,
      "anko": 5197,
      "liz": 5198,
      "rušt": 5199,
      "gubi": 5200,
      "eljk": 5201,
      "iba": 5202,
      "jem": 5203,
      "rama": 5204,
      "enis": 5205,
      "jaka": 5206,
      "kamat": 5207,
      "određ": 5208,
      "cl": 5209,
      "ošt": 5210,
      "##pan": 5211,
      "ješta": 5212,
      "kove": 5213,
      "kaf": 5214,
      "inci": 5215,
      "obol": 5216,
      "vic": 5217,
      "alnu": 5218,
      "bali": 5219,
      "##pp": 5220,
      "akit": 5221,
      "slob": 5222,
      "sobno": 5223,
      "ečaj": 5224,
      "rno": 5225,
      "##gar": 5226,
      "ods": 5227,
      "ustv": 5228,
      "kći": 5229,
      "umi": 5230,
      "##sb": 5231,
      "##mb": 5232,
      "lać": 5233,
      "jac": 5234,
      "udo": 5235,
      "ojim": 5236,
      "nda": 5237,
      "##uk": 5238,
      "reda": 5239,
      "osa": 5240,
      "iću": 5241,
      "idjet": 5242,
      "đenje": 5243,
      "mn": 5244,
      "tiš": 5245,
      "ijeđ": 5246,
      "##dur": 5247,
      "enoj": 5248,
      "nesre": 5249,
      "con": 5250,
      "dh": 5251,
      "iner": 5252,
      "aksi": 5253,
      "jadr": 5254,
      "ajan": 5255,
      "tari": 5256,
      "ekr": 5257,
      "ekla": 5258,
      "remn": 5259,
      "dna": 5260,
      "učk": 5261,
      "šlo": 5262,
      "enc": 5263,
      "iteta": 5264,
      "pul": 5265,
      "kip": 5266,
      "popul": 5267,
      "##van": 5268,
      "ječn": 5269,
      "pool": 5270,
      "sun": 5271,
      "prek": 5272,
      "arko": 5273,
      "ljene": 5274,
      "mini": 5275,
      "napr": 5276,
      "400": 5277,
      "aranj": 5278,
      "iža": 5279,
      "##ft": 5280,
      "jetit": 5281,
      "orije": 5282,
      "držat": 5283,
      "ks": 5284,
      "tka": 5285,
      "moli": 5286,
      "mes": 5287,
      "riča": 5288,
      "avna": 5289,
      "čara": 5290,
      "ljin": 5291,
      "##mz": 5292,
      "ovre": 5293,
      "razi": 5294,
      "oren": 5295,
      "muč": 5296,
      "tram": 5297,
      "grbin": 5298,
      "pec": 5299,
      "čuje": 5300,
      "ačkog": 5301,
      "rgov": 5302,
      "zm": 5303,
      "šti": 5304,
      "##br": 5305,
      "nar": 5306,
      "svu": 5307,
      "anali": 5308,
      "haj": 5309,
      "demok": 5310,
      "ladn": 5311,
      "kg": 5312,
      "oti": 5313,
      "oun": 5314,
      "rša": 5315,
      "##ff": 5316,
      "biz": 5317,
      "emlj": 5318,
      "cid": 5319,
      "mask": 5320,
      "lij": 5321,
      "ladi": 5322,
      "tabil": 5323,
      "rizi": 5324,
      "boji": 5325,
      "upis": 5326,
      "are": 5327,
      "uki": 5328,
      "une": 5329,
      "bir": 5330,
      "prop": 5331,
      "mac": 5332,
      "ačen": 5333,
      "cije": 5334,
      "potr": 5335,
      "ređ": 5336,
      "ličn": 5337,
      "org": 5338,
      "ilaz": 5339,
      "bama": 5340,
      "moral": 5341,
      "dbi": 5342,
      "eat": 5343,
      "##tt": 5344,
      "ogle": 5345,
      "adal": 5346,
      "učiti": 5347,
      "oyo": 5348,
      "lovoz": 5349,
      "65": 5350,
      "rna": 5351,
      "ui": 5352,
      "enij": 5353,
      "alio": 5354,
      "ojn": 5355,
      "orac": 5356,
      "sinc": 5357,
      "ncer": 5358,
      "ropi": 5359,
      "aže": 5360,
      "uku": 5361,
      "inje": 5362,
      "sprav": 5363,
      "ransk": 5364,
      "ezen": 5365,
      "n1": 5366,
      "anke": 5367,
      "ijeli": 5368,
      "akt": 5369,
      "rot": 5370,
      "rump": 5371,
      "dist": 5372,
      "eppo": 5373,
      "vizij": 5374,
      "arat": 5375,
      "bja": 5376,
      "ida": 5377,
      "jena": 5378,
      "ons": 5379,
      "nogu": 5380,
      "tit": 5381,
      "mač": 5382,
      "jedni": 5383,
      "udr": 5384,
      "alu": 5385,
      "čna": 5386,
      "đa": 5387,
      "šnj": 5388,
      "žnic": 5389,
      "##tes": 5390,
      "lekt": 5391,
      "pek": 5392,
      "stana": 5393,
      "andar": 5394,
      "jana": 5395,
      "oziti": 5396,
      "kult": 5397,
      "omuni": 5398,
      "uši": 5399,
      "zli": 5400,
      "rave": 5401,
      "prev": 5402,
      "spjel": 5403,
      "bog": 5404,
      "bore": 5405,
      "dek": 5406,
      "eljen": 5407,
      "##har": 5408,
      "moć": 5409,
      "opisa": 5410,
      "masl": 5411,
      "oznaj": 5412,
      "bjasn": 5413,
      "agu": 5414,
      "bn": 5415,
      "ljed": 5416,
      "teć": 5417,
      "redvi": 5418,
      "entra": 5419,
      "anjem": 5420,
      "anost": 5421,
      "andid": 5422,
      "ego": 5423,
      "jne": 5424,
      "vdje": 5425,
      "ralj": 5426,
      "enal": 5427,
      "aman": 5428,
      "ispla": 5429,
      "sjeć": 5430,
      "efi": 5431,
      "sobe": 5432,
      "uke": 5433,
      "rej": 5434,
      "telji": 5435,
      "akvo": 5436,
      "rić": 5437,
      "disk": 5438,
      "ami": 5439,
      "egi": 5440,
      "umn": 5441,
      "wood": 5442,
      "ljede": 5443,
      "aći": 5444,
      "dnj": 5445,
      "bik": 5446,
      "jati": 5447,
      "vrši": 5448,
      "rusi": 5449,
      "atili": 5450,
      "tank": 5451,
      "dorh": 5452,
      "cen": 5453,
      "##pz": 5454,
      "jene": 5455,
      "nada": 5456,
      "ned": 5457,
      "imn": 5458,
      "njev": 5459,
      "dano": 5460,
      "pozva": 5461,
      "stari": 5462,
      "dle": 5463,
      "oca": 5464,
      "jesn": 5465,
      "##los": 5466,
      "miru": 5467,
      "itič": 5468,
      "razo": 5469,
      "cast": 5470,
      "##skog": 5471,
      "rski": 5472,
      "limun": 5473,
      "pir": 5474,
      "alil": 5475,
      "estan": 5476,
      "itul": 5477,
      "alom": 5478,
      "susre": 5479,
      "izan": 5480,
      "ovca": 5481,
      "obra": 5482,
      "memor": 5483,
      "alin": 5484,
      "atim": 5485,
      "atp": 5486,
      "stira": 5487,
      "piš": 5488,
      "anske": 5489,
      "ostaj": 5490,
      "ovina": 5491,
      "dnu": 5492,
      "rka": 5493,
      "##12": 5494,
      "enkov": 5495,
      "anov": 5496,
      "oblj": 5497,
      "prave": 5498,
      "teks": 5499,
      "čink": 5500,
      "anski": 5501,
      "mys": 5502,
      "komor": 5503,
      "reč": 5504,
      "dul": 5505,
      "trži": 5506,
      "agl": 5507,
      "fol": 5508,
      "tržiš": 5509,
      "ago": 5510,
      "bjav": 5511,
      "cur": 5512,
      "kci": 5513,
      "olj": 5514,
      "##bi": 5515,
      "##tij": 5516,
      "lip": 5517,
      "logu": 5518,
      "eskal": 5519,
      "smr": 5520,
      "ubio": 5521,
      "ezd": 5522,
      "nen": 5523,
      "nba": 5524,
      "nađe": 5525,
      "kože": 5526,
      "tina": 5527,
      "snima": 5528,
      "gir": 5529,
      "vred": 5530,
      "kob": 5531,
      "tetu": 5532,
      "mažu": 5533,
      "lade": 5534,
      "tava": 5535,
      "tacij": 5536,
      "arne": 5537,
      "emp": 5538,
      "icir": 5539,
      "rekl": 5540,
      "hat": 5541,
      "nce": 5542,
      "rlo": 5543,
      "tke": 5544,
      "retn": 5545,
      "ijeke": 5546,
      "utton": 5547,
      "ube": 5548,
      "gur": 5549,
      "greba": 5550,
      "##20x": 5551,
      "tj": 5552,
      "uan": 5553,
      "##for": 5554,
      "liza": 5555,
      "čio": 5556,
      "dvd": 5557,
      "eles": 5558,
      "uefa": 5559,
      "dhmz": 5560,
      "39": 5561,
      "kc": 5562,
      "uris": 5563,
      "liž": 5564,
      "romo": 5565,
      "orno": 5566,
      "ajne": 5567,
      "trbu": 5568,
      "zija": 5569,
      "znen": 5570,
      "mund": 5571,
      "ćaj": 5572,
      "vrdio": 5573,
      "žrt": 5574,
      "lado": 5575,
      "vede": 5576,
      "isn": 5577,
      "estic": 5578,
      "stom": 5579,
      "nasil": 5580,
      "aža": 5581,
      "gorj": 5582,
      "eleg": 5583,
      "ićev": 5584,
      "ua": 5585,
      "utim": 5586,
      "šet": 5587,
      "selak": 5588,
      "onom": 5589,
      "osil": 5590,
      "meće": 5591,
      "tag": 5592,
      "james": 5593,
      "pacij": 5594,
      "ojo": 5595,
      "dik": 5596,
      "lug": 5597,
      "inej": 5598,
      "adil": 5599,
      "ezul": 5600,
      "adek": 5601,
      "aha": 5602,
      "bbc": 5603,
      "hg": 5604,
      "ump": 5605,
      "##gh": 5606,
      "##ger": 5607,
      "ens": 5608,
      "enj": 5609,
      "akvi": 5610,
      "isok": 5611,
      "ostig": 5612,
      "cedur": 5613,
      "aw": 5614,
      "tkr": 5615,
      "jeg": 5616,
      "luž": 5617,
      "lem": 5618,
      "ostim": 5619,
      "asio": 5620,
      "onio": 5621,
      "kopn": 5622,
      "armer": 5623,
      "vajuć": 5624,
      "uir": 5625,
      "izr": 5626,
      "juna": 5627,
      "ijav": 5628,
      "eso": 5629,
      "amu": 5630,
      "pić": 5631,
      "witt": 5632,
      "48": 5633,
      "##ten": 5634,
      "jeno": 5635,
      "nava": 5636,
      "til": 5637,
      "priop": 5638,
      "lazb": 5639,
      "pusti": 5640,
      "kum": 5641,
      "asad": 5642,
      "oram": 5643,
      "dras": 5644,
      "nepr": 5645,
      "šansu": 5646,
      "mysql": 5647,
      "42": 5648,
      "pto": 5649,
      "uck": 5650,
      "##ler": 5651,
      "košt": 5652,
      "anka": 5653,
      "sion": 5654,
      "ađe": 5655,
      "onc": 5656,
      "točn": 5657,
      "ajv": 5658,
      "radni": 5659,
      "elev": 5660,
      "kinja": 5661,
      "600": 5662,
      "đurđ": 5663,
      "dri": 5664,
      "tup": 5665,
      "sten": 5666,
      "tij": 5667,
      "cit": 5668,
      "djeli": 5669,
      "bur": 5670,
      "ibon": 5671,
      "formi": 5672,
      "oju": 5673,
      "pd": 5674,
      "uard": 5675,
      "ješt": 5676,
      "nome": 5677,
      "inkov": 5678,
      "romi": 5679,
      "gat": 5680,
      "sila": 5681,
      "ispri": 5682,
      "itom": 5683,
      "anovi": 5684,
      "jstva": 5685,
      "ean": 5686,
      "jku": 5687,
      "pij": 5688,
      "lac": 5689,
      "taja": 5690,
      "ijad": 5691,
      "irana": 5692,
      "reper": 5693,
      "hamas": 5694,
      "ural": 5695,
      "aved": 5696,
      "dij": 5697,
      "ear": 5698,
      "kla": 5699,
      "##ig": 5700,
      "navod": 5701,
      "kaka": 5702,
      "tila": 5703,
      "tug": 5704,
      "izab": 5705,
      "afri": 5706,
      "remij": 5707,
      "arbar": 5708,
      "dc": 5709,
      "čov": 5710,
      "##my": 5711,
      "prv": 5712,
      "nez": 5713,
      "anit": 5714,
      "gaj": 5715,
      "unt": 5716,
      "općen": 5717,
      "jezd": 5718,
      "sudi": 5719,
      "mile": 5720,
      "##eld": 5721,
      "travn": 5722,
      "stok": 5723,
      "živa": 5724,
      "modri": 5725,
      "itali": 5726,
      "izvođ": 5727,
      "ask": 5728,
      "mup": 5729,
      "jeca": 5730,
      "tika": 5731,
      "##vel": 5732,
      "mik": 5733,
      "milos": 5734,
      "nosni": 5735,
      "kiv": 5736,
      "amn": 5737,
      "enica": 5738,
      "hodn": 5739,
      "kotar": 5740,
      "ble": 5741,
      "reat": 5742,
      "prob": 5743,
      "bom": 5744,
      "stolj": 5745,
      "omogu": 5746,
      "režij": 5747,
      "temel": 5748,
      "zlije": 5749,
      "ljav": 5750,
      "mer": 5751,
      "qu": 5752,
      "rvat": 5753,
      "##sh": 5754,
      "row": 5755,
      "rux": 5756,
      "irano": 5757,
      "avne": 5758,
      "ilot": 5759,
      "oric": 5760,
      "ocm": 5761,
      "ibe": 5762,
      "ken": 5763,
      "trov": 5764,
      "đenj": 5765,
      "ruzij": 5766,
      "olit": 5767,
      "app": 5768,
      "etal": 5769,
      "120": 5770,
      "ozač": 5771,
      "jke": 5772,
      "ugov": 5773,
      "čne": 5774,
      "donij": 5775,
      "ves": 5776,
      "vrs": 5777,
      "igral": 5778,
      "oško": 5779,
      "aral": 5780,
      "64": 5781,
      "ss": 5782,
      "snov": 5783,
      "ule": 5784,
      "vih": 5785,
      "ijet": 5786,
      "gori": 5787,
      "cir": 5788,
      "vodo": 5789,
      "eden": 5790,
      "ranič": 5791,
      "ažno": 5792,
      "reak": 5793,
      "apadn": 5794,
      "vnj": 5795,
      "zma": 5796,
      "žao": 5797,
      "ićem": 5798,
      "duć": 5799,
      "lesn": 5800,
      "src": 5801,
      "ford": 5802,
      "250": 5803,
      "junak": 5804,
      "iod": 5805,
      "odo": 5806,
      "inju": 5807,
      "liber": 5808,
      "adov": 5809,
      "fot": 5810,
      "elic": 5811,
      "hib": 5812,
      "eke": 5813,
      "rto": 5814,
      "raja": 5815,
      "demi": 5816,
      "61": 5817,
      "dj": 5818,
      "ny": 5819,
      "imal": 5820,
      "imun": 5821,
      "ilij": 5822,
      "ajm": 5823,
      "nuž": 5824,
      "asi": 5825,
      "ijun": 5826,
      "zicij": 5827,
      "rašn": 5828,
      "dmah": 5829,
      "jeka": 5830,
      "jenih": 5831,
      "stri": 5832,
      "sup": 5833,
      "##rel": 5834,
      "tica": 5835,
      "lija": 5836,
      "obe": 5837,
      "mel": 5838,
      "jab": 5839,
      "paz": 5840,
      "mješ": 5841,
      "ofi": 5842,
      "tefan": 5843,
      "dijsk": 5844,
      "eša": 5845,
      "otel": 5846,
      "ćer": 5847,
      "niko": 5848,
      "tolik": 5849,
      "tone": 5850,
      "tike": 5851,
      "mađa": 5852,
      "osad": 5853,
      "njava": 5854,
      "jesm": 5855,
      "ndar": 5856,
      "eyen": 5857,
      "eze": 5858,
      "ktor": 5859,
      "sol": 5860,
      "##ing": 5861,
      "ovla": 5862,
      "anda": 5863,
      "tata": 5864,
      "opl": 5865,
      "čest": 5866,
      "sio": 5867,
      "stin": 5868,
      "acio": 5869,
      "tory": 5870,
      "jasan": 5871,
      "azit": 5872,
      "eviz": 5873,
      "hajd": 5874,
      "epo": 5875,
      "etov": 5876,
      "žno": 5877,
      "zač": 5878,
      "koef": 5879,
      "sak": 5880,
      "tolj": 5881,
      "ladim": 5882,
      "ijesn": 5883,
      "juće": 5884,
      "ojk": 5885,
      "avam": 5886,
      "novin": 5887,
      "baka": 5888,
      "elin": 5889,
      "uski": 5890,
      "kose": 5891,
      "enni": 5892,
      "oge": 5893,
      "aliti": 5894,
      "ručn": 5895,
      "aus": 5896,
      "grani": 5897,
      "##1280": 5898,
      "pup": 5899,
      "##480": 5900,
      "##640": 5901,
      "##340": 5902,
      "oduz": 5903,
      "tel": 5904,
      "mao": 5905,
      "oban": 5906,
      "jutr": 5907,
      "argu": 5908,
      "##bat": 5909,
      "kutij": 5910,
      "atk": 5911,
      "inici": 5912,
      "cean": 5913,
      "aditi": 5914,
      "eroj": 5915,
      "ometa": 5916,
      "refer": 5917,
      "##1024": 5918,
      "##mer": 5919,
      "nan": 5920,
      "nira": 5921,
      "enda": 5922,
      "ljak": 5923,
      "stop": 5924,
      "oler": 5925,
      "ebi": 5926,
      "šava": 5927,
      "nstr": 5928,
      "63": 5929,
      "dže": 5930,
      "##os": 5931,
      "datk": 5932,
      "razli": 5933,
      "ish": 5934,
      "orna": 5935,
      "tul": 5936,
      "imov": 5937,
      "videa": 5938,
      "44": 5939,
      "62": 5940,
      "85": 5941,
      "td": 5942,
      "yj": 5943,
      "kota": 5944,
      "omen": 5945,
      "##vid": 5946,
      "aklj": 5947,
      "predn": 5948,
      "rijeb": 5949,
      "abij": 5950,
      "edio": 5951,
      "rimje": 5952,
      "orban": 5953,
      "46": 5954,
      "mü": 5955,
      "vođen": 5956,
      "puc": 5957,
      "emin": 5958,
      "dez": 5959,
      "ader": 5960,
      "egl": 5961,
      "ivak": 5962,
      "arić": 5963,
      "oruč": 5964,
      "čuo": 5965,
      "ring": 5966,
      "nterv": 5967,
      "entat": 5968,
      "47": 5969,
      "fan": 5970,
      "rder": 5971,
      "zak": 5972,
      "donos": 5973,
      "kas": 5974,
      "enko": 5975,
      "stavu": 5976,
      "mirk": 5977,
      "rošl": 5978,
      "odaje": 5979,
      "cipel": 5980,
      "ijeko": 5981,
      "lot": 5982,
      "skoč": 5983,
      "trac": 5984,
      "hot": 5985,
      "zadin": 5986,
      "mv": 5987,
      "jele": 5988,
      "dov": 5989,
      "kaln": 5990,
      "enov": 5991,
      "alm": 5992,
      "ril": 5993,
      "bok": 5994,
      "dip": 5995,
      "emije": 5996,
      "deći": 5997,
      "lemen": 5998,
      "edom": 5999,
      "ašen": 6000,
      "metr": 6001,
      "dvij": 6002,
      "jivo": 6003,
      "oruk": 6004,
      "ambur": 6005,
      "pitan": 6006,
      "argum": 6007,
      "hon": 6008,
      "irn": 6009,
      "učn": 6010,
      "loj": 6011,
      "alk": 6012,
      "##nej": 6013,
      "igrat": 6014,
      "žid": 6015,
      "slič": 6016,
      "hom": 6017,
      "pije": 6018,
      "ušta": 6019,
      "yl": 6020,
      "zau": 6021,
      "riva": 6022,
      "orč": 6023,
      "iram": 6024,
      "size": 6025,
      "čaj": 6026,
      "odila": 6027,
      "ntern": 6028,
      "kv": 6029,
      "plje": 6030,
      "##ner": 6031,
      "jeđ": 6032,
      "nag": 6033,
      "niku": 6034,
      "kale": 6035,
      "preu": 6036,
      "pret": 6037,
      "imanj": 6038,
      "tas": 6039,
      "arhi": 6040,
      "kib": 6041,
      "žirij": 6042,
      "stim": 6043,
      "loški": 6044,
      "##_2719884": 6045,
      "yout": 6046,
      "ojoj": 6047,
      "58": 6048,
      "atom": 6049,
      "fur": 6050,
      "##fi": 6051,
      "kolik": 6052,
      "robot": 6053,
      "jack": 6054,
      "arc": 6055,
      "arda": 6056,
      "ovic": 6057,
      "avlja": 6058,
      "##ull": 6059,
      "ubil": 6060,
      "orija": 6061,
      "vani": 6062,
      "azali": 6063,
      "ernet": 6064,
      "pdv": 6065,
      "95": 6066,
      "air": 6067,
      "aes": 6068,
      "oal": 6069,
      "ulo": 6070,
      "ženj": 6071,
      "##yer": 6072,
      "jeni": 6073,
      "reh": 6074,
      "jazz": 6075,
      "avni": 6076,
      "učer": 6077,
      "mont": 6078,
      "by": 6079,
      "ien": 6080,
      "##bul": 6081,
      "raju": 6082,
      "odine": 6083,
      "tol": 6084,
      "vjeru": 6085,
      "ekre": 6086,
      "imon": 6087,
      "popr": 6088,
      "vrati": 6089,
      "osk": 6090,
      "uće": 6091,
      "žd": 6092,
      "nate": 6093,
      "zacij": 6094,
      "nok": 6095,
      "any": 6096,
      "##ric": 6097,
      "tiku": 6098,
      "item": 6099,
      "tral": 6100,
      "olja": 6101,
      "73": 6102,
      "djed": 6103,
      "žut": 6104,
      "##hor": 6105,
      "nači": 6106,
      "pona": 6107,
      "japan": 6108,
      "etr": 6109,
      "minus": 6110,
      "azan": 6111,
      "rofi": 6112,
      "lavni": 6113,
      "ojic": 6114,
      "66": 6115,
      "bra": 6116,
      "nde": 6117,
      "soba": 6118,
      "odri": 6119,
      "kab": 6120,
      "lih": 6121,
      "ijeka": 6122,
      "ormal": 6123,
      "rijem": 6124,
      "ranit": 6125,
      "sdss": 6126,
      "ugar": 6127,
      "eorge": 6128,
      "pobje": 6129,
      "cn": 6130,
      "dro": 6131,
      "kne": 6132,
      "lm": 6133,
      "žan": 6134,
      "žar": 6135,
      "ramen": 6136,
      "lack": 6137,
      "mesa": 6138,
      "znal": 6139,
      "ašnji": 6140,
      "tpis": 6141,
      "antan": 6142,
      "očit": 6143,
      "dbe": 6144,
      "eipz": 6145,
      "trbuh": 6146,
      "erat": 6147,
      "ld": 6148,
      "nau": 6149,
      "daš": 6150,
      "tipe": 6151,
      "rović": 6152,
      "pur": 6153,
      "dikt": 6154,
      "trp": 6155,
      "azal": 6156,
      "bač": 6157,
      "anih": 6158,
      "erac": 6159,
      "43": 6160,
      "greb": 6161,
      "rma": 6162,
      "day": 6163,
      "##lon": 6164,
      "arti": 6165,
      "##ill": 6166,
      "asnik": 6167,
      "imes": 6168,
      "erit": 6169,
      "orčul": 6170,
      "67": 6171,
      "aga": 6172,
      "rnj": 6173,
      "rke": 6174,
      "jec": 6175,
      "niran": 6176,
      "ontan": 6177,
      "ande": 6178,
      "ijene": 6179,
      "rica": 6180,
      "ričk": 6181,
      "beton": 6182,
      "manja": 6183,
      "asmin": 6184,
      "guš": 6185,
      "ces": 6186,
      "afe": 6187,
      "alnoj": 6188,
      "ekuje": 6189,
      "41": 6190,
      "aer": 6191,
      "igao": 6192,
      "oživ": 6193,
      "inska": 6194,
      "ancij": 6195,
      "iren": 6196,
      "iii": 6197,
      "mün": 6198,
      "eča": 6199,
      "irov": 6200,
      "ox": 6201,
      "olak": 6202,
      "##th": 6203,
      "##fer": 6204,
      "##von": 6205,
      "anije": 6206,
      "lažu": 6207,
      "mili": 6208,
      "arhe": 6209,
      "tud": 6210,
      "trž": 6211,
      "trije": 6212,
      "sobi": 6213,
      "54": 6214,
      "kir": 6215,
      "ođen": 6216,
      "rgu": 6217,
      "jevo": 6218,
      "##are": 6219,
      "##ari": 6220,
      "ony": 6221,
      "omet": 6222,
      "lima": 6223,
      "lata": 6224,
      "logi": 6225,
      "gaja": 6226,
      "ljam": 6227,
      "aglas": 6228,
      "hop": 6229,
      "rve": 6230,
      "nivo": 6231,
      "mačk": 6232,
      "rog": 6233,
      "jajn": 6234,
      "joe": 6235,
      "mur": 6236,
      "nuk": 6237,
      "manek": 6238,
      "asl": 6239,
      "slug": 6240,
      "bah": 6241,
      "ećim": 6242,
      "jones": 6243,
      "kotač": 6244,
      "78": 6245,
      "ament": 6246,
      "ptu": 6247,
      "rdo": 6248,
      "##mf": 6249,
      "raks": 6250,
      "suo": 6251,
      "ogat": 6252,
      "ovis": 6253,
      "urnej": 6254,
      "rane": 6255,
      "homas": 6256,
      "išten": 6257,
      "ezi": 6258,
      "jeme": 6259,
      "enč": 6260,
      "lokal": 6261,
      "olf": 6262,
      "milen": 6263,
      "šuma": 6264,
      "74": 6265,
      "##cmi": 6266,
      "polo": 6267,
      "anat": 6268,
      "##utt": 6269,
      "upci": 6270,
      "ingl": 6271,
      "dnev": 6272,
      "eror": 6273,
      "ekat": 6274,
      "tepen": 6275,
      "arheo": 6276,
      "52": 6277,
      "bm": 6278,
      "edic": 6279,
      "uko": 6280,
      "wim": 6281,
      "zije": 6282,
      "žj": 6283,
      "namo": 6284,
      "poma": 6285,
      "##rač": 6286,
      "sela": 6287,
      "izra": 6288,
      "teta": 6289,
      "tiran": 6290,
      "laži": 6291,
      "arci": 6292,
      "armen": 6293,
      "rio": 6294,
      "bos": 6295,
      "rand": 6296,
      "field": 6297,
      "debit": 6298,
      "ularn": 6299,
      "anuel": 6300,
      "68": 6301,
      "kt": 6302,
      "ovat": 6303,
      "panj": 6304,
      "žem": 6305,
      "žava": 6306,
      "veg": 6307,
      "erna": 6308,
      "etko": 6309,
      "apr": 6310,
      "jiti": 6311,
      "ribar": 6312,
      "nicol": 6313,
      "ergij": 6314,
      "izdan": 6315,
      "gužve": 6316,
      "87": 6317,
      "kvi": 6318,
      "zvon": 6319,
      "onna": 6320,
      "odje": 6321,
      "arjan": 6322,
      "riju": 6323,
      "azn": 6324,
      "buk": 6325,
      "rnoj": 6326,
      "77": 6327,
      "avr": 6328,
      "ešto": 6329,
      "rla": 6330,
      "kabin": 6331,
      "teo": 6332,
      "##tam": 6333,
      "lamen": 6334,
      "laža": 6335,
      "iska": 6336,
      "adom": 6337,
      "toper": 6338,
      "ujk": 6339,
      "odala": 6340,
      "panel": 6341,
      "220x": 6342,
      "340x": 6343,
      "480x": 6344,
      "640x": 6345,
      "76": 6346,
      "ojed": 6347,
      "šn": 6348,
      "##_1280": 6349,
      "##_480": 6350,
      "##_640": 6351,
      "##_340": 6352,
      "##_1024": 6353,
      "odl": 6354,
      "##mon": 6355,
      "maz": 6356,
      "ijena": 6357,
      "arsko": 6358,
      "ersk": 6359,
      "kud": 6360,
      "stupi": 6361,
      "asni": 6362,
      "mart": 6363,
      "1024": 6364,
      "varn": 6365,
      "1280x": 6366,
      "grafi": 6367,
      "##_220": 6368,
      "zaslu": 6369,
      "ačica": 6370,
      "spore": 6371,
      "ušev": 6372,
      "1024x": 6373,
      "a1": 6374,
      "dmor": 6375,
      "slan": 6376,
      "yan": 6377,
      "šenj": 6378,
      "jero": 6379,
      "biln": 6380,
      "izi": 6381,
      "lara": 6382,
      "vocmi": 6383,
      "vao": 6384,
      "##gal": 6385,
      "oze": 6386,
      "rans": 6387,
      "miss": 6388,
      "adaju": 6389,
      "ožar": 6390,
      "dužn": 6391,
      "ujan": 6392,
      "ojih": 6393,
      "humor": 6394,
      "outh": 6395,
      "jmanj": 6396,
      "rejt": 6397,
      "51": 6398,
      "ave": 6399,
      "aton": 6400,
      "tvu": 6401,
      "##son": 6402,
      "jeda": 6403,
      "nak": 6404,
      "##ram": 6405,
      "strok": 6406,
      "##ril": 6407,
      "atan": 6408,
      "kriti": 6409,
      "slobo": 6410,
      "aria": 6411,
      "očel": 6412,
      "700": 6413,
      "šarm": 6414,
      "arhiv": 6415,
      "rajuć": 6416,
      "knež": 6417,
      "aerod": 6418,
      "nn": 6419,
      "oid": 6420,
      "ple": 6421,
      "psa": 6422,
      "##ld": 6423,
      "karat": 6424,
      "##ske": 6425,
      "ajl": 6426,
      "opra": 6427,
      "asan": 6428,
      "dina": 6429,
      "gušt": 6430,
      "vanju": 6431,
      "limit": 6432,
      "rugom": 6433,
      "dahn": 6434,
      "##_2720906": 6435,
      "71": 6436,
      "uran": 6437,
      "##zu": 6438,
      "entu": 6439,
      "rođe": 6440,
      "vati": 6441,
      "otti": 6442,
      "pus": 6443,
      "##kul": 6444,
      "gađ": 6445,
      "azlog": 6446,
      "eksa": 6447,
      "htv": 6448,
      "cerem": 6449,
      "azao": 6450,
      "anjur": 6451,
      "79": 6452,
      "eže": 6453,
      "idi": 6454,
      "sok": 6455,
      "jevoj": 6456,
      "koli": 6457,
      "ivu": 6458,
      "##sic": 6459,
      "hađa": 6460,
      "midž": 6461,
      "49": 6462,
      "lg": 6463,
      "otu": 6464,
      "##ez": 6465,
      "dama": 6466,
      "ente": 6467,
      "ovč": 6468,
      "ogi": 6469,
      "rira": 6470,
      "luba": 6471,
      "oruss": 6472,
      "oziv": 6473,
      "oseb": 6474,
      "uvar": 6475,
      "nast": 6476,
      "koz": 6477,
      "enir": 6478,
      "taln": 6479,
      "isac": 6480,
      "opi": 6481,
      "olod": 6482,
      "ads": 6483,
      "ids": 6484,
      "hak": 6485,
      "psg": 6486,
      "feder": 6487,
      "69": 6488,
      "ajed": 6489,
      "ute": 6490,
      "zr": 6491,
      "zmi": 6492,
      "##ust": 6493,
      "##ps": 6494,
      "zal": 6495,
      "izu": 6496,
      "anbul": 6497,
      "prip": 6498,
      "mul": 6499,
      "atar": 6500,
      "emokr": 6501,
      "ozic": 6502,
      "elon": 6503,
      "ct": 6504,
      "ejn": 6505,
      "ecij": 6506,
      "fut": 6507,
      "mut": 6508,
      "nives": 6509,
      "ladu": 6510,
      "lova": 6511,
      "najb": 6512,
      "eck": 6513,
      "53": 6514,
      "gest": 6515,
      "jma": 6516,
      "##mit": 6517,
      "nem": 6518,
      "reet": 6519,
      "ach": 6520,
      "##viš": 6521,
      "ćeš": 6522,
      "jure": 6523,
      "alif": 6524,
      "ijum": 6525,
      "krila": 6526,
      "entil": 6527,
      "edino": 6528,
      "kcija": 6529,
      "ejner": 6530,
      "ajev": 6531,
      "but": 6532,
      "ekuj": 6533,
      "mg": 6534,
      "ww": 6535,
      "##dn": 6536,
      "##dy": 6537,
      "dav": 6538,
      "liš": 6539,
      "ijelu": 6540,
      "golem": 6541,
      "isan": 6542,
      "ajp": 6543,
      "ajviš": 6544,
      "dima": 6545,
      "##dum": 6546,
      "kur": 6547,
      "mina": 6548,
      "ilom": 6549,
      "ull": 6550,
      "jans": 6551,
      "you": 6552,
      "rugog": 6553,
      "bmw": 6554,
      "eduk": 6555,
      "nskoj": 6556,
      "orat": 6557,
      "vrij": 6558,
      "##art": 6559,
      "dak": 6560,
      "rič": 6561,
      "opust": 6562,
      "eth": 6563,
      "##ach": 6564,
      "unav": 6565,
      "ranka": 6566,
      "way": 6567,
      "nedav": 6568,
      "ačaj": 6569,
      "disa": 6570,
      "epa": 6571,
      "him": 6572,
      "ilu": 6573,
      "uša": 6574,
      "ža": 6575,
      "nal": 6576,
      "odru": 6577,
      "bilje": 6578,
      "super": 6579,
      "roup": 6580,
      "skor": 6581,
      "dejan": 6582,
      "utro": 6583,
      "stina": 6584,
      "rana": 6585,
      "okaz": 6586,
      "zgod": 6587,
      "tivan": 6588,
      "štaj": 6589,
      "wift": 6590,
      "onovn": 6591,
      "jenim": 6592,
      "poš": 6593,
      "kožu": 6594,
      "ramp": 6595,
      "init": 6596,
      "vim": 6597,
      "miti": 6598,
      "lovi": 6599,
      "ijte": 6600,
      "ostr": 6601,
      "debat": 6602,
      "icio": 6603,
      "olan": 6604,
      "adin": 6605,
      "baj": 6606,
      "čima": 6607,
      "how": 6608,
      "osuđ": 6609,
      "sklju": 6610,
      "cnn": 6611,
      "eal": 6612,
      "otn": 6613,
      "wil": 6614,
      "ye": 6615,
      "enin": 6616,
      "mati": 6617,
      "##rut": 6618,
      "jaki": 6619,
      "voju": 6620,
      "rih": 6621,
      "kira": 6622,
      "orio": 6623,
      "šip": 6624,
      "initi": 6625,
      "iber": 6626,
      "ambl": 6627,
      "eseci": 6628,
      "world": 6629,
      "uch": 6630,
      "pomi": 6631,
      "prist": 6632,
      "tati": 6633,
      "jul": 6634,
      "hrva": 6635,
      "ric": 6636,
      "itt": 6637,
      "old": 6638,
      "egz": 6639,
      "evjer": 6640,
      "grb": 6641,
      "piti": 6642,
      "užno": 6643,
      "800": 6644,
      "žuti": 6645,
      "biljn": 6646,
      "sudio": 6647,
      "57": 6648,
      "erov": 6649,
      "orak": 6650,
      "win": 6651,
      "##jeg": 6652,
      "rači": 6653,
      "osi": 6654,
      "tate": 6655,
      "olici": 6656,
      "nuta": 6657,
      "čiti": 6658,
      "čili": 6659,
      "ačkom": 6660,
      "ajući": 6661,
      "digra": 6662,
      "56": 6663,
      "gne": 6664,
      "orez": 6665,
      "pc": 6666,
      "wc": 6667,
      "##ya": 6668,
      "kole": 6669,
      "anira": 6670,
      "mast": 6671,
      "vić": 6672,
      "roc": 6673,
      "vali": 6674,
      "isin": 6675,
      "empe": 6676,
      "tura": 6677,
      "okru": 6678,
      "ilor": 6679,
      "okal": 6680,
      "jić": 6681,
      "uop": 6682,
      "podrš": 6683,
      "hony": 6684,
      "59": 6685,
      "92": 6686,
      "dni": 6687,
      "kve": 6688,
      "lb": 6689,
      "ns": 6690,
      "nol": 6691,
      "provo": 6692,
      "mokr": 6693,
      "ogl": 6694,
      "mia": 6695,
      "akš": 6696,
      "rišt": 6697,
      "ritam": 6698,
      "eufor": 6699,
      "glumi": 6700,
      "soa": 6701,
      "evid": 6702,
      "udara": 6703,
      "##mink": 6704,
      "urger": 6705,
      "nske": 6706,
      "edini": 6707,
      "kw": 6708,
      "rgan": 6709,
      "ume": 6710,
      "ujn": 6711,
      "šmink": 6712,
      "žet": 6713,
      "kono": 6714,
      "ald": 6715,
      "istit": 6716,
      "putov": 6717,
      "esp": 6718,
      "unk": 6719,
      "umnj": 6720,
      "eric": 6721,
      "ibl": 6722,
      "osječ": 6723,
      "debel": 6724,
      "dluč": 6725,
      "adona": 6726,
      "hlađ": 6727,
      "gem": 6728,
      "ipo": 6729,
      "jski": 6730,
      "tkom": 6731,
      "vsk": 6732,
      "##ans": 6733,
      "sev": 6734,
      "rame": 6735,
      "ospo": 6736,
      "lah": 6737,
      "ijeta": 6738,
      "ljem": 6739,
      "deleg": 6740,
      "čeg": 6741,
      "podn": 6742,
      "olz": 6743,
      "ćuj": 6744,
      "litič": 6745,
      "kolač": 6746,
      "rosin": 6747,
      "sj": 6748,
      "uac": 6749,
      "uđe": 6750,
      "##tir": 6751,
      "zao": 6752,
      "##jak": 6753,
      "##uter": 6754,
      "erm": 6755,
      "turn": 6756,
      "češ": 6757,
      "posv": 6758,
      "trič": 6759,
      "čica": 6760,
      "##nus": 6761,
      "potp": 6762,
      "omać": 6763,
      "soci": 6764,
      "nizac": 6765,
      "uacij": 6766,
      "hy": 6767,
      "jnih": 6768,
      "zom": 6769,
      "##let": 6770,
      "taci": 6771,
      "dež": 6772,
      "##nes": 6773,
      "mary": 6774,
      "pehar": 6775,
      "načel": 6776,
      "inuti": 6777,
      "aff": 6778,
      "hip": 6779,
      "edija": 6780,
      "rakse": 6781,
      "arun": 6782,
      "obolj": 6783,
      "odruč": 6784,
      ".,": 6785,
      "91": 6786,
      "get": 6787,
      "tlj": 6788,
      "zet": 6789,
      "anom": 6790,
      "##mot": 6791,
      "iot": 6792,
      "jaju": 6793,
      "alp": 6794,
      "opg": 6795,
      "otten": 6796,
      "ruži": 6797,
      "svje": 6798,
      "asen": 6799,
      "ažur": 6800,
      "menti": 6801,
      "oton": 6802,
      "84": 6803,
      "99": 6804,
      "sor": 6805,
      "sit": 6806,
      "tz": 6807,
      "jeste": 6808,
      "doč": 6809,
      "onst": 6810,
      "odgo": 6811,
      "terij": 6812,
      "osv": 6813,
      "vest": 6814,
      "ilip": 6815,
      "ivna": 6816,
      "kuri": 6817,
      "ovolj": 6818,
      "betes": 6819,
      "posti": 6820,
      "kadet": 6821,
      "fiks": 6822,
      "umjet": 6823,
      "kloni": 6824,
      "angel": 6825,
      "aller": 6826,
      "nfo": 6827,
      "rvom": 6828,
      "alans": 6829,
      "opez": 6830,
      "hgss": 6831,
      "čovje": 6832,
      "erez": 6833,
      "ošk": 6834,
      "ćor": 6835,
      "žit": 6836,
      "nili": 6837,
      "seta": 6838,
      "onac": 6839,
      "rekt": 6840,
      "ream": 6841,
      "jaj": 6842,
      "alju": 6843,
      "orga": 6844,
      "dea": 6845,
      "deve": 6846,
      "urd": 6847,
      "orili": 6848,
      "kulen": 6849,
      "isala": 6850,
      "antis": 6851,
      "lakat": 6852,
      "www": 6853,
      "72": 6854,
      "tta": 6855,
      "toje": 6856,
      "mala": 6857,
      "ogli": 6858,
      "##kir": 6859,
      "gaz": 6860,
      "abi": 6861,
      "oril": 6862,
      "ojat": 6863,
      "otog": 6864,
      "obila": 6865,
      "dalma": 6866,
      "učili": 6867,
      "rašin": 6868,
      "deman": 6869,
      "union": 6870,
      "ound": 6871,
      "lužb": 6872,
      "dm": 6873,
      "fred": 6874,
      "hz": 6875,
      "lla": 6876,
      "rm": 6877,
      "šv": 6878,
      "##ry": 6879,
      "ral": 6880,
      "ovni": 6881,
      "vice": 6882,
      "gog": 6883,
      "ropa": 6884,
      "##mel": 6885,
      "dic": 6886,
      "upi": 6887,
      "esno": 6888,
      "duha": 6889,
      "nuđ": 6890,
      "udan": 6891,
      "krap": 6892,
      "arišk": 6893,
      "ummit": 6894,
      "apre": 6895,
      "mode": 6896,
      "vrtka": 6897,
      "ahval": 6898,
      "##_2719883": 6899,
      "teph": 6900,
      "nevni": 6901,
      "ae": 6902,
      "klik": 6903,
      "ls": 6904,
      "tski": 6905,
      "zno": 6906,
      "##gen": 6907,
      "nave": 6908,
      "rako": 6909,
      "morat": 6910,
      "veu": 6911,
      "njenj": 6912,
      "rosto": 6913,
      "ross": 6914,
      "vora": 6915,
      "voja": 6916,
      "past": 6917,
      "riš": 6918,
      "opas": 6919,
      "ivš": 6920,
      "upnik": 6921,
      "stag": 6922,
      "dej": 6923,
      "sira": 6924,
      "ziti": 6925,
      "bad": 6926,
      "ape": 6927,
      "guma": 6928,
      "guver": 6929,
      "šes": 6930,
      "afp": 6931,
      "vinsk": 6932,
      "ekad": 6933,
      "hep": 6934,
      "duhan": 6935,
      "čenje": 6936,
      "rdn": 6937,
      "98": 6938,
      "janj": 6939,
      "naro": 6940,
      "izne": 6941,
      "##rig": 6942,
      "mašt": 6943,
      "vakv": 6944,
      "ovar": 6945,
      "iča": 6946,
      "kuš": 6947,
      "olks": 6948,
      "učio": 6949,
      "adon": 6950,
      "ozo": 6951,
      "bake": 6952,
      "timul": 6953,
      "skus": 6954,
      "veoma": 6955,
      "mith": 6956,
      "rajč": 6957,
      "urbul": 6958,
      "raksa": 6959,
      "93": 6960,
      "ađu": 6961,
      "hzz": 6962,
      "jva": 6963,
      "oša": 6964,
      "žil": 6965,
      "raum": 6966,
      "omi": 6967,
      "enzi": 6968,
      "rovi": 6969,
      "jast": 6970,
      "erin": 6971,
      "ajni": 6972,
      "##ell": 6973,
      "djeti": 6974,
      "avlj": 6975,
      "beka": 6976,
      "zič": 6977,
      "sluš": 6978,
      "etit": 6979,
      "vršil": 6980,
      "napre": 6981,
      "grob": 6982,
      "struč": 6983,
      "ouis": 6984,
      "aranž": 6985,
      "rojni": 6986,
      "81": 6987,
      "avod": 6988,
      "ršk": 6989,
      "vij": 6990,
      "##ču": 6991,
      "rora": 6992,
      "arodn": 6993,
      "emv": 6994,
      "uzro": 6995,
      "ikan": 6996,
      "lev": 6997,
      "išnj": 6998,
      "asu": 6999,
      "ath": 7000,
      "anjk": 7001,
      "nchor": 7002,
      "ećih": 7003,
      "heig": 7004,
      "mper": 7005,
      "rgij": 7006,
      "zuba": 7007,
      "zube": 7008,
      "ttach": 7009,
      "cert": 7010,
      "dw": 7011,
      "dla": 7012,
      "dnij": 7013,
      "dlak": 7014,
      "oa": 7015,
      "vnim": 7016,
      "##gn": 7017,
      "##gor": 7018,
      "zav": 7019,
      "tir": 7020,
      "upl": 7021,
      "minu": 7022,
      "mann": 7023,
      "akad": 7024,
      "ošnj": 7025,
      "arbon": 7026,
      "lektr": 7027,
      "himn": 7028,
      "arok": 7029,
      "fl": 7030,
      "fal": 7031,
      "gul": 7032,
      "zdr": 7033,
      "šk": 7034,
      "##ie": 7035,
      "anji": 7036,
      "##tat": 7037,
      "prik": 7038,
      "isal": 7039,
      "ivno": 7040,
      "voden": 7041,
      "alac": 7042,
      "afer": 7043,
      "hvati": 7044,
      "email": 7045,
      "nerg": 7046,
      "own": 7047,
      "fam": 7048,
      "has": 7049,
      "mma": 7050,
      "sme": 7051,
      "slim": 7052,
      "##ug": 7053,
      "##fr": 7054,
      "##kn": 7055,
      "sed": 7056,
      "big": 7057,
      "suđe": 7058,
      "reen": 7059,
      "ogn": 7060,
      "mic": 7061,
      "paid": 7062,
      "rie": 7063,
      "orta": 7064,
      "ajd": 7065,
      "diti": 7066,
      "svoji": 7067,
      "sima": 7068,
      "ubl": 7069,
      "ies": 7070,
      "jamč": 7071,
      "biser": 7072,
      "00": 7073,
      "cc": 7074,
      "ivat": 7075,
      "ror": 7076,
      "wta": 7077,
      "nisi": 7078,
      "raci": 7079,
      "alkon": 7080,
      "##gus": 7081,
      "igan": 7082,
      "##dul": 7083,
      "irat": 7084,
      "mus": 7085,
      "krenu": 7086,
      "kons": 7087,
      "bap": 7088,
      "bayer": 7089,
      "ulsk": 7090,
      "trani": 7091,
      "lina": 7092,
      "gume": 7093,
      "zlož": 7094,
      "eron": 7095,
      "dizel": 7096,
      "štiti": 7097,
      "83": 7098,
      "kš": 7099,
      "ngu": 7100,
      "rgo": 7101,
      "rba": 7102,
      "tf": 7103,
      "tte": 7104,
      "war": 7105,
      "##14": 7106,
      "jeđe": 7107,
      "##tik": 7108,
      "kaj": 7109,
      "tač": 7110,
      "milit": 7111,
      "pati": 7112,
      "arca": 7113,
      "ria": 7114,
      "vrti": 7115,
      "##eln": 7116,
      "ivne": 7117,
      "azar": 7118,
      "aznic": 7119,
      "abro": 7120,
      "ubr": 7121,
      "trog": 7122,
      "iljen": 7123,
      "oft": 7124,
      "hig": 7125,
      "avnom": 7126,
      "dnja": 7127,
      "ipe": 7128,
      "jim": 7129,
      "mm": 7130,
      "pjel": 7131,
      "tla": 7132,
      "wh": 7133,
      "ćut": 7134,
      "##her": 7135,
      "odni": 7136,
      "omun": 7137,
      "tite": 7138,
      "rovn": 7139,
      "erd": 7140,
      "cigar": 7141,
      "djev": 7142,
      "iči": 7143,
      "radov": 7144,
      "utvr": 7145,
      "olno": 7146,
      "stitu": 7147,
      "irk": 7148,
      "karc": 7149,
      "anjak": 7150,
      "elil": 7151,
      "vinar": 7152,
      "ružen": 7153,
      "dućan": 7154,
      "konom": 7155,
      "82": 7156,
      "96": 7157,
      "cca": 7158,
      "hav": 7159,
      "nko": 7160,
      "rzi": 7161,
      "đi": 7162,
      "##ore": 7163,
      "naci": 7164,
      "pres": 7165,
      "tigl": 7166,
      "vike": 7167,
      "isnik": 7168,
      "oviti": 7169,
      "orsk": 7170,
      "use": 7171,
      "dekan": 7172,
      "kumen": 7173,
      "tras": 7174,
      "bek": 7175,
      "gradn": 7176,
      "bun": 7177,
      "avim": 7178,
      "evak": 7179,
      "kvadr": 7180,
      "gard": 7181,
      "šansa": 7182,
      "geot": 7183,
      "ničko": 7184,
      "bappe": 7185,
      "bavn": 7186,
      "cal": 7187,
      "ngle": 7188,
      "##ras": 7189,
      "koša": 7190,
      "daci": 7191,
      "nec": 7192,
      "ston": 7193,
      "rativ": 7194,
      "inko": 7195,
      "##kad": 7196,
      "vac": 7197,
      "dirig": 7198,
      "irane": 7199,
      "abio": 7200,
      "kant": 7201,
      "ačka": 7202,
      "gusto": 7203,
      "trol": 7204,
      "olom": 7205,
      "ušan": 7206,
      "180": 7207,
      "aht": 7208,
      "fere": 7209,
      "with": 7210,
      "lijte": 7211,
      "eje": 7212,
      "lk": 7213,
      "usn": 7214,
      "##ep": 7215,
      "jete": 7216,
      "dalo": 7217,
      "##rie": 7218,
      "ogom": 7219,
      "sky": 7220,
      "ruj": 7221,
      "nuto": 7222,
      "aura": 7223,
      "inger": 7224,
      "chen": 7225,
      "ebast": 7226,
      "šak": 7227,
      "130": 7228,
      "zbjeg": 7229,
      "gart": 7230,
      "učila": 7231,
      "raper": 7232,
      "litv": 7233,
      "udes": 7234,
      "apple": 7235,
      "eja": 7236,
      "evn": 7237,
      "ead": 7238,
      "elov": 7239,
      "iko": 7240,
      "knj": 7241,
      "nke": 7242,
      "rje": 7243,
      "tutt": 7244,
      "##fon": 7245,
      "icije": 7246,
      "mađ": 7247,
      "lasa": 7248,
      "jake": 7249,
      "paok": 7250,
      "arter": 7251,
      "erti": 7252,
      "vjeta": 7253,
      "sip": 7254,
      "ekli": 7255,
      "padni": 7256,
      "ezij": 7257,
      "after": 7258,
      "štap": 7259,
      "rskom": 7260,
      "eđi": 7261,
      "znena": 7262,
      "ptuž": 7263,
      "olksw": 7264,
      "etom": 7265,
      "hob": 7266,
      "wol": 7267,
      "žin": 7268,
      "nož": 7269,
      "ansko": 7270,
      "osan": 7271,
      "imit": 7272,
      "meda": 7273,
      "isi": 7274,
      "diš": 7275,
      "stab": 7276,
      "muk": 7277,
      "udru": 7278,
      "atj": 7279,
      "peo": 7280,
      "javu": 7281,
      "ubot": 7282,
      "haker": 7283,
      "ield": 7284,
      "atal": 7285,
      "hs": 7286,
      "mlj": 7287,
      "oin": 7288,
      "vni": 7289,
      "xi": 7290,
      "zul": 7291,
      "čanj": 7292,
      "##zer": 7293,
      "sasta": 7294,
      "tici": 7295,
      "life": 7296,
      "imul": 7297,
      "višk": 7298,
      "iješi": 7299,
      "jah": 7300,
      "arski": 7301,
      "logan": 7302,
      "lock": 7303,
      "ovito": 7304,
      "puh": 7305,
      "=>)": 7306,
      "etno": 7307,
      "aur": 7308,
      "amur": 7309,
      "ubi": 7310,
      "food": 7311,
      "elek": 7312,
      "link": 7313,
      "epe": 7314,
      "epar": 7315,
      "cure": 7316,
      "fort": 7317,
      "tinu": 7318,
      "otek": 7319,
      "rbij": 7320,
      "odina": 7321,
      "džep": 7322,
      "000": 7323,
      "ajer": 7324,
      "bre": 7325,
      "cil": 7326,
      "eim": 7327,
      "sci": 7328,
      "rece": 7329,
      "anel": 7330,
      "ijela": 7331,
      "emlje": 7332,
      "dev": 7333,
      "luč": 7334,
      "##šak": 7335,
      "poslj": 7336,
      "bas": 7337,
      "oža": 7338,
      "rofes": 7339,
      "cott": 7340,
      "nskih": 7341,
      "zmij": 7342,
      "avat": 7343,
      "evr": 7344,
      "ikom": 7345,
      "ojen": 7346,
      "zen": 7347,
      "poja": 7348,
      "dač": 7349,
      "kau": 7350,
      "toar": 7351,
      "ack": 7352,
      "##nat": 7353,
      "riti": 7354,
      "ergi": 7355,
      "vrd": 7356,
      "bot": 7357,
      "ister": 7358,
      "ture": 7359,
      "leck": 7360,
      "aver": 7361,
      "trip": 7362,
      "stig": 7363,
      "grl": 7364,
      "baze": 7365,
      "čiv": 7366,
      "fiore": 7367,
      "dvan": 7368,
      "uman": 7369,
      "back": 7370,
      "ebu": 7371,
      "vare": 7372,
      "avio": 7373,
      "azir": 7374,
      "kopan": 7375,
      "prug": 7376,
      "brinu": 7377,
      "oboj": 7378,
      "..": 7379,
      "ajav": 7380,
      "tpo": 7381,
      "neba": 7382,
      "rema": 7383,
      "artn": 7384,
      "arco": 7385,
      "ališt": 7386,
      "bonus": 7387,
      "dira": 7388,
      "vodnj": 7389,
      "ikvid": 7390,
      "sih": 7391,
      "amin": 7392,
      "enika": 7393,
      "trogo": 7394,
      "avil": 7395,
      "fed": 7396,
      "iams": 7397,
      "adovi": 7398,
      "ancir": 7399,
      "znoj": 7400,
      ",)": 7401,
      "ais": 7402,
      "eče": 7403,
      "ikon": 7404,
      "mrak": 7405,
      "vre": 7406,
      "yson": 7407,
      "šle": 7408,
      "##cy": 7409,
      "##bl": 7410,
      "##gd": 7411,
      "nagl": 7412,
      "##kot": 7413,
      "inul": 7414,
      "retor": 7415,
      "motr": 7416,
      "osh": 7417,
      "dit": 7418,
      "uplj": 7419,
      "oster": 7420,
      "oston": 7421,
      "##kic": 7422,
      "jogur": 7423,
      "inat": 7424,
      "orila": 7425,
      "rani": 7426,
      "umij": 7427,
      "ardin": 7428,
      "hiper": 7429,
      "bina": 7430,
      "rizn": 7431,
      "odsje": 7432,
      "rmaln": 7433,
      "dran": 7434,
      "fen": 7435,
      "iđ": 7436,
      "mpo": 7437,
      "nsp": 7438,
      "rent": 7439,
      "rskog": 7440,
      "uin": 7441,
      "##vp": 7442,
      "pora": 7443,
      "inner": 7444,
      "metak": 7445,
      "mimo": 7446,
      "rilo": 7447,
      "rice": 7448,
      "orski": 7449,
      "ovol": 7450,
      "grg": 7451,
      "orica": 7452,
      "unar": 7453,
      "namj": 7454,
      "api": 7455,
      "haa": 7456,
      "avis": 7457,
      "orum": 7458,
      "phil": 7459,
      "ardio": 7460,
      "ning": 7461,
      "word": 7462,
      "ount": 7463,
      "...": 7464,
      "94": 7465,
      "bri": 7466,
      "bull": 7467,
      "hton": 7468,
      "ms": 7469,
      "uba": 7470,
      "semb": 7471,
      "odij": 7472,
      "obit": 7473,
      "viti": 7474,
      "vili": 7475,
      "višak": 7476,
      "ijele": 7477,
      "##gat": 7478,
      "alija": 7479,
      "rija": 7480,
      "orz": 7481,
      "##nit": 7482,
      "ajs": 7483,
      "ruge": 7484,
      "ljeno": 7485,
      "ikv": 7486,
      "agar": 7487,
      "ekar": 7488,
      "unu": 7489,
      "čajn": 7490,
      "##čio": 7491,
      "ažen": 7492,
      "astr": 7493,
      "umnji": 7494,
      "epal": 7495,
      "emam": 7496,
      "160": 7497,
      "enez": 7498,
      "oduše": 7499,
      "rzo": 7500,
      "conn": 7501,
      "rown": 7502,
      "97": 7503,
      "aa": 7504,
      "ium": 7505,
      "čju": 7506,
      "nadi": 7507,
      "##enh": 7508,
      "nevin": 7509,
      "raže": 7510,
      "rađa": 7511,
      "acij": 7512,
      "mame": 7513,
      "ogod": 7514,
      "obre": 7515,
      "tala": 7516,
      "itis": 7517,
      "jax": 7518,
      "jaz": 7519,
      "ary": 7520,
      "box": 7521,
      "ručio": 7522,
      "dižu": 7523,
      "njaka": 7524,
      "njig": 7525,
      "uzer": 7526,
      "usi": 7527,
      "duel": 7528,
      "dec": 7529,
      "adsk": 7530,
      "onat": 7531,
      "štar": 7532,
      "thod": 7533,
      "heim": 7534,
      "tepin": 7535,
      "hzzo": 7536,
      "\",": 7537,
      "a3": 7538,
      "dije": 7539,
      "iar": 7540,
      "ilan": 7541,
      "jt": 7542,
      "ts": 7543,
      "wid": 7544,
      "##27": 7545,
      "nab": 7546,
      "rau": 7547,
      "inal": 7548,
      "ovnik": 7549,
      "prili": 7550,
      "melan": 7551,
      "jumf": 7552,
      "alist": 7553,
      "##med": 7554,
      "etlj": 7555,
      "mine": 7556,
      "atv": 7557,
      "zik": 7558,
      "url": 7559,
      "##čiš": 7560,
      "fox": 7561,
      "ilja": 7562,
      "dnosi": 7563,
      "okuša": 7564,
      "banan": 7565,
      "litij": 7566,
      "lovan": 7567,
      "ežn": 7568,
      "assan": 7569,
      "cms": 7570,
      "eljak": 7571,
      "86": 7572,
      "cer": 7573,
      "clip": 7574,
      "elik": 7575,
      "from": 7576,
      "oke": 7577,
      "pin": 7578,
      "sne": 7579,
      "serie": 7580,
      "nečiš": 7581,
      "doj": 7582,
      "##tet": 7583,
      "ovno": 7584,
      "tiž": 7585,
      "obin": 7586,
      "lavo": 7587,
      "jedu": 7588,
      "##vis": 7589,
      "aki": 7590,
      "armi": 7591,
      "alter": 7592,
      "grač": 7593,
      "alik": 7594,
      "raza": 7595,
      "orte": 7596,
      "glasi": 7597,
      "dekor": 7598,
      "olij": 7599,
      "besk": 7600,
      "mane": 7601,
      "stir": 7602,
      "fisk": 7603,
      "ejrut": 7604,
      "vojs": 7605,
      "širin": 7606,
      "arab": 7607,
      "antib": 7608,
      "ontaž": 7609,
      "mpi": 7610,
      "mpl": 7611,
      "vrdil": 7612,
      "revij": 7613,
      "ruštv": 7614,
      "driat": 7615,
      "nivou": 7616,
      "žitar": 7617,
      "atak": 7618,
      "cre": 7619,
      "eas": 7620,
      "iki": 7621,
      "ntu": 7622,
      "oći": 7623,
      "pn": 7624,
      "ukt": 7625,
      "ugi": 7626,
      "zgu": 7627,
      "##use": 7628,
      "##ilj": 7629,
      "poka": 7630,
      "race": 7631,
      "kac": 7632,
      "motor": 7633,
      "timo": 7634,
      "ajma": 7635,
      "otte": 7636,
      "emen": 7637,
      "ets": 7638,
      "olic": 7639,
      "##irm": 7640,
      "adut": 7641,
      "jik": 7642,
      "morh": 7643,
      "metab": 7644,
      "štan": 7645,
      "užit": 7646,
      "ionar": 7647,
      "zbilj": 7648,
      "gani": 7649,
      "hana": 7650,
      "amoli": 7651,
      "ončar": 7652,
      "rudž": 7653,
      "nsku": 7654,
      "žnje": 7655,
      "drian": 7656,
      "cor": 7657,
      "ebo": 7658,
      "fri": 7659,
      "oiz": 7660,
      "zgub": 7661,
      "##ls": 7662,
      "##wa": 7663,
      "##lis": 7664,
      "##lig": 7665,
      "kore": 7666,
      "izlo": 7667,
      "endum": 7668,
      "tein": 7669,
      "mami": 7670,
      "rook": 7671,
      "ijac": 7672,
      "usin": 7673,
      "gam": 7674,
      "nus": 7675,
      "icion": 7676,
      "audic": 7677,
      "adnji": 7678,
      "asov": 7679,
      "stima": 7680,
      "zic": 7681,
      "kadar": 7682,
      "edov": 7683,
      "ašn": 7684,
      "ias": 7685,
      "našnj": 7686,
      "onosi": 7687,
      "afd": 7688,
      "desc": 7689,
      "ambul": 7690,
      "gand": 7691,
      "uruz": 7692,
      "adnja": 7693,
      "wall": 7694,
      ".)": 7695,
      "fat": 7696,
      "hin": 7697,
      "his": 7698,
      "ojav": 7699,
      "uel": 7700,
      "yn": 7701,
      "##sy": 7702,
      "##ip": 7703,
      "##fu": 7704,
      "kopa": 7705,
      "nera": 7706,
      "nebu": 7707,
      "indr": 7708,
      "iman": 7709,
      "miče": 7710,
      "iječn": 7711,
      "vot": 7712,
      "paun": 7713,
      "juri": 7714,
      "arta": 7715,
      "hrv": 7716,
      "orp": 7717,
      "ojom": 7718,
      "itv": 7719,
      "oveza": 7720,
      "agla": 7721,
      "siv": 7722,
      "abri": 7723,
      "ablan": 7724,
      "pix": 7725,
      "ačeln": 7726,
      "mnog": 7727,
      "ženi": 7728,
      "avija": 7729,
      "hnb": 7730,
      "arap": 7731,
      "coun": 7732,
      "ower": 7733,
      "temv": 7734,
      "atel": 7735,
      "dba": 7736,
      "hv": 7737,
      "jskog": 7738,
      "mt": 7739,
      "rđ": 7740,
      "uča": 7741,
      "čal": 7742,
      "##arn": 7743,
      "niš": 7744,
      "nig": 7745,
      "once": 7746,
      "oden": 7747,
      "izn": 7748,
      "##ron": 7749,
      "##dad": 7750,
      "lab": 7751,
      "goda": 7752,
      "juraj": 7753,
      "artel": 7754,
      "nosa": 7755,
      "djelo": 7756,
      "avar": 7757,
      "kontr": 7758,
      "ašu": 7759,
      "pero": 7760,
      "nasl": 7761,
      "arir": 7762,
      "autom": 7763,
      "nogom": 7764,
      "avir": 7765,
      "obili": 7766,
      "hand": 7767,
      "proda": 7768,
      "jurj": 7769,
      "rabar": 7770,
      "ačkoj": 7771,
      "88": 7772,
      "ax": 7773,
      "lf": 7774,
      "rda": 7775,
      "ucij": 7776,
      "yon": 7777,
      "ćur": 7778,
      "čil": 7779,
      "##šir": 7780,
      "##wn": 7781,
      "dove": 7782,
      "iznim": 7783,
      "sas": 7784,
      "tes": 7785,
      "obas": 7786,
      "lato": 7787,
      "vileg": 7788,
      "gov": 7789,
      "rovo": 7790,
      "roved": 7791,
      "aliz": 7792,
      "ispa": 7793,
      "erl": 7794,
      "opre": 7795,
      "čem": 7796,
      "amij": 7797,
      "lank": 7798,
      "ranim": 7799,
      "homo": 7800,
      "pep": 7801,
      "ravan": 7802,
      "krio": 7803,
      "ech": 7804,
      "tjec": 7805,
      "ateg": 7806,
      "ezan": 7807,
      "ozit": 7808,
      "etnic": 7809,
      "ekos": 7810,
      "ksid": 7811,
      "nena": 7812,
      "89": 7813,
      "dil": 7814,
      "irom": 7815,
      "jnim": 7816,
      "oleg": 7817,
      "utu": 7818,
      "##par": 7819,
      "##yne": 7820,
      "##vas": 7821,
      "koži": 7822,
      "dap": 7823,
      "dać": 7824,
      "odno": 7825,
      "omme": 7826,
      "enit": 7827,
      "anad": 7828,
      "test": 7829,
      "acc": 7830,
      "ligon": 7831,
      "ihov": 7832,
      "mekan": 7833,
      "najma": 7834,
      "istup": 7835,
      "trpan": 7836,
      "ings": 7837,
      "idans": 7838,
      "oral": 7839,
      "olova": 7840,
      "benef": 7841,
      "masa": 7842,
      "košar": 7843,
      "dvora": 7844,
      "vrać": 7845,
      "ucak": 7846,
      "đenja": 7847,
      "ombi": 7848,
      "kovan": 7849,
      "ursul": 7850,
      "furt": 7851,
      "jenog": 7852,
      "supru": 7853,
      "pixs": 7854,
      "bb": 7855,
      "gine": 7856,
      "hil": 7857,
      "kk": 7858,
      "lv": 7859,
      "mk": 7860,
      "rši": 7861,
      "sql": 7862,
      "uter": 7863,
      "whi": 7864,
      "zh": 7865,
      "jeh": 7866,
      "kosi": 7867,
      "nolog": 7868,
      "enter": 7869,
      "ender": 7870,
      "##kat": 7871,
      "ćeg": 7872,
      "##dev": 7873,
      "ične": 7874,
      "vodit": 7875,
      "elji": 7876,
      "beš": 7877,
      "kiks": 7878,
      "oln": 7879,
      "rene": 7880,
      "kadr": 7881,
      "idar": 7882,
      "krimi": 7883,
      "econ": 7884,
      "epp": 7885,
      "ožn": 7886,
      "tkan": 7887,
      "ezu": 7888,
      "rvog": 7889,
      "arad": 7890,
      "cv": 7891,
      "ešta": 7892,
      "jnu": 7893,
      "oši": 7894,
      "rku": 7895,
      "uže": 7896,
      "zlij": 7897,
      "##hr": 7898,
      "##dp": 7899,
      "zac": 7900,
      "omis": 7901,
      "enver": 7902,
      "##kas": 7903,
      "##ree": 7904,
      "liko": 7905,
      "ogis": 7906,
      "več": 7907,
      "jedi": 7908,
      "rona": 7909,
      "vog": 7910,
      "vask": 7911,
      "turu": 7912,
      "kupe": 7913,
      "##und": 7914,
      "renu": 7915,
      "inač": 7916,
      "ednj": 7917,
      "etik": 7918,
      "ilno": 7919,
      "umin": 7920,
      "korp": 7921,
      "ulin": 7922,
      "engen": 7923,
      "arhij": 7924,
      "aferi": 7925,
      "dnos": 7926,
      "erom": 7927,
      "ius": 7928,
      "uven": 7929,
      "kož": 7930,
      "icij": 7931,
      "obot": 7932,
      "vile": 7933,
      "pag": 7934,
      "razd": 7935,
      "spa": 7936,
      "vrše": 7937,
      "otr": 7938,
      "ott": 7939,
      "upr": 7940,
      "tukan": 7941,
      "kust": 7942,
      "gač": 7943,
      "auro": 7944,
      "amjer": 7945,
      "edl": 7946,
      "onira": 7947,
      "komar": 7948,
      "lini": 7949,
      "itat": 7950,
      "odaju": 7951,
      "##cht": 7952,
      "nesco": 7953,
      "šah": 7954,
      "avlju": 7955,
      "arske": 7956,
      "čeni": 7957,
      "zubi": 7958,
      "hgk": 7959,
      "veget": 7960,
      "mađar": 7961,
      "aq": 7962,
      "far": 7963,
      "fru": 7964,
      "jbo": 7965,
      "jvp": 7966,
      "lno": 7967,
      "rtu": 7968,
      "sim": 7969,
      "vnik": 7970,
      "ški": 7971,
      "##ng": 7972,
      "##bar": 7973,
      "##ye": 7974,
      "jevi": 7975,
      "niger": 7976,
      "onn": 7977,
      "##rea": 7978,
      "rivat": 7979,
      "ostel": 7980,
      "jos": 7981,
      "joker": 7982,
      "kuj": 7983,
      "ukcij": 7984,
      "ozl": 7985,
      "marse": 7986,
      "pira": 7987,
      "pere": 7988,
      "jenju": 7989,
      "enio": 7990,
      "vojio": 7991,
      "ačan": 7992,
      "plja": 7993,
      "##url": 7994,
      "thr": 7995,
      "tyle": 7996,
      "zora": 7997,
      "makn": 7998,
      "ahim": 7999,
      "ordon": 8000,
      "rhu": 8001,
      "antif": 8002,
      "ćih": 8003,
      "jong": 8004,
      "žanr": 8005,
      "selah": 8006,
      "220x2": 8007,
      "dimak": 8008,
      "kurir": 8009,
      "dijet": 8010,
      "jbolj": 8011,
      "cro": 8012,
      "iet": 8013,
      "ksa": 8014,
      "ydn": 8015,
      "koh": 8016,
      "ommy": 8017,
      "enne": 8018,
      "ioč": 8019,
      "##rus": 8020,
      "lil": 8021,
      "imfon": 8022,
      "akra": 8023,
      "deh": 8024,
      "adra": 8025,
      "egor": 8026,
      "zio": 8027,
      "iddy": 8028,
      "pare": 8029,
      "host": 8030,
      "kana": 8031,
      "estet": 8032,
      "kinu": 8033,
      "zbun": 8034,
      "zori": 8035,
      "1920x": 8036,
      "kulp": 8037,
      "jetni": 8038,
      "herc": 8039,
      "ukav": 8040,
      "ačak": 8041,
      "sesar": 8042,
      "lizac": 8043,
      "ginek": 8044,
      "oen": 8045,
      "ous": 8046,
      "sij": 8047,
      "yp": 8048,
      "##83": 8049,
      "##bt": 8050,
      "nil": 8051,
      "dona": 8052,
      "rezi": 8053,
      "jedio": 8054,
      "mek": 8055,
      "ijedi": 8056,
      "akin": 8057,
      "aker": 8058,
      "vođe": 8059,
      "ardo": 8060,
      "spit": 8061,
      "##ise": 8062,
      "##tul": 8063,
      "diše": 8064,
      "ični": 8065,
      "vjeri": 8066,
      "lee": 8067,
      "elsk": 8068,
      "ager": 8069,
      "smi": 8070,
      "abel": 8071,
      "uber": 8072,
      "pio": 8073,
      "etis": 8074,
      "fiat": 8075,
      "javio": 8076,
      "ošć": 8077,
      "curil": 8078,
      "kombi": 8079,
      "isab": 8080,
      "iron": 8081,
      "350": 8082,
      "amand": 8083,
      "kcion": 8084,
      "aće": 8085,
      "arak": 8086,
      "had": 8087,
      "nl": 8088,
      "tlo": 8089,
      "umen": 8090,
      "##28": 8091,
      "##fet": 8092,
      "kori": 8093,
      "daća": 8094,
      "ney": 8095,
      "odra": 8096,
      "odna": 8097,
      "kaci": 8098,
      "antin": 8099,
      "ancu": 8100,
      "tego": 8101,
      "##rit": 8102,
      "obio": 8103,
      "via": 8104,
      "vig": 8105,
      "mikul": 8106,
      "jao": 8107,
      "iss": 8108,
      "ijač": 8109,
      "upp": 8110,
      "dele": 8111,
      "drva": 8112,
      "ekl": 8113,
      "ispr": 8114,
      "ilota": 8115,
      "idor": 8116,
      "ung": 8117,
      "paris": 8118,
      "činit": 8119,
      "množ": 8120,
      "eog": 8121,
      "malt": 8122,
      "odiš": 8123,
      "ajini": 8124,
      "ađi": 8125,
      "raksu": 8126,
      "irovi": 8127,
      "gig": 8128,
      "olut": 8129,
      "lnost": 8130,
      "bjas": 8131,
      "cop": 8132,
      "klim": 8133,
      "rko": 8134,
      "rde": 8135,
      "vč": 8136,
      "zrok": 8137,
      "##ia": 8138,
      "##ak": 8139,
      "jeku": 8140,
      "davan": 8141,
      "inho": 8142,
      "anto": 8143,
      "mach": 8144,
      "lači": 8145,
      "miks": 8146,
      "vok": 8147,
      "juan": 8148,
      "arte": 8149,
      "aler": 8150,
      "grači": 8151,
      "##nie": 8152,
      "ukš": 8153,
      "aganj": 8154,
      "redno": 8155,
      "učno": 8156,
      "ason": 8157,
      "nekle": 8158,
      "ider": 8159,
      "čila": 8160,
      "igura": 8161,
      "adap": 8162,
      "gust": 8163,
      "omog": 8164,
      "menu": 8165,
      "adic": 8166,
      "benik": 8167,
      "rofe": 8168,
      "coin": 8169,
      "arbit": 8170,
      "oduze": 8171,
      "opera": 8172,
      "maxs": 8173,
      "andez": 8174,
      "onaco": 8175,
      "kacig": 8176,
      "blj": 8177,
      "eši": 8178,
      "ošao": 8179,
      "ugu": 8180,
      "vlje": 8181,
      "ćine": 8182,
      "##eg": 8183,
      "##zs": 8184,
      "##ph": 8185,
      "koko": 8186,
      "odv": 8187,
      "inga": 8188,
      "tea": 8189,
      "##rol": 8190,
      "##rum": 8191,
      "meg": 8192,
      "meća": 8193,
      "good": 8194,
      "jaha": 8195,
      "paj": 8196,
      "arno": 8197,
      "argar": 8198,
      "alz": 8199,
      "rikv": 8200,
      "ruka": 8201,
      "uzan": 8202,
      "turi": 8203,
      "ična": 8204,
      "kub": 8205,
      "muz": 8206,
      "luis": 8207,
      "kiva": 8208,
      "komič": 8209,
      "arima": 8210,
      "fifa": 8211,
      "guta": 8212,
      "afar": 8213,
      "efurl": 8214,
      "gib": 8215,
      "ewis": 8216,
      "oron": 8217,
      "konač": 8218,
      "ižn": 8219,
      "gužva": 8220,
      "rugim": 8221,
      "egova": 8222,
      "almö": 8223,
      "aferu": 8224,
      "egov": 8225,
      "jduk": 8226,
      "ntn": 8227,
      "oop": 8228,
      "sar": 8229,
      "who": 8230,
      "đal": 8231,
      "šen": 8232,
      "žnj": 8233,
      "##ou": 8234,
      "odat": 8235,
      "sul": 8236,
      "prij": 8237,
      "mig": 8238,
      "arg": 8239,
      "alis": 8240,
      "alim": 8241,
      "##bas": 8242,
      "dite": 8243,
      "njiv": 8244,
      "uzman": 8245,
      "lea": 8246,
      "avnih": 8247,
      "avtat": 8248,
      "azr": 8249,
      "ege": 8250,
      "atch": 8251,
      "uben": 8252,
      "iama": 8253,
      "sebn": 8254,
      "pjev": 8255,
      "jič": 8256,
      "dnosn": 8257,
      "bach": 8258,
      "bavlj": 8259,
      "likl": 8260,
      "šator": 8261,
      "edil": 8262,
      "mond": 8263,
      "oysi": 8264,
      "ewart": 8265,
      "olfsb": 8266,
      "zubac": 8267,
      "clipp": 8268,
      "white": 8269,
      "asta": 8270,
      "dlo": 8271,
      "dvi": 8272,
      "edam": 8273,
      "gpz": 8274,
      "irek": 8275,
      "jske": 8276,
      "tna": 8277,
      "đor": 8278,
      "##hl": 8279,
      "##án": 8280,
      "##52": 8281,
      "data": 8282,
      "ramu": 8283,
      "onk": 8284,
      "onud": 8285,
      "lišta": 8286,
      "obri": 8287,
      "vec": 8288,
      "meri": 8289,
      "tali": 8290,
      "ijeku": 8291,
      "ajde": 8292,
      "mura": 8293,
      "icija": 8294,
      "elvis": 8295,
      "bapp": 8296,
      "urz": 8297,
      "urin": 8298,
      "ljivi": 8299,
      "pile": 8300,
      "ašin": 8301,
      "pej": 8302,
      "pete": 8303,
      "arian": 8304,
      "ilni": 8305,
      "astor": 8306,
      "ošlo": 8307,
      "modu": 8308,
      "eatr": 8309,
      "russ": 8310,
      "afij": 8311,
      "140": 8312,
      "udit": 8313,
      "ugog": 8314,
      "olub": 8315,
      "natje": 8316,
      "kisik": 8317,
      "kcije": 8318,
      "bappé": 8319,
      "clar": 8320,
      "dpa": 8321,
      "eđu": 8322,
      "each": 8323,
      "full": 8324,
      "ntr": 8325,
      "oon": 8326,
      "pće": 8327,
      "wel": 8328,
      "čnu": 8329,
      "šam": 8330,
      "##if": 8331,
      "##war": 8332,
      "jeko": 8333,
      "jesto": 8334,
      "insko": 8335,
      "tovo": 8336,
      "limin": 8337,
      "##ort": 8338,
      "melon": 8339,
      "vaka": 8340,
      "lop": 8341,
      "spli": 8342,
      "orba": 8343,
      "usic": 8344,
      "demen": 8345,
      "lex": 8346,
      "##ked": 8347,
      "onaca": 8348,
      "grla": 8349,
      "caj": 8350,
      "idth": 8351,
      "čava": 8352,
      "petor": 8353,
      "aniji": 8354,
      "##pol": 8355,
      "epre": 8356,
      "očni": 8357,
      "ibar": 8358,
      "lavlj": 8359,
      "ediji": 8360,
      "anksi": 8361,
      "ampa": 8362,
      "orbe": 8363,
      "ifika": 8364,
      "adren": 8365,
      "mcc": 8366,
      "ihove": 8367,
      "sfer": 8368,
      "earch": 8369,
      "1024x6": 8370,
      "lgbt": 8371,
      "fruk": 8372,
      "gnu": 8373,
      "iq": 8374,
      "kb": 8375,
      "nne": 8376,
      "tnih": 8377,
      "uil": 8378,
      "##ht": 8379,
      "##hn": 8380,
      "odel": 8381,
      "sur": 8382,
      "sah": 8383,
      "itivn": 8384,
      "ćem": 8385,
      "valit": 8386,
      "eren": 8387,
      "uzij": 8388,
      "duv": 8389,
      "deš": 8390,
      "##kea": 8391,
      "konk": 8392,
      "abav": 8393,
      "abur": 8394,
      "rodni": 8395,
      "irme": 8396,
      "esten": 8397,
      "ačin": 8398,
      "alos": 8399,
      "potra": 8400,
      "east": 8401,
      "mass": 8402,
      "čuv": 8403,
      "evist": 8404,
      "ađari": 8405,
      "rakti": 8406,
      "ačima": 8407,
      "feed": 8408,
      "tično": 8409,
      "ufc": 8410,
      "lidl": 8411,
      "adnje": 8412,
      "rebal": 8413,
      "ennsy": 8414,
      "dežur": 8415,
      "3d": 8416,
      "een": 8417,
      "eži": 8418,
      "hž": 8419,
      "jr": 8420,
      "zla": 8421,
      "šno": 8422,
      "žup": 8423,
      "jeo": 8424,
      "##and": 8425,
      "korač": 8426,
      "omisl": 8427,
      "omfor": 8428,
      "over": 8429,
      "anal": 8430,
      "prepo": 8431,
      "tio": 8432,
      "lava": 8433,
      "tativ": 8434,
      "alih": 8435,
      "erkur": 8436,
      "emlja": 8437,
      "dur": 8438,
      "konce": 8439,
      "admin": 8440,
      "mare": 8441,
      "bau": 8442,
      "ljima": 8443,
      "house": 8444,
      "amel": 8445,
      "iltr": 8446,
      "apar": 8447,
      "modul": 8448,
      "bare": 8449,
      "alez": 8450,
      "spek": 8451,
      "azak": 8452,
      "hew": 8453,
      "rapin": 8454,
      "klime": 8455,
      "ritmu": 8456,
      "rugv": 8457,
      "dnk": 8458,
      "oljo": 8459,
      "lužbe": 8460,
      "enned": 8461,
      "ful": 8462,
      "hp": 8463,
      "hac": 8464,
      "js": 8465,
      "ndu": 8466,
      "plo": 8467,
      "vran": 8468,
      "##šal": 8469,
      "##nc": 8470,
      "nasta": 8471,
      "nator": 8472,
      "dovi": 8473,
      "kač": 8474,
      "kak": 8475,
      "enil": 8476,
      "anz": 8477,
      "teve": 8478,
      "jedil": 8479,
      "rovin": 8480,
      "arka": 8481,
      "otka": 8482,
      "ruže": 8483,
      "emm": 8484,
      "amask": 8485,
      "degus": 8486,
      "devas": 8487,
      "amill": 8488,
      "abu": 8489,
      "ilet": 8490,
      "anade": 8491,
      "nutk": 8492,
      "potvr": 8493,
      "eorgi": 8494,
      "skupi": 8495,
      "marie": 8496,
      "450": 8497,
      "ball": 8498,
      "andal": 8499,
      "dent": 8500,
      "fbi": 8501,
      "ky": 8502,
      "kto": 8503,
      "nta": 8504,
      "ocu": 8505,
      "čl": 8506,
      "##žđ": 8507,
      "jenik": 8508,
      "zai": 8509,
      "dab": 8510,
      "date": 8511,
      "icc": 8512,
      "mazon": 8513,
      "lib": 8514,
      "osla": 8515,
      "##ord": 8516,
      "milin": 8517,
      "jami": 8518,
      "arden": 8519,
      "ermo": 8520,
      "ićen": 8521,
      "opat": 8522,
      "istri": 8523,
      "usik": 8524,
      "nikš": 8525,
      "elje": 8526,
      "dstr": 8527,
      "bauk": 8528,
      "cas": 8529,
      "tanje": 8530,
      "ulkan": 8531,
      "hoću": 8532,
      "ilter": 8533,
      "akat": 8534,
      "cedev": 8535,
      "dnom": 8536,
      "afi": 8537,
      "beno": 8538,
      "ntrol": 8539,
      "odaj": 8540,
      "fair": 8541,
      "rakij": 8542,
      "ohan": 8543,
      "ehni": 8544,
      "900": 8545,
      "šutal": 8546,
      "md": 8547,
      "pć": 8548,
      "vs": 8549,
      "##rc": 8550,
      "##čar": 8551,
      "##han": 8552,
      "##hur": 8553,
      "izg": 8554,
      "sura": 8555,
      "now": 8556,
      "ende": 8557,
      "save": 8558,
      "moz": 8559,
      "mok": 8560,
      "monik": 8561,
      "tos": 8562,
      "acan": 8563,
      "oger": 8564,
      "lati": 8565,
      "rojn": 8566,
      "ropsk": 8567,
      "jala": 8568,
      "arki": 8569,
      "arce": 8570,
      "love": 8571,
      "boy": 8572,
      "amac": 8573,
      "treb": 8574,
      "čep": 8575,
      "krle": 8576,
      "eler": 8577,
      "utte": 8578,
      "buru": 8579,
      "olni": 8580,
      "aska": 8581,
      "ivad": 8582,
      "vojil": 8583,
      "isku": 8584,
      "alač": 8585,
      "onez": 8586,
      "erik": 8587,
      "ormil": 8588,
      "zekan": 8589,
      "ierez": 8590,
      "arah": 8591,
      "psv": 8592,
      "atas": 8593,
      "mrež": 8594,
      "feat": 8595,
      "eig": 8596,
      "ugom": 8597,
      "depon": 8598,
      "avnog": 8599,
      "isuć": 8600,
      "quare": 8601,
      "dašnj": 8602,
      "340x2": 8603,
      "480x3": 8604,
      "rampe": 8605,
      "rakoš": 8606,
      "ooper": 8607,
      "aži": 8608,
      "aris": 8609,
      "bet": 8610,
      "bnov": 8611,
      "cvat": 8612,
      "dzs": 8613,
      "fnc": 8614,
      "gel": 8615,
      "hus": 8616,
      "iga": 8617,
      "kil": 8618,
      "ksp": 8619,
      "knu": 8620,
      "nska": 8621,
      "oše": 8622,
      "uja": 8623,
      "vd": 8624,
      "vne": 8625,
      "šop": 8626,
      "##ee": 8627,
      "##zo": 8628,
      "##bs": 8629,
      "ježi": 8630,
      "kora": 8631,
      "koro": 8632,
      "dori": 8633,
      "ody": 8634,
      "izl": 8635,
      "regat": 8636,
      "anil": 8637,
      "tonj": 8638,
      "team": 8639,
      "lite": 8640,
      "lagod": 8641,
      "mirel": 8642,
      "juha": 8643,
      "grab": 8644,
      "ajanj": 8645,
      "opus": 8646,
      "esar": 8647,
      "tuu": 8648,
      "duet": 8649,
      "dean": 8650,
      "vlas": 8651,
      "olden": 8652,
      "sms": 8653,
      "markt": 8654,
      "brov": 8655,
      "ispo": 8656,
      "bat": 8657,
      "onia": 8658,
      "onica": 8659,
      "metk": 8660,
      "card": 8661,
      "sche": 8662,
      "okuš": 8663,
      "ćud": 8664,
      "dubr": 8665,
      "ugla": 8666,
      "ajak": 8667,
      "ležer": 8668,
      "monet": 8669,
      "rvak": 8670,
      "iami": 8671,
      "iall": 8672,
      "640x4": 8673,
      "gpzo": 8674,
      "cd": 8675,
      "ganj": 8676,
      "hup": 8677,
      "hut": 8678,
      "jc": 8679,
      "kti": 8680,
      "kend": 8681,
      "nsa": 8682,
      "nskog": 8683,
      "whe": 8684,
      "žur": 8685,
      "##žir": 8686,
      "##gs": 8687,
      "zag": 8688,
      "nizi": 8689,
      "dost": 8690,
      "innes": 8691,
      "mazd": 8692,
      "vegan": 8693,
      "vežu": 8694,
      "goved": 8695,
      "low": 8696,
      "look": 8697,
      "loat": 8698,
      "alta": 8699,
      "ojzij": 8700,
      "igar": 8701,
      "itler": 8702,
      "beg": 8703,
      "aun": 8704,
      "play": 8705,
      "ozil": 8706,
      "amy": 8707,
      "amil": 8708,
      "gren": 8709,
      "urzi": 8710,
      "oriš": 8711,
      "zvu": 8712,
      "jetim": 8713,
      "mirna": 8714,
      "raču": 8715,
      "ipr": 8716,
      "110": 8717,
      "hard": 8718,
      "etni": 8719,
      "ećan": 8720,
      "đeni": 8721,
      "iorgi": 8722,
      "nskim": 8723,
      "##_2719881": 8724,
      "tereo": 8725,
      "##_272091": 8726,
      "##_2720910": 8727,
      "edos": 8728,
      "##_2720907": 8729,
      "hatsa": 8730,
      "bosan": 8731,
      "220x14": 8732,
      "uchs": 8733,
      "dward": 8734,
      "rezid": 8735,
      "hem": 8736,
      "jio": 8737,
      "##ea": 8738,
      "##yl": 8739,
      "jelj": 8740,
      "nao": 8741,
      "##til": 8742,
      "rao": 8743,
      "teč": 8744,
      "icul": 8745,
      "laci": 8746,
      "lass": 8747,
      "tagon": 8748,
      "roo": 8749,
      "ćev": 8750,
      "pah": 8751,
      "vamo": 8752,
      "lost": 8753,
      "openh": 8754,
      "itch": 8755,
      "ovez": 8756,
      "azm": 8757,
      "azd": 8758,
      "auer": 8759,
      "mars": 8760,
      "under": 8761,
      "hopp": 8762,
      "peš": 8763,
      "kemot": 8764,
      "foot": 8765,
      "oraz": 8766,
      "itas": 8767,
      "eorij": 8768,
      "čuju": 8769,
      "prosj": 8770,
      "berg": 8771,
      "anegd": 8772,
      "gube": 8773,
      "oos": 8774,
      "castl": 8775,
      "1280x8": 8776,
      "higij": 8777,
      "auren": 8778,
      "aek": 8779,
      "cle": 8780,
      "eam": 8781,
      "iu": 8782,
      "mju": 8783,
      "oret": 8784,
      "snu": 8785,
      "##nd": 8786,
      "jemu": 8787,
      "poti": 8788,
      "##tis": 8789,
      "##lah": 8790,
      "damu": 8791,
      "stem": 8792,
      "ratk": 8793,
      "non": 8794,
      "inked": 8795,
      "rela": 8796,
      "prefi": 8797,
      "promi": 8798,
      "tech": 8799,
      "acy": 8800,
      "lila": 8801,
      "sk_": 8802,
      "lates": 8803,
      "viol": 8804,
      "juh": 8805,
      "vate": 8806,
      "ise": 8807,
      "##šel": 8808,
      "ilat": 8809,
      "oput": 8810,
      "##gol": 8811,
      "die": 8812,
      "dila": 8813,
      "stad": 8814,
      "kuč": 8815,
      "trpa": 8816,
      "išk": 8817,
      "sija": 8818,
      "ozga": 8819,
      "abin": 8820,
      "inea": 8821,
      "vodik": 8822,
      "och": 8823,
      "ocmp": 8824,
      "dary": 8825,
      "šap": 8826,
      "emalj": 8827,
      "enger": 8828,
      "einer": 8829,
      "ified": 8830,
      "rnog": 8831,
      "mvp": 8832,
      "ođenj": 8833,
      "wild": 8834,
      "aero": 8835,
      "hsls": 8836,
      "rudžb": 8837,
      "pagin": 8838,
      "alem": 8839,
      "fter": 8840,
      "gli": 8841,
      "hl": 8842,
      "ker": 8843,
      "m2": 8844,
      "tc": 8845,
      "tlu": 8846,
      "ward": 8847,
      "yu": 8848,
      "##koč": 8849,
      "kof": 8850,
      "##mat": 8851,
      "nija": 8852,
      "sea": 8853,
      "daha": 8854,
      "down": 8855,
      "izved": 8856,
      "suk": 8857,
      "ovlj": 8858,
      "##kač": 8859,
      "ios": 8860,
      "maž": 8861,
      "##vir": 8862,
      "miri": 8863,
      "arge": 8864,
      "loom": 8865,
      "alžir": 8866,
      "ripa": 8867,
      "rimin": 8868,
      "ojarn": 8869,
      "ajt": 8870,
      "etenc": 8871,
      "usti": 8872,
      "utl": 8873,
      "zbori": 8874,
      "asin": 8875,
      "amne": 8876,
      "abe": 8877,
      "baci": 8878,
      "cap": 8879,
      "idf": 8880,
      "anica": 8881,
      "##cur": 8882,
      "gud": 8883,
      "gumb": 8884,
      "eptir": 8885,
      "born": 8886,
      "loger": 8887,
      "rafin": 8888,
      "afirm": 8889,
      "demon": 8890,
      "ešn": 8891,
      "ibr": 8892,
      "uljan": 8893,
      "socij": 8894,
      "učeni": 8895,
      "vibr": 8896,
      "magn": 8897,
      "covid": 8898,
      "disp": 8899,
      "gnjen": 8900,
      "hulig": 8901,
      "270": 8902,
      "đuje": 8903,
      "ehid": 8904,
      "ewand": 8905,
      "mcd": 8906,
      "lena": 8907,
      "očeo": 8908,
      "enny": 8909,
      "ršut": 8910,
      "olazi": 8911,
      "messi": 8912,
      "đaj": 8913,
      "trbuš": 8914,
      "msg": 8915,
      "aqu": 8916,
      "mjuz": 8917,
      "hram": 8918,
      "kij": 8919,
      "ktr": 8920,
      "mw": 8921,
      "mij": 8922,
      "oan": 8923,
      "oce": 8924,
      "orom": 8925,
      "pk": 8926,
      "plit": 8927,
      "sis": 8928,
      "tne": 8929,
      "won": 8930,
      "zjav": 8931,
      "žute": 8932,
      "##13": 8933,
      "##mn": 8934,
      "pore": 8935,
      "sek": 8936,
      "rekr": 8937,
      "anas": 8938,
      "anđe": 8939,
      "lir": 8940,
      "jaje": 8941,
      "vom": 8942,
      "arma": 8943,
      "isca": 8944,
      "itez": 8945,
      "rive": 8946,
      "opp": 8947,
      "otter": 8948,
      "bour": 8949,
      "ruce": 8950,
      "dilem": 8951,
      "cimet": 8952,
      "trat": 8953,
      "elju": 8954,
      "okom": 8955,
      "sman": 8956,
      "adno": 8957,
      "asort": 8958,
      "zdan": 8959,
      "jenu": 8960,
      "iler": 8961,
      "karik": 8962,
      "trop": 8963,
      "jakn": 8964,
      "this": 8965,
      "alea": 8966,
      "alek": 8967,
      "iedad": 8968,
      "efe": 8969,
      "hnd": 8970,
      "arac": 8971,
      "ndh": 8972,
      "240": 8973,
      "šansi": 8974,
      "dsje": 8975,
      "ainz": 8976,
      "rbe": 8977,
      "abat": 8978,
      "čnom": 8979,
      "oice": 8980,
      "olaf": 8981,
      "ibonn": 8982,
      "orzan": 8983,
      "where": 8984,
      "bourg": 8985,
      "irij": 8986,
      "klj": 8987,
      "kvu": 8988,
      "pti": 8989,
      "uge": 8990,
      "##ib": 8991,
      "##fin": 8992,
      "##yk": 8993,
      "nara": 8994,
      "nata": 8995,
      "nakv": 8996,
      "nikic": 8997,
      "dac": 8998,
      "omm": 8999,
      "ovc": 9000,
      "anč": 9001,
      "tost": 9002,
      "iolin": 9003,
      "lisic": 9004,
      "obir": 9005,
      "jedlo": 9006,
      "taur": 9007,
      "roiz": 9008,
      "jat": 9009,
      "ijska": 9010,
      "alža": 9011,
      "rif": 9012,
      "orde": 9013,
      "ijak": 9014,
      "opud": 9015,
      "ruje": 9016,
      "dire": 9017,
      "deko": 9018,
      "kulis": 9019,
      "gad": 9020,
      "veća": 9021,
      "asna": 9022,
      "amj": 9023,
      "ubit": 9024,
      "ublin": 9025,
      "renes": 9026,
      "bak": 9027,
      "orian": 9028,
      "estu": 9029,
      "golf": 9030,
      "ošli": 9031,
      "ocma": 9032,
      "adili": 9033,
      "šešir": 9034,
      "kapel": 9035,
      "ibal": 9036,
      "ionel": 9037,
      "ahmet": 9038,
      "gnk": 9039,
      "##hie": 9040,
      "week": 9041,
      "unif": 9042,
      "mcl": 9043,
      "rupa": 9044,
      "rihva": 9045,
      "hzmo": 9046,
      "ađen": 9047,
      "bg": 9048,
      "bel": 9049,
      "jil": 9050,
      "lend": 9051,
      "pse": 9052,
      "zj": 9053,
      "ćal": 9054,
      "šil": 9055,
      "##11": 9056,
      "nađ": 9057,
      "podat": 9058,
      "rain": 9059,
      "not": 9060,
      "anch": 9061,
      "mega": 9062,
      "tap": 9063,
      "##viv": 9064,
      "roy": 9065,
      "##did": 9066,
      "vag": 9067,
      "rian": 9068,
      "ojs": 9069,
      "erton": 9070,
      "bov": 9071,
      "olis": 9072,
      "radnj": 9073,
      "krađa": 9074,
      "okl": 9075,
      "baki": 9076,
      "lijeđ": 9077,
      "rodo": 9078,
      "pip": 9079,
      "uns": 9080,
      "ped": 9081,
      "nasa": 9082,
      "##gie": 9083,
      "##cus": 9084,
      "ojal": 9085,
      "akak": 9086,
      "etap": 9087,
      "zec": 9088,
      "arao": 9089,
      "170": 9090,
      "jamči": 9091,
      "ortun": 9092,
      "klec": 9093,
      "oyal": 9094,
      "ualno": 9095,
      "šuta": 9096,
      "pavel": 9097,
      "atura": 9098,
      "šumu": 9099,
      "oyota": 9100,
      "wind": 9101,
      "kwh": 9102,
      "šamar": 9103,
      "krlež": 9104,
      "avel": 9105,
      "cin": 9106,
      "nti": 9107,
      "xav": 9108,
      "čav": 9109,
      "##sr": 9110,
      "##rd": 9111,
      "##fs": 9112,
      "##gm": 9113,
      "##laš": 9114,
      "sean": 9115,
      "das": 9116,
      "omir": 9117,
      "inkt": 9118,
      "ence": 9119,
      "anir": 9120,
      "moga": 9121,
      "monit": 9122,
      "tiz": 9123,
      "mail": 9124,
      "liju": 9125,
      "lake": 9126,
      "taž": 9127,
      "rotor": 9128,
      "pasn": 9129,
      "ovid": 9130,
      "ijati": 9131,
      "##etr": 9132,
      "ivjel": 9133,
      "dida": 9134,
      "emma": 9135,
      "emlji": 9136,
      "etski": 9137,
      "duk": 9138,
      "čevi": 9139,
      "kuma": 9140,
      "lek": 9141,
      "legal": 9142,
      "žite": 9143,
      "badr": 9144,
      "ljim": 9145,
      "undid": 9146,
      "čad": 9147,
      "pear": 9148,
      "peru": 9149,
      "fire": 9150,
      "reket": 9151,
      "gorje": 9152,
      "zemun": 9153,
      "gold": 9154,
      "sreta": 9155,
      "epr": 9156,
      "anadi": 9157,
      "alax": 9158,
      "zlon": 9159,
      "bild": 9160,
      "zbe": 9161,
      "ugsb": 9162,
      "co2": 9163,
      "riban": 9164,
      "ifik": 9165,
      "ouse": 9166,
      "ucci": 9167,
      "četk": 9168,
      "outf": 9169,
      "ospod": 9170,
      "takn": 9171,
      "aron": 9172,
      "midt": 9173,
      "gužvi": 9174,
      "esej": 9175,
      "mnk": 9176,
      "sung": 9177,
      "kabel": 9178,
      "hasan": 9179,
      "),": 9180,
      "cut": 9181,
      "dnih": 9182,
      "ece": 9183,
      "fet": 9184,
      "fac": 9185,
      "hir": 9186,
      "kst": 9187,
      "lenk": 9188,
      "uđu": 9189,
      "ukom": 9190,
      "##oc": 9191,
      "##cd": 9192,
      "##ile": 9193,
      "##jz": 9194,
      "jelu": 9195,
      "seli": 9196,
      "doug": 9197,
      "izgr": 9198,
      "may": 9199,
      "mamu": 9200,
      "limen": 9201,
      "lias": 9202,
      "ogao": 9203,
      "medi": 9204,
      "talo": 9205,
      "mija": 9206,
      "miriš": 9207,
      "road": 9208,
      "razl": 9209,
      "orti": 9210,
      "orni": 9211,
      "bott": 9212,
      "essi": 9213,
      "jonat": 9214,
      "tude": 9215,
      "drv": 9216,
      "avnim": 9217,
      "krad": 9218,
      "atio": 9219,
      "inai": 9220,
      "eco": 9221,
      "dvj": 9222,
      "šiš": 9223,
      "akal": 9224,
      "menad": 9225,
      "rthur": 9226,
      "inuo": 9227,
      "orup": 9228,
      "točar": 9229,
      "beni": 9230,
      "grud": 9231,
      "iph": 9232,
      "eft": 9233,
      "teni": 9234,
      "evad": 9235,
      "zidin": 9236,
      "bnja": 9237,
      "quo": 9238,
      "ocmc": 9239,
      "ornat": 9240,
      "hobij": 9241,
      "kauf": 9242,
      "ranih": 9243,
      "clark": 9244,
      "nsatu": 9245,
      "avo": 9246,
      "amor": 9247,
      "cup": 9248,
      "fel": 9249,
      "hb": 9250,
      "lng": 9251,
      "rše": 9252,
      "tm": 9253,
      "umac": 9254,
      "vc": 9255,
      "wrc": 9256,
      "ylan": 9257,
      "zob": 9258,
      "đir": 9259,
      "jere": 9260,
      "nikom": 9261,
      "sez": 9262,
      "odit": 9263,
      "acq": 9264,
      "male": 9265,
      "tapp": 9266,
      "itiv": 9267,
      "##dir": 9268,
      "armin": 9269,
      "razu": 9270,
      "spod": 9271,
      "opher": 9272,
      "pukn": 9273,
      "dia": 9274,
      "dif": 9275,
      "muć": 9276,
      "leti": 9277,
      "try": 9278,
      "elkas": 9279,
      "okoš": 9280,
      "olten": 9281,
      "addi": 9282,
      "ekret": 9283,
      "ikat": 9284,
      "ravd": 9285,
      "iskan": 9286,
      "zgl": 9287,
      "cho": 9288,
      "epu": 9289,
      "olovi": 9290,
      "perc": 9291,
      "them": 9292,
      "jasl": 9293,
      "omas": 9294,
      "ship": 9295,
      "ianz": 9296,
      "kvara": 9297,
      "mons": 9298,
      "udir": 9299,
      "ombs": 9300,
      "klet": 9301,
      "erum": 9302,
      "rstvo": 9303,
      "ehno": 9304,
      "yoon": 9305,
      "ritz": 9306,
      "rebar": 9307,
      "rnom": 9308,
      "kipar": 9309,
      "klap": 9310,
      "ečat": 9311,
      "anath": 9312,
      "bbb": 9313,
      "umach": 9314,
      "agur": 9315,
      "jit": 9316,
      "sse": 9317,
      "ux": 9318,
      "uer": 9319,
      "wem": 9320,
      "yr": 9321,
      "##by": 9322,
      "##jm": 9323,
      "##yd": 9324,
      "nala": 9325,
      "prin": 9326,
      "zat": 9327,
      "zara": 9328,
      "neć": 9329,
      "rail": 9330,
      "##tez": 9331,
      "bip": 9332,
      "enri": 9333,
      "enci": 9334,
      "preda": 9335,
      "mosk": 9336,
      "##skim": 9337,
      "ogan": 9338,
      "obij": 9339,
      "melin": 9340,
      "got": 9341,
      "rou": 9342,
      "jad": 9343,
      "armel": 9344,
      "ijo": 9345,
      "risk": 9346,
      "kuta": 9347,
      "iks": 9348,
      "traf": 9349,
      "agin": 9350,
      "agij": 9351,
      "aušal": 9352,
      "olver": 9353,
      "aden": 9354,
      "adni": 9355,
      "oker": 9356,
      "urp": 9357,
      "unker": 9358,
      "uls": 9359,
      "ivaju": 9360,
      "##siv": 9361,
      "pera": 9362,
      "aču": 9363,
      "apto": 9364,
      "aper": 9365,
      "sreće": 9366,
      "epst": 9367,
      "ofa": 9368,
      "ejz": 9369,
      "gend": 9370,
      "uža": 9371,
      "eff": 9372,
      "vinu": 9373,
      "tinj": 9374,
      "holm": 9375,
      "##esl": 9376,
      "anker": 9377,
      "orth": 9378,
      "ift": 9379,
      "iff": 9380,
      "fast": 9381,
      "ports": 9382,
      "dorf": 9383,
      "oore": 9384,
      "elom": 9385,
      "litre": 9386,
      "agun": 9387,
      "ucker": 9388,
      "zicer": 9389,
      "jamie": 9390,
      "cod": 9391,
      "cij": 9392,
      "ekor": 9393,
      "gpt": 9394,
      "hle": 9395,
      "nute": 9396,
      "nci": 9397,
      "npo": 9398,
      "ntim": 9399,
      "pš": 9400,
      "rnim": 9401,
      "tve": 9402,
      "tska": 9403,
      "urov": 9404,
      "wis": 9405,
      "zit": 9406,
      "##ys": 9407,
      "##54": 9408,
      "regon": 9409,
      "teven": 9410,
      "viv": 9411,
      "pape": 9412,
      "payne": 9413,
      "jus": 9414,
      "juhe": 9415,
      "lopp": 9416,
      "alker": 9417,
      "orge": 9418,
      "erdo": 9419,
      "bob": 9420,
      "##kit": 9421,
      "##kub": 9422,
      "deep": 9423,
      "ley": 9424,
      "uket": 9425,
      "svib": 9426,
      "aurel": 9427,
      "adres": 9428,
      "ekva": 9429,
      "tvar": 9430,
      "zima": 9431,
      "evij": 9432,
      "lant": 9433,
      "urš": 9434,
      "hous": 9435,
      "njan": 9436,
      "forum": 9437,
      "račac": 9438,
      "avit": 9439,
      "grožđ": 9440,
      "čulin": 9441,
      "utom": 9442,
      "ness": 9443,
      "sova": 9444,
      "omez": 9445,
      "hian": 9446,
      "cool": 9447,
      "oua": 9448,
      "apsul": 9449,
      "asakr": 9450,
      "weet": 9451,
      "larn": 9452,
      "šuti": 9453,
      "žuta": 9454,
      "canje": 9455,
      "oeing": 9456,
      "750": 9457,
      "štikl": 9458,
      "uaw": 9459,
      "amuel": 9460,
      "zrna": 9461,
      "dmir": 9462,
      "creat": 9463,
      "eav": 9464,
      "feld": 9465,
      "gun": 9466,
      "hree": 9467,
      "kh": 9468,
      "mraz": 9469,
      "np": 9470,
      "ndus": 9471,
      "ugan": 9472,
      "ukur": 9473,
      "vn": 9474,
      "wen": 9475,
      "##rh": 9476,
      "##hs": 9477,
      "##dd": 9478,
      "##yn": 9479,
      "##mad": 9480,
      "raje": 9481,
      "omije": 9482,
      "inč": 9483,
      "inha": 9484,
      "##rej": 9485,
      "tock": 9486,
      "##lor": 9487,
      "mara": 9488,
      "madr": 9489,
      "lio": 9490,
      "skla": 9491,
      "lap": 9492,
      "gow": 9493,
      "rota": 9494,
      "volan": 9495,
      "rimi": 9496,
      "orr": 9497,
      "opan": 9498,
      "##tun": 9499,
      "bora": 9500,
      "rul": 9501,
      "tuk": 9502,
      "deter": 9503,
      "music": 9504,
      "leko": 9505,
      "lead": 9506,
      "bure": 9507,
      "aser": 9508,
      "abdo": 9509,
      "njuj": 9510,
      "ranče": 9511,
      "čile": 9512,
      "pedij": 9513,
      "trub": 9514,
      "nassr": 9515,
      "irmi": 9516,
      "gumen": 9517,
      "hazu": 9518,
      "afro": 9519,
      "bene": 9520,
      "omaći": 9521,
      "liker": 9522,
      "zez": 9523,
      "ayo": 9524,
      "kopl": 9525,
      "tini": 9526,
      "rađan": 9527,
      "core": 9528,
      "remek": 9529,
      "orest": 9530,
      "edag": 9531,
      "arev": 9532,
      "rskih": 9533,
      "ardas": 9534,
      "bahče": 9535,
      "klimu": 9536,
      "alzh": 9537,
      "sahit": 9538,
      "jskom": 9539,
      "480x320": 9540,
      "wondo": 9541,
      "alžab": 9542,
      "ntira": 9543,
      "dbo": 9544,
      "hen": 9545,
      "hutt": 9546,
      "kp": 9547,
      "vno": 9548,
      "wing": 9549,
      "öln": 9550,
      "čni": 9551,
      "##mar": 9552,
      "##lic": 9553,
      "raži": 9554,
      "omenu": 9555,
      "karač": 9556,
      "izza": 9557,
      "tig": 9558,
      "mada": 9559,
      "imar": 9560,
      "taek": 9561,
      "vale": 9562,
      "arš": 9563,
      "alibr": 9564,
      "razni": 9565,
      "ajve": 9566,
      "bole": 9567,
      "uptil": 9568,
      "emil": 9569,
      "ush": 9570,
      "gale": 9571,
      "agrad": 9572,
      "mant": 9573,
      "žičar": 9574,
      "adri": 9575,
      "adel": 9576,
      "adnic": 9577,
      "aten": 9578,
      "urze": 9579,
      "##čev": 9580,
      "ljic": 9581,
      "hos": 9582,
      "holo": 9583,
      "pes": 9584,
      "itua": 9585,
      "javil": 9586,
      "chat": 9587,
      "dnog": 9588,
      "gene": 9589,
      "aviv": 9590,
      "eau": 9591,
      "aleš": 9592,
      "grub": 9593,
      "ipar": 9594,
      "slap": 9595,
      "112": 9596,
      "zani": 9597,
      "cole": 9598,
      "rigor": 9599,
      "phile": 9600,
      "silva": 9601,
      "nstva": 9602,
      "segn": 9603,
      "asade": 9604,
      "gnoj": 9605,
      "dimn": 9606,
      "adova": 9607,
      "witz": 9608,
      "knul": 9609,
      "what": 9610,
      "nketa": 9611,
      "uinn": 9612,
      "1024x683": 9613,
      "pćen": 9614,
      "640x427": 9615,
      "1280x854": 9616,
      "ašt": 9617,
      "arom": 9618,
      "erem": 9619,
      "gna": 9620,
      "hri": 9621,
      "h_2719884": 9622,
      "k_2719884": 9623,
      "lp": 9624,
      "lte": 9625,
      "lert": 9626,
      "nr": 9627,
      "o_2719884": 9628,
      "unic": 9629,
      "ukob": 9630,
      "was": 9631,
      "well": 9632,
      "ür": 9633,
      "ćos": 9634,
      "##16": 9635,
      "##len": 9636,
      "pom": 9637,
      "podi": 9638,
      "posta": 9639,
      "kajak": 9640,
      "izbo": 9641,
      "intet": 9642,
      "ante": 9643,
      "maci": 9644,
      "laće": 9645,
      "viga": 9646,
      "mekt": 9647,
      "mist": 9648,
      "akti": 9649,
      "akut": 9650,
      "roči": 9651,
      "jagod": 9652,
      "vota": 9653,
      "jude": 9654,
      "juriš": 9655,
      "grao": 9656,
      "grali": 9657,
      "mjet": 9658,
      "isco": 9659,
      "ritul": 9660,
      "puž": 9661,
      "icaj": 9662,
      "emir": 9663,
      "istac": 9664,
      "tus": 9665,
      "luđ": 9666,
      "krp": 9667,
      "avle": 9668,
      "kupon": 9669,
      "oved": 9670,
      "učit": 9671,
      "žila": 9672,
      "amba": 9673,
      "amfet": 9674,
      "atent": 9675,
      "lana": 9676,
      "urci": 9677,
      "piv": 9678,
      "ulen": 9679,
      "hoo": 9680,
      "hobot": 9681,
      "okac": 9682,
      "irt": 9683,
      "tomi": 9684,
      "fikt": 9685,
      "ilv": 9686,
      "adit": 9687,
      "očno": 9688,
      "janje": 9689,
      "okren": 9690,
      "190": 9691,
      "arkle": 9692,
      "jamn": 9693,
      "allen": 9694,
      "pp_2719884": 9695,
      "gnje": 9696,
      "ničke": 9697,
      "rijan": 9698,
      "agner": 9699,
      "arth": 9700,
      "dimit": 9701,
      "kosor": 9702,
      "ješn": 9703,
      "gužv": 9704,
      "folk": 9705,
      "ramez": 9706,
      "eimer": 9707,
      "npoo": 9708,
      "aine": 9709,
      "fc": 9710,
      "g7": 9711,
      "gü": 9712,
      "hsp": 9713,
      "kvan": 9714,
      "kuter": 9715,
      "oles": 9716,
      "uen": 9717,
      "uiz": 9718,
      "vci": 9719,
      "wat": 9720,
      "ćir": 9721,
      "ško": 9722,
      "ška": 9723,
      "ške": 9724,
      "##hk": 9725,
      "kaut": 9726,
      "enna": 9727,
      "rean": 9728,
      "regan": 9729,
      "ango": 9730,
      "preg": 9731,
      "acha": 9732,
      "ickl": 9733,
      "maras": 9734,
      "laha": 9735,
      "laho": 9736,
      "vitez": 9737,
      "medu": 9738,
      "tao": 9739,
      "taju": 9740,
      "miču": 9741,
      "gorij": 9742,
      "rož": 9743,
      "loud": 9744,
      "alia": 9745,
      "ijam": 9746,
      "ajor": 9747,
      "dili": 9748,
      "ups": 9749,
      "ems": 9750,
      "ljes": 9751,
      "njac": 9752,
      "eshr": 9753,
      "##bol": 9754,
      "ushi": 9755,
      "avaz": 9756,
      "auri": 9757,
      "ozin": 9758,
      "atske": 9759,
      "abd": 9760,
      "urk": 9761,
      "acion": 9762,
      "unch": 9763,
      "zdanj": 9764,
      "ažet": 9765,
      "ling": 9766,
      "rasa": 9767,
      "vojni": 9768,
      "hab": 9769,
      "janja": 9770,
      "milk": 9771,
      "arker": 9772,
      "šank": 9773,
      "orts": 9774,
      "hamil": 9775,
      "ombin": 9776,
      "ains": 9777,
      "pell": 9778,
      "izbje": 9779,
      "ziral": 9780,
      "adur": 9781,
      "ihovi": 9782,
      "žnl": 9783,
      "ennar": 9784,
      "ukul": 9785,
      "retni": 9786,
      "miliv": 9787,
      "lišen": 9788,
      "gemu": 9789,
      "dišn": 9790,
      "lfsb": 9791,
      "ugust": 9792,
      "ssex": 9793,
      "vigac": 9794,
      "kvant": 9795,
      "bdp": 9796,
      "dl": 9797,
      "gut": 9798,
      "iul": 9799,
      "tut": 9800,
      "wan": 9801,
      "čj": 9802,
      "##fo": 9803,
      "##čin": 9804,
      "zavr": 9805,
      "kofer": 9806,
      "dask": 9807,
      "racht": 9808,
      "odije": 9809,
      "kair": 9810,
      "noa": 9811,
      "##ijer": 9812,
      "entim": 9813,
      "enry": 9814,
      "prote": 9815,
      "##nor": 9816,
      "made": 9817,
      "maha": 9818,
      "lili": 9819,
      "oglo": 9820,
      "imuz": 9821,
      "vega": 9822,
      "vip": 9823,
      "##nas": 9824,
      "roga": 9825,
      "jal": 9826,
      "ilija": 9827,
      "iser": 9828,
      "riji": 9829,
      "erman": 9830,
      "vrl": 9831,
      "ruise": 9832,
      "embr": 9833,
      "amat": 9834,
      "etti": 9835,
      "trep": 9836,
      "usd": 9837,
      "gala": 9838,
      "elf": 9839,
      "ljati": 9840,
      "##kej": 9841,
      "tars": 9842,
      "agic": 9843,
      "ozder": 9844,
      "okre": 9845,
      "##emi": 9846,
      "urter": 9847,
      "pig": 9848,
      "hokej": 9849,
      "građe": 9850,
      "ačv": 9851,
      "adapt": 9852,
      "guez": 9853,
      "gulaš": 9854,
      "trože": 9855,
      "očin": 9856,
      "ips": 9857,
      "kopij": 9858,
      "offen": 9859,
      "hort": 9860,
      "hans": 9861,
      "ombon": 9862,
      "orbit": 9863,
      "olet": 9864,
      "oduš": 9865,
      "uđer": 9866,
      "ufi": 9867,
      "uff": 9868,
      "utah": 9869,
      "klah": 9870,
      "kasni": 9871,
      "ktc": 9872,
      "hzjz": 9873,
      "erdin": 9874,
      "fried": 9875,
      "issan": 9876,
      "kokos": 9877,
      "220x147": 9878,
      "clean": 9879,
      "code": 9880,
      "vnog": 9881,
      "bh": 9882,
      "dsko": 9883,
      "elas": 9884,
      "gt": 9885,
      "gm": 9886,
      "hur": 9887,
      "hss": 9888,
      "kte": 9889,
      "olaz": 9890,
      "ojun": 9891,
      "rute": 9892,
      "snic": 9893,
      "sss": 9894,
      "uvel": 9895,
      "šute": 9896,
      "šće": 9897,
      "##814": 9898,
      "##43": 9899,
      "##uke": 9900,
      "##šis": 9901,
      "##bij": 9902,
      "naut": 9903,
      "pok": 9904,
      "damo": 9905,
      "##int": 9906,
      "dola": 9907,
      "odm": 9908,
      "izzu": 9909,
      "regur": 9910,
      "prosi": 9911,
      "mošt": 9912,
      "##lot": 9913,
      "ioni": 9914,
      "mayer": 9915,
      "lira": 9916,
      "jedr": 9917,
      "vise": 9918,
      "njeni": 9919,
      "mest": 9920,
      "medul": 9921,
      "mišel": 9922,
      "roma": 9923,
      "root": 9924,
      "alte": 9925,
      "alle": 9926,
      "vrtk": 9927,
      "oth": 9928,
      "ruta": 9929,
      "ostu": 9930,
      "esse": 9931,
      "duo": 9932,
      "duard": 9933,
      "bešl": 9934,
      "učan": 9935,
      "##ung": 9936,
      "amid": 9937,
      "ašar": 9938,
      "math": 9939,
      "anici": 9940,
      "krim": 9941,
      "##hez": 9942,
      "šiša": 9943,
      "hts": 9944,
      "inec": 9945,
      "inez": 9946,
      "cha": 9947,
      "nisa": 9948,
      "itaj": 9949,
      "erif": 9950,
      "curic": 9951,
      "hakir": 9952,
      "raža": 9953,
      "ipi": 9954,
      "ipan": 9955,
      "rino": 9956,
      "zeb": 9957,
      "shva": 9958,
      "ojeg": 9959,
      "mill": 9960,
      "heff": 9961,
      "rebak": 9962,
      "aškar": 9963,
      "font": 9964,
      "orbán": 9965,
      "oost": 9966,
      "kuhar": 9967,
      "young": 9968,
      "assoc": 9969,
      "cmc": 9970,
      "wauke": 9971,
      "##1080": 9972,
      "oecd": 9973,
      "ijedn": 9974,
      "##ffr": 9975,
      "klape": 9976,
      "480x6": 9977,
      "šnje": 9978,
      "nalno": 9979,
      "raume": 9980,
      "1920x1080": 9981,
      "340x227": 9982,
      "##130": 9983,
      "xavi": 9984,
      "\"}": 9985,
      "dnim": 9986,
      "egu": 9987,
      "eet": 9988,
      "eid": 9989,
      "fp": 9990,
      "hij": 9991,
      "jskoj": 9992,
      "mpa": 9993,
      "ood": 9994,
      "sb": 9995,
      "tw": 9996,
      "tnim": 9997,
      "tskim": 9998,
      "urad": 9999,
      "zbil": 10000,
      "##_19": 10001,
      "##ier": 10002,
      "##fl": 10003,
      "##zar": 10004,
      "##{\"": 10005,
      "jeb": 10006,
      "jenic": 10007,
      "poda": 10008,
      "raln": 10009,
      "onga": 10010,
      "odil": 10011,
      "injo": 10012,
      "enor": 10013,
      "reu": 10014,
      "tore": 10015,
      "tera": 10016,
      "acos": 10017,
      "iotik": 10018,
      "liči": 10019,
      "osrh": 10020,
      "obus": 10021,
      "laj": 10022,
      "misi": 10023,
      "paol": 10024,
      "arch": 10025,
      "ijard": 10026,
      "alje": 10027,
      "hrz": 10028,
      "spra": 10029,
      "##gue": 10030,
      "opo": 10031,
      "opći": 10032,
      "ophie": 10033,
      "euhar": 10034,
      "rukt": 10035,
      "amad": 10036,
      "kutak": 10037,
      "muha": 10038,
      "level": 10039,
      "išlj": 10040,
      "ljal": 10041,
      "bed": 10042,
      "bede": 10043,
      "vlak": 10044,
      "azij": 10045,
      "ollin": 10046,
      "smje": 10047,
      "ozan": 10048,
      "grgur": 10049,
      "bala": 10050,
      "urry": 10051,
      "unde": 10052,
      "ranz": 10053,
      "amed": 10054,
      "chic": 10055,
      "uver": 10056,
      "veni": 10057,
      "ileć": 10058,
      "anađ": 10059,
      "mišo": 10060,
      "ejza": 10061,
      "raff": 10062,
      "gluš": 10063,
      "hama": 10064,
      "napis": 10065,
      "zelin": 10066,
      "amber": 10067,
      "erot": 10068,
      "aya": 10069,
      "arkti": 10070,
      "ouch": 10071,
      "ađara": 10072,
      "rammy": 10073,
      "arber": 10074,
      "amark": 10075,
      "rstva": 10076,
      "jund": 10077,
      "adrž": 10078,
      "asset": 10079,
      "olun": 10080,
      "ancy": 10081,
      "grip": 10082,
      "sns": 10083,
      "mcg": 10084,
      "čnog": 10085,
[...]
