<unk>	0
<s>	0
</s>	0
▁i	-0
▁a	-1
▁o	-2
▁s	-3
je	-4
▁n	-5
▁u	-6
▁p	-7
▁e	-8
▁d	-9
▁t	-10
▁k	-11
▁,	-12
▁je	-13
ra	-14
▁.	-15
▁m	-16
▁v	-17
▁na	-18
▁z	-19
▁l	-20
re	-21
▁b	-22
▁po	-23
▁g	-24
ri	-25
ti	-26
va	-27
ro	-28
ja	-29
ko	-30
li	-31
▁ko	-32
▁za	-33
st	-34
la	-35
ma	-36
▁da	-37
▁c	-38
ar	-39
▁se	-40
▁ni	-41
▁ra	-42
en	-43
▁st	-44
in	-45
▁ne	-46
ju	-47
▁do	-48
vo	-49
▁;	-50
▁&	-51
▁od	-52
an	-53
▁on	-54
te	-55
▁om	-56
▁iz	-57
ji	-58
▁su	-59
▁bi	-60
▁ka	-61
▁in	-62
▁no	-63
▁en	-64
▁re	-65
▁š	-66
▁go	-67
▁S	-68
▁č	-69
▁P	-70
▁"	-71
to	-72
ru	-73
vi	-74
ka	-75
▁an	-76
▁pre	-77
lj	-78
▁mo	-79
▁-	-80
▁pro	-81
▁M	-82
▁sa	-83
▁N	-84
lo	-85
▁ti	-86
no	-87
car	-88
na	-89
mo	-90
da	-91
▁te	-92
▁ac	-93
ve	-94
▁li	-95
▁to	-96
▁ic	-97
▁pri	-98
▁vi	-99
▁D	-100
▁io	-101
sk	-102
▁2	-103
▁r	-104
di	-105
▁1	-106
▁h	-107
▁og	-108
▁ih	-109
ta	-110
▁vo	-111
▁ima	-112
▁B	-113
▁la	-114
▁ob	-115
▁sk	-116
▁os	-117
▁ma	-118
▁0	-119
▁im	-120
će	-121
▁K	-122
▁jed	-123
▁T	-124
▁ve	-125
le	-126
nj	-127
▁ta	-128
er	-129
▁j	-130
▁I	-131
▁O	-132
▁H	-133
or	-134
▁ro	-135
▁A	-136
▁koji	-137
▁ja	-138
▁nje	-139
▁f	-140
▁ije	-141
av	-142
▁ccar	-143
▁U	-144
▁ov	-145
ni	-146
et	-147
▁ri	-148
▁iti	-149
▁mi	-150
▁V	-151
▁ak	-152
▁će	-153
▁R	-154
ran	-155
ute	-156
▁ž	-157
▁ili	-158
▁Z	-159
▁acute	-160
al	-161
▁lo	-162
▁god	-163
ij	-164
▁:	-165
▁što	-166
lu	-167
▁ju	-168
vat	-169
jen	-170
ga	-171
▁godin	-172
▁ij	-173
up	-174
▁G	-175
▁J	-176
▁ci	-177
▁pa	-178
▁ar	-179
▁me	-180
▁raz	-181
▁is	-182
▁ija	-183
▁L	-184
jed	-185
▁sko	-186
▁di	-187
▁ite	-188
▁ovi	-189
go	-190
▁gra	-191
il	-192
vor	-193
▁va	-194
▁ova	-195
▁dru	-196
gu	-197
▁ali	-198
jet	-199
ut	-200
▁al	-201
rvat	-202
▁oj	-203
▁zcar	-204
▁'	-205
vn	-206
še	-207
▁ila	-208
el	-209
▁aj	-210
▁tre	-211
ći	-212
is	-213
jel	-214
me	-215
▁bo	-216
▁kako	-217
tu	-218
▁ski	-219
▁E	-220
▁3	-221
▁or	-222
▁sp	-223
▁ot	-224
kon	-225
▁koje	-226
▁C	-227
▁er	-228
▁pr	-229
▁op	-230
▁Na	-231
▁(	-232
vr	-233
▁mje	-234
ba	-235
▁ić	-236
že	-237
▁ica	-238
▁ost	-239
▁nije	-240
za	-241
▁)	-242
zi	-243
▁sve	-244
▁up	-245
▁nos	-246
▁ig	-247
▁ru	-248
bo	-249
▁pred	-250
▁zna	-251
ki	-252
▁ama	-253
ov	-254
▁pra	-255
▁kao	-256
▁nja	-257
▁ava	-258
št	-259
▁sam	-260
▁F	-261
de	-262
▁ira	-263
▁nji	-264
▁4	-265
▁5	-266
ku	-267
▁et	-268
▁svo	-269
du	-270
▁pu	-271
▁es	-272
▁sta	-273
▁em	-274
tiv	-275
▁gla	-276
on	-277
▁naj	-278
lik	-279
▁it	-280
▁Hrvat	-281
ca	-282
jek	-283
ci	-284
▁biti	-285
▁vr	-286
▁govor	-287
▁9	-288
men	-289
▁lju	-290
jav	-291
▁ist	-292
▁ič	-293
tn	-294
▁stav	-295
▁dob	-296
ad	-297
▁ice	-298
▁Po	-299
▁če	-300
sp	-301
▁tu	-302
▁lja	-303
▁nik	-304
▁smo	-305
▁ske	-306
▁uz	-307
sn	-308
▁oli	-309
ul	-310
▁koja	-311
▁jo	-312
▁ga	-313
▁dje	-314
▁više	-315
▁du	-316
rž	-317
▁itelj	-318
▁ik	-319
▁de	-320
it	-321
▁ici	-322
▁mu	-323
▁iš	-324
▁6	-325
▁nakon	-326
dn	-327
ac	-328
▁tra	-329
im	-330
▁Š	-331
▁igra	-332
▁preds	-333
▁samo	-334
▁dana	-335
▁ku	-336
▁bio	-337
ir	-338
▁jedn	-339
▁eu	-340
▁ović	-341
▁drug	-342
rav	-343
kt	-344
▁osti	-345
▁7	-346
tak	-347
rn	-348
ven	-349
▁ud	-350
▁iva	-351
▁si	-352
▁min	-353
▁ati	-354
ao	-355
▁le	-356
ent	-357
đu	-358
▁nu	-359
▁ovo	-360
anj	-361
▁8	-362
mp	-363
rij	-364
jer	-365
▁kup	-366
▁već	-367
▁pla	-368
čn	-369
▁prije	-370
om	-371
čk	-372
▁el	-373
▁ut	-374
bor	-375
lje	-376
▁ki	-377
▁tako	-378
ce	-379
ke	-380
▁lu	-381
bog	-382
aj	-383
▁uje	-384
ne	-385
ter	-386
▁ć	-387
kao	-388
▁ove	-389
▁jer	-390
▁mogu	-391
▁be	-392
▁pod	-393
▁još	-394
▁kr	-395
▁sto	-396
▁oko	-397
▁njeg	-398
▁kon	-399
▁az	-400
un	-401
▁kra	-402
▁as	-403
▁ag	-404
▁aci	-405
▁us	-406
▁oliko	-407
▁stup	-408
▁uč	-409
▁rekao	-410
▁met	-411
▁?	-412
ako	-413
▁treba	-414
šk	-415
▁ska	-416
▁enje	-417
▁njih	-418
rije	-419
▁zbog	-420
▁svi	-421
am	-422
ak	-423
▁velik	-424
sto	-425
▁rad	-426
▁ži	-427
▁vla	-428
▁bro	-429
red	-430
▁godi	-431
▁pos	-432
▁ijsk	-433
jn	-434
▁nov	-435
▁ek	-436
▁dok	-437
▁iju	-438
▁tar	-439
su	-440
▁red	-441
ob	-442
vak	-443
▁ako	-444
▁može	-445
▁oz	-446
lic	-447
▁eg	-448
▁bilo	-449
▁bu	-450
▁uju	-451
▁man	-452
▁av	-453
▁radi	-454
▁ika	-455
rop	-456
▁iji	-457
▁au	-458
ća	-459
▁Za	-460
▁aš	-461
▁utak	-462
▁skog	-463
▁ljen	-464
dje	-465
▁ok	-466
▁sti	-467
em	-468
▁gle	-469
cij	-470
▁lje	-471
▁tva	-472
▁ol	-473
▁am	-474
▁ab	-475
lij	-476
sta	-477
▁at	-478
rad	-479
▁dst	-480
▁eura	-481
▁zi	-482
▁ub	-483
ječ	-484
jo	-485
▁dstro	-486
▁hrvat	-487
▁nek	-488
▁ad	-489
▁isp	-490
▁vrije	-491
reb	-492
▁kl	-493
▁!	-494
▁bila	-495
▁nju	-496
▁sv	-497
▁tri	-498
▁utakm	-499
▁nog	-500
▁drž	-501
jiv	-502
▁stran	-503
▁jedan	-504
var	-505
se	-506
▁grad	-507
▁skoj	-508
▁ina	-509
▁slu	-510
▁remen	-511
▁/	-512
▁uk	-513
▁vod	-514
▁ho	-515
▁nika	-516
▁Eu	-517
lav	-518
▁rotiv	-519
tin	-520
▁ilo	-521
▁pis	-522
▁tvr	-523
lit	-524
▁lan	-525
▁godiš	-526
ži	-527
▁Ne	-528
če	-529
mi	-530
▁ona	-531
▁vje	-532
đen	-533
▁izbor	-534
tor	-535
▁ren	-536
ren	-537
lad	-538
▁mjest	-539
nij	-540
van	-541
▁kada	-542
▁tan	-543
▁či	-544
kv	-545
▁ba	-546
▁iv	-547
▁pravo	-548
▁gdje	-549
▁nj	-550
▁dva	-551
▁nim	-552
▁Mi	-553
at	-554
▁bolj	-555
▁ljudi	-556
lan	-557
ješ	-558
ln	-559
▁enja	-560
▁ur	-561
▁odlu	-562
est	-563
▁pi	-564
▁ev	-565
či	-566
▁prema	-567
▁bez	-568
voj	-569
ira	-570
ok	-571
▁dan	-572
▁tr	-573
rat	-574
▁vid	-575
▁osl	-576
▁tren	-577
si	-578
▁ust	-579
▁eti	-580
▁ca	-581
▁klju	-582
▁jedno	-583
▁nam	-584
▁kad	-585
tur	-586
▁dijel	-587
joj	-588
▁nih	-589
ša	-590
▁klu	-591
rak	-592
▁ent	-593
▁ani	-594
▁icu	-595
kol	-596
ris	-597
tsk	-598
▁jedin	-599
dr	-600
▁objav	-601
▁tav	-602
▁rav	-603
tel	-604
gr	-605
io	-606
▁nosti	-607
us	-608
lem	-609
▁skih	-610
▁ul	-611
ča	-612
▁osob	-613
▁ap	-614
den	-615
▁skom	-616
▁posto	-617
što	-618
▁imo	-619
▁sm	-620
jes	-621
dat	-622
dij	-623
▁iran	-624
▁nego	-625
▁seb	-626
▁kri	-627
raž	-628
▁nad	-629
▁Europ	-630
val	-631
▁gleda	-632
▁par	-633
kr	-634
▁svoje	-635
▁oka	-636
▁nap	-637
▁mjer	-638
▁bili	-639
▁slo	-640
▁svak	-641
ši	-642
▁igu	-643
▁W	-644
▁služ	-645
▁zd	-646
▁ključ	-647
▁glas	-648
▁jen	-649
▁poz	-650
▁mora	-651
▁mog	-652
▁ivo	-653
▁br	-654
▁toga	-655
▁To	-656
▁ljiv	-657
▁tek	-658
▁ke	-659
▁nisu	-660
▁oni	-661
▁až	-662
▁ori	-663
▁zdrav	-664
▁agreb	-665
sti	-666
▁voz	-667
zon	-668
▁ing	-669
▁Č	-670
▁svoj	-671
▁ari	-672
▁nas	-673
▁sada	-674
▁ivanj	-675
▁blem	-676
▁poru	-677
▁nici	-678
▁zap	-679
rov	-680
▁poč	-681
▁An	-682
▁kan	-683
ur	-684
▁polic	-685
▁y	-686
jetn	-687
▁gr	-688
▁Ž	-689
gi	-690
▁mjen	-691
▁prem	-692
▁među	-693
▁prvi	-694
▁No	-695
▁est	-696
▁ir	-697
▁auto	-698
▁kom	-699
▁društ	-700
▁anj	-701
▁un	-702
▁ao	-703
▁rek	-704
▁prav	-705
▁dr	-706
▁sezon	-707
▁broj	-708
▁rep	-709
▁čin	-710
▁že	-711
▁mat	-712
▁vijek	-713
▁kod	-714
▁voji	-715
▁vijet	-716
▁il	-717
▁itu	-718
▁građ	-719
▁sku	-720
▁Me	-721
▁gram	-722
▁malo	-723
▁dobro	-724
jev	-725
nu	-726
as	-727
▁igurn	-728
▁milij	-729
▁tim	-730
▁zem	-731
▁minut	-732
gan	-733
▁eni	-734
▁nač	-735
▁Ni	-736
cu	-737
vić	-738
▁ele	-739
▁kre	-740
▁škol	-741
▁rez	-742
▁ast	-743
▁ustav	-744
▁tijek	-745
▁živo	-746
▁prvo	-747
▁Pre	-748
vu	-749
▁igrač	-750
▁isk	-751
rug	-752
nic	-753
▁tp	-754
▁ač	-755
▁koju	-756
▁ini	-757
▁cijen	-758
▁sad	-759
▁olo	-760
▁inf	-761
▁oja	-762
▁pe	-763
vez	-764
sl	-765
ver	-766
tit	-767
ge	-768
▁zemlj	-769
▁insk	-770
tr	-771
▁danas	-772
bil	-773
vrš	-774
▁novi	-775
▁ada	-776
▁Mar	-777
▁pet	-778
▁itet	-779
▁inter	-780
enc	-781
nim	-782
vod	-783
▁moguć	-784
gur	-785
rb	-786
▁Re	-787
tk	-788
ze	-789
▁usp	-790
▁nost	-791
▁put	-792
▁izira	-793
▁nema	-794
▁ed	-795
▁kaže	-796
▁rž	-797
▁život	-798
▁fil	-799
▁stvo	-800
▁tru	-801
▁otp	-802
tov	-803
aln	-804
▁tran	-805
▁ine	-806
▁tvor	-807
▁zab	-808
▁javn	-809
▁sre	-810
▁stva	-811
▁iona	-812
▁kojem	-813
laz	-814
▁sna	-815
▁jekt	-816
▁glavn	-817
▁sigur	-818
▁završ	-819
▁cijel	-820
▁lin	-821
▁dvi	-822
▁telj	-823
▁ip	-824
▁nešto	-825
▁nogo	-826
▁njem	-827
▁stven	-828
ub	-829
kom	-830
▁Nakon	-831
▁tome	-832
▁ional	-833
▁jeti	-834
šta	-835
meri	-836
▁rasp	-837
▁nom	-838
▁omo	-839
▁doma	-840
▁Mo	-841
▁gol	-842
▁objed	-843
ks	-844
▁itanj	-845
▁vjer	-846
▁zra	-847
gao	-848
▁Sp	-849
▁skim	-850
▁pop	-851
▁dio	-852
▁Do	-853
đa	-854
▁vodi	-855
▁tro	-856
god	-857
▁nica	-858
▁puno	-859
bn	-860
▁sati	-861
do	-862
▁una	-863
nos	-864
▁djelj	-865
▁ht	-866
ret	-867
▁zg	-868
▁dvije	-869
▁kaz	-870
▁sl	-871
▁kaza	-872
▁Ma	-873
▁metn	-874
▁mno	-875
▁zme	-876
▁tom	-877
▁tat	-878
nik	-879
▁matra	-880
duć	-881
▁kro	-882
▁etvr	-883
▁znat	-884
▁etvrt	-885
čaj	-886
▁rezul	-887
▁jednj	-888
▁upan	-889
▁vija	-890
▁zn	-891
▁ćemo	-892
▁ovanj	-893
rod	-894
▁din	-895
▁stor	-896
duk	-897
▁taj	-898
▁njez	-899
▁aka	-900
▁neki	-901
šl	-902
▁zent	-903
mac	-904
▁lazi	-905
▁fin	-906
▁um	-907
▁dalje	-908
lar	-909
▁zv	-910
▁10	-911
tko	-912
▁organ	-913
▁alo	-914
▁ćen	-915
▁način	-916
oto	-917
▁koris	-918
▁djel	-919
▁držav	-920
▁mijen	-921
▁važ	-922
▁bli	-923
▁slav	-924
▁gotov	-925
▁hvat	-926
lim	-927
▁rač	-928
he	-929
ol	-930
▁kont	-931
▁manje	-932
▁emo	-933
▁ilje	-934
▁id	-935
▁vis	-936
▁izvod	-937
▁nis	-938
▁Dan	-939
▁log	-940
▁nep	-941
▁stoji	-942
▁ep	-943
▁oš	-944
▁etiri	-945
▁Ri	-946
▁ora	-947
rt	-948
▁izac	-949
▁lučaj	-950
▁Pro	-951
▁ajduk	-952
▁zmeđu	-953
▁ituac	-954
▁ono	-955
▁jatel	-956
▁ide	-957
▁rekla	-958
raj	-959
▁nosi	-960
▁brz	-961
▁tor	-962
▁imaju	-963
▁ran	-964
▁mla	-965
▁minis	-966
▁tvara	-967
▁medij	-968
čj	-969
▁oma	-970
▁dno	-971
▁kojoj	-972
▁govar	-973
▁onda	-974
▁Nje	-975
▁dručj	-976
▁vrlo	-977
nen	-978
▁uv	-979
▁fi	-980
▁bor	-981
▁kraj	-982
▁sr	-983
▁ile	-984
▁vez	-985
▁ož	-986
▁final	-987
▁održ	-988
▁acije	-989
▁eno	-990
▁spor	-991
▁repre	-992
kaz	-993
▁vojim	-994
▁Kako	-995
▁ste	-996
▁uprav	-997
▁ce	-998
▁jve	-999
▁film	-1000
▁sjed	-1001
▁ijal	-1002
avn	-1003
▁Sve	-1004
▁kroz	-1005
▁ovima	-1006
▁ven	-1007
▁Od	-1008
▁pust	-1009
▁klub	-1010
▁jetsk	-1011
▁vam	-1012
▁adi	-1013
▁stvar	-1014
▁jako	-1015
▁Ivan	-1016
zb	-1017
▁čak	-1018
▁pun	-1019
▁polit	-1020
▁rast	-1021
▁vijes	-1022
▁tje	-1023
▁top	-1024
▁račun	-1025
▁men	-1026
▁eset	-1027
▁joj	-1028
▁rener	-1029
▁odluč	-1030
▁svoju	-1031
▁okaza	-1032
▁riječ	-1033
▁ši	-1034
▁Pri	-1035
led	-1036
▁meta	-1037
ha	-1038
▁Ako	-1039
▁lobo	-1040
▁udar	-1041
▁čki	-1042
▁ala	-1043
▁lobod	-1044
▁ržavn	-1045
▁gor	-1046
▁jak	-1047
ho	-1048
▁oč	-1049
▁vozil	-1050
▁Al	-1051
▁rež	-1052
▁Jo	-1053
log	-1054
▁w	-1055
▁20	-1056
▁inj	-1057
▁nut	-1058
▁jući	-1059
▁aktiv	-1060
▁pozna	-1061
▁tjeca	-1062
▁takođ	-1063
ben	-1064
čer	-1065
▁aca	-1066
mor	-1067
▁osvoj	-1068
▁poput	-1069
tal	-1070
▁nice	-1071
▁let	-1072
▁neće	-1073
▁sva	-1074
▁duž	-1075
▁ljub	-1076
▁puta	-1077
▁tk	-1078
▁opa	-1079
▁drugi	-1080
▁ostav	-1081
▁oc	-1082
▁list	-1083
anc	-1084
▁pada	-1085
▁služb	-1086
▁mor	-1087
▁reg	-1088
▁ime	-1089
▁ničk	-1090
od	-1091
▁Sa	-1092
▁njima	-1093
▁ijama	-1094
▁Ve	-1095
▁rijed	-1096
▁rod	-1097
▁europ	-1098
▁ijest	-1099
▁ativn	-1100
▁glazb	-1101
▁Va	-1102
▁hran	-1103
▁iranj	-1104
▁volj	-1105
▁prven	-1106
▁inanc	-1107
▁vrš	-1108
▁nosno	-1109
▁odluk	-1110
▁tanov	-1111
▁Lu	-1112
ert	-1113
▁štit	-1114
▁napad	-1115
▁živ	-1116
um	-1117
▁Milan	-1118
▁domać	-1119
▁uo	-1120
▁ej	-1121
nov	-1122
▁roš	-1123
▁komp	-1124
▁avanj	-1125
▁ito	-1126
▁noj	-1127
▁one	-1128
▁miš	-1129
▁vol	-1130
▁hr	-1131
▁gost	-1132
▁straž	-1133
▁inar	-1134
▁preko	-1135
▁dobr	-1136
▁takv	-1137
▁cilj	-1138
▁didat	-1139
▁pozi	-1140
▁žen	-1141
▁sli	-1142
▁ovaj	-1143
▁ener	-1144
▁čeka	-1145
▁zgrad	-1146
▁Tako	-1147
▁HD	-1148
▁St	-1149
▁acija	-1150
▁tisu	-1151
▁enju	-1152
▁dnost	-1153
▁bit	-1154
▁ubo	-1155
▁bac	-1156
ško	-1157
vno	-1158
▁njak	-1159
▁mjese	-1160
▁Bi	-1161
▁eki	-1162
▁ec	-1163
▁stavn	-1164
▁št	-1165
▁piše	-1166
gl	-1167
▁tkri	-1168
▁zajed	-1169
▁isti	-1170
▁voj	-1171
žen	-1172
pć	-1173
▁naš	-1174
▁biv	-1175
▁dar	-1176
▁lak	-1177
▁Iz	-1178
oba	-1179
▁kuć	-1180
▁nova	-1181
▁irati	-1182
ud	-1183
pnj	-1184
▁HDZ	-1185
▁gled	-1186
▁pjes	-1187
▁stan	-1188
▁jelo	-1189
▁plat	-1190
▁sjet	-1191
▁anje	-1192
▁sin	-1193
▁vode	-1194
▁foto	-1195
▁poruč	-1196
nir	-1197
▁kol	-1198
▁inu	-1199
▁tko	-1200
▁jte	-1201
nji	-1202
▁tvrtk	-1203
▁ten	-1204
▁ji	-1205
▁Grad	-1206
▁ože	-1207
▁Nov	-1208
▁mir	-1209
▁ubrov	-1210
▁mišlj	-1211
▁mjetn	-1212
▁zakon	-1213
▁pot	-1214
▁eren	-1215
▁okol	-1216
▁narod	-1217
▁nij	-1218
▁imao	-1219
▁Uk	-1220
▁Pl	-1221
▁zad	-1222
▁jeli	-1223
▁kojeg	-1224
▁mlad	-1225
▁Ovo	-1226
▁Varaž	-1227
čit	-1228
▁anja	-1229
▁ički	-1230
▁novo	-1231
▁15	-1232
▁dugo	-1233
▁šest	-1234
▁brojn	-1235
▁udjel	-1236
stv	-1237
▁vrh	-1238
▁sred	-1239
▁prvak	-1240
ik	-1241
▁tisuć	-1242
▁hval	-1243
vol	-1244
▁čko	-1245
▁doda	-1246
▁stati	-1247
▁sebno	-1248
met	-1249
▁EU	-1250
manj	-1251
▁teh	-1252
sim	-1253
▁energ	-1254
▁žel	-1255
▁vas	-1256
▁nac	-1257
▁iza	-1258
▁orm	-1259
▁pak	-1260
▁raf	-1261
▁laga	-1262
▁svim	-1263
▁vaš	-1264
▁dovol	-1265
▁eta	-1266
▁osoba	-1267
▁tvari	-1268
▁ultur	-1269
▁klo	-1270
▁ravno	-1271
▁jvi	-1272
▁komen	-1273
▁mobil	-1274
▁traž	-1275
▁staje	-1276
ruž	-1277
▁cest	-1278
▁nc	-1279
▁ačk	-1280
▁obran	-1281
▁učin	-1282
▁jas	-1283
▁Rijek	-1284
▁jese	-1285
▁razin	-1286
▁avaju	-1287
▁glu	-1288
▁mogao	-1289
tno	-1290
▁baš	-1291
ću	-1292
kuj	-1293
▁voza	-1294
▁jesta	-1295
▁eb	-1296
▁mijer	-1297
▁odr	-1298
▁svih	-1299
▁jesec	-1300
▁trebn	-1301
▁ević	-1302
▁ant	-1303
▁Među	-1304
▁najav	-1305
▁sud	-1306
▁eo	-1307
▁glav	-1308
▁imati	-1309
▁30	-1310
▁rtn	-1311
▁buduć	-1312
▁tada	-1313
▁icama	-1314
▁arn	-1315
▁cent	-1316
▁jever	-1317
▁veden	-1318
▁sje	-1319
▁misl	-1320
▁ana	-1321
▁sreć	-1322
▁vatr	-1323
▁kraju	-1324
▁eri	-1325
▁njega	-1326
▁metar	-1327
▁prošl	-1328
▁ate	-1329
▁ez	-1330
gov	-1331
▁ništ	-1332
▁teško	-1333
▁uš	-1334
▁toč	-1335
▁lanov	-1336
▁jel	-1337
rem	-1338
▁avi	-1339
▁eba	-1340
▁rijav	-1341
▁Pa	-1342
▁and	-1343
▁inamo	-1344
▁ogled	-1345
▁VI	-1346
▁ard	-1347
▁ameri	-1348
▁ormac	-1349
▁smanj	-1350
▁azi	-1351
▁int	-1352
▁visok	-1353
▁ovog	-1354
enk	-1355
▁Ch	-1356
▁Kr	-1357
▁tež	-1358
▁oku	-1359
▁usret	-1360
▁pomen	-1361
▁večer	-1362
▁sc	-1363
▁kval	-1364
▁plan	-1365
▁Srb	-1366
▁kazao	-1367
▁kupin	-1368
▁isto	-1369
▁alno	-1370
▁lijed	-1371
▁bude	-1372
▁voljn	-1373
▁doš	-1374
▁nikad	-1375
▁še	-1376
▁otreb	-1377
▁kar	-1378
▁rafij	-1379
▁Split	-1380
▁radn	-1381
▁koj	-1382
▁jveć	-1383
▁Ka	-1384
▁Ukraj	-1385
▁lj	-1386
▁vojn	-1387
▁of	-1388
▁gu	-1389
▁član	-1390
▁čekuj	-1391
▁eći	-1392
▁iljež	-1393
▁gen	-1394
▁grada	-1395
kor	-1396
▁ča	-1397
▁ovom	-1398
▁gosp	-1399
▁ijen	-1400
▁razn	-1401
▁obav	-1402
▁rusk	-1403
▁stvu	-1404
▁nio	-1405
▁išta	-1406
▁ujući	-1407
▁borb	-1408
▁ivota	-1409
▁Njema	-1410
▁Ko	-1411
▁čan	-1412
▁neka	-1413
id	-1414
▁cu	-1415
▁ostal	-1416
▁znač	-1417
▁šir	-1418
▁ale	-1419
▁jela	-1420
▁ike	-1421
▁tručn	-1422
▁=	-1423
kuš	-1424
▁12	-1425
▁iskus	-1426
▁ravi	-1427
▁eš	-1428
▁voren	-1429
▁rt	-1430
▁Što	-1431
▁pjesm	-1432
▁Plenk	-1433
▁izjav	-1434
▁elnik	-1435
▁trank	-1436
▁kap	-1437
▁dalj	-1438
▁knji	-1439
▁ovjek	-1440
▁Je	-1441
▁Ali	-1442
▁pita	-1443
raz	-1444
▁kor	-1445
▁glum	-1446
▁pokuš	-1447
▁demo	-1448
▁eme	-1449
▁kin	-1450
▁rješ	-1451
tan	-1452
▁VID	-1453
▁ure	-1454
▁usk	-1455
▁šte	-1456
▁prof	-1457
▁Ra	-1458
▁pozor	-1459
▁uprug	-1460
gub	-1461
▁gre	-1462
▁Iako	-1463
▁surad	-1464
▁aju	-1465
▁[	-1466
▁tvrd	-1467
▁islim	-1468
▁bod	-1469
▁obi	-1470
ža	-1471
▁ena	-1472
▁rtner	-1473
▁izv	-1474
▁Da	-1475
▁Fran	-1476
▁loš	-1477
▁sum	-1478
▁druga	-1479
▁gađ	-1480
▁ništa	-1481
▁vezan	-1482
▁zadnj	-1483
▁mnogi	-1484
jedn	-1485
▁tjedn	-1486
▁polu	-1487
▁svom	-1488
đe	-1489
rin	-1490
▁Min	-1491
▁znam	-1492
▁elekt	-1493
▁Ova	-1494
▁nuo	-1495
▁tuden	-1496
▁end	-1497
▁trag	-1498
▁karij	-1499
EO	-1500
▁sport	-1501
▁uh	-1502
▁Gr	-1503
▁neke	-1504
▁stupa	-1505
kac	-1506
▁nove	-1507
▁mal	-1508
jec	-1509
▁liku	-1510
▁izgub	-1511
▁ortsk	-1512
▁gru	-1513
▁ansk	-1514
▁eli	-1515
ska	-1516
▁ću	-1517
▁ajte	-1518
▁vlasn	-1519
▁ičn	-1520
lat	-1521
▁jut	-1522
▁VIDEO	-1523
▁treć	-1524
▁dobio	-1525
▁sumnj	-1526
▁asnij	-1527
las	-1528
▁stala	-1529
▁gospo	-1530
▁enz	-1531
▁sebe	-1532
▁poruk	-1533
rek	-1534
▁uj	-1535
▁vijač	-1536
▁des	-1537
▁veo	-1538
▁fotog	-1539
▁ativ	-1540
žu	-1541
▁ozi	-1542
▁]	-1543
▁lik	-1544
▁ebačk	-1545
ćn	-1546
tom	-1547
kc	-1548
▁liječ	-1549
▁posla	-1550
▁Rus	-1551
▁aciju	-1552
▁pojav	-1553
ron	-1554
▁ator	-1555
▁sla	-1556
▁slov	-1557
▁često	-1558
▁akn	-1559
▁oda	-1560
rag	-1561
▁=>	-1562
▁ras	-1563
▁liti	-1564
▁pli	-1565
▁okaln	-1566
▁Pred	-1567
rom	-1568
▁emelj	-1569
▁talij	-1570
▁brzo	-1571
mah	-1572
▁ičar	-1573
▁ču	-1574
▁hva	-1575
▁Minis	-1576
▁ublik	-1577
▁nima	-1578
▁vlast	-1579
▁laz	-1580
▁zor	-1581
▁zagr	-1582
▁ionic	-1583
▁Ja	-1584
▁stat	-1585
▁gađaj	-1586
iz	-1587
ime	-1588
▁roda	-1589
▁štet	-1590
▁većin	-1591
▁jviše	-1592
▁mladi	-1593
▁laze	-1594
▁vjed	-1595
▁Srbij	-1596
▁str	-1597
▁rošle	-1598
▁bih	-1599
▁ijom	-1600
▁vrat	-1601
▁stanj	-1602
▁vlada	-1603
▁koš	-1604
kiv	-1605
▁kraja	-1606
▁olnic	-1607
kov	-1608
▁otkr	-1609
▁bijed	-1610
▁odnos	-1611
▁čekiv	-1612
▁pone	-1613
▁jede	-1614
▁tešk	-1615
▁nisam	-1616
▁krš	-1617
▁dava	-1618
▁dne	-1619
▁svog	-1620
▁zrak	-1621
▁tog	-1622
vrd	-1623
▁važn	-1624
▁otvrd	-1625
▁imali	-1626
▁spe	-1627
▁stao	-1628
▁optu	-1629
▁Prema	-1630
▁orisn	-1631
▁11	-1632
▁ići	-1633
▁aznen	-1634
▁mogli	-1635
▁ostup	-1636
▁ogu	-1637
▁smrt	-1638
▁gradu	-1639
▁TO	-1640
▁mož	-1641
▁ijan	-1642
rump	-1643
▁Trump	-1644
▁Šp	-1645
▁van	-1646
▁Ju	-1647
▁dodao	-1648
▁dvoj	-1649
▁prat	-1650
▁pov	-1651
▁ara	-1652
▁spješ	-1653
▁rije	-1654
▁icom	-1655
▁irao	-1656
▁pal	-1657
▁aza	-1658
▁zlo	-1659
▁Gor	-1660
▁dvo	-1661
▁mar	-1662
▁ožete	-1663
▁ulic	-1664
▁ose	-1665
▁niz	-1666
▁fer	-1667
▁stoje	-1668
▁djece	-1669
▁Kad	-1670
▁okr	-1671
▁Andr	-1672
▁direk	-1673
▁počel	-1674
▁nul	-1675
▁nosu	-1676
▁uto	-1677
▁čij	-1678
▁uvjet	-1679
▁rin	-1680
▁vel	-1681
▁imen	-1682
▁ponu	-1683
▁vide	-1684
▁kat	-1685
▁pokr	-1686
▁Rep	-1687
▁akav	-1688
▁laza	-1689
▁Y	-1690
▁okup	-1691
▁mis	-1692
▁maj	-1693
▁možda	-1694
▁anjo	-1695
▁slovn	-1696
▁ivn	-1697
▁doga	-1698
▁novno	-1699
▁otvor	-1700
▁mješt	-1701
▁ajn	-1702
▁omoć	-1703
▁ranij	-1704
sa	-1705
▁ncert	-1706
▁bolje	-1707
▁oveća	-1708
vet	-1709
▁jeć	-1710
▁naše	-1711
▁ia	-1712
▁ipak	-1713
▁odršk	-1714
leg	-1715
▁SD	-1716
▁arl	-1717
▁trans	-1718
▁ponud	-1719
▁imp	-1720
▁Franc	-1721
▁rži	-1722
▁jeva	-1723
▁icima	-1724
▁serij	-1725
▁genc	-1726
▁ijaln	-1727
▁ban	-1728
▁Rusij	-1729
▁enu	-1730
mu	-1731
▁%	-1732
▁oper	-1733
▁trgov	-1734
▁odi	-1735
▁lazak	-1736
▁jub	-1737
▁jubav	-1738
▁jav	-1739
uk	-1740
▁oje	-1741
ch	-1742
▁odmah	-1743
▁pozic	-1744
▁Ameri	-1745
▁Pod	-1746
▁aknu	-1747
▁plas	-1748
▁priča	-1749
AD	-1750
▁De	-1751
▁lije	-1752
▁utjec	-1753
▁On	-1754
▁rem	-1755
▁tira	-1756
▁avjet	-1757
▁imir	-1758
▁svaki	-1759
zd	-1760
▁ben	-1761
▁znak	-1762
▁htjev	-1763
vin	-1764
▁ian	-1765
▁inama	-1766
▁znan	-1767
▁iako	-1768
▁pisa	-1769
▁vik	-1770
▁ovati	-1771
▁bira	-1772
▁snim	-1773
▁ratur	-1774
▁Uz	-1775
▁tvarn	-1776
▁Pet	-1777
▁ravil	-1778
▁Ro	-1779
▁ijek	-1780
▁kretn	-1781
▁estiv	-1782
▁redi	-1783
▁mirov	-1784
▁stv	-1785
▁ell	-1786
▁ista	-1787
▁kolo	-1788
▁dogod	-1789
▁osobn	-1790
▁Pe	-1791
▁scen	-1792
▁temp	-1793
▁vije	-1794
▁ković	-1795
▁Velik	-1796
▁aja	-1797
▁rol	-1798
▁utku	-1799
▁aša	-1800
▁ozbil	-1801
▁pisao	-1802
▁stigl	-1803
▁sob	-1804
▁niti	-1805
▁18	-1806
▁klon	-1807
▁Nije	-1808
▁etalj	-1809
▁bivš	-1810
▁ved	-1811
▁imamo	-1812
▁osobe	-1813
▁pokaz	-1814
▁HN	-1815
▁bla	-1816
▁ulog	-1817
▁plaća	-1818
▁ang	-1819
▁rodn	-1820
▁litik	-1821
▁evi	-1822
▁50	-1823
▁Ši	-1824
▁daje	-1825
▁Naime	-1826
▁učen	-1827
▁Osim	-1828
▁reći	-1829
▁zrael	-1830
▁boj	-1831
▁ion	-1832
▁azov	-1833
▁ulj	-1834
▁nedo	-1835
▁onač	-1836
▁opasn	-1837
▁lanir	-1838
▁oga	-1839
▁boga	-1840
▁kamp	-1841
▁lož	-1842
▁ašnj	-1843
▁aknuo	-1844
mije	-1845
▁viđ	-1846
▁ekip	-1847
▁centr	-1848
▁stupn	-1849
▁zirom	-1850
▁amb	-1851
▁vjetn	-1852
▁Bar	-1853
▁oto	-1854
▁nutar	-1855
▁posao	-1856
▁vra	-1857
▁rati	-1858
▁res	-1859
▁padn	-1860
▁ovrat	-1861
▁radic	-1862
▁dug	-1863
▁ogr	-1864
▁injen	-1865
▁park	-1866
▁oslen	-1867
▁kva	-1868
▁skr	-1869
▁Sv	-1870
▁zb	-1871
▁omoći	-1872
▁mas	-1873
▁ljanj	-1874
▁uda	-1875
▁stali	-1876
▁Iva	-1877
▁ličit	-1878
▁13	-1879
▁In	-1880
▁jaš	-1881
▁mogla	-1882
▁prava	-1883
▁tkril	-1884
▁var	-1885
▁ište	-1886
▁jan	-1887
▁kojim	-1888
▁optuž	-1889
str	-1890
▁vrt	-1891
▁inst	-1892
▁iznos	-1893
▁vlad	-1894
▁SAD	-1895
▁nijel	-1896
▁zanim	-1897
▁tamo	-1898
▁znači	-1899
dam	-1900
▁iste	-1901
▁čega	-1902
▁dnevn	-1903
▁Br	-1904
ment	-1905
▁tvrđ	-1906
▁pravn	-1907
▁blag	-1908
▁vrhu	-1909
▁poraz	-1910
▁šao	-1911
les	-1912
▁sja	-1913
▁ie	-1914
▁ša	-1915
▁Polic	-1916
▁bliz	-1917
▁rada	-1918
▁encij	-1919
▁kluba	-1920
▁jedeć	-1921
▁hit	-1922
▁ržišt	-1923
▁ete	-1924
▁izvan	-1925
▁nes	-1926
rok	-1927
▁erv	-1928
▁petak	-1929
▁zašto	-1930
▁igrao	-1931
jeg	-1932
lam	-1933
▁uper	-1934
▁ljučn	-1935
▁sljed	-1936
▁sata	-1937
▁tempe	-1938
▁tip	-1939
▁inac	-1940
▁caron	-1941
▁vojoj	-1942
▁čić	-1943
▁brod	-1944
▁zato	-1945
▁tarij	-1946
▁rio	-1947
▁oran	-1948
▁kop	-1949
▁pros	-1950
▁anjol	-1951
ces	-1952
▁14	-1953
▁ita	-1954
▁ovn	-1955
▁vozač	-1956
▁fun	-1957
▁real	-1958
▁ero	-1959
▁SDP	-1960
▁jes	-1961
sad	-1962
▁andat	-1963
pt	-1964
▁uzi	-1965
▁loven	-1966
▁ter	-1967
psk	-1968
▁Naj	-1969
▁dati	-1970
▁17	-1971
▁rade	-1972
▁roces	-1973
▁tres	-1974
▁savez	-1975
▁ruš	-1976
▁Petr	-1977
▁troš	-1978
▁komun	-1979
▁zva	-1980
▁kilo	-1981
▁arlam	-1982
▁netko	-1983
▁pular	-1984
uno	-1985
▁adran	-1986
▁bodov	-1987
▁tpuno	-1988
▁dala	-1989
▁ogas	-1990
▁vesti	-1991
lov	-1992
▁Kada	-1993
▁čn	-1994
▁rata	-1995
▁ef	-1996
▁era	-1997
▁bogat	-1998
▁davno	-1999
▁Fi	-2000
▁nt	-2001
▁like	-2002
▁osam	-2003
▁ema	-2004
▁lji	-2005
▁imala	-2006
▁dom	-2007
▁tičk	-2008
jeh	-2009
▁kakv	-2010
▁erenc	-2011
▁ivši	-2012
▁sedam	-2013
▁čke	-2014
▁funkc	-2015
▁spjeh	-2016
▁Šiben	-2017
▁ajin	-2018
▁Josi	-2019
▁opet	-2020
▁vrst	-2021
▁cima	-2022
▁bol	-2023
▁son	-2024
▁ikac	-2025
▁Josip	-2026
▁svega	-2027
▁ze	-2028
tim	-2029
▁ital	-2030
▁boles	-2031
man	-2032
▁jiv	-2033
▁25	-2034
▁ay	-2035
▁uci	-2036
▁nijet	-2037
▁atelj	-2038
▁ch	-2039
▁uređ	-2040
▁riopć	-2041
▁venim	-2042
▁ark	-2043
▁ubotu	-2044
▁prvom	-2045
▁16	-2046
▁af	-2047
▁Au	-2048
▁nicu	-2049
▁redov	-2050
▁sijek	-2051
▁zl	-2052
▁rtv	-2053
▁akle	-2054
▁ovih	-2055
▁premn	-2056
▁akc	-2057
▁uvjer	-2058
dic	-2059
▁mene	-2060
▁njim	-2061
▁ovu	-2062
▁Đ	-2063
▁ill	-2064
▁ured	-2065
▁bav	-2066
▁ovdje	-2067
▁ređen	-2068
▁eva	-2069
▁bran	-2070
▁už	-2071
▁izvor	-2072
▁iznen	-2073
▁vatn	-2074
▁eč	-2075
▁kazn	-2076
▁lasti	-2077
▁Ob	-2078
ine	-2079
▁Bil	-2080
▁dao	-2081
▁jutro	-2082
▁so	-2083
▁bile	-2084
▁zabav	-2085
▁lipnj	-2086
▁koleg	-2087
▁ušt	-2088
▁ijete	-2089
▁jatno	-2090
▁znanj	-2091
es	-2092
▁eka	-2093
▁doblj	-2094
▁ovjer	-2095
▁utova	-2096
▁hod	-2097
▁mak	-2098
▁šli	-2099
▁njen	-2100
▁Ant	-2101
▁Slav	-2102
▁stru	-2103
▁korak	-2104
▁čel	-2105
▁želi	-2106
▁grama	-2107
▁zljed	-2108
▁Tom	-2109
▁dodat	-2110
▁Repub	-2111
▁logij	-2112
▁vši	-2113
▁eć	-2114
▁ib	-2115
▁mod	-2116
▁rođen	-2117
▁orij	-2118
▁tih	-2119
▁bjeg	-2120
▁lika	-2121
▁vlač	-2122
▁novac	-2123
▁ey	-2124
▁topl	-2125
▁borav	-2126
lož	-2127
▁ćete	-2128
▁ton	-2129
▁djevo	-2130
▁vojih	-2131
▁ment	-2132
▁utno	-2133
▁Per	-2134
▁glasa	-2135
▁metaš	-2136
▁grup	-2137
min	-2138
▁slab	-2139
▁nd	-2140
▁glaš	-2141
▁ument	-2142
▁urnir	-2143
▁druž	-2144
▁deset	-2145
▁išl	-2146
▁ijent	-2147
▁osebn	-2148
▁romet	-2149
▁jeru	-2150
▁kriv	-2151
▁jug	-2152
▁uži	-2153
▁neza	-2154
▁Kao	-2155
▁pute	-2156
▁uzima	-2157
isl	-2158
▁19	-2159
▁Bo	-2160
▁rof	-2161
▁vaja	-2162
▁zapo	-2163
▁Nikol	-2164
▁ljep	-2165
▁ozna	-2166
rez	-2167
▁dosad	-2168
▁ijeva	-2169
▁for	-2170
▁per	-2171
▁sjeća	-2172
▁skoro	-2173
▁iši	-2174
sko	-2175
▁kola	-2176
▁kid	-2177
▁datak	-2178
▁islav	-2179
▁jeruj	-2180
▁slije	-2181
▁tigao	-2182
▁rah	-2183
▁traja	-2184
▁eksp	-2185
▁lakš	-2186
▁ident	-2187
▁tho	-2188
▁rednj	-2189
▁ijezd	-2190
▁vjero	-2191
▁duše	-2192
▁okus	-2193
▁ovoj	-2194
▁jašnj	-2195
ste	-2196
▁antn	-2197
▁lako	-2198
▁rujn	-2199
kl	-2200
▁vin	-2201
▁Preds	-2202
▁tijel	-2203
▁tudij	-2204
živ	-2205
▁pl	-2206
▁lopt	-2207
▁rađ	-2208
▁otenc	-2209
▁ato	-2210
▁raća	-2211
▁ome	-2212
▁graf	-2213
▁ešk	-2214
▁gub	-2215
▁gener	-2216
▁ozlij	-2217
▁cr	-2218
▁snag	-2219
▁Ivana	-2220
▁ištu	-2221
▁anjsk	-2222
uz	-2223
▁autor	-2224
▁uživa	-2225
▁povr	-2226
▁vjet	-2227
▁čini	-2228
▁astav	-2229
▁ritan	-2230
▁ug	-2231
▁događ	-2232
▁pošt	-2233
teg	-2234
▁pje	-2235
▁pjeva	-2236
▁slova	-2237
▁muš	-2238
▁pol	-2239
▁etku	-2240
▁pogod	-2241
▁rat	-2242
▁istin	-2243
▁val	-2244
▁potom	-2245
▁rodaj	-2246
▁kog	-2247
▁žena	-2248
▁kateg	-2249
▁uktur	-2250
▁NA	-2251
▁cel	-2252
▁40	-2253
▁prič	-2254
▁seks	-2255
▁ijih	-2256
▁Zbog	-2257
▁nače	-2258
▁oruž	-2259
▁sklad	-2260
▁ane	-2261
▁jam	-2262
▁Austr	-2263
▁jasno	-2264
▁spred	-2265
▁ući	-2266
▁dosta	-2267
▁mater	-2268
▁oguće	-2269
▁vjež	-2270
roš	-2271
▁manj	-2272
▁ojatn	-2273
▁vib	-2274
end	-2275
▁uca	-2276
▁sno	-2277
▁djecu	-2278
▁prve	-2279
▁rist	-2280
▁sami	-2281
▁uslu	-2282
▁njoj	-2283
▁ozem	-2284
▁Dr	-2285
▁nč	-2286
▁osim	-2287
▁Ar	-2288
▁PO	-2289
▁elen	-2290
▁mr	-2291
▁veli	-2292
tic	-2293
▁Svi	-2294
▁luk	-2295
▁rsk	-2296
▁Jedn	-2297
▁abil	-2298
▁almac	-2299
▁azva	-2300
▁tnj	-2301
▁ivati	-2302
▁vijeć	-2303
▁mnogo	-2304
▁Su	-2305
▁smije	-2306
▁dub	-2307
▁lošk	-2308
▁muška	-2309
▁ništv	-2310
▁Real	-2311
▁kovi	-2312
▁otroš	-2313
▁hi	-2314
▁nismo	-2315
▁razov	-2316
▁oramo	-2317
▁ektor	-2318
▁troj	-2319
▁rend	-2320
▁putem	-2321
▁thodn	-2322
▁đen	-2323
▁estr	-2324
▁elj	-2325
▁moj	-2326
▁rid	-2327
▁oji	-2328
▁omč	-2329
▁Opć	-2330
▁došao	-2331
▁sadrž	-2332
▁24	-2333
▁omčad	-2334
▁uslug	-2335
▁Prije	-2336
▁moglo	-2337
▁gal	-2338
▁vođa	-2339
▁pušta	-2340
▁srpnj	-2341
▁ljan	-2342
▁obr	-2343
▁anic	-2344
▁torak	-2345
▁itn	-2346
▁Luka	-2347
AJ	-2348
▁uć	-2349
▁kiš	-2350
▁lov	-2351
▁tekl	-2352
▁leks	-2353
▁naći	-2354
▁opis	-2355
▁plav	-2356
▁prva	-2357
▁ionir	-2358
▁mlađ	-2359
▁ispit	-2360
▁olog	-2361
▁Rad	-2362
▁kojih	-2363
▁radio	-2364
▁vjedo	-2365
▁Gra	-2366
▁ujuć	-2367
▁tehno	-2368
▁kuša	-2369
▁model	-2370
▁ene	-2371
▁oman	-2372
▁nekad	-2373
TE	-2374
eb	-2375
▁crn	-2376
▁Marko	-2377
▁stiče	-2378
▁rasta	-2379
▁sel	-2380
▁ulaz	-2381
▁oziva	-2382
▁ažnj	-2383
lop	-2384
mal	-2385
▁mag	-2386
▁rok	-2387
ck	-2388
▁nato	-2389
▁drugo	-2390
▁bis	-2391
▁ivotu	-2392
▁snovn	-2393
adr	-2394
▁snaž	-2395
▁sklop	-2396
▁split	-2397
▁stavk	-2398
▁kok	-2399
▁noć	-2400
▁nimk	-2401
▁atn	-2402
▁ekt	-2403
▁doći	-2404
▁dobil	-2405
▁BiH	-2406
▁nose	-2407
▁zitiv	-2408
▁daju	-2409
▁titi	-2410
▁đ	-2411
▁stoj	-2412
▁djela	-2413
▁dobar	-2414
jas	-2415
lip	-2416
▁rasl	-2417
▁skrb	-2418
▁regij	-2419
orn	-2420
▁Zo	-2421
▁ord	-2422
▁rvu	-2423
▁obnov	-2424
nad	-2425
▁šp	-2426
▁rvoj	-2427
▁cjen	-2428
▁idej	-2429
▁ravnj	-2430
▁sat	-2431
▁ovim	-2432
▁trud	-2433
▁ha	-2434
▁krv	-2435
▁spec	-2436
▁čemu	-2437
▁atr	-2438
▁venc	-2439
▁mjene	-2440
▁onačn	-2441
▁polj	-2442
▁time	-2443
▁ncu	-2444
▁konz	-2445
▁artin	-2446
▁esn	-2447
▁knjig	-2448
▁ah	-2449
▁rkv	-2450
▁devet	-2451
▁vibnj	-2452
dio	-2453
▁nor	-2454
▁krug	-2455
▁takt	-2456
▁dolar	-2457
kob	-2458
▁ea	-2459
▁ored	-2460
▁svima	-2461
▁Grada	-2462
▁likom	-2463
1.	-2464
▁+	-2465
▁gar	-2466
▁bjed	-2467
▁konf	-2468
▁vica	-2469
▁rig	-2470
▁hlad	-2471
▁konc	-2472
▁entar	-2473
▁oraju	-2474
▁plitu	-2475
▁tiče	-2476
dus	-2477
▁desn	-2478
▁čkoj	-2479
▁riješ	-2480
▁svjet	-2481
▁šić	-2482
kur	-2483
▁sebi	-2484
▁doživ	-2485
▁dbor	-2486
▁eđen	-2487
▁zlat	-2488
▁ijski	-2489
▁iskor	-2490
▁prvog	-2491
▁uzrok	-2492
▁abr	-2493
▁post	-2494
▁etkom	-2495
zir	-2496
▁biva	-2497
▁išt	-2498
▁bija	-2499
▁ičko	-2500
▁zrač	-2501
▁The	-2502
▁net	-2503
▁tur	-2504
ton	-2505
▁moći	-2506
▁sjajn	-2507
▁dječ	-2508
▁olje	-2509
▁emis	-2510
▁jezi	-2511
▁novog	-2512
▁ozorn	-2513
▁Euro	-2514
▁neu	-2515
▁lijep	-2516
▁rijet	-2517
▁Takođ	-2518
▁medic	-2519
▁bin	-2520
▁poče	-2521
▁Zoran	-2522
▁tkrio	-2523
▁Ist	-2524
▁bra	-2525
▁ičin	-2526
▁noge	-2527
▁ušten	-2528
▁vršen	-2529
▁uči	-2530
▁loga	-2531
▁opće	-2532
▁jevač	-2533
▁diz	-2534
▁iraju	-2535
▁smjer	-2536
▁ruk	-2537
▁dlog	-2538
▁dušev	-2539
▁lijev	-2540
▁vrata	-2541
▁jud	-2542
▁čita	-2543
▁fizi	-2544
▁hu	-2545
▁Mir	-2546
▁lež	-2547
▁psi	-2548
▁tuž	-2549
▁bjedu	-2550
▁crven	-2551
▁sukob	-2552
▁Vla	-2553
▁knad	-2554
▁ljude	-2555
▁želj	-2556
▁Se	-2557
▁onaša	-2558
▁laska	-2559
▁\	-2560
▁šan	-2561
▁siječ	-2562
▁ng	-2563
▁ron	-2564
▁išić	-2565
▁njemu	-2566
▁igi	-2567
▁urg	-2568
▁odli	-2569
▁kupno	-2570
▁otin	-2571
▁njema	-2572
▁snage	-2573
▁tal	-2574
▁nama	-2575
▁oslav	-2576
▁HR	-2577
▁eku	-2578
▁raž	-2579
▁zas	-2580
▁držan	-2581
▁jezik	-2582
▁ravna	-2583
▁sretn	-2584
▁kić	-2585
▁nepo	-2586
▁alost	-2587
▁obvez	-2588
LE	-2589
▁oć	-2590
▁Danas	-2591
▁Bio	-2592
▁tis	-2593
▁Ovaj	-2594
mov	-2595
▁laž	-2596
▁toj	-2597
▁andr	-2598
▁vođ	-2599
▁besp	-2600
▁očet	-2601
▁che	-2602
▁jećaj	-2603
▁novih	-2604
▁posob	-2605
▁redst	-2606
▁def	-2607
▁inc	-2608
▁lig	-2609
▁komb	-2610
▁bijel	-2611
▁teren	-2612
▁dig	-2613
▁ljet	-2614
▁obzir	-2615
▁zatim	-2616
▁Tu	-2617
▁akter	-2618
▁ank	-2619
▁išao	-2620
▁trij	-2621
lja	-2622
▁1.	-2623
▁dra	-2624
▁kcij	-2625
▁Vlade	-2626
▁hotel	-2627
▁minal	-2628
der	-2629
▁evin	-2630
▁uboj	-2631
▁tenis	-2632
▁Domov	-2633
▁esi	-2634
▁ijep	-2635
▁dinsk	-2636
▁oži	-2637
▁arin	-2638
▁pogo	-2639
▁Njeg	-2640
▁alent	-2641
▁ovakv	-2642
▁gan	-2643
▁oru	-2644
▁bliž	-2645
▁judsk	-2646
▁privr	-2647
▁esel	-2648
▁vela	-2649
▁kuha	-2650
▁video	-2651
▁evo	-2652
▁Općin	-2653
▁objas	-2654
▁22	-2655
▁klup	-2656
kan	-2657
▁aket	-2658
▁enjem	-2659
▁koga	-2660
▁ovao	-2661
▁tpor	-2662
▁poziv	-2663
▁ratko	-2664
▁vođač	-2665
▁ičke	-2666
▁vedb	-2667
▁hvalj	-2668
▁mate	-2669
▁nter	-2670
▁otpun	-2671
ic	-2672
▁soc	-2673
▁biste	-2674
▁osjet	-2675
▁ign	-2676
▁rel	-2677
▁tvrdi	-2678
▁doz	-2679
▁Filip	-2680
▁glasn	-2681
▁60	-2682
▁Dok	-2683
▁utin	-2684
▁učil	-2685
▁Insta	-2686
▁sprem	-2687
▁jč	-2688
▁tvo	-2689
▁otok	-2690
▁došlo	-2691
▁dija	-2692
▁stiž	-2693
▁adion	-2694
▁alij	-2695
▁klad	-2696
▁pravi	-2697
▁sličn	-2698
▁udrug	-2699
▁svet	-2700
▁amben	-2701
▁novu	-2702
▁linij	-2703
▁nitko	-2704
▁ps	-2705
▁Oli	-2706
čadi	-2707
▁mčadi	-2708
▁Har	-2709
▁sil	-2710
▁žele	-2711
▁bivši	-2712
▁sabor	-2713
▁kažu	-2714
▁lige	-2715
▁kršaj	-2716
▁počeo	-2717
▁Mil	-2718
▁POG	-2719
▁ata	-2720
▁rap	-2721
▁avor	-2722
▁ispod	-2723
▁udac	-2724
▁ursk	-2725
▁zvao	-2726
▁Marin	-2727
▁srpsk	-2728
nih	-2729
▁etan	-2730
▁indus	-2731
▁DAJ	-2732
▁fra	-2733
▁uri	-2734
▁lask	-2735
▁lici	-2736
▁POGLE	-2737
nev	-2738
▁eak	-2739
▁osje	-2740
▁onj	-2741
▁ožić	-2742
▁zraz	-2743
▁DAJTE	-2744
▁lokac	-2745
▁bank	-2746
▁mirn	-2747
▁bismo	-2748
▁New	-2749
▁oval	-2750
▁natoč	-2751
▁odnev	-2752
▁hol	-2753
▁Olimp	-2754
▁zabio	-2755
▁alb	-2756
▁jest	-2757
▁opor	-2758
▁ekst	-2759
▁djeca	-2760
▁oblik	-2761
viz	-2762
▁FO	-2763
▁zim	-2764
kar	-2765
jekt	-2766
▁igre	-2767
▁bjekt	-2768
▁poljo	-2769
▁Mark	-2770
▁leviz	-2771
▁odmor	-2772
▁turis	-2773
▁erz	-2774
▁erenu	-2775
▁Ber	-2776
▁rov	-2777
▁java	-2778
▁onih	-2779
▁aknul	-2780
▁stane	-2781
ves	-2782
▁etimo	-2783
▁Oni	-2784
▁viš	-2785
▁goj	-2786
▁brak	-2787
▁cikl	-2788
▁iduć	-2789
▁ituc	-2790
▁pcij	-2791
▁Bilo	-2792
▁djet	-2793
▁nosn	-2794
▁rimor	-2795
▁platf	-2796
▁nuti	-2797
▁smisl	-2798
▁niž	-2799
▁šok	-2800
▁tpis	-2801
▁silj	-2802
▁stalo	-2803
▁uzet	-2804
▁glo	-2805
▁ort	-2806
▁insp	-2807
▁mamo	-2808
▁nali	-2809
▁pravd	-2810
▁eakc	-2811
▁renul	-2812
▁pad	-2813
▁kojom	-2814
▁onkur	-2815
▁ađa	-2816
▁sut	-2817
▁ajka	-2818
▁ojača	-2819
▁psih	-2820
▁čast	-2821
▁datno	-2822
▁Samo	-2823
▁ečen	-2824
▁pogi	-2825
▁minj	-2826
▁ijelo	-2827
▁viz	-2828
▁krat	-2829
▁land	-2830
▁egend	-2831
▁godio	-2832
▁rekli	-2833
▁uoč	-2834
▁oder	-2835
▁ruža	-2836
▁očetk	-2837
▁tl	-2838
▁irali	-2839
▁razum	-2840
▁podn	-2841
▁tajn	-2842
▁jedne	-2843
▁nepri	-2844
▁Kin	-2845
▁Mat	-2846
▁aut	-2847
▁iln	-2848
▁ratn	-2849
▁tand	-2850
▁fikac	-2851
žar	-2852
▁ivot	-2853
▁nčan	-2854
▁ekcij	-2855
▁ražen	-2856
▁ološk	-2857
▁budu	-2858
▁X	-2859
▁današ	-2860
▁tin	-2861
▁iječ	-2862
▁iven	-2863
▁anič	-2864
▁Din	-2865
▁ris	-2866
▁izam	-2867
▁krit	-2868
▁vodno	-2869
▁RT	-2870
▁arem	-2871
▁jveći	-2872
▁zvješ	-2873
▁ern	-2874
▁rea	-2875
▁priv	-2876
▁ukl	-2877
▁ojsk	-2878
▁znaju	-2879
▁čka	-2880
▁erce	-2881
▁ich	-2882
▁zel	-2883
▁požar	-2884
▁ročit	-2885
▁ity	-2886
▁pao	-2887
▁oznat	-2888
▁abra	-2889
▁rib	-2890
▁ruč	-2891
▁Foto	-2892
▁laže	-2893
▁riz	-2894
▁adaš	-2895
▁lesk	-2896
▁spri	-2897
▁jez	-2898
▁gres	-2899
▁olov	-2900
▁lat	-2901
▁leg	-2902
▁pava	-2903
▁istič	-2904
riš	-2905
▁štr	-2906
▁ock	-2907
▁raš	-2908
▁Vlad	-2909
▁porez	-2910
▁abiln	-2911
▁ljetn	-2912
▁Vid	-2913
▁kal	-2914
▁tenj	-2915
▁100	-2916
▁baln	-2917
▁rinc	-2918
▁ano	-2919
▁ešć	-2920
▁iže	-2921
▁rilik	-2922
▁vidi	-2923
▁brani	-2924
▁ađ	-2925
▁oči	-2926
▁zemal	-2927
▁ukov	-2928
▁zbor	-2929
▁astan	-2930
▁amp	-2931
▁dion	-2932
▁inja	-2933
▁izik	-2934
▁norm	-2935
▁iru	-2936
▁zvan	-2937
▁povez	-2938
▁dali	-2939
▁gira	-2940
▁ožu	-2941
▁Raz	-2942
▁ork	-2943
▁mali	-2944
▁ualn	-2945
▁veći	-2946
▁pisal	-2947
▁kav	-2948
▁etka	-2949
▁znao	-2950
▁rirod	-2951
▁jk	-2952
▁aknut	-2953
▁opada	-2954
ot	-2955
▁tekst	-2956
▁der	-2957
▁gon	-2958
▁istr	-2959
▁pola	-2960
▁pisan	-2961
▁ex	-2962
▁Kat	-2963
▁etsk	-2964
▁kupa	-2965
▁prot	-2966
▁slik	-2967
▁tječ	-2968
▁žene	-2969
▁dž	-2970
▁ravn	-2971
▁ači	-2972
▁uhi	-2973
▁avez	-2974
▁ćenj	-2975
▁radil	-2976
▁daj	-2977
▁ažnij	-2978
▁stoja	-2979
▁bud	-2980
▁mos	-2981
▁iljem	-2982
▁gl	-2983
▁Luk	-2984
▁ariz	-2985
▁indi	-2986
▁odstv	-2987
▁ft	-2988
▁ail	-2989
▁uru	-2990
▁abran	-2991
▁ner	-2992
▁anti	-2993
▁renut	-2994
▁sho	-2995
▁šću	-2996
▁latn	-2997
▁omu	-2998
▁rac	-2999
▁tez	-3000
▁dis	-3001
▁alko	-3002
▁db	-3003
▁ilj	-3004
▁imb	-3005
▁ole	-3006
▁por	-3007
▁Zagr	-3008
▁edan	-3009
▁najp	-3010
▁reba	-3011
▁kvali	-3012
▁onij	-3013
▁ekon	-3014
▁ično	-3015
▁alj	-3016
▁epi	-3017
▁rekor	-3018
▁danj	-3019
▁nimn	-3020
▁rael	-3021
tual	-3022
▁ior	-3023
▁plov	-3024
▁ktual	-3025
▁sprič	-3026
▁Još	-3027
▁azna	-3028
▁inira	-3029
▁ujemo	-3030
▁Man	-3031
▁noći	-3032
▁hoće	-3033
▁iden	-3034
▁kolu	-3035
▁nekim	-3036
▁izm	-3037
▁mre	-3038
▁akon	-3039
▁nalaz	-3040
upn	-3041
▁DP	-3042
▁akv	-3043
▁duz	-3044
▁iše	-3045
▁anju	-3046
▁lice	-3047
sj	-3048
▁Modr	-3049
▁enik	-3050
▁izma	-3051
▁utra	-3052
▁voda	-3053
▁ljenj	-3054
▁staju	-3055
▁23	-3056
▁isa	-3057
▁pam	-3058
hi	-3059
▁jaci	-3060
▁stol	-3061
▁aciji	-3062
▁zapad	-3063
▁ašk	-3064
▁lago	-3065
▁juč	-3066
▁reć	-3067
▁unij	-3068
▁voje	-3069
▁ratio	-3070
▁važno	-3071
▁čist	-3072
▁svjed	-3073
▁arm	-3074
▁atič	-3075
▁Dinam	-3076
▁dmet	-3077
▁uput	-3078
▁zabr	-3079
▁duzet	-3080
▁ukupn	-3081
▁RTL	-3082
▁ers	-3083
▁nte	-3084
▁ukr	-3085
▁asn	-3086
▁eor	-3087
▁akul	-3088
▁ljava	-3089
▁voran	-3090
bot	-3091
▁nsk	-3092
▁brat	-3093
▁eogr	-3094
▁naša	-3095
▁zon	-3096
▁apad	-3097
▁selj	-3098
▁bijen	-3099
▁ere	-3100
▁trk	-3101
▁prim	-3102
▁mom	-3103
▁ater	-3104
▁pomo	-3105
▁show	-3106
▁čkog	-3107
▁ež	-3108
▁maju	-3109
▁olim	-3110
▁rest	-3111
▁ortu	-3112
▁esion	-3113
▁rediš	-3114
▁if	-3115
▁pć	-3116
▁igr	-3117
▁tic	-3118
▁proiz	-3119
▁Ba	-3120
▁Mos	-3121
▁abl	-3122
▁preuz	-3123
▁ajk	-3124
▁ook	-3125
▁rtal	-3126
▁duh	-3127
▁čen	-3128
▁Te	-3129
▁enuo	-3130
▁plać	-3131
▁ref	-3132
▁onal	-3133
▁anstv	-3134
▁atiti	-3135
▁eret	-3136
▁div	-3137
▁dvor	-3138
▁aksim	-3139
▁Le	-3140
▁rsn	-3141
▁ših	-3142
▁limp	-3143
▁meni	-3144
▁obič	-3145
▁naliz	-3146
▁elu	-3147
▁eng	-3148
▁noš	-3149
▁omb	-3150
▁arij	-3151
▁otiv	-3152
▁kovit	-3153
▁Novi	-3154
▁vako	-3155
▁zelen	-3156
▁he	-3157
▁uc	-3158
▁ijel	-3159
▁staln	-3160
▁eks	-3161
▁gosti	-3162
▁premi	-3163
▁akl	-3164
▁štin	-3165
▁ostat	-3166
▁tehni	-3167
▁lič	-3168
▁ričn	-3169
▁koriš	-3170
NA	-3171
▁kul	-3172
▁rab	-3173
▁ario	-3174
▁podne	-3175
▁eter	-3176
▁ljaju	-3177
▁tac	-3178
▁bert	-3179
▁kart	-3180
▁strat	-3181
▁struk	-3182
▁njom	-3183
▁trad	-3184
▁entn	-3185
▁olin	-3186
▁stale	-3187
hn	-3188
▁26	-3189
▁ikl	-3190
▁mon	-3191
▁run	-3192
▁upo	-3193
▁hoda	-3194
▁novc	-3195
▁edi	-3196
▁ranj	-3197
▁škar	-3198
▁entr	-3199
▁reza	-3200
▁uva	-3201
▁Os	-3202
▁ond	-3203
▁čeln	-3204
▁bij	-3205
▁dam	-3206
▁ića	-3207
▁otic	-3208
▁javno	-3209
▁rec	-3210
▁Zadr	-3211
▁godn	-3212
▁matsk	-3213
▁ostao	-3214
▁osp	-3215
▁rvo	-3216
▁anima	-3217
▁ge	-3218
▁bus	-3219
▁iće	-3220
▁mol	-3221
▁rak	-3222
▁redu	-3223
▁bož	-3224
▁esu	-3225
▁užen	-3226
▁posve	-3227
▁tič	-3228
▁amet	-3229
▁ly	-3230
▁aps	-3231
▁regi	-3232
jun	-3233
▁ds	-3234
▁atij	-3235
▁ncusk	-3236
▁gn	-3237
▁suz	-3238
▁erij	-3239
ez	-3240
▁pas	-3241
▁reš	-3242
▁lozi	-3243
▁TV	-3244
▁plin	-3245
▁aleko	-3246
▁aljev	-3247
▁tpisa	-3248
▁roč	-3249
▁rvi	-3250
▁pekt	-3251
▁oment	-3252
▁otpis	-3253
▁rikaz	-3254
BC	-3255
▁Žel	-3256
▁Mate	-3257
▁inca	-3258
▁irani	-3259
▁javlj	-3260
▁dić	-3261
▁etn	-3262
▁uženj	-3263
▁kle	-3264
▁kinj	-3265
▁ovan	-3266
▁stal	-3267
▁produ	-3268
▁uti	-3269
▁kući	-3270
▁odom	-3271
▁onos	-3272
▁podu	-3273
▁ljivo	-3274
▁movin	-3275
▁ipl	-3276
▁upa	-3277
▁kata	-3278
▁sist	-3279
▁HRT	-3280
▁nf	-3281
▁tele	-3282
▁El	-3283
▁kim	-3284
▁drav	-3285
▁ljsk	-3286
▁nazi	-3287
▁opri	-3288
▁ade	-3289
▁kih	-3290
▁niji	-3291
▁pćin	-3292
▁ocjen	-3293
▁vjesn	-3294
▁cem	-3295
▁ige	-3296
▁oks	-3297
▁ljuč	-3298
▁ziva	-3299
ava	-3300
▁lok	-3301
▁šeg	-3302
▁šin	-3303
▁uoči	-3304
▁Sl	-3305
▁lad	-3306
▁ikad	-3307
▁odlič	-3308
▁port	-3309
▁greš	-3310
▁čiji	-3311
▁Podsj	-3312
▁bolji	-3313
▁vješt	-3314
▁urist	-3315
▁HNL	-3316
▁Mad	-3317
▁nič	-3318
▁otor	-3319
▁dokaz	-3320
ard	-3321
▁Evo	-3322
▁iskr	-3323
▁boda	-3324
▁Ima	-3325
▁kot	-3326
▁kralj	-3327
▁itk	-3328
▁ula	-3329
▁ensk	-3330
▁tirao	-3331
jan	-3332
▁Af	-3333
▁rut	-3334
▁anjen	-3335
▁kreta	-3336
▁ovisn	-3337
▁Jak	-3338
▁dolaz	-3339
▁irala	-3340
▁Jur	-3341
▁kti	-3342
▁osnov	-3343
▁škarc	-3344
▁our	-3345
▁seg	-3346
▁azil	-3347
▁ać	-3348
▁ijev	-3349
▁ruke	-3350
▁enata	-3351
▁novim	-3352
zej	-3353
▁čet	-3354
▁latk	-3355
▁Rim	-3356
▁ept	-3357
▁liv	-3358
▁omaš	-3359
▁jno	-3360
▁hvać	-3361
▁iječi	-3362
▁poseb	-3363
▁poj	-3364
▁alic	-3365
▁mjeru	-3366
pe	-3367
▁ou	-3368
▁lanj	-3369
▁moćn	-3370
▁alić	-3371
▁inv	-3372
▁javi	-3373
▁traš	-3374
▁rag	-3375
▁omil	-3376
▁kazal	-3377
▁torij	-3378
▁agn	-3379
▁ložen	-3380
▁oglas	-3381
▁ino	-3382
▁ivi	-3383
▁neg	-3384
▁esor	-3385
▁usta	-3386
▁RH	-3387
▁ein	-3388
▁eru	-3389
▁lav	-3390
▁šta	-3391
▁eća	-3392
▁fon	-3393
▁izlož	-3394
▁ljeni	-3395
▁ros	-3396
▁ljuje	-3397
▁oljeć	-3398
▁jeća	-3399
▁ster	-3400
▁lijun	-3401
▁okv	-3402
▁čkih	-3403
▁ovsk	-3404
▁tarnj	-3405
▁lazn	-3406
▁mad	-3407
▁sječ	-3408
▁star	-3409
▁tjer	-3410
▁živi	-3411
pa	-3412
lin	-3413
▁počet	-3414
▁redb	-3415
▁ujem	-3416
▁misij	-3417
▁21	-3418
▁kome	-3419
▁Polj	-3420
▁amer	-3421
▁Ukr	-3422
▁oćn	-3423
▁ravk	-3424
▁kriva	-3425
▁jek	-3426
▁jst	-3427
▁OV	-3428
▁asto	-3429
▁mani	-3430
▁azala	-3431
▁rijel	-3432
▁1,	-3433
▁les	-3434
▁napo	-3435
▁stil	-3436
▁eci	-3437
▁spo	-3438
▁redn	-3439
▁estit	-3440
▁đe	-3441
▁deb	-3442
▁sen	-3443
▁sus	-3444
▁und	-3445
▁šim	-3446
▁tjel	-3447
▁inves	-3448
▁iel	-3449
▁jih	-3450
▁akov	-3451
▁upnj	-3452
▁Dub	-3453
▁mit	-3454
▁vir	-3455
▁kret	-3456
▁lica	-3457
▁aze	-3458
▁lud	-3459
▁lada	-3460
▁arija	-3461
▁dobit	-3462
▁talno	-3463
▁Ho	-3464
▁očn	-3465
▁itno	-3466
▁ispun	-3467
▁strag	-3468
▁han	-3469
▁ick	-3470
▁lic	-3471
▁imam	-3472
▁vezi	-3473
▁mjena	-3474
▁#	-3475
▁sni	-3476
▁agan	-3477
▁veze	-3478
▁ekao	-3479
▁darsk	-3480
▁stičk	-3481
▁Ru	-3482
▁nst	-3483
▁omsk	-3484
▁kov	-3485
▁ong	-3486
▁zov	-3487
▁mjera	-3488
▁opriv	-3489
▁zgled	-3490
▁70	-3491
▁tema	-3492
▁jep	-3493
▁iješ	-3494
▁ktivn	-3495
▁ow	-3496
▁čito	-3497
▁ovali	-3498
▁abor	-3499
▁obje	-3500
▁traj	-3501
▁icira	-3502
▁nosit	-3503
▁podrž	-3504
▁civ	-3505
▁idu	-3506
▁mam	-3507
▁nča	-3508
▁Rije	-3509
▁skup	-3510
▁prona	-3511
▁enim	-3512
▁noga	-3513
▁voga	-3514
▁inale	-3515
▁amo	-3516
▁ižev	-3517
▁att	-3518
▁ret	-3519
▁rugu	-3520
JA	-3521
▁den	-3522
jub	-3523
▁rn	-3524
▁dram	-3525
▁2.	-3526
▁las	-3527
▁Ljub	-3528
▁Bud	-3529
▁esk	-3530
▁zbu	-3531
▁adar	-3532
▁inut	-3533
▁najv	-3534
▁ovit	-3535
▁rakt	-3536
▁vu	-3537
▁ier	-3538
▁pac	-3539
▁našl	-3540
▁rven	-3541
▁traje	-3542
▁ješa	-3543
▁mjere	-3544
▁28	-3545
▁Di	-3546
▁Kon	-3547
▁cip	-3548
▁aši	-3549
▁ugod	-3550
▁luj	-3551
▁nav	-3552
▁inic	-3553
▁kvar	-3554
▁ošte	-3555
▁manji	-3556
▁Mu	-3557
▁ošla	-3558
▁pala	-3559
▁anta	-3560
▁laka	-3561
▁kuplj	-3562
▁opt	-3563
▁luša	-3564
▁sama	-3565
▁etanj	-3566
▁ičkih	-3567
▁jasn	-3568
dim	-3569
▁ugr	-3570
▁even	-3571
▁godil	-3572
▁ečer	-3573
▁80	-3574
▁sir	-3575
▁apa	-3576
▁jka	-3577
▁jače	-3578
▁putn	-3579
▁eve	-3580
▁ljena	-3581
▁splat	-3582
▁27	-3583
▁hal	-3584
▁ozn	-3585
▁rij	-3586
▁vent	-3587
▁rošlo	-3588
▁trenu	-3589
▁ći	-3590
▁jetn	-3591
▁osn	-3592
▁enti	-3593
▁ivač	-3594
▁čk	-3595
▁lod	-3596
▁cija	-3597
▁juje	-3598
▁onsk	-3599
▁Iv	-3600
▁ebr	-3601
▁eut	-3602
▁arsk	-3603
▁La	-3604
▁šal	-3605
▁estin	-3606
▁°	-3607
▁ry	-3608
▁gro	-3609
▁išn	-3610
▁ička	-3611
▁nstru	-3612
▁majk	-3613
▁dli	-3614
▁gin	-3615
▁gno	-3616
▁ura	-3617
▁ever	-3618
▁nado	-3619
▁štvu	-3620
▁redit	-3621
▁vj	-3622
▁jač	-3623
▁mil	-3624
▁anin	-3625
▁bitn	-3626
▁izlaz	-3627
▁uspor	-3628
▁oza	-3629
▁klas	-3630
▁onaln	-3631
▁inske	-3632
▁29	-3633
▁oy	-3634
▁amir	-3635
▁inov	-3636
▁kama	-3637
▁ual	-3638
▁zid	-3639
▁amar	-3640
▁isam	-3641
▁najs	-3642
▁nađen	-3643
▁car	-3644
▁lor	-3645
▁znaje	-3646
▁Ol	-3647
▁Dal	-3648
▁odu	-3649
▁blis	-3650
▁gramu	-3651
▁avu	-3652
▁lić	-3653
▁četv	-3654
res	-3655
▁edn	-3656
▁jni	-3657
▁ogo	-3658
▁uzd	-3659
▁drag	-3660
▁odav	-3661
▁izb	-3662
▁omn	-3663
▁smij	-3664
▁šten	-3665
▁edu	-3666
▁jin	-3667
▁maš	-3668
▁pel	-3669
▁ans	-3670
▁emi	-3671
▁utr	-3672
▁pove	-3673
▁vršn	-3674
▁neo	-3675
▁omin	-3676
▁zval	-3677
▁meč	-3678
▁ram	-3679
▁ardi	-3680
▁najm	-3681
▁ruko	-3682
▁čuva	-3683
▁igran	-3684
▁Kor	-3685
▁Ta	-3686
▁ažn	-3687
▁onč	-3688
▁alne	-3689
RI	-3690
▁ječ	-3691
▁mun	-3692
▁štvo	-3693
▁tiv	-3694
▁naši	-3695
▁ogor	-3696
▁astoj	-3697
▁Ove	-3698
▁bar	-3699
▁dem	-3700
▁amen	-3701
▁ljev	-3702
skoj	-3703
▁ijepo	-3704
▁uđ	-3705
▁Vuk	-3706
▁Radi	-3707
▁ijes	-3708
▁ganiz	-3709
▁Ono	-3710
▁Sad	-3711
▁fr	-3712
▁raga	-3713
inj	-3714
▁orc	-3715
▁umu	-3716
▁tion	-3717
▁zira	-3718
▁asa	-3719
▁Kl	-3720
▁emij	-3721
▁Ć	-3722
▁lično	-3723
▁ml	-3724
▁Bož	-3725
▁fest	-3726
▁lavn	-3727
▁roba	-3728
▁grade	-3729
▁jedna	-3730
▁primi	-3731
▁raspo	-3732
▁traži	-3733
▁unjen	-3734
▁edm	-3735
▁iver	-3736
▁all	-3737
▁Svak	-3738
▁3.	-3739
▁juž	-3740
▁neko	-3741
▁adn	-3742
▁adu	-3743
▁ajuć	-3744
▁enul	-3745
▁znati	-3746
▁fic	-3747
▁iri	-3748
▁asti	-3749
▁ler	-3750
▁raj	-3751
▁kli	-3752
▁uče	-3753
▁počin	-3754
▁znato	-3755
▁dsjet	-3756
▁polož	-3757
▁nogi	-3758
▁ovac	-3759
▁kanal	-3760
▁ržava	-3761
▁Is	-3762
▁ote	-3763
▁tok	-3764
▁jača	-3765
▁rank	-3766
▁Jel	-3767
▁ver	-3768
kal	-3769
▁Go	-3770
▁Ti	-3771
▁rst	-3772
▁uli	-3773
▁mage	-3774
▁točno	-3775
▁EP	-3776
▁ind	-3777
▁zij	-3778
▁ičen	-3779
▁Up	-3780
▁esl	-3781
▁svr	-3782
▁vet	-3783
▁bije	-3784
▁enici	-3785
▁oba	-3786
▁čkom	-3787
▁nimal	-3788
▁aest	-3789
▁obil	-3790
▁reme	-3791
▁ruku	-3792
▁Tko	-3793
▁teri	-3794
▁avati	-3795
▁kompl	-3796
▁Ona	-3797
▁uću	-3798
▁idr	-3799
▁azum	-3800
▁unut	-3801
lak	-3802
▁Ha	-3803
▁art	-3804
▁ijeć	-3805
▁dužno	-3806
▁rca	-3807
▁brin	-3808
▁nudi	-3809
▁ondo	-3810
▁đu	-3811
▁abo	-3812
▁imi	-3813
▁pap	-3814
▁ičkog	-3815
▁uza	-3816
▁alni	-3817
▁jeto	-3818
▁ovač	-3819
▁dličn	-3820
▁motiv	-3821
▁raspr	-3822
▁7.	-3823
▁rv	-3824
▁roj	-3825
▁običn	-3826
▁plaće	-3827
▁prekr	-3828
▁trg	-3829
▁ugl	-3830
▁kruž	-3831
▁akva	-3832
▁ljeć	-3833
▁veće	-3834
▁proje	-3835
▁spekt	-3836
▁oo	-3837
▁nula	-3838
▁rago	-3839
▁želim	-3840
▁edr	-3841
▁iro	-3842
▁vjes	-3843
▁ratil	-3844
BA	-3845
▁Ad	-3846
▁Sin	-3847
▁jet	-3848
▁diza	-3849
▁razv	-3850
▁avl	-3851
▁km	-3852
▁asp	-3853
▁uha	-3854
▁raka	-3855
▁2,	-3856
▁US	-3857
▁emu	-3858
▁šem	-3859
▁dobi	-3860
▁rska	-3861
▁vorn	-3862
▁naziv	-3863
▁apl	-3864
▁Španj	-3865
▁Op	-3866
▁eln	-3867
▁ugo	-3868
▁žal	-3869
▁elim	-3870
▁evet	-3871
▁ivao	-3872
▁olsk	-3873
▁aljen	-3874
▁očinj	-3875
▁poduz	-3876
▁rijen	-3877
▁jko	-3878
▁olik	-3879
▁Uprav	-3880
▁visin	-3881
▁35	-3882
▁lišt	-3883
▁stud	-3884
▁ožemo	-3885
▁luc	-3886
▁pob	-3887
▁90	-3888
▁Ku	-3889
▁tet	-3890
▁ijenj	-3891
▁znala	-3892
▁form	-3893
▁eko	-3894
▁akve	-3895
▁esto	-3896
▁ormi	-3897
▁hor	-3898
▁ijim	-3899
▁njsk	-3900
▁traže	-3901
▁zah	-3902
▁šla	-3903
▁ačko	-3904
▁ivan	-3905
▁tima	-3906
▁ame	-3907
▁eza	-3908
▁alan	-3909
▁rp	-3910
▁don	-3911
▁lom	-3912
▁rsta	-3913
▁tivn	-3914
OR	-3915
▁Car	-3916
▁loč	-3917
▁anim	-3918
▁inom	-3919
▁pruž	-3920
▁bitel	-3921
▁misli	-3922
▁ponov	-3923
▁činje	-3924
▁15.	-3925
▁rč	-3926
▁Eur	-3927
▁ael	-3928
▁urn	-3929
▁von	-3930
▁utor	-3931
co	-3932
ss	-3933
▁Or	-3934
▁ečk	-3935
▁rob	-3936
▁izme	-3937
▁tere	-3938
▁ulje	-3939
▁preki	-3940
▁ei	-3941
▁subot	-3942
▁Du	-3943
▁išu	-3944
▁spr	-3945
▁nten	-3946
▁olar	-3947
SS	-3948
▁doba	-3949
▁rg	-3950
▁djelu	-3951
▁jesen	-3952
▁ovačk	-3953
▁dop	-3954
▁iku	-3955
▁ire	-3956
▁vuk	-3957
▁enuti	-3958
▁treće	-3959
OK	-3960
ler	-3961
▁ix	-3962
▁kus	-3963
▁kasn	-3964
▁ožda	-3965
▁udsk	-3966
JE	-3967
▁judi	-3968
▁govin	-3969
▁5.	-3970
▁Kar	-3971
▁ted	-3972
▁šut	-3973
▁Drag	-3974
▁edij	-3975
▁odre	-3976
▁uzetn	-3977
▁avn	-3978
▁jeci	-3979
▁obal	-3980
▁abora	-3981
▁kratk	-3982
▁Već	-3983
▁aru	-3984
▁drži	-3985
▁prez	-3986
▁ota	-3987
▁stro	-3988
▁lacij	-3989
▁gi	-3990
▁kć	-3991
▁loz	-3992
▁human	-3993
▁odigr	-3994
ber	-3995
▁ajno	-3996
▁alna	-3997
▁ismo	-3998
▁ival	-3999
▁jern	-4000
▁nisk	-4001
▁atur	-4002
▁erg	-4003
▁pješ	-4004
per	-4005
▁osu	-4006
▁utn	-4007
▁anij	-4008
▁etin	-4009
▁rske	-4010
▁ermin	-4011
▁sreds	-4012
▁Taj	-4013
▁iču	-4014
▁rce	-4015
▁staja	-4016
AR	-4017
bu	-4018
ef	-4019
▁Q	-4020
▁AL	-4021
▁oris	-4022
▁veza	-4023
▁rovod	-4024
▁Tik	-4025
▁tić	-4026
▁ačno	-4027
▁Pal	-4028
▁araj	-4029
▁jihov	-4030
▁muzej	-4031
▁co	-4032
▁lus	-4033
▁rva	-4034
▁suv	-4035
▁euro	-4036
▁lani	-4037
▁gij	-4038
▁imu	-4039
▁koč	-4040
▁lam	-4041
▁atko	-4042
▁avak	-4043
▁ljač	-4044
▁zivn	-4045
-0	-4046
▁jež	-4047
▁aro	-4048
▁ham	-4049
▁kos	-4050
▁ode	-4051
▁orb	-4052
▁atke	-4053
▁jviš	-4054
▁acima	-4055
▁Vi	-4056
▁rc	-4057
▁Naš	-4058
▁nve	-4059
▁ovod	-4060
▁ograd	-4061
▁4.	-4062
▁kuh	-4063
▁nud	-4064
▁obro	-4065
▁porn	-4066
▁vira	-4067
▁vješ	-4068
▁imaln	-4069
▁prati	-4070
ek	-4071
▁jm	-4072
▁20.	-4073
▁jev	-4074
▁uka	-4075
▁jači	-4076
▁četi	-4077
▁čkim	-4078
▁nvest	-4079
▁arh	-4080
▁udi	-4081
▁čev	-4082
▁enom	-4083
▁200	-4084
▁dlu	-4085
▁zam	-4086
▁ostan	-4087
▁Us	-4088
▁ela	-4089
▁ifi	-4090
▁enut	-4091
▁radit	-4092
os	-4093
▁rs	-4094
▁anc	-4095
▁ess	-4096
▁aste	-4097
▁x	-4098
▁etk	-4099
▁lue	-4100
▁upc	-4101
▁zer	-4102
▁tric	-4103
▁visi	-4104
▁olu	-4105
▁11.	-4106
▁Ben	-4107
▁nila	-4108
▁osta	-4109
▁stic	-4110
▁umir	-4111
▁niv	-4112
▁ohn	-4113
▁pamt	-4114
▁iam	-4115
▁gađa	-4116
▁tičn	-4117
▁eh	-4118
▁enk	-4119
▁roz	-4120
▁urb	-4121
▁maks	-4122
▁vaju	-4123
▁voli	-4124
▁rit	-4125
▁ntin	-4126
▁čine	-4127
RA	-4128
▁ai	-4129
▁ovin	-4130
▁ušao	-4131
▁jstvo	-4132
▁etv	-4133
▁otk	-4134
▁pored	-4135
▁Ot	-4136
▁riž	-4137
▁čku	-4138
▁Posl	-4139
▁adić	-4140
▁lagan	-4141
▁aran	-4142
▁ideo	-4143
▁otpor	-4144
▁uf	-4145
▁TikT	-4146
▁ašto	-4147
▁line	-4148
▁onov	-4149
▁ratu	-4150
▁8.	-4151
▁ash	-4152
▁ašl	-4153
▁aust	-4154
▁ačić	-4155
▁roku	-4156
▁listi	-4157
▁JE	-4158
▁ešt	-4159
▁lar	-4160
▁rano	-4161
▁17.	-4162
▁ink	-4163
▁ois	-4164
▁rać	-4165
▁rum	-4166
▁ućn	-4167
▁tarn	-4168
ed	-4169
▁lub	-4170
▁iral	-4171
▁kand	-4172
▁najve	-4173
▁stavi	-4174
▁tiral	-4175
▁znali	-4176
▁lt	-4177
▁lit	-4178
▁odn	-4179
▁ćan	-4180
▁rolaz	-4181
▁većan	-4182
zen	-4183
▁nevn	-4184
▁odin	-4185
▁ndi	-4186
▁onz	-4187
▁riv	-4188
▁upit	-4189
▁izd	-4190
▁žev	-4191
▁alat	-4192
▁astu	-4193
▁onic	-4194
▁ijske	-4195
▁jelom	-4196
▁ljk	-4197
▁naž	-4198
orm	-4199
ort	-4200
▁30.	-4201
▁san	-4202
▁čar	-4203
▁istra	-4204
▁obraz	-4205
▁egr	-4206
▁uma	-4207
▁apan	-4208
▁klop	-4209
▁račn	-4210
▁truk	-4211
▁uđen	-4212
▁retan	-4213
▁šanse	-4214
▁12.	-4215
▁Nik	-4216
▁tak	-4217
▁reko	-4218
▁Kod	-4219
▁med	-4220
▁ijer	-4221
▁onim	-4222
▁reće	-4223
▁tart	-4224
▁Par	-4225
▁šlj	-4226
▁rava	-4227
▁nform	-4228
▁eće	-4229
▁orit	-4230
▁II	-4231
▁moto	-4232
▁vodn	-4233
▁tljiv	-4234
▁ukraj	-4235
-1	-4236
▁adam	-4237
▁eral	-4238
▁iban	-4239
▁peri	-4240
▁nički	-4241
▁ovića	-4242
ved	-4243
▁Var	-4244
▁dep	-4245
▁avk	-4246
▁dal	-4247
▁onu	-4248
▁tem	-4249
▁učiv	-4250
▁arb	-4251
▁pan	-4252
▁igur	-4253
▁itik	-4254
▁ivlj	-4255
▁ičan	-4256
▁olož	-4257
▁rani	-4258
▁odaci	-4259
▁etar	-4260
▁atra	-4261
▁gran	-4262
▁jave	-4263
▁niza	-4264
op	-4265
▁Ana	-4266
▁jun	-4267
▁edin	-4268
▁anket	-4269
▁vanje	-4270
▁erb	-4271
▁tep	-4272
▁vil	-4273
▁agen	-4274
▁maže	-4275
▁nike	-4276
▁topa	-4277
pp	-4278
▁*	-4279
▁̌	-4280
▁ket	-4281
▁orn	-4282
▁elio	-4283
▁rugo	-4284
▁snij	-4285
▁isklj	-4286
▁10.	-4287
▁lon	-4288
▁asno	-4289
▁davn	-4290
▁nako	-4291
▁stov	-4292
▁45	-4293
▁lim	-4294
▁nacij	-4295
▁duš	-4296
▁avid	-4297
▁rizna	-4298
TA	-4299
▁nkc	-4300
▁opć	-4301
▁idim	-4302
▁stič	-4303
▁Bit	-4304
▁ičkim	-4305
▁okret	-4306
▁ordan	-4307
uj	-4308
▁rz	-4309
▁KBC	-4310
▁mot	-4311
▁čas	-4312
▁itor	-4313
▁6.	-4314
▁Em	-4315
▁Yo	-4316
▁kis	-4317
▁pat	-4318
▁Vel	-4319
▁ado	-4320
▁elo	-4321
▁ain	-4322
▁elit	-4323
▁esta	-4324
▁pisu	-4325
▁vama	-4326
▁akcij	-4327
▁ester	-4328
▁rađen	-4329
▁šć	-4330
▁Bez	-4331
▁ERI	-4332
▁ačn	-4333
▁iol	-4334
▁suđ	-4335
▁trž	-4336
▁raca	-4337
▁atima	-4338
▁nat	-4339
▁uhva	-4340
▁šeće	-4341
▁rub	-4342
▁rijsk	-4343
▁rskoj	-4344
▁čević	-4345
▁dor	-4346
▁sav	-4347
▁jima	-4348
▁alnog	-4349
▁aziva	-4350
▁inski	-4351
bon	-4352
▁dl	-4353
▁Mih	-4354
▁dres	-4355
▁tine	-4356
▁Ham	-4357
▁ake	-4358
▁auz	-4359
▁gri	-4360
▁isc	-4361
▁lag	-4362
▁the	-4363
▁uta	-4364
▁zaht	-4365
▁dim	-4366
▁dir	-4367
▁etak	-4368
▁ijem	-4369
▁odan	-4370
▁tehn	-4371
▁ljuju	-4372
PO	-4373
▁obn	-4374
▁tel	-4375
▁arni	-4376
▁ječe	-4377
▁mušk	-4378
▁dinam	-4379
mas	-4380
sen	-4381
▁žu	-4382
▁azu	-4383
▁bes	-4384
▁pit	-4385
▁rza	-4386
▁avan	-4387
▁ealn	-4388
▁ijeme	-4389
▁orist	-4390
▁uklju	-4391
▁Ze	-4392
▁lađ	-4393
▁ajal	-4394
▁ikov	-4395
▁3,	-4396
▁Fr	-4397
▁18.	-4398
▁19.	-4399
▁ovor	-4400
▁remi	-4401
▁roje	-4402
▁valj	-4403
▁ERIJA	-4404
▁idjel	-4405
stit	-4406
▁eto	-4407
▁kun	-4408
▁egij	-4409
▁jesu	-4410
▁ilišt	-4411
▁jenje	-4412
▁nstit	-4413
▁poslu	-4414
đel	-4415
▁ive	-4416
▁tož	-4417
▁alen	-4418
▁ijeg	-4419
▁14.	-4420
▁pon	-4421
▁upu	-4422
▁enih	-4423
▁vanj	-4424
▁9.	-4425
▁sov	-4426
▁tad	-4427
▁etra	-4428
▁čije	-4429
▁adr	-4430
▁uća	-4431
▁cira	-4432
▁rate	-4433
pi	-4434
▁ue	-4435
▁Zna	-4436
▁taš	-4437
▁13.	-4438
▁Vik	-4439
▁com	-4440
▁naz	-4441
▁ruž	-4442
▁kona	-4443
▁orin	-4444
▁trav	-4445
▁šećer	-4446
ig	-4447
▁jesti	-4448
▁kacij	-4449
▁Nek	-4450
▁gas	-4451
▁pub	-4452
▁last	-4453
▁lavi	-4454
▁odab	-4455
▁ojev	-4456
▁arton	-4457
▁ont	-4458
▁udu	-4459
▁arr	-4460
▁lid	-4461
▁gore	-4462
▁dajte	-4463
▁metni	-4464
▁21.	-4465
▁adio	-4466
▁olid	-4467
▁PU	-4468
▁out	-4469
▁avno	-4470
▁ivaj	-4471
▁tožer	-4472
Ne	-4473
▁@	-4474
▁lis	-4475
▁prost	-4476
▁Tim	-4477
▁igl	-4478
▁Đur	-4479
▁rugi	-4480
▁vezn	-4481
▁odjel	-4482
▁33	-4483
▁hel	-4484
▁ješ	-4485
▁rim	-4486
▁jera	-4487
▁mogl	-4488
▁kazuj	-4489
▁Sh	-4490
▁zo	-4491
▁jeći	-4492
▁nijih	-4493
▁nit	-4494
▁užn	-4495
▁Marij	-4496
▁ratit	-4497
▁itar	-4498
▁obno	-4499
▁tern	-4500
▁bazen	-4501
▁ičkom	-4502
▁jetil	-4503
iš	-4504
▁har	-4505
▁čit	-4506
▁lanic	-4507
▁tivno	-4508
▁tualn	-4509
▁rb	-4510
▁ert	-4511
▁rijev	-4512
▁Zv	-4513
▁500	-4514
▁Međ	-4515
▁omat	-4516
▁ulja	-4517
▁ektiv	-4518
▁aje	-4519
▁ziv	-4520
▁anac	-4521
▁andi	-4522
▁bave	-4523
▁esen	-4524
▁jezin	-4525
To	-4526
▁_	-4527
▁Co	-4528
▁ew	-4529
▁16.	-4530
▁lum	-4531
▁ult	-4532
▁utk	-4533
▁anci	-4534
▁ožen	-4535
▁vala	-4536
▁dljiv	-4537
UP	-4538
▁erk	-4539
▁ušk	-4540
▁bavi	-4541
▁odig	-4542
▁radu	-4543
▁vaki	-4544
▁jesni	-4545
▁mlja	-4546
▁stre	-4547
▁moram	-4548
▁rh	-4549
▁ilm	-4550
▁iben	-4551
▁jemo	-4552
▁lasi	-4553
▁podru	-4554
▁vanja	-4555
▁nic	-4556
▁jnij	-4557
▁adnik	-4558
▁fe	-4559
▁nev	-4560
▁rik	-4561
▁enat	-4562
▁rpsk	-4563
▁alkan	-4564
▁jetio	-4565
▁ljubi	-4566
▁ede	-4567
▁rne	-4568
▁araž	-4569
▁itko	-4570
▁visn	-4571
▁enstv	-4572
▁bori	-4573
▁dale	-4574
▁eško	-4575
▁odao	-4576
▁ivali	-4577
ski	-4578
▁32	-4579
▁Tr	-4580
▁ače	-4581
▁kaž	-4582
▁vač	-4583
▁šav	-4584
▁trak	-4585
▁vina	-4586
▁ijeti	-4587
▁nzi	-4588
▁obo	-4589
▁mira	-4590
▁snik	-4591
▁UN	-4592
▁Grb	-4593
▁Kol	-4594
▁Red	-4595
▁esa	-4596
▁Prem	-4597
▁gura	-4598
▁omij	-4599
▁osao	-4600
▁pogr	-4601
▁sobn	-4602
▁ašava	-4603
▁miris	-4604
▁stank	-4605
▁ops	-4606
▁ački	-4607
▁preb	-4608
▁rajn	-4609
▁stot	-4610
▁ustr	-4611
▁omp	-4612
▁tik	-4613
▁inir	-4614
▁fa	-4615
▁plj	-4616
▁nuli	-4617
▁posl	-4618
▁vima	-4619
har	-4620
▁Th	-4621
▁jd	-4622
▁300	-4623
▁Čak	-4624
▁nemo	-4625
▁anija	-4626
MA	-4627
raf	-4628
▁36	-4629
▁tno	-4630
▁boln	-4631
▁eran	-4632
▁AT	-4633
▁iž	-4634
▁čno	-4635
▁Paul	-4636
▁emat	-4637
▁most	-4638
▁rl	-4639
▁22.	-4640
▁itan	-4641
▁part	-4642
▁atori	-4643
▁racij	-4644
▁tinsk	-4645
▁tičar	-4646
▁Drž	-4647
▁mjes	-4648
ood	-4649
▁ća	-4650
▁San	-4651
▁ažu	-4652
▁ger	-4653
▁iho	-4654
▁moc	-4655
▁roat	-4656
▁edv	-4657
▁ism	-4658
▁tov	-4659
▁štva	-4660
▁agi	-4661
▁asc	-4662
▁edb	-4663
4.	-4664
▁26.	-4665
▁rci	-4666
▁Dana	-4667
▁edit	-4668
▁isao	-4669
▁mica	-4670
▁visno	-4671
▁hla	-4672
▁atin	-4673
▁reću	-4674
▁udij	-4675
▁druge	-4676
ORH	-4677
▁Ev	-4678
▁Vr	-4679
▁nomi	-4680
▁vezu	-4681
▁jelov	-4682
fe	-4683
▁Mc	-4684
▁29.	-4685
▁atl	-4686
▁kam	-4687
▁oro	-4688
▁upn	-4689
▁ičku	-4690
▁ovak	-4691
▁uška	-4692
▁irekt	-4693
▁Jon	-4694
▁cion	-4695
▁imat	-4696
▁zorn	-4697
▁ljeća	-4698
▁oprav	-4699
▁telja	-4700
zij	-4701
▁SP	-4702
▁ace	-4703
▁apo	-4704
▁ber	-4705
▁rta	-4706
▁vaj	-4707
▁ajem	-4708
▁etnj	-4709
▁HA	-4710
▁eđa	-4711
▁uše	-4712
▁leda	-4713
▁ravo	-4714
▁tt	-4715
▁ezo	-4716
▁izvo	-4717
▁guž	-4718
▁ovr	-4719
▁reb	-4720
▁rge	-4721
▁čim	-4722
▁djec	-4723
▁isij	-4724
▁juju	-4725
▁ty	-4726
▁Dva	-4727
▁HNS	-4728
▁oci	-4729
▁zne	-4730
▁istu	-4731
▁oliti	-4732
FA	-4733
▁Bor	-4734
▁aše	-4735
▁eću	-4736
▁ico	-4737
▁lač	-4738
▁unj	-4739
▁akir	-4740
▁alja	-4741
▁opad	-4742
▁denti	-4743
▁OVD	-4744
▁eon	-4745
▁tili	-4746
▁čani	-4747
▁alnih	-4748
▁alnim	-4749
▁snici	-4750
▁sredn	-4751
▁vjeti	-4752
▁načaj	-4753
▁led	-4754
▁ijat	-4755
▁itim	-4756
▁rosje	-4757
▁umije	-4758
▁Sal	-4759
▁Sam	-4760
▁jna	-4761
▁kab	-4762
▁rus	-4763
▁dani	-4764
▁nese	-4765
▁pali	-4766
▁titu	-4767
▁uduć	-4768
▁sluša	-4769
šti	-4770
▁th	-4771
▁iša	-4772
▁mob	-4773
▁alon	-4774
▁chef	-4775
▁podr	-4776
▁šire	-4777
▁eđ	-4778
▁Ban	-4779
▁Jer	-4780
▁ksi	-4781
▁nel	-4782
▁ore	-4783
▁rođ	-4784
▁wit	-4785
▁aval	-4786
▁repor	-4787
▁tum	-4788
▁elem	-4789
▁etro	-4790
▁taro	-4791
▁udio	-4792
▁ukra	-4793
▁jenja	-4794
▁prima	-4795
▁25.	-4796
▁Pav	-4797
▁ido	-4798
▁Može	-4799
▁aren	-4800
▁prep	-4801
▁arstv	-4802
▁ograf	-4803
▁etu	-4804
▁obu	-4805
▁avao	-4806
▁aziv	-4807
▁ovine	-4808
NI	-4809
▁azin	-4810
▁mena	-4811
▁spol	-4812
▁kisel	-4813
▁zašti	-4814
gar	-4815
▁erc	-4816
▁rom	-4817
▁usa	-4818
▁enta	-4819
▁takm	-4820
▁zvor	-4821
▁mreža	-4822
▁olest	-4823
▁osjeć	-4824
:0	-4825
▁ese	-4826
▁stog	-4827
▁ziran	-4828
rban	-4829
▁28.	-4830
▁ebe	-4831
▁uho	-4832
▁licu	-4833
▁reni	-4834
▁arhit	-4835
▁kvart	-4836
▁sjedn	-4837
▁AI	-4838
▁nin	-4839
▁oče	-4840
▁kova	-4841
▁lasn	-4842
▁njav	-4843
▁Zd	-4844
▁šu	-4845
▁kci	-4846
▁arov	-4847
▁bilj	-4848
▁vozi	-4849
▁enost	-4850
▁vjere	-4851
▁zborn	-4852
KA	-4853
▁dv	-4854
▁eda	-4855
▁fak	-4856
▁oće	-4857
▁udn	-4858
▁avrš	-4859
▁ačke	-4860
▁dluk	-4861
▁jaja	-4862
▁ljud	-4863
▁roni	-4864
▁aster	-4865
KOK	-4866
▁osm	-4867
▁vor	-4868
▁ček	-4869
▁ekiv	-4870
▁ećin	-4871
▁reka	-4872
▁Ph	-4873
▁rk	-4874
▁ann	-4875
▁atu	-4876
▁elja	-4877
▁rado	-4878
▁redo	-4879
▁ukla	-4880
▁novan	-4881
▁oki	-4882
▁rlj	-4883
▁urs	-4884
▁ojan	-4885
▁ćenje	-4886
▁Pr	-4887
▁ekc	-4888
▁skl	-4889
▁olič	-4890
▁orav	-4891
▁osud	-4892
▁para	-4893
▁poveć	-4894
▁Val	-4895
▁ass	-4896
▁uso	-4897
▁akar	-4898
▁ašao	-4899
▁rj	-4900
▁150	-4901
▁isu	-4902
▁laš	-4903
▁zgr	-4904
▁amal	-4905
▁enog	-4906
▁izij	-4907
▁oriti	-4908
▁urban	-4909
mes	-4910
▁55	-4911
▁mb	-4912
▁ega	-4913
▁gim	-4914
▁her	-4915
▁uga	-4916
▁lans	-4917
▁konst	-4918
▁jn	-4919
▁24.	-4920
▁els	-4921
▁asil	-4922
▁otom	-4923
▁tona	-4924
▁stava	-4925
▁bal	-4926
▁enn	-4927
▁enad	-4928
▁ivim	-4929
▁USKOK	-4930
▁enama	-4931
▁oslov	-4932
▁aku	-4933
▁vat	-4934
▁zar	-4935
▁lovo	-4936
▁obar	-4937
▁reci	-4938
▁ivala	-4939
▁Mor	-4940
▁Put	-4941
▁nić	-4942
▁upe	-4943
▁uze	-4944
▁vad	-4945
▁aćen	-4946
▁erge	-4947
▁pris	-4948
▁rena	-4949
▁ublj	-4950
vel	-4951
▁Ov	-4952
▁31.	-4953
▁eat	-4954
▁err	-4955
▁ance	-4956
▁avin	-4957
▁ljaj	-4958
▁teme	-4959
▁alnom	-4960
gon	-4961
▁geo	-4962
▁mov	-4963
▁uro	-4964
▁erim	-4965
▁inij	-4966
▁nite	-4967
▁osni	-4968
▁sjaj	-4969
▁aviti	-4970
▁75	-4971
▁Met	-4972
▁onf	-4973
▁žić	-4974
▁lup	-4975
▁zir	-4976
▁šef	-4977
▁Srbi	-4978
▁koln	-4979
▁olju	-4980
▁ivost	-4981
▁ovara	-4982
▁slavi	-4983
▁Il	-4984
▁ope	-4985
▁uno	-4986
▁emit	-4987
▁evoj	-4988
▁otov	-4989
▁ular	-4990
▁ikada	-4991
▁ljiva	-4992
▁mjeri	-4993
ena	-4994
▁rš	-4995
▁ajna	-4996
▁kupn	-4997
▁staj	-4998
pan	-4999
▁sn	-5000
▁anak	-5001
▁eras	-5002
▁eške	-5003
▁kril	-5004
▁rodu	-5005
▁ruga	-5006
▁čenj	-5007
▁dalek	-5008
▁Am	-5009
▁Be	-5010
▁23.	-5011
▁tef	-5012
▁kvad	-5013
▁nski	-5014
▁veti	-5015
▁pogot	-5016
dž	-5017
▁jp	-5018
▁sf	-5019
▁HNK	-5020
▁Mac	-5021
▁mrt	-5022
▁šum	-5023
▁došl	-5024
▁eljk	-5025
▁reži	-5026
▁rušt	-5027
▁vard	-5028
▁Gal	-5029
▁lti	-5030
▁anko	-5031
▁ekin	-5032
▁jaka	-5033
▁mama	-5034
▁aštel	-5035
▁određ	-5036
▁dat	-5037
▁ošt	-5038
▁alnu	-5039
▁bali	-5040
▁obol	-5041
▁ješta	-5042
▁inci	-5043
▁kove	-5044
▁slob	-5045
▁sobno	-5046
▁IO	-5047
▁kn	-5048
▁kut	-5049
▁lut	-5050
▁akit	-5051
▁ečaj	-5052
▁ustv	-5053
▁oe	-5054
▁jem	-5055
▁lać	-5056
▁nda	-5057
▁umi	-5058
▁ojim	-5059
▁kamat	-5060
▁€	-5061
ten	-5062
▁oh	-5063
▁iću	-5064
▁jac	-5065
▁liz	-5066
▁rno	-5067
▁nest	-5068
▁idjet	-5069
▁đenje	-5070
7.	-5071
dur	-5072
▁27.	-5073
▁age	-5074
▁nca	-5075
▁ods	-5076
▁udo	-5077
▁učk	-5078
▁enoj	-5079
▁ijeđ	-5080
▁mari	-5081
▁tari	-5082
▁DV	-5083
▁Kan	-5084
▁set	-5085
▁ajan	-5086
▁aksi	-5087
▁ekla	-5088
IP	-5089
▁ekr	-5090
▁remn	-5091
▁iteta	-5092
▁rd	-5093
▁400	-5094
▁šlo	-5095
▁Jadr	-5096
▁Most	-5097
▁ezon	-5098
▁gubi	-5099
▁ječn	-5100
▁napr	-5101
▁prek	-5102
▁aranj	-5103
▁lider	-5104
▁ljene	-5105
ff	-5106
▁reda	-5107
▁držat	-5108
▁jetit	-5109
▁orije	-5110
▁popul	-5111
RO	-5112
▁́	-5113
▁ID	-5114
ject	-5115
▁avna	-5116
▁ljin	-5117
▁bject	-5118
MZ	-5119
▁mp	-5120
▁alt	-5121
▁riča	-5122
▁čara	-5123
▁čuje	-5124
▁Grbin	-5125
▁ačkog	-5126
8.	-5127
▁muč	-5128
▁šti	-5129
▁alma	-5130
▁arko	-5131
▁ladn	-5132
▁razi	-5133
▁rgov	-5134
▁Arsen	-5135
▁Držav	-5136
▁anali	-5137
▁demok	-5138
▁PS	-5139
▁ial	-5140
▁rša	-5141
▁čaj	-5142
▁moli	-5143
▁pool	-5144
bat	-5145
▁zm	-5146
▁Rud	-5147
▁iža	-5148
▁kaš	-5149
▁lij	-5150
▁svu	-5151
▁tka	-5152
▁boji	-5153
▁emlj	-5154
▁rizi	-5155
▁stra	-5156
▁upis	-5157
▁nesre	-5158
▁tabil	-5159
:1	-5160
lon	-5161
▁dol	-5162
▁kaf	-5163
▁oti	-5164
▁uki	-5165
▁NK	-5166
▁Han	-5167
▁anu	-5168
▁dbi	-5169
▁ređ	-5170
▁ačen	-5171
▁bama	-5172
▁ilaz	-5173
▁ličn	-5174
▁potr	-5175
▁prop	-5176
▁moral	-5177
▁cm	-5178
▁zub	-5179
▁Time	-5180
▁este	-5181
▁ijed	-5182
▁ogle	-5183
▁lovoz	-5184
▁učiti	-5185
und	-5186
▁4,	-5187
▁žn	-5188
▁cid	-5189
▁ojn	-5190
▁Clas	-5191
▁alio	-5192
▁ncer	-5193
▁orac	-5194
▁ovre	-5195
▁sinc	-5196
▁ami	-5197
▁oyo	-5198
▁pen	-5199
▁pil	-5200
▁puš	-5201
▁adal	-5202
▁cije	-5203
▁ladi	-5204
▁mark	-5205
▁sprav	-5206
▁aže	-5207
▁dna	-5208
▁enc	-5209
▁kip	-5210
▁mač	-5211
▁nar	-5212
▁EPPO	-5213
▁ezen	-5214
▁vizij	-5215
NK	-5216
▁HT	-5217
▁Mod	-5218
▁mio	-5219
▁udr	-5220
▁arat	-5221
▁nogu	-5222
▁oren	-5223
▁rama	-5224
br	-5225
▁ae	-5226
▁wi	-5227
▁Wal	-5228
▁muž	-5229
▁čna	-5230
▁šnj	-5231
▁Mari	-5232
▁alog	-5233
▁anke	-5234
▁inje	-5235
▁žnic	-5236
▁andar	-5237
▁ijeli	-5238
▁omuni	-5239
▁oziti	-5240
▁ransk	-5241
nes	-5242
▁OŠ	-5243
▁ee	-5244
▁ya	-5245
▁pru	-5246
▁web	-5247
▁bore	-5248
▁kult	-5249
▁prev	-5250
▁eljen	-5251
▁spjel	-5252
qu	-5253
▁65	-5254
jasn	-5255
▁Hol	-5256
▁bir	-5257
▁uši	-5258
▁jena	-5259
▁Sport	-5260
▁bjasn	-5261
▁jedni	-5262
▁opisa	-5263
▁oznaj	-5264
be	-5265
ft	-5266
▁ize	-5267
▁org	-5268
▁osa	-5269
▁ray	-5270
▁teć	-5271
▁enij	-5272
▁lekt	-5273
▁tram	-5274
▁andid	-5275
▁anjem	-5276
▁anost	-5277
▁entra	-5278
▁stana	-5279
▁ck	-5280
▁iba	-5281
▁rna	-5282
▁rup	-5283
▁uku	-5284
▁ljed	-5285
▁ralj	-5286
▁rump	-5287
▁sjeć	-5288
▁sobe	-5289
▁vdje	-5290
▁ispla	-5291
▁redvi	-5292
-2	-5293
ie	-5294
mar	-5295
▁jar	-5296
▁zli	-5297
▁ljede	-5298
▁telji	-5299
zz	-5300
ack	-5301
▁You	-5302
▁dnj	-5303
▁uke	-5304
▁DORH	-5305
▁akvo	-5306
▁enal	-5307
▁jati	-5308
▁tank	-5309
▁vrši	-5310
▁ander	-5311
▁atili	-5312
▁aći	-5313
▁imn	-5314
▁ins	-5315
▁jne	-5316
▁moć	-5317
▁rić	-5318
▁dano	-5319
▁disk	-5320
▁nada	-5321
▁njev	-5322
▁pozva	-5323
2.	-5324
▁kg	-5325
▁wa	-5326
▁Gen	-5327
▁aks	-5328
▁dle	-5329
▁enis	-5330
▁itič	-5331
▁jene	-5332
▁jesn	-5333
▁razo	-5334
▁limun	-5335
▁DH	-5336
▁Tri	-5337
▁alu	-5338
▁efi	-5339
▁teg	-5340
▁itul	-5341
▁rski	-5342
▁estan	-5343
▁susre	-5344
ram	-5345
skog	-5346
▁ATP	-5347
▁Maj	-5348
▁egi	-5349
▁Rusi	-5350
▁alom	-5351
▁atim	-5352
▁izan	-5353
▁mask	-5354
▁anske	-5355
▁ostaj	-5356
▁stira	-5357
los	-5358
▁kći	-5359
▁piš	-5360
▁anov	-5361
▁oblj	-5362
▁obra	-5363
▁čink	-5364
▁enkov	-5365
▁prave	-5366
rel	-5367
▁ph	-5368
▁VAR	-5369
▁agl	-5370
▁dnu	-5371
▁oca	-5372
▁ovca	-5373
▁ovina	-5374
▁tržiš	-5375
tij	-5376
▁Pi	-5377
▁Moj	-5378
▁ego	-5379
▁ezd	-5380
▁reč	-5381
▁bjav	-5382
▁dist	-5383
▁logu	-5384
▁ubio	-5385
▁anski	-5386
▁eskal	-5387
▁CO	-5388
▁DVD	-5389
▁pec	-5390
▁rka	-5391
▁smr	-5392
▁tiš	-5393
▁Misl	-5394
▁kože	-5395
▁luka	-5396
▁nađe	-5397
▁omen	-5398
▁teks	-5399
▁tina	-5400
▁snima	-5401
▁stari	-5402
sb	-5403
nak	-5404
▁NBA	-5405
▁akt	-5406
▁std	-5407
▁šar	-5408
▁icir	-5409
▁mini	-5410
▁miru	-5411
▁vred	-5412
▁Class	-5413
▁tacij	-5414
▁Jan	-5415
▁Nad	-5416
▁rej	-5417
▁rlo	-5418
▁sun	-5419
▁ube	-5420
▁lade	-5421
▁mažu	-5422
▁tava	-5423
▁greba	-5424
▁Fo	-5425
▁uan	-5426
▁čio	-5427
▁rekl	-5428
▁ijeke	-5429
▁bn	-5430
▁Los	-5431
▁ago	-5432
▁agu	-5433
▁liž	-5434
▁nce	-5435
▁tke	-5436
▁une	-5437
▁ćaj	-5438
▁DHMZ	-5439
▁ajne	-5440
▁eles	-5441
▁orno	-5442
▁tetu	-5443
▁uris	-5444
▁vrdio	-5445
for	-5446
▁34	-5447
▁ui	-5448
▁aža	-5449
▁isn	-5450
▁žrt	-5451
▁alil	-5452
▁aman	-5453
▁ićev	-5454
▁vede	-5455
▁zija	-5456
▁nasil	-5457
6.	-5458
▁tj	-5459
▁dul	-5460
▁emp	-5461
▁lip	-5462
▁šet	-5463
▁gorj	-5464
▁inej	-5465
▁meće	-5466
▁onom	-5467
▁osil	-5468
▁trbu	-5469
▁utim	-5470
▁James	-5471
▁Selak	-5472
▁estic	-5473
▁pacij	-5474
NAL	-5475
▁Fa	-5476
▁HZ	-5477
▁BBC	-5478
▁enj	-5479
▁ojo	-5480
▁pir	-5481
▁ump	-5482
▁adek	-5483
▁adil	-5484
▁elic	-5485
▁liza	-5486
▁cedur	-5487
▁ostig	-5488
my	-5489
▁31	-5490
▁39	-5491
▁IT	-5492
▁jeg	-5493
▁luž	-5494
▁tkr	-5495
▁šen	-5496
▁onio	-5497
▁ropi	-5498
▁armer	-5499
▁ostim	-5500
▁vajuć	-5501
3.	-5502
ger	-5503
nit	-5504
▁38	-5505
▁HG	-5506
▁Ses	-5507
▁kob	-5508
▁pić	-5509
▁rug	-5510
▁akvi	-5511
▁ijav	-5512
▁kopn	-5513
▁Muzej	-5514
OS	-5515
▁0,	-5516
▁amu	-5517
▁eso	-5518
▁hat	-5519
▁asio	-5520
▁isok	-5521
▁jeno	-5522
▁lado	-5523
▁lazb	-5524
▁nepr	-5525
▁sije	-5526
▁priop	-5527
▁pusti	-5528
▁bil	-5529
▁pto	-5530
▁Alen	-5531
▁cast	-5532
▁kost	-5533
▁košt	-5534
kad	-5535
▁600	-5536
▁Dio	-5537
▁ajv	-5538
▁ača	-5539
▁ađe	-5540
▁olj	-5541
▁onc	-5542
▁anka	-5543
▁ezul	-5544
▁točn	-5545
▁IONAL	-5546
▁radni	-5547
sh	-5548
▁NAC	-5549
▁Tur	-5550
▁dik	-5551
▁ida	-5552
▁kit	-5553
▁ibon	-5554
▁sten	-5555
▁djeli	-5556
▁formi	-5557
▁kinja	-5558
▁šansu	-5559
▁6,	-5560
▁ll	-5561
▁aha	-5562
▁oju	-5563
▁pul	-5564
▁ude	-5565
▁dras	-5566
▁itom	-5567
▁nome	-5568
▁sila	-5569
▁inkov	-5570
▁ispri	-5571
▁jstva	-5572
▁Max	-5573
▁det	-5574
▁gur	-5575
▁jku	-5576
▁tij	-5577
▁til	-5578
▁ijad	-5579
▁masl	-5580
▁uard	-5581
▁ural	-5582
▁Hamas	-5583
▁anovi	-5584
▁irana	-5585
▁reper	-5586
▁PD	-5587
▁alk	-5588
▁lac	-5589
▁tug	-5590
▁izab	-5591
▁ješt	-5592
▁rave	-5593
▁arbar	-5594
▁komor	-5595
▁remij	-5596
ej	-5597
▁Mal	-5598
▁ens	-5599
▁gir	-5600
▁uck	-5601
▁vit	-5602
▁aved	-5603
▁nava	-5604
▁taja	-5605
▁tila	-5606
▁općen	-5607
▁ff	-5608
▁biz	-5609
▁edo	-5610
▁izr	-5611
▁pij	-5612
▁unt	-5613
▁elev	-5614
▁jezd	-5615
▁oram	-5616
▁stok	-5617
▁Modri	-5618
▁itali	-5619
▁izvođ	-5620
▁navod	-5621
▁travn	-5622
▁Sab	-5623
▁amn	-5624
▁bom	-5625
▁dek	-5626
▁lem	-5627
▁jeca	-5628
▁nosni	-5629
▁37	-5630
▁AP	-5631
▁Fe	-5632
▁ola	-5633
▁tit	-5634
▁Afri	-5635
▁hodn	-5636
▁kaka	-5637
▁tika	-5638
▁enica	-5639
▁omogu	-5640
▁režij	-5641
▁stolj	-5642
▁temel	-5643
OM	-5644
san	-5645
▁zu	-5646
▁MUP	-5647
▁avne	-5648
▁eleg	-5649
▁ilot	-5650
▁ljav	-5651
▁oric	-5652
▁prob	-5653
▁živa	-5654
▁irano	-5655
▁120	-5656
▁ble	-5657
▁ean	-5658
▁rux	-5659
▁ozač	-5660
▁rvat	-5661
▁đenj	-5662
▁Anđel	-5663
▁ruzij	-5664
▁zlije	-5665
SA	-5666
ZO	-5667
▁Ex	-5668
▁aw	-5669
▁Vil	-5670
▁can	-5671
▁dri	-5672
▁jke	-5673
▁etal	-5674
▁ugov	-5675
▁donij	-5676
▁igral	-5677
gh	-5678
▁5,	-5679
▁DC	-5680
▁hib	-5681
▁nez	-5682
▁Mile	-5683
▁gori	-5684
▁ijet	-5685
▁mund	-5686
▁snov	-5687
▁vodo	-5688
▁apadn	-5689
▁ranič	-5690
LA	-5691
▁250	-5692
▁dij	-5693
▁fol	-5694
▁mah	-5695
▁vih	-5696
▁vnj	-5697
▁zma	-5698
▁čne	-5699
▁ažno	-5700
▁ićem	-5701
▁jana	-5702
▁lesn	-5703
▁olit	-5704
▁onte	-5705
▁oško	-5706
▁trov	-5707
▁Mik	-5708
▁Tek	-5709
▁iod	-5710
▁inju	-5711
▁reak	-5712
▁romi	-5713
▁liber	-5714
▁mn	-5715
▁Her	-5716
▁ibe	-5717
▁vrs	-5718
▁adov	-5719
▁NI	-5720
▁OP	-5721
▁pt	-5722
▁ajm	-5723
▁cen	-5724
▁međ	-5725
▁nuž	-5726
▁rto	-5727
▁demi	-5728
▁ijun	-5729
▁imal	-5730
▁rašn	-5731
▁zicij	-5732
NE	-5733
▁ü	-5734
▁OC	-5735
▁Dom	-5736
▁duć	-5737
▁jab	-5738
▁aral	-5739
▁arne	-5740
▁dmah	-5741
▁ilij	-5742
▁jeka	-5743
▁mješ	-5744
▁stri	-5745
▁tica	-5746
▁dijsk	-5747
▁jenih	-5748
▁tefan	-5749
▁eša	-5750
▁gat	-5751
▁jec	-5752
▁jesm	-5753
▁lija	-5754
▁osad	-5755
▁otel	-5756
▁raja	-5757
▁tike	-5758
▁tolik	-5759
▁42	-5760
▁UE	-5761
▁Gol	-5762
▁eke	-5763
▁obe	-5764
▁ofi	-5765
▁opl	-5766
▁acio	-5767
▁azit	-5768
▁eviz	-5769
▁eyen	-5770
▁ktor	-5771
▁mađa	-5772
▁ovla	-5773
▁stin	-5774
▁tory	-5775
▁čest	-5776
▁jasan	-5777
ajd	-5778
vij	-5779
▁Bu	-5780
▁Ga	-5781
▁Mas	-5782
▁fot	-5783
▁kiv	-5784
▁ojk	-5785
▁tup	-5786
▁zač	-5787
▁ćer	-5788
▁žno	-5789
▁avam	-5790
▁etov	-5791
▁ndar	-5792
▁uski	-5793
▁ijesn	-5794
▁kotar	-5795
▁ladim	-5796
▁njava	-5797
▁novin	-5798
vid	-5799
▁Dim	-5800
▁Van	-5801
▁kla	-5802
▁enda	-5803
▁kose	-5804
▁ručn	-5805
▁tolj	-5806
▁aliti	-5807
▁grani	-5808
fer	-5809
tes	-5810
▁Baš	-5811
▁EUR	-5812
▁sio	-5813
▁UEFA	-5814
▁cean	-5815
▁enni	-5816
▁jutr	-5817
▁juće	-5818
▁oban	-5819
▁oduz	-5820
▁aditi	-5821
▁inici	-5822
▁ometa	-5823
▁refer	-5824
iss	-5825
▁48	-5826
▁oge	-5827
▁eroj	-5828
▁nira	-5829
▁nstr	-5830
▁oler	-5831
▁witt	-5832
▁šava	-5833
tač	-5834
▁NE	-5835
▁Ivo	-5836
▁Sup	-5837
▁mer	-5838
▁nan	-5839
▁datk	-5840
▁imov	-5841
▁Đurđ	-5842
▁razli	-5843
▁videa	-5844
▁yj	-5845
▁Ili	-5846
▁are	-5847
▁asi	-5848
▁abij	-5849
▁edio	-5850
▁retn	-5851
▁predn	-5852
▁rijeb	-5853
▁rimje	-5854
ün	-5855
▁At	-5856
▁Vin	-5857
▁bri	-5858
▁dah	-5859
▁egl	-5860
▁eze	-5861
▁mao	-5862
▁rev	-5863
▁ader	-5864
▁aklj	-5865
▁elin	-5866
▁oruč	-5867
▁milos	-5868
▁nterv	-5869
▁vođen	-5870
gum	-5871
▁ask	-5872
▁atk	-5873
▁del	-5874
▁arić	-5875
▁enko	-5876
▁rošl	-5877
▁Orban	-5878
▁donos	-5879
▁odaje	-5880
▁stavu	-5881
EP	-5882
VA	-5883
ach	-5884
▁85	-5885
▁Mon	-5886
▁Ovi	-5887
▁rud	-5888
▁sak	-5889
▁tul	-5890
▁Hajd	-5891
▁ivak	-5892
▁ring	-5893
▁skoč	-5894
▁wood	-5895
▁entat	-5896
▁ijeko	-5897
▁zadin	-5898
9.	-5899
MS	-5900
mb	-5901
mer	-5902
▁7,	-5903
▁Gl	-5904
▁we	-5905
▁odo	-5906
▁Mirk	-5907
▁ašen	-5908
▁deći	-5909
▁dvij	-5910
▁edom	-5911
▁enov	-5912
▁kaln	-5913
▁oruk	-5914
▁trac	-5915
▁ambur	-5916
▁cipel	-5917
▁emije	-5918
▁lemen	-5919
▁pitan	-5920
Ja	-5921
▁irn	-5922
▁loj	-5923
▁lot	-5924
▁olf	-5925
▁učn	-5926
▁zak	-5927
▁info	-5928
▁jele	-5929
▁jivo	-5930
▁metr	-5931
▁orna	-5932
▁slič	-5933
▁igrat	-5934
bul	-5935
rik	-5936
▁DJ	-5937
▁Mid	-5938
▁alm	-5939
▁zau	-5940
▁imun	-5941
▁iram	-5942
▁ljak	-5943
▁mije	-5944
▁pije	-5945
▁ušta	-5946
▁ntern	-5947
▁odila	-5948
ner	-5949
yer	-5950
▁ss	-5951
▁One	-5952
▁jeđ	-5953
▁ken	-5954
▁orč	-5955
▁koef	-5956
▁ojoj	-5957
▁pret	-5958
▁preu	-5959
▁stim	-5960
▁stop	-5961
▁imanj	-5962
▁loški	-5963
▁žirij	-5964
art	-5965
din	-5966
dul	-5967
mon	-5968
▁ET	-5969
▁OI	-5970
▁Ur	-5971
▁We	-5972
▁Bog	-5973
▁Oko	-5974
▁PDV	-5975
▁src	-5976
▁tas	-5977
▁atom	-5978
▁niku	-5979
▁plje	-5980
▁riva	-5981
▁ubil	-5982
▁vani	-5983
▁azali	-5984
▁ernet	-5985
▁kolik	-5986
▁KS	-5987
▁Pu	-5988
▁yl	-5989
▁Ruž	-5990
▁aes	-5991
▁alin	-5992
▁ženj	-5993
▁argum	-5994
▁avlja	-5995
▁orija	-5996
ord	-5997
▁LA	-5998
▁td	-5999
▁bok	-6000
▁cur	-6001
▁ien	-6002
▁ekre	-6003
▁imon	-6004
▁olja	-6005
▁popr	-6006
▁učer	-6007
▁vara	-6008
▁odine	-6009
▁vjeru	-6010
▁vrati	-6011
ry	-6012
▁FI	-6013
▁GP	-6014
▁tv	-6015
▁Lid	-6016
▁arc	-6017
▁tol	-6018
▁unk	-6019
▁Niko	-6020
▁anda	-6021
▁tral	-6022
▁zacij	-6023
MO	-6024
▁qu	-6025
▁Miš	-6026
▁cit	-6027
▁dez	-6028
▁dov	-6029
▁ebi	-6030
▁epo	-6031
▁nag	-6032
▁oal	-6033
▁avni	-6034
▁azan	-6035
▁nači	-6036
▁ojic	-6037
▁pona	-6038
▁tiku	-6039
▁japan	-6040
▁robot	-6041
▁ö	-6042
col	-6043
dil	-6044
▁Vu	-6045
▁prv	-6046
▁reh	-6047
▁ril	-6048
▁ule	-6049
▁uće	-6050
▁SDSS	-6051
▁nate	-6052
▁soba	-6053
▁eorge	-6054
▁ormal	-6055
▁pobje	-6056
▁ranit	-6057
▁rijem	-6058
pz	-6059
▁Li	-6060
▁RA	-6061
▁dbe	-6062
▁eipz	-6063
▁očit	-6064
▁znal	-6065
▁ašnji	-6066
▁kutij	-6067
▁ramen	-6068
▁trbuh	-6069
▁HS	-6070
▁IN	-6071
▁ua	-6072
▁any	-6073
▁daš	-6074
▁kib	-6075
▁lih	-6076
▁ors	-6077
▁puc	-6078
▁ulo	-6079
▁anih	-6080
▁arda	-6081
▁erac	-6082
▁mesa	-6083
▁tipe	-6084
▁antan	-6085
▁rović	-6086
▁Er	-6087
▁Lo	-6088
▁Rat	-6089
▁bač	-6090
▁nde	-6091
▁čuo	-6092
▁žar	-6093
▁azal	-6094
▁imes	-6095
▁raju	-6096
▁anđel	-6097
▁asnik	-6098
▁lavni	-6099
▁orčul	-6100
ED	-6101
▁IC	-6102
▁aba	-6103
▁guš	-6104
▁rke	-6105
▁rnj	-6106
▁Mand	-6107
▁erat	-6108
▁odri	-6109
▁ričk	-6110
▁alnoj	-6111
▁asmin	-6112
▁beton	-6113
▁ekuje	-6114
▁ijene	-6115
▁manja	-6116
▁minus	-6117
▁niran	-6118
▁ontan	-6119
UD	-6120
▁é	-6121
rač	-6122
▁Iza	-6123
▁rma	-6124
▁rot	-6125
▁ves	-6126
▁Unij	-6127
▁igao	-6128
▁oživ	-6129
▁rica	-6130
▁sadr	-6131
▁ancij	-6132
ing	-6133
▁PA	-6134
▁cir	-6135
▁gaj	-6136
▁nok	-6137
▁osk	-6138
▁tud	-6139
▁irov	-6140
▁lažu	-6141
▁olak	-6142
▁sobi	-6143
▁inska	-6144
▁trije	-6145
▁Mün	-6146
▁afe	-6147
▁ces	-6148
▁omi	-6149
▁ony	-6150
▁trp	-6151
▁ande	-6152
▁jevo	-6153
▁lata	-6154
▁ljam	-6155
▁aglas	-6156
▁BM	-6157
▁CN	-6158
▁Pup	-6159
▁asl	-6160
▁kas	-6161
▁nuk	-6162
▁YouT	-6163
▁dikt	-6164
▁ećim	-6165
▁greb	-6166
▁jajn	-6167
▁logi	-6168
▁mačk	-6169
▁nivo	-6170
▁slug	-6171
▁Jones	-6172
von	-6173
▁IV	-6174
▁Sva	-6175
▁aga	-6176
▁enč	-6177
▁etr	-6178
▁ptu	-6179
▁rdo	-6180
▁rgu	-6181
▁rve	-6182
▁erit	-6183
▁lima	-6184
▁omet	-6185
▁onta	-6186
▁ovis	-6187
▁raks	-6188
▁ament	-6189
▁homas	-6190
▁išten	-6191
▁junak	-6192
▁kotač	-6193
▁urnej	-6194
son	-6195
▁RI	-6196
▁Fur	-6197
▁Kim	-6198
▁Kne	-6199
▁Ner	-6200
▁hon	-6201
▁nau	-6202
▁ons	-6203
▁suo	-6204
▁žan	-6205
▁iren	-6206
▁jeme	-6207
▁jeni	-6208
▁ogat	-6209
▁lokal	-6210
ill	-6211
▁(1	-6212
▁dn	-6213
▁lm	-6214
▁Don	-6215
▁sal	-6216
▁dnev	-6217
▁eden	-6218
▁ingl	-6219
▁upci	-6220
▁anije	-6221
▁tepen	-6222
heo	-6223
utt	-6224
▁ER	-6225
▁žj	-6226
▁Mit	-6227
▁row	-6228
▁uni	-6229
▁Sela	-6230
▁arci	-6231
▁arhi	-6232
▁arti	-6233
▁emin	-6234
▁izra	-6235
▁ovic	-6236
▁poma	-6237
▁rane	-6238
▁anuel	-6239
▁tiran	-6240
▁ularn	-6241
ER	-6242
▁44	-6243
▁2-0	-6244
▁Joe	-6245
▁Tor	-6246
▁mel	-6247
▁sol	-6248
▁žem	-6249
▁anat	-6250
▁eror	-6251
▁jiti	-6252
▁ovat	-6253
▁ođen	-6254
▁polo	-6255
▁rder	-6256
▁rofi	-6257
▁zadr	-6258
▁zije	-6259
▁žava	-6260
▁Nicol	-6261
▁ergij	-6262
▁gužve	-6263
▁izdan	-6264
eld	-6265
▁SO	-6266
▁Med	-6267
▁azn	-6268
▁bik	-6269
▁uko	-6270
▁edic	-6271
▁gaja	-6272
▁kale	-6273
▁laži	-6274
▁odje	-6275
▁onna	-6276
▁rand	-6277
▁rnoj	-6278
▁tata	-6279
▁teta	-6280
▁arjan	-6281
▁ijeka	-6282
▁ribar	-6283
▁bl	-6284
▁đa	-6285
▁rla	-6286
▁ujk	-6287
▁vic	-6288
▁žut	-6289
▁adom	-6290
▁erna	-6291
▁etko	-6292
▁ešto	-6293
▁iska	-6294
▁laža	-6295
▁namo	-6296
▁riju	-6297
▁tone	-6298
▁lamen	-6299
▁odala	-6300
▁toper	-6301
gel	-6302
tam	-6303
▁ny	-6304
▁oi	-6305
▁III	-6306
▁avr	-6307
▁ish	-6308
▁asni	-6309
▁ersk	-6310
▁ojed	-6311
▁ušev	-6312
▁varn	-6313
▁arsko	-6314
▁ačica	-6315
▁grafi	-6316
▁spore	-6317
▁stupi	-6318
▁zaslu	-6319
kul	-6320
ric	-6321
ust	-6322
▁EL	-6323
▁OS	-6324
▁DIP	-6325
▁odl	-6326
▁rop	-6327
▁vao	-6328
▁biln	-6329
▁dmor	-6330
▁dužn	-6331
▁jero	-6332
▁ojih	-6333
▁outh	-6334
▁ožar	-6335
▁slan	-6336
▁ujan	-6337
▁zvon	-6338
▁šenj	-6339
▁adaju	-6340
▁jmanj	-6341
VP	-6342
ras	-6343
ril	-6344
▁SU	-6345
▁700	-6346
▁nak	-6347
▁očel	-6348
▁kriti	-6349
▁rajuć	-6350
▁slobo	-6351
▁strok	-6352
▁PI	-6353
▁Un	-6354
▁HAK	-6355
▁Lig	-6356
▁Ven	-6357
▁ajl	-6358
▁apr	-6359
▁tvu	-6360
▁Vara	-6361
▁atan	-6362
▁aton	-6363
▁dahn	-6364
▁lara	-6365
▁opra	-6366
▁aerod	-6367
▁manek	-6368
▁rugom	-6369
▁vanju	-6370
ld	-6371
▁Hu	-6372
▁MA	-6373
▁HTV	-6374
▁hot	-6375
▁kvi	-6376
▁oze	-6377
▁azao	-6378
▁eksa	-6379
▁jeda	-6380
▁rođe	-6381
▁vati	-6382
▁šuma	-6383
▁anjur	-6384
▁azlog	-6385
▁cerem	-6386
▁ijena	-6387
CA	-6388
▁Ah	-6389
▁Nor	-6390
▁eže	-6391
▁izi	-6392
▁nen	-6393
▁oid	-6394
▁rip	-6395
▁ekat	-6396
▁ente	-6397
▁entu	-6398
▁gušt	-6399
▁hađa	-6400
▁ugar	-6401
▁jevoj	-6402
▁memor	-6403
-3	-6404
▁žd	-6405
▁Pot	-6406
▁Sav	-6407
▁otu	-6408
▁ovč	-6409
▁koli	-6410
▁luba	-6411
▁oseb	-6412
▁otti	-6413
▁rira	-6414
▁šarm	-6415
▁debit	-6416
▁kabin	-6417
▁oruss	-6418
ans	-6419
sic	-6420
▁RE	-6421
▁Dra	-6422
▁PSG	-6423
▁Uni	-6424
▁bah	-6425
▁koz	-6426
▁Knež	-6427
▁aria	-6428
▁atar	-6429
▁enir	-6430
▁olod	-6431
▁taln	-6432
▁uvar	-6433
han	-6434
▁šn	-6435
▁eck	-6436
▁izu	-6437
▁opi	-6438
▁baka	-6439
▁isac	-6440
▁midž	-6441
▁prip	-6442
▁rans	-6443
▁rejt	-6444
▁uran	-6445
▁anbul	-6446
▁emokr	-6447
▁panel	-6448
dy	-6449
ske	-6450
▁1-0	-6451
▁Wim	-6452
▁ejn	-6453
▁hom	-6454
▁iot	-6455
▁mes	-6456
▁zmi	-6457
▁ladu	-6458
▁najb	-6459
▁okaz	-6460
Na	-6461
bi	-6462
ya	-6463
dav	-6464
mit	-6465
viš	-6466
▁43	-6467
▁nn	-6468
▁Fil	-6469
▁Pan	-6470
▁Ram	-6471
▁ajp	-6472
▁liš	-6473
▁ute	-6474
▁ćeš	-6475
▁Jack	-6476
▁ajed	-6477
▁alif	-6478
▁gest	-6479
▁ijum	-6480
▁reet	-6481
▁edino	-6482
▁ejner	-6483
▁entil	-6484
▁humor	-6485
▁kcija	-6486
▁krila	-6487
dum	-6488
▁pp	-6489
aker	-6490
▁Pol	-6491
▁Vas	-6492
▁ave	-6493
▁sok	-6494
▁Post	-6495
▁ajev	-6496
▁ekuj	-6497
▁ilom	-6498
▁isan	-6499
▁jans	-6500
▁oziv	-6501
▁ajviš	-6502
▁golem	-6503
▁ijelu	-6504
▁rugog	-6505
rut	-6506
▁BMW	-6507
▁Fut	-6508
▁Mur	-6509
▁jma	-6510
▁jon	-6511
▁jur	-6512
▁maz	-6513
▁psa	-6514
▁Dani	-6515
▁dama	-6516
▁lova	-6517
▁orat	-6518
▁ozic	-6519
▁panj	-6520
▁vrij	-6521
▁Nives	-6522
▁nedav	-6523
▁nskoj	-6524
▁ranka	-6525
XS	-6526
▁Hr	-6527
▁RO	-6528
▁1,5	-6529
▁Rok	-6530
▁dav	-6531
▁dro	-6532
▁hop	-6533
▁ilu	-6534
▁ple	-6535
▁pus	-6536
▁rič	-6537
▁ačaj	-6538
▁dima	-6539
▁ford	-6540
▁kren	-6541
▁nast	-6542
▁unav	-6543
▁štaj	-6544
▁Dejan	-6545
▁bilje	-6546
▁onovn	-6547
▁opust	-6548
▁stina	-6549
▁tivan	-6550
Da	-6551
▁aus	-6552
▁dak	-6553
▁ear	-6554
▁nem	-6555
▁ogi	-6556
▁vim	-6557
▁zal	-6558
▁erin	-6559
▁icio	-6560
▁ijte	-6561
▁kožu	-6562
▁mina	-6563
▁ostr	-6564
▁osuđ	-6565
▁skor	-6566
▁utro	-6567
▁čima	-6568
▁jenim	-6569
▁sklju	-6570
orld	-6571
▁otn	-6572
▁poš	-6573
▁uop	-6574
▁Alan	-6575
▁ambl	-6576
▁enin	-6577
▁iber	-6578
▁jaki	-6579
▁kira	-6580
▁mand	-6581
▁odru	-6582
▁orio	-6583
▁ramp	-6584
▁voju	-6585
▁eseci	-6586
▁kv	-6587
▁800	-6588
▁CNN	-6589
▁Gar	-6590
▁itt	-6591
▁kum	-6592
▁teo	-6593
▁djed	-6594
▁lovi	-6595
▁mati	-6596
▁miti	-6597
▁olan	-6598
▁piti	-6599
▁pomi	-6600
▁tati	-6601
▁užno	-6602
▁biljn	-6603
▁evjer	-6604
▁karat	-6605
▁prist	-6606
▁sudio	-6607
ST	-6608
Za	-6609
gen	-6610
▁En	-6611
▁Pel	-6612
▁ezi	-6613
▁žao	-6614
▁ecij	-6615
▁erov	-6616
▁nuta	-6617
▁čili	-6618
▁čiti	-6619
▁ajući	-6620
▁ačkom	-6621
▁debat	-6622
▁olici	-6623
ys	-6624
▁58	-6625
▁2-1	-6626
▁OCM	-6627
▁gne	-6628
▁idi	-6629
▁jić	-6630
▁rih	-6631
▁sup	-6632
▁uša	-6633
▁Miss	-6634
▁adin	-6635
▁empe	-6636
▁hony	-6637
▁ilor	-6638
▁isin	-6639
▁okal	-6640
▁okru	-6641
▁orez	-6642
▁rači	-6643
▁utje	-6644
▁vali	-6645
▁anira	-6646
▁arhiv	-6647
▁podrš	-6648
-4	-6649
-6	-6650
▁46	-6651
▁ox	-6652
mink	-6653
▁Jul	-6654
▁Pek	-6655
▁akš	-6656
▁dni	-6657
▁erm	-6658
▁mut	-6659
▁Mont	-6660
▁Mora	-6661
▁nske	-6662
▁rišt	-6663
▁tura	-6664
▁digra	-6665
▁edini	-6666
▁glumi	-6667
▁provo	-6668
▁ritam	-6669
▁udara	-6670
▁urger	-6671
SC	-6672
▁47	-6673
▁8,	-6674
▁MO	-6675
▁by	-6676
▁SOA	-6677
▁uch	-6678
▁čov	-6679
▁žet	-6680
▁disa	-6681
▁dluč	-6682
▁eric	-6683
▁hlađ	-6684
▁init	-6685
▁mast	-6686
▁orak	-6687
▁rgan	-6688
▁umnj	-6689
▁adona	-6690
▁istit	-6691
▁osječ	-6692
▁putov	-6693
▁šmink	-6694
her	-6695
nat	-6696
tir	-6697
▁41	-6698
▁95	-6699
▁Ca	-6700
▁RS	-6701
▁ža	-6702
▁App	-6703
▁egz	-6704
▁him	-6705
▁ibl	-6706
▁ogl	-6707
▁olz	-6708
▁vsk	-6709
▁ćuj	-6710
▁čeg	-6711
▁anit	-6712
▁jski	-6713
▁kono	-6714
▁ljem	-6715
▁ospo	-6716
▁tkom	-6717
▁Milen	-6718
▁ijeta	-6719
▁litič	-6720
▁rosin	-6721
ET	-6722
ull	-6723
▁64	-6724
▁DA	-6725
▁šk	-6726
acij	-6727
▁Kul	-6728
▁Zov	-6729
▁kve	-6730
▁ujn	-6731
▁zao	-6732
▁češ	-6733
▁eduk	-6734
▁mokr	-6735
▁omać	-6736
▁posv	-6737
▁potp	-6738
▁soci	-6739
▁trič	-6740
▁turn	-6741
▁čica	-6742
▁nizac	-6743
▁uacij	-6744
ell	-6745
▁Fu	-6746
▁2,5	-6747
▁IDS	-6748
▁Sev	-6749
▁cat	-6750
▁eal	-6751
▁ect	-6752
▁len	-6753
▁nal	-6754
▁orz	-6755
▁jnih	-6756
▁taci	-6757
▁wift	-6758
▁inuti	-6759
▁načel	-6760
▁obolj	-6761
▁odruč	-6762
▁rakse	-6763
mot	-6764
urt	-6765
▁kW	-6766
▁lb	-6767
▁OPG	-6768
▁Ris	-6769
▁ald	-6770
▁vić	-6771
▁Jure	-6772
▁anom	-6773
▁evid	-6774
▁jaju	-6775
▁lack	-6776
▁oton	-6777
▁poli	-6778
▁ruži	-6779
▁svje	-6780
▁tate	-6781
▁znen	-6782
▁menti	-6783
▁otten	-6784
cy	-6785
fa	-6786
ia	-6787
ww	-6788
jak	-6789
kir	-6790
▁66	-6791
▁ld	-6792
▁Rod	-6793
▁Vic	-6794
▁doč	-6795
▁ivu	-6796
▁osv	-6797
▁paz	-6798
▁ric	-6799
▁tlj	-6800
▁yan	-6801
▁HGSS	-6802
▁ivna	-6803
▁odgo	-6804
▁onst	-6805
▁rvom	-6806
▁vest	-6807
▁alans	-6808
▁betes	-6809
▁jeste	-6810
▁kloni	-6811
▁ovolj	-6812
▁posti	-6813
▁terij	-6814
▁umjet	-6815
▁čovje	-6816
EC	-6817
▁Can	-6818
▁Del	-6819
▁Len	-6820
▁buk	-6821
▁dže	-6822
▁off	-6823
▁osi	-6824
▁ošk	-6825
▁ume	-6826
▁urd	-6827
▁uđe	-6828
▁www	-6829
▁Ćor	-6830
▁ažur	-6831
▁erez	-6832
▁ilip	-6833
▁nili	-6834
▁onac	-6835
▁opez	-6836
▁rekt	-6837
▁seta	-6838
▁edija	-6839
▁isala	-6840
▁lakat	-6841
▁orili	-6842
LS	-6843
SK	-6844
▁Ke	-6845
▁MI	-6846
▁Gre	-6847
▁Ren	-6848
▁epa	-6849
▁gaz	-6850
▁lah	-6851
▁roc	-6852
▁Brak	-6853
▁arun	-6854
▁asen	-6855
▁kole	-6856
▁lužb	-6857
▁ogli	-6858
▁ojat	-6859
▁orga	-6860
▁oril	-6861
▁otog	-6862
▁ound	-6863
▁rame	-6864
▁ream	-6865
▁Dalma	-6866
▁Kulen	-6867
▁debel	-6868
▁eufor	-6869
▁obila	-6870
▁rašin	-6871
:2	-6872
IV	-6873
▁61	-6874
▁EN	-6875
▁Wa	-6876
▁Kri	-6877
▁Wil	-6878
▁Zap	-6879
▁Zor	-6880
▁fan	-6881
▁hip	-6882
▁jaj	-6883
▁lug	-6884
▁nuđ	-6885
▁alju	-6886
▁apre	-6887
▁asad	-6888
▁esno	-6889
▁fiks	-6890
▁ovni	-6891
▁teph	-6892
▁toje	-6893
▁udan	-6894
▁ahval	-6895
▁antis	-6896
▁arišk	-6897
▁kolač	-6898
▁nevni	-6899
▁ummit	-6900
▁učili	-6901
▁vrtka	-6902
ise	-6903
rit	-6904
▁(2	-6905
▁54	-6906
▁AR	-6907
▁Šu	-6908
▁Mia	-6909
▁Trg	-6910
▁ivš	-6911
▁lla	-6912
▁mul	-6913
▁rdn	-6914
▁riš	-6915
▁ser	-6916
▁sit	-6917
▁zom	-6918
▁šes	-6919
▁Drug	-6920
▁deve	-6921
▁ekad	-6922
▁nave	-6923
▁opas	-6924
▁rana	-6925
▁stag	-6926
▁ziti	-6927
▁žuti	-6928
▁deman	-6929
▁guver	-6930
▁initi	-6931
▁morat	-6932
▁njenj	-6933
▁rosto	-6934
▁upnik	-6935
▁čenje	-6936
gn	-6937
rig	-6938
▁52	-6939
▁Ab	-6940
▁nk	-6941
skom	-6942
▁Jun	-6943
▁ozo	-6944
▁pek	-6945
▁upi	-6946
▁veu	-6947
▁adon	-6948
▁izne	-6949
▁ktiv	-6950
▁mala	-6951
▁mith	-6952
▁olks	-6953
▁rako	-6954
▁sira	-6955
▁skus	-6956
▁vakv	-6957
▁voja	-6958
▁vora	-6959
▁raksa	-6960
▁timul	-6961
▁urbul	-6962
▁veoma	-6963
▁Lj	-6964
▁oa	-6965
▁IJE	-6966
▁Res	-6967
▁Vit	-6968
▁ađu	-6969
▁jva	-6970
▁kuš	-6971
▁zič	-6972
▁avlj	-6973
▁enzi	-6974
▁etit	-6975
▁guma	-6976
▁mašt	-6977
▁rajč	-6978
▁ropa	-6979
▁sluš	-6980
▁učio	-6981
▁Super	-6982
▁arheo	-6983
▁djeti	-6984
▁napre	-6985
▁struč	-6986
▁vršil	-6987
gor	-6988
▁OR	-6989
▁Bur	-6990
▁Des	-6991
▁Mes	-6992
▁dej	-6993
▁how	-6994
▁ipa	-6995
▁oša	-6996
▁ršk	-6997
▁vij	-6998
▁ajni	-6999
▁anjk	-7000
▁avod	-7001
▁ećih	-7002
▁išnj	-7003
▁mper	-7004
▁rgij	-7005
▁rovi	-7006
▁uzro	-7007
▁vice	-7008
▁zgod	-7009
▁zube	-7010
▁arodn	-7011
▁rojni	-7012
DA	-7013
ču	-7014
gus	-7015
tat	-7016
▁51	-7017
▁BI	-7018
▁Wi	-7019
▁ct	-7020
▁Zar	-7021
▁asu	-7022
▁ipo	-7023
▁upl	-7024
▁zno	-7025
▁dlak	-7026
▁dnij	-7027
▁mann	-7028
▁minu	-7029
▁naro	-7030
▁ošnj	-7031
▁past	-7032
▁raum	-7033
▁romo	-7034
▁rora	-7035
▁vnim	-7036
▁duhan	-7037
▁kadet	-7038
ted	-7039
▁49	-7040
▁EC	-7041
▁WC	-7042
▁Zl	-7043
▁rm	-7044
▁Šv	-7045
▁eča	-7046
▁iča	-7047
▁kir	-7048
▁own	-7049
▁zdr	-7050
▁alac	-7051
▁anji	-7052
▁arok	-7053
▁aver	-7054
▁cert	-7055
▁emen	-7056
▁grob	-7057
▁isal	-7058
▁nerg	-7059
▁ovar	-7060
▁prik	-7061
▁World	-7062
▁arbon	-7063
▁hvati	-7064
▁voden	-7065
BI	-7066
eln	-7067
▁62	-7068
▁sh	-7069
▁And	-7070
▁ape	-7071
▁gem	-7072
▁ogn	-7073
▁diti	-7074
▁ivno	-7075
▁slim	-7076
▁suđe	-7077
▁Feder	-7078
▁aranž	-7079
▁deleg	-7080
▁ected	-7081
▁lektr	-7082
▁svoji	-7083
get	-7084
tik	-7085
▁00	-7086
▁PR	-7087
▁Zu	-7088
▁kt	-7089
▁Lav	-7090
▁Rem	-7091
▁Vis	-7092
▁WTA	-7093
▁baj	-7094
▁bon	-7095
▁tir	-7096
▁eron	-7097
▁igan	-7098
▁irat	-7099
▁ivat	-7100
▁kons	-7101
▁lina	-7102
▁nisi	-7103
▁orta	-7104
▁raci	-7105
▁sima	-7106
▁tski	-7107
▁ulsk	-7108
▁zlož	-7109
▁Bayer	-7110
▁alkon	-7111
▁krenu	-7112
▁pehar	-7113
▁trani	-7114
▁štiti	-7115
ep	-7116
ott	-7117
ppe	-7118
▁Kit	-7119
▁Koš	-7120
▁ach	-7121
▁cil	-7122
▁dla	-7123
▁irk	-7124
▁oun	-7125
▁tač	-7126
▁tte	-7127
▁ubr	-7128
▁Akad	-7129
▁abro	-7130
▁ikan	-7131
▁jamč	-7132
▁jeđe	-7133
▁pati	-7134
▁reen	-7135
▁trog	-7136
▁vrti	-7137
▁avnom	-7138
▁aznic	-7139
▁iljen	-7140
▁milit	-7141
▁vinsk	-7142
th	-7143
▁Mr	-7144
▁Jug	-7145
▁Nap	-7146
▁ajd	-7147
▁oft	-7148
▁rgo	-7149
▁sed	-7150
▁tla	-7151
▁Fred	-7152
▁OVAJ	-7153
▁azar	-7154
▁djev	-7155
▁dnja	-7156
▁elil	-7157
▁himn	-7158
▁ivne	-7159
▁janj	-7160
▁karc	-7161
▁olno	-7162
▁omun	-7163
▁ovje	-7164
▁pjel	-7165
▁tite	-7166
▁utvr	-7167
▁anjak	-7168
▁cigar	-7169
▁konom	-7170
▁ružen	-7171
▁stitu	-7172
▁vinar	-7173
FC	-7174
fr	-7175
kn	-7176
len	-7177
▁9,	-7178
▁HB	-7179
▁ls	-7180
▁Rec	-7181
▁esp	-7182
▁ipe	-7183
▁iči	-7184
▁rzi	-7185
▁asan	-7186
▁avim	-7187
▁evak	-7188
▁geot	-7189
▁naci	-7190
▁odni	-7191
▁orsk	-7192
▁pres	-7193
▁rovn	-7194
▁sion	-7195
▁tigl	-7196
▁vike	-7197
▁bappe	-7198
▁gradn	-7199
▁kumen	-7200
▁ničko	-7201
▁oviti	-7202
Mi	-7203
▁>	-7204
let	-7205
▁AG	-7206
▁ST	-7207
▁kš	-7208
▁pc	-7209
▁180	-7210
▁nol	-7211
▁old	-7212
▁Žid	-7213
▁Prim	-7214
▁abio	-7215
▁bavn	-7216
▁daci	-7217
▁inko	-7218
▁kant	-7219
▁ngle	-7220
▁olom	-7221
▁ston	-7222
▁tras	-7223
▁trol	-7224
▁ušan	-7225
▁dućan	-7226
▁gusto	-7227
▁irane	-7228
▁isnik	-7229
▁kvadr	-7230
▁lijte	-7231
▁radov	-7232
rie	-7233
sul	-7234
▁SA	-7235
▁Ya	-7236
▁130	-7237
▁Fio	-7238
▁ack	-7239
▁aht	-7240
▁cca	-7241
▁fal	-7242
▁ruj	-7243
▁usn	-7244
▁ćut	-7245
▁ačka	-7246
▁bake	-7247
▁chen	-7248
▁gart	-7249
▁jete	-7250
▁klik	-7251
▁komi	-7252
▁litv	-7253
▁nuto	-7254
▁ogom	-7255
▁udes	-7256
▁Apple	-7257
▁inger	-7258
▁raper	-7259
▁rativ	-7260
▁učila	-7261
▁zbjeg	-7262
fon	-7263
rir	-7264
▁73	-7265
▁76	-7266
▁TZ	-7267
uter	-7268
▁Kre	-7269
▁Ras	-7270
▁eja	-7271
▁eđi	-7272
▁knj	-7273
▁vac	-7274
▁dalo	-7275
▁ekli	-7276
▁elov	-7277
▁erti	-7278
▁ezij	-7279
▁gume	-7280
▁jake	-7281
▁koša	-7282
▁ptuž	-7283
▁tutt	-7284
▁olksw	-7285
▁padni	-7286
▁rskom	-7287
▁šansa	-7288
LI	-7289
vas	-7290
▁56	-7291
▁72	-7292
▁fl	-7293
▁fo	-7294
▁ABA	-7295
▁Bad	-7296
▁Rak	-7297
▁Rio	-7298
▁bun	-7299
▁dež	-7300
▁evn	-7301
▁sme	-7302
▁šak	-7303
▁žit	-7304
▁Obje	-7305
▁arca	-7306
▁etom	-7307
▁fere	-7308
▁gard	-7309
▁javu	-7310
▁osan	-7311
▁stab	-7312
▁ubot	-7313
▁udru	-7314
▁ansko	-7315
▁arter	-7316
▁dirig	-7317
▁ebast	-7318
▁haker	-7319
▁znena	-7320
sy	-7321
▁63	-7322
▁AV	-7323
▁EK	-7324
▁000	-7325
▁Edi	-7326
▁HEP	-7327
▁INA	-7328
▁eje	-7329
▁gul	-7330
▁mlj	-7331
▁ror	-7332
▁Asad	-7333
▁atal	-7334
▁aura	-7335
▁epar	-7336
▁etno	-7337
▁imul	-7338
▁otek	-7339
▁rbij	-7340
▁tinu	-7341
▁višk	-7342
▁arski	-7343
▁icije	-7344
▁iješi	-7345
▁logan	-7346
▁ovito	-7347
▁sasta	-7348
▁vjeta	-7349
ou	-7350
bac	-7351
lis	-7352
zer	-7353
▁As	-7354
▁HV	-7355
▁abi	-7356
▁diš	-7357
▁hig	-7358
▁luč	-7359
▁nko	-7360
▁oža	-7361
▁zul	-7362
▁PAOK	-7363
▁ajer	-7364
▁amur	-7365
▁dina	-7366
▁tici	-7367
▁zmij	-7368
▁emlje	-7369
▁nskih	-7370
▁poslj	-7371
▁rofes	-7372
hl	-7373
iv	-7374
ky	-7375
po	-7376
use	-7377
▁PP	-7378
▁zr	-7379
▁7-6	-7380
▁Kup	-7381
▁bek	-7382
▁dač	-7383
▁gog	-7384
▁isi	-7385
▁sci	-7386
▁vrd	-7387
▁zan	-7388
▁čiv	-7389
▁žin	-7390
▁Fort	-7391
▁azir	-7392
▁baze	-7393
▁džep	-7394
▁ikom	-7395
▁leck	-7396
▁ojen	-7397
▁poja	-7398
▁prug	-7399
▁riti	-7400
▁stig	-7401
▁toar	-7402
▁uman	-7403
▁vare	-7404
▁Fiore	-7405
▁brinu	-7406
▁dizel	-7407
▁kopan	-7408
DI	-7409
ph	-7410
viv	-7411
▁5'	-7412
▁UK	-7413
▁lk	-7414
▁eim	-7415
▁eur	-7416
▁iko	-7417
▁tpo	-7418
▁ubi	-7419
▁zet	-7420
▁ajav	-7421
▁artn	-7422
▁elek	-7423
▁iams	-7424
▁mode	-7425
▁rece	-7426
▁trip	-7427
▁ture	-7428
▁adovi	-7429
▁ališt	-7430
▁ancir	-7431
▁ikvid	-7432
▁ister	-7433
▁limit	-7434
▁trogo	-7435
▁vodnj	-7436
..	-7437
hit	-7438
kat	-7439
kic	-7440
yne	-7441
▁Si	-7442
▁dm	-7443
▁fu	-7444
▁kc	-7445
▁Ći	-7446
▁Sud	-7447
▁atj	-7448
▁evr	-7449
▁lev	-7450
▁muk	-7451
▁nož	-7452
▁sih	-7453
▁vni	-7454
▁šle	-7455
▁dira	-7456
▁ergi	-7457
▁inat	-7458
▁inul	-7459
▁lasa	-7460
▁motr	-7461
▁nagl	-7462
▁oboj	-7463
▁ouis	-7464
▁rizn	-7465
▁umij	-7466
▁yson	-7467
▁Urban	-7468
▁bonus	-7469
▁hiper	-7470
▁ijela	-7471
▁jogur	-7472
▁odsje	-7473
▁orila	-7474
▁oster	-7475
▁retor	-7476
▁rmaln	-7477
fi	-7478
ps	-7479
▁ES	-7480
▁JU	-7481
▁Ki	-7482
▁iđ	-7483
▁mm	-7484
▁sj	-7485
oker	-7486
▁...	-7487
▁Aff	-7488
▁Dep	-7489
▁Hal	-7490
▁air	-7491
▁epe	-7492
▁eče	-7493
▁jum	-7494
▁rba	-7495
▁uin	-7496
▁avis	-7497
▁dran	-7498
▁jazz	-7499
▁mrak	-7500
▁namj	-7501
▁pora	-7502
▁rent	-7503
▁unar	-7504
▁čanj	-7505
▁štap	-7506
▁ardin	-7507
▁ardio	-7508
▁inner	-7509
▁odina	-7510
▁oston	-7511
▁rskog	-7512
RE	-7513
NIK	-7514
čio	-7515
▁160	-7516
▁Dig	-7517
▁Ned	-7518
▁Peo	-7519
▁Rov	-7520
▁hob	-7521
▁rzo	-7522
▁vre	-7523
▁astr	-7524
▁avio	-7525
▁ažen	-7526
▁enez	-7527
▁epal	-7528
▁hton	-7529
▁obit	-7530
▁odij	-7531
▁orum	-7532
▁ovol	-7533
▁rice	-7534
▁rown	-7535
▁semb	-7536
▁uplj	-7537
▁viti	-7538
▁čajn	-7539
▁armen	-7540
▁ijele	-7541
▁ljeno	-7542
▁oduše	-7543
▁orski	-7544
▁umnji	-7545
▁višak	-7546
DP	-7547
enh	-7548
rol	-7549
tet	-7550
▁SE	-7551
▁ZA	-7552
▁Ša	-7553
▁60.	-7554
▁Ass	-7555
▁Grg	-7556
▁OVI	-7557
▁dit	-7558
▁ebo	-7559
▁nsp	-7560
▁uba	-7561
▁čju	-7562
▁žil	-7563
▁acij	-7564
▁adsk	-7565
▁afer	-7566
▁agar	-7567
▁arco	-7568
▁avil	-7569
▁bina	-7570
▁ekar	-7571
▁emam	-7572
▁heim	-7573
▁itis	-7574
▁njig	-7575
▁obre	-7576
▁ogod	-7577
▁onat	-7578
▁rilo	-7579
▁roup	-7580
▁tavi	-7581
▁thod	-7582
▁uzer	-7583
▁znoj	-7584
▁štar	-7585
▁ement	-7586
▁nevin	-7587
▁ručio	-7588
▁tepin	-7589
NL	-7590
▁53	-7591
▁57	-7592
▁CI	-7593
▁33.	-7594
▁Est	-7595
▁Pap	-7596
▁Reg	-7597
▁bre	-7598
▁cal	-7599
▁dea	-7600
▁ežn	-7601
▁grl	-7602
▁jax	-7603
▁kur	-7604
▁nab	-7605
▁uir	-7606
▁HZZO	-7607
▁Mary	-7608
▁Phil	-7609
▁duel	-7610
▁etlj	-7611
▁ikon	-7612
▁ilja	-7613
▁inal	-7614
▁jumf	-7615
▁neba	-7616
▁rađa	-7617
▁raže	-7618
▁ross	-7619
▁alist	-7620
▁banan	-7621
▁eljak	-7622
▁litij	-7623
▁lovan	-7624
▁okuša	-7625
▁ovnik	-7626
▁prili	-7627
án	-7628
vis	-7629
čiš	-7630
▁KK	-7631
▁đi	-7632
▁50.	-7633
▁Def	-7634
▁KUD	-7635
▁Mađ	-7636
▁Sen	-7637
▁Vaš	-7638
▁get	-7639
▁iar	-7640
▁mpi	-7641
▁osh	-7642
▁tiž	-7643
▁Šip	-7644
▁Bull	-7645
▁Elon	-7646
▁alik	-7647
▁amin	-7648
▁arab	-7649
▁dižu	-7650
▁gani	-7651
▁grač	-7652
▁jedu	-7653
▁obin	-7654
▁olij	-7655
▁orte	-7656
▁raza	-7657
▁stir	-7658
▁vojs	-7659
▁Memor	-7660
▁Serie	-7661
▁alter	-7662
▁dekor	-7663
▁dnosi	-7664
▁driat	-7665
▁ejrut	-7666
▁glasi	-7667
▁nečiš	-7668
▁nivou	-7669
▁njaka	-7670
▁ontaž	-7671
▁orica	-7672
▁revij	-7673
▁ruštv	-7674
▁vrdil	-7675
▁žitar	-7676
bl	-7677
ami	-7678
ilj	-7679
irm	-7680
▁AK	-7681
▁AN	-7682
▁OK	-7683
▁Dvo	-7684
▁Haa	-7685
▁Lad	-7686
▁Oba	-7687
▁doj	-7688
▁ias	-7689
▁iki	-7690
▁jik	-7691
▁kac	-7692
▁oke	-7693
▁oći	-7694
▁ukt	-7695
▁use	-7696
▁zgu	-7697
▁Edin	-7698
▁Hana	-7699
▁MORH	-7700
▁adut	-7701
▁ajma	-7702
▁atak	-7703
▁elik	-7704
▁lavo	-7705
▁nadi	-7706
▁nsku	-7707
▁olic	-7708
▁otte	-7709
▁poka	-7710
▁rema	-7711
▁rudž	-7712
▁ruge	-7713
▁timo	-7714
▁užit	-7715
▁štan	-7716
▁žnje	-7717
▁alija	-7718
▁amoli	-7719
▁drian	-7720
▁ionar	-7721
▁metab	-7722
▁motor	-7723
▁zbilj	-7724
EK	-7725
▁$	-7726
▁♬	-7727
nis	-7728
▁NL	-7729
▁Sm	-7730
▁Art	-7731
▁Bik	-7732
▁Fox	-7733
▁Top	-7734
▁ajs	-7735
▁ams	-7736
▁api	-7737
▁ašn	-7738
▁bos	-7739
▁jah	-7740
▁oiz	-7741
▁ugi	-7742
▁ull	-7743
▁unu	-7744
▁zik	-7745
▁Kost	-7746
▁asov	-7747
▁edov	-7748
▁ijac	-7749
▁izlo	-7750
▁mili	-7751
▁uruz	-7752
▁usin	-7753
▁zgub	-7754
▁Angel	-7755
▁adnja	-7756
▁adnji	-7757
▁antib	-7758
▁audic	-7759
▁endum	-7760
▁icion	-7761
▁kadar	-7762
▁našnj	-7763
▁onosi	-7764
▁stima	-7765
CI	-7766
GA	-7767
TC	-7768
hr	-7769
ye	-7770
▁•	-7771
gat	-7772
▁67	-7773
▁84	-7774
▁jt	-7775
▁1-1	-7776
▁1:0	-7777
▁HNB	-7778
▁Ovu	-7779
▁Pur	-7780
▁ntu	-7781
▁sne	-7782
▁uel	-7783
▁vot	-7784
▁Čim	-7785
▁abri	-7786
▁agla	-7787
▁arap	-7788
▁besk	-7789
▁duha	-7790
▁iman	-7791
▁indr	-7792
▁miče	-7793
▁mnog	-7794
▁nera	-7795
▁ojom	-7796
▁ovno	-7797
▁race	-7798
▁rija	-7799
▁tein	-7800
▁ženi	-7801
▁Melan	-7802
▁ablan	-7803
▁avija	-7804
▁ačeln	-7805
▁iječn	-7806
▁metak	-7807
▁podsj	-7808
dad	-7809
▁78	-7810
▁CD	-7811
▁Ce	-7812
▁ON	-7813
▁RB	-7814
▁ks	-7815
▁rđ	-7816
▁AfD	-7817
▁Cat	-7818
▁Div	-7819
▁Kal	-7820
▁Kum	-7821
▁Las	-7822
▁Rum	-7823
▁ašu	-7824
▁izn	-7825
▁mpo	-7826
▁orp	-7827
▁Kont	-7828
▁arir	-7829
▁armi	-7830
▁avar	-7831
▁avir	-7832
▁cott	-7833
▁liko	-7834
▁mimo	-7835
▁nosa	-7836
▁oden	-7837
▁ojav	-7838
▁tala	-7839
▁usko	-7840
▁Juraj	-7841
▁ambul	-7842
▁artel	-7843
▁autom	-7844
▁ačkoj	-7845
▁djelo	-7846
▁jskog	-7847
▁kontr	-7848
▁nogom	-7849
▁proda	-7850
▁rabar	-7851
lig	-7852
šir	-7853
▁SI	-7854
▁Či	-7855
▁2:0	-7856
▁3,5	-7857
▁Eto	-7858
▁For	-7859
▁SUV	-7860
▁Sil	-7861
▁Tin	-7862
▁Zim	-7863
▁atv	-7864
▁eth	-7865
▁rau	-7866
▁ria	-7867
▁sab	-7868
▁sip	-7869
▁siv	-7870
▁usi	-7871
▁zic	-7872
▁Anit	-7873
▁Mart	-7874
▁amij	-7875
▁dove	-7876
▁dvan	-7877
▁ekos	-7878
▁ezan	-7879
▁ispa	-7880
▁jast	-7881
▁krio	-7882
▁ksid	-7883
▁lank	-7884
▁mane	-7885
▁nena	-7886
▁obas	-7887
▁once	-7888
▁opre	-7889
▁ozit	-7890
▁rook	-7891
▁rovo	-7892
▁tjec	-7893
▁ucij	-7894
▁etnic	-7895
▁field	-7896
▁iznim	-7897
▁obili	-7898
▁oveza	-7899
▁ranim	-7900
▁ravan	-7901
▁roved	-7902
▁vileg	-7903
EA	-7904
OO	-7905
On	-7906
eg	-7907
gd	-7908
ug	-7909
bar	-7910
▁59	-7911
▁Ep	-7912
▁lf	-7913
▁yn	-7914
▁Fra	-7915
▁Int	-7916
▁Pen	-7917
▁dać	-7918
▁erl	-7919
▁ets	-7920
▁gum	-7921
▁kaj	-7922
▁pur	-7923
▁rda	-7924
▁tes	-7925
▁ubl	-7926
▁Čov	-7927
▁Jazz	-7928
▁PIXS	-7929
▁Paun	-7930
▁ateg	-7931
▁fisk	-7932
▁furt	-7933
▁homo	-7934
▁ihov	-7935
▁irom	-7936
▁jnim	-7937
▁odno	-7938
▁oleg	-7939
▁ombi	-7940
▁oral	-7941
▁rtic	-7942
▁ucak	-7943
▁vrać	-7944
▁Ursul	-7945
▁benef	-7946
▁dvora	-7947
▁idans	-7948
▁istup	-7949
▁jenog	-7950
▁ligon	-7951
▁najma	-7952
▁olova	-7953
▁supru	-7954
▁trpan	-7955
▁đenja	-7956
▁širin	-7957
GB	-7958
cht	-7959
dev	-7960
▁68	-7961
▁SN	-7962
inek	-7963
▁3-0	-7964
▁Air	-7965
▁Big	-7966
▁ELL	-7967
▁LED	-7968
▁Nas	-7969
▁Rog	-7970
▁Rom	-7971
▁Ser	-7972
▁dba	-7973
▁dic	-7974
▁ezu	-7975
▁ikv	-7976
▁jeh	-7977
▁niš	-7978
▁nus	-7979
▁oln	-7980
▁ožn	-7981
▁rši	-7982
▁ćeg	-7983
▁Jurj	-7984
▁arta	-7985
▁enit	-7986
▁ične	-7987
▁jedi	-7988
▁kadr	-7989
▁kosi	-7990
▁koži	-7991
▁lato	-7992
▁mame	-7993
▁nebu	-7994
▁rene	-7995
▁rvog	-7996
▁krimi	-7997
▁nolog	-7998
▁vodit	-7999
MF	-8000
RC	-8001
LJE	-8002
SCO	-8003
kas	-8004
▁FA	-8005
▁KM	-8006
▁TA	-8007
▁Hod	-8008
▁Kiš	-8009
▁Pak	-8010
▁fam	-8011
▁gov	-8012
▁itv	-8013
▁jnu	-8014
▁rku	-8015
▁uže	-8016
▁čem	-8017
▁ednj	-8018
▁elji	-8019
▁etik	-8020
▁ešta	-8021
▁ilno	-8022
▁inač	-8023
▁ings	-8024
▁ogis	-8025
▁omis	-8026
▁renu	-8027
▁ulin	-8028
▁umin	-8029
▁uter	-8030
▁vask	-8031
▁vrdi	-8032
▁zlij	-8033
▁arhij	-8034
▁engen	-8035
▁košar	-8036
FP	-8037
rus	-8038
▁()	-8039
▁(3	-8040
▁GO	-8041
▁aa	-8042
▁2:1	-8043
▁3-1	-8044
▁HGK	-8045
▁Vam	-8046
▁edl	-8047
▁gač	-8048
▁ies	-8049
▁los	-8050
▁upr	-8051
▁vog	-8052
▁Kova	-8053
▁anad	-8054
▁arad	-8055
▁back	-8056
▁erom	-8057
▁icij	-8058
▁kust	-8059
▁lini	-8060
▁nasl	-8061
▁razd	-8062
▁test	-8063
▁tkan	-8064
▁turu	-8065
▁uven	-8066
▁vile	-8067
▁vrše	-8068
▁čeni	-8069
▁amjer	-8070
▁arske	-8071
▁avlju	-8072
▁erija	-8073
▁kovan	-8074
▁odaju	-8075
▁onira	-8076
▁tukan	-8077
bin	-8078
▁82	-8079
▁KO	-8080
▁Sr	-8081
▁UR	-8082
bolj	-8083
▁34.	-8084
▁Ari	-8085
▁Hil	-8086
▁JVP	-8087
▁Mus	-8088
▁ais	-8089
▁box	-8090
▁his	-8091
▁kuj	-8092
▁onn	-8093
▁ozl	-8094
▁oši	-8095
▁rhu	-8096
▁utu	-8097
▁več	-8098
▁way	-8099
▁ćih	-8100
▁ški	-8101
▁VNIK	-8102
▁Wall	-8103
▁atel	-8104
▁gand	-8105
▁idar	-8106
▁korp	-8107
▁makn	-8108
▁pira	-8109
▁zora	-8110
▁Kurir	-8111
▁Marse	-8112
▁NESCO	-8113
▁Selah	-8114
▁aferi	-8115
▁antif	-8116
▁biser	-8117
▁dijet	-8118
▁dimak	-8119
▁jbolj	-8120
▁jenju	-8121
▁ordon	-8122
▁ostel	-8123
▁rivat	-8124
▁ukcij	-8125
▁vojio	-8126
.,	-8127
MI	-8128
NO	-8129
▁(4	-8130
▁83	-8131
▁Đu	-8132
▁Sky	-8133
▁aki	-8134
▁day	-8135
▁iet	-8136
▁ioč	-8137
▁ius	-8138
▁meg	-8139
▁nfo	-8140
▁rtu	-8141
▁ung	-8142
▁ydn	-8143
▁yon	-8144
▁zio	-8145
▁žid	-8146
▁ačak	-8147
▁ačan	-8148
▁egor	-8149
▁iddy	-8150
▁itat	-8151
▁jevi	-8152
▁kinu	-8153
▁kulp	-8154
▁ower	-8155
▁plja	-8156
▁sudi	-8157
▁ukav	-8158
▁Mađar	-8159
▁Sesar	-8160
▁estet	-8161
▁ginek	-8162
▁imfon	-8163
▁jetni	-8164
▁lizac	-8165
ker	-8166
tul	-8167
▁Ek	-8168
▁IS	-8169
▁NO	-8170
▁SH	-8171
▁350	-8172
▁Eko	-8173
▁MMA	-8174
▁Mic	-8175
▁Pam	-8176
▁Tra	-8177
▁Whi	-8178
▁cer	-8179
▁hin	-8180
▁ksa	-8181
▁mid	-8182
▁oen	-8183
▁otr	-8184
▁ous	-8185
▁ošć	-8186
▁smi	-8187
▁tle	-8188
▁Šef	-8189
▁Hran	-8190
▁dnos	-8191
▁elsk	-8192
▁etis	-8193
▁ilan	-8194
▁isab	-8195
▁ični	-8196
▁kiks	-8197
▁link	-8198
▁modr	-8199
▁ommy	-8200
▁rezi	-8201
▁spit	-8202
▁vođe	-8203
▁zori	-8204
▁enter	-8205
▁enver	-8206
▁ijedi	-8207
▁jedio	-8208
▁kcion	-8209
▁kombi	-8210
DH	-8211
NC	-8212
Od	-8213
uf	-8214
dar	-8215
fet	-8216
kea	-8217
rap	-8218
▁It	-8219
▁Nj	-8220
▁hy	-8221
▁Ču	-8222
nost	-8223
▁40.	-8224
▁Ema	-8225
▁Fen	-8226
▁Fru	-8227
▁Jam	-8228
▁Paz	-8229
▁Riv	-8230
▁Tad	-8231
▁Veg	-8232
▁Zub	-8233
▁aće	-8234
▁ađi	-8235
▁eog	-8236
▁jao	-8237
▁Fiat	-8238
▁ager	-8239
▁aker	-8240
▁akra	-8241
▁arak	-8242
▁ardo	-8243
▁daća	-8244
▁dona	-8245
▁drva	-8246
▁herc	-8247
▁idor	-8248
▁ijač	-8249
▁iron	-8250
▁ispr	-8251
▁kaci	-8252
▁kori	-8253
▁malt	-8254
▁masa	-8255
▁mine	-8256
▁množ	-8257
▁odiš	-8258
▁odna	-8259
▁tego	-8260
▁umen	-8261
▁zubi	-8262
▁žanr	-8263
▁After	-8264
▁Paris	-8265
▁ajini	-8266
▁antin	-8267
▁ilota	-8268
▁irovi	-8269
▁javio	-8270
▁lnost	-8271
▁raksu	-8272
▁vjeri	-8273
▁činit	-8274
NG	-8275
ZU	-8276
and	-8277
cmi	-8278
nie	-8279
rum	-8280
▁TI	-8281
▁Deb	-8282
▁Fat	-8283
▁Pon	-8284
▁bur	-8285
▁eas	-8286
▁ech	-8287
▁ekl	-8288
▁jaz	-8289
▁ney	-8290
▁ott	-8291
▁rko	-8292
▁sij	-8293
▁ukš	-8294
▁vok	-8295
▁Šir	-8296
▁Clip	-8297
▁adic	-8298
▁ahim	-8299
▁akin	-8300
▁ason	-8301
▁beka	-8302
▁bjas	-8303
▁diše	-8304
▁ider	-8305
▁inho	-8306
▁lači	-8307
▁obio	-8308
▁omog	-8309
▁rona	-8310
▁urin	-8311
▁zbun	-8312
▁Ander	-8313
▁Mikul	-8314
▁aganj	-8315
▁andez	-8316
▁arbit	-8317
▁benik	-8318
▁curil	-8319
▁davan	-8320
▁grači	-8321
▁kacig	-8322
▁mekan	-8323
▁nekle	-8324
▁oduze	-8325
▁onaco	-8326
▁opera	-8327
▁redno	-8328
▁vocmi	-8329
SKA	-8330
par	-8331
▁1/	-8332
▁99	-8333
▁EV	-8334
▁HE	-8335
▁LI	-8336
▁Zh	-8337
▁Sel	-8338
▁blj	-8339
▁ižn	-8340
▁odv	-8341
▁rde	-8342
▁rje	-8343
▁uča	-8344
▁Life	-8345
▁Luis	-8346
▁adra	-8347
▁almö	-8348
▁anto	-8349
▁dele	-8350
▁enne	-8351
▁guta	-8352
▁inga	-8353
▁jeku	-8354
▁kiva	-8355
▁lock	-8356
▁meda	-8357
▁meća	-8358
▁olut	-8359
▁ošao	-8360
▁rikv	-8361
▁rofe	-8362
▁ruka	-8363
▁turi	-8364
▁uzan	-8365
▁učno	-8366
▁ćine	-8367
▁argar	-8368
▁egova	-8369
▁gužva	-8370
▁ončar	-8371
▁rugim	-8372
EN	-8373
▁q	-8374
are	-8375
bas	-8376
sik	-8377
▁lv	-8378
▁vč	-8379
▁1,2	-8380
▁Edo	-8381
▁Jos	-8382
▁Kom	-8383
▁Rug	-8384
▁azr	-8385
▁jič	-8386
▁koh	-8387
▁sas	-8388
▁ugu	-8389
▁urz	-8390
▁Đal	-8391
▁Šar	-8392
▁žnj	-8393
▁Prij	-8394
▁afar	-8395
▁atch	-8396
▁coin	-8397
▁cure	-8398
▁edil	-8399
▁egov	-8400
▁iama	-8401
▁jduk	-8402
▁kore	-8403
▁likl	-8404
▁njiv	-8405
▁odra	-8406
▁olub	-8407
▁oron	-8408
▁oysi	-8409
▁pjev	-8410
▁sebn	-8411
▁uben	-8412
▁čila	-8413
▁Clipp	-8414
▁aferu	-8415
▁arima	-8416
▁avnih	-8417
▁avtat	-8418
▁bavlj	-8419
▁dnosn	-8420
▁ewart	-8421
▁igura	-8422
▁olfsb	-8423
▁uzman	-8424
▁šator	-8425
CE	-8426
yl	-8427
ppé	-8428
▁Ul	-8429
▁yp	-8430
▁140	-8431
▁Lik	-8432
▁Viš	-8433
▁dlo	-8434
▁mus	-8435
▁ntn	-8436
▁Đor	-8437
▁Žao	-8438
▁Mura	-8439
▁afij	-8440
▁alim	-8441
▁ašin	-8442
▁dite	-8443
▁eatr	-8444
▁ewis	-8445
▁gust	-8446
▁ilni	-8447
▁irek	-8448
▁ična	-8449
▁jaha	-8450
▁jske	-8451
▁miks	-8452
▁modu	-8453
▁obri	-8454
▁onud	-8455
▁ošlo	-8456
▁ramu	-8457
▁tali	-8458
▁trop	-8459
▁udit	-8460
▁ugog	-8461
▁Elvis	-8462
▁Union	-8463
▁White	-8464
▁Zubac	-8465
▁astor	-8466
▁bappé	-8467
▁enika	-8468
▁kcije	-8469
▁kisik	-8470
▁komič	-8471
▁lišta	-8472
▁ljivi	-8473
▁natje	-8474
AL	-8475
TI	-8476
GBT	-8477
war	-8478
▁Ap	-8479
▁lg	-8480
▁32.	-8481
▁35.	-8482
▁Fri	-8483
▁JNA	-8484
▁Lee	-8485
▁Pej	-8486
▁Pil	-8487
▁STE	-8488
▁Wol	-8489
▁caj	-8490
▁dec	-8491
▁lop	-8492
▁muz	-8493
▁pće	-8494
▁tlo	-8495
▁zac	-8496
▁čnu	-8497
▁šah	-8498
▁LGBT	-8499
▁Pete	-8500
▁Pile	-8501
▁Spli	-8502
▁Spor	-8503
▁adap	-8504
▁auro	-8505
▁avat	-8506
▁each	-8507
▁edam	-8508
▁enio	-8509
▁epre	-8510
▁etni	-8511
▁hrva	-8512
▁ibar	-8513
▁ilet	-8514
▁jeko	-8515
▁klim	-8516
▁koko	-8517
▁mart	-8518
▁orbe	-8519
▁očni	-8520
▁sfer	-8521
▁tovo	-8522
▁usic	-8523
▁vaka	-8524
▁čava	-8525
▁amand	-8526
▁aniji	-8527
▁ediji	-8528
▁ifika	-8529
▁insko	-8530
▁jesto	-8531
▁lavlj	-8532
▁limin	-8533
▁petor	-8534
EM	-8535
TU	-8536
des	-8537
▁71	-8538
▁77	-8539
▁87	-8540
▁92	-8541
▁BB	-8542
▁DZ	-8543
▁EB	-8544
▁VA	-8545
▁10,	-8546
▁Col	-8547
▁Dže	-8548
▁McC	-8549
▁Nat	-8550
▁Pep	-8551
▁Rob	-8552
▁UFC	-8553
▁Wel	-8554
▁bje	-8555
▁ebu	-8556
▁eđu	-8557
▁eši	-8558
▁gib	-8559
▁gnu	-8560
▁hew	-8561
▁nne	-8562
▁onk	-8563
▁ses	-8564
▁tag	-8565
▁tna	-8566
▁uja	-8567
▁ćem	-8568
▁čuv	-8569
▁Fruk	-8570
▁abur	-8571
▁alos	-8572
▁ampa	-8573
▁ačin	-8574
▁grla	-8575
▁irme	-8576
▁kana	-8577
▁odat	-8578
▁odel	-8579
▁tnih	-8580
▁uzij	-8581
▁adren	-8582
▁ačima	-8583
▁ađari	-8584
▁demen	-8585
▁ennsy	-8586
▁esten	-8587
▁evist	-8588
▁ihove	-8589
▁itivn	-8590
▁onaca	-8591
▁potra	-8592
▁rebal	-8593
▁rodni	-8594
▁tično	-8595
▁valit	-8596
:3	-8597
kač	-8598
▁81	-8599
▁Ac	-8600
▁HP	-8601
▁KB	-8602
▁OD	-8603
▁dw	-8604
▁DNK	-8605
▁Ive	-8606
▁Rol	-8607
▁Ver	-8608
▁deh	-8609
▁izz	-8610
▁jim	-8611
▁pio	-8612
▁rog	-8613
▁upp	-8614
▁šno	-8615
▁žup	-8616
▁Dram	-8617
▁HRVA	-8618
▁Mass	-8619
▁Rugv	-8620
▁aler	-8621
▁alez	-8622
▁alih	-8623
▁aliz	-8624
▁anal	-8625
▁ancu	-8626
▁apar	-8627
▁azak	-8628
▁iltr	-8629
▁ning	-8630
▁oljo	-8631
▁omme	-8632
▁ount	-8633
▁tyle	-8634
▁Melon	-8635
▁emlja	-8636
▁erkur	-8637
▁ijeku	-8638
▁konač	-8639
▁konce	-8640
▁ljima	-8641
▁lužbe	-8642
▁omfor	-8643
▁omisl	-8644
▁rakti	-8645
▁rapin	-8646
▁ritmu	-8647
▁tativ	-8648
ht	-8649
ett	-8650
mat	-8651
šal	-8652
▁HŽ	-8653
▁450	-8654
▁Der	-8655
▁Emo	-8656
▁Ger	-8657
▁PSV	-8658
▁Pao	-8659
▁Ral	-8660
▁Sov	-8661
▁haj	-8662
▁jeo	-8663
▁kač	-8664
▁kru	-8665
▁ndu	-8666
▁oon	-8667
▁uil	-8668
▁vec	-8669
▁zla	-8670
▁EURO	-8671
▁Lidl	-8672
▁Vrat	-8673
▁abav	-8674
▁asta	-8675
▁dovi	-8676
▁enil	-8677
▁nutk	-8678
▁Armen	-8679
▁Marie	-8680
▁adnje	-8681
▁amill	-8682
▁anade	-8683
▁devas	-8684
▁ender	-8685
▁eorgi	-8686
▁jedil	-8687
▁nator	-8688
▁potvr	-8689
▁rovin	-8690
▁skupi	-8691
-5	-8692
LO	-8693
žđ	-8694
▁­	-8695
lah	-8696
▁79	-8697
▁DO	-8698
▁IB	-8699
▁My	-8700
▁čl	-8701
▁75.	-8702
▁900	-8703
▁DNE	-8704
▁Emm	-8705
▁FBI	-8706
▁Has	-8707
▁NJE	-8708
▁POS	-8709
▁Zel	-8710
▁deš	-8711
▁kto	-8712
▁nta	-8713
▁čal	-8714
▁Bauk	-8715
▁akat	-8716
▁ball	-8717
▁beno	-8718
▁dent	-8719
▁dnom	-8720
▁dstr	-8721
▁ehni	-8722
▁ermo	-8723
▁ićen	-8724
▁konk	-8725
▁kupe	-8726
▁odaj	-8727
▁opat	-8728
▁orba	-8729
▁spek	-8730
▁teve	-8731
▁zrok	-8732
▁dežur	-8733
▁icija	-8734
▁ilter	-8735
▁istri	-8736
▁jenik	-8737
▁klime	-8738
▁korač	-8739
▁mazon	-8740
▁modul	-8741
▁ntrol	-8742
▁rakij	-8743
▁tanje	-8744
▁ulkan	-8745
▁Šutal	-8746
),	-8747
tt	-8748
ann	-8749
vir	-8750
čar	-8751
▁(8	-8752
▁69	-8753
▁88	-8754
▁OT	-8755
▁1,3	-8756
▁70.	-8757
▁Dol	-8758
▁Les	-8759
▁anz	-8760
▁con	-8761
▁lab	-8762
▁opp	-8763
▁spa	-8764
▁tio	-8765
▁zav	-8766
▁Nikš	-8767
▁Russ	-8768
▁Usik	-8769
▁acan	-8770
▁amac	-8771
▁arah	-8772
▁arki	-8773
▁aska	-8774
▁atas	-8775
▁buru	-8776
▁eler	-8777
▁elje	-8778
▁isku	-8779
▁isuć	-8780
▁ivad	-8781
▁lati	-8782
▁mrež	-8783
▁oger	-8784
▁olni	-8785
▁onez	-8786
▁otka	-8787
▁rojn	-8788
▁ugom	-8789
▁utte	-8790
▁Monik	-8791
▁Zekan	-8792
▁amask	-8793
▁avnog	-8794
▁dašnj	-8795
▁ierez	-8796
▁ormil	-8797
▁quare	-8798
▁rakoš	-8799
▁rampe	-8800
▁ropsk	-8801
▁vojil	-8802
KO	-8803
Ma	-8804
JET	-8805
hur	-8806
med	-8807
▁(5	-8808
▁91	-8809
▁DI	-8810
▁ye	-8811
▁Ča	-8812
▁11,	-8813
▁DZS	-8814
▁FNC	-8815
▁NSA	-8816
▁Rib	-8817
▁Tre	-8818
▁app	-8819
▁aži	-8820
▁izg	-8821
▁izl	-8822
▁ksp	-8823
▁mek	-8824
▁mpl	-8825
▁ody	-8826
▁omm	-8827
▁plo	-8828
▁tos	-8829
▁tuu	-8830
▁vne	-8831
▁ćud	-8832
▁šop	-8833
▁Ford	-8834
▁GPZO	-8835
▁Gost	-8836
▁Gran	-8837
▁Juan	-8838
▁Juri	-8839
▁ajak	-8840
▁alač	-8841
▁anil	-8842
▁bnov	-8843
▁brov	-8844
▁food	-8845
▁grab	-8846
▁iall	-8847
▁ispo	-8848
▁jala	-8849
▁ježi	-8850
▁krap	-8851
▁okuš	-8852
▁onia	-8853
▁opus	-8854
▁osla	-8855
▁sche	-8856
▁sura	-8857
▁tonj	-8858
▁ugla	-8859
▁vlas	-8860
▁Niger	-8861
▁degus	-8862
▁dekan	-8863
▁depon	-8864
▁enned	-8865
▁komar	-8866
▁lagod	-8867
▁ležer	-8868
▁onica	-8869
▁ooper	-8870
HO	-8871
laf	-8872
rea	-8873
til	-8874
žir	-8875
▁74	-8876
▁98	-8877
▁DS	-8878
▁JA	-8879
▁Of	-8880
▁PG	-8881
▁Xa	-8882
▁hn	-8883
▁vd	-8884
▁110	-8885
▁Duv	-8886
▁HUP	-8887
▁Hum	-8888
▁Kop	-8889
▁Moz	-8890
▁Vje	-8891
▁aun	-8892
▁bog	-8893
▁een	-8894
▁elf	-8895
▁ipr	-8896
▁kil	-8897
▁oše	-8898
▁umn	-8899
▁zvu	-8900
▁žur	-8901
▁Alin	-8902
▁Dean	-8903
▁Krle	-8904
▁abel	-8905
▁amil	-8906
▁dost	-8907
▁ećan	-8908
▁ganj	-8909
▁hard	-8910
▁iami	-8911
▁igar	-8912
▁kend	-8913
▁koro	-8914
▁lite	-8915
▁loat	-8916
▁mazd	-8917
▁nizi	-8918
▁nska	-8919
▁oriš	-8920
▁ozil	-8921
▁raču	-8922
▁rvak	-8923
▁treb	-8924
▁uchs	-8925
▁urzi	-8926
▁vežu	-8927
▁with	-8928
▁Milin	-8929
▁Mirna	-8930
▁arden	-8931
▁bosan	-8932
▁dward	-8933
▁innes	-8934
▁iorgi	-8935
▁itler	-8936
▁jetim	-8937
▁nasta	-8938
▁nskim	-8939
▁ojzij	-8940
▁olden	-8941
▁rezid	-8942
▁tereo	-8943
LU	-8944
RH	-8945
did	-8946
tis	-8947
▁IG	-8948
▁UA	-8949
▁ky	-8950
▁Bol	-8951
▁Det	-8952
▁Kos	-8953
▁Mak	-8954
▁Rab	-8955
▁Rev	-8956
▁afi	-8957
▁jio	-8958
▁oos	-8959
▁sor	-8960
▁you	-8961
▁Clar	-8962
▁Dori	-8963
▁FIFA	-8964
▁Krap	-8965
▁Pero	-8966
▁berg	-8967
▁duet	-8968
▁esar	-8969
▁goda	-8970
▁hopp	-8971
▁icul	-8972
▁itas	-8973
▁itch	-8974
▁jelj	-8975
▁juha	-8976
▁kopa	-8977
▁laci	-8978
▁lost	-8979
▁oraz	-8980
▁ovez	-8981
▁vamo	-8982
▁čuju	-8983
▁đeni	-8984
▁Mirel	-8985
▁anksi	-8986
▁auren	-8987
▁castl	-8988
▁eorij	-8989
▁higij	-8990
▁kemot	-8991
▁openh	-8992
▁prosj	-8993
▁tagon	-8994
▁under	-8995
by	-8996
ib	-8997
▁·	-8998
gol	-8999
kot	-9000
uer	-9001
▁BA	-9002
▁He	-9003
▁ax	-9004
▁1,6	-9005
▁55.	-9006
▁AFP	-9007
▁Afp	-9008
▁Ale	-9009
▁All	-9010
▁CMS	-9011
▁Con	-9012
▁Day	-9013
▁Dur	-9014
▁Gim	-9015
▁Mah	-9016
▁McG	-9017
▁Raj	-9018
▁Ref	-9019
▁SMS	-9020
▁azm	-9021
▁ege	-9022
▁gam	-9023
▁išk	-9024
▁knu	-9025
▁kub	-9026
▁kud	-9027
▁kuč	-9028
▁mju	-9029
▁now	-9030
▁och	-9031
▁snu	-9032
▁teč	-9033
▁HSLS	-9034
▁Mars	-9035
▁cvat	-9036
▁damu	-9037
▁edos	-9038
▁gube	-9039
▁hoću	-9040
▁ilat	-9041
▁jemu	-9042
▁lass	-9043
▁lila	-9044
▁ozga	-9045
▁poti	-9046
▁ratk	-9047
▁rnog	-9048
▁sija	-9049
▁stad	-9050
▁vate	-9051
▁vili	-9052
▁Joker	-9053
▁ajanj	-9054
▁einer	-9055
▁emalj	-9056
▁enger	-9057
▁goved	-9058
▁nskog	-9059
▁ođenj	-9060
▁promi	-9061
▁rudžb	-9062
▁vodik	-9063
yd	-9064
hat	-9065
int	-9066
laš	-9067
mad	-9068
rev	-9069
tar	-9070
šel	-9071
▁IM	-9072
▁iu	-9073
▁mk	-9074
▁270	-9075
▁74.	-9076
▁Ane	-9077
▁IDF	-9078
▁Jar	-9079
▁MVP	-9080
▁acy	-9081
▁ajt	-9082
▁azd	-9083
▁bat	-9084
▁ešn	-9085
▁eži	-9086
▁fed	-9087
▁ise	-9088
▁maž	-9089
▁nec	-9090
▁tlu	-9091
▁utl	-9092
▁Anel	-9093
▁Dubr	-9094
▁Istr	-9095
▁Olaf	-9096
▁Team	-9097
▁VLJE	-9098
▁Zbor	-9099
▁abin	-9100
▁aero	-9101
▁alis	-9102
▁amne	-9103
▁arce	-9104
▁asin	-9105
▁dila	-9106
▁disp	-9107
▁ehid	-9108
▁enny	-9109
▁fter	-9110
▁inea	-9111
▁lena	-9112
▁loom	-9113
▁magn	-9114
▁miri	-9115
▁mjuz	-9116
▁mond	-9117
▁oput	-9118
▁oret	-9119
▁ovlj	-9120
▁očeo	-9121
▁ripa	-9122
▁ršut	-9123
▁trpa	-9124
▁uber	-9125
▁usti	-9126
▁vibr	-9127
▁đuje	-9128
▁Cedev	-9129
▁Messi	-9130
▁anegd	-9131
▁anica	-9132
▁covid	-9133
▁eptir	-9134
▁etenc	-9135
▁ewand	-9136
▁gnjen	-9137
▁hulig	-9138
▁izved	-9139
▁loger	-9140
▁ojarn	-9141
▁olazi	-9142
▁rafin	-9143
▁rimin	-9144
▁socij	-9145
▁uljan	-9146
▁učeni	-9147
BS	-9148
CS	-9149
KS	-9150
LJ	-9151
rd	-9152
akr	-9153
dak	-9154
dem	-9155
dir	-9156
etr	-9157
▁",	-9158
▁(6	-9159
▁Cu	-9160
▁DU	-9161
▁Ed	-9162
▁HU	-9163
▁Jr	-9164
▁LO	-9165
▁NP	-9166
▁But	-9167
▁HND	-9168
▁NDH	-9169
▁Nes	-9170
▁Zem	-9171
▁abe	-9172
▁eam	-9173
▁ibr	-9174
▁kij	-9175
▁ktr	-9176
▁lir	-9177
▁mij	-9178
▁nke	-9179
▁oce	-9180
▁ocu	-9181
▁pah	-9182
▁rao	-9183
▁rbe	-9184
▁tne	-9185
▁Čil	-9186
▁abat	-9187
▁adno	-9188
▁ainz	-9189
▁alea	-9190
▁arac	-9191
▁arka	-9192
▁arma	-9193
▁baci	-9194
▁born	-9195
▁dsje	-9196
▁elju	-9197
▁iler	-9198
▁isca	-9199
▁itez	-9200
▁jaje	-9201
▁jenu	-9202
▁oice	-9203
▁orom	-9204
▁rekr	-9205
▁rive	-9206
▁ruce	-9207
▁sman	-9208
▁viol	-9209
▁zjav	-9210
▁čnom	-9211
▁asort	-9212
▁assan	-9213
▁cimet	-9214
▁ibonn	-9215
▁iedad	-9216
▁karik	-9217
▁orzan	-9218
Pa	-9219
ct	-9220
▁á	-9221
hie	-9222
urg	-9223
žab	-9224
▁86	-9225
▁AD	-9226
▁AM	-9227
▁iP	-9228
▁jc	-9229
▁13,	-9230
▁80.	-9231
▁AEK	-9232
▁Ank	-9233
▁Ava	-9234
▁DRA	-9235
▁Dis	-9236
▁Eli	-9237
▁Gan	-9238
▁McD	-9239
▁Mol	-9240
▁Sea	-9241
▁Tea	-9242
▁Zav	-9243
▁amj	-9244
▁anč	-9245
▁ary	-9246
▁dif	-9247
▁gig	-9248
▁juh	-9249
▁klj	-9250
▁kvu	-9251
▁ovc	-9252
▁ral	-9253
▁zai	-9254
▁ćev	-9255
▁HZMO	-9256
▁Love	-9257
▁MAXS	-9258
▁OCMA	-9259
▁alek	-9260
▁arte	-9261
▁auer	-9262
▁daha	-9263
▁golf	-9264
▁hats	-9265
▁ibal	-9266
▁ield	-9267
▁ijak	-9268
▁irij	-9269
▁nakv	-9270
▁nara	-9271
▁obir	-9272
▁okom	-9273
▁opud	-9274
▁over	-9275
▁ošli	-9276
▁ruje	-9277
▁taur	-9278
▁tost	-9279
▁ubit	-9280
▁veća	-9281
▁zdan	-9282
▁Nikic	-9283
▁adili	-9284
▁afirm	-9285
▁bourg	-9286
▁dilem	-9287
▁ijska	-9288
▁iolin	-9289
▁ionel	-9290
▁jedlo	-9291
▁kapel	-9292
▁lisic	-9293
▁markt	-9294
▁otter	-9295
▁regat	-9296
▁renes	-9297
▁rihva	-9298
▁trbuš	-9299
▁ublin	-9300
▁šansi	-9301
▁šešir	-9302
wa	-9303
BAV	-9304
ETA	-9305
OST	-9306
REB	-9307
con	-9308
gie	-9309
▁FS	-9310
▁Wo	-9311
▁cl	-9312
▁15,	-9313
▁170	-9314
▁3-2	-9315
▁58.	-9316
▁Alp	-9317
▁Diz	-9318
▁GNK	-9319
▁Lea	-9320
▁McL	-9321
▁Run	-9322
▁Ust	-9323
▁ase	-9324
▁bov	-9325
▁dac	-9326
▁efe	-9327
▁kak	-9328
▁kof	-9329
▁nao	-9330
▁nil	-9331
▁ojs	-9332
▁okl	-9333
▁pse	-9334
▁sek	-9335
▁shi	-9336
▁uge	-9337
▁vom	-9338
▁wal	-9339
▁zbo	-9340
▁šil	-9341
▁ŽIV	-9342
▁Meta	-9343
▁NASA	-9344
▁STEM	-9345
▁Wood	-9346
▁akak	-9347
▁ađen	-9348
▁card	-9349
▁estu	-9350
▁gumb	-9351
▁hram	-9352
▁jakn	-9353
▁klec	-9354
▁kora	-9355
▁ojal	-9356
▁oyal	-9357
▁rian	-9358
▁roiz	-9359
▁rupa	-9360
▁ruže	-9361
▁trat	-9362
▁šumu	-9363
▁AGREB	-9364
▁Ahmet	-9365
▁Krlež	-9366
▁Pavel	-9367
▁atura	-9368
▁erton	-9369
▁kulis	-9370
▁lijeđ	-9371
▁monet	-9372
▁ortun	-9373
▁oyota	-9374
▁podat	-9375
▁radnj	-9376
▁ualno	-9377
▁šamar	-9378
FL	-9379
IH	-9380
JZ	-9381
wn	-9382
zh	-9383
emi	-9384
vant	-9385
▁12,	-9386
▁1:1	-9387
▁2-2	-9388
▁46.	-9389
▁Abu	-9390
▁Cor	-9391
▁EPP	-9392
▁HAC	-9393
▁Hor	-9394
▁Ins	-9395
▁Kož	-9396
▁Pad	-9397
▁Pul	-9398
▁Web	-9399
▁dab	-9400
▁dil	-9401
▁duk	-9402
▁gad	-9403
▁kWh	-9404
▁lek	-9405
▁mok	-9406
▁taž	-9407
▁tiz	-9408
▁won	-9409
▁Ćal	-9410
▁Ćur	-9411
▁šip	-9412
▁Badr	-9413
▁Njem	-9414
▁Peru	-9415
▁Save	-9416
▁Sean	-9417
▁alax	-9418
▁anas	-9419
▁anir	-9420
▁arao	-9421
▁asna	-9422
▁deko	-9423
▁ence	-9424
▁esej	-9425
▁inkt	-9426
▁liju	-9427
▁ljim	-9428
▁metk	-9429
▁olis	-9430
▁omir	-9431
▁ouse	-9432
▁outf	-9433
▁ovid	-9434
▁pasn	-9435
▁rodo	-9436
▁sung	-9437
▁takn	-9438
▁ucci	-9439
▁ugsb	-9440
▁unif	-9441
▁zlon	-9442
▁četk	-9443
▁čevi	-9444
▁Hasan	-9445
▁Human	-9446
▁JUBAV	-9447
▁anadi	-9448
▁andal	-9449
▁etski	-9450
▁gorje	-9451
▁gužvi	-9452
▁hatsA	-9453
▁ijati	-9454
▁ivjel	-9455
▁kabel	-9456
▁legal	-9457
▁ospod	-9458
▁reket	-9459
▁riban	-9460
▁rotor	-9461
▁sreta	-9462
▁undid	-9463
▁veget	-9464
▁zbori	-9465
SI	-9466
yk	-9467
yn	-9468
▁<	-9469
lji	-9470
▁CA	-9471
▁Ea	-9472
▁SK	-9473
▁zj	-9474
▁šl	-9475
▁1,8	-9476
▁3:0	-9477
▁Nel	-9478
▁Puh	-9479
▁Rac	-9480
▁URL	-9481
▁beš	-9482
▁dvj	-9483
▁epr	-9484
▁grb	-9485
▁iff	-9486
▁jil	-9487
▁sim	-9488
▁urp	-9489
▁uđu	-9490
▁čav	-9491
▁đaj	-9492
▁Baka	-9493
▁Dion	-9494
▁Doug	-9495
▁Gren	-9496
▁Kauf	-9497
▁OCMC	-9498
▁atio	-9499
▁bnja	-9500
▁essi	-9501
▁evad	-9502
▁grud	-9503
▁ifik	-9504
▁inai	-9505
▁inuo	-9506
▁izgr	-9507
▁jelu	-9508
▁krad	-9509
▁lake	-9510
▁lend	-9511
▁mija	-9512
▁nata	-9513
▁obot	-9514
▁ogao	-9515
▁orti	-9516
▁orup	-9517
▁razl	-9518
▁talo	-9519
▁teni	-9520
▁ukom	-9521
▁žite	-9522
▁žute	-9523
▁Clark	-9524
▁Jonat	-9525
▁NSATU	-9526
▁avnim	-9527
▁emlji	-9528
▁hobij	-9529
▁jamči	-9530
▁limen	-9531
▁menad	-9532
▁orian	-9533
▁ornat	-9534
▁ranih	-9535
▁rthur	-9536
▁točar	-9537
▁vegan	-9538
▁zidin	-9539
DO	-9540
JI	-9541
ME	-9542
RU	-9543
VI	-9544
ea	-9545
ee	-9546
oc	-9547
▁{	-9548
kit	-9549
liv	-9550
rec	-9551
▁TE	-9552
▁Um	-9553
mach	-9554
▁20%	-9555
▁30,	-9556
▁BBB	-9557
▁ERS	-9558
▁LNG	-9559
▁Laz	-9560
▁Let	-9561
▁Neg	-9562
▁Orb	-9563
▁Pas	-9564
▁WRC	-9565
▁Zen	-9566
▁epu	-9567
▁non	-9568
▁pin	-9569
▁rše	-9570
▁sez	-9571
▁uns	-9572
▁win	-9573
▁zgl	-9574
▁Emma	-9575
▁Pere	-9576
▁Yoon	-9577
▁agun	-9578
▁avel	-9579
▁bach	-9580
▁dida	-9581
▁dnih	-9582
▁ehno	-9583
▁erum	-9584
▁ečat	-9585
▁ianz	-9586
▁itiv	-9587
▁jasl	-9588
▁klet	-9589
▁leti	-9590
▁mamu	-9591
▁midt	-9592
▁moga	-9593
▁odit	-9594
▁okoš	-9595
▁omas	-9596
▁orni	-9597
▁perc	-9598
▁pukn	-9599
▁ravd	-9600
▁razu	-9601
▁ritz	-9602
▁rnom	-9603
▁tapp	-9604
▁udir	-9605
▁ward	-9606
▁ylan	-9607
▁anath	-9608
▁ekret	-9609
▁iskan	-9610
▁	-9611
a	-9612
i	-9613
o	-9614
e	-9615
n	-9616
r	-9617
j	-9618
t	-9619
u	-9620
s	-9621
k	-9622
l	-9623
d	-9624
v	-9625
m	-9626
p	-9627
z	-9628
g	-9629
c	-9630
b	-9631
,	-9632
.	-9633
š	-9634
č	-9635
ć	-9636
h	-9637
ž	-9638
;	-9639
&	-9640
P	-9641
S	-9642
"	-9643
f	-9644
N	-9645
0	-9646
M	-9647
-	-9648
D	-9649
2	-9650
1	-9651
B	-9652
O	-9653
A	-9654
T	-9655
đ	-9656
K	-9657
I	-9658
H	-9659
U	-9660
R	-9661
V	-9662
Z	-9663
:	-9664
L	-9665
E	-9666
G	-9667
J	-9668
3	-9669
C	-9670
5	-9671
'	-9672
4	-9673
)	-9674
(	-9675
F	-9676
9	-9677
y	-9678
6	-9679
7	-9680
8	-9681
Š	-9682
?	-9683
w	-9684
!	-9685
/	-9686
W	-9687
Č	-9688
Ž	-9689
x	-9690
%	-9691
=	-9692
[	-9693
>	-9694
]	-9695
Y	-9696
Đ	-9697
X	-9698
+	-9699
\	-9700
q	-9701
Ć	-9702
#	-9703
°	-9704
Q	-9705
ü	-9706
é	-9707
*	-9708
̌	-9709
@	-9710
_	-9711
€	-9712
ö	-9713
́	-9714
á	-9715
í	-9716
ó	-9717
′	-9718
$	-9719
♬	-9720
•	-9721
ä	-9722
Ö	-9723
­	-9724
ç	-9725
<	-9726
·	-9727
è	-9728
{	-9729
}	-9730
️	-9731
ë	-9732
ñ	-9733
â	-9734
ł	-9735
ø	-9736
ã	-9737
å	-9738
⁄	-9739
à	-9740
É	-9741
®	-9742
е	-9743
×	-9744
ú	-9745
►	-9746
ô	-9747
ğ	-9748
̋	-9749
●	-9750
ï	-9751
ð	-9752
ò	-9753
ş	-9754
🟨	-9755
ê	-9756
Á	-9757
Ç	-9758
ß	-9759
î	-9760
ı	-9761
⚤	-9762
🔥	-9763
ì	-9764
ř	-9765
☘	-9766
	-9767
🎁	-9768
😂	-9769
©	-9770
ė	-9771
Ś	-9772
ρ	-9773
✔	-9774
❤	-9775
🇷	-9776
🇸	-9777
`	-9778
ą	-9779
ě	-9780
μ	-9781
ο	-9782
ς	-9783
⁠	-9784
📌	-9785
Å	-9786
Ó	-9787
ń	-9788
ő	-9789
ț	-9790
̈	-9791
о	-9792
ṣ	-9793
‒	-9794
♥	-9795
⚠	-9796
⚽	-9797
	-9798
🇺	-9799
👀	-9800
^	-9801
§	-9802
Í	-9803
Ð	-9804
Ú	-9805
Ü	-9806
ý	-9807
ā	-9808
ę	-9809
ȗ	-9810
̧	-9811
ή	-9812
а	-9813
ј	-9814
‍	-9815
‐	-9816
―	-9817
‖	-9818
✓	-9819
🇭	-9820
🌸	-9821
💙	-9822
	-9823
¡	-9824
±	-9825
Ä	-9826
Ø	-9827
ù	-9828
û	-9829
ă	-9830
ĉ	-9831
ē	-9832
ś	-9833
Ş	-9834
ū	-9835
ż	-9836
ȉ	-9837
ș	-9838
̊	-9839
έ	-9840
α	-9841
π	-9842
τ	-9843
ό	-9844
н	-9845
ི	-9846
ྀ	-9847
ἀ	-9848
‟	-9849
∶	-9850
▶	-9851
♡	-9852
♦	-9853
シ	-9854
🇱	-9855
🏻	-9856
💕	-9857
🔄	-9858
🕷	-9859
🕸	-9860
😅	-9861
😍	-9862
😎	-9863
🙏	-9864
🟡	-9865
🤩	-9866
🤯	-9867
🥚	-9868
🦟	-9869
£	-9870
¤	-9871
¿	-9872
À	-9873
È	-9874
Î	-9875
Ò	-9876
Ô	-9877
õ	-9878
Ď	-9879
İ	-9880
ľ	-9881
Ł	-9882
ň	-9883
ō	-9884
ţ	-9885
ů	-9886
ź	-9887
Ƙ	-9888
ȃ	-9889
ȑ	-9890
ə	-9891
ʟ	-9892
̣	-9893
Ω	-9894
γ	-9895
δ	-9896
υ	-9897
χ	-9898
ω	-9899
К	-9900
л	-9901
ь	-9902
і	-9903
Ґ	-9904
ӣ	-9905
ӧ	-9906
ṓ	-9907
ọ	-9908
ố	-9909
‰	-9910
↑	-9911
⇒	-9912
−	-9913
⏱	-9914
■	-9915
▪	-9916
○	-9917
☀	-9918
☃	-9919
☑	-9920
☺	-9921
♀	-9922
⚫	-9923
✠	-9924
✨	-9925
❄	-9926
传	-9927
多	-9928
陈	-9929
🇦	-9930
🇧	-9931
🇫	-9932
🇬	-9933
🇮	-9934
🇵	-9935
🇾	-9936
🌋	-9937
🌐	-9938
🌠	-9939
🌧	-9940
🌨	-9941
🌺	-9942
🌻	-9943
🍉	-9944
🍊	-9945
🎀	-9946
🎗	-9947
🏡	-9948
🐄	-9949
🐥	-9950
🐦	-9951
🐱	-9952
🐶	-9953
👁	-9954
👇	-9955
👣	-9956
👶	-9957
💅	-9958
💋	-9959
💎	-9960
💘	-9961
💚	-9962
💟	-9963
💪	-9964
💯	-9965
📢	-9966
📱	-9967
📸	-9968
🔹	-9969
🕓	-9970
🖥	-9971
😀	-9972
😁	-9973
😉	-9974
😊	-9975
😏	-9976
😬	-9977
😭	-9978
🙂	-9979
🙌	-9980
🛁	-9981
🤍	-9982
🤔	-9983
🤢	-9984
🤦	-9985
🤪	-9986
🥥	-9987
🥰	-9988
🥲	-9989
🥹	-9990
🥺	-9991
🩹	-9992
🩺	-9993
🪐	-9994
🫒	-9995
🫠	-9996
