{
  "version": "1.0",
  "truncation": null,
  "padding": null,
  "added_tokens": [
    {
      "id": 0,
      "content": "[UNK]",
      "single_word": false,
      "lstrip": false,
      "rstrip": false,
      "normalized": false,
      "special": true
    },
    {
      "id": 1,
      "content": "[CLS]",
      "single_word": false,
      "lstrip": false,
      "rstrip": false,
      "normalized": false,
      "special": true
    },
    {
      "id": 2,
      "content": "[SEP]",
      "single_word": false,
      "lstrip": false,
      "rstrip": false,
      "normalized": false,
      "special": true
    },
    {
      "id": 3,
      "content": "[PAD]",
      "single_word": false,
      "lstrip": false,
      "rstrip": false,
      "normalized": false,
      "special": true
    },
    {
      "id": 4,
      "content": "[MASK]",
      "single_word": false,
      "lstrip": false,
      "rstrip": false,
      "normalized": false,
      "special": true
    }
  ],
  "normalizer": {
    "type": "Sequence",
    "normalizers": [
      {
        "type": "NFKC"
      },
      {
        "type": "Lowercase"
      }
    ]
  },
  "pre_tokenizer": {
    "type": "Whitespace"
  },
  "post_processor": null,
  "decoder": {
    "type": "WordPiece",
    "prefix": "##",
    "cleanup": true
  },
  "model": {
    "type": "WordPiece",
    "unk_token": "[UNK]",
    "continuing_subword_prefix": "##",
    "max_input_chars_per_word": 100,
    "vocab": {
      "[UNK]": 0,
      "[CLS]": 1,
      "[SEP]": 2,
      "[PAD]": 3,
      "[MASK]": 4,
      "!": 5,
      "\"": 6,
      "#": 7,
      "$": 8,
      "%": 9,
      "&": 10,
      "'": 11,
      "(": 12,
      ")": 13,
      "*": 14,
      "+": 15,
      ",": 16,
      "-": 17,
      ".": 18,
      "/": 19,
      "0": 20,
      "1": 21,
      "2": 22,
      "3": 23,
      "4": 24,
      "5": 25,
      "6": 26,
      "7": 27,
      "8": 28,
      "9": 29,
      ":": 30,
      ";": 31,
      "<": 32,
      "=": 33,
      ">": 34,
      "?": 35,
      "@": 36,
      "[": 37,
      "\\": 38,
      "]": 39,
      "^": 40,
      "_": 41,
      "`": 42,
      "a": 43,
      "b": 44,
      "c": 45,
      "d": 46,
      "e": 47,
      "f": 48,
      "g": 49,
      "h": 50,
      "i": 51,
      "j": 52,
      "k": 53,
      "l": 54,
      "m": 55,
      "n": 56,
      "o": 57,
      "p": 58,
      "q": 59,
      "r": 60,
      "s": 61,
      "t": 62,
      "u": 63,
      "v": 64,
      "w": 65,
      "x": 66,
      "y": 67,
      "z": 68,
      "{": 69,
      "}": 70,
      "": 71,
      "¡": 72,
      "£": 73,
      "¤": 74,
      "§": 75,
      "©": 76,
      "­": 77,
      "®": 78,
      "°": 79,
      "±": 80,
      "·": 81,
      "¿": 82,
      "×": 83,
      "ß": 84,
      "à": 85,
      "á": 86,
      "â": 87,
      "ã": 88,
      "ä": 89,
      "å": 90,
      "ç": 91,
      "è": 92,
      "é": 93,
      "ê": 94,
      "ë": 95,
      "ì": 96,
      "í": 97,
      "î": 98,
      "ï": 99,
      "ð": 100,
      "ñ": 101,
      "ò": 102,
      "ó": 103,
      "ô": 104,
      "õ": 105,
      "ö": 106,
      "ø": 107,
      "ù": 108,
      "ú": 109,
      "û": 110,
      "ü": 111,
      "ý": 112,
      "ā": 113,
      "ă": 114,
      "ą": 115,
      "ć": 116,
      "ĉ": 117,
      "č": 118,
      "ď": 119,
      "đ": 120,
      "ē": 121,
      "ė": 122,
      "ę": 123,
      "ě": 124,
      "ğ": 125,
      "ı": 126,
      "ľ": 127,
      "ł": 128,
      "ń": 129,
      "ň": 130,
      "ō": 131,
      "ő": 132,
      "ř": 133,
      "ś": 134,
      "ş": 135,
      "š": 136,
      "ţ": 137,
      "ū": 138,
      "ů": 139,
      "ź": 140,
      "ż": 141,
      "ž": 142,
      "ƙ": 143,
      "ȃ": 144,
      "ȉ": 145,
      "ȑ": 146,
      "ȗ": 147,
      "ș": 148,
      "ț": 149,
      "ə": 150,
      "ʟ": 151,
      "̇": 152,
      "̈": 153,
      "̊": 154,
      "̋": 155,
      "̌": 156,
      "̧": 157,
      "έ": 158,
      "ή": 159,
      "α": 160,
      "γ": 161,
      "δ": 162,
      "μ": 163,
      "ο": 164,
      "π": 165,
      "ρ": 166,
      "ς": 167,
      "τ": 168,
      "υ": 169,
      "χ": 170,
      "ω": 171,
      "ό": 172,
      "а": 173,
      "е": 174,
      "к": 175,
      "л": 176,
      "н": 177,
      "о": 178,
      "ь": 179,
      "і": 180,
      "ј": 181,
      "ґ": 182,
      "ӣ": 183,
      "ӧ": 184,
      "ི": 185,
      "ྀ": 186,
      "ṓ": 187,
      "ṣ": 188,
      "ọ": 189,
      "ố": 190,
      "ἀ": 191,
      "‍": 192,
      "‎": 193,
      "‐": 194,
      "‒": 195,
      "―": 196,
      "‖": 197,
      "‟": 198,
      "•": 199,
      "‰": 200,
      "′": 201,
      "⁄": 202,
      "⁠": 203,
      "€": 204,
      "↑": 205,
      "⇒": 206,
      "−": 207,
      "∶": 208,
      "⏱": 209,
      "■": 210,
      "▪": 211,
      "▶": 212,
      "►": 213,
      "○": 214,
      "●": 215,
      "☀": 216,
      "☃": 217,
      "☑": 218,
      "☘": 219,
      "☺": 220,
      "♀": 221,
      "♡": 222,
      "♥": 223,
      "♦": 224,
      "♬": 225,
      "⚠": 226,
      "⚤": 227,
      "⚫": 228,
      "⚽": 229,
      "✓": 230,
      "✔": 231,
      "✠": 232,
      "✨": 233,
      "❄": 234,
      "❤": 235,
      "シ": 236,
      "传": 237,
      "多": 238,
      "陈": 239,
      "": 240,
      "": 241,
      "️": 242,
      "🇦": 243,
      "🇧": 244,
      "🇫": 245,
      "🇬": 246,
      "🇭": 247,
      "🇮": 248,
      "🇱": 249,
      "🇵": 250,
      "🇷": 251,
      "🇸": 252,
      "🇺": 253,
      "🇾": 254,
      "🌋": 255,
      "🌐": 256,
      "🌠": 257,
      "🌧": 258,
      "🌨": 259,
      "🌸": 260,
      "🌺": 261,
      "🌻": 262,
      "🍉": 263,
      "🍊": 264,
      "🎀": 265,
      "🎁": 266,
      "🎗": 267,
      "🏡": 268,
      "🏻": 269,
      "🐄": 270,
      "🐥": 271,
      "🐦": 272,
      "🐱": 273,
      "🐶": 274,
      "👀": 275,
      "👁": 276,
      "👇": 277,
      "👣": 278,
      "👶": 279,
      "💅": 280,
      "💋": 281,
      "💎": 282,
      "💕": 283,
      "💘": 284,
      "💙": 285,
      "💚": 286,
      "💟": 287,
      "💪": 288,
      "💯": 289,
      "📌": 290,
      "📢": 291,
      "📱": 292,
      "📸": 293,
      "🔄": 294,
      "🔥": 295,
      "🔹": 296,
      "🕓": 297,
      "🕷": 298,
      "🕸": 299,
      "🖥": 300,
      "😀": 301,
      "😁": 302,
      "😂": 303,
      "😅": 304,
      "😉": 305,
      "😊": 306,
      "😍": 307,
      "😎": 308,
      "😏": 309,
      "😬": 310,
      "😭": 311,
      "🙂": 312,
      "🙌": 313,
      "🙏": 314,
      "🛁": 315,
      "🟡": 316,
      "🟨": 317,
      "🤍": 318,
      "🤔": 319,
      "🤢": 320,
      "🤦": 321,
      "🤩": 322,
      "🤪": 323,
      "🤯": 324,
      "🥚": 325,
      "🥥": 326,
      "🥰": 327,
      "🥲": 328,
      "🥹": 329,
      "🥺": 330,
      "🦟": 331,
      "🩹": 332,
      "🩺": 333,
      "🪐": 334,
      "🫒": 335,
      "🫠": 336,
      "🫶": 337,
      "##n": 338,
      "##i": 339,
      "##t": 340,
      "##u": 341,
      "##a": 342,
      "##c": 343,
      "##r": 344,
      "##e": 345,
      "##s": 346,
      "##d": 347,
      "##g": 348,
      "##l": 349,
      "##j": 350,
      "##š": 351,
      "##o": 352,
      "##w": 353,
      "##v": 354,
      "##m": 355,
      "##k": 356,
      "##b": 357,
      "##č": 358,
      "##z": 359,
      "##p": 360,
      "##_": 361,
      "##2": 362,
      "##7": 363,
      "##1": 364,
      "##9": 365,
      "##5": 366,
      "##4": 367,
      "##6": 368,
      "##0": 369,
      "##ć": 370,
      "##h": 371,
      "##3": 372,
      "##ž": 373,
      "##f": 374,
      "##8": 375,
      "##y": 376,
      "##á": 377,
      "##q": 378,
      "##,": 379,
      "##đ": 380,
      "##ç": 381,
      "##+": 382,
      "##ü": 383,
      "##x": 384,
      "##!": 385,
      "##é": 386,
      "##ó": 387,
      "##.": 388,
      "##\"": 389,
      "##?": 390,
      "##-": 391,
      "##)": 392,
      "##'": 393,
      "##ò": 394,
      "##í": 395,
      "##â": 396,
      "##ż": 397,
      "##ã": 398,
      "##ú": 399,
      "##ê": 400,
      "##ö": 401,
      "##ğ": 402,
      "##ä": 403,
      "##🕷": 404,
      "##ė": 405,
      "##ð": 406,
      "##ì": 407,
      "##🤩": 408,
      "##î": 409,
      "##}": 410,
      "##­": 411,
      "##ů": 412,
      "##ј": 413,
      "##è": 414,
      "##:": 415,
      "##ł": 416,
      "##[": 417,
      "##à": 418,
      "##😂": 419,
      "###": 420,
      "##*": 421,
      "##ӧ": 422,
      "##>": 423,
      "##ū": 424,
      "##ø": 425,
      "##ř": 426,
      "##ń": 427,
      "##/": 428,
      "##💪": 429,
      "##&": 430,
      "##$": 431,
      "##ő": 432,
      "##ş": 433,
      "##ň": 434,
      "##е": 435,
      "##\\": 436,
      "##ę": 437,
      "##å": 438,
      "##;": 439,
      "##🏻": 440,
      "##👣": 441,
      "##ρ": 442,
      "##ω": 443,
      "##τ": 444,
      "##ό": 445,
      "##υ": 446,
      "##π": 447,
      "##ο": 448,
      "##ς": 449,
      "##]": 450,
      "##@": 451,
      "##🔄": 452,
      "##ï": 453,
      "##ñ": 454,
      "##ș": 455,
      "##ô": 456,
      "##": 457,
      "##ț": 458,
      "##ß": 459,
      "##ི": 460,
      "##ྀ": 461,
      "##🇷": 462,
      "##ţ": 463,
      "##🛁": 464,
      "##%": 465,
      "##¿": 466,
      "##¡": 467,
      "##️": 468,
      "##🫠": 469,
      "##′": 470,
      "##{": 471,
      "##ē": 472,
      "##ë": 473,
      "##❤": 474,
      "##ȉ": 475,
      "##ě": 476,
      "##ľ": 477,
      "##ś": 478,
      "##õ": 479,
      "##ù": 480,
      "##⚫": 481,
      "##ṓ": 482,
      "##🥹": 483,
      "##🙏": 484,
      "##ȗ": 485,
      "##ý": 486,
      "##ə": 487,
      "##🇸": 488,
      "##ṣ": 489,
      "##̌": 490,
      "##•": 491,
      "##🔥": 492,
      "##ố": 493,
      "##(": 494,
      "##ь": 495,
      "##ă": 496,
      "##л": 497,
      "##н": 498,
      "##`": 499,
      "##û": 500,
      "##μ": 501,
      "##🇾": 502,
      "##ı": 503,
      "##γ": 504,
      "##̇": 505,
      "##ą": 506,
      "##ȑ": 507,
      "##о": 508,
      "##і": 509,
      "##а": 510,
      "##έ": 511,
      "##χ": 512,
      "##ź": 513,
      "##⁠": 514,
      "##‍": 515,
      "##🤯": 516,
      "##<": 517,
      "##ā": 518,
      "##🇧": 519,
      "##🇺": 520,
      "##🇦": 521,
      "##🇵": 522,
      "##🇱": 523,
      "##🇮": 524,
      "##🍊": 525,
      "##🌻": 526,
      "##↑": 527,
      "##ō": 528,
      "##⚠": 529,
      "##ȃ": 530,
      "##传": 531,
      "##多": 532,
      "##ĉ": 533,
      "##🥚": 534,
      "##ӣ": 535,
      "##ọ": 536,
      "##¤": 537,
      "##💙": 538,
      "##😏": 539,
      "##ή": 540,
      "##😁": 541,
      "##シ": 542,
      "##ď": 543,
      "##🤢": 544,
      "##✨": 545,
      "##je": 546,
      "##ra": 547,
      "##ti": 548,
      "##ni": 549,
      "je": 550,
      "na": 551,
      "##li": 552,
      "##ro": 553,
      "##no": 554,
      "po": 555,
      "##la": 556,
      "##re": 557,
      "##ko": 558,
      "##ri": 559,
      "##na": 560,
      "##va": 561,
      "##ta": 562,
      "##ja": 563,
      "##ma": 564,
      "##te": 565,
      "##vi": 566,
      "##vo": 567,
      "za": 568,
      "ko": 569,
      "##di": 570,
      "##to": 571,
      "##ji": 572,
      "##ka": 573,
      "##ju": 574,
      "##ne": 575,
      "##da": 576,
      "da": 577,
      "##ci": 578,
      "se": 579,
      "##ca": 580,
      "##lo": 581,
      "##ve": 582,
      "do": 583,
      "su": 584,
      "ka": 585,
      "ne": 586,
      "##st": 587,
      "od": 588,
      "##mo": 589,
      "##le": 590,
      "bi": 591,
      "iz": 592,
      "##ru": 593,
      "##ije": 594,
      "pro": 595,
      "##ki": 596,
      "##nu": 597,
      "sa": 598,
      "##me": 599,
      "##sta": 600,
      "##go": 601,
      "ra": 602,
      "##nje": 603,
      "##ke": 604,
      "##ku": 605,
      "pre": 606,
      "pri": 607,
      "##sti": 608,
      "mo": 609,
      "##ron": 610,
      "##caron": 611,
      "##ga": 612,
      "to": 613,
      "##de": 614,
      "go": 615,
      "##zi": 616,
      "##nja": 617,
      "##lu": 618,
      "##lje": 619,
      "##bi": 620,
      "##po": 621,
      "##mi": 622,
      "re": 623,
      "##pa": 624,
      "##tu": 625,
      "ma": 626,
      "te": 627,
      "##cu": 628,
      "##ba": 629,
      "##bo": 630,
      "mi": 631,
      "##či": 632,
      "no": 633,
      "##si": 634,
      "##sko": 635,
      "##ce": 636,
      "##če": 637,
      "##za": 638,
      "pa": 639,
      "##sa": 640,
      "koji": 641,
      "##ski": 642,
      "ve": 643,
      "ccaron": 644,
      "##ći": 645,
      "##še": 646,
      "vi": 647,
      "ta": 648,
      "ca": 649,
      "##lja": 650,
      "##du": 651,
      "##sto": 652,
      "##do": 653,
      "##ča": 654,
      "ni": 655,
      "##pi": 656,
      "##gu": 657,
      "će": 658,
      "##že": 659,
      "##gra": 660,
      "##će": 661,
      "godi": 662,
      "##se": 663,
      "##cute": 664,
      "cacute": 665,
      "što": 666,
      "me": 667,
      "##nom": 668,
      "##ća": 669,
      "##rva": 670,
      "bo": 671,
      "st": 672,
      "ob": 673,
      "##nog": 674,
      "##nih": 675,
      "ja": 676,
      "va": 677,
      "##ša": 678,
      "os": 679,
      "##vje": 680,
      "##ža": 681,
      "pu": 682,
      "##lji": 683,
      "##nim": 684,
      "ima": 685,
      "li": 686,
      "##ži": 687,
      "vo": 688,
      "tre": 689,
      "##ske": 690,
      "kako": 691,
      "##pu": 692,
      "##vr": 693,
      "zcaron": 694,
      "in": 695,
      "##cija": 696,
      "##ši": 697,
      "hrva": 698,
      "##jed": 699,
      "##pe": 700,
      "##lj": 701,
      "svo": 702,
      "##be": 703,
      "##su": 704,
      "di": 705,
      "##ge": 706,
      "##vu": 707,
      "hrvat": 708,
      "naj": 709,
      "sta": 710,
      "dru": 711,
      "nje": 712,
      "sve": 713,
      "##nju": 714,
      "##gi": 715,
      "si": 716,
      "##zo": 717,
      "ali": 718,
      "##ze": 719,
      "##đe": 720,
      "nije": 721,
      "ba": 722,
      "koje": 723,
      "##nji": 724,
      "pred": 725,
      "##vije": 726,
      "eu": 727,
      "raz": 728,
      "##lju": 729,
      "gra": 730,
      "##rije": 731,
      "=>": 732,
      "##dje": 733,
      "de": 734,
      "##kom": 735,
      "kao": 736,
      "jo": 737,
      "##mje": 738,
      "##cije": 739,
      "##kon": 740,
      "pr": 741,
      "20": 742,
      "##ho": 743,
      "ku": 744,
      "##ska": 745,
      "pos": 746,
      "##vno": 747,
      "##jo": 748,
      "be": 749,
      "pe": 750,
      "\",": 751,
      "##ran": 752,
      "##mu": 753,
      "##tak": 754,
      "is": 755,
      "pod": 756,
      "če": 757,
      "##nik": 758,
      "jed": 759,
      "##nika": 760,
      "nakon": 761,
      "sam": 762,
      "ti": 763,
      "##stu": 764,
      "##pre": 765,
      "pi": 766,
      "##pra": 767,
      "pot": 768,
      "pra": 769,
      "du": 770,
      "##nije": 771,
      "zna": 772,
      "mje": 773,
      "##nici": 774,
      "tu": 775,
      "godine": 776,
      "ru": 777,
      "ga": 778,
      "##so": 779,
      "##zu": 780,
      "##rža": 781,
      "##zna": 782,
      "smo": 783,
      "dje": 784,
      "##nt": 785,
      "mu": 786,
      "lju": 787,
      "dana": 788,
      "fi": 789,
      "ot": 790,
      "##bu": 791,
      "pla": 792,
      "biti": 793,
      "##vić": 794,
      "ili": 795,
      "koja": 796,
      "ovo": 797,
      "samo": 798,
      "tako": 799,
      "##đa": 800,
      "##skog": 801,
      "##đu": 802,
      "##rati": 803,
      "gla": 804,
      "više": 805,
      "##rt": 806,
      "##nta": 807,
      "ro": 808,
      "##govo": 809,
      "uz": 810,
      "us": 811,
      "##nosti": 812,
      "##dio": 813,
      "##stav": 814,
      "##liko": 815,
      "##\",": 816,
      "bu": 817,
      "bio": 818,
      "tra": 819,
      "svi": 820,
      "##tiv": 821,
      "lo": 822,
      "nji": 823,
      "kra": 824,
      "prije": 825,
      "poli": 826,
      "\":": 827,
      "igra": 828,
      "##kao": 829,
      "##fi": 830,
      "ži": 831,
      "##nica": 832,
      "\":\"": 833,
      "že": 834,
      "##ha": 835,
      "##nost": 836,
      "la": 837,
      "kon": 838,
      "ju": 839,
      "vla": 840,
      "##gle": 841,
      "još": 842,
      "može": 843,
      "##šta": 844,
      "\"\",": 845,
      "##ste": 846,
      "##dan": 847,
      "##čki": 848,
      "##or": 849,
      "zbo": 850,
      "##vanje": 851,
      "jer": 852,
      "##gre": 853,
      "##tra": 854,
      "stra": 855,
      "##noj": 856,
      "zbog": 857,
      "##skoj": 858,
      "spo": 859,
      "treba": 860,
      "##vati": 861,
      "sva": 862,
      "##ču": 863,
      "##skom": 864,
      "au": 865,
      "##skih": 866,
      "rekao": 867,
      "##stro": 868,
      "euro": 869,
      "mogu": 870,
      "##nda": 871,
      "##00": 872,
      "ha": 873,
      "posto": 874,
      "##nti": 875,
      "##he": 876,
      "##tje": 877,
      "##gla": 878,
      "##vio": 879,
      "bilo": 880,
      "či": 881,
      "bro": 882,
      "##telji": 883,
      "rije": 884,
      "vr": 885,
      "##bro": 886,
      "slu": 887,
      "veli": 888,
      "##sku": 889,
      "godina": 890,
      "osta": 891,
      "##tno": 892,
      "ki": 893,
      "##mije": 894,
      "##dra": 895,
      "##ciju": 896,
      "##fe": 897,
      "##vali": 898,
      "##stva": 899,
      "vje": 900,
      "##nal": 901,
      "##šte": 902,
      "uk": 903,
      "op": 904,
      "##ću": 905,
      "##sjed": 906,
      "##št": 907,
      "ova": 908,
      "202": 909,
      "dok": 910,
      "##vanja": 911,
      "##red": 912,
      "obja": 913,
      "##stra": 914,
      "doda": 915,
      "cije": 916,
      "oso": 917,
      "obi": 918,
      "kada": 919,
      "prema": 920,
      "##nice": 921,
      "radi": 922,
      "oko": 923,
      "kri": 924,
      "ze": 925,
      "sto": 926,
      "##rija": 927,
      "eura": 928,
      "tri": 929,
      "##lije": 930,
      "le": 931,
      "##_2": 932,
      "##čko": 933,
      "već": 934,
      "##vom": 935,
      "dstro": 936,
      "dstrok": 937,
      "an": 938,
      "##reme": 939,
      "ce": 940,
      "bila": 941,
      "utak": 942,
      "utakmi": 943,
      "##..": 944,
      "##tom": 945,
      "mora": 946,
      "##kla": 947,
      "tije": 948,
      "##sno": 949,
      "predsjed": 950,
      "fo": 951,
      "ako": 952,
      "##vlja": 953,
      "zagre": 954,
      "##pli": 955,
      "dobi": 956,
      "pob": 957,
      "##tni": 958,
      "novi": 959,
      "njego": 960,
      "sla": 961,
      "drža": 962,
      "##telj": 963,
      "##pg": 964,
      "jpg": 965,
      "sr": 966,
      "##rno": 967,
      "##20": 968,
      "izbo": 969,
      "##vori": 970,
      "##kri": 971,
      "19": 972,
      "##hi": 973,
      "nas": 974,
      "##što": 975,
      "među": 976,
      "živo": 977,
      "fa": 978,
      "##sni": 979,
      "or": 980,
      "##vni": 981,
      "kad": 982,
      "##joj": 983,
      "##lim": 984,
      "##kre": 985,
      "##van": 986,
      "##vlje": 987,
      "##rom": 988,
      "##pri": 989,
      "ci": 990,
      "ak": 991,
      "##nima": 992,
      "ih": 993,
      "##jom": 994,
      "##om": 995,
      "iza": 996,
      "ljudi": 997,
      "protiv": 998,
      "odlu": 999,
      "so": 1000,
      "##viti": 1001,
      "##ter": 1002,
      "##ciji": 1003,
      "##cio": 1004,
      "##tko": 1005,
      "##stvo": 1006,
      "lu": 1007,
      "##bli": 1008,
      "auto": 1009,
      "##ng": 1010,
      "ho": 1011,
      "##skim": 1012,
      "kori": 1013,
      "dva": 1014,
      "jedan": 1015,
      "##vara": 1016,
      "neko": 1017,
      "##ven": 1018,
      "kre": 1019,
      "\".": 1020,
      "svoje": 1021,
      "##vima": 1022,
      "svje": 1023,
      "slo": 1024,
      "##rni": 1025,
      "mla": 1026,
      "##čno": 1027,
      "bez": 1028,
      "##šti": 1029,
      "...": 1030,
      "##ner": 1031,
      "##80": 1032,
      "odno": 1033,
      "##_27": 1034,
      "on": 1035,
      "njiho": 1036,
      "nema": 1037,
      "##jte": 1038,
      "##jući": 1039,
      "vrije": 1040,
      "sada": 1041,
      "tr": 1042,
      "##spo": 1043,
      "##met": 1044,
      "upra": 1045,
      "##ško": 1046,
      "bra": 1047,
      "drugi": 1048,
      "poče": 1049,
      "##lazi": 1050,
      "posta": 1051,
      "##gleda": 1052,
      "##voj": 1053,
      "##al": 1054,
      "##žu": 1055,
      "ča": 1056,
      "##čke": 1057,
      "klu": 1058,
      "ri": 1059,
      "im": 1060,
      "mili": 1061,
      "##pisa": 1062,
      "mar": 1063,
      "##cij": 1064,
      "##ble": 1065,
      "gdje": 1066,
      "##sla": 1067,
      "##godi": 1068,
      "sje": 1069,
      "nam": 1070,
      "##ren": 1071,
      "pita": 1072,
      "##jek": 1073,
      "izra": 1074,
      "osi": 1075,
      "europ": 1076,
      "##40": 1077,
      "nego": 1078,
      "ove": 1079,
      "10": 1080,
      "še": 1081,
      "stu": 1082,
      "trenu": 1083,
      "prvi": 1084,
      "##ruč": 1085,
      "lije": 1086,
      "##rao": 1087,
      "pje": 1088,
      "sre": 1089,
      "pomo": 1090,
      "sma": 1091,
      "##tro": 1092,
      "##ndi": 1093,
      "taj": 1094,
      "sad": 1095,
      "sigu": 1096,
      "dobro": 1097,
      "##nuti": 1098,
      "##njem": 1099,
      "##kup": 1100,
      "sti": 1101,
      "broj": 1102,
      "dije": 1103,
      "nisu": 1104,
      "##vila": 1105,
      "par": 1106,
      "##tar": 1107,
      "pove": 1108,
      "obra": 1109,
      "##pje": 1110,
      "##vao": 1111,
      "tvr": 1112,
      "##tka": 1113,
      "##iz": 1114,
      "##lom": 1115,
      "##for": 1116,
      "danas": 1117,
      "prija": 1118,
      "##sje": 1119,
      "##šao": 1120,
      "hrvatske": 1121,
      "toga": 1122,
      "##niji": 1123,
      "zdra": 1124,
      "##tvr": 1125,
      "rad": 1126,
      "vrijeme": 1127,
      "##log": 1128,
      "##stup": 1129,
      "),": 1130,
      "##stavlja": 1131,
      "##sre": 1132,
      "##vaju": 1133,
      "poka": 1134,
      "##pla": 1135,
      "mini": 1136,
      "ste": 1137,
      "proble": 1138,
      "društ": 1139,
      "##dom": 1140,
      "kod": 1141,
      "pozi": 1142,
      "##nuo": 1143,
      "svije": 1144,
      "popu": 1145,
      "napa": 1146,
      "politi": 1147,
      "proš": 1148,
      "##vim": 1149,
      "dina": 1150,
      "##tio": 1151,
      "##tim": 1152,
      "ide": 1153,
      "spli": 1154,
      "ško": 1155,
      "##nski": 1156,
      "ši": 1157,
      "žu": 1158,
      "zajed": 1159,
      "dio": 1160,
      "##bno": 1161,
      "neki": 1162,
      "##bra": 1163,
      "##dno": 1164,
      "##nko": 1165,
      "fina": 1166,
      "medi": 1167,
      "pose": 1168,
      "zah": 1169,
      "al": 1170,
      "##meta": 1171,
      "##cima": 1172,
      "oz": 1173,
      "##rima": 1174,
      "##vih": 1175,
      "isto": 1176,
      "##dne": 1177,
      "##kto": 1178,
      "tijekom": 1179,
      "drugo": 1180,
      "grad": 1181,
      "najbo": 1182,
      "sezo": 1183,
      "upo": 1184,
      "##zira": 1185,
      "potre": 1186,
      "godiš": 1187,
      "cr": 1188,
      "mjese": 1189,
      "##star": 1190,
      "poslje": 1191,
      "nekoliko": 1192,
      "bili": 1193,
      "##nd": 1194,
      "stva": 1195,
      "##rio": 1196,
      "ukra": 1197,
      "kro": 1198,
      "##vog": 1199,
      "zavr": 1200,
      "foto": 1201,
      "doma": 1202,
      "##vijek": 1203,
      "svoji": 1204,
      "##sli": 1205,
      "istra": 1206,
      "##tjeca": 1207,
      "oba": 1208,
      "##el": 1209,
      "##vala": 1210,
      "put": 1211,
      "##nira": 1212,
      "##lno": 1213,
      "zem": 1214,
      "##govor": 1215,
      "##rta": 1216,
      "koju": 1217,
      "dra": 1218,
      "proiz": 1219,
      "poru": 1220,
      "12": 1221,
      "sna": 1222,
      "##ška": 1223,
      "##gao": 1224,
      "##dar": 1225,
      "dvo": 1226,
      "isti": 1227,
      "otkri": 1228,
      "gu": 1229,
      "##sam": 1230,
      "pobje": 1231,
      "kom": 1232,
      "lje": 1233,
      "##diti": 1234,
      "dan": 1235,
      "umje": 1236,
      "##jem": 1237,
      "##vija": 1238,
      "uspje": 1239,
      "orga": 1240,
      "pozna": 1241,
      "nogo": 1242,
      "sati": 1243,
      "##lek": 1244,
      "vide": 1245,
      "nasta": 1246,
      "nika": 1247,
      "ar": 1248,
      "##nio": 1249,
      "kaže": 1250,
      "prili": 1251,
      "##čio": 1252,
      "ge": 1253,
      "osje": 1254,
      "fe": 1255,
      "kaza": 1256,
      "projek": 1257,
      "miliju": 1258,
      "malo": 1259,
      "br": 1260,
      "##pan": 1261,
      "prva": 1262,
      "##nosi": 1263,
      "hi": 1264,
      "ona": 1265,
      "uvijek": 1266,
      "poslo": 1267,
      "15": 1268,
      "##meri": 1269,
      "hrvatskoj": 1270,
      "##hu": 1271,
      "puno": 1272,
      "##novi": 1273,
      "dr": 1274,
      "nešto": 1275,
      "##stve": 1276,
      "zapo": 1277,
      "##čka": 1278,
      "proizvo": 1279,
      "##tku": 1280,
      "##zul": 1281,
      "##đer": 1282,
      "tome": 1283,
      "jedna": 1284,
      "##vne": 1285,
      "jako": 1286,
      "također": 1287,
      "ope": 1288,
      "##cional": 1289,
      "oni": 1290,
      "čla": 1291,
      "njezi": 1292,
      "hrvatska": 1293,
      "vreme": 1294,
      "##žbe": 1295,
      "##nija": 1296,
      "##vore": 1297,
      "##klju": 1298,
      "##vši": 1299,
      "poja": 1300,
      "dvije": 1301,
      "##dnji": 1302,
      "jedi": 1303,
      "nad": 1304,
      "inte": 1305,
      "##ako": 1306,
      "organi": 1307,
      "##vna": 1308,
      "##tne": 1309,
      "##nske": 1310,
      "rezul": 1311,
      "ukraji": 1312,
      "ša": 1313,
      "oče": 1314,
      "ovaj": 1315,
      "pet": 1316,
      "##ver": 1317,
      "izme": 1318,
      "tro": 1319,
      "##telja": 1320,
      "kome": 1321,
      "##kupi": 1322,
      "pono": 1323,
      "ameri": 1324,
      "svjet": 1325,
      "he": 1326,
      "##nk": 1327,
      "vozi": 1328,
      "##nova": 1329,
      "##tivno": 1330,
      "201": 1331,
      "##volj": 1332,
      "fil": 1333,
      "iako": 1334,
      "prote": 1335,
      "doga": 1336,
      "najve": 1337,
      "##vla": 1338,
      "##klo": 1339,
      "haj": 1340,
      "##risti": 1341,
      "tak": 1342,
      "##rak": 1343,
      "##vili": 1344,
      "ministar": 1345,
      "bri": 1346,
      "budu": 1347,
      "održa": 1348,
      "pogo": 1349,
      "kojima": 1350,
      "30": 1351,
      "##ss": 1352,
      "predsjednik": 1353,
      "##man": 1354,
      "ono": 1355,
      "ple": 1356,
      "nači": 1357,
      "jedno": 1358,
      "neće": 1359,
      "napra": 1360,
      "tek": 1361,
      "rezulta": 1362,
      "##dova": 1363,
      "milijuna": 1364,
      "##gli": 1365,
      "##vnog": 1366,
      "##co": 1367,
      "nu": 1368,
      "##voji": 1369,
      "rekla": 1370,
      "navo": 1371,
      "vrlo": 1372,
      "##tan": 1373,
      "##tua": 1374,
      "fran": 1375,
      "##lni": 1376,
      "##op": 1377,
      "onda": 1378,
      "##rne": 1379,
      "##dru": 1380,
      "ču": 1381,
      "veći": 1382,
      "voj": 1383,
      "kojem": 1384,
      "imaju": 1385,
      "##tiri": 1386,
      "##šu": 1387,
      "čak": 1388,
      "ista": 1389,
      "##vreme": 1390,
      "govori": 1391,
      "##pro": 1392,
      "##ted": 1393,
      "tru": 1394,
      "##zenta": 1395,
      "hajdu": 1396,
      "gle": 1397,
      "zagreba": 1398,
      "##in": 1399,
      "##nj": 1400,
      "uvje": 1401,
      "mnog": 1402,
      "##sio": 1403,
      "područ": 1404,
      "ras": 1405,
      "sli": 1406,
      "##nama": 1407,
      "uklju": 1408,
      "sluča": 1409,
      "##bio": 1410,
      "spa": 1411,
      "##kra": 1412,
      "situa": 1413,
      "između": 1414,
      "koliko": 1415,
      "11": 1416,
      "##vnom": 1417,
      "dese": 1418,
      "##pak": 1419,
      "uči": 1420,
      "##stru": 1421,
      "##niti": 1422,
      "svoj": 1423,
      "poku": 1424,
      "kroz": 1425,
      "##đi": 1426,
      "##više": 1427,
      "dalje": 1428,
      "rea": 1429,
      "veliki": 1430,
      "progra": 1431,
      "##čkog": 1432,
      "kojoj": 1433,
      "##bri": 1434,
      "repre": 1435,
      "razli": 1436,
      "##tovo": 1437,
      "##smo": 1438,
      "mre": 1439,
      "vu": 1440,
      "njema": 1441,
      "vam": 1442,
      "##kli": 1443,
      "pokaza": 1444,
      "##rana": 1445,
      "video": 1446,
      "##forma": 1447,
      "vije": 1448,
      "reprezenta": 1449,
      "##kr": 1450,
      "događa": 1451,
      "tko": 1452,
      "##rna": 1453,
      "ula": 1454,
      "prosto": 1455,
      "naše": 1456,
      "vara": 1457,
      "gleda": 1458,
      "tada": 1459,
      "##čne": 1460,
      "publi": 1461,
      "##lne": 1462,
      "svojim": 1463,
      "dugo": 1464,
      "smje": 1465,
      "njih": 1466,
      "##dri": 1467,
      "nova": 1468,
      "vra": 1469,
      "dola": 1470,
      "neka": 1471,
      "župa": 1472,
      "##vanju": 1473,
      "pripre": 1474,
      "četvr": 1475,
      "bli": 1476,
      "ćemo": 1477,
      "vodi": 1478,
      "##tem": 1479,
      "mom": 1480,
      "##tke": 1481,
      "svoju": 1482,
      "obje": 1483,
      "važ": 1484,
      "##vor": 1485,
      "##tima": 1486,
      "##com": 1487,
      "##rod": 1488,
      "##zne": 1489,
      "##stri": 1490,
      "građa": 1491,
      "##ry": 1492,
      "##nera": 1493,
      "loka": 1494,
      "glaz": 1495,
      "##24": 1496,
      "##nović": 1497,
      "##nka": 1498,
      "glu": 1499,
      "##dnje": 1500,
      "kr": 1501,
      "ke": 1502,
      "joj": 1503,
      "##čni": 1504,
      "##nače": 1505,
      "##kle": 1506,
      "pora": 1507,
      "bih": 1508,
      "co": 1509,
      "kvali": 1510,
      "pogleda": 1511,
      "mjesto": 1512,
      "##jan": 1513,
      "smatra": 1514,
      ").": 1515,
      "ljuba": 1516,
      "zo": 1517,
      "poput": 1518,
      "hd": 1519,
      "minu": 1520,
      "pret": 1521,
      "prona": 1522,
      "##čić": 1523,
      "mila": 1524,
      "##ški": 1525,
      "##nicima": 1526,
      "',": 1527,
      "##roja": 1528,
      "radio": 1529,
      "zat": 1530,
      "bit": 1531,
      "##rali": 1532,
      "puta": 1533,
      "uda": 1534,
      "kandi": 1535,
      "prven": 1536,
      "##fa": 1537,
      "##nci": 1538,
      "##riti": 1539,
      "konce": 1540,
      "jednom": 1541,
      "##ždi": 1542,
      "iva": 1543,
      "tom": 1544,
      "zašti": 1545,
      "##_271": 1546,
      "inter": 1547,
      "osoba": 1548,
      "vidje": 1549,
      "##lova": 1550,
      "četiri": 1551,
      "osigu": 1552,
      "ime": 1553,
      "2024": 1554,
      "zdrav": 1555,
      "sred": 1556,
      "varaždi": 1557,
      "istak": 1558,
      "dinamo": 1559,
      "##titi": 1560,
      "##stava": 1561,
      "##ks": 1562,
      "##dije": 1563,
      "izja": 1564,
      "društve": 1565,
      "##mir": 1566,
      "mladi": 1567,
      "osim": 1568,
      "##ncija": 1569,
      "##šnji": 1570,
      "13": 1571,
      "18": 1572,
      "split": 1573,
      "##nali": 1574,
      "bor": 1575,
      "pokuša": 1576,
      "želi": 1577,
      "##šli": 1578,
      "naja": 1579,
      "fu": 1580,
      "službe": 1581,
      "slobo": 1582,
      "##ct": 1583,
      "##šnje": 1584,
      "javno": 1585,
      "000": 1586,
      "ov": 1587,
      "tisu": 1588,
      "osvoji": 1589,
      "##stvu": 1590,
      "##_1": 1591,
      "vrati": 1592,
      "preko": 1593,
      "druge": 1594,
      "##vijesti": 1595,
      "##bije": 1596,
      "zra": 1597,
      "način": 1598,
      "##vede": 1599,
      "nastu": 1600,
      "odu": 1601,
      "hrvatski": 1602,
      "##_2720": 1603,
      "grada": 1604,
      "##čiti": 1605,
      "utakmice": 1606,
      "##movi": 1607,
      "##štu": 1608,
      "##govara": 1609,
      "odnosno": 1610,
      "bla": 1611,
      "imao": 1612,
      "##čkih": 1613,
      "ipak": 1614,
      "posje": 1615,
      "##pad": 1616,
      "gr": 1617,
      "kandida": 1618,
      "primje": 1619,
      "prvo": 1620,
      "##mpa": 1621,
      "sura": 1622,
      "kul": 1623,
      "kru": 1624,
      "pone": 1625,
      "piše": 1626,
      "##nula": 1627,
      "##ćem": 1628,
      "17": 1629,
      "##sao": 1630,
      "##cijama": 1631,
      "život": 1632,
      "##čili": 1633,
      "##sle": 1634,
      "hr": 1635,
      "mnogi": 1636,
      "##rani": 1637,
      "##rica": 1638,
      "gru": 1639,
      "kar": 1640,
      "##bora": 1641,
      "promje": 1642,
      "spre": 1643,
      ".,": 1644,
      "##rac": 1645,
      "hdz": 1646,
      "navija": 1647,
      "##ksi": 1648,
      "##fo": 1649,
      "pokre": 1650,
      "neo": 1651,
      "##sne": 1652,
      "dogodi": 1653,
      "obitelji": 1654,
      "sport": 1655,
      "ulo": 1656,
      "##vesti": 1657,
      "manje": 1658,
      "razi": 1659,
      "teško": 1660,
      "susre": 1661,
      "skupi": 1662,
      "promet": 1663,
      "##pada": 1664,
      "stran": 1665,
      "uli": 1666,
      "dubro": 1667,
      "##plo": 1668,
      "##per": 1669,
      "vri": 1670,
      "natjeca": 1671,
      "srp": 1672,
      "##čkom": 1673,
      "pravo": 1674,
      "##nskog": 1675,
      "vas": 1676,
      "gro": 1677,
      "sezone": 1678,
      "##lima": 1679,
      "završi": 1680,
      "##lma": 1681,
      "zaklju": 1682,
      "##pusti": 1683,
      "potvr": 1684,
      "ener": 1685,
      "viso": 1686,
      "una": 1687,
      "##šnja": 1688,
      "nisam": 1689,
      "##ime": 1690,
      "##tna": 1691,
      "svako": 1692,
      "50": 1693,
      "tje": 1694,
      "##an": 1695,
      "##dila": 1696,
      "##men": 1697,
      "vlasti": 1698,
      "##čkoj": 1699,
      "en": 1700,
      "čo": 1701,
      "koristi": 1702,
      "gotovo": 1703,
      "##dam": 1704,
      "poveća": 1705,
      "##mobi": 1706,
      "strane": 1707,
      "gospo": 1708,
      "##rala": 1709,
      "maj": 1710,
      "##cted": 1711,
      "##riji": 1712,
      "kla": 1713,
      "suda": 1714,
      "unu": 1715,
      "##dili": 1716,
      "([": 1717,
      "posebno": 1718,
      "##ljede": 1719,
      "tim": 1720,
      "fotogra": 1721,
      "oda": 1722,
      "ure": 1723,
      "nove": 1724,
      "16": 1725,
      "##tre": 1726,
      "vremena": 1727,
      "protected": 1728,
      "regi": 1729,
      "svih": 1730,
      "pote": 1731,
      "odre": 1732,
      "##ranje": 1733,
      "naš": 1734,
      "vode": 1735,
      "##ške": 1736,
      "sup": 1737,
      "##ljivo": 1738,
      "##vra": 1739,
      "tere": 1740,
      "naši": 1741,
      "##čer": 1742,
      "informa": 1743,
      "##slu": 1744,
      "##đen": 1745,
      "poda": 1746,
      "mjesta": 1747,
      "potpu": 1748,
      "sigurno": 1749,
      "teh": 1750,
      "automobi": 1751,
      "##žda": 1752,
      "premije": 1753,
      "njega": 1754,
      "##sna": 1755,
      "nagra": 1756,
      "##vnih": 1757,
      "imati": 1758,
      "ovom": 1759,
      "##nicu": 1760,
      "##teta": 1761,
      "##menta": 1762,
      "sudje": 1763,
      "vrijed": 1764,
      "šu": 1765,
      "proda": 1766,
      "##ljem": 1767,
      "stude": 1768,
      "obo": 1769,
      "organiza": 1770,
      "##x1": 1771,
      "emo": 1772,
      "one": 1773,
      "obitelj": 1774,
      "##rtu": 1775,
      "odma": 1776,
      "kazao": 1777,
      "25": 1778,
      "možda": 1779,
      "##pozna": 1780,
      "kraju": 1781,
      "ostva": 1782,
      "vidi": 1783,
      "zato": 1784,
      "ništa": 1785,
      "kultu": 1786,
      "sredi": 1787,
      "##tor": 1788,
      "##mogu": 1789,
      "bude": 1790,
      "14": 1791,
      "rje": 1792,
      "glazbe": 1793,
      "ovog": 1794,
      "upravo": 1795,
      "##tri": 1796,
      "kolo": 1797,
      "mari": 1798,
      "izbor": 1799,
      "nacional": 1800,
      "##čan": 1801,
      "##vica": 1802,
      "baš": 1803,
      "##njak": 1804,
      "##čna": 1805,
      "isku": 1806,
      "knji": 1807,
      "##nike": 1808,
      "supru": 1809,
      "utakmica": 1810,
      "nesre": 1811,
      "muška": 1812,
      "##hva": 1813,
      "policija": 1814,
      "##40x": 1815,
      "part": 1816,
      "teme": 1817,
      "##snije": 1818,
      "polu": 1819,
      "zagrebu": 1820,
      "momča": 1821,
      "kazne": 1822,
      "mogao": 1823,
      "##ll": 1824,
      "##zor": 1825,
      "nagla": 1826,
      "##mp": 1827,
      "##ar": 1828,
      "##nce": 1829,
      "mis": 1830,
      "napo": 1831,
      "##uze": 1832,
      "nedje": 1833,
      "##šić": 1834,
      "hra": 1835,
      "##nde": 1836,
      "odgovo": 1837,
      "grado": 1838,
      "200": 1839,
      "izgu": 1840,
      "dire": 1841,
      "sm": 1842,
      "uo": 1843,
      "istraži": 1844,
      "mode": 1845,
      "##raju": 1846,
      "spe": 1847,
      "neke": 1848,
      "##as": 1849,
      "plenko": 1850,
      "godinu": 1851,
      "ok": 1852,
      "svaki": 1853,
      "francu": 1854,
      "##rovi": 1855,
      "najbolji": 1856,
      "mate": 1857,
      "podr": 1858,
      "object": 1859,
      "podu": 1860,
      "##kova": 1861,
      "##kuje": 1862,
      "kojeg": 1863,
      "napada": 1864,
      "zako": 1865,
      "##hvati": 1866,
      "21": 1867,
      "kak": 1868,
      "tran": 1869,
      "tele": 1870,
      "osjeća": 1871,
      "pogledajte": 1872,
      "##čaj": 1873,
      "##pred": 1874,
      "njegova": 1875,
      "pjes": 1876,
      "imamo": 1877,
      "##rce": 1878,
      "##kav": 1879,
      "pitanje": 1880,
      "klju": 1881,
      "špan": 1882,
      "##ck": 1883,
      "##oj": 1884,
      "at": 1885,
      "dodao": 1886,
      "posla": 1887,
      "kont": 1888,
      "njegov": 1889,
      "subo": 1890,
      "zla": 1891,
      "ivan": 1892,
      "karije": 1893,
      "djela": 1894,
      "sigur": 1895,
      "##dre": 1896,
      "zado": 1897,
      "opa": 1898,
      "imali": 1899,
      "riječ": 1900,
      "##ković": 1901,
      "rodi": 1902,
      "napisa": 1903,
      "vlada": 1904,
      "##lić": 1905,
      "##bija": 1906,
      "čeka": 1907,
      "otvore": 1908,
      "##che": 1909,
      "upozo": 1910,
      "prizna": 1911,
      "često": 1912,
      "repu": 1913,
      "##blje": 1914,
      "cent": 1915,
      "for": 1916,
      "udru": 1917,
      "##rma": 1918,
      "24": 1919,
      "odra": 1920,
      "priča": 1921,
      "bije": 1922,
      "##nar": 1923,
      "##šla": 1924,
      "niko": 1925,
      "pru": 1926,
      "struč": 1927,
      "druga": 1928,
      "##lan": 1929,
      "španjo": 1930,
      "svom": 1931,
      "uspo": 1932,
      "izgleda": 1933,
      "##lle": 1934,
      "mjestu": 1935,
      "novo": 1936,
      "##dovi": 1937,
      "eki": 1938,
      "neza": 1939,
      "##zak": 1940,
      "##mpe": 1941,
      "opo": 1942,
      "##žno": 1943,
      "podsje": 1944,
      "mislim": 1945,
      "deset": 1946,
      "##cje": 1947,
      "##čku": 1948,
      "neu": 1949,
      "šest": 1950,
      "ovdje": 1951,
      "##tin": 1952,
      "##tara": 1953,
      "možemo": 1954,
      "oti": 1955,
      "##lio": 1956,
      "posti": 1957,
      "##tet": 1958,
      "of": 1959,
      "zašto": 1960,
      "##jedi": 1961,
      "sebe": 1962,
      "trgo": 1963,
      "##tki": 1964,
      "njegovo": 1965,
      "00": 1966,
      "id": 1967,
      "##rić": 1968,
      "izda": 1969,
      "##jedna": 1970,
      "naime": 1971,
      "raspo": 1972,
      "stru": 1973,
      "republi": 1974,
      "odgovor": 1975,
      "optu": 1976,
      "ukup": 1977,
      "##bor": 1978,
      "ponu": 1979,
      "doba": 1980,
      "posao": 1981,
      "##vića": 1982,
      "pomoć": 1983,
      "smi": 1984,
      "##čima": 1985,
      "bolje": 1986,
      "opći": 1987,
      "##ch": 1988,
      "poz": 1989,
      "##tkom": 1990,
      "njima": 1991,
      "##pio": 1992,
      "##glo": 1993,
      "poma": 1994,
      "dobio": 1995,
      "stvari": 1996,
      "##som": 1997,
      "sd": 1998,
      "čovje": 1999,
      "##čkim": 2000,
      "dne": 2001,
      "predsjednika": 2002,
      "španjol": 2003,
      "##ved": 2004,
      "##ment": 2005,
      "kraj": 2006,
      "izrael": 2007,
      "problem": 2008,
      "##lija": 2009,
      "##nata": 2010,
      "zajedno": 2011,
      "odmah": 2012,
      "kasnije": 2013,
      "nosi": 2014,
      "##ljak": 2015,
      "minuti": 2016,
      "svim": 2017,
      "kraja": 2018,
      "obzi": 2019,
      "##ns": 2020,
      "izvo": 2021,
      "##vnim": 2022,
      "##zni": 2023,
      "##loga": 2024,
      "života": 2025,
      "hu": 2026,
      "utjeca": 2027,
      "##zima": 2028,
      "kate": 2029,
      "ovi": 2030,
      "##nca": 2031,
      "##vjet": 2032,
      "##cla": 2033,
      "##lnik": 2034,
      "uži": 2035,
      "prošle": 2036,
      "sud": 2037,
      "pobije": 2038,
      "polj": 2039,
      "##lar": 2040,
      "najviše": 2041,
      "voza": 2042,
      "vjeru": 2043,
      "##jemo": 2044,
      "čini": 2045,
      "pona": 2046,
      "znači": 2047,
      "hrvatsku": 2048,
      "traži": 2049,
      "er": 2050,
      "save": 2051,
      "##nča": 2052,
      "vozila": 2053,
      "name": 2054,
      "##digra": 2055,
      "##lue": 2056,
      "##šlja": 2057,
      "nogomet": 2058,
      "velika": 2059,
      "uče": 2060,
      "šibe": 2061,
      "##ćih": 2062,
      "posljednji": 2063,
      "##er": 2064,
      "bole": 2065,
      "hrvatskog": 2066,
      "svijetu": 2067,
      "pp": 2068,
      "##prije": 2069,
      "raču": 2070,
      "ispo": 2071,
      "##280": 2072,
      "minuta": 2073,
      "postoji": 2074,
      "elek": 2075,
      "idu": 2076,
      "tamo": 2077,
      "neda": 2078,
      "nedo": 2079,
      "zagreb": 2080,
      "##rka": 2081,
      "poči": 2082,
      "uključu": 2083,
      "veliko": 2084,
      "trener": 2085,
      "##dnja": 2086,
      "##nov": 2087,
      "##njima": 2088,
      "##limpi": 2089,
      "bol": 2090,
      "međutim": 2091,
      "djece": 2092,
      "možete": 2093,
      "the": 2094,
      "sce": 2095,
      "zahva": 2096,
      "predstavlja": 2097,
      "gi": 2098,
      "##rili": 2099,
      "##nuli": 2100,
      "##class": 2101,
      "nalazi": 2102,
      "osu": 2103,
      "emi": 2104,
      "djelo": 2105,
      "trži": 2106,
      "komu": 2107,
      "std": 2108,
      "100": 2109,
      "##nin": 2110,
      "stdclass": 2111,
      "kola": 2112,
      "dolazi": 2113,
      "sljede": 2114,
      "##opće": 2115,
      "mogli": 2116,
      "##ton": 2117,
      "##dna": 2118,
      "dalma": 2119,
      "##lna": 2120,
      "ponovno": 2121,
      "##ranja": 2122,
      "izne": 2123,
      "zlo": 2124,
      "odli": 2125,
      "nov": 2126,
      "kontro": 2127,
      "##nove": 2128,
      "tisuća": 2129,
      "##tnih": 2130,
      "##pravo": 2131,
      "##spe": 2132,
      "##san": 2133,
      "film": 2134,
      "##kaza": 2135,
      "aktivno": 2136,
      "nave": 2137,
      "omogu": 2138,
      "odigra": 2139,
      "##rice": 2140,
      "utakmicu": 2141,
      "nara": 2142,
      "##čila": 2143,
      "prvaka": 2144,
      "problema": 2145,
      "##jna": 2146,
      "##nzi": 2147,
      "provo": 2148,
      "proce": 2149,
      "odje": 2150,
      "inf": 2151,
      "oto": 2152,
      "dosta": 2153,
      "sklo": 2154,
      "##sija": 2155,
      "olimpi": 2156,
      "pola": 2157,
      "pore": 2158,
      "##rojatno": 2159,
      "ivo": 2160,
      "##kama": 2161,
      "niti": 2162,
      "##šku": 2163,
      "##kti": 2164,
      "##kako": 2165,
      "ranije": 2166,
      "toliko": 2167,
      "pjeva": 2168,
      "##ratu": 2169,
      "jednu": 2170,
      "prati": 2171,
      "##mom": 2172,
      "##80x": 2173,
      "kole": 2174,
      "ite": 2175,
      "profe": 2176,
      "##gom": 2177,
      "osobe": 2178,
      "##pita": 2179,
      "klub": 2180,
      "sko": 2181,
      "lige": 2182,
      "##gije": 2183,
      "##lnih": 2184,
      "evo": 2185,
      "##renje": 2186,
      "sum": 2187,
      "misli": 2188,
      "zapravo": 2189,
      "području": 2190,
      "ljubav": 2191,
      "##nte": 2192,
      "srije": 2193,
      "##zem": 2194,
      "##rava": 2195,
      "zi": 2196,
      "izgra": 2197,
      "##šće": 2198,
      "##rd": 2199,
      "##il": 2200,
      "##jima": 2201,
      "##mbe": 2202,
      "sudjelo": 2203,
      "##bje": 2204,
      "tempe": 2205,
      "festi": 2206,
      "kvalite": 2207,
      "22": 2208,
      "##nicama": 2209,
      "predsjedni": 2210,
      "direkto": 2211,
      "##vaja": 2212,
      "##bili": 2213,
      "demo": 2214,
      "##gled": 2215,
      "plaća": 2216,
      "uni": 2217,
      "svog": 2218,
      "predstav": 2219,
      "##zuje": 2220,
      "##up": 2221,
      "##90": 2222,
      "netko": 2223,
      "prava": 2224,
      "jednog": 2225,
      "kluba": 2226,
      "##nac": 2227,
      "policij": 2228,
      "iznena": 2229,
      "##kve": 2230,
      "upravlja": 2231,
      "##nstve": 2232,
      "gol": 2233,
      "oči": 2234,
      "##čnih": 2235,
      "##teljima": 2236,
      "2023": 2237,
      "deta": 2238,
      "mno": 2239,
      "time": 2240,
      "##nska": 2241,
      "##đena": 2242,
      "##voljno": 2243,
      "eko": 2244,
      "##ut": 2245,
      "##tori": 2246,
      "sasta": 2247,
      "##stima": 2248,
      "pravi": 2249,
      "produ": 2250,
      "kilo": 2251,
      "zahtje": 2252,
      "temperatu": 2253,
      "trenutku": 2254,
      "##sije": 2255,
      "##tnu": 2256,
      "##fina": 2257,
      "sja": 2258,
      "šo": 2259,
      "komenti": 2260,
      "##she": 2261,
      "turisti": 2262,
      "ozlije": 2263,
      "##piti": 2264,
      "##lih": 2265,
      "kona": 2266,
      "##ktu": 2267,
      "ozbi": 2268,
      "##đenje": 2269,
      "##čica": 2270,
      "##šlo": 2271,
      "obzirom": 2272,
      "petak": 2273,
      "manda": 2274,
      "vatro": 2275,
      "isko": 2276,
      "moguć": 2277,
      "##bre": 2278,
      "##cijom": 2279,
      "##stitu": 2280,
      "imala": 2281,
      "##teljica": 2282,
      "##rem": 2283,
      "ponedje": 2284,
      "unutar": 2285,
      "plo": 2286,
      "##zda": 2287,
      "nada": 2288,
      "utvr": 2289,
      "##ksu": 2290,
      "bivši": 2291,
      "tradi": 2292,
      "##rti": 2293,
      "##rila": 2294,
      "nismo": 2295,
      "##vac": 2296,
      "boga": 2297,
      "vlade": 2298,
      "osob": 2299,
      "io": 2300,
      "zau": 2301,
      "zastup": 2302,
      "ću": 2303,
      "##deri": 2304,
      "nepo": 2305,
      "##bom": 2306,
      "eks": 2307,
      "##laze": 2308,
      "kojim": 2309,
      "prvom": 2310,
      "reći": 2311,
      "olimpij": 2312,
      "zad": 2313,
      "brzo": 2314,
      "djevoj": 2315,
      "nogometa": 2316,
      "kli": 2317,
      "pomoći": 2318,
      "zemlje": 2319,
      "23": 2320,
      "##lov": 2321,
      "izazo": 2322,
      "preda": 2323,
      "fotografi": 2324,
      "nesta": 2325,
      "##telje": 2326,
      "hajduk": 2327,
      "potom": 2328,
      "najbolje": 2329,
      "upu": 2330,
      "sedam": 2331,
      "##šenje": 2332,
      "##žiti": 2333,
      "crve": 2334,
      "zajedni": 2335,
      "dosa": 2336,
      "gospodar": 2337,
      "ty": 2338,
      "zdravstve": 2339,
      "##br": 2340,
      "##nad": 2341,
      "##logi": 2342,
      "izvr": 2343,
      "međuna": 2344,
      "gradonače": 2345,
      "##rske": 2346,
      "objavio": 2347,
      "super": 2348,
      "opet": 2349,
      "##feren": 2350,
      "zele": 2351,
      "drugom": 2352,
      "alias": 2353,
      "igrača": 2354,
      "mjeseci": 2355,
      "veza": 2356,
      "luka": 2357,
      "##shed": 2358,
      "genera": 2359,
      "##zije": 2360,
      "27": 2361,
      "svijeta": 2362,
      "published": 2363,
      "40": 2364,
      "zgra": 2365,
      "opre": 2366,
      "povje": 2367,
      "##ljen": 2368,
      "čega": 2369,
      "##lina": 2370,
      "domaći": 2371,
      "svojoj": 2372,
      "sdp": 2373,
      "biv": 2374,
      "izvje": 2375,
      "##640": 2376,
      "##ljena": 2377,
      "tog": 2378,
      "promije": 2379,
      "josi": 2380,
      "povije": 2381,
      "##ćeg": 2382,
      "navodi": 2383,
      "##đeno": 2384,
      "raditi": 2385,
      "ita": 2386,
      "ovu": 2387,
      "##ris": 2388,
      "poduze": 2389,
      "osam": 2390,
      "snim": 2391,
      "zanim": 2392,
      "nikad": 2393,
      "očeki": 2394,
      "izvan": 2395,
      "mogla": 2396,
      "intere": 2397,
      "mreža": 2398,
      "age": 2399,
      "usko": 2400,
      "podi": 2401,
      "mene": 2402,
      "svega": 2403,
      "##nke": 2404,
      "##sci": 2405,
      "##nak": 2406,
      "##lost": 2407,
      "vatroga": 2408,
      "##nskih": 2409,
      "usta": 2410,
      "priva": 2411,
      "eli": 2412,
      "gor": 2413,
      "potpuno": 2414,
      "##zma": 2415,
      "osno": 2416,
      "##480": 2417,
      "##mor": 2418,
      "##340": 2419,
      "veče": 2420,
      "##boj": 2421,
      "istaknuo": 2422,
      "doku": 2423,
      "razvo": 2424,
      "##žio": 2425,
      "predsta": 2426,
      "##rane": 2427,
      "##šću": 2428,
      "##024": 2429,
      "velike": 2430,
      "vidjeti": 2431,
      "komenta": 2432,
      "##dni": 2433,
      "rada": 2434,
      "stvara": 2435,
      "finan": 2436,
      "uto": 2437,
      "##priv": 2438,
      "##dija": 2439,
      "##tica": 2440,
      "puto": 2441,
      "trans": 2442,
      "polo": 2443,
      "insta": 2444,
      "žena": 2445,
      "povra": 2446,
      "izno": 2447,
      "znam": 2448,
      "subotu": 2449,
      "2022": 2450,
      "pojedi": 2451,
      "očekuje": 2452,
      "vrhu": 2453,
      "group": 2454,
      "zaba": 2455,
      "##mina": 2456,
      "lip": 2457,
      "##son": 2458,
      "godišnji": 2459,
      "hla": 2460,
      "##gro": 2461,
      "razdo": 2462,
      "slučaju": 2463,
      "slije": 2464,
      "prve": 2465,
      "cilj": 2466,
      "društvenim": 2467,
      "funk": 2468,
      "sprem": 2469,
      "ozbilj": 2470,
      "am": 2471,
      "postoje": 2472,
      "##tt": 2473,
      "plenković": 2474,
      "##dnju": 2475,
      "namje": 2476,
      "smije": 2477,
      "domovi": 2478,
      "institu": 2479,
      "vjerojatno": 2480,
      "parla": 2481,
      "šte": 2482,
      "listo": 2483,
      "glavni": 2484,
      "##mira": 2485,
      "trav": 2486,
      "osije": 2487,
      "priprema": 2488,
      "stoji": 2489,
      "država": 2490,
      "##tila": 2491,
      "bile": 2492,
      "rado": 2493,
      "bru": 2494,
      "##lnim": 2495,
      "##tić": 2496,
      "planira": 2497,
      "objasni": 2498,
      "mije": 2499,
      "##nskom": 2500,
      "pisa": 2501,
      "priliku": 2502,
      "ugo": 2503,
      "naravno": 2504,
      "kup": 2505,
      "podije": 2506,
      "##pisu": 2507,
      "maksi": 2508,
      "##kuplja": 2509,
      "'.": 2510,
      "gradu": 2511,
      "jasno": 2512,
      "##kovi": 2513,
      "##mima": 2514,
      "zadar": 2515,
      "##fika": 2516,
      "##poru": 2517,
      "##dering": 2518,
      "##rdi": 2519,
      "26": 2520,
      "ogra": 2521,
      "jezi": 2522,
      "drugih": 2523,
      "uju": 2524,
      "nedjelju": 2525,
      "nama": 2526,
      "##mišlja": 2527,
      "zaposle": 2528,
      "financij": 2529,
      "turni": 2530,
      "svojih": 2531,
      "##zija": 2532,
      "obu": 2533,
      "poseb": 2534,
      "tjedna": 2535,
      "bira": 2536,
      "lop": 2537,
      "ponedjeljak": 2538,
      "##rba": 2539,
      "zara": 2540,
      "milanović": 2541,
      "dovoljno": 2542,
      "##žava": 2543,
      "##tog": 2544,
      "trebao": 2545,
      "upozna": 2546,
      "##taka": 2547,
      "##žić": 2548,
      "uslu": 2549,
      "premi": 2550,
      "per": 2551,
      "nedavno": 2552,
      "type": 2553,
      "we": 2554,
      "##95": 2555,
      "poslije": 2556,
      "kriti": 2557,
      "koli": 2558,
      "projekt": 2559,
      "psi": 2560,
      "odnosu": 2561,
      "sho": 2562,
      "##njoj": 2563,
      "ispri": 2564,
      "andre": 2565,
      "##gor": 2566,
      "ini": 2567,
      "prosje": 2568,
      "ad": 2569,
      "marko": 2570,
      "obilje": 2571,
      "dijete": 2572,
      "kva": 2573,
      "spome": 2574,
      "jugo": 2575,
      "mnogo": 2576,
      "ele": 2577,
      "##cama": 2578,
      "donije": 2579,
      "posve": 2580,
      "ivana": 2581,
      "zatim": 2582,
      "najma": 2583,
      "brani": 2584,
      "izbje": 2585,
      "bje": 2586,
      "##vnik": 2587,
      "##čnu": 2588,
      "moj": 2589,
      "skla": 2590,
      "##mio": 2591,
      "##jski": 2592,
      "sami": 2593,
      "nitko": 2594,
      "##pis": 2595,
      "value": 2596,
      "hrvatskih": 2597,
      "igrati": 2598,
      "rade": 2599,
      "##tual": 2600,
      "uzro": 2601,
      "##lnog": 2602,
      "nastupa": 2603,
      "pretho": 2604,
      "odr": 2605,
      "##šava": 2606,
      "ordering": 2607,
      "##ista": 2608,
      "trenutno": 2609,
      "turi": 2610,
      "koris": 2611,
      "stvar": 2612,
      "##wi": 2613,
      "##voza": 2614,
      "cijene": 2615,
      "godini": 2616,
      "europske": 2617,
      "uspješ": 2618,
      "##stupa": 2619,
      "##ster": 2620,
      "buduć": 2621,
      "rata": 2622,
      "real": 2623,
      "razu": 2624,
      "poveza": 2625,
      "sije": 2626,
      "##lla": 2627,
      "program": 2628,
      "##bina": 2629,
      "zemlji": 2630,
      "rezultat": 2631,
      "anali": 2632,
      "##ple": 2633,
      "deve": 2634,
      "djecu": 2635,
      "moguće": 2636,
      "katego": 2637,
      "inače": 2638,
      "oru": 2639,
      "##tine": 2640,
      "##lin": 2641,
      "##vid": 2642,
      "iznosi": 2643,
      "##ty": 2644,
      "##đenja": 2645,
      "##slav": 2646,
      "##jno": 2647,
      "preki": 2648,
      "zapa": 2649,
      "##den": 2650,
      "##biti": 2651,
      "potencija": 2652,
      "došao": 2653,
      "kuće": 2654,
      "ispred": 2655,
      "##tnog": 2656,
      "čita": 2657,
      "rijeka": 2658,
      "izbora": 2659,
      "##tili": 2660,
      "putem": 2661,
      "prepozna": 2662,
      "##ndo": 2663,
      "zamje": 2664,
      "uhi": 2665,
      "##liti": 2666,
      "##vine": 2667,
      "##đeni": 2668,
      "ut": 2669,
      "##rina": 2670,
      "jednosta": 2671,
      "potra": 2672,
      "izlo": 2673,
      "bre": 2674,
      "##th": 2675,
      "novog": 2676,
      "pobjed": 2677,
      "dinama": 2678,
      "srijedu": 2679,
      "ovih": 2680,
      "ža": 2681,
      "##sima": 2682,
      "potro": 2683,
      "zvije": 2684,
      "sustav": 2685,
      "priro": 2686,
      "cijena": 2687,
      "##ban": 2688,
      "umjesto": 2689,
      "ig": 2690,
      "svima": 2691,
      "stranke": 2692,
      "konferen": 2693,
      "moramo": 2694,
      "##misli": 2695,
      "off": 2696,
      "kupa": 2697,
      "tehno": 2698,
      "utorak": 2699,
      "drugim": 2700,
      "##tnom": 2701,
      "donosi": 2702,
      "kampa": 2703,
      "savje": 2704,
      "modri": 2705,
      "##dese": 2706,
      "nedosta": 2707,
      "djeca": 2708,
      "značaj": 2709,
      "220": 2710,
      "ispu": 2711,
      "##ksa": 2712,
      "doži": 2713,
      "bodova": 2714,
      "##šiti": 2715,
      "##88": 2716,
      "##rano": 2717,
      "sata": 2718,
      "hote": 2719,
      "nikada": 2720,
      "momčad": 2721,
      "em": 2722,
      "##dak": 2723,
      "##čar": 2724,
      "povr": 2725,
      "sjever": 2726,
      "##vite": 2727,
      "##kata": 2728,
      "gre": 2729,
      "##laz": 2730,
      "hoće": 2731,
      "dijelu": 2732,
      "ete": 2733,
      "##rci": 2734,
      "##dana": 2735,
      "objavlje": 2736,
      "##tic": 2737,
      "28": 2738,
      "kata": 2739,
      "##čita": 2740,
      "investi": 2741,
      "##čnim": 2742,
      "##lnosti": 2743,
      "nazi": 2744,
      "glasa": 2745,
      "tvrdi": 2746,
      "##kva": 2747,
      "ravna": 2748,
      "1024": 2749,
      "ćete": 2750,
      "##sob": 2751,
      "##govora": 2752,
      "premijer": 2753,
      "##vanjem": 2754,
      "poža": 2755,
      "kojih": 2756,
      "stre": 2757,
      "otvori": 2758,
      "dobar": 2759,
      "##vnu": 2760,
      "pari": 2761,
      "##šenja": 2762,
      "ovoj": 2763,
      "obrazo": 2764,
      "doći": 2765,
      "međunarod": 2766,
      "nado": 2767,
      "vlas": 2768,
      "medici": 2769,
      "prosi": 2770,
      "metara": 2771,
      "povijesti": 2772,
      "novu": 2773,
      "novina": 2774,
      "##27": 2775,
      "osobi": 2776,
      "dobiti": 2777,
      "mjeseca": 2778,
      "godinama": 2779,
      "##kna": 2780,
      "##nić": 2781,
      "škole": 2782,
      "ističe": 2783,
      "situacija": 2784,
      "mirovi": 2785,
      "republike": 2786,
      "dakle": 2787,
      "##tova": 2788,
      "pros": 2789,
      "zdravlje": 2790,
      "najveći": 2791,
      "##spi": 2792,
      "##voje": 2793,
      "utakmici": 2794,
      "zabra": 2795,
      "##jedno": 2796,
      "osvojio": 2797,
      "glaso": 2798,
      "županije": 2799,
      "okru": 2800,
      "naša": 2801,
      "##nijih": 2802,
      "uvo": 2803,
      "##jih": 2804,
      "##stre": 2805,
      "države": 2806,
      "##wa": 2807,
      "##tina": 2808,
      "##timo": 2809,
      "suko": 2810,
      "dija": 2811,
      "tih": 2812,
      "želje": 2813,
      "##vremeno": 2814,
      "##vrše": 2815,
      "prvu": 2816,
      "niz": 2817,
      "dobili": 2818,
      "##jske": 2819,
      "svijet": 2820,
      "##_640": 2821,
      "##_480": 2822,
      "##_340": 2823,
      "##_220": 2824,
      "##_1280": 2825,
      "##_1024": 2826,
      "razini": 2827,
      "unato": 2828,
      "##veo": 2829,
      "##zam": 2830,
      "##ljiva": 2831,
      "njemu": 2832,
      "svjedo": 2833,
      "ured": 2834,
      "vaše": 2835,
      "godišnja": 2836,
      "480x": 2837,
      "meni": 2838,
      "njegove": 2839,
      "umjet": 2840,
      "##sak": 2841,
      "svib": 2842,
      "60": 2843,
      "prvog": 2844,
      "##loba": 2845,
      "obli": 2846,
      "ap": 2847,
      "##jeva": 2848,
      "pak": 2849,
      "ljude": 2850,
      "splitu": 2851,
      "provje": 2852,
      "moglo": 2853,
      "rijeke": 2854,
      "rizi": 2855,
      "##osta": 2856,
      "29": 2857,
      "ser": 2858,
      "moraju": 2859,
      "prošlo": 2860,
      "om": 2861,
      "prosla": 2862,
      "##bila": 2863,
      "pobjedu": 2864,
      "sveu": 2865,
      "640x": 2866,
      "##žnje": 2867,
      "##kić": 2868,
      "vatre": 2869,
      "mr": 2870,
      "##veli": 2871,
      "har": 2872,
      "činje": 2873,
      "##kad": 2874,
      "##renja": 2875,
      "##tivi": 2876,
      "340x": 2877,
      "tvrtke": 2878,
      "uključujući": 2879,
      "##gnu": 2880,
      "centa": 2881,
      "##lnu": 2882,
      "##vlju": 2883,
      "otvara": 2884,
      "njihov": 2885,
      "milija": 2886,
      "diza": 2887,
      "traja": 2888,
      "srbi": 2889,
      "zaslu": 2890,
      "##đene": 2891,
      "cijeli": 2892,
      "došlo": 2893,
      "199": 2894,
      "##jka": 2895,
      "##vice": 2896,
      "sjeve": 2897,
      "zemlja": 2898,
      "##ljeni": 2899,
      "snage": 2900,
      "otkrio": 2901,
      "new": 2902,
      "moći": 2903,
      "godišnje": 2904,
      "mrežama": 2905,
      "##dima": 2906,
      "postao": 2907,
      "35": 2908,
      "upa": 2909,
      "##ur": 2910,
      "obve": 2911,
      "hajduka": 2912,
      "važno": 2913,
      "rt": 2914,
      "##vora": 2915,
      "ugla": 2916,
      "žele": 2917,
      "poručio": 2918,
      "##tnim": 2919,
      "##mati": 2920,
      "kame": 2921,
      "item": 2922,
      "dogodilo": 2923,
      "ukupno": 2924,
      "sku": 2925,
      "nasi": 2926,
      "##žan": 2927,
      "trebalo": 2928,
      "dolara": 2929,
      "lipnja": 2930,
      "##tora": 2931,
      "fili": 2932,
      "pobjede": 2933,
      "dro": 2934,
      "naro": 2935,
      "uprave": 2936,
      "organizira": 2937,
      "novih": 2938,
      "marija": 2939,
      "poslu": 2940,
      "napraviti": 2941,
      "javnosti": 2942,
      "posljednjih": 2943,
      "ovim": 2944,
      "čemu": 2945,
      "objavila": 2946,
      "##rena": 2947,
      "pogi": 2948,
      "mir": 2949,
      "tur": 2950,
      "potrebno": 2951,
      "##štva": 2952,
      "ispod": 2953,
      "otkrila": 2954,
      "nevje": 2955,
      "izaz": 2956,
      "prilikom": 2957,
      "djelat": 2958,
      "igre": 2959,
      "fizi": 2960,
      "poljo": 2961,
      "##ogra": 2962,
      "##line": 2963,
      "sebi": 2964,
      "jednostavno": 2965,
      "indu": 2966,
      "suo": 2967,
      "##pom": 2968,
      "##ženje": 2969,
      "podrža": 2970,
      "gori": 2971,
      "biste": 2972,
      "zabio": 2973,
      "##žen": 2974,
      "razvoj": 2975,
      "glumi": 2976,
      "oduše": 2977,
      "meda": 2978,
      "vladi": 2979,
      "potreb": 2980,
      "ogla": 2981,
      "razmišlja": 2982,
      "engle": 2983,
      "45": 2984,
      "##tion": 2985,
      "##nila": 2986,
      "toj": 2987,
      "sporta": 2988,
      "postup": 2989,
      "njihove": 2990,
      "instagra": 2991,
      "poljopriv": 2992,
      "polju": 2993,
      "zakon": 2994,
      "centra": 2995,
      "##mac": 2996,
      "##vizi": 2997,
      "##zuju": 2998,
      "##nsko": 2999,
      "manji": 3000,
      "opera": 3001,
      "snima": 3002,
      "##ncije": 3003,
      "##tinu": 3004,
      "profi": 3005,
      "razgovara": 3006,
      "igrač": 3007,
      "socija": 3008,
      "započe": 3009,
      "##vlada": 3010,
      "##rde": 3011,
      "##fije": 3012,
      "##tih": 3013,
      "odla": 3014,
      "dodaje": 3015,
      "zadnji": 3016,
      "vanj": 3017,
      "##kretni": 3018,
      "kažu": 3019,
      "pročita": 3020,
      "žene": 3021,
      "##tivne": 3022,
      "##lica": 3023,
      "##loški": 3024,
      "cro": 3025,
      "rekli": 3026,
      "teni": 3027,
      "plat": 3028,
      "stoga": 3029,
      "njihova": 3030,
      "izjavio": 3031,
      "isklju": 3032,
      "ljud": 3033,
      "zahvalju": 3034,
      "uglavnom": 3035,
      "umi": 3036,
      "##tle": 3037,
      "##kar": 3038,
      "čovjek": 3039,
      "ustav": 3040,
      "##šlje": 3041,
      ".)": 3042,
      "##gdje": 3043,
      "##dite": 3044,
      "lako": 3045,
      "novac": 3046,
      "travnja": 3047,
      "31": 3048,
      "trebali": 3049,
      "škola": 3050,
      "##čnom": 3051,
      "nastav": 3052,
      "kolu": 3053,
      "##siji": 3054,
      "ponaša": 3055,
      "siječ": 3056,
      "sustava": 3057,
      "##leko": 3058,
      "ana": 3059,
      "##kcije": 3060,
      "##čnog": 3061,
      "##vina": 3062,
      "brzi": 3063,
      "##krša": 3064,
      "##pušta": 3065,
      "odluka": 3066,
      "član": 3067,
      "blo": 3068,
      "natje": 3069,
      "nastavlja": 3070,
      "iznim": 3071,
      "kine": 3072,
      "stručnja": 3073,
      "##lak": 3074,
      "prisu": 3075,
      "##čenje": 3076,
      "hrvatskom": 3077,
      "mlade": 3078,
      "##čak": 3079,
      "##pr": 3080,
      "##mija": 3081,
      "bolji": 3082,
      "strana": 3083,
      "##snu": 3084,
      "bismo": 3085,
      "sabor": 3086,
      "stadio": 3087,
      "zadovolj": 3088,
      "af": 3089,
      "sc": 3090,
      "pobo": 3091,
      "njezin": 3092,
      "##riju": 3093,
      "prima": 3094,
      "tomi": 3095,
      "posljedi": 3096,
      "posjeti": 3097,
      "onih": 3098,
      "sin": 3099,
      "kući": 3100,
      "izborima": 3101,
      "cha": 3102,
      "##žba": 3103,
      "##lila": 3104,
      "##gama": 3105,
      "živi": 3106,
      "aktivnosti": 3107,
      "drugog": 3108,
      "promjene": 3109,
      "svakodne": 3110,
      "partne": 3111,
      "dre": 3112,
      "##ljeća": 3113,
      "##blja": 3114,
      "parki": 3115,
      "unatoč": 3116,
      "##dro": 3117,
      "terenu": 3118,
      "ale": 3119,
      "šan": 3120,
      "momčadi": 3121,
      "aj": 3122,
      "##zvo": 3123,
      "prijed": 3124,
      "mijenja": 3125,
      "cu": 3126,
      "kuha": 3127,
      "smanje": 3128,
      "festiva": 3129,
      "veliku": 3130,
      "korište": 3131,
      "koša": 3132,
      "prostor": 3133,
      "jedne": 3134,
      "smanji": 3135,
      "##\"\",": 3136,
      "bes": 3137,
      "ulaga": 3138,
      "##30": 3139,
      "odgovara": 3140,
      "##ljan": 3141,
      "##ćen": 3142,
      "##reni": 3143,
      "##mat": 3144,
      "##šća": 3145,
      "norma": 3146,
      "##štvo": 3147,
      "četvrtak": 3148,
      "##lnom": 3149,
      "ljudima": 3150,
      "reda": 3151,
      "kojom": 3152,
      "životu": 3153,
      "napad": 3154,
      "bolesti": 3155,
      "cje": 3156,
      "pada": 3157,
      "obe": 3158,
      "ispla": 3159,
      "##qu": 3160,
      "##menti": 3161,
      "dodatno": 3162,
      "lege": 3163,
      "najmanje": 3164,
      "dao": 3165,
      "trebala": 3166,
      "##ali": 3167,
      "##36": 3168,
      "ek": 3169,
      "ina": 3170,
      "prenosi": 3171,
      "##gh": 3172,
      "##tiva": 3173,
      "elektri": 3174,
      "ispriča": 3175,
      "##lnika": 3176,
      "epi": 3177,
      "varaždin": 3178,
      "doče": 3179,
      "rujna": 3180,
      "konku": 3181,
      "pitanja": 3182,
      "nju": 3183,
      "##ya": 3184,
      "##mini": 3185,
      "vod": 3186,
      "##zom": 3187,
      "vrijednosti": 3188,
      "pacije": 3189,
      "der": 3190,
      "##đuje": 3191,
      "pli": 3192,
      "wi": 3193,
      "prora": 3194,
      "previše": 3195,
      "reko": 3196,
      "##žili": 3197,
      "##vci": 3198,
      "zakona": 3199,
      "centar": 3200,
      "izvijesti": 3201,
      "potpisa": 3202,
      "projekta": 3203,
      "policije": 3204,
      "##žni": 3205,
      "##baci": 3206,
      "strate": 3207,
      ";,": 3208,
      "dozna": 3209,
      "barem": 3210,
      "materija": 3211,
      "##igra": 3212,
      "cati": 3213,
      "europe": 3214,
      "vrata": 3215,
      "##vnoj": 3216,
      "pobolj": 3217,
      "rast": 3218,
      "treći": 3219,
      "razloga": 3220,
      "##šio": 3221,
      "krimi": 3222,
      "liječ": 3223,
      "nau": 3224,
      "navede": 3225,
      "##jim": 3226,
      "vele": 3227,
      "defi": 3228,
      "ljubi": 3229,
      "napisao": 3230,
      "ožu": 3231,
      "##jne": 3232,
      "##ye": 3233,
      "##lac": 3234,
      "okoli": 3235,
      "rat": 3236,
      "moja": 3237,
      "kuća": 3238,
      "zema": 3239,
      "mjesec": 3240,
      "tjedan": 3241,
      "mali": 3242,
      "##tera": 3243,
      "##mos": 3244,
      "imam": 3245,
      "##metara": 3246,
      "ugovor": 3247,
      "stano": 3248,
      "odluku": 3249,
      "##njo": 3250,
      "sutra": 3251,
      "završe": 3252,
      "##gne": 3253,
      "ota": 3254,
      "nekretni": 3255,
      "##rs": 3256,
      "zapad": 3257,
      "priti": 3258,
      "sadrža": 3259,
      "prosvje": 3260,
      "susta": 3261,
      "##kul": 3262,
      "kralje": 3263,
      "gubi": 3264,
      "navodno": 3265,
      "novom": 3266,
      "pruža": 3267,
      "srpnja": 3268,
      "uze": 3269,
      "prijatelj": 3270,
      "majka": 3271,
      "##niku": 3272,
      "listopada": 3273,
      "##nskim": 3274,
      "##kcija": 3275,
      "dati": 3276,
      "ala": 3277,
      "##niju": 3278,
      "##bur": 3279,
      "##tere": 3280,
      "stvarno": 3281,
      "sklopu": 3282,
      "predvi": 3283,
      "podršku": 3284,
      "zada": 3285,
      "dali": 3286,
      "preuze": 3287,
      "građana": 3288,
      "god": 3289,
      "gosti": 3290,
      "mađa": 3291,
      "vike": 3292,
      "##žila": 3293,
      "iskoristi": 3294,
      "##dić": 3295,
      "dalj": 3296,
      "reprezentacije": 3297,
      "##_2719": 3298,
      "anti": 3299,
      "napre": 3300,
      "dozvo": 3301,
      "odgo": 3302,
      "sazna": 3303,
      "\":\"\"\",": 3304,
      "programa": 3305,
      "skup": 3306,
      "##ber": 3307,
      "opas": 3308,
      "##cha": 3309,
      "mobi": 3310,
      "milanovi": 3311,
      "mladih": 3312,
      "##jica": 3313,
      "tiče": 3314,
      "direktor": 3315,
      "ograni": 3316,
      "oku": 3317,
      "ava": 3318,
      "ubr": 3319,
      "##klu": 3320,
      "izla": 3321,
      "san": 3322,
      "znanstve": 3323,
      "dobila": 3324,
      "alko": 3325,
      "vese": 3326,
      "##čuje": 3327,
      "ostati": 3328,
      "ošte": 3329,
      "##bla": 3330,
      "##raca": 3331,
      "pale": 3332,
      "početka": 3333,
      "posljednje": 3334,
      "građani": 3335,
      "##ray": 3336,
      "sekto": 3337,
      "ukrajini": 3338,
      "uoči": 3339,
      "sveučili": 3340,
      "##razu": 3341,
      "brojne": 3342,
      "ministarstvo": 3343,
      "počinje": 3344,
      "hn": 3345,
      "kape": 3346,
      "budući": 3347,
      "##ranu": 3348,
      "##ljene": 3349,
      "nekim": 3350,
      "kompa": 3351,
      "automobila": 3352,
      "uopće": 3353,
      "zavo": 3354,
      "##ly": 3355,
      "##slo": 3356,
      "##pušte": 3357,
      "europi": 3358,
      "početkom": 3359,
      "prvenstva": 3360,
      "shvati": 3361,
      "dogovo": 3362,
      "presu": 3363,
      "para": 3364,
      "večer": 3365,
      "izd": 3366,
      "ulogu": 3367,
      "gradonačelnik": 3368,
      "ena": 3369,
      "reali": 3370,
      "##stvom": 3371,
      "prila": 3372,
      "kolovoza": 3373,
      "demokra": 3374,
      "zemalja": 3375,
      "##fu": 3376,
      "atmos": 3377,
      "um": 3378,
      "objek": 3379,
      "dodala": 3380,
      "slove": 3381,
      "raspra": 3382,
      "zrako": 3383,
      "loše": 3384,
      "lak": 3385,
      "##struktu": 3386,
      "velja": 3387,
      "voli": 3388,
      "tijelo": 3389,
      "sigurnosti": 3390,
      "atmosfe": 3391,
      "90": 3392,
      "##rca": 3393,
      "pozor": 3394,
      "##metu": 3395,
      "trump": 3396,
      ";.": 3397,
      "##kove": 3398,
      "ski": 3399,
      "##vca": 3400,
      "##rova": 3401,
      "ruko": 3402,
      "većina": 3403,
      "##vici": 3404,
      "dubrova": 3405,
      "podsjetimo": 3406,
      "rtl": 3407,
      "##njom": 3408,
      "sat": 3409,
      "tvrtka": 3410,
      "tehni": 3411,
      "##ps": 3412,
      "putu": 3413,
      "troško": 3414,
      "savez": 3415,
      "upisa": 3416,
      "beogra": 3417,
      "ostali": 3418,
      "##vremenu": 3419,
      "alkoho": 3420,
      "diljem": 3421,
      "globa": 3422,
      "priopće": 3423,
      "2021": 3424,
      "sjeća": 3425,
      "odvjet": 3426,
      "car": 3427,
      "različi": 3428,
      "devet": 3429,
      "80": 3430,
      "naba": 3431,
      "ujutro": 3432,
      "žrt": 3433,
      "##ras": 3434,
      "prekrša": 3435,
      "najva": 3436,
      "iti": 3437,
      "komi": 3438,
      "pala": 3439,
      "##nese": 3440,
      "ligi": 3441,
      "##gita": 3442,
      "čet": 3443,
      "poziva": 3444,
      "##šnjeg": 3445,
      "uskoro": 3446,
      "sjed": 3447,
      "ministarstva": 3448,
      "seku": 3449,
      "izvor": 3450,
      "preh": 3451,
      "igrao": 3452,
      "##žena": 3453,
      "popula": 3454,
      "ozna": 3455,
      "odluke": 3456,
      "##tira": 3457,
      "bivše": 3458,
      "dopri": 3459,
      "cijelo": 3460,
      "svibnja": 3461,
      "##cem": 3462,
      "asi": 3463,
      "božić": 3464,
      "aktual": 3465,
      "reagi": 3466,
      "##nili": 3467,
      "kor": 3468,
      "gola": 3469,
      "poslova": 3470,
      "70": 3471,
      "koncert": 3472,
      "##gno": 3473,
      "##by": 3474,
      "naz": 3475,
      "progla": 3476,
      "jučer": 3477,
      "plu": 3478,
      "##luje": 3479,
      "polica": 3480,
      "sjedi": 3481,
      "nastaviti": 3482,
      "najavio": 3483,
      "imate": 3484,
      "slučaj": 3485,
      "energe": 3486,
      "##jskog": 3487,
      "mediji": 3488,
      "kazali": 3489,
      "područja": 3490,
      "natjecanja": 3491,
      "##68": 3492,
      "nače": 3493,
      "sudio": 3494,
      "naših": 3495,
      "okre": 3496,
      "doka": 3497,
      "digita": 3498,
      "izbore": 3499,
      "računa": 3500,
      "napusti": 3501,
      "izmje": 3502,
      "##ćeni": 3503,
      "svaka": 3504,
      "ovako": 3505,
      "vraća": 3506,
      "udruge": 3507,
      "tradicional": 3508,
      "pobjeda": 3509,
      "500": 3510,
      "##škom": 3511,
      "iznad": 3512,
      "znaju": 3513,
      "zabora": 3514,
      "procje": 3515,
      "##sila": 3516,
      "foku": 3517,
      "##tija": 3518,
      "dubo": 3519,
      "izrazi": 3520,
      "poboljša": 3521,
      "##vjeti": 3522,
      "##rp": 3523,
      "savrše": 3524,
      "sigurnost": 3525,
      "profesio": 3526,
      "##mili": 3527,
      "ostao": 3528,
      "stigao": 3529,
      "oruž": 3530,
      "duž": 3531,
      "zvu": 3532,
      "interne": 3533,
      "iskustvo": 3534,
      "infra": 3535,
      "poh": 3536,
      "zanima": 3537,
      "dostup": 3538,
      "novinar": 3539,
      "proraču": 3540,
      "javlja": 3541,
      "stanje": 3542,
      "tv": 3543,
      "moje": 3544,
      "strani": 3545,
      "##47": 3546,
      "presta": 3547,
      "traže": 3548,
      "##štvu": 3549,
      "infrastruktu": 3550,
      "sama": 3551,
      "preporu": 3552,
      "cesta": 3553,
      "otac": 3554,
      "##snih": 3555,
      "sim": 3556,
      "korak": 3557,
      "došli": 3558,
      "##boo": 3559,
      "##njuje": 3560,
      "kontak": 3561,
      "obrane": 3562,
      "##nite": 3563,
      "##gan": 3564,
      "pitanju": 3565,
      "zadrža": 3566,
      "upi": 3567,
      "##lli": 3568,
      "##dina": 3569,
      "redu": 3570,
      "##formi": 3571,
      "che": 3572,
      "pau": 3573,
      "specija": 3574,
      "##tlji": 3575,
      "##rav": 3576,
      "nato": 3577,
      "daleko": 3578,
      "male": 3579,
      "prvoj": 3580,
      "##cionira": 3581,
      "identi": 3582,
      "energi": 3583,
      "##50": 3584,
      "##podne": 3585,
      "madri": 3586,
      "dječ": 3587,
      "tijela": 3588,
      "koriste": 3589,
      "informacije": 3590,
      "##bc": 3591,
      "jest": 3592,
      "iste": 3593,
      "njegovu": 3594,
      "##sk": 3595,
      "portu": 3596,
      "##vela": 3597,
      "mani": 3598,
      "indi": 3599,
      "ispa": 3600,
      "##ndar": 3601,
      "krea": 3602,
      "ska": 3603,
      "koma": 3604,
      "fakul": 3605,
      "sprije": 3606,
      "##tije": 3607,
      "uspio": 3608,
      "stup": 3609,
      "njezina": 3610,
      "završio": 3611,
      "priop": 3612,
      "prika": 3613,
      "##stina": 3614,
      "##tske": 3615,
      "##snog": 3616,
      "##der": 3617,
      "ai": 3618,
      "##rama": 3619,
      "face": 3620,
      "dobra": 3621,
      "znamo": 3622,
      "novim": 3623,
      "društva": 3624,
      "ulaz": 3625,
      "supruga": 3626,
      "posu": 3627,
      "resto": 3628,
      "bar": 3629,
      "##godišnji": 3630,
      "drago": 3631,
      "array": 3632,
      "njemačkoj": 3633,
      "župani": 3634,
      "vratiti": 3635,
      "hrt": 3636,
      "##blju": 3637,
      "##28": 3638,
      "naža": 3639,
      "protu": 3640,
      "##bilje": 3641,
      "takav": 3642,
      "bal": 3643,
      "vlasni": 3644,
      "ovak": 3645,
      "34": 3646,
      "zabri": 3647,
      "pristup": 3648,
      "##miti": 3649,
      "##mila": 3650,
      "događaja": 3651,
      "##jni": 3652,
      "##ljeno": 3653,
      "##por": 3654,
      "jadra": 3655,
      "nažalost": 3656,
      "noći": 3657,
      "##čeni": 3658,
      "##stom": 3659,
      "stanov": 3660,
      "finala": 3661,
      "visoko": 3662,
      "borbe": 3663,
      "pročitajte": 3664,
      "##ncu": 3665,
      "##snim": 3666,
      "##yo": 3667,
      "društvo": 3668,
      "##ela": 3669,
      "kore": 3670,
      "man": 3671,
      "##čenja": 3672,
      "sni": 3673,
      "##rska": 3674,
      "seksu": 3675,
      "topli": 3676,
      "prijet": 3677,
      "jedini": 3678,
      "##čen": 3679,
      "##tivni": 3680,
      "čime": 3681,
      "brita": 3682,
      "##pt": 3683,
      "2025": 3684,
      "zaista": 3685,
      "sunča": 3686,
      "radova": 3687,
      "vjero": 3688,
      "dolaze": 3689,
      "energije": 3690,
      "roditelji": 3691,
      "33": 3692,
      "susret": 3693,
      "umiro": 3694,
      "hnl": 3695,
      "portuga": 3696,
      "32": 3697,
      "##vide": 3698,
      "##čića": 3699,
      "boda": 3700,
      "odlučio": 3701,
      "##vilo": 3702,
      "kova": 3703,
      "sub": 3704,
      "iskre": 3705,
      "muze": 3706,
      "europskog": 3707,
      "financi": 3708,
      "osobito": 3709,
      "klubo": 3710,
      "smrt": 3711,
      "vru": 3712,
      "##kta": 3713,
      "želim": 3714,
      "ulici": 3715,
      "smrti": 3716,
      "komunika": 3717,
      "##žne": 3718,
      "pridru": 3719,
      "##nijeti": 3720,
      "##fici": 3721,
      "klasi": 3722,
      "eni": 3723,
      "inci": 3724,
      "česti": 3725,
      "svakako": 3726,
      "blizi": 3727,
      "mišlje": 3728,
      "svemu": 3729,
      "skupine": 3730,
      "dokumenta": 3731,
      "siječnja": 3732,
      "##rke": 3733,
      "dobri": 3734,
      "##kinja": 3735,
      "prvenstvu": 3736,
      "fotografije": 3737,
      "prosinca": 3738,
      "pao": 3739,
      "završ": 3740,
      "dosad": 3741,
      "as": 3742,
      "koali": 3743,
      "##čice": 3744,
      "tali": 3745,
      "##nsku": 3746,
      "##dran": 3747,
      "nemo": 3748,
      "priče": 3749,
      "studi": 3750,
      "mnoge": 3751,
      "parlamenta": 3752,
      "razlog": 3753,
      "plaće": 3754,
      "hrane": 3755,
      "nastup": 3756,
      "noć": 3757,
      "##zno": 3758,
      "kratko": 3759,
      "##llery": 3760,
      "umjetni": 3761,
      "naglasio": 3762,
      "osvaja": 3763,
      "mlado": 3764,
      "proizvoda": 3765,
      "ama": 3766,
      "##žbi": 3767,
      "porta": 3768,
      "proši": 3769,
      "top": 3770,
      "ispra": 3771,
      "mjere": 3772,
      "gale": 3773,
      "##kro": 3774,
      "##61": 3775,
      "situaciju": 3776,
      "##pije": 3777,
      "prihvati": 3778,
      "stati": 3779,
      "ber": 3780,
      "sposob": 3781,
      "ljeta": 3782,
      "faceboo": 3783,
      "rh": 3784,
      "##85": 3785,
      "razgovo": 3786,
      "rođen": 3787,
      "čiji": 3788,
      "sezonu": 3789,
      "omogući": 3790,
      "postala": 3791,
      "povo": 3792,
      "poklo": 3793,
      "želj": 3794,
      "kazala": 3795,
      "josip": 3796,
      "umirovlje": 3797,
      "redo": 3798,
      "naslov": 3799,
      "peri": 3800,
      "krajem": 3801,
      "životi": 3802,
      "##vale": 3803,
      "##čević": 3804,
      "konzu": 3805,
      "profeso": 3806,
      "održi": 3807,
      "zu": 3808,
      "nakna": 3809,
      "sara": 3810,
      "##par": 3811,
      "pokazuje": 3812,
      "zadovo": 3813,
      "profesional": 3814,
      "##lili": 3815,
      "##lovi": 3816,
      "odo": 3817,
      "ruke": 3818,
      "plan": 3819,
      "##njen": 3820,
      "##ćima": 3821,
      "##zer": 3822,
      "riječi": 3823,
      "pogotovo": 3824,
      "##ćoj": 3825,
      "##kuju": 3826,
      "##zan": 3827,
      "svojom": 3828,
      "svakom": 3829,
      "mogućnost": 3830,
      "##gova": 3831,
      "prilika": 3832,
      "prostora": 3833,
      "##en": 3834,
      "##jnu": 3835,
      "##šno": 3836,
      "##vama": 3837,
      "##mnji": 3838,
      "##god": 3839,
      "kandidata": 3840,
      "##rović": 3841,
      "postavlja": 3842,
      "##mani": 3843,
      "zabilje": 3844,
      "preu": 3845,
      "nadle": 3846,
      "očito": 3847,
      "jutar": 3848,
      "trenuta": 3849,
      "albu": 3850,
      "primjer": 3851,
      "stari": 3852,
      "36": 3853,
      "##ćom": 3854,
      "ter": 3855,
      "##siju": 3856,
      "stvori": 3857,
      "klubu": 3858,
      "omi": 3859,
      "nemaju": 3860,
      "ugosti": 3861,
      "##tte": 3862,
      "supro": 3863,
      "radu": 3864,
      "vezi": 3865,
      "obzira": 3866,
      "drugu": 3867,
      "jednoj": 3868,
      "pokazao": 3869,
      "##vnika": 3870,
      "prometa": 3871,
      "##siti": 3872,
      "meta": 3873,
      "2020": 3874,
      "navode": 3875,
      "našim": 3876,
      "##jam": 3877,
      "##les": 3878,
      "lov": 3879,
      "intenzi": 3880,
      "okvi": 3881,
      "primije": 3882,
      "##čeno": 3883,
      "rješenje": 3884,
      "enje": 3885,
      "svake": 3886,
      "blag": 3887,
      "##rea": 3888,
      "stro": 3889,
      "ostaje": 3890,
      "soli": 3891,
      "com": 3892,
      "##32": 3893,
      "općine": 3894,
      "zausta": 3895,
      "##795": 3896,
      "##ram": 3897,
      "dom": 3898,
      "cijelu": 3899,
      "pjesme": 3900,
      "##rku": 3901,
      "##rski": 3902,
      "pol": 3903,
      "##naca": 3904,
      "izuze": 3905,
      "vaš": 3906,
      "počeo": 3907,
      "ozlje": 3908,
      "pokazala": 3909,
      "##_271795": 3910,
      "promjena": 3911,
      "polufina": 3912,
      "talijan": 3913,
      "nao": 3914,
      "nadam": 3915,
      "stabi": 3916,
      "postaje": 3917,
      "minute": 3918,
      "susreta": 3919,
      "##nos": 3920,
      "pogre": 3921,
      "##rite": 3922,
      "nikola": 3923,
      "temperatura": 3924,
      "obeća": 3925,
      "imovi": 3926,
      "##nku": 3927,
      "##lice": 3928,
      "kakav": 3929,
      "##ziju": 3930,
      "tema": 3931,
      "vrti": 3932,
      "ljeto": 3933,
      "najvaž": 3934,
      "uboj": 3935,
      "priho": 3936,
      "anto": 3937,
      "dubrovnik": 3938,
      "zaključio": 3939,
      "##čnoj": 3940,
      "napisala": 3941,
      "htje": 3942,
      "##dama": 3943,
      "veze": 3944,
      "##ženi": 3945,
      "srbije": 3946,
      "city": 3947,
      "filma": 3948,
      "prihva": 3949,
      "image": 3950,
      "poznati": 3951,
      "napravio": 3952,
      "vjerujem": 3953,
      "okupi": 3954,
      "traje": 3955,
      "smjeru": 3956,
      "eksplo": 3957,
      "##štine": 3958,
      "ekipa": 3959,
      "scena": 3960,
      "ugro": 3961,
      "##prili": 3962,
      "europski": 3963,
      "kvalifika": 3964,
      "površi": 3965,
      "##nose": 3966,
      "roma": 3967,
      "igrali": 3968,
      "sluša": 3969,
      "dijela": 3970,
      "jela": 3971,
      "don": 3972,
      "govore": 3973,
      "anga": 3974,
      "državlja": 3975,
      "pojača": 3976,
      "koristiti": 3977,
      "skri": 3978,
      "##zirati": 3979,
      "##sen": 3980,
      "herce": 3981,
      "javnost": 3982,
      "redovi": 3983,
      "podru": 3984,
      "lijepo": 3985,
      "zahvaljujući": 3986,
      "kće": 3987,
      "sina": 3988,
      "križe": 3989,
      "bran": 3990,
      "poko": 3991,
      "##čara": 3992,
      "finale": 3993,
      "količi": 3994,
      "ovoga": 3995,
      "##logije": 3996,
      "nekih": 3997,
      "primjerice": 3998,
      "paž": 3999,
      "##valo": 4000,
      "slavo": 4001,
      "škol": 4002,
      "odusta": 4003,
      "novca": 4004,
      "edu": 4005,
      "ino": 4006,
      "ići": 4007,
      "##kade": 4008,
      "dođe": 4009,
      "var": 4010,
      "uspjeli": 4011,
      "ocje": 4012,
      "##kov": 4013,
      "##ćenja": 4014,
      "trenera": 4015,
      "kana": 4016,
      "predi": 4017,
      "sveča": 4018,
      "objašnja": 4019,
      "ante": 4020,
      "početku": 4021,
      "ozljede": 4022,
      "ljubavi": 4023,
      "iznimno": 4024,
      "##gri": 4025,
      "##onal": 4026,
      "posa": 4027,
      "talija": 4028,
      "volim": 4029,
      "našeg": 4030,
      "izgubio": 4031,
      "pritom": 4032,
      "##znu": 4033,
      "##lige": 4034,
      "rece": 4035,
      "##on": 4036,
      "naru": 4037,
      "igrači": 4038,
      "postati": 4039,
      "velikim": 4040,
      "seksual": 4041,
      "ubije": 4042,
      "postu": 4043,
      "##nec": 4044,
      "došla": 4045,
      "promo": 4046,
      "prisje": 4047,
      "strije": 4048,
      "lice": 4049,
      "drugoj": 4050,
      "snaga": 4051,
      "uređa": 4052,
      "centru": 4053,
      "incide": 4054,
      "potica": 4055,
      "statu": 4056,
      "##prav": 4057,
      "##ćuje": 4058,
      "zoran": 4059,
      "ekonom": 4060,
      "wa": 4061,
      "dovo": 4062,
      "gore": 4063,
      "##škog": 4064,
      "kilometara": 4065,
      "inicija": 4066,
      "utje": 4067,
      "dani": 4068,
      "red": 4069,
      "##zacije": 4070,
      "nizo": 4071,
      "bolni": 4072,
      "nudi": 4073,
      "muškarac": 4074,
      "og": 4075,
      "##ny": 4076,
      "autobu": 4077,
      "automobil": 4078,
      "karijere": 4079,
      "kilogra": 4080,
      "objasnio": 4081,
      "##bru": 4082,
      "prista": 4083,
      "reci": 4084,
      "pokreta": 4085,
      "zanimlji": 4086,
      "##mimage": 4087,
      "klima": 4088,
      "tale": 4089,
      "stanju": 4090,
      "kombina": 4091,
      "ila": 4092,
      "robe": 4093,
      "osumnji": 4094,
      "show": 4095,
      "##vit": 4096,
      "pripad": 4097,
      "miro": 4098,
      "##tivna": 4099,
      "austri": 4100,
      "zajednice": 4101,
      "vratio": 4102,
      "istraživanje": 4103,
      "sed": 4104,
      "stje": 4105,
      "vidjeli": 4106,
      "##91": 4107,
      "more": 4108,
      "stalno": 4109,
      "broja": 4110,
      "sredstva": 4111,
      "asiste": 4112,
      "##plika": 4113,
      "regional": 4114,
      "televizi": 4115,
      "pjesmu": 4116,
      "kraljev": 4117,
      "##cka": 4118,
      "##lnoj": 4119,
      "##čena": 4120,
      "potrebe": 4121,
      "##šnjem": 4122,
      "nere": 4123,
      "##stan": 4124,
      "razo": 4125,
      "##min": 4126,
      "vid": 4127,
      "vjenča": 4128,
      "visoki": 4129,
      "zvijezda": 4130,
      "okuplja": 4131,
      "##vrije": 4132,
      "##var": 4133,
      "odbora": 4134,
      "##metni": 4135,
      "##keta": 4136,
      "##đenih": 4137,
      "gradi": 4138,
      "kulture": 4139,
      "mogućnosti": 4140,
      "ožujka": 4141,
      "##vju": 4142,
      "proma": 4143,
      "građe": 4144,
      "njim": 4145,
      "lasa": 4146,
      "rezultate": 4147,
      "svr": 4148,
      "##love": 4149,
      "jaki": 4150,
      "autor": 4151,
      "osigura": 4152,
      "udruga": 4153,
      "##teri": 4154,
      "gosto": 4155,
      "trenutak": 4156,
      "nekada": 4157,
      "komentirao": 4158,
      "h_2720": 4159,
      "k_2720": 4160,
      "o_2720": 4161,
      "##nulo": 4162,
      "reži": 4163,
      "uzbu": 4164,
      "dvoje": 4165,
      "pp_2720": 4166,
      "ep": 4167,
      "bel": 4168,
      "trebaju": 4169,
      "and": 4170,
      "poznato": 4171,
      "jedinstve": 4172,
      "2019": 4173,
      "vijeća": 4174,
      "intervju": 4175,
      "blizini": 4176,
      "##rup": 4177,
      "pam": 4178,
      "prvih": 4179,
      "prvenstvo": 4180,
      "##cijske": 4181,
      "politike": 4182,
      "priču": 4183,
      "##miru": 4184,
      "vidio": 4185,
      "van": 4186,
      "diplo": 4187,
      "staja": 4188,
      "probleme": 4189,
      "zatvore": 4190,
      "psiho": 4191,
      "baby": 4192,
      "lan": 4193,
      "pronaći": 4194,
      "udar": 4195,
      "##dnih": 4196,
      "##tive": 4197,
      "nase": 4198,
      "uspjeh": 4199,
      "jedino": 4200,
      "300": 4201,
      "avio": 4202,
      "yo": 4203,
      "##ds": 4204,
      "##reno": 4205,
      "nega": 4206,
      "moto": 4207,
      "izbornik": 4208,
      "budućnosti": 4209,
      "simbo": 4210,
      "##ana": 4211,
      "medija": 4212,
      "sezoni": 4213,
      "onaj": 4214,
      "otišao": 4215,
      "##rine": 4216,
      "partner": 4217,
      "visi": 4218,
      "##stoj": 4219,
      "usmje": 4220,
      "##rent": 4221,
      "##nuto": 4222,
      "##rnih": 4223,
      "##spje": 4224,
      "##gna": 4225,
      "velikom": 4226,
      "loptu": 4227,
      "razumije": 4228,
      "##ght": 4229,
      "unije": 4230,
      "##zbo": 4231,
      "bitno": 4232,
      "telefo": 4233,
      "uma": 4234,
      "barce": 4235,
      "ben": 4236,
      "potpo": 4237,
      "parizu": 4238,
      "festival": 4239,
      "dp": 4240,
      "iran": 4241,
      "zamije": 4242,
      "izved": 4243,
      "dužno": 4244,
      "raspore": 4245,
      "##dnog": 4246,
      "migra": 4247,
      "##vlji": 4248,
      "našu": 4249,
      "grupe": 4250,
      "svlada": 4251,
      "##rin": 4252,
      "##ljep": 4253,
      "mario": 4254,
      "loko": 4255,
      "proizvođa": 4256,
      "poraza": 4257,
      "epizo": 4258,
      "##mpo": 4259,
      "povu": 4260,
      "postav": 4261,
      "toma": 4262,
      "##ćena": 4263,
      "prakti": 4264,
      "zrakoplo": 4265,
      "##nina": 4266,
      "narod": 4267,
      "##rie": 4268,
      "##vjetni": 4269,
      "hrvatsko": 4270,
      "##štaj": 4271,
      "društvu": 4272,
      "220x": 4273,
      "##mpi": 4274,
      "bici": 4275,
      "##njena": 4276,
      "privla": 4277,
      "treće": 4278,
      "##šića": 4279,
      "prijevo": 4280,
      "reprezentacija": 4281,
      "potvrdio": 4282,
      "mandata": 4283,
      "##nirati": 4284,
      "navi": 4285,
      "takve": 4286,
      "kali": 4287,
      "jadran": 4288,
      "staro": 4289,
      "##njih": 4290,
      "jutro": 4291,
      "fotografija": 4292,
      "točno": 4293,
      "regu": 4294,
      "skupina": 4295,
      "agre": 4296,
      "kora": 4297,
      "##din": 4298,
      "##čaje": 4299,
      "odnos": 4300,
      "prijatelji": 4301,
      "poraz": 4302,
      "barcelo": 4303,
      "boja": 4304,
      "najvi": 4305,
      "vjetar": 4306,
      "cilje": 4307,
      "sezona": 4308,
      "drži": 4309,
      "informacija": 4310,
      "zloči": 4311,
      "zanimljivo": 4312,
      "apso": 4313,
      "iska": 4314,
      "##is": 4315,
      "poe": 4316,
      "početak": 4317,
      "ponekad": 4318,
      "vrijednost": 4319,
      "najboljih": 4320,
      "tomislav": 4321,
      "opisa": 4322,
      "un": 4323,
      "##am": 4324,
      "##dilo": 4325,
      "rusija": 4326,
      "glas": 4327,
      "tvrde": 4328,
      "pokazuju": 4329,
      "poziv": 4330,
      "sudac": 4331,
      "##predsjed": 4332,
      "1024x1": 4333,
      "##vak": 4334,
      "daje": 4335,
      "dose": 4336,
      "moru": 4337,
      "oslo": 4338,
      "ostale": 4339,
      "kreta": 4340,
      "finalu": 4341,
      "nesreće": 4342,
      "poljoprivred": 4343,
      "##đuju": 4344,
      "osijek": 4345,
      "glasova": 4346,
      "##um": 4347,
      "##teo": 4348,
      "kojemu": 4349,
      "počela": 4350,
      "godišnjak": 4351,
      "intelige": 4352,
      "govorio": 4353,
      "učiniti": 4354,
      "lakše": 4355,
      "##tti": 4356,
      "prirod": 4357,
      "trenin": 4358,
      "tuži": 4359,
      "##80x1": 4360,
      "imena": 4361,
      "km": 4362,
      "##ramo": 4363,
      "##lacije": 4364,
      "domi": 4365,
      "raste": 4366,
      "##ker": 4367,
      "primo": 4368,
      "milo": 4369,
      "kupo": 4370,
      "turu": 4371,
      "sloven": 4372,
      "splita": 4373,
      "ljest": 4374,
      "situacije": 4375,
      "suradnji": 4376,
      "iskustva": 4377,
      "sv": 4378,
      "pošto": 4379,
      "znati": 4380,
      "glasno": 4381,
      "ceste": 4382,
      "povijest": 4383,
      "nizozem": 4384,
      "##skr": 4385,
      "veće": 4386,
      "##šević": 4387,
      "obla": 4388,
      "rijeci": 4389,
      "dobit": 4390,
      "vijest": 4391,
      "nagradu": 4392,
      "hvala": 4393,
      "##sh": 4394,
      "##ol": 4395,
      "##tek": 4396,
      "##zirao": 4397,
      "list": 4398,
      "okolnosti": 4399,
      "osvojila": 4400,
      "ujedno": 4401,
      "švica": 4402,
      "##mova": 4403,
      "##ser": 4404,
      "vodo": 4405,
      "izbori": 4406,
      "1280x1": 4407,
      "svjetskog": 4408,
      "kandidat": 4409,
      "38": 4410,
      "akade": 4411,
      "##vile": 4412,
      "##snom": 4413,
      "##šni": 4414,
      "##tković": 4415,
      "europskom": 4416,
      "stigla": 4417,
      "spremni": 4418,
      "kriminali": 4419,
      "htio": 4420,
      "##the": 4421,
      "austra": 4422,
      "zaštite": 4423,
      "##voru": 4424,
      "##mentu": 4425,
      "pohvali": 4426,
      "##jska": 4427,
      "##tivan": 4428,
      "osvr": 4429,
      "želimo": 4430,
      "kapa": 4431,
      "savjet": 4432,
      "nor": 4433,
      "##ćim": 4434,
      "sindi": 4435,
      "ruski": 4436,
      "bolnici": 4437,
      "55": 4438,
      "##boru": 4439,
      "prav": 4440,
      "##cijski": 4441,
      "učinko": 4442,
      "unutra": 4443,
      "jadranu": 4444,
      "alek": 4445,
      "nasto": 4446,
      "##hom": 4447,
      "ruku": 4448,
      "lani": 4449,
      "državnog": 4450,
      "slobodna": 4451,
      "nesreća": 4452,
      "el": 4453,
      "bespla": 4454,
      "##tski": 4455,
      "goran": 4456,
      "##njim": 4457,
      "titu": 4458,
      "strada": 4459,
      "radnika": 4460,
      "članovi": 4461,
      "zraka": 4462,
      "košarka": 4463,
      "##nskoj": 4464,
      "##26": 4465,
      "popla": 4466,
      "##vini": 4467,
      "brojni": 4468,
      "obavlja": 4469,
      "amerika": 4470,
      "tržištu": 4471,
      "instagramu": 4472,
      "zatra": 4473,
      "##ger": 4474,
      "##nijeg": 4475,
      "vukova": 4476,
      "budućnost": 4477,
      "stanovni": 4478,
      "sru": 4479,
      "##lizira": 4480,
      "##vana": 4481,
      "budi": 4482,
      "slike": 4483,
      "odgovorio": 4484,
      "nevjeroja": 4485,
      "ene": 4486,
      "njoj": 4487,
      "teren": 4488,
      "brazi": 4489,
      "nastupi": 4490,
      "stranka": 4491,
      "inozem": 4492,
      "37": 4493,
      "ani": 4494,
      "eg": 4495,
      "ika": 4496,
      "ver": 4497,
      "197": 4498,
      "četvrt": 4499,
      "karijeri": 4500,
      "andrej": 4501,
      "uje": 4502,
      "##vito": 4503,
      "##lega": 4504,
      "rasta": 4505,
      "grupa": 4506,
      "##dnom": 4507,
      "karak": 4508,
      "nepri": 4509,
      "odvjetni": 4510,
      "ostala": 4511,
      "zapovje": 4512,
      "popra": 4513,
      "##lena": 4514,
      "voda": 4515,
      "kim": 4516,
      "proces": 4517,
      "##dove": 4518,
      "##čari": 4519,
      "ruske": 4520,
      "glavnog": 4521,
      "rješenja": 4522,
      "##listi": 4523,
      "##rov": 4524,
      "serije": 4525,
      "##nijela": 4526,
      "našoj": 4527,
      "provodi": 4528,
      "priopćenju": 4529,
      "razvoja": 4530,
      "razdoblju": 4531,
      "industri": 4532,
      "skr": 4533,
      "šta": 4534,
      "neiz": 4535,
      "listi": 4536,
      "halji": 4537,
      "različiti": 4538,
      "navijači": 4539,
      "izbjega": 4540,
      "##id": 4541,
      "dobre": 4542,
      "##dera": 4543,
      "tera": 4544,
      "papi": 4545,
      "##tivnih": 4546,
      "postoja": 4547,
      "##ntima": 4548,
      "poznat": 4549,
      "istaknula": 4550,
      "svakog": 4551,
      "lokomo": 4552,
      "\\/": 4553,
      "##žna": 4554,
      "trene": 4555,
      "odnosi": 4556,
      "dogodila": 4557,
      "osjećaj": 4558,
      "##dnik": 4559,
      "##zaciju": 4560,
      "vina": 4561,
      "bori": 4562,
      "poruka": 4563,
      "karijeru": 4564,
      "festivala": 4565,
      "##rira": 4566,
      "inspi": 4567,
      "laga": 4568,
      "zahvali": 4569,
      "povećanje": 4570,
      "tenisa": 4571,
      "dužnos": 4572,
      "minima": 4573,
      "##...": 4574,
      "njihovu": 4575,
      "prošlog": 4576,
      "rezultati": 4577,
      "odmo": 4578,
      "obrati": 4579,
      "našem": 4580,
      "##ments": 4581,
      "dosada": 4582,
      "zadnje": 4583,
      "##nut": 4584,
      "preo": 4585,
      "srca": 4586,
      "razliku": 4587,
      "enja": 4588,
      "##vamo": 4589,
      "##ženja": 4590,
      "školu": 4591,
      "zatvora": 4592,
      "borbi": 4593,
      "istraživanja": 4594,
      "iznos": 4595,
      "##vis": 4596,
      "##mena": 4597,
      "europskih": 4598,
      "ideja": 4599,
      "održati": 4600,
      "##vinu": 4601,
      "##gara": 4602,
      "##ljenje": 4603,
      "##hor": 4604,
      "poznata": 4605,
      "navečer": 4606,
      "zgrade": 4607,
      "it": 4608,
      "##kati": 4609,
      "kama": 4610,
      "##bama": 4611,
      "##zama": 4612,
      "predvo": 4613,
      "vozač": 4614,
      "ati": 4615,
      "volje": 4616,
      "ostav": 4617,
      "##vani": 4618,
      "kolek": 4619,
      "provede": 4620,
      "ravno": 4621,
      "##gallery": 4622,
      "boje": 4623,
      "konkre": 4624,
      "turnira": 4625,
      "htt": 4626,
      "olu": 4627,
      "##ft": 4628,
      "serija": 4629,
      "donio": 4630,
      "##stvima": 4631,
      "##put": 4632,
      "državni": 4633,
      "tjele": 4634,
      "premijera": 4635,
      "ao": 4636,
      "flo": 4637,
      "ine": 4638,
      "yor": 4639,
      "##noga": 4640,
      "golova": 4641,
      "moram": 4642,
      "##proda": 4643,
      "programu": 4644,
      "obožava": 4645,
      "##jskih": 4646,
      "novča": 4647,
      "odigrao": 4648,
      "konkuren": 4649,
      "##nne": 4650,
      "sas": 4651,
      "##pisi": 4652,
      "cijele": 4653,
      "maksima": 4654,
      "##_271988": 4655,
      "priopći": 4656,
      "hercego": 4657,
      "kilograma": 4658,
      "etvr": 4659,
      "##kciju": 4660,
      "igraju": 4661,
      "temelju": 4662,
      "velikog": 4663,
      "milijardi": 4664,
      "ex": 4665,
      "jesu": 4666,
      "##mana": 4667,
      "sino": 4668,
      "kupu": 4669,
      "luke": 4670,
      "završila": 4671,
      "legenda": 4672,
      "##lnost": 4673,
      "##tice": 4674,
      "##ženo": 4675,
      "vremenu": 4676,
      "svjetski": 4677,
      "blago": 4678,
      "glumica": 4679,
      "mobite": 4680,
      "etiri": 4681,
      "plju": 4682,
      "ulazi": 4683,
      "##tetu": 4684,
      "pribli": 4685,
      "##šili": 4686,
      "simp": 4687,
      "londo": 4688,
      "spomi": 4689,
      "velik": 4690,
      "arhi": 4691,
      "smatraju": 4692,
      "zaštitu": 4693,
      "05": 4694,
      "ara": 4695,
      "naju": 4696,
      "dokaza": 4697,
      "teri": 4698,
      "standa": 4699,
      "##vljuje": 4700,
      "derbi": 4701,
      "39": 4702,
      "zvo": 4703,
      "špi": 4704,
      "progno": 4705,
      "navijača": 4706,
      "pjesma": 4707,
      "##sc": 4708,
      "##pić": 4709,
      "razvija": 4710,
      "pravila": 4711,
      "tisuće": 4712,
      "ulice": 4713,
      "raspolo": 4714,
      "##zmu": 4715,
      "nepozna": 4716,
      "1280x": 4717,
      "nagrade": 4718,
      "kapaci": 4719,
      "eno": 4720,
      "##godio": 4721,
      "jača": 4722,
      "stariji": 4723,
      "predlo": 4724,
      "igrama": 4725,
      "školi": 4726,
      "gledati": 4727,
      "blizu": 4728,
      "konačno": 4729,
      "bron": 4730,
      "sk": 4731,
      "dovesti": 4732,
      "samosta": 4733,
      "hama": 4734,
      "njezine": 4735,
      "slika": 4736,
      "pretpo": 4737,
      "1024x": 4738,
      "gri": 4739,
      "šved": 4740,
      "##čije": 4741,
      "##liga": 4742,
      "##tona": 4743,
      "##stiti": 4744,
      "potpredsjed": 4745,
      "plas": 4746,
      "poruku": 4747,
      "kategoriji": 4748,
      "aju": 4749,
      "##ssi": 4750,
      "##dnu": 4751,
      "zadru": 4752,
      "##vec": 4753,
      "lista": 4754,
      "trage": 4755,
      "stoljeća": 4756,
      "elektro": 4757,
      "adre": 4758,
      "ugovo": 4759,
      "kog": 4760,
      "##njeva": 4761,
      "petra": 4762,
      "autoce": 4763,
      "jednako": 4764,
      "slijedi": 4765,
      "inova": 4766,
      "wil": 4767,
      "rela": 4768,
      "##bacio": 4769,
      "stan": 4770,
      "prednost": 4771,
      "medije": 4772,
      "saveza": 4773,
      "sumnja": 4774,
      "##tnoj": 4775,
      "##zde": 4776,
      "##kin": 4777,
      "mal": 4778,
      "sporazu": 4779,
      "nagrada": 4780,
      "objašnjava": 4781,
      "potak": 4782,
      "novoj": 4783,
      "puca": 4784,
      "ostalim": 4785,
      "uvjetima": 4786,
      "večeras": 4787,
      "prijedlog": 4788,
      "kriminalisti": 4789,
      "##23": 4790,
      "čine": 4791,
      "filip": 4792,
      "uki": 4793,
      "##sad": 4794,
      "prošli": 4795,
      "velikih": 4796,
      "pozvao": 4797,
      "donijeti": 4798,
      "esto": 4799,
      "##rskoj": 4800,
      "dodje": 4801,
      "##mer": 4802,
      "##zacija": 4803,
      "##šen": 4804,
      "američki": 4805,
      "pozdra": 4806,
      "apsolu": 4807,
      "baze": 4808,
      "djeci": 4809,
      "njegovim": 4810,
      "##sport": 4811,
      "članova": 4812,
      "pobijedio": 4813,
      "usluga": 4814,
      "igru": 4815,
      "##tru": 4816,
      "##ld": 4817,
      "žive": 4818,
      "##slava": 4819,
      "podataka": 4820,
      "##nisti": 4821,
      "nalaze": 4822,
      "izvu": 4823,
      "masli": 4824,
      "opti": 4825,
      "##vljen": 4826,
      "dizaj": 4827,
      "aplika": 4828,
      "##mlja": 4829,
      "##ture": 4830,
      "uslije": 4831,
      "postupak": 4832,
      "##land": 4833,
      "košta": 4834,
      "med": 4835,
      "kuću": 4836,
      "ostalo": 4837,
      "udarac": 4838,
      "sredstava": 4839,
      "pravosu": 4840,
      "zadnjih": 4841,
      "42": 4842,
      "ujedi": 4843,
      "susjed": 4844,
      "prio": 4845,
      "prednosti": 4846,
      "ulica": 4847,
      "bolnice": 4848,
      "220x1": 4849,
      "##lacija": 4850,
      "kop": 4851,
      "##lon": 4852,
      "tam": 4853,
      "##ćenje": 4854,
      "stana": 4855,
      "##vniku": 4856,
      "kreće": 4857,
      "slova": 4858,
      "obave": 4859,
      "https": 4860,
      "fri": 4861,
      "##ts": 4862,
      "##šo": 4863,
      "##kte": 4864,
      "##čava": 4865,
      "osni": 4866,
      "tikto": 4867,
      "ovogodi": 4868,
      "vrsta": 4869,
      "##vljeni": 4870,
      "popular": 4871,
      "nukle": 4872,
      "velikoj": 4873,
      "pjevačica": 4874,
      "alba": 4875,
      "studenog": 4876,
      "temperature": 4877,
      "##us": 4878,
      "##rene": 4879,
      "##šan": 4880,
      "inspe": 4881,
      "morao": 4882,
      "ukrajine": 4883,
      "redovito": 4884,
      "ušao": 4885,
      "##novima": 4886,
      "proba": 4887,
      "propusti": 4888,
      "organizacije": 4889,
      "rješa": 4890,
      "čovjeka": 4891,
      "poduzet": 4892,
      "isključi": 4893,
      "manife": 4894,
      "##jskom": 4895,
      "##laga": 4896,
      "##tego": 4897,
      "baca": 4898,
      "znate": 4899,
      "bur": 4900,
      "1920": 4901,
      "njegovom": 4902,
      "75": 4903,
      "##žnja": 4904,
      "##bice": 4905,
      "rumu": 4906,
      "srce": 4907,
      "sadr": 4908,
      "prijatelja": 4909,
      "skladu": 4910,
      "tehnologi": 4911,
      "prošao": 4912,
      "preži": 4913,
      "##graf": 4914,
      "detalj": 4915,
      "mandat": 4916,
      "jugosla": 4917,
      "zbi": 4918,
      "donal": 4919,
      "ratu": 4920,
      "##njene": 4921,
      "##ljka": 4922,
      "stavlja": 4923,
      "britan": 4924,
      "podacima": 4925,
      "zahtjev": 4926,
      "aja": 4927,
      "##lira": 4928,
      "koga": 4929,
      "sastav": 4930,
      "rastu": 4931,
      "radovi": 4932,
      "teo": 4933,
      "##ljivi": 4934,
      "kuhi": 4935,
      "znak": 4936,
      "promijeniti": 4937,
      "palesti": 4938,
      "##njeni": 4939,
      "javnog": 4940,
      "##žuje": 4941,
      "ljepo": 4942,
      "najveća": 4943,
      "pokazali": 4944,
      "skoro": 4945,
      "nastavku": 4946,
      "ubrzo": 4947,
      "##liji": 4948,
      "doista": 4949,
      "mala": 4950,
      "hrvatskim": 4951,
      "aktivi": 4952,
      "izabra": 4953,
      "medijima": 4954,
      "odabra": 4955,
      "odgovornost": 4956,
      "ivica": 4957,
      "##10": 4958,
      "destina": 4959,
      "##ham": 4960,
      "filmu": 4961,
      "napravili": 4962,
      "modrić": 4963,
      "zag": 4964,
      "##bičaje": 4965,
      "spor": 4966,
      "srbija": 4967,
      "širo": 4968,
      "vijesti": 4969,
      "spreman": 4970,
      "sasvim": 4971,
      "ch": 4972,
      "naći": 4973,
      "##tali": 4974,
      "##voren": 4975,
      "nep": 4976,
      "igrače": 4977,
      "riječima": 4978,
      "uspješno": 4979,
      "pored": 4980,
      "prekra": 4981,
      "petro": 4982,
      "idemo": 4983,
      "2018": 4984,
      "napu": 4985,
      "postupa": 4986,
      "##sigu": 4987,
      "razmje": 4988,
      "prostoru": 4989,
      "trenutačno": 4990,
      "ane": 4991,
      "uka": 4992,
      "uzima": 4993,
      "napla": 4994,
      "##reda": 4995,
      "znatno": 4996,
      "odnose": 4997,
      "istom": 4998,
      "rizik": 4999
    }
  }
}