<unk>	0
<s>	0
</s>	0
je	-0
▁s	-1
▁p	-2
▁n	-3
▁i	-4
ra	-5
ko	-6
▁o	-7
▁u	-8
▁d	-9
ti	-10
▁je	-11
ni	-12
li	-13
re	-14
ro	-15
ta	-16
▁na	-17
la	-18
va	-19
no	-20
ri	-21
ja	-22
ka	-23
▁po	-24
na	-25
ma	-26
te	-27
vi	-28
▁z	-29
to	-30
vo	-31
▁m	-32
▁,	-33
▁b	-34
ca	-35
ju	-36
ve	-37
ji	-38
▁za	-39
di	-40
▁ko	-41
▁.	-42
ci	-43
▁a	-44
ne	-45
da	-46
lo	-47
go	-48
▁se	-49
▁da	-50
▁su	-51
▁do	-52
st	-53
▁ne	-54
ru	-55
▁ka	-56
le	-57
▁od	-58
mo	-59
ki	-60
▁t	-61
▁bi	-62
ku	-63
▁iz	-64
▁pro	-65
nu	-66
me	-67
▁P	-68
sta	-69
▁S	-70
ke	-71
ga	-72
▁sa	-73
nje	-74
će	-75
▁ra	-76
ron	-77
▁"	-78
caron	-79
sti	-80
▁M	-81
▁pri	-82
▁pre	-83
▁N	-84
ije	-85
▁mo	-86
lje	-87
▁g	-88
▁š	-89
lu	-90
zi	-91
če	-92
či	-93
nja	-94
▁k	-95
de	-96
▁D	-97
▁te	-98
bi	-99
po	-100
▁to	-101
▁go	-102
mi	-103
cu	-104
ce	-105
pa	-106
▁B	-107
tu	-108
ba	-109
bo	-110
▁v	-111
▁re	-112
▁K	-113
že	-114
▁e	-115
si	-116
▁T	-117
sko	-118
▁I	-119
▁H	-120
ča	-121
▁koji	-122
▁no	-123
▁1	-124
▁O	-125
ccaron	-126
ći	-127
še	-128
za	-129
▁U	-130
▁A	-131
ski	-132
▁-	-133
sa	-134
ži	-135
▁2	-136
▁V	-137
▁će	-138
lja	-139
▁R	-140
sto	-141
du	-142
▁vi	-143
▁ni	-144
gu	-145
▁ve	-146
▁mi	-147
jo	-148
pi	-149
gra	-150
do	-151
▁ma	-152
lju	-153
▁pa	-154
cute	-155
cacute	-156
▁Z	-157
▁ta	-158
▁li	-159
▁h	-160
rva	-161
▁godi	-162
▁što	-163
▁f	-164
▁&	-165
rije	-166
se	-167
ža	-168
▁st	-169
ća	-170
▁ima	-171
ša	-172
nog	-173
vje	-174
cije	-175
▁G	-176
▁ob	-177
▁J	-178
nom	-179
lji	-180
dni	-181
vr	-182
▁L	-183
▁me	-184
▁Na	-185
ske	-186
cija	-187
zcaron	-188
be	-189
▁vo	-190
▁ti	-191
lj	-192
nih	-193
▁svo	-194
▁os	-195
pu	-196
ši	-197
rvat	-198
▁Ma	-199
▁tre	-200
▁ja	-201
▁bo	-202
en	-203
▁va	-204
▁pu	-205
ran	-206
▁kako	-207
vu	-208
nim	-209
▁sta	-210
su	-211
▁Po	-212
gi	-213
▁dru	-214
pe	-215
▁koje	-216
zo	-217
▁nje	-218
vije	-219
▁(	-220
nji	-221
▁naj	-222
▁'	-223
dje	-224
▁nije	-225
▁raz	-226
▁in	-227
▁E	-228
▁Za	-229
▁pred	-230
nju	-231
kon	-232
mje	-233
vno	-234
▁sve	-235
kom	-236
▁C	-237
▁ali	-238
▁20	-239
er	-240
▁kao	-241
▁:	-242
tak	-243
ska	-244
sje	-245
▁sam	-246
▁F	-247
▁di	-248
ho	-249
▁pr	-250
dno	-251
ge	-252
mu	-253
▁si	-254
▁če	-255
▁gra	-256
▁ku	-257
▁Ka	-258
ze	-259
pre	-260
stu	-261
▁",	-262
▁de	-263
or	-264
▁is	-265
pra	-266
▁mje	-267
▁Hrvat	-268
vić	-269
▁godine	-270
▁pra	-271
vni	-272
▁pot	-273
▁Mi	-274
▁zna	-275
▁pos	-276
rža	-277
▁pi	-278
▁smo	-279
zu	-280
tni	-281
▁biti	-282
▁pod	-283
zna	-284
▁jo	-285
đe	-286
▁koja	-287
an	-288
▁č	-289
sni	-290
▁dje	-291
đu	-292
▁pla	-293
bu	-294
tno	-295
so	-296
▁ili	-297
đa	-298
▁ot	-299
00	-300
tra	-301
▁nakon	-302
liko	-303
ina	-304
vlja	-305
govo	-306
▁dana	-307
skog	-308
▁samo	-309
▁lju	-310
▁3	-311
▁više	-312
rno	-313
▁tu	-314
▁Š	-315
▁kon	-316
rati	-317
▁ga	-318
▁mu	-319
▁nji	-320
▁Ne	-321
▁prije	-322
▁bio	-323
▁gla	-324
rt	-325
▁us	-326
▁ovo	-327
▁tra	-328
kao	-329
▁igra	-330
dio	-331
▁ba	-332
▁eu	-333
▁Do	-334
▁uz	-335
▁lo	-336
dan	-337
▁ju	-338
▁ži	-339
▁Da	-340
▁svi	-341
šta	-342
▁jed	-343
men	-344
▁tako	-345
▁ru	-346
rni	-347
▁kra	-348
gre	-349
tiv	-350
bog	-351
▁du	-352
ste	-353
ar	-354
lni	-355
čki	-356
▁stra	-357
▁jer	-358
▁može	-359
▁još	-360
▁poli	-361
▁že	-362
▁či	-363
nije	-364
dst	-365
tje	-366
▁pe	-367
▁To	-368
sno	-369
gle	-370
▁osta	-371
▁Ko	-372
vanje	-373
dra	-374
skoj	-375
▁la	-376
▁rekao	-377
žu	-378
▁mogu	-379
▁treba	-380
vio	-381
▁be	-382
▁Mo	-383
ču	-384
lno	-385
▁spo	-386
gla	-387
bro	-388
ću	-389
vati	-390
▁godina	-391
▁posto	-392
▁zbog	-393
▁slu	-394
ciju	-395
▁ro	-396
mije	-397
skom	-398
▁?	-399
fi	-400
skih	-401
telji	-402
ha	-403
▁bu	-404
št	-405
šte	-406
sku	-407
▁sva	-408
▁Sa	-409
▁c	-410
rok	-411
telj	-412
▁bilo	-413
▁vr	-414
▁4	-415
▁bro	-416
sjedni	-417
vali	-418
▁No	-419
▁202	-420
▁vrije	-421
vlje	-422
▁Ra	-423
▁vje	-424
▁5	-425
▁obja	-426
čno	-427
godi	-428
▁on	-429
▁oso	-430
▁veli	-431
van	-432
▁cije	-433
kla	-434
lije	-435
stra	-436
▁Ja	-437
vanja	-438
stva	-439
▁oko	-440
▁)	-441
▁obi	-442
▁vla	-443
▁ih	-444
▁eura	-445
takmi	-446
fe	-447
kra	-448
▁već	-449
dstrok	-450
▁dok	-451
▁Bi	-452
ren	-453
tar	-454
▁hrvat	-455
nici	-456
bje	-457
in	-458
..	-459
▁Ta	-460
ven	-461
rija	-462
tro	-463
vori	-464
▁utakmi	-465
ona	-466
▁au	-467
▁tri	-468
▁bila	-469
red	-470
pli	-471
čko	-472
▁doda	-473
▁radi	-474
▁Re	-475
▁dobi	-476
▁ci	-477
▁Pa	-478
kri	-479
▁Bo	-480
▁ova	-481
reme	-482
▁posta	-483
▁om	-484
▁Eu	-485
što	-486
jom	-487
▁kada	-488
joj	-489
klju	-490
vom	-491
lim	-492
▁op	-493
▁izbo	-494
▁živo	-495
▁Me	-496
ter	-497
▁mora	-498
▁sto	-499
▁6	-500
▁le	-501
▁predsjedni	-502
▁tije	-503
il	-504
el	-505
▁nas	-506
▁!	-507
▁njego	-508
▁Ba	-509
kre	-510
▁novi	-511
viti	-512
▁Euro	-513
tko	-514
ciji	-515
▁im	-516
▁ce	-517
om	-518
tom	-519
▁svoje	-520
nika	-521
▁ljudi	-522
▁prema	-523
▁drža	-524
▁odlu	-525
nica	-526
ner	-527
kti	-528
▁kori	-529
▁ze	-530
▁Ha	-531
▁...	-532
▁19	-533
▁neko	-534
▁dva	-535
▁kri	-536
▁Ni	-537
▁protiv	-538
▁odno	-539
stvo	-540
šti	-541
vara	-542
▁Pe	-543
vima	-544
ško	-545
lazi	-546
▁ki	-547
rom	-548
bno	-549
▁Va	-550
▁Ve	-551
▁".	-552
▁7	-553
sla	-554
▁bez	-555
▁Zagre	-556
▁auto	-557
pri	-558
▁ove	-559
voj	-560
▁kre	-561
▁nam	-562
▁njiho	-563
hi	-564
▁nasta	-565
▁jedan	-566
▁kad	-567
▁sla	-568
▁rije	-569
▁poče	-570
nima	-571
▁drugi	-572
▁iza	-573
ble	-574
pisa	-575
▁ča	-576
spo	-577
▁gdje	-578
▁sre	-579
čke	-580
dar	-581
nti	-582
met	-583
▁nego	-584
he	-585
▁Pro	-586
▁sti	-587
cima	-588
▁klu	-589
▁tr	-590
▁sada	-591
log	-592
ruč	-593
▁pita	-594
nost	-595
▁Iz	-596
▁mili	-597
▁Je	-598
▁mla	-599
tka	-600
▁dije	-601
rani	-602
▁pomo	-603
▁sje	-604
kup	-605
nd	-606
iz	-607
▁svje	-608
▁Go	-609
vila	-610
▁Vi	-611
▁nema	-612
jte	-613
sre	-614
pje	-615
tvr	-616
▁broj	-617
for	-618
nt	-619
nski	-620
šao	-621
stup	-622
▁pobje	-623
cij	-624
▁toga	-625
nuti	-626
tor	-627
▁lije	-628
▁nisu	-629
jući	-630
nik	-631
▁Du	-632
▁prija	-633
▁Jo	-634
bli	-635
▁trenu	-636
▁pje	-637
▁pove	-638
vih	-639
nosti	-640
▁Li	-641
▁tvr	-642
▁W	-643
▁sigu	-644
▁Ru	-645
▁Mar	-646
▁vrijeme	-647
▁Pre	-648
▁dobro	-649
▁or	-650
vim	-651
▁stu	-652
ndi	-653
▁Č	-654
lova	-655
▁še	-656
nuo	-657
▁među	-658
dne	-659
lom	-660
▁8	-661
▁svije	-662
▁sma	-663
rao	-664
▁poka	-665
▁upra	-666
gleda	-667
▁pozi	-668
▁fo	-669
tua	-670
▁fina	-671
▁politi	-672
▁stva	-673
tim	-674
godiš	-675
▁popu	-676
▁društ	-677
▁taj	-678
▁predsta	-679
▁proble	-680
pada	-681
▁ako	-682
dna	-683
▁obra	-684
▁sezo	-685
▁dio	-686
▁par	-687
▁Gra	-688
▁Be	-689
▁Ž	-690
▁kod	-691
dom	-692
▁lje	-693
star	-694
skim	-695
4.	-696
▁oz	-697
▁ide	-698
▁zdra	-699
▁ri	-700
lan	-701
▁zaje	-702
meta	-703
▁mjese	-704
lne	-705
bije	-706
vijek	-707
▁proš	-708
▁so	-709
▁9	-710
tjeca	-711
sli	-712
▁Su	-713
jek	-714
▁ste	-715
▁koju	-716
▁potre	-717
▁ško	-718
▁svoji	-719
▁Pri	-720
vaju	-721
▁tje	-722
▁Dina	-723
0.	-724
ako	-725
▁nekoliko	-726
gao	-727
pan	-728
▁poru	-729
▁medi	-730
rio	-731
ška	-732
▁Ro	-733
tan	-734
▁Ju	-735
1.	-736
▁isti	-737
čin	-738
▁danas	-739
▁/	-740
▁bili	-741
vog	-742
▁drugo	-743
▁proiz	-744
▁zah	-745
nice	-746
voji	-747
▁zavr	-748
ng	-749
▁sati	-750
sam	-751
▁najbo	-752
▁uspje	-753
ciona	-754
diti	-755
pla	-756
▁Bu	-757
▁pose	-758
▁zem	-759
▁neki	-760
▁ho	-761
▁upo	-762
▁kom	-763
▁oba	-764
▁miliju	-765
man	-766
▁r	-767
vao	-768
gani	-769
vija	-770
lek	-771
▁nu	-772
rta	-773
▁Od	-774
▁poslje	-775
čio	-776
▁otkri	-777
▁sr	-778
▁Lu	-779
▁sku	-780
▁sna	-781
niji	-782
▁isto	-783
▁osi	-784
▁prili	-785
lano	-786
▁kaže	-787
▁pozna	-788
▁kro	-789
klo	-790
vne	-791
zul	-792
đer	-793
▁kaza	-794
bra	-795
meri	-796
dnji	-797
kraji	-798
▁jedno	-799
▁Hrvatske	-800
2.	-801
gen	-802
▁slo	-803
tku	-804
▁odgovo	-805
zira	-806
▁tome	-807
▁izra	-808
▁proizvo	-809
žbe	-810
▁Nakon	-811
rak	-812
▁prvi	-813
▁nešto	-814
njem	-815
3.	-816
▁tijekom	-817
len	-818
rima	-819
risti	-820
zen	-821
▁fa	-822
nira	-823
▁doma	-824
▁Lo	-825
vna	-826
▁Rije	-827
▁malo	-828
▁nogo	-829
▁puno	-830
stve	-831
▁istra	-832
vore	-833
▁put	-834
▁sigurno	-835
▁Nje	-836
▁žu	-837
đen	-838
din	-839
▁umje	-840
▁Hrvatskoj	-841
tio	-842
ković	-843
tne	-844
▁osje	-845
▁vozi	-846
nosi	-847
▁uvijek	-848
▁prva	-849
▁zapo	-850
vnog	-851
▁organi	-852
▁Vla	-853
▁dvije	-854
hu	-855
▁nad	-856
▁dr	-857
▁La	-858
▁izme	-859
▁Tu	-860
▁inte	-861
▁Pu	-862
volj	-863
jem	-864
al	-865
čka	-866
▁Spli	-867
▁15	-868
▁rezul	-869
nistar	-870
▁pono	-871
▁nika	-872
▁Sve	-873
▁201	-874
▁kojima	-875
vili	-876
▁poja	-877
im	-878
▁njezi	-879
▁vreme	-880
▁doga	-881
▁sad	-882
vala	-883
▁govori	-884
telja	-885
▁milijuna	-886
vši	-887
▁ona	-888
▁br	-889
▁održa	-890
jdu	-891
op	-892
dova	-893
leda	-894
▁jedna	-895
gli	-896
▁kojem	-897
nio	-898
▁tro	-899
▁sko	-900
▁pogo	-901
tiri	-902
žno	-903
▁oče	-904
rne	-905
▁Le	-906
▁rekla	-907
zenta	-908
vla	-909
dnje	-910
čni	-911
▁In	-912
▁An	-913
▁Se	-914
▁fil	-915
▁dalje	-916
▁dvo	-917
▁napra	-918
▁neće	-919
▁10	-920
▁euro	-921
▁imaju	-922
pak	-923
▁najve	-924
▁područ	-925
▁gu	-926
▁pet	-927
čaj	-928
▁tek	-929
▁dan	-930
▁uklju	-931
▁rezulta	-932
njak	-933
nija	-934
nda	-935
▁kojoj	-936
000	-937
▁svoj	-938
▁Hajdu	-939
bri	-940
▁onda	-941
niti	-942
▁Hrvatska	-943
▁Te	-944
više	-945
tovo	-946
▁uvje	-947
jan	-948
▁dese	-949
dru	-950
▁vrlo	-951
▁voj	-952
▁između	-953
▁mre	-954
▁jako	-955
▁Vo	-956
kr	-957
▁ču	-958
▁budu	-959
đi	-960
prezenta	-961
vnom	-962
vreme	-963
▁situa	-964
▁vam	-965
▁Ku	-966
forma	-967
raž	-968
▁gleda	-969
ime	-970
▁ope	-971
▁joj	-972
▁ćemo	-973
▁De	-974
stru	-975
▁prosto	-976
▁reprezenta	-977
▁Europ	-978
šu	-979
▁čak	-980
▁veći	-981
▁događa	-982
smo	-983
ver	-984
▁razli	-985
▁ak	-986
▁svojim	-987
▁oni	-988
▁navo	-989
",	-990
nj	-991
tke	-992
▁pokaza	-993
čić	-994
▁njih	-995
ak	-996
▁projek	-997
▁smje	-998
▁Sr	-999
sije	-1000
tri	-1001
▁susta	-1002
▁ši	-1003
▁Kako	-1004
▁kroz	-1005
dri	-1006
▁svoju	-1007
▁ras	-1008
▁tak	-1009
čne	-1010
▁naše	-1011
▁poku	-1012
kli	-1013
▁Ga	-1014
▁kvali	-1015
▁dola	-1016
▁predsjednik	-1017
▁ista	-1018
stri	-1019
▁ono	-1020
▁mom	-1021
nama	-1022
▁progra	-1023
▁vra	-1024
▁vodi	-1025
čkog	-1026
▁grad	-1027
pro	-1028
bio	-1029
▁hi	-1030
zne	-1031
▁puta	-1032
vor	-1033
▁sli	-1034
▁loka	-1035
roja	-1036
nera	-1037
tre	-1038
▁minu	-1039
▁lu	-1040
▁poslo	-1041
▁četvr	-1042
kle	-1043
▁ge	-1044
▁ov	-1045
▁mjesto	-1046
▁tom	-1047
▁također	-1048
▁veliki	-1049
ks	-1050
▁j	-1051
▁Ukraji	-1052
5.	-1053
▁bra	-1054
▁poput	-1055
▁pripre	-1056
noj	-1057
▁zajedni	-1058
šli	-1059
▁zašti	-1060
▁ula	-1061
▁),	-1062
vac	-1063
▁svjet	-1064
titi	-1065
▁glaz	-1066
▁prven	-1067
▁osoba	-1068
šnje	-1069
den	-1070
▁komen	-1071
nače	-1072
▁osigu	-1073
▁pora	-1074
▁fi	-1075
▁jednom	-1076
▁koliko	-1077
ch	-1078
▁prona	-1079
▁kandi	-1080
riti	-1081
▁ime	-1082
ški	-1083
▁preko	-1084
▁izja	-1085
▁način	-1086
▁Dinamo	-1087
▁tada	-1088
▁vrati	-1089
▁Ako	-1090
čiti	-1091
▁društve	-1092
▁konce	-1093
▁napa	-1094
▁18	-1095
▁pret	-1096
▁europ	-1097
▁uda	-1098
▁četiri	-1099
▁jedi	-1100
▁ovaj	-1101
▁druge	-1102
6.	-1103
▁mnog	-1104
govara	-1105
▁Si	-1106
vnosti	-1107
▁dugo	-1108
▁utakmice	-1109
▁Fran	-1110
▁zat	-1111
▁cr	-1112
▁tko	-1113
▁vidje	-1114
▁tisu	-1115
uze	-1116
▁podi	-1117
▁spa	-1118
▁Tako	-1119
▁smatra	-1120
nova	-1121
▁osvoji	-1122
▁službe	-1123
▁',	-1124
▁odnosno	-1125
čili	-1126
▁neka	-1127
bora	-1128
▁građa	-1129
vijesti	-1130
kovi	-1131
rek	-1132
▁nastu	-1133
štu	-1134
com	-1135
per	-1136
7.	-1137
šnji	-1138
mir	-1139
▁istak	-1140
tira	-1141
DZ	-1142
▁manje	-1143
sao	-1144
▁piše	-1145
movi	-1146
tara	-1147
▁ure	-1148
hva	-1149
▁glu	-1150
▁kul	-1151
▁bli	-1152
▁zra	-1153
▁naja	-1154
lić	-1155
▁Vu	-1156
▁Naj	-1157
▁akti	-1158
▁život	-1159
▁posje	-1160
▁foto	-1161
▁kandida	-1162
▁al	-1163
vesti	-1164
ksi	-1165
▁pokuša	-1166
▁Di	-1167
▁sura	-1168
▁spre	-1169
▁obitelji	-1170
▁sezone	-1171
rana	-1172
▁bit	-1173
▁razi	-1174
▁12	-1175
▁HDZ	-1176
nske	-1177
▁vije	-1178
nula	-1179
▁želi	-1180
▁zdrav	-1181
▁imao	-1182
▁Au	-1183
▁bor	-1184
▁promje	-1185
▁0	-1186
▁Varaž	-1187
▁pokre	-1188
▁dogodi	-1189
▁primje	-1190
▁skupi	-1191
▁strane	-1192
dam	-1193
▁susre	-1194
stvu	-1195
▁ski	-1196
šić	-1197
nali	-1198
▁ovom	-1199
▁mladi	-1200
sle	-1201
tima	-1202
▁Iva	-1203
čer	-1204
▁bri	-1205
▁vremena	-1206
ljede	-1207
mobi	-1208
rac	-1209
▁natjeca	-1210
plo	-1211
▁finan	-1212
cijama	-1213
▁ovi	-1214
ljivo	-1215
ali	-1216
▁ener	-1217
▁kr	-1218
▁ulo	-1219
mpa	-1220
on	-1221
▁stran	-1222
tet	-1223
▁vlasti	-1224
nk	-1225
▁EU	-1226
▁vas	-1227
▁nave	-1228
▁inter	-1229
▁pravo	-1230
▁pone	-1231
▁koristi	-1232
▁Al	-1233
▁završi	-1234
▁potvr	-1235
▁Ima	-1236
▁župa	-1237
▁zaklju	-1238
sne	-1239
glasi	-1240
▁vode	-1241
▁poveća	-1242
vanju	-1243
žda	-1244
vnih	-1245
dila	-1246
▁navija	-1247
▁svih	-1248
pozna	-1249
▁kru	-1250
▁Među	-1251
▁ovog	-1252
▁imati	-1253
čan	-1254
pusti	-1255
▁pote	-1256
▁unu	-1257
▁mjesta	-1258
ck	-1259
▁svako	-1260
ške	-1261
▁teh	-1262
pru	-1263
▁kraju	-1264
rica	-1265
▁njega	-1266
▁Dra	-1267
čkih	-1268
▁potpu	-1269
▁proda	-1270
▁gotovo	-1271
▁odre	-1272
▁sluča	-1273
▁automobi	-1274
▁ostva	-1275
▁ljuba	-1276
▁teško	-1277
▁kazao	-1278
▁informa	-1279
▁Pr	-1280
lma	-1281
šla	-1282
▁fotogra	-1283
riji	-1284
zni	-1285
ovje	-1286
▁viso	-1287
▁tere	-1288
cio	-1289
rić	-1290
▁Ova	-1291
oj	-1292
▁kultu	-1293
▁sudje	-1294
lima	-1295
slu	-1296
▁Milano	-1297
▁bude	-1298
▁sasta	-1299
bor	-1300
dili	-1301
▁rje	-1302
▁ameri	-1303
pnja	-1304
▁Tre	-1305
▁Pi	-1306
vra	-1307
teta	-1308
▁Zagrebu	-1309
▁2024.	-1310
▁poda	-1311
mr	-1312
▁nosi	-1313
▁posebno	-1314
▁Ali	-1315
lna	-1316
ID	-1317
▁isku	-1318
pravo	-1319
▁mogao	-1320
▁naši	-1321
▁fe	-1322
▁dra	-1323
▁slobo	-1324
▁tim	-1325
▁teme	-1326
▁organiza	-1327
▁11	-1328
ljem	-1329
▁Njema	-1330
▁njima	-1331
▁oda	-1332
tin	-1333
▁Ho	-1334
▁Plen	-1335
čkoj	-1336
ljen	-1337
▁kojeg	-1338
▁kolo	-1339
mp	-1340
jka	-1341
lnih	-1342
jeli	-1343
mogu	-1344
▁Ivan	-1345
▁polu	-1346
tna	-1347
prije	-1348
▁supru	-1349
▁Ši	-1350
▁ca	-1351
▁regi	-1352
rali	-1353
▁kazne	-1354
snije	-1355
▁momča	-1356
▁godinu	-1357
▁obitelj	-1358
šnja	-1359
▁gospo	-1360
▁Ovo	-1361
▁nesre	-1362
co	-1363
▁knji	-1364
▁part	-1365
▁Fi	-1366
hvati	-1367
▁nagra	-1368
rna	-1369
vica	-1370
▁glazbe	-1371
▁premije	-1372
čna	-1373
▁uči	-1374
ranje	-1375
▁one	-1376
sna	-1377
kuje	-1378
▁djela	-1379
▁Ti	-1380
▁an	-1381
kav	-1382
▁izgu	-1383
kve	-1384
lnik	-1385
8.	-1386
nta	-1387
▁deset	-1388
san	-1389
slim	-1390
▁baš	-1391
▁nju	-1392
▁sport	-1393
▁Ri	-1394
▁200	-1395
▁ništa	-1396
▁vide	-1397
jedi	-1398
▁mode	-1399
▁podr	-1400
▁prvo	-1401
zak	-1402
▁Mu	-1403
čkom	-1404
▁bolni	-1405
▁sredi	-1406
▁ok	-1407
▁Iako	-1408
lnog	-1409
nar	-1410
▁nedje	-1411
dovi	-1412
▁odma	-1413
9.	-1414
rovi	-1415
panjo	-1416
▁klju	-1417
▁svom	-1418
▁mjestu	-1419
▁karije	-1420
▁Dubro	-1421
EO	-1422
▁napada	-1423
▁utakmica	-1424
▁napisa	-1425
▁So	-1426
▁odu	-1427
▁Tru	-1428
▁=	-1429
▁vidi	-1430
▁Što	-1431
▁neke	-1432
▁pru	-1433
▁obo	-1434
▁30	-1435
▁važ	-1436
mpe	-1437
▁nove	-1438
▁pitanje	-1439
▁muška	-1440
▁rad	-1441
▁šest	-1442
▁osjeća	-1443
▁stru	-1444
IDEO	-1445
kova	-1446
publi	-1447
▁tran	-1448
▁zado	-1449
▁13	-1450
bija	-1451
▁radni	-1452
rtu	-1453
▁čeka	-1454
▁posla	-1455
▁stvari	-1456
▁sebe	-1457
cje	-1458
▁upozo	-1459
ljak	-1460
▁direk	-1461
▁prizna	-1462
▁subo	-1463
▁hra	-1464
▁=>	-1465
▁otvore	-1466
bar	-1467
▁Fo	-1468
pio	-1469
▁VIDEO	-1470
▁istraži	-1471
▁fu	-1472
▁stude	-1473
▁uli	-1474
▁Sla	-1475
▁često	-1476
rojatno	-1477
govi	-1478
▁priča	-1479
▁pjes	-1480
▁rodi	-1481
▁bolje	-1482
▁Op	-1483
▁najbolji	-1484
▁sek	-1485
panjol	-1486
▁spe	-1487
▁naš	-1488
▁uspo	-1489
▁pomoć	-1490
▁minuti	-1491
▁posti	-1492
▁izgleda	-1493
ćem	-1494
fa	-1495
▁vlasni	-1496
glo	-1497
▁podu	-1498
vnik	-1499
▁promet	-1500
▁prove	-1501
čar	-1502
tki	-1503
▁bih	-1504
▁Fa	-1505
pred	-1506
▁raspo	-1507
dnja	-1508
▁kraja	-1509
▁gru	-1510
▁svim	-1511
▁njegovo	-1512
▁obzi	-1513
vljen	-1514
▁ponu	-1515
tkom	-1516
▁odra	-1517
▁nisam	-1518
rava	-1519
▁oti	-1520
ćih	-1521
govor	-1522
▁dobio	-1523
▁predsjednika	-1524
▁uo	-1525
▁imali	-1526
▁ministar	-1527
▁Prema	-1528
▁grado	-1529
▁vozila	-1530
▁Uz	-1531
▁Ca	-1532
naro	-1533
▁raču	-1534
▁dosta	-1535
▁bla	-1536
▁izda	-1537
▁utjeca	-1538
▁života	-1539
▁svijetu	-1540
tali	-1541
tora	-1542
),	-1543
TO	-1544
▁ću	-1545
▁kraj	-1546
▁druga	-1547
▁minuta	-1548
nata	-1549
▁Grad	-1550
it	-1551
nal	-1552
▁Poli	-1553
▁And	-1554
▁napo	-1555
▁Ministar	-1556
DP	-1557
ton	-1558
▁Pred	-1559
▁dodao	-1560
šlja	-1561
▁optu	-1562
vnim	-1563
▁pobije	-1564
▁odi	-1565
laz	-1566
žiti	-1567
▁ž	-1568
blje	-1569
vjet	-1570
▁neo	-1571
▁opo	-1572
vjetni	-1573
▁poma	-1574
▁upravo	-1575
▁uključu	-1576
rem	-1577
▁opa	-1578
▁Zagreba	-1579
▁bole	-1580
▁možda	-1581
▁svaki	-1582
▁uče	-1583
▁Nije	-1584
▁djece	-1585
limpi	-1586
▁nalazi	-1587
žen	-1588
lin	-1589
▁njegov	-1590
▁njegova	-1591
▁Slo	-1592
zuje	-1593
▁čini	-1594
▁stano	-1595
ljiv	-1596
▁kla	-1597
▁[	-1598
▁tele	-1599
▁priro	-1600
opće	-1601
stro	-1602
▁poz	-1603
▁mnogi	-1604
nović	-1605
▁Mari	-1606
loga	-1607
piti	-1608
▁pol	-1609
▁trži	-1610
▁prvaka	-1611
nskog	-1612
bre	-1613
▁tisuća	-1614
▁zajedno	-1615
▁ipak	-1616
čku	-1617
▁Lju	-1618
▁čovje	-1619
▁elek	-1620
zima	-1621
kva	-1622
▁Izra	-1623
ncija	-1624
▁nov	-1625
rka	-1626
AD	-1627
▁16	-1628
▁uži	-1629
▁Zagreb	-1630
nin	-1631
njen	-1632
ćen	-1633
▁predstavlja	-1634
▁1.	-1635
▁Sta	-1636
▁ukup	-1637
jski	-1638
▁sred	-1639
▁).	-1640
▁hrvatski	-1641
▁kontro	-1642
▁izvo	-1643
▁Y	-1644
▁vrijedno	-1645
gova	-1646
▁Dru	-1647
▁pona	-1648
▁nogomet	-1649
▁problema	-1650
▁poči	-1651
▁kasnije	-1652
vnika	-1653
fina	-1654
▁problem	-1655
▁inf	-1656
čima	-1657
▁for	-1658
▁komu	-1659
▁14	-1660
▁struč	-1661
ris	-1662
▁odmah	-1663
▁znači	-1664
▁ša	-1665
▁smi	-1666
šlo	-1667
▁Ze	-1668
▁sklo	-1669
▁ponovno	-1670
▁idu	-1671
▁jednu	-1672
▁provo	-1673
▁17	-1674
▁omogu	-1675
▁ska	-1676
nča	-1677
ll	-1678
nuli	-1679
ment	-1680
▁Ameri	-1681
▁dolazi	-1682
▁Osi	-1683
vez	-1684
raju	-1685
voljno	-1686
▁voza	-1687
▁proce	-1688
▁području	-1689
▁utakmicu	-1690
rala	-1691
▁kvalite	-1692
▁mogli	-1693
lar	-1694
▁cen	-1695
▁Republi	-1696
▁Že	-1697
▁kole	-1698
▁ispo	-1699
▁zagre	-1700
žio	-1701
▁niti	-1702
▁zapa	-1703
▁prošle	-1704
ratu	-1705
▁nja	-1706
ut	-1707
šku	-1708
▁odigra	-1709
▁sud	-1710
kaza	-1711
▁Bar	-1712
▁25	-1713
▁iako	-1714
jna	-1715
▁Kra	-1716
▁prati	-1717
nena	-1718
čila	-1719
nac	-1720
▁svog	-1721
gije	-1722
rili	-1723
▁zagreba	-1724
sija	-1725
▁zlo	-1726
▁24	-1727
▁novo	-1728
▁plaća	-1729
▁možete	-1730
ivo	-1731
kako	-1732
tori	-1733
▁grada	-1734
jima	-1735
kama	-1736
tnih	-1737
▁Pod	-1738
▁osobe	-1739
▁jednog	-1740
gom	-1741
▁Ki	-1742
▁sce	-1743
▁osu	-1744
▁imamo	-1745
▁Kad	-1746
▁toliko	-1747
vaja	-1748
▁ovu	-1749
dnjih	-1750
▁upravlja	-1751
▁sljede	-1752
▁naro	-1753
▁Naime	-1754
▁javno	-1755
jske	-1756
▁reći	-1757
mperatu	-1758
▁naciona	-1759
br	-1760
lnim	-1761
▁Osim	-1762
▁moguć	-1763
▁trenutku	-1764
zem	-1765
▁odli	-1766
▁ha	-1767
▁kilo	-1768
▁eki	-1769
▁trener	-1770
▁HN	-1771
▁najviše	-1772
lio	-1773
▁ozbi	-1774
▁profe	-1775
der	-1776
▁neza	-1777
godišnji	-1778
▁osno	-1779
▁posao	-1780
▁prava	-1781
▁;	-1782
▁(1	-1783
▁šte	-1784
▁odje	-1785
▁usta	-1786
▁izgra	-1787
▁postoji	-1788
žava	-1789
rnik	-1790
▁djelo	-1791
▁zato	-1792
▁misli	-1793
▁50	-1794
stitu	-1795
▁2023.	-1796
▁Split	-1797
stima	-1798
▁radio	-1799
▁igrača	-1800
feren	-1801
▁produ	-1802
čen	-1803
ravno	-1804
▁veza	-1805
LE	-1806
▁Gr	-1807
▁publi	-1808
renje	-1809
▁zahtje	-1810
laze	-1811
▁obzirom	-1812
▁Zo	-1813
cama	-1814
đenje	-1815
lov	-1816
▁kojim	-1817
▁Niko	-1818
▁tamo	-1819
▁Hajduk	-1820
ktu	-1821
dnim	-1822
▁pomoći	-1823
▁ranije	-1824
nca	-1825
gled	-1826
mbe	-1827
▁unutar	-1828
▁ke	-1829
mira	-1830
▁kluba	-1831
▁ponedje	-1832
▁Če	-1833
nos	-1834
▁sum	-1835
▁zako	-1836
▁policija	-1837
zor	-1838
rnost	-1839
▁zahva	-1840
▁Hrvatsku	-1841
son	-1842
▁mno	-1843
▁izazo	-1844
▁riječ	-1845
šava	-1846
▁zašto	-1847
lih	-1848
lost	-1849
vre	-1850
šće	-1851
▁jednosta	-1852
ss	-1853
rice	-1854
▁oku	-1855
šenje	-1856
▁ozlije	-1857
▁tog	-1858
▁čega	-1859
▁petak	-1860
▁mjeseci	-1861
mor	-1862
▁Fe	-1863
▁manda	-1864
▁iznena	-1865
bom	-1866
nicu	-1867
▁smr	-1868
hr	-1869
▁suda	-1870
dić	-1871
▁svijeta	-1872
▁ar	-1873
▁neda	-1874
▁tradi	-1875
tić	-1876
▁raditi	-1877
đeno	-1878
spe	-1879
mina	-1880
▁utvr	-1881
nce	-1882
čnih	-1883
đena	-1884
▁pravi	-1885
bili	-1886
▁zapravo	-1887
▁svojoj	-1888
rila	-1889
▁klub	-1890
▁kola	-1891
pis	-1892
▁objavio	-1893
▁zdravstve	-1894
▁Varaždin	-1895
▁SAD	-1896
nci	-1897
nka	-1898
lnu	-1899
▁kar	-1900
▁Dana	-1901
▁deta	-1902
▁gospodar	-1903
▁On	-1904
dnju	-1905
▁opre	-1906
▁netko	-1907
nak	-1908
▁Josi	-1909
ry	-1910
tnu	-1911
▁brzo	-1912
▁srije	-1913
▁temperatu	-1914
▁ža	-1915
▁eks	-1916
▁brani	-1917
dnik	-1918
▁gol	-1919
▁una	-1920
▁imala	-1921
troga	-1922
dnih	-1923
▁vidjeti	-1924
▁pjeva	-1925
▁fotografi	-1926
▁pisa	-1927
▁Šibe	-1928
▁velika	-1929
▁promije	-1930
▁(2	-1931
▁mreža	-1932
▁svega	-1933
sjeti	-1934
▁zastup	-1935
▁pore	-1936
▁kate	-1937
▁vlada	-1938
▁zemlje	-1939
nad	-1940
sci	-1941
▁možemo	-1942
▁veliko	-1943
▁najbolje	-1944
▁oči	-1945
▁sedam	-1946
▁eko	-1947
▁mogla	-1948
▁razvo	-1949
▁vjerojatno	-1950
▁demo	-1951
▁pola	-1952
cijski	-1953
▁člano	-1954
▁prvom	-1955
▁intere	-1956
slav	-1957
čkim	-1958
▁isko	-1959
▁zgra	-1960
zije	-1961
▁SDP	-1962
▁korisni	-1963
▁mene	-1964
ćeg	-1965
▁film	-1966
teljica	-1967
ban	-1968
▁funk	-1969
▁nedo	-1970
▁subotu	-1971
cijom	-1972
▁osam	-1973
▁vjeru	-1974
▁sja	-1975
▁rada	-1976
▁oto	-1977
teljima	-1978
▁Ar	-1979
▁Kri	-1980
▁izvan	-1981
▁stoji	-1982
▁Veli	-1983
▁djevoj	-1984
▁ovdje	-1985
▁ozbilj	-1986
▁trans	-1987
▁slučaju	-1988
mom	-1989
▁og	-1990
▁Plenković	-1991
▁He	-1992
jeva	-1993
njima	-1994
stava	-1995
▁bile	-1996
▁genera	-1997
▁navodi	-1998
▁Đ	-1999
▁dne	-2000
menta	-2001
▁očeki	-2002
▁potpuno	-2003
▁zau	-2004
▁boga	-2005
▁poduze	-2006
lija	-2007
som	-2008
vnu	-2009
▁Kada	-2010
▁priva	-2011
▁drugom	-2012
čica	-2013
▁razdo	-2014
ved	-2015
žić	-2016
▁preda	-2017
fo	-2018
▁osob	-2019
▁2022.	-2020
▁listo	-2021
▁emi	-2022
▁trav	-2023
nike	-2024
telje	-2025
boj	-2026
lovi	-2027
▁Francu	-2028
▁priliku	-2029
▁društvenim	-2030
dija	-2031
▁199	-2032
▁opet	-2033
sad	-2034
▁smije	-2035
▁Gla	-2036
▁hla	-2037
▁tru	-2038
▁povije	-2039
▁odvjetni	-2040
▁mije	-2041
▁izvje	-2042
▁w	-2043
▁sprem	-2044
▁dovoljno	-2045
ster	-2046
zija	-2047
terija	-2048
▁PO	-2049
dina	-2050
▁Osije	-2051
zda	-2052
▁Co	-2053
▁Bra	-2054
▁zi	-2055
▁nova	-2056
▁namje	-2057
▁parla	-2058
▁drugih	-2059
▁svojih	-2060
▁nedjelju	-2061
▁puto	-2062
▁pogleda	-2063
▁biv	-2064
tem	-2065
▁em	-2066
▁100	-2067
spi	-2068
▁izvr	-2069
▁povje	-2070
kuplja	-2071
▁domaći	-2072
▁Španjol	-2073
▁snim	-2074
▁prosje	-2075
dnom	-2076
novi	-2077
▁ogra	-2078
▁tjedna	-2079
▁Međutim	-2080
▁vrhu	-2081
aj	-2082
▁Sto	-2083
šen	-2084
▁nesta	-2085
▁Milanović	-2086
▁doku	-2087
▁stan	-2088
▁zaba	-2089
▁jezi	-2090
▁mini	-2091
ista	-2092
tnika	-2093
mišlja	-2094
ati	-2095
gor	-2096
▁odnosu	-2097
▁NA	-2098
▁Sva	-2099
rg	-2100
▁uspješ	-2101
▁igrati	-2102
▁gradonače	-2103
▁1,	-2104
zma	-2105
▁Andre	-2106
▁istaknuo	-2107
fika	-2108
▁turni	-2109
▁hrvatske	-2110
▁ovoj	-2111
drža	-2112
▁žena	-2113
dnu	-2114
▁kona	-2115
▁upu	-2116
jih	-2117
▁turisti	-2118
taka	-2119
▁ponedjeljak	-2120
▁uslu	-2121
▁Ivana	-2122
▁nogometa	-2123
▁zo	-2124
▁nama	-2125
tine	-2126
▁Bro	-2127
▁ugo	-2128
tica	-2129
▁rata	-2130
▁ovih	-2131
▁objasni	-2132
▁Marko	-2133
▁povra	-2134
▁deve	-2135
pisu	-2136
▁neu	-2137
dro	-2138
▁donije	-2139
▁Ch	-2140
▁turi	-2141
▁godini	-2142
dnog	-2143
▁trebao	-2144
dese	-2145
lina	-2146
▁čla	-2147
▁uto	-2148
▁ban	-2149
▁rea	-2150
▁zaposle	-2151
-1	-2152
voje	-2153
▁skla	-2154
njoj	-2155
▁katego	-2156
rma	-2157
▁srp	-2158
▁Hrva	-2159
▁bivši	-2160
▁proje	-2161
▁vatroga	-2162
kić	-2163
▁kriti	-2164
jemo	-2165
▁maj	-2166
▁nom	-2167
▁kup	-2168
▁poveza	-2169
TE	-2170
tr	-2171
▁Kao	-2172
▁prve	-2173
▁potom	-2174
▁lop	-2175
▁izbora	-2176
▁posve	-2177
dana	-2178
ur	-2179
▁bira	-2180
▁djecu	-2181
▁Zbog	-2182
▁sije	-2183
▁obilje	-2184
▁nastupa	-2185
▁iznosi	-2186
kar	-2187
▁Zna	-2188
manje	-2189
▁ispri	-2190
đenja	-2191
▁stvara	-2192
▁razu	-2193
▁rezultat	-2194
▁aktivnosti	-2195
io	-2196
▁dijete	-2197
▁21	-2198
▁tih	-2199
▁srijedu	-2200
plit	-2201
▁kuće	-2202
cijske	-2203
▁osim	-2204
▁postoje	-2205
▁priprema	-2206
▁Prije	-2207
▁jasno	-2208
▁prome	-2209
▁Dinama	-2210
▁mnogo	-2211
▁at	-2212
▁nismo	-2213
▁preki	-2214
▁značaj	-2215
▁prepozna	-2216
▁potencija	-2217
ranja	-2218
▁pretho	-2219
gan	-2220
▁40	-2221
▁bodova	-2222
▁znam	-2223
▁traži	-2224
bina	-2225
stupa	-2226
▁udru	-2227
▁putem	-2228
AJ	-2229
▁Luka	-2230
▁odr	-2231
voza	-2232
▁šu	-2233
▁buduć	-2234
▁dijelu	-2235
▁emo	-2236
▁slije	-2237
glasio	-2238
dak	-2239
▁sata	-2240
▁St	-2241
▁Bri	-2242
▁psi	-2243
▁planira	-2244
▁veče	-2245
▁prote	-2246
▁velike	-2247
th	-2248
▁'.	-2249
▁Kon	-2250
lnom	-2251
▁Svi	-2252
▁nikad	-2253
▁ple	-2254
▁ćete	-2255
veza	-2256
▁festi	-2257
▁kak	-2258
▁Vje	-2259
▁izbje	-2260
▁tehno	-2261
▁stranke	-2262
▁povijesti	-2263
▁Dan	-2264
▁došao	-2265
čnu	-2266
▁kojih	-2267
▁ispred	-2268
▁metara	-2269
logi	-2270
▁zla	-2271
▁kampa	-2272
jar	-2273
▁obu	-2274
▁ske	-2275
vremeno	-2276
▁pozo	-2277
▁dobiti	-2278
kad	-2279
kna	-2280
nić	-2281
vlju	-2282
▁zemlji	-2283
stavlja	-2284
▁moguće	-2285
tog	-2286
▁Gu	-2287
▁cu	-2288
▁pak	-2289
šenja	-2290
pita	-2291
▁čita	-2292
▁sjeve	-2293
gnu	-2294
žan	-2295
▁povr	-2296
govora	-2297
▁očekuje	-2298
▁utakmici	-2299
▁obrazo	-2300
▁oru	-2301
che	-2302
▁ig	-2303
▁doći	-2304
kog	-2305
ljan	-2306
tnog	-2307
poru	-2308
čita	-2309
▁nazi	-2310
▁utorak	-2311
▁agen	-2312
▁Dalma	-2313
▁potro	-2314
▁institu	-2315
sak	-2316
▁ispu	-2317
▁Grada	-2318
▁gr	-2319
▁koli	-2320
▁razini	-2321
▁time	-2322
▁poseb	-2323
▁Žu	-2324
šiti	-2325
ple	-2326
▁osobi	-2327
▁strana	-2328
▁split	-2329
▁anali	-2330
▁glasa	-2331
▁Republike	-2332
▁uhi	-2333
▁škole	-2334
▁drugim	-2335
kata	-2336
loba	-2337
▁mirovi	-2338
30	-2339
▁svib	-2340
▁svima	-2341
▁investi	-2342
kretni	-2343
▁cijene	-2344
▁mjeseca	-2345
nove	-2346
▁član	-2347
▁zanim	-2348
▁osvojio	-2349
▁BiH	-2350
▁moći	-2351
▁gradu	-2352
▁poslije	-2353
▁bije	-2354
▁doži	-2355
▁zamje	-2356
ogra	-2357
ok	-2358
▁obli	-2359
▁rizi	-2360
▁zvije	-2361
▁Splitu	-2362
▁projekt	-2363
kor	-2364
▁Ke	-2365
▁plo	-2366
▁država	-2367
▁otvori	-2368
tina	-2369
▁niz	-2370
▁sustav	-2371
▁22	-2372
▁Spo	-2373
tirao	-2374
▁rade	-2375
▁Rijeka	-2376
▁prosi	-2377
▁momčad	-2378
▁glaso	-2379
vora	-2380
▁nog	-2381
lak	-2382
▁ug	-2383
▁Drža	-2384
▁tvrdi	-2385
▁spome	-2386
▁uključujući	-2387
misli	-2388
▁ovim	-2389
▁traja	-2390
▁godinama	-2391
▁županije	-2392
▁ističe	-2393
ava	-2394
nde	-2395
▁Ci	-2396
▁okru	-2397
▁dobar	-2398
▁izbor	-2399
▁Također	-2400
▁donosi	-2401
▁cijena	-2402
štvo	-2403
▁mrežama	-2404
stan	-2405
jedno	-2406
▁glavni	-2407
štva	-2408
limpij	-2409
▁tvrtke	-2410
▁dolara	-2411
▁he	-2412
▁suko	-2413
▁moglo	-2414
▁pobjedu	-2415
▁ljude	-2416
▁želje	-2417
▁medici	-2418
▁upozna	-2419
▁Hajduka	-2420
godišnjak	-2421
▁moraju	-2422
▁milijar	-2423
▁nedavno	-2424
▁diza	-2425
rina	-2426
▁sebi	-2427
▁lipnja	-2428
▁nedosta	-2429
▁njemu	-2430
▁snage	-2431
▁dobili	-2432
var	-2433
▁toj	-2434
▁međunaro	-2435
▁podijeli	-2436
rnoj	-2437
▁Tra	-2438
▁njegove	-2439
▁pobjede	-2440
▁program	-2441
▁hrvatskih	-2442
▁fizi	-2443
▁obje	-2444
▁njema	-2445
▁savje	-2446
▁javnosti	-2447
▁posjeti	-2448
▁napraviti	-2449
▁2.	-2450
ngle	-2451
godišnje	-2452
jni	-2453
dite	-2454
▁novih	-2455
▁čemu	-2456
▁Vr	-2457
dnika	-2458
▁Modri	-2459
▁izlo	-2460
▁trgovi	-2461
jno	-2462
▁prvog	-2463
▁Pla	-2464
▁poručio	-2465
ete	-2466
▁zatim	-2467
▁popula	-2468
tel	-2469
rske	-2470
▁dija	-2471
▁izaz	-2472
▁Vlade	-2473
▁postao	-2474
tivno	-2475
▁Foto	-2476
▁hrvatskog	-2477
šten	-2478
▁trenutno	-2479
▁HR	-2480
▁Opći	-2481
▁cilj	-2482
▁svjedo	-2483
renja	-2484
▁prvu	-2485
▁žele	-2486
▁objavila	-2487
▁novog	-2488
cira	-2489
jopri	-2490
čenje	-2491
▁poža	-2492
stagra	-2493
▁Domovi	-2494
▁novu	-2495
▁svijet	-2496
zuju	-2497
▁Mla	-2498
▁sho	-2499
▁Fili	-2500
▁Kar	-2501
▁manji	-2502
▁nikada	-2503
▁dogodilo	-2504
mio	-2505
▁novina	-2506
▁crve	-2507
toč	-2508
▁vanj	-2509
emo	-2510
vizi	-2511
▁ljud	-2512
▁biste	-2513
▁Marija	-2514
▁sudjelo	-2515
đene	-2516
dnici	-2517
▁stre	-2518
sh	-2519
leko	-2520
▁Doda	-2521
▁Novi	-2522
▁Srbi	-2523
LED	-2524
čak	-2525
žni	-2526
▁Danas	-2527
▁došlo	-2528
glavnom	-2529
▁situacija	-2530
blja	-2531
▁nasi	-2532
▁potreb	-2533
▁indu	-2534
▁zara	-2535
▁Izrael	-2536
▁mislim	-2537
▁podrža	-2538
▁postup	-2539
▁trebalo	-2540
▁ad	-2541
▁prošlo	-2542
▁zemlja	-2543
mac	-2544
vite	-2545
▁Ovaj	-2546
▁nitko	-2547
▁izjavio	-2548
ndo	-2549
▁pada	-2550
▁sporta	-2551
▁Instagra	-2552
▁prosla	-2553
đeni	-2554
▁uni	-2555
▁vre	-2556
▁siječ	-2557
▁pojedi	-2558
erce	-2559
gdje	-2560
lnoj	-2561
▁POG	-2562
▁sustava	-2563
tt	-2564
šću	-2565
krša	-2566
▁vaše	-2567
▁nepo	-2568
▁sredst	-2569
▁izborima	-2570
▁Može	-2571
▁ispod	-2572
▁ponaša	-2573
▁organizira	-2574
▁ravna	-2575
▁momčadi	-2576
učili	-2577
▁činje	-2578
▁otkrila	-2579
▁der	-2580
▁plat	-2581
kov	-2582
đuje	-2583
▁video	-2584
▁POGLED	-2585
fije	-2586
▁bismo	-2587
▁otkrio	-2588
▁razvoj	-2589
▁travnja	-2590
▁POGLEDAJ	-2591
▁premijer	-2592
vku	-2593
▁pogi	-2594
,5	-2595
nicima	-2596
▁Svjet	-2597
▁POGLEDAJTE	-2598
siji	-2599
▁zabio	-2600
▁zaslu	-2601
▁započe	-2602
▁San	-2603
▁pobo	-2604
▁djeca	-2605
sobno	-2606
▁teni	-2607
▁zadovolj	-2608
sk	-2609
▁Sje	-2610
▁igrač	-2611
šlje	-2612
▁Har	-2613
▁isklju	-2614
▁njihove	-2615
▁Predsjedni	-2616
tinu	-2617
ranju	-2618
▁terenu	-2619
▁onih	-2620
osta	-2621
▁muškar	-2622
▁Hrvatski	-2623
čnim	-2624
▁New	-2625
ljeća	-2626
▁igre	-2627
žba	-2628
▁jedne	-2629
▁novac	-2630
▁of	-2631
▁Dje	-2632
▁ukraji	-2633
▁šan	-2634
▁države	-2635
zam	-2636
▁ji	-2637
▁Tomi	-2638
▁dove	-2639
▁živi	-2640
▁prisu	-2641
▁snima	-2642
▁potrebno	-2643
▁lako	-2644
▁razmišlja	-2645
▁napre	-2646
▁poljopri	-2647
tova	-2648
▁bolji	-2649
▁opera	-2650
▁poslova	-2651
dima	-2652
loški	-2653
nskih	-2654
tnosti	-2655
▁kojom	-2656
▁prostor	-2657
▁kući	-2658
▁pros	-2659
▁kli	-2660
▁okoli	-2661
tnim	-2662
▁nado	-2663
▁odla	-2664
nicama	-2665
▁odgovor	-2666
▁prijatelj	-2667
ksa	-2668
tnik	-2669
▁god	-2670
▁trebali	-2671
snu	-2672
▁23	-2673
▁Or	-2674
tnom	-2675
▁Sre	-2676
▁dro	-2677
lnosti	-2678
▁oduše	-2679
▁stvar	-2680
ljiva	-2681
▁gubi	-2682
▁životu	-2683
tili	-2684
ženje	-2685
▁kažu	-2686
▁provje	-2687
vice	-2688
▁Cr	-2689
matra	-2690
▁bolesti	-2691
▁najveći	-2692
▁promjene	-2693
▁FO	-2694
▁njihov	-2695
lac	-2696
mer	-2697
▁brzi	-2698
▁natje	-2699
▁rujna	-2700
šća	-2701
▁Bilo	-2702
stre	-2703
▁Ipak	-2704
▁zema	-2705
▁poslu	-2706
pisao	-2707
▁rado	-2708
▁stadio	-2709
▁ljudima	-2710
▁škola	-2711
tivne	-2712
vljaju	-2713
▁socija	-2714
▁prilikom	-2715
▁posljednjih	-2716
zvo	-2717
▁RT	-2718
mati	-2719
▁Pari	-2720
▁slučaj	-2721
▁Pos	-2722
▁meda	-2723
▁rekli	-2724
▁smanji	-2725
▁prenosi	-2726
▁dao	-2727
▁partne	-2728
▁Ber	-2729
▁Raz	-2730
vnici	-2731
▁norma	-2732
▁mijenja	-2733
▁60	-2734
gama	-2735
▁svakodne	-2736
▁policije	-2737
vića	-2738
▁Bio	-2739
▁pitanja	-2740
▁četvrtak	-2741
pr	-2742
mat	-2743
▁konku	-2744
▁ispla	-2745
▁konferen	-2746
▁materija	-2747
tih	-2748
šio	-2749
▁kame	-2750
▁odgovara	-2751
wa	-2752
ela	-2753
▁šo	-2754
vlada	-2755
▁dati	-2756
mos	-2757
nila	-2758
▁glumi	-2759
▁ukupno	-2760
sima	-2761
▁parki	-2762
sjetimo	-2763
▁stvarno	-2764
nska	-2765
▁kupa	-2766
▁računa	-2767
▁građana	-2768
▁projekta	-2769
▁razloga	-2770
▁trebala	-2771
pom	-2772
▁bes	-2773
▁Tije	-2774
▁Europe	-2775
▁jednostavno	-2776
▁X	-2777
▁žene	-2778
▁iznim	-2779
dije	-2780
▁ožu	-2781
▁stati	-2782
▁posljedi	-2783
vka	-2784
▁ulaga	-2785
▁cijeli	-2786
vid	-2787
bila	-2788
▁uze	-2789
žili	-2790
▁izvijesti	-2791
rano	-2792
nstve	-2793
▁rast	-2794
metara	-2795
rane	-2796
▁korište	-2797
▁direktor	-2798
seli	-2799
▁reak	-2800
▁razgovara	-2801
▁Ge	-2802
mini	-2803
pušta	-2804
sen	-2805
▁Oni	-2806
▁pobolj	-2807
▁elektri	-2808
pad	-2809
▁srpnja	-2810
▁dodatno	-2811
▁napisao	-2812
tere	-2813
▁prijed	-2814
▁Gor	-2815
▁dozvo	-2816
JE	-2817
nite	-2818
▁Dok	-2819
▁moj	-2820
▁tiče	-2821
▁devet	-2822
▁pruža	-2823
▁ispriča	-2824
▁nekretni	-2825
▁listopada	-2826
▁(3	-2827
▁Par	-2828
est	-2829
mija	-2830
čina	-2831
▁doče	-2832
vljena	-2833
▁opasno	-2834
▁am	-2835
▁lak	-2836
▁Zadar	-2837
▁važno	-2838
▁sklopu	-2839
▁meni	-2840
▁Mislim	-2841
siona	-2842
▁FOTO	-2843
▁Mate	-2844
▁uzro	-2845
▁ostati	-2846
kul	-2847
tnoj	-2848
lnika	-2849
▁prora	-2850
▁reda	-2851
gne	-2852
ini	-2853
▁Samo	-2854
▁ograni	-2855
▁previše	-2856
vci	-2857
▁hu	-2858
nsko	-2859
žnje	-2860
▁Zla	-2861
▁lige	-2862
▁dodaje	-2863
▁početka	-2864
▁uglavnom	-2865
am	-2866
koj	-2867
lica	-2868
▁epi	-2869
▁moramo	-2870
▁nih	-2871
▁vodst	-2872
▁tjedan	-2873
▁reprezentacije	-2874
▁3.	-2875
▁umi	-2876
▁kolu	-2877
▁mladih	-2878
koho	-2879
ljev	-2880
▁barem	-2881
▁sadrža	-2882
▁Ukrajini	-2883
ljena	-2884
▁strate	-2885
▁čovjek	-2886
▁per	-2887
▁podršku	-2888
▁koša	-2889
▁potra	-2890
tac	-2891
vnoj	-2892
▁obe	-2893
▁pripa	-2894
▁rekor	-2895
▁pacije	-2896
▁veliku	-2897
▁vu	-2898
rena	-2899
▁nekim	-2900
▁tehni	-2901
nzi	-2902
reni	-2903
▁Nova	-2904
▁hoće	-2905
▁profi	-2906
▁Europi	-2907
▁automobila	-2908
zer	-2909
vrše	-2910
▁drugog	-2911
dnoj	-2912
▁defi	-2913
▁Rijeke	-2914
▁zemalja	-2915
-0	-2916
njo	-2917
▁preuze	-2918
▁27	-2919
▁najmanje	-2920
▁kuća	-2921
val	-2922
▁suo	-2923
▁ulogu	-2924
riju	-2925
▁dozna	-2926
▁plaće	-2927
▁kolovoza	-2928
▁sigurnosti	-2929
▁vrijednosti	-2930
▁Cen	-2931
▁mobi	-2932
kim	-2933
čuje	-2934
▁Trump	-2935
ker	-2936
▁Bru	-2937
▁prvenstva	-2938
kih	-2939
▁mar	-2940
▁odluku	-2941
▁predvi	-2942
is	-2943
lijan	-2944
▁otvara	-2945
▁vike	-2946
▁priti	-2947
▁dobila	-2948
ler	-2949
▁RTL	-2950
▁uopće	-2951
▁izrael	-2952
rska	-2953
▁gro	-2954
sjeća	-2955
▁prima	-2956
ly	-2957
▁Još	-2958
jutro	-2959
▁dalj	-2960
▁umjetni	-2961
▁Europske	-2962
▁konkuren	-2963
▁projekti	-2964
▁premi	-2965
▁vrata	-2966
▁vraća	-2967
▁brojne	-2968
▁10.	-2969
▁skog	-2970
▁nevje	-2971
▁iskoristi	-2972
od	-2973
nte	-2974
▁sat	-2975
▁putu	-2976
raca	-2977
▁kva	-2978
▁kompa	-2979
▁umjesto	-2980
skoro	-2981
struktu	-2982
▁ek	-2983
▁Slove	-2984
▁odluka	-2985
▁programa	-2986
▁Ste	-2987
mosfe	-2988
▁fran	-2989
▁dostup	-2990
▁pristup	-2991
ing	-2992
nskom	-2993
▁loše	-2994
▁polo	-2995
▁učin	-2996
▁reali	-2997
▁rođen	-2998
▁velja	-2999
ras	-3000
čnog	-3001
▁opći	-3002
▁diljem	-3003
▁mjesec	-3004
tila	-3005
žila	-3006
▁redu	-3007
▁prila	-3008
▁alkoho	-3009
▁Wa	-3010
▁mr	-3011
▁pli	-3012
▁Jedan	-3013
▁svibnja	-3014
▁Evo	-3015
▁naša	-3016
▁ljubav	-3017
▁njezin	-3018
▁troško	-3019
▁ugovor	-3020
▁ošte	-3021
▁počinje	-3022
▁različi	-3023
baci	-3024
▁dre	-3025
▁uvo	-3026
▁izno	-3027
▁kuha	-3028
gno	-3029
▁Sti	-3030
▁polufina	-3031
▁korak	-3032
▁smanje	-3033
▁nastaviti	-3034
Ne	-3035
▁Pra	-3036
lnost	-3037
▁izla	-3038
▁bivše	-3039
▁izbore	-3040
▁njihova	-3041
vač	-3042
▁The	-3043
▁priopće	-3044
▁ben	-3045
▁reagi	-3046
▁treći	-3047
▁raspra	-3048
▁shvati	-3049
▁duž	-3050
lla	-3051
zin	-3052
▁Taj	-3053
▁područja	-3054
klu	-3055
skr	-3056
▁Ot	-3057
luje	-3058
▁rat	-3059
tiva	-3060
čava	-3061
▁blo	-3062
▁jugo	-3063
▁naših	-3064
▁natjecanja	-3065
▁žrt	-3066
▁dopri	-3067
vjeti	-3068
▁Usta	-3069
▁zele	-3070
jedinje	-3071
▁navede	-3072
▁posljednje	-3073
min	-3074
zan	-3075
jelo	-3076
▁staja	-3077
▁Radi	-3078
▁Real	-3079
▁gola	-3080
▁2021.	-3081
▁strani	-3082
▁profesiona	-3083
ir	-3084
ana	-3085
▁20.	-3086
▁jedin	-3087
▁obrane	-3088
▁vratiti	-3089
razu	-3090
▁evo	-3091
▁oruž	-3092
▁Josip	-3093
▁mlade	-3094
▁čiji	-3095
vljeni	-3096
▁igrao	-3097
▁presu	-3098
▁TV	-3099
spek	-3100
▁sazna	-3101
▁primjer	-3102
▁napad	-3103
▁jest	-3104
▁susret	-3105
štaj	-3106
▁zrako	-3107
▁35	-3108
▁traže	-3109
▁zakon	-3110
▁prekrša	-3111
▁preh	-3112
▁znaju	-3113
▁zausta	-3114
▁pitanju	-3115
line	-3116
snih	-3117
▁Nema	-3118
vremenu	-3119
vama	-3120
▁boda	-3121
▁Tijekom	-3122
▁napusti	-3123
▁stigao	-3124
▁utr	-3125
▁jući	-3126
▁gosti	-3127
▁nagla	-3128
▁26	-3129
▁seku	-3130
▁tijelo	-3131
rastruktu	-3132
cem	-3133
▁Vladi	-3134
▁tradiciona	-3135
celo	-3136
▁seksu	-3137
▁ostali	-3138
▁stručnja	-3139
by	-3140
▁cijelo	-3141
▁poboljša	-3142
dran	-3143
▁Sin	-3144
jskog	-3145
▁ozna	-3146
▁liječ	-3147
▁godišnje	-3148
ili	-3149
štvu	-3150
▁ruko	-3151
▁poljoprivre	-3152
stina	-3153
tnost	-3154
▁Upra	-3155
▁iznad	-3156
▁ostao	-3157
▁zdravlje	-3158
▁ići	-3159
Ccaron	-3160
▁aktua	-3161
▁sutra	-3162
▁tijela	-3163
▁demokra	-3164
▁gradonačelnik	-3165
▁5.	-3166
BC	-3167
ld	-3168
▁smrti	-3169
▁centra	-3170
gh	-3171
▁vjero	-3172
▁proraču	-3173
▁cent	-3174
▁Treba	-3175
▁francu	-3176
▁Hu	-3177
▁naba	-3178
▁energe	-3179
▁sprije	-3180
▁sigurnost	-3181
por	-3182
▁Os	-3183
▁izrazi	-3184
▁odluke	-3185
▁zabora	-3186
▁komenta	-3187
▁događaja	-3188
▁Tr	-3189
žalost	-3190
▁cesta	-3191
▁energi	-3192
▁iskustvo	-3193
-2	-3194
▁90	-3195
▁zvu	-3196
▁priop	-3197
▁atmosfe	-3198
▁njegovu	-3199
bla	-3200
rin	-3201
▁Is	-3202
▁HNL	-3203
podne	-3204
▁legen	-3205
čitajte	-3206
▁identi	-3207
nut	-3208
▁asi	-3209
▁anti	-3210
▁majka	-3211
▁kontak	-3212
▁prosvje	-3213
kro	-3214
zom	-3215
rira	-3216
▁HRT	-3217
▁zadrža	-3218
▁početkom	-3219
tek	-3220
šno	-3221
▁hrane	-3222
▁novim	-3223
▁ujutro	-3224
bilje	-3225
▁Jadra	-3226
▁borbe	-3227
▁finala	-3228
▁završe	-3229
▁Podsjetimo	-3230
▁informacije	-3231
njuje	-3232
▁daleko	-3233
▁dolaze	-3234
▁Hrvatskog	-3235
▁2,	-3236
▁Šu	-3237
miti	-3238
▁Stu	-3239
▁prvoj	-3240
▁mediji	-3241
▁koriste	-3242
ena	-3243
ine	-3244
▁susje	-3245
▁dogovo	-3246
▁navodno	-3247
▁novinar	-3248
▁infrastruktu	-3249
ad	-3250
▁Bel	-3251
vnost	-3252
▁zabra	-3253
▁platfor	-3254
▁sudjelova	-3255
:1	-3256
et	-3257
mbo	-3258
▁(4	-3259
vljeno	-3260
▁stanje	-3261
▁zanima	-3262
mili	-3263
▁Lige	-3264
▁okre	-3265
▁sudio	-3266
▁energije	-3267
blju	-3268
▁Kre	-3269
▁NATO	-3270
▁čime	-3271
ih	-3272
▁7.	-3273
▁došli	-3274
▁komunika	-3275
šni	-3276
▁siječnja	-3277
tske	-3278
▁kazala	-3279
▁prosinca	-3280
▁znanstve	-3281
▁voli	-3282
▁najva	-3283
sor	-3284
▁Sada	-3285
▁globa	-3286
▁interne	-3287
▁+	-3288
like	-3289
▁ubr	-3290
čević	-3291
▁blizi	-3292
▁uspio	-3293
▁dodala	-3294
▁Plenkovi	-3295
▁Njemačkoj	-3296
kan	-3297
▁15.	-3298
rtuga	-3299
▁sezonu	-3300
▁najavio	-3301
▁prvenstvu	-3302
ov	-3303
snog	-3304
stao	-3305
ila	-3306
▁klubo	-3307
▁mjere	-3308
▁prika	-3309
▁skupine	-3310
▁završio	-3311
▁financij	-3312
lira	-3313
▁digi	-3314
▁uoči	-3315
▁ljubi	-3316
▁prijet	-3317
To	-3318
vlji	-3319
▁Zdra	-3320
▁mani	-3321
▁para	-3322
▁krimi	-3323
▁savez	-3324
▁proizvoda	-3325
cebo	-3326
▁pala	-3327
▁Gru	-3328
▁stabi	-3329
▁svemu	-3330
njom	-3331
▁noći	-3332
▁vezi	-3333
▁ispra	-3334
▁osobito	-3335
▁veze	-3336
▁Više	-3337
▁hote	-3338
▁resto	-3339
▁radova	-3340
▁pobjeda	-3341
▁supruga	-3342
▁uve	-3343
mentar	-3344
▁dosad	-3345
▁standar	-3346
ljeni	-3347
▁ljeta	-3348
▁mogućnost	-3349
pen	-3350
▁RH	-3351
mila	-3352
tija	-3353
▁naz	-3354
▁Isto	-3355
▁Beogra	-3356
▁mišlje	-3357
▁tvrtka	-3358
▁pokazuje	-3359
vilo	-3360
čnom	-3361
▁kazali	-3362
▁odlučio	-3363
▁omogući	-3364
▁zahvalju	-3365
NA	-3366
▁kape	-3367
▁Vlada	-3368
rij	-3369
tru	-3370
▁Mora	-3371
▁osvaja	-3372
▁y	-3373
niju	-3374
▁protu	-3375
▁polica	-3376
▁prostora	-3377
mnji	-3378
▁procje	-3379
jim	-3380
▁Ša	-3381
▁poh	-3382
▁Prvi	-3383
▁migra	-3384
▁kratko	-3385
šnjava	-3386
▁Madri	-3387
▁drugu	-3388
▁Ben	-3389
čenja	-3390
▁zada	-3391
:0	-3392
ol	-3393
ćoj	-3394
▁ruke	-3395
▁Car	-3396
▁Ce	-3397
▁nače	-3398
▁okvi	-3399
▁obzira	-3400
▁postala	-3401
▁kandidata	-3402
▁Še	-3403
▁imam	-3404
▁situaciju	-3405
qu	-3406
▁l	-3407
mpi	-3408
žbi	-3409
žne	-3410
▁redo	-3411
▁Policija	-3412
▁nastavlja	-3413
▁nakna	-3414
▁poziva	-3415
ziva	-3416
▁našim	-3417
▁održi	-3418
▁nastup	-3419
▁prilika	-3420
tera	-3421
▁proši	-3422
▁sjeća	-3423
▁jednoj	-3424
▁uprave	-3425
ćom	-3426
▁4.	-3427
ivot	-3428
▁izmje	-3429
▁sluša	-3430
▁specija	-3431
tnici	-3432
▁iste	-3433
▁odgo	-3434
▁ovak	-3435
▁koali	-3436
▁maksi	-3437
▁zabri	-3438
▁naravno	-3439
▁11.	-3440
▁ele	-3441
▁svakom	-3442
▁zadovo	-3443
let	-3444
kuju	-3445
▁vru	-3446
▁doba	-3447
▁2025.	-3448
▁pridru	-3449
).	-3450
rski	-3451
▁dom	-3452
▁skup	-3453
▁svojom	-3454
▁kvalifika	-3455
▁sin	-3456
▁ispa	-3457
▁Župa	-3458
rnosti	-3459
▁prihvati	-3460
čine	-3461
lena	-3462
▁17.	-3463
▁koma	-3464
▁nogome	-3465
▁Kla	-3466
▁sni	-3467
▁Facebo	-3468
▁prometa	-3469
▁ap	-3470
▁Jer	-3471
▁Itali	-3472
▁imovi	-3473
▁intenzi	-3474
ćuje	-3475
▁upa	-3476
▁doka	-3477
▁uskoro	-3478
▁razgovo	-3479
slo	-3480
▁80	-3481
▁inače	-3482
▁ozlje	-3483
▁Srbije	-3484
▁dijela	-3485
▁riječi	-3486
▁građani	-3487
▁Bla	-3488
nijih	-3489
▁dobri	-3490
▁naslov	-3491
▁prihva	-3492
▁smjeru	-3493
▁stvori	-3494
▁zabilje	-3495
vit	-3496
grama	-3497
▁jučer	-3498
▁presta	-3499
▁društva	-3500
biti	-3501
▁uboj	-3502
▁škol	-3503
▁broja	-3504
▁novca	-3505
▁priče	-3506
čeno	-3507
Zcaron	-3508
RI	-3509
jne	-3510
snim	-3511
▁ino	-3512
▁filma	-3513
▁poklo	-3514
▁zaključio	-3515
▁klubu	-3516
▁minute	-3517
▁nemaju	-3518
▁Pročitajte	-3519
▁mali	-3520
▁nadle	-3521
▁sunča	-3522
▁napisala	-3523
▁koristiti	-3524
us	-3525
liti	-3526
nese	-3527
▁Jan	-3528
▁upi	-3529
▁foku	-3530
▁Dakle	-3531
▁traje	-3532
▁površi	-3533
▁zaista	-3534
▁društvo	-3535
▁pokazala	-3536
ber	-3537
▁8.	-3538
tije	-3539
▁Ona	-3540
rović	-3541
▁fotografije	-3542
nili	-3543
pije	-3544
▁ver	-3545
▁dubo	-3546
▁klasi	-3547
▁nekih	-3548
▁novom	-3549
▁pjesme	-3550
▁pokazao	-3551
▁državlja	-3552
▁nim	-3553
reno	-3554
▁Mnog	-3555
▁lice	-3556
▁otac	-3557
▁supro	-3558
▁postaje	-3559
jam	-3560
ksu	-3561
nito	-3562
▁inci	-3563
▁sama	-3564
▁vrti	-3565
▁priho	-3566
▁susreta	-3567
▁temperatura	-3568
zno	-3569
ranu	-3570
vici	-3571
▁vid	-3572
▁Udru	-3573
▁sabor	-3574
rp	-3575
▁45	-3576
kove	-3577
siju	-3578
nicija	-3579
▁Zoran	-3580
▁ugosti	-3581
▁12.	-3582
▁noć	-3583
▁jedini	-3584
▁početku	-3585
iti	-3586
▁kće	-3587
▁Cije	-3588
▁Zato	-3589
▁ugro	-3590
▁takav	-3591
godišnja	-3592
▁njezina	-3593
▁rješenje	-3594
ff	-3595
vca	-3596
▁stro	-3597
▁pogre	-3598
▁#	-3599
ljka	-3600
0.000	-3601
▁studi	-3602
▁umiro	-3603
▁ostaje	-3604
▁Naciona	-3605
▁velikim	-3606
▁Kr	-3607
kade	-3608
▁Mađa	-3609
▁anga	-3610
▁posu	-3611
▁Dubrovnik	-3612
sada	-3613
▁plan	-3614
ita	-3615
vod	-3616
štine	-3617
▁postati	-3618
▁trenera	-3619
▁Ob	-3620
▁kata	-3621
▁skom	-3622
▁stup	-3623
▁stanju	-3624
▁primije	-3625
▁mogućnosti	-3626
eli	-3627
čeni	-3628
▁tema	-3629
▁našeg	-3630
▁ljubavi	-3631
▁životi	-3632
▁napravio	-3633
▁kilometara	-3634
▁odo	-3635
ljivi	-3636
▁blag	-3637
▁Polju	-3638
▁ozljede	-3639
▁preporu	-3640
▁karijere	-3641
jnu	-3642
škom	-3643
▁albu	-3644
▁dođe	-3645
▁dobra	-3646
▁Nikola	-3647
▁dob	-3648
▁Sara	-3649
▁moje	-3650
▁javnost	-3651
▁70	-3652
šević	-3653
▁Ante	-3654
▁potrebe	-3655
▁sposobno	-3656
▁6.	-3657
▁plu	-3658
▁paž	-3659
rnica	-3660
▁2020.	-3661
▁navode	-3662
▁koncert	-3663
▁njim	-3664
▁dvoji	-3665
▁počeo	-3666
cionira	-3667
▁komentira	-3668
▁čet	-3669
▁obeća	-3670
▁eksplo	-3671
nskim	-3672
ima	-3673
ziju	-3674
▁sina	-3675
▁Naravno	-3676
▁kulture	-3677
▁svakako	-3678
▁promjena	-3679
JA	-3680
▁Ono	-3681
▁izd	-3682
▁Neki	-3683
▁radu	-3684
▁mnoge	-3685
▁cijelu	-3686
▁drugoj	-3687
▁igrali	-3688
▁televizi	-3689
▁centar	-3690
▁potica	-3691
ćim	-3692
▁(5	-3693
▁Hr	-3694
ćenja	-3695
▁došla	-3696
▁medija	-3697
▁uspjeli	-3698
plika	-3699
▁spek	-3700
▁utje	-3701
▁ožujka	-3702
▁pogotovo	-3703
▁Predsjednik	-3704
▁Bre	-3705
▁ocje	-3706
▁porta	-3707
▁glasova	-3708
▁izgubio	-3709
les	-3710
▁Man	-3711
stoji	-3712
▁Herce	-3713
▁ovako	-3714
▁digita	-3715
▁blizini	-3716
ou	-3717
▁DP	-3718
tivni	-3719
▁mjera	-3720
▁spasi	-3721
▁Jedna	-3722
▁ljeto	-3723
▁znamo	-3724
▁igrači	-3725
▁sezoni	-3726
vju	-3727
▁Vije	-3728
▁uređa	-3729
▁uslije	-3730
▁vratio	-3731
▁Portuga	-3732
▁stanovni	-3733
▁28	-3734
▁198	-3735
▁gosto	-3736
▁snaga	-3737
▁Andrej	-3738
▁pokreta	-3739
▁naglasio	-3740
▁politike	-3741
▁rezultate	-3742
▁obno	-3743
▁usmje	-3744
▁Tomislav	-3745
žena	-3746
▁nau	-3747
▁pjesmu	-3748
▁okuplja	-3749
▁pronaći	-3750
▁°	-3751
dinu	-3752
▁regu	-3753
▁voda	-3754
▁ovoga	-3755
▁automobil	-3756
ncu	-3757
▁Maksi	-3758
▁fakul	-3759
▁građe	-3760
▁topli	-3761
▁asiste	-3762
▁probleme	-3763
igra	-3764
čnoj	-3765
▁izuze	-3766
▁česti	-3767
ul	-3768
nose	-3769
spje	-3770
▁Tri	-3771
deset	-3772
▁finale	-3773
rine	-3774
▁Ove	-3775
rnice	-3776
▁gori	-3777
▁skri	-3778
▁Istra	-3779
▁ubije	-3780
đuju	-3781
▁top	-3782
▁visi	-3783
▁krajem	-3784
▁najvaž	-3785
▁sredstva	-3786
▁hrvatskom	-3787
vodi	-3788
▁ica	-3789
▁meta	-3790
▁udar	-3791
▁kreta	-3792
▁Parizu	-3793
▁iznimno	-3794
rvi	-3795
prav	-3796
snik	-3797
▁gor	-3798
▁ter	-3799
▁Doma	-3800
▁htje	-3801
▁Riječ	-3802
▁svake	-3803
▁istraživanje	-3804
▁nudi	-3805
▁pusti	-3806
▁poraza	-3807
▁najboljih	-3808
▁budućnosti	-3809
ženi	-3810
▁18.	-3811
▁super	-3812
▁intervju	-3813
yer	-3814
▁gre	-3815
▁vina	-3816
▁Super	-3817
▁izved	-3818
▁izvor	-3819
▁većina	-3820
ao	-3821
▁pam	-3822
ligen	-3823
ljene	-3824
▁imate	-3825
▁trebaju	-3826
▁list	-3827
▁reži	-3828
▁ulaz	-3829
▁redovi	-3830
▁kombina	-3831
tirati	-3832
▁priču	-3833
▁prvih	-3834
▁prvenstvo	-3835
AR	-3836
rnici	-3837
▁moja	-3838
▁obla	-3839
▁poznati	-3840
mena	-3841
▁Ana	-3842
▁Lasa	-3843
▁vele	-3844
▁Pogleda	-3845
▁objasnio	-3846
mpo	-3847
mrt	-3848
▁ić	-3849
▁Ban	-3850
▁nase	-3851
▁ekipa	-3852
▁epizo	-3853
▁točno	-3854
▁završ	-3855
lice	-3856
stom	-3857
▁simbo	-3858
▁roditelji	-3859
kin	-3860
▁trenutak	-3861
jedna	-3862
▁društvu	-3863
▁Ministarstva	-3864
rup	-3865
▁Gi	-3866
▁ći	-3867
▁Ži	-3868
nulo	-3869
tost	-3870
▁dvoje	-3871
▁strada	-3872
▁vjenča	-3873
▁govorio	-3874
▁mandata	-3875
▁nesreće	-3876
ny	-3877
▁Ć	-3878
cep	-3879
▁vaš	-3880
▁dječ	-3881
▁izve	-3882
▁nada	-3883
▁našu	-3884
▁očito	-3885
ham	-3886
▁9.	-3887
tive	-3888
▁uspjeh	-3889
▁zajednice	-3890
teo	-3891
▁naru	-3892
▁stari	-3893
▁kojemu	-3894
▁pokazuju	-3895
kvi	-3896
čaje	-3897
▁avio	-3898
▁laga	-3899
tković	-3900
▁Filip	-3901
▁klima	-3902
▁učiniti	-3903
pušte	-3904
▁agre	-3905
▁imena	-3906
▁konzu	-3907
▁postu	-3908
▁Splita	-3909
▁finalu	-3910
▁suradnji	-3911
OR	-3912
pila	-3913
▁loptu	-3914
▁odnos	-3915
▁Rusija	-3916
▁inteligen	-3917
▁cilje	-3918
▁znati	-3919
▁lijepo	-3920
▁prakti	-3921
▁talijan	-3922
▁jedinstve	-3923
▁19.	-3924
▁Anto	-3925
▁tera	-3926
▁uzbu	-3927
▁razlog	-3928
▁potpisa	-3929
▁trenuta	-3930
tski	-3931
▁ović	-3932
▁trenin	-3933
▁vidjeli	-3934
▁zatvore	-3935
▁situacije	-3936
lon	-3937
▁Peri	-3938
▁soli	-3939
▁ceste	-3940
▁statu	-3941
▁govore	-3942
▁Barcelo	-3943
▁raspore	-3944
▁zvijezda	-3945
▁posljednji	-3946
keta	-3947
škog	-3948
▁Cro	-3949
▁Baby	-3950
▁njoj	-3951
▁listi	-3952
▁ekonom	-3953
▁svlada	-3954
▁vremenu	-3955
▁godišnji	-3956
▁razumije	-3957
▁informacija	-3958
▁svr	-3959
▁ljest	-3960
▁podru	-3961
▁osjećaj	-3962
▁zaštite	-3963
VD	-3964
ljep	-3965
teri	-3966
▁21.	-3967
zozem	-3968
▁Bran	-3969
▁bora	-3970
▁potpo	-3971
▁autobu	-3972
ya	-3973
▁Toma	-3974
▁kupo	-3975
▁ruku	-3976
▁partner	-3977
▁prilago	-3978
...	-3979
tle	-3980
voru	-3981
voren	-3982
▁Mario	-3983
▁dužno	-3984
▁objek	-3985
▁plani	-3986
▁inicija	-3987
▁iskustva	-3988
cha	-3989
znu	-3990
čice	-3991
▁Tko	-3992
▁diplo	-3993
▁lakše	-3994
▁Jadranu	-3995
▁bolnici	-3996
▁prijatelji	-3997
▁Ministarstvo	-3998
▁reprezentacija	-3999
ljeno	-4000
▁tvrde	-4001
▁ulici	-4002
▁otišao	-4003
ljko	-4004
▁Alek	-4005
▁Turu	-4006
▁obrani	-4007
▁tržištu	-4008
▁Vin	-4009
▁more	-4010
▁povu	-4011
▁čine	-4012
▁Osijek	-4013
▁ostale	-4014
▁sezona	-4015
▁hrvatska	-4016
▁Pogledajte	-4017
rova	-4018
▁Bije	-4019
▁bici	-4020
▁drži	-4021
▁nega	-4022
▁razo	-4023
▁zraka	-4024
▁zamije	-4025
▁kandidat	-4026
put	-4027
zbo	-4028
ćima	-4029
ziran	-4030
▁logi	-4031
logije	-4032
▁teren	-4033
▁provodi	-4034
:00	-4035
▁sed	-4036
pić	-4037
▁500	-4038
tivna	-4039
vrije	-4040
▁Prvo	-4041
▁spremni	-4042
bav	-4043
dbe	-4044
ity	-4045
vak	-4046
▁Dr	-4047
▁ukra	-4048
▁Sport	-4049
▁gledati	-4050
▁karijeri	-4051
▁osvojila	-4052
▁potvrdio	-4053
lega	-4054
▁Dne	-4055
▁Ško	-4056
dobno	-4057
▁vidio	-4058
▁Instagramu	-4059
fek	-4060
▁noj	-4061
▁komi	-4062
▁moru	-4063
▁pojača	-4064
▁unutra	-4065
▁financi	-4066
▁problemi	-4067
graf	-4068
lacije	-4069
▁scena	-4070
▁javlja	-4071
▁fotografija	-4072
njih	-4073
▁Već	-4074
nijeti	-4075
▁poziv	-4076
▁inozem	-4077
▁Fu	-4078
▁edu	-4079
▁Robe	-4080
▁Stra	-4081
▁stigla	-4082
▁postavlja	-4083
jska	-4084
▁kapa	-4085
▁opor	-4086
▁stoga	-4087
▁svaka	-4088
▁odnosi	-4089
▁proizvođa	-4090
▁priopćenju	-4091
em	-4092
boru	-4093
▁veće	-4094
▁karak	-4095
▁raste	-4096
▁razvoja	-4097
▁velikom	-4098
▁razdoblju	-4099
voz	-4100
▁196	-4101
▁Gre	-4102
struk	-4103
đenih	-4104
▁kine	-4105
▁stalno	-4106
gna	-4107
nov	-4108
▁29	-4109
▁3,	-4110
brani	-4111
▁ravno	-4112
▁želim	-4113
▁povijest	-4114
dera	-4115
▁nao	-4116
▁City	-4117
▁Polj	-4118
▁bren	-4119
▁tenisa	-4120
▁mir	-4121
▁navi	-4122
▁onaj	-4123
▁nekada	-4124
▁savrše	-4125
njim	-4126
▁13.	-4127
tfina	-4128
▁prav	-4129
▁preu	-4130
▁privla	-4131
▁serije	-4132
▁osumnji	-4133
▁komentirao	-4134
komo	-4135
▁Per	-4136
▁Kova	-4137
▁Zako	-4138
▁Sveučili	-4139
▁dogodila	-4140
▁zrakoplo	-4141
▁povo	-4142
▁Slavo	-4143
▁kakav	-4144
▁našem	-4145
▁tjele	-4146
▁školu	-4147
▁zgrade	-4148
▁poznato	-4149
▁radnika	-4150
▁različiti	-4151
vec	-4152
▁Br	-4153
zacije	-4154
▁građevi	-4155
▁rješenja	-4156
bama	-4157
rskoj	-4158
▁Pose	-4159
▁kora	-4160
▁pošto	-4161
▁psiho	-4162
▁0,	-4163
land	-4164
▁eva	-4165
▁jača	-4166
▁godiš	-4167
▁industri	-4168
▁skr	-4169
▁borbi	-4170
▁predi	-4171
▁pohvali	-4172
▁zatvora	-4173
žna	-4174
mana	-4175
vile	-4176
etiri	-4177
▁vatre	-4178
▁vrijednost	-4179
BA	-4180
mani	-4181
▁Wil	-4182
▁proces	-4183
▁svakog	-4184
▁Olimpij	-4185
▁održati	-4186
solu	-4187
stoj	-4188
▁pale	-4189
▁našoj	-4190
▁upisa	-4191
▁bespla	-4192
▁unatoč	-4193
▁zakona	-4194
▁odgovorio	-4195
mar	-4196
▁kome	-4197
▁Inače	-4198
▁popla	-4199
▁sveča	-4200
▁ostala	-4201
▁Bor	-4202
djela	-4203
▁moto	-4204
▁puca	-4205
▁bitno	-4206
▁poraz	-4207
▁rasta	-4208
▁centru	-4209
▁španjol	-4210
fu	-4211
gara	-4212
▁Joh	-4213
▁oslo	-4214
▁Mnogi	-4215
▁golova	-4216
fer	-4217
šan	-4218
▁km	-4219
▁Nji	-4220
▁dose	-4221
▁lani	-4222
▁titu	-4223
govarati	-4224
ret	-4225
▁reci	-4226
▁Nisam	-4227
▁197	-4228
šnjeg	-4229
vljuje	-4230
▁osobno	-4231
▁razliku	-4232
▁turnira	-4233
▁programu	-4234
▁kilograma	-4235
enje	-4236
▁cijele	-4237
▁nagradu	-4238
▁temelju	-4239
▁milijardi	-4240
▁van	-4241
▁halji	-4242
▁počela	-4243
▁regiona	-4244
▁skupina	-4245
uje	-4246
▁iska	-4247
▁2019.	-4248
▁Kopri	-4249
▁Lokomo	-4250
▁njihovu	-4251
▁zaštitu	-4252
▁14.	-4253
▁Yor	-4254
▁srca	-4255
▁donio	-4256
▁Modrić	-4257
▁igraju	-4258
▁poruku	-4259
▁priopći	-4260
▁UN	-4261
burg	-4262
love	-4263
▁Sigu	-4264
▁uzima	-4265
▁odusta	-4266
▁postoja	-4267
▁karijeru	-4268
▁europskih	-4269
▁El	-4270
▁šta	-4271
▁derbi	-4272
▁lista	-4273
▁kriminali	-4274
▁US	-4275
mova	-4276
voda	-4277
▁Don	-4278
▁sru	-4279
▁osigura	-4280
▁navijača	-4281
dama	-4282
naca	-4283
pili	-4284
▁For	-4285
torica	-4286
▁takve	-4287
▁Jadran	-4288
▁vijest	-4289
▁budućnost	-4290
▁premijera	-4291
▁pao	-4292
▁dalma	-4293
▁iznos	-4294
▁novča	-4295
▁treće	-4296
▁Možemo	-4297
▁pribli	-4298
▁objašnjava	-4299
▁pogledajte	-4300
OK	-4301
ira	-4302
▁Tik	-4303
▁omi	-4304
▁boje	-4305
▁volje	-4306
▁dovesti	-4307
▁policij	-4308
▁kategoriji	-4309
▁Ser	-4310
▁Jako	-4311
▁iskre	-4312
▁obrati	-4313
▁navečer	-4314
kati	-4315
▁Mir	-4316
▁htio	-4317
▁plju	-4318
▁teri	-4319
▁dobre	-4320
▁početak	-4321
anta	-4322
etvr	-4323
zirati	-4324
▁podni	-4325
▁Koliko	-4326
▁minima	-4327
▁strije	-4328
▁vremen	-4329
▁ostalim	-4330
▁stranka	-4331
▁Nor	-4332
snost	-4333
▁bilje	-4334
▁mlado	-4335
20	-4336
mlja	-4337
▁show	-4338
▁smrt	-4339
▁poznat	-4340
▁nesreća	-4341
▁stavlja	-4342
▁velikog	-4343
▁stoljeća	-4344
▁uvjetima	-4345
ženja	-4346
▁skoj	-4347
▁grupe	-4348
▁izbori	-4349
nuta	-4350
▁Engle	-4351
▁Petra	-4352
▁gradi	-4353
▁školi	-4354
▁Rijeci	-4355
▁poznata	-4356
▁povećanje	-4357
snici	-4358
▁Bila	-4359
▁boja	-4360
nirati	-4361
▁Martin	-4362
▁kapaci	-4363
▁medije	-4364
▁razvija	-4365
▁Hercegovi	-4366
SS	-4367
ssi	-4368
mentu	-4369
štava	-4370
▁muze	-4371
▁jutro	-4372
▁zadnje	-4373
▁odigrao	-4374
▁raspolo	-4375
▁zapovje	-4376
\/	-4377
nec	-4378
▁Nove	-4379
▁adre	-4380
▁sami	-4381
▁potak	-4382
▁budući	-4383
▁članova	-4384
▁donijeti	-4385
▁zahvaljujući	-4386
dena	-4387
reda	-4388
▁Mje	-4389
bacio	-4390
koliko	-4391
▁velikih	-4392
▁podataka	-4393
▁smatraju	-4394
▁EP	-4395
dilo	-4396
jica	-4397
▁Bli	-4398
▁dali	-4399
▁plas	-4400
▁žive	-4401
predsjedni	-4402
kiva	-4403
▁Oče	-4404
kinja	-4405
ljive	-4406
▁Kali	-4407
▁inspi	-4408
▁ujedno	-4409
▁zahvali	-4410
▁vši	-4411
dnica	-4412
njeva	-4413
▁igru	-4414
▁engle	-4415
▁ulazi	-4416
▁obavlja	-4417
▁36	-4418
žuje	-4419
▁16.	-4420
▁bru	-4421
▁dina	-4422
▁Bayer	-4423
▁poruka	-4424
▁Amerika	-4425
▁njezine	-4426
▁njegovim	-4427
▁sredstava	-4428
▁Af	-4429
▁Hama	-4430
▁Primo	-4431
▁mandat	-4432
▁nalaze	-4433
šle	-4434
dent	-4435
▁Tro	-4436
▁com	-4437
▁papi	-4438
▁popra	-4439
▁trene	-4440
▁dijeli	-4441
▁usluga	-4442
▁maksima	-4443
▁umirovlje	-4444
lle	-4445
▁30.	-4446
▁300	-4447
rnika	-4448
▁pravila	-4449
▁stariji	-4450
▁studenog	-4451
▁obve	-4452
▁tuži	-4453
nijela	-4454
▁blizu	-4455
▁vrsta	-4456
▁udarac	-4457
▁izbornik	-4458
▁istaknula	-4459
▁Brita	-4460
▁Njiho	-4461
▁Poslje	-4462
▁skladu	-4463
▁izjedna	-4464
▁Ukrajine	-4465
▁njegovom	-4466
ica	-4467
▁baca	-4468
▁dogo	-4469
▁znak	-4470
▁Slobo	-4471
▁čovjeka	-4472
▁prednost	-4473
▁završila	-4474
skup	-4475
▁Odlu	-4476
▁djeci	-4477
▁dokaza	-4478
-3	-4479
sira	-4480
snom	-4481
▁Zele	-4482
▁poje	-4483
▁javnog	-4484
▁odbora	-4485
▁bolnice	-4486
at	-4487
ala	-4488
čije	-4489
▁koga	-4490
▁naći	-4491
▁formi	-4492
▁košta	-4493
▁igrače	-4494
▁udruge	-4495
▁podacima	-4496
▁poziciju	-4497
tovi	-4498
ženo	-4499
▁Ope	-4500
▁lica	-4501
▁Inter	-4502
▁spomi	-4503
▁pravosu	-4504
▁prošlog	-4505
har	-4506
▁Una	-4507
▁kor	-4508
▁pad	-4509
ljenje	-4510
▁kreće	-4511
▁rastu	-4512
▁autoce	-4513
▁košarka	-4514
▁naglasi	-4515
▁utjecaj	-4516
▁nastavku	-4517
▁pobijedio	-4518
▁prijatelja	-4519
▁promijeniti	-4520
▁istraživanja	-4521
ty	-4522
ori	-4523
▁33	-4524
▁Kor	-4525
stoja	-4526
▁male	-4527
▁odmo	-4528
▁supa	-4529
▁Petro	-4530
▁servi	-4531
▁nagrade	-4532
▁članovi	-4533
dy	-4534
rd	-4535
šili	-4536
▁zbi	-4537
▁kuću	-4538
▁osni	-4539
▁spor	-4540
▁tale	-4541
▁neovi	-4542
▁spreman	-4543
▁propusti	-4544
▁32	-4545
svim	-4546
▁kop	-4547
▁arhi	-4548
▁Donal	-4549
▁rješa	-4550
▁Austra	-4551
▁nepozna	-4552
▁prostoru	-4553
▁tehnologi	-4554
bran	-4555
▁zad	-4556
▁Osta	-4557
▁ratu	-4558
bičaje	-4559
▁filmu	-4560
▁menta	-4561
▁staro	-4562
▁prista	-4563
laga	-4564
vale	-4565
▁tor	-4566
▁Dani	-4567
lacija	-4568
▁Možda	-4569
▁nukle	-4570
▁prvak	-4571
▁medijima	-4572
▁uspješno	-4573
yo	-4574
ćev	-4575
▁Bit	-4576
▁Lije	-4577
▁Umje	-4578
▁stana	-4579
▁večer	-4580
▁glasno	-4581
▁progno	-4582
▁samosta	-4583
▁četvrtfina	-4584
rov	-4585
▁odnose	-4586
▁pozvao	-4587
▁otkriva	-4588
▁isključi	-4589
ft	-4590
▁Hi	-4591
čara	-4592
▁Bez	-4593
▁Cel	-4594
▁jedino	-4595
▁obožava	-4596
▁olimpij	-4597
▁prednosti	-4598
▁Domovinskog	-4599
ten	-4600
nsku	-4601
▁Bal	-4602
▁the	-4603
▁Igra	-4604
▁čije	-4605
▁vlade	-4606
▁znanja	-4607
▁riječima	-4608
▁nevjeroja	-4609
mica	-4610
▁	-4611
a	-4612
i	-4613
o	-4614
e	-4615
n	-4616
r	-4617
j	-4618
t	-4619
u	-4620
s	-4621
k	-4622
l	-4623
d	-4624
v	-4625
m	-4626
p	-4627
z	-4628
g	-4629
c	-4630
b	-4631
,	-4632
.	-4633
š	-4634
č	-4635
ć	-4636
h	-4637
ž	-4638
;	-4639
&	-4640
P	-4641
S	-4642
"	-4643
f	-4644
N	-4645
0	-4646
M	-4647
-	-4648
D	-4649
2	-4650
1	-4651
B	-4652
O	-4653
A	-4654
T	-4655
đ	-4656
K	-4657
I	-4658
H	-4659
U	-4660
R	-4661
V	-4662
Z	-4663
:	-4664
L	-4665
E	-4666
G	-4667
J	-4668
3	-4669
C	-4670
5	-4671
'	-4672
4	-4673
)	-4674
(	-4675
F	-4676
9	-4677
y	-4678
6	-4679
7	-4680
8	-4681
Š	-4682
?	-4683
w	-4684
!	-4685
/	-4686
W	-4687
Č	-4688
Ž	-4689
x	-4690
%	-4691
=	-4692
[	-4693
>	-4694
]	-4695
Y	-4696
Đ	-4697
X	-4698
+	-4699
\	-4700
q	-4701
Ć	-4702
#	-4703
°	-4704
Q	-4705
ü	-4706
é	-4707
*	-4708
@	-4709
_	-4710
€	-4711
ö	-4712
á	-4713
í	-4714
ó	-4715
′	-4716
$	-4717
♬	-4718
•	-4719
ä	-4720
Ö	-4721
­	-4722
ç	-4723
<	-4724
·	-4725
è	-4726
{	-4727
}	-4728
️	-4729
ë	-4730
ñ	-4731
â	-4732
ł	-4733
ø	-4734
ã	-4735
å	-4736
⁄	-4737
à	-4738
̌	-4739
É	-4740
®	-4741
е	-4742
×	-4743
ú	-4744
►	-4745
ô	-4746
ğ	-4747
̋	-4748
●	-4749
ï	-4750
ð	-4751
ò	-4752
ş	-4753
🟨	-4754
ê	-4755
Á	-4756
Ç	-4757
ß	-4758
î	-4759
ı	-4760
⚤	-4761
🔥	-4762
ì	-4763
ř	-4764
☘	-4765
	-4766
🎁	-4767
😂	-4768
©	-4769
ė	-4770
Ś	-4771
ρ	-4772
✔	-4773
❤	-4774
🇷	-4775
🇸	-4776
`	-4777
ą	-4778
ě	-4779
μ	-4780
ο	-4781
ς	-4782
⁠	-4783
📌	-4784
Å	-4785
Ó	-4786
ń	-4787
ő	-4788
ț	-4789
̈	-4790
о	-4791
ṣ	-4792
‒	-4793
♥	-4794
⚠	-4795
⚽	-4796
	-4797
🇺	-4798
👀	-4799
^	-4800
§	-4801
Í	-4802
Ð	-4803
Ú	-4804
Ü	-4805
ý	-4806
ā	-4807
ę	-4808
ȗ	-4809
̧	-4810
ή	-4811
а	-4812
ј	-4813
‍	-4814
‐	-4815
―	-4816
‖	-4817
✓	-4818
🇭	-4819
🌸	-4820
💙	-4821
	-4822
¡	-4823
±	-4824
Ä	-4825
Ø	-4826
ù	-4827
û	-4828
ă	-4829
ĉ	-4830
ē	-4831
ś	-4832
Ş	-4833
ū	-4834
ż	-4835
ȉ	-4836
ș	-4837
̊	-4838
έ	-4839
α	-4840
π	-4841
τ	-4842
ό	-4843
н	-4844
ི	-4845
ྀ	-4846
ἀ	-4847
‟	-4848
∶	-4849
▶	-4850
♡	-4851
♦	-4852
シ	-4853
🇱	-4854
🏻	-4855
💕	-4856
🔄	-4857
🕷	-4858
🕸	-4859
😅	-4860
😍	-4861
😎	-4862
🙏	-4863
🟡	-4864
🤩	-4865
🤯	-4866
🥚	-4867
🦟	-4868
£	-4869
¤	-4870
¿	-4871
À	-4872
È	-4873
Î	-4874
Ò	-4875
Ô	-4876
õ	-4877
Ď	-4878
İ	-4879
ľ	-4880
Ł	-4881
ň	-4882
ō	-4883
ţ	-4884
ů	-4885
ź	-4886
Ƙ	-4887
ȃ	-4888
ȑ	-4889
ə	-4890
ʟ	-4891
̣	-4892
Ω	-4893
γ	-4894
δ	-4895
υ	-4896
χ	-4897
ω	-4898
К	-4899
л	-4900
ь	-4901
і	-4902
Ґ	-4903
ӣ	-4904
ӧ	-4905
ṓ	-4906
ọ	-4907
ố	-4908
‰	-4909
↑	-4910
⇒	-4911
−	-4912
⏱	-4913
■	-4914
▪	-4915
○	-4916
☀	-4917
☃	-4918
☑	-4919
☺	-4920
♀	-4921
⚫	-4922
✠	-4923
✨	-4924
❄	-4925
传	-4926
多	-4927
陈	-4928
🇦	-4929
🇧	-4930
🇫	-4931
🇬	-4932
🇮	-4933
🇵	-4934
🇾	-4935
🌋	-4936
🌐	-4937
🌠	-4938
🌧	-4939
🌨	-4940
🌺	-4941
🌻	-4942
🍉	-4943
🍊	-4944
🎀	-4945
🎗	-4946
🏡	-4947
🐄	-4948
🐥	-4949
🐦	-4950
🐱	-4951
🐶	-4952
👁	-4953
👇	-4954
👣	-4955
👶	-4956
💅	-4957
💋	-4958
💎	-4959
💘	-4960
💚	-4961
💟	-4962
💪	-4963
💯	-4964
📢	-4965
📱	-4966
📸	-4967
🔹	-4968
🕓	-4969
🖥	-4970
😀	-4971
😁	-4972
😉	-4973
😊	-4974
😏	-4975
😬	-4976
😭	-4977
🙂	-4978
🙌	-4979
🛁	-4980
🤍	-4981
🤔	-4982
🤢	-4983
🤦	-4984
🤪	-4985
🥥	-4986
🥰	-4987
🥲	-4988
🥹	-4989
🥺	-4990
🩹	-4991
🩺	-4992
🪐	-4993
🫒	-4994
🫠	-4995
🫶	-4996
