<unk>	0
<s>	0
</s>	0
▁i	-0
▁a	-1
▁o	-2
▁s	-3
je	-4
▁n	-5
▁u	-6
▁p	-7
▁e	-8
▁d	-9
▁t	-10
▁k	-11
▁,	-12
▁je	-13
ra	-14
▁.	-15
▁m	-16
▁v	-17
▁na	-18
▁z	-19
▁l	-20
re	-21
▁b	-22
▁po	-23
▁g	-24
ri	-25
ti	-26
va	-27
ro	-28
ja	-29
ko	-30
li	-31
▁ko	-32
▁za	-33
st	-34
la	-35
ma	-36
▁da	-37
▁c	-38
ar	-39
▁se	-40
▁ni	-41
▁ra	-42
en	-43
▁st	-44
in	-45
▁ne	-46
ju	-47
▁do	-48
vo	-49
▁;	-50
▁&	-51
▁od	-52
an	-53
▁on	-54
te	-55
▁om	-56
▁iz	-57
ji	-58
▁su	-59
▁bi	-60
▁ka	-61
▁in	-62
▁no	-63
▁en	-64
▁re	-65
▁š	-66
▁go	-67
▁S	-68
▁č	-69
▁P	-70
▁"	-71
to	-72
ru	-73
vi	-74
ka	-75
▁an	-76
▁pre	-77
lj	-78
▁mo	-79
▁-	-80
▁pro	-81
▁M	-82
▁sa	-83
▁N	-84
lo	-85
▁ti	-86
no	-87
car	-88
na	-89
mo	-90
da	-91
▁te	-92
▁ac	-93
ve	-94
▁li	-95
▁to	-96
▁ic	-97
▁pri	-98
▁vi	-99
▁D	-100
▁io	-101
sk	-102
▁2	-103
▁r	-104
di	-105
▁1	-106
▁h	-107
▁og	-108
▁ih	-109
ta	-110
▁vo	-111
▁ima	-112
▁B	-113
▁la	-114
▁ob	-115
▁sk	-116
▁os	-117
▁ma	-118
▁0	-119
▁im	-120
će	-121
▁K	-122
▁jed	-123
▁T	-124
▁ve	-125
le	-126
nj	-127
▁ta	-128
er	-129
▁j	-130
▁I	-131
▁O	-132
▁H	-133
or	-134
▁ro	-135
▁A	-136
▁koji	-137
▁ja	-138
▁nje	-139
▁f	-140
▁ije	-141
av	-142
▁ccar	-143
▁U	-144
▁ov	-145
ni	-146
et	-147
▁ri	-148
▁iti	-149
▁mi	-150
▁V	-151
▁ak	-152
▁će	-153
▁R	-154
ran	-155
ute	-156
▁ž	-157
▁ili	-158
▁Z	-159
▁acute	-160
al	-161
▁lo	-162
▁god	-163
ij	-164
▁:	-165
▁što	-166
lu	-167
▁ju	-168
vat	-169
jen	-170
ga	-171
▁godin	-172
▁ij	-173
up	-174
▁G	-175
▁J	-176
▁ci	-177
▁pa	-178
▁ar	-179
▁me	-180
▁raz	-181
▁is	-182
▁ija	-183
▁L	-184
jed	-185
▁sko	-186
▁di	-187
▁ite	-188
▁ovi	-189
go	-190
▁gra	-191
il	-192
vor	-193
▁va	-194
▁ova	-195
▁dru	-196
gu	-197
▁ali	-198
jet	-199
ut	-200
▁al	-201
rvat	-202
▁oj	-203
▁zcar	-204
▁'	-205
vn	-206
še	-207
▁ila	-208
el	-209
▁aj	-210
▁tre	-211
ći	-212
is	-213
jel	-214
me	-215
▁bo	-216
▁kako	-217
tu	-218
▁ski	-219
▁E	-220
▁3	-221
▁or	-222
▁sp	-223
▁ot	-224
kon	-225
▁koje	-226
▁C	-227
▁er	-228
▁pr	-229
▁op	-230
▁Na	-231
▁(	-232
vr	-233
▁mje	-234
ba	-235
▁ić	-236
že	-237
▁ica	-238
▁ost	-239
▁nije	-240
za	-241
▁)	-242
zi	-243
▁sve	-244
▁up	-245
▁nos	-246
▁ig	-247
▁ru	-248
bo	-249
▁pred	-250
▁zna	-251
ki	-252
▁ama	-253
ov	-254
▁pra	-255
▁kao	-256
▁nja	-257
▁ava	-258
št	-259
▁sam	-260
▁F	-261
de	-262
▁ira	-263
▁nji	-264
▁4	-265
▁5	-266
ku	-267
▁et	-268
▁svo	-269
du	-270
▁pu	-271
▁es	-272
▁sta	-273
▁em	-274
tiv	-275
▁gla	-276
on	-277
▁naj	-278
lik	-279
▁it	-280
▁Hrvat	-281
ca	-282
jek	-283
ci	-284
▁biti	-285
▁vr	-286
▁govor	-287
▁9	-288
men	-289
▁lju	-290
jav	-291
▁ist	-292
▁ič	-293
tn	-294
▁stav	-295
▁dob	-296
ad	-297
▁ice	-298
▁Po	-299
▁če	-300
sp	-301
▁tu	-302
▁lja	-303
▁nik	-304
▁smo	-305
▁ske	-306
▁uz	-307
sn	-308
▁oli	-309
ul	-310
▁koja	-311
▁jo	-312
▁ga	-313
▁dje	-314
▁više	-315
▁du	-316
rž	-317
▁itelj	-318
▁ik	-319
▁de	-320
it	-321
▁ici	-322
▁mu	-323
▁iš	-324
▁6	-325
▁nakon	-326
dn	-327
ac	-328
▁tra	-329
im	-330
▁Š	-331
▁igra	-332
▁preds	-333
▁samo	-334
▁dana	-335
▁ku	-336
▁bio	-337
ir	-338
▁jedn	-339
▁eu	-340
▁ović	-341
▁drug	-342
rav	-343
kt	-344
▁osti	-345
▁7	-346
tak	-347
rn	-348
ven	-349
▁ud	-350
▁iva	-351
▁si	-352
▁min	-353
▁ati	-354
ao	-355
▁le	-356
ent	-357
đu	-358
▁nu	-359
▁ovo	-360
anj	-361
▁8	-362
mp	-363
rij	-364
jer	-365
▁kup	-366
▁već	-367
▁pla	-368
čn	-369
▁prije	-370
om	-371
čk	-372
▁el	-373
▁ut	-374
bor	-375
lje	-376
▁ki	-377
▁tako	-378
ce	-379
ke	-380
▁lu	-381
bog	-382
aj	-383
▁uje	-384
ne	-385
ter	-386
▁ć	-387
kao	-388
▁ove	-389
▁jer	-390
▁mogu	-391
▁be	-392
▁pod	-393
▁još	-394
▁kr	-395
▁sto	-396
▁oko	-397
▁njeg	-398
▁kon	-399
▁az	-400
un	-401
▁kra	-402
▁as	-403
▁ag	-404
▁aci	-405
▁us	-406
▁oliko	-407
▁stup	-408
▁uč	-409
▁rekao	-410
▁met	-411
▁?	-412
ako	-413
▁treba	-414
šk	-415
▁ska	-416
▁enje	-417
▁njih	-418
rije	-419
▁zbog	-420
▁svi	-421
am	-422
ak	-423
▁velik	-424
sto	-425
▁rad	-426
▁ži	-427
▁vla	-428
▁bro	-429
red	-430
▁godi	-431
▁pos	-432
▁ijsk	-433
jn	-434
▁nov	-435
▁ek	-436
▁dok	-437
▁iju	-438
▁tar	-439
su	-440
▁red	-441
ob	-442
vak	-443
▁ako	-444
▁može	-445
▁oz	-446
lic	-447
▁eg	-448
▁bilo	-449
▁bu	-450
▁uju	-451
▁man	-452
▁av	-453
▁radi	-454
▁ika	-455
rop	-456
▁iji	-457
▁au	-458
ća	-459
▁Za	-460
▁aš	-461
▁utak	-462
▁skog	-463
▁ljen	-464
dje	-465
▁ok	-466
▁sti	-467
em	-468
▁gle	-469
cij	-470
▁lje	-471
▁tva	-472
▁ol	-473
▁am	-474
▁ab	-475
lij	-476
sta	-477
▁at	-478
rad	-479
▁dst	-480
▁eura	-481
▁zi	-482
▁ub	-483
ječ	-484
jo	-485
▁dstro	-486
▁hrvat	-487
▁nek	-488
▁ad	-489
▁isp	-490
▁vrije	-491
reb	-492
▁kl	-493
▁!	-494
▁bila	-495
▁nju	-496
▁sv	-497
▁tri	-498
▁utakm	-499
▁nog	-500
▁drž	-501
jiv	-502
▁stran	-503
▁jedan	-504
var	-505
se	-506
▁grad	-507
▁skoj	-508
▁ina	-509
▁slu	-510
▁remen	-511
▁/	-512
▁uk	-513
▁vod	-514
▁ho	-515
▁nika	-516
▁Eu	-517
lav	-518
▁rotiv	-519
tin	-520
▁ilo	-521
▁pis	-522
▁tvr	-523
lit	-524
▁lan	-525
▁godiš	-526
ži	-527
▁Ne	-528
če	-529
mi	-530
▁ona	-531
▁vje	-532
đen	-533
▁izbor	-534
tor	-535
▁ren	-536
ren	-537
lad	-538
▁mjest	-539
nij	-540
van	-541
▁kada	-542
▁tan	-543
▁či	-544
kv	-545
▁ba	-546
▁iv	-547
▁pravo	-548
▁gdje	-549
▁nj	-550
▁dva	-551
▁nim	-552
▁Mi	-553
at	-554
▁bolj	-555
▁ljudi	-556
lan	-557
ješ	-558
ln	-559
▁enja	-560
▁ur	-561
▁odlu	-562
est	-563
▁pi	-564
▁ev	-565
či	-566
▁prema	-567
▁bez	-568
voj	-569
ira	-570
ok	-571
▁dan	-572
▁tr	-573
rat	-574
▁vid	-575
▁osl	-576
▁tren	-577
si	-578
▁ust	-579
▁eti	-580
▁ca	-581
▁klju	-582
▁jedno	-583
▁nam	-584
▁kad	-585
tur	-586
▁dijel	-587
joj	-588
▁nih	-589
ša	-590
▁klu	-591
rak	-592
▁ent	-593
▁ani	-594
▁icu	-595
kol	-596
ris	-597
tsk	-598
▁jedin	-599
dr	-600
▁objav	-601
▁tav	-602
▁rav	-603
tel	-604
gr	-605
io	-606
▁nosti	-607
us	-608
lem	-609
▁skih	-610
▁ul	-611
ča	-612
▁osob	-613
▁ap	-614
den	-615
▁skom	-616
▁posto	-617
što	-618
▁imo	-619
▁sm	-620
jes	-621
dat	-622
dij	-623
▁iran	-624
▁nego	-625
▁seb	-626
▁kri	-627
raž	-628
▁nad	-629
▁Europ	-630
val	-631
▁gleda	-632
▁par	-633
kr	-634
▁svoje	-635
▁oka	-636
▁nap	-637
▁mjer	-638
▁bili	-639
▁slo	-640
▁svak	-641
ši	-642
▁igu	-643
▁W	-644
▁služ	-645
▁zd	-646
▁ključ	-647
▁glas	-648
▁jen	-649
▁poz	-650
▁mora	-651
▁mog	-652
▁ivo	-653
▁br	-654
▁toga	-655
▁To	-656
▁ljiv	-657
▁tek	-658
▁ke	-659
▁nisu	-660
▁oni	-661
▁až	-662
▁ori	-663
▁zdrav	-664
▁agreb	-665
sti	-666
▁voz	-667
zon	-668
▁ing	-669
▁Č	-670
▁svoj	-671
▁ari	-672
▁nas	-673
▁sada	-674
▁ivanj	-675
▁blem	-676
▁poru	-677
▁nici	-678
▁zap	-679
rov	-680
▁poč	-681
▁An	-682
▁kan	-683
ur	-684
▁polic	-685
▁y	-686
jetn	-687
▁gr	-688
▁Ž	-689
gi	-690
▁mjen	-691
▁prem	-692
▁među	-693
▁prvi	-694
▁No	-695
▁est	-696
▁ir	-697
▁auto	-698
▁kom	-699
▁društ	-700
▁anj	-701
▁un	-702
▁ao	-703
▁rek	-704
▁prav	-705
▁dr	-706
▁sezon	-707
▁broj	-708
▁rep	-709
▁čin	-710
▁že	-711
▁mat	-712
▁vijek	-713
▁kod	-714
▁voji	-715
▁vijet	-716
▁il	-717
▁itu	-718
▁građ	-719
▁sku	-720
▁Me	-721
▁gram	-722
▁malo	-723
▁dobro	-724
jev	-725
nu	-726
as	-727
▁igurn	-728
▁milij	-729
▁tim	-730
▁zem	-731
▁minut	-732
gan	-733
▁eni	-734
▁nač	-735
▁Ni	-736
cu	-737
vić	-738
▁ele	-739
▁kre	-740
▁škol	-741
▁rez	-742
▁ast	-743
▁ustav	-744
▁tijek	-745
▁živo	-746
▁prvo	-747
▁Pre	-748
vu	-749
▁igrač	-750
▁isk	-751
rug	-752
nic	-753
▁tp	-754
▁ač	-755
▁koju	-756
▁ini	-757
▁cijen	-758
▁sad	-759
▁olo	-760
▁inf	-761
▁oja	-762
▁pe	-763
vez	-764
sl	-765
ver	-766
tit	-767
ge	-768
▁zemlj	-769
▁insk	-770
tr	-771
▁danas	-772
bil	-773
vrš	-774
▁novi	-775
▁ada	-776
▁Mar	-777
▁pet	-778
▁itet	-779
▁inter	-780
enc	-781
nim	-782
vod	-783
▁moguć	-784
gur	-785
rb	-786
▁Re	-787
tk	-788
ze	-789
▁usp	-790
▁nost	-791
▁put	-792
▁izira	-793
▁nema	-794
▁ed	-795
▁kaže	-796
▁rž	-797
▁život	-798
▁fil	-799
▁stvo	-800
▁tru	-801
▁otp	-802
tov	-803
aln	-804
▁tran	-805
▁ine	-806
▁tvor	-807
▁zab	-808
▁javn	-809
▁sre	-810
▁stva	-811
▁iona	-812
▁kojem	-813
laz	-814
▁sna	-815
▁jekt	-816
▁glavn	-817
▁sigur	-818
▁završ	-819
▁cijel	-820
▁lin	-821
▁dvi	-822
▁telj	-823
▁ip	-824
▁nešto	-825
▁nogo	-826
▁njem	-827
▁stven	-828
ub	-829
kom	-830
▁Nakon	-831
▁tome	-832
▁ional	-833
▁jeti	-834
šta	-835
meri	-836
▁rasp	-837
▁nom	-838
▁omo	-839
▁doma	-840
▁Mo	-841
▁gol	-842
▁objed	-843
ks	-844
▁itanj	-845
▁vjer	-846
▁zra	-847
gao	-848
▁Sp	-849
▁skim	-850
▁pop	-851
▁dio	-852
▁Do	-853
đa	-854
▁vodi	-855
▁tro	-856
god	-857
▁nica	-858
▁puno	-859
bn	-860
▁sati	-861
do	-862
▁una	-863
nos	-864
▁djelj	-865
▁ht	-866
ret	-867
▁zg	-868
▁dvije	-869
▁kaz	-870
▁sl	-871
▁kaza	-872
▁Ma	-873
▁metn	-874
▁mno	-875
▁zme	-876
▁tom	-877
▁tat	-878
nik	-879
▁matra	-880
duć	-881
▁kro	-882
▁etvr	-883
▁znat	-884
▁etvrt	-885
čaj	-886
▁rezul	-887
▁jednj	-888
▁upan	-889
▁vija	-890
▁zn	-891
▁ćemo	-892
▁ovanj	-893
rod	-894
▁din	-895
▁stor	-896
duk	-897
▁taj	-898
▁njez	-899
▁aka	-900
▁neki	-901
šl	-902
▁zent	-903
mac	-904
▁lazi	-905
▁fin	-906
▁um	-907
▁dalje	-908
lar	-909
▁zv	-910
▁10	-911
tko	-912
▁organ	-913
▁alo	-914
▁ćen	-915
▁način	-916
oto	-917
▁koris	-918
▁djel	-919
▁držav	-920
▁mijen	-921
▁važ	-922
▁bli	-923
▁slav	-924
▁gotov	-925
▁hvat	-926
lim	-927
▁rač	-928
he	-929
ol	-930
▁kont	-931
▁manje	-932
▁emo	-933
▁ilje	-934
▁id	-935
▁vis	-936
▁izvod	-937
▁nis	-938
▁Dan	-939
▁log	-940
▁nep	-941
▁stoji	-942
▁ep	-943
▁oš	-944
▁etiri	-945
▁Ri	-946
▁ora	-947
rt	-948
▁izac	-949
▁lučaj	-950
▁Pro	-951
▁ajduk	-952
▁zmeđu	-953
▁ituac	-954
▁ono	-955
▁jatel	-956
▁ide	-957
▁rekla	-958
raj	-959
▁nosi	-960
▁brz	-961
▁tor	-962
▁imaju	-963
▁ran	-964
▁mla	-965
▁minis	-966
▁tvara	-967
▁medij	-968
čj	-969
▁oma	-970
▁dno	-971
▁kojoj	-972
▁govar	-973
▁onda	-974
▁Nje	-975
▁dručj	-976
▁vrlo	-977
nen	-978
▁uv	-979
▁fi	-980
▁bor	-981
▁kraj	-982
▁sr	-983
▁ile	-984
▁vez	-985
▁ož	-986
▁final	-987
▁održ	-988
▁acije	-989
▁eno	-990
▁spor	-991
▁repre	-992
kaz	-993
▁vojim	-994
▁Kako	-995
▁ste	-996
▁uprav	-997
▁ce	-998
▁jve	-999
▁film	-1000
▁sjed	-1001
▁ijal	-1002
avn	-1003
▁Sve	-1004
▁kroz	-1005
▁ovima	-1006
▁ven	-1007
▁Od	-1008
▁pust	-1009
▁klub	-1010
▁jetsk	-1011
▁vam	-1012
▁adi	-1013
▁stvar	-1014
▁jako	-1015
▁Ivan	-1016
zb	-1017
▁čak	-1018
▁pun	-1019
▁polit	-1020
▁rast	-1021
▁vijes	-1022
▁tje	-1023
▁top	-1024
▁račun	-1025
▁men	-1026
▁eset	-1027
▁joj	-1028
▁rener	-1029
▁odluč	-1030
▁svoju	-1031
▁okaza	-1032
▁riječ	-1033
▁ši	-1034
▁Pri	-1035
led	-1036
▁meta	-1037
ha	-1038
▁Ako	-1039
▁lobo	-1040
▁udar	-1041
▁čki	-1042
▁ala	-1043
▁lobod	-1044
▁ržavn	-1045
▁gor	-1046
▁jak	-1047
ho	-1048
▁oč	-1049
▁vozil	-1050
▁Al	-1051
▁rež	-1052
▁Jo	-1053
log	-1054
▁w	-1055
▁20	-1056
▁inj	-1057
▁nut	-1058
▁jući	-1059
▁aktiv	-1060
▁pozna	-1061
▁tjeca	-1062
▁takođ	-1063
ben	-1064
čer	-1065
▁aca	-1066
mor	-1067
▁osvoj	-1068
▁poput	-1069
tal	-1070
▁nice	-1071
▁let	-1072
▁neće	-1073
▁sva	-1074
▁duž	-1075
▁ljub	-1076
▁puta	-1077
▁tk	-1078
▁opa	-1079
▁drugi	-1080
▁ostav	-1081
▁oc	-1082
▁list	-1083
anc	-1084
▁pada	-1085
▁služb	-1086
▁mor	-1087
▁reg	-1088
▁ime	-1089
▁ničk	-1090
od	-1091
▁Sa	-1092
▁njima	-1093
▁ijama	-1094
▁Ve	-1095
▁rijed	-1096
▁rod	-1097
▁europ	-1098
▁ijest	-1099
▁ativn	-1100
▁glazb	-1101
▁Va	-1102
▁hran	-1103
▁iranj	-1104
▁volj	-1105
▁prven	-1106
▁inanc	-1107
▁vrš	-1108
▁nosno	-1109
▁odluk	-1110
▁tanov	-1111
▁Lu	-1112
ert	-1113
▁štit	-1114
▁napad	-1115
▁živ	-1116
um	-1117
▁Milan	-1118
▁domać	-1119
▁uo	-1120
▁ej	-1121
nov	-1122
▁roš	-1123
▁komp	-1124
▁avanj	-1125
▁ito	-1126
▁noj	-1127
▁one	-1128
▁miš	-1129
▁vol	-1130
▁hr	-1131
▁gost	-1132
▁straž	-1133
▁inar	-1134
▁preko	-1135
▁dobr	-1136
▁takv	-1137
▁cilj	-1138
▁didat	-1139
▁pozi	-1140
▁žen	-1141
▁sli	-1142
▁ovaj	-1143
▁ener	-1144
▁čeka	-1145
▁zgrad	-1146
▁Tako	-1147
▁HD	-1148
▁St	-1149
▁acija	-1150
▁tisu	-1151
▁enju	-1152
▁dnost	-1153
▁bit	-1154
▁ubo	-1155
▁bac	-1156
ško	-1157
vno	-1158
▁njak	-1159
▁mjese	-1160
▁Bi	-1161
▁eki	-1162
▁ec	-1163
▁stavn	-1164
▁št	-1165
▁piše	-1166
gl	-1167
▁tkri	-1168
▁zajed	-1169
▁isti	-1170
▁voj	-1171
žen	-1172
pć	-1173
▁naš	-1174
▁biv	-1175
▁dar	-1176
▁lak	-1177
▁Iz	-1178
oba	-1179
▁kuć	-1180
▁nova	-1181
▁irati	-1182
ud	-1183
pnj	-1184
▁HDZ	-1185
▁gled	-1186
▁pjes	-1187
▁stan	-1188
▁jelo	-1189
▁plat	-1190
▁sjet	-1191
▁anje	-1192
▁sin	-1193
▁vode	-1194
▁foto	-1195
▁poruč	-1196
nir	-1197
▁kol	-1198
▁inu	-1199
▁tko	-1200
▁jte	-1201
nji	-1202
▁tvrtk	-1203
▁ten	-1204
▁ji	-1205
▁Grad	-1206
▁ože	-1207
▁Nov	-1208
▁mir	-1209
▁ubrov	-1210
▁mišlj	-1211
▁mjetn	-1212
▁zakon	-1213
▁pot	-1214
▁eren	-1215
▁okol	-1216
▁narod	-1217
▁nij	-1218
▁imao	-1219
▁Uk	-1220
▁Pl	-1221
▁zad	-1222
▁jeli	-1223
▁kojeg	-1224
▁mlad	-1225
▁Ovo	-1226
▁Varaž	-1227
čit	-1228
▁anja	-1229
▁ički	-1230
▁novo	-1231
▁15	-1232
▁dugo	-1233
▁šest	-1234
▁brojn	-1235
▁udjel	-1236
stv	-1237
▁vrh	-1238
▁sred	-1239
▁prvak	-1240
ik	-1241
▁tisuć	-1242
▁hval	-1243
vol	-1244
▁čko	-1245
▁doda	-1246
▁stati	-1247
▁sebno	-1248
met	-1249
▁EU	-1250
manj	-1251
▁teh	-1252
sim	-1253
▁energ	-1254
▁žel	-1255
▁vas	-1256
▁nac	-1257
▁iza	-1258
▁orm	-1259
▁pak	-1260
▁raf	-1261
▁laga	-1262
▁svim	-1263
▁vaš	-1264
▁dovol	-1265
▁eta	-1266
▁osoba	-1267
▁tvari	-1268
▁ultur	-1269
▁klo	-1270
▁ravno	-1271
▁jvi	-1272
▁komen	-1273
▁mobil	-1274
▁traž	-1275
▁staje	-1276
ruž	-1277
▁cest	-1278
▁nc	-1279
▁ačk	-1280
▁obran	-1281
▁učin	-1282
▁jas	-1283
▁Rijek	-1284
▁jese	-1285
▁razin	-1286
▁avaju	-1287
▁glu	-1288
▁mogao	-1289
tno	-1290
▁baš	-1291
ću	-1292
kuj	-1293
▁voza	-1294
▁jesta	-1295
▁eb	-1296
▁mijer	-1297
▁odr	-1298
▁svih	-1299
▁jesec	-1300
▁trebn	-1301
▁ević	-1302
▁ant	-1303
▁Među	-1304
▁najav	-1305
▁sud	-1306
▁eo	-1307
▁glav	-1308
▁imati	-1309
▁30	-1310
▁rtn	-1311
▁buduć	-1312
▁tada	-1313
▁icama	-1314
▁arn	-1315
▁cent	-1316
▁jever	-1317
▁veden	-1318
▁sje	-1319
▁misl	-1320
▁ana	-1321
▁sreć	-1322
▁vatr	-1323
▁kraju	-1324
▁eri	-1325
▁njega	-1326
▁metar	-1327
▁prošl	-1328
▁ate	-1329
▁ez	-1330
gov	-1331
▁ništ	-1332
▁teško	-1333
▁uš	-1334
▁toč	-1335
▁lanov	-1336
▁jel	-1337
rem	-1338
▁avi	-1339
▁eba	-1340
▁rijav	-1341
▁Pa	-1342
▁and	-1343
▁inamo	-1344
▁ogled	-1345
▁VI	-1346
▁ard	-1347
▁ameri	-1348
▁ormac	-1349
▁smanj	-1350
▁azi	-1351
▁int	-1352
▁visok	-1353
▁ovog	-1354
enk	-1355
▁Ch	-1356
▁Kr	-1357
▁tež	-1358
▁oku	-1359
▁usret	-1360
▁pomen	-1361
▁večer	-1362
▁sc	-1363
▁kval	-1364
▁plan	-1365
▁Srb	-1366
▁kazao	-1367
▁kupin	-1368
▁isto	-1369
▁alno	-1370
▁lijed	-1371
▁bude	-1372
▁voljn	-1373
▁doš	-1374
▁nikad	-1375
▁še	-1376
▁otreb	-1377
▁kar	-1378
▁rafij	-1379
▁Split	-1380
▁radn	-1381
▁koj	-1382
▁jveć	-1383
▁Ka	-1384
▁Ukraj	-1385
▁lj	-1386
▁vojn	-1387
▁of	-1388
▁gu	-1389
▁član	-1390
▁čekuj	-1391
▁eći	-1392
▁iljež	-1393
▁gen	-1394
▁grada	-1395
kor	-1396
▁ča	-1397
▁ovom	-1398
▁gosp	-1399
▁ijen	-1400
▁razn	-1401
▁obav	-1402
▁rusk	-1403
▁stvu	-1404
▁nio	-1405
▁išta	-1406
▁ujući	-1407
▁borb	-1408
▁ivota	-1409
▁Njema	-1410
▁Ko	-1411
▁čan	-1412
▁neka	-1413
id	-1414
▁cu	-1415
▁ostal	-1416
▁znač	-1417
▁šir	-1418
▁ale	-1419
▁jela	-1420
▁ike	-1421
▁tručn	-1422
▁=	-1423
kuš	-1424
▁12	-1425
▁iskus	-1426
▁ravi	-1427
▁eš	-1428
▁voren	-1429
▁rt	-1430
▁Što	-1431
▁pjesm	-1432
▁Plenk	-1433
▁izjav	-1434
▁elnik	-1435
▁trank	-1436
▁kap	-1437
▁dalj	-1438
▁knji	-1439
▁ovjek	-1440
▁Je	-1441
▁Ali	-1442
▁pita	-1443
raz	-1444
▁kor	-1445
▁glum	-1446
▁pokuš	-1447
▁demo	-1448
▁eme	-1449
▁kin	-1450
▁rješ	-1451
tan	-1452
▁VID	-1453
▁ure	-1454
▁usk	-1455
▁šte	-1456
▁prof	-1457
▁Ra	-1458
▁pozor	-1459
▁uprug	-1460
gub	-1461
▁gre	-1462
▁Iako	-1463
▁surad	-1464
▁aju	-1465
▁[	-1466
▁tvrd	-1467
▁islim	-1468
▁bod	-1469
▁obi	-1470
ža	-1471
▁ena	-1472
▁rtner	-1473
▁izv	-1474
▁Da	-1475
▁Fran	-1476
▁loš	-1477
▁sum	-1478
▁druga	-1479
▁gađ	-1480
▁ništa	-1481
▁vezan	-1482
▁zadnj	-1483
▁mnogi	-1484
jedn	-1485
▁tjedn	-1486
▁polu	-1487
▁svom	-1488
đe	-1489
rin	-1490
▁Min	-1491
▁znam	-1492
▁elekt	-1493
▁Ova	-1494
▁nuo	-1495
▁tuden	-1496
▁end	-1497
▁trag	-1498
▁karij	-1499
EO	-1500
▁sport	-1501
▁uh	-1502
▁Gr	-1503
▁neke	-1504
▁stupa	-1505
kac	-1506
▁nove	-1507
▁mal	-1508
jec	-1509
▁liku	-1510
▁izgub	-1511
▁ortsk	-1512
▁gru	-1513
▁ansk	-1514
▁eli	-1515
ska	-1516
▁ću	-1517
▁ajte	-1518
▁vlasn	-1519
▁ičn	-1520
lat	-1521
▁jut	-1522
▁VIDEO	-1523
▁treć	-1524
▁dobio	-1525
▁sumnj	-1526
▁asnij	-1527
las	-1528
▁stala	-1529
▁gospo	-1530
▁enz	-1531
▁sebe	-1532
▁poruk	-1533
rek	-1534
▁uj	-1535
▁vijač	-1536
▁des	-1537
▁veo	-1538
▁fotog	-1539
▁ativ	-1540
žu	-1541
▁ozi	-1542
▁]	-1543
▁lik	-1544
▁ebačk	-1545
ćn	-1546
tom	-1547
kc	-1548
▁liječ	-1549
▁posla	-1550
▁Rus	-1551
▁aciju	-1552
▁pojav	-1553
ron	-1554
▁ator	-1555
▁sla	-1556
▁slov	-1557
▁često	-1558
▁akn	-1559
▁oda	-1560
rag	-1561
▁=>	-1562
▁ras	-1563
▁liti	-1564
▁pli	-1565
▁okaln	-1566
▁Pred	-1567
rom	-1568
▁emelj	-1569
▁talij	-1570
▁brzo	-1571
mah	-1572
▁ičar	-1573
▁ču	-1574
▁hva	-1575
▁Minis	-1576
▁ublik	-1577
▁nima	-1578
▁vlast	-1579
▁laz	-1580
▁zor	-1581
▁zagr	-1582
▁ionic	-1583
▁Ja	-1584
▁stat	-1585
▁gađaj	-1586
iz	-1587
ime	-1588
▁roda	-1589
▁štet	-1590
▁većin	-1591
▁jviše	-1592
▁mladi	-1593
▁laze	-1594
▁vjed	-1595
▁Srbij	-1596
▁str	-1597
▁rošle	-1598
▁bih	-1599
▁ijom	-1600
▁vrat	-1601
▁stanj	-1602
▁vlada	-1603
▁koš	-1604
kiv	-1605
▁kraja	-1606
▁olnic	-1607
kov	-1608
▁otkr	-1609
▁bijed	-1610
▁odnos	-1611
▁čekiv	-1612
▁pone	-1613
▁jede	-1614
▁tešk	-1615
▁nisam	-1616
▁krš	-1617
▁dava	-1618
▁dne	-1619
▁svog	-1620
▁zrak	-1621
▁tog	-1622
vrd	-1623
▁važn	-1624
▁otvrd	-1625
▁imali	-1626
▁spe	-1627
▁stao	-1628
▁optu	-1629
▁Prema	-1630
▁orisn	-1631
▁11	-1632
▁ići	-1633
▁aznen	-1634
▁mogli	-1635
▁ostup	-1636
▁ogu	-1637
▁smrt	-1638
▁gradu	-1639
▁TO	-1640
▁mož	-1641
▁ijan	-1642
rump	-1643
▁Trump	-1644
▁Šp	-1645
▁van	-1646
▁Ju	-1647
▁dodao	-1648
▁dvoj	-1649
▁prat	-1650
▁pov	-1651
▁ara	-1652
▁spješ	-1653
▁rije	-1654
▁icom	-1655
▁irao	-1656
▁pal	-1657
▁aza	-1658
▁zlo	-1659
▁Gor	-1660
▁dvo	-1661
▁mar	-1662
▁ožete	-1663
▁ulic	-1664
▁ose	-1665
▁niz	-1666
▁fer	-1667
▁stoje	-1668
▁djece	-1669
▁Kad	-1670
▁okr	-1671
▁Andr	-1672
▁direk	-1673
▁počel	-1674
▁nul	-1675
▁nosu	-1676
▁uto	-1677
▁čij	-1678
▁uvjet	-1679
▁rin	-1680
▁vel	-1681
▁imen	-1682
▁ponu	-1683
▁vide	-1684
▁kat	-1685
▁pokr	-1686
▁Rep	-1687
▁akav	-1688
▁laza	-1689
▁Y	-1690
▁okup	-1691
▁mis	-1692
▁maj	-1693
▁možda	-1694
▁anjo	-1695
▁slovn	-1696
▁ivn	-1697
▁doga	-1698
▁novno	-1699
▁otvor	-1700
▁mješt	-1701
▁ajn	-1702
▁omoć	-1703
▁ranij	-1704
sa	-1705
▁ncert	-1706
▁bolje	-1707
▁oveća	-1708
vet	-1709
▁jeć	-1710
▁naše	-1711
▁ia	-1712
▁ipak	-1713
▁odršk	-1714
leg	-1715
▁SD	-1716
▁arl	-1717
▁trans	-1718
▁ponud	-1719
▁imp	-1720
▁Franc	-1721
▁rži	-1722
▁jeva	-1723
▁icima	-1724
▁serij	-1725
▁genc	-1726
▁ijaln	-1727
▁ban	-1728
▁Rusij	-1729
▁enu	-1730
mu	-1731
▁%	-1732
▁oper	-1733
▁trgov	-1734
▁odi	-1735
▁lazak	-1736
▁jub	-1737
▁jubav	-1738
▁jav	-1739
uk	-1740
▁oje	-1741
ch	-1742
▁odmah	-1743
▁pozic	-1744
▁Ameri	-1745
▁Pod	-1746
▁aknu	-1747
▁plas	-1748
▁priča	-1749
AD	-1750
▁De	-1751
▁lije	-1752
▁utjec	-1753
▁On	-1754
▁rem	-1755
▁tira	-1756
▁avjet	-1757
▁imir	-1758
▁svaki	-1759
zd	-1760
▁ben	-1761
▁znak	-1762
▁htjev	-1763
vin	-1764
▁ian	-1765
▁inama	-1766
▁znan	-1767
▁iako	-1768
▁pisa	-1769
▁vik	-1770
▁ovati	-1771
▁bira	-1772
▁snim	-1773
▁ratur	-1774
▁Uz	-1775
▁tvarn	-1776
▁Pet	-1777
▁ravil	-1778
▁Ro	-1779
▁ijek	-1780
▁kretn	-1781
▁estiv	-1782
▁redi	-1783
▁mirov	-1784
▁stv	-1785
▁ell	-1786
▁ista	-1787
▁kolo	-1788
▁dogod	-1789
▁osobn	-1790
▁Pe	-1791
▁scen	-1792
▁temp	-1793
▁vije	-1794
▁ković	-1795
▁Velik	-1796
▁aja	-1797
▁rol	-1798
▁utku	-1799
▁aša	-1800
▁ozbil	-1801
▁pisao	-1802
▁stigl	-1803
▁sob	-1804
▁niti	-1805
▁18	-1806
▁klon	-1807
▁Nije	-1808
▁etalj	-1809
▁bivš	-1810
▁ved	-1811
▁imamo	-1812
▁osobe	-1813
▁pokaz	-1814
▁HN	-1815
▁bla	-1816
▁ulog	-1817
▁plaća	-1818
▁ang	-1819
▁rodn	-1820
▁litik	-1821
▁evi	-1822
▁50	-1823
▁Ši	-1824
▁daje	-1825
▁Naime	-1826
▁učen	-1827
▁Osim	-1828
▁reći	-1829
▁zrael	-1830
▁boj	-1831
▁ion	-1832
▁azov	-1833
▁ulj	-1834
▁nedo	-1835
▁onač	-1836
▁opasn	-1837
▁lanir	-1838
▁oga	-1839
▁boga	-1840
▁kamp	-1841
▁lož	-1842
▁ašnj	-1843
▁aknuo	-1844
mije	-1845
▁viđ	-1846
▁ekip	-1847
▁centr	-1848
▁stupn	-1849
▁zirom	-1850
▁amb	-1851
▁vjetn	-1852
▁Bar	-1853
▁oto	-1854
▁nutar	-1855
▁posao	-1856
▁vra	-1857
▁rati	-1858
▁res	-1859
▁padn	-1860
▁ovrat	-1861
▁radic	-1862
▁dug	-1863
▁ogr	-1864
▁injen	-1865
▁park	-1866
▁oslen	-1867
▁kva	-1868
▁skr	-1869
▁Sv	-1870
▁zb	-1871
▁omoći	-1872
▁mas	-1873
▁ljanj	-1874
▁uda	-1875
▁stali	-1876
▁Iva	-1877
▁ličit	-1878
▁13	-1879
▁In	-1880
▁jaš	-1881
▁mogla	-1882
▁prava	-1883
▁tkril	-1884
▁var	-1885
▁ište	-1886
▁jan	-1887
▁kojim	-1888
▁optuž	-1889
str	-1890
▁vrt	-1891
▁inst	-1892
▁iznos	-1893
▁vlad	-1894
▁SAD	-1895
▁nijel	-1896
▁zanim	-1897
▁tamo	-1898
▁znači	-1899
dam	-1900
▁iste	-1901
▁čega	-1902
▁dnevn	-1903
▁Br	-1904
ment	-1905
▁tvrđ	-1906
▁pravn	-1907
▁blag	-1908
▁vrhu	-1909
▁poraz	-1910
▁šao	-1911
les	-1912
▁sja	-1913
▁ie	-1914
▁ša	-1915
▁Polic	-1916
▁bliz	-1917
▁rada	-1918
▁encij	-1919
▁kluba	-1920
▁jedeć	-1921
▁hit	-1922
▁ržišt	-1923
▁ete	-1924
▁izvan	-1925
▁nes	-1926
rok	-1927
▁erv	-1928
▁petak	-1929
▁zašto	-1930
▁igrao	-1931
jeg	-1932
lam	-1933
▁uper	-1934
▁ljučn	-1935
▁sljed	-1936
▁sata	-1937
▁tempe	-1938
▁tip	-1939
▁inac	-1940
▁caron	-1941
▁vojoj	-1942
▁čić	-1943
▁brod	-1944
▁zato	-1945
▁tarij	-1946
▁rio	-1947
▁oran	-1948
▁kop	-1949
▁pros	-1950
▁anjol	-1951
ces	-1952
▁14	-1953
▁ita	-1954
▁ovn	-1955
▁vozač	-1956
▁fun	-1957
▁real	-1958
▁ero	-1959
▁SDP	-1960
▁jes	-1961
sad	-1962
▁andat	-1963
pt	-1964
▁uzi	-1965
▁loven	-1966
▁ter	-1967
psk	-1968
▁Naj	-1969
▁dati	-1970
▁17	-1971
▁rade	-1972
▁roces	-1973
▁tres	-1974
▁savez	-1975
▁ruš	-1976
▁Petr	-1977
▁troš	-1978
▁komun	-1979
▁zva	-1980
▁kilo	-1981
▁arlam	-1982
▁netko	-1983
▁pular	-1984
uno	-1985
▁adran	-1986
▁bodov	-1987
▁tpuno	-1988
▁dala	-1989
▁ogas	-1990
▁vesti	-1991
lov	-1992
▁Kada	-1993
▁čn	-1994
▁rata	-1995
▁ef	-1996
▁era	-1997
▁bogat	-1998
▁davno	-1999
▁Fi	-2000
▁nt	-2001
▁like	-2002
▁osam	-2003
▁ema	-2004
▁lji	-2005
▁imala	-2006
▁dom	-2007
▁tičk	-2008
jeh	-2009
▁kakv	-2010
▁erenc	-2011
▁ivši	-2012
▁sedam	-2013
▁čke	-2014
▁funkc	-2015
▁spjeh	-2016
▁Šiben	-2017
▁ajin	-2018
▁Josi	-2019
▁opet	-2020
▁vrst	-2021
▁cima	-2022
▁bol	-2023
▁son	-2024
▁ikac	-2025
▁Josip	-2026
▁svega	-2027
▁ze	-2028
tim	-2029
▁ital	-2030
▁boles	-2031
man	-2032
▁jiv	-2033
▁25	-2034
▁ay	-2035
▁uci	-2036
▁nijet	-2037
▁atelj	-2038
▁ch	-2039
▁uređ	-2040
▁riopć	-2041
▁venim	-2042
▁ark	-2043
▁ubotu	-2044
▁prvom	-2045
▁16	-2046
▁af	-2047
▁Au	-2048
▁nicu	-2049
▁redov	-2050
▁sijek	-2051
▁zl	-2052
▁rtv	-2053
▁akle	-2054
▁ovih	-2055
▁premn	-2056
▁akc	-2057
▁uvjer	-2058
dic	-2059
▁mene	-2060
▁njim	-2061
▁ovu	-2062
▁Đ	-2063
▁ill	-2064
▁ured	-2065
▁bav	-2066
▁ovdje	-2067
▁ređen	-2068
▁eva	-2069
▁bran	-2070
▁už	-2071
▁izvor	-2072
▁iznen	-2073
▁vatn	-2074
▁eč	-2075
▁kazn	-2076
▁lasti	-2077
▁Ob	-2078
ine	-2079
▁Bil	-2080
▁dao	-2081
▁jutro	-2082
▁so	-2083
▁bile	-2084
▁zabav	-2085
▁lipnj	-2086
▁koleg	-2087
▁ušt	-2088
▁ijete	-2089
▁jatno	-2090
▁znanj	-2091
es	-2092
▁eka	-2093
▁doblj	-2094
▁ovjer	-2095
▁utova	-2096
▁hod	-2097
▁mak	-2098
▁šli	-2099
▁njen	-2100
▁Ant	-2101
▁Slav	-2102
▁stru	-2103
▁korak	-2104
▁čel	-2105
▁želi	-2106
▁grama	-2107
▁zljed	-2108
▁Tom	-2109
▁dodat	-2110
▁Repub	-2111
▁logij	-2112
▁vši	-2113
▁eć	-2114
▁ib	-2115
▁mod	-2116
▁rođen	-2117
▁orij	-2118
▁tih	-2119
▁bjeg	-2120
▁lika	-2121
▁vlač	-2122
▁novac	-2123
▁ey	-2124
▁topl	-2125
▁borav	-2126
lož	-2127
▁ćete	-2128
▁ton	-2129
▁djevo	-2130
▁vojih	-2131
▁ment	-2132
▁utno	-2133
▁Per	-2134
▁glasa	-2135
▁metaš	-2136
▁grup	-2137
min	-2138
▁slab	-2139
▁nd	-2140
▁glaš	-2141
▁ument	-2142
▁urnir	-2143
▁druž	-2144
▁deset	-2145
▁išl	-2146
▁ijent	-2147
▁osebn	-2148
▁romet	-2149
▁jeru	-2150
▁kriv	-2151
▁jug	-2152
▁uži	-2153
▁neza	-2154
▁Kao	-2155
▁pute	-2156
▁uzima	-2157
isl	-2158
▁19	-2159
▁Bo	-2160
▁rof	-2161
▁vaja	-2162
▁zapo	-2163
▁Nikol	-2164
▁ljep	-2165
▁ozna	-2166
rez	-2167
▁dosad	-2168
▁ijeva	-2169
▁for	-2170
▁per	-2171
▁sjeća	-2172
▁skoro	-2173
▁iši	-2174
sko	-2175
▁kola	-2176
▁kid	-2177
▁datak	-2178
▁islav	-2179
▁jeruj	-2180
▁slije	-2181
▁tigao	-2182
▁rah	-2183
▁traja	-2184
▁eksp	-2185
▁lakš	-2186
▁ident	-2187
▁tho	-2188
▁rednj	-2189
▁ijezd	-2190
▁vjero	-2191
▁duše	-2192
▁okus	-2193
▁ovoj	-2194
▁jašnj	-2195
ste	-2196
▁antn	-2197
▁lako	-2198
▁rujn	-2199
kl	-2200
▁vin	-2201
▁Preds	-2202
▁tijel	-2203
▁tudij	-2204
živ	-2205
▁pl	-2206
▁lopt	-2207
▁rađ	-2208
▁otenc	-2209
▁ato	-2210
▁raća	-2211
▁ome	-2212
▁graf	-2213
▁ešk	-2214
▁gub	-2215
▁gener	-2216
▁ozlij	-2217
▁cr	-2218
▁snag	-2219
▁Ivana	-2220
▁ištu	-2221
▁anjsk	-2222
uz	-2223
▁autor	-2224
▁uživa	-2225
▁povr	-2226
▁vjet	-2227
▁čini	-2228
▁astav	-2229
▁ritan	-2230
▁ug	-2231
▁događ	-2232
▁pošt	-2233
teg	-2234
▁pje	-2235
▁pjeva	-2236
▁slova	-2237
▁muš	-2238
▁pol	-2239
▁etku	-2240
▁pogod	-2241
▁rat	-2242
▁istin	-2243
▁val	-2244
▁potom	-2245
▁rodaj	-2246
▁kog	-2247
▁žena	-2248
▁kateg	-2249
▁uktur	-2250
▁NA	-2251
▁cel	-2252
▁40	-2253
▁prič	-2254
▁seks	-2255
▁ijih	-2256
▁Zbog	-2257
▁nače	-2258
▁oruž	-2259
▁sklad	-2260
▁ane	-2261
▁jam	-2262
▁Austr	-2263
▁jasno	-2264
▁spred	-2265
▁ući	-2266
▁dosta	-2267
▁mater	-2268
▁oguće	-2269
▁vjež	-2270
roš	-2271
▁manj	-2272
▁ojatn	-2273
▁vib	-2274
end	-2275
▁uca	-2276
▁sno	-2277
▁djecu	-2278
▁prve	-2279
▁rist	-2280
▁sami	-2281
▁uslu	-2282
▁njoj	-2283
▁ozem	-2284
▁Dr	-2285
▁nč	-2286
▁osim	-2287
▁Ar	-2288
▁PO	-2289
▁elen	-2290
▁mr	-2291
▁veli	-2292
tic	-2293
▁Svi	-2294
▁luk	-2295
▁rsk	-2296
▁Jedn	-2297
▁abil	-2298
▁almac	-2299
▁azva	-2300
▁tnj	-2301
▁ivati	-2302
▁vijeć	-2303
▁mnogo	-2304
▁Su	-2305
▁smije	-2306
▁dub	-2307
▁lošk	-2308
▁muška	-2309
▁ništv	-2310
▁Real	-2311
▁kovi	-2312
▁otroš	-2313
▁hi	-2314
▁nismo	-2315
▁razov	-2316
▁oramo	-2317
▁ektor	-2318
▁troj	-2319
▁rend	-2320
▁putem	-2321
▁thodn	-2322
▁đen	-2323
▁estr	-2324
▁elj	-2325
▁moj	-2326
▁rid	-2327
▁oji	-2328
▁omč	-2329
▁Opć	-2330
▁došao	-2331
▁sadrž	-2332
▁24	-2333
▁omčad	-2334
▁uslug	-2335
▁Prije	-2336
▁moglo	-2337
▁gal	-2338
▁vođa	-2339
▁pušta	-2340
▁srpnj	-2341
▁ljan	-2342
▁obr	-2343
▁anic	-2344
▁torak	-2345
▁itn	-2346
▁Luka	-2347
AJ	-2348
▁uć	-2349
▁kiš	-2350
▁lov	-2351
▁tekl	-2352
▁leks	-2353
▁naći	-2354
▁opis	-2355
▁plav	-2356
▁prva	-2357
▁ionir	-2358
▁mlađ	-2359
▁ispit	-2360
▁olog	-2361
▁Rad	-2362
▁kojih	-2363
▁radio	-2364
▁vjedo	-2365
▁Gra	-2366
▁ujuć	-2367
▁tehno	-2368
▁kuša	-2369
▁model	-2370
▁ene	-2371
▁oman	-2372
▁nekad	-2373
TE	-2374
eb	-2375
▁crn	-2376
▁Marko	-2377
▁stiče	-2378
▁rasta	-2379
▁sel	-2380
▁ulaz	-2381
▁oziva	-2382
▁ažnj	-2383
lop	-2384
mal	-2385
▁mag	-2386
▁rok	-2387
ck	-2388
▁nato	-2389
▁drugo	-2390
▁bis	-2391
▁ivotu	-2392
▁snovn	-2393
adr	-2394
▁snaž	-2395
▁sklop	-2396
▁split	-2397
▁stavk	-2398
▁kok	-2399
▁noć	-2400
▁nimk	-2401
▁atn	-2402
▁ekt	-2403
▁doći	-2404
▁dobil	-2405
▁BiH	-2406
▁nose	-2407
▁zitiv	-2408
▁daju	-2409
▁titi	-2410
▁đ	-2411
▁stoj	-2412
▁djela	-2413
▁dobar	-2414
jas	-2415
lip	-2416
▁rasl	-2417
▁skrb	-2418
▁regij	-2419
orn	-2420
▁Zo	-2421
▁ord	-2422
▁rvu	-2423
▁obnov	-2424
nad	-2425
▁šp	-2426
▁rvoj	-2427
▁cjen	-2428
▁idej	-2429
▁ravnj	-2430
▁sat	-2431
▁ovim	-2432
▁trud	-2433
▁ha	-2434
▁krv	-2435
▁spec	-2436
▁čemu	-2437
▁atr	-2438
▁venc	-2439
▁mjene	-2440
▁onačn	-2441
▁polj	-2442
▁time	-2443
▁ncu	-2444
▁konz	-2445
▁artin	-2446
▁esn	-2447
▁knjig	-2448
▁ah	-2449
▁rkv	-2450
▁devet	-2451
▁vibnj	-2452
dio	-2453
▁nor	-2454
▁krug	-2455
▁takt	-2456
▁dolar	-2457
kob	-2458
▁ea	-2459
▁ored	-2460
▁svima	-2461
▁Grada	-2462
▁likom	-2463
1.	-2464
▁+	-2465
▁gar	-2466
▁bjed	-2467
▁konf	-2468
▁vica	-2469
▁rig	-2470
▁hlad	-2471
▁konc	-2472
▁entar	-2473
▁oraju	-2474
▁plitu	-2475
▁tiče	-2476
dus	-2477
▁desn	-2478
▁čkoj	-2479
▁riješ	-2480
▁svjet	-2481
▁šić	-2482
kur	-2483
▁sebi	-2484
▁doživ	-2485
▁dbor	-2486
▁eđen	-2487
▁zlat	-2488
▁ijski	-2489
▁iskor	-2490
▁prvog	-2491
▁uzrok	-2492
▁abr	-2493
▁post	-2494
▁etkom	-2495
zir	-2496
▁biva	-2497
▁išt	-2498
▁bija	-2499
▁ičko	-2500
▁zrač	-2501
▁The	-2502
▁net	-2503
▁tur	-2504
ton	-2505
▁moći	-2506
▁sjajn	-2507
▁dječ	-2508
▁olje	-2509
▁emis	-2510
▁jezi	-2511
▁novog	-2512
▁ozorn	-2513
▁Euro	-2514
▁neu	-2515
▁lijep	-2516
▁rijet	-2517
▁Takođ	-2518
▁medic	-2519
▁bin	-2520
▁poče	-2521
▁Zoran	-2522
▁tkrio	-2523
▁Ist	-2524
▁bra	-2525
▁ičin	-2526
▁noge	-2527
▁ušten	-2528
▁vršen	-2529
▁uči	-2530
▁loga	-2531
▁opće	-2532
▁jevač	-2533
▁diz	-2534
▁iraju	-2535
▁smjer	-2536
▁ruk	-2537
▁dlog	-2538
▁dušev	-2539
▁lijev	-2540
▁vrata	-2541
▁jud	-2542
▁čita	-2543
▁fizi	-2544
▁hu	-2545
▁Mir	-2546
▁lež	-2547
▁psi	-2548
▁tuž	-2549
▁bjedu	-2550
▁crven	-2551
▁sukob	-2552
▁Vla	-2553
▁knad	-2554
▁ljude	-2555
▁želj	-2556
▁Se	-2557
▁onaša	-2558
▁laska	-2559
▁\	-2560
▁šan	-2561
▁siječ	-2562
▁ng	-2563
▁ron	-2564
▁išić	-2565
▁njemu	-2566
▁igi	-2567
▁urg	-2568
▁odli	-2569
▁kupno	-2570
▁otin	-2571
▁njema	-2572
▁snage	-2573
▁tal	-2574
▁nama	-2575
▁oslav	-2576
▁HR	-2577
▁eku	-2578
▁raž	-2579
▁zas	-2580
▁držan	-2581
▁jezik	-2582
▁ravna	-2583
▁sretn	-2584
▁kić	-2585
▁nepo	-2586
▁alost	-2587
▁obvez	-2588
LE	-2589
▁oć	-2590
▁Danas	-2591
▁Bio	-2592
▁tis	-2593
▁Ovaj	-2594
mov	-2595
▁laž	-2596
▁toj	-2597
▁andr	-2598
▁vođ	-2599
▁besp	-2600
▁očet	-2601
▁che	-2602
▁jećaj	-2603
▁novih	-2604
▁posob	-2605
▁redst	-2606
▁def	-2607
▁inc	-2608
▁lig	-2609
▁komb	-2610
▁bijel	-2611
▁teren	-2612
▁dig	-2613
▁ljet	-2614
▁obzir	-2615
▁zatim	-2616
▁Tu	-2617
▁akter	-2618
▁ank	-2619
▁išao	-2620
▁trij	-2621
lja	-2622
▁1.	-2623
▁dra	-2624
▁kcij	-2625
▁Vlade	-2626
▁hotel	-2627
▁minal	-2628
der	-2629
▁evin	-2630
▁uboj	-2631
▁tenis	-2632
▁Domov	-2633
▁esi	-2634
▁ijep	-2635
▁dinsk	-2636
▁oži	-2637
▁arin	-2638
▁pogo	-2639
▁Njeg	-2640
▁alent	-2641
▁ovakv	-2642
▁gan	-2643
▁oru	-2644
▁bliž	-2645
▁judsk	-2646
▁privr	-2647
▁esel	-2648
▁vela	-2649
▁kuha	-2650
▁video	-2651
▁evo	-2652
▁Općin	-2653
▁objas	-2654
▁22	-2655
▁klup	-2656
kan	-2657
▁aket	-2658
▁enjem	-2659
▁koga	-2660
▁ovao	-2661
▁tpor	-2662
▁poziv	-2663
▁ratko	-2664
▁vođač	-2665
▁ičke	-2666
▁vedb	-2667
▁hvalj	-2668
▁mate	-2669
▁nter	-2670
▁otpun	-2671
ic	-2672
▁soc	-2673
▁biste	-2674
▁osjet	-2675
▁ign	-2676
▁rel	-2677
▁tvrdi	-2678
▁doz	-2679
▁Filip	-2680
▁glasn	-2681
▁60	-2682
▁Dok	-2683
▁utin	-2684
▁učil	-2685
▁Insta	-2686
▁sprem	-2687
▁jč	-2688
▁tvo	-2689
▁otok	-2690
▁došlo	-2691
▁dija	-2692
▁stiž	-2693
▁adion	-2694
▁alij	-2695
▁klad	-2696
▁pravi	-2697
▁sličn	-2698
▁udrug	-2699
▁svet	-2700
▁amben	-2701
▁novu	-2702
▁linij	-2703
▁nitko	-2704
▁ps	-2705
▁Oli	-2706
čadi	-2707
▁mčadi	-2708
▁Har	-2709
▁sil	-2710
▁žele	-2711
▁bivši	-2712
▁sabor	-2713
▁kažu	-2714
▁lige	-2715
▁kršaj	-2716
▁počeo	-2717
▁Mil	-2718
▁POG	-2719
▁ata	-2720
▁rap	-2721
▁avor	-2722
▁ispod	-2723
▁udac	-2724
▁ursk	-2725
▁zvao	-2726
▁Marin	-2727
▁srpsk	-2728
nih	-2729
▁etan	-2730
▁indus	-2731
▁DAJ	-2732
▁fra	-2733
▁uri	-2734
▁lask	-2735
▁lici	-2736
▁POGLE	-2737
nev	-2738
▁eak	-2739
▁osje	-2740
▁onj	-2741
▁ožić	-2742
▁zraz	-2743
▁DAJTE	-2744
▁lokac	-2745
▁bank	-2746
▁mirn	-2747
▁bismo	-2748
▁New	-2749
▁oval	-2750
▁natoč	-2751
▁odnev	-2752
▁hol	-2753
▁Olimp	-2754
▁zabio	-2755
▁alb	-2756
▁jest	-2757
▁opor	-2758
▁ekst	-2759
▁djeca	-2760
▁oblik	-2761
viz	-2762
▁FO	-2763
▁zim	-2764
kar	-2765
jekt	-2766
▁igre	-2767
▁bjekt	-2768
▁poljo	-2769
▁Mark	-2770
▁leviz	-2771
▁odmor	-2772
▁turis	-2773
▁erz	-2774
▁erenu	-2775
▁Ber	-2776
▁rov	-2777
▁java	-2778
▁onih	-2779
▁aknul	-2780
▁stane	-2781
ves	-2782
▁etimo	-2783
▁Oni	-2784
▁viš	-2785
▁goj	-2786
▁brak	-2787
▁cikl	-2788
▁iduć	-2789
▁ituc	-2790
▁pcij	-2791
▁Bilo	-2792
▁djet	-2793
▁nosn	-2794
▁rimor	-2795
▁platf	-2796
▁nuti	-2797
▁smisl	-2798
▁niž	-2799
▁šok	-2800
▁tpis	-2801
▁silj	-2802
▁stalo	-2803
▁uzet	-2804
▁glo	-2805
▁ort	-2806
▁insp	-2807
▁mamo	-2808
▁nali	-2809
▁pravd	-2810
▁eakc	-2811
▁renul	-2812
▁pad	-2813
▁kojom	-2814
▁onkur	-2815
▁ađa	-2816
▁sut	-2817
▁ajka	-2818
▁ojača	-2819
▁psih	-2820
▁čast	-2821
▁datno	-2822
▁Samo	-2823
▁ečen	-2824
▁pogi	-2825
▁minj	-2826
▁ijelo	-2827
▁viz	-2828
▁krat	-2829
▁land	-2830
▁egend	-2831
▁godio	-2832
▁rekli	-2833
▁uoč	-2834
▁oder	-2835
▁ruža	-2836
▁očetk	-2837
▁tl	-2838
▁irali	-2839
▁razum	-2840
▁podn	-2841
▁tajn	-2842
▁jedne	-2843
▁nepri	-2844
▁Kin	-2845
▁Mat	-2846
▁aut	-2847
▁iln	-2848
▁ratn	-2849
▁tand	-2850
▁fikac	-2851
žar	-2852
▁ivot	-2853
▁nčan	-2854
▁ekcij	-2855
▁ražen	-2856
▁ološk	-2857
▁budu	-2858
▁X	-2859
▁današ	-2860
▁tin	-2861
▁iječ	-2862
▁iven	-2863
▁anič	-2864
▁Din	-2865
▁ris	-2866
▁izam	-2867
▁krit	-2868
▁vodno	-2869
▁RT	-2870
▁arem	-2871
▁jveći	-2872
▁zvješ	-2873
▁ern	-2874
▁rea	-2875
▁priv	-2876
▁ukl	-2877
▁ojsk	-2878
▁znaju	-2879
▁čka	-2880
▁erce	-2881
▁ich	-2882
▁zel	-2883
▁požar	-2884
▁ročit	-2885
▁ity	-2886
▁pao	-2887
▁oznat	-2888
▁abra	-2889
▁rib	-2890
▁ruč	-2891
▁Foto	-2892
▁laže	-2893
▁riz	-2894
▁adaš	-2895
▁lesk	-2896
▁spri	-2897
▁jez	-2898
▁gres	-2899
▁olov	-2900
▁lat	-2901
▁leg	-2902
▁pava	-2903
▁istič	-2904
riš	-2905
▁štr	-2906
▁ock	-2907
▁raš	-2908
▁Vlad	-2909
▁porez	-2910
▁abiln	-2911
▁ljetn	-2912
▁Vid	-2913
▁kal	-2914
▁tenj	-2915
▁100	-2916
▁baln	-2917
▁rinc	-2918
▁ano	-2919
▁ešć	-2920
▁iže	-2921
▁rilik	-2922
▁vidi	-2923
▁brani	-2924
▁ađ	-2925
▁oči	-2926
▁zemal	-2927
▁ukov	-2928
▁zbor	-2929
▁astan	-2930
▁amp	-2931
▁dion	-2932
▁inja	-2933
▁izik	-2934
▁norm	-2935
▁iru	-2936
▁zvan	-2937
▁povez	-2938
▁dali	-2939
▁gira	-2940
▁ožu	-2941
▁Raz	-2942
▁ork	-2943
▁mali	-2944
▁ualn	-2945
▁veći	-2946
▁pisal	-2947
▁kav	-2948
▁etka	-2949
▁znao	-2950
▁rirod	-2951
▁jk	-2952
▁aknut	-2953
▁opada	-2954
ot	-2955
▁tekst	-2956
▁der	-2957
▁gon	-2958
▁istr	-2959
▁pola	-2960
▁pisan	-2961
▁ex	-2962
▁Kat	-2963
▁etsk	-2964
▁kupa	-2965
▁prot	-2966
▁slik	-2967
▁tječ	-2968
▁žene	-2969
▁dž	-2970
▁ravn	-2971
▁ači	-2972
▁uhi	-2973
▁avez	-2974
▁ćenj	-2975
▁radil	-2976
▁daj	-2977
▁ažnij	-2978
▁stoja	-2979
▁bud	-2980
▁mos	-2981
▁iljem	-2982
▁gl	-2983
▁Luk	-2984
▁ariz	-2985
▁indi	-2986
▁odstv	-2987
▁ft	-2988
▁ail	-2989
▁uru	-2990
▁abran	-2991
▁ner	-2992
▁anti	-2993
▁renut	-2994
▁sho	-2995
▁šću	-2996
▁latn	-2997
▁omu	-2998
▁rac	-2999
▁tez	-3000
▁dis	-3001
▁alko	-3002
▁db	-3003
▁ilj	-3004
▁imb	-3005
▁ole	-3006
▁por	-3007
▁Zagr	-3008
▁edan	-3009
▁najp	-3010
▁reba	-3011
▁kvali	-3012
▁onij	-3013
▁ekon	-3014
▁ično	-3015
▁alj	-3016
▁epi	-3017
▁rekor	-3018
▁danj	-3019
▁nimn	-3020
▁rael	-3021
tual	-3022
▁ior	-3023
▁plov	-3024
▁ktual	-3025
▁sprič	-3026
▁Još	-3027
▁azna	-3028
▁inira	-3029
▁ujemo	-3030
▁Man	-3031
▁noći	-3032
▁hoće	-3033
▁iden	-3034
▁kolu	-3035
▁nekim	-3036
▁izm	-3037
▁mre	-3038
▁akon	-3039
▁nalaz	-3040
upn	-3041
▁DP	-3042
▁akv	-3043
▁duz	-3044
▁iše	-3045
▁anju	-3046
▁lice	-3047
sj	-3048
▁Modr	-3049
▁enik	-3050
▁izma	-3051
▁utra	-3052
▁voda	-3053
▁ljenj	-3054
▁staju	-3055
▁23	-3056
▁isa	-3057
▁pam	-3058
hi	-3059
▁jaci	-3060
▁stol	-3061
▁aciji	-3062
▁zapad	-3063
▁ašk	-3064
▁lago	-3065
▁juč	-3066
▁reć	-3067
▁unij	-3068
▁voje	-3069
▁ratio	-3070
▁važno	-3071
▁čist	-3072
▁svjed	-3073
▁arm	-3074
▁atič	-3075
▁Dinam	-3076
▁dmet	-3077
▁uput	-3078
▁zabr	-3079
▁duzet	-3080
▁ukupn	-3081
▁RTL	-3082
▁ers	-3083
▁nte	-3084
▁ukr	-3085
▁asn	-3086
▁eor	-3087
▁akul	-3088
▁ljava	-3089
▁voran	-3090
bot	-3091
▁nsk	-3092
▁brat	-3093
▁eogr	-3094
▁naša	-3095
▁zon	-3096
▁apad	-3097
▁selj	-3098
▁bijen	-3099
▁ere	-3100
▁trk	-3101
▁prim	-3102
▁mom	-3103
▁ater	-3104
▁pomo	-3105
▁show	-3106
▁čkog	-3107
▁ež	-3108
▁maju	-3109
▁olim	-3110
▁rest	-3111
▁ortu	-3112
▁esion	-3113
▁rediš	-3114
▁if	-3115
▁pć	-3116
▁igr	-3117
▁tic	-3118
▁proiz	-3119
▁Ba	-3120
▁Mos	-3121
▁abl	-3122
▁preuz	-3123
▁ajk	-3124
▁ook	-3125
▁rtal	-3126
▁duh	-3127
▁čen	-3128
▁Te	-3129
▁enuo	-3130
▁plać	-3131
▁ref	-3132
▁onal	-3133
▁anstv	-3134
▁atiti	-3135
▁eret	-3136
▁div	-3137
▁dvor	-3138
▁aksim	-3139
▁Le	-3140
▁rsn	-3141
▁ših	-3142
▁limp	-3143
▁meni	-3144
▁obič	-3145
▁naliz	-3146
▁elu	-3147
▁eng	-3148
▁noš	-3149
▁omb	-3150
▁arij	-3151
▁otiv	-3152
▁kovit	-3153
▁Novi	-3154
▁vako	-3155
▁zelen	-3156
▁he	-3157
▁uc	-3158
▁ijel	-3159
▁staln	-3160
▁eks	-3161
▁gosti	-3162
▁premi	-3163
▁akl	-3164
▁štin	-3165
▁ostat	-3166
▁tehni	-3167
▁lič	-3168
▁ričn	-3169
▁koriš	-3170
NA	-3171
▁kul	-3172
▁rab	-3173
▁ario	-3174
▁podne	-3175
▁eter	-3176
▁ljaju	-3177
▁tac	-3178
▁bert	-3179
▁kart	-3180
▁strat	-3181
▁struk	-3182
▁njom	-3183
▁trad	-3184
▁entn	-3185
▁olin	-3186
▁stale	-3187
hn	-3188
▁26	-3189
▁ikl	-3190
▁mon	-3191
▁run	-3192
▁upo	-3193
▁hoda	-3194
▁novc	-3195
▁edi	-3196
▁ranj	-3197
▁škar	-3198
▁entr	-3199
▁reza	-3200
▁uva	-3201
▁Os	-3202
▁ond	-3203
▁čeln	-3204
▁bij	-3205
▁dam	-3206
▁ića	-3207
▁otic	-3208
▁javno	-3209
▁rec	-3210
▁Zadr	-3211
▁godn	-3212
▁matsk	-3213
▁ostao	-3214
▁osp	-3215
▁rvo	-3216
▁anima	-3217
▁ge	-3218
▁bus	-3219
▁iće	-3220
▁mol	-3221
▁rak	-3222
▁redu	-3223
▁bož	-3224
▁esu	-3225
▁užen	-3226
▁posve	-3227
▁tič	-3228
▁amet	-3229
▁ly	-3230
▁aps	-3231
▁regi	-3232
jun	-3233
▁ds	-3234
▁atij	-3235
▁ncusk	-3236
▁gn	-3237
▁suz	-3238
▁erij	-3239
ez	-3240
▁pas	-3241
▁reš	-3242
▁lozi	-3243
▁TV	-3244
▁plin	-3245
▁aleko	-3246
▁aljev	-3247
▁tpisa	-3248
▁roč	-3249
▁rvi	-3250
▁pekt	-3251
▁oment	-3252
▁otpis	-3253
▁rikaz	-3254
BC	-3255
▁Žel	-3256
▁Mate	-3257
▁inca	-3258
▁irani	-3259
▁javlj	-3260
▁dić	-3261
▁etn	-3262
▁uženj	-3263
▁kle	-3264
▁kinj	-3265
▁ovan	-3266
▁stal	-3267
▁produ	-3268
▁uti	-3269
▁kući	-3270
▁odom	-3271
▁onos	-3272
▁podu	-3273
▁ljivo	-3274
▁movin	-3275
▁ipl	-3276
▁upa	-3277
▁kata	-3278
▁sist	-3279
▁HRT	-3280
▁nf	-3281
▁tele	-3282
▁El	-3283
▁kim	-3284
▁drav	-3285
▁ljsk	-3286
▁nazi	-3287
▁opri	-3288
▁ade	-3289
▁kih	-3290
▁niji	-3291
▁pćin	-3292
▁ocjen	-3293
▁vjesn	-3294
▁cem	-3295
▁ige	-3296
▁oks	-3297
▁ljuč	-3298
▁ziva	-3299
ava	-3300
▁lok	-3301
▁šeg	-3302
▁šin	-3303
▁uoči	-3304
▁Sl	-3305
▁lad	-3306
▁ikad	-3307
▁odlič	-3308
▁port	-3309
▁greš	-3310
▁čiji	-3311
▁Podsj	-3312
▁bolji	-3313
▁vješt	-3314
▁urist	-3315
▁HNL	-3316
▁Mad	-3317
▁nič	-3318
▁otor	-3319
▁dokaz	-3320
ard	-3321
▁Evo	-3322
▁iskr	-3323
▁boda	-3324
▁Ima	-3325
▁kot	-3326
▁kralj	-3327
▁itk	-3328
▁ula	-3329
▁ensk	-3330
▁tirao	-3331
jan	-3332
▁Af	-3333
▁rut	-3334
▁anjen	-3335
▁kreta	-3336
▁ovisn	-3337
▁Jak	-3338
▁dolaz	-3339
▁irala	-3340
▁Jur	-3341
▁kti	-3342
▁osnov	-3343
▁škarc	-3344
▁our	-3345
▁seg	-3346
▁azil	-3347
▁ać	-3348
▁ijev	-3349
▁ruke	-3350
▁enata	-3351
▁novim	-3352
zej	-3353
▁čet	-3354
▁latk	-3355
▁Rim	-3356
▁ept	-3357
▁liv	-3358
▁omaš	-3359
▁jno	-3360
▁hvać	-3361
▁iječi	-3362
▁poseb	-3363
▁poj	-3364
▁alic	-3365
▁mjeru	-3366
pe	-3367
▁ou	-3368
▁lanj	-3369
▁moćn	-3370
▁alić	-3371
▁inv	-3372
▁javi	-3373
▁traš	-3374
▁rag	-3375
▁omil	-3376
▁kazal	-3377
▁torij	-3378
▁agn	-3379
▁ložen	-3380
▁oglas	-3381
▁ino	-3382
▁ivi	-3383
▁neg	-3384
▁esor	-3385
▁usta	-3386
▁RH	-3387
▁ein	-3388
▁eru	-3389
▁lav	-3390
▁šta	-3391
▁eća	-3392
▁fon	-3393
▁izlož	-3394
▁ljeni	-3395
▁ros	-3396
▁ljuje	-3397
▁oljeć	-3398
▁jeća	-3399
▁ster	-3400
▁lijun	-3401
▁okv	-3402
▁čkih	-3403
▁ovsk	-3404
▁tarnj	-3405
▁lazn	-3406
▁mad	-3407
▁sječ	-3408
▁star	-3409
▁tjer	-3410
▁živi	-3411
pa	-3412
lin	-3413
▁počet	-3414
▁redb	-3415
▁ujem	-3416
▁misij	-3417
▁21	-3418
▁kome	-3419
▁Polj	-3420
▁amer	-3421
▁Ukr	-3422
▁oćn	-3423
▁ravk	-3424
▁kriva	-3425
▁jek	-3426
▁jst	-3427
▁OV	-3428
▁asto	-3429
▁mani	-3430
▁azala	-3431
▁rijel	-3432
▁1,	-3433
▁les	-3434
▁napo	-3435
▁stil	-3436
▁eci	-3437
▁spo	-3438
▁redn	-3439
▁estit	-3440
▁đe	-3441
▁deb	-3442
▁sen	-3443
▁sus	-3444
▁und	-3445
▁šim	-3446
▁tjel	-3447
▁inves	-3448
▁iel	-3449
▁jih	-3450
▁akov	-3451
▁upnj	-3452
▁Dub	-3453
▁mit	-3454
▁vir	-3455
▁kret	-3456
▁lica	-3457
▁aze	-3458
▁lud	-3459
▁lada	-3460
▁arija	-3461
▁dobit	-3462
▁talno	-3463
▁Ho	-3464
▁očn	-3465
▁itno	-3466
▁ispun	-3467
▁strag	-3468
▁han	-3469
▁ick	-3470
▁lic	-3471
▁imam	-3472
▁vezi	-3473
▁mjena	-3474
▁#	-3475
▁sni	-3476
▁agan	-3477
▁veze	-3478
▁ekao	-3479
▁darsk	-3480
▁stičk	-3481
▁Ru	-3482
▁nst	-3483
▁omsk	-3484
▁kov	-3485
▁ong	-3486
▁zov	-3487
▁mjera	-3488
▁opriv	-3489
▁zgled	-3490
▁70	-3491
▁tema	-3492
▁jep	-3493
▁iješ	-3494
▁ktivn	-3495
▁ow	-3496
▁čito	-3497
▁ovali	-3498
▁abor	-3499
▁obje	-3500
▁traj	-3501
▁icira	-3502
▁nosit	-3503
▁podrž	-3504
▁civ	-3505
▁idu	-3506
▁mam	-3507
▁nča	-3508
▁Rije	-3509
▁skup	-3510
▁prona	-3511
▁enim	-3512
▁noga	-3513
▁voga	-3514
▁inale	-3515
▁amo	-3516
▁ižev	-3517
▁att	-3518
▁ret	-3519
▁rugu	-3520
JA	-3521
▁den	-3522
jub	-3523
▁rn	-3524
▁dram	-3525
▁2.	-3526
▁las	-3527
▁Ljub	-3528
▁Bud	-3529
▁esk	-3530
▁zbu	-3531
▁adar	-3532
▁inut	-3533
▁najv	-3534
▁ovit	-3535
▁rakt	-3536
▁vu	-3537
▁ier	-3538
▁pac	-3539
▁našl	-3540
▁rven	-3541
▁traje	-3542
▁ješa	-3543
▁mjere	-3544
▁28	-3545
▁Di	-3546
▁Kon	-3547
▁cip	-3548
▁aši	-3549
▁ugod	-3550
▁luj	-3551
▁nav	-3552
▁inic	-3553
▁kvar	-3554
▁ošte	-3555
▁manji	-3556
▁Mu	-3557
▁ošla	-3558
▁pala	-3559
▁anta	-3560
▁laka	-3561
▁kuplj	-3562
▁opt	-3563
▁luša	-3564
▁sama	-3565
▁etanj	-3566
▁ičkih	-3567
▁jasn	-3568
dim	-3569
▁ugr	-3570
▁even	-3571
▁godil	-3572
▁ečer	-3573
▁80	-3574
▁sir	-3575
▁apa	-3576
▁jka	-3577
▁jače	-3578
▁putn	-3579
▁eve	-3580
▁ljena	-3581
▁splat	-3582
▁27	-3583
▁hal	-3584
▁ozn	-3585
▁rij	-3586
▁vent	-3587
▁rošlo	-3588
▁trenu	-3589
▁ći	-3590
▁jetn	-3591
▁osn	-3592
▁enti	-3593
▁ivač	-3594
▁čk	-3595
▁lod	-3596
▁cija	-3597
▁juje	-3598
▁onsk	-3599
▁Iv	-3600
▁ebr	-3601
▁eut	-3602
▁arsk	-3603
▁La	-3604
▁šal	-3605
▁estin	-3606
▁°	-3607
▁ry	-3608
▁gro	-3609
▁išn	-3610
▁ička	-3611
▁nstru	-3612
▁majk	-3613
▁dli	-3614
▁gin	-3615
▁gno	-3616
▁ura	-3617
▁ever	-3618
▁nado	-3619
▁štvu	-3620
▁redit	-3621
▁vj	-3622
▁jač	-3623
▁mil	-3624
▁anin	-3625
▁bitn	-3626
▁izlaz	-3627
▁uspor	-3628
▁oza	-3629
▁klas	-3630
▁onaln	-3631
▁inske	-3632
▁29	-3633
▁oy	-3634
▁amir	-3635
▁inov	-3636
▁kama	-3637
▁ual	-3638
▁zid	-3639
▁amar	-3640
▁isam	-3641
▁najs	-3642
▁nađen	-3643
▁car	-3644
▁lor	-3645
▁znaje	-3646
▁Ol	-3647
▁Dal	-3648
▁odu	-3649
▁blis	-3650
▁gramu	-3651
▁avu	-3652
▁lić	-3653
▁četv	-3654
res	-3655
▁edn	-3656
▁jni	-3657
▁ogo	-3658
▁uzd	-3659
▁drag	-3660
▁odav	-3661
▁izb	-3662
▁omn	-3663
▁smij	-3664
▁šten	-3665
▁edu	-3666
▁jin	-3667
▁maš	-3668
▁pel	-3669
▁ans	-3670
▁emi	-3671
▁utr	-3672
▁pove	-3673
▁vršn	-3674
▁neo	-3675
▁omin	-3676
▁zval	-3677
▁meč	-3678
▁ram	-3679
▁ardi	-3680
▁najm	-3681
▁ruko	-3682
▁čuva	-3683
▁igran	-3684
▁Kor	-3685
▁Ta	-3686
▁ažn	-3687
▁onč	-3688
▁alne	-3689
RI	-3690
▁ječ	-3691
▁mun	-3692
▁štvo	-3693
▁tiv	-3694
▁naši	-3695
▁ogor	-3696
▁astoj	-3697
▁Ove	-3698
▁bar	-3699
▁dem	-3700
▁amen	-3701
▁ljev	-3702
skoj	-3703
▁ijepo	-3704
▁uđ	-3705
▁Vuk	-3706
▁Radi	-3707
▁ijes	-3708
▁ganiz	-3709
▁Ono	-3710
▁Sad	-3711
▁fr	-3712
▁raga	-3713
inj	-3714
▁orc	-3715
▁umu	-3716
▁tion	-3717
▁zira	-3718
▁asa	-3719
▁Kl	-3720
▁emij	-3721
▁Ć	-3722
▁lično	-3723
▁ml	-3724
▁Bož	-3725
▁fest	-3726
▁lavn	-3727
▁roba	-3728
▁grade	-3729
▁jedna	-3730
▁primi	-3731
▁raspo	-3732
▁traži	-3733
▁unjen	-3734
▁edm	-3735
▁iver	-3736
▁all	-3737
▁Svak	-3738
▁3.	-3739
▁juž	-3740
▁neko	-3741
▁adn	-3742
▁adu	-3743
▁ajuć	-3744
▁enul	-3745
▁znati	-3746
▁fic	-3747
▁iri	-3748
▁asti	-3749
▁ler	-3750
▁raj	-3751
▁kli	-3752
▁uče	-3753
▁počin	-3754
▁znato	-3755
▁dsjet	-3756
▁polož	-3757
▁nogi	-3758
▁ovac	-3759
▁kanal	-3760
▁ržava	-3761
▁Is	-3762
▁ote	-3763
▁tok	-3764
▁jača	-3765
▁rank	-3766
▁Jel	-3767
▁ver	-3768
kal	-3769
▁Go	-3770
▁Ti	-3771
▁rst	-3772
▁uli	-3773
▁mage	-3774
▁točno	-3775
▁EP	-3776
▁ind	-3777
▁zij	-3778
▁ičen	-3779
▁Up	-3780
▁esl	-3781
▁svr	-3782
▁vet	-3783
▁bije	-3784
▁enici	-3785
▁oba	-3786
▁čkom	-3787
▁nimal	-3788
▁aest	-3789
▁obil	-3790
▁reme	-3791
▁ruku	-3792
▁Tko	-3793
▁teri	-3794
▁avati	-3795
▁kompl	-3796
▁Ona	-3797
▁uću	-3798
▁idr	-3799
▁azum	-3800
▁unut	-3801
lak	-3802
▁Ha	-3803
▁art	-3804
▁ijeć	-3805
▁dužno	-3806
▁rca	-3807
▁brin	-3808
▁nudi	-3809
▁ondo	-3810
▁đu	-3811
▁abo	-3812
▁imi	-3813
▁pap	-3814
▁ičkog	-3815
▁uza	-3816
▁alni	-3817
▁jeto	-3818
▁ovač	-3819
▁dličn	-3820
▁motiv	-3821
▁raspr	-3822
▁7.	-3823
▁rv	-3824
▁roj	-3825
▁običn	-3826
▁plaće	-3827
▁prekr	-3828
▁trg	-3829
▁ugl	-3830
▁kruž	-3831
▁akva	-3832
▁ljeć	-3833
▁veće	-3834
▁proje	-3835
▁spekt	-3836
▁oo	-3837
▁nula	-3838
▁rago	-3839
▁želim	-3840
▁edr	-3841
▁iro	-3842
▁vjes	-3843
▁ratil	-3844
BA	-3845
▁Ad	-3846
▁Sin	-3847
▁jet	-3848
▁diza	-3849
▁razv	-3850
▁avl	-3851
▁km	-3852
▁asp	-3853
▁uha	-3854
▁raka	-3855
▁2,	-3856
▁US	-3857
▁emu	-3858
▁šem	-3859
▁dobi	-3860
▁rska	-3861
▁vorn	-3862
▁naziv	-3863
▁apl	-3864
▁Španj	-3865
▁Op	-3866
▁eln	-3867
▁ugo	-3868
▁žal	-3869
▁elim	-3870
▁evet	-3871
▁ivao	-3872
▁olsk	-3873
▁aljen	-3874
▁očinj	-3875
▁poduz	-3876
▁rijen	-3877
▁jko	-3878
▁olik	-3879
▁Uprav	-3880
▁visin	-3881
▁35	-3882
▁lišt	-3883
▁stud	-3884
▁ožemo	-3885
▁luc	-3886
▁pob	-3887
▁90	-3888
▁Ku	-3889
▁tet	-3890
▁ijenj	-3891
▁znala	-3892
▁form	-3893
▁eko	-3894
▁akve	-3895
▁esto	-3896
▁ormi	-3897
▁hor	-3898
▁ijim	-3899
▁njsk	-3900
▁traže	-3901
▁zah	-3902
▁šla	-3903
▁ačko	-3904
▁ivan	-3905
▁tima	-3906
▁ame	-3907
▁eza	-3908
▁alan	-3909
▁rp	-3910
▁don	-3911
▁lom	-3912
▁rsta	-3913
▁tivn	-3914
OR	-3915
▁Car	-3916
▁loč	-3917
▁anim	-3918
▁inom	-3919
▁pruž	-3920
▁bitel	-3921
▁misli	-3922
▁ponov	-3923
▁činje	-3924
▁15.	-3925
▁rč	-3926
▁Eur	-3927
▁ael	-3928
▁urn	-3929
▁von	-3930
▁utor	-3931
co	-3932
ss	-3933
▁Or	-3934
▁ečk	-3935
▁rob	-3936
▁izme	-3937
▁tere	-3938
▁ulje	-3939
▁preki	-3940
▁ei	-3941
▁subot	-3942
▁Du	-3943
▁išu	-3944
▁spr	-3945
▁nten	-3946
▁olar	-3947
SS	-3948
▁doba	-3949
▁rg	-3950
▁djelu	-3951
▁jesen	-3952
▁ovačk	-3953
▁dop	-3954
▁iku	-3955
▁ire	-3956
▁vuk	-3957
▁enuti	-3958
▁treće	-3959
OK	-3960
ler	-3961
▁ix	-3962
▁kus	-3963
▁kasn	-3964
▁ožda	-3965
▁udsk	-3966
JE	-3967
▁judi	-3968
▁govin	-3969
▁5.	-3970
▁Kar	-3971
▁ted	-3972
▁šut	-3973
▁Drag	-3974
▁edij	-3975
▁odre	-3976
▁uzetn	-3977
▁avn	-3978
▁jeci	-3979
▁obal	-3980
▁abora	-3981
▁kratk	-3982
▁Već	-3983
▁aru	-3984
▁drži	-3985
▁prez	-3986
▁ota	-3987
▁stro	-3988
▁lacij	-3989
▁gi	-3990
▁kć	-3991
▁loz	-3992
▁human	-3993
▁odigr	-3994
ber	-3995
▁ajno	-3996
▁alna	-3997
▁ismo	-3998
▁ival	-3999
▁jern	-4000
▁nisk	-4001
▁atur	-4002
▁erg	-4003
▁pješ	-4004
per	-4005
▁osu	-4006
▁utn	-4007
▁anij	-4008
▁etin	-4009
▁rske	-4010
▁ermin	-4011
▁sreds	-4012
▁Taj	-4013
▁iču	-4014
▁rce	-4015
▁staja	-4016
AR	-4017
bu	-4018
ef	-4019
▁Q	-4020
▁AL	-4021
▁oris	-4022
▁veza	-4023
▁rovod	-4024
▁Tik	-4025
▁tić	-4026
▁ačno	-4027
▁Pal	-4028
▁araj	-4029
▁jihov	-4030
▁muzej	-4031
▁co	-4032
▁lus	-4033
▁rva	-4034
▁suv	-4035
▁euro	-4036
▁lani	-4037
▁gij	-4038
▁imu	-4039
▁koč	-4040
▁lam	-4041
▁atko	-4042
▁avak	-4043
▁ljač	-4044
▁zivn	-4045
-0	-4046
▁jež	-4047
▁aro	-4048
▁ham	-4049
▁kos	-4050
▁ode	-4051
▁orb	-4052
▁atke	-4053
▁jviš	-4054
▁acima	-4055
▁Vi	-4056
▁rc	-4057
▁Naš	-4058
▁nve	-4059
▁ovod	-4060
▁ograd	-4061
▁4.	-4062
▁kuh	-4063
▁nud	-4064
▁obro	-4065
▁porn	-4066
▁vira	-4067
▁vješ	-4068
▁imaln	-4069
▁prati	-4070
ek	-4071
▁jm	-4072
▁20.	-4073
▁jev	-4074
▁uka	-4075
▁jači	-4076
▁četi	-4077
▁čkim	-4078
▁nvest	-4079
▁arh	-4080
▁udi	-4081
▁čev	-4082
▁enom	-4083
▁200	-4084
▁dlu	-4085
▁zam	-4086
▁ostan	-4087
▁Us	-4088
▁ela	-4089
▁ifi	-4090
▁enut	-4091
▁radit	-4092
os	-4093
▁rs	-4094
▁anc	-4095
▁ess	-4096
▁aste	-4097
▁x	-4098
▁etk	-4099
▁lue	-4100
▁upc	-4101
▁zer	-4102
▁tric	-4103
▁visi	-4104
▁olu	-4105
▁11.	-4106
▁Ben	-4107
▁nila	-4108
▁osta	-4109
▁stic	-4110
▁umir	-4111
▁niv	-4112
▁ohn	-4113
▁pamt	-4114
▁iam	-4115
▁gađa	-4116
▁tičn	-4117
▁eh	-4118
▁enk	-4119
▁roz	-4120
▁urb	-4121
▁maks	-4122
▁vaju	-4123
▁voli	-4124
▁rit	-4125
▁ntin	-4126
▁čine	-4127
RA	-4128
▁ai	-4129
▁ovin	-4130
▁ušao	-4131
▁jstvo	-4132
▁etv	-4133
▁otk	-4134
▁pored	-4135
▁Ot	-4136
▁riž	-4137
▁čku	-4138
▁Posl	-4139
▁adić	-4140
▁lagan	-4141
▁aran	-4142
▁ideo	-4143
▁otpor	-4144
▁uf	-4145
▁TikT	-4146
▁ašto	-4147
▁line	-4148
▁onov	-4149
▁ratu	-4150
▁8.	-4151
▁ash	-4152
▁ašl	-4153
▁aust	-4154
▁ačić	-4155
▁roku	-4156
▁listi	-4157
▁JE	-4158
▁ešt	-4159
▁lar	-4160
▁rano	-4161
▁17.	-4162
▁ink	-4163
▁ois	-4164
▁rać	-4165
▁rum	-4166
▁ućn	-4167
▁tarn	-4168
ed	-4169
▁lub	-4170
▁iral	-4171
▁kand	-4172
▁najve	-4173
▁stavi	-4174
▁tiral	-4175
▁znali	-4176
▁lt	-4177
▁lit	-4178
▁odn	-4179
▁ćan	-4180
▁rolaz	-4181
▁većan	-4182
zen	-4183
▁nevn	-4184
▁odin	-4185
▁ndi	-4186
▁onz	-4187
▁riv	-4188
▁upit	-4189
▁izd	-4190
▁žev	-4191
▁alat	-4192
▁astu	-4193
▁onic	-4194
▁ijske	-4195
▁jelom	-4196
▁ljk	-4197
▁naž	-4198
orm	-4199
ort	-4200
▁30.	-4201
▁san	-4202
▁čar	-4203
▁istra	-4204
▁obraz	-4205
▁egr	-4206
▁uma	-4207
▁apan	-4208
▁klop	-4209
▁račn	-4210
▁truk	-4211
▁uđen	-4212
▁retan	-4213
▁šanse	-4214
▁12.	-4215
▁Nik	-4216
▁tak	-4217
▁reko	-4218
▁Kod	-4219
▁med	-4220
▁ijer	-4221
▁onim	-4222
▁reće	-4223
▁tart	-4224
▁Par	-4225
▁šlj	-4226
▁rava	-4227
▁nform	-4228
▁eće	-4229
▁orit	-4230
▁II	-4231
▁moto	-4232
▁vodn	-4233
▁tljiv	-4234
▁ukraj	-4235
-1	-4236
▁adam	-4237
▁eral	-4238
▁iban	-4239
▁peri	-4240
▁nički	-4241
▁ovića	-4242
ved	-4243
▁Var	-4244
▁dep	-4245
▁avk	-4246
▁dal	-4247
▁onu	-4248
▁tem	-4249
▁učiv	-4250
▁arb	-4251
▁pan	-4252
▁igur	-4253
▁itik	-4254
▁ivlj	-4255
▁ičan	-4256
▁olož	-4257
▁rani	-4258
▁odaci	-4259
▁etar	-4260
▁atra	-4261
▁gran	-4262
▁jave	-4263
▁niza	-4264
op	-4265
▁Ana	-4266
▁jun	-4267
▁edin	-4268
▁anket	-4269
▁vanje	-4270
▁erb	-4271
▁tep	-4272
▁vil	-4273
▁agen	-4274
▁maže	-4275
▁nike	-4276
▁topa	-4277
pp	-4278
▁*	-4279
▁̌	-4280
▁ket	-4281
▁orn	-4282
▁elio	-4283
▁rugo	-4284
▁snij	-4285
▁isklj	-4286
▁10.	-4287
▁lon	-4288
▁asno	-4289
▁davn	-4290
▁nako	-4291
▁stov	-4292
▁45	-4293
▁lim	-4294
▁nacij	-4295
▁duš	-4296
▁avid	-4297
▁rizna	-4298
TA	-4299
▁nkc	-4300
▁opć	-4301
▁idim	-4302
▁stič	-4303
▁Bit	-4304
▁ičkim	-4305
▁okret	-4306
▁ordan	-4307
uj	-4308
▁rz	-4309
▁KBC	-4310
▁mot	-4311
▁čas	-4312
▁itor	-4313
▁6.	-4314
▁Em	-4315
▁Yo	-4316
▁kis	-4317
▁pat	-4318
▁Vel	-4319
▁ado	-4320
▁elo	-4321
▁ain	-4322
▁elit	-4323
▁esta	-4324
▁pisu	-4325
▁vama	-4326
▁akcij	-4327
▁ester	-4328
▁rađen	-4329
▁šć	-4330
▁Bez	-4331
▁ERI	-4332
▁ačn	-4333
▁iol	-4334
▁suđ	-4335
▁trž	-4336
▁raca	-4337
▁atima	-4338
▁nat	-4339
▁uhva	-4340
▁šeće	-4341
▁rub	-4342
▁rijsk	-4343
▁rskoj	-4344
▁čević	-4345
▁dor	-4346
▁sav	-4347
▁jima	-4348
▁alnog	-4349
▁aziva	-4350
▁inski	-4351
bon	-4352
▁dl	-4353
▁Mih	-4354
▁dres	-4355
▁tine	-4356
▁Ham	-4357
▁ake	-4358
▁auz	-4359
▁gri	-4360
▁isc	-4361
▁lag	-4362
▁the	-4363
▁uta	-4364
▁zaht	-4365
▁dim	-4366
▁dir	-4367
▁etak	-4368
▁ijem	-4369
▁odan	-4370
▁tehn	-4371
▁ljuju	-4372
PO	-4373
▁obn	-4374
▁tel	-4375
▁arni	-4376
▁ječe	-4377
▁mušk	-4378
▁dinam	-4379
mas	-4380
sen	-4381
▁žu	-4382
▁azu	-4383
▁bes	-4384
▁pit	-4385
▁rza	-4386
▁avan	-4387
▁ealn	-4388
▁ijeme	-4389
▁orist	-4390
▁uklju	-4391
▁Ze	-4392
▁lađ	-4393
▁ajal	-4394
▁ikov	-4395
▁3,	-4396
▁Fr	-4397
▁18.	-4398
▁19.	-4399
▁ovor	-4400
▁remi	-4401
▁roje	-4402
▁valj	-4403
▁ERIJA	-4404
▁idjel	-4405
stit	-4406
▁eto	-4407
▁kun	-4408
▁egij	-4409
▁jesu	-4410
▁ilišt	-4411
▁jenje	-4412
▁nstit	-4413
▁poslu	-4414
đel	-4415
▁ive	-4416
▁tož	-4417
▁alen	-4418
▁ijeg	-4419
▁14.	-4420
▁pon	-4421
▁upu	-4422
▁enih	-4423
▁vanj	-4424
▁9.	-4425
▁sov	-4426
▁tad	-4427
▁etra	-4428
▁čije	-4429
▁adr	-4430
▁uća	-4431
▁cira	-4432
▁rate	-4433
pi	-4434
▁ue	-4435
▁Zna	-4436
▁taš	-4437
▁13.	-4438
▁Vik	-4439
▁com	-4440
▁naz	-4441
▁ruž	-4442
▁kona	-4443
▁orin	-4444
▁trav	-4445
▁šećer	-4446
ig	-4447
▁jesti	-4448
▁kacij	-4449
▁Nek	-4450
▁gas	-4451
▁pub	-4452
▁last	-4453
▁lavi	-4454
▁odab	-4455
▁ojev	-4456
▁arton	-4457
▁ont	-4458
▁udu	-4459
▁arr	-4460
▁lid	-4461
▁gore	-4462
▁dajte	-4463
▁metni	-4464
▁21.	-4465
▁adio	-4466
▁olid	-4467
▁PU	-4468
▁out	-4469
▁avno	-4470
▁ivaj	-4471
▁tožer	-4472
Ne	-4473
▁@	-4474
▁lis	-4475
▁prost	-4476
▁Tim	-4477
▁igl	-4478
▁Đur	-4479
▁rugi	-4480
▁vezn	-4481
▁odjel	-4482
▁33	-4483
▁hel	-4484
▁ješ	-4485
▁rim	-4486
▁jera	-4487
▁mogl	-4488
▁kazuj	-4489
▁Sh	-4490
▁zo	-4491
▁jeći	-4492
▁nijih	-4493
▁nit	-4494
▁užn	-4495
▁Marij	-4496
▁ratit	-4497
▁itar	-4498
▁obno	-4499
▁tern	-4500
▁bazen	-4501
▁ičkom	-4502
▁jetil	-4503
iš	-4504
▁har	-4505
▁čit	-4506
▁lanic	-4507
▁tivno	-4508
▁tualn	-4509
▁rb	-4510
▁ert	-4511
▁rijev	-4512
▁Zv	-4513
▁500	-4514
▁Međ	-4515
▁omat	-4516
▁ulja	-4517
▁ektiv	-4518
▁aje	-4519
▁ziv	-4520
▁anac	-4521
▁andi	-4522
▁bave	-4523
▁esen	-4524
▁jezin	-4525
To	-4526
▁_	-4527
▁Co	-4528
▁ew	-4529
▁16.	-4530
▁lum	-4531
▁ult	-4532
▁utk	-4533
▁anci	-4534
▁ožen	-4535
▁vala	-4536
▁dljiv	-4537
UP	-4538
▁erk	-4539
▁ušk	-4540
▁bavi	-4541
▁odig	-4542
▁radu	-4543
▁vaki	-4544
▁jesni	-4545
▁mlja	-4546
▁stre	-4547
▁moram	-4548
▁rh	-4549
▁ilm	-4550
▁iben	-4551
▁jemo	-4552
▁lasi	-4553
▁podru	-4554
▁vanja	-4555
▁nic	-4556
▁jnij	-4557
▁adnik	-4558
▁fe	-4559
▁nev	-4560
▁rik	-4561
▁enat	-4562
▁rpsk	-4563
▁alkan	-4564
▁jetio	-4565
▁ljubi	-4566
▁ede	-4567
▁rne	-4568
▁araž	-4569
▁itko	-4570
▁visn	-4571
▁enstv	-4572
▁bori	-4573
▁dale	-4574
▁eško	-4575
▁odao	-4576
▁ivali	-4577
ski	-4578
▁32	-4579
▁Tr	-4580
▁ače	-4581
▁kaž	-4582
▁vač	-4583
▁šav	-4584
▁trak	-4585
▁vina	-4586
▁ijeti	-4587
▁nzi	-4588
▁obo	-4589
▁mira	-4590
▁snik	-4591
▁UN	-4592
▁Grb	-4593
▁Kol	-4594
▁Red	-4595
▁esa	-4596
▁Prem	-4597
▁gura	-4598
▁omij	-4599
▁osao	-4600
▁pogr	-4601
▁sobn	-4602
▁ašava	-4603
▁miris	-4604
▁stank	-4605
▁ops	-4606
▁ački	-4607
▁preb	-4608
▁rajn	-4609
▁stot	-4610
▁	-4611
a	-4612
i	-4613
o	-4614
e	-4615
n	-4616
r	-4617
j	-4618
t	-4619
u	-4620
s	-4621
k	-4622
l	-4623
d	-4624
v	-4625
m	-4626
p	-4627
z	-4628
g	-4629
c	-4630
b	-4631
,	-4632
.	-4633
š	-4634
č	-4635
ć	-4636
h	-4637
ž	-4638
;	-4639
&	-4640
P	-4641
S	-4642
"	-4643
f	-4644
N	-4645
0	-4646
M	-4647
-	-4648
D	-4649
2	-4650
1	-4651
B	-4652
O	-4653
A	-4654
T	-4655
đ	-4656
K	-4657
I	-4658
H	-4659
U	-4660
R	-4661
V	-4662
Z	-4663
:	-4664
L	-4665
E	-4666
G	-4667
J	-4668
3	-4669
C	-4670
5	-4671
'	-4672
4	-4673
)	-4674
(	-4675
F	-4676
9	-4677
y	-4678
6	-4679
7	-4680
8	-4681
Š	-4682
?	-4683
w	-4684
!	-4685
/	-4686
W	-4687
Č	-4688
Ž	-4689
x	-4690
%	-4691
=	-4692
[	-4693
>	-4694
]	-4695
Y	-4696
Đ	-4697
X	-4698
+	-4699
\	-4700
q	-4701
Ć	-4702
#	-4703
°	-4704
Q	-4705
ü	-4706
é	-4707
*	-4708
̌	-4709
@	-4710
_	-4711
€	-4712
ö	-4713
́	-4714
á	-4715
í	-4716
ó	-4717
′	-4718
$	-4719
♬	-4720
•	-4721
ä	-4722
Ö	-4723
­	-4724
ç	-4725
<	-4726
·	-4727
è	-4728
{	-4729
}	-4730
️	-4731
ë	-4732
ñ	-4733
â	-4734
ł	-4735
ø	-4736
ã	-4737
å	-4738
⁄	-4739
à	-4740
É	-4741
®	-4742
е	-4743
×	-4744
ú	-4745
►	-4746
ô	-4747
ğ	-4748
̋	-4749
●	-4750
ï	-4751
ð	-4752
ò	-4753
ş	-4754
🟨	-4755
ê	-4756
Á	-4757
Ç	-4758
ß	-4759
î	-4760
ı	-4761
⚤	-4762
🔥	-4763
ì	-4764
ř	-4765
☘	-4766
	-4767
🎁	-4768
😂	-4769
©	-4770
ė	-4771
Ś	-4772
ρ	-4773
✔	-4774
❤	-4775
🇷	-4776
🇸	-4777
`	-4778
ą	-4779
ě	-4780
μ	-4781
ο	-4782
ς	-4783
⁠	-4784
📌	-4785
Å	-4786
Ó	-4787
ń	-4788
ő	-4789
ț	-4790
̈	-4791
о	-4792
ṣ	-4793
‒	-4794
♥	-4795
⚠	-4796
⚽	-4797
	-4798
🇺	-4799
👀	-4800
^	-4801
§	-4802
Í	-4803
Ð	-4804
Ú	-4805
Ü	-4806
ý	-4807
ā	-4808
ę	-4809
ȗ	-4810
̧	-4811
ή	-4812
а	-4813
ј	-4814
‍	-4815
‐	-4816
―	-4817
‖	-4818
✓	-4819
🇭	-4820
🌸	-4821
💙	-4822
	-4823
¡	-4824
±	-4825
Ä	-4826
Ø	-4827
ù	-4828
û	-4829
ă	-4830
ĉ	-4831
ē	-4832
ś	-4833
Ş	-4834
ū	-4835
ż	-4836
ȉ	-4837
ș	-4838
̊	-4839
έ	-4840
α	-4841
π	-4842
τ	-4843
ό	-4844
н	-4845
ི	-4846
ྀ	-4847
ἀ	-4848
‟	-4849
∶	-4850
▶	-4851
♡	-4852
♦	-4853
シ	-4854
🇱	-4855
🏻	-4856
💕	-4857
🔄	-4858
🕷	-4859
🕸	-4860
😅	-4861
😍	-4862
😎	-4863
🙏	-4864
🟡	-4865
🤩	-4866
🤯	-4867
🥚	-4868
🦟	-4869
£	-4870
¤	-4871
¿	-4872
À	-4873
È	-4874
Î	-4875
Ò	-4876
Ô	-4877
õ	-4878
Ď	-4879
İ	-4880
ľ	-4881
Ł	-4882
ň	-4883
ō	-4884
ţ	-4885
ů	-4886
ź	-4887
Ƙ	-4888
ȃ	-4889
ȑ	-4890
ə	-4891
ʟ	-4892
̣	-4893
Ω	-4894
γ	-4895
δ	-4896
υ	-4897
χ	-4898
ω	-4899
К	-4900
л	-4901
ь	-4902
і	-4903
Ґ	-4904
ӣ	-4905
ӧ	-4906
ṓ	-4907
ọ	-4908
ố	-4909
‰	-4910
↑	-4911
⇒	-4912
−	-4913
⏱	-4914
■	-4915
▪	-4916
○	-4917
☀	-4918
☃	-4919
☑	-4920
☺	-4921
♀	-4922
⚫	-4923
✠	-4924
✨	-4925
❄	-4926
传	-4927
多	-4928
陈	-4929
🇦	-4930
🇧	-4931
🇫	-4932
🇬	-4933
🇮	-4934
🇵	-4935
🇾	-4936
🌋	-4937
🌐	-4938
🌠	-4939
🌧	-4940
🌨	-4941
🌺	-4942
🌻	-4943
🍉	-4944
🍊	-4945
🎀	-4946
🎗	-4947
🏡	-4948
🐄	-4949
🐥	-4950
🐦	-4951
🐱	-4952
🐶	-4953
👁	-4954
👇	-4955
👣	-4956
👶	-4957
💅	-4958
💋	-4959
💎	-4960
💘	-4961
💚	-4962
💟	-4963
💪	-4964
💯	-4965
📢	-4966
📱	-4967
📸	-4968
🔹	-4969
🕓	-4970
🖥	-4971
😀	-4972
😁	-4973
😉	-4974
😊	-4975
😏	-4976
😬	-4977
😭	-4978
🙂	-4979
🙌	-4980
🛁	-4981
🤍	-4982
🤔	-4983
🤢	-4984
🤦	-4985
🤪	-4986
🥥	-4987
🥰	-4988
🥲	-4989
🥹	-4990
🥺	-4991
🩹	-4992
🩺	-4993
🪐	-4994
🫒	-4995
🫠	-4996
