<unk>	0
<s>	0
</s>	0
,	-3.27878
.	-3.50982
▁je	-3.66301
▁i	-3.81928
a	-3.84177
▁u	-3.88091
e	-4.26472
▁na	-4.44006
i	-4.4925
u	-4.54911
;	-4.55251
▁se	-4.57545
▁da	-4.68399
o	-4.73153
&	-4.765
▁za	-4.82931
▁su	-4.88297
on	-4.93373
▁s	-5.14233
m	-5.23048
▁od	-5.30931
om	-5.31992
▁a	-5.34041
ca	-5.42422
ccar	-5.56212
▁koji	-5.69777
▁"	-5.7034
▁ne	-5.71945
cute	-5.75686
-	-5.76014
ih	-5.76443
▁o	-5.77263
ti	-5.78951
▁će	-5.80219
▁što	-5.82795
▁iz	-5.84915
▁to	-5.84985
▁-	-5.85152
:	-5.88087
ma	-5.89249
li	-5.93665
la	-5.96327
zcar	-6.0339
▁do	-6.06478
im	-6.07789
og	-6.08887
▁U	-6.11664
d	-6.12352
▁kako	-6.12708
▁te	-6.12893
▁bi	-6.17091
▁po	-6.1983
▁	-6.20981
▁&	-6.26556
▁nije	-6.28253
▁sam	-6.32112
▁kao	-6.34595
",	-6.35282
▁ali	-6.36219
na	-6.38174
oj	-6.3894
ju	-6.41315
ne	-6.46005
t	-6.46088
"	-6.46566
s	-6.47071
▁godine	-6.51115
g	-6.52673
▁koje	-6.53141
▁sve	-6.55091
te	-6.5552
ni	-6.55647
h	-6.58204
▁smo	-6.58276
▁(	-6.60417
▁biti	-6.60537
▁koja	-6.61538
mo	-6.65558
▁nakon	-6.6752
lo	-6.68004
▁pa	-6.71381
▁više	-6.73227
▁ili	-6.75206
ima	-6.75232
no	-6.75853
▁'	-6.77336
▁sa	-6.80591
ka	-6.80873
▁bio	-6.82117
j	-6.8387
le	-6.84607
▁S	-6.8591
je	-6.87068
▁samo	-6.8912
▁Na	-6.89318
▁još	-6.9074
nje	-6.91774
▁mi	-6.91817
▁jer	-6.92037
)	-6.93727
ja	-6.93849
▁A	-6.94575
nja	-6.95367
▁rekao	-6.9654
▁ga	-6.9673
▁zbog	-6.99894
š	-7.00103
?	-7.00974
▁li	-7.05267
k	-7.0762
n	-7.0813
▁bilo	-7.08351
'	-7.10924
▁godina	-7.11729
▁I	-7.13088
▁već	-7.13987
▁uz	-7.14857
strok	-7.15312
nu	-7.1628
▁eura	-7.16397
▁tako	-7.18608
▁prije	-7.19189
ci	-7.19307
▁mu	-7.19896
▁ima	-7.21961
▁dok	-7.22328
ke	-7.22455
▁bila	-7.26128
▁može	-7.27123
▁dana	-7.28899
r	-7.31709
▁kada	-7.31923
!	-7.32834
▁prema	-7.36423
▁protiv	-7.36979
an	-7.3874
▁oko	-7.39217
ku	-7.39769
".	-7.40181
ta	-7.41579
da	-7.4171
▁tri	-7.42046
▁mogu	-7.42596
▁ni	-7.42727
▁To	-7.43166
▁bez	-7.45618
...	-7.45792
▁posto	-7.46189
▁ih	-7.46668
▁Ne	-7.46848
▁pri	-7.46882
▁kad	-7.47433
▁jedan	-7.48208
z	-7.48572
▁gdje	-7.49594
l	-7.5
▁nego	-7.50268
▁dva	-7.5053
▁no	-7.50701
▁Za	-7.50993
▁nam	-7.51161
ko	-7.51188
▁ljudi	-7.51654
▁svoje	-7.51922
c	-7.54158
▁tu	-7.54348
▁pod	-7.54381
ra	-7.56308
▁nisu	-7.58023
▁toga	-7.58095
▁me	-7.58542
em	-7.59504
ce	-7.60818
▁vrijeme	-7.61137
S	-7.61251
▁sada	-7.61582
va	-7.63215
ga	-7.64895
ći	-7.65185
y	-7.66501
▁ove	-7.66566
C	-7.67381
▁nas	-7.67643
▁ako	-7.69231
nju	-7.69764
▁O	-7.69886
ije	-7.70263
▁kod	-7.70321
▁ja	-7.71364
▁P	-7.72078
ova	-7.723
ž	-7.72472
za	-7.72662
er	-7.73998
▁koju	-7.74604
▁nekoliko	-7.75678
▁on	-7.76826
▁Po	-7.77314
nom	-7.77857
▁danas	-7.77911
ica	-7.79743
▁No	-7.79773
),	-7.79851
▁put	-7.81387
nih	-7.81733
p	-7.82025
in	-7.82408
▁bili	-7.83211
▁dobro	-7.83219
▁pet	-7.84131
▁Hrvatske	-7.84524
nim	-7.84625
▁prvi	-7.84721
▁pred	-7.85017
▁pre	-7.85664
▁treba	-7.85686
de	-7.85935
ba	-7.8604
ki	-7.86237
ak	-7.86619
▁tijekom	-7.86684
▁tome	-7.86893
▁nešto	-7.86972
▁ovo	-7.87088
▁Nakon	-7.87138
▁nema	-7.87672
▁radi	-7.88432
▁dio	-7.88833
re	-7.8939
/	-7.89528
▁puno	-7.89563
▁Hrvatskoj	-7.89648
b	-7.8979
io	-7.89881
▁kaže	-7.90357
▁sati	-7.90754
▁im	-7.90818
▁svi	-7.91098
ovi	-7.91139
iti	-7.91745
▁uvijek	-7.92086
▁dvije	-7.92468
nog	-7.92629
▁taj	-7.92835
di	-7.93016
▁pro	-7.93137
B	-7.94208
č	-7.95501
en	-7.96026
ice	-7.96523
če	-7.96864
▁mo	-7.97649
sa	-7.97988
▁milijuna	-7.98088
ost	-7.982
st	-7.98402
▁kojima	-7.99208
▁svoj	-7.99717
vi	-7.99913
▁kojem	-8.01177
▁ste	-8.01915
▁rekla	-8.02878
▁malo	-8.03167
▁dan	-8.03401
lu	-8.03517
ri	-8.03857
▁imaju	-8.04273
pa	-8.04363
▁kojoj	-8.04902
▁Mi	-8.05835
ve	-8.0614
▁onda	-8.06287
▁dalje	-8.06478
▁vrlo	-8.06619
▁C	-8.06629
sti	-8.06676
ila	-8.06708
▁Hrvatska	-8.06729
▁način	-8.06819
▁između	-8.06859
tu	-8.07168
▁dr	-8.07336
▁vam	-8.07367
▁jako	-8.084
▁Od	-8.08425
v	-8.08549
▁ve	-8.08721
ove	-8.10404
ski	-8.10534
▁svojim	-8.10585
▁ćemo	-8.10821
▁predsjednik	-8.10979
D	-8.11416
▁Kako	-8.12084
▁K	-8.12141
▁oni	-8.12159
A	-8.12298
▁njih	-8.12331
▁kroz	-8.12351
▁čak	-8.12641
▁Š	-8.13338
▁Da	-8.13503
▁joj	-8.13507
▁svoju	-8.13551
ili	-8.15487
▁ka	-8.1582
či	-8.16149
▁broj	-8.1622
U	-8.16638
▁također	-8.16648
▁mjesto	-8.17031
kom	-8.17107
▁neće	-8.17114
▁život	-8.17364
▁drugi	-8.17438
▁poput	-8.17602
▁Pa	-8.18073
▁20	-8.18608
osti	-8.19088
K	-8.19102
to	-8.19155
P	-8.19221
lja	-8.19556
lje	-8.20144
▁Ja	-8.20321
▁puta	-8.20334
▁10	-8.20393
▁E	-8.20482
ru	-8.20803
si	-8.21274
▁jednom	-8.2171
▁koliko	-8.21952
▁naj	-8.2202
ska	-8.22524
▁Ako	-8.23477
▁utakmice	-8.24691
▁ovaj	-8.24723
▁četiri	-8.2474
▁jedna	-8.25112
že	-8.25178
▁mora	-8.25367
▁Ivan	-8.2537
▁druge	-8.25417
▁igra	-8.25872
▁re	-8.2604
cu	-8.26409
ov	-8.26414
▁novi	-8.26422
',	-8.2645
▁odnosno	-8.26714
▁ta	-8.26786
zi	-8.27041
M	-8.27067
bi	-8.28008
T	-8.28031
ić	-8.28343
▁među	-8.28529
ija	-8.29239
▁bit	-8.30191
▁tim	-8.30321
▁piše	-8.30348
▁neki	-8.30822
▁d	-8.30954
▁Sve	-8.31207
▁D	-8.31464
jući	-8.31676
▁sezone	-8.31824
▁manje	-8.32498
▁tko	-8.32791
▁šest	-8.32865
▁tom	-8.32922
▁preko	-8.32936
▁HDZ	-8.32976
▁Do	-8.33086
O	-8.33223
).	-8.33527
▁strane	-8.33816
iji	-8.34198
I	-8.35496
▁imao	-8.35524
▁osoba	-8.35604
▁vremena	-8.35723
▁ti	-8.36448
▁njezin	-8.37259
▁vas	-8.37325
▁zna	-8.37566
▁ovom	-8.38528
▁svih	-8.38687
▁obitelji	-8.3883
▁ona	-8.39018
po	-8.39098
R	-8.39255
▁tek	-8.39292
nici	-8.39416
▁posebno	-8.39549
▁mjesta	-8.3967
▁njegov	-8.39884
▁njega	-8.40023
▁imati	-8.40087
vo	-8.40311
▁gotovo	-8.40677
▁kraju	-8.40685
▁tada	-8.40904
▁Iz	-8.42112
do	-8.42235
ske	-8.42601
▁Dinamo	-8.43038
▁ju	-8.43395
▁19	-8.43739
▁nad	-8.43894
▁kazao	-8.44375
▁Zagrebu	-8.44802
▁sad	-8.4519
▁B	-8.45215
F	-8.45285
ži	-8.45534
▁svom	-8.45732
▁ko	-8.45735
du	-8.458
se	-8.46053
▁kojeg	-8.4626
▁mogao	-8.4626
jte	-8.46757
ro	-8.46904
še	-8.47015
ina	-8.4724
G	-8.47431
▁ono	-8.47703
E	-8.47738
▁15	-8.47998
ča	-8.48418
▁godinu	-8.48558
▁ovog	-8.48873
sta	-8.49561
▁baš	-8.49733
L	-8.49835
▁EU	-8.5
▁Ali	-8.50127
▁teško	-8.50351
ši	-8.51174
▁Ovo	-8.51411
▁Z	-8.51707
▁de	-8.51716
▁M	-8.51865
čan	-8.5219
ji	-8.52228
▁ništa	-8.52514
su	-8.52542
▁12	-8.5279
pi	-8.52907
▁Iako	-8.52935
▁pitanje	-8.53164
▁2024.	-8.53246
▁mjestu	-8.53435
]	-8.5369
▁trener	-8.53789
▁vi	-8.54024
▁H	-8.54488
ran	-8.54932
▁bude	-8.55155
▁G	-8.55429
▁problem	-8.55534
H	-8.55982
▁neke	-8.56379
ine	-8.56465
vu	-8.57114
▁sebe	-8.57262
V	-8.57471
hr	-8.57769
▁svim	-8.57912
▁smatra	-8.57962
▁=>	-8.57964
ite	-8.58223
nica	-8.58241
f	-8.5852
▁VIDEO	-8.58575
be	-8.59027
bu	-8.59121
▁rad	-8.59224
al	-8.59739
ar	-8.5978
▁često	-8.60055
▁minuti	-8.60094
▁g	-8.6019
▁nove	-8.60286
cije	-8.60322
▁stvari	-8.60785
▁Što	-8.61379
it	-8.61506
nji	-8.61537
ća	-8.61548
ović	-8.61596
▁pomoć	-8.61652
će	-8.62099
▁11	-8.62273
▁bih	-8.62822
▁nisam	-8.6306
go	-8.63071
▁upravo	-8.63144
▁1	-8.63156
▁njima	-8.63362
cima	-8.63482
▁dobio	-8.63701
▁kraja	-8.63805
▁vozila	-8.63895
▁minuta	-8.64126
▁Prema	-8.64493
▁imali	-8.64494
▁svijetu	-8.64505
ša	-8.6466
eg	-8.64751
▁utakmica	-8.64993
ze	-8.65566
▁dodao	-8.65788
▁Le	-8.65932
▁Uz	-8.66119
▁Zagreb	-8.66276
▁njegova	-8.66591
▁djece	-8.66593
lj	-8.66857
▁možda	-8.66949
▁predsjednika	-8.67039
ter	-8.67442
▁Ba	-8.67789
▁bolje	-8.67821
▁raz	-8.67836
ici	-8.67913
gu	-8.68016
ena	-8.6806
ža	-8.68066
▁života	-8.68327
▁5	-8.6857
▁tisuća	-8.68655
▁priča	-8.68659
2	-8.68976
noj	-8.68998
▁Re	-8.69068
▁ponovno	-8.69073
▁zajedno	-8.69075
5	-8.69178
nice	-8.69444
ovima	-8.69503
▁ipak	-8.69579
1	-8.69707
▁veliki	-8.69999
▁Ko	-8.70038
N	-8.70215
▁prvaka	-8.70356
sku	-8.70569
▁svaki	-8.7063
▁2	-8.70654
▁znači	-8.70855
ati	-8.70948
cija	-8.71033
▁18	-8.71139
▁naše	-8.71205
▁4	-8.71262
▁ma	-8.71421
▁hrvatski	-8.71451
▁nalazi	-8.71465
▁kasnije	-8.7156
▁30	-8.71729
▁odmah	-8.71853
▁Kad	-8.72235
njem	-8.72258
▁Hajduk	-8.7253
▁ku	-8.72689
▁one	-8.72726
ck	-8.73004
vši	-8.73205
▁grad	-8.73231
▁području	-8.73317
▁vode	-8.73373
▁utakmicu	-8.73396
▁svog	-8.73448
▁T	-8.73527
▁dolazi	-8.73528
nik	-8.73636
▁La	-8.73703
▁jednu	-8.73736
▁Ma	-8.73932
▁govori	-8.74212
▁Mo	-8.7423
▁prošle	-8.74425
▁mogli	-8.74638
čić	-8.74862
sko	-8.75138
▁3	-8.75175
▁sustav	-8.75214
▁k	-8.75264
▁iako	-8.75345
▁[	-8.7593
▁si	-8.76229
▁Pro	-8.76462
▁osobe	-8.76579
▁možete	-8.76735
▁jednog	-8.7688
▁13	-8.76915
▁projekt	-8.76941
▁riječ	-8.77231
▁Naime	-8.77331
▁trenutku	-8.77391
nost	-8.77402
▁imamo	-8.77831
▁niti	-8.77831
icu	-8.77959
nije	-8.78047
6	-8.78193
▁najviše	-8.78378
7	-8.78755
▁Osim	-8.78786
3	-8.78814
▁premijer	-8.78885
▁toliko	-8.78886
▁posao	-8.79206
▁postoji	-8.79463
▁prava	-8.79507
▁Al	-8.79568
▁Tako	-8.80024
▁problema	-8.80054
▁gol	-8.80126
▁Ta	-8.80171
▁deset	-8.80345
▁čini	-8.80517
▁odgovor	-8.80629
ama	-8.80808
▁obzirom	-8.80902
x	-8.81497
bo	-8.81498
vr	-8.8172
▁zato	-8.81932
▁ranije	-8.81974
▁Nije	-8.82012
▁grada	-8.8212
▁reći	-8.82168
8	-8.82202
▁klub	-8.82539
▁F	-8.82643
▁2023.	-8.82665
▁Hrvatsku	-8.82667
▁prvo	-8.82841
▁policija	-8.8301
▁sigurno	-8.83013
%	-8.8323
pe	-8.83449
ac	-8.83465
▁pomoći	-8.83643
▁kraj	-8.83684
▁mjeseci	-8.83841
▁zašto	-8.83855
▁jedno	-8.83931
▁par	-8.84018
skog	-8.84104
▁petak	-8.84168
▁Ka	-8.84196
ava	-8.84459
▁17	-8.84525
▁pravo	-8.84561
4	-8.84784
▁kluba	-8.84918
▁čega	-8.84938
▁š	-8.84988
▁zapravo	-8.85053
▁14	-8.85116
▁svojoj	-8.85411
▁igrača	-8.85648
▁objavio	-8.85649
▁De	-8.86003
▁svijeta	-8.86065
▁op	-8.86283
▁On	-8.86326
or	-8.86421
▁netko	-8.86435
▁drugom	-8.8653
▁SAD	-8.86709
▁Ni	-8.8671
▁raditi	-8.87208
▁pi	-8.87296
▁ću	-8.87387
▁prvom	-8.87665
▁potpuno	-8.87715
▁želi	-8.87817
▁navodi	-8.88061
▁Plenković	-8.8816
▁Sa	-8.88258
▁vidjeti	-8.88283
▁zemlje	-8.88323
▁svega	-8.88572
▁isto	-8.88796
▁Pri	-8.88834
Z	-8.88911
▁z	-8.8901
aj	-8.89045
▁sedam	-8.89078
▁imala	-8.89113
▁mogla	-8.89127
▁tog	-8.89182
▁možemo	-8.89216
▁subotu	-8.89329
uje	-8.89395
iju	-8.89512
od	-8.89524
▁SDP	-8.899
▁16	-8.90005
▁Milanović	-8.90066
▁1.	-8.90084
▁Bo	-8.90229
00	-8.90602
▁ovdje	-8.90902
▁tr	-8.91079
▁Je	-8.9109
▁Tu	-8.91157
▁slučaju	-8.91446
▁brzo	-8.91487
▁kojim	-8.91873
lić	-8.91887
▁24	-8.92198
▁mene	-8.92439
▁društvenim	-8.92851
▁osam	-8.92901
mir	-8.92939
▁priliku	-8.93072
▁vodi	-8.93139
▁ugovor	-8.93236
▁opet	-8.93268
ete	-8.93282
▁dosta	-8.93334
▁2022.	-8.93358
▁N	-8.93575
▁tra	-8.93604
▁7	-8.9373
▁tvrdi	-8.93746
▁dugo	-8.93923
▁Kada	-8.94104
▁ide	-8.94144
▁ova	-8.94146
▁nedjelju	-8.94416
▁sud	-8.94461
▁drugih	-8.9452
nosti	-8.94606
▁Me	-8.94635
▁stoji	-8.94638
▁pak	-8.94942
▁rada	-8.9495
0	-8.9496
▁ministar	-8.95067
ć	-8.9518
▁svojih	-8.95332
▁Međutim	-8.95681
▁tjedna	-8.96073
▁Svi	-8.9627
ng	-8.96301
▁bu	-8.96421
▁50	-8.96546
ch	-8.96563
▁odnosu	-8.96813
nika	-8.96821
ini	-8.96867
▁istaknuo	-8.97061
▁Grad	-8.97087
us	-8.97121
ol	-8.97229
▁napada	-8.97379
▁rezultat	-8.97458
▁bile	-8.97503
emo	-8.97738
▁prostor	-8.97739
▁dovoljno	-8.97749
▁njihov	-8.97789
▁hrvatske	-8.98058
▁ponedjeljak	-8.98259
▁film	-8.98453
is	-8.98487
.000	-8.98751
iz	-8.98866
▁slu	-8.99001
▁igrati	-8.99041
▁igrač	-8.9909
▁velika	-8.99225
▁moguće	-8.99356
▁program	-8.99635
▁godini	-8.99994
▁tamo	-9.00153
vanje	-9.00345
▁potom	-9.00522
▁žena	-9.00538
ing	-9.00747
▁mnogi	-9.00759
nd	-9.00966
šte	-9.0101
▁jasno	-9.01132
▁naš	-9.01292
▁niz	-9.01366
inu	-9.01396
▁ovu	-9.01509
el	-9.01605
jem	-9.01791
▁djecu	-9.01845
ur	-9.01867
žu	-9.01994
▁prve	-9.02166
▁ime	-9.02515
▁Kao	-9.02598
▁izgleda	-9.02725
šta	-9.02732
zna	-9.02765
pre	-9.02782
ković	-9.028
▁znam	-9.02857
▁trebao	-9.02868
▁srijedu	-9.02885
▁dijete	-9.03095
▁rata	-9.03141
▁Marko	-9.03196
▁čeka	-9.03219
▁kuće	-9.03226
▁vjerojatno	-9.03281
eni	-9.03303
▁Zbog	-9.03312
▁Dinama	-9.03423
▁osim	-9.03426
▁Ivana	-9.03467
▁izbora	-9.03666
▁nismo	-9.03731
▁40	-9.03975
▁bodova	-9.04178
▁nikad	-9.04364
▁gr	-9.04386
▁tih	-9.04502
▁putem	-9.04675
▁Ha	-9.04758
tor	-9.04773
▁prva	-9.04788
vati	-9.05056
▁glavni	-9.05308
skom	-9.05727
▁nastupa	-9.05795
▁dijelu	-9.06309
▁f	-9.06406
▁hrvatskog	-9.06494
▁stranke	-9.06652
niji	-9.06785
▁najbolje	-9.06873
sp	-9.06938
▁kola	-9.06994
▁Zagreba	-9.07098
▁Luka	-9.07175
lije	-9.07512
▁ispred	-9.0763
▁metara	-9.07676
▁došao	-9.07733
▁sata	-9.08024
▁Ra	-9.08064
ali	-9.08251
▁nastup	-9.08388
▁velike	-9.08404
▁povijesti	-9.08425
▁ra	-9.08585
ver	-9.08616
tro	-9.08813
▁utakmici	-9.08957
fi	-9.08966
▁ru	-9.09018
at	-9.09064
▁Split	-9.0917
il	-9.09313
▁dobiti	-9.09427
▁obitelj	-9.0965
ek	-9.09762
▁utorak	-9.09857
▁doći	-9.09937
▁Vi	-9.1004
pri	-9.10103
▁razini	-9.10216
skih	-9.10262
▁svijet	-9.10309
tra	-9.10388
▁25	-9.10431
▁ćete	-9.10458
▁nova	-9.10467
▁drugim	-9.10582
▁Republike	-9.10648
lan	-9.10651
▁dobar	-9.10729
▁momčad	-9.10783
▁pe	-9.10884
▁rat	-9.10912
man	-9.10933
▁mislim	-9.1106
▁Su	-9.11141
▁koristi	-9.11186
▁nedavno	-9.11326
▁100	-9.1137
et	-9.11394
▁21	-9.11546
▁kojih	-9.11568
▁Prije	-9.1159
▁rast	-9.11728
▁škole	-9.11792
▁cijene	-9.11792
▁pla	-9.1186
▁devet	-9.11911
tri	-9.12027
▁c	-9.12092
▁R	-9.12094
▁mnogo	-9.12238
▁BiH	-9.12267
9	-9.123
▁osvojio	-9.12372
nt	-9.1254
▁predstavlja	-9.12555
zu	-9.12564
godišnji	-9.12587
▁Grada	-9.12686
▁Bar	-9.12912
▁Splitu	-9.13126
▁očekuje	-9.13281
▁mjeseca	-9.13319
▁županije	-9.1355
▁Te	-9.13688
ira	-9.13714
kla	-9.1373
▁prvog	-9.13868
▁ističe	-9.1392
rt	-9.1402
▁Rijeka	-9.14028
'.	-9.14099
▁novog	-9.14284
▁čovjek	-9.14353
dr	-9.14363
▁cijena	-9.14429
▁va	-9.14429
▁mrežama	-9.14556
rija	-9.14575
▁uključujući	-9.146
▁cilj	-9.14982
▁doma	-9.15116
w	-9.15118
▁razvoj	-9.15241
▁dolara	-9.15308
▁tvrtke	-9.15422
▁ljude	-9.15422
▁pobjedu	-9.15425
▁godinama	-9.15601
▁6	-9.15614
▁Također	-9.1578
▁8	-9.15793
▁svima	-9.15852
▁Ro	-9.15852
▁isti	-9.15855
▁time	-9.15889
▁trenutno	-9.15955
▁njemu	-9.16027
▁moglo	-9.16059
▁gradu	-9.16077
▁snage	-9.16262
▁pobjede	-9.16266
▁moraju	-9.16305
▁pol	-9.16362
▁moći	-9.16481
šić	-9.16528
▁Ima	-9.16588
▁lipnja	-9.16622
▁Trump	-9.1666
▁promet	-9.16714
bra	-9.16817
iš	-9.16894
▁napraviti	-9.16995
▁hrvatskih	-9.1708
▁Hrvatski	-9.17128
ću	-9.17131
nija	-9.17229
god	-9.17316
skoj	-9.17364
▁Ru	-9.1737
▁druga	-9.17472
ciju	-9.17558
gor	-9.17737
lju	-9.1778
▁javnosti	-9.17839
▁rade	-9.17941
▁čemu	-9.17961
▁zatim	-9.1799
ll	-9.1801
stvo	-9.18052
▁najbolji	-9.18087
▁poručio	-9.18107
uju	-9.18119
▁Vlade	-9.18213
▁plaća	-9.1829
▁postao	-9.1858
▁novih	-9.18639
▁dobili	-9.18702
stva	-9.18734
▁ovoj	-9.18847
▁Hajduka	-9.18886
▁V	-9.18889
▁prvu	-9.18947
▁žele	-9.18947
▁objavila	-9.1909
rije	-9.19125
▁sat	-9.19319
▁ovih	-9.19455
▁njegove	-9.19574
▁koj	-9.19585
▁direktor	-9.19617
th	-9.19617
▁primjer	-9.19629
nicu	-9.19739
▁naslov	-9.19856
▁dogodilo	-9.19862
▁vaš	-9.20065
▁Li	-9.20171
▁vlasti	-9.20381
▁situacija	-9.20405
▁novac	-9.20425
▁biste	-9.2051
▁pristup	-9.20579
ene	-9.20657
▁došlo	-9.21054
▁sebi	-9.21167
▁Du	-9.21221
đe	-9.21368
▁bolesti	-9.21469
ljen	-9.21541
ika	-9.21583
▁Danas	-9.21642
▁trebalo	-9.21678
▁Ovaj	-9.2168
▁izjavio	-9.21681
▁ukupno	-9.21777
▁koncert	-9.21975
▁nitko	-9.21976
▁Dr	-9.2204
▁korak	-9.2215
▁god	-9.22181
▁toj	-9.22499
▁novu	-9.2262
▁otkrila	-9.22643
▁Gr	-9.22739
▁bivši	-9.22856
čki	-9.22959
▁moj	-9.22961
▁bismo	-9.22979
van	-9.2308
▁POGLEDAJTE	-9.23104
▁Lu	-9.23165
▁Di	-9.23242
▁ispod	-9.23283
▁otkrio	-9.23289
ilo	-9.23444
▁nikada	-9.23499
▁sva	-9.23527
▁zabio	-9.23647
▁/	-9.23859
▁izborima	-9.24016
▁drugog	-9.24028
min	-9.24187
▁djeca	-9.24296
▁drugo	-9.24379
▁stan	-9.24462
▁potrebno	-9.2459
▁aktivnosti	-9.24628
▁momčadi	-9.24636
ču	-9.24667
▁Mar	-9.24759
▁sin	-9.24873
▁stvar	-9.25055
▁države	-9.25186
enje	-9.25189
▁terenu	-9.25263
đa	-9.25384
gra	-9.25548
▁22	-9.25549
▁sustava	-9.2558
co	-9.25591
đen	-9.25746
▁Josip	-9.25963
▁donosi	-9.26071
▁njihove	-9.26082
lov	-9.26091
ana	-9.26192
▁pravi	-9.26194
▁Be	-9.2626
▁igre	-9.26332
▁dodatno	-9.26359
▁vidi	-9.26409
▁izvan	-9.26465
vanja	-9.26508
▁p	-9.26509
▁član	-9.26689
op	-9.26715
grad	-9.26763
▁Ar	-9.26993
▁9	-9.27133
▁kući	-9.27137
▁jedne	-9.27291
pl	-9.27298
▁neka	-9.27313
▁Pre	-9.27374
stan	-9.274
▁Bu	-9.27504
▁0	-9.27534
▁trebali	-9.27576
▁promjene	-9.27581
▁Real	-9.27615
▁cijeli	-9.27629
▁ljubav	-9.27646
ste	-9.27654
▁onih	-9.27732
▁la	-9.27732
▁Bilo	-9.27748
▁nekim	-9.2775
▁rujna	-9.27851
stav	-9.27864
▁prenosi	-9.27884
▁Ti	-9.27914
▁jednostavno	-9.28257
▁prilikom	-9.28257
▁L	-9.28305
▁posljednjih	-9.28322
▁zahtjev	-9.28333
os	-9.28436
lom	-9.28568
▁važno	-9.28666
▁Ipak	-9.28676
sto	-9.2872
men	-9.28777
▁Ž	-9.288
sh	-9.29094
▁policije	-9.29212
▁budu	-9.29234
▁četvrtak	-9.29363
▁priprema	-9.29418
▁ljudima	-9.29631
▁pitanja	-9.29677
▁ovim	-9.29914
▁Č	-9.30011
▁Pe	-9.302
▁kažu	-9.30213
▁Dok	-9.30248
▁rekli	-9.30381
pu	-9.30521
▁vrijednosti	-9.30536
vali	-9.3076
▁nogometn	-9.3078
▁životu	-9.30921
▁napad	-9.31014
ik	-9.31157
▁Europe	-9.31434
ev	-9.31435
▁Foto	-9.31564
▁Novi	-9.3162
tom	-9.31708
▁An	-9.31709
▁trebala	-9.31819
▁posla	-9.31821
▁odluka	-9.31859
▁Bio	-9.31887
▁poziv	-9.31904
▁Ova	-9.31939
jer	-9.31954
▁uspjeh	-9.31976
▁susret	-9.32198
▁izvor	-9.32236
▁travnja	-9.32263
▁srpnja	-9.32268
com	-9.3234
▁zdrav	-9.32375
▁W	-9.32407
▁napisao	-9.32414
▁h	-9.32514
▁tjedan	-9.32532
▁60	-9.32585
▁razloga	-9.32683
met	-9.32687
▁video	-9.32724
▁njen	-9.32854
▁Varaždin	-9.32992
▁sklopu	-9.33061
▁listopada	-9.3311
▁lako	-9.33124
▁država	-9.33163
▁Dan	-9.33259
▁le	-9.33331
▁Mislim	-9.33415
▁gra	-9.33523
iljem	-9.33569
▁kandidat	-9.33599
đi	-9.336
▁Oni	-9.33654
▁mjesec	-9.33703
▁žene	-9.33705
▁Jo	-9.34014
▁Pu	-9.34119
izira	-9.34138
▁djela	-9.343
▁tiče	-9.3436
eva	-9.34366
▁poslova	-9.34421
30	-9.34431
▁reprezentacije	-9.34552
▁lige	-9.34718
▁početka	-9.34855
▁vozač	-9.34868
▁suda	-9.34891
▁mlade	-9.34924
▁projekta	-9.34977
▁Ukrajini	-9.34987
▁ro	-9.34995
▁Još	-9.35259
▁vlada	-9.3527
tar	-9.35394
▁građana	-9.35418
▁dodaje	-9.35425
▁previše	-9.35432
▁moramo	-9.35465
▁mladih	-9.35527
▁ostati	-9.35553
▁uglavnom	-9.35569
▁podršku	-9.35715
▁pola	-9.3596
▁Izrael	-9.36003
▁hoće	-9.36015
▁Europi	-9.36019
per	-9.3606
▁iza	-9.36181
▁uoči	-9.36304
▁barem	-9.36341
▁Bi	-9.36403
▁Filip	-9.36431
▁zemalja	-9.36448
Ne	-9.36553
▁glas	-9.36572
▁treći	-9.3669
čen	-9.36837
por	-9.36842
fa	-9.36845
▁ulogu	-9.36912
▁stvarno	-9.3694
▁bogat	-9.37102
▁J	-9.37251
▁ž	-9.37346
▁kolovoza	-9.37455
▁Rijeke	-9.37497
▁najmanje	-9.37545
voj	-9.376
▁prvenstva	-9.37632
isti	-9.37697
▁automobila	-9.37758
▁veliku	-9.37831
▁tijelo	-9.37945
▁odluku	-9.37971
W	-9.38016
▁br	-9.38036
es	-9.38129
godišnjak	-9.38284
▁Hrvatskog	-9.3829
▁sigurnosti	-9.38303
▁FOTO	-9.38387
irati	-9.3855
▁novo	-9.38559
▁di	-9.3858
▁meni	-9.38605
vanju	-9.38621
▁proces	-9.38651
▁dobila	-9.38665
▁uopće	-9.3868
skim	-9.38701
▁kolu	-9.38765
▁Ga	-9.3877
▁događa	-9.39041
dan	-9.39351
+	-9.39362
enja	-9.3944
▁RTL	-9.39587
up	-9.39729
▁glasova	-9.3974
▁djelo	-9.39922
▁Europske	-9.39967
put	-9.40042
▁mjere	-9.40044
▁Olimpijsk	-9.40053
▁bolji	-9.40055
▁poraz	-9.40239
▁Jedan	-9.40363
čka	-9.40569
▁vrata	-9.40725
▁otvoren	-9.40755
▁model	-9.40864
▁svibnja	-9.40963
▁gradonačelnik	-9.40976
▁umjesto	-9.41031
▁brojne	-9.41042
▁Evo	-9.41072
▁veći	-9.41222
▁turističk	-9.41303
ry	-9.41377
stra	-9.41415
▁slučaj	-9.41596
▁gleda	-9.41798
koj	-9.41812
▁račun	-9.41948
gen	-9.42082
▁unutar	-9.42202
▁područja	-9.42202
era	-9.4241
▁2.	-9.42419
▁dosad	-9.42478
▁traži	-9.4249
▁nastaviti	-9.42514
▁natjecanja	-9.42583
▁osjećaj	-9.42616
▁znaju	-9.427
var	-9.42734
tak	-9.42856
▁Kr	-9.42878
▁Per	-9.42946
šti	-9.43047
jen	-9.4314
▁Ri	-9.43191
▁izbore	-9.43192
▁naših	-9.43303
pro	-9.43437
▁programa	-9.43454
as	-9.43624
▁Tijek	-9.43786
▁plan	-9.43787
▁umjetn	-9.43926
▁navodno	-9.43929
red	-9.43943
▁izbor	-9.44011
▁zemlji	-9.44102
▁X	-9.44141
▁obrane	-9.44658
▁pitanju	-9.44759
▁planira	-9.44767
▁radio	-9.44873
▁njihova	-9.44962
mp	-9.44988
▁Zoran	-9.45008
▁2021.	-9.45049
▁Jer	-9.45061
▁pra	-9.4526
tan	-9.4532
▁stanje	-9.45333
▁hit	-9.45527
▁ostali	-9.46251
▁slab	-9.46354
▁zdravlje	-9.47187
▁sigurnost	-9.47201
▁postoje	-9.47266
ir	-9.47272
▁nosi	-9.47287
▁iznad	-9.47341
▁mom	-9.47464
▁Ve	-9.47465
ber	-9.47496
▁iskustvo	-9.47768
▁zanimljiv	-9.47818
▁odluke	-9.48031
▁tijela	-9.48157
▁čiji	-9.48198
▁gola	-9.48354
anje	-9.48368
▁let	-9.48388
▁stigao	-9.48475
▁23	-9.48504
▁razlog	-9.48504
▁Prvi	-9.48535
▁vratiti	-9.48577
un	-9.48595
▁živi	-9.48652
▁igrao	-9.48689
▁St	-9.48691
▁pada	-9.48739
▁ostao	-9.48815
stvu	-9.48873
▁Podsjetimo	-9.48974
▁ujutro	-9.48979
▁In	-9.49015
▁događaja	-9.49034
▁početkom	-9.49146
▁finala	-9.49314
▁ba	-9.494
▁jest	-9.49403
▁strani	-9.4946
▁The	-9.496
▁TV	-9.49602
▁majka	-9.49687
▁prvoj	-9.49688
ron	-9.49714
mor	-9.49749
kovi	-9.49767
▁trenutak	-9.49782
▁prilika	-9.49839
▁Radi	-9.49948
▁mediji	-9.50012
▁svakom	-9.50016
▁Lige	-9.50151
▁energije	-9.50157
▁smrti	-9.50237
jan	-9.50279
▁HNL	-9.50317
▁informacije	-9.50317
Po	-9.50437
▁HRT	-9.50497
raz	-9.50591
eno	-9.50646
▁pojedin	-9.5101
▁partner	-9.51011
▁pomo	-9.51127
▁siječnja	-9.51166
▁Njemačkoj	-9.51167
▁uspio	-9.51168
▁Gu	-9.51168
nić	-9.51169
▁redu	-9.51237
▁njegovu	-9.51309
▁prvenstvu	-9.51337
▁mladi	-9.5147
▁najavio	-9.51535
▁zakon	-9.51603
▁boda	-9.51629
▁čime	-9.51646
▁list	-9.51744
▁ured	-9.51831
▁hrane	-9.51853
▁najveći	-9.51862
▁Zadar	-9.51891
▁došli	-9.5194
▁prosinca	-9.52022
▁NATO	-9.52023
▁završio	-9.52054
▁skupine	-9.52259
▁mogućnost	-9.52297
rom	-9.52525
▁dolaze	-9.52554
kup	-9.52567
▁oba	-9.52592
▁lo	-9.52601
vje	-9.52611
vla	-9.52616
▁nje	-9.52635
mer	-9.52641
▁svemu	-9.52653
čno	-9.52698
▁radova	-9.52736
ile	-9.5304
▁Treba	-9.53093
▁stol	-9.53412
▁tre	-9.53457
▁dodala	-9.53525
▁proizvoda	-9.53628
▁zračn	-9.53681
▁centar	-9.53757
▁sezonu	-9.53758
▁Samo	-9.5378
▁pokazuje	-9.5394
▁Vlada	-9.53999
▁odlučio	-9.54042
▁noći	-9.54151
▁nudi	-9.54216
tr	-9.54296
▁novim	-9.54357
▁nama	-9.54362
▁Riječ	-9.54437
lji	-9.5445
aron	-9.54476
nk	-9.54483
▁pjeva	-9.54551
pr	-9.54613
▁društvo	-9.54636
▁ljeta	-9.54636
▁pobjeda	-9.54649
▁pop	-9.54713
▁našeg	-9.54798
▁supruga	-9.54833
▁osobito	-9.54835
▁nastavlja	-9.55071
▁poznat	-9.55084
▁rješenje	-9.55167
▁RH	-9.55196
▁Više	-9.55203
▁iznosi	-9.55248
ijom	-9.5545
▁izazov	-9.55492
▁poslije	-9.557
▁računa	-9.55794
▁situaciju	-9.55879
▁naša	-9.55994
vala	-9.56135
▁postala	-9.56251
icom	-9.56306
▁daleko	-9.56341
▁ras	-9.56353
str	-9.56499
br	-9.5657
▁javno	-9.56755
▁uprave	-9.56777
fe	-9.56824
▁Sada	-9.56869
▁obzira	-9.56926
▁auto	-9.56985
▁El	-9.57018
▁potez	-9.57177
▁loše	-9.57391
▁vezi	-9.57498
▁Policija	-9.57501
▁kazala	-9.57501
ciji	-9.57596
▁ruke	-9.57621
▁zatvoren	-9.57649
50	-9.57686
▁izborn	-9.57734
▁misli	-9.57823
▁Predsjednik	-9.57865
▁jednoj	-9.57921
av	-9.57922
▁kupa	-9.57975
▁našim	-9.58079
▁New	-9.58105
▁provodi	-9.58156
▁globaln	-9.5823
ster	-9.58478
tal	-9.58493
gled	-9.58501
kić	-9.58608
▁Pred	-9.58629
▁prijedlog	-9.58657
▁naravno	-9.58684
▁kandidata	-9.58767
▁Lo	-9.58778
▁uskoro	-9.58781
▁Srbije	-9.58817
lin	-9.58897
▁evo	-9.58982
J	-9.59013
▁prostora	-9.5903
▁postaje	-9.59057
▁društva	-9.59149
▁stav	-9.59246
▁2025.	-9.59334
ita	-9.59386
▁pokret	-9.59438
aju	-9.59462
ivot	-9.59474
▁jučer	-9.59519
▁pot	-9.59611
▁smjeru	-9.59634
▁ostaje	-9.59661
▁zaključio	-9.59705
▁dijela	-9.5971
▁škola	-9.59798
kov	-9.59817
▁novom	-9.59843
ročitajte	-9.59881
▁medicinsk	-9.5989
▁minute	-9.59893
▁inače	-9.5991
vije	-9.59971
▁udar	-9.60103
icama	-9.60142
vao	-9.60143
▁mir	-9.602
▁Vr	-9.60261
▁pokazala	-9.60265
▁jedinstven	-9.6045
▁fotografije	-9.60474
▁povijesn	-9.60553
▁3.	-9.60598
▁napisala	-9.60607
▁Zato	-9.60703
▁međunarodn	-9.6077
▁Naj	-9.60815
▁pjesme	-9.60825
▁pokazao	-9.60866
▁m	-9.60877
▁svak	-9.60925
nce	-9.60932
▁rizik	-9.60938
ut	-9.61016
eri	-9.61025
▁nju	-9.61044
▁svojom	-9.61051
▁70	-9.61069
▁riječi	-9.61096
▁veze	-9.61099
▁koristiti	-9.61158
▁bavi	-9.61227
vez	-9.61234
▁zaista	-9.6133
zo	-9.61366
▁temperatura	-9.6139
▁drugu	-9.61391
eve	-9.61407
▁otac	-9.61409
▁Već	-9.61409
▁prometa	-9.61426
Zc	-9.61512
▁kup	-9.61578
▁teren	-9.6158
iv	-9.6159
nski	-9.61643
dar	-9.61658
ment	-9.61673
▁traže	-9.61717
▁početku	-9.61778
▁nemaju	-9.61783
▁građani	-9.61917
▁znak	-9.61925
▁nekih	-9.61934
▁35	-9.61944
par	-9.61997
▁jak	-9.62093
▁interes	-9.62101
rov	-9.62195
▁Andrej	-9.62448
▁novca	-9.62533
▁odmor	-9.62591
▁sutra	-9.62662
▁26	-9.627
▁takav	-9.62737
▁traje	-9.62739
let	-9.62762
iva	-9.62891
▁klubu	-9.62969
▁njim	-9.62993
▁postati	-9.63063
tvor	-9.63107
▁Dakle	-9.63126
▁susreta	-9.63158
▁javnost	-9.63181
▁Tomislav	-9.63269
čni	-9.6341
▁izgled	-9.63483
▁odnos	-9.63617
▁Neki	-9.63663
▁kilometara	-9.63665
bor	-9.63669
▁ozljede	-9.63682
▁kor	-9.63744
đu	-9.63775
▁karijere	-9.63803
▁Martin	-9.63842
▁voditelj	-9.63945
▁Dubrovnik	-9.63983
▁Ju	-9.64066
▁napravio	-9.64095
▁filma	-9.64238
▁imam	-9.64255
▁du	-9.64262
▁osje	-9.64353
▁dođe	-9.64392
▁jedini	-9.64439
irao	-9.64445
▁Br	-9.64448
▁živ	-9.64452
▁Rad	-9.64481
▁moje	-9.64497
▁stanju	-9.64513
▁dom	-9.64614
▁So	-9.64647
▁koriste	-9.64742
▁Nema	-9.64783
tić	-9.64797
▁pokazuju	-9.64857
evi	-9.64875
tre	-9.64928
dra	-9.6493
čke	-9.64942
▁Ku	-9.65011
vjer	-9.65035
▁Fa	-9.65123
log	-9.65169
▁Osijek	-9.6518
▁velikim	-9.65208
ff	-9.6523
▁ljubavi	-9.65275
▁pres	-9.65296
▁dobra	-9.65458
ren	-9.65496
▁spremni	-9.65518
cijom	-9.65543
▁Nikola	-9.65555
njima	-9.65579
▁objašnjava	-9.65634
▁dokaz	-9.65812
▁#	-9.65846
▁svakako	-9.65876
▁drugoj	-9.65994
▁mnoge	-9.66019
▁potrebe	-9.66029
dio	-9.66039
ec	-9.66134
ss	-9.66363
▁of	-9.66397
▁pogotovo	-9.66425
▁2020.	-9.66426
▁Taj	-9.6643
igra	-9.6645
rić	-9.66503
▁bo	-9.66593
ića	-9.66612
▁blizini	-9.66624
▁ožujka	-9.66624
▁počeo	-9.66634
▁prati	-9.66699
▁promjena	-9.66741
▁cijelu	-9.66763
▁budući	-9.6681
slav	-9.66893
▁isp	-9.66919
▁milijun	-9.67057
▁sami	-9.67109
▁iznimno	-9.67118
▁ovako	-9.67146
▁zapadn	-9.67157
telj	-9.67159
▁neko	-9.67173
▁snaga	-9.6719
▁ovakv	-9.67248
ala	-9.67254
▁plaće	-9.67291
▁poziva	-9.67337
▁počinje	-9.67389
▁kulture	-9.67423
den	-9.67428
▁naglasio	-9.67624
▁igrači	-9.67632
▁posljednje	-9.67669
▁Ante	-9.67669
▁izgubio	-9.6775
▁Car	-9.67756
▁Ki	-9.67764
▁Co	-9.6779
der	-9.678
▁pjesmu	-9.67825
▁uspjeli	-9.67825
res	-9.67899
▁pronaći	-9.68051
▁politike	-9.68066
kog	-9.6821
▁ozlijeđen	-9.68325
▁cr	-9.68393
▁došla	-9.68423
▁sezoni	-9.68433
▁mali	-9.6857
▁centra	-9.6858
▁hrvatskom	-9.68617
▁ljeto	-9.68634
▁vo	-9.68665
ler	-9.68671
nka	-9.68694
kao	-9.68717
▁Naravno	-9.6886
▁krajem	-9.69191
▁predmet	-9.69206
▁stalno	-9.6921
▁sredstva	-9.69245
▁kapetan	-9.69245
▁smije	-9.69345
▁finale	-9.69451
▁Ove	-9.69631
▁Ministarstvo	-9.69659
▁trenera	-9.69676
▁Parizu	-9.69683
▁odr	-9.69713
▁istraživanje	-9.69725
▁pad	-9.69754
▁90	-9.69884
ad	-9.70029
▁priče	-9.70037
▁Ana	-9.7005
ent	-9.7007
▁Marija	-9.70093
▁Ono	-9.70143
▁vratio	-9.70224
▁80	-9.70285
▁rezultate	-9.70294
▁standard	-9.70352
▁idu	-9.70387
▁iznos	-9.70432
▁uživa	-9.70433
ct	-9.70455
▁obje	-9.70488
novi	-9.70588
▁ostalim	-9.70627
▁prvenstvo	-9.70685
20	-9.70728
▁priču	-9.7078
▁budućnosti	-9.70834
▁Jedna	-9.70849
▁narod	-9.70914
▁većina	-9.71019
▁portal	-9.71105
▁7.	-9.71121
▁Ona	-9.71122
▁dijeli	-9.71147
čin	-9.71149
▁DP	-9.71205
▁večer	-9.71213
nci	-9.7127
▁Pet	-9.71273
▁bol	-9.71273
▁modern	-9.71341
vat	-9.71345
▁objasnio	-9.71401
▁roditelji	-9.71486
ob	-9.71537
▁prvih	-9.71573
▁Marin	-9.71599
čević	-9.71689
▁ekipa	-9.71727
▁ri	-9.71731
▁znamo	-9.71889
▁in	-9.71901
bri	-9.71905
▁protekl	-9.7194
▁Ministarstva	-9.71942
▁društvu	-9.72147
▁trebaju	-9.72151
iranje	-9.72281
stu	-9.72329
▁reprezentacija	-9.72357
▁poslu	-9.72362
▁Kon	-9.72402
▁mogućnosti	-9.72455
▁stranka	-9.72499
▁izbornik	-9.72519
son	-9.72528
▁najboljih	-9.72643
▁probleme	-9.72665
▁razliku	-9.72671
▁be	-9.72705
▁poraza	-9.72806
▁Tri	-9.7283
▁čij	-9.72906
▁zajednice	-9.73008
▁Star	-9.73028
mar	-9.73056
▁povezan	-9.73068
▁Sad	-9.7311
▁Njegov	-9.7316
jima	-9.73167
ner	-9.7318
▁olimpijsk	-9.73204
▁suradnji	-9.73204
▁učiniti	-9.73209
▁more	-9.73225
▁Vo	-9.73227
▁mandata	-9.73348
▁požar	-9.73453
Š	-9.73488
etiri	-9.73557
▁bar	-9.73563
▁nesreće	-9.73638
lica	-9.73644
▁finalu	-9.73844
▁početak	-9.73855
▁Ben	-9.73873
ps	-9.73971
▁električn	-9.74003
▁navija	-9.74057
▁loptu	-9.74058
▁udarac	-9.74193
▁tvrtka	-9.74206
▁imate	-9.74237
▁Crn	-9.7424
▁situacije	-9.74272
▁uspješno	-9.74273
▁Prvo	-9.74288
▁Bor	-9.74339
▁sina	-9.74371
▁informacija	-9.74422
▁lijepo	-9.74439
ovu	-9.74472
tur	-9.74481
▁naši	-9.74512
▁17.	-9.74548
▁200	-9.74757
▁prosvjed	-9.74858
▁Goran	-9.74877
▁vraća	-9.75043
nta	-9.75064
ara	-9.7508
▁sezona	-9.75141
▁rekord	-9.75144
▁automobil	-9.75165
▁točno	-9.75184
▁dobi	-9.75278
▁zaštite	-9.75354
▁utjecaj	-9.75386
▁našu	-9.75396
▁kra	-9.7542
for	-9.75469
eš	-9.75559
▁Europsk	-9.75569
▁iskustva	-9.7557
▁pregled	-9.75592
▁bolnici	-9.75593
▁prošlog	-9.75627
▁imena	-9.75727
▁odgovara	-9.75756
▁ceste	-9.75788
▁15.	-9.75793
▁Va	-9.75852
▁ovoga	-9.75883
▁povećanje	-9.75905
▁ruku	-9.75909
lek	-9.75932
▁otišao	-9.76007
▁Jadranu	-9.76032
▁Rusija	-9.76058
▁zraka	-9.76093
▁dvoje	-9.76108
▁spoj	-9.76122
▁Tko	-9.76194
nac	-9.76217
▁pokušava	-9.76267
▁medija	-9.76297
▁domaćin	-9.76377
▁Mario	-9.76408
▁tržištu	-9.76444
▁lakše	-9.76455
▁Kor	-9.76482
ho	-9.76492
▁ulici	-9.76517
▁moja	-9.7652
▁slijedi	-9.76548
▁mandat	-9.76667
pt	-9.76678
tt	-9.7668
▁dati	-9.76801
!"	-9.7682
▁mas	-9.76991
▁izbori	-9.77045
▁zvijezda	-9.77104
▁tvrde	-9.77243
▁Splita	-9.77392
▁Među	-9.77419
▁posjet	-9.77423
jev	-9.77425
▁karijeri	-9.77445
▁Putin	-9.77456
▁potvrdio	-9.77525
čar	-9.77614
▁osvojila	-9.77652
▁Modrić	-9.77656
ško	-9.77662
▁lije	-9.77672
▁zaklju	-9.77742
▁Pogledajte	-9.7777
▁usluga	-9.7777
▁nadzor	-9.77783
▁broja	-9.77837
▁Vu	-9.77996
▁rusk	-9.78119
▁postupak	-9.78123
▁javlja	-9.78133
nos	-9.78141
▁prvak	-9.78272
▁Bit	-9.78288
bil	-9.78302
▁Instagramu	-9.78332
▁ha	-9.78403
ist	-9.78441
▁Nova	-9.78508
čiti	-9.78516
▁Go	-9.78558
▁vrijednost	-9.78582
ot	-9.78642
▁priopćenju	-9.78664
▁tjelesn	-9.78664
▁Fran	-9.7877
▁jedino	-9.78797
▁sto	-9.7886
▁razdoblju	-9.78888
pra	-9.78919
▁Božić	-9.78942
▁kaznen	-9.78985
nima	-9.79052
▁povijest	-9.79122
▁Baby	-9.79127
▁Damir	-9.79186
▁seks	-9.79206
▁kojemu	-9.79209
izam	-9.79249
▁Op	-9.79279
ard	-9.79281
▁kriv	-9.7929
▁bod	-9.79311
ani	-9.7947
zan	-9.79504
▁cijel	-9.79582
▁teret	-9.79671
▁poru	-9.79745
▁strana	-9.79779
▁stoga	-9.79852
▁odnosi	-9.79954
▁Ob	-9.79978
▁ostale	-9.80021
▁vidjeli	-9.80039
▁godišnje	-9.80047
▁33	-9.80051
▁ići	-9.80177
▁svakog	-9.80293
▁Par	-9.80384
▁rije	-9.80659
▁dogodila	-9.80667
▁voda	-9.80716
▁Mir	-9.80824
▁iste	-9.80837
▁moru	-9.80881
▁status	-9.80934
▁stigla	-9.80936
▁hrvatska	-9.80943
▁želim	-9.80951
▁njoj	-9.8097
bija	-9.81015
▁onaj	-9.81029
▁Mnogi	-9.81034
▁očito	-9.81083
laz	-9.81124
fer	-9.81153
nj	-9.81296
▁komentirao	-9.81331
▁vijest	-9.81384
▁radnika	-9.81427
▁stvara	-9.81433
▁San	-9.81489
▁pu	-9.81538
▁šut	-9.81611
▁borbi	-9.81645
▁Or	-9.81648
san	-9.81649
▁porast	-9.81691
▁vlasnik	-9.81797
djel	-9.81861
▁savjet	-9.81873
▁velikom	-9.81892
▁Pod	-9.81893
▁5.	-9.819
anja	-9.81931
▁mijenja	-9.81988
▁vidio	-9.82032
▁11.	-9.8204
Za	-9.82048
din	-9.82062
▁otkriva	-9.82076
▁rješenja	-9.82089
▁školu	-9.82089
15	-9.82188
▁odgovorio	-9.82217
▁val	-9.82224
:00	-9.82251
▁održati	-9.82358
▁ot	-9.82395
▁trud	-9.82402
car	-9.82444
inom	-9.82479
▁Ho	-9.82484
▁našem	-9.82506
▁zemlja	-9.82509
▁zgrade	-9.82555
▁8.	-9.8258
▁poznato	-9.82728
▁našoj	-9.82741
▁dokument	-9.82775
izma	-9.82785
▁održan	-9.82786
est	-9.82791
▁Mu	-9.82958
▁Si	-9.82967
lice	-9.83034
▁kakav	-9.83041
▁Euro	-9.83102
▁borbe	-9.83107
▁Tra	-9.83175
▁razvoja	-9.83255
▁Inače	-9.83259
▁super	-9.83287
▁zatvora	-9.83332
▁st	-9.83352
▁doba	-9.8339
▁odlu	-9.83418
▁ob	-9.83444
▁Gra	-9.83497
▁vaše	-9.83548
▁serije	-9.8359
▁20.	-9.83703
▁milijardi	-9.83728
sni	-9.83738
▁nagradu	-9.83751
▁unatoč	-9.83755
▁Nisam	-9.83761
▁Mari	-9.83787
▁ki	-9.83803
▁div	-9.83827
▁nikakv	-9.83834
▁golova	-9.83856
▁ukupn	-9.83888
gla	-9.839
▁pita	-9.83923
▁kilograma	-9.83955
stru	-9.83964
▁govorio	-9.84011
▁sukob	-9.8402
▁počela	-9.84205
čev	-9.84229
ven	-9.84277
šao	-9.84305
▁temelju	-9.84327
▁strah	-9.84387
ivanje	-9.84416
▁Iran	-9.84429
▁vremenu	-9.84439
▁zaštitu	-9.84439
▁srca	-9.84476
▁budućnost	-9.84513
▁osnovn	-9.84525
▁rođendan	-9.84542
▁glasa	-9.84559
▁Dra	-9.84566
▁brat	-9.8463
▁Bila	-9.84632
▁centru	-9.84644
esto	-9.84727
▁skupina	-9.84732
To	-9.84786
▁žensk	-9.84942
▁zakona	-9.85023
▁4.	-9.85086
▁daje	-9.8515
▁donio	-9.85212
▁karijeru	-9.85267
▁oblik	-9.85333
▁Is	-9.85468
▁navode	-9.85474
▁službeno	-9.85497
▁turnira	-9.85539
ks	-9.8555
▁ostala	-9.85551
▁navijača	-9.85554
▁radu	-9.85615
▁cijele	-9.85699
veli	-9.85722
▁Milan	-9.85747
▁navečer	-9.85807
▁san	-9.8583
▁2019.	-9.85876
▁kategoriji	-9.86119
▁rasta	-9.86149
▁dobiva	-9.86167
▁igraju	-9.86278
▁pove	-9.86341
▁gledati	-9.86345
▁dovesti	-9.8636
▁brz	-9.86407
▁uhićen	-9.86448
▁osobno	-9.86589
▁21.	-9.86596
▁stoljeća	-9.86607
▁takve	-9.86612
▁srce	-9.86619
▁određen	-9.86696
ljev	-9.86809
▁bitno	-9.86812
▁bori	-9.86824
▁rođen	-9.86829
acija	-9.86849
▁htio	-9.8685
▁mar	-9.86918
▁programu	-9.8693
▁pogled	-9.86961
▁njihovu	-9.87017
▁poznati	-9.87047
▁Bijel	-9.87071
▁45	-9.87075
▁nesreća	-9.871
▁vrijedn	-9.87138
▁poruku	-9.87157
▁europskih	-9.8718
id	-9.87244
▁km	-9.87373
▁kolo	-9.87383
▁Bez	-9.87397
rati	-9.87432
▁smatraju	-9.87455
tni	-9.87529
▁školi	-9.87582
▁pogledajte	-9.87595
▁Rijeci	-9.87603
▁velikog	-9.87806
▁uvjetima	-9.87819
▁Možemo	-9.87907
▁dobre	-9.88008
▁svaka	-9.88093
biti	-9.88107
▁medije	-9.88111
žan	-9.882
▁rok	-9.88322
▁boje	-9.88384
▁novinar	-9.88396
▁studenog	-9.88401
▁sna	-9.88402
▁voli	-9.88481
▁grupe	-9.88566
▁slavi	-9.88595
▁članova	-9.8865
▁bira	-9.88735
▁donijeti	-9.88804
▁plasman	-9.88814
▁zahvaljujući	-9.88821
▁Koliko	-9.88828
▁unije	-9.88844
▁plav	-9.88871
▁mr	-9.88918
▁odigrao	-9.88931
▁policijsk	-9.8902
▁drži	-9.89091
▁prednost	-9.89108
▁velik	-9.89268
itelj	-9.8929
▁tradicionaln	-9.89368
▁podataka	-9.89403
▁prošli	-9.89425
hod	-9.89516
▁pravn	-9.89539
▁12.	-9.89547
▁Bog	-9.89553
ly	-9.89596
▁Os	-9.89616
▁čine	-9.89619
▁18.	-9.89779
▁sredstava	-9.89812
▁rasp	-9.89815
ješ	-9.89898
▁znati	-9.89949
▁Fi	-9.90047
ziv	-9.90178
▁sastav	-9.90194
▁nalaze	-9.90238
vid	-9.90254
▁Nove	-9.90266
jelo	-9.90315
▁velikih	-9.90339
▁prima	-9.9039
▁Mil	-9.90479
▁službe	-9.90498
▁umjeren	-9.90672
▁Tom	-9.90736
▁sv	-9.9076
▁sadržaj	-9.9078
▁Ukrajine	-9.90821
▁ujedno	-9.90884
▁ravnatelj	-9.90889
▁socijaln	-9.90948
rin	-9.91068
▁istaknula	-9.91075
▁blizu	-9.91084
▁razmišlja	-9.91087
▁igru	-9.91093
▁skup	-9.91175
ljiv	-9.91225
▁završila	-9.91237
ic	-9.91267
▁vrsta	-9.91326
▁omiljen	-9.9133
▁savez	-9.91345
▁njegovim	-9.91359
▁lani	-9.91366
▁poruka	-9.91429
ovac	-9.91552
▁obi	-9.91599
▁32	-9.91613
▁ozbiljno	-9.91633
▁Kod	-9.9164
▁vr	-9.91783
▁Sto	-9.91789
▁raste	-9.9182
▁udruge	-9.91841
▁bolnice	-9.91861
▁skladu	-9.9189
telji	-9.91893
Č	-9.91932
▁nogomet	-9.91957
▁podacima	-9.92048
▁premijera	-9.92059
ras	-9.92146
▁sport	-9.92151
svim	-9.92166
▁putu	-9.92174
▁19.	-9.92214
▁Robert	-9.92268
han	-9.92336
▁dnevn	-9.92373
▁istraživanja	-9.92374
▁vje	-9.92519
▁modn	-9.92546
▁nastavku	-9.92613
▁promijeniti	-9.92701
▁pobijedio	-9.92831
kar	-9.92844
ger	-9.92865
▁članovi	-9.9292
▁djeci	-9.92923
kli	-9.9293
uk	-9.92939
▁Njihov	-9.92947
▁profesor	-9.93046
▁10.	-9.9309
▁kuću	-9.93165
▁zatvor	-9.9317
bar	-9.93209
0.000	-9.93225
▁istom	-9.93298
▁nagrade	-9.93422
▁žive	-9.93429
bio	-9.93463
Ma	-9.93516
▁Igor	-9.93562
▁Prošl	-9.93595
▁odbora	-9.93597
▁upravlja	-9.93626
▁ostalo	-9.93656
▁javnog	-9.93765
▁boja	-9.93814
▁popis	-9.93839
zer	-9.93854
▁mre	-9.93873
▁njegovom	-9.93874
▁Slaven	-9.93915
jak	-9.93923
▁južn	-9.93951
▁izme	-9.93984
▁sudac	-9.94005
▁noć	-9.94091
▁muškarac	-9.94125
eli	-9.94169
▁pozornost	-9.94173
▁potencijal	-9.94205
▁objekt	-9.94213
▁vojni	-9.94234
▁medijima	-9.9437
ns	-9.94372
▁Domovinskog	-9.94435
nuo	-9.945
▁Biden	-9.94503
▁konačno	-9.94504
njak	-9.94521
njom	-9.94606
▁slika	-9.94813
▁stupnjeva	-9.94962
rod	-9.94973
eta	-9.95125
▁tijeku	-9.95176
▁Ukrajinu	-9.95226
▁desetak	-9.95244
▁zadnji	-9.95266
▁znatno	-9.95418
▁tekst	-9.95418
▁riječima	-9.95505
▁Možda	-9.95508
▁vlade	-9.95514
▁veliko	-9.95526
čkog	-9.95528
žen	-9.9555
▁doprinos	-9.95552
▁°	-9.95564
▁njegovo	-9.95619
▁pravila	-9.95716
nicima	-9.95742
▁Ukrajina	-9.95757
▁smislu	-9.95757
čku	-9.95759
▁prijatelja	-9.95765
▁6.	-9.95826
▁prijatelj	-9.95838
▁dug	-9.95849
▁organizacije	-9.96026
▁redovito	-9.96043
▁govore	-9.96061
jeti	-9.96082
▁stil	-9.961
▁odnose	-9.96111
avaju	-9.96148
▁polu	-9.96162
ton	-9.96166
▁pun	-9.96215
▁njezine	-9.9623
zor	-9.96235
▁dogoditi	-9.96291
▁poziciju	-9.96292
▁pozvao	-9.96292
▁Dragan	-9.96299
nijih	-9.9631
▁spreman	-9.96326
sc	-9.96345
radi	-9.9636
▁mušk	-9.96376
▁odgovornost	-9.96446
▁mjera	-9.96547
▁situaciji	-9.9656
▁vezan	-9.96574
lija	-9.96664
▁filmu	-9.96678
▁kuća	-9.96688
▁glazbe	-9.96758
▁čovjeka	-9.96833
▁Davor	-9.96857
▁ideja	-9.96857
rat	-9.9686
nuti	-9.96893
ega	-9.96904
▁prostoru	-9.96972
▁najvećih	-9.96982
▁Mate	-9.96984
▁šef	-9.96991
▁pruža	-9.97003
▁lista	-9.97026
▁Sam	-9.97065
▁snima	-9.97067
▁13.	-9.97069
pol	-9.97159
▁skupini	-9.97186
▁odvija	-9.97234
▁Sjevern	-9.97266
▁36	-9.97269
▁prednosti	-9.97289
lina	-9.97359
tori	-9.97378
▁mreže	-9.97396
▁planu	-9.97397
▁nagrada	-9.9743
▁Hrvati	-9.97468
▁trend	-9.97583
nes	-9.97592
▁Ivica	-9.97616
▁poznata	-9.97643
▁vremensk	-9.97647
▁kinesk	-9.97647
▁glumi	-9.9769
▁kr	-9.97793
diti	-9.97794
▁blisk	-9.97803
▁temperature	-9.97911
▁tisuće	-9.97921
▁kreće	-9.97924
▁Ljudi	-9.97933
▁Kate	-9.97946
▁prošao	-9.97952
ret	-9.97975
▁objavi	-9.97986
▁ulazi	-9.98083
▁digitaln	-9.98135
▁postigao	-9.98184
▁sportski	-9.98277
▁slično	-9.9831
▁morati	-9.98321
▁događaj	-9.9837
age	-9.98385
▁potpunosti	-9.98568
▁Imamo	-9.98583
▁pokazati	-9.98612
▁roku	-9.98651
▁znanja	-9.98658
▁ušao	-9.9866
▁Doda	-9.98698
▁dosadašnj	-9.98731
▁2018.	-9.98731
▁ponekad	-9.98733
▁upit	-9.9879
▁vozilo	-9.98846
▁9.	-9.98859
▁vrhu	-9.98864
▁postavljen	-9.989
▁napadu	-9.98901
▁riješiti	-9.98902
▁profesionaln	-9.98928
Na	-9.98947
10	-9.98962
▁Kra	-9.98977
▁34	-9.99002
▁regiji	-9.99006
▁Srbiji	-9.99016
▁stručn	-9.9903
▁umjetničk	-9.99039
▁pokazali	-9.99045
ft	-9.99072
▁moć	-9.99076
kle	-9.99092
▁ruske	-9.99127
▁najve	-9.99151
kri	-9.99179
sno	-9.99183
▁ratu	-9.99188
kova	-9.99192
▁Tada	-9.99217
▁brojni	-9.99242
▁usluge	-9.99281
vom	-9.99281
▁prosječn	-9.99285
▁pamet	-9.99293
▁Upravo	-9.99316
obi	-9.99351
▁Zadra	-9.99382
ley	-9.9939
▁jednim	-9.99452
▁Policijsk	-9.99452
▁različitih	-9.99485
▁tema	-9.99514
▁njihovim	-9.99514
▁dogodio	-9.99524
▁volim	-9.99551
▁cijeni	-9.99566
▁izraelsk	-9.99595
"",	-9.99615
▁Gradsk	-9.99619
▁spor	-9.99652
ban	-9.99653
▁udara	-9.99663
▁Šibenik	-9.9968
▁uvjete	-9.99698
▁susretu	-9.9971
▁vina	-9.99756
▁vide	-9.99782
▁sekundi	-9.99834
▁glavu	-9.99836
▁pogodio	-9.99863
▁treće	-9.99916
▁odgoj	-9.99926
▁vrh	-9.99954
▁sljedeći	-10.0007
▁nadležn	-10.0008
▁nuklearn	-10.0011
ul	-10.0011
ela	-10.0013
▁jezik	-10.0019
▁otkaz	-10.0022
▁brod	-10.0025
pit	-10.0034
▁šanse	-10.0039
▁uključuje	-10.0039
▁nepoznat	-10.0039
len	-10.0042
▁14.	-10.0042
▁unutarnj	-10.0047
▁održava	-10.0049
▁bra	-10.0056
▁građane	-10.0057
gar	-10.0064
▁koga	-10.0065
▁obra	-10.0065
▁proveden	-10.0066
▁Moj	-10.0066
RA	-10.0067
▁područje	-10.0067
▁udruga	-10.0067
▁listi	-10.0081
ovo	-10.0083
▁glavnog	-10.0088
▁Drugi	-10.0091
▁vijeća	-10.0096
▁odlično	-10.0097
▁upozorava	-10.0097
▁granice	-10.0098
rka	-10.0103
ksi	-10.0104
▁zelen	-10.0105
▁alkohola	-10.0107
gre	-10.011
kama	-10.011
▁Petra	-10.011
▁ovisi	-10.0111
ljiva	-10.0115
▁odlučili	-10.0124
▁značajno	-10.0127
▁gosti	-10.0127
vac	-10.0134
▁istra	-10.0135
▁starije	-10.0135
▁njihovih	-10.014
stati	-10.014
▁napravi	-10.0141
▁teške	-10.0141
▁turnir	-10.0141
▁igrama	-10.0145
▁nekog	-10.0145
▁28	-10.0159
▁Bla	-10.016
▁dolazak	-10.0161
▁bivšeg	-10.0163
▁Europskog	-10.0164
▁dakle	-10.0164
vara	-10.0168
▁posebn	-10.0169
▁skoro	-10.0174
▁Varaždina	-10.0174
oz	-10.0175
▁stru	-10.0176
▁napravili	-10.0177
▁2016.	-10.018
▁vjetar	-10.018
▁Jako	-10.0182
▁sumnja	-10.0188
▁natječaj	-10.0191
▁vikend	-10.0192
▁zajednica	-10.0199
▁četvrti	-10.0205
▁lice	-10.021
▁Mal	-10.0213
▁Zadru	-10.0213
▁Stoga	-10.0214
vica	-10.0217
▁jednako	-10.0219
▁korištenje	-10.022
▁van	-10.022
bli	-10.022
▁njihovo	-10.0229
▁the	-10.0243
nova	-10.0245
kra	-10.0256
uz	-10.0258
▁doista	-10.0258
▁per	-10.0261
▁500	-10.0262
▁Primorac	-10.0265
▁knjige	-10.0265
▁podatke	-10.0265
▁načelnik	-10.0268
▁pala	-10.0276
▁red	-10.028
vljen	-10.0283
▁navijači	-10.0283
star	-10.0285
▁obično	-10.0293
▁glumac	-10.0293
▁tvrtki	-10.0293
▁međutim	-10.0294
▁svakodnevno	-10.0301
▁top	-10.0302
▁dogovor	-10.0307
▁broju	-10.0317
▁Hu	-10.0318
▁konferenciji	-10.0322
▁reprezentaciju	-10.0322
▁prodaje	-10.0322
▁morao	-10.0323
▁Sp	-10.0324
▁zemljama	-10.0328
▁trag	-10.0329
▁veće	-10.0335
ari	-10.0337
▁tip	-10.0338
▁politički	-10.0341
▁Zakon	-10.0344
▁posljednji	-10.0345
▁zaštiti	-10.035
▁politika	-10.0354
▁primjerice	-10.0359
nite	-10.0366
nskog	-10.0368
\	-10.0375
čini	-10.0377
▁krvi	-10.0377
ivati	-10.0379
▁dijelom	-10.038
▁snagu	-10.0382
▁ci	-10.0383
▁vrijedi	-10.0386
sen	-10.0391
Ž	-10.0393
▁obiteljsk	-10.0395
▁album	-10.0396
▁Europskom	-10.0399
▁savršen	-10.0399
▁simbol	-10.0407
eka	-10.0409
▁veljače	-10.041
▁bolnicu	-10.041
ški	-10.0411
▁Gor	-10.042
▁kratko	-10.0422
▁porez	-10.0433
▁Portugal	-10.0434
▁30.	-10.0436
▁pregleda	-10.044
roz	-10.0441
▁vodio	-10.0446
▁znanosti	-10.0448
▁pokušaj	-10.045
što	-10.0452
pusti	-10.0463
▁naroda	-10.047
▁Ol	-10.0471
▁ljetn	-10.0472
glas	-10.048
▁učenika	-10.0482
▁Varaždinu	-10.0484
▁novčan	-10.0488
▁vojn	-10.0489
▁ostalih	-10.0491
▁dobit	-10.0492
▁Mat	-10.0504
vna	-10.0508
▁nogometaš	-10.0509
jka	-10.0509
▁glumica	-10.0514
natoč	-10.0521
▁Isto	-10.0523
gan	-10.0524
25	-10.0524
kan	-10.0525
▁Bel	-10.0525
▁stamben	-10.0525
▁neku	-10.0527
▁ligi	-10.0528
▁zrakoplov	-10.0536
pot	-10.0536
▁kanal	-10.0544
▁sudu	-10.055
▁prof	-10.0559
▁razinu	-10.0559
▁Val	-10.056
▁Sun	-10.0561
anović	-10.0563
▁čije	-10.0564
▁16.	-10.0568
▁priznao	-10.057
godišnja	-10.0571
▁Hrvata	-10.0579
▁doga	-10.058
▁izuzetno	-10.0582
▁kvalitete	-10.0584
▁prilike	-10.0584
▁fotografiju	-10.0585
▁kut	-10.0589
▁veza	-10.0591
▁proizvodnje	-10.0593
▁nastavio	-10.0594
▁autor	-10.0597
irali	-10.0599
▁uklju	-10.0603
iran	-10.0613
▁sigurni	-10.0613
rs	-10.0616
▁iznosu	-10.0617
▁sumnje	-10.0622
▁poruke	-10.0623
▁Kar	-10.0627
▁vole	-10.0629
▁detalje	-10.0634
▁He	-10.0638
▁radovi	-10.0639
▁prolazi	-10.064
line	-10.0641
▁naći	-10.0642
▁objave	-10.0643
ple	-10.0649
...'	-10.0651
godišnjeg	-10.0654
▁pritom	-10.0656
▁kamen	-10.0662
▁Dalić	-10.0666
▁razvoju	-10.0669
▁tržište	-10.0672
▁KBC	-10.0672
▁loš	-10.0675
▁uzrok	-10.0675
ow	-10.0678
▁vodu	-10.0678
bili	-10.0681
▁završn	-10.0684
▁odlučila	-10.0687
vin	-10.07
▁zastupnika	-10.0701
▁položaj	-10.0702
▁školsk	-10.071
▁vijesti	-10.0716
▁okvir	-10.0717
▁stanovnika	-10.0718
▁stranici	-10.0718
▁zid	-10.072
▁City	-10.0724
▁300	-10.0727
dija	-10.0728
avanje	-10.073
nske	-10.0731
▁platformi	-10.0732
pan	-10.0732
▁zdravlja	-10.0738
▁raka	-10.0746
▁nogometa	-10.0746
▁Trumpa	-10.0754
▁gu	-10.076
é	-10.0762
▁fotografija	-10.0766
▁We	-10.0768
▁Zašto	-10.0768
▁prometu	-10.0773
▁novoj	-10.0776
▁Instagram	-10.0776
▁zahval	-10.0778
sk	-10.0779
nut	-10.078
▁festivala	-10.0786
▁naziva	-10.0791
▁Hi	-10.0794
▁dobru	-10.0794
▁cesta	-10.0795
▁uzima	-10.0798
▁želimo	-10.0801
▁građanima	-10.0808
dru	-10.082
▁govoriti	-10.0821
▁favorit	-10.0822
▁vatrogasn	-10.0822
▁vrste	-10.0823
▁Gi	-10.0828
rd	-10.0829
▁lijep	-10.0831
▁Fe	-10.0844
▁činjenica	-10.0852
▁zgrada	-10.0852
▁David	-10.0856
▁župan	-10.0857
▁pravu	-10.0861
kih	-10.0862
dić	-10.0863
pisa	-10.0864
ška	-10.0882
▁pišu	-10.0883
▁ponudi	-10.0887
▁glavn	-10.0896
ele	-10.0898
▁dogodi	-10.0906
://	-10.0913
▁ulaganja	-10.0913
▁potporu	-10.0913
▁večeras	-10.0915
▁pozitivn	-10.0922
▁motor	-10.0931
▁kazne	-10.0932
vrš	-10.0933
▁Festival	-10.0943
▁zemlju	-10.0944
▁kome	-10.095
acije	-10.0951
▁Ljubav	-10.0951
▁obranu	-10.0952
▁čast	-10.0952
▁Tim	-10.0954
vor	-10.0956
ošću	-10.0956
▁večeri	-10.0957
▁prijevoz	-10.0966
▁ruski	-10.0966
▁objavljen	-10.0973
▁nekretnine	-10.0974
▁razdoblje	-10.0974
▁gubi	-10.0978
▁svaku	-10.0979
▁svjetski	-10.099
▁nekom	-10.0992
▁dres	-10.1
▁osobi	-10.1001
▁zastupnik	-10.1005
lar	-10.1005
▁lokalne	-10.1006
▁reprezentativac	-10.1006
▁duh	-10.1008
▁Jan	-10.1009
▁ubijen	-10.1009
▁trenutačno	-10.101
▁Man	-10.101
▁suprug	-10.1012
▁iskaz	-10.1028
▁državnog	-10.1034
▁izvanredn	-10.1036
ben	-10.1037
▁čuva	-10.1039
▁Ke	-10.1039
▁kamp	-10.1042
▁prometne	-10.1045
alno	-10.1045
▁cijelo	-10.1048
▁članica	-10.1049
▁ugovora	-10.105
▁značaj	-10.1055
▁Gar	-10.106
16	-10.1064
▁cijenu	-10.1066
▁transfer	-10.1067
▁cesti	-10.1067
▁Y	-10.1067
▁posvećen	-10.1067
▁sredin	-10.1068
▁isključivo	-10.1071
▁Prva	-10.1071
▁Josipa	-10.1071
▁podru	-10.1073
dnjih	-10.1073
▁dnevno	-10.1078
iraju	-10.1078
▁22.	-10.108
▁čist	-10.1089
▁spomenut	-10.109
▁vanjskih	-10.1092
▁štetu	-10.1097
▁stiže	-10.1099
▁putovanja	-10.11
▁brojnim	-10.1101
▁pogodak	-10.1102
jom	-10.1106
▁satima	-10.1107
▁smrt	-10.1112
▁ciljem	-10.1115
▁natjecanje	-10.1117
▁materijal	-10.1117
bol	-10.1118
ers	-10.1121
▁pobjednik	-10.1124
klo	-10.1126
▁povratak	-10.1131
▁županija	-10.1131
▁zanima	-10.1142
▁paket	-10.1143
ito	-10.1144
▁partnera	-10.1145
▁27	-10.1149
▁završiti	-10.1152
▁kap	-10.1153
jela	-10.1153
▁Ured	-10.1154
▁obrani	-10.1158
▁tajnik	-10.1159
rk	-10.116
▁Jur	-10.1161
▁borbu	-10.1161
▁pripremi	-10.1166
▁Kup	-10.1166
▁najveća	-10.1166
▁Obje	-10.1168
▁osjeća	-10.117
slu	-10.1176
▁njegovog	-10.1181
▁uključen	-10.1203
▁košta	-10.1204
▁njegovoj	-10.1204
▁kontakt	-10.1205
▁Vučić	-10.1206
▁Han	-10.1206
▁izjavila	-10.1208
▁funkcionira	-10.121
▁uvjeren	-10.1218
▁suradnju	-10.1222
▁počeli	-10.1223
▁Ligi	-10.1223
▁nu	-10.1226
▁razine	-10.1231
▁visoko	-10.1232
▁podržava	-10.1238
jić	-10.1244
pis	-10.125
▁vjerujem	-10.1251
inje	-10.1253
▁smješten	-10.1254
▁Harris	-10.1254
▁obrazovanja	-10.1254
▁vjeruje	-10.1255
bom	-10.1259
▁samog	-10.1259
▁ulice	-10.126
▁stručnjak	-10.126
▁rezultati	-10.1263
▁incident	-10.1264
▁Most	-10.1265
zda	-10.127
▁pratiti	-10.127
▁trening	-10.1281
išta	-10.1282
▁europske	-10.1285
▁generacije	-10.1285
▁dizajn	-10.1287
▁vlast	-10.1292
▁sir	-10.1293
▁naveo	-10.1296
▁Perišić	-10.1297
▁niste	-10.13
▁krenuo	-10.1308
▁nadam	-10.1311
les	-10.1312
▁državni	-10.1313
▁predsjednica	-10.1317
▁proglašen	-10.1317
▁nastavak	-10.1317
▁hrvatskim	-10.1327
▁Stan	-10.133
1.	-10.1342
vlja	-10.1345
▁hoda	-10.1346
▁Ustav	-10.1347
▁nažalost	-10.1349
▁znao	-10.1349
▁prodaju	-10.1349
▁ministra	-10.1349
▁Općine	-10.135
šću	-10.1352
▁55	-10.1358
ved	-10.136
▁prijenos	-10.1365
▁sljedeće	-10.137
▁Talijan	-10.1374
▁https	-10.1384
aja	-10.1385
tko	-10.139
telja	-10.1398
▁38	-10.1404
▁osigurati	-10.1405
▁kvalitetu	-10.1412
▁onim	-10.1416
▁pored	-10.1418
▁prijatelji	-10.1425
▁napadač	-10.1426
▁pokreta	-10.1429
▁njegovi	-10.1431
▁zajednički	-10.1431
▁organizira	-10.1432
mjesto	-10.1443
▁oružja	-10.1444
▁agencija	-10.1444
▁klimatsk	-10.1445
▁anti	-10.1446
▁zapovjednik	-10.1447
▁odnosa	-10.1449
▁krv	-10.1456
▁normalno	-10.1472
▁srednje	-10.1478
▁Dubrovnika	-10.1478
land	-10.1483
▁Rusije	-10.1485
čko	-10.1493
▁krug	-10.1495
▁pjevač	-10.1504
▁festival	-10.1507
▁domaće	-10.1509
▁djeteta	-10.1509
▁pažnju	-10.1509
▁hranu	-10.1509
▁pomaže	-10.1509
▁usmjeren	-10.151
▁crveni	-10.1511
▁Dubrovniku	-10.1523
▁Igra	-10.1532
▁glazbeni	-10.1533
pali	-10.1535
▁političke	-10.1542
▁muškaraca	-10.1547
▁vikenda	-10.156
▁onoga	-10.1565
kinja	-10.1567
▁pripreme	-10.1574
▁trofej	-10.1574
▁osobama	-10.1581
▁pru	-10.1585
▁zabilježen	-10.1585
▁strada	-10.1586
▁umjetnosti	-10.1594
▁Van	-10.1598
▁prijeti	-10.16
rica	-10.1601
▁središnj	-10.1607
▁okru	-10.1608
▁zdravstva	-10.1608
▁pogleda	-10.1613
▁saveza	-10.1618
▁odvjetnik	-10.162
▁vrati	-10.1623
▁motiv	-10.1627
▁preminuo	-10.1639
▁vatrogasci	-10.1639
▁utjecati	-10.1639
kim	-10.164
▁Poljudu	-10.164
čne	-10.1645
▁papir	-10.1648
▁Dobro	-10.1649
▁slobodno	-10.1651
▁Bal	-10.1651
▁posve	-10.1652
▁smještaj	-10.1654
▁postane	-10.1654
▁prethodno	-10.1657
▁svjetskog	-10.1658
▁zadovoljni	-10.1664
▁očekivati	-10.1672
▁recept	-10.1672
▁ogromn	-10.1672
▁ubrzo	-10.1672
▁servis	-10.1672
▁potres	-10.1672
▁vlak	-10.1673
▁Čak	-10.1678
kti	-10.1682
kre	-10.1682
▁Malo	-10.1683
▁vodstvo	-10.1684
▁miris	-10.1686
▁čita	-10.1689
nov	-10.1695
▁njom	-10.1696
▁prihod	-10.1702
▁prioritet	-10.1705
▁pritisak	-10.1705
▁projekata	-10.1705
▁policiji	-10.1705
▁fazi	-10.1705
ište	-10.1708
ris	-10.1708
▁kiša	-10.1709
▁najveće	-10.1712
Ja	-10.1713
sad	-10.1713
▁(1	-10.1715
▁otpada	-10.1716
▁neto	-10.1717
čkom	-10.1718
▁domaći	-10.1719
▁Zna	-10.1724
▁otvara	-10.1734
ista	-10.1736
▁stati	-10.1736
▁siguran	-10.1738
▁organizaciji	-10.1738
▁božićn	-10.1738
▁nasilja	-10.1738
rbi	-10.1744
▁odlazi	-10.1744
▁vozi	-10.1747
▁cijelog	-10.1747
▁ho	-10.1753
▁hotel	-10.1753
▁Kla	-10.1754
▁Hrvatskom	-10.1756
iranja	-10.176
▁organiziran	-10.1768
▁obliku	-10.1769
▁interesa	-10.1771
▁zaštitn	-10.1771
▁važan	-10.1772
▁obu	-10.1776
▁fizičk	-10.1778
▁sje	-10.1778
▁širok	-10.178
▁različite	-10.178
▁morali	-10.1783
tira	-10.1787
top	-10.1789
▁korisnika	-10.179
▁mlad	-10.1792
▁meč	-10.1801
▁mišljenje	-10.1804
tin	-10.1811
▁Japan	-10.1813
▁javne	-10.1815
▁Srbija	-10.1818
▁najbolja	-10.1823
▁okolnosti	-10.1827
▁PU	-10.1827
▁povećan	-10.1827
▁zadarsk	-10.1831
vija	-10.1836
▁Sjedinjen	-10.1837
▁2017.	-10.1837
▁pogledati	-10.1838
▁zimsk	-10.184
▁rak	-10.1845
jet	-10.1855
▁vrt	-10.1856
▁gradova	-10.1856
▁radili	-10.1859
▁39	-10.1861
govor	-10.1863
"...	-10.1864
▁zaposlen	-10.1865
▁sukoba	-10.1868
pet	-10.1869
cy	-10.187
rski	-10.187
▁Ci	-10.187
▁humanitarn	-10.1871
▁međuvremenu	-10.1871
▁itekako	-10.1871
▁turizma	-10.1871
▁suradnje	-10.1871
▁mjeri	-10.1871
▁Njemačka	-10.1871
▁roditelja	-10.1873
▁al	-10.1876
▁opcija	-10.1877
▁kli	-10.1878
ivanja	-10.1881
▁Zakona	-10.1884
▁37	-10.1886
▁studija	-10.1888
▁kaznenog	-10.1889
▁pao	-10.1893
▁pokušao	-10.1894
▁gore	-10.1895
▁Željko	-10.1896
ljenje	-10.19
▁ponašanje	-10.1902
▁Njezin	-10.1904
▁pobjedom	-10.1904
▁širi	-10.1906
▁zadnje	-10.1907
▁w	-10.1911
▁stavlja	-10.1913
spor	-10.1913
▁voditi	-10.1914
▁sjedi	-10.1931
pel	-10.1933
dala	-10.1936
▁posebice	-10.1938
▁sobom	-10.1939
▁bli	-10.1945
▁poena	-10.1947
nda	-10.1949
▁borba	-10.195
nder	-10.1958
sel	-10.1959
▁Beogradu	-10.1961
▁kla	-10.1967
▁Brazil	-10.1969
▁Lasagna	-10.1972
▁emisiji	-10.1972
▁plasira	-10.1976
▁gostima	-10.1983
▁aktualn	-10.1985
▁Ili	-10.1987
tru	-10.1994
▁bazen	-10.2003
▁proveo	-10.2008
▁kakve	-10.2011
▁Mor	-10.2012
▁podijelila	-10.2013
▁igara	-10.2013
▁para	-10.2014
▁Bra	-10.2015
▁splitsk	-10.2021
▁29.	-10.2031
Da	-10.2034
▁Facebook	-10.2036
▁gospodarstva	-10.204
▁vlasništvu	-10.204
▁Bre	-10.2041
▁Sta	-10.2042
▁150	-10.2047
▁Dnevnik	-10.2053
▁priopćil	-10.2056
pos	-10.2057
dina	-10.2065
▁drugima	-10.2067
nike	-10.2074
▁kolege	-10.2074
▁lov	-10.2074
▁podrške	-10.2074
▁karton	-10.2076
▁nacija	-10.2083
▁serija	-10.2086
▁pl	-10.2087
▁europskim	-10.2089
▁Pr	-10.2089
▁Đ	-10.2091
▁suprugom	-10.2095
▁ostvariti	-10.2098
▁korist	-10.2099
ljivo	-10.2101
▁sjajno	-10.2101
▁Mr	-10.2106
▁govor	-10.2108
▁šibensk	-10.2108
▁muškarca	-10.2108
▁državi	-10.2108
▁koševa	-10.2109
▁kampanje	-10.2109
▁knjiga	-10.211
▁skriva	-10.2111
▁29	-10.2121
▁ukrajinsk	-10.2122
▁Gazi	-10.2123
sna	-10.2132
▁povodom	-10.2139
rp	-10.2146
zija	-10.2147
▁otvoreno	-10.2153
▁male	-10.2154
▁proizvode	-10.2158
▁rezultata	-10.2158
▁komentara	-10.2165
▁moram	-10.2173
▁jedina	-10.2174
▁organizacija	-10.2177
▁John	-10.2178
▁razgovor	-10.2178
▁našao	-10.218
▁meta	-10.218
▁pjevačica	-10.2182
▁stranu	-10.2186
▁stadionu	-10.2194
▁američki	-10.2196
▁And	-10.2197
▁mobitel	-10.2204
bre	-10.2206
▁Dražen	-10.2212
▁Dom	-10.2214
▁duboko	-10.2214
▁takva	-10.2215
▁takvih	-10.2218
▁poslao	-10.2219
▁morate	-10.2224
▁vezu	-10.2224
▁dokaza	-10.2225
oko	-10.2226
▁26.	-10.2227
fr	-10.2236
nska	-10.2239
▁Milanovića	-10.2245
▁osobu	-10.2246
▁vožnje	-10.2246
▁važnost	-10.225
▁tjedana	-10.2251
▁En	-10.2251
▁kupiti	-10.2253
▁sluša	-10.2254
▁mala	-10.2261
▁Brod	-10.2262
▁domu	-10.2268
▁četvrt	-10.2276
▁ispričao	-10.2277
▁GALERIJA	-10.2281
▁Maj	-10.2281
▁proizvodi	-10.2284
▁objavili	-10.2286
▁smanjenje	-10.2286
ljub	-10.2287
▁Nadam	-10.2289
▁prijateljima	-10.2293
ok	-10.2294
▁igrali	-10.2296
▁vidimo	-10.2297
▁nekad	-10.23
▁sporta	-10.2303
▁braku	-10.2308
▁Paul	-10.231
licu	-10.2317
▁75	-10.2321
▁UN	-10.2326
▁ključn	-10.2328
▁izgubili	-10.2333
▁svjedoči	-10.2333
▁služi	-10.2333
▁smanjiti	-10.2334
▁Raz	-10.2347
▁uspjela	-10.2351
▁osuđen	-10.2352
▁energiju	-10.2354
bel	-10.2354
▁proći	-10.2363
har	-10.2367
▁izgubila	-10.2368
▁platiti	-10.2368
▁lažn	-10.2371
▁Velika	-10.2371
čna	-10.2377
▁sunčan	-10.2383
▁očekuju	-10.2386
▁krov	-10.2387
▁negdje	-10.2395
▁suvremen	-10.2395
▁če	-10.24
ške	-10.24
čenje	-10.24
rna	-10.2401
▁Ču	-10.241
šan	-10.2412
kin	-10.2414
▁liste	-10.2419
vaju	-10.2419
▁državn	-10.2421
▁ekipe	-10.2422
▁nekretnina	-10.2422
▁prekrasn	-10.2422
▁kompanija	-10.2422
▁istoku	-10.2422
▁otići	-10.2424
▁otprilike	-10.2425
▁roman	-10.2428
▁informacijama	-10.2432
▁Vin	-10.2434
broj	-10.2434
▁pas	-10.2441
▁Vuk	-10.2445
▁Reka	-10.2445
▁službenici	-10.2446
▁povećava	-10.2454
irala	-10.2455
▁kaznu	-10.2457
▁učinkovit	-10.2462
▁podaci	-10.2468
▁kreativn	-10.2478
▁vatre	-10.2488
▁obavijesti	-10.2489
ljan	-10.249
▁Italije	-10.2493
▁banke	-10.2493
▁drago	-10.2493
▁Manchester	-10.2495
▁Inter	-10.2495
▁redatelj	-10.2496
▁Hr	-10.2497
▁živjeti	-10.2498
mija	-10.2511
▁vrtić	-10.2511
rani	-10.2515
▁jezika	-10.2519
▁izvrsn	-10.2526
:30	-10.2526
▁vojske	-10.2529
▁pogon	-10.253
▁vama	-10.2531
irani	-10.2532
▁razne	-10.2556
▁vidim	-10.2559
▁Tur	-10.2561
▁publiku	-10.2564
▁varaždinsk	-10.2564
▁Uprave	-10.2564
▁Vladimir	-10.2566
▁jesu	-10.2569
▁pjesma	-10.2572
adi	-10.2577
▁proba	-10.2588
ight	-10.259
kav	-10.259
▁državne	-10.2599
▁klupi	-10.26
▁namijenjen	-10.26
▁započeo	-10.26
▁nositi	-10.2602
▁23.	-10.2604
▁Zapad	-10.2606
▁b	-10.2606
▁Njegova	-10.2608
▁grupa	-10.261
▁Har	-10.2613
▁zvuk	-10.2621
▁nacionaln	-10.2628
▁konkretn	-10.2629
Do	-10.263
nzi	-10.2634
▁stare	-10.2634
▁institucije	-10.2636
▁kontrolu	-10.2636
▁Posao	-10.2638
▁Uvijek	-10.2638
▁naslova	-10.2638
▁iduće	-10.2642
▁slatk	-10.2645
▁Cilj	-10.2648
▁Turudić	-10.2648
▁Crven	-10.265
una	-10.2655
ivi	-10.2659
▁Boris	-10.2666
▁građevinsk	-10.2672
▁akcije	-10.2673
▁web	-10.2673
▁ishod	-10.2673
▁Klub	-10.2674
tora	-10.2675
▁kakva	-10.2675
▁kru	-10.2675
▁nesreći	-10.2676
▁razlike	-10.2678
▁posljedica	-10.2681
▁rukama	-10.2683
▁razred	-10.2683
▁ulazak	-10.2683
▁Svoj	-10.2684
graf	-10.2693
štu	-10.2699
▁temelji	-10.27
▁drugačije	-10.2709
▁naime	-10.2712
▁životinja	-10.2712
▁visoke	-10.2716
▁demokratsk	-10.2717
▁kolega	-10.2717
▁jača	-10.2721
▁idemo	-10.2727
ovjek	-10.273
koliko	-10.2731
▁pobijediti	-10.2732
▁Naš	-10.2734
ula	-10.2744
▁putnika	-10.2745
▁poseban	-10.2745
rez	-10.2746
▁razgovoru	-10.2747
▁šteta	-10.2748
▁Rusiji	-10.2748
rek	-10.275
▁ozljeda	-10.2754
laže	-10.2754
ker	-10.2754
▁pomalo	-10.2758
▁zdravstvene	-10.2762
▁financijski	-10.2768
▁med	-10.2774
▁datum	-10.2775
tali	-10.2776
▁Europski	-10.2776
▁Kan	-10.278
▁ističu	-10.278
rje	-10.2781
▁trgovine	-10.2782
▁Nažalost	-10.2783
▁lud	-10.2783
▁man	-10.2784
▁sunčano	-10.2785
▁kiše	-10.2786
▁stres	-10.2791
naj	-10.2792
▁gost	-10.2794
▁brojnih	-10.2797
▁vrat	-10.2797
▁talent	-10.2806
rac	-10.2809
▁autobus	-10.281
▁znali	-10.281
▁dvo	-10.2811
▁nedjelje	-10.2819
▁pokrenul	-10.2819
▁desetljeća	-10.2819
▁odre	-10.2821
▁Varaždinske	-10.2821
▁šir	-10.2821
▁nada	-10.2825
▁kre	-10.2826
bila	-10.2826
▁spomen	-10.2832
▁upravljanja	-10.2832
▁fotograf	-10.2833
▁nekako	-10.2834
▁vojnika	-10.2835
▁Radić	-10.2842
▁većinom	-10.2843
▁48	-10.2849
▁radni	-10.285
▁posljedice	-10.2856
▁Ber	-10.2856
pala	-10.286
!'	-10.2861
▁bicikl	-10.2864
▁proizvodnju	-10.2865
nar	-10.2866
▁izabran	-10.2867
▁Sch	-10.2868
▁poljoprivredn	-10.2874
gle	-10.2874
▁dje	-10.2882
▁opasnosti	-10.2883
▁uzor	-10.2884
▁igrače	-10.2886
▁britansk	-10.2889
▁cestama	-10.289
▁televizijsk	-10.2893
▁tržišta	-10.2893
▁prilično	-10.2893
▁vojska	-10.2893
▁europski	-10.2899
▁Sport	-10.2901
▁nastavi	-10.2903
▁potrebna	-10.2904
▁mogle	-10.2906
▁oči	-10.2914
Ovo	-10.2918
▁protu	-10.2921
▁Dinamu	-10.293
▁pusti	-10.293
vić	-10.2934
▁Fu	-10.2939
▁krugu	-10.2941
▁Tr	-10.2943
▁stra	-10.2944
▁kop	-10.2946
vol	-10.2948
▁jedinica	-10.2951
cent	-10.2953
▁godišnj	-10.2957
▁nositelj	-10.2957
▁gradi	-10.2957
▁njihovi	-10.2958
sve	-10.2959
▁rastu	-10.2959
▁hr	-10.2959
jski	-10.296
▁odbor	-10.2961
▁star	-10.2962
▁Osijeka	-10.2964
ata	-10.2965
ya	-10.2966
▁prirode	-10.2967
▁podrška	-10.2968
nc	-10.2969
▁krenuli	-10.2975
▁prikaz	-10.2975
▁šk	-10.2975
▁poreza	-10.298
▁lu	-10.298
▁zločin	-10.2982
%2	-10.299
ncu	-10.2995
▁razgovarati	-10.2995
▁bolest	-10.3003
▁sjajn	-10.3003
▁kratk	-10.3004
▁Ujedinjen	-10.3005
▁poziciji	-10.3005
che	-10.3006
▁28.	-10.3007
▁putovanje	-10.3014
▁postavlja	-10.3017
▁lik	-10.3019
▁pacijent	-10.302
▁ulozi	-10.3022
▁porezn	-10.3024
of	-10.3025
▁onom	-10.3026
▁bolja	-10.3027
▁izlazi	-10.3027
▁ostavio	-10.3032
▁tj	-10.3036
▁Dje	-10.3045
đuje	-10.3048
zov	-10.3049
▁sustavu	-10.3049
▁intervju	-10.3049
▁Petar	-10.305
▁hotela	-10.3056
▁blok	-10.3058
▁zahvat	-10.3059
▁ljubavn	-10.306
▁proračuna	-10.3061
▁kuna	-10.3061
▁princ	-10.3063
▁udario	-10.3066
▁Krist	-10.3067
▁volje	-10.3068
▁Th	-10.3068
▁nogometnog	-10.3072
▁stup	-10.3072
▁ispunjen	-10.308
▁poluvremenu	-10.308
▁snimke	-10.308
▁Njemačke	-10.308
▁rano	-10.3084
▁politi	-10.3086
▁čitav	-10.3088
▁javni	-10.3089
▁Svaki	-10.3089
-1	-10.309
▁Osijeku	-10.3095
▁razvod	-10.3097
▁hladno	-10.3098
▁Madrid	-10.31
▁parlament	-10.3103
ty	-10.3103
▁stopa	-10.3108
▁osvojili	-10.3112
vodi	-10.3113
45	-10.3113
▁Južn	-10.3116
▁Dugo	-10.3117
▁zamjenik	-10.3118
▁prijave	-10.3118
▁redovn	-10.3121
Mi	-10.3122
▁jedva	-10.3126
ovog	-10.3131
12	-10.3131
▁Ze	-10.3132
▁stranicama	-10.3136
vač	-10.3143
▁Wa	-10.3145
▁Španjolska	-10.3145
▁kćeri	-10.315
▁sudsk	-10.3152
▁fond	-10.3154
▁HNS	-10.3156
▁najčešće	-10.3156
▁agencije	-10.3156
▁vremenom	-10.3156
▁pokazalo	-10.3156
▁stigli	-10.3156
▁akcija	-10.3156
▁zadatak	-10.3157
▁svira	-10.316
▁objasnila	-10.3161
▁projekte	-10.3163
▁predstavnik	-10.317
▁rod	-10.317
▁desni	-10.3171
▁reda	-10.3176
▁avion	-10.3177
▁Ver	-10.3178
▁hlad	-10.3179
▁koncerta	-10.318
▁zlo	-10.3181
▁ulaz	-10.3186
šće	-10.3187
▁okuplja	-10.3191
▁Dana	-10.3191
▁Vjerujem	-10.3194
▁natjecanju	-10.3194
▁istrage	-10.3194
bla	-10.3197
▁čelu	-10.3198
▁strijelac	-10.3198
▁rasporedu	-10.3199
ovoj	-10.3204
▁Španjolske	-10.3211
▁društvenih	-10.3211
▁ulja	-10.3214
▁bur	-10.3215
▁postav	-10.3218
▁restoran	-10.3222
▁Maksimiru	-10.3226
▁prošlo	-10.3227
▁alat	-10.3228
▁OVDJE	-10.3232
▁investitor	-10.3232
▁kompleks	-10.3232
▁rujnu	-10.3232
▁42	-10.3237
▁optužen	-10.3237
▁spava	-10.324
▁ustavn	-10.324
▁scenarij	-10.3244
▁terena	-10.3248
dy	-10.325
▁kralj	-10.3251
▁granica	-10.3257
▁Ed	-10.326
▁potpis	-10.3261
▁ponavlja	-10.3261
▁odlazak	-10.3261
▁25.	-10.3263
▁publika	-10.3268
▁emotivn	-10.3271
▁kćer	-10.3276
▁puni	-10.328
▁troje	-10.3281
čkih	-10.3284
▁većinu	-10.3284
▁prošlosti	-10.3286
▁euro	-10.3287
▁naglašava	-10.329
▁sre	-10.3291
▁klubova	-10.3291
▁Med	-10.3305
▁nepo	-10.3306
▁ostalog	-10.3309
▁osnova	-10.3309
▁emisije	-10.3309
▁hrvatsku	-10.3309
▁publike	-10.3309
▁djecom	-10.331
▁sinoć	-10.331
▁scene	-10.3312
▁politiku	-10.3316
▁američke	-10.3317
▁iskren	-10.3324
▁Europsko	-10.333
▁želite	-10.3333
▁Sud	-10.3335
ip	-10.3336
▁Cha	-10.3338
▁osvaja	-10.3338
▁potencijaln	-10.3342
?"	-10.3342
▁napokon	-10.3348
bal	-10.3348
▁preostal	-10.3348
▁dojam	-10.3352
▁djeluje	-10.3354
▁Veliki	-10.3357
▁Autor	-10.3357
▁ispričala	-10.3358
▁skupa	-10.336
▁uprava	-10.3363
cha	-10.338
▁postali	-10.3383
▁stanova	-10.3384
nula	-10.3388
▁želja	-10.3389
▁povjerenje	-10.3393
▁noge	-10.3394
▁otoku	-10.3396
▁Marka	-10.3396
▁samom	-10.3396
nicama	-10.3399
▁otkrili	-10.3404
▁uživati	-10.3405
▁djevojka	-10.3405
▁osigura	-10.3406
▁oprez	-10.3408
▁ispri	-10.3408
▁profil	-10.3408
60	-10.3411
jeli	-10.3412
▁iduć	-10.3417
▁Drago	-10.3417
▁stanja	-10.3419
▁element	-10.3426
▁Sveučilišta	-10.3426
▁definitivno	-10.3426
▁helikopter	-10.3426
▁klupsk	-10.3426
▁štrajk	-10.3426
▁seriji	-10.3427
▁pomaga	-10.3427
▁svjesni	-10.3428
▁Tomašević	-10.3431
▁Ča	-10.3432
▁igri	-10.3434
obra	-10.3435
▁obo	-10.3436
▁+	-10.3438
▁opasnost	-10.3444
▁književn	-10.3445
▁pobijedila	-10.3447
▁showa	-10.3455
▁energetsk	-10.3457
▁gradonačelnika	-10.3462
▁št	-10.3462
▁reakcija	-10.3465
▁kriterij	-10.3465
▁usporedb	-10.3466
▁dvorani	-10.3467
▁mreži	-10.3469
▁mog	-10.3471
▁kazna	-10.3476
tina	-10.3478
▁mreža	-10.3479
▁Gl	-10.3483
čak	-10.3485
▁bor	-10.3486
▁različitim	-10.3487
▁stranih	-10.3487
▁lica	-10.3488
▁zasad	-10.3489
vni	-10.3489
▁gostiju	-10.349
▁Post	-10.3492
▁soli	-10.3493
▁radimo	-10.3498
▁regionaln	-10.3499
▁test	-10.3499
des	-10.3502
▁žrtve	-10.3505
▁okus	-10.3505
▁dužnosti	-10.3507
ora	-10.351
▁Stjepan	-10.3512
▁pojas	-10.3515
▁zove	-10.3519
glav	-10.3524
▁jaja	-10.3525
▁Kat	-10.3525
▁klasičn	-10.3528
▁Sin	-10.3532
▁tzv	-10.3544
▁osvojen	-10.3544
▁zanimljivo	-10.3545
▁poticaj	-10.3545
▁otvorena	-10.3548
▁uhvati	-10.3553
▁danima	-10.3553
▁sc	-10.3557
▁kruh	-10.3559
▁održiv	-10.3559
▁Udruge	-10.3561
▁Bur	-10.357
▁šire	-10.3574
▁31.	-10.3577
▁trenira	-10.358
▁izaziva	-10.358
▁Francuska	-10.358
▁karakter	-10.3582
enu	-10.3582
đ	-10.3583
▁ponudu	-10.3584
▁stroj	-10.3586
▁Izvor	-10.3587
▁sastanak	-10.3593
▁prozor	-10.3597
▁65	-10.3601
▁prekršaja	-10.3602
▁trgovačk	-10.3604
▁teška	-10.3613
so	-10.3614
▁Em	-10.3617
rni	-10.3617
▁Mur	-10.3618
▁nekoga	-10.362
▁austrijsk	-10.3624
▁regije	-10.3624
▁kućn	-10.3625
▁razn	-10.3628
▁polju	-10.3634
▁sudjelovati	-10.3635
▁osvojiti	-10.3638
▁Županijsk	-10.3641
▁otoka	-10.3644
▁sudaca	-10.3645
▁unutrašnjosti	-10.3647
▁dovodi	-10.3649
▁završi	-10.3649
▁(6	-10.3652
▁Sel	-10.3654
LA	-10.3656
▁Istra	-10.3657
▁temu	-10.3663
▁Domovinski	-10.3664
▁operacije	-10.3664
▁reakcije	-10.3664
▁Her	-10.3666
▁Facebooku	-10.3668
▁smjer	-10.3668
lat	-10.367
▁doček	-10.3671
▁poklon	-10.3675
▁400	-10.3675
▁Sla	-10.3681
▁komad	-10.3681
▁str	-10.3683
▁Dinamov	-10.3687
▁svoja	-10.369
▁plod	-10.3693
▁manji	-10.3694
▁boji	-10.3694
▁daljnje	-10.3697
▁videu	-10.3698
▁početi	-10.37
▁obzir	-10.3702
▁kriminal	-10.3702
▁Washington	-10.3704
▁tehnologije	-10.3704
▁pronašli	-10.3704
▁jutarnj	-10.3704
▁Beroš	-10.3705
gri	-10.3707
ore	-10.3707
▁vratar	-10.3707
▁vrhunsk	-10.371
▁zahtjeva	-10.371
▁obilje	-10.3711
▁Gol	-10.3712
elj	-10.3714
▁uvjet	-10.3715
▁Posebno	-10.3716
▁kazneno	-10.3716
▁čitatelj	-10.3719
▁svako	-10.3729
▁igračima	-10.373
▁morsk	-10.3742
▁vodom	-10.3743
▁mjestima	-10.3744
▁tijelu	-10.3744
▁osiguranje	-10.3745
▁Gordan	-10.3746
▁mrežu	-10.3746
▁europskog	-10.3751
▁stari	-10.3756
▁Net	-10.3757
▁razlika	-10.3762
▁osiguran	-10.3765
▁doktor	-10.3765
niku	-10.3767
23	-10.3767
ave	-10.3767
24	-10.3769
▁izdanje	-10.3769
▁proizvod	-10.3774
▁rijetko	-10.3775
▁uslijed	-10.3775
▁brani	-10.3781
▁prijelaz	-10.3783
que	-10.3785
▁izvijestio	-10.3785
▁2015.	-10.3785
▁glavi	-10.3787
▁linije	-10.3788
▁Areni	-10.379
čili	-10.3793
rob	-10.3802
▁konačn	-10.3803
▁24.	-10.3804
▁Kli	-10.3806
▁prona	-10.3806
▁Godin	-10.3809
staje	-10.3809
▁sportsk	-10.381
▁sporazum	-10.3814
žić	-10.3816
▁Sal	-10.3821
_	-10.3824
dalmacija	-10.3825
▁vjerovati	-10.3825
ori	-10.3825
▁važn	-10.3826
▁uspjeha	-10.3828
▁prolaz	-10.3831
▁sposobnosti	-10.3832
▁ikad	-10.3832
▁otvorio	-10.3836
▁Joe	-10.3839
▁Baš	-10.384
▁York	-10.3842
▁razvija	-10.385
▁goste	-10.386
▁Vod	-10.386
▁nogometni	-10.3865
▁Zdravlje	-10.3867
▁zbor	-10.3869
▁pret	-10.3874
▁takvim	-10.3875
▁(19	-10.3882
▁okoliša	-10.3882
▁and	-10.3884
▁roditeljima	-10.3885
▁društvene	-10.3886
gura	-10.3889
▁razgovara	-10.389
▁okoliš	-10.3892
▁znate	-10.3892
▁potpisao	-10.3894
▁ista	-10.3896
▁aktivno	-10.3901
▁svu	-10.3901
▁događaju	-10.3902
dajte	-10.3903
images	-10.3904
▁ubojstvo	-10.3907
▁mirovinu	-10.3907
▁chef	-10.3907
▁medalje	-10.3907
▁utrke	-10.3908
▁odabir	-10.3908
▁kategorije	-10.3909
▁požara	-10.391
nata	-10.3911
▁Kre	-10.3917
▁prekršaj	-10.3917
staju	-10.3919
bit	-10.3931
ast	-10.3941
▁novinarima	-10.3942
port	-10.3944
▁golom	-10.3945
▁rezultatom	-10.3947
▁razdoblja	-10.3948
▁titulu	-10.3948
▁provesti	-10.3948
▁mama	-10.3949
▁ovisno	-10.3951
▁upravljanje	-10.3962
sata	-10.3962
stava	-10.3962
▁otka	-10.3967
▁derbi	-10.3968
▁Film	-10.397
▁policijski	-10.3972
čica	-10.3973
▁prvim	-10.3976
ivo	-10.3982
▁telefon	-10.3985
▁uključi	-10.3986
\/	-10.3987
▁zadovoljstvo	-10.399
▁izjave	-10.399
▁predviđen	-10.399
▁napustio	-10.3991
▁sceni	-10.3993
▁Če	-10.3999
▁vrtića	-10.4
▁ostvaren	-10.4003
prije	-10.4007
▁valja	-10.4008
▁SP	-10.4009
▁želje	-10.4011
▁vozača	-10.4013
▁oštećen	-10.4019
▁obrana	-10.4021
▁nemamo	-10.4023
▁izvora	-10.4025
▁španjolsk	-10.4028
vis	-10.403
▁Toni	-10.403
▁USKOK	-10.4031
▁sudjelovao	-10.4031
▁zlato	-10.4031
▁27.	-10.4032
▁najveć	-10.4034
▁ču	-10.4044
▁važna	-10.4045
▁nov	-10.4049
▁Ot	-10.4055
nović	-10.4057
▁Takv	-10.4059
▁kraljevsk	-10.4061
▁linija	-10.4061
▁brend	-10.4062
▁Jutarnji	-10.4063
etka	-10.4069
▁izvijestila	-10.407
▁poslove	-10.4073
▁izvoz	-10.4075
▁fe	-10.4077
▁komunaln	-10.4079
▁he	-10.4085
vjes	-10.4087
▁podr	-10.4093
▁brak	-10.4095
▁Doma	-10.4095
čića	-10.4096
▁usred	-10.4101
mina	-10.4102
rina	-10.4104
▁Može	-10.4105
▁tenisač	-10.4112
▁Gattuso	-10.4115
▁financija	-10.4115
▁obrazovanje	-10.4117
▁puš	-10.4117
▁upozorenje	-10.412
ph	-10.4127
▁Jel	-10.413
▁planiran	-10.413
▁sektor	-10.4131
▁Jug	-10.4132
▁domaćih	-10.4133
▁duž	-10.4137
▁financira	-10.4145
▁glavna	-10.415
▁publici	-10.4157
▁maloljetn	-10.4157
▁svatko	-10.4158
▁preuzeo	-10.4159
NA	-10.4161
▁Bivši	-10.4161
▁uvjeti	-10.4163
▁donijela	-10.417
▁stadion	-10.4174
▁Er	-10.4177
▁usta	-10.418
▁alkohol	-10.4181
▁dvor	-10.419
cem	-10.4191
▁Put	-10.4192
▁luka	-10.4196
▁osu	-10.4199
▁zvijezde	-10.4199
▁izgradnju	-10.4199
shi	-10.42
▁Novak	-10.4201
šlo	-10.4205
▁staviti	-10.4206
▁Jakirović	-10.4211
▁Mamić	-10.4212
▁Sr	-10.4215
▁gor	-10.4216
17	-10.4219
Y	-10.4221
▁ispit	-10.4229
▁različit	-10.4231
▁dionica	-10.4233
▁bl	-10.4234
▁sestra	-10.4234
▁dvoboj	-10.4236
▁napravila	-10.4237
▁Ministar	-10.4238
vik	-10.4239
▁liječnik	-10.4239
bin	-10.424
▁masovn	-10.4242
▁ministarstvo	-10.4246
▁Mora	-10.4249
▁Zelenski	-10.4253
▁institucija	-10.4256
▁stana	-10.4257
rit	-10.4266
▁Plenkovića	-10.4267
▁teme	-10.4269
▁Kine	-10.4274
▁fra	-10.4275
▁mira	-10.4279
▁počinitelj	-10.4284
▁ponude	-10.4284
▁baca	-10.4284
▁općine	-10.4285
▁tražiti	-10.4286
▁predviđa	-10.4286
▁slučajeva	-10.4286
▁modela	-10.4287
▁ostvari	-10.4288
▁današnji	-10.429
▁intenzivn	-10.4296
▁zadr	-10.4297
▁Indij	-10.4297
▁Pot	-10.4303
▁pobijedili	-10.4307
▁predstavnika	-10.431
▁turniru	-10.4316
▁stranci	-10.4322
▁partneri	-10.4326
▁obramben	-10.4327
▁dubok	-10.4327
▁Bulj	-10.4327
▁završava	-10.4327
▁produ	-10.4329
▁županiji	-10.433
▁ljubitelj	-10.4332
▁nude	-10.4333
▁online	-10.4334
▁Super	-10.4336
▁ratn	-10.4339
▁Glavni	-10.434
▁ključni	-10.4343
▁javnom	-10.4346
ištu	-10.4346
slobodna	-10.4349
27	-10.4352
▁poslovanja	-10.4355
▁temelj	-10.4355
▁poslijepodne	-10.4356
▁uspostav	-10.4358
najprije	-10.4361
▁isplati	-10.4365
▁istočn	-10.4366
▁poslovn	-10.4366
▁gospodarstvo	-10.4369
▁troškova	-10.4369
▁nedostaje	-10.4369
▁prijava	-10.437
▁mobiln	-10.4371
▁lak	-10.4372
▁birača	-10.4374
dor	-10.438
▁iskoristiti	-10.4383
▁utvrdi	-10.4383
▁termin	-10.4384
▁krajnje	-10.4394
wi	-10.4397
pun	-10.44
▁minimaln	-10.4402
▁Vid	-10.4405
▁Milanovi	-10.4407
40	-10.4407
fo	-10.4411
▁udaljen	-10.4412
▁vozilom	-10.4412
▁Charles	-10.4413
▁Dalmaciji	-10.4413
▁sudjelovali	-10.4413
▁posljednja	-10.4413
▁zadovoljan	-10.4413
▁četvero	-10.4413
▁ostane	-10.4417
▁Iza	-10.4417
ević	-10.4418
▁njihovoj	-10.4419
▁krenuti	-10.4424
▁viđen	-10.4425
▁fin	-10.4431
▁predstavio	-10.4431
▁petka	-10.4434
▁Njema	-10.4438
alni	-10.4443
▁zagreba	-10.4443
▁zrak	-10.4448
▁srpsk	-10.4449
▁Cr	-10.4456
ER	-10.4456
▁Problem	-10.4456
▁snimljen	-10.4456
▁hrana	-10.4458
▁sol	-10.4458
▁Vir	-10.4458
▁šal	-10.4461
▁djelatnosti	-10.4463
▁raznim	-10.4463
▁hrvatskoj	-10.4464
▁zapo	-10.4465
▁razgovora	-10.4467
▁njezinu	-10.447
▁mnogim	-10.447
lika	-10.4473
▁46	-10.4477
▁problemima	-10.4477
NI	-10.4479
▁Sv	-10.4479
slike	-10.4479
The	-10.4481
mis	-10.4483
RO	-10.4485
▁oružje	-10.4489
▁njemački	-10.4491
▁smanjen	-10.4492
▁vojne	-10.4497
▁tehnološk	-10.4502
▁radila	-10.4503
▁utjecajem	-10.4511
▁uvoz	-10.4514
▁Park	-10.4514
ral	-10.4515
vit	-10.4516
▁upis	-10.4517
▁banka	-10.452
▁županijsk	-10.452
▁otvorenom	-10.4529
▁most	-10.4533
▁hitno	-10.4533
▁susjedn	-10.4534
▁toplo	-10.4538
14	-10.4541
▁odbio	-10.4543
▁otišla	-10.4543
▁lipnju	-10.4543
▁ponos	-10.4547
▁crno	-10.4549
▁prizor	-10.4552
▁jugu	-10.4557
▁američkog	-10.4559
▁ikada	-10.456
izacije	-10.456
irana	-10.4561
elnik	-10.4563
▁Dva	-10.4565
▁kar	-10.4566
▁naziv	-10.4576
jpg	-10.4584
▁Luke	-10.4584
▁emocionaln	-10.4587
▁glasnogovornik	-10.4587
▁Sha	-10.4587
▁([	-10.4587
pravi	-10.4588
▁istog	-10.4589
▁ostvario	-10.4589
▁front	-10.459
▁pobjedi	-10.4591
vio	-10.4593
▁krenula	-10.4596
▁Ovi	-10.4598
TA	-10.4599
3.	-10.4601
ovom	-10.4601
▁luksuzn	-10.4601
▁stručnjaci	-10.4603
▁tima	-10.4606
we	-10.4608
▁prst	-10.4612
▁kći	-10.4614
vanjem	-10.4616
▁Bol	-10.4618
▁prvenstveno	-10.4618
▁predsjedni	-10.462
zom	-10.4621
▁izravno	-10.4621
▁Kupa	-10.4625
▁komp	-10.4625
▁postupka	-10.4631
▁Đoković	-10.4631
▁dvojica	-10.4631
▁ulica	-10.4632
▁Nismo	-10.4633
▁bri	-10.4634
▁Daniel	-10.4642
▁htjeli	-10.4643
MA	-10.4646
nde	-10.4647
▁trg	-10.4648
▁sigurnosn	-10.4651
▁privremeno	-10.4651
▁Varaždinsk	-10.4652
▁milijarde	-10.4652
▁povremeno	-10.4652
-3	-10.4656
yja	-10.4661
enih	-10.4661
▁Trumpov	-10.4674
▁nikakve	-10.4674
▁generacija	-10.4675
▁pozicije	-10.4675
▁kamion	-10.4675
▁klijent	-10.4675
▁prirodno	-10.4676
▁štete	-10.4677
▁otpor	-10.4678
rad	-10.4681
▁zahtijeva	-10.4681
▁vlastite	-10.4684
zni	-10.4686
▁optu	-10.4694
gli	-10.4705
slo	-10.4706
▁sav	-10.4709
▁Šibeniku	-10.4711
▁Zagrebačk	-10.4712
▁blag	-10.4713
sljed	-10.4714
▁najvažnije	-10.4715
▁Bili	-10.4716
▁polufinalu	-10.472
▁kompanije	-10.472
▁najavljen	-10.472
▁talijansk	-10.472
▁Hoće	-10.4723
▁selu	-10.4724
ušić	-10.4725
▁radom	-10.4733
▁prihoda	-10.4734
nese	-10.474
▁šok	-10.4742
▁31	-10.4742
▁kredit	-10.4742
▁sektoru	-10.4743
▁istina	-10.4745
▁snijeg	-10.4755
godišnjaka	-10.4755
čeni	-10.4757
pad	-10.476
lozi	-10.4763
▁infrastrukture	-10.4764
▁tehnologija	-10.4764
▁Sergej	-10.4764
▁nećemo	-10.4764
▁mirovine	-10.4764
▁imovine	-10.4764
▁pisali	-10.4764
▁ondje	-10.4765
▁Odlu	-10.4765
▁HNK	-10.4766
▁predstavljen	-10.4768
▁majke	-10.4769
▁Petković	-10.4772
▁fokus	-10.4774
▁uzeti	-10.4781
▁tro	-10.4783
▁završen	-10.4784
▁Centra	-10.4789
▁braka	-10.4791
▁Sol	-10.4791
▁operativn	-10.4792
▁normal	-10.4795
▁novinara	-10.4797
▁odigran	-10.4799
▁Izraela	-10.4806
▁Ivo	-10.4807
▁kakvu	-10.4809
▁svibnju	-10.4809
▁zaštićen	-10.4809
▁medalju	-10.4809
▁benzin	-10.4809
▁dužnost	-10.481
▁zaključila	-10.481
▁napor	-10.4817
▁potrebne	-10.4817
▁izra	-10.4819
ves	-10.482
▁bend	-10.4822
enju	-10.4823
▁obveza	-10.4824
▁nevjerojatn	-10.4826
▁obe	-10.4827
▁pokr	-10.4828
▁izdan	-10.483
▁doveo	-10.483
▁ukrajinski	-10.4831
▁čestit	-10.4833
▁TikTok	-10.4838
ovih	-10.484
▁malih	-10.484
▁podsjeća	-10.4843
▁sudjelovanje	-10.4854
▁ostavku	-10.4854
▁dolaska	-10.4855
lla	-10.4855
▁nacionalne	-10.4856
▁izašao	-10.4857
▁priznala	-10.4862
▁Hvala	-10.4863
▁kapacitet	-10.4865
▁boriti	-10.487
▁Anton	-10.4872
▁Stra	-10.4876
▁slavio	-10.4878
▁komentarima	-10.4878
22	-10.488
▁postaju	-10.4881
▁tad	-10.4885
▁show	-10.4886
misli	-10.4887
▁nizu	-10.4887
▁sretan	-10.4888
▁upozorio	-10.4889
ček	-10.4891
Ako	-10.4892
▁nesre	-10.4898
▁Reuters	-10.4899
▁ljestvici	-10.4899
▁potpredsjednik	-10.49
▁palestinsk	-10.4902
stavljen	-10.4904
dob	-10.4913
inja	-10.4917
▁ča	-10.4923
▁lider	-10.4924
▁ameri	-10.4924
▁kojega	-10.4926
sci	-10.4927
▁obali	-10.4928
pir	-10.493
▁dodatne	-10.493
▁branitelja	-10.493
gov	-10.4933
▁plina	-10.4934
▁intervjuu	-10.4936
▁prijateljsk	-10.4936
▁Fin	-10.4938
▁slavlje	-10.4942
▁središtu	-10.4945
▁ekran	-10.4945
▁ponuda	-10.4945
▁United	-10.4945
▁čekaju	-10.4946
▁goriva	-10.4948
nskom	-10.4951
▁predsjedničk	-10.4953
▁topli	-10.4963
dite	-10.4965
▁apsolutno	-10.4971
▁misle	-10.4984
▁vanjsk	-10.4985
▁spektakl	-10.499
▁područjima	-10.499
▁precizn	-10.4991
▁2014.	-10.4991
▁medalja	-10.4991
▁Kekin	-10.4991
pred	-10.4994
▁Zlatn	-10.4994
▁upisao	-10.4995
▁Nenad	-10.4997
▁Gaze	-10.4998
▁francusk	-10.5
▁voditeljica	-10.5001
Ka	-10.5009
ture	-10.501
▁komentar	-10.5015
qu	-10.5016
▁Mark	-10.5021
▁utvrđeno	-10.5026
▁Opć	-10.5033
▁atraktivn	-10.5036
▁atmosferu	-10.5036
▁Italiji	-10.5036
▁srpnju	-10.5036
▁1000	-10.5037
laganje	-10.5041
▁600	-10.5045
▁povećati	-10.5048
▁Pla	-10.505
▁omogu	-10.5052
▁nose	-10.5053
sne	-10.5055
▁obavlja	-10.5058
▁Teško	-10.5059
▁kazneni	-10.506
AR	-10.5062
▁Hajduku	-10.5063
▁Europa	-10.5068
▁čuti	-10.5069
▁bore	-10.5076
▁okr	-10.5079
▁održavanje	-10.5081
▁studenom	-10.5082
▁omogućuje	-10.5083
▁snažno	-10.5083
▁plus	-10.5085
▁majstor	-10.5085
pom	-10.5089
▁Grbin	-10.509
▁spas	-10.5094
vno	-10.5095
▁Zorana	-10.51
11	-10.5104
čara	-10.5108
lik	-10.5108
▁dresu	-10.5113
▁narodn	-10.5113
▁Plenkovi	-10.5116
tke	-10.512
letio	-10.5123
ljenja	-10.5124
▁promatra	-10.5127
lne	-10.5127
BA	-10.5127
sić	-10.5127
X	-10.5128
▁istovremeno	-10.5129
▁poručila	-10.5134
▁sreću	-10.5136
▁Ser	-10.5143
▁zada	-10.5144
▁svjetsko	-10.5149
▁Javn	-10.515
▁gradovima	-10.5152
▁okviru	-10.5153
riju	-10.5162
▁određene	-10.5163
ovati	-10.5168
▁glazbu	-10.5175
▁Ban	-10.5175
▁Niko	-10.518
▁uloge	-10.5182
▁Glas	-10.5184
▁44	-10.519
▁bivša	-10.5192
▁Donald	-10.5194
▁listopadu	-10.5197
▁prodava	-10.5202
▁baviti	-10.5204
ura	-10.5206
▁želio	-10.5208
prost	-10.5214
▁projektu	-10.5217
▁uređaj	-10.5217
jesti	-10.522
▁mlađe	-10.5221
▁slobodu	-10.5222
▁Zlatko	-10.5222
▁službi	-10.5222
▁2012.	-10.5222
▁glavom	-10.5222
▁glave	-10.5222
▁osjetljiv	-10.5223
▁takvu	-10.5223
▁Slovenije	-10.5223
▁Europu	-10.5224
▁pije	-10.5224
▁grob	-10.5226
▁oglasio	-10.5227
▁izjavi	-10.5229
▁kg	-10.5229
▁Sabora	-10.5234
vice	-10.5235
▁istoj	-10.5236
▁golman	-10.5238
▁početn	-10.5238
▁noćn	-10.5244
▁htjela	-10.5246
▁jedinici	-10.5247
▁Francuske	-10.525
▁fizički	-10.525
▁ulje	-10.5251
▁Lovre	-10.5252
▁blago	-10.5256
▁očekivan	-10.5258
▁park	-10.5265
▁potpore	-10.5269
▁Program	-10.5269
▁gradske	-10.5271
▁režim	-10.5271
▁ostatak	-10.5272
▁nogometu	-10.5275
▁blagdan	-10.5276
▁dulje	-10.5277
▁vra	-10.528
▁dis	-10.528
▁potvrdila	-10.5281
▁čuje	-10.5283
▁Mon	-10.5283
▁pojavila	-10.5284
▁Moramo	-10.5286
▁savršeno	-10.5287
▁pripada	-10.5288
▁Gore	-10.529
▁školama	-10.5293
▁sprema	-10.5293
ten	-10.5297
▁Tamo	-10.5298
▁58	-10.5298
▁Naša	-10.5302
▁profilu	-10.5302
▁l	-10.5304
ant	-10.5305
▁sposobnost	-10.5312
▁rep	-10.5314
▁prosincu	-10.5316
▁trenutka	-10.5316
▁pogorša	-10.5316
▁kampanju	-10.5316
▁Balkan	-10.5318
▁zaboravi	-10.5321
▁trajekt	-10.5321
▁sjećanja	-10.5321
▁Ter	-10.5323
▁trenucima	-10.5324
▁poslovni	-10.5325
▁odjel	-10.5331
▁pr	-10.5334
▁pobijedi	-10.5338
▁Kos	-10.5339
EN	-10.534
▁teži	-10.5341
▁srpski	-10.5341
▁spriječiti	-10.5341
▁prikazuje	-10.5344
▁Tre	-10.5344
▁razli	-10.5345
▁prilog	-10.5348
▁Šibenika	-10.5351
▁AI	-10.5356
▁konzumira	-10.5356
▁mogući	-10.5358
liti	-10.536
▁asistencija	-10.5363
▁izložbe	-10.5363
▁ubojstva	-10.5363
▁pogotka	-10.5363
▁liječnici	-10.5364
▁analitičar	-10.5364
▁uputio	-10.5364
▁zagrebačkom	-10.5364
▁Trener	-10.5364
▁duhovn	-10.5364
▁subote	-10.5365
▁ponašanja	-10.5371
▁ovi	-10.5371
zdrav	-10.5371
▁Istre	-10.5372
▁opće	-10.5377
ređen	-10.5378
▁dobije	-10.5382
▁čuli	-10.5393
18	-10.5394
▁Župan	-10.5398
▁period	-10.5402
▁čin	-10.5406
▁v	-10.5407
▁ljut	-10.5407
vel	-10.5408
▁pjesama	-10.5411
▁resurs	-10.5411
čila	-10.5411
▁omogućil	-10.5412
▁aut	-10.5415
▁ruskog	-10.5418
▁nazivom	-10.5419
kinu	-10.5419
▁jutros	-10.5425
avanja	-10.5426
▁golem	-10.5429
▁predstavnici	-10.5431
▁struje	-10.5431
▁učenici	-10.5432
90	-10.5432
▁komentirala	-10.5435
▁Ch	-10.5436
▁sazna	-10.5437
tz	-10.5442
▁20-	-10.5443
pp	-10.5448
del	-10.5455
▁cijelom	-10.5456
emu	-10.5458
▁Centar	-10.5459
▁akciju	-10.5459
▁opreme	-10.546
▁otok	-10.546
▁liječnika	-10.5462
▁dodajući	-10.5462
▁velikoj	-10.5464
▁sretn	-10.5464
Class	-10.5464
▁mjesecima	-10.5464
▁vesel	-10.5467
▁ponovo	-10.5468
▁besplatn	-10.5471
▁analizira	-10.5472
▁Andreja	-10.5474
ssa	-10.5475
▁istu	-10.548
lni	-10.5482
▁svakoj	-10.5484
▁Nacionaln	-10.5485
▁odvjetnika	-10.5486
▁razgovarali	-10.5489
pati	-10.5492
▁smijeh	-10.5494
olog	-10.55
▁skok	-10.5503
▁Viktor	-10.5504
▁hitne	-10.5505
ekuje	-10.5505
šća	-10.5507
ü	-10.5507
▁Najbolji	-10.5507
▁komunicira	-10.5507
▁nikako	-10.5507
Pa	-10.5508
▁Harry	-10.5508
▁Rimac	-10.5509
mail	-10.551
▁navijačima	-10.5511
▁korištenja	-10.5511
▁prave	-10.5511
stala	-10.5515
▁preuzeti	-10.5521
▁sklad	-10.5527
▁lokacija	-10.5527
niju	-10.5529
▁studenoga	-10.5539
▁Najviše	-10.554
▁pogod	-10.554
▁Pan	-10.554
lt	-10.5546
dovolj	-10.5549
▁Gori	-10.5549
▁rodn	-10.5549
▁tužitelj	-10.555
▁41	-10.555
lijeva	-10.5551
▁ekipu	-10.5555
▁svjetske	-10.5555
▁napredak	-10.5555
▁odlaska	-10.5557
▁kuha	-10.5561
▁prometnoj	-10.5562
▁izazvao	-10.5562
rne	-10.5564
▁tvoj	-10.5567
ijim	-10.5567
▁vla	-10.557
▁onako	-10.5571
▁nastala	-10.5578
ovca	-10.5578
▁priznanje	-10.5578
jedno	-10.5582
▁ulicama	-10.5588
dali	-10.5591
▁Splitsko	-10.5593
TI	-10.5594
▁uloga	-10.5598
▁predan	-10.5601
tura	-10.5603
▁stratešk	-10.5603
▁Croatia	-10.5604
▁nazvao	-10.5604
▁zabrani	-10.5605
▁Dominik	-10.5608
▁Mas	-10.5608
zv	-10.5612
▁državnom	-10.5615
▁istaknuti	-10.5621
▁moguć	-10.5622
▁Buduć	-10.5632
▁identitet	-10.5633
▁lokalnih	-10.5635
▁povrat	-10.5638
▁Cor	-10.5643
▁načina	-10.5646
▁stranačk	-10.565
▁še	-10.5651
▁rang	-10.5652
▁pronađen	-10.5652
▁troškove	-10.5653
▁vrijedan	-10.5653
▁prošla	-10.5653
kva	-10.5654
▁biskup	-10.5654
▁ostavlja	-10.5655
▁Neka	-10.5659
▁47	-10.5662
imo	-10.5662
▁ograničen	-10.5665
▁prate	-10.5667
▁Mogu	-10.5668
▁Puno	-10.5669
pao	-10.567
živ	-10.5671
▁utjecaja	-10.5682
▁muzej	-10.5684
ivota	-10.5686
▁predstavljaju	-10.569
▁pokušati	-10.569
▁Wi	-10.5694
jeva	-10.5695
▁krem	-10.5695
▁angažman	-10.5702
▁popularni	-10.5702
▁predizborn	-10.5702
tna	-10.5703
▁uživo	-10.5704
▁Bjelica	-10.5705
▁stadiona	-10.5706
▁provode	-10.5706
▁ući	-10.5706
▁pojavio	-10.5707
▁grama	-10.571
▁dodatni	-10.5714
ny	-10.5715
▁Cro	-10.5718
▁imat	-10.5721
šle	-10.5728
nte	-10.5733
ksa	-10.5734
▁zavod	-10.5734
utim	-10.5735
▁As	-10.5735
pek	-10.5736
▁Pra	-10.5741
▁unos	-10.5743
▁Bož	-10.5743
▁njihovog	-10.5749
▁Pariz	-10.5749
▁riješi	-10.5749
rci	-10.575
▁Kaštel	-10.5751
ep	-10.5764
▁pokraj	-10.5764
▁prepoznatljiv	-10.5767
ljivi	-10.5767
▁(20	-10.5768
▁fizi	-10.5768
▁ušli	-10.577
fu	-10.5776
▁Potom	-10.5776
▁pohvali	-10.5778
▁teže	-10.5779
▁Met	-10.5779
▁oglas	-10.5781
▁120	-10.5784
▁podijelio	-10.5787
▁bivš	-10.5788
▁nogu	-10.5793
▁raspored	-10.5794
▁(2	-10.58
▁nevjerojatno	-10.58
▁Krešimir	-10.58
▁vježba	-10.58
▁Euru	-10.5801
▁gospodin	-10.5806
nama	-10.5806
▁Jadran	-10.5808
▁rezultatima	-10.5808
▁znanje	-10.581
▁sudar	-10.5811
▁pojačan	-10.5821
▁der	-10.5822
▁omogućiti	-10.5827
▁Hrvoje	-10.5828
▁proračun	-10.5829
▁Time	-10.5831
▁tlak	-10.5834
▁odbija	-10.5838
▁postavio	-10.5838
▁slijede	-10.584
izacija	-10.5841
▁Zanimljivo	-10.5847
▁Premijer	-10.585
▁kontrole	-10.585
▁travnju	-10.585
▁sreće	-10.5853
▁obrok	-10.5853
▁popisu	-10.5854
▁Saboru	-10.5855
▁radionice	-10.5856
▁poručili	-10.5856
▁napade	-10.5858
▁ideje	-10.5858
▁OŠ	-10.5861
▁Trg	-10.5864
aka	-10.5872
▁problemi	-10.5872
▁Maja	-10.5879
▁pridruži	-10.5882
▁pitao	-10.5884
▁Del	-10.5884
▁uvid	-10.5886
▁rub	-10.5887
▁nalog	-10.5888
▁Marc	-10.5891
kala	-10.5897
▁vjeruju	-10.5898
▁turista	-10.59
▁briga	-10.5902
Pro	-10.5904
▁faktor	-10.5904
▁penal	-10.5906
▁rado	-10.5907
ive	-10.5909
ham	-10.5911
▁II	-10.5923
▁bolnica	-10.5923
▁uređaja	-10.5924
▁Mladi	-10.5924
▁radim	-10.5924
▁Kraj	-10.5925
▁čim	-10.5928
ls	-10.5929
▁slovensk	-10.593
▁vodstvom	-10.5932
▁preporu	-10.5935
▁43	-10.5938
▁tradicionalno	-10.5939
▁Marina	-10.5945
▁disk	-10.5947
▁mlada	-10.595
▁promjenu	-10.595
▁transformacij	-10.595
▁izgradnje	-10.5951
▁policiju	-10.5951
▁stran	-10.5951
▁njezino	-10.5951
▁gledatelji	-10.5952
▁stvaranje	-10.5952
▁istragu	-10.5954
▁državljanin	-10.5954
▁vod	-10.5956
▁Martina	-10.5965
▁Sabor	-10.5966
▁zasigurno	-10.5967
vent	-10.5967
tova	-10.5969
▁bivše	-10.5971
▁propisan	-10.5973
▁vidljiv	-10.5974
▁Iva	-10.5983
▁dub	-10.5993
nicom	-10.5994
▁sjevernom	-10.5998
▁stanovništva	-10.6001
▁nedostatk	-10.6001
▁osnovan	-10.6002
▁veljači	-10.6003
▁korijen	-10.6004
▁Mer	-10.6004
▁Eura	-10.6005
▁zatvoru	-10.6005
▁trebamo	-10.6006
ljak	-10.6006
29	-10.6006
▁sadržaja	-10.6009
▁direktora	-10.6012
▁upoznati	-10.6013
▁situacijama	-10.6013
▁temeljn	-10.6014
▁duga	-10.6015
▁dugoročn	-10.6022
▁povezanost	-10.6024
▁Los	-10.6026
zb	-10.6027
▁pitali	-10.6027
▁zaposlenika	-10.6027
lović	-10.6029
jedna	-10.6031
▁ostvarili	-10.6032
▁listu	-10.6033
▁izazovima	-10.6037
▁komentira	-10.6038
▁lokalno	-10.604
licom	-10.6043
▁riječk	-10.6044
▁Bayern	-10.6048
▁sudionika	-10.6049
▁krevet	-10.6049
▁konkurenciji	-10.6052
▁prijavljen	-10.6052
▁1991.	-10.6052
▁potrebu	-10.6052
▁želju	-10.6052
▁doslovno	-10.6052
▁donose	-10.6053
▁pojedinačn	-10.6054
▁Grand	-10.6056
▁uobičajen	-10.6058
▁sedmo	-10.6061
▁specifičn	-10.6065
▁festivalu	-10.6065
rska	-10.6066
▁mijenjati	-10.6068
▁tisu	-10.6068
▁(4	-10.6068
▁zabrinutost	-10.6069
▁upravljao	-10.607
▁stanu	-10.6072
19	-10.6073
▁tunel	-10.6074
▁Don	-10.6077
▁250	-10.6082
▁vani	-10.6086
▁pisan	-10.6087
▁nekakv	-10.6087
aši	-10.6088
▁namjerava	-10.6091
▁poslovanje	-10.6099
▁trećem	-10.6102
▁apartman	-10.6103
▁kulturu	-10.6103
▁umor	-10.6104
▁muž	-10.6106
▁Jelena	-10.6108
kal	-10.6109
▁djelatnici	-10.6111
▁očekivanja	-10.6113
▁dođu	-10.6113
▁Kara	-10.6118
▁skrbi	-10.612
▁priop	-10.612
rske	-10.6123
val	-10.6125
rač	-10.6125
▁slavn	-10.6125
▁skloni	-10.6125
▁car	-10.6127
▁Ek	-10.6128
▁tona	-10.6129
nuli	-10.613
▁osigurava	-10.6133
▁iznosila	-10.6134
▁lagan	-10.6134
Pre	-10.6135
▁nasilje	-10.6135
roš	-10.6137
▁vašem	-10.6142
▁neću	-10.6142
▁izazove	-10.6144
▁jutro	-10.6149
▁unaprijed	-10.615
▁Dalmacije	-10.6154
▁inozemstvu	-10.6154
▁reporter	-10.6154
▁siječnju	-10.6154
▁DORH	-10.6154
▁Projekt	-10.6154
▁napravljen	-10.6154
▁površine	-10.6154
▁Google	-10.6154
▁kampanji	-10.6154
▁morala	-10.6157
▁popust	-10.6158
▁49	-10.6158
▁skokova	-10.6159
▁Ustavni	-10.6162
▁broda	-10.6165
▁psa	-10.617
▁znala	-10.6176
▁mirno	-10.6177
▁dobri	-10.6178
▁koli	-10.6186
▁kvar	-10.6187
▁Zelen	-10.6188
tek	-10.6189
▁razreda	-10.6196
▁osjeti	-10.6199
▁budem	-10.6199
▁general	-10.6202
Je	-10.6203
▁Gvardiol	-10.6206
▁Hercegovine	-10.6206
▁destinacija	-10.6206
▁tržišn	-10.6206
▁sjednici	-10.6206
▁SuperSport	-10.6206
▁očevid	-10.6206
▁zlata	-10.6207
▁gledatelja	-10.6207
▁dominira	-10.6207
▁pobjednika	-10.6207
ling	-10.621
▁pilot	-10.621
meta	-10.6211
▁svjedok	-10.6211
▁EP	-10.6212
▁6,	-10.6213
▁odrasta	-10.6213
▁vidite	-10.6213
▁skrb	-10.6214
▁Posljednj	-10.6217
▁Lan	-10.6218
▁sukladno	-10.6218
▁pravom	-10.6221
▁aspekt	-10.6222
▁West	-10.6223
▁dvostruk	-10.6225
▁post	-10.6227
▁gotov	-10.6231
RI	-10.6235
▁Novom	-10.6236
chi	-10.6243
▁Tor	-10.6244
▁svje	-10.6248
▁Vla	-10.6248
nz	-10.625
▁žali	-10.6252
▁održat	-10.6255
▁meso	-10.6257
▁objavu	-10.6257
▁slobode	-10.6257
▁zastupnici	-10.6257
▁pogođen	-10.6258
▁boravi	-10.6259
▁NBA	-10.6259
▁remi	-10.6275
▁kože	-10.628
▁muškarci	-10.6281
tku	-10.6282
avi	-10.6283
▁pomorsk	-10.6283
▁ranjen	-10.6283
▁konce	-10.6284
▁Grčk	-10.6284
▁važnosti	-10.6285
šak	-10.6286
▁Ov	-10.6291
▁njemačk	-10.6293
▁nemam	-10.6298
▁odgovornosti	-10.63
pić	-10.6302
▁ozlije	-10.6304
▁osnovne	-10.6305
▁zaposlenih	-10.6307
▁Kal	-10.6307
▁Poljud	-10.6308
▁atmosfera	-10.6309
▁smanjuje	-10.6309
▁zaključuje	-10.6309
▁prijavu	-10.6309
▁1-0	-10.631
▁prijetnje	-10.631
▁štetn	-10.631
▁odabran	-10.6311
▁Bosne	-10.6311
▁radnog	-10.6312
tivni	-10.6312
▁hvala	-10.6312
▁stabilnost	-10.6312
▁leđa	-10.6313
▁djevojke	-10.6315
▁Fer	-10.6316
▁Kovačić	-10.6318
▁istraga	-10.6319
▁kandidati	-10.6322
▁Srbi	-10.6323
juće	-10.6324
ujemo	-10.6328
▁sportske	-10.633
▁Plan	-10.6332
▁Križevci	-10.6334
▁Smatra	-10.6334
▁važne	-10.6336
OR	-10.6337
▁svakodnevn	-10.6346
uri	-10.6348
fin	-10.6352
▁zdravstven	-10.6353
▁materijala	-10.6354
▁predsjednikom	-10.6355
▁rob	-10.6359
▁industrije	-10.6362
▁Oliver	-10.6362
▁učinak	-10.6363
▁pokušavaju	-10.6365
▁oca	-10.6366
▁Ligu	-10.637
▁postavi	-10.6373
ložio	-10.638
▁odigrali	-10.6385
▁svjetskih	-10.6385
▁iskreno	-10.6393
▁niza	-10.6394
▁idealn	-10.6395
▁skupi	-10.6395
▁prekid	-10.6398
▁nastavila	-10.6398
tne	-10.6402
▁parlamentu	-10.6403
▁uzvrat	-10.6408
▁potpisa	-10.6412
▁Ć	-10.6412
▁neprijatelj	-10.6412
▁troškovi	-10.6414
▁dopušten	-10.6414
▁turizam	-10.6414
▁DVD	-10.6414
▁2-0	-10.6414
▁dužnosnici	-10.6415
▁spaja	-10.6416
▁održana	-10.6417
▁današnj	-10.6417
▁klju	-10.6427
▁dali	-10.6429
▁Nedavno	-10.6429
▁upozna	-10.643
▁bje	-10.6431
isto	-10.6432
▁mladić	-10.6432
sjed	-10.6432
▁direktorica	-10.6434
▁jedni	-10.6435
ćen	-10.6443
▁prebaci	-10.6443
▁pozitivno	-10.6445
▁izaći	-10.6447
▁košarkaš	-10.6451
jska	-10.6456
▁Luk	-10.6457
▁učitelj	-10.6461
▁Branko	-10.6461
▁stabiln	-10.6461
▁potresa	-10.6462
▁polufinale	-10.6467
▁operacija	-10.6467
▁gubitak	-10.6469
1)	-10.647
▁sljede	-10.6471
▁prekida	-10.6484
▁Gre	-10.6484
▁francuski	-10.6484
▁suprugu	-10.6491
▁utječe	-10.6492
▁veća	-10.6494
tv	-10.6496
▁divlj	-10.65
▁svjetlo	-10.6503
▁kontekstu	-10.6505
▁novinare	-10.6512
▁Top	-10.6513
▁organizatori	-10.6514
vale	-10.6515
▁djelovanje	-10.6515
▁Mad	-10.6515
▁vaša	-10.6516
▁uspješn	-10.6518
▁zagrebački	-10.6519
▁nezavisn	-10.6521
▁pacijenata	-10.6521
▁navrata	-10.6521
▁kafić	-10.6521
▁EPPO	-10.6521
▁mikro	-10.6522
stanak	-10.6523
▁postići	-10.6525
alna	-10.6526
▁Selak	-10.6527
▁procesu	-10.653
▁počast	-10.6532
▁procesa	-10.6533
▁osnivač	-10.6534
▁spot	-10.6534
▁takvo	-10.6539
▁ispad	-10.6541
▁prometna	-10.6542
▁zaustaviti	-10.6544
▁Svjetskom	-10.6544
▁kakvo	-10.6544
▁filmova	-10.6545
▁mnogih	-10.655
▁Fo	-10.655
▁glavnom	-10.6552
▁događanja	-10.6554
▁motocikl	-10.6557
▁52	-10.6559
▁odluči	-10.656
▁luke	-10.6565
▁vratila	-10.6567
▁Sveti	-10.6573
▁ljestvice	-10.6574
▁uzbudljiv	-10.6574
▁puk	-10.6584
▁Jakov	-10.6586
▁vlasnika	-10.6588
▁lokalnim	-10.6588
▁dijelovima	-10.6591
▁naredn	-10.6592
▁naru	-10.6593
prot	-10.6593
▁spomenuti	-10.6597
▁otvoriti	-10.6597
▁pomisli	-10.6598
▁direktno	-10.6604
▁korisnici	-10.6605
AN	-10.6617
▁jeziku	-10.6618
▁prosjeku	-10.6621
▁Kakv	-10.6622
▁bura	-10.6622
▁tvrd	-10.6623
▁radnih	-10.6626
▁krumpir	-10.6628
▁BBC	-10.6628
▁završetka	-10.6628
▁doživio	-10.6628
▁jednak	-10.6628
▁izravn	-10.663
▁Nitko	-10.663
▁preokret	-10.663
▁Pritom	-10.6634
▁internetsk	-10.6642
▁započela	-10.6643
▁općina	-10.6645
▁navijače	-10.6646
▁izjedna	-10.6649
veo	-10.665
▁materijaln	-10.6655
▁slike	-10.6658
tok	-10.6666
▁Alen	-10.6666
▁Rat	-10.6671
▁Dio	-10.6671
▁Rusi	-10.6672
▁Osnovn	-10.6672
▁većini	-10.6674
▁izgubi	-10.6675
▁Des	-10.6676
▁neočekivan	-10.6682
▁osvrnuo	-10.6682
▁rekonstrukcij	-10.6682
▁žrtava	-10.6682
▁2013.	-10.6682
▁oznaka	-10.6682
▁obnove	-10.6682
▁češće	-10.6682
vlače	-10.6683
▁splitski	-10.6683
▁James	-10.6684
▁parlamentarn	-10.6684
▁2-1	-10.6685
▁susre	-10.6686
▁Jeste	-10.6688
▁Ustavnog	-10.6688
▁organizator	-10.6688
▁fi	-10.6689
▁legendarn	-10.6694
hat	-10.6694
▁Mag	-10.6696
▁Velike	-10.6696
▁nered	-10.6696
▁stvoriti	-10.6697
▁ples	-10.6701
▁cilja	-10.6701
▁ugodno	-10.6702
tov	-10.6704
▁otkriti	-10.6709
▁koš	-10.6709
▁primi	-10.671
▁maksimaln	-10.6711
berg	-10.6718
ST	-10.6719
manje	-10.672
▁saborsk	-10.6722
▁kapaciteta	-10.6722
▁Gradu	-10.6723
bir	-10.6731
▁Kri	-10.6731
▁posjed	-10.6732
RE	-10.6734
▁Liverpool	-10.6736
▁reprezentaciji	-10.6736
▁2011.	-10.6736
▁žestok	-10.6736
▁zadržati	-10.6736
▁producent	-10.6737
▁ugrožen	-10.6738
▁Ovdje	-10.6738
▁Raspudić	-10.6739
▁crkve	-10.674
▁treća	-10.6742
▁suočava	-10.6743
▁mag	-10.6745
▁Meni	-10.6746
▁Druga	-10.6747
▁moli	-10.6749
▁svečan	-10.6749
▁ubio	-10.6751
Sve	-10.6753
▁obavi	-10.6756
▁povod	-10.6757
▁Tek	-10.6758
▁opasno	-10.676
▁godišnji	-10.676
▁potreba	-10.6763
▁poja	-10.6764
▁Ves	-10.6766
▁dodat	-10.6767
▁dalmatinsk	-10.6768
elje	-10.6769
▁znanstven	-10.6771
▁zaboraviti	-10.6772
▁rock	-10.6775
▁jugo	-10.6782
▁medijsk	-10.6782
▁dobrom	-10.6784
▁poznate	-10.6785
▁sestre	-10.6789
▁svojem	-10.679
▁vodeći	-10.679
▁Dalmacija	-10.6791
Cropix	-10.6791
▁2026.	-10.6791
▁Bjelovar	-10.6791
▁zaredom	-10.6792
title	-10.6794
▁aktualni	-10.6796
▁viš	-10.6796
rno	-10.6798
▁Trenutno	-10.6802
▁Vukovara	-10.6804
▁radne	-10.6806
▁Chris	-10.6807
▁Velikoj	-10.6807
▁društvenoj	-10.6807
▁bana	-10.6808
rast	-10.681
▁većine	-10.6811
▁potencijalno	-10.6812
JE	-10.6815
▁trajati	-10.6818
▁Vladi	-10.6822
DA	-10.6826
▁kona	-10.683
▁ženama	-10.6831
▁mnogima	-10.6831
80	-10.6833
▁šta	-10.6833
▁Solin	-10.6836
▁susjed	-10.6836
▁primje	-10.6843
▁Varteks	-10.6846
▁ponegdje	-10.6846
▁počelo	-10.6846
▁rečeno	-10.6846
off	-10.6847
▁tamošnj	-10.6849
▁prethodn	-10.685
▁radno	-10.6851
▁ministarstva	-10.6852
▁ostaviti	-10.6852
▁Nina	-10.6852
▁glazbenik	-10.6857
▁kupnju	-10.6859
▁nužno	-10.6859
35	-10.686
▁stariji	-10.686
▁ulaznica	-10.686
▁potvrdili	-10.6861
▁centr	-10.6862
▁Kaže	-10.6864
▁izdanju	-10.6866
▁produž	-10.6868
▁uvjerljiv	-10.6869
▁nastupiti	-10.687
▁osiguranja	-10.6872
▁maksimalno	-10.6875
▁mjesečno	-10.6876
▁postojeć	-10.6877
▁kuhar	-10.6879
▁oštr	-10.6879
▁Svjetskog	-10.6881
▁fenomen	-10.6883
▁uvjeta	-10.6885
▁66	-10.6894
▁Open	-10.6898
▁85	-10.69
▁(7	-10.69
▁Institut	-10.6901
▁Netanyahu	-10.6901
▁izazvala	-10.6901
▁Michael	-10.6901
▁izgrađen	-10.6901
▁objava	-10.6901
▁Rakitić	-10.6901
▁Svak	-10.6901
▁vidjela	-10.6901
▁pozvan	-10.6902
▁koncept	-10.6902
▁formu	-10.6902
▁veznjak	-10.6903
▁kazni	-10.6905
▁šuma	-10.6905
2)	-10.6906
▁Zatim	-10.6906
▁Visok	-10.6906
▁ukrajinske	-10.6907
▁Čini	-10.6908
▁izvođač	-10.6908
▁Pen	-10.6909
▁zrakoplova	-10.691
▁vatrogasaca	-10.6913
▁pozdrav	-10.6914
kali	-10.6914
▁prizna	-10.6917
▁rijeke	-10.6919
▁Kamal	-10.6922
sija	-10.6922
▁proizvođača	-10.6922
▁donacij	-10.6922
stre	-10.6926
▁trgu	-10.6927
▁političkih	-10.6928
vili	-10.693
ivao	-10.6932
▁(3	-10.6936
kru	-10.6936
▁Peter	-10.6943
KA	-10.6943
by	-10.6943
▁javnim	-10.6947
▁Mus	-10.6947
▁Vas	-10.6948
▁Modri	-10.695
▁kriminalističko	-10.6952
▁upozoravaju	-10.6953
▁reagira	-10.6955
▁financijske	-10.6957
▁infrastrukturu	-10.6957
▁otišli	-10.6957
▁liječničk	-10.6957
▁šansu	-10.6957
▁poremećaj	-10.6957
▁podijeljen	-10.6957
▁državu	-10.6957
▁Muzej	-10.6957
▁pomažu	-10.6957
▁uistinu	-10.6957
▁pronašao	-10.6957
▁Ministarstvu	-10.6958
cka	-10.696
▁Antonio	-10.6964
▁Mladen	-10.6968
nijeti	-10.6968
▁Matija	-10.6969
▁opisu	-10.6974
▁bilježi	-10.6975
▁ureda	-10.6977
▁radionica	-10.6979
▁Petri	-10.6983
▁Hrvat	-10.6988
▁sviđa	-10.6999
▁studije	-10.7004
▁Spa	-10.7009
▁inteligencije	-10.7012
▁investicija	-10.7012
▁nezakonit	-10.7012
▁postupku	-10.7012
▁časopis	-10.7013
▁naselja	-10.7013
▁Sopić	-10.7013
▁liječenje	-10.7013
nal	-10.7014
▁ciljeve	-10.7016
▁Istri	-10.7017
▁skuplja	-10.7019
▁prvoligaš	-10.7019
▁William	-10.7019
kriv	-10.7024
▁doznajemo	-10.7026
godišnj	-10.7027
dni	-10.7029
▁fakultet	-10.7029
▁bazi	-10.703
▁psi	-10.7032
▁Sinj	-10.7034
▁talijanski	-10.7035
sred	-10.7037
▁veseli	-10.7038
▁ispuni	-10.7039
▁restorana	-10.7042
rio	-10.7042
▁Vrlo	-10.705
▁Raj	-10.7054
▁izraz	-10.7056
▁tehničk	-10.7058
▁Blisk	-10.7063
▁Đur	-10.7064
burg	-10.7065
▁For	-10.7067
▁komisije	-10.7069
▁ožujku	-10.7069
▁relativno	-10.7069
▁trenutke	-10.7069
▁dugotrajn	-10.7069
▁održao	-10.7069
▁izvještaj	-10.7069
▁uništen	-10.7069
▁Novo	-10.7071
▁posti	-10.7073
▁sliku	-10.7074
▁sektora	-10.7075
▁Bojan	-10.7076
▁blokira	-10.708
▁Franjo	-10.7081
55	-10.7081
deset	-10.7082
ts	-10.7082
▁košarkašk	-10.7086
▁prihvatiti	-10.7086
▁smeta	-10.7086
tel	-10.7087
▁utvrđen	-10.709
▁boli	-10.709
▁Turističk	-10.709
ovim	-10.7092
pada	-10.7092
▁stranaka	-10.7097
▁korisnicima	-10.7099
▁Udruga	-10.7106
nf	-10.7112
▁Red	-10.7116
▁Oko	-10.7118
▁Bruno	-10.7125
▁NACIONAL	-10.7125
▁emisija	-10.7125
▁pronašla	-10.7125
▁kamere	-10.7125
▁indeks	-10.7125
▁količina	-10.7125
▁knjigu	-10.7126
▁organ	-10.7126
▁Postoji	-10.7127
▁ulaznice	-10.7128
▁izvješću	-10.7128
▁šećer	-10.7129
▁učinio	-10.7129
▁ciljeva	-10.713
▁plaću	-10.713
▁Kur	-10.7131
▁kata	-10.7132
▁Većina	-10.7132
▁planove	-10.7137
▁Jak	-10.714
▁poslovne	-10.7141
▁kontinuirano	-10.7148
PO	-10.7149
▁drama	-10.7153
▁Slovačk	-10.7154
▁Rumunjsk	-10.7156
▁kritizira	-10.7157
▁Nikad	-10.7157
▁Španjolsk	-10.7158
▁stoper	-10.7167
▁kolegama	-10.7169
▁ure	-10.7169
▁Ge	-10.7172
▁izložen	-10.7172
zin	-10.7174
▁pale	-10.7175
▁vratili	-10.7175
Ima	-10.7178
▁pros	-10.7181
▁Hajdukov	-10.7182
▁ovakve	-10.7182
▁Italija	-10.7182
▁olujn	-10.7182
bur	-10.7182
▁BDP	-10.7183
▁razgovarao	-10.7189
▁bes	-10.7193
▁sjet	-10.7194
▁laž	-10.7196
▁or	-10.7202
▁branitelj	-10.7202
▁puca	-10.7203
▁nogometaša	-10.7206
lagati	-10.7207
ovanje	-10.7209
▁odigrati	-10.7211
▁projektima	-10.7213
▁tražio	-10.7217
ključ	-10.7218
▁spol	-10.7222
▁Švedsk	-10.7222
ljena	-10.7223
▁doznaje	-10.7226
▁izraelski	-10.7227
▁stručnjaka	-10.7228
▁stvaraju	-10.723
▁Dub	-10.7231
▁emitira	-10.7239
▁aktivira	-10.7239
▁mirovina	-10.724
▁Sloveniji	-10.724
▁VAR	-10.7241
▁64	-10.7245
▁odlukom	-10.7246
▁sjever	-10.7248
ndo	-10.7249
▁brže	-10.7249
▁iznenađenje	-10.725
▁Maksimir	-10.7253
▁dječak	-10.7254
vođe	-10.7256
▁potra	-10.7257
▁brojem	-10.7257
▁nijedn	-10.7259
▁Marić	-10.7259
▁Mili	-10.7259
▁zainteresiran	-10.7261
▁tamn	-10.7261
▁derbiju	-10.7262
4)	-10.7267
▁biračk	-10.7272
ult	-10.7274
▁polako	-10.7274
▁pristupa	-10.7274
dugo	-10.7275
▁obale	-10.7276
▁obilježava	-10.7282
▁iransk	-10.7282
▁podu	-10.7285
▁suprotno	-10.7288
▁Bri	-10.7292
▁Nacional	-10.7294
▁skandal	-10.7296
▁natjecanjima	-10.7297
▁pjesmom	-10.7297
▁pripadnici	-10.7297
▁Zvonimir	-10.7297
▁omogućava	-10.7297
▁vitamin	-10.7297
▁željezničk	-10.7297
▁suradnik	-10.7297
▁oduzet	-10.7297
▁Penava	-10.7298
▁ovakav	-10.7299
▁pozval	-10.7301
▁Sanja	-10.7304
▁fil	-10.7304
▁osigurao	-10.731
▁tekuć	-10.7314
▁rukav	-10.7317
▁fr	-10.7317
wa	-10.732
▁trebate	-10.732
▁prodan	-10.7321
▁mak	-10.7321
▁spriječi	-10.7323
▁šalje	-10.7332
ero	-10.7337
▁sretni	-10.7338
▁Lucija	-10.7338
▁raspoložen	-10.7339
▁otpad	-10.7343
▁naveli	-10.7348
▁sredstvima	-10.7354
▁Daily	-10.7354
▁dijele	-10.7354
▁zagrebačkoj	-10.7355
▁sudjeluje	-10.7355
▁mentor	-10.7355
▁ustanove	-10.7355
▁Primjerice	-10.7355
▁intimn	-10.7355
▁zadužen	-10.7355
▁spominje	-10.7356
▁pozitivan	-10.7356
▁Rod	-10.7356
▁suigrač	-10.7357
zmu	-10.7358
▁djelovanja	-10.7358
▁plana	-10.7358
istički	-10.7361
▁odjela	-10.7362
▁61	-10.7363
ovec	-10.7363
▁London	-10.7365
▁Max	-10.7365
▁bave	-10.7366
▁Jadransk	-10.7366
▁prepun	-10.7369
▁uzeo	-10.7372
▁sportskih	-10.7372
▁aktivnostima	-10.7375
▁žut	-10.7376
▁vruće	-10.7377
▁Sara	-10.738
▁ekstremn	-10.7383
▁predstaviti	-10.7383
▁pliva	-10.7386
▁zdravstveni	-10.7389
▁sadašnj	-10.7389
▁Utakmica	-10.739
ovski	-10.74
▁Nu	-10.7406
▁Sav	-10.7411
▁prijatelje	-10.7411
inama	-10.7411
▁posjetitelje	-10.7413
▁sastanka	-10.7413
▁Livaja	-10.7413
▁premda	-10.7413
▁utrci	-10.7413
ble	-10.7415
▁54	-10.7416
▁brzine	-10.7418
▁ze	-10.7418
▁djelatnika	-10.7418
▁vratima	-10.7424
▁Pavl	-10.7426
▁Can	-10.7427
▁članice	-10.7428
▁kontrolira	-10.7429
▁prikazan	-10.7432
▁licu	-10.7437
▁studenti	-10.7439
sse	-10.744
ijih	-10.7441
▁urban	-10.7442
▁51	-10.7446
▁karte	-10.7446
▁Yorku	-10.7447
▁dodatnih	-10.7451
▁oboje	-10.7455
nsko	-10.7456
▁protivnik	-10.7459
▁Cel	-10.7461
▁Onda	-10.7463
▁ispita	-10.7463
▁obiteljske	-10.7467
kove	-10.7467
▁spominj	-10.7468
▁dobrobit	-10.7469
▁inzistira	-10.7471
▁izgubljen	-10.7471
▁lokaciji	-10.7471
▁Norvešk	-10.7471
▁lokacije	-10.7471
▁mađarsk	-10.7471
▁količine	-10.7471
▁inovativn	-10.7471
▁Gruzij	-10.7471
▁tvari	-10.7472
▁srcu	-10.7472
▁politička	-10.7472
▁kri	-10.7472
▁Severina	-10.7473
▁obrt	-10.7473
▁konačnici	-10.7474
▁Americi	-10.7476
▁detalja	-10.7476
▁obrazovn	-10.7476
▁Mislav	-10.748
▁vezano	-10.7484
▁traga	-10.7486
▁Luci	-10.7487
▁hrvatsko	-10.7487
▁hrani	-10.7489
▁Petrović	-10.7489
▁Važno	-10.7493
▁teškim	-10.7498
▁veli	-10.7499
▁volio	-10.7504
▁reagirao	-10.7504
▁lijek	-10.7508
▁for	-10.7511
26	-10.7513
▁formira	-10.7515
▁isključen	-10.7517
▁Američk	-10.7518
▁samostaln	-10.7518
▁bijeli	-10.7518
▁zdravstvenih	-10.7518
▁veću	-10.7519
▁Isp	-10.752
▁lansira	-10.7525
irane	-10.7526
▁Moja	-10.7528
▁invaliditetom	-10.753
▁oporavak	-10.753
▁promovira	-10.753
▁posjetitelja	-10.753
▁sudjeluju	-10.753
▁Vozač	-10.753
▁praktički	-10.753
▁Miroslav	-10.753
▁stižu	-10.7531
▁savjetnik	-10.7533
▁današnje	-10.7538
▁sastavu	-10.7542
▁napet	-10.7543
▁poboljšati	-10.7547
▁propust	-10.755
▁Vit	-10.7551
▁Dani	-10.7551
▁otvaranje	-10.7552
▁cijenama	-10.7552
▁sjevern	-10.7565
▁Donalda	-10.7565
▁Hol	-10.757
▁posljednjem	-10.757
▁međusobno	-10.7575
lf	-10.7575
▁razina	-10.758
▁manjina	-10.758
▁kvart	-10.7583
▁smanji	-10.7585
▁emocija	-10.7589
▁ispunjava	-10.7589
▁maslinov	-10.7589
▁Domagoj	-10.7589
▁stotine	-10.7589
▁težak	-10.7589
▁76	-10.759
▁vijeće	-10.7591
▁nacionalnih	-10.7592
▁Hamas	-10.7595
▁snazi	-10.7596
▁osigurali	-10.7599
▁Marijan	-10.76
▁posu	-10.7601
▁zamijeniti	-10.7602
▁pošten	-10.7603
▁javila	-10.7605
▁dobrih	-10.7605
▁@	-10.7605
▁niže	-10.7606
▁2024	-10.7609
▁fantastičn	-10.7609
▁Gal	-10.7614
▁dim	-10.7615
▁krene	-10.7618
▁ključna	-10.7618
Brak	-10.7618
▁izjava	-10.7621
▁pokriva	-10.7622
▁vjern	-10.7623
▁2000	-10.7626
▁zra	-10.7631
▁ostatk	-10.7634
▁zaslu	-10.7636
▁učinkovitost	-10.764
elja	-10.764
▁odnosima	-10.7642
▁nasiln	-10.7644
šiti	-10.7646
▁plesa	-10.7647
▁Aleksandar	-10.7648
▁Austrija	-10.7648
▁tjedno	-10.7649
▁roditelje	-10.7649
05	-10.7649
▁dvadeset	-10.765
▁prihvaća	-10.765
▁javio	-10.7651
rada	-10.7651
▁Rim	-10.7652
▁izrazio	-10.7654
▁stavio	-10.7656
▁Alban	-10.7656
▁visokim	-10.7659
▁čudo	-10.766
▁dodatak	-10.7661
▁rizika	-10.7673
pasti	-10.7673
▁albuma	-10.7674
▁dobrim	-10.7676
▁Češk	-10.7677
▁izvijestili	-10.7678
čice	-10.7679
miješajte	-10.7682
-2	-10.7684
▁primio	-10.7685
tičar	-10.7686
▁Vel	-10.7687
Kad	-10.7691
▁malim	-10.7693
▁treninga	-10.7696
▁Air	-10.77
▁utakmicama	-10.7702
▁primarn	-10.7703
ere	-10.7706
▁odigra	-10.7707
=	-10.7707
▁Lokomotive	-10.7708
▁konferencije	-10.7708
▁objekata	-10.7708
▁zabavlja	-10.7708
▁najbliž	-10.7708
▁najboljeg	-10.7709
▁druži	-10.7709
▁nikoga	-10.7709
VA	-10.7709
▁osnovi	-10.771
▁kreću	-10.771
▁odakle	-10.7712
▁upozorenja	-10.7712
▁vagi	-10.7713
lak	-10.7715
▁63	-10.7716
▁formi	-10.7719
▁mladima	-10.7722
▁Dar	-10.7723
rta	-10.7725
▁potpun	-10.7725
▁isporu	-10.7726
▁objavljeno	-10.7727
▁Imat	-10.7727
▁blagdansk	-10.7727
▁Matej	-10.7728
▁otvorila	-10.773
▁Frank	-10.7731
▁ušla	-10.7731
▁kolovozu	-10.7732
▁otkri	-10.7735
▁Bad	-10.7739
▁Mali	-10.7739
▁trenutn	-10.7741
▁bolesn	-10.7744
▁lagano	-10.7745
rak	-10.7746
▁praktičn	-10.7747
▁provoditi	-10.7749
▁nosila	-10.7753
▁našli	-10.7754
▁Međimur	-10.7756
rice	-10.7756
▁razum	-10.7757
70	-10.7757
▁ostaju	-10.7759
▁američkih	-10.7762
▁Mile	-10.7763
▁PO	-10.7766
▁Auto	-10.7766
▁pripremiti	-10.7767
▁Uskrs	-10.7769
▁ukazuje	-10.7769
▁lopta	-10.7769
▁izjavu	-10.7769
▁MUP	-10.777
▁vozači	-10.7772
▁recimo	-10.7778
▁kontaktira	-10.7779
▁politici	-10.7781
▁povratka	-10.7782
▁zakonsk	-10.7783
▁pritvor	-10.7785
▁govorili	-10.7791
▁partnerima	-10.7792
▁daljnji	-10.7792
▁stranice	-10.7794
▁pokušaja	-10.7796
▁priznati	-10.7798
▁tursk	-10.7799
▁predstavi	-10.7801
▁izdava	-10.7804
▁kažem	-10.7809
NK	-10.781
▁javnih	-10.7812
▁EUR	-10.7814
▁mla	-10.7817
ds	-10.7817
itelji	-10.7819
▁liga	-10.7819
▁komun	-10.7821
valo	-10.7823
▁uključuju	-10.7824
▁boravak	-10.7829
▁investicije	-10.7829
▁pravde	-10.7829
▁općenito	-10.7829
▁stanovnici	-10.7829
▁prevencij	-10.7829
▁Col	-10.7829
▁probudi	-10.7829
▁pretvara	-10.783
▁sportaš	-10.783
▁namirnica	-10.7831
▁ženu	-10.7832
▁skr	-10.7832
▁turisti	-10.7832
▁Horvat	-10.7833
▁Rijeku	-10.7834
▁jeftinij	-10.7839
▁Ništa	-10.784
▁ligu	-10.7845
tječe	-10.785
▁sloj	-10.7854
Od	-10.7855
unarodn	-10.7856
▁seksualno	-10.7857
▁definira	-10.7858
▁57	-10.7861
▁obr	-10.7863
▁sastoj	-10.7864
alost	-10.7864
▁sportskog	-10.7866
▁ekološk	-10.7867
▁roka	-10.7867
nošću	-10.7867
▁duže	-10.7873
bić	-10.7874
▁Ulic	-10.7877
▁pozivaju	-10.7878
▁trudi	-10.7879
▁Konferencijsk	-10.7881
viz	-10.7882
▁Ros	-10.7882
▁konj	-10.7886
▁Gradskog	-10.7888
nin	-10.789
▁nestabiln	-10.789
▁Taylor	-10.789
▁korupcije	-10.789
▁policajci	-10.789
▁uspjeti	-10.789
▁povezuje	-10.789
▁dodavši	-10.789
▁pojasnio	-10.789
▁naprijed	-10.7891
▁napustiti	-10.7891
▁utrka	-10.7893
▁pregovara	-10.7893
▁Pol	-10.7893
▁poručuje	-10.7894
▁radnici	-10.7895
▁Con	-10.7897
▁stajal	-10.7898
▁navela	-10.7898
▁koncertu	-10.7903
▁osmo	-10.7905
▁sportaši	-10.7908
▁Puli	-10.7908
▁provjeriti	-10.7908
▁kosu	-10.7912
▁onog	-10.7912
▁ravnatelja	-10.7914
▁odgovorila	-10.7915
▁električne	-10.7918
▁stoje	-10.7921
▁smatram	-10.7923
▁srednji	-10.7924
ovci	-10.7925
▁čest	-10.7927
više	-10.7928
▁pamti	-10.7931
▁našla	-10.7934
▁najam	-10.7935
▁Lov	-10.7936
▁izvodi	-10.7939
jeg	-10.7943
njaci	-10.7944
▁moji	-10.7946
▁izlet	-10.7951
▁dozvola	-10.7952
▁naknade	-10.7952
▁platforma	-10.7952
▁obveze	-10.7952
▁sjednice	-10.7952
▁informaciju	-10.7952
▁tragičn	-10.7953
▁Anušić	-10.7953
▁krize	-10.7954
pod	-10.7954
▁aktivnost	-10.7955
▁predstava	-10.7958
▁koša	-10.796
▁Ger	-10.7962
▁umro	-10.7963
21	-10.7963
▁održavanja	-10.7973
▁napuni	-10.7973
▁diza	-10.7973
▁bijes	-10.7973
▁Sir	-10.7976
▁prikuplja	-10.798
▁socijalne	-10.7982
▁otvoreni	-10.7982
▁brine	-10.7984
▁Koji	-10.799
▁Rak	-10.7991
▁privatni	-10.7993
▁govorimo	-10.7995
▁kostim	-10.7997
godišnje	-10.8
▁Darko	-10.8002
čnost	-10.8007
▁napadača	-10.8008
▁rez	-10.801
▁natje	-10.8012
▁dozvole	-10.8013
▁spremna	-10.8013
▁suradnja	-10.8013
▁potvrđuje	-10.8013
▁smisla	-10.8013
▁izrazito	-10.8014
▁obilježil	-10.8014
▁izgledati	-10.8014
▁Butković	-10.8014
▁pokazatelj	-10.8014
▁tisuću	-10.8015
ssi	-10.8016
▁potrazi	-10.8016
Vi	-10.8018
▁Francuskoj	-10.8018
▁kat	-10.8019
▁62	-10.802
▁vije	-10.8023
▁proveli	-10.8023
vina	-10.8028
▁postupa	-10.803
▁važni	-10.8031
▁kolegi	-10.8031
▁korisnik	-10.8033
info	-10.8036
▁zavoda	-10.8037
▁Valentin	-10.804
▁prijaviti	-10.804
▁radove	-10.8045
▁snimka	-10.8048
▁NK	-10.8052
▁prometni	-10.8052
▁izdr	-10.8054
▁Oba	-10.8055
▁Ruski	-10.8055
▁borben	-10.8058
▁sjeveru	-10.8059
▁Svaka	-10.8063
▁Isus	-10.8064
▁fakulteta	-10.8064
▁Predstav	-10.8073
▁središnje	-10.8073
▁Rujevici	-10.8075
▁sastanku	-10.8075
▁ekonomski	-10.8075
▁prevezen	-10.8075
▁svojevrsn	-10.8075
štvu	-10.8076
▁obožavatelji	-10.8076
▁pokrenut	-10.8077
▁DHMZ	-10.8079
vaj	-10.808
ijem	-10.808
▁predivn	-10.8081
▁osmijeh	-10.8082
▁53	-10.8085
▁potreban	-10.8085
▁€	-10.8088
▁udari	-10.8091
▁Danijela	-10.8092
▁jedinice	-10.8093
▁napla	-10.8093
▁gen	-10.8094
▁smjera	-10.8106
▁boks	-10.8107
▁oduševljen	-10.8113
▁prepoznati	-10.8113
▁Podr	-10.8115
▁fu	-10.8117
▁jači	-10.8126
▁uređen	-10.8127
▁ideju	-10.8127
▁One	-10.8129
▁iskoristio	-10.813
▁dob	-10.8131
▁signal	-10.8137
▁kolodvor	-10.8138
▁nedostatak	-10.8138
▁opušten	-10.8138
▁emocije	-10.8138
▁kultn	-10.8138
▁provela	-10.8139
▁Kasnije	-10.8139
▁stotina	-10.8139
▁obavještajn	-10.8141
▁navodn	-10.8143
▁buduće	-10.8143
dosta	-10.8145
▁predvod	-10.8149
▁skupinu	-10.815
jske	-10.815
▁samostalno	-10.8151
▁transparent	-10.8152
tch	-10.8156
▁kose	-10.8162
▁ustvrdio	-10.8163
▁prelazi	-10.8164
nički	-10.8166
vnog	-10.8168
▁odgovoriti	-10.8168
▁javljaju	-10.817
▁Osob	-10.8171
▁Nogometaši	-10.8171
▁obvezn	-10.8173
▁ciklus	-10.8175
▁ostvarila	-10.8175
▁Juri	-10.8176
▁mesa	-10.8177
▁završili	-10.8179
▁saborski	-10.8179
▁Novog	-10.818
▁sudačk	-10.8185
▁najbolju	-10.8187
▁originaln	-10.8192
▁News	-10.8192
▁Beograd	-10.8196
▁izrazil	-10.8197
ficira	-10.8201
▁kombinacija	-10.8201
▁pokrenuo	-10.8201
▁pozornici	-10.8201
▁regija	-10.8201
▁aktivist	-10.8201
▁akciji	-10.8201
▁virus	-10.8201
▁Odmah	-10.8201
▁zagrebačkog	-10.8201
▁stilu	-10.8202
▁poduzeća	-10.8202
▁uvođenje	-10.8203
taj	-10.8204
▁prigodn	-10.8204
▁pogodil	-10.8204
▁nos	-10.8205
▁Hrvatskih	-10.8211
▁političkog	-10.8213
▁glad	-10.8214
▁članovima	-10.8214
▁Gorice	-10.8216
▁Ya	-10.8216
▁Sandra	-10.8219
raš	-10.8221
2024	-10.8221
▁prisutnost	-10.8221
▁Din	-10.8222
▁povećanja	-10.8224
pul	-10.8226
src	-10.8226
▁nastupio	-10.8227
gur	-10.8229
▁prometnih	-10.8235
▁prazni	-10.8237
▁supruge	-10.8238
▁Berlin	-10.8239
Plus	-10.8239
▁brojke	-10.8243
jedi	-10.8247
▁shvatio	-10.8257
▁osobni	-10.826
▁posvet	-10.8261
▁činjenice	-10.8264
▁izazvati	-10.8264
▁napominje	-10.8264
▁nervoz	-10.8264
▁pištolj	-10.8264
▁držati	-10.8264
▁2009.	-10.8264
▁aktivni	-10.8265
▁objavljena	-10.8265
evima	-10.8265
▁dokumentarn	-10.8266
▁Protiv	-10.8266
etvrt	-10.8266
▁Pop	-10.8267
▁smiju	-10.8267
▁krvn	-10.8268
▁djed	-10.8268
▁konzumacij	-10.8268
▁opravdan	-10.8269
▁fondova	-10.8272
▁hotelu	-10.8273
▁izdanja	-10.8279
▁Nisu	-10.8279
▁sportu	-10.828
▁vlastitu	-10.8281
▁državno	-10.8283
▁sanja	-10.8287
▁staln	-10.8289
▁pružiti	-10.8289
▁zajedni	-10.829
▁odgovarajuć	-10.8291
▁komada	-10.8297
▁dopis	-10.8299
Iz	-10.8304
▁podatak	-10.8305
▁napao	-10.8308
ićem	-10.8309
irano	-10.8311
▁proizvođač	-10.8312
▁prosjeka	-10.8312
▁Londonu	-10.8317
▁svladao	-10.8317
▁splitskog	-10.8319
▁Mc	-10.8319
▁led	-10.8319
TE	-10.832
▁Očekuje	-10.832
▁udio	-10.8321
▁detalj	-10.8323
▁cilju	-10.8325
▁Nekolik	-10.8326
▁poginulo	-10.8328
▁pravosuđa	-10.8328
▁crijeva	-10.8328
▁lopte	-10.8328
▁Voyo	-10.8328
▁utrku	-10.8328
▁baštine	-10.8328
▁navedeno	-10.8329
▁faza	-10.8329
▁visini	-10.8329
▁odličan	-10.8329
▁poslovnih	-10.833
rop	-10.833
▁čuo	-10.8331
▁možeš	-10.8332
▁dodir	-10.8333
▁Pašalić	-10.8334
▁domaćina	-10.8335
▁pouzdan	-10.8336
etvrtak	-10.834
▁dar	-10.834
▁Knin	-10.8344
▁odmora	-10.8348
▁showu	-10.8349
▁stranica	-10.835
▁viši	-10.8352
▁karti	-10.8352
▁seksualn	-10.8352
▁ponaša	-10.8353
▁Kap	-10.8355
▁Mateo	-10.8355
▁ote	-10.8356
▁Var	-10.8357
▁Gri	-10.8358
sch	-10.836
▁sredine	-10.836
pisala	-10.8366
▁istaknut	-10.8369
▁drže	-10.837
▁spomenik	-10.8375
▁miru	-10.8378
▁Rado	-10.8386
elim	-10.8392
▁inflacije	-10.8392
▁ljudska	-10.8392
▁ovlasti	-10.8392
▁industriji	-10.8392
▁naglasila	-10.8392
▁namirnice	-10.8392
▁površina	-10.8392
▁običaj	-10.8392
▁Otvoren	-10.8392
▁potrebi	-10.8392
▁obračun	-10.8392
▁uzrokovati	-10.8393
▁bran	-10.8395
IN	-10.8395
▁kamo	-10.8396
čkim	-10.8397
▁životinje	-10.8399
▁vještine	-10.8401
▁Mnog	-10.8402
▁Dario	-10.8403
▁klasi	-10.8405
▁luci	-10.8405
▁prostorima	-10.8409
bolje	-10.8411
▁ravnateljica	-10.8415
▁američk	-10.8416
▁troši	-10.8418
▁štiti	-10.8419
▁parlamenta	-10.8419
▁malu	-10.842
kninsk	-10.8424
cijski	-10.8428
▁novosti	-10.8428
▁Jedno	-10.8429
▁fokusira	-10.843
čkoj	-10.843
%)	-10.8431
zar	-10.8431
▁projektila	-10.8431
▁klin	-10.8432
▁tražili	-10.8436
▁gledali	-10.8436
▁čelnik	-10.8437
▁Zdravko	-10.8437
▁Sigur	-10.8437
▁sadr	-10.8439
▁dječaka	-10.844
▁Ir	-10.844
▁del	-10.8441
▁autora	-10.8442
▁tadašnj	-10.8444
Tr	-10.8445
▁demokrat	-10.8446
▁kvaliteta	-10.8448
▁čvor	-10.8452
▁poginuo	-10.8456
▁raspolaganju	-10.8456
▁eksp	-10.8456
▁pismo	-10.8457
▁rasprava	-10.8457
▁Silv	-10.8458
▁odobri	-10.8458
▁scenu	-10.8458
▁sjedište	-10.8459
▁vjetra	-10.8459
▁DJ	-10.8463
▁visok	-10.8467
▁išao	-10.8472
glu	-10.8481
▁radnje	-10.8484
▁donijel	-10.8485
▁Vatreni	-10.8487
▁borac	-10.8489
▁30-	-10.8493
▁ugleda	-10.8493
▁Leon	-10.8494
▁odlučiti	-10.8495
med	-10.8497
ljivost	-10.8499
▁sok	-10.85
▁postaviti	-10.85
▁Fr	-10.85
▁postalo	-10.85
▁živote	-10.8505
▁povećal	-10.8509
AK	-10.851
▁1,5	-10.8515
▁glasi	-10.8517
▁redovit	-10.8517
svoj	-10.8521
▁ugostiteljsk	-10.8521
▁promijenio	-10.8521
▁Republici	-10.8521
▁UEFA	-10.8521
▁platforme	-10.8521
▁tretman	-10.8521
▁Vedran	-10.8521
▁crkvi	-10.8522
▁napisali	-10.8522
▁izvješće	-10.8522
▁Orban	-10.8523
▁Radio	-10.8524
▁tekstu	-10.8524
▁poveo	-10.8524
▁miješa	-10.8525
▁Broj	-10.8526
▁Znam	-10.8527
▁nimalo	-10.8528
▁zajednici	-10.8529
▁poslati	-10.8531
▁trebale	-10.8537
▁osjećam	-10.8538
▁Joško	-10.8538
lud	-10.8539
▁imenovan	-10.854
▁izbaci	-10.8543
▁snimanja	-10.8545
▁poljsk	-10.8545
LI	-10.8546
▁rek	-10.8546
loga	-10.8549
▁upoznali	-10.8553
▁ključno	-10.8555
▁56	-10.8556
▁glazbene	-10.856
▁Kijev	-10.8561
▁osigurala	-10.8561
▁neposredno	-10.8565
0)	-10.8566
▁Bud	-10.8568
▁prag	-10.8571
lazak	-10.8572
▁Las	-10.8575
▁fakultetu	-10.8579
▁Ven	-10.858
▁šefa	-10.8585
rskog	-10.8586
▁sporn	-10.8586
▁ponedjeljka	-10.8587
▁drugačiji	-10.8587
▁dviju	-10.8587
▁pandemije	-10.8587
▁procijeni	-10.8587
▁zauzima	-10.8588
▁slavili	-10.859
▁koncu	-10.859
▁zdravstvo	-10.8591
ničar	-10.8592
▁potrebn	-10.8594
▁predsjedniku	-10.86
▁periodu	-10.8601
▁agent	-10.8603
▁brata	-10.8606
▁Srbiju	-10.8607
▁talentiran	-10.861
▁67	-10.8611
▁srušio	-10.8613
▁Lijep	-10.8613
▁kupio	-10.8613
škom	-10.8614
▁kavu	-10.8616
▁Matić	-10.8617
ekivan	-10.8625
▁službene	-10.8627
▁plin	-10.8628
▁kombinira	-10.863
bota	-10.8638
▁Danijel	-10.8638
▁odobren	-10.8639
▁trećeg	-10.8641
▁mjesečn	-10.8644
▁preuzima	-10.8652
▁potaknuti	-10.8652
▁poljoprivrede	-10.8652
▁pretežno	-10.8652
▁sudjelovala	-10.8652
▁muškarce	-10.8652
▁obnovu	-10.8652
▁isproba	-10.8653
▁multi	-10.8654
▁potiče	-10.8654
▁Dodik	-10.8654
▁sačuva	-10.8654
▁kampanja	-10.8654
▁pušten	-10.8654
▁brzinu	-10.8656
▁vašeg	-10.8656
▁slučajno	-10.8657
▁razvijen	-10.8657
▁Portugala	-10.8661
ženi	-10.8664
▁Vol	-10.8666
▁testira	-10.8666
RT	-10.867
▁sunca	-10.8671
▁glavnih	-10.8672
▁najavila	-10.8675
▁protivnika	-10.8675
▁Otkri	-10.8676
▁Sva	-10.8678
ans	-10.8681
▁obiteljski	-10.8682
▁kulturn	-10.8683
nčić	-10.8685
▁Imam	-10.8686
▁užas	-10.8687
▁komentirati	-10.8692
▁Chi	-10.8693
▁Dim	-10.8698
▁Brun	-10.8699
zgr	-10.8699
▁ministrica	-10.8701
▁plaćanja	-10.8704
▁dija	-10.8705
▁bolju	-10.8705
duk	-10.8707
ney	-10.8711
▁složen	-10.8712
▁Kim	-10.8713
▁Ostal	-10.8716
▁poznatog	-10.8717
▁mišljenja	-10.8719
▁upućen	-10.8719
▁dramatičn	-10.8719
▁industrijsk	-10.8719
▁predstave	-10.8719
▁snimku	-10.8719
▁registriran	-10.872
▁višestruk	-10.872
▁izborni	-10.8722
▁Općina	-10.8723
evoj	-10.8725
▁britanski	-10.8725
▁Pavić	-10.8729
▁Kul	-10.8729
▁obilježavanj	-10.8736
▁internetu	-10.8738
▁nesretn	-10.8738
▁pogledu	-10.8743
ting	-10.8744
▁Kol	-10.875
▁mladim	-10.8754
▁pucao	-10.8756
▁izgubiti	-10.8756
▁najavljuje	-10.8757
▁zabavi	-10.8759
▁Francuz	-10.876
▁vozio	-10.8762
▁Madrida	-10.8763
▁mentalno	-10.8764
▁suprotn	-10.8766
▁eksperiment	-10.8767
On	-10.8774
▁okolnostima	-10.8779
▁Lje	-10.8784
▁ponuditi	-10.8785
▁Tuđman	-10.8785
▁potpora	-10.8785
▁Es	-10.8786
▁Njemačku	-10.8786
▁rješava	-10.8787
▁Mladost	-10.8789
▁posebnim	-10.879
▁istim	-10.8791
▁Kalinić	-10.8794
▁zagr	-10.8795
▁čvrst	-10.8795
▁jutra	-10.8798
▁obraz	-10.8803
▁shvaća	-10.8804
▁kratkom	-10.8806
▁Rusiju	-10.8807
▁ključne	-10.8807
▁IT	-10.8809
▁savezn	-10.8809
▁poduzetnik	-10.8811
SS	-10.8811
pjeva	-10.8811
▁vještina	-10.8814
▁glazbeno	-10.8821
▁potroši	-10.8822
▁sredini	-10.8825
▁Ram	-10.8825
ther	-10.8827
rist	-10.8828
▁najmanj	-10.8828
▁odavno	-10.8829
▁ključ	-10.8829
Moj	-10.8834
jača	-10.8837
▁videa	-10.8839
▁poslala	-10.884
▁najvećim	-10.8844
▁obožava	-10.8852
jević	-10.8852
▁dijelove	-10.8852
▁drukčij	-10.8852
▁epizoda	-10.8852
▁menadžer	-10.8852
▁stražnj	-10.8853
▁Lar	-10.8854
▁kandidatkinja	-10.8854
▁zdravlju	-10.8858
▁Dončić	-10.8861
▁nedavn	-10.8861
▁junior	-10.8863
▁slučajevima	-10.8864
▁ukras	-10.8865
▁jasan	-10.8866
▁dječj	-10.8869
rnu	-10.8869
▁igrala	-10.887
▁zadnja	-10.8874
▁šokira	-10.8876
▁neugodn	-10.8878
34	-10.888
▁promjenama	-10.888
▁prevelik	-10.8881
q	-10.8882
▁projektil	-10.8882
▁segment	-10.8882
▁nosio	-10.8882
▁mlađ	-10.8887
▁živimo	-10.8888
njaka	-10.889
▁ozlijeđenih	-10.889
▁ogled	-10.8893
▁izboru	-10.8894
▁Hamasa	-10.8894
▁Berlinu	-10.8898
OS	-10.89
▁Najveći	-10.8902
▁Kost	-10.8904
▁ozbiljne	-10.8905
zemlj	-10.8906
▁legendarni	-10.8911
▁kritika	-10.8915
▁ubacio	-10.8917
▁Dragi	-10.8917
▁centimetara	-10.892
▁kvalitetno	-10.892
▁televiziji	-10.892
▁četvrtfinale	-10.892
▁podržati	-10.892
▁biznis	-10.892
▁skriven	-10.8921
▁kazališn	-10.8921
▁odradio	-10.8921
/2	-10.8924
▁droge	-10.8926
▁tehnički	-10.8929
▁objasniti	-10.893
▁prešao	-10.8931
▁droga	-10.8934
▁značajan	-10.8934
▁najboljim	-10.8935
▁tren	-10.8935
ring	-10.8937
▁seriju	-10.8938
▁tebe	-10.8938
▁Mara	-10.8938
▁imalo	-10.8939
▁Španjolskoj	-10.894
▁djevoj	-10.894
▁co	-10.8941
▁ratni	-10.8944
▁muzeja	-10.8945
▁Kina	-10.8948
▁Pep	-10.8951
▁ravno	-10.8951
▁istraži	-10.8957
▁Vlah	-10.8959
▁utje	-10.8959
▁saveznik	-10.8964
▁obaveza	-10.8965
dine	-10.8966
ivali	-10.8968
Q	-10.8968
▁Rus	-10.8968
lažu	-10.897
▁Pret	-10.8978
▁žal	-10.8979
▁Port	-10.8979
zir	-10.898
▁naveden	-10.8983
▁civiln	-10.8985
▁funkciju	-10.8988
▁mjestimice	-10.8988
▁Vrijeme	-10.8988
▁industrija	-10.8988
▁glup	-10.8989
▁Medved	-10.8989
▁ozlijedio	-10.8989
▁Stipe	-10.8989
▁parking	-10.8991
▁Tru	-10.8994
▁mah	-10.8995
▁trideset	-10.8995
▁dopusti	-10.8999
▁zub	-10.9
lac	-10.9003
Mar	-10.9004
▁Svjetsko	-10.9007
▁izračun	-10.9008
13	-10.9008
encija	-10.901
▁700	-10.9016
▁svojeg	-10.9027
▁obnovi	-10.9028
živi	-10.9029
▁visokih	-10.9034
▁59	-10.9038
▁nekome	-10.904
▁mil	-10.9042
▁kulturno	-10.9045
▁Volim	-10.9047
▁Sab	-10.9048
▁strijel	-10.905
▁Pres	-10.9052
▁Tro	-10.9054
▁svježe	-10.9055
á	-10.9057
ö	-10.9057
▁odvjetništvo	-10.9057
▁rasprave	-10.9057
▁mozga	-10.9057
▁prirodi	-10.9057
▁prijetnja	-10.9057
▁nastoji	-10.9058
▁uspijeva	-10.9061
ET	-10.9061
▁Vili	-10.9062
▁Odgovor	-10.9063
▁sobe	-10.9064
▁Rusk	-10.9065
▁prihvatljiv	-10.9068
▁skromn	-10.9069
▁opcije	-10.9071
▁okruženju	-10.9072
laskom	-10.9072
▁poštovanje	-10.9072
▁postignut	-10.9075
▁mode	-10.9076
▁vrhunski	-10.9077
▁optužbe	-10.9078
▁proizvodnja	-10.9079
▁programe	-10.9082
▁Bačić	-10.9083
▁umjetnika	-10.9083
▁metra	-10.9088
▁priznaje	-10.9088
tika	-10.9089
▁uzbu	-10.9091
48	-10.9091
▁podignut	-10.9091
▁imenom	-10.9092
':	-10.9094
▁posebna	-10.9096
▁dogovoren	-10.9098
▁1:0	-10.9099
▁bal	-10.9101
▁domaćem	-10.9103
rot	-10.9104
▁stavit	-10.9105
▁Il	-10.9105
▁baci	-10.9105
▁PR	-10.9106
▁benda	-10.9111
čina	-10.9113
▁kvalifikacija	-10.9114
njeg	-10.9119
▁HR	-10.912
▁Pobjed	-10.912
3)	-10.9124
▁doživljaj	-10.9126
▁nezaboravn	-10.9126
▁sponzor	-10.9126
▁medicine	-10.9126
▁svrhu	-10.9126
▁Vijeća	-10.9126
▁valjda	-10.9126
▁razmatra	-10.9126
▁švedsk	-10.9126
▁bruto	-10.9126
▁2006.	-10.9126
▁2008.	-10.9126
▁Večernji	-10.9127
▁vrstu	-10.9127
▁završnici	-10.913
▁uzgoj	-10.9131
▁dovoljn	-10.9134
▁Bjel	-10.9138
▁kont	-10.9138
ign	-10.9139
▁Flo	-10.9142
▁trebati	-10.9144
▁svijesti	-10.9144
▁vjen	-10.9145
▁automobilom	-10.9145
▁izvršn	-10.9145
▁svoga	-10.9146
▁shvatiti	-10.9147
▁prijavi	-10.9149
▁TikToku	-10.915
▁poboljšanje	-10.9154
▁tajna	-10.9154
▁doživjela	-10.9154
▁realizira	-10.9155
▁Križ	-10.9156
▁(5	-10.9156
▁rukometn	-10.9164
▁službeni	-10.9164
▁žrtva	-10.9167
ON	-10.917
▁sportaša	-10.917
▁jeseni	-10.9173
▁otkup	-10.9174
▁scena	-10.9179
▁ml	-10.9184
▁radilo	-10.9189
hop	-10.9191
▁dodaju	-10.9192
▁ručn	-10.9194
▁Vis	-10.9195
▁Dortmund	-10.9195
▁genocid	-10.9195
▁naoružan	-10.9195
▁poluvremena	-10.9195
▁uzastopn	-10.9195
▁činjenicu	-10.9195
▁autocesti	-10.9195
▁najuspješnij	-10.9195
▁prestižn	-10.9195
▁omjer	-10.9196
▁presudi	-10.9197
▁Video	-10.9198
▁granicu	-10.92
▁zaustavi	-10.9202
▁zone	-10.9204
▁dizajner	-10.9205
▁Izraelu	-10.9209
▁povr	-10.921
▁međusobn	-10.9212
▁lošij	-10.9212
▁državnih	-10.9218
▁trans	-10.9219
lly	-10.922
▁stope	-10.9223
▁plastičn	-10.9223
▁play	-10.9227
▁Libanon	-10.9229
▁sram	-10.9231
▁puna	-10.9233
▁predmeta	-10.9236
racija	-10.9239
▁vezane	-10.924
▁upoznao	-10.9241
▁vino	-10.9242
▁vođen	-10.9243
▁kralja	-10.9244
▁angažira	-10.9244
▁sufinancira	-10.9246
▁otvori	-10.9247
▁pokušaju	-10.9249
▁Nagrad	-10.925
▁plavi	-10.9251
jedni	-10.9251
▁proz	-10.9253
▁slučaja	-10.9255
▁go	-10.9259
▁Pin	-10.926
▁Međunarodn	-10.9262
mišlja	-10.9262
▁incidenta	-10.9263
▁dostupan	-10.9265
▁integracij	-10.9265
▁istaknuli	-10.9265
▁osobne	-10.9265
▁pozornicu	-10.9265
▁PDV	-10.9265
▁okupljeni	-10.9265
▁podsjetio	-10.9265
▁2010.	-10.9265
▁Gdje	-10.9265
▁Postoje	-10.9266
▁prezime	-10.9266
▁Angel	-10.9268
▁Kini	-10.9269
▁oslobođen	-10.927
rstva	-10.927
▁osumnjičen	-10.9271
▁Miro	-10.9272
puca	-10.9274
▁č	-10.9275
▁priznanja	-10.9277
▁baka	-10.9278
▁budi	-10.9278
SA	-10.9282
▁kombi	-10.9285
▁čišćenje	-10.9286
▁KS	-10.9291
.500	-10.9299
država	-10.9303
▁reagirati	-10.9303
▁Maro	-10.9305
▁vlasnici	-10.9307
▁čudi	-10.9308
▁demografsk	-10.9312
▁izvještava	-10.9312
velike	-10.9314
▁Boban	-10.9314
▁istinu	-10.9314
▁oporbe	-10.9321
▁bek	-10.9322
▁automobilu	-10.9326
▁Sigurno	-10.9327
▁snažni	-10.9328
▁sabora	-10.9329
▁sprije	-10.9329
▁mlađi	-10.9331
ajno	-10.9332
▁kaos	-10.9334
▁pune	-10.9335
▁Austriji	-10.9335
▁Salzburg	-10.9335
▁izvedbe	-10.9335
▁zatražil	-10.9335
▁druženje	-10.9335
▁srebrn	-10.9336
▁gospodarski	-10.9336
▁Macron	-10.9336
▁nerijetk	-10.9336
▁Kremlj	-10.9336
▁prehramben	-10.9338
▁opisao	-10.9338
▁sadrži	-10.9338
rik	-10.9338
▁sjajan	-10.934
▁poražen	-10.9341
▁zapis	-10.9341
▁Amerike	-10.9341
-19	-10.9342
▁nemojte	-10.9342
vani	-10.9342
▁ispali	-10.9343
▁maslac	-10.9344
▁kulturne	-10.9344
▁Djeca	-10.9347
▁sugerira	-10.9347
▁Vidi	-10.935
ženje	-10.9352
▁Marković	-10.9352
▁podijeliti	-10.9353
▁pića	-10.9354
▁Neven	-10.9356
đan	-10.9359
osje	-10.936
▁građansk	-10.9361
▁člana	-10.9364
▁stara	-10.9365
▁jednostavni	-10.9368
▁gradskog	-10.9369
▁planet	-10.937
▁osmin	-10.9377
▁itd	-10.9378
▁Krk	-10.9378
▁Mogl	-10.938
sport	-10.9382
▁opć	-10.9386
@	-10.9386
DI	-10.9387
▁dobrog	-10.9395
▁poslali	-10.9395
▁protein	-10.9398
izaciju	-10.94
▁Musk	-10.94
▁boravka	-10.9401
▁državama	-10.9404
etku	-10.9405
▁Gradonačelnik	-10.9406
▁Jugoslavije	-10.9406
▁Mjesec	-10.9406
▁Muškarac	-10.9406
▁administracij	-10.9406
▁prikupljen	-10.9406
▁Sarajevu	-10.9406
▁Saudijsk	-10.9406
▁trbuh	-10.9406
▁atentat	-10.9406
▁dramsk	-10.9407
▁2:0	-10.9407
▁68	-10.9408
bama	-10.941
▁specijaln	-10.9413
▁podnijeti	-10.9413
▁utjecal	-10.9413
▁Nikolina	-10.9415
8)	-10.9415
▁realno	-10.9415
▁voća	-10.9416
▁obiteljima	-10.9418
▁gura	-10.942
▁Šarić	-10.9421
▁Zapadn	-10.9422
▁članove	-10.9423
▁zoni	-10.9423
99	-10.9425
▁kasno	-10.943
▁navika	-10.9431
▁gađa	-10.9431
▁izazova	-10.9435
▁prethodni	-10.9436
▁vidjet	-10.9437
▁slave	-10.9438
▁OI	-10.9438
▁graditi	-10.9442
▁Sučić	-10.9445
miješa	-10.9447
▁uzbuđen	-10.9447
▁Mato	-10.9449
▁mladog	-10.9453
▁kompletn	-10.9456
ištima	-10.9456
▁donijeli	-10.9459
ivotu	-10.946
▁imale	-10.9462
▁žiri	-10.9471
tekao	-10.9472
▁usporedi	-10.9472
▁voziti	-10.9472
▁kontinent	-10.9473
▁urednik	-10.9477
▁popularnost	-10.9477
▁Barcelona	-10.9478
▁ogroman	-10.9478
▁pripremu	-10.9478
▁Advent	-10.9478
▁staklen	-10.9478
▁izašli	-10.9478
▁faze	-10.9478
▁odlična	-10.9478
▁transport	-10.9478
▁staze	-10.9478
▁privatnom	-10.9479
▁Antun	-10.9479
▁Zapravo	-10.948
▁grčk	-10.9483
▁stvoren	-10.9483
▁graničn	-10.9484
▁presuda	-10.9485
▁zaustavlja	-10.9485
▁umirovljenika	-10.9487
▁zahvaliti	-10.9487
VI	-10.9487
▁nastavljaju	-10.9488
▁osobnih	-10.9493
▁kontra	-10.9494
▁vidljivo	-10.9494
▁Roman	-10.9499
kopa	-10.9499
▁mojoj	-10.9501
▁privlači	-10.9502
▁pokloni	-10.9504
sy	-10.9505
▁Državnog	-10.9505
▁direkt	-10.9506
▁nemoguće	-10.9512
▁takvog	-10.9512
▁domaćeg	-10.9514
▁rukomet	-10.9516
ford	-10.9517
▁pohvaliti	-10.9521
▁Osje	-10.9524
▁zahvalio	-10.9526
▁takvi	-10.9529
°	-10.953
skop	-10.9531
▁poznaje	-10.9535
▁pasa	-10.9535
▁Neće	-10.9539
▁pacijenti	-10.954
malo	-10.954
▁pripadnika	-10.9541
▁osvajanje	-10.9542
St	-10.9544
▁šećera	-10.9545
▁10-	-10.9546
▁Lokomotiva	-10.955
▁koalicije	-10.955
▁podrazumijeva	-10.955
▁sigurna	-10.955
▁studenata	-10.955
▁izmjene	-10.955
▁najviši	-10.955
▁poručuju	-10.955
▁travnjak	-10.9552
▁bogatstvo	-10.9555
▁sindikata	-10.9555
▁kretanja	-10.9556
▁ovis	-10.9556
▁posljednjeg	-10.9557
▁crni	-10.9558
▁domet	-10.956
▁You	-10.956
▁studiju	-10.9561
▁uspon	-10.9561
vir	-10.9562
▁ljudsko	-10.9563
▁Mail	-10.9563
IS	-10.9568
▁govora	-10.9568
▁rekordn	-10.957
Gr	-10.9573
▁radnike	-10.9574
jevi	-10.958
▁Tin	-10.9585
▁mini	-10.9588
▁posjetitelji	-10.9595
▁Rib	-10.9595
▁bacanj	-10.9595
▁teritorij	-10.9601
▁zelene	-10.9607
▁savjetuje	-10.9608
▁tenis	-10.9608
▁drag	-10.9608
▁Slavonsk	-10.9613
▁stresa	-10.9614
▁Ulica	-10.9616
▁Leipzig	-10.9622
▁Ludbreg	-10.9622
▁dostupne	-10.9622
▁institut	-10.9622
▁gostovanju	-10.9622
▁studira	-10.9622
▁zgradi	-10.9622
▁Glazben	-10.9622
▁Premda	-10.9622
▁obavezn	-10.9622
▁NA	-10.9624
▁procjenjuje	-10.9625
▁očuvanj	-10.9626
-6	-10.9628
tski	-10.9629
▁visokog	-10.9632
▁odredi	-10.9634
▁gostujuć	-10.9635
beno	-10.9636
▁dostupni	-10.964
▁Istaknu	-10.9641
zak	-10.9642
▁tata	-10.9643
▁svejedno	-10.9644
▁mentaln	-10.9646
▁Fri	-10.9649
zirati	-10.9652
▁Mol	-10.9654
▁tolik	-10.9659
▁el	-10.966
▁manja	-10.967
▁kreira	-10.967
MO	-10.9671
▁73	-10.9671
▁plo	-10.9672
▁Želj	-10.9672
▁osobnog	-10.9689
▁jaka	-10.969
▁pogodaka	-10.969
▁Cijel	-10.9692
▁pokrenuti	-10.9693
▁Domovinskom	-10.9695
▁preminula	-10.9695
▁koalicijsk	-10.9695
▁vrijeđa	-10.9695
▁približava	-10.9695
▁sekunde	-10.9695
▁pregovora	-10.9695
▁zabave	-10.9696
▁političku	-10.9696
▁komercijaln	-10.9697
▁kviz	-10.9697
▁razumijevanje	-10.9698
▁tipa	-10.9699
▁rani	-10.9701
▁nafte	-10.9701
▁George	-10.9702
▁prošlogodišnj	-10.9702
vrsti	-10.9704
▁tenisk	-10.9704
▁srpske	-10.9707
▁Mel	-10.9707
čnik	-10.9707
▁napadima	-10.971
▁vodili	-10.971
LO	-10.9711
?!	-10.9714
▁političar	-10.9717
▁sobi	-10.9719
▁Vukovar	-10.9722
▁Ren	-10.9724
Dr	-10.9724
▁pitaju	-10.9725
▁glasati	-10.9726
▁elektroničk	-10.973
▁upoznala	-10.973
▁zauvijek	-10.9732
nošenje	-10.9736
▁brinu	-10.974
▁trgovina	-10.9741
▁nekada	-10.9741
vode	-10.9743
▁Modrića	-10.9745
▁običn	-10.9746
IJE	-10.9747
▁nebo	-10.9747
rl	-10.9749
▁pokušali	-10.9751
▁osjećaju	-10.9751
ys	-10.9752
▁Posljednji	-10.9752
▁mandatu	-10.9754
▁ljudski	-10.9755
▁izvršni	-10.9756
▁donira	-10.9764
▁debi	-10.9764
▁tank	-10.9765
▁efekt	-10.9768
▁1961	-10.9769
▁Elizabet	-10.9769
▁nezaposlen	-10.9769
▁Stefan	-10.9769
▁trajanja	-10.9769
▁Kovačević	-10.9769
▁posade	-10.9769
▁Puljak	-10.977
▁glava	-10.9771
▁noćenja	-10.9771
▁prikupi	-10.9772
32	-10.9772
▁Jandroković	-10.9772
▁Žup	-10.9776
▁trajno	-10.9776
28	-10.9781
▁brodova	-10.9781
▁slan	-10.9782
žite	-10.9786
▁kolač	-10.9792
▁Hit	-10.9793
▁visoka	-10.9794
▁dvaput	-10.9795
▁iskr	-10.98
▁72	-10.9801
▁suđenje	-10.9801
▁sabor	-10.9803
▁okružen	-10.9803
▁primili	-10.9804
ljene	-10.9804
▁smjest	-10.9807
▁okupil	-10.9807
rili	-10.9812
▁Država	-10.9814
▁vjerojatnost	-10.9815
▁pošto	-10.9818
▁AP	-10.9819
▁razvijati	-10.9823
▁(8	-10.9827
▁Reala	-10.983
▁Aleksandra	-10.9843
▁YouTube	-10.9843
▁aplikacije	-10.9843
▁inicijativu	-10.9843
▁projekcij	-10.9843
▁tragedije	-10.9843
▁četvrtfinalu	-10.9843
▁SDSS	-10.9843
▁desetljećima	-10.9843
▁psihološk	-10.9843
▁fazu	-10.9843
▁pomogao	-10.9843
▁odjeću	-10.9843
▁15-	-10.9843
▁heroj	-10.9843
▁odraditi	-10.9843
▁ZA	-10.9843
▁Opatij	-10.9844
▁izbjeći	-10.9845
▁psiholog	-10.9845
▁službenim	-10.9847
▁dijalog	-10.9847
▁kultura	-10.9847
▁zemljišta	-10.9848
ologiju	-10.985
▁Katar	-10.9851
ces	-10.9851
▁pasti	-10.9852
▁Times	-10.9856
▁startu	-10.986
▁sretna	-10.9861
▁naselje	-10.9862
▁stanice	-10.9863
▁oduvijek	-10.9866
▁njime	-10.9869
▁Sjever	-10.9871
▁primanja	-10.9872
break	-10.9874
▁Znate	-10.9875
▁širenje	-10.9877
▁Ran	-10.9881
▁najgor	-10.9891
▁soba	-10.9894
▁proval	-10.9895
▁Imal	-10.9896
ranje	-10.9899
▁vjersk	-10.9899
▁kolektivn	-10.99
▁mislio	-10.9901
▁Bogu	-10.9902
mjesečn	-10.9904
▁Petrov	-10.9908
▁idući	-10.991
▁Turudića	-10.9913
ros	-10.9915
▁neovisn	-10.9916
▁sirov	-10.9916
▁mosta	-10.9916
▁spektakularn	-10.9917
▁ekipi	-10.9917
▁tradicije	-10.9917
▁tinejdžer	-10.9917
▁Nemojte	-10.9917
▁vijek	-10.9918
▁elitn	-10.9918
▁imovinsk	-10.9918
▁nogama	-10.9918
▁pisao	-10.9918
▁dvorane	-10.9918
▁japansk	-10.9918
▁Celtic	-10.992
▁Katarina	-10.992
▁Treće	-10.992
▁Veliko	-10.9921
▁nastave	-10.9927
▁zakonu	-10.9928
▁Tomislava	-10.9928
jskom	-10.9933
ložili	-10.9934
plan	-10.9935
▁Priča	-10.9936
▁mnom	-10.9937
▁opis	-10.9937
▁oprema	-10.9945
▁Republika	-10.9947
▁Ovako	-10.9947
▁spasio	-10.9948
▁kvalifikacijama	-10.9948
▁Marijana	-10.9951
▁uređenje	-10.9952
▁izražen	-10.9953
▁pojedinci	-10.9955
rovi	-10.9955
▁radnom	-10.9963
▁željeli	-10.9964
▁dugogodišnji	-10.9965
▁Ham	-10.9971
▁marke	-10.9971
▁restoranu	-10.9972
▁stanica	-10.9974
▁zadržava	-10.9975
kuha	-10.9977
ološki	-10.9984
▁prijateljica	-10.9985
▁koristio	-10.9987
uzeo	-10.9988
▁Dali	-10.999
▁arhitekt	-10.999
▁Austrije	-10.9992
▁dijelova	-10.9992
▁glumačk	-10.9992
▁trećoj	-10.9992
▁preporučuje	-10.9992
▁blagoslov	-10.9993
▁svjetla	-10.9993
▁priveden	-10.9993
▁plaćen	-10.9993
▁fanovi	-10.9999
▁Znači	-10.9999
▁zabranjen	-11.0001
▁kotač	-11.0002
▁ATP	-11.0002
▁prestati	-11.0003
▁uređenja	-11.0005
▁obalu	-11.0008
▁neobičn	-11.0011
rstvo	-11.0017
▁rodila	-11.0025
▁obvezni	-11.0027
▁najavi	-11.0029
▁dvoboju	-11.003
▁bog	-11.0035
▁natječaja	-11.0036
▁jesen	-11.0037
metar	-11.0038
čnu	-11.0039
štvo	-11.0039
SK	-11.004
▁znakovi	-11.0047
▁Far	-11.0048
▁vodila	-11.0049
▁besplatno	-11.0049
▁ponosni	-11.0049
Ljubav	-11.005
▁automatski	-11.0056
▁suho	-11.0058
▁Mand	-11.006
▁korisn	-11.0061
▁Men	-11.0062
king	-11.0063
▁povoljn	-11.0065
▁igrat	-11.0067
▁epizode	-11.0068
▁relevantn	-11.0068
▁oporavi	-11.0068
▁opremu	-11.0068
▁inženjer	-11.0068
▁objavljuje	-11.0068
▁veteran	-11.0069
▁oružan	-11.0069
▁pretpostavlja	-11.0069
▁pitanjima	-11.007
▁nogometaši	-11.0071
▁rakete	-11.0072
▁vladu	-11.0072
▁Građani	-11.0072
▁minus	-11.0073
▁Bosni	-11.0073
▁klubovi	-11.0073
▁logor	-11.0073
▁Wal	-11.0074
▁snimanje	-11.0074
godišnjakinja	-11.0078
▁brenda	-11.008
▁Željka	-11.008
▁ovakvim	-11.0081
▁Trgu	-11.0082
▁Svjetsk	-11.0082
▁vara	-11.0082
▁cijelosti	-11.0086
nskoj	-11.0086
▁starijih	-11.0088
▁eko	-11.0088
▁zlostavlja	-11.0094
-4	-11.0094
▁lokaln	-11.0094
tona	-11.0094
▁poznatih	-11.0095
▁zapad	-11.0096
▁stao	-11.0096
▁dječje	-11.0097
▁uspore	-11.01
▁ispra	-11.01
▁privatnog	-11.0101
▁84	-11.0101
▁tajne	-11.0102
onako	-11.0103
▁kvadrata	-11.0104
▁ocijenio	-11.0105
▁talijanskog	-11.0107
▁održavaju	-11.0107
▁ulaganje	-11.0108
lnog	-11.0111
▁naknadno	-11.0112
▁osumnjičeni	-11.0115
▁dvoboja	-11.0116
▁maj	-11.0117
▁pješa	-11.0121
▁rasti	-11.0121
▁prometnu	-11.0127
bina	-11.0128
▁napredn	-11.0129
vijesti	-11.0133
igi	-11.0135
dat	-11.0139
▁poplava	-11.0144
▁Jennifer	-11.0145
▁Premier	-11.0145
▁cjelokupn	-11.0145
▁dodijeljen	-11.0145
▁glazba	-11.0145
▁gužve	-11.0145
▁investicijsk	-11.0145
▁uspješan	-11.0145
▁München	-11.0145
▁komunikacija	-11.0145
▁ozbiljan	-11.0145
▁Govori	-11.0145
▁točnije	-11.0145
▁postigli	-11.0145
▁srčan	-11.0145
▁Šimun	-11.0145
▁Studij	-11.0145
▁suglasnost	-11.0145
▁vinograd	-11.0146
Zahvaljujući	-11.0146
▁knjizi	-11.0146
▁Jones	-11.0147
▁obratio	-11.015
▁predvi	-11.0151
▁plakat	-11.0153
▁ulaska	-11.0153
rel	-11.0154
▁promijenilo	-11.0156
▁žao	-11.0156
▁granici	-11.0157
▁Vuj	-11.0157
▁uhi	-11.016
pravni	-11.0162
▁prethodne	-11.0164
▁Dž	-11.0166
▁rubu	-11.0166
reb	-11.0167
▁svjestan	-11.0167
▁zamisliti	-11.0168
▁prekršajn	-11.0169
▁obli	-11.0172
▁Policijski	-11.0174
ijeg	-11.0174
▁daljnj	-11.0176
▁Državni	-11.0178
▁voza	-11.0179
▁strašn	-11.0185
▁doseg	-11.0185
▁800	-11.019
▁služba	-11.0194
▁nacionalnog	-11.0196
▁izradi	-11.0202
▁Dino	-11.0203
▁trgova	-11.0207
▁Gotovo	-11.0209
▁kriti	-11.0209
▁zabava	-11.021
▁Pav	-11.021
▁Ivic	-11.0212
▁partnerom	-11.0215
▁Dodaj	-11.0218
▁gledaju	-11.022
▁Države	-11.0221
▁tradiciju	-11.0221
▁instrument	-11.0222
▁Thomas	-11.0222
▁cestovn	-11.0222
▁stiglo	-11.0222
▁promicanj	-11.0222
▁Belupo	-11.0222
▁pravilima	-11.0222
▁obuhvaća	-11.0222
▁podržal	-11.0222
▁nabave	-11.0222
▁zagrebačke	-11.0223
▁izvješća	-11.0223
▁staza	-11.0223
ložit	-11.0224
▁naučiti	-11.0226
▁umu	-11.0227
▁povratku	-11.0231
▁otvaranju	-11.0232
▁Vidović	-11.0233
▁Arsenal	-11.0235
*	-11.0238
▁dužnosnik	-11.0239
vukao	-11.0239
▁eto	-11.0243
▁glazbenika	-11.0245
▁promijenila	-11.0245
▁završilo	-11.0246
▁govorila	-11.0246
▁plovi	-11.0248
▁dnevni	-11.0248
▁neovisno	-11.0253
▁privatne	-11.0254
▁udarca	-11.0255
vnih	-11.0259
▁prsten	-11.0262
▁Nacionalnog	-11.0264
▁bijeg	-11.0264
▁parkira	-11.0265
▁šali	-11.0265
▁uvjerljivo	-11.0268
Pri	-11.0271
▁Pos	-11.0272
▁zadnjem	-11.0275
▁kave	-11.0279
▁dobitnik	-11.0285
ćuje	-11.0288
▁Američki	-11.0291
▁malom	-11.0297
▁Barcelone	-11.0299
▁Telegram	-11.0299
▁dozvolu	-11.0299
▁kombinaciji	-11.0299
▁mlijeka	-11.0299
▁reakciju	-11.0299
▁sankcija	-11.0299
▁trajanju	-11.0299
▁manifestacija	-11.0299
▁metoda	-11.0299
▁sumnjiv	-11.0299
▁vozilima	-11.0299
▁raspravlja	-11.03
▁obraća	-11.03
▁stvarima	-11.03
▁Budimir	-11.03
▁Liv	-11.03
▁nikome	-11.0301
▁ispitanika	-11.0302
▁rodi	-11.0303
▁zaštititi	-11.0303
▁povjerenja	-11.0304
▁majku	-11.0306
▁Škol	-11.0307
▁podnijel	-11.0309
▁grupi	-11.031
▁tjera	-11.0311
▁Zajec	-11.0312
etkom	-11.0314
▁opterećen	-11.032
▁poduzetnika	-11.0321
▁dugu	-11.0322
▁detalji	-11.0323
▁10.000	-11.0326
▁duge	-11.0328
▁izgledaju	-11.0331
▁išli	-11.0332
41	-11.0337
▁kritičn	-11.0339
čnih	-11.0341
▁gledao	-11.0341
▁kras	-11.0343
▁opisuje	-11.0343
▁Čeka	-11.0344
▁Marcel	-11.0345
▁lokalni	-11.0347
▁bračn	-11.035
▁pozicija	-11.0353
pravno	-11.0354
▁krije	-11.0359
▁ometa	-11.036
▁vojnog	-11.0362
▁straha	-11.0362
▁gospo	-11.0362
▁Stru	-11.0363
▁studentsk	-11.0364
▁Crnoj	-11.0366
▁ubijeno	-11.0366
▁obiln	-11.0366
▁jeftin	-11.0371
▁Mike	-11.0374
▁poduze	-11.0375
▁Hercegovini	-11.0377
▁Kvarner	-11.0377
▁koeficijent	-11.0377
▁tvrtku	-11.0377
▁nagrađen	-11.0377
▁djevojčice	-11.0377
▁sugovornik	-11.0377
▁kamatn	-11.0378
▁dolasku	-11.0378
▁svećenik	-11.0378
▁obavljen	-11.0379
▁Mont	-11.0379
▁postupno	-11.038
▁naglo	-11.038
▁prep	-11.0381
▁hod	-11.0381
▁Često	-11.0382
▁treću	-11.0382
▁mladosti	-11.0384
▁kazali	-11.0384
▁kritike	-11.0385
▁stranku	-11.0387
▁karijera	-11.0387
šku	-11.0388
▁Bidena	-11.0389
meni	-11.039
bas	-11.039
▁temama	-11.0391
▁Rije	-11.0391
▁plaži	-11.0392
▁nastao	-11.0392
▁izgledalo	-11.0394
▁Simon	-11.0394
▁junak	-11.0399
▁Mati	-11.04
▁Art	-11.0403
▁čisti	-11.0404
▁spoln	-11.0404
▁najavili	-11.0404
▁reprezentativn	-11.0405
▁piće	-11.0413
▁točke	-11.0414
▁Oscara	-11.0417
▁određeni	-11.042
▁slikar	-11.042
▁71	-11.0421
▁utvr	-11.0421
▁predanost	-11.0421
▁gornj	-11.0425
07	-11.0425
▁svijest	-11.0426
▁aviona	-11.0427
▁moju	-11.0428
▁et	-11.0428
rima	-11.0429
▁vid	-11.0431
▁fan	-11.0437
▁klima	-11.0439
▁visoki	-11.0439
▁smjel	-11.0439
▁mat	-11.0441
▁vladajuć	-11.0443
rala	-11.0444
▁razvi	-11.0447
▁Mađarska	-11.0451
inović	-11.0452
▁83	-11.0455
▁argument	-11.0456
▁trgovini	-11.0456
▁zvjezd	-11.0456
▁tragedija	-11.0456
▁2005.	-11.0456
▁zabavu	-11.0456
▁zlatni	-11.0456
▁prijevoza	-11.0457
▁Četvrt	-11.0457
▁pomogli	-11.0458
▁likovn	-11.0463
▁Gorica	-11.0463
▁sobu	-11.0464
▁dogovorili	-11.0465
▁objaviti	-11.0465
?'	-11.0465
hal	-11.0466
▁nevrijeme	-11.0468
▁vis	-11.0471
▁ograničenja	-11.0472
zne	-11.0473
▁vizualn	-11.0476
▁punom	-11.0479
▁Želim	-11.0489
▁zona	-11.0489
▁podne	-11.049
▁Vukovaru	-11.0491
▁malen	-11.0492
▁pozitivne	-11.0493
VO	-11.0494
▁privremen	-11.0494
▁akter	-11.0494
▁lijepe	-11.0496
▁riba	-11.0497
▁izvrši	-11.0499
▁1-1	-11.0502
▁priopći	-11.0503
▁format	-11.0505
▁ozbiljn	-11.0505
kinje	-11.0507
▁ustanova	-11.0508
▁ruci	-11.0509
▁mater	-11.051
▁cm	-11.0513
▁Dobi	-11.0516
▁planiraju	-11.0518
▁plati	-11.0522
noć	-11.0524
rbo	-11.0526
▁umak	-11.0529
▁izražava	-11.0531
▁savjete	-11.0533
▁saziv	-11.0534
▁impresivn	-11.0535
▁prezentira	-11.0535
▁zaslužuje	-11.0535
▁iskorak	-11.0535
▁zgradu	-11.0535
▁2007.	-11.0535
▁predstavu	-11.0535
▁poštuje	-11.0536
▁djevojčica	-11.0536
▁Amerikanci	-11.0536
▁Živ	-11.0538
▁visine	-11.0538
▁policajaca	-11.0538
▁svetog	-11.054
▁terorističk	-11.054
hy	-11.054
▁zločina	-11.0542
▁ribe	-11.0542
▁ogleda	-11.0543
▁kriza	-11.0546
▁smjes	-11.0547
▁obrat	-11.0547
nove	-11.0549
▁Emil	-11.055
▁životni	-11.055
▁74	-11.0554
▁pojavi	-11.0554
▁tužn	-11.0554
▁Saša	-11.0555
▁romantičn	-11.0557
▁nadamo	-11.0557
▁financijskih	-11.0565
▁suparnika	-11.0566
▁poboljšava	-11.0568
▁istok	-11.0569
▁loša	-11.0569
▁Karlo	-11.0572
▁Vaš	-11.0573
▁iznimn	-11.0575
▁ispuniti	-11.0579
▁Roko	-11.058
▁ponovi	-11.0582
▁kum	-11.0587
▁dečko	-11.0587
▁kamera	-11.0587
▁gledamo	-11.059
▁križa	-11.0592
▁Eurosongu	-11.0595
▁očima	-11.0598
iranju	-11.0601
▁kapital	-11.0602
vraća	-11.0605
▁čekati	-11.0606
▁objekta	-11.0606
▁2:1	-11.0608
▁ruše	-11.0608
▁olakša	-11.0608
▁smrtno	-11.0609
▁telefonsk	-11.0609
▁Rog	-11.0612
▁pruži	-11.0613
▁susjedi	-11.0613
▁engleski	-11.0614
▁Brad	-11.0614
▁Stručnjaci	-11.0615
▁aerodrom	-11.0615
▁glazbi	-11.0615
▁horoskop	-11.0615
▁komentator	-11.0615
▁liječenja	-11.0615
▁simptomi	-11.0615
▁prisiljen	-11.0615
▁prljav	-11.0615
▁izgradnja	-11.0615
▁presude	-11.0615
▁naselju	-11.0617
▁Baturina	-11.0617
▁pripremljen	-11.0617
▁utorka	-11.0617
▁6-3	-11.0617
▁tepih	-11.0617
▁zime	-11.0618
▁adekvatn	-11.062
▁Pojas	-11.0621
▁Prijav	-11.0622
bris	-11.0623
▁opremljen	-11.0624
▁raj	-11.0624
▁pijan	-11.0626
▁pravilo	-11.0627
▁rukom	-11.0628
▁Kaza	-11.0628
▁kvalifikacije	-11.0628
▁Jurić	-11.0629
▁Isti	-11.0631
▁nabavi	-11.0631
▁liniju	-11.0631
▁Ranije	-11.0632
▁2,5	-11.0633
dalmatinske	-11.0633
kraj	-11.0634
▁kroničn	-11.0635
▁profesionalni	-11.064
rator	-11.064
▁Com	-11.0642
▁državnim	-11.0645
▁međunarodne	-11.0647
retan	-11.0648
▁išla	-11.0649
▁mojim	-11.0651
▁izbjegli	-11.0653
▁parova	-11.0659
▁gard	-11.0661
▁krila	-11.0666
▁spašava	-11.0666
▁izlaz	-11.0669
▁plesn	-11.0669
▁vezn	-11.0672
▁pravni	-11.0674
▁školske	-11.0674
▁vre	-11.0676
▁Sko	-11.0677
▁propisa	-11.0678
crta	-11.0678
potpun	-11.0679
▁Madridu	-11.0679
▁tehni	-11.0682
▁isključi	-11.0683
▁Cijeli	-11.0685
ljuju	-11.0686
▁putnik	-11.0692
▁smr	-11.0693
▁Mihael	-11.0696
▁izgradnji	-11.0696
▁Upravnog	-11.0696
▁ugrožava	-11.0696
▁naglasiti	-11.0696
▁prijetnji	-11.0696
▁Roditelji	-11.0696
▁razočaran	-11.0697
▁6-4	-11.0697
▁grupn	-11.0697
42	-11.0698
▁povrće	-11.0698
▁Razlog	-11.0698
▁princip	-11.0699
▁kritičar	-11.07
▁Drugom	-11.0701
initi	-11.0702
▁logi	-11.0703
▁sila	-11.0705
▁razv	-11.0707
▁ponosan	-11.0708
▁far	-11.0714
▁zatvara	-11.0715
▁prvenstven	-11.072
OM	-11.0725
▁povezani	-11.0727
▁identiteta	-11.0728
▁doznal	-11.0729
▁isklju	-11.0732
▁muči	-11.0739
vcu	-11.0744
▁krajnj	-11.0745
▁priči	-11.0746
▁moraln	-11.0747
▁krivo	-11.0749
▁sudionici	-11.0749
▁gušt	-11.0751
▁znaš	-11.0751
▁djeluju	-11.0755
▁svježi	-11.0755
▁kršćansk	-11.0761
▁molim	-11.0761
▁brojna	-11.0761
▁internet	-11.0763
▁obranio	-11.0763
▁istarsk	-11.0765
▁osobnim	-11.0765
37	-11.0768
▁78	-11.0769
▁tak	-11.0771
65	-11.0773
▁Sre	-11.0775
▁redatelja	-11.0776
▁ozlijeđeno	-11.0776
NO	-11.0777
▁europska	-11.0777
▁rezolucij	-11.0777
▁klupe	-11.0777
▁Livaković	-11.0777
▁kolik	-11.0777
▁pomogne	-11.0777
▁Tamara	-11.0777
▁zagrijava	-11.0778
▁Vjetar	-11.0778
ziju	-11.0778
▁odvojen	-11.078
▁VI	-11.078
▁čelnici	-11.078
▁nekadašnj	-11.078
▁koljena	-11.0781
▁pratitelja	-11.0781
▁pojave	-11.0782
▁slobodan	-11.0784
▁pojava	-11.0785
▁svašta	-11.0785
▁kaš	-11.0787
▁pješačk	-11.0791
▁posjetiti	-11.0792
▁dodatnu	-11.0793
▁odvod	-11.0796
▁registarsk	-11.0796
▁rijetk	-11.08
▁otvaranja	-11.0801
▁potvrda	-11.0803
▁novinsk	-11.0803
▁Dodaje	-11.0803
▁istražn	-11.0804
▁Vara	-11.0806
7)	-11.0806
▁77	-11.0809
▁Nika	-11.0809
▁poduzeti	-11.0809
75	-11.0809
▁nemate	-11.0814
avni	-11.0817
▁sklon	-11.0817
09	-11.082
▁azil	-11.0824
▁pušta	-11.0825
set	-11.0826
▁pročita	-11.0827
▁kle	-11.0827
▁peri	-11.0828
ćev	-11.0829
▁trik	-11.0829
rman	-11.0831
▁auta	-11.0833
▁starta	-11.0834
▁vlastiti	-11.0835
▁Rok	-11.0835
stanu	-11.0836
vec	-11.084
▁ograni	-11.0846
▁95	-11.0847
▁iznose	-11.0847
ravan	-11.0852
▁pobjedni	-11.0853
SP	-11.0854
dili	-11.0858
▁Riv	-11.0859
▁Chelsea	-11.0859
▁nadbiskup	-11.0859
▁osoblje	-11.0859
▁subvencij	-11.0859
▁turizmu	-11.0859
▁vjenčanja	-11.0859
▁Navijači	-11.0859
▁oslanja	-11.0859
▁središte	-11.0859
▁pregovore	-11.0859
▁Rudeš	-11.0859
▁slične	-11.086
▁odradili	-11.086
▁Slavoniji	-11.086
▁takvom	-11.086
▁Slovenija	-11.086
▁brzinom	-11.0861
▁Vekić	-11.0863
▁korner	-11.0863
▁tlo	-11.0863
▁2000.	-11.0864
▁DC	-11.0866
ric	-11.0869
▁bodove	-11.087
▁negativno	-11.0872
▁digitalne	-11.0874
▁Pjeva	-11.0875
▁klap	-11.0877
▁Nikole	-11.0879
▁Poljske	-11.088
▁jače	-11.0883
▁Loren	-11.0883
▁koristili	-11.089
▁izvori	-11.0893
▁prostorije	-11.0897
▁prosječna	-11.0898
▁izbornika	-11.0898
ljuje	-11.0901
▁prekri	-11.0902
▁Cer	-11.0904
▁klubovima	-11.0906
▁slaže	-11.0906
▁bivšim	-11.0909
▁postaja	-11.0912
▁temeljem	-11.0914
cho	-11.0916
▁čaj	-11.0916
▁događaje	-11.0917
▁probi	-11.092
▁spremno	-11.0922
▁političari	-11.0923
▁traju	-11.0925
08	-11.0925
ugh	-11.0926
▁Laur	-11.093
▁točka	-11.0934
▁skijaš	-11.0934
lagali	-11.0939
▁posebne	-11.094
▁Šest	-11.0941
38	-11.0941
▁aplikacija	-11.0942
▁dostupna	-11.0942
▁kalendar	-11.0942
▁neuspjeh	-11.0942
▁nizozemsk	-11.0942
▁prehrane	-11.0942
▁zatražio	-11.0942
▁jednostavan	-11.0942
▁započinje	-11.0942
▁Leyen	-11.0942
▁prijašnj	-11.0942
▁Benjamin	-11.0942
▁Podsje	-11.0942
kg	-11.0942
▁hranom	-11.0942
▁povezivanj	-11.0942
▁prisjeća	-11.0943
▁HTV	-11.0943
▁struk	-11.0945
▁motora	-11.0946
▁ocean	-11.0946
▁podnio	-11.0947
▁tretira	-11.0948
▁bijele	-11.0948
▁hladnjak	-11.0949
rc	-11.0949
▁Uoči	-11.095
▁uživaju	-11.0954
▁Arena	-11.0956
▁tablet	-11.0957
tivan	-11.0959
▁81	-11.0959
dalj	-11.096
▁povukao	-11.0964
▁sunce	-11.0967
▁Odluka	-11.097
▁treningu	-11.0971
▁Zor	-11.0973
▁unuk	-11.0974
▁Donna	-11.0975
▁primiti	-11.0976
▁radost	-11.0977
▁Papa	-11.0978
▁kreativnost	-11.0978
▁sjeća	-11.0984
▁reper	-11.0985
▁blagdana	-11.0988
▁interesu	-11.0988
▁Carl	-11.0989
▁ugosti	-11.0989
▁stvarnosti	-11.0994
▁razo	-11.0994
▁nestala	-11.0999
▁oslobodi	-11.1
▁popularno	-11.1004
▁opasn	-11.1004
49	-11.1008
▁Pir	-11.1015
▁Juventus	-11.1025
▁komunikacije	-11.1025
▁Rafale	-11.1025
▁adresu	-11.1025
▁vožnju	-11.1025
▁vojsku	-11.1025
▁greške	-11.1025
▁izvući	-11.1025
▁učenike	-11.1026
▁kim	-11.1027
▁tanjur	-11.1027
▁katoličk	-11.1028
▁iznenadio	-11.1029
▁Gabriel	-11.1029
▁obratiti	-11.103
▁oglasila	-11.1031
▁predvodio	-11.1031
ller	-11.1031
▁djelovati	-11.1032
▁diplomatsk	-11.1032
▁krenulo	-11.1034
▁dovrši	-11.1034
▁dopun	-11.1035
▁prepusti	-11.1036
▁provjere	-11.1041
▁Savjet	-11.1042
▁oporben	-11.1043
▁gume	-11.1045
▁svladali	-11.1046
▁Obitelj	-11.1046
▁prijavio	-11.1047
▁pretvori	-11.1048
tanje	-11.1048
▁letjelica	-11.1052
cc	-11.1052
▁iznio	-11.1053
hen	-11.1054
▁obljetnic	-11.1054
▁zahtjeve	-11.1055
▁vojnici	-11.1057
▁počne	-11.1058
▁europskom	-11.1059
▁Majka	-11.106
▁ovisnost	-11.1064
▁tv	-11.1064
▁postojeće	-11.1066
▁pokušal	-11.1068
čnog	-11.1071
36	-11.1075
▁putuje	-11.1077
▁Naglasi	-11.1078
▁iznenadi	-11.1078
avno	-11.1079
44	-11.108
▁Ugovor	-11.1081
reći	-11.1084
▁mojih	-11.1084
▁pošte	-11.1089
▁praćen	-11.1092
▁autobusa	-11.1092
▁Slobodn	-11.1095
▁Kru	-11.1096
▁lijepa	-11.1097
▁poplave	-11.11
▁imaš	-11.1101
▁smiri	-11.1101
▁rival	-11.1106
▁osvoji	-11.1106
▁dobivaju	-11.1107
▁Barceloni	-11.1109
▁akademsk	-11.1109
▁bespilotn	-11.1109
▁mještani	-11.1109
▁orkestar	-11.1109
▁verbaln	-11.1109
▁pljuskovi	-11.1109
▁kažnjen	-11.1109
▁zamjenu	-11.1109
▁smeće	-11.1109
▁cestu	-11.1109
▁srijede	-11.1109
▁Alex	-11.1109
▁odjednom	-11.111
▁obližnj	-11.111
▁vidjelo	-11.111
▁zabrane	-11.111
▁Che	-11.1111
▁započeti	-11.1112
▁prera	-11.1113
63	-11.1114
▁iskusn	-11.1114
▁prete	-11.1114
▁proizvodnji	-11.1114
▁Naši	-11.1115
▁priprav	-11.1117
▁filmski	-11.1117
▁izvadi	-11.1119
▁oblaka	-11.112
▁mobitela	-11.1126
▁volonter	-11.1126
▁iznena	-11.1128
46	-11.1132
▁teksta	-11.1133
▁Najviš	-11.1138
▁korisnike	-11.1139
▁luku	-11.1143
već	-11.1144
▁jasni	-11.1147
▁održal	-11.115
▁svakoga	-11.1157
▁gradsk	-11.116
▁splitsko	-11.1161
▁financiranje	-11.1162
▁neugodno	-11.1163
▁nesigurn	-11.1165
▁kategorija	-11.1169
▁kruga	-11.117
ivala	-11.1173
▁pozira	-11.1174
▁prošlost	-11.1174
▁redom	-11.1176
▁dobiju	-11.1176
▁pružaju	-11.1177
AL	-11.1177
▁proslavio	-11.1179
▁autori	-11.1179
▁("	-11.1181
▁kro	-11.1182
▁slušati	-11.1183
▁legenda	-11.1186
▁dugi	-11.1187
▁Pic	-11.1187
▁većim	-11.1189
▁Sever	-11.1193
▁ribar	-11.1193
▁nepotrebn	-11.1194
▁oglašava	-11.1194
▁publikom	-11.1194
▁brutaln	-11.1194
▁odlučuje	-11.1194
▁istražuje	-11.1194
▁broncu	-11.1194
▁potaknul	-11.1194
▁optimist	-11.1194
▁pohađa	-11.1194
▁odjeće	-11.1195
▁izveden	-11.1195
▁Zaklad	-11.1195
▁praksi	-11.1196
▁natpis	-11.1197
▁pripremama	-11.1198
▁energija	-11.1198
▁zaradio	-11.1199
▁dulji	-11.1199
▁Sea	-11.12
▁spasiti	-11.1201
OL	-11.1203
▁osječk	-11.1205
▁Marjan	-11.1206
▁žirija	-11.1206
▁Klara	-11.1208
▁Švicarsk	-11.1209
▁novinari	-11.1209
▁razmišljati	-11.121
▁Srpsk	-11.1211
▁Bro	-11.1212
▁vlastito	-11.1212
▁sigurnosne	-11.1213
▁oštećenja	-11.1214
▁leži	-11.1214
▁nesreću	-11.1215
▁pravilu	-11.1215
▁Moram	-11.1218
▁niži	-11.1218
pola	-11.1221
▁odluci	-11.1222
▁Bože	-11.1224
▁Bayerna	-11.1227
▁tereti	-11.1229
▁dopustiti	-11.1234
▁kupaca	-11.1236
▁Putinov	-11.124
▁obaviti	-11.1241
▁njezinog	-11.1242
▁robot	-11.1245
▁najvećeg	-11.1246
▁pomoćnik	-11.1247
tljiv	-11.1247
▁dvostruko	-11.1247
▁pobje	-11.1252
▁singl	-11.1253
-11	-11.1255
▁Putina	-11.1259
▁najpoznatij	-11.1261
▁salon	-11.1262
▁osnivanj	-11.1266
▁namjerno	-11.1267
TO	-11.1268
▁davno	-11.1269
▁zakonom	-11.127
▁individualn	-11.1271
▁odgovorni	-11.1273
▁panel	-11.1273
ity	-11.1274
▁makar	-11.1276
▁gradski	-11.1278
CI	-11.1278
▁inozemn	-11.1279
▁izložba	-11.1279
▁migranata	-11.1279
▁oduševila	-11.1279
▁Koncert	-11.1279
▁PSG	-11.1279
▁manifestacije	-11.1279
▁obvezu	-11.1279
▁izašla	-11.128
▁Imotsk	-11.128
▁srebro	-11.1281
▁snažan	-11.1282
▁nožem	-11.1283
31	-11.1286
▁voće	-11.1287
▁Nadalje	-11.1288
▁gorivo	-11.1291
▁finaln	-11.1292
dalmatinsk	-11.1297
▁Otok	-11.1299
▁proširil	-11.1299
▁moguća	-11.13
▁okonča	-11.1301
▁stupnja	-11.1301
▁prođe	-11.1304
▁Jadrana	-11.1306
▁Netko	-11.1307
hot	-11.131
33	-11.1315
▁Andrea	-11.1317
▁reci	-11.1317
▁student	-11.1318
▁pronađeno	-11.132
▁Kursk	-11.1323
▁smještaja	-11.1327
▁biraju	-11.1327
▁otkriven	-11.1331
▁radite	-11.1332
▁stupi	-11.1335
▁zaposlenik	-11.1335
▁viša	-11.1336
▁prijedloga	-11.1337
▁Cam	-11.1338
▁zaradi	-11.1339
▁vratara	-11.1339
▁Ukupno	-11.1343
▁tribina	-11.1345
▁umjetnost	-11.1346
95	-11.1348
▁izborne	-11.1348
▁stupanj	-11.1349
▁okupljanje	-11.1351
▁pora	-11.1353
nskih	-11.1354
▁Drugog	-11.1358
▁organizirati	-11.1361
▁Vladimira	-11.1364
▁Fakultet	-11.1366
▁odvjetništvu	-11.1366
▁poginula	-11.1366
▁preventivn	-11.1366
▁prisutni	-11.1366
▁crnogorsk	-11.1366
▁rekavši	-11.1366
▁nokaut	-11.1366
▁Belupa	-11.1366
▁priopćenje	-11.1366
▁pažnje	-11.1366
▁jačanje	-11.1366
▁počinio	-11.1366
▁džep	-11.1366
▁Amerikanac	-11.1367
▁vodstva	-11.1367
▁pojedinim	-11.1368
▁Koprivnici	-11.1369
▁zrel	-11.137
▁redovima	-11.1371
▁troše	-11.1371
▁uzrokovan	-11.1372
▁potpisuje	-11.1373
▁krajeva	-11.1377
rve	-11.1377
▁očekujemo	-11.1378
▁Poljskoj	-11.1379
▁obilježen	-11.138
▁zdravstveno	-11.138
▁izjednačen	-11.138
▁Počel	-11.1382
▁Ameri	-11.1384
▁groz	-11.1384
▁50-	-11.1385
▁shvatila	-11.1388
▁ruskim	-11.1388
▁shvatili	-11.1388
▁sije	-11.139
zić	-11.1392
▁zapošljavanje	-11.1392
▁Možete	-11.1396
mogu	-11.1398
▁mjesecu	-11.14
▁sukobu	-11.1401
-5	-11.1401
▁sastava	-11.1404
▁kvadrat	-11.1408
EC	-11.1409
▁bolničk	-11.1412
UP	-11.1418
kus	-11.1419
▁180	-11.1424
▁novinarsk	-11.1424
▁vlastitim	-11.1424
▁ukloni	-11.1425
▁87	-11.1427
▁Kata	-11.1428
▁seniorsk	-11.1429
▁nađe	-11.1433
89	-11.1433
▁crne	-11.1433
▁dužnosnika	-11.1433
▁liniji	-11.1434
vet	-11.1436
▁kisel	-11.1436
▁jesensk	-11.1437
01	-11.144
vci	-11.1442
▁Igrač	-11.1445
vrijedi	-11.1446
▁vuk	-11.1449
▁Jar	-11.145
▁BMW	-11.1453
▁Mediteran	-11.1453
▁cjelovit	-11.1453
▁najskuplj	-11.1453
▁poprilično	-11.1453
▁koncerata	-11.1453
▁gubitka	-11.1453
▁pisalo	-11.1453
▁komisija	-11.1453
▁tribine	-11.1453
▁farmer	-11.1453
▁nazvan	-11.1454
▁uvesti	-11.1455
▁dodati	-11.1456
▁vječn	-11.1458
član	-11.1459
▁spust	-11.1459
▁luk	-11.1459
▁obavijest	-11.1462
▁Branka	-11.1462
▁križ	-11.1465
▁Dejan	-11.1465
▁osvje	-11.1465
▁Sličn	-11.1467
▁kibernetičk	-11.1467
▁izdao	-11.1469
elite	-11.147
▁američkim	-11.1471
▁Srećom	-11.1474
▁dečki	-11.1475
antan	-11.1476
▁sporazuma	-11.1477
▁Lip	-11.1477
▁ruskom	-11.1479
▁tramvaj	-11.1483
▁najava	-11.1488
▁Dubrovačk	-11.1489
slika	-11.149
▁starog	-11.1492
▁samouprave	-11.1492
▁hitnu	-11.1494
▁automobile	-11.1495
▁praznik	-11.1496
▁beba	-11.1496
IP	-11.1497
▁okrenuti	-11.1498
politi	-11.1499
ćih	-11.1501
▁Osta	-11.1502
▁proširen	-11.1504
▁Rome	-11.1505
▁parlamentarne	-11.1506
▁(18	-11.1509
▁sruši	-11.151
▁čudno	-11.1514
▁predsjednički	-11.1514
▁Savez	-11.1514
▁Male	-11.1516
▁građe	-11.1518
▁igramo	-11.1519
▁izdvaja	-11.152
▁tenisa	-11.152
▁većem	-11.1521
▁smanjenja	-11.1523
▁snijega	-11.1525
▁Marije	-11.1526
plasiran	-11.1528
▁kriminalističk	-11.1533
▁Banj	-11.1533
▁Odbora	-11.1534
▁promijeni	-11.1534
▁fotografijama	-11.1535
▁posluži	-11.1536
▁doveli	-11.1539
endan	-11.154
▁laboratorij	-11.154
▁Ukrajinci	-11.154
▁oduševio	-11.154
▁prehranu	-11.154
▁protuzračn	-11.154
▁rejting	-11.154
▁naknada	-11.154
▁polufinala	-11.154
▁proljeće	-11.154
▁svjetska	-11.154
▁sredstvo	-11.154
▁Habijan	-11.154
▁Istraživanj	-11.154
▁haljini	-11.154
▁prepreka	-11.154
▁organizaciju	-11.1541
▁cijep	-11.1542
▁Vjerojatno	-11.1542
▁Vladu	-11.1544
▁isteka	-11.1547
▁Andrija	-11.1548
▁detaljno	-11.1548
▁teških	-11.1549
▁izraelske	-11.1549
▁Zagrebačke	-11.155
▁pretra	-11.1554
▁Adam	-11.1556
▁javna	-11.1558
▁kopnu	-11.1558
▁posjetio	-11.1559
▁raspad	-11.156
▁gradnje	-11.1561
▁kosti	-11.1562
▁Bon	-11.1562
▁najnovije	-11.1563
▁branio	-11.1564
džić	-11.1565
▁rješavanje	-11.1567
▁prognozira	-11.1567
▁detaljn	-11.1568
▁čelnika	-11.157
▁američka	-11.1572
▁kontaktu	-11.1574
▁bolova	-11.1576
▁Lin	-11.1576
▁Duje	-11.1578
▁umirovljeni	-11.1578
▁navijačk	-11.1581
▁najpoznatijih	-11.1582
nijim	-11.1584
▁teritorija	-11.1584
▁izlazak	-11.1587
▁Smatram	-11.1587
▁bilje	-11.1592
▁velja	-11.1595
▁potencijalni	-11.1598
▁Novu	-11.1598
šina	-11.1598
▁obljetnice	-11.1599
▁dijelovi	-11.1601
▁Duh	-11.1602
▁zaljubljen	-11.1604
▁unutarnje	-11.1604
▁intenzivno	-11.1604
pija	-11.1607
▁zvan	-11.1609
▁Kralj	-11.1618
▁sposobn	-11.1623
▁korake	-11.1623
▁uspješni	-11.1624
▁spozna	-11.1625
▁ov	-11.1625
riti	-11.1626
▁djelomično	-11.1629
▁glumca	-11.1629
▁hormon	-11.1629
▁ignorira	-11.1629
▁neprihvatljiv	-11.1629
▁performans	-11.1629
▁perspektive	-11.1629
▁temperaturu	-11.1629
▁tjednu	-11.1629
▁kontroverzn	-11.1629
▁solidarnost	-11.1629
▁Vijeće	-11.1629
▁Kongres	-11.1629
▁finalist	-11.1629
▁pritiskom	-11.1629
eksplodira	-11.1629
▁Cijene	-11.1629
▁pritiska	-11.1629
▁ždrijeb	-11.1629
▁najmlađi	-11.1629
▁kakvom	-11.163
▁raznolik	-11.163
▁prilagođen	-11.163
▁kazališta	-11.163
▁svjetskim	-11.1631
▁vrhunac	-11.1631
▁Nives	-11.1632
▁ugasi	-11.1632
▁zajednicu	-11.1632
▁civilne	-11.1633
▁MO	-11.1636
▁progon	-11.1636
▁svečano	-11.1637
▁vozilu	-11.1638
kvi	-11.164
čite	-11.164
▁okršaj	-11.1642
▁plaža	-11.1643
▁Talijansk	-11.1647
▁stvaranju	-11.1647
▁kožu	-11.1647
▁psihičk	-11.1651
▁priključ	-11.1651
manji	-11.1653
▁Mađarske	-11.1654
bert	-11.1658
▁Vesna	-11.1658
▁Poznat	-11.1665
▁iznosa	-11.1666
▁minimalno	-11.1668
▁ubrzan	-11.167
▁Ly	-11.1674
▁kilometra	-11.1677
▁Bilić	-11.1677
▁propis	-11.1678
pravlja	-11.168
▁zaštitar	-11.1681
▁učenicima	-11.1681
▁umirovljenici	-11.1684
▁pogrešno	-11.1685
▁Rekla	-11.1687
klonjen	-11.169
▁Baj	-11.169
stat	-11.1692
▁progovori	-11.1693
▁mirovinsk	-11.1694
▁odgovoran	-11.1696
čnim	-11.1706
▁Tonči	-11.1707
▁izvođača	-11.1707
▁toplinsk	-11.1708
▁tenk	-11.171
▁Traži	-11.1711
▁Misli	-11.1713
▁ošte	-11.1717
▁Navodno	-11.1718
▁izazvalo	-11.1718
▁naknadu	-11.1718
▁posljednjoj	-11.1718
▁Atlant	-11.1718
▁Hrgović	-11.1718
▁dvojice	-11.1718
▁3-0	-11.1718
▁polufinaln	-11.1718
▁princeza	-11.1718
▁Škot	-11.1719
▁litara	-11.1719
▁izlaska	-11.1719
▁praksa	-11.172
▁raketa	-11.172
ografsk	-11.172
▁Boys	-11.1721
▁najniž	-11.1721
▁razlozi	-11.1722
39	-11.1723
-13	-11.1724
▁dvadesetak	-11.1724
▁djevojku	-11.1726
▁krivi	-11.1727
▁žalost	-11.1728
▁Zajedno	-11.1728
▁Benčić	-11.1728
▁Jučer	-11.1728
▁zvon	-11.1728
▁biološk	-11.1729
▁Filipović	-11.1729
▁ugostitelj	-11.1731
▁putnici	-11.1735
▁ljudskih	-11.1735
▁drven	-11.1739
IJA	-11.174
▁glasovi	-11.174
▁Vjer	-11.1741
▁pratili	-11.1746
▁dionici	-11.1748
Život	-11.1749
▁palo	-11.1751
▁otvorili	-11.1752
▁glavnu	-11.1752
▁prešl	-11.1755
▁Prilik	-11.1756
▁divlje	-11.176
▁Vil	-11.1764
▁krvav	-11.1765
▁prijelazn	-11.1767
▁Mirko	-11.1768
94	-11.177
zmeđu	-11.177
▁strog	-11.1771
▁eventualn	-11.1771
▁Žu	-11.1772
▁odgovore	-11.1778
▁članak	-11.1778
post	-11.178
▁nalaz	-11.178
▁(17	-11.178
▁oru	-11.1781
ravno	-11.1783
▁Znamo	-11.1787
▁ozljedama	-11.1787
▁rođena	-11.1791
▁82	-11.1791
elimo	-11.1792
▁vraćaju	-11.1794
▁natrag	-11.1794
▁prihvatio	-11.1795
EP	-11.1799
▁okoln	-11.1801
▁vjeru	-11.1806
▁Middleton	-11.1808
▁Volodimir	-11.1808
▁epizodi	-11.1808
▁intenzitet	-11.1808
▁mišljenju	-11.1808
▁operaciju	-11.1808
▁pojašnjava	-11.1808
▁sladoled	-11.1808
▁CNN	-11.1808
▁Crkve	-11.1808
▁Jednostavno	-11.1808
▁najstariji	-11.1808
▁jučerašnj	-11.1808
▁energijom	-11.1808
▁2004.	-11.1808
▁dušu	-11.1809
▁minutu	-11.1809
▁snimio	-11.1809
▁cure	-11.1809
▁životno	-11.1809
▁Detalj	-11.1809
▁Rusijom	-11.181
▁unutra	-11.181
▁učinili	-11.181
▁posjeta	-11.181
▁Štoviše	-11.1811
▁3-1	-11.1812
▁dvorana	-11.1812
▁društveno	-11.1816
njava	-11.1817
šević	-11.1818
▁podcast	-11.1818
▁misija	-11.1825
▁podnosi	-11.1826
▁stručni	-11.1827
▁Kovač	-11.1828
▁vjerujemo	-11.1828
▁130	-11.183
▁Qu	-11.183
▁parku	-11.1832
▁sletio	-11.1834
vil	-11.1834
▁bliže	-11.1836
▁tečaj	-11.1837
▁biljn	-11.184
▁Roberta	-11.184
▁Alan	-11.1845
▁mislili	-11.1846
▁Plav	-11.1848
▁Brz	-11.1851
▁francuskog	-11.1853
▁izbornog	-11.1854
▁potrebama	-11.1855
▁održivog	-11.1861
▁najgore	-11.1862
cher	-11.1865
▁spada	-11.1866
▁prevladava	-11.1866
▁kolnik	-11.1866
▁uzeli	-11.1868
▁taksi	-11.187
▁vladi	-11.1872
▁Gen	-11.1874
jest	-11.1875
▁All	-11.1878
▁gradskom	-11.1878
▁braniti	-11.1883
ševi	-11.1886
▁porod	-11.1886
▁priključi	-11.1886
▁političkim	-11.1888
▁ovogodišnj	-11.1891
▁nekadašnji	-11.1892
▁kontejner	-11.1899
▁analize	-11.1899
▁arhiv	-11.1899
▁grmljavinom	-11.1899
▁inicijative	-11.1899
▁kontrolom	-11.1899
▁kuhinji	-11.1899
▁osobom	-11.1899
▁pozicionira	-11.1899
▁količinu	-11.1899
▁podršci	-11.1899
▁ukazuju	-11.1899
▁mlijeko	-11.1899
▁izvedba	-11.1899
▁sjednica	-11.1899
▁raspravu	-11.19
▁ponoći	-11.19
▁raketn	-11.19
▁Zvon	-11.1901
▁slavila	-11.1902
▁Omiš	-11.1903
▁brigade	-11.1907
▁dječji	-11.1907
▁Rob	-11.1908
▁rasvjet	-11.191
enti	-11.191
▁najvjerojatnije	-11.1912
52	-11.1913
hit	-11.1915
▁prigovor	-11.1915
▁pse	-11.1916
▁idem	-11.1916
▁riješen	-11.1917
▁malog	-11.1918
▁stožera	-11.1918
mes	-11.1918
▁izbjegavati	-11.192
▁Mlad	-11.192
▁odrasl	-11.192
rol	-11.1921
▁hvali	-11.1924
▁zaljubi	-11.1927
▁tribinama	-11.1929
▁mark	-11.1933
▁ponoviti	-11.1934
jaka	-11.194
▁jo	-11.1941
▁ugledn	-11.1942
▁određenih	-11.1942
▁odmak	-11.1944
DO	-11.1944
▁prolaze	-11.1945
▁dogovora	-11.1945
▁strašno	-11.1946
▁Lis	-11.1947
▁održala	-11.1948
▁izveo	-11.1952
▁radnicima	-11.1952
▁limun	-11.1953
▁Glavn	-11.1954
sson	-11.1956
▁interneta	-11.1957
▁dodijeli	-11.1958
▁institucijama	-11.196
▁studij	-11.196
▁Ovim	-11.1961
▁ciljevi	-11.1961
▁uvodi	-11.1961
way	-11.1962
▁suparnik	-11.1963
▁činiti	-11.1963
▁predlaže	-11.1966
▁siln	-11.1969
▁bitna	-11.1971
▁priredi	-11.1971
▁mislite	-11.1971
vicu	-11.1972
▁zida	-11.1973
▁Buk	-11.1973
▁69	-11.1979
▁popodne	-11.1979
▁postavljanje	-11.1982
▁intervencija	-11.1991
▁komunikacijsk	-11.1991
▁nikakav	-11.1991
▁obećao	-11.1991
▁prodajn	-11.1991
▁poluvrijeme	-11.1991
▁brige	-11.1991
▁zamjenic	-11.1991
▁učestal	-11.1991
▁kokain	-11.1992
▁solarn	-11.1992
rgan	-11.1992
▁strateški	-11.1993
▁gradska	-11.1993
▁povrća	-11.1993
▁ručak	-11.1993
▁suveren	-11.1994
▁Mak	-11.1994
▁stabilno	-11.1996
▁Pravo	-11.1997
INA	-11.1999
▁odražava	-11.2
▁Glav	-11.2
▁18-	-11.2001
▁Zadarske	-11.2003
dok	-11.2004
▁original	-11.2004
▁Prve	-11.2004
▁zvuči	-11.2005
▁pobačaj	-11.2005
▁objavljeni	-11.2008
bijeli	-11.2008
▁otkrivaju	-11.2011
▁tešku	-11.2018
▁šeta	-11.2018
▁potvrditi	-11.202
▁Marof	-11.202
pen	-11.2027
Ju	-11.2029
▁manjine	-11.2029
▁kot	-11.203
▁slomi	-11.2033
▁pripremaju	-11.2037
▁dionice	-11.2037
▁komentirali	-11.2038
▁Bat	-11.2038
▁španjolski	-11.2039
▁dodali	-11.2039
▁najljepše	-11.2039
▁usvoji	-11.2039
▁Jedino	-11.2041
rap	-11.2043
▁Pitanj	-11.2046
▁Đurđ	-11.2054
▁utvrditi	-11.2055
▁sigurnosni	-11.2057
▁posljednjim	-11.2058
▁službenoj	-11.2059
▁konkurent	-11.2062
bilježio	-11.2064
▁nominiran	-11.2064
▁ljubavni	-11.2065
▁manj	-11.2069
▁umjetnik	-11.2076
▁Olimpij	-11.2078
▁osjećati	-11.208
▁Hod	-11.2082
▁Mercedes	-11.2083
▁dozvoli	-11.2083
▁funkcije	-11.2083
▁pogreške	-11.2083
▁procijenjen	-11.2083
▁analiza	-11.2083
▁Uskoro	-11.2083
▁izjednačio	-11.2083
▁riskira	-11.2084
▁prisjetio	-11.2084
▁Milorad	-11.2084
▁takozvan	-11.2084
▁hvata	-11.2084
▁pisati	-11.2084
▁specijaliziran	-11.2084
▁promila	-11.2084
▁dvorištu	-11.2084
:15	-11.2085
▁sličan	-11.2086
▁gradskim	-11.2086
▁Hotel	-11.2088
▁Poslije	-11.2088
▁propustio	-11.2091
▁Srednj	-11.2093
▁ispao	-11.2093
▁svojedobno	-11.2094
▁Jasno	-11.2094
ovina	-11.2101
▁boc	-11.2103
war	-11.2104
▁raspisa	-11.2106
▁akt	-11.211
▁nastupila	-11.2112
▁otp	-11.2113
▁Drugo	-11.2115
▁Por	-11.2117
▁mokr	-11.2125
▁teritoriju	-11.2126
▁buduć	-11.2129
▁smanjio	-11.2129
ovcu	-11.2131
▁nalet	-11.2131
▁Miss	-11.2136
▁izuzet	-11.2137
▁ukinut	-11.2138
▁Ronald	-11.2139
▁bitan	-11.2142
▁zdravstvenog	-11.2142
▁Hezbolah	-11.2149
▁prethodnih	-11.215
▁resor	-11.2153
▁Mađar	-11.2156
KO	-11.2157
▁pomak	-11.2158
▁brodu	-11.2158
Naj	-11.2163
▁proizvođači	-11.2164
▁sigurnosnih	-11.2164
▁rasprodan	-11.2165
▁pranje	-11.2175
▁Državno	-11.2177
▁naročito	-11.2177
▁obaviješten	-11.2177
▁simptome	-11.2177
▁softver	-11.2177
▁Partizan	-11.2177
▁švicarsk	-11.2177
▁1998.	-11.2177
▁pogađa	-11.2177
▁porasla	-11.2177
▁zabilježil	-11.2177
▁Pjevačica	-11.2177
▁Richard	-11.2177
▁nasljednik	-11.2178
▁Svetog	-11.2178
▁Denis	-11.2178
▁pečen	-11.2178
▁Dunav	-11.2178
▁obnova	-11.2179
▁potpisan	-11.2179
▁odustati	-11.2179
▁Čovjek	-11.2179
žin	-11.218
▁Izbornik	-11.218
▁brigu	-11.2181
▁splitskom	-11.2182
čine	-11.2184
▁vodeć	-11.2184
▁des	-11.2184
▁oblačno	-11.2184
▁mirovn	-11.2186
▁stalo	-11.2192
▁prednji	-11.2193
▁primijetili	-11.2193
▁von	-11.2197
▁Bull	-11.2197
▁potvrdi	-11.2197
▁lijeve	-11.2199
▁Istina	-11.2199
▁čisto	-11.2199
▁prilaz	-11.2202
▁pojaviti	-11.2213
▁Cal	-11.2214
▁podizanje	-11.2214
▁upisan	-11.2215
▁Tar	-11.2218
ručio	-11.2221
▁upali	-11.2222
▁opasni	-11.2223
▁provo	-11.2225
▁srpskog	-11.2226
▁motivira	-11.2228
▁gem	-11.2231
▁ostanak	-11.2232
▁policijskih	-11.2234
▁povremen	-11.2238
▁smijemo	-11.2238
▁znanstvenici	-11.2241
▁donesena	-11.2241
▁vojnu	-11.2244
▁njemačke	-11.2245
▁Napad	-11.2247
▁istup	-11.2253
▁Hen	-11.2253
▁društven	-11.2255
69	-11.2263
Superstar	-11.2264
▁uspije	-11.2266
▁moraš	-11.2267
▁potrebni	-11.2268
▁Anđel	-11.2269
▁Bjelorus	-11.2271
sprkos	-11.2271
▁Središnj	-11.2271
▁Wimbledon	-11.2271
▁oporavka	-11.2271
▁poteškoća	-11.2271
▁potpredsjednic	-11.2271
▁regiju	-11.2271
▁transakcij	-11.2271
▁sasluša	-11.2271
▁Franje	-11.2271
▁veličine	-11.2271
▁šokantn	-11.2271
▁povlači	-11.2272
▁snova	-11.2272
▁Velebit	-11.2272
▁zabranu	-11.2272
▁Popović	-11.2274
Što	-11.2275
▁kopnen	-11.2276
▁krevetu	-11.2277
▁bizarn	-11.2277
▁nježn	-11.2277
▁MI	-11.2279
▁predavanja	-11.228
▁kupci	-11.228
▁Slobod	-11.2285
▁poveli	-11.2285
▁Žena	-11.2286
▁Cur	-11.2293
▁istraživač	-11.2293
jedan	-11.2294
▁okupljanja	-11.2295
prema	-11.2296
▁sudeći	-11.2298
▁branič	-11.2299
▁zanimanja	-11.2301
▁objavil	-11.2304
▁napušta	-11.2305
▁Fond	-11.2305
▁žuti	-11.2306
▁razmišljanja	-11.2307
▁19-	-11.2307
▁najvažnijih	-11.231
▁Beograda	-11.231
▁doveden	-11.2311
▁predstavila	-11.2311
žar	-11.2313
▁Hrvate	-11.2321
▁zakup	-11.2321
▁sjajna	-11.2323
▁elektro	-11.2325
▁Županijskog	-11.2326
▁uporno	-11.2328
▁Sportsk	-11.2329
služi	-11.2331
▁javi	-11.2338
rović	-11.2339
▁Zahval	-11.234
▁liječi	-11.2344
▁napadi	-11.2345
▁kriju	-11.2352
▁Želi	-11.2354
▁čekanja	-11.2357
▁Karl	-11.236
▁forma	-11.2363
▁sastoji	-11.2364
▁djetinjstva	-11.2366
▁haljinu	-11.2366
▁kontinuitet	-11.2366
▁nezadovoljstvo	-11.2366
▁siromašn	-11.2366
▁vožnji	-11.2366
▁djetetu	-11.2366
▁doživljava	-11.2366
▁najviša	-11.2366
▁odabrati	-11.2366
▁SOA	-11.2366
▁prakse	-11.2366
▁vjeroval	-11.2367
▁Barbara	-11.2367
▁nezgod	-11.2367
▁ritam	-11.2367
▁tijesto	-11.2367
▁Bugarsk	-11.2367
▁you	-11.2367
puštanje	-11.2368
▁Island	-11.2368
▁Carlos	-11.2369
▁DIP	-11.2369
▁regulira	-11.2369
▁Kakav	-11.2371
▁nigdje	-11.2371
▁vođa	-11.2371
sis	-11.2372
▁mrtvih	-11.2373
▁Novinar	-11.2373
▁rezerviran	-11.2375
▁lijekova	-11.2376
ww	-11.2376
▁formiranj	-11.2376
▁Radovi	-11.2379
▁27-	-11.2379
zima	-11.2379
anin	-11.2383
▁okrivljenik	-11.2383
▁smrtn	-11.2385
▁poreme	-11.2388
▁upozorila	-11.2388
rme	-11.2391
▁zainteresirani	-11.2393
▁dosegnu	-11.2396
▁Oz	-11.2399
▁lokal	-11.24
▁ugostiti	-11.2402
▁Nizozemsk	-11.2403
▁šoku	-11.2405
▁kvalifikacijsk	-11.2407
▁odlični	-11.2408
▁Milanovićev	-11.2408
ologije	-11.2409
▁njemačkog	-11.2409
▁gradnju	-11.2422
54	-11.2425
sor	-11.2431
▁Vele	-11.2437
terapij	-11.2437
bus	-11.2439
▁boju	-11.2448
▁izgovor	-11.245
▁čas	-11.2454
PA	-11.2457
UR	-11.2459
▁Pravi	-11.246
smjer	-11.2461
▁asistencije	-11.2463
▁emisiju	-11.2463
▁financijsku	-11.2463
▁inflacija	-11.2463
▁neslužbeno	-11.2463
▁obnovljiv	-11.2463
▁pogotkom	-11.2463
▁preuzela	-11.2463
▁verzija	-11.2463
▁sjednicu	-11.2463
▁pobjegao	-11.2463
▁pluća	-11.2463
▁polovici	-11.2463
▁brončan	-11.2463
▁desert	-11.2463
▁inovacija	-11.2463
▁proslave	-11.2463
▁voljen	-11.2463
▁Zrink	-11.2464
▁zajedničke	-11.2464
▁snimci	-11.2464
▁namještaj	-11.2464
▁pričati	-11.2468
▁Nijemci	-11.2469
▁gomil	-11.2469
▁muče	-11.247
ijskog	-11.2471
▁iznenađenja	-11.2472
▁mijenjaju	-11.2476
▁poginulih	-11.2476
▁parovi	-11.2478
▁saznanja	-11.2481
▁Prvom	-11.2482
▁ilegal	-11.2483
▁službenika	-11.2483
▁Peđ	-11.2485
▁izborio	-11.2486
▁mnoštvo	-11.2487
▁plaže	-11.2487
▁Želimo	-11.2488
▁moment	-11.2489
▁tvrtkama	-11.2492
▁meča	-11.2494
▁Cityja	-11.2495
▁prirodni	-11.2495
▁kolnika	-11.2498
▁prijavila	-11.2498
An	-11.2498
▁istinit	-11.2498
vrsta	-11.2499
▁Hvar	-11.2502
▁rođenja	-11.2503
▁ciklusa	-11.2503
▁pravilno	-11.2504
▁radna	-11.2507
▁zadnj	-11.2511
▁okret	-11.2511
▁interese	-11.2513
▁Tina	-11.2518
▁prilago	-11.2521
▁neovisnost	-11.2525
▁visoku	-11.2525
▁opasne	-11.253
▁stožer	-11.253
▁sjajne	-11.2531
reme	-11.2531
▁vlastitom	-11.2532
▁cijevi	-11.2535
▁domaćim	-11.2538
▁Borna	-11.2542
▁poginuli	-11.2546
ijoj	-11.2546
▁Nikada	-11.2546
▁uobičajeno	-11.2547
▁vjetro	-11.2549
▁ljubi	-11.255
▁Poljska	-11.2551
▁lijevi	-11.2551
▁Kuk	-11.2553
▁saveznici	-11.2558
▁79	-11.2559
47	-11.2559
▁HGSS	-11.256
▁Sljedeć	-11.256
▁funkciji	-11.256
▁kancelar	-11.256
▁kažnjava	-11.256
▁koalicija	-11.256
▁sudjelovalo	-11.256
▁disciplini	-11.256
▁Britaniji	-11.256
▁nedjeljn	-11.256
▁Bernard	-11.256
▁dohodak	-11.256
▁odabrao	-11.256
▁kandidaturu	-11.256
▁donosimo	-11.2561
▁zabrana	-11.2561
▁hvale	-11.2561
▁Došl	-11.2561
▁invazije	-11.2562
▁Q	-11.2564
▁povišen	-11.2564
▁pojma	-11.2565
▁zeleni	-11.2566
▁pitala	-11.2567
▁odlaze	-11.2569
▁osvajač	-11.257
▁stići	-11.257
▁Sutra	-11.257
▁ukus	-11.2571
vskog	-11.2572
▁Poslovn	-11.2572
▁Općinskog	-11.2573
▁Potrebn	-11.2573
▁ulaze	-11.2574
▁ostavila	-11.2575
▁jugozapadni	-11.2575
▁starih	-11.2578
▁hip	-11.2578
NE	-11.2579
▁kasni	-11.258
▁očuvanje	-11.258
▁engleskog	-11.2582
▁Glavnog	-11.2588
▁ciljan	-11.2589
▁pratite	-11.2591
▁Jedini	-11.2593
ins	-11.2596
▁Dubai	-11.2596
▁dugogodišnj	-11.2596
▁odgovorili	-11.2597
▁proglasil	-11.2597
▁kupcima	-11.2598
▁Ronaldo	-11.26
▁kandidatima	-11.2601
/20	-11.2601
▁brinuti	-11.2601
▁vanjski	-11.2607
▁Fre	-11.2608
▁Libanonu	-11.261
▁Brač	-11.2611
day	-11.2615
▁ispravno	-11.2615
▁dugoročno	-11.2616
▁štit	-11.2617
▁zapošljava	-11.2618
▁medijske	-11.2619
▁slobodnog	-11.2622
▁vrha	-11.2623
▁provjerava	-11.2624
▁Splitsk	-11.2626
▁nastavili	-11.2629
▁iznenađen	-11.2631
▁posljedicama	-11.2635
▁Dol	-11.2641
▁Otka	-11.2641
▁medijski	-11.2643
▁otpadom	-11.2643
▁političara	-11.2652
Kako	-11.2653
▁Tour	-11.2654
▁obavljanj	-11.2654
▁registra	-11.2657
▁teškom	-11.2657
▁Anthony	-11.2658
▁Ponekad	-11.2658
▁Sveučilištu	-11.2658
▁elegantn	-11.2658
▁prognoza	-11.2658
▁stanovništvo	-11.2658
▁vijećnik	-11.2658
▁OPG	-11.2658
▁utvrđivanj	-11.2658
▁Lopez	-11.2658
▁Primorca	-11.2658
▁funti	-11.2658
▁petnaest	-11.2658
▁parkirn	-11.2658
▁Trogir	-11.2659
▁odraz	-11.2659
▁Ključ	-11.2659
▁izabral	-11.266
▁ormar	-11.2661
▁mjerama	-11.2662
▁uzrokuje	-11.2663
▁Hal	-11.2663
▁zovu	-11.2665
91	-11.2667
▁očit	-11.2668
▁izrade	-11.2668
▁proizvodima	-11.2669
▁Voli	-11.2671
▁Miloš	-11.2673
▁boksač	-11.2674
▁Zar	-11.2675
▁zadnjoj	-11.2675
▁telefona	-11.2676
▁gradona	-11.2679
▁podijelili	-11.2679
lanovi	-11.2679
▁nećete	-11.2681
▁Pita	-11.2686
▁angažiran	-11.2687
▁Dinamom	-11.2687
▁Jose	-11.2687
▁zabrinuti	-11.2689
▁Priprema	-11.2691
▁dnevnik	-11.2692
▁demograf	-11.2693
▁velikan	-11.2693
umb	-11.2697
AC	-11.2701
▁ispriča	-11.2701
▁Troj	-11.2702
▁prekinut	-11.2704
▁nacionalnoj	-11.2706
▁Div	-11.2709
▁identificira	-11.2709
▁nemoguć	-11.271
samo	-11.271
▁Dodatn	-11.271
▁pronađena	-11.2711
5%	-11.2711
▁90-	-11.2711
▁Sportske	-11.2712
06	-11.2715
▁navedeni	-11.2719
▁Audi	-11.2722
▁luksuz	-11.2724
▁izdvoji	-11.2726
▁shvati	-11.2727
▁Wil	-11.2734
▁zaposlenici	-11.2734
€	-11.2737
▁odmara	-11.2737
▁grana	-11.2737
▁stabl	-11.2737
▁Vrb	-11.274
jin	-11.2743
▁zahtijevaju	-11.2744
▁potr	-11.2747
76	-11.2747
▁sloboda	-11.2748
▁susjeda	-11.2749
▁privatn	-11.2749
▁kreditn	-11.2755
▁eufori	-11.2757
▁Akademi	-11.2757
▁Ancelotti	-11.2757
▁Cristian	-11.2757
▁Moskvi	-11.2757
▁autoceste	-11.2757
▁educira	-11.2757
▁hektara	-11.2757
▁kvaliteti	-11.2757
▁haljina	-11.2757
▁imunitet	-11.2757
▁odabrala	-11.2757
▁srećom	-11.2757
▁izabrati	-11.2757
▁prebačen	-11.2757
▁Hrvatsko	-11.2757
▁1995.	-11.2757
▁oporba	-11.2757
▁obnaša	-11.2757
▁uslugu	-11.2757
▁otocima	-11.2757
▁Božinović	-11.2757
▁ruraln	-11.2757
▁najteže	-11.2757
▁Britansk	-11.2758
▁apelira	-11.2758
▁citira	-11.2761
▁napetosti	-11.2762
▁odgovaraju	-11.2763
▁Lučk	-11.2764
▁Zavoda	-11.2764
nijeg	-11.2767
▁doživjeti	-11.2769
▁grub	-11.2772
OK	-11.2773
▁bogate	-11.2773
▁gradovi	-11.2775
▁banaka	-11.2777
▁Zr	-11.2779
▁Hor	-11.2779
▁tuđ	-11.2783
▁Nemam	-11.2785
▁Život	-11.2786
▁iskoristi	-11.2786
▁poduzetnici	-11.2794
▁Marku	-11.2794
▁odgovarati	-11.2797
▁žrtvama	-11.2797
▁zaštita	-11.2798
mršav	-11.28
▁oštro	-11.2801
▁zapalil	-11.2801
▁očiju	-11.2802
▁okusa	-11.2803
IT	-11.2806
▁bok	-11.2806
▁dronovi	-11.2811
▁gori	-11.2823
▁Final	-11.2824
▁najpopularnij	-11.2825
ranja	-11.2826
▁fol	-11.2828
▁spavati	-11.2836
58	-11.2837
▁Angeles	-11.284
▁događalo	-11.284
▁djelatnost	-11.2842
▁zadnjeg	-11.2847
▁ostvarivanj	-11.2853
▁Ide	-11.2855
▁Pantovčak	-11.2857
▁International	-11.2857
▁Nogometn	-11.2857
▁Profimedia	-11.2857
▁Stričak	-11.2857
▁Swift	-11.2857
▁agresije	-11.2857
▁financijska	-11.2857
▁glumci	-11.2857
▁popularna	-11.2857
▁poslodavac	-11.2857
▁surađuje	-11.2857
▁završetku	-11.2857
▁zadobio	-11.2857
▁marketing	-11.2857
▁Fokus	-11.2857
▁poduzima	-11.2857
▁ekskluzivn	-11.2857
▁vraćen	-11.2858
▁dronova	-11.2858
▁Ras	-11.2858
▁Pjaca	-11.2858
▁aparat	-11.2858
okret	-11.2859
▁Pas	-11.2859
▁dovela	-11.2859
88	-11.286
▁podići	-11.2861
▁kemijsk	-11.2861
▁Renata	-11.2862
▁Antonija	-11.2864
▁kartu	-11.2865
▁zakonit	-11.2867
▁otkad	-11.2867
▁petero	-11.2867
4%	-11.2868
▁nastavit	-11.287
▁prepoznali	-11.2871
padaju	-11.2872
▁lanac	-11.2872
▁domaća	-11.2874
▁nedaleko	-11.2874
▁Rock	-11.2875
▁dopušta	-11.2876
▁100.000	-11.2878
▁zaustavio	-11.2882
▁popraviti	-11.2882
▁sitni	-11.2883
ness	-11.2884
▁posjeduje	-11.2886
▁napomenuti	-11.2887
norm	-11.2887
▁pisanju	-11.2889
▁provedbu	-11.2892
▁putuju	-11.2893
▁inspirira	-11.2896
VE	-11.2896
▁prekomjern	-11.2896
▁poboljša	-11.2897
▁pogodila	-11.2898
elli	-11.2902
▁RS	-11.2907
▁Band	-11.291
ES	-11.2911
▁nacionalni	-11.2911
▁mase	-11.2915
▁primijetio	-11.2916
▁Mostar	-11.2922
▁Cup	-11.2928
▁masti	-11.2933
ning	-11.2934
▁Gran	-11.2937
▁brzina	-11.2937
▁autorsk	-11.2938
▁napomenu	-11.294
▁viđa	-11.2941
▁stavi	-11.2941
▁neizvjesn	-11.2944
▁njegu	-11.2944
▁čvrsto	-11.2948
▁Let	-11.2948
▁najnovij	-11.295
▁88	-11.2951
nošenja	-11.2953
▁plaćaju	-11.2953
▁Bli	-11.2953
▁morat	-11.2954
škog	-11.2955
▁druženja	-11.2958
▁hranjiv	-11.2958
▁kulturi	-11.2958
▁istodobno	-11.2958
▁simptoma	-11.2958
▁trgovinu	-11.2958
▁Scholz	-11.2958
▁Sarajevo	-11.2958
▁držao	-11.2958
▁pokaže	-11.2958
▁slavlja	-11.2958
▁potrošača	-11.2958
▁povjerenstvo	-11.2958
▁dovršen	-11.2959
▁trajao	-11.2959
▁parkiran	-11.2961
▁korisni	-11.2962
ntno	-11.2962
▁vladajuće	-11.2963
▁tuš	-11.2965
▁zastupa	-11.2965
▁komentare	-11.2966
▁Radman	-11.2966
▁zvao	-11.2966
▁razgled	-11.2967
▁Fotografij	-11.2968
▁III	-11.2969
▁uslijedio	-11.297
▁spašavanja	-11.297
▁opciju	-11.297
▁Šime	-11.297
▁lakši	-11.2971
▁mega	-11.2971
▁utječu	-11.2972
▁konkretno	-11.2977
▁temelje	-11.2978
▁rezultira	-11.2979
▁Gorici	-11.298
▁kvalitetni	-11.2981
kazao	-11.2983
▁iskoristili	-11.2984
▁svjedoče	-11.2987
▁Hezbolaha	-11.2988
▁političkom	-11.2991
▁spis	-11.2993
▁dolaskom	-11.2993
pitali	-11.2994
▁pogo	-11.2994
▁zaraditi	-11.2995
▁Drug	-11.2997
▁uhićenja	-11.2999
▁okruženje	-11.3
▁odgodi	-11.3002
▁odbila	-11.3002
▁zamisli	-11.3005
▁vjernik	-11.3006
▁rezultiral	-11.3007
▁obla	-11.3009
▁poslovnog	-11.3012
▁prekinuti	-11.3012
▁odrasle	-11.3014
▁detaljima	-11.3015
velo	-11.3016
račun	-11.3019
▁najvažnij	-11.302
▁Kijevu	-11.3021
▁sprječavanj	-11.3022
▁She	-11.3023
▁terminal	-11.3025
▁napali	-11.3027
▁dodan	-11.3028
▁nadoknadi	-11.3029
▁Slavo	-11.3029
▁prov	-11.3033
gospodar	-11.3035
▁zabili	-11.3037
▁kredita	-11.3037
▁klubom	-11.3038
▁podržavaju	-11.304
62	-11.3041
▁četvrto	-11.3041
▁Ten	-11.3042
▁žar	-11.3043
▁uvodn	-11.3045
▁ulazu	-11.3048
glasili	-11.3048
▁djelatnik	-11.3051
▁kriminaln	-11.3052
▁pozvali	-11.3055
▁plasti	-11.3055
bec	-11.3057
▁Vidim	-11.3057
▁intern	-11.3057
pak	-11.3059
▁Hezbollah	-11.306
▁Thompson	-11.306
▁Tottenham	-11.306
▁dijabetes	-11.306
▁državljana	-11.306
▁inicijativa	-11.306
▁obnovljen	-11.306
▁očekivao	-11.306
▁Alexander	-11.306
▁bespovratn	-11.306
▁Magazin	-11.306
▁baterija	-11.306
▁pravosudn	-11.306
▁prehrani	-11.306
▁vježbe	-11.306
▁prisjetila	-11.306
▁prirodu	-11.306
▁Sky	-11.306
▁omogućuju	-11.306
▁prodati	-11.306
▁primljen	-11.3061
▁sistem	-11.3061
▁Blue	-11.3061
▁postrojbe	-11.3062
▁matičn	-11.3062
▁krajevima	-11.3062
▁Sudac	-11.3064
▁Janković	-11.3064
▁sadrže	-11.3064
▁gastro	-11.3068
▁razgovore	-11.3069
▁Tvrdi	-11.3069
▁Uskok	-11.3071
zirao	-11.3071
▁specijalist	-11.3074
▁osmi	-11.3074
▁tvrdnje	-11.3079
▁Brojni	-11.308
▁Dnevni	-11.308
▁mladića	-11.308
▁redova	-11.3082
▁fali	-11.3082
▁desne	-11.3083
▁gradom	-11.3084
▁rame	-11.3085
▁Step	-11.3086
▁napore	-11.3089
▁ovogodišnjeg	-11.309
▁izdvojiti	-11.3091
▁englesk	-11.3091
▁parka	-11.3092
▁komplet	-11.3095
▁ministri	-11.3099
▁gorju	-11.31
▁gradove	-11.31
▁Kir	-11.3102
▁kupuje	-11.3104
▁vlastitog	-11.3105
OV	-11.3107
▁oduševljeni	-11.311
▁Serij	-11.3117
▁novinarka	-11.3119
▁lokacijama	-11.312
▁provjeri	-11.312
▁osjetiti	-11.3121
▁knji	-11.3123
▁Ray	-11.3125
▁kaznenom	-11.3125
▁stavljen	-11.3126
▁strategije	-11.3128
EA	-11.3129
▁današnjeg	-11.3132
▁izmjena	-11.3135
▁strast	-11.3138
▁Vodi	-11.3139
▁pratitelji	-11.3139
▁ljetne	-11.314
▁stvorio	-11.3145
▁pripremili	-11.3146
▁računati	-11.3147
▁Vijest	-11.3148
▁pametni	-11.3152
▁znanstveno	-11.3153
▁sindikat	-11.3155
dale	-11.3156
▁Zavod	-11.3161
čast	-11.3161
▁Hajdaš	-11.3163
▁ambijent	-11.3163
▁kirurg	-11.3163
▁ljudske	-11.3163
▁veleposlanik	-11.3163
▁Tvrtka	-11.3163
▁ankete	-11.3163
▁civila	-11.3163
▁trojica	-11.3163
▁Slijedi	-11.3163
▁počinju	-11.3163
▁adresi	-11.3163
▁jazz	-11.3164
▁podnesen	-11.3165
▁zaključiti	-11.3166
▁Izbor	-11.3166
▁sezonsk	-11.3167
▁istraživanju	-11.3167
▁Helen	-11.3168
▁dublje	-11.3168
▁HAK	-11.3169
▁izradu	-11.3169
▁političkoj	-11.317
DP	-11.317
03	-11.3171
▁nestalo	-11.3171
▁porastao	-11.3171
▁Martinović	-11.3173
▁nalik	-11.3174
▁privla	-11.3175
▁zabavni	-11.3175
▁Kevin	-11.3175
▁Spomen	-11.3175
▁sutkinj	-11.3177
▁zadovoljna	-11.3179
▁vodeće	-11.318
▁iznosio	-11.318
sip	-11.3187
▁tadašnji	-11.3187
04	-11.3188
▁lijevo	-11.3189
▁roditelj	-11.319
▁pratiteljima	-11.3191
▁namjera	-11.3193
▁Ex	-11.3196
▁stalni	-11.3197
▁zabrinut	-11.3198
▁Nastavi	-11.3199
▁Rezultati	-11.3201
▁Miami	-11.3201
▁Win	-11.3201
▁iznenada	-11.3206
▁1:1	-11.3207
▁dodatn	-11.321
đenja	-11.3212
▁Der	-11.3212
▁izgraditi	-11.3213
▁Ella	-11.3216
▁definiran	-11.3217
▁Eurosonga	-11.3217
▁dnu	-11.3219
▁znače	-11.322
▁živio	-11.3224
▁četvrtine	-11.3227
▁saznati	-11.3227
▁Jelen	-11.3232
56	-11.3233
izmom	-11.3234
▁gradskih	-11.3235
▁svlada	-11.3242
▁sastojci	-11.325
▁primjeren	-11.3252
▁slobodni	-11.3253
▁katastrofa	-11.3256
72	-11.3256
▁Prizna	-11.3258
▁Studen	-11.326
▁najboljem	-11.3263
í	-11.3267
▁dubrovački	-11.3267
▁efikasn	-11.3267
▁guverner	-11.3267
▁inteligencija	-11.3267
▁kompromis	-11.3267
▁ocjenu	-11.3267
▁očekivali	-11.3267
▁proslavljen	-11.3267
▁upotrijebi	-11.3267
▁Španjolac	-11.3267
▁Kramarić	-11.3267
▁dominantn	-11.3267
▁Uglavnom	-11.3267
▁baterije	-11.3267
▁drugdje	-11.3267
▁prirodne	-11.3267
▁humor	-11.3267
▁prošlu	-11.3267
▁Anto	-11.3267
▁prenose	-11.3267
▁dvoranu	-11.3268
▁počele	-11.3268
▁nazvati	-11.3268
▁razumjeti	-11.3268
field	-11.3268
▁ispitivanja	-11.3268
▁2003.	-11.3269
▁dostojanstv	-11.3271
▁Otac	-11.3271
▁šah	-11.3272
▁izabrani	-11.3273
▁pojasnil	-11.3273
▁privatno	-11.3274
▁prenijeti	-11.3275
▁Imaju	-11.3277
▁podigao	-11.3277
81	-11.3278
▁lijekovi	-11.3279
▁Lije	-11.328
Nije	-11.3285
▁privatnost	-11.3287
▁Mandić	-11.3287
▁Opet	-11.3288
▁sjećam	-11.329
▁djelu	-11.3291
▁radosti	-11.3291
92	-11.3292
▁vatreni	-11.3293
▁javn	-11.3294
▁Najveć	-11.3296
▁stanovi	-11.3296
stein	-11.3299
▁simpati	-11.33
▁otvaraju	-11.3301
▁poznatim	-11.3304
▁crta	-11.3304
▁crveno	-11.3305
▁vašoj	-11.3305
▁Lep	-11.3306
final	-11.3308
▁nadaju	-11.3308
▁Shi	-11.331
▁Situacija	-11.3317
▁stvaranja	-11.3317
▁Slam	-11.3319
▁stvarati	-11.332
▁razinama	-11.332
▁opisala	-11.332
▁proslavila	-11.3321
▁bolesnik	-11.3328
gnuti	-11.333
▁Kuć	-11.333
▁(0	-11.3331
▁ranij	-11.3333
:10	-11.3335
tović	-11.3337
▁toplije	-11.3342
▁trajala	-11.3343
▁organizirao	-11.3345
▁automobili	-11.3346
▁obuhvat	-11.3348
▁doprinosi	-11.3348
▁band	-11.3349
stvar	-11.3349
▁Selo	-11.3349
▁nužn	-11.335
▁donese	-11.3356
izbor	-11.336
▁proslavi	-11.336
bet	-11.3361
avne	-11.3365
skrb	-11.3366
▁klik	-11.3366
▁policajac	-11.3369
▁Vaša	-11.337
još	-11.3371
upanijsk	-11.3372
57	-11.3372
▁analizu	-11.3372
▁izložbi	-11.3372
▁tehnologiju	-11.3372
▁iskorištava	-11.3372
▁označava	-11.3372
▁tjestenin	-11.3372
▁vijećnici	-11.3372
▁Meghan	-11.3372
▁ekstra	-11.3372
▁Karoglan	-11.3372
▁ljepote	-11.3372
▁2027.	-11.3372
▁Michel	-11.3373
▁skladatelj	-11.3373
▁Lošinj	-11.3373
▁trošak	-11.3373
▁novcem	-11.3373
▁okolici	-11.3373
▁Peking	-11.3374
ected	-11.3375
▁obojic	-11.3375
Pr	-11.3376
▁Samobor	-11.3377
▁dočekao	-11.3377
▁party	-11.3378
▁Kristina	-11.3379
▁Tajvan	-11.3379
▁uvod	-11.338
▁upitao	-11.338
uge	-11.338
▁Franković	-11.3381
▁govoru	-11.3382
▁vanjske	-11.3382
▁dovoljan	-11.3383
51	-11.3384
▁nastupima	-11.3386
▁očaj	-11.3386
▁prolazak	-11.3389
▁guma	-11.3391
▁komentari	-11.3391
▁uplati	-11.3392
▁Naše	-11.3392
▁stabla	-11.3393
▁kršćan	-11.3394
▁neprijateljsk	-11.3398
▁remija	-11.34
▁brojka	-11.3408
▁metaln	-11.3411
▁Vlado	-11.3412
▁podizanj	-11.3415
▁padu	-11.3417
▁saboru	-11.3419
▁BI	-11.342
▁vrhunske	-11.3422
▁Svjetski	-11.3422
▁gledam	-11.343
▁informira	-11.3434
anec	-11.3436
sek	-11.3439
▁stvori	-11.344
▁šokiran	-11.3444
dijeli	-11.3447
▁predstavljanje	-11.3447
▁pregovori	-11.3451
▁pružanje	-11.3453
▁najnoviji	-11.346
▁Pokr	-11.3462
▁prote	-11.3467
▁inspektor	-11.3468
▁odnijel	-11.3475
▁Jure	-11.3476
▁influencer	-11.3477
▁stolje	-11.3478
▁Zagrep	-11.3478
▁funkcija	-11.3479
▁kolesterol	-11.3479
▁komunikaciju	-11.3479
▁popularne	-11.3479
▁Belgija	-11.3479
▁instalacij	-11.3479
▁uskrsn	-11.3479
▁1992.	-11.3479
▁pamćenje	-11.3479
▁Lončar	-11.3479
▁prodaja	-11.3479
▁šumsk	-11.3479
▁Svatko	-11.3479
▁stoljeću	-11.348
▁lopti	-11.348
▁koprivničk	-11.3481
▁akcijsk	-11.3481
▁učinila	-11.3481
▁Šef	-11.3481
▁Dvor	-11.3482
▁Siriji	-11.3483
▁Cap	-11.3483
▁stvarnost	-11.3483
▁Požar	-11.3484
▁mozak	-11.3484
▁potrošnju	-11.3486
▁Ukrajinski	-11.3486
▁navedene	-11.3487
▁jedanaest	-11.3487
▁Turske	-11.3488
▁pojavljuje	-11.3489
▁podrum	-11.3491
▁plamen	-11.3491
▁Pozivam	-11.3492
▁skija	-11.3492
cjenjuje	-11.3495
▁kaj	-11.35
▁25-	-11.3502
▁staž	-11.3503
▁navodeći	-11.3505
▁Jesu	-11.3506
▁sjaj	-11.3509
▁92	-11.351
jeve	-11.351
puštaju	-11.351
▁donošenje	-11.3512
▁korišten	-11.3513
▁poticanje	-11.3513
▁Bill	-11.3515
▁idealno	-11.3518
ativno	-11.3518
▁Preko	-11.3518
▁ključan	-11.3521
▁Pun	-11.3522
▁geo	-11.3523
▁izgradi	-11.3526
▁proglasio	-11.3528
▁Svečan	-11.353
uška	-11.353
ping	-11.3531
▁plinsk	-11.354
▁Nevjerojatn	-11.3542
▁idućeg	-11.3542
▁visokom	-11.3543
▁Gosti	-11.3543
▁službenik	-11.3547
▁zamijenio	-11.3548
▁Ovog	-11.3549
▁Bayer	-11.3553
▁stranim	-11.3557
out	-11.3557
▁pružil	-11.356
▁suđenja	-11.3561
▁ženi	-11.3563
▁kapitala	-11.3577
▁žanr	-11.3578
▁Stvarno	-11.3579
▁Šar	-11.358
▁rastuć	-11.3581
ljepša	-11.3584
▁urednic	-11.3585
▁Nezavisn	-11.3586
▁belgijsk	-11.3586
▁brazilsk	-11.3586
▁demantira	-11.3586
▁katedral	-11.3586
▁klupu	-11.3586
▁konferenciju	-11.3586
▁Moskva	-11.3586
▁tradicija	-11.3586
▁Osvrnu	-11.3586
▁Pjesm	-11.3586
▁zadovoljiti	-11.3586
▁gospodarenj	-11.3586
▁čimbenik	-11.3586
▁kišom	-11.3586
▁Cijena	-11.3587
▁lanjsk	-11.3587
▁uputili	-11.3587
▁bomba	-11.3587
▁dodjeli	-11.3588
▁stečaj	-11.359
▁Dabro	-11.359
▁temi	-11.3591
▁obrazovanju	-11.3591
VAJ	-11.3593
▁zube	-11.3594
▁sklopi	-11.3594
▁predložio	-11.3594
▁Albanije	-11.3595
▁njema	-11.3595
▁Turska	-11.3597
▁kW	-11.3598
▁ponovio	-11.3598
bot	-11.3599
02	-11.3599
▁špijun	-11.3604
▁Državn	-11.3606
▁NO	-11.3608
Rad	-11.3608
▁počinjen	-11.3608
▁udjela	-11.3609
▁epi	-11.3611
▁svladala	-11.3612
▁spavanja	-11.3613
▁potpuni	-11.3615
▁ukidanje	-11.3616
▁prihvati	-11.3616
▁težine	-11.3623
▁zajedničko	-11.3624
85	-11.3627
▁kino	-11.3629
▁Španjolci	-11.3631
▁proširenje	-11.3631
rf	-11.3635
▁vješti	-11.3636
bacili	-11.3638
▁dužin	-11.3638
▁uspješne	-11.3639
▁okupili	-11.364
▁izlaze	-11.3641
▁značajne	-11.3641
▁odvoji	-11.3642
▁zraku	-11.3646
▁kanalu	-11.3649
▁umjereno	-11.365
▁LA	-11.3652
▁start	-11.3652
▁inspiriran	-11.3653
▁željela	-11.3653
▁izboriti	-11.3654
▁vrijedne	-11.3654
▁vrti	-11.3654
▁studente	-11.3655
-20	-11.3657
▁sljedećeg	-11.3659
Svi	-11.3661
▁Međunarodni	-11.3664
▁kandidira	-11.3664
novo	-11.3668
:45	-11.3668
▁pridružio	-11.3668
▁privatnim	-11.3669
▁shva	-11.367
▁njenom	-11.367
▁obratil	-11.3672
▁Jack	-11.3672
▁dubrovačko	-11.3672
ajna	-11.3675
▁Tad	-11.3675
▁ušted	-11.3675
▁(9	-11.3675
riješen	-11.3678
▁autorica	-11.368
▁napomenuo	-11.3681
▁pristupačn	-11.3683
▁natjecateljsk	-11.3688
▁određenim	-11.3689
▁Amerika	-11.3691
87	-11.3691
▁iskusni	-11.3693
▁odveo	-11.3694
▁Komisije	-11.3695
▁World	-11.3695
▁ansambl	-11.3695
▁asistent	-11.3695
▁atmosferi	-11.3695
▁europsku	-11.3695
▁iznenađujuć	-11.3695
▁interpreta	-11.3695
▁pogriješi	-11.3695
▁svjetlu	-11.3695
▁vjenčanje	-11.3695
▁zastupnica	-11.3695
▁Iskreno	-11.3695
▁prodaji	-11.3695
▁Alcaraz	-11.3695
▁proučava	-11.3695
▁gledatelje	-11.3695
▁mjesn	-11.3695
▁aktivan	-11.3695
▁Walesa	-11.3695
▁biljke	-11.3695
▁Hamburg	-11.3695
▁prijetnju	-11.3695
▁CO	-11.3696
▁glatk	-11.3697
▁raspravi	-11.3697
▁zauzet	-11.3697
▁prevari	-11.3698
▁Nov	-11.3698
▁prijateljstva	-11.3699
▁igračem	-11.3699
▁kilogram	-11.3699
▁deseci	-11.3699
▁Četiri	-11.37
▁lijekove	-11.3702
▁fotografiji	-11.3702
▁talijanske	-11.3703
▁subotnj	-11.3704
▁kretanje	-11.3705
▁Babić	-11.3705
ložila	-11.3707
▁proračunu	-11.3709
▁Snimk	-11.3714
▁160	-11.3717
dis	-11.3717
▁doživjeli	-11.3718
▁Luku	-11.3719
▁derbija	-11.3722
bb	-11.3725
▁prošloj	-11.3726
▁slavni	-11.3726
▁prilagodi	-11.3734
▁vrtu	-11.3735
lagao	-11.3737
▁Ovakv	-11.3739
▁Steve	-11.3739
▁predstavili	-11.3742
▁Saveza	-11.3743
▁izbacio	-11.3744
▁otkazan	-11.3745
▁lokalnoj	-11.3745
▁ekstrem	-11.3747
▁zapadu	-11.3747
▁Matt	-11.3752
▁invalid	-11.3753
▁povećanju	-11.3753
▁energetske	-11.3754
▁znanstvenik	-11.3757
▁služe	-11.3758
▁trenersk	-11.3759
▁oprezni	-11.376
▁Pil	-11.3762
▁predstavljati	-11.3763
▁biciklist	-11.3768
▁aktualnog	-11.377
▁osjetio	-11.3772
▁Lici	-11.3775
▁kulturnog	-11.3783
▁Slobodna	-11.3785
▁čeln	-11.3788
▁iznajmljivač	-11.3788
▁slažu	-11.3792
▁zabranjeno	-11.3793
▁izvješ	-11.3795
▁većeg	-11.3798
▁vrtiću	-11.3799
-21	-11.3804
▁pjesnik	-11.3805
▁Centru	-11.3805
▁ambiciozn	-11.3805
▁koaliciju	-11.3805
▁povjesničar	-11.3805
▁Smith	-11.3805
▁dobrodošli	-11.3805
▁statistiku	-11.3805
▁snažnu	-11.3805
▁suzbijanj	-11.3805
▁samopouzdanje	-11.3805
▁ubojica	-11.3805
▁napominju	-11.3805
▁IDS	-11.3805
▁Grmoja	-11.3805
▁Upitan	-11.3805
▁Louis	-11.3805
▁prihvaćen	-11.3805
▁grupu	-11.3805
▁Sjajn	-11.3806
▁svakodnevni	-11.3806
▁pedeset	-11.3807
▁strukovn	-11.3808
▁ZET	-11.3808
▁Aleks	-11.3808
▁prijateljstvo	-11.3809
▁dočekali	-11.381
▁dijagnosticiran	-11.3811
▁današnjem	-11.3811
▁dočekati	-11.3811
▁Doris	-11.3813
▁pridržava	-11.3814
▁uvjerava	-11.3815
▁prestaje	-11.3815
▁oluja	-11.3816
▁prolazn	-11.3816
mont	-11.3817
▁000	-11.3817
▁uništi	-11.3817
▁kvalitetan	-11.3819
▁četvornih	-11.382
▁Uprava	-11.3821
puštanja	-11.3822
▁natjecatelji	-11.3822
▁pivo	-11.3824
ED	-11.3827
▁dovelo	-11.3832
benik	-11.3834
▁kvalificira	-11.3834
▁prilagoditi	-11.3836
▁prvaci	-11.3836
▁(12	-11.3838
▁nisi	-11.3842
▁posjetiteljima	-11.3848
▁6-2	-11.385
▁istine	-11.385
▁stavili	-11.3853
▁by	-11.3859
▁parlamentarnim	-11.3864
▁opasna	-11.3869
▁regionalne	-11.387
▁redar	-11.3872
real	-11.3874
▁Kas	-11.3874
▁Umag	-11.3876
▁terorist	-11.3876
▁manjih	-11.388
▁ostavili	-11.3884
etvrti	-11.3885
▁pacijentima	-11.3886
rget	-11.3887
▁kasn	-11.3889
▁neobično	-11.389
▁sjeda	-11.3894
ćenje	-11.3895
Split	-11.3896
▁bolj	-11.3897
knuo	-11.3898
▁Siniša	-11.3899
▁krivim	-11.3899
kakvih	-11.39
zel	-11.3902
100	-11.3902
▁Njih	-11.3911
▁postroj	-11.3911
▁njemačkom	-11.3912
▁Anti	-11.3912
▁razgovori	-11.3914
▁svjež	-11.3915
ó	-11.3916
▁Engleske	-11.3916
▁destinacije	-11.3916
▁konferencija	-11.3916
▁najbogatij	-11.3916
▁neutraln	-11.3916
▁orkestra	-11.3916
▁karcinom	-11.3916
▁utemeljen	-11.3916
▁portret	-11.3916
▁pratnji	-11.3916
▁izrečen	-11.3916
▁proljetn	-11.3916
▁jedanaesterac	-11.3916
▁pothvat	-11.3916
▁umrla	-11.3916
▁nestanka	-11.3916
▁izvesti	-11.3916
▁nagađa	-11.3916
▁kišu	-11.3917
▁grudi	-11.3917
▁balkon	-11.3917
▁izoliran	-11.3917
▁polja	-11.3917
▁licenc	-11.3918
▁zaustavljen	-11.3918
▁(10	-11.3918
▁Roland	-11.392
▁nestao	-11.3921
▁privukao	-11.3924
▁Dosad	-11.3925
▁tehničar	-11.3925
▁Gospodin	-11.3926
▁voze	-11.3926
▁zakonski	-11.3926
▁presudn	-11.3927
▁Grlić	-11.3928
▁centi	-11.3928
▁mislila	-11.3928
▁indijsk	-11.393
▁lošeg	-11.3931
▁poslovnom	-11.3933
▁pažljivo	-11.3933
▁predavanje	-11.3935
▁krši	-11.3941
▁Odbor	-11.3943
▁desnog	-11.3944
▁24-	-11.3945
▁prihvatila	-11.3945
▁ruši	-11.3946
▁izmjenama	-11.3946
▁znanstveni	-11.3947
▁odluče	-11.3949
▁osumnjičenik	-11.3951
▁četvrtka	-11.3951
▁x	-11.3953
▁WC	-11.3953
▁asfalt	-11.3954
▁postan	-11.3955
▁zaustavili	-11.3958
▁tla	-11.3959
▁crnu	-11.396
▁pratio	-11.3964
štva	-11.3965
▁limuna	-11.3965
▁Mars	-11.3969
▁laži	-11.3973
▁Andre	-11.3974
▁autentičn	-11.3975
▁manjim	-11.3976
vezao	-11.3978
▁uništil	-11.3987
▁presti	-11.3994
vatreni	-11.3995
In	-11.4001
▁upozori	-11.4002
HDZ	-11.4008
▁Mađarsk	-11.4011
▁juniorsk	-11.4011
▁Rimu	-11.4012
eras	-11.4015
▁Velik	-11.4016
▁Poljsk	-11.4021
▁seksualni	-11.4021
▁Prati	-11.4023
▁Baranj	-11.4028
▁Moskve	-11.4028
▁integrira	-11.4028
▁reality	-11.4028
▁autocesta	-11.4028
▁bombardira	-11.4028
▁kulinarsk	-11.4028
▁Dallas	-11.4028
vrati	-11.4028
▁nastojanj	-11.4028
▁oborine	-11.4028
▁doduše	-11.4028
▁1990.	-11.4028
▁stotinu	-11.4028
▁rundi	-11.4028
▁unatrag	-11.4029
▁komore	-11.4029
▁drame	-11.4029
▁Štef	-11.4029
▁razumijevanja	-11.4029
▁Leonard	-11.4029
▁gospođa	-11.403
▁poštovanja	-11.403
▁najteži	-11.403
▁Australiji	-11.403
▁7-6	-11.403
▁krizu	-11.4031
poštivanj	-11.4032
▁motiviran	-11.4033
▁zadobil	-11.4035
▁Vran	-11.4039
▁inspektorat	-11.4039
▁Tvr	-11.404
▁usporava	-11.4041
▁Idemo	-11.4044
▁propustit	-11.4045
▁kupili	-11.4047
▁Nizozemska	-11.4049
▁sportova	-11.4049
▁Perković	-11.405
hid	-11.4052
▁poslovima	-11.4054
▁spremnost	-11.4056
▁stvorili	-11.4056
▁boljeg	-11.4058
▁financiranja	-11.406
▁domova	-11.4062
inkovit	-11.4066
▁punu	-11.4066
▁predložen	-11.4069
▁kuhanje	-11.4069
▁But	-11.4069
ivio	-11.4071
▁NE	-11.4072
▁snagama	-11.4074
vcima	-11.4077
▁stavila	-11.4078
▁primila	-11.4082
▁upoznat	-11.4085
▁razumijem	-11.4085
▁kupnje	-11.4086
▁crvenom	-11.4086
▁TZ	-11.4095
▁odlučn	-11.4098
▁započeli	-11.4104
▁99	-11.4106
šut	-11.4106
▁(2)	-11.4107
▁dogovoru	-11.4108
▁konstantno	-11.4109
▁Zagrebački	-11.4111
▁osmini	-11.4112
elio	-11.4112
▁kotaru	-11.4113
▁Bran	-11.4116
▁američkom	-11.4117
▁Fred	-11.4118
▁struke	-11.4122
▁ocem	-11.4122
Mislim	-11.4122
▁Vje	-11.4125
▁odgovorno	-11.4126
▁predsjedničkih	-11.4126
▁ponudio	-11.4127
▁baza	-11.4129
▁Cest	-11.4129
▁načeln	-11.4131
▁župn	-11.4131
▁kupu	-11.4136
▁Glasnogovorni	-11.4142
▁Legendarn	-11.4142
▁Mbappe	-11.4142
▁bakterija	-11.4142
▁infekcije	-11.4142
▁intervencije	-11.4142
▁najavljuju	-11.4142
▁sudjelovanja	-11.4142
▁vaterpolist	-11.4142
▁intervenira	-11.4142
▁lokaciju	-11.4142
▁Jordan	-11.4142
▁drastičn	-11.4142
▁reciklira	-11.4142
▁izvedbi	-11.4142
▁tkiv	-11.4142
▁Očito	-11.4142
▁kratkoročn	-11.4142
▁ukraden	-11.4142
▁šume	-11.4142
▁Kapetan	-11.4142
▁Jadrolinije	-11.4142
▁Tokiju	-11.4142
▁Zagrepčani	-11.4142
▁ranjiv	-11.4142
▁kazalištu	-11.4142
▁dućan	-11.4143
▁zakazan	-11.4143
▁dolje	-11.4143
▁smanjuju	-11.4143
▁foto	-11.4143
▁oborina	-11.4143
▁Branimir	-11.4143
▁Brekalo	-11.4143
▁zaigrati	-11.4143
▁prekidu	-11.4143
▁3:0	-11.4144
▁objektivn	-11.4144
▁mrežn	-11.4145
▁majčin	-11.4145
▁potragu	-11.4146
▁pomogla	-11.4146
▁Narodn	-11.4147
▁slijep	-11.4148
▁prvotno	-11.4148
▁staro	-11.4149
▁punim	-11.4149
▁boljim	-11.415
▁klase	-11.415
▁Vatren	-11.415
▁zemljište	-11.4151
▁održavati	-11.4152
▁pravima	-11.4155
▁kraljica	-11.4156
▁pripadnik	-11.4156
low	-11.4156
▁župnik	-11.4157
▁proširiti	-11.4157
▁jasna	-11.4158
▁Palm	-11.4158
▁Ivanec	-11.4159
▁Srpski	-11.4159
▁Član	-11.416
▁zatvoriti	-11.416
▁vlastitih	-11.4162
▁Angelesu	-11.4164
▁bivšem	-11.4165
▁sportskom	-11.4166
▁seksualne	-11.4169
▁Dalmatinsk	-11.4171
▁iskustvom	-11.4173
▁Lind	-11.4173
▁praćenje	-11.4174
▁sjeverni	-11.4177
▁poslovanju	-11.4178
▁Lučić	-11.418
▁Sar	-11.4181
▁Planira	-11.4181
▁dočekuje	-11.4186
▁eventualno	-11.4189
▁razumije	-11.4202
▁kupuju	-11.4207
▁Kel	-11.4207
▁segmentu	-11.4207
▁privukla	-11.4208
▁glazbenih	-11.4208
▁Vojn	-11.4209
▁Morat	-11.4217
▁86	-11.4218
▁pir	-11.4221
ajmo	-11.4223
▁brodovi	-11.4224
▁Dubrovačko	-11.4225
▁Nadal	-11.4227
▁nakit	-11.4227
▁optere	-11.4227
▁održivosti	-11.4228
AI	-11.4229
Pos	-11.4232
ivim	-11.4233
▁Beču	-11.4234
Hrvatska	-11.4237
▁Bruxellesu	-11.424
▁zahvatil	-11.4248
▁Opus	-11.4249
▁alternativn	-11.4257
▁dokumenata	-11.4257
▁eksplozije	-11.4257
▁medicinu	-11.4257
▁nevremena	-11.4257
▁osoblja	-11.4257
▁pročelnik	-11.4257
▁sveučilišn	-11.4257
▁zlouporab	-11.4257
▁glume	-11.4257
▁libanonsk	-11.4257
▁neprestano	-11.4257
▁liječenju	-11.4257
▁svrhe	-11.4257
▁isplaćen	-11.4257
▁posljednju	-11.4257
▁pripremn	-11.4257
▁Apple	-11.4257
▁kretati	-11.4257
▁pomoglo	-11.4257
▁imovinu	-11.4257
▁preferira	-11.4257
▁Židov	-11.4257
▁Kristijan	-11.4257
▁Preminu	-11.4257
▁naučio	-11.4257
▁vještak	-11.4257
▁Grupa	-11.4257
▁bombe	-11.4258
▁skladište	-11.4258
▁Optu	-11.4258
▁Upozna	-11.4259
▁prijepodne	-11.4259
▁ljeti	-11.426
▁prevare	-11.426
▁strogo	-11.4261
▁poštuju	-11.4262
▁turističkih	-11.4262
▁svemirsk	-11.4262
▁uveden	-11.4263
▁navike	-11.4264
▁posvetiti	-11.4264
▁svjetlost	-11.4268
irajte	-11.4271
▁propisima	-11.4273
▁prirodnih	-11.4273
▁Treći	-11.4277
▁prosje	-11.4279
▁Tih	-11.4281
▁baze	-11.4282
▁jugoistočn	-11.4283
zirani	-11.4284
▁Ive	-11.4284
▁3,5	-11.4286
▁nazivaju	-11.4287
▁Lab	-11.4288
▁pokoj	-11.4288
▁Švedskoj	-11.4291
▁Ulice	-11.4293
▁fenomenaln	-11.4294
▁Jean	-11.4294
▁ponosna	-11.4302
▁ostanu	-11.4305
▁desno	-11.4307
▁bake	-11.4307
▁teškog	-11.4308
▁putova	-11.4315
▁1,3	-11.4318
izmu	-11.4325
▁meču	-11.4327
pisuje	-11.4327
▁Kut	-11.4328
▁tražila	-11.4331
▁proizvodn	-11.4333
▁Srpske	-11.4333
▁Odjela	-11.4338
▁ozbiljna	-11.4338
stoji	-11.4339
▁najvećem	-11.4348
tvrd	-11.4351
▁proziva	-11.4351
plaće	-11.4355
▁njenog	-11.4355
▁Markov	-11.4357
▁Dubrovački	-11.4358
▁juga	-11.436
▁obiteljskog	-11.4362
▁državljani	-11.4364
▁probavn	-11.4367
▁Nekad	-11.437
▁poslovnim	-11.4372
▁konvencij	-11.4373
▁Vatrogasci	-11.4373
▁Zlatka	-11.4373
▁grmljavinsk	-11.4373
▁osmišljen	-11.4373
▁rumunjsk	-11.4373
▁smrtonosn	-11.4373
▁opskrbe	-11.4373
▁kalorija	-11.4373
▁1996.	-11.4373
▁odgođen	-11.4373
▁otežava	-11.4373
▁povezati	-11.4373
▁Sanader	-11.4373
▁dokumentaciju	-11.4373
▁šansa	-11.4373
▁najjači	-11.4373
▁zamjena	-11.4373
▁Christian	-11.4373
▁ljepoti	-11.4373
▁naglasak	-11.4373
▁pokazale	-11.4373
▁srednju	-11.4373
▁Ferrari	-11.4373
▁brašno	-11.4373
▁uvjeriti	-11.4374
▁mineral	-11.4374
▁predvođen	-11.4374
▁paziti	-11.4374
▁ulagač	-11.4374
▁semafor	-11.4375
▁otpjeva	-11.4375
▁odlasku	-11.4375
▁dojke	-11.4375
▁sljedeću	-11.4375
▁živjeli	-11.4376
▁preselio	-11.4376
▁Njemački	-11.4377
▁napala	-11.4377
▁Messi	-11.4378
▁Fort	-11.4378
▁potrošnje	-11.4378
▁Ljubi	-11.4379
▁štand	-11.4379
▁pobjeći	-11.438
▁nadolazeće	-11.438
▁Ilić	-11.438
▁filozofij	-11.4382
▁uslijedila	-11.4383
▁Dvornik	-11.4384
▁negativne	-11.4386
plov	-11.4388
▁ističući	-11.4388
smrt	-11.439
▁šalice	-11.4391
▁birati	-11.4391
▁smiren	-11.4392
▁vjere	-11.4392
▁23-	-11.4392
▁sedmi	-11.4394
▁međunarodnog	-11.4399
▁zajedničkog	-11.4401
▁dugogodišnje	-11.4401
▁plaćanje	-11.4402
▁nisko	-11.4404
▁Dobra	-11.4404
▁pretjeran	-11.4405
▁Večernje	-11.4408
▁najljepših	-11.4409
▁Vaše	-11.4411
▁izvode	-11.4419
▁Gorskom	-11.4421
▁odigrala	-11.4424
▁maslina	-11.4425
▁negira	-11.4426
krat	-11.4426
dal	-11.4427
▁ovogodišnji	-11.4429
izaciji	-11.443
ništva	-11.443
▁Splićani	-11.4432
▁zdravstvenom	-11.4433
▁spavanje	-11.4436
▁zaostatka	-11.4436
▁prora	-11.4437
▁lijevom	-11.4437
▁privatnih	-11.4437
▁predstavnicima	-11.4442
nskim	-11.4443
▁Sindikata	-11.4443
▁kakvi	-11.4444
▁slovačk	-11.4445
▁sudionike	-11.4446
▁Bidenov	-11.4447
▁zaključa	-11.445
▁hibridn	-11.4451
▁trka	-11.4453
▁međunarodnih	-11.4453
▁Mac	-11.4457
▁udobnost	-11.4458
▁volimo	-11.4458
▁nečij	-11.446
▁kuša	-11.446
▁približi	-11.4463
▁uspješna	-11.4464
ističke	-11.4465
▁padne	-11.4468
▁Australi	-11.4468
▁organizirali	-11.4469
nny	-11.4472
▁Bosilj	-11.4475
▁kršenje	-11.4475
▁sjeverozapadni	-11.4489
▁Stuttgart	-11.4491
▁Uostalom	-11.4491
▁Volkswagen	-11.4491
▁besplatan	-11.4491
▁edukativn	-11.4491
▁geopolitičk	-11.4491
▁iscrpljen	-11.4491
▁kvalitetne	-11.4491
▁neprimjeren	-11.4491
▁pjesmi	-11.4491
▁portugalsk	-11.4491
▁proizlazi	-11.4491
▁upotrebu	-11.4491
▁uspomene	-11.4491
▁virtualn	-11.4491
▁vremenima	-11.4491
▁COVID	-11.4491
▁Kulenović	-11.4491
▁doprinijeti	-11.4491
▁Englez	-11.4491
▁pristojn	-11.4491
▁želji	-11.4491
▁Promjen	-11.4491
▁tribini	-11.4491
▁najmlađe	-11.4491
▁uragan	-11.4492
▁tlu	-11.4492
▁drugoplasiran	-11.4492
▁potrošači	-11.4492
▁zaposli	-11.4492
▁potvrdu	-11.4493
▁Vlašić	-11.4493
▁ustanovi	-11.4494
▁afere	-11.4494
▁odaziv	-11.4498
▁sajam	-11.4498
▁1,2	-11.4499
▁skupu	-11.4499
lazimo	-11.4499
▁France	-11.45
▁posvetio	-11.45
očetkom	-11.4501
▁povela	-11.4501
▁Tolik	-11.4503
▁mail	-11.4503
▁predsjeda	-11.4506
▁potvrđen	-11.4507
pravu	-11.4507
▁gotovi	-11.4509
▁konkurentnost	-11.4509
▁dragi	-11.451
rray	-11.4512
▁Komentira	-11.4512
▁kliničk	-11.4516
▁ostavi	-11.4517
▁zastava	-11.4517
▁juri	-11.4517
▁Deset	-11.4517
▁Bir	-11.4518
▁optužbi	-11.452
▁zarobljeni	-11.4523
▁pitati	-11.4523
▁zaposlenicima	-11.4524
▁darova	-11.4529
▁planova	-11.453
▁pristupiti	-11.4532
▁ring	-11.4532
▁nijedan	-11.4532
▁olakšati	-11.4533
▁alarm	-11.4536
▁nastupom	-11.4537
▁slovenski	-11.4538
▁lav	-11.4541
▁roditeljsk	-11.4541
▁rane	-11.4543
▁preskoči	-11.4549
▁kupce	-11.455
▁sestri	-11.4551
▁Poznati	-11.4552
▁činilo	-11.4553
▁ovogodišnjem	-11.4554
▁ukusn	-11.4555
▁svečanosti	-11.4562
ges	-11.4568
▁glasanje	-11.4571
▁provedbe	-11.4573
▁olakšava	-11.4576
▁pretjerano	-11.4577
▁preporuka	-11.4584
▁tehnika	-11.4585
▁svjedoci	-11.4586
▁vokal	-11.4588
▁uključival	-11.4591
▁suočavaju	-11.4596
▁nestali	-11.4598
▁Liam	-11.4598
zelen	-11.4598
▁98	-11.46
▁Prek	-11.46
DC	-11.4602
▁turski	-11.4603
▁raspolo	-11.4604
njić	-11.4606
▁Vam	-11.4607
▁francuske	-11.4607
▁ponek	-11.4609
▁5000	-11.4609
▁Herceg	-11.461
▁osloba	-11.461
▁Izložb	-11.461
▁izložbu	-11.461
▁legende	-11.461
▁maksimum	-11.461
▁procjene	-11.461
▁Ubrzo	-11.461
▁kuhinje	-11.461
▁skupštine	-11.461
▁stabala	-11.461
▁sankcije	-11.461
▁vlasnica	-11.461
▁Bošnjak	-11.461
▁srušen	-11.461
▁1993.	-11.461
▁titule	-11.461
▁prekinuo	-11.461
▁Velimir	-11.461
▁Dječje	-11.461
▁jednokratn	-11.461
▁anonimn	-11.461
▁summit	-11.461
▁Izgleda	-11.461
▁2030.	-11.4611
▁čuvati	-11.4611
▁općinsk	-11.4611
▁kazalište	-11.4612
▁pauze	-11.4613
▁vatru	-11.4614
▁Hlad	-11.4614
▁pošalj	-11.4614
98	-11.4615
▁hotelsk	-11.4615
▁slogan	-11.4615
▁promišlja	-11.4616
▁protokol	-11.4616
▁prvakinja	-11.4616
▁parcel	-11.4617
▁sinom	-11.462
▁platil	-11.4621
▁Hvaru	-11.4622
▁komunističk	-11.4623
dinu	-11.4623
▁punjen	-11.4625
ilišta	-11.4629
▁balet	-11.4634
▁popravi	-11.4635
▁trendovi	-11.4636
▁budite	-11.4638
▁sirijsk	-11.4638
▁jezera	-11.4639
▁uništava	-11.4642
▁Pored	-11.4644
▁Rođen	-11.4647
▁Mun	-11.4647
▁izlazn	-11.4648
EV	-11.4648
▁javiti	-11.4649
ilištu	-11.4653
▁fokusu	-11.4654
▁svjedo	-11.4655
▁Ukupn	-11.4656
enko	-11.4657
▁jesam	-11.4659
▁tumor	-11.4664
▁optužio	-11.4665
▁plaćati	-11.4667
▁obećava	-11.4669
▁plju	-11.467
▁očev	-11.4672
▁odjenu	-11.4678
▁sapun	-11.4681
▁Švicarske	-11.4685
▁zanimanje	-11.4686
▁uređaji	-11.4686
▁Borussije	-11.4687
▁uzela	-11.4689
▁energetsku	-11.4689
▁vidu	-11.4698
ivjela	-11.4699
SI	-11.4701
mann	-11.4705
▁podijeli	-11.4705
▁uzrokuju	-11.4709
▁razočara	-11.473
vost	-11.473
▁prisje	-11.473
▁Bartulica	-11.473
▁Društven	-11.473
▁PAOK	-11.473
▁distribucij	-11.473
▁milijardu	-11.473
▁upotrebe	-11.473
▁vlasništvo	-11.473
▁alergij	-11.473
▁beogradsk	-11.473
▁dvojicu	-11.473
▁gospodarske	-11.473
▁haljine	-11.473
▁mediteransk	-11.473
▁uklanjanje	-11.473
▁magazin	-11.473
▁Ivanišević	-11.473
▁zahvaljujem	-11.473
▁potvrđuju	-11.473
▁polovicu	-11.473
rađivao	-11.473
▁domoljub	-11.473
▁Kolo	-11.473
▁isplate	-11.4731
▁čarobn	-11.4731
▁stanovnike	-11.4731
▁Govore	-11.4731
▁postojanja	-11.4731
▁šarm	-11.4731
▁snimili	-11.4731
▁poglavlj	-11.4731
▁oluje	-11.4732
▁istoimen	-11.4732
▁Šibensko	-11.4732
▁pratitelje	-11.4734
▁majkom	-11.4735
▁kućama	-11.4736
▁kružn	-11.4741
▁prenijel	-11.4741
▁tehnike	-11.4742
▁Alb	-11.4743
▁nadležnosti	-11.4743
▁Žene	-11.4743
▁predsjedničkim	-11.4747
▁iznajmljiva	-11.4749
▁pribli	-11.4753
▁rivi	-11.4754
nger	-11.4754
▁programima	-11.4759
▁sjedala	-11.476
▁60-	-11.476
▁potrošačk	-11.476
▁Green	-11.4761
▁strategija	-11.4761
▁pregovorima	-11.4762
▁Oleg	-11.4763
▁poveća	-11.4763
▁reklo	-11.4764
▁umjetnici	-11.4765
▁nacrt	-11.4767
▁Međunarodnog	-11.477
86	-11.4776
▁trgovinama	-11.4777
▁ekološki	-11.4777
▁odrediti	-11.4779
▁ruka	-11.4782
▁reagirali	-11.4787
▁izjavama	-11.4788
▁pojačanje	-11.4788
▁čekali	-11.4788
▁bojim	-11.4789
▁događajima	-11.4791
▁kontrolirati	-11.4794
▁prijevod	-11.4795
▁muškarcima	-11.4796
▁potpisivanj	-11.4802
inec	-11.4803
▁društveni	-11.4806
▁studentima	-11.4807
▁otpornosti	-11.4808
▁Nastup	-11.4809
▁teror	-11.4812
▁sljedećem	-11.4815
▁pokaz	-11.482
▁stanari	-11.482
TV	-11.4821
▁izbjegavanj	-11.4823
▁navedenog	-11.4824
▁korisno	-11.4827
▁organizirala	-11.4827
▁članka	-11.4832
kasnije	-11.4833
▁Arsen	-11.4836
▁desetke	-11.4838
▁Olmo	-11.4841
▁Dosta	-11.4846
▁profesorica	-11.4846
▁napadnut	-11.4847
▁Pula	-11.4849
▁podsje	-11.4852
▁masn	-11.4852
▁Twitter	-11.4852
▁ambicije	-11.4852
▁epizodu	-11.4852
▁mješavin	-11.4852
▁osobnu	-11.4852
▁postupke	-11.4852
▁proizveden	-11.4852
▁televizije	-11.4852
▁Nadzorn	-11.4852
▁koktel	-11.4852
▁površinu	-11.4852
▁tijelima	-11.4852
▁smisao	-11.4852
▁briljira	-11.4852
▁oslobađanj	-11.4852
▁stigne	-11.4852
▁harmoni	-11.4852
▁Predrag	-11.4852
▁Konzum	-11.4852
▁oznake	-11.4853
▁2002.	-11.4853
▁Svjedo	-11.4853
▁Francis	-11.4853
▁namjeru	-11.4853
▁duhovit	-11.4853
▁pristao	-11.4853
▁Kolind	-11.4854
▁Višnj	-11.4855
▁dugog	-11.4857
▁parišk	-11.4859
▁Pisa	-11.486
▁pisac	-11.486
▁Budi	-11.4862
▁human	-11.4862
▁iznositi	-11.4867
ništvo	-11.487
▁pozivam	-11.487
▁Ken	-11.4872
▁izbio	-11.4873
▁rukometaši	-11.4873
▁Vrati	-11.4875
▁Gab	-11.4876
▁poslan	-11.4879
▁upozorili	-11.4881
▁najva	-11.4887
sol	-11.4891
ističko	-11.4891
▁raspoloženje	-11.4892
▁sućut	-11.4897
▁vidljivost	-11.4906
▁tehničke	-11.491
▁pohvalila	-11.4915
▁produžen	-11.4916
▁republikansk	-11.4917
▁potpisali	-11.4918
▁prepoznat	-11.4919
▁postizanje	-11.4925
▁Izraelsk	-11.4928
▁Slavn	-11.4933
▁Čim	-11.4939
publi	-11.494
▁povećao	-11.494
▁počet	-11.4945
▁kratki	-11.4947
▁automobilima	-11.4957
▁narativ	-11.4958
▁Općinsko	-11.496
▁ispitan	-11.4961
rskom	-11.4961
▁kva	-11.4963
▁birači	-11.4963
▁borili	-11.4964
▁poljoprivrednik	-11.4965
▁Glo	-11.4966
▁Večer	-11.4968
▁1,4	-11.4969
▁IV	-11.4969
▁Pokuša	-11.497
▁vodič	-11.4974
sav	-11.4974
▁magistr	-11.4975
▁Ljubljani	-11.4976
▁Vrhovnog	-11.4976
▁eliminira	-11.4976
▁koncentracija	-11.4976
▁obnavlja	-11.4976
▁ozljedu	-11.4976
▁platformu	-11.4976
▁poslodavci	-11.4976
▁procjenu	-11.4976
▁vukovarsk	-11.4976
▁Bivša	-11.4976
▁kombinacije	-11.4976
▁Zaprešić	-11.4976
▁jednostavna	-11.4976
▁otputova	-11.4976
▁proljeća	-11.4976
▁Knoll	-11.4976
▁okrenuo	-11.4976
▁režiji	-11.4976
▁Zemlje	-11.4976
▁pokreće	-11.4976
▁smjene	-11.4976
▁General	-11.4976
▁Mirjana	-11.4976
▁inovacije	-11.4976
▁odbijen	-11.4976
▁odlične	-11.4976
▁Posavec	-11.4976
▁upravitelj	-11.4976
▁Podravsk	-11.4976
▁blizak	-11.4976
▁štap	-11.4976
▁stajališta	-11.4977
▁Koreje	-11.4977
▁gostovanje	-11.4977
▁strastven	-11.4977
▁Izvršn	-11.4977
▁postignuća	-11.4977
▁Mlinarić	-11.4978
▁stopu	-11.4978
▁radikaln	-11.4978
▁HEP	-11.4978
▁groblju	-11.4979
▁izrađen	-11.4979
▁3-2	-11.4979
▁2-2	-11.498
▁ovogodišnje	-11.498
▁igralište	-11.498
▁Podgor	-11.4982
▁zabavno	-11.4982
▁zbivanja	-11.4982
▁planovi	-11.4985
▁loših	-11.4987
▁nastavu	-11.4988
▁proteklog	-11.4988
▁Cvit	-11.4991
▁popodnevn	-11.4992
▁potonu	-11.4993
▁Lovro	-11.4993
▁normalan	-11.4993
▁Bruxelles	-11.4994
▁indi	-11.4994
▁zastoj	-11.4995
▁prostorijama	-11.4996
▁rodnom	-11.4997
kakve	-11.4997
▁Amerikank	-11.4998
nsku	-11.5002
▁upute	-11.5002
▁ponosno	-11.5003
▁Jednom	-11.5004
▁pobjednici	-11.5005
▁balon	-11.5005
▁kupljen	-11.5007
▁tenisačica	-11.5007
▁Tony	-11.5007
Nema	-11.5009
▁obustav	-11.5012
▁filmove	-11.5014
▁Kolar	-11.5014
▁kategorijama	-11.5017
▁pojavili	-11.5017
viđa	-11.5019
kupan	-11.502
▁bacio	-11.5025
▁natjecatelja	-11.5026
▁članku	-11.5034
▁izgledala	-11.5037
▁RA	-11.5038
▁(11	-11.5041
cker	-11.5043
▁Francuski	-11.5043
▁pokuša	-11.5044
▁volite	-11.5049
▁kontinuiran	-11.5051
▁glazbena	-11.5056
▁ispravn	-11.5056
duži	-11.5058
▁umre	-11.5058
▁privlače	-11.5059
▁rekorder	-11.5061
▁Posebn	-11.5063
▁tempo	-11.5065
▁javnoj	-11.5071
▁lokalnom	-11.5071
▁poslovi	-11.5073
▁trake	-11.5074
ivjeti	-11.5075
▁May	-11.508
bez	-11.508
▁Williams	-11.5086
▁suradnic	-11.5092
▁boksačk	-11.5093
▁Direkt	-11.5097
▁dokazati	-11.51
▁Argentina	-11.5101
▁Lasagne	-11.5101
▁dobrovoljn	-11.5101
▁ekonomske	-11.5101
▁gradonačelnic	-11.5101
▁nagrađivan	-11.5101
▁nepovoljn	-11.5101
▁oporavlja	-11.5101
▁podrijetla	-11.5101
▁procedura	-11.5101
▁sveobuhvatn	-11.5101
▁kriptovaluta	-11.5101
▁posudbu	-11.5101
▁skupštini	-11.5101
▁pismu	-11.5101
▁londonsk	-11.5101
▁drugačija	-11.5101
▁1994.	-11.5101
▁podzemn	-11.5101
▁mjeru	-11.5101
▁Victor	-11.5101
▁povući	-11.5101
▁Jasmin	-11.5101
▁ogorčen	-11.5102
▁dodjelu	-11.5102
▁režira	-11.5103
▁ultra	-11.5103
▁Karlovac	-11.5103
▁mišića	-11.5104
▁pritvorsk	-11.5105
▁Story	-11.5105
▁Index	-11.5106
▁psiho	-11.5106
▁pronađe	-11.5107
▁stajati	-11.5109
▁Black	-11.511
▁kraće	-11.5112
▁najvažniji	-11.5112
▁Najavi	-11.5112
▁priroda	-11.5113
▁večernji	-11.5113
▁zvali	-11.5114
▁(1)	-11.5117
▁generalno	-11.5122
▁platio	-11.5125
▁uzrast	-11.5125
▁krenu	-11.5127
▁Božje	-11.5128
▁ozbiljnije	-11.5128
▁Meštrović	-11.5129
▁donošenja	-11.513
▁kliza	-11.513
▁oružjem	-11.5131
▁89	-11.5132
▁ljutit	-11.5135
jedini	-11.5138
▁klasik	-11.5138
▁press	-11.5138
▁dječjeg	-11.5139
▁saznali	-11.5139
▁Lok	-11.5141
▁Puha	-11.5141
▁javili	-11.5146
▁putovati	-11.5146
▁uživanje	-11.5152
▁otkriveno	-11.5152
▁postupanje	-11.5154
ME	-11.5158
šek	-11.5163
▁Stvar	-11.5163
▁kava	-11.5164
▁odnio	-11.5164
▁kritizirao	-11.5169
▁potvr	-11.5171
71	-11.5173
ptič	-11.5174
▁povratn	-11.5176
▁Trst	-11.5182
▁značilo	-11.5183
▁obaln	-11.5185
▁vruć	-11.5188
▁Tagi	-11.5188
▁ozbiljnij	-11.5189
▁pjevati	-11.5192
čisti	-11.5192
▁romanti	-11.5196
▁Bot	-11.5199
▁Plavi	-11.5199
▁trenirati	-11.5199
▁Kova	-11.5202
▁91	-11.5204
▁ratnog	-11.5211
▁oduševljenje	-11.5216
▁Veliku	-11.5221
grafija	-11.5221
profesional	-11.5224
▁zabilje	-11.5224
▁priuštiti	-11.5227
▁srbijansk	-11.5227
▁tjednima	-11.5227
▁čokolade	-11.5227
▁budžet	-11.5227
▁preživljava	-11.5227
▁turneje	-11.5227
▁tvornice	-11.5227
▁usavršava	-11.5227
▁Susret	-11.5227
▁Italiju	-11.5227
▁Mirror	-11.5227
▁gostovanja	-11.5227
▁crvene	-11.5227
▁omogućio	-11.5227
▁Junior	-11.5227
▁mljeven	-11.5227
▁nedjelja	-11.5227
▁uhitila	-11.5228
▁poznaju	-11.5228
▁taktičk	-11.5228
▁bijelu	-11.5228
▁doznati	-11.5228
▁autoritet	-11.5228
▁prisustvoval	-11.5228
▁nepravilnosti	-11.5228
▁napustili	-11.5229
▁Gretić	-11.5229
▁zagrebačka	-11.523
▁ukupnog	-11.523
▁Objavljen	-11.5233
▁dakako	-11.5233
▁Koš	-11.5234
▁odjeven	-11.5235
▁Stigl	-11.5237
▁Rast	-11.5237
▁zimi	-11.5238
▁Svakako	-11.5239
▁katastrofaln	-11.524
▁palače	-11.5244
▁predložil	-11.5247
▁Mađarskoj	-11.5248
▁Vinkovci	-11.5249
tivne	-11.5251
▁predaje	-11.5252
američk	-11.5252
▁ravnote	-11.5253
▁dizajniran	-11.5254
▁Činjenic	-11.5254
▁filmske	-11.5255
▁Šta	-11.5256
▁Jedn	-11.5257
▁5'	-11.5258
▁kupova	-11.5258
▁mirni	-11.5259
▁Brand	-11.526
▁čekamo	-11.5262
▁promašio	-11.5262
▁miks	-11.5264
▁završetak	-11.5268
▁koraci	-11.5271
▁Bas	-11.5272
▁sličnim	-11.5273
njoj	-11.5277
▁pravog	-11.5279
▁piva	-11.5282
▁Tešk	-11.5286
▁vrućina	-11.5286
▁neuro	-11.5291
▁Plenkovićev	-11.5291
▁časnik	-11.5292
▁objavljenom	-11.5294
▁zasluženo	-11.5296
▁zadovoljava	-11.5296
▁prega	-11.5299
▁uzme	-11.5301
▁otrov	-11.5302
▁predao	-11.5304
▁pridružiti	-11.5305
▁standardima	-11.5305
▁Njem	-11.5306
▁potpisati	-11.5308
▁koristeć	-11.5311
▁bliž	-11.5319
▁grupacij	-11.532
▁propušta	-11.532
▁Fury	-11.5324
▁dostupnost	-11.5325
▁starijim	-11.5326
▁Dodal	-11.5327
▁saznao	-11.5328
▁slabije	-11.5332
▁Mariju	-11.5333
▁pohod	-11.5336
▁80-	-11.5336
▁bojn	-11.5336
bačaj	-11.5338
▁Int	-11.5348
▁hrabro	-11.5351
▁provođenje	-11.5354
59	-11.5355
▁Organizator	-11.5355
▁administrativn	-11.5355
▁atmosfere	-11.5355
▁djevojčicu	-11.5355
▁edukacije	-11.5355
▁glazbom	-11.5355
▁inspiracija	-11.5355
▁jogurt	-11.5355
▁pojavljuju	-11.5355
▁prebivalište	-11.5355
▁prisutna	-11.5355
▁Doduše	-11.5355
▁Islamsk	-11.5355
▁ocjena	-11.5355
▁optimaln	-11.5355
▁napušten	-11.5356
▁pozornice	-11.5356
▁Jelačića	-11.5356
▁cijenjen	-11.5356
▁promociju	-11.5356
▁četvoric	-11.5356
▁bankovn	-11.5356
▁interijer	-11.5356
▁1989.	-11.5356
▁princeze	-11.5356
▁poretku	-11.5356
▁npr	-11.5356
▁produktivn	-11.5356
▁Barišić	-11.5356
▁Očekiva	-11.5356
▁anketi	-11.5356
▁popunjen	-11.5356
▁Povod	-11.5356
▁Istovremeno	-11.5356
▁građevina	-11.5356
▁terapije	-11.5356
▁bonus	-11.5356
▁Crkva	-11.5356
▁konzervativn	-11.5357
▁Dalibor	-11.5357
▁struktura	-11.5357
▁Najmanje	-11.5357
▁Slavonije	-11.5357
▁Porezn	-11.5358
▁pulsk	-11.5358
▁ogradu	-11.5359
▁Donje	-11.5359
▁igrališta	-11.536
▁spremi	-11.536
▁podsjetil	-11.5361
▁usklađen	-11.5361
▁Sokol	-11.5363
inger	-11.5365
▁Vidjet	-11.5365
▁zastave	-11.5367
▁godišnjicu	-11.5367
▁Srba	-11.5368
▁nagradn	-11.537
▁centraln	-11.537
▁nazad	-11.5372
▁Glumica	-11.5372
▁objašnjenje	-11.5376
▁dogovorio	-11.5377
▁održavanju	-11.5377
DU	-11.5377
▁vjetrovi	-11.5378
▁živim	-11.5378
▁hitove	-11.538
▁kulturni	-11.5381
▁Švicarskoj	-11.5381
▁domove	-11.5382
▁Burić	-11.5383
▁3000	-11.5384
▁stanovanja	-11.5387
popu	-11.5388
▁uništiti	-11.5391
▁Danska	-11.5392
▁koristila	-11.5399
▁sprječava	-11.5403
▁postotak	-11.5404
▁prosjek	-11.5405
▁glazbenog	-11.5406
▁zanimalo	-11.5409
▁dizel	-11.5409
▁rijetkih	-11.5419
▁nagradi	-11.542
▁kvartal	-11.542
▁Majer	-11.5423
▁riješili	-11.5424
jedne	-11.5427
▁pokretanje	-11.5434
ecite	-11.5435
Ljub	-11.5436
▁Temperatura	-11.5437
▁raskošn	-11.5439
▁zatvorsk	-11.5444
▁lovi	-11.5445
▁pretvoril	-11.5449
▁110	-11.5456
priča	-11.5459
▁Polja	-11.5459
▁Gennaro	-11.5463
▁tijek	-11.5463
ICA	-11.5463
▁pretrp	-11.5463
vezan	-11.5464
▁daljnjeg	-11.5468
▁potvrđeno	-11.5469
▁odbacio	-11.5476
▁radnik	-11.5478
▁pridru	-11.5479
▁padati	-11.5483
▁psihijatr	-11.5484
′	-11.5485
▁Netflix	-11.5485
▁Atletico	-11.5485
▁Dalmaciju	-11.5485
▁australsk	-11.5485
▁elemenata	-11.5485
▁estetsk	-11.5485
▁evakuacij	-11.5485
▁inozemstva	-11.5485
▁nezadovoljni	-11.5485
▁pravobranitelj	-11.5485
▁prognoze	-11.5485
▁reforme	-11.5485
▁vožnja	-11.5485
▁krivotvoren	-11.5485
▁ostvaruje	-11.5485
▁strpljiv	-11.5485
▁sjevernokorejsk	-11.5485
▁fasad	-11.5485
▁presudu	-11.5486
▁sporedn	-11.5486
▁investira	-11.5486
▁preduvjet	-11.5486
▁izvođenje	-11.5486
▁karata	-11.5487
▁igrom	-11.5488
▁naprosto	-11.5488
▁migranti	-11.5489
▁okuša	-11.5489
▁uložiti	-11.5489
▁suočiti	-11.5489
▁Gospo	-11.5492
▁ružn	-11.5493
▁dipl	-11.5493
▁odvaja	-11.5494
kovcu	-11.5495
▁sestara	-11.5497
▁stožeru	-11.5497
▁sastojke	-11.5502
▁povjerenik	-11.5502
[...]
