[UNK]	0
[CLS]	1
[SEP]	2
[PAD]	3
[MASK]	4
!	5
"	6
#	7
$	8
%	9
&	10
'	11
(	12
)	13
*	14
+	15
,	16
-	17
.	18
/	19
0	20
1	21
2	22
3	23
4	24
5	25
6	26
7	27
8	28
9	29
:	30
;	31
<	32
=	33
>	34
?	35
@	36
[	37
\	38
]	39
^	40
_	41
`	42
a	43
b	44
c	45
d	46
e	47
f	48
g	49
h	50
i	51
j	52
k	53
l	54
m	55
n	56
o	57
p	58
q	59
r	60
s	61
t	62
u	63
v	64
w	65
x	66
y	67
z	68
{	69
}	70
	71
¡	72
£	73
¤	74
§	75
©	76
­	77
®	78
°	79
±	80
·	81
¿	82
×	83
ß	84
à	85
á	86
â	87
ã	88
ä	89
å	90
ç	91
è	92
é	93
ê	94
ë	95
ì	96
í	97
î	98
ï	99
ð	100
ñ	101
ò	102
ó	103
ô	104
õ	105
ö	106
ø	107
ù	108
ú	109
û	110
ü	111
ý	112
ā	113
ă	114
ą	115
ć	116
ĉ	117
č	118
ď	119
đ	120
ē	121
ė	122
ę	123
ě	124
ğ	125
ı	126
ľ	127
ł	128
ń	129
ň	130
ō	131
ő	132
ř	133
ś	134
ş	135
š	136
ţ	137
ū	138
ů	139
ź	140
ż	141
ž	142
ƙ	143
ȃ	144
ȉ	145
ȑ	146
ȗ	147
ș	148
ț	149
ə	150
ʟ	151
̇	152
̈	153
̊	154
̋	155
̌	156
̧	157
έ	158
ή	159
α	160
γ	161
δ	162
μ	163
ο	164
π	165
ρ	166
ς	167
τ	168
υ	169
χ	170
ω	171
ό	172
а	173
е	174
к	175
л	176
н	177
о	178
ь	179
і	180
ј	181
ґ	182
ӣ	183
ӧ	184
ི	185
ྀ	186
ṓ	187
ṣ	188
ọ	189
ố	190
ἀ	191
‍	192
‎	193
‐	194
‒	195
―	196
‖	197
‟	198
•	199
‰	200
′	201
⁄	202
⁠	203
€	204
↑	205
⇒	206
−	207
∶	208
⏱	209
■	210
▪	211
▶	212
►	213
○	214
●	215
☀	216
☃	217
☑	218
☘	219
☺	220
♀	221
♡	222
♥	223
♦	224
♬	225
⚠	226
⚤	227
⚫	228
⚽	229
✓	230
✔	231
✠	232
✨	233
❄	234
❤	235
シ	236
传	237
多	238
陈	239
	240
	241
️	242
🇦	243
🇧	244
🇫	245
🇬	246
🇭	247
🇮	248
🇱	249
🇵	250
🇷	251
🇸	252
🇺	253
🇾	254
🌋	255
🌐	256
🌠	257
🌧	258
🌨	259
🌸	260
🌺	261
🌻	262
🍉	263
🍊	264
🎀	265
🎁	266
🎗	267
🏡	268
🏻	269
🐄	270
🐥	271
🐦	272
🐱	273
🐶	274
👀	275
👁	276
👇	277
👣	278
👶	279
💅	280
💋	281
💎	282
💕	283
💘	284
💙	285
💚	286
💟	287
💪	288
💯	289
📌	290
📢	291
📱	292
📸	293
🔄	294
🔥	295
🔹	296
🕓	297
🕷	298
🕸	299
🖥	300
😀	301
😁	302
😂	303
😅	304
😉	305
😊	306
😍	307
😎	308
😏	309
😬	310
😭	311
🙂	312
🙌	313
🙏	314
🛁	315
🟡	316
🟨	317
🤍	318
🤔	319
🤢	320
🤦	321
🤩	322
🤪	323
🤯	324
🥚	325
🥥	326
🥰	327
🥲	328
🥹	329
🥺	330
🦟	331
🩹	332
🩺	333
🪐	334
🫒	335
🫠	336
🫶	337
##r	338
##e	339
##k	340
##s	341
##a	342
##v	343
##c	344
##n	345
##o	346
##m	347
##l	348
##t	349
##p	350
##i	351
##j	352
##d	353
##š	354
##9	355
##1	356
##5	357
##2	358
##0	359
##7	360
##8	361
##6	362
##b	363
##_	364
##ž	365
##u	366
##q	367
##č	368
##ć	369
##g	370
##f	371
##h	372
##z	373
##4	374
##y	375
##3	376
##x	377
##w	378
##đ	379
##ȃ	380
##?	381
##;	382
##ö	383
##á	384
##.	385
##ü	386
##í	387
##!	388
##)	389
##*	390
##'	391
##,	392
##ê	393
##é	394
##-	395
##¿	396
##¡	397
##ȑ	398
##/	399
##ì	400
##ę	401
##❤	402
##ě	403
##ő	404
##+	405
##ø	406
##:	407
##ô	408
##ț	409
##ó	410
##ý	411
##â	412
##}	413
##"	414
##ò	415
##🥹	416
##🙏	417
##[	418
##ӧ	419
##ј	420
##ï	421
##¤	422
##ė	423
##ğ	424
##ł	425
##&	426
##]	427
##%	428
##ã	429
##ç	430
##💙	431
##ñ	432
##️	433
##ß	434
##ë	435
##ı	436
##е	437
##ȗ	438
##ð	439
##🏻	440
##🇧	441
##🇺	442
##🇦	443
##🇸	444
##🇵	445
##🇱	446
##🇮	447
##🍊	448
##🌻	449
##ă	450
##õ	451
##🫠	452
##è	453
##>	454
##а	455
##о	456
##å	457
##ú	458
##ή	459
##ρ	460
##ä	461
##ā	462
##@	463
##🤯	464
##🇾	465
##✨	466
##à	467
##ù	468
##ṣ	469
##̌	470
##ş	471
##ṓ	472
##‍	473
##<	474
##­	475
##î	476
##έ	477
##ο	478
##ς	479
##🤢	480
##ō	481
##ū	482
##🇷	483
##і	484
##ą	485
##ů	486
##ȉ	487
##😏	488
##χ	489
##ř	490
##ň	491
###	492
##ź	493
##ľ	494
##ż	495
##ω	496
##τ	497
##ό	498
##υ	499
##π	500
##ь	501
##\	502
##ē	503
##💪	504
##⚠	505
##ọ	506
##👣	507
##ĉ	508
##	509
##ń	510
##̇	511
##ི	512
##ྀ	513
##😂	514
##シ	515
##🤩	516
##•	517
##🕷	518
##{	519
##⚫	520
##′	521
##⁠	522
##ӣ	523
##🥚	524
##ș	525
##(	526
##μ	527
##ố	528
##л	529
##н	530
##↑	531
##ə	532
##传	533
##多	534
##🛁	535
##😁	536
##🔥	537
##û	538
##`	539
##ţ	540
##🔄	541
##γ	542
##ś	543
##$	544
##ď	545
##je	546
##ra	547
##ti	548
##ni	549
je	550
na	551
##li	552
##ro	553
##no	554
po	555
##la	556
##re	557
##ko	558
##ri	559
##na	560
##va	561
##ta	562
##ja	563
##ma	564
##te	565
##vi	566
##vo	567
za	568
ko	569
##di	570
##to	571
##ji	572
##ka	573
##ju	574
##ne	575
##da	576
da	577
##ci	578
se	579
##ca	580
##lo	581
##ve	582
do	583
su	584
ka	585
ne	586
##st	587
od	588
##mo	589
##le	590
bi	591
iz	592
##ru	593
##ije	594
pro	595
##ki	596
##nu	597
sa	598
##me	599
##sta	600
##go	601
ra	602
##nje	603
##ke	604
##ku	605
pre	606
pri	607
##sti	608
mo	609
##ron	610
##caron	611
##ga	612
to	613
##de	614
go	615
##zi	616
##nja	617
##lu	618
##lje	619
##bi	620
##po	621
##mi	622
re	623
##pa	624
##tu	625
ma	626
te	627
##cu	628
##ba	629
##bo	630
mi	631
##či	632
no	633
##si	634
##sko	635
##ce	636
##če	637
##za	638
pa	639
##sa	640
koji	641
##ski	642
ve	643
ccaron	644
##ći	645
##še	646
vi	647
ta	648
ca	649
##lja	650
##du	651
##sto	652
##do	653
##ča	654
ni	655
##pi	656
##gu	657
će	658
##že	659
##gra	660
##će	661
godi	662
##se	663
##cute	664
cacute	665
što	666
me	667
##nom	668
##ća	669
##rva	670
bo	671
st	672
ob	673
##nog	674
##nih	675
ja	676
va	677
##ša	678
os	679
##vje	680
##ža	681
pu	682
##lji	683
##nim	684
ima	685
li	686
##ži	687
vo	688
tre	689
##ske	690
kako	691
##pu	692
##vr	693
zcaron	694
in	695
##cija	696
##ši	697
hrva	698
##jed	699
##pe	700
##lj	701
svo	702
##be	703
##su	704
di	705
##ge	706
##vu	707
hrvat	708
naj	709
sta	710
dru	711
nje	712
sve	713
##nju	714
##gi	715
si	716
##zo	717
ali	718
##ze	719
##đe	720
nije	721
ba	722
koje	723
##nji	724
pred	725
##vije	726
eu	727
raz	728
##lju	729
gra	730
##rije	731
=>	732
##dje	733
de	734
##kom	735
kao	736
jo	737
##mje	738
##cije	739
##kon	740
pr	741
20	742
##ho	743
ku	744
##ska	745
pos	746
##vno	747
##jo	748
be	749
pe	750
",	751
##ran	752
##mu	753
##tak	754
is	755
pod	756
če	757
##nik	758
jed	759
##nika	760
nakon	761
sam	762
ti	763
##stu	764
##pre	765
pi	766
##pra	767
pot	768
pra	769
du	770
##nije	771
zna	772
mje	773
##nici	774
tu	775
godine	776
ru	777
ga	778
##so	779
##zu	780
##rža	781
##zna	782
smo	783
dje	784
##nt	785
mu	786
lju	787
dana	788
fi	789
ot	790
##bu	791
pla	792
biti	793
##vić	794
ili	795
koja	796
ovo	797
samo	798
tako	799
##đa	800
##skog	801
##đu	802
##rati	803
gla	804
više	805
##rt	806
##nta	807
ro	808
##govo	809
uz	810
us	811
##nosti	812
##dio	813
##stav	814
##liko	815
##",	816
bu	817
bio	818
tra	819
svi	820
##tiv	821
lo	822
nji	823
kra	824
prije	825
poli	826
":	827
igra	828
##kao	829
##fi	830
ži	831
##nica	832
":"	833
že	834
##ha	835
##nost	836
la	837
kon	838
ju	839
vla	840
##gle	841
još	842
može	843
##šta	844
"",	845
##ste	846
##dan	847
##čki	848
##or	849
zbo	850
##vanje	851
jer	852
##gre	853
##tra	854
stra	855
##noj	856
zbog	857
##skoj	858
spo	859
treba	860
##vati	861
sva	862
##ču	863
##skom	864
au	865
##skih	866
rekao	867
##stro	868
euro	869
mogu	870
##nda	871
##00	872
ha	873
posto	874
##nti	875
##he	876
##tje	877
##gla	878
##vio	879
bilo	880
či	881
bro	882
##telji	883
rije	884
vr	885
##bro	886
slu	887
veli	888
##sku	889
godina	890
osta	891
##tno	892
ki	893
##mije	894
##dra	895
##ciju	896
##fe	897
##vali	898
##stva	899
vje	900
##nal	901
##šte	902
uk	903
op	904
##ću	905
##sjed	906
##št	907
ova	908
202	909
dok	910
##vanja	911
##red	912
obja	913
##stra	914
doda	915
cije	916
oso	917
obi	918
kada	919
prema	920
##nice	921
radi	922
oko	923
kri	924
ze	925
sto	926
##rija	927
eura	928
tri	929
##lije	930
le	931
##_2	932
##čko	933
već	934
##vom	935
dstro	936
dstrok	937
an	938
##reme	939
ce	940
bila	941
utak	942
utakmi	943
##..	944
##tom	945
mora	946
##kla	947
tije	948
##sno	949
predsjed	950
fo	951
ako	952
##vlja	953
zagre	954
##pli	955
dobi	956
pob	957
##tni	958
novi	959
njego	960
sla	961
drža	962
##telj	963
##pg	964
jpg	965
sr	966
##rno	967
##20	968
izbo	969
##vori	970
##kri	971
19	972
##hi	973
nas	974
##što	975
među	976
živo	977
fa	978
##sni	979
or	980
##vni	981
kad	982
##joj	983
##lim	984
##kre	985
##van	986
##vlje	987
##rom	988
##pri	989
ci	990
ak	991
##nima	992
ih	993
##jom	994
##om	995
iza	996
ljudi	997
protiv	998
odlu	999
so	1000
##viti	1001
##ter	1002
##ciji	1003
##cio	1004
##tko	1005
##stvo	1006
lu	1007
##bli	1008
auto	1009
##ng	1010
ho	1011
##skim	1012
kori	1013
dva	1014
jedan	1015
##vara	1016
neko	1017
##ven	1018
kre	1019
".	1020
svoje	1021
##vima	1022
svje	1023
slo	1024
##rni	1025
mla	1026
##čno	1027
bez	1028
##šti	1029
...	1030
##ner	1031
##80	1032
odno	1033
##_27	1034
on	1035
njiho	1036
nema	1037
##jte	1038
##jući	1039
vrije	1040
sada	1041
tr	1042
##spo	1043
##met	1044
upra	1045
##ško	1046
bra	1047
drugi	1048
poče	1049
##lazi	1050
posta	1051
##gleda	1052
##voj	1053
##al	1054
##žu	1055
ča	1056
##čke	1057
klu	1058
ri	1059
im	1060
mili	1061
##pisa	1062
mar	1063
##cij	1064
##ble	1065
gdje	1066
##sla	1067
##godi	1068
sje	1069
nam	1070
##ren	1071
pita	1072
##jek	1073
izra	1074
osi	1075
europ	1076
##40	1077
nego	1078
ove	1079
10	1080
še	1081
stu	1082
trenu	1083
prvi	1084
##ruč	1085
lije	1086
##rao	1087
pje	1088
sre	1089
pomo	1090
sma	1091
##tro	1092
##ndi	1093
taj	1094
sad	1095
sigu	1096
dobro	1097
##nuti	1098
##njem	1099
##kup	1100
sti	1101
broj	1102
dije	1103
nisu	1104
##vila	1105
par	1106
##tar	1107
pove	1108
obra	1109
##pje	1110
##vao	1111
tvr	1112
##tka	1113
##iz	1114
##lom	1115
##for	1116
danas	1117
prija	1118
##sje	1119
##šao	1120
hrvatske	1121
toga	1122
##niji	1123
zdra	1124
##tvr	1125
rad	1126
vrijeme	1127
##log	1128
##stup	1129
),	1130
##stavlja	1131
##sre	1132
##vaju	1133
poka	1134
##pla	1135
mini	1136
ste	1137
proble	1138
društ	1139
##dom	1140
kod	1141
pozi	1142
##nuo	1143
svije	1144
popu	1145
napa	1146
politi	1147
proš	1148
##vim	1149
dina	1150
##tio	1151
##tim	1152
ide	1153
spli	1154
ško	1155
##nski	1156
ši	1157
žu	1158
zajed	1159
dio	1160
##bno	1161
neki	1162
##bra	1163
##dno	1164
##nko	1165
fina	1166
medi	1167
pose	1168
zah	1169
al	1170
##meta	1171
##cima	1172
oz	1173
##rima	1174
##vih	1175
isto	1176
##kto	1177
##dne	1178
tijekom	1179
drugo	1180
grad	1181
najbo	1182
sezo	1183
upo	1184
##zira	1185
potre	1186
godiš	1187
cr	1188
mjese	1189
##star	1190
poslje	1191
nekoliko	1192
bili	1193
##nd	1194
stva	1195
##rio	1196
ukra	1197
kro	1198
##vog	1199
zavr	1200
foto	1201
doma	1202
##vijek	1203
svoji	1204
##sli	1205
istra	1206
##tjeca	1207
oba	1208
##el	1209
##vala	1210
put	1211
##nira	1212
##lno	1213
zem	1214
##govor	1215
##rta	1216
koju	1217
dra	1218
proiz	1219
poru	1220
12	1221
sna	1222
##ška	1223
##gao	1224
##dar	1225
dvo	1226
isti	1227
otkri	1228
gu	1229
##sam	1230
pobje	1231
kom	1232
lje	1233
##diti	1234
dan	1235
umje	1236
##jem	1237
##vija	1238
uspje	1239
orga	1240
pozna	1241
nogo	1242
sati	1243
##lek	1244
vide	1245
nasta	1246
nika	1247
ar	1248
##nio	1249
kaže	1250
prili	1251
##čio	1252
ge	1253
osje	1254
fe	1255
kaza	1256
projek	1257
miliju	1258
malo	1259
br	1260
##pan	1261
prva	1262
##nosi	1263
hi	1264
ona	1265
uvijek	1266
poslo	1267
15	1268
##meri	1269
hrvatskoj	1270
##hu	1271
puno	1272
##novi	1273
dr	1274
nešto	1275
##stve	1276
zapo	1277
##čka	1278
proizvo	1279
##tku	1280
##zul	1281
##đer	1282
tome	1283
jedna	1284
##vne	1285
jako	1286
također	1287
ope	1288
##cional	1289
oni	1290
čla	1291
njezi	1292
hrvatska	1293
vreme	1294
##žbe	1295
##nija	1296
##vore	1297
##klju	1298
##vši	1299
poja	1300
dvije	1301
##dnji	1302
jedi	1303
nad	1304
inte	1305
##ako	1306
organi	1307
##vna	1308
##tne	1309
##nske	1310
rezul	1311
ukraji	1312
ša	1313
oče	1314
ovaj	1315
pet	1316
##ver	1317
izme	1318
tro	1319
##telja	1320
kome	1321
##kupi	1322
pono	1323
ameri	1324
svjet	1325
he	1326
##nk	1327
vozi	1328
##nova	1329
##tivno	1330
201	1331
##volj	1332
fil	1333
iako	1334
prote	1335
doga	1336
najve	1337
##vla	1338
##klo	1339
haj	1340
##risti	1341
tak	1342
##rak	1343
##vili	1344
ministar	1345
bri	1346
budu	1347
održa	1348
pogo	1349
kojima	1350
30	1351
##ss	1352
predsjednik	1353
##man	1354
ono	1355
ple	1356
nači	1357
jedno	1358
neće	1359
napra	1360
tek	1361
rezulta	1362
##dova	1363
milijuna	1364
##gli	1365
##vnog	1366
##co	1367
nu	1368
##voji	1369
rekla	1370
navo	1371
vrlo	1372
##tan	1373
##tua	1374
fran	1375
##lni	1376
##op	1377
onda	1378
##rne	1379
##dru	1380
ču	1381
veći	1382
voj	1383
kojem	1384
imaju	1385
##tiri	1386
##šu	1387
čak	1388
ista	1389
##vreme	1390
govori	1391
##pro	1392
##ted	1393
tru	1394
##zenta	1395
hajdu	1396
gle	1397
zagreba	1398
##in	1399
##nj	1400
uvje	1401
mnog	1402
##sio	1403
područ	1404
ras	1405
sli	1406
##nama	1407
uklju	1408
sluča	1409
##bio	1410
spa	1411
##kra	1412
situa	1413
između	1414
koliko	1415
11	1416
##vnom	1417
dese	1418
##pak	1419
uči	1420
##stru	1421
##niti	1422
svoj	1423
poku	1424
kroz	1425
##đi	1426
##više	1427
dalje	1428
rea	1429
veliki	1430
progra	1431
##čkog	1432
kojoj	1433
##bri	1434
repre	1435
razli	1436
##tovo	1437
##smo	1438
mre	1439
vu	1440
njema	1441
vam	1442
##kli	1443
pokaza	1444
##rana	1445
video	1446
##forma	1447
vije	1448
reprezenta	1449
##kr	1450
događa	1451
tko	1452
##rna	1453
ula	1454
prosto	1455
naše	1456
vara	1457
gleda	1458
tada	1459
##čne	1460
publi	1461
##lne	1462
svojim	1463
dugo	1464
smje	1465
njih	1466
##dri	1467
nova	1468
vra	1469
dola	1470
neka	1471
župa	1472
##vanju	1473
pripre	1474
četvr	1475
bli	1476
ćemo	1477
vodi	1478
##tem	1479
mom	1480
##tke	1481
svoju	1482
obje	1483
važ	1484
##vor	1485
##tima	1486
##com	1487
##rod	1488
##zne	1489
##stri	1490
građa	1491
##ry	1492
##nera	1493
loka	1494
glaz	1495
##24	1496
##nović	1497
##nka	1498
glu	1499
##dnje	1500
kr	1501
ke	1502
joj	1503
##čni	1504
##nače	1505
##kle	1506
pora	1507
bih	1508
co	1509
kvali	1510
pogleda	1511
mjesto	1512
##jan	1513
smatra	1514
).	1515
ljuba	1516
zo	1517
poput	1518
hd	1519
minu	1520
pret	1521
prona	1522
##čić	1523
mila	1524
##ški	1525
##nicima	1526
',	1527
##roja	1528
radio	1529
zat	1530
bit	1531
##rali	1532
puta	1533
uda	1534
kandi	1535
prven	1536
##fa	1537
##nci	1538
##riti	1539
konce	1540
jednom	1541
##ždi	1542
iva	1543
tom	1544
zašti	1545
##_271	1546
inter	1547
osoba	1548
vidje	1549
##lova	1550
četiri	1551
osigu	1552
ime	1553
2024	1554
zdrav	1555
sred	1556
varaždi	1557
istak	1558
dinamo	1559
##titi	1560
##stava	1561
##ks	1562
##dije	1563
izja	1564
društve	1565
##mir	1566
mladi	1567
osim	1568
##ncija	1569
##šnji	1570
13	1571
18	1572
split	1573
##nali	1574
bor	1575
pokuša	1576
želi	1577
##šli	1578
naja	1579
fu	1580
službe	1581
slobo	1582
##ct	1583
##šnje	1584
javno	1585
000	1586
ov	1587
tisu	1588
osvoji	1589
##stvu	1590
##_1	1591
vrati	1592
preko	1593
druge	1594
##vijesti	1595
##bije	1596
zra	1597
način	1598
##vede	1599
nastu	1600
odu	1601
hrvatski	1602
##_2720	1603
grada	1604
##čiti	1605
utakmice	1606
##movi	1607
##štu	1608
##govara	1609
odnosno	1610
bla	1611
imao	1612
##čkih	1613
ipak	1614
posje	1615
##pad	1616
gr	1617
kandida	1618
primje	1619
prvo	1620
##mpa	1621
sura	1622
kul	1623
kru	1624
pone	1625
piše	1626
##nula	1627
##ćem	1628
17	1629
##sao	1630
##cijama	1631
život	1632
##čili	1633
##sle	1634
hr	1635
mnogi	1636
##rani	1637
##rica	1638
gru	1639
kar	1640
##bora	1641
promje	1642
spre	1643
.,	1644
##rac	1645
hdz	1646
navija	1647
##ksi	1648
##fo	1649
pokre	1650
neo	1651
##sne	1652
dogodi	1653
obitelji	1654
sport	1655
ulo	1656
##vesti	1657
manje	1658
razi	1659
teško	1660
susre	1661
skupi	1662
promet	1663
##pada	1664
stran	1665
uli	1666
dubro	1667
##plo	1668
##per	1669
vri	1670
natjeca	1671
srp	1672
##čkom	1673
pravo	1674
##nskog	1675
vas	1676
gro	1677
sezone	1678
##lima	1679
završi	1680
##lma	1681
zaklju	1682
##pusti	1683
potvr	1684
ener	1685
viso	1686
una	1687
##šnja	1688
nisam	1689
##ime	1690
##tna	1691
svako	1692
50	1693
tje	1694
##an	1695
##dila	1696
##men	1697
vlasti	1698
##čkoj	1699
en	1700
čo	1701
koristi	1702
gotovo	1703
##dam	1704
poveća	1705
##mobi	1706
strane	1707
gospo	1708
##rala	1709
maj	1710
##cted	1711
##riji	1712
kla	1713
suda	1714
unu	1715
##dili	1716
([	1717
posebno	1718
##ljede	1719
tim	1720
fotogra	1721
oda	1722
ure	1723
nove	1724
16	1725
##tre	1726
vremena	1727
protected	1728
regi	1729
svih	1730
pote	1731
odre	1732
##ranje	1733
naš	1734
vode	1735
##ške	1736
sup	1737
##ljivo	1738
##vra	1739
tere	1740
naši	1741
##čer	1742
informa	1743
##slu	1744
##đen	1745
poda	1746
mjesta	1747
potpu	1748
sigurno	1749
teh	1750
automobi	1751
##žda	1752
premije	1753
njega	1754
##sna	1755
nagra	1756
##vnih	1757
imati	1758
ovom	1759
##nicu	1760
##teta	1761
##menta	1762
sudje	1763
vrijed	1764
šu	1765
proda	1766
##ljem	1767
stude	1768
obo	1769
organiza	1770
##x1	1771
emo	1772
one	1773
obitelj	1774
##rtu	1775
odma	1776
kazao	1777
25	1778
možda	1779
##pozna	1780
kraju	1781
ostva	1782
vidi	1783
zato	1784
ništa	1785
kultu	1786
sredi	1787
##tor	1788
##mogu	1789
bude	1790
14	1791
rje	1792
glazbe	1793
ovog	1794
upravo	1795
##tri	1796
kolo	1797
mari	1798
izbor	1799
nacional	1800
##čan	1801
##vica	1802
baš	1803
##njak	1804
##čna	1805
isku	1806
knji	1807
##nike	1808
supru	1809
utakmica	1810
nesre	1811
muška	1812
##hva	1813
policija	1814
##40x	1815
part	1816
teme	1817
##snije	1818
polu	1819
zagrebu	1820
momča	1821
kazne	1822
mogao	1823
##ll	1824
##zor	1825
nagla	1826
##mp	1827
##ar	1828
##nce	1829
mis	1830
napo	1831
##uze	1832
nedje	1833
##šić	1834
hra	1835
##nde	1836
odgovo	1837
grado	1838
200	1839
izgu	1840
dire	1841
sm	1842
uo	1843
istraži	1844
mode	1845
##raju	1846
spe	1847
neke	1848
##as	1849
plenko	1850
godinu	1851
ok	1852
svaki	1853
francu	1854
##rovi	1855
najbolji	1856
mate	1857
podr	1858
object	1859
podu	1860
##kova	1861
##kuje	1862
kojeg	1863
napada	1864
zako	1865
##hvati	1866
21	1867
kak	1868
tran	1869
tele	1870
osjeća	1871
pogledajte	1872
##čaj	1873
##pred	1874
njegova	1875
pjes	1876
imamo	1877
##rce	1878
##kav	1879
pitanje	1880
klju	1881
špan	1882
##ck	1883
##oj	1884
at	1885
dodao	1886
posla	1887
kont	1888
njegov	1889
subo	1890
zla	1891
ivan	1892
karije	1893
djela	1894
sigur	1895
##dre	1896
zado	1897
opa	1898
imali	1899
riječ	1900
##ković	1901
rodi	1902
napisa	1903
vlada	1904
##lić	1905
##bija	1906
čeka	1907
otvore	1908
##che	1909
upozo	1910
prizna	1911
često	1912
repu	1913
##blje	1914
cent	1915
for	1916
udru	1917
##rma	1918
24	1919
odra	1920
priča	1921
bije	1922
##nar	1923
##šla	1924
niko	1925
pru	1926
struč	1927
druga	1928
##lan	1929
španjo	1930
svom	1931
uspo	1932
izgleda	1933
##lle	1934
mjestu	1935
novo	1936
##dovi	1937
eki	1938
neza	1939
##zak	1940
##mpe	1941
opo	1942
##žno	1943
podsje	1944
mislim	1945
deset	1946
##cje	1947
##čku	1948
neu	1949
šest	1950
ovdje	1951
##tin	1952
##tara	1953
možemo	1954
oti	1955
##lio	1956
posti	1957
##tet	1958
of	1959
zašto	1960
##jedi	1961
sebe	1962
trgo	1963
##tki	1964
njegovo	1965
00	1966
id	1967
##rić	1968
izda	1969
##jedna	1970
naime	1971
raspo	1972
stru	1973
republi	1974
odgovor	1975
optu	1976
ukup	1977
##bor	1978
ponu	1979
doba	1980
posao	1981
##vića	1982
pomoć	1983
smi	1984
##čima	1985
bolje	1986
opći	1987
##ch	1988
poz	1989
##tkom	1990
njima	1991
##pio	1992
##glo	1993
poma	1994
dobio	1995
stvari	1996
##som	1997
sd	1998
čovje	1999
##čkim	2000
dne	2001
predsjednika	2002
španjol	2003
##ved	2004
##ment	2005
kraj	2006
izrael	2007
problem	2008
##lija	2009
##nata	2010
zajedno	2011
odmah	2012
kasnije	2013
nosi	2014
##ljak	2015
minuti	2016
svim	2017
kraja	2018
obzi	2019
##ns	2020
izvo	2021
##vnim	2022
##zni	2023
##loga	2024
života	2025
hu	2026
utjeca	2027
##zima	2028
kate	2029
ovi	2030
##nca	2031
##vjet	2032
##cla	2033
##lnik	2034
uži	2035
prošle	2036
sud	2037
pobije	2038
polj	2039
##lar	2040
najviše	2041
voza	2042
vjeru	2043
##jemo	2044
čini	2045
pona	2046
znači	2047
hrvatsku	2048
traži	2049
er	2050
save	2051
##nča	2052
vozila	2053
name	2054
##digra	2055
##lue	2056
##šlja	2057
nogomet	2058
velika	2059
uče	2060
šibe	2061
##ćih	2062
posljednji	2063
##er	2064
bole	2065
hrvatskog	2066
svijetu	2067
pp	2068
##prije	2069
raču	2070
ispo	2071
##280	2072
minuta	2073
postoji	2074
elek	2075
idu	2076
tamo	2077
neda	2078
nedo	2079
zagreb	2080
##rka	2081
poči	2082
uključu	2083
veliko	2084
trener	2085
##dnja	2086
##nov	2087
##njima	2088
##limpi	2089
bol	2090
međutim	2091
djece	2092
možete	2093
the	2094
sce	2095
zahva	2096
predstavlja	2097
gi	2098
##rili	2099
##nuli	2100
##class	2101
nalazi	2102
osu	2103
emi	2104
djelo	2105
trži	2106
komu	2107
std	2108
100	2109
##nin	2110
stdclass	2111
kola	2112
dolazi	2113
sljede	2114
##opće	2115
mogli	2116
##ton	2117
##dna	2118
dalma	2119
##lna	2120
ponovno	2121
##ranja	2122
izne	2123
zlo	2124
odli	2125
nov	2126
kontro	2127
##nove	2128
tisuća	2129
##tnih	2130
##pravo	2131
##spe	2132
##san	2133
film	2134
##kaza	2135
aktivno	2136
nave	2137
omogu	2138
odigra	2139
##rice	2140
utakmicu	2141
nara	2142
##čila	2143
prvaka	2144
problema	2145
##jna	2146
##nzi	2147
provo	2148
proce	2149
odje	2150
inf	2151
oto	2152
dosta	2153
sklo	2154
##sija	2155
olimpi	2156
pola	2157
pore	2158
##rojatno	2159
ivo	2160
##kama	2161
niti	2162
##kti	2163
##šku	2164
##kako	2165
ranije	2166
toliko	2167
pjeva	2168
##ratu	2169
jednu	2170
prati	2171
##mom	2172
##80x	2173
kole	2174
ite	2175
profe	2176
##gom	2177
osobe	2178
##pita	2179
klub	2180
sko	2181
lige	2182
##gije	2183
##lnih	2184
evo	2185
##renje	2186
sum	2187
misli	2188
zapravo	2189
području	2190
ljubav	2191
##nte	2192
srije	2193
##zem	2194
##rava	2195
zi	2196
izgra	2197
##šće	2198
##rd	2199
##il	2200
##jima	2201
##mbe	2202
sudjelo	2203
##bje	2204
tempe	2205
festi	2206
kvalite	2207
22	2208
##nicama	2209
predsjedni	2210
direkto	2211
##vaja	2212
##bili	2213
demo	2214
##gled	2215
plaća	2216
uni	2217
svog	2218
predstav	2219
##zuje	2220
##up	2221
##90	2222
netko	2223
prava	2224
jednog	2225
kluba	2226
##nac	2227
policij	2228
iznena	2229
##kve	2230
upravlja	2231
##nstve	2232
gol	2233
oči	2234
##čnih	2235
##teljima	2236
2023	2237
deta	2238
mno	2239
time	2240
##nska	2241
##đena	2242
##voljno	2243
eko	2244
##ut	2245
##tori	2246
sasta	2247
##stima	2248
pravi	2249
produ	2250
kilo	2251
zahtje	2252
temperatu	2253
trenutku	2254
##sije	2255
##tnu	2256
##fina	2257
sja	2258
šo	2259
komenti	2260
##she	2261
turisti	2262
ozlije	2263
##piti	2264
##lih	2265
kona	2266
##ktu	2267
ozbi	2268
##đenje	2269
##čica	2270
##šlo	2271
obzirom	2272
petak	2273
manda	2274
vatro	2275
isko	2276
moguć	2277
##bre	2278
##cijom	2279
##stitu	2280
imala	2281
##teljica	2282
##rem	2283
ponedje	2284
unutar	2285
plo	2286
##zda	2287
nada	2288
utvr	2289
##ksu	2290
bivši	2291
tradi	2292
##rti	2293
##rila	2294
nismo	2295
##vac	2296
boga	2297
vlade	2298
osob	2299
io	2300
zau	2301
zastup	2302
ću	2303
##deri	2304
nepo	2305
##bom	2306
eks	2307
##laze	2308
kojim	2309
prvom	2310
reći	2311
olimpij	2312
zad	2313
brzo	2314
djevoj	2315
nogometa	2316
kli	2317
pomoći	2318
zemlje	2319
23	2320
##lov	2321
izazo	2322
preda	2323
fotografi	2324
nesta	2325
##telje	2326
hajduk	2327
potom	2328
najbolje	2329
upu	2330
sedam	2331
##šenje	2332
##žiti	2333
crve	2334
zajedni	2335
dosa	2336
gospodar	2337
ty	2338
zdravstve	2339
##br	2340
##nad	2341
##logi	2342
izvr	2343
međuna	2344
gradonače	2345
##rske	2346
objavio	2347
super	2348
opet	2349
##feren	2350
zele	2351
drugom	2352
alias	2353
igrača	2354
mjeseci	2355
veza	2356
luka	2357
##shed	2358
genera	2359
##zije	2360
27	2361
svijeta	2362
published	2363
40	2364
zgra	2365
opre	2366
povje	2367
##ljen	2368
čega	2369
##lina	2370
domaći	2371
svojoj	2372
sdp	2373
biv	2374
izvje	2375
##640	2376
##ljena	2377
tog	2378
promije	2379
josi	2380
povije	2381
##ćeg	2382
navodi	2383
##đeno	2384
raditi	2385
ita	2386
ovu	2387
##ris	2388
poduze	2389
osam	2390
snim	2391
zanim	2392
nikad	2393
očeki	2394
izvan	2395
mogla	2396
intere	2397
mreža	2398
age	2399
usko	2400
podi	2401
mene	2402
svega	2403
##sci	2404
##nke	2405
##nak	2406
##lost	2407
vatroga	2408
##nskih	2409
usta	2410
priva	2411
eli	2412
gor	2413
potpuno	2414
##zma	2415
osno	2416
##480	2417
##mor	2418
##340	2419
veče	2420
##boj	2421
istaknuo	2422
doku	2423
razvo	2424
##žio	2425
predsta	2426
##rane	2427
##šću	2428
##024	2429
velike	2430
vidjeti	2431
komenta	2432
##dni	2433
rada	2434
stvara	2435
finan	2436
uto	2437
##priv	2438
##dija	2439
##tica	2440
puto	2441
trans	2442
polo	2443
insta	2444
žena	2445
povra	2446
izno	2447
znam	2448
subotu	2449
2022	2450
pojedi	2451
očekuje	2452
vrhu	2453
group	2454
zaba	2455
##mina	2456
lip	2457
##son	2458
godišnji	2459
hla	2460
##gro	2461
razdo	2462
slučaju	2463
slije	2464
prve	2465
cilj	2466
društvenim	2467
funk	2468
sprem	2469
ozbilj	2470
am	2471
postoje	2472
##tt	2473
plenković	2474
##dnju	2475
namje	2476
smije	2477
domovi	2478
institu	2479
vjerojatno	2480
parla	2481
šte	2482
listo	2483
glavni	2484
##mira	2485
trav	2486
osije	2487
priprema	2488
stoji	2489
država	2490
##tila	2491
bile	2492
rado	2493
bru	2494
##lnim	2495
##tić	2496
planira	2497
objasni	2498
mije	2499
##nskom	2500
pisa	2501
priliku	2502
ugo	2503
naravno	2504
kup	2505
podije	2506
##pisu	2507
maksi	2508
##kuplja	2509
'.	2510
gradu	2511
jasno	2512
##kovi	2513
##mima	2514
zadar	2515
##fika	2516
##poru	2517
##dering	2518
##rdi	2519
26	2520
ogra	2521
jezi	2522
drugih	2523
uju	2524
nedjelju	2525
nama	2526
##mišlja	2527
zaposle	2528
financij	2529
turni	2530
svojih	2531
##zija	2532
obu	2533
poseb	2534
tjedna	2535
bira	2536
lop	2537
ponedjeljak	2538
##rba	2539
zara	2540
milanović	2541
dovoljno	2542
##žava	2543
##tog	2544
trebao	2545
upozna	2546
##taka	2547
##žić	2548
uslu	2549
premi	2550
per	2551
nedavno	2552
type	2553
we	2554
##95	2555
poslije	2556
kriti	2557
koli	2558
projekt	2559
psi	2560
odnosu	2561
sho	2562
##njoj	2563
ispri	2564
andre	2565
##gor	2566
ini	2567
prosje	2568
ad	2569
marko	2570
obilje	2571
dijete	2572
kva	2573
spome	2574
jugo	2575
mnogo	2576
ele	2577
##cama	2578
donije	2579
posve	2580
ivana	2581
zatim	2582
najma	2583
brani	2584
izbje	2585
bje	2586
##vnik	2587
##čnu	2588
moj	2589
skla	2590
##mio	2591
##jski	2592
sami	2593
nitko	2594
##pis	2595
value	2596
hrvatskih	2597
igrati	2598
rade	2599
##tual	2600
uzro	2601
##lnog	2602
nastupa	2603
pretho	2604
odr	2605
##šava	2606
ordering	2607
##ista	2608
trenutno	2609
turi	2610
koris	2611
stvar	2612
##wi	2613
##voza	2614
cijene	2615
godini	2616
europske	2617
uspješ	2618
##stupa	2619
##ster	2620
buduć	2621
rata	2622
real	2623
razu	2624
poveza	2625
sije	2626
##lla	2627
program	2628
##bina	2629
zemlji	2630
rezultat	2631
anali	2632
##ple	2633
deve	2634
djecu	2635
moguće	2636
katego	2637
inače	2638
oru	2639
##tine	2640
##lin	2641
##vid	2642
iznosi	2643
##ty	2644
##đenja	2645
##slav	2646
##jno	2647
preki	2648
zapa	2649
##den	2650
##biti	2651
potencija	2652
došao	2653
kuće	2654
ispred	2655
##tnog	2656
čita	2657
rijeka	2658
izbora	2659
##tili	2660
putem	2661
prepozna	2662
##ndo	2663
zamje	2664
uhi	2665
##liti	2666
##vine	2667
##đeni	2668
ut	2669
##rina	2670
jednosta	2671
potra	2672
izlo	2673
bre	2674
##th	2675
novog	2676
pobjed	2677
dinama	2678
srijedu	2679
ovih	2680
ža	2681
##sima	2682
potro	2683
zvije	2684
sustav	2685
priro	2686
cijena	2687
##ban	2688
umjesto	2689
ig	2690
svima	2691
stranke	2692
konferen	2693
moramo	2694
##misli	2695
off	2696
kupa	2697
tehno	2698
utorak	2699
drugim	2700
##tnom	2701
donosi	2702
kampa	2703
savje	2704
modri	2705
##dese	2706
nedosta	2707
djeca	2708
značaj	2709
220	2710
ispu	2711
##ksa	2712
doži	2713
bodova	2714
##šiti	2715
##88	2716
##rano	2717
sata	2718
hote	2719
nikada	2720
momčad	2721
em	2722
##dak	2723
##čar	2724
povr	2725
sjever	2726
##vite	2727
##kata	2728
gre	2729
##laz	2730
hoće	2731
dijelu	2732
ete	2733
##rci	2734
##dana	2735
objavlje	2736
##tic	2737
28	2738
kata	2739
##čita	2740
investi	2741
##čnim	2742
##lnosti	2743
nazi	2744
glasa	2745
tvrdi	2746
##kva	2747
ravna	2748
1024	2749
ćete	2750
##sob	2751
##govora	2752
premijer	2753
##vanjem	2754
poža	2755
kojih	2756
stre	2757
otvori	2758
dobar	2759
##vnu	2760
pari	2761
##šenja	2762
ovoj	2763
obrazo	2764
doći	2765
međunarod	2766
nado	2767
vlas	2768
medici	2769
prosi	2770
metara	2771
povijesti	2772
novu	2773
novina	2774
##27	2775
osobi	2776
dobiti	2777
mjeseca	2778
godinama	2779
##kna	2780
##nić	2781
škole	2782
ističe	2783
situacija	2784
mirovi	2785
republike	2786
dakle	2787
##tova	2788
pros	2789
zdravlje	2790
najveći	2791
##spi	2792
##voje	2793
utakmici	2794
zabra	2795
##jedno	2796
osvojio	2797
glaso	2798
županije	2799
okru	2800
naša	2801
##nijih	2802
uvo	2803
##jih	2804
##stre	2805
države	2806
##wa	2807
##tina	2808
##timo	2809
suko	2810
dija	2811
tih	2812
želje	2813
##vremeno	2814
##vrše	2815
prvu	2816
niz	2817
dobili	2818
##jske	2819
svijet	2820
##_640	2821
##_480	2822
##_340	2823
##_220	2824
##_1280	2825
##_1024	2826
razini	2827
unato	2828
##veo	2829
##zam	2830
##ljiva	2831
njemu	2832
svjedo	2833
ured	2834
vaše	2835
godišnja	2836
480x	2837
meni	2838
njegove	2839
umjet	2840
##sak	2841
svib	2842
60	2843
prvog	2844
##loba	2845
obli	2846
ap	2847
##jeva	2848
pak	2849
ljude	2850
splitu	2851
provje	2852
moglo	2853
rijeke	2854
rizi	2855
##osta	2856
29	2857
ser	2858
moraju	2859
prošlo	2860
om	2861
prosla	2862
##bila	2863
pobjedu	2864
sveu	2865
640x	2866
##žnje	2867
##kić	2868
vatre	2869
mr	2870
##veli	2871
har	2872
činje	2873
##kad	2874
##renja	2875
##tivi	2876
340x	2877
tvrtke	2878
uključujući	2879
##gnu	2880
centa	2881
##vlju	2882
##lnu	2883
otvara	2884
njihov	2885
milija	2886
diza	2887
traja	2888
srbi	2889
zaslu	2890
##đene	2891
cijeli	2892
došlo	2893
199	2894
##jka	2895
##vice	2896
sjeve	2897
zemlja	2898
##ljeni	2899
snage	2900
otkrio	2901
new	2902
moći	2903
godišnje	2904
mrežama	2905
##dima	2906
postao	2907
35	2908
upa	2909
##ur	2910
obve	2911
hajduka	2912
važno	2913
rt	2914
##vora	2915
ugla	2916
žele	2917
poručio	2918
##tnim	2919
##mati	2920
kame	2921
item	2922
dogodilo	2923
ukupno	2924
sku	2925
nasi	2926
##žan	2927
trebalo	2928
dolara	2929
lipnja	2930
##tora	2931
fili	2932
pobjede	2933
dro	2934
naro	2935
uprave	2936
organizira	2937
novih	2938
marija	2939
poslu	2940
napraviti	2941
javnosti	2942
posljednjih	2943
ovim	2944
čemu	2945
objavila	2946
##rena	2947
pogi	2948
mir	2949
tur	2950
potrebno	2951
##štva	2952
ispod	2953
otkrila	2954
nevje	2955
izaz	2956
prilikom	2957
djelat	2958
igre	2959
fizi	2960
poljo	2961
##ogra	2962
##line	2963
sebi	2964
jednostavno	2965
indu	2966
suo	2967
##pom	2968
##ženje	2969
podrža	2970
gori	2971
biste	2972
zabio	2973
##žen	2974
razvoj	2975
glumi	2976
oduše	2977
meda	2978
vladi	2979
potreb	2980
ogla	2981
razmišlja	2982
engle	2983
45	2984
##tion	2985
##nila	2986
toj	2987
sporta	2988
postup	2989
njihove	2990
instagra	2991
poljopriv	2992
polju	2993
zakon	2994
centra	2995
##mac	2996
##vizi	2997
##zuju	2998
##nsko	2999
manji	3000
opera	3001
snima	3002
##ncije	3003
##tinu	3004
profi	3005
razgovara	3006
igrač	3007
socija	3008
započe	3009
##vlada	3010
##rde	3011
##fije	3012
##tih	3013
odla	3014
dodaje	3015
zadnji	3016
vanj	3017
##kretni	3018
kažu	3019
pročita	3020
žene	3021
##tivne	3022
##lica	3023
##loški	3024
cro	3025
rekli	3026
teni	3027
plat	3028
stoga	3029
njihova	3030
izjavio	3031
isklju	3032
ljud	3033
zahvalju	3034
uglavnom	3035
umi	3036
##tle	3037
##kar	3038
čovjek	3039
ustav	3040
##šlje	3041
.)	3042
##gdje	3043
##dite	3044
lako	3045
novac	3046
travnja	3047
31	3048
trebali	3049
škola	3050
##čnom	3051
nastav	3052
kolu	3053
##siji	3054
ponaša	3055
siječ	3056
sustava	3057
##leko	3058
ana	3059
##kcije	3060
##čnog	3061
##vina	3062
brzi	3063
##krša	3064
##pušta	3065
odluka	3066
član	3067
blo	3068
natje	3069
nastavlja	3070
iznim	3071
kine	3072
stručnja	3073
##lak	3074
prisu	3075
##čenje	3076
hrvatskom	3077
mlade	3078
##čak	3079
##pr	3080
##mija	3081
bolji	3082
strana	3083
##snu	3084
bismo	3085
sabor	3086
stadio	3087
zadovolj	3088
af	3089
sc	3090
pobo	3091
njezin	3092
##riju	3093
prima	3094
tomi	3095
posljedi	3096
posjeti	3097
onih	3098
sin	3099
kući	3100
izborima	3101
cha	3102
##žba	3103
##lila	3104
##gama	3105
živi	3106
aktivnosti	3107
drugog	3108
promjene	3109
svakodne	3110
partne	3111
dre	3112
##ljeća	3113
##blja	3114
parki	3115
unatoč	3116
##dro	3117
terenu	3118
ale	3119
šan	3120
momčadi	3121
aj	3122
##zvo	3123
prijed	3124
mijenja	3125
cu	3126
kuha	3127
smanje	3128
festiva	3129
veliku	3130
korište	3131
koša	3132
prostor	3133
jedne	3134
smanji	3135
##"",	3136
bes	3137
ulaga	3138
##30	3139
odgovara	3140
##ljan	3141
##ćen	3142
##reni	3143
##mat	3144
##šća	3145
norma	3146
##štvo	3147
četvrtak	3148
##lnom	3149
ljudima	3150
reda	3151
kojom	3152
životu	3153
napad	3154
bolesti	3155
cje	3156
pada	3157
obe	3158
ispla	3159
##qu	3160
##menti	3161
dodatno	3162
lege	3163
najmanje	3164
dao	3165
trebala	3166
##ali	3167
##36	3168
ek	3169
ina	3170
prenosi	3171
##gh	3172
##tiva	3173
elektri	3174
ispriča	3175
##lnika	3176
epi	3177
varaždin	3178
doče	3179
rujna	3180
konku	3181
pitanja	3182
nju	3183
##ya	3184
##mini	3185
vod	3186
##zom	3187
vrijednosti	3188
pacije	3189
der	3190
##đuje	3191
pli	3192
wi	3193
prora	3194
previše	3195
reko	3196
##žili	3197
##vci	3198
zakona	3199
centar	3200
izvijesti	3201
potpisa	3202
projekta	3203
policije	3204
##žni	3205
##baci	3206
strate	3207
;,	3208
dozna	3209
barem	3210
materija	3211
##igra	3212
cati	3213
europe	3214
vrata	3215
##vnoj	3216
pobolj	3217
rast	3218
treći	3219
razloga	3220
##šio	3221
krimi	3222
liječ	3223
nau	3224
navede	3225
##jim	3226
vele	3227
defi	3228
ljubi	3229
napisao	3230
ožu	3231
##jne	3232
##ye	3233
##lac	3234
okoli	3235
rat	3236
moja	3237
kuća	3238
zema	3239
mjesec	3240
tjedan	3241
mali	3242
##tera	3243
##mos	3244
imam	3245
##metara	3246
ugovor	3247
stano	3248
odluku	3249
##njo	3250
sutra	3251
završe	3252
##gne	3253
ota	3254
nekretni	3255
##rs	3256
zapad	3257
priti	3258
sadrža	3259
prosvje	3260
susta	3261
##kul	3262
kralje	3263
gubi	3264
navodno	3265
novom	3266
pruža	3267
srpnja	3268
uze	3269
prijatelj	3270
majka	3271
##niku	3272
listopada	3273
##kcija	3274
##nskim	3275
dati	3276
ala	3277
##niju	3278
##bur	3279
##tere	3280
stvarno	3281
sklopu	3282
predvi	3283
podršku	3284
zada	3285
dali	3286
preuze	3287
građana	3288
god	3289
gosti	3290
mađa	3291
vike	3292
##žila	3293
iskoristi	3294
##dić	3295
dalj	3296
reprezentacije	3297
##_2719	3298
anti	3299
napre	3300
dozvo	3301
odgo	3302
sazna	3303
":""",	3304
programa	3305
skup	3306
##ber	3307
opas	3308
##cha	3309
mobi	3310
milanovi	3311
mladih	3312
##jica	3313
tiče	3314
direktor	3315
ograni	3316
oku	3317
ava	3318
ubr	3319
##klu	3320
izla	3321
san	3322
znanstve	3323
dobila	3324
alko	3325
vese	3326
##čuje	3327
ostati	3328
ošte	3329
##bla	3330
##raca	3331
pale	3332
početka	3333
posljednje	3334
građani	3335
##ray	3336
sekto	3337
ukrajini	3338
uoči	3339
sveučili	3340
##razu	3341
brojne	3342
ministarstvo	3343
počinje	3344
hn	3345
kape	3346
budući	3347
##ranu	3348
##ljene	3349
nekim	3350
kompa	3351
automobila	3352
uopće	3353
zavo	3354
##ly	3355
##slo	3356
##pušte	3357
europi	3358
početkom	3359
prvenstva	3360
shvati	3361
dogovo	3362
presu	3363
para	3364
večer	3365
izd	3366
ulogu	3367
gradonačelnik	3368
ena	3369
reali	3370
##stvom	3371
prila	3372
kolovoza	3373
demokra	3374
zemalja	3375
##fu	3376
atmos	3377
um	3378
objek	3379
dodala	3380
slove	3381
raspra	3382
zrako	3383
loše	3384
lak	3385
##struktu	3386
velja	3387
voli	3388
tijelo	3389
sigurnosti	3390
atmosfe	3391
90	3392
##rca	3393
pozor	3394
##metu	3395
trump	3396
;.	3397
##kove	3398
ski	3399
##vca	3400
##rova	3401
ruko	3402
većina	3403
##vici	3404
dubrova	3405
podsjetimo	3406
rtl	3407
##njom	3408
sat	3409
tvrtka	3410
tehni	3411
##ps	3412
putu	3413
troško	3414
savez	3415
upisa	3416
beogra	3417
ostali	3418
##vremenu	3419
alkoho	3420
diljem	3421
globa	3422
priopće	3423
2021	3424
sjeća	3425
odvjet	3426
car	3427
različi	3428
devet	3429
80	3430
naba	3431
ujutro	3432
žrt	3433
##ras	3434
prekrša	3435
najva	3436
iti	3437
komi	3438
pala	3439
##nese	3440
ligi	3441
##gita	3442
čet	3443
poziva	3444
##šnjeg	3445
uskoro	3446
sjed	3447
ministarstva	3448
seku	3449
izvor	3450
preh	3451
igrao	3452
##žena	3453
popula	3454
ozna	3455
odluke	3456
##tira	3457
bivše	3458
dopri	3459
cijelo	3460
svibnja	3461
##cem	3462
asi	3463
božić	3464
aktual	3465
reagi	3466
##nili	3467
kor	3468
gola	3469
poslova	3470
70	3471
koncert	3472
##by	3473
##gno	3474
naz	3475
progla	3476
jučer	3477
plu	3478
##luje	3479
polica	3480
sjedi	3481
nastaviti	3482
najavio	3483
imate	3484
slučaj	3485
energe	3486
##jskog	3487
mediji	3488
kazali	3489
područja	3490
natjecanja	3491
##68	3492
nače	3493
sudio	3494
naših	3495
okre	3496
doka	3497
digita	3498
izbore	3499
računa	3500
napusti	3501
izmje	3502
##ćeni	3503
svaka	3504
ovako	3505
vraća	3506
udruge	3507
tradicional	3508
pobjeda	3509
500	3510
##škom	3511
iznad	3512
znaju	3513
zabora	3514
procje	3515
##sila	3516
foku	3517
##tija	3518
dubo	3519
izrazi	3520
poboljša	3521
##vjeti	3522
##rp	3523
savrše	3524
sigurnost	3525
profesio	3526
##mili	3527
ostao	3528
stigao	3529
oruž	3530
duž	3531
zvu	3532
interne	3533
iskustvo	3534
infra	3535
poh	3536
zanima	3537
dostup	3538
novinar	3539
proraču	3540
javlja	3541
stanje	3542
tv	3543
moje	3544
strani	3545
##47	3546
presta	3547
traže	3548
##štvu	3549
infrastruktu	3550
sama	3551
preporu	3552
cesta	3553
otac	3554
##snih	3555
sim	3556
korak	3557
došli	3558
##boo	3559
##njuje	3560
kontak	3561
obrane	3562
##nite	3563
##gan	3564
pitanju	3565
zadrža	3566
upi	3567
##lli	3568
##dina	3569
redu	3570
##formi	3571
che	3572
pau	3573
specija	3574
##tlji	3575
##rav	3576
nato	3577
daleko	3578
male	3579
prvoj	3580
##cionira	3581
identi	3582
energi	3583
##50	3584
##podne	3585
madri	3586
dječ	3587
tijela	3588
koriste	3589
informacije	3590
##bc	3591
jest	3592
iste	3593
njegovu	3594
##sk	3595
portu	3596
##vela	3597
mani	3598
indi	3599
ispa	3600
##ndar	3601
krea	3602
ska	3603
koma	3604
fakul	3605
sprije	3606
##tije	3607
uspio	3608
stup	3609
njezina	3610
završio	3611
priop	3612
prika	3613
##stina	3614
##snog	3615
##tske	3616
##der	3617
ai	3618
##rama	3619
face	3620
dobra	3621
znamo	3622
novim	3623
društva	3624
ulaz	3625
supruga	3626
posu	3627
resto	3628
bar	3629
##godišnji	3630
drago	3631
array	3632
njemačkoj	3633
župani	3634
vratiti	3635
hrt	3636
##28	3637
##blju	3638
naža	3639
protu	3640
##bilje	3641
takav	3642
bal	3643
vlasni	3644
ovak	3645
34	3646
zabri	3647
pristup	3648
##miti	3649
##mila	3650
događaja	3651
##jni	3652
##ljeno	3653
##por	3654
jadra	3655
nažalost	3656
noći	3657
##čeni	3658
##stom	3659
stanov	3660
finala	3661
visoko	3662
borbe	3663
pročitajte	3664
##snim	3665
##ncu	3666
##yo	3667
društvo	3668
##ela	3669
kore	3670
man	3671
##čenja	3672
sni	3673
##rska	3674
seksu	3675
topli	3676
prijet	3677
jedini	3678
##čen	3679
##tivni	3680
čime	3681
brita	3682
##pt	3683
2025	3684
zaista	3685
sunča	3686
radova	3687
vjero	3688
dolaze	3689
energije	3690
roditelji	3691
33	3692
susret	3693
umiro	3694
hnl	3695
portuga	3696
32	3697
##vide	3698
##čića	3699
boda	3700
odlučio	3701
##vilo	3702
kova	3703
sub	3704
iskre	3705
muze	3706
europskog	3707
financi	3708
osobito	3709
klubo	3710
smrt	3711
vru	3712
##kta	3713
želim	3714
ulici	3715
smrti	3716
komunika	3717
##žne	3718
pridru	3719
##nijeti	3720
##fici	3721
klasi	3722
eni	3723
inci	3724
česti	3725
svakako	3726
blizi	3727
mišlje	3728
svemu	3729
skupine	3730
dokumenta	3731
siječnja	3732
##rke	3733
dobri	3734
##kinja	3735
prvenstvu	3736
fotografije	3737
prosinca	3738
pao	3739
završ	3740
dosad	3741
as	3742
koali	3743
##čice	3744
tali	3745
##nsku	3746
##dran	3747
nemo	3748
priče	3749
studi	3750
mnoge	3751
parlamenta	3752
razlog	3753
plaće	3754
hrane	3755
nastup	3756
noć	3757
##zno	3758
kratko	3759
##llery	3760
umjetni	3761
naglasio	3762
osvaja	3763
mlado	3764
proizvoda	3765
ama	3766
##žbi	3767
porta	3768
proši	3769
top	3770
ispra	3771
mjere	3772
gale	3773
##kro	3774
##61	3775
situaciju	3776
##pije	3777
prihvati	3778
stati	3779
ber	3780
sposob	3781
ljeta	3782
faceboo	3783
rh	3784
##85	3785
razgovo	3786
rođen	3787
čiji	3788
sezonu	3789
omogući	3790
postala	3791
povo	3792
poklo	3793
želj	3794
kazala	3795
josip	3796
umirovlje	3797
redo	3798
naslov	3799
peri	3800
krajem	3801
životi	3802
##vale	3803
##čević	3804
konzu	3805
profeso	3806
održi	3807
zu	3808
nakna	3809
sara	3810
##par	3811
pokazuje	3812
zadovo	3813
profesional	3814
##lili	3815
##lovi	3816
odo	3817
ruke	3818
plan	3819
##njen	3820
##ćima	3821
##zer	3822
riječi	3823
pogotovo	3824
##ćoj	3825
##kuju	3826
##zan	3827
svojom	3828
svakom	3829
mogućnost	3830
##gova	3831
prilika	3832
prostora	3833
##en	3834
##jnu	3835
##šno	3836
##vama	3837
##mnji	3838
##god	3839
kandidata	3840
##rović	3841
postavlja	3842
##mani	3843
zabilje	3844
preu	3845
nadle	3846
očito	3847
jutar	3848
trenuta	3849
albu	3850
primjer	3851
stari	3852
36	3853
##ćom	3854
ter	3855
##siju	3856
stvori	3857
klubu	3858
omi	3859
nemaju	3860
ugosti	3861
##tte	3862
supro	3863
radu	3864
vezi	3865
obzira	3866
drugu	3867
jednoj	3868
pokazao	3869
##vnika	3870
prometa	3871
##siti	3872
meta	3873
2020	3874
navode	3875
našim	3876
##jam	3877
##les	3878
lov	3879
intenzi	3880
okvi	3881
primije	3882
##čeno	3883
rješenje	3884
enje	3885
svake	3886
blag	3887
##rea	3888
stro	3889
ostaje	3890
soli	3891
com	3892
##32	3893
općine	3894
zausta	3895
##795	3896
##ram	3897
dom	3898
cijelu	3899
pjesme	3900
##rku	3901
##rski	3902
pol	3903
##naca	3904
izuze	3905
vaš	3906
počeo	3907
ozlje	3908
pokazala	3909
##_271795	3910
promjena	3911
polufina	3912
talijan	3913
nao	3914
nadam	3915
stabi	3916
postaje	3917
minute	3918
susreta	3919
##nos	3920
pogre	3921
##rite	3922
nikola	3923
temperatura	3924
obeća	3925
imovi	3926
##nku	3927
##lice	3928
kakav	3929
##ziju	3930
tema	3931
vrti	3932
ljeto	3933
najvaž	3934
uboj	3935
priho	3936
anto	3937
dubrovnik	3938
zaključio	3939
##čnoj	3940
napisala	3941
htje	3942
##dama	3943
veze	3944
##ženi	3945
srbije	3946
city	3947
filma	3948
prihva	3949
image	3950
poznati	3951
napravio	3952
vjerujem	3953
okupi	3954
traje	3955
smjeru	3956
eksplo	3957
##štine	3958
ekipa	3959
scena	3960
ugro	3961
##prili	3962
europski	3963
kvalifika	3964
površi	3965
##nose	3966
roma	3967
igrali	3968
sluša	3969
dijela	3970
jela	3971
don	3972
govore	3973
anga	3974
državlja	3975
pojača	3976
koristiti	3977
skri	3978
##zirati	3979
##sen	3980
herce	3981
javnost	3982
redovi	3983
podru	3984
lijepo	3985
zahvaljujući	3986
kće	3987
sina	3988
križe	3989
bran	3990
poko	3991
##čara	3992
finale	3993
količi	3994
ovoga	3995
##logije	3996
nekih	3997
primjerice	3998
paž	3999
##valo	4000
slavo	4001
škol	4002
odusta	4003
novca	4004
edu	4005
ino	4006
ići	4007
##kade	4008
dođe	4009
var	4010
uspjeli	4011
ocje	4012
##kov	4013
##ćenja	4014
trenera	4015
kana	4016
predi	4017
sveča	4018
objašnja	4019
ante	4020
početku	4021
ozljede	4022
ljubavi	4023
iznimno	4024
##onal	4025
##gri	4026
posa	4027
talija	4028
volim	4029
našeg	4030
izgubio	4031
pritom	4032
##znu	4033
##lige	4034
rece	4035
##on	4036
naru	4037
igrači	4038
postati	4039
velikim	4040
seksual	4041
ubije	4042
postu	4043
##nec	4044
došla	4045
promo	4046
prisje	4047
strije	4048
lice	4049
drugoj	4050
snaga	4051
uređa	4052
centru	4053
incide	4054
potica	4055
statu	4056
##prav	4057
##ćuje	4058
zoran	4059
ekonom	4060
wa	4061
dovo	4062
gore	4063
##škog	4064
kilometara	4065
inicija	4066
utje	4067
dani	4068
red	4069
##zacije	4070
nizo	4071
bolni	4072
nudi	4073
muškarac	4074
og	4075
##ny	4076
autobu	4077
automobil	4078
karijere	4079
kilogra	4080
objasnio	4081
##bru	4082
prista	4083
reci	4084
pokreta	4085
zanimlji	4086
##mimage	4087
klima	4088
tale	4089
stanju	4090
kombina	4091
ila	4092
robe	4093
osumnji	4094
show	4095
##vit	4096
pripad	4097
miro	4098
##tivna	4099
austri	4100
zajednice	4101
vratio	4102
istraživanje	4103
sed	4104
stje	4105
vidjeli	4106
##91	4107
more	4108
stalno	4109
broja	4110
sredstva	4111
asiste	4112
##plika	4113
regional	4114
televizi	4115
pjesmu	4116
kraljev	4117
##cka	4118
##lnoj	4119
##čena	4120
potrebe	4121
##šnjem	4122
nere	4123
##stan	4124
razo	4125
##min	4126
vid	4127
vjenča	4128
visoki	4129
zvijezda	4130
okuplja	4131
##vrije	4132
##var	4133
odbora	4134
##metni	4135
##keta	4136
##đenih	4137
gradi	4138
kulture	4139
mogućnosti	4140
ožujka	4141
##vju	4142
proma	4143
građe	4144
njim	4145
lasa	4146
rezultate	4147
svr	4148
##love	4149
jaki	4150
autor	4151
osigura	4152
udruga	4153
##teri	4154
gosto	4155
trenutak	4156
nekada	4157
komentirao	4158
h_2720	4159
k_2720	4160
o_2720	4161
##nulo	4162
reži	4163
uzbu	4164
dvoje	4165
pp_2720	4166
ep	4167
bel	4168
trebaju	4169
and	4170
poznato	4171
jedinstve	4172
2019	4173
vijeća	4174
intervju	4175
blizini	4176
##rup	4177
pam	4178
prvih	4179
prvenstvo	4180
##cijske	4181
politike	4182
priču	4183
##miru	4184
vidio	4185
van	4186
diplo	4187
staja	4188
probleme	4189
zatvore	4190
psiho	4191
baby	4192
lan	4193
pronaći	4194
udar	4195
##dnih	4196
##tive	4197
nase	4198
uspjeh	4199
jedino	4200
300	4201
avio	4202
yo	4203
##ds	4204
##reno	4205
nega	4206
moto	4207
izbornik	4208
budućnosti	4209
simbo	4210
##ana	4211
medija	4212
sezoni	4213
onaj	4214
otišao	4215
##rine	4216
partner	4217
visi	4218
##stoj	4219
usmje	4220
##rent	4221
##nuto	4222
##rnih	4223
##spje	4224
##gna	4225
velikom	4226
loptu	4227
razumije	4228
##ght	4229
unije	4230
##zbo	4231
bitno	4232
telefo	4233
uma	4234
barce	4235
ben	4236
potpo	4237
parizu	4238
festival	4239
dp	4240
iran	4241
zamije	4242
izved	4243
dužno	4244
raspore	4245
##dnog	4246
migra	4247
##vlji	4248
našu	4249
grupe	4250
svlada	4251
##rin	4252
##ljep	4253
mario	4254
loko	4255
proizvođa	4256
poraza	4257
epizo	4258
##mpo	4259
povu	4260
postav	4261
toma	4262
##ćena	4263
prakti	4264
zrakoplo	4265
##nina	4266
narod	4267
##rie	4268
##vjetni	4269
hrvatsko	4270
##štaj	4271
društvu	4272
220x	4273
##mpi	4274
bici	4275
##njena	4276
privla	4277
treće	4278
##šića	4279
prijevo	4280
reprezentacija	4281
potvrdio	4282
mandata	4283
##nirati	4284
navi	4285
takve	4286
kali	4287
jadran	4288
staro	4289
##njih	4290
jutro	4291
fotografija	4292
točno	4293
regu	4294
skupina	4295
agre	4296
kora	4297
##din	4298
##čaje	4299
odnos	4300
prijatelji	4301
poraz	4302
barcelo	4303
boja	4304
najvi	4305
vjetar	4306
cilje	4307
sezona	4308
drži	4309
informacija	4310
zloči	4311
zanimljivo	4312
apso	4313
iska	4314
##is	4315
poe	4316
početak	4317
ponekad	4318
vrijednost	4319
najboljih	4320
tomislav	4321
opisa	4322
un	4323
##am	4324
##dilo	4325
rusija	4326
glas	4327
tvrde	4328
pokazuju	4329
poziv	4330
sudac	4331
##predsjed	4332
1024x1	4333
##vak	4334
daje	4335
dose	4336
moru	4337
oslo	4338
ostale	4339
kreta	4340
finalu	4341
nesreće	4342
poljoprivred	4343
##đuju	4344
osijek	4345
glasova	4346
##um	4347
##teo	4348
kojemu	4349
počela	4350
godišnjak	4351
intelige	4352
govorio	4353
učiniti	4354
lakše	4355
##tti	4356
prirod	4357
trenin	4358
tuži	4359
##80x1	4360
imena	4361
km	4362
##ramo	4363
##lacije	4364
domi	4365
raste	4366
##ker	4367
primo	4368
milo	4369
kupo	4370
turu	4371
sloven	4372
splita	4373
ljest	4374
situacije	4375
suradnji	4376
iskustva	4377
sv	4378
pošto	4379
znati	4380
glasno	4381
ceste	4382
povijest	4383
nizozem	4384
##skr	4385
veće	4386
##šević	4387
obla	4388
rijeci	4389
dobit	4390
vijest	4391
nagradu	4392
hvala	4393
##sh	4394
##ol	4395
##tek	4396
##zirao	4397
list	4398
okolnosti	4399
osvojila	4400
ujedno	4401
švica	4402
##mova	4403
##ser	4404
vodo	4405
izbori	4406
1280x1	4407
svjetskog	4408
kandidat	4409
38	4410
akade	4411
##vile	4412
##snom	4413
##šni	4414
##tković	4415
europskom	4416
stigla	4417
spremni	4418
kriminali	4419
htio	4420
##the	4421
austra	4422
zaštite	4423
##voru	4424
##mentu	4425
pohvali	4426
##jska	4427
##tivan	4428
osvr	4429
želimo	4430
kapa	4431
savjet	4432
nor	4433
##ćim	4434
sindi	4435
ruski	4436
bolnici	4437
55	4438
##boru	4439
prav	4440
##cijski	4441
učinko	4442
unutra	4443
jadranu	4444
alek	4445
nasto	4446
##hom	4447
ruku	4448
lani	4449
državnog	4450
slobodna	4451
nesreća	4452
el	4453
bespla	4454
##tski	4455
goran	4456
##njim	4457
titu	4458
strada	4459
radnika	4460
članovi	4461
zraka	4462
košarka	4463
##nskoj	4464
##26	4465
popla	4466
##vini	4467
brojni	4468
obavlja	4469
amerika	4470
tržištu	4471
instagramu	4472
zatra	4473
##ger	4474
##nijeg	4475
vukova	4476
budućnost	4477
stanovni	4478
sru	4479
##lizira	4480
##vana	4481
budi	4482
slike	4483
odgovorio	4484
nevjeroja	4485
ene	4486
njoj	4487
teren	4488
brazi	4489
nastupi	4490
stranka	4491
inozem	4492
37	4493
ani	4494
eg	4495
ika	4496
ver	4497
197	4498
četvrt	4499
karijeri	4500
andrej	4501
uje	4502
##vito	4503
##lega	4504
rasta	4505
grupa	4506
##dnom	4507
karak	4508
nepri	4509
odvjetni	4510
ostala	4511
zapovje	4512
popra	4513
##lena	4514
voda	4515
kim	4516
proces	4517
##dove	4518
##čari	4519
ruske	4520
glavnog	4521
rješenja	4522
##listi	4523
##rov	4524
serije	4525
##nijela	4526
našoj	4527
provodi	4528
priopćenju	4529
razvoja	4530
razdoblju	4531
industri	4532
skr	4533
šta	4534
neiz	4535
listi	4536
halji	4537
različiti	4538
navijači	4539
izbjega	4540
##id	4541
dobre	4542
##dera	4543
tera	4544
papi	4545
##tivnih	4546
postoja	4547
##ntima	4548
poznat	4549
istaknula	4550
svakog	4551
lokomo	4552
\/	4553
##žna	4554
trene	4555
odnosi	4556
dogodila	4557
osjećaj	4558
##dnik	4559
##zaciju	4560
vina	4561
bori	4562
poruka	4563
karijeru	4564
festivala	4565
##rira	4566
inspi	4567
laga	4568
zahvali	4569
povećanje	4570
tenisa	4571
dužnos	4572
minima	4573
##...	4574
njihovu	4575
prošlog	4576
rezultati	4577
odmo	4578
obrati	4579
našem	4580
##ments	4581
dosada	4582
zadnje	4583
##nut	4584
preo	4585
srca	4586
razliku	4587
enja	4588
##vamo	4589
##ženja	4590
školu	4591
zatvora	4592
borbi	4593
istraživanja	4594
iznos	4595
##vis	4596
##mena	4597
europskih	4598
ideja	4599
održati	4600
##vinu	4601
##gara	4602
##ljenje	4603
##hor	4604
poznata	4605
navečer	4606
zgrade	4607
it	4608
##kati	4609
kama	4610
##bama	4611
##zama	4612
predvo	4613
vozač	4614
ati	4615
volje	4616
ostav	4617
##vani	4618
kolek	4619
provede	4620
ravno	4621
##gallery	4622
boje	4623
konkre	4624
turnira	4625
htt	4626
olu	4627
##ft	4628
serija	4629
donio	4630
##stvima	4631
##put	4632
državni	4633
tjele	4634
premijera	4635
ao	4636
flo	4637
ine	4638
yor	4639
##noga	4640
golova	4641
moram	4642
##proda	4643
programu	4644
obožava	4645
##jskih	4646
novča	4647
odigrao	4648
konkuren	4649
##nne	4650
sas	4651
##pisi	4652
cijele	4653
maksima	4654
##_271988	4655
priopći	4656
hercego	4657
kilograma	4658
etvr	4659
##kciju	4660
igraju	4661
temelju	4662
velikog	4663
milijardi	4664
ex	4665
jesu	4666
##mana	4667
sino	4668
kupu	4669
luke	4670
završila	4671
legenda	4672
##lnost	4673
##tice	4674
##ženo	4675
vremenu	4676
svjetski	4677
blago	4678
glumica	4679
mobite	4680
etiri	4681
plju	4682
ulazi	4683
##tetu	4684
pribli	4685
##šili	4686
simp	4687
londo	4688
spomi	4689
velik	4690
arhi	4691
smatraju	4692
zaštitu	4693
05	4694
ara	4695
naju	4696
dokaza	4697
teri	4698
standa	4699
##vljuje	4700
derbi	4701
39	4702
zvo	4703
špi	4704
progno	4705
navijača	4706
pjesma	4707
##sc	4708
##pić	4709
razvija	4710
pravila	4711
tisuće	4712
ulice	4713
raspolo	4714
##zmu	4715
nepozna	4716
1280x	4717
nagrade	4718
kapaci	4719
eno	4720
##godio	4721
jača	4722
stariji	4723
predlo	4724
igrama	4725
školi	4726
gledati	4727
blizu	4728
konačno	4729
bron	4730
sk	4731
dovesti	4732
samosta	4733
hama	4734
njezine	4735
slika	4736
pretpo	4737
1024x	4738
gri	4739
šved	4740
##čije	4741
##liga	4742
##tona	4743
##stiti	4744
potpredsjed	4745
plas	4746
poruku	4747
kategoriji	4748
aju	4749
##ssi	4750
##dnu	4751
zadru	4752
##vec	4753
lista	4754
trage	4755
stoljeća	4756
elektro	4757
adre	4758
ugovo	4759
kog	4760
##njeva	4761
petra	4762
autoce	4763
jednako	4764
slijedi	4765
inova	4766
wil	4767
rela	4768
##bacio	4769
stan	4770
prednost	4771
medije	4772
saveza	4773
sumnja	4774
##tnoj	4775
##zde	4776
##kin	4777
mal	4778
sporazu	4779
nagrada	4780
objašnjava	4781
potak	4782
novoj	4783
puca	4784
ostalim	4785
uvjetima	4786
večeras	4787
prijedlog	4788
kriminalisti	4789
##23	4790
čine	4791
filip	4792
uki	4793
##sad	4794
prošli	4795
velikih	4796
pozvao	4797
donijeti	4798
esto	4799
##rskoj	4800
dodje	4801
##mer	4802
##zacija	4803
##šen	4804
američki	4805
pozdra	4806
apsolu	4807
baze	4808
djeci	4809
njegovim	4810
##sport	4811
članova	4812
pobijedio	4813
usluga	4814
igru	4815
##ld	4816
##tru	4817
žive	4818
##slava	4819
podataka	4820
##nisti	4821
nalaze	4822
izvu	4823
masli	4824
opti	4825
##vljen	4826
dizaj	4827
aplika	4828
##mlja	4829
##ture	4830
uslije	4831
postupak	4832
##land	4833
košta	4834
med	4835
kuću	4836
ostalo	4837
udarac	4838
sredstava	4839
pravosu	4840
zadnjih	4841
42	4842
ujedi	4843
susjed	4844
prio	4845
prednosti	4846
ulica	4847
bolnice	4848
220x1	4849
##lacija	4850
kop	4851
##lon	4852
tam	4853
##ćenje	4854
stana	4855
##vniku	4856
kreće	4857
slova	4858
obave	4859
https	4860
fri	4861
##kte	4862
##ts	4863
##šo	4864
##čava	4865
osni	4866
tikto	4867
ovogodi	4868
vrsta	4869
##vljeni	4870
popular	4871
nukle	4872
velikoj	4873
pjevačica	4874
alba	4875
studenog	4876
temperature	4877
##us	4878
##rene	4879
##šan	4880
inspe	4881
morao	4882
ukrajine	4883
redovito	4884
ušao	4885
##novima	4886
proba	4887
propusti	4888
organizacije	4889
rješa	4890
čovjeka	4891
poduzet	4892
isključi	4893
manife	4894
##jskom	4895
##laga	4896
##tego	4897
baca	4898
znate	4899
bur	4900
1920	4901
njegovom	4902
75	4903
##žnja	4904
##bice	4905
rumu	4906
srce	4907
sadr	4908
prijatelja	4909
skladu	4910
tehnologi	4911
prošao	4912
preži	4913
##graf	4914
detalj	4915
mandat	4916
jugosla	4917
zbi	4918
donal	4919
ratu	4920
##njene	4921
##ljka	4922
stavlja	4923
britan	4924
podacima	4925
zahtjev	4926
aja	4927
##lira	4928
koga	4929
sastav	4930
rastu	4931
radovi	4932
teo	4933
##ljivi	4934
kuhi	4935
znak	4936
promijeniti	4937
palesti	4938
##njeni	4939
javnog	4940
##žuje	4941
ljepo	4942
najveća	4943
pokazali	4944
skoro	4945
nastavku	4946
ubrzo	4947
##liji	4948
doista	4949
mala	4950
hrvatskim	4951
aktivi	4952
izabra	4953
medijima	4954
odabra	4955
odgovornost	4956
ivica	4957
##10	4958
destina	4959
##ham	4960
filmu	4961
napravili	4962
modrić	4963
zag	4964
##bičaje	4965
spor	4966
srbija	4967
širo	4968
vijesti	4969
spreman	4970
sasvim	4971
ch	4972
naći	4973
##tali	4974
##voren	4975
nep	4976
igrače	4977
riječima	4978
uspješno	4979
pored	4980
prekra	4981
petro	4982
idemo	4983
2018	4984
napu	4985
postupa	4986
##sigu	4987
razmje	4988
prostoru	4989
trenutačno	4990
ane	4991
uka	4992
uzima	4993
napla	4994
##reda	4995
znatno	4996
odnose	4997
istom	4998
rizik	4999
##nuta	5000
prido	5001
tijeku	5002
eduka	5003
mrt	5004
olak	5005
##mla	5006
##šnju	5007
##81	5008
##//	5009
##njeno	5010
##ziva	5011
najljep	5012
kontinu	5013
##šten	5014
cesti	5015
mreže	5016
##que	5017
##rbe	5018
##nc	5019
dodi	5020
sudu	5021
##njeg	5022
bom	5023
ispita	5024
obično	5025
odluči	5026
odlučili	5027
studija	5028
ističu	5029
agencija	5030
funkcionira	5031
domovinskog	5032
činjenica	5033
stupnjeva	5034
glasnogovor	5035
##kvi	5036
##leti	5037
privu	5038
pad	5039
mjera	5040
predsjednica	5041
ukrajinu	5042
vozilo	5043
2016	5044
prvenstve	5045
kakva	5046
povratak	5047
kontinui	5048
##tnost	5049
##dy	5050
##rigi	5051
##lovima	5052
joh	5053
roku	5054
favori	5055
njemačke	5056
zim	5057
##ticle	5058
znao	5059
loši	5060
politički	5061
skupini	5062
smislu	5063
porez	5064
usluge	5065
1920x1	5066
promi	5067
morati	5068
gostu	5069
##bar	5070
##zapad	5071
logi	5072
##fer	5073
njemačka	5074
četvrti	5075
dogoditi	5076
utjecaj	5077
apa	5078
##45	5079
jef	5080
odvija	5081
menta	5082
obno	5083
najpo	5084
broju	5085
poziciju	5086
##ktor	5087
najvećih	5088
://	5089
##šne	5090
domu	5091
dogodio	5092
najče	5093
situaciji	5094
susretu	5095
##ndu	5096
teške	5097
napadu	5098
##strije	5099
bilje	5100
prolazi	5101
pregleda	5102
inde	5103
cel	5104
nastavio	5105
prvak	5106
pogodio	5107
građane	5108
vidimo	5109
postigao	5110
humani	5111
char	5112
ugovora	5113
##šnjoj	5114
niste	5115
znanja	5116
njihovim	5117
pokazati	5118
priznao	5119
trgova	5120
šanse	5121
##ntu	5122
##žem	5123
vale	5124
vodio	5125
vjeruje	5126
pokri	5127
kara	5128
jednim	5129
opro	5130
potpunosti	5131
##pisuje	5132
()	5133
upla	5134
glavu	5135
brod	5136
400	5137
ote	5138
##žnom	5139
tero	5140
perio	5141
riješiti	5142
osobno	5143
fanta	5144
najbolja	5145
uvjete	5146
knjige	5147
interesa	5148
srbiji	5149
čije	5150
##tivnim	5151
koncent	5152
regiji	5153
model	5154
formi	5155
naveo	5156
defini	5157
ica	5158
##86	5159
povla	5160
sabora	5161
teški	5162
starije	5163
granice	5164
dugoro	5165
dalmati	5166
preminuo	5167
kapetan	5168
simpto	5169
rumunj	5170
uru	5171
##rela	5172
net	5173
rok	5174
crkve	5175
otkriva	5176
različitih	5177
##dnika	5178
##šna	5179
neku	5180
primor	5181
##šak	5182
##gija	5183
stiže	5184
četvrtfina	5185
sme	5186
##šnjo	5187
pože	5188
odmor	5189
procije	5190
morate	5191
zemlju	5192
podsjeća	5193
alkohola	5194
sekundi	5195
onima	5196
sha	5197
##35	5198
##sira	5199
vama	5200
##vjela	5201
##ntno	5202
poruke	5203
varaždina	5204
republika	5205
catitem	5206
rođendan	5207
korup	5208
##zin	5209
njihovih	5210
##scipli	5211
potroša	5212
tz	5213
udo	5214
##strija	5215
ligu	5216
županija	5217
podatke	5218
uključuje	5219
konferenciji	5220
vlasnik	5221
oslobo	5222
##uzda	5223
##jevima	5224
sank	5225
most	5226
##ljenih	5227
ostalih	5228
odlučila	5229
počeli	5230
uko	5231
##tovi	5232
prometu	5233
##sili	5234
samom	5235
opskr	5236
njegovi	5237
siguran	5238
dijelom	5239
reprezentaciju	5240
nekad	5241
temelj	5242
policijske	5243
interes	5244
naroda	5245
stručnjaci	5246
rekord	5247
ocije	5248
pogodi	5249
##lanja	5250
##jice	5251
##juće	5252
moć	5253
mosta	5254
##ljet	5255
##bano	5256
međi	5257
javne	5258
vole	5259
duho	5260
##vljena	5261
tvrtki	5262
neobi	5263
fotografiju	5264
večeri	5265
moli	5266
##peri	5267
stambe	5268
tribi	5269
martin	5270
krvi	5271
ponavlja	5272
tržište	5273
policijski	5274
##zme	5275
##lović	5276
sanja	5277
prese	5278
nekog	5279
trumpa	5280
primorac	5281
##rje	5282
##roma	5283
##let	5284
##zao	5285
vino	5286
planu	5287
hoda	5288
voditelj	5289
podaci	5290
vatrogasci	5291
bivšeg	5292
izuzetno	5293
međimu	5294
zadra	5295
##tove	5296
raka	5297
##stio	5298
##zio	5299
vodu	5300
znanosti	5301
stopa	5302
takva	5303
##intere	5304
varaždinu	5305
340x2	5306
povodom	5307
44	5308
##69	5309
##nior	5310
dar	5311
##miju	5312
građanima	5313
conta	5314
##_2711	5315
prodaje	5316
šoki	5317
zemljama	5318
##video	5319
##_2717955	5320
48	5321
##we	5322
damir	5323
##čaja	5324
jak	5325
svaku	5326
uklo	5327
varaždinske	5328
##ravak	5329
policaj	5330
manifesta	5331
##ys	5332
##ranju	5333
zalju	5334
##dit	5335
sela	5336
mor	5337
teži	5338
mira	5339
stranici	5340
snagu	5341
publika	5342
lokalne	5343
šibenik	5344
detalje	5345
veljače	5346
crno	5347
igara	5348
##vicu	5349
putin	5350
##zora	5351
područje	5352
razvoju	5353
##deset	5354
bolnicu	5355
##od	5356
##mna	5357
##žene	5358
parti	5359
ministri	5360
sljedeće	5361
josipa	5362
luksu	5363
uprava	5364
politika	5365
glumac	5366
učenika	5367
ogrom	5368
##čaka	5369
boji	5370
hrvata	5371
svatko	5372
članica	5373
ukrajina	5374
sportski	5375
sumnje	5376
izvanred	5377
iznosu	5378
41	5379
##vimo	5380
doj	5381
objave	5382
ange	5383
šef	5384
prilike	5385
račun	5386
zastupnika	5387
položa	5388
640x4	5389
##tov	5390
dobru	5391
##čani	5392
##šati	5393
europska	5394
zdravlja	5395
razinu	5396
kvalitete	5397
nja	5398
oču	5399
##ima	5400
mami	5401
najpozna	5402
pena	5403
jedva	5404
##čuju	5405
morali	5406
##prijed	5407
...'	5408
proizvodnje	5409
govoriti	5410
prometne	5411
napome	5412
!"	5413
##ttu	5414
poni	5415
sun	5416
zajednica	5417
istina	5418
uživa	5419
##govarati	5420
atra	5421
kbc	5422
##ina	5423
neto	5424
prikaza	5425
veća	5426
libano	5427
krenuo	5428
150	5429
jedina	5430
bogat	5431
korištenje	5432
you	5433
##kala	5434
dobije	5435
pišu	5436
pravu	5437
znali	5438
vrste	5439
kiša	5440
nastavak	5441
milijun	5442
pripreme	5443
natjecanje	5444
knjiže	5445
spek	5446
požar	5447
ulaganja	5448
##rnog	5449
##jskim	5450
##vaca	5451
##ljenja	5452
šeće	5453
dvostru	5454
najveće	5455
vidim	5456
partnera	5457
kakve	5458
španjolske	5459
ravnatelj	5460
stanovnika	5461
##pravda	5462
svu	5463
namir	5464
proje	5465
far	5466
ideal	5467
direk	5468
agencije	5469
nekom	5470
prem	5471
##ziti	5472
pokušao	5473
pokušava	5474
plenkovi	5475
platformi	5476
ate	5477
mlije	5478
##sse	5479
##čnost	5480
poti	5481
zaintere	5482
prince	5483
satima	5484
građevi	5485
propisa	5486
##ljom	5487
potporu	5488
slaven	5489
##ktora	5490
pogodak	5491
jednostav	5492
interven	5493
nekretnine	5494
65	5495
##žnog	5496
##dobno	5497
treni	5498
samog	5499
službeno	5500
ozbiljno	5501
480x3	5502
sveučilišta	5503
portugal	5504
ii	5505
ubo	5506
preci	5507
mama	5508
čija	5509
nikak	5510
hit	5511
glum	5512
sjevero	5513
postro	5514
##jić	5515
odlazi	5516
prigo	5517
pristupa	5518
najte	5519
vrh	5520
cilja	5521
obranu	5522
##nijim	5523
ul	5524
pripada	5525
##tkinja	5526
domaćin	5527
putovanja	5528
chi	5529
susje	5530
preve	5531
##zerva	5532
uvjer	5533
ostvari	5534
otvoreno	5535
njegovoj	5536
pomaže	5537
iš	5538
ulja	5539
##gnuti	5540
##kete	5541
##han	5542
##hani	5543
cijenu	5544
dubrovnika	5545
generacije	5546
##prilike	5547
isključivo	5548
ug	5549
##mr	5550
##redi	5551
propa	5552
meteo	5553
osmi	5554
plasti	5555
njihovo	5556
nadzor	5557
briga	5558
izjavila	5559
ivot	5560
##ravka	5561
46	5562
##96	5563
##tite	5564
poto	5565
zao	5566
duga	5567
izab	5568
brojnim	5569
političke	5570
uključi	5571
borbu	5572
kaznenog	5573
njegovog	5574
razdoblje	5575
analiti	5576
cjelo	5577
optimi	5578
##rnim	5579
zaosta	5580
mara	5581
teška	5582
##ševa	5583
odnosa	5584
liječni	5585
dolazak	5586
završiti	5587
štetu	5588
poslijepodne	5589
vanjskih	5590
eva	5591
##isto	5592
##yer	5593
##logu	5594
##bit	5595
bog	5596
pis	5597
ruka	5598
ciljem	5599
domaće	5600
pažnju	5601
neprija	5602
##jati	5603
današnji	5604
##štima	5605
trgu	5606
drugima	5607
razine	5608
speci	5609
kolege	5610
nogometaši	5611
oca	5612
##s_	5613
pregovo	5614
preosta	5615
tor	5616
##luju	5617
##mice	5618
dubra	5619
njihovi	5620
marke	5621
posebice	5622
##ndro	5623
2017	5624
suprug	5625
ape	5626
bren	5627
oli	5628
##_ar	5629
lica	5630
hrvati	5631
kombi	5632
osobama	5633
suradnju	5634
uobičaje	5635
godišnjeg	5636
47	5637
šteta	5638
##vero	5639
prolaz	5640
javni	5641
##đenju	5642
pratiti	5643
otprilike	5644
radili	5645
poseban	5646
upotre	5647
trofe	5648
onoga	5649
prodaju	5650
različite	5651
galerija	5652
ade	5653
fra	5654
qu	5655
zauze	5656
testi	5657
njegovih	5658
pobjedom	5659
osigurati	5660
naglašava	5661
španjolska	5662
obrazovanja	5663
duboko	5664
fantasti	5665
##žbu	5666
##linu	5667
dala	5668
nes	5669
boži	5670
važan	5671
liste	5672
##vnosti	5673
crne	5674
pojasni	5675
muškaraca	5676
kvalitetu	5677
značajno	5678
vikenda	5679
saraje	5680
afe	5681
uža	5682
##rij	5683
##nes	5684
biden	5685
prolje	5686
##ćeno	5687
gazi	5688
hranu	5689
ovisi	5690
odlično	5691
katastro	5692
vodstvo	5693
portal	5694
premda	5695
nacija	5696
##toj	5697
##letio	5698
teku	5699
pas	5700
##hoto	5701
isho	5702
gattu	5703
##hing	5704
gradske	5705
desetak	5706
dubrovniku	5707
manche	5708
##tirati	5709
meto	5710
bora	5711
link	5712
brat	5713
europskim	5714
borba	5715
statisti	5716
ol	5717
preva	5718
cat	5719
djeteta	5720
braka	5721
rezultata	5722
napomi	5723
poslao	5724
pozornost	5725
oružja	5726
kg	5727
##dnim	5728
pogle	5729
##vač	5730
svoja	5731
stože	5732
braku	5733
dvobo	5734
nezado	5735
izvođa	5736
catite	5737
milanovića	5738
fron	5739
##lama	5740
datu	5741
##move	5742
magi	5743
vita	5744
grani	5745
rusije	5746
##skup	5747
cijela	5748
državne	5749
fazi	5750
postane	5751
prijave	5752
nekako	5753
temelji	5754
izgubili	5755
smr	5756
psihi	5757
umjetnosti	5758
images	5759
##lie	5760
##tama	5761
nemogu	5762
sal	5763
pristu	5764
petar	5765
glavna	5766
civi	5767
##ština	5768
nemamo	5769
projekti	5770
američke	5771
hotel	5772
svakodnevno	5773
1024x68	5774
vre	5775
##vcu	5776
##raz	5777
seve	5778
##ler	5779
##zanje	5780
vaša	5781
kreve	5782
ministra	5783
komp	5784
##vremena	5785
blagdan	5786
robert	5787
otpada	5788
dijeli	5789
forma	5790
zgrada	5791
korisnika	5792
sukoba	5793
poljudu	5794
posljedice	5795
kompanija	5796
600	5797
klije	5798
našao	5799
##jana	5800
##kali	5801
tad	5802
discipli	5803
policiji	5804
vrijedi	5805
europsko	5806
istoku	5807
hezbo	5808
zdravstva	5809
želite	5810
instagram	5811
preuzima	5812
1280x85	5813
negdje	5814
pretra	5815
makar	5816
##čene	5817
bavi	5818
objavili	5819
pješa	5820
gradskog	5821
francuska	5822
utjecati	5823
očekivati	5824
podijelila	5825
unutrašnjo	5826
oc	5827
ostavlja	5828
izre	5829
##sama	5830
##ženju	5831
najgo	5832
stav	5833
želja	5834
vlast	5835
luci	5836
rim	5837
stipe	5838
geo	5839
knjiga	5840
struktu	5841
uskok	5842
harris	5843
zadovoljni	5844
lasagna	5845
projekata	5846
##m_	5847
##žnih	5848
nape	5849
zasta	5850
proved	5851
prete	5852
gostima	5853
##vljeno	5854
obavijesti	5855
takvih	5856
organizaciji	5857
roditelja	5858
kolega	5859
nasilja	5860
potrebna	5861
ispričao	5862
plasman	5863
tjed	5864
##blji	5865
jese	5866
make	5867
liga	5868
voditi	5869
##njuju	5870
troje	5871
pogledati	5872
tjedana	5873
općina	5874
pomalo	5875
itekako	5876
dvori	5877
pije	5878
ust	5879
##čnije	5880
##kola	5881
selu	5882
banke	5883
kupi	5884
kriv	5885
krenuli	5886
sretan	5887
očekuju	5888
napokon	5889
francuske	5890
bivša	5891
turizma	5892
odvjetnik	5893
čvr	5894
##jd	5895
nepre	5896
##tura	5897
##čeki	5898
invali	5899
objavi	5900
državi	5901
čast	5902
fer	5903
važnost	5904
splitsko	5905
muškarca	5906
##hvaća	5907
##mimagegallery	5908
ustvr	5909
origi	5910
uku	5911
zri	5912
##rnu	5913
##žnim	5914
##tivac	5915
izjedna	5916
mag	5917
razno	5918
gradova	5919
2000	5920
##_270	5921
heliko	5922
suradnje	5923
sportske	5924
uspored	5925
ambi	5926
poena	5927
"...	5928
istu	5929
##čnosti	5930
poreme	5931
proveo	5932
saboru	5933
prera	5934
##ljive	5935
##šila	5936
##traj	5937
međuvremenu	5938
grmlja	5939
##pustiti	5940
otvorena	5941
sinoć	5942
pokra	5943
zasad	5944
##pora	5945
rezer	5946
bolja	5947
posljed	5948
većinom	5949
izgubila	5950
podrška	5951
komentara	5952
milijarde	5953
stadionu	5954
beogradu	5955
mišljenje	5956
eri	5957
upita	5958
##nga	5959
namije	5960
val	5961
vaši	5962
sobom	5963
radni	5964
potez	5965
trgovine	5966
povjeren	5967
smanjenje	5968
normalno	5969
preokre	5970
definitivno	5971
helikop	5972
tvor	5973
naf	5974
##toli	5975
dodije	5976
bana	5977
uskr	5978
radimo	5979
mlađi	5980
proizvode	5981
emisiji	5982
kvadra	5983
ošt	5984
jeste	5985
zadu	5986
##dalma	5987
kapita	5988
##nule	5989
tima	5990
naslova	5991
nemam	5992
obavje	5993
feno	5994
protekli	5995
pokret	5996
ostvariti	5997
suprugom	5998
dnevnik	5999
otoka	6000
vlasništvu	6001
##ati	6002
##lozi	6003
##njenih	6004
##hat	6005
stranu	6006
stigli	6007
istovremeno	6008
gospodarstva	6009
nemojte	6010
najčešće	6011
58	6012
igor	6013
kne	6014
##vski	6015
koševa	6016
suz	6017
izlazi	6018
liva	6019
leo	6020
prijateljima	6021
vojska	6022
slično	6023
podrške	6024
otoku	6025
snimke	6026
putovanje	6027
kampanje	6028
pritisak	6029
norve	6030
john	6031
isu	6032
ura	6033
##nilo	6034
bod	6035
##ljiv	6036
svjesni	6037
uspjela	6038
vojske	6039
reakcije	6040
razlike	6041
ulazak	6042
""	6043
opravda	6044
##rede	6045
supar	6046
mati	6047
temu	6048
star	6049
kupiti	6050
šire	6051
događaj	6052
upozorava	6053
ekipe	6054
izvješta	6055
madrid	6056
status	6057
52	6058
##isti	6059
##xt	6060
popis	6061
##nae	6062
zamisli	6063
davor	6064
##vena	6065
bide	6066
proći	6067
raj	6068
maso	6069
vožnje	6070
živjeti	6071
198	6072
guž	6073
operati	6074
svjetlo	6075
održava	6076
posljedica	6077
##dalmacija	6078
49	6079
imu	6080
ovje	6081
##snost	6082
##drža	6083
pošte	6084
##naj	6085
dona	6086
##porta	6087
maro	6088
miha	6089
ispiti	6090
pokazalo	6091
publiku	6092
visoke	6093
jezika	6094
hotela	6095
smanjiti	6096
willi	6097
anu	6098
##et	6099
neslu	6100
sau	6101
##gađa	6102
sveti	6103
ispi	6104
osobu	6105
drugači	6106
energet	6107
balka	6108
motoci	6109
was	6110
danima	6111
prisi	6112
reu	6113
banka	6114
razne	6115
razgovor	6116
plani	6117
rijetko	6118
prilično	6119
udara	6120
društvene	6121
neovi	6122
student	6123
otići	6124
nogometnog	6125
komunal	6126
kaznu	6127
##padu	6128
mile	6129
najmla	6130
platiti	6131
uskla	6132
akcije	6133
##rnicu	6134
marka	6135
otkrili	6136
gimna	6137
načelnik	6138
ora	6139
##lti	6140
##ravaju	6141
##rove	6142
valja	6143
##žite	6144
svjetskom	6145
reprezentativac	6146
zatvor	6147
kontroli	6148
turnir	6149
pobjednik	6150
energiju	6151
480x320	6152
51	6153
azi	6154
##rda	6155
##nito	6156
kopri	6157
##bić	6158
rusi	6159
##fiel	6160
informacijama	6161
zlostavlja	6162
detalji	6163
sjaj	6164
zdravstvene	6165
započeo	6166
željko	6167
ozljeda	6168
prijevoz	6169
manchester	6170
uhvati	6171
poča	6172
zate	6173
daju	6174
stri	6175
##vjeli	6176
alter	6177
nositi	6178
institucije	6179
opasnosti	6180
životinja	6181
proteklih	6182
43	6183
ući	6184
##šom	6185
kosti	6186
donese	6187
izgle	6188
men	6189
prate	6190
otka	6191
samou	6192
lau	6193
ostavio	6194
projekte	6195
hitne	6196
objasnila	6197
##prje	6198
humanitar	6199
##laca	6200
vezu	6201
##teljice	6202
dodajte	6203
postali	6204
##cijskih	6205
posljednja	6206
dvojica	6207
voditeljica	6208
majsto	6209
isporu	6210
italije	6211
komplek	6212
##deći	6213
misle	6214
jaja	6215
linija	6216
info	6217
dis	6218
otkako	6219
cijeni	6220
nećemo	6221
zove	6222
osvojili	6223
desetlje	6224
sustavu	6225
61	6226
uza	6227
##kse	6228
##jskoj	6229
sen	6230
rukama	6231
##terpo	6232
problemi	6233
putnika	6234
koncerta	6235
nesreći	6236
drugačije	6237
oporbe	6238
pobijediti	6239
kontrolu	6240
osijeka	6241
obliku	6242
velepo	6243
kazna	6244
##menata	6245
rafa	6246
##grafi	6247
##đenim	6248
kiše	6249
ciklu	6250
lud	6251
ondje	6252
klupi	6253
sigurni	6254
zapošlja	6255
veleposla	6256
evi	6257
##cke	6258
##zati	6259
vez	6260
većinu	6261
udario	6262
oduze	6263
ureda	6264
organizacija	6265
dnevno	6266
proračuna	6267
sunčano	6268
razgovoru	6269
##vrijeme	6270
ae	6271
njom	6272
nat	6273
##lini	6274
##lazak	6275
prit	6276
pamet	6277
des	6278
svjetske	6279
nacionalne	6280
stručnjak	6281
ovisno	6282
sumnji	6283
kije	6284
##tika	6285
##tivu	6286
preven	6287
vaterpo	6288
osvoje	6289
rusiji	6290
letje	6291
kredi	6292
##škoj	6293
razlika	6294
optuž	6295
tržišta	6296
nogometaš	6297
gradonačelnika	6298
web	6299
afri	6300
hrana	6301
urba	6302
##55	6303
pogled	6304
izo	6305
##stara	6306
mogle	6307
##mit	6308
##grad	6309
čim	6310
##štena	6311
brojnih	6312
širi	6313
posloda	6314
proizvodi	6315
nedjelje	6316
scene	6317
skupa	6318
##tegory	6319
specifi	6320
koj	6321
##cira	6322
mikro	6323
volo	6324
proizvodnju	6325
važna	6326
pronašli	6327
desetljeća	6328
upravljanja	6329
olimpijske	6330
djevojka	6331
crveni	6332
odlazak	6333
platfor	6334
cestama	6335
!'	6336
57	6337
54	6338
hns	6339
##tton	6340
koor	6341
nepro	6342
##žavaju	6343
pusti	6344
##genti	6345
pete	6346
##tivnu	6347
vojnika	6348
raspu	6349
krugu	6350
poreza	6351
uništi	6352
osijeku	6353
zvijezde	6354
savjeto	6355
iskreno	6356
facebook	6357
glasnogovornik	6358
63	6359
##nstva	6360
##vano	6361
koso	6362
belu	6363
kralji	6364
orke	6365
akcija	6366
ulozi	6367
postignu	6368
##logiju	6369
komisije	6370
tzv	6371
alterna	6372
##laže	6373
pregled	6374
mail	6375
##cent	6376
osnova	6377
opcija	6378
cijelog	6379
centi	6380
olimpijskim	6381
spomenuti	6382
prirode	6383
ispričala	6384
##shi	6385
##yja	6386
nared	6387
dojam	6388
izgled	6389
izbaci	6390
sasto	6391
##pović	6392
razgovarati	6393
kuna	6394
klup	6395
dinamu	6396
uvjeti	6397
osnovne	6398
jezik	6399
zavoda	6400
okri	6401
##rh	6402
##chi	6403
##ls	6404
seg	6405
revo	6406
obro	6407
usred	6408
poziciji	6409
pozo	6410
bilj	6411
pretje	6412
##čem	6413
japan	6414
imat	6415
plasi	6416
vjer	6417
komple	6418
njemački	6419
slobodno	6420
srpski	6421
terena	6422
odjela	6423
nadokna	6424
aleksa	6425
64	6426
areni	6427
##nciju	6428
##fal	6429
##tiji	6430
##viju	6431
prof	6432
mehani	6433
##mjese	6434
stranicama	6435
anđe	6436
istrage	6437
dvorani	6438
ugostitelj	6439
strijelac	6440
##_article	6441
##snosti	6442
iznaj	6443
##bin	6444
rujnu	6445
politiku	6446
dinami	6447
nogometni	6448
argenti	6449
vijeć	6450
službenici	6451
poluvremenu	6452
parlament	6453
showa	6454
brazil	6455
apsolutno	6456
ur	6457
##ms	6458
##vajući	6459
katoli	6460
rezo	6461
##ćene	6462
boksa	6463
##djela	6464
##tivnog	6465
vrho	6466
kise	6467
pitali	6468
vremenom	6469
ukrajinski	6470
##cou	6471
##mente	6472
nogometne	6473
sjajno	6474
maksimiru	6475
prethodno	6476
kćeri	6477
rasporedu	6478
##ight	6479
##jsku	6480
##licu	6481
##novo	6482
seriji	6483
sana	6484
noge	6485
čelu	6486
kontek	6487
mlada	6488
natjecanju	6489
sudaca	6490
pobijedila	6491
počini	6492
emisije	6493
izazov	6494
vikend	6495
dužnosti	6496
album	6497
bicikli	6498
kći	6499
##nge	6500
kota	6501
kopriv	6502
##stao	6503
goste	6504
nost	6505
##ćeva	6506
bož	6507
kojega	6508
kuć	6509
šet	6510
uspjeha	6511
društvenih	6512
želio	6513
istraživa	6514
plenkovića	6515
nezavi	6516
zastupnik	6517
nedostaje	6518
žrtve	6519
internet	6520
zadovoljan	6521
oh	6522
##jaca	6523
sestra	6524
doja	6525
suve	6526
##skoga	6527
jam	6528
stare	6529
##presi	6530
2015	6531
načina	6532
vijeće	6533
imeno	6534
majke	6535
prošlosti	6536
klubova	6537
facebooku	6538
jutarnji	6539
ela	6540
sp	6541
dono	6542
stanja	6543
baci	6544
praz	6545
##kladno	6546
nekoga	6547
obrana	6548
odabi	6549
ponudu	6550
vozača	6551
operacije	6552
2f	6553
she	6554
raki	6555
djecom	6556
uspije	6557
slavi	6558
naslje	6559
publike	6560
izvora	6561
sudjelovao	6562
turističke	6563
uzrok	6564
razgovarali	6565
ustavni	6566
jutros	6567
nezadovolj	6568
đu	6569
##nstvo	6570
##tljivo	6571
##žnji	6572
##moć	6573
prou	6574
rekon	6575
max	6576
mane	6577
bate	6578
djeluje	6579
stranih	6580
veliči	6581
državnom	6582
##ters	6583
zatvara	6584
uživati	6585
nadolaze	6586
opasnost	6587
sposobnosti	6588
koncentra	6589
ise	6590
neću	6591
same	6592
gastro	6593
broda	6594
događaju	6595
osiguranje	6596
osvojiti	6597
transfe	6598
admini	6599
gostiju	6600
prekršaja	6601
tho	6602
ue	6603
##spa	6604
##cy	6605
poštu	6606
trećem	6607
sil	6608
radila	6609
obavije	6610
mreži	6611
otišla	6612
doživlja	6613
otvorio	6614
servi	6615
##ction	6616
##jevi	6617
dalić	6618
##loške	6619
##vent	6620
##lea	6621
memo	6622
igračima	6623
brak	6624
videu	6625
takvim	6626
mrežu	6627
kazneno	6628
iduće	6629
sudjelovati	6630
požara	6631
ponašanje	6632
različitim	6633
angaži	6634
osvrnuo	6635
original	6636
66	6637
##wo	6638
##lesa	6639
golom	6640
##njaka	6641
regije	6642
treća	6643
bero	6644
juri	6645
njihovom	6646
##novića	6647
zatvori	6648
formu	6649
uživo	6650
##uthor	6651
potpisao	6652
##burg	6653
ulaznice	6654
vrtića	6655
##pti	6656
##jicu	6657
sele	6658
priklju	6659
linije	6660
uzne	6661
strah	6662
njezinu	6663
županiji	6664
nacionalnog	6665
upozorenje	6666
povjerenje	6667
oglasio	6668
prilago	6669
moz	6670
maga	6671
pande	6672
##sur	6673
stanova	6674
bayer	6675
trebamo	6676
europskoj	6677
predviđa	6678
neret	6679
washing	6680
##jeve	6681
##ror	6682
##jac	6683
pripa	6684
obrt	6685
##tivnom	6686
početi	6687
obrambe	6688
rezultatom	6689
roditeljima	6690
učenici	6691
sceni	6692
predstavnici	6693
zahtjeva	6694
tehnologije	6695
##303	6696
izvijestio	6697
htjeli	6698
promatra	6699
jefti	6700
unutrašnjosti	6701
ovla	6702
nai	6703
##kovića	6704
suvreme	6705
mia	6706
nosti	6707
mjestima	6708
tragi	6709
riba	6710
župan	6711
izjave	6712
napadač	6713
opora	6714
festivalu	6715
okoliša	6716
napustio	6717
dječje	6718
koprivni	6719
rekonstru	6720
56	6721
62	6722
adri	6723
eka	6724
##tam	6725
gole	6726
volio	6727
vladu	6728
kih	6729
##redno	6730
tijelu	6731
dobiva	6732
plesa	6733
napravila	6734
pojedina	6735
novinarima	6736
medalje	6737
alex	6738
##nni	6739
##nna	6740
##tit	6741
poza	6742
##jak	6743
zamo	6744
##sata	6745
meč	6746
##šajte	6747
limu	6748
vodom	6749
##pula	6750
joe	6751
mjeri	6752
konsta	6753
korist	6754
online	6755
zlato	6756
bolest	6757
međunaro	6758
utrke	6759
sukob	6760
beograd	6761
incident	6762
đo	6763
##jku	6764
##432	6765
jelo	6766
polja	6767
radom	6768
bore	6769
javnom	6770
tip	6771
zagrebačke	6772
zagrebačkom	6773
srednje	6774
prometna	6775
marina	6776
mirovinu	6777
četvero	6778
vjerovati	6779
najvažnije	6780
ubojstvo	6781
titulu	6782
##liju	6783
##lića	6784
motivi	6785
radim	6786
korisni	6787
krenula	6788
prvim	6789
istraga	6790
nikakve	6791
publici	6792
gluma	6793
##_19	6794
emocional	6795
modela	6796
usposta	6797
sastanak	6798
poduzetni	6799
kategorije	6800
##desetak	6801
preuzeo	6802
"}	6803
crije	6804
hva	6805
##kt	6806
##cki	6807
##tike	6808
##lika	6809
povremeno	6810
##loge	6811
suge	6812
motor	6813
govor	6814
isla	6815
##play	6816
upozorio	6817
vatrogasa	6818
donijela	6819
naziva	6820
bloki	6821
nekretnina	6822
skanda	6823
htjela	6824
pljusko	6825
53	6826
##llo	6827
##ranih	6828
##tala	6829
kamio	6830
probu	6831
presti	6832
teža	6833
##sić	6834
nih	6835
menad	6836
najsta	6837
djeti	6838
##cijskog	6839
##veden	6840
##lly	6841
izvijestila	6842
iznajm	6843
inje	6844
ske	6845
uga	6846
nazo	6847
##ree	6848
##taba	6849
##vida	6850
sestre	6851
provesti	6852
pat	6853
live	6854
petka	6855
jur	6856
izašao	6857
##šković	6858
marti	6859
dragi	6860
pobijedili	6861
razdoblja	6862
##mpu	6863
port	6864
zaigra	6865
odbio	6866
sala	6867
staviti	6868
buga	6869
domaćih	6870
draga	6871
vojne	6872
##šnjih	6873
francuski	6874
priznala	6875
utvrđeno	6876
nepos	6877
predstavio	6878
##vljuju	6879
67	6880
imo	6881
ikad	6882
##67	6883
##ff	6884
##title	6885
pav	6886
peti	6887
rock	6888
##škol	6889
splića	6890
poslove	6891
vozilom	6892
dalmatin	6893
procesu	6894
predstavnika	6895
uhićen	6896
igri	6897
učinkovito	6898
atrak	6899
anje	6900
oš	6901
##slje	6902
##link	6903
##kula	6904
##šena	6905
dim	6906
raznih	6907
otvoren	6908
slavlje	6909
park	6910
financija	6911
pokušaj	6912
čokola	6913
ponude	6914
itema	6915
izgradnju	6916
transpa	6917
itemrela	6918
djelatnosti	6919
zainteresi	6920
74	6921
kono	6922
##rur	6923
miri	6924
veću	6925
trend	6926
benzi	6927
mješta	6928
otpor	6929
dramati	6930
geor	6931
trumpo	6932
vuko	6933
pretvori	6934
kandidati	6935
krug	6936
odab	6937
marin	6938
tražiti	6939
sudjelovali	6940
air	6941
osumnjiče	6942
turudi	6943
avan	6944
even	6945
hnk	6946
mc	6947
##),	6948
##tovima	6949
table	6950
razgovora	6951
otkaza	6952
trajek	6953
ostane	6954
##rijama	6955
karte	6956
eksperi	6957
institucija	6958
pisali	6959
turniru	6960
nevjerojatno	6961
croati	6962
kriminal	6963
slobodnadalmacija	6964
anja	6965
##žnu	6966
##jača	6967
mol	6968
##turu	6969
vani	6970
infe	6971
predmet	6972
pilo	6973
čišće	6974
##ćuju	6975
izraela	6976
problemima	6977
čuli	6978
##đivati	6979
reakcija	6980
uloge	6981
ostvario	6982
##nder	6983
obzir	6984
mirovine	6985
##slovno	6986
trening	6987
gattuso	6988
neslužbe	6989
##ssa	6990
##dow	6991
dug	6992
jugu	6993
križa	6994
obrani	6995
mjesecima	6996
2012	6997
2014	6998
kvalitet	6999
hrabro	7000
kakvu	7001
izdanje	7002
vladimir	7003
atmosfera	7004
1920x10	7005
revolu	7006
##tabase	7007
71	7008
87	7009
ari	7010
plina	7011
wal	7012
##date	7013
pake	7014
pun	7015
tune	7016
krivo	7017
slavio	7018
sretni	7019
žup	7020
poslovanja	7021
slučajeva	7022
pripremi	7023
kršća	7024
mnogim	7025
muškarci	7026
upravljanje	7027
ekono	7028
liječnici	7029
iskoristiti	7030
vidljivo	7031
##sigurno	7032
120	7033
76	7034
istre	7035
ilega	7036
spi	7037
##rskog	7038
##_in	7039
pomi	7040
kašte	7041
tona	7042
##lum	7043
##minira	7044
##dovima	7045
osvje	7046
##đenog	7047
loš	7048
autori	7049
krenuti	7050
mlađe	7051
njihovoj	7052
pojavila	7053
američkog	7054
smještaj	7055
istaknuti	7056
sprema	7057
otvorenom	7058
birača	7059
obrazovanje	7060
natječaj	7061
infrastrukture	7062
ikada	7063
makedo	7064
85	7065
##gnosti	7066
nare	7067
##manu	7068
##torija	7069
doveo	7070
odbija	7071
nizu	7072
instru	7073
najprije	7074
##stero	7075
dodatne	7076
prošla	7077
##nković	7078
projektu	7079
nadzo	7080
spaša	7081
smatram	7082
ponaj	7083
troškova	7084
tjelesne	7085
640x427	7086
spektak	7087
1024x683	7088
1280x854	7089
73	7090
##iner	7091
##kovima	7092
sukladno	7093
sav	7094
rano	7095
raznim	7096
bura	7097
##fenzi	7098
stolje	7099
hajduku	7100
zagrebački	7101
ponuda	7102
dalmaciji	7103
##spekti	7104
serge	7105
oružje	7106
arhite	7107
59	7108
okup	7109
ulje	7110
##220	7111
##vača	7112
##tao	7113
zapri	7114
##nijeli	7115
kontine	7116
fon	7117
pitao	7118
takvu	7119
24sata	7120
pomaga	7121
utjecajem	7122
gospodarstvo	7123
financijski	7124
novinara	7125
partneri	7126
zadatak	7127
prihoda	7128
##scri	7129
tehnologija	7130
##nicom	7131
zaro	7132
proto	7133
vene	7134
##šenju	7135
boriti	7136
euroson	7137
slab	7138
obali	7139
zorana	7140
srpske	7141
izbornoj	7142
televi	7143
šibeniku	7144
štete	7145
potrebne	7146
sektoru	7147
kompanije	7148
upisao	7149
nazvao	7150
regula	7151
bomba	7152
djetinj	7153
##rića	7154
##strem	7155
ode	7156
prikuplja	7157
viru	7158
##žavanja	7159
razma	7160
gaze	7161
živ	7162
takvo	7163
glazbu	7164
uloga	7165
influe	7166
##financi	7167
lipnju	7168
zadovoljstvo	7169
##snika	7170
##l_	7171
##mara	7172
dane	7173
dogovor	7174
goo	7175
##ziv	7176
##pone	7177
malih	7178
papa	7179
umjeren	7180
održavanje	7181
vlastite	7182
određene	7183
uspore	7184
plus	7185
sindikata	7186
##tter	7187
##dp	7188
zare	7189
karo	7190
##metra	7191
##ćev	7192
libe	7193
stope	7194
pozicije	7195
vratar	7196
srednjo	7197
registri	7198
čekaju	7199
1000	7200
branitelja	7201
postupka	7202
zabrinuto	7203
vrući	7204
romanti	7205
kćer	7206
ano	7207
##ncima	7208
jeze	7209
komo	7210
##dia	7211
##loj	7212
odred	7213
toni	7214
repor	7215
nose	7216
boru	7217
##žim	7218
##ljo	7219
size	7220
glavi	7221
vjeroja	7222
##zirali	7223
njezino	7224
vučić	7225
slijede	7226
uzroko	7227
korisnici	7228
fokus	7229
recimo	7230
priori	7231
prvenstveno	7232
ukoliko	7233
77	7234
u0	7235
##rata	7236
seks	7237
dove	7238
barba	7239
ruje	7240
opće	7241
##_2723	7242
ministarstvu	7243
vidite	7244
kolegi	7245
skladi	7246
kapeta	7247
atmosferu	7248
muzeja	7249
polufinalu	7250
ostavku	7251
mra	7252
##elu	7253
##nički	7254
##vat	7255
nevi	7256
##ley	7257
vinko	7258
listu	7259
##gen	7260
##godišnje	7261
nikako	7262
održana	7263
tekst	7264
studenti	7265
sjevernom	7266
cijeloj	7267
imovine	7268
intervjuu	7269
agresi	7270
220x147	7271
340x227	7272
fru	7273
n1	7274
##tnije	7275
##ir	7276
suigra	7277
##dugo	7278
##stupan	7279
vježba	7280
lei	7281
postaju	7282
dragan	7283
ponovo	7284
dolaska	7285
zaključila	7286
potvrdila	7287
komentarima	7288
svibnju	7289
medalju	7290
ekstrem	7291
prosvjed	7292
uzeti	7293
profesor	7294
razoča	7295
zapovjednik	7296
1920x1080	7297
adi	7298
dv	7299
zve	7300
##rskom	7301
##lnici	7302
##29	7303
jedana	7304
post	7305
##vari	7306
david	7307
domo	7308
##menu	7309
rak	7310
##ljenog	7311
##čicu	7312
japa	7313
gar	7314
glave	7315
roka	7316
europa	7317
optere	7318
istog	7319
nogometu	7320
nastala	7321
ukrajinske	7322
porast	7323
vidjet	7324
središtu	7325
zakonu	7326
bijele	7327
transforma	7328
napredak	7329
skija	7330
sjećanja	7331
talijanski	7332
potpore	7333
ljestvici	7334
1280x16	7335
##814	7336
800	7337
dže	7338
##at	7339
##cro	7340
##{"	7341
kafi	7342
mog	7343
##šica	7344
granica	7345
akciju	7346
tajnik	7347
lokacija	7348
zaštiti	7349
splitski	7350
oboje	7351
sredinom	7352
neuspje	7353
andreja	7354
godišnjaka	7355
480x480	7356
480x61	7357
640x640	7358
640x814	7359
340x340	7360
340x432	7361
sektora	7362
rukometa	7363
tomašević	7364
220x280	7365
220x220	7366
1024x1024	7367
1024x1303	7368
1280x1280	7369
saudi	7370
##_1920	7371
size0	7372
1280x1628	7373
480x611	7374
eska	7375
kle	7376
ubio	7377
maja	7378
##stop	7379
##čana	7380
##sea	7381
dugi	7382
turne	7383
konzerva	7384
krite	7385
prijava	7386
proizvod	7387
nude	7388
italiji	7389
domovinski	7390
državama	7391
goriva	7392
medalja	7393
dresu	7394
turudić	7395
jedanae	7396
##mz	7397
##lt	7398
##lišta	7399
##telju	7400
##torica	7401
proče	7402
moji	7403
viši	7404
ispro	7405
rijeku	7406
počelo	7407
sreću	7408
srećom	7409
poručila	7410
čuti	7411
područjima	7412
##ških	7413
raspolaga	7414
šibenika	7415
okviru	7416
apart	7417
##vrati	7418
##ngu	7419
##tnosti	7420
##phi	7421
##ranom	7422
jelena	7423
##tacije	7424
##nema	7425
##kim	7426
##ziji	7427
njen	7428
##šteni	7429
onako	7430
pojavio	7431
jedinici	7432
slobode	7433
ulicama	7434
srpnju	7435
povećati	7436
studenoga	7437
250	7438
gradovima	7439
zlata	7440
sljedeći	7441
omogućuje	7442
zajednički	7443
bjelo	7444
vatreni	7445
profilu	7446
dužnost	7447
tužitelj	7448
obavješta	7449
egi	7450
ušli	7451
dopu	7452
doslovno	7453
nim	7454
licu	7455
##sona	7456
glavom	7457
službi	7458
državno	7459
naslo	7460
istoj	7461
dvoboj	7462
pogor	7463
slobodu	7464
snimka	7465
sadržaj	7466
##nikom	7467
nerije	7468
izosta	7469
##pix	7470
boli	7471
baviti	7472
euru	7473
title	7474
filo	7475
##ntan	7476
služba	7477
ostalog	7478
morala	7479
ideo	7480
##đivanje	7481
radionice	7482
navijačima	7483
neod	7484
ključni	7485
komentirala	7486
##wid	7487
školama	7488
demokrat	7489
odvjetnika	7490
dokaz	7491
ubojstva	7492
asistencija	7493
influence	7494
68	7495
ps	7496
skre	7497
##ak	7498
##dbi	7499
zago	7500
sufinanci	7501
##leta	7502
prepu	7503
revi	7504
##tuje	7505
mai	7506
jaz	7507
plane	7508
prijeti	7509
##štem	7510
num_	7511
mnogima	7512
kolovo	7513
ekipu	7514
odigrali	7515
direktora	7516
listopadu	7517
kampanju	7518
stadion	7519
spriječiti	7520
##knuti	7521
##dbe	7522
##veni	7523
##vnost	7524
europu	7525
izborni	7526
##vljene	7527
luku	7528
upora	7529
pobjedi	7530
arse	7531
priprem	7532
struje	7533
otok	7534
šoka	7535
unutarnjih	7536
liječnika	7537
slovenije	7538
savršeno	7539
sposobnost	7540
zrakoplov	7541
skrb	7542
meteoro	7543
ega	7544
ore	7545
##rote	7546
##ves	7547
domina	7548
sastoj	7549
vizu	7550
##šice	7551
stanu	7552
multi	7553
plana	7554
samopo	7555
ronal	7556
uzvra	7557
rimac	7558
jedinica	7559
priznanje	7560
zelenski	7561
očekivanja	7562
ponašanja	7563
definira	7564
fakulteta	7565
?"	7566
cvije	7567
imi	7568
kni	7569
##jma	7570
##tirao	7571
##tosti	7572
##database	7573
##zivanje	7574
inva	7575
silo	7576
usli	7577
zagrep	7578
slabo	7579
automat	7580
kreši	7581
trenutka	7582
trenucima	7583
pogotka	7584
subote	7585
dnevni	7586
utjecaja	7587
komunici	7588
dalmacija	7589
sudjelovanje	7590
uputio	7591
zamjenik	7592
izložbe	7593
prosincu	7594
harry	7595
1991	7596
izazvao	7597
cropix	7598
stadiona	7599
##mentima	7600
belgi	7601
##width	7602
aspe	7603
hor	7604
psa	7605
##nter	7606
##bne	7607
##dile	7608
dosto	7609
##goj	7610
privreme	7611
##ziran	7612
##zaciji	7613
##đenom	7614
podrav	7615
sviđa	7616
##trag	7617
dodajući	7618
martina	7619
napade	7620
prometnoj	7621
atleti	7622
nazivom	7623
ubrza	7624
naoru	7625
teritori	7626
##ed	7627
##rat	7628
jede	7629
##rirati	7630
zasigurno	7631
##loškog	7632
golu	7633
##ljenim	7634
##pija	7635
jame	7636
trenira	7637
siroma	7638
prave	7639
ruskog	7640
uklanja	7641
pjesama	7642
zagrebačkoj	7643
##šnjim	7644
pokušati	7645
hladno	7646
vašem	7647
podržava	7648
izdvoji	7649
uređaja	7650
eppo	7651
ist	7652
##šle	7653
##12	7654
popisu	7655
selo	7656
##lor	7657
ner	7658
prikupi	7659
teže	7660
micha	7661
općeni	7662
##vljenje	7663
vrijedan	7664
##žuju	7665
poznate	7666
vojni	7667
smješta	7668
lokalnih	7669
##mpati	7670
neugo	7671
ivota	7672
opreme	7673
najviša	7674
zagrija	7675
95	7676
okon	7677
umo	7678
pop	7679
##tenti	7680
korije	7681
odbor	7682
##nute	7683
mos	7684
dip	7685
predme	7686
dulje	7687
ostatak	7688
ovakav	7689
stotine	7690
šuma	7691
zlatko	7692
djevojke	7693
odlaska	7694
korištenja	7695
veseli	7696
hezbola	7697
eventual	7698
69	7699
78	7700
dvoj	7701
uveli	7702
##rcija	7703
##dnoj	7704
##nat	7705
##čenju	7706
##duje	7707
desni	7708
jedni	7709
znala	7710
play	7711
plavi	7712
odlukom	7713
krei	7714
ideje	7715
poručili	7716
##panj	7717
surad	7718
poteško	7719
organizatori	7720
podijelio	7721
fizički	7722
preuzeti	7723
umro	7724
et	7725
kvi	7726
snijeg	7727
zrak	7728
batu	7729
mjesti	7730
glasi	7731
objavu	7732
postavio	7733
##godišnja	7734
rezultatima	7735
gledatelja	7736
kemi	7737
knjiž	7738
predstavljaju	7739
nadamo	7740
bjelica	7741
oruža	7742
žao	7743
specijali	7744
polufinale	7745
angaž	7746
cor	7747
efe	7748
gvar	7749
##žnju	7750
##nosa	7751
dođu	7752
##lesu	7753
master	7754
##šeno	7755
otpad	7756
196	7757
sol	7758
njihovog	7759
nastavila	7760
ponudi	7761
kontrole	7762
kontrover	7763
supersport	7764
sadržaja	7765
daljnje	7766
troškove	7767
legendarni	7768
težak	7769
eto	7770
uve	7771
##šnog	7772
pobu	7773
zanema	7774
##tović	7775
##ruje	7776
##kinje	7777
pregle	7778
nogu	7779
##gić	7780
ovakve	7781
open	7782
zatvoru	7783
šut	7784
moderni	7785
tranzi	7786
predsjednikom	7787
izazove	7788
parlamentu	7789
željezni	7790
doprinos	7791
prijetnje	7792
omogućiti	7793
lansi	7794
potpredsjednik	7795
ludbre	7796
81	7797
##33	7798
##rajući	7799
naran	7800
donose	7801
izvori	7802
ton	7803
main	7804
nog	7805
boris	7806
najbli	7807
predstava	7808
razreda	7809
robo	7810
policiju	7811
cijelom	7812
lea	7813
sreće	7814
istragu	7815
drama	7816
promjenu	7817
procesa	7818
zaposlenika	7819
pacijenti	7820
sudionika	7821
karakte	7822
inu	7823
krva	7824
uzor	7825
##vcima	7826
##vane	7827
zakla	7828
dorh	7829
nez	7830
privremeno	7831
##čaju	7832
isc	7833
stol	7834
##ciona	7835
stižu	7836
##rtava	7837
milan	7838
vidjela	7839
emisija	7840
upravljao	7841
zadr	7842
turizam	7843
pobjednika	7844
aktualni	7845
grmljavi	7846
##istinu	7847
gvardio	7848
99	7849
eti	7850
opu	7851
ugra	7852
štraj	7853
##48	7854
sugovor	7855
progovo	7856
nom	7857
##šavaju	7858
osca	7859
tram	7860
žesto	7861
nasmija	7862
važne	7863
neočeki	7864
svakoj	7865
ostvarili	7866
travnju	7867
upoznati	7868
turista	7869
vlasnika	7870
konkurent	7871
vodstvom	7872
zavod	7873
postroj	7874
filozo	7875
tla	7876
vrt	7877
##ot	7878
popodne	7879
##redu	7880
prepre	7881
resur	7882
meksi	7883
najdra	7884
konstru	7885
junior	7886
2026	7887
situacijama	7888
osigurava	7889
vratila	7890
izgradnje	7891
direktorica	7892
vezano	7893
razgovarao	7894
doznajemo	7895
##_271947	7896
perišić	7897
standard	7898
nuklear	7899
croatia	7900
uslijed	7901
dh	7902
iv	7903
uv	7904
##au	7905
##jsko	7906
##šći	7907
##xa	7908
navra	7909
##malo	7910
##ding	7911
##nea	7912
proz	7913
najja	7914
stani	7915
ispada	7916
##button	7917
radić	7918
izravno	7919
potrebu	7920
kulturu	7921
iznosila	7922
potencijal	7923
utrka	7924
ravnateljica	7925
dijagnosti	7926
britanski	7927
vukovar	7928
reuters	7929
google	7930
istar	7931
sprje	7932
ute	7933
##kciji	7934
##ppe	7935
##čnici	7936
##lik	7937
##vita	7938
suci	7939
odvo	7940
##zisti	7941
##pova	7942
rečeno	7943
##dov	7944
jadro	7945
baka	7946
glavnom	7947
los	7948
kralj	7949
želju	7950
svojem	7951
radno	7952
##smom	7953
krumpi	7954
atp	7955
otišli	7956
odgovornosti	7957
izraelski	7958
izazovima	7959
novinare	7960
mijenjati	7961
materijala	7962
veljači	7963
rukomet	7964
dovodi	7965
stanovništva	7966
zaljublje	7967
općenito	7968
ška	7969
##,{"	7970
##jum	7971
##danje	7972
##cea	7973
nik	7974
##ntna	7975
kina	7976
suradnja	7977
stranci	7978
posebnu	7979
kampanji	7980
nasilje	7981
.),	7982
parkirali	7983
recept	7984
konkurenciji	7985
william	7986
"},{"	7987
ave	7988
enju	7989
klo	7990
photo	7991
##kru	7992
##pp	7993
##jaka	7994
##zivanja	7995
putni	7996
grama	7997
prste	7998
ham	7999
obraća	8000
prijavu	8001
spaja	8002
važnosti	8003
provode	8004
polako	8005
olimpijskih	8006
ustavnog	8007
prisustvo	8008
sjednici	8009
uzbud	8010
zvoni	8011
hz	8012
udio	8013
uistinu	8014
##pta	8015
##šnih	8016
##kih	8017
prezi	8018
paša	8019
obna	8020
liver	8021
tine	8022
mogući	8023
leđa	8024
studije	8025
radne	8026
upot	8027
svjetskih	8028
većini	8029
učinio	8030
reprezentativ	8031
suprugu	8032
francuskoj	8033
dalmacije	8034
skokova	8035
započela	8036
siječnju	8037
fokusi	8038
površine	8039
križevci	8040
klimat	8041
jakirović	8042
inozemstvu	8043
liverpo	8044
79	8045
nba	8046
smeta	8047
dopušte	8048
kari	8049
tay	8050
bosne	8051
najza	8052
static	8053
logo	8054
trebate	8055
šesto	8056
stil	8057
geno	8058
poslovne	8059
američkih	8060
smjer	8061
stvaranje	8062
zaposlenih	8063
utječe	8064
skrbi	8065
hercegovine	8066
ministrica	8067
es	8068
ekra	8069
skuplja	8070
ud	8071
##ad	8072
##lnica	8073
##plova	8074
##ting	8075
##teran	8076
kože	8077
propu	8078
matija	8079
tata	8080
nina	8081
današnje	8082
traga	8083
izaći	8084
politička	8085
zahvati	8086
poslovni	8087
svjetsko	8088
2013	8089
održat	8090
spekta	8091
podsjetio	8092
italija	8093
financijske	8094
izložba	8095
doživio	8096
industrije	8097
##kluzi	8098
umr	8099
fakultetu	8100
ljestvice	8101
nuklea	8102
koordina	8103
./	8104
opisu	8105
wo	8106
##žom	8107
##ralo	8108
##rona	8109
poje	8110
pomisli	8111
##vidu	8112
##canje	8113
##veno	8114
kale	8115
##njava	8116
češće	8117
##ntne	8118
##plici	8119
radnici	8120
dionica	8121
potreba	8122
kažem	8123
kekin	8124
potvrdili	8125
knjigu	8126
bijeli	8127
pomažu	8128
itemimage	8129
posebna	8130
izbjegli	8131
napominje	8132
rezolu	8133
700	8134
84	8135
sramo	8136
utim	8137
##snoj	8138
poha	8139
##riraju	8140
##vosti	8141
##dim	8142
##kat	8143
remi	8144
lik	8145
najno	8146
stavite	8147
svetog	8148
predje	8149
##djeti	8150
možeš	8151
trbu	8152
časo	8153
smanjuje	8154
člana	8155
2011	8156
osiguranja	8157
zaključuje	8158
vjeruju	8159
tražio	8160
uzeo	8161
tradicionalno	8162
teroristi	8163
uefa	8164
dvd	8165
dhmz	8166
##renju	8167
izvla	8168
primi	8169
malom	8170
niže	8171
##građa	8172
javio	8173
stara	8174
standar	8175
##sobno	8176
ženama	8177
čisto	8178
vjetro	8179
dodatni	8180
anketa	8181
čaro	8182
franjo	8183
zagrebačkog	8184
događanja	8185
vratili	8186
ponegdje	8187
hrvoje	8188
razina	8189
nadalje	8190
ustanova	8191
jeziku	8192
prekida	8193
objavljena	8194
dres	8195
strijel	8196
evaku	8197
ustvrdio	8198
poremeća	8199
kontekstu	8200
ab	8201
nk	8202
ya	8203
##rnom	8204
##nkom	8205
##nit	8206
jesti	8207
##res	8208
sunca	8209
##letje	8210
puti	8211
##ljuje	8212
duha	8213
ruskih	8214
dobrom	8215
potreban	8216
crkvi	8217
hidro	8218
pronašao	8219
pronašla	8220
mnogih	8221
navijače	8222
registar	8223
postići	8224
trgovi	8225
perspekti	8226
jugozapad	8227
živimo	8228
redatelj	8229
neizvje	8230
kapaciteta	8231
jadroli	8232
bdp	8233
eš	8234
jdatabase	8235
onim	8236
ofenzi	8237
đur	8238
##nche	8239
##ćevoj	8240
strp	8241
jabu	8242
pravom	8243
gabri	8244
dodaju	8245
nemate	8246
upravi	8247
radnih	8248
poslovanje	8249
filmova	8250
uvjeta	8251
izjava	8252
ključna	8253
predsjedniku	8254
otvoriti	8255
custo	8256
pacijenata	8257
zrakoplova	8258
lovre	8259
zaustaviti	8260
navrata	8261
bbc	8262
išao	8263
sch	8264
usu	8265
##mske	8266
##znim	8267
##redo	8268
selak	8269
##vene	8270
##ming	8271
najnovi	8272
startu	8273
bari	8274
berna	8275
peter	8276
kongre	8277
dijelovima	8278
hitno	8279
spava	8280
reprezentaciji	8281
lokalnim	8282
novosti	8283
procedu	8284
prosjeku	8285
kamere	8286
mladosti	8287
naselja	8288
hg	8289
ubla	8290
žrtava	8291
##my	8292
##im	8293
##blo	8294
##lici	8295
niza	8296
obnove	8297
inzisti	8298
sig	8299
bara	8300
peto	8301
ostaviti	8302
crna	8303
obale	8304
otkriti	8305
američka	8306
glazbene	8307
kazneni	8308
roditelj	8309
nezako	8310
operacija	8311
stručnjaka	8312
završetka	8313
gubitak	8314
restorana	8315
stvoriti	8316
talenti	8317
rezervi	8318
vukovara	8319
onog	8320
sor	8321
zvje	8322
##vka	8323
##tz	8324
##nis	8325
##laska	8326
##tanja	8327
##vodi	8328
prim	8329
##biji	8330
##dović	8331
prat	8332
autenti	8333
živote	8334
političkih	8335
završava	8336
većine	8337
splitskog	8338
pokušavaju	8339
##mparam	8340
sportskih	8341
izgublje	8342
izvješću	8343
proizvođača	8344
pojasnio	8345
customparam	8346
customparams_	8347
are	8348
ilu	8349
usa	8350
##krati	8351
##sve	8352
##lka	8353
##jmo	8354
##jnog	8355
##18	8356
##vanjima	8357
koe	8358
netan	8359
izva	8360
motiva	8361
##zite	8362
##đenu	8363
kaos	8364
bunde	8365
vrtić	8366
opse	8367
krip	8368
pozitivan	8369
takvi	8370
zračne	8371
povećava	8372
obiteljske	8373
nogometna	8374
nogometaša	8375
nestabi	8376
kupnju	8377
trajati	8378
šansu	8379
prilagod	8380
zaboraviti	8381
zadržati	8382
termi	8383
##ysq	8384
vatrogasaca	8385
reporter	8386
##žo	8387
našli	8388
kave	8389
nena	8390
mirno	8391
javila	8392
javnim	8393
valj	8394
intim	8395
radnog	8396
##plasi	8397
pozitivno	8398
federa	8399
održao	8400
govorili	8401
društvenoj	8402
nastupiti	8403
naglasila	8404
krajnje	8405
skloni	8406
mislio	8407
iznenađenje	8408
izvješće	8409
upoznali	8410
kampanja	8411
izazvala	8412
##yahu	8413
konzuma	8414
antonio	8415
zločina	8416
zaredom	8417
tinejd	8418
twi	8419
##ele	8420
##splay	8421
##tsa	8422
##xel	8423
poro	8424
##laciju	8425
##dimo	8426
priu	8427
prire	8428
obljet	8429
##žavanje	8430
razvije	8431
deba	8432
pile	8433
dubi	8434
znanje	8435
legi	8436
horva	8437
sjeda	8438
tajna	8439
potresa	8440
članice	8441
ključnih	8442
nezabora	8443
izdanju	8444
korisnicima	8445
oznaka	8446
hrvatskoga	8447
spominje	8448
pretpostavlja	8449
sporazum	8450
dalmatinske	8451
contain	8452
netanyahu	8453
svla	8454
tj	8455
##rsku	8456
##es	8457
##zlo	8458
##rek	8459
##vin	8460
done	8461
sugla	8462
predo	8463
pregovara	8464
##bala	8465
meso	8466
kuli	8467
otpa	8468
antu	8469
državu	8470
prvoliga	8471
sudjelova	8472
upozoravaju	8473
posjetitelji	8474
infrastrukturu	8475
prikazuje	8476
praktički	8477
policajci	8478
72	8479
uro	8480
##žnoj	8481
##42	8482
##racija	8483
##remo	8484
zapre	8485
##gović	8486
##povi	8487
reso	8488
milje	8489
pan	8490
##šem	8491
osloba	8492
druk	8493
planove	8494
##har	8495
rijetki	8496
krene	8497
kreću	8498
trenutke	8499
pjesmom	8500
čuva	8501
govorimo	8502
osigurao	8503
karlova	8504
odakle	8505
kaznena	8506
kakvo	8507
kontra	8508
vjerujemo	8509
##ily	8510
zastupnici	8511
generacija	8512
ustanove	8513
maksimir	8514
naziv	8515
##loških	8516
izrazio	8517
upit	8518
visokog	8519
ciljeve	8520
york	8521
zabrinutost	8522
glo	8523
##znih	8524
##ws	8525
##lište	8526
zadnja	8527
suca	8528
##njenim	8529
masa	8530
prlja	8531
##hou	8532
mup	8533
##ficije	8534
fol	8535
srcu	8536
lucija	8537
trg	8538
nastavi	8539
kvaliteta	8540
regija	8541
osjećam	8542
nosila	8543
lopta	8544
rizika	8545
otvaranje	8546
postupku	8547
ožujku	8548
##burgu	8549
inteligencije	8550
tragedija	8551
penava	8552
##kne	8553
##drije	8554
##mon	8555
##šeni	8556
##ston	8557
##pise	8558
livaja	8559
najni	8560
stavio	8561
grand	8562
##ranj	8563
duh	8564
gala	8565
plaću	8566
let	8567
projektima	8568
vozio	8569
brine	8570
sliku	8571
omoguća	8572
kolegama	8573
radove	8574
otvorila	8575
stranaka	8576
chef	8577
prihvatiti	8578
sjeverozapad	8579
ultra	8580
!",	8581
ome	8582
pd	8583
ušla	8584
##nn	8585
##plu	8586
##lian	8587
##tati	8588
zape	8589
seriju	8590
izlaz	8591
primio	8592
točnije	8593
podne	8594
brojem	8595
liječenje	8596
dobrodo	8597
parku	8598
onome	8599
čuo	8600
spasio	8601
lokacije	8602
mladić	8603
mladima	8604
izgubi	8605
upozorenja	8606
odličan	8607
navela	8608
lopte	8609
hotelu	8610
platforma	8611
napredo	8612
prehra	8613
albuma	8614
ciljeva	8615
lokomotive	8616
severina	8617
valjda	8618
ekuje	8619
ice	8620
##_id	8621
##znom	8622
##rale	8623
##taciju	8624
prekri	8625
trag	8626
ženu	8627
spomen	8628
brodu	8629
međusob	8630
##sniji	8631
##štinu	8632
istodobno	8633
##ell	8634
gene	8635
učinak	8636
novak	8637
sportskog	8638
naveli	8639
odigrati	8640
iskori	8641
miješa	8642
prosječna	8643
proračun	8644
##reated	8645
derbiju	8646
relativno	8647
valenti	8648
era	8649
ukaza	8650
##znog	8651
##46	8652
##tilo	8653
##tijeva	8654
daily	8655
promovi	8656
gospi	8657
malim	8658
##čin	8659
paki	8660
##duše	8661
svoga	8662
tuma	8663
glavne	8664
kralja	8665
dodatnih	8666
kristi	8667
##_269	8668
svojevr	8669
ribe	8670
dijele	8671
gradskom	8672
koncertu	8673
sredstvima	8674
najam	8675
vratima	8676
nacionalnih	8677
oporavak	8678
elektra	8679
aktivnostima	8680
predstavnik	8681
sastavu	8682
djelatnika	8683
posjetitelje	8684
##qui	8685
električne	8686
doznaje	8687
sloveniji	8688
reagirao	8689
ulaznica	8690
treninga	8691
nastoja	8692
donalda	8693
najljepši	8694
##_271190	8695
##_271195	8696
dostojan	8697
wol	8698
##int	8699
naji	8700
povolj	8701
supe	8702
##leva	8703
##king	8704
rasko	8705
prebaci	8706
vio	8707
##dor	8708
##ženih	8709
osmije	8710
stavo	8711
bave	8712
prijela	8713
lijepa	8714
zahtijeva	8715
crnoj	8716
snažno	8717
lokalno	8718
pokušaja	8719
natjecanjima	8720
našla	8721
utakmicama	8722
napadača	8723
osuđen	8724
zdravstvenih	8725
predstaviti	8726
bruno	8727
dijagno	8728
socijalne	8729
okoliš	8730
prihvaća	8731
yorku	8732
maksimalno	8733
direktno	8734
kombinira	8735
raspudić	8736
91	8737
apo	8738
cla	8739
dc	8740
oj	8741
snije	8742
##gs	8743
##ranog	8744
kosu	8745
nepra	8746
izgla	8747
miru	8748
jaka	8749
jandro	8750
gara	8751
austrija	8752
vješta	8753
kroni	8754
komercija	8755
##sion	8756
kandidi	8757
informaciju	8758
emocije	8759
nikoga	8760
djelovanja	8761
problemati	8762
sastanka	8763
sjajan	8764
zelene	8765
bjelova	8766
utrci	8767
ravnatelja	8768
međunarodni	8769
brzine	8770
##razumije	8771
komisija	8772
poboljšati	8773
javljaju	8774
dobrih	8775
količine	8776
grija	8777
##rča	8778
##44	8779
napušta	8780
##vost	8781
toki	8782
tabli	8783
vagi	8784
##jednom	8785
baye	8786
debi	8787
podno	8788
objava	8789
cijenama	8790
radilo	8791
gradski	8792
najbolju	8793
umjetne	8794
brže	8795
integra	8796
šalje	8797
održan	8798
izjavu	8799
završili	8800
zabavlja	8801
kvar	8802
izvijestili	8803
individu	8804
subven	8805
dobrim	8806
invalidite	8807
usporedbi	8808
posljednjem	8809
%,	8810
98	8811
opra	8812
##ara	8813
##34	8814
pog	8815
##nau	8816
doduše	8817
kamo	8818
nera	8819
##mene	8820
prevlada	8821
##ganje	8822
vili	8823
mesa	8824
lisi	8825
voća	8826
final	8827
igrala	8828
stranica	8829
ostaju	8830
odnosima	8831
dražen	8832
americi	8833
lokaciji	8834
koncer	8835
osigurali	8836
pokušali	8837
kandidatkinja	8838
vodeći	8839
odgovorila	8840
roditelje	8841
španjolskoj	8842
konačnici	8843
osobni	8844
spremna	8845
bruxel	8846
zadarske	8847
varte	8848
visokim	8849
pravde	8850
dužnosnici	8851
teritorija	8852
preveze	8853
avaju	8854
##klom	8855
##ption	8856
##nijom	8857
pogla	8858
##tari	8859
##tetom	8860
##ljenom	8861
tea	8862
jači	8863
javnih	8864
bakte	8865
duže	8866
stranice	8867
impresi	8868
brojke	8869
politici	8870
jedinice	8871
ponosni	8872
unaprijed	8873
sudjeluju	8874
2009	8875
ugodno	8876
donosimo	8877
sjeverno	8878
poginuli	8879
posjetitelja	8880
branko	8881
##ries	8882
teškim	8883
invaliditetom	8884
ada	8885
rs	8886
##rinu	8887
##viji	8888
dari	8889
sunce	8890
proveli	8891
malu	8892
##pisima	8893
boravak	8894
osnovi	8895
pušta	8896
sveće	8897
bespo	8898
glava	8899
##štava	8900
sportu	8901
##čuna	8902
brata	8903
mjesečno	8904
snazi	8905
zagrebačka	8906
uvjeren	8907
kolod	8908
zakonom	8909
izvršni	8910
domaćina	8911
nedostatak	8912
objavljeno	8913
investicije	8914
oblik	8915
shvatio	8916
izrazito	8917
naknade	8918
zamijeniti	8919
odmora	8920
namirnice	8921
select	8922
..	8923
cvje	8924
##znice	8925
naprijed	8926
kap	8927
##gani	8928
mata	8929
mid	8930
puni	8931
najo	8932
depo	8933
##hol	8934
kupio	8935
krize	8936
stoje	8937
upravnog	8938
guar	8939
aktivnost	8940
provoditi	8941
snimku	8942
potencijalno	8943
konferencije	8944
obveza	8945
itemvideo	8946
ljudska	8947
subca	8948
srušio	8949
destinacija	8950
container	8951
uglji	8952
aleksandar	8953
administra	8954
istri	8955
snje	8956
##znica	8957
##kos	8958
##torima	8959
##daka	8960
##vera	8961
sugrađa	8962
bilja	8963
##kujem	8964
##stica	8965
##mić	8966
##čajan	8967
##đenjem	8968
##final	8969
src	8970
##štini	8971
ideju	8972
proizvodnja	8973
2010	8974
pripremiti	8975
objekata	8976
potvrđuje	8977
nacionalni	8978
supruge	8979
poslali	8980
tražili	8981
najboljeg	8982
povratka	8983
elega	8984
partnerima	8985
sjednice	8986
scenarij	8987
križeva	8988
vodovo	8989
lagano	8990
kontinuirano	8991
međunarodne	8992
isproba	8993
kolovozu	8994
priušti	8995
':	8996
mü	8997
opušte	8998
ugled	8999
##kl	9000
##mble	9001
##nia	9002
danijela	9003
dopusti	9004
suho	9005
masla	9006
##ševi	9007
##ćeve	9008
##ntni	9009
višestru	9010
spoji	9011
##šteno	9012
cilju	9013
stilu	9014
ponosan	9015
takti	9016
njemačku	9017
interna	9018
izjavi	9019
tisuću	9020
nastupio	9021
teret	9022
izgledati	9023
uključuju	9024
##ntent	9025
ozlijeđen	9026
sjeverne	9027
provjeriti	9028
činjenice	9029
sjeveru	9030
poginuo	9031
djelatnici	9032
kontakt	9033
sedmo	9034
donald	9035
molit	9036
youtu	9037
neprijatelj	9038
pretežno	9039
##pularni	9040
karakteristi	9041
82	9042
ojača	9043
swi	9044
##rcu	9045
##vnice	9046
##žja	9047
zamr	9048
nei	9049
##turi	9050
nos	9051
##gura	9052
puna	9053
imalo	9054
bea	9055
petković	9056
pišto	9057
dodavši	9058
autora	9059
horo	9060
europsku	9061
lijepe	9062
poveo	9063
prijaviti	9064
napao	9065
##lniku	9066
smjera	9067
oduvijek	9068
glazbenik	9069
matemati	9070
telegra	9071
opasno	9072
univer	9073
sastanku	9074
zapadne	9075
iskoristio	9076
izdvaja	9077
mišljenja	9078
favorit	9079
korupcije	9080
prehrambe	9081
hrani	9082
uvr	9083
đa	9084
##rgi	9085
nadu	9086
##mera	9087
toplo	9088
##demo	9089
gorice	9090
maru	9091
##zanja	9092
##sezo	9093
bošnja	9094
distri	9095
bud	9096
budite	9097
trau	9098
##strana	9099
akciji	9100
uspjeti	9101
##vilima	9102
teksto	9103
tekstu	9104
pretvara	9105
odgovoriti	9106
republici	9107
promijenio	9108
jugoisto	9109
prepoznati	9110
objavljen	9111
međunarodnog	9112
obveze	9113
napustiti	9114
kreativno	9115
komada	9116
fakultet	9117
studiju	9118
showu	9119
pucao	9120
samopouzda	9121
92	9122
usi	9123
ušte	9124
##52	9125
kose	9126
suspe	9127
nevrijeme	9128
##len	9129
provela	9130
trećeg	9131
##ljko	9132
njena	9133
kratki	9134
jug	9135
naslije	9136
izaziva	9137
postalo	9138
sretna	9139
drže	9140
hero	9141
održavanja	9142
con	9143
pokrenuo	9144
skupinu	9145
vlastitu	9146
podatak	9147
ključne	9148
djelomi	9149
detalja	9150
skupo	9151
dozvole	9152
troškovi	9153
que	9154
datum	9155
stipendi	9156
este	9157
etka	9158
iko	9159
phi	9160
shi	9161
##_the	9162
pouzda	9163
##varati	9164
bizni	9165
prelazi	9166
mono	9167
gost	9168
refor	9169
nosio	9170
##zana	9171
##čavaju	9172
nimalo	9173
metro	9174
varija	9175
puli	9176
##ljivih	9177
razred	9178
dječaka	9179
spon	9180
brodo	9181
šefa	9182
gradska	9183
započi	9184
članovima	9185
svjetska	9186
trud	9187
najavila	9188
visoka	9189
povećanja	9190
odavno	9191
studenom	9192
ostvarila	9193
smisla	9194
odlična	9195
komentar	9196
potrazi	9197
investicija	9198
saborski	9199
odgovaraju	9200
znanstvenici	9201
prilagodi	9202
žrtva	9203
prekršaj	9204
županijskog	9205
zadovolji	9206
diplomat	9207
simbol	9208
flori	9209
ukazuje	9210
najpopularni	9211
##image	9212
iscrp	9213
koeficije	9214
art	9215
otu	9216
štiti	9217
##vko	9218
##lia	9219
poprili	9220
##kore	9221
zagor	9222
##tonu	9223
set	9224
##ljenu	9225
ref	9226
##piju	9227
mega	9228
bolju	9229
##žile	9230
delega	9231
ljublja	9232
jutra	9233
poslovnih	9234
nužno	9235
lokalni	9236
ivanu	9237
blaga	9238
sredine	9239
mateo	9240
ključno	9241
bijelu	9242
optužbe	9243
smiju	9244
bolnica	9245
izgradnja	9246
poduzeća	9247
očekujemo	9248
samim	9249
vlasnici	9250
mirovina	9251
vašeg	9252
sandra	9253
stanovnici	9254
vruće	9255
životinje	9256
pripadnici	9257
platforme	9258
rujevici	9259
mjestimice	9260
;&	9261
orije	9262
umije	9263
##sca	9264
##lski	9265
##tta	9266
##rilo	9267
##govi	9268
##stili	9269
##bacu	9270
##čera	9271
pal	9272
melo	9273
voyo	9274
predra	9275
##rijet	9276
značajan	9277
dječak	9278
spoj	9279
držati	9280
protivnika	9281
##cijska	9282
##cijskom	9283
zahtije	9284
potrebi	9285
gledao	9286
##škim	9287
posjet	9288
sudjeluje	9289
odradio	9290
šok	9291
razum	9292
novinari	9293
izazvati	9294
##berg	9295
procjenjuje	9296
preporučuje	9297
londonu	9298
magistra	9299
psihija	9300
nemoguće	9301
83	9302
ed	9303
tvo	9304
##_o	9305
##49	9306
zavje	9307
dovrše	9308
nenad	9309
princ	9310
mosk	9311
mac	9312
pasa	9313
baštine	9314
##nijem	9315
tuđ	9316
##rtmu	9317
prijelaz	9318
trebale	9319
slavili	9320
odlučiti	9321
povezuje	9322
projektila	9323
slučaja	9324
##đivanja	9325
gledali	9326
zdravstvo	9327
karton	9328
prometnih	9329
2008	9330
poslati	9331
pružiti	9332
izdanja	9333
ozlijeđenih	9334
upoznao	9335
prosjeka	9336
utrku	9337
medicine	9338
industrija	9339
pozornici	9340
internetu	9341
svladao	9342
potaknuti	9343
okrivlje	9344
spektakl	9345
%.	9346
shvaća	9347
tjedno	9348
ugleda	9349
##ine	9350
##zmom	9351
##novu	9352
##mar	9353
##mail	9354
zaje	9355
##kalo	9356
##loška	9357
dortmu	9358
rake	9359
premje	9360
pali	9361
pune	9362
nijem	9363
vještine	9364
cipe	9365
hol	9366
##godišnjeg	9367
videa	9368
integri	9369
her	9370
prostorima	9371
glazba	9372
zone	9373
pretr	9374
istaknuli	9375
slobodan	9376
promjenji	9377
priznati	9378
vozači	9379
demograf	9380
ozbiljne	9381
smijeh	9382
preminula	9383
muzej	9384
simboli	9385
industriji	9386
adria	9387
crijeva	9388
fondova	9389
ilo	9390
oi	9391
uva	9392
ubacio	9393
##zdi	9394
##jete	9395
##ničke	9396
dovolj	9397
kavu	9398
saču	9399
tebe	9400
##stoje	9401
nico	9402
##pila	9403
##ćenih	9404
jasan	9405
##šavanje	9406
fir	9407
jura	9408
audi	9409
tajne	9410
sigurna	9411
zajednici	9412
hibri	9413
dugogodišnji	9414
radionica	9415
osigurala	9416
glazbeni	9417
poslala	9418
napisali	9419
scenu	9420
privatni	9421
medicinske	9422
najvećim	9423
visini	9424
pohvalio	9425
zahvalio	9426
mobitel	9427
najuspje	9428
pravosuđa	9429
đoković	9430
uzrokovati	9431
##tnik	9432
##war	9433
dario	9434
prebi	9435
##žih	9436
vol	9437
inc	9438
##šite	9439
baj	9440
dugu	9441
roman	9442
njime	9443
radnje	9444
poručuje	9445
ljep	9446
reala	9447
programe	9448
mladim	9449
službene	9450
pokrenula	9451
muškarce	9452
inflacije	9453
sudjelovala	9454
turistička	9455
sportaši	9456
snimanja	9457
nastavljaju	9458
dozvola	9459
izmjene	9460
identitet	9461
madrida	9462
darko	9463
atenta	9464
potiče	9465
naoruža	9466
taylor	9467
by	9468
ive	9469
omje	9470
ogro	9471
use	9472
žal	9473
##ić	9474
##690	9475
##tijih	9476
##ninu	9477
zavi	9478
danu	9479
kalo	9480
nebo	9481
##posle	9482
reper	9483
test	9484
##skop	9485
liko	9486
tren	9487
tret	9488
svejedno	9489
simpati	9490
bak	9491
predmeta	9492
poskup	9493
benda	9494
znaš	9495
gallery	9496
glavnih	9497
vjetra	9498
story	9499
izboru	9500
##ventu	9501
postaviti	9502
crkva	9503
raspisa	9504
registra	9505
zauvijek	9506
zauzima	9507
predstave	9508
stjepan	9509
etvrtak	9510
periodu	9511
četvrtfinale	9512
izabran	9513
pogledu	9514
raspolaganju	9515
genoci	9516
ogroman	9517
blue	9518
ht	9519
plin	9520
##tanje	9521
mon	9522
morna	9523
javna	9524
sinj	9525
razmisli	9526
pija	9527
pismo	9528
koncu	9529
zbor	9530
trebati	9531
kirur	9532
##krea	9533
nekome	9534
gledatelji	9535
2006	9536
ozlijedio	9537
zapadu	9538
rasprava	9539
restoran	9540
poklon	9541
ravnote	9542
kriminalističko	9543
princeza	9544
prioritet	9545
dviju	9546
enih	9547
ky	9548
wor	9549
##žnosti	9550
pou	9551
##meni	9552
torci	9553
manja	9554
mil	9555
miši	9556
njegu	9557
bazi	9558
južno	9559
služi	9560
slave	9561
svjestan	9562
izraelu	9563
poznatog	9564
slučajno	9565
krv	9566
sredini	9567
izgubiti	9568
karijera	9569
ponedjeljka	9570
posebnim	9571
srbiju	9572
brzinu	9573
barcelona	9574
najviši	9575
sadrži	9576
logisti	9577
obnovu	9578
pandemije	9579
menadže	9580
distribu	9581
amo	9582
ant	9583
slje	9584
skra	9585
##rizo	9586
zastra	9587
##loškom	9588
sudeći	9589
gora	9590
puc	9591
eur	9592
podrijet	9593
rusiju	9594
bulj	9595
##tnicu	9596
izašli	9597
sou	9598
dijelove	9599
političkog	9600
argu	9601
kulturne	9602
priznaje	9603
španjolski	9604
##sandra	9605
plaćanja	9606
komentirati	9607
stvaraju	9608
news	9609
poginulo	9610
poljoprivrede	9611
prijetnja	9612
opisao	9613
hamasa	9614
tambu	9615
čišćenje	9616
nerijetko	9617
tinejdže	9618
najuspješ	9619
a1	9620
cm	9621
dj	9622
eta	9623
th	9624
##tlja	9625
##dle	9626
##zra	9627
nade	9628
namet	9629
kance	9630
nespo	9631
prešao	9632
prikup	9633
imale	9634
##jednače	9635
najvje	9636
##giju	9637
sini	9638
gađa	9639
rodila	9640
raskri	9641
promjenama	9642
obiteljima	9643
ponuditi	9644
izraelske	9645
mislite	9646
zaustavlja	9647
droge	9648
legendar	9649
liječnik	9650
ljubim	9651
skupštine	9652
večernji	9653
carlo	9654
berlinu	9655
naobla	9656
incidenta	9657
okolnostima	9658
lokomotiva	9659
bilježi	9660
zaroblje	9661
pdv	9662
):	9663
h_271	9664
ivanja	9665
k_271	9666
mba	9667
o_271	9668
opušta	9669
šti	9670
pope	9671
##ricu	9672
zar	9673
zali	9674
##kan	9675
modu	9676
##zivati	9677
releva	9678
##čevi	9679
##set	9680
vašu	9681
bene	9682
ruska	9683
loša	9684
juga	9685
joško	9686
vrstu	9687
mladen	9688
pozivaju	9689
istim	9690
vodili	9691
zdravlju	9692
najavljuje	9693
automobilom	9694
podupi	9695
vladaju	9696
pp_271	9697
pjevač	9698
djevojčica	9699
##logija	9700
bruto	9701
brenda	9702
uvođenje	9703
mađarska	9704
rasprave	9705
konzumi	9706
skrom	9707
tiktoku	9708
jeseni	9709
suvereni	9710
##_26996	9711
ac	9712
umu	9713
##jnim	9714
##šnim	9715
##22	9716
##wn	9717
##jala	9718
dale	9719
mojoj	9720
tole	9721
##šene	9722
##čavanje	9723
bogu	9724
jaku	9725
start	9726
stakle	9727
svemir	9728
kule	9729
pix	9730
kratkom	9731
##hati	9732
opcije	9733
državnih	9734
nekoj	9735
domaćem	9736
slučajevima	9737
spada	9738
pokušaju	9739
priznanja	9740
trgovina	9741
dnevna	9742
djelovanje	9743
osobne	9744
izazova	9745
vezane	9746
bruta	9747
premium	9748
donijeli	9749
prekid	9750
provjere	9751
podržati	9752
sportaša	9753
kolum	9754
popularni	9755
sudionici	9756
identifici	9757
televiziji	9758
starog	9759
dominira	9760
spominja	9761
dizajn	9762
crnogor	9763
adekva	9764
uzastop	9765
youtube	9766
dla	9767
franje	9768
ivi	9769
##pzi	9770
zale	9771
doho	9772
odšte	9773
samu	9774
##politi	9775
pasti	9776
##čare	9777
##pisom	9778
metra	9779
##zori	9780
granicu	9781
tipa	9782
duži	9783
juna	9784
strahu	9785
međusobno	9786
sobe	9787
dvaput	9788
idem	9789
škot	9790
osjetlji	9791
ivani	9792
imenom	9793
grbin	9794
otvoreni	9795
instituta	9796
objasniti	9797
west	9798
doživjela	9799
umjetnika	9800
sektor	9801
koalicije	9802
gužve	9803
samoupra	9804
centimetara	9805
onu	9806
uniji	9807
##lilo	9808
suđenje	9809
reka	9810
pane	9811
##sel	9812
##berne	9813
divlja	9814
prijenos	9815
han	9816
svježe	9817
##cijskim	9818
svijesti	9819
najveću	9820
automobilu	9821
neutra	9822
eliza	9823
funkciju	9824
upoznala	9825
prirodi	9826
modrića	9827
svjedoči	9828
vatrenih	9829
činjenicu	9830
alkohol	9831
inicijativu	9832
visokih	9833
potpora	9834
otkaz	9835
transparent	9836
leipzi	9837
emu	9838
fla	9839
##kvu	9840
##nciji	9841
##prva	9842
##ira	9843
##xi	9844
koka	9845
##tore	9846
danije	9847
dovr	9848
dostupan	9849
bisku	9850
sate	9851
primili	9852
moju	9853
govora	9854
miche	9855
##size	9856
##sell	9857
imaš	9858
von	9859
inženje	9860
dize	9861
stanice	9862
dekla	9863
podrazumije	9864
vrijeđa	9865
dobrog	9866
prijateljica	9867
##sjeda	9868
potres	9869
poručuju	9870
istinu	9871
drve	9872
članove	9873
##promi	9874
zoni	9875
gospodin	9876
kaznenih	9877
najboljim	9878
okruženju	9879
suočava	9880
shvatiti	9881
zvuk	9882
završnici	9883
kvalifikacija	9884
recep	9885
daniel	9886
itd	9887
ocijenio	9888
sergej	9889
aso	9890
##11	9891
##nine	9892
##lera	9893
biza	9894
##stalom	9895
rasti	9896
prezenta	9897
toli	9898
##pati	9899
##ček	9900
##zaka	9901
category	9902
##želj	9903
staze	9904
pića	9905
pisao	9906
lana	9907
##cijsku	9908
gradskoj	9909
njezini	9910
američkim	9911
full	9912
osjećaju	9913
odrasta	9914
odrasli	9915
nikome	9916
izgledalo	9917
poljske	9918
ivotu	9919
oprema	9920
tomislava	9921
talent	9922
svrhu	9923
autocesti	9924
salz	9925
desetljećima	9926
pozornicu	9927
mozga	9928
neslužbeno	9929
.-	9930
aku	9931
sra	9932
utor	9933
user	9934
##sco	9935
zači	9936
dama	9937
salo	9938
##pana	9939
mela	9940
bad	9941
duge	9942
##height	9943
kini	9944
lega	9945
faze	9946
rit	9947
svjetla	9948
buduće	9949
pogodaka	9950
##colum	9951
sloboda	9952
tereta	9953
poluvremena	9954
nikolina	9955
sdss	9956
izvješća	9957
korisnik	9958
željeli	9959
engleski	9960
ovakvim	9961
klubovi	9962
zanimljiv	9963
jugoslavije	9964
##naest	9965
ovjek	9966
itemrelated	9967
george	9968
?!	9969
ivanje	9970
tvari	9971
zbu	9972
##uro	9973
##ffe	9974
jesen	9975
##renti	9976
senior	9977
##cao	9978
##ruju	9979
##media	9980
pristi	9981
##stila	9982
##bac	9983
miris	9984
mel	9985
bosi	9986
graditi	9987
del	9988
dečki	9989
jor	9990
##sova	9991
muzi	9992
ovogodišnji	9993
lou	9994
svašta	9995
kiberne	9996
195	9997
cibo	9998
horizo	9999
