<unk>	0
<s>	0
</s>	0
a	-3.32401
e	-3.70909
i	-3.88108
▁je	-3.88372
o	-3.90257
▁u	-3.91064
▁i	-3.91096
u	-4.03471
,	-4.15984
.	-4.26401
▁,	-4.31623
▁na	-4.49824
▁.	-4.58578
▁se	-4.81078
;	-4.82452
▁da	-4.89469
▁za	-4.89545
▁s	-4.90326
on	-5.00821
▁a	-5.00976
m	-5.04847
▁su	-5.08543
om	-5.11951
ti	-5.12203
d	-5.13856
&	-5.15775
li	-5.19477
▁	-5.26652
la	-5.28678
t	-5.32541
▁od	-5.36703
s	-5.41766
▁ne	-5.42755
▁o	-5.47703
g	-5.47977
ca	-5.55919
ih	-5.60792
je	-5.65648
▁po	-5.67921
▁"	-5.69671
k	-5.73843
▁iz	-5.73919
im	-5.74505
ma	-5.77005
ni	-5.82898
ccar	-5.83423
▁-	-5.86308
na	-5.89148
š	-5.89986
og	-5.91054
r	-5.91579
▁koji	-5.92498
▁do	-5.92604
ju	-5.95323
▁će	-6.00543
▁to	-6.00909
ka	-6.02362
cute	-6.0291
▁te	-6.05504
oj	-6.05681
ra	-6.07326
no	-6.08469
ne	-6.08955
▁što	-6.09458
-	-6.10161
st	-6.10345
▁&	-6.12548
j	-6.14541
▁U	-6.1726
▁S	-6.17915
te	-6.18425
▁m	-6.22677
z	-6.22819
h	-6.22923
▁bi	-6.22944
lo	-6.25947
n	-6.26549
va	-6.28839
zcar	-6.30601
▁koj	-6.30618
p	-6.37674
▁kako	-6.39438
le	-6.4069
nja	-6.42748
ci	-6.43435
▁nije	-6.4993
l	-6.50682
nje	-6.51855
▁sam	-6.51962
ja	-6.52197
en	-6.52331
▁ni	-6.54297
an	-6.54702
mo	-6.56102
ima	-6.56541
▁kao	-6.60347
v	-6.60392
▁ali	-6.6103
▁'	-6.61412
▁:	-6.62282
▁pa	-6.63303
ko	-6.63873
▁li	-6.65257
c	-6.65952
ta	-6.66576
▁A	-6.68504
▁pri	-6.73327
▁I	-6.73703
č	-6.7383
ć	-6.75844
▁sve	-6.76526
▁(	-6.77528
▁godine	-6.77656
nu	-6.78405
▁",	-6.79283
ž	-6.80185
▁K	-6.82851
ke	-6.82927
da	-6.83536
▁koje	-6.83919
ku	-6.83976
▁smo	-6.84834
▁biti	-6.8621
ve	-6.86993
▁svoj	-6.88422
iti	-6.89475
y	-6.89585
▁P	-6.90711
:	-6.91422
▁ima	-6.92054
▁Na	-6.92175
vi	-6.93005
▁t	-6.9314
▁g	-6.93603
▁ma	-6.93807
▁nakon	-6.94454
▁sa	-6.96192
ći	-6.96349
▁pre	-6.97281
▁više	-6.98868
▁h	-7.03609
▁mi	-7.04504
ri	-7.04548
▁ili	-7.04963
▁pro	-7.06929
▁ga	-7.08519
er	-7.08667
▁bio	-7.08822
▁C	-7.08979
f	-7.09359
re	-7.09483
▁samo	-7.10823
▁e	-7.11718
▁uz	-7.1415
bi	-7.15031
▁već	-7.15702
▁ja	-7.16166
▁pod	-7.16867
em	-7.1717
▁još	-7.17337
zi	-7.17433
)	-7.18268
▁O	-7.18834
▁Po	-7.22054
▁rekao	-7.22751
▁jer	-7.23513
pa	-7.2371
▁prije	-7.24562
ar	-7.25775
ica	-7.26382
▁zbog	-7.26806
▁no	-7.27501
▁ka	-7.27851
in	-7.28829
ost	-7.30016
ov	-7.30138
▁?	-7.30173
▁H	-7.30198
ba	-7.30548
▁Za	-7.31337
b	-7.31508
ce	-7.31651
▁može	-7.31661
▁ko	-7.32719
0	-7.33273
▁kr	-7.33281
▁G	-7.33417
ova	-7.33533
▁mu	-7.3391
ama	-7.33968
sti	-7.34507
▁bilo	-7.34843
▁mo	-7.36029
lja	-7.36097
▁Ne	-7.36784
al	-7.37325
lu	-7.37346
▁z	-7.37479
▁M	-7.37835
ski	-7.3857
▁godina	-7.38763
že	-7.39616
A	-7.40111
▁š	-7.40403
ro	-7.4172
▁re	-7.41783
lje	-7.41939
strok	-7.42534
ak	-7.4328
▁D	-7.43344
▁eura	-7.43494
▁tako	-7.43858
či	-7.44384
ić	-7.44498
nih	-7.44601
▁dok	-7.44686
za	-7.45305
1	-7.45369
▁To	-7.45824
▁treba	-7.4635
S	-7.47937
▁ob	-7.49847
▁bila	-7.50753
ira	-7.50847
"	-7.50874
▁k	-7.5163
če	-7.51929
▁V	-7.52023
ila	-7.52182
▁me	-7.52235
▁tri	-7.52407
2	-7.53253
▁ih	-7.53302
▁ju	-7.53867
nim	-7.5428
▁njegov	-7.55215
I	-7.55447
▁F	-7.56025
▁E	-7.56428
▁protiv	-7.56428
▁dana	-7.56442
▁kada	-7.56478
O	-7.56593
nik	-7.57609
▁om	-7.58033
ži	-7.58599
5	-7.59314
ča	-7.59419
▁oko	-7.59569
▁Š	-7.59728
nog	-7.59879
ije	-7.60049
ru	-7.60888
ice	-7.6101
▁radi	-7.61122
▁pred	-7.61649
▁tu	-7.61915
▁d	-7.62434
▁raz	-7.62789
▁naj	-7.63171
▁prema	-7.63858
▁put	-7.64611
▁ti	-7.64748
▁posto	-7.65226
ovi	-7.66064
▁on	-7.66353
▁bez	-7.67052
▁mogu	-7.67505
P	-7.67686
▁kad	-7.6769
▁Ma	-7.68012
iji	-7.68226
▁!	-7.68342
ija	-7.68739
ili	-7.68815
vo	-7.6891
▁zna	-7.69336
tko	-7.69432
or	-7.69586
▁nam	-7.706
▁c	-7.70687
▁jedan	-7.71108
lj	-7.7118
N	-7.71279
cija	-7.71427
▁19	-7.71858
▁dva	-7.72032
3	-7.72311
ća	-7.72542
▁...	-7.72865
▁Z	-7.73073
▁de	-7.73295
C	-7.73395
▁njihov	-7.73415
▁svoje	-7.73552
▁nas	-7.74526
vu	-7.7453
▁dr	-7.74767
6	-7.74851
nju	-7.74995
▁ove	-7.75068
▁naš	-7.75112
▁igra	-7.75115
▁4	-7.75908
▁gdje	-7.76404
po	-7.76438
kom	-7.76563
▁nego	-7.77437
to	-7.77463
nici	-7.77594
▁6	-7.77637
▁Do	-7.77933
9	-7.78017
dr	-7.78147
be	-7.78187
▁im	-7.78378
▁ljudi	-7.78576
ki	-7.78998
7	-7.79388
▁vi	-7.80123
ljen	-7.8035
il	-7.80537
4	-7.80762
aj	-7.80923
it	-7.81115
▁".	-7.8165
▁ta	-7.82448
8	-7.82856
▁5	-7.83229
nom	-7.83233
▁mora	-7.83498
▁broj	-7.83597
▁T	-7.84342
▁nisu	-7.84613
ina	-7.85092
▁la	-7.85122
▁toga	-7.85173
av	-7.8523
▁nema	-7.858
ze	-7.86908
T	-7.86989
ska	-7.87043
et	-7.87251
▁j	-7.87278
▁Mi	-7.87487
▁sada	-7.8779
▁n	-7.88002
▁vrijeme	-7.88056
▁rad	-7.88291
E	-7.88319
el	-7.89149
▁prvi	-7.89993
koliko	-7.90834
ove	-7.9107
šta	-7.91553
▁pet	-7.91556
red	-7.9159
▁taj	-7.92528
si	-7.92701
D	-7.9293
w	-7.93375
▁No	-7.9385
br	-7.93996
▁ve	-7.94185
▁st	-7.94741
▁svi	-7.95849
str	-7.95996
cu	-7.96101
▁dobro	-7.96217
▁7	-7.96563
voj	-7.96713
▁ovo	-7.96725
vijek	-7.96763
▁Sa	-7.96786
up	-7.96827
▁Da	-7.96914
nji	-7.97028
ol	-7.97032
vanje	-7.97276
▁ako	-7.97281
ks	-7.973
▁20	-7.97419
▁č	-7.97439
▁kod	-7.97451
osti	-7.97576
▁velik	-7.98769
ša	-7.99605
▁tijek	-7.99796
ava	-7.9989
▁mogl	-8.00572
bu	-8.00977
ako	-8.01
▁Iz	-8.01198
▁p	-8.01707
▁ov	-8.02021
ur	-8.0232
M	-8.0291
▁Od	-8.03135
▁10	-8.03242
▁va	-8.03404
nica	-8.03724
cije	-8.04079
▁/	-8.04486
ljiv	-8.04623
▁danas	-8.04822
ran	-8.0489
K	-8.0616
'	-8.06391
vod	-8.06627
▁le	-8.07171
sko	-8.07204
tra	-8.07457
▁bili	-8.07694
▁Mar	-8.07813
ske	-8.07933
▁di	-8.08409
uje	-8.08968
▁Pa	-8.09028
▁ste	-8.09042
▁f	-8.09089
▁sati	-8.0964
▁1	-8.09913
put	-8.10085
▁kaže	-8.10277
▁ku	-8.10462
▁Ja	-8.10824
ac	-8.11135
▁Re	-8.11318
▁N	-8.11484
▁Hrvatske	-8.11639
▁Li	-8.11756
▁8	-8.1195
▁B	-8.12012
ch	-8.1224
▁puno	-8.12276
▁Nak	-8.12308
R	-8.12409
ović	-8.12569
▁Ba	-8.12572
tor	-8.12622
▁r	-8.12764
▁kup	-8.13039
nt	-8.13332
▁dio	-8.13449
▁kojem	-8.13529
▁nešto	-8.13586
B	-8.1362
▁grad	-8.1397
▁Č	-8.14064
▁tome	-8.14651
▁novi	-8.14751
▁Br	-8.15198
tak	-8.15407
▁W	-8.15668
nije	-8.16002
rije	-8.16088
eg	-8.16413
▁Hrvatskoj	-8.16749
ine	-8.17045
▁v	-8.17174
▁Ka	-8.17913
▁malo	-8.17938
▁prošl	-8.18686
ža	-8.18715
pi	-8.18717
▁dvije	-8.18929
is	-8.18985
▁Kr	-8.19293
▁odnos	-8.19846
đen	-8.19911
ir	-8.20734
ter	-8.20754
▁ra	-8.20925
▁Me	-8.21033
▁dan	-8.21118
▁15	-8.21162
▁predsjednik	-8.21307
x	-8.22065
đa	-8.22283
rt	-8.2302
▁Ra	-8.23241
▁vam	-8.23354
▁njezin	-8.23656
čić	-8.23664
▁tr	-8.2395
V	-8.2414
▁9	-8.24251
▁ba	-8.2455
▁život	-8.24588
▁pla	-8.25136
▁)	-8.2523
cima	-8.2524
iran	-8.25371
vr	-8.25497
▁milijuna	-8.25563
▁ru	-8.25863
▁način	-8.26038
▁lo	-8.26367
pe	-8.26378
▁Pri	-8.26393
prav	-8.26583
vanja	-8.27018
U	-8.27049
▁La	-8.27113
▁bo	-8.27211
▁gol	-8.27404
es	-8.27897
▁govori	-8.27976
sp	-8.28131
▁isp	-8.28223
ck	-8.28316
▁projekt	-8.28732
▁rekla	-8.2875
▁St	-8.28934
ković	-8.29125
▁Pro	-8.29276
među	-8.29399
▁ova	-8.29581
00	-8.29852
▁proizvod	-8.29901
nost	-8.30029
▁neće	-8.30185
▁Gr	-8.30358
▁Ro	-8.30445
▁ot	-8.30513
▁op	-8.31024
▁rezultat	-8.31498
▁imaju	-8.31606
▁dalje	-8.31617
ob	-8.32336
ut	-8.32567
lju	-8.32715
▁onda	-8.32832
▁Hrvatska	-8.3286
▁Bo	-8.3289
▁nov	-8.33067
nika	-8.33512
▁Ko	-8.33517
▁kon	-8.336
▁problem	-8.33991
▁2	-8.34083
▁poznat	-8.34099
▁javn	-8.34189
kl	-8.34291
▁par	-8.34509
log	-8.34668
▁Mo	-8.3497
▁jako	-8.35174
▁klub	-8.35379
▁12	-8.35459
▁Ivan	-8.35606
▁nje	-8.36058
men	-8.36085
▁čak	-8.3615
št	-8.36195
▁Al	-8.36282
▁joj	-8.36607
▁str	-8.36912
▁njih	-8.3762
▁osta	-8.37648
čan	-8.37656
▁ćemo	-8.37987
ovima	-8.38088
▁nad	-8.38369
▁vrl	-8.38777
▁Sve	-8.3898
/	-8.38996
▁vo	-8.39056
ću	-8.3908
▁cijel	-8.39082
▁Le	-8.3919
▁L	-8.39234
▁Europsk	-8.39696
▁3	-8.39916
▁Tr	-8.39968
vaj	-8.40498
▁isto	-8.40547
▁oni	-8.40587
▁pi	-8.40764
▁nek	-8.40817
▁program	-8.40874
vati	-8.41056
kroz	-8.41621
▁On	-8.41802
▁Bu	-8.42003
▁drugi	-8.42217
▁ž	-8.42298
ciju	-8.42445
van	-8.42482
lji	-8.42536
▁ovog	-8.42619
▁ostal	-8.42664
▁Kad	-8.42748
las	-8.4285
man	-8.4299
▁br	-8.43195
▁Kak	-8.43245
čen	-8.43594
▁mjesto	-8.43619
akođer	-8.43693
▁bit	-8.43807
tar	-8.43871
▁R	-8.44297
ing	-8.44314
▁pu	-8.44343
▁vodi	-8.44366
pis	-8.44741
▁11	-8.44783
skog	-8.44962
▁jedna	-8.44973
▁tim	-8.45048
▁De	-8.45171
jte	-8.4545
▁igrač	-8.45833
nice	-8.4586
var	-8.46168
sam	-8.46569
bor	-8.46623
pre	-8.46795
▁rast	-8.46797
mir	-8.46852
us	-8.46948
▁osoba	-8.47146
L	-8.47162
iz	-8.47251
čar	-8.47365
telj	-8.47408
▁jednom	-8.4763
▁kojim	-8.47688
jući	-8.47715
đe	-8.47769
",	-8.47855
inu	-8.47993
▁ona	-8.47998
▁tra	-8.48193
▁lu	-8.48505
vlja	-8.48527
▁moj	-8.48746
▁trener	-8.48844
▁),	-8.48902
ng	-8.49014
▁film	-8.49214
met	-8.49221
▁koliko	-8.49254
▁fa	-8.49265
▁Ž	-8.49418
▁ci	-8.49508
▁Dinamo	-8.49656
▁nu	-8.49865
▁Vi	-8.49871
▁glas	-8.49969
op	-8.5003
▁puta	-8.50142
▁preko	-8.50318
sku	-8.50358
ite	-8.50378
▁tom	-8.50404
šte	-8.50531
▁in	-8.50582
▁društven	-8.50696
▁takv	-8.50744
▁prostor	-8.50786
▁18	-8.50804
▁europsk	-8.50983
▁četiri	-8.51039
▁gotov	-8.51173
▁druge	-8.51365
ista	-8.51584
▁neki	-8.51725
▁utakmice	-8.51844
nk	-8.5185
skom	-8.51902
▁30	-8.52106
▁čest	-8.52543
isti	-8.52691
▁kom	-8.5274
stvo	-8.52863
G	-8.53033
ziv	-8.53128
▁gleda	-8.53149
▁stran	-8.53315
vor	-8.53483
▁star	-8.53499
jen	-8.5354
▁be	-8.53746
sni	-8.53764
▁0	-8.53764
Z	-8.53772
▁među	-8.5391
▁Bi	-8.5423
▁objavi	-8.54371
▁manje	-8.54624
▁piše	-8.5508
▁Nov	-8.5547
▁obzir	-8.56027
▁cilj	-8.56152
iv	-8.56262
▁ovom	-8.56272
▁šest	-8.56277
▁oba	-8.56686
▁l	-8.56731
bo	-8.56785
▁Ob	-8.56793
mjer	-8.56876
▁pra	-8.56967
▁dobr	-8.56992
▁13	-8.5771
▁Te	-8.57734
▁plan	-8.57893
▁sezone	-8.58253
đ	-8.58381
▁zaštit	-8.58525
▁ide	-8.58723
▁HDZ	-8.58869
▁gr	-8.59155
▁pe	-8.59312
%	-8.5975
▁riječ	-8.59944
▁list	-8.5995
šao	-8.60128
▁pos	-8.60141
▁poče	-8.60172
din	-8.60194
▁hrvatsk	-8.60252
šić	-8.60261
▁obitelji	-8.60263
▁Os	-8.60773
čki	-8.61124
▁stan	-8.61408
▁vremena	-8.61484
ll	-8.61594
rija	-8.6161
gor	-8.62169
smo	-8.62206
▁kojeg	-8.62387
▁strane	-8.62729
▁Ni	-8.62894
rad	-8.63132
▁EU	-8.6316
▁državn	-8.63301
uju	-8.63547
▁vas	-8.63878
▁Je	-8.64044
▁17	-8.64131
▁',	-8.64653
vrš	-8.64863
▁odgovor	-8.64921
▁dijel	-8.65391
tan	-8.65452
▁Prv	-8.65598
▁tek	-8.65693
▁sad	-8.6574
▁b	-8.65744
▁Ak	-8.65877
▁svih	-8.65908
▁Jo	-8.66161
▁tada	-8.66179
▁mjesta	-8.66258
▁proda	-8.66279
▁prijatelj	-8.66288
vjer	-8.66581
udi	-8.6688
▁njega	-8.66892
▁svak	-8.66998
dje	-8.67011
▁Di	-8.67048
▁gra	-8.67083
▁ču	-8.67182
▁ri	-8.67506
▁automobil	-8.67544
▁200	-8.67564
▁Pre	-8.67565
skih	-8.67611
▁posebno	-8.67731
▁kazao	-8.67832
vši	-8.68093
▁kraju	-8.68381
niji	-8.68492
▁hrvatski	-8.68647
▁Dr	-8.68671
▁promet	-8.68682
▁posljednj	-8.68694
F	-8.69139
▁pres	-8.69597
▁imati	-8.69629
▁političk	-8.69697
kov	-8.69801
▁Hajduk	-8.69814
▁visok	-8.70227
▁bude	-8.70234
jan	-8.70303
▁moga	-8.7035
▁16	-8.70537
▁Ta	-8.70542
čno	-8.70727
▁ono	-8.70846
▁Split	-8.70961
▁14	-8.7107
vije	-8.71231
▁pravo	-8.71238
▁stvar	-8.71257
▁2024.	-8.71508
▁istaknu	-8.71565
▁Ri	-8.71594
▁prilik	-8.71596
J	-8.71766
▁imao	-8.71781
▁kandidat	-8.71832
zor	-8.71895
▁Prem	-8.72287
▁nastup	-8.72444
▁Zagrebu	-8.72663
▁vr	-8.72689
▁teško	-8.72725
▁svom	-8.72735
lan	-8.72859
tvor	-8.72919
▁otvoren	-8.73043
per	-8.73196
ver	-8.73455
ent	-8.7391
nj	-8.73997
▁napad	-8.74532
▁smatra	-8.74566
▁Be	-8.74577
▁njima	-8.75004
▁želi	-8.75135
▁bu	-8.75153
▁doma	-8.75177
▁godinu	-8.75217
▁pjesm	-8.75265
▁osigura	-8.7562
▁susret	-8.75878
▁rasp	-8.75975
▁nog	-8.76081
▁sustav	-8.76203
žava	-8.76484
por	-8.76635
▁Ha	-8.77161
▁čeka	-8.77284
▁razvoj	-8.77341
▁premijer	-8.77483
ita	-8.77654
▁informacij	-8.77665
▁prav	-8.77767
▁ras	-8.77919
▁predstav	-8.77928
▁25	-8.77994
▁Ovo	-8.7816
jav	-8.78352
mer	-8.78408
]	-8.78541
▁sud	-8.78608
▁pomoć	-8.78622
▁baš	-8.78674
dio	-8.78682
▁ništa	-8.78964
H	-8.79063
▁veliki	-8.79088
▁isti	-8.79198
bl	-8.79358
▁rat	-8.7944
ss	-8.7951
▁Pet	-8.79643
lić	-8.79691
▁pitanje	-8.79729
▁mnogi	-8.79743
▁ki	-8.79819
▁stvari	-8.7984
fi	-8.79888
▁Lo	-8.80013
▁rusk	-8.80052
un	-8.80064
▁mjestu	-8.80189
▁utakmica	-8.80444
tal	-8.80506
▁ro	-8.80541
▁drža	-8.80652
▁nju	-8.80654
▁ski	-8.80664
▁zadnj	-8.80745
▁svjetsk	-8.81157
▁naše	-8.81229
▁24	-8.81244
▁Što	-8.81256
▁posla	-8.81267
▁Ve	-8.81373
jev	-8.81433
▁Is	-8.81493
▁udar	-8.81541
noj	-8.81569
▁Ali	-8.81654
grad	-8.82032
▁prvo	-8.82034
▁suprug	-8.82123
▁kraj	-8.82417
▁partner	-8.8245
▁skup	-8.82611
čke	-8.82642
▁ran	-8.83198
▁Ru	-8.83208
▁osvoji	-8.83307
▁gor	-8.8334
▁Pe	-8.83443
mah	-8.83761
▁svim	-8.83907
▁jedn	-8.84276
▁prizna	-8.84301
▁čini	-8.84315
▁potreb	-8.84899
▁deset	-8.84911
▁bolje	-8.85144
▁=>	-8.85165
▁stav	-8.85224
▁američk	-8.85367
▁Milanović	-8.85447
tri	-8.85516
pl	-8.85526
▁sin	-8.85605
▁VIDEO	-8.85636
▁Ju	-8.85732
▁poziv	-8.8583
▁sebe	-8.85929
th	-8.86034
▁vidi	-8.86211
nski	-8.86369
▁napravi	-8.86415
šten	-8.86431
▁kakv	-8.86509
vez	-8.86538
ul	-8.86553
ic	-8.86668
▁zakon	-8.86695
▁priča	-8.86776
▁slučaj	-8.86867
itelj	-8.86935
ren	-8.86941
hr	-8.86999
▁Uz	-8.87051
▁minuti	-8.87137
▁najveć	-8.87183
▁potpuno	-8.87403
▁nove	-8.87417
zu	-8.87456
▁Gor	-8.87467
enje	-8.8776
▁izgleda	-8.88058
▁Zagreb	-8.88062
▁Plenković	-8.88435
▁dom	-8.88483
▁temelj	-8.88515
▁Lu	-8.88847
▁An	-8.88878
ns	-8.88993
stan	-8.89133
▁Varaždin	-8.89235
sk	-8.89295
▁svog	-8.89587
▁Ov	-8.89641
▁upravo	-8.9015
▁član	-8.90359
▁21	-8.90516
▁vozila	-8.90587
▁ljubav	-8.90707
▁račun	-8.90757
hvat	-8.9085
▁prve	-8.91111
▁znači	-8.91118
▁nosi	-8.9119
▁bih	-8.91245
▁minuta	-8.91328
▁dobio	-8.91481
▁novinar	-8.91492
▁Trump	-8.91541
skoj	-8.91572
▁J	-8.91592
▁50	-8.91633
▁dodao	-8.91734
lar	-8.91939
der	-8.92091
▁ću	-8.92129
▁svijetu	-8.92145
▁Op	-8.92364
▁roditelj	-8.92409
▁em	-8.92415
▁Su	-8.92456
ini	-8.92491
▁kor	-8.92509
▁kraja	-8.92616
rić	-8.92642
▁događaj	-8.92857
▁lj	-8.92992
▁možda	-8.93055
čni	-8.93171
▁pita	-8.9327
▁znam	-8.93334
▁vode	-8.93528
▁djece	-8.93533
▁Du	-8.93729
▁većin	-8.93757
fer	-8.93856
let	-8.94031
▁Nije	-8.94105
▁jedno	-8.94149
▁lokaln	-8.94151
▁Dan	-8.94351
▁traži	-8.94401
▁imali	-8.94506
▁niz	-8.94526
▁[	-8.94609
▁postav	-8.94617
ret	-8.94635
▁Ar	-8.94919
▁če	-8.94941
▁osobn	-8.9511
▁nalazi	-8.9529
dan	-8.95302
▁priprem	-8.95393
▁one	-8.95488
nos	-8.9554
god	-8.95545
▁ponovno	-8.95636
▁ipak	-8.95983
gan	-8.962
▁Ima	-8.96202
ven	-8.96434
▁zajedno	-8.96522
▁pokaza	-8.9655
▁istra	-8.96666
▁radn	-8.9693
▁glavn	-8.9701
val	-8.97062
▁jednog	-8.9712
▁prvaka	-8.97179
▁brojn	-8.97399
evi	-8.97435
▁predsjednika	-8.9751
▁Grad	-8.97535
lin	-8.97539
lazak	-8.97683
▁tisuća	-8.97701
▁predstavlja	-8.97961
▁kasnije	-8.98122
▁Rad	-8.98135
▁života	-8.98215
▁ugovor	-8.98658
▁kaznen	-8.98725
▁mjeseci	-8.98848
▁sko	-8.99051
▁završi	-8.9917
lov	-8.99228
▁pret	-8.99269
▁koristi	-8.99314
▁).	-8.99335
▁djelo	-8.99426
▁slu	-8.99518
icu	-8.99795
▁imam	-9.00068
▁sva	-9.00071
▁dolazi	-9.00137
san	-9.00147
▁Kon	-9.00273
ner	-9.00315
▁utakmicu	-9.00518
▁području	-9.00519
▁Tu	-9.00816
res	-9.00823
rati	-9.0107
com	-9.01286
▁okr	-9.01448
▁Fran	-9.01495
▁jednu	-9.01498
▁ime	-9.01607
nc	-9.01899
▁glum	-9.01963
▁svaki	-9.01986
▁odigra	-9.02001
▁Bar	-9.02005
▁bod	-9.02458
▁odluči	-9.02523
ber	-9.02627
▁četvrt	-9.02677
▁Velik	-9.0281
▁pun	-9.02835
▁jedini	-9.02874
▁Par	-9.02897
▁Ova	-9.02914
▁prona	-9.02946
▁pol	-9.03143
▁plaća	-9.03164
▁tešk	-9.03373
▁osobe	-9.03458
den	-9.0367
▁sportsk	-9.03677
▁40	-9.03679
ster	-9.03719
▁toliko	-9.03961
njem	-9.03995
▁pristup	-9.0409
▁upravlja	-9.04108
▁čovjek	-9.04197
▁fotograf	-9.04289
tim	-9.04347
▁Naime	-9.04418
▁kvalitet	-9.04547
▁22	-9.04663
▁organizacij	-9.04765
▁Izrael	-9.04838
▁reći	-9.05007
▁(1	-9.05051
▁problema	-9.05105
▁Osim	-9.05125
▁trenutku	-9.05177
▁njegova	-9.05348
▁poslova	-9.0544
▁In	-9.0544
stoj	-9.05594
▁koncert	-9.05658
▁ekip	-9.05663
▁sje	-9.05836
▁najviše	-9.05936
izira	-9.05998
.000	-9.06016
▁posao	-9.06115
pro	-9.06184
▁postoji	-9.06262
min	-9.06372
▁Tako	-9.06401
▁Hrvat	-9.06415
nosno	-9.06602
▁pisa	-9.06608
▁dobi	-9.06637
▁služben	-9.06709
▁red	-9.06724
▁2023.	-9.06902
ment	-9.07203
▁ps	-9.07219
raz	-9.07286
▁direktor	-9.07341
sel	-9.07396
▁zatvor	-9.07659
▁zahtjev	-9.0774
▁1.	-9.07818
▁Go	-9.08002
jedno	-9.08069
pri	-9.08084
bil	-9.08234
▁prometn	-9.08398
▁obr	-9.08522
ban	-9.08562
▁vrati	-9.08587
▁ranije	-9.08656
▁govor	-9.087
▁najbolje	-9.08843
▁vojn	-9.08955
▁val	-9.09096
rod	-9.09325
▁prava	-9.09354
nosti	-9.09373
ivot	-9.09446
▁nogometn	-9.09632
▁policija	-9.09633
irati	-9.09638
▁zato	-9.09883
▁Hrvatsku	-9.09888
▁izazov	-9.09959
),	-9.09979
▁Dubrovnik	-9.10038
▁zašto	-9.10079
▁žena	-9.10114
▁du	-9.10475
▁zdrav	-9.10516
▁različit	-9.10556
▁savjet	-9.10643
▁čega	-9.10688
▁Ministarstv	-9.10814
▁ovu	-9.10868
▁petak	-9.10934
ard	-9.1097
▁pot	-9.11118
tur	-9.11249
nes	-9.11263
▁vaš	-9.11337
▁pomoći	-9.11434
▁vozač	-9.11521
▁drugom	-9.1154
▁Mil	-9.11774
▁prati	-9.1194
▁sigurno	-9.11991
▁zapravo	-9.12074
▁nacionaln	-9.12287
▁tvrtk	-9.12288
▁drugim	-9.12352
▁zdravstven	-9.1239
▁grada	-9.12509
▁SAD	-9.12743
▁poraz	-9.13014
▁detalj	-9.13019
▁pomo	-9.13055
▁nja	-9.1314
sh	-9.13299
pr	-9.13331
▁mr	-9.13535
▁dugo	-9.13546
▁temperatur	-9.13631
▁Vr	-9.13687
čin	-9.13765
gen	-9.1381
▁savez	-9.13884
▁ce	-9.13977
vid	-9.14034
nija	-9.14105
▁mandat	-9.14169
▁vidjeti	-9.14169
▁iznos	-9.14172
kako	-9.14228
sen	-9.14275
▁svijeta	-9.14409
▁igrača	-9.14463
▁raditi	-9.14758
▁prvom	-9.14903
▁svega	-9.15054
▁bira	-9.15099
▁zemlje	-9.15161
▁rješenj	-9.15251
▁kola	-9.15345
đu	-9.15393
▁Naj	-9.15422
▁Josip	-9.15433
▁lijep	-9.15548
▁sedam	-9.15586
▁dug	-9.15603
▁okup	-9.15642
▁osam	-9.15652
žan	-9.15685
▁vjerojatno	-9.15705
car	-9.15788
▁mir	-9.1585
▁dogodi	-9.15858
▁opet	-9.15904
▁Svi	-9.15968
▁interes	-9.16071
▁bol	-9.16091
▁ev	-9.16155
▁proces	-9.16165
▁možemo	-9.16212
▁mogućnost	-9.16213
▁SDP	-9.16254
▁prva	-9.16254
▁23	-9.16263
ry	-9.16288
▁narod	-9.1633
spod	-9.16396
▁subotu	-9.16536
mor	-9.16539
▁ca	-9.16764
ub	-9.16766
▁naslov	-9.16795
▁lije	-9.16852
▁kluba	-9.169
▁tvrdi	-9.17
▁otkri	-9.17104
▁stoji	-9.17321
ral	-9.17411
▁ovdje	-9.17607
▁ozbiljn	-9.17637
njak	-9.17696
vno	-9.17705
▁mene	-9.17744
▁kli	-9.17794
▁ključn	-9.17926
▁100	-9.18114
▁uvjet	-9.1814
▁dosta	-9.18148
▁navodi	-9.18251
▁tog	-9.18492
▁izvor	-9.18542
▁poslovn	-9.18578
▁karijer	-9.18612
▁misli	-9.18648
▁koleg	-9.18764
▁mlad	-9.18828
▁brz	-9.18895
▁imala	-9.19069
▁2022.	-9.19229
kan	-9.1929
▁tur	-9.19377
▁for	-9.1952
▁zagrebačk	-9.1955
▁pokazal	-9.19589
▁dnevn	-9.1961
nović	-9.1964
čka	-9.19672
▁važn	-9.19803
▁slučaju	-9.20172
▁ured	-9.20175
▁ministar	-9.2027
▁sport	-9.20294
▁pak	-9.20321
▁zgrad	-9.20367
▁postal	-9.20399
▁brzo	-9.20494
▁bor	-9.20495
TE	-9.20525
▁sljedeć	-9.20562
▁Ti	-9.20629
▁gradsk	-9.20728
▁Osijek	-9.20755
▁dovoljno	-9.20833
▁privatn	-9.20849
▁budu	-9.20928
▁razgovor	-9.21039
▁(2	-9.21384
▁pokret	-9.21437
▁nogomet	-9.21517
▁nedjelju	-9.21617
▁ozljed	-9.21811
▁sumnj	-9.21846
▁drugih	-9.21857
rin	-9.21908
▁Pod	-9.22188
▁vlastit	-9.22234
lni	-9.22252
▁Međutim	-9.22304
▁sudjelova	-9.22308
▁pobijedi	-9.22416
▁kar	-9.22752
▁uključuju	-9.22784
▁priliku	-9.22815
▁mladi	-9.22846
▁Vo	-9.23031
▁istraživanj	-9.23176
▁cijena	-9.23244
▁Bel	-9.23354
▁pove	-9.23372
▁pop	-9.23459
▁uspješn	-9.23668
▁Jadran	-9.23768
▁tjedna	-9.23962
▁djela	-9.23975
▁Zna	-9.24111
▁Drug	-9.24282
▁najavi	-9.24308
▁turnir	-9.24373
▁napada	-9.24392
▁živ	-9.24432
▁šte	-9.24436
▁Marko	-9.24439
▁Nikol	-9.2444
▁uživa	-9.24515
zan	-9.24588
▁mar	-9.24749
▁Ant	-9.2484
ević	-9.25019
▁ponedjeljak	-9.25059
igra	-9.25137
▁met	-9.25204
tok	-9.25313
▁smije	-9.25376
▁situacija	-9.2546
▁tjedan	-9.25461
sno	-9.25566
for	-9.25623
▁tamo	-9.25647
ruč	-9.25742
▁mal	-9.25762
▁razgovara	-9.25795
▁Vu	-9.26025
▁primjer	-9.26149
▁pravil	-9.26187
▁igrati	-9.26477
▁godini	-9.26488
▁Uprav	-9.26637
▁Ameri	-9.26638
▁moguće	-9.26684
▁rije	-9.26715
nuo	-9.26844
rat	-9.26963
▁novo	-9.27025
nicu	-9.27098
▁Hrvatski	-9.27133
▁financijsk	-9.27592
▁očekuje	-9.27592
▁potom	-9.27635
▁određen	-9.27658
▁ovi	-9.27662
slav	-9.27665
▁Zbog	-9.27696
▁večer	-9.27788
▁uspjeh	-9.279
▁Radi	-9.27994
sad	-9.28099
▁odnosu	-9.28328
▁60	-9.28388
vljen	-9.28399
▁Per	-9.28449
nce	-9.28532
▁auto	-9.28583
▁lopt	-9.28773
▁jasno	-9.28805
▁djecu	-9.28863
▁produ	-9.28943
▁ovim	-9.29061
▁postaj	-9.29116
▁hrvatske	-9.29202
▁tih	-9.29284
▁kriv	-9.29437
▁Vid	-9.29441
akav	-9.29442
▁slobodn	-9.29561
▁nikad	-9.29624
▁27	-9.29669
skoro	-9.29787
▁aktivnosti	-9.29813
▁dijete	-9.29879
▁dogovor	-9.29981
▁rada	-9.30005
▁srijedu	-9.30086
▁sat	-9.30226
gle	-9.30233
▁kuće	-9.30306
mjesto	-9.30423
▁Dinama	-9.30616
▁živi	-9.30666
▁mnogo	-9.30742
▁rak	-9.30746
▁ostvari	-9.30799
▁čim	-9.3086
jski	-9.30922
▁26	-9.31046
▁velika	-9.31064
vanju	-9.31093
▁građani	-9.3127
prije	-9.31339
▁bodova	-9.31345
▁nom	-9.31371
▁rok	-9.31375
itet	-9.31445
▁strani	-9.31491
▁kratk	-9.31516
▁pokuša	-9.31581
opće	-9.31614
▁rata	-9.31673
hod	-9.31785
▁izbora	-9.31846
▁sla	-9.31847
▁Prije	-9.31851
godišnjak	-9.31873
▁izborn	-9.31999
▁putem	-9.3207
▁godišnj	-9.32346
▁najbolji	-9.32376
olog	-9.32412
▁glavni	-9.3245
▁obitelj	-9.32552
▁svijet	-9.32649
▁Str	-9.32719
▁komentar	-9.32751
ček	-9.32836
▁odlu	-9.32867
▁Real	-9.3298
▁hrvatskog	-9.33017
▁loš	-9.3317
▁korak	-9.33208
▁komentira	-9.33232
▁stigl	-9.33244
▁Or	-9.33481
▁festival	-9.33619
▁opć	-9.33636
▁uspjel	-9.33842
kić	-9.33943
▁autor	-9.33956
▁prob	-9.33961
▁vozi	-9.3403
▁gradonačelnik	-9.34056
▁gosti	-9.34062
▁stranke	-9.34088
▁metara	-9.34186
nske	-9.34197
voz	-9.34267
vođenj	-9.34301
▁Mir	-9.34326
▁Ho	-9.34355
živ	-9.34382
▁Ivana	-9.345
▁glazben	-9.34529
▁došao	-9.34536
▁desn	-9.34557
rij	-9.34566
▁slavi	-9.34687
▁Luka	-9.34725
nac	-9.34758
▁zemlji	-9.34826
▁povijesti	-9.34866
▁budućnost	-9.35047
▁Kao	-9.35226
▁utjecaj	-9.35378
njen	-9.35407
▁vlada	-9.35433
pot	-9.35533
▁dijelu	-9.35648
▁utakmici	-9.35823
▁sklop	-9.35824
▁mjesec	-9.35925
▁model	-9.35945
▁nastupa	-9.35954
▁mislim	-9.35984
novi	-9.36177
▁uspi	-9.36245
▁pola	-9.36423
nar	-9.36429
▁utorak	-9.36499
▁dobiti	-9.36525
▁bivši	-9.36602
▁Zagreba	-9.36748
pun	-9.36809
▁dobar	-9.36844
▁momčad	-9.36872
▁naglasi	-9.36945
▁nedavno	-9.37098
▁zahval	-9.37125
ler	-9.37268
▁razini	-9.37287
alno	-9.37311
▁sto	-9.3733
▁dokaz	-9.37333
adi	-9.37398
▁prolaz	-9.37675
▁priprema	-9.37759
▁pojav	-9.37841
▁iznosi	-9.38032
▁sata	-9.3807
han	-9.38078
▁škole	-9.38081
▁Mal	-9.38192
▁posjet	-9.3826
▁devet	-9.38313
▁ostavi	-9.38476
▁Republike	-9.38505
osim	-9.38566
▁cijene	-9.38574
▁Njemačk	-9.38624
▁zanimljiv	-9.3865
▁Misli	-9.38662
▁BiH	-9.38799
▁izbor	-9.38867
▁splitsk	-9.39108
▁studij	-9.39114
▁slab	-9.39143
kog	-9.39161
▁doći	-9.39208
▁prethodn	-9.39346
▁pogled	-9.39438
▁nova	-9.39538
▁moći	-9.39548
▁čij	-9.39557
glavnom	-9.39684
▁Rijeka	-9.39687
▁novog	-9.39773
▁objavljen	-9.39801
▁Car	-9.39863
▁država	-9.39878
▁pr	-9.40015
▁Martin	-9.40118
▁njen	-9.40131
▁starij	-9.40302
▁Kar	-9.40379
▁Španjolsk	-9.40382
kovi	-9.40418
tić	-9.40492
▁Raz	-9.40534
▁prvog	-9.40657
▁osnov	-9.4067
▁županije	-9.40776
▁stvarno	-9.40801
▁ukupno	-9.40841
▁druga	-9.40847
▁ističe	-9.40965
▁Sp	-9.41064
▁travnja	-9.41087
▁Također	-9.41424
▁Zoran	-9.41442
▁donosi	-9.4146
▁god	-9.41646
▁čem	-9.41671
▁mrežama	-9.41776
▁sastav	-9.41922
godišnji	-9.42016
▁Još	-9.4203
▁umjetn	-9.42116
▁navija	-9.42143
▁emisij	-9.42148
▁pojedin	-9.42174
ps	-9.42179
▁mjeseca	-9.42219
▁zvijezd	-9.42266
▁ulaz	-9.4241
▁dolara	-9.42441
▁srednj	-9.42488
▁pjeva	-9.42499
▁zabran	-9.42502
▁pobjedu	-9.42508
▁ljude	-9.42624
▁trenutno	-9.42627
▁sukob	-9.42664
▁Jur	-9.42698
▁Grada	-9.42745
▁Splitu	-9.42792
▁drugo	-9.42794
▁milijard	-9.42981
▁lipnja	-9.42986
ff	-9.43007
▁velike	-9.43025
▁godinama	-9.43034
▁bogat	-9.4304
▁njemu	-9.43149
▁snage	-9.43224
▁međunarodn	-9.43341
▁pobjede	-9.43467
▁primi	-9.43477
▁stol	-9.43597
▁stop	-9.43941
▁Jedn	-9.43972
▁time	-9.44023
▁moraju	-9.44039
▁teren	-9.44049
▁Francusk	-9.44066
▁krv	-9.44121
▁noć	-9.44191
▁organizira	-9.44351
▁ispre	-9.44439
▁novac	-9.44528
▁jezik	-9.44766
▁poručio	-9.44916
▁pregled	-9.44917
▁let	-9.44918
▁napraviti	-9.45017
▁gradu	-9.45046
čkog	-9.45156
▁izvan	-9.45169
▁sjajn	-9.4525
▁javnosti	-9.4526
▁Jak	-9.45381
▁Vlade	-9.45405
▁hotel	-9.45408
▁postao	-9.45419
šću	-9.45502
▁crven	-9.45527
▁tvrtke	-9.45545
W	-9.45634
▁trgovin	-9.45654
▁dobili	-9.45822
▁žele	-9.45917
▁prvu	-9.45946
▁vlasti	-9.4595
▁konačn	-9.46136
▁povezan	-9.46174
▁vide	-9.46247
▁Šibenik	-9.46266
▁ponaša	-9.46275
▁ovakv	-9.46303
▁dodatn	-9.46322
▁svima	-9.46327
ložen	-9.46489
▁Bra	-9.46691
par	-9.46738
▁Dok	-9.46937
▁obilje	-9.46956
▁ske	-9.46962
▁vje	-9.46965
▁objavila	-9.4716
kar	-9.47203
▁planira	-9.47381
▁ljudsk	-9.47387
▁zajedni	-9.47433
!	-9.47505
▁Rus	-9.47582
▁Filip	-9.47764
▁čin	-9.47858
▁28	-9.47887
▁došlo	-9.47906
▁vidjel	-9.47909
▁Danas	-9.47921
▁El	-9.47945
ly	-9.4795
▁moram	-9.48104
▁sličn	-9.48195
▁dogodilo	-9.48258
▁zemlja	-9.48266
▁fr	-9.48382
▁Doda	-9.48385
▁dje	-9.48508
▁izjavio	-9.48518
▁nastavi	-9.48552
▁vanjsk	-9.48605
▁Instagram	-9.48644
▁politi	-9.48677
▁topl	-9.4872
▁bolesti	-9.48812
land	-9.48816
▁osjet	-9.48889
▁bl	-9.48892
▁proslav	-9.48901
▁vijest	-9.48996
▁ska	-9.49011
▁(3	-9.49058
nova	-9.49197
▁današnj	-9.49228
▁zrak	-9.49254
▁djevoj	-9.49566
▁trebalo	-9.49587
čiti	-9.49714
▁izborima	-9.49751
▁trud	-9.49793
laže	-9.49795
▁ozlijeđen	-9.49805
▁brod	-9.49894
▁video	-9.49909
▁POGLEDAJ	-9.50048
nat	-9.5005
gdje	-9.50205
▁otkrila	-9.50353
▁Hajduka	-9.5045
▁zaslu	-9.50462
▁bavi	-9.50519
▁Domovinsk	-9.50563
▁zabio	-9.50595
▁izda	-9.50615
▁kat	-9.50625
ega	-9.50659
▁potpor	-9.50721
▁ministr	-9.50823
▁Tra	-9.50866
▁drugog	-9.50881
izam	-9.50978
▁djeca	-9.51108
▁osjećaj	-9.51151
▁događa	-9.51236
▁pravi	-9.51245
▁rade	-9.51263
▁nikada	-9.51309
▁popularn	-9.5134
ređen	-9.51404
▁sebi	-9.51459
▁voditelj	-9.51535
▁zajedničk	-9.51553
vesti	-9.51646
▁igre	-9.517
▁bist	-9.51794
▁Marin	-9.51848
und	-9.51852
▁Njegov	-9.51862
▁New	-9.51912
▁oblik	-9.51921
▁ukrajinsk	-9.51993
▁lako	-9.52122
▁cu	-9.52202
▁29	-9.52261
▁države	-9.5234
▁razmišlja	-9.52405
▁turističk	-9.5248
▁prednost	-9.52489
▁obiteljsk	-9.525
▁Y	-9.5252
▁škola	-9.5254
▁iduć	-9.52575
kriv	-9.52622
▁potrebno	-9.52644
▁platform	-9.5265
▁Kat	-9.52674
▁pad	-9.52777
▁brak	-9.52823
▁Bor	-9.52824
▁otkrio	-9.5285
▁momčadi	-9.52866
gro	-9.52866
▁krug	-9.52982
▁terenu	-9.53145
▁osjeća	-9.53147
▁srpsk	-9.53181
▁odmor	-9.53183
▁crn	-9.53222
▁kla	-9.53259
▁Kor	-9.53275
▁kući	-9.53503
jač	-9.53575
▁policijsk	-9.53579
pt	-9.53663
iljem	-9.5367
čević	-9.53675
▁nesre	-9.53725
▁bri	-9.53831
▁Svjetsk	-9.53844
▁odličn	-9.53852
▁Novi	-9.53926
▁Bio	-9.54025
▁w	-9.54088
▁kažu	-9.5413
jedi	-9.54161
▁Svak	-9.54246
▁vin	-9.54339
jiv	-9.54382
▁činjenic	-9.54391
ell	-9.54391
▁kazal	-9.54402
koj	-9.54444
▁rujna	-9.5465
▁pada	-9.54719
▁oči	-9.5484
▁provjer	-9.54852
▁Ipak	-9.54923
▁posebn	-9.54955
▁stadion	-9.55053
▁poslu	-9.55101
▁Bilo	-9.5533
▁ostat	-9.55573
▁prenosi	-9.55737
▁njemačk	-9.5574
▁smanji	-9.55743
▁najveći	-9.55767
▁Andrej	-9.55887
▁izgradnj	-9.5589
▁mijenja	-9.56012
plat	-9.56034
▁nekim	-9.56147
▁rekli	-9.56177
▁promjene	-9.56181
▁policije	-9.56316
▁vezan	-9.56358
▁sustava	-9.56471
▁četvrtak	-9.56536
▁90	-9.56611
▁konferencij	-9.56686
▁treće	-9.56694
▁pitanja	-9.56716
▁jednostavno	-9.56741
▁želim	-9.56781
▁park	-9.56878
▁2.	-9.5691
▁kuha	-9.56987
▁Mož	-9.57013
▁ljudima	-9.57016
port	-9.57023
▁Sin	-9.57093
▁Mate	-9.57114
▁materijal	-9.57374
▁građana	-9.57383
▁hit	-9.57384
čne	-9.57454
▁Već	-9.57728
▁dodatno	-9.57745
▁trebali	-9.57886
▁važno	-9.57903
▁plaće	-9.57962
▁požar	-9.5798
▁X	-9.58004
▁vrijednosti	-9.58049
bar	-9.58177
▁kulturn	-9.58207
▁stati	-9.58282
▁Marij	-9.58386
▁pokušava	-9.58429
pol	-9.58531
▁odluka	-9.58552
▁šal	-9.58585
▁znak	-9.58588
▁Pred	-9.58615
▁80	-9.58622
čenje	-9.5876
▁provodi	-9.58799
▁prikaz	-9.58804
▁jak	-9.59177
▁vaše	-9.59318
▁žene	-9.59334
▁opis	-9.59422
▁bori	-9.59437
▁prepozna	-9.59501
▁posljednje	-9.59568
▁Tim	-9.59573
▁Europe	-9.59628
▁listopada	-9.59752
▁nekretnin	-9.59752
▁pruža	-9.59788
▁generacij	-9.59894
▁krenul	-9.59904
▁35	-9.59921
▁manji	-9.59997
▁tekst	-9.60044
▁napisao	-9.60094
▁tiče	-9.6019
▁zaposlen	-9.60209
▁Zadar	-9.60255
▁drag	-9.60281
▁lan	-9.60282
▁rizik	-9.60327
▁unutar	-9.60332
▁van	-9.60339
ovac	-9.60377
▁FOTO	-9.60462
aši	-9.60471
▁srpnja	-9.60491
▁aktivn	-9.60496
▁životu	-9.60592
▁hladn	-9.6064
▁razloga	-9.6065
▁bolji	-9.60918
▁Foto	-9.60929
cent	-9.60936
▁uzrok	-9.61051
▁uoči	-9.61202
▁previše	-9.61229
govara	-9.61274
▁dodaje	-9.61339
▁muškarac	-9.61363
pek	-9.61392
▁volj	-9.61482
▁lige	-9.61522
gar	-9.61611
▁agencij	-9.61622
▁bijel	-9.61635
▁ži	-9.61689
▁reprezentacije	-9.61754
▁reakcij	-9.61761
▁tre	-9.61776
▁prirodn	-9.61925
▁izbori	-9.61977
▁Samo	-9.62039
▁Putin	-9.6205
▁ke	-9.62175
▁Crn	-9.62186
▁Ukrajini	-9.62188
▁meni	-9.62247
Š	-9.62262
▁normal	-9.62333
vic	-9.62336
▁značajn	-9.62422
▁pjevač	-9.62531
▁podršku	-9.62624
▁voli	-9.62659
▁kolu	-9.62681
▁mjere	-9.62704
dar	-9.62705
▁susjed	-9.6275
▁mladih	-9.62917
▁rekord	-9.62917
▁spor	-9.63045
▁osm	-9.63124
▁Maj	-9.63194
▁per	-9.63205
▁hoće	-9.63209
vin	-9.63247
đuje	-9.63288
▁sklad	-9.6332
▁cijeli	-9.63452
▁zemalja	-9.63502
▁Rijeke	-9.63503
▁Pot	-9.63595
▁evo	-9.63649
▁dobil	-9.63658
▁preuze	-9.6366
▁Taj	-9.63674
bot	-9.63678
▁rođen	-9.63713
▁zaklju	-9.63787
▁najmanje	-9.63801
▁sredin	-9.63834
▁njim	-9.63877
veden	-9.64013
▁čita	-9.64212
▁ulogu	-9.64226
▁kolovoza	-9.64239
▁70	-9.64271
▁tijelo	-9.64395
▁Ben	-9.64496
stat	-9.64496
ograf	-9.64595
▁objekt	-9.64708
▁početka	-9.648
▁institucij	-9.64833
▁prvenstva	-9.64833
▁show	-9.64833
▁namjer	-9.64865
▁Europi	-9.64974
▁mlade	-9.65139
▁odluku	-9.65141
▁počinje	-9.65145
▁skog	-9.65167
▁Hrvatskog	-9.6532
▁plin	-9.65429
▁RTL	-9.6543
▁zastupnik	-9.6558
nstven	-9.65604
▁izlaz	-9.65631
▁izraelsk	-9.65731
▁trg	-9.65753
▁vješt	-9.65782
▁traže	-9.65806
▁Tomislav	-9.65881
▁potpisa	-9.65914
▁odgovara	-9.66012
▁vikend	-9.66032
▁prijedlog	-9.66033
▁vraća	-9.66036
▁želje	-9.66048
?	-9.66128
▁Naš	-9.66308
▁Sabor	-9.66312
▁sigurnosti	-9.66314
▁iskoristi	-9.66334
▁riješi	-9.6639
▁log	-9.66425
▁duž	-9.66564
bjeg	-9.66578
▁Zakon	-9.66599
▁glasova	-9.66633
▁spava	-9.66734
▁Jedan	-9.66756
▁opasn	-9.66803
▁porez	-9.66895
▁hitn	-9.66966
▁vrata	-9.66976
▁Olimpijsk	-9.67077
▁dizajn	-9.67092
▁dostupn	-9.67093
▁navodno	-9.67156
zija	-9.67239
▁mlađ	-9.67305
roz	-9.67333
▁Bog	-9.67357
\	-9.67397
▁nogometaš	-9.67515
▁alkohol	-9.6755
▁početk	-9.6757
▁potrebn	-9.6757
lekt	-9.67583
▁svibnja	-9.67704
▁spas	-9.68108
▁Modrić	-9.68165
▁Riječ	-9.68213
▁Evo	-9.68252
▁naveden	-9.68252
▁nikakv	-9.68319
▁zelen	-9.68634
▁Jer	-9.68635
▁sektor	-9.68641
▁The	-9.68814
▁Milan	-9.68909
▁korištenj	-9.68937
reb	-9.68938
▁reagira	-9.68938
▁Oni	-9.68969
▁godišnje	-9.69073
▁shvati	-9.69115
▁nastaviti	-9.69201
▁područja	-9.69248
▁poseb	-9.69263
▁pru	-9.69323
▁iskustvo	-9.69452
stanak	-9.69482
▁šok	-9.69536
▁otpad	-9.69567
▁mali	-9.69623
jak	-9.69641
▁natjecanja	-9.69716
▁bare	-9.69731
▁predmet	-9.69735
jske	-9.69831
▁talijansk	-9.69872
▁žrtv	-9.69876
▁posve	-9.69905
▁otkriva	-9.69999
▁2021.	-9.70343
▁električn	-9.70343
▁tehnologij	-9.70343
▁rib	-9.70345
▁pros	-9.70473
▁obrane	-9.70544
▁Tijek	-9.70568
▁sigurn	-9.70576
pet	-9.70597
▁dosad	-9.70604
0.000	-9.70823
▁stiga	-9.7083
▁sudac	-9.70958
▁svakodnevn	-9.70975
▁sazna	-9.70988
▁znaju	-9.71041
▁redu	-9.71074
▁parlament	-9.71123
▁TV	-9.71146
▁bak	-9.71157
▁Pl	-9.712
▁iskustv	-9.71245
▁zapadn	-9.71317
kri	-9.71428
▁vlasnik	-9.71451
▁dvoran	-9.71452
▁jući	-9.71471
▁snažn	-9.71616
▁domaćin	-9.71625
▁vratiti	-9.71678
ljan	-9.71713
▁Bab	-9.7177
▁zrakoplov	-9.7177
▁prekršaj	-9.7177
▁najbolj	-9.71816
▁stanje	-9.71983
▁stup	-9.71987
▁izbore	-9.71988
▁pitanju	-9.72025
▁Ol	-9.72037
▁bur	-9.72058
▁održat	-9.72091
ustav	-9.72128
▁pozitivn	-9.72147
▁daljnj	-9.72173
▁brani	-9.72206
▁kralj	-9.72361
▁treći	-9.72387
▁Luk	-9.72435
▁viš	-9.72462
▁lijev	-9.72636
▁župan	-9.72699
NK	-9.72731
▁nih	-9.72953
▁osje	-9.72961
▁održan	-9.73058
▁sigurnost	-9.73075
▁ponov	-9.73189
▁promjena	-9.73226
▁upit	-9.7325
▁strah	-9.73256
▁vrtić	-9.73318
▁loše	-9.73369
rist	-9.73392
▁prilago	-9.73514
▁atmosfer	-9.73541
▁pokušaj	-9.73612
ški	-9.73696
▁er	-9.73697
▁iznad	-9.73794
▁zdravlje	-9.7382
▁studenog	-9.73866
▁tijela	-9.73887
▁osnovn	-9.73901
▁razlog	-9.74014
▁Mor	-9.74071
▁centra	-9.74204
▁proračun	-9.74357
▁vožnj	-9.74375
cional	-9.74404
▁članic	-9.74503
▁francusk	-9.7452
▁Treba	-9.74529
▁daleko	-9.74587
▁smrti	-9.74735
▁održava	-9.74769
▁Tom	-9.7483
▁zaborav	-9.74858
▁izrazi	-9.74914
▁osv	-9.74928
▁odluke	-9.75032
▁3.	-9.7506
▁čist	-9.75077
▁cesta	-9.75078
▁javlja	-9.7513
▁bivše	-9.75146
▁vije	-9.75156
▁tradicionaln	-9.75179
▁trening	-9.75194
▁teret	-9.75196
▁ljetn	-9.75206
▁31	-9.7524
▁nekog	-9.7531
▁HNL	-9.75344
▁sekund	-9.75348
▁prijavi	-9.75385
▁postoje	-9.75548
▁Slovenij	-9.75554
▁sir	-9.75651
▁kontakt	-9.75678
▁majka	-9.75689
▁Nema	-9.7571
▁HRT	-9.75842
▁anti	-9.75875
▁Man	-9.75925
ativ	-9.75956
▁ispit	-9.75973
▁brat	-9.75991
▁ujutro	-9.76008
▁hrane	-9.76029
▁Em	-9.76131
▁Podsjetimo	-9.76175
▁mediji	-9.76178
▁finala	-9.76193
▁domaće	-9.76199
▁vozilo	-9.76217
▁borbe	-9.76253
▁rod	-9.76304
▁nastavlja	-9.76306
▁dolaze	-9.76352
▁trenutak	-9.76509
▁izbornik	-9.76549
čak	-9.76584
▁infrastruktur	-9.76677
▁sretn	-9.76764
▁prosvjed	-9.76844
▁Biden	-9.76891
▁čiji	-9.769
▁odabra	-9.76985
▁prvoj	-9.77118
▁Općin	-9.77206
▁Bla	-9.77229
▁Lige	-9.77234
▁sadržaj	-9.77267
ročitajte	-9.77315
▁NATO	-9.77349
▁student	-9.77349
▁zračn	-9.77354
gnut	-9.77376
▁sutra	-9.77398
▁zanima	-9.77456
ty	-9.77475
▁bar	-9.77536
▁znanstven	-9.77569
▁došli	-9.7759
▁aktiv	-9.77633
▁trag	-9.77646
▁spremni	-9.7769
▁šk	-9.77736
▁koriste	-9.77766
▁svakom	-9.77802
▁prosinca	-9.77857
▁poslije	-9.77864
▁osobit	-9.77954
▁ponos	-9.77974
▁izvješ	-9.78016
▁snaga	-9.78037
▁sjever	-9.78124
▁kompanij	-9.78199
▁blizin	-9.78368
▁dodala	-9.78398
kin	-9.78461
▁izdanj	-9.78482
▁prvenstvu	-9.78538
▁centar	-9.78539
▁sezonu	-9.78542
▁+	-9.78653
▁45	-9.78699
▁Njemačkoj	-9.78727
▁čas	-9.788
▁mušk	-9.78914
▁moguć	-9.78932
▁siječnja	-9.7895
▁skupine	-9.78967
▁korisnik	-9.79118
▁šef	-9.7925
▁radova	-9.79366
▁nudi	-9.79391
▁popis	-9.79412
▁sjednic	-9.79418
▁energije	-9.7954
▁socijaln	-9.79568
▁vrijedn	-9.79813
▁aktualn	-9.79914
▁savršen	-9.79915
▁Sel	-9.79956
▁svemu	-9.79976
▁ples	-9.80097
▁sluša	-9.80109
▁kop	-9.80129
▁tisuć	-9.80175
▁Policij	-9.80231
▁Vlada	-9.8027
▁Više	-9.80288
▁veze	-9.80406
▁vezi	-9.80474
▁pobjeda	-9.80517
▁standard	-9.80609
▁povijesn	-9.80611
▁dobiva	-9.8065
▁sigurnosn	-9.80707
▁restoran	-9.80783
▁ljeta	-9.80805
▁propis	-9.80851
▁(4	-9.80866
▁svje	-9.80912
▁odgovornost	-9.80919
▁Stan	-9.80924
▁izgubil	-9.81021
▁RH	-9.81021
▁Europ	-9.81073
▁nadzor	-9.81224
▁pokazuje	-9.81245
▁Pr	-9.81342
▁uhićen	-9.81485
▁Beograd	-9.81485
▁internet	-9.81502
rez	-9.81675
▁ponudi	-9.81677
▁društvo	-9.81837
▁Har	-9.81967
▁službe	-9.81981
▁gubi	-9.82017
▁drugu	-9.82191
▁opcij	-9.82294
▁Jan	-9.82318
▁Predsjednik	-9.82368
▁komunikacij	-9.82368
▁energij	-9.82396
▁iznenad	-9.82549
▁lov	-9.82551
▁stručnjak	-9.82583
▁našeg	-9.82583
▁stručn	-9.82617
▁potez	-9.82667
▁Ban	-9.82711
▁sunčan	-9.82731
▁optu	-9.82843
▁potencijaln	-9.82876
▁Star	-9.82878
▁okvir	-9.82902
▁navijači	-9.83025
ziran	-9.83036
▁situaciju	-9.8308
▁protekl	-9.83081
▁ruke	-9.83119
ker	-9.83165
ljev	-9.83206
etvrt	-9.83276
▁smr	-9.83358
▁Most	-9.83475
ljub	-9.83519
▁Austrij	-9.83618
▁povećan	-9.83662
▁ović	-9.8374
glav	-9.83786
▁svakog	-9.83835
▁tip	-9.83843
▁cije	-9.83912
▁specijal	-9.83978
▁uprave	-9.84038
▁blok	-9.84092
▁Bož	-9.8416
▁naravno	-9.84164
▁treć	-9.84175
▁rek	-9.84238
▁2025.	-9.8452
▁globaln	-9.8452
čkih	-9.8453
▁zv	-9.84569
▁noći	-9.847
▁osu	-9.84743
▁Kup	-9.8476
▁dres	-9.84781
▁San	-9.84845
ham	-9.84887
▁nabav	-9.85231
mijenjen	-9.8528
▁vesel	-9.8534
▁učenik	-9.85361
▁Facebook	-9.85431
▁drugačij	-9.85442
▁brig	-9.85464
▁lice	-9.85469
▁pokrenu	-9.85511
▁postat	-9.85615
▁motor	-9.85662
▁medicinsk	-9.85686
▁iste	-9.85704
▁plav	-9.85827
▁eks	-9.85953
▁razliku	-9.85987
▁ostaje	-9.86
▁inače	-9.86052
▁Sr	-9.86057
▁Sch	-9.86091
▁jedinstven	-9.86166
mišljen	-9.86207
▁smjeru	-9.86214
▁Srbije	-9.86271
▁promjen	-9.86288
▁dokument	-9.86304
▁društva	-9.8635
▁jučer	-9.86352
▁fizičk	-9.86411
▁završil	-9.86444
▁redovit	-9.86726
▁izgled	-9.86822
▁upozorava	-9.86906
▁Madrid	-9.86906
▁zaključio	-9.86907
boj	-9.87038
etiri	-9.87086
▁minute	-9.87098
▁Zato	-9.8723
▁novom	-9.87239
▁napisala	-9.87279
▁šire	-9.87329
kakav	-9.87433
▁fokus	-9.87464
▁održiv	-9.87467
▁Dakle	-9.87474
▁Auto	-9.87501
▁Mark	-9.87525
ser	-9.8758
▁odlučil	-9.87605
nički	-9.87667
▁fotografije	-9.87787
▁poru	-9.8779
▁vrh	-9.87817
▁zatvoren	-9.87852
▁budući	-9.879
▁Nik	-9.87921
▁dubok	-9.88029
▁osvojil	-9.88031
▁Val	-9.8817
▁skr	-9.88175
▁donijel	-9.88276
▁priče	-9.88329
▁stotin	-9.88349
▁seksualn	-9.88403
▁otac	-9.88412
▁novca	-9.88432
▁slika	-9.88532
▁milijun	-9.88549
▁upozna	-9.88565
▁prihod	-9.88616
▁prijevoz	-9.8872
izma	-9.88726
▁Vukovar	-9.8878
▁koristiti	-9.88812
▁traje	-9.88955
▁investicij	-9.8916
▁stabiln	-9.89161
▁kćer	-9.89161
nijih	-9.89197
▁blag	-9.89391
minira	-9.89427
▁zaustavi	-9.89444
▁porast	-9.89455
▁stil	-9.89489
▁vrhu	-9.89504
▁javnost	-9.89524
▁#	-9.89559
vent	-9.89691
▁Neki	-9.89777
▁spoj	-9.8989
▁trend	-9.89949
▁članovi	-9.90071
▁Dub	-9.90198
▁rijetk	-9.90211
▁prof	-9.90221
▁nalaz	-9.9024
▁količin	-9.90307
▁pobjednik	-9.90307
▁započe	-9.9033
▁Nis	-9.90342
▁opasnost	-9.90352
▁Vin	-9.90368
▁Kol	-9.90423
▁vidim	-9.90582
▁kilometara	-9.9069
▁Super	-9.9074
▁33	-9.90893
▁običn	-9.91074
▁početku	-9.91194
▁vrt	-9.91236
▁spomen	-9.91251
▁razn	-9.91262
▁album	-9.91271
▁iznimno	-9.91296
▁stanju	-9.91304
▁For	-9.9134
▁predsjedničk	-9.91371
▁dionic	-9.91401
▁kilogram	-9.91465
▁odvjetnik	-9.91465
▁prosječn	-9.91466
▁idu	-9.91714
▁2020.	-9.91855
▁spomenut	-9.91888
tivno	-9.91963
▁dram	-9.92014
▁navode	-9.92031
▁pokazuju	-9.9205
burg	-9.92051
kinja	-9.922
▁dođe	-9.92249
▁derbi	-9.92249
▁obeća	-9.92263
▁blagdan	-9.9227
▁uspor	-9.92296
amp	-9.92323
▁najvažnij	-9.92441
▁pogotov	-9.92441
▁Ivic	-9.92491
▁Bit	-9.92513
AR	-9.92619
▁svjedo	-9.9262
▁kulture	-9.92638
▁Naravno	-9.92638
▁šum	-9.92701
▁isplat	-9.92766
▁koš	-9.92786
▁objašnjava	-9.92835
▁potpis	-9.9288
▁mnoge	-9.92887
▁djetet	-9.93041
▁Dom	-9.93042
▁potres	-9.93068
iranje	-9.93091
▁drugoj	-9.93192
▁bivš	-9.93215
▁cijsk	-9.93219
▁medija	-9.93233
▁došla	-9.93306
▁Đ	-9.9336
▁nevjerojatn	-9.93428
▁ožujka	-9.93428
▁profesor	-9.93428
▁dodat	-9.93502
▁Robert	-9.93627
▁Ber	-9.93786
▁super	-9.93803
trov	-9.93815
▁(5	-9.9382
▁predsjednic	-9.94035
▁Gradsk	-9.94048
▁Vel	-9.94119
▁mjera	-9.94215
▁dvoboj	-9.94224
▁olimpijsk	-9.94224
▁sezoni	-9.9423
▁ljeto	-9.94235
▁fin	-9.94251
▁Portugal	-9.94424
▁uređaj	-9.94424
▁uslijed	-9.94425
▁ravnatelj	-9.94464
▁unato	-9.9455
▁rub	-9.94569
▁DP	-9.94601
▁Zelen	-9.94641
▁poljoprivred	-9.9465
▁ocjen	-9.94656
▁čuva	-9.94747
▁politike	-9.94808
▁stalno	-9.94809
▁ovako	-9.94854
▁izgubio	-9.94979
▁digitaln	-9.95026
▁upozori	-9.95026
▁pacijent	-9.95027
▁Poljud	-9.95032
▁kuća	-9.95179
▁školsk	-9.95229
▁°	-9.95248
▁Ljub	-9.95401
▁predstavnik	-9.9542
▁kapetan	-9.9543
▁bolj	-9.95445
▁branitelj	-9.9546
▁otišl	-9.95461
▁napadač	-9.95523
▁ustanov	-9.95524
▁dijelov	-9.95625
tvrd	-9.95755
▁karijere	-9.95769
▁skupina	-9.9578
▁hrvatskom	-9.95815
▁fakultet	-9.95835
▁finale	-9.95843
▁umjeren	-9.95857
▁odradi	-9.95874
▁Vol	-9.95916
▁pažnj	-9.95938
▁Karl	-9.95982
▁bal	-9.96003
▁dobit	-9.96014
▁sjedi	-9.96027
▁portal	-9.96048
▁prvak	-9.96052
▁sposobnost	-9.9611
▁voda	-9.96117
▁sredstva	-9.96242
▁svakak	-9.96288
▁more	-9.96423
▁stanovnik	-9.96447
▁Parizu	-9.96448
▁Isto	-9.96482
▁okoliš	-9.9649
▁krajem	-9.96534
▁radionic	-9.96542
▁vrhunsk	-9.96563
▁Varaždinsk	-9.96566
▁čko	-9.9664
▁podijeli	-9.96647
▁natječaj	-9.96651
RA	-9.96688
▁sjevern	-9.96821
▁vruć	-9.96906
▁točno	-9.96953
▁visi	-9.97003
▁intervju	-9.97061
▁dvojic	-9.97066
▁duh	-9.97094
▁kamp	-9.9717
▁sportaš	-9.97246
▁izvedb	-9.97267
▁Er	-9.97289
▁profesionaln	-9.97289
▁Policijsk	-9.97434
▁slijedi	-9.97479
▁zid	-9.97527
bran	-9.97556
20	-9.97624
▁razred	-9.97654
▁učinkovit	-9.97679
▁najboljih	-9.97714
▁prvenstvo	-9.97886
▁priču	-9.97941
▁Sud	-9.97954
▁profil	-9.97997
▁smanjenj	-9.98069
hat	-9.98117
▁udarac	-9.98227
nekad	-9.98286
▁objasnio	-9.98302
▁Državn	-9.98302
▁ostalim	-9.9835
▁epizod	-9.9851
▁ministarstv	-9.98516
pisao	-9.98615
1)	-9.98646
▁Moj	-9.9868
▁sezona	-9.98732
pustiti	-9.98765
▁simbol	-9.98929
▁!"	-9.98976
▁društvu	-9.99138
▁hval	-9.99168
▁motiv	-9.99211
demo	-9.99235
▁vjenča	-9.99348
▁nesreće	-9.99352
▁dužnost	-9.9936
▁Krist	-9.99528
▁kombinacij	-9.99558
▁reprezentacija	-9.99558
▁očekivan	-9.9956
▁dječj	-9.99569
▁očito	-9.99653
naest	-9.99689
▁Ć	-9.9972
▁doprinos	-9.99769
▁prekid	-9.99786
▁stranka	-9.99801
▁zajednice	-9.99886
▁32	-10.0005
nskog	-10.0008
▁telefon	-10.0019
▁učiniti	-10.002
▁pravn	-10.0032
štvo	-10.0037
▁unutarnj	-10.004
▁suradnji	-10.0041
▁finalu	-10.0041
▁div	-10.0048
▁početak	-10.0053
▁500	-10.0057
kazuje	-10.0063
▁Rusija	-10.007
▁važnost	-10.0074
▁prisutn	-10.0083
▁poruka	-10.0093
▁središnj	-10.0104
▁funkcionira	-10.0104
▁euro	-10.0112
▁zahvaljuju	-10.0114
▁situacije	-10.0126
▁htjel	-10.0127
▁tjedn	-10.0129
▁vjero	-10.013
▁Goran	-10.0139
▁kriminal	-10.0147
▁ceste	-10.0149
▁dolask	-10.0161
▁Hr	-10.0163
▁vremenu	-10.0169
▁imena	-10.0169
▁raspored	-10.0169
▁njoj	-10.017
▁ukupn	-10.0172
▁staja	-10.0178
▁incident	-10.019
▁vidljiv	-10.0191
▁meč	-10.0197
▁obavlja	-10.02
▁povećanje	-10.0211
▁autobus	-10.0212
▁iskren	-10.0212
▁povod	-10.0216
▁Iran	-10.0222
▁Božić	-10.0223
dobno	-10.0231
▁36	-10.0234
▁poboljša	-10.0252
▁uputi	-10.0269
Ž	-10.027
▁lakše	-10.0277
▁pogodak	-10.0277
▁vodeć	-10.0287
▁bolnici	-10.0287
▁Lovr	-10.0292
▁uključi	-10.0297
▁parkira	-10.03
▁otišao	-10.03
▁tvrde	-10.03
▁ruku	-10.0301
▁Imam	-10.0308
▁protu	-10.032
▁tržištu	-10.0321
▁otkaz	-10.0324
▁obrani	-10.033
▁vrijednost	-10.0337
▁ulici	-10.034
▁Pogledajte	-10.0343
▁Željk	-10.0343
▁veza	-10.0343
▁povjerenj	-10.0343
▁Među	-10.0348
▁kanal	-10.0352
▁nestal	-10.0353
▁energetsk	-10.0364
▁Udrug	-10.0365
▁ovogodišnj	-10.0387
pin	-10.0388
▁ubijen	-10.0389
▁postupak	-10.0408
▁zločin	-10.0409
▁tehničk	-10.0422
▁drži	-10.0424
▁usluga	-10.0431
tivni	-10.0432
▁rođendan	-10.0433
▁Mnogi	-10.0434
▁prošlog	-10.0435
▁Srbi	-10.0436
▁komad	-10.0438
:00	-10.0439
▁povijest	-10.0445
▁okolnosti	-10.0453
▁potvrdio	-10.0457
▁potvrdil	-10.0472
▁Večer	-10.0475
▁tjelesn	-10.0497
▁ukra	-10.0508
▁napusti	-10.0536
▁liječnik	-10.0542
▁kvar	-10.0554
▁potvrd	-10.0556
▁talent	-10.0564
▁pronašl	-10.058
▁Damir	-10.0583
▁Euro	-10.0584
▁proizvođač	-10.0586
▁priopćenju	-10.0586
▁moru	-10.0587
▁Prav	-10.0603
▁razdoblju	-10.0609
▁karakter	-10.0609
▁nadležn	-10.0609
▁Čak	-10.0613
▁šut	-10.0617
▁značaj	-10.062
2)	-10.063
▁rob	-10.0653
▁rukomet	-10.0654
▁Pol	-10.0675
▁City	-10.0677
▁sastoj	-10.069
▁Andr	-10.0699
▁izmjen	-10.0703
▁volim	-10.0704
▁kvalitetn	-10.0712
▁Cha	-10.072
▁nadam	-10.0723
▁zadovoljn	-10.0734
▁stavlja	-10.074
▁modern	-10.0745
▁Glavn	-10.0745
▁žen	-10.0761
▁obraz	-10.0764
▁školu	-10.0768
▁brend	-10.0769
▁poručil	-10.0771
▁pregovor	-10.0791
▁radnika	-10.0793
▁34	-10.0803
▁pusti	-10.0805
▁Maksimir	-10.0813
▁status	-10.0814
▁bicikl	-10.0814
▁mjesečn	-10.0836
▁snima	-10.0848
▁održavanj	-10.0848
▁Zagrebačk	-10.085
▁Kolik	-10.0852
▁pohvali	-10.086
▁Igra	-10.0864
▁isklju	-10.0875
▁prista	-10.0877
▁borbi	-10.0879
▁mjestim	-10.0883
▁britansk	-10.0883
▁Fr	-10.0884
▁baci	-10.0889
▁Poljsk	-10.0918
▁Bijel	-10.0925
▁odgovorio	-10.0947
▁Talijan	-10.0952
▁Inače	-10.0953
ekuje	-10.0959
▁Pen	-10.0959
▁centru	-10.0976
▁bitno	-10.0981
▁poplav	-10.0984
▁pronađen	-10.0984
brzo	-10.0998
▁kredit	-10.0999
▁vodstvo	-10.1015
▁španjolsk	-10.1022
▁svjesn	-10.1023
▁titul	-10.1023
▁Gol	-10.1041
▁golova	-10.1044
▁svečan	-10.1045
▁fond	-10.1051
▁privremen	-10.1061
▁vjerujem	-10.1069
dalmatinsk	-10.1069
▁središt	-10.107
▁Zapad	-10.1073
▁nekad	-10.1081
▁južn	-10.1088
▁nagradu	-10.11
Sport	-10.1109
žić	-10.113
▁2019.	-10.114
▁Lokomotiv	-10.114
▁regionaln	-10.114
▁prehran	-10.1141
▁tehni	-10.1147
▁smještaj	-10.1164
▁Kos	-10.1166
tručnjaci	-10.1178
▁poruku	-10.1179
▁srca	-10.1183
ištu	-10.1188
▁Sigur	-10.1188
▁prazn	-10.1192
▁Sveučilišt	-10.1212
▁kreativn	-10.1212
▁podržava	-10.1212
▁otvara	-10.1213
▁ograničen	-10.1213
▁55	-10.1214
▁izravn	-10.1217
▁stres	-10.123
▁tenis	-10.124
▁navijača	-10.1246
▁gospodarsk	-10.1254
▁York	-10.126
▁skrb	-10.1267
▁Mađarsk	-10.1284
▁oštećen	-10.1284
▁Turudić	-10.1284
▁pogledajte	-10.1284
▁Možemo	-10.1285
▁njom	-10.1286
▁srce	-10.1287
▁Bosn	-10.1291
TA	-10.1303
▁kategoriji	-10.1308
godišnje	-10.1321
▁navečer	-10.1332
▁novčan	-10.1345
▁teritorij	-10.1356
▁diplom	-10.1356
dovoljan	-10.1357
▁dovesti	-10.1357
▁obrati	-10.136
é	-10.138
▁vremensk	-10.138
▁htio	-10.1384
▁žensk	-10.1388
▁stvaranj	-10.1392
▁utvrđen	-10.1405
▁smatraju	-10.142
▁mobitel	-10.1429
▁stoljeća	-10.1429
▁stanova	-10.1437
▁nesreća	-10.1438
▁grupe	-10.1454
q	-10.1467
▁uvjetima	-10.1471
▁Bez	-10.1472
▁Rijeci	-10.1478
▁školi	-10.1481
▁ratn	-10.1487
▁lagan	-10.1487
sjed	-10.1501
▁Hercegovin	-10.1503
▁kapacitet	-10.1503
▁razvija	-10.1503
▁redatelj	-10.1503
▁zlatn	-10.1503
▁medije	-10.1503
▁Vladimir	-10.1504
▁Tur	-10.1515
▁medijsk	-10.1527
▁jutro	-10.1528
▁konkurencij	-10.1552
▁otvaranj	-10.1552
▁Sjevern	-10.1552
▁poštova	-10.1553
▁donijeti	-10.1553
▁trenutk	-10.1573
▁Poseb	-10.1577
▁članova	-10.1577
▁Petra	-10.1578
▁vojnik	-10.1602
▁plasman	-10.1602
▁preporu	-10.1603
▁boja	-10.162
▁Ulic	-10.1628
▁vrsta	-10.163
▁saborsk	-10.1642
▁boji	-10.1643
godišnja	-10.165
▁ekonomsk	-10.1651
▁englesk	-10.1651
▁omiljen	-10.1653
▁parlamentarn	-10.1653
▁igru	-10.1663
▁sredstava	-10.1676
▁vježb	-10.1677
▁Mus	-10.1686
▁tren	-10.1686
▁glazbe	-10.1693
▁Fer	-10.17
▁sklon	-10.1708
▁kreće	-10.1727
nder	-10.1727
▁poklon	-10.1733
▁izvijestil	-10.1735
▁optim	-10.1741
▁blizu	-10.1777
elnik	-10.1789
▁Prošl	-10.1796
ovjek	-10.1796
▁desetak	-10.1797
▁Njihov	-10.1802
▁Ukrajine	-10.1802
▁zabrinut	-10.1802
▁izjedna	-10.1802
dnoj	-10.1806
▁Kan	-10.1811
▁duš	-10.1816
▁razum	-10.1821
▁dogodil	-10.1821
▁suprotn	-10.1828
▁avion	-10.1842
▁trenutačn	-10.1853
▁vrijedi	-10.1879
▁djeluj	-10.1881
▁bolnice	-10.1885
▁djeci	-10.1887
▁300	-10.1893
▁38	-10.1903
▁pridruži	-10.1904
▁Slobod	-10.1904
▁udruge	-10.1904
▁poziciju	-10.1904
▁muzej	-10.1908
▁procjen	-10.1926
▁nastal	-10.1927
▁primijeti	-10.193
▁slavn	-10.1931
▁podacima	-10.1931
▁ulaznic	-10.1933
▁propust	-10.194
▁koga	-10.1949
▁nastavku	-10.1956
▁organizator	-10.1956
▁okružen	-10.1956
▁autocest	-10.1956
▁posjed	-10.1968
▁nagrade	-10.1992
▁košta	-10.1994
svim	-10.1995
▁pism	-10.1996
▁cijeni	-10.1997
▁promijeniti	-10.2
▁inicijativ	-10.2007
▁odjel	-10.2009
▁spreman	-10.2018
▁modn	-10.2026
▁kuću	-10.2029
▁Aleksand	-10.2033
▁Donald	-10.2033
▁podsjeti	-10.2033
▁plasira	-10.2038
▁Igor	-10.204
▁Ukrajina	-10.2059
▁struk	-10.206
▁znatno	-10.2061
▁postiga	-10.2085
▁negativn	-10.2085
▁umjetničk	-10.2089
▁Slaven	-10.2102
▁blisk	-10.2103
▁iskaz	-10.2106
▁Unato	-10.2113
▁potencijal	-10.2115
▁sabor	-10.2116
▁Gal	-10.2119
▁medijima	-10.2137
▁uspostav	-10.2137
▁pozvao	-10.2137
▁kuhinj	-10.2137
▁pozornost	-10.2138
▁Bl	-10.2146
▁prigod	-10.2154
▁postavljen	-10.2154
▁prst	-10.2159
▁organ	-10.216
▁ostvaren	-10.2164
▁rezerv	-10.2164
▁kamen	-10.217
laganje	-10.2175
▁osumnjičen	-10.219
▁vlade	-10.219
▁kinesk	-10.22
▁the	-10.221
▁polic	-10.2213
▁konkretn	-10.2216
▁stupnjeva	-10.2216
vlači	-10.2221
▁ustavn	-10.2229
▁Ukrajinu	-10.2243
▁naglašava	-10.2243
▁smislu	-10.2243
▁posljedica	-10.2243
▁mreže	-10.2244
▁Dalić	-10.226
▁Istra	-10.2262
▁riječima	-10.227
▁primjen	-10.2272
▁dodjel	-10.2285
▁vlak	-10.2286
▁građ	-10.2288
▁sporazum	-10.2296
▁jednako	-10.2304
▁Bjel	-10.2314
▁ozlije	-10.232
▁izuzetn	-10.2323
▁tužitelj	-10.2323
▁Gar	-10.2323
▁John	-10.2325
▁sastank	-10.2326
▁Dragan	-10.235
▁Hamas	-10.2351
▁skupini	-10.2358
stavljaju	-10.2363
▁korisn	-10.2371
više	-10.2371
▁situaciji	-10.2376
▁zamijeni	-10.2376
▁bend	-10.2379
vlače	-10.2379
▁maslin	-10.2381
▁pojavil	-10.2388
▁Davor	-10.2396
▁37	-10.2402
▁Ljudi	-10.2403
▁Najbolj	-10.2403
▁odvija	-10.2406
▁ideja	-10.2406
▁Zašt	-10.2412
▁upal	-10.2415
▁roman	-10.2419
▁TikTok	-10.243
▁maksimaln	-10.243
▁vatrogasc	-10.243
▁izazval	-10.243
▁izbjegava	-10.243
▁snimi	-10.2432
▁Tada	-10.244
▁otpor	-10.2442
▁vjetr	-10.2451
▁nagrada	-10.2453
▁ovisno	-10.2468
▁Inter	-10.2469
▁pratit	-10.2475
pisali	-10.2484
▁2018.	-10.2484
▁košarkaš	-10.2484
▁nuklearn	-10.2484
▁grupa	-10.2486
▁Var	-10.2499
▁manj	-10.25
▁sudjeloval	-10.2508
▁39	-10.2511
▁inflacij	-10.2538
▁usluge	-10.2538
▁Crven	-10.2539
▁proveden	-10.2554
▁75	-10.2561
▁ljubi	-10.2564
▁pozdrav	-10.2566
▁praktič	-10.2566
▁neovisn	-10.2568
▁Kur	-10.2572
▁Vučić	-10.2574
▁realn	-10.2574
.30	-10.2581
▁odgoj	-10.2582
okret	-10.2584
▁područje	-10.2593
▁izjavil	-10.2596
▁korisnici	-10.2602
▁Zadra	-10.2608
▁period	-10.2621
▁regiji	-10.2621
▁Postoj	-10.2621
▁Srbiji	-10.2621
▁građane	-10.2622
▁glavu	-10.2623
▁ovisi	-10.264
▁48	-10.2642
▁Ustavn	-10.2644
▁pogodio	-10.2648
RO	-10.2659
▁svjež	-10.2676
*	-10.2676
▁djevojčic	-10.2677
▁prijelaz	-10.2682
▁jasn	-10.2685
▁grob	-10.2694
▁destinacij	-10.2704
▁dosadašnj	-10.2704
▁Nacionaln	-10.2706
▁političar	-10.2709
▁Brank	-10.2725
▁intenzivn	-10.2731
▁udruga	-10.2731
▁šanse	-10.2731
▁ističu	-10.2732
▁oprez	-10.274
▁granice	-10.2742
▁najviš	-10.2755
▁stavit	-10.2756
▁stamben	-10.2759
▁uključuje	-10.2759
▁okus	-10.2768
▁vodu	-10.2774
▁dakle	-10.2784
▁2024	-10.2786
▁Brazil	-10.2788
▁Indi	-10.2795
▁vijeća	-10.2796
▁primjerice	-10.2801
▁vratar	-10.2802
▁znanosti	-10.2803
▁vjetar	-10.282
▁papir	-10.2821
▁Tursk	-10.2824
▁Antoni	-10.2831
▁provel	-10.2839
▁2016.	-10.2843
▁tragedij	-10.2843
▁Stoga	-10.2851
▁Jel	-10.2856
▁poduzet	-10.2863
▁ravn	-10.2881
▁slike	-10.2885
▁pobje	-10.2894
▁Dugo	-10.2898
▁knjige	-10.29
▁doznaje	-10.29
▁podatke	-10.29
▁polovic	-10.2903
▁Županijsk	-10.2906
tječe	-10.2913
▁poruke	-10.2918
▁Primorac	-10.2928
▁izvrsn	-10.2929
▁pišu	-10.2931
čev	-10.2944
▁pojačan	-10.2958
▁politika	-10.2958
▁osvaja	-10.2965
▁reprezentaciju	-10.2985
▁minimaln	-10.2985
▁hoda	-10.2997
▁načelnik	-10.3014
▁sjećanj	-10.3014
▁nepoznat	-10.3024
▁međutim	-10.3024
▁glumac	-10.3027
▁nedo	-10.3033
▁Ustav	-10.3052
▁morsk	-10.307
▁bolnicu	-10.3074
▁dubrovačk	-10.31
▁veljače	-10.31
▁snagu	-10.31
▁zdravlja	-10.3121
▁Sun	-10.3124
▁životn	-10.3128
▁besplatn	-10.3129
▁kazne	-10.3133
▁ligi	-10.3134
▁mjeri	-10.3146
▁uklju	-10.3148
▁komisij	-10.3158
▁divlj	-10.3165
▁Mogu	-10.3173
▁sudjeluj	-10.3187
▁podijelil	-10.3188
▁Zadru	-10.3189
▁opskrb	-10.3216
▁hrabr	-10.3216
▁Moskv	-10.3216
▁snijeg	-10.3219
▁omogu	-10.3246
▁odrasl	-10.3246
▁Moram	-10.3259
▁Slav	-10.3264
▁Srbija	-10.3266
▁apsolutn	-10.3274
▁disk	-10.3279
▁odredi	-10.3296
▁stranici	-10.3296
▁izgubi	-10.33
▁istočn	-10.3302
▁vrat	-10.3302
▁uvjerljiv	-10.3304
▁odlask	-10.3304
▁razinu	-10.3309
vukao	-10.3312
▁...'	-10.3317
▁trenira	-10.3322
▁oduševljen	-10.3333
▁KBC	-10.3333
▁objave	-10.3334
▁Wal	-10.3335
▁vrste	-10.3336
▁obranu	-10.3338
▁Japan	-10.3338
▁Đur	-10.3349
▁Q	-10.3352
▁pobijedil	-10.3356
▁potroša	-10.3363
▁tržište	-10.3363
▁financira	-10.3366
▁ugodn	-10.3367
▁direkt	-10.3385
▁najljepš	-10.3392
▁položaj	-10.3393
▁zemlju	-10.3393
▁oznak	-10.3393
▁poznaj	-10.3393
▁vjern	-10.3399
▁sadrž	-10.3403
▁David	-10.3406
▁izašl	-10.3412
▁Festival	-10.3422
▁Posljednj	-10.3422
▁odvjetništv	-10.3422
▁London	-10.3422
▁dovel	-10.3425
45	-10.3431
▁stanovništv	-10.3452
▁termin	-10.3452
▁legendarn	-10.3453
▁vlasnic	-10.3482
▁samostaln	-10.3484
▁izabran	-10.3489
▁Mur	-10.3511
▁vatrogasn	-10.3512
▁Angel	-10.3512
prilike	-10.353
▁služi	-10.3536
▁identitet	-10.3542
▁natjecatelj	-10.3542
▁favorit	-10.3542
▁djelatnost	-10.3543
lažu	-10.3552
▁onim	-10.3557
▁žup	-10.356
▁Pun	-10.3571
▁vjeruje	-10.3573
▁večeras	-10.3577
+	-10.3582
▁svjetlo	-10.3603
▁dječak	-10.3605
▁učenici	-10.3605
▁stiže	-10.3614
▁dugogodišnj	-10.3631
▁stratešk	-10.3633
▁general	-10.3633
▁pogotk	-10.3633
▁sruši	-10.3633
▁sudionik	-10.3635
▁Najviš	-10.3636
▁pogon	-10.3641
▁ulice	-10.3662
▁pripada	-10.3664
▁Ljubav	-10.3691
▁razdoblje	-10.3694
▁reprezentativac	-10.3694
▁zahtijeva	-10.3694
▁objasnil	-10.3694
▁postojeć	-10.3694
▁izvanredn	-10.3695
letio	-10.3699
▁potpun	-10.3699
▁Brun	-10.3717
▁"...	-10.3723
▁isključivo	-10.3725
▁najčešć	-10.3725
▁krenuo	-10.3726
▁štetu	-10.3728
▁Bivš	-10.3749
▁izabra	-10.3752
▁cesti	-10.3753
▁Bayern	-10.3756
▁natjecanje	-10.3756
▁transfer	-10.3756
▁olakša	-10.3756
▁zastupnic	-10.3756
▁tenisač	-10.3758
▁osigurava	-10.3764
▁izbaci	-10.3771
▁Plan	-10.3775
▁lažn	-10.3781
ološki	-10.3782
▁Međunarodn	-10.3786
▁zabilježen	-10.3786
▁posvećen	-10.3787
▁paket	-10.379
▁radovi	-10.3795
▁cijenu	-10.3808
▁putovanja	-10.3818
▁povratak	-10.3825
▁biljež	-10.3825
▁županija	-10.3827
▁snimanj	-10.3833
▁stanic	-10.3836
▁Englesk	-10.3848
▁književn	-10.3848
▁proglašen	-10.3848
▁Perišić	-10.3849
▁vlast	-10.3856
▁šećer	-10.388
▁otvoril	-10.3885
▁borbu	-10.3891
▁Mel	-10.3894
▁širok	-10.3911
▁hranu	-10.3913
▁uključen	-10.3914
▁Ligi	-10.3919
▁povrat	-10.3928
▁izvijesti	-10.3932
▁Stip	-10.3939
▁intervencij	-10.3942
▁smješten	-10.3942
▁Harris	-10.3942
▁suradnju	-10.3942
▁zatraži	-10.3943
▁ponavlja	-10.3943
▁prijenos	-10.3948
▁Vatren	-10.3974
▁manifestacij	-10.3974
▁uobičajen	-10.3974
▁nastavak	-10.3974
▁obrazovanja	-10.3974
▁Danijel	-10.3978
▁Marijan	-10.3982
Zc	-10.3984
▁razine	-10.3994
▁lokacija	-10.4005
▁plovi	-10.4008
▁opravda	-10.4008
▁omogućuj	-10.4009
▁miris	-10.4021
▁krajnj	-10.4024
▁kontrolira	-10.4037
▁glazbenik	-10.4038
▁dečk	-10.406
▁međusobn	-10.4069
▁nažalost	-10.4069
▁Smatra	-10.4069
▁Živ	-10.408
▁Zlatk	-10.408
▁osobi	-10.4082
▁zaposlenik	-10.4093
▁priopćil	-10.41
▁servis	-10.4101
▁verzij	-10.4101
▁Chris	-10.4103
▁prostorij	-10.4112
▁obori	-10.413
▁oružja	-10.4132
▁trofej	-10.4132
▁zapovjednik	-10.4132
▁usmjeren	-10.4132
▁utjecat	-10.4133
▁Kraljev	-10.4133
▁pomaže	-10.4135
▁filmsk	-10.4146
▁dvostruk	-10.4164
▁siguran	-10.4164
▁klimatsk	-10.4164
▁gostovanj	-10.4164
▁proširi	-10.4164
▁božićn	-10.4165
▁živjeti	-10.4165
▁struktur	-10.4166
▁plod	-10.4166
▁povratk	-10.4171
▁zadovoljstv	-10.4197
▁krevet	-10.4197
▁Jutarnj	-10.4197
▁Vijeć	-10.4199
▁tadašnj	-10.4202
▁postane	-10.4202
▁Rusije	-10.4212
▁smrtn	-10.422
@	-10.4229
▁oružje	-10.4229
▁sadašnj	-10.4238
▁važan	-10.4241
▁promijenil	-10.4242
▁zimsk	-10.4249
ight	-10.4253
▁misij	-10.4259
▁recept	-10.4261
▁mentaln	-10.4262
▁odlazi	-10.4268
▁umjetnosti	-10.4272
▁Tešk	-10.4279
▁preminuo	-10.4294
▁završetk	-10.4294
▁zdravstva	-10.4294
fin	-10.4301
▁dostav	-10.4303
▁gradnj	-10.4305
▁kvadrat	-10.4326
▁najnovij	-10.4328
▁ogromn	-10.4332
▁Berlin	-10.4334
▁ljut	-10.4336
▁očekivati	-10.4359
▁turizma	-10.4361
▁nasilja	-10.4362
▁jednostavn	-10.4379
bacio	-10.4387
▁2017.	-10.4392
▁projekata	-10.4392
▁Sjedinjen	-10.4392
▁prioritet	-10.4392
▁najpoznatij	-10.4392
▁trajanj	-10.4397
▁kiša	-10.4416
▁pritisak	-10.4425
▁ogr	-10.4428
▁svjedoči	-10.443
▁policiji	-10.443
▁ispuni	-10.4431
▁rodn	-10.4432
▁demokratsk	-10.4432
X	-10.444
▁Jedin	-10.4455
▁korist	-10.4456
▁humanitarn	-10.4458
▁Treć	-10.4459
▁Hrvatskom	-10.4466
que	-10.4472
▁unutrašnjost	-10.4491
▁vlasništvu	-10.4491
▁mišljenje	-10.4491
▁bazen	-10.4493
▁zaključil	-10.4493
▁izacij	-10.4495
▁vezu	-10.4518
▁izvođač	-10.4524
▁zainteresiran	-10.4524
▁Njezin	-10.4524
▁dugoročn	-10.4524
▁korupcij	-10.4524
▁Dnevnik	-10.4527
▁križ	-10.4528
▁platiti	-10.4528
▁pogledati	-10.453
▁povremen	-10.4542
▁istaknul	-10.4557
_	-10.4557
▁svrh	-10.4559
▁zadarsk	-10.4564
▁ugled	-10.4568
▁svijest	-10.4574
▁proša	-10.4579
▁borba	-10.4583
▁međuvremenu	-10.4591
▁kapital	-10.4591
▁pobjedom	-10.4591
▁suradnje	-10.4591
▁Južn	-10.4596
▁slatk	-10.4597
▁udaljen	-10.4599
▁Brod	-10.4599
▁Američk	-10.4605
▁kazališt	-10.4611
▁registr	-10.4621
▁Dražen	-10.4624
▁upotreb	-10.4624
▁Drago	-10.4633
pustio	-10.4634
▁lijekov	-10.4634
▁nositelj	-10.4635
▁Jelen	-10.4636
▁igara	-10.4645
▁Matij	-10.4659
▁sobom	-10.4662
▁proveo	-10.4665
sigurno	-10.4675
▁ljubavn	-10.4682
▁javil	-10.4682
▁Eurosong	-10.4692
▁Lasagna	-10.4692
▁gospodarstva	-10.4692
▁nekadašnj	-10.4692
▁uzvrat	-10.4693
▁pliva	-10.4699
▁and	-10.47
▁kupnj	-10.4703
panj	-10.4708
▁oštr	-10.4709
▁žut	-10.4711
▁strategij	-10.4726
▁knjiga	-10.4726
▁kriminalističk	-10.4726
▁suočava	-10.4726
▁Srpsk	-10.4727
▁karton	-10.4728
▁pametn	-10.4742
▁predstavnici	-10.4752
▁Dubrovačk	-10.476
▁preminul	-10.476
▁obvezn	-10.4775
▁skriva	-10.4777
▁medicin	-10.478
▁fizi	-10.4787
▁disciplin	-10.4794
▁ekstrem	-10.4794
▁glasnogovorni	-10.4794
▁podrške	-10.4794
▁ispričal	-10.4794
▁šibensk	-10.4794
▁provedb	-10.4794
▁formira	-10.4799
stovremeno	-10.4799
▁Gazi	-10.4801
▁završnic	-10.4803
▁Nadam	-10.4805
▁idealn	-10.4815
▁publika	-10.4828
▁preuzima	-10.4828
▁muškarca	-10.4828
▁optužb	-10.4828
▁koševa	-10.4829
▁kampanje	-10.4829
▁izaziva	-10.483
▁Sandr	-10.4844
▁trajn	-10.4852
▁napomenu	-10.4862
▁slovensk	-10.4863
▁stožer	-10.4863
▁ključ	-10.4897
▁ispričao	-10.4897
▁kretanj	-10.4898
▁planiran	-10.4915
▁promijeni	-10.4927
▁kaznu	-10.4932
▁razumijevanj	-10.4934
baviti	-10.4935
hvaćen	-10.4966
▁podsjeća	-10.4966
▁osobu	-10.4966
▁realizira	-10.4966
▁Klub	-10.4968
▁misle	-10.4969
▁osuđen	-10.4973
▁Paul	-10.4997
▁GALERIJA	-10.5001
▁prisjeti	-10.5001
▁liječnic	-10.5002
▁staln	-10.5018
▁Koprivnic	-10.5027
▁mirn	-10.5031
▁očekuju	-10.5036
▁banke	-10.5037
mišlja	-10.5039
▁metod	-10.505
▁potrošnj	-10.5071
▁Manche	-10.5071
▁Pavl	-10.5078
▁Vodi	-10.5081
ü	-10.5106
▁Švicarsk	-10.5106
▁prekrasn	-10.5106
▁Nikad	-10.5121
▁otići	-10.5121
▁projektil	-10.5122
▁službenici	-10.5124
▁priličn	-10.5126
▁kvalifikacija	-10.5142
▁povećava	-10.5142
▁osvrnu	-10.5142
▁stradal	-10.5142
▁Mladi	-10.5143
▁zvuk	-10.5159
▁poslijepodne	-10.5177
▁kontrolu	-10.5177
▁građevinsk	-10.5177
▁spašava	-10.5177
▁vremenom	-10.5177
▁rukama	-10.5178
▁ubrza	-10.5184
▁podaci	-10.5201
▁Italije	-10.5213
▁akcije	-10.5216
▁poduzetnik	-10.5223
▁izvršn	-10.524
▁grmljavin	-10.5248
▁element	-10.5248
▁web	-10.5249
▁ispunjen	-10.5249
ign	-10.5249
▁ploč	-10.5252
▁vojske	-10.5254
LA	-10.5278
▁publiku	-10.5284
▁varaždinsk	-10.5284
▁zapošljava	-10.5284
▁Posao	-10.5285
▁baštin	-10.5319
▁ograni	-10.5319
▁zlostavlja	-10.532
▁dvadeset	-10.532
▁poziciji	-10.532
▁klupi	-10.532
▁pješ	-10.5321
▁Boris	-10.5321
▁pomalo	-10.5329
▁klasi	-10.5348
▁Cijel	-10.5353
▁televizijsk	-10.5356
▁vatren	-10.5356
▁ishod	-10.536
▁nsko	-10.536
▁Cilj	-10.5363
▁ostvaril	-10.5365
▁bliž	-10.5375
▁stranačk	-10.5377
▁Vjerujem	-10.5393
▁muškarci	-10.5393
▁Film	-10.5393
▁razlike	-10.5394
▁optužen	-10.5414
▁elektro	-10.5425
▁Nažalost	-10.5429
▁životinja	-10.5432
▁akcija	-10.5433
▁Rusiji	-10.5442
▁posljedice	-10.5465
▁terapij	-10.5466
▁obožava	-10.5466
▁bolest	-10.547
▁čelnik	-10.5471
▁gospodar	-10.5471
▁datum	-10.5472
▁banka	-10.5474
▁pušten	-10.5478
▁Poznat	-10.5502
▁pozval	-10.5503
▁brodov	-10.5506
▁kiše	-10.5506
▁desetljeća	-10.5539
▁Ujedinjen	-10.5539
▁nedjelje	-10.5539
▁vojska	-10.5539
▁češć	-10.5546
▁štit	-10.5551
▁usred	-10.5551
▁rezultira	-10.5576
▁Severin	-10.5576
▁kin	-10.5577
▁ulozi	-10.5588
▁Nizozemsk	-10.5589
▁legend	-10.5612
▁kompleks	-10.5613
▁tržišta	-10.5613
▁neugodn	-10.5613
▁djelatnik	-10.5614
▁putovanje	-10.5614
▁zabavn	-10.5615
▁ogled	-10.5616
▁glavi	-10.5623
▁ugostit	-10.563
▁umirovljen	-10.5639
▁Jugoslavij	-10.565
▁fenomen	-10.565
▁Dinamu	-10.565
▁snimke	-10.5652
Č	-10.5674
▁vratil	-10.5678
▁definitivn	-10.5687
▁podrška	-10.5687
▁reform	-10.5688
:30	-10.5688
▁mikro	-10.5688
▁prirode	-10.5689
itanij	-10.5708
▁promatra	-10.5725
▁prijave	-10.5727
▁redovn	-10.5733
▁grij	-10.574
▁točn	-10.5761
▁OVDJE	-10.5762
▁definira	-10.5762
▁stranicama	-10.5763
▁predvodi	-10.5766
▁želja	-10.577
▁vodstv	-10.5775
▁ciklus	-10.58
▁poluvremenu	-10.58
▁Stjepan	-10.58
▁HNS	-10.58
▁optužnic	-10.58
▁emotivn	-10.5802
▁bolesn	-10.5812
▁troje	-10.5814
stupan	-10.5822
▁doseg	-10.5828
▁Švedsk	-10.5838
▁zamjenik	-10.5838
▁gužv	-10.5838
▁pomaga	-10.5839
▁događanj	-10.5858
▁investitor	-10.5876
▁strijelac	-10.5876
▁predviđen	-10.5876
▁uništi	-10.5877
▁zadatak	-10.5877
▁vodom	-10.5883
▁organiziran	-10.5902
€	-10.5914
▁natjecanju	-10.5914
▁oporbe	-10.5914
▁skupštin	-10.5914
▁pogodil	-10.5917
▁istrage	-10.5919
▁seriji	-10.5926
▁Korej	-10.5937
▁kontinuiran	-10.5952
▁scenarij	-10.5952
▁čvrst	-10.5953
▁rujnu	-10.5953
▁mreža	-10.5958
▁Godin	-10.5965
▁odgovorn	-10.5979
▁konkurent	-10.5991
▁civiln	-10.5991
▁preostal	-10.5992
▁kazna	-10.5992
▁poljoprivredn	-10.6024
rušen	-10.6027
▁William	-10.6029
▁publike	-10.6029
▁Viktor	-10.603
▁Centra	-10.6031
▁jutarnj	-10.6031
▁sinoć	-10.6031
▁djecom	-10.6034
▁scene	-10.6034
▁učinil	-10.6049
▁Chi	-10.6063
▁financiranj	-10.6063
▁kontekst	-10.6068
▁pokraj	-10.6068
▁kritizira	-10.6069
▁mreži	-10.6069
▁dojam	-10.6079
▁Križevci	-10.6107
▁Tomašević	-10.6107
▁tehnološk	-10.6107
▁raspoložen	-10.6107
▁zvuč	-10.612
▁završn	-10.6123
▁klasičn	-10.6131
▁Grčk	-10.6144
▁helikopter	-10.6146
▁motocikl	-10.6146
▁štrajk	-10.6146
▁klupsk	-10.6146
▁doživjel	-10.6146
▁trgovačk	-10.6146
▁kriterij	-10.6147
▁osvojen	-10.6147
▁krenut	-10.615
▁kućn	-10.6165
▁sjaj	-10.6166
▁započel	-10.6181
▁usporedb	-10.6186
▁ustvrdi	-10.6186
▁Otkri	-10.6186
▁okupljanj	-10.6187
▁promocij	-10.619
▁smjes	-10.619
▁Odluk	-10.6191
▁suvremen	-10.6216
▁crkve	-10.6225
▁ponudu	-10.6225
▁ekološk	-10.6225
▁Najveć	-10.6226
▁poticaj	-10.6227
▁tvornic	-10.6229
▁kruh	-10.6234
▁umjetnik	-10.6257
▁austrijsk	-10.6264
▁kraljevsk	-10.6264
▁tzv	-10.6265
▁strast	-10.6279
ö	-10.6304
▁Beroš	-10.6306
▁Zemlj	-10.6307
▁čitatelj	-10.631
▁Kijev	-10.6311
▁Takv	-10.6316
▁kandidatkinj	-10.6322
▁2015.	-10.6344
▁operacije	-10.6344
▁chef	-10.6344
▁proglasi	-10.6344
▁Crkv	-10.6344
▁napominj	-10.6344
▁regije	-10.6344
▁sudsk	-10.6346
▁učitelj	-10.6346
▁razlika	-10.6347
▁izjava	-10.637
▁Washington	-10.6384
▁unaprijed	-10.6384
▁mrežu	-10.6384
▁Libanon	-10.6384
▁Slavonij	-10.6388
▁Gordan	-10.6394
▁obrana	-10.64
▁dvorišt	-10.6424
▁otvorio	-10.6424
▁grešk	-10.6424
▁princez	-10.6425
▁omogućit	-10.6428
▁komunaln	-10.6464
▁Utakmic	-10.6464
▁masovn	-10.6465
▁Buduć	-10.6465
▁tijelu	-10.6465
▁poboljšanj	-10.6471
▁hrana	-10.6471
▁Areni	-10.6473
izacije	-10.6484
▁Nin	-10.6487
▁prijateljic	-10.6498
▁Zdravlje	-10.6505
▁ubojstvo	-10.6505
▁veličin	-10.6505
▁Čest	-10.6519
▁budi	-10.6524
▁živjel	-10.6531
[	-10.6536
▁angažira	-10.6545
▁kategorije	-10.6545
dalmacija	-10.6547
▁strašn	-10.6547
▁baterij	-10.6548
▁slavlje	-10.6548
▁vjerovati	-10.655
▁zakonsk	-10.6564
▁Rumunjsk	-10.6586
▁dužnosnik	-10.6586
▁potvrđuj	-10.6586
▁Ministar	-10.6587
▁odabir	-10.6588
▁Križ	-10.6613
▁mirovinu	-10.6627
▁utrke	-10.6627
▁medalje	-10.6627
▁obilaz	-10.6628
▁sceni	-10.6634
▁izjave	-10.6635
▁miješa	-10.665
▁Australij	-10.6652
▁USKOK	-10.6668
▁Gattuso	-10.6668
▁vaterpol	-10.6668
▁očuvanj	-10.6669
▁zlato	-10.667
▁postigl	-10.667
▁ocijeni	-10.667
▁mobiln	-10.6675
▁razumij	-10.6689
▁konzerv	-10.671
▁junior	-10.671
▁segment	-10.6712
▁Problem	-10.6751
▁precizn	-10.6752
▁poslove	-10.6752
▁Hoće	-10.6753
▁turisti	-10.6775
▁pljuskov	-10.6793
▁upozorenje	-10.6793
▁Mamić	-10.6794
▁složi	-10.6797
▁gubitk	-10.6802
▁prijateljsk	-10.682
▁Sloven	-10.6825
▁koncentracij	-10.6835
▁obramben	-10.6835
▁publici	-10.6835
▁financija	-10.6835
▁poduzeć	-10.6835
▁Splićan	-10.6835
▁obrazovanje	-10.6835
▁najavljuj	-10.6835
▁palestinsk	-10.6877
▁vatrogasac	-10.6877
▁zaštićen	-10.6877
▁operativn	-10.6877
▁Dominik	-10.6878
▁umirovljenik	-10.689
▁dovodi	-10.6891
dugo	-10.69
▁Jakirović	-10.6919
▁Želim	-10.692
reporter	-10.6924
▁rješavanj	-10.6954
▁sindikat	-10.6961
ukladno	-10.6961
▁županijsk	-10.6962
▁suparnik	-10.6962
▁tvrdnj	-10.6965
▁rješava	-10.6968
▁Cijen	-10.6985
▁pozitiv	-10.6991
▁Charles	-10.7004
▁pandemij	-10.7004
▁četvero	-10.7004
▁nedostaje	-10.7004
▁počinitelj	-10.7004
▁predviđa	-10.7004
▁primanj	-10.7004
▁ponude	-10.7004
▁Zlatn	-10.7004
▁tursk	-10.7004
▁najavljen	-10.7006
▁ljubitelj	-10.7008
▁Vladi	-10.7011
▁Republik	-10.7014
▁iskusn	-10.7032
▁obljetnic	-10.7047
▁Georg	-10.7047
▁završava	-10.7047
doslovno	-10.7047
▁nastavil	-10.7049
▁gospodarstvo	-10.7049
▁trajat	-10.7081
▁troškova	-10.709
▁emocionaln	-10.709
▁majke	-10.7091
▁prijava	-10.7096
▁front	-10.7104
▁Dalmaciji	-10.7133
▁majstor	-10.7133
▁predloži	-10.7133
▁sretan	-10.7134
▁pretvori	-10.714
nline	-10.7155
▁porezn	-10.716
▁Flor	-10.7163
rstva	-10.7168
ficir	-10.7169
▁pozicije	-10.7176
▁snimljen	-10.7177
▁produkcij	-10.7177
▁pobjedi	-10.7178
▁završen	-10.7178
▁crijev	-10.7178
▁Daniel	-10.7178
▁najtež	-10.7201
▁početn	-10.7212
▁povećat	-10.7226
▁transparent	-10.7263
▁čokolad	-10.7263
▁prepoznatljiv	-10.7263
▁lipnju	-10.7264
▁Društv	-10.7264
▁posjetitelji	-10.7264
▁porasl	-10.7265
▁moćn	-10.727
▁dokumentacij	-10.7273
▁vladajuć	-10.7287
▁eksplozij	-10.7307
▁pripadnik	-10.7307
▁održal	-10.7307
▁akciju	-10.7309
jpg	-10.7314
▁smjen	-10.7331
vremeno	-10.7345
▁neposredn	-10.7351
▁postupka	-10.7351
▁sloboda	-10.7351
▁Đoković	-10.7351
▁imovine	-10.7351
▁oprosti	-10.7351
▁obveza	-10.7356
▁tekuć	-10.7377
▁srpnj	-10.7387
▁analizira	-10.7395
▁infek	-10.7395
▁realizacij	-10.7395
▁neobičn	-10.7395
▁kamion	-10.7396
▁Francuz	-10.7396
▁Albanij	-10.7396
▁klijent	-10.7396
▁Glav	-10.74
▁snimka	-10.74
▁atraktivn	-10.744
▁edukacij	-10.744
▁polufinalu	-10.744
▁potpredsjednik	-10.744
▁najmlađ	-10.744
▁mirovine	-10.744
▁sreću	-10.744
▁Pokuša	-10.744
▁Javn	-10.7443
▁Sergej	-10.7484
▁spektakl	-10.7484
▁prikuplja	-10.7484
▁trojic	-10.7489
▁ubojstva	-10.7529
▁svibnju	-10.7529
▁medalju	-10.7529
▁Rujevic	-10.7529
▁plus	-10.753
▁smanjen	-10.7538
▁izlask	-10.7562
▁kontinent	-10.7574
▁Reuters	-10.7574
▁alternativ	-10.7574
▁Balkan	-10.7574
▁United	-10.7574
▁ostavku	-10.7574
▁odobren	-10.7575
▁potrag	-10.7577
▁2014.	-10.7619
▁policajac	-10.762
▁ekran	-10.762
▁glave	-10.7625
▁Nenad	-10.763
▁nastavn	-10.7643
▁sprema	-10.7648
▁2012.	-10.7665
▁Program	-10.7665
▁Kekin	-10.7666
▁ponuda	-10.7667
▁ispitivanj	-10.7671
▁ravnateljic	-10.7702
▁područjima	-10.7711
▁Centar	-10.7711
▁medalja	-10.7711
▁zaključuj	-10.7711
▁Grbin	-10.7713
▁odbija	-10.7714
▁režim	-10.7722
▁donošenj	-10.7756
▁Italiji	-10.7756
▁prisustv	-10.7757
▁Plenkovi	-10.776
▁Njema	-10.7763
▁analitičar	-10.7803
▁demokracij	-10.7803
▁republik	-10.7803
▁studenom	-10.7803
▁maloljetn	-10.7804
▁osvajanj	-10.7804
▁Sportsk	-10.7806
▁inovacij	-10.7811
▁bronc	-10.7831
▁duhovn	-10.7851
▁Glum	-10.7852
▁kolnik	-10.7853
▁povoljn	-10.7861
▁trajal	-10.7871
▁jugozapad	-10.7895
▁eksperiment	-10.7895
▁glazbu	-10.7895
▁listopadu	-10.7895
▁glavom	-10.7896
vrijedan	-10.7898
▁slobodu	-10.7942
▁Trenutn	-10.7942
▁dopušten	-10.7942
▁sugerira	-10.7942
▁skandal	-10.7942
▁službi	-10.7942
▁spremno	-10.7942
▁Trener	-10.7943
▁Nedavn	-10.7944
▁Croatia	-10.7989
▁kampanju	-10.7989
▁trajekt	-10.799
▁razmjen	-10.799
▁gostujuć	-10.7991
▁hrani	-10.7999
▁prebaci	-10.8014
▁asistencija	-10.8036
▁izložbe	-10.8036
▁konzumira	-10.8036
▁prosincu	-10.8036
▁spriječiti	-10.8036
▁Ronald	-10.8036
▁opreme	-10.8036
▁trenucima	-10.8036
▁mještan	-10.8036
▁jačanj	-10.8059
▁resurs	-10.8084
▁komunicira	-10.8084
▁igrališt	-10.8092
▁pokojn	-10.8094
▁ničk	-10.8107
▁nadolazeć	-10.8131
▁perspektiv	-10.8131
▁pjesama	-10.8131
▁napredak	-10.8131
▁Rimac	-10.8132
▁uporab	-10.8132
▁Gleda	-10.8133
▁omogućil	-10.8134
▁foto	-10.8135
nzul	-10.8139
▁Nadal	-10.815
▁kontrole	-10.8179
▁pogrešk	-10.8179
▁proširen	-10.8179
▁Pobjed	-10.8179
▁images	-10.818
Class	-10.8193
▁izazvao	-10.8227
▁pouzdan	-10.8227
▁agresij	-10.8227
▁prijavljen	-10.8227
▁prekinut	-10.8227
▁nazvao	-10.8228
▁vjeruju	-10.8228
▁Hezbolah	-10.8275
▁kulturu	-10.8275
▁poginuli	-10.8275
▁slobode	-10.8275
▁služba	-10.8275
▁graničn	-10.8276
▁podizanj	-10.8276
▁lansira	-10.8279
▁zamisli	-10.8307
▁teorij	-10.8311
▁Argentin	-10.8324
▁gospodin	-10.8324
▁potroši	-10.8324
▁napredova	-10.8324
▁ilegaln	-10.8324
▁biskup	-10.8325
▁Kaštel	-10.8326
▁skladišt	-10.8337
▁predizborn	-10.8373
▁troškove	-10.8373
▁slijede	-10.8373
▁Palestin	-10.8373
▁boravi	-10.8382
▁siječnj	-10.8402
▁Zagrep	-10.8422
▁Krešimir	-10.8422
▁angažman	-10.8422
▁signal	-10.8422
▁Grand	-10.8424
▁istražn	-10.8432
▁kartic	-10.8441
Y	-10.847
▁1991.	-10.8471
▁osnivač	-10.8471
▁sreće	-10.8471
▁faktor	-10.8471
▁Hrvoje	-10.8471
▁pozicija	-10.8472
▁dočekal	-10.8472
▁nekakv	-10.8475
▁štetn	-10.8503
▁upoznal	-10.8518
▁ekonomij	-10.8521
▁kombinira	-10.8521
▁prikupi	-10.8521
NBA	-10.8526
▁majic	-10.854
▁pokrenul	-10.8548
remijer	-10.8553
▁nemoguć	-10.857
▁specifičn	-10.857
▁automatsk	-10.857
▁letjelic	-10.857
▁travnju	-10.857
▁kampanji	-10.8571
▁Ukupn	-10.8571
▁relativn	-10.8574
▁osigural	-10.8615
▁Gvardiol	-10.862
▁eventualn	-10.862
▁postrojb	-10.862
▁najstarij	-10.862
▁simpati	-10.862
▁Predstav	-10.8621
▁Priprem	-10.8622
▁vladi	-10.8623
▁limun	-10.8626
▁korijen	-10.8628
▁pilot	-10.8636
▁penal	-10.864
▁bogatstv	-10.8647
▁Općinsk	-10.867
▁avantur	-10.8671
▁potaknut	-10.8671
▁izdvoji	-10.8671
▁gledatelji	-10.8674
▁težin	-10.8692
▁nedostatk	-10.8721
▁veljači	-10.8721
▁Google	-10.8721
▁Studen	-10.8722
▁Dragi	-10.8723
▁ubojic	-10.8731
▁zlata	-10.8736
▁sitn	-10.8748
▁ručn	-10.8758
▁apartman	-10.8772
▁dijagnosti	-10.8772
▁transformacij	-10.8772
▁Projekt	-10.8772
▁zadobi	-10.8773
▁tunel	-10.8814
▁DORH	-10.8823
▁izgrađen	-10.8823
▁Borussi	-10.8823
▁2-1	-10.8823
▁1-0	-10.8823
▁Oliver	-10.8823
▁napravljen	-10.8824
▁pojedinačn	-10.8827
▁Dalmacije	-10.8874
▁industrije	-10.8874
▁inozemstvu	-10.8874
▁inspirira	-10.8874
▁oduševil	-10.8874
▁tržišn	-10.8874
▁aspekt	-10.8874
▁površine	-10.8874
▁očevid	-10.8874
▁pratitelji	-10.8878
▁šetnj	-10.8879
▁Gotov	-10.888
▁pročita	-10.8885
▁Dalmacija	-10.8926
▁pogođen	-10.8926
▁Osnovn	-10.8926
▁gledatelja	-10.8927
▁povjerenstv	-10.8977
▁Makedon	-10.8977
▁poznava	-10.8978
▁objavu	-10.8979
▁masn	-10.8991
▁zagreba	-10.9009
▁operacija	-10.903
▁smanjuje	-10.903
▁2-0	-10.903
á	-10.9082
▁2013.	-10.9082
▁troškovi	-10.9082
▁zadržava	-10.9082
▁učinak	-10.9083
▁pozvan	-10.9083
▁odredb	-10.9099
▁komentiral	-10.9111
▁2026.	-10.9135
▁Nogometaš	-10.9135
▁dužnosnici	-10.9135
▁DVD	-10.9135
▁James	-10.9135
▁Katarin	-10.9136
▁prihvatil	-10.9136
▁dubin	-10.914
▁predsjedni	-10.9173
▁2011.	-10.9187
▁knjižnic	-10.9187
▁polufinale	-10.9187
▁uzbudljiv	-10.9187
▁nezavisn	-10.9187
▁tramvaj	-10.9188
▁otvoriti	-10.9188
▁kafić	-10.9188
▁preprek	-10.9194
▁toplinsk	-10.9195
▁okonča	-10.9198
▁EPPO	-10.9241
▁krumpir	-10.9241
▁pacijenata	-10.9241
▁sufinancira	-10.9241
▁navrata	-10.9241
▁obrazovn	-10.9243
▁postići	-10.9243
voljno	-10.9244
injenic	-10.9262
▁rekonstrukcij	-10.9294
▁BBC	-10.9294
▁prosjeku	-10.9294
▁ukloni	-10.9297
▁arhitekt	-10.9334
▁sljede	-10.9347
▁Liverpool	-10.9348
▁popodne	-10.9348
▁žestok	-10.9348
▁ugrožen	-10.9348
▁doživio	-10.9348
▁podijeljen	-10.9348
▁Mladen	-10.9348
▁nasmija	-10.9349
mislite	-10.9367
▁ističk	-10.9382
▁Michael	-10.9402
▁Raspudić	-10.9402
▁poremećaj	-10.9402
▁procedur	-10.9402
▁žrtava	-10.9402
▁Muzej	-10.9402
▁Važno	-10.9402
▁procijeni	-10.9402
▁obnove	-10.9403
▁odrasta	-10.9403
▁izražen	-10.9411
▁priključ	-10.9422
▁Institut	-10.9456
▁inspektor	-10.9456
▁očekival	-10.9456
▁reprezentaciji	-10.9456
▁zadržati	-10.9456
▁neočekivan	-10.9456
▁neprijatelj	-10.9456
▁Rakitić	-10.9456
▁Varteks	-10.9456
▁vitamin	-10.9456
▁sudionici	-10.9457
▁troši	-10.9457
▁Andrij	-10.9461
▁utvrdil	-10.9465
▁iransk	-10.947
Cropix	-10.9511
▁pogrešn	-10.9511
▁nezakonit	-10.9511
▁Visok	-10.9511
▁Bjelovar	-10.9511
▁donesen	-10.9512
▁mentor	-10.9512
▁ikakv	-10.9513
▁pomorsk	-10.9524
▁Netanyahu	-10.9566
▁spriječil	-10.9566
▁liječničk	-10.9566
▁tamošnj	-10.9571
▁Blisk	-10.9618
▁Rezultat	-10.9621
▁elektran	-10.9621
▁katastrofa	-10.9621
▁koncept	-10.9621
▁Italija	-10.9621
▁šansu	-10.9621
▁veznjak	-10.9621
▁pomažu	-10.9621
▁Baturin	-10.9621
▁zaljubljen	-10.9622
▁učinio	-10.9622
▁postupanj	-10.9626
▁pružit	-10.9628
▁objavljuj	-10.9677
▁progovori	-10.9677
▁indeks	-10.9677
▁Turističk	-10.9677
▁knjigu	-10.9677
▁Sopić	-10.9677
▁boksač	-10.9677
▁kućanst	-10.9679
▁fantastičn	-10.9701
▁Kamal	-10.973
▁inteligencije	-10.9733
▁postupku	-10.9733
▁Istaknu	-10.9733
▁časopis	-10.9733
▁umrl	-10.9757
▁iznenađenje	-10.9789
▁ofenziv	-10.9789
▁ožujku	-10.9789
▁spominje	-10.9789
▁dugotrajn	-10.9789
▁zadužen	-10.9789
▁invazij	-10.9789
▁prihvatiti	-10.9789
▁lokacije	-10.9789
▁izvještaj	-10.9791
▁emitira	-10.9792
▁rukav	-10.98
▁dopust	-10.9834
▁NACIONAL	-10.9845
▁agresivn	-10.9845
▁obavještajn	-10.9845
▁mađarsk	-10.9845
▁Slovačk	-10.9845
▁istraživač	-10.9845
▁sudbin	-10.9854
▁postojanj	-10.9872
▁Zvonimir	-10.9902
▁iscrp	-10.9902
▁iznajmljiva	-10.9902
▁originaln	-10.9902
▁sprječava	-10.9902
▁mirovina	-10.9902
▁olujn	-10.9902
▁jeftinij	-10.9903
▁oduzet	-10.9905
▁obiln	-10.9908
▁intimn	-10.9908
▁tužb	-10.9909
▁lokaciji	-10.9959
▁najpopularnij	-10.9959
▁Primjerice	-10.9959
▁željezničk	-10.9959
▁mirovinsk	-10.9959
▁raznolik	-10.9959
▁procjenjuj	-10.9968
▁donacij	-11.0009
težak	-11.0011
▁izgubljen	-11.0017
▁kontroverz	-11.0017
▁natjecanjima	-11.0017
▁pripadnici	-11.0017
▁Norvešk	-11.0017
▁Miroslav	-11.0017
▁omogućava	-11.0017
▁ispunjava	-11.0017
▁suradnik	-11.0019
▁režij	-11.0033
▁surađiva	-11.0074
▁Ukrajinsk	-11.0074
▁industrijsk	-11.0074
▁sredstvima	-11.0074
▁BDP	-11.0074
▁ambicij	-11.0075
▁utrci	-11.0075
▁Makarsk	-11.0075
▁stupanj	-11.0109
▁inzistira	-11.0133
▁posjetitelje	-11.0133
▁Vozač	-11.0133
▁Anđel	-11.0134
▁stajališt	-11.0134
▁pojavljuj	-11.0135
poznati	-11.0145
▁pratnj	-11.0146
▁potvrđen	-11.0191
▁Škotsk	-11.0191
▁posjetitelja	-11.0191
▁inovativn	-11.0192
▁virus	-11.0192
▁Gruzij	-11.0192
▁pobjednic	-11.0193
balans	-11.0197
▁Bruxelles	-11.025
▁invaliditetom	-11.025
▁oporavak	-11.025
▁promovira	-11.025
▁pretjeran	-11.025
▁firm	-11.0251
▁Uskrs	-11.0309
▁prihvaća	-11.0309
▁Domagoj	-11.0309
▁Češk	-11.031
▁primarn	-11.031
▁poslovi	-11.032
▁Hitn	-11.0328
▁biračk	-11.0354
opterećen	-11.0369
▁prihvatljiv	-11.0369
▁Komisij	-11.0369
▁priušti	-11.0369
miješajte	-11.0396
=	-11.0428
▁Taylor	-11.0428
▁kolovozu	-11.0428
▁objekata	-11.0428
▁upozorenja	-11.0428
▁MUP	-11.0429
▁dodavši	-11.0429
▁zajedništv	-11.0467
▁dovoljn	-11.0467
▁trenutn	-11.0488
▁inspekcij	-11.0489
▁kandidira	-11.0489
▁reprezentativc	-11.0489
▁kolekcij	-11.0489
▁Horvat	-11.0489
▁policajci	-11.0489
▁utrka	-11.0489
▁prevencij	-11.0489
vjestan	-11.0516
▁poljsk	-11.0524
ključiti	-11.0531
▁dijagnoz	-11.0549
▁općenito	-11.0549
▁spremna	-11.0549
▁najbliž	-11.0549
▁stanovnici	-11.0549
▁poručuje	-11.0549
▁boravak	-11.0549
▁povezuje	-11.055
▁Anušić	-11.055
▁tragičn	-11.0552
▁povećal	-11.0554
▁proizve	-11.0582
▁nadoknadi	-11.061
▁dozvola	-11.061
▁ugostiteljsk	-11.061
▁uspjeti	-11.061
▁Butković	-11.061
▁sudačk	-11.065
▁DHMZ	-11.0672
▁oslobodi	-11.0672
▁akciji	-11.0672
▁naknade	-11.0672
▁pomisli	-11.0672
▁smisla	-11.0672
▁informati	-11.0672
▁izdvaja	-11.0672
▁kultn	-11.0672
▁uzrokovati	-11.0672
▁Agencij	-11.0673
▁dublj	-11.0674
▁razvijen	-11.0679
▁predivn	-11.0688
▁odgovarajuć	-11.0697
▁dozvole	-11.0733
▁Valentin	-11.0733
▁obožavatelji	-11.0734
▁izazvat	-11.0735
▁obilježil	-11.0739
▁industriji	-11.0795
▁osmijeh	-11.0796
▁privukl	-11.0796
▁prevezen	-11.0796
▁svojevrsn	-11.0796
▁pravedn	-11.0798
▁kršenj	-11.0801
▁Republic	-11.0858
▁Sindikat	-11.0858
▁nedostatak	-11.0858
▁neslužben	-11.0858
▁tranzicij	-11.0858
▁pištolj	-11.0858
IJE	-11.0859
▁Otvoren	-11.0859
▁tivn	-11.09
▁zadovolji	-11.0921
▁kolodvor	-11.0921
▁prehramben	-11.0921
▁pozornici	-11.0921
▁demokrat	-11.097
▁gospođ	-11.0984
▁konzumacij	-11.0984
▁neizvjesn	-11.0984
▁Pašalić	-11.0984
▁Vrhovn	-11.0984
▁dostojanstv	-11.0984
▁utrku	-11.0984
▁običaj	-11.0984
▁dokumentarn	-11.0988
▁UEFA	-11.1048
▁crkvi	-11.1048
▁obračun	-11.1048
▁pravosuđa	-11.1048
▁sveučilišt	-11.1048
▁poginulo	-11.1048
▁uklanjanj	-11.1048
▁potražnj	-11.1048
▁odustaj	-11.1049
▁odlučn	-11.1086
▁akademij	-11.1112
▁poslodavc	-11.1112
▁Podravk	-11.1112
▁dramatičn	-11.1112
▁Mladost	-11.1112
▁efekt	-11.1112
▁površina	-11.1112
▁pluć	-11.1113
fikacij	-11.1115
▁poticanj	-11.1119
▁kultura	-11.1176
▁raspolaganju	-11.1176
▁upućen	-11.1176
▁poginuo	-11.1177
▁tretman	-11.1177
▁Vedran	-11.1177
▁integracij	-11.1241
▁Gradonačelni	-11.1241
▁Međimurj	-11.1241
▁Kalinić	-11.1241
▁podržat	-11.1242
tječu	-11.1242
▁sramot	-11.1242
▁Dodik	-11.1242
unarodn	-11.1257
puštaju	-11.1279
kninsk	-11.1304
▁hibrid	-11.1307
▁ponedjeljka	-11.1307
▁televiziji	-11.1307
▁biznis	-11.1307
▁podigl	-11.1317
▁Dalmatin	-11.1373
▁Odgovor	-11.1373
▁gimnazij	-11.1373
▁shvaća	-11.1373
▁regulira	-11.1373
▁figur	-11.1373
▁isproba	-11.1373
▁postizanj	-11.1373
▁započinj	-11.1373
Ć	-11.1388
▁nedavn	-11.1416
▁Španjolc	-11.1439
▁Poslije	-11.1439
▁bacanj	-11.1477
▁profesional	-11.1498
▁Dnevn	-11.15
▁Tuđman	-11.1505
▁genocid	-11.1505
▁informira	-11.1505
▁menadžer	-11.1505
▁volonter	-11.1505
▁naknadn	-11.1506
▁kazališn	-11.1506
▁molitv	-11.1506
▁izvještava	-11.1508
▁bračn	-11.1525
▁identificira	-11.1573
▁komercijaln	-11.1573
▁populacij	-11.1573
▁galerij	-11.1578
▁građansk	-11.1579
▁2010.	-11.164
▁centimetara	-11.164
▁industrija	-11.164
▁inspiracij	-11.164
▁četvrtfinale	-11.164
▁Dubravk	-11.164
▁Građani	-11.164
▁stražnj	-11.164
▁Primorc	-11.1642
▁obavezn	-11.1643
▁adekvatn	-11.1708
▁drukčij	-11.1708
▁funkciju	-11.1708
▁oslobođen	-11.1708
▁regulacij	-11.1708
▁sponzor	-11.1708
▁višestruk	-11.1708
▁liberal	-11.1709
▁fotk	-11.1709
niste	-11.1753
▁intern	-11.1776
Q	-11.3125
>	-11.4897
í	-11.5987
ó	-11.6636
′	-11.8205
$	-11.8337
♬	-11.8743
ä	-12.0719
­	-12.1596
ç	-12.197
·	-12.2971
è	-12.3401
Đ	-12.5021
️	-12.7401
}	-12.7401
ñ	-12.7734
ë	-12.7734
â	-12.8079
ł	-12.9191
ø	-13.0008
ã	-13.0897
å	-13.0897
à	-13.1373
#	-13.1822
°	-13.1822
®	-13.2955
е	-13.2955
×	-13.4168
ú	-13.4835
►	-13.4835
ğ	-13.6318
ô	-13.6318
●	-13.7152
ï	-13.8061
ò	-13.9061
🟨	-13.9061
ð	-13.9061
ê	-14.0172
ß	-14.1422
î	-14.1422
⚤	-14.1422
🔥	-14.1422
ı	-14.1422
ř	-14.2851
ì	-14.2851
	-14.2851
🎁	-14.2851
😂	-14.2851
🇸	-14.4517
ė	-14.4517
🇷	-14.4517
ρ	-14.4517
μ	-14.6517
ο	-14.6517
ς	-14.6517
⁠	-14.6517
📌	-14.6517
`	-14.6517
ą	-14.6517
ě	-14.6517
🇺	-14.9017
ț	-14.9017
‒	-14.9017
♥	-14.9017
⚽	-14.9017
	-14.9017
Å	-14.9017
о	-14.9017
ń	-14.9017
ő	-14.9017
‐	-15.2351
^	-15.2351
§	-15.2351
Ú	-15.2351
ý	-15.2351
ā	-15.2351
ę	-15.2351
ȗ	-15.2351
ή	-15.2351
а	-15.2351
ј	-15.2351
‍	-15.2351
―	-15.2351
‖	-15.2351
✓	-15.2351
🇭	-15.2351
💙	-15.2351
Í	-15.2351
Ü	-15.2351
🇱	-15.735
û	-15.7351
н	-15.7351
	-15.7351
¡	-15.7351
±	-15.7351
Ä	-15.7351
Ø	-15.7351
ù	-15.7351
ĉ	-15.7351
ē	-15.7351
ȉ	-15.7351
̊	-15.7351
έ	-15.7351
α	-15.7351
‟	-15.7351
∶	-15.7351
▶	-15.7351
♡	-15.7351
♦	-15.7351
シ	-15.7351
🏻	-15.7351
🔄	-15.7351
😅	-15.7351
😍	-15.7351
😎	-15.7351
🙏	-15.7351
🟡	-15.7351
🤩	-15.7351
🤯	-15.7351
🥚	-15.7351
ă	-15.7351
ū	-15.7351
ż	-15.7351
ś	-15.7351
ș	-15.7351
ἀ	-15.7351
π	-15.7351
ό	-15.7351
τ	-15.7351
🦟	-16.732
🕸	-16.7321
🕷	-16.7322
💕	-16.7323
ྀ	-16.7324
ི	-16.7325
Ş	-16.7326
🌸	-16.7327
̧	-16.7328
Ð	-16.7329
👀	-16.733
⚠	-16.7331
ṣ	-16.7332
̈	-16.7333
Ó	-16.7334
❤	-16.7335
✔	-16.7336
Ś	-16.7337
©	-16.7338
☘	-16.7339
Ç	-16.734
Á	-16.7341
ş	-16.7342
̋	-16.7343
É	-16.7344
̌	-16.7345
⁄	-16.7346
{	-16.7347
<	-16.7348
Ö	-16.7349
•	-16.735
🇦	-16.735
🇧	-16.735
🇬	-16.735
🇮	-16.735
🇵	-16.735
🖥	-16.735
л	-16.735
Ґ	-16.735
£	-16.7351
¤	-16.7351
¿	-16.7351
À	-16.7351
È	-16.7351
Î	-16.7351
Ò	-16.7351
Ô	-16.7351
Ď	-16.7351
İ	-16.7351
ľ	-16.7351
Ł	-16.7351
ň	-16.7351
ō	-16.7351
ţ	-16.7351
ů	-16.7351
ź	-16.7351
Ƙ	-16.7351
ȃ	-16.7351
ȑ	-16.7351
ə	-16.7351
ʟ	-16.7351
̣	-16.7351
Ω	-16.7351
γ	-16.7351
χ	-16.7351
К	-16.7351
ь	-16.7351
і	-16.7351
ӣ	-16.7351
ṓ	-16.7351
ọ	-16.7351
ố	-16.7351
‰	-16.7351
↑	-16.7351
⇒	-16.7351
−	-16.7351
⏱	-16.7351
■	-16.7351
▪	-16.7351
○	-16.7351
☀	-16.7351
☃	-16.7351
☑	-16.7351
☺	-16.7351
♀	-16.7351
⚫	-16.7351
✠	-16.7351
✨	-16.7351
❄	-16.7351
传	-16.7351
多	-16.7351
陈	-16.7351
🇫	-16.7351
🇾	-16.7351
🌋	-16.7351
🌠	-16.7351
🌧	-16.7351
🌨	-16.7351
🌺	-16.7351
🌻	-16.7351
🍉	-16.7351
🍊	-16.7351
🎀	-16.7351
🎗	-16.7351
🏡	-16.7351
🐄	-16.7351
🐥	-16.7351
🐱	-16.7351
🐶	-16.7351
👁	-16.7351
👇	-16.7351
👣	-16.7351
💅	-16.7351
💋	-16.7351
💎	-16.7351
💘	-16.7351
💚	-16.7351
💟	-16.7351
💪	-16.7351
💯	-16.7351
📢	-16.7351
📱	-16.7351
📸	-16.7351
🔹	-16.7351
🕓	-16.7351
😀	-16.7351
😁	-16.7351
😉	-16.7351
😊	-16.7351
😏	-16.7351
😬	-16.7351
😭	-16.7351
🙂	-16.7351
🙌	-16.7351
🛁	-16.7351
🤍	-16.7351
🤔	-16.7351
🤢	-16.7351
🤦	-16.7351
🤪	-16.7351
🥥	-16.7351
🥰	-16.7351
🥲	-16.7351
🥹	-16.7351
🥺	-16.7351
🩹	-16.7351
🩺	-16.7351
🪐	-16.7351
🫒	-16.7351
🫠	-16.7351
🫶	-16.7351
õ	-16.7351
ӧ	-16.7351
🐦	-16.7351
👶	-16.7351
δ	-16.7351
(	-16.7351
υ	-16.7351
ω	-16.7351
🌐	-16.7351
