<unk>	0
<s>	0
</s>	0
▁i	-0
▁a	-1
▁o	-2
▁s	-3
je	-4
▁n	-5
▁u	-6
▁p	-7
▁e	-8
▁d	-9
▁t	-10
▁k	-11
▁,	-12
▁je	-13
ra	-14
▁.	-15
▁m	-16
▁v	-17
▁na	-18
▁z	-19
▁l	-20
re	-21
▁b	-22
▁po	-23
▁g	-24
ri	-25
ti	-26
va	-27
ro	-28
ja	-29
ko	-30
li	-31
▁ko	-32
▁za	-33
st	-34
la	-35
ma	-36
▁da	-37
▁c	-38
ar	-39
▁se	-40
▁ni	-41
▁ra	-42
en	-43
▁st	-44
in	-45
▁ne	-46
ju	-47
▁do	-48
vo	-49
▁;	-50
▁&	-51
▁od	-52
an	-53
▁on	-54
te	-55
▁om	-56
▁iz	-57
ji	-58
▁su	-59
▁bi	-60
▁ka	-61
▁in	-62
▁no	-63
▁en	-64
▁re	-65
▁š	-66
▁go	-67
▁S	-68
▁č	-69
▁P	-70
▁"	-71
to	-72
ru	-73
vi	-74
ka	-75
▁an	-76
▁pre	-77
lj	-78
▁mo	-79
▁-	-80
▁pro	-81
▁M	-82
▁sa	-83
▁N	-84
lo	-85
▁ti	-86
no	-87
car	-88
na	-89
mo	-90
da	-91
▁te	-92
▁ac	-93
ve	-94
▁li	-95
▁to	-96
▁ic	-97
▁pri	-98
▁vi	-99
▁D	-100
▁io	-101
sk	-102
▁2	-103
▁r	-104
di	-105
▁1	-106
▁h	-107
▁og	-108
▁ih	-109
ta	-110
▁vo	-111
▁ima	-112
▁B	-113
▁la	-114
▁ob	-115
▁sk	-116
▁os	-117
▁ma	-118
▁0	-119
▁im	-120
će	-121
▁K	-122
▁jed	-123
▁T	-124
▁ve	-125
le	-126
nj	-127
▁ta	-128
er	-129
▁j	-130
▁I	-131
▁O	-132
▁H	-133
or	-134
▁ro	-135
▁A	-136
▁koji	-137
▁ja	-138
▁nje	-139
▁f	-140
▁ije	-141
av	-142
▁ccar	-143
▁U	-144
▁ov	-145
ni	-146
et	-147
▁ri	-148
▁iti	-149
▁mi	-150
▁V	-151
▁ak	-152
▁će	-153
▁R	-154
ran	-155
ute	-156
▁ž	-157
▁ili	-158
▁Z	-159
▁acute	-160
al	-161
▁lo	-162
▁god	-163
ij	-164
▁:	-165
▁što	-166
lu	-167
▁ju	-168
vat	-169
jen	-170
ga	-171
▁godin	-172
▁ij	-173
up	-174
▁G	-175
▁J	-176
▁ci	-177
▁pa	-178
▁ar	-179
▁me	-180
▁raz	-181
▁is	-182
▁ija	-183
▁L	-184
jed	-185
▁sko	-186
▁di	-187
▁ite	-188
▁ovi	-189
go	-190
▁gra	-191
il	-192
vor	-193
▁va	-194
▁ova	-195
▁dru	-196
gu	-197
▁ali	-198
jet	-199
ut	-200
▁al	-201
rvat	-202
▁oj	-203
▁zcar	-204
▁'	-205
vn	-206
še	-207
▁ila	-208
el	-209
▁aj	-210
▁tre	-211
ći	-212
is	-213
jel	-214
me	-215
▁bo	-216
▁kako	-217
tu	-218
▁ski	-219
▁E	-220
▁3	-221
▁or	-222
▁sp	-223
▁ot	-224
kon	-225
▁koje	-226
▁C	-227
▁er	-228
▁pr	-229
▁op	-230
▁Na	-231
▁(	-232
vr	-233
▁mje	-234
ba	-235
▁ić	-236
že	-237
▁ica	-238
▁ost	-239
▁nije	-240
za	-241
▁)	-242
zi	-243
▁sve	-244
▁up	-245
▁nos	-246
▁ig	-247
▁ru	-248
bo	-249
▁pred	-250
▁zna	-251
ki	-252
▁ama	-253
ov	-254
▁pra	-255
▁kao	-256
▁nja	-257
▁ava	-258
št	-259
▁sam	-260
▁F	-261
de	-262
▁ira	-263
▁nji	-264
▁4	-265
▁5	-266
ku	-267
▁et	-268
▁svo	-269
du	-270
▁pu	-271
▁es	-272
▁sta	-273
▁em	-274
tiv	-275
▁gla	-276
on	-277
▁naj	-278
lik	-279
▁it	-280
▁Hrvat	-281
ca	-282
jek	-283
ci	-284
▁biti	-285
▁vr	-286
▁govor	-287
▁9	-288
men	-289
▁lju	-290
jav	-291
▁ist	-292
▁ič	-293
tn	-294
▁stav	-295
▁dob	-296
ad	-297
▁ice	-298
▁Po	-299
▁če	-300
sp	-301
▁tu	-302
▁lja	-303
▁nik	-304
▁smo	-305
▁ske	-306
▁uz	-307
sn	-308
▁oli	-309
ul	-310
▁koja	-311
▁jo	-312
▁ga	-313
▁dje	-314
▁više	-315
▁du	-316
rž	-317
▁itelj	-318
▁ik	-319
▁de	-320
it	-321
▁ici	-322
▁mu	-323
▁iš	-324
▁6	-325
▁nakon	-326
dn	-327
ac	-328
▁tra	-329
im	-330
▁Š	-331
▁igra	-332
▁preds	-333
▁samo	-334
▁dana	-335
▁ku	-336
▁bio	-337
ir	-338
▁jedn	-339
▁eu	-340
▁ović	-341
▁drug	-342
rav	-343
kt	-344
▁osti	-345
▁7	-346
tak	-347
rn	-348
ven	-349
▁ud	-350
▁iva	-351
▁si	-352
▁min	-353
▁ati	-354
ao	-355
▁le	-356
ent	-357
đu	-358
▁nu	-359
▁ovo	-360
anj	-361
▁8	-362
mp	-363
rij	-364
jer	-365
▁kup	-366
▁već	-367
▁pla	-368
čn	-369
▁prije	-370
om	-371
čk	-372
▁el	-373
▁ut	-374
bor	-375
lje	-376
▁ki	-377
▁tako	-378
ce	-379
ke	-380
▁lu	-381
bog	-382
aj	-383
▁uje	-384
ne	-385
ter	-386
▁ć	-387
kao	-388
▁ove	-389
▁jer	-390
▁mogu	-391
▁be	-392
▁pod	-393
▁još	-394
▁kr	-395
▁sto	-396
▁oko	-397
▁njeg	-398
▁kon	-399
▁az	-400
un	-401
▁kra	-402
▁as	-403
▁ag	-404
▁aci	-405
▁us	-406
▁oliko	-407
▁stup	-408
▁uč	-409
▁rekao	-410
▁met	-411
▁?	-412
ako	-413
▁treba	-414
šk	-415
▁ska	-416
▁enje	-417
▁njih	-418
rije	-419
▁zbog	-420
▁svi	-421
am	-422
ak	-423
▁velik	-424
sto	-425
▁rad	-426
▁ži	-427
▁vla	-428
▁bro	-429
red	-430
▁godi	-431
▁pos	-432
▁ijsk	-433
jn	-434
▁nov	-435
▁ek	-436
▁dok	-437
▁iju	-438
▁tar	-439
su	-440
▁red	-441
ob	-442
vak	-443
▁ako	-444
▁može	-445
▁oz	-446
lic	-447
▁eg	-448
▁bilo	-449
▁bu	-450
▁uju	-451
▁man	-452
▁av	-453
▁radi	-454
▁ika	-455
rop	-456
▁iji	-457
▁au	-458
ća	-459
▁Za	-460
▁aš	-461
▁utak	-462
▁skog	-463
▁ljen	-464
dje	-465
▁ok	-466
▁sti	-467
em	-468
▁gle	-469
cij	-470
▁lje	-471
▁tva	-472
▁ol	-473
▁am	-474
▁ab	-475
lij	-476
sta	-477
▁at	-478
rad	-479
▁dst	-480
▁eura	-481
▁zi	-482
▁ub	-483
ječ	-484
jo	-485
▁dstro	-486
▁hrvat	-487
▁nek	-488
▁ad	-489
▁isp	-490
▁vrije	-491
reb	-492
▁kl	-493
▁!	-494
▁bila	-495
▁nju	-496
▁sv	-497
▁tri	-498
▁utakm	-499
▁nog	-500
▁drž	-501
jiv	-502
▁stran	-503
▁jedan	-504
var	-505
se	-506
▁grad	-507
▁skoj	-508
▁ina	-509
▁slu	-510
▁remen	-511
▁/	-512
▁uk	-513
▁vod	-514
▁ho	-515
▁nika	-516
▁Eu	-517
lav	-518
▁rotiv	-519
tin	-520
▁ilo	-521
▁pis	-522
▁tvr	-523
lit	-524
▁lan	-525
▁godiš	-526
ži	-527
▁Ne	-528
če	-529
mi	-530
▁ona	-531
▁vje	-532
đen	-533
▁izbor	-534
tor	-535
▁ren	-536
ren	-537
lad	-538
▁mjest	-539
nij	-540
van	-541
▁kada	-542
▁tan	-543
▁či	-544
kv	-545
▁ba	-546
▁iv	-547
▁pravo	-548
▁gdje	-549
▁nj	-550
▁dva	-551
▁nim	-552
▁Mi	-553
at	-554
▁bolj	-555
▁ljudi	-556
lan	-557
ješ	-558
ln	-559
▁enja	-560
▁ur	-561
▁odlu	-562
est	-563
▁pi	-564
▁ev	-565
či	-566
▁prema	-567
▁bez	-568
voj	-569
ira	-570
ok	-571
▁dan	-572
▁tr	-573
rat	-574
▁vid	-575
▁osl	-576
▁tren	-577
si	-578
▁ust	-579
▁eti	-580
▁ca	-581
▁klju	-582
▁jedno	-583
▁nam	-584
▁kad	-585
tur	-586
▁dijel	-587
joj	-588
▁nih	-589
ša	-590
▁klu	-591
rak	-592
▁ent	-593
▁ani	-594
▁icu	-595
kol	-596
ris	-597
tsk	-598
▁jedin	-599
dr	-600
▁objav	-601
▁tav	-602
▁rav	-603
tel	-604
gr	-605
io	-606
▁nosti	-607
us	-608
lem	-609
▁skih	-610
▁ul	-611
ča	-612
▁osob	-613
▁ap	-614
den	-615
▁skom	-616
▁posto	-617
što	-618
▁imo	-619
▁sm	-620
jes	-621
dat	-622
dij	-623
▁iran	-624
▁nego	-625
▁seb	-626
▁kri	-627
raž	-628
▁nad	-629
▁Europ	-630
val	-631
▁gleda	-632
▁par	-633
kr	-634
▁svoje	-635
▁oka	-636
▁nap	-637
▁mjer	-638
▁bili	-639
▁slo	-640
▁svak	-641
ši	-642
▁igu	-643
▁W	-644
▁služ	-645
▁zd	-646
▁ključ	-647
▁glas	-648
▁jen	-649
▁poz	-650
▁mora	-651
▁mog	-652
▁ivo	-653
▁br	-654
▁toga	-655
▁To	-656
▁ljiv	-657
▁tek	-658
▁ke	-659
▁nisu	-660
▁oni	-661
▁až	-662
▁ori	-663
▁zdrav	-664
▁agreb	-665
sti	-666
▁voz	-667
zon	-668
▁ing	-669
▁Č	-670
▁svoj	-671
▁ari	-672
▁nas	-673
▁sada	-674
▁ivanj	-675
▁blem	-676
▁poru	-677
▁nici	-678
▁zap	-679
rov	-680
▁poč	-681
▁An	-682
▁kan	-683
ur	-684
▁polic	-685
▁y	-686
jetn	-687
▁gr	-688
▁Ž	-689
gi	-690
▁mjen	-691
▁prem	-692
▁među	-693
▁prvi	-694
▁No	-695
▁est	-696
▁ir	-697
▁auto	-698
▁kom	-699
▁društ	-700
▁anj	-701
▁un	-702
▁ao	-703
▁rek	-704
▁prav	-705
▁dr	-706
▁sezon	-707
▁broj	-708
▁rep	-709
▁čin	-710
▁že	-711
▁mat	-712
▁vijek	-713
▁kod	-714
▁voji	-715
▁vijet	-716
▁il	-717
▁itu	-718
▁građ	-719
▁sku	-720
▁Me	-721
▁gram	-722
▁malo	-723
▁dobro	-724
jev	-725
nu	-726
as	-727
▁igurn	-728
▁milij	-729
▁tim	-730
▁zem	-731
▁minut	-732
gan	-733
▁eni	-734
▁nač	-735
▁Ni	-736
cu	-737
vić	-738
▁ele	-739
▁kre	-740
▁škol	-741
▁rez	-742
▁ast	-743
▁ustav	-744
▁tijek	-745
▁živo	-746
▁prvo	-747
▁Pre	-748
vu	-749
▁igrač	-750
▁isk	-751
rug	-752
nic	-753
▁tp	-754
▁ač	-755
▁koju	-756
▁ini	-757
▁cijen	-758
▁sad	-759
▁olo	-760
▁inf	-761
▁oja	-762
▁pe	-763
vez	-764
sl	-765
ver	-766
tit	-767
ge	-768
▁zemlj	-769
▁insk	-770
tr	-771
▁danas	-772
bil	-773
vrš	-774
▁novi	-775
▁ada	-776
▁Mar	-777
▁pet	-778
▁itet	-779
▁inter	-780
enc	-781
nim	-782
vod	-783
▁moguć	-784
gur	-785
rb	-786
▁Re	-787
tk	-788
ze	-789
▁usp	-790
▁nost	-791
▁put	-792
▁izira	-793
▁nema	-794
▁ed	-795
▁kaže	-796
▁rž	-797
▁život	-798
▁fil	-799
▁stvo	-800
▁tru	-801
▁otp	-802
tov	-803
aln	-804
▁tran	-805
▁ine	-806
▁tvor	-807
▁zab	-808
▁javn	-809
▁sre	-810
▁stva	-811
▁iona	-812
▁kojem	-813
laz	-814
▁sna	-815
▁jekt	-816
▁glavn	-817
▁sigur	-818
▁završ	-819
▁cijel	-820
▁lin	-821
▁dvi	-822
▁telj	-823
▁ip	-824
▁nešto	-825
▁nogo	-826
▁njem	-827
▁stven	-828
ub	-829
kom	-830
▁Nakon	-831
▁tome	-832
▁ional	-833
▁jeti	-834
šta	-835
meri	-836
▁rasp	-837
▁nom	-838
▁omo	-839
▁doma	-840
▁Mo	-841
▁gol	-842
▁objed	-843
ks	-844
▁itanj	-845
▁vjer	-846
▁zra	-847
gao	-848
▁Sp	-849
▁skim	-850
▁pop	-851
▁dio	-852
▁Do	-853
đa	-854
▁vodi	-855
▁tro	-856
god	-857
▁nica	-858
▁puno	-859
bn	-860
▁sati	-861
do	-862
▁una	-863
nos	-864
▁djelj	-865
▁ht	-866
ret	-867
▁zg	-868
▁dvije	-869
▁kaz	-870
▁sl	-871
▁kaza	-872
▁Ma	-873
▁metn	-874
▁mno	-875
▁zme	-876
▁tom	-877
▁tat	-878
nik	-879
▁matra	-880
duć	-881
▁kro	-882
▁etvr	-883
▁znat	-884
▁etvrt	-885
čaj	-886
▁rezul	-887
▁jednj	-888
▁upan	-889
▁vija	-890
▁zn	-891
▁ćemo	-892
▁ovanj	-893
rod	-894
▁din	-895
▁stor	-896
duk	-897
▁taj	-898
▁njez	-899
▁aka	-900
▁neki	-901
šl	-902
▁zent	-903
mac	-904
▁lazi	-905
▁fin	-906
▁um	-907
▁dalje	-908
lar	-909
▁zv	-910
▁10	-911
tko	-912
▁organ	-913
▁alo	-914
▁ćen	-915
▁način	-916
oto	-917
▁koris	-918
▁djel	-919
▁držav	-920
▁mijen	-921
▁važ	-922
▁bli	-923
▁slav	-924
▁gotov	-925
▁hvat	-926
lim	-927
▁rač	-928
he	-929
ol	-930
▁kont	-931
▁manje	-932
▁emo	-933
▁ilje	-934
▁id	-935
▁vis	-936
▁izvod	-937
▁nis	-938
▁Dan	-939
▁log	-940
▁nep	-941
▁stoji	-942
▁ep	-943
▁oš	-944
▁etiri	-945
▁Ri	-946
▁ora	-947
rt	-948
▁izac	-949
▁lučaj	-950
▁Pro	-951
▁ajduk	-952
▁zmeđu	-953
▁ituac	-954
▁ono	-955
▁jatel	-956
▁ide	-957
▁rekla	-958
raj	-959
▁nosi	-960
▁brz	-961
▁tor	-962
▁imaju	-963
▁ran	-964
▁mla	-965
▁minis	-966
▁tvara	-967
▁medij	-968
čj	-969
▁oma	-970
▁dno	-971
▁kojoj	-972
▁govar	-973
▁onda	-974
▁Nje	-975
▁dručj	-976
▁vrlo	-977
nen	-978
▁uv	-979
▁fi	-980
▁bor	-981
▁kraj	-982
▁sr	-983
▁ile	-984
▁vez	-985
▁ož	-986
▁final	-987
▁održ	-988
▁acije	-989
▁eno	-990
▁spor	-991
▁repre	-992
kaz	-993
▁vojim	-994
▁Kako	-995
▁ste	-996
▁uprav	-997
▁ce	-998
▁jve	-999
▁film	-1000
▁sjed	-1001
▁ijal	-1002
avn	-1003
▁Sve	-1004
▁kroz	-1005
▁ovima	-1006
▁ven	-1007
▁Od	-1008
▁pust	-1009
▁klub	-1010
▁jetsk	-1011
▁vam	-1012
▁adi	-1013
▁stvar	-1014
▁jako	-1015
▁Ivan	-1016
zb	-1017
▁čak	-1018
▁pun	-1019
▁polit	-1020
▁rast	-1021
▁vijes	-1022
▁tje	-1023
▁top	-1024
▁račun	-1025
▁men	-1026
▁eset	-1027
▁joj	-1028
▁rener	-1029
▁odluč	-1030
▁svoju	-1031
▁okaza	-1032
▁riječ	-1033
▁ši	-1034
▁Pri	-1035
led	-1036
▁meta	-1037
ha	-1038
▁Ako	-1039
▁lobo	-1040
▁udar	-1041
▁čki	-1042
▁ala	-1043
▁lobod	-1044
▁ržavn	-1045
▁gor	-1046
▁jak	-1047
ho	-1048
▁oč	-1049
▁vozil	-1050
▁Al	-1051
▁rež	-1052
▁Jo	-1053
log	-1054
▁w	-1055
▁20	-1056
▁inj	-1057
▁nut	-1058
▁jući	-1059
▁aktiv	-1060
▁pozna	-1061
▁tjeca	-1062
▁takođ	-1063
ben	-1064
čer	-1065
▁aca	-1066
mor	-1067
▁osvoj	-1068
▁poput	-1069
tal	-1070
▁nice	-1071
▁let	-1072
▁neće	-1073
▁sva	-1074
▁duž	-1075
▁ljub	-1076
▁puta	-1077
▁tk	-1078
▁opa	-1079
▁drugi	-1080
▁ostav	-1081
▁oc	-1082
▁list	-1083
anc	-1084
▁pada	-1085
▁služb	-1086
▁mor	-1087
▁reg	-1088
▁ime	-1089
▁ničk	-1090
od	-1091
▁Sa	-1092
▁njima	-1093
▁ijama	-1094
▁Ve	-1095
▁rijed	-1096
▁rod	-1097
▁europ	-1098
▁ijest	-1099
▁ativn	-1100
▁glazb	-1101
▁Va	-1102
▁hran	-1103
▁iranj	-1104
▁volj	-1105
▁prven	-1106
▁inanc	-1107
▁vrš	-1108
▁nosno	-1109
▁odluk	-1110
▁tanov	-1111
▁Lu	-1112
ert	-1113
▁štit	-1114
▁napad	-1115
▁živ	-1116
um	-1117
▁Milan	-1118
▁domać	-1119
▁uo	-1120
▁ej	-1121
nov	-1122
▁roš	-1123
▁komp	-1124
▁avanj	-1125
▁ito	-1126
▁noj	-1127
▁one	-1128
▁miš	-1129
▁vol	-1130
▁hr	-1131
▁gost	-1132
▁straž	-1133
▁inar	-1134
▁preko	-1135
▁dobr	-1136
▁takv	-1137
▁cilj	-1138
▁didat	-1139
▁pozi	-1140
▁žen	-1141
▁sli	-1142
▁ovaj	-1143
▁ener	-1144
▁čeka	-1145
▁zgrad	-1146
▁Tako	-1147
▁HD	-1148
▁St	-1149
▁acija	-1150
▁tisu	-1151
▁enju	-1152
▁dnost	-1153
▁bit	-1154
▁ubo	-1155
▁bac	-1156
ško	-1157
vno	-1158
▁njak	-1159
▁mjese	-1160
▁Bi	-1161
▁eki	-1162
▁ec	-1163
▁stavn	-1164
▁št	-1165
▁piše	-1166
gl	-1167
▁tkri	-1168
▁zajed	-1169
▁isti	-1170
▁voj	-1171
žen	-1172
pć	-1173
▁naš	-1174
▁biv	-1175
▁dar	-1176
▁lak	-1177
▁Iz	-1178
oba	-1179
▁kuć	-1180
▁nova	-1181
▁irati	-1182
ud	-1183
pnj	-1184
▁HDZ	-1185
▁gled	-1186
▁pjes	-1187
▁stan	-1188
▁jelo	-1189
▁plat	-1190
▁sjet	-1191
▁anje	-1192
▁sin	-1193
▁vode	-1194
▁foto	-1195
▁poruč	-1196
nir	-1197
▁kol	-1198
▁inu	-1199
▁tko	-1200
▁jte	-1201
nji	-1202
▁tvrtk	-1203
▁ten	-1204
▁ji	-1205
▁Grad	-1206
▁ože	-1207
▁Nov	-1208
▁mir	-1209
▁ubrov	-1210
▁mišlj	-1211
▁mjetn	-1212
▁zakon	-1213
▁pot	-1214
▁eren	-1215
▁okol	-1216
▁narod	-1217
▁nij	-1218
▁imao	-1219
▁Uk	-1220
▁Pl	-1221
▁zad	-1222
▁jeli	-1223
▁kojeg	-1224
▁mlad	-1225
▁Ovo	-1226
▁Varaž	-1227
čit	-1228
▁anja	-1229
▁ički	-1230
▁novo	-1231
▁15	-1232
▁dugo	-1233
▁šest	-1234
▁brojn	-1235
▁udjel	-1236
stv	-1237
▁vrh	-1238
▁sred	-1239
▁prvak	-1240
ik	-1241
▁tisuć	-1242
▁hval	-1243
vol	-1244
▁čko	-1245
▁doda	-1246
▁stati	-1247
▁sebno	-1248
met	-1249
▁EU	-1250
manj	-1251
▁teh	-1252
sim	-1253
▁energ	-1254
▁žel	-1255
▁vas	-1256
▁nac	-1257
▁iza	-1258
▁orm	-1259
▁pak	-1260
▁raf	-1261
▁laga	-1262
▁svim	-1263
▁vaš	-1264
▁dovol	-1265
▁eta	-1266
▁osoba	-1267
▁tvari	-1268
▁ultur	-1269
▁klo	-1270
▁ravno	-1271
▁jvi	-1272
▁komen	-1273
▁mobil	-1274
▁traž	-1275
▁staje	-1276
ruž	-1277
▁cest	-1278
▁nc	-1279
▁ačk	-1280
▁obran	-1281
▁učin	-1282
▁jas	-1283
▁Rijek	-1284
▁jese	-1285
▁razin	-1286
▁avaju	-1287
▁glu	-1288
▁mogao	-1289
tno	-1290
▁baš	-1291
ću	-1292
kuj	-1293
▁voza	-1294
▁jesta	-1295
▁eb	-1296
▁mijer	-1297
▁odr	-1298
▁svih	-1299
▁jesec	-1300
▁trebn	-1301
▁ević	-1302
▁ant	-1303
▁Među	-1304
▁najav	-1305
▁sud	-1306
▁eo	-1307
▁glav	-1308
▁imati	-1309
▁30	-1310
▁rtn	-1311
▁buduć	-1312
▁tada	-1313
▁icama	-1314
▁arn	-1315
▁cent	-1316
▁jever	-1317
▁veden	-1318
▁sje	-1319
▁misl	-1320
▁ana	-1321
▁sreć	-1322
▁vatr	-1323
▁kraju	-1324
▁eri	-1325
▁njega	-1326
▁metar	-1327
▁prošl	-1328
▁ate	-1329
▁ez	-1330
gov	-1331
▁ništ	-1332
▁teško	-1333
▁uš	-1334
▁toč	-1335
▁lanov	-1336
▁jel	-1337
rem	-1338
▁avi	-1339
▁eba	-1340
▁rijav	-1341
▁Pa	-1342
▁and	-1343
▁inamo	-1344
▁ogled	-1345
▁VI	-1346
▁ard	-1347
▁ameri	-1348
▁ormac	-1349
▁smanj	-1350
▁azi	-1351
▁int	-1352
▁visok	-1353
▁ovog	-1354
enk	-1355
▁Ch	-1356
▁Kr	-1357
▁tež	-1358
▁oku	-1359
▁usret	-1360
▁pomen	-1361
▁večer	-1362
▁sc	-1363
▁kval	-1364
▁plan	-1365
▁Srb	-1366
▁kazao	-1367
▁kupin	-1368
▁isto	-1369
▁alno	-1370
▁lijed	-1371
▁bude	-1372
▁voljn	-1373
▁doš	-1374
▁nikad	-1375
▁še	-1376
▁otreb	-1377
▁kar	-1378
▁rafij	-1379
▁Split	-1380
▁radn	-1381
▁koj	-1382
▁jveć	-1383
▁Ka	-1384
▁Ukraj	-1385
▁lj	-1386
▁vojn	-1387
▁of	-1388
▁gu	-1389
▁član	-1390
▁čekuj	-1391
▁eći	-1392
▁iljež	-1393
▁gen	-1394
▁grada	-1395
kor	-1396
▁ča	-1397
▁ovom	-1398
▁gosp	-1399
▁ijen	-1400
▁razn	-1401
▁obav	-1402
▁rusk	-1403
▁stvu	-1404
▁nio	-1405
▁išta	-1406
▁ujući	-1407
▁borb	-1408
▁ivota	-1409
▁Njema	-1410
▁Ko	-1411
▁čan	-1412
▁neka	-1413
id	-1414
▁cu	-1415
▁ostal	-1416
▁znač	-1417
▁šir	-1418
▁ale	-1419
▁jela	-1420
▁ike	-1421
▁tručn	-1422
▁=	-1423
kuš	-1424
▁12	-1425
▁iskus	-1426
▁ravi	-1427
▁eš	-1428
▁voren	-1429
▁rt	-1430
▁Što	-1431
▁pjesm	-1432
▁Plenk	-1433
▁izjav	-1434
▁elnik	-1435
▁trank	-1436
▁kap	-1437
▁dalj	-1438
▁knji	-1439
▁ovjek	-1440
▁Je	-1441
▁Ali	-1442
▁pita	-1443
raz	-1444
▁kor	-1445
▁glum	-1446
▁pokuš	-1447
▁demo	-1448
▁eme	-1449
▁kin	-1450
▁rješ	-1451
tan	-1452
▁VID	-1453
▁ure	-1454
▁usk	-1455
▁šte	-1456
▁prof	-1457
▁Ra	-1458
▁pozor	-1459
▁uprug	-1460
gub	-1461
▁gre	-1462
▁Iako	-1463
▁surad	-1464
▁aju	-1465
▁[	-1466
▁tvrd	-1467
▁islim	-1468
▁bod	-1469
▁obi	-1470
ža	-1471
▁ena	-1472
▁rtner	-1473
▁izv	-1474
▁Da	-1475
▁Fran	-1476
▁loš	-1477
▁sum	-1478
▁druga	-1479
▁gađ	-1480
▁ništa	-1481
▁vezan	-1482
▁zadnj	-1483
▁mnogi	-1484
jedn	-1485
▁tjedn	-1486
▁polu	-1487
▁svom	-1488
đe	-1489
rin	-1490
▁Min	-1491
▁znam	-1492
▁elekt	-1493
▁Ova	-1494
▁nuo	-1495
▁tuden	-1496
▁end	-1497
▁trag	-1498
▁karij	-1499
EO	-1500
▁sport	-1501
▁uh	-1502
▁Gr	-1503
▁neke	-1504
▁stupa	-1505
kac	-1506
▁nove	-1507
▁mal	-1508
jec	-1509
▁liku	-1510
▁izgub	-1511
▁ortsk	-1512
▁gru	-1513
▁ansk	-1514
▁eli	-1515
ska	-1516
▁ću	-1517
▁ajte	-1518
▁vlasn	-1519
▁ičn	-1520
lat	-1521
▁jut	-1522
▁VIDEO	-1523
▁treć	-1524
▁dobio	-1525
▁sumnj	-1526
▁asnij	-1527
las	-1528
▁stala	-1529
▁gospo	-1530
▁enz	-1531
▁sebe	-1532
▁poruk	-1533
rek	-1534
▁uj	-1535
▁vijač	-1536
▁des	-1537
▁veo	-1538
▁fotog	-1539
▁ativ	-1540
žu	-1541
▁ozi	-1542
▁]	-1543
▁lik	-1544
▁ebačk	-1545
ćn	-1546
tom	-1547
kc	-1548
▁liječ	-1549
▁posla	-1550
▁Rus	-1551
▁aciju	-1552
▁pojav	-1553
ron	-1554
▁ator	-1555
▁sla	-1556
▁slov	-1557
▁često	-1558
▁akn	-1559
▁oda	-1560
rag	-1561
▁=>	-1562
▁ras	-1563
▁liti	-1564
▁pli	-1565
▁okaln	-1566
▁Pred	-1567
rom	-1568
▁emelj	-1569
▁talij	-1570
▁brzo	-1571
mah	-1572
▁ičar	-1573
▁ču	-1574
▁hva	-1575
▁Minis	-1576
▁ublik	-1577
▁nima	-1578
▁vlast	-1579
▁laz	-1580
▁zor	-1581
▁zagr	-1582
▁ionic	-1583
▁Ja	-1584
▁stat	-1585
▁gađaj	-1586
iz	-1587
ime	-1588
▁roda	-1589
▁štet	-1590
▁većin	-1591
▁jviše	-1592
▁mladi	-1593
▁laze	-1594
▁vjed	-1595
▁Srbij	-1596
▁str	-1597
▁rošle	-1598
▁bih	-1599
▁ijom	-1600
▁vrat	-1601
▁stanj	-1602
▁vlada	-1603
▁koš	-1604
kiv	-1605
▁kraja	-1606
▁olnic	-1607
kov	-1608
▁otkr	-1609
▁bijed	-1610
▁odnos	-1611
▁čekiv	-1612
▁pone	-1613
▁jede	-1614
▁tešk	-1615
▁nisam	-1616
▁krš	-1617
▁dava	-1618
▁dne	-1619
▁svog	-1620
▁zrak	-1621
▁tog	-1622
vrd	-1623
▁važn	-1624
▁otvrd	-1625
▁imali	-1626
▁spe	-1627
▁stao	-1628
▁optu	-1629
▁Prema	-1630
▁orisn	-1631
▁11	-1632
▁ići	-1633
▁aznen	-1634
▁mogli	-1635
▁ostup	-1636
▁ogu	-1637
▁smrt	-1638
▁gradu	-1639
▁TO	-1640
▁mož	-1641
▁ijan	-1642
rump	-1643
▁Trump	-1644
▁Šp	-1645
▁van	-1646
▁Ju	-1647
▁dodao	-1648
▁dvoj	-1649
▁prat	-1650
▁pov	-1651
▁ara	-1652
▁spješ	-1653
▁rije	-1654
▁icom	-1655
▁irao	-1656
▁pal	-1657
▁aza	-1658
▁zlo	-1659
▁Gor	-1660
▁dvo	-1661
▁mar	-1662
▁ožete	-1663
▁ulic	-1664
▁ose	-1665
▁niz	-1666
▁fer	-1667
▁stoje	-1668
▁djece	-1669
▁Kad	-1670
▁okr	-1671
▁Andr	-1672
▁direk	-1673
▁počel	-1674
▁nul	-1675
▁nosu	-1676
▁uto	-1677
▁čij	-1678
▁uvjet	-1679
▁rin	-1680
▁vel	-1681
▁imen	-1682
▁ponu	-1683
▁vide	-1684
▁kat	-1685
▁pokr	-1686
▁Rep	-1687
▁akav	-1688
▁laza	-1689
▁Y	-1690
▁okup	-1691
▁mis	-1692
▁maj	-1693
▁možda	-1694
▁anjo	-1695
▁slovn	-1696
▁ivn	-1697
▁doga	-1698
▁novno	-1699
▁otvor	-1700
▁mješt	-1701
▁ajn	-1702
▁omoć	-1703
▁ranij	-1704
sa	-1705
▁ncert	-1706
▁bolje	-1707
▁oveća	-1708
vet	-1709
▁jeć	-1710
▁naše	-1711
▁ia	-1712
▁ipak	-1713
▁odršk	-1714
leg	-1715
▁SD	-1716
▁arl	-1717
▁trans	-1718
▁ponud	-1719
▁imp	-1720
▁Franc	-1721
▁rži	-1722
▁jeva	-1723
▁icima	-1724
▁serij	-1725
▁genc	-1726
▁ijaln	-1727
▁ban	-1728
▁Rusij	-1729
▁enu	-1730
mu	-1731
▁%	-1732
▁oper	-1733
▁trgov	-1734
▁odi	-1735
▁lazak	-1736
▁jub	-1737
▁jubav	-1738
▁jav	-1739
uk	-1740
▁oje	-1741
ch	-1742
▁odmah	-1743
▁pozic	-1744
▁Ameri	-1745
▁Pod	-1746
▁aknu	-1747
▁plas	-1748
▁priča	-1749
AD	-1750
▁De	-1751
▁lije	-1752
▁utjec	-1753
▁On	-1754
▁rem	-1755
▁tira	-1756
▁avjet	-1757
▁imir	-1758
▁svaki	-1759
zd	-1760
▁ben	-1761
▁znak	-1762
▁htjev	-1763
vin	-1764
▁ian	-1765
▁inama	-1766
▁znan	-1767
▁iako	-1768
▁pisa	-1769
▁vik	-1770
▁ovati	-1771
▁bira	-1772
▁snim	-1773
▁ratur	-1774
▁Uz	-1775
▁tvarn	-1776
▁Pet	-1777
▁ravil	-1778
▁Ro	-1779
▁ijek	-1780
▁kretn	-1781
▁estiv	-1782
▁redi	-1783
▁mirov	-1784
▁stv	-1785
▁ell	-1786
▁ista	-1787
▁kolo	-1788
▁dogod	-1789
▁osobn	-1790
▁Pe	-1791
▁scen	-1792
▁temp	-1793
▁vije	-1794
▁ković	-1795
▁Velik	-1796
▁aja	-1797
▁rol	-1798
▁utku	-1799
▁aša	-1800
▁ozbil	-1801
▁pisao	-1802
▁stigl	-1803
▁sob	-1804
▁niti	-1805
▁18	-1806
▁klon	-1807
▁Nije	-1808
▁etalj	-1809
▁bivš	-1810
▁ved	-1811
▁imamo	-1812
▁osobe	-1813
▁pokaz	-1814
▁HN	-1815
▁bla	-1816
▁ulog	-1817
▁plaća	-1818
▁ang	-1819
▁rodn	-1820
▁litik	-1821
▁evi	-1822
▁50	-1823
▁Ši	-1824
▁daje	-1825
▁Naime	-1826
▁učen	-1827
▁Osim	-1828
▁reći	-1829
▁zrael	-1830
▁boj	-1831
▁ion	-1832
▁azov	-1833
▁ulj	-1834
▁nedo	-1835
▁onač	-1836
▁opasn	-1837
▁lanir	-1838
▁oga	-1839
▁boga	-1840
▁kamp	-1841
▁lož	-1842
▁ašnj	-1843
▁aknuo	-1844
mije	-1845
▁viđ	-1846
▁ekip	-1847
▁centr	-1848
▁stupn	-1849
▁zirom	-1850
▁amb	-1851
▁vjetn	-1852
▁Bar	-1853
▁oto	-1854
▁nutar	-1855
▁posao	-1856
▁vra	-1857
▁rati	-1858
▁res	-1859
▁padn	-1860
▁ovrat	-1861
▁radic	-1862
▁dug	-1863
▁ogr	-1864
▁injen	-1865
▁park	-1866
▁oslen	-1867
▁kva	-1868
▁skr	-1869
▁Sv	-1870
▁zb	-1871
▁omoći	-1872
▁mas	-1873
▁ljanj	-1874
▁uda	-1875
▁stali	-1876
▁Iva	-1877
▁ličit	-1878
▁13	-1879
▁In	-1880
▁jaš	-1881
▁mogla	-1882
▁prava	-1883
▁tkril	-1884
▁var	-1885
▁ište	-1886
▁jan	-1887
▁kojim	-1888
▁optuž	-1889
str	-1890
▁vrt	-1891
▁inst	-1892
▁iznos	-1893
▁vlad	-1894
▁SAD	-1895
▁nijel	-1896
▁zanim	-1897
▁tamo	-1898
▁znači	-1899
dam	-1900
▁iste	-1901
▁čega	-1902
▁dnevn	-1903
▁Br	-1904
ment	-1905
▁tvrđ	-1906
▁pravn	-1907
▁blag	-1908
▁vrhu	-1909
▁poraz	-1910
▁šao	-1911
les	-1912
▁sja	-1913
▁ie	-1914
▁ša	-1915
▁Polic	-1916
▁bliz	-1917
▁rada	-1918
▁encij	-1919
▁kluba	-1920
▁jedeć	-1921
▁hit	-1922
▁ržišt	-1923
▁ete	-1924
▁izvan	-1925
▁nes	-1926
rok	-1927
▁erv	-1928
▁petak	-1929
▁zašto	-1930
▁igrao	-1931
jeg	-1932
lam	-1933
▁uper	-1934
▁ljučn	-1935
▁sljed	-1936
▁sata	-1937
▁tempe	-1938
▁tip	-1939
▁inac	-1940
▁caron	-1941
▁vojoj	-1942
▁čić	-1943
▁brod	-1944
▁zato	-1945
▁tarij	-1946
▁rio	-1947
▁oran	-1948
▁kop	-1949
▁pros	-1950
▁anjol	-1951
ces	-1952
▁14	-1953
▁ita	-1954
▁ovn	-1955
▁vozač	-1956
▁fun	-1957
▁real	-1958
▁ero	-1959
▁SDP	-1960
▁jes	-1961
sad	-1962
▁andat	-1963
pt	-1964
▁uzi	-1965
▁loven	-1966
▁ter	-1967
psk	-1968
▁Naj	-1969
▁dati	-1970
▁17	-1971
▁rade	-1972
▁roces	-1973
▁tres	-1974
▁savez	-1975
▁ruš	-1976
▁Petr	-1977
▁troš	-1978
▁komun	-1979
▁zva	-1980
▁kilo	-1981
▁arlam	-1982
▁netko	-1983
▁pular	-1984
uno	-1985
▁adran	-1986
▁bodov	-1987
▁tpuno	-1988
▁dala	-1989
▁ogas	-1990
▁vesti	-1991
lov	-1992
▁Kada	-1993
▁čn	-1994
▁rata	-1995
▁ef	-1996
▁era	-1997
▁bogat	-1998
▁davno	-1999
▁Fi	-2000
▁nt	-2001
▁like	-2002
▁osam	-2003
▁ema	-2004
▁lji	-2005
▁imala	-2006
▁dom	-2007
▁tičk	-2008
jeh	-2009
▁kakv	-2010
▁erenc	-2011
▁ivši	-2012
▁sedam	-2013
▁čke	-2014
▁funkc	-2015
▁spjeh	-2016
▁Šiben	-2017
▁ajin	-2018
▁Josi	-2019
▁opet	-2020
▁vrst	-2021
▁cima	-2022
▁bol	-2023
▁son	-2024
▁ikac	-2025
▁Josip	-2026
▁svega	-2027
▁ze	-2028
tim	-2029
▁ital	-2030
▁boles	-2031
man	-2032
▁jiv	-2033
▁25	-2034
▁ay	-2035
▁uci	-2036
▁nijet	-2037
▁atelj	-2038
▁ch	-2039
▁uređ	-2040
▁riopć	-2041
▁venim	-2042
▁ark	-2043
▁ubotu	-2044
▁prvom	-2045
▁16	-2046
▁af	-2047
▁Au	-2048
▁nicu	-2049
▁redov	-2050
▁sijek	-2051
▁zl	-2052
▁rtv	-2053
▁akle	-2054
▁ovih	-2055
▁premn	-2056
▁akc	-2057
▁uvjer	-2058
dic	-2059
▁mene	-2060
▁njim	-2061
▁ovu	-2062
▁Đ	-2063
▁ill	-2064
▁ured	-2065
▁bav	-2066
▁ovdje	-2067
▁ređen	-2068
▁eva	-2069
▁bran	-2070
▁už	-2071
▁izvor	-2072
▁iznen	-2073
▁vatn	-2074
▁eč	-2075
▁kazn	-2076
▁lasti	-2077
▁Ob	-2078
ine	-2079
▁Bil	-2080
▁dao	-2081
▁jutro	-2082
▁so	-2083
▁bile	-2084
▁zabav	-2085
▁lipnj	-2086
▁koleg	-2087
▁ušt	-2088
▁ijete	-2089
▁jatno	-2090
▁znanj	-2091
es	-2092
▁eka	-2093
▁doblj	-2094
▁ovjer	-2095
▁utova	-2096
▁hod	-2097
▁mak	-2098
▁šli	-2099
▁njen	-2100
▁Ant	-2101
▁Slav	-2102
▁stru	-2103
▁korak	-2104
▁čel	-2105
▁želi	-2106
▁grama	-2107
▁zljed	-2108
▁Tom	-2109
▁dodat	-2110
▁Repub	-2111
▁logij	-2112
▁vši	-2113
▁eć	-2114
▁ib	-2115
▁mod	-2116
▁rođen	-2117
▁orij	-2118
▁tih	-2119
▁bjeg	-2120
▁lika	-2121
▁vlač	-2122
▁novac	-2123
▁ey	-2124
▁topl	-2125
▁borav	-2126
lož	-2127
▁ćete	-2128
▁ton	-2129
▁djevo	-2130
▁vojih	-2131
▁ment	-2132
▁utno	-2133
▁Per	-2134
▁glasa	-2135
▁metaš	-2136
▁grup	-2137
min	-2138
▁slab	-2139
▁nd	-2140
▁glaš	-2141
▁ument	-2142
▁urnir	-2143
▁druž	-2144
▁deset	-2145
▁išl	-2146
▁ijent	-2147
▁osebn	-2148
▁romet	-2149
▁jeru	-2150
▁kriv	-2151
▁jug	-2152
▁uži	-2153
▁neza	-2154
▁Kao	-2155
▁pute	-2156
▁uzima	-2157
isl	-2158
▁19	-2159
▁Bo	-2160
▁rof	-2161
▁vaja	-2162
▁zapo	-2163
▁Nikol	-2164
▁ljep	-2165
▁ozna	-2166
rez	-2167
▁dosad	-2168
▁ijeva	-2169
▁for	-2170
▁per	-2171
▁sjeća	-2172
▁skoro	-2173
▁iši	-2174
sko	-2175
▁kola	-2176
▁kid	-2177
▁datak	-2178
▁islav	-2179
▁jeruj	-2180
▁slije	-2181
▁tigao	-2182
▁rah	-2183
▁traja	-2184
▁eksp	-2185
▁lakš	-2186
▁ident	-2187
▁tho	-2188
▁rednj	-2189
▁ijezd	-2190
▁vjero	-2191
▁duše	-2192
▁okus	-2193
▁ovoj	-2194
▁jašnj	-2195
ste	-2196
▁antn	-2197
▁lako	-2198
▁rujn	-2199
kl	-2200
▁vin	-2201
▁Preds	-2202
▁tijel	-2203
▁tudij	-2204
živ	-2205
▁pl	-2206
▁lopt	-2207
▁rađ	-2208
▁otenc	-2209
▁ato	-2210
▁raća	-2211
▁ome	-2212
▁graf	-2213
▁ešk	-2214
▁gub	-2215
▁gener	-2216
▁ozlij	-2217
▁cr	-2218
▁snag	-2219
▁Ivana	-2220
▁ištu	-2221
▁anjsk	-2222
uz	-2223
▁autor	-2224
▁uživa	-2225
▁povr	-2226
▁vjet	-2227
▁čini	-2228
▁astav	-2229
▁ritan	-2230
▁ug	-2231
▁događ	-2232
▁pošt	-2233
teg	-2234
▁pje	-2235
▁pjeva	-2236
▁slova	-2237
▁muš	-2238
▁pol	-2239
▁etku	-2240
▁pogod	-2241
▁rat	-2242
▁istin	-2243
▁val	-2244
▁potom	-2245
▁rodaj	-2246
▁kog	-2247
▁žena	-2248
▁kateg	-2249
▁uktur	-2250
▁NA	-2251
▁cel	-2252
▁40	-2253
▁prič	-2254
▁seks	-2255
▁ijih	-2256
▁Zbog	-2257
▁nače	-2258
▁oruž	-2259
▁sklad	-2260
▁ane	-2261
▁jam	-2262
▁Austr	-2263
▁jasno	-2264
▁spred	-2265
▁ući	-2266
▁dosta	-2267
▁mater	-2268
▁oguće	-2269
▁vjež	-2270
roš	-2271
▁manj	-2272
▁ojatn	-2273
▁vib	-2274
end	-2275
▁uca	-2276
▁sno	-2277
▁djecu	-2278
▁prve	-2279
▁rist	-2280
▁sami	-2281
▁uslu	-2282
▁njoj	-2283
▁ozem	-2284
▁Dr	-2285
▁nč	-2286
▁osim	-2287
▁Ar	-2288
▁PO	-2289
▁elen	-2290
▁mr	-2291
▁veli	-2292
tic	-2293
▁Svi	-2294
▁luk	-2295
▁rsk	-2296
▁Jedn	-2297
▁abil	-2298
▁almac	-2299
▁azva	-2300
▁tnj	-2301
▁ivati	-2302
▁vijeć	-2303
▁mnogo	-2304
▁Su	-2305
▁smije	-2306
▁dub	-2307
▁lošk	-2308
▁muška	-2309
▁ništv	-2310
▁Real	-2311
▁kovi	-2312
▁otroš	-2313
▁hi	-2314
▁nismo	-2315
▁razov	-2316
▁oramo	-2317
▁ektor	-2318
▁troj	-2319
▁rend	-2320
▁putem	-2321
▁thodn	-2322
▁đen	-2323
▁estr	-2324
▁elj	-2325
▁moj	-2326
▁rid	-2327
▁oji	-2328
▁omč	-2329
▁Opć	-2330
▁došao	-2331
▁sadrž	-2332
▁24	-2333
▁omčad	-2334
▁uslug	-2335
▁Prije	-2336
▁moglo	-2337
▁gal	-2338
▁vođa	-2339
▁pušta	-2340
▁srpnj	-2341
▁ljan	-2342
▁obr	-2343
▁anic	-2344
▁torak	-2345
▁itn	-2346
▁Luka	-2347
AJ	-2348
▁uć	-2349
▁kiš	-2350
▁lov	-2351
▁tekl	-2352
▁leks	-2353
▁naći	-2354
▁opis	-2355
▁plav	-2356
▁prva	-2357
▁ionir	-2358
▁mlađ	-2359
▁ispit	-2360
▁olog	-2361
▁Rad	-2362
▁kojih	-2363
▁radio	-2364
▁vjedo	-2365
▁Gra	-2366
▁ujuć	-2367
▁tehno	-2368
▁kuša	-2369
▁model	-2370
▁ene	-2371
▁oman	-2372
▁nekad	-2373
TE	-2374
eb	-2375
▁crn	-2376
▁Marko	-2377
▁stiče	-2378
▁rasta	-2379
▁sel	-2380
▁ulaz	-2381
▁oziva	-2382
▁ažnj	-2383
lop	-2384
mal	-2385
▁mag	-2386
▁rok	-2387
ck	-2388
▁nato	-2389
▁drugo	-2390
▁bis	-2391
▁ivotu	-2392
▁snovn	-2393
adr	-2394
▁snaž	-2395
▁sklop	-2396
▁split	-2397
▁stavk	-2398
▁kok	-2399
▁noć	-2400
▁nimk	-2401
▁atn	-2402
▁ekt	-2403
▁doći	-2404
▁dobil	-2405
▁BiH	-2406
▁nose	-2407
▁zitiv	-2408
▁daju	-2409
▁titi	-2410
▁đ	-2411
▁stoj	-2412
▁djela	-2413
▁dobar	-2414
jas	-2415
lip	-2416
▁rasl	-2417
▁skrb	-2418
▁regij	-2419
orn	-2420
▁Zo	-2421
▁ord	-2422
▁rvu	-2423
▁obnov	-2424
nad	-2425
▁šp	-2426
▁rvoj	-2427
▁cjen	-2428
▁idej	-2429
▁ravnj	-2430
▁sat	-2431
▁ovim	-2432
▁trud	-2433
▁ha	-2434
▁krv	-2435
▁spec	-2436
▁čemu	-2437
▁atr	-2438
▁venc	-2439
▁mjene	-2440
▁onačn	-2441
▁polj	-2442
▁time	-2443
▁ncu	-2444
▁konz	-2445
▁artin	-2446
▁esn	-2447
▁knjig	-2448
▁ah	-2449
▁rkv	-2450
▁devet	-2451
▁vibnj	-2452
dio	-2453
▁nor	-2454
▁krug	-2455
▁takt	-2456
▁dolar	-2457
kob	-2458
▁ea	-2459
▁ored	-2460
▁svima	-2461
▁Grada	-2462
▁likom	-2463
1.	-2464
▁+	-2465
▁gar	-2466
▁bjed	-2467
▁konf	-2468
▁vica	-2469
▁rig	-2470
▁hlad	-2471
▁konc	-2472
▁entar	-2473
▁oraju	-2474
▁plitu	-2475
▁tiče	-2476
dus	-2477
▁desn	-2478
▁čkoj	-2479
▁riješ	-2480
▁svjet	-2481
▁šić	-2482
kur	-2483
▁sebi	-2484
▁doživ	-2485
▁dbor	-2486
▁eđen	-2487
▁zlat	-2488
▁ijski	-2489
▁iskor	-2490
▁prvog	-2491
▁uzrok	-2492
▁abr	-2493
▁post	-2494
▁etkom	-2495
zir	-2496
▁biva	-2497
▁išt	-2498
▁bija	-2499
▁ičko	-2500
▁zrač	-2501
▁The	-2502
▁net	-2503
▁tur	-2504
ton	-2505
▁moći	-2506
▁sjajn	-2507
▁dječ	-2508
▁olje	-2509
▁emis	-2510
▁jezi	-2511
▁novog	-2512
▁ozorn	-2513
▁Euro	-2514
▁neu	-2515
▁lijep	-2516
▁rijet	-2517
▁Takođ	-2518
▁medic	-2519
▁bin	-2520
▁poče	-2521
▁Zoran	-2522
▁tkrio	-2523
▁Ist	-2524
▁bra	-2525
▁ičin	-2526
▁noge	-2527
▁ušten	-2528
▁vršen	-2529
▁uči	-2530
▁loga	-2531
▁opće	-2532
▁jevač	-2533
▁diz	-2534
▁iraju	-2535
▁smjer	-2536
▁ruk	-2537
▁dlog	-2538
▁dušev	-2539
▁lijev	-2540
▁vrata	-2541
▁jud	-2542
▁čita	-2543
▁fizi	-2544
▁hu	-2545
▁Mir	-2546
▁lež	-2547
▁psi	-2548
▁tuž	-2549
▁bjedu	-2550
▁crven	-2551
▁sukob	-2552
▁Vla	-2553
▁knad	-2554
▁ljude	-2555
▁želj	-2556
▁Se	-2557
▁onaša	-2558
▁laska	-2559
▁\	-2560
▁šan	-2561
▁siječ	-2562
▁ng	-2563
▁ron	-2564
▁išić	-2565
▁njemu	-2566
▁igi	-2567
▁urg	-2568
▁odli	-2569
▁kupno	-2570
▁otin	-2571
▁njema	-2572
▁snage	-2573
▁tal	-2574
▁nama	-2575
▁oslav	-2576
▁HR	-2577
▁eku	-2578
▁raž	-2579
▁zas	-2580
▁držan	-2581
▁jezik	-2582
▁ravna	-2583
▁sretn	-2584
▁kić	-2585
▁nepo	-2586
▁alost	-2587
▁obvez	-2588
LE	-2589
▁oć	-2590
▁Danas	-2591
▁Bio	-2592
▁tis	-2593
▁Ovaj	-2594
mov	-2595
▁laž	-2596
▁toj	-2597
▁andr	-2598
▁vođ	-2599
▁besp	-2600
▁očet	-2601
▁che	-2602
▁jećaj	-2603
▁novih	-2604
▁posob	-2605
▁redst	-2606
▁def	-2607
▁inc	-2608
▁lig	-2609
▁komb	-2610
▁bijel	-2611
▁teren	-2612
▁dig	-2613
▁ljet	-2614
▁obzir	-2615
▁zatim	-2616
▁Tu	-2617
▁akter	-2618
▁ank	-2619
▁išao	-2620
▁trij	-2621
lja	-2622
▁1.	-2623
▁dra	-2624
▁kcij	-2625
▁Vlade	-2626
▁hotel	-2627
▁minal	-2628
der	-2629
▁evin	-2630
▁uboj	-2631
▁tenis	-2632
▁Domov	-2633
▁esi	-2634
▁ijep	-2635
▁dinsk	-2636
▁oži	-2637
▁arin	-2638
▁pogo	-2639
▁Njeg	-2640
▁alent	-2641
▁ovakv	-2642
▁gan	-2643
▁oru	-2644
▁bliž	-2645
▁judsk	-2646
▁privr	-2647
▁esel	-2648
▁vela	-2649
▁kuha	-2650
▁video	-2651
▁evo	-2652
▁Općin	-2653
▁objas	-2654
▁22	-2655
▁klup	-2656
kan	-2657
▁aket	-2658
▁enjem	-2659
▁koga	-2660
▁ovao	-2661
▁tpor	-2662
▁poziv	-2663
▁ratko	-2664
▁vođač	-2665
▁ičke	-2666
▁vedb	-2667
▁hvalj	-2668
▁mate	-2669
▁nter	-2670
▁otpun	-2671
ic	-2672
▁soc	-2673
▁biste	-2674
▁osjet	-2675
▁ign	-2676
▁rel	-2677
▁tvrdi	-2678
▁doz	-2679
▁Filip	-2680
▁glasn	-2681
▁60	-2682
▁Dok	-2683
▁utin	-2684
▁učil	-2685
▁Insta	-2686
▁sprem	-2687
▁jč	-2688
▁tvo	-2689
▁otok	-2690
▁došlo	-2691
▁dija	-2692
▁stiž	-2693
▁adion	-2694
▁alij	-2695
▁klad	-2696
▁pravi	-2697
▁sličn	-2698
▁udrug	-2699
▁svet	-2700
▁amben	-2701
▁novu	-2702
▁linij	-2703
▁nitko	-2704
▁ps	-2705
▁Oli	-2706
čadi	-2707
▁mčadi	-2708
▁Har	-2709
▁sil	-2710
▁žele	-2711
▁bivši	-2712
▁sabor	-2713
▁kažu	-2714
▁lige	-2715
▁kršaj	-2716
▁počeo	-2717
▁Mil	-2718
▁POG	-2719
▁ata	-2720
▁rap	-2721
▁avor	-2722
▁ispod	-2723
▁udac	-2724
▁ursk	-2725
▁zvao	-2726
▁Marin	-2727
▁srpsk	-2728
nih	-2729
▁etan	-2730
▁indus	-2731
▁DAJ	-2732
▁fra	-2733
▁uri	-2734
▁lask	-2735
▁lici	-2736
▁POGLE	-2737
nev	-2738
▁eak	-2739
▁osje	-2740
▁onj	-2741
▁ožić	-2742
▁zraz	-2743
▁DAJTE	-2744
▁lokac	-2745
▁bank	-2746
▁mirn	-2747
▁bismo	-2748
▁New	-2749
▁oval	-2750
▁natoč	-2751
▁odnev	-2752
▁hol	-2753
▁Olimp	-2754
▁zabio	-2755
▁alb	-2756
▁jest	-2757
▁opor	-2758
▁ekst	-2759
▁djeca	-2760
▁oblik	-2761
viz	-2762
▁FO	-2763
▁zim	-2764
kar	-2765
jekt	-2766
▁igre	-2767
▁bjekt	-2768
▁poljo	-2769
▁Mark	-2770
▁leviz	-2771
▁odmor	-2772
▁turis	-2773
▁erz	-2774
▁erenu	-2775
▁Ber	-2776
▁rov	-2777
▁java	-2778
▁onih	-2779
▁aknul	-2780
▁stane	-2781
ves	-2782
▁etimo	-2783
▁Oni	-2784
▁viš	-2785
▁goj	-2786
▁brak	-2787
▁cikl	-2788
▁iduć	-2789
▁ituc	-2790
▁pcij	-2791
▁Bilo	-2792
▁djet	-2793
▁nosn	-2794
▁rimor	-2795
▁platf	-2796
▁nuti	-2797
▁smisl	-2798
▁niž	-2799
▁šok	-2800
▁tpis	-2801
▁silj	-2802
▁stalo	-2803
▁uzet	-2804
▁glo	-2805
▁ort	-2806
▁insp	-2807
▁mamo	-2808
▁nali	-2809
▁pravd	-2810
▁eakc	-2811
▁renul	-2812
▁pad	-2813
▁kojom	-2814
▁onkur	-2815
▁ađa	-2816
▁sut	-2817
▁ajka	-2818
▁ojača	-2819
▁psih	-2820
▁čast	-2821
▁datno	-2822
▁Samo	-2823
▁ečen	-2824
▁pogi	-2825
▁minj	-2826
▁ijelo	-2827
▁viz	-2828
▁krat	-2829
▁land	-2830
▁egend	-2831
▁godio	-2832
▁rekli	-2833
▁uoč	-2834
▁oder	-2835
▁ruža	-2836
▁očetk	-2837
▁tl	-2838
▁irali	-2839
▁razum	-2840
▁podn	-2841
▁tajn	-2842
▁jedne	-2843
▁nepri	-2844
▁Kin	-2845
▁Mat	-2846
▁aut	-2847
▁iln	-2848
▁ratn	-2849
▁tand	-2850
▁fikac	-2851
žar	-2852
▁ivot	-2853
▁nčan	-2854
▁ekcij	-2855
▁ražen	-2856
▁ološk	-2857
▁budu	-2858
▁X	-2859
▁današ	-2860
▁tin	-2861
▁iječ	-2862
▁iven	-2863
▁anič	-2864
▁Din	-2865
▁ris	-2866
▁izam	-2867
▁krit	-2868
▁vodno	-2869
▁RT	-2870
▁arem	-2871
▁jveći	-2872
▁zvješ	-2873
▁ern	-2874
▁rea	-2875
▁priv	-2876
▁ukl	-2877
▁ojsk	-2878
▁znaju	-2879
▁čka	-2880
▁erce	-2881
▁ich	-2882
▁zel	-2883
▁požar	-2884
▁ročit	-2885
▁ity	-2886
▁pao	-2887
▁oznat	-2888
▁abra	-2889
▁rib	-2890
▁ruč	-2891
▁Foto	-2892
▁laže	-2893
▁riz	-2894
▁adaš	-2895
▁lesk	-2896
▁spri	-2897
▁jez	-2898
▁gres	-2899
▁olov	-2900
▁lat	-2901
▁leg	-2902
▁pava	-2903
▁istič	-2904
riš	-2905
▁štr	-2906
▁ock	-2907
▁raš	-2908
▁Vlad	-2909
▁porez	-2910
▁abiln	-2911
▁ljetn	-2912
▁Vid	-2913
▁kal	-2914
▁tenj	-2915
▁100	-2916
▁baln	-2917
▁rinc	-2918
▁ano	-2919
▁ešć	-2920
▁iže	-2921
▁rilik	-2922
▁vidi	-2923
▁brani	-2924
▁ađ	-2925
▁oči	-2926
▁zemal	-2927
▁ukov	-2928
▁zbor	-2929
▁astan	-2930
▁amp	-2931
▁dion	-2932
▁inja	-2933
▁izik	-2934
▁norm	-2935
▁iru	-2936
▁zvan	-2937
▁povez	-2938
▁dali	-2939
▁gira	-2940
▁ožu	-2941
▁Raz	-2942
▁ork	-2943
▁mali	-2944
▁ualn	-2945
▁veći	-2946
▁pisal	-2947
▁kav	-2948
▁etka	-2949
▁znao	-2950
▁rirod	-2951
▁jk	-2952
▁aknut	-2953
▁opada	-2954
ot	-2955
▁tekst	-2956
▁der	-2957
▁gon	-2958
▁istr	-2959
▁pola	-2960
▁pisan	-2961
▁ex	-2962
▁Kat	-2963
▁etsk	-2964
▁kupa	-2965
▁prot	-2966
▁slik	-2967
▁tječ	-2968
▁žene	-2969
▁dž	-2970
▁ravn	-2971
▁ači	-2972
▁uhi	-2973
▁avez	-2974
▁ćenj	-2975
▁radil	-2976
▁daj	-2977
▁ažnij	-2978
▁stoja	-2979
▁bud	-2980
▁mos	-2981
▁iljem	-2982
▁gl	-2983
▁Luk	-2984
▁ariz	-2985
▁indi	-2986
▁odstv	-2987
▁ft	-2988
▁ail	-2989
▁uru	-2990
▁abran	-2991
▁ner	-2992
▁anti	-2993
▁renut	-2994
▁sho	-2995
▁šću	-2996
▁latn	-2997
▁omu	-2998
▁rac	-2999
▁tez	-3000
▁dis	-3001
▁alko	-3002
▁db	-3003
▁ilj	-3004
▁imb	-3005
▁ole	-3006
▁por	-3007
▁Zagr	-3008
▁edan	-3009
▁najp	-3010
▁reba	-3011
▁kvali	-3012
▁onij	-3013
▁ekon	-3014
▁ično	-3015
▁alj	-3016
▁epi	-3017
▁rekor	-3018
▁danj	-3019
▁nimn	-3020
▁rael	-3021
tual	-3022
▁ior	-3023
▁plov	-3024
▁ktual	-3025
▁sprič	-3026
▁Još	-3027
▁azna	-3028
▁inira	-3029
▁ujemo	-3030
▁Man	-3031
▁noći	-3032
▁hoće	-3033
▁iden	-3034
▁kolu	-3035
▁nekim	-3036
▁izm	-3037
▁mre	-3038
▁akon	-3039
▁nalaz	-3040
upn	-3041
▁DP	-3042
▁akv	-3043
▁duz	-3044
▁iše	-3045
▁anju	-3046
▁lice	-3047
sj	-3048
▁Modr	-3049
▁enik	-3050
▁izma	-3051
▁utra	-3052
▁voda	-3053
▁ljenj	-3054
▁staju	-3055
▁23	-3056
▁isa	-3057
▁pam	-3058
hi	-3059
▁jaci	-3060
▁stol	-3061
▁aciji	-3062
▁zapad	-3063
▁ašk	-3064
▁lago	-3065
▁juč	-3066
▁reć	-3067
▁unij	-3068
▁voje	-3069
▁ratio	-3070
▁važno	-3071
▁čist	-3072
▁svjed	-3073
▁arm	-3074
▁atič	-3075
▁Dinam	-3076
▁dmet	-3077
▁uput	-3078
▁zabr	-3079
▁duzet	-3080
▁ukupn	-3081
▁RTL	-3082
▁ers	-3083
▁nte	-3084
▁ukr	-3085
▁asn	-3086
▁eor	-3087
▁akul	-3088
▁ljava	-3089
▁voran	-3090
bot	-3091
▁nsk	-3092
▁brat	-3093
▁eogr	-3094
▁naša	-3095
▁zon	-3096
▁apad	-3097
▁selj	-3098
▁bijen	-3099
▁ere	-3100
▁trk	-3101
▁prim	-3102
▁mom	-3103
▁ater	-3104
▁pomo	-3105
▁show	-3106
▁čkog	-3107
▁ež	-3108
▁maju	-3109
▁olim	-3110
▁rest	-3111
▁ortu	-3112
▁esion	-3113
▁rediš	-3114
▁if	-3115
▁pć	-3116
▁igr	-3117
▁tic	-3118
▁proiz	-3119
▁Ba	-3120
▁Mos	-3121
▁abl	-3122
▁preuz	-3123
▁ajk	-3124
▁ook	-3125
▁rtal	-3126
▁duh	-3127
▁čen	-3128
▁Te	-3129
▁enuo	-3130
▁plać	-3131
▁ref	-3132
▁onal	-3133
▁anstv	-3134
▁atiti	-3135
▁eret	-3136
▁div	-3137
▁dvor	-3138
▁aksim	-3139
▁Le	-3140
▁rsn	-3141
▁ših	-3142
▁limp	-3143
▁meni	-3144
▁obič	-3145
▁naliz	-3146
▁elu	-3147
▁eng	-3148
▁noš	-3149
▁omb	-3150
▁arij	-3151
▁otiv	-3152
▁kovit	-3153
▁Novi	-3154
▁vako	-3155
▁zelen	-3156
▁he	-3157
▁uc	-3158
▁ijel	-3159
▁staln	-3160
▁eks	-3161
▁gosti	-3162
▁premi	-3163
▁akl	-3164
▁štin	-3165
▁ostat	-3166
▁tehni	-3167
▁lič	-3168
▁ričn	-3169
▁koriš	-3170
NA	-3171
▁kul	-3172
▁rab	-3173
▁ario	-3174
▁podne	-3175
▁eter	-3176
▁ljaju	-3177
▁tac	-3178
▁bert	-3179
▁kart	-3180
▁strat	-3181
▁struk	-3182
▁njom	-3183
▁trad	-3184
▁entn	-3185
▁olin	-3186
▁stale	-3187
hn	-3188
▁26	-3189
▁ikl	-3190
▁mon	-3191
▁run	-3192
▁upo	-3193
▁hoda	-3194
▁novc	-3195
▁edi	-3196
▁ranj	-3197
▁škar	-3198
▁entr	-3199
▁reza	-3200
▁uva	-3201
▁Os	-3202
▁ond	-3203
▁čeln	-3204
▁bij	-3205
▁dam	-3206
▁ića	-3207
▁otic	-3208
▁javno	-3209
▁rec	-3210
▁Zadr	-3211
▁godn	-3212
▁matsk	-3213
▁ostao	-3214
▁osp	-3215
▁rvo	-3216
▁anima	-3217
▁ge	-3218
▁bus	-3219
▁iće	-3220
▁mol	-3221
▁rak	-3222
▁redu	-3223
▁bož	-3224
▁esu	-3225
▁užen	-3226
▁posve	-3227
▁tič	-3228
▁amet	-3229
▁ly	-3230
▁aps	-3231
▁regi	-3232
jun	-3233
▁ds	-3234
▁atij	-3235
▁ncusk	-3236
▁gn	-3237
▁suz	-3238
▁erij	-3239
ez	-3240
▁pas	-3241
▁reš	-3242
▁lozi	-3243
▁TV	-3244
▁plin	-3245
▁aleko	-3246
▁aljev	-3247
▁tpisa	-3248
▁roč	-3249
▁rvi	-3250
▁pekt	-3251
▁oment	-3252
▁otpis	-3253
▁rikaz	-3254
BC	-3255
▁Žel	-3256
▁Mate	-3257
▁inca	-3258
▁irani	-3259
▁javlj	-3260
▁dić	-3261
▁etn	-3262
▁uženj	-3263
▁kle	-3264
▁kinj	-3265
▁ovan	-3266
▁stal	-3267
▁produ	-3268
▁uti	-3269
▁kući	-3270
▁odom	-3271
▁onos	-3272
▁podu	-3273
▁ljivo	-3274
▁movin	-3275
▁ipl	-3276
▁upa	-3277
▁kata	-3278
▁sist	-3279
▁HRT	-3280
▁nf	-3281
▁tele	-3282
▁El	-3283
▁kim	-3284
▁drav	-3285
▁ljsk	-3286
▁nazi	-3287
▁opri	-3288
▁ade	-3289
▁kih	-3290
▁niji	-3291
▁pćin	-3292
▁ocjen	-3293
▁vjesn	-3294
▁cem	-3295
▁ige	-3296
▁oks	-3297
▁ljuč	-3298
▁ziva	-3299
ava	-3300
▁lok	-3301
▁šeg	-3302
▁šin	-3303
▁uoči	-3304
▁Sl	-3305
▁lad	-3306
▁ikad	-3307
▁odlič	-3308
▁port	-3309
▁greš	-3310
▁čiji	-3311
▁Podsj	-3312
▁bolji	-3313
▁vješt	-3314
▁urist	-3315
▁HNL	-3316
▁Mad	-3317
▁nič	-3318
▁otor	-3319
▁dokaz	-3320
ard	-3321
▁Evo	-3322
▁iskr	-3323
▁boda	-3324
▁Ima	-3325
▁kot	-3326
▁kralj	-3327
▁itk	-3328
▁ula	-3329
▁ensk	-3330
▁tirao	-3331
jan	-3332
▁Af	-3333
▁rut	-3334
▁anjen	-3335
▁kreta	-3336
▁ovisn	-3337
▁Jak	-3338
▁dolaz	-3339
▁irala	-3340
▁Jur	-3341
▁kti	-3342
▁osnov	-3343
▁škarc	-3344
▁our	-3345
▁seg	-3346
▁azil	-3347
▁ać	-3348
▁ijev	-3349
▁ruke	-3350
▁enata	-3351
▁novim	-3352
zej	-3353
▁čet	-3354
▁latk	-3355
▁Rim	-3356
▁ept	-3357
▁liv	-3358
▁omaš	-3359
▁jno	-3360
▁hvać	-3361
▁iječi	-3362
▁poseb	-3363
▁poj	-3364
▁alic	-3365
▁mjeru	-3366
pe	-3367
▁ou	-3368
▁lanj	-3369
▁moćn	-3370
▁alić	-3371
▁inv	-3372
▁javi	-3373
▁traš	-3374
▁rag	-3375
▁omil	-3376
▁kazal	-3377
▁torij	-3378
▁agn	-3379
▁ložen	-3380
▁oglas	-3381
▁ino	-3382
▁ivi	-3383
▁neg	-3384
▁esor	-3385
▁usta	-3386
▁RH	-3387
▁ein	-3388
▁eru	-3389
▁lav	-3390
▁šta	-3391
▁eća	-3392
▁fon	-3393
▁izlož	-3394
▁ljeni	-3395
▁ros	-3396
▁ljuje	-3397
▁oljeć	-3398
▁jeća	-3399
▁ster	-3400
▁lijun	-3401
▁okv	-3402
▁čkih	-3403
▁ovsk	-3404
▁tarnj	-3405
▁lazn	-3406
▁mad	-3407
▁sječ	-3408
▁star	-3409
▁tjer	-3410
▁živi	-3411
pa	-3412
lin	-3413
▁počet	-3414
▁redb	-3415
▁ujem	-3416
▁misij	-3417
▁21	-3418
▁kome	-3419
▁Polj	-3420
▁amer	-3421
▁Ukr	-3422
▁oćn	-3423
▁ravk	-3424
▁kriva	-3425
▁jek	-3426
▁jst	-3427
▁OV	-3428
▁asto	-3429
▁mani	-3430
▁azala	-3431
▁rijel	-3432
▁1,	-3433
▁les	-3434
▁napo	-3435
▁stil	-3436
▁eci	-3437
▁spo	-3438
▁redn	-3439
▁estit	-3440
▁đe	-3441
▁deb	-3442
▁sen	-3443
▁sus	-3444
▁und	-3445
▁šim	-3446
▁tjel	-3447
▁inves	-3448
▁iel	-3449
▁jih	-3450
▁akov	-3451
▁upnj	-3452
▁Dub	-3453
▁mit	-3454
▁vir	-3455
▁kret	-3456
▁lica	-3457
▁aze	-3458
▁lud	-3459
▁lada	-3460
▁arija	-3461
▁dobit	-3462
▁talno	-3463
▁Ho	-3464
▁očn	-3465
▁itno	-3466
▁ispun	-3467
▁strag	-3468
▁han	-3469
▁ick	-3470
▁lic	-3471
▁imam	-3472
▁vezi	-3473
▁mjena	-3474
▁#	-3475
▁sni	-3476
▁agan	-3477
▁veze	-3478
▁ekao	-3479
▁darsk	-3480
▁stičk	-3481
▁Ru	-3482
▁nst	-3483
▁omsk	-3484
▁kov	-3485
▁ong	-3486
▁zov	-3487
▁mjera	-3488
▁opriv	-3489
▁zgled	-3490
▁70	-3491
▁tema	-3492
▁jep	-3493
▁iješ	-3494
▁ktivn	-3495
▁ow	-3496
▁čito	-3497
▁ovali	-3498
▁abor	-3499
▁obje	-3500
▁traj	-3501
▁icira	-3502
▁nosit	-3503
▁podrž	-3504
▁civ	-3505
▁idu	-3506
▁mam	-3507
▁nča	-3508
▁Rije	-3509
▁skup	-3510
▁prona	-3511
▁enim	-3512
▁noga	-3513
▁voga	-3514
▁inale	-3515
▁amo	-3516
▁ižev	-3517
▁att	-3518
▁ret	-3519
▁rugu	-3520
JA	-3521
▁den	-3522
jub	-3523
▁rn	-3524
▁dram	-3525
▁2.	-3526
▁las	-3527
▁Ljub	-3528
▁Bud	-3529
▁esk	-3530
▁zbu	-3531
▁adar	-3532
▁inut	-3533
▁najv	-3534
▁ovit	-3535
▁rakt	-3536
▁vu	-3537
▁ier	-3538
▁pac	-3539
▁našl	-3540
▁rven	-3541
▁traje	-3542
▁ješa	-3543
▁mjere	-3544
▁28	-3545
▁Di	-3546
▁Kon	-3547
▁cip	-3548
▁aši	-3549
▁ugod	-3550
▁luj	-3551
▁nav	-3552
▁inic	-3553
▁kvar	-3554
▁ošte	-3555
▁manji	-3556
▁Mu	-3557
▁ošla	-3558
▁pala	-3559
▁anta	-3560
▁laka	-3561
▁kuplj	-3562
▁opt	-3563
▁luša	-3564
▁sama	-3565
▁etanj	-3566
▁ičkih	-3567
▁jasn	-3568
dim	-3569
▁ugr	-3570
▁even	-3571
▁godil	-3572
▁ečer	-3573
▁80	-3574
▁sir	-3575
▁apa	-3576
▁jka	-3577
▁jače	-3578
▁putn	-3579
▁eve	-3580
▁ljena	-3581
▁splat	-3582
▁27	-3583
▁hal	-3584
▁ozn	-3585
▁rij	-3586
▁vent	-3587
▁rošlo	-3588
▁trenu	-3589
▁ći	-3590
▁jetn	-3591
▁osn	-3592
▁enti	-3593
▁ivač	-3594
▁čk	-3595
▁lod	-3596
▁cija	-3597
▁juje	-3598
▁onsk	-3599
▁Iv	-3600
▁ebr	-3601
▁eut	-3602
▁arsk	-3603
▁La	-3604
▁šal	-3605
▁estin	-3606
▁°	-3607
▁ry	-3608
▁gro	-3609
▁išn	-3610
▁ička	-3611
▁nstru	-3612
▁majk	-3613
▁dli	-3614
▁gin	-3615
▁gno	-3616
▁ura	-3617
▁ever	-3618
▁nado	-3619
▁štvu	-3620
▁redit	-3621
▁vj	-3622
▁jač	-3623
▁mil	-3624
▁anin	-3625
▁bitn	-3626
▁izlaz	-3627
▁uspor	-3628
▁oza	-3629
▁klas	-3630
▁onaln	-3631
▁inske	-3632
▁29	-3633
▁oy	-3634
▁amir	-3635
▁inov	-3636
▁kama	-3637
▁ual	-3638
▁zid	-3639
▁amar	-3640
▁isam	-3641
▁najs	-3642
▁nađen	-3643
▁car	-3644
▁lor	-3645
▁znaje	-3646
▁Ol	-3647
▁Dal	-3648
▁odu	-3649
▁blis	-3650
▁gramu	-3651
▁avu	-3652
▁lić	-3653
▁četv	-3654
res	-3655
▁edn	-3656
▁jni	-3657
▁ogo	-3658
▁uzd	-3659
▁drag	-3660
▁odav	-3661
▁izb	-3662
▁omn	-3663
▁smij	-3664
▁šten	-3665
▁edu	-3666
▁jin	-3667
▁maš	-3668
▁pel	-3669
▁ans	-3670
▁emi	-3671
▁utr	-3672
▁pove	-3673
▁vršn	-3674
▁neo	-3675
▁omin	-3676
▁zval	-3677
▁meč	-3678
▁ram	-3679
▁ardi	-3680
▁najm	-3681
▁ruko	-3682
▁čuva	-3683
▁igran	-3684
▁Kor	-3685
▁Ta	-3686
▁ažn	-3687
▁onč	-3688
▁alne	-3689
RI	-3690
▁ječ	-3691
▁mun	-3692
▁štvo	-3693
▁tiv	-3694
▁naši	-3695
▁ogor	-3696
▁astoj	-3697
▁Ove	-3698
▁bar	-3699
▁dem	-3700
▁amen	-3701
▁ljev	-3702
skoj	-3703
▁ijepo	-3704
▁uđ	-3705
▁Vuk	-3706
▁Radi	-3707
▁ijes	-3708
▁ganiz	-3709
▁Ono	-3710
▁Sad	-3711
▁fr	-3712
▁raga	-3713
inj	-3714
▁orc	-3715
▁umu	-3716
▁tion	-3717
▁zira	-3718
▁asa	-3719
▁Kl	-3720
▁emij	-3721
▁Ć	-3722
▁lično	-3723
▁ml	-3724
▁Bož	-3725
▁fest	-3726
▁lavn	-3727
▁roba	-3728
▁grade	-3729
▁jedna	-3730
▁primi	-3731
▁raspo	-3732
▁traži	-3733
▁unjen	-3734
▁edm	-3735
▁iver	-3736
▁all	-3737
▁Svak	-3738
▁3.	-3739
▁juž	-3740
▁neko	-3741
▁adn	-3742
▁adu	-3743
▁ajuć	-3744
▁enul	-3745
▁znati	-3746
▁fic	-3747
▁iri	-3748
▁asti	-3749
▁ler	-3750
▁raj	-3751
▁kli	-3752
▁uče	-3753
▁počin	-3754
▁znato	-3755
▁dsjet	-3756
▁polož	-3757
▁nogi	-3758
▁ovac	-3759
▁kanal	-3760
▁ržava	-3761
▁Is	-3762
▁ote	-3763
▁tok	-3764
▁jača	-3765
▁rank	-3766
▁Jel	-3767
▁ver	-3768
kal	-3769
▁Go	-3770
▁Ti	-3771
▁rst	-3772
▁uli	-3773
▁mage	-3774
▁točno	-3775
▁EP	-3776
▁ind	-3777
▁zij	-3778
▁ičen	-3779
▁Up	-3780
▁esl	-3781
▁svr	-3782
▁vet	-3783
▁bije	-3784
▁enici	-3785
▁oba	-3786
▁čkom	-3787
▁nimal	-3788
▁aest	-3789
▁obil	-3790
▁reme	-3791
▁ruku	-3792
▁Tko	-3793
▁teri	-3794
▁avati	-3795
▁kompl	-3796
▁Ona	-3797
▁uću	-3798
▁idr	-3799
▁azum	-3800
▁unut	-3801
lak	-3802
▁Ha	-3803
▁art	-3804
▁ijeć	-3805
▁dužno	-3806
▁rca	-3807
▁brin	-3808
▁nudi	-3809
▁ondo	-3810
▁đu	-3811
▁abo	-3812
▁imi	-3813
▁pap	-3814
▁ičkog	-3815
▁uza	-3816
▁alni	-3817
▁jeto	-3818
▁ovač	-3819
▁dličn	-3820
▁motiv	-3821
▁raspr	-3822
▁7.	-3823
▁rv	-3824
▁roj	-3825
▁običn	-3826
▁plaće	-3827
▁prekr	-3828
▁trg	-3829
▁ugl	-3830
▁kruž	-3831
▁akva	-3832
▁ljeć	-3833
▁veće	-3834
▁proje	-3835
▁spekt	-3836
▁oo	-3837
▁nula	-3838
▁rago	-3839
▁želim	-3840
▁edr	-3841
▁iro	-3842
▁vjes	-3843
▁ratil	-3844
BA	-3845
▁Ad	-3846
▁Sin	-3847
▁jet	-3848
▁diza	-3849
▁razv	-3850
▁avl	-3851
▁km	-3852
▁asp	-3853
▁uha	-3854
▁raka	-3855
▁2,	-3856
▁US	-3857
▁emu	-3858
▁šem	-3859
▁dobi	-3860
▁rska	-3861
▁vorn	-3862
▁naziv	-3863
▁apl	-3864
▁Španj	-3865
▁Op	-3866
▁eln	-3867
▁ugo	-3868
▁žal	-3869
▁elim	-3870
▁evet	-3871
▁ivao	-3872
▁olsk	-3873
▁aljen	-3874
▁očinj	-3875
▁poduz	-3876
▁rijen	-3877
▁jko	-3878
▁olik	-3879
▁Uprav	-3880
▁visin	-3881
▁35	-3882
▁lišt	-3883
▁stud	-3884
▁ožemo	-3885
▁luc	-3886
▁pob	-3887
▁90	-3888
▁Ku	-3889
▁tet	-3890
▁ijenj	-3891
▁znala	-3892
▁form	-3893
▁eko	-3894
▁akve	-3895
▁esto	-3896
▁ormi	-3897
▁hor	-3898
▁ijim	-3899
▁njsk	-3900
▁traže	-3901
▁zah	-3902
▁šla	-3903
▁ačko	-3904
▁ivan	-3905
▁tima	-3906
▁ame	-3907
▁eza	-3908
▁alan	-3909
▁rp	-3910
▁don	-3911
▁lom	-3912
▁rsta	-3913
▁tivn	-3914
OR	-3915
▁Car	-3916
▁loč	-3917
▁anim	-3918
▁inom	-3919
▁pruž	-3920
▁bitel	-3921
▁misli	-3922
▁ponov	-3923
▁činje	-3924
▁15.	-3925
▁rč	-3926
▁Eur	-3927
▁ael	-3928
▁urn	-3929
▁von	-3930
▁utor	-3931
co	-3932
ss	-3933
▁Or	-3934
▁ečk	-3935
▁rob	-3936
▁izme	-3937
▁tere	-3938
▁ulje	-3939
▁preki	-3940
▁ei	-3941
▁subot	-3942
▁Du	-3943
▁išu	-3944
▁spr	-3945
▁nten	-3946
▁olar	-3947
SS	-3948
▁doba	-3949
▁rg	-3950
▁djelu	-3951
▁jesen	-3952
▁ovačk	-3953
▁dop	-3954
▁iku	-3955
▁ire	-3956
▁vuk	-3957
▁enuti	-3958
▁treće	-3959
OK	-3960
ler	-3961
▁ix	-3962
▁kus	-3963
▁kasn	-3964
▁ožda	-3965
▁udsk	-3966
JE	-3967
▁judi	-3968
▁govin	-3969
▁5.	-3970
▁Kar	-3971
▁ted	-3972
▁šut	-3973
▁Drag	-3974
▁edij	-3975
▁odre	-3976
▁uzetn	-3977
▁avn	-3978
▁jeci	-3979
▁obal	-3980
▁abora	-3981
▁kratk	-3982
▁Već	-3983
▁aru	-3984
▁drži	-3985
▁prez	-3986
▁ota	-3987
▁stro	-3988
▁lacij	-3989
▁gi	-3990
▁kć	-3991
▁loz	-3992
▁human	-3993
▁odigr	-3994
ber	-3995
▁ajno	-3996
▁alna	-3997
▁ismo	-3998
▁ival	-3999
▁jern	-4000
▁nisk	-4001
▁atur	-4002
▁erg	-4003
▁pješ	-4004
per	-4005
▁osu	-4006
▁utn	-4007
▁anij	-4008
▁etin	-4009
▁rske	-4010
▁ermin	-4011
▁sreds	-4012
▁Taj	-4013
▁iču	-4014
▁rce	-4015
▁staja	-4016
AR	-4017
bu	-4018
ef	-4019
▁Q	-4020
▁AL	-4021
▁oris	-4022
▁veza	-4023
▁rovod	-4024
▁Tik	-4025
▁tić	-4026
▁ačno	-4027
▁Pal	-4028
▁araj	-4029
▁jihov	-4030
▁muzej	-4031
▁co	-4032
▁lus	-4033
▁rva	-4034
▁suv	-4035
▁euro	-4036
▁lani	-4037
▁gij	-4038
▁imu	-4039
▁koč	-4040
▁lam	-4041
▁atko	-4042
▁avak	-4043
▁ljač	-4044
▁zivn	-4045
-0	-4046
▁jež	-4047
▁aro	-4048
▁ham	-4049
▁kos	-4050
▁ode	-4051
▁orb	-4052
▁atke	-4053
▁jviš	-4054
▁acima	-4055
▁Vi	-4056
▁rc	-4057
▁Naš	-4058
▁nve	-4059
▁ovod	-4060
▁ograd	-4061
▁4.	-4062
▁kuh	-4063
▁nud	-4064
▁obro	-4065
▁porn	-4066
▁vira	-4067
▁vješ	-4068
▁imaln	-4069
▁prati	-4070
ek	-4071
▁jm	-4072
▁20.	-4073
▁jev	-4074
▁uka	-4075
▁jači	-4076
▁četi	-4077
▁čkim	-4078
▁nvest	-4079
▁arh	-4080
▁udi	-4081
▁čev	-4082
▁enom	-4083
▁200	-4084
▁dlu	-4085
▁zam	-4086
▁ostan	-4087
▁Us	-4088
▁ela	-4089
▁ifi	-4090
▁enut	-4091
▁radit	-4092
os	-4093
▁rs	-4094
▁anc	-4095
▁ess	-4096
▁aste	-4097
▁x	-4098
▁etk	-4099
▁lue	-4100
▁upc	-4101
▁zer	-4102
▁tric	-4103
▁visi	-4104
▁olu	-4105
▁11.	-4106
▁Ben	-4107
▁nila	-4108
▁osta	-4109
▁stic	-4110
▁umir	-4111
▁niv	-4112
▁ohn	-4113
▁pamt	-4114
▁iam	-4115
▁gađa	-4116
▁tičn	-4117
▁eh	-4118
▁enk	-4119
▁roz	-4120
▁urb	-4121
▁maks	-4122
▁vaju	-4123
▁voli	-4124
▁rit	-4125
▁ntin	-4126
▁čine	-4127
RA	-4128
▁ai	-4129
▁ovin	-4130
▁ušao	-4131
▁jstvo	-4132
▁etv	-4133
▁otk	-4134
▁pored	-4135
▁Ot	-4136
▁riž	-4137
▁čku	-4138
▁Posl	-4139
▁adić	-4140
▁lagan	-4141
▁aran	-4142
▁ideo	-4143
▁otpor	-4144
▁uf	-4145
▁TikT	-4146
▁ašto	-4147
▁line	-4148
▁onov	-4149
▁ratu	-4150
▁8.	-4151
▁ash	-4152
▁ašl	-4153
▁aust	-4154
▁ačić	-4155
▁roku	-4156
▁listi	-4157
▁JE	-4158
▁ešt	-4159
▁lar	-4160
▁rano	-4161
▁17.	-4162
▁ink	-4163
▁ois	-4164
▁rać	-4165
▁rum	-4166
▁ućn	-4167
▁tarn	-4168
ed	-4169
▁lub	-4170
▁iral	-4171
▁kand	-4172
▁najve	-4173
▁stavi	-4174
▁tiral	-4175
▁znali	-4176
▁lt	-4177
▁lit	-4178
▁odn	-4179
▁ćan	-4180
▁rolaz	-4181
▁većan	-4182
zen	-4183
▁nevn	-4184
▁odin	-4185
▁ndi	-4186
▁onz	-4187
▁riv	-4188
▁upit	-4189
▁izd	-4190
▁žev	-4191
▁alat	-4192
▁astu	-4193
▁onic	-4194
▁ijske	-4195
▁jelom	-4196
▁ljk	-4197
▁naž	-4198
orm	-4199
ort	-4200
▁30.	-4201
▁san	-4202
▁čar	-4203
▁istra	-4204
▁obraz	-4205
▁egr	-4206
▁uma	-4207
▁apan	-4208
▁klop	-4209
▁račn	-4210
▁truk	-4211
▁uđen	-4212
▁retan	-4213
▁šanse	-4214
▁12.	-4215
▁Nik	-4216
▁tak	-4217
▁reko	-4218
▁Kod	-4219
▁med	-4220
▁ijer	-4221
▁onim	-4222
▁reće	-4223
▁tart	-4224
▁Par	-4225
▁šlj	-4226
▁rava	-4227
▁nform	-4228
▁eće	-4229
▁orit	-4230
▁II	-4231
▁moto	-4232
▁vodn	-4233
▁tljiv	-4234
▁ukraj	-4235
-1	-4236
▁adam	-4237
▁eral	-4238
▁iban	-4239
▁peri	-4240
▁nički	-4241
▁ovića	-4242
ved	-4243
▁Var	-4244
▁dep	-4245
▁avk	-4246
▁dal	-4247
▁onu	-4248
▁tem	-4249
▁učiv	-4250
▁arb	-4251
▁pan	-4252
▁igur	-4253
▁itik	-4254
▁ivlj	-4255
▁ičan	-4256
▁olož	-4257
▁rani	-4258
▁odaci	-4259
▁etar	-4260
▁atra	-4261
▁gran	-4262
▁jave	-4263
▁niza	-4264
op	-4265
▁Ana	-4266
▁jun	-4267
▁edin	-4268
▁anket	-4269
▁vanje	-4270
▁erb	-4271
▁tep	-4272
▁vil	-4273
▁agen	-4274
▁maže	-4275
▁nike	-4276
▁topa	-4277
pp	-4278
▁*	-4279
▁̌	-4280
▁ket	-4281
▁orn	-4282
▁elio	-4283
▁rugo	-4284
▁snij	-4285
▁isklj	-4286
▁10.	-4287
▁lon	-4288
▁asno	-4289
▁davn	-4290
▁nako	-4291
▁stov	-4292
▁45	-4293
▁lim	-4294
▁nacij	-4295
▁duš	-4296
▁avid	-4297
▁rizna	-4298
TA	-4299
▁nkc	-4300
▁opć	-4301
▁idim	-4302
▁stič	-4303
▁Bit	-4304
▁ičkim	-4305
▁okret	-4306
▁ordan	-4307
uj	-4308
▁rz	-4309
▁KBC	-4310
▁mot	-4311
▁čas	-4312
▁itor	-4313
▁6.	-4314
▁Em	-4315
▁Yo	-4316
▁kis	-4317
▁pat	-4318
▁Vel	-4319
▁ado	-4320
▁elo	-4321
▁ain	-4322
▁elit	-4323
▁esta	-4324
▁pisu	-4325
▁vama	-4326
▁akcij	-4327
▁ester	-4328
▁rađen	-4329
▁šć	-4330
▁Bez	-4331
▁ERI	-4332
▁ačn	-4333
▁iol	-4334
▁suđ	-4335
▁trž	-4336
▁raca	-4337
▁atima	-4338
▁nat	-4339
▁uhva	-4340
▁šeće	-4341
▁rub	-4342
▁rijsk	-4343
▁rskoj	-4344
▁čević	-4345
▁dor	-4346
▁sav	-4347
▁jima	-4348
▁alnog	-4349
▁aziva	-4350
▁inski	-4351
bon	-4352
▁dl	-4353
▁Mih	-4354
▁dres	-4355
▁tine	-4356
▁Ham	-4357
▁ake	-4358
▁auz	-4359
▁gri	-4360
▁isc	-4361
▁lag	-4362
▁the	-4363
▁uta	-4364
▁zaht	-4365
▁dim	-4366
▁dir	-4367
▁etak	-4368
▁ijem	-4369
▁odan	-4370
▁tehn	-4371
▁ljuju	-4372
PO	-4373
▁obn	-4374
▁tel	-4375
▁arni	-4376
▁ječe	-4377
▁mušk	-4378
▁dinam	-4379
mas	-4380
sen	-4381
▁žu	-4382
▁azu	-4383
▁bes	-4384
▁pit	-4385
▁rza	-4386
▁avan	-4387
▁ealn	-4388
▁ijeme	-4389
▁orist	-4390
▁uklju	-4391
▁Ze	-4392
▁lađ	-4393
▁ajal	-4394
▁ikov	-4395
▁3,	-4396
▁Fr	-4397
▁18.	-4398
▁19.	-4399
▁ovor	-4400
▁remi	-4401
▁roje	-4402
▁valj	-4403
▁ERIJA	-4404
▁idjel	-4405
stit	-4406
▁eto	-4407
▁kun	-4408
▁egij	-4409
▁jesu	-4410
▁ilišt	-4411
▁jenje	-4412
▁nstit	-4413
▁poslu	-4414
đel	-4415
▁ive	-4416
▁tož	-4417
▁alen	-4418
▁ijeg	-4419
▁14.	-4420
▁pon	-4421
▁upu	-4422
▁enih	-4423
▁vanj	-4424
▁9.	-4425
▁sov	-4426
▁tad	-4427
▁etra	-4428
▁čije	-4429
▁adr	-4430
▁uća	-4431
▁cira	-4432
▁rate	-4433
pi	-4434
▁ue	-4435
▁Zna	-4436
▁taš	-4437
▁13.	-4438
▁Vik	-4439
▁com	-4440
▁naz	-4441
▁ruž	-4442
▁kona	-4443
▁orin	-4444
▁trav	-4445
▁šećer	-4446
ig	-4447
▁jesti	-4448
▁kacij	-4449
▁Nek	-4450
▁gas	-4451
▁pub	-4452
▁last	-4453
▁lavi	-4454
▁odab	-4455
▁ojev	-4456
▁arton	-4457
▁ont	-4458
▁udu	-4459
▁arr	-4460
▁lid	-4461
▁gore	-4462
▁dajte	-4463
▁metni	-4464
▁21.	-4465
▁adio	-4466
▁olid	-4467
▁PU	-4468
▁out	-4469
▁avno	-4470
▁ivaj	-4471
▁tožer	-4472
Ne	-4473
▁@	-4474
▁lis	-4475
▁prost	-4476
▁Tim	-4477
▁igl	-4478
▁Đur	-4479
▁rugi	-4480
▁vezn	-4481
▁odjel	-4482
▁33	-4483
▁hel	-4484
▁ješ	-4485
▁rim	-4486
▁jera	-4487
▁mogl	-4488
▁kazuj	-4489
▁Sh	-4490
▁zo	-4491
▁jeći	-4492
▁nijih	-4493
▁nit	-4494
▁užn	-4495
▁Marij	-4496
▁ratit	-4497
▁itar	-4498
▁obno	-4499
▁tern	-4500
▁bazen	-4501
▁ičkom	-4502
▁jetil	-4503
iš	-4504
▁har	-4505
▁čit	-4506
▁lanic	-4507
▁tivno	-4508
▁tualn	-4509
▁rb	-4510
▁ert	-4511
▁rijev	-4512
▁Zv	-4513
▁500	-4514
▁Međ	-4515
▁omat	-4516
▁ulja	-4517
▁ektiv	-4518
▁aje	-4519
▁ziv	-4520
▁anac	-4521
▁andi	-4522
▁bave	-4523
▁esen	-4524
▁jezin	-4525
To	-4526
▁_	-4527
▁Co	-4528
▁ew	-4529
▁16.	-4530
▁lum	-4531
▁ult	-4532
▁utk	-4533
▁anci	-4534
▁ožen	-4535
▁vala	-4536
▁dljiv	-4537
UP	-4538
▁erk	-4539
▁ušk	-4540
▁bavi	-4541
▁odig	-4542
▁radu	-4543
▁vaki	-4544
▁jesni	-4545
▁mlja	-4546
▁stre	-4547
▁moram	-4548
▁rh	-4549
▁ilm	-4550
▁iben	-4551
▁jemo	-4552
▁lasi	-4553
▁podru	-4554
▁vanja	-4555
▁nic	-4556
▁jnij	-4557
▁adnik	-4558
▁fe	-4559
▁nev	-4560
▁rik	-4561
▁enat	-4562
▁rpsk	-4563
▁alkan	-4564
▁jetio	-4565
▁ljubi	-4566
▁ede	-4567
▁rne	-4568
▁araž	-4569
▁itko	-4570
▁visn	-4571
▁enstv	-4572
▁bori	-4573
▁dale	-4574
▁eško	-4575
▁odao	-4576
▁ivali	-4577
ski	-4578
▁32	-4579
▁Tr	-4580
▁ače	-4581
▁kaž	-4582
▁vač	-4583
▁šav	-4584
▁trak	-4585
▁vina	-4586
▁ijeti	-4587
▁nzi	-4588
▁obo	-4589
▁mira	-4590
▁snik	-4591
▁UN	-4592
▁Grb	-4593
▁Kol	-4594
▁Red	-4595
▁esa	-4596
▁Prem	-4597
▁gura	-4598
▁omij	-4599
▁osao	-4600
▁pogr	-4601
▁sobn	-4602
▁ašava	-4603
▁miris	-4604
▁stank	-4605
▁ops	-4606
▁ački	-4607
▁preb	-4608
▁rajn	-4609
▁stot	-4610
▁ustr	-4611
▁omp	-4612
▁tik	-4613
▁inir	-4614
▁fa	-4615
▁plj	-4616
▁nuli	-4617
▁posl	-4618
▁vima	-4619
har	-4620
▁Th	-4621
▁jd	-4622
▁300	-4623
▁Čak	-4624
▁nemo	-4625
▁anija	-4626
MA	-4627
raf	-4628
▁36	-4629
▁tno	-4630
▁boln	-4631
▁eran	-4632
▁AT	-4633
▁iž	-4634
▁čno	-4635
▁Paul	-4636
▁emat	-4637
▁most	-4638
▁rl	-4639
▁22.	-4640
▁itan	-4641
▁part	-4642
▁atori	-4643
▁racij	-4644
▁tinsk	-4645
▁tičar	-4646
▁Drž	-4647
▁mjes	-4648
ood	-4649
▁ća	-4650
▁San	-4651
▁ažu	-4652
▁ger	-4653
▁iho	-4654
▁moc	-4655
▁roat	-4656
▁edv	-4657
▁ism	-4658
▁tov	-4659
▁štva	-4660
▁agi	-4661
▁asc	-4662
▁edb	-4663
4.	-4664
▁26.	-4665
▁rci	-4666
▁Dana	-4667
▁edit	-4668
▁isao	-4669
▁mica	-4670
▁visno	-4671
▁hla	-4672
▁atin	-4673
▁reću	-4674
▁udij	-4675
▁druge	-4676
ORH	-4677
▁Ev	-4678
▁Vr	-4679
▁nomi	-4680
▁vezu	-4681
▁jelov	-4682
fe	-4683
▁Mc	-4684
▁29.	-4685
▁atl	-4686
▁kam	-4687
▁oro	-4688
▁upn	-4689
▁ičku	-4690
▁ovak	-4691
▁uška	-4692
▁irekt	-4693
▁Jon	-4694
▁cion	-4695
▁imat	-4696
▁zorn	-4697
▁ljeća	-4698
▁oprav	-4699
▁telja	-4700
zij	-4701
▁SP	-4702
▁ace	-4703
▁apo	-4704
▁ber	-4705
▁rta	-4706
▁vaj	-4707
▁ajem	-4708
▁etnj	-4709
▁HA	-4710
▁eđa	-4711
▁uše	-4712
▁leda	-4713
▁ravo	-4714
▁tt	-4715
▁ezo	-4716
▁izvo	-4717
▁guž	-4718
▁ovr	-4719
▁reb	-4720
▁rge	-4721
▁čim	-4722
▁djec	-4723
▁isij	-4724
▁juju	-4725
▁ty	-4726
▁Dva	-4727
▁HNS	-4728
▁oci	-4729
▁zne	-4730
▁istu	-4731
▁oliti	-4732
FA	-4733
▁Bor	-4734
▁aše	-4735
▁eću	-4736
▁ico	-4737
▁lač	-4738
▁unj	-4739
▁akir	-4740
▁alja	-4741
▁opad	-4742
▁denti	-4743
▁OVD	-4744
▁eon	-4745
▁tili	-4746
▁čani	-4747
▁alnih	-4748
▁alnim	-4749
▁snici	-4750
▁sredn	-4751
▁vjeti	-4752
▁načaj	-4753
▁led	-4754
▁ijat	-4755
▁itim	-4756
▁rosje	-4757
▁umije	-4758
▁Sal	-4759
▁Sam	-4760
▁jna	-4761
▁kab	-4762
▁rus	-4763
▁dani	-4764
▁nese	-4765
▁pali	-4766
▁titu	-4767
▁uduć	-4768
▁sluša	-4769
šti	-4770
▁th	-4771
▁iša	-4772
▁mob	-4773
▁alon	-4774
▁chef	-4775
▁podr	-4776
▁šire	-4777
▁eđ	-4778
▁Ban	-4779
▁Jer	-4780
▁ksi	-4781
▁nel	-4782
▁ore	-4783
▁rođ	-4784
▁wit	-4785
▁aval	-4786
▁repor	-4787
▁tum	-4788
▁elem	-4789
▁etro	-4790
▁taro	-4791
▁udio	-4792
▁ukra	-4793
▁jenja	-4794
▁prima	-4795
▁25.	-4796
▁Pav	-4797
▁ido	-4798
▁Može	-4799
▁aren	-4800
▁prep	-4801
▁arstv	-4802
▁ograf	-4803
▁etu	-4804
▁obu	-4805
▁avao	-4806
▁aziv	-4807
▁ovine	-4808
NI	-4809
▁azin	-4810
▁mena	-4811
▁spol	-4812
▁kisel	-4813
▁zašti	-4814
gar	-4815
▁erc	-4816
▁rom	-4817
▁usa	-4818
▁enta	-4819
▁takm	-4820
▁zvor	-4821
▁mreža	-4822
▁olest	-4823
▁osjeć	-4824
:0	-4825
▁ese	-4826
▁stog	-4827
▁ziran	-4828
rban	-4829
▁28.	-4830
▁ebe	-4831
▁uho	-4832
▁licu	-4833
▁reni	-4834
▁arhit	-4835
▁kvart	-4836
▁sjedn	-4837
▁AI	-4838
▁nin	-4839
▁oče	-4840
▁kova	-4841
▁lasn	-4842
▁njav	-4843
▁Zd	-4844
▁šu	-4845
▁kci	-4846
▁arov	-4847
▁bilj	-4848
▁vozi	-4849
▁enost	-4850
▁vjere	-4851
▁zborn	-4852
KA	-4853
▁dv	-4854
▁eda	-4855
▁fak	-4856
▁oće	-4857
▁udn	-4858
▁avrš	-4859
▁ačke	-4860
▁dluk	-4861
▁jaja	-4862
▁ljud	-4863
▁roni	-4864
▁aster	-4865
KOK	-4866
▁osm	-4867
▁vor	-4868
▁ček	-4869
▁ekiv	-4870
▁ećin	-4871
▁reka	-4872
▁Ph	-4873
▁rk	-4874
▁ann	-4875
▁atu	-4876
▁elja	-4877
▁rado	-4878
▁redo	-4879
▁ukla	-4880
▁novan	-4881
▁oki	-4882
▁rlj	-4883
▁urs	-4884
▁ojan	-4885
▁ćenje	-4886
▁Pr	-4887
▁ekc	-4888
▁skl	-4889
▁olič	-4890
▁orav	-4891
▁osud	-4892
▁para	-4893
▁poveć	-4894
▁Val	-4895
▁ass	-4896
▁uso	-4897
▁akar	-4898
▁ašao	-4899
▁rj	-4900
▁150	-4901
▁isu	-4902
▁laš	-4903
▁zgr	-4904
▁amal	-4905
▁enog	-4906
▁izij	-4907
▁oriti	-4908
▁urban	-4909
mes	-4910
▁55	-4911
▁mb	-4912
▁ega	-4913
▁gim	-4914
▁her	-4915
▁uga	-4916
▁lans	-4917
▁konst	-4918
▁jn	-4919
▁24.	-4920
▁els	-4921
▁asil	-4922
▁otom	-4923
▁tona	-4924
▁stava	-4925
▁bal	-4926
▁enn	-4927
▁enad	-4928
▁ivim	-4929
▁USKOK	-4930
▁enama	-4931
▁oslov	-4932
▁aku	-4933
▁vat	-4934
▁zar	-4935
▁lovo	-4936
▁obar	-4937
▁reci	-4938
▁ivala	-4939
▁Mor	-4940
▁Put	-4941
▁nić	-4942
▁upe	-4943
▁uze	-4944
▁vad	-4945
▁aćen	-4946
▁erge	-4947
▁pris	-4948
▁rena	-4949
▁ublj	-4950
vel	-4951
▁Ov	-4952
▁31.	-4953
▁eat	-4954
▁err	-4955
▁ance	-4956
▁avin	-4957
▁ljaj	-4958
▁teme	-4959
▁alnom	-4960
gon	-4961
▁geo	-4962
▁mov	-4963
▁uro	-4964
▁erim	-4965
▁inij	-4966
▁nite	-4967
▁osni	-4968
▁sjaj	-4969
▁aviti	-4970
▁75	-4971
▁Met	-4972
▁onf	-4973
▁žić	-4974
▁lup	-4975
▁zir	-4976
▁šef	-4977
▁Srbi	-4978
▁koln	-4979
▁olju	-4980
▁ivost	-4981
▁ovara	-4982
▁slavi	-4983
▁Il	-4984
▁ope	-4985
▁uno	-4986
▁emit	-4987
▁evoj	-4988
▁otov	-4989
▁ular	-4990
▁ikada	-4991
▁ljiva	-4992
▁mjeri	-4993
ena	-4994
▁rš	-4995
▁ajna	-4996
▁kupn	-4997
▁staj	-4998
pan	-4999
▁sn	-5000
▁anak	-5001
▁eras	-5002
▁eške	-5003
▁kril	-5004
▁rodu	-5005
▁ruga	-5006
▁čenj	-5007
▁dalek	-5008
▁Am	-5009
▁Be	-5010
▁23.	-5011
▁tef	-5012
▁kvad	-5013
▁nski	-5014
▁veti	-5015
▁pogot	-5016
dž	-5017
▁jp	-5018
▁sf	-5019
▁HNK	-5020
▁Mac	-5021
▁mrt	-5022
▁šum	-5023
▁došl	-5024
▁eljk	-5025
▁reži	-5026
▁rušt	-5027
▁vard	-5028
▁Gal	-5029
▁lti	-5030
▁anko	-5031
▁ekin	-5032
▁jaka	-5033
▁mama	-5034
▁aštel	-5035
▁određ	-5036
▁dat	-5037
▁ošt	-5038
▁alnu	-5039
▁bali	-5040
▁obol	-5041
▁ješta	-5042
▁inci	-5043
▁kove	-5044
▁slob	-5045
▁sobno	-5046
▁IO	-5047
▁kn	-5048
▁kut	-5049
▁lut	-5050
▁akit	-5051
▁ečaj	-5052
▁ustv	-5053
▁oe	-5054
▁jem	-5055
▁lać	-5056
▁nda	-5057
▁umi	-5058
▁ojim	-5059
▁kamat	-5060
▁€	-5061
ten	-5062
▁oh	-5063
▁iću	-5064
▁jac	-5065
▁liz	-5066
▁rno	-5067
▁nest	-5068
▁idjet	-5069
▁đenje	-5070
7.	-5071
dur	-5072
▁27.	-5073
▁age	-5074
▁nca	-5075
▁ods	-5076
▁udo	-5077
▁učk	-5078
▁enoj	-5079
▁ijeđ	-5080
▁mari	-5081
▁tari	-5082
▁DV	-5083
▁Kan	-5084
▁set	-5085
▁ajan	-5086
▁aksi	-5087
▁ekla	-5088
IP	-5089
▁ekr	-5090
▁remn	-5091
▁iteta	-5092
▁rd	-5093
▁400	-5094
▁šlo	-5095
▁Jadr	-5096
▁Most	-5097
▁ezon	-5098
▁gubi	-5099
▁ječn	-5100
▁napr	-5101
▁prek	-5102
▁aranj	-5103
▁lider	-5104
▁ljene	-5105
ff	-5106
▁reda	-5107
▁držat	-5108
▁jetit	-5109
▁orije	-5110
▁popul	-5111
RO	-5112
▁́	-5113
▁ID	-5114
ject	-5115
▁avna	-5116
▁ljin	-5117
▁bject	-5118
MZ	-5119
▁mp	-5120
▁alt	-5121
▁riča	-5122
▁čara	-5123
▁čuje	-5124
▁Grbin	-5125
▁ačkog	-5126
8.	-5127
▁muč	-5128
▁šti	-5129
▁alma	-5130
▁arko	-5131
▁ladn	-5132
▁razi	-5133
▁rgov	-5134
▁Arsen	-5135
▁Držav	-5136
▁anali	-5137
▁demok	-5138
▁PS	-5139
▁ial	-5140
▁rša	-5141
▁čaj	-5142
▁moli	-5143
▁pool	-5144
bat	-5145
▁zm	-5146
▁Rud	-5147
▁iža	-5148
▁kaš	-5149
▁lij	-5150
▁svu	-5151
▁tka	-5152
▁boji	-5153
▁emlj	-5154
▁rizi	-5155
▁stra	-5156
▁upis	-5157
▁nesre	-5158
▁tabil	-5159
:1	-5160
lon	-5161
▁dol	-5162
▁kaf	-5163
▁oti	-5164
▁uki	-5165
▁NK	-5166
▁Han	-5167
▁anu	-5168
▁dbi	-5169
▁ređ	-5170
▁ačen	-5171
▁bama	-5172
▁ilaz	-5173
▁ličn	-5174
▁potr	-5175
▁prop	-5176
▁moral	-5177
▁cm	-5178
▁zub	-5179
▁Time	-5180
▁este	-5181
▁ijed	-5182
▁ogle	-5183
▁lovoz	-5184
▁učiti	-5185
und	-5186
▁4,	-5187
▁žn	-5188
▁cid	-5189
▁ojn	-5190
▁Clas	-5191
▁alio	-5192
▁ncer	-5193
▁orac	-5194
▁ovre	-5195
▁sinc	-5196
▁ami	-5197
▁oyo	-5198
▁pen	-5199
▁pil	-5200
▁puš	-5201
▁adal	-5202
▁cije	-5203
▁ladi	-5204
▁mark	-5205
▁sprav	-5206
▁aže	-5207
▁dna	-5208
▁enc	-5209
▁kip	-5210
▁mač	-5211
▁nar	-5212
▁EPPO	-5213
▁ezen	-5214
▁vizij	-5215
NK	-5216
▁HT	-5217
▁Mod	-5218
▁mio	-5219
▁udr	-5220
▁arat	-5221
▁nogu	-5222
▁oren	-5223
▁rama	-5224
br	-5225
▁ae	-5226
▁wi	-5227
▁Wal	-5228
▁muž	-5229
▁čna	-5230
▁šnj	-5231
▁Mari	-5232
▁alog	-5233
▁anke	-5234
▁inje	-5235
▁žnic	-5236
▁andar	-5237
▁ijeli	-5238
▁omuni	-5239
▁oziti	-5240
▁ransk	-5241
nes	-5242
▁OŠ	-5243
▁ee	-5244
▁ya	-5245
▁pru	-5246
▁web	-5247
▁bore	-5248
▁kult	-5249
▁prev	-5250
▁eljen	-5251
▁spjel	-5252
qu	-5253
▁65	-5254
jasn	-5255
▁Hol	-5256
▁bir	-5257
▁uši	-5258
▁jena	-5259
▁Sport	-5260
▁bjasn	-5261
▁jedni	-5262
▁opisa	-5263
▁oznaj	-5264
be	-5265
ft	-5266
▁ize	-5267
▁org	-5268
▁osa	-5269
▁ray	-5270
▁teć	-5271
▁enij	-5272
▁lekt	-5273
▁tram	-5274
▁andid	-5275
▁anjem	-5276
▁anost	-5277
▁entra	-5278
▁stana	-5279
▁ck	-5280
▁iba	-5281
▁rna	-5282
▁rup	-5283
▁uku	-5284
▁ljed	-5285
▁ralj	-5286
▁rump	-5287
▁sjeć	-5288
▁sobe	-5289
▁vdje	-5290
▁ispla	-5291
▁redvi	-5292
-2	-5293
ie	-5294
mar	-5295
▁jar	-5296
▁zli	-5297
▁ljede	-5298
▁telji	-5299
zz	-5300
ack	-5301
▁You	-5302
▁dnj	-5303
▁uke	-5304
▁DORH	-5305
▁akvo	-5306
▁enal	-5307
▁jati	-5308
▁tank	-5309
▁vrši	-5310
▁ander	-5311
▁atili	-5312
▁aći	-5313
▁imn	-5314
▁ins	-5315
▁jne	-5316
▁moć	-5317
▁rić	-5318
▁dano	-5319
▁disk	-5320
▁nada	-5321
▁njev	-5322
▁pozva	-5323
2.	-5324
▁kg	-5325
▁wa	-5326
▁Gen	-5327
▁aks	-5328
▁dle	-5329
▁enis	-5330
▁itič	-5331
▁jene	-5332
▁jesn	-5333
▁razo	-5334
▁limun	-5335
▁DH	-5336
▁Tri	-5337
▁alu	-5338
▁efi	-5339
▁teg	-5340
▁itul	-5341
▁rski	-5342
▁estan	-5343
▁susre	-5344
ram	-5345
skog	-5346
▁ATP	-5347
▁Maj	-5348
▁egi	-5349
▁Rusi	-5350
▁alom	-5351
▁atim	-5352
▁izan	-5353
▁mask	-5354
▁anske	-5355
▁ostaj	-5356
▁stira	-5357
los	-5358
▁kći	-5359
▁piš	-5360
▁anov	-5361
▁oblj	-5362
▁obra	-5363
▁čink	-5364
▁enkov	-5365
▁prave	-5366
rel	-5367
▁ph	-5368
▁VAR	-5369
▁agl	-5370
▁dnu	-5371
▁oca	-5372
▁ovca	-5373
▁ovina	-5374
▁tržiš	-5375
tij	-5376
▁Pi	-5377
▁Moj	-5378
▁ego	-5379
▁ezd	-5380
▁reč	-5381
▁bjav	-5382
▁dist	-5383
▁logu	-5384
▁ubio	-5385
▁anski	-5386
▁eskal	-5387
▁CO	-5388
▁DVD	-5389
▁pec	-5390
▁rka	-5391
▁smr	-5392
▁tiš	-5393
▁Misl	-5394
▁kože	-5395
▁luka	-5396
▁nađe	-5397
▁omen	-5398
▁teks	-5399
▁tina	-5400
▁snima	-5401
▁stari	-5402
sb	-5403
nak	-5404
▁NBA	-5405
▁akt	-5406
▁std	-5407
▁šar	-5408
▁icir	-5409
▁mini	-5410
▁miru	-5411
▁vred	-5412
▁Class	-5413
▁tacij	-5414
▁Jan	-5415
▁Nad	-5416
▁rej	-5417
▁rlo	-5418
▁sun	-5419
▁ube	-5420
▁lade	-5421
▁mažu	-5422
▁tava	-5423
▁greba	-5424
▁Fo	-5425
▁uan	-5426
▁čio	-5427
▁rekl	-5428
▁ijeke	-5429
▁bn	-5430
▁Los	-5431
▁ago	-5432
▁agu	-5433
▁liž	-5434
▁nce	-5435
▁tke	-5436
▁une	-5437
▁ćaj	-5438
▁DHMZ	-5439
▁ajne	-5440
▁eles	-5441
▁orno	-5442
▁tetu	-5443
▁uris	-5444
▁vrdio	-5445
for	-5446
▁34	-5447
▁ui	-5448
▁aža	-5449
▁isn	-5450
▁žrt	-5451
▁alil	-5452
▁aman	-5453
▁ićev	-5454
▁vede	-5455
▁zija	-5456
▁nasil	-5457
6.	-5458
▁tj	-5459
▁dul	-5460
▁emp	-5461
▁lip	-5462
▁šet	-5463
▁gorj	-5464
▁inej	-5465
▁meće	-5466
▁onom	-5467
▁osil	-5468
▁trbu	-5469
▁utim	-5470
▁James	-5471
▁Selak	-5472
▁estic	-5473
▁pacij	-5474
NAL	-5475
▁Fa	-5476
▁HZ	-5477
▁BBC	-5478
▁enj	-5479
▁ojo	-5480
▁pir	-5481
▁ump	-5482
▁adek	-5483
▁adil	-5484
▁elic	-5485
▁liza	-5486
▁cedur	-5487
▁ostig	-5488
my	-5489
▁31	-5490
▁39	-5491
▁IT	-5492
▁jeg	-5493
▁luž	-5494
▁tkr	-5495
▁šen	-5496
▁onio	-5497
▁ropi	-5498
▁armer	-5499
▁ostim	-5500
▁vajuć	-5501
3.	-5502
ger	-5503
nit	-5504
▁38	-5505
▁HG	-5506
▁Ses	-5507
▁kob	-5508
▁pić	-5509
▁rug	-5510
▁akvi	-5511
▁ijav	-5512
▁kopn	-5513
▁Muzej	-5514
OS	-5515
▁0,	-5516
▁amu	-5517
▁eso	-5518
▁hat	-5519
▁asio	-5520
▁isok	-5521
▁jeno	-5522
▁lado	-5523
▁lazb	-5524
▁nepr	-5525
▁sije	-5526
▁priop	-5527
▁pusti	-5528
▁bil	-5529
▁pto	-5530
▁Alen	-5531
▁cast	-5532
▁kost	-5533
▁košt	-5534
kad	-5535
▁600	-5536
▁Dio	-5537
▁ajv	-5538
▁ača	-5539
▁ađe	-5540
▁olj	-5541
▁onc	-5542
▁anka	-5543
▁ezul	-5544
▁točn	-5545
▁IONAL	-5546
▁radni	-5547
sh	-5548
▁NAC	-5549
▁Tur	-5550
▁dik	-5551
▁ida	-5552
▁kit	-5553
▁ibon	-5554
▁sten	-5555
▁djeli	-5556
▁formi	-5557
▁kinja	-5558
▁šansu	-5559
▁6,	-5560
▁ll	-5561
▁aha	-5562
▁oju	-5563
▁pul	-5564
▁ude	-5565
▁dras	-5566
▁itom	-5567
▁nome	-5568
▁sila	-5569
▁inkov	-5570
▁ispri	-5571
▁jstva	-5572
▁Max	-5573
▁det	-5574
▁gur	-5575
▁jku	-5576
▁tij	-5577
▁til	-5578
▁ijad	-5579
▁masl	-5580
▁uard	-5581
▁ural	-5582
▁Hamas	-5583
▁anovi	-5584
▁irana	-5585
▁reper	-5586
▁PD	-5587
▁alk	-5588
▁lac	-5589
▁tug	-5590
▁izab	-5591
▁ješt	-5592
▁rave	-5593
▁arbar	-5594
▁komor	-5595
▁remij	-5596
ej	-5597
▁Mal	-5598
▁ens	-5599
▁gir	-5600
▁uck	-5601
▁vit	-5602
▁aved	-5603
▁nava	-5604
▁taja	-5605
▁tila	-5606
▁općen	-5607
▁ff	-5608
▁biz	-5609
▁edo	-5610
▁izr	-5611
▁pij	-5612
▁unt	-5613
▁elev	-5614
▁jezd	-5615
▁oram	-5616
▁stok	-5617
▁Modri	-5618
▁itali	-5619
▁izvođ	-5620
▁navod	-5621
▁travn	-5622
▁Sab	-5623
▁amn	-5624
▁bom	-5625
▁dek	-5626
▁lem	-5627
▁jeca	-5628
▁nosni	-5629
▁37	-5630
▁AP	-5631
▁Fe	-5632
▁ola	-5633
▁tit	-5634
▁Afri	-5635
▁hodn	-5636
▁kaka	-5637
▁tika	-5638
▁enica	-5639
▁omogu	-5640
▁režij	-5641
▁stolj	-5642
▁temel	-5643
OM	-5644
san	-5645
▁zu	-5646
▁MUP	-5647
▁avne	-5648
▁eleg	-5649
▁ilot	-5650
▁ljav	-5651
▁oric	-5652
▁prob	-5653
▁živa	-5654
▁irano	-5655
▁120	-5656
▁ble	-5657
▁ean	-5658
▁rux	-5659
▁ozač	-5660
▁rvat	-5661
▁đenj	-5662
▁Anđel	-5663
▁ruzij	-5664
▁zlije	-5665
SA	-5666
ZO	-5667
▁Ex	-5668
▁aw	-5669
▁Vil	-5670
▁can	-5671
▁dri	-5672
▁jke	-5673
▁etal	-5674
▁ugov	-5675
▁donij	-5676
▁igral	-5677
gh	-5678
▁5,	-5679
▁DC	-5680
▁hib	-5681
▁nez	-5682
▁Mile	-5683
▁gori	-5684
▁ijet	-5685
▁mund	-5686
▁snov	-5687
▁vodo	-5688
▁apadn	-5689
▁ranič	-5690
LA	-5691
▁250	-5692
▁dij	-5693
▁fol	-5694
▁mah	-5695
▁vih	-5696
▁vnj	-5697
▁zma	-5698
▁čne	-5699
▁ažno	-5700
▁ićem	-5701
▁jana	-5702
▁lesn	-5703
▁olit	-5704
▁onte	-5705
▁oško	-5706
▁trov	-5707
▁Mik	-5708
▁Tek	-5709
▁iod	-5710
▁inju	-5711
▁reak	-5712
▁romi	-5713
▁liber	-5714
▁mn	-5715
▁Her	-5716
▁ibe	-5717
▁vrs	-5718
▁adov	-5719
▁NI	-5720
▁OP	-5721
▁pt	-5722
▁ajm	-5723
▁cen	-5724
▁međ	-5725
▁nuž	-5726
▁rto	-5727
▁demi	-5728
▁ijun	-5729
▁imal	-5730
▁rašn	-5731
▁zicij	-5732
NE	-5733
▁ü	-5734
▁OC	-5735
▁Dom	-5736
▁duć	-5737
▁jab	-5738
▁aral	-5739
▁arne	-5740
▁dmah	-5741
▁ilij	-5742
▁jeka	-5743
▁mješ	-5744
▁stri	-5745
▁tica	-5746
▁dijsk	-5747
▁jenih	-5748
▁tefan	-5749
▁eša	-5750
▁gat	-5751
▁jec	-5752
▁jesm	-5753
▁lija	-5754
▁osad	-5755
▁otel	-5756
▁raja	-5757
▁tike	-5758
▁tolik	-5759
▁42	-5760
▁UE	-5761
▁Gol	-5762
▁eke	-5763
▁obe	-5764
▁ofi	-5765
▁opl	-5766
▁acio	-5767
▁azit	-5768
▁eviz	-5769
▁eyen	-5770
▁ktor	-5771
▁mađa	-5772
▁ovla	-5773
▁stin	-5774
▁tory	-5775
▁čest	-5776
▁jasan	-5777
ajd	-5778
vij	-5779
▁Bu	-5780
▁Ga	-5781
▁Mas	-5782
▁fot	-5783
▁kiv	-5784
▁ojk	-5785
▁tup	-5786
▁zač	-5787
▁ćer	-5788
▁žno	-5789
▁avam	-5790
▁etov	-5791
▁ndar	-5792
▁uski	-5793
▁ijesn	-5794
▁kotar	-5795
▁ladim	-5796
▁njava	-5797
▁novin	-5798
vid	-5799
▁Dim	-5800
▁Van	-5801
▁kla	-5802
▁enda	-5803
▁kose	-5804
▁ručn	-5805
▁tolj	-5806
▁aliti	-5807
▁grani	-5808
fer	-5809
tes	-5810
▁Baš	-5811
▁EUR	-5812
▁sio	-5813
▁UEFA	-5814
▁cean	-5815
▁enni	-5816
▁jutr	-5817
▁juće	-5818
▁oban	-5819
▁oduz	-5820
▁aditi	-5821
▁inici	-5822
▁ometa	-5823
▁refer	-5824
iss	-5825
▁48	-5826
▁oge	-5827
▁eroj	-5828
▁nira	-5829
▁nstr	-5830
▁oler	-5831
▁witt	-5832
▁šava	-5833
tač	-5834
▁NE	-5835
▁Ivo	-5836
▁Sup	-5837
▁mer	-5838
▁nan	-5839
▁datk	-5840
▁imov	-5841
▁Đurđ	-5842
▁razli	-5843
▁videa	-5844
▁yj	-5845
▁Ili	-5846
▁are	-5847
▁asi	-5848
▁abij	-5849
▁edio	-5850
▁retn	-5851
▁predn	-5852
▁rijeb	-5853
▁rimje	-5854
ün	-5855
▁At	-5856
▁Vin	-5857
▁bri	-5858
▁dah	-5859
▁egl	-5860
▁eze	-5861
▁mao	-5862
▁rev	-5863
▁ader	-5864
▁aklj	-5865
▁elin	-5866
▁oruč	-5867
▁milos	-5868
▁nterv	-5869
▁vođen	-5870
gum	-5871
▁ask	-5872
▁atk	-5873
▁del	-5874
▁arić	-5875
▁enko	-5876
▁rošl	-5877
▁Orban	-5878
▁donos	-5879
▁odaje	-5880
▁stavu	-5881
EP	-5882
VA	-5883
ach	-5884
▁85	-5885
▁Mon	-5886
▁Ovi	-5887
▁rud	-5888
▁sak	-5889
▁tul	-5890
▁Hajd	-5891
▁ivak	-5892
▁ring	-5893
▁skoč	-5894
▁wood	-5895
▁entat	-5896
▁ijeko	-5897
▁zadin	-5898
9.	-5899
MS	-5900
mb	-5901
mer	-5902
▁7,	-5903
▁Gl	-5904
▁we	-5905
▁odo	-5906
▁Mirk	-5907
▁ašen	-5908
▁deći	-5909
▁dvij	-5910
▁edom	-5911
▁enov	-5912
▁kaln	-5913
▁oruk	-5914
▁trac	-5915
▁ambur	-5916
▁cipel	-5917
▁emije	-5918
▁lemen	-5919
▁pitan	-5920
Ja	-5921
▁irn	-5922
▁loj	-5923
▁lot	-5924
▁olf	-5925
▁učn	-5926
▁zak	-5927
▁info	-5928
▁jele	-5929
▁jivo	-5930
▁metr	-5931
▁orna	-5932
▁slič	-5933
▁igrat	-5934
bul	-5935
rik	-5936
▁DJ	-5937
▁Mid	-5938
▁alm	-5939
▁zau	-5940
▁imun	-5941
▁iram	-5942
▁ljak	-5943
▁mije	-5944
▁pije	-5945
▁ušta	-5946
▁ntern	-5947
▁odila	-5948
ner	-5949
yer	-5950
▁ss	-5951
▁One	-5952
▁jeđ	-5953
▁ken	-5954
▁orč	-5955
▁koef	-5956
▁ojoj	-5957
▁pret	-5958
▁preu	-5959
▁stim	-5960
▁stop	-5961
▁imanj	-5962
▁loški	-5963
▁žirij	-5964
art	-5965
din	-5966
dul	-5967
mon	-5968
▁ET	-5969
▁OI	-5970
▁Ur	-5971
▁We	-5972
▁Bog	-5973
▁Oko	-5974
▁PDV	-5975
▁src	-5976
▁tas	-5977
▁atom	-5978
▁niku	-5979
▁plje	-5980
▁riva	-5981
▁ubil	-5982
▁vani	-5983
▁azali	-5984
▁ernet	-5985
▁kolik	-5986
▁KS	-5987
▁Pu	-5988
▁yl	-5989
▁Ruž	-5990
▁aes	-5991
▁alin	-5992
▁ženj	-5993
▁argum	-5994
▁avlja	-5995
▁orija	-5996
ord	-5997
▁LA	-5998
▁td	-5999
▁bok	-6000
▁cur	-6001
▁ien	-6002
▁ekre	-6003
▁imon	-6004
▁olja	-6005
▁popr	-6006
▁učer	-6007
▁vara	-6008
▁odine	-6009
▁vjeru	-6010
▁vrati	-6011
ry	-6012
▁FI	-6013
▁GP	-6014
▁tv	-6015
▁Lid	-6016
▁arc	-6017
▁tol	-6018
▁unk	-6019
▁Niko	-6020
▁anda	-6021
▁tral	-6022
▁zacij	-6023
MO	-6024
▁qu	-6025
▁Miš	-6026
▁cit	-6027
▁dez	-6028
▁dov	-6029
▁ebi	-6030
▁epo	-6031
▁nag	-6032
▁oal	-6033
▁avni	-6034
▁azan	-6035
▁nači	-6036
▁ojic	-6037
▁pona	-6038
▁tiku	-6039
▁japan	-6040
▁robot	-6041
▁ö	-6042
col	-6043
dil	-6044
▁Vu	-6045
▁prv	-6046
▁reh	-6047
▁ril	-6048
▁ule	-6049
▁uće	-6050
▁SDSS	-6051
▁nate	-6052
▁soba	-6053
▁eorge	-6054
▁ormal	-6055
▁pobje	-6056
▁ranit	-6057
▁rijem	-6058
pz	-6059
▁Li	-6060
▁RA	-6061
▁dbe	-6062
▁eipz	-6063
▁očit	-6064
▁znal	-6065
▁ašnji	-6066
▁kutij	-6067
▁ramen	-6068
▁trbuh	-6069
▁HS	-6070
▁IN	-6071
▁ua	-6072
▁any	-6073
▁daš	-6074
▁kib	-6075
▁lih	-6076
▁ors	-6077
▁puc	-6078
▁ulo	-6079
▁anih	-6080
▁arda	-6081
▁erac	-6082
▁mesa	-6083
▁tipe	-6084
▁antan	-6085
▁rović	-6086
▁Er	-6087
▁Lo	-6088
▁Rat	-6089
▁bač	-6090
▁nde	-6091
▁čuo	-6092
▁žar	-6093
▁azal	-6094
▁imes	-6095
▁raju	-6096
▁anđel	-6097
▁asnik	-6098
▁lavni	-6099
▁orčul	-6100
ED	-6101
▁IC	-6102
▁aba	-6103
▁guš	-6104
▁rke	-6105
▁rnj	-6106
▁Mand	-6107
▁erat	-6108
▁odri	-6109
▁ričk	-6110
▁alnoj	-6111
▁asmin	-6112
▁beton	-6113
▁ekuje	-6114
▁ijene	-6115
▁manja	-6116
▁minus	-6117
▁niran	-6118
▁ontan	-6119
UD	-6120
▁é	-6121
rač	-6122
▁Iza	-6123
▁rma	-6124
▁rot	-6125
▁ves	-6126
▁Unij	-6127
▁igao	-6128
▁oživ	-6129
▁rica	-6130
▁sadr	-6131
▁ancij	-6132
ing	-6133
▁PA	-6134
▁cir	-6135
▁gaj	-6136
▁nok	-6137
▁osk	-6138
▁tud	-6139
▁irov	-6140
▁lažu	-6141
▁olak	-6142
▁sobi	-6143
▁inska	-6144
▁trije	-6145
▁Mün	-6146
▁afe	-6147
▁ces	-6148
▁omi	-6149
▁ony	-6150
▁trp	-6151
▁ande	-6152
▁jevo	-6153
▁lata	-6154
▁ljam	-6155
▁aglas	-6156
▁BM	-6157
▁CN	-6158
▁Pup	-6159
▁asl	-6160
▁kas	-6161
▁nuk	-6162
▁YouT	-6163
▁dikt	-6164
▁ećim	-6165
▁greb	-6166
▁jajn	-6167
▁logi	-6168
▁mačk	-6169
▁nivo	-6170
▁slug	-6171
▁Jones	-6172
von	-6173
▁IV	-6174
▁Sva	-6175
▁aga	-6176
▁enč	-6177
▁etr	-6178
▁ptu	-6179
▁rdo	-6180
▁rgu	-6181
▁rve	-6182
▁erit	-6183
▁lima	-6184
▁omet	-6185
▁onta	-6186
▁ovis	-6187
▁raks	-6188
▁ament	-6189
▁homas	-6190
▁išten	-6191
▁junak	-6192
▁kotač	-6193
▁urnej	-6194
son	-6195
▁RI	-6196
▁Fur	-6197
▁Kim	-6198
▁Kne	-6199
▁Ner	-6200
▁hon	-6201
▁nau	-6202
▁ons	-6203
▁suo	-6204
▁žan	-6205
▁iren	-6206
▁jeme	-6207
▁jeni	-6208
▁ogat	-6209
▁lokal	-6210
ill	-6211
▁(1	-6212
▁dn	-6213
▁lm	-6214
▁Don	-6215
▁sal	-6216
▁dnev	-6217
▁eden	-6218
▁ingl	-6219
▁upci	-6220
▁anije	-6221
▁tepen	-6222
heo	-6223
utt	-6224
▁ER	-6225
▁žj	-6226
▁Mit	-6227
▁row	-6228
▁uni	-6229
▁Sela	-6230
▁arci	-6231
▁arhi	-6232
▁arti	-6233
▁emin	-6234
▁izra	-6235
▁ovic	-6236
▁poma	-6237
▁rane	-6238
▁anuel	-6239
▁tiran	-6240
▁ularn	-6241
ER	-6242
▁44	-6243
▁2-0	-6244
▁Joe	-6245
▁Tor	-6246
▁mel	-6247
▁sol	-6248
▁žem	-6249
▁anat	-6250
▁eror	-6251
▁jiti	-6252
▁ovat	-6253
▁ođen	-6254
▁polo	-6255
▁rder	-6256
▁rofi	-6257
▁zadr	-6258
▁zije	-6259
▁žava	-6260
▁Nicol	-6261
▁ergij	-6262
▁gužve	-6263
▁izdan	-6264
eld	-6265
▁SO	-6266
▁Med	-6267
▁azn	-6268
▁bik	-6269
▁uko	-6270
▁edic	-6271
▁gaja	-6272
▁kale	-6273
▁laži	-6274
▁odje	-6275
▁onna	-6276
▁rand	-6277
▁rnoj	-6278
▁tata	-6279
▁teta	-6280
▁arjan	-6281
▁ijeka	-6282
▁ribar	-6283
▁bl	-6284
▁đa	-6285
▁rla	-6286
▁ujk	-6287
▁vic	-6288
▁žut	-6289
▁adom	-6290
▁erna	-6291
▁etko	-6292
▁ešto	-6293
▁iska	-6294
▁laža	-6295
▁namo	-6296
▁riju	-6297
▁tone	-6298
▁lamen	-6299
▁odala	-6300
▁toper	-6301
gel	-6302
tam	-6303
▁ny	-6304
▁oi	-6305
▁III	-6306
▁avr	-6307
▁ish	-6308
▁asni	-6309
▁ersk	-6310
▁ojed	-6311
▁ušev	-6312
▁varn	-6313
▁arsko	-6314
▁ačica	-6315
▁grafi	-6316
▁spore	-6317
▁stupi	-6318
▁zaslu	-6319
kul	-6320
ric	-6321
ust	-6322
▁EL	-6323
▁OS	-6324
▁DIP	-6325
▁odl	-6326
▁rop	-6327
▁vao	-6328
▁biln	-6329
▁dmor	-6330
▁dužn	-6331
▁jero	-6332
▁ojih	-6333
▁outh	-6334
▁ožar	-6335
▁slan	-6336
▁ujan	-6337
▁zvon	-6338
▁šenj	-6339
▁adaju	-6340
▁jmanj	-6341
VP	-6342
ras	-6343
ril	-6344
▁SU	-6345
▁700	-6346
▁nak	-6347
▁očel	-6348
▁kriti	-6349
▁rajuć	-6350
▁slobo	-6351
▁strok	-6352
▁PI	-6353
▁Un	-6354
▁HAK	-6355
▁Lig	-6356
▁Ven	-6357
▁ajl	-6358
▁apr	-6359
▁tvu	-6360
▁Vara	-6361
▁atan	-6362
▁aton	-6363
▁dahn	-6364
▁lara	-6365
▁opra	-6366
▁aerod	-6367
▁manek	-6368
▁rugom	-6369
▁vanju	-6370
ld	-6371
▁Hu	-6372
▁MA	-6373
▁HTV	-6374
▁hot	-6375
▁kvi	-6376
▁oze	-6377
▁azao	-6378
▁eksa	-6379
▁jeda	-6380
▁rođe	-6381
▁vati	-6382
▁šuma	-6383
▁anjur	-6384
▁azlog	-6385
▁cerem	-6386
▁ijena	-6387
CA	-6388
▁Ah	-6389
▁Nor	-6390
▁eže	-6391
▁izi	-6392
▁nen	-6393
▁oid	-6394
▁rip	-6395
▁ekat	-6396
▁ente	-6397
▁entu	-6398
▁gušt	-6399
▁hađa	-6400
▁ugar	-6401
▁jevoj	-6402
▁memor	-6403
-3	-6404
▁žd	-6405
▁Pot	-6406
▁Sav	-6407
▁otu	-6408
▁ovč	-6409
▁koli	-6410
▁luba	-6411
▁oseb	-6412
▁otti	-6413
▁rira	-6414
▁šarm	-6415
▁debit	-6416
▁kabin	-6417
▁oruss	-6418
ans	-6419
sic	-6420
▁RE	-6421
▁Dra	-6422
▁PSG	-6423
▁Uni	-6424
▁bah	-6425
▁koz	-6426
▁Knež	-6427
▁aria	-6428
▁atar	-6429
▁enir	-6430
▁olod	-6431
▁taln	-6432
▁uvar	-6433
han	-6434
▁šn	-6435
▁eck	-6436
▁izu	-6437
▁opi	-6438
▁baka	-6439
▁isac	-6440
▁midž	-6441
▁prip	-6442
▁rans	-6443
▁rejt	-6444
▁uran	-6445
▁anbul	-6446
▁emokr	-6447
▁panel	-6448
dy	-6449
ske	-6450
▁1-0	-6451
▁Wim	-6452
▁ejn	-6453
▁hom	-6454
▁iot	-6455
▁mes	-6456
▁zmi	-6457
▁ladu	-6458
▁najb	-6459
▁okaz	-6460
Na	-6461
bi	-6462
ya	-6463
dav	-6464
mit	-6465
viš	-6466
▁43	-6467
▁nn	-6468
▁Fil	-6469
▁Pan	-6470
▁Ram	-6471
▁ajp	-6472
▁liš	-6473
▁ute	-6474
▁ćeš	-6475
▁Jack	-6476
▁ajed	-6477
▁alif	-6478
▁gest	-6479
▁ijum	-6480
▁reet	-6481
▁edino	-6482
▁ejner	-6483
▁entil	-6484
▁humor	-6485
▁kcija	-6486
▁krila	-6487
dum	-6488
▁pp	-6489
aker	-6490
▁Pol	-6491
▁Vas	-6492
▁ave	-6493
▁sok	-6494
▁Post	-6495
▁ajev	-6496
▁ekuj	-6497
▁ilom	-6498
▁isan	-6499
▁jans	-6500
▁oziv	-6501
▁ajviš	-6502
▁golem	-6503
▁ijelu	-6504
▁rugog	-6505
rut	-6506
▁BMW	-6507
▁Fut	-6508
▁Mur	-6509
▁jma	-6510
▁jon	-6511
▁jur	-6512
▁maz	-6513
▁psa	-6514
▁Dani	-6515
▁dama	-6516
▁lova	-6517
▁orat	-6518
▁ozic	-6519
▁panj	-6520
▁vrij	-6521
▁Nives	-6522
▁nedav	-6523
▁nskoj	-6524
▁ranka	-6525
XS	-6526
▁Hr	-6527
▁RO	-6528
▁1,5	-6529
▁Rok	-6530
▁dav	-6531
▁dro	-6532
▁hop	-6533
▁ilu	-6534
▁ple	-6535
▁pus	-6536
▁rič	-6537
▁ačaj	-6538
▁dima	-6539
▁ford	-6540
▁kren	-6541
▁nast	-6542
▁unav	-6543
▁štaj	-6544
▁Dejan	-6545
▁bilje	-6546
▁onovn	-6547
▁opust	-6548
▁stina	-6549
▁tivan	-6550
Da	-6551
▁aus	-6552
▁dak	-6553
▁ear	-6554
▁nem	-6555
▁ogi	-6556
▁vim	-6557
▁zal	-6558
▁erin	-6559
▁icio	-6560
▁ijte	-6561
▁kožu	-6562
▁mina	-6563
▁ostr	-6564
▁osuđ	-6565
▁skor	-6566
▁utro	-6567
▁čima	-6568
▁jenim	-6569
▁sklju	-6570
orld	-6571
▁otn	-6572
▁poš	-6573
▁uop	-6574
▁Alan	-6575
▁ambl	-6576
▁enin	-6577
▁iber	-6578
▁jaki	-6579
▁kira	-6580
▁mand	-6581
▁odru	-6582
▁orio	-6583
▁ramp	-6584
▁voju	-6585
▁eseci	-6586
▁kv	-6587
▁800	-6588
▁CNN	-6589
▁Gar	-6590
▁itt	-6591
▁kum	-6592
▁teo	-6593
▁djed	-6594
▁lovi	-6595
▁mati	-6596
▁miti	-6597
▁olan	-6598
▁piti	-6599
▁pomi	-6600
▁tati	-6601
▁užno	-6602
▁biljn	-6603
▁evjer	-6604
▁karat	-6605
▁prist	-6606
▁sudio	-6607
ST	-6608
Za	-6609
gen	-6610
▁En	-6611
▁Pel	-6612
▁ezi	-6613
▁žao	-6614
▁ecij	-6615
▁erov	-6616
▁nuta	-6617
▁čili	-6618
▁čiti	-6619
▁ajući	-6620
▁ačkom	-6621
▁debat	-6622
▁olici	-6623
ys	-6624
▁58	-6625
▁2-1	-6626
▁OCM	-6627
▁gne	-6628
▁idi	-6629
▁jić	-6630
▁rih	-6631
▁sup	-6632
▁uša	-6633
▁Miss	-6634
▁adin	-6635
▁empe	-6636
▁hony	-6637
▁ilor	-6638
▁isin	-6639
▁okal	-6640
▁okru	-6641
▁orez	-6642
▁rači	-6643
▁utje	-6644
▁vali	-6645
▁anira	-6646
▁arhiv	-6647
▁podrš	-6648
-4	-6649
-6	-6650
▁46	-6651
▁ox	-6652
mink	-6653
▁Jul	-6654
▁Pek	-6655
▁akš	-6656
▁dni	-6657
▁erm	-6658
▁mut	-6659
▁Mont	-6660
▁Mora	-6661
▁nske	-6662
▁rišt	-6663
▁tura	-6664
▁digra	-6665
▁edini	-6666
▁glumi	-6667
▁provo	-6668
▁ritam	-6669
▁udara	-6670
▁urger	-6671
SC	-6672
▁47	-6673
▁8,	-6674
▁MO	-6675
▁by	-6676
▁SOA	-6677
▁uch	-6678
▁čov	-6679
▁žet	-6680
▁disa	-6681
▁dluč	-6682
▁eric	-6683
▁hlađ	-6684
▁init	-6685
▁mast	-6686
▁orak	-6687
▁rgan	-6688
▁umnj	-6689
▁adona	-6690
▁istit	-6691
▁osječ	-6692
▁putov	-6693
▁šmink	-6694
her	-6695
nat	-6696
tir	-6697
▁41	-6698
▁95	-6699
▁Ca	-6700
▁RS	-6701
▁ža	-6702
▁App	-6703
▁egz	-6704
▁him	-6705
▁ibl	-6706
▁ogl	-6707
▁olz	-6708
▁vsk	-6709
▁ćuj	-6710
▁čeg	-6711
▁anit	-6712
▁jski	-6713
▁kono	-6714
▁ljem	-6715
▁ospo	-6716
▁tkom	-6717
▁Milen	-6718
▁ijeta	-6719
▁litič	-6720
▁rosin	-6721
ET	-6722
ull	-6723
▁64	-6724
▁DA	-6725
▁šk	-6726
acij	-6727
▁Kul	-6728
▁Zov	-6729
▁kve	-6730
▁ujn	-6731
▁zao	-6732
▁češ	-6733
▁eduk	-6734
▁mokr	-6735
▁omać	-6736
▁posv	-6737
▁potp	-6738
▁soci	-6739
▁trič	-6740
▁turn	-6741
▁čica	-6742
▁nizac	-6743
▁uacij	-6744
ell	-6745
▁Fu	-6746
▁2,5	-6747
▁IDS	-6748
▁Sev	-6749
▁cat	-6750
▁eal	-6751
▁ect	-6752
▁len	-6753
▁nal	-6754
▁orz	-6755
▁jnih	-6756
▁taci	-6757
▁wift	-6758
▁inuti	-6759
▁načel	-6760
▁obolj	-6761
▁odruč	-6762
▁rakse	-6763
mot	-6764
urt	-6765
▁kW	-6766
▁lb	-6767
▁OPG	-6768
▁Ris	-6769
▁ald	-6770
▁vić	-6771
▁Jure	-6772
▁anom	-6773
▁evid	-6774
▁jaju	-6775
▁lack	-6776
▁oton	-6777
▁poli	-6778
▁ruži	-6779
▁svje	-6780
▁tate	-6781
▁znen	-6782
▁menti	-6783
▁otten	-6784
cy	-6785
fa	-6786
ia	-6787
ww	-6788
jak	-6789
kir	-6790
▁66	-6791
▁ld	-6792
▁Rod	-6793
▁Vic	-6794
▁doč	-6795
▁ivu	-6796
▁osv	-6797
▁paz	-6798
▁ric	-6799
▁tlj	-6800
▁yan	-6801
▁HGSS	-6802
▁ivna	-6803
▁odgo	-6804
▁onst	-6805
▁rvom	-6806
▁vest	-6807
▁alans	-6808
▁betes	-6809
▁jeste	-6810
▁kloni	-6811
▁ovolj	-6812
▁posti	-6813
▁terij	-6814
▁umjet	-6815
▁čovje	-6816
EC	-6817
▁Can	-6818
▁Del	-6819
▁Len	-6820
▁buk	-6821
▁dže	-6822
▁off	-6823
▁osi	-6824
▁ošk	-6825
▁ume	-6826
▁urd	-6827
▁uđe	-6828
▁www	-6829
▁Ćor	-6830
▁ažur	-6831
▁erez	-6832
▁ilip	-6833
▁nili	-6834
▁onac	-6835
▁opez	-6836
▁rekt	-6837
▁seta	-6838
▁edija	-6839
▁isala	-6840
▁lakat	-6841
▁orili	-6842
LS	-6843
SK	-6844
▁Ke	-6845
▁MI	-6846
▁Gre	-6847
▁Ren	-6848
▁epa	-6849
▁gaz	-6850
▁lah	-6851
▁roc	-6852
▁Brak	-6853
▁arun	-6854
▁asen	-6855
▁kole	-6856
▁lužb	-6857
▁ogli	-6858
▁ojat	-6859
▁orga	-6860
▁oril	-6861
▁otog	-6862
▁ound	-6863
▁rame	-6864
▁ream	-6865
▁Dalma	-6866
▁Kulen	-6867
▁debel	-6868
▁eufor	-6869
▁obila	-6870
▁rašin	-6871
:2	-6872
IV	-6873
▁61	-6874
▁EN	-6875
▁Wa	-6876
▁Kri	-6877
▁Wil	-6878
▁Zap	-6879
▁Zor	-6880
▁fan	-6881
▁hip	-6882
▁jaj	-6883
▁lug	-6884
▁nuđ	-6885
▁alju	-6886
▁apre	-6887
▁asad	-6888
▁esno	-6889
▁fiks	-6890
▁ovni	-6891
▁teph	-6892
▁toje	-6893
▁udan	-6894
▁ahval	-6895
▁antis	-6896
▁arišk	-6897
▁kolač	-6898
▁nevni	-6899
▁ummit	-6900
▁učili	-6901
▁vrtka	-6902
ise	-6903
rit	-6904
▁(2	-6905
▁54	-6906
▁AR	-6907
▁Šu	-6908
▁Mia	-6909
▁Trg	-6910
▁ivš	-6911
▁lla	-6912
▁mul	-6913
▁rdn	-6914
▁riš	-6915
▁ser	-6916
▁sit	-6917
▁zom	-6918
▁šes	-6919
▁Drug	-6920
▁deve	-6921
▁ekad	-6922
▁nave	-6923
▁opas	-6924
▁rana	-6925
▁stag	-6926
▁ziti	-6927
▁žuti	-6928
▁deman	-6929
▁guver	-6930
▁initi	-6931
▁morat	-6932
▁njenj	-6933
▁rosto	-6934
▁upnik	-6935
▁čenje	-6936
gn	-6937
rig	-6938
▁52	-6939
▁Ab	-6940
▁nk	-6941
skom	-6942
▁Jun	-6943
▁ozo	-6944
▁pek	-6945
▁upi	-6946
▁veu	-6947
▁adon	-6948
▁izne	-6949
▁ktiv	-6950
▁mala	-6951
▁mith	-6952
▁olks	-6953
▁rako	-6954
▁sira	-6955
▁skus	-6956
▁vakv	-6957
▁voja	-6958
▁vora	-6959
▁raksa	-6960
▁timul	-6961
▁urbul	-6962
▁veoma	-6963
▁Lj	-6964
▁oa	-6965
▁IJE	-6966
▁Res	-6967
▁Vit	-6968
▁ađu	-6969
▁jva	-6970
▁kuš	-6971
▁zič	-6972
▁avlj	-6973
▁enzi	-6974
▁etit	-6975
▁guma	-6976
▁mašt	-6977
▁rajč	-6978
▁ropa	-6979
▁sluš	-6980
▁učio	-6981
▁Super	-6982
▁arheo	-6983
▁djeti	-6984
▁napre	-6985
▁struč	-6986
▁vršil	-6987
gor	-6988
▁OR	-6989
▁Bur	-6990
▁Des	-6991
▁Mes	-6992
▁dej	-6993
▁how	-6994
▁ipa	-6995
▁oša	-6996
▁ršk	-6997
▁vij	-6998
▁ajni	-6999
▁anjk	-7000
▁avod	-7001
▁ećih	-7002
▁išnj	-7003
▁mper	-7004
▁rgij	-7005
▁rovi	-7006
▁uzro	-7007
▁vice	-7008
▁zgod	-7009
▁zube	-7010
▁arodn	-7011
▁rojni	-7012
DA	-7013
ču	-7014
gus	-7015
tat	-7016
▁51	-7017
▁BI	-7018
▁Wi	-7019
▁ct	-7020
▁Zar	-7021
▁asu	-7022
▁ipo	-7023
▁upl	-7024
▁zno	-7025
▁dlak	-7026
▁dnij	-7027
▁mann	-7028
▁minu	-7029
▁naro	-7030
▁ošnj	-7031
▁past	-7032
▁raum	-7033
▁romo	-7034
▁rora	-7035
▁vnim	-7036
▁duhan	-7037
▁kadet	-7038
ted	-7039
▁49	-7040
▁EC	-7041
▁WC	-7042
▁Zl	-7043
▁rm	-7044
▁Šv	-7045
▁eča	-7046
▁iča	-7047
▁kir	-7048
▁own	-7049
▁zdr	-7050
▁alac	-7051
▁anji	-7052
▁arok	-7053
▁aver	-7054
▁cert	-7055
▁emen	-7056
▁grob	-7057
▁isal	-7058
▁nerg	-7059
▁ovar	-7060
▁prik	-7061
▁World	-7062
▁arbon	-7063
▁hvati	-7064
▁voden	-7065
BI	-7066
eln	-7067
▁62	-7068
▁sh	-7069
▁And	-7070
▁ape	-7071
▁gem	-7072
▁ogn	-7073
▁diti	-7074
▁ivno	-7075
▁slim	-7076
▁suđe	-7077
▁Feder	-7078
▁aranž	-7079
▁deleg	-7080
▁ected	-7081
▁lektr	-7082
▁svoji	-7083
get	-7084
tik	-7085
▁00	-7086
▁PR	-7087
▁Zu	-7088
▁kt	-7089
▁Lav	-7090
▁Rem	-7091
▁Vis	-7092
▁WTA	-7093
▁baj	-7094
▁bon	-7095
▁tir	-7096
▁eron	-7097
▁igan	-7098
▁irat	-7099
▁ivat	-7100
▁kons	-7101
▁lina	-7102
▁nisi	-7103
▁orta	-7104
▁raci	-7105
▁sima	-7106
▁tski	-7107
▁ulsk	-7108
▁zlož	-7109
▁Bayer	-7110
▁alkon	-7111
▁krenu	-7112
▁pehar	-7113
▁trani	-7114
▁štiti	-7115
ep	-7116
ott	-7117
ppe	-7118
▁Kit	-7119
▁Koš	-7120
▁ach	-7121
▁cil	-7122
▁dla	-7123
▁irk	-7124
▁oun	-7125
▁tač	-7126
▁tte	-7127
▁ubr	-7128
▁Akad	-7129
▁abro	-7130
▁ikan	-7131
▁jamč	-7132
▁jeđe	-7133
▁pati	-7134
▁reen	-7135
▁trog	-7136
▁vrti	-7137
▁avnom	-7138
▁aznic	-7139
▁iljen	-7140
▁milit	-7141
▁vinsk	-7142
th	-7143
▁Mr	-7144
▁Jug	-7145
▁Nap	-7146
▁ajd	-7147
▁oft	-7148
▁rgo	-7149
▁sed	-7150
▁tla	-7151
▁Fred	-7152
▁OVAJ	-7153
▁azar	-7154
▁djev	-7155
▁dnja	-7156
▁elil	-7157
▁himn	-7158
▁ivne	-7159
▁janj	-7160
▁karc	-7161
▁olno	-7162
▁omun	-7163
▁ovje	-7164
▁pjel	-7165
▁tite	-7166
▁utvr	-7167
▁anjak	-7168
▁cigar	-7169
▁konom	-7170
▁ružen	-7171
▁stitu	-7172
▁vinar	-7173
FC	-7174
fr	-7175
kn	-7176
len	-7177
▁9,	-7178
▁HB	-7179
▁ls	-7180
▁Rec	-7181
▁esp	-7182
▁ipe	-7183
▁iči	-7184
▁rzi	-7185
▁asan	-7186
▁avim	-7187
▁evak	-7188
▁geot	-7189
▁naci	-7190
▁odni	-7191
▁orsk	-7192
▁pres	-7193
▁rovn	-7194
▁sion	-7195
▁tigl	-7196
▁vike	-7197
▁bappe	-7198
▁gradn	-7199
▁kumen	-7200
▁ničko	-7201
▁oviti	-7202
Mi	-7203
▁>	-7204
let	-7205
▁AG	-7206
▁ST	-7207
▁kš	-7208
▁pc	-7209
▁180	-7210
▁nol	-7211
▁old	-7212
▁Žid	-7213
▁Prim	-7214
▁abio	-7215
▁bavn	-7216
▁daci	-7217
▁inko	-7218
▁kant	-7219
▁ngle	-7220
▁olom	-7221
▁ston	-7222
▁tras	-7223
▁trol	-7224
▁ušan	-7225
▁dućan	-7226
▁gusto	-7227
▁irane	-7228
▁isnik	-7229
▁kvadr	-7230
▁lijte	-7231
▁radov	-7232
rie	-7233
sul	-7234
▁SA	-7235
▁Ya	-7236
▁130	-7237
▁Fio	-7238
▁ack	-7239
▁aht	-7240
▁cca	-7241
▁fal	-7242
▁ruj	-7243
▁usn	-7244
▁ćut	-7245
▁ačka	-7246
▁bake	-7247
▁chen	-7248
▁gart	-7249
▁jete	-7250
▁klik	-7251
▁komi	-7252
▁litv	-7253
▁nuto	-7254
▁ogom	-7255
▁udes	-7256
▁Apple	-7257
▁inger	-7258
▁raper	-7259
▁rativ	-7260
▁učila	-7261
▁zbjeg	-7262
fon	-7263
rir	-7264
▁73	-7265
▁76	-7266
▁TZ	-7267
uter	-7268
▁Kre	-7269
▁Ras	-7270
▁eja	-7271
▁eđi	-7272
▁knj	-7273
▁vac	-7274
▁dalo	-7275
▁ekli	-7276
▁elov	-7277
▁erti	-7278
▁ezij	-7279
▁gume	-7280
▁jake	-7281
▁koša	-7282
▁ptuž	-7283
▁tutt	-7284
▁olksw	-7285
▁padni	-7286
▁rskom	-7287
▁šansa	-7288
LI	-7289
vas	-7290
▁56	-7291
▁72	-7292
▁fl	-7293
▁fo	-7294
▁ABA	-7295
▁Bad	-7296
▁Rak	-7297
▁Rio	-7298
▁bun	-7299
▁dež	-7300
▁evn	-7301
▁sme	-7302
▁šak	-7303
▁žit	-7304
▁Obje	-7305
▁arca	-7306
▁etom	-7307
▁fere	-7308
▁gard	-7309
▁javu	-7310
▁osan	-7311
▁stab	-7312
▁ubot	-7313
▁udru	-7314
▁ansko	-7315
▁arter	-7316
▁dirig	-7317
▁ebast	-7318
▁haker	-7319
▁znena	-7320
sy	-7321
▁63	-7322
▁AV	-7323
▁EK	-7324
▁000	-7325
▁Edi	-7326
▁HEP	-7327
▁INA	-7328
▁eje	-7329
▁gul	-7330
▁mlj	-7331
▁ror	-7332
▁Asad	-7333
▁atal	-7334
▁aura	-7335
▁epar	-7336
▁etno	-7337
▁imul	-7338
▁otek	-7339
▁rbij	-7340
▁tinu	-7341
▁višk	-7342
▁arski	-7343
▁icije	-7344
▁iješi	-7345
▁logan	-7346
▁ovito	-7347
▁sasta	-7348
▁vjeta	-7349
ou	-7350
bac	-7351
lis	-7352
zer	-7353
▁As	-7354
▁HV	-7355
▁abi	-7356
▁diš	-7357
▁hig	-7358
▁luč	-7359
▁nko	-7360
▁oža	-7361
▁zul	-7362
▁PAOK	-7363
▁ajer	-7364
▁amur	-7365
▁dina	-7366
▁tici	-7367
▁zmij	-7368
▁emlje	-7369
▁nskih	-7370
▁poslj	-7371
▁rofes	-7372
hl	-7373
iv	-7374
ky	-7375
po	-7376
use	-7377
▁PP	-7378
▁zr	-7379
▁7-6	-7380
▁Kup	-7381
▁bek	-7382
▁dač	-7383
▁gog	-7384
▁isi	-7385
▁sci	-7386
▁vrd	-7387
▁zan	-7388
▁čiv	-7389
▁žin	-7390
▁Fort	-7391
▁azir	-7392
▁baze	-7393
▁džep	-7394
▁ikom	-7395
▁leck	-7396
▁ojen	-7397
▁poja	-7398
▁prug	-7399
▁riti	-7400
▁stig	-7401
▁toar	-7402
▁uman	-7403
▁vare	-7404
▁Fiore	-7405
▁brinu	-7406
▁dizel	-7407
▁kopan	-7408
DI	-7409
ph	-7410
viv	-7411
▁5'	-7412
▁UK	-7413
▁lk	-7414
▁eim	-7415
▁eur	-7416
▁iko	-7417
▁tpo	-7418
▁ubi	-7419
▁zet	-7420
▁ajav	-7421
▁artn	-7422
▁elek	-7423
▁iams	-7424
▁mode	-7425
▁rece	-7426
▁trip	-7427
▁ture	-7428
▁adovi	-7429
▁ališt	-7430
▁ancir	-7431
▁ikvid	-7432
▁ister	-7433
▁limit	-7434
▁trogo	-7435
▁vodnj	-7436
..	-7437
hit	-7438
kat	-7439
kic	-7440
yne	-7441
▁Si	-7442
▁dm	-7443
▁fu	-7444
▁kc	-7445
▁Ći	-7446
▁Sud	-7447
▁atj	-7448
▁evr	-7449
▁lev	-7450
▁muk	-7451
▁nož	-7452
▁sih	-7453
▁vni	-7454
▁šle	-7455
▁dira	-7456
▁ergi	-7457
▁inat	-7458
▁inul	-7459
▁lasa	-7460
▁motr	-7461
▁nagl	-7462
▁oboj	-7463
▁ouis	-7464
▁rizn	-7465
▁umij	-7466
▁yson	-7467
▁Urban	-7468
▁bonus	-7469
▁hiper	-7470
▁ijela	-7471
▁jogur	-7472
▁odsje	-7473
▁orila	-7474
▁oster	-7475
▁retor	-7476
▁rmaln	-7477
fi	-7478
ps	-7479
▁ES	-7480
▁JU	-7481
▁Ki	-7482
▁iđ	-7483
▁mm	-7484
▁sj	-7485
oker	-7486
▁...	-7487
▁Aff	-7488
▁Dep	-7489
▁Hal	-7490
▁air	-7491
▁epe	-7492
▁eče	-7493
▁jum	-7494
▁rba	-7495
▁uin	-7496
▁avis	-7497
▁dran	-7498
▁jazz	-7499
▁mrak	-7500
▁namj	-7501
▁pora	-7502
▁rent	-7503
▁unar	-7504
▁čanj	-7505
▁štap	-7506
▁ardin	-7507
▁ardio	-7508
▁inner	-7509
▁odina	-7510
▁oston	-7511
▁rskog	-7512
RE	-7513
NIK	-7514
čio	-7515
▁160	-7516
▁Dig	-7517
▁Ned	-7518
▁Peo	-7519
▁Rov	-7520
▁hob	-7521
▁rzo	-7522
▁vre	-7523
▁astr	-7524
▁avio	-7525
▁ažen	-7526
▁enez	-7527
▁epal	-7528
▁hton	-7529
▁obit	-7530
▁odij	-7531
▁orum	-7532
▁ovol	-7533
▁rice	-7534
▁rown	-7535
▁semb	-7536
▁uplj	-7537
▁viti	-7538
▁čajn	-7539
▁armen	-7540
▁ijele	-7541
▁ljeno	-7542
▁oduše	-7543
▁orski	-7544
▁umnji	-7545
▁višak	-7546
DP	-7547
enh	-7548
rol	-7549
tet	-7550
▁SE	-7551
▁ZA	-7552
▁Ša	-7553
▁60.	-7554
▁Ass	-7555
▁Grg	-7556
▁OVI	-7557
▁dit	-7558
▁ebo	-7559
▁nsp	-7560
▁uba	-7561
▁čju	-7562
▁žil	-7563
▁acij	-7564
▁adsk	-7565
▁afer	-7566
▁agar	-7567
▁arco	-7568
▁avil	-7569
▁bina	-7570
▁ekar	-7571
▁emam	-7572
▁heim	-7573
▁itis	-7574
▁njig	-7575
▁obre	-7576
▁ogod	-7577
▁onat	-7578
▁rilo	-7579
▁roup	-7580
▁tavi	-7581
▁thod	-7582
▁uzer	-7583
▁znoj	-7584
▁štar	-7585
▁ement	-7586
▁nevin	-7587
▁ručio	-7588
▁tepin	-7589
NL	-7590
▁53	-7591
▁57	-7592
▁CI	-7593
▁33.	-7594
▁Est	-7595
▁Pap	-7596
▁Reg	-7597
▁bre	-7598
▁cal	-7599
▁dea	-7600
▁ežn	-7601
▁grl	-7602
▁jax	-7603
▁kur	-7604
▁nab	-7605
▁uir	-7606
▁HZZO	-7607
▁Mary	-7608
▁Phil	-7609
▁duel	-7610
▁etlj	-7611
▁ikon	-7612
▁ilja	-7613
▁inal	-7614
▁jumf	-7615
▁neba	-7616
▁rađa	-7617
▁raže	-7618
▁ross	-7619
▁alist	-7620
▁banan	-7621
▁eljak	-7622
▁litij	-7623
▁lovan	-7624
▁okuša	-7625
▁ovnik	-7626
▁prili	-7627
án	-7628
vis	-7629
čiš	-7630
▁KK	-7631
▁đi	-7632
▁50.	-7633
▁Def	-7634
▁KUD	-7635
▁Mađ	-7636
▁Sen	-7637
▁Vaš	-7638
▁get	-7639
▁iar	-7640
▁mpi	-7641
▁osh	-7642
▁tiž	-7643
▁Šip	-7644
▁Bull	-7645
▁Elon	-7646
▁alik	-7647
▁amin	-7648
▁arab	-7649
▁dižu	-7650
▁gani	-7651
▁grač	-7652
▁jedu	-7653
▁obin	-7654
▁olij	-7655
▁orte	-7656
▁raza	-7657
▁stir	-7658
▁vojs	-7659
▁Memor	-7660
▁Serie	-7661
▁alter	-7662
▁dekor	-7663
▁dnosi	-7664
▁driat	-7665
▁ejrut	-7666
▁glasi	-7667
▁nečiš	-7668
▁nivou	-7669
▁njaka	-7670
▁ontaž	-7671
▁orica	-7672
▁revij	-7673
▁ruštv	-7674
▁vrdil	-7675
▁žitar	-7676
bl	-7677
ami	-7678
ilj	-7679
irm	-7680
▁AK	-7681
▁AN	-7682
▁OK	-7683
▁Dvo	-7684
▁Haa	-7685
▁Lad	-7686
▁Oba	-7687
▁doj	-7688
▁ias	-7689
▁iki	-7690
▁jik	-7691
▁kac	-7692
▁oke	-7693
▁oći	-7694
▁ukt	-7695
▁use	-7696
▁zgu	-7697
▁Edin	-7698
▁Hana	-7699
▁MORH	-7700
▁adut	-7701
▁ajma	-7702
▁atak	-7703
▁elik	-7704
▁lavo	-7705
▁nadi	-7706
▁nsku	-7707
▁olic	-7708
▁otte	-7709
▁poka	-7710
▁rema	-7711
▁rudž	-7712
▁ruge	-7713
▁timo	-7714
▁užit	-7715
▁štan	-7716
▁žnje	-7717
▁alija	-7718
▁amoli	-7719
▁drian	-7720
▁ionar	-7721
▁metab	-7722
▁motor	-7723
▁zbilj	-7724
EK	-7725
▁$	-7726
▁♬	-7727
nis	-7728
▁NL	-7729
▁Sm	-7730
▁Art	-7731
▁Bik	-7732
▁Fox	-7733
▁Top	-7734
▁ajs	-7735
▁ams	-7736
▁api	-7737
▁ašn	-7738
▁bos	-7739
▁jah	-7740
▁oiz	-7741
▁ugi	-7742
▁ull	-7743
▁unu	-7744
▁zik	-7745
▁Kost	-7746
▁asov	-7747
▁edov	-7748
▁ijac	-7749
▁izlo	-7750
▁mili	-7751
▁uruz	-7752
▁usin	-7753
▁zgub	-7754
▁Angel	-7755
▁adnja	-7756
▁adnji	-7757
▁antib	-7758
▁audic	-7759
▁endum	-7760
▁icion	-7761
▁kadar	-7762
▁našnj	-7763
▁onosi	-7764
▁stima	-7765
CI	-7766
GA	-7767
TC	-7768
hr	-7769
ye	-7770
▁•	-7771
gat	-7772
▁67	-7773
▁84	-7774
▁jt	-7775
▁1-1	-7776
▁1:0	-7777
▁HNB	-7778
▁Ovu	-7779
▁Pur	-7780
▁ntu	-7781
▁sne	-7782
▁uel	-7783
▁vot	-7784
▁Čim	-7785
▁abri	-7786
▁agla	-7787
▁arap	-7788
▁besk	-7789
▁duha	-7790
▁iman	-7791
▁indr	-7792
▁miče	-7793
▁mnog	-7794
▁nera	-7795
▁ojom	-7796
▁ovno	-7797
▁race	-7798
▁rija	-7799
▁tein	-7800
▁ženi	-7801
▁Melan	-7802
▁ablan	-7803
▁avija	-7804
▁ačeln	-7805
▁iječn	-7806
▁metak	-7807
▁podsj	-7808
dad	-7809
▁78	-7810
▁CD	-7811
▁Ce	-7812
▁ON	-7813
▁RB	-7814
▁ks	-7815
▁rđ	-7816
▁AfD	-7817
▁Cat	-7818
▁Div	-7819
▁Kal	-7820
▁Kum	-7821
▁Las	-7822
▁Rum	-7823
▁ašu	-7824
▁izn	-7825
▁mpo	-7826
▁orp	-7827
▁Kont	-7828
▁arir	-7829
▁armi	-7830
▁avar	-7831
▁avir	-7832
▁cott	-7833
▁liko	-7834
▁mimo	-7835
▁nosa	-7836
▁oden	-7837
▁ojav	-7838
▁tala	-7839
▁usko	-7840
▁Juraj	-7841
▁ambul	-7842
▁artel	-7843
▁autom	-7844
▁ačkoj	-7845
▁djelo	-7846
▁jskog	-7847
▁kontr	-7848
▁nogom	-7849
▁proda	-7850
▁rabar	-7851
lig	-7852
šir	-7853
▁SI	-7854
▁Či	-7855
▁2:0	-7856
▁3,5	-7857
▁Eto	-7858
▁For	-7859
▁SUV	-7860
▁Sil	-7861
▁Tin	-7862
▁Zim	-7863
▁atv	-7864
▁eth	-7865
▁rau	-7866
▁ria	-7867
▁sab	-7868
▁sip	-7869
▁siv	-7870
▁usi	-7871
▁zic	-7872
▁Anit	-7873
▁Mart	-7874
▁amij	-7875
▁dove	-7876
▁dvan	-7877
▁ekos	-7878
▁ezan	-7879
▁ispa	-7880
▁jast	-7881
▁krio	-7882
▁ksid	-7883
▁lank	-7884
▁mane	-7885
▁nena	-7886
▁obas	-7887
▁once	-7888
▁opre	-7889
▁ozit	-7890
▁rook	-7891
▁rovo	-7892
▁tjec	-7893
▁ucij	-7894
▁etnic	-7895
▁field	-7896
▁iznim	-7897
▁obili	-7898
▁oveza	-7899
▁ranim	-7900
▁ravan	-7901
▁roved	-7902
▁vileg	-7903
EA	-7904
OO	-7905
On	-7906
eg	-7907
gd	-7908
ug	-7909
bar	-7910
▁59	-7911
▁Ep	-7912
▁lf	-7913
▁yn	-7914
▁Fra	-7915
▁Int	-7916
▁Pen	-7917
▁dać	-7918
▁erl	-7919
▁ets	-7920
▁gum	-7921
▁kaj	-7922
▁pur	-7923
▁rda	-7924
▁tes	-7925
▁ubl	-7926
▁Čov	-7927
▁Jazz	-7928
▁PIXS	-7929
▁Paun	-7930
▁ateg	-7931
▁fisk	-7932
▁furt	-7933
▁homo	-7934
▁ihov	-7935
▁irom	-7936
▁jnim	-7937
▁odno	-7938
▁oleg	-7939
▁ombi	-7940
▁oral	-7941
▁rtic	-7942
▁ucak	-7943
▁vrać	-7944
▁Ursul	-7945
▁benef	-7946
▁dvora	-7947
▁idans	-7948
▁istup	-7949
▁jenog	-7950
▁ligon	-7951
▁najma	-7952
▁olova	-7953
▁supru	-7954
▁trpan	-7955
▁đenja	-7956
▁širin	-7957
GB	-7958
cht	-7959
dev	-7960
▁68	-7961
▁SN	-7962
inek	-7963
▁3-0	-7964
▁Air	-7965
▁Big	-7966
▁ELL	-7967
▁LED	-7968
▁Nas	-7969
▁Rog	-7970
▁Rom	-7971
▁Ser	-7972
▁dba	-7973
▁dic	-7974
▁ezu	-7975
▁ikv	-7976
▁jeh	-7977
▁niš	-7978
▁nus	-7979
▁oln	-7980
▁ožn	-7981
▁rši	-7982
▁ćeg	-7983
▁Jurj	-7984
▁arta	-7985
▁enit	-7986
▁ične	-7987
▁jedi	-7988
▁kadr	-7989
▁kosi	-7990
▁koži	-7991
▁lato	-7992
▁mame	-7993
▁nebu	-7994
▁rene	-7995
▁rvog	-7996
▁krimi	-7997
▁nolog	-7998
▁vodit	-7999
MF	-8000
RC	-8001
LJE	-8002
SCO	-8003
kas	-8004
▁FA	-8005
▁KM	-8006
▁TA	-8007
▁Hod	-8008
▁Kiš	-8009
▁Pak	-8010
▁fam	-8011
▁gov	-8012
▁itv	-8013
▁jnu	-8014
▁rku	-8015
▁uže	-8016
▁čem	-8017
▁ednj	-8018
▁elji	-8019
▁etik	-8020
▁ešta	-8021
▁ilno	-8022
▁inač	-8023
▁ings	-8024
▁ogis	-8025
▁omis	-8026
▁renu	-8027
▁ulin	-8028
▁umin	-8029
▁uter	-8030
▁vask	-8031
▁vrdi	-8032
▁zlij	-8033
▁arhij	-8034
▁engen	-8035
▁košar	-8036
FP	-8037
rus	-8038
▁()	-8039
▁(3	-8040
▁GO	-8041
▁aa	-8042
▁2:1	-8043
▁3-1	-8044
▁HGK	-8045
▁Vam	-8046
▁edl	-8047
▁gač	-8048
▁ies	-8049
▁los	-8050
▁upr	-8051
▁vog	-8052
▁Kova	-8053
▁anad	-8054
▁arad	-8055
▁back	-8056
▁erom	-8057
▁icij	-8058
▁kust	-8059
▁lini	-8060
▁nasl	-8061
▁razd	-8062
▁test	-8063
▁tkan	-8064
▁turu	-8065
▁uven	-8066
▁vile	-8067
▁vrše	-8068
▁čeni	-8069
▁amjer	-8070
▁arske	-8071
▁avlju	-8072
▁erija	-8073
▁kovan	-8074
▁odaju	-8075
▁onira	-8076
▁tukan	-8077
bin	-8078
▁82	-8079
▁KO	-8080
▁Sr	-8081
▁UR	-8082
bolj	-8083
▁34.	-8084
▁Ari	-8085
▁Hil	-8086
▁JVP	-8087
▁Mus	-8088
▁ais	-8089
▁box	-8090
▁his	-8091
▁kuj	-8092
▁onn	-8093
▁ozl	-8094
▁oši	-8095
▁rhu	-8096
▁utu	-8097
▁več	-8098
▁way	-8099
▁ćih	-8100
▁ški	-8101
▁VNIK	-8102
▁Wall	-8103
▁atel	-8104
▁gand	-8105
▁idar	-8106
▁korp	-8107
▁makn	-8108
▁pira	-8109
▁zora	-8110
▁Kurir	-8111
▁Marse	-8112
▁NESCO	-8113
▁Selah	-8114
▁aferi	-8115
▁antif	-8116
▁biser	-8117
▁dijet	-8118
▁dimak	-8119
▁jbolj	-8120
▁jenju	-8121
▁ordon	-8122
▁ostel	-8123
▁rivat	-8124
▁ukcij	-8125
▁vojio	-8126
.,	-8127
MI	-8128
NO	-8129
▁(4	-8130
▁83	-8131
▁Đu	-8132
▁Sky	-8133
▁aki	-8134
▁day	-8135
▁iet	-8136
▁ioč	-8137
▁ius	-8138
▁meg	-8139
▁nfo	-8140
▁rtu	-8141
▁ung	-8142
▁ydn	-8143
▁yon	-8144
▁zio	-8145
▁žid	-8146
▁ačak	-8147
▁ačan	-8148
▁egor	-8149
▁iddy	-8150
▁itat	-8151
▁jevi	-8152
▁kinu	-8153
▁kulp	-8154
▁ower	-8155
▁plja	-8156
▁sudi	-8157
▁ukav	-8158
▁Mađar	-8159
▁Sesar	-8160
▁estet	-8161
▁ginek	-8162
▁imfon	-8163
▁jetni	-8164
▁lizac	-8165
ker	-8166
tul	-8167
▁Ek	-8168
▁IS	-8169
▁NO	-8170
▁SH	-8171
▁350	-8172
▁Eko	-8173
▁MMA	-8174
▁Mic	-8175
▁Pam	-8176
▁Tra	-8177
▁Whi	-8178
▁cer	-8179
▁hin	-8180
▁ksa	-8181
▁mid	-8182
▁oen	-8183
▁otr	-8184
▁ous	-8185
▁ošć	-8186
▁smi	-8187
▁tle	-8188
▁Šef	-8189
▁Hran	-8190
▁dnos	-8191
▁elsk	-8192
▁etis	-8193
▁ilan	-8194
▁isab	-8195
▁ični	-8196
▁kiks	-8197
▁link	-8198
▁modr	-8199
▁ommy	-8200
▁rezi	-8201
▁spit	-8202
▁vođe	-8203
▁zori	-8204
▁enter	-8205
▁enver	-8206
▁ijedi	-8207
▁jedio	-8208
▁kcion	-8209
▁kombi	-8210
DH	-8211
NC	-8212
Od	-8213
uf	-8214
dar	-8215
fet	-8216
kea	-8217
rap	-8218
▁It	-8219
▁Nj	-8220
▁hy	-8221
▁Ču	-8222
nost	-8223
▁40.	-8224
▁Ema	-8225
▁Fen	-8226
▁Fru	-8227
▁Jam	-8228
▁Paz	-8229
▁Riv	-8230
▁Tad	-8231
▁Veg	-8232
▁Zub	-8233
▁aće	-8234
▁ađi	-8235
▁eog	-8236
▁jao	-8237
▁Fiat	-8238
▁ager	-8239
▁aker	-8240
▁akra	-8241
▁arak	-8242
▁ardo	-8243
▁daća	-8244
▁dona	-8245
▁drva	-8246
▁herc	-8247
▁idor	-8248
▁ijač	-8249
▁iron	-8250
▁ispr	-8251
▁kaci	-8252
▁kori	-8253
▁malt	-8254
▁masa	-8255
▁mine	-8256
▁množ	-8257
▁odiš	-8258
▁odna	-8259
▁tego	-8260
▁umen	-8261
▁zubi	-8262
▁žanr	-8263
▁After	-8264
▁Paris	-8265
▁ajini	-8266
▁antin	-8267
▁ilota	-8268
▁irovi	-8269
▁javio	-8270
▁lnost	-8271
▁raksu	-8272
▁vjeri	-8273
▁činit	-8274
NG	-8275
ZU	-8276
and	-8277
cmi	-8278
nie	-8279
rum	-8280
▁TI	-8281
▁Deb	-8282
▁Fat	-8283
▁Pon	-8284
▁bur	-8285
▁eas	-8286
▁ech	-8287
▁ekl	-8288
▁jaz	-8289
▁ney	-8290
▁ott	-8291
▁rko	-8292
▁sij	-8293
▁ukš	-8294
▁vok	-8295
▁Šir	-8296
▁Clip	-8297
▁adic	-8298
▁ahim	-8299
▁akin	-8300
▁ason	-8301
▁beka	-8302
▁bjas	-8303
▁diše	-8304
▁ider	-8305
▁inho	-8306
▁lači	-8307
▁obio	-8308
▁omog	-8309
▁rona	-8310
▁urin	-8311
▁zbun	-8312
▁Ander	-8313
▁Mikul	-8314
▁aganj	-8315
▁andez	-8316
▁arbit	-8317
▁benik	-8318
▁curil	-8319
▁davan	-8320
▁grači	-8321
▁kacig	-8322
▁mekan	-8323
▁nekle	-8324
▁oduze	-8325
▁onaco	-8326
▁opera	-8327
▁redno	-8328
▁vocmi	-8329
SKA	-8330
par	-8331
▁1/	-8332
▁99	-8333
▁EV	-8334
▁HE	-8335
▁LI	-8336
▁Zh	-8337
▁Sel	-8338
▁blj	-8339
▁ižn	-8340
▁odv	-8341
▁rde	-8342
▁rje	-8343
▁uča	-8344
▁Life	-8345
▁Luis	-8346
▁adra	-8347
▁almö	-8348
▁anto	-8349
▁dele	-8350
▁enne	-8351
▁guta	-8352
▁inga	-8353
▁jeku	-8354
▁kiva	-8355
▁lock	-8356
▁meda	-8357
▁meća	-8358
▁olut	-8359
▁ošao	-8360
▁rikv	-8361
▁rofe	-8362
▁ruka	-8363
▁turi	-8364
▁uzan	-8365
▁učno	-8366
▁ćine	-8367
▁argar	-8368
▁egova	-8369
▁gužva	-8370
▁ončar	-8371
▁rugim	-8372
EN	-8373
▁q	-8374
are	-8375
bas	-8376
sik	-8377
▁lv	-8378
▁vč	-8379
▁1,2	-8380
▁Edo	-8381
▁Jos	-8382
▁Kom	-8383
▁Rug	-8384
▁azr	-8385
▁jič	-8386
▁koh	-8387
▁sas	-8388
▁ugu	-8389
▁urz	-8390
▁Đal	-8391
▁Šar	-8392
▁žnj	-8393
▁Prij	-8394
▁afar	-8395
▁atch	-8396
▁coin	-8397
▁cure	-8398
▁edil	-8399
▁egov	-8400
▁iama	-8401
▁jduk	-8402
▁kore	-8403
▁likl	-8404
▁njiv	-8405
▁odra	-8406
▁olub	-8407
▁oron	-8408
▁oysi	-8409
▁pjev	-8410
▁sebn	-8411
▁uben	-8412
▁čila	-8413
▁Clipp	-8414
▁aferu	-8415
▁arima	-8416
▁avnih	-8417
▁avtat	-8418
▁bavlj	-8419
▁dnosn	-8420
▁ewart	-8421
▁igura	-8422
▁olfsb	-8423
▁uzman	-8424
▁šator	-8425
CE	-8426
yl	-8427
ppé	-8428
▁Ul	-8429
▁yp	-8430
▁140	-8431
▁Lik	-8432
▁Viš	-8433
▁dlo	-8434
▁mus	-8435
▁ntn	-8436
▁Đor	-8437
▁Žao	-8438
▁Mura	-8439
▁afij	-8440
▁alim	-8441
▁ašin	-8442
▁dite	-8443
▁eatr	-8444
▁ewis	-8445
▁gust	-8446
▁ilni	-8447
▁irek	-8448
▁ična	-8449
▁jaha	-8450
▁jske	-8451
▁miks	-8452
▁modu	-8453
▁obri	-8454
▁onud	-8455
▁ošlo	-8456
▁ramu	-8457
▁tali	-8458
▁trop	-8459
▁udit	-8460
▁ugog	-8461
▁Elvis	-8462
▁Union	-8463
▁White	-8464
▁Zubac	-8465
▁astor	-8466
▁bappé	-8467
▁enika	-8468
▁kcije	-8469
▁kisik	-8470
▁komič	-8471
▁lišta	-8472
▁ljivi	-8473
▁natje	-8474
AL	-8475
TI	-8476
GBT	-8477
war	-8478
▁Ap	-8479
▁lg	-8480
▁32.	-8481
▁35.	-8482
▁Fri	-8483
▁JNA	-8484
▁Lee	-8485
▁Pej	-8486
▁Pil	-8487
▁STE	-8488
▁Wol	-8489
▁caj	-8490
▁dec	-8491
▁lop	-8492
▁muz	-8493
▁pće	-8494
▁tlo	-8495
▁zac	-8496
▁čnu	-8497
▁šah	-8498
▁LGBT	-8499
▁Pete	-8500
▁Pile	-8501
▁Spli	-8502
▁Spor	-8503
▁adap	-8504
▁auro	-8505
▁avat	-8506
▁each	-8507
▁edam	-8508
▁enio	-8509
▁epre	-8510
▁etni	-8511
▁hrva	-8512
▁ibar	-8513
▁ilet	-8514
▁jeko	-8515
▁klim	-8516
▁koko	-8517
▁mart	-8518
▁orbe	-8519
▁očni	-8520
▁sfer	-8521
▁tovo	-8522
▁usic	-8523
▁vaka	-8524
▁čava	-8525
▁amand	-8526
▁aniji	-8527
▁ediji	-8528
▁ifika	-8529
▁insko	-8530
▁jesto	-8531
▁lavlj	-8532
▁limin	-8533
▁petor	-8534
EM	-8535
TU	-8536
des	-8537
▁71	-8538
▁77	-8539
▁87	-8540
▁92	-8541
▁BB	-8542
▁DZ	-8543
▁EB	-8544
▁VA	-8545
▁10,	-8546
▁Col	-8547
▁Dže	-8548
▁McC	-8549
▁Nat	-8550
▁Pep	-8551
▁Rob	-8552
▁UFC	-8553
▁Wel	-8554
▁bje	-8555
▁ebu	-8556
▁eđu	-8557
▁eši	-8558
▁gib	-8559
▁gnu	-8560
▁hew	-8561
▁nne	-8562
▁onk	-8563
▁ses	-8564
▁tag	-8565
▁tna	-8566
▁uja	-8567
▁ćem	-8568
▁čuv	-8569
▁Fruk	-8570
▁abur	-8571
▁alos	-8572
▁ampa	-8573
▁ačin	-8574
▁grla	-8575
▁irme	-8576
▁kana	-8577
▁odat	-8578
▁odel	-8579
▁tnih	-8580
▁uzij	-8581
▁adren	-8582
▁ačima	-8583
▁ađari	-8584
▁demen	-8585
▁ennsy	-8586
▁esten	-8587
▁evist	-8588
▁ihove	-8589
▁itivn	-8590
▁onaca	-8591
▁potra	-8592
▁rebal	-8593
▁rodni	-8594
▁tično	-8595
▁valit	-8596
:3	-8597
kač	-8598
▁81	-8599
▁Ac	-8600
▁HP	-8601
▁KB	-8602
▁OD	-8603
▁dw	-8604
▁DNK	-8605
▁Ive	-8606
▁Rol	-8607
▁Ver	-8608
▁deh	-8609
▁izz	-8610
▁jim	-8611
▁pio	-8612
▁rog	-8613
▁upp	-8614
▁šno	-8615
▁žup	-8616
▁Dram	-8617
▁HRVA	-8618
▁Mass	-8619
▁Rugv	-8620
▁aler	-8621
▁alez	-8622
▁alih	-8623
▁aliz	-8624
▁anal	-8625
▁ancu	-8626
▁apar	-8627
▁azak	-8628
▁iltr	-8629
▁ning	-8630
▁oljo	-8631
▁omme	-8632
▁ount	-8633
▁tyle	-8634
▁Melon	-8635
▁emlja	-8636
▁erkur	-8637
▁ijeku	-8638
▁konač	-8639
▁konce	-8640
▁ljima	-8641
▁lužbe	-8642
▁omfor	-8643
▁omisl	-8644
▁rakti	-8645
▁rapin	-8646
▁ritmu	-8647
▁tativ	-8648
ht	-8649
ett	-8650
mat	-8651
šal	-8652
▁HŽ	-8653
▁450	-8654
▁Der	-8655
▁Emo	-8656
▁Ger	-8657
▁PSV	-8658
▁Pao	-8659
▁Ral	-8660
▁Sov	-8661
▁haj	-8662
▁jeo	-8663
▁kač	-8664
▁kru	-8665
▁ndu	-8666
▁oon	-8667
▁uil	-8668
▁vec	-8669
▁zla	-8670
▁EURO	-8671
▁Lidl	-8672
▁Vrat	-8673
▁abav	-8674
▁asta	-8675
▁dovi	-8676
▁enil	-8677
▁nutk	-8678
▁Armen	-8679
▁Marie	-8680
▁adnje	-8681
▁amill	-8682
▁anade	-8683
▁devas	-8684
▁ender	-8685
▁eorgi	-8686
▁jedil	-8687
▁nator	-8688
▁potvr	-8689
▁rovin	-8690
▁skupi	-8691
-5	-8692
LO	-8693
žđ	-8694
▁­	-8695
lah	-8696
▁79	-8697
▁DO	-8698
▁IB	-8699
▁My	-8700
▁čl	-8701
▁75.	-8702
▁900	-8703
▁DNE	-8704
▁Emm	-8705
▁FBI	-8706
▁Has	-8707
▁NJE	-8708
▁POS	-8709
▁Zel	-8710
▁deš	-8711
▁kto	-8712
▁nta	-8713
▁čal	-8714
▁Bauk	-8715
▁akat	-8716
▁ball	-8717
▁beno	-8718
▁dent	-8719
▁dnom	-8720
▁dstr	-8721
▁ehni	-8722
▁ermo	-8723
▁ićen	-8724
▁konk	-8725
▁kupe	-8726
▁odaj	-8727
▁opat	-8728
▁orba	-8729
▁spek	-8730
▁teve	-8731
▁zrok	-8732
▁dežur	-8733
▁icija	-8734
▁ilter	-8735
▁istri	-8736
▁jenik	-8737
▁klime	-8738
▁korač	-8739
▁mazon	-8740
▁modul	-8741
▁ntrol	-8742
▁rakij	-8743
▁tanje	-8744
▁ulkan	-8745
▁Šutal	-8746
),	-8747
tt	-8748
ann	-8749
vir	-8750
čar	-8751
▁(8	-8752
▁69	-8753
▁88	-8754
▁OT	-8755
▁1,3	-8756
▁70.	-8757
▁Dol	-8758
▁Les	-8759
▁anz	-8760
▁con	-8761
▁lab	-8762
▁opp	-8763
▁spa	-8764
▁tio	-8765
▁zav	-8766
▁Nikš	-8767
▁Russ	-8768
▁Usik	-8769
▁acan	-8770
▁amac	-8771
▁arah	-8772
▁arki	-8773
▁aska	-8774
▁atas	-8775
▁buru	-8776
▁eler	-8777
▁elje	-8778
▁isku	-8779
▁isuć	-8780
▁ivad	-8781
▁lati	-8782
▁mrež	-8783
▁oger	-8784
▁olni	-8785
▁onez	-8786
▁otka	-8787
▁rojn	-8788
▁ugom	-8789
▁utte	-8790
▁Monik	-8791
▁Zekan	-8792
▁amask	-8793
▁avnog	-8794
▁dašnj	-8795
▁ierez	-8796
▁ormil	-8797
▁quare	-8798
▁rakoš	-8799
▁rampe	-8800
▁ropsk	-8801
▁vojil	-8802
KO	-8803
Ma	-8804
JET	-8805
hur	-8806
med	-8807
▁(5	-8808
▁91	-8809
▁DI	-8810
▁ye	-8811
▁Ča	-8812
▁11,	-8813
▁DZS	-8814
▁FNC	-8815
▁NSA	-8816
▁Rib	-8817
▁Tre	-8818
▁app	-8819
▁aži	-8820
▁izg	-8821
▁izl	-8822
▁ksp	-8823
▁mek	-8824
▁mpl	-8825
▁ody	-8826
▁omm	-8827
▁plo	-8828
▁tos	-8829
▁tuu	-8830
▁vne	-8831
▁ćud	-8832
▁šop	-8833
▁Ford	-8834
▁GPZO	-8835
▁Gost	-8836
▁Gran	-8837
▁Juan	-8838
▁Juri	-8839
▁ajak	-8840
▁alač	-8841
▁anil	-8842
▁bnov	-8843
▁brov	-8844
▁food	-8845
▁grab	-8846
▁iall	-8847
▁ispo	-8848
▁jala	-8849
▁ježi	-8850
▁krap	-8851
▁okuš	-8852
▁onia	-8853
▁opus	-8854
▁osla	-8855
▁sche	-8856
▁sura	-8857
▁tonj	-8858
▁ugla	-8859
▁vlas	-8860
▁Niger	-8861
▁degus	-8862
▁dekan	-8863
▁depon	-8864
▁enned	-8865
▁komar	-8866
▁lagod	-8867
▁ležer	-8868
▁onica	-8869
▁ooper	-8870
HO	-8871
laf	-8872
rea	-8873
til	-8874
žir	-8875
▁74	-8876
▁98	-8877
▁DS	-8878
▁JA	-8879
▁Of	-8880
▁PG	-8881
▁Xa	-8882
▁hn	-8883
▁vd	-8884
▁110	-8885
▁Duv	-8886
▁HUP	-8887
▁Hum	-8888
▁Kop	-8889
▁Moz	-8890
▁Vje	-8891
▁aun	-8892
▁bog	-8893
▁een	-8894
▁elf	-8895
▁ipr	-8896
▁kil	-8897
▁oše	-8898
▁umn	-8899
▁zvu	-8900
▁žur	-8901
▁Alin	-8902
▁Dean	-8903
▁Krle	-8904
▁abel	-8905
▁amil	-8906
▁dost	-8907
▁ećan	-8908
▁ganj	-8909
▁hard	-8910
▁iami	-8911
▁igar	-8912
▁kend	-8913
▁koro	-8914
▁lite	-8915
▁loat	-8916
▁mazd	-8917
▁nizi	-8918
▁nska	-8919
▁oriš	-8920
▁ozil	-8921
▁raču	-8922
▁rvak	-8923
▁treb	-8924
▁uchs	-8925
▁urzi	-8926
▁vežu	-8927
▁with	-8928
▁Milin	-8929
▁Mirna	-8930
▁arden	-8931
▁bosan	-8932
▁dward	-8933
▁innes	-8934
▁iorgi	-8935
▁itler	-8936
▁jetim	-8937
▁nasta	-8938
▁nskim	-8939
▁ojzij	-8940
▁olden	-8941
▁rezid	-8942
▁tereo	-8943
LU	-8944
RH	-8945
did	-8946
tis	-8947
▁IG	-8948
▁UA	-8949
▁ky	-8950
▁Bol	-8951
▁Det	-8952
▁Kos	-8953
▁Mak	-8954
▁Rab	-8955
▁Rev	-8956
▁afi	-8957
▁jio	-8958
▁oos	-8959
▁sor	-8960
▁you	-8961
▁Clar	-8962
▁Dori	-8963
▁FIFA	-8964
▁Krap	-8965
▁Pero	-8966
▁berg	-8967
▁duet	-8968
▁esar	-8969
▁goda	-8970
▁hopp	-8971
▁icul	-8972
▁itas	-8973
▁itch	-8974
▁jelj	-8975
▁juha	-8976
▁kopa	-8977
▁laci	-8978
▁lost	-8979
▁oraz	-8980
▁ovez	-8981
▁vamo	-8982
▁čuju	-8983
▁đeni	-8984
▁Mirel	-8985
▁anksi	-8986
▁auren	-8987
▁castl	-8988
▁eorij	-8989
▁higij	-8990
▁kemot	-8991
▁openh	-8992
▁prosj	-8993
▁tagon	-8994
▁under	-8995
by	-8996
ib	-8997
▁·	-8998
gol	-8999
kot	-9000
uer	-9001
▁BA	-9002
▁He	-9003
▁ax	-9004
▁1,6	-9005
▁55.	-9006
▁AFP	-9007
▁Afp	-9008
▁Ale	-9009
▁All	-9010
▁CMS	-9011
▁Con	-9012
▁Day	-9013
▁Dur	-9014
▁Gim	-9015
▁Mah	-9016
▁McG	-9017
▁Raj	-9018
▁Ref	-9019
▁SMS	-9020
▁azm	-9021
▁ege	-9022
▁gam	-9023
▁išk	-9024
▁knu	-9025
▁kub	-9026
▁kud	-9027
▁kuč	-9028
▁mju	-9029
▁now	-9030
▁och	-9031
▁snu	-9032
▁teč	-9033
▁HSLS	-9034
▁Mars	-9035
▁cvat	-9036
▁damu	-9037
▁edos	-9038
▁gube	-9039
▁hoću	-9040
▁ilat	-9041
▁jemu	-9042
▁lass	-9043
▁lila	-9044
▁ozga	-9045
▁poti	-9046
▁ratk	-9047
▁rnog	-9048
▁sija	-9049
▁stad	-9050
▁vate	-9051
▁vili	-9052
▁Joker	-9053
▁ajanj	-9054
▁einer	-9055
▁emalj	-9056
▁enger	-9057
▁goved	-9058
▁nskog	-9059
▁ođenj	-9060
▁promi	-9061
▁rudžb	-9062
▁vodik	-9063
yd	-9064
hat	-9065
int	-9066
laš	-9067
mad	-9068
rev	-9069
tar	-9070
šel	-9071
▁IM	-9072
▁iu	-9073
▁mk	-9074
▁270	-9075
▁74.	-9076
▁Ane	-9077
▁IDF	-9078
▁Jar	-9079
▁MVP	-9080
▁acy	-9081
▁ajt	-9082
▁azd	-9083
▁bat	-9084
▁ešn	-9085
▁eži	-9086
▁fed	-9087
▁ise	-9088
▁maž	-9089
▁nec	-9090
▁tlu	-9091
▁utl	-9092
▁Anel	-9093
▁Dubr	-9094
▁Istr	-9095
▁Olaf	-9096
▁Team	-9097
▁VLJE	-9098
▁Zbor	-9099
▁abin	-9100
▁aero	-9101
▁alis	-9102
▁amne	-9103
▁arce	-9104
▁asin	-9105
▁dila	-9106
▁disp	-9107
▁ehid	-9108
▁enny	-9109
▁fter	-9110
▁inea	-9111
▁lena	-9112
▁loom	-9113
▁magn	-9114
▁miri	-9115
▁mjuz	-9116
▁mond	-9117
▁oput	-9118
▁oret	-9119
▁ovlj	-9120
▁očeo	-9121
▁ripa	-9122
▁ršut	-9123
▁trpa	-9124
▁uber	-9125
▁usti	-9126
▁vibr	-9127
▁đuje	-9128
▁Cedev	-9129
▁Messi	-9130
▁anegd	-9131
▁anica	-9132
▁covid	-9133
▁eptir	-9134
▁etenc	-9135
▁ewand	-9136
▁gnjen	-9137
▁hulig	-9138
▁izved	-9139
▁loger	-9140
▁ojarn	-9141
▁olazi	-9142
▁rafin	-9143
▁rimin	-9144
▁socij	-9145
▁uljan	-9146
▁učeni	-9147
BS	-9148
CS	-9149
KS	-9150
LJ	-9151
rd	-9152
akr	-9153
dak	-9154
dem	-9155
dir	-9156
etr	-9157
▁",	-9158
▁(6	-9159
▁Cu	-9160
▁DU	-9161
▁Ed	-9162
▁HU	-9163
▁Jr	-9164
▁LO	-9165
▁NP	-9166
▁But	-9167
▁HND	-9168
▁NDH	-9169
▁Nes	-9170
▁Zem	-9171
▁abe	-9172
▁eam	-9173
▁ibr	-9174
▁kij	-9175
▁ktr	-9176
▁lir	-9177
▁mij	-9178
▁nke	-9179
▁oce	-9180
▁ocu	-9181
▁pah	-9182
▁rao	-9183
▁rbe	-9184
▁tne	-9185
▁Čil	-9186
▁abat	-9187
▁adno	-9188
▁ainz	-9189
▁alea	-9190
▁arac	-9191
▁arka	-9192
▁arma	-9193
▁baci	-9194
▁born	-9195
▁dsje	-9196
▁elju	-9197
▁iler	-9198
▁isca	-9199
▁itez	-9200
▁jaje	-9201
▁jenu	-9202
▁oice	-9203
▁orom	-9204
▁rekr	-9205
▁rive	-9206
▁ruce	-9207
▁sman	-9208
▁viol	-9209
▁zjav	-9210
▁čnom	-9211
▁asort	-9212
▁assan	-9213
▁cimet	-9214
▁ibonn	-9215
▁iedad	-9216
▁karik	-9217
▁orzan	-9218
Pa	-9219
ct	-9220
▁á	-9221
hie	-9222
urg	-9223
žab	-9224
▁86	-9225
▁AD	-9226
▁AM	-9227
▁iP	-9228
▁jc	-9229
▁13,	-9230
▁80.	-9231
▁AEK	-9232
▁Ank	-9233
▁Ava	-9234
▁DRA	-9235
▁Dis	-9236
▁Eli	-9237
▁Gan	-9238
▁McD	-9239
▁Mol	-9240
▁Sea	-9241
▁Tea	-9242
▁Zav	-9243
▁amj	-9244
▁anč	-9245
▁ary	-9246
▁dif	-9247
▁gig	-9248
▁juh	-9249
▁klj	-9250
▁kvu	-9251
▁ovc	-9252
▁ral	-9253
▁zai	-9254
▁ćev	-9255
▁HZMO	-9256
▁Love	-9257
▁MAXS	-9258
▁OCMA	-9259
▁alek	-9260
▁arte	-9261
▁auer	-9262
▁daha	-9263
▁golf	-9264
▁hats	-9265
▁ibal	-9266
▁ield	-9267
▁ijak	-9268
▁irij	-9269
▁nakv	-9270
▁nara	-9271
▁obir	-9272
▁okom	-9273
▁opud	-9274
▁over	-9275
▁ošli	-9276
▁ruje	-9277
▁taur	-9278
▁tost	-9279
▁ubit	-9280
▁veća	-9281
▁zdan	-9282
▁Nikic	-9283
▁adili	-9284
▁afirm	-9285
▁bourg	-9286
▁dilem	-9287
▁ijska	-9288
▁iolin	-9289
▁ionel	-9290
▁jedlo	-9291
▁kapel	-9292
▁lisic	-9293
▁markt	-9294
▁otter	-9295
▁regat	-9296
▁renes	-9297
▁rihva	-9298
▁trbuš	-9299
▁ublin	-9300
▁šansi	-9301
▁šešir	-9302
wa	-9303
BAV	-9304
ETA	-9305
OST	-9306
REB	-9307
con	-9308
gie	-9309
▁FS	-9310
▁Wo	-9311
▁cl	-9312
▁15,	-9313
▁170	-9314
▁3-2	-9315
▁58.	-9316
▁Alp	-9317
▁Diz	-9318
▁GNK	-9319
▁Lea	-9320
▁McL	-9321
▁Run	-9322
▁Ust	-9323
▁ase	-9324
▁bov	-9325
▁dac	-9326
▁efe	-9327
▁kak	-9328
▁kof	-9329
▁nao	-9330
▁nil	-9331
▁ojs	-9332
▁okl	-9333
▁pse	-9334
▁sek	-9335
▁shi	-9336
▁uge	-9337
▁vom	-9338
▁wal	-9339
▁zbo	-9340
▁šil	-9341
▁ŽIV	-9342
▁Meta	-9343
▁NASA	-9344
▁STEM	-9345
▁Wood	-9346
▁akak	-9347
▁ađen	-9348
▁card	-9349
▁estu	-9350
▁gumb	-9351
▁hram	-9352
▁jakn	-9353
▁klec	-9354
▁kora	-9355
▁ojal	-9356
▁oyal	-9357
▁rian	-9358
▁roiz	-9359
▁rupa	-9360
▁ruže	-9361
▁trat	-9362
▁šumu	-9363
▁AGREB	-9364
▁Ahmet	-9365
▁Krlež	-9366
▁Pavel	-9367
▁atura	-9368
▁erton	-9369
▁kulis	-9370
▁lijeđ	-9371
▁monet	-9372
▁ortun	-9373
▁oyota	-9374
▁podat	-9375
▁radnj	-9376
▁ualno	-9377
▁šamar	-9378
FL	-9379
IH	-9380
JZ	-9381
wn	-9382
zh	-9383
emi	-9384
vant	-9385
▁12,	-9386
▁1:1	-9387
▁2-2	-9388
▁46.	-9389
▁Abu	-9390
▁Cor	-9391
▁EPP	-9392
▁HAC	-9393
▁Hor	-9394
▁Ins	-9395
▁Kož	-9396
▁Pad	-9397
▁Pul	-9398
▁Web	-9399
▁dab	-9400
▁dil	-9401
▁duk	-9402
▁gad	-9403
▁kWh	-9404
▁lek	-9405
▁mok	-9406
▁taž	-9407
▁tiz	-9408
▁won	-9409
▁Ćal	-9410
▁Ćur	-9411
▁šip	-9412
▁Badr	-9413
▁Njem	-9414
▁Peru	-9415
▁Save	-9416
▁Sean	-9417
▁alax	-9418
▁anas	-9419
▁anir	-9420
▁arao	-9421
▁asna	-9422
▁deko	-9423
▁ence	-9424
▁esej	-9425
▁inkt	-9426
▁liju	-9427
▁ljim	-9428
▁metk	-9429
▁olis	-9430
▁omir	-9431
▁ouse	-9432
▁outf	-9433
▁ovid	-9434
▁pasn	-9435
▁rodo	-9436
▁sung	-9437
▁takn	-9438
▁ucci	-9439
▁ugsb	-9440
▁unif	-9441
▁zlon	-9442
▁četk	-9443
▁čevi	-9444
▁Hasan	-9445
▁Human	-9446
▁JUBAV	-9447
▁anadi	-9448
▁andal	-9449
▁etski	-9450
▁gorje	-9451
▁gužvi	-9452
▁hatsA	-9453
▁ijati	-9454
▁ivjel	-9455
▁kabel	-9456
▁legal	-9457
▁ospod	-9458
▁reket	-9459
▁riban	-9460
▁rotor	-9461
▁sreta	-9462
▁undid	-9463
▁veget	-9464
▁zbori	-9465
SI	-9466
yk	-9467
yn	-9468
▁<	-9469
lji	-9470
▁CA	-9471
▁Ea	-9472
▁SK	-9473
▁zj	-9474
▁šl	-9475
▁1,8	-9476
▁3:0	-9477
▁Nel	-9478
▁Puh	-9479
▁Rac	-9480
▁URL	-9481
▁beš	-9482
▁dvj	-9483
▁epr	-9484
▁grb	-9485
▁iff	-9486
▁jil	-9487
▁sim	-9488
▁urp	-9489
▁uđu	-9490
▁čav	-9491
▁đaj	-9492
▁Baka	-9493
▁Dion	-9494
▁Doug	-9495
▁Gren	-9496
▁Kauf	-9497
▁OCMC	-9498
▁atio	-9499
▁bnja	-9500
▁essi	-9501
▁evad	-9502
▁grud	-9503
▁ifik	-9504
▁inai	-9505
▁inuo	-9506
▁izgr	-9507
▁jelu	-9508
▁krad	-9509
▁lake	-9510
▁lend	-9511
▁mija	-9512
▁nata	-9513
▁obot	-9514
▁ogao	-9515
▁orti	-9516
▁orup	-9517
▁razl	-9518
▁talo	-9519
▁teni	-9520
▁ukom	-9521
▁žite	-9522
▁žute	-9523
▁Clark	-9524
▁Jonat	-9525
▁NSATU	-9526
▁avnim	-9527
▁emlji	-9528
▁hobij	-9529
▁jamči	-9530
▁limen	-9531
▁menad	-9532
▁orian	-9533
▁ornat	-9534
▁ranih	-9535
▁rthur	-9536
▁točar	-9537
▁vegan	-9538
▁zidin	-9539
DO	-9540
JI	-9541
ME	-9542
RU	-9543
VI	-9544
ea	-9545
ee	-9546
oc	-9547
▁{	-9548
kit	-9549
liv	-9550
rec	-9551
▁TE	-9552
▁Um	-9553
mach	-9554
▁20%	-9555
▁30,	-9556
▁BBB	-9557
▁ERS	-9558
▁LNG	-9559
▁Laz	-9560
▁Let	-9561
▁Neg	-9562
▁Orb	-9563
▁Pas	-9564
▁WRC	-9565
▁Zen	-9566
▁epu	-9567
▁non	-9568
▁pin	-9569
▁rše	-9570
▁sez	-9571
▁uns	-9572
▁win	-9573
▁zgl	-9574
▁Emma	-9575
▁Pere	-9576
▁Yoon	-9577
▁agun	-9578
▁avel	-9579
▁bach	-9580
▁dida	-9581
▁dnih	-9582
▁ehno	-9583
▁erum	-9584
▁ečat	-9585
▁ianz	-9586
▁itiv	-9587
▁jasl	-9588
▁klet	-9589
▁leti	-9590
▁mamu	-9591
▁midt	-9592
▁moga	-9593
▁odit	-9594
▁okoš	-9595
▁omas	-9596
▁orni	-9597
▁perc	-9598
▁pukn	-9599
▁ravd	-9600
▁razu	-9601
▁ritz	-9602
▁rnom	-9603
▁tapp	-9604
▁udir	-9605
▁ward	-9606
▁ylan	-9607
▁anath	-9608
▁ekret	-9609
▁iskan	-9610
▁kipar	-9611
▁kvara	-9612
▁nikom	-9613
▁olovi	-9614
▁olten	-9615
▁opher	-9616
▁rebar	-9617
▁rstvo	-9618
▁umach	-9619
FI	-9620
OL	-9621
ŠK	-9622
▁ó	-9623
ant	-9624
kub	-9625
siv	-9626
tez	-9627
▁DW	-9628
▁IZ	-9629
▁KP	-9630
▁OB	-9631
skim	-9632
▁1,4	-9633
▁53.	-9634
▁76.	-9635
▁Civ	-9636
▁Leg	-9637
▁Tog	-9638
▁Vir	-9639
▁Wem	-9640
▁ars	-9641
▁aču	-9642
▁bad	-9643
▁bas	-9644
▁boy	-9645
▁ejz	-9646
▁ift	-9647
▁iks	-9648
▁jit	-9649
▁kst	-9650
▁neć	-9651
▁nti	-9652
▁obb	-9653
▁ofa	-9654
▁rif	-9655
▁uer	-9656
▁uff	-9657
▁uža	-9658
▁war	-9659
▁zat	-9660
▁čad	-9661
▁Dina	-9662
▁Epst	-9663
▁Evan	-9664
▁Gold	-9665
▁Nass	-9666
▁Peri	-9667
▁Wild	-9668
▁adni	-9669
▁agij	-9670
▁agin	-9671
▁agur	-9672
▁anđe	-9673
▁aper	-9674
▁apto	-9675
▁dorf	-9676
▁enci	-9677
▁gend	-9678
▁ikat	-9679
▁kuta	-9680
▁mons	-9681
▁nala	-9682
▁ombs	-9683
▁oore	-9684
▁orde	-9685
▁orth	-9686
▁pera	-9687
▁rail	-9688
▁spod	-9689
▁tinj	-9690
▁tude	-9691
▁vinu	-9692
▁Anket	-9693
▁Arian	-9694
▁Elkas	-9695
▁Jamie	-9696
▁Zemun	-9697
▁anker	-9698
▁armel	-9699
▁aušal	-9700
▁ivaju	-9701
▁litre	-9702
▁olver	-9703
▁preda	-9704
▁sreće	-9705
▁ucker	-9706
▁unker	-9707
VE	-9708
VO	-9709
jm	-9710
so	-9711
ARS	-9712
lor	-9713
rej	-9714
ros	-9715
▁89	-9716
▁AC	-9717
▁ED	-9718
▁EI	-9719
▁Gu	-9720
▁NS	-9721
▁52.	-9722
▁750	-9723
▁Bel	-9724
▁Dap	-9725
▁Die	-9726
▁ENI	-9727
▁GPT	-9728
▁Gaj	-9729
▁Hus	-9730
▁Kur	-9731
▁Lov	-9732
▁MAX	-9733
▁Mis	-9734
▁NPO	-9735
▁Pac	-9736
▁Ray	-9737
▁acq	-9738
▁cij	-9739
▁dpa	-9740
▁drv	-9741
▁eff	-9742
▁hle	-9743
▁iPh	-9744
▁ijo	-9745
▁ley	-9746
▁try	-9747
▁zbe	-9748
▁zit	-9749
▁Good	-9750
▁Knji	-9751
▁TSKA	-9752
▁Vran	-9753
▁akal	-9754
▁alta	-9755
▁anch	-9756
▁avit	-9757
▁beni	-9758
▁dmir	-9759
▁evij	-9760
▁hian	-9761
▁klap	-9762
▁lopp	-9763
▁nija	-9764
▁ntim	-9765
▁nute	-9766
▁obij	-9767
▁ogan	-9768
▁omez	-9769
▁orge	-9770
▁rnim	-9771
▁svib	-9772
▁tvar	-9773
▁uket	-9774
▁urov	-9775
▁utom	-9776
▁weet	-9777
▁zrna	-9778
▁šuti	-9779
▁Melin	-9780
▁Payne	-9781
▁adres	-9782
▁alker	-9783
▁amuel	-9784
▁apsul	-9785
▁asakr	-9786
▁grožđ	-9787
▁krađa	-9788
▁oeing	-9789
▁ports	-9790
▁račac	-9791
▁regon	-9792
▁teven	-9793
▁zicer	-9794
▁Čulin	-9795
▁štikl	-9796
HS	-9797
MP	-9798
SU	-9799
zo	-9800
hou	-9801
▁Ge	-9802
▁LP	-9803
▁MW	-9804
▁UV	-9805
▁ux	-9806
▁19,	-9807
▁36.	-9808
▁4,5	-9809
▁41.	-9810
▁66.	-9811
▁Cit	-9812
▁DOM	-9813
▁Fel	-9814
▁Gru	-9815
▁Lak	-9816
▁Sar	-9817
▁Sat	-9818
▁Una	-9819
▁Viv	-9820
▁Von	-9821
▁WHO	-9822
▁alp	-9823
▁bip	-9824
▁das	-9825
▁gow	-9826
▁had	-9827
▁iga	-9828
▁inč	-9829
▁jus	-9830
▁kau	-9831
▁low	-9832
▁nađ	-9833
▁not	-9834
▁oua	-9835
▁sis	-9836
▁tuk	-9837
▁Alzh	-9838
▁East	-9839
▁HAZU	-9840
▁Jong	-9841
▁Leko	-9842
▁Mare	-9843
▁arno	-9844
▁aser	-9845
▁edag	-9846
▁ekor	-9847
▁elom	-9848
▁holm	-9849
▁inha	-9850
▁irmi	-9851
▁juhe	-9852
▁kuma	-9853
▁larn	-9854
▁mont	-9855
▁ndus	-9856
▁ness	-9857
▁njan	-9858
▁njuj	-9859
▁pear	-9860
▁rimi	-9861
▁rota	-9862
▁skla	-9863
▁tini	-9864
▁tock	-9865
▁trub	-9866
▁ukur	-9867
▁zima	-9868
▁Čile	-9869
▁Alžir	-9870
▁Dekan	-9871
▁Nassr	-9872
▁Sahit	-9873
▁alžab	-9874
▁ardas	-9875
▁arsen	-9876
▁bahče	-9877
▁gumen	-9878
▁jskom	-9879
▁klimu	-9880
▁music	-9881
▁ntira	-9882
▁omaći	-9883
▁omije	-9884
▁orest	-9885
▁pedij	-9886
▁ranče	-9887
▁rađan	-9888
▁remek	-9889
▁rskih	-9890
▁volan	-9891
▁wondo	-9892
.)	-9893
Ti	-9894
ip	-9895
pu	-9896
lok	-9897
rid	-9898
čev	-9899
▁(7	-9900
▁96	-9901
▁Av	-9902
▁CE	-9903
▁SC	-9904
▁SR	-9905
hile	-9906
▁112	-9907
▁16,	-9908
▁54.	-9909
▁90.	-9910
▁ATI	-9911
▁Bas	-9912
▁Eva	-9913
▁Gas	-9914
▁ICC	-9915
▁MOL	-9916
▁Reb	-9917
▁Ros	-9918
▁jat	-9919
▁lio	-9920
▁rie	-9921
▁roo	-9922
▁sse	-9923
▁suk	-9924
▁tve	-9925
▁uls	-9926
▁ush	-9927
▁vag	-9928
▁vno	-9929
▁zag	-9930
▁öln	-9931
▁Arev	-9932
▁Aviv	-9933
▁Lack	-9934
▁MOST	-9935
▁ajve	-9936
▁alem	-9937
▁amor	-9938
▁aris	-9939
▁bole	-9940
▁chat	-9941
▁dnog	-9942
▁gnoj	-9943
▁hutt	-9944
▁ipar	-9945
▁izza	-9946
▁jude	-9947
▁knul	-9948
▁lant	-9949
▁lava	-9950
▁lenk	-9951
▁ljic	-9952
▁look	-9953
▁madr	-9954
▁oker	-9955
▁pape	-9956
▁pćen	-9957
▁raje	-9958
▁risk	-9959
▁segn	-9960
▁sova	-9961
▁uinn	-9962
▁urze	-9963
▁vale	-9964
▁witz	-9965
▁zani	-9966
▁zara	-9967
▁ŽIVO	-9968
▁Aurel	-9969
▁Jesen	-9970
▁Karač	-9971
▁NKETA	-9972
▁Silva	-9973
▁adnic	-9974
▁adova	-9975
▁alibr	-9976
▁asade	-9977
▁javil	-9978
▁miriš	-9979
▁nstva	-9980
▁omenu	-9981
▁phile	-9982
▁razni	-9983
▁rigor	-9984
▁uptil	-9985
Do	-9986
PA	-9987
nol	-9988
tah	-9989
▁93	-9990
▁97	-9991
▁Aj	-9992
▁NR	-9993
▁NY	-9994
▁Vo	-9995
▁vc	-9996
▁yr	-9997
▁190	-9998
▁37.	-9999
▁3:1	-10000
▁59.	-10001
▁85.	-10002
▁Fer	-10003
▁HOO	-10004
▁Hrv	-10005
▁Kid	-10006
▁Lar	-10007
▁Nep	-10008
▁Out	-10009
▁arš	-10010
▁ath	-10011
▁ayo	-10012
▁dbo	-10013
▁gna	-10014
▁ilv	-10015
▁irt	-10016
▁luđ	-10017
▁nop	-10018
▁orr	-10019
▁Ćos	-10020
▁Beka	-10021
▁Eden	-10022
▁Male	-10023
▁NPOO	-10024
▁Tomi	-10025
▁abdo	-10026
▁adit	-10027
▁akti	-10028
▁amba	-10029
▁ante	-10030
▁aron	-10031
▁arth	-10032
▁avle	-10033
▁baki	-10034
▁bure	-10035
▁emil	-10036
▁erem	-10037
▁feld	-10038
▁folk	-10039
▁grao	-10040
▁gužv	-10041
▁icaj	-10042
▁iner	-10043
▁isco	-10044
▁izbo	-10045
▁ješn	-10046
▁mami	-10047
▁mega	-10048
▁mjet	-10049
▁okac	-10050
▁oved	-10051
▁očno	-10052
▁podi	-10053
▁raži	-10054
▁roči	-10055
▁ship	-10056
▁urci	-10057
▁uver	-10058
▁učit	-10059
▁viga	-10060
▁vota	-10061
▁žila	-10062
▁Dimit	-10063
▁Kosor	-10064
▁agner	-10065
▁agrad	-10066
▁amfet	-10067
▁arkle	-10068
▁atent	-10069
▁canje	-10070
▁eimer	-10071
▁grali	-10072
▁hobot	-10073
▁intet	-10074
▁istac	-10075
▁jagod	-10076
▁janje	-10077
▁kupon	-10078
▁ničke	-10079
▁okren	-10080
▁posta	-10081
▁ramez	-10082
▁rijan	-10083
▁ritul	-10084
HF	-10085
au	-10086
fs	-10087
ČA	-10088
bij	-10089
gue	-10090
zar	-10091
▁2"	-10092
▁GT	-10093
▁Xi	-10094
▁Yu	-10095
▁Zi	-10096
▁cc	-10097
▁iq	-10098
▁ns	-10099
▁ür	-10100
▁2,8	-10101
▁6-4	-10102
▁61.	-10103
▁Edu	-10104
▁Gud	-10105
▁HSP	-10106
▁Peš	-10107
▁Puš	-10108
▁Tel	-10109
▁fac	-10110
▁nci	-10111
▁oth	-10112
▁tus	-10113
▁uen	-10114
▁uiz	-10115
▁wen	-10116
▁čni	-10117
▁ška	-10118
▁ške	-10119
▁ŽNL	-10120
▁Asan	-10121
▁Bild	-10122
▁DANA	-10123
▁Ekva	-10124
▁Fire	-10125
▁Foot	-10126
▁Mami	-10127
▁Mekt	-10128
▁acha	-10129
▁adri	-10130
▁adur	-10131
▁aine	-10132
▁ajor	-10133
▁akut	-10134
▁anel	-10135
▁ango	-10136
▁arom	-10137
▁auri	-10138
▁ažet	-10139
▁dimn	-10140
▁dišn	-10141
▁eshr	-10142
▁fikt	-10143
▁gemu	-10144
▁ickl	-10145
▁ijam	-10146
▁itua	-10147
▁kaut	-10148
▁laha	-10149
▁laho	-10150
▁lana	-10151
▁laće	-10152
▁lert	-10153
▁lfsb	-10154
▁ljes	-10155
▁miču	-10156
▁opan	-10157
▁orts	-10158
▁ozin	-10159
▁pell	-10160
▁preg	-10161
▁rean	-10162
▁seli	-10163
▁ssex	-10164
▁taju	-10165
▁ukob	-10166
▁wing	-10167
▁šank	-10168
▁AVJET	-10169
▁acion	-10170
▁arker	-10171
▁atske	-10172
▁demon	-10173
▁deter	-10174
▁ennar	-10175
▁gorij	-10176
▁ihovi	-10177
▁izbje	-10178
▁kajak	-10179
▁liker	-10180
▁lišen	-10181
▁ombin	-10182
▁retni	-10183
▁ugust	-10184
▁vigac	-10185
▁vitez	-10186
▁vojni	-10187
▁zdanj	-10188
▁ziral	-10189
▁žičar	-10190
-7	-10191
1,	-10192
GO	-10193
IĆ	-10194
LM	-10195
gm	-10196
dia	-10197
gul	-10198
kej	-10199
koč	-10200
lot	-10201
nor	-10202
ung	-10203
▁EZ	-10204
▁VR	-10205
▁Ye	-10206
▁cv	-10207
▁hl	-10208
▁my	-10209
▁čj	-10210
▁šč	-10211
▁20,	-10212
▁45.	-10213
▁47.	-10214
▁6-2	-10215
▁77.	-10216
▁81.	-10217
▁84.	-10218
▁87.	-10219
▁Ani	-10220
▁Arb	-10221
▁BDP	-10222
▁Bro	-10223
▁GAL	-10224
▁Jim	-10225
▁KTC	-10226
▁Lan	-10227
▁MNK	-10228
▁Mio	-10229
▁Noa	-10230
▁USA	-10231
▁USD	-10232
▁Uef	-10233
▁Zec	-10234
▁ačv	-10235
▁ašt	-10236
▁hab	-10237
▁iul	-10238
▁krp	-10239
▁lil	-10240
▁lte	-10241
▁ped	-10242
▁puh	-10243
▁tao	-10244
▁tap	-10245
▁vrl	-10246
▁čep	-10247
▁đir	-10248
▁ško	-10249
▁šće	-10250
▁Adel	-10251
▁Erce	-10252
▁Erdo	-10253
▁Fair	-10254
▁HZJZ	-10255
▁Kair	-10256
▁Mara	-10257
▁Utah	-10258
▁agic	-10259
▁alia	-10260
▁arag	-10261
▁dask	-10262
▁dili	-10263
▁embr	-10264
▁enry	-10265
▁etti	-10266
▁gala	-10267
▁gene	-10268
▁guez	-10269
▁hort	-10270
▁imuz	-10271
▁iser	-10272
▁klah	-10273
▁lili	-10274
▁loud	-10275
▁maha	-10276
▁mant	-10277
▁njac	-10278
▁oduš	-10279
▁okre	-10280
▁oles	-10281
▁očin	-10282
▁rasa	-10283
▁riji	-10284
▁tars	-10285
▁ugan	-10286
▁ulen	-10287
▁ushi	-10288
▁uđer	-10289
▁vnog	-10290
▁Hamil	-10291
▁Maras	-10292
▁Miliv	-10293
▁erman	-10294
▁građe	-10295
▁gulaš	-10296
▁hokej	-10297
▁issan	-10298
▁kasni	-10299
▁kokos	-10300
▁kopij	-10301
▁ljati	-10302
▁odije	-10303
▁offen	-10304
▁ombon	-10305
▁prote	-10306
▁racht	-10307
▁regan	-10308
▁ruise	-10309
▁trože	-10310
▁urter	-10311
FR	-10312
IN	-10313
LT	-10314
fo	-10315
hu	-10316
ECD	-10317
ffr	-10318
gal	-10319
hez	-10320
ins	-10321
ree	-10322
sin	-10323
uke	-10324
ćan	-10325
šis	-10326
▁FP	-10327
▁MR	-10328
▁vs	-10329
▁wo	-10330
rich	-10331
▁18,	-10332
▁2-3	-10333
▁240	-10334
▁3-4	-10335
▁57.	-10336
▁64.	-10337
▁65.	-10338
▁68.	-10339
▁Aus	-10340
▁Ele	-10341
▁HSS	-10342
▁HTS	-10343
▁Hit	-10344
▁Hur	-10345
▁IVE	-10346
▁Prv	-10347
▁SSS	-10348
▁Spo	-10349
▁Sto	-10350
▁Sur	-10351
▁cho	-10352
▁cin	-10353
▁hem	-10354
▁ipi	-10355
▁kte	-10356
▁ntr	-10357
▁odm	-10358
▁pom	-10359
▁ufi	-10360
▁ups	-10361
▁urk	-10362
▁vci	-10363
▁zez	-10364
▁zob	-10365
▁Bešl	-10366
▁Djed	-10367
▁Milk	-10368
▁OECD	-10369
▁Pods	-10370
▁Tata	-10371
▁Xavi	-10372
▁aleš	-10373
▁ašar	-10374
▁dsko	-10375
▁erif	-10376
▁erik	-10377
▁heff	-10378
▁ipan	-10379
▁izzu	-10380
▁jamn	-10381
▁kopl	-10382
▁krim	-10383
▁maci	-10384
▁mist	-10385
▁naut	-10386
▁nisa	-10387
▁oglo	-10388
▁ohan	-10389
▁ojeg	-10390
▁ojun	-10391
▁olaz	-10392
▁olet	-10393
▁ostu	-10394
▁raža	-10395
▁rino	-10396
▁rute	-10397
▁shva	-10398
▁snic	-10399
▁ukul	-10400
▁uvel	-10401
▁učan	-10402
▁vrtk	-10403
▁šnje	-10404
▁Arheo	-10405
▁House	-10406
▁Junak	-10407
▁Kuhar	-10408
▁Orbán	-10409
▁Young	-10410
▁adapt	-10411
▁anici	-10412
▁aškar	-10413
▁duard	-10414
▁email	-10415
▁entim	-10416
▁hakir	-10417
▁ijedn	-10418
▁mayer	-10419
▁nalno	-10420
▁njeni	-10421
▁orbit	-10422
▁ozder	-10423
▁prosi	-10424
▁rebak	-10425
▁regur	-10426
▁wauke	-10427
DS	-10428
hk	-10429
we	-10430
dek	-10431
ked	-10432
nas	-10433
non	-10434
▁Ai	-10435
▁FC	-10436
▁PK	-10437
▁RU	-10438
▁TH	-10439
▁ii	-10440
▁0,5	-10441
▁1,1	-10442
▁2,3	-10443
▁63.	-10444
▁71.	-10445
▁79.	-10446
▁ATA	-10447
▁Ash	-10448
▁Bis	-10449
▁Cup	-10450
▁Daj	-10451
▁Ful	-10452
▁Niz	-10453
▁Noć	-10454
▁SNS	-10455
▁Sre	-10456
▁Zeb	-10457
▁Zon	-10458
▁avo	-10459
▁awk	-10460
▁eid	-10461
▁hij	-10462
▁hrv	-10463
▁jad	-10464
▁kej	-10465
▁ker	-10466
▁laj	-10467
▁opo	-10468
▁puž	-10469
▁sul	-10470
▁tig	-10471
▁tut	-10472
▁uaw	-10473
▁Aten	-10474
▁Athl	-10475
▁Aven	-10476
▁Cole	-10477
▁Eras	-10478
▁Food	-10479
▁OSRH	-10480
▁adrž	-10481
▁anađ	-10482
▁ancy	-10483
▁azij	-10484
▁bare	-10485
▁chic	-10486
▁damo	-10487
▁dnim	-10488
▁ejza	-10489
▁elas	-10490
▁enor	-10491
▁esse	-10492
▁grip	-10493
▁hink	-10494
▁ileć	-10495
▁inez	-10496
▁injo	-10497
▁itaj	-10498
▁išlj	-10499
▁jedr	-10500
▁jund	-10501
▁lira	-10502
▁liči	-10503
▁ljal	-10504
▁mošt	-10505
▁obus	-10506
▁odil	-10507
▁olun	-10508
▁oost	-10509
▁ouch	-10510
▁raln	-10511
▁ranz	-10512
▁reat	-10513
▁roga	-10514
▁rukt	-10515
▁ruta	-10516
▁smje	-10517
▁tera	-10518
▁tnim	-10519
▁urry	-10520
▁veni	-10521
▁vlak	-10522
▁zavr	-10523
▁zbil	-10524
▁čnog	-10525
▁Forum	-10526
▁Grgur	-10527
▁Mišel	-10528
▁amark	-10529
▁arkti	-10530
▁ađara	-10531
▁erdin	-10532
▁ilija	-10533
▁iluet	-10534
▁iotik	-10535
▁jenic	-10536
▁jskoj	-10537
▁napis	-10538
▁ollin	-10539
▁ophie	-10540
▁rammy	-10541
▁raume	-10542
▁rifun	-10543
▁rstva	-10544
▁tones	-10545
▁tskim	-10546
IS	-10547
MC	-10548
fn	-10549
pš	-10550
▁}	-10551
▁ä	-10552
dal	-10553
eth	-10554
mir	-10555
šin	-10556
▁AO	-10557
▁Cl	-10558
▁zz	-10559
▁2,7	-10560
▁38.	-10561
▁Cla	-10562
▁Dek	-10563
▁Dem	-10564
▁EMS	-10565
▁Eth	-10566
▁Fun	-10567
▁Gil	-10568
▁HRZ	-10569
▁Hot	-10570
▁Kam	-10571
▁Led	-10572
▁Neo	-10573
▁Nig	-10574
▁OVA	-10575
▁Pes	-10576
▁Rel	-10577
▁Tar	-10578
▁VIP	-10579
▁acc	-10580
▁aya	-10581
▁egu	-10582
▁eom	-10583
▁ips	-10584
▁jeb	-10585
▁lif	-10586
▁neš	-10587
▁owl	-10588
▁paj	-10589
▁Šut	-10590
▁šev	-10591
▁Biuk	-10592
▁Enis	-10593
▁Fans	-10594
▁Inst	-10595
▁Mach	-10596
▁Mišo	-10597
▁Paol	-10598
▁Rast	-10599
▁Uefa	-10600
▁Well	-10601
▁Zver	-10602
▁abar	-10603
▁abir	-10604
▁acos	-10605
▁ahar	-10606
▁ajde	-10607
▁akup	-10608
▁alte	-10609
▁amed	-10610
▁amid	-10611
▁artu	-10612
▁cien	-10613
▁dašn	-10614
▁drht	-10615
▁ebek	-10616
▁eorg	-10617
▁epor	-10618
▁ezni	-10619
▁heer	-10620
▁immy	-10621
▁inav	-10622
▁ingv	-10623
▁inte	-10624
▁ioni	-10625
▁isic	-10626
▁isko	-10627
▁jack	-10628
▁korn	-10629
▁ling	-10630
▁mada	-10631
▁meću	-10632
▁name	-10633
▁obis	-10634
▁oguć	-10635
▁olta	-10636
▁onaz	-10637
▁onga	-10638
▁opći	-10639
▁petr	-10640
▁poda	-10641
▁raff	-10642
▁ralo	-10643
▁rašk	-10644
▁rina	-10645
▁risn	-10646
▁rivr	-10647
▁ryst	-10648
▁tnic	-10649
▁uild	-10650
▁ursa	-10651
▁zuba	-10652
▁čnih	-10653
▁Assoc	-10654
▁Karij	-10655
▁alver	-10656
▁anton	-10657
▁arbie	-10658
▁ašpar	-10659
▁dlažu	-10660
▁enjer	-10661
▁entir	-10662
▁eroin	-10663
▁fašis	-10664
▁giwar	-10665
▁gradi	-10666
▁hijer	-10667
▁inejd	-10668
▁juriš	-10669
▁kofer	-10670
▁navij	-10671
▁odinu	-10672
▁ommer	-10673
▁oppit	-10674
▁orpus	-10675
▁remon	-10676
▁risiv	-10677
▁rugge	-10678
▁takor	-10679
▁teril	-10680
▁trkač	-10681
▁ulmin	-10682
).	-10683
:4	-10684
OP	-10685
UT	-10686
ZA	-10687
ec	-10688
dif	-10689
oks	-10690
rip	-10691
tun	-10692
čin	-10693
▁IA	-10694
▁TM	-10695
▁VW	-10696
▁Če	-10697
▁Đa	-10698
▁ŽC	-10699
▁1,7	-10700
▁105	-10701
▁2,4	-10702
▁42.	-10703
▁51.	-10704
▁650	-10705
▁67.	-10706
▁=>)	-10707
▁Ade	-10708
▁Ala	-10709
▁Aut	-10710
▁Cro	-10711
▁Duh	-10712
▁GUP	-10713
▁Kub	-10714
▁Kći	-10715
▁MMF	-10716
▁Peu	-10717
▁Str	-10718
▁Zab	-10719
▁Zam	-10720
▁cha	-10721
▁dap	-10722
▁ead	-10723
▁eau	-10724
▁eds	-10725
▁ezn	-10726
▁gel	-10727
▁ibn	-10728
▁itz	-10729
▁krh	-10730
▁mic	-10731
▁reu	-10732
▁tam	-10733
▁uču	-10734
▁zen	-10735
▁Fest	-10736
▁Gale	-10737
▁Manh	-10738
▁Math	-10739
▁Nest	-10740
▁OCMB	-10741
▁SHNL	-10742
▁alei	-10743
▁amat	-10744
▁anye	-10745
▁bora	-10746
▁cool	-10747
▁eice	-10748
▁elan	-10749
▁ećem	-10750
▁fast	-10751
▁havn	-10752
▁hobi	-10753
▁imil	-10754
▁inec	-10755
▁inkr	-10756
▁ktur	-10757
▁mach	-10758
▁mest	-10759
▁misi	-10760
▁oldo	-10761
▁onak	-10762
▁osno	-10763
▁ozan	-10764
▁raig	-10765
▁ramo	-10766
▁rste	-10767
▁slap	-10768
▁spra	-10769
▁tkov	-10770
▁ulat	-10771
▁utič	-10772
▁uzin	-10773
▁zici	-10774
▁šlja	-10775
▁šute	-10776
▁Assan	-10777
▁align	-10778
▁angel	-10779
▁austa	-10780
▁earch	-10781
▁elgor	-10782
▁euhar	-10783
▁holok	-10784
▁kvant	-10785
▁milic	-10786
▁nedos	-10787
▁nskom	-10788
▁tirat	-10789
▁tskom	-10790
▁uster	-10791
▁čelni	-10792
CK	-10793
TS	-10794
if	-10795
nd	-10796
▁Ö	-10797
TAK	-10798
asa	-10799
cat	-10800
cem	-10801
che	-10802
ffe	-10803
gut	-10804
hen	-10805
kav	-10806
mik	-10807
win	-10808
▁Ak	-10809
▁CR	-10810
▁EM	-10811
▁Id	-10812
▁Kh	-10813
▁MG	-10814
▁PL	-10815
▁cy	-10816
▁mg	-10817
▁(2)	-10818
▁0,2	-10819
▁0,3	-10820
▁1/2	-10821
▁125	-10822
▁21,	-10823
▁365	-10824
▁39.	-10825
▁6-3	-10826
▁62.	-10827
▁72.	-10828
▁Clo	-10829
▁Eni	-10830
▁FSB	-10831
▁Ime	-10832
▁Kir	-10833
▁Lil	-10834
▁Paj	-10835
▁Rub	-10836
▁Ruk	-10837
▁UAE	-10838
▁Urš	-10839
▁aqu	-10840
▁beg	-10841
▁bet	-10842
▁cut	-10843
▁eit	-10844
▁eđe	-10845
▁gus	-10846
▁inn	-10847
▁irl	-10848
▁ium	-10849
▁lex	-10850
▁lib	-10851
▁nig	-10852
▁num	-10853
▁oan	-10854
▁phy	-10855
▁rou	-10856
▁ruz	-10857
▁uvo	-10858
▁Dija	-10859
▁Dore	-10860
▁Emir	-10861
▁Hous	-10862
▁Ment	-10863
▁Mini	-10864
▁acto	-10865
▁aden	-10866
▁ains	-10867
▁alad	-10868
▁alde	-10869
▁amel	-10870
▁apid	-10871
▁arit	-10872
▁dilj	-10873
▁dlan	-10874
▁ebal	-10875
▁endo	-10876
▁erot	-10877
▁eruz	-10878
▁etap	-10879
▁gluš	-10880
▁gurm	-10881
▁iecy	-10882
▁ikar	-10883
▁iraj	-10884
▁irja	-10885
▁isch	-10886
▁krak	-10887
▁marž	-10888
▁maza	-10889
▁medu	-10890
▁mlje	-10891
▁oble	-10892
▁odal	-10893
▁ohez	-10894
▁opov	-10895
▁pore	-10896
▁rima	-10897
▁roma	-10898
▁rova	-10899
▁ryan	-10900
▁seda	-10901
▁snos	-10902
▁tavu	-10903
▁trep	-10904
▁tvom	-10905
▁usan	-10906
▁uvan	-10907
▁vrta	-10908
▁žuri	-10909
▁Fried	-10910
▁Milov	-10911
▁Salah	-10912
▁Svjet	-10913
▁Welle	-10914
▁allon	-10915
▁amard	-10916
▁armij	-10917
▁aštin	-10918
▁curic	-10919
▁ejzaž	-10920
▁izman	-10921
▁jelat	-10922
▁likvi	-10923
▁menta	-10924
▁ranad	-10925
▁vajal	-10926
▁vilic	-10927
▁zadan	-10928
CG	-10929
II	-10930
IJA	-10931
ORA	-10932
gun	-10933
imi	-10934
lač	-10935
sku	-10936
wen	-10937
▁AB	-10938
▁BK	-10939
▁CT	-10940
▁Ir	-10941
▁pn	-10942
▁pš	-10943
▁Še	-10944
▁Žu	-10945
njih	-10946
uker	-10947
▁1-2	-10948
▁115	-10949
▁22,	-10950
▁25,	-10951
▁50%	-10952
▁69.	-10953
▁88.	-10954
▁ACI	-10955
▁Aca	-10956
▁Amy	-10957
▁BRI	-10958
▁Bak	-10959
▁Cir	-10960
▁IBF	-10961
▁Ide	-10962
▁Leo	-10963
▁Mma	-10964
▁Mot	-10965
▁Muž	-10966
▁Pat	-10967
▁Pay	-10968
▁Rig	-10969
▁Sol	-10970
▁Sun	-10971
▁Tih	-10972
▁aso	-10973
▁aux	-10974
▁hti	-10975
▁iid	-10976
▁imk	-10977
▁kep	-10978
▁kna	-10979
▁lko	-10980
▁lob	-10981
▁mmy	-10982
▁oll	-10983
▁ood	-10984
▁oom	-10985
▁oul	-10986
▁pig	-10987
▁rul	-10988
▁vig	-10989
▁wol	-10990
▁Čef	-10991
▁Čol	-10992
▁Đer	-10993
▁Špa	-10994
▁Duha	-10995
▁OVIĆ	-10996
▁Turk	-10997
▁aham	-10998
▁aleb	-10999
▁alje	-11000
▁bosi	-11001
▁eart	-11002
▁ekti	-11003
▁enge	-11004
▁eper	-11005
▁esco	-11006
▁grub	-11007
▁icil	-11008
▁imot	-11009
▁irma	-11010
▁kari	-11011
▁kotl	-11012
▁kral	-11013
▁lano	-11014
▁litu	-11015
▁nomn	-11016
▁ogin	-11017
▁ogla	-11018
▁ogue	-11019
▁ojne	-11020
▁onea	-11021
▁onto	-11022
▁ough	-11023
▁ozar	-11024
▁pužv	-11025
▁rase	-11026
▁repa	-11027
▁resa	-11028
▁ritm	-11029
▁roit	-11030
▁taek	-11031
▁tama	-11032
▁truč	-11033
▁uhan	-11034
▁urni	-11035
▁utel	-11036
▁šiša	-11037
▁žuta	-11038
▁Biser	-11039
▁Media	-11040
▁Medul	-11041
▁Mikea	-11042
▁Mikel	-11043
▁Zelin	-11044
▁ajder	-11045
▁alenk	-11046
▁annik	-11047
▁arkaš	-11048
▁dnjih	-11049
▁emenu	-11050
▁enski	-11051
▁feder	-11052
▁iolet	-11053
▁jskih	-11054
▁klape	-11055
▁kutak	-11056
▁motri	-11057
▁novni	-11058
▁ppenh	-11059
▁renja	-11060
▁unter	-11061
▁vilen	-11062
▁ürich	-11063
▁Šuker	-11064
▁žoker	-11065
",	-11066
ES	-11067
WA	-11068
aq	-11069
pl	-11070
ue	-11071
bol	-11072
dik	-11073
fin	-11074
ich	-11075
rif	-11076
vek	-11077
▁Az	-11078
▁LD	-11079
▁Oh	-11080
▁Ox	-11081
▁RK	-11082
▁WA	-11083
▁€,	-11084
akot	-11085
▁14,	-11086
▁2,1	-11087
▁2,2	-11088
▁220	-11089
▁23,	-11090
▁3,8	-11091
▁4-1	-11092
▁44.	-11093
▁80%	-11094
▁Ast	-11095
▁Dao	-11096
▁Ded	-11097
▁Duž	-11098
▁EBU	-11099
▁Eti	-11100
▁Gam	-11101
▁May	-11102
▁NJA	-11103
▁PRO	-11104
▁Pec	-11105
▁Roy	-11106
▁SNV	-11107
▁Vul	-11108
▁eha	-11109
▁gut	-11110
▁hum	-11111
▁ios	-11112
▁kuž	-11113
▁oph	-11114
▁ovd	-11115
▁pok	-11116
▁she	-11117
▁stu	-11118
▁tvi	-11119
▁ulz	-11120
▁uth	-11121
▁vrđ	-11122
▁was	-11123
▁ćur	-11124
▁šif	-11125
▁Dead	-11126
▁Hand	-11127
▁JANA	-11128
▁Jast	-11129
▁Kumr	-11130
▁Lady	-11131
▁Madi	-11132
▁Masl	-11133
▁Neda	-11134
▁Rend	-11135
▁abud	-11136
▁alid	-11137
▁ačav	-11138
▁curi	-11139
▁dršk	-11140
▁eciv	-11141
▁ermi	-11142
▁eval	-11143
▁frek	-11144
▁ient	-11145
▁iskv	-11146
▁itva	-11147
▁izze	-11148
▁jong	-11149
▁jsku	-11150
▁kraf	-11151
▁lakt	-11152
▁laća	-11153
▁nanc	-11154
▁nuci	-11155
▁nume	-11156
▁okas	-11157
▁onci	-11158
▁onir	-11159
▁oord	-11160
▁orzu	-11161
▁ossi	-11162
▁oxha	-11163
▁pall	-11164
▁parm	-11165
▁plit	-11166
▁pods	-11167
▁ranu	-11168
▁road	-11169
▁sjev	-11170
▁tier	-11171
▁tore	-11172
▁upil	-11173
▁upin	-11174
▁votu	-11175
▁wiat	-11176
▁yund	-11177
▁Ćipe	-11178
▁čadi	-11179
▁Šari	-11180
▁Špan	-11181
▁žegi	-11182
▁Allen	-11183
▁ammer	-11184
▁board	-11185
▁draft	-11186
▁eague	-11187
▁ekviv	-11188
▁encer	-11189
▁erami	-11190
▁ilton	-11191
▁inala	-11192
▁izdar	-11193
▁ktora	-11194
▁milen	-11195
▁never	-11196
▁nopol	-11197
▁ravel	-11198
▁rnest	-11199
▁robus	-11200
▁uchel	-11201
20	-11202
AT	-11203
GE	-11204
PN	-11205
TO	-11206
yb	-11207
ŽE	-11208
ADA	-11209
BRO	-11210
MED	-11211
can	-11212
jar	-11213
zam	-11214
čec	-11215
▁94	-11216
▁GS	-11217
▁Sj	-11218
▁TK	-11219
▁ts	-11220
▁Št	-11221
▁0-0	-11222
▁1,9	-11223
▁135	-11224
▁3,6	-11225
▁4-0	-11226
▁82.	-11227
▁Beš	-11228
▁Buk	-11229
▁CDU	-11230
▁ECB	-11231
▁Fed	-11232
▁Fol	-11233
▁HDS	-11234
▁HOS	-11235
▁KOM	-11236
▁Kis	-11237
▁Piv	-11238
▁Ran	-11239
▁Sul	-11240
▁TOP	-11241
▁alf	-11242
▁aln	-11243
▁anš	-11244
▁azo	-11245
▁cre	-11246
▁duo	-11247
▁esz	-11248
▁hir	-11249
▁iat	-11250
▁kuc	-11251
▁lle	-11252
▁muć	-11253
▁new	-11254
▁suš	-11255
▁taf	-11256
▁uez	-11257
▁Ćir	-11258
▁Čop	-11259
▁Šer	-11260
▁šap	-11261
▁šiš	-11262
▁Ajde	-11263
▁Code	-11264
▁Meri	-11265
▁Musa	-11266
▁Week	-11267
▁Wine	-11268
▁aban	-11269
▁agre	-11270
▁alle	-11271
▁alor	-11272
▁ambi	-11273
▁blat	-11274
▁dola	-11275
▁enna	-11276
▁glad	-11277
▁icid	-11278
▁iety	-11279
▁iljn	-11280
▁itav	-11281
▁izla	-11282
▁izvr	-11283
▁jenj	-11284
▁konv	-11285
▁latf	-11286
▁laud	-11287
▁loži	-11288
▁made	-11289
▁meno	-11290
▁mosk	-11291
▁movi	-11292
▁odry	-11293
▁ofon	-11294
▁opul	-11295
▁oste	-11296
▁oysa	-11297
▁pono	-11298
▁popu	-11299
▁rain	-11300
▁ranč	-11301
▁ranš	-11302
▁resc	-11303
▁romb	-11304
▁rsat	-11305
▁skač	-11306
▁snog	-11307
▁teen	-11308
▁tner	-11309
▁toke	-11310
▁ueen	-11311
▁urek	-11312
▁utem	-11313
▁užni	-11314
▁vise	-11315
▁vost	-11316
▁ware	-11317
▁zada	-11318
▁Šuta	-11319
▁šipk	-11320
▁ALMED	-11321
▁Assad	-11322
▁alaže	-11323
▁andel	-11324
▁andum	-11325
▁artan	-11326
▁asper	-11327
▁astir	-11328
▁aurea	-11329
▁celer	-11330
▁ednik	-11331
▁erkel	-11332
▁hiffr	-11333
▁jahte	-11334
▁janja	-11335
▁jansk	-11336
▁jenut	-11337
▁komot	-11338
▁kopač	-11339
▁kopir	-11340
▁kuter	-11341
▁licit	-11342
▁lizir	-11343
▁mamin	-11344
▁modif	-11345
▁ommun	-11346
▁orkan	-11347
▁orres	-11348
▁predv	-11349
▁prest	-11350
▁remni	-11351
▁ruyne	-11352
▁skori	-11353
▁timer	-11354
▁togen	-11355
▁tskih	-11356
▁ulgar	-11357
▁vagon	-11358
▁vnici	-11359
▁Đorđe	-11360
EX	-11361
JU	-11362
Je	-11363
UK	-11364
ev	-11365
yo	-11366
ŽA	-11367
SKI	-11368
▁BE	-11369
▁KU	-11370
▁OZ	-11371
▁SS	-11372
▁So	-11373
▁VO	-11374
▁sy	-11375
▁10%	-11376
▁17,	-11377
▁2,6	-11378
▁26,	-11379
▁260	-11380
▁30%	-11381
▁5,5	-11382
▁78.	-11383
▁Aka	-11384
▁Cen	-11385
▁Eco	-11386
▁Fid	-11387
▁HIV	-11388
▁Ita	-11389
▁Kob	-11390
▁Lin	-11391
▁MiG	-11392
▁Mun	-11393
▁NFL	-11394
▁Ron	-11395
▁Sor	-11396
▁arg	-11397
▁arč	-11398
▁azl	-11399
▁ašč	-11400
▁erd	-11401
▁ery	-11402
▁gli	-11403
▁hlo	-11404
▁hut	-11405
▁ijk	-11406
▁lia	-11407
▁oud	-11408
▁oys	-11409
▁trč	-11410
▁uar	-11411
▁vlj	-11412
▁üss	-11413
▁Cvek	-11414
▁Demo	-11415
▁HBOR	-11416
▁HERA	-11417
▁Mikl	-11418
▁Sava	-11419
▁Tech	-11420
▁Unch	-11421
▁What	-11422
▁agil	-11423
▁akij	-11424
▁akos	-11425
▁alaz	-11426
▁alut	-11427
▁amos	-11428
▁ashi	-11429
▁bahč	-11430
▁bvez	-11431
▁džud	-11432
▁eidi	-11433
▁elon	-11434
▁ersi	-11435
▁fikc	-11436
▁iksi	-11437
▁iril	-11438
▁irmu	-11439
▁ishi	-11440
▁ivel	-11441
▁kauč	-11442
▁kele	-11443
▁kolj	-11444
▁lege	-11445
▁lita	-11446
▁lječ	-11447
▁lože	-11448
▁nota	-11449
▁nves	-11450
▁obli	-11451
▁ogađ	-11452
▁ogov	-11453
▁oine	-11454
▁omar	-11455
▁oras	-11456
▁osit	-11457
▁reki	-11458
▁ribl	-11459
▁rječ	-11460
▁ruis	-11461
▁sežu	-11462
▁sici	-11463
▁slađ	-11464
▁this	-11465
▁tske	-11466
▁ubar	-11467
▁umar	-11468
▁Đorđ	-11469
▁Albin	-11470
▁Annie	-11471
▁Cloon	-11472
▁Džeko	-11473
▁JANAF	-11474
▁Jonas	-11475
▁Tihan	-11476
▁Zahar	-11477
▁adoks	-11478
▁agbij	-11479
▁agram	-11480
▁ained	-11481
▁ajram	-11482
▁alkar	-11483
▁almon	-11484
▁amort	-11485
▁anten	-11486
▁apsor	-11487
▁aptop	-11488
▁arius	-11489
▁avand	-11490
▁avell	-11491
▁burgh	-11492
▁diler	-11493
▁emper	-11494
▁enner	-11495
▁epinj	-11496
▁group	-11497
▁liven	-11498
▁ongol	-11499
▁raham	-11500
▁rajer	-11501
▁rampu	-11502
▁rauma	-11503
▁rooks	-11504
▁rotac	-11505
▁tetiv	-11506
▁tream	-11507
▁varos	-11508
▁zoben	-11509
▁šuter	-11510
2,	-11511
21	-11512
FF	-11513
aa	-11514
cl	-11515
gs	-11516
ble	-11517
lif	-11518
lum	-11519
uss	-11520
▁(9	-11521
▁Ag	-11522
▁DR	-11523
▁HK	-11524
▁KA	-11525
▁PV	-11526
▁RF	-11527
▁RN	-11528
▁UP	-11529
▁ođ	-11530
▁yo	-11531
▁Žd	-11532
▁2,9	-11533
▁29,	-11534
▁3,3	-11535
▁3:2	-11536
▁48.	-11537
▁6-7	-11538
▁660	-11539
▁CIA	-11540
▁Cur	-11541
▁Dia	-11542
▁Eri	-11543
▁Etn	-11544
▁Far	-11545
▁Gun	-11546
▁HOK	-11547
▁HTZ	-11548
▁Hut	-11549
▁Ida	-11550
▁NBC	-11551
▁Old	-11552
▁Rož	-11553
▁SIP	-11554
▁SPD	-11555
▁abs	-11556
▁cus	-11557
▁dre	-11558
▁ebn	-11559
▁ece	-11560
▁emb	-11561
▁eov	-11562
▁got	-11563
▁inp	-11564
▁ndo	-11565
▁que	-11566
▁rte	-11567
▁unn	-11568
▁zda	-11569
▁Čer	-11570
▁čil	-11571
▁Ashl	-11572
▁Bukv	-11573
▁Cure	-11574
▁Dohi	-11575
▁Emin	-11576
▁José	-11577
▁Paus	-11578
▁Senk	-11579
▁Seul	-11580
▁Usyk	-11581
▁ajag	-11582
▁alib	-11583
▁anaf	-11584
▁anag	-11585
▁ando	-11586
▁apel	-11587
▁apra	-11588
▁atum	-11589
▁ažij	-11590
▁beku	-11591
▁bici	-11592
▁ecce	-11593
▁edal	-11594
▁ende	-11595
▁firm	-11596
▁gnan	-11597
▁irst	-11598
▁isar	-11599
▁ject	-11600
▁litk	-11601
▁makl	-11602
▁maro	-11603
▁okov	-11604
▁olon	-11605
▁peed	-11606
▁pere	-11607
▁rich	-11608
▁rukv	-11609
▁skot	-11610
▁stom	-11611
▁sumi	-11612
▁tabu	-11613
▁tary	-11614
▁tete	-11615
▁turm	-11616
▁ubin	-11617
▁ucky	-11618
▁unak	-11619
▁warz	-11620
▁zajm	-11621
▁čeku	-11622
▁žuto	-11623
▁Adele	-11624
▁Armin	-11625
▁IJERA	-11626
▁Marsa	-11627
▁Mmaee	-11628
▁Nikit	-11629
▁Petek	-11630
▁Sahar	-11631
▁Tarik	-11632
▁after	-11633
▁avier	-11634
▁banal	-11635
▁cyber	-11636
▁ering	-11637
▁etent	-11638
▁ešikt	-11639
▁fekal	-11640
▁gnjev	-11641
▁graph	-11642
▁inked	-11643
▁inkub	-11644
▁katal	-11645
▁lemik	-11646
▁loomb	-11647
▁offer	-11648
▁ogući	-11649
▁ongin	-11650
▁orpor	-11651
▁očita	-11652
▁ranja	-11653
▁ribun	-11654
▁tavit	-11655
▁üssel	-11656
▁šnjeg	-11657
KI	-11658
RD	-11659
oo	-11660
rđ	-11661
ua	-11662
ül	-11663
ĆE	-11664
▁′	-11665
bir	-11666
hor	-11667
ina	-11668
kel	-11669
riq	-11670
▁AJ	-11671
▁AS	-11672
▁Bl	-11673
▁Dž	-11674
▁EA	-11675
▁PC	-11676
▁TB	-11677
gebr	-11678
▁145	-11679
▁165	-11680
▁24,	-11681
▁3,2	-11682
▁49.	-11683
▁5-1	-11684
▁50,	-11685
▁83.	-11686
▁86.	-11687
▁89.	-11688
▁93.	-11689
▁Abd	-11690
▁Baj	-11691
▁CBS	-11692
▁COP	-11693
▁Dev	-11694
▁Dot	-11695
▁FOI	-11696
▁Fle	-11697
▁HMI	-11698
▁Had	-11699
▁INE	-11700
▁OTP	-11701
▁Raš	-11702
▁TMZ	-11703
▁Ves	-11704
▁Via	-11705
▁ZET	-11706
▁aff	-11707
▁aur	-11708
▁avd	-11709
▁bne	-11710
▁bot	-11711
▁crv	-11712
▁dev	-11713
▁eyn	-11714
▁hen	-11715
▁hov	-11716
▁iak	-11717
▁iaz	-11718
▁igo	-11719
▁jaž	-11720
▁jša	-11721
▁kož	-11722
▁lai	-11723
▁moč	-11724
▁pip	-11725
▁žij	-11726
▁Amel	-11727
▁Amir	-11728
▁Banj	-11729
▁Brck	-11730
▁Dior	-11731
▁GOŠK	-11732
▁Jura	-11733
▁Kule	-11734
▁Kvar	-11735
▁Muri	-11736
▁NRWA	-11737
▁Niže	-11738
▁Pala	-11739
▁Pamt	-11740
▁Rest	-11741
▁SELJ	-11742
▁SSSR	-11743
▁abak	-11744
▁acob	-11745
▁anaz	-11746
▁ania	-11747
▁appy	-11748
▁arch	-11749
▁arge	-11750
▁arha	-11751
▁artr	-11752
▁atto	-11753
▁aves	-11754
▁ačun	-11755
▁ađar	-11756
▁ašti	-11757
▁desi	-11758
▁down	-11759
▁džij	-11760
▁eith	-11761
▁eljo	-11762
▁emal	-11763
▁gang	-11764
▁iors	-11765
▁kime	-11766
▁lače	-11767
▁legr	-11768
▁loyd	-11769
▁magl	-11770
▁meri	-11771
▁mozi	-11772
▁mraz	-11773
▁muhe	-11774
▁oard	-11775
▁obac	-11776
▁obic	-11777
▁olok	-11778
▁oody	-11779
▁ozio	-11780
▁pril	-11781
▁rant	-11782
▁reta	-11783
▁ries	-11784
▁slje	-11785
▁tamp	-11786
▁trig	-11787
▁zelj	-11788
▁znos	-11789
▁đumb	-11790
▁đurđ	-11791
▁župa	-11792
▁Ankic	-11793
▁BRICS	-11794
▁Basel	-11795
▁Dakot	-11796
▁ENIKA	-11797
▁Kerem	-11798
▁Mihan	-11799
▁Monit	-11800
▁Seneg	-11801
▁Veget	-11802
▁ampon	-11803
▁annon	-11804
▁arget	-11805
▁arion	-11806
▁bahat	-11807
▁bedem	-11808
▁elika	-11809
▁eliss	-11810
▁esenc	-11811
▁iovan	-11812
▁izgra	-11813
▁jahta	-11814
▁jenuš	-11815
▁klisk	-11816
▁lgebr	-11817
▁ljuds	-11818
▁mamur	-11819
▁manev	-11820
▁onton	-11821
▁orima	-11822
▁ribut	-11823
▁tafet	-11824
▁tavio	-11825
▁tevan	-11826
▁určin	-11827
▁vidik	-11828
▁vitak	-11829
▁vreme	-11830
▁žanra	-11831
RK	-11832
TV	-11833
eč	-11834
ón	-11835
arn	-11836
die	-11837
don	-11838
hij	-11839
lir	-11840
lod	-11841
▁BY	-11842
▁DE	-11843
▁EX	-11844
▁FM	-11845
▁KD	-11846
▁KI	-11847
▁MU	-11848
▁NC	-11849
▁SB	-11850
▁Ut	-11851
▁pk	-11852
▁vl	-11853
▁0:1	-11854
▁1/4	-11855
▁108	-11856
▁230	-11857
▁3,9	-11858
▁40%	-11859
▁56.	-11860
▁7,5	-11861
▁73.	-11862
▁Cav	-11863
▁Dje	-11864
▁Doh	-11865
▁EHF	-11866
▁HSU	-11867
▁ICT	-11868
▁Kaj	-11869
▁Kok	-11870
▁Lex	-11871
▁Lib	-11872
▁MOO	-11873
▁Por	-11874
▁Reš	-11875
▁Rij	-11876
▁Sir	-11877
▁alz	-11878
▁amy	-11879
▁bic	-11880
▁eop	-11881
▁ett	-11882
▁ful	-11883
▁gnj	-11884
▁has	-11885
▁iag	-11886
▁icy	-11887
▁iej	-11888
▁ild	-11889
▁imm	-11890
▁irm	-11891
▁juk	-11892
▁leb	-11893
▁ngu	-11894
▁olk	-11895
▁pso	-11896
▁raw	-11897
▁reo	-11898
▁rex	-11899
▁sec	-11900
▁tuj	-11901
▁unč	-11902
▁wor	-11903
▁zeb	-11904
▁čuk	-11905
▁ŽDO	-11906
▁Alph	-11907
▁Bare	-11908
▁Deep	-11909
▁Goda	-11910
▁Haag	-11911
▁Ruud	-11912
▁Slov	-11913
▁Wies	-11914
▁ajdu	-11915
▁alti	-11916
▁alub	-11917
▁amad	-11918
▁ambr	-11919
▁apin	-11920
▁arga	-11921
▁arod	-11922
▁aspr	-11923
▁avij	-11924
▁come	-11925
▁diot	-11926
▁edar	-11927
▁epri	-11928
▁epsk	-11929
▁esca	-11930
▁evel	-11931
▁ežij	-11932
▁gema	-11933
▁glađ	-11934
▁grat	-11935
▁hake	-11936
▁idan	-11937
▁iger	-11938
▁ijar	-11939
▁ijez	-11940
▁ilal	-11941
▁ilaž	-11942
▁imer	-11943
▁ince	-11944
▁inim	-11945
▁iton	-11946
▁jark	-11947
▁jetk	-11948
▁ješi	-11949
▁kati	-11950
▁leuk	-11951
▁likt	-11952
▁lind	-11953
▁lisk	-11954
▁note	-11955
▁olej	-11956
▁opeč	-11957
▁pond	-11958
▁radl	-11959
▁rami	-11960
▁repe	-11961
▁reti	-11962
▁rišk	-11963
▁talg	-11964
▁tasa	-11965
▁tech	-11966
▁torm	-11967
▁uang	-11968
▁ujam	-11969
▁urad	-11970
▁uršk	-11971
▁utch	-11972
▁uten	-11973
▁utik	-11974
▁ućan	-11975
▁vega	-11976
▁zzur	-11977
▁čnim	-11978
▁šake	-11979
▁šver	-11980
▁ATICA	-11981
▁Amber	-11982
▁Baker	-11983
▁Evans	-11984
▁Kukoč	-11985
▁Megan	-11986
▁Pirej	-11987
▁Weber	-11988
▁absol	-11989
▁achel	-11990
▁adnju	-11991
▁ammed	-11992
▁antes	-11993
▁aquel	-11994
▁artuf	-11995
▁ačuna	-11996
▁batal	-11997
▁bešte	-11998
▁edavn	-11999
▁eller	-12000
▁enera	-12001
▁enetr	-12002
▁erisk	-12003
▁estez	-12004
▁etnik	-12005
▁gnječ	-12006
▁house	-12007
▁igman	-12008
▁irjan	-12009
▁koket	-12010
▁kugor	-12011
▁laket	-12012
▁lavin	-12013
▁libid	-12014
▁lutak	-12015
▁malen	-12016
▁minul	-12017
▁nagra	-12018
▁nivoa	-12019
▁obbie	-12020
▁omand	-12021
▁onver	-12022
▁osvje	-12023
▁pokre	-12024
▁ranje	-12025
▁rgovi	-12026
▁telje	-12027
▁vasac	-12028
▁zanat	-12029
HA	-12030
WF	-12031
ah	-12032
▁í	-12033
LIT	-12034
div	-12035
gad	-12036
ges	-12037
hir	-12038
laj	-12039
mol	-12040
urn	-12041
uth	-12042
šiz	-12043
žev	-12044
▁BO	-12045
▁CB	-12046
▁Cr	-12047
▁DN	-12048
▁Eq	-12049
▁Gü	-12050
▁MP	-12051
▁Mn	-12052
▁OG	-12053
▁UC	-12054
▁jš	-12055
▁sb	-12056
▁0-1	-12057
▁0-2	-12058
▁101	-12059
▁123	-12060
▁2:2	-12061
▁3,7	-12062
▁320	-12063
▁43.	-12064
▁6-1	-12065
▁70%	-12066
▁95.	-12067
▁Arn	-12068
▁Beg	-12069
▁CRO	-12070
▁Cop	-12071
▁Dat	-12072
▁Dor	-12073
▁HBO	-12074
▁IRA	-12075
▁Joy	-12076
▁Joz	-12077
▁KSW	-12078
▁Ken	-12079
▁LAD	-12080
▁Lap	-12081
▁McK	-12082
▁Nju	-12083
▁Nol	-12084
▁OIB	-12085
▁RTS	-12086
▁Sje	-12087
▁Vor	-12088
▁War	-12089
▁Way	-12090
▁Zsa	-12091
▁bob	-12092
▁cor	-12093
▁duc	-12094
▁eod	-12095
▁epp	-12096
▁gis	-12097
▁iNO	-12098
▁jcf	-12099
▁kio	-12100
▁mig	-12101
▁mpt	-12102
▁oup	-12103
▁oća	-12104
▁rey	-12105
▁rpn	-12106
▁sep	-12107
▁sur	-12108
▁urf	-12109
▁uzz	-12110
▁vak	-12111
▁Arin	-12112
▁Bene	-12113
▁Cine	-12114
▁Kurt	-12115
▁Mill	-12116
▁Nisk	-12117
▁OCMU	-12118
▁Pako	-12119
▁Remi	-12120
▁This	-12121
▁Ugar	-12122
▁acea	-12123
▁acho	-12124
▁afro	-12125
▁akud	-12126
▁akuu	-12127
▁ampe	-12128
▁anks	-12129
▁ankt	-12130
▁ariv	-12131
▁ayes	-12132
▁azne	-12133
▁ašir	-12134
▁beau	-12135
▁dant	-12136
▁earn	-12137
▁elce	-12138
▁endr	-12139
▁enos	-12140
▁epeo	-12141
▁erma	-12142
▁erth	-12143
▁erty	-12144
▁escu	-12145
▁eten	-12146
▁etna	-12147
▁faks	-12148
▁good	-12149
▁gork	-12150
▁iann	-12151
▁icag	-12152
▁ijus	-12153
▁itsk	-12154
▁itta	-12155
▁jesi	-12156
▁kabl	-12157
▁kara	-12158
▁kept	-12159
▁knuo	-12160
▁kuje	-12161
▁laca	-12162
▁latu	-12163
▁life	-12164
▁loge	-12165
▁ltar	-12166
▁notu	-12167
▁ocij	-12168
▁ogot	-12169
▁ojin	-12170
▁oksi	-12171
▁oled	-12172
▁olen	-12173
▁olfa	-12174
▁olji	-12175
▁ongo	-12176
▁ošta	-12177
▁raft	-12178
▁raun	-12179
▁rekv	-12180
▁resk	-12181
▁rola	-12182
▁tain	-12183
▁tori	-12184
▁trap	-12185
▁vine	-12186
▁wich	-12187
▁word	-12188
▁yber	-12189
▁zubn	-12190
▁šnja	-12191
▁ščup	-12192
▁žile	-12193
▁Eriks	-12194
▁Furij	-12195
▁Lider	-12196
▁Medak	-12197
▁Ragus	-12198
▁admin	-12199
▁agolj	-12200
▁ambie	-12201
▁ambot	-12202
▁anšiz	-12203
▁arber	-12204
▁arend	-12205
▁aršun	-12206
▁astel	-12207
▁athal	-12208
▁athan	-12209
▁avnat	-12210
▁baden	-12211
▁batat	-12212
▁dasve	-12213
▁elebr	-12214
▁enign	-12215
▁erdar	-12216
▁erije	-12217
▁eston	-12218
▁etafe	-12219
▁eymar	-12220
▁green	-12221
▁gutal	-12222
▁ichol	-12223
▁ieber	-12224
▁ihova	-12225
▁iller	-12226
▁iscon	-12227
▁istak	-12228
▁iston	-12229
▁išćan	-12230
▁jazza	-12231
▁juard	-12232
▁kazat	-12233
▁kubik	-12234
▁lakot	-12235
▁lator	-12236
▁leter	-12237
▁makne	-12238
▁mukot	-12239
▁okrum	-12240
▁onnor	-12241
▁ončel	-12242
▁polov	-12243
▁puzen	-12244
▁rahou	-12245
▁rajin	-12246
▁remet	-12247
▁rizon	-12248
▁robat	-12249
▁stakn	-12250
▁traci	-12251
▁ummer	-12252
▁undul	-12253
▁undus	-12254
▁uškar	-12255
▁vivor	-12256
:5	-12257
Iz	-12258
No	-12259
UR	-12260
uh	-12261
ão	-12262
▁ç	-12263
bal	-12264
chi	-12265
edd	-12266
els	-12267
gas	-12268
ier	-12269
mez	-12270
mić	-12271
rep	-12272
rer	-12273
vil	-12274
žek	-12275
▁Cv	-12276
▁GA	-12277
▁Kv	-12278
▁MV	-12279
▁OM	-12280
▁XX	-12281
▁vk	-12282
▁vn	-12283
▁ŽU	-12284
▁175	-12285
▁192	-12286
▁40,	-12287
▁4:0	-12288
▁6,5	-12289
▁7,3	-12290
▁ANI	-12291
▁Anu	-12292
▁Cas	-12293
▁Dež	-12294
▁EUT	-12295
▁FER	-12296
▁FPÖ	-12297
▁GPS	-12298
▁Gli	-12299
▁HZZ	-12300
▁ITA	-12301
▁Ian	-12302
▁Ivu	-12303
▁Jed	-12304
▁Kaš	-12305
▁Mel	-12306
▁Mul	-12307
▁PPD	-12308
▁Pin	-12309
▁Pop	-12310
▁Rek	-12311
▁STA	-12312
▁agy	-12313
▁aid	-12314
▁aly	-12315
▁anf	-12316
▁dsk	-12317
▁eav	-12318
▁ejl	-12319
▁iče	-12320
▁jal	-12321
▁kič	-12322
▁oar	-12323
▁oby	-12324
▁ool	-12325
▁ošč	-12326
▁sky	-12327
▁tun	-12328
▁uis	-12329
▁ušl	-12330
▁vič	-12331
▁wan	-12332
▁zgo	-12333
▁zlu	-12334
▁Šan	-12335
▁šib	-12336
▁Barn	-12337
▁Coco	-12338
▁EMSC	-12339
▁Fett	-12340
▁Hari	-12341
▁Kale	-12342
▁Muha	-12343
▁Neil	-12344
▁Orch	-12345
▁Perk	-12346
▁Rama	-12347
▁Tepš	-12348
▁Ukra	-12349
▁Wesl	-12350
▁abot	-12351
▁adič	-12352
▁adnj	-12353
▁aguž	-12354
▁akop	-12355
▁alva	-12356
▁anca	-12357
▁anik	-12358
▁arać	-12359
▁ariž	-12360
▁asar	-12361
▁bala	-12362
▁blje	-12363
▁bobi	-12364
▁brus	-12365
▁bury	-12366
▁core	-12367
▁coun	-12368
▁dire	-12369
▁doze	-12370
▁ecan	-12371
▁eeth	-12372
▁elag	-12373
▁eram	-12374
▁gesl	-12375
▁grof	-12376
▁haja	-12377
▁hand	-12378
▁here	-12379
▁high	-12380
▁hodu	-12381
▁ignj	-12382
▁ijci	-12383
▁ikas	-12384
▁ilic	-12385
▁imin	-12386
▁ines	-12387
▁into	-12388
▁isel	-12389
▁itni	-12390
▁jila	-12391
▁juri	-12392
▁kota	-12393
▁lacu	-12394
▁laet	-12395
▁leća	-12396
▁maka	-12397
▁miro	-12398
▁nsko	-12399
▁oday	-12400
▁odio	-12401
▁ogoz	-12402
▁okat	-12403
▁onin	-12404
▁onja	-12405
▁ontr	-12406
▁opar	-12407
▁ovik	-12408
▁ovne	-12409
▁oyot	-12410
▁peda	-12411
▁pold	-12412
▁remu	-12413
▁repo	-12414
▁reuz	-12415
▁rikt	-12416
▁rmal	-12417
▁rosi	-12418
▁rote	-12419
▁roti	-12420
▁ruck	-12421
▁takl	-12422
▁tekn	-12423
▁tela	-12424
▁tenz	-12425
▁tija	-12426
▁ukas	-12427
▁uror	-12428
▁yler	-12429
▁zama	-12430
▁zren	-12431
▁đena	-12432
▁štip	-12433
▁žmić	-12434
▁Alain	-12435
▁Arban	-12436
▁Direc	-12437
▁Kanal	-12438
▁Kanar	-12439
▁Mikan	-12440
▁Nedel	-12441
▁Papin	-12442
▁Uršul	-12443
▁adlav	-12444
▁aljak	-12445
▁antos	-12446
▁anyol	-12447
▁asnio	-12448
▁attoo	-12449
▁cimer	-12450
▁helif	-12451
▁iciju	-12452
▁imetr	-12453
▁jetru	-12454
▁klikn	-12455
▁kočij	-12456
▁meduz	-12457
▁monit	-12458
▁nemin	-12459
▁nijek	-12460
▁ojler	-12461
▁olmes	-12462
▁ooker	-12463
▁orman	-12464
▁ozzar	-12465
▁pears	-12466
▁podij	-12467
▁reben	-12468
▁resta	-12469
▁rista	-12470
▁svije	-12471
▁uppin	-12472
▁ženje	-12473
24	-12474
BO	-12475
NT	-12476
žo	-12477
⁄2	-12478
▁É	-12479
EPT	-12480
RAK	-12481
mič	-12482
mod	-12483
pto	-12484
roe	-12485
ube	-12486
umb	-12487
vea	-12488
vic	-12489
zan	-12490
▁+1	-12491
▁01	-12492
▁2%	-12493
▁Ax	-12494
▁BH	-12495
▁BS	-12496
▁FT	-12497
▁IP	-12498
▁LU	-12499
▁Nm	-12500
▁UD	-12501
▁Uh	-12502
▁VN	-12503
▁Ži	-12504
▁(18	-12505
▁(3)	-12506
▁(5)	-12507
▁1.5	-12508
▁122	-12509
▁3,1	-12510
▁3,4	-12511
▁4,8	-12512
▁4-2	-12513
▁4-3	-12514
▁60%	-12515
▁ABC	-12516
▁Aco	-12517
▁Dec	-12518
▁DiC	-12519
▁Dic	-12520
▁Dum	-12521
▁ENT	-12522
▁ERT	-12523
▁Geo	-12524
▁HSV	-12525
▁LAG	-12526
▁MSU	-12527
▁RAD	-12528
▁ROB	-12529
▁TUP	-12530
▁Xia	-12531
▁act	-12532
▁bak	-12533
▁bao	-12534
▁big	-12535
▁ecc	-12536
▁eer	-12537
▁ees	-12538
▁ehn	-12539
▁eše	-12540
▁hap	-12541
▁kif	-12542
▁lau	-12543
▁mur	-12544
▁nha	-12545
▁pti	-12546
▁rli	-12547
▁toš	-12548
▁ucc	-12549
▁Žil	-12550
▁Avan	-12551
▁EMPO	-12552
▁Econ	-12553
▁Erik	-12554
▁Jaja	-12555
▁Joel	-12556
▁Kool	-12557
▁Marq	-12558
▁Mind	-12559
▁Mode	-12560
▁PLIT	-12561
▁Savi	-12562
▁abab	-12563
▁acka	-12564
▁adem	-12565
▁akan	-12566
▁amaž	-12567
▁anga	-12568
▁aphi	-12569
▁apul	-12570
▁arkt	-12571
▁auff	-12572
▁ayer	-12573
▁azze	-12574
▁baku	-12575
▁dine	-12576
▁dlič	-12577
▁džem	-12578
▁egal	-12579
▁egzi	-12580
▁emer	-12581
▁enar	-12582
▁ercy	-12583
▁ergu	-12584
▁erse	-12585
▁evol	-12586
▁fair	-12587
▁gara	-12588
▁goju	-12589
▁ibor	-12590
▁ilar	-12591
▁imar	-12592
▁iott	-12593
▁ipik	-12594
▁isci	-12595
▁ivni	-12596
▁izda	-12597
▁jere	-12598
▁jord	-12599
▁jska	-12600
▁kela	-12601
▁laut	-12602
▁laši	-12603
▁lesa	-12604
▁mail	-12605
▁mašk	-12606
▁mela	-12607
▁mota	-12608
▁murn	-12609
▁namu	-12610
▁nare	-12611
▁nari	-12612
▁nimi	-12613
▁nkar	-12614
▁nužd	-12615
▁odla	-12616
▁oeln	-12617
▁olob	-12618
▁olor	-12619
▁orzo	-12620
▁ovel	-12621
▁poje	-12622
▁rašć	-12623
▁rcis	-12624
▁reib	-12625
▁rine	-12626
▁rowd	-12627
▁slag	-12628
▁smir	-12629
▁tale	-12630
▁toji	-12631
▁trem	-12632
▁trož	-12633
▁trpe	-12634
▁uand	-12635
▁ucks	-12636
▁uger	-12637
▁uill	-12638
▁visk	-12639
▁zasl	-12640
▁zemp	-12641
▁zlaz	-12642
▁znaj	-12643
▁ćeni	-12644
▁šnji	-12645
▁štur	-12646
▁žega	-12647
▁Ahmed	-12648
▁Arnol	-12649
▁Flego	-12650
▁HAKOM	-12651
▁Milos	-12652
▁Molve	-12653
▁Pamel	-12654
▁Tiger	-12655
▁alaču	-12656
▁amije	-12657
▁aneks	-12658
▁anjin	-12659
▁annen	-12660
▁anter	-12661
▁anžek	-12662
▁arijo	-12663
▁aršir	-12664
▁aslin	-12665
▁avite	-12666
▁elich	-12667
▁emoar	-12668
▁eonie	-12669
▁gusta	-12670
▁istop	-12671
▁ittle	-12672
▁kante	-12673
▁kanti	-12674
▁kasin	-12675
▁kokoš	-12676
▁konav	-12677
▁kurik	-12678
▁lfred	-12679
▁lovid	-12680
▁maram	-12681
▁miric	-12682
▁ohann	-12683
▁orita	-12684
▁ostar	-12685
▁ozila	-12686
▁ravag	-12687
▁rezov	-12688
▁risel	-12689
▁ritma	-12690
▁ritmi	-12691
▁seler	-12692
▁smješ	-12693
▁susta	-12694
▁tituc	-12695
▁uding	-12696
▁ustaf	-12697
▁utkan	-12698
▁world	-12699
▁šverc	-12700
-8	-12701
KE	-12702
NU	-12703
Tu	-12704
bb	-12705
ms	-12706
šć	-12707
▁®	-12708
UDI	-12709
juč	-12710
kin	-12711
kus	-12712
lec	-12713
mut	-12714
oth	-12715
run	-12716
yle	-12717
▁//	-12718
▁5%	-12719
▁EG	-12720
▁GB	-12721
▁Gi	-12722
▁IQ	-12723
▁LC	-12724
▁MS	-12725
▁Sc	-12726
▁Uo	-12727
▁VB	-12728
▁VE	-12729
▁bg	-12730
asij	-12731
atch	-12732
▁(4)	-12733
▁116	-12734
▁4,4	-12735
▁4,7	-12736
▁4:1	-12737
▁5:0	-12738
▁850	-12739
▁91.	-12740
▁98.	-12741
▁ARI	-12742
▁Aqu	-12743
▁Bob	-12744
▁CGO	-12745
▁ELI	-12746
▁ENA	-12747
▁ESG	-12748
▁Get	-12749
▁HRS	-12750
▁HUB	-12751
▁Hom	-12752
▁IBA	-12753
▁IJA	-12754
▁ING	-12755
▁ITF	-12756
▁Ina	-12757
▁Ine	-12758
▁Kik	-12759
▁Kni	-12760
▁Kut	-12761
▁LDL	-12762
▁Lec	-12763
▁Mam	-12764
▁NHS	-12765
▁PGS	-12766
▁PGŽ	-12767
▁Pau	-12768
▁Peg	-12769
▁RTV	-12770
▁Rea	-12771
▁Zid	-12772
▁adz	-12773
▁aim	-12774
▁ajz	-12775
▁bam	-12776
▁eoč	-12777
▁esc	-12778
▁eus	-12779
▁fet	-12780
▁hak	-12781
▁haw	-12782
▁hof	-12783
▁hun	-12784
▁mix	-12785
▁njo	-12786
▁nob	-12787
▁odg	-12788
▁paš	-12789
▁pup	-12790
▁quo	-12791
▁say	-12792
▁tni	-12793
▁urt	-12794
▁Čal	-12795
▁Čap	-12796
▁Šur	-12797
▁Alec	-12798
▁Alep	-12799
▁Alma	-12800
▁Anis	-12801
▁Arhi	-12802
▁Avaz	-12803
▁Bach	-12804
▁CIJA	-12805
▁Doge	-12806
▁Doro	-12807
▁Dres	-12808
▁EZIH	-12809
▁Elez	-12810
▁Fine	-12811
▁Free	-12812
▁Hama	-12813
▁Hugh	-12814
▁Koka	-12815
▁Kuće	-12816
▁Luft	-12817
▁Mask	-12818
▁Miki	-12819
▁Milo	-12820
▁Misk	-12821
▁Mitr	-12822
▁Mund	-12823
▁Noel	-12824
▁Ovan	-12825
▁Seve	-12826
▁Wolf	-12827
▁afin	-12828
▁afir	-12829
▁alaš	-12830
▁amit	-12831
▁apet	-12832
▁apst	-12833
▁assy	-12834
▁aure	-12835
▁avaj	-12836
▁ažar	-12837
▁braz	-12838
▁dees	-12839
▁deto	-12840
▁dipl	-12841
▁dišu	-12842
▁east	-12843
▁eder	-12844
▁efer	-12845
▁ekta	-12846
▁enkl	-12847
▁enst	-12848
▁epil	-12849
▁erak	-12850
▁eton	-12851
▁fant	-12852
▁fica	-12853
▁fore	-12854
▁funk	-12855
▁hajk	-12856
▁hamp	-12857
▁hrpa	-12858
▁ical	-12859
▁iday	-12860
▁iful	-12861
▁ilac	-12862
▁imor	-12863
▁inda	-12864
▁irtu	-12865
▁jame	-12866
▁jang	-12867
▁jetr	-12868
▁jiva	-12869
▁kali	-12870
▁kuri	-12871
▁lias	-12872
▁maca	-12873
▁micu	-12874
▁molj	-12875
▁naju	-12876
▁nina	-12877
▁nožj	-12878
▁odnj	-12879
▁odun	-12880
▁ohen	-12881
▁onop	-12882
▁orce	-12883
▁pole	-12884
▁priz	-12885
▁riez	-12886
▁rise	-12887
▁rižj	-12888
▁rome	-12889
▁rove	-12890
▁runk	-12891
▁segm	-12892
▁shed	-12893
▁skan	-12894
▁tanj	-12895
▁tnij	-12896
▁toli	-12897
▁trač	-12898
▁tter	-12899
▁unkc	-12900
▁urdi	-12901
▁vici	-12902
▁week	-12903
▁Ćiro	-12904
▁šuta	-12905
▁žešk	-12906
▁Bazen	-12907
▁Delta	-12908
▁ECEPT	-12909
▁Elitn	-12910
▁Eugen	-12911
▁IMARS	-12912
▁Komor	-12913
▁Maris	-12914
▁Marsh	-12915
▁Zebec	-12916
▁adema	-12917
▁admir	-12918
▁akude	-12919
▁alias	-12920
▁alzam	-12921
▁ambal	-12922
▁andes	-12923
▁anger	-12924
▁annes	-12925
▁antit	-12926
▁aptor	-12927
▁arian	-12928
▁arokn	-12929
▁aromu	-12930
▁atila	-12931
▁casin	-12932
▁chain	-12933
▁dekad	-12934
▁difuz	-12935
▁drman	-12936
▁elfie	-12937
▁eliki	-12938
▁eodet	-12939
▁epend	-12940
▁erder	-12941
▁etter	-12942
▁guran	-12943
▁ilean	-12944
▁ilvan	-12945
▁iskar	-12946
▁istor	-12947
▁itzer	-12948
▁kapul	-12949
▁kikir	-12950
▁kiosk	-12951
▁kopat	-12952
▁minij	-12953
▁motan	-12954
▁oruma	-12955
▁orvin	-12956
▁perif	-12957
▁publi	-12958
▁rmade	-12959
▁tonul	-12960
▁ugrin	-12961
▁ukova	-12962
▁umbar	-12963
▁urton	-12964
▁utler	-12965
▁vador	-12966
▁četir	-12967
▁šerif	-12968
▁žeton	-12969
DR	-12970
NS	-12971
ON	-12972
Uz	-12973
Vi	-12974
ay	-12975
fu	-12976
hy	-12977
jt	-12978
ng	-12979
ym	-12980
zu	-12981
▁️	-12982
FIL	-12983
LTP	-12984
bak	-12985
dea	-12986
fan	-12987
ged	-12988
gua	-12989
jit	-12990
mec	-12991
nej	-12992
pat	-12993
rul	-12994
sel	-12995
teb	-12996
tiš	-12997
▁2)	-12998
▁Ay	-12999
▁GM	-13000
▁HC	-13001
▁IŠ	-13002
▁KC	-13003
▁LE	-13004
▁MH	-13005
▁NZ	-13006
▁Ok	-13007
▁UI	-13008
▁ZO	-13009
▁Zb	-13010
▁Zg	-13011
▁(21	-13012
▁0,1	-13013
▁0,7	-13014
▁0:0	-13015
▁124	-13016
▁133	-13017
▁1⁄2	-13018
▁210	-13019
▁28,	-13020
▁370	-13021
▁4-5	-13022
▁5,2	-13023
▁5-6	-13024
▁8,5	-13025
▁92.	-13026
▁Akt	-13027
▁BYD	-13028
▁Cli	-13029
▁DeS	-13030
▁Dro	-13031
▁EDI	-13032
▁Fuž	-13033
▁Gin	-13034
▁Grd	-13035
▁Hyb	-13036
▁INI	-13037
▁Kla	-13038
▁Meh	-13039
▁Meč	-13040
▁Mül	-13041
▁Pic	-13042
▁RED	-13043
▁RIA	-13044
▁Row	-13045
▁SFR	-13046
▁STK	-13047
▁Sah	-13048
▁Sao	-13049
▁Teo	-13050
▁Thi	-13051
▁UNP	-13052
▁Win	-13053
▁XII	-13054
▁agr	-13055
▁amf	-13056
▁apu	-13057
▁azv	-13058
▁bed	-13059
▁bum	-13060
▁but	-13061
▁etl	-13062
▁grm	-13063
▁iac	-13064
▁iha	-13065
▁jom	-13066
▁jor	-13067
▁nga	-13068
▁oao	-13069
▁ođe	-13070
▁taz	-13071
▁vio	-13072
▁wer	-13073
▁čaš	-13074
▁štu	-13075
▁Žit	-13076
▁Afer	-13077
▁Afro	-13078
▁Amra	-13079
▁Cast	-13080
▁Days	-13081
▁ECMO	-13082
▁EURA	-13083
▁Faye	-13084
▁Frid	-13085
▁Hans	-13086
▁Jere	-13087
▁Joki	-13088
▁Kava	-13089
▁Mrle	-13090
▁NICE	-13091
▁Pakr	-13092
▁Pore	-13093
▁Rebe	-13094
▁Saar	-13095
▁UniC	-13096
▁Vuit	-13097
▁WLTP	-13098
▁Whit	-13099
▁Zeit	-13100
▁aard	-13101
▁ache	-13102
▁acia	-13103
▁adid	-13104
▁aget	-13105
▁akro	-13106
▁almi	-13107
▁ambo	-13108
▁amon	-13109
▁anea	-13110
▁apaj	-13111
▁arba	-13112
▁argo	-13113
▁arme	-13114
▁asap	-13115
▁atri	-13116
▁avaz	-13117
▁cash	-13118
▁cher	-13119
▁ctiv	-13120
▁dari	-13121
▁deep	-13122
▁defa	-13123
▁ecot	-13124
▁eksc	-13125
▁elid	-13126
▁elle	-13127
▁enop	-13128
▁erek	-13129
▁esek	-13130
▁etic	-13131
▁faca	-13132
▁geod	-13133
▁gger	-13134
▁ginj	-13135
▁gnal	-13136
▁hamb	-13137
▁hans	-13138
▁head	-13139
▁hist	-13140
▁hitr	-13141
▁hlep	-13142
▁hrid	-13143
▁huti	-13144
▁iach	-13145
▁ibur	-13146
▁icky	-13147
▁iefs	-13148
▁indu	-13149
▁irtz	-13150
▁isno	-13151
▁jama	-13152
▁kacz	-13153
▁krpa	-13154
▁lace	-13155
▁lašt	-13156
▁leib	-13157
▁lkar	-13158
▁luta	-13159
▁mans	-13160
▁mens	-13161
▁nage	-13162
▁ocit	-13163
▁odic	-13164
▁ohar	-13165
▁ojil	-13166
▁onel	-13167
▁ornj	-13168
▁pica	-13169
▁pori	-13170
▁puru	-13171
▁rash	-13172
▁rasi	-13173
▁rass	-13174
▁renk	-13175
▁retu	-13176
▁reža	-13177
▁rmad	-13178
▁rnih	-13179
▁roen	-13180
▁roja	-13181
▁room	-13182
▁rtur	-13183
▁ruff	-13184
▁rust	-13185
▁scor	-13186
▁skop	-13187
▁tade	-13188
▁taje	-13189
▁tapa	-13190
▁them	-13191
▁tupi	-13192
▁ucat	-13193
▁ugav	-13194
▁ukar	-13195
▁unat	-13196
▁upni	-13197
▁urch	-13198
▁urns	-13199
▁urza	-13200
▁vadi	-13201
▁ynch	-13202
▁znim	-13203
▁Arhit	-13204
▁Elton	-13205
▁Faris	-13206
▁Jurak	-13207
▁Kutij	-13208
▁NIFIL	-13209
▁Orsan	-13210
▁algor	-13211
▁amali	-13212
▁arhip	-13213
▁armin	-13214
▁aroma	-13215
▁ascal	-13216
▁azeer	-13217
▁delir	-13218
▁dlakt	-13219
▁ejter	-13220
▁ellen	-13221
▁elvan	-13222
▁ergar	-13223
▁hicem	-13224
▁iegel	-13225
▁iener	-13226
▁ikrut	-13227
▁imeon	-13228
▁insin	-13229
▁ioner	-13230
▁itrin	-13231
▁jahač	-13232
▁jakne	-13233
▁joker	-13234
▁kamil	-13235
▁kotir	-13236
▁latou	-13237
▁lifes	-13238
▁lijan	-13239
▁litic	-13240
▁mašte	-13241
▁metan	-13242
▁minir	-13243
▁mužev	-13244
▁obilj	-13245
▁odatn	-13246
▁okado	-13247
▁okoun	-13248
▁onbas	-13249
▁orner	-13250
▁ouise	-13251
▁očvar	-13252
▁pomoć	-13253
▁rypto	-13254
▁tenci	-13255
▁tivni	-13256
▁trgan	-13257
▁ultan	-13258
▁umice	-13259
▁vaneč	-13260
▁verde	-13261
▁vidje	-13262
▁zzurr	-13263
▁šasij	-13264
3,	-13265
DC	-13266
La	-13267
PI	-13268
Po	-13269
US	-13270
ly	-13271
yr	-13272
ČE	-13273
FTA	-13274
LAS	-13275
ban	-13276
bet	-13277
cha	-13278
hid	-13279
lag	-13280
ond	-13281
raš	-13282
tol	-13283
uld	-13284
▁3%	-13285
▁5"	-13286
▁AZ	-13287
▁EŠ	-13288
▁IH	-13289
▁NH	-13290
▁NU	-13291
▁OF	-13292
▁PB	-13293
▁QR	-13294
▁SM	-13295
▁TS	-13296
▁UZ	-13297
▁ZG	-13298
▁wc	-13299
▁án	-13300
vard	-13301
▁0,4	-13302
▁136	-13303
▁137	-13304
▁1:2	-13305
▁330	-13306
▁360	-13307
▁4,6	-13308
▁5'.	-13309
▁5:1	-13310
▁94.	-13311
▁Beč	-13312
▁CJE	-13313
▁DPA	-13314
▁Dam	-13315
▁Dos	-13316
▁EIB	-13317
▁Eda	-13318
▁Ela	-13319
▁Ena	-13320
▁Gig	-13321
▁Gir	-13322
▁HAV	-13323
▁Hig	-13324
▁Hud	-13325
▁Jaz	-13326
▁KON	-13327
▁Krk	-13328
▁Lab	-13329
▁Lev	-13330
▁Men	-13331
▁Nev	-13332
▁Nil	-13333
▁Psi	-13334
▁ROM	-13335
▁Raž	-13336
▁Rin	-13337
▁Sig	-13338
▁TBF	-13339
▁Tiš	-13340
▁USB	-13341
▁Vrh	-13342
▁afa	-13343
▁ahr	-13344
▁anđ	-13345
▁buv	-13346
▁cap	-13347
▁col	-13348
▁ecu	-13349
▁elk	-13350
▁eyo	-13351
▁hah	-13352
▁haš	-13353
▁hno	-13354
▁ibi	-13355
▁ids	-13356
▁iom	-13357
▁iov	-13358
▁ith	-13359
▁mac	-13360
▁oah	-13361
▁oir	-13362
▁olt	-13363
▁oor	-13364
▁orf	-13365
▁rch	-13366
▁sch	-13367
▁tuš	-13368
▁zvi	-13369
▁Đin	-13370
▁Šiš	-13371
▁Šok	-13372
▁šek	-13373
▁Žut	-13374
▁žic	-13375
▁Aldo	-13376
▁Alic	-13377
▁Amal	-13378
▁Arte	-13379
▁Cont	-13380
▁ESPN	-13381
▁Edit	-13382
▁Eleg	-13383
▁FINA	-13384
▁Fame	-13385
▁Horn	-13386
▁Metz	-13387
▁Rain	-13388
▁Raul	-13389
▁Saka	-13390
▁TASS	-13391
▁abuz	-13392
▁acht	-13393
▁adir	-13394
▁adol	-13395
▁agda	-13396
▁ahra	-13397
▁airo	-13398
▁alaf	-13399
▁alel	-13400
▁almo	-13401
▁andy	-13402
▁anie	-13403
▁anne	-13404
▁arav	-13405
▁araz	-13406
▁arey	-13407
▁azio	-13408
▁azur	-13409
▁ažan	-13410
▁bene	-13411
▁bere	-13412
▁cout	-13413
▁dris	-13414
▁drma	-13415
▁ecur	-13416
▁ekte	-13417
▁elig	-13418
▁epez	-13419
▁erne	-13420
▁faul	-13421
▁fice	-13422
▁from	-13423
▁hart	-13424
▁heis	-13425
▁hodo	-13426
▁ibir	-13427
▁ijas	-13428
▁ijin	-13429
▁ilen	-13430
▁ione	-13431
▁ions	-13432
▁jaču	-13433
▁jeve	-13434
▁kjuč	-13435
▁knađ	-13436
▁lanđ	-13437
▁lash	-13438
▁mare	-13439
▁marš	-13440
▁metl	-13441
▁miss	-13442
▁moda	-13443
▁niko	-13444
▁oche	-13445
▁ojač	-13446
▁olac	-13447
▁olde	-13448
▁omod	-13449
▁oosa	-13450
▁opta	-13451
▁ordo	-13452
▁osal	-13453
▁otre	-13454
▁outa	-13455
▁ozij	-13456
▁piel	-13457
▁pleo	-13458
▁pose	-13459
▁prin	-13460
▁prom	-13461
▁raco	-13462
▁rafi	-13463
▁rkti	-13464
▁roll	-13465
▁ruth	-13466
▁slad	-13467
▁sych	-13468
▁teli	-13469
▁tpun	-13470
▁traf	-13471
▁uart	-13472
▁ubec	-13473
▁upav	-13474
▁urti	-13475
▁užan	-13476
▁užve	-13477
▁vata	-13478
▁viso	-13479
▁wald	-13480
▁ways	-13481
▁work	-13482
▁zeza	-13483
▁đeno	-13484
▁štab	-13485
▁štak	-13486
▁žalo	-13487
▁Abdul	-13488
▁Arhiv	-13489
▁Arkan	-13490
▁Brkan	-13491
▁Debor	-13492
▁Dokle	-13493
▁Gamul	-13494
▁Karep	-13495
▁Kukav	-13496
▁Madel	-13497
▁Milas	-13498
▁adriđ	-13499
▁agher	-13500
▁aguar	-13501
▁aiffe	-13502
▁alaži	-13503
▁alemu	-13504
▁alerm	-13505
▁allad	-13506
▁allor	-13507
▁alton	-13508
▁angan	-13509
▁angar	-13510
▁arjak	-13511
▁artik	-13512
▁cemen	-13513
▁chool	-13514
▁creen	-13515
▁defan	-13516
▁della	-13517
▁effer	-13518
▁elsin	-13519
▁endes	-13520
▁erlin	-13521
▁etape	-13522
▁etaže	-13523
▁eyemi	-13524
▁gorja	-13525
▁hakes	-13526
▁ijard	-13527
▁inist	-13528
▁jenul	-13529
▁juter	-13530
▁kolja	-13531
▁kores	-13532
▁kript	-13533
▁lager	-13534
▁limfn	-13535
▁lumin	-13536
▁mesar	-13537
▁olaze	-13538
▁onder	-13539
▁ondom	-13540
▁onroe	-13541
▁oštan	-13542
▁rešet	-13543
▁riran	-13544
▁robij	-13545
▁roker	-13546
▁socir	-13547
▁tekne	-13548
▁tevea	-13549
▁toler	-13550
▁trija	-13551
▁ubert	-13552
▁varij	-13553
▁vokad	-13554
▁zamaš	-13555
▁zempi	-13556
▁škver	-13557
3]	-13558
AS	-13559
NB	-13560
PP	-13561
UN	-13562
cc	-13563
tl	-13564
wo	-13565
zn	-13566
▁►	-13567
DHD	-13568
ace	-13569
del	-13570
fee	-13571
gem	-13572
hes	-13573
ild	-13574
isi	-13575
kun	-13576
lek	-13577
leč	-13578
row	-13579
sat	-13580
wan	-13581
šur	-13582
▁1)	-13583
▁7%	-13584
▁Dh	-13585
▁IK	-13586
▁LT	-13587
▁MC	-13588
▁NT	-13589
▁OH	-13590
▁SF	-13591
▁SV	-13592
▁UŠ	-13593
▁VS	-13594
▁és	-13595
nest	-13596
raft	-13597
resc	-13598
ungl	-13599
▁(6)	-13600
▁0,6	-13601
▁0,9	-13602
▁114	-13603
▁155	-13604
▁163	-13605
▁1:3	-13606
▁32,	-13607
▁4,3	-13608
▁4,9	-13609
▁420	-13610
▁5,3	-13611
▁6,3	-13612
▁6,6	-13613
▁AMA	-13614
▁ASK	-13615
▁Acc	-13616
▁Adi	-13617
▁Bes	-13618
▁Cle	-13619
▁Dir	-13620
▁Dug	-13621
▁EMA	-13622
▁Fan	-13623
▁Fit	-13624
▁Glu	-13625
▁Gog	-13626
▁Got	-13627
▁Grk	-13628
▁HPB	-13629
▁HRM	-13630
▁Hir	-13631
▁ILA	-13632
▁ITU	-13633
▁KEA	-13634
▁Kai	-13635
▁Kaz	-13636
▁Ker	-13637
▁Kia	-13638
▁Lal	-13639
▁Miu	-13640
▁Muh	-13641
▁Muć	-13642
▁NKA	-13643
▁ONČ	-13644
▁Ole	-13645
▁POL	-13646
▁PRH	-13647
▁Ret	-13648
▁Sim	-13649
▁Sut	-13650
▁TEF	-13651
▁TSK	-13652
▁VKS	-13653
▁VRO	-13654
▁Wat	-13655
▁Yan	-13656
▁ZDS	-13657
▁Zoe	-13658
▁[3]	-13659
▁aph	-13660
▁bež	-13661
▁bič	-13662
▁cif	-13663
▁dgo	-13664
▁dus	-13665
▁eep	-13666
▁eis	-13667
▁fes	-13668
▁fur	-13669
▁hav	-13670
▁iiv	-13671
▁isl	-13672
▁iss	-13673
▁jic	-13674
▁kem	-13675
▁kvr	-13676
▁lay	-13677
▁loo	-13678
▁mni	-13679
▁ocy	-13680
▁oho	-13681
▁psu	-13682
▁puz	-13683
▁ssi	-13684
▁uit	-13685
▁uzr	-13686
▁wic	-13687
▁wig	-13688
▁zre	-13689
▁zrn	-13690
▁Čuo	-13691
▁Šap	-13692
▁ŽUC	-13693
▁žam	-13694
▁žim	-13695
▁ADAR	-13696
▁ADHD	-13697
▁Cola	-13698
▁Core	-13699
▁Dist	-13700
▁ETAK	-13701
▁FILM	-13702
▁Greg	-13703
▁Ital	-13704
▁Koba	-13705
▁McGr	-13706
▁Mire	-13707
▁Mraz	-13708
▁Road	-13709
▁Root	-13710
▁Ross	-13711
▁SFRJ	-13712
▁Uber	-13713
▁Wolt	-13714
▁abno	-13715
▁absb	-13716
▁adak	-13717
▁addy	-13718
▁afet	-13719
▁agra	-13720
▁ahal	-13721
▁ajda	-13722
▁ajči	-13723
▁akom	-13724
▁alme	-13725
▁amci	-13726
▁ange	-13727
▁arde	-13728
▁arim	-13729
▁arre	-13730
▁assa	-13731
▁atha	-13732
▁atte	-13733
▁avic	-13734
▁carp	-13735
▁dodž	-13736
▁eath	-13737
▁effr	-13738
▁einz	-13739
▁emaj	-13740
▁entl	-13741
▁eryl	-13742
▁eudo	-13743
▁ešer	-13744
▁file	-13745
▁fito	-13746
▁gain	-13747
▁gejm	-13748
▁gove	-13749
▁hloe	-13750
▁hrip	-13751
▁hukt	-13752
▁icin	-13753
▁iget	-13754
▁ijor	-13755
▁ikaz	-13756
▁ikir	-13757
▁ilju	-13758
▁ilon	-13759
▁ilut	-13760
▁ineh	-13761
▁ingh	-13762
▁inus	-13763
▁irza	-13764
▁itra	-13765
▁išak	-13766
▁jarb	-13767
▁jdan	-13768
▁joge	-13769
▁kast	-13770
▁kock	-13771
▁kopč	-13772
▁koči	-13773
▁kume	-13774
▁lain	-13775
▁lave	-13776
▁legn	-13777
▁long	-13778
▁losk	-13779
▁luid	-13780
▁mici	-13781
▁mrač	-13782
▁mudr	-13783
▁nanj	-13784
▁nkub	-13785
▁oach	-13786
▁olvo	-13787
▁ordi	-13788
▁orse	-13789
▁osin	-13790
▁osip	-13791
▁osos	-13792
▁otaj	-13793
▁oves	-13794
▁prol	-13795
▁quad	-13796
▁rach	-13797
▁raut	-13798
▁reek	-13799
▁riff	-13800
▁ruma	-13801
▁rumm	-13802
▁sper	-13803
▁ubel	-13804
▁umer	-13805
▁undo	-13806
▁urir	-13807
▁učep	-13808
▁vjek	-13809
▁vran	-13810
▁will	-13811
▁zakl	-13812
▁znar	-13813
▁ševi	-13814
▁žice	-13815
▁Attal	-13816
▁Delij	-13817
▁Dukat	-13818
▁Komar	-13819
▁Mihal	-13820
▁Mohar	-13821
▁Orsat	-13822
▁TORAK	-13823
▁Zamet	-13824
▁adjed	-13825
▁ammad	-13826
▁ancin	-13827
▁andem	-13828
▁ankol	-13829
▁annel	-13830
▁annis	-13831
▁antic	-13832
▁antim	-13833
▁anđeo	-13834
▁arazz	-13835
▁ardaš	-13836
▁aresc	-13837
▁arkad	-13838
▁askir	-13839
▁assel	-13840
▁atrix	-13841
▁atter	-13842
▁aukar	-13843
▁darst	-13844
▁denar	-13845
▁devel	-13846
▁eljsk	-13847
▁embel	-13848
▁enrik	-13849
▁eptun	-13850
▁erber	-13851
▁erest	-13852
▁eroid	-13853
▁eskad	-13854
▁etnin	-13855
▁hajde	-13856
▁hemor	-13857
▁ience	-13858
▁iguel	-13859
▁indau	-13860
▁kandi	-13861
▁laire	-13862
▁lazer	-13863
▁ležal	-13864
▁lutal	-13865
▁luzij	-13866
▁mehan	-13867
▁metri	-13868
▁mnest	-13869
▁modus	-13870
▁njedr	-13871
▁obije	-13872
▁ochum	-13873
▁olači	-13874
▁olger	-13875
▁ommon	-13876
▁oncer	-13877
▁opper	-13878
▁oreno	-13879
▁orjan	-13880
▁oward	-13881
▁ramot	-13882
▁rampi	-13883
▁ranic	-13884
▁ranča	-13885
▁ravlj	-13886
▁repel	-13887
▁rough	-13888
▁rover	-13889
▁tepan	-13890
▁umpor	-13891
▁videe	-13892
▁virus	-13893
▁vojec	-13894
▁watch	-13895
▁zahva	-13896
▁zubar	-13897
▁šanso	-13898
▁šijit	-13899
▁šljen	-13900
▁žungl	-13901
▁župan	-13902
1]	-13903
4]	-13904
5.	-13905
6,	-13906
AI	-13907
GP	-13908
IT	-13909
Ta	-13910
WE	-13911
fl	-13912
uc	-13913
ux	-13914
ín	-13915
ĆA	-13916
had	-13917
jad	-13918
kab	-13919
lid	-13920
oni	-13921
ped	-13922
roq	-13923
rup	-13924
way	-13925
yll	-13926
čez	-13927
▁".	-13928
▁+3	-13929
▁->	-13930
▁1%	-13931
▁1:	-13932
▁2:	-13933
▁3/	-13934
▁BU	-13935
▁By	-13936
▁Ci	-13937
▁FE	-13938
▁HL	-13939
▁HM	-13940
▁IE	-13941
▁IR	-13942
▁Kn	-13943
▁MK	-13944
▁TT	-13945
▁TU	-13946
▁dj	-13947
▁Će	-13948
▁€.	-13949
lick	-13950
▁(1)	-13951
▁(7)	-13952
▁106	-13953
▁107	-13954
▁109	-13955
▁126	-13956
▁148	-13957
▁15%	-13958
▁25%	-13959
▁340	-13960
▁35,	-13961
▁550	-13962
▁560	-13963
▁6,2	-13964
▁60,	-13965
▁737	-13966
▁8,4	-13967
▁ADA	-13968
▁ARA	-13969
▁BIH	-13970
▁DAN	-13971
▁Dik	-13972
▁Dua	-13973
▁Dut	-13974
▁EBI	-13975
▁Ein	-13976
▁FMP	-13977
▁Fre	-13978
▁HKS	-13979
▁Hag	-13980
▁Hen	-13981
▁Hop	-13982
▁IDE	-13983
▁IMA	-13984
▁INT	-13985
▁Ivi	-13986
▁Jal	-13987
▁LJA	-13988
▁Lol	-13989
▁MIT	-13990
▁Mič	-13991
▁NLO	-13992
▁ONE	-13993
▁OVO	-13994
▁PFA	-13995
▁PIK	-13996
▁PMF	-13997
▁POP	-13998
▁Peh	-13999
▁Pow	-14000
▁Puk	-14001
▁Rav	-14002
▁Rez	-14003
▁Rup	-14004
▁Ruš	-14005
▁Saš	-14006
▁Sta	-14007
▁TDA	-14008
▁Une	-14009
▁WBA	-14010
▁WBC	-14011
▁Wow	-14012
▁[1]	-14013
▁[4]	-14014
▁ady	-14015
▁azg	-14016
▁eya	-14017
▁far	-14018
▁fen	-14019
▁gej	-14020
▁gđa	-14021
▁hio	-14022
▁idž	-14023
▁ioz	-14024
▁ird	-14025
▁law	-14026
▁oMa	-14027
▁obj	-14028
▁oso	-14029
▁oub	-14030
▁oću	-14031
▁pev	-14032
▁puk	-14033
▁rgi	-14034
▁tku	-14035
▁uad	-14036
▁udl	-14037
▁vey	-14038
▁via	-14039
▁yst	-14040
▁Čul	-14041
▁Čup	-14042
▁Šik	-14043
▁Alpe	-14044
▁Aman	-14045
▁Aris	-14046
▁Bana	-14047
▁Banf	-14048
▁Benz	-14049
▁Elit	-14050
▁Elle	-14051
▁Epic	-14052
▁Feel	-14053
▁Fund	-14054
▁Gütt	-14055
▁Hras	-14056
▁Hrel	-14057
▁Jarn	-14058
▁Keir	-14059
▁Kobe	-14060
▁Kupe	-14061
▁MAXt	-14062
▁Mine	-14063
▁Mosk	-14064
▁Must	-14065
▁Otto	-14066
▁Pauk	-14067
▁Ress	-14068
▁Roon	-14069
▁Supe	-14070
▁Tram	-14071
▁Wiss	-14072
▁Yout	-14073
▁affe	-14074
▁ajlo	-14075
▁akel	-14076
▁aldo	-14077
▁alot	-14078
▁alsh	-14079
▁amni	-14080
▁anul	-14081
▁arač	-14082
▁aret	-14083
▁arib	-14084
▁arik	-14085
▁azbe	-14086
▁baum	-14087
▁beck	-14088
▁bizi	-14089
▁buku	-14090
▁care	-14091
▁clip	-14092
▁dahu	-14093
▁dica	-14094
▁dole	-14095
▁ecco	-14096
▁edik	-14097
▁eged	-14098
▁eich	-14099
▁ense	-14100
▁erid	-14101
▁etiz	-14102
▁foot	-14103
▁gnac	-14104
▁gusk	-14105
▁hica	-14106
▁hras	-14107
▁iend	-14108
▁iker	-14109
▁ilav	-14110
▁inge	-14111
▁inta	-14112
▁iole	-14113
▁ison	-14114
▁itts	-14115
▁jema	-14116
▁jure	-14117
▁klek	-14118
▁komu	-14119
▁kovr	-14120
▁krec	-14121
▁laše	-14122
▁leme	-14123
▁loba	-14124
▁mazi	-14125
▁mrze	-14126
▁nder	-14127
▁njed	-14128
▁ober	-14129
▁ojno	-14130
▁okot	-14131
▁olem	-14132
▁ollo	-14133
▁olti	-14134
▁orda	-14135
▁orne	-14136
▁osve	-14137
▁oten	-14138
▁paja	-14139
▁povi	-14140
▁prhk	-14141
▁raiz	-14142
▁rajc	-14143
▁ranc	-14144
▁risb	-14145
▁ritt	-14146
▁rosp	-14147
▁rost	-14148
▁rtuk	-14149
▁rumb	-14150
▁tadi	-14151
▁tave	-14152
▁tect	-14153
▁terc	-14154
▁tikt	-14155
▁tois	-14156
▁tuac	-14157
▁tubb	-14158
▁tuci	-14159
▁tven	-14160
▁ucar	-14161
▁ucav	-14162
▁ucin	-14163
▁uerr	-14164
▁ukan	-14165
▁uklo	-14166
▁ultu	-14167
▁utap	-14168
▁vene	-14169
▁yrus	-14170
▁zina	-14171
▁šišk	-14172
▁šćak	-14173
▁Bauer	-14174
▁Ellen	-14175
▁Field	-14176
▁Grubn	-14177
▁IJEKA	-14178
▁Kirin	-14179
▁Kožul	-14180
▁Medan	-14181
▁Miris	-14182
▁ONČAR	-14183
▁Tišin	-14184
▁abell	-14185
▁adair	-14186
▁adjar	-14187
▁aiser	-14188
▁alažu	-14189
▁alcon	-14190
▁almin	-14191
▁anišk	-14192
▁ansas	-14193
▁apele	-14194
▁araju	-14195
▁arati	-14196
▁arhat	-14197
▁arman	-14198
▁asažu	-14199
▁asket	-14200
▁assat	-14201
▁assin	-14202
▁avaro	-14203
▁avbet	-14204
▁ačkal	-14205
▁ađare	-14206
▁aštet	-14207
▁dello	-14208
▁difam	-14209
▁ecker	-14210
▁enigm	-14211
▁epper	-14212
▁ercat	-14213
▁eremy	-14214
▁etris	-14215
▁fetiš	-14216
▁gusti	-14217
▁habit	-14218
▁ictur	-14219
▁iffan	-14220
▁iksel	-14221
▁immel	-14222
▁inder	-14223
▁itrec	-14224
▁janju	-14225
▁jedre	-14226
▁jenit	-14227
▁jutor	-14228
▁kavan	-14229
▁kciju	-14230
▁kemij	-14231
▁kotor	-14232
▁lakar	-14233
▁letač	-14234
▁limet	-14235
▁maker	-14236
▁mizer	-14237
▁mokra	-14238
▁nakva	-14239
▁niger	-14240
▁oledž	-14241
▁oljat	-14242
▁oorda	-14243
▁ornel	-14244
▁rabas	-14245
▁raber	-14246
▁ranak	-14247
▁rapče	-14248
▁ratin	-14249
▁raumu	-14250
▁rauss	-14251
▁razlo	-14252
▁račan	-14253
▁relij	-14254
▁rence	-14255
▁rezor	-14256
▁rište	-14257
▁rubiš	-14258
▁ssist	-14259
▁treni	-14260
▁trkal	-14261
▁trukl	-14262
▁udima	-14263
▁uente	-14264
▁undes	-14265
▁undev	-14266
▁urner	-14267
▁utell	-14268
▁videi	-14269
▁vondo	-14270
▁zeged	-14271
▁zimut	-14272
▁ćakul	-14273
▁ćiril	-14274
▁Čileu	-14275
▁žamij	-14276
-9	-14277
CC	-14278
CO	-14279
FU	-14280
GI	-14281
We	-14282
gy	-14283
ën	-14284
▁×	-14285
▁̋	-14286
ARA	-14287
ckl	-14288
dez	-14289
gin	-14290
ica	-14291
lap	-14292
lom	-14293
lub	-14294
maz	-14295
mos	-14296
nač	-14297
rim	-14298
sch	-14299
tig	-14300
wer	-14301
šik	-14302
žic	-14303
▁-1	-14304
▁-7	-14305
▁09	-14306
▁4"	-14307
▁5:	-14308
▁CM	-14309
▁DM	-14310
▁GR	-14311
▁HI	-14312
▁IX	-14313
▁JD	-14314
▁Ml	-14315
▁NG	-14316
▁OL	-14317
▁PM	-14318
▁WE	-14319
▁ZT	-14320
▁cs	-14321
▁gd	-14322
▁gm	-14323
▁mé	-14324
▁tn	-14325
▁zc	-14326
▁zy	-14327
▁ço	-14328
▁Čo	-14329
▁šo	-14330
akar	-14331
akoč	-14332
▁(19	-14333
▁103	-14334
▁104	-14335
▁113	-14336
▁134	-14337
▁151	-14338
▁193	-14339
▁195	-14340
▁280	-14341
▁34,	-14342
▁36,	-14343
▁37,	-14344
▁38,	-14345
▁430	-14346
▁45,	-14347
▁4:2	-14348
▁5,4	-14349
▁5,8	-14350
▁5-4	-14351
▁6,1	-14352
▁7,4	-14353
▁7,8	-14354
▁90%	-14355
▁APN	-14356
▁AZO	-14357
▁Ada	-14358
▁Agu	-14359
▁Ain	-14360
▁Ann	-14361
▁Bet	-14362
▁CDC	-14363
▁CEO	-14364
▁CER	-14365
▁CNA	-14366
▁DEM	-14367
▁DNA	-14368
▁Dah	-14369
▁Dea	-14370
▁Dob	-14371
▁ERC	-14372
▁Eck	-14373
▁FIS	-14374
▁FRA	-14375
▁Gem	-14376
▁Gün	-14377
▁HVO	-14378
▁ILI	-14379
▁ISW	-14380
▁IVA	-14381
▁Kip	-14382
▁Kuć	-14383
▁Mag	-14384
▁Maš	-14385
▁Mom	-14386
▁Muš	-14387
▁NEC	-14388
▁ODO	-14389
▁ORI	-14390
▁Obo	-14391
▁OŽE	-14392
▁PEP	-14393
▁PPK	-14394
▁PUZ	-14395
▁Pag	-14396
▁Pik	-14397
▁Puc	-14398
▁Rao	-14399
▁SPC	-14400
▁SVE	-14401
▁Saa	-14402
▁Six	-14403
▁Sán	-14404
▁TDI	-14405
▁TZG	-14406
▁Tak	-14407
▁Tip	-14408
▁Tuz	-14409
▁VIZ	-14410
▁Xin	-14411
▁Yah	-14412
▁ZAG	-14413
▁ZOO	-14414
▁aar	-14415
▁alv	-14416
▁ecs	-14417
▁evč	-14418
▁fit	-14419
▁fuz	-14420
▁gaf	-14421
▁gaž	-14422
▁gni	-14423
▁goš	-14424
▁haq	-14425
▁hiz	-14426
▁iOS	-14427
▁inz	-14428
▁max	-14429
▁oil	-14430
▁oin	-14431
▁olv	-14432
▁osz	-14433
▁rnu	-14434
▁roy	-14435
▁sađ	-14436
▁sem	-14437
▁spu	-14438
▁srž	-14439
▁suh	-14440
▁ulf	-14441
▁vlč	-14442
▁vna	-14443
▁who	-14444
▁yna	-14445
▁ynt	-14446
▁zle	-14447
▁čec	-14448
▁čuh	-14449
▁Šum	-14450
▁šač	-14451
▁šiv	-14452
▁šuć	-14453
▁Ahil	-14454
▁Amar	-14455
▁Anđa	-14456
▁Azov	-14457
▁Bari	-14458
▁Bauh	-14459
▁Diem	-14460
▁Duil	-14461
▁Eder	-14462
▁Even	-14463
▁GLAS	-14464
▁Gvat	-14465
▁Home	-14466
▁Hots	-14467
▁Joaq	-14468
▁Just	-14469
▁Kopr	-14470
▁MVEP	-14471
▁Mans	-14472
▁Moss	-14473
▁PFAS	-14474
▁Peta	-14475
▁REUT	-14476
▁Reid	-14477
▁Salt	-14478
▁Sare	-14479
▁Vuco	-14480
▁Yoav	-14481
▁Zeko	-14482
▁abad	-14483
▁abul	-14484
▁adat	-14485
▁akta	-14486
▁alab	-14487
▁algi	-14488
▁algo	-14489
▁alun	-14490
▁anfe	-14491
▁antz	-14492
▁anus	-14493
▁arog	-14494
▁arsa	-14495
▁asal	-14496
▁asat	-14497
▁atač	-14498
▁atic	-14499
▁atre	-14500
▁atti	-14501
▁auli	-14502
▁bebo	-14503
▁boom	-14504
▁buća	-14505
▁cama	-14506
▁chee	-14507
▁cont	-14508
▁dest	-14509
▁diff	-14510
▁ecil	-14511
▁edek	-14512
▁edni	-14513
▁edžo	-14514
▁eget	-14515
▁eigh	-14516
▁ekav	-14517
▁elma	-14518
▁emov	-14519
▁enoa	-14520
▁epit	-14521
▁erch	-14522
▁ezer	-14523
▁fent	-14524
▁gnje	-14525
▁gode	-14526
▁hein	-14527
▁heir	-14528
▁hlač	-14529
▁icit	-14530
▁ifta	-14531
▁ilda	-14532
▁iliš	-14533
▁imit	-14534
▁imur	-14535
▁ined	-14536
▁ingo	-14537
▁inol	-14538
▁iots	-14539
▁irea	-14540
▁iscu	-14541
▁jecu	-14542
▁kile	-14543
▁koal	-14544
▁kond	-14545
▁koče	-14546
▁krip	-14547
▁lair	-14548
▁lašk	-14549
▁leon	-14550
▁leći	-14551
▁lome	-14552
▁loze	-14553
▁lroq	-14554
▁mael	-14555
▁malj	-14556
▁masn	-14557
▁melo	-14558
▁mlaz	-14559
▁neku	-14560
▁nick	-14561
▁nikl	-14562
▁olte	-14563
▁ombo	-14564
▁omes	-14565
▁onde	-14566
▁oshi	-14567
▁otny	-14568
▁otta	-14569
▁patl	-14570
▁pevk	-14571
▁poze	-14572
▁rack	-14573
▁rady	-14574
▁raze	-14575
▁rett	-14576
▁reče	-14577
▁rogr	-14578
▁rong	-14579
▁roën	-14580
▁send	-14581
▁tame	-14582
▁tasy	-14583
▁tick	-14584
▁tire	-14585
▁trik	-14586
▁ucur	-14587
▁uddy	-14588
▁uder	-14589
▁udik	-14590
▁udin	-14591
▁uest	-14592
▁ukci	-14593
▁ulla	-14594
▁utan	-14595
▁utni	-14596
▁ušin	-14597
▁veto	-14598
▁voru	-14599
▁vozd	-14600
▁wist	-14601
▁zast	-14602
▁šahu	-14603
▁šeću	-14604
▁šifr	-14605
▁Žuti	-14606
▁žiro	-14607
▁Artem	-14608
▁Astan	-14609
▁BAFTA	-14610
▁Bakoč	-14611
▁Defen	-14612
▁Enriq	-14613
▁Hanij	-14614
▁INAMO	-14615
▁Jurij	-14616
▁Kadir	-14617
▁Karat	-14618
▁Kotar	-14619
▁Kurel	-14620
▁NICEF	-14621
▁Nadar	-14622
▁Neuer	-14623
▁Pehar	-14624
▁Phill	-14625
▁Raisi	-14626
▁Saler	-14627
▁adici	-14628
▁agels	-14629
▁agnus	-14630
▁ajter	-14631
▁akkel	-14632
▁akrač	-14633
▁akvar	-14634
▁amian	-14635
▁amide	-14636
▁aneko	-14637
▁anjar	-14638
▁aptoš	-14639
▁arbor	-14640
▁argeč	-14641
▁arkot	-14642
▁arlon	-14643
▁arnes	-14644
▁arvel	-14645
▁ascin	-14646
▁astme	-14647
▁ativa	-14648
▁auter	-14649
▁avert	-14650
▁avili	-14651
▁aylen	-14652
▁azama	-14653
▁bauer	-14654
▁corse	-14655
▁cover	-14656
▁eader	-14657
▁eagan	-14658
▁eaver	-14659
▁eidel	-14660
▁ennis	-14661
▁erjan	-14662
▁errer	-14663
▁etero	-14664
▁eškar	-14665
▁gustu	-14666
▁hemat	-14667
▁hemis	-14668
▁humus	-14669
▁iance	-14670
▁idier	-14671
▁ienne	-14672
▁invar	-14673
▁iotic	-14674
▁ispre	-14675
▁izzer	-14676
▁jamac	-14677
▁jamče	-14678
▁jetri	-14679
▁journ	-14680
▁krinj	-14681
▁kukac	-14682
▁lifen	-14683
▁lićak	-14684
▁motre	-14685
▁nuckl	-14686
▁oksid	-14687
▁olore	-14688
▁ource	-14689
▁ouver	-14690
▁ozmič	-14691
▁pider	-14692
▁ravit	-14693
▁razzi	-14694
▁ruica	-14695
▁rumen	-14696
▁seter	-14697
▁skoči	-14698
▁skupo	-14699
▁tilin	-14700
▁uarte	-14701
▁umrak	-14702
▁varez	-14703
▁vikan	-14704
▁virit	-14705
▁vokab	-14706
▁zgoda	-14707
▁ürgen	-14708
▁čiliš	-14709
▁žihad	-14710
Di	-14711
FT	-14712
GS	-14713
IO	-14714
KU	-14715
ND	-14716
WS	-14717
ič	-14718
ll	-14719
mr	-14720
uu	-14721
uš	-14722
ár	-14723
ĆI	-14724
ĐE	-14725
šč	-14726
▁ø	-14727
▁●	-14728
AJA	-14729
JEK	-14730
MAG	-14731
ash	-14732
att	-14733
bab	-14734
dit	-14735
dol	-14736
ets	-14737
hot	-14738
ima	-14739
jat	-14740
leo	-14741
lia	-14742
mus	-14743
nuk	-14744
zic	-14745
èle	-14746
šan	-14747
šek	-14748
žik	-14749
▁+2	-14750
▁+4	-14751
▁-5	-14752
▁8%	-14753
▁AŽ	-14754
▁CP	-14755
▁CV	-14756
▁DB	-14757
▁DD	-14758
▁EO	-14759
▁Eg	-14760
▁FF	-14761
▁ML	-14762
▁UO	-14763
▁Wy	-14764
▁Yi	-14765
▁Zr	-14766
▁gy	-14767
▁ys	-14768
▁ér	-14769
▁Že	-14770
asis	-14771
emet	-14772
▁(17	-14773
▁(8)	-14774
▁1.2	-14775
▁111	-14776
▁119	-14777
▁128	-14778
▁141	-14779
▁156	-14780
▁157	-14781
▁181	-14782
▁2.0	-14783
▁215	-14784
▁225	-14785
▁245	-14786
▁55,	-14787
▁7-5	-14788
▁720	-14789
▁AFC	-14790
▁Ara	-14791
▁BIA	-14792
▁Bal	-14793
▁Bed	-14794
▁Bon	-14795
▁DAR	-14796
▁Den	-14797
▁Doz	-14798
▁ENC	-14799
▁EST	-14800
▁Ekv	-14801
▁Emi	-14802
▁End	-14803
▁Ess	-14804
▁GER	-14805
▁Gat	-14806
▁Geg	-14807
▁Gel	-14808
▁Git	-14809
▁God	-14810
▁Guy	-14811
▁Huđ	-14812
▁ICE	-14813
▁JLS	-14814
▁Jad	-14815
▁LAV	-14816
▁MIP	-14817
▁MLS	-14818
▁MSC	-14819
▁MWh	-14820
▁Mek	-14821
▁Nin	-14822
▁Niž	-14823
▁Nou	-14824
▁OLI	-14825
▁OVE	-14826
▁PFL	-14827
▁POU	-14828
▁PVC	-14829
▁RBA	-14830
▁REM	-14831
▁Rap	-14832
▁Roo	-14833
▁SOS	-14834
▁THC	-14835
▁Ten	-14836
▁Ter	-14837
▁Wed	-14838
▁Wis	-14839
▁Zan	-14840
▁alg	-14841
▁auk	-14842
▁aul	-14843
▁azz	-14844
▁bnb	-14845
▁brk	-14846
▁cak	-14847
▁eco	-14848
▁ehe	-14849
▁ené	-14850
▁gav	-14851
▁gde	-14852
▁gea	-14853
▁gud	-14854
▁huk	-14855
▁hys	-14856
▁ijc	-14857
▁irj	-14858
▁itl	-14859
▁ivt	-14860
▁iya	-14861
▁ncy	-14862
▁oad	-14863
▁odd	-14864
▁ovb	-14865
▁oya	-14866
▁rei	-14867
▁uid	-14868
▁uld	-14869
▁ulp	-14870
▁upk	-14871
▁wim	-14872
▁zja	-14873
▁ÖVP	-14874
▁Čaj	-14875
▁Čel	-14876
▁ŠRD	-14877
▁šon	-14878
▁Abel	-14879
▁Alba	-14880
▁Alis	-14881
▁Bale	-14882
▁Balj	-14883
▁Bart	-14884
▁Cott	-14885
▁Dave	-14886
▁Dvan	-14887
▁Edis	-14888
▁Fore	-14889
▁Glen	-14890
▁HUDI	-14891
▁Hamp	-14892
▁Head	-14893
▁Humm	-14894
▁ICRO	-14895
▁June	-14896
▁Knig	-14897
▁Koef	-14898
▁Kuli	-14899
▁Look	-14900
▁MaxS	-14901
▁Mike	-14902
▁Miše	-14903
▁Mond	-14904
▁Name	-14905
▁OPEC	-14906
▁Pabl	-14907
▁Puma	-14908
▁Pure	-14909
▁Raba	-14910
▁Romi	-14911
▁SARS	-14912
▁Thor	-14913
▁Tick	-14914
▁Toul	-14915
▁acch	-14916
▁agna	-14917
▁ahur	-14918
▁alak	-14919
▁alit	-14920
▁aljn	-14921
▁alov	-14922
▁alve	-14923
▁amav	-14924
▁ambe	-14925
▁amce	-14926
▁andu	-14927
▁anza	-14928
▁aoca	-14929
▁ardy	-14930
▁areš	-14931
▁auru	-14932
▁aury	-14933
▁ažin	-14934
▁bičn	-14935
▁bock	-14936
▁case	-14937
▁ccle	-14938
▁chia	-14939
▁cifr	-14940
▁cost	-14941
▁dade	-14942
▁daun	-14943
▁deal	-14944
▁doša	-14945
▁dral	-14946
▁eatl	-14947
▁ecka	-14948
▁edem	-14949
▁eese	-14950
▁ehem	-14951
▁endi	-14952
▁eroz	-14953
▁ersh	-14954
▁esan	-14955
▁essa	-14956
▁essn	-14957
▁evan	-14958
▁evex	-14959
▁ezin	-14960
▁ezzi	-14961
▁ećir	-14962
▁fake	-14963
▁game	-14964
▁gent	-14965
▁griz	-14966
▁habi	-14967
▁haub	-14968
▁have	-14969
▁hire	-14970
▁hoff	-14971
▁homm	-14972
▁hopa	-14973
▁hopu	-14974
▁host	-14975
▁hrpe	-14976
▁hrđa	-14977
▁idak	-14978
▁idin	-14979
▁idža	-14980
▁ietr	-14981
▁igam	-14982
▁ikol	-14983
▁ikor	-14984
▁ilit	-14985
▁imid	-14986
▁ious	-14987
▁irby	-14988
▁isak	-14989
▁isha	-14990
▁iter	-14991
▁izzi	-14992
▁jašm	-14993
▁jerg	-14994
▁keps	-14995
▁kist	-14996
▁klip	-14997
▁koze	-14998
▁krep	-14999
▁lahu	-15000
▁laje	-15001
▁lead	-15002
▁lear	-15003
▁lies	-15004
▁ljer	-15005
▁loka	-15006
▁matr	-15007
▁mill	-15008
▁mlat	-15009
▁mome	-15010
▁motk	-15011
▁muha	-15012
▁nauk	-15013
▁ncij	-15014
▁neid	-15015
▁ntar	-15016
▁oann	-15017
▁oldb	-15018
▁olos	-15019
▁omer	-15020
▁omic	-15021
▁onan	-15022
▁onne	-15023
▁onći	-15024
▁opol	-15025
▁oven	-15026
▁oyce	-15027
▁oćar	-15028
▁ošur	-15029
▁pans	-15030
▁pero	-15031
▁pešć	-15032
▁pive	-15033
▁rasu	-15034
▁rika	-15035
▁ritk	-15036
▁rizz	-15037
▁slij	-15038
▁smin	-15039
▁spun	-15040
▁taža	-15041
▁tjen	-15042
▁ucht	-15043
▁ucid	-15044
▁udim	-15045
▁ujma	-15046
▁ujte	-15047
▁ulaj	-15048
▁ulmi	-15049
▁unic	-15050
▁unin	-15051
▁učes	-15052
▁učic	-15053
▁vena	-15054
▁vize	-15055
▁wedd	-15056
▁what	-15057
▁çois	-15058
▁čepa	-15059
▁Đure	-15060
▁štal	-15061
▁ščez	-15062
▁Ariel	-15063
▁DUBRO	-15064
▁Deleg	-15065
▁Demon	-15066
▁Diega	-15067
▁ENTAR	-15068
▁Elvir	-15069
▁Found	-15070
▁HAMAG	-15071
▁Jazin	-15072
▁Josel	-15073
▁Leder	-15074
▁Mosor	-15075
▁Oasis	-15076
▁Pacer	-15077
▁Paule	-15078
▁Pavas	-15079
▁Thier	-15080
▁Vegas	-15081
▁adigm	-15082
▁adium	-15083
▁aerob	-15084
▁afran	-15085
▁ageri	-15086
▁agger	-15087
▁agron	-15088
▁agrum	-15089
▁agyar	-15090
▁ajdak	-15091
▁ajzer	-15092
▁akota	-15093
▁aldiv	-15094
▁amino	-15095
▁amnin	-15096
▁ancet	-15097
▁angul	-15098
▁anner	-15099
▁antik	-15100
▁ančan	-15101
▁ančev	-15102
▁apnej	-15103
▁aposl	-15104
▁apult	-15105
▁ardel	-15106
▁ardon	-15107
▁areth	-15108
▁argon	-15109
▁ariah	-15110
▁arome	-15111
▁artef	-15112
▁asaže	-15113
▁aspir	-15114
▁astaz	-15115
▁aston	-15116
▁atite	-15117
▁bogan	-15118
▁devij	-15119
▁eanne	-15120
▁egzil	-15121
▁enevi	-15122
▁engal	-15123
▁enkir	-15124
▁ennes	-15125
▁erner	-15126
▁ertet	-15127
▁erzij	-15128
▁essen	-15129
▁etsko	-15130
▁ešker	-15131
▁gajan	-15132
▁grame	-15133
▁građa	-15134
▁hepat	-15135
▁hutis	-15136
▁ihtar	-15137
▁iknik	-15138
▁ilver	-15139
▁inaur	-15140
▁inwar	-15141
▁inwen	-15142
▁iorsi	-15143
▁itter	-15144
▁jeluj	-15145
▁jetra	-15146
▁ješen	-15147
▁kasan	-15148
▁komit	-15149
▁korel	-15150
▁lanke	-15151
▁lasov	-15152
▁lecht	-15153
▁lesti	-15154
▁liner	-15155
▁litru	-15156
▁luton	-15157
▁malov	-15158
▁marks	-15159
▁nepca	-15160
▁okosi	-15161
▁orgea	-15162
▁orhid	-15163
▁orkoč	-15164
▁otkri	-15165
▁pielb	-15166
▁piter	-15167
▁queer	-15168
▁rasak	-15169
▁račev	-15170
▁recep	-15171
▁reint	-15172
▁repet	-15173
▁rslan	-15174
▁tikon	-15175
▁tičko	-15176
▁tošta	-15177
▁trožu	-15178
▁turni	-15179
▁udrij	-15180
▁ugand	-15181
▁unjev	-15182
▁unset	-15183
▁urtis	-15184
▁urviv	-15185
▁ustin	-15186
▁visor	-15187
▁vokat	-15188
▁vrgor	-15189
▁witch	-15190
▁zelje	-15191
▁šibic	-15192
60	-15193
8,	-15194
CH	-15195
EU	-15196
In	-15197
KK	-15198
LD	-15199
MG	-15200
My	-15201
NJ	-15202
Ni	-15203
OG	-15204
eo	-15205
▁à	-15206
BAR	-15207
BET	-15208
PIH	-15209
TER	-15210
asy	-15211
bus	-15212
dun	-15213
ess	-15214
etz	-15215
gea	-15216
gos	-15217
hea	-15218
hoo	-15219
ice	-15220
ijk	-15221
iol	-15222
jor	-15223
kij	-15224
krt	-15225
kum	-15226
luz	-15227
mic	-15228
seo	-15229
tek	-15230
tus	-15231
ück	-15232
žin	-15233
▁04	-15234
▁1'	-15235
▁2/	-15236
▁3)	-15237
▁6%	-15238
▁7:	-15239
▁AŠ	-15240
▁EF	-15241
▁Ef	-15242
▁OW	-15243
▁Oz	-15244
▁WI	-15245
▁XV	-15246
▁Xh	-15247
▁bh	-15248
▁bv	-15249
▁cC	-15250
▁eV	-15251
▁hé	-15252
▁jl	-15253
▁pH	-15254
▁tm	-15255
▁té	-15256
▁ía	-15257
▁ör	-15258
▁Ću	-15259
lint	-15260
šize	-15261
▁0-3	-15262
▁0:2	-15263
▁102	-15264
▁138	-15265
▁177	-15266
▁206	-15267
▁226	-15268
▁233	-15269
▁27,	-15270
▁325	-15271
▁380	-15272
▁4,1	-15273
▁5,7	-15274
▁5-0	-15275
▁6,8	-15276
▁96.	-15277
▁ADI	-15278
▁ALI	-15279
▁AUT	-15280
▁Aki	-15281
▁Box	-15282
▁Boy	-15283
▁CEE	-15284
▁CSU	-15285
▁Cut	-15286
▁DOK	-15287
▁Dop	-15288
▁ENE	-15289
▁Eil	-15290
▁Eis	-15291
▁FPV	-15292
▁Fin	-15293
▁GDP	-15294
▁Gak	-15295
▁HPK	-15296
▁His	-15297
▁How	-15298
▁ICJ	-15299
▁IKA	-15300
▁ISS	-15301
▁IST	-15302
▁IVO	-15303
▁Idu	-15304
▁Iga	-15305
▁KPK	-15306
▁Kek	-15307
▁Krv	-15308
▁NFP	-15309
▁NIK	-15310
▁NIS	-15311
▁NLB	-15312
▁NPS	-15313
▁OIE	-15314
▁OLA	-15315
▁PAC	-15316
▁PBZ	-15317
▁PKK	-15318
▁PRA	-15319
▁Pip	-15320
▁RAS	-15321
▁RNK	-15322
▁Rež	-15323
▁Roc	-15324
▁Sas	-15325
▁Sem	-15326
▁Set	-15327
▁THE	-15328
▁Uza	-15329
▁VAN	-15330
▁VJE	-15331
▁Vov	-15332
▁WWF	-15333
▁Wor	-15334
▁ZOV	-15335
▁ajč	-15336
▁anr	-15337
▁avs	-15338
▁baz	-15339
▁bej	-15340
▁bid	-15341
▁bni	-15342
▁cle	-15343
▁cro	-15344
▁deć	-15345
▁enf	-15346
▁eny	-15347
▁fat	-15348
▁fob	-15349
▁gay	-15350
▁gda	-15351
▁gun	-15352
▁hid	-15353
▁idn	-15354
▁ifo	-15355
▁jci	-15356
▁krb	-15357
▁kta	-15358
▁lea	-15359
▁lka	-15360
▁may	-15361
▁miz	-15362
▁mpe	-15363
▁mrš	-15364
▁nox	-15365
▁oms	-15366
▁oui	-15367
▁oum	-15368
▁peh	-15369
▁rož	-15370
▁ršn	-15371
▁sco	-15372
▁spl	-15373
▁thy	-15374
▁udy	-15375
▁uhu	-15376
▁uig	-15377
▁ukc	-15378
▁vnu	-15379
▁ćel	-15380
▁Čep	-15381
▁đač	-15382
▁ŠEM	-15383
▁ADAC	-15384
▁AZOP	-15385
▁Aden	-15386
▁Alpa	-15387
▁Alta	-15388
▁Bast	-15389
▁Bout	-15390
▁CERP	-15391
▁Diam	-15392
▁EURU	-15393
▁Easy	-15394
▁Fami	-15395
▁Fast	-15396
▁Fifa	-15397
▁From	-15398
▁Gett	-15399
▁Hani	-15400
▁Hoda	-15401
▁Hval	-15402
▁Joak	-15403
▁Kući	-15404
▁LASK	-15405
▁Lava	-15406
▁Leni	-15407
▁Limi	-15408
▁Muru	-15409
▁ORČA	-15410
▁Pack	-15411
▁Panj	-15412
▁Poor	-15413
▁Read	-15414
▁Rein	-15415
▁Rust	-15416
▁Seat	-15417
▁Tihi	-15418
▁Tikv	-15419
▁Wick	-15420
▁ZAMP	-15421
▁abaj	-15422
▁abre	-15423
▁adej	-15424
▁afon	-15425
▁ahid	-15426
▁akaš	-15427
▁akea	-15428
▁akub	-15429
▁amsa	-15430
▁anan	-15431
▁apit	-15432
▁apon	-15433
▁aram	-15434
▁asco	-15435
▁asse	-15436
▁atul	-15437
▁augh	-15438
▁ačev	-15439
▁ašic	-15440
▁bedr	-15441
▁bing	-15442
▁data	-15443
▁ddie	-15444
▁dere	-15445
▁desc	-15446
▁dgar	-15447
▁dicu	-15448
▁digr	-15449
▁dise	-15450
▁disi	-15451
▁ease	-15452
▁eavy	-15453
▁eber	-15454
▁eddy	-15455
▁egle	-15456
▁eica	-15457
▁ejsu	-15458
▁elfi	-15459
▁enes	-15460
▁epub	-15461
▁erje	-15462
▁erme	-15463
▁erup	-15464
▁esti	-15465
▁etir	-15466
▁evis	-15467
▁ezar	-15468
▁ezik	-15469
▁gami	-15470
▁gana	-15471
▁giba	-15472
▁goru	-15473
▁hane	-15474
▁harm	-15475
▁hiba	-15476
▁home	-15477
▁iaga	-15478
▁iang	-15479
▁ibel	-15480
▁icar	-15481
▁ijce	-15482
▁ilin	-15483
▁imas	-15484
▁inas	-15485
▁inek	-15486
▁iota	-15487
▁irot	-15488
▁irta	-15489
▁isce	-15490
▁itam	-15491
▁itro	-15492
▁itur	-15493
▁ivsk	-15494
▁išej	-15495
▁jabu	-15496
▁jami	-15497
▁jaše	-15498
▁jmaš	-15499
▁jogu	-15500
▁juda	-15501
▁kice	-15502
▁klan	-15503
▁kleo	-15504
▁kois	-15505
▁laik	-15506
▁lame	-15507
▁lamk	-15508
▁lapš	-15509
▁lerc	-15510
▁leće	-15511
▁lick	-15512
▁luks	-15513
▁majl	-15514
▁mice	-15515
▁mjed	-15516
▁najd	-15517
▁ntac	-15518
▁oasa	-15519
▁odak	-15520
▁odst	-15521
▁ofan	-15522
▁ojur	-15523
▁olat	-15524
▁olcu	-15525
▁omba	-15526
▁omos	-15527
▁ongl	-15528
▁ongr	-15529
▁onis	-15530
▁oniz	-15531
▁onnu	-15532
▁onny	-15533
▁oose	-15534
▁opot	-15535
▁orsa	-15536
▁osak	-15537
▁otac	-15538
▁oung	-15539
▁ovag	-15540
▁oški	-15541
▁pice	-15542
▁poll	-15543
▁pozn	-15544
▁ragb	-15545
▁rait	-15546
▁rali	-15547
▁ramb	-15548
▁rato	-15549
▁raše	-15550
▁reed	-15551
▁reit	-15552
▁rela	-15553
▁rese	-15554
▁resh	-15555
▁rete	-15556
▁rečk	-15557
▁ride	-15558
▁rinu	-15559
▁ripp	-15560
▁rita	-15561
▁rmij	-15562
▁rohn	-15563
▁tamb	-15564
▁teop	-15565
▁teći	-15566
▁težu	-15567
▁tiva	-15568
▁tron	-15569
▁udak	-15570
▁ugec	-15571
▁uipe	-15572
▁ujak	-15573
▁umio	-15574
▁unda	-15575
▁unes	-15576
▁unta	-15577
▁uram	-15578
▁urbi	-15579
▁urfa	-15580
▁usar	-15581
▁utic	-15582
▁utur	-15583
▁uvaj	-15584
▁učar	-15585
▁ušec	-15586
▁valu	-15587
▁vark	-15588
▁zhou	-15589
▁öteb	-15590
▁öves	-15591
▁üler	-15592
▁čvar	-15593
▁Žuta	-15594
▁AVBET	-15595
▁Arber	-15596
▁Belin	-15597
▁DOBRO	-15598
▁Drožđ	-15599
▁Ervin	-15600
▁Etien	-15601
▁Fifin	-15602
▁Flick	-15603
▁Force	-15604
▁HAPIH	-15605
▁Kokot	-15606
▁Kuleb	-15607
▁RALJE	-15608
▁SIJEK	-15609
▁Selim	-15610
▁Weins	-15611
▁addad	-15612
▁aggie	-15613
▁alvin	-15614
▁ancer	-15615
▁andur	-15616
▁antil	-15617
▁araon	-15618
▁arapa	-15619
▁arbir	-15620
▁arcin	-15621
▁arinu	-15622
▁arkas	-15623
▁arkta	-15624
▁arkus	-15625
▁askad	-15626
▁aspar	-15627
▁ateri	-15628
▁atman	-15629
▁atson	-15630
▁atten	-15631
▁aulič	-15632
▁aurin	-15633
▁avies	-15634
▁avkaz	-15635
▁bebom	-15636
▁botan	-15637
▁caffe	-15638
▁carle	-15639
▁cedul	-15640
▁clips	-15641
▁craft	-15642
▁eattl	-15643
▁ebašt	-15644
▁eiden	-15645
▁ember	-15646
▁endel	-15647
▁endik	-15648
▁ennet	-15649
▁epohe	-15650
▁ereum	-15651
▁ermet	-15652
▁eudon	-15653
▁gaard	-15654
▁gelat	-15655
▁gibel	-15656
▁gibij	-15657
▁golub	-15658
▁goveđ	-15659
▁hegem	-15660
▁ihten	-15661
▁ijeni	-15662
▁illen	-15663
▁iltar	-15664
▁imenc	-15665
▁imund	-15666
▁isèle	-15667
▁ižgor	-15668
▁kivij	-15669
▁klero	-15670
▁konac	-15671
▁krhki	-15672
▁kucav	-15673
▁kupan	-15674
▁kvari	-15675
▁kvazi	-15676
▁lakoč	-15677
▁lanch	-15678
▁lanco	-15679
▁liter	-15680
▁manda	-15681
▁morim	-15682
▁mouth	-15683
▁njski	-15684
▁nšize	-15685
▁offee	-15686
▁offin	-15687
▁olker	-15688
▁oltan	-15689
▁ongor	-15690
▁osion	-15691
▁oskan	-15692
▁oštat	-15693
▁raket	-15694
▁rakon	-15695
▁sibir	-15696
▁stici	-15697
▁topal	-15698
▁tormy	-15699
▁track	-15700
▁tulat	-15701
▁ughes	-15702
▁urfer	-15703
▁urgen	-15704
▁utarn	-15705
▁utter	-15706
▁utton	-15707
▁ušlin	-15708
▁užnos	-15709
▁varro	-15710
▁veseo	-15711
▁ville	-15712
▁waste	-15713
▁zidor	-15714
▁Čilea	-15715
▁Šanse	-15716
▁škrip	-15717
▁štenj	-15718
▁šušur	-15719
".	-15720
10	-15721
30	-15722
5]	-15723
7]	-15724
AM	-15725
BE	-15726
CU	-15727
El	-15728
Ex	-15729
FK	-15730
GC	-15731
NP	-15732
cm	-15733
km	-15734
oz	-15735
ui	-15736
yt	-15737
íc	-15738
ür	-15739
đo	-15740
šo	-15741
▁â	-15742
▁🟨	-15743
BCG	-15744
RID	-15745
bač	-15746
bek	-15747
ced	-15748
ham	-15749
leb	-15750
nem	-15751
oke	-15752
rey	-15753
rib	-15754
riv	-15755
set	-15756
sie	-15757
tea	-15758
tec	-15759
tiq	-15760
uge	-15761
ćer	-15762
čap	-15763
čep	-15764
đan	-15765
▁2'	-15766
▁4%	-15767
▁CG	-15768
▁CH	-15769
▁GI	-15770
▁IJ	-15771
▁IČ	-15772
▁JP	-15773
▁KV	-15774
▁LS	-15775
▁ND	-15776
▁RR	-15777
▁TR	-15778
▁UT	-15779
▁Ug	-15780
▁WS	-15781
▁ZR	-15782
▁ZS	-15783
▁bz	-15784
▁js	-15785
▁jö	-15786
▁tz	-15787
▁Đi	-15788
orth	-15789
rast	-15790
rime	-15791
varo	-15792
▁(12	-15793
▁(15	-15794
▁(16	-15795
▁0,8	-15796
▁02.	-15797
▁1-3	-15798
▁117	-15799
▁121	-15800
▁127	-15801
▁132	-15802
▁143	-15803
▁147	-15804
▁161	-15805
▁168	-15806
▁172	-15807
▁185	-15808
▁216	-15809
▁224	-15810
▁3/4	-15811
▁31,	-15812
▁310	-15813
▁4,2	-15814
▁6,4	-15815
▁6:1	-15816
▁80,	-15817
▁AMG	-15818
▁APA	-15819
▁APT	-15820
▁ART	-15821
▁Ake	-15822
▁Alt	-15823
▁Are	-15824
▁BSW	-15825
▁BUZ	-15826
▁Bay	-15827
▁Bin	-15828
▁Biz	-15829
▁CEA	-15830
▁DAB	-15831
▁Dez	-15832
▁Dud	-15833
▁EKO	-15834
▁FDP	-15835
▁Fir	-15836
▁Gop	-15837
▁Grš	-15838
▁Gul	-15839
▁HEV	-15840
▁HLK	-15841
▁HOM	-15842
▁HRB	-15843
▁HRL	-15844
▁HVZ	-15845
▁Hej	-15846
▁Hul	-15847
▁ICA	-15848
▁Idi	-15849
▁Ini	-15850
▁Jod	-15851
▁KGB	-15852
▁KIC	-15853
▁Kak	-15854
▁Kuk	-15855
▁MIG	-15856
▁McM	-15857
▁Mla	-15858
▁Mut	-15859
▁NJI	-15860
▁NOS	-15861
▁OMA	-15862
▁ORA	-15863
▁ORF	-15864
▁OSA	-15865
▁OTA	-15866
▁Ocm	-15867
▁Off	-15868
▁PET	-15869
▁POI	-15870
▁Pit	-15871
▁Pub	-15872
▁RIT	-15873
▁SDA	-15874
▁SPA	-15875
▁Slo	-15876
▁Suk	-15877
▁TRI	-15878
▁Ted	-15879
▁Teš	-15880
▁UHS	-15881
▁Yil	-15882
▁ZNA	-15883
▁Zer	-15884
▁Zir	-15885
▁[5]	-15886
▁[7]	-15887
▁ajš	-15888
▁akm	-15889
▁alc	-15890
▁arf	-15891
▁ažj	-15892
▁bow	-15893
▁bru	-15894
▁cop	-15895
▁eca	-15896
▁ecy	-15897
▁eic	-15898
▁eix	-15899
▁ejp	-15900
▁eld	-15901
▁esh	-15902
▁fig	-15903
▁gvo	-15904
▁icc	-15905
▁ics	-15906
▁ied	-15907
▁iii	-15908
▁inš	-15909
▁irc	-15910
▁isz	-15911
▁kef	-15912
▁kel	-15913
▁kik	-15914
▁krč	-15915
▁mađ	-15916
▁nea	-15917
▁nou	-15918
▁obl	-15919
▁oit	-15920
▁oot	-15921
▁orš	-15922
▁oyu	-15923
▁piv	-15924
▁rew	-15925
▁rox	-15926
▁rue	-15927
▁sid	-15928
▁sub	-15929
▁tay	-15930
▁uay	-15931
▁utj	-15932
▁vek	-15933
▁vrč	-15934
▁yip	-15935
▁ylv	-15936
▁zaj	-15937
▁zec	-15938
▁zga	-15939
▁Čir	-15940
▁čip	-15941
▁čuj	-15942
▁Đap	-15943
▁Šal	-15944
▁Šri	-15945
▁šou	-15946
▁Žum	-15947
▁Alem	-15948
▁Alil	-15949
▁Amad	-15950
▁Army	-15951
▁Arne	-15952
▁Baku	-15953
▁Beer	-15954
▁Benc	-15955
▁Bent	-15956
▁Book	-15957
▁Buri	-15958
▁CBCG	-15959
▁Cook	-15960
▁Deif	-15961
▁Dela	-15962
▁EVEX	-15963
▁Eduk	-15964
▁Ekat	-15965
▁Emme	-15966
▁Ficu	-15967
▁File	-15968
▁Fium	-15969
▁GONG	-15970
▁Günd	-15971
▁Klik	-15972
▁Koke	-15973
▁Kuba	-15974
▁Kube	-15975
▁Linz	-15976
▁Lise	-15977
▁Madd	-15978
▁Marx	-15979
▁Mehk	-15980
▁NSKI	-15981
▁OVAC	-15982
▁Pali	-15983
▁Pips	-15984
▁Rist	-15985
▁Rogl	-15986
▁Ruže	-15987
▁SPAR	-15988
▁Uniq	-15989
▁VART	-15990
▁Vent	-15991
▁Yale	-15992
▁acet	-15993
▁achs	-15994
▁addi	-15995
▁adij	-15996
▁adiz	-15997
▁adre	-15998
▁agod	-15999
▁aide	-16000
▁akuy	-16001
▁alam	-16002
▁alci	-16003
▁aleg	-16004
▁alig	-16005
▁alla	-16006
▁almu	-16007
▁amca	-16008
▁ameš	-16009
▁ampd	-16010
▁ampl	-16011
▁amps	-16012
▁anam	-16013
▁anki	-16014
▁apos	-16015
▁aras	-16016
▁arcu	-16017
▁arek	-16018
▁arja	-16019
▁armu	-16020
▁arna	-16021
▁arot	-16022
▁aroš	-16023
▁asda	-16024
▁asiv	-16025
▁asko	-16026
▁aslu	-16027
▁asum	-16028
▁atni	-16029
▁auth	-16030
▁avos	-16031
▁avur	-16032
▁awks	-16033
▁azel	-16034
▁azmi	-16035
▁azni	-16036
▁ažov	-16037
▁baha	-16038
▁bark	-16039
▁bome	-16040
▁brif	-16041
▁brzi	-16042
▁buri	-16043
▁cart	-16044
▁cval	-16045
▁deka	-16046
▁dije	-16047
▁dink	-16048
▁dirk	-16049
▁door	-16050
▁dovo	-16051
▁eaks	-16052
▁ears	-16053
▁edat	-16054
▁egze	-16055
▁eksh	-16056
▁eksk	-16057
▁elni	-16058
▁emot	-16059
▁empl	-16060
▁enan	-16061
▁enev	-16062
▁eous	-16063
▁epsi	-16064
▁eres	-16065
▁eriz	-16066
▁erni	-16067
▁erto	-16068
▁ertr	-16069
▁ešen	-16070
▁fred	-16071
▁gije	-16072
▁gips	-16073
▁gnij	-16074
▁gurn	-16075
▁guše	-16076
▁hack	-16077
▁heon	-16078
▁hici	-16079
▁hiej	-16080
▁hous	-16081
▁hrle	-16082
▁hvar	-16083
▁ibat	-16084
▁ican	-16085
▁iels	-16086
▁iket	-16087
▁ilas	-16088
▁imet	-16089
▁inch	-16090
▁indl	-16091
▁inil	-16092
▁inkl	-16093
▁iori	-16094
▁irgi	-16095
▁itci	-16096
▁itus	-16097
▁iuse	-16098
▁ivol	-16099
▁izon	-16100
▁izov	-16101
▁ićan	-16102
▁jaln	-16103
▁jamu	-16104
▁ječm	-16105
▁juan	-16106
▁jumb	-16107
▁just	-16108
▁keta	-16109
▁krob	-16110
▁kupi	-16111
▁kusi	-16112
▁laču	-16113
▁letk	-16114
▁lmer	-16115
▁main	-16116
▁mapa	-16117
▁mapu	-16118
▁mied	-16119
▁milj	-16120
▁mins	-16121
▁mint	-16122
▁mite	-16123
▁mono	-16124
▁moot	-16125
▁nett	-16126
▁nies	-16127
▁nnsb	-16128
▁noir	-16129
▁ntno	-16130
▁oare	-16131
▁ocha	-16132
▁ojit	-16133
▁okač	-16134
▁olah	-16135
▁oleš	-16136
▁onar	-16137
▁ones	-16138
▁orač	-16139
▁orci	-16140
▁ornu	-16141
▁oroz	-16142
▁ossa	-16143
▁otur	-16144
▁ourt	-16145
▁pani	-16146
▁poor	-16147
▁poul	-16148
▁publ	-16149
▁rath	-16150
▁račk	-16151
▁rdut	-16152
▁rept	-16153
▁reum	-16154
▁rien	-16155
▁rind	-16156
▁ripr	-16157
▁rnst	-16158
▁rowe	-16159
▁rrow	-16160
▁rtet	-16161
▁rupl	-16162
▁ručj	-16163
▁ržan	-16164
▁sand	-16165
▁seca	-16166
▁seok	-16167
▁sime	-16168
▁spar	-16169
▁tair	-16170
▁tamn	-16171
▁tarc	-16172
▁teci	-16173
▁tive	-16174
▁tlač	-16175
▁trof	-16176
▁ucka	-16177
▁udil	-16178
▁udvi	-16179
▁uick	-16180
▁ukec	-16181
▁ulan	-16182
▁unch	-16183
▁unit	-16184
▁uraz	-16185
▁urse	-16186
▁urva	-16187
▁ušek	-16188
▁verz	-16189
▁vill	-16190
▁wick	-16191
▁ćaća	-16192
▁čeća	-16193
▁čkar	-16194
▁Šuma	-16195
▁šapt	-16196
▁šjor	-16197
▁štel	-16198
▁štuk	-16199
▁Ahmad	-16200
▁Andal	-16201
▁Arbun	-16202
▁Begon	-16203
▁CJENA	-16204
▁Debit	-16205
▁Detel	-16206
▁Dizel	-16207
▁Firul	-16208
▁Husse	-16209
▁Janet	-16210
▁Kisel	-16211
▁Komol	-16212
▁Kotig	-16213
▁Kuliš	-16214
▁Manek	-16215
▁Milak	-16216
▁Nigel	-16217
▁Olsen	-16218
▁Pekar	-16219
▁Rouge	-16220
▁Taste	-16221
▁VRTAK	-16222
▁Waste	-16223
▁abeck	-16224
▁agnai	-16225
▁ajgan	-16226
▁ajker	-16227
▁akeri	-16228
▁alaža	-16229
▁altik	-16230
▁alvad	-16231
▁amaca	-16232
▁ambel	-16233
▁amber	-16234
▁amfor	-16235
▁ancon	-16236
▁anekt	-16237
▁anjal	-16238
▁antun	-16239
▁anyan	-16240
▁arder	-16241
▁ashar	-16242
▁askon	-16243
▁aslen	-16244
▁aufer	-16245
▁ayson	-16246
▁bahce	-16247
▁bikin	-16248
▁cCart	-16249
▁cioni	-16250
▁delat	-16251
▁dezer	-16252
▁dušik	-16253
▁dvard	-16254
▁eball	-16255
▁ebrej	-16256
▁ecret	-16257
▁ektir	-16258
▁elcea	-16259
▁eldin	-16260
▁elhij	-16261
▁elmut	-16262
▁emmer	-16263
▁ental	-16264
▁enzel	-16265
▁enčin	-16266
▁escal	-16267
▁esper	-16268
▁etapi	-16269
▁ezero	-16270
▁giban	-16271
▁golot	-16272
▁gorel	-16273
▁guest	-16274
▁guste	-16275
▁hezij	-16276
▁hlepa	-16277
▁iffer	-16278
▁ihann	-16279
▁ikvij	-16280
▁ildir	-16281
▁iliko	-16282
▁iljan	-16283
▁iljea	-16284
▁immon	-16285
▁incid	-16286
▁inerc	-16287
▁injač	-16288
▁injet	-16289
▁irsch	-16290
▁istol	-16291
▁itten	-16292
▁jahtu	-16293
▁kamin	-16294
▁klimi	-16295
▁koban	-16296
▁kolaž	-16297
▁kovrč	-16298
▁kozmo	-16299
▁kroba	-16300
▁lanta	-16301
▁latni	-16302
▁laude	-16303
▁legri	-16304
▁leper	-16305
▁ličic	-16306
▁lvaro	-16307
▁megal	-16308
▁meich	-16309
▁milim	-16310
▁nastu	-16311
▁ndust	-16312
▁necht	-16313
▁nomna	-16314
▁notor	-16315
▁ommel	-16316
▁oprek	-16317
▁oreen	-16318
▁otent	-16319
▁ousse	-16320
▁outha	-16321
▁ovora	-16322
▁peleo	-16323
▁peler	-16324
▁perol	-16325
▁prija	-16326
▁rafal	-16327
▁range	-16328
▁rapid	-16329
▁rarit	-16330
▁ritch	-16331
▁riziv	-16332
▁ronhi	-16333
▁rooke	-16334
▁rotir	-16335
▁rovov	-16336
▁runch	-16337
▁sjeti	-16338
▁tarif	-16339
▁ukesh	-16340
▁umber	-16341
▁undek	-16342
▁uradn	-16343
▁urkum	-16344
▁urman	-16345
▁utapa	-16346
▁uzern	-16347
▁uštrb	-16348
▁valij	-16349
▁water	-16350
▁worth	-16351
▁ystem	-16352
▁zadov	-16353
▁Čagal	-16354
▁Šerbe	-16355
▁šutir	-16356
+1	-16357
12	-16358
2]	-16359
3:	-16360
7,	-16361
DF	-16362
HL	-16363
KM	-16364
LZ	-16365
WD	-16366
eu	-16367
ex	-16368
gg	-16369
jk	-16370
kg	-16371
mm	-16372
nn	-16373
sg	-16374
ía	-16375
ño	-16376
ŠA	-16377
▁ð	-16378
ENT	-16379
LUS	-16380
PIX	-16381
ROJ	-16382
ZUM	-16383
bla	-16384
dan	-16385
foe	-16386
gam	-16387
got	-16388
hin	-16389
ind	-16390
ish	-16391
jaz	-16392
jul	-16393
kaš	-16394
kok	-16395
ley	-16396
lun	-16397
lus	-16398
nal	-16399
net	-16400
pek	-16401
pen	-16402
rot	-16403
sny	-16404
ubi	-16405
yec	-16406
▁+5	-16407
▁-6	-16408
▁.)	-16409
▁0.	-16410
▁3:	-16411
▁Aq	-16412
▁BR	-16413
▁CS	-16414
▁DF	-16415
▁EŽ	-16416
▁GD	-16417
▁If	-16418
▁JI	-16419
▁JK	-16420
▁KL	-16421
▁LV	-16422
▁MB	-16423
▁OE	-16424
▁PH	-16425
▁TC	-16426
▁Vf	-16427
▁aR	-16428
▁aS	-16429
▁aq	-16430
▁bb	-16431
▁kh	-16432
▁ná	-16433
▁öl	-16434
▁čr	-16435
▁žo	-16436
ovin	-16437
▁"3.	-16438
▁(10	-16439
▁(11	-16440
▁(20	-16441
▁(40	-16442
▁(9)	-16443
▁0-4	-16444
▁04.	-16445
▁08.	-16446
▁1.,	-16447
▁142	-16448
▁144	-16449
▁164	-16450
▁18%	-16451
▁182	-16452
▁2.5	-16453
▁202	-16454
▁208	-16455
▁209	-16456
▁212	-16457
▁236	-16458
▁290	-16459
▁33,	-16460
▁480	-16461
▁5,6	-16462
▁5-3	-16463
▁520	-16464
▁6:0	-16465
▁7,2	-16466
▁7,6	-16467
▁7.,	-16468
▁9,1	-16469
▁9,5	-16470
▁950	-16471
▁ALA	-16472
▁ANA	-16473
▁ATV	-16474
▁Abi	-16475
▁Aer	-16476
▁Asp	-16477
▁BEZ	-16478
▁BIS	-16479
▁BMX	-16480
▁Bra	-16481
▁CAS	-16482
▁CMC	-16483
▁DOS	-16484
▁Deh	-16485
▁Dox	-16486
▁ECR	-16487
▁EGA	-16488
▁ELA	-16489
▁ELE	-16490
▁ERE	-16491
▁ESC	-16492
▁FDA	-16493
▁FIA	-16494
▁FOR	-16495
▁FPO	-16496
▁GRO	-16497
▁Gaš	-16498
▁Gro	-16499
▁Gum	-16500
▁Hat	-16501
▁Hec	-16502
▁Hel	-16503
▁IMO	-16504
▁Izr	-16505
▁JAR	-16506
▁Kes	-16507
▁Kle	-16508
▁Kou	-16509
▁Kov	-16510
▁LEM	-16511
▁Lim	-16512
▁Liu	-16513
▁McQ	-16514
▁Mnk	-16515
▁Msg	-16516
▁Myk	-16517
▁NCA	-16518
▁NES	-16519
▁Nal	-16520
▁OMF	-16521
▁OSI	-16522
▁OfC	-16523
▁Ori	-16524
▁PAR	-16525
▁PIN	-16526
▁Ped	-16527
▁Pev	-16528
▁PiS	-16529
▁Pun	-16530
▁ROG	-16531
▁ROT	-16532
▁RVA	-16533
▁Rut	-16534
▁SEC	-16535
▁SLA	-16536
▁Sau	-16537
▁TIA	-16538
▁TOR	-16539
▁TVO	-16540
▁UGA	-16541
▁Yun	-16542
▁ZTC	-16543
▁Zup	-16544
▁[2]	-16545
▁aat	-16546
▁ait	-16547
▁alč	-16548
▁asz	-16549
▁aud	-16550
▁aća	-16551
▁chi	-16552
▁dcl	-16553
▁deo	-16554
▁did	-16555
▁dog	-16556
▁eij	-16557
▁eir	-16558
▁fag	-16559
▁fiz	-16560
▁fri	-16561
▁hia	-16562
▁hus	-16563
▁iad	-16564
▁iav	-16565
▁idl	-16566
▁juš	-16567
▁keč	-16568
▁muc	-16569
▁ndr	-16570
▁nyd	-16571
▁ogg	-16572
▁ojl	-16573
▁olm	-16574
▁oss	-16575
▁oča	-16576
▁ođa	-16577
▁sag	-16578
▁tly	-16579
▁uhl	-16580
▁vap	-16581
▁vać	-16582
▁yer	-16583
▁ymp	-16584
▁yre	-16585
▁ćuš	-16586
▁Čeh	-16587
▁Čor	-16588
▁čuđ	-16589
▁Đan	-16590
▁Đul	-16591
▁Šah	-16592
▁ŽNS	-16593
▁Žan	-16594
▁Žig	-16595
▁ABBA	-16596
▁Adan	-16597
▁Ambr	-16598
▁Aran	-16599
▁Arti	-16600
▁Auro	-16601
▁Bake	-16602
▁Bank	-16603
▁Bike	-16604
▁Boat	-16605
▁Bona	-16606
▁Bono	-16607
▁CNBC	-16608
▁Cara	-16609
▁Corn	-16610
▁Coul	-16611
▁Dame	-16612
▁Data	-16613
▁Diab	-16614
▁Dijk	-16615
▁Diva	-16616
▁EXPO	-16617
▁Elen	-16618
▁Eter	-16619
▁Exit	-16620
▁GDPR	-16621
▁Gack	-16622
▁HAVK	-16623
▁High	-16624
▁Hlač	-16625
▁ISIS	-16626
▁Jark	-16627
▁KPMG	-16628
▁Krem	-16629
▁LOGE	-16630
▁Last	-16631
▁Line	-16632
▁Lord	-16633
▁Mame	-16634
▁Mazz	-16635
▁Mišk	-16636
▁Mumb	-16637
▁Mure	-16638
▁OVEC	-16639
▁PEPU	-16640
▁Rash	-16641
▁Romu	-16642
▁Rosa	-16643
▁SAFU	-16644
▁SIPA	-16645
▁SNSD	-16646
▁STOP	-16647
▁STRA	-16648
▁Sari	-16649
▁Saul	-16650
▁Sead	-16651
▁Taek	-16652
▁Tikt	-16653
▁Tran	-16654
▁Vern	-16655
▁Wahl	-16656
▁Wilk	-16657
▁Wins	-16658
▁Yann	-16659
▁Yeol	-16660
▁able	-16661
▁acin	-16662
▁adan	-16663
▁ador	-16664
▁ahat	-16665
▁ajač	-16666
▁alaj	-16667
▁amaz	-16668
▁ammy	-16669
▁anna	-16670
▁anni	-16671
▁anth	-16672
▁anču	-16673
▁apor	-16674
▁araš	-16675
▁asaž	-16676
▁asha	-16677
▁astv	-16678
▁atah	-16679
▁atam	-16680
▁atil	-16681
▁avič	-16682
▁ayek	-16683
▁azzo	-16684
▁ažeo	-16685
▁ažip	-16686
▁ažir	-16687
▁ažol	-16688
▁bbot	-16689
▁bill	-16690
▁biom	-16691
▁blec	-16692
▁bluz	-16693
▁boba	-16694
▁burn	-16695
▁capp	-16696
▁cill	-16697
▁cket	-16698
▁date	-16699
▁diaq	-16700
▁dilo	-16701
▁dopr	-16702
▁drom	-16703
▁eady	-16704
▁eary	-16705
▁ebel	-16706
▁ebet	-16707
▁eced	-16708
▁ecep	-16709
▁eind	-16710
▁ejak	-16711
▁emet	-16712
▁emex	-16713
▁enfa	-16714
▁enou	-16715
▁enth	-16716
▁epur	-16717
▁erci	-16718
▁ereš	-16719
▁ergs	-16720
▁erie	-16721
▁etje	-16722
▁evač	-16723
▁fale	-16724
▁fige	-16725
▁gast	-16726
▁gazd	-16727
▁gier	-16728
▁girl	-16729
▁glut	-16730
▁gmaz	-16731
▁gruš	-16732
▁gumu	-16733
▁hipa	-16734
▁hish	-16735
▁hoot	-16736
▁iant	-16737
▁ibin	-16738
▁icov	-16739
▁icro	-16740
▁igne	-16741
▁ihad	-16742
▁ildr	-16743
▁ilib	-16744
▁ilji	-16745
▁ilul	-16746
▁ilvi	-16747
▁inet	-16748
▁ipid	-16749
▁irin	-16750
▁isla	-16751
▁isse	-16752
▁ivid	-16753
▁izej	-16754
▁izvi	-16755
▁išti	-16756
▁jata	-16757
▁jeri	-16758
▁kemi	-16759
▁kmet	-16760
▁kobl	-16761
▁kopj	-16762
▁kreb	-16763
▁krup	-16764
▁ktob	-16765
▁lard	-16766
▁legl	-16767
▁leya	-16768
▁libr	-16769
▁lopk	-16770
▁loth	-16771
▁mace	-16772
▁mahn	-16773
▁meko	-16774
▁memo	-16775
▁mezz	-16776
▁midi	-16777
▁mind	-16778
▁ming	-16779
▁misu	-16780
▁more	-16781
▁morf	-16782
▁murv	-16783
▁neri	-16784
▁ngra	-16785
▁njuš	-16786
▁noid	-16787
▁obni	-16788
▁obod	-16789
▁occo	-16790
▁odge	-16791
▁odič	-16792
▁olff	-16793
▁olla	-16794
▁ompl	-16795
▁onni	-16796
▁onse	-16797
▁opal	-16798
▁opač	-16799
▁orič	-16800
▁orle	-16801
[...]
