{
  "version": "1.0",
  "truncation": null,
  "padding": null,
  "added_tokens": [
    {
      "id": 0,
      "content": "[UNK]",
      "single_word": false,
      "lstrip": false,
      "rstrip": false,
      "normalized": false,
      "special": true
    },
    {
      "id": 1,
      "content": "[CLS]",
      "single_word": false,
      "lstrip": false,
      "rstrip": false,
      "normalized": false,
      "special": true
    },
    {
      "id": 2,
      "content": "[SEP]",
      "single_word": false,
      "lstrip": false,
      "rstrip": false,
      "normalized": false,
      "special": true
    },
    {
      "id": 3,
      "content": "[PAD]",
      "single_word": false,
      "lstrip": false,
      "rstrip": false,
      "normalized": false,
      "special": true
    },
    {
      "id": 4,
      "content": "[MASK]",
      "single_word": false,
      "lstrip": false,
      "rstrip": false,
      "normalized": false,
      "special": true
    }
  ],
  "normalizer": {
    "type": "Sequence",
    "normalizers": [
      {
        "type": "NFKC"
      },
      {
        "type": "Lowercase"
      }
    ]
  },
  "pre_tokenizer": {
    "type": "Whitespace"
  },
  "post_processor": null,
  "decoder": {
    "type": "WordPiece",
    "prefix": "##",
    "cleanup": true
  },
  "model": {
    "type": "WordPiece",
    "unk_token": "[UNK]",
    "continuing_subword_prefix": "##",
    "max_input_chars_per_word": 100,
    "vocab": {
      "[UNK]": 0,
      "[CLS]": 1,
      "[SEP]": 2,
      "[PAD]": 3,
      "[MASK]": 4,
      "!": 5,
      "\"": 6,
      "#": 7,
      "$": 8,
      "%": 9,
      "&": 10,
      "'": 11,
      "(": 12,
      ")": 13,
      "*": 14,
      "+": 15,
      ",": 16,
      "-": 17,
      ".": 18,
      "/": 19,
      "0": 20,
      "1": 21,
      "2": 22,
      "3": 23,
      "4": 24,
      "5": 25,
      "6": 26,
      "7": 27,
      "8": 28,
      "9": 29,
      ":": 30,
      ";": 31,
      "<": 32,
      "=": 33,
      ">": 34,
      "?": 35,
      "@": 36,
      "[": 37,
      "\\": 38,
      "]": 39,
      "^": 40,
      "_": 41,
      "`": 42,
      "a": 43,
      "b": 44,
      "c": 45,
      "d": 46,
      "e": 47,
      "f": 48,
      "g": 49,
      "h": 50,
      "i": 51,
      "j": 52,
      "k": 53,
      "l": 54,
      "m": 55,
      "n": 56,
      "o": 57,
      "p": 58,
      "q": 59,
      "r": 60,
      "s": 61,
      "t": 62,
      "u": 63,
      "v": 64,
      "w": 65,
      "x": 66,
      "y": 67,
      "z": 68,
      "{": 69,
      "}": 70,
      "": 71,
      "¡": 72,
      "£": 73,
      "¤": 74,
      "§": 75,
      "©": 76,
      "­": 77,
      "®": 78,
      "°": 79,
      "±": 80,
      "·": 81,
      "¿": 82,
      "×": 83,
      "ß": 84,
      "à": 85,
      "á": 86,
      "â": 87,
      "ã": 88,
      "ä": 89,
      "å": 90,
      "ç": 91,
      "è": 92,
      "é": 93,
      "ê": 94,
      "ë": 95,
      "ì": 96,
      "í": 97,
      "î": 98,
      "ï": 99,
      "ð": 100,
      "ñ": 101,
      "ò": 102,
      "ó": 103,
      "ô": 104,
      "õ": 105,
      "ö": 106,
      "ø": 107,
      "ù": 108,
      "ú": 109,
      "û": 110,
      "ü": 111,
      "ý": 112,
      "ā": 113,
      "ă": 114,
      "ą": 115,
      "ć": 116,
      "ĉ": 117,
      "č": 118,
      "ď": 119,
      "đ": 120,
      "ē": 121,
      "ė": 122,
      "ę": 123,
      "ě": 124,
      "ğ": 125,
      "ı": 126,
      "ľ": 127,
      "ł": 128,
      "ń": 129,
      "ň": 130,
      "ō": 131,
      "ő": 132,
      "ř": 133,
      "ś": 134,
      "ş": 135,
      "š": 136,
      "ţ": 137,
      "ū": 138,
      "ů": 139,
      "ź": 140,
      "ż": 141,
      "ž": 142,
      "ƙ": 143,
      "ȃ": 144,
      "ȉ": 145,
      "ȑ": 146,
      "ȗ": 147,
      "ș": 148,
      "ț": 149,
      "ə": 150,
      "ʟ": 151,
      "̇": 152,
      "̈": 153,
      "̊": 154,
      "̋": 155,
      "̌": 156,
      "̧": 157,
      "έ": 158,
      "ή": 159,
      "α": 160,
      "γ": 161,
      "δ": 162,
      "μ": 163,
      "ο": 164,
      "π": 165,
      "ρ": 166,
      "ς": 167,
      "τ": 168,
      "υ": 169,
      "χ": 170,
      "ω": 171,
      "ό": 172,
      "а": 173,
      "е": 174,
      "к": 175,
      "л": 176,
      "н": 177,
      "о": 178,
      "ь": 179,
      "і": 180,
      "ј": 181,
      "ґ": 182,
      "ӣ": 183,
      "ӧ": 184,
      "ི": 185,
      "ྀ": 186,
      "ṓ": 187,
      "ṣ": 188,
      "ọ": 189,
      "ố": 190,
      "ἀ": 191,
      "‍": 192,
      "‎": 193,
      "‐": 194,
      "‒": 195,
      "―": 196,
      "‖": 197,
      "‟": 198,
      "•": 199,
      "‰": 200,
      "′": 201,
      "⁄": 202,
      "⁠": 203,
      "€": 204,
      "↑": 205,
      "⇒": 206,
      "−": 207,
      "∶": 208,
      "⏱": 209,
      "■": 210,
      "▪": 211,
      "▶": 212,
      "►": 213,
      "○": 214,
      "●": 215,
      "☀": 216,
      "☃": 217,
      "☑": 218,
      "☘": 219,
      "☺": 220,
      "♀": 221,
      "♡": 222,
      "♥": 223,
      "♦": 224,
      "♬": 225,
      "⚠": 226,
      "⚤": 227,
      "⚫": 228,
      "⚽": 229,
      "✓": 230,
      "✔": 231,
      "✠": 232,
      "✨": 233,
      "❄": 234,
      "❤": 235,
      "シ": 236,
      "传": 237,
      "多": 238,
      "陈": 239,
      "": 240,
      "": 241,
      "️": 242,
      "🇦": 243,
      "🇧": 244,
      "🇫": 245,
      "🇬": 246,
      "🇭": 247,
      "🇮": 248,
      "🇱": 249,
      "🇵": 250,
      "🇷": 251,
      "🇸": 252,
      "🇺": 253,
      "🇾": 254,
      "🌋": 255,
      "🌐": 256,
      "🌠": 257,
      "🌧": 258,
      "🌨": 259,
      "🌸": 260,
      "🌺": 261,
      "🌻": 262,
      "🍉": 263,
      "🍊": 264,
      "🎀": 265,
      "🎁": 266,
      "🎗": 267,
      "🏡": 268,
      "🏻": 269,
      "🐄": 270,
      "🐥": 271,
      "🐦": 272,
      "🐱": 273,
      "🐶": 274,
      "👀": 275,
      "👁": 276,
      "👇": 277,
      "👣": 278,
      "👶": 279,
      "💅": 280,
      "💋": 281,
      "💎": 282,
      "💕": 283,
      "💘": 284,
      "💙": 285,
      "💚": 286,
      "💟": 287,
      "💪": 288,
      "💯": 289,
      "📌": 290,
      "📢": 291,
      "📱": 292,
      "📸": 293,
      "🔄": 294,
      "🔥": 295,
      "🔹": 296,
      "🕓": 297,
      "🕷": 298,
      "🕸": 299,
      "🖥": 300,
      "😀": 301,
      "😁": 302,
      "😂": 303,
      "😅": 304,
      "😉": 305,
      "😊": 306,
      "😍": 307,
      "😎": 308,
      "😏": 309,
      "😬": 310,
      "😭": 311,
      "🙂": 312,
      "🙌": 313,
      "🙏": 314,
      "🛁": 315,
      "🟡": 316,
      "🟨": 317,
      "🤍": 318,
      "🤔": 319,
      "🤢": 320,
      "🤦": 321,
      "🤩": 322,
      "🤪": 323,
      "🤯": 324,
      "🥚": 325,
      "🥥": 326,
      "🥰": 327,
      "🥲": 328,
      "🥹": 329,
      "🥺": 330,
      "🦟": 331,
      "🩹": 332,
      "🩺": 333,
      "🪐": 334,
      "🫒": 335,
      "🫠": 336,
      "🫶": 337,
      "##o": 338,
      "##m": 339,
      "##d": 340,
      "##a": 341,
      "##r": 342,
      "##c": 343,
      "##e": 344,
      "##s": 345,
      "##i": 346,
      "##j": 347,
      "##u": 348,
      "##č": 349,
      "##v": 350,
      "##t": 351,
      "##p": 352,
      "##b": 353,
      "##đ": 354,
      "##k": 355,
      "##š": 356,
      "##h": 357,
      "##n": 358,
      "##z": 359,
      "##l": 360,
      "##4": 361,
      "##8": 362,
      "##_": 363,
      "##0": 364,
      "##g": 365,
      "##f": 366,
      "##ć": 367,
      "##ž": 368,
      "##ü": 369,
      "##2": 370,
      "##7": 371,
      "##1": 372,
      "##9": 373,
      "##5": 374,
      "##6": 375,
      "##y": 376,
      "##3": 377,
      "##w": 378,
      "##ń": 379,
      "##:": 380,
      "##\"": 381,
      "##x": 382,
      "##q": 383,
      "##ç": 384,
      "##🛁": 385,
      "##á": 386,
      "##ј": 387,
      "##;": 388,
      "##ö": 389,
      "##é": 390,
      "##ş": 391,
      "##ä": 392,
      "##ø": 393,
      "##ñ": 394,
      "##è": 395,
      "##ğ": 396,
      "##î": 397,
      "##.": 398,
      "##ó": 399,
      "##ȉ": 400,
      "##ß": 401,
      "##ł": 402,
      "##!": 403,
      "##[": 404,
      "##ā": 405,
      "##í": 406,
      "##😏": 407,
      "##`": 408,
      "##е": 409,
      "##ș": 410,
      "##🔄": 411,
      "##à": 412,
      "##′": 413,
      "##?": 414,
      "##ì": 415,
      "##,": 416,
      "##ı": 417,
      "##>": 418,
      "##)": 419,
      "##]": 420,
      "##}": 421,
      "##å": 422,
      "##/": 423,
      "##ȑ": 424,
      "##ọ": 425,
      "##🥚": 426,
      "##ï": 427,
      "##а": 428,
      "##о": 429,
      "##-": 430,
      "##ú": 431,
      "##{": 432,
      "##ӣ": 433,
      "##ý": 434,
      "##ə": 435,
      "##ě": 436,
      "##ȗ": 437,
      "##̇": 438,
      "##&": 439,
      "##ò": 440,
      "##ř": 441,
      "##â": 442,
      "##ë": 443,
      "##😂": 444,
      "##✨": 445,
      "##@": 446,
      "##ė": 447,
      "##'": 448,
      "##ê": 449,
      "##+": 450,
      "##🇷": 451,
      "##%": 452,
      "##ð": 453,
      "##ô": 454,
      "##ù": 455,
      "##*": 456,
      "##γ": 457,
      "###": 458,
      "##ρ": 459,
      "##ό": 460,
      "##μ": 461,
      "##ο": 462,
      "##ς": 463,
      "##ę": 464,
      "##ή": 465,
      "##🫠": 466,
      "##ṓ": 467,
      "##ţ": 468,
      "##ི": 469,
      "##ྀ": 470,
      "##ū": 471,
      "##ĉ": 472,
      "##ṣ": 473,
      "##̌": 474,
      "##л": 475,
      "##н": 476,
      "##ą": 477,
      "##­": 478,
      "##ő": 479,
      "##\\": 480,
      "##ă": 481,
      "##🤩": 482,
      "##$": 483,
      "##ź": 484,
      "##ь": 485,
      "##🇾": 486,
      "##<": 487,
      "##έ": 488,
      "##🔥": 489,
      "##ố": 490,
      "##õ": 491,
      "##🇧": 492,
      "##🇺": 493,
      "##🇦": 494,
      "##🇸": 495,
      "##🇵": 496,
      "##🇱": 497,
      "##🇮": 498,
      "##🍊": 499,
      "##🌻": 500,
      "##传": 501,
      "##多": 502,
      "##💙": 503,
      "##¤": 504,
      "##ľ": 505,
      "##ś": 506,
      "##🏻": 507,
      "##ē": 508,
      "##ӧ": 509,
      "##ż": 510,
      "##ã": 511,
      "##ω": 512,
      "##τ": 513,
      "##υ": 514,
      "##π": 515,
      "##і": 516,
      "##û": 517,
      "##🤢": 518,
      "##ȃ": 519,
      "##ț": 520,
      "##🤯": 521,
      "##シ": 522,
      "##ō": 523,
      "##👣": 524,
      "##ď": 525,
      "##χ": 526,
      "##ů": 527,
      "##↑": 528,
      "##🕷": 529,
      "##🙏": 530,
      "##¿": 531,
      "##¡": 532,
      "##je": 533,
      "##ra": 534,
      "je": 535,
      "##ti": 536,
      "##ni": 537,
      "na": 538,
      "##li": 539,
      "##ro": 540,
      "po": 541,
      "##no": 542,
      "##la": 543,
      "##re": 544,
      "##ko": 545,
      "##ri": 546,
      "##va": 547,
      "##ta": 548,
      "##na": 549,
      "##ja": 550,
      "##ma": 551,
      "##te": 552,
      "##vi": 553,
      "za": 554,
      "##vo": 555,
      "ko": 556,
      "##di": 557,
      "##ji": 558,
      "##to": 559,
      "##ka": 560,
      "##ju": 561,
      "##ne": 562,
      "da": 563,
      "##da": 564,
      "se": 565,
      "##ci": 566,
      "##ca": 567,
      "do": 568,
      "##lo": 569,
      "##ve": 570,
      "su": 571,
      "ne": 572,
      "ka": 573,
      "##st": 574,
      "od": 575,
      "bi": 576,
      "##mo": 577,
      "iz": 578,
      "##le": 579,
      "##ije": 580,
      "pro": 581,
      "##ru": 582,
      "sa": 583,
      "##ki": 584,
      "##me": 585,
      "##nu": 586,
      "ra": 587,
      "##sta": 588,
      "##go": 589,
      "pre": 590,
      "##ke": 591,
      "pri": 592,
      "mo": 593,
      "##nje": 594,
      "##ku": 595,
      "##ron": 596,
      "##sti": 597,
      "##caron": 598,
      "to": 599,
      "##ga": 600,
      "go": 601,
      "te": 602,
      "ma": 603,
      "##de": 604,
      "##zi": 605,
      "##lu": 606,
      "re": 607,
      "##nja": 608,
      "##lje": 609,
      "##bi": 610,
      "no": 611,
      "##po": 612,
      "##mi": 613,
      "mi": 614,
      "##pa": 615,
      "##cu": 616,
      "##tu": 617,
      "##ba": 618,
      "##bo": 619,
      "##či": 620,
      "##si": 621,
      "ni": 622,
      "##ce": 623,
      "##sko": 624,
      "pa": 625,
      "vi": 626,
      "ve": 627,
      "koji": 628,
      "##če": 629,
      "ccaron": 630,
      "ta": 631,
      "ca": 632,
      "##še": 633,
      "##ći": 634,
      "##ski": 635,
      "##za": 636,
      "##sa": 637,
      "će": 638,
      "##lja": 639,
      "##sto": 640,
      "##du": 641,
      "##ča": 642,
      "##že": 643,
      "##gu": 644,
      "##pi": 645,
      "##gra": 646,
      "godi": 647,
      "##do": 648,
      "me": 649,
      "ja": 650,
      "st": 651,
      "što": 652,
      "##cute": 653,
      "cacute": 654,
      "##će": 655,
      "li": 656,
      "va": 657,
      "ima": 658,
      "bo": 659,
      "##rva": 660,
      "##se": 661,
      "ob": 662,
      "pu": 663,
      "vo": 664,
      "os": 665,
      "##ća": 666,
      "##ša": 667,
      "##ža": 668,
      "##vje": 669,
      "##nog": 670,
      "in": 671,
      "##nom": 672,
      "##dni": 673,
      "##lj": 674,
      "tre": 675,
      "##lji": 676,
      "kako": 677,
      "##ži": 678,
      "zcaron": 679,
      "di": 680,
      "##vr": 681,
      "nje": 682,
      "hrva": 683,
      "sta": 684,
      "##ske": 685,
      "##cija": 686,
      "svo": 687,
      "##en": 688,
      "##nih": 689,
      "##pu": 690,
      "##ši": 691,
      "hrvat": 692,
      "naj": 693,
      "dru": 694,
      "##pe": 695,
      "##be": 696,
      "sve": 697,
      "##rije": 698,
      "ali": 699,
      "ba": 700,
      "##ran": 701,
      "nije": 702,
      "##vu": 703,
      "##nim": 704,
      "raz": 705,
      "##gi": 706,
      "pred": 707,
      "##su": 708,
      "ti": 709,
      "koje": 710,
      "gra": 711,
      "eu": 712,
      "si": 713,
      "##vije": 714,
      "##zo": 715,
      "de": 716,
      "##nji": 717,
      "=>": 718,
      "##lju": 719,
      "ku": 720,
      "##dje": 721,
      "jo": 722,
      "kao": 723,
      "##nju": 724,
      "20": 725,
      "pr": 726,
      "##kon": 727,
      "##mje": 728,
      "##ge": 729,
      "##vno": 730,
      "##cije": 731,
      "##kom": 732,
      "pos": 733,
      "##ho": 734,
      "\",": 735,
      "pe": 736,
      "če": 737,
      "##jo": 738,
      "sam": 739,
      "##ska": 740,
      "##đe": 741,
      "##tak": 742,
      "##ze": 743,
      "be": 744,
      "pi": 745,
      "is": 746,
      "ga": 747,
      "nakon": 748,
      "pod": 749,
      "##mu": 750,
      "pra": 751,
      "jed": 752,
      "tu": 753,
      "pot": 754,
      "ju": 755,
      "du": 756,
      "zna": 757,
      "mje": 758,
      "ru": 759,
      "##stu": 760,
      "##pre": 761,
      "lo": 762,
      "godine": 763,
      "##pra": 764,
      "##vić": 765,
      "##vni": 766,
      "la": 767,
      "pla": 768,
      "mu": 769,
      "ovo": 770,
      "dje": 771,
      "lju": 772,
      "fi": 773,
      "smo": 774,
      "ili": 775,
      "##rža": 776,
      "biti": 777,
      "##tni": 778,
      "dana": 779,
      "ot": 780,
      "##zu": 781,
      "##sje": 782,
      "ro": 783,
      "kon": 784,
      "##zna": 785,
      "koja": 786,
      "gla": 787,
      "##so": 788,
      "samo": 789,
      "##sni": 790,
      "##rt": 791,
      "tako": 792,
      "bu": 793,
      "uz": 794,
      "##đa": 795,
      "##đu": 796,
      "više": 797,
      "prije": 798,
      "##bu": 799,
      "bio": 800,
      "tra": 801,
      "##tno": 802,
      "##liko": 803,
      "nji": 804,
      "us": 805,
      "##vlja": 806,
      "##dio": 807,
      "svi": 808,
      "##govo": 809,
      "##skog": 810,
      "##rno": 811,
      "##tra": 812,
      "kra": 813,
      "##\",": 814,
      "ži": 815,
      "igra": 816,
      "##rati": 817,
      "poli": 818,
      "##dno": 819,
      "vla": 820,
      "##men": 821,
      "##kao": 822,
      "##dan": 823,
      "još": 824,
      "može": 825,
      "že": 826,
      "\"\",": 827,
      "či": 828,
      "##or": 829,
      "##šta": 830,
      "##gle": 831,
      "jer": 832,
      "stra": 833,
      "zbo": 834,
      "##fi": 835,
      "##ha": 836,
      "##gre": 837,
      "##rni": 838,
      "##tiv": 839,
      "spo": 840,
      "zbog": 841,
      "osta": 842,
      "le": 843,
      "##ste": 844,
      "##čki": 845,
      "treba": 846,
      "##lni": 847,
      "on": 848,
      "au": 849,
      "ova": 850,
      "ki": 851,
      "sva": 852,
      "ha": 853,
      "rekao": 854,
      "mogu": 855,
      "##nije": 856,
      "euro": 857,
      "an": 858,
      "ci": 859,
      "posto": 860,
      "##stro": 861,
      "bro": 862,
      "vr": 863,
      "##vanje": 864,
      "slu": 865,
      "##00": 866,
      "##skoj": 867,
      "##sno": 868,
      "bilo": 869,
      "rije": 870,
      "##tje": 871,
      "##ču": 872,
      "##vio": 873,
      "veli": 874,
      "vje": 875,
      "godina": 876,
      "op": 877,
      "##gla": 878,
      "\":": 879,
      "##lno": 880,
      "##vati": 881,
      "##bro": 882,
      "\":\"": 883,
      "##dra": 884,
      "##mije": 885,
      "##skom": 886,
      "##ciju": 887,
      "##skih": 888,
      "uk": 889,
      "##he": 890,
      "##stva": 891,
      "##telji": 892,
      "##št": 893,
      "##šte": 894,
      "dok": 895,
      "vrije": 896,
      "cije": 897,
      "##sku": 898,
      "202": 899,
      "ih": 900,
      "##telj": 901,
      "##fe": 902,
      "radi": 903,
      "obja": 904,
      "kada": 905,
      "sre": 906,
      "##sjedni": 907,
      "sto": 908,
      "doda": 909,
      "oso": 910,
      "##vali": 911,
      "ze": 912,
      "obi": 913,
      "već": 914,
      "##vlje": 915,
      "tri": 916,
      "prema": 917,
      "oko": 918,
      "kri": 919,
      "##čno": 920,
      "om": 921,
      "eura": 922,
      "bila": 923,
      "##van": 924,
      "##stra": 925,
      "##lije": 926,
      "##vanja": 927,
      "dstro": 928,
      "dstrok": 929,
      "fo": 930,
      "mora": 931,
      "predsjedni": 932,
      "utak": 933,
      "utakmi": 934,
      "tije": 935,
      "##ren": 936,
      "novi": 937,
      "ako": 938,
      "sla": 939,
      "zagre": 940,
      "dobi": 941,
      "##kla": 942,
      "19": 943,
      "njego": 944,
      "##rija": 945,
      "##nici": 946,
      "drža": 947,
      "##vori": 948,
      "pob": 949,
      "##tro": 950,
      "##ven": 951,
      "##ću": 952,
      "##pli": 953,
      "kad": 954,
      "##tar": 955,
      "##..": 956,
      "posta": 957,
      "or": 958,
      "sr": 959,
      "ak": 960,
      "##čko": 961,
      "##stvo": 962,
      "jp": 963,
      "fa": 964,
      "izbo": 965,
      "jpg": 966,
      "živo": 967,
      "##ona": 968,
      "ri": 969,
      "među": 970,
      "im": 971,
      "##reme": 972,
      "##što": 973,
      "##20": 974,
      "##kri": 975,
      "lu": 976,
      "##ter": 977,
      "so": 978,
      "##lim": 979,
      "##joj": 980,
      "10": 981,
      "ljudi": 982,
      "nas": 983,
      "odlu": 984,
      "##hi": 985,
      "kre": 986,
      "ho": 987,
      "auto": 988,
      "ča": 989,
      "sje": 990,
      "##ng": 991,
      "ove": 992,
      "##jom": 993,
      "kori": 994,
      "##kre": 995,
      "##ner": 996,
      "dva": 997,
      "jedan": 998,
      "##viti": 999,
      "slo": 1000,
      "svoje": 1001,
      "##tko": 1002,
      "##tom": 1003,
      "svje": 1004,
      "##bli": 1005,
      "bez": 1006,
      "##ciji": 1007,
      "neko": 1008,
      "tr": 1009,
      "mla": 1010,
      "##nika": 1011,
      "...": 1012,
      "sti": 1013,
      "protiv": 1014,
      "##nica": 1015,
      "bra": 1016,
      "\".": 1017,
      "##om": 1018,
      "njiho": 1019,
      "odno": 1020,
      "sada": 1021,
      "##vom": 1022,
      "nema": 1023,
      "stva": 1024,
      "##šti": 1025,
      "poče": 1026,
      "drugi": 1027,
      "nasta": 1028,
      "##80": 1029,
      "iza": 1030,
      "upra": 1031,
      "##lazi": 1032,
      "##vima": 1033,
      "##rom": 1034,
      "##bno": 1035,
      "mar": 1036,
      "klu": 1037,
      "##ško": 1038,
      "##jte": 1039,
      "##pri": 1040,
      "mili": 1041,
      "pita": 1042,
      "gdje": 1043,
      "nam": 1044,
      "še": 1045,
      "##gleda": 1046,
      "##ble": 1047,
      "stu": 1048,
      "##žu": 1049,
      "##nima": 1050,
      "##spo": 1051,
      "europ": 1052,
      "lije": 1053,
      "##dar": 1054,
      "##voj": 1055,
      "osi": 1056,
      "##pisa": 1057,
      "##čke": 1058,
      "taj": 1059,
      "nego": 1060,
      "izra": 1061,
      "pje": 1062,
      "broj": 1063,
      "##met": 1064,
      "trenu": 1065,
      "prvi": 1066,
      "##jek": 1067,
      "##40": 1068,
      "sigu": 1069,
      "par": 1070,
      "##sla": 1071,
      "##cima": 1072,
      "sma": 1073,
      "sad": 1074,
      "##nt": 1075,
      "pobje": 1076,
      "dije": 1077,
      "pomo": 1078,
      "dobro": 1079,
      "##ruč": 1080,
      "prija": 1081,
      "##log": 1082,
      "obra": 1083,
      "ste": 1084,
      "tvr": 1085,
      "##kup": 1086,
      "ovi": 1087,
      "nisu": 1088,
      "ši": 1089,
      "zdra": 1090,
      "danas": 1091,
      "##rao": 1092,
      "pove": 1093,
      "##godi": 1094,
      "##vila": 1095,
      "##sre": 1096,
      "ce": 1097,
      "##tka": 1098,
      "##pje": 1099,
      "hrvatske": 1100,
      "toga": 1101,
      "##šao": 1102,
      "##stup": 1103,
      "##for": 1104,
      "##cij": 1105,
      "##nski": 1106,
      "vrijeme": 1107,
      "##nost": 1108,
      "##nuti": 1109,
      "##jući": 1110,
      "##_2": 1111,
      "##tvr": 1112,
      "fina": 1113,
      "##iz": 1114,
      "##dne": 1115,
      "pozi": 1116,
      "kod": 1117,
      "mini": 1118,
      "ško": 1119,
      "nu": 1120,
      "##nik": 1121,
      "##lan": 1122,
      "proble": 1123,
      "al": 1124,
      "društ": 1125,
      "poka": 1126,
      "godiš": 1127,
      "zaje": 1128,
      "politi": 1129,
      "grad": 1130,
      "svije": 1131,
      "predsta": 1132,
      "proš": 1133,
      "ide": 1134,
      "dio": 1135,
      "popu": 1136,
      "dina": 1137,
      "žu": 1138,
      "##ndi": 1139,
      "lje": 1140,
      "##nuo": 1141,
      "napa": 1142,
      "##nosti": 1143,
      "spli": 1144,
      "neki": 1145,
      "medi": 1146,
      "##tor": 1147,
      "isto": 1148,
      "##on": 1149,
      "##tua": 1150,
      "oz": 1151,
      "##tim": 1152,
      "##lom": 1153,
      "zah": 1154,
      "isti": 1155,
      "bili": 1156,
      "sezo": 1157,
      "drugo": 1158,
      "mjese": 1159,
      "pose": 1160,
      "potre": 1161,
      "tijekom": 1162,
      "najbo": 1163,
      "kom": 1164,
      "ov": 1165,
      "##el": 1166,
      "ar": 1167,
      "##dom": 1168,
      "poslje": 1169,
      "##vao": 1170,
      "##star": 1171,
      "##skim": 1172,
      "gu": 1173,
      "##meta": 1174,
      "nekoliko": 1175,
      "##man": 1176,
      "rea": 1177,
      "en": 1178,
      "kro": 1179,
      "##vara": 1180,
      "dra": 1181,
      "cr": 1182,
      "zem": 1183,
      "oba": 1184,
      "tje": 1185,
      "foto": 1186,
      "doma": 1187,
      "dan": 1188,
      "vide": 1189,
      "##vijek": 1190,
      "istra": 1191,
      "svoji": 1192,
      "ukra": 1193,
      "zavr": 1194,
      "mis": 1195,
      "poru": 1196,
      "##nko": 1197,
      "##tjeca": 1198,
      "koju": 1199,
      "),": 1200,
      "pozna": 1201,
      "dvo": 1202,
      "##ciona": 1203,
      "12": 1204,
      "otkri": 1205,
      "##lne": 1206,
      "upo": 1207,
      "##vaju": 1208,
      "proiz": 1209,
      "dr": 1210,
      "##bra": 1211,
      "uspje": 1212,
      "##gao": 1213,
      "##pan": 1214,
      "kaza": 1215,
      "##lek": 1216,
      "jedno": 1217,
      "orga": 1218,
      "##dna": 1219,
      "fe": 1220,
      "umje": 1221,
      "##rio": 1222,
      "kaže": 1223,
      "##nice": 1224,
      "##ška": 1225,
      "nogo": 1226,
      "malo": 1227,
      "osje": 1228,
      "sati": 1229,
      "nika": 1230,
      "ša": 1231,
      "##diti": 1232,
      "##sam": 1233,
      "prili": 1234,
      "sna": 1235,
      "ona": 1236,
      "sku": 1237,
      "br": 1238,
      "projek": 1239,
      "15": 1240,
      "hi": 1241,
      "miliju": 1242,
      "##dnji": 1243,
      "prva": 1244,
      "##pla": 1245,
      "odgovo": 1246,
      "ge": 1247,
      "##rta": 1248,
      "puno": 1249,
      "##vija": 1250,
      "uvijek": 1251,
      "##vog": 1252,
      "##čio": 1253,
      "hrvatskoj": 1254,
      "##zira": 1255,
      "jedna": 1256,
      "nešto": 1257,
      "sigurno": 1258,
      "poslo": 1259,
      "##dnje": 1260,
      "27": 1261,
      "proizvo": 1262,
      "oni": 1263,
      "##zul": 1264,
      "##vne": 1265,
      "##đer": 1266,
      "put": 1267,
      "##niji": 1268,
      "##meri": 1269,
      "tome": 1270,
      "jako": 1271,
      "nad": 1272,
      "također": 1273,
      "##gen": 1274,
      "##nira": 1275,
      "##tku": 1276,
      "pono": 1277,
      "hrvatska": 1278,
      "pet": 1279,
      "organi": 1280,
      "njezi": 1281,
      "##tan": 1282,
      "tro": 1283,
      "jedi": 1284,
      "##žbe": 1285,
      "dvije": 1286,
      "##nk": 1287,
      "inte": 1288,
      "oče": 1289,
      "zapo": 1290,
      "##zen": 1291,
      "##rima": 1292,
      "poja": 1293,
      "vozi": 1294,
      "ameri": 1295,
      "##tivno": 1296,
      "##stve": 1297,
      "##vna": 1298,
      "ukraji": 1299,
      "##ako": 1300,
      "rezul": 1301,
      "ovaj": 1302,
      "##nosi": 1303,
      "##nti": 1304,
      "##vore": 1305,
      "##klju": 1306,
      "he": 1307,
      "izme": 1308,
      "##lano": 1309,
      "svjet": 1310,
      "##đen": 1311,
      "##tne": 1312,
      "##vala": 1313,
      "fil": 1314,
      "##nio": 1315,
      "bri": 1316,
      "##kvi": 1317,
      "##_27": 1318,
      "##vnog": 1319,
      "##hu": 1320,
      "cen": 1321,
      "##ver": 1322,
      "201": 1323,
      "iako": 1324,
      "tek": 1325,
      "sko": 1326,
      "ono": 1327,
      "govori": 1328,
      "ope": 1329,
      "##volj": 1330,
      "prote": 1331,
      "30": 1332,
      "##čka": 1333,
      "gle": 1334,
      "haj": 1335,
      "predsjednik": 1336,
      "ču": 1337,
      "ple": 1338,
      "doga": 1339,
      "najve": 1340,
      "ras": 1341,
      "##jem": 1342,
      "##rak": 1343,
      "ministar": 1344,
      "##čin": 1345,
      "##red": 1346,
      "budu": 1347,
      "vreme": 1348,
      "##klo": 1349,
      "pogo": 1350,
      "održa": 1351,
      "kojima": 1352,
      "##vili": 1353,
      "fran": 1354,
      "ke": 1355,
      "rekla": 1356,
      "rezulta": 1357,
      "neće": 1358,
      "voj": 1359,
      "##nd": 1360,
      "##telja": 1361,
      "##ss": 1362,
      "milijuna": 1363,
      "vu": 1364,
      "##vši": 1365,
      "čak": 1366,
      "vrlo": 1367,
      "napra": 1368,
      "##risti": 1369,
      "onda": 1370,
      "ista": 1371,
      "video": 1372,
      "##voji": 1373,
      "##dova": 1374,
      "##njem": 1375,
      "##gli": 1376,
      "imaju": 1377,
      "kojem": 1378,
      "##tio": 1379,
      "veći": 1380,
      "##nj": 1381,
      "##ted": 1382,
      "##tiri": 1383,
      "gleda": 1384,
      "tru": 1385,
      "dese": 1386,
      "##žno": 1387,
      "zagreba": 1388,
      "hajdu": 1389,
      "sli": 1390,
      "dalje": 1391,
      "uvje": 1392,
      "##zenta": 1393,
      "mnog": 1394,
      "spa": 1395,
      "##čni": 1396,
      "navo": 1397,
      "tko": 1398,
      "područ": 1399,
      "sluča": 1400,
      "##in": 1401,
      "vodi": 1402,
      "uklju": 1403,
      "koliko": 1404,
      "svoj": 1405,
      "između": 1406,
      "tom": 1407,
      "situa": 1408,
      "##op": 1409,
      "poku": 1410,
      "##pak": 1411,
      "vra": 1412,
      "naš": 1413,
      "kroz": 1414,
      "vije": 1415,
      "veliki": 1416,
      "nova": 1417,
      "11": 1418,
      "progra": 1419,
      "##nda": 1420,
      "kojoj": 1421,
      "vam": 1422,
      "mre": 1423,
      "##jan": 1424,
      "repre": 1425,
      "razli": 1426,
      "njema": 1427,
      "##nija": 1428,
      "##tovo": 1429,
      "vara": 1430,
      "kr": 1431,
      "tada": 1432,
      "##više": 1433,
      "pokaza": 1434,
      "##kra": 1435,
      "prosto": 1436,
      "događa": 1437,
      "svojim": 1438,
      "##njak": 1439,
      "njih": 1440,
      "reprezenta": 1441,
      "naše": 1442,
      "##vnom": 1443,
      "##vreme": 1444,
      "mom": 1445,
      "bli": 1446,
      "##niti": 1447,
      "građa": 1448,
      "dugo": 1449,
      "dola": 1450,
      "joj": 1451,
      "##dru": 1452,
      "##forma": 1453,
      "smje": 1454,
      "susta": 1455,
      "pripre": 1456,
      "bit": 1457,
      "ćemo": 1458,
      "##nera": 1459,
      "publi": 1460,
      "četvr": 1461,
      "##dri": 1462,
      "##stru": 1463,
      "obje": 1464,
      "ula": 1465,
      "##smo": 1466,
      "##bri": 1467,
      "svoju": 1468,
      "##kr": 1469,
      "sup": 1470,
      "##đi": 1471,
      "neka": 1472,
      "uči": 1473,
      "kvali": 1474,
      "loka": 1475,
      "župa": 1476,
      "##čić": 1477,
      "smatra": 1478,
      "glaz": 1479,
      "##nta": 1480,
      "bor": 1481,
      "glu": 1482,
      "##stri": 1483,
      "##čne": 1484,
      "komen": 1485,
      "##ks": 1486,
      "##vla": 1487,
      "##kli": 1488,
      "bih": 1489,
      "##tke": 1490,
      "zajedni": 1491,
      "mjesto": 1492,
      "##čkog": 1493,
      "minu": 1494,
      "pret": 1495,
      "puta": 1496,
      "pogleda": 1497,
      "ljuba": 1498,
      "hd": 1499,
      "18": 1500,
      "##tira": 1501,
      "##zne": 1502,
      "poput": 1503,
      "fu": 1504,
      "##vor": 1505,
      "radio": 1506,
      "##nama": 1507,
      "##roja": 1508,
      "vidje": 1509,
      "ime": 1510,
      "##kle": 1511,
      "zo": 1512,
      "ure": 1513,
      "13": 1514,
      "prona": 1515,
      "inter": 1516,
      "konce": 1517,
      "kandi": 1518,
      "##nske": 1519,
      "pora": 1520,
      "jednom": 1521,
      "zašti": 1522,
      "prven": 1523,
      "##bio": 1524,
      "##ždi": 1525,
      "zdrav": 1526,
      "##noj": 1527,
      "##24": 1528,
      "preko": 1529,
      "##an": 1530,
      "osoba": 1531,
      "2024": 1532,
      "vrati": 1533,
      "četiri": 1534,
      "osigu": 1535,
      "slobo": 1536,
      "varaždi": 1537,
      "##tima": 1538,
      "istak": 1539,
      "iva": 1540,
      "##nova": 1541,
      "dinamo": 1542,
      "službe": 1543,
      "mladi": 1544,
      "društve": 1545,
      "osim": 1546,
      "##ct": 1547,
      "split": 1548,
      "želi": 1549,
      "##titi": 1550,
      "zat": 1551,
      "izja": 1552,
      "##nače": 1553,
      "',": 1554,
      "pokuša": 1555,
      "način": 1556,
      "##per": 1557,
      "##lova": 1558,
      "primje": 1559,
      "hra": 1560,
      "gr": 1561,
      "tak": 1562,
      "život": 1563,
      "17": 1564,
      "druge": 1565,
      "grada": 1566,
      "000": 1567,
      "zra": 1568,
      "##ry": 1569,
      "##ški": 1570,
      "naja": 1571,
      "osvoji": 1572,
      "javno": 1573,
      "kar": 1574,
      "posje": 1575,
      "uda": 1576,
      "kul": 1577,
      "tisu": 1578,
      "##kto": 1579,
      "podi": 1580,
      "##vim": 1581,
      "##nci": 1582,
      "hrvatski": 1583,
      "##riti": 1584,
      "##vede": 1585,
      "manje": 1586,
      "utakmice": 1587,
      "doš": 1588,
      "piše": 1589,
      "odnosno": 1590,
      "ipak": 1591,
      "imao": 1592,
      "kru": 1593,
      "##šnje": 1594,
      "##šnji": 1595,
      "sport": 1596,
      "kandida": 1597,
      "nastu": 1598,
      "##mis": 1599,
      "hr": 1600,
      "povije": 1601,
      "##ll": 1602,
      "spre": 1603,
      "##rna": 1604,
      "prvo": 1605,
      "##štu": 1606,
      "gru": 1607,
      "##co": 1608,
      "##stvu": 1609,
      "mnogi": 1610,
      "##mir": 1611,
      "##rne": 1612,
      "sura": 1613,
      "##sao": 1614,
      "##čiti": 1615,
      "teško": 1616,
      "##movi": 1617,
      "promje": 1618,
      "bla": 1619,
      "hdz": 1620,
      "##fa": 1621,
      "susre": 1622,
      "50": 1623,
      "srp": 1624,
      "navija": 1625,
      "ski": 1626,
      "tim": 1627,
      "pone": 1628,
      "##bije": 1629,
      "skupi": 1630,
      "ovom": 1631,
      "stran": 1632,
      "obitelji": 1633,
      "vas": 1634,
      "pokre": 1635,
      "##ksi": 1636,
      "##vesti": 1637,
      "razi": 1638,
      "16": 1639,
      "##bora": 1640,
      "pravo": 1641,
      "dubro": 1642,
      "dogodi": 1643,
      "ener": 1644,
      "posebno": 1645,
      "##com": 1646,
      "##tara": 1647,
      "sezone": 1648,
      "uli": 1649,
      "natjeca": 1650,
      "nove": 1651,
      "usta": 1652,
      "vode": 1653,
      "gro": 1654,
      "kla": 1655,
      "er": 1656,
      "viso": 1657,
      "naciona": 1658,
      "ovog": 1659,
      "odu": 1660,
      "##nula": 1661,
      "maj": 1662,
      "##čili": 1663,
      "nisam": 1664,
      "ulo": 1665,
      "potvr": 1666,
      "završi": 1667,
      "##šu": 1668,
      "##jeli": 1669,
      "##nal": 1670,
      "##mpa": 1671,
      "vlasti": 1672,
      "svako": 1673,
      "gotovo": 1674,
      "koristi": 1675,
      "##šić": 1676,
      "strane": 1677,
      "teh": 1678,
      "##dam": 1679,
      "čo": 1680,
      "gospo": 1681,
      "vremena": 1682,
      "poveća": 1683,
      "##pada": 1684,
      "##cted": 1685,
      "zaklju": 1686,
      "regi": 1687,
      "##čer": 1688,
      "##vanju": 1689,
      "##ck": 1690,
      "##ljede": 1691,
      "([": 1692,
      "fotogra": 1693,
      "##nali": 1694,
      "##mobi": 1695,
      "1024": 1696,
      "##cijama": 1697,
      "protected": 1698,
      "##tri": 1699,
      "svih": 1700,
      "##plo": 1701,
      "potpu": 1702,
      "##ime": 1703,
      "mari": 1704,
      "pote": 1705,
      "##tet": 1706,
      "unu": 1707,
      "kazao": 1708,
      "one": 1709,
      "informa": 1710,
      "mjesta": 1711,
      "proda": 1712,
      "25": 1713,
      "tere": 1714,
      "naši": 1715,
      "automobi": 1716,
      "šu": 1717,
      "##rac": 1718,
      "njega": 1719,
      "##glasi": 1720,
      "##nka": 1721,
      "organiza": 1722,
      "##lma": 1723,
      "odre": 1724,
      "##lić": 1725,
      "premije": 1726,
      "baš": 1727,
      "rodi": 1728,
      "##sne": 1729,
      "14": 1730,
      "##žda": 1731,
      "imati": 1732,
      "##vnih": 1733,
      "vidi": 1734,
      "kultu": 1735,
      "##ch": 1736,
      "obitelj": 1737,
      "##pusti": 1738,
      ").": 1739,
      "ostva": 1740,
      "stude": 1741,
      "poda": 1742,
      "sudje": 1743,
      "rje": 1744,
      "##ške": 1745,
      "##govara": 1746,
      "kraju": 1747,
      "una": 1748,
      "nagra": 1749,
      "##ment": 1750,
      "##čkih": 1751,
      "##tre": 1752,
      "možda": 1753,
      "oda": 1754,
      "##ljivo": 1755,
      "of": 1756,
      "sasta": 1757,
      "ništa": 1758,
      "nosi": 1759,
      "kli": 1760,
      "sredi": 1761,
      "##rica": 1762,
      "kolo": 1763,
      "##mp": 1764,
      "bude": 1765,
      "zato": 1766,
      "upravo": 1767,
      "glazbe": 1768,
      "isku": 1769,
      "co": 1770,
      "knji": 1771,
      "nju": 1772,
      "##čan": 1773,
      "##zni": 1774,
      "obo": 1775,
      "sm": 1776,
      "teme": 1777,
      "rad": 1778,
      "odma": 1779,
      "##ranje": 1780,
      "at": 1781,
      "milano": 1782,
      "part": 1783,
      "utakmica": 1784,
      "supru": 1785,
      "##pozna": 1786,
      "muška": 1787,
      "##čaj": 1788,
      "for": 1789,
      "policija": 1790,
      "##ar": 1791,
      "##vra": 1792,
      "mogao": 1793,
      "mode": 1794,
      "##cio": 1795,
      "kazne": 1796,
      "emo": 1797,
      "njima": 1798,
      "momča": 1799,
      "zagrebu": 1800,
      "dire": 1801,
      "##teta": 1802,
      "mate": 1803,
      "##hva": 1804,
      "##tem": 1805,
      "##80x": 1806,
      "uo": 1807,
      "polu": 1808,
      "200": 1809,
      "riječ": 1810,
      "radni": 1811,
      "##lna": 1812,
      "ivan": 1813,
      "nesre": 1814,
      "grado": 1815,
      "em": 1816,
      "klju": 1817,
      "sred": 1818,
      "##40x": 1819,
      "neke": 1820,
      "##riji": 1821,
      "najbolji": 1822,
      "istraži": 1823,
      "vlada": 1824,
      "tran": 1825,
      "nedje": 1826,
      "##ljem": 1827,
      "izgu": 1828,
      "godinu": 1829,
      "napo": 1830,
      "svaki": 1831,
      "spe": 1832,
      "tele": 1833,
      "osjeća": 1834,
      "##čkoj": 1835,
      "zapa": 1836,
      "stru": 1837,
      "plenko": 1838,
      "francu": 1839,
      "deset": 1840,
      "kojeg": 1841,
      "object": 1842,
      "##as": 1843,
      "##mogu": 1844,
      "njegova": 1845,
      "čeka": 1846,
      "##lnih": 1847,
      "djela": 1848,
      "njegov": 1849,
      "##prije": 1850,
      "##dili": 1851,
      "##tin": 1852,
      "##uze": 1853,
      "##tna": 1854,
      "pogledajte": 1855,
      "21": 1856,
      "imamo": 1857,
      "dodao": 1858,
      "##snije": 1859,
      "napada": 1860,
      "and": 1861,
      "24": 1862,
      "##san": 1863,
      "pitanje": 1864,
      "špan": 1865,
      "##rić": 1866,
      "otvore": 1867,
      "##dila": 1868,
      "zla": 1869,
      "##ković": 1870,
      "##hvati": 1871,
      "##rana": 1872,
      "##kav": 1873,
      "podr": 1874,
      "##čna": 1875,
      "zi": 1876,
      "karije": 1877,
      "imali": 1878,
      "opa": 1879,
      "##vih": 1880,
      "##kuje": 1881,
      "priča": 1882,
      "##ljen": 1883,
      "često": 1884,
      "bar": 1885,
      "šest": 1886,
      "zako": 1887,
      "##oj": 1888,
      "promet": 1889,
      "##sna": 1890,
      "##šnja": 1891,
      "inf": 1892,
      "druga": 1893,
      "važ": 1894,
      "bolni": 1895,
      "upozo": 1896,
      "##lnik": 1897,
      "nja": 1898,
      "subo": 1899,
      "##vica": 1900,
      "prizna": 1901,
      "pru": 1902,
      "##rali": 1903,
      "zado": 1904,
      "repu": 1905,
      "##pro": 1906,
      "##ncija": 1907,
      "dalma": 1908,
      "id": 1909,
      "napisa": 1910,
      "dne": 1911,
      "mislim": 1912,
      "##zak": 1913,
      "##_271": 1914,
      "novo": 1915,
      "posla": 1916,
      "svom": 1917,
      "španjo": 1918,
      "pjes": 1919,
      "izgleda": 1920,
      "mjestu": 1921,
      "niko": 1922,
      "čini": 1923,
      "##lnog": 1924,
      "##sle": 1925,
      "##lio": 1926,
      "##ton": 1927,
      "eki": 1928,
      "vlasni": 1929,
      "bolje": 1930,
      "ovdje": 1931,
      "##kve": 1932,
      "00": 1933,
      "stvari": 1934,
      "možemo": 1935,
      "podsje": 1936,
      "##čkom": 1937,
      "uspo": 1938,
      "zašto": 1939,
      "podu": 1940,
      "trgo": 1941,
      "##vnik": 1942,
      "struč": 1943,
      "pomoć": 1944,
      "sebe": 1945,
      "##bija": 1946,
      "##rovi": 1947,
      "oti": 1948,
      "ukup": 1949,
      "##cje": 1950,
      "##er": 1951,
      "njegovo": 1952,
      "##mpe": 1953,
      "kraj": 1954,
      "naime": 1955,
      "dosta": 1956,
      "novina": 1957,
      "republi": 1958,
      "optu": 1959,
      "##jedi": 1960,
      "opći": 1961,
      "raspo": 1962,
      "ponu": 1963,
      "posao": 1964,
      "poz": 1965,
      "##bar": 1966,
      "##kova": 1967,
      "odra": 1968,
      "hu": 1969,
      "traži": 1970,
      "ću": 1971,
      "##lle": 1972,
      "problem": 1973,
      "čovje": 1974,
      "sd": 1975,
      "##pio": 1976,
      "dobio": 1977,
      "##bor": 1978,
      "##ljak": 1979,
      "predsjednika": 1980,
      "izrael": 1981,
      "voza": 1982,
      "##rojatno": 1983,
      "cu": 1984,
      "posti": 1985,
      "kasnije": 1986,
      "španjol": 1987,
      "udru": 1988,
      "2720": 1989,
      "opo": 1990,
      "odmah": 1991,
      "neo": 1992,
      "zajedno": 1993,
      "uče": 1994,
      "kate": 1995,
      "##dovi": 1996,
      "minuti": 1997,
      "##čar": 1998,
      "svim": 1999,
      "poma": 2000,
      "života": 2001,
      "obzi": 2002,
      "##glo": 2003,
      "##ćem": 2004,
      "kraja": 2005,
      "raču": 2006,
      "elek": 2007,
      "zahva": 2008,
      "utjeca": 2009,
      "vjeru": 2010,
      "uži": 2011,
      "stano": 2012,
      "odi": 2013,
      "polj": 2014,
      "sud": 2015,
      "znači": 2016,
      "ad": 2017,
      "##cla": 2018,
      "##tki": 2019,
      "##pred": 2020,
      "prošle": 2021,
      "##rani": 2022,
      "trener": 2023,
      "najviše": 2024,
      "pp": 2025,
      "izda": 2026,
      "osno": 2027,
      "##vljen": 2028,
      "##nskog": 2029,
      "##tkom": 2030,
      "pobije": 2031,
      "vozila": 2032,
      "hrvatsku": 2033,
      "velika": 2034,
      "priro": 2035,
      "bole": 2036,
      "posljednji": 2037,
      "ugovo": 2038,
      "##rtu": 2039,
      "zagreb": 2040,
      "veliko": 2041,
      "hrvatskog": 2042,
      "name": 2043,
      "save": 2044,
      "nalazi": 2045,
      "komu": 2046,
      "savje": 2047,
      "tamo": 2048,
      "kola": 2049,
      "idu": 2050,
      "nov": 2051,
      "svijetu": 2052,
      "gi": 2053,
      "##nata": 2054,
      "sun": 2055,
      "minuta": 2056,
      "ska": 2057,
      "nogomet": 2058,
      "odje": 2059,
      "postoji": 2060,
      "the": 2061,
      "##rava": 2062,
      "##šlja": 2063,
      "domaći": 2064,
      "##rma": 2065,
      "##vnim": 2066,
      "uključu": 2067,
      "##ktor": 2068,
      "pola": 2069,
      "kontro": 2070,
      "vrijedno": 2071,
      "##dnja": 2072,
      "olim": 2073,
      "poči": 2074,
      "sce": 2075,
      "međutim": 2076,
      "djece": 2077,
      "možete": 2078,
      "film": 2079,
      "gol": 2080,
      "100": 2081,
      "##blje": 2082,
      "##class": 2083,
      "##stima": 2084,
      "aktivno": 2085,
      "neda": 2086,
      "predstavlja": 2087,
      "trži": 2088,
      "pona": 2089,
      "mogli": 2090,
      "##zuje": 2091,
      "ponovno": 2092,
      "oči": 2093,
      "##dclass": 2094,
      "dolazi": 2095,
      "stdclass": 2096,
      "izvo": 2097,
      "sljede": 2098,
      "22": 2099,
      "zlo": 2100,
      "##ved": 2101,
      "osu": 2102,
      "djelo": 2103,
      "##ut": 2104,
      "naro": 2105,
      "##opće": 2106,
      "neza": 2107,
      "##tali": 2108,
      "##raju": 2109,
      "niti": 2110,
      "##nović": 2111,
      "##piti": 2112,
      "prvaka": 2113,
      "##rala": 2114,
      "pjeva": 2115,
      "ispo": 2116,
      "tisuća": 2117,
      "izne": 2118,
      "##zima": 2119,
      "uni": 2120,
      "toliko": 2121,
      "##nin": 2122,
      "olimpi": 2123,
      "evo": 2124,
      "ovu": 2125,
      "odli": 2126,
      "utakmicu": 2127,
      "suda": 2128,
      "sklo": 2129,
      "prati": 2130,
      "##žen": 2131,
      "proce": 2132,
      "##čku": 2133,
      "##loga": 2134,
      "##ćen": 2135,
      "problema": 2136,
      "##ljiv": 2137,
      "##rka": 2138,
      "##che": 2139,
      "gor": 2140,
      "jednu": 2141,
      "##jski": 2142,
      "odigra": 2143,
      "##nde": 2144,
      "##pravo": 2145,
      "ivo": 2146,
      "##il": 2147,
      "klub": 2148,
      "ranije": 2149,
      "##nuli": 2150,
      "##vnika": 2151,
      "provo": 2152,
      "##šli": 2153,
      "image": 2154,
      "omogu": 2155,
      "pore": 2156,
      "profe": 2157,
      "sum": 2158,
      "##njen": 2159,
      "##12": 2160,
      "##naro": 2161,
      "osobe": 2162,
      "jednosta": 2163,
      "kvalite": 2164,
      "##tnika": 2165,
      "lige": 2166,
      "kole": 2167,
      "pravi": 2168,
      "##lnim": 2169,
      "nave": 2170,
      "##kti": 2171,
      "oto": 2172,
      "23": 2173,
      "zapravo": 2174,
      "plo": 2175,
      "nara": 2176,
      "prava": 2177,
      "##slu": 2178,
      "##voljno": 2179,
      "području": 2180,
      "najveći": 2181,
      "##kva": 2182,
      "srije": 2183,
      "produ": 2184,
      "šte": 2185,
      "##ratu": 2186,
      "##rili": 2187,
      "##renje": 2188,
      "jednog": 2189,
      "eko": 2190,
      "##vre": 2191,
      "plaća": 2192,
      "tempe": 2193,
      "kluba": 2194,
      "##tnih": 2195,
      "bije": 2196,
      "festi": 2197,
      "##šku": 2198,
      "##ris": 2199,
      "##kako": 2200,
      "demo": 2201,
      "##lina": 2202,
      "izgra": 2203,
      "svog": 2204,
      "ozbi": 2205,
      "##čila": 2206,
      "time": 2207,
      "netko": 2208,
      "##fina": 2209,
      "mno": 2210,
      "##gije": 2211,
      "##sija": 2212,
      "ljubav": 2213,
      "veza": 2214,
      "policij": 2215,
      "moguć": 2216,
      "upravlja": 2217,
      "reći": 2218,
      "deta": 2219,
      "iznena": 2220,
      "##bje": 2221,
      "2023": 2222,
      "zahtje": 2223,
      "ben": 2224,
      "šo": 2225,
      "bivši": 2226,
      "turisti": 2227,
      "sudjelo": 2228,
      "##vaja": 2229,
      "##nac": 2230,
      "kilo": 2231,
      "ozlije": 2232,
      "oku": 2233,
      "vatro": 2234,
      "temperatu": 2235,
      "trenutku": 2236,
      "##mbe": 2237,
      "##zem": 2238,
      "boga": 2239,
      "vjerojatno": 2240,
      "kona": 2241,
      "sja": 2242,
      "eks": 2243,
      "##jna": 2244,
      "petak": 2245,
      "obzirom": 2246,
      "##nstve": 2247,
      "manda": 2248,
      "imala": 2249,
      "tradi": 2250,
      "##rice": 2251,
      "zastup": 2252,
      "super": 2253,
      "##rnik": 2254,
      "##rem": 2255,
      "hajduk": 2256,
      "##up": 2257,
      "##kama": 2258,
      "##žava": 2259,
      "og": 2260,
      "ponedje": 2261,
      "##she": 2262,
      "##stitu": 2263,
      "##feren": 2264,
      "unutar": 2265,
      "nismo": 2266,
      "prvom": 2267,
      "##br": 2268,
      "##cama": 2269,
      "##al": 2270,
      "vlade": 2271,
      "tog": 2272,
      "igrača": 2273,
      "gospodar": 2274,
      "utvr": 2275,
      "drugom": 2276,
      "##jske": 2277,
      "pisa": 2278,
      "crve": 2279,
      "kojim": 2280,
      "izazo": 2281,
      "nogometa": 2282,
      "zemlje": 2283,
      "kup": 2284,
      "##đenje": 2285,
      "najbolje": 2286,
      "brzo": 2287,
      "stan": 2288,
      "40": 2289,
      "##lar": 2290,
      "##lue": 2291,
      "djevoj": 2292,
      "ty": 2293,
      "##mira": 2294,
      "genera": 2295,
      "##ktu": 2296,
      "##dnim": 2297,
      "pomoći": 2298,
      "misli": 2299,
      "##gled": 2300,
      "##kaza": 2301,
      "##čima": 2302,
      "zdravstve": 2303,
      "nedo": 2304,
      "##tnik": 2305,
      "potom": 2306,
      "##vića": 2307,
      "trans": 2308,
      "##ksu": 2309,
      "##čen": 2310,
      "zele": 2311,
      "člano": 2312,
      "##son": 2313,
      "gradonače": 2314,
      "sedam": 2315,
      "per": 2316,
      "##lost": 2317,
      "opet": 2318,
      "luka": 2319,
      "godišnji": 2320,
      "opre": 2321,
      "čega": 2322,
      "korisni": 2323,
      "##tić": 2324,
      "##laze": 2325,
      "studi": 2326,
      "finan": 2327,
      "fotografi": 2328,
      "objavio": 2329,
      "međunaro": 2330,
      "rješe": 2331,
      "##šće": 2332,
      "##lih": 2333,
      "##mat": 2334,
      "##den": 2335,
      "##nak": 2336,
      "očeki": 2337,
      "mjeseci": 2338,
      "povje": 2339,
      "alias": 2340,
      "hla": 2341,
      "##bre": 2342,
      "##nos": 2343,
      "##shed": 2344,
      "aj": 2345,
      "ok": 2346,
      "zgra": 2347,
      "##lin": 2348,
      "##žiti": 2349,
      "published": 2350,
      "isko": 2351,
      "izvje": 2352,
      "mene": 2353,
      "svijeta": 2354,
      "snim": 2355,
      "##mina": 2356,
      "##lov": 2357,
      "raditi": 2358,
      "svojoj": 2359,
      "sdp": 2360,
      "##čnih": 2361,
      "izvr": 2362,
      "##pis": 2363,
      "##tnu": 2364,
      "##nicu": 2365,
      "##zor": 2366,
      "promije": 2367,
      "intere": 2368,
      "osam": 2369,
      "izvan": 2370,
      "rada": 2371,
      "zanim": 2372,
      "biv": 2373,
      "##spe": 2374,
      "##bom": 2375,
      "priva": 2376,
      "##lima": 2377,
      "mogla": 2378,
      "##đeno": 2379,
      "##rila": 2380,
      "##nad": 2381,
      "josi": 2382,
      "odvje": 2383,
      "potpuno": 2384,
      "nikad": 2385,
      "mreža": 2386,
      "##mor": 2387,
      "##šava": 2388,
      "dosa": 2389,
      "žena": 2390,
      "poduze": 2391,
      "##vijesti": 2392,
      "svega": 2393,
      "##rnost": 2394,
      "##vac": 2395,
      "##đena": 2396,
      "vatroga": 2397,
      "##dnih": 2398,
      "nama": 2399,
      "##boj": 2400,
      "navodi": 2401,
      "vidjeti": 2402,
      "slije": 2403,
      "stoji": 2404,
      "##sci": 2405,
      "insta": 2406,
      "velike": 2407,
      "istaknuo": 2408,
      "prosje": 2409,
      "funk": 2410,
      "ozbilj": 2411,
      "bile": 2412,
      "##ban": 2413,
      "znam": 2414,
      "##zda": 2415,
      "tali": 2416,
      "lip": 2417,
      "postoje": 2418,
      "##dnju": 2419,
      "razvo": 2420,
      "ji": 2421,
      "mije": 2422,
      "smije": 2423,
      "##lnu": 2424,
      "preda": 2425,
      "razgovo": 2426,
      "ovih": 2427,
      "cilj": 2428,
      "zau": 2429,
      "doku": 2430,
      "parla": 2431,
      "eli": 2432,
      "##rd": 2433,
      "group": 2434,
      "26": 2435,
      "ovoj": 2436,
      "##teljica": 2437,
      "##novi": 2438,
      "##čkim": 2439,
      "##slav": 2440,
      "sprem": 2441,
      "subotu": 2442,
      "##zije": 2443,
      "projekt": 2444,
      "usko": 2445,
      "##deri": 2446,
      "glavni": 2447,
      "2022": 2448,
      "##ćeg": 2449,
      "am": 2450,
      "očekuje": 2451,
      "agen": 2452,
      "pojedi": 2453,
      "puto": 2454,
      "##dnik": 2455,
      "nesta": 2456,
      "vrhu": 2457,
      "država": 2458,
      "##nca": 2459,
      "institu": 2460,
      "osob": 2461,
      "bru": 2462,
      "prve": 2463,
      "##teljima": 2464,
      "199": 2465,
      "namje": 2466,
      "##jima": 2467,
      "dovoljno": 2468,
      "neu": 2469,
      "##žio": 2470,
      "nom": 2471,
      "plenković": 2472,
      "slučaju": 2473,
      "društvenim": 2474,
      "povra": 2475,
      "razdo": 2476,
      "##cijom": 2477,
      "##njima": 2478,
      "veče": 2479,
      "gradu": 2480,
      "polo": 2481,
      "##mom": 2482,
      "listo": 2483,
      "trav": 2484,
      "ogra": 2485,
      "domovi": 2486,
      "priprema": 2487,
      "rado": 2488,
      ".,": 2489,
      "##bili": 2490,
      "osije": 2491,
      "##som": 2492,
      "##žić": 2493,
      "##čica": 2494,
      "##20x": 2495,
      "naravno": 2496,
      "##tori": 2497,
      "priliku": 2498,
      "##nike": 2499,
      "##der": 2500,
      "zaba": 2501,
      "jasno": 2502,
      "zaposle": 2503,
      "objasni": 2504,
      "##telje": 2505,
      "##480": 2506,
      "##gom": 2507,
      "maksi": 2508,
      "jezi": 2509,
      "##ster": 2510,
      "ugo": 2511,
      "bira": 2512,
      "planira": 2513,
      "uspješ": 2514,
      "##zija": 2515,
      "financij": 2516,
      "##rti": 2517,
      "sho": 2518,
      "brani": 2519,
      "tjedna": 2520,
      "upu": 2521,
      "psi": 2522,
      "nedjelju": 2523,
      "kriti": 2524,
      "drugih": 2525,
      "zadar": 2526,
      "##mišlja": 2527,
      "svojih": 2528,
      "uto": 2529,
      "##šla": 2530,
      "tur": 2531,
      "čla": 2532,
      "turni": 2533,
      "nedavno": 2534,
      "we": 2535,
      "lop": 2536,
      "##kuplja": 2537,
      "trebao": 2538,
      "ponedjeljak": 2539,
      "ža": 2540,
      "##menta": 2541,
      "milanović": 2542,
      "rezultat": 2543,
      "type": 2544,
      "emi": 2545,
      "##nce": 2546,
      "##ranja": 2547,
      "##tica": 2548,
      "moj": 2549,
      "poslije": 2550,
      "razu": 2551,
      "##tila": 2552,
      "ig": 2553,
      "turi": 2554,
      "##fo": 2555,
      "uslu": 2556,
      "andre": 2557,
      "rata": 2558,
      "rade": 2559,
      "premi": 2560,
      "##šen": 2561,
      "marko": 2562,
      "##vnu": 2563,
      "odnosu": 2564,
      "##zma": 2565,
      "program": 2566,
      "##tine": 2567,
      "igrati": 2568,
      "dijete": 2569,
      "##gor": 2570,
      "obu": 2571,
      "uju": 2572,
      "##fika": 2573,
      "naglasi": 2574,
      "izbje": 2575,
      "trenutno": 2576,
      "mnogo": 2577,
      "koli": 2578,
      "smi": 2579,
      "jugo": 2580,
      "##taka": 2581,
      "zatim": 2582,
      "donije": 2583,
      "skla": 2584,
      "ispri": 2585,
      "europske": 2586,
      "ivana": 2587,
      "tih": 2588,
      "ini": 2589,
      "nitko": 2590,
      "hrvatskih": 2591,
      "uzro": 2592,
      "dogovo": 2593,
      "najma": 2594,
      "obilje": 2595,
      "value": 2596,
      "posve": 2597,
      "orderi": 2598,
      "pretho": 2599,
      "ordering": 2600,
      "anali": 2601,
      "##spi": 2602,
      "##njoj": 2603,
      "cijene": 2604,
      "##1280": 2605,
      "28": 2606,
      "##ista": 2607,
      "##pisu": 2608,
      "kva": 2609,
      "moguće": 2610,
      "ele": 2611,
      "oru": 2612,
      "godini": 2613,
      "čita": 2614,
      "##ty": 2615,
      "premijer": 2616,
      "ske": 2617,
      "poveza": 2618,
      "preki": 2619,
      "##poru": 2620,
      "zemlji": 2621,
      "##drža": 2622,
      "katego": 2623,
      "deve": 2624,
      "sjeve": 2625,
      "##ns": 2626,
      "buduć": 2627,
      "##th": 2628,
      "djecu": 2629,
      "nastupa": 2630,
      "došao": 2631,
      "rat": 2632,
      "inače": 2633,
      "prepozna": 2634,
      "##jemo": 2635,
      "novog": 2636,
      "spome": 2637,
      "ovim": 2638,
      "potencija": 2639,
      "ava": 2640,
      "gre": 2641,
      "ispred": 2642,
      "značaj": 2643,
      "sije": 2644,
      "prome": 2645,
      "rijeka": 2646,
      "izbora": 2647,
      "zvije": 2648,
      "kuće": 2649,
      "uhi": 2650,
      "odr": 2651,
      "off": 2652,
      "putem": 2653,
      "poseb": 2654,
      "iznosi": 2655,
      "kupa": 2656,
      "'.": 2657,
      "29": 2658,
      "tehno": 2659,
      "##dnu": 2660,
      "##dana": 2661,
      "nog": 2662,
      "##kić": 2663,
      "##rce": 2664,
      "##dnog": 2665,
      "##laz": 2666,
      "srijedu": 2667,
      "kampa": 2668,
      "dinama": 2669,
      "##jno": 2670,
      "##tru": 2671,
      "cijena": 2672,
      "##nić": 2673,
      "tvrdi": 2674,
      "uje": 2675,
      "##đenja": 2676,
      "umjesto": 2677,
      "stranke": 2678,
      "svima": 2679,
      "io": 2680,
      "potro": 2681,
      "konferen": 2682,
      "moramo": 2683,
      "drugim": 2684,
      "stre": 2685,
      "bodova": 2686,
      "utorak": 2687,
      "##jar": 2688,
      "glasa": 2689,
      "osobi": 2690,
      "dijelu": 2691,
      "varaždin": 2692,
      "sustav": 2693,
      "momčad": 2694,
      "zamje": 2695,
      "##voza": 2696,
      "djeca": 2697,
      "hote": 2698,
      "##vine": 2699,
      "sata": 2700,
      "izlo": 2701,
      "nikada": 2702,
      "ug": 2703,
      "60": 2704,
      "modri": 2705,
      "želje": 2706,
      "pozo": 2707,
      "ravna": 2708,
      "obrazo": 2709,
      "član": 2710,
      "novu": 2711,
      "pak": 2712,
      "godišnje": 2713,
      "hoće": 2714,
      "investi": 2715,
      "donosi": 2716,
      "##gova": 2717,
      "niz": 2718,
      "medici": 2719,
      "povr": 2720,
      "##dak": 2721,
      "##stupa": 2722,
      "ćete": 2723,
      "nedosta": 2724,
      "com": 2725,
      "dobar": 2726,
      "otvori": 2727,
      "mr": 2728,
      "prosi": 2729,
      "izbor": 2730,
      "povijesti": 2731,
      "##čnu": 2732,
      "ser": 2733,
      "ut": 2734,
      "meni": 2735,
      "##tog": 2736,
      "kojih": 2737,
      "metara": 2738,
      "##dnom": 2739,
      "nazi": 2740,
      "##logi": 2741,
      "##bina": 2742,
      "doći": 2743,
      "svijet": 2744,
      "##tirao": 2745,
      "##vremeno": 2746,
      "dobiti": 2747,
      "škole": 2748,
      "upozna": 2749,
      "##gnu": 2750,
      "godinama": 2751,
      "##stava": 2752,
      "mjeseca": 2753,
      "##kna": 2754,
      "ispu": 2755,
      "svjedo": 2756,
      "ističe": 2757,
      "poža": 2758,
      "dija": 2759,
      "dobili": 2760,
      "##pita": 2761,
      "glumi": 2762,
      "republike": 2763,
      "okru": 2764,
      "naša": 2765,
      "dakle": 2766,
      "kata": 2767,
      "zdravlje": 2768,
      "situacija": 2769,
      "osvojio": 2770,
      "godišnjak": 2771,
      "##liti": 2772,
      "utakmici": 2773,
      "35": 2774,
      "ap": 2775,
      "gori": 2776,
      "sin": 2777,
      "potra": 2778,
      "##tili": 2779,
      "##rina": 2780,
      "##vid": 2781,
      "županije": 2782,
      "mirovi": 2783,
      "države": 2784,
      "glaso": 2785,
      "##nove": 2786,
      "mir": 2787,
      "##čita": 2788,
      "##sak": 2789,
      "##žan": 2790,
      "prvu": 2791,
      "##lnom": 2792,
      "pari": 2793,
      "razini": 2794,
      "moći": 2795,
      "1280x": 2796,
      "suko": 2797,
      "njemu": 2798,
      "##šiti": 2799,
      "strana": 2800,
      "rizi": 2801,
      "unato": 2802,
      "vaše": 2803,
      "popula": 2804,
      "doži": 2805,
      "prvog": 2806,
      "man": 2807,
      "obli": 2808,
      "har": 2809,
      "njegove": 2810,
      "diza": 2811,
      "para": 2812,
      "traja": 2813,
      "##ple": 2814,
      "##kata": 2815,
      "provje": 2816,
      "##dese": 2817,
      "svib": 2818,
      "njihov": 2819,
      "rt": 2820,
      "ljude": 2821,
      "##kretni": 2822,
      "##veo": 2823,
      "moglo": 2824,
      "važno": 2825,
      "centra": 2826,
      "640x": 2827,
      "rijeke": 2828,
      "##loba": 2829,
      "splitu": 2830,
      "##ljan": 2831,
      "prošlo": 2832,
      "moraju": 2833,
      "##tion": 2834,
      "vatre": 2835,
      "živi": 2836,
      "pobjedu": 2837,
      "činje": 2838,
      "posljednje": 2839,
      "##tina": 2840,
      "##kar": 2841,
      "zemlja": 2842,
      "tvrtke": 2843,
      "80": 2844,
      "##timo": 2845,
      "fizi": 2846,
      "##tle": 2847,
      "uključujući": 2848,
      "wi": 2849,
      "45": 2850,
      "##rg": 2851,
      "zara": 2852,
      "##gan": 2853,
      "cijeli": 2854,
      "##rci": 2855,
      "došlo": 2856,
      "new": 2857,
      "podijeli": 2858,
      "##ogra": 2859,
      "zakon": 2860,
      "prosla": 2861,
      "nih": 2862,
      "ljud": 2863,
      "otkrio": 2864,
      "##nte": 2865,
      "snage": 2866,
      "dro": 2867,
      "ete": 2868,
      "obve": 2869,
      "srbi": 2870,
      "vladi": 2871,
      "potrebno": 2872,
      "mrežama": 2873,
      "indu": 2874,
      "postao": 2875,
      "##jka": 2876,
      "##vlju": 2877,
      "žele": 2878,
      "milijar": 2879,
      "stvarno": 2880,
      "poručio": 2881,
      "ukupno": 2882,
      "trebalo": 2883,
      "organizira": 2884,
      "hajduka": 2885,
      "dolara": 2886,
      "dogodilo": 2887,
      "##jih": 2888,
      "sebi": 2889,
      "prima": 2890,
      "novih": 2891,
      "jednostavno": 2892,
      "čemu": 2893,
      "lipnja": 2894,
      "ica": 2895,
      "fili": 2896,
      "pobjede": 2897,
      "odgovor": 2898,
      "##tivni": 2899,
      "pros": 2900,
      "vre": 2901,
      "marija": 2902,
      "uprave": 2903,
      "plat": 2904,
      "opera": 2905,
      "##wi": 2906,
      "##jeva": 2907,
      "toj": 2908,
      "zabra": 2909,
      "potreb": 2910,
      "posljednjih": 2911,
      "manji": 2912,
      "##voje": 2913,
      "objavila": 2914,
      "javnosti": 2915,
      "napraviti": 2916,
      "igre": 2917,
      "##vite": 2918,
      "profi": 2919,
      "lako": 2920,
      "ispod": 2921,
      "480x": 2922,
      "pogi": 2923,
      "##vora": 2924,
      "otkrila": 2925,
      "prilikom": 2926,
      "af": 2927,
      "nasi": 2928,
      "kažu": 2929,
      "razvoj": 2930,
      "##ksa": 2931,
      "##nke": 2932,
      "čovjek": 2933,
      "ugla": 2934,
      "der": 2935,
      "340x": 2936,
      "bre": 2937,
      "dre": 2938,
      "nepo": 2939,
      "igrač": 2940,
      "dodaje": 2941,
      "socija": 2942,
      "biste": 2943,
      "sveu": 2944,
      "šibe": 2945,
      "poljo": 2946,
      "kuha": 2947,
      "sporta": 2948,
      "zabio": 2949,
      "vanj": 2950,
      "izaz": 2951,
      "žene": 2952,
      "oduše": 2953,
      "olimpij": 2954,
      "##11": 2955,
      "kame": 2956,
      "##šten": 2957,
      "razmišlja": 2958,
      "engle": 2959,
      "zadovolj": 2960,
      "novac": 2961,
      "cro": 2962,
      "ek": 2963,
      "zaslu": 2964,
      "##stre": 2965,
      "stati": 2966,
      "poljopri": 2967,
      "zadnji": 2968,
      "njihove": 2969,
      "instagra": 2970,
      "rekli": 2971,
      "podrža": 2972,
      "##ndo": 2973,
      "##renja": 2974,
      "dale": 2975,
      "##zuju": 2976,
      "##rnoj": 2977,
      "postup": 2978,
      "##žni": 2979,
      "pada": 2980,
      "sjever": 2981,
      "##dnika": 2982,
      "snima": 2983,
      "##lla": 2984,
      "stoga": 2985,
      "prostor": 2986,
      "##tnog": 2987,
      "##wa": 2988,
      "##veli": 2989,
      "##kovi": 2990,
      "##čenje": 2991,
      "##čak": 2992,
      "ponaša": 2993,
      "blo": 2994,
      "cha": 2995,
      "njihova": 2996,
      "izjavio": 2997,
      "pobo": 2998,
      "prisu": 2999,
      "hrvatskom": 3000,
      "uglavnom": 3001,
      "##blja": 3002,
      "##lak": 3003,
      "zahvalju": 3004,
      "zausta": 3005,
      "kine": 3006,
      "gubi": 3007,
      "nada": 3008,
      "teni": 3009,
      "##vljaju": 3010,
      "trebali": 3011,
      "isklju": 3012,
      "šan": 3013,
      "brzi": 3014,
      "##mac": 3015,
      "san": 3016,
      "##đene": 3017,
      "odluka": 3018,
      "prijatelj": 3019,
      "škola": 3020,
      "kor": 3021,
      "odla": 3022,
      "siječ": 3023,
      "bes": 3024,
      "sustava": 3025,
      "##šću": 3026,
      "##gdje": 3027,
      "##jelo": 3028,
      "kolu": 3029,
      "njezin": 3030,
      "##krša": 3031,
      "stadio": 3032,
      "izborima": 3033,
      "##tivi": 3034,
      "polju": 3035,
      "##đeni": 3036,
      "započe": 3037,
      "momčadi": 3038,
      "iznim": 3039,
      "ljubi": 3040,
      "##tinu": 3041,
      "norma": 3042,
      "jedne": 3043,
      "festiva": 3044,
      "natje": 3045,
      "##dić": 3046,
      "##fije": 3047,
      "bismo": 3048,
      "bolji": 3049,
      "kući": 3050,
      "poslu": 3051,
      "aktivnosti": 3052,
      "travnja": 3053,
      "##štvo": 3054,
      "90": 3055,
      "##kcije": 3056,
      "pročita": 3057,
      "##nicima": 3058,
      "posjeti": 3059,
      "ite": 3060,
      "##siji": 3061,
      "sc": 3062,
      "sabor": 3063,
      "##ćih": 3064,
      "posljedi": 3065,
      "uze": 3066,
      "##štva": 3067,
      "##žba": 3068,
      "##tic": 3069,
      "stvar": 3070,
      "drugog": 3071,
      "napre": 3072,
      "god": 3073,
      "##šlje": 3074,
      "nevje": 3075,
      "promjene": 3076,
      "##90": 3077,
      "##ranju": 3078,
      "parki": 3079,
      "terenu": 3080,
      "unatoč": 3081,
      "onih": 3082,
      "prijed": 3083,
      "umi": 3084,
      "##čnim": 3085,
      "##vice": 3086,
      "##ljeća": 3087,
      "##dnici": 3088,
      "##tova": 3089,
      "rast": 3090,
      "mijenja": 3091,
      "##ur": 3092,
      "svakodne": 3093,
      "stručnja": 3094,
      "##vku": 3095,
      "##_480": 3096,
      "veliku": 3097,
      "##zam": 3098,
      "31": 3099,
      "pli": 3100,
      "koša": 3101,
      "dao": 3102,
      "ale": 3103,
      "##line": 3104,
      "tomi": 3105,
      "meda": 3106,
      "direktor": 3107,
      "korište": 3108,
      "##nskih": 3109,
      "vod": 3110,
      "dodatno": 3111,
      "mlade": 3112,
      "##nila": 3113,
      "nado": 3114,
      "##loški": 3115,
      "smanji": 3116,
      "četvrtak": 3117,
      "televi": 3118,
      "najmanje": 3119,
      "kojom": 3120,
      "##žnje": 3121,
      "ljudima": 3122,
      "materija": 3123,
      "gradonačelnik": 3124,
      "primi": 3125,
      "ispla": 3126,
      "konku": 3127,
      "##đuje": 3128,
      "##rske": 3129,
      "takvi": 3130,
      "legen": 3131,
      "##lnoj": 3132,
      "##nicama": 3133,
      "ulaga": 3134,
      "devet": 3135,
      "trebala": 3136,
      "objavlje": 3137,
      "##snu": 3138,
      "vele": 3139,
      "##lnosti": 3140,
      "dali": 3141,
      "##sima": 3142,
      "večer": 3143,
      "indi": 3144,
      "životu": 3145,
      "reda": 3146,
      "##ženje": 3147,
      "centar": 3148,
      "obe": 3149,
      "mjesec": 3150,
      "tehni": 3151,
      "bolesti": 3152,
      "ispriča": 3153,
      "poljoprivre": 3154,
      "epi": 3155,
      "pripa": 3156,
      "zema": 3157,
      "pitanja": 3158,
      "elektri": 3159,
      "con": 3160,
      "##šća": 3161,
      "rujna": 3162,
      "70": 3163,
      "##dima": 3164,
      "pacije": 3165,
      "previše": 3166,
      "imam": 3167,
      "partne": 3168,
      "prenosi": 3169,
      "umjetni": 3170,
      "##tivne": 3171,
      "zakona": 3172,
      "reko": 3173,
      "##_220": 3174,
      "poznati": 3175,
      "##vci": 3176,
      "potpisa": 3177,
      "##dro": 3178,
      "doz": 3179,
      "ugovor": 3180,
      "car": 3181,
      "##tnosti": 3182,
      "građana": 3183,
      "upa": 3184,
      "dati": 3185,
      "##mer": 3186,
      "##gama": 3187,
      "mali": 3188,
      "treći": 3189,
      "barem": 3190,
      "strate": 3191,
      "ministarstvo": 3192,
      "policije": 3193,
      "računa": 3194,
      "pobolj": 3195,
      "sutra": 3196,
      "defi": 3197,
      "opasno": 3198,
      "kuća": 3199,
      "europe": 3200,
      "novom": 3201,
      "liječ": 3202,
      "##sli": 3203,
      "##pr": 3204,
      "navede": 3205,
      "izvijesti": 3206,
      "rođen": 3207,
      "iskustvo": 3208,
      "doče": 3209,
      "##mos": 3210,
      "##ktora": 3211,
      "napisao": 3212,
      "ana": 3213,
      "ožu": 3214,
      "##ben": 3215,
      "##tiva": 3216,
      "navodno": 3217,
      "##tnom": 3218,
      "##rano": 3219,
      "prora": 3220,
      "pala": 3221,
      "moja": 3222,
      "projekta": 3223,
      "razloga": 3224,
      "tjedan": 3225,
      "##jni": 3226,
      "prosvje": 3227,
      "##nska": 3228,
      "##pom": 3229,
      "odluku": 3230,
      "##stan": 3231,
      "nekretni": 3232,
      "kak": 3233,
      "lak": 3234,
      "okoli": 3235,
      "skup": 3236,
      "##tnim": 3237,
      "##rane": 3238,
      "odgovara": 3239,
      "##sobno": 3240,
      "##metara": 3241,
      "otvara": 3242,
      "dozvo": 3243,
      "uvo": 3244,
      "sadrža": 3245,
      "##vlada": 3246,
      "majka": 3247,
      "pruža": 3248,
      "mobi": 3249,
      "##pušta": 3250,
      "ograni": 3251,
      "dozna": 3252,
      "priti": 3253,
      "##sen": 3254,
      "srpnja": 3255,
      "##tac": 3256,
      "gosti": 3257,
      "znanstve": 3258,
      "uoči": 3259,
      "dalj": 3260,
      "demokra": 3261,
      "##kcija": 3262,
      "vese": 3263,
      "tiče": 3264,
      "listopada": 3265,
      "##mati": 3266,
      "##čina": 3267,
      "##čuje": 3268,
      "dom": 3269,
      "mađa": 3270,
      "plaće": 3271,
      "ostati": 3272,
      "susret": 3273,
      "sklopu": 3274,
      "plu": 3275,
      "##njo": 3276,
      "izvor": 3277,
      "vike": 3278,
      "alko": 3279,
      "podršku": 3280,
      "##siona": 3281,
      "pale": 3282,
      "kralje": 3283,
      "##ray": 3284,
      "##lnika": 3285,
      "iskoristi": 3286,
      "##gh": 3287,
      "suo": 3288,
      "preuze": 3289,
      "reprezentacije": 3290,
      "##tt": 3291,
      "##gne": 3292,
      "predvi": 3293,
      "programa": 3294,
      "##ljiva": 3295,
      "brojne": 3296,
      "napad": 3297,
      "tv": 3298,
      "dobila": 3299,
      "početka": 3300,
      "vraća": 3301,
      "hn": 3302,
      "##šio": 3303,
      "kompa": 3304,
      "##lac": 3305,
      "##jica": 3306,
      "##88": 3307,
      "kape": 3308,
      "sat": 3309,
      "voli": 3310,
      "nekim": 3311,
      "mladih": 3312,
      "340": 3313,
      "vrata": 3314,
      "građani": 3315,
      "##kul": 3316,
      "##min": 3317,
      "dodala": 3318,
      "ubr": 3319,
      "##ljena": 3320,
      "##mija": 3321,
      "ukrajini": 3322,
      "##qu": 3323,
      "##vina": 3324,
      "budući": 3325,
      "27202": 3326,
      "ostali": 3327,
      "uopće": 3328,
      "##mini": 3329,
      "objek": 3330,
      "aktua": 3331,
      "33": 3332,
      "##žili": 3333,
      "početkom": 3334,
      "konkuren": 3335,
      "shvati": 3336,
      "##rba": 3337,
      "prvenstva": 3338,
      "sveučili": 3339,
      "europi": 3340,
      "trump": 3341,
      "automobila": 3342,
      "ošte": 3343,
      "ulogu": 3344,
      "sazna": 3345,
      "loše": 3346,
      "sjeća": 3347,
      "zemalja": 3348,
      "nagla": 3349,
      "tijelo": 3350,
      "počinje": 3351,
      "alkoho": 3352,
      "smanje": 3353,
      "atmos": 3354,
      "220x": 3355,
      "prila": 3356,
      "reali": 3357,
      "ala": 3358,
      "upi": 3359,
      "pristup": 3360,
      "ruko": 3361,
      "##vnici": 3362,
      "poziva": 3363,
      "savez": 3364,
      "are": 3365,
      "##tora": 3366,
      "strani": 3367,
      "sigurnosti": 3368,
      "kolovoza": 3369,
      "vrijednosti": 3370,
      "slove": 3371,
      "zrako": 3372,
      "##riju": 3373,
      "krimi": 3374,
      "atmosfe": 3375,
      "božić": 3376,
      "većina": 3377,
      "rtl": 3378,
      "korak": 3379,
      "putu": 3380,
      "tvrtka": 3381,
      "podsjetimo": 3382,
      "raspra": 3383,
      "lan": 3384,
      "igrao": 3385,
      "poslova": 3386,
      "troško": 3387,
      "dubrova": 3388,
      "##nzi": 3389,
      "diljem": 3390,
      "real": 3391,
      "##bila": 3392,
      "ligi": 3393,
      "globa": 3394,
      "ina": 3395,
      "priopće": 3396,
      "različi": 3397,
      "žrt": 3398,
      "dostup": 3399,
      "2021": 3400,
      "župani": 3401,
      "ujutro": 3402,
      "##ali": 3403,
      "izla": 3404,
      "prekrša": 3405,
      "velja": 3406,
      "##osta": 3407,
      "duž": 3408,
      "skog": 3409,
      "talijan": 3410,
      "che": 3411,
      "##rs": 3412,
      "##10": 3413,
      "##kad": 3414,
      "upisa": 3415,
      "beogra": 3416,
      "traže": 3417,
      "##dnoj": 3418,
      "tradiciona": 3419,
      "##raca": 3420,
      "presu": 3421,
      "ministarstva": 3422,
      "##55": 3423,
      "van": 3424,
      "##tnoj": 3425,
      "dosad": 3426,
      "uskoro": 3427,
      "##struktu": 3428,
      "##vka": 3429,
      "najva": 3430,
      "stigao": 3431,
      "reagi": 3432,
      "wa": 3433,
      "##ras": 3434,
      "odluke": 3435,
      "##čnog": 3436,
      "seku": 3437,
      "rela": 3438,
      "cijelo": 3439,
      "mediji": 3440,
      "bivše": 3441,
      "redu": 3442,
      "imate": 3443,
      "digi": 3444,
      "sjedi": 3445,
      "slučaj": 3446,
      "profesiona": 3447,
      "svibnja": 3448,
      "##vrše": 3449,
      "jučer": 3450,
      "koncert": 3451,
      "500": 3452,
      "zvu": 3453,
      "##nose": 3454,
      "dopri": 3455,
      "preh": 3456,
      "bal": 3457,
      "stup": 3458,
      "primjer": 3459,
      "##klu": 3460,
      "jest": 3461,
      "##baci": 3462,
      "komenta": 3463,
      "polica": 3464,
      "ostao": 3465,
      "kazali": 3466,
      "##zno": 3467,
      "ter": 3468,
      "staja": 3469,
      "ovako": 3470,
      "nastaviti": 3471,
      "najavio": 3472,
      "vjero": 3473,
      "izbore": 3474,
      "područja": 3475,
      "natjecanja": 3476,
      "dodi": 3477,
      "top": 3478,
      "##žila": 3479,
      "##vnoj": 3480,
      "##ziju": 3481,
      "izrazi": 3482,
      "##vač": 3483,
      "znaju": 3484,
      "infra": 3485,
      "udruge": 3486,
      "##gno": 3487,
      "##tere": 3488,
      "iznad": 3489,
      "gola": 3490,
      "male": 3491,
      "##luje": 3492,
      "pobjeda": 3493,
      "susje": 3494,
      "##razu": 3495,
      "seksu": 3496,
      "sudio": 3497,
      "cati": 3498,
      "foku": 3499,
      "sigurnost": 3500,
      "stanje": 3501,
      "sim": 3502,
      "face": 3503,
      "financi": 3504,
      "pripremi": 3505,
      "naših": 3506,
      "josip": 3507,
      "budi": 3508,
      "čiji": 3509,
      "došli": 3510,
      "asi": 3511,
      "pol": 3512,
      "daleko": 3513,
      "34": 3514,
      "svaka": 3515,
      "oruž": 3516,
      "zanima": 3517,
      "obrane": 3518,
      "cesta": 3519,
      "interne": 3520,
      "vratiti": 3521,
      "energe": 3522,
      "proraču": 3523,
      "##pt": 3524,
      "##27": 3525,
      "zabora": 3526,
      "krea": 3527,
      "poboljša": 3528,
      "otac": 3529,
      "napusti": 3530,
      "procje": 3531,
      "sama": 3532,
      "meta": 3533,
      "dubo": 3534,
      "jedini": 3535,
      "lice": 3536,
      "čet": 3537,
      "kontak": 3538,
      "##štaj": 3539,
      "tijela": 3540,
      "identi": 3541,
      "energi": 3542,
      "specija": 3543,
      "##ok": 3544,
      "završe": 3545,
      "ozna": 3546,
      "nače": 3547,
      "##zan": 3548,
      "##by": 3549,
      "kore": 3550,
      "novim": 3551,
      "##ly": 3552,
      "##14": 3553,
      "##vici": 3554,
      "##čava": 3555,
      "vjen": 3556,
      "pitanju": 3557,
      "informacije": 3558,
      "##snih": 3559,
      "boda": 3560,
      "##vremenu": 3561,
      "polufina": 3562,
      "ći": 3563,
      "koriste": 3564,
      "portu": 3565,
      "##dija": 3566,
      "razgovara": 3567,
      "prvoj": 3568,
      "ići": 3569,
      "madri": 3570,
      "jući": 3571,
      "##lnost": 3572,
      "##_1280": 3573,
      "mani": 3574,
      "znamo": 3575,
      "dječ": 3576,
      "infrastruktu": 3577,
      "moje": 3578,
      "bel": 3579,
      "##šnjeg": 3580,
      "drago": 3581,
      "##nskom": 3582,
      "mati": 3583,
      "uspio": 3584,
      "fakul": 3585,
      "hrt": 3586,
      "sprije": 3587,
      "##dran": 3588,
      "##bc": 3589,
      "njezina": 3590,
      "dolaze": 3591,
      "završio": 3592,
      "supruga": 3593,
      "dobra": 3594,
      "noć": 3595,
      "##celo": 3596,
      "##tnici": 3597,
      "komunika": 3598,
      "koma": 3599,
      "32": 3600,
      "naba": 3601,
      "poh": 3602,
      "plan": 3603,
      "smrt": 3604,
      "36": 3605,
      "##jskog": 3606,
      "borbe": 3607,
      "nau": 3608,
      "priop": 3609,
      "topli": 3610,
      "europskog": 3611,
      "društva": 3612,
      "kazala": 3613,
      "smrti": 3614,
      "##sije": 3615,
      "naz": 3616,
      "resto": 3617,
      "array": 3618,
      "njemačkoj": 3619,
      "640": 3620,
      "um": 3621,
      "dobri": 3622,
      "visoko": 3623,
      "vru": 3624,
      "takav": 3625,
      "##vjeti": 3626,
      "iste": 3627,
      "##štvu": 3628,
      "nastavlja": 3629,
      "temperatura": 3630,
      "platfor": 3631,
      "##rski": 3632,
      "##kov": 3633,
      "društvo": 3634,
      "događaja": 3635,
      "##79": 3636,
      "naža": 3637,
      "mjere": 3638,
      "čime": 3639,
      "standar": 3640,
      "nažalost": 3641,
      "jadra": 3642,
      "njegovu": 3643,
      "##_2720": 3644,
      "zu": 3645,
      "##podne": 3646,
      "osobito": 3647,
      "pročitajte": 3648,
      "hnl": 3649,
      "##rp": 3650,
      "nato": 3651,
      "noći": 3652,
      "roditelji": 3653,
      "##_2719": 3654,
      "##rira": 3655,
      "zavo": 3656,
      "zadrža": 3657,
      "izmje": 3658,
      "##nut": 3659,
      "radova": 3660,
      "##tnost": 3661,
      "hrane": 3662,
      "okre": 3663,
      "nastup": 3664,
      "##šenje": 3665,
      "finala": 3666,
      "##zom": 3667,
      "2025": 3668,
      "facebo": 3669,
      "zaista": 3670,
      "protu": 3671,
      "presta": 3672,
      "##njuje": 3673,
      "prijet": 3674,
      "želim": 3675,
      "sub": 3676,
      "nim": 3677,
      "muze": 3678,
      "završ": 3679,
      "sk": 3680,
      "zabri": 3681,
      "pau": 3682,
      "razlog": 3683,
      "anti": 3684,
      "ulici": 3685,
      "portuga": 3686,
      "it": 3687,
      "##nili": 3688,
      "prika": 3689,
      "stabi": 3690,
      "odlučio": 3691,
      "klubo": 3692,
      "preporu": 3693,
      "##stom": 3694,
      "kratko": 3695,
      "sluša": 3696,
      "nogome": 3697,
      "klasi": 3698,
      "porta": 3699,
      "##stina": 3700,
      "ber": 3701,
      "ispa": 3702,
      "skupine": 3703,
      "energije": 3704,
      "sni": 3705,
      "##blju": 3706,
      "česti": 3707,
      "uslije": 3708,
      "šiben": 3709,
      "umiro": 3710,
      "##vilo": 3711,
      "svakako": 3712,
      "ai": 3713,
      "ispra": 3714,
      "želj": 3715,
      "mogućnost": 3716,
      "siječnja": 3717,
      "mišlje": 3718,
      "drugu": 3719,
      "sezonu": 3720,
      "prvenstvu": 3721,
      "prosinca": 3722,
      "odgo": 3723,
      "stari": 3724,
      "blizi": 3725,
      "fotografije": 3726,
      "##nsko": 3727,
      "##vit": 3728,
      "##čević": 3729,
      "ulaz": 3730,
      "##bla": 3731,
      "nakna": 3732,
      "##cira": 3733,
      "stro": 3734,
      "inci": 3735,
      "##zer": 3736,
      "mnoge": 3737,
      "robe": 3738,
      "pokazuje": 3739,
      "migra": 3740,
      "veze": 3741,
      "osvaja": 3742,
      "##llery": 3743,
      "naglasio": 3744,
      "rh": 3745,
      "vezi": 3746,
      "##vlji": 3747,
      "red": 3748,
      "var": 3749,
      "proizvoda": 3750,
      "zadovo": 3751,
      "##lira": 3752,
      "pridru": 3753,
      "peri": 3754,
      "sunča": 3755,
      "koali": 3756,
      "##dina": 3757,
      "gale": 3758,
      "održi": 3759,
      "##kan": 3760,
      "svemu": 3761,
      "ljeta": 3762,
      "priče": 3763,
      "situaciju": 3764,
      "blag": 3765,
      "doka": 3766,
      "očito": 3767,
      "##tih": 3768,
      "zada": 3769,
      "ruke": 3770,
      "##žbi": 3771,
      "redo": 3772,
      "postala": 3773,
      "mlado": 3774,
      "omogući": 3775,
      "##šno": 3776,
      "zadnje": 3777,
      "prihva": 3778,
      "prilika": 3779,
      "##rska": 3780,
      "##les": 3781,
      "##ljeni": 3782,
      "ostaje": 3783,
      "as": 3784,
      "prihvati": 3785,
      "krajem": 3786,
      "spasi": 3787,
      "##čnom": 3788,
      "##kove": 3789,
      "proši": 3790,
      "vaš": 3791,
      "jutar": 3792,
      "profeso": 3793,
      "ch": 3794,
      "jela": 3795,
      "povo": 3796,
      "poklo": 3797,
      "zabi": 3798,
      "##rca": 3799,
      "vid": 3800,
      "##pen": 3801,
      "sara": 3802,
      "škol": 3803,
      "pogotovo": 3804,
      "prostora": 3805,
      "##ker": 3806,
      "svojom": 3807,
      "svakom": 3808,
      "naslov": 3809,
      "##njom": 3810,
      "##šnjava": 3811,
      "el": 3812,
      "okvi": 3813,
      "konzu": 3814,
      "igrači": 3815,
      "klubu": 3816,
      "##cha": 3817,
      "radu": 3818,
      "##čenja": 3819,
      "##mentar": 3820,
      "godišnja": 3821,
      "intenzi": 3822,
      "itali": 3823,
      "uboj": 3824,
      "voda": 3825,
      "jednoj": 3826,
      "digita": 3827,
      "##ela": 3828,
      "stvori": 3829,
      "postaje": 3830,
      "trenuta": 3831,
      "albu": 3832,
      "ino": 3833,
      "obzira": 3834,
      "komentira": 3835,
      "kandidata": 3836,
      "dubrovnik": 3837,
      "un": 3838,
      "##stavlja": 3839,
      "##mpi": 3840,
      "počeo": 3841,
      "istraživanje": 3842,
      "don": 3843,
      "nemaju": 3844,
      "pokazao": 3845,
      "kvalifika": 3846,
      "omi": 3847,
      "##var": 3848,
      "doba": 3849,
      "kakav": 3850,
      "brita": 3851,
      "našim": 3852,
      "zabilje": 3853,
      "##vito": 3854,
      "##žne": 3855,
      "##vela": 3856,
      "tema": 3857,
      "##rnosti": 3858,
      "2020": 3859,
      "navode": 3860,
      "rješenje": 3861,
      "imovi": 3862,
      "nadam": 3863,
      "##rin": 3864,
      "##jim": 3865,
      "prometa": 3866,
      "gore": 3867,
      "svake": 3868,
      "##snog": 3869,
      "ozlje": 3870,
      "##mnji": 3871,
      "primije": 3872,
      "##kuju": 3873,
      "traje": 3874,
      "soli": 3875,
      "ljeto": 3876,
      "ugosti": 3877,
      "more": 3878,
      "cijelu": 3879,
      "pjesme": 3880,
      "općine": 3881,
      "27203": 3882,
      "##čine": 3883,
      "nadle": 3884,
      "pokazala": 3885,
      "supro": 3886,
      "automobil": 3887,
      "žen": 3888,
      "govore": 3889,
      "##cem": 3890,
      "igrali": 3891,
      "minute": 3892,
      "ocje": 3893,
      "##640": 3894,
      "sina": 3895,
      "city": 3896,
      "autor": 3897,
      "promjena": 3898,
      "##vama": 3899,
      "priho": 3900,
      "ver": 3901,
      "spek": 3902,
      "novca": 3903,
      "obeća": 3904,
      "##rij": 3905,
      "kova": 3906,
      "zaključio": 3907,
      "najvaž": 3908,
      "55": 3909,
      "riječi": 3910,
      "##ćuje": 3911,
      "napisala": 3912,
      "htje": 3913,
      "##sk": 3914,
      "odo": 3915,
      "tale": 3916,
      "srbije": 3917,
      "europski": 3918,
      "dijela": 3919,
      "herce": 3920,
      "javnost": 3921,
      "eksplo": 3922,
      "posu": 3923,
      "lijepo": 3924,
      "napravio": 3925,
      "smjeru": 3926,
      "nikola": 3927,
      "vjerujem": 3928,
      "visi": 3929,
      "pusti": 3930,
      "vidjeli": 3931,
      "susreta": 3932,
      "dizaj": 3933,
      "##lija": 3934,
      "kopri": 3935,
      "##biti": 3936,
      "broja": 3937,
      "filma": 3938,
      "ekipa": 3939,
      "umirovlje": 3940,
      "iran": 3941,
      "dob": 3942,
      "kana": 3943,
      "paž": 3944,
      "vina": 3945,
      "anga": 3946,
      "1024x": 3947,
      "scena": 3948,
      "ugro": 3949,
      "uspjeli": 3950,
      "##nijih": 3951,
      "površi": 3952,
      "ep": 3953,
      "ita": 3954,
      "##čeno": 3955,
      "državlja": 3956,
      "redovi": 3957,
      "finale": 3958,
      "koristiti": 3959,
      "bran": 3960,
      "edu": 3961,
      "##rku": 3962,
      "##30": 3963,
      "pogre": 3964,
      "ovogodi": 3965,
      "ekonom": 3966,
      "zahvaljujući": 3967,
      "iznimno": 3968,
      "kće": 3969,
      "##rović": 3970,
      "laga": 3971,
      "slavo": 3972,
      "životi": 3973,
      "nekih": 3974,
      "ured": 3975,
      "##pije": 3976,
      "dani": 3977,
      "proma": 3978,
      "ovoga": 3979,
      "zoran": 3980,
      "primjerice": 3981,
      "##misije": 3982,
      "##cionira": 3983,
      "odvjetni": 3984,
      "skri": 3985,
      "##tera": 3986,
      "izuze": 3987,
      "došla": 3988,
      "##rke": 3989,
      "dođe": 3990,
      "cat": 3991,
      "glas": 3992,
      "ante": 3993,
      "vrti": 3994,
      "show": 3995,
      "čko": 3996,
      "##nito": 3997,
      "##ćoj": 3998,
      "##kade": 3999,
      "##siju": 4000,
      "pao": 4001,
      "volim": 4002,
      "nemo": 4003,
      "početku": 4004,
      "ozljede": 4005,
      "05": 4006,
      "##32": 4007,
      "sveča": 4008,
      "iskre": 4009,
      "partner": 4010,
      "osumnji": 4011,
      "noj": 4012,
      "sposobno": 4013,
      "križe": 4014,
      "našeg": 4015,
      "izgubio": 4016,
      "##ya": 4017,
      "pritom": 4018,
      "bora": 4019,
      "velikim": 4020,
      "vratio": 4021,
      "ić": 4022,
      "reci": 4023,
      "uređa": 4024,
      "kraljev": 4025,
      "skom": 4026,
      "rece": 4027,
      "##pad": 4028,
      "građe": 4029,
      "nudi": 4030,
      "centru": 4031,
      "izd": 4032,
      "reži": 4033,
      "trenera": 4034,
      "postati": 4035,
      "##štine": 4036,
      "drugoj": 4037,
      "okuplja": 4038,
      "ubije": 4039,
      "potica": 4040,
      "izno": 4041,
      "stanju": 4042,
      "prijatelji": 4043,
      "snaga": 4044,
      "mogućnosti": 4045,
      "iti": 4046,
      "ljubavi": 4047,
      "muškarac": 4048,
      "kilometara": 4049,
      "vodstvo": 4050,
      "eva": 4051,
      "oglasi": 4052,
      "##let": 4053,
      "promo": 4054,
      "pam": 4055,
      "statu": 4056,
      "potrebe": 4057,
      "drži": 4058,
      "zvijezda": 4059,
      "festival": 4060,
      "dp": 4061,
      "##jam": 4062,
      "miro": 4063,
      "autobu": 4064,
      "karijere": 4065,
      "kilogra": 4066,
      "objasnio": 4067,
      "##škom": 4068,
      "točno": 4069,
      "##čeni": 4070,
      "stje": 4071,
      "stalno": 4072,
      "gradi": 4073,
      "sed": 4074,
      "##kim": 4075,
      "poznato": 4076,
      "yo": 4077,
      "##68": 4078,
      "##nese": 4079,
      "##šević": 4080,
      "##vljena": 4081,
      "zajednice": 4082,
      "regiona": 4083,
      "inicija": 4084,
      "medija": 4085,
      "kulture": 4086,
      "utje": 4087,
      "##ol": 4088,
      "nor": 4089,
      "podru": 4090,
      "govorio": 4091,
      "pokreta": 4092,
      "odusta": 4093,
      "vjenča": 4094,
      "udar": 4095,
      "##am": 4096,
      "vidio": 4097,
      "strije": 4098,
      "##ser": 4099,
      "njim": 4100,
      "austri": 4101,
      "anto": 4102,
      "sredstva": 4103,
      "nizo": 4104,
      "mjera": 4105,
      "problemi": 4106,
      "dvoje": 4107,
      "pjesmu": 4108,
      "38": 4109,
      "obno": 4110,
      "asiste": 4111,
      "##reno": 4112,
      "##din": 4113,
      "bitno": 4114,
      "regu": 4115,
      "##šni": 4116,
      "odbora": 4117,
      "kombina": 4118,
      "ožujka": 4119,
      "##slo": 4120,
      "rezultate": 4121,
      "incide": 4122,
      "preu": 4123,
      "##ćenja": 4124,
      "trebaju": 4125,
      "##prili": 4126,
      "stanovni": 4127,
      "razumije": 4128,
      "glasova": 4129,
      "300": 4130,
      "##vju": 4131,
      "##ranu": 4132,
      "##lili": 4133,
      "##lica": 4134,
      "##plika": 4135,
      "trenutak": 4136,
      "komentirao": 4137,
      "prvenstvo": 4138,
      "bren": 4139,
      "svr": 4140,
      "##kt": 4141,
      "list": 4142,
      "gallery": 4143,
      "prav": 4144,
      "##cijski": 4145,
      "politike": 4146,
      "vijeća": 4147,
      "##_27179": 4148,
      "udruga": 4149,
      "##snim": 4150,
      "prisje": 4151,
      "##por": 4152,
      "##rnica": 4153,
      "izbornik": 4154,
      "##nskim": 4155,
      "nekada": 4156,
      "intervju": 4157,
      "psiho": 4158,
      "andrej": 4159,
      "blizini": 4160,
      "avio": 4161,
      "prvih": 4162,
      "##land": 4163,
      "šta": 4164,
      "##niju": 4165,
      "gosto": 4166,
      "usmje": 4167,
      "poziv": 4168,
      "sezoni": 4169,
      "2019": 4170,
      "slobodna": 4171,
      "postu": 4172,
      "priču": 4173,
      "##zin": 4174,
      "baby": 4175,
      "##ger": 4176,
      "uspjeh": 4177,
      "ani": 4178,
      "sjaj": 4179,
      "ps": 4180,
      "tera": 4181,
      "\":\"\"": 4182,
      "sezona": 4183,
      "jedino": 4184,
      "tomislav": 4185,
      "##340": 4186,
      "##žena": 4187,
      "volje": 4188,
      "postavlja": 4189,
      "kreta": 4190,
      "pronaći": 4191,
      "simbo": 4192,
      "uzbu": 4193,
      "odnos": 4194,
      "onaj": 4195,
      "jedinstve": 4196,
      "otišao": 4197,
      "bje": 4198,
      "##vak": 4199,
      "kome": 4200,
      "prakti": 4201,
      "strada": 4202,
      "probleme": 4203,
      "velikom": 4204,
      "##čnoj": 4205,
      "gri": 4206,
      "##id": 4207,
      "##ćom": 4208,
      "##yo": 4209,
      "izved": 4210,
      "promi": 4211,
      "##rup": 4212,
      "lasa": 4213,
      "osjećaj": 4214,
      "pošto": 4215,
      "diplo": 4216,
      "lani": 4217,
      "ostale": 4218,
      "loptu": 4219,
      "39": 4220,
      "##prav": 4221,
      "svjetskog": 4222,
      "seksua": 4223,
      "obla": 4224,
      "učinko": 4225,
      "parizu": 4226,
      "posa": 4227,
      "##keta": 4228,
      "privla": 4229,
      "boja": 4230,
      "dužno": 4231,
      "##tte": 4232,
      "dovo": 4233,
      "##ženi": 4234,
      "poraza": 4235,
      "najboljih": 4236,
      "budućnosti": 4237,
      "##igra": 4238,
      "##tirati": 4239,
      "nase": 4240,
      "savrše": 4241,
      "grupe": 4242,
      "spremni": 4243,
      "km": 4244,
      "ović": 4245,
      "ex": 4246,
      "##tive": 4247,
      "##ligen": 4248,
      "moru": 4249,
      "jutro": 4250,
      "logi": 4251,
      "proizvođa": 4252,
      "##deset": 4253,
      "epizo": 4254,
      "##ny": 4255,
      "razgova": 4256,
      "društvu": 4257,
      "zrakoplo": 4258,
      "naru": 4259,
      "kali": 4260,
      "moto": 4261,
      "vrijednost": 4262,
      "bici": 4263,
      "mario": 4264,
      "potpo": 4265,
      "loko": 4266,
      "glasno": 4267,
      "osobno": 4268,
      "vijest": 4269,
      "reprezentacija": 4270,
      "takve": 4271,
      "kandidat": 4272,
      "energet": 4273,
      "agre": 4274,
      "##zbo": 4275,
      "##ld": 4276,
      "##len": 4277,
      "sasto": 4278,
      "kupo": 4279,
      "skupina": 4280,
      "potvrdio": 4281,
      "fotografija": 4282,
      "prilago": 4283,
      "jadran": 4284,
      "turu": 4285,
      "vjetar": 4286,
      "imena": 4287,
      "osijek": 4288,
      "njoj": 4289,
      "##kih": 4290,
      "plani": 4291,
      "europskom": 4292,
      "tvrde": 4293,
      "ponekad": 4294,
      "kora": 4295,
      "nega": 4296,
      "##nulo": 4297,
      "toma": 4298,
      "goran": 4299,
      "hrvatsko": 4300,
      "pokazuju": 4301,
      "informacija": 4302,
      "nesreće": 4303,
      "zanimljivo": 4304,
      "##sh": 4305,
      "##đuju": 4306,
      "sloven": 4307,
      "početak": 4308,
      "barcelo": 4309,
      "apso": 4310,
      "37": 4311,
      "domi": 4312,
      "prista": 4313,
      "rusija": 4314,
      "##rnice": 4315,
      "cilje": 4316,
      "sudac": 4317,
      "mandata": 4318,
      "##znu": 4319,
      "stigla": 4320,
      "našu": 4321,
      "##54": 4322,
      "raste": 4323,
      "milo": 4324,
      "brojni": 4325,
      "vozač": 4326,
      "##mio": 4327,
      "veće": 4328,
      "staro": 4329,
      "kojemu": 4330,
      "počela": 4331,
      "ceste": 4332,
      "inteligen": 4333,
      "zatvore": 4334,
      "proces": 4335,
      "filip": 4336,
      "lakše": 4337,
      "##um": 4338,
      "##rova": 4339,
      "rasta": 4340,
      "teren": 4341,
      "prijevo": 4342,
      "##tković": 4343,
      "učiniti": 4344,
      "iskustva": 4345,
      "raspore": 4346,
      "zamije": 4347,
      "##pušte": 4348,
      "izbori": 4349,
      "finalu": 4350,
      "splita": 4351,
      "situacije": 4352,
      "povijest": 4353,
      "suradnji": 4354,
      "nao": 4355,
      "##pila": 4356,
      "trenin": 4357,
      "##rnici": 4358,
      "rijeci": 4359,
      "državnog": 4360,
      "ljest": 4361,
      "treće": 4362,
      "znati": 4363,
      "ruku": 4364,
      "odnosi": 4365,
      "poraz": 4366,
      "nagradu": 4367,
      "dalmacija": 4368,
      "hvala": 4369,
      "##rena": 4370,
      "##ljivi": 4371,
      "tuži": 4372,
      "osvojila": 4373,
      "##ght": 4374,
      "nizozem": 4375,
      "akade": 4376,
      "kapa": 4377,
      "##čaje": 4378,
      "bori": 4379,
      "ujedno": 4380,
      "industri": 4381,
      "dužnosni": 4382,
      "##skr": 4383,
      "##nite": 4384,
      "##lila": 4385,
      "puca": 4386,
      "najvi": 4387,
      "##ham": 4388,
      "austra": 4389,
      "##škog": 4390,
      "svlada": 4391,
      "švica": 4392,
      "listi": 4393,
      "oslo": 4394,
      "vremenu": 4395,
      "želimo": 4396,
      "htio": 4397,
      "##lon": 4398,
      "predi": 4399,
      "##ljep": 4400,
      "zaštite": 4401,
      "budućnost": 4402,
      "povu": 4403,
      "sami": 4404,
      "ravno": 4405,
      "##ljene": 4406,
      "osvr": 4407,
      "ruski": 4408,
      "ostala": 4409,
      "pp_": 4410,
      "navi": 4411,
      "fri": 4412,
      "##voren": 4413,
      "dose": 4414,
      "vodo": 4415,
      "čine": 4416,
      "sv": 4417,
      "##fu": 4418,
      "##ziji": 4419,
      "javlja": 4420,
      "bay": 4421,
      "sindi": 4422,
      "pojača": 4423,
      "bolnici": 4424,
      "provodi": 4425,
      "članovi": 4426,
      "pohvali": 4427,
      "jadranu": 4428,
      "dijelo": 4429,
      "unutra": 4430,
      "radnika": 4431,
      "slijedi": 4432,
      "alek": 4433,
      "opisa": 4434,
      "##mpo": 4435,
      "##rov": 4436,
      "##nov": 4437,
      "##hor": 4438,
      "slike": 4439,
      "grupa": 4440,
      "tržištu": 4441,
      "kriminali": 4442,
      "karak": 4443,
      "jača": 4444,
      "titu": 4445,
      "lov": 4446,
      "zraka": 4447,
      "nesreća": 4448,
      "primo": 4449,
      "##čice": 4450,
      "med": 4451,
      "poznata": 4452,
      "stranka": 4453,
      "##ziran": 4454,
      "pad": 4455,
      "##ćima": 4456,
      "##ber": 4457,
      "##logije": 4458,
      "vukova": 4459,
      "košarka": 4460,
      "##pić": 4461,
      "odgovorio": 4462,
      "gledati": 4463,
      "četvrt": 4464,
      "karijeri": 4465,
      "pregovo": 4466,
      "##šenja": 4467,
      "##tivna": 4468,
      "brazi": 4469,
      "poznat": 4470,
      "bespla": 4471,
      "75": 4472,
      "##lice": 4473,
      "##rine": 4474,
      "inozem": 4475,
      "##teo": 4476,
      "##dobno": 4477,
      "parti": 4478,
      "novinar": 4479,
      "instagramu": 4480,
      "##ft": 4481,
      "nasto": 4482,
      "##lacije": 4483,
      "##voru": 4484,
      "##dite": 4485,
      "ruske": 4486,
      "rješenja": 4487,
      "oj": 4488,
      "##šnjem": 4489,
      "popla": 4490,
      "serije": 4491,
      "##mena": 4492,
      "glavnog": 4493,
      "##nijeti": 4494,
      "školu": 4495,
      "dobre": 4496,
      "##ljeno": 4497,
      "razo": 4498,
      "opće": 4499,
      "državni": 4500,
      "velikog": 4501,
      "skr": 4502,
      "halji": 4503,
      "postoja": 4504,
      "našoj": 4505,
      "priopćenju": 4506,
      "sra": 4507,
      "##vrije": 4508,
      "##ret": 4509,
      "zapovje": 4510,
      "razvoja": 4511,
      "razdoblju": 4512,
      "plju": 4513,
      "smis": 4514,
      "##đenih": 4515,
      "različiti": 4516,
      "našem": 4517,
      "navijači": 4518,
      "obožava": 4519,
      "sru": 4520,
      "tvo": 4521,
      "196": 4522,
      "europskih": 4523,
      "iznos": 4524,
      "##nuto": 4525,
      "stana": 4526,
      "##vljeni": 4527,
      "istaknula": 4528,
      "svakog": 4529,
      "tenisa": 4530,
      "defini": 4531,
      "##est": 4532,
      "bur": 4533,
      "poruka": 4534,
      "zgrade": 4535,
      "izbjega": 4536,
      "poko": 4537,
      "razliku": 4538,
      "karijeru": 4539,
      "zvo": 4540,
      "##boru": 4541,
      "papi": 4542,
      "dogodila": 4543,
      "povećanje": 4544,
      "festivala": 4545,
      "derbi": 4546,
      "lokomo": 4547,
      "ama": 4548,
      "##tek": 4549,
      "minima": 4550,
      "lista": 4551,
      "65": 4552,
      "ice": 4553,
      "##gna": 4554,
      "kolek": 4555,
      "inspi": 4556,
      "gar": 4557,
      "prošlog": 4558,
      "rezultati": 4559,
      "enje": 4560,
      "ila": 4561,
      "obrati": 4562,
      "igraju": 4563,
      "objašnjava": 4564,
      "vremen": 4565,
      "iska": 4566,
      "##jedna": 4567,
      "boje": 4568,
      "srca": 4569,
      "ideja": 4570,
      "zahvali": 4571,
      "iš": 4572,
      "uzima": 4573,
      "##tivan": 4574,
      "kop": 4575,
      "provede": 4576,
      "jak": 4577,
      "borbi": 4578,
      "osigura": 4579,
      "zatvora": 4580,
      "utjecaj": 4581,
      "nevjeroja": 4582,
      "flo": 4583,
      "##ziva": 4584,
      "istraživanja": 4585,
      "mor": 4586,
      "svjetski": 4587,
      "britan": 4588,
      "održati": 4589,
      "nagrada": 4590,
      "serija": 4591,
      "pravila": 4592,
      "##poznati": 4593,
      "kapetan": 4594,
      "##_272090": 4595,
      "poe": 4596,
      "##vile": 4597,
      "dar": 4598,
      "navečer": 4599,
      "##nec": 4600,
      "donio": 4601,
      "##lena": 4602,
      "##dera": 4603,
      "##graf": 4604,
      "##rea": 4605,
      "kog": 4606,
      "golova": 4607,
      "##šan": 4608,
      "moram": 4609,
      "novča": 4610,
      "lji": 4611,
      "cijele": 4612,
      "zahtjev": 4613,
      "##sc": 4614,
      "##mani": 4615,
      "bilje": 4616,
      "kim": 4617,
      "##vljeno": 4618,
      "198": 4619,
      "luke": 4620,
      "kreće": 4621,
      "odigrao": 4622,
      "yor": 4623,
      "##kvih": 4624,
      "slika": 4625,
      "programu": 4626,
      "trgovi": 4627,
      "raspolo": 4628,
      "turnira": 4629,
      "##vljuje": 4630,
      "kilograma": 4631,
      "olu": 4632,
      "kara": 4633,
      "##gara": 4634,
      "nik": 4635,
      "kupu": 4636,
      "spor": 4637,
      "voditelj": 4638,
      "temelju": 4639,
      "milijardi": 4640,
      "priopći": 4641,
      "64": 4642,
      "##lli": 4643,
      "lica": 4644,
      "##han": 4645,
      "hama": 4646,
      "velik": 4647,
      "arhi": 4648,
      "amerika": 4649,
      "završila": 4650,
      "glumica": 4651,
      "etvr": 4652,
      "etiri": 4653,
      "špi": 4654,
      "kama": 4655,
      "##mova": 4656,
      "osni": 4657,
      "stavlja": 4658,
      "sporazu": 4659,
      "njihovu": 4660,
      "zaštitu": 4661,
      "blago": 4662,
      "modrić": 4663,
      "mobite": 4664,
      "##mana": 4665,
      "spomi": 4666,
      "poruku": 4667,
      "sumnja": 4668,
      "##ćim": 4669,
      "stariji": 4670,
      "simp": 4671,
      "londo": 4672,
      "smatraju": 4673,
      "ulice": 4674,
      "koga": 4675,
      "progno": 4676,
      "pribli": 4677,
      "##zacije": 4678,
      "igrama": 4679,
      "školi": 4680,
      "pjesma": 4681,
      "mandat": 4682,
      "maksima": 4683,
      "zvijez": 4684,
      "teri": 4685,
      "razvija": 4686,
      "martin": 4687,
      "navijača": 4688,
      "nagrade": 4689,
      "konačno": 4690,
      "##jska": 4691,
      "##naca": 4692,
      "tisuće": 4693,
      "premijera": 4694,
      "prijedlog": 4695,
      "##kte": 4696,
      "nost": 4697,
      "tam": 4698,
      "##pili": 4699,
      "treni": 4700,
      "jednako": 4701,
      "kapaci": 4702,
      "potak": 4703,
      "dovesti": 4704,
      "sas": 4705,
      "novoj": 4706,
      "roman": 4707,
      "njezine": 4708,
      "američki": 4709,
      "blizu": 4710,
      "kategoriji": 4711,
      "bron": 4712,
      "ulazi": 4713,
      "šved": 4714,
      "tor": 4715,
      "sjedni": 4716,
      "otkriva": 4717,
      "elektro": 4718,
      "supa": 4719,
      "plas": 4720,
      "talija": 4721,
      "hercego": 4722,
      "podni": 4723,
      "##zirati": 4724,
      "prednost": 4725,
      "ostalim": 4726,
      "stvara": 4727,
      "ovisno": 4728,
      "prošli": 4729,
      "skoj": 4730,
      "##nes": 4731,
      "petra": 4732,
      "konkre": 4733,
      "stoljeća": 4734,
      "tjele": 4735,
      "pozvao": 4736,
      "saveza": 4737,
      "zbi": 4738,
      "##lega": 4739,
      "baca": 4740,
      "predvo": 4741,
      "djeci": 4742,
      "trage": 4743,
      "žive": 4744,
      "uvjetima": 4745,
      "igru": 4746,
      "48": 4747,
      "wil": 4748,
      "popra": 4749,
      "##ženja": 4750,
      "večeras": 4751,
      "prigo": 4752,
      "predlo": 4753,
      "ostalo": 4754,
      "42": 4755,
      "##ana": 4756,
      "##us": 4757,
      "proba": 4758,
      "##kin": 4759,
      "##štava": 4760,
      "medije": 4761,
      "ulica": 4762,
      "dokaza": 4763,
      "##mentu": 4764,
      "adre": 4765,
      "demokrat": 4766,
      "apsolu": 4767,
      "ori": 4768,
      "##žna": 4769,
      "košta": 4770,
      "petro": 4771,
      "pobijedio": 4772,
      "ivot": 4773,
      "članova": 4774,
      "usluga": 4775,
      "donijeti": 4776,
      "evi": 4777,
      "hva": 4778,
      "##stvima": 4779,
      "menta": 4780,
      "javnog": 4781,
      "##put": 4782,
      "potpred": 4783,
      "brod": 4784,
      "slova": 4785,
      "velikih": 4786,
      "podataka": 4787,
      "potpredsjedni": 4788,
      "ara": 4789,
      "##kciju": 4790,
      "nalaze": 4791,
      "izjedna": 4792,
      "##njeva": 4793,
      "##bacio": 4794,
      "trene": 4795,
      "autoce": 4796,
      "širo": 4797,
      "aplika": 4798,
      "##cm": 4799,
      "dogo": 4800,
      "##kinja": 4801,
      "rastu": 4802,
      "kuću": 4803,
      "##sport": 4804,
      "nukle": 4805,
      "pokušava": 4806,
      "pozdra": 4807,
      "uživa": 4808,
      "detalj": 4809,
      "uspješno": 4810,
      "trenutačno": 4811,
      "postupak": 4812,
      "vši": 4813,
      "mal": 4814,
      "tikto": 4815,
      "##burg": 4816,
      "##žuje": 4817,
      "obavlja": 4818,
      "vijesti": 4819,
      "udarac": 4820,
      "bolnice": 4821,
      "porez": 4822,
      "dosada": 4823,
      "zadnjih": 4824,
      "kriminalisti": 4825,
      "esto": 4826,
      "##kro": 4827,
      "##čara": 4828,
      "prednosti": 4829,
      "znak": 4830,
      "obično": 4831,
      "njegovim": 4832,
      "##cijske": 4833,
      "obave": 4834,
      "sredstava": 4835,
      "neovi": 4836,
      "##mlja": 4837,
      "##es": 4838,
      "bom": 4839,
      "##njim": 4840,
      "vrsta": 4841,
      "197": 4842,
      "spreman": 4843,
      "rješa": 4844,
      "velikoj": 4845,
      "isključi": 4846,
      "##dama": 4847,
      "četvrti": 4848,
      "formi": 4849,
      "pjevačica": 4850,
      "redovito": 4851,
      "cjelo": 4852,
      "##vca": 4853,
      "pored": 4854,
      "zag": 4855,
      "sino": 4856,
      "organizacije": 4857,
      "studenog": 4858,
      "temperature": 4859,
      "servi": 4860,
      "ratu": 4861,
      "desni": 4862,
      "znate": 4863,
      "igrače": 4864,
      "opti": 4865,
      "##fer": 4866,
      "morao": 4867,
      "srce": 4868,
      "odgovornost": 4869,
      "pravosu": 4870,
      "##119": 4871,
      "\\/": 4872,
      "ušao": 4873,
      "progla": 4874,
      "moć": 4875,
      "mala": 4876,
      "ukrajine": 4877,
      "uobi": 4878,
      "njegovom": 4879,
      "skladu": 4880,
      "jaki": 4881,
      "čovjeka": 4882,
      "##reni": 4883,
      "dodje": 4884,
      "##rnika": 4885,
      "prvak": 4886,
      "trgova": 4887,
      "manife": 4888,
      "##snom": 4889,
      "prošao": 4890,
      "propusti": 4891,
      "##sira": 4892,
      "inspe": 4893,
      "##nijela": 4894,
      "tehnologi": 4895,
      "eg": 4896,
      "##čije": 4897,
      "##ncu": 4898,
      "naći": 4899,
      "kakva": 4900,
      "odmor": 4901,
      "prijatelja": 4902,
      "poziciju": 4903,
      "skoro": 4904,
      "najveća": 4905,
      "podacima": 4906,
      "ati": 4907,
      "ur": 4908,
      "donal": 4909,
      "radovi": 4910,
      "##sad": 4911,
      "##ženo": 4912,
      "hrvatskim": 4913,
      "rok": 4914,
      "brat": 4915,
      "odmo": 4916,
      "##ljenje": 4917,
      "##ture": 4918,
      "kuhi": 4919,
      "znatno": 4920,
      "rumu": 4921,
      "nastavku": 4922,
      "pokazali": 4923,
      "promijeniti": 4924,
      "palesti": 4925,
      "ubrzo": 4926,
      "52": 4927,
      "uki": 4928,
      "doista": 4929,
      "bod": 4930,
      "predsjednica": 4931,
      "##godišnji": 4932,
      "mreže": 4933,
      "izvu": 4934,
      "loši": 4935,
      "##tnica": 4936,
      "napravili": 4937,
      "domovinskog": 4938,
      "mrt": 4939,
      "##the": 4940,
      "##kati": 4941,
      "##vec": 4942,
      "destina": 4943,
      "srbija": 4944,
      "aktivi": 4945,
      "idea": 4946,
      "idemo": 4947,
      "filmu": 4948,
      "prostoru": 4949,
      "interven": 4950,
      "rekor": 4951,
      "sasvim": 4952,
      "##jnu": 4953,
      "##bran": 4954,
      "vale": 4955,
      "vodio": 4956,
      "1920x": 4957,
      "ljepo": 4958,
      "interes": 4959,
      "jugosla": 4960,
      "ravnatelj": 4961,
      "##_271988": 4962,
      "ujedi": 4963,
      "##ori": 4964,
      "jef": 4965,
      "moli": 4966,
      "##ćev": 4967,
      "znao": 4968,
      "##fici": 4969,
      "sadr": 4970,
      "medijima": 4971,
      "zim": 4972,
      "opora": 4973,
      "ivica": 4974,
      "##dit": 4975,
      "tero": 4976,
      "samosta": 4977,
      "2018": 4978,
      "model": 4979,
      "odnose": 4980,
      "vozilo": 4981,
      "rizik": 4982,
      "četvrtfina": 4983,
      "h_": 4984,
      "njom": 4985,
      "##ps": 4986,
      "##lacija": 4987,
      "##dilo": 4988,
      "##bama": 4989,
      "podra": 4990,
      "tijeku": 4991,
      "cesti": 4992,
      "glasnogovo": 4993,
      "44": 4994,
      "snije": 4995,
      "čije": 4996,
      "teške": 4997,
      "znanja": 4998,
      "kontinu": 4999,
      "riječima": 5000,
      "##skup": 5001,
      "##ments": 5002,
      "povratak": 5003,
      "stupnjeva": 5004,
      "iji": 5005,
      "k_": 5006,
      "olak": 5007,
      "##spje": 5008,
      "preži": 5009,
      "##čani": 5010,
      "razmje": 5011,
      "odlučili": 5012,
      "cel": 5013,
      "istom": 5014,
      "ističu": 5015,
      "njemačke": 5016,
      "odabra": 5017,
      "milanovi": 5018,
      "studija": 5019,
      "činjenica": 5020,
      "##ira": 5021,
      "##hn": 5022,
      "jednim": 5023,
      "##miru": 5024,
      "##ćena": 5025,
      "##ljka": 5026,
      "##ljive": 5027,
      "##vniku": 5028,
      "ovisi": 5029,
      "politički": 5030,
      "ukrajinu": 5031,
      "skupini": 5032,
      "eduka": 5033,
      "smislu": 5034,
      "400": 5035,
      "2016": 5036,
      "prvenstve": 5037,
      "usluge": 5038,
      "##ticle": 5039,
      "koprivni": 5040,
      "rumunj": 5041,
      "damir": 5042,
      "neiz": 5043,
      "morati": 5044,
      "##šili": 5045,
      "##tivnih": 5046,
      "##čnost": 5047,
      "građane": 5048,
      "rođendan": 5049,
      ".)": 5050,
      "##od": 5051,
      "postupa": 5052,
      "korup": 5053,
      "most": 5054,
      "##njeno": 5055,
      "mira": 5056,
      "najljep": 5057,
      "broju": 5058,
      "favori": 5059,
      "njemačka": 5060,
      "dogoditi": 5061,
      "inova": 5062,
      "domu": 5063,
      "##bice": 5064,
      "inde": 5065,
      "vidimo": 5066,
      "dokumenta": 5067,
      "chi": 5068,
      "qu": 5069,
      "##ssi": 5070,
      "##zama": 5071,
      "vama": 5072,
      "situaciji": 5073,
      "##prijed": 5074,
      "domaćin": 5075,
      "najvećih": 5076,
      "dogodio": 5077,
      "##nior": 5078,
      "komi": 5079,
      "odvija": 5080,
      "duho": 5081,
      "odluči": 5082,
      "hoda": 5083,
      "stiže": 5084,
      "napadu": 5085,
      "vjeruje": 5086,
      "##cka": 5087,
      "##jić": 5088,
      "teški": 5089,
      "nici": 5090,
      "niste": 5091,
      "val": 5092,
      "baci": 5093,
      "fanta": 5094,
      "nastavio": 5095,
      "pogodio": 5096,
      "pretpo": 5097,
      "račun": 5098,
      "funkcionira": 5099,
      "šanse": 5100,
      "izuzetno": 5101,
      "sudu": 5102,
      "prekra": 5103,
      "privu": 5104,
      "makar": 5105,
      "##zirao": 5106,
      "roku": 5107,
      "najbolja": 5108,
      "poruke": 5109,
      "smr": 5110,
      "priznao": 5111,
      "ugovora": 5112,
      "ote": 5113,
      "onima": 5114,
      "##nsku": 5115,
      "##listi": 5116,
      "##ćenje": 5117,
      "najče": 5118,
      "title": 5119,
      "riješiti": 5120,
      "zemlju": 5121,
      "27119": 5122,
      "pokazati": 5123,
      "susretu": 5124,
      "##zij": 5125,
      "grani": 5126,
      "potpunosti": 5127,
      "knjige": 5128,
      "dalmati": 5129,
      "()": 5130,
      "##16": 5131,
      "zatra": 5132,
      "##čena": 5133,
      "vodu": 5134,
      "stambe": 5135,
      "opskr": 5136,
      "postigao": 5137,
      "##pisuje": 5138,
      "o_": 5139,
      "tz": 5140,
      "##ction": 5141,
      "##žnja": 5142,
      "prem": 5143,
      "gostu": 5144,
      "vole": 5145,
      "##šak": 5146,
      "ing": 5147,
      "letje": 5148,
      "njihovim": 5149,
      "pobjedni": 5150,
      "crkve": 5151,
      "nadzor": 5152,
      "##_2717955": 5153,
      "62": 5154,
      "##nku": 5155,
      "net": 5156,
      "starije": 5157,
      "granice": 5158,
      "fer": 5159,
      "govoriti": 5160,
      "uvjete": 5161,
      "regiji": 5162,
      "vlasnik": 5163,
      "opor": 5164,
      "uključuje": 5165,
      "naveo": 5166,
      "preminuo": 5167,
      "##strije": 5168,
      "sabora": 5169,
      "##ket": 5170,
      "##čića": 5171,
      "perio": 5172,
      "glavu": 5173,
      "siguran": 5174,
      "požar": 5175,
      "srbiji": 5176,
      "liga": 5177,
      "putin": 5178,
      "ispita": 5179,
      "prodaje": 5180,
      "različitih": 5181,
      "apa": 5182,
      "nami": 5183,
      "pokri": 5184,
      "raka": 5185,
      "preci": 5186,
      "ligu": 5187,
      "pravu": 5188,
      "ostalih": 5189,
      "temelj": 5190,
      "alkohola": 5191,
      "simpto": 5192,
      "ulja": 5193,
      "ća": 5194,
      "neku": 5195,
      "prolazi": 5196,
      "pišu": 5197,
      "slaven": 5198,
      "podatke": 5199,
      "legenda": 5200,
      "sekundi": 5201,
      "planu": 5202,
      "opro": 5203,
      "morate": 5204,
      "##...": 5205,
      "hit": 5206,
      "krvi": 5207,
      "parlamentar": 5208,
      "char": 5209,
      "sank": 5210,
      "vino": 5211,
      "star": 5212,
      "njegovi": 5213,
      "njihovih": 5214,
      "počeli": 5215,
      "varaždina": 5216,
      "policijski": 5217,
      "potroša": 5218,
      "uma": 5219,
      "##šo": 5220,
      "povla": 5221,
      "mosta": 5222,
      "međi": 5223,
      "##vjela": 5224,
      "znanosti": 5225,
      "##tnije": 5226,
      "dijelom": 5227,
      "županija": 5228,
      "podsjeća": 5229,
      "konferenciji": 5230,
      "46": 5231,
      "##šnjo": 5232,
      "##dije": 5233,
      "##tovi": 5234,
      "##lović": 5235,
      "mami": 5236,
      "javne": 5237,
      "čija": 5238,
      "odlučila": 5239,
      "kontinui": 5240,
      "68": 5241,
      "veća": 5242,
      "razre": 5243,
      "nekog": 5244,
      "dugoro": 5245,
      "##cioni": 5246,
      "policijske": 5247,
      "ozbiljno": 5248,
      "agencija": 5249,
      "bivšeg": 5250,
      "portal": 5251,
      "##strija": 5252,
      "sanja": 5253,
      "##zaciju": 5254,
      "tvrtki": 5255,
      "uvjer": 5256,
      "nekad": 5257,
      "fotografiju": 5258,
      "vatrogasci": 5259,
      "##scipli": 5260,
      "stručnjaci": 5261,
      "međimu": 5262,
      "teži": 5263,
      "bavi": 5264,
      "samom": 5265,
      "alba": 5266,
      "tržište": 5267,
      "naroda": 5268,
      "primor": 5269,
      "teo": 5270,
      "##dove": 5271,
      "##njih": 5272,
      "srednje": 5273,
      "far": 5274,
      "zdravlja": 5275,
      "milijun": 5276,
      "trumpa": 5277,
      "klimat": 5278,
      "primorac": 5279,
      "pogodi": 5280,
      "prave": 5281,
      "tribi": 5282,
      "##ravak": 5283,
      "šibenik": 5284,
      "korištenje": 5285,
      "##liga": 5286,
      "sela": 5287,
      "šef": 5288,
      "prilike": 5289,
      "reprezentaciju": 5290,
      "građanima": 5291,
      "varaždinu": 5292,
      "takva": 5293,
      "ostvari": 5294,
      "podaci": 5295,
      "bogat": 5296,
      "prometu": 5297,
      "conta": 5298,
      "oslobo": 5299,
      "eri": 5300,
      "zadru": 5301,
      "mama": 5302,
      "boji": 5303,
      "##peri": 5304,
      "pis": 5305,
      "stranici": 5306,
      "stopa": 5307,
      "područje": 5308,
      "sportski": 5309,
      "republika": 5310,
      "učenika": 5311,
      "zemljama": 5312,
      "povodom": 5313,
      "enja": 5314,
      "zadra": 5315,
      "dala": 5316,
      "pas": 5317,
      "hrvati": 5318,
      "ange": 5319,
      "luksu": 5320,
      "publika": 5321,
      "varaždinske": 5322,
      "humani": 5323,
      "detalje": 5324,
      "igara": 5325,
      "kg": 5326,
      "##jevima": 5327,
      "##vani": 5328,
      "znali": 5329,
      "svaku": 5330,
      "ministri": 5331,
      "lokalne": 5332,
      "bolnicu": 5333,
      "procije": 5334,
      "pregleda": 5335,
      "##pisi": 5336,
      "bog": 5337,
      "gat": 5338,
      "gazi": 5339,
      "krenuo": 5340,
      "snagu": 5341,
      "640x4": 5342,
      "veljače": 5343,
      "pože": 5344,
      "dobije": 5345,
      "tima": 5346,
      "jedva": 5347,
      "plasti": 5348,
      "vrh": 5349,
      "uklo": 5350,
      "nastavak": 5351,
      "europska": 5352,
      "razvoju": 5353,
      "!\"": 5354,
      "##tije": 5355,
      "##jice": 5356,
      "kakve": 5357,
      "politika": 5358,
      "istina": 5359,
      "glumac": 5360,
      "sumnje": 5361,
      "ogrom": 5362,
      "josipa": 5363,
      "članica": 5364,
      "policaj": 5365,
      "manifesta": 5366,
      "ane": 5367,
      "##et": 5368,
      "pristupa": 5369,
      "hrvata": 5370,
      "svatko": 5371,
      "##čuju": 5372,
      "izabra": 5373,
      "uprava": 5374,
      "ukrajina": 5375,
      "pokret": 5376,
      "građevi": 5377,
      "iznosu": 5378,
      "poni": 5379,
      "##čari": 5380,
      "##hom": 5381,
      "objave": 5382,
      "morali": 5383,
      "slavi": 5384,
      "sigurni": 5385,
      "kvalitete": 5386,
      "zastupnika": 5387,
      "položa": 5388,
      "dobru": 5389,
      "##ds": 5390,
      "##tov": 5391,
      "doj": 5392,
      "##tnice": 5393,
      "kombi": 5394,
      "sljedeće": 5395,
      "večeri": 5396,
      "blagdan": 5397,
      "220": 5398,
      "crno": 5399,
      "uka": 5400,
      "vanje": 5401,
      "...'": 5402,
      "jedina": 5403,
      "razinu": 5404,
      "kultur": 5405,
      "prometne": 5406,
      "you": 5407,
      "##is": 5408,
      "kiša": 5409,
      "proizvodnje": 5410,
      "zajednica": 5411,
      "napome": 5412,
      "šoki": 5413,
      "kbc": 5414,
      "##tti": 5415,
      "##šnjoj": 5416,
      "##69": 5417,
      "##njena": 5418,
      "##bano": 5419,
      "vita": 5420,
      "vrste": 5421,
      "##slava": 5422,
      "obranu": 5423,
      "pripreme": 5424,
      "vidim": 5425,
      "suprug": 5426,
      "atra": 5427,
      "##lt": 5428,
      "nare": 5429,
      "libano": 5430,
      "##intere": 5431,
      "##misli": 5432,
      "natjecanje": 5433,
      "knjiže": 5434,
      "images": 5435,
      "ulaganja": 5436,
      "es": 5437,
      "sme": 5438,
      "sha": 5439,
      "##zmu": 5440,
      "##laga": 5441,
      "##tetu": 5442,
      "najpoznati": 5443,
      "šeće": 5444,
      "dvostru": 5445,
      "najveće": 5446,
      "glum": 5447,
      "partnera": 5448,
      "forma": 5449,
      "španjolske": 5450,
      "pomaže": 5451,
      "stanovnika": 5452,
      "plasman": 5453,
      "uobičaje": 5454,
      "ade": 5455,
      "ev": 5456,
      "ocije": 5457,
      "pripada": 5458,
      "nice": 5459,
      "radili": 5460,
      "službeno": 5461,
      "agencije": 5462,
      "##rskoj": 5463,
      "zaintere": 5464,
      "preo": 5465,
      "prese": 5466,
      "priori": 5467,
      "magi": 5468,
      "mail": 5469,
      "liste": 5470,
      "gradske": 5471,
      "##_272": 5472,
      "platformi": 5473,
      "##ys": 5474,
      "prido": 5475,
      "stav": 5476,
      "pena": 5477,
      "pokušao": 5478,
      "1280x8": 5479,
      "nekretnine": 5480,
      "naglašava": 5481,
      "even": 5482,
      "teška": 5483,
      "potporu": 5484,
      "plasi": 5485,
      "brojnim": 5486,
      "dijeli": 5487,
      "satima": 5488,
      "pogodak": 5489,
      "dolazak": 5490,
      "otvoreno": 5491,
      "generacije": 5492,
      "portugal": 5493,
      "sen": 5494,
      "prikaza": 5495,
      "prince": 5496,
      "##čaja": 5497,
      "##žem": 5498,
      "samog": 5499,
      "političke": 5500,
      "150": 5501,
      "desetak": 5502,
      "robert": 5503,
      "ao": 5504,
      "oču": 5505,
      "##kta": 5506,
      "biden": 5507,
      "raj": 5508,
      "link": 5509,
      "##snost": 5510,
      "nacional": 5511,
      "analiti": 5512,
      "rekord": 5513,
      "sveučilišta": 5514,
      "mlije": 5515,
      "svu": 5516,
      "nacija": 5517,
      "##lanja": 5518,
      "odlazi": 5519,
      "propisa": 5520,
      "mara": 5521,
      "##žer": 5522,
      "plenkovi": 5523,
      "\":\"\"\",": 5524,
      "isključivo": 5525,
      "ol": 5526,
      "proje": 5527,
      "ran": 5528,
      "osmi": 5529,
      "pratiti": 5530,
      "briga": 5531,
      "slično": 5532,
      "putovanja": 5533,
      "ii": 5534,
      "oca": 5535,
      "##ms": 5536,
      "##šne": 5537,
      "##nc": 5538,
      "##28": 5539,
      "zalju": 5540,
      "##ler": 5541,
      "##sob": 5542,
      "kriv": 5543,
      "kaznenog": 5544,
      "##zerva": 5545,
      "cijenu": 5546,
      "uru": 5547,
      "šteta": 5548,
      "##zme": 5549,
      "##žnom": 5550,
      "##valo": 5551,
      "##ntima": 5552,
      "izjavila": 5553,
      "štetu": 5554,
      "pažnju": 5555,
      "eni": 5556,
      "pije": 5557,
      "##luju": 5558,
      "vala": 5559,
      "voditi": 5560,
      "vrijedi": 5561,
      "odnosa": 5562,
      "borbu": 5563,
      "hranu": 5564,
      "telef": 5565,
      "njegovog": 5566,
      "razdoblje": 5567,
      "sjevero": 5568,
      "ul": 5569,
      "naju": 5570,
      "propa": 5571,
      "mag": 5572,
      "važan": 5573,
      "duga": 5574,
      "njihovo": 5575,
      "liječni": 5576,
      "domaće": 5577,
      "njegovoj": 5578,
      "##uthor": 5579,
      "povjeren": 5580,
      "hotel": 5581,
      "vanjskih": 5582,
      "##niku": 5583,
      "##njeg": 5584,
      "##bić": 5585,
      "javni": 5586,
      "ciljem": 5587,
      "trofe": 5588,
      "uključi": 5589,
      "dubrovnika": 5590,
      "završiti": 5591,
      "značajno": 5592,
      "galerija": 5593,
      "fantasti": 5594,
      "gran": 5595,
      "oprav": 5596,
      "proti": 5597,
      "##njene": 5598,
      "##stiti": 5599,
      "mile": 5600,
      "njihovi": 5601,
      "europskim": 5602,
      "##ndro": 5603,
      "razine": 5604,
      "kolege": 5605,
      "nogometaši": 5606,
      "poslijepodne": 5607,
      "internet": 5608,
      "šću": 5609,
      "##con": 5610,
      "##šnju": 5611,
      "pou": 5612,
      "post": 5613,
      "##cifi": 5614,
      "izi": 5615,
      "prolaz": 5616,
      "bana": 5617,
      "današnji": 5618,
      "trgu": 5619,
      "posebice": 5620,
      "američke": 5621,
      "prodaju": 5622,
      "neobi": 5623,
      "čvr": 5624,
      "##_ar": 5625,
      "men": 5626,
      "meteo": 5627,
      "discipli": 5628,
      "##zora": 5629,
      "2017": 5630,
      "struktu": 5631,
      "interesa": 5632,
      "instagram": 5633,
      "duboko": 5634,
      "afe": 5635,
      "sp": 5636,
      "bijeli": 5637,
      "mos": 5638,
      "##miju": 5639,
      "dubra": 5640,
      "ruka": 5641,
      "otprili": 5642,
      "komp": 5643,
      "pojasni": 5644,
      "suradnju": 5645,
      "odlično": 5646,
      "harris": 5647,
      "različite": 5648,
      "prijevoz": 5649,
      "otprilike": 5650,
      "47": 5651,
      "ine": 5652,
      "đu": 5653,
      "##mna": 5654,
      "postro": 5655,
      "##sigu": 5656,
      "nica": 5657,
      "tad": 5658,
      "drugima": 5659,
      "pobjedom": 5660,
      "poseban": 5661,
      "crne": 5662,
      "skih": 5663,
      "španjolska": 5664,
      "odvjetnik": 5665,
      "obrazovanja": 5666,
      "normalno": 5667,
      "##juće": 5668,
      "nekom": 5669,
      "okolnosti": 5670,
      "onoga": 5671,
      "potez": 5672,
      "muškaraca": 5673,
      "izvođa": 5674,
      "kvalitetu": 5675,
      "psihi": 5676,
      "vikenda": 5677,
      "aleksan": 5678,
      "ira": 5679,
      "uko": 5680,
      "napu": 5681,
      "dis": 5682,
      "##gija": 5683,
      "##presi": 5684,
      "##snik": 5685,
      "njegovih": 5686,
      "kreve": 5687,
      "osobama": 5688,
      "osigurati": 5689,
      "zadovoljni": 5690,
      "premda": 5691,
      "fron": 5692,
      "ora": 5693,
      "pen": 5694,
      "preven": 5695,
      "make": 5696,
      "##hoto": 5697,
      "civi": 5698,
      "cilja": 5699,
      "svjesni": 5700,
      "dubrovniku": 5701,
      "katastro": 5702,
      "potrebna": 5703,
      "gattu": 5704,
      "poti": 5705,
      "popis": 5706,
      "najpo": 5707,
      "##hani": 5708,
      "objavi": 5709,
      "predstavni": 5710,
      "##veden": 5711,
      "##chester": 5712,
      "uskok": 5713,
      "220x14": 5714,
      "saraje": 5715,
      "//": 5716,
      "49": 5717,
      "eno": 5718,
      "uku": 5719,
      "##nuta": 5720,
      "testi": 5721,
      "##šića": 5722,
      "otpada": 5723,
      "cijela": 5724,
      "rezultata": 5725,
      "temelji": 5726,
      "statisti": 5727,
      "oružja": 5728,
      "optimi": 5729,
      "63": 5730,
      "tt": 5731,
      "##dbe": 5732,
      "koše": 5733,
      "mila": 5734,
      "##šati": 5735,
      "razno": 5736,
      "siro": 5737,
      "isho": 5738,
      "glasi": 5739,
      "živjeti": 5740,
      "čast": 5741,
      "prijave": 5742,
      "održava": 5743,
      "želite": 5744,
      "milanovića": 5745,
      "poslao": 5746,
      "uža": 5747,
      "preosta": 5748,
      "##bin": 5749,
      "vaša": 5750,
      "rusije": 5751,
      "djeteta": 5752,
      "državne": 5753,
      "postane": 5754,
      "fazi": 5755,
      "luci": 5756,
      "braka": 5757,
      "gradskog": 5758,
      "borba": 5759,
      "napomi": 5760,
      "ponavlja": 5761,
      "zgrada": 5762,
      "kvadra": 5763,
      "pozornost": 5764,
      "43": 5765,
      "##čaka": 5766,
      "sveti": 5767,
      "glavna": 5768,
      "sretan": 5769,
      "nemamo": 5770,
      "pješa": 5771,
      "prijateljima": 5772,
      "župan": 5773,
      "umjetnosti": 5774,
      "izgubili": 5775,
      "turnir": 5776,
      "svakodnevno": 5777,
      "facebook": 5778,
      "oli": 5779,
      "##jsko": 5780,
      "##žbu": 5781,
      "##kete": 5782,
      "##traj": 5783,
      "želja": 5784,
      "rim": 5785,
      "ministra": 5786,
      "sukoba": 5787,
      "manchester": 5788,
      "kompanija": 5789,
      "58": 5790,
      "600": 5791,
      "našao": 5792,
      "##jak": 5793,
      "datu": 5794,
      "##mila": 5795,
      "##ljom": 5796,
      "nekako": 5797,
      "zdravstva": 5798,
      "dnevnik": 5799,
      "korisnika": 5800,
      "godišnjeg": 5801,
      "poljudu": 5802,
      "posljedice": 5803,
      "načelnik": 5804,
      "##gro": 5805,
      "jelo": 5806,
      "koj": 5807,
      "davor": 5808,
      "prolje": 5809,
      "meto": 5810,
      "svoja": 5811,
      "najte": 5812,
      "john": 5813,
      "petar": 5814,
      "policiji": 5815,
      "vlast": 5816,
      "istoku": 5817,
      "upotre": 5818,
      "troje": 5819,
      "hezbo": 5820,
      "web": 5821,
      "related": 5822,
      "mišljenje": 5823,
      "\"...": 5824,
      "41": 5825,
      "54": 5826,
      "ape": 5827,
      "klije": 5828,
      "##ff": 5829,
      "##vero": 5830,
      "sal": 5831,
      "vezu": 5832,
      "pušta": 5833,
      "##gledu": 5834,
      "objavili": 5835,
      "geo": 5836,
      "organizaciji": 5837,
      "knjiga": 5838,
      "##proda": 5839,
      "utjecati": 5840,
      "kolega": 5841,
      "očekivati": 5842,
      "neugo": 5843,
      "turizma": 5844,
      "nasilja": 5845,
      "unutrašnjo": 5846,
      "##rh": 5847,
      "##kvu": 5848,
      "selu": 5849,
      "najgo": 5850,
      "banke": 5851,
      "peti": 5852,
      "krenuli": 5853,
      "stigli": 5854,
      "očekuju": 5855,
      "nositi": 5856,
      "francuska": 5857,
      "podijelila": 5858,
      "lasagna": 5859,
      "projekata": 5860,
      "bjeli": 5861,
      "igor": 5862,
      "ošt": 5863,
      "zri": 5864,
      "##jd": 5865,
      "##lti": 5866,
      "namije": 5867,
      "##lizira": 5868,
      "##vicu": 5869,
      "gostima": 5870,
      "##ziv": 5871,
      "##mice": 5872,
      "2000": 5873,
      "roditelja": 5874,
      "takvih": 5875,
      "ispričao": 5876,
      "status": 5877,
      "aja": 5878,
      "zauze": 5879,
      "sekto": 5880,
      "nepozna": 5881,
      "negdje": 5882,
      "motor": 5883,
      "##zao": 5884,
      "kupiti": 5885,
      "tjedana": 5886,
      "događaj": 5887,
      "napadač": 5888,
      "važnost": 5889,
      "općina": 5890,
      "pomalo": 5891,
      "##tkinja": 5892,
      "ambi": 5893,
      "itekako": 5894,
      "ući": 5895,
      "##mla": 5896,
      "##dy": 5897,
      "##šna": 5898,
      "zasad": 5899,
      "##letio": 5900,
      "proved": 5901,
      "preva": 5902,
      "baze": 5903,
      "braku": 5904,
      "zove": 5905,
      "sportske": 5906,
      "francuske": 5907,
      "vlasništvu": 5908,
      "crveni": 5909,
      "bivša": 5910,
      "putovanje": 5911,
      "afri": 5912,
      "340x2": 5913,
      "definitivno": 5914,
      "poena": 5915,
      "dvori": 5916,
      "proveo": 5917,
      "invali": 5918,
      "platiti": 5919,
      "dobiva": 5920,
      "državi": 5921,
      "##hing": 5922,
      "##ština": 5923,
      "dvobo": 5924,
      "pogledati": 5925,
      "muškarca": 5926,
      "napokon": 5927,
      "preuzima": 5928,
      "origi": 5929,
      "##50": 5930,
      "pogled": 5931,
      "revi": 5932,
      "rezer": 5933,
      "vez": 5934,
      "bolja": 5935,
      "gradova": 5936,
      "stranu": 5937,
      "širi": 5938,
      "obavje": 5939,
      "heliko": 5940,
      "ulazak": 5941,
      "udara": 5942,
      "otvorena": 5943,
      ";,": 5944,
      "eka": 5945,
      "fra": 5946,
      "seve": 5947,
      "saboru": 5948,
      "rano": 5949,
      "boži": 5950,
      "radimo": 5951,
      "međuvremenu": 5952,
      "grmlja": 5953,
      "suradnje": 5954,
      "nezavi": 5955,
      "emisiji": 5956,
      "sinoć": 5957,
      "et": 5958,
      "##tski": 5959,
      "poreme": 5960,
      "daju": 5961,
      "mak": 5962,
      "većinom": 5963,
      "izgubila": 5964,
      "podrška": 5965,
      "otoka": 5966,
      "smanjenje": 5967,
      "beogradu": 5968,
      "##žnog": 5969,
      "##tivac": 5970,
      "##mili": 5971,
      "##njuju": 5972,
      "cijeni": 5973,
      "sobom": 5974,
      "mlađi": 5975,
      "istovremeno": 5976,
      "proizvode": 5977,
      "zatvor": 5978,
      "##hvaća": 5979,
      "upozorava": 5980,
      "trgovine": 5981,
      "obliku": 5982,
      "helikop": 5983,
      "ac": 5984,
      "kne": 5985,
      "upla": 5986,
      "##jskom": 5987,
      "pokra": 5988,
      "##tura": 5989,
      "##zapa": 5990,
      "valja": 5991,
      "čim": 5992,
      "misle": 5993,
      "proizvodi": 5994,
      "student": 5995,
      "direk": 5996,
      "gospodarstva": 5997,
      "snimke": 5998,
      "ate": 5999,
      "##zanje": 6000,
      "ispi": 6001,
      "uskr": 6002,
      "uspjela": 6003,
      "komentara": 6004,
      "splitsko": 6005,
      "suprugom": 6006,
      "##hvat": 6007,
      "stadionu": 6008,
      "vikend": 6009,
      "najčešće": 6010,
      "##tego": 6011,
      "razne": 6012,
      "naslova": 6013,
      "nemam": 6014,
      "protekli": 6015,
      "vojska": 6016,
      "voditeljica": 6017,
      "ostvariti": 6018,
      "uspore": 6019,
      "izvanre": 6020,
      "was": 6021,
      "pretra": 6022,
      "##činu": 6023,
      "feno": 6024,
      "podrške": 6025,
      "stručnjak": 6026,
      "nogometaš": 6027,
      "razgovor": 6028,
      "480x3": 6029,
      "pritisak": 6030,
      "madrid": 6031,
      "nemojte": 6032,
      "aju": 6033,
      "poto": 6034,
      "##toli": 6035,
      "##zacija": 6036,
      "liva": 6037,
      "dim": 6038,
      "banka": 6039,
      "ispiti": 6040,
      "uskla": 6041,
      "pobjednik": 6042,
      "šire": 6043,
      "guž": 6044,
      "reakcije": 6045,
      "prilično": 6046,
      "vojske": 6047,
      "razlike": 6048,
      "otoku": 6049,
      "dokumen": 6050,
      "kampanje": 6051,
      "norve": 6052,
      "willi": 6053,
      "koševa": 6054,
      "ena": 6055,
      "istu": 6056,
      "ogla": 6057,
      "ust": 6058,
      "nepri": 6059,
      "temu": 6060,
      "maro": 6061,
      "maso": 6062,
      "nosti": 6063,
      "jam": 6064,
      "akcije": 6065,
      "ekipe": 6066,
      "usposta": 6067,
      "ustvr": 6068,
      "jte": 6069,
      "##220": 6070,
      "##ziti": 6071,
      "miha": 6072,
      "vožnje": 6073,
      "europsko": 6074,
      "obavijesti": 6075,
      "svjetlo": 6076,
      "izazov": 6077,
      "hotela": 6078,
      "posljedica": 6079,
      "faceboo": 6080,
      "naf": 6081,
      "danima": 6082,
      "kaznu": 6083,
      "##zio": 6084,
      "vaši": 6085,
      "marka": 6086,
      "svjetskom": 6087,
      "pokazalo": 6088,
      "publiku": 6089,
      "društvene": 6090,
      "hrana": 6091,
      "visoke": 6092,
      "nogometnog": 6093,
      "parlament": 6094,
      "željko": 6095,
      "komplek": 6096,
      "##_in": 6097,
      "##naj": 6098,
      "izlazi": 6099,
      "proći": 6100,
      "stri": 6101,
      "bol": 6102,
      "bate": 6103,
      "rijetko": 6104,
      "osobu": 6105,
      "marke": 6106,
      "otkrili": 6107,
      "##đenju": 6108,
      "kontroli": 6109,
      "zdravstvene": 6110,
      "jezika": 6111,
      "catitem": 6112,
      "motoci": 6113,
      "##47": 6114,
      "kosti": 6115,
      "pregled": 6116,
      "linija": 6117,
      "##hat": 6118,
      "alter": 6119,
      "imeno": 6120,
      "##pustiti": 6121,
      "specifi": 6122,
      "otići": 6123,
      "smanjiti": 6124,
      "energiju": 6125,
      "67": 6126,
      "##mr": 6127,
      "##ćeni": 6128,
      "jur": 6129,
      "nacionalne": 6130,
      "gimna": 6131,
      "sumnji": 6132,
      "promatra": 6133,
      "preokre": 6134,
      "imu": 6135,
      "okri": 6136,
      "uhvati": 6137,
      "##kola": 6138,
      "##vinu": 6139,
      "obr": 6140,
      "njem": 6141,
      "prate": 6142,
      "rukama": 6143,
      "hitne": 6144,
      "reprezentativac": 6145,
      "informacijama": 6146,
      "sastav": 6147,
      "poduzetni": 6148,
      "sch": 6149,
      "##dr": 6150,
      "##ntra": 6151,
      "##laže": 6152,
      "##ljenja": 6153,
      "##pović": 6154,
      "##vjeli": 6155,
      "posljednja": 6156,
      "osvojili": 6157,
      "majsto": 6158,
      "savjet": 6159,
      "detalji": 6160,
      "ozljeda": 6161,
      "78": 6162,
      "eti": 6163,
      "ene": 6164,
      "mra": 6165,
      "##unt": 6166,
      "##vski": 6167,
      "##nisti": 6168,
      "##ror": 6169,
      "rak": 6170,
      "putnika": 6171,
      "rusi": 6172,
      "strah": 6173,
      "ostavio": 6174,
      "srpski": 6175,
      "marin": 6176,
      "direkto": 6177,
      "prepoznat": 6178,
      "prikazuje": 6179,
      "životinja": 6180,
      "proteklih": 6181,
      "53": 6182,
      "neto": 6183,
      "rafa": 6184,
      "##tivnim": 6185,
      "dvojica": 6186,
      "vremenom": 6187,
      "dnevno": 6188,
      "kontrolu": 6189,
      "institucije": 6190,
      "objasnila": 6191,
      "jezik": 6192,
      "87": 6193,
      "##45": 6194,
      "kazna": 6195,
      "##miti": 6196,
      "jaja": 6197,
      "dodajte": 6198,
      "postali": 6199,
      "projekte": 6200,
      "organizacija": 6201,
      "uzrok": 6202,
      "##prje": 6203,
      "sunčano": 6204,
      "album": 6205,
      "italije": 6206,
      "razgovarati": 6207,
      "##tona": 6208,
      "prisi": 6209,
      "reu": 6210,
      "##sama": 6211,
      "vanja": 6212,
      "otkako": 6213,
      "akcija": 6214,
      "nećemo": 6215,
      "##vremena": 6216,
      "sustavu": 6217,
      "važna": 6218,
      "naziva": 6219,
      "iskreno": 6220,
      "ubo": 6221,
      "napla": 6222,
      "max": 6223,
      "##žene": 6224,
      "##ćeno": 6225,
      "vati": 6226,
      "play": 6227,
      "##štima": 6228,
      "zapošlja": 6229,
      "koncerta": 6230,
      "zlostavlja": 6231,
      "poreza": 6232,
      "osijeka": 6233,
      "oporbe": 6234,
      "ška": 6235,
      "##lazak": 6236,
      "##tove": 6237,
      "##leti": 6238,
      "##posla": 6239,
      "vete": 6240,
      "osnova": 6241,
      "ondje": 6242,
      "kiše": 6243,
      "ciklu": 6244,
      "klupi": 6245,
      "poziciji": 6246,
      "##kvim": 6247,
      "operati": 6248,
      "udario": 6249,
      "desetlje": 6250,
      "započeo": 6251,
      "veleposla": 6252,
      "glasnogovornik": 6253,
      "57": 6254,
      "anu": 6255,
      "ovje": 6256,
      "bož": 6257,
      "volo": 6258,
      "lau": 6259,
      "brojnih": 6260,
      "ovla": 6261,
      "raspu": 6262,
      "ureda": 6263,
      "nesreći": 6264,
      "drugači": 6265,
      "uspored": 6266,
      "razgovoru": 6267,
      "mc": 6268,
      "##tton": 6269,
      "##86": 6270,
      "##gnuti": 6271,
      "##ravaju": 6272,
      "##tite": 6273,
      "port": 6274,
      "##vana": 6275,
      "##menata": 6276,
      "##nule": 6277,
      "mogle": 6278,
      "svjetske": 6279,
      "većinu": 6280,
      "drugačije": 6281,
      "olimpijske": 6282,
      "zastupnik": 6283,
      "olimpijskim": 6284,
      "##que": 6285,
      "ugostitelj": 6286,
      "##jskih": 6287,
      "##ls": 6288,
      "##we": 6289,
      "zadu": 6290,
      "##kala": 6291,
      "dalić": 6292,
      "izgled": 6293,
      "sau": 6294,
      "preve": 6295,
      "vater": 6296,
      "rusiji": 6297,
      "anđe": 6298,
      "osjet": 6299,
      "skupa": 6300,
      "razlika": 6301,
      "određe": 6302,
      "postignu": 6303,
      "pobijediti": 6304,
      "scene": 6305,
      "tržišta": 6306,
      "odlazak": 6307,
      "zvijezde": 6308,
      "vaterpo": 6309,
      "66": 6310,
      "podje": 6311,
      "##rene": 6312,
      "katoli": 6313,
      "pete": 6314,
      "##kladno": 6315,
      "orke": 6316,
      "park": 6317,
      "poslovni": 6318,
      "nedjelje": 6319,
      "upravljanja": 6320,
      "djevojka": 6321,
      "spomenuti": 6322,
      "##ati": 6323,
      "koor": 6324,
      "##move": 6325,
      "pat": 6326,
      "mehani": 6327,
      "čelni": 6328,
      "pronašli": 6329,
      "studeno": 6330,
      "počini": 6331,
      "areni": 6332,
      "opravda": 6333,
      "hns": 6334,
      "kije": 6335,
      "poča": 6336,
      "bide": 6337,
      "mikro": 6338,
      "kuna": 6339,
      "južno": 6340,
      "usred": 6341,
      "##štena": 6342,
      "naslo": 6343,
      "komple": 6344,
      "posloda": 6345,
      "proizvodnju": 6346,
      "centi": 6347,
      "vojnika": 6348,
      "krugu": 6349,
      "desetljeća": 6350,
      "optuž": 6351,
      "plus": 6352,
      "apsolutno": 6353,
      "##ts": 6354,
      "##logu": 6355,
      "prit": 6356,
      "mac": 6357,
      "##porta": 6358,
      "##sić": 6359,
      "##šila": 6360,
      "otka": 6361,
      "dinami": 6362,
      "uvjeti": 6363,
      "ulozi": 6364,
      "gradonačelnika": 6365,
      "cestama": 6366,
      "nogometni": 6367,
      "##vrijeme": 6368,
      "tzv": 6369,
      "isu": 6370,
      "komisije": 6371,
      "##njava": 6372,
      "imat": 6373,
      "stare": 6374,
      "##bur": 6375,
      "opcija": 6376,
      "cijelog": 6377,
      "odjela": 6378,
      "osijeku": 6379,
      "zadovoljstvo": 6380,
      "ispričala": 6381,
      "proračuna": 6382,
      "ae": 6383,
      "dojam": 6384,
      "##stven": 6385,
      "##stao": 6386,
      "##deći": 6387,
      "revo": 6388,
      "najmla": 6389,
      "klup": 6390,
      "##šković": 6391,
      "dinamu": 6392,
      "osnovne": 6393,
      "prirode": 6394,
      "isporu": 6395,
      "uništi": 6396,
      "ekst": 6397,
      "nadokna": 6398,
      "razgovarali": 6399,
      "zavoda": 6400,
      "zadovoljan": 6401,
      "76": 6402,
      "seg": 6403,
      "ner": 6404,
      "##njeni": 6405,
      "noge": 6406,
      "##dor": 6407,
      "##ence": 6408,
      "debi": 6409,
      "djeluje": 6410,
      "brak": 6411,
      "pitali": 6412,
      "politiku": 6413,
      "njemački": 6414,
      "slobodno": 6415,
      "brazil": 6416,
      "280": 6417,
      "85": 6418,
      "##tit": 6419,
      "zate": 6420,
      "dona": 6421,
      "prof": 6422,
      "radom": 6423,
      "##čeki": 6424,
      "licu": 6425,
      "obrana": 6426,
      "dvorani": 6427,
      "službenici": 6428,
      "pokušaj": 6429,
      "nastupi": 6430,
      "terena": 6431,
      "uhićen": 6432,
      "strijelac": 6433,
      "bayer": 6434,
      "!'": 6435,
      "74": 6436,
      "item": 6437,
      "##ženju": 6438,
      "otpo": 6439,
      "stranicama": 6440,
      "krite": 6441,
      "argen": 6442,
      "istrage": 6443,
      "ukrajinski": 6444,
      "vratar": 6445,
      "vijeć": 6446,
      "osiguranje": 6447,
      "ustavni": 6448,
      "majke": 6449,
      "nogometne": 6450,
      "nezado": 6451,
      "##_article": 6452,
      "##jati": 6453,
      "iznaj": 6454,
      "sav": 6455,
      "prera": 6456,
      "vir": 6457,
      "##vjet": 6458,
      "stanova": 6459,
      "radila": 6460,
      "obavije": 6461,
      "plesa": 6462,
      "oduze": 6463,
      "poluvremenu": 6464,
      "uživati": 6465,
      "sjajno": 6466,
      "opasnosti": 6467,
      "ubojstvo": 6468,
      "ija": 6469,
      "seriji": 6470,
      "ton": 6471,
      "rezo": 6472,
      "vodom": 6473,
      "stanja": 6474,
      "tip": 6475,
      "kuć": 6476,
      "kredi": 6477,
      "mlada": 6478,
      "vijeće": 6479,
      "koncentra": 6480,
      "##lly": 6481,
      "vozača": 6482,
      "savjeto": 6483,
      "takvim": 6484,
      "rasporedu": 6485,
      "emisije": 6486,
      "čki": 6487,
      "##žnih": 6488,
      "##35": 6489,
      "##list": 6490,
      "##larni": 6491,
      "##jana": 6492,
      "koso": 6493,
      "bore": 6494,
      "boksa": 6495,
      "rujnu": 6496,
      "kise": 6497,
      "nacionalnog": 6498,
      "upozorenje": 6499,
      "pobijedila": 6500,
      "sudaca": 6501,
      "maksimiru": 6502,
      "prethodno": 6503,
      "podržava": 6504,
      "opasnost": 6505,
      "dužnosti": 6506,
      "kćeri": 6507,
      "kći": 6508,
      "##jsku": 6509,
      "kapita": 6510,
      "bilj": 6511,
      "goste": 6512,
      "papa": 6513,
      "kojega": 6514,
      "belu": 6515,
      "uspjeha": 6516,
      "društvenih": 6517,
      "želio": 6518,
      "natjecanju": 6519,
      "showa": 6520,
      "nedostaje": 6521,
      "žrtve": 6522,
      "klubova": 6523,
      "jutarnji": 6524,
      "73": 6525,
      "čka": 6526,
      "##blji": 6527,
      "##kl": 6528,
      "##žnim": 6529,
      "načina": 6530,
      "poštu": 6531,
      "sestra": 6532,
      "dono": 6533,
      "sil": 6534,
      "čelu": 6535,
      "stranih": 6536,
      "broda": 6537,
      "lud": 6538,
      "2015": 6539,
      "kršća": 6540,
      "plenkovića": 6541,
      "ponudu": 6542,
      "turističke": 6543,
      "sukob": 6544,
      "prošlosti": 6545,
      "alterna": 6546,
      "69": 6547,
      "##isto": 6548,
      "same": 6549,
      "pretje": 6550,
      "refor": 6551,
      "osvoje": 6552,
      "trend": 6553,
      "državnom": 6554,
      "nekoga": 6555,
      "odabi": 6556,
      "operacije": 6557,
      "učinkovito": 6558,
      "##jku": 6559,
      "##vano": 6560,
      "##mar": 6561,
      "##lozi": 6562,
      "izbaci": 6563,
      "njen": 6564,
      "gastro": 6565,
      "djecom": 6566,
      "uspije": 6567,
      "čić": 6568,
      "državno": 6569,
      "riba": 6570,
      "naslje": 6571,
      "publike": 6572,
      "sudjelovao": 6573,
      "najvažnije": 6574,
      "jutros": 6575,
      "ela": 6576,
      "##ir": 6577,
      "##linu": 6578,
      "##vaca": 6579,
      "dopu": 6580,
      "suve": 6581,
      "vani": 6582,
      "trećem": 6583,
      "dip": 6584,
      "kontek": 6585,
      "sretni": 6586,
      "dobit": 6587,
      "mreži": 6588,
      "dogovor": 6589,
      "gen": 6590,
      "iv": 6591,
      "##8_": 6592,
      "jese": 6593,
      "##vale": 6594,
      "pamet": 6595,
      "pande": 6596,
      "volio": 6597,
      "loš": 6598,
      "##vanjem": 6599,
      "radim": 6600,
      "europskoj": 6601,
      "videu": 6602,
      "osvojiti": 6603,
      "kazneno": 6604,
      "izvora": 6605,
      "otvorio": 6606,
      "vladimir": 6607,
      "prekršaja": 6608,
      "reuter": 6609,
      "ekstrem": 6610,
      "77": 6611,
      "neću": 6612,
      "japan": 6613,
      "vož": 6614,
      "raznih": 6615,
      "peto": 6616,
      "kralji": 6617,
      "stol": 6618,
      "slavlje": 6619,
      "otišla": 6620,
      "učenici": 6621,
      "bolest": 6622,
      "osvrnuo": 6623,
      "humanitar": 6624,
      "she": 6625,
      "ue": 6626,
      "##jac": 6627,
      "##vini": 6628,
      "mol": 6629,
      "golom": 6630,
      "main": 6631,
      "oblje": 6632,
      "predme": 6633,
      "mješta": 6634,
      "rock": 6635,
      "vrho": 6636,
      "##eld": 6637,
      "formu": 6638,
      "sudjelovati": 6639,
      "ponašanje": 6640,
      "gostiju": 6641,
      "različitim": 6642,
      "##dbi": 6643,
      "##at": 6644,
      "##šlo": 6645,
      "##nit": 6646,
      "sus": 6647,
      "suz": 6648,
      "##mon": 6649,
      "regije": 6650,
      "##zati": 6651,
      "meč": 6652,
      "obro": 6653,
      "treća": 6654,
      "bero": 6655,
      "##snika": 6656,
      "online": 6657,
      "##vljene": 6658,
      "fon": 6659,
      "krenula": 6660,
      "njihovom": 6661,
      "uživo": 6662,
      "admini": 6663,
      "požara": 6664,
      "natječaj": 6665,
      "potpisao": 6666,
      "61": 6667,
      "##tivu": 6668,
      "nat": 6669,
      "pošte": 6670,
      "kota": 6671,
      "live": 6672,
      "djeti": 6673,
      "županiji": 6674,
      "iduće": 6675,
      "sceni": 6676,
      "utvrđeno": 6677,
      "doživlja": 6678,
      "nevjerojatno": 6679,
      "ulaznice": 6680,
      "oglasio": 6681,
      "##porter": 6682,
      "arhite": 6683,
      "jefti": 6684,
      "facebooku": 6685,
      "raki": 6686,
      "moz": 6687,
      "teku": 6688,
      "maga": 6689,
      "trebamo": 6690,
      "obrambe": 6691,
      "zagrebačkom": 6692,
      "krug": 6693,
      "registri": 6694,
      "modela": 6695,
      "predviđa": 6696,
      "59": 6697,
      "56": 6698,
      "ed": 6699,
      "##jaca": 6700,
      "proglasi": 6701,
      "teža": 6702,
      "živ": 6703,
      "igračima": 6704,
      "europa": 6705,
      "korist": 6706,
      "##godišnje": 6707,
      "predstavnici": 6708,
      "mrežu": 6709,
      "zlato": 6710,
      "bloki": 6711,
      "izvijestio": 6712,
      "air": 6713,
      "htjeli": 6714,
      "unutrašnjosti": 6715,
      "##isti": 6716,
      "##jne": 6717,
      "##ye": 6718,
      "povremeno": 6719,
      "##rite": 6720,
      "##jicu": 6721,
      "##nel": 6722,
      "izo": 6723,
      "rekon": 6724,
      "pan": 6725,
      "javnom": 6726,
      "linije": 6727,
      "##sur": 6728,
      "mjeri": 6729,
      "početi": 6730,
      "obrani": 6731,
      "njezinu": 6732,
      "##_270": 6733,
      "događaju": 6734,
      "izjave": 6735,
      "##šnjih": 6736,
      "zahtjeva": 6737,
      "pisali": 6738,
      "tehnologije": 6739,
      "festivalu": 6740,
      "okoliša": 6741,
      "beograd": 6742,
      "napustio": 6743,
      "dječje": 6744,
      "profesor": 6745,
      "washing": 6746,
      "adri": 6747,
      "tho": 6748,
      "##kse": 6749,
      "seks": 6750,
      "sana": 6751,
      "##njenih": 6752,
      "mjestima": 6753,
      "vladu": 6754,
      "##rnicu": 6755,
      "napravila": 6756,
      "istraživa": 6757,
      "dnevni": 6758,
      "transpa": 6759,
      "četvero": 6760,
      "vrtića": 6761,
      "71": 6762,
      "oš": 6763,
      "joe": 6764,
      "let": 6765,
      "tijelu": 6766,
      "rezultatom": 6767,
      "zagrebačke": 6768,
      "sastanak": 6769,
      "povjerenje": 6770,
      "pojedina": 6771,
      "alex": 6772,
      "vidljivo": 6773,
      "osumnjiče": 6774,
      "incident": 6775,
      "##tam": 6776,
      "neret": 6777,
      "##stara": 6778,
      "govor": 6779,
      "memo": 6780,
      "stanu": 6781,
      "čišće": 6782,
      "projekti": 6783,
      "proizvod": 6784,
      "prometna": 6785,
      "parlamenta": 6786,
      "igri": 6787,
      "neposre": 6788,
      "zrakoplov": 6789,
      "titulu": 6790,
      "zainteresi": 6791,
      "51": 6792,
      "kni": 6793,
      "oh": 6794,
      "plina": 6795,
      "##26": 6796,
      "##jedno": 6797,
      "##nilo": 6798,
      "motivi": 6799,
      "mia": 6800,
      "menad": 6801,
      "kontine": 6802,
      "ostane": 6803,
      "autori": 6804,
      "dragi": 6805,
      "istraga": 6806,
      "gluma": 6807,
      "marina": 6808,
      "roditeljima": 6809,
      "emociona": 6810,
      "obzir": 6811,
      "skanda": 6812,
      "kategorije": 6813,
      "kakvu": 6814,
      "preuzeo": 6815,
      "vjerovati": 6816,
      "angaži": 6817,
      "\"}": 6818,
      "ulje": 6819,
      "ya": 6820,
      "đo": 6821,
      "##nstvo": 6822,
      "david": 6823,
      "nep": 6824,
      "pav": 6825,
      "infe": 6826,
      "prijeti": 6827,
      "nikakve": 6828,
      "čuli": 6829,
      "smještaj": 6830,
      "francuski": 6831,
      "upozorio": 6832,
      "vatrogasa": 6833,
      "donijela": 6834,
      "izvijestila": 6835,
      "htjela": 6836,
      "sposobnosti": 6837,
      "regula": 6838,
      "##slovno": 6839,
      "gattuso": 6840,
      "iznajm": 6841,
      "crije": 6842,
      "klo": 6843,
      "##tice": 6844,
      "nape": 6845,
      "sestre": 6846,
      "suvreme": 6847,
      "nemogu": 6848,
      "provesti": 6849,
      "prete": 6850,
      "gole": 6851,
      "limu": 6852,
      "predmet": 6853,
      "pilo": 6854,
      "juri": 6855,
      "dug": 6856,
      "glavi": 6857,
      "bura": 6858,
      "optere": 6859,
      "slab": 6860,
      "pitao": 6861,
      "čuva": 6862,
      "vojne": 6863,
      "karte": 6864,
      "šut": 6865,
      "novinarima": 6866,
      "potencijal": 6867,
      "utrke": 6868,
      "mirovinu": 6869,
      "medalje": 6870,
      "pljusko": 6871,
      "sala": 6872,
      "goo": 6873,
      "staviti": 6874,
      "petka": 6875,
      "otvoren": 6876,
      "uzne": 6877,
      "vježba": 6878,
      "##ćuju": 6879,
      "izašao": 6880,
      "žup": 6881,
      "gospodarstvo": 6882,
      "razdoblja": 6883,
      "uzroko": 6884,
      "obrazovanje": 6885,
      "##vljuju": 6886,
      "nekretnina": 6887,
      "sadržaj": 6888,
      "fokus": 6889,
      "rekonstru": 6890,
      "cje": 6891,
      "##cy": 6892,
      "suge": 6893,
      "nose": 6894,
      "prvim": 6895,
      "predstavio": 6896,
      "dramati": 6897,
      "publici": 6898,
      "zatvori": 6899,
      "priznala": 6900,
      "pobijedili": 6901,
      "procesu": 6902,
      "štete": 6903,
      "miješa": 6904,
      "stajali": 6905,
      "turudić": 6906,
      "kle": 6907,
      "pristu": 6908,
      "mas": 6909,
      "viru": 6910,
      "##vnost": 6911,
      "##teljice": 6912,
      "automat": 6913,
      "mlađe": 6914,
      "predstavnika": 6915,
      "splića": 6916,
      "poslove": 6917,
      "vozilom": 6918,
      "domaćih": 6919,
      "icu": 6920,
      "##rnih": 6921,
      "##vena": 6922,
      "praz": 6923,
      "impresi": 6924,
      "zatvara": 6925,
      "nadolaze": 6926,
      "photo": 6927,
      "uza": 6928,
      "##vke": 6929,
      "##gri": 6930,
      "##link": 6931,
      "pop": 6932,
      "polja": 6933,
      "##tama": 6934,
      "probu": 6935,
      "table": 6936,
      "boli": 6937,
      "pun": 6938,
      "otpa": 6939,
      "buga": 6940,
      "##tivnu": 6941,
      "izraela": 6942,
      "geor": 6943,
      "američkog": 6944,
      "zagrebački": 6945,
      "pretvori": 6946,
      "kandidati": 6947,
      "čokola": 6948,
      "info": 6949,
      "izgradnju": 6950,
      "sudjelovali": 6951,
      "dokaz": 6952,
      "trening": 6953,
      "revolu": 6954,
      "2f": 6955,
      "##ves": 6956,
      "##ljenih": 6957,
      "isla": 6958,
      "multi": 6959,
      "trajek": 6960,
      "open": 6961,
      "slavio": 6962,
      "izbornoj": 6963,
      "tekst": 6964,
      "kemi": 6965,
      "kvalitet": 6966,
      "tražiti": 6967,
      "transfe": 6968,
      "razgovora": 6969,
      "turniru": 6970,
      "stadion": 6971,
      "avan": 6972,
      "eve": 6973,
      "ura": 6974,
      "čkom": 6975,
      "##šom": 6976,
      "jede": 6977,
      "doja": 6978,
      "donese": 6979,
      "##love": 6980,
      "odbija": 6981,
      "masli": 6982,
      "##cent": 6983,
      "##snoj": 6984,
      "uloge": 6985,
      "čekaju": 6986,
      "otvorenom": 6987,
      "dalmatin": 6988,
      "eksperi": 6989,
      "mirovine": 6990,
      "transparen": 6991,
      "ika": 6992,
      "##pp": 6993,
      "##laca": 6994,
      "otkaza": 6995,
      "mjesecima": 6996,
      "reakcija": 6997,
      "##nković": 6998,
      "##panj": 6999,
      "malolje": 7000,
      "takti": 7001,
      "##mpati": 7002,
      "ostvario": 7003,
      "muškarci": 7004,
      "ponude": 7005,
      "upravljanje": 7006,
      "atmosfera": 7007,
      "spektak": 7008,
      "bicikli": 7009,
      "1920x10": 7010,
      "prvenstveno": 7011,
      "95": 7012,
      "hnk": 7013,
      "##naest": 7014,
      "odbio": 7015,
      "pame": 7016,
      "instru": 7017,
      "raznim": 7018,
      "križa": 7019,
      "krenuti": 7020,
      "dragan": 7021,
      "umjeren": 7022,
      "poslovanja": 7023,
      "2012": 7024,
      "spaša": 7025,
      "slučajeva": 7026,
      "hrabro": 7027,
      "institucija": 7028,
      "liječnici": 7029,
      "veseli": 7030,
      "makedo": 7031,
      "88": 7032,
      "##vin": 7033,
      "sukladno": 7034,
      "mog": 7035,
      "mane": 7036,
      "njihovoj": 7037,
      "draga": 7038,
      "pojavila": 7039,
      "narod": 7040,
      "iskoristiti": 7041,
      "infrastrukture": 7042,
      "zapovjednik": 7043,
      "120": 7044,
      "okup": 7045,
      "##tho": 7046,
      "##nis": 7047,
      "kono": 7048,
      "doveo": 7049,
      "kašte": 7050,
      "izgle": 7051,
      "nizu": 7052,
      "vene": 7053,
      "dodatne": 7054,
      "akciju": 7055,
      "smatram": 7056,
      "izdanje": 7057,
      "birača": 7058,
      "financijski": 7059,
      "serge": 7060,
      "potrebne": 7061,
      "kompanije": 7062,
      "troškova": 7063,
      "problemima": 7064,
      "tehnologija": 7065,
      "640x427": 7066,
      "1280x854": 7067,
      "480x320": 7068,
      "##ina": 7069,
      "##nstva": 7070,
      "##lie": 7071,
      "##rist": 7072,
      "dosto": 7073,
      "kami": 7074,
      "##stio": 7075,
      "malih": 7076,
      "listu": 7077,
      "najprije": 7078,
      "razma": 7079,
      "ostavlja": 7080,
      "prošla": 7081,
      "trumpo": 7082,
      "hajduku": 7083,
      "lokacija": 7084,
      "sprema": 7085,
      "dalmaciji": 7086,
      "novinara": 7087,
      "pomaga": 7088,
      "ekono": 7089,
      "okupi": 7090,
      "croati": 7091,
      "tomašević": 7092,
      "tjelesne": 7093,
      "##sigurno": 7094,
      "aspe": 7095,
      "vrt": 7096,
      "##iner": 7097,
      "##brati": 7098,
      "##vida": 7099,
      "##lesa": 7100,
      "toni": 7101,
      "teže": 7102,
      "milan": 7103,
      "##sata": 7104,
      "##žavaju": 7105,
      "najsta": 7106,
      "roka": 7107,
      "pobjedi": 7108,
      "pozicije": 7109,
      "obali": 7110,
      "2014": 7111,
      "održavanje": 7112,
      "vuko": 7113,
      "spava": 7114,
      "vidjet": 7115,
      "takvu": 7116,
      "mnogim": 7117,
      "srpske": 7118,
      "24sata": 7119,
      "ponuda": 7120,
      "1000": 7121,
      "oružje": 7122,
      "zadatak": 7123,
      "prihoda": 7124,
      "dv": 7125,
      "eska": 7126,
      "neslu": 7127,
      "prou": 7128,
      "gaze": 7129,
      "jugu": 7130,
      "kralj": 7131,
      "poznate": 7132,
      "projektu": 7133,
      "vučić": 7134,
      "zorana": 7135,
      "zaštiti": 7136,
      "slobode": 7137,
      "istaknuti": 7138,
      "uloga": 7139,
      "određene": 7140,
      "influ": 7141,
      "utjecajem": 7142,
      "adven": 7143,
      "korisnici": 7144,
      "redatelj": 7145,
      "upisao": 7146,
      "nazvao": 7147,
      "kćer": 7148,
      "djetinj": 7149,
      "anje": 7150,
      "fre": 7151,
      "##my": 7152,
      "##gnosti": 7153,
      "##96": 7154,
      "##vide": 7155,
      "zare": 7156,
      "vizu": 7157,
      "glazbu": 7158,
      "skija": 7159,
      "vidite": 7160,
      "kolegi": 7161,
      "lipnju": 7162,
      "kvar": 7163,
      "šibeniku": 7164,
      "sjećanja": 7165,
      "doprinos": 7166,
      "vrući": 7167,
      "čkog": 7168,
      "vukovar": 7169,
      "podnije": 7170,
      "fru": 7171,
      "##tter": 7172,
      "##rama": 7173,
      "##nat": 7174,
      "##teri": 7175,
      "##viju": 7176,
      "##lor": 7177,
      "##ley": 7178,
      "presti": 7179,
      "vinko": 7180,
      "japa": 7181,
      "boriti": 7182,
      "silo": 7183,
      "postaju": 7184,
      "sol": 7185,
      "dvoboj": 7186,
      "27201": 7187,
      "uzeti": 7188,
      "tužitelj": 7189,
      "sindikata": 7190,
      "##lect": 7191,
      "glave": 7192,
      "samou": 7193,
      "njezino": 7194,
      "dolaska": 7195,
      "vlastite": 7196,
      "250": 7197,
      "srednjo": 7198,
      "slijede": 7199,
      "skladi": 7200,
      "##desetak": 7201,
      "640x8": 7202,
      "480x6": 7203,
      "340x4": 7204,
      "postupka": 7205,
      "sjevernom": 7206,
      "zabrinuto": 7207,
      "ubojstva": 7208,
      "imovine": 7209,
      "sposobnost": 7210,
      "agresi": 7211,
      "sektoru": 7212,
      "nezadovolj": 7213,
      "hor": 7214,
      "istre": 7215,
      "ore": 7216,
      "##lik": 7217,
      "##vimo": 7218,
      "##padu": 7219,
      "nicu": 7220,
      "viši": 7221,
      "##ljava": 7222,
      "konzerva": 7223,
      "ham": 7224,
      "euroson": 7225,
      "sreću": 7226,
      "krivo": 7227,
      "tajnik": 7228,
      "priprem": 7229,
      "branitelja": 7230,
      "goriva": 7231,
      "recimo": 7232,
      "ukoliko": 7233,
      "u0": 7234,
      "##mpu": 7235,
      "##kali": 7236,
      "##cara": 7237,
      "karo": 7238,
      "odbor": 7239,
      "baviti": 7240,
      "ruje": 7241,
      "ministarstvu": 7242,
      "takvo": 7243,
      "vatreni": 7244,
      "milijarde": 7245,
      "korištenja": 7246,
      "atmosferu": 7247,
      "polufinalu": 7248,
      "perišić": 7249,
      "savršeno": 7250,
      "razoča": 7251,
      "##tegory": 7252,
      "##kat": 7253,
      "prikuplja": 7254,
      "##vršen": 7255,
      "##sten": 7256,
      "srećom": 7257,
      "nude": 7258,
      "ukrajinske": 7259,
      "održana": 7260,
      "studenti": 7261,
      "muzeja": 7262,
      "220x147": 7263,
      "saudi": 7264,
      "800": 7265,
      "99": 7266,
      "n1": 7267,
      "spi": 7268,
      "unije": 7269,
      "jeze": 7270,
      "##loge": 7271,
      "priklju": 7272,
      "##gađa": 7273,
      "maja": 7274,
      "##grad": 7275,
      "##dov": 7276,
      "jaka": 7277,
      "boru": 7278,
      "granica": 7279,
      "podne": 7280,
      "nastala": 7281,
      "poručila": 7282,
      "nikako": 7283,
      "ponovo": 7284,
      "zaključila": 7285,
      "bijele": 7286,
      "željezni": 7287,
      "svibnju": 7288,
      "medalju": 7289,
      "intervjuu": 7290,
      "potpredsjednik": 7291,
      "google": 7292,
      "1920x1080": 7293,
      "adi": 7294,
      "inje": 7295,
      "##shi": 7296,
      "doslovno": 7297,
      "##goj": 7298,
      "miri": 7299,
      "pali": 7300,
      "libe": 7301,
      "ruskog": 7302,
      "tragi": 7303,
      "ostavku": 7304,
      "morala": 7305,
      "prijava": 7306,
      "porast": 7307,
      "splitski": 7308,
      "potvrdila": 7309,
      "zakonu": 7310,
      "omogućuje": 7311,
      "vezano": 7312,
      "1280x16": 7313,
      "napredak": 7314,
      "cijeloj": 7315,
      "komentarima": 7316,
      "okviru": 7317,
      "potpore": 7318,
      "ljestvici": 7319,
      "skrb": 7320,
      "talijanski": 7321,
      "ise": 7322,
      "oc": 7323,
      "##čnije": 7324,
      "##{\"": 7325,
      "sektora": 7326,
      "master": 7327,
      "plavi": 7328,
      "filo": 7329,
      "počelo": 7330,
      "istog": 7331,
      "sredinom": 7332,
      "središtu": 7333,
      "oboje": 7334,
      "razum": 7335,
      "andreja": 7336,
      "zamjenik": 7337,
      "##logiju": 7338,
      "1280x1280": 7339,
      "640x640": 7340,
      "480x480": 7341,
      "340x340": 7342,
      "partneri": 7343,
      "220x220": 7344,
      "rukometa": 7345,
      "kontakt": 7346,
      "nogometu": 7347,
      "prihvat": 7348,
      "640x814": 7349,
      "480x611": 7350,
      "340x432": 7351,
      "1280x1628": 7352,
      "bjelo": 7353,
      "čke": 7354,
      "##žnu": 7355,
      "##vod": 7356,
      "##dovima": 7357,
      "inva": 7358,
      "robo": 7359,
      "spomen": 7360,
      "jedinici": 7361,
      "državama": 7362,
      "dresu": 7363,
      "italiji": 7364,
      "1024x68": 7365,
      "##scri": 7366,
      "teritori": 7367,
      "psa": 7368,
      "##ntu": 7369,
      "##zz": 7370,
      "##jevi": 7371,
      "kafi": 7372,
      "proto": 7373,
      "##čene": 7374,
      "putni": 7375,
      "osvje": 7376,
      "##gić": 7377,
      "junior": 7378,
      "dugi": 7379,
      "ostalog": 7380,
      "stože": 7381,
      "područjima": 7382,
      "povećava": 7383,
      "knjiž": 7384,
      "ključni": 7385,
      "ponudi": 7386,
      "zelenski": 7387,
      "snimka": 7388,
      "šibenika": 7389,
      "medalja": 7390,
      "dužnost": 7391,
      "grija": 7392,
      "opu": 7393,
      "ušli": 7394,
      "zve": 7395,
      "##dnjoj": 7396,
      "##ed": 7397,
      "##lci": 7398,
      "##xt": 7399,
      "jedni": 7400,
      "jedana": 7401,
      "jelena": 7402,
      "##lum": 7403,
      "nima": 7404,
      "##ranj": 7405,
      "kontra": 7406,
      "trag": 7407,
      "##snosti": 7408,
      "rijeku": 7409,
      "stolje": 7410,
      "luku": 7411,
      "ideo": 7412,
      "onako": 7413,
      "reprezentativ": 7414,
      "srpnju": 7415,
      "barba": 7416,
      "sljedeći": 7417,
      "skloni": 7418,
      "otok": 7419,
      "profilu": 7420,
      "komentirala": 7421,
      "apart": 7422,
      "studenoga": 7423,
      "81": 7424,
      "##nni": 7425,
      "zaosta": 7426,
      "done": 7427,
      "euru": 7428,
      "konstru": 7429,
      "službi": 7430,
      "šet": 7431,
      "num": 7432,
      "istoj": 7433,
      "pojavio": 7434,
      "pogor": 7435,
      "osigurava": 7436,
      "slobodu": 7437,
      "povećati": 7438,
      "gradovima": 7439,
      "domovinski": 7440,
      "sportaši": 7441,
      "telefon": 7442,
      "meteoro": 7443,
      "egi": 7444,
      "rs": 7445,
      "##tija": 7446,
      "##loške": 7447,
      "##moć": 7448,
      "##zivanje": 7449,
      "##stop": 7450,
      "##dugo": 7451,
      "##grafi": 7452,
      "boris": 7453,
      "trenira": 7454,
      "##stupan": 7455,
      "plana": 7456,
      "##har": 7457,
      "služba": 7458,
      "čuti": 7459,
      "zajednički": 7460,
      "radionice": 7461,
      "navijačima": 7462,
      "organizatori": 7463,
      "zlatko": 7464,
      "sudjelovanje": 7465,
      "naziv": 7466,
      "školama": 7467,
      "standard": 7468,
      "angaž": 7469,
      "##_2723": 7470,
      "influence": 7471,
      "bd": 7472,
      "ilega": 7473,
      "##mz": 7474,
      "##ad": 7475,
      "##ight": 7476,
      "##nskoj": 7477,
      "##novima": 7478,
      "dos": 7479,
      "moji": 7480,
      "##minira": 7481,
      "turne": 7482,
      "dulje": 7483,
      "glavom": 7484,
      "lei": 7485,
      "vjetro": 7486,
      "slabo": 7487,
      "upora": 7488,
      "mnogima": 7489,
      "ulicama": 7490,
      "direktora": 7491,
      "ekipu": 7492,
      "odigrali": 7493,
      "transforma": 7494,
      "odvjetnika": 7495,
      "listopadu": 7496,
      "oruža": 7497,
      "spriječiti": 7498,
      "turudi": 7499,
      "num_": 7500,
      "72": 7501,
      "ano": 7502,
      "cvje": 7503,
      "cor": 7504,
      "##ten": 7505,
      "zasta": 7506,
      "komo": 7507,
      "domina": 7508,
      "radno": 7509,
      "##stoj": 7510,
      "baka": 7511,
      "europu": 7512,
      "rimac": 7513,
      "##rtava": 7514,
      "##misliti": 7515,
      "raspolaga": 7516,
      "unutarnjih": 7517,
      "liječnika": 7518,
      "slovenije": 7519,
      "težak": 7520,
      "azi": 7521,
      "jesti": 7522,
      "##tacije": 7523,
      "##metra": 7524,
      "miru": 7525,
      "##pix": 7526,
      "kih": 7527,
      "kina": 7528,
      "fol": 7529,
      "izborni": 7530,
      "potres": 7531,
      "drama": 7532,
      "jedinica": 7533,
      "vratila": 7534,
      "skim": 7535,
      "kolovo": 7536,
      "atleti": 7537,
      "komunici": 7538,
      "očekivanja": 7539,
      "hladno": 7540,
      "1991": 7541,
      "kampanju": 7542,
      "ponašanja": 7543,
      "fakulteta": 7544,
      "romanti": 7545,
      "anja": 7546,
      "tla": 7547,
      "##phi": 7548,
      "##wn": 7549,
      "##mara": 7550,
      "##dis": 7551,
      "reporter": 7552,
      "najja": 7553,
      "size": 7554,
      "gađa": 7555,
      "znala": 7556,
      "mjesti": 7557,
      "plane": 7558,
      "ronal": 7559,
      "vrijedan": 7560,
      "stil": 7561,
      "trenucima": 7562,
      "trenutka": 7563,
      "pogotka": 7564,
      "priznanje": 7565,
      "utjecaja": 7566,
      "perspe": 7567,
      "opreme": 7568,
      "zanimlji": 7569,
      "turizam": 7570,
      "izložbe": 7571,
      "prosincu": 7572,
      "harry": 7573,
      "cropix": 7574,
      "proračun": 7575,
      "sporazum": 7576,
      "snijeg": 7577,
      "##jeve": 7578,
      "##ling": 7579,
      "selo": 7580,
      "##gon": 7581,
      "##mit": 7582,
      "##tuje": 7583,
      "vić": 7584,
      "##žavanja": 7585,
      "peter": 7586,
      "leđa": 7587,
      "radić": 7588,
      "napade": 7589,
      "poručili": 7590,
      "vojni": 7591,
      "zagrebačkoj": 7592,
      "subote": 7593,
      "uputio": 7594,
      "žao": 7595,
      "nazivom": 7596,
      "vašem": 7597,
      "stadiona": 7598,
      "zrak": 7599,
      "zasigurno": 7600,
      "dove": 7601,
      "micha": 7602,
      "lik": 7603,
      "##enzi": 7604,
      "##žuju": 7605,
      "pjesama": 7606,
      "sudjelova": 7607,
      "struje": 7608,
      "zlata": 7609,
      "pobijedi": 7610,
      "preuzeti": 7611,
      "eppo": 7612,
      "gvar": 7613,
      "krva": 7614,
      "odred": 7615,
      "proče": 7616,
      "stani": 7617,
      "##gira": 7618,
      "uzvra": 7619,
      "ostatak": 7620,
      "dodajući": 7621,
      "sjeda": 7622,
      "svojem": 7623,
      "stižu": 7624,
      "martina": 7625,
      "##đivati": 7626,
      "lokalnih": 7627,
      "vidjela": 7628,
      "važne": 7629,
      "kontrole": 7630,
      "fizički": 7631,
      "odlaska": 7632,
      "sadržaja": 7633,
      "umro": 7634,
      "william": 7635,
      "cm": 7636,
      "ega": 7637,
      "ist": 7638,
      "kvi": 7639,
      "okon": 7640,
      "uveli": 7641,
      "wo": 7642,
      "##šći": 7643,
      "popisu": 7644,
      "korije": 7645,
      "##dira": 7646,
      "##tovima": 7647,
      "priku": 7648,
      "privreme": 7649,
      "##žite": 7650,
      "prijenos": 7651,
      "##trag": 7652,
      "ovakav": 7653,
      "stotine": 7654,
      "zagrep": 7655,
      "djevojke": 7656,
      "izazvao": 7657,
      "asistencija": 7658,
      "sastoj": 7659,
      "najviša": 7660,
      "hezbola": 7661,
      "twi": 7662,
      "##jma": 7663,
      "nazo": 7664,
      "por": 7665,
      "##nema": 7666,
      "##ciran": 7667,
      "aute": 7668,
      "odlukom": 7669,
      "pokušati": 7670,
      "ustavnog": 7671,
      "kulturu": 7672,
      "prometnoj": 7673,
      "lansi": 7674,
      "eventua": 7675,
      "katastrofa": 7676,
      "siroma": 7677,
      "size0": 7678,
      "nk": 7679,
      "udo": 7680,
      "urba": 7681,
      "##dbu": 7682,
      "##ndu": 7683,
      "##nati": 7684,
      "##torija": 7685,
      "dođu": 7686,
      "izre": 7687,
      "##duje": 7688,
      "##dović": 7689,
      "##šajte": 7690,
      "roma": 7691,
      "ovak": 7692,
      "vrtić": 7693,
      "objavu": 7694,
      "postavio": 7695,
      "njihovog": 7696,
      "škot": 7697,
      "završava": 7698,
      "gledatelja": 7699,
      "nadamo": 7700,
      "izdvoji": 7701,
      "teroristi": 7702,
      "zabrinutost": 7703,
      "79": 7704,
      "?\"": 7705,
      "dže": 7706,
      "eto": 7707,
      "inu": 7708,
      "smeta": 7709,
      "up": 7710,
      "štraj": 7711,
      "##taciju": 7712,
      "##loj": 7713,
      "niji": 7714,
      "##ranji": 7715,
      "sviđa": 7716,
      "stope": 7717,
      "predsjednikom": 7718,
      "nastavila": 7719,
      "ideje": 7720,
      "rezultatima": 7721,
      "supersport": 7722,
      "kategorija": 7723,
      "daljnje": 7724,
      "aktualni": 7725,
      "troškove": 7726,
      "chef": 7727,
      "polufinale": 7728,
      "belgi": 7729,
      "recept": 7730,
      "nuklea": 7731,
      "que": 7732,
      "legendarni": 7733,
      "bjelica": 7734,
      "cvije": 7735,
      "dvoj": 7736,
      "eš": 7737,
      "era": 7738,
      "donose": 7739,
      "radne": 7740,
      "prepu": 7741,
      "golu": 7742,
      "##pone": 7743,
      "##siti": 7744,
      "stara": 7745,
      "glavnom": 7746,
      "##štaja": 7747,
      "ovakve": 7748,
      "cijelom": 7749,
      "##vljenje": 7750,
      "kreši": 7751,
      "popular": 7752,
      "kekin": 7753,
      "moderni": 7754,
      "tranzi": 7755,
      "izraelski": 7756,
      "kontrover": 7757,
      "turista": 7758,
      "dres": 7759,
      "zavod": 7760,
      "uređaja": 7761,
      "uga": 7762,
      "##chi": 7763,
      "##tz": 7764,
      "##36": 7765,
      "##ting": 7766,
      "zanema": 7767,
      "nerije": 7768,
      "rečeno": 7769,
      "nogu": 7770,
      "niže": 7771,
      "vili": 7772,
      "batu": 7773,
      "policiju": 7774,
      "sreće": 7775,
      "istragu": 7776,
      "gledali": 7777,
      "zagrebačkog": 7778,
      "vratili": 7779,
      "##šnjim": 7780,
      "pjevač": 7781,
      "izazove": 7782,
      "zaposlenika": 7783,
      "podijelio": 7784,
      "legendar": 7785,
      "pacijenti": 7786,
      "balka": 7787,
      "omogućiti": 7788,
      "razgovarao": 7789,
      "ab": 7790,
      "efe": 7791,
      "##_640": 7792,
      "nai": 7793,
      "poro": 7794,
      "poza": 7795,
      "##vat": 7796,
      "##toj": 7797,
      "dorh": 7798,
      "##mes": 7799,
      "privremeno": 7800,
      "##turu": 7801,
      "los": 7802,
      "##šteni": 7803,
      "trg": 7804,
      "izravno": 7805,
      "mladić": 7806,
      "zatvoru": 7807,
      "vlasnika": 7808,
      "procesa": 7809,
      "ivota": 7810,
      "upravljao": 7811,
      "studije": 7812,
      "emisija": 7813,
      "dijagnosti": 7814,
      "prisustvo": 7815,
      "upit": 7816,
      "umr": 7817,
      "prijetnje": 7818,
      "zvoni": 7819,
      "reuters": 7820,
      "filozo": 7821,
      "gvardio": 7822,
      "ave": 7823,
      "čku": 7824,
      "##cki": 7825,
      "##ding": 7826,
      "suci": 7827,
      "meksi": 7828,
      "jan": 7829,
      "javio": 7830,
      "bakte": 7831,
      "grama": 7832,
      "tram": 7833,
      "žesto": 7834,
      "uklanja": 7835,
      "pobjednika": 7836,
      "kažem": 7837,
      "odgovornosti": 7838,
      "američkih": 7839,
      "her": 7840,
      "podije": 7841,
      "važnosti": 7842,
      "predstavljaju": 7843,
      "travnju": 7844,
      "kampanji": 7845,
      "vodstvom": 7846,
      "općenito": 7847,
      "razreda": 7848,
      "ludbre": 7849,
      "croatia": 7850,
      "neslužbe": 7851,
      "84": 7852,
      "art": 7853,
      "đa": 7854,
      "##lama": 7855,
      "##tao": 7856,
      "zaro": 7857,
      "zamo": 7858,
      "##menu": 7859,
      "##ćene": 7860,
      "isc": 7861,
      "##tniji": 7862,
      "krene": 7863,
      "situacijama": 7864,
      "promjenu": 7865,
      "roditelj": 7866,
      "izgradnje": 7867,
      "doznajemo": 7868,
      "prekršaj": 7869,
      "muzej": 7870,
      "uslijed": 7871,
      "postroj": 7872,
      "direktorica": 7873,
      "dh": 7874,
      "den": 7875,
      "imo": 7876,
      "##kula": 7877,
      "tata": 7878,
      "##šeno": 7879,
      "##škoj": 7880,
      "obraća": 7881,
      "potrebu": 7882,
      "##ell": 7883,
      "crkvi": 7884,
      "govorili": 7885,
      "uvjeren": 7886,
      "novinare": 7887,
      "ravnateljica": 7888,
      "utrka": 7889,
      "upoznati": 7890,
      "nasilje": 7891,
      "rukomet": 7892,
      "susjed": 7893,
      "sudionika": 7894,
      "plin": 7895,
      "sprje": 7896,
      "th": 7897,
      "resur": 7898,
      "ispro": 7899,
      "čisto": 7900,
      "mogući": 7901,
      "smanjuje": 7902,
      "dionica": 7903,
      "arse": 7904,
      "spaja": 7905,
      "##smom": 7906,
      "krumpi": 7907,
      "suradnja": 7908,
      "svakoj": 7909,
      "poteško": 7910,
      "ostvarili": 7911,
      "atp": 7912,
      "radnici": 7913,
      "otišli": 7914,
      "osuđen": 7915,
      "izazovima": 7916,
      "zaposlenih": 7917,
      "uzeo": 7918,
      "mijenjati": 7919,
      "materijala": 7920,
      "veljači": 7921,
      "britanski": 7922,
      "stanovništva": 7923,
      "uzbud": 7924,
      "naoru": 7925,
      "jakirović": 7926,
      "atrak": 7927,
      "grmljavi": 7928,
      "perspekti": 7929,
      "išao": 7930,
      "##spa": 7931,
      "##,{\"": 7932,
      "##racija": 7933,
      "pomi": 7934,
      "sugovo": 7935,
      "malom": 7936,
      "##dnica": 7937,
      "razvije": 7938,
      "češće": 7939,
      "traga": 7940,
      "želju": 7941,
      "##stero": 7942,
      "sjednici": 7943,
      "upravi": 7944,
      "prijavu": 7945,
      "politička": 7946,
      "predstavnik": 7947,
      "potreban": 7948,
      "full": 7949,
      "stranci": 7950,
      "zaključuje": 7951,
      "unaprijed": 7952,
      "posebnu": 7953,
      "iznosila": 7954,
      "ubrza": 7955,
      "konkurenciji": 7956,
      "terapi": 7957,
      "aero": 7958,
      "\"},{\"": 7959,
      "istar": 7960,
      "oja": 7961,
      "##rnog": 7962,
      "##sse": 7963,
      "##l_": 7964,
      "##19": 7965,
      "popodne": 7966,
      "##kol": 7967,
      "komer": 7968,
      "izvori": 7969,
      "##zisti": 7970,
      "jadro": 7971,
      "bosne": 7972,
      "##sniji": 7973,
      "han": 7974,
      "2026": 7975,
      "olimpijskih": 7976,
      "parkirali": 7977,
      "kriminal": 7978,
      "prioritet": 7979,
      "shi": 7980,
      "uisti": 7981,
      "##kos": 7982,
      "##jum": 7983,
      "tay": 7984,
      "##dow": 7985,
      "gala": 7986,
      "jug": 7987,
      "znanje": 7988,
      "krip": 7989,
      "stvaranje": 7990,
      "nadzo": 7991,
      "skokova": 7992,
      "učinio": 7993,
      "visoki": 7994,
      "francuskoj": 7995,
      "djelatnosti": 7996,
      "dalmacije": 7997,
      "vjeruju": 7998,
      "polako": 7999,
      "provode": 8000,
      "člana": 8001,
      "živimo": 8002,
      "industrije": 8003,
      "siječnju": 8004,
      "započela": 8005,
      "površine": 8006,
      "križevci": 8007,
      "recep": 8008,
      "inozemstvu": 8009,
      "skrbi": 8010,
      "napominje": 8011,
      "340x227": 8012,
      "uistinu": 8013,
      "nba": 8014,
      "skuplja": 8015,
      "##nirati": 8016,
      "##taba": 8017,
      "kože": 8018,
      "paša": 8019,
      "strp": 8020,
      "boj": 8021,
      "stavite": 8022,
      "tine": 8023,
      "sig": 8024,
      "pravom": 8025,
      "lea": 8026,
      "trebate": 8027,
      "dodatni": 8028,
      "izaći": 8029,
      "mislio": 8030,
      "##play": 8031,
      "poslovne": 8032,
      "većini": 8033,
      "knjigu": 8034,
      "parlamentu": 8035,
      "okoliš": 8036,
      "dovodi": 8037,
      "hercegovine": 8038,
      "koordina": 8039,
      "onog": 8040,
      "##elu": 8041,
      "##ph": 8042,
      "##roman": 8043,
      "domo": 8044,
      "prepre": 8045,
      "remi": 8046,
      "##bit": 8047,
      "mil": 8048,
      "pile": 8049,
      "dječak": 8050,
      "igrala": 8051,
      "ostaju": 8052,
      "održat": 8053,
      "##đivanje": 8054,
      "osiguranja": 8055,
      "registar": 8056,
      "radnih": 8057,
      "podsjetio": 8058,
      "tražio": 8059,
      "pomažu": 8060,
      "financijske": 8061,
      "spomenu": 8062,
      "izložba": 8063,
      "doživio": 8064,
      "prosvjed": 8065,
      "matija": 8066,
      "fakultetu": 8067,
      "spekta": 8068,
      "utječe": 8069,
      "ljestvice": 8070,
      "ministrica": 8071,
      "700": 8072,
      "98": 8073,
      ";.": 8074,
      "nskog": 8075,
      "uva": 8076,
      "jeste": 8077,
      "jesen": 8078,
      "##tent": 8079,
      "izlaz": 8080,
      "##ruje": 8081,
      "nina": 8082,
      "niza": 8083,
      "liver": 8084,
      "ispada": 8085,
      "srednji": 8086,
      "financija": 8087,
      "hitno": 8088,
      "vozio": 8089,
      "navijače": 8090,
      "suprugu": 8091,
      "neočeki": 8092,
      "elektra": 8093,
      "posebna": 8094,
      "tradicionalno": 8095,
      "catite": 8096,
      "italija": 8097,
      "talenti": 8098,
      "##303": 8099,
      "nuklear": 8100,
      "favorit": 8101,
      "rezolu": 8102,
      "liverpo": 8103,
      "onim": 8104,
      "##ele": 8105,
      "##_340": 8106,
      "##niran": 8107,
      "povolj": 8108,
      "##kovima": 8109,
      "##canje": 8110,
      "masa": 8111,
      "##mić": 8112,
      "puni": 8113,
      "svetog": 8114,
      "ruskih": 8115,
      "možeš": 8116,
      "##tivnog": 8117,
      "anketa": 8118,
      "objavljen": 8119,
      "dobrom": 8120,
      "upot": 8121,
      "svjetskih": 8122,
      "2013": 8123,
      "govorimo": 8124,
      "splitskog": 8125,
      "potvrdili": 8126,
      "gospodin": 8127,
      "zločin": 8128,
      "problemati": 8129,
      "izbjegli": 8130,
      "prehra": 8131,
      "1024x1": 8132,
      "##zapadni": 8133,
      "kontekstu": 8134,
      "uefa": 8135,
      "dvd": 8136,
      "dhmz": 8137,
      "opisu": 8138,
      "uzor": 8139,
      "##rnu": 8140,
      "pobu": 8141,
      "##dia": 8142,
      "selak": 8143,
      "kari": 8144,
      "proz": 8145,
      "##ljo": 8146,
      "##pularni": 8147,
      "logo": 8148,
      "ženama": 8149,
      "radilo": 8150,
      "časo": 8151,
      "gene": 8152,
      "franjo": 8153,
      "novak": 8154,
      "krv": 8155,
      "mnogih": 8156,
      "ponegdje": 8157,
      "razina": 8158,
      "kazneni": 8159,
      "jeziku": 8160,
      "prekida": 8161,
      "objavljena": 8162,
      "alkohol": 8163,
      "pucao": 8164,
      "najpopularni": 8165,
      "poremeća": 8166,
      "ustvrdio": 8167,
      "upita": 8168,
      "##čnici": 8169,
      "##lian": 8170,
      "progovo": 8171,
      "prezi": 8172,
      "prire": 8173,
      "paki": 8174,
      "mel": 8175,
      "ostaviti": 8176,
      "kreću": 8177,
      "trbu": 8178,
      "zahvati": 8179,
      "hidro": 8180,
      "geno": 8181,
      "američka": 8182,
      "svjetsko": 8183,
      "2011": 8184,
      "##ins": 8185,
      "pronašao": 8186,
      "pronašla": 8187,
      "hrvoje": 8188,
      "radnog": 8189,
      "ključna": 8190,
      "sunca": 8191,
      "##financi": 8192,
      "iznenađenje": 8193,
      "izvješće": 8194,
      "kampanja": 8195,
      "otvoriti": 8196,
      "zrakop": 8197,
      "kapaciteta": 8198,
      "grand": 8199,
      "1024x683": 8200,
      "96": 8201,
      "##dth": 8202,
      "naran": 8203,
      "navra": 8204,
      "##lika": 8205,
      "poha": 8206,
      "##nar": 8207,
      "sufinanci": 8208,
      "nes": 8209,
      "nepre": 8210,
      "##lesu": 8211,
      "##gović": 8212,
      "pregle": 8213,
      "mon": 8214,
      "##ming": 8215,
      "javnim": 8216,
      "lovre": 8217,
      "button": 8218,
      "cija": 8219,
      "dodaju": 8220,
      "trča": 8221,
      "obraz": 8222,
      "drve": 8223,
      "filmova": 8224,
      "čuo": 8225,
      "održan": 8226,
      "uvjeta": 8227,
      "događanja": 8228,
      "lokalnim": 8229,
      "izjava": 8230,
      "nosila": 8231,
      "osjećam": 8232,
      "postići": 8233,
      "zaustaviti": 8234,
      "pacijenata": 8235,
      "visokog": 8236,
      "sramo": 8237,
      "##tabase": 8238,
      "zrakoplova": 8239,
      "navrata": 8240,
      "bbc": 8241,
      "žrtava": 8242,
      "zakla": 8243,
      "ode": 8244,
      "gora": 8245,
      "mirno": 8246,
      "obna": 8247,
      "prat": 8248,
      "duh": 8249,
      "cima": 8250,
      "stoje": 8251,
      "kompli": 8252,
      "procedu": 8253,
      "prosjeku": 8254,
      "poginuli": 8255,
      "kamere": 8256,
      "posjetitelji": 8257,
      "##kluzi": 8258,
      "varte": 8259,
      "mladosti": 8260,
      "stvoriti": 8261,
      "evaku": 8262,
      "dijelovima": 8263,
      "york": 8264,
      "zagrija": 8265,
      "rezervi": 8266,
      "raspudić": 8267,
      "neprija": 8268,
      "autenti": 8269,
      "jadroli": 8270,
      "sor": 8271,
      "đur": 8272,
      "##nosa": 8273,
      "kap": 8274,
      "##zivanja": 8275,
      "inzisti": 8276,
      "stavio": 8277,
      "startu": 8278,
      "najno": 8279,
      "bari": 8280,
      "kongre": 8281,
      "opse": 8282,
      "političkih": 8283,
      "gradskom": 8284,
      "crna": 8285,
      "obale": 8286,
      "poslovanje": 8287,
      "protek": 8288,
      "sportskih": 8289,
      "glazbene": 8290,
      "novosti": 8291,
      "aktivnost": 8292,
      "zastupnici": 8293,
      "general": 8294,
      "prosječna": 8295,
      "operacija": 8296,
      "gubitak": 8297,
      "završetka": 8298,
      "vukovara": 8299,
      "hg": 8300,
      "pd": 8301,
      "##res": 8302,
      "##danje": 8303,
      "##sion": 8304,
      "obnove": 8305,
      "njena": 8306,
      "najbli": 8307,
      "jom": 8308,
      "potpi": 8309,
      "ženu": 8310,
      "živote": 8311,
      "čaro": 8312,
      "otkriti": 8313,
      "federa": 8314,
      "većine": 8315,
      "koncer": 8316,
      "pokušavaju": 8317,
      "ustanova": 8318,
      "nogometna": 8319,
      "nogometaša": 8320,
      "generacija": 8321,
      "izvješću": 8322,
      "maksimir": 8323,
      "stručnjaka": 8324,
      "otvaranje": 8325,
      "relativno": 8326,
      "dobrim": 8327,
      "održivo": 8328,
      "scenarij": 8329,
      "antonio": 8330,
      "hrvatskoga": 8331,
      "policajci": 8332,
      "trofej": 8333,
      "pojasnio": 8334,
      "bdp": 8335,
      "utim": 8336,
      "zgo": 8337,
      "zvje": 8338,
      "##rje": 8339,
      "##rata": 8340,
      "##vari": 8341,
      "reper": 8342,
      "##skop": 8343,
      "javila": 8344,
      "najnovi": 8345,
      "duha": 8346,
      "bunde": 8347,
      "lega": 8348,
      "legi": 8349,
      "##lnica": 8350,
      "služi": 8351,
      "hol": 8352,
      "pozitivan": 8353,
      "potreba": 8354,
      "skupo": 8355,
      "brine": 8356,
      "reprezentaciji": 8357,
      "zračne": 8358,
      "šuma": 8359,
      "obiteljske": 8360,
      "ključnih": 8361,
      "zločina": 8362,
      "zaboraviti": 8363,
      "specijali": 8364,
      "restorana": 8365,
      "##_271947": 8366,
      "zadržati": 8367,
      "proizvođača": 8368,
      "spominje": 8369,
      "##ysq": 8370,
      "ekra": 8371,
      "nske": 8372,
      "##ot": 8373,
      "##title": 8374,
      "##tijeva": 8375,
      "zaigra": 8376,
      "##date": 8377,
      "##biji": 8378,
      "valj": 8379,
      "##žavanje": 8380,
      "##dnicima": 8381,
      "mur": 8382,
      "spoj": 8383,
      "cijom": 8384,
      "izabran": 8385,
      "ljep": 8386,
      "medite": 8387,
      "zahtijeva": 8388,
      "potresa": 8389,
      "##tanya": 8390,
      "održao": 8391,
      "našli": 8392,
      "društvenoj": 8393,
      "nastupiti": 8394,
      "nezako": 8395,
      "kupnju": 8396,
      "članice": 8397,
      "naglasila": 8398,
      "upoznali": 8399,
      "trajati": 8400,
      "zaredom": 8401,
      "##tanyahu": 8402,
      "dc": 8403,
      "ilu": 8404,
      "##brao": 8405,
      "##wo": 8406,
      "##xel": 8407,
      "zadnja": 8408,
      "netanyahu": 8409,
      "kave": 8410,
      "kamo": 8411,
      "propu": 8412,
      "gost": 8413,
      "reso": 8414,
      "pazi": 8415,
      "vio": 8416,
      "intim": 8417,
      "kupio": 8418,
      "glava": 8419,
      "rijetki": 8420,
      "državu": 8421,
      "horva": 8422,
      "dvadeset": 8423,
      "sliku": 8424,
      "vodeći": 8425,
      "krajnje": 8426,
      "izdanju": 8427,
      "šok": 8428,
      "napredo": 8429,
      "oznaka": 8430,
      "konzuma": 8431,
      "simbol": 8432,
      "naselja": 8433,
      "dalmatinske": 8434,
      "contains": 8435,
      "vatrogasaca": 8436,
      "tinejd": 8437,
      "tj": 8438,
      "ute": 8439,
      "##jskoj": 8440,
      "##vcima": 8441,
      "##15": 8442,
      "dopušte": 8443,
      "druk": 8444,
      "baj": 8445,
      "bave": 8446,
      "##vnica": 8447,
      "antu": 8448,
      "marti": 8449,
      "liječenje": 8450,
      "parku": 8451,
      "dražen": 8452,
      "integra": 8453,
      "lokacije": 8454,
      "karlova": 8455,
      "##ard": 8456,
      "upozoravaju": 8457,
      "vjerujemo": 8458,
      "lopta": 8459,
      "izazvala": 8460,
      "šansu": 8461,
      "infrastrukturu": 8462,
      "praktički": 8463,
      "datum": 8464,
      "original": 8465,
      "ema": 8466,
      "udje": 8467,
      "udio": 8468,
      "koe": 8469,
      "suca": 8470,
      "motiva": 8471,
      "malim": 8472,
      "milje": 8473,
      "can": 8474,
      "##čana": 8475,
      "meso": 8476,
      "osloba": 8477,
      "deba": 8478,
      "berna": 8479,
      "duže": 8480,
      "mup": 8481,
      "eurovi": 8482,
      "nasmija": 8483,
      "lijepe": 8484,
      "pjesmom": 8485,
      "trenutke": 8486,
      "pozitivno": 8487,
      "rezultira": 8488,
      "kvaliteta": 8489,
      "ustanove": 8490,
      "odakle": 8491,
      "glazbeni": 8492,
      "kaznena": 8493,
      "ozlijeđen": 8494,
      "stres": 8495,
      "izrazio": 8496,
      "identitet": 8497,
      "bilježi": 8498,
      "mobitel": 8499,
      "maksimalno": 8500,
      "direktno": 8501,
      "by": 8502,
      "##fan": 8503,
      "##rona": 8504,
      "##čicu": 8505,
      "##sar": 8506,
      "##don": 8507,
      "tuma": 8508,
      "plaću": 8509,
      "##ficije": 8510,
      "predsjedniku": 8511,
      "srcu": 8512,
      "ribe": 8513,
      "lucija": 8514,
      "tajna": 8515,
      "dijele": 8516,
      "snažno": 8517,
      "ponosni": 8518,
      "gledao": 8519,
      "osigurao": 8520,
      "sportskog": 8521,
      "nacionalni": 8522,
      "regija": 8523,
      "glazbenik": 8524,
      "nezabora": 8525,
      "##ily": 8526,
      "osobni": 8527,
      "prekid": 8528,
      "otvorila": 8529,
      "rizika": 8530,
      "postupku": 8531,
      "ožujku": 8532,
      "ciljeve": 8533,
      "inteligencije": 8534,
      "elektroni": 8535,
      "tragedija": 8536,
      "kontinuirano": 8537,
      "penava": 8538,
      "komercija": 8539,
      "1024x1303": 8540,
      "83": 8541,
      "glo": 8542,
      "##tiran": 8543,
      "##vidu": 8544,
      "seriju": 8545,
      "##veno": 8546,
      "izvla": 8547,
      "točnije": 8548,
      "miris": 8549,
      "gabri": 8550,
      "dubi": 8551,
      "lon": 8552,
      "194": 8553,
      "mladen": 8554,
      "kroni": 8555,
      "projektima": 8556,
      "omoguća": 8557,
      "korisnicima": 8558,
      "radove": 8559,
      "ugodno": 8560,
      "stranaka": 8561,
      "kakvo": 8562,
      "fokusi": 8563,
      "prihvatiti": 8564,
      "stjepan": 8565,
      "diplomat": 8566,
      "karakte": 8567,
      "crnoj": 8568,
      "swi": 8569,
      "učin": 8570,
      "ušla": 8571,
      "##ak": 8572,
      "set": 8573,
      "nepro": 8574,
      "princ": 8575,
      "livaja": 8576,
      "##žim": 8577,
      "najdra": 8578,
      "del": 8579,
      "planove": 8580,
      "današnje": 8581,
      "##ficira": 8582,
      "brojem": 8583,
      "šesto": 8584,
      "gradski": 8585,
      "istodobno": 8586,
      "mjesečno": 8587,
      "šar": 8588,
      "onome": 8589,
      "130": 8590,
      "kolegama": 8591,
      "navela": 8592,
      "najboljeg": 8593,
      "lopte": 8594,
      "hotelu": 8595,
      "platforma": 8596,
      "primio": 8597,
      "definira": 8598,
      "termi": 8599,
      "spasio": 8600,
      "ciljeva": 8601,
      "lokomotive": 8602,
      "hamas": 8603,
      "ovjek": 8604,
      "spektakl": 8605,
      "valjda": 8606,
      "svla": 8607,
      "##_id": 8608,
      "naprijed": 8609,
      "priu": 8610,
      "test": 8611,
      "##mima": 8612,
      "valo": 8613,
      "bad": 8614,
      "glavne": 8615,
      "##vljava": 8616,
      "kralja": 8617,
      "lijepa": 8618,
      "predstava": 8619,
      "učinak": 8620,
      "vratima": 8621,
      "nacionalnih": 8622,
      "roditelje": 8623,
      "sudjeluju": 8624,
      "upozorenja": 8625,
      "vlasnici": 8626,
      "djelovanja": 8627,
      "odličan": 8628,
      "odigrati": 8629,
      "zdravstvenih": 8630,
      "socijalne": 8631,
      "albuma": 8632,
      "derbiju": 8633,
      "ultra": 8634,
      "severina": 8635,
      "štiti": 8636,
      "promovi": 8637,
      "modu": 8638,
      "rele": 8639,
      "jabu": 8640,
      "##sea": 8641,
      "puk": 8642,
      "puna": 8643,
      "vol": 8644,
      "trećeg": 8645,
      "svoga": 8646,
      "##vnosti": 8647,
      "prijelaz": 8648,
      "brodu": 8649,
      "lokaciji": 8650,
      "karton": 8651,
      "teret": 8652,
      "nosio": 8653,
      "sredstvima": 8654,
      "izgubi": 8655,
      "zapad": 8656,
      "tražili": 8657,
      "oporavak": 8658,
      "aktivnostima": 8659,
      "naveli": 8660,
      "bruno": 8661,
      "električne": 8662,
      "doznaje": 8663,
      "mađar": 8664,
      "suočava": 8665,
      "sloveniji": 8666,
      "preporučuje": 8667,
      "ulaznica": 8668,
      "lagano": 8669,
      "treninga": 8670,
      "nastoja": 8671,
      "donalda": 8672,
      "najljepši": 8673,
      "dostojan": 8674,
      "04": 8675,
      "ec": 8676,
      "hz": 8677,
      "wol": 8678,
      "##7_": 8679,
      "##lini": 8680,
      "##renju": 8681,
      "##vača": 8682,
      "daily": 8683,
      "##loškog": 8684,
      "malu": 8685,
      "mid": 8686,
      "tren": 8687,
      "stavo": 8688,
      "prlja": 8689,
      "našla": 8690,
      "lokalno": 8691,
      "kandidatkinja": 8692,
      "prvoliga": 8693,
      "natjecanjima": 8694,
      "sastavu": 8695,
      "djelatnika": 8696,
      "zelene": 8697,
      "snimku": 8698,
      "izvršni": 8699,
      "dijagno": 8700,
      "strateški": 8701,
      "izrazito": 8702,
      "prihvaća": 8703,
      "yorku": 8704,
      "adekva": 8705,
      "napeto": 8706,
      "taylor": 8707,
      "ken": 8708,
      "##laska": 8709,
      "##stin": 8710,
      "pasti": 8711,
      "javnih": 8712,
      "javljaju": 8713,
      "##berg": 8714,
      "simpati": 8715,
      "jor": 8716,
      "austrija": 8717,
      "upravnog": 8718,
      "predstaviti": 8719,
      "brže": 8720,
      "koncertu": 8721,
      "pokušaja": 8722,
      "najam": 8723,
      "posjet": 8724,
      "informaciju": 8725,
      "sastanka": 8726,
      "emocije": 8727,
      "priznati": 8728,
      "ponaj": 8729,
      "sjajan": 8730,
      "međunarodni": 8731,
      "spremna": 8732,
      "donosimo": 8733,
      "utrci": 8734,
      "##qui": 8735,
      "reagirao": 8736,
      "kreativno": 8737,
      "asisten": 8738,
      "teritorija": 8739,
      "valenti": 8740,
      "neizvje": 8741,
      "komisija": 8742,
      "teškim": 8743,
      "nska": 8744,
      "##kciji": 8745,
      "##rizo": 8746,
      "##tant": 8747,
      "kosu": 8748,
      "sektor": 8749,
      "select": 8750,
      "##can": 8751,
      "proveli": 8752,
      "mono": 8753,
      "ten": 8754,
      "##pora": 8755,
      "tabli": 8756,
      "vagi": 8757,
      "boravak": 8758,
      "pune": 8759,
      "osmije": 8760,
      "fir": 8761,
      "cijenama": 8762,
      "objava": 8763,
      "dodatnih": 8764,
      "svojevr": 8765,
      "nastavi": 8766,
      "##škol": 8767,
      "najbolju": 8768,
      "umjetne": 8769,
      "hero": 8770,
      "mladima": 8771,
      "izjavu": 8772,
      "pokušali": 8773,
      "potvrđuje": 8774,
      "završili": 8775,
      "utakmicama": 8776,
      "iskori": 8777,
      "ravnatelja": 8778,
      "posljednjem": 8779,
      "news": 8780,
      "brzine": 8781,
      "posjetitelje": 8782,
      "individu": 8783,
      "izvijestili": 8784,
      "poboljšati": 8785,
      "fakultet": 8786,
      "subven": 8787,
      "pravde": 8788,
      "bjelova": 8789,
      "dužnosnici": 8790,
      "servis": 8791,
      "usporedbi": 8792,
      "isproba": 8793,
      "!\",": 8794,
      "dri": 8795,
      "ud": 8796,
      "##rirati": 8797,
      "##tović": 8798,
      "dodu": 8799,
      "prekri": 8800,
      "prebaci": 8801,
      "gospi": 8802,
      "mai": 8803,
      "palo": 8804,
      "infor": 8805,
      "stranica": 8806,
      "1920": 8807,
      "##štinu": 8808,
      "potrebi": 8809,
      "odgovorila": 8810,
      "jedinice": 8811,
      "americi": 8812,
      "visokim": 8813,
      "španjolskoj": 8814,
      "okus": 8815,
      "konačnici": 8816,
      "bruxel": 8817,
      "zadarske": 8818,
      "količine": 8819,
      "popularni": 8820,
      "oblik": 8821,
      "posjetitelja": 8822,
      "branko": 8823,
      "otkaz": 8824,
      "##display": 8825,
      "prehrambe": 8826,
      "doduše": 8827,
      "cla": 8828,
      "##vko": 8829,
      "##bne": 8830,
      "##redo": 8831,
      "##riraju": 8832,
      "zar": 8833,
      "dovolj": 8834,
      "pregovara": 8835,
      "##kujem": 8836,
      "mat": 8837,
      "##ston": 8838,
      "voća": 8839,
      "sveće": 8840,
      "##đenim": 8841,
      "prijela": 8842,
      "zbor": 8843,
      "odnosima": 8844,
      "brojke": 8845,
      "politici": 8846,
      "osigurali": 8847,
      "ofenzi": 8848,
      "međunarodnog": 8849,
      "elemen": 8850,
      "nedostatak": 8851,
      "ljudska": 8852,
      "obveza": 8853,
      "manipu": 8854,
      "dobrih": 8855,
      "##ditetom": 8856,
      "destinacija": 8857,
      "invaliditetom": 8858,
      "ubla": 8859,
      "nevi": 8860,
      "pal": 8861,
      "jači": 8862,
      "liko": 8863,
      "##ljko": 8864,
      "najni": 8865,
      "graditi": 8866,
      "podno": 8867,
      "čisti": 8868,
      "stranice": 8869,
      "##nijeli": 8870,
      "krize": 8871,
      "europsku": 8872,
      "snazi": 8873,
      "zagrebačka": 8874,
      "službene": 8875,
      "hrani": 8876,
      "zapadne": 8877,
      "napadača": 8878,
      "zakonom": 8879,
      "domaćina": 8880,
      "provoditi": 8881,
      "investicije": 8882,
      "objavljeno": 8883,
      "shvatio": 8884,
      "naknade": 8885,
      "poklon": 8886,
      "zamijeniti": 8887,
      "donald": 8888,
      "pretpostavlja": 8889,
      "namirnice": 8890,
      "aleksandar": 8891,
      "ekuje": 8892,
      "istri": 8893,
      "onu": 8894,
      "##znica": 8895,
      "pogla": 8896,
      "zavi": 8897,
      "zapri": 8898,
      "kal": 8899,
      "jandro": 8900,
      "##zirali": 8901,
      "odavno": 8902,
      "privatni": 8903,
      "uglji": 8904,
      "procjenjuje": 8905,
      "sedmo": 8906,
      "srušio": 8907,
      "odmora": 8908,
      "container": 8909,
      "iscrp": 8910,
      "92": 8911,
      "mü": 8912,
      "ome": 8913,
      "##mske": 8914,
      "##drije": 8915,
      "##šnih": 8916,
      "##ral": 8917,
      "##laciju": 8918,
      "sugla": 8919,
      "##čajan": 8920,
      "mer": 8921,
      "metro": 8922,
      "jasan": 8923,
      "##njiv": 8924,
      "##mjese": 8925,
      "otva": 8926,
      "sretna": 8927,
      "dodavši": 8928,
      "src": 8929,
      "međusob": 8930,
      "nemate": 8931,
      "sigurna": 8932,
      "političkog": 8933,
      "svijesti": 8934,
      "ideju": 8935,
      "guar": 8936,
      "proizvodnja": 8937,
      "2010": 8938,
      "vodili": 8939,
      "smjera": 8940,
      "objekata": 8941,
      "izjavi": 8942,
      "poslali": 8943,
      "nikoga": 8944,
      "demograf": 8945,
      "međunarodne": 8946,
      "povratka": 8947,
      "west": 8948,
      "sjeverno": 8949,
      "konferencije": 8950,
      "vašeg": 8951,
      "partnerima": 8952,
      "pripremiti": 8953,
      "restoran": 8954,
      "sjednice": 8955,
      "luksuz": 8956,
      "nimalo": 8957,
      "kolovozu": 8958,
      "%)": 8959,
      "inja": 8960,
      "wal": 8961,
      "žal": 8962,
      "##tsa": 8963,
      "bizni": 8964,
      "prevlada": 8965,
      "tole": 8966,
      "##šenju": 8967,
      "dimen": 8968,
      "distri": 8969,
      "petković": 8970,
      "cilju": 8971,
      "akciji": 8972,
      "brata": 8973,
      "##štini": 8974,
      "pomor": 8975,
      "drže": 8976,
      "ponosan": 8977,
      "njemačku": 8978,
      "komentar": 8979,
      "zone": 8980,
      "tisuću": 8981,
      "kolod": 8982,
      "ključno": 8983,
      "ključne": 8984,
      "djelatnici": 8985,
      "komunal": 8986,
      "izvješta": 8987,
      "smijeh": 8988,
      "provjeriti": 8989,
      "činjenice": 8990,
      "poginuo": 8991,
      "sjeverne": 8992,
      "itema": 8993,
      "budite": 8994,
      "komada": 8995,
      "vruće": 8996,
      "križeva": 8997,
      "dominik": 8998,
      "ukazuje": 8999,
      "ishod": 9000,
      "administra": 9001,
      "đoković": 9002,
      "pretežno": 9003,
      "ici": 9004,
      "jda": 9005,
      "osti": 9006,
      "slje": 9007,
      "##mljen": 9008,
      "nadu": 9009,
      "kose": 9010,
      "danijela": 9011,
      "##rur": 9012,
      "toki": 9013,
      "masla": 9014,
      "##cuje": 9015,
      "varija": 9016,
      "bolju": 9017,
      "von": 9018,
      "##šavaju": 9019,
      "ban": 9020,
      "##ljuje": 9021,
      "pišto": 9022,
      "bulj": 9023,
      "##dnost": 9024,
      "sportu": 9025,
      "audi": 9026,
      "luk": 9027,
      "krei": 9028,
      "stupa": 9029,
      "poveo": 9030,
      "povezuje": 9031,
      "##_269": 9032,
      "nužno": 9033,
      "gradska": 9034,
      "šalje": 9035,
      "tekstu": 9036,
      "održavanja": 9037,
      "nastupio": 9038,
      "oduvijek": 9039,
      "sastanku": 9040,
      "count": 9041,
      "telefo": 9042,
      "izgledati": 9043,
      "stanovnici": 9044,
      "uključuju": 9045,
      "potencijalno": 9046,
      "medicine": 9047,
      "znanstvenici": 9048,
      "županijskog": 9049,
      "mišljenja": 9050,
      "talent": 9051,
      "izdvaja": 9052,
      "kriminalističko": 9053,
      "molit": 9054,
      "korupcije": 9055,
      "psihija": 9056,
      "anušić": 9057,
      "karakteristi": 9058,
      "82": 9059,
      "eta": 9060,
      "ly": 9061,
      "orije": 9062,
      "usa": 9063,
      "##mble": 9064,
      "pok": 9065,
      "##rie": 9066,
      "##nela": 9067,
      "propi": 9068,
      "##king": 9069,
      "rake": 9070,
      "##stić": 9071,
      "govora": 9072,
      "imalo": 9073,
      "puti": 9074,
      "puli": 9075,
      "tin": 9076,
      "eur": 9077,
      "##hol": 9078,
      "bea": 9079,
      "trau": 9080,
      "kratki": 9081,
      "postaviti": 9082,
      "uspjeti": 9083,
      "lokalni": 9084,
      "blaga": 9085,
      "supruge": 9086,
      "2009": 9087,
      "njak": 9088,
      "republici": 9089,
      "studiju": 9090,
      "promijenio": 9091,
      "sjeveru": 9092,
      "prepoznati": 9093,
      "napustiti": 9094,
      "1961": 9095,
      "crnogor": 9096,
      "pouzda": 9097,
      "okrivlje": 9098,
      "magazin": 9099,
      "jdatabase": 9100,
      "elje": 9101,
      "nskom": 9102,
      "wor": 9103,
      "##blo": 9104,
      "##91": 9105,
      "zapre": 9106,
      "provela": 9107,
      "rane": 9108,
      "maru": 9109,
      "ref": 9110,
      "mega": 9111,
      "lisi": 9112,
      "vao": 9113,
      "##djeti": 9114,
      "jutra": 9115,
      "duži": 9116,
      "spon": 9117,
      "trebati": 9118,
      "vješta": 9119,
      "držati": 9120,
      "postalo": 9121,
      "autora": 9122,
      "stilu": 9123,
      "odgovoriti": 9124,
      "gledatelji": 9125,
      "trud": 9126,
      "grbin": 9127,
      "skupinu": 9128,
      "visoka": 9129,
      "vlastitu": 9130,
      "podatak": 9131,
      "sudjeluje": 9132,
      "telegra": 9133,
      "izdanja": 9134,
      "detalja": 9135,
      "smiju": 9136,
      "smisla": 9137,
      "utrku": 9138,
      "obveze": 9139,
      "kapeta": 9140,
      "troškovi": 9141,
      "zaljublje": 9142,
      "uzrokovati": 9143,
      "gvardiol": 9144,
      "apo": 9145,
      "ivi": 9146,
      "ky": 9147,
      "ost": 9148,
      "phi": 9149,
      "##_the": 9150,
      "##žom": 9151,
      "##licu": 9152,
      "nevrijeme": 9153,
      "radnje": 9154,
      "toplo": 9155,
      "##čenju": 9156,
      "jaku": 9157,
      "značajan": 9158,
      "figu": 9159,
      "šefa": 9160,
      "prijaviti": 9161,
      "obraču": 9162,
      "##cijskih": 9163,
      "svjetska": 9164,
      "ples": 9165,
      "##vilima": 9166,
      "slučaja": 9167,
      "vodila": 9168,
      "najavila": 9169,
      "studenom": 9170,
      "otvoreni": 9171,
      "karijera": 9172,
      "optužbe": 9173,
      "##ller": 9174,
      "odlična": 9175,
      "mislili": 9176,
      "potrazi": 9177,
      "saborski": 9178,
      "materijal": 9179,
      "pripadnici": 9180,
      "dozvole": 9181,
      "žrtva": 9182,
      "sjedište": 9183,
      "nemoguće": 9184,
      "koeficije": 9185,
      "etka": 9186,
      "skra": 9187,
      "##jskim": 9188,
      "nac": 9189,
      "zago": 9190,
      "suho": 9191,
      "izva": 9192,
      "protivni": 9193,
      "vali": 9194,
      "najza": 9195,
      "kupi": 9196,
      "čin": 9197,
      "ley": 9198,
      "##lnostima": 9199,
      "krimina": 9200,
      "glazba": 9201,
      "zdravstvo": 9202,
      "slobodan": 9203,
      "ivanu": 9204,
      "službeni": 9205,
      "rodila": 9206,
      "sredine": 9207,
      "bolnica": 9208,
      "priznaje": 9209,
      "dnevna": 9210,
      "izgradnja": 9211,
      "investicija": 9212,
      "mirovina": 9213,
      "sandra": 9214,
      "iskoristio": 9215,
      "platforme": 9216,
      "okvir": 9217,
      "životinje": 9218,
      "industriji": 9219,
      "samim": 9220,
      "darko": 9221,
      "čišćenje": 9222,
      "sergej": 9223,
      "rujevici": 9224,
      "mjestimice": 9225,
      "93": 9226,
      "dj": 9227,
      "nski": 9228,
      "shvaća": 9229,
      "žan": 9230,
      "##sr": 9231,
      "##šnog": 9232,
      "##ws": 9233,
      "nenad": 9234,
      "kalo": 9235,
      "kapi": 9236,
      "bilja": 9237,
      "savršen": 9238,
      "rasko": 9239,
      "prelazi": 9240,
      "##ganje": 9241,
      "mata": 9242,
      "manja": 9243,
      "voyo": 9244,
      "ospo": 9245,
      "##šice": 9246,
      "gara": 9247,
      "tuđ": 9248,
      "##šteno": 9249,
      "napao": 9250,
      "tjedno": 9251,
      "poslovnih": 9252,
      "ostvarila": 9253,
      "novinari": 9254,
      "odradio": 9255,
      "bijelu": 9256,
      "članovima": 9257,
      "očekujemo": 9258,
      "provjere": 9259,
      "industrija": 9260,
      "prilagodi": 9261,
      "##razumije": 9262,
      "londonu": 9263,
      "##ficiran": 9264,
      "youtu": 9265,
      "magistra": 9266,
      "relevan": 9267,
      "##_o": 9268,
      "##rit": 9269,
      "##tati": 9270,
      "kavu": 9271,
      "gorice": 9272,
      "##mično": 9273,
      "metra": 9274,
      "##rijet": 9275,
      "delega": 9276,
      "znaš": 9277,
      "dječaka": 9278,
      "otpad": 9279,
      "##dnosti": 9280,
      "radite": 9281,
      "horo": 9282,
      "stipen": 9283,
      "izašli": 9284,
      "projektila": 9285,
      "blaže": 9286,
      "pokrenuo": 9287,
      "povećanja": 9288,
      "mateo": 9289,
      "izgublje": 9290,
      "prometnih": 9291,
      "pružiti": 9292,
      "ozlijeđenih": 9293,
      "mislite": 9294,
      "zanimljiv": 9295,
      "poduzeća": 9296,
      "prosjeka": 9297,
      "preminula": 9298,
      "pozornici": 9299,
      "upoznao": 9300,
      "##gnut": 9301,
      "izazvati": 9302,
      "zvuk": 9303,
      "zadovolji": 9304,
      "showu": 9305,
      "izbjegava": 9306,
      "proglašen": 9307,
      "pretposta": 9308,
      "86": 9309,
      "91": 9310,
      "ht": 9311,
      "đi": 9312,
      "##znice": 9313,
      "##9_": 9314,
      "##remo": 9315,
      "dario": 9316,
      "dort": 9317,
      "rasti": 9318,
      "##ken": 9319,
      "met": 9320,
      "javna": 9321,
      "bud": 9322,
      "višestru": 9323,
      "story": 9324,
      "odlučiti": 9325,
[...]
