<unk>	0
<s>	0
</s>	0
a	-3.32519
e	-3.69495
▁je	-3.77433
▁i	-3.81389
▁u	-3.84694
i	-3.87916
o	-3.9498
,	-4.05267
u	-4.10434
▁,	-4.1991
.	-4.25478
▁.	-4.46792
▁na	-4.47108
;	-4.70848
▁se	-4.72122
▁da	-4.78636
▁za	-4.85965
▁a	-4.9786
on	-4.98093
▁su	-5.00467
▁s	-5.02887
&	-5.04262
om	-5.04394
ti	-5.2871
m	-5.30667
▁od	-5.32481
▁ne	-5.40744
ih	-5.42288
▁	-5.48694
d	-5.49822
▁o	-5.51441
ca	-5.55346
▁"	-5.58471
im	-5.62814
li	-5.7144
ccar	-5.71817
▁-	-5.74621
og	-5.77131
la	-5.77301
▁iz	-5.78621
▁koji	-5.81885
g	-5.84885
▁će	-5.88999
t	-5.90075
cute	-5.91289
▁po	-5.92215
▁to	-5.93908
oj	-5.96908
▁što	-5.97851
ma	-5.98285
s	-6.00323
▁&	-6.00707
▁do	-6.04031
-	-6.05558
▁te	-6.05959
▁U	-6.15414
▁koj	-6.17212
zcar	-6.18991
▁bi	-6.19575
ju	-6.19999
k	-6.21422
▁m	-6.25392
▁kako	-6.27788
ni	-6.28335
▁nije	-6.38987
š	-6.39404
▁sam	-6.40895
j	-6.41705
h	-6.42929
te	-6.47828
▁ali	-6.48218
▁kao	-6.48372
ka	-6.48864
▁:	-6.50601
je	-6.51374
▁S	-6.53985
no	-6.54241
▁ni	-6.54492
n	-6.54826
▁'	-6.5509
na	-6.61788
r	-6.63185
ne	-6.63801
▁godine	-6.66052
▁sve	-6.66834
st	-6.68018
▁",	-6.68153
lo	-6.6846
▁koje	-6.7253
▁smo	-6.72815
▁(	-6.7306
ra	-6.73527
an	-6.74052
▁biti	-6.74352
ima	-6.74936
▁pa	-6.75467
z	-6.7644
▁li	-6.76778
ci	-6.7709
▁svoj	-6.77374
▁ima	-6.80342
mo	-6.80436
▁I	-6.82098
p	-6.82768
▁nakon	-6.82905
en	-6.83624
▁više	-6.87258
▁A	-6.8771
▁ili	-6.88091
:	-6.88332
▁Na	-6.94242
▁sa	-6.95202
č	-6.95616
va	-6.957
▁bio	-6.97041
le	-6.98336
nja	-7.01266
ko	-7.03378
▁mi	-7.03538
▁samo	-7.03735
▁ga	-7.03826
▁još	-7.05732
▁t	-7.06321
nje	-7.06659
▁jer	-7.08322
▁ma	-7.08532
▁rekao	-7.11142
▁već	-7.12115
ja	-7.12978
▁zbog	-7.15202
l	-7.17165
▁g	-7.18208
ke	-7.18889
)	-7.19141
▁e	-7.19622
ći	-7.19661
▁može	-7.20054
▁uz	-7.21132
▁bilo	-7.23223
y	-7.23771
▁?	-7.24827
▁h	-7.25634
▁ja	-7.2619
▁godina	-7.2722
▁mu	-7.27569
▁prije	-7.27583
▁pri	-7.27947
er	-7.28608
ta	-7.29364
▁K	-7.29955
strok	-7.30928
nu	-7.31855
▁eura	-7.31886
v	-7.32952
▁P	-7.33787
▁tako	-7.341
ž	-7.35464
ić	-7.35929
▁no	-7.38296
▁dok	-7.38562
em	-7.3881
▁bila	-7.39727
▁ih	-7.39874
c	-7.41084
▁O	-7.41713
▁Ne	-7.42269
in	-7.42402
"	-7.42521
▁dana	-7.4293
▁pre	-7.43086
▁tri	-7.43389
▁njegov	-7.43542
iti	-7.43796
▁Po	-7.43811
▁kada	-7.44769
▁om	-7.45281
▁To	-7.45427
▁Za	-7.45877
da	-7.47869
▁protiv	-7.50865
▁mo	-7.51826
▁prema	-7.52173
ku	-7.53035
ć	-7.53375
▁C	-7.53519
ar	-7.53691
▁oko	-7.53943
▁pod	-7.54206
▁on	-7.5618
▁mogu	-7.56339
▁bez	-7.56918
▁ka	-7.56985
f	-7.56988
▁tu	-7.57671
▁kad	-7.57823
▁treba	-7.58014
▁ti	-7.58043
▁posto	-7.58352
▁ju	-7.58364
ica	-7.58565
vi	-7.58721
b	-7.59157
▁dva	-7.60314
▁...	-7.61269
ak	-7.61689
▁svoje	-7.62187
▁nam	-7.62301
▁!	-7.62463
▁ove	-7.62744
▁jedan	-7.62901
bi	-7.63358
ov	-7.63622
S	-7.64296
tko	-7.64396
▁gdje	-7.64749
▁pro	-7.65766
▁nego	-7.65813
▁me	-7.66611
ve	-7.6683
▁ljudi	-7.67032
ama	-7.67223
▁im	-7.67952
ce	-7.68005
ri	-7.68342
ost	-7.68454
C	-7.69128
re	-7.69255
▁".	-7.7009
ova	-7.70924
▁nisu	-7.72994
ije	-7.72997
▁njihov	-7.7322
▁D	-7.73443
▁toga	-7.73553
▁pred	-7.75188
ski	-7.75545
▁sada	-7.75999
▁vrijeme	-7.76454
0	-7.76979
sti	-7.78496
ice	-7.79059
nik	-7.79293
koliko	-7.79417
pa	-7.79756
lu	-7.80304
lje	-7.80604
▁š	-7.80934
▁nema	-7.82138
lja	-7.82313
▁put	-7.82931
ba	-7.83584
P	-7.83879
▁ako	-7.84541
▁radi	-7.8458
vijek	-7.84751
▁kod	-7.85005
▁prvi	-7.85019
▁ovo	-7.85228
▁nas	-7.85349
▁G	-7.85963
I	-7.87341
ako	-7.88394
▁dobro	-7.88424
▁mogl	-7.88724
či	-7.89536
▁naš	-7.89631
▁Š	-7.89649
al	-7.90658
▁pet	-7.90672
▁No	-7.90763
D	-7.91633
A	-7.92032
▁ta	-7.92053
▁taj	-7.9268
▁danas	-7.92897
zi	-7.93042
▁re	-7.93116
▁mora	-7.93312
ro	-7.93747
▁dr	-7.94141
▁F	-7.9446
▁H	-7.94537
če	-7.94902
▁bili	-7.94997
O	-7.95023
▁ov	-7.95406
1	-7.95557
že	-7.95646
ki	-7.95722
▁E	-7.97196
▁tijek	-7.97955
▁ve	-7.97962
▁kaže	-7.98581
▁j	-7.98817
aj	-7.99028
it	-7.99231
▁svi	-7.99611
▁T	-7.99854
▁Hrvatske	-8.00026
▁puno	-8.00426
▁la	-8.00568
▁z	-8.00615
▁/	-8.0107
ži	-8.01299
▁kojem	-8.01306
nih	-8.01621
▁nešto	-8.02036
ovi	-8.02067
▁M	-8.0221
put	-8.02593
▁Nak	-8.02716
▁tome	-8.03066
E	-8.03284
'	-8.03345
ira	-8.03629
▁n	-8.03899
▁dio	-8.04145
ila	-8.04626
▁malo	-8.04809
▁velik	-8.04952
▁Hrvatskoj	-8.05147
▁Pa	-8.06104
▁10	-8.06361
▁sati	-8.06619
▁ste	-8.06658
ac	-8.07253
▁dvije	-8.07439
▁Do	-8.07852
2	-8.08577
▁Z	-8.08699
▁novi	-8.09278
▁predsjednik	-8.09686
w	-8.10194
3	-8.10214
5	-8.10278
▁naj	-8.10499
▁vam	-8.10602
▁Od	-8.10872
ili	-8.11372
za	-8.11885
▁njezin	-8.12049
▁dan	-8.12521
▁19	-8.12757
or	-8.12964
▁)	-8.13029
▁broj	-8.13443
▁milijuna	-8.13954
▁način	-8.14338
▁r	-8.14533
▁k	-8.15852
▁igra	-8.15873
iji	-8.16046
K	-8.164
▁de	-8.16436
▁le	-8.16471
4	-8.16482
▁zna	-8.16504
B	-8.16909
▁rekla	-8.17265
među	-8.1819
ija	-8.18281
be	-8.18283
▁neće	-8.1856
6	-8.18854
nju	-8.1895
M	-8.19222
▁dalje	-8.19384
nog	-8.19488
▁imaju	-8.19743
▁ova	-8.19788
▁B	-8.20253
eg	-8.20693
ove	-8.21104
▁onda	-8.21105
T	-8.21172
▁Hrvatska	-8.21251
▁c	-8.21388
▁Iz	-8.22258
▁20	-8.22309
ch	-8.22421
▁d	-8.23089
▁Mi	-8.2334
▁vrl	-8.23464
▁Da	-8.2365
▁jako	-8.23689
▁W	-8.24127
nici	-8.24179
kom	-8.24287
▁čak	-8.24425
7	-8.24578
el	-8.24754
▁joj	-8.24939
cu	-8.2506
▁ćemo	-8.26039
▁njih	-8.26368
si	-8.26549
kroz	-8.26754
▁oni	-8.26781
▁kojim	-8.27238
▁život	-8.27482
▁vi	-8.27494
▁Ivan	-8.27564
▁Europsk	-8.27595
ru	-8.27732
ur	-8.27901
▁nad	-8.29222
▁Kad	-8.29357
▁Ma	-8.29608
▁bit	-8.29643
str	-8.29844
▁lo	-8.30061
▁Kak	-8.30487
▁Ja	-8.30805
▁ovog	-8.30833
8	-8.30929
▁drugi	-8.31126
▁prošl	-8.31162
dr	-8.31363
nim	-8.31668
▁ko	-8.31707
▁tim	-8.31727
▁mjesto	-8.31977
akođer	-8.31984
osti	-8.32639
ča	-8.3316
▁Č	-8.33458
▁nov	-8.33753
br	-8.33851
▁raz	-8.34208
▁p	-8.34688
ava	-8.34959
N	-8.3561
▁jednom	-8.35877
▁puta	-8.36308
▁tom	-8.36329
▁ona	-8.36434
▁N	-8.36787
▁grad	-8.37068
ska	-8.37387
▁),	-8.37453
vaj	-8.37592
▁koliko	-8.37618
▁ra	-8.38029
sam	-8.38031
▁di	-8.38517
▁va	-8.3886
▁društven	-8.39093
▁takv	-8.39236
av	-8.39312
▁europsk	-8.39379
▁1	-8.39403
▁četiri	-8.39429
▁gotov	-8.3957
▁druge	-8.39761
U	-8.40061
▁ob	-8.4021
▁utakmice	-8.40241
tor	-8.40816
▁čest	-8.40838
vo	-8.40982
▁vodi	-8.40994
▁rad	-8.41058
▁neki	-8.41083
▁Re	-8.41538
▁jedna	-8.41596
ran	-8.41964
▁v	-8.42099
▁hrvatsk	-8.42155
▁među	-8.42173
ck	-8.42426
nom	-8.4256
▁manje	-8.42718
▁15	-8.43124
▁st	-8.4344
▁piše	-8.43471
▁kr	-8.43769
nosno	-8.4383
et	-8.43841
cija	-8.43982
lj	-8.43991
ter	-8.44082
ljen	-8.44179
jen	-8.44198
ović	-8.4431
▁ovom	-8.44397
▁Pri	-8.44435
▁šest	-8.44669
▁ku	-8.4498
▁preko	-8.45491
V	-8.45945
▁Pro	-8.46031
▁Sve	-8.46581
▁sezone	-8.46649
sko	-8.46951
▁cijel	-8.4701
▁2	-8.47234
▁HDZ	-8.47279
smo	-8.47292
po	-8.47541
R	-8.47738
ljiv	-8.47818
x	-8.47861
▁obitelji	-8.48707
šta	-8.48787
▁govori	-8.48835
▁strane	-8.49201
▁Le	-8.49325
▁Li	-8.49388
▁Ak	-8.49476
cima	-8.49632
▁vremena	-8.4988
▁kojeg	-8.49992
▁Ni	-8.5
▁osoba	-8.50782
▁V	-8.5079
pis	-8.50941
▁Dinamo	-8.50958
at	-8.51196
is	-8.5128
▁4	-8.51412
ut	-8.51608
▁nje	-8.51641
▁vas	-8.51716
▁tek	-8.52154
",	-8.52176
9	-8.52194
▁La	-8.52348
▁nek	-8.52419
▁sad	-8.52471
ske	-8.53531
▁',	-8.53685
▁glas	-8.53994
▁svih	-8.5427
▁tada	-8.54408
▁mjesta	-8.54655
▁f	-8.54953
▁njega	-8.55279
us	-8.55392
▁ot	-8.5552
▁problem	-8.558
▁projekt	-8.55887
▁star	-8.55951
▁op	-8.56081
▁L	-8.56164
▁kazao	-8.56225
▁Gr	-8.56245
▁kraju	-8.5638
▁3	-8.5672
▁12	-8.56753
▁posebno	-8.57024
▁imati	-8.57384
L	-8.57387
▁R	-8.57468
ze	-8.57978
▁objavi	-8.58097
▁javn	-8.5853
▁11	-8.58697
▁moga	-8.58714
▁imao	-8.59361
▁Kr	-8.59884
▁2024.	-8.59907
ol	-8.59998
▁9	-8.60223
▁30	-8.60307
F	-8.60426
▁18	-8.60941
▁Zagrebu	-8.60953
ša	-8.61158
▁svom	-8.6126
nost	-8.61322
vu	-8.61326
šao	-8.61643
▁l	-8.61657
van	-8.61719
up	-8.61756
red	-8.62006
▁Br	-8.6206
▁gol	-8.62703
▁EU	-8.6284
G	-8.62877
ina	-8.62885
▁teško	-8.62903
/	-8.62992
vši	-8.63066
ite	-8.6322
▁njima	-8.63385
▁godinu	-8.63607
jući	-8.64055
▁hrvatski	-8.64248
▁Ra	-8.64268
▁0	-8.64321
00	-8.64366
▁ono	-8.64532
▁tr	-8.64816
čan	-8.64927
▁kon	-8.6504
▁rusk	-8.65137
čić	-8.65229
pi	-8.65269
▁stvari	-8.656
▁Ovo	-8.65773
▁ru	-8.65874
▁Ali	-8.66028
il	-8.66071
men	-8.66177
nji	-8.66261
ng	-8.66498
▁naše	-8.66596
▁baš	-8.66769
▁pomoć	-8.66927
]	-8.66938
▁ništa	-8.67181
tra	-8.67508
▁13	-8.67868
▁trener	-8.67942
▁pitanje	-8.68024
ković	-8.68041
▁Pre	-8.68204
▁Prem	-8.68214
ek	-8.68463
▁mjestu	-8.68585
▁cilj	-8.68646
ovima	-8.68682
▁Bu	-8.68717
▁stan	-8.68764
▁Hajduk	-8.68823
▁5	-8.68927
▁veliki	-8.69136
▁Mo	-8.69325
%	-8.6933
cije	-8.69544
▁Što	-8.69558
▁Bo	-8.69635
mah	-8.69715
▁nju	-8.70404
es	-8.70426
ća	-8.70747
▁Ro	-8.71157
▁državn	-8.71393
▁čini	-8.71504
bu	-8.7165
nt	-8.71798
▁svim	-8.71871
uje	-8.72014
▁Jo	-8.72483
▁bude	-8.72674
▁ba	-8.72735
Z	-8.72764
▁bolje	-8.72794
▁nu	-8.729
▁Ob	-8.73433
▁sebe	-8.73466
▁=>	-8.73561
▁obzir	-8.73795
šte	-8.73846
vanje	-8.7401
ing	-8.74014
▁VIDEO	-8.74044
▁Ba	-8.74295
jte	-8.74362
▁Ka	-8.74461
lić	-8.74533
▁Ž	-8.74644
▁smatra	-8.74733
▁priča	-8.74833
▁kakv	-8.74857
▁nove	-8.74888
▁Je	-8.7497
▁Al	-8.75111
ista	-8.75247
▁nog	-8.75469
▁minuti	-8.7553
to	-8.75612
ža	-8.75647
ks	-8.7575
▁7	-8.76031
telj	-8.76053
▁otvoren	-8.76085
▁deset	-8.76123
▁potpuno	-8.76399
▁izgleda	-8.76452
▁moj	-8.76513
▁Zagreb	-8.76636
▁Uz	-8.76693
▁Plenković	-8.76795
ir	-8.77185
▁Di	-8.77446
▁ci	-8.77908
▁Be	-8.78041
▁svog	-8.78057
▁St	-8.78247
▁klub	-8.78299
▁50	-8.78325
▁De	-8.78428
▁upravo	-8.78452
▁Ko	-8.78573
▁bih	-8.78803
▁vozila	-8.78805
kl	-8.79113
.000	-8.79144
đen	-8.79146
▁znači	-8.79296
▁dobio	-8.79297
▁minuta	-8.79723
▁par	-8.79938
▁odgovor	-8.80024
▁niz	-8.80043
▁kraja	-8.80063
▁dodao	-8.80102
▁utakmica	-8.80241
▁ću	-8.80272
▁On	-8.80429
▁svijetu	-8.80459
hr	-8.80529
▁osvoji	-8.80837
▁čeka	-8.80914
▁imali	-8.81034
št	-8.81364
▁Milanović	-8.81448
▁možda	-8.81451
▁16	-8.81453
H	-8.81658
met	-8.81666
▁većin	-8.81781
lji	-8.81888
▁djece	-8.81903
▁visok	-8.8207
▁17	-8.82193
▁istaknu	-8.82283
▁sustav	-8.82294
▁imam	-8.82455
▁političk	-8.82614
▁vode	-8.82883
▁osta	-8.8291
▁[	-8.82918
ine	-8.83199
rt	-8.83207
▁lokaln	-8.83222
▁J	-8.83486
▁jedn	-8.83595
▁nalazi	-8.83797
▁Ta	-8.83904
▁ponovno	-8.83962
▁kom	-8.83963
čen	-8.84231
▁rezultat	-8.84277
▁ipak	-8.84347
▁želi	-8.84481
▁14	-8.8453
vanja	-8.84591
pe	-8.84706
vr	-8.84814
voj	-8.84842
▁zajedno	-8.84851
▁pravo	-8.85061
man	-8.85221
▁jednog	-8.85374
▁prvaka	-8.85479
▁kaznen	-8.85559
▁života	-8.85591
▁predsjednika	-8.8582
▁Ar	-8.85958
▁one	-8.86054
▁tisuća	-8.86055
▁kasnije	-8.86541
▁posla	-8.86707
▁program	-8.86778
iv	-8.86942
nica	-8.8728
▁radn	-8.87289
▁Grad	-8.87672
as	-8.87822
▁).	-8.87888
iran	-8.88078
▁temelj	-8.88224
▁posljednj	-8.88392
▁dolazi	-8.88527
▁utakmicu	-8.88915
▁području	-8.88915
▁svaki	-8.89373
▁24	-8.89402
▁jednu	-8.89448
tak	-8.89507
▁tešk	-8.89661
▁ide	-8.8978
đe	-8.89885
▁pla	-8.90029
ent	-8.90066
▁nogometn	-8.90094
šić	-8.90168
nika	-8.90644
čar	-8.90647
▁Me	-8.90911
▁jedno	-8.91069
▁Velik	-8.91162
ita	-8.91173
sku	-8.91189
▁Tu	-8.91217
▁Mar	-8.91368
▁osobe	-8.91854
bo	-8.92036
lin	-8.92079
var	-8.92093
▁premijer	-8.92215
tim	-8.92225
▁toliko	-8.92712
▁Naime	-8.92813
▁Tr	-8.92981
▁ski	-8.92986
▁reći	-8.9312
▁Osim	-8.9315
▁prvo	-8.93254
▁poznat	-8.93313
▁ostal	-8.93407
▁riječ	-8.93518
▁trenutku	-8.93533
▁svak	-8.93598
▁bo	-8.93745
▁njegova	-8.94053
▁koncert	-8.94055
▁najviše	-8.94366
ss	-8.94404
▁posao	-8.94437
▁postoji	-8.94653
▁Tako	-8.94676
▁pe	-8.94796
▁napad	-8.94937
vod	-8.94958
▁1.	-8.94986
▁prava	-8.95121
tri	-8.95142
▁Dan	-8.95259
▁2023.	-8.95298
lju	-8.95603
▁svjetsk	-8.9563
▁isto	-8.95775
▁mnogi	-8.95778
▁gr	-8.95789
▁Ova	-8.95959
pl	-8.96306
▁Ha	-8.964
▁odluči	-8.96436
▁poče	-8.96604
▁zato	-8.96913
▁skup	-8.96987
▁ranije	-8.97236
▁pi	-8.97261
▁nja	-8.97279
▁problema	-8.9747
lan	-8.97477
▁najbolje	-8.97492
▁ovu	-8.97549
▁traži	-8.9755
▁pokazal	-8.97582
▁kraj	-8.97738
▁policija	-8.98012
▁grada	-8.98068
▁Hrvatsku	-8.98266
▁vaš	-8.98329
▁zašto	-8.98719
▁igrača	-8.9876
▁isti	-8.98843
▁be	-8.98913
▁različit	-8.98958
▁koristi	-8.98965
▁Te	-8.99002
▁čega	-8.99054
▁petak	-8.99222
▁brojn	-8.99227
▁američk	-8.99247
skog	-8.99429
bl	-8.99584
▁Nije	-8.99772
▁pomoći	-8.99777
▁drugim	-8.99796
▁drugom	-8.99833
▁susret	-8.99886
▁mjeseci	-9.00298
▁prometn	-9.00301
▁ev	-9.00318
▁sigurno	-9.00367
▁vozač	-9.0039
▁zapravo	-9.00447
▁Su	-9.00458
▁nacionaln	-9.00629
▁zdravstven	-9.00786
▁automobil	-9.00797
J	-9.00891
▁pristup	-9.01075
▁SAD	-9.0114
per	-9.01323
▁raditi	-9.0176
▁kluba	-9.02043
▁dug	-9.02151
▁ca	-9.02241
▁ču	-9.02301
▁svijeta	-9.02775
▁vidjeti	-9.02836
sp	-9.02916
▁prvom	-9.02954
▁slu	-9.03013
tar	-9.03026
đ	-9.03028
▁nastup	-9.03179
▁em	-9.03338
▁svega	-9.034
▁tog	-9.03422
ob	-9.03493
▁dugo	-9.03524
▁zemlje	-9.03557
▁Josip	-9.03829
skih	-9.04038
▁opet	-9.04142
▁iznos	-9.04183
▁tra	-9.04212
▁40	-9.04334
▁možemo	-9.04404
▁prva	-9.04405
▁gradsk	-9.04432
▁rat	-9.04533
▁proces	-9.04559
▁vjerojatno	-9.04573
▁100	-9.04608
▁25	-9.04642
▁SDP	-9.0465
▁plaća	-9.04766
▁ključn	-9.04836
▁subotu	-9.04929
ver	-9.05158
▁tvrdi	-9.05391
▁mene	-9.05395
▁imala	-9.05427
▁Bi	-9.0556
▁stoji	-9.05698
▁sva	-9.05782
grad	-9.05802
▁8	-9.05847
gor	-9.05907
▁dobr	-9.05938
▁ovdje	-9.05974
▁b	-9.06032
let	-9.06077
▁sud	-9.06176
▁6	-9.06269
▁vojn	-9.06295
▁izvor	-9.06501
▁č	-9.06532
▁navodi	-9.06557
▁lu	-9.06589
▁brzo	-9.06814
▁Izrael	-9.06822
▁poslovn	-9.06979
▁br	-9.07017
▁An	-9.07138
▁in	-9.07274
rije	-9.07299
▁slučaju	-9.0736
▁2022.	-9.07626
god	-9.07785
▁zagrebačk	-9.07877
▁zahtjev	-9.07928
▁gleda	-9.07983
un	-9.08064
ster	-9.08145
▁dosta	-9.08243
▁pun	-9.08363
stvo	-9.0839
mir	-9.08522
▁sedam	-9.08698
▁postal	-9.08939
niji	-9.08993
▁ki	-9.09014
▁ministar	-9.09133
▁sport	-9.09168
▁dovoljno	-9.092
▁privatn	-9.09248
▁ras	-9.09491
isti	-9.09555
▁priliku	-9.09569
▁vlastit	-9.09584
),	-9.09885
▁film	-9.09902
▁nedjelju	-9.10014
▁ro	-9.10071
▁kup	-9.10079
▁drugih	-9.10174
▁vr	-9.10283
jedno	-9.10338
▁Svi	-9.10484
▁strani	-9.10582
▁Međutim	-9.107
▁prostor	-9.10912
▁živ	-9.10959
▁rada	-9.10978
ću	-9.11052
▁osam	-9.11058
▁uključuju	-9.11181
▁Marko	-9.11198
▁Vr	-9.11205
▁rast	-9.1128
pre	-9.11366
▁red	-9.11397
▁zakon	-9.11557
▁naslov	-9.11598
▁mir	-9.11762
izira	-9.11795
vati	-9.11866
njak	-9.12031
▁napada	-9.12069
▁tjedna	-9.12355
ec	-9.12717
▁pita	-9.128
▁ž	-9.12819
▁ce	-9.12948
▁Ov	-9.12957
op	-9.12978
anje	-9.12989
▁odnosu	-9.1313
▁pak	-9.13304
▁bu	-9.13359
▁Per	-9.13374
▁ponedjeljak	-9.13456
▁igrati	-9.13517
▁prve	-9.13524
▁sin	-9.13546
▁isp	-9.13586
▁tamo	-9.13792
▁igrač	-9.13902
kako	-9.14145
nije	-9.14149
bil	-9.14195
▁žena	-9.14208
▁Hrvatski	-9.14262
▁primjer	-9.14381
▁ugovor	-9.14389
TE	-9.14541
iz	-9.14584
▁Ri	-9.14601
▁kola	-9.14774
▁godini	-9.14879
▁moguće	-9.1521
os	-9.15291
▁fa	-9.15791
▁potom	-9.15799
▁21	-9.15845
▁ovim	-9.15855
▁određen	-9.15879
▁izborn	-9.15943
▁novinar	-9.15947
▁direktor	-9.15975
▁financijsk	-9.15989
pr	-9.16052
▁Zbog	-9.16092
▁njen	-9.16175
▁Ima	-9.16195
▁znam	-9.16225
▁uspjeh	-9.16297
dan	-9.1662
▁glavn	-9.16704
čki	-9.16951
▁ovi	-9.1699
▁tih	-9.17085
▁član	-9.17113
▁osobn	-9.17155
▁djecu	-9.1724
▁velika	-9.17246
▁jasno	-9.17424
▁(1	-9.17429
▁Du	-9.17615
ivot	-9.17808
▁rata	-9.17889
th	-9.17946
▁hrvatske	-9.1796
▁nikad	-9.18031
raz	-9.18174
▁dijete	-9.18273
ren	-9.18325
emo	-9.1835
▁srijedu	-9.18482
▁kuće	-9.18696
prav	-9.18775
▁kandidat	-9.18869
▁list	-9.18898
mjesto	-9.18911
▁Dinama	-9.19031
ev	-9.19075
▁Dr	-9.19091
▁prona	-9.19252
dje	-9.19394
čin	-9.19418
▁Prije	-9.1942
iš	-9.19547
▁priprema	-9.19579
▁bodova	-9.19676
▁Split	-9.19679
zor	-9.19847
skom	-9.19854
godišnjak	-9.19883
ic	-9.19944
▁izbora	-9.20047
▁nom	-9.20059
▁putem	-9.20262
tan	-9.20294
▁Kao	-9.20305
▁Rad	-9.20398
▁vrati	-9.20455
▁dom	-9.20881
▁oba	-9.20893
▁glavni	-9.20906
val	-9.2095
▁(2	-9.21105
▁Vi	-9.21115
jav	-9.21177
▁svijet	-9.21194
▁ispre	-9.21309
▁korak	-9.21447
▁hrvatskog	-9.21528
đa	-9.21633
▁stigl	-9.21639
▁dijelu	-9.2176
▁predstavlja	-9.21934
ciju	-9.21953
▁obitelj	-9.22019
▁nastupa	-9.22023
▁Real	-9.22079
▁najbolji	-9.22117
sk	-9.22119
▁uspjel	-9.22235
akav	-9.22249
▁sportsk	-9.22272
▁stranke	-9.22277
spod	-9.22352
com	-9.22453
▁gradonačelnik	-9.22453
▁Ivana	-9.22461
uju	-9.22462
▁In	-9.2253
▁Mil	-9.22569
▁metara	-9.22569
anja	-9.22581
mjer	-9.22616
▁ps	-9.22701
▁došao	-9.22793
▁misli	-9.22803
▁Luka	-9.22831
sni	-9.23006
▁zemlji	-9.23222
▁povijesti	-9.23263
▁važn	-9.23649
▁val	-9.23813
▁mislim	-9.23823
▁Sa	-9.23852
▁plan	-9.23972
fi	-9.24075
▁Ru	-9.24111
▁dobiti	-9.24132
▁utakmici	-9.2422
▁utorak	-9.24893
▁du	-9.24991
▁model	-9.25088
ll	-9.25101
▁ime	-9.25107
▁sata	-9.25183
▁momčad	-9.25236
▁dobar	-9.2524
▁nova	-9.25316
▁Zagreba	-9.25416
ry	-9.25537
▁razini	-9.25602
▁sti	-9.2582
▁nedavno	-9.25985
▁pres	-9.26039
ven	-9.26069
▁mnogo	-9.26143
▁ri	-9.26172
▁nosi	-9.26198
vid	-9.26385
▁ska	-9.26397
osim	-9.26417
▁doći	-9.26455
▁škole	-9.26475
▁60	-9.26592
nj	-9.26622
▁devet	-9.26711
▁završi	-9.26775
▁mlad	-9.26858
nk	-9.26872
▁cijene	-9.26878
▁Republike	-9.26911
▁zanimljiv	-9.27045
▁sat	-9.27064
▁Misli	-9.27089
▁bivši	-9.27167
▁BiH	-9.27179
kov	-9.27395
▁izazov	-9.27426
▁čovjek	-9.2747
▁sklop	-9.27489
▁splitsk	-9.27504
▁22	-9.27545
inu	-9.27652
▁pol	-9.27681
▁razvoj	-9.27703
▁prethodn	-9.27738
▁pogled	-9.27832
▁Ju	-9.27846
▁država	-9.27929
▁novog	-9.28
glavnom	-9.28004
▁pot	-9.28022
▁Rijeka	-9.28082
▁moći	-9.28104
▁objavljen	-9.28198
noj	-9.28283
▁Martin	-9.28418
čni	-9.28702
▁prvog	-9.28724
tur	-9.28857
▁čim	-9.29028
▁čem	-9.29134
▁županije	-9.29151
▁druga	-9.29248
▁ističe	-9.29302
▁moram	-9.29357
▁ske	-9.2941
ber	-9.29412
▁Splitu	-9.29423
▁dodatn	-9.2954
▁sje	-9.29634
▁pos	-9.29662
▁god	-9.29684
▁cijena	-9.29747
▁Također	-9.29805
▁donosi	-9.29845
▁Zoran	-9.29862
▁Trump	-9.29873
▁velike	-9.29906
nice	-9.29929
▁Ga	-9.29936
▁str	-9.30142
▁mrežama	-9.30153
ziv	-9.30258
▁pu	-9.30291
▁odigra	-9.30351
▁mjeseca	-9.30385
▁pjeva	-9.3041
▁mjesec	-9.30454
▁razn	-9.30518
▁pojedin	-9.30548
▁dolara	-9.30797
▁pobjedu	-9.30903
▁godinama	-9.30943
▁ljude	-9.3102
▁tvrtke	-9.31285
ini	-9.31293
▁Grada	-9.31296
▁gradu	-9.31309
▁trenutno	-9.31374
▁milijard	-9.31378
▁lipnja	-9.31379
▁drugo	-9.31509
▁snage	-9.31622
▁ukupno	-9.31675
▁Bar	-9.31726
▁međunarodn	-9.31738
▁pobjede	-9.31861
▁moraju	-9.31956
▁sjajn	-9.32167
▁njemu	-9.32188
▁teren	-9.32323
▁ljubav	-9.32344
▁ran	-9.32412
▁Naj	-9.32499
▁time	-9.32561
▁napraviti	-9.32565
▁izbor	-9.32761
čke	-9.32801
▁novac	-9.3286
▁služben	-9.33038
▁budu	-9.3322
▁izvan	-9.33234
▁poručio	-9.33312
udi	-9.33333
▁Pe	-9.33342
enje	-9.33526
▁javnosti	-9.3364
▁Ti	-9.33783
▁Vlade	-9.33801
▁Lu	-9.33811
▁dobili	-9.33842
▁postao	-9.33861
▁crven	-9.3393
ilo	-9.33996
stoj	-9.34047
ub	-9.34064
▁rade	-9.34189
jan	-9.34195
▁svima	-9.34263
▁prvu	-9.34309
rad	-9.34324
▁Nov	-9.34338
▁žele	-9.3434
▁prav	-9.34434
▁očekuje	-9.34505
▁prilik	-9.34508
▁prati	-9.34657
▁ovakv	-9.34674
ul	-9.34837
▁objavila	-9.34962
rin	-9.34989
godišnji	-9.3524
icu	-9.35404
▁djelo	-9.35437
▁Radi	-9.35459
▁vo	-9.35499
ns	-9.35513
sh	-9.35517
▁jak	-9.35657
▁23	-9.35677
▁vlasti	-9.35681
▁partner	-9.35743
▁ljudsk	-9.35783
nce	-9.35787
nos	-9.35805
▁doma	-9.35955
▁slučaj	-9.35978
nc	-9.36003
▁situacija	-9.36013
▁gra	-9.36205
ment	-9.36279
▁došlo	-9.3629
▁Danas	-9.3632
▁prijatelj	-9.36396
▁dogodilo	-9.36533
▁sebi	-9.3654
▁Lo	-9.3656
ard	-9.36589
▁vidi	-9.36754
▁bist	-9.36822
▁auto	-9.36865
▁vanjsk	-9.36963
res	-9.36977
mer	-9.37011
▁pokaza	-9.37037
ete	-9.37079
▁posebn	-9.37112
▁interes	-9.37205
▁bolesti	-9.37259
▁mladi	-9.37266
▁kat	-9.37284
▁izjavio	-9.37371
▁osjećaj	-9.37381
▁Pod	-9.37395
▁Osijek	-9.37422
lov	-9.37478
▁pad	-9.37541
▁poslova	-9.37689
▁El	-9.37859
▁Hajduka	-9.37965
▁pravi	-9.37987
▁izborima	-9.38058
▁Ve	-9.38096
▁živi	-9.38128
▁otkrila	-9.38155
▁ozlijeđen	-9.38192
▁POGLEDAJ	-9.38444
▁odnos	-9.38448
▁Ho	-9.38464
▁aktivnosti	-9.38662
▁Dok	-9.3871
▁trebalo	-9.38719
▁razgovor	-9.38723
▁Mir	-9.38899
▁najavi	-9.3891
▁zabio	-9.38919
▁zdrav	-9.3892
▁vlada	-9.38939
▁Domovinsk	-9.3896
▁brod	-9.38967
▁sla	-9.39012
▁otkrio	-9.39039
▁drugog	-9.39141
▁zajedničk	-9.393
▁dobi	-9.39312
▁djeca	-9.39313
▁obiteljsk	-9.39408
vlja	-9.39605
▁cu	-9.39637
▁nikada	-9.39662
▁Bio	-9.39788
▁igre	-9.40035
stan	-9.40044
▁potrebno	-9.40143
▁kli	-9.40247
▁sastav	-9.4025
▁Njegov	-9.40259
▁Marin	-9.40277
▁ukrajinsk	-9.4039
▁stol	-9.40397
▁ša	-9.40457
jem	-9.40472
▁pola	-9.4049
din	-9.40527
▁države	-9.40553
▁turističk	-9.40774
▁kor	-9.40854
▁javno	-9.40876
▁djela	-9.40965
▁odmor	-9.412
▁bol	-9.41235
▁momčadi	-9.41301
▁terenu	-9.41405
▁lako	-9.41413
▁dobil	-9.41428
▁naglasi	-9.41468
▁srpsk	-9.41576
▁desn	-9.41595
tal	-9.41693
▁kriv	-9.41737
dio	-9.41816
▁bogat	-9.41963
▁policijsk	-9.41975
▁Svjetsk	-9.42241
▁vezan	-9.42246
▁godišnj	-9.4231
▁let	-9.42319
▁bor	-9.42327
▁pomo	-9.42355
▁uspi	-9.42363
▁bl	-9.42406
car	-9.42462
▁ured	-9.42474
kić	-9.4248
▁kažu	-9.42515
itet	-9.42535
▁kazal	-9.42729
▁uživa	-9.42823
ček	-9.42972
iva	-9.43041
▁rujna	-9.43045
ff	-9.43052
▁zadnj	-9.43185
▁Ipak	-9.43316
▁poslu	-9.43366
▁nekim	-9.4338
▁če	-9.43513
rić	-9.43523
sno	-9.43539
sen	-9.43738
▁poziv	-9.43739
iljem	-9.43782
▁van	-9.43865
▁sustava	-9.43885
▁novo	-9.439
▁Bilo	-9.43906
▁promjene	-9.43991
▁promet	-9.44005
enja	-9.44032
log	-9.44092
▁posjet	-9.44101
▁prenosi	-9.44129
▁njemačk	-9.44136
žan	-9.44142
▁izgradnj	-9.44271
▁Andrej	-9.44278
▁2.	-9.44323
sad	-9.44326
itelj	-9.44381
▁'.	-9.44461
▁w	-9.44494
▁Varaždin	-9.44592
▁rekli	-9.44633
▁potreb	-9.44666
▁policije	-9.44686
▁crn	-9.44742
vije	-9.44786
▁četvrtak	-9.4486
▁pitanja	-9.44931
▁ljudima	-9.45035
▁konferencij	-9.45082
der	-9.45091
bor	-9.45111
▁posljednje	-9.45174
▁jednostavno	-9.45472
rija	-9.45519
▁trebali	-9.4557
▁video	-9.45662
▁građana	-9.45774
▁Vo	-9.45872
▁X	-9.46336
▁požar	-9.46341
ret	-9.46455
▁Str	-9.46466
▁tjedan	-9.46476
▁vrijednosti	-9.46538
co	-9.46546
▁kulturn	-9.46604
ević	-9.4665
▁pret	-9.46702
▁planira	-9.46778
zu	-9.4682
▁dodatno	-9.46846
▁lj	-9.4698
opće	-9.4701
▁bolji	-9.47028
▁Sr	-9.471
▁važno	-9.47136
▁provodi	-9.47169
nski	-9.47185
▁Europe	-9.47235
▁upravlja	-9.47314
▁žene	-9.47678
▁životu	-9.47707
▁bil	-9.47819
▁odluka	-9.47925
▁90	-9.48018
▁Sp	-9.48039
veo	-9.48115
▁listopada	-9.48149
san	-9.48197
por	-9.48242
▁krenul	-9.48296
▁tiče	-9.4842
▁travnja	-9.48425
jev	-9.4843
▁napisao	-9.48478
▁vaše	-9.48577
▁Op	-9.486
▁Pot	-9.48625
mor	-9.48628
▁iznosi	-9.48634
▁rizik	-9.48718
▁FOTO	-9.48859
▁srpnja	-9.48878
▁27	-9.48936
▁stvar	-9.48943
▁razloga	-9.49018
▁Jur	-9.49105
▁meni	-9.49273
▁Foto	-9.4932
prije	-9.49368
▁ke	-9.49386
▁hit	-9.49407
ega	-9.49416
▁uoči	-9.49432
▁bijel	-9.4956
fer	-9.49578
▁previše	-9.49592
▁glazben	-9.49594
laže	-9.49619
▁izbori	-9.4966
▁autor	-9.49685
▁dodaje	-9.49722
▁suprug	-9.49774
▁lige	-9.4983
▁voli	-9.49873
nac	-9.49932
▁Kon	-9.50002
▁reprezentacije	-9.50152
▁Bra	-9.5016
▁35	-9.50163
▁smije	-9.50266
▁pra	-9.50297
▁prirodn	-9.503
nat	-9.50396
▁Još	-9.5046
▁cijeli	-9.50511
▁kolu	-9.50581
▁Ukrajini	-9.50584
▁najveć	-9.50633
▁mlade	-9.50717
▁Drug	-9.50724
▁Novi	-9.50781
nosti	-9.50906
▁sko	-9.50921
▁hitn	-9.5095
▁oči	-9.50995
▁podršku	-9.5102
▁zatvor	-9.51048
▁slab	-9.51073
rati	-9.5113
gdje	-9.51154
▁mladih	-9.51191
▁Man	-9.51196
▁Naš	-9.5129
▁Filip	-9.51293
elj	-9.51431
▁skog	-9.51528
▁Taj	-9.51573
▁hoće	-9.51605
▁Mor	-9.51624
igra	-9.51661
nuo	-9.5167
skoj	-9.51688
▁pr	-9.51811
▁znak	-9.51885
▁zemalja	-9.51898
▁Rijeke	-9.51899
vrš	-9.5191
▁rođen	-9.52063
▁sredin	-9.52208
▁dogovor	-9.52214
▁neka	-9.52253
▁njim	-9.52288
▁er	-9.52289
▁rasp	-9.52345
▁Oni	-9.52377
ell	-9.52495
▁ulogu	-9.52529
ps	-9.52614
▁stvarno	-9.5262
ruč	-9.52635
▁kolovoza	-9.52636
▁iskustvo	-9.52637
▁Europi	-9.52653
▁trud	-9.52699
▁Crn	-9.52707
▁najmanje	-9.52742
▁Mal	-9.52789
▁tijelo	-9.52791
ton	-9.52812
par	-9.5287
▁evo	-9.52965
▁udar	-9.53049
▁početka	-9.5316
▁show	-9.5323
▁vozi	-9.53426
▁utjecaj	-9.53444
▁prvenstva	-9.53543
▁Fa	-9.53668
▁duž	-9.53717
▁Hrvatskog	-9.53728
▁treće	-9.5373
▁RTL	-9.53827
▁odluku	-9.53847
und	-9.53944
▁post	-9.54014
▁Francusk	-9.54025
▁lijep	-9.54055
▁poraz	-9.54059
▁traže	-9.54086
olog	-9.54111
▁izraelsk	-9.54127
▁(3	-9.54144
▁Bor	-9.54166
▁najveći	-9.54243
▁odgovara	-9.54257
▁Tomislav	-9.54278
▁stav	-9.54343
▁pop	-9.54404
▁prijedlog	-9.54428
▁vraća	-9.54429
▁bira	-9.54491
lazak	-9.5455
▁kući	-9.54592
?	-9.54615
▁Sabor	-9.54617
▁Co	-9.54646
▁sigurnosti	-9.54649
▁odlu	-9.54713
han	-9.54774
▁organizira	-9.548
▁spava	-9.54809
ner	-9.54822
skoro	-9.5488
▁lijev	-9.54897
plat	-9.54968
▁Zakon	-9.54971
▁savjet	-9.55018
▁pisa	-9.55074
▁Jedan	-9.55093
vao	-9.55181
▁ostali	-9.55211
▁Olimpijsk	-9.55354
▁unutar	-9.55377
▁dostupn	-9.55489
▁račun	-9.55582
kan	-9.55649
▁mlađ	-9.5566
▁Tom	-9.55808
▁nogometaš	-9.55974
▁početk	-9.55981
▁opasn	-9.5605
▁Jer	-9.56055
!	-9.56071
▁svibnja	-9.561
pro	-9.56103
▁vrata	-9.56244
▁Evo	-9.56369
▁naveden	-9.56441
gan	-9.56487
▁godišnje	-9.56559
▁Riječ	-9.56573
▁projekta	-9.56596
▁Modrić	-9.56609
▁pada	-9.56696
min	-9.56914
▁dijel	-9.57005
▁nikakv	-9.57005
▁zelen	-9.57026
▁nih	-9.57114
▁nastaviti	-9.57164
nija	-9.57171
▁The	-9.57342
▁znaju	-9.57443
rij	-9.57498
▁završil	-9.57511
gen	-9.57526
▁pros	-9.5764
▁područja	-9.57644
▁osnovn	-9.57645
▁Or	-9.57687
▁najbolj	-9.57758
▁automobila	-9.57782
▁bare	-9.57821
vjer	-9.57849
čiti	-9.57928
▁predmet	-9.58054
▁posve	-9.5806
▁pokušaj	-9.58109
▁natjecanja	-9.58112
▁navodno	-9.58165
▁26	-9.58183
▁talijansk	-9.58269
▁Gra	-9.58279
▁događa	-9.58343
▁provjer	-9.58385
ral	-9.58385
▁veći	-9.58549
▁dnevn	-9.58565
▁viš	-9.58634
▁pozitivn	-9.5864
▁redu	-9.58669
▁ponov	-9.58674
nes	-9.58709
▁električn	-9.5874
▁2021.	-9.5874
▁80	-9.58778
mb	-9.58793
▁dosad	-9.5886
▁rije	-9.58861
▁jući	-9.58871
▁naša	-9.58881
▁obrane	-9.58909
▁Tijek	-9.58915
▁sudac	-9.58921
▁kra	-9.58953
▁četvrt	-9.59172
▁Bab	-9.59175
▁stiga	-9.59233
zan	-9.59451
▁TV	-9.59476
▁parlament	-9.59526
▁vratiti	-9.59684
▁vlasnik	-9.59848
▁loše	-9.59894
▁stanje	-9.59899
▁dvoran	-9.60007
▁snažn	-9.60012
▁stup	-9.60096
▁popularn	-9.60239
▁izbore	-9.60255
▁pitanju	-9.60371
koj	-9.6042
▁bur	-9.60559
▁Gu	-9.60588
▁mandat	-9.60641
▁Is	-9.60758
▁rok	-9.60767
vor	-9.60778
▁mali	-9.60812
▁70	-9.60949
▁Car	-9.60949
▁sigurnost	-9.61242
▁Va	-9.6128
▁zaklju	-9.6131
▁strah	-9.61625
▁vrtić	-9.61682
▁Pred	-9.61727
▁radio	-9.61821
čka	-9.61851
▁zabran	-9.6194
adi	-9.6197
▁iznad	-9.62126
▁3.	-9.62135
▁zdravlje	-9.62153
▁studenog	-9.62263
▁tijela	-9.6227
▁razlog	-9.62275
▁topl	-9.62441
▁brani	-9.62478
▁zapadn	-9.62531
▁poseb	-9.62536
▁postoje	-9.62573
▁čist	-9.62576
▁mom	-9.62592
▁programa	-9.62759
▁francusk	-9.62917
▁Treba	-9.6292
▁Nema	-9.62955
▁detalj	-9.6298
▁daleko	-9.63037
▁mogućnost	-9.63086
▁održan	-9.63094
▁bavi	-9.6317
▁javlja	-9.63337
▁građani	-9.63477
▁čiji	-9.63512
▁nekog	-9.6356
▁tradicionaln	-9.63576
▁ljetn	-9.63581
▁trening	-9.63582
▁New	-9.63608
▁Slovenij	-9.63736
▁HNL	-9.63741
▁moguć	-9.63744
▁aktivn	-9.63809
▁smrti	-9.63954
▁Vid	-9.63996
▁odluke	-9.64021
▁200	-9.64078
▁majka	-9.64078
▁boda	-9.64159
▁povezan	-9.64183
▁brat	-9.64198
▁HRT	-9.64248
▁pravn	-9.64272
đu	-9.64337
rk	-9.644
▁ujutro	-9.64405
▁hrane	-9.64418
Ne	-9.6444
▁nastavlja	-9.64455
jak	-9.64484
▁ji	-9.64532
▁finala	-9.64579
▁Podsjetimo	-9.64586
▁tre	-9.64633
▁mediji	-9.64654
▁lov	-9.64738
▁dolaze	-9.64741
▁izbornik	-9.64799
▁organizacij	-9.64828
▁plav	-9.64845
▁trag	-9.64911
▁sretn	-9.64913
▁Pl	-9.6494
▁domaćin	-9.64943
▁Luk	-9.64985
▁bivše	-9.64985
▁mjere	-9.65029
▁trenutak	-9.65037
▁infrastruktur	-9.65073
kovi	-9.65148
▁festival	-9.65159
▁večer	-9.65206
▁met	-9.65212
▁prosvjed	-9.65241
▁Biden	-9.65254
▁prvoj	-9.65259
▁održava	-9.65549
▁sljedeć	-9.65597
▁Lige	-9.65601
▁osobit	-9.65624
▁svakom	-9.65633
▁sadržaj	-9.65639
▁informacije	-9.65708
▁zanima	-9.65713
▁NATO	-9.65746
▁zračn	-9.65747
ročitajte	-9.65766
▁govor	-9.65847
▁sto	-9.65855
▁Bla	-9.65895
▁loš	-9.65949
▁Samo	-9.66028
▁tekst	-9.66079
▁spremni	-9.66085
▁došli	-9.6616
▁koriste	-9.6618
▁prosinca	-9.66254
▁poslije	-9.66254
▁Šibenik	-9.66297
▁bar	-9.66314
▁studij	-9.66339
▁snaga	-9.66438
▁potpisa	-9.66496
▁energije	-9.66733
▁blizin	-9.66764
▁događaja	-9.66869
▁ponos	-9.66899
▁Njemačkoj	-9.66904
▁centar	-9.66935
▁sezonu	-9.66937
▁+	-9.66965
▁Ca	-9.67053
▁prvenstvu	-9.67098
▁Fi	-9.67103
▁događaj	-9.67113
▁sklad	-9.67247
▁popis	-9.67312
▁skupine	-9.67315
▁Prvi	-9.67334
▁siječnja	-9.67336
▁dobiva	-9.67344
▁mušk	-9.67357
▁radova	-9.6745
▁stati	-9.67498
▁dodala	-9.6751
rod	-9.67564
▁nudi	-9.67589
▁Maj	-9.67597
▁šef	-9.67638
▁održat	-9.67646
▁jedini	-9.67658
▁potencijaln	-9.67709
▁osigura	-9.67729
▁Uprav	-9.67773
▁sjednic	-9.67798
▁socijaln	-9.67965
▁igrao	-9.67969
▁Općin	-9.6803
▁Ol	-9.6804
▁Putin	-9.68227
▁vrijedn	-9.68241
▁svemu	-9.68305
▁aktualn	-9.6831
▁savršen	-9.68311
▁sku	-9.68331
kon	-9.68368
lar	-9.68383
dar	-9.68408
▁sluša	-9.68438
▁razmišlja	-9.68477
vno	-9.68529
▁vezi	-9.6855
▁Stan	-9.68583
▁veze	-9.68615
for	-9.68658
▁Vlada	-9.6866
▁Više	-9.68665
▁glasova	-9.68677
▁gola	-9.68713
▁tisuć	-9.68749
▁pobjeda	-9.68867
▁sigurnosn	-9.68872
▁mr	-9.68909
▁odgovornost	-9.68955
▁domaće	-9.68985
▁45	-9.68998
▁standard	-9.69006
▁povijesn	-9.69006
▁restoran	-9.6918
▁ljeta	-9.69186
▁Policij	-9.69212
▁bod	-9.6926
▁prolaz	-9.69275
vez	-9.69375
▁RH	-9.69401
▁(4	-9.69467
▁pokazuje	-9.69468
▁poziva	-9.69495
▁proizvoda	-9.696
▁plin	-9.69611
▁uspješn	-9.69825
▁Sada	-9.69837
čević	-9.69879
▁uhićen	-9.69882
▁umjetn	-9.6995
▁Pet	-9.69995
▁trebal	-9.70003
▁prilika	-9.70006
▁Go	-9.70051
▁ponudi	-9.70061
▁veliko	-9.70072
▁Tim	-9.70084
jeti	-9.70103
▁počinje	-9.70132
▁Star	-9.70138
▁društvo	-9.70234
den	-9.70431
▁našeg	-9.70505
▁Fran	-9.70529
▁ović	-9.70535
▁šk	-9.70561
▁drugu	-9.70588
aron	-9.70712
▁Predsjednik	-9.70764
ito	-9.70784
▁sumnj	-9.70833
ant	-9.70965
▁potez	-9.7098
kakav	-9.70983
▁rješenje	-9.71043
▁noći	-9.71119
▁pala	-9.71123
▁Mate	-9.71148
▁računa	-9.71173
▁ruke	-9.71179
▁pas	-9.71259
▁okvir	-9.71299
vanju	-9.71317
pri	-9.71375
▁stručn	-9.71429
▁situaciju	-9.71477
▁protekl	-9.71477
▁pokret	-9.71492
▁jezik	-9.71532
▁naši	-9.71681
▁treć	-9.71752
▁tvrtka	-9.71813
▁osnov	-9.71948
▁proda	-9.71972
▁svakog	-9.72006
▁Austrij	-9.72015
▁Nik	-9.72115
▁Y	-9.7222
▁nabav	-9.7225
slav	-9.72254
▁uprave	-9.72285
▁Bog	-9.72357
▁Raz	-9.72387
▁trgovin	-9.7241
▁Kup	-9.72419
rat	-9.72504
▁naravno	-9.72556
vin	-9.72569
▁vje	-9.7262
irati	-9.72671
▁Prvo	-9.72718
▁Dubrovnik	-9.72732
šli	-9.72796
pt	-9.72847
▁globaln	-9.72917
▁2025.	-9.72917
▁Ki	-9.72952
čno	-9.72969
▁primi	-9.73013
▁iste	-9.7316
▁lice	-9.73194
▁sukob	-9.73211
▁supruga	-9.73289
▁ostaje	-9.73307
▁kuha	-9.7334
▁vide	-9.734
roz	-9.73521
▁medicinsk	-9.73526
▁poru	-9.73605
▁vesel	-9.73686
▁pokuša	-9.7371
▁nama	-9.73711
▁predstav	-9.73754
▁Kor	-9.7381
▁motor	-9.73871
▁škola	-9.74122
▁Ban	-9.744
▁inače	-9.74401
▁razliku	-9.74404
▁zatvoren	-9.74461
▁Srbije	-9.74462
veden	-9.74501
▁postat	-9.74542
žava	-9.74566
▁jedinstven	-9.74588
▁fizičk	-9.746
land	-9.74692
▁dokument	-9.74725
▁društva	-9.74747
▁jučer	-9.74748
▁pove	-9.74862
▁7.	-9.74893
▁lik	-9.74905
▁Hu	-9.74924
▁novom	-9.74949
▁zrakoplov	-9.75056
etiri	-9.75258
▁izda	-9.7527
▁izgled	-9.75278
▁objekt	-9.75292
▁Madrid	-9.75303
▁zaključio	-9.75303
▁Mu	-9.75337
▁mijenja	-9.75352
▁minute	-9.7549
▁prepozna	-9.75539
ložen	-9.75587
▁smjeru	-9.75665
▁Fr	-9.75669
▁napisala	-9.75675
tić	-9.75692
▁priče	-9.75767
▁Dakle	-9.75864
▁održiv	-9.75866
▁Zato	-9.75892
rs	-9.76052
▁voditelj	-9.76055
▁Ben	-9.76099
▁traje	-9.76195
▁budući	-9.76197
▁bivš	-9.76213
las	-9.7623
▁ozbiljn	-9.76265
hvat	-9.76325
▁otkriva	-9.76338
▁navija	-9.76355
▁centra	-9.76373
▁donijel	-9.76484
▁postaje	-9.76516
▁novca	-9.76567
njem	-9.76575
▁stotin	-9.76594
▁sutra	-9.76601
▁ar	-9.7666
▁čij	-9.76722
▁otac	-9.76734
▁putu	-9.76735
▁prostora	-9.7679
▁fotografije	-9.7679
▁seksualn	-9.768
▁koristiti	-9.76818
▁prihod	-9.76866
▁Moj	-9.7688
▁nim	-9.76927
▁milijun	-9.76974
▁dionic	-9.77017
▁prijevoz	-9.77049
▁Gor	-9.77077
▁nalaz	-9.7711
▁Bit	-9.77115
▁rekord	-9.77155
▁Vukovar	-9.77178
ler	-9.77496
▁kandidata	-9.77579
▁pjesme	-9.77599
▁vrhu	-9.77672
Zc	-9.77683
sel	-9.77697
▁porast	-9.77769
▁odr	-9.77904
▁per	-9.77907
▁javnost	-9.77913
▁spoj	-9.77926
▁#	-9.77952
▁trend	-9.77987
▁5.	-9.77997
rez	-9.78014
▁Gradsk	-9.7803
▁stil	-9.78138
▁sjevern	-9.78194
▁ratn	-9.78207
▁idu	-9.78431
▁Neki	-9.78443
nović	-9.78476
▁Dom	-9.78549
▁pobjednik	-9.78703
▁količin	-9.78709
▁pokušava	-9.78717
▁reagira	-9.7872
▁dijela	-9.7875
▁prometa	-9.78799
▁tema	-9.78839
▁riječi	-9.7891
▁sudjelova	-9.78965
▁33	-9.79191
vit	-9.79202
▁mal	-9.79213
▁čuva	-9.79278
nić	-9.79302
▁temperatura	-9.79307
▁stanju	-9.79328
▁ostat	-9.7934
▁kilometara	-9.79387
▁sličn	-9.79417
▁početku	-9.79432
▁predsjedničk	-9.79571
▁album	-9.79668
▁brz	-9.79735
▁teret	-9.79823
pun	-9.79835
▁materijal	-9.7986
▁odvjetnik	-9.79862
▁prosječn	-9.79862
▁28	-9.79893
▁klubu	-9.79952
▁ozljede	-9.79971
▁kupa	-9.80105
▁rub	-9.80128
▁Os	-9.80151
▁karijere	-9.80153
▁spomenut	-9.80177
▁2020.	-9.80251
▁napravio	-9.80445
▁pokazuju	-9.80446
kin	-9.80489
▁ponaša	-9.80563
▁produ	-9.80567
▁Ivic	-9.80639
▁Par	-9.80726
▁članovi	-9.80787
▁pogotov	-9.80838
▁Tra	-9.80879
▁bak	-9.80892
▁Varaždinsk	-9.81013
▁Naravno	-9.81035
▁kulture	-9.81035
hod	-9.81098
▁objašnjava	-9.81231
▁cijsk	-9.81245
▁mnoge	-9.81256
▁iznimno	-9.81301
ker	-9.81313
▁obzira	-9.81345
▁drža	-9.81373
▁Jan	-9.81404
▁potres	-9.81446
ovac	-9.81451
▁dođe	-9.81476
▁drugoj	-9.81502
▁Bel	-9.81523
▁osje	-9.81617
▁stvara	-9.81633
▁medija	-9.81687
▁20.	-9.81697
▁nevjerojatn	-9.81824
▁ožujka	-9.81824
▁došla	-9.81862
▁Nikola	-9.81952
ris	-9.8196
W	-9.81973
▁Robert	-9.82023
▁for	-9.82056
▁trg	-9.82081
▁Ante	-9.82174
▁ljubavi	-9.82248
▁vije	-9.82339
jski	-9.82351
▁lopt	-9.82437
▁mjera	-9.82483
▁izgubio	-9.82535
ivati	-9.82586
▁filma	-9.82617
▁olimpijsk	-9.8262
▁dvoboj	-9.82622
▁ljeto	-9.82623
▁sezoni	-9.82624
▁dogodil	-9.82653
▁treći	-9.82696
▁či	-9.82725
▁kuća	-9.82737
▁DP	-9.82744
▁napadač	-9.82765
gar	-9.828
▁igrači	-9.8281
▁Portugal	-9.8282
▁uređaj	-9.8282
▁Ana	-9.82841
▁tip	-9.8285
▁predstavnik	-9.82868
▁unato	-9.82889
▁njihova	-9.82939
▁pregled	-9.82947
▁ovako	-9.82969
▁plaće	-9.83013
▁politike	-9.83077
son	-9.83149
▁sjedi	-9.83176
▁of	-9.83185
▁ravnatelj	-9.83321
▁promjena	-9.83355
▁razgovara	-9.83407
▁stručnjak	-9.8341
▁digitaln	-9.83423
▁park	-9.83428
▁potrebe	-9.83454
▁skom	-9.83498
▁4.	-9.83569
▁školsk	-9.83625
▁°	-9.83641
▁nadzor	-9.8368
▁kapetan	-9.83827
▁branitelj	-9.83851
▁ustanov	-9.83916
▁otišl	-9.83918
▁Već	-9.83953
▁brojni	-9.84022
▁more	-9.84025
▁dijeli	-9.84029
▁Er	-9.84033
▁profesionaln	-9.84054
▁skupina	-9.84096
▁Sad	-9.8413
▁fakultet	-9.84232
▁finale	-9.84235
▁umjeren	-9.84239
▁pjesmu	-9.84394
▁seks	-9.84402
▁portal	-9.84437
▁Tri	-9.84516
▁hrvatskom	-9.84525
▁vina	-9.84621
tvor	-9.84623
▁sredstva	-9.84639
▁mandata	-9.84646
nova	-9.84678
▁11.	-9.8475
▁stru	-9.84755
▁vrhunsk	-9.8481
▁krajem	-9.84829
▁susreta	-9.84898
▁stalno	-9.84961
▁Kan	-9.84988
▁Policijsk	-9.85041
▁natječaj	-9.85047
▁prvak	-9.85058
▁pobijedil	-9.85099
▁Zadar	-9.85112
novi	-9.85187
▁ispit	-9.85248
kar	-9.8526
▁vruć	-9.85274
▁radionic	-9.85285
▁15.	-9.85398
▁intervju	-9.85457
▁točno	-9.85507
▁Parizu	-9.8554
▁sportaš	-9.85558
▁Sto	-9.85595
▁Imam	-9.85599
▁izvedb	-9.85663
▁razred	-9.85747
▁kar	-9.8576
▁ukupn	-9.85773
▁slijedi	-9.85871
▁mogućnosti	-9.85896
▁uvjet	-9.8592
▁kla	-9.8597
▁šte	-9.8598
▁čko	-9.85995
▁zadnje	-9.86009
evi	-9.86053
▁Ot	-9.86079
▁najboljih	-9.86146
▁životn	-9.8616
▁istraživanje	-9.86182
▁dvojic	-9.86199
▁priču	-9.86304
▁svakak	-9.86333
kri	-9.86383
▁vrt	-9.86421
▁San	-9.86497
▁prvenstvo	-9.86514
pet	-9.86616
▁ostalim	-9.86638
▁!"	-9.86674
▁objasnio	-9.86698
▁Državn	-9.86698
▁volj	-9.86708
▁brak	-9.86726
▁hval	-9.86806
nekad	-9.86821
stava	-9.86844
▁hotel	-9.86876
▁epizod	-9.86907
▁Ministarstvo	-9.86931
▁voda	-9.86959
▁povećan	-9.8701
▁Marija	-9.87039
kog	-9.87051
▁budućnosti	-9.87079
▁znamo	-9.87104
▁ulaz	-9.87121
▁sezona	-9.87122
▁Jedna	-9.87166
▁obje	-9.87214
▁stranka	-9.87282
njen	-9.87425
▁potrebn	-9.87448
▁unutarnj	-9.87482
▁sudjeloval	-9.87487
▁dobra	-9.87497
▁društvu	-9.87534
▁stran	-9.87543
▁važnost	-9.87653
▁dokaz	-9.87708
▁al	-9.87722
▁nesreće	-9.87745
▁istra	-9.87763
▁vrh	-9.87779
▁neko	-9.87835
▁udarac	-9.87856
▁moje	-9.87868
▁ministr	-9.8787
▁Zna	-9.87889
▁trebaju	-9.87889
▁reprezentacija	-9.87955
▁kombinacij	-9.87955
▁dječj	-9.87958
▁prob	-9.87997
▁Ć	-9.88061
▁očito	-9.88107
▁roditelji	-9.88113
▁Ono	-9.88123
▁doprinos	-9.88166
▁prekid	-9.88171
▁zajednice	-9.88183
▁Ameri	-9.88248
▁500	-9.88322
▁17.	-9.88458
▁meč	-9.88468
▁onog	-9.88525
▁učiniti	-9.88592
▁ostavi	-9.88621
▁suradnji	-9.88802
▁finalu	-9.88803
▁početak	-9.88838
▁povod	-9.88857
▁hladn	-9.88859
▁8.	-9.88893
▁tjedn	-9.88903
▁najveće	-9.88906
▁(5	-9.88926
▁Rusija	-9.89039
▁Ove	-9.89058
▁Ministarstva	-9.8909
▁32	-9.89124
▁super	-9.8918
▁poruka	-9.89208
▁Goran	-9.89224
▁Kat	-9.89273
▁Karl	-9.89281
▁dvoje	-9.89292
▁ekipa	-9.89338
▁imena	-9.89416
▁središnj	-9.89441
▁zahvaljuju	-9.89457
▁Sam	-9.89565
▁dolask	-9.89586
▁situacije	-9.89655
1)	-9.89835
▁ceste	-9.89878
▁rezultate	-9.89939
▁trenera	-9.90039
▁vremenu	-9.90085
▁njoj	-9.9009
▁Iran	-9.90151
▁poznati	-9.90153
▁Sud	-9.90206
▁12.	-9.90311
▁vidljiv	-9.90315
▁poraza	-9.90324
▁narod	-9.90368
▁6.	-9.90389
▁autobus	-9.90517
▁Božić	-9.90566
▁incident	-9.90572
▁povećanje	-9.90595
▁36	-9.90623
▁eks	-9.90703
▁loptu	-9.90795
▁para	-9.90804
▁10.	-9.90842
▁Nis	-9.90877
▁ruku	-9.90938
pisao	-9.90981
▁jedin	-9.9105
▁Gori	-9.91064
▁vodeć	-9.9111
▁oblik	-9.91121
▁vidjeli	-9.91159
▁pogodak	-9.91168
▁lakše	-9.9117
▁poljoprivred	-9.91209
▁srednj	-9.91211
▁bolnici	-9.91212
▁sina	-9.91269
▁strana	-9.91284
▁tvrde	-9.91391
▁otišao	-9.91395
▁radu	-9.91398
▁udari	-9.91442
▁ulici	-9.9155
▁vrijednost	-9.91582
▁tržištu	-9.91603
▁kvalitetn	-9.91617
▁otkaz	-9.91625
▁zaštiti	-9.91626
▁obrani	-9.9163
▁Pen	-9.91631
▁Vu	-9.9169
▁zaštite	-9.91692
▁zvijezda	-9.91723
▁Pogledajte	-9.91822
▁Među	-9.91825
▁informacija	-9.91944
▁rib	-9.92025
▁energetsk	-9.92041
▁Udrug	-9.92042
▁iskustva	-9.92051
▁tehničk	-9.92132
▁znati	-9.92153
čne	-9.92155
voz	-9.9221
▁ubijen	-9.92268
▁ples	-9.9228
▁potvrdil	-9.92408
▁Lovr	-9.92451
▁komad	-9.92455
▁manji	-9.9251
▁prošlog	-9.92535
▁Jadranu	-9.92552
cira	-9.92558
:00	-9.92565
▁stadion	-9.92595
20	-9.92656
▁usluga	-9.92702
▁rođendan	-9.9272
▁postupak	-9.92733
▁Ona	-9.92735
ly	-9.92755
▁ći	-9.92797
▁gor	-9.92814
▁povijest	-9.92841
▁Glavn	-9.92859
ivanje	-9.92915
▁posljednji	-9.9293
▁potvrdio	-9.92963
▁ić	-9.92986
▁Mario	-9.92991
▁sljedeće	-9.92993
▁kratk	-9.93049
▁potpor	-9.93062
▁govore	-9.93086
▁zraka	-9.93134
▁probleme	-9.93216
▁Kom	-9.93235
▁an	-9.93243
▁slavi	-9.93274
▁noć	-9.93319
▁tjelesn	-9.93367
šla	-9.9348
ser	-9.93491
▁drži	-9.93504
RA	-9.93565
▁29	-9.93591
▁kvar	-9.93686
▁moru	-9.93729
▁karijeri	-9.93758
vesti	-9.93765
▁liječnik	-9.93814
▁čine	-9.93929
▁Euro	-9.93946
▁ići	-9.93946
gro	-9.9395
izam	-9.94038
▁kre	-9.94098
▁Damir	-9.94108
▁gledati	-9.94116
▁Sch	-9.94177
▁osjeća	-9.94208
▁održavanj	-9.94217
▁lijepo	-9.9422
▁proizvođač	-9.94263
▁Mnogi	-9.94285
▁priopćenju	-9.94296
▁ostvari	-9.94313
mar	-9.94327
▁Instagramu	-9.94416
▁potvrd	-9.94448
▁želim	-9.94474
▁razdoblju	-9.94486
▁napor	-9.94556
▁uspješno	-9.94558
nar	-9.94599
▁zemlja	-9.94667
▁pru	-9.94684
▁prista	-9.94709
▁naziv	-9.94735
▁odličn	-9.94781
▁Gol	-9.94828
▁vijest	-9.94832
▁volim	-9.94887
nka	-9.9491
▁predstavi	-9.94924
▁upit	-9.94935
▁broja	-9.94949
cent	-9.94951
▁nadam	-9.95026
▁nestal	-9.95059
▁City	-9.95165
▁sastoj	-9.95167
▁nekom	-9.95261
▁kvalitet	-9.95266
▁navode	-9.95386
▁izmjen	-9.95401
▁veza	-9.95563
2)	-9.95824
▁brig	-9.95835
▁modern	-9.95839
▁Andr	-9.95903
jel	-9.95929
▁školu	-9.96075
▁brend	-9.96076
▁poručil	-9.96086
▁komunikacij	-9.96095
▁radnika	-9.96156
▁poznato	-9.9616
▁Zagrebačk	-9.9618
▁stog	-9.96244
▁Splita	-9.96268
▁pregovor	-9.96302
▁kontakt	-9.96313
▁34	-9.96314
▁Super	-9.96336
nov	-9.96348
▁fotografija	-9.96366
▁dje	-9.96428
čev	-9.96468
ljan	-9.96469
▁status	-9.96532
▁Sin	-9.9654
▁komentirao	-9.96552
▁kolo	-9.96598
▁Val	-9.96614
▁vidio	-9.96671
uši	-9.96677
▁mjesečn	-9.96793
▁manj	-9.96833
▁činjenic	-9.96927
▁pohvali	-9.96992
▁borbi	-9.97075
0.000	-9.97109
▁rješenja	-9.97189
▁Kolik	-9.97207
▁britansk	-9.97223
▁platform	-9.97227
▁Prav	-9.97351
▁Svak	-9.97376
pustiti	-9.97377
▁Poljsk	-9.97503
▁Bijel	-9.97505
▁bitno	-9.97556
▁prit	-9.97634
▁noj	-9.97666
▁Hrvati	-9.97675
▁Kar	-9.97705
▁odgovorio	-9.97816
▁zgrade	-9.97828
ny	-9.9785
▁serije	-9.97907
▁Inače	-9.97923
▁spor	-9.97986
▁kratko	-9.98037
▁privremen	-9.98106
rist	-9.98112
▁centru	-9.98152
▁poplav	-9.98173
▁snima	-9.98232
▁pronađen	-9.98258
gle	-9.98293
▁igraju	-9.98295
▁sre	-9.98474
▁golova	-9.98575
▁sektor	-9.98616
▁španjolsk	-9.9862
▁Mari	-9.98622
▁y	-9.98648
▁proizvodi	-9.98704
▁vjerujem	-9.98747
▁postaj	-9.98751
▁21.	-9.98822
▁ocjen	-9.98839
▁fond	-9.98874
▁budućnost	-9.98895
▁pojav	-9.989
▁borbe	-9.98934
dra	-9.98947
▁puca	-9.98955
▁središt	-9.99093
▁komentar	-9.99116
▁pojavi	-9.99178
▁opis	-9.99229
▁odnosi	-9.99267
▁Nova	-9.99271
▁rasta	-9.99281
▁gospodarsk	-9.99313
spo	-9.99317
▁nagradu	-9.99374
▁moja	-9.99438
▁šum	-9.99672
▁2019.	-9.99799
▁Lokomotiv	-9.99799
▁regionaln	-9.99799
▁prehran	-9.998
▁Milan	-9.99815
▁istaknul	-9.99873
▁kilograma	-9.99882
▁Bosn	-9.99923
▁Hr	-9.99998
▁smještaj	-10.0004
▁izvijestil	-10.0008
▁poruku	-10.0011
▁srca	-10.0012
▁nekad	-10.0016
▁mar	-10.0021
▁stres	-10.004
▁počela	-10.0044
▁Sveučilišt	-10.0051
▁podržava	-10.0052
▁izravn	-10.0053
govara	-10.007
▁navijača	-10.0079
▁zaštitu	-10.0081
▁simbol	-10.0089
▁žensk	-10.0091
▁karijeru	-10.0099
▁York	-10.0099
▁9.	-10.0103
ograf	-10.0106
alno	-10.0107
▁km	-10.0123
▁Turudić	-10.0123
▁pogledajte	-10.0123
▁njom	-10.0125
▁srce	-10.0125
▁55	-10.0131
▁Možemo	-10.0135
▁ch	-10.0141
▁kategoriji	-10.0147
▁novčan	-10.0156
▁Mađarsk	-10.0156
▁navečer	-10.0172
▁dovesti	-10.0177
lni	-10.0177
vac	-10.0177
▁razvoja	-10.0178
▁obr	-10.0182
▁log	-10.0187
▁otvaranj	-10.0189
▁teritorij	-10.0196
▁zaslu	-10.0197
vat	-10.0203
▁htio	-10.0212
▁lani	-10.0214
▁izlaz	-10.0216
▁vremensk	-10.022
▁smatraju	-10.0221
▁doba	-10.0221
▁turnira	-10.0222
▁stanova	-10.024
▁18.	-10.0241
▁pruža	-10.0243
▁otvara	-10.0251
▁listi	-10.0267
▁mobitel	-10.0269
▁stoljeća	-10.0269
▁nesreća	-10.027
▁uzrok	-10.0274
▁uzima	-10.0278
▁boje	-10.0278
▁osvojil	-10.0278
▁zatvora	-10.0289
▁naziva	-10.0289
▁sv	-10.029
▁grupe	-10.0293
▁postavi	-10.0297
▁uvjetima	-10.03
▁dizajn	-10.0302
▁Mon	-10.0314
vic	-10.0314
▁Rijeci	-10.0318
▁školi	-10.0319
▁blag	-10.0326
▁Petra	-10.0339
▁kapacitet	-10.0342
▁zlatn	-10.0342
▁Hercegovin	-10.0342
▁redatelj	-10.0342
▁Vladimir	-10.0343
▁razvija	-10.0344
▁prednost	-10.0345
▁medije	-10.0347
žić	-10.035
▁saborsk	-10.0352
▁vodstvo	-10.0355
▁Ber	-10.0356
▁žen	-10.0357
sc	-10.0358
▁Mož	-10.0358
▁Bez	-10.0363
▁medijsk	-10.0367
▁jutro	-10.0367
▁anti	-10.037
TA	-10.037
▁duh	-10.0373
▁protu	-10.0374
ty	-10.0374
▁lan	-10.0375
▁boja	-10.0377
▁iduć	-10.0378
▁Ed	-10.0387
esto	-10.039
▁konkurencij	-10.0392
▁atmosfer	-10.0399
▁donijeti	-10.0404
▁trenutk	-10.0425
▁programu	-10.043
▁sna	-10.0433
▁plasman	-10.0441
▁boji	-10.0441
▁Tur	-10.0443
ljev	-10.0447
▁vrsta	-10.0447
tre	-10.045
▁Svet	-10.0451
▁susjed	-10.0467
▁koš	-10.0473
▁slika	-10.0479
ill	-10.0487
▁300	-10.0488
▁ekonomsk	-10.0491
▁englesk	-10.0491
▁parlamentarn	-10.0492
▁omiljen	-10.0492
▁igru	-10.0495
▁Ulic	-10.0495
▁Em	-10.0498
▁značaj	-10.05
▁jedino	-10.0502
▁krug	-10.0509
lija	-10.0513
▁sredstava	-10.0516
▁vježb	-10.0516
▁Bila	-10.0526
▁investicij	-10.0539
▁Sjevern	-10.0547
▁članova	-10.0549
▁Ant	-10.0554
▁podataka	-10.056
▁zločin	-10.0565
▁kreće	-10.0566
▁doni	-10.0572
▁stvaranj	-10.0586
▁službe	-10.0586
▁For	-10.059
▁Post	-10.0593
▁duš	-10.0598
▁svaka	-10.06
▁blizu	-10.0617
▁šta	-10.062
▁tehnologij	-10.062
▁nogomet	-10.0621
▁Pol	-10.0623
▁desetak	-10.0623
▁com	-10.0624
pin	-10.0625
▁Rus	-10.063
▁ulaznic	-10.0637
▁Ukrajine	-10.0642
▁izjedna	-10.0642
▁Prošl	-10.0644
).	-10.0645
▁južn	-10.0648
▁odjel	-10.0649
ređen	-10.0651
▁Njihov	-10.0661
što	-10.0663
▁zakona	-10.0668
▁suprotn	-10.0668
▁žrtv	-10.0672
ziran	-10.0674
▁avion	-10.0674
▁internet	-10.068
▁muškarac	-10.0696
▁lagan	-10.0698
▁trenutačn	-10.0699
▁poklon	-10.0705
▁djeci	-10.0706
▁nastal	-10.0716
▁vrijedi	-10.0718
▁djeluj	-10.0719
▁bolnice	-10.0721
dnoj	-10.0727
▁38	-10.0729
▁udruge	-10.0744
▁poziciju	-10.0744
▁muzej	-10.0745
▁pism	-10.0745
▁cije	-10.0748
▁pravil	-10.0751
▁slavn	-10.0751
▁Kod	-10.0752
▁cijeni	-10.0756
▁koga	-10.076
len	-10.076
jedi	-10.076
port	-10.0761
▁podacima	-10.0764
▁slobodn	-10.0767
▁košta	-10.0768
▁Čak	-10.077
▁javi	-10.0791
▁autocest	-10.0795
▁župan	-10.0802
▁cr	-10.0807
bar	-10.0809
ley	-10.0819
▁Ustavn	-10.0822
▁nagrade	-10.0829
▁nastavku	-10.083
▁promijeniti	-10.0831
svim	-10.0835
▁modn	-10.0844
▁inicijativ	-10.0847
▁kap	-10.0849
ativ	-10.085
▁podijelil	-10.085
▁Igor	-10.0852
▁kuću	-10.0853
▁spreman	-10.0855
▁podru	-10.0856
▁raste	-10.0858
▁profesor	-10.0861
▁istom	-10.0861
ban	-10.0865
▁kralj	-10.0866
▁dobre	-10.0872
▁Donald	-10.0873
▁podsjeti	-10.0873
▁Most	-10.0877
▁en	-10.089
▁osobno	-10.0891
▁19.	-10.0896
▁Ukrajina	-10.0899
▁znatno	-10.0899
▁pobijedio	-10.0903
▁kanal	-10.0903
rac	-10.0909
▁dram	-10.0911
▁zahvali	-10.0916
▁izme	-10.0918
▁ozbiljno	-10.0922
▁postiga	-10.0925
▁čki	-10.0925
▁umjetničk	-10.0926
▁konačno	-10.0928
▁skrb	-10.0931
▁blisk	-10.0932
▁13.	-10.0935
▁Slaven	-10.0937
▁istraživanja	-10.0937
▁procjen	-10.0939
▁Dub	-10.094
čak	-10.0941
▁Jadran	-10.0944
▁Unato	-10.0952
▁članica	-10.0953
▁obeća	-10.0959
▁politički	-10.096
stanak	-10.0965
▁upal	-10.0967
▁zid	-10.0967
▁medijima	-10.0967
▁odbora	-10.0972
▁kuhinj	-10.0977
▁pozornost	-10.0977
▁pozvao	-10.0977
▁postavljen	-10.0979
▁kamen	-10.0983
▁ostvaril	-10.0985
▁Nove	-10.0987
▁bori	-10.0989
▁man	-10.099
▁mnogim	-10.0995
▁znanstven	-10.0998
▁14.	-10.1003
▁vanje	-10.1008
▁most	-10.1011
godišnja	-10.1016
▁vlade	-10.103
▁Bre	-10.1032
▁kinesk	-10.1034
▁šire	-10.1039
▁uvjeren	-10.104
godišnje	-10.1041
▁sabor	-10.1043
veli	-10.1044
▁kop	-10.1049
▁the	-10.1054
▁okru	-10.1055
▁konkretn	-10.1056
▁stupnjeva	-10.1056
▁ustavn	-10.1063
▁negativn	-10.1068
živ	-10.1069
ekuje	-10.1076
▁Ukrajinu	-10.1082
▁posljedica	-10.1082
▁smislu	-10.1082
▁naglašava	-10.1082
▁mreže	-10.1086
▁okup	-10.1092
▁znanja	-10.1093
▁Dalić	-10.1098
▁sjever	-10.1103
▁mre	-10.1108
▁gubi	-10.1109
▁riječima	-10.1111
▁uključi	-10.1116
▁polu	-10.1116
▁redovito	-10.113
demo	-10.113
▁sporazum	-10.1136
▁Kra	-10.1137
▁Bjel	-10.1144
zz	-10.1151
▁obilje	-10.1154
kinja	-10.1156
▁ljubavn	-10.1158
zni	-10.116
▁ozljeda	-10.1162
▁John	-10.1163
▁Bal	-10.1167
▁domaći	-10.1167
▁sastank	-10.1168
Š	-10.1175
▁pored	-10.1177
▁dokaza	-10.1179
▁širi	-10.1179
brzo	-10.1185
▁pravila	-10.1186
▁izrad	-10.1188
▁Hamas	-10.1189
▁Dragan	-10.119
▁ideja	-10.1193
▁skupini	-10.1193
▁želje	-10.1196
▁dogoditi	-10.1197
▁nastavi	-10.1199
▁snimi	-10.1201
▁Trg	-10.1204
▁jasn	-10.121
▁lije	-10.1213
▁situaciji	-10.1216
▁bend	-10.1217
▁Davor	-10.1221
▁30.	-10.1221
▁37	-10.1228
▁premijera	-10.1231
▁sir	-10.1237
▁upozna	-10.1241
▁funkcionira	-10.1242
▁Ljudi	-10.1243
▁Najbolj	-10.1243
▁Tada	-10.1244
▁Ok	-10.1247
▁roman	-10.125
▁He	-10.1255
▁realn	-10.1256
▁ulazi	-10.1262
▁TikTok	-10.127
▁izazval	-10.127
▁maksimaln	-10.1273
▁odvija	-10.1274
▁Vol	-10.1276
▁nagrada	-10.1285
▁rastu	-10.1289
▁moral	-10.1312
▁vlak	-10.1317
▁prostoru	-10.1322
▁2018.	-10.1324
▁nuklearn	-10.1324
▁onim	-10.1325
▁najvećih	-10.1328
▁izuzetn	-10.1329
▁stavi	-10.1332
▁39	-10.1333
boj	-10.1333
▁obično	-10.1334
▁započe	-10.1338
▁med	-10.134
▁vozilo	-10.1351
▁riješiti	-10.1352
▁filmu	-10.1354
▁svjež	-10.1375
▁prednosti	-10.1376
▁inflacij	-10.1378
▁usluge	-10.1378
▁Crven	-10.1379
▁udara	-10.1388
▁proveden	-10.1392
▁ratu	-10.1403
▁lista	-10.1406
▁planu	-10.1407
▁Vučić	-10.1408
▁Met	-10.1409
▁pozdrav	-10.1415
▁odgoj	-10.1417
▁hr	-10.1423
NK	-10.1427
▁područje	-10.1433
vrst	-10.1443
▁Zadra	-10.1445
▁48	-10.1446
▁kriminal	-10.1446
▁stavlja	-10.1448
▁vratar	-10.1456
▁organizacije	-10.1457
▁period	-10.146
▁regiji	-10.146
▁Srbiji	-10.1461
▁građane	-10.1461
▁glavu	-10.1461
▁poznata	-10.1465
▁Dra	-10.1469
▁ovisi	-10.1472
dija	-10.1481
▁Postoj	-10.1481
▁turnir	-10.1486
▁pogodio	-10.1488
.30	-10.1491
▁napravi	-10.1491
▁odnose	-10.1493
▁čovjeka	-10.1497
jesti	-10.1498
▁potencijal	-10.1501
▁dolazak	-10.1504
▁izdanj	-10.1507
▁Zašt	-10.1508
▁gosti	-10.1509
▁promjen	-10.1509
▁Pr	-10.151
▁temperature	-10.1515
▁djevojčic	-10.1516
▁grob	-10.1522
▁visoko	-10.153
▁Kate	-10.153
▁dijelov	-10.153
▁najve	-10.1535
▁že	-10.1541
▁destinacij	-10.1543
▁dosadašnj	-10.1543
▁političar	-10.1545
▁skoro	-10.1547
▁prima	-10.1549
▁Brank	-10.156
▁prijatelja	-10.156
▁kupnj	-10.1563
▁dogodio	-10.1568
▁odgovorn	-10.1571
▁udruga	-10.1571
▁šanse	-10.1571
▁ističu	-10.1572
▁vikend	-10.1572
▁dis	-10.1575
▁serija	-10.1575
▁oprez	-10.1576
▁Tursk	-10.1576
▁granice	-10.1577
▁gradnj	-10.158
▁tor	-10.1584
▁ravn	-10.1585
▁najviš	-10.1587
▁Ljub	-10.159
pada	-10.1592
▁namjer	-10.1593
pustio	-10.1595
▁vratil	-10.1596
▁roku	-10.1597
▁propis	-10.1597
▁uključuje	-10.1599
▁stamben	-10.1599
▁savez	-10.1601
▁okus	-10.1601
▁Mark	-10.1617
▁2024	-10.1625
▁Brazil	-10.1627
▁vijeća	-10.1629
▁igrama	-10.1631
▁dakle	-10.1632
▁znanosti	-10.1633
▁primjerice	-10.1639
▁vjetar	-10.1657
▁spomen	-10.1661
▁Indi	-10.1661
▁Isto	-10.1665
▁papir	-10.1674
▁pokreta	-10.1677
é	-10.1683
▁2016.	-10.1683
▁tragedij	-10.1683
▁svjetski	-10.1684
▁glavnog	-10.1685
▁sekundi	-10.1687
▁obavlja	-10.1688
▁Stoga	-10.1689
▁obraz	-10.169
▁Županijsk	-10.1691
▁Kos	-10.1699
▁Mik	-10.1705
▁prodaje	-10.1707
▁ži	-10.1713
▁upozorava	-10.1714
▁govoriti	-10.1715
▁slike	-10.1716
▁divlj	-10.1717
▁jednako	-10.1724
▁vodu	-10.1729
▁75	-10.173
▁smjer	-10.1737
▁krov	-10.1738
▁podatke	-10.1739
▁knjige	-10.174
▁polovic	-10.174
▁napravili	-10.1745
▁proračun	-10.1746
▁provel	-10.175
▁poruke	-10.1752
▁politika	-10.1756
▁krvi	-10.1757
▁zajednica	-10.1758
▁starije	-10.1762
▁iduće	-10.1763
▁rob	-10.1767
▁Primorac	-10.1768
▁izvrsn	-10.1768
▁pišu	-10.1769
▁uvjete	-10.1769
15	-10.177
▁navijači	-10.1775
▁22.	-10.1777
▁vijesti	-10.1779
▁filmsk	-10.1782
▁Sun	-10.1789
▁napadu	-10.1792
tječe	-10.1793
▁pojačan	-10.1797
dva	-10.1808
▁zlo	-10.1816
▁intenzivn	-10.1816
▁alkohola	-10.1822
▁trak	-10.1822
▁reprezentaciju	-10.1825
▁zv	-10.1831
▁glumac	-10.1831
▁politi	-10.1834
nicu	-10.1839
▁Može	-10.1843
nijih	-10.1856
▁načelnik	-10.1859
▁međutim	-10.1863
▁ostalo	-10.1866
▁čije	-10.1869
▁korištenje	-10.1879
▁Jedn	-10.1882
▁zemljama	-10.1887
▁nepoznat	-10.1888
▁šok	-10.1889
▁Nacionaln	-10.1897
▁16.	-10.1898
▁Jako	-10.1901
▁vole	-10.1905
▁službeno	-10.1909
▁telefon	-10.1911
▁bolnicu	-10.1912
▁sudu	-10.1913
▁izjavil	-10.1915
elim	-10.1924
▁minimaln	-10.1938
▁dubrovačk	-10.1939
▁veljače	-10.1939
▁snagu	-10.194
▁lica	-10.194
▁šal	-10.1941
▁zdravlja	-10.1948
▁ligi	-10.1958
▁osm	-10.1962
▁besplatn	-10.1968
ljub	-10.1969
ign	-10.1974
▁mjeri	-10.1974
▁sigurn	-10.1975
▁tvrtki	-10.1978
▁uklju	-10.1984
▁tur	-10.1989
▁komisij	-10.1997
▁osigurava	-10.2001
▁nemam	-10.2001
▁pojavil	-10.2002
▁sjećanj	-10.2006
▁izgubil	-10.2006
▁Instagram	-10.2006
▁raka	-10.2007
▁rodn	-10.201
▁mirn	-10.2013
▁sudjeluj	-10.2026
▁sumnja	-10.2027
▁Zadru	-10.2027
▁prem	-10.2032
▁Pun	-10.2033
▁morsk	-10.2033
▁današnje	-10.2034
▁rod	-10.2037
▁pravu	-10.2038
▁istočn	-10.2038
▁smanji	-10.2043
▁osvaja	-10.2051
▁opskrb	-10.2055
▁Moskv	-10.2055
▁snijeg	-10.2056
▁preuze	-10.2061
▁odlask	-10.2062
▁učenika	-10.2067
▁kut	-10.2069
▁doga	-10.2072
▁izabran	-10.2083
▁Gal	-10.2084
▁odrasl	-10.2085
▁Moram	-10.2088
▁podijeli	-10.2092
▁zadnji	-10.2092
▁Srbija	-10.2092
▁čin	-10.2095
▁igrače	-10.2111
trov	-10.2114
▁trenira	-10.2119
▁stranici	-10.212
▁razinu	-10.2122
▁šut	-10.2123
▁31	-10.2129
▁hoda	-10.2132
▁lud	-10.2136
▁otpad	-10.2136
▁Slav	-10.2139
▁uvjerljiv	-10.2143
▁institucija	-10.2145
vil	-10.2147
▁Europ	-10.2153
▁ugodn	-10.2155
▁proizvodnje	-10.2157
▁...'	-10.2158
▁fotografiju	-10.2161
▁Varaždina	-10.2161
▁nsko	-10.2165
▁novoj	-10.2169
▁oduševljen	-10.2173
▁KBC	-10.2173
▁objave	-10.2173
▁obranu	-10.2174
▁Japan	-10.2175
▁vrste	-10.2175
▁Varaždinu	-10.2176
▁domać	-10.2179
izma	-10.2182
▁glazbe	-10.2185
▁porez	-10.219
▁Mel	-10.2191
▁glumica	-10.2193
bot	-10.2195
▁tržište	-10.2202
▁proša	-10.2206
▁top	-10.221
▁prometu	-10.2218
▁priznao	-10.2219
▁fin	-10.2219
▁dres	-10.222
▁nadležn	-10.2224
▁stavit	-10.2225
▁sadrž	-10.2228
▁naroda	-10.223
▁najljepš	-10.2232
▁položaj	-10.2232
▁zemlju	-10.2232
▁oznak	-10.2232
▁poznaj	-10.2232
▁sportski	-10.2235
▁cesta	-10.2237
▁David	-10.224
čenje	-10.224
AN	-10.224
▁derbi	-10.2246
▁zavod	-10.2249
▁radovi	-10.2252
▁posjed	-10.2256
▁njem	-10.2259
▁zastupnik	-10.2259
▁Festival	-10.2262
▁odvjetništv	-10.2262
▁London	-10.2262
▁stop	-10.2264
▁vidjel	-10.2265
▁dobije	-10.2268
pek	-10.2268
▁potpun	-10.2273
aši	-10.228
▁stanic	-10.228
▁Posljednj	-10.2284
▁pjesma	-10.2288
▁stanovništv	-10.2292
▁legendarn	-10.2292
▁izašl	-10.2293
▁zrak	-10.2295
▁niž	-10.2301
vljen	-10.2305
▁čast	-10.2311
▁samostaln	-10.2322
▁blagdan	-10.2326
▁nastavio	-10.2335
▁građanima	-10.2341
▁američki	-10.2341
▁vatrogasn	-10.2352
ric	-10.2356
▁grij	-10.2362
▁Sel	-10.2364
▁služi	-10.2364
▁osigural	-10.237
▁prostorij	-10.237
▁Hrvata	-10.2376
▁značajno	-10.2376
▁državni	-10.2376
▁identitet	-10.2382
▁favorit	-10.2382
ški	-10.2387
▁stabiln	-10.239
▁razvoju	-10.2392
vući	-10.2401
▁Sir	-10.2402
▁stanovnika	-10.2403
▁snimanj	-10.2405
▁financira	-10.2408
del	-10.2412
▁zastupnika	-10.2415
▁večeras	-10.2416
▁želimo	-10.2418
▁Nikol	-10.2425
▁žup	-10.2429
▁crt	-10.2432
▁smrt	-10.2434
▁broju	-10.2437
▁Bivš	-10.2438
▁Brun	-10.244
▁kvalitete	-10.2441
▁podr	-10.2442
▁svjetlo	-10.2442
▁dječak	-10.2443
▁značajn	-10.2447
▁nogometa	-10.2447
▁stiže	-10.2456
▁Najviš	-10.2457
▁pogon	-10.2461
▁Ured	-10.2462
▁vjeruje	-10.2462
ično	-10.2463
▁vožnj	-10.2467
▁diplom	-10.2471
letio	-10.2472
▁stratešk	-10.2473
▁pogotk	-10.2473
▁dugogodišnj	-10.2473
▁sruši	-10.2473
▁sudionik	-10.2473
▁postojeć	-10.2484
▁kamp	-10.2488
▁svakodnevno	-10.249
▁karakter	-10.2503
▁Mr	-10.2504
pot	-10.2506
▁pripada	-10.2511
▁prijeti	-10.2523
▁kredit	-10.2524
lice	-10.2529
▁Ljubav	-10.253
▁Plan	-10.253
▁Mur	-10.2531
rica	-10.2531
▁Hrvat	-10.2532
▁Talijan	-10.2532
▁Inter	-10.2533
▁objasnil	-10.2534
▁razdoblje	-10.2534
▁reprezentativac	-10.2534
▁zahtijeva	-10.2534
▁izvanredn	-10.2534
▁Bri	-10.2544
hat	-10.2546
▁tijeku	-10.2547
▁Bl	-10.2547
50	-10.2549
▁prilike	-10.255
ft	-10.2551
▁prošli	-10.2557
▁korisn	-10.2561
▁Han	-10.2562
▁bri	-10.2562
▁"...	-10.2563
▁platformi	-10.2564
▁uputi	-10.2564
▁štetu	-10.2565
▁isključivo	-10.2565
▁krenuo	-10.2566
▁čić	-10.2571
▁detalje	-10.2573
▁odradi	-10.2574
▁cesti	-10.258
▁Kli	-10.2581
▁nekretnine	-10.2582
▁kazne	-10.2583
▁povratk	-10.259
▁sc	-10.2592
▁odlučila	-10.2595
▁natjecanje	-10.2595
▁olakša	-10.2595
▁Dobro	-10.2596
▁transfer	-10.2596
nske	-10.2596
ličan	-10.2596
▁tenisač	-10.2596
▁promijenil	-10.2597
▁dečk	-10.2607
▁paket	-10.2609
▁tajnik	-10.2616
▁ulaganja	-10.2617
▁Međunarodn	-10.2626
▁zabilježen	-10.2626
▁posvećen	-10.2626
▁rak	-10.2631
▁uspor	-10.2632
▁cijenu	-10.2635
▁satima	-10.2636
▁Van	-10.2637
▁daljnj	-10.2638
▁povratak	-10.2661
▁županija	-10.2661
▁Bayern	-10.2662
▁putovanja	-10.2666
▁prolazi	-10.2666
jiv	-10.2669
▁potporu	-10.2671
▁Trumpa	-10.2675
▁poboljša	-10.2679
▁istu	-10.2688
▁književn	-10.2688
▁proglašen	-10.2688
▁Englesk	-10.2688
▁Perišić	-10.2688
▁predsjednica	-10.27
▁ulice	-10.2701
▁upozori	-10.2702
▁festivala	-10.2703
▁vlast	-10.2711
▁Kol	-10.2714
▁šećer	-10.2719
▁večeri	-10.2722
▁zaposlen	-10.2722
▁borbu	-10.2723
▁shvati	-10.2724
▁tehni	-10.2726
▁vrat	-10.273
▁pregleda	-10.2731
▁Stip	-10.2737
prilike	-10.274
▁hranu	-10.2752
▁uključen	-10.2752
▁Ligi	-10.2754
▁prodaju	-10.2755
▁širok	-10.2755
▁pratit	-10.2756
čkog	-10.2757
▁Prva	-10.2764
▁prijenos	-10.2777
▁intervencij	-10.2782
▁suradnju	-10.2782
▁ponavlja	-10.2782
▁Harris	-10.2782
▁generacije	-10.2787
▁Drugi	-10.2787
▁usta	-10.2788
▁otvoril	-10.279
▁uspostav	-10.279
▁gore	-10.2795
▁razine	-10.2795
▁završiti	-10.2797
▁Doda	-10.2804
▁smješten	-10.2806
▁normalno	-10.281
▁manifestacij	-10.2813
▁uobičajen	-10.2813
▁obrazovanja	-10.2813
▁Vatren	-10.2813
▁nastavak	-10.2814
▁Danijel	-10.2815
▁protivnik	-10.2817
vel	-10.2824
▁150	-10.2826
▁Vaš	-10.2829
▁Jak	-10.2832
▁prikaz	-10.284
▁počeli	-10.2842
▁lokacija	-10.2845
▁omogućuj	-10.2846
▁Med	-10.2853
elnik	-10.2853
▁Njemačk	-10.2861
▁miris	-10.2869
▁65	-10.2873
▁Ustav	-10.2875
▁Igra	-10.2876
▁kontrolira	-10.2877
đuje	-10.2882
▁Cha	-10.2897
ham	-10.29
▁baci	-10.29
▁međusobn	-10.2908
▁nažalost	-10.2908
▁Smatra	-10.2908
▁zaposlenik	-10.2915
▁stal	-10.2925
▁Vuk	-10.2927
▁obori	-10.2927
Ž	-10.293
▁servis	-10.294
▁verzij	-10.294
▁priopćil	-10.2941
▁29.	-10.2952
▁nastavil	-10.2958
sjed	-10.2959
▁izacij	-10.2968
ištu	-10.2969
▁dnevno	-10.297
▁organ	-10.2971
▁oružja	-10.2972
▁trofej	-10.2972
▁usmjeren	-10.2972
▁pomaže	-10.2973
▁učenici	-10.2978
▁utjecat	-10.298
▁zapovjednik	-10.2985
▁Prv	-10.2985
iranje	-10.2991
▁zgrada	-10.2995
▁dostav	-10.2997
▁Kraljev	-10.2997
▁dvostruk	-10.3004
▁siguran	-10.3004
▁klimatsk	-10.3004
▁božićn	-10.3004
▁struktur	-10.3005
▁živjeti	-10.3006
▁činjenica	-10.3014
▁radili	-10.3026
▁ugovora	-10.3027
▁vid	-10.3036
▁sklon	-10.3036
▁pažnju	-10.3036
▁Vijeć	-10.3037
bacio	-10.3037
▁krevet	-10.3037
▁fokus	-10.3037
▁tadašnj	-10.3038
▁postane	-10.3041
▁Rusije	-10.3042
▁Vil	-10.3052
▁glazbenik	-10.3052
▁Sla	-10.3056
▁osobi	-10.306
▁Vel	-10.306
▁Šk	-10.306
▁400	-10.3062
▁ljut	-10.3067
▁oružje	-10.3069
▁sadašnj	-10.3072
▁Ver	-10.3072
čku	-10.3073
▁uslijed	-10.3074
▁važan	-10.3074
▁zimsk	-10.3075
▁bal	-10.3078
▁misij	-10.308
▁PU	-10.308
ight	-10.3081
▁šću	-10.3084
▁Marijan	-10.3084
▁div	-10.3092
pol	-10.3093
▁obrati	-10.3095
▁komentiral	-10.3097
▁recept	-10.3101
▁mentaln	-10.3101
▁odlazi	-10.3103
▁Tešk	-10.3108
▁učinkovit	-10.3111
▁gostovanj	-10.3112
▁Zlatk	-10.3114
▁stopa	-10.3129
▁prijateljima	-10.313
▁pacijent	-10.3131
▁agencija	-10.3131
▁zdravstva	-10.3133
▁preminuo	-10.3133
▁osobama	-10.3135
▁jednostavn	-10.3139
▁odlično	-10.3161
▁san	-10.3163
▁kvadrat	-10.3166
▁najnovij	-10.3166
▁prazn	-10.3166
šten	-10.3169
▁Berlin	-10.3169
▁ogromn	-10.3169
nder	-10.3172
▁Ili	-10.3182
To	-10.3183
▁umjetnosti	-10.3186
▁prisutn	-10.3188
▁očekivati	-10.3199
▁turizma	-10.3199
▁zgrad	-10.3199
▁nasilja	-10.32
▁Dubrovniku	-10.3203
▁kvalitetu	-10.3208
▁demokratsk	-10.3213
▁interesa	-10.3222
▁partnera	-10.3226
▁obliku	-10.3229
▁2017.	-10.3231
▁projekata	-10.3231
▁Sjedinjen	-10.3231
▁prioritet	-10.3231
▁najpoznatij	-10.3231
▁trajanj	-10.3233
▁tenis	-10.3234
▁Poljudu	-10.3237
▁Istra	-10.3239
▁kiša	-10.3241
▁samog	-10.3241
▁Nin	-10.3242
▁završetk	-10.3246
▁svjedoči	-10.3247
▁viz	-10.3248
▁Jedin	-10.3249
▁korist	-10.3257
▁prijatelji	-10.3257
▁ogr	-10.326
▁saveza	-10.3262
▁vikenda	-10.3263
▁slobodno	-10.3264
▁pritisak	-10.3264
▁ispuni	-10.3266
▁policiji	-10.3266
anović	-10.3267
▁dodat	-10.3271
▁Put	-10.3274
zel	-10.3274
▁Treć	-10.3277
▁fazi	-10.3278
dy	-10.3278
▁svakodnevn	-10.3279
▁postavlja	-10.3284
▁planin	-10.3287
▁Američk	-10.3288
▁Đ	-10.3288
▁ispal	-10.3292
▁nacija	-10.3294
▁6,	-10.3294
▁svira	-10.3295
▁Dubrovnika	-10.3296
▁pripreme	-10.3296
▁humanitarn	-10.3297
▁26.	-10.33
▁alkohol	-10.33
reb	-10.3301
jač	-10.3302
▁muškaraca	-10.3303
que	-10.3308
▁djeteta	-10.3309
▁četvrti	-10.331
▁Hrvatskom	-10.3315
▁Dugo	-10.3316
▁daljnje	-10.3324
▁rezultati	-10.3327
▁unutrašnjost	-10.333
▁vlasništvu	-10.333
▁mišljenje	-10.333
▁bazen	-10.3331
▁zaključil	-10.3331
▁42	-10.3332
▁okolnosti	-10.3338
▁vjenča	-10.334
▁Rusk	-10.3341
▁vezu	-10.3342
▁vatrogasci	-10.3344
▁organiziran	-10.3353
▁kupiti	-10.3354
▁Njezin	-10.3364
▁izvođač	-10.3364
▁zainteresiran	-10.3364
▁dugoročn	-10.3364
▁korupcij	-10.3364
▁Dnevnik	-10.3366
▁Fer	-10.3367
kaz	-10.3368
▁pogledati	-10.3369
▁poveća	-10.3372
▁lažn	-10.3373
amp	-10.3375
▁otpada	-10.3375
▁nositi	-10.3387
▁slatk	-10.3388
▁UN	-10.3388
▁poena	-10.3391
▁Pra	-10.3396
_	-10.3397
▁svrh	-10.3397
▁pripremi	-10.3399
▁prof	-10.3399
▁dobit	-10.34
▁ugled	-10.34
▁zadarsk	-10.3402
▁platiti	-10.3402
▁projektil	-10.3407
▁borba	-10.3407
▁Brod	-10.3415
▁žut	-10.3424
▁međuvremenu	-10.343
▁suradnje	-10.3431
▁pobjedom	-10.3431
▁Južn	-10.3431
▁gradova	-10.3432
▁Facebook	-10.3433
▁udaljen	-10.3433
▁Srbi	-10.3434
▁kapital	-10.3435
▁opcij	-10.3436
▁cijelog	-10.3438
▁drag	-10.3441
▁dovel	-10.3443
▁emisij	-10.3443
▁Njemačka	-10.3444
▁Matij	-10.3445
▁kazališt	-10.3448
▁narodn	-10.3453
▁Jelen	-10.3454
▁svečan	-10.346
jske	-10.3463
▁započel	-10.3464
▁upotreb	-10.3464
▁Dražen	-10.3465
AR	-10.3468
▁nositelj	-10.347
▁vješt	-10.3471
▁zadovoljni	-10.3474
▁doktor	-10.3475
▁Reka	-10.3476
▁ministra	-10.3478
▁ponašanje	-10.3478
▁igara	-10.3479
▁dodjel	-10.3484
▁kreativn	-10.3485
▁odnosa	-10.349
▁Ir	-10.3491
lažu	-10.3494
roš	-10.3495
▁sobom	-10.3499
▁proveo	-10.3511
tok	-10.3518
▁šir	-10.3518
▁2000	-10.3521
▁svijest	-10.3524
▁rano	-10.3525
▁stručnjaci	-10.3526
▁izvijesti	-10.3526
▁napo	-10.3526
▁Bur	-10.3527
▁Eurosong	-10.3531
▁Lasagna	-10.3531
▁gospodarstva	-10.3531
▁nekadašnj	-10.3531
▁uzvrat	-10.3532
▁oštr	-10.3538
▁gostima	-10.3541
stovremeno	-10.3551
▁ć	-10.3561
zam	-10.3566
▁suočava	-10.3566
▁Srpsk	-10.3566
▁knjiga	-10.3566
▁karton	-10.3567
▁(6	-10.3568
▁euro	-10.3569
zija	-10.3573
▁obvezn	-10.3573
▁navel	-10.3576
▁5,	-10.3578
▁korisnika	-10.3579
▁čita	-10.3579
▁Ser	-10.3585
▁strategij	-10.3587
▁primjen	-10.3598
▁preminul	-10.3599
▁Dubrovačk	-10.36
▁Svoj	-10.36
▁ing	-10.3604
▁lijekov	-10.3607
▁Beogradu	-10.3618
▁skriva	-10.3621
▁završnic	-10.3621
▁and	-10.363
▁srednje	-10.363
▁disciplin	-10.3633
▁šibensk	-10.3633
▁podrške	-10.3634
▁obi	-10.3636
▁Krist	-10.3637
▁Nadam	-10.3638
▁emisiji	-10.364
▁državi	-10.3642
pp	-10.3646
▁Men	-10.3647
▁Gazi	-10.3647
bel	-10.3654
▁gran	-10.366
▁Željko	-10.3661
▁fizi	-10.3662
▁izbjegava	-10.3663
▁publika	-10.3668
▁muškarca	-10.3668
▁optužb	-10.3668
▁koševa	-10.3668
▁roditelj	-10.3668
▁izaziva	-10.3669
▁kampanje	-10.3669
▁stranu	-10.367
▁trajn	-10.3674
▁ostvariti	-10.3677
▁provedb	-10.3679
▁grupa	-10.368
▁najvažnij	-10.3683
▁pojasni	-10.3683
▁Sandr	-10.3686
▁korištenj	-10.369
▁duboko	-10.3692
▁priop	-10.3693
▁glumi	-10.37
▁slovensk	-10.3702
▁napomenu	-10.3702
▁stožer	-10.3702
▁sunčan	-10.3706
▁pjesm	-10.3706
▁dove	-10.3708
▁23.	-10.3715
▁Dje	-10.3717
▁roditelja	-10.372
▁suprugom	-10.3721
▁medicin	-10.3725
▁proizvod	-10.3731
▁ista	-10.3733
▁kretanj	-10.3737
▁kolege	-10.3741
▁Vin	-10.3741
▁proizvode	-10.3743
▁igrali	-10.3746
▁Paul	-10.3754
▁putova	-10.3755
▁pridruži	-10.3759
liko	-10.3762
▁sukoba	-10.3766
▁kaznu	-10.3771
▁razumijevanj	-10.3772
▁korisnik	-10.3797
▁liste	-10.3805
▁podsjeća	-10.3806
▁osobu	-10.3806
▁realizira	-10.3806
▁Klub	-10.3806
▁misle	-10.3807
▁osuđen	-10.3808
▁bana	-10.3808
▁Rim	-10.3815
▁morate	-10.3818
▁stadionu	-10.3823
▁Sport	-10.3823
rski	-10.3829
▁der	-10.383
▁ispričao	-10.3832
LA	-10.3835
▁Top	-10.3838
▁Malo	-10.3839
▁Koprivnic	-10.384
▁rijetk	-10.3846
▁GALERIJA	-10.3846
▁nice	-10.3847
panj	-10.3852
▁vidimo	-10.3856
▁pjevačica	-10.3859
▁vodstv	-10.3859
▁25.	-10.386
▁fra	-10.3866
čkih	-10.387
▁idealn	-10.387
▁očekuju	-10.3876
▁banke	-10.3876
▁sigurni	-10.3879
▁metod	-10.388
▁struk	-10.388
ovjek	-10.3882
▁Pavl	-10.3889
▁porezn	-10.3898
▁Drago	-10.3904
▁osumnjičen	-10.3906
▁Gar	-10.3908
▁talent	-10.3909
▁potrošnj	-10.3911
▁Manche	-10.3911
▁stroj	-10.3917
ct	-10.3918
▁ple	-10.392
▁proći	-10.3923
▁opcija	-10.3934
▁točn	-10.3941
▁prekrasn	-10.3946
ü	-10.3946
▁iznenad	-10.3948
▁priličn	-10.3949
▁Nikad	-10.3954
▁otići	-10.3955
▁službenici	-10.3955
▁uloga	-10.3959
▁informacijama	-10.396
▁vidim	-10.3966
▁Lan	-10.397
▁objavili	-10.3971
▁Švicarsk	-10.398
▁osvrnu	-10.3981
▁stradal	-10.3981
+	-10.3982
▁zvuk	-10.3988
▁proslavi	-10.399
▁čas	-10.399
▁SP	-10.3992
▁smr	-10.3996
vik	-10.3999
▁energiju	-10.4
▁Jug	-10.4001
▁putnika	-10.4002
▁obavijesti	-10.4002
▁ča	-10.4004
▁sudsk	-10.4004
▁Živ	-10.4007
RO	-10.4012
▁istoku	-10.4012
stat	-10.4014
▁povećava	-10.4014
▁građevinsk	-10.4017
▁kontrolu	-10.4017
▁spašava	-10.4017
▁vremenom	-10.4017
▁rukama	-10.4017
▁poslijepodne	-10.4017
▁neto	-10.4017
▁staja	-10.4019
▁parkira	-10.402
▁ubrza	-10.4021
▁vožnje	-10.4024
▁28.	-10.4028
▁?"	-10.4028
▁Tek	-10.4029
▁poduzetnik	-10.4031
▁Kal	-10.4032
▁podaci	-10.4035
▁smanjenje	-10.404
▁Her	-10.4041
▁braku	-10.4051
▁Italije	-10.4052
▁akcije	-10.4053
▁namijenjen	-10.4054
▁drugačij	-10.4055
▁izvršn	-10.4058
▁predstavnici	-10.4058
cy	-10.4063
▁dvoj	-10.4063
▁Baš	-10.4065
▁kompanija	-10.4066
▁Luc	-10.4068
▁šteta	-10.4072
šća	-10.4073
▁kin	-10.4074
etka	-10.4086
q	-10.4087
▁priprem	-10.4088
▁element	-10.4088
▁ispunjen	-10.4088
▁web	-10.4088
▁ploč	-10.4089
▁vojske	-10.4089
tivno	-10.4092
▁komentara	-10.4099
▁studija	-10.4106
▁ispričal	-10.4108
vent	-10.4112
▁očekivan	-10.4115
▁iskoristi	-10.4119
▁pobje	-10.4121
▁događanj	-10.4122
▁glazbeni	-10.4123
▁publiku	-10.4124
▁varaždinsk	-10.4124
▁Posao	-10.4124
▁brodov	-10.4132
▁baštin	-10.414
▁ća	-10.4144
▁izgubili	-10.4145
shi	-10.4147
▁znali	-10.4148
dobno	-10.4151
▁odlučil	-10.4159
▁pješ	-10.4159
▁poziciji	-10.416
▁zlostavlja	-10.416
▁klupi	-10.416
▁pomalo	-10.4163
top	-10.4163
▁24.	-10.4163
▁nekretnina	-10.4166
▁iskaz	-10.4167
▁Cijel	-10.4169
štvo	-10.4169
▁domu	-10.4175
▁slično	-10.4178
▁odabra	-10.4179
▁razgovarati	-10.418
pres	-10.4181
▁klasi	-10.4188
▁Boris	-10.4188
▁tjedana	-10.4193
▁afer	-10.4195
▁televizijsk	-10.4196
▁staln	-10.4197
▁ishod	-10.4197
▁mladić	-10.4198
▁Cilj	-10.4199
▁nesreći	-10.4202
▁bliž	-10.4204
▁mark	-10.4205
nskog	-10.4207
▁svlada	-10.4214
▁pjevač	-10.4214
▁ekipe	-10.4219
▁glumc	-10.4223
▁Film	-10.4232
▁muškarci	-10.4233
▁Var	-10.4233
▁Mas	-10.4234
▁optužen	-10.4238
▁Vjerujem	-10.4239
▁razlike	-10.4239
▁institucije	-10.4247
▁Beograd	-10.4249
▁Q	-10.4251
▁radnici	-10.4252
▁štit	-10.4252
▁Jel	-10.4256
▁pametn	-10.4257
▁stranačk	-10.4266
▁pokrenut	-10.4266
▁elektro	-10.4267
▁Vir	-10.4268
▁Nažalost	-10.4269
▁zove	-10.4269
▁akcija	-10.427
▁životinja	-10.427
▁Rusiji	-10.4273
bran	-10.4275
▁smrtn	-10.4278
▁bicikl	-10.4284
▁bolest	-10.4286
▁46	-10.4288
▁energij	-10.4293
▁proslav	-10.4293
▁prikazuje	-10.4295
▁ljiv	-10.4297
▁svu	-10.4303
fin	-10.4304
▁posljedice	-10.4305
▁terapij	-10.4305
▁pušten	-10.4306
▁datum	-10.4308
▁čelnik	-10.4309
▁pobijediti	-10.4309
▁banka	-10.4311
▁prate	-10.4311
▁Har	-10.4311
▁Sv	-10.4316
▁pone	-10.4321
▁44	-10.4323
▁promijeni	-10.4325
▁upravljanja	-10.4329
▁Radić	-10.4331
▁rek	-10.4336
▁drago	-10.4337
▁Poznat	-10.4342
▁pozval	-10.4342
▁kiše	-10.4344
▁vod	-10.4345
▁laž	-10.4346
▁puni	-10.4347
▁informacij	-10.4352
▁jte	-10.4355
▁čitav	-10.4361
▁Kla	-10.4361
▁rep	-10.4362
▁test	-10.4366
▁male	-10.4368
▁disk	-10.4371
▁starij	-10.4376
pisali	-10.4378
▁desetljeća	-10.4378
▁Ujedinjen	-10.4378
▁nedjelje	-10.4379
▁vojska	-10.4379
▁usred	-10.4382
▁češć	-10.4384
dnim	-10.4384
▁Nizozemsk	-10.4391
▁proizvodnju	-10.4392
▁onom	-10.4397
▁igri	-10.4399
▁jedinica	-10.44
▁Marij	-10.4404
▁Mag	-10.4411
▁sunčano	-10.4412
▁Sha	-10.4413
▁Severin	-10.4415
▁ulozi	-10.4419
▁krv	-10.4419
3)	-10.442
▁prijateljsk	-10.4429
▁Zapad	-10.443
▁pije	-10.443
▁Sva	-10.444
▁profil	-10.4449
▁cestama	-10.4449
▁legend	-10.4452
▁kompleks	-10.4452
▁tržišta	-10.4452
▁djelatnik	-10.4453
▁neugodn	-10.4453
▁ogled	-10.4453
▁motiv	-10.4454
▁zabavn	-10.4454
cional	-10.4454
▁glavi	-10.4456
▁kolega	-10.4461
▁putovanje	-10.4462
▁Petar	-10.4469
▁alat	-10.4473
▁odbor	-10.4482
▁Jugoslavij	-10.449
▁Dinamu	-10.449
▁snimke	-10.449
▁osu	-10.4505
▁dvor	-10.4509
▁Sela	-10.4509
▁opasnosti	-10.4512
etvrt	-10.4519
▁naime	-10.4519
Č	-10.4523
▁definitivn	-10.4527
▁podrška	-10.4527
▁reform	-10.4527
:30	-10.4527
▁mikro	-10.4527
▁prirode	-10.4527
▁osjet	-10.4538
▁jezika	-10.4538
▁brinu	-10.4543
▁Španjolska	-10.4547
▁//	-10.4548
▁Dodaj	-10.4555
▁razina	-10.4556
▁vojnika	-10.4562
▁nesta	-10.4563
▁promatra	-10.4564
▁prijave	-10.4565
mijenjen	-10.4567
▁redovn	-10.4568
▁poreza	-10.4572
▁kuna	-10.4574
▁potrebna	-10.4576
▁ekip	-10.4582
▁posad	-10.4589
▁Dva	-10.4598
▁drugačije	-10.46
▁Park	-10.4601
▁ljen	-10.4602
▁OVDJE	-10.4602
▁stranicama	-10.4602
▁predvodi	-10.4603
▁bolesn	-10.4625
▁krugu	-10.4625
▁kćeri	-10.4626
▁tt	-10.4628
nite	-10.463
▁želja	-10.463
▁isplati	-10.4636
▁Stjepan	-10.464
▁HNS	-10.464
▁ciklus	-10.464
▁optužnic	-10.464
▁poluvremenu	-10.464
▁emotivn	-10.464
▁financiranj	-10.4645
▁troje	-10.4646
zov	-10.4651
▁razvod	-10.4651
▁viđen	-10.4656
▁!'	-10.4658
▁Uprave	-10.4658
▁propust	-10.4658
▁najčešće	-10.4659
▁43	-10.4661
▁razgovoru	-10.4671
▁Švedsk	-10.4678
▁zamjenik	-10.4678
▁gužv	-10.4678
▁pomaga	-10.4678
▁svjesni	-10.4679
▁potpis	-10.4681
▁sazna	-10.4682
▁politiku	-10.4685
▁utje	-10.4687
▁bolja	-10.4688
▁granica	-10.4689
▁svje	-10.4692
▁održa	-10.4693
▁vla	-10.4694
▁Miš	-10.4694
▁investitor	-10.4716
▁predviđen	-10.4716
▁strijelac	-10.4716
▁zadatak	-10.4716
▁želite	-10.4721
▁poljoprivredn	-10.4722
▁sposobnosti	-10.4724
đan	-10.473
▁Znam	-10.4737
▁organizacija	-10.4737
▁Din	-10.4739
▁Korej	-10.4739
▁stanja	-10.4741
▁pokazat	-10.4748
▁zahvat	-10.475
▁Zelen	-10.4751
▁natjecanju	-10.4754
▁skupštin	-10.4754
▁pogodil	-10.4755
▁istrage	-10.4755
▁agencije	-10.4757
▁primijeti	-10.4757
▁slobodna	-10.4758
▁seriji	-10.476
▁građ	-10.4766
rske	-10.4767
▁58	-10.4769
▁Svaki	-10.477
▁Španjolske	-10.4773
▁vatren	-10.4774
ške	-10.4774
▁Bad	-10.4776
▁klubova	-10.478
Ovo	-10.478
▁zakonsk	-10.4781
▁uživati	-10.4785
▁optu	-10.4786
▁vodom	-10.4786
laganje	-10.4787
▁rujnu	-10.4792
▁čvrst	-10.4794
▁Godin	-10.4795
▁ključ	-10.4795
▁planiran	-10.4795
▁poboljšanj	-10.4797
▁scenarij	-10.48
▁odlazak	-10.4802
▁neovisn	-10.4802
▁čelu	-10.4805
▁mreža	-10.4806
▁rasporedu	-10.4806
▁prošlosti	-10.4815
nama	-10.4817
▁razum	-10.482
▁Posebno	-10.482
▁otkrili	-10.4822
▁buk	-10.4826
▁Maksimiru	-10.4827
▁konkurent	-10.4831
▁civiln	-10.4831
▁preostal	-10.4831
▁kazna	-10.4831
▁bes	-10.4843
▁Grčk	-10.4847
▁Chi	-10.4861
▁trgovine	-10.4862
▁31.	-10.4863
▁uprava	-10.4864
▁priznal	-10.4864
vukao	-10.4869
▁William	-10.4869
▁publike	-10.4869
▁Viktor	-10.4869
▁jutarnj	-10.4869
▁sinoć	-10.487
▁Centra	-10.487
▁ostalog	-10.487
▁djecom	-10.4871
▁scene	-10.4871
▁Ter	-10.4872
▁uhvati	-10.4873
▁javil	-10.4878
▁učinil	-10.488
▁hotela	-10.488
▁djevojka	-10.4883
▁zaštit	-10.4885
▁radimo	-10.4891
les	-10.4893
▁Autor	-10.4895
▁stariji	-10.4897
▁opasnost	-10.4903
X	-10.4905
▁danima	-10.4906
▁dojam	-10.4912
▁mreži	-10.4913
▁kritizira	-10.4916
▁Sav	-10.4919
▁povjerenje	-10.4921
▁sustavu	-10.4931
▁sol	-10.4932
▁probi	-10.4934
▁izrazi	-10.4935
▁završn	-10.4936
▁proračuna	-10.4937
▁Dinamov	-10.4939
▁soli	-10.4941
▁Njemačke	-10.4943
▁izvješ	-10.4945
▁Tomašević	-10.4947
▁tehnološk	-10.4947
▁Križevci	-10.4947
▁Osijeku	-10.4947
▁zvuč	-10.4958
▁čka	-10.4959
▁Tin	-10.496
▁klasičn	-10.4962
▁iskren	-10.4962
EN	-10.4964
▁prozor	-10.4964
ER	-10.4966
▁koli	-10.497
▁jaja	-10.4976
▁luka	-10.4981
▁suvremen	-10.4983
▁mala	-10.4983
▁konačn	-10.4984
▁izlazi	-10.4985
▁motocikl	-10.4986
▁štrajk	-10.4986
▁helikopter	-10.4986
▁klupsk	-10.4986
▁kriterij	-10.4986
▁doživjel	-10.4986
▁osvojen	-10.4986
▁Osta	-10.4988
▁kućn	-10.4989
▁krenut	-10.4989
▁osvojili	-10.499
▁Izvor	-10.4993
▁jugo	-10.4996
▁49	-10.5
▁otoku	-10.501
▁dogodi	-10.5015
▁trgovačk	-10.5023
▁usporedb	-10.5025
▁ustvrdi	-10.5025
▁promocij	-10.5026
▁Odluk	-10.5027
▁tursk	-10.5029
▁Otkri	-10.5031
OR	-10.5032
▁tužitelj	-10.5036
▁pamti	-10.5041
▁doseg	-10.5042
▁Pal	-10.5042
▁Kine	-10.5047
▁gostiju	-10.5055
▁(7	-10.5061
▁puk	-10.5063
▁27.	-10.5063
▁crkve	-10.5065
▁ponudu	-10.5065
▁ekološk	-10.5065
▁Najveć	-10.5065
▁poticaj	-10.5065
▁tvornic	-10.5065
▁kruh	-10.5067
▁ministarstv	-10.507
▁smjes	-10.5072
▁Večer	-10.5072
glav	-10.5074
▁student	-10.5076
▁umjetnik	-10.5078
▁upoznal	-10.5083
▁47	-10.5084
▁prijavi	-10.5099
▁prekršaj	-10.5103
▁austrijsk	-10.5104
▁kraljevsk	-10.5104
▁tzv	-10.5104
▁Mladi	-10.5105
▁600	-10.5108
stavljaju	-10.5108
▁valja	-10.5119
kul	-10.5126
▁Lin	-10.5128
▁kandidatkinj	-10.513
▁vin	-10.5131
▁dužnosti	-10.5131
▁otoka	-10.514
▁preporu	-10.5144
▁Zemlj	-10.5145
▁čitatelj	-10.5146
▁Beroš	-10.5147
▁Takv	-10.5147
▁Kijev	-10.5147
▁41	-10.5155
▁prst	-10.5156
▁emisije	-10.5161
▁nos	-10.5162
fr	-10.5162
▁sastanak	-10.5162
▁Kur	-10.5175
▁rang	-10.5178
▁fil	-10.518
▁fr	-10.518
▁operacije	-10.5184
▁2015.	-10.5184
▁regije	-10.5184
▁chef	-10.5184
▁Crkv	-10.5184
▁napominj	-10.5185
▁okr	-10.5186
tvrd	-10.5192
▁izjava	-10.5196
▁najgor	-10.5198
▁razlika	-10.5198
▁lak	-10.5199
▁linija	-10.5215
▁osiguranje	-10.5218
▁temu	-10.5218
▁prijelaz	-10.5219
▁Washington	-10.5224
▁unaprijed	-10.5224
▁Libanon	-10.5224
▁mrežu	-10.5224
▁Slavonij	-10.5226
▁Gordan	-10.5226
▁obrana	-10.5228
▁Kara	-10.5233
▁Mus	-10.5233
▁zbor	-10.5234
nec	-10.5235
▁sjaj	-10.5242
▁pokrenul	-10.5243
▁obrt	-10.5254
▁sekund	-10.5258
vuče	-10.526
▁grešk	-10.5265
▁princez	-10.5266
▁okoliš	-10.5266
▁otvorio	-10.5267
▁okuplja	-10.5268
▁bolj	-10.5268
▁postav	-10.5269
▁linije	-10.5272
▁ovisno	-10.5273
▁dvorišt	-10.5274
▁Net	-10.5278
▁dizajner	-10.529
▁igračima	-10.5292
▁prvim	-10.5295
▁Facebooku	-10.5301
▁Marka	-10.5303
▁Utakmic	-10.5304
▁komunaln	-10.5304
▁masovn	-10.5304
▁Buduć	-10.5304
▁tijelu	-10.5304
▁okupljanj	-10.5306
▁prekršaja	-10.5308
▁hrana	-10.5308
▁Areni	-10.5309
▁videu	-10.5313
čna	-10.5319
▁prijateljic	-10.5322
▁Wal	-10.5328
▁budi	-10.5329
vet	-10.5343
▁ubojstvo	-10.5345
▁veličin	-10.5345
▁Zdravlje	-10.5346
▁krem	-10.5348
kriv	-10.5354
▁upravljanje	-10.5356
▁živjel	-10.5357
▁ostavlja	-10.5359
▁remi	-10.536
▁Sal	-10.5371
▁kategorije	-10.5385
▁strašn	-10.5385
dalmacija	-10.5385
▁baterij	-10.5386
▁slavlje	-10.5386
▁vjerovati	-10.5386
▁Savez	-10.539
zvati	-10.5398
▁Klar	-10.54
▁vre	-10.5402
▁natjecatelj	-10.5408
▁žrtve	-10.5418
▁razbi	-10.5418
▁Toni	-10.5422
▁dužnosnik	-10.5426
▁potvrđuj	-10.5426
▁tren	-10.5426
▁odabir	-10.5428
▁smanjit	-10.5428
▁reakcije	-10.5429
▁razumij	-10.5432
▁pronašli	-10.5435
▁isplat	-10.5436
▁znate	-10.5436
ject	-10.5446
▁baca	-10.5449
▁ovogodišnje	-10.545
▁goste	-10.5452
▁roditeljima	-10.5454
▁Australij	-10.5458
▁NA	-10.5458
▁Rumunjsk	-10.5459
▁Čest	-10.5463
▁kg	-10.5465
▁htjel	-10.5465
▁Ministar	-10.5466
▁mirovinu	-10.5467
▁utrke	-10.5467
▁reakcija	-10.5467
▁medalje	-10.5467
▁sceni	-10.547
▁izjave	-10.547
▁Sol	-10.5472
▁provesti	-10.5476
▁sestra	-10.5477
KA	-10.5479
radio	-10.5481
▁pritvor	-10.5482
nline	-10.5485
▁okružen	-10.549
šću	-10.5491
▁Hval	-10.5492
▁rijetko	-10.5502
▁noćn	-10.5505
▁USKOK	-10.5508
▁Gattuso	-10.5508
▁razdoblja	-10.5508
▁očuvanj	-10.5508
▁zlato	-10.5508
▁ocijeni	-10.5509
▁postigl	-10.5509
▁mobiln	-10.5511
▁miješa	-10.552
▁novinarima	-10.5522
▁mama	-10.5533
▁Sil	-10.5541
▁mjestima	-10.5544
▁zadovoljstvo	-10.5547
lekt	-10.555
▁segment	-10.555
▁osjetljiv	-10.5552
▁ničk	-10.5553
▁oštećen	-10.5559
▁blokira	-10.5559
▁dubok	-10.5561
▁Jutarnji	-10.5567
▁križ	-10.5567
▁obrad	-10.557
▁obilaz	-10.5572
▁ispri	-10.558
▁kov	-10.5583
▁temperatur	-10.5585
▁ulica	-10.5589
▁okoliša	-10.559
▁Problem	-10.5591
▁precizn	-10.5591
▁Hoće	-10.5592
▁poslove	-10.5592
▁nici	-10.5594
kazuje	-10.5598
▁Đur	-10.5601
▁teme	-10.5602
▁rješavanj	-10.5603
▁Novak	-10.561
▁vjetr	-10.5621
45	-10.5624
▁čkog	-10.5624
▁tehnologije	-10.5626
mišlja	-10.5628
▁osiguran	-10.5629
▁pljuskov	-10.5633
▁Mamić	-10.5633
▁gubitk	-10.5635
▁titulu	-10.5636
▁upozorenje	-10.5636
▁Dal	-10.5639
▁turisti	-10.5641
▁otkri	-10.5644
▁66	-10.5645
▁članic	-10.5651
▁odredi	-10.5655
▁zvijezde	-10.5658
▁osnovan	-10.5661
▁rezultatom	-10.5666
▁događaju	-10.5673
▁ostane	-10.5674
▁financija	-10.5674
▁koncentracij	-10.5674
▁obramben	-10.5674
▁poduzeć	-10.5674
▁publici	-10.5674
▁Splićan	-10.5674
▁obrazovanje	-10.5674
▁najavljuj	-10.5675
lop	-10.568
▁nude	-10.5681
▁zadovoljan	-10.5685
▁luksuzn	-10.5686
▁zaštitn	-10.5695
▁radom	-10.5695
dugo	-10.5697
ST	-10.5698
šin	-10.5699
vlači	-10.5716
▁operativn	-10.5716
▁palestinsk	-10.5716
▁vatrogasac	-10.5716
▁zaštićen	-10.5716
▁prigod	-10.5717
▁Dominik	-10.5717
▁Sloven	-10.5718
▁nedo	-10.5719
▁krajnje	-10.5719
▁ameri	-10.5721
▁dovodi	-10.5721
▁umirovljenik	-10.5721
▁domaćih	-10.5722
▁slavil	-10.5739
▁Zdravk	-10.5744
▁štete	-10.575
vođenj	-10.5755
▁Jakirović	-10.5762
▁Zelenski	-10.5763
▁napravila	-10.5764
▁prizna	-10.5766
▁120	-10.5783
▁izdanje	-10.5789
▁Bož	-10.579
▁sindikat	-10.5801
ukladno	-10.5801
▁županijsk	-10.5801
▁suparnik	-10.5801
▁tvrdnj	-10.5802
▁radila	-10.5806
▁Cijen	-10.5808
▁54	-10.5808
▁termin	-10.5826
▁opć	-10.5826
▁nose	-10.5831
vjeren	-10.5835
▁Vladi	-10.5844
▁nedostaje	-10.5844
▁pandemij	-10.5844
▁predviđa	-10.5844
▁ponude	-10.5844
▁najavljen	-10.5844
▁([	-10.5844
▁ljubitelj	-10.5845
▁Charles	-10.5845
▁počinitelj	-10.5845
▁općine	-10.5846
▁En	-10.585
▁Republik	-10.5851
▁polju	-10.5853
▁sasta	-10.5854
▁iskusn	-10.5856
▁odbio	-10.5862
▁zamijeni	-10.5863
▁izbaci	-10.5866
▁otpor	-10.5869
▁prizor	-10.5871
▁poslovanja	-10.5874
▁Georg	-10.5886
▁obljetnic	-10.5886
▁gospodarstvo	-10.5887
▁županiji	-10.5891
▁85	-10.5891
doslovno	-10.5893
▁trajat	-10.5895
▁ostvaren	-10.5901
▁uvjeti	-10.5904
NI	-10.5909
zin	-10.5919
▁vozilom	-10.5922
▁najavil	-10.5927
▁Većin	-10.5927
▁završava	-10.5928
▁emocionaln	-10.5929
▁majke	-10.593
sigurno	-10.593
▁troškova	-10.593
▁prijava	-10.5931
▁front	-10.5933
▁birača	-10.5937
▁poštova	-10.5939
mail	-10.594
▁pisali	-10.594
▁voditeljica	-10.5943
▁Slobodn	-10.5944
%2	-10.5946
▁početn	-10.5956
▁52	-10.5959
ther	-10.5968
▁prvenstveno	-10.5969
▁turniru	-10.5972
▁Dalmaciji	-10.5972
▁majstor	-10.5972
▁pretvori	-10.5974
▁sretan	-10.5975
▁čvor	-10.5976
▁HNK	-10.5978
▁Isus	-10.5979
▁nski	-10.5981
▁Cor	-10.5983
▁64	-10.5986
▁iskoristiti	-10.5991
▁Želim	-10.5994
10	-10.5997
▁rješava	-10.6003
▁pozicije	-10.6016
▁snimljen	-10.6016
▁produkcij	-10.6016
▁crijev	-10.6016
▁završen	-10.6016
▁ministarstvo	-10.6016
▁pobjedi	-10.6017
▁Daniel	-10.6017
▁slučajeva	-10.6024
▁najtež	-10.6024
▁predloži	-10.6025
▁problemima	-10.6034
▁istraži	-10.6035
▁osmin	-10.6037
▁čuje	-10.6041
▁istina	-10.605
sata	-10.6052
▁čekaju	-10.6053
▁sposobnost	-10.6054
▁rezerv	-10.6055
▁Bol	-10.6056
▁jugu	-10.6069
▁istog	-10.607
▁budem	-10.6071
nički	-10.6076
▁utjecajem	-10.6081
▁petka	-10.6081
zar	-10.6087
▁Milanovi	-10.6088
▁Antoni	-10.6089
▁djelatnosti	-10.6099
▁prepoznatljiv	-10.6103
▁transparent	-10.6103
▁čokolad	-10.6103
▁lipnju	-10.6103
▁porasl	-10.6103
▁Društv	-10.6103
▁posjetitelji	-10.6103
▁stranci	-10.6104
▁dokumentacij	-10.6107
▁osigurat	-10.6109
▁Bulj	-10.6115
▁Rok	-10.6116
avaju	-10.6118
▁ošte	-10.6118
▁vladajuć	-10.612
vija	-10.6133
▁Port	-10.6134
rska	-10.6139
▁jača	-10.614
▁eksplozij	-10.6147
▁pripadnik	-10.6147
▁akciju	-10.6147
jpg	-10.6149
dalmatinsk	-10.6149
▁Petković	-10.6151
▁smjen	-10.6153
▁primanj	-10.6158
nstven	-10.6166
▁glasnogovornik	-10.6166
▁Mol	-10.617
▁otvorenom	-10.617
▁kandidatur	-10.6171
▁PO	-10.6177
▁kul	-10.6182
▁ozlije	-10.6188
▁postupka	-10.6191
▁Đoković	-10.6191
▁imovine	-10.6191
▁oprosti	-10.6191
▁obveza	-10.6192
▁Trumpov	-10.6194
▁licu	-10.6195
▁kći	-10.6195
▁povremeno	-10.6196
▁Zlatn	-10.6197
▁Glas	-10.6202
▁vjero	-10.6216
▁Javn	-10.622
▁govoril	-10.6228
▁srpnj	-10.6229
▁Ivo	-10.6232
▁analizira	-10.6235
▁realizacij	-10.6235
▁kamion	-10.6235
▁neobičn	-10.6235
▁klijent	-10.6235
▁kompanije	-10.6236
▁Albanij	-10.6236
▁snimka	-10.6236
▁Francuz	-10.6236
▁goriva	-10.6237
▁zabranjen	-10.6243
▁osvajanj	-10.6243
▁vanja	-10.6252
▁dužnost	-10.6256
▁boriti	-10.6257
▁AI	-10.6262
▁pojas	-10.6263
▁mil	-10.6268
▁kolon	-10.6272
▁fokusira	-10.6278
▁atraktivn	-10.6279
▁edukacij	-10.6279
▁najmlađ	-10.6279
▁polufinalu	-10.6279
▁potpredsjednik	-10.6279
▁mirovine	-10.6279
▁Pokuša	-10.628
▁zaborav	-10.628
▁sreću	-10.6282
▁utvrđeno	-10.6289
▁okupil	-10.6299
▁današnj	-10.63
▁Mc	-10.6302
▁tj	-10.631
▁izlask	-10.6314
naest	-10.6317
SA	-10.6319
▁pusti	-10.632
slov	-10.632
▁znanje	-10.6323
▁spektakl	-10.6324
▁Sergej	-10.6324
▁trojic	-10.6326
▁predstavljen	-10.633
▁Del	-10.6334
sil	-10.6338
▁Col	-10.6347
▁napusti	-10.635
▁pokrenu	-10.635
bjeg	-10.6351
▁pozitiv	-10.6353
▁dž	-10.6354
rstva	-10.6356
▁razli	-10.6359
▁Opć	-10.6359
▁gost	-10.6366
▁ubojstva	-10.6369
▁Rujevic	-10.6369
▁svibnju	-10.6369
▁medalju	-10.6369
▁plus	-10.6369
▁sudjelovanje	-10.637
▁htjeli	-10.6372
▁apsolutno	-10.6384
▁lider	-10.641
hvaćen	-10.6414
▁Reuters	-10.6414
▁alternativ	-10.6414
▁ostavku	-10.6414
▁United	-10.6414
▁potrag	-10.6415
▁Obr	-10.6415
▁250	-10.6415
▁Balkan	-10.6416
▁Osob	-10.642
▁€	-10.6421
▁vić	-10.6429
▁ravnateljic	-10.6437
▁komentarima	-10.644
▁baviti	-10.6442
tivni	-10.6444
▁slavio	-10.6444
MA	-10.6449
▁plati	-10.6449
▁riječk	-10.6453
▁2014.	-10.6459
▁policajac	-10.6459
▁ekran	-10.6459
▁glave	-10.6461
▁ljestvici	-10.6462
▁Nenad	-10.6462
ošću	-10.6469
▁nastavn	-10.647
▁plaćen	-10.647
▁ruž	-10.6472
▁buduće	-10.6472
▁izvoz	-10.6479
▁pital	-10.6483
▁sprema	-10.6491
▁2012.	-10.6505
▁Program	-10.6505
▁Kekin	-10.6505
▁ponuda	-10.6505
▁sektoru	-10.6507
▁studenti	-10.6508
The	-10.6513
▁istaknuti	-10.6518
▁ispitivanj	-10.6521
▁generacija	-10.6528
▁dojav	-10.6536
▁Šibeniku	-10.6539
▁svjedo	-10.6539
▁pliva	-10.6543
▁žali	-10.6546
▁područjima	-10.655
▁Centar	-10.655
▁zaključuj	-10.655
▁medalja	-10.6551
▁Grbin	-10.6551
▁odbija	-10.6552
▁Kul	-10.6552
▁režim	-10.6553
▁63	-10.6555
▁Cro	-10.6556
▁direktoric	-10.6559
▁Gaze	-10.656
▁jednak	-10.6567
▁obali	-10.6568
▁djevoj	-10.6569
▁omogućit	-10.6569
▁najvažnije	-10.6576
▁izrazit	-10.6578
▁razgovarali	-10.6579
avni	-10.6582
▁Sinj	-10.6585
▁klubovi	-10.6585
▁govorim	-10.6596
▁donošenj	-10.6596
▁Italiji	-10.6596
▁prisustv	-10.6596
▁Peter	-10.6597
▁teže	-10.6597
▁iji	-10.6598
▁Država	-10.6599
▁Njema	-10.6614
▁današnji	-10.6614
▁pobijedi	-10.6618
▁Plenkovi	-10.6624
duk	-10.6625
▁Tamo	-10.6631
stupan	-10.6634
▁demokracij	-10.6642
▁studenom	-10.6642
▁analitičar	-10.6643
▁zapad	-10.6643
▁inovacij	-10.6645
▁otok	-10.6647
▁bronc	-10.6654
Sport	-10.6655
▁gradovima	-10.6659
▁@	-10.666
▁Bili	-10.6661
▁uzet	-10.6667
▁Bak	-10.6671
gnut	-10.6686
▁kolnik	-10.6689
▁duhovn	-10.669
▁trajal	-10.6693
▁klju	-10.6702
▁stvori	-10.6702
▁čke	-10.6703
▁uloge	-10.6708
▁čar	-10.6712
▁opće	-10.6726
▁20-	-10.6728
▁Cam	-10.6733
▁eksperiment	-10.6735
▁glazbu	-10.6735
▁jugozapad	-10.6735
▁listopadu	-10.6735
▁glavom	-10.6735
vrijedan	-10.6736
▁Zadarsk	-10.6737
▁propisan	-10.6743
▁željel	-10.6746
▁dulje	-10.6753
▁76	-10.6754
▁Tel	-10.6757
▁školama	-10.6757
▁gura	-10.6757
▁nogometu	-10.676
▁koljen	-10.676
▁prilog	-10.676
▁četvrtin	-10.6761
▁dresu	-10.6763
stižu	-10.6764
▁ostatak	-10.6765
▁jedinici	-10.6767
▁bran	-10.6771
▁Trenutn	-10.6782
▁dopušten	-10.6782
▁slobodu	-10.6782
▁skandal	-10.6782
▁sugerira	-10.6782
▁službi	-10.6782
▁spremno	-10.6782
▁Trener	-10.6782
▁Nedavn	-10.6782
▁otkriven	-10.6783
▁dek	-10.6783
▁oglasio	-10.6785
dajte	-10.6785
▁nastupit	-10.6786
▁smijeh	-10.6787
▁počini	-10.6787
▁EP	-10.6794
▁pošten	-10.6796
▁golman	-10.6797
▁prebaci	-10.6802
burg	-10.6802
▁profilu	-10.6803
▁Glav	-10.6808
▁čuli	-10.6816
▁susjedn	-10.6825
▁komentira	-10.6826
▁Sportsk	-10.6828
▁stvarn	-10.6828
▁razmjen	-10.6829
▁kampanju	-10.6829
▁Croatia	-10.6829
▁trajekt	-10.6829
▁gostujuć	-10.683
▁Istre	-10.6833
▁hrani	-10.6835
▁princ	-10.6838
▁golem	-10.6842
▁Ves	-10.6845
▁metal	-10.6849
niste	-10.6852
▁smanjen	-10.6857
▁tak	-10.6865
▁PR	-10.6867
OM	-10.6868
▁asistencija	-10.6876
▁izložbe	-10.6876
▁konzumira	-10.6876
▁Ronald	-10.6876
▁prosincu	-10.6876
▁mještan	-10.6876
▁prednj	-10.6876
▁spriječiti	-10.6876
▁opreme	-10.6876
▁trenucima	-10.6876
\	-10.688
▁praktič	-10.6882
▁Općinsk	-10.6886
▁pregovara	-10.6888
▁sav	-10.6892
▁bilježi	-10.6892
▁pokojn	-10.6893
▁vil	-10.6907
▁atmosferu	-10.6908
▁smanjenj	-10.6912
▁sjeća	-10.6918
VA	-10.6918
cikl	-10.6919
▁komunicira	-10.6923
▁resurs	-10.6923
▁plovi	-10.6924
▁nalog	-10.6924
▁Harry	-10.6925
▁subote	-10.6927
▁nesre	-10.693
▁tvrtk	-10.6949
▁HR	-10.6953
▁ograničen	-10.6965
▁Nadal	-10.6968
▁dodaju	-10.697
▁nadolazeć	-10.6971
▁napredak	-10.6971
▁perspektiv	-10.6971
▁pjesama	-10.6971
▁uporab	-10.6971
▁Gleda	-10.6975
▁Rimac	-10.6976
rot	-10.6977
▁skok	-10.6978
▁ograničenj	-10.6982
▁ručn	-10.6982
▁mjesecima	-10.6982
▁Hol	-10.6985
▁izabra	-10.6985
▁igrališt	-10.6991
▁Marc	-10.7
▁nosil	-10.7007
lović	-10.7008
▁Mogu	-10.7009
▁Splitsko	-10.7011
▁grama	-10.7011
▁struje	-10.7014
▁scena	-10.7015
ney	-10.7016
▁ovogodišnj	-10.7017
▁Pobjed	-10.7019
▁kontrole	-10.7019
▁pogrešk	-10.7019
▁proširen	-10.7019
▁materijaln	-10.7019
▁images	-10.7019
Class	-10.7022
▁Jest	-10.7024
▁trans	-10.7024
rator	-10.7025
▁leđa	-10.7032
▁odigran	-10.7035
▁priznanje	-10.7036
▁predstavljaju	-10.7045
▁Europu	-10.7048
▁skim	-10.7054
▁51	-10.7056
▁Franc	-10.7058
▁ranjen	-10.7064
▁navijačima	-10.7065
▁teorij	-10.7066
▁izazvao	-10.7067
▁pouzdan	-10.7067
▁agresij	-10.7067
▁prijavljen	-10.7067
▁nazvao	-10.7067
▁Can	-10.7068
▁Mad	-10.707
▁obnovi	-10.7073
▁preseli	-10.7073
▁predan	-10.7085
▁odigral	-10.7097
▁ulicama	-10.7099
▁proširi	-10.7104
OŠ	-10.7109
21	-10.7112
vir	-10.7113
▁Hezbolah	-10.7115
▁poginuli	-10.7115
▁slobode	-10.7115
▁služba	-10.7115
▁kulturu	-10.7115
▁podizanj	-10.7115
▁lansira	-10.7116
▁optim	-10.7116
▁graničn	-10.7117
▁Duj	-10.7118
▁She	-10.7119
▁dvo	-10.7121
▁uživo	-10.7124
▁tvoj	-10.7126
▁"",	-10.713
▁zamisli	-10.7133
▁57	-10.7135
▁hrabr	-10.7142
\/	-10.7144
▁moćn	-10.7147
▁Dansk	-10.7149
▁Pariz	-10.7149
▁II	-10.7152
▁Vit	-10.7153
▁radost	-10.7159
▁iskreno	-10.7161
▁Argentin	-10.7164
▁ilegaln	-10.7164
▁napredova	-10.7164
▁gospodin	-10.7164
▁potroši	-10.7164
▁biskup	-10.7164
▁Kaštel	-10.7164
▁masn	-10.7167
▁skladišt	-10.7172
▁uzel	-10.7175
▁vjeruju	-10.718
▁dominira	-10.7182
više	-10.7185
▁zatraži	-10.7188
▁73	-10.7192
▁Kraj	-10.7194
▁učenik	-10.7196
▁napal	-10.7196
▁visi	-10.7196
▁liječnici	-10.7202
▁pir	-10.7207
▁Zanimljivo	-10.7212
▁predizborn	-10.7212
▁slijede	-10.7212
▁Palestin	-10.7212
▁troškove	-10.7213
▁boravi	-10.7217
▁optuži	-10.7218
▁ugostit	-10.7218
▁jačanj	-10.7219
▁led	-10.722
▁Cr	-10.7221
▁Plav	-10.7227
▁gledam	-10.7232
▁maslin	-10.7239
▁Ministarstv	-10.724
▁tlak	-10.724
▁ostavil	-10.7241
▁dojm	-10.7242
▁raspored	-10.7243
▁djetet	-10.7244
▁siječnj	-10.7244
▁ispravn	-10.7257
▁reakcij	-10.7258
▁oglasil	-10.7259
▁Krešimir	-10.7261
▁angažman	-10.7261
▁Grand	-10.7262
▁istražn	-10.7263
▁prometnoj	-10.7263
▁turista	-10.7265
▁pokušal	-10.7267
▁kartic	-10.7267
▁Odbor	-10.7273
lijeva	-10.7275
▁darov	-10.7276
▁stvarnost	-10.7279
▁shvatil	-10.7279
▁kćer	-10.7279
▁štetn	-10.7281
▁53	-10.7285
▁riješi	-10.7293
▁savezn	-10.7294
▁Dobr	-10.7299
berg	-10.7299
▁ideje	-10.7309
▁Sara	-10.731
▁osnivač	-10.7311
▁1991.	-10.7311
▁faktor	-10.7311
▁pozicija	-10.7311
▁Hrvoje	-10.7311
▁sreće	-10.7311
▁dočekal	-10.7311
▁nekakv	-10.7313
Y	-10.7318
▁pravom	-10.7324
▁67	-10.7325
▁provode	-10.7327
▁ekipu	-10.733
remijer	-10.7336
▁podne	-10.7336
▁sitn	-10.7337
▁kock	-10.7337
▁rezultatima	-10.7342
▁Nor	-10.7343
▁strog	-10.7349
▁održal	-10.7356
▁ekonomij	-10.736
▁prikupi	-10.736
▁bogatstv	-10.736
▁kombinira	-10.7361
▁Euru	-10.7362
NBA	-10.7363
▁Far	-10.7365
▁majic	-10.737
žite	-10.7371
▁državljanin	-10.7375
▁05	-10.7385
▁vlasnici	-10.7386
▁62	-10.7393
▁glum	-10.7393
▁ulask	-10.7394
▁nemoguć	-10.741
▁automatsk	-10.741
▁travnju	-10.741
▁Ukupn	-10.741
▁kampanji	-10.741
▁normaln	-10.741
▁relativn	-10.7411
▁pronašl	-10.7414
▁specifičn	-10.7416
▁bolnica	-10.7419
▁Ab	-10.7421
▁obrok	-10.7422
istinu	-10.7425
▁gađa	-10.7433
▁pauz	-10.7435
▁polic	-10.7446
▁zaboravi	-10.7452
▁Mer	-10.7456
▁West	-10.7456
▁Gvardiol	-10.746
▁eventualn	-10.746
▁najstarij	-10.746
▁postrojb	-10.746
▁Priprem	-10.746
▁turizam	-10.7461
▁korijen	-10.7461
▁limun	-10.7462
▁donose	-10.7462
▁penal	-10.7464
mišljen	-10.7464
▁kraljic	-10.7466
▁muž	-10.7467
▁kupil	-10.7467
▁pilot	-10.7471
▁Pan	-10.7475
▁znala	-10.7476
▁hip	-10.7476
▁zaustavi	-10.7481
▁službenik	-10.7482
▁težin	-10.7483
▁letjelic	-10.7486
▁nasilje	-10.7487
▁vladi	-10.7492
Život	-10.7493
▁organizator	-10.7493
▁povjerenj	-10.7495
▁sedmo	-10.7499
▁Los	-10.7501
▁Aleksandr	-10.7504
▁Predstav	-10.7507
▁potaknut	-10.751
▁avantur	-10.751
▁izdvoji	-10.751
▁urban	-10.7511
▁policiju	-10.7511
▁istragu	-10.7511
▁gledatelji	-10.7512
▁sudar	-10.7516
▁blok	-10.752
▁svakoj	-10.7525
▁EUR	-10.7525
▁povezanost	-10.7525
▁grmljavin	-10.7528
▁56	-10.7532
rijeme	-10.7537
▁61	-10.7546
▁zabrinut	-10.7556
▁nedostatk	-10.7561
▁veljači	-10.7561
▁Google	-10.7561
▁ZA	-10.7563
▁zlata	-10.7565
▁Oscar	-10.7565
▁Eura	-10.7565
▁ubojic	-10.7566
▁situacijama	-10.7569
▁Dragi	-10.7569
▁poslovanje	-10.7573
▁vidite	-10.7578
▁lom	-10.7583
poznati	-10.7599
▁dijelovi	-10.7605
▁namjerava	-10.7606
▁dalmatinsk	-10.7609
▁Donj	-10.7611
▁pokušavaju	-10.7611
*	-10.7611
▁Projekt	-10.7611
▁apartman	-10.7611
▁transformacij	-10.7611
▁zadobi	-10.7612
▁želju	-10.7614
▁okupljen	-10.7616
▁zabrinutost	-10.7616
▁izazovima	-10.7621
▁uzbu	-10.7625
▁moć	-10.7625
▁tunel	-10.7626
▁general	-10.7627
▁kreira	-10.7629
lly	-10.7633
▁zaposlenih	-10.7634
25	-10.7641
▁trebamo	-10.7646
▁Zavod	-10.7648
▁radnog	-10.765
▁niji	-10.7656
▁povrat	-10.7659
▁DORH	-10.7662
▁izgrađen	-10.7662
▁Borussi	-10.7663
▁2-1	-10.7663
▁1-0	-10.7663
▁napravljen	-10.7663
▁Oliver	-10.7663
▁druži	-10.7664
▁pojedinačn	-10.7665
▁pamet	-10.7665
▁očekivanja	-10.7675
▁\	-10.7678
▁72	-10.7695
▁stabilnost	-10.77
▁(8	-10.77
▁mijenjati	-10.7701
▁pročita	-10.7708
▁industrije	-10.7714
▁inozemstvu	-10.7714
▁inspirira	-10.7714
▁oduševil	-10.7714
▁tržišn	-10.7714
▁Dalmacije	-10.7714
▁površine	-10.7714
▁aspekt	-10.7714
▁očevid	-10.7714
▁šetnj	-10.7715
▁Gotov	-10.7715
▁spaja	-10.7715
▁pratitelji	-10.7716
▁omogućil	-10.7718
▁skokova	-10.7719
▁djelovanje	-10.7721
zgr	-10.7723
▁iznosil	-10.7729
▁djelatnici	-10.7732
▁predstavljanj	-10.7741
▁ukra	-10.7752
▁Dalmacija	-10.7765
▁pogođen	-10.7765
▁Osnovn	-10.7765
▁gledatelja	-10.7766
▁rock	-10.7778
▁bazi	-10.7806
▁kože	-10.7809
▁ispr	-10.7813
▁Makedon	-10.7817
▁povjerenstv	-10.7817
▁poznava	-10.7817
▁objavu	-10.7817
▁prijavu	-10.7818
▁krvn	-10.7818
▁Kovačić	-10.7821
▁djevojke	-10.7826
▁Che	-10.783
▁kriminalističko	-10.7835
▁detaljn	-10.7836
bir	-10.7849
▁Poljud	-10.7861
▁prekinut	-10.7866
▁operacija	-10.7869
▁smanjuje	-10.7869
▁2-0	-10.7869
▁prijetnje	-10.787
▁počast	-10.7871
▁istraga	-10.7872
▁Ligu	-10.7874
▁(19	-10.7879
▁ljestvice	-10.7883
▁59	-10.7886
▁Raj	-10.7886
▁zagreba	-10.7889
▁predsjednic	-10.789
▁Križ	-10.7893
▁Hvar	-10.7897
▁Min	-10.79
▁meso	-10.791
▁krene	-10.7912
▁prijavil	-10.7915
▁Frank	-10.7921
▁2013.	-10.7922
▁pozvan	-10.7922
▁učinak	-10.7922
▁producent	-10.7923
▁računal	-10.7927
▁odredb	-10.7927
▁Kaza	-10.7928
▁mjestim	-10.7929
▁tamn	-10.793
▁spas	-10.794
▁smeta	-10.794
▁nastupil	-10.7954
▁gust	-10.7954
zir	-10.7963
▁uslijedil	-10.7965
▁vođenj	-10.7966
injenic	-10.7967
▁troškovi	-10.797
▁direktno	-10.7973
▁2026.	-10.7974
▁Nogometaš	-10.7974
▁DVD	-10.7974
▁dužnosnici	-10.7974
▁James	-10.7974
▁prihvatil	-10.7974
▁Katarin	-10.7974
▁dubin	-10.7976
▁kontekstu	-10.798
▁najjač	-10.7981
▁stvaraju	-10.7981
▁Solin	-10.7985
▁pisan	-10.7985
▁nt	-10.7991
▁obuk	-10.7992
▁organizatori	-10.7992
▁Novom	-10.7993
▁primil	-10.7997
nijeti	-10.7998
ult	-10.8
▁nužno	-10.8001
▁rijeke	-10.8001
▁Ond	-10.8008
▁vele	-10.8008
▁Sab	-10.8013
▁Sanj	-10.8013
▁kupuj	-10.8017
▁ograni	-10.8022
logiju	-10.8025
ett	-10.8027
▁2011.	-10.8027
▁nezavisn	-10.8027
▁polufinale	-10.8027
▁uzbudljiv	-10.8027
▁knjižnic	-10.8027
▁tramvaj	-10.8027
▁kafić	-10.8027
▁preprek	-10.8028
▁gubitak	-10.803
▁pacijenti	-10.8031
▁otvoriti	-10.8034
▁okonča	-10.8036
hor	-10.8053
▁izložen	-10.8062
▁Rekl	-10.8071
▁Dar	-10.8072
▁ostaju	-10.8074
▁EPPO	-10.808
▁krumpir	-10.808
▁pacijenata	-10.808
▁navrata	-10.808
▁obrazovn	-10.8081
▁postići	-10.8082
▁Angeles	-10.8082
▁kamera	-10.8083
▁Kost	-10.8091
▁68	-10.8095
▁izjavi	-10.8099
▁nicu	-10.8101
▁košarkaš	-10.8103
▁svladal	-10.8107
▁korisnici	-10.8107
▁filmova	-10.8107
▁slabij	-10.8109
▁dose	-10.8111
▁iransk	-10.8118
▁Stat	-10.812
▁ističk	-10.8124
▁svjedok	-10.8126
▁titul	-10.813
▁Sigurno	-10.8131
▁rekonstrukcij	-10.8134
▁BBC	-10.8134
▁prosjeku	-10.8134
▁zaustaviti	-10.8135
▁ukloni	-10.8135
▁Pritom	-10.8136
▁preokret	-10.8139
▁Aleksand	-10.8142
▁Andrij	-10.8144
▁vjern	-10.8144
▁navijače	-10.8145
▁tražil	-10.8148
▁hod	-10.8149
▁stavil	-10.8149
▁Imat	-10.8154
▁ostaviti	-10.8156
▁sljede	-10.8164
▁Bil	-10.817
▁osiguranja	-10.8173
vol	-10.8175
▁utvrđen	-10.8177
▁Liverpool	-10.8188
▁ugrožen	-10.8188
▁doživio	-10.8188
▁podijeljen	-10.8188
▁žestok	-10.8188
▁boc	-10.8193
▁Open	-10.8195
▁Mladen	-10.8198
▁stoje	-10.8199
▁zaposlenici	-10.8201
▁opravda	-10.8201
▁Čini	-10.8206
▁Alen	-10.8208
▁Jakov	-10.8213
▁zastupnici	-10.8218
▁sestre	-10.8219
▁toplinsk	-10.822
alost	-10.8223
▁gledali	-10.8223
▁priključ	-10.8231
▁far	-10.8231
▁pratil	-10.8232
▁Rog	-10.824
▁Michael	-10.8242
▁Raspudić	-10.8242
▁procedur	-10.8242
▁žrtava	-10.8242
▁poremećaj	-10.8242
▁procijeni	-10.8242
▁Muzej	-10.8242
▁obnove	-10.8242
▁Važno	-10.8242
▁odrasta	-10.8242
okol	-10.8246
▁općina	-10.8246
▁aktivira	-10.8261
▁kontinuirano	-10.8276
▁poslal	-10.8279
▁pomak	-10.8285
▁Modri	-10.8288
▁upozoravaju	-10.829
LI	-10.8292
▁Institut	-10.8296
▁Varteks	-10.8296
▁neprijatelj	-10.8296
▁reprezentaciji	-10.8296
▁zadržati	-10.8296
▁neočekivan	-10.8296
▁vitamin	-10.8296
▁Rakitić	-10.8296
▁očekival	-10.8296
▁sudionici	-10.8296
rušen	-10.8297
▁troši	-10.8298
▁pozira	-10.8298
▁VAR	-10.83
▁razmišljanj	-10.8301
▁multi	-10.8303
▁plasira	-10.8304
▁Vas	-10.8304
▁kazni	-10.8308
▁otkriti	-10.8308
▁brać	-10.8311
ness	-10.8318
▁četvero	-10.8323
▁konj	-10.834
▁isprav	-10.8347
▁prisjeti	-10.835
▁nezakonit	-10.8351
▁pogrešn	-10.8351
Cropix	-10.8351
▁Bjelovar	-10.8351
▁ikakv	-10.8351
▁rečeno	-10.8351
▁mentor	-10.8351
▁liječenje	-10.8351
▁cijom	-10.8351
▁formu	-10.8353
▁stajal	-10.8354
own	-10.8354
▁Visok	-10.8355
▁zaredom	-10.8355
▁zaboraviti	-10.8361
▁popravi	-10.8365
ažen	-10.8366
▁87	-10.8366
▁Petri	-10.8372
▁skuplja	-10.8378
bol	-10.8382
▁smatram	-10.8386
▁Rib	-10.839
▁Des	-10.839
▁pomorsk	-10.8394
▁fenomen	-10.8396
▁ženama	-10.8401
▁Netanyahu	-10.8406
▁liječničk	-10.8406
▁spriječil	-10.8406
▁tamošnj	-10.8407
▁naselja	-10.8409
▁državu	-10.8411
▁sliku	-10.8412
title	-10.8414
▁izdan	-10.8414
▁laga	-10.8416
▁pažnj	-10.8416
▁Blisk	-10.8422
▁stoper	-10.843
▁Španjolsk	-10.8432
▁posudb	-10.8437
▁košarkašk	-10.8437
▁karijer	-10.8449
▁nske	-10.8458
▁Rezultat	-10.8461
▁elektran	-10.8461
▁koncept	-10.8461
▁Italija	-10.8461
▁pomažu	-10.8461
▁Baturin	-10.8461
▁šansu	-10.8461
▁zaljubljen	-10.8461
▁učinio	-10.8461
▁veznjak	-10.8461
▁registriran	-10.8462
▁uništen	-10.8462
▁liga	-10.8463
▁pružit	-10.8463
dakle	-10.8464
▁Franjo	-10.8465
▁spasil	-10.8474
▁Kamal	-10.8488
▁sporn	-10.849
▁bave	-10.8503
▁Alb	-10.8512
▁progovori	-10.8516
▁indeks	-10.8516
▁objavljuj	-10.8516
▁Sopić	-10.8516
▁knjigu	-10.8517
▁Turističk	-10.8517
▁Barbar	-10.852
▁donesen	-10.8523
▁Istri	-10.8525
▁mišić	-10.8526
▁fantastičn	-10.8529
▁spot	-10.8535
▁Mostar	-10.854
▁opisuj	-10.8549
▁valj	-10.8558
▁udjel	-10.8566
▁naredn	-10.8568
▁inteligencije	-10.8572
▁postupku	-10.8572
▁Istaknu	-10.8572
▁časopis	-10.8572
▁ciljeve	-10.8574
▁umrl	-10.8578
▁plaću	-10.8581
▁Hal	-10.8583
▁doznajemo	-10.8584
▁startu	-10.8585
▁Lucija	-10.8588
▁boksač	-10.8589
težak	-10.8599
▁pozivaju	-10.8602
▁spol	-10.8605
▁vara	-10.8615
▁formi	-10.8616
▁okolic	-10.8625
▁dugotrajn	-10.8628
▁ofenziv	-10.8628
▁ožujku	-10.8628
▁spominje	-10.8628
▁invazij	-10.8628
▁prihvatiti	-10.8628
▁zadužen	-10.8628
▁lokacije	-10.8628
▁izvještaj	-10.8629
▁kamere	-10.8629
▁emitira	-10.863
▁rukav	-10.8631
uzeo	-10.8632
▁iznenađenje	-10.8637
▁kuhar	-10.8644
▁stvoril	-10.8648
▁Pil	-10.8652
▁predjel	-10.8654
▁čan	-10.8656
▁korisnicima	-10.8657
▁formira	-10.8658
▁Air	-10.8664
▁stranaka	-10.8672
▁posud	-10.8673
▁kućanst	-10.8676
▁karte	-10.8677
▁blagdansk	-10.8681
▁NACIONAL	-10.8685
▁agresivn	-10.8685
▁obavještajn	-10.8685
▁mađarsk	-10.8685
▁istraživač	-10.8686
▁izvješću	-10.8687
▁postupanj	-10.8687
▁sudbin	-10.8687
▁ciljeva	-10.8687
▁obiln	-10.8688
▁kreću	-10.8688
▁Rat	-10.8689
▁dim	-10.869
▁Ger	-10.8691
▁postojanj	-10.8695
▁osvje	-10.8698
▁planove	-10.87
▁Slovačk	-10.87
▁sviđa	-10.8704
▁VI	-10.8704
▁zahval	-10.8712
▁Max	-10.8713
▁naglas	-10.8724
▁Nacional	-10.8726
▁tisu	-10.8729
▁kolegama	-10.8732
▁sudjelovat	-10.8732
▁kant	-10.8736
▁skr	-10.8739
▁Jadransk	-10.8739
▁originaln	-10.8742
▁plod	-10.8742
▁mirovina	-10.8742
▁Zvonimir	-10.8742
▁olujn	-10.8742
▁oduzet	-10.8743
▁intimn	-10.8744
▁tužb	-10.8744
▁otvor	-10.8745
▁Maksimir	-10.8747
▁djelovanja	-10.8748
▁Bojan	-10.8752
▁dobrobit	-10.8752
▁pečen	-10.8752
▁prilago	-10.8761
▁78	-10.8762
učava	-10.8764
▁brže	-10.8765
▁kriti	-10.8765
▁projektima	-10.8766
▁aktivnost	-10.8768
ping	-10.8772
▁upozoril	-10.8774
▁internetsk	-10.8774
▁godišnjic	-10.8777
▁Zagor	-10.8779
▁postavljanj	-10.8781
▁učinkovitost	-10.8781
▁preuzet	-10.8781
▁doznaje	-10.8787
▁lijek	-10.8792
▁Bell	-10.8793
▁jači	-10.8797
▁Primjerice	-10.8799
▁lokaciji	-10.8799
▁najpopularnij	-10.8799
▁željezničk	-10.8799
▁mirovinsk	-10.8799
▁raznolik	-10.8799
▁Livaja	-10.88
▁pokriva	-10.8802
▁procjenjuj	-10.8802
▁74	-10.8804
▁polako	-10.8807
▁donacij	-10.8809
▁1,5	-10.8809
▁Razl	-10.8811
▁poduzet	-10.8829
▁biračk	-10.883
▁nasmija	-10.8831
▁Marić	-10.8839
▁derbiju	-10.8839
▁84	-10.8842
▁jeftinij	-10.8843
▁oštećenj	-10.8843
▁uništi	-10.8848
▁borben	-10.8849
▁planet	-10.8852
▁obale	-10.8855
▁izgubljen	-10.8856
▁natjecanjima	-10.8856
▁Norvešk	-10.8856
▁pripadnici	-10.8856
▁omogućava	-10.8856
▁ispunjava	-10.8856
▁Miroslav	-10.8856
▁suradnik	-10.8857
▁naprijed	-10.8858
▁režij	-10.886
▁zajedni	-10.8871
▁slave	-10.8873
ljuje	-10.8886
▁brine	-10.8895
▁prikazan	-10.8903
▁oboje	-10.8904
▁lošk	-10.8909
▁Božj	-10.891
▁vratima	-10.8911
▁Ukrajinsk	-10.8914
▁industrijsk	-10.8914
▁sredstvima	-10.8914
▁BDP	-10.8914
▁surađiva	-10.8914
▁utrci	-10.8914
▁ambicij	-10.8914
▁Makarsk	-10.8914
▁prvoligaš	-10.8915
▁prekri	-10.8917
▁IT	-10.8921
▁ekstremn	-10.8923
▁šalje	-10.893
▁aktivnostima	-10.8934
▁pranj	-10.8941
▁Kasni	-10.8944
okret	-10.8948
▁Auto	-10.8951
▁isključen	-10.8958
▁bun	-10.896
▁uzrokuj	-10.8961
▁poštovanje	-10.8966
▁boks	-10.8966
▁rezultira	-10.8967
ekivan	-10.8967
ološki	-10.8969
▁inzistira	-10.8972
▁Vozač	-10.8972
▁posjetitelje	-10.8972
▁Anđel	-10.8973
▁stupanj	-10.8973
▁pratnj	-10.8974
▁srcu	-10.8974
▁stajališt	-10.8975
▁brzine	-10.8978
▁tvari	-10.8979
▁Mislav	-10.8981
stodobno	-10.8981
▁pojavljuj	-10.8983
▁Nikolin	-10.8983
▁čudo	-10.8984
▁priznati	-10.8984
▁Adri	-10.8985
▁aktiv	-10.8994
▁strast	-10.8997
▁tivn	-10.9002
▁Napad	-10.9002
▁Matej	-10.9005
▁Nemoj	-10.9009
aily	-10.901
vjestan	-10.9011
▁nska	-10.9015
▁desnic	-10.9022
▁95	-10.9026
▁potvrđen	-10.9031
▁Škotsk	-10.9031
▁posjetitelja	-10.9031
▁virus	-10.9031
▁inovativn	-10.9031
▁konačnici	-10.9031
▁Gruzij	-10.9031
▁pobjednic	-10.9031
▁Lijep	-10.9033
▁kostim	-10.9035
▁Petrović	-10.9036
▁pijan	-10.9041
IN	-10.9058
▁71	-10.9058
▁MA	-10.9061
▁Americi	-10.9063
▁obilježava	-10.907
▁Rob	-10.9082
▁Bruxelles	-10.909
▁invaliditetom	-10.909
▁oporavak	-10.909
▁promovira	-10.909
▁pretjeran	-10.909
▁firm	-10.909
▁trgova	-10.9095
▁kosu	-10.9095
▁Obitelj	-10.9097
▁savjetnik	-10.91
▁pušta	-10.9104
▁Renat	-10.9106
▁cijenama	-10.9108
▁poveza	-10.9109
▁manjina	-10.9111
▁Pjac	-10.9113
▁normal	-10.9113
▁politici	-10.9114
▁pružanj	-10.9119
▁ligu	-10.912
▁ostatk	-10.913
▁pap	-10.9143
▁prihvaća	-10.9149
▁Domagoj	-10.9149
▁Uskrs	-10.9149
▁recimo	-10.9149
▁emocija	-10.9149
▁Češk	-10.915
▁Jasn	-10.9151
▁trenutn	-10.9151
▁primarn	-10.9152
juće	-10.9152
▁Hitn	-10.9152
▁snazi	-10.916
▁Počet	-10.9161
▁poslovi	-10.9163
pir	-10.9163
▁Puli	-10.9164
▁Kap	-10.9164
▁maslinov	-10.9182
▁gitar	-10.9182
crt	-10.9187
▁prestan	-10.9194
▁utakmicama	-10.9194
▁podjel	-10.9197
▁pisanj	-10.9202
▁potreban	-10.9203
▁psiho	-10.9204
▁prihvatljiv	-10.9208
▁Komisij	-10.9208
▁priušti	-10.9208
▁oglas	-10.9209
▁krize	-10.9209
▁Hajdukov	-10.9209
▁vatre	-10.9211
▁Sigur	-10.9212
▁bliza	-10.9215
Kad	-10.9218
▁odnosima	-10.922
▁dodatak	-10.9227
▁generacij	-10.9227
miješajte	-10.9228
▁bijes	-10.9241
▁nijedn	-10.9244
▁stranice	-10.925
▁utvrdil	-10.9257
▁Laur	-10.9257
▁davn	-10.9258
▁poljsk	-10.9263
▁utvrdi	-10.9266
▁Taylor	-10.9268
=	-10.9268
▁kolovozu	-10.9268
▁MUP	-10.9268
▁objekata	-10.9268
▁namirnica	-10.9268
▁dodavši	-10.9268
▁700	-10.9269
▁Chris	-10.927
▁nikoga	-10.927
▁upozorenja	-10.9271
▁izjavu	-10.9271
▁probudi	-10.9272
▁ljubi	-10.9273
▁pravde	-10.9273
Brak	-10.9274
▁zajedništv	-10.9274
▁Flor	-10.9282
▁prepun	-10.9287
▁vagi	-10.9288
▁kupio	-10.9294
▁svjesn	-10.9296
▁Mac	-10.9297
▁fl	-10.9303
▁glad	-10.9304
▁izbjegli	-10.9311
▁izvođenj	-10.9312
▁dovoljn	-10.9317
▁Napo	-10.9321
▁kontaktira	-10.9326
▁najam	-10.9326
▁inspekcij	-10.9328
▁kandidira	-10.9328
▁kolekcij	-10.9328
▁reprezentativc	-10.9328
▁Horvat	-10.9328
▁policajci	-10.9328
▁prevencij	-10.9329
▁utrka	-10.9329
▁pretvara	-10.9329
▁dođ	-10.9329
phi	-10.9331
▁partnerima	-10.9334
▁odluk	-10.9335
▁koleg	-10.9338
▁umro	-10.9351
▁popust	-10.9355
▁krun	-10.9359
▁pripremiti	-10.9372
▁utvr	-10.9378
▁dvadeset	-10.9383
▁povećat	-10.9384
▁dijagnoz	-10.9389
▁najbliž	-10.9389
▁općenito	-10.9389
▁spremna	-10.9389
▁stanovnici	-10.9389
▁poručuje	-10.9389
▁povezuje	-10.9389
▁boravak	-10.9389
▁Rijeku	-10.9389
▁Anušić	-10.9389
▁suradnja	-10.9389
▁čaš	-10.9392
▁Gornj	-10.9393
▁tjera	-10.9393
▁Osje	-10.9396
▁omogu	-10.9398
▁Željk	-10.9401
▁očekujem	-10.9406
▁tragičn	-10.9411
▁98	-10.9415
SS	-10.9416
▁800	-10.9435
▁vodil	-10.9437
▁dozvola	-10.945
▁nadoknadi	-10.945
▁ugostiteljsk	-10.945
▁Butković	-10.945
▁uspjeti	-10.945
▁zabavlja	-10.945
▁pretež	-10.9451
▁kombi	-10.9453
▁Rak	-10.9458
▁sudačk	-10.9463
▁redovit	-10.9464
▁mesa	-10.9465
lagati	-10.9466
info	-10.9467
▁žal	-10.9468
▁Konferencijsk	-10.9475
▁odgovorila	-10.9483
▁Darko	-10.9488
▁predstavil	-10.9488
palio	-10.9492
▁kolegic	-10.9492
▁makar	-10.9498
ficir	-10.9502
▁DHMZ	-10.9511
▁akciji	-10.9511
▁naknade	-10.9511
▁oslobodi	-10.9511
▁pomisli	-10.9511
▁smisla	-10.9511
▁uzrokovati	-10.9511
▁izdvaja	-10.9512
▁obveze	-10.9512
▁Agencij	-10.9512
▁dublj	-10.9512
▁razvijen	-10.9513
▁suveren	-10.9513
▁Protiv	-10.9514
▁kultn	-10.9514
▁predivn	-10.9518
▁fotografira	-10.9519
▁skupinu	-10.952
▁kose	-10.952
▁odgovarajuć	-10.9522
▁osjećam	-10.9525
▁Knin	-10.953
▁knji	-10.9534
▁Odjel	-10.9536
dovoljan	-10.9538
▁odabran	-10.954
▁faza	-10.9542
▁jasan	-10.9543
▁glasanj	-10.9544
▁đi	-10.9551
pitan	-10.9552
▁Dori	-10.9556
▁Mnog	-10.9558
▁odavn	-10.9561
▁članov	-10.9561
▁odgovoriti	-10.9571
▁dozvole	-10.9573
▁Valentin	-10.9573
▁opušten	-10.9573
▁potrazi	-10.9573
▁obožavatelji	-10.9573
▁obilježil	-10.9574
▁talentiran	-10.9576
▁Vodi	-10.9577
ključiti	-10.9581
▁pokazatelj	-10.9584
▁uvođenje	-10.959
▁kotar	-10.9593
▁83	-10.9594
▁99	-10.9594
▁jedinice	-10.9603
▁tank	-10.9608
▁radove	-10.961
▁toplin	-10.9616
▁industriji	-10.9635
▁privukl	-10.9635
▁osmijeh	-10.9635
▁prevezen	-10.9635
▁svojevrsn	-10.9635
▁potroša	-10.9635
▁emocije	-10.9636
▁kršenj	-10.9636
▁pravedn	-10.9636
▁neposredno	-10.9641
▁Imal	-10.9644
▁Kralj	-10.9645
▁prijaviti	-10.9653
▁luci	-10.9654
▁ojača	-10.9654
▁Zadnj	-10.9655
▁brut	-10.9657
▁izazvat	-10.966
▁čudi	-10.9669
▁napuni	-10.9669
▁aktivist	-10.9669
▁proglasi	-10.9676
▁Francuskoj	-10.968
▁zapošljava	-10.9689
uška	-10.969
▁navodn	-10.9693
▁Republic	-10.9698
▁Sindikat	-10.9698
▁nedostatak	-10.9698
▁tranzicij	-10.9698
▁pištolj	-10.9698
▁2009.	-10.9698
▁Otvoren	-10.9698
▁prelazi	-10.9698
IJE	-10.9698
▁Član	-10.97
▁drže	-10.9711
▁69	-10.9711
▁podatak	-10.9716
▁borac	-10.9723
kratko	-10.9726
▁News	-10.9729
▁DJ	-10.9729
▁pokušat	-10.9733
▁Mata	-10.9734
▁djed	-10.9738
▁ideju	-10.9738
▁Majk	-10.975
▁napao	-10.9756
▁ozbiljnij	-10.9756
▁prehramben	-10.9761
▁zadovolji	-10.9761
▁kolodvor	-10.9761
▁pozornici	-10.9761
▁regija	-10.9761
▁smiju	-10.9761
▁Dol	-10.9767
▁zadovoljn	-10.9767
▁spomenik	-10.9772
▁stanovnik	-10.9779
▁odlučn	-10.9783
▁nastupio	-10.9789
▁Gorice	-10.9789
ON	-10.979
lijep	-10.9801
Sve	-10.9803
▁radnje	-10.9808
▁slučajno	-10.9809
▁Slobod	-10.9811
▁preuzel	-10.982
á	-10.9824
▁Vrhovn	-10.9824
▁konzumacij	-10.9824
▁neizvjesn	-10.9824
▁Pašalić	-10.9824
▁dostojanstv	-10.9824
▁utrku	-10.9824
▁nervoz	-10.9824
▁običaj	-10.9824
▁gospođ	-10.9824
▁Voyo	-10.9825
▁dokumentarn	-10.9825
▁kampanja	-10.9827
▁prag	-10.9827
ustav	-10.9828
▁rukometaš	-10.9829
▁kave	-10.983
▁Dario	-10.983
▁brojke	-10.9835
▁Rasp	-10.9835
▁Saš	-10.984
▁obilježavanj	-10.9846
▁prisutnost	-10.9848
▁visini	-10.9849
▁Gorsk	-10.9849
▁izać	-10.9855
▁šalic	-10.9862
▁omogući	-10.9864
▁nasiln	-10.9872
▁umjetnic	-10.9874
▁Izbor	-10.9878
zmu	-10.9879
▁smiri	-10.9886
▁iznenadil	-10.9886
▁novosti	-10.9887
▁UEFA	-10.9888
▁obračun	-10.9888
▁poginulo	-10.9888
▁pravosuđa	-10.9888
▁sveučilišt	-10.9888
▁potražnj	-10.9888
▁uklanjanj	-10.9888
▁crkvi	-10.9888
▁namirnice	-10.9888
▁odustaj	-10.9888
▁snimku	-10.9888
▁životinje	-10.989
▁vještine	-10.9891
▁odabral	-10.9892
▁posred	-10.9898
▁dvij	-10.9905
▁prostorima	-10.9913
▁fotografij	-10.9914
▁metra	-10.992
vlače	-10.9922
▁demokrat	-10.9923
▁lošij	-10.9934
▁Ros	-10.9942
▁signal	-10.9949
▁konzerv	-10.9951
ö	-10.9952
▁Podravk	-10.9952
▁poslodavc	-10.9952
▁akademij	-10.9952
▁dramatičn	-10.9952
▁površina	-10.9952
▁efekt	-10.9952
▁pluć	-10.9952
▁skriven	-10.9952
▁ovlasti	-10.9952
▁rasprava	-10.9952
▁poticanj	-10.9954
▁prodan	-10.9957
▁nost	-10.9958
▁rekordn	-10.9959
▁nedavn	-10.9974
▁Joško	-10.9978
▁Izraelsk	-10.9987
src	-10.9987
kninsk	-10.9991
▁Mladost	-10.9996
▁propustit	-10.9999
▁klin	-11.001
etvrtak	-11.0011
▁plaćanja	-11.0015
▁raspolaganju	-11.0016
▁upućen	-11.0016
▁poginuo	-11.0016
▁tretman	-11.0016
▁Vedran	-11.0016
▁kultura	-11.0016
▁izvješće	-11.0016
▁glup	-11.0017
▁odobri	-11.0017
▁scenu	-11.0018
▁Orban	-11.0018
▁živimo	-11.0019
▁parking	-11.0021
ller	-11.0029
▁partneric	-11.0036
▁agent	-11.004
unarodn	-11.0042
▁MO	-11.0044
▁vaterpol	-11.0049
▁umirovljen	-11.0068
▁praktičn	-11.0073
▁kavu	-11.0079
minira	-11.008
▁Gradonačelni	-11.0081
▁Međimurj	-11.0081
▁integracij	-11.0081
▁Kalinić	-11.0081
▁pretrag	-11.0081
▁podržat	-11.0082
▁Dodik	-11.0084
▁sramot	-11.0086
▁komentirati	-11.0087
▁zdravstvo	-11.0087
▁provođenj	-11.0088
tječu	-11.009
▁glava	-11.0091
▁zajednici	-11.0094
▁mislil	-11.0105
etku	-11.0105
▁zatvaranj	-11.0106
▁partij	-11.0112
▁zone	-11.0121
▁temp	-11.0123
▁specijal	-11.0127
▁važnij	-11.0137
▁Djec	-11.0143
▁NO	-11.0144
▁hibrid	-11.0146
▁ponedjeljka	-11.0146
▁televiziji	-11.0146
▁biznis	-11.0147
▁podigl	-11.0149
▁potiče	-11.015
▁spasio	-11.0151
▁Vink	-11.0153
▁dopust	-11.0155
▁Matić	-11.0157
▁seriju	-11.0158
▁izvrši	-11.0164
▁Zapadn	-11.0165
▁neslužben	-11.0174
▁koncu	-11.0176
▁načel	-11.018
▁sunca	-11.0184
▁Srbiju	-11.0187
▁Pep	-11.0189
▁nastaj	-11.019
▁okoln	-11.0197
rijetko	-11.0205
▁junior	-11.021
▁Odgovor	-11.0212
▁figur	-11.0212
▁gimnazij	-11.0212
▁regulira	-11.0212
▁shvaća	-11.0212
▁započinj	-11.0212
▁mišljenja	-11.0212
▁postizanj	-11.0212
▁obnovu	-11.0212
▁isproba	-11.0212
▁Miloš	-11.0216
▁brzinu	-11.0216
▁bek	-11.0224
▁stekl	-11.0225
▁88	-11.023
▁79	-11.0232
Plus	-11.0236
▁zval	-11.0236
▁77	-11.0238
OL	-11.0243
▁stavov	-11.0243
▁člank	-11.0244
▁osv	-11.0248
▁istraživanj	-11.0254
vlada	-11.0256
▁You	-11.0258
▁iskoristil	-11.026
▁glumic	-11.0262
▁kle	-11.0262
▁jutra	-11.0268
▁preporuč	-11.0276
▁Španjolc	-11.0278
▁1:0	-11.0279
▁Advent	-11.0279
▁podignut	-11.0279
▁Pavić	-11.0279
▁Vlah	-11.0279
▁ljevic	-11.028
▁Spomen	-11.0287
▁Ostal	-11.029
izacije	-11.0296
▁droge	-11.0296
▁pića	-11.0297
▁birači	-11.0306
▁temeljn	-11.0306
▁Volim	-11.0308
▁Mato	-11.0313
▁definira	-11.0321
▁izgubiti	-11.0324
▁istinu	-11.0327
▁droga	-11.0331
▁Mogl	-11.0332
▁okolnostima	-11.0333
▁Dnevn	-11.0341
▁hlad	-11.0345
▁Tuđman	-11.0345
▁genocid	-11.0345
▁informira	-11.0345
▁menadžer	-11.0345
▁volonter	-11.0345
▁naknadn	-11.0345
▁molitv	-11.0345
▁kazališn	-11.0346
▁izvještava	-11.0346
▁Rusiju	-11.0346
▁bračn	-11.0351
▁kupova	-11.0352
▁vještina	-11.0352
▁zdravlju	-11.0352
▁dodir	-11.0352
▁Kina	-11.036
▁istinsk	-11.0363
▁njegu	-11.0365
▁napustil	-11.0367
▁81	-11.0371
▁Nijemc	-11.0372
▁najmanj	-11.0373
▁voljel	-11.0381
▁stvorit	-11.0382
▁kvalifikacija	-11.0385
▁preuzimanj	-11.0387
▁play	-11.0407
▁obožava	-11.0412
▁identificira	-11.0412
▁komercijaln	-11.0412
▁populacij	-11.0412
▁mode	-11.0412
▁Dončić	-11.0413
▁raspolo	-11.0413
▁galerij	-11.0414
▁građansk	-11.0415
▁spoln	-11.0417
▁slučajevima	-11.0423
▁kompletn	-11.0429
▁kritika	-11.0433
▁proizvodnja	-11.0438
▁običn	-11.0438
▁promjenama	-11.0449
▁isklju	-11.0451
▁saveznik	-11.0469
▁Vis	-11.0473
▁republik	-11.0478
voljno	-11.0478
▁Dubravk	-11.048
▁centimetara	-11.048
▁industrija	-11.048
▁inspiracij	-11.048
▁objasniti	-11.048
▁četvrtfinale	-11.048
▁stražnj	-11.048
▁2010.	-11.048
▁Građani	-11.048
▁2008.	-11.048
▁obavezn	-11.048
▁čišćenje	-11.0481
▁Primorc	-11.0481
▁promjenjiv	-11.0481
▁prijetnja	-11.0481
▁ozlijedio	-11.0481
▁unutra	-11.0481
nstva	-11.0482
▁gorj	-11.0493
▁Neće	-11.0493
▁izvodi	-11.0493
▁grčk	-11.0494
▁razmjer	-11.0495
▁Video	-11.05
▁Vesn	-11.0502
▁otkrivanj	-11.0502
▁smanjil	-11.0507
▁Španjolskoj	-11.0512
▁imenom	-11.0514
▁zoni	-11.0518
▁ostvarenj	-11.0524
▁učitelj	-11.0539
▁direkt	-11.0544
▁adekvatn	-11.0548
▁drukčij	-11.0548
▁funkciju	-11.0548
▁oslobođen	-11.0548
▁regulacij	-11.0548
▁sponzor	-11.0548
▁Medved	-11.0548
▁višestruk	-11.0548
▁2006.	-11.0548
▁liberal	-11.0548
▁fotk	-11.0548
▁uspijeva	-11.0548
▁Večernji	-11.0551
▁travnjak	-11.0551
▁skromn	-11.0558
▁Bačić	-11.0567
▁Ispr	-11.057
▁jeseni	-11.0574
▁pokaž	-11.0577
▁specijaln	-11.0581
▁dogovoren	-11.0589
▁priznaje	-11.0592
▁igračk	-11.0603
▁intern	-11.0614
▁Mjesec	-11.0616
▁Ukrajinc	-11.0616
▁druženje	-11.0616
▁nezaboravn	-11.0616
▁zarobljen	-11.0616
▁švedsk	-11.0616
▁poručuju	-11.0616
▁mozga	-11.0616
▁plastičn	-11.0616
▁rasprave	-11.0617
▁foto	-11.0617
▁resor	-11.0617
▁Dječj	-11.0617
▁prirodi	-11.0617
▁nesretn	-11.0619
▁sjedal	-11.062
▁divn	-11.062
▁ribar	-11.0626
▁nastoji	-11.063
▁2,5	-11.0633
▁Brojn	-11.0639
▁okruženju	-11.0651
▁sobe	-11.0652
▁robot	-11.0669
▁gostova	-11.0673
▁zvijezd	-11.0675
▁modu	-11.0677
▁Angel	-11.0684
▁doživljaj	-11.0685
▁naoružan	-11.0685
▁razmatra	-11.0685
▁poražen	-11.0685
▁Macron	-11.0685
križevačk	-11.0686
▁vidjet	-11.0686
▁prilagodb	-11.0686
▁Tvrd	-11.0686
▁srebrn	-11.0686
▁terorističk	-11.0686
▁heroj	-11.0686
▁saznanj	-11.0688
▁Zahvaljuju	-11.0688
▁Mail	-11.0688
▁uzgoj	-11.069
▁Znači	-11.0698
▁Žup	-11.0701
▁Antun	-11.0712
dajući	-11.0715
▁?!	-11.0718
▁krivnj	-11.0724
▁testira	-11.0726
▁kiselin	-11.0727
▁prigodn	-11.0735
▁glasal	-11.0745
▁lokal	-11.0752
▁kontinent	-11.0754
▁najuspješnij	-11.0755
▁Dortmund	-11.0755
▁poluvremena	-11.0755
▁uzastopn	-11.0755
▁ostvaruj	-11.0755
▁dodijeli	-11.0755
▁prestižn	-11.0755
▁vrijeđa	-11.0755
▁PDV	-11.0755
▁sačuva	-11.0755
▁otkup	-11.0755
▁finaln	-11.0756
▁potpisuj	-11.0756
▁staze	-11.0757
▁uhitil	-11.0757
▁podupir	-11.0757
▁protein	-11.0757
▁prošlogodišnj	-11.0759
▁granicu	-11.0759
▁kinj	-11.0761
▁okrenut	-11.0762
▁sanacij	-11.0765
▁benzinsk	-11.0766
▁plakat	-11.077
▁pretrp	-11.0771
▁kupljen	-11.0772
▁Poseb	-11.0774
▁stao	-11.0778
▁ozljed	-11.0785
▁presudi	-11.0785
▁ispriča	-11.0787
▁bacanj	-11.0792
▁malen	-11.0793
▁odradil	-11.0804
▁traum	-11.0806
▁raspoloženj	-11.0809
▁Kakv	-11.081
▁urednik	-11.0824
▁rukometn	-11.0824
▁demografsk	-11.0825
▁relevantn	-11.0825
▁pozornicu	-11.0825
▁trbuh	-11.0825
▁2:0	-11.0825
▁najdraž	-11.0825
▁vizualn	-11.0825
▁prezime	-11.0825
▁Zapravo	-11.0825
▁zrel	-11.0829
▁prozva	-11.0829
▁Boban	-11.083
▁Čeka	-11.0832
▁ubija	-11.0833
▁savjetuje	-11.0834
▁rodila	-11.0834
trča	-11.0836
▁naselje	-11.0837
▁priznanja	-11.084
▁Sučić	-11.0842
▁Marković	-11.0845
▁prevelik	-11.0848
▁preuzima	-11.0851
▁članstv	-11.0856
▁popularnost	-11.0863
▁Neven	-11.0864
▁Priča	-11.0865
▁kršćansk	-11.0871
▁Upravn	-11.0872
▁osjetil	-11.0873
▁rutin	-11.0873
▁profesional	-11.0886
▁tenisk	-11.0886
▁sposobn	-11.0888
▁rukomet	-11.0893
▁Kini	-11.0893
▁Barcelona	-11.0895
▁Leipzig	-11.0895
▁Salzburg	-11.0895
▁ravnotež	-11.0895
▁atentat	-11.0895
▁Sarajevu	-11.0895
▁postignut	-11.0895
▁maslac	-11.0895
▁Kremlj	-11.0896
▁Alex	-11.0896
▁pokraj	-11.0898
▁kolač	-11.0903
▁Austral	-11.0911
▁Amerike	-11.0922
▁navika	-11.0925
▁zvan	-11.0925
▁privla	-11.0928
uškarac	-11.0947
▁vrši	-11.0956
▁praćenj	-11.0961
▁Vatrogas	-11.0966
▁Elizabet	-11.0966
▁institut	-11.0966
▁prikupljen	-11.0966
▁spominja	-11.0966
▁Direkt	-11.0966
▁Roditelj	-11.0966
▁staklen	-11.0966
▁transport	-11.0967
greb	-11.0967
▁Šarić	-11.0967
▁zabave	-11.0967
▁kupovin	-11.0968
▁minus	-11.0968
▁stvoren	-11.097
▁utjecal	-11.0973
▁podnijeti	-11.0974
▁likovn	-11.0975
nemojte	-11.0977
▁voća	-11.0978
▁povećal	-11.0978
▁presuda	-11.0979
prkos	-11.0983
▁nikak	-11.0986
▁Musk	-11.0988
▁All	-11.0996
▁šeta	-11.0998
▁82	-11.1
▁oporbe	-11.1007
▁pojm	-11.1008
▁brojev	-11.1011
▁000	-11.1027
▁posjetil	-11.1034
▁iskustv	-11.1034
▁Saudijsk	-11.1037
▁Torcid	-11.1037
▁administracij	-11.1037
▁trideset	-11.1037
▁varijant	-11.1037
▁zona	-11.1038
▁Nicol	-11.1039
▁suradnic	-11.104
▁ljubimc	-11.1041
▁ramp	-11.105
▁faze	-11.1054
▁žiri	-11.1055
▁tolik	-11.1063
▁privlači	-11.1065
▁zastupnic	-11.1068
▁zaustavlja	-11.1068
▁sobi	-11.109
▁carin	-11.1104
sudio	-11.1105
▁zaustavil	-11.1108
▁Ludbreg	-11.1109
▁koalicije	-11.1109
▁studenata	-11.1109
▁ozbiljan	-11.1109
▁pobjedničk	-11.1109
▁oružan	-11.1109
▁pozadin	-11.1109
▁psihološk	-11.1109
▁studira	-11.1109
▁vijećnic	-11.111
▁imovinsk	-11.111
▁ugrozi	-11.111
▁Slavonsk	-11.1115
▁Baj	-11.1118
▁Zlat	-11.1133
▁uspon	-11.1141
▁Finsk	-11.1142
▁zamijenit	-11.1149
▁Step	-11.1156
▁fotograf	-11.1157
▁gradit	-11.1161
▁ovsk	-11.1164
▁pil	-11.1169
▁voza	-11.1174
▁koalicijsk	-11.1182
▁podrazumijeva	-11.1182
▁autentičn	-11.1182
▁svlačionic	-11.1182
▁pomogao	-11.1182
▁izražava	-11.1182
▁ukidanj	-11.1182
▁kviz	-11.1182
▁1-1	-11.1182
▁Ran	-11.1183
▁prodajn	-11.1186
▁staza	-11.1186
▁zauzel	-11.1187
▁krajnj	-11.1196
▁tužn	-11.1197
▁suho	-11.1204
▁Roman	-11.1214
▁povoljn	-11.1218
▁izvel	-11.1225
▁simpati	-11.1229
▁Ruž	-11.1233
▁krađ	-11.1238
▁Ljet	-11.1241
▁sok	-11.1242
▁testiranj	-11.1244
▁Petrov	-11.1251
▁dramsk	-11.1252
▁NE	-11.1253
▁kilometr	-11.1255
▁nezadovoljstv	-11.1255
▁približava	-11.1255
▁Stefan	-11.1255
▁Arabij	-11.1255
▁svjetla	-11.1255
▁prljav	-11.1255
▁elitn	-11.1255
▁japansk	-11.1255
▁uređenja	-11.1255
▁Kovačević	-11.1256
▁poduzetnic	-11.1258
▁suđenje	-11.1258
▁Glazben	-11.1259
▁Nagrad	-11.1259
▁zbun	-11.1263
▁nafte	-11.1268
▁krije	-11.1275
▁siln	-11.1286
▁služe	-11.1287
▁Vrl	-11.1288
▁hrabrost	-11.1289
▁Jack	-11.1294
▁otpornost	-11.1296
▁Škol	-11.13
▁Kut	-11.1311
▁Glum	-11.1318
▁kolektivn	-11.1321
▁Tar	-11.1322
▁Studen	-11.1328
▁Jandroković	-11.1328
▁Skupštin	-11.1328
▁YouTube	-11.1328
▁aplikacije	-11.1328
▁desetljećima	-11.1328
▁instrument	-11.1328
▁izbjeći	-11.1328
▁prebivališt	-11.1328
▁reprezentativn	-11.1328
▁Puljak	-11.1328
▁SDSS	-11.1328
▁1961	-11.1328
▁dijalog	-11.1328
▁Tvrtk	-11.1328
▁anketa	-11.1328
▁pažljiv	-11.1328
▁Michel	-11.1328
▁natjera	-11.1329
▁nastave	-11.1329
▁plodov	-11.1329
▁komedij	-11.133
▁napredn	-11.133
▁uređenje	-11.133
▁Ljubljan	-11.1331
▁noćenja	-11.1332
▁širenje	-11.1333
▁vojnik	-11.1333
▁Jones	-11.1337
▁Mlad	-11.1343
▁Četvrt	-11.1349
▁kritičn	-11.1353
▁platn	-11.1354
▁proslavil	-11.1354
▁uputil	-11.1354
ožar	-11.1355
▁Moguć	-11.1362
▁vjersk	-11.1371
010	-11.1372
▁gornj	-11.1374
▁Slova	-11.1376
▁koristil	-11.1384
▁Znate	-11.1386
▁vezn	-11.139
fic	-11.139
▁Thomas	-11.1402
▁izračun	-11.1402
▁odvjetnic	-11.1402
▁postignuć	-11.1402
▁uspješan	-11.1402
▁četvrtfinalu	-11.1402
▁vinograd	-11.1403
▁četvorn	-11.1403
▁Govori	-11.1403
▁odjeću	-11.1403
▁nazval	-11.1404
▁kotač	-11.1405
▁silovanj	-11.1405
▁elektroničk	-11.1407
▁Eurovizij	-11.1407
▁Emil	-11.1408
▁fazu	-11.141
▁saznal	-11.1413
▁jeftin	-11.1425
break	-11.1438
▁trup	-11.1442
▁soba	-11.1442
▁čaj	-11.1446
▁junak	-11.1455
istički	-11.1456
ložio	-11.1457
▁rekl	-11.1464
▁izgubi	-11.1467
▁München	-11.1477
▁Ravnatelj	-11.1477
▁glazba	-11.1477
▁kvalifikacije	-11.1477
▁tinejdžer	-11.1477
▁tradicije	-11.1477
▁projekcij	-11.1477
▁Celtic	-11.1477
▁inženjer	-11.1477
▁usvoji	-11.1477
▁imenovan	-11.1478
▁predstavit	-11.1481
▁format	-11.1489
▁grupi	-11.1496
▁ATP	-11.1497
▁Vuj	-11.1497
▁86	-11.15
▁poklop	-11.1501
▁sumnjiv	-11.1502
▁voljen	-11.1505
▁kvalifikacijama	-11.1507
▁sirov	-11.1507
▁ideal	-11.1509
▁lav	-11.1513
▁objektiv	-11.1515
▁spektakularn	-11.1521
▁magi	-11.1526
▁nogama	-11.1541
dik	-11.1541
▁istok	-11.1543
▁proizvodn	-11.155
▁popodne	-11.1552
▁argument	-11.1552
▁cestovn	-11.1552
▁magistral	-11.1552
▁pretpostavlja	-11.1552
▁Šibensk	-11.1552
▁blagoslov	-11.1552
▁opremu	-11.1552
neretvansk	-11.1552
▁Cibon	-11.1552
▁zbirk	-11.1552
▁nestabiln	-11.1553
▁prestati	-11.1553
▁majku	-11.1553
▁vladu	-11.1554
▁Premier	-11.1554
puh	-11.1555
▁kvalitetnij	-11.1571
▁sjeverozapadn	-11.1576
▁priveden	-11.1581
▁rival	-11.1584
▁obalu	-11.1586
Ljubav	-11.1586
▁vlasnic	-11.1588
▁okrenu	-11.159
▁razumje	-11.16
▁generaln	-11.1606
▁Vjet	-11.1608
▁gostuj	-11.1609
▁opisal	-11.1611
▁zahtjevn	-11.1613
▁slikar	-11.1613
▁prekinu	-11.1621
▁izrazil	-11.1626
▁Budimir	-11.1628
▁cjelokupn	-11.1628
▁nagrađen	-11.1628
▁Arsenal	-11.1628
▁oporavi	-11.1628
▁promicanj	-11.1628
▁pitanjima	-11.1628
▁veteran	-11.1628
▁Opatij	-11.1629
▁Mart	-11.1629
▁kalorij	-11.1629
▁bjež	-11.1629
▁Studij	-11.163
▁glumačk	-11.163
▁preporučuje	-11.163
▁Kopriv	-11.1631
▁Osjeća	-11.1631
▁rakete	-11.1632
▁čelnici	-11.1632
▁knjizi	-11.1633
▁usporedi	-11.1634
▁zabava	-11.1635
▁upisan	-11.1638
▁Vidović	-11.1638
▁kriza	-11.1648
▁autoric	-11.1652
▁kolik	-11.1652
nzul	-11.1654
▁prsten	-11.1659
daleko	-11.1666
▁cijelosti	-11.1667
▁logor	-11.1669
ligaš	-11.167
▁znakovi	-11.1676
▁zabavi	-11.1683
▁ulaganj	-11.1683
▁opravdan	-11.1686
čito	-11.1691
▁objašnjen	-11.1704
▁Vjerojat	-11.1704
▁dodijeljen	-11.1704
▁komentator	-11.1704
▁suglasnost	-11.1704
▁tradiciju	-11.1704
▁1990	-11.1704
▁odlučuju	-11.1704
▁2005.	-11.1705
▁Belupo	-11.1705
▁srčan	-11.1706
▁Šimun	-11.1707
▁maknu	-11.1707
▁pripremljen	-11.1709
▁garaž	-11.1712
▁Siniš	-11.1712
▁bijeg	-11.1712
▁Zajec	-11.1716
▁pronađ	-11.1716
▁granici	-11.1722
▁Carl	-11.1731
▁Pel	-11.1734
▁Antonij	-11.1737
▁valov	-11.1739
▁dobitnik	-11.1745
▁pravilima	-11.1746
▁krila	-11.1766
▁sram	-11.1768
▁predanost	-11.1774
▁infek	-11.178
▁invalid	-11.1781
▁Kvarner	-11.1781
▁eskalacij	-11.1781
▁nezaposlen	-11.1781
▁opremljen	-11.1781
▁Države	-11.1781
▁asfalt	-11.1781
▁obuhvaća	-11.1781
▁legitim	-11.1781
▁postupno	-11.1781
▁svećenik	-11.1781
▁2:1	-11.1781
▁podržal	-11.1782
▁pomogli	-11.1782
▁nikome	-11.1789
▁proval	-11.1791
▁stavljen	-11.1794
▁azil	-11.1799
▁zime	-11.1804
▁angažira	-11.1806
▁Simon	-11.181
▁svečanost	-11.1813
▁Marcel	-11.1814
▁osjećat	-11.1816
▁napušta	-11.182
▁planovi	-11.1831
▁Pjeva	-11.1835
▁donira	-11.1849
▁Barcelone	-11.1859
▁Telegram	-11.1859
▁dozvolu	-11.1859
▁eksploziv	-11.1859
▁nizozemsk	-11.1859
▁orkestr	-11.1859
▁mlijeka	-11.1859
▁raspravlja	-11.1859
▁tromjese	-11.1859
▁sankcija	-11.1859
▁poštuje	-11.1859
▁2007.	-11.1859
▁ispitanika	-11.1859
▁vozilima	-11.1859
▁akter	-11.1862
▁zira	-11.1863
▁podnijel	-11.1864
▁piće	-11.1865
▁svetog	-11.1868
▁kritike	-11.187
▁psiholog	-11.1872
▁postavit	-11.1876
▁pravilno	-11.1881
▁Lar	-11.191
▁iskr	-11.1913
▁obećava	-11.1913
qua	-11.1913
▁primijetil	-11.1932
▁pronalaz	-11.1934
▁koeficijent	-11.1937
▁Bartulic	-11.1937
▁glazbi	-11.1937
▁katoličk	-11.1937
▁nevrijeme	-11.1937
▁6-3	-11.1937
▁kamatn	-11.1937
▁romantičn	-11.1937
field	-11.1938
▁vokal	-11.1938
▁plastik	-11.1939
▁obavljen	-11.194
▁liniju	-11.194
▁ritm	-11.1941
▁smjel	-11.1942
▁investicijsk	-11.1942
▁nastao	-11.1949
▁mladosti	-11.1955
▁viđa	-11.1958
▁stranku	-11.1959
▁Banj	-11.196
▁sajm	-11.1961
▁osjetit	-11.1964
▁plaži	-11.1971
Q	-11.1974
▁trećin	-11.1979
▁Jurić	-11.1979
▁naglo	-11.1983
▁parova	-11.1992
▁složi	-11.1994
▁Šest	-11.2004
▁namjerno	-11.2005
▁razočaran	-11.2005
▁žalb	-11.2015
▁Situacij	-11.2016
▁funkcionaln	-11.2016
▁ravnopravn	-11.2016
▁isporuk	-11.2016
▁6-4	-11.2016
▁oboljel	-11.2016
▁školovan	-11.2016
▁postupci	-11.2016
▁zabavu	-11.2016
▁mržnj	-11.2016
▁rečenic	-11.2016
▁princip	-11.2017
▁ukras	-11.2018
▁užasn	-11.2022
▁bomba	-11.2026
▁pljes	-11.2028
▁kugl	-11.2032
▁dogovorili	-11.2036
▁visine	-11.2038
▁auta	-11.2041
▁sobu	-11.2041
▁spasit	-11.2054
▁pružaju	-11.2068
▁komunikacijsk	-11.2087
▁prekršajn	-11.209
ništava	-11.2095
▁impresivn	-11.2095
▁prezentira	-11.2095
▁zaslužuje	-11.2095
▁povrće	-11.2095
▁dimenzij	-11.2095
▁iskorak	-11.2095
▁prisiljen	-11.2095
▁presude	-11.2095
▁prijetnji	-11.2095
▁parkirališt	-11.2095
▁iznimn	-11.2099
▁Pojas	-11.2101
▁klap	-11.2103
rskog	-11.2103
▁Times	-11.2106
▁zmij	-11.2106
▁poboljšava	-11.2108
▁tretira	-11.2108
zdrav	-11.2109
tručnjaci	-11.2109
▁Počel	-11.2112
▁kuk	-11.2116
▁vojnici	-11.2131
velike	-11.2132
INA	-11.2133
▁ometa	-11.2141
▁Sjever	-11.2157
▁boln	-11.2158
▁prikupljanj	-11.2159
▁Kuk	-11.2174
▁aerodrom	-11.2175
▁horoskop	-11.2175
▁migranata	-11.2175
▁rezolucij	-11.2175
▁sugovornik	-11.2175
▁upućuj	-11.2175
▁liječenja	-11.2175
▁simptomi	-11.2175
▁špijun	-11.2175
▁Mihael	-11.2175
▁ugrožava	-11.2175
▁diplomatsk	-11.2175
▁pomogne	-11.2175
▁obvezu	-11.2175
▁tržnic	-11.2176
▁vrećic	-11.2176
▁hranom	-11.2176
▁islam	-11.2177
▁kritičar	-11.2177
▁Voditelj	-11.2177
▁naselju	-11.2178
▁Zor	-11.2178
▁pješačk	-11.2178
▁obustav	-11.2178
▁utorka	-11.2181
▁vladavin	-11.2181
▁tepih	-11.2184
▁ranij	-11.2196
▁gušt	-11.2199
▁rukom	-11.2209
▁92	-11.2217
▁vjeru	-11.2228
▁ciji	-11.2237
▁izađ	-11.2238
vršava	-11.2242
▁organiziral	-11.2248
▁reagiral	-11.2248
▁telefonsk	-11.2254
▁ceremonij	-11.2256
▁folklor	-11.2256
▁Navijači	-11.2256
▁Imotsk	-11.2256
▁mornar	-11.2256
▁tablet	-11.2256
▁agencij	-11.2256
mislite	-11.2256
▁grupn	-11.2257
▁skijaš	-11.2257
▁odvojen	-11.2257
▁zatekl	-11.226
▁motivacij	-11.226
▁Kolar	-11.2262
▁slobodan	-11.2268
▁centi	-11.227
▁isključi	-11.2272
▁istarsk	-11.2282
▁iznajmljiva	-11.2289
▁ruše	-11.2309
▁reper	-11.2312
▁dobn	-11.2322
▁Chelsea	-11.2337
▁Gabriel	-11.2337
▁subvencij	-11.2337
▁crnogorsk	-11.2337
▁jednostavan	-11.2337
▁prijašnj	-11.2337
▁turizmu	-11.2337
▁verbaln	-11.2337
▁oslanja	-11.2337
▁Livaković	-11.2337
▁klupe	-11.2337
utsal	-11.2337
▁Sjeća	-11.2337
▁kroničn	-11.2337
▁pratitelja	-11.2338
▁ocean	-11.234
▁Loren	-11.2345
▁Arena	-11.235
▁umak	-11.2352
▁svašta	-11.2357
▁naglasil	-11.2361
▁Traži	-11.237
▁zahvaln	-11.2379
▁suprotstav	-11.2387
▁biološk	-11.2405
dahnu	-11.2405
▁osječk	-11.2406
▁kalendar	-11.2419
▁osoblje	-11.2419
▁aplikacija	-11.2419
▁smeće	-11.2419
▁strijelc	-11.2419
▁Rudeš	-11.2419
▁potaknul	-11.2419
▁dobrodošl	-11.2419
▁jučerašnj	-11.2419
▁3-1	-11.2419
▁Potrebn	-11.2419
▁izglasa	-11.2419
▁doznal	-11.2419
▁brzinom	-11.2419
reporter	-11.242
▁sezonsk	-11.242
▁tanjur	-11.242
▁troše	-11.2421
▁novinsk	-11.2423
▁hladnjak	-11.2424
▁Vekić	-11.2425
▁korner	-11.2425
▁bodove	-11.2433
▁indi	-11.2435
▁89	-11.2437
▁Drav	-11.2438
▁unuk	-11.244
▁vjenčanja	-11.2441
▁kreativnost	-11.2451
▁oporben	-11.2454
▁podlog	-11.2454
Ć	-11.246
▁salon	-11.2465
▁predsjedni	-11.247
▁otkrić	-11.2471
▁Krk	-11.2472
▁iznena	-11.2492
▁postupa	-11.2493
erson	-11.2494
▁ovisnost	-11.2496
▁sort	-11.2498
▁Rafale	-11.2502
▁Benjamin	-11.2502
▁kažnjen	-11.2502
▁HTV	-11.2502
▁adresu	-11.2502
▁Korčul	-11.2502
▁Leyen	-11.2502
▁riješen	-11.2502
▁Savjet	-11.2502
▁povezivanj	-11.2502
▁pokaziva	-11.2502
▁šokiral	-11.2503
▁osnivanj	-11.2503
▁Donna	-11.2506
▁kadrov	-11.2511
▁kabin	-11.2512
▁iznenadio	-11.2512
▁praznik	-11.2516
▁pokretanj	-11.2516
▁pjevačic	-11.2517
▁Marjan	-11.2519
▁jedanaest	-11.2522
▁prvenstven	-11.2523
▁singl	-11.2528
▁plesn	-11.2528
▁liječi	-11.2537
▁Želi	-11.256
▁imenovanj	-11.2561
▁tužiteljstv	-11.2562
▁navijačk	-11.2562
▁naruči	-11.2564
▁shvatit	-11.2565
▁ekstrem	-11.2573
▁maloljetn	-11.2579
▁Juventus	-11.2585
▁Mediteran	-11.2585
▁komplicira	-11.2585
▁Zaklad	-11.2585
▁vojsku	-11.2585
▁zamjenu	-11.2585
▁cjelin	-11.2585
▁seniorsk	-11.2585
▁raketn	-11.2586
▁djelomičn	-11.2586
▁registarsk	-11.2586
▁humor	-11.2586
▁gorivo	-11.2586
▁džep	-11.2587
▁prilagođen	-11.2587
▁snažan	-11.2588
▁dodal	-11.259
▁savjetovanj	-11.2591
▁Navodn	-11.2593
▁gume	-11.2593
▁brutaln	-11.2597
▁nježn	-11.26
▁bolničk	-11.2601
▁djelovat	-11.261
▁zahvalnost	-11.2615
▁Otok	-11.2625
▁sloj	-11.2626
▁studentsk	-11.2638
▁Pic	-11.2648
▁umjetnost	-11.2653
▁panel	-11.2656
▁pustil	-11.266
▁Ranij	-11.2666
▁bespilotn	-11.2669
▁Barceloni	-11.2669
▁Fakultet	-11.2669
▁Naglasi	-11.2669
▁akademsk	-11.2669
▁laboratorij	-11.2669
▁objavljiva	-11.2669
▁orkestar	-11.2669
▁popriličn	-11.2669
▁raskrižj	-11.2669
▁odlučuje	-11.2669
▁finalist	-11.2669
▁doigravanj	-11.267
-0)	-11.267
▁nožem	-11.267
▁cestu	-11.2671
▁nametnu	-11.2671
▁izvadi	-11.2673
▁proizvodnji	-11.2674
▁naučil	-11.2677
▁zapošljavanje	-11.2681
mješten	-11.2693
▁vječn	-11.2706
▁profesoric	-11.2707
baviti	-11.2714
▁ring	-11.2721
▁Kursk	-11.2723
▁apsolutn	-11.2724
▁riv	-11.2726
▁istražuje	-11.2754
▁prisjeća	-11.2754
▁publikom	-11.2754
▁Koncert	-11.2754
▁obližnj	-11.2754
▁pohađa	-11.2754
▁PSG	-11.2754
▁odjeće	-11.2754
▁atleti	-11.2754
▁Jučer	-11.2754
▁oslab	-11.2754
▁rekavši	-11.2754
▁praksi	-11.2754
▁odražava	-11.2754
▁ideologij	-11.2754
▁zadatk	-11.2754
▁blagajn	-11.2755
▁gorsk	-11.2755
▁pružil	-11.2755
▁nesreću	-11.2756
▁Pitanj	-11.2757
▁natpis	-11.2759
▁Igrač	-11.2765
▁žirija	-11.2767
▁dovrši	-11.2768
balans	-11.2771
▁bacil	-11.2774
▁Lov	-11.2781
▁profit	-11.2802
▁Azij	-11.2825
▁registr	-11.2836
▁raspad	-11.2838
▁Jednostavno	-11.2839
▁inozemn	-11.2839
▁najskuplj	-11.2839
▁najvjerojatnij	-11.2839
▁sugrađan	-11.2839
▁preživjel	-11.2839
▁haljini	-11.2839
▁depresij	-11.2839
▁karakteristik	-11.2839
▁učestal	-11.2839
▁3-0	-11.2839
bacuje	-11.284
▁registracij	-11.2841
▁povel	-11.2844
▁Rome	-11.2846
▁Sličn	-11.2849
▁progon	-11.2849
▁hvata	-11.2853
▁redovima	-11.2854
▁planiranj	-11.2858
▁Adam	-11.2859
▁kemijsk	-11.286
▁puštanj	-11.2863
▁privlačn	-11.2865
▁jesensk	-11.2873
▁platil	-11.2875
▁preša	-11.2882
▁Splitsk	-11.2884
▁angažiran	-11.2898
zbio	-11.2908
vremeno	-11.2908
▁pridru	-11.2915
▁borc	-11.2917
▁pokrajin	-11.2922
▁Zagrep	-11.2925
▁Međimursk	-11.2925
▁cjelovit	-11.2925
▁pozicionira	-11.2925
▁poginula	-11.2925
▁Habijan	-11.2925
▁Amerikanac	-11.2925
▁hormon	-11.2925
▁preventivn	-11.2925
▁sredstvo	-11.2926
▁nokaut	-11.2926
▁Posjet	-11.2926
▁tekstov	-11.2926
▁Belupa	-11.2926
▁uzrokovan	-11.2926
▁voće	-11.2927
▁krajeva	-11.2928
▁zovu	-11.293
▁slučajev	-11.2938
▁tečaj	-11.2952
▁krvav	-11.2954
▁Miss	-11.2956
▁boril	-11.2956
▁definiran	-11.2957
▁postojal	-11.2957
bijel	-11.296
▁priopćenje	-11.2967
puštaju	-11.2972
▁specijalist	-11.2992
▁fantasti	-11.2993
▁novinarsk	-11.2994
▁Kovač	-11.301
▁BMW	-11.3012
▁koncerata	-11.3012
▁upotrijeb	-11.3012
▁Ugovor	-11.3012
▁naknada	-11.3012
▁Gennar	-11.3012
▁samouprave	-11.3012
▁Vladu	-11.3012
▁sistem	-11.3013
▁farmer	-11.3014
▁reporterk	-11.3014
▁Hotel	-11.3014
▁podcast	-11.3014
▁umirovljenici	-11.3021
▁Dejan	-11.3026
▁Prilik	-11.304
▁odobren	-11.3042
▁zaštitar	-11.3047
▁tekućin	-11.3078
▁kriptovalut	-11.31
▁naknadu	-11.31
▁oduševio	-11.31
▁performans	-11.31
▁polufinala	-11.31
▁pridonos	-11.31
▁prognozira	-11.31
▁proljeće	-11.31
▁rejting	-11.31
▁stipendij	-11.31
▁psihičk	-11.31
▁Istraživanj	-11.31
▁promaši	-11.31
▁zauzima	-11.31
▁usmjeri	-11.31
▁najniž	-11.3103
▁suigrač	-11.3103
▁mirovn	-11.3103
▁natrag	-11.3105
▁vođa	-11.3108
▁priredi	-11.3109
▁blokad	-11.3115
▁raspoložen	-11.312
▁teras	-11.312
▁kopnu	-11.3123
▁obavijest	-11.3137
▁taksi	-11.3141
▁zatražil	-11.3145
▁Bilić	-11.3154
▁plasiran	-11.3154
▁you	-11.3157
▁Vlaš	-11.3183
▁debitira	-11.3189
▁ignorira	-11.3189
▁kibernetičk	-11.3189
▁ždrijeb	-11.3189
▁solidarnost	-11.3189
terapeut	-11.3189
▁Kongres	-11.3189
OCM	-11.3189
▁okršaj	-11.3189
▁2004.	-11.3189
▁pritiskom	-11.3189
▁praksa	-11.3189
▁Tonči	-11.319
▁Istina	-11.319
▁raketa	-11.319
▁kožu	-11.3191
▁Vlatk	-11.3192
▁zajednicu	-11.3193
▁vjeroval	-11.3193
▁dvadesetak	-11.3197
▁Benčić	-11.3197
▁djevojku	-11.32
goransk	-11.3202
▁ciljevi	-11.3203
▁plaža	-11.3213
▁Omiš	-11.3214
▁vozilu	-11.3214
▁postavil	-11.3218
▁biljn	-11.322
▁tekuć	-11.3237
▁žalost	-11.3249
▁rasprodan	-11.3257
▁formiranj	-11.326
▁Budimpešt	-11.3278
▁Volodimir	-11.3278
▁intenzitet	-11.3278
▁komponent	-11.3278
▁sladoled	-11.3278
▁analize	-11.3278
▁osobom	-11.3278
▁CNN	-11.3278
▁Hrgović	-11.3278
▁susreć	-11.3278
▁cvijeć	-11.3278
▁razlozi	-11.3278
▁povukl	-11.3278
▁prevladava	-11.3278
▁formaln	-11.3278
▁primljen	-11.3279
▁Zvon	-11.328
▁litara	-11.3283
▁ukusn	-11.3288
▁Filipović	-11.3291
nošću	-11.3291
▁prijelazn	-11.3297
ingham	-11.3298
▁Putinov	-11.33
▁Matt	-11.331
▁zalih	-11.334
▁biljež	-11.3344
▁maksim	-11.3357
▁Župan	-11.3358
▁bizarn	-11.336
▁kontroverzn	-11.3367
▁Poslije	-11.3368
▁Mercedes	-11.3368
▁Middleton	-11.3368
▁kontejner	-11.3368
▁kontrolom	-11.3368
▁operaciju	-11.3368
▁rasvjet	-11.3368
▁Rusijom	-11.3368
▁Komentira	-11.3368
▁akcijsk	-11.3368
▁minutu	-11.3368
▁mlijeko	-11.3368
▁mišljenju	-11.3368
▁raspravu	-11.3368
▁konobar	-11.3368
▁nijans	-11.3369
▁Detalj	-11.3369
▁žanr	-11.3372
▁okrivljenik	-11.3372
▁alarm	-11.3375
▁Došl	-11.3384
▁stihov	-11.3397
▁imenova	-11.3402
▁počinj	-11.3407
svuda	-11.3419
▁letjel	-11.3427
▁individualn	-11.3432
▁tuđ	-11.344
▁dinamik	-11.3452
▁podiž	-11.3453
▁neuspjeh	-11.3459
▁procijenjen	-11.3459
▁tribinama	-11.3459
▁podršci	-11.3459
▁arhiv	-11.3459
▁brigade	-11.3459
▁ukazuju	-11.3459
▁legaln	-11.3459
▁kokain	-11.346
▁nasljednik	-11.3461
▁nazvan	-11.3461
▁naročit	-11.3461
▁svadb	-11.3465
▁znanstvenici	-11.3465
▁ručak	-11.3465
▁punjenj	-11.3468
▁prilaz	-11.3469
▁povratn	-11.3472
▁Vidjel	-11.3474
▁sufinanciranj	-11.3485
▁značenj	-11.3503
▁započet	-11.3503
▁plju	-11.3507
▁zatvara	-11.3515
▁Mađar	-11.3517
▁pobačaj	-11.3551
▁poluvrijeme	-11.3551
▁sankcionira	-11.3551
▁analiza	-11.3551
▁Afrik	-11.3551
▁povrća	-11.3551
▁takozvan	-11.3551
▁šokantn	-11.3551
▁Milorad	-11.3551
▁doživjet	-11.3551
▁zamjenic	-11.3551
▁ritam	-11.3551
▁Denis	-11.3551
▁Boys	-11.3551
▁Marof	-11.3552
▁taktik	-11.3554
▁podnosi	-11.3557
▁III	-11.3558
▁čitanj	-11.3565
▁krajevi	-11.3566
▁Born	-11.3567
▁vođen	-11.3577
▁Štr	-11.3597
klonjen	-11.3608
▁Milanovićev	-11.3611
▁obavljanj	-11.3634
▁Dubrov	-11.3636
▁Istanbul	-11.3643
▁siromašn	-11.3643
▁Bundeslig	-11.3643
▁Središnj	-11.3643
▁Velebit	-11.3643
▁dozvoli	-11.3643
▁funkcije	-11.3643
▁obaviješten	-11.3643
▁obnovljiv	-11.3643
▁polufinaln	-11.3643
▁pucnjav	-11.3643
▁švicarsk	-11.3643
▁kulturi	-11.3643
▁oblačno	-11.3643
▁specijaliziran	-11.3643
▁Popović	-11.3643
▁srećom	-11.3643
▁ispadanj	-11.3643
▁riskira	-11.3644
▁dovršen	-11.3644
way	-11.3644
▁promila	-11.3644
▁napretk	-11.3644
▁Kuć	-11.3644
▁trudnoć	-11.3644
▁zgodn	-11.3645
▁odlaze	-11.3646
▁moraln	-11.3646
▁šutnj	-11.3648
▁ultra	-11.3649
▁čišć	-11.3649
▁ligašk	-11.3653
▁obnova	-11.3654
▁vjernik	-11.3654
▁Žena	-11.3656
▁Bull	-11.3662
▁istinit	-11.3664
▁Sutra	-11.3666
▁nadležnost	-11.3667
▁vinsk	-11.3669
▁revizij	-11.3671
▁osvet	-11.3676
▁1,2	-11.3696
▁rješenj	-11.3697
▁odobrenj	-11.3705
▁izražen	-11.3706
▁motivira	-11.3724
▁biciklist	-11.3734
>	-11.3737
▁1998.	-11.3737
▁Richard	-11.3737
▁Temperatur	-11.3737
▁Wimbledon	-11.3737
▁frizur	-11.3737
▁koncentrira	-11.3737
▁najbitnij	-11.3737
▁proizlaz	-11.3737
▁simptome	-11.3737
▁softver	-11.3737
▁obnovljen	-11.3737
▁Partizan	-11.3737
▁odustati	-11.3737
▁selekcij	-11.3737
▁zastupa	-11.3737
grešaka	-11.3737
▁SOA	-11.3737
▁efikasn	-11.3737
▁nominiran	-11.3737
pitao	-11.3738
▁iskaznic	-11.3738
▁Dunav	-11.3738
Superstar	-11.3738
▁sudeći	-11.3739
▁nošenj	-11.374
▁Vode	-11.3754
pitali	-11.3755
▁Bogdan	-11.3759
▁Blue	-11.376
▁Fond	-11.3761
stavio	-11.3764
jevačica	-11.3772
▁uporno	-11.3775
Što	-11.3797
▁žlic	-11.3807
▁pripremil	-11.3816
▁bojn	-11.3819
▁Anthony	-11.3831
▁Profimedia	-11.3831
▁haljinu	-11.3831
▁kancelar	-11.3831
▁oporavka	-11.3831
▁potpredsjednic	-11.3831
▁regiju	-11.3831
▁DIP	-11.3831
▁Bugarsk	-11.3831
▁plovidb	-11.3832
▁poreme	-11.3833
▁zaslužil	-11.3833
▁kopnen	-11.3834
▁Final	-11.3834
▁rezerviran	-11.3834
▁Island	-11.3835
▁Novinar	-11.3835
▁pizz	-11.3837
▁bubre	-11.384
▁Kazn	-11.3844
▁Županij	-11.3844
▁prekinul	-11.3846
▁dnevnik	-11.3848
▁citira	-11.3855
kopan	-11.387
▁gospodar	-11.3899
▁neovisnost	-11.3904
▁norm	-11.3916
▁1995.	-11.3926
▁International	-11.3926
▁Sljedeć	-11.3926
▁djetinjstva	-11.3926
▁instalacij	-11.3926
▁kirurg	-11.3926
▁konstantn	-11.3926
▁kontinuitet	-11.3926
▁mrtvih	-11.3926
▁namještaj	-11.3926
▁protuzračn	-11.3926
▁Atalant	-11.3926
▁doživljava	-11.3926
▁prognoza	-11.3926
▁kažnjava	-11.3926
▁porijekl	-11.3926
▁desert	-11.3926
▁Britansk	-11.3926
▁tijesto	-11.3926
▁prakse	-11.3926
▁povlačenj	-11.3927
▁Bosilj	-11.3927
▁skrenu	-11.3928
▁solarn	-11.3928
▁sudit	-11.3928
▁Carlos	-11.3928
▁aparat	-11.3929
▁arhitektur	-11.3931
▁Srednj	-11.3931
▁šokiran	-11.3932
▁iznenađenja	-11.3935
▁partnerstv	-11.3935
▁Poslovn	-11.3945
▁saveznici	-11.3946
▁proširil	-11.3948
▁grub	-11.395
▁gomil	-11.3955
▁Peđ	-11.3958
▁obratit	-11.3972
▁zidov	-11.398
▁podijelit	-11.3987
▁Nizozem	-11.3989
▁uvodn	-11.3993
▁prešl	-11.3993
▁čeln	-11.3996
▁dijagnosti	-11.4022
▁Predsjedništv	-11.4022
▁asistencije	-11.4022
▁elegantn	-11.4022
▁funkciji	-11.4022
▁neprihvatljiv	-11.4022
▁uslugu	-11.4022
▁eksplodira	-11.4022
▁nedjeljn	-11.4022
▁koalicija	-11.4022
▁Bernard	-11.4022
▁Atlant	-11.4022
▁Pozivam	-11.4022
▁pobjegao	-11.4022
▁brončan	-11.4022
▁Zrink	-11.4024
▁zapalil	-11.4024
▁prisjetil	-11.4024
▁snimci	-11.4024
▁matičn	-11.4026
▁obavit	-11.4029
▁Poljak	-11.403
▁petnaest	-11.4031
▁propal	-11.4036
▁učiteljic	-11.4037
▁1,4	-11.4038
▁odredišt	-11.4045
▁umorn	-11.4047
▁nekretnin	-11.4047
ality	-11.4069
IJA	-11.4075
▁uredb	-11.4079
▁Šok	-11.4093
▁sloboda	-11.4105
▁Olimpij	-11.4108
▁provjerava	-11.4111
▁obraćanj	-11.4112
▁zadržava	-11.4114
▁izdavanj	-11.4117
▁terorist	-11.4119
▁Demokrat	-11.4119
▁HGSS	-11.4119
▁educira	-11.4119
▁ekskluzivn	-11.4119
▁vraćen	-11.4119
▁imunitet	-11.4119
▁Magazin	-11.4119
▁osmisli	-11.4119
▁Britaniji	-11.4119
▁dohodak	-11.412
▁komunističk	-11.412
▁parkirn	-11.412
▁poveznic	-11.4121
▁povišen	-11.4122
▁%)	-11.4122
▁Optu	-11.4123
▁band	-11.4124
▁Talijansk	-11.4124
▁Dodatn	-11.4126
▁djelatnost	-11.4128
▁Hrvatsko	-11.4129
▁parovi	-11.4133
▁Radman	-11.4134
▁voze	-11.4142
▁padal	-11.4173
▁brad	-11.4176
▁kriminalističk	-11.4186
▁sanira	-11.4187
▁iznenađen	-11.4195
▁svjedoče	-11.4211
▁Pantovčak	-11.4217
▁apelira	-11.4217
▁kvalifikacijsk	-11.4217
▁marketing	-11.4217
▁prigovor	-11.4217
▁utvrđivanj	-11.4217
▁zabilježil	-11.4217
▁Fokus	-11.4217
▁hranjiv	-11.4217
▁postrojenj	-11.4217
▁Lopez	-11.4218
▁OPG	-11.4218
▁migracija	-11.4218
▁Sarajevo	-11.4218
▁vijećnik	-11.4218
▁funti	-11.4218
▁obuhvat	-11.4218
▁ugljik	-11.4218
▁Charl	-11.4218
▁ormar	-11.4218
▁otocima	-11.4218
▁najbrž	-11.4218
▁šmink	-11.4219
▁azijsk	-11.4219
▁vjetrov	-11.4219
▁Sky	-11.4219
▁Trogir	-11.4219
▁trajao	-11.4219
▁svijeć	-11.422
▁Ultr	-11.4224
▁party	-11.4224
▁pristupačn	-11.4227
▁ostvarivanj	-11.4237
▁lakši	-11.424
itanij	-11.4252
▁pridružil	-11.4266
▁kriminaln	-11.4267
▁trenersk	-11.4275
▁sprječavanj	-11.4316
dovoljava	-11.4316
▁Thompson	-11.4316
▁Ancelotti	-11.4316
▁Cristian	-11.4316
▁hektara	-11.4316
▁prokomentira	-11.4316
▁svakodnevic	-11.4316
▁haljina	-11.4317
▁usredotoč	-11.4317
▁Božinović	-11.4317
▁prebačen	-11.4317
▁1:1	-11.4317
▁napetosti	-11.4317
▁oporba	-11.4317
▁surađuje	-11.4317
▁obnaša	-11.4317
▁ruraln	-11.4317
▁dronova	-11.4318
▁otkad	-11.4318
▁prilagodit	-11.4319
▁human	-11.4321
▁grozn	-11.4325
▁kW	-11.4331
▁znanstvenik	-11.4337
▁Bill	-11.4337
▁ponaj	-11.4341
▁kreditn	-11.435
▁stanovi	-11.4374
▁upravn	-11.4378
▁dronovi	-11.4388
▁Lučk	-11.4404
▁katastrofa	-11.4416
▁Atletic	-11.4416
▁Iskreno	-11.4416
▁Swift	-11.4416
▁dijabetes	-11.4416
▁migranti	-11.4416
▁poslodavac	-11.4416
▁utemeljen	-11.4416
▁poduzetništv	-11.4417
▁Scholz	-11.4417
▁Zastupni	-11.4417
fikacij	-11.4417
▁transakcij	-11.4417
▁neprestan	-11.4417
▁Stričak	-11.4417
▁obilježj	-11.4417
▁prekomjern	-11.4418
▁Kevin	-11.4418
▁stečaj	-11.4419
▁Miami	-11.442
▁kartu	-11.442
▁izvršen	-11.4425
▁petero	-11.4425
▁Mirjan	-11.4426
▁kretat	-11.4426
▁brzina	-11.4433
torij	-11.4446
▁motiviran	-11.445
▁terminal	-11.4459
▁korišten	-11.4461
▁složil	-11.4477
▁tajnic	-11.4495
Nedjelj	-11.4507
▁Fotografij	-11.4517
▁Tottenham	-11.4517
▁druženja	-11.4517
▁funkcija	-11.4517
▁manekenk	-11.4517
▁revolucij	-11.4517
▁simptoma	-11.4517
▁veterinar	-11.4517
▁dominantn	-11.4518
▁sasluša	-11.4518
▁Alexander	-11.4518
▁pogađa	-11.4518
▁evakuira	-11.4518
▁nominacij	-11.4518
▁IDS	-11.4518
▁izvukl	-11.4518
▁zaraditi	-11.4518
▁odustal	-11.4518
pazite	-11.4519
▁mjesn	-11.4521
▁Helen	-11.4521
▁slanj	-11.4521
▁potrošača	-11.4522
▁tehničar	-11.4522
▁rezultiral	-11.4527
vodeći	-11.4529
▁influencer	-11.4529
rotect	-11.4533
▁fešt	-11.4535
▁plinsk	-11.4537
▁prikuplja	-11.4538
▁Idem	-11.454
▁strpljenj	-11.4548
nsku	-11.4559
bjekt	-11.4584
▁0,0	-11.4607
▁2027.	-11.462
▁Hajdaš	-11.462
▁Hezbollah	-11.462
▁ambijent	-11.462
▁guverner	-11.462
▁očekivao	-11.462
▁državljana	-11.462
▁trošak	-11.462
▁Belgija	-11.462
▁HAK	-11.462
▁portret	-11.462
▁Đurđev	-11.462
▁alergi	-11.462
▁skladatelj	-11.462
▁prirodu	-11.462
▁doznat	-11.462
▁3,5	-11.4621
▁podiga	-11.4621
-19	-11.4621
▁udalji	-11.4622
▁pristojn	-11.4625
▁Ovakv	-11.4625
▁Uskok	-11.4626
▁dodavanj	-11.4627
▁Janković	-11.4629
▁debel	-11.4632
▁povremen	-11.4639
▁proved	-11.4665
▁učenic	-11.4669
▁Vlado	-11.468
zadovoljni	-11.4681
▁luksuz	-11.4695
▁Vijest	-11.4696
▁devedeset	-11.4723
▁veleposlanik	-11.4723
▁pravosudn	-11.4723
▁Kramarić	-11.4723
▁naslijedi	-11.4723
▁stabla	-11.4723
▁Pjesm	-11.4723
▁ankete	-11.4723
▁Slijedi	-11.4723
▁adresi	-11.4723
▁naoblak	-11.4723
▁Ryan	-11.4723
▁civila	-11.4723
▁novcem	-11.4723
▁podnesen	-11.4725
▁modernizacij	-11.473
▁maloljetnik	-11.473
▁jaht	-11.4731
▁obojic	-11.4732
▁Jesu	-11.4735
▁Dodal	-11.4735
▁sutkinj	-11.4736
▁bajk	-11.4742
▁pripal	-11.4746
▁Zdrav	-11.4754
▁dlak	-11.4754
▁kršćan	-11.4779
▁izazovn	-11.4779
▁počinjenj	-11.4786
▁urednic	-11.4799
▁razmislit	-11.4799
▁donese	-11.4822
▁Herceg	-11.4827
▁Celzijev	-11.4827
í	-11.4827
▁1992.	-11.4827
▁inteligencija	-11.4827
▁kolesterol	-11.4827
▁kompromis	-11.4827
▁tjestenin	-11.4827
▁Španjolac	-11.4827
▁katedral	-11.4827
▁rajčic	-11.4827
▁Smith	-11.4827
▁2003.	-11.4827
▁Louis	-11.4827
▁povred	-11.4827
▁drugdje	-11.4827
▁prenose	-11.4828
▁arheolo	-11.4828
▁funkcioniranj	-11.4828
▁prodaji	-11.4829
▁infekcije	-11.4829
▁zube	-11.4829
▁određuj	-11.483
▁cijenjen	-11.483
▁ranjiv	-11.4831
▁proslavljen	-11.4834
▁Kristina	-11.4834
▁razočara	-11.4841
▁očaj	-11.4845
▁ispisa	-11.4861
▁prenijet	-11.4864
▁odnijel	-11.4878
prosto	-11.4878
▁predstavnic	-11.4908
nfluencerica	-11.492
▁inspektor	-11.4926
▁Nezavisn	-11.4932
▁ambiciozn	-11.4932
▁analizu	-11.4932
▁brazilsk	-11.4932
▁ljepote	-11.4932
▁iskorištava	-11.4932
▁označava	-11.4932
▁Karoglan	-11.4932
▁Meghan	-11.4932
▁Peking	-11.4932
▁Sjajn	-11.4932
▁Lošinj	-11.4932
▁isplaćen	-11.4932
▁gradilišt	-11.4932
▁potraja	-11.4933
▁nezgod	-11.4933
▁mozak	-11.4933
▁smrtonosn	-11.4933
▁optužuj	-11.4933
▁Vlasni	-11.4934
▁Samobor	-11.4937
▁hladnij	-11.4944
▁osumnjičenik	-11.4949
oksid	-11.4973
▁autorsk	-11.4989
▁komplet	-11.5011
▁kvalificira	-11.5016
▁Bayer	-11.5021
▁World	-11.5038
▁belgijsk	-11.5038
▁bespovratn	-11.5038
▁suspendira	-11.5038
▁Federacij	-11.5038
▁bombardira	-11.5038
▁epidemi	-11.5038
▁koprivničk	-11.5038
▁marihuan	-11.5038
▁pamćenje	-11.5038
▁Centru	-11.5038
▁afričk	-11.5038
▁graditeljstv	-11.5038
▁stoljeću	-11.5038
▁uskrsn	-11.5038
▁Povjerenstv	-11.5038
▁Alcaraz	-11.5039
▁kružn	-11.5039
▁Lončar	-11.5039
▁pljačk	-11.5039
▁Izgleda	-11.5039
▁Dabro	-11.504
▁suđenja	-11.504
▁Djevic	-11.5042
▁zauzet	-11.5042
▁klase	-11.5042
▁prevari	-11.5045
▁Šef	-11.5046
▁Thi	-11.5049
▁Kranj	-11.5058
▁staž	-11.5079
▁zatvorit	-11.5081
▁kisel	-11.5089
▁prepoznaj	-11.5103
@	-11.5104
▁Sisa	-11.5105
▁kilogram	-11.5108
▁teretn	-11.5117
▁Serij	-11.5129
▁potpisal	-11.5141
▁nepotrebn	-11.5146
▁ansambl	-11.5146
▁asistent	-11.5146
▁demantira	-11.5146
▁dijagnosticiran	-11.5146
▁povjesničar	-11.5146
▁Šibenčan	-11.5146
▁doduše	-11.5146
▁klupu	-11.5146
▁pridržava	-11.5146
▁tradicija	-11.5146
▁Hamburg	-11.5146
▁Osvrnu	-11.5146
▁Uslijed	-11.5146
▁certifi	-11.5146
▁proljetn	-11.5146
▁stjecanj	-11.5146
▁čimbenik	-11.5146
▁razgled	-11.5146
alifornij	-11.5146
▁deseci	-11.5146
▁raspravi	-11.5147
▁radikaln	-11.5147
▁kišom	-11.5147
gallery	-11.5148
▁prašin	-11.5149
▁gastro	-11.5152
▁Najmanj	-11.5156
trpa	-11.5169
▁lanjsk	-11.5174
ekival	-11.5175
▁Steve	-11.5175
▁gospodarenj	-11.5182
▁obaln	-11.5215
▁patnj	-11.5218
▁logičn	-11.522
▁postotn	-11.5238
▁specifi	-11.5242
▁Fenerbah	-11.5255
▁Nevjerojatn	-11.5255
▁dozvoljen	-11.5255
▁koaliciju	-11.5255
▁konstrukcij	-11.5255
▁kozmeti	-11.5255
▁regulator	-11.5255
▁usklađen	-11.5255
▁statistiku	-11.5255
▁ZET	-11.5255
▁svjetlu	-11.5255
▁zaustavljen	-11.5255
▁6-2	-11.5255
▁stepenic	-11.5255
▁Walesa	-11.5255
▁biljke	-11.5255
▁gledatelje	-11.5255
▁bombe	-11.5255
▁Zdenk	-11.5256
▁presudn	-11.5256
▁mrežn	-11.5256
VAJ	-11.5258
▁subotnj	-11.5263
▁indijsk	-11.5266
▁oluja	-11.5269
▁Snimk	-11.527
▁zagrij	-11.5271
▁držal	-11.5276
▁Deset	-11.5281
▁glatk	-11.5289
▁kućic	-11.5308
vatreni	-11.5332
▁krugov	-11.5338
▁informati	-11.536
▁Guardiol	-11.5365
▁Kandidat	-11.5365
▁pedeset	-11.5365
▁samopouzdanje	-11.5365
▁suzbijanj	-11.5365
▁Gospodin	-11.5365
▁pjesnik	-11.5365
▁poduzima	-11.5365
▁drastičn	-11.5365
▁Energ	-11.5365
▁prestaje	-11.5365
▁Elektr	-11.5365
▁Grmoja	-11.5365
▁rundi	-11.5365
▁Venecij	-11.5365
▁pustit	-11.5366
druzi	-11.5367
▁Play	-11.5368
▁uvjerava	-11.5368
▁kišu	-11.5368
▁totaln	-11.5392
običan	-11.5394
▁Njih	-11.5395
ivjet	-11.5396
▁Baranj	-11.5399
▁proglasil	-11.5403
▁riješil	-11.5406
▁Kinesk	-11.541
▁igranj	-11.5426
▁pušk	-11.5436
▁Zahval	-11.5471
AfterDisplay	-11.5476
ó	-11.5476
▁kemikalij	-11.5476
▁metropol	-11.5476
▁karcinom	-11.5476
▁kulinarsk	-11.5476
▁razveseli	-11.5476
▁prošeta	-11.5476
▁zadržal	-11.5476
▁jedanaesterac	-11.5476
▁Branimir	-11.5476
▁Leonard	-11.5476
▁izoliran	-11.5476
▁Christian	-11.5476
▁nadmaši	-11.5476
▁krizu	-11.5477
▁stigne	-11.5477
▁1,3	-11.5477
▁ukraden	-11.5477
▁nestanka	-11.5478
▁paziti	-11.5479
▁balkon	-11.5479
▁juniorsk	-11.548
▁pothvat	-11.5482
tjecaj	-11.5487
▁pretkol	-11.5497
7-6	-11.5501
▁kazat	-11.5514
▁mjerenj	-11.5526
▁pogodn	-11.5533
▁edukativn	-11.5588
▁spoznaj	-11.5588
▁virtualn	-11.5588
▁Mbappe	-11.5588
▁gimnasti	-11.5588
▁pokreć	-11.5588
▁bakterija	-11.5588
▁treninzi	-11.5588
▁vremenima	-11.5588
▁unatrag	-11.5588
▁Kapetan	-11.5588
▁3:0	-11.5588
▁reciklira	-11.5588
▁poništi	-11.5588
▁izrečen	-11.5588
▁poštuju	-11.5588
▁Štef	-11.5589
▁Brekalo	-11.5589
▁obrasc	-11.5589
▁1,8	-11.5589
▁Dallas	-11.559
▁nastojanj	-11.559
▁iscrpljen	-11.5591
▁Grupa	-11.5591
▁preuzm	-11.5591
▁produžen	-11.5591
▁komore	-11.5591
▁uložit	-11.5592
▁skočil	-11.5592
▁proziva	-11.5593
▁sajam	-11.5594
▁inspektorat	-11.5594
▁uništil	-11.5605
▁plasiral	-11.5616
▁Čovje	-11.5618
▁zahvatil	-11.5638
▁vaterpolist	-11.5645
▁navikl	-11.5646
▁saznat	-11.5671
▁utvrdit	-11.5682
lomljen	-11.5689
▁najbogatij	-11.5702
▁1993.	-11.5702
▁1996.	-11.5702
▁Akademij	-11.5702
▁Glasnogovorni	-11.5702
▁Jadrolinije	-11.5702
▁Svjedo	-11.5702
▁interpretacij	-11.5702
▁intervenira	-11.5702
▁mješavin	-11.5702
▁osoblja	-11.5702
▁prikladn	-11.5702
▁sveučilišn	-11.5702
▁zlouporab	-11.5702
▁libanonsk	-11.5702
▁liječenju	-11.5702
▁označi	-11.5702
▁Jordan	-11.5702
▁Apple	-11.5702
▁Sevill	-11.5702
▁Kristijan	-11.5702
▁imovinu	-11.5702
▁satelit	-11.5702
▁Zagrepčani	-11.5702
▁Prizna	-11.5702
▁smanjuju	-11.5702
▁ograničava	-11.5702
▁dućan	-11.5702
▁putovnic	-11.5702
▁perilic	-11.5703
▁zakazan	-11.5703
▁svemirsk	-11.5704
▁dojke	-11.5706
▁prvotno	-11.5706
▁zabija	-11.5706
▁zadržavanj	-11.5708
▁skloništ	-11.5718
▁lamp	-11.5719
▁nedovoljn	-11.5721
▁himn	-11.5722
ABA	-11.5727
▁Izborni	-11.5742
▁okrenul	-11.575
▁šumsk	-11.5755
▁nužn	-11.5767
Misli	-11.5775
▁Pij	-11.5814
▁iscrp	-11.5814
▁pokrovitelj	-11.5817
▁2030.	-11.5817
▁Legendarn	-11.5817
▁demografij	-11.5817
▁dokumenata	-11.5817
▁krijumčar	-11.5817
▁mediteransk	-11.5817
▁nevremena	-11.5817
▁prijepodne	-11.5817
▁propušta	-11.5817
▁uspjesi	-11.5817
▁pročelnik	-11.5817
▁preferira	-11.5817
▁Kulenović	-11.5817
▁odgođen	-11.5817
▁dočekuje	-11.5817
▁harmoni	-11.5817
▁dominacij	-11.5817
▁Sanader	-11.5817
▁mineral	-11.5817
▁Židov	-11.5817
▁pećnic	-11.5817
▁čarobn	-11.5817
▁rodbin	-11.5818
▁strukovn	-11.5819
▁paprik	-11.582
▁Narodn	-11.5821
tručnjakinja	-11.583
▁probavn	-11.5833
▁slojev	-11.5833
▁sedmi	-11.5834
▁fenomenaln	-11.5836
▁prevare	-11.5838
▁položi	-11.584
▁Đakov	-11.584
▁jezičn	-11.5841
▁iznimk	-11.5849
▁zrakoplovstv	-11.5855
▁negira	-11.5858
▁svojstv	-11.5859
▁natjecateljsk	-11.5869
▁rušenj	-11.5876
▁revij	-11.5912
▁COVID	-11.5933
▁Egipt	-11.5933
▁glavobolj	-11.5933
▁iznenađujuć	-11.5933
▁oslobađanj	-11.5933
▁otpjeva	-11.5933
▁pogriješi	-11.5933
▁portugalsk	-11.5933
▁zaostatka	-11.5933
▁zvjezdic	-11.5933
▁haljine	-11.5933
▁predvođen	-11.5933
▁poželjn	-11.5933
▁zaposli	-11.5933
▁brašno	-11.5933
▁investira	-11.5933
▁ljepoti	-11.5933
▁narušava	-11.5933
▁slovačk	-11.5933
▁ulagač	-11.5933
▁plijen	-11.5933
▁konzervativn	-11.5933
▁zamjena	-11.5933
▁štand	-11.5934
▁majkom	-11.5934
▁pružen	-11.5934
▁otežava	-11.5934
▁šansa	-11.5934
doprinijeti	-11.5934
▁oslon	-11.5934
▁semafor	-11.5935
▁glasovanj	-11.5935
▁priredb	-11.5935
▁uragan	-11.5935
Space	-11.5956
▁kliničk	-11.5958
▁Dalmatinsk	-11.5961
▁izbacil	-11.5968
▁flot	-11.5975
▁gled	-11.5983
▁gosp	-11.5988
▁državljani	-11.6016
▁Staln	-11.6026
▁izuzet	-11.6028
▁benzin	-11.6032
svijest	-11.6033
▁bosansk	-11.6041
▁događal	-11.6048
▁Stuttgart	-11.6051
▁Twitter	-11.6051
▁Uostalom	-11.6051
▁besplatan	-11.6051
▁briljira	-11.6051
▁geopolitičk	-11.6051
▁jugoslavensk	-11.6051
▁koncesij	-11.6051
▁magazin	-11.6051
▁rumunjsk	-11.6051
▁Englez	-11.6051
▁uspomene	-11.6051
▁Susret	-11.6051
▁konvencij	-11.6051
▁zvezd	-11.6051
▁Lisinsk	-11.6051
://	-11.6051
▁Promjen	-11.6051
▁Velimir	-11.6051
▁dotaknu	-11.6052
▁poglavlj	-11.6052
▁sirijsk	-11.6052
▁2-2	-11.6052
▁odbojk	-11.6059
▁napadnut	-11.6059
▁roditeljsk	-11.606
▁Pisa	-11.6086
▁završet	-11.6123
▁Sretn	-11.614
▁Vjer	-11.6142
▁dopušta	-11.6145
▁Puha	-11.6151
opterećen	-11.6167
▁Index	-11.617
▁Izložb	-11.617
▁drugoplasiran	-11.617
▁interakcij	-11.617
▁jednokratn	-11.617
▁jugoistočn	-11.617
▁neprimjeren	-11.617
▁razotkri	-11.617
▁stabala	-11.617
▁televizije	-11.617
▁protokol	-11.617
▁sankcije	-11.617
▁Bošnjak	-11.617
▁tijelima	-11.617
▁3-2	-11.617
▁domoljub	-11.617
▁Zvezd	-11.617
▁summit	-11.617
▁koraci	-11.6171
▁slogan	-11.6171
▁općinsk	-11.6171
▁opterećenj	-11.6172
▁sporedn	-11.6172
▁parišk	-11.6172
▁parcel	-11.6175
▁diplomacij	-11.6178
▁kreacij	-11.618
▁grip	-11.619
▁potpisivanj	-11.62
▁ideološk	-11.6214
▁Ivanišević	-11.629
▁Lepoglav	-11.629
▁PAOK	-11.629
▁dezinformacij	-11.629
▁sveobuhvatn	-11.629
▁vlasništvo	-11.629
▁vukovarsk	-11.629
▁zahvaljujem	-11.629
▁General	-11.629
▁Liječnic	-11.629
▁cigaret	-11.629
▁strpljiv	-11.629
▁Victor	-11.629
▁otuđi	-11.629
▁paraleln	-11.629
▁pravomoćn	-11.629
▁Garros	-11.629
▁eliminira	-11.629
▁kratkoročn	-11.629
▁montaž	-11.629
▁podzemn	-11.629
▁Knoll	-11.629
▁Govore	-11.629
▁obrazloženj	-11.629
▁Konzum	-11.629
▁popunjen	-11.629
▁zapjeva	-11.629
▁2002.	-11.629
▁anonimn	-11.629
▁gurnu	-11.6291
▁pratitelje	-11.6291
▁1,7	-11.6291
▁shop	-11.6292
▁proizve	-11.6292
▁oluje	-11.6294
▁zdjel	-11.6294
▁Brand	-11.6296
▁primjenjuj	-11.6297
▁obraća	-11.63
▁tenkov	-11.63
▁privuka	-11.6303
▁Silvij	-11.6317
pomognu	-11.6324
▁intenziv	-11.6326
▁distribu	-11.6359
vizije	-11.636
▁filozofij	-11.6365
▁poteškoća	-11.6379
▁psihijatr	-11.6412
posljetku	-11.6412
▁1989.	-11.6412
▁Bjelorusij	-11.6412
▁Posavec	-11.6412
▁Trenutačn	-11.6412
▁televizija	-11.6412
▁udruženj	-11.6412
▁vodoopskrb	-11.6412
▁Zaprešić	-11.6412
▁beogradsk	-11.6412
▁izvjesn	-11.6412
▁koktel	-11.6412
▁površinu	-11.6412
▁upravitelj	-11.6412
▁nedjelja	-11.6412
▁ugriz	-11.6412
▁osmišljen	-11.6412
▁eurozon	-11.6412
▁duhovit	-11.6412
▁proizveden	-11.6413
▁Kolind	-11.6413
▁maraton	-11.6413
▁mališan	-11.6413
▁Ekip	-11.6414
▁strastven	-11.6415
▁Višnj	-11.6415
▁režira	-11.6417
▁narativ	-11.6419
▁prenijel	-11.6421
▁berb	-11.6422
▁nevolj	-11.6425
▁smiren	-11.6427
▁starenj	-11.6429
▁liječnic	-11.644
▁sućut	-11.6462
▁kompanij	-11.6487
▁grmljavinsk	-11.6491
▁nastavk	-11.6494
▁Mlinarić	-11.6535
▁gradonačelnic	-11.6535
▁industriju	-11.6535
▁londonsk	-11.6535
▁podrijetla	-11.6535
▁srbijansk	-11.6535
▁tradicijsk	-11.6535
▁dosljedn	-11.6535
▁obnavlja	-11.6536
▁proljeća	-11.6536
▁senzacij	-11.6536
▁Jasmin	-11.6536
▁pridonijet	-11.6536
▁usvajanj	-11.6536
▁ogorčen	-11.6536
▁nastavu	-11.6536
▁uzbuđenj	-11.6536
▁prodavač	-11.6536
▁Vinkovci	-11.6536
▁pušenj	-11.6536
▁katastrofaln	-11.6536
Adriatic	-11.6536
▁susrel	-11.6537
▁kraće	-11.6538
▁Stigl	-11.6542
▁dizal	-11.6544
▁košulj	-11.6544
▁bogatij	-11.6547
▁Vlast	-11.6549
▁priroda	-11.6561
▁prodavat	-11.6583
teškoćama	-11.6595
▁okrivljen	-11.6655
▁prisut	-11.6657
▁1994.	-11.666
▁Fiorentin	-11.666
▁Lasagne	-11.666
▁budžet	-11.666
▁koordinacij	-11.666
▁manipulacij	-11.666
▁nagrađivan	-11.666
▁podjednak	-11.666
▁preživljava	-11.666
▁euforij	-11.666
▁preokrenu	-11.666
▁otputova	-11.6661
▁Junior	-11.6661
▁partizan	-11.6661
▁Urban	-11.6661
▁taktičk	-11.6661
▁djelima	-11.6661
▁mljeven	-11.6662
▁preskoči	-11.6662
▁odjeven	-11.6662
▁žurn	-11.6663
▁nepravd	-11.6665
▁dodjeljuj	-11.6667
▁Aten	-11.6672
zvrstan	-11.6672
▁Glumic	-11.6682
▁novogodišnj	-11.6685
▁penj	-11.6712
▁vjerojatn	-11.6768
▁Podravsk	-11.6787
▁Ristovsk	-11.6787
▁Vodovod	-11.6787
▁Zvijezd	-11.6787
▁bankovn	-11.6787
▁glazbom	-11.6787
▁nepravilnosti	-11.6787
▁oglašavanj	-11.6787
▁rehabilitacij	-11.6787
▁Italiju	-11.6787
▁australsk	-11.6787
▁jogurt	-11.6787
▁magnet	-11.6787
▁Objavljen	-11.6787
▁opuštanj	-11.6787
▁Ulaznic	-11.6787
▁Nadzorn	-11.6787
▁četvoric	-11.6787
▁Mirror	-11.6787
▁turneje	-11.6787
▁rizičn	-11.6787
▁Britanc	-11.6787
▁Gretić	-11.6788
▁opoziv	-11.6788
▁Club	-11.6788
▁izolacij	-11.6788
▁uzrast	-11.6788
▁željn	-11.6789
▁Izvršn	-11.6789
▁pulsk	-11.6789
▁pobunjeni	-11.679
▁smiješn	-11.6798
▁izbjegavanj	-11.6804
▁optimaln	-11.6812
▁tipičn	-11.6812
stražitelji	-11.6813
grijava	-11.6818
▁centraln	-11.6822
▁pakiranj	-11.685
▁sufinancira	-11.6879
▁arhitekt	-11.6895
▁povoljnij	-11.6896
▁dinami	-11.6905
▁prikazuj	-11.6907
▁potrošačk	-11.6909
▁Doduše	-11.6915
▁Organizator	-11.6915
▁administrativn	-11.6915
▁elemenata	-11.6915
▁interijer	-11.6915
▁meteorološk	-11.6915
▁odlagališt	-11.6915
▁podnošenj	-11.6915
▁siromaštv	-11.6915
▁Dalmaciju	-11.6915
▁Jelačića	-11.6915
▁pozornice	-11.6915
▁građevina	-11.6915
▁ovlašten	-11.6915
▁potrudi	-11.6915
▁stradao	-11.6915
▁Jutro	-11.6915
▁poretku	-11.6915
▁zastave	-11.6916
▁Amerikank	-11.6916
▁mrtvo	-11.6916
▁Barišić	-11.6916
▁Nastup	-11.6916
▁anketi	-11.6916
▁bonus	-11.6916
▁kontinentaln	-11.6916
▁torbic	-11.6917
▁Grupe	-11.6917
▁istoimen	-11.6917
▁lekcij	-11.692
▁delicij	-11.6921
▁zarađuj	-11.6926
▁retro	-11.6933
▁plivanj	-11.6948
▁izraženij	-11.6957
▁izabral	-11.6963
▁bočn	-11.6964
▁negativ	-11.6988
▁grupacij	-11.7001
▁stavljanj	-11.7012
▁hotelsk	-11.7028
▁prepoznavanj	-11.703
▁Netflix	-11.7045
▁egzistencij	-11.7045
′	-11.7045
▁Global	-11.7045
▁Hollywood	-11.7045
▁Služben	-11.7045
▁Zahvaljujem	-11.7045
▁energetik	-11.7045
▁estetsk	-11.7045
▁inozemstva	-11.7045
▁institucional	-11.7045
▁pravobranitelj	-11.7045
▁prognoze	-11.7045
▁Tyson	-11.7045
▁empatij	-11.7045
▁kašnjenj	-11.7045
▁povjerenik	-11.7045
▁društav	-11.7045
▁KUD	-11.7045
▁Davis	-11.7046
▁Dolazi	-11.7046
▁sestara	-11.7046
▁viraln	-11.7047
▁Porezn	-11.7047
▁Nataš	-11.705
▁Piše	-11.7052
▁ustraj	-11.7054
▁prelask	-11.7064
▁odjevn	-11.7075
▁izbjegl	-11.7089
▁kontinuiran	-11.7093
▁priopćen	-11.7118
▁trenuta	-11.7176
▁Kolumbij	-11.7177
▁poskupljenj	-11.7177
▁1999.	-11.7177
▁Affleck	-11.7177
▁Krunoslav	-11.7177
▁Prosvjed	-11.7177
▁Suprug	-11.7177
▁evakuacij	-11.7177
▁koordinator	-11.7177
▁koordinira	-11.7177
▁mršavljenj	-11.7177
▁preduvjet	-11.7177
▁tržištima	-11.7177
▁četrdeset	-11.7177
▁Gospić	-11.7177
▁zdravstvu	-11.7177
▁gastronomsk	-11.7177
▁ljepota	-11.7177
▁skandira	-11.7177
▁Hezonj	-11.7177
▁rabljen	-11.7177
$	-11.7177
▁vodovod	-11.7177
▁1945.	-11.7177
▁Tvornic	-11.7177
▁Knjig	-11.7177
▁Street	-11.7177
▁birališt	-11.7178
▁krizi	-11.718
▁Radovan	-11.718
▁Kuha	-11.718
▁odgaja	-11.7182
▁dežur	-11.7183
▁upoznavanj	-11.7183
▁Bologn	-11.7184
▁špic	-11.7186
▁Konačn	-11.7188
ICA	-11.7197
▁okrugl	-11.7201
▁operira	-11.7208
▁kupanj	-11.7228
▁kemij	-11.7286
▁Podsjeti	-11.7298
Pixsell	-11.731
▁Gabrijel	-11.731
▁nedjeljom	-11.731
▁nevjerojatan	-11.731
▁osamdeset	-11.731
▁percepcij	-11.731
▁preferencij	-11.731
▁repertoar	-11.731
▁vojsci	-11.731
▁Islamsk	-11.731
▁Primorsko	-11.731
▁deficit	-11.731
▁eskalira	-11.731
▁prepriča	-11.731
▁vodostaj	-11.731
▁odustao	-11.731
▁prilagođava	-11.731
▁ribolov	-11.731
▁zbroj	-11.731
▁željeznic	-11.731
▁Bartol	-11.7311
▁nadzorniku	-11.7311
▁oblasti	-11.7311
▁Osvoji	-11.7311
▁Iduć	-11.7311
▁sprječava	-11.7311
▁poslom	-11.7311
▁Pitt	-11.7312
▁tematsk	-11.7314
▁zagrijavanj	-11.7315
▁polovin	-11.7315
▁uključivanj	-11.7318
▁Strank	-11.732
▁Nepal	-11.732
▁Vjeruj	-11.7332
▁Osječk	-11.7338
▁dvogodišnj	-11.7358
▁suknj	-11.7369
kupan	-11.7387
kasnije	-11.7404
▁nagradn	-11.743
▁holivudsk	-11.7445
▁musliman	-11.7445
▁Bejrut	-11.7445
▁Orešković	-11.7445
▁ljepotu	-11.7445
▁zanemariv	-11.7445
▁Britanije	-11.7445
▁najavljiva	-11.7445
▁pokvari	-11.7445
▁servira	-11.7445
▁zaprijetio	-11.7445
▁metaboli	-11.7445
▁jabuka	-11.7445
▁zaslon	-11.7446
▁studio	-11.7446
▁Svijet	-11.7446
▁raskid	-11.7447
▁vlažn	-11.7448
seljavanj	-11.7451
▁logističk	-11.7455
▁mračn	-11.7458
▁poezij	-11.7459
▁Monaco	-11.7463
▁zaleđ	-11.7488
inkovit	-11.7537
izgled	-11.754
spostavlja	-11.7551
▁HZZO	-11.7582
▁konstruktiv	-11.7582
▁Reddit	-11.7582
▁intelektualn	-11.7582
▁određivanj	-11.7582
▁televiziju	-11.7582
▁uznemirava	-11.7582
♬	-11.7582
▁izgovor	-11.7582
▁mehanizm	-11.7582
▁raskošn	-11.7582
▁češnjak	-11.7582
▁streljiva	-11.7582
▁razriješ	-11.7582
▁leđima	-11.7582
▁roštilj	-11.7582
▁Kolakuši	-11.7583
▁ponuđen	-11.7583
▁spretn	-11.7583
▁Dušan	-11.7583
▁Zračn	-11.7583
▁barijer	-11.7584
▁sastavljanj	-11.7584
▁počiva	-11.7584
▁Idej	-11.7586
▁krizn	-11.7587
▁pohran	-11.7588
▁Donosi	-11.7591
▁kanalizacij	-11.7592
▁ocjenjuj	-11.7593
▁izlaganj	-11.7604
▁osuđuj	-11.7606
▁Ovogodišnj	-11.7618
▁iznijel	-11.7635
▁Ubrz	-11.7675
▁Aleks	-11.772
▁Slučaj	-11.7721
▁fleksibiln	-11.7721
▁komplikacij	-11.7721
▁narudžb	-11.7721
▁preživjeti	-11.7721
▁sjevernokorejsk	-11.7721
▁sugovornic	-11.7721
▁trijumf	-11.7721
▁brašna	-11.7721
twitter	-11.7721
▁atrakcij	-11.7721
▁cipele	-11.7721
▁masakr	-11.7721
▁reputacij	-11.7721
▁zvižd	-11.7721
▁cipela	-11.7721
▁Oružan	-11.7721
▁Ajax	-11.7721
▁Miletić	-11.7721
▁Istarsk	-11.7721
▁redakcij	-11.7721
▁Valencij	-11.7721
▁važeć	-11.7722
▁Povrat	-11.7722
▁problematičn	-11.7723
▁tumači	-11.7725
▁informativn	-11.7727
▁okuša	-11.773
▁kobn	-11.7736
▁prolask	-11.7738
▁pobun	-11.7751
▁susjedstv	-11.7758
▁naftn	-11.7759
▁savjest	-11.7766
▁sobn	-11.7781
▁Medij	-11.7817
▁Aktualn	-11.7862
▁Financijsk	-11.7862
▁Guardian	-11.7862
▁Ivošević	-11.7862
▁impresionira	-11.7862
▁ispostavi	-11.7862
▁kontrola	-11.7862
▁poteškoće	-11.7862
▁prouzroči	-11.7862
▁veleposlanstv	-11.7862
▁Airlines	-11.7862
▁frustrira	-11.7862
▁Uhićen	-11.7862
▁tportal	-11.7862
▁očigled	-11.7862
▁Daruvar	-11.7862
▁profesij	-11.7862
▁pehar	-11.7862
▁burger	-11.7862
▁Formul	-11.7862
▁Zeland	-11.7863
▁odličj	-11.7863
▁Toyot	-11.7863
▁6-1	-11.7863
▁sutrašnj	-11.7864
▁izvlačenj	-11.7864
▁tenzij	-11.7864
▁Švicar	-11.7865
▁varira	-11.7868
▁jamstv	-11.7874
▁kupaonic	-11.7874
▁Nijemac	-11.7877
▁smjernic	-11.7877
▁dinamičn	-11.7884
▁dokazuj	-11.7891
zbilja	-11.7894
ivjela	-11.7905
▁radijsk	-11.7933
▁značajnij	-11.7959
▁pretpostavk	-11.8005
▁ružičast	-11.8005
MasterChef	-11.8005
▁Leverkusen	-11.8005
▁MORH	-11.8005
▁Podsjeća	-11.8005
▁Upozna	-11.8005
▁aranžman	-11.8005
▁prijestolnic	-11.8005
▁uskladi	-11.8005
▁četvrtfinala	-11.8005
▁Karlovcu	-11.8005
▁nekolicin	-11.8005
▁spontan	-11.8005
etvero	-11.8005
▁atletsk	-11.8005
▁obogati	-11.8005
▁sindrom	-11.8005
▁Lokaln	-11.8005
▁pristigl	-11.8005
▁poništen	-11.8005
▁snježn	-11.8005
▁zagrlj	-11.8005
▁opasan	-11.8006
▁Poreč	-11.8006
▁Jasenov	-11.8006
▁relacij	-11.8007
▁integrira	-11.801
▁dijeljenj	-11.8011
▁vjernici	-11.8022
▁mjese	-11.8044
▁Ljut	-11.8058
▁Jutarnj	-11.8087
▁vatrogasc	-11.8091
▁pravovremen	-11.811
▁mesn	-11.8119
zapamćen	-11.815
▁Celzijus	-11.815
▁Fernand	-11.815
▁Odvjetni	-11.815
▁delegacij	-11.815
▁gospodarstvu	-11.815
▁ljubomor	-11.815
▁označen	-11.815
▁podvrgnut	-11.815
▁primjedb	-11.815
▁referendum	-11.815
▁respekt	-11.815
▁čovječanstv	-11.815
▁Šušnjar	-11.815
▁Organizacij	-11.815
▁Vučković	-11.815
▁autohton	-11.815
▁civilizacij	-11.815
▁ugostiteljstv	-11.815
Knežević	-11.815
▁bakterije	-11.815
▁dragocjen	-11.815
▁kongres	-11.815
▁retorik	-11.815
▁albansk	-11.815
▁uvršten	-11.815
▁Harkiv	-11.815
▁Ursul	-11.815
▁povezuju	-11.815
▁Jurišić	-11.815
▁poligon	-11.815
▁ročišt	-11.815
▁Pogot	-11.815
▁zaražen	-11.815
▁nazočn	-11.815
▁Karolin	-11.815
▁Odličn	-11.8153
▁republikansk	-11.8154
▁lopov	-11.8154
▁zadovoljstv	-11.8158
▁praćen	-11.816
pečat	-11.8178
▁rasproda	-11.8184
▁kontekst	-11.8279
▁brodogradilišt	-11.8297
Width	-11.8297
hidrometeorološk	-11.8297
▁Luksemburg	-11.8297
▁Renault	-11.8297
▁krivotvoren	-11.8297
▁kukuruz	-11.8297
▁napreduje	-11.8297
▁spominju	-11.8297
▁prizemlj	-11.8297
▁HNB	-11.8297
▁Zajednic	-11.8297
▁dobavljač	-11.8297
▁organizmu	-11.8297
▁SUV	-11.8297
▁3:1	-11.8297
▁krajolik	-11.8297
▁nepovoljn	-11.8297
▁Gospe	-11.8297
▁remizira	-11.8297
▁osvježenj	-11.8297
▁Albert	-11.8297
▁Krenul	-11.8298
garantira	-11.8298
▁uložil	-11.8299
▁zaslužn	-11.83
Gospodar	-11.8301
▁propast	-11.8301
▁pump	-11.8302
▁poslastic	-11.8305
baranjsk	-11.8311
▁idejn	-11.8321
▁vozn	-11.8436
▁Prijatelji	-11.8446
▁tjeskob	-11.8446
▁Predsjednic	-11.8446
▁Publik	-11.8446
▁apsurd	-11.8446
▁nogostup	-11.8446
▁preživio	-11.8446
▁službu	-11.8446
▁1980	-11.8446
▁ažurira	-11.8446
▁površini	-11.8446
▁Savršen	-11.8446
▁Domaćin	-11.8446
▁zaprimil	-11.8446
▁Sarajeva	-11.8446
▁Varšav	-11.8446
▁bavljenj	-11.8446
▁oltar	-11.8447
▁primijeni	-11.8448
štedjeti	-11.845
▁raspolaž	-11.8451
▁Ponovn	-11.8454
▁trovanj	-11.8476
▁uvjeril	-11.8477
▁novinarstv	-11.8522
▁govornic	-11.8526
▁češk	-11.8531
▁Dalmatin	-11.8561
▁neposredn	-11.8583
▁natjecat	-11.8595
▁antioksidans	-11.8598
▁energenata	-11.8598
▁izdržati	-11.8598
▁kognitivn	-11.8598
▁ljepše	-11.8598
▁norvešk	-11.8598
▁prekretnic	-11.8598
▁pridonijel	-11.8598
▁zaprimljen	-11.8598
▁Rafael	-11.8598
▁debitant	-11.8598
▁frizer	-11.8598
▁narančast	-11.8598
▁pretpostavi	-11.8598
▁Britanac	-11.8598
▁Jablanic	-11.8598
▁usvojen	-11.8598
▁usmjerava	-11.8598
▁Bratislav	-11.8598
▁ambalaž	-11.8598
▁ublaži	-11.8598
▁izgorjel	-11.8598
▁jabuke	-11.8598
▁obožavatelja	-11.8598
▁obuhvaćen	-11.8598
▁podružnic	-11.8598
▁Sesar	-11.8598
▁horor	-11.8598
▁neviđen	-11.8598
▁audicij	-11.8601
▁Whit	-11.8602
▁kriln	-11.861
▁onakv	-11.8613
▁dobitnic	-11.8637
▁strateg	-11.8654
▁glasnogovorni	-11.8682
najviše	-11.8683
▁naslovnic	-11.8706
PIXSELL	-11.8751
▁Afganistan	-11.8751
▁Digital	-11.8751
▁Košarkaš	-11.8751
▁Marseille	-11.8751
▁Sigurdsson	-11.8751
▁UNESCO	-11.8751
▁djetinjstvo	-11.8751
▁ekonomist	-11.8751
▁frustracij	-11.8751
▁integritet	-11.8751
▁koaliciji	-11.8751
▁nezamisliv	-11.8751
▁predstojeć	-11.8751
▁suvlasnik	-11.8751
▁uravnotežen	-11.8751
▁Potpredsjedni	-11.8751
▁Scott	-11.8751
▁Vinicius	-11.8751
▁cirkus	-11.8751
▁medvjed	-11.8751
▁oduševljava	-11.8751
▁Partner	-11.8751
▁Objasni	-11.8751
▁omogućen	-11.8751
▁Floridi	-11.8751
▁Tihomir	-11.8751
▁nastavljen	-11.8751
▁Procjen	-11.8751
▁Mihovil	-11.8751
▁2:2	-11.8751
▁Pokazal	-11.8752
▁4-1	-11.8752
▁Djevojk	-11.8752
▁piletin	-11.8752
▁šokirao	-11.8752
▁Razgovaral	-11.8752
▁mrtva	-11.8752
▁polaznik	-11.8752
▁dvje	-11.8752
▁formacij	-11.8752
▁osudil	-11.8754
▁kvot	-11.8756
▁minimal	-11.8761
▁Malenic	-11.8766
▁zrn	-11.8777
▁prikazivanj	-11.878
▁smetnj	-11.8783
▁rimsk	-11.8795
Count	-11.8815
▁Aktiv	-11.8839
▁Lidij	-11.8857
ATP	-11.8866
buduće	-11.8866
HDZ	-11.8866
▁zabrinjava	-11.8886
nstruktor	-11.8908
▁Kitchen	-11.8908
▁ekosustav	-11.8908
▁evidencij	-11.8908
▁mnogobrojn	-11.8908
▁popularan	-11.8908
▁propagand	-11.8908
▁reprezentacijom	-11.8908
▁trostruk	-11.8908
▁unapređenj	-11.8908
▁univerzaln	-11.8908
▁Medicinsk	-11.8908
▁Pupovac	-11.8908
▁sofisticiran	-11.8908
▁srednjoškolsk	-11.8908
▁uspomena	-11.8908
▁Ekonomsk	-11.8908
▁kruzer	-11.8908
▁1970	-11.8908
▁Stephen	-11.8908
▁fiksn	-11.8908
▁osvanul	-11.8908
▁(25)	-11.8908
▁hidro	-11.8908
▁nemoćn	-11.8908
▁svjetli	-11.8908
▁Hladn	-11.8908
▁promič	-11.8909
▁anđel	-11.8909
▁Sljeme	-11.8909
▁Rovinj	-11.8909
NJE	-11.891
▁rizici	-11.891
▁pronalask	-11.8912
▁primirj	-11.8923
▁Akcij	-11.8946
▁Prečko	-11.8973
miješan	-11.8974
▁distribucij	-11.8977
▁putničk	-11.8987
▁analiti	-11.9065
▁Kazahstan	-11.9066
▁Magdalen	-11.9066
▁Profesor	-11.9066
▁Prosječn	-11.9066
▁Qarabag	-11.9066
▁Srebrenici	-11.9066
▁ambulant	-11.9066
▁besprijekorn	-11.9066
▁najznačajnij	-11.9066
▁oporezivanj	-11.9066
▁usklađivanj	-11.9066
▁usmrti	-11.9066
▁zaslužuju	-11.9066
▁zemljom	-11.9066
▁nepropisn	-11.9066
▁natjecal	-11.9066
▁Redovit	-11.9066
▁mliječn	-11.9066
▁vrtoglav	-11.9066
▁domovinu	-11.9066
▁Božidar	-11.9066
▁Vatikan	-11.9066
▁raspoređen	-11.9066
▁Denver	-11.9066
▁uzgaja	-11.9066
▁jadransk	-11.9067
▁slavonsk	-11.9067
▁odobrava	-11.9067
▁Pogled	-11.9067
▁udarcem	-11.9067
▁izjasni	-11.9067
▁nasljeđ	-11.9067
▁kontroverz	-11.9068
▁nesigurnost	-11.9069
▁korejsk	-11.9069
▁Veljk	-11.9072
▁trogodišnj	-11.9078
▁simpatičn	-11.9123
▁gledanj	-11.9143
▁savjetnic	-11.9187
veukupno	-11.9228
▁1997.	-11.9228
▁Regionaln	-11.9228
▁Sydney	-11.9228
▁dirigent	-11.9228
▁farmaceut	-11.9228
▁koronavirus	-11.9228
▁međimursk	-11.9228
▁pravosuđe	-11.9228
▁raznovrsn	-11.9228
▁rekreacij	-11.9228
▁slijetanj	-11.9228
▁udvostruč	-11.9228
▁veleslalom	-11.9228
▁zastupljen	-11.9228
▁Šeparović	-11.9228
▁Filozofsk	-11.9228
▁Oglasi	-11.9228
▁novorođen	-11.9228
▁predškolsk	-11.9228
▁JVP	-11.9228
▁plemenit	-11.9228
▁Škabrnj	-11.9228
▁pohvale	-11.9228
▁pojačati	-11.9228
▁izazvan	-11.9228
▁policajca	-11.9228
▁unazad	-11.9228
▁Dubrava	-11.9228
▁pojavljivanj	-11.9228
▁dioničar	-11.9228
▁najduž	-11.9228
▁pokriven	-11.9228
▁čarolij	-11.9228
▁šetnic	-11.9228
▁spektr	-11.9229
▁Studentsk	-11.9229
▁vještačenj	-11.9229
▁Prvenstv	-11.9232
▁drevn	-11.9238
▁vrsn	-11.9243
Kitarovi	-11.9243
▁uličn	-11.9254
▁porcij	-11.9263
▁najčešć	-11.9306
suprot	-11.9309
▁Jakirovi	-11.938
▁Godišnj	-11.9392
▁2028.	-11.9392
▁Automobil	-11.9392
▁Pukštas	-11.9392
▁Virovitic	-11.9392
▁asistenciju	-11.9392
▁cijepljenj	-11.9392
▁digitalizacij	-11.9392
▁implementacij	-11.9392
▁meteoalarm	-11.9392
▁migrante	-11.9392
▁portfelj	-11.9392
▁prekrši	-11.9392
▁sjeveroistočn	-11.9392
▁transplantacij	-11.9392
▁tvrđav	-11.9392
▁veličanstven	-11.9392
▁Jelavić	-11.9392
▁Katoličk	-11.9392
▁jubilarn	-11.9392
▁stravičn	-11.9392
▁pljusak	-11.9392
▁Diddy	-11.9392
▁Gospin	-11.9392
▁HGK	-11.9392
▁religij	-11.9392
▁Prisjeti	-11.9392
▁Tatjan	-11.9392
▁pojačava	-11.9392
▁opseg	-11.9393
▁vaganj	-11.9397
▁skijanj	-11.9399
▁trošk	-11.9402
▁razorn	-11.9402
▁solidn	-11.9403
▁optimizm	-11.9415
▁karizm	-11.9446
▁simboličn	-11.9465
▁Istočn	-11.9479
▁križanj	-11.9508
Hrvatska	-11.9516
▁upozoren	-11.9534
▁osumnji	-11.9554
BeforeDisplay	-11.9558
ä	-11.9558
▁Barcelonu	-11.9558
▁Express	-11.9558
▁Muškarc	-11.9558
▁Olympia	-11.9558
▁Philip	-11.9558
▁klijenata	-11.9558
▁kontroln	-11.9558
▁neophodn	-11.9558
▁ohladi	-11.9558
▁orijentiran	-11.9558
▁ovosezonsk	-11.9558
▁poginule	-11.9558
▁predrasud	-11.9558
▁produktivnost	-11.9558
▁promidžb	-11.9558
▁sklapanj	-11.9558
▁zapovijed	-11.9558
▁zastrašujuć	-11.9558
▁židovsk	-11.9558
▁kardinal	-11.9558
▁videozapis	-11.9558
▁Događa	-11.9558
▁Malmö	-11.9558
▁Rukavin	-11.9558
▁sanitarn	-11.9558
▁Povećan	-11.9558
▁nadoveza	-11.9558
▁stablo	-11.9558
▁udomitelj	-11.9558
▁autogol	-11.9558
▁raspodjel	-11.9558
▁Stojković	-11.9558
▁saudijsk	-11.9558
▁Napominj	-11.9558
▁smeća	-11.9558
▁Superkup	-11.9558
▁Lastov	-11.9559
▁inačic	-11.956
▁ljubimac	-11.9563
▁vitaln	-11.9564
▁zabrinjavajuć	-11.9581
▁Posljed	-11.9601
▁djelatnic	-11.9667
▁Azerbajdžan	-11.9728
▁Egipat	-11.9728
▁Razgovor	-11.9728
▁Stewart	-11.9728
▁dijaspor	-11.9728
▁incidenata	-11.9728
▁inteligenciju	-11.9728
▁katastrofe	-11.9728
▁kladionicama	-11.9728
▁tablici	-11.9728
▁transformira	-11.9728
▁zamrznut	-11.9728
­	-12.0436
ç	-12.081
·	-12.1811
è	-12.2241
€	-12.3613
Đ	-12.3869
}	-12.624
️	-12.624
ñ	-12.6574
ë	-12.6574
â	-12.6919
ł	-12.8031
ø	-12.8847
å	-12.9737
ã	-12.9737
à	-13.0213
#	-13.0671
°	-13.0671
®	-13.1795
е	-13.1795
×	-13.3008
ú	-13.3675
►	-13.3675
ğ	-13.5158
ô	-13.5158
●	-13.5991
ï	-13.6901
[	-13.7847
ð	-13.7901
ò	-13.7901
🟨	-13.7901
ê	-13.9012
î	-14.0262
ß	-14.0262
ı	-14.0262
⚤	-14.0262
🔥	-14.0262
ì	-14.169
	-14.169
🎁	-14.169
😂	-14.169
ř	-14.169
ρ	-14.3357
ė	-14.3357
🇷	-14.3357
🇸	-14.3357
μ	-14.5357
`	-14.5357
ą	-14.5357
ě	-14.5357
ο	-14.5357
ς	-14.5357
⁠	-14.5357
📌	-14.5357
ń	-14.7857
ő	-14.7857
Å	-14.7857
ț	-14.7857
о	-14.7857
‒	-14.7857
♥	-14.7857
⚽	-14.7857
	-14.7857
🇺	-14.7857
а	-15.119
^	-15.119
§	-15.119
Ú	-15.119
ý	-15.119
ā	-15.119
ę	-15.119
ȗ	-15.119
ή	-15.119
ј	-15.119
‍	-15.119
―	-15.119
‖	-15.119
✓	-15.119
🇭	-15.119
💙	-15.119
Ü	-15.119
Í	-15.119
‐	-15.119
τ	-15.619
έ	-15.619
α	-15.619
π	-15.619
ό	-15.619
	-15.619
¡	-15.619
±	-15.619
Ä	-15.619
Ø	-15.619
ù	-15.619
û	-15.619
ă	-15.619
ē	-15.619
ś	-15.619
ū	-15.619
ż	-15.619
ȉ	-15.619
ș	-15.619
̊	-15.619
н	-15.619
ἀ	-15.619
‟	-15.619
∶	-15.619
▶	-15.619
♡	-15.619
♦	-15.619
シ	-15.619
🔄	-15.619
😅	-15.619
😍	-15.619
😎	-15.619
🙏	-15.619
🟡	-15.619
🤩	-15.619
🤯	-15.619
🥚	-15.619
ĉ	-15.619
🏻	-15.619
🇱	-15.619
🦟	-16.616
🕸	-16.6161
🕷	-16.6162
💕	-16.6163
ྀ	-16.6164
ི	-16.6165
Ş	-16.6166
🌸	-16.6167
̧	-16.6168
Ð	-16.6169
👀	-16.617
⚠	-16.6171
ṣ	-16.6172
̈	-16.6173
Ó	-16.6174
❤	-16.6175
✔	-16.6176
Ś	-16.6177
©	-16.6178
☘	-16.6179
Ç	-16.618
Á	-16.6181
ş	-16.6182
̋	-16.6183
É	-16.6184
̌	-16.6185
⁄	-16.6186
{	-16.6187
<	-16.6188
Ö	-16.6189
•	-16.619
🌐	-16.619
υ	-16.619
ω	-16.619
🎀	-16.619
Ł	-16.619
ȑ	-16.619
ӧ	-16.619
È	-16.619
£	-16.619
¤	-16.619
¿	-16.619
À	-16.619
Ò	-16.619
Ô	-16.619
õ	-16.619
Ď	-16.619
İ	-16.619
ľ	-16.619
ň	-16.619
ō	-16.619
ţ	-16.619
ů	-16.619
ź	-16.619
Ƙ	-16.619
ȃ	-16.619
ə	-16.619
̣	-16.619
Ω	-16.619
γ	-16.619
δ	-16.619
χ	-16.619
К	-16.619
л	-16.619
ь	-16.619
і	-16.619
Ґ	-16.619
ӣ	-16.619
ṓ	-16.619
ọ	-16.619
ố	-16.619
‰	-16.619
↑	-16.619
⇒	-16.619
−	-16.619
⏱	-16.619
■	-16.619
▪	-16.619
○	-16.619
☀	-16.619
☃	-16.619
☑	-16.619
☺	-16.619
♀	-16.619
⚫	-16.619
✠	-16.619
✨	-16.619
❄	-16.619
传	-16.619
多	-16.619
陈	-16.619
🇫	-16.619
🇾	-16.619
🌋	-16.619
🌠	-16.619
🌧	-16.619
🌨	-16.619
🌺	-16.619
🌻	-16.619
🍉	-16.619
🍊	-16.619
🎗	-16.619
🏡	-16.619
🐄	-16.619
🐥	-16.619
🐦	-16.619
🐱	-16.619
🐶	-16.619
👁	-16.619
👇	-16.619
👣	-16.619
💅	-16.619
💋	-16.619
💎	-16.619
💘	-16.619
💚	-16.619
💟	-16.619
💪	-16.619
💯	-16.619
📢	-16.619
📱	-16.619
📸	-16.619
🔹	-16.619
🕓	-16.619
🖥	-16.619
😀	-16.619
😁	-16.619
😉	-16.619
😊	-16.619
😏	-16.619
😬	-16.619
😭	-16.619
🙂	-16.619
🙌	-16.619
🛁	-16.619
🤍	-16.619
🤔	-16.619
🤢	-16.619
🤦	-16.619
🤪	-16.619
🥥	-16.619
🥰	-16.619
🥲	-16.619
🥹	-16.619
🥺	-16.619
🩹	-16.619
🩺	-16.619
🪐	-16.619
🫒	-16.619
🫠	-16.619
🫶	-16.619
Î	-16.619
ʟ	-16.619
👶	-16.619
(	-16.6191
🇦	-16.6191
🇧	-16.6191
🇬	-16.6191
🇮	-16.6191
🇵	-16.6191
