[UNK]	0
[CLS]	1
[SEP]	2
[PAD]	3
[MASK]	4
!	5
"	6
#	7
$	8
%	9
&	10
'	11
(	12
)	13
*	14
+	15
,	16
-	17
.	18
/	19
0	20
1	21
2	22
3	23
4	24
5	25
6	26
7	27
8	28
9	29
:	30
;	31
<	32
=	33
>	34
?	35
@	36
[	37
\	38
]	39
^	40
_	41
`	42
a	43
b	44
c	45
d	46
e	47
f	48
g	49
h	50
i	51
j	52
k	53
l	54
m	55
n	56
o	57
p	58
q	59
r	60
s	61
t	62
u	63
v	64
w	65
x	66
y	67
z	68
{	69
}	70
	71
¡	72
£	73
¤	74
§	75
©	76
­	77
®	78
°	79
±	80
·	81
¿	82
×	83
ß	84
à	85
á	86
â	87
ã	88
ä	89
å	90
ç	91
è	92
é	93
ê	94
ë	95
ì	96
í	97
î	98
ï	99
ð	100
ñ	101
ò	102
ó	103
ô	104
õ	105
ö	106
ø	107
ù	108
ú	109
û	110
ü	111
ý	112
ā	113
ă	114
ą	115
ć	116
ĉ	117
č	118
ď	119
đ	120
ē	121
ė	122
ę	123
ě	124
ğ	125
ı	126
ľ	127
ł	128
ń	129
ň	130
ō	131
ő	132
ř	133
ś	134
ş	135
š	136
ţ	137
ū	138
ů	139
ź	140
ż	141
ž	142
ƙ	143
ȃ	144
ȉ	145
ȑ	146
ȗ	147
ș	148
ț	149
ə	150
ʟ	151
̇	152
̈	153
̊	154
̋	155
̌	156
̧	157
έ	158
ή	159
α	160
γ	161
δ	162
μ	163
ο	164
π	165
ρ	166
ς	167
τ	168
υ	169
χ	170
ω	171
ό	172
а	173
е	174
к	175
л	176
н	177
о	178
ь	179
і	180
ј	181
ґ	182
ӣ	183
ӧ	184
ི	185
ྀ	186
ṓ	187
ṣ	188
ọ	189
ố	190
ἀ	191
‍	192
‎	193
‐	194
‒	195
―	196
‖	197
‟	198
•	199
‰	200
′	201
⁄	202
⁠	203
€	204
↑	205
⇒	206
−	207
∶	208
⏱	209
■	210
▪	211
▶	212
►	213
○	214
●	215
☀	216
☃	217
☑	218
☘	219
☺	220
♀	221
♡	222
♥	223
♦	224
♬	225
⚠	226
⚤	227
⚫	228
⚽	229
✓	230
✔	231
✠	232
✨	233
❄	234
❤	235
シ	236
传	237
多	238
陈	239
	240
	241
️	242
🇦	243
🇧	244
🇫	245
🇬	246
🇭	247
🇮	248
🇱	249
🇵	250
🇷	251
🇸	252
🇺	253
🇾	254
🌋	255
🌐	256
🌠	257
🌧	258
🌨	259
🌸	260
🌺	261
🌻	262
🍉	263
🍊	264
🎀	265
🎁	266
🎗	267
🏡	268
🏻	269
🐄	270
🐥	271
🐦	272
🐱	273
🐶	274
👀	275
👁	276
👇	277
👣	278
👶	279
💅	280
💋	281
💎	282
💕	283
💘	284
💙	285
💚	286
💟	287
💪	288
💯	289
📌	290
📢	291
📱	292
📸	293
🔄	294
🔥	295
🔹	296
🕓	297
🕷	298
🕸	299
🖥	300
😀	301
😁	302
😂	303
😅	304
😉	305
😊	306
😍	307
😎	308
😏	309
😬	310
😭	311
🙂	312
🙌	313
🙏	314
🛁	315
🟡	316
🟨	317
🤍	318
🤔	319
🤢	320
🤦	321
🤩	322
🤪	323
🤯	324
🥚	325
🥥	326
🥰	327
🥲	328
🥹	329
🥺	330
🦟	331
🩹	332
🩺	333
🪐	334
🫒	335
🫠	336
🫶	337
##u	338
##t	339
##r	340
##a	341
##š	342
##n	343
##j	344
##e	345
##d	346
##s	347
##v	348
##l	349
##o	350
##m	351
##k	352
##č	353
##g	354
##b	355
##i	356
##ć	357
##p	358
##c	359
##0	360
##4	361
##1	362
##h	363
##_	364
##2	365
##7	366
##3	367
##6	368
##8	369
##9	370
##ž	371
##đ	372
##y	373
##z	374
##f	375
##w	376
##5	377
##x	378
##ç	379
##q	380
##é	381
##å	382
##.	383
##)	384
##,	385
##ł	386
##ü	387
##ä	388
##ý	389
##💙	390
##ö	391
##ė	392
##ó	393
##"	394
##ţ	395
##&	396
##ô	397
##á	398
##!	399
##ð	400
##ë	401
##ț	402
##í	403
##;	404
##è	405
##🤢	406
##*	407
##🥹	408
##🙏	409
##❤	410
##ß	411
##ì	412
##+	413
##'	414
##ú	415
##\	416
##/	417
##ø	418
##-	419
##ě	420
##а	421
##о	422
##е	423
##ą	424
##ή	425
##ρ	426
##:	427
##[	428
##ľ	429
##]	430
##?	431
##ē	432
##ј	433
##ï	434
##}	435
##ğ	436
##🤯	437
##@	438
##л	439
##н	440
##😏	441
##â	442
##🕷	443
##ñ	444
##🇷	445
##😁	446
##>	447
###	448
##ọ	449
##ê	450
##ę	451
##ř	452
##%	453
##🤩	454
##<	455
##ń	456
##ò	457
##ő	458
##ù	459
##ş	460
##ā	461
##🛁	462
##	463
##γ	464
##à	465
##ό	466
##μ	467
##ο	468
##ς	469
##ã	470
##传	471
##多	472
##✨	473
##õ	474
##{	475
##′	476
##`	477
##ı	478
##🏻	479
##­	480
##î	481
##ི	482
##ྀ	483
##🇸	484
##🔄	485
##ĉ	486
##ṓ	487
##ă	488
##ӣ	489
##🇾	490
##🇧	491
##🇺	492
##🇦	493
##🇵	494
##🇱	495
##🇮	496
##🍊	497
##🌻	498
##ṣ	499
##̌	500
##💪	501
##ď	502
##ź	503
##•	504
##ș	505
##シ	506
##ů	507
##😂	508
##ȗ	509
##û	510
##↑	511
##ś	512
##ȑ	513
##️	514
##ə	515
##‍	516
##ȉ	517
##🥚	518
##χ	519
##⚫	520
##⚠	521
##ȃ	522
##ż	523
##¤	524
##̇	525
##$	526
##(	527
##ố	528
##έ	529
##👣	530
##⁠	531
##ū	532
##і	533
##🫠	534
##ω	535
##τ	536
##υ	537
##π	538
##ӧ	539
##🔥	540
##ь	541
##ň	542
##ō	543
##¿	544
##¡	545
##je	546
##ra	547
##ti	548
##ni	549
je	550
na	551
##li	552
##ro	553
##no	554
po	555
##la	556
##re	557
##ko	558
##ri	559
##na	560
##va	561
##ta	562
##ja	563
##ma	564
##te	565
##vi	566
##vo	567
za	568
ko	569
##di	570
##to	571
##ji	572
##ka	573
##ju	574
##ne	575
##da	576
da	577
##ci	578
se	579
##ca	580
##lo	581
##ve	582
do	583
su	584
ka	585
ne	586
##st	587
od	588
##mo	589
##le	590
bi	591
iz	592
##ru	593
##ije	594
pro	595
##ki	596
##nu	597
sa	598
##me	599
##sta	600
##go	601
ra	602
##nje	603
##ke	604
##ku	605
pre	606
pri	607
##sti	608
mo	609
##ron	610
##caron	611
##ga	612
to	613
##de	614
go	615
##zi	616
##nja	617
##lu	618
##lje	619
##bi	620
##po	621
##mi	622
re	623
##pa	624
##tu	625
ma	626
te	627
##cu	628
##ba	629
##bo	630
mi	631
##či	632
no	633
##si	634
##sko	635
##ce	636
##če	637
##za	638
pa	639
##sa	640
koji	641
##ski	642
ve	643
ccaron	644
##ći	645
##še	646
vi	647
ta	648
ca	649
##lja	650
##du	651
##sto	652
##do	653
##ča	654
ni	655
##pi	656
##gu	657
će	658
##že	659
##gra	660
##će	661
godi	662
##se	663
##cute	664
cacute	665
što	666
me	667
##nom	668
##ća	669
##rva	670
bo	671
st	672
ob	673
##nog	674
##nih	675
ja	676
va	677
##ša	678
os	679
##vje	680
##ža	681
pu	682
##lji	683
##nim	684
ima	685
li	686
##ži	687
vo	688
tre	689
##ske	690
kako	691
##pu	692
##vr	693
zcaron	694
in	695
##cija	696
##ši	697
hrva	698
##jed	699
##pe	700
##lj	701
svo	702
##be	703
##su	704
di	705
##ge	706
##vu	707
hrvat	708
naj	709
sta	710
dru	711
nje	712
sve	713
##nju	714
##gi	715
si	716
##zo	717
ali	718
##ze	719
##đe	720
nije	721
ba	722
koje	723
##nji	724
pred	725
##vije	726
eu	727
raz	728
##lju	729
gra	730
##rije	731
=>	732
##dje	733
de	734
##kom	735
kao	736
jo	737
##mje	738
##cije	739
##kon	740
pr	741
20	742
##ho	743
ku	744
##ska	745
pos	746
##vno	747
##jo	748
be	749
pe	750
",	751
##ran	752
##mu	753
##tak	754
is	755
pod	756
če	757
##nik	758
jed	759
##nika	760
nakon	761
sam	762
ti	763
##stu	764
##pre	765
pi	766
##pra	767
pot	768
pra	769
du	770
##nije	771
zna	772
mje	773
##nici	774
tu	775
godine	776
ru	777
ga	778
##so	779
##zu	780
##rža	781
##zna	782
smo	783
dje	784
##nt	785
mu	786
lju	787
dana	788
fi	789
ot	790
##bu	791
pla	792
biti	793
##vić	794
ili	795
koja	796
ovo	797
samo	798
tako	799
##đa	800
##skog	801
##đu	802
##rati	803
gla	804
više	805
##rt	806
##nta	807
ro	808
##govo	809
uz	810
us	811
##nosti	812
##dio	813
##stav	814
##liko	815
##",	816
bu	817
bio	818
tra	819
svi	820
##tiv	821
lo	822
nji	823
kra	824
prije	825
poli	826
":	827
igra	828
##kao	829
##fi	830
ži	831
##nica	832
":"	833
že	834
##ha	835
##nost	836
la	837
kon	838
ju	839
vla	840
##gle	841
još	842
može	843
##šta	844
"",	845
##ste	846
##dan	847
##čki	848
##or	849
zbo	850
##vanje	851
jer	852
##gre	853
##tra	854
stra	855
##noj	856
zbog	857
##skoj	858
spo	859
treba	860
##vati	861
sva	862
##ču	863
##skom	864
au	865
##skih	866
rekao	867
##stro	868
euro	869
mogu	870
##nda	871
##00	872
ha	873
posto	874
##nti	875
##he	876
##tje	877
##gla	878
##vio	879
bilo	880
či	881
bro	882
##telji	883
rije	884
vr	885
##bro	886
slu	887
veli	888
##sku	889
godina	890
osta	891
##tno	892
ki	893
##mije	894
##dra	895
##ciju	896
##fe	897
##vali	898
##stva	899
vje	900
##nal	901
##šte	902
uk	903
op	904
##ću	905
##sjed	906
##št	907
ova	908
202	909
dok	910
##vanja	911
##red	912
obja	913
##stra	914
doda	915
cije	916
oso	917
obi	918
kada	919
prema	920
##nice	921
radi	922
oko	923
kri	924
ze	925
sto	926
##rija	927
eura	928
tri	929
##lije	930
le	931
##_2	932
##čko	933
već	934
##vom	935
dstro	936
dstrok	937
an	938
##reme	939
ce	940
bila	941
utak	942
utakmi	943
##..	944
##tom	945
mora	946
##kla	947
tije	948
##sno	949
predsjed	950
fo	951
ako	952
##vlja	953
zagre	954
##pli	955
dobi	956
pob	957
##tni	958
novi	959
njego	960
sla	961
drža	962
##telj	963
##pg	964
jpg	965
sr	966
##rno	967
##20	968
izbo	969
##vori	970
##kri	971
19	972
##hi	973
nas	974
##što	975
među	976
živo	977
fa	978
##sni	979
or	980
##vni	981
kad	982
##joj	983
##lim	984
##kre	985
##van	986
##vlje	987
##rom	988
##pri	989
ci	990
ak	991
##nima	992
ih	993
##jom	994
##om	995
iza	996
ljudi	997
protiv	998
odlu	999
so	1000
##viti	1001
##ter	1002
##ciji	1003
##cio	1004
##tko	1005
##stvo	1006
lu	1007
##bli	1008
auto	1009
##ng	1010
ho	1011
##skim	1012
kori	1013
dva	1014
jedan	1015
##vara	1016
neko	1017
##ven	1018
kre	1019
".	1020
svoje	1021
##vima	1022
svje	1023
slo	1024
##rni	1025
mla	1026
##čno	1027
bez	1028
##šti	1029
...	1030
##ner	1031
##80	1032
odno	1033
##_27	1034
on	1035
njiho	1036
nema	1037
##jte	1038
##jući	1039
vrije	1040
sada	1041
tr	1042
##spo	1043
##met	1044
upra	1045
##ško	1046
bra	1047
drugi	1048
poče	1049
##lazi	1050
posta	1051
##gleda	1052
##voj	1053
##al	1054
##žu	1055
ča	1056
##čke	1057
klu	1058
ri	1059
im	1060
mili	1061
##pisa	1062
mar	1063
##cij	1064
##ble	1065
gdje	1066
##sla	1067
##godi	1068
sje	1069
nam	1070
##ren	1071
pita	1072
##jek	1073
izra	1074
osi	1075
europ	1076
##40	1077
nego	1078
ove	1079
10	1080
še	1081
stu	1082
trenu	1083
prvi	1084
##ruč	1085
lije	1086
##rao	1087
pje	1088
sre	1089
pomo	1090
sma	1091
##tro	1092
##ndi	1093
taj	1094
sad	1095
sigu	1096
dobro	1097
##nuti	1098
##njem	1099
##kup	1100
sti	1101
broj	1102
dije	1103
nisu	1104
##vila	1105
par	1106
##tar	1107
pove	1108
obra	1109
##pje	1110
##vao	1111
tvr	1112
##tka	1113
##iz	1114
##lom	1115
##for	1116
danas	1117
prija	1118
##sje	1119
##šao	1120
hrvatske	1121
toga	1122
##niji	1123
zdra	1124
##tvr	1125
rad	1126
vrijeme	1127
##log	1128
##stup	1129
),	1130
##stavlja	1131
##sre	1132
##vaju	1133
poka	1134
##pla	1135
mini	1136
ste	1137
proble	1138
društ	1139
##dom	1140
kod	1141
pozi	1142
##nuo	1143
svije	1144
popu	1145
napa	1146
politi	1147
proš	1148
##vim	1149
dina	1150
##tio	1151
##tim	1152
ide	1153
spli	1154
ško	1155
##nski	1156
ši	1157
žu	1158
zajed	1159
dio	1160
##bno	1161
neki	1162
##bra	1163
##dno	1164
##nko	1165
fina	1166
medi	1167
pose	1168
zah	1169
al	1170
##meta	1171
##cima	1172
oz	1173
##rima	1174
##vih	1175
isto	1176
##dne	1177
##kto	1178
tijekom	1179
drugo	1180
grad	1181
najbo	1182
sezo	1183
upo	1184
##zira	1185
potre	1186
godiš	1187
cr	1188
mjese	1189
##star	1190
poslje	1191
nekoliko	1192
bili	1193
##nd	1194
stva	1195
##rio	1196
ukra	1197
kro	1198
##vog	1199
zavr	1200
foto	1201
doma	1202
##vijek	1203
svoji	1204
##sli	1205
istra	1206
##tjeca	1207
oba	1208
##el	1209
##vala	1210
put	1211
##nira	1212
##lno	1213
zem	1214
##govor	1215
##rta	1216
koju	1217
dra	1218
proiz	1219
poru	1220
12	1221
sna	1222
##ška	1223
##gao	1224
##dar	1225
dvo	1226
isti	1227
otkri	1228
gu	1229
##sam	1230
pobje	1231
kom	1232
lje	1233
##diti	1234
dan	1235
umje	1236
##jem	1237
##vija	1238
uspje	1239
orga	1240
pozna	1241
nogo	1242
sati	1243
##lek	1244
vide	1245
nasta	1246
nika	1247
ar	1248
##nio	1249
kaže	1250
prili	1251
##čio	1252
ge	1253
osje	1254
fe	1255
kaza	1256
projek	1257
miliju	1258
malo	1259
br	1260
##pan	1261
prva	1262
##nosi	1263
hi	1264
ona	1265
uvijek	1266
poslo	1267
15	1268
##meri	1269
hrvatskoj	1270
##hu	1271
puno	1272
##novi	1273
dr	1274
nešto	1275
##stve	1276
zapo	1277
##čka	1278
proizvo	1279
##tku	1280
##zul	1281
##đer	1282
tome	1283
jedna	1284
##vne	1285
jako	1286
također	1287
ope	1288
##cional	1289
oni	1290
čla	1291
njezi	1292
hrvatska	1293
vreme	1294
##žbe	1295
##nija	1296
##vore	1297
##klju	1298
##vši	1299
poja	1300
dvije	1301
##dnji	1302
jedi	1303
nad	1304
inte	1305
##ako	1306
organi	1307
##vna	1308
##tne	1309
##nske	1310
rezul	1311
ukraji	1312
ša	1313
oče	1314
ovaj	1315
pet	1316
##ver	1317
izme	1318
tro	1319
##telja	1320
kome	1321
##kupi	1322
pono	1323
ameri	1324
svjet	1325
he	1326
##nk	1327
vozi	1328
##nova	1329
##tivno	1330
201	1331
##volj	1332
fil	1333
iako	1334
prote	1335
doga	1336
najve	1337
##vla	1338
##klo	1339
haj	1340
##risti	1341
tak	1342
##rak	1343
##vili	1344
ministar	1345
bri	1346
budu	1347
održa	1348
pogo	1349
kojima	1350
30	1351
##ss	1352
predsjednik	1353
##man	1354
ono	1355
ple	1356
nači	1357
jedno	1358
neće	1359
napra	1360
tek	1361
rezulta	1362
##dova	1363
milijuna	1364
##gli	1365
##vnog	1366
##co	1367
nu	1368
##voji	1369
rekla	1370
navo	1371
vrlo	1372
##tan	1373
##tua	1374
fran	1375
##lni	1376
##op	1377
onda	1378
##rne	1379
##dru	1380
ču	1381
veći	1382
voj	1383
kojem	1384
imaju	1385
##tiri	1386
##šu	1387
čak	1388
ista	1389
##vreme	1390
govori	1391
##pro	1392
##ted	1393
tru	1394
##zenta	1395
hajdu	1396
gle	1397
zagreba	1398
##in	1399
##nj	1400
uvje	1401
mnog	1402
##sio	1403
područ	1404
ras	1405
sli	1406
##nama	1407
uklju	1408
sluča	1409
##bio	1410
spa	1411
##kra	1412
situa	1413
između	1414
koliko	1415
11	1416
##vnom	1417
dese	1418
##pak	1419
uči	1420
##stru	1421
##niti	1422
svoj	1423
poku	1424
kroz	1425
##đi	1426
##više	1427
dalje	1428
rea	1429
veliki	1430
progra	1431
##čkog	1432
kojoj	1433
##bri	1434
repre	1435
razli	1436
##tovo	1437
##smo	1438
mre	1439
vu	1440
njema	1441
vam	1442
##kli	1443
pokaza	1444
##rana	1445
video	1446
##forma	1447
vije	1448
reprezenta	1449
##kr	1450
događa	1451
tko	1452
##rna	1453
ula	1454
prosto	1455
naše	1456
vara	1457
gleda	1458
tada	1459
##čne	1460
publi	1461
##lne	1462
svojim	1463
dugo	1464
smje	1465
njih	1466
##dri	1467
nova	1468
vra	1469
dola	1470
neka	1471
župa	1472
##vanju	1473
pripre	1474
četvr	1475
bli	1476
ćemo	1477
vodi	1478
##tem	1479
mom	1480
##tke	1481
svoju	1482
obje	1483
važ	1484
##vor	1485
##tima	1486
##com	1487
##rod	1488
##zne	1489
##stri	1490
građa	1491
##ry	1492
##nera	1493
loka	1494
glaz	1495
##24	1496
##nović	1497
##nka	1498
glu	1499
##dnje	1500
kr	1501
ke	1502
joj	1503
##čni	1504
##nače	1505
##kle	1506
pora	1507
bih	1508
co	1509
kvali	1510
pogleda	1511
mjesto	1512
##jan	1513
smatra	1514
).	1515
ljuba	1516
zo	1517
poput	1518
hd	1519
minu	1520
pret	1521
prona	1522
##čić	1523
mila	1524
##ški	1525
##nicima	1526
',	1527
##roja	1528
radio	1529
zat	1530
bit	1531
##rali	1532
puta	1533
uda	1534
kandi	1535
prven	1536
##fa	1537
##nci	1538
##riti	1539
konce	1540
jednom	1541
##ždi	1542
iva	1543
tom	1544
zašti	1545
##_271	1546
inter	1547
osoba	1548
vidje	1549
##lova	1550
četiri	1551
osigu	1552
ime	1553
2024	1554
zdrav	1555
sred	1556
varaždi	1557
istak	1558
dinamo	1559
##titi	1560
##stava	1561
##ks	1562
##dije	1563
izja	1564
društve	1565
##mir	1566
mladi	1567
osim	1568
##ncija	1569
##šnji	1570
13	1571
18	1572
split	1573
##nali	1574
bor	1575
pokuša	1576
želi	1577
##šli	1578
naja	1579
fu	1580
službe	1581
slobo	1582
##ct	1583
##šnje	1584
javno	1585
000	1586
ov	1587
tisu	1588
osvoji	1589
##stvu	1590
##_1	1591
vrati	1592
preko	1593
druge	1594
##vijesti	1595
##bije	1596
zra	1597
način	1598
##vede	1599
nastu	1600
odu	1601
hrvatski	1602
##_2720	1603
grada	1604
##čiti	1605
utakmice	1606
##movi	1607
##štu	1608
##govara	1609
odnosno	1610
bla	1611
imao	1612
##čkih	1613
ipak	1614
posje	1615
##pad	1616
gr	1617
kandida	1618
primje	1619
prvo	1620
##mpa	1621
sura	1622
kul	1623
kru	1624
pone	1625
piše	1626
##nula	1627
##ćem	1628
17	1629
##sao	1630
##cijama	1631
život	1632
##čili	1633
##sle	1634
hr	1635
mnogi	1636
##rani	1637
##rica	1638
gru	1639
kar	1640
##bora	1641
promje	1642
spre	1643
.,	1644
##rac	1645
hdz	1646
navija	1647
##ksi	1648
##fo	1649
pokre	1650
neo	1651
##sne	1652
dogodi	1653
obitelji	1654
sport	1655
ulo	1656
##vesti	1657
manje	1658
razi	1659
teško	1660
susre	1661
skupi	1662
promet	1663
##pada	1664
stran	1665
uli	1666
dubro	1667
##plo	1668
##per	1669
vri	1670
natjeca	1671
srp	1672
##čkom	1673
pravo	1674
##nskog	1675
vas	1676
gro	1677
sezone	1678
##lima	1679
završi	1680
##lma	1681
zaklju	1682
##pusti	1683
potvr	1684
ener	1685
viso	1686
una	1687
##šnja	1688
nisam	1689
##ime	1690
##tna	1691
svako	1692
50	1693
tje	1694
##an	1695
##dila	1696
##men	1697
vlasti	1698
##čkoj	1699
en	1700
čo	1701
koristi	1702
gotovo	1703
##dam	1704
poveća	1705
##mobi	1706
strane	1707
gospo	1708
##rala	1709
maj	1710
##cted	1711
##riji	1712
kla	1713
suda	1714
unu	1715
##dili	1716
([	1717
posebno	1718
##ljede	1719
tim	1720
fotogra	1721
oda	1722
ure	1723
nove	1724
16	1725
##tre	1726
vremena	1727
protected	1728
regi	1729
svih	1730
pote	1731
odre	1732
##ranje	1733
naš	1734
vode	1735
##ške	1736
sup	1737
##ljivo	1738
##vra	1739
tere	1740
naši	1741
##čer	1742
informa	1743
##slu	1744
##đen	1745
poda	1746
mjesta	1747
potpu	1748
sigurno	1749
teh	1750
automobi	1751
##žda	1752
premije	1753
njega	1754
##sna	1755
nagra	1756
##vnih	1757
imati	1758
ovom	1759
##nicu	1760
##teta	1761
##menta	1762
sudje	1763
vrijed	1764
šu	1765
proda	1766
##ljem	1767
stude	1768
obo	1769
organiza	1770
##x1	1771
emo	1772
one	1773
obitelj	1774
##rtu	1775
odma	1776
kazao	1777
25	1778
možda	1779
##pozna	1780
kraju	1781
ostva	1782
vidi	1783
zato	1784
ništa	1785
kultu	1786
sredi	1787
##tor	1788
##mogu	1789
bude	1790
14	1791
rje	1792
glazbe	1793
ovog	1794
upravo	1795
##tri	1796
kolo	1797
mari	1798
izbor	1799
nacional	1800
##čan	1801
##vica	1802
baš	1803
##njak	1804
##čna	1805
isku	1806
knji	1807
##nike	1808
supru	1809
utakmica	1810
nesre	1811
muška	1812
##hva	1813
policija	1814
##40x	1815
part	1816
teme	1817
##snije	1818
polu	1819
zagrebu	1820
momča	1821
kazne	1822
mogao	1823
##ll	1824
##zor	1825
nagla	1826
##mp	1827
##ar	1828
##nce	1829
mis	1830
napo	1831
##uze	1832
nedje	1833
##šić	1834
hra	1835
##nde	1836
odgovo	1837
grado	1838
200	1839
izgu	1840
dire	1841
sm	1842
uo	1843
istraži	1844
mode	1845
##raju	1846
spe	1847
neke	1848
##as	1849
plenko	1850
godinu	1851
ok	1852
svaki	1853
francu	1854
##rovi	1855
najbolji	1856
mate	1857
podr	1858
object	1859
podu	1860
##kova	1861
##kuje	1862
kojeg	1863
napada	1864
zako	1865
##hvati	1866
21	1867
kak	1868
tran	1869
tele	1870
osjeća	1871
pogledajte	1872
##čaj	1873
##pred	1874
njegova	1875
pjes	1876
imamo	1877
##rce	1878
##kav	1879
pitanje	1880
klju	1881
špan	1882
##oj	1883
##ck	1884
at	1885
dodao	1886
posla	1887
kont	1888
njegov	1889
subo	1890
zla	1891
ivan	1892
karije	1893
djela	1894
sigur	1895
##dre	1896
zado	1897
opa	1898
imali	1899
riječ	1900
##ković	1901
rodi	1902
napisa	1903
vlada	1904
##lić	1905
##bija	1906
čeka	1907
otvore	1908
##che	1909
upozo	1910
prizna	1911
često	1912
repu	1913
##blje	1914
cent	1915
for	1916
udru	1917
##rma	1918
24	1919
odra	1920
priča	1921
bije	1922
##nar	1923
##šla	1924
niko	1925
pru	1926
struč	1927
druga	1928
##lan	1929
španjo	1930
svom	1931
uspo	1932
izgleda	1933
##lle	1934
mjestu	1935
novo	1936
##dovi	1937
eki	1938
neza	1939
##zak	1940
##mpe	1941
opo	1942
##žno	1943
podsje	1944
mislim	1945
deset	1946
##čku	1947
##cje	1948
neu	1949
šest	1950
ovdje	1951
##tin	1952
##tara	1953
možemo	1954
oti	1955
##lio	1956
posti	1957
##tet	1958
of	1959
zašto	1960
##jedi	1961
sebe	1962
trgo	1963
##tki	1964
njegovo	1965
00	1966
id	1967
##rić	1968
izda	1969
##jedna	1970
naime	1971
raspo	1972
stru	1973
republi	1974
odgovor	1975
optu	1976
ukup	1977
##bor	1978
ponu	1979
doba	1980
posao	1981
##vića	1982
pomoć	1983
smi	1984
##čima	1985
bolje	1986
opći	1987
##ch	1988
poz	1989
##tkom	1990
njima	1991
##pio	1992
##glo	1993
poma	1994
dobio	1995
stvari	1996
##som	1997
sd	1998
čovje	1999
##čkim	2000
dne	2001
predsjednika	2002
španjol	2003
##ved	2004
##ment	2005
kraj	2006
izrael	2007
problem	2008
##lija	2009
##nata	2010
zajedno	2011
odmah	2012
kasnije	2013
nosi	2014
##ljak	2015
minuti	2016
svim	2017
kraja	2018
obzi	2019
##ns	2020
izvo	2021
##vnim	2022
##zni	2023
##loga	2024
života	2025
hu	2026
utjeca	2027
##zima	2028
kate	2029
ovi	2030
##nca	2031
##vjet	2032
##lnik	2033
##cla	2034
uži	2035
prošle	2036
sud	2037
pobije	2038
polj	2039
##lar	2040
najviše	2041
voza	2042
vjeru	2043
##jemo	2044
čini	2045
pona	2046
znači	2047
hrvatsku	2048
traži	2049
er	2050
save	2051
##nča	2052
vozila	2053
name	2054
##digra	2055
##lue	2056
##šlja	2057
nogomet	2058
velika	2059
uče	2060
šibe	2061
##ćih	2062
posljednji	2063
##er	2064
bole	2065
hrvatskog	2066
svijetu	2067
pp	2068
##prije	2069
raču	2070
ispo	2071
##280	2072
minuta	2073
postoji	2074
elek	2075
idu	2076
tamo	2077
neda	2078
nedo	2079
zagreb	2080
##rka	2081
poči	2082
uključu	2083
veliko	2084
trener	2085
##dnja	2086
##nov	2087
##njima	2088
##limpi	2089
bol	2090
međutim	2091
djece	2092
možete	2093
the	2094
sce	2095
zahva	2096
predstavlja	2097
gi	2098
##rili	2099
##nuli	2100
##class	2101
nalazi	2102
osu	2103
emi	2104
djelo	2105
trži	2106
komu	2107
std	2108
100	2109
##nin	2110
stdclass	2111
kola	2112
dolazi	2113
sljede	2114
##opće	2115
mogli	2116
##ton	2117
##dna	2118
dalma	2119
##lna	2120
ponovno	2121
##ranja	2122
izne	2123
zlo	2124
odli	2125
nov	2126
kontro	2127
##nove	2128
tisuća	2129
##tnih	2130
##pravo	2131
##spe	2132
##san	2133
film	2134
##kaza	2135
aktivno	2136
nave	2137
omogu	2138
odigra	2139
##rice	2140
utakmicu	2141
nara	2142
##čila	2143
prvaka	2144
problema	2145
##jna	2146
##nzi	2147
provo	2148
proce	2149
odje	2150
inf	2151
oto	2152
dosta	2153
sklo	2154
##sija	2155
olimpi	2156
pola	2157
pore	2158
##rojatno	2159
ivo	2160
##kama	2161
niti	2162
##šku	2163
##kti	2164
##kako	2165
ranije	2166
toliko	2167
pjeva	2168
##ratu	2169
jednu	2170
prati	2171
##mom	2172
##80x	2173
kole	2174
ite	2175
profe	2176
##gom	2177
osobe	2178
##pita	2179
klub	2180
sko	2181
lige	2182
##gije	2183
##lnih	2184
evo	2185
##renje	2186
sum	2187
misli	2188
zapravo	2189
području	2190
ljubav	2191
##nte	2192
srije	2193
##zem	2194
##rava	2195
zi	2196
izgra	2197
##šće	2198
##rd	2199
##il	2200
##jima	2201
##mbe	2202
sudjelo	2203
##bje	2204
tempe	2205
festi	2206
kvalite	2207
22	2208
##nicama	2209
predsjedni	2210
direkto	2211
##vaja	2212
##bili	2213
demo	2214
##gled	2215
plaća	2216
uni	2217
svog	2218
predstav	2219
##zuje	2220
##up	2221
##90	2222
netko	2223
prava	2224
jednog	2225
kluba	2226
##nac	2227
policij	2228
iznena	2229
##kve	2230
upravlja	2231
##nstve	2232
gol	2233
oči	2234
##čnih	2235
##teljima	2236
2023	2237
deta	2238
mno	2239
time	2240
##nska	2241
##đena	2242
##voljno	2243
eko	2244
##ut	2245
##tori	2246
sasta	2247
##stima	2248
pravi	2249
produ	2250
kilo	2251
zahtje	2252
temperatu	2253
trenutku	2254
##sije	2255
##tnu	2256
##fina	2257
sja	2258
šo	2259
komenti	2260
##she	2261
turisti	2262
ozlije	2263
##piti	2264
##lih	2265
kona	2266
##ktu	2267
ozbi	2268
##đenje	2269
##čica	2270
##šlo	2271
obzirom	2272
petak	2273
manda	2274
vatro	2275
isko	2276
moguć	2277
##bre	2278
##cijom	2279
##stitu	2280
imala	2281
##teljica	2282
##rem	2283
ponedje	2284
unutar	2285
plo	2286
##zda	2287
nada	2288
utvr	2289
##ksu	2290
bivši	2291
tradi	2292
##rti	2293
##rila	2294
nismo	2295
##vac	2296
boga	2297
vlade	2298
osob	2299
io	2300
zau	2301
zastup	2302
ću	2303
##deri	2304
nepo	2305
##bom	2306
eks	2307
##laze	2308
kojim	2309
prvom	2310
reći	2311
olimpij	2312
zad	2313
brzo	2314
djevoj	2315
nogometa	2316
kli	2317
pomoći	2318
zemlje	2319
23	2320
##lov	2321
izazo	2322
preda	2323
fotografi	2324
nesta	2325
##telje	2326
hajduk	2327
potom	2328
najbolje	2329
upu	2330
sedam	2331
##šenje	2332
##žiti	2333
crve	2334
zajedni	2335
dosa	2336
gospodar	2337
ty	2338
zdravstve	2339
##br	2340
##nad	2341
##logi	2342
izvr	2343
međuna	2344
gradonače	2345
##rske	2346
objavio	2347
super	2348
opet	2349
##feren	2350
zele	2351
drugom	2352
alias	2353
igrača	2354
mjeseci	2355
veza	2356
luka	2357
##shed	2358
genera	2359
##zije	2360
27	2361
svijeta	2362
published	2363
40	2364
zgra	2365
opre	2366
povje	2367
##ljen	2368
čega	2369
##lina	2370
domaći	2371
svojoj	2372
sdp	2373
biv	2374
izvje	2375
##640	2376
##ljena	2377
tog	2378
promije	2379
josi	2380
povije	2381
##ćeg	2382
navodi	2383
##đeno	2384
raditi	2385
ita	2386
ovu	2387
##ris	2388
poduze	2389
osam	2390
snim	2391
zanim	2392
nikad	2393
očeki	2394
izvan	2395
mogla	2396
intere	2397
mreža	2398
age	2399
usko	2400
podi	2401
mene	2402
svega	2403
##nke	2404
##sci	2405
##nak	2406
##lost	2407
vatroga	2408
##nskih	2409
usta	2410
priva	2411
eli	2412
gor	2413
potpuno	2414
##zma	2415
osno	2416
##480	2417
##mor	2418
##340	2419
veče	2420
##boj	2421
istaknuo	2422
doku	2423
razvo	2424
##žio	2425
predsta	2426
##rane	2427
##šću	2428
##024	2429
velike	2430
vidjeti	2431
komenta	2432
##dni	2433
rada	2434
stvara	2435
finan	2436
uto	2437
##priv	2438
##dija	2439
##tica	2440
puto	2441
trans	2442
polo	2443
insta	2444
žena	2445
povra	2446
izno	2447
znam	2448
subotu	2449
2022	2450
pojedi	2451
očekuje	2452
vrhu	2453
group	2454
zaba	2455
##mina	2456
lip	2457
##son	2458
godišnji	2459
hla	2460
##gro	2461
razdo	2462
slučaju	2463
slije	2464
prve	2465
cilj	2466
društvenim	2467
funk	2468
sprem	2469
ozbilj	2470
am	2471
postoje	2472
##tt	2473
plenković	2474
##dnju	2475
namje	2476
smije	2477
domovi	2478
institu	2479
vjerojatno	2480
parla	2481
šte	2482
listo	2483
glavni	2484
##mira	2485
trav	2486
osije	2487
priprema	2488
stoji	2489
država	2490
##tila	2491
bile	2492
rado	2493
bru	2494
##lnim	2495
##tić	2496
planira	2497
objasni	2498
mije	2499
##nskom	2500
pisa	2501
priliku	2502
ugo	2503
naravno	2504
kup	2505
podije	2506
##pisu	2507
maksi	2508
##kuplja	2509
'.	2510
gradu	2511
jasno	2512
##kovi	2513
##mima	2514
zadar	2515
##fika	2516
##poru	2517
##dering	2518
##rdi	2519
26	2520
ogra	2521
jezi	2522
drugih	2523
uju	2524
nedjelju	2525
nama	2526
##mišlja	2527
zaposle	2528
financij	2529
turni	2530
svojih	2531
##zija	2532
obu	2533
poseb	2534
tjedna	2535
bira	2536
lop	2537
ponedjeljak	2538
##rba	2539
zara	2540
milanović	2541
dovoljno	2542
##žava	2543
##tog	2544
trebao	2545
upozna	2546
##taka	2547
##žić	2548
uslu	2549
premi	2550
per	2551
nedavno	2552
type	2553
we	2554
##95	2555
poslije	2556
kriti	2557
koli	2558
projekt	2559
psi	2560
odnosu	2561
sho	2562
##njoj	2563
ispri	2564
andre	2565
##gor	2566
ini	2567
prosje	2568
ad	2569
marko	2570
obilje	2571
dijete	2572
kva	2573
spome	2574
jugo	2575
mnogo	2576
ele	2577
##cama	2578
donije	2579
posve	2580
ivana	2581
zatim	2582
najma	2583
brani	2584
izbje	2585
bje	2586
##vnik	2587
##čnu	2588
moj	2589
skla	2590
##mio	2591
##jski	2592
sami	2593
nitko	2594
##pis	2595
value	2596
hrvatskih	2597
igrati	2598
rade	2599
##tual	2600
uzro	2601
##lnog	2602
nastupa	2603
pretho	2604
odr	2605
##šava	2606
ordering	2607
##ista	2608
trenutno	2609
turi	2610
koris	2611
stvar	2612
##wi	2613
##voza	2614
cijene	2615
godini	2616
europske	2617
uspješ	2618
##stupa	2619
##ster	2620
buduć	2621
rata	2622
real	2623
razu	2624
poveza	2625
sije	2626
##lla	2627
program	2628
##bina	2629
zemlji	2630
rezultat	2631
anali	2632
##ple	2633
deve	2634
djecu	2635
moguće	2636
katego	2637
inače	2638
oru	2639
##tine	2640
##lin	2641
##vid	2642
iznosi	2643
##ty	2644
##đenja	2645
##slav	2646
##jno	2647
preki	2648
zapa	2649
##den	2650
##biti	2651
potencija	2652
došao	2653
kuće	2654
ispred	2655
##tnog	2656
čita	2657
rijeka	2658
izbora	2659
##tili	2660
putem	2661
prepozna	2662
##ndo	2663
zamje	2664
uhi	2665
##liti	2666
##vine	2667
##đeni	2668
ut	2669
##rina	2670
jednosta	2671
potra	2672
izlo	2673
bre	2674
##th	2675
novog	2676
pobjed	2677
dinama	2678
srijedu	2679
ovih	2680
ža	2681
##sima	2682
potro	2683
zvije	2684
sustav	2685
priro	2686
cijena	2687
##ban	2688
umjesto	2689
ig	2690
svima	2691
stranke	2692
konferen	2693
moramo	2694
##misli	2695
off	2696
kupa	2697
tehno	2698
utorak	2699
drugim	2700
##tnom	2701
donosi	2702
kampa	2703
savje	2704
modri	2705
##dese	2706
nedosta	2707
djeca	2708
značaj	2709
220	2710
ispu	2711
##ksa	2712
doži	2713
bodova	2714
##šiti	2715
##88	2716
##rano	2717
sata	2718
hote	2719
nikada	2720
momčad	2721
em	2722
##dak	2723
##čar	2724
povr	2725
sjever	2726
##vite	2727
##kata	2728
gre	2729
##laz	2730
hoće	2731
dijelu	2732
ete	2733
##rci	2734
##dana	2735
objavlje	2736
##tic	2737
28	2738
kata	2739
##čita	2740
investi	2741
##čnim	2742
##lnosti	2743
nazi	2744
glasa	2745
tvrdi	2746
##kva	2747
ravna	2748
1024	2749
ćete	2750
##sob	2751
##govora	2752
premijer	2753
##vanjem	2754
poža	2755
kojih	2756
stre	2757
otvori	2758
dobar	2759
##vnu	2760
pari	2761
##šenja	2762
ovoj	2763
obrazo	2764
doći	2765
međunarod	2766
nado	2767
vlas	2768
medici	2769
prosi	2770
metara	2771
povijesti	2772
novu	2773
novina	2774
##27	2775
osobi	2776
dobiti	2777
mjeseca	2778
godinama	2779
##kna	2780
##nić	2781
škole	2782
ističe	2783
situacija	2784
mirovi	2785
republike	2786
dakle	2787
##tova	2788
pros	2789
zdravlje	2790
najveći	2791
##spi	2792
##voje	2793
utakmici	2794
zabra	2795
##jedno	2796
osvojio	2797
glaso	2798
županije	2799
okru	2800
naša	2801
##nijih	2802
uvo	2803
##jih	2804
##stre	2805
države	2806
##wa	2807
##tina	2808
##timo	2809
suko	2810
dija	2811
tih	2812
želje	2813
##vremeno	2814
##vrše	2815
prvu	2816
niz	2817
dobili	2818
##jske	2819
svijet	2820
##_640	2821
##_480	2822
##_340	2823
##_220	2824
##_1280	2825
##_1024	2826
razini	2827
unato	2828
##veo	2829
##zam	2830
##ljiva	2831
njemu	2832
svjedo	2833
ured	2834
vaše	2835
godišnja	2836
480x	2837
meni	2838
njegove	2839
umjet	2840
##sak	2841
svib	2842
60	2843
prvog	2844
##loba	2845
obli	2846
ap	2847
##jeva	2848
pak	2849
ljude	2850
splitu	2851
provje	2852
moglo	2853
rijeke	2854
rizi	2855
##osta	2856
29	2857
ser	2858
moraju	2859
prošlo	2860
om	2861
prosla	2862
##bila	2863
pobjedu	2864
sveu	2865
640x	2866
##žnje	2867
##kić	2868
vatre	2869
mr	2870
##veli	2871
har	2872
činje	2873
##kad	2874
##renja	2875
##tivi	2876
340x	2877
tvrtke	2878
uključujući	2879
##gnu	2880
centa	2881
##vlju	2882
##lnu	2883
otvara	2884
njihov	2885
milija	2886
diza	2887
traja	2888
srbi	2889
zaslu	2890
##đene	2891
cijeli	2892
došlo	2893
199	2894
##jka	2895
##vice	2896
sjeve	2897
zemlja	2898
##ljeni	2899
snage	2900
otkrio	2901
new	2902
moći	2903
godišnje	2904
mrežama	2905
##dima	2906
postao	2907
35	2908
upa	2909
##ur	2910
obve	2911
hajduka	2912
važno	2913
rt	2914
##vora	2915
ugla	2916
žele	2917
poručio	2918
##tnim	2919
##mati	2920
kame	2921
item	2922
dogodilo	2923
ukupno	2924
sku	2925
nasi	2926
##žan	2927
trebalo	2928
dolara	2929
lipnja	2930
##tora	2931
fili	2932
pobjede	2933
dro	2934
naro	2935
uprave	2936
organizira	2937
novih	2938
marija	2939
poslu	2940
napraviti	2941
javnosti	2942
posljednjih	2943
ovim	2944
čemu	2945
objavila	2946
##rena	2947
pogi	2948
mir	2949
tur	2950
potrebno	2951
##štva	2952
ispod	2953
otkrila	2954
nevje	2955
izaz	2956
prilikom	2957
djelat	2958
igre	2959
fizi	2960
poljo	2961
##ogra	2962
##line	2963
sebi	2964
jednostavno	2965
indu	2966
suo	2967
##pom	2968
##ženje	2969
podrža	2970
gori	2971
biste	2972
zabio	2973
##žen	2974
razvoj	2975
glumi	2976
oduše	2977
meda	2978
vladi	2979
potreb	2980
ogla	2981
razmišlja	2982
engle	2983
45	2984
##tion	2985
##nila	2986
toj	2987
sporta	2988
postup	2989
njihove	2990
instagra	2991
poljopriv	2992
polju	2993
zakon	2994
centra	2995
##mac	2996
##vizi	2997
##zuju	2998
##nsko	2999
manji	3000
opera	3001
snima	3002
##ncije	3003
##tinu	3004
profi	3005
razgovara	3006
igrač	3007
socija	3008
započe	3009
##vlada	3010
##rde	3011
##fije	3012
##tih	3013
odla	3014
dodaje	3015
zadnji	3016
vanj	3017
##kretni	3018
kažu	3019
pročita	3020
žene	3021
##tivne	3022
##lica	3023
##loški	3024
cro	3025
rekli	3026
teni	3027
plat	3028
stoga	3029
njihova	3030
izjavio	3031
isklju	3032
ljud	3033
zahvalju	3034
uglavnom	3035
umi	3036
##tle	3037
##kar	3038
čovjek	3039
ustav	3040
##šlje	3041
.)	3042
##gdje	3043
##dite	3044
lako	3045
novac	3046
travnja	3047
31	3048
trebali	3049
škola	3050
##čnom	3051
nastav	3052
kolu	3053
##siji	3054
ponaša	3055
siječ	3056
sustava	3057
##leko	3058
ana	3059
##kcije	3060
##čnog	3061
##vina	3062
brzi	3063
##krša	3064
##pušta	3065
odluka	3066
član	3067
blo	3068
natje	3069
nastavlja	3070
iznim	3071
kine	3072
stručnja	3073
##lak	3074
prisu	3075
##čenje	3076
hrvatskom	3077
mlade	3078
##čak	3079
##pr	3080
##mija	3081
bolji	3082
strana	3083
##snu	3084
bismo	3085
sabor	3086
stadio	3087
zadovolj	3088
af	3089
sc	3090
pobo	3091
njezin	3092
##riju	3093
prima	3094
tomi	3095
posljedi	3096
posjeti	3097
onih	3098
sin	3099
kući	3100
izborima	3101
cha	3102
##žba	3103
##lila	3104
##gama	3105
živi	3106
aktivnosti	3107
drugog	3108
promjene	3109
svakodne	3110
partne	3111
dre	3112
##ljeća	3113
##blja	3114
parki	3115
unatoč	3116
##dro	3117
terenu	3118
ale	3119
šan	3120
momčadi	3121
aj	3122
##zvo	3123
prijed	3124
mijenja	3125
cu	3126
kuha	3127
smanje	3128
festiva	3129
veliku	3130
korište	3131
koša	3132
prostor	3133
jedne	3134
smanji	3135
##"",	3136
bes	3137
ulaga	3138
##30	3139
odgovara	3140
##ljan	3141
##ćen	3142
##reni	3143
##mat	3144
##šća	3145
norma	3146
##štvo	3147
četvrtak	3148
##lnom	3149
ljudima	3150
reda	3151
kojom	3152
životu	3153
napad	3154
bolesti	3155
cje	3156
pada	3157
obe	3158
ispla	3159
##qu	3160
##menti	3161
dodatno	3162
lege	3163
najmanje	3164
dao	3165
trebala	3166
##ali	3167
##36	3168
ek	3169
ina	3170
prenosi	3171
##gh	3172
##tiva	3173
elektri	3174
ispriča	3175
##lnika	3176
epi	3177
varaždin	3178
doče	3179
rujna	3180
konku	3181
pitanja	3182
nju	3183
##ya	3184
##mini	3185
vod	3186
##zom	3187
vrijednosti	3188
pacije	3189
der	3190
##đuje	3191
pli	3192
wi	3193
prora	3194
previše	3195
reko	3196
##žili	3197
##vci	3198
zakona	3199
centar	3200
izvijesti	3201
potpisa	3202
projekta	3203
policije	3204
##žni	3205
##baci	3206
strate	3207
;,	3208
dozna	3209
barem	3210
materija	3211
##igra	3212
cati	3213
europe	3214
vrata	3215
##vnoj	3216
pobolj	3217
rast	3218
treći	3219
razloga	3220
##šio	3221
krimi	3222
liječ	3223
nau	3224
navede	3225
##jim	3226
vele	3227
defi	3228
ljubi	3229
napisao	3230
ožu	3231
##jne	3232
##ye	3233
##lac	3234
okoli	3235
rat	3236
moja	3237
kuća	3238
zema	3239
mjesec	3240
tjedan	3241
mali	3242
##tera	3243
##mos	3244
imam	3245
##metara	3246
ugovor	3247
stano	3248
odluku	3249
##njo	3250
sutra	3251
završe	3252
##gne	3253
ota	3254
nekretni	3255
##rs	3256
zapad	3257
priti	3258
sadrža	3259
prosvje	3260
susta	3261
##kul	3262
kralje	3263
gubi	3264
navodno	3265
novom	3266
pruža	3267
srpnja	3268
uze	3269
prijatelj	3270
majka	3271
##niku	3272
listopada	3273
##nskim	3274
##kcija	3275
dati	3276
ala	3277
##niju	3278
##bur	3279
##tere	3280
stvarno	3281
sklopu	3282
predvi	3283
podršku	3284
zada	3285
dali	3286
preuze	3287
građana	3288
god	3289
gosti	3290
mađa	3291
vike	3292
##žila	3293
iskoristi	3294
##dić	3295
dalj	3296
reprezentacije	3297
##_2719	3298
anti	3299
napre	3300
dozvo	3301
odgo	3302
sazna	3303
":""",	3304
programa	3305
skup	3306
##ber	3307
opas	3308
##cha	3309
mobi	3310
milanovi	3311
mladih	3312
##jica	3313
tiče	3314
direktor	3315
ograni	3316
oku	3317
ava	3318
ubr	3319
##klu	3320
izla	3321
san	3322
znanstve	3323
dobila	3324
alko	3325
vese	3326
##čuje	3327
ostati	3328
ošte	3329
##bla	3330
##raca	3331
pale	3332
početka	3333
posljednje	3334
građani	3335
##ray	3336
sekto	3337
ukrajini	3338
uoči	3339
sveučili	3340
##razu	3341
brojne	3342
ministarstvo	3343
počinje	3344
hn	3345
kape	3346
budući	3347
##ranu	3348
##ljene	3349
nekim	3350
kompa	3351
automobila	3352
uopće	3353
zavo	3354
##ly	3355
##slo	3356
##pušte	3357
europi	3358
početkom	3359
prvenstva	3360
shvati	3361
dogovo	3362
presu	3363
para	3364
večer	3365
izd	3366
ulogu	3367
gradonačelnik	3368
ena	3369
reali	3370
##stvom	3371
prila	3372
kolovoza	3373
demokra	3374
zemalja	3375
##fu	3376
atmos	3377
um	3378
objek	3379
dodala	3380
slove	3381
raspra	3382
zrako	3383
loše	3384
lak	3385
##struktu	3386
velja	3387
voli	3388
tijelo	3389
sigurnosti	3390
atmosfe	3391
90	3392
##rca	3393
pozor	3394
##metu	3395
trump	3396
;.	3397
##kove	3398
ski	3399
##vca	3400
##rova	3401
ruko	3402
većina	3403
##vici	3404
dubrova	3405
podsjetimo	3406
rtl	3407
##njom	3408
sat	3409
tvrtka	3410
tehni	3411
##ps	3412
putu	3413
troško	3414
savez	3415
upisa	3416
beogra	3417
ostali	3418
##vremenu	3419
alkoho	3420
diljem	3421
globa	3422
priopće	3423
2021	3424
sjeća	3425
odvjet	3426
car	3427
različi	3428
devet	3429
80	3430
naba	3431
ujutro	3432
žrt	3433
##ras	3434
prekrša	3435
najva	3436
iti	3437
komi	3438
pala	3439
##nese	3440
ligi	3441
##gita	3442
čet	3443
poziva	3444
##šnjeg	3445
uskoro	3446
sjed	3447
ministarstva	3448
seku	3449
izvor	3450
preh	3451
igrao	3452
##žena	3453
popula	3454
ozna	3455
odluke	3456
##tira	3457
bivše	3458
dopri	3459
cijelo	3460
svibnja	3461
##cem	3462
asi	3463
božić	3464
aktual	3465
reagi	3466
##nili	3467
kor	3468
gola	3469
poslova	3470
70	3471
koncert	3472
##gno	3473
##by	3474
naz	3475
progla	3476
jučer	3477
plu	3478
##luje	3479
polica	3480
sjedi	3481
nastaviti	3482
najavio	3483
imate	3484
slučaj	3485
energe	3486
##jskog	3487
mediji	3488
kazali	3489
područja	3490
natjecanja	3491
##68	3492
nače	3493
sudio	3494
naših	3495
okre	3496
doka	3497
digita	3498
izbore	3499
računa	3500
napusti	3501
izmje	3502
##ćeni	3503
svaka	3504
ovako	3505
vraća	3506
udruge	3507
tradicional	3508
pobjeda	3509
500	3510
##škom	3511
iznad	3512
znaju	3513
zabora	3514
procje	3515
##sila	3516
foku	3517
##tija	3518
dubo	3519
izrazi	3520
poboljša	3521
##vjeti	3522
##rp	3523
savrše	3524
sigurnost	3525
profesio	3526
##mili	3527
ostao	3528
stigao	3529
oruž	3530
duž	3531
zvu	3532
interne	3533
iskustvo	3534
infra	3535
poh	3536
zanima	3537
dostup	3538
novinar	3539
proraču	3540
javlja	3541
stanje	3542
tv	3543
moje	3544
strani	3545
##47	3546
presta	3547
traže	3548
##štvu	3549
infrastruktu	3550
sama	3551
preporu	3552
cesta	3553
otac	3554
##snih	3555
sim	3556
korak	3557
došli	3558
##boo	3559
##njuje	3560
kontak	3561
obrane	3562
##nite	3563
##gan	3564
pitanju	3565
zadrža	3566
upi	3567
##lli	3568
##dina	3569
redu	3570
##formi	3571
che	3572
pau	3573
specija	3574
##tlji	3575
##rav	3576
nato	3577
daleko	3578
male	3579
prvoj	3580
##cionira	3581
identi	3582
energi	3583
##50	3584
##podne	3585
madri	3586
dječ	3587
tijela	3588
koriste	3589
informacije	3590
##bc	3591
jest	3592
iste	3593
njegovu	3594
##sk	3595
portu	3596
##vela	3597
mani	3598
indi	3599
ispa	3600
##ndar	3601
krea	3602
ska	3603
koma	3604
fakul	3605
sprije	3606
##tije	3607
uspio	3608
stup	3609
njezina	3610
završio	3611
priop	3612
prika	3613
##stina	3614
##tske	3615
##snog	3616
##der	3617
ai	3618
##rama	3619
face	3620
dobra	3621
znamo	3622
novim	3623
društva	3624
ulaz	3625
supruga	3626
posu	3627
resto	3628
bar	3629
##godišnji	3630
drago	3631
array	3632
njemačkoj	3633
župani	3634
vratiti	3635
hrt	3636
##blju	3637
##28	3638
naža	3639
protu	3640
##bilje	3641
takav	3642
bal	3643
vlasni	3644
ovak	3645
34	3646
zabri	3647
pristup	3648
##miti	3649
##mila	3650
događaja	3651
##jni	3652
##ljeno	3653
##por	3654
jadra	3655
nažalost	3656
noći	3657
##čeni	3658
##stom	3659
stanov	3660
finala	3661
visoko	3662
borbe	3663
pročitajte	3664
##ncu	3665
##snim	3666
##yo	3667
društvo	3668
##ela	3669
kore	3670
man	3671
##čenja	3672
sni	3673
##rska	3674
seksu	3675
topli	3676
prijet	3677
jedini	3678
##čen	3679
##tivni	3680
čime	3681
brita	3682
##pt	3683
2025	3684
zaista	3685
sunča	3686
radova	3687
vjero	3688
dolaze	3689
energije	3690
roditelji	3691
33	3692
susret	3693
umiro	3694
hnl	3695
portuga	3696
32	3697
##vide	3698
##čića	3699
boda	3700
odlučio	3701
##vilo	3702
kova	3703
sub	3704
iskre	3705
muze	3706
europskog	3707
financi	3708
osobito	3709
klubo	3710
smrt	3711
vru	3712
##kta	3713
želim	3714
ulici	3715
smrti	3716
komunika	3717
##žne	3718
pridru	3719
##nijeti	3720
##fici	3721
klasi	3722
eni	3723
inci	3724
česti	3725
svakako	3726
blizi	3727
mišlje	3728
svemu	3729
skupine	3730
dokumenta	3731
siječnja	3732
##rke	3733
dobri	3734
##kinja	3735
prvenstvu	3736
fotografije	3737
prosinca	3738
pao	3739
završ	3740
dosad	3741
as	3742
koali	3743
##čice	3744
tali	3745
##nsku	3746
##dran	3747
nemo	3748
priče	3749
studi	3750
mnoge	3751
parlamenta	3752
razlog	3753
plaće	3754
hrane	3755
nastup	3756
noć	3757
##zno	3758
kratko	3759
##llery	3760
umjetni	3761
naglasio	3762
osvaja	3763
mlado	3764
proizvoda	3765
ama	3766
##žbi	3767
porta	3768
proši	3769
top	3770
ispra	3771
mjere	3772
gale	3773
##kro	3774
##61	3775
situaciju	3776
##pije	3777
prihvati	3778
stati	3779
ber	3780
sposob	3781
ljeta	3782
faceboo	3783
rh	3784
##85	3785
razgovo	3786
rođen	3787
čiji	3788
sezonu	3789
omogući	3790
postala	3791
povo	3792
poklo	3793
želj	3794
kazala	3795
josip	3796
umirovlje	3797
redo	3798
naslov	3799
peri	3800
krajem	3801
životi	3802
##vale	3803
##čević	3804
konzu	3805
profeso	3806
održi	3807
zu	3808
nakna	3809
sara	3810
##par	3811
pokazuje	3812
zadovo	3813
profesional	3814
##lili	3815
##lovi	3816
odo	3817
ruke	3818
plan	3819
##njen	3820
##ćima	3821
##zer	3822
riječi	3823
pogotovo	3824
##ćoj	3825
##kuju	3826
##zan	3827
svojom	3828
svakom	3829
mogućnost	3830
##gova	3831
prilika	3832
prostora	3833
##šno	3834
##jnu	3835
##en	3836
##vama	3837
##mnji	3838
##god	3839
kandidata	3840
##rović	3841
postavlja	3842
##mani	3843
zabilje	3844
preu	3845
nadle	3846
očito	3847
jutar	3848
trenuta	3849
albu	3850
primjer	3851
stari	3852
36	3853
##ćom	3854
ter	3855
##siju	3856
stvori	3857
klubu	3858
omi	3859
nemaju	3860
ugosti	3861
##tte	3862
supro	3863
radu	3864
vezi	3865
obzira	3866
drugu	3867
jednoj	3868
pokazao	3869
##vnika	3870
prometa	3871
##siti	3872
meta	3873
2020	3874
navode	3875
našim	3876
##jam	3877
##les	3878
lov	3879
intenzi	3880
okvi	3881
primije	3882
##čeno	3883
rješenje	3884
enje	3885
svake	3886
blag	3887
##rea	3888
stro	3889
ostaje	3890
soli	3891
com	3892
##32	3893
općine	3894
zausta	3895
##795	3896
##ram	3897
dom	3898
cijelu	3899
pjesme	3900
##rku	3901
##rski	3902
pol	3903
##naca	3904
izuze	3905
vaš	3906
počeo	3907
ozlje	3908
pokazala	3909
##_271795	3910
promjena	3911
polufina	3912
talijan	3913
nao	3914
nadam	3915
stabi	3916
postaje	3917
minute	3918
susreta	3919
##nos	3920
pogre	3921
##rite	3922
nikola	3923
temperatura	3924
obeća	3925
imovi	3926
##nku	3927
##lice	3928
kakav	3929
##ziju	3930
tema	3931
vrti	3932
ljeto	3933
najvaž	3934
uboj	3935
priho	3936
anto	3937
dubrovnik	3938
zaključio	3939
##čnoj	3940
napisala	3941
htje	3942
##dama	3943
veze	3944
##ženi	3945
srbije	3946
city	3947
filma	3948
prihva	3949
image	3950
poznati	3951
napravio	3952
vjerujem	3953
okupi	3954
traje	3955
smjeru	3956
eksplo	3957
##štine	3958
ekipa	3959
scena	3960
ugro	3961
##prili	3962
europski	3963
kvalifika	3964
površi	3965
##nose	3966
roma	3967
igrali	3968
sluša	3969
dijela	3970
jela	3971
don	3972
govore	3973
anga	3974
državlja	3975
pojača	3976
koristiti	3977
skri	3978
##zirati	3979
##sen	3980
herce	3981
javnost	3982
redovi	3983
podru	3984
lijepo	3985
zahvaljujući	3986
kće	3987
sina	3988
križe	3989
bran	3990
poko	3991
##čara	3992
finale	3993
količi	3994
ovoga	3995
##logije	3996
nekih	3997
primjerice	3998
paž	3999
##valo	4000
slavo	4001
škol	4002
odusta	4003
novca	4004
edu	4005
ino	4006
ići	4007
##kade	4008
dođe	4009
var	4010
uspjeli	4011
ocje	4012
##kov	4013
##ćenja	4014
trenera	4015
kana	4016
predi	4017
sveča	4018
objašnja	4019
ante	4020
početku	4021
ozljede	4022
ljubavi	4023
iznimno	4024
##onal	4025
##gri	4026
posa	4027
talija	4028
volim	4029
našeg	4030
izgubio	4031
pritom	4032
##znu	4033
##lige	4034
rece	4035
##on	4036
naru	4037
igrači	4038
postati	4039
velikim	4040
seksual	4041
ubije	4042
postu	4043
##nec	4044
došla	4045
promo	4046
prisje	4047
strije	4048
lice	4049
drugoj	4050
snaga	4051
uređa	4052
centru	4053
incide	4054
potica	4055
statu	4056
##prav	4057
##ćuje	4058
zoran	4059
ekonom	4060
wa	4061
dovo	4062
gore	4063
##škog	4064
kilometara	4065
inicija	4066
utje	4067
dani	4068
red	4069
##zacije	4070
nizo	4071
bolni	4072
nudi	4073
muškarac	4074
og	4075
##ny	4076
autobu	4077
automobil	4078
karijere	4079
kilogra	4080
objasnio	4081
##bru	4082
prista	4083
reci	4084
pokreta	4085
zanimlji	4086
##mimage	4087
klima	4088
tale	4089
stanju	4090
kombina	4091
ila	4092
robe	4093
osumnji	4094
show	4095
##vit	4096
pripad	4097
miro	4098
##tivna	4099
austri	4100
zajednice	4101
vratio	4102
istraživanje	4103
sed	4104
stje	4105
vidjeli	4106
##91	4107
more	4108
stalno	4109
broja	4110
sredstva	4111
asiste	4112
##plika	4113
regional	4114
televizi	4115
pjesmu	4116
kraljev	4117
##lnoj	4118
##cka	4119
##čena	4120
potrebe	4121
##šnjem	4122
nere	4123
##stan	4124
razo	4125
##min	4126
vid	4127
vjenča	4128
visoki	4129
zvijezda	4130
okuplja	4131
##vrije	4132
##var	4133
odbora	4134
##metni	4135
##keta	4136
##đenih	4137
gradi	4138
kulture	4139
mogućnosti	4140
ožujka	4141
##vju	4142
proma	4143
građe	4144
njim	4145
lasa	4146
rezultate	4147
svr	4148
##love	4149
jaki	4150
autor	4151
osigura	4152
udruga	4153
##teri	4154
gosto	4155
trenutak	4156
nekada	4157
komentirao	4158
h_2720	4159
k_2720	4160
o_2720	4161
##nulo	4162
reži	4163
uzbu	4164
dvoje	4165
pp_2720	4166
ep	4167
bel	4168
trebaju	4169
and	4170
poznato	4171
jedinstve	4172
2019	4173
vijeća	4174
intervju	4175
blizini	4176
##rup	4177
pam	4178
prvih	4179
prvenstvo	4180
##cijske	4181
politike	4182
priču	4183
##miru	4184
vidio	4185
van	4186
diplo	4187
staja	4188
probleme	4189
zatvore	4190
psiho	4191
baby	4192
lan	4193
pronaći	4194
udar	4195
##dnih	4196
##tive	4197
nase	4198
uspjeh	4199
jedino	4200
300	4201
avio	4202
yo	4203
##ds	4204
##reno	4205
nega	4206
moto	4207
izbornik	4208
budućnosti	4209
simbo	4210
##ana	4211
medija	4212
sezoni	4213
onaj	4214
otišao	4215
##rine	4216
partner	4217
visi	4218
##stoj	4219
usmje	4220
##rent	4221
##nuto	4222
##rnih	4223
##spje	4224
##gna	4225
velikom	4226
loptu	4227
razumije	4228
##ght	4229
unije	4230
##zbo	4231
bitno	4232
telefo	4233
uma	4234
barce	4235
ben	4236
potpo	4237
parizu	4238
festival	4239
dp	4240
iran	4241
zamije	4242
izved	4243
dužno	4244
raspore	4245
##dnog	4246
migra	4247
##vlji	4248
našu	4249
grupe	4250
svlada	4251
##rin	4252
##ljep	4253
mario	4254
loko	4255
proizvođa	4256
poraza	4257
epizo	4258
##mpo	4259
povu	4260
postav	4261
toma	4262
##ćena	4263
prakti	4264
zrakoplo	4265
##nina	4266
narod	4267
##rie	4268
##vjetni	4269
hrvatsko	4270
##štaj	4271
društvu	4272
220x	4273
##mpi	4274
bici	4275
##njena	4276
privla	4277
treće	4278
##šića	4279
prijevo	4280
reprezentacija	4281
potvrdio	4282
mandata	4283
##nirati	4284
navi	4285
takve	4286
kali	4287
jadran	4288
staro	4289
##njih	4290
jutro	4291
fotografija	4292
točno	4293
regu	4294
skupina	4295
agre	4296
kora	4297
##din	4298
##čaje	4299
odnos	4300
prijatelji	4301
poraz	4302
barcelo	4303
boja	4304
najvi	4305
vjetar	4306
cilje	4307
sezona	4308
drži	4309
informacija	4310
zloči	4311
zanimljivo	4312
apso	4313
iska	4314
##is	4315
poe	4316
početak	4317
ponekad	4318
vrijednost	4319
najboljih	4320
tomislav	4321
opisa	4322
un	4323
##am	4324
##dilo	4325
rusija	4326
glas	4327
tvrde	4328
pokazuju	4329
poziv	4330
sudac	4331
##predsjed	4332
1024x1	4333
##vak	4334
daje	4335
dose	4336
moru	4337
oslo	4338
ostale	4339
kreta	4340
finalu	4341
nesreće	4342
poljoprivred	4343
##đuju	4344
osijek	4345
glasova	4346
##um	4347
##teo	4348
kojemu	4349
počela	4350
godišnjak	4351
intelige	4352
govorio	4353
učiniti	4354
lakše	4355
##tti	4356
prirod	4357
trenin	4358
tuži	4359
##80x1	4360
imena	4361
km	4362
##ramo	4363
##lacije	4364
domi	4365
raste	4366
##ker	4367
primo	4368
milo	4369
kupo	4370
turu	4371
sloven	4372
splita	4373
ljest	4374
situacije	4375
suradnji	4376
iskustva	4377
sv	4378
pošto	4379
znati	4380
glasno	4381
ceste	4382
povijest	4383
nizozem	4384
##skr	4385
veće	4386
##šević	4387
obla	4388
rijeci	4389
dobit	4390
vijest	4391
nagradu	4392
hvala	4393
##sh	4394
##ol	4395
##tek	4396
##zirao	4397
list	4398
okolnosti	4399
osvojila	4400
ujedno	4401
švica	4402
##mova	4403
##ser	4404
vodo	4405
izbori	4406
1280x1	4407
svjetskog	4408
kandidat	4409
38	4410
akade	4411
##vile	4412
##šni	4413
##snom	4414
##tković	4415
europskom	4416
stigla	4417
spremni	4418
kriminali	4419
htio	4420
##the	4421
austra	4422
zaštite	4423
##voru	4424
##mentu	4425
pohvali	4426
##jska	4427
##tivan	4428
osvr	4429
želimo	4430
kapa	4431
savjet	4432
nor	4433
##ćim	4434
sindi	4435
ruski	4436
bolnici	4437
55	4438
##boru	4439
prav	4440
##cijski	4441
učinko	4442
unutra	4443
jadranu	4444
alek	4445
nasto	4446
##hom	4447
ruku	4448
lani	4449
državnog	4450
slobodna	4451
nesreća	4452
el	4453
bespla	4454
##tski	4455
goran	4456
##njim	4457
titu	4458
strada	4459
radnika	4460
članovi	4461
zraka	4462
košarka	4463
##nskoj	4464
##26	4465
popla	4466
##vini	4467
brojni	4468
obavlja	4469
amerika	4470
tržištu	4471
instagramu	4472
zatra	4473
##ger	4474
##nijeg	4475
vukova	4476
budućnost	4477
stanovni	4478
sru	4479
##lizira	4480
##vana	4481
budi	4482
slike	4483
odgovorio	4484
nevjeroja	4485
ene	4486
njoj	4487
teren	4488
brazi	4489
nastupi	4490
stranka	4491
inozem	4492
37	4493
ani	4494
eg	4495
ika	4496
ver	4497
197	4498
četvrt	4499
karijeri	4500
andrej	4501
uje	4502
##vito	4503
##lega	4504
rasta	4505
grupa	4506
##dnom	4507
karak	4508
nepri	4509
odvjetni	4510
ostala	4511
zapovje	4512
popra	4513
##lena	4514
voda	4515
kim	4516
proces	4517
##dove	4518
##čari	4519
ruske	4520
glavnog	4521
rješenja	4522
##listi	4523
##rov	4524
serije	4525
##nijela	4526
našoj	4527
provodi	4528
priopćenju	4529
razvoja	4530
razdoblju	4531
industri	4532
skr	4533
šta	4534
neiz	4535
listi	4536
halji	4537
različiti	4538
navijači	4539
izbjega	4540
##id	4541
dobre	4542
##dera	4543
tera	4544
papi	4545
##tivnih	4546
postoja	4547
##ntima	4548
poznat	4549
istaknula	4550
svakog	4551
lokomo	4552
\/	4553
##žna	4554
trene	4555
odnosi	4556
dogodila	4557
osjećaj	4558
##dnik	4559
##zaciju	4560
vina	4561
bori	4562
poruka	4563
karijeru	4564
festivala	4565
##rira	4566
inspi	4567
laga	4568
zahvali	4569
povećanje	4570
tenisa	4571
dužnos	4572
minima	4573
##...	4574
njihovu	4575
prošlog	4576
rezultati	4577
odmo	4578
obrati	4579
našem	4580
##ments	4581
dosada	4582
zadnje	4583
##nut	4584
preo	4585
srca	4586
razliku	4587
enja	4588
##vamo	4589
##ženja	4590
školu	4591
zatvora	4592
borbi	4593
istraživanja	4594
iznos	4595
##vis	4596
##mena	4597
europskih	4598
ideja	4599
održati	4600
##vinu	4601
##gara	4602
##ljenje	4603
##hor	4604
poznata	4605
navečer	4606
zgrade	4607
it	4608
##kati	4609
kama	4610
##bama	4611
##zama	4612
predvo	4613
vozač	4614
ati	4615
volje	4616
ostav	4617
##vani	4618
kolek	4619
provede	4620
ravno	4621
##gallery	4622
boje	4623
konkre	4624
turnira	4625
htt	4626
olu	4627
##ft	4628
serija	4629
donio	4630
##stvima	4631
##put	4632
državni	4633
tjele	4634
premijera	4635
ao	4636
flo	4637
ine	4638
yor	4639
##noga	4640
golova	4641
moram	4642
##proda	4643
programu	4644
obožava	4645
##jskih	4646
novča	4647
odigrao	4648
konkuren	4649
##nne	4650
sas	4651
##pisi	4652
cijele	4653
maksima	4654
##_271988	4655
priopći	4656
hercego	4657
kilograma	4658
etvr	4659
##kciju	4660
igraju	4661
temelju	4662
velikog	4663
milijardi	4664
ex	4665
jesu	4666
##mana	4667
sino	4668
kupu	4669
luke	4670
završila	4671
legenda	4672
##lnost	4673
##tice	4674
##ženo	4675
vremenu	4676
svjetski	4677
blago	4678
glumica	4679
mobite	4680
etiri	4681
plju	4682
ulazi	4683
##tetu	4684
pribli	4685
##šili	4686
simp	4687
londo	4688
spomi	4689
velik	4690
arhi	4691
smatraju	4692
zaštitu	4693
05	4694
ara	4695
naju	4696
dokaza	4697
teri	4698
standa	4699
##vljuje	4700
derbi	4701
39	4702
zvo	4703
špi	4704
progno	4705
navijača	4706
pjesma	4707
##sc	4708
##pić	4709
razvija	4710
pravila	4711
tisuće	4712
ulice	4713
raspolo	4714
##zmu	4715
nepozna	4716
1280x	4717
nagrade	4718
kapaci	4719
eno	4720
##godio	4721
jača	4722
stariji	4723
predlo	4724
igrama	4725
školi	4726
gledati	4727
blizu	4728
konačno	4729
bron	4730
sk	4731
dovesti	4732
samosta	4733
hama	4734
njezine	4735
slika	4736
pretpo	4737
1024x	4738
gri	4739
šved	4740
##čije	4741
##liga	4742
##tona	4743
##stiti	4744
potpredsjed	4745
plas	4746
poruku	4747
kategoriji	4748
aju	4749
##dnu	4750
##ssi	4751
zadru	4752
##vec	4753
lista	4754
trage	4755
stoljeća	4756
elektro	4757
adre	4758
ugovo	4759
kog	4760
##njeva	4761
petra	4762
autoce	4763
jednako	4764
slijedi	4765
inova	4766
wil	4767
rela	4768
##bacio	4769
stan	4770
prednost	4771
medije	4772
saveza	4773
sumnja	4774
##tnoj	4775
##zde	4776
##kin	4777
mal	4778
sporazu	4779
nagrada	4780
objašnjava	4781
potak	4782
novoj	4783
puca	4784
ostalim	4785
uvjetima	4786
večeras	4787
prijedlog	4788
kriminalisti	4789
##23	4790
čine	4791
filip	4792
uki	4793
##sad	4794
prošli	4795
velikih	4796
pozvao	4797
donijeti	4798
esto	4799
##rskoj	4800
dodje	4801
##mer	4802
##zacija	4803
##šen	4804
američki	4805
pozdra	4806
apsolu	4807
baze	4808
djeci	4809
njegovim	4810
##sport	4811
članova	4812
pobijedio	4813
usluga	4814
igru	4815
##tru	4816
##ld	4817
žive	4818
##slava	4819
podataka	4820
##nisti	4821
nalaze	4822
izvu	4823
masli	4824
opti	4825
##vljen	4826
dizaj	4827
aplika	4828
##mlja	4829
##ture	4830
uslije	4831
postupak	4832
##land	4833
košta	4834
med	4835
kuću	4836
ostalo	4837
udarac	4838
sredstava	4839
pravosu	4840
zadnjih	4841
42	4842
ujedi	4843
susjed	4844
prio	4845
prednosti	4846
ulica	4847
bolnice	4848
220x1	4849
##lacija	4850
kop	4851
##lon	4852
tam	4853
##ćenje	4854
stana	4855
##vniku	4856
kreće	4857
slova	4858
obave	4859
https	4860
fri	4861
##ts	4862
##šo	4863
##kte	4864
##čava	4865
osni	4866
tikto	4867
ovogodi	4868
vrsta	4869
##vljeni	4870
popular	4871
nukle	4872
velikoj	4873
pjevačica	4874
alba	4875
studenog	4876
temperature	4877
##us	4878
##rene	4879
##šan	4880
inspe	4881
morao	4882
ukrajine	4883
redovito	4884
ušao	4885
##novima	4886
proba	4887
propusti	4888
organizacije	4889
rješa	4890
čovjeka	4891
poduzet	4892
isključi	4893
manife	4894
##jskom	4895
##laga	4896
##tego	4897
baca	4898
znate	4899
bur	4900
1920	4901
njegovom	4902
75	4903
##žnja	4904
##bice	4905
rumu	4906
srce	4907
sadr	4908
prijatelja	4909
skladu	4910
tehnologi	4911
prošao	4912
preži	4913
##graf	4914
detalj	4915
mandat	4916
jugosla	4917
zbi	4918
donal	4919
ratu	4920
##njene	4921
##ljka	4922
stavlja	4923
britan	4924
podacima	4925
zahtjev	4926
aja	4927
##lira	4928
koga	4929
sastav	4930
rastu	4931
radovi	4932
teo	4933
##ljivi	4934
kuhi	4935
znak	4936
promijeniti	4937
palesti	4938
##njeni	4939
javnog	4940
##žuje	4941
ljepo	4942
najveća	4943
pokazali	4944
skoro	4945
nastavku	4946
ubrzo	4947
##liji	4948
doista	4949
mala	4950
hrvatskim	4951
aktivi	4952
izabra	4953
medijima	4954
odabra	4955
odgovornost	4956
ivica	4957
##10	4958
destina	4959
##ham	4960
filmu	4961
napravili	4962
modrić	4963
zag	4964
##bičaje	4965
spor	4966
srbija	4967
širo	4968
vijesti	4969
spreman	4970
sasvim	4971
ch	4972
naći	4973
##tali	4974
##voren	4975
nep	4976
igrače	4977
riječima	4978
uspješno	4979
pored	4980
prekra	4981
petro	4982
idemo	4983
2018	4984
napu	4985
postupa	4986
##sigu	4987
razmje	4988
prostoru	4989
trenutačno	4990
ane	4991
uka	4992
uzima	4993
napla	4994
##reda	4995
znatno	4996
odnose	4997
istom	4998
rizik	4999
##nuta	5000
prido	5001
tijeku	5002
eduka	5003
mrt	5004
olak	5005
##šnju	5006
##mla	5007
##81	5008
##//	5009
##njeno	5010
##ziva	5011
najljep	5012
kontinu	5013
##šten	5014
cesti	5015
mreže	5016
##que	5017
##rbe	5018
##nc	5019
dodi	5020
sudu	5021
##njeg	5022
bom	5023
ispita	5024
obično	5025
odluči	5026
odlučili	5027
studija	5028
ističu	5029
agencija	5030
funkcionira	5031
domovinskog	5032
činjenica	5033
stupnjeva	5034
glasnogovor	5035
##kvi	5036
##leti	5037
privu	5038
pad	5039
mjera	5040
predsjednica	5041
ukrajinu	5042
vozilo	5043
2016	5044
prvenstve	5045
kakva	5046
povratak	5047
kontinui	5048
##tnost	5049
##dy	5050
##rigi	5051
##lovima	5052
joh	5053
roku	5054
favori	5055
njemačke	5056
zim	5057
##ticle	5058
znao	5059
loši	5060
politički	5061
skupini	5062
smislu	5063
porez	5064
usluge	5065
1920x1	5066
promi	5067
morati	5068
gostu	5069
##bar	5070
##zapad	5071
logi	5072
##fer	5073
njemačka	5074
četvrti	5075
dogoditi	5076
utjecaj	5077
apa	5078
##45	5079
jef	5080
odvija	5081
menta	5082
obno	5083
najpo	5084
broju	5085
poziciju	5086
##ktor	5087
najvećih	5088
://	5089
##šne	5090
domu	5091
dogodio	5092
najče	5093
situaciji	5094
susretu	5095
##ndu	5096
teške	5097
napadu	5098
##strije	5099
bilje	5100
prolazi	5101
pregleda	5102
inde	5103
cel	5104
nastavio	5105
prvak	5106
pogodio	5107
građane	5108
vidimo	5109
postigao	5110
humani	5111
char	5112
ugovora	5113
##šnjoj	5114
niste	5115
znanja	5116
njihovim	5117
pokazati	5118
priznao	5119
trgova	5120
šanse	5121
##ntu	5122
##žem	5123
vale	5124
vodio	5125
vjeruje	5126
pokri	5127
kara	5128
jednim	5129
opro	5130
potpunosti	5131
##pisuje	5132
()	5133
upla	5134
glavu	5135
brod	5136
400	5137
ote	5138
##žnom	5139
tero	5140
perio	5141
riješiti	5142
osobno	5143
fanta	5144
najbolja	5145
uvjete	5146
knjige	5147
interesa	5148
srbiji	5149
čije	5150
##tivnim	5151
koncent	5152
regiji	5153
model	5154
formi	5155
naveo	5156
defini	5157
ica	5158
##86	5159
povla	5160
sabora	5161
teški	5162
starije	5163
granice	5164
dugoro	5165
dalmati	5166
preminuo	5167
kapetan	5168
simpto	5169
rumunj	5170
uru	5171
##rela	5172
net	5173
rok	5174
crkve	5175
otkriva	5176
različitih	5177
##šna	5178
##dnika	5179
neku	5180
primor	5181
##šak	5182
##gija	5183
stiže	5184
četvrtfina	5185
sme	5186
##šnjo	5187
pože	5188
odmor	5189
procije	5190
morate	5191
zemlju	5192
podsjeća	5193
alkohola	5194
sekundi	5195
onima	5196
sha	5197
##35	5198
##sira	5199
vama	5200
##vjela	5201
##ntno	5202
poruke	5203
varaždina	5204
republika	5205
catitem	5206
rođendan	5207
korup	5208
##zin	5209
njihovih	5210
##scipli	5211
potroša	5212
tz	5213
udo	5214
##strija	5215
ligu	5216
županija	5217
podatke	5218
uključuje	5219
konferenciji	5220
vlasnik	5221
oslobo	5222
##uzda	5223
##jevima	5224
sank	5225
most	5226
##ljenih	5227
ostalih	5228
odlučila	5229
počeli	5230
uko	5231
##tovi	5232
prometu	5233
##sili	5234
samom	5235
opskr	5236
njegovi	5237
siguran	5238
dijelom	5239
reprezentaciju	5240
nekad	5241
temelj	5242
policijske	5243
interes	5244
naroda	5245
stručnjaci	5246
rekord	5247
ocije	5248
pogodi	5249
##lanja	5250
##jice	5251
##juće	5252
moć	5253
mosta	5254
##ljet	5255
##bano	5256
međi	5257
javne	5258
vole	5259
duho	5260
##vljena	5261
tvrtki	5262
neobi	5263
fotografiju	5264
večeri	5265
moli	5266
##peri	5267
stambe	5268
tribi	5269
martin	5270
krvi	5271
ponavlja	5272
tržište	5273
policijski	5274
##zme	5275
##lović	5276
sanja	5277
prese	5278
nekog	5279
trumpa	5280
primorac	5281
##rje	5282
##roma	5283
##let	5284
##zao	5285
vino	5286
planu	5287
hoda	5288
voditelj	5289
podaci	5290
vatrogasci	5291
bivšeg	5292
izuzetno	5293
međimu	5294
zadra	5295
##tove	5296
raka	5297
##stio	5298
##zio	5299
vodu	5300
znanosti	5301
stopa	5302
takva	5303
##intere	5304
varaždinu	5305
340x2	5306
povodom	5307
44	5308
##69	5309
##nior	5310
dar	5311
##miju	5312
građanima	5313
conta	5314
##_2711	5315
prodaje	5316
šoki	5317
zemljama	5318
##video	5319
##_2717955	5320
48	5321
##we	5322
damir	5323
##čaja	5324
jak	5325
svaku	5326
uklo	5327
varaždinske	5328
##ravak	5329
policaj	5330
manifesta	5331
##ys	5332
##ranju	5333
zalju	5334
##dit	5335
sela	5336
mor	5337
teži	5338
mira	5339
stranici	5340
snagu	5341
publika	5342
lokalne	5343
šibenik	5344
detalje	5345
veljače	5346
crno	5347
igara	5348
##vicu	5349
putin	5350
##zora	5351
područje	5352
razvoju	5353
##deset	5354
bolnicu	5355
##od	5356
##mna	5357
##žene	5358
parti	5359
ministri	5360
sljedeće	5361
josipa	5362
luksu	5363
uprava	5364
politika	5365
glumac	5366
učenika	5367
ogrom	5368
##čaka	5369
boji	5370
hrvata	5371
svatko	5372
članica	5373
ukrajina	5374
sportski	5375
sumnje	5376
izvanred	5377
iznosu	5378
41	5379
##vimo	5380
doj	5381
objave	5382
ange	5383
šef	5384
prilike	5385
račun	5386
zastupnika	5387
položa	5388
640x4	5389
##tov	5390
dobru	5391
##čani	5392
##šati	5393
europska	5394
zdravlja	5395
razinu	5396
kvalitete	5397
nja	5398
oču	5399
##ima	5400
mami	5401
najpozna	5402
pena	5403
jedva	5404
##čuju	5405
morali	5406
##prijed	5407
...'	5408
proizvodnje	5409
govoriti	5410
prometne	5411
napome	5412
!"	5413
##ttu	5414
poni	5415
sun	5416
zajednica	5417
istina	5418
uživa	5419
##govarati	5420
atra	5421
kbc	5422
##ina	5423
neto	5424
prikaza	5425
veća	5426
libano	5427
krenuo	5428
150	5429
jedina	5430
bogat	5431
korištenje	5432
you	5433
##kala	5434
dobije	5435
pišu	5436
pravu	5437
znali	5438
vrste	5439
kiša	5440
nastavak	5441
milijun	5442
pripreme	5443
natjecanje	5444
knjiže	5445
spek	5446
požar	5447
ulaganja	5448
##rnog	5449
##jskim	5450
##vaca	5451
##ljenja	5452
šeće	5453
dvostru	5454
najveće	5455
vidim	5456
partnera	5457
kakve	5458
španjolske	5459
ravnatelj	5460
stanovnika	5461
##pravda	5462
svu	5463
namir	5464
proje	5465
far	5466
ideal	5467
direk	5468
agencije	5469
nekom	5470
prem	5471
##ziti	5472
pokušao	5473
pokušava	5474
plenkovi	5475
platformi	5476
ate	5477
mlije	5478
##sse	5479
##čnost	5480
poti	5481
zaintere	5482
prince	5483
satima	5484
građevi	5485
propisa	5486
##ljom	5487
potporu	5488
slaven	5489
##ktora	5490
pogodak	5491
jednostav	5492
interven	5493
nekretnine	5494
65	5495
##žnog	5496
##dobno	5497
treni	5498
samog	5499
službeno	5500
ozbiljno	5501
480x3	5502
sveučilišta	5503
portugal	5504
ii	5505
ubo	5506
preci	5507
mama	5508
čija	5509
nikak	5510
hit	5511
glum	5512
sjevero	5513
postro	5514
##jić	5515
odlazi	5516
prigo	5517
pristupa	5518
najte	5519
vrh	5520
cilja	5521
obranu	5522
##nijim	5523
ul	5524
pripada	5525
##tkinja	5526
domaćin	5527
putovanja	5528
chi	5529
susje	5530
preve	5531
##zerva	5532
uvjer	5533
ostvari	5534
otvoreno	5535
njegovoj	5536
pomaže	5537
iš	5538
ulja	5539
##gnuti	5540
##kete	5541
##han	5542
##hani	5543
cijenu	5544
dubrovnika	5545
generacije	5546
##prilike	5547
isključivo	5548
ug	5549
##mr	5550
##redi	5551
propa	5552
meteo	5553
osmi	5554
plasti	5555
njihovo	5556
nadzor	5557
briga	5558
izjavila	5559
ivot	5560
##ravka	5561
46	5562
##96	5563
##tite	5564
poto	5565
zao	5566
duga	5567
izab	5568
brojnim	5569
političke	5570
uključi	5571
borbu	5572
kaznenog	5573
njegovog	5574
razdoblje	5575
analiti	5576
cjelo	5577
optimi	5578
##rnim	5579
zaosta	5580
mara	5581
teška	5582
##ševa	5583
odnosa	5584
liječni	5585
dolazak	5586
završiti	5587
štetu	5588
poslijepodne	5589
vanjskih	5590
eva	5591
##isto	5592
##yer	5593
##logu	5594
##bit	5595
bog	5596
pis	5597
ruka	5598
ciljem	5599
domaće	5600
pažnju	5601
neprija	5602
##jati	5603
današnji	5604
##štima	5605
trgu	5606
drugima	5607
razine	5608
speci	5609
kolege	5610
nogometaši	5611
oca	5612
##s_	5613
pregovo	5614
preosta	5615
tor	5616
##luju	5617
##mice	5618
dubra	5619
njihovi	5620
marke	5621
posebice	5622
##ndro	5623
2017	5624
suprug	5625
ape	5626
bren	5627
oli	5628
##_ar	5629
lica	5630
hrvati	5631
kombi	5632
osobama	5633
suradnju	5634
uobičaje	5635
godišnjeg	5636
47	5637
šteta	5638
##vero	5639
prolaz	5640
javni	5641
##đenju	5642
pratiti	5643
otprilike	5644
radili	5645
poseban	5646
upotre	5647
trofe	5648
onoga	5649
prodaju	5650
različite	5651
galerija	5652
ade	5653
fra	5654
qu	5655
zauze	5656
testi	5657
njegovih	5658
pobjedom	5659
osigurati	5660
naglašava	5661
španjolska	5662
obrazovanja	5663
duboko	5664
fantasti	5665
##žbu	5666
##linu	5667
dala	5668
nes	5669
boži	5670
važan	5671
liste	5672
##vnosti	5673
crne	5674
pojasni	5675
muškaraca	5676
kvalitetu	5677
značajno	5678
vikenda	5679
saraje	5680
afe	5681
uža	5682
##rij	5683
##nes	5684
biden	5685
prolje	5686
##ćeno	5687
gazi	5688
hranu	5689
ovisi	5690
odlično	5691
katastro	5692
vodstvo	5693
portal	5694
premda	5695
nacija	5696
##toj	5697
##letio	5698
teku	5699
pas	5700
##hoto	5701
isho	5702
gattu	5703
##hing	5704
gradske	5705
desetak	5706
dubrovniku	5707
manche	5708
##tirati	5709
meto	5710
bora	5711
link	5712
brat	5713
europskim	5714
borba	5715
statisti	5716
ol	5717
preva	5718
cat	5719
djeteta	5720
braka	5721
rezultata	5722
napomi	5723
poslao	5724
pozornost	5725
oružja	5726
kg	5727
##dnim	5728
pogle	5729
##vač	5730
svoja	5731
stože	5732
braku	5733
dvobo	5734
nezado	5735
izvođa	5736
catite	5737
milanovića	5738
fron	5739
##lama	5740
datu	5741
##move	5742
magi	5743
vita	5744
grani	5745
rusije	5746
##skup	5747
cijela	5748
državne	5749
fazi	5750
postane	5751
prijave	5752
nekako	5753
temelji	5754
izgubili	5755
smr	5756
psihi	5757
umjetnosti	5758
images	5759
##lie	5760
##tama	5761
nemogu	5762
sal	5763
pristu	5764
petar	5765
glavna	5766
civi	5767
##ština	5768
nemamo	5769
projekti	5770
američke	5771
hotel	5772
svakodnevno	5773
1024x68	5774
vre	5775
##vcu	5776
##raz	5777
seve	5778
##ler	5779
##zanje	5780
vaša	5781
kreve	5782
ministra	5783
komp	5784
##vremena	5785
blagdan	5786
robert	5787
otpada	5788
dijeli	5789
forma	5790
zgrada	5791
korisnika	5792
sukoba	5793
poljudu	5794
posljedice	5795
kompanija	5796
600	5797
klije	5798
našao	5799
##jana	5800
##kali	5801
tad	5802
discipli	5803
policiji	5804
vrijedi	5805
europsko	5806
istoku	5807
hezbo	5808
zdravstva	5809
želite	5810
instagram	5811
preuzima	5812
1280x85	5813
negdje	5814
pretra	5815
makar	5816
##čene	5817
bavi	5818
objavili	5819
pješa	5820
gradskog	5821
francuska	5822
utjecati	5823
očekivati	5824
podijelila	5825
unutrašnjo	5826
oc	5827
ostavlja	5828
izre	5829
##sama	5830
##ženju	5831
najgo	5832
stav	5833
želja	5834
vlast	5835
luci	5836
rim	5837
stipe	5838
geo	5839
knjiga	5840
struktu	5841
uskok	5842
harris	5843
zadovoljni	5844
lasagna	5845
projekata	5846
##m_	5847
##žnih	5848
nape	5849
zasta	5850
proved	5851
prete	5852
gostima	5853
##vljeno	5854
obavijesti	5855
takvih	5856
organizaciji	5857
roditelja	5858
kolega	5859
nasilja	5860
potrebna	5861
ispričao	5862
plasman	5863
tjed	5864
##blji	5865
jese	5866
make	5867
liga	5868
voditi	5869
##njuju	5870
troje	5871
pogledati	5872
tjedana	5873
općina	5874
pomalo	5875
itekako	5876
dvori	5877
pije	5878
ust	5879
##čnije	5880
##kola	5881
selu	5882
banke	5883
kupi	5884
kriv	5885
krenuli	5886
sretan	5887
očekuju	5888
napokon	5889
francuske	5890
bivša	5891
turizma	5892
odvjetnik	5893
čvr	5894
##jd	5895
nepre	5896
##tura	5897
##čeki	5898
invali	5899
objavi	5900
državi	5901
čast	5902
fer	5903
važnost	5904
splitsko	5905
muškarca	5906
##hvaća	5907
##mimagegallery	5908
ustvr	5909
origi	5910
uku	5911
zri	5912
##rnu	5913
##žnim	5914
##tivac	5915
izjedna	5916
mag	5917
razno	5918
gradova	5919
2000	5920
##_270	5921
heliko	5922
suradnje	5923
sportske	5924
uspored	5925
ambi	5926
poena	5927
"...	5928
istu	5929
##čnosti	5930
poreme	5931
proveo	5932
saboru	5933
prera	5934
##ljive	5935
##šila	5936
##traj	5937
međuvremenu	5938
grmlja	5939
##pustiti	5940
otvorena	5941
sinoć	5942
pokra	5943
zasad	5944
##pora	5945
rezer	5946
bolja	5947
posljed	5948
većinom	5949
izgubila	5950
podrška	5951
komentara	5952
milijarde	5953
stadionu	5954
beogradu	5955
mišljenje	5956
eri	5957
upita	5958
##nga	5959
namije	5960
val	5961
vaši	5962
sobom	5963
radni	5964
potez	5965
trgovine	5966
povjeren	5967
smanjenje	5968
normalno	5969
preokre	5970
definitivno	5971
helikop	5972
tvor	5973
naf	5974
##toli	5975
dodije	5976
bana	5977
uskr	5978
radimo	5979
mlađi	5980
proizvode	5981
emisiji	5982
kvadra	5983
ošt	5984
jeste	5985
zadu	5986
##dalma	5987
kapita	5988
##nule	5989
tima	5990
naslova	5991
nemam	5992
obavje	5993
feno	5994
protekli	5995
pokret	5996
ostvariti	5997
suprugom	5998
dnevnik	5999
otoka	6000
vlasništvu	6001
##ati	6002
##lozi	6003
##njenih	6004
##hat	6005
stranu	6006
stigli	6007
istovremeno	6008
gospodarstva	6009
nemojte	6010
najčešće	6011
58	6012
igor	6013
kne	6014
##vski	6015
koševa	6016
suz	6017
izlazi	6018
liva	6019
leo	6020
prijateljima	6021
vojska	6022
slično	6023
podrške	6024
otoku	6025
snimke	6026
putovanje	6027
kampanje	6028
pritisak	6029
norve	6030
john	6031
isu	6032
ura	6033
##nilo	6034
bod	6035
##ljiv	6036
svjesni	6037
uspjela	6038
vojske	6039
reakcije	6040
razlike	6041
ulazak	6042
""	6043
opravda	6044
##rede	6045
supar	6046
mati	6047
temu	6048
star	6049
kupiti	6050
šire	6051
događaj	6052
upozorava	6053
ekipe	6054
izvješta	6055
madrid	6056
status	6057
52	6058
##isti	6059
##xt	6060
popis	6061
##nae	6062
zamisli	6063
davor	6064
##vena	6065
bide	6066
proći	6067
raj	6068
maso	6069
vožnje	6070
živjeti	6071
198	6072
guž	6073
operati	6074
svjetlo	6075
održava	6076
posljedica	6077
##dalmacija	6078
49	6079
imu	6080
ovje	6081
##drža	6082
##snost	6083
pošte	6084
##naj	6085
dona	6086
##porta	6087
maro	6088
miha	6089
ispiti	6090
pokazalo	6091
publiku	6092
visoke	6093
jezika	6094
hotela	6095
smanjiti	6096
willi	6097
anu	6098
##et	6099
neslu	6100
sau	6101
##gađa	6102
sveti	6103
ispi	6104
osobu	6105
drugači	6106
energet	6107
balka	6108
motoci	6109
was	6110
danima	6111
prisi	6112
reu	6113
banka	6114
razne	6115
razgovor	6116
plani	6117
rijetko	6118
prilično	6119
udara	6120
društvene	6121
neovi	6122
student	6123
otići	6124
nogometnog	6125
komunal	6126
kaznu	6127
##padu	6128
mile	6129
najmla	6130
platiti	6131
uskla	6132
akcije	6133
##rnicu	6134
marka	6135
otkrili	6136
gimna	6137
načelnik	6138
ora	6139
##lti	6140
##ravaju	6141
##rove	6142
valja	6143
##žite	6144
svjetskom	6145
reprezentativac	6146
zatvor	6147
kontroli	6148
turnir	6149
pobjednik	6150
energiju	6151
480x320	6152
51	6153
azi	6154
##rda	6155
##nito	6156
kopri	6157
##bić	6158
rusi	6159
##fiel	6160
informacijama	6161
zlostavlja	6162
detalji	6163
sjaj	6164
zdravstvene	6165
započeo	6166
željko	6167
ozljeda	6168
prijevoz	6169
manchester	6170
uhvati	6171
poča	6172
zate	6173
daju	6174
stri	6175
##vjeli	6176
alter	6177
nositi	6178
institucije	6179
opasnosti	6180
životinja	6181
proteklih	6182
43	6183
ući	6184
##šom	6185
kosti	6186
donese	6187
izgle	6188
men	6189
prate	6190
otka	6191
samou	6192
lau	6193
ostavio	6194
projekte	6195
hitne	6196
objasnila	6197
##prje	6198
humanitar	6199
##laca	6200
vezu	6201
##teljice	6202
dodajte	6203
postali	6204
##cijskih	6205
posljednja	6206
dvojica	6207
voditeljica	6208
majsto	6209
isporu	6210
italije	6211
komplek	6212
##deći	6213
misle	6214
jaja	6215
linija	6216
info	6217
dis	6218
otkako	6219
cijeni	6220
nećemo	6221
zove	6222
osvojili	6223
desetlje	6224
sustavu	6225
61	6226
uza	6227
##jskoj	6228
##kse	6229
sen	6230
rukama	6231
##terpo	6232
problemi	6233
putnika	6234
koncerta	6235
nesreći	6236
drugačije	6237
oporbe	6238
pobijediti	6239
kontrolu	6240
osijeka	6241
obliku	6242
velepo	6243
kazna	6244
##menata	6245
rafa	6246
##grafi	6247
##đenim	6248
kiše	6249
ciklu	6250
lud	6251
ondje	6252
klupi	6253
sigurni	6254
zapošlja	6255
veleposla	6256
evi	6257
##cke	6258
##zati	6259
vez	6260
većinu	6261
udario	6262
oduze	6263
ureda	6264
organizacija	6265
dnevno	6266
proračuna	6267
sunčano	6268
razgovoru	6269
##vrijeme	6270
ae	6271
njom	6272
nat	6273
##lini	6274
##lazak	6275
prit	6276
pamet	6277
des	6278
svjetske	6279
nacionalne	6280
stručnjak	6281
ovisno	6282
sumnji	6283
kije	6284
##tika	6285
##tivu	6286
preven	6287
vaterpo	6288
osvoje	6289
rusiji	6290
letje	6291
kredi	6292
##škoj	6293
razlika	6294
optuž	6295
tržišta	6296
nogometaš	6297
gradonačelnika	6298
web	6299
afri	6300
hrana	6301
urba	6302
##55	6303
pogled	6304
izo	6305
##stara	6306
mogle	6307
##mit	6308
##grad	6309
čim	6310
##štena	6311
brojnih	6312
širi	6313
posloda	6314
proizvodi	6315
nedjelje	6316
scene	6317
skupa	6318
##tegory	6319
specifi	6320
koj	6321
##cira	6322
mikro	6323
volo	6324
proizvodnju	6325
važna	6326
pronašli	6327
desetljeća	6328
upravljanja	6329
olimpijske	6330
djevojka	6331
crveni	6332
odlazak	6333
platfor	6334
cestama	6335
!'	6336
54	6337
57	6338
hns	6339
##tton	6340
koor	6341
nepro	6342
##žavaju	6343
pusti	6344
##genti	6345
pete	6346
##tivnu	6347
vojnika	6348
raspu	6349
krugu	6350
poreza	6351
uništi	6352
osijeku	6353
zvijezde	6354
savjeto	6355
iskreno	6356
facebook	6357
glasnogovornik	6358
63	6359
##nstva	6360
##vano	6361
koso	6362
belu	6363
kralji	6364
orke	6365
akcija	6366
ulozi	6367
postignu	6368
##logiju	6369
komisije	6370
tzv	6371
alterna	6372
##laže	6373
pregled	6374
mail	6375
##cent	6376
osnova	6377
opcija	6378
cijelog	6379
centi	6380
olimpijskim	6381
spomenuti	6382
prirode	6383
ispričala	6384
##shi	6385
##yja	6386
nared	6387
dojam	6388
izgled	6389
izbaci	6390
sasto	6391
##pović	6392
razgovarati	6393
kuna	6394
klup	6395
dinamu	6396
uvjeti	6397
osnovne	6398
jezik	6399
zavoda	6400
okri	6401
##rh	6402
##ls	6403
##chi	6404
seg	6405
revo	6406
obro	6407
usred	6408
poziciji	6409
pozo	6410
bilj	6411
pretje	6412
##čem	6413
japan	6414
imat	6415
plasi	6416
vjer	6417
komple	6418
njemački	6419
slobodno	6420
srpski	6421
terena	6422
odjela	6423
nadokna	6424
aleksa	6425
64	6426
areni	6427
##nciju	6428
##fal	6429
##tiji	6430
##viju	6431
prof	6432
mehani	6433
##mjese	6434
stranicama	6435
anđe	6436
istrage	6437
dvorani	6438
ugostitelj	6439
strijelac	6440
##_article	6441
##snosti	6442
iznaj	6443
##bin	6444
rujnu	6445
politiku	6446
dinami	6447
nogometni	6448
argenti	6449
vijeć	6450
službenici	6451
poluvremenu	6452
parlament	6453
showa	6454
brazil	6455
apsolutno	6456
ur	6457
##ms	6458
##vajući	6459
katoli	6460
rezo	6461
##ćene	6462
boksa	6463
##djela	6464
##tivnog	6465
vrho	6466
kise	6467
pitali	6468
vremenom	6469
ukrajinski	6470
##cou	6471
##mente	6472
nogometne	6473
sjajno	6474
maksimiru	6475
prethodno	6476
kćeri	6477
rasporedu	6478
##jsku	6479
##ight	6480
##licu	6481
##novo	6482
seriji	6483
sana	6484
noge	6485
čelu	6486
kontek	6487
mlada	6488
natjecanju	6489
sudaca	6490
pobijedila	6491
počini	6492
emisije	6493
izazov	6494
vikend	6495
dužnosti	6496
album	6497
bicikli	6498
kći	6499
##nge	6500
kota	6501
kopriv	6502
##stao	6503
goste	6504
nost	6505
##ćeva	6506
bož	6507
kojega	6508
kuć	6509
šet	6510
uspjeha	6511
društvenih	6512
želio	6513
istraživa	6514
plenkovića	6515
nezavi	6516
zastupnik	6517
nedostaje	6518
žrtve	6519
internet	6520
zadovoljan	6521
oh	6522
##jaca	6523
sestra	6524
doja	6525
suve	6526
##skoga	6527
jam	6528
stare	6529
##presi	6530
2015	6531
načina	6532
vijeće	6533
imeno	6534
majke	6535
prošlosti	6536
klubova	6537
facebooku	6538
jutarnji	6539
ela	6540
sp	6541
dono	6542
stanja	6543
baci	6544
praz	6545
##kladno	6546
nekoga	6547
obrana	6548
odabi	6549
ponudu	6550
vozača	6551
operacije	6552
2f	6553
she	6554
raki	6555
djecom	6556
uspije	6557
slavi	6558
naslje	6559
publike	6560
izvora	6561
sudjelovao	6562
turističke	6563
uzrok	6564
razgovarali	6565
ustavni	6566
jutros	6567
nezadovolj	6568
đu	6569
##tljivo	6570
##nstvo	6571
##žnji	6572
##moć	6573
prou	6574
rekon	6575
max	6576
mane	6577
bate	6578
djeluje	6579
stranih	6580
veliči	6581
državnom	6582
##ters	6583
zatvara	6584
uživati	6585
nadolaze	6586
opasnost	6587
sposobnosti	6588
koncentra	6589
ise	6590
neću	6591
same	6592
gastro	6593
broda	6594
događaju	6595
osiguranje	6596
osvojiti	6597
transfe	6598
admini	6599
gostiju	6600
prekršaja	6601
tho	6602
ue	6603
##spa	6604
##cy	6605
poštu	6606
trećem	6607
sil	6608
radila	6609
obavije	6610
mreži	6611
otišla	6612
doživlja	6613
otvorio	6614
servi	6615
##ction	6616
##jevi	6617
dalić	6618
##loške	6619
##vent	6620
##lea	6621
memo	6622
igračima	6623
brak	6624
videu	6625
takvim	6626
mrežu	6627
kazneno	6628
iduće	6629
sudjelovati	6630
požara	6631
ponašanje	6632
različitim	6633
angaži	6634
osvrnuo	6635
original	6636
66	6637
##wo	6638
##lesa	6639
golom	6640
##njaka	6641
regije	6642
treća	6643
bero	6644
juri	6645
njihovom	6646
##novića	6647
zatvori	6648
formu	6649
uživo	6650
##uthor	6651
potpisao	6652
##burg	6653
ulaznice	6654
vrtića	6655
##pti	6656
##jicu	6657
sele	6658
priklju	6659
linije	6660
uzne	6661
strah	6662
njezinu	6663
županiji	6664
nacionalnog	6665
upozorenje	6666
povjerenje	6667
oglasio	6668
prilago	6669
moz	6670
maga	6671
pande	6672
##sur	6673
stanova	6674
bayer	6675
trebamo	6676
europskoj	6677
predviđa	6678
neret	6679
washing	6680
##jeve	6681
##ror	6682
##jac	6683
pripa	6684
obrt	6685
##tivnom	6686
početi	6687
obrambe	6688
rezultatom	6689
roditeljima	6690
učenici	6691
sceni	6692
predstavnici	6693
zahtjeva	6694
tehnologije	6695
##303	6696
izvijestio	6697
htjeli	6698
promatra	6699
jefti	6700
unutrašnjosti	6701
ovla	6702
nai	6703
##kovića	6704
suvreme	6705
mia	6706
nosti	6707
mjestima	6708
tragi	6709
riba	6710
župan	6711
izjave	6712
napadač	6713
opora	6714
festivalu	6715
okoliša	6716
napustio	6717
dječje	6718
koprivni	6719
rekonstru	6720
56	6721
62	6722
adri	6723
eka	6724
##tam	6725
gole	6726
volio	6727
vladu	6728
kih	6729
##redno	6730
tijelu	6731
dobiva	6732
plesa	6733
napravila	6734
pojedina	6735
novinarima	6736
medalje	6737
alex	6738
##nni	6739
##nna	6740
##tit	6741
poza	6742
##jak	6743
zamo	6744
##sata	6745
meč	6746
##šajte	6747
limu	6748
vodom	6749
##pula	6750
joe	6751
mjeri	6752
konsta	6753
korist	6754
online	6755
zlato	6756
bolest	6757
međunaro	6758
utrke	6759
sukob	6760
beograd	6761
incident	6762
đo	6763
##jku	6764
##432	6765
jelo	6766
polja	6767
radom	6768
bore	6769
javnom	6770
tip	6771
zagrebačke	6772
zagrebačkom	6773
srednje	6774
prometna	6775
marina	6776
mirovinu	6777
četvero	6778
vjerovati	6779
najvažnije	6780
ubojstvo	6781
titulu	6782
##liju	6783
##lića	6784
motivi	6785
radim	6786
korisni	6787
krenula	6788
prvim	6789
istraga	6790
nikakve	6791
publici	6792
gluma	6793
##_19	6794
emocional	6795
modela	6796
usposta	6797
sastanak	6798
poduzetni	6799
kategorije	6800
##desetak	6801
preuzeo	6802
"}	6803
crije	6804
hva	6805
##kt	6806
##cki	6807
##tike	6808
##lika	6809
povremeno	6810
##loge	6811
suge	6812
motor	6813
govor	6814
isla	6815
##play	6816
upozorio	6817
vatrogasa	6818
donijela	6819
naziva	6820
bloki	6821
nekretnina	6822
skanda	6823
htjela	6824
pljusko	6825
53	6826
##llo	6827
##ranih	6828
##tala	6829
kamio	6830
probu	6831
presti	6832
teža	6833
##sić	6834
nih	6835
menad	6836
najsta	6837
djeti	6838
##cijskog	6839
##veden	6840
##lly	6841
izvijestila	6842
iznajm	6843
inje	6844
ske	6845
uga	6846
nazo	6847
##ree	6848
##taba	6849
##vida	6850
sestre	6851
provesti	6852
pat	6853
live	6854
petka	6855
jur	6856
izašao	6857
##šković	6858
marti	6859
dragi	6860
pobijedili	6861
razdoblja	6862
##mpu	6863
port	6864
zaigra	6865
odbio	6866
sala	6867
staviti	6868
buga	6869
domaćih	6870
draga	6871
vojne	6872
##šnjih	6873
francuski	6874
priznala	6875
utvrđeno	6876
nepos	6877
predstavio	6878
##vljuju	6879
67	6880
imo	6881
ikad	6882
##67	6883
##ff	6884
##title	6885
pav	6886
peti	6887
rock	6888
##škol	6889
splića	6890
poslove	6891
vozilom	6892
dalmatin	6893
procesu	6894
predstavnika	6895
uhićen	6896
igri	6897
učinkovito	6898
atrak	6899
anje	6900
oš	6901
##slje	6902
##link	6903
##kula	6904
##šena	6905
dim	6906
raznih	6907
otvoren	6908
slavlje	6909
park	6910
financija	6911
pokušaj	6912
čokola	6913
ponude	6914
itema	6915
izgradnju	6916
transpa	6917
itemrela	6918
djelatnosti	6919
zainteresi	6920
74	6921
kono	6922
##rur	6923
miri	6924
veću	6925
trend	6926
benzi	6927
mješta	6928
otpor	6929
dramati	6930
geor	6931
trumpo	6932
vuko	6933
pretvori	6934
kandidati	6935
krug	6936
odab	6937
marin	6938
tražiti	6939
sudjelovali	6940
air	6941
osumnjiče	6942
turudi	6943
avan	6944
even	6945
hnk	6946
mc	6947
##),	6948
##tovima	6949
table	6950
razgovora	6951
otkaza	6952
trajek	6953
ostane	6954
##rijama	6955
karte	6956
eksperi	6957
institucija	6958
pisali	6959
turniru	6960
nevjerojatno	6961
croati	6962
kriminal	6963
slobodnadalmacija	6964
anja	6965
##žnu	6966
##jača	6967
mol	6968
##turu	6969
vani	6970
infe	6971
predmet	6972
pilo	6973
čišće	6974
##ćuju	6975
izraela	6976
problemima	6977
čuli	6978
##đivati	6979
reakcija	6980
uloge	6981
ostvario	6982
##nder	6983
obzir	6984
mirovine	6985
##slovno	6986
trening	6987
gattuso	6988
neslužbe	6989
##ssa	6990
##dow	6991
dug	6992
jugu	6993
križa	6994
obrani	6995
mjesecima	6996
2014	6997
2012	6998
kvalitet	6999
hrabro	7000
kakvu	7001
izdanje	7002
vladimir	7003
atmosfera	7004
1920x10	7005
revolu	7006
##tabase	7007
71	7008
87	7009
ari	7010
plina	7011
wal	7012
##date	7013
pake	7014
pun	7015
tune	7016
krivo	7017
slavio	7018
sretni	7019
žup	7020
poslovanja	7021
slučajeva	7022
pripremi	7023
kršća	7024
mnogim	7025
muškarci	7026
upravljanje	7027
ekono	7028
liječnici	7029
iskoristiti	7030
vidljivo	7031
##sigurno	7032
120	7033
76	7034
istre	7035
ilega	7036
spi	7037
##rskog	7038
##_in	7039
pomi	7040
kašte	7041
tona	7042
##lum	7043
##minira	7044
##dovima	7045
osvje	7046
##đenog	7047
loš	7048
autori	7049
krenuti	7050
mlađe	7051
njihovoj	7052
pojavila	7053
američkog	7054
smještaj	7055
istaknuti	7056
sprema	7057
otvorenom	7058
birača	7059
obrazovanje	7060
natječaj	7061
infrastrukture	7062
ikada	7063
makedo	7064
85	7065
##gnosti	7066
nare	7067
##manu	7068
##torija	7069
doveo	7070
odbija	7071
nizu	7072
instru	7073
najprije	7074
##stero	7075
dodatne	7076
prošla	7077
##nković	7078
projektu	7079
nadzo	7080
spaša	7081
smatram	7082
ponaj	7083
troškova	7084
tjelesne	7085
640x427	7086
spektak	7087
1024x683	7088
1280x854	7089
73	7090
##iner	7091
##kovima	7092
sukladno	7093
sav	7094
rano	7095
raznim	7096
bura	7097
##fenzi	7098
stolje	7099
hajduku	7100
zagrebački	7101
ponuda	7102
dalmaciji	7103
##spekti	7104
serge	7105
oružje	7106
arhite	7107
59	7108
okup	7109
ulje	7110
##220	7111
##vača	7112
##tao	7113
zapri	7114
##nijeli	7115
kontine	7116
fon	7117
pitao	7118
takvu	7119
24sata	7120
pomaga	7121
utjecajem	7122
gospodarstvo	7123
financijski	7124
novinara	7125
partneri	7126
zadatak	7127
prihoda	7128
##scri	7129
tehnologija	7130
##nicom	7131
zaro	7132
proto	7133
vene	7134
##šenju	7135
boriti	7136
euroson	7137
slab	7138
obali	7139
zorana	7140
srpske	7141
izbornoj	7142
televi	7143
šibeniku	7144
štete	7145
potrebne	7146
sektoru	7147
kompanije	7148
upisao	7149
nazvao	7150
regula	7151
bomba	7152
djetinj	7153
##rića	7154
##strem	7155
ode	7156
prikuplja	7157
viru	7158
##žavanja	7159
razma	7160
gaze	7161
živ	7162
takvo	7163
glazbu	7164
uloga	7165
influe	7166
##financi	7167
lipnju	7168
zadovoljstvo	7169
##snika	7170
##l_	7171
##mara	7172
dane	7173
dogovor	7174
goo	7175
##ziv	7176
##pone	7177
malih	7178
papa	7179
umjeren	7180
održavanje	7181
vlastite	7182
određene	7183
uspore	7184
plus	7185
sindikata	7186
##tter	7187
##dp	7188
zare	7189
karo	7190
##metra	7191
##ćev	7192
libe	7193
stope	7194
pozicije	7195
vratar	7196
srednjo	7197
registri	7198
čekaju	7199
1000	7200
branitelja	7201
postupka	7202
zabrinuto	7203
vrući	7204
romanti	7205
kćer	7206
ano	7207
##ncima	7208
jeze	7209
komo	7210
##dia	7211
##loj	7212
odred	7213
toni	7214
repor	7215
nose	7216
boru	7217
##žim	7218
##ljo	7219
size	7220
glavi	7221
vjeroja	7222
##zirali	7223
njezino	7224
vučić	7225
slijede	7226
uzroko	7227
korisnici	7228
fokus	7229
recimo	7230
priori	7231
prvenstveno	7232
ukoliko	7233
77	7234
u0	7235
##rata	7236
seks	7237
dove	7238
barba	7239
ruje	7240
opće	7241
##_2723	7242
ministarstvu	7243
vidite	7244
kolegi	7245
skladi	7246
kapeta	7247
atmosferu	7248
muzeja	7249
polufinalu	7250
ostavku	7251
mra	7252
##elu	7253
##nički	7254
##vat	7255
nevi	7256
##ley	7257
vinko	7258
listu	7259
##gen	7260
##godišnje	7261
nikako	7262
održana	7263
tekst	7264
studenti	7265
sjevernom	7266
cijeloj	7267
imovine	7268
intervjuu	7269
agresi	7270
220x147	7271
340x227	7272
fru	7273
n1	7274
##tnije	7275
##ir	7276
suigra	7277
##dugo	7278
##stupan	7279
vježba	7280
lei	7281
postaju	7282
dragan	7283
ponovo	7284
dolaska	7285
zaključila	7286
potvrdila	7287
komentarima	7288
svibnju	7289
medalju	7290
ekstrem	7291
prosvjed	7292
uzeti	7293
profesor	7294
razoča	7295
zapovjednik	7296
1920x1080	7297
adi	7298
dv	7299
zve	7300
##rskom	7301
##lnici	7302
##29	7303
jedana	7304
post	7305
##vari	7306
david	7307
domo	7308
##menu	7309
rak	7310
##ljenog	7311
##čicu	7312
japa	7313
gar	7314
glave	7315
roka	7316
europa	7317
optere	7318
istog	7319
nogometu	7320
nastala	7321
ukrajinske	7322
porast	7323
vidjet	7324
središtu	7325
zakonu	7326
bijele	7327
transforma	7328
napredak	7329
skija	7330
sjećanja	7331
talijanski	7332
potpore	7333
ljestvici	7334
1280x16	7335
##814	7336
800	7337
dže	7338
##at	7339
##cro	7340
##{"	7341
kafi	7342
mog	7343
##šica	7344
granica	7345
akciju	7346
tajnik	7347
lokacija	7348
zaštiti	7349
splitski	7350
oboje	7351
sredinom	7352
neuspje	7353
andreja	7354
godišnjaka	7355
480x480	7356
480x61	7357
640x640	7358
640x814	7359
340x340	7360
340x432	7361
sektora	7362
rukometa	7363
tomašević	7364
220x280	7365
220x220	7366
1024x1024	7367
1024x1303	7368
1280x1280	7369
saudi	7370
##_1920	7371
size0	7372
1280x1628	7373
480x611	7374
eska	7375
kle	7376
ubio	7377
maja	7378
##stop	7379
##čana	7380
##sea	7381
dugi	7382
turne	7383
konzerva	7384
krite	7385
prijava	7386
proizvod	7387
nude	7388
italiji	7389
domovinski	7390
državama	7391
goriva	7392
medalja	7393
dresu	7394
turudić	7395
jedanae	7396
##lt	7397
##mz	7398
##lišta	7399
##telju	7400
##torica	7401
proče	7402
moji	7403
viši	7404
ispro	7405
rijeku	7406
počelo	7407
sreću	7408
srećom	7409
poručila	7410
čuti	7411
područjima	7412
##ških	7413
raspolaga	7414
šibenika	7415
okviru	7416
apart	7417
##tnosti	7418
##ngu	7419
##vrati	7420
##phi	7421
##ranom	7422
jelena	7423
##tacije	7424
##nema	7425
##kim	7426
##ziji	7427
njen	7428
##šteni	7429
onako	7430
pojavio	7431
jedinici	7432
slobode	7433
ulicama	7434
srpnju	7435
povećati	7436
studenoga	7437
250	7438
gradovima	7439
zlata	7440
sljedeći	7441
omogućuje	7442
zajednički	7443
bjelo	7444
vatreni	7445
profilu	7446
dužnost	7447
tužitelj	7448
obavješta	7449
egi	7450
ušli	7451
dopu	7452
doslovno	7453
nim	7454
licu	7455
##sona	7456
glavom	7457
službi	7458
državno	7459
naslo	7460
istoj	7461
dvoboj	7462
pogor	7463
slobodu	7464
snimka	7465
sadržaj	7466
##nikom	7467
nerije	7468
izosta	7469
##pix	7470
boli	7471
baviti	7472
euru	7473
title	7474
filo	7475
##ntan	7476
služba	7477
ostalog	7478
morala	7479
ideo	7480
##đivanje	7481
radionice	7482
navijačima	7483
neod	7484
ključni	7485
komentirala	7486
##wid	7487
školama	7488
demokrat	7489
odvjetnika	7490
dokaz	7491
ubojstva	7492
asistencija	7493
influence	7494
68	7495
ps	7496
skre	7497
##ak	7498
##dbi	7499
zago	7500
sufinanci	7501
##leta	7502
prepu	7503
revi	7504
##tuje	7505
mai	7506
jaz	7507
plane	7508
prijeti	7509
##štem	7510
num_	7511
mnogima	7512
kolovo	7513
ekipu	7514
odigrali	7515
direktora	7516
listopadu	7517
kampanju	7518
stadion	7519
spriječiti	7520
##dbe	7521
##knuti	7522
##veni	7523
##vnost	7524
europu	7525
izborni	7526
##vljene	7527
luku	7528
upora	7529
pobjedi	7530
arse	7531
priprem	7532
struje	7533
otok	7534
šoka	7535
unutarnjih	7536
liječnika	7537
slovenije	7538
savršeno	7539
sposobnost	7540
zrakoplov	7541
skrb	7542
meteoro	7543
ega	7544
ore	7545
##rote	7546
##ves	7547
domina	7548
sastoj	7549
vizu	7550
##šice	7551
stanu	7552
multi	7553
plana	7554
samopo	7555
ronal	7556
uzvra	7557
rimac	7558
jedinica	7559
priznanje	7560
zelenski	7561
očekivanja	7562
ponašanja	7563
definira	7564
fakulteta	7565
?"	7566
cvije	7567
imi	7568
kni	7569
##jma	7570
##tirao	7571
##tosti	7572
##database	7573
##zivanje	7574
inva	7575
silo	7576
usli	7577
zagrep	7578
slabo	7579
automat	7580
kreši	7581
trenutka	7582
trenucima	7583
pogotka	7584
subote	7585
dnevni	7586
utjecaja	7587
komunici	7588
dalmacija	7589
sudjelovanje	7590
uputio	7591
zamjenik	7592
izložbe	7593
prosincu	7594
harry	7595
1991	7596
izazvao	7597
cropix	7598
stadiona	7599
##mentima	7600
belgi	7601
##width	7602
aspe	7603
hor	7604
psa	7605
##nter	7606
##bne	7607
##dile	7608
dosto	7609
##goj	7610
privreme	7611
##ziran	7612
##zaciji	7613
##đenom	7614
podrav	7615
sviđa	7616
##trag	7617
dodajući	7618
martina	7619
napade	7620
prometnoj	7621
atleti	7622
nazivom	7623
ubrza	7624
naoru	7625
teritori	7626
##ed	7627
##rat	7628
jede	7629
##rirati	7630
zasigurno	7631
##loškog	7632
golu	7633
##ljenim	7634
##pija	7635
jame	7636
trenira	7637
siroma	7638
prave	7639
ruskog	7640
uklanja	7641
pjesama	7642
zagrebačkoj	7643
##šnjim	7644
pokušati	7645
hladno	7646
vašem	7647
podržava	7648
izdvoji	7649
uređaja	7650
eppo	7651
ist	7652
##šle	7653
##12	7654
popisu	7655
selo	7656
##lor	7657
ner	7658
prikupi	7659
teže	7660
micha	7661
općeni	7662
##vljenje	7663
vrijedan	7664
##žuju	7665
poznate	7666
vojni	7667
smješta	7668
lokalnih	7669
##mpati	7670
neugo	7671
ivota	7672
opreme	7673
najviša	7674
zagrija	7675
95	7676
okon	7677
umo	7678
pop	7679
##tenti	7680
korije	7681
odbor	7682
##nute	7683
mos	7684
dip	7685
predme	7686
dulje	7687
ostatak	7688
ovakav	7689
stotine	7690
šuma	7691
zlatko	7692
djevojke	7693
odlaska	7694
korištenja	7695
veseli	7696
hezbola	7697
eventual	7698
69	7699
78	7700
dvoj	7701
uveli	7702
##rcija	7703
##dnoj	7704
##nat	7705
##čenju	7706
##duje	7707
desni	7708
jedni	7709
znala	7710
play	7711
plavi	7712
odlukom	7713
krei	7714
ideje	7715
poručili	7716
##panj	7717
surad	7718
poteško	7719
organizatori	7720
podijelio	7721
fizički	7722
preuzeti	7723
umro	7724
et	7725
kvi	7726
snijeg	7727
zrak	7728
batu	7729
mjesti	7730
glasi	7731
objavu	7732
postavio	7733
##godišnja	7734
rezultatima	7735
gledatelja	7736
kemi	7737
knjiž	7738
predstavljaju	7739
nadamo	7740
bjelica	7741
oruža	7742
žao	7743
specijali	7744
polufinale	7745
angaž	7746
cor	7747
efe	7748
gvar	7749
##žnju	7750
##nosa	7751
dođu	7752
##lesu	7753
master	7754
##šeno	7755
otpad	7756
196	7757
sol	7758
njihovog	7759
nastavila	7760
ponudi	7761
kontrole	7762
kontrover	7763
supersport	7764
sadržaja	7765
daljnje	7766
troškove	7767
legendarni	7768
težak	7769
eto	7770
uve	7771
##šnog	7772
pobu	7773
zanema	7774
##tović	7775
##ruje	7776
##kinje	7777
pregle	7778
nogu	7779
##gić	7780
ovakve	7781
open	7782
zatvoru	7783
šut	7784
moderni	7785
tranzi	7786
predsjednikom	7787
izazove	7788
parlamentu	7789
željezni	7790
doprinos	7791
prijetnje	7792
omogućiti	7793
lansi	7794
potpredsjednik	7795
ludbre	7796
81	7797
##33	7798
##rajući	7799
naran	7800
donose	7801
izvori	7802
ton	7803
main	7804
nog	7805
boris	7806
najbli	7807
predstava	7808
razreda	7809
robo	7810
policiju	7811
cijelom	7812
lea	7813
sreće	7814
istragu	7815
drama	7816
promjenu	7817
procesa	7818
zaposlenika	7819
pacijenti	7820
sudionika	7821
karakte	7822
inu	7823
krva	7824
uzor	7825
##vcima	7826
##vane	7827
zakla	7828
dorh	7829
nez	7830
privremeno	7831
##čaju	7832
isc	7833
stol	7834
##ciona	7835
stižu	7836
##rtava	7837
milan	7838
vidjela	7839
emisija	7840
upravljao	7841
zadr	7842
turizam	7843
pobjednika	7844
aktualni	7845
grmljavi	7846
##istinu	7847
gvardio	7848
99	7849
eti	7850
opu	7851
ugra	7852
štraj	7853
##48	7854
sugovor	7855
progovo	7856
nom	7857
##šavaju	7858
osca	7859
tram	7860
žesto	7861
nasmija	7862
važne	7863
neočeki	7864
svakoj	7865
ostvarili	7866
travnju	7867
upoznati	7868
turista	7869
vlasnika	7870
konkurent	7871
vodstvom	7872
zavod	7873
postroj	7874
filozo	7875
tla	7876
vrt	7877
##ot	7878
popodne	7879
##redu	7880
prepre	7881
resur	7882
meksi	7883
najdra	7884
konstru	7885
junior	7886
2026	7887
situacijama	7888
osigurava	7889
vratila	7890
izgradnje	7891
direktorica	7892
vezano	7893
razgovarao	7894
doznajemo	7895
##_271947	7896
perišić	7897
standard	7898
nuklear	7899
croatia	7900
uslijed	7901
dh	7902
iv	7903
uv	7904
##au	7905
##šći	7906
##jsko	7907
##xa	7908
navra	7909
##malo	7910
##ding	7911
##nea	7912
proz	7913
najja	7914
stani	7915
ispada	7916
##button	7917
radić	7918
izravno	7919
potrebu	7920
kulturu	7921
iznosila	7922
potencijal	7923
utrka	7924
ravnateljica	7925
dijagnosti	7926
britanski	7927
vukovar	7928
reuters	7929
google	7930
istar	7931
sprje	7932
ute	7933
##kciji	7934
##čnici	7935
##ppe	7936
##lik	7937
##vita	7938
suci	7939
odvo	7940
##zisti	7941
##pova	7942
rečeno	7943
##dov	7944
jadro	7945
baka	7946
glavnom	7947
los	7948
kralj	7949
želju	7950
svojem	7951
radno	7952
##smom	7953
krumpi	7954
atp	7955
otišli	7956
odgovornosti	7957
izraelski	7958
izazovima	7959
novinare	7960
mijenjati	7961
materijala	7962
veljači	7963
rukomet	7964
dovodi	7965
stanovništva	7966
zaljublje	7967
općenito	7968
ška	7969
##,{"	7970
##jum	7971
##danje	7972
##cea	7973
nik	7974
##ntna	7975
kina	7976
suradnja	7977
stranci	7978
posebnu	7979
kampanji	7980
nasilje	7981
.),	7982
parkirali	7983
recept	7984
konkurenciji	7985
william	7986
"},{"	7987
ave	7988
enju	7989
klo	7990
photo	7991
##kru	7992
##pp	7993
##jaka	7994
##zivanja	7995
putni	7996
grama	7997
prste	7998
ham	7999
obraća	8000
prijavu	8001
spaja	8002
važnosti	8003
provode	8004
polako	8005
olimpijskih	8006
ustavnog	8007
prisustvo	8008
sjednici	8009
uzbud	8010
zvoni	8011
hz	8012
udio	8013
uistinu	8014
##šnih	8015
##pta	8016
##kih	8017
prezi	8018
paša	8019
obna	8020
liver	8021
tine	8022
mogući	8023
leđa	8024
studije	8025
radne	8026
upot	8027
svjetskih	8028
većini	8029
učinio	8030
reprezentativ	8031
suprugu	8032
francuskoj	8033
dalmacije	8034
skokova	8035
započela	8036
siječnju	8037
fokusi	8038
površine	8039
križevci	8040
klimat	8041
jakirović	8042
inozemstvu	8043
liverpo	8044
79	8045
nba	8046
smeta	8047
dopušte	8048
kari	8049
tay	8050
bosne	8051
najza	8052
static	8053
logo	8054
trebate	8055
šesto	8056
stil	8057
geno	8058
poslovne	8059
američkih	8060
smjer	8061
stvaranje	8062
zaposlenih	8063
utječe	8064
skrbi	8065
hercegovine	8066
ministrica	8067
es	8068
ekra	8069
skuplja	8070
ud	8071
##ad	8072
##lnica	8073
##plova	8074
##ting	8075
##teran	8076
kože	8077
propu	8078
matija	8079
tata	8080
nina	8081
današnje	8082
traga	8083
izaći	8084
politička	8085
zahvati	8086
poslovni	8087
svjetsko	8088
2013	8089
održat	8090
spekta	8091
podsjetio	8092
italija	8093
financijske	8094
izložba	8095
doživio	8096
industrije	8097
##kluzi	8098
umr	8099
fakultetu	8100
ljestvice	8101
nuklea	8102
koordina	8103
./	8104
opisu	8105
wo	8106
##žom	8107
##ralo	8108
##rona	8109
poje	8110
pomisli	8111
##vidu	8112
##canje	8113
##veno	8114
kale	8115
##njava	8116
češće	8117
##ntne	8118
##plici	8119
radnici	8120
dionica	8121
potreba	8122
kažem	8123
kekin	8124
potvrdili	8125
knjigu	8126
bijeli	8127
pomažu	8128
itemimage	8129
posebna	8130
izbjegli	8131
napominje	8132
rezolu	8133
700	8134
84	8135
sramo	8136
utim	8137
##snoj	8138
poha	8139
##riraju	8140
##vosti	8141
##dim	8142
##kat	8143
remi	8144
lik	8145
najno	8146
stavite	8147
svetog	8148
predje	8149
##djeti	8150
možeš	8151
trbu	8152
časo	8153
smanjuje	8154
člana	8155
2011	8156
osiguranja	8157
zaključuje	8158
vjeruju	8159
tražio	8160
uzeo	8161
tradicionalno	8162
teroristi	8163
uefa	8164
dvd	8165
dhmz	8166
##renju	8167
izvla	8168
primi	8169
malom	8170
niže	8171
##građa	8172
javio	8173
stara	8174
standar	8175
##sobno	8176
ženama	8177
čisto	8178
vjetro	8179
dodatni	8180
anketa	8181
čaro	8182
franjo	8183
zagrebačkog	8184
događanja	8185
vratili	8186
ponegdje	8187
hrvoje	8188
razina	8189
nadalje	8190
ustanova	8191
jeziku	8192
prekida	8193
objavljena	8194
dres	8195
strijel	8196
evaku	8197
ustvrdio	8198
poremeća	8199
kontekstu	8200
ab	8201
nk	8202
ya	8203
##rnom	8204
##nkom	8205
##nit	8206
jesti	8207
##res	8208
sunca	8209
##letje	8210
puti	8211
##ljuje	8212
duha	8213
ruskih	8214
dobrom	8215
potreban	8216
crkvi	8217
hidro	8218
pronašao	8219
pronašla	8220
mnogih	8221
navijače	8222
registar	8223
postići	8224
trgovi	8225
perspekti	8226
jugozapad	8227
živimo	8228
redatelj	8229
neizvje	8230
kapaciteta	8231
jadroli	8232
bdp	8233
eš	8234
jdatabase	8235
onim	8236
ofenzi	8237
đur	8238
##nche	8239
##ćevoj	8240
strp	8241
jabu	8242
pravom	8243
gabri	8244
dodaju	8245
nemate	8246
upravi	8247
radnih	8248
poslovanje	8249
filmova	8250
uvjeta	8251
izjava	8252
ključna	8253
predsjedniku	8254
otvoriti	8255
custo	8256
pacijenata	8257
zrakoplova	8258
lovre	8259
zaustaviti	8260
navrata	8261
bbc	8262
išao	8263
sch	8264
usu	8265
##mske	8266
##znim	8267
##redo	8268
selak	8269
##vene	8270
##ming	8271
najnovi	8272
startu	8273
bari	8274
berna	8275
peter	8276
kongre	8277
dijelovima	8278
hitno	8279
spava	8280
reprezentaciji	8281
lokalnim	8282
novosti	8283
procedu	8284
prosjeku	8285
kamere	8286
mladosti	8287
naselja	8288
hg	8289
ubla	8290
žrtava	8291
##my	8292
##blo	8293
##im	8294
##lici	8295
niza	8296
obnove	8297
inzisti	8298
sig	8299
bara	8300
peto	8301
ostaviti	8302
crna	8303
obale	8304
otkriti	8305
američka	8306
glazbene	8307
kazneni	8308
roditelj	8309
nezako	8310
operacija	8311
stručnjaka	8312
završetka	8313
gubitak	8314
restorana	8315
stvoriti	8316
talenti	8317
rezervi	8318
vukovara	8319
onog	8320
sor	8321
zvje	8322
##tz	8323
##vka	8324
##nis	8325
##laska	8326
##tanja	8327
##vodi	8328
prim	8329
##biji	8330
##dović	8331
prat	8332
autenti	8333
živote	8334
političkih	8335
završava	8336
većine	8337
splitskog	8338
pokušavaju	8339
##mparam	8340
sportskih	8341
izgublje	8342
izvješću	8343
proizvođača	8344
pojasnio	8345
customparam	8346
customparams_	8347
are	8348
ilu	8349
usa	8350
##jmo	8351
##jnog	8352
##sve	8353
##lka	8354
##krati	8355
##18	8356
##vanjima	8357
koe	8358
netan	8359
izva	8360
motiva	8361
##zite	8362
##đenu	8363
kaos	8364
bunde	8365
vrtić	8366
opse	8367
krip	8368
pozitivan	8369
takvi	8370
zračne	8371
povećava	8372
obiteljske	8373
nogometna	8374
nogometaša	8375
nestabi	8376
kupnju	8377
trajati	8378
šansu	8379
prilagod	8380
zaboraviti	8381
zadržati	8382
termi	8383
##ysq	8384
vatrogasaca	8385
reporter	8386
##žo	8387
našli	8388
kave	8389
nena	8390
mirno	8391
javila	8392
javnim	8393
valj	8394
intim	8395
radnog	8396
##plasi	8397
pozitivno	8398
federa	8399
održao	8400
govorili	8401
društvenoj	8402
nastupiti	8403
naglasila	8404
krajnje	8405
skloni	8406
mislio	8407
iznenađenje	8408
izvješće	8409
upoznali	8410
kampanja	8411
izazvala	8412
##yahu	8413
konzuma	8414
antonio	8415
zločina	8416
zaredom	8417
tinejd	8418
twi	8419
##tsa	8420
##ele	8421
##splay	8422
##xel	8423
poro	8424
##laciju	8425
##dimo	8426
priu	8427
prire	8428
obljet	8429
##žavanje	8430
razvije	8431
deba	8432
pile	8433
dubi	8434
znanje	8435
legi	8436
horva	8437
sjeda	8438
tajna	8439
potresa	8440
članice	8441
ključnih	8442
nezabora	8443
izdanju	8444
korisnicima	8445
oznaka	8446
hrvatskoga	8447
spominje	8448
pretpostavlja	8449
sporazum	8450
dalmatinske	8451
contain	8452
netanyahu	8453
svla	8454
tj	8455
##rsku	8456
##es	8457
##zlo	8458
##rek	8459
##vin	8460
done	8461
sugla	8462
predo	8463
pregovara	8464
##bala	8465
meso	8466
kuli	8467
otpa	8468
antu	8469
državu	8470
prvoliga	8471
sudjelova	8472
upozoravaju	8473
posjetitelji	8474
infrastrukturu	8475
prikazuje	8476
praktički	8477
policajci	8478
72	8479
uro	8480
##42	8481
##žnoj	8482
##racija	8483
##remo	8484
zapre	8485
##gović	8486
##povi	8487
reso	8488
milje	8489
pan	8490
##šem	8491
osloba	8492
druk	8493
planove	8494
##har	8495
rijetki	8496
krene	8497
kreću	8498
trenutke	8499
pjesmom	8500
čuva	8501
govorimo	8502
osigurao	8503
karlova	8504
odakle	8505
kaznena	8506
kakvo	8507
kontra	8508
vjerujemo	8509
##ily	8510
zastupnici	8511
generacija	8512
ustanove	8513
maksimir	8514
naziv	8515
##loških	8516
izrazio	8517
upit	8518
visokog	8519
ciljeve	8520
york	8521
zabrinutost	8522
glo	8523
##znih	8524
##ws	8525
##lište	8526
zadnja	8527
suca	8528
##njenim	8529
masa	8530
prlja	8531
##hou	8532
mup	8533
##ficije	8534
fol	8535
srcu	8536
lucija	8537
trg	8538
nastavi	8539
kvaliteta	8540
regija	8541
osjećam	8542
nosila	8543
lopta	8544
rizika	8545
otvaranje	8546
postupku	8547
ožujku	8548
##burgu	8549
inteligencije	8550
tragedija	8551
penava	8552
##drije	8553
##kne	8554
##mon	8555
##šeni	8556
##ston	8557
##pise	8558
livaja	8559
najni	8560
stavio	8561
grand	8562
##ranj	8563
duh	8564
gala	8565
plaću	8566
let	8567
projektima	8568
vozio	8569
brine	8570
sliku	8571
omoguća	8572
kolegama	8573
radove	8574
otvorila	8575
stranaka	8576
chef	8577
prihvatiti	8578
sjeverozapad	8579
ultra	8580
!",	8581
ome	8582
pd	8583
ušla	8584
##nn	8585
##plu	8586
##lian	8587
##tati	8588
zape	8589
seriju	8590
izlaz	8591
primio	8592
točnije	8593
podne	8594
brojem	8595
liječenje	8596
dobrodo	8597
parku	8598
onome	8599
čuo	8600
spasio	8601
lokacije	8602
mladić	8603
mladima	8604
izgubi	8605
upozorenja	8606
odličan	8607
navela	8608
lopte	8609
hotelu	8610
platforma	8611
napredo	8612
prehra	8613
albuma	8614
ciljeva	8615
lokomotive	8616
severina	8617
valjda	8618
ekuje	8619
ice	8620
##_id	8621
##znom	8622
##rale	8623
##taciju	8624
prekri	8625
trag	8626
ženu	8627
spomen	8628
brodu	8629
međusob	8630
##sniji	8631
##štinu	8632
istodobno	8633
##ell	8634
gene	8635
učinak	8636
novak	8637
sportskog	8638
naveli	8639
odigrati	8640
iskori	8641
miješa	8642
prosječna	8643
proračun	8644
##reated	8645
derbiju	8646
relativno	8647
valenti	8648
era	8649
ukaza	8650
##46	8651
##znog	8652
##tilo	8653
##tijeva	8654
daily	8655
promovi	8656
gospi	8657
malim	8658
##čin	8659
paki	8660
##duše	8661
svoga	8662
tuma	8663
glavne	8664
kralja	8665
dodatnih	8666
kristi	8667
##_269	8668
svojevr	8669
ribe	8670
dijele	8671
gradskom	8672
koncertu	8673
sredstvima	8674
najam	8675
vratima	8676
nacionalnih	8677
oporavak	8678
elektra	8679
aktivnostima	8680
predstavnik	8681
sastavu	8682
djelatnika	8683
posjetitelje	8684
##qui	8685
električne	8686
doznaje	8687
sloveniji	8688
reagirao	8689
ulaznica	8690
treninga	8691
nastoja	8692
donalda	8693
najljepši	8694
##_271190	8695
##_271195	8696
dostojan	8697
wol	8698
##int	8699
naji	8700
povolj	8701
supe	8702
##leva	8703
##king	8704
rasko	8705
prebaci	8706
vio	8707
##dor	8708
##ženih	8709
osmije	8710
stavo	8711
bave	8712
prijela	8713
lijepa	8714
zahtijeva	8715
crnoj	8716
snažno	8717
lokalno	8718
pokušaja	8719
natjecanjima	8720
našla	8721
utakmicama	8722
napadača	8723
osuđen	8724
zdravstvenih	8725
predstaviti	8726
bruno	8727
dijagno	8728
socijalne	8729
okoliš	8730
prihvaća	8731
yorku	8732
maksimalno	8733
direktno	8734
kombinira	8735
raspudić	8736
91	8737
apo	8738
cla	8739
dc	8740
oj	8741
snije	8742
##gs	8743
##ranog	8744
kosu	8745
nepra	8746
izgla	8747
miru	8748
jaka	8749
jandro	8750
gara	8751
austrija	8752
vješta	8753
kroni	8754
komercija	8755
##sion	8756
kandidi	8757
informaciju	8758
emocije	8759
nikoga	8760
djelovanja	8761
problemati	8762
sastanka	8763
sjajan	8764
zelene	8765
bjelova	8766
utrci	8767
ravnatelja	8768
međunarodni	8769
brzine	8770
##razumije	8771
komisija	8772
poboljšati	8773
javljaju	8774
dobrih	8775
količine	8776
grija	8777
##rča	8778
##44	8779
napušta	8780
##vost	8781
toki	8782
tabli	8783
vagi	8784
##jednom	8785
baye	8786
debi	8787
podno	8788
objava	8789
cijenama	8790
radilo	8791
gradski	8792
najbolju	8793
umjetne	8794
brže	8795
integra	8796
šalje	8797
održan	8798
izjavu	8799
završili	8800
zabavlja	8801
kvar	8802
izvijestili	8803
individu	8804
subven	8805
dobrim	8806
invalidite	8807
usporedbi	8808
posljednjem	8809
%,	8810
98	8811
opra	8812
##ara	8813
##34	8814
pog	8815
##nau	8816
doduše	8817
kamo	8818
nera	8819
##mene	8820
prevlada	8821
##ganje	8822
vili	8823
mesa	8824
lisi	8825
voća	8826
final	8827
igrala	8828
stranica	8829
ostaju	8830
odnosima	8831
dražen	8832
americi	8833
lokaciji	8834
koncer	8835
osigurali	8836
pokušali	8837
kandidatkinja	8838
vodeći	8839
odgovorila	8840
roditelje	8841
španjolskoj	8842
konačnici	8843
osobni	8844
spremna	8845
bruxel	8846
zadarske	8847
varte	8848
visokim	8849
pravde	8850
dužnosnici	8851
teritorija	8852
preveze	8853
avaju	8854
##klom	8855
##ption	8856
##nijom	8857
pogla	8858
##tari	8859
##tetom	8860
##ljenom	8861
tea	8862
jači	8863
javnih	8864
bakte	8865
duže	8866
stranice	8867
impresi	8868
brojke	8869
politici	8870
jedinice	8871
ponosni	8872
unaprijed	8873
sudjeluju	8874
2009	8875
ugodno	8876
donosimo	8877
sjeverno	8878
poginuli	8879
posjetitelja	8880
branko	8881
##ries	8882
teškim	8883
invaliditetom	8884
ada	8885
rs	8886
##rinu	8887
##viji	8888
dari	8889
sunce	8890
proveli	8891
malu	8892
##pisima	8893
boravak	8894
osnovi	8895
pušta	8896
sveće	8897
bespo	8898
glava	8899
##štava	8900
sportu	8901
##čuna	8902
brata	8903
mjesečno	8904
snazi	8905
zagrebačka	8906
uvjeren	8907
kolod	8908
zakonom	8909
izvršni	8910
domaćina	8911
nedostatak	8912
objavljeno	8913
investicije	8914
oblik	8915
shvatio	8916
izrazito	8917
naknade	8918
zamijeniti	8919
odmora	8920
namirnice	8921
select	8922
..	8923
cvje	8924
##znice	8925
naprijed	8926
kap	8927
##gani	8928
mata	8929
mid	8930
puni	8931
najo	8932
depo	8933
##hol	8934
kupio	8935
krize	8936
stoje	8937
upravnog	8938
guar	8939
aktivnost	8940
provoditi	8941
snimku	8942
potencijalno	8943
konferencije	8944
obveza	8945
itemvideo	8946
ljudska	8947
subca	8948
srušio	8949
destinacija	8950
container	8951
uglji	8952
aleksandar	8953
administra	8954
istri	8955
snje	8956
##znica	8957
##kos	8958
##torima	8959
##daka	8960
##vera	8961
sugrađa	8962
bilja	8963
##kujem	8964
##stica	8965
##mić	8966
##čajan	8967
##đenjem	8968
##final	8969
src	8970
##štini	8971
ideju	8972
proizvodnja	8973
2010	8974
pripremiti	8975
objekata	8976
potvrđuje	8977
nacionalni	8978
supruge	8979
poslali	8980
tražili	8981
najboljeg	8982
povratka	8983
elega	8984
partnerima	8985
sjednice	8986
scenarij	8987
križeva	8988
vodovo	8989
lagano	8990
kontinuirano	8991
međunarodne	8992
isproba	8993
kolovozu	8994
priušti	8995
':	8996
mü	8997
opušte	8998
ugled	8999
##mble	9000
##kl	9001
##nia	9002
danijela	9003
dopusti	9004
suho	9005
masla	9006
##ševi	9007
##ćeve	9008
##ntni	9009
višestru	9010
spoji	9011
##šteno	9012
cilju	9013
stilu	9014
ponosan	9015
takti	9016
njemačku	9017
interna	9018
izjavi	9019
tisuću	9020
nastupio	9021
teret	9022
izgledati	9023
uključuju	9024
##ntent	9025
ozlijeđen	9026
sjeverne	9027
provjeriti	9028
činjenice	9029
sjeveru	9030
poginuo	9031
djelatnici	9032
kontakt	9033
sedmo	9034
donald	9035
molit	9036
youtu	9037
neprijatelj	9038
pretežno	9039
##pularni	9040
karakteristi	9041
82	9042
ojača	9043
swi	9044
##rcu	9045
##vnice	9046
##žja	9047
zamr	9048
nei	9049
##turi	9050
nos	9051
##gura	9052
puna	9053
imalo	9054
bea	9055
petković	9056
pišto	9057
dodavši	9058
autora	9059
horo	9060
europsku	9061
lijepe	9062
poveo	9063
prijaviti	9064
napao	9065
##lniku	9066
smjera	9067
oduvijek	9068
glazbenik	9069
matemati	9070
telegra	9071
opasno	9072
univer	9073
sastanku	9074
zapadne	9075
iskoristio	9076
izdvaja	9077
mišljenja	9078
favorit	9079
korupcije	9080
prehrambe	9081
hrani	9082
uvr	9083
đa	9084
##rgi	9085
nadu	9086
##mera	9087
toplo	9088
##demo	9089
gorice	9090
maru	9091
##zanja	9092
##sezo	9093
bošnja	9094
distri	9095
bud	9096
budite	9097
trau	9098
##strana	9099
akciji	9100
uspjeti	9101
##vilima	9102
teksto	9103
tekstu	9104
pretvara	9105
odgovoriti	9106
republici	9107
promijenio	9108
jugoisto	9109
prepoznati	9110
objavljen	9111
međunarodnog	9112
obveze	9113
napustiti	9114
kreativno	9115
komada	9116
fakultet	9117
studiju	9118
showu	9119
pucao	9120
samopouzda	9121
92	9122
usi	9123
ušte	9124
##52	9125
kose	9126
suspe	9127
nevrijeme	9128
##len	9129
provela	9130
trećeg	9131
##ljko	9132
njena	9133
kratki	9134
jug	9135
naslije	9136
izaziva	9137
postalo	9138
sretna	9139
drže	9140
hero	9141
održavanja	9142
con	9143
pokrenuo	9144
skupinu	9145
vlastitu	9146
podatak	9147
ključne	9148
djelomi	9149
detalja	9150
skupo	9151
dozvole	9152
troškovi	9153
que	9154
datum	9155
stipendi	9156
este	9157
etka	9158
iko	9159
phi	9160
shi	9161
##_the	9162
pouzda	9163
##varati	9164
bizni	9165
prelazi	9166
mono	9167
gost	9168
refor	9169
nosio	9170
##zana	9171
##čavaju	9172
nimalo	9173
metro	9174
varija	9175
puli	9176
##ljivih	9177
razred	9178
dječaka	9179
spon	9180
brodo	9181
šefa	9182
gradska	9183
započi	9184
članovima	9185
svjetska	9186
trud	9187
najavila	9188
visoka	9189
povećanja	9190
odavno	9191
studenom	9192
ostvarila	9193
smisla	9194
odlična	9195
komentar	9196
potrazi	9197
investicija	9198
saborski	9199
odgovaraju	9200
znanstvenici	9201
prilagodi	9202
žrtva	9203
prekršaj	9204
županijskog	9205
zadovolji	9206
diplomat	9207
simbol	9208
flori	9209
ukazuje	9210
najpopularni	9211
##image	9212
iscrp	9213
koeficije	9214
art	9215
otu	9216
štiti	9217
##vko	9218
##lia	9219
poprili	9220
##kore	9221
zagor	9222
##tonu	9223
set	9224
##ljenu	9225
ref	9226
##piju	9227
mega	9228
bolju	9229
##žile	9230
delega	9231
ljublja	9232
jutra	9233
poslovnih	9234
nužno	9235
lokalni	9236
ivanu	9237
blaga	9238
sredine	9239
mateo	9240
ključno	9241
bijelu	9242
optužbe	9243
smiju	9244
bolnica	9245
izgradnja	9246
poduzeća	9247
očekujemo	9248
samim	9249
vlasnici	9250
mirovina	9251
vašeg	9252
sandra	9253
stanovnici	9254
vruće	9255
životinje	9256
pripadnici	9257
platforme	9258
rujevici	9259
mjestimice	9260
;&	9261
orije	9262
umije	9263
##tta	9264
##sca	9265
##lski	9266
##rilo	9267
##govi	9268
##stili	9269
##bacu	9270
##čera	9271
pal	9272
melo	9273
voyo	9274
predra	9275
##rijet	9276
značajan	9277
dječak	9278
spoj	9279
držati	9280
protivnika	9281
##cijska	9282
##cijskom	9283
zahtije	9284
potrebi	9285
gledao	9286
##škim	9287
posjet	9288
sudjeluje	9289
odradio	9290
šok	9291
razum	9292
novinari	9293
izazvati	9294
##berg	9295
procjenjuje	9296
preporučuje	9297
londonu	9298
magistra	9299
psihija	9300
nemoguće	9301
83	9302
ed	9303
tvo	9304
##49	9305
##_o	9306
zavje	9307
dovrše	9308
nenad	9309
princ	9310
mosk	9311
mac	9312
pasa	9313
baštine	9314
##nijem	9315
tuđ	9316
##rtmu	9317
prijelaz	9318
trebale	9319
slavili	9320
odlučiti	9321
povezuje	9322
projektila	9323
slučaja	9324
##đivanja	9325
gledali	9326
zdravstvo	9327
karton	9328
prometnih	9329
2008	9330
poslati	9331
pružiti	9332
izdanja	9333
ozlijeđenih	9334
upoznao	9335
prosjeka	9336
utrku	9337
medicine	9338
industrija	9339
pozornici	9340
internetu	9341
svladao	9342
potaknuti	9343
okrivlje	9344
spektakl	9345
%.	9346
shvaća	9347
tjedno	9348
ugleda	9349
##ine	9350
##zmom	9351
##novu	9352
##mar	9353
##mail	9354
zaje	9355
##kalo	9356
##loška	9357
dortmu	9358
rake	9359
premje	9360
pali	9361
pune	9362
nijem	9363
vještine	9364
cipe	9365
hol	9366
##godišnjeg	9367
videa	9368
integri	9369
her	9370
prostorima	9371
glazba	9372
zone	9373
pretr	9374
istaknuli	9375
slobodan	9376
promjenji	9377
priznati	9378
vozači	9379
demograf	9380
ozbiljne	9381
smijeh	9382
preminula	9383
muzej	9384
simboli	9385
industriji	9386
adria	9387
crijeva	9388
fondova	9389
ilo	9390
oi	9391
uva	9392
ubacio	9393
##zdi	9394
##jete	9395
##ničke	9396
dovolj	9397
kavu	9398
saču	9399
tebe	9400
##stoje	9401
nico	9402
##pila	9403
##ćenih	9404
jasan	9405
##šavanje	9406
fir	9407
jura	9408
audi	9409
tajne	9410
sigurna	9411
zajednici	9412
hibri	9413
dugogodišnji	9414
radionica	9415
osigurala	9416
glazbeni	9417
poslala	9418
napisali	9419
scenu	9420
privatni	9421
medicinske	9422
najvećim	9423
visini	9424
pohvalio	9425
zahvalio	9426
mobitel	9427
najuspje	9428
pravosuđa	9429
đoković	9430
uzrokovati	9431
##tnik	9432
##war	9433
dario	9434
prebi	9435
##žih	9436
vol	9437
inc	9438
##šite	9439
baj	9440
dugu	9441
roman	9442
njime	9443
radnje	9444
poručuje	9445
ljep	9446
reala	9447
programe	9448
mladim	9449
službene	9450
pokrenula	9451
muškarce	9452
inflacije	9453
sudjelovala	9454
turistička	9455
sportaši	9456
snimanja	9457
nastavljaju	9458
dozvola	9459
izmjene	9460
identitet	9461
madrida	9462
darko	9463
atenta	9464
potiče	9465
naoruža	9466
taylor	9467
by	9468
ive	9469
omje	9470
ogro	9471
use	9472
žal	9473
##ić	9474
##690	9475
##tijih	9476
##ninu	9477
zavi	9478
danu	9479
kalo	9480
nebo	9481
##posle	9482
reper	9483
test	9484
##skop	9485
liko	9486
tret	9487
tren	9488
svejedno	9489
simpati	9490
bak	9491
predmeta	9492
poskup	9493
benda	9494
znaš	9495
gallery	9496
glavnih	9497
vjetra	9498
story	9499
izboru	9500
##ventu	9501
postaviti	9502
crkva	9503
raspisa	9504
registra	9505
zauvijek	9506
zauzima	9507
predstave	9508
stjepan	9509
etvrtak	9510
periodu	9511
četvrtfinale	9512
izabran	9513
pogledu	9514
raspolaganju	9515
genoci	9516
ogroman	9517
blue	9518
ht	9519
plin	9520
##tanje	9521
mon	9522
morna	9523
javna	9524
sinj	9525
razmisli	9526
pija	9527
pismo	9528
koncu	9529
zbor	9530
trebati	9531
kirur	9532
##krea	9533
nekome	9534
gledatelji	9535
2006	9536
ozlijedio	9537
zapadu	9538
rasprava	9539
restoran	9540
poklon	9541
ravnote	9542
kriminalističko	9543
princeza	9544
prioritet	9545
dviju	9546
enih	9547
ky	9548
wor	9549
##žnosti	9550
pou	9551
##meni	9552
torci	9553
manja	9554
mil	9555
miši	9556
njegu	9557
bazi	9558
južno	9559
služi	9560
slave	9561
svjestan	9562
izraelu	9563
poznatog	9564
slučajno	9565
krv	9566
sredini	9567
izgubiti	9568
karijera	9569
ponedjeljka	9570
posebnim	9571
srbiju	9572
brzinu	9573
barcelona	9574
najviši	9575
sadrži	9576
logisti	9577
obnovu	9578
pandemije	9579
menadže	9580
distribu	9581
amo	9582
ant	9583
slje	9584
skra	9585
##rizo	9586
zastra	9587
##loškom	9588
sudeći	9589
gora	9590
puc	9591
eur	9592
podrijet	9593
rusiju	9594
bulj	9595
##tnicu	9596
izašli	9597
sou	9598
dijelove	9599
političkog	9600
argu	9601
kulturne	9602
priznaje	9603
španjolski	9604
##sandra	9605
plaćanja	9606
komentirati	9607
stvaraju	9608
news	9609
poginulo	9610
poljoprivrede	9611
prijetnja	9612
opisao	9613
hamasa	9614
tambu	9615
čišćenje	9616
nerijetko	9617
tinejdže	9618
najuspješ	9619
a1	9620
cm	9621
dj	9622
eta	9623
th	9624
##tlja	9625
##dle	9626
##zra	9627
nade	9628
namet	9629
kance	9630
nespo	9631
prešao	9632
prikup	9633
imale	9634
##jednače	9635
najvje	9636
##giju	9637
sini	9638
gađa	9639
rodila	9640
raskri	9641
promjenama	9642
obiteljima	9643
ponuditi	9644
izraelske	9645
mislite	9646
zaustavlja	9647
droge	9648
legendar	9649
liječnik	9650
ljubim	9651
skupštine	9652
večernji	9653
carlo	9654
berlinu	9655
naobla	9656
incidenta	9657
okolnostima	9658
lokomotiva	9659
bilježi	9660
zaroblje	9661
pdv	9662
):	9663
h_271	9664
ivanja	9665
k_271	9666
mba	9667
o_271	9668
opušta	9669
šti	9670
pope	9671
##ricu	9672
zar	9673
zali	9674
##kan	9675
modu	9676
##zivati	9677
releva	9678
##čevi	9679
##set	9680
vašu	9681
bene	9682
ruska	9683
loša	9684
juga	9685
joško	9686
vrstu	9687
mladen	9688
pozivaju	9689
istim	9690
vodili	9691
zdravlju	9692
najavljuje	9693
automobilom	9694
podupi	9695
vladaju	9696
pp_271	9697
pjevač	9698
djevojčica	9699
##logija	9700
bruto	9701
brenda	9702
uvođenje	9703
mađarska	9704
rasprave	9705
konzumi	9706
skrom	9707
tiktoku	9708
jeseni	9709
suvereni	9710
##_26996	9711
ac	9712
umu	9713
##šnim	9714
##jnim	9715
##22	9716
##wn	9717
##jala	9718
dale	9719
mojoj	9720
tole	9721
##šene	9722
##čavanje	9723
bogu	9724
jaku	9725
start	9726
stakle	9727
svemir	9728
kule	9729
pix	9730
kratkom	9731
##hati	9732
opcije	9733
državnih	9734
nekoj	9735
domaćem	9736
slučajevima	9737
spada	9738
pokušaju	9739
priznanja	9740
trgovina	9741
dnevna	9742
djelovanje	9743
osobne	9744
izazova	9745
vezane	9746
bruta	9747
premium	9748
donijeli	9749
prekid	9750
provjere	9751
podržati	9752
sportaša	9753
kolum	9754
popularni	9755
sudionici	9756
identifici	9757
televiziji	9758
starog	9759
dominira	9760
spominja	9761
dizajn	9762
crnogor	9763
adekva	9764
uzastop	9765
youtube	9766
dla	9767
franje	9768
ivi	9769
##pzi	9770
zale	9771
doho	9772
odšte	9773
samu	9774
##politi	9775
pasti	9776
##čare	9777
##pisom	9778
metra	9779
##zori	9780
granicu	9781
tipa	9782
duži	9783
juna	9784
strahu	9785
međusobno	9786
sobe	9787
dvaput	9788
idem	9789
škot	9790
osjetlji	9791
ivani	9792
imenom	9793
grbin	9794
otvoreni	9795
instituta	9796
objasniti	9797
west	9798
doživjela	9799
umjetnika	9800
sektor	9801
koalicije	9802
gužve	9803
samoupra	9804
centimetara	9805
onu	9806
uniji	9807
##lilo	9808
suđenje	9809
reka	9810
pane	9811
##sel	9812
##berne	9813
divlja	9814
prijenos	9815
han	9816
svježe	9817
##cijskim	9818
svijesti	9819
najveću	9820
automobilu	9821
neutra	9822
eliza	9823
funkciju	9824
upoznala	9825
prirodi	9826
modrića	9827
svjedoči	9828
vatrenih	9829
činjenicu	9830
alkohol	9831
inicijativu	9832
visokih	9833
potpora	9834
otkaz	9835
transparent	9836
leipzi	9837
emu	9838
fla	9839
##nciji	9840
##kvu	9841
##ira	9842
##prva	9843
##xi	9844
koka	9845
##tore	9846
danije	9847
dovr	9848
dostupan	9849
bisku	9850
sate	9851
primili	9852
moju	9853
govora	9854
miche	9855
##size	9856
##sell	9857
imaš	9858
von	9859
inženje	9860
dize	9861
stanice	9862
dekla	9863
podrazumije	9864
vrijeđa	9865
dobrog	9866
prijateljica	9867
##sjeda	9868
potres	9869
poručuju	9870
istinu	9871
drve	9872
članove	9873
##promi	9874
zoni	9875
gospodin	9876
kaznenih	9877
najboljim	9878
okruženju	9879
suočava	9880
shvatiti	9881
zvuk	9882
završnici	9883
kvalifikacija	9884
recep	9885
daniel	9886
itd	9887
ocijenio	9888
sergej	9889
aso	9890
##11	9891
##nine	9892
##lera	9893
biza	9894
##stalom	9895
rasti	9896
prezenta	9897
toli	9898
##pati	9899
##ček	9900
##zaka	9901
category	9902
##želj	9903
staze	9904
pića	9905
pisao	9906
lana	9907
##cijsku	9908
gradskoj	9909
njezini	9910
američkim	9911
full	9912
osjećaju	9913
odrasta	9914
odrasli	9915
nikome	9916
izgledalo	9917
poljske	9918
ivotu	9919
oprema	9920
tomislava	9921
talent	9922
svrhu	9923
autocesti	9924
salz	9925
desetljećima	9926
pozornicu	9927
mozga	9928
neslužbeno	9929
.-	9930
aku	9931
sra	9932
utor	9933
user	9934
##sco	9935
zači	9936
dama	9937
salo	9938
##pana	9939
mela	9940
bad	9941
duge	9942
##height	9943
kini	9944
lega	9945
faze	9946
rit	9947
svjetla	9948
buduće	9949
pogodaka	9950
##colum	9951
sloboda	9952
tereta	9953
poluvremena	9954
nikolina	9955
sdss	9956
izvješća	9957
korisnik	9958
željeli	9959
engleski	9960
ovakvim	9961
klubovi	9962
zanimljiv	9963
jugoslavije	9964
##naest	9965
ovjek	9966
itemrelated	9967
george	9968
?!	9969
ivanje	9970
tvari	9971
zbu	9972
##uro	9973
##ffe	9974
jesen	9975
##renti	9976
senior	9977
##cao	9978
##ruju	9979
##media	9980
pristi	9981
##stila	9982
##bac	9983
miris	9984
mel	9985
bosi	9986
graditi	9987
del	9988
dečki	9989
jor	9990
##sova	9991
muzi	9992
ovogodišnji	9993
lou	9994
svašta	9995
kiberne	9996
195	9997
cibo	9998
horizo	9999
##jućih	10000
##ndić	10001
njezinom	10002
petri	10003
amerike	10004
čudo	10005
##produ	10006
##comments	10007
blaže	10008
koristio	10009
oboga	10010
temeljem	10011
uostalom	10012
sljedećih	10013
vrhunac	10014
podijeliti	10015
kritike	10016
##desetih	10017
natječaja	10018
okus	10019
posljednjeg	10020
četvor	10021
reagirati	10022
izvedbe	10023
priopćila	10024
šećera	10025
sarajevu	10026
vizual	10027
oslobađa	10028
93	10029
oži	10030
ubija	10031
##ngi	10032
##gnuo	10033
##list	10034
##vajte	10035
##ten	10036
##teljem	10037
zaprije	10038
dob	10039
kal	10040
mak	10041
##sice	10042
patri	10043
##grani	10044
boj	10045
boravka	10046
puk	10047
treću	10048
##sov	10049
igrat	10050
straha	10051
##tniji	10052
pomogao	10053
stiglo	10054
političku	10055
pripremu	10056
službeni	10057
grupi	10058
pokrenuti	10059
obiteljski	10060
budem	10061
atla	10062
neuro	10063
pozvala	10064
zlou	10065
ozbiljan	10066
rekor	10067
tehnički	10068
kovačić	10069
suprotno	10070
pripadnika	10071
austriji	10072
dominik	10073
zagr	10074
gostuju	10075
pokraj	10076
beroš	10077
bayern	10078
turudića	10079
gvardiol	10080
folklo	10081
elizabe	10082
kiberneti	10083
astro	10084
alost	10085
elje	10086
elim	10087
##šoj	10088
##mno	10089
pok	10090
##rici	10091
odjednom	10092
izu	10093
proko	10094
##miji	10095
mato	10096
najdu	10097
bartu	10098
podnijeti	10099
sobi	10100
marce	10101
pitaju	10102
parka	10103
obrazlo	10104
napadi	10105
##tional	10106
voziti	10107
cou	10108
0000	10109
studenata	10110
kulturno	10111
mandatu	10112
osobnih	10113
privatnom	10114
razumje	10115
prepoznatlji	10116
glasati	10117
kamera	10118
oglasila	10119
##burga	10120
dubrovački	10121
korču	10122
proglašen	10123
dostupne	10124
umirovljenika	10125
količina	10126
kretanja	10127
olakša	10128
index	10129
neretvan	10130
?'	10131
anima	10132
eo	10133
up	10134
ždrije	10135
##scima	10136
##bran	10137
##item	10138
##39	10139
##60	10140
##yu	10141
##nimo	10142
jenni	10143
napro	10144
##lirati	10145
por	10146
pošti	10147
zapada	10148
##dine	10149
mou	10150
##gare	10151
rekrea	10152
##čilo	10153
gradom	10154
podnese	10155
uzvrati	10156
konven	10157
radite	10158
sofi	10159
luk	10160
trča	10161
lijepi	10162
brojna	10163
radnike	10164
uspješan	10165
nadbi	10166
vodila	10167
##vedena	10168
završilo	10169
majku	10170
nezaposle	10171
zgradi	10172
hlad	10173
snimanje	10174
dogovorili	10175
mladog	10176
govoreći	10177
pohvaliti	10178
zahvaliti	10179
hamas	10180
aplikacije	10181
anušić	10182
tramva	10183
svlačio	10184
97	10185
ip	10186
išli	10187
##šnu	10188
##dr	10189
##mw	10190
##cr	10191
##cc	10192
##nošću	10193
##dinu	10194
selek	10195
##logom	10196
kasno	10197
preze	10198
##njavaju	10199
virtu	10200
štoviše	10201
osla	10202
ospo	10203
punom	10204
##žilo	10205
druženje	10206
mur	10207
usvoji	10208
##štene	10209
moraš	10210
1961	10211
prijatelje	10212
stefa	10213
##zirana	10214
domaćeg	10215
nastave	10216
interak	10217
tromjese	10218
interpre	10219
svakoga	10220
određeni	10221
oporba	10222
komunisti	10223
sjajna	10224
crvena	10225
crvenog	10226
zabave	10227
marijana	10228
primanja	10229
navedeno	10230
kombinacija	10231
gostovanju	10232
diploma	10233
odvjetništvo	10234
dvostruko	10235
cjelokup	10236
prebivali	10237
arena	10238
ije	10239
initi	10240
##lite	10241
##tost	10242
rakete	10243
obliko	10244
trećoj	10245
##šina	10246
kuku	10247
rođena	10248
usredo	10249
cesto	10250
ceremo	10251
fazu	10252
napadima	10253
mediteran	10254
arhe	10255
napravi	10256
govorila	10257
gledaju	10258
dugog	10259
službenim	10260
obolje	10261
2007	10262
zlatne	10263
##ller	10264
ekipi	10265
općini	10266
pobijedi	10267
manjina	10268
mađarske	10269
sveučilištu	10270
izdrža	10271
poboljšanje	10272
naknadno	10273
odob	10274
odobre	10275
posade	10276
razumijevanje	10277
bogatstvo	10278
namirnica	10279
trofej	10280
povjerenstvo	10281
nafte	10282
krešimir	10283
usredoto	10284
180	10285
ks	10286
ola	10287
##one	10288
##37	10289
##rate	10290
##ranim	10291
##nića	10292
##renih	10293
dotak	10294
pregovora	10295
noćenja	10296
stao	10297
timu	10298
opsta	10299
cirku	10300
soft	10301
trž	10302
šesti	10303
šimu	10304
##ziraju	10305
dvorane	10306
takvog	10307
gledamo	10308
najavili	10309
nedjelja	10310
odraditi	10311
odjeću	10312
mislili	10313
iznenadio	10314
pravilo	10315
crvenom	10316
izvješ	10317
podignu	10318
obuhvaća	10319
obilježava	10320
izbjeći	10321
stresa	10322
servis	10323
sekunde	10324
restoranu	10325
komunikacija	10326
epizoda	10327
christi	10328
civilne	10329
vreći	10330
najgore	10331
bidena	10332
okonča	10333
pixsell	10334
ivati	10335
uvid	10336
##nki	10337
podje	10338
##jao	10339
dos	10340
prome	10341
##gana	10342
gorica	10343
mae	10344
malog	10345
##bolje	10346
##zad	10347
pame	10348
##šenjem	10349
##čarka	10350
nivo	10351
##ćama	10352
stvore	10353
puljak	10354
butković	10355
brodova	10356
krila	10357
##cionali	10358
dvadeset	10359
hitnu	10360
većim	10361
trudno	10362
primjera	10363
izgledaju	10364
predsjednički	10365
crvene	10366
##loginja	10367
promijenila	10368
privatne	10369
posebne	10370
uzrokova	10371
prethodne	10372
trajanja	10373
ulaganje	10374
raspravlja	10375
portugala	10376
asfal	10377
ubijeno	10378
nastoji	10379
ravnopra	10380
razvijati	10381
tragedije	10382
dvoboja	10383
dvoboju	10384
kvadrata	10385
paket	10386
u010	10387
##ysqli	10388
("	10389
01	10390
?",	10391
plje	10392
##it	10393
naje	10394
kau	10395
nedugo	10396
prove	10397
rasi	10398
raketa	10399
preveli	10400
motora	10401
palo	10402
pavić	10403
tanju	10404
##don	10405
bosni	10406
jake	10407
##pen	10408
dezin	10409
peda	10410
rubu	10411
ovome	10412
prijevoza	10413
labora	10414
državnim	10415
sopić	10416
mjesecu	10417
rasproda	10418
slične	10419
bliskom	10420
130	10421
kultura	10422
budemo	10423
odgovore	10424
2005	10425
ploče	10426
ploča	10427
tradicije	10428
osnovnih	10429
domovinskom	10430
premier	10431
zemljišta	10432
katarina	10433
kineski	10434
daljnji	10435
talijanskog	10436
aleksandra	10437
poplava	10438
poduzetnika	10439
petrović	10440
četvrtfinalu	10441
drugačiji	10442
aerod	10443
maneke	10444
thoma	10445
individual	10446
münche	10447
88	10448
mnom	10449
##šci	10450
##mski	10451
##15	10452
##ničkih	10453
##rević	10454
##rit	10455
kanali	10456
##ganja	10457
##biju	10458
matić	10459
mike	10460
nogama	10461
##pili	10462
dia	10463
najra	10464
njene	10465
čimbe	10466
slavni	10467
fasci	10468
stvarima	10469
obalu	10470
poznatih	10471
nastao	10472
maloljet	10473
vojnog	10474
njemačkom	10475
dugotra	10476
dolasku	10477
bliski	10478
karti	10479
uređenja	10480
glazbenika	10481
ukupne	10482
osobnog	10483
opremu	10484
advent	10485
jednostavan	10486
savjete	10487
poljud	10488
objekt	10489
mladost	10490
okvir	10491
kvalifikacijama	10492
školske	10493
predizbo	10494
konkretno	10495
položaj	10496
uvjerljivo	10497
tekući	10498
kontinenta	10499
razmatra	10500
jazz	10501
uteme	10502
aro	10503
evide	10504
knin	10505
ometa	10506
pče	10507
win	10508
##cmimagegallery	10509
jeli	10510
poba	10511
##nako	10512
##vocmimagegallery	10513
zapu	10514
kožu	10515
##kana	10516
##can	10517
##mero	10518
##stičke	10519
reme	10520
reče	10521
##čito	10522
##duju	10523
boy	10524
jasna	10525
dimen	10526
pravilima	10527
ljubo	10528
igramo	10529
austrije	10530
moguća	10531
dodali	10532
1990	10533
faza	10534
dijelova	10535
radnom	10536
školo	10537
dolaskom	10538
zaštita	10539
vidjelo	10540
natjecatelj	10541
gospoda	10542
izbornika	10543
knjizi	10544
policijska	10545
djevojčice	10546
gordan	10547
radost	10548
partnerom	10549
objekta	10550
sjećam	10551
zvuči	10552
prestati	10553
upitan	10554
##ptvocmimagegallery	10555
kvalifikacije	10556
aviona	10557
besplatno	10558
obratio	10559
špiju	10560
terori	10561
vinogra	10562
štrajk	10563
incptvocmimagegallery	10564
jennifer	10565
aran	10566
krije	10567
##17	10568
##87	10569
dalji	10570
##cati	10571
nemi	10572
##stven	10573
##kica	10574
raski	10575
točka	10576
##pao	10577
obnova	10578
pupo	10579
dino	10580
najskup	10581
starta	10582
sveta	10583
grana	10584
pravne	10585
rude	10586
##zujemo	10587
objašnje	10588
pitanjima	10589
pomogli	10590
pozicija	10591
pozitivne	10592
širom	10593
protek	10594
zaštititi	10595
kruh	10596
stranku	10597
postigli	10598
ukupna	10599
united	10600
tradiciju	10601
ekskluzi	10602
oprem	10603
namjera	10604
perfor	10605
povezanost	10606
pariz	10607
alen	10608
rekorde	10609
naučiti	10610
cijelosti	10611
željka	10612
temama	10613
udarca	10614
epizode	10615
oluja	10616
starijih	10617
sporazuma	10618
tiktok	10619
manifestacija	10620
oštro	10621
pritvor	10622
dječjeg	10623
james	10624
86	10625
ogleda	10626
sy	10627
##dbu	10628
##bs	10629
##ph	10630
##19	10631
##mato	10632
zap	10633
kaj	10634
neis	10635
##gon	10636
točke	10637
##bine	10638
##bijan	10639
redom	10640
##pama	10641
borac	10642
osmo	10643
voka	10644
razve	10645
granici	10646
grafi	10647
tiho	10648
foru	10649
državna	10650
##vljenja	10651
protivnik	10652
odluci	10653
prijavio	10654
njezinim	10655
šar	10656
očekujem	10657
reakciju	10658
ulaska	10659
grup	10660
kladio	10661
zahtjeve	10662
zadnjem	10663
promijenilo	10664
privatnog	10665
povratku	10666
iznose	10667
vrhunski	10668
namjerava	10669
planiraju	10670
umjetnost	10671
engleske	10672
nabave	10673
savršen	10674
energija	10675
protuzra	10676
poplave	10677
charles	10678
zamisliti	10679
neovisno	10680
najnovije	10681
arheo	10682
fre	10683
kranj	10684
ćo	10685
##llu	10686
##znici	10687
##fs	10688
pohva	10689
##rirao	10690
##namje	10691
kade	10692
princi	10693
mislav	10694
##sica	10695
##šaka	10696
osna	10697
bačić	10698
##ljuju	10699
turske	10700
konzul	10701
krista	10702
slaže	10703
izborne	10704
farma	10705
izasla	10706
krenulo	10707
##rniku	10708
obranio	10709
vozilima	10710
održavaju	10711
uređenje	10712
odredi	10713
sigurnosne	10714
inflacija	10715
mislila	10716
nepotre	10717
general	10718
predstavu	10719
kupci	10720
otvaranju	10721
dozvolu	10722
ograničenja	10723
slovenija	10724
sjedinjene	10725
ovlasti	10726
eurosongu	10727
vjerojatnost	10728
pogorša	10729
najvjeroja	10730
eve	10731
išla	10732
odije	10733
thi	10734
unio	10735
ći	10736
##ntom	10737
##smje	10738
##tono	10739
##category	10740
##gode	10741
##njenje	10742
molim	10743
mojim	10744
##pat	10745
mio	10746
veo	10747
##dora	10748
traju	10749
auta	10750
dodatnu	10751
kriza	10752
leža	10753
anke	10754
branio	10755
srebro	10756
tvrtku	10757
rezultira	10758
nacionalnoj	10759
čekati	10760
trgovini	10761
poljska	10762
nestala	10763
povjerenja	10764
igno	10765
stres	10766
dijabe	10767
trajanju	10768
prijedloga	10769
redatelja	10770
##yen	10771
policajaca	10772
digitalne	10773
identiteta	10774
kombinaciji	10775
barcelone	10776
ispitanika	10777
mlijeka	10778
najstariji	10779
neposredno	10780
oscara	10781
##plus	10782
prezenti	10783
94	10784
opisuje	10785
zime	10786
napi	10787
supa	10788
kanal	10789
sakri	10790
repe	10791
vete	10792
nici	10793
osve	10794
liniju	10795
disa	10796
deli	10797
beba	10798
peru	10799
plaži	10800
objaviti	10801
leta	10802
sola	10803
sobu	10804
svijest	10805
crnu	10806
snažan	10807
##hua	10808
bliza	10809
koristili	10810
raspored	10811
zida	10812
##uth	10813
zanimljiva	10814
komentari	10815
financijskih	10816
zaradio	10817
poginula	10818
materijal	10819
vukovaru	10820
hercegovini	10821
samostalno	10822
suparnika	10823
rakitić	10824
kno	10825
onom	10826
spusti	10827
##vp	10828
##čom	10829
##tiraju	10830
##ling	10831
##noda	10832
##ria	10833
dou	10834
odvoje	10835
##movima	10836
izi	10837
saša	10838
priči	10839
prilog	10840
##des	10841
viša	10842
##gue	10843
mešt	10844
oslanja	10845
putina	10846
ruci	10847
plaža	10848
roko	10849
##ord	10850
morat	10851
guver	10852
malolje	10853
nećete	10854
teksta	10855
2004	10856
produk	10857
ozlijeđeno	10858
bivšim	10859
osobnim	10860
zabavu	10861
prirodno	10862
dizajne	10863
postupno	10864
uzeli	10865
shvatila	10866
madridu	10867
prisjeća	10868
nekadašnji	10869
naselju	10870
standardi	10871
pokraji	10872
najmlađi	10873
bjeloru	10874
uvelike	10875
baturina	10876
performan	10877
crni	10878
očima	10879
out	10880
uti	10881
##čje	10882
##zdu	10883
jel	10884
##landa	10885
##jalo	10886
##kau	10887
iznio	10888
##stić	10889
mojih	10890
golma	10891
##ljenosti	10892
tepi	10893
nožem	10894
##ping	10895
bože	10896
obnovi	10897
stanica	10898
sir	10899
jose	10900
petko	10901
čelnik	10902
krama	10903
prijesto	10904
jure	10905
fonda	10906
##ngham	10907
svojedobno	10908
marku	10909
marković	10910
##brani	10911
potvrda	10912
vlastiti	10913
ionako	10914
zdravstveni	10915
zgradu	10916
interesu	10917
ispuniti	10918
otvorili	10919
presude	10920
kazališta	10921
chel	10922
ovakvih	10923
autobusa	10924
visine	10925
povukao	10926
neprihva	10927
mobitela	10928
broncu	10929
uslijedio	10930
stožera	10931
washington	10932
đurđe	10933
96	10934
osa	10935
##fli	10936
##rile	10937
zače	10938
zakaza	10939
koljena	10940
donje	10941
doveli	10942
sastava	10943
prevo	10944
presre	10945
prepla	10946
mosto	10947
goto	10948
##bile	10949
misija	10950
noj	10951
parova	10952
verba	10953
viro	10954
tamara	10955
valu	10956
debe	10957
pepe	10958
duna	10959
rukom	10960
plave	10961
laži	10962
liječenja	10963
pomogne	10964
političari	10965
godišnjoj	10966
pojava	10967
pojave	10968
pojašnja	10969
nadma	10970
čudno	10971
glazbi	10972
posjetiti	10973
kruga	10974
karlov	10975
prodaja	10976
emocija	10977
naglasiti	10978
##tkinje	10979
savjetuje	10980
jadrana	10981
prijetnji	10982
blagdana	10983
osumnjičeni	10984
vjenčanja	10985
okupljanje	10986
oblaka	10987
##_2707	10988
belupo	10989
magazin	10990
##_27231	10991
automatski	10992
utorka	10993
iji	10994
plije	10995
##tnika	10996
##snik	10997
##vce	10998
##mpio	10999
##hd	11000
##).	11001
nac	11002
pomije	11003
##rec	11004
##tete	11005
odboj	11006
odbaci	11007
prođe	11008
motiv	11009
tota	11010
rej	11011
matu	11012
miran	11013
##čevića	11014
##čane	11015
nigdje	11016
##zore	11017
gradili	11018
živio	11019
konte	11020
južne	11021
juventu	11022
spozna	11023
##strom	11024
čisti	11025
dodatak	11026
stoti	11027
klupe	11028
prošlost	11029
domagoj	11030
njezinog	11031
##content	11032
prostorije	11033
pronađeno	11034
automobile	11035
vrijedno	11036
onemogu	11037
dnevnika	11038
izgradnji	11039
financijska	11040
povezan	11041
kategorija	11042
sjevernoj	11043
zabrane	11044
proslavio	11045
otvaranja	11046
marijan	11047
bloka	11048
isplati	11049
presuda	11050
##tten	11051
solidar	11052
stabilnost	11053
korake	11054
treningu	11055
chri	11056
susjedi	11057
pregovore	11058
započinje	11059
htv	11060
tlo	11061
##use	11062
##nbu	11063
nata	11064
počne	11065
kažnje	11066
nepa	11067
odve	11068
izjednače	11069
proše	11070
##gona	11071
prepo	11072
##bai	11073
##čenih	11074
mer	11075
jače	11076
pul	11077
vožnju	11078
##ljke	11079
svome	11080
##gio	11081
bau	11082
bala	11083
##djeli	11084
pen	11085
podnio	11086
junio	11087
kino	11088
soba	11089
krem	11090
studio	11091
svjetskim	11092
takvom	11093
vratara	11094
srpskog	11095
marić	11096
odradili	11097
nositelj	11098
učenike	11099
šibensko	11100
pratitelja	11101
iznosa	11102
namjerno	11103
obuhva	11104
sklada	11105
konferencijske	11106
greške	11107
oduševio	11108
oduševila	11109
parale	11110
dostupna	11111
skandi	11112
suprot	11113
zatražio	11114
tenisač	11115
mamić	11116
tjednu	11117
uskrs	11118
korisnike	11119
smještaja	11120
pohađa	11121
chelsea	11122
unija	11123
špa	11124
##jnih	11125
##vnica	11126
##ok	11127
##bni	11128
jesam	11129
zastupa	11130
bitan	11131
preba	11132
presko	11133
##mine	11134
bodove	11135
##šavanja	11136
benja	11137
bend	11138
peci	11139
podzem	11140
tik	11141
duje	11142
znakovi	11143
djeluju	11144
stotina	11145
leyen	11146
cestu	11147
fanovi	11148
izašla	11149
socio	11150
hodo	11151
nutri	11152
sličan	11153
futsa	11154
hranom	11155
opozi	11156
poljskoj	11157
odjel	11158
pratili	11159
pratite	11160
##utho	11161
donijelo	11162
turizmu	11163
stvarnosti	11164
kupaca	11165
vladimira	11166
brzinom	11167
shvatili	11168
interneta	11169
klubovima	11170
komunikacije	11171
slušati	11172
donna	11173
slavoniji	11174
inicijativa	11175
predvodio	11176
izvući	11177
mentalno	11178
kraljica	11179
bundesli	11180
snijega	11181
bayerna	11182
poprilično	11183
dortmund	11184
04	11185
evan	11186
elnik	11187
grije	11188
mlje	11189
okrša	11190
##ttom	11191
##rnoj	11192
##rcima	11193
##krije	11194
##w_	11195
##tirali	11196
##ladi	11197
davno	11198
dakako	11199
setu	11200
dopušta	11201
##dona	11202
ćeš	11203
##ženom	11204
##ženog	11205
str	11206
##živo	11207
banko	11208
debiti	11209
bespi	11210
dulji	11211
ruži	11212
ruskom	11213
glavnu	11214
jučera	11215
vlak	11216
objavljuje	11217
led	11218
ansam	11219
dobiju	11220
dobivaju	11221
autorica	11222
dvadesetak	11223
##tions	11224
dvorana	11225
načinu	11226
france	11227
vojsku	11228
istanbu	11229
ulaze	11230
covid	11231
visok	11232
uredu	11233
nesreću	11234
nikole	11235
izdao	11236
uživaju	11237
djelovati	11238
pisalo	11239
zamjenu	11240
savjeta	11241
zaslužuje	11242
cjepi	11243
izdr	11244
prehrane	11245
policajac	11246
paul	11247
parlamentarne	11248
prihvatio	11249
graditelj	11250
andrija	11251
svladali	11252
zločin	11253
adresu	11254
proljeće	11255
##field	11256
##fields	11257
počast	11258
veznjak	11259
psg	11260
djelomično	11261
bespilo	11262
7plus	11263
89	11264
##gsize	11265
##zmi	11266
##nirao	11267
naci	11268
##rovima	11269
##mak	11270
zaru	11271
kamen	11272
izvi	11273
##nuvši	11274
sajam	11275
predu	11276
##site	11277
meg	11278
die	11279
pere	11280
piz	11281
takoz	11282
straho	11283
dodati	11284
tribina	11285
slado	11286
....	11287
šesna	11288
trenutaka	11289
dijelovi	11290
nekima	11291
drugoga	11292
trojica	11293
spasiti	11294
posjetio	11295
zakonoda	11296
srijede	11297
povijesni	11298
pripremama	11299
analiza	11300
##tovalu	11301
sukobu	11302
provjerite	11303
.).	11304
ekstra	11305
dječji	11306
snimio	11307
naknada	11308
inicijative	11309
ikak	11310
obratiti	11311
##query	11312
period	11313
analitičar	11314
brend	11315
##scription	11316
dijagnostici	11317
jdatabasequery	11318
kriptovalu	11319
##columns	11320
najvjerojatnije	11321
spu	11322
war	11323
žan	11324
##zbor	11325
##rad	11326
natrag	11327
poviše	11328
##kol	11329
##rim	11330
danom	11331
doigra	11332
dopustiti	11333
prekom	11334
##ziste	11335
jan	11336
jana	11337
##ljić	11338
podca	11339
čelnika	11340
praved	11341
ruskim	11342
strašno	11343
##vljenih	11344
holly	11345
svojeg	11346
širenje	11347
##zirane	11348
dragu	11349
poznaje	11350
arti	11351
proizvodnji	11352
njezinih	11353
organizirati	11354
trogi	11355
načine	11356
##đivao	11357
publikom	11358
ivane	11359
zdravko	11360
posjeta	11361
vlastitim	11362
organizaciju	11363
izbornog	11364
nedjelj	11365
odgovora	11366
učenicima	11367
emisiju	11368
sjajne	11369
godišnjakinja	11370
droga	11371
razmišljati	11372
oštećenja	11373
dubrovačko	11374
popularna	11375
zabrinuti	11376
financiranje	11377
zadovolja	11378
polufinala	11379
poticaj	11380
roberta	11381
inspiri	11382
jačanje	11383
simptomi	11384
tribine	11385
imuni	11386
obavijest	11387
zvonimir	11388
middle	11389
metropo	11390
rekavši	11391
šesnae	11392
aba	11393
bmw	11394
hvali	11395
pse	11396
##rko	11397
##tirala	11398
##tach	11399
##cie	11400
dostavlja	11401
dogovora	11402
suče	11403
neven	11404
##metar	11405
mase	11406
marije	11407
miho	11408
##čim	11409
većem	11410
cari	11411
##pite	11412
##grafije	11413
##ljivu	11414
trendo	11415
najbr	11416
piće	11417
praksi	11418
žirija	11419
južnoj	11420
vješti	11421
slatki	11422
žuti	11423
dionice	11424
obaviti	11425
drasti	11426
jakov	11427
najvećeg	11428
učinili	11429
bitna	11430
splitskom	11431
neovis	11432
klara	11433
premijeru	11434
subota	11435
pozvali	11436
izraelska	11437
odjeće	11438
pravilu	11439
analize	11440
smanjenja	11441
vodstva	11442
pritiska	11443
kovačević	11444
razgovori	11445
povodu	11446
ekonomski	11447
migranata	11448
dužnosnika	11449
detaljno	11450
manifestacije	11451
glumca	11452
##count	11453
upotrije	11454
spektakula	11455
obljetnice	11456
##tachments	11457
aje	11458
alo	11459
alu	11460
edi	11461
oluje	11462
##rja	11463
##čju	11464
##gr	11465
##photo	11466
nasu	11467
##vate	11468
##gora	11469
ratne	11470
##ljenjem	11471
requi	11472
mana	11473
venti	11474
vesna	11475
viktor	11476
##ljima	11477
##ljivim	11478
liniji	11479
predlaže	11480
dema	11481
podnosi	11482
čelnici	11483
praksa	11484
glavnim	11485
žiri	11486
leži	11487
ankete	11488
ritam	11489
radna	11490
idea	11491
intelek	11492
spasila	11493
pronađena	11494
srpska	11495
gradovi	11496
učesta	11497
komentirali	11498
elite	11499
transfer	11500
funkcional	11501
##gorje	11502
##loškim	11503
wimble	11504
pozivamo	11505
okrenuti	11506
novinarka	11507
kontaktu	11508
stupnja	11509
obećao	11510
branka	11511
rješavanje	11512
udob	11513
napomenuo	11514
marketin	11515
oliver	11516
##counter	11517
naranča	11518
ah	11519
asa	11520
hs	11521
sco	11522
uvesti	11523
pogađa	11524
##renu	11525
saj	11526
teškom	11527
##čite	11528
pažnje	11529
vekić	11530
merce	11531
##žit	11532
siri	11533
kuka	11534
tina	11535
potpisuje	11536
otkad	11537
krajeva	11538
živa	11539
živim	11540
čista	11541
radika	11542
lee	11543
1995	11544
pitala	11545
gradskim	11546
##zirala	11547
domaća	11548
kompone	11549
bliže	11550
važnu	11551
minutu	11552
isposta	11553
počinio	11554
ozlijeđena	11555
djevojku	11556
zeleni	11557
pojedinim	11558
željela	11559
naročito	11560
započeti	11561
električnih	11562
##kovec	11563
vraćaju	11564
portala	11565
redovima	11566
prisjetio	11567
odvjetništvu	11568
teških	11569
smeće	11570
nikakvih	11571
izvođača	11572
suzdrža	11573
belupa	11574
koprivnici	11575
jandroković	11576
cru	11577
lji	11578
sletio	11579
zre	11580
zbri	11581
##vske	11582
##pper	11583
##cm	11584
##ranjem	11585
##nita	11586
##nome	11587
##janje	11588
zama	11589
biraju	11590
izmije	11591
prolaze	11592
##kera	11593
pripra	11594
prizor	11595
##misle	11596
magne	11597
##sar	11598
janko	11599
##žana	11600
vođa	11601
sing	11602
ručak	11603
uzga	11604
prijete	11605
trik	11606
lepo	11607
lijek	11608
stiho	11609
političkim	11610
gradnje	11611
kompromi	11612
nikakav	11613
genna	11614
poslovnog	11615
koncerata	11616
sportskim	11617
tereti	11618
odgovoran	11619
idućih	11620
poduzeti	11621
povezani	11622
gubitka	11623
prehranu	11624
županijske	11625
površina	11626
miroslav	11627
fotografijama	11628
budimpe	11629
voljela	11630
srednjoškol	11631
pantov	11632
horoskop	11633
samouprave	11634
prokomenti	11635
prekomje	11636
900	11637
cnn	11638
enu	11639
kel	11640
oka	11641
skro	11642
ww	11643
##rskih	11644
##šnom	11645
##kvali	11646
##hla	11647
##89	11648
##win	11649
##ničkog	11650
##lista	11651
zas	11652
zaga	11653
##lošku	11654
kan	11655
nesu	11656
mobili	11657
tomu	11658
mit	11659
nives	11660
jane	11661
##šiću	11662
stalo	11663
stabili	11664
siste	11665
dečko	11666
##hony	11667
bebe	11668
dušu	11669
samoj	11670
činiti	11671
2027	11672
##čkoga	11673
slasti	11674
soa	11675
lijevo	11676
radnicima	11677
zajednicu	11678
gume	11679
ljetne	11680
nastavit	11681
osjetio	11682
očevid	11683
grob	11684
maria	11685
polufinal	11686
##larm	11687
kontrolom	11688
provoka	11689
bogate	11690
povjere	11691
stvaranju	11692
zaposlenici	11693
kvarta	11694
operaciju	11695
ljudskih	11696
sjednica	11697
koalicija	11698
osvajanje	11699
primijetili	11700
klimatske	11701
barceloni	11702
kopnu	11703
primorsko	11704
najpoznatijih	11705
najteže	11706
napominju	11707
posljednjoj	11708
donesena	11709
sastoji	11710
alexan	11711
imigra	11712
umrla	11713
nepravi	11714
horizonta	11715
sladole	11716
spri	11717
zvao	11718
##elek	11719
##dge	11720
##yju	11721
##tića	11722
##vare	11723
##dini	11724
suću	11725
kazni	11726
odlaze	11727
##port	11728
reha	11729
pavi	11730
vic	11731
vikto	11732
nijan	11733
bosan	11734
lici	11735
##gera	11736
sveo	11737
##gins	11738
potje	11739
rusko	11740
uzme	11741
čin	11742
ostavite	11743
slavila	11744
braniti	11745
riski	11746
prijavila	11747
nastavili	11748
vozilu	11749
brige	11750
##njski	11751
gledam	11752
smatramo	11753
nastupe	11754
središte	11755
francuskog	11756
idući	11757
predstavljanje	11758
producent	11759
kilometra	11760
temperaturu	11761
dokumenti	11762
svjedoci	11763
filipi	11764
izazvalo	11765
prisutnost	11766
pritiskom	11767
izlaska	11768
raspravu	11769
naknadu	11770
aplikacija	11771
popularnost	11772
propustio	11773
jugoslaven	11774
brigade	11775
volodi	11776
nervo	11777
perspektive	11778
tambura	11779
ast	11780
cristi	11781
ira	11782
##sso	11783
##21	11784
##lit	11785
kocki	11786
daj	11787
##canja	11788
doru	11789
odsje	11790
birali	11791
izveo	11792
proži	11793
##stin	11794
##lude	11795
##misti	11796
##čina	11797
litara	11798
garde	11799
otpu	11800
##stavljen	11801
vrha	11802
objavlji	11803
osobom	11804
ribar	11805
##cijskoj	11806
stije	11807
radnim	11808
step	11809
dvojice	11810
održala	11811
##rnera	11812
njemačkog	11813
četvrta	11814
dinamom	11815
prometnu	11816
unarod	11817
automobili	11818
poluvrijeme	11819
kakvi	11820
upozorila	11821
katedra	11822
vozače	11823
nedaleko	11824
oprez	11825
pojedinci	11826
spremno	11827
mrša	11828
manjine	11829
navedene	11830
koristeći	11831
profesionalni	11832
odobri	11833
blagda	11834
ozljedama	11835
eksplodi	11836
državljanin	11837
koraka	11838
izbjegavati	11839
obožavatelji	11840
kopne	11841
ishod	11842
izjednačio	11843
kijev	11844
neposred	11845
libera	11846
hormo	11847
horvat	11848
ere	11849
uop	11850
wc	11851
##tnica	11852
##mpom	11853
##nie	11854
nađe	11855
pošta	11856
saz	11857
primiti	11858
mona	11859
##zala	11860
##gua	11861
meča	11862
staza	11863
pio	11864
potpisi	11865
duša	11866
plaže	11867
##čun	11868
ostanak	11869
king	11870
##štenje	11871
životom	11872
potrebama	11873
istražuje	11874
pobjegao	11875
article	11876
ponoći	11877
ponovio	11878
brigu	11879
vojnu	11880
slobodne	11881
oduzima	11882
gospođa	11883
određenih	11884
kakvom	11885
transak	11886
osjećati	11887
zlatnu	11888
otvorene	11889
pričati	11890
činilo	11891
predavanja	11892
povjesni	11893
interese	11894
milanoviću	11895
prethodnih	11896
međunarodnim	11897
profimedia	11898
smanjio	11899
beograda	11900
energijom	11901
manipu	11902
mišljenju	11903
održivog	11904
primijetio	11905
regionalne	11906
epizodi	11907
iii	11908
katastrofa	11909
metoda	11910
ambicio	11911
fenomen	11912
rusijom	11913
orkestar	11914
nezadovoljstvo	11915
mještani	11916
krivot	11917
teritoriju	11918
michael	11919
grmljavinom	11920
prezime	11921
brodogra	11922
rehabili	11923
spušta	11924
šted	11925
##author	11926
##_photo	11927
##31	11928
jele	11929
naglo	11930
##kog	11931
##val	11932
##diju	11933
suk	11934
kasni	11935
pripo	11936
prizem	11937
referen	11938
masno	11939
tešku	11940
osmisli	11941
informi	11942
podvr	11943
glavno	11944
rođe	11945
prijeno	11946
##hama	11947
jurić	11948
vjen	11949
vježbe	11950
doktor	11951
fond	11952
izborio	11953
richa	11954
poveli	11955
ministara	11956
medijske	11957
all	11958
ponoviti	11959
govorim	11960
vuče	11961
pripremili	11962
porasla	11963
kardio	11964
potvrditi	11965
koristite	11966
##vicama	11967
podršci	11968
opasne	11969
bijela	11970
općinskog	11971
posljednjim	11972
policijskih	11973
utvrditi	11974
očekivao	11975
predstavila	11976
institucijama	11977
pripremaju	11978
andrea	11979
realno	11980
konferencija	11981
međunarodnom	11982
1998	11983
turski	11984
oduševljeni	11985
##prkos	11986
ispao	11987
pogreške	11988
količinu	11989
benčić	11990
nastupila	11991
minimalno	11992
frizu	11993
kuhinji	11994
tribinama	11995
susjeda	11996
čvrsto	11997
povjerenstva	11998
kneže	11999
petero	12000
uznemi	12001
arhitektu	12002
pašalić	12003
sudjelovalo	12004
omogućava	12005
anthony	12006
etku	12007
wel	12008
##ano	12009
porije	12010
##vači	12011
##tacija	12012
##jali	12013
##vie	12014
neop	12015
odbije	12016
##kida	12017
saslu	12018
ratni	12019
maje	12020
parovi	12021
nisi	12022
borila	12023
obnov	12024
dir	12025
bezo	12026
##mula	12027
mješa	12028
djelu	12029
planina	12030
lope	12031
eurovizi	12032
krijum	12033
imple	12034
lijeve	12035
čuje	12036
četvrto	12037
zovu	12038
pronađen	12039
##ncijom	12040
varaždinska	12041
karlo	12042
klau	12043
matej	12044
neugod	12045
čovjeku	12046
plovid	12047
zajedničke	12048
domaćini	12049
očekivali	12050
dokument	12051
hladnja	12052
pisati	12053
samih	12054
povrća	12055
objavljeni	12056
zabranu	12057
zapadnoj	12058
odgoji	12059
starih	12060
intenzivno	12061
zaustavio	12062
dončić	12063
odustati	12064
ubijen	12065
zatvorena	12066
poštovanje	12067
nizozemska	12068
austral	12069
amerikanci	12070
haljinu	12071
treneri	12072
očuvanje	12073
pregovori	12074
dvorištu	12075
##grafija	12076
pilot	12077
angažman	12078
kulinar	12079
podrazumijeva	12080
av	12081
hvale	12082
npr	12083
s_	12084
snova	12085
une	12086
upis	12087
zvi	12088
##sho	12089
##ldemo	12090
ponovi	12091
povrije	12092
dolje	12093
nesigu	12094
odbila	12095
promila	12096
##med	12097
reli	12098
##čile	12099
nomina	12100
##sic	12101
##čeva	12102
borna	12103
vala	12104
hrvate	12105
depre	12106
pranje	12107
dubai	12108
rome	12109
ostavila	12110
osoblje	12111
pobri	12112
držao	12113
državnoj	12114
civili	12115
odlučuju	12116
##cionirati	12117
hod	12118
kompli	12119
hitna	12120
članak	12121
njezinoj	12122
ples	12123
smješten	12124
službenoj	12125
visoku	12126
sigurnosnih	12127
obojica	12128
središnje	12129
otocima	12130
golman	12131
šoku	12132
zeleno	12133
povijesne	12134
funkcije	12135
kupcima	12136
međunarodna	12137
zabrana	12138
socijaldemo	12139
kućan	12140
zapadni	12141
okusa	12142
sjednicu	12143
doprinosi	12144
pogrešno	12145
svečano	12146
prisjetila	12147
h_272090	12148
k_272090	12149
o_272090	12150
pp_272090	12151
avion	12152
telefona	12153
učinkoviti	12154
simptome	12155
krevetu	12156
ciklusa	12157
zapošljavanje	12158
odabrati	12159
barbara	12160
contains_	12161
dobrodošli	12162
##_the_	12163
middleton	12164
avi	12165
dri	12166
efika	12167
ito	12168
udje	12169
ustava	12170
##mba	12171
##zro	12172
##nisa	12173
##tant	12174
seksa	12175
kapu	12176
##stim	12177
maka	12178
##čeve	12179
vida	12180
vidović	12181
jah	12182
jase	12183
lit	12184
##bel	12185
sira	12186
sisa	12187
##njić	12188
eufo	12189
beno	12190
podra	12191
usprkos	12192
lar	12193
riješi	12194
hos	12195
tvrdio	12196
##ford	12197
gradnju	12198
pojaviti	12199
hek	12200
događaje	12201
milana	12202
mladića	12203
grmo	12204
kandidatima	12205
regiju	12206
središnjoj	12207
nacionalnu	12208
odjelu	12209
iznenađenja	12210
zdravstveno	12211
podizanje	12212
ambije	12213
smijemo	12214
financijsku	12215
turska	12216
epide	12217
prosvjeda	12218
pluća	12219
izmjenama	12220
zanimanja	12221
smrtno	12222
umirovljenici	12223
seksualno	12224
verzija	12225
neprimje	12226
uslijedila	12227
inspektora	12228
pogodila	12229
nepresta	12230
fenome	12231
ciklus	12232
počinitelj	12233
prouzro	12234
veličine	12235
odabrao	12236
tonči	12237
biznis	12238
brati	12239
elo	12240
eras	12241
zgo	12242
##sce	12243
##gru	12244
nazna	12245
pov	12246
povi	12247
poša	12248
pokva	12249
kolnika	12250
sur	12251
suze	12252
big	12253
vira	12254
tag	12255
##dol	12256
bojan	12257
vožnji	12258
divlje	12259
##zović	12260
razd	12261
dete	12262
duše	12263
mjerama	12264
djetetu	12265
rođenja	12266
usvaja	12267
krimina	12268
zet	12269
tijesto	12270
190	12271
##jućim	12272
lijekova	12273
napali	12274
pojavlji	12275
pogon	12276
pogotkom	12277
službenika	12278
kandidaturu	12279
unaprije	12280
čekanja	12281
stručni	12282
oporavka	12283
porezne	12284
iznenada	12285
times	12286
olimpijski	12287
zdravstvenog	12288
vatrogasne	12289
večera	12290
instant	12291
doživjeti	12292
urednik	12293
narodne	12294
razmišljanja	12295
izlazak	12296
tvrtkama	12297
profesora	12298
ugostiti	12299
najvažnijih	12300
ocjenji	12301
okupljanja	12302
kalinić	12303
obaveza	12304
učinkovitost	12305
signali	12306
izglasa	12307
bespovra	12308
09	12309
agro	12310
plja	12311
##tskom	12312
##vskog	12313
##lko	12314
##čniji	12315
##43	12316
##main	12317
sesve	12318
dora	12319
kažnja	12320
nest	12321
izba	12322
raza	12323
##tuzija	12324
mat	12325
miste	12326
padu	12327
##section	12328
boju	12329
voće	12330
pratio	12331
prakse	12332
rura	12333
hak	12334
vještina	12335
opg	12336
životni	12337
životne	12338
##vnicu	12339
##vljenog	12340
krema	12341
trga	12342
klubom	12343
stupa	12344
pomoću	12345
radnik	12346
političara	12347
##zirani	12348
dragovo	12349
otkriveno	12350
ljeti	12351
pojas	12352
ukrajinskih	12353
brinuti	12354
četvrtine	12355
pokušala	12356
entuzija	12357
160	12358
odgovorili	12359
zlatni	12360
demon	12361
270	12362
snimci	12363
weight	12364
uzrokuje	12365
potencijalne	12366
uhićenja	12367
zabranjeno	12368
proslave	12369
zadovoljna	12370
strategije	12371
saznanja	12372
skupštini	12373
kazalištu	12374
specijalizira	12375
kratkoro	12376
postavljanje	12377
termina	12378
cityja	12379
pažljivo	12380
talijanske	12381
ugovore	12382
ovogodišnje	12383
mrtvih	12384
najljepše	12385
vašim	12386
konoba	12387
djetinjstva	12388
oružanih	12389
poginulih	12390
swift	12391
world	12392
zastrašu	12393
created	12394
irana	12395
mm	12396
##tnice	12397
##rdu	12398
##lnije	12399
##knuo	12400
##fur	12401
##rami	12402
##tini	12403
popri	12404
pojma	12405
zaku	12406
kot	12407
seta	12408
section	12409
##mora	12410
##kića	12411
##bah	12412
##čega	12413
viđa	12414
##žemo	12415
jack	12416
lipo	12417
nijedan	12418
desno	12419
##vnote	12420
ispisa	12421
##ntnim	12422
bubre	12423
##fica	12424
stravi	12425
odlučuje	12426
dobrobit	12427
prošlu	12428
posljednju	12429
drame	12430
dvor	12431
nadzora	12432
ponosna	12433
čudi	12434
događalo	12435
vlastitom	12436
kulturi	12437
glazbena	12438
iskusni	12439
2003	12440
počinju	12441
turistički	12442
bogata	12443
polovici	12444
funkciji	12445
uslugu	12446
prirodne	12447
povrće	12448
filipa	12449
gorivo	12450
schol	12451
mijenjaju	12452
preuzela	12453
demokratske	12454
volimo	12455
izmjena	12456
subsection	12457
razgovore	12458
uređaj	12459
asistencije	12460
jakirovi	12461
oblačno	12462
karakter	12463
popraviti	12464
autocesta	12465
priorite	12466
libanonu	12467
postroje	12468
geopoliti	12469
##_article_id	12470
thomp	12471
jedanaeste	12472
invazije	12473
main_article_id	12474
klimatskih	12475
veoma	12476
futsal	12477
hollywo	12478
ata	12479
ml	12480
oce	12481
pjaca	12482
shva	12483
##vska	12484
##76	12485
##nist	12486
pole	12487
pogu	12488
##teru	12489
zapje	12490
zabili	12491
##toru	12492
domini	12493
dovela	12494
odvoji	12495
prola	12496
##njenog	12497
press	12498
##čiću	12499
##celo	12500
papri	12501
kuri	12502
ljuti	12503
##bule	12504
glavo	12505
":[	12506
habijan	12507
krivi	12508
postanu	12509
importa	12510
stići	12511
zdrave	12512
stepe	12513
političkom	12514
alca	12515
najboljem	12516
proizvodima	12517
vojnici	12518
spasi	12519
spavati	12520
zona	12521
zatvoren	12522
udalji	12523
splitske	12524
slobodnog	12525
potpuni	12526
vrijedne	12527
središnji	12528
gradona	12529
subot	12530
odrasle	12531
zastupnica	12532
osnovnoj	12533
komentare	12534
podijelili	12535
spomenu	12536
iznosio	12537
prepoznali	12538
uvodi	12539
engleskog	12540
zahvaljujem	12541
posljedicama	12542
sustave	12543
iskoristili	12544
odgovarati	12545
reality	12546
lakši	12547
britaniji	12548
stabilno	12549
skriva	12550
vjenčanje	12551
autoceste	12552
odabrala	12553
##352	12554
##grafiju	12555
kredita	12556
hgss	12557
incptvocmimagegalleryimage	12558
ble	12559
h_271988	12560
kw	12561
k_271988	12562
o_271988	12563
##os	12564
##bna	12565
##ise	12566
##691	12567
napred	12568
##rovu	12569
##vizije	12570
dame	12571
##venih	12572
neja	12573
izri	12574
##staviti	12575
prepri	12576
##boli	12577
vite	12578
##ljno	12579
drugdje	12580
ban	12581
bake	12582
jones	12583
tipi	12584
certi	12585
".,	12586
braća	12587
izrade	12588
gradskih	12589
godišnju	12590
putnici	12591
fener	12592
šarić	12593
trošak	12594
##lnikom	12595
hajduko	12596
koncept	12597
funti	12598
grupu	12599
tjeste	12600
kaznenom	12601
poduzima	12602
pričao	12603
pp_271988	12604
idućeg	12605
mnoštvo	12606
iskorak	12607
nadaju	12608
zadnjoj	12609
podići	12610
birači	12611
kritika	12612
analizu	12613
provjera	12614
proslavila	12615
trajao	12616
prisutni	12617
pružaju	12618
pozivam	12619
strogo	12620
okupili	12621
autobus	12622
h_272036	12623
k_272036	12624
o_272036	12625
pp_272036	12626
diplomi	12627
telefon	12628
primorca	12629
idealno	12630
optimisti	12631
apeli	12632
božića	12633
napetosti	12634
provedbu	12635
volonte	12636
memorija	12637
iznajmljiva	12638
opus	12639
evakui	12640
pogrije	12641
moskvi	12642
dijabete	12643
hodoča	12644
www	12645
ella	12646
inom	12647
ogor	12648
ubaci	12649
zma	12650
ća	12651
đako	12652
šmi	12653
##šnice	12654
povreme	12655
##ret	12656
koži	12657
košu	12658
##daš	12659
dam	12660
daru	12661
dori	12662
kampu	12663
##mović	12664
izlaze	12665
sastavlja	12666
mozak	12667
toksi	12668
##ljenost	12669
renata	12670
paketa	12671
##čarima	12672
##ženu	12673
lisa	12674
lider	12675
divlji	12676
starom	12677
stabla	12678
sila	12679
sinu	12680
bale	12681
devede	12682
garan	12683
spot	12684
##ndana	12685
ancelo	12686
cigare	12687
sjede	12688
sreća	12689
tvrdnje	12690
zdravo	12691
otkrivaju	12692
gur	12693
gusto	12694
uspjehe	12695
organizirao	12696
ulazu	12697
nastupu	12698
visokom	12699
prodati	12700
napore	12701
zadobio	12702
trgovinu	12703
izvoz	12704
kvaliteti	12705
plaćaju	12706
očiju	12707
produce	12708
nestao	12709
zdravstvenim	12710
elimo	12711
prekinuti	12712
konferenciju	12713
vlasnica	12714
proslava	12715
1992	12716
dronova	12717
vanjske	12718
navedeni	12719
žrtvama	12720
energetske	12721
procjene	12722
prikazujemo	12723
stvorio	12724
vašoj	12725
antonija	12726
dovoljan	12727
utječu	12728
negativno	12729
haljini	12730
dužnosnik	12731
izabrati	12732
sarajevo	12733
helikopter	12734
banaka	12735
suzbija	12736
gastronom	12737
neugodno	12738
hezbolaha	12739
jugozapadni	12740
usavr	12741
otpadom	12742
pedago	12743
hektara	12744
))	12745
mlina	12746
ole	12747
tlak	12748
uhva	12749
zvali	12750
##udio	12751
##tljiva	12752
##rbi	12753
##aa	12754
##bl	12755
##_na	12756
##znost	12757
##wer	12758
##renim	12759
##display	12760
dabro	12761
suvla	12762
##strati	12763
izbacio	12764
satu	12765
rađa	12766
pridrža	12767
miss	12768
nosa	12769
##zali	12770
voze	12771
stavili	12772
baza	12773
desne	12774
čekao	12775
krapi	12776
broji	12777
dodatna	12778
cijevi	12779
##_2352	12780
slavlja	12781
životno	12782
##terdisplay	12783
političkoj	12784
dionici	12785
stvarati	12786
ukratko	12787
dram	12788
dvoranu	12789
umjereno	12790
110	12791
dugom	12792
glue	12793
porastao	12794
zatre	12795
kartu	12796
temelje	12797
naglasak	12798
opasna	12799
sljedećeg	12800
tradicija	12801
predavanje	12802
domaćim	12803
gornji	12804
večere	12805
vrhunske	12806
pisanju	12807
elements	12808
sjeverna	12809
smanjenju	12810
dočekao	12811
završetku	12812
priopćenje	12813
popularne	12814
toplije	12815
zanimljive	12816
razot	12817
kalifor	12818
agresije	12819
opisala	12820
savjetnik	12821
trenerom	12822
predložio	12823
maslina	12824
dizajner	12825
napomenuti	12826
sjeveroisto	12827
##_2704	12828
upitao	12829
detaljima	12830
kijevu	12831
teritorij	12832
liverpool	12833
##element	12834
pokrovi	12835
jdatabasequeryelement	12836
##elektra	12837
##furl_	12838
##_235255	12839
.'	12840
dnu	12841
išta	12842
išlo	12843
ji	12844
zde	12845
jez	12846
nagađa	12847
##vam	12848
##vanog	12849
biskup	12850
prolazak	12851
##njenom	12852
prefe	12853
totten	12854
##zili	12855
##zivao	12856
manj	12857
temi	12858
bombe	12859
vatra	12860
druženja	12861
svete	12862
kud	12863
peć	12864
##prem	12865
##buhva	12866
krajo	12867
strast	12868
stranim	12869
vrtu	12870
opciju	12871
lete	12872
slam	12873
počele	12874
postaja	12875
snaž	12876
osjetiti	12877
##mann	12878
većih	12879
##njskog	12880
kandidate	12881
karci	12882
hranji	12883
ključan	12884
kolestero	12885
demokrati	12886
sjajnu	12887
klini	12888
izazovi	12889
crveno	12890
vezana	12891
podigao	12892
gorju	12893
plenkoviću	12894
zaraditi	12895
branitelj	12896
prirodu	12897
gorici	12898
ljudski	12899
afp	12900
wit	12901
strateški	12902
volite	12903
računati	12904
komad	12905
snimili	12906
studij	12907
zamijenio	12908
dobitnik	12909
haljina	12910
zadnjeg	12911
osnivač	12912
poduzetnik	12913
sadrže	12914
potrošača	12915
uobičajeno	12916
hezbolla	12917
ohra	12918
odabir	12919
spašavanja	12920
eurosonga	12921
arsena	12922
ronaldo	12923
postrojbe	12924
filozof	12925
prepreka	12926
razvese	12927
cle	12928
uta	12929
whi	12930
špe	12931
štet	12932
##čla	12933
##cs	12934
##tiranje	12935
jesmo	12936
naki	12937
##tero	12938
zagovara	12939
kosi	12940
##losti	12941
kapi	12942
preli	12943
mole	12944
govoru	12945
##zina	12946
mare	12947
##bana	12948
vile	12949
##ženim	12950
##ćenog	12951
##ćevu	12952
prtlja	12953
beka	12954
##sove	12955
planovi	12956
krajevima	12957
##gledno	12958
ostavili	12959
obilaz	12960
##tnike	12961
slabi	12962
faši	12963
civila	12964
trka	12965
##škovi	12966
guma	12967
##đite	12968
lokacijama	12969
sigurnosni	12970
šume	12971
gradove	12972
istraživanju	12973
ključnu	12974
ids	12975
uživali	12976
uništa	12977
pravilno	12978
predanost	12979
zabava	12980
značajne	12981
turbule	12982
ljudske	12983
ekstre	12984
odgoj	12985
putuju	12986
državljana	12987
proizvođač	12988
slovenski	12989
medved	12990
dodik	12991
stambene	12992
ogromna	12993
trofeja	12994
kupili	12995
ispitivanja	12996
gimnasti	12997
baterije	12998
dragana	12999
##script	13000
izdvojiti	13001
moskva	13002
dohodak	13003
demanti	13004
sveobuhva	13005
07	13006
clu	13007
tvoje	13008
uba	13009
uđe	13010
ustra	13011
##gni	13012
##chor	13013
##roni	13014
##risa	13015
koko	13016
koba	13017
##cia	13018
sema	13019
odveo	13020
##stal	13021
gorana	13022
golove	13023
rezerva	13024
##čanin	13025
bok	13026
##ljoj	13027
pedija	13028
tin	13029
lonča	13030
kristina	13031
izradu	13032
najboga	13033
poznatim	13034
hipo	13035
zaposli	13036
učinila	13037
gledajući	13038
imenu	13039
splitska	13040
kruno	13041
zaključiti	13042
unapre	13043
odabe	13044
##ljivost	13045
kulturnog	13046
odgovorni	13047
##kovac	13048
osjećate	13049
ključ	13050
zlatna	13051
pratiteljima	13052
izgraditi	13053
kvalitetan	13054
uputili	13055
uspješne	13056
obrazovanju	13057
otvaraju	13058
mirko	13059
podržavaju	13060
legende	13061
saznati	13062
izlaga	13063
nazvati	13064
pridružio	13065
kanalu	13066
predizbor	13067
proizvođači	13068
inteligencija	13069
budimir	13070
nastupima	13071
priopćio	13072
arap	13073
prognoza	13074
adresi	13075
ovogodišnjeg	13076
celzije	13077
vrhovni	13078
kaštela	13079
bombardi	13080
kapetana	13081
influencerica	13082
osmijeh	13083
razumjeti	13084
virtual	13085
proteklog	13086
suparni	13087
viroviti	13088
lepogla	13089
sh	13090
čvo	13091
##rc	13092
##nzije	13093
##chu	13094
##64	13095
##zli	13096
nadi	13097
nago	13098
zasje	13099
zabija	13100
##lozima	13101
izve	13102
izbio	13103
rang	13104
prenijeti	13105
prenose	13106
##del	13107
##binu	13108
##mica	13109
rezi	13110
vice	13111
osva	13112
njenom	13113
sile	13114
den	13115
##ntrote	13116
##rth	13117
trajno	13118
optima	13119
ovakva	13120
slatko	13121
sovjet	13122
holi	13123
stupanj	13124
##braja	13125
istine	13126
kompe	13127
##leksi	13128
poslovnom	13129
pojavljuje	13130
taksi	13131
##ry_	13132
##ryja	13133
srednju	13134
srednjih	13135
razinama	13136
francusku	13137
tražila	13138
itemimagegallery	13139
predsjedništva	13140
unutarnje	13141
predstavi	13142
predstavili	13143
stvaranja	13144
ozbiljna	13145
amba	13146
stvarnost	13147
uspješna	13148
izložbi	13149
nedostatka	13150
uvoz	13151
trajala	13152
##mattachments	13153
romana	13154
ocjenu	13155
svečanosti	13156
##ttitle	13157
akademije	13158
zapovjednika	13159
tehnologiju	13160
ljepote	13161
igračem	13162
ukazuju	13163
privukla	13164
dugoročno	13165
catitemvideo	13166
intervencija	13167
katastrofal	13168
catmeta	13169
smrtono	13170
najgori	13171
vaših	13172
tvornice	13173
kapitala	13174
pljuskovi	13175
itemauthor	13176
itemautho	13177
itemrelate	13178
zainteresirani	13179
##phic	13180
##ntrotext	13181
ei	13182
my	13183
tka	13184
udi	13185
ugri	13186
##word	13187
polje	13188
popisa	13189
zaka	13190
kozme	13191
korona	13192
suđenja	13193
kat	13194
odga	13195
##lete	13196
izgovo	13197
prozor	13198
sapu	13199
pretko	13200
##zić	13201
refe	13202
retro	13203
remija	13204
mišića	13205
vege	13206
vidu	13207
tagi	13208
boo	13209
puko	13210
##bet	13211
##gina	13212
siriji	13213
desi	13214
jogu	13215
tiska	13216
dječa	13217
fio	13218
figu	13219
rod	13220
las	13221
izboriti	13222
prvaci	13223
pojasa	13224
ukrajinci	13225
slična	13226
vijeću	13227
gledatelje	13228
ivanec	13229
zraku	13230
##vedeni	13231
sportskom	13232
određenim	13233
šubi	13234
oborine	13235
nedjeljom	13236
vladajuće	13237
upozora	13238
smisao	13239
španjolsku	13240
predstavljati	13241
novcem	13242
skok	13243
kvalitetno	13244
predsjedničke	13245
produže	13246
pojedinih	13247
prosječne	13248
sjeverni	13249
djelatnost	13250
engleska	13251
dočekali	13252
with	13253
okolici	13254
proglasio	13255
zanimalo	13256
muzeju	13257
prihvatila	13258
zube	13259
eksplozi	13260
belgija	13261
privlači	13262
exc	13263
nepoznati	13264
sky	13265
dalmatinski	13266
ubojica	13267
front	13268
ferra	13269
leonar	13270
orkestra	13271
vrhovnog	13272
iselje	13273
martinović	13274
karogla	13275
domolju	13276
liverpoo	13277
standarda	13278
zahtijevaju	13279
macron	13280
pojašnjava	13281
fenomenal	13282
devedese	13283
spra	13284
upe	13285
utro	13286
##rstva	13287
##ek	13288
##brije	13289
##iza	13290
daro	13291
##cirati	13292
kamp	13293
negi	13294
ranji	13295
prekr	13296
modi	13297
##zila	13298
reformi	13299
masti	13300
matt	13301
##čenim	13302
##čavanja	13303
punu	13304
##živanja	13305
predstoje	13306
dublje	13307
lova	13308
##her	13309
lede	13310
slažu	13311
##planta	13312
umjetna	13313
##ssije	13314
raspro	13315
rasple	13316
ljubavni	13317
društveno	13318
posjeduje	13319
teškoj	13320
gospodina	13321
studente	13322
organizator	13323
bijelog	13324
zid	13325
predstavljen	13326
klinike	13327
osnovna	13328
radosti	13329
##pisuju	13330
izložbu	13331
potrošnju	13332
medicinska	13333
profil	13334
uzela	13335
saznali	13336
proračunu	13337
komunikaciju	13338
profesorica	13339
zabilježen	13340
termin	13341
navodeći	13342
zaustavili	13343
vrtiću	13344
recikli	13345
sedmi	13346
svladala	13347
nizozemske	13348
švicarske	13349
sindika	13350
medvje	13351
privukao	13352
težine	13353
biljke	13354
limuna	13355
stoljeću	13356
arsenal	13357
kviz	13358
suspendi	13359
volks	13360
danijel	13361
lopez	13362
a3	13363
adu	13364
oma	13365
udjela	13366
wta	13367
žar	13368
##are	13369
##cker	13370
##65	13371
##zga	13372
##]",	13373
naiz	13374
zalaga	13375
dalo	13376
sevi	13377
kai	13378
sabo	13379
##stana	13380
##njenja	13381
prired	13382
primila	13383
##bie	13384
##pozi	13385
##mišlje	13386
minera	13387
vedran	13388
borili	13389
javili	13390
dikta	13391
najbit	13392
balan	13393
2030	13394
##jor	13395
bej	13396
podjedna	13397
potpis	13398
##hen	13399
kišu	13400
radije	13401
radija	13402
stotinu	13403
leže	13404
anton	13405
##vniji	13406
klupu	13407
##godišnju	13408
lijekove	13409
zdravi	13410
stekao	13411
istok	13412
snažnu	13413
troši	13414
američkom	13415
jednoga	13416
##opskr	13417
uvjet	13418
spavanja	13419
tadašnji	13420
lokalnoj	13421
kvalifici	13422
neovla	13423
klase	13424
prodaji	13425
bijelih	13426
struko	13427
ponudio	13428
fotografiji	13429
gospodarske	13430
vezan	13431
doživjeli	13432
medicinskih	13433
okruženje	13434
započeli	13435
odlaga	13436
posjetiteljima	13437
naučio	13438
okupa	13439
tehničke	13440
prehrani	13441
sudionike	13442
prijetnju	13443
koaliciju	13444
eksplozije	13445
pamćenje	13446
kretanje	13447
prirodni	13448
vodoopskr	13449
treneru	13450
albanije	13451
preselio	13452
zainteresira	13453
nikakvu	13454
livaković	13455
imuno	13456
motocikli	13457
kotaru	13458
transfera	13459
komore	13460
sjevernokore	13461
zadovoljiti	13462
siniša	13463
dizel	13464
intelektual	13465
fenerbah	13466
razotkri	13467
ocem	13468
xi	13469
##jković	13470
##13	13471
naletio	13472
pode	13473
porno	13474
zastava	13475
dat	13476
doslje	13477
izvesti	13478
##kular	13479
##zivaju	13480
##čici	13481
page	13482
paid	13483
većeg	13484
##ljavanje	13485
inse	13486
stavila	13487
sinom	13488
razlozi	13489
razredu	13490
pera	13491
tita	13492
potru	13493
uzva	13494
layo	13495
##trafields	13496
kit	13497
kišom	13498
##štvom	13499
krizu	13500
stolu	13501
orban	13502
aktivni	13503
aktivan	13504
svježi	13505
rio	13506
rimu	13507
danska	13508
svjetlu	13509
hep	13510
frank	13511
pretpla	13512
ivanom	13513
sportska	13514
povećanju	13515
šuta	13516
marine	13517
izbornu	13518
odgovorno	13519
čekali	13520
izgledao	13521
ukupnom	13522
predsjedničkih	13523
privatno	13524
večeru	13525
namješta	13526
potraga	13527
nadove	13528
prošloj	13529
vatrene	13530
1993	13531
upala	13532
organizirali	13533
brzina	13534
električni	13535
dočekati	13536
pacijentima	13537
derbija	13538
prijateljstva	13539
dogovoru	13540
atmosferi	13541
dubrovačke	13542
bivšem	13543
jutarnjim	13544
stvorili	13545
walesa	13546
pohvalila	13547
pravda	13548
košarkaši	13549
london	13550
ukidanje	13551
osniva	13552
##tegories	13553
rumunjska	13554
mlijeko	13555
statistiku	13556
preokret	13557
vijećnici	13558
infekcije	13559
federacije	13560
prilagoditi	13561
nestrp	13562
important	13563
najbitnije	13564
layout	13565
cop	13566
esti	13567
iri	13568
mma	13569
ubiti	13570
zgro	13571
##tnici	13572
##čvr	13573
##znicu	13574
##tiku	13575
zapita	13576
dogra	13577
domova	13578
sučić	13579
iznu	13580
rane	13581
predan	13582
tou	13583
redak	13584
testo	13585
pate	13586
višak	13587
##graphic	13588
bogo	13589
##vud	13590
##hoda	13591
posred	13592
bezu	13593
perili	13594
pivo	13595
usvoje	13596
prijepodne	13597
živjeli	13598
eurozo	13599
ostanu	13600
ostalima	13601
stoper	13602
ludo	13603
ribo	13604
lijep	13605
srebre	13606
pomogla	13607
napala	13608
šime	13609
##ktori	13610
dvojicu	13611
brilji	13612
##njske	13613
župana	13614
imenova	13615
nastupom	13616
kruha	13617
pokrenuli	13618
unatrag	13619
iskustvom	13620
čekamo	13621
##cher	13622
izraelskih	13623
zimi	13624
##mber	13625
turističkih	13626
nadah	13627
olimpijskog	13628
superscript	13629
privatnim	13630
potragu	13631
##ticles	13632
street	13633
harmo	13634
manjih	13635
vanjski	13636
strategija	13637
sustavi	13638
globalno	13639
kazalište	13640
načelnika	13641
fokusu	13642
dostupni	13643
proširenje	13644
seksualne	13645
postavljen	13646
švicarska	13647
akadem	13648
besplatan	13649
inspiracija	13650
kupuju	13651
related	13652
dodjeli	13653
partiza	13654
najpoznatiji	13655
zaobi	13656
analitičari	13657
osvojenih	13658
ponajprije	13659
anonim	13660
dovelo	13661
jadrolinije	13662
gabriel	13663
guardio	13664
fullhd	13665
četvornih	13666
maestra	13667
required	13668
grmoja	13669
exclude	13670
cy	13671
cli	13672
etkom	13673
##ea	13674
##elom	13675
##sha	13676
##gge	13677
##pto	13678
##cho	13679
##nile	13680
##lijom	13681
koš	13682
##jici	13683
seba	13684
dosti	13685
nebu	13686
odva	13687
birati	13688
ratnih	13689
moza	13690
monta	13691
modne	13692
##njama	13693
vega	13694
##ljana	13695
meču	13696
bou	13697
osmini	13698
punim	13699
life	13700
vožnja	13701
benko	13702
pravima	13703
praćenje	13704
duća	13705
rundi	13706
musk	13707
rob	13708
živjela	13709
želu	13710
južnom	13711
##broji	13712
cijep	13713
##snike	13714
slom	13715
mlađa	13716
povela	13717
crte	13718
snagama	13719
vremenske	13720
jednokra	13721
vojnih	13722
četvrtka	13723
udala	13724
posjetili	13725
ulicu	13726
##ljivosti	13727
odgovori	13728
modeli	13729
formira	13730
bijelo	13731
opore	13732
struke	13733
boljeg	13734
odigrala	13735
sudjelovanja	13736
unite	13737
jednogla	13738
bogati	13739
nestanka	13740
upute	13741
gospodarski	13742
stvarala	13743
postojeće	13744
posveće	13745
prekidu	13746
glasanje	13747
mirjana	13748
manjim	13749
odlasku	13750
ljudsko	13751
lošeg	13752
četr	13753
sjedinjenim	13754
čestitke	13755
parlamentarnih	13756
parlamentarnim	13757
prihvatlji	13758
poticanje	13759
negativne	13760
švedskoj	13761
destinacije	13762
sportova	13763
intervencije	13764
osminu	13765
kreveta	13766
"...,	13767
1989	13768
letjelica	13769
donošenje	13770
baterija	13771
moskve	13772
zaklade	13773
krumpir	13774
pratnji	13775
nijemci	13776
pucnja	13777
meghan	13778
ogled	13779
tki	13780
tporta	13781
##čja	13782
##isa	13783
##ctio	13784
##žnost	13785
##jević	13786
jean	13787
##rijom	13788
##taju	13789
##mane	13790
##neu	13791
##davno	13792
davati	13793
dalla	13794
sestri	13795
nevremena	13796
odboru	13797
propušta	13798
prometni	13799
propisima	13800
tenko	13801
nominira	13802
##zacijom	13803
padne	13804
pazite	13805
boban	13806
stroja	13807
javnu	13808
pula	13809
##ljivanje	13810
razmo	13811
kut	13812
kum	13813
pero	13814
prag	13815
mudro	13816
bub	13817
izborna	13818
nasje	13819
sreb	13820
pomoglo	13821
zahvala	13822
bilić	13823
ljetnih	13824
poslovima	13825
šala	13826
ponos	13827
##klop	13828
održavati	13829
vojvo	13830
lokaciju	13831
koncep	13832
službena	13833
posjedo	13834
ulicom	13835
vlastitog	13836
vlastitih	13837
tehnika	13838
glazbenih	13839
francuskom	13840
ukupni	13841
šibenča	13842
sljedeću	13843
odlične	13844
gorskom	13845
polovicu	13846
kupnje	13847
kritizirao	13848
posvetio	13849
nastupao	13850
potencijalni	13851
oblika	13852
1996	13853
skupu	13854
engleskom	13855
isplate	13856
pružanje	13857
prijateljstvo	13858
skupština	13859
znanstveno	13860
aktualnog	13861
5000	13862
financiranja	13863
eksplozija	13864
talijani	13865
razumijevanja	13866
navika	13867
navike	13868
tužitelja	13869
milos	13870
poštovanja	13871
australiji	13872
nevjerojatan	13873
haljine	13874
ukida	13875
oteža	13876
angelesu	13877
položaja	13878
poništi	13879
zaokru	13880
torbi	13881
najmlađe	13882
segmentu	13883
zatvoriti	13884
jezera	13885
bruxellesu	13886
mbappe	13887
zloupora	13888
naprosto	13889
%),	13890
__o	13891
aze	13892
avanje	13893
ec	13894
štra	13895
##ida	13896
##cm_	13897
##naka	13898
##viru	13899
doris	13900
kava	13901
##key	13902
##ljev	13903
redova	13904
noću	13905
##zale	13906
##zanju	13907
##ševića	13908
##sele	13909
bojim	13910
jas	13911
vatika	13912
pute	13913
##ben	13914
najlo	13915
dežu	13916
desnog	13917
beču	13918
##mus	13919
##značaj	13920
musli	13921
današnjeg	13922
današnjem	13923
otpje	13924
roland	13925
lobi	13926
objavilo	13927
mark	13928
parce	13929
prijavi	13930
pozivu	13931
drugome	13932
##ndri	13933
pobjeći	13934
poslovanju	13935
poslovnim	13936
##vers	13937
najvećem	13938
brinu	13939
franci	13940
raspa	13941
pronala	13942
sredstvo	13943
dubrov	13944
potvrdu	13945
određena	13946
2002	13947
upozorili	13948
udruzi	13949
uspomene	13950
bogatu	13951
zdravstvenom	13952
maksimu	13953
povezane	13954
prekinuo	13955
čitav	13956
apple	13957
1994	13958
350	13959
filipović	13960
turskoj	13961
stručnjakinja	13962
normalan	13963
dočekuje	13964
završena	13965
proširiti	13966
održivosti	13967
jedinstvena	13968
izvedbi	13969
prirodnih	13970
dominika	13971
kapacitet	13972
elektroni	13973
pozdravlja	13974
bazena	13975
sankcije	13976
šećer	13977
fronta	13978
energetsku	13979
pretjerano	13980
zaigrati	13981
televizije	13982
kninske	13983
zvjezdi	13984
suglasnost	13985
tokiju	13986
##bacuje	13987
zajec	13988
guverner	13989
__ocm_	13990
ogu	13991
tlu	13992
##rnosti	13993
##šnjom	13994
##cca	13995
##late	13996
##varu	13997
##nem	13998
sena	13999
suza	14000
kaz	14001
##mez	14002
##meteo	14003
prelije	14004
prikri	14005
##ljenju	14006
veteri	14007
vince	14008
tao	14009
##ljavanja	14010
##pića	14011
bonu	14012
boce	14013
##vuda	14014
baran	14015
bacio	14016
##song	14017
muž	14018
mura	14019
platio	14020
planova	14021
##đujemo	14022
kinu	14023
vjere	14024
##vljava	14025
risto	14026
impre	14027
pitati	14028
lijevom	14029
liječenju	14030
sretno	14031
godišnjem	14032
proizlazi	14033
projektom	14034
brz	14035
brze	14036
pojasu	14037
hajdaš	14038
glume	14039
glupo	14040
zoo	14041
udaraca	14042
javnoj	14043
black	14044
kartona	14045
teškog	14046
obiteljskog	14047
marihua	14048
matea	14049
udruženja	14050
pomak	14051
španjolci	14052
filmski	14053
polaz	14054
osobnu	14055
osoblja	14056
gordana	14057
dokumenata	14058
zaposlenicima	14059
posvetiti	14060
posvećen	14061
povezati	14062
zamjena	14063
potrošnja	14064
međunarodnih	14065
medicinu	14066
parking	14067
prenosimo	14068
pacijent	14069
velebi	14070
palači	14071
doprinose	14072
prestaje	14073
zabrinjavaju	14074
imovinu	14075
prihod	14076
kanala	14077
ekonomske	14078
svrhe	14079
kretati	14080
stanovnike	14081
karaktera	14082
##ssia	14083
bazen	14084
ističući	14085
neobično	14086
molimo	14087
božinović	14088
afere	14089
provedbe	14090
stričak	14091
rafale	14092
masterche	14093
sugovornik	14094
sjedala	14095
dezinforma	14096
thomas	14097
##guage	14098
neopho	14099
08	14100
gli	14101
itko	14102
usam	14103
##tjed	14104
##rsko	14105
##ago	14106
##nic	14107
narati	14108
##lizacije	14109
##kovca	14110
##vanih	14111
##janja	14112
zadi	14113
zapisa	14114
##diji	14115
##neko	14116
karta	14117
izlije	14118
promišlja	14119
##kinju	14120
prega	14121
##mis	14122
##mite	14123
##mirom	14124
##panje	14125
mamu	14126
tech	14127
##sing	14128
paziti	14129
met	14130
vatru	14131
##gena	14132
njenog	14133
simo	14134
##zon	14135
balo	14136
penal	14137
pravni	14138
znaku	14139
otkup	14140
plavih	14141
rodri	14142
ženske	14143
vlaho	14144
automati	14145
bravo	14146
stutt	14147
tajnika	14148
dobroj	14149
zdrava	14150
nikakva	14151
genija	14152
šalice	14153
čuvati	14154
truda	14155
uvjeriti	14156
uvjereni	14157
pokazale	14158
društveni	14159
##šnjak	14160
koristila	14161
majkom	14162
tehnike	14163
emotivno	14164
rješava	14165
zlatka	14166
bijeloj	14167
optužio	14168
kontrolira	14169
predsjedničkim	14170
plaćati	14171
predstavnicima	14172
policijsku	14173
iznenađuju	14174
konačnih	14175
zelena	14176
privatnih	14177
razvoda	14178
##žavajući	14179
spomenika	14180
potrošnje	14181
objavljene	14182
međunarodnoj	14183
cure	14184
dočeka	14185
potpisali	14186
palače	14187
četvori	14188
pozivajući	14189
doprinijeti	14190
čestitao	14191
dokumentaciju	14192
umjetničke	14193
talijanska	14194
austrijski	14195
jedinstveni	14196
pamti	14197
vodosta	14198
stanovništvo	14199
izbjegavajte	14200
standarde	14201
raspoloženje	14202
švedska	14203
inovacije	14204
favorita	14205
simptoma	14206
opskrbe	14207
tribini	14208
dojke	14209
jednostavna	14210
zaostatka	14211
tjednima	14212
tvornici	14213
diskri	14214
istraživači	14215
tužiteljstvo	14216
planeta	14217
hezbolah	14218
eventualno	14219
najjači	14220
obnavlja	14221
twitter	14222
najljepših	14223
international	14224
sound	14225
toleran	14226
laboratori	14227
idealan	14228
sasluša	14229
ancelotti	14230
volkswa	14231
stuttga	14232
140	14233
sliko	14234
yu	14235
##ameri	14236
##ddy	14237
##vnije	14238
##nix	14239
##licama	14240
##novog	14241
##lažu	14242
##rini	14243
##vanu	14244
zalije	14245
konja	14246
kokte	14247
##dica	14248
##toga	14249
##jicom	14250
##loško	14251
odnio	14252
rame	14253
pristo	14254
monte	14255
##pove	14256
reše	14257
reklo	14258
manu	14259
mitro	14260
##čišće	14261
##čavanju	14262
obr	14263
##ljivom	14264
=>)	14265
posvuda	14266
best	14267
rusku	14268
##zujući	14269
kratke	14270
##fil	14271
želji	14272
služe	14273
slaga	14274
solo	14275
rivi	14276
srebr	14277
tvrdo	14278
problemu	14279
istočnoj	14280
ljetni	14281
prvakinja	14282
opena	14283
vremenima	14284
jedin	14285
šah	14286
franković	14287
rasvje	14288
desetke	14289
programima	14290
događaji	14291
važni	14292
prekora	14293
zračni	14294
pokreće	14295
potvrđeno	14296
šum	14297
studentima	14298
nacionalnim	14299
party	14300
zakone	14301
##landu	14302
izgledala	14303
optužbi	14304
izraelskim	14305
kvalitetne	14306
##utha	14307
očekivano	14308
polovica	14309
obilježavanja	14310
spomenuo	14311
iznositi	14312
green	14313
milijardu	14314
završetak	14315
reagirali	14316
sjedinjenih	14317
dokaze	14318
tradicionalni	14319
procjenu	14320
izrazili	14321
subjek	14322
okvira	14323
prihodi	14324
pristao	14325
kombinacije	14326
jedinstvenu	14327
razumijem	14328
sindikat	14329
neizbje	14330
prognoze	14331
220x146	14332
olakšati	14333
indeks	14334
trgovačkog	14335
sankcija	14336
upotrebu	14337
pristupiti	14338
tvornica	14339
administrati	14340
oporavlja	14341
koprivničko	14342
hvaru	14343
televizija	14344
garro	14345
krivotvore	14346
holivud	14347
sebasti	14348
ajno	14349
enog	14350
h_2717955	14351
k_2717955	14352
očaj	14353
o_2717955	14354
pja	14355
what	14356
##ille	14357
##14	14358
##yle	14359
##tivom	14360
nadigra	14361
##lis	14362
popović	14363
##lago	14364
##text	14365
konta	14366
kanta	14367
ned	14368
nevo	14369
nedi	14370
izgorje	14371
##kina	14372
moo	14373
##bilo	14374
pauze	14375
vedra	14376
javiti	14377
##žimo	14378
stabala	14379
prednja	14380
deko	14381
##jović	14382
pelje	14383
petom	14384
##ntnog	14385
otro	14386
ilić	14387
uzra	14388
uzgo	14389
##fija	14390
eurosong	14391
##teljicu	14392
riješili	14393
##fea	14394
postavi	14395
pjevati	14396
radman	14397
pozicionira	14398
pojavili	14399
hen	14400
deseci	14401
vuk	14402
vuka	14403
četvrtom	14404
hd_2720	14405
minus	14406
fotograf	14407
odrediti	14408
obiteljskih	14409
sredinu	14410
nacionalnom	14411
muškarcima	14412
2001	14413
pomoćnik	14414
značilo	14415
pp_2717955	14416
sljedećem	14417
produlji	14418
predao	14419
namjeru	14420
spomenute	14421
zapam	14422
zamjenica	14423
break	14424
pobjednici	14425
igrom	14426
1999	14427
upani	14428
organizirala	14429
suočavaju	14430
socijalnu	14431
doček	14432
kućama	14433
sustavom	14434
mađarskoj	14435
veselim	14436
oznake	14437
okrenuo	14438
dokazi	14439
paok	14440
igralište	14441
ocjena	14442
promašio	14443
naselje	14444
izvedba	14445
švicarskoj	14446
##ther	14447
titule	14448
postojanja	14449
ovogodišnjem	14450
kuhinje	14451
glumci	14452
pregovorima	14453
preostalih	14454
kupila	14455
ambicije	14456
uravnote	14457
drugačija	14458
kontrolirati	14459
skandal	14460
kamiona	14461
tunela	14462
borussije	14463
sastojci	14464
trgovinama	14465
reporterka	14466
iskorišta	14467
telegram	14468
dovoljna	14469
kalorija	14470
##meteoro	14471
**	14472
240	14473
ev	14474
ija	14475
uzo	14476
##rpa	14477
##rskim	14478
##jnom	14479
##lp	14480
##bnog	14481
##raciju	14482
##rator	14483
##nara	14484
sel	14485
nede	14486
neba	14487
odbacio	14488
bibli	14489
gotov	14490
##ljenima	14491
retori	14492
matije	14493
tetova	14494
pass	14495
bosa	14496
janje	14497
likvi	14498
trenirati	14499
##šima	14500
najsla	14501
predškol	14502
perce	14503
ženi	14504
lasto	14505
labu	14506
audio	14507
##ntica	14508
veličan	14509
leti	14510
andro	14511
onko	14512
čaj	14513
tvrđa	14514
istoime	14515
ukrade	14516
članka	14517
pojavljuju	14518
ukrajinskog	14519
ponosno	14520
slikar	14521
112	14522
događajima	14523
bliži	14524
interve	14525
izjavama	14526
pokretu	14527
##šnjaka	14528
povećao	14529
klapa	14530
oborina	14531
glazbenog	14532
struka	14533
dobavlja	14534
gita	14535
pratitelje	14536
zajedničkog	14537
spomenik	14538
nadogra	14539
centara	14540
fizičke	14541
boljim	14542
barto	14543
nadležnosti	14544
površinu	14545
narud	14546
stajališta	14547
epizodu	14548
švedske	14549
dodjelu	14550
loših	14551
celtic	14552
povlači	14553
340x226	14554
pismu	14555
upotrebe	14556
olmo	14557
vitamina	14558
postignuća	14559
dojavu	14560
mirisa	14561
otpornosti	14562
naslovom	14563
##roteh	14564
strijelci	14565
evakua	14566
registarskih	14567
karlovac	14568
sjeverozapadni	14569
varteks	14570
orijenti	14571
bartulica	14572
fascina	14573
volodimir	14574
otputo	14575
fiorenti	14576
,)	14577
fleksi	14578
ivu	14579
smet	14580
##rki	14581
##bb	14582
##fc	14583
##fri	14584
nasa	14585
poga	14586
kopa	14587
sea	14588
sudar	14589
nekon	14590
odgodi	14591
odjek	14592
##menka	14593
##gori	14594
prevr	14595
prepusti	14596
preferen	14597
priveden	14598
tego	14599
temat	14600
##čićem	14601
pano	14602
vesla	14603
##pima	14604
meme	14605
##žavanju	14606
punih	14607
intri	14608
##šine	14609
najka	14610
##hod	14611
podvo	14612
piva	14613
pito	14614
rupe	14615
robu	14616
trake	14617
doktora	14618
tijelima	14619
srča	14620
fali	14621
nekoć	14622
mladu	14623
brane	14624
brašno	14625
dobrovolj	14626
stigne	14627
obraza	14628
milijune	14629
očevida	14630
##kupio	14631
filmove	14632
održano	14633
čude	14634
hajdukom	14635
blizak	14636
lokalnom	14637
glazbom	14638
natjecatelja	14639
automobilima	14640
mariju	14641
kaznenu	14642
izvodi	14643
nogometnom	14644
račune	14645
infla	14646
pratitelji	14647
mislimo	14648
plaćanje	14649
oprezni	14650
zadarski	14651
povezana	14652
nazivaju	14653
svjedoče	14654
postupke	14655
##tivaca	14656
pliva	14657
saznao	14658
upisala	14659
prehrana	14660
asisti	14661
perišića	14662
ozljedu	14663
najvažnija	14664
ocjene	14665
posavec	14666
lasagne	14667
gostovanja	14668
stajati	14669
dosadašnji	14670
pretpostav	14671
dizajnira	14672
užas	14673
namijenjen	14674
platformu	14675
doživljaj	14676
dalmatinska	14677
##ponent	14678
pročelnik	14679
zanemari	14680
ugljiko	14681
otuđi	14682
adriatic	14683
razmislite	14684
farmace	14685
azerba	14686
ažu	14687
ero	14688
sl	14689
##tskog	14690
##oto	14691
##oksi	14692
##232	14693
##terom	14694
##vićem	14695
##cipi	14696
sestara	14697
katu	14698
probio	14699
probija	14700
proljeća	14701
##state	14702
rai	14703
##ket	14704
prebro	14705
tony	14706
gotova	14707
mau	14708
tat	14709
state	14710
sinja	14711
razrije	14712
piroteh	14713
mjeru	14714
tuče	14715
glavnoj	14716
svira	14717
postotak	14718
rijekom	14719
slabije	14720
1945	14721
solin	14722
##vitim	14723
postavili	14724
lijepu	14725
smat	14726
prošloga	14727
umjerena	14728
nastaje	14729
nastavu	14730
spavanje	14731
prostorijama	14732
smjene	14733
nekak	14734
ljubavne	14735
pronađe	14736
službenom	14737
grčke	14738
groblju	14739
nacionalna	14740
transpo	14741
osjećao	14742
novoro	14743
optužen	14744
dnevne	14745
##larnih	14746
savezu	14747
nalazio	14748
komuni	14749
sljedeća	14750
filmske	14751
kvalitetni	14752
putovati	14753
institut	14754
kategorijama	14755
objavljenom	14756
dizajna	14757
trajalo	14758
članku	14759
prisutna	14760
prijedlogu	14761
ljubitelji	14762
predviđeno	14763
presudu	14764
sjedište	14765
sjedištem	14766
oružjem	14767
županijski	14768
koreje	14769
toplinski	14770
ispravno	14771
##kovcu	14772
gostovanje	14773
režima	14774
režiji	14775
povući	14776
navikli	14777
egziste	14778
tenisačica	14779
priopćili	14780
dokazati	14781
izvukli	14782
uslijedilo	14783
zbivanja	14784
široko	14785
postupaka	14786
karata	14787
uništiti	14788
konstantno	14789
istje	14790
tlaka	14791
najnoviji	14792
drukči	14793
kreativnost	14794
samopouzdanje	14795
torcida	14796
podrijetla	14797
##urop	14798
nepravilnosti	14799
neprestano	14800
veterinar	14801
percep	14802
")	14803
cri	14804
spro	14805
{"	14806
##dba	14807
##mb	14808
##mbo	14809
##_gallery	14810
##38	14811
##žju	14812
##fle	14813
##tiranja	14814
nalog	14815
naklo	14816
napušte	14817
##liraju	14818
##teh	14819
zasto	14820
sefurl_	14821
dosu	14822
donira	14823
odvaja	14824
##leu	14825
izvore	14826
izvana	14827
progre	14828
##stanu	14829
##gove	14830
##gale	14831
##porati	14832
reba	14833
##sine	14834
##cer	14835
nizom	14836
meti	14837
lika	14838
disko	14839
razbija	14840
peta	14841
penja	14842
ispe	14843
znanost	14844
otpo	14845
rođa	14846
rodnom	14847
prijetio	14848
##štenja	14849
krivim	14850
impe	14851
istoka	14852
istočne	14853
##zirano	14854
kazah	14855
svjetskoj	14856
napravite	14857
čula	14858
trudna	14859
desetaka	14860
programom	14861
krsta	14862
grudi	14863
pravobrani	14864
nezapa	14865
##cjenji	14866
smiri	14867
pratila	14868
kupce	14869
##fikacije	14870
zapalio	14871
brekalo	14872
kupao	14873
savjetu	14874
šansa	14875
doznati	14876
mališa	14877
alat	14878
antioksi	14879
saznala	14880
umre	14881
##689	14882
napustila	14883
posudbu	14884
pridružiti	14885
nemoć	14886
galeriji	14887
omogućio	14888
omiljeni	14889
režim	14890
terapije	14891
propustite	14892
sportom	14893
edukacije	14894
stambenih	14895
disciplini	14896
optužnica	14897
donošenja	14898
međunarodno	14899
čokolade	14900
kafića	14901
turneje	14902
uklanjanje	14903
kemika	14904
valentina	14905
budže	14906
knoll	14907
pomiješajte	14908
prokomentirao	14909
štrajka	14910
fleksibi	14911
azerbajd	14912
"?	14913
06	14914
ea	14915
hre	14916
ubu	14917
##tch	14918
##žje	14919
##54	14920
##tiju	14921
##tici	14922
##ništvo	14923
##noma	14924
podo	14925
##ring	14926
kosa	14927
suncu	14928
izma	14929
sadu	14930
##njenu	14931
prikla	14932
##stih	14933
mostar	14934
rene	14935
text	14936
mišić	14937
##činko	14938
taman	14939
nisko	14940
bolog	14941
##žine	14942
##rijera	14943
denis	14944
belli	14945
##ranti	14946
svinje	14947
##fied	14948
žita	14949
strastve	14950
spored	14951
trebam	14952
čip	14953
##stvari	14954
trijum	14955
andri	14956
srba	14957
fasa	14958
ciklo	14959
korisno	14960
šepa	14961
pozive	14962
medijski	14963
gube	14964
poznaju	14965
hita	14966
šalju	14967
održavanju	14968
sličnim	14969
##đima	14970
kršenje	14971
porasle	14972
najavljuju	14973
prvotno	14974
suradnika	14975
endan	14976
središnjem	14977
naglasi	14978
svakih	14979
pjesmi	14980
odrastao	14981
uživanje	14982
nogometnih	14983
učenje	14984
##prijeko	14985
srijeda	14986
mnoga	14987
osobna	14988
djevojčicu	14989
italiju	14990
pojedini	14991
pojedinaca	14992
lopti	14993
perso	14994
shop	14995
prosječno	14996
posvećena	14997
zemljište	14998
uhitila	14999
svjedok	15000
sjevera	15001
tenis	15002
kuhanje	15003
padati	15004
potpisati	15005
objekte	15006
putuje	15007
prekršajni	15008
napustili	15009
preporuka	15010
snimila	15011
pojačanje	15012
odustao	15013
promociju	15014
3000	15015
postavljena	15016
priopćilo	15017
gripe	15018
ujedinjenih	15019
princeze	15020
pripadaju	15021
afera	15022
zastave	15023
uhvatio	15024
molda	15025
ekonomi	15026
zaprim	15027
borussia	15028
egipat	15029
privremeni	15030
žestoko	15031
prsten	15032
priuštiti	15033
pretrpje	15034
reperto	15035
evidenti	15036
standardima	15037
":["	15038
az	15039
anju	15040
anama	15041
enom	15042
ubili	15043
ye	15044
##ere	15045
##hra	15046
##_ca	15047
##yan	15048
##licom	15049
domove	15050
suditi	15051
kašnje	15052
odsu	15053
odvra	15054
ratnog	15055
##kea	15056
prigod	15057
modni	15058
morski	15059
goru	15060
golovima	15061
##zijom	15062
##mid	15063
##mici	15064
mirni	15065
mirna	15066
##čenjem	15067
villa	15068
##ljama	15069
mete	15070
bolo	15071
jaru	15072
jastu	15073
##peu	15074
##bert	15075
starija	15076
siro	15077
bati	15078
##rijem	15079
kusto	15080
podravka	15081
pier	15082
pravog	15083
djevo	15084
##nt_	15085
otku	15086
usput	15087
konstitu	15088
##valio	15089
stola	15090
stopu	15091
novine	15092
slavu	15093
faktor	15094
autoh	15095
postaji	15096
izraže	15097
lijevi	15098
gradsko	15099
domaću	15100
him	15101
hitove	15102
pojavi	15103
vojno	15104
vojna	15105
učiti	15106
pokazatelj	15107
unaprje	15108
premijerom	15109
glazbenu	15110
bijelom	15111
stručno	15112
španjolskog	15113
savezni	15114
dalmaciju	15115
poretku	15116
bivših	15117
godišnjicu	15118
ogradu	15119
mnogobro	15120
žalost	15121
sveukup	15122
zasluženo	15123
suosje	15124
suočiti	15125
socijalni	15126
zahvaljuju	15127
pacijente	15128
liječnica	15129
navedenog	15130
stanovanja	15131
zapadnog	15132
dogovorio	15133
atmosfere	15134
pozornice	15135
saveznici	15136
globalne	15137
tradicionalne	15138
preporuke	15139
paula	15140
vlasništvo	15141
ovakvu	15142
koreogra	15143
kovač	15144
periši	15145
najvažniji	15146
igrališta	15147
jelačića	15148
slavonije	15149
stjepana	15150
regionalni	15151
zločine	15152
stradao	15153
papira	15154
##nnect	15155
ugovoru	15156
zimske	15157
netfli	15158
očuvanju	15159
idealna	15160
meteoa	15161
stožeru	15162
krevet	15163
struktura	15164
krivnju	15165
magda	15166
helikoptera	15167
oraša	15168
božje	15169
nezavisni	15170
prilagođa	15171
neodlu	15172
sastojke	15173
knjižnice	15174
##auto	15175
nuklearne	15176
legitim	15177
rijetkih	15178
paralelno	15179
debitirao	15180
ružiča	15181
djed	15182
fle	15183
uvi	15184
ude	15185
umor	15186
##nčić	15187
##snici	15188
##bnih	15189
##288	15190
##zbi	15191
nacionali	15192
##lita	15193
##vaj	15194
##tal	15195
koru	15196
##ney	15197
##dara	15198
dometa	15199
kanad	15200
neči	15201
nesa	15202
nezna	15203
progu	15204
sani	15205
sanira	15206
previ	15207
##stite	15208
mame	15209
manjak	15210
mimo	15211
##čine	15212
can	15213
osnov	15214
pušten	15215
lin	15216
najs	15217
staru	15218
piti	15219
ruše	15220
##rty	15221
lav	15222
aut	15223
auti	15224
hana	15225
kita	15226
homo	15227
krenule	15228
##godišnjem	15229
sjesti	15230
pjevala	15231
stepi	15232
prošlom	15233
crnom	15234
istinski	15235
maloj	15236
maloproda	15237
higije	15238
vremenski	15239
smještena	15240
glumio	15241
##faši	15242
dinamov	15243
najava	15244
##mpatije	15245
uložiti	15246
skupio	15247
pravomoć	15248
majci	15249
odaz	15250
određenu	15251
prodao	15252
organizatora	15253
kulturnih	15254
kolona	15255
naposlje	15256
neuo	15257
ukupnog	15258
dnevnom	15259
izvode	15260
iznenaditi	15261
ekološki	15262
sjajni	15263
plod	15264
razvod	15265
elemenata	15266
bježa	15267
povezanosti	15268
greška	15269
uvođenja	15270
narodu	15271
organiziraju	15272
varaždinskoj	15273
plinom	15274
daljnjem	15275
skida	15276
sjećanje	15277
infrastruktura	15278
korek	15279
portalu	15280
berlin	15281
zabilježeno	15282
nadležnom	15283
okupio	15284
podruž	15285
inozemstva	15286
mostaru	15287
zauzela	15288
balkanu	15289
izoli	15290
anđela	15291
biciklisti	15292
uznemiru	15293
hzzo	15294
upotpu	15295
nezakonito	15296
reforme	15297
zaprijetio	15298
neretvanske	15299
imunitet	15300
alexander	15301
rođendana	15302
hospita	15303
naposljetku	15304
cho	15305
elu	15306
ile	15307
ivjeti	15308
spisa	15309
snove	15310
šve	15311
##trije	15312
##tska	15313
##nl	15314
##ep	15315
##era	15316
##gnula	15317
##98	15318
##fti	15319
##nitu	15320
koz	15321
##cial	15322
kabine	15323
##ken	15324
##njavanje	15325
revizi	15326
##paju	15327
##tui	15328
maske	15329
paru	15330
##šek	15331
vinici	15332
talaca	15333
##gradu	15334
medu	15335
važe	15336
puhat	15337
vola	15338
##sula	15339
baru	15340
predsjeda	15341
značiti	15342
gabrije	15343
muči	15344
samoza	15345
rođeni	15346
rodbi	15347
prijeći	15348
lat	15349
##štaju	15350
zbora	15351
hali	15352
vjerni	15353
objavom	15354
tijek	15355
fal	15356
postale	15357
lijevog	15358
sredo	15359
tajnica	15360
pozirala	15361
političar	15362
širem	15363
krov	15364
127	15365
1200	15366
svjetsku	15367
hezo	15368
##tivnosti	15369
filmovima	15370
trumpu	15371
uključiti	15372
desert	15373
##đivali	15374
vučko	15375
dugotraj	15376
pripremio	15377
porazom	15378
zdravstvu	15379
grčka	15380
određen	15381
ostvarenje	15382
istražiti	15383
osjećaja	15384
otvorenje	15385
postizanje	15386
struju	15387
pozvani	15388
španjolskom	15389
djelomice	15390
tržištima	15391
kontrola	15392
pratimo	15393
ozlijeđene	15394
zajedničkom	15395
zajedničkim	15396
zelenih	15397
funkcija	15398
posebnom	15399
obilježja	15400
mirror	15401
podržao	15402
ustavnih	15403
affle	15404
defici	15405
sveučilište	15406
dogovoriti	15407
nazvali	15408
tražeći	15409
financira	15410
naoča	15411
prihode	15412
starosti	15413
prijateljice	15414
industriju	15415
postojala	15416
pjesmama	15417
bazenu	15418
izabrani	15419
pridonijeti	15420
glasnogovornica	15421
zrinka	15422
humanitarne	15423
desnica	15424
koordi	15425
obroka	15426
servisa	15427
washingtonu	15428
kamion	15429
transformacije	15430
atletico	15431
pištolj	15432
pritvorskom	15433
detekti	15434
celzijevih	15435
tportal	15436
jedinstven	15437
najkasnije	15438
etak	15439
hell	15440
ocu	15441
##dži	15442
##lta	15443
##lnice	15444
##mrt	15445
##cku	15446
##0691	15447
##fron	15448
##ffa	15449
##530	15450
##reo	15451
zaslo	15452
dopla	15453
bil	15454
izvela	15455
princa	15456
##stici	15457
##gar	15458
##njaci	15459
rena	15460
niske	15461
vaga	15462
pustiti	15463
volju	15464
najznačaj	15465
stane	15466
stalni	15467
balisti	15468
razviti	15469
poslom	15470
pijan	15471
pothva	15472
znakova	15473
rujan	15474
rošti	15475
igranja	15476
sponta	15477
autu	15478
premalo	15479
zero	15480
braće	15481
milita	15482
brojka	15483
prijavili	15484
dioni	15485
poznatom	15486
osjeti	15487
osjetila	15488
1500	15489
ameriku	15490
naprave	15491
##ople	15492
zagrebačkih	15493
##rnande	15494
krši	15495
imenima	15496
##vedeno	15497
primjene	15498
surađivati	15499
hrgović	15500
ulogama	15501
vodećih	15502
osjećala	15503
postigla	15504
smith	15505
računal	15506
utvrdili	15507
snimljen	15508
agenciji	15509
dokumente	15510
komentator	15511
povezanih	15512
nedostajalo	15513
sukobi	15514
uredno	15515
glumice	15516
potrebni	15517
razmišljao	15518
engleskoj	15519
##nskoga	15520
besprijeko	15521
doznali	15522
ljubitelje	15523
sustavima	15524
realizaciju	15525
aktualne	15526
britanije	15527
konzumira	15528
stvorila	15529
stabilnosti	15530
seksualni	15531
kraljevske	15532
prirodnim	15533
spominju	15534
obavezno	15535
propustiti	15536
kuhinju	15537
ljepotu	15538
pridonosi	15539
privući	15540
##8650	15541
poželje	15542
pisma	15543
provedbi	15544
ispitivanje	15545
ispit	15546
gimnazije	15547
kompleks	15548
ohla	15549
poštuju	15550
jeftinije	15551
glumaca	15552
sugerira	15553
hrabrosti	15554
nadzorniku	15555
##_272327	15556
japanu	15557
spektakular	15558
procedura	15559
najniža	15560
bakterija	15561
biljaka	15562
najpopularnijih	15563
promjenjivo	15564
tromjesečju	15565
nivou	15566
aranž	15567
##_270768	15568
##_2723190	15569
gennaro	15570
brodogradili	15571
##_270435	15572
devedesetih	15573
bejru	15574
netflix	15575
gp	15576
ose	15577
sq	15578
##41	15579
##77	15580
##rone	15581
##novom	15582
##day	15583
serie	15584
##modi	15585
##kice	15586
mont	15587
toyo	15588
gospe	15589
magla	15590
tende	15591
pametni	15592
metar	15593
jasnu	15594
grade	15595
##djelo	15596
dejan	15597
rublja	15598
##ntnih	15599
roy	15600
love	15601
lavo	15602
##stera	15603
haa	15604
##heime	15605
kadar	15606
krizi	15607
sok	15608
lukse	15609
stigle	15610
politikom	15611
prošlih	15612
fotogale	15613
komplika	15614
franko	15615
vojsci	15616
rashla	15617
##đivanju	15618
reak	15619
programi	15620
vijek	15621
važnije	15622
splitskoj	15623
pokušavali	15624
grlić	15625
surađuje	15626
170	15627
tjesko	15628
sudara	15629
šušnja	15630
poluoto	15631
##ard	15632
hrabri	15633
ključnim	15634
izdano	15635
osudio	15636
dolazili	15637
sklop	15638
promijenili	15639
snimljena	15640
polovice	15641
povrat	15642
zarade	15643
prepoznao	15644
brea	15645
pobjedni	15646
pobjednički	15647
požaru	15648
streljiva	15649
mržnje	15650
zaslužili	15651
razmišljanje	15652
profila	15653
afgani	15654
odgovarajući	15655
strategiju	15656
poboljšava	15657
stanovanje	15658
iskoristila	15659
izlasku	15660
budućim	15661
objektu	15662
nazvala	15663
spriječili	15664
dokumentacije	15665
jutarnja	15666
lovro	15667
kombinaciju	15668
regionalnog	15669
pamtiti	15670
rastere	15671
nevjerojatna	15672
egzo	15673
blagoslo	15674
prekrasno	15675
logično	15676
rumunjskoj	15677
morh	15678
njaci	15679
dubravka	15680
stožer	15681
zatekli	15682
kraljice	15683
suvremene	15684
makedonije	15685
obavještajne	15686
službama	15687
poteškoće	15688
glasine	15689
progovorila	15690
resursa	15691
jabuke	15692
contains	15693
prvoligaša	15694
kandidirati	15695
kamoli	15696
reflek	15697
psihijatri	15698
prometo	15699
u0107	15700
kramarić	15701
kremlj	15702
impresio	15703
ubudu	15704
%)	15705
avlja	15706
cra	15707
drva	15708
ever	15709
icu	15710
kk	15711
okr	15712
ujka	15713
zmija	15714
##tr	15715
##šnoj	15716
##ndom	15717
##ica	15718
##83	15719
##vostru	15720
zase	15721
##togla	15722
dapa	15723
sutkinja	15724
nepred	15725
##goda	15726
ram	15727
rablje	15728
##ljeva	15729
redar	15730
pato	15731
pazi	15732
via	15733
tama	15734
##čanka	15735
jabla	15736
trešnje	15737
najpre	15738
pranja	15739
duhu	15740
mješo	15741
fiska	15742
otkrije	15743
rovi	15744
uzdi	15745
buku	15746
loren	15747
židov	15748
laza	15749
sporo	15750
trebat	15751
vrtogla	15752
ostat	15753
vjera	15754
##strada	15755
trideset	15756
izborili	15757
##hija	15758
##hidra	15759
izađe	15760
dvaju	15761
nekolici	15762
počevši	15763
mary	15764
šefo	15765
župe	15766
istih	15767
komplici	15768
uspjelo	15769
nogome	15770
rezultirati	15771
##novac	15772
proteina	15773
##conda	15774
razlikuje	15775
voditelja	15776
momci	15777
najave	15778
vrijedna	15779
obiteljskom	15780
izbornih	15781
modelu	15782
osjećaje	15783
ivanca	15784
bijelim	15785
novost	15786
tražimo	15787
error	15788
kolaku	15789
dolazio	15790
iznenadila	15791
ozlijeđeni	15792
utvrđena	15793
crvenu	15794
zajedništva	15795
generalno	15796
podigli	15797
ustanovi	15798
ozbiljnije	15799
element	15800
značajna	15801
katalo	15802
požari	15803
upale	15804
ponašanju	15805
saborskog	15806
afd	15807
navedenih	15808
božićni	15809
aktualna	15810
procjena	15811
prikazuju	15812
vjerovali	15813
dokumentarni	15814
omiljena	15815
statusa	15816
pokretanje	15817
vjenčali	15818
osiguravaju	15819
nastoje	15820
obavljati	15821
nastupili	15822
odmoru	15823
provedeno	15824
konkurencija	15825
dodjele	15826
rješavati	15827
preživjeti	15828
zbilja	15829
međimurje	15830
potiču	15831
statistika	15832
isus	15833
mentor	15834
desnice	15835
obrok	15836
koncentracija	15837
beroša	15838
airline	15839
kriteriji	15840
udvostru	15841
anketama	15842
drukčije	15843
cipele	15844
tretman	15845
kancelar	15846
bosilj	15847
kontej	15848
nutricio	15849
referendu	15850
mlinarić	15851
luksem	15852
02	15853
03	15854
_t	15855
adam	15856
eru	15857
from	15858
hvar	15859
isa	15860
ivice	15861
kvo	15862
mysqli	15863
oa	15864
ptica	15865
tvoj	15866
ustvari	15867
##ngo	15868
##nny	15869
##sma	15870
##mgsize	15871
##blu	15872
##bser	15873
##cks	15874
##created	15875
##\/	15876
nakra	15877
##limit	15878
požu	15879
##maca	15880
zalu	15881
kosta	15882
suce	15883
neva	15884
neve	15885
##stala	15886
##njača	15887
##miš	15888
##mintrotext	15889
tempo	15890
##čemu	15891
##saj	15892
##ćivati	15893
##šenih	15894
care	15895
valovi	15896
lidera	15897
##živanje	15898
hrvatima	15899
najmo	15900
društava	15901
njeno	15902
bank	15903
deka	15904
people	15905
ispre	15906
island	15907
ruža	15908
muče	15909
ovosezo	15910
##đujući	15911
roči	15912
ženska	15913
##hana	15914
vlašić	15915
stranicu	15916
leđima	15917
fore	15918
aktivna	15919
hono	15920
brašna	15921
marco	15922
sjeo	15923
105	15924
šez	15925
tajnu	15926
povezi	15927
ozra	15928
uporno	15929
istražni	15930
obala	15931
ljevica	15932
uspjehu	15933
osjetno	15934
članicama	15935
##version	15936
##tivnost	15937
vojnike	15938
deseto	15939
četvrtog	15940
pronalazi	15941
najavi	15942
ovci	15943
zračnoj	15944
grčkoj	15945
prometnice	15946
zaključak	15947
ostvaruje	15948
moderne	15949
transport	15950
forte	15951
##lante	15952
nogometnu	15953
zahvalnosti	15954
zahtjevima	15955
predaje	15956
povijesno	15957
##dniku	15958
putovanju	15959
namjere	15960
domovinu	15961
planiranje	15962
biračima	15963
preminu	15964
turiste	15965
razumiju	15966
kategoriju	15967
čitatelj	15968
investitora	15969
glasali	15970
međunarodnu	15971
##way	15972
uredbe	15973
obvezu	15974
članstvo	15975
počinjenje	15976
hnb	15977
demokracije	15978
upisati	15979
žrtvu	15980
zadržao	15981
županijskom	15982
visokoj	15983
koreja	15984
proširila	15985
povod	15986
metaboli	15987
državljani	15988
uređaji	15989
izvedbu	15990
verziju	15991
postojanje	15992
##lonter	15993
preživio	15994
preživlja	15995
stavljaju	15996
britanska	15997
ljepota	15998
odabrali	15999
promicanje	16000
gostujući	16001
celziju	16002
ukloniti	16003
trenirao	16004
catitema	16005
catitemimagegallery	16006
strukture	16007
raznoliko	16008
alternativa	16009
koprivnice	16010
pavli	16011
trajekt	16012
##_info	16013
korijena	16014
bakterije	16015
univerza	16016
atentata	16017
ravnotežu	16018
##items	16019
kukuru	16020
objašnjenje	16021
ventila	16022
richard	16023
socijaldemokra	16024
pokrovitelj	16025
iseljenika	16026
zahvalan	16027
osnovnu	16028
##modified	16029
blje	16030
dža	16031
enim	16032
elio	16033
flu	16034
fbi	16035
irske	16036
irska	16037
oly	16038
uh	16039
uveo	16040
unos	16041
štu	16042
štan	16043
##_link	16044
##tinski	16045
jedu	16046
nala	16047
zajam	16048
##dice	16049
davao	16050
davis	16051
dol	16052
procu	16053
sandro	16054
##medi	16055
rafi	16056
preka	16057
prerano	16058
topo	16059
renau	16060
##sia	16061
borio	16062
jama	16063
volonter	16064
##šin	16065
diri	16066
staj	16067
stali	16068
stanovi	16069
bazu	16070
razloge	16071
tuca	16072
djelima	16073
bull	16074
##tivši	16075
igračke	16076
laž	16077
lanovi	16078
strasti	16079
mogućih	16080
čiste	16081
vrsti	16082
lever	16083
fox	16084
##plasira	16085
crkvu	16086
otkrivanje	16087
brza	16088
hiper	16089
vrate	16090
važnih	16091
porasta	16092
porasti	16093
povećala	16094
određeno	16095
potpunu	16096
središta	16097
naglaskom	16098
odgovoru	16099
francuzi	16100
kakvim	16101
opasan	16102
pričali	16103
pruge	16104
stručne	16105
gitari	16106
gineko	16107
zahtjevi	16108
turistima	16109
plovila	16110
nestale	16111
uputila	16112
izvrsnosti	16113
podigla	16114
pojedine	16115
funkcionirati	16116
perković	16117
prepoznaju	16118
potražnja	16119
prosjek	16120
harki	16121
potrebnih	16122
pacijenta	16123
materijalna	16124
preuzeli	16125
skuplji	16126
ograničenje	16127
pozornosti	16128
nabavi	16129
nabavlja	16130
računala	16131
procjenama	16132
topline	16133
kraljevski	16134
iranski	16135
ciljevi	16136
tvrdeći	16137
akademi	16138
australije	16139
nevjerojatnih	16140
odvjetništva	16141
kogni	16142
teorije	16143
pokriva	16144
oprostio	16145
četvrtfinala	16146
sankcionira	16147
šokirala	16148
prigodom	16149
zauzeo	16150
izvođač	16151
raznovr	16152
motocikla	16153
izgledom	16154
poslodavci	16155
obrambene	16156
joea	16157
kaštel	16158
frustri	16159
apartmana	16160
efek	16161
nuklearnog	16162
sramota	16163
primjed	16164
ljubljani	16165
legendarnog	16166
ždrijeb	16167
nadbisku	16168
golmana	16169
rejting	16170
kažnjen	16171
dvornik	16172
šubiće	16173
leverku	16174
_er	16175
clo	16176
cur	16177
hel	16178
učio	16179
čvora	16180
##trom	16181
##jke	16182
##dnjom	16183
##vri	16184
##vnici	16185
##čnik	16186
##cci	16187
##wan	16188
pomno	16189
##renom	16190
zaple	16191
##dića	16192
##nete	16193
##loma	16194
##venta	16195
dota	16196
donjem	16197
doveden	16198
kaci	16199
bitka	16200
iznova	16201
izbri	16202
rase	16203
ranim	16204
rasli	16205
tomo	16206
topla	16207
točan	16208
team	16209
##šenjima	16210
nige	16211
##pilo	16212
##grada	16213
obdu	16214
jal	16215
njenu	16216
nijedna	16217
bade	16218
joom	16219
podmi	16220
dur	16221
planovima	16222
trave	16223
ženski	16224
laj	16225
##stein	16226
kišo	16227
ukrca	16228
dobile	16229
slaba	16230
##hid	16231
faktora	16232
svjesna	16233
mlad	16234
margi	16235
smanjuju	16236
tajvan	16237
stimu	16238
obračuna	16239
napasti	16240
krovi	16241
istragom	16242
porukama	16243
nogom	16244
ger	16245
geogra	16246
pogona	16247
vojnom	16248
govorilo	16249
raspada	16250
uključeni	16251
##kraj	16252
##điva	16253
ulaže	16254
zonu	16255
slobodni	16256
slobodnih	16257
vratimo	16258
skupinama	16259
potvrđuju	16260
kulturni	16261
iskustava	16262
misije	16263
napora	16264
telekom	16265
čekam	16266
odražava	16267
uspostavlja	16268
nezamisli	16269
pozvati	16270
čovječan	16271
procese	16272
izvrsno	16273
vezama	16274
osnovao	16275
obuku	16276
posebnog	16277
branitelji	16278
prekinula	16279
zapadno	16280
priroda	16281
pariza	16282
glasovi	16283
svjedoka	16284
potrebnu	16285
postupcima	16286
poljoprivredi	16287
prisutne	16288
prisutan	16289
završen	16290
alata	16291
dubrovačkog	16292
nabava	16293
energetski	16294
##llie	16295
studiji	16296
umjetnički	16297
prihvatili	16298
postavljaju	16299
starim	16300
pojačanja	16301
televiziju	16302
zatvorene	16303
blagos	16304
[...]
