<unk>	0
<s>	0
</s>	0
,	-3.38264
.	-3.60684
a	-3.73449
▁je	-3.76563
▁i	-3.90634
▁u	-3.93124
e	-4.18113
i	-4.38867
u	-4.43343
▁na	-4.4779
o	-4.49166
;	-4.66028
▁se	-4.66485
▁da	-4.76676
▁za	-4.84558
&	-4.87179
m	-4.92961
▁su	-4.95922
on	-4.98479
▁s	-5.08665
ti	-5.25575
▁od	-5.3385
om	-5.36898
▁a	-5.37749
ca	-5.44015
li	-5.46449
la	-5.47198
ma	-5.60284
▁o	-5.62347
ccar	-5.66987
▁ne	-5.67138
-	-5.75347
▁	-5.79904
▁koji	-5.80235
▁iz	-5.80565
▁"	-5.81174
ih	-5.83565
d	-5.84344
na	-5.85227
cute	-5.86474
▁po	-5.90119
▁će	-5.90797
▁to	-5.91644
▁što	-5.93607
:	-5.9433
▁do	-5.9583
▁-	-5.96077
t	-5.96335
s	-5.96351
ni	-6.01713
g	-6.01826
ne	-6.03814
im	-6.03912
ju	-6.03986
je	-6.0934
og	-6.10334
▁U	-6.11892
zcar	-6.14171
▁te	-6.15867
▁bi	-6.21864
te	-6.2227
ka	-6.22849
▁kako	-6.23503
h	-6.23752
no	-6.29471
▁&	-6.37782
oj	-6.37795
lo	-6.37807
▁nije	-6.38517
nje	-6.39358
▁sam	-6.42037
nja	-6.43313
k	-6.43498
mo	-6.43783
▁kao	-6.4434
",	-6.45433
le	-6.46127
▁ali	-6.47432
ja	-6.4985
j	-6.50282
"	-6.53733
š	-6.60442
▁S	-6.60682
▁godine	-6.61892
▁sve	-6.62903
▁koje	-6.63392
▁(	-6.64557
nu	-6.66132
ima	-6.66177
r	-6.66465
ra	-6.66478
▁pa	-6.6674
n	-6.68924
▁smo	-6.69318
ci	-6.71348
▁biti	-6.71737
▁koja	-6.72377
z	-6.77161
▁sa	-6.7779
▁nakon	-6.78304
▁A	-6.79504
l	-6.83508
▁više	-6.83718
ta	-6.83736
▁Na	-6.84608
▁mi	-6.85548
ke	-6.86526
▁'	-6.88196
▁ili	-6.89105
ko	-6.89555
da	-6.8966
va	-6.9219
▁bio	-6.93474
▁samo	-6.96272
▁li	-6.97319
)	-6.98942
▁I	-6.9917
▁ga	-7.00788
ku	-7.01235
▁još	-7.01516
▁pri	-7.02088
▁jer	-7.044
?	-7.04717
▁rekao	-7.07321
ve	-7.09151
▁već	-7.09772
▁zbog	-7.10672
ž	-7.12329
c	-7.14848
za	-7.15118
▁uz	-7.15274
an	-7.15546
ga	-7.17145
'	-7.17539
▁pro	-7.18647
▁bilo	-7.19254
vi	-7.21263
ri	-7.21995
▁godina	-7.22407
▁mu	-7.2355
S	-7.24111
▁ima	-7.24475
▁prije	-7.25195
strok	-7.26096
▁eura	-7.2716
p	-7.27573
▁Po	-7.28536
nju	-7.29265
▁tako	-7.29442
re	-7.29624
y	-7.29848
v	-7.31205
iti	-7.31288
ije	-7.32736
▁dok	-7.33363
▁može	-7.35027
▁pre	-7.35634
nih	-7.3564
ći	-7.35915
ba	-7.36603
pa	-7.37471
▁bila	-7.37485
di	-7.38107
▁Za	-7.38502
▁ni	-7.38984
ova	-7.39195
▁To	-7.39852
▁pod	-7.40209
ce	-7.41053
!	-7.41179
▁dana	-7.41292
če	-7.41293
nom	-7.4156
b	-7.41887
lje	-7.42712
▁O	-7.4274
nim	-7.42878
▁kada	-7.42969
st	-7.43514
lu	-7.44315
▁Ne	-7.44691
sa	-7.45354
▁protiv	-7.46161
▁prema	-7.47436
de	-7.47499
sti	-7.47877
▁tri	-7.48384
▁oko	-7.48561
▁tu	-7.49223
▁posto	-7.49248
nog	-7.49264
▁me	-7.50055
er	-7.5006
".	-7.50117
ovi	-7.50198
▁P	-7.50361
ica	-7.5105
zi	-7.51465
č	-7.51629
▁bez	-7.52127
C	-7.52525
▁mogu	-7.52977
▁no	-7.53054
in	-7.53571
▁svoje	-7.54469
...	-7.55075
▁ja	-7.55812
▁kad	-7.56857
▁nam	-7.58042
▁jedan	-7.59193
ice	-7.59217
em	-7.59442
▁ih	-7.60347
▁gdje	-7.60369
▁ko	-7.60668
▁nego	-7.61124
▁dva	-7.61345
sta	-7.61451
io	-7.61694
ru	-7.62168
▁ljudi	-7.62331
lja	-7.62502
▁ka	-7.62827
vo	-7.62973
▁pred	-7.63031
ki	-7.6304
en	-7.63048
▁re	-7.63435
▁C	-7.63619
či	-7.63773
si	-7.64096
ak	-7.67534
ča	-7.68216
D	-7.68319
▁nas	-7.68374
▁nisu	-7.68824
ila	-7.68904
tu	-7.69075
▁toga	-7.69128
že	-7.71039
ro	-7.71856
P	-7.71862
▁vrijeme	-7.71913
▁put	-7.72405
▁sada	-7.72696
▁No	-7.73018
I	-7.73123
▁Š	-7.7396
ži	-7.74152
bi	-7.74466
▁mo	-7.74498
A	-7.75752
ili	-7.76734
▁K	-7.77799
▁ove	-7.77957
O	-7.78161
ove	-7.79033
po	-7.79221
▁radi	-7.79585
▁ako	-7.8058
▁Mi	-7.80903
▁treba	-7.81206
▁kod	-7.81386
▁Do	-7.81465
ši	-7.81827
▁dobro	-7.8232
▁naj	-7.82354
),	-7.82779
to	-7.8361
kom	-7.84356
ski	-7.846
be	-7.85449
▁koju	-7.85629
▁on	-7.85779
▁19	-7.86117
/	-7.86421
▁nekoliko	-7.86456
K	-7.87002
ost	-7.87013
▁prvi	-7.87179
▁taj	-7.88564
▁danas	-7.88863
▁Pa	-7.89378
▁nema	-7.89638
B	-7.89697
▁dio	-7.90303
▁pet	-7.91155
al	-7.91474
M	-7.91789
se	-7.92373
▁z	-7.92414
ća	-7.92853
iji	-7.93185
du	-7.93374
▁svi	-7.93847
ska	-7.94582
▁bili	-7.94968
▁ovo	-7.95093
▁dr	-7.95171
▁Hrvatske	-7.95305
▁puno	-7.95543
▁kaže	-7.95687
▁D	-7.9738
nici	-7.97385
▁tijekom	-7.97461
▁tome	-7.97761
ov	-7.97762
▁nešto	-7.97783
▁Nakon	-7.97915
osti	-7.97965
do	-7.98447
še	-7.98913
▁E	-7.98935
▁Z	-7.99583
će	-8.00093
ske	-8.0032
su	-8.00408
▁Hrvatskoj	-8.00424
▁svoj	-8.00643
vu	-8.01086
f	-8.02128
7	-8.02178
8	-8.02378
▁sati	-8.0255
▁ve	-8.02811
▁Da	-8.02828
▁uvijek	-8.0286
bu	-8.0294
▁dvije	-8.03257
6	-8.03439
ša	-8.03501
▁raz	-8.0355
▁de	-8.03619
5	-8.03848
▁im	-8.04033
cija	-8.04331
▁Ja	-8.04546
▁š	-8.04654
▁malo	-8.04988
▁ma	-8.05015
T	-8.05307
ija	-8.05417
▁g	-8.05524
▁ste	-8.05566
▁život	-8.05582
ža	-8.06491
▁predsjednik	-8.07918
▁broj	-8.08516
▁vam	-8.08603
▁milijuna	-8.08908
ar	-8.09063
▁način	-8.09758
nji	-8.09774
▁H	-8.1064
▁ba	-8.10647
▁kojima	-8.11078
U	-8.11857
▁kojem	-8.12631
▁Od	-8.1273
2	-8.12764
▁k	-8.1286
▁rekla	-8.1372
▁igra	-8.14156
E	-8.1429
▁rad	-8.14384
vanje	-8.1476
▁imaju	-8.15289
jući	-8.15439
cije	-8.15518
cu	-8.15522
▁kojoj	-8.1568
▁20	-8.15725
▁zna	-8.1585
nica	-8.16408
▁ta	-8.16607
▁dan	-8.16716
▁onda	-8.17175
or	-8.17372
sku	-8.17389
▁vrlo	-8.17448
▁Hrvatska	-8.17514
ina	-8.17524
▁mora	-8.17588
▁između	-8.1763
ović	-8.182
▁dalje	-8.18273
▁oni	-8.18594
go	-8.18921
▁jako	-8.19212
gu	-8.19538
▁Je	-8.19671
vr	-8.20268
▁10	-8.20271
4	-8.20627
▁d	-8.20657
ici	-8.21335
ć	-8.21382
▁svojim	-8.21412
▁njezin	-8.21471
▁ćemo	-8.21945
▁vi	-8.2233
▁čak	-8.22416
V	-8.22716
3	-8.22835
vanja	-8.22909
▁Kako	-8.22922
▁njih	-8.23058
▁kroz	-8.23141
▁Ba	-8.23367
ji	-8.23577
pi	-8.23629
▁neće	-8.23642
▁f	-8.23685
▁Iz	-8.23689
R	-8.23851
it	-8.23876
▁M	-8.24174
▁joj	-8.24289
▁Ivan	-8.24611
▁svoju	-8.24629
šte	-8.2475
ite	-8.25129
šta	-8.25311
nik	-8.25346
bo	-8.2646
nije	-8.26465
red	-8.26658
▁također	-8.27426
L	-8.27526
ze	-8.27584
▁Sve	-8.27602
0	-8.27718
cima	-8.27811
▁mjesto	-8.27823
▁drugi	-8.27884
▁op	-8.27947
▁B	-8.28114
▁poput	-8.28446
pe	-8.28839
▁nad	-8.28847
ran	-8.28934
▁Ra	-8.29087
nt	-8.29288
▁La	-8.29373
▁Ma	-8.29846
▁ti	-8.31193
ovima	-8.31491
▁Ko	-8.31631
▁tim	-8.31763
stav	-8.31917
▁Re	-8.31917
▁puta	-8.32236
pu	-8.32319
▁jednom	-8.3232
noj	-8.32454
▁koliko	-8.32755
▁novi	-8.33111
el	-8.33352
rije	-8.33401
van	-8.3363
ljen	-8.33858
ter	-8.33928
sko	-8.34059
▁G	-8.34122
ck	-8.34158
vati	-8.34465
▁Ako	-8.34535
lj	-8.34557
▁bit	-8.34566
ić	-8.3465
F	-8.35115
',	-8.35165
čan	-8.35166
nice	-8.35216
▁jedna	-8.35425
▁utakmice	-8.35469
▁ovaj	-8.35498
▁četiri	-8.35517
▁druge	-8.36194
▁Le	-8.36295
ković	-8.36406
ine	-8.37003
▁grad	-8.37101
ciju	-8.37148
9	-8.37337
▁odnosno	-8.3751
eg	-8.37717
nd	-8.37894
▁ru	-8.38064
sp	-8.38398
▁među	-8.38421
G	-8.38602
čić	-8.38719
▁preko	-8.38987
▁ra	-8.39405
▁Pri	-8.3984
x	-8.40022
▁ju	-8.40263
▁šest	-8.40415
▁ku	-8.40428
jte	-8.40548
▁Li	-8.40803
00	-8.40931
▁piše	-8.41142
av	-8.41405
▁neki	-8.41423
1	-8.41478
▁tra	-8.41555
).	-8.41759
w	-8.42123
ur	-8.42276
đa	-8.42296
▁Ka	-8.42504
▁sezone	-8.42602
▁obitelji	-8.43249
N	-8.43558
▁tko	-8.43623
▁HDZ	-8.43758
▁manje	-8.43773
▁T	-8.43793
▁F	-8.43819
sto	-8.4403
▁1	-8.4459
▁strane	-8.44652
aj	-8.44843
đen	-8.45066
nost	-8.45115
▁tom	-8.46126
▁osoba	-8.46281
▁vremena	-8.46501
đe	-8.46654
▁pla	-8.46813
ac	-8.47048
▁15	-8.47057
H	-8.47194
▁Dinamo	-8.47204
skom	-8.47215
▁kojeg	-8.47268
▁imao	-8.47496
▁teško	-8.47662
skog	-8.47867
▁Pro	-8.48161
▁vas	-8.48269
dr	-8.48402
▁sad	-8.4883
nika	-8.49026
▁svih	-8.49589
▁ovom	-8.4969
▁Mo	-8.49776
▁2	-8.49813
▁ona	-8.50229
▁mjesta	-8.50448
▁tek	-8.50545
▁njegov	-8.50555
▁Bo	-8.50555
▁Ni	-8.50733
▁njega	-8.50819
et	-8.5101
▁par	-8.51309
lić	-8.51376
njem	-8.5146
▁posebno	-8.51462
▁gotovo	-8.5155
▁kraju	-8.51621
▁imati	-8.51716
▁tada	-8.51789
icu	-8.51852
ch	-8.51882
str	-8.52449
▁Ovo	-8.52882
▁problem	-8.53228
▁projekt	-8.5327
šić	-8.53384
ll	-8.53637
▁odgovor	-8.53938
▁bude	-8.54029
▁govori	-8.54361
lan	-8.54496
žu	-8.54775
▁kazao	-8.55164
tak	-8.55521
▁Zagrebu	-8.55692
zna	-8.55808
tro	-8.56128
▁svom	-8.56612
▁ono	-8.56641
nosti	-8.56818
▁N	-8.56831
lju	-8.56846
▁mogao	-8.5704
▁c	-8.57097
▁baš	-8.57264
▁kup	-8.57427
ću	-8.5773
▁smatra	-8.58246
ena	-8.58506
tra	-8.58984
▁godinu	-8.59337
▁Al	-8.59403
▁EU	-8.59439
▁12	-8.59462
▁ovog	-8.59592
Z	-8.59595
▁Sa	-8.59711
▁Me	-8.59845
▁va	-8.60556
▁Di	-8.60753
iju	-8.61023
at	-8.61092
pre	-8.61142
▁3	-8.61305
▁klub	-8.61332
▁Su	-8.61428
▁tr	-8.61753
▁Be	-8.62066
ng	-8.62115
]	-8.62118
▁2024.	-8.62595
grad	-8.62744
▁Vi	-8.62759
▁Ro	-8.6278
od	-8.62826
▁Ali	-8.62897
ati	-8.62927
▁ništa	-8.63346
▁trener	-8.63445
▁ide	-8.63582
▁4	-8.63643
▁30	-8.63684
▁Iako	-8.63716
stan	-8.63816
▁pe	-8.6386
hr	-8.63862
men	-8.63964
▁pitanje	-8.64041
▁mjestu	-8.64213
ol	-8.64323
▁pomoć	-8.6438
▁Ta	-8.64395
▁utakmica	-8.64406
uje	-8.64514
▁stvari	-8.6454
▁pravo	-8.64579
▁11	-8.64841
▁di	-8.65158
▁pi	-8.65207
vali	-8.65265
▁5	-8.65273
vije	-8.6579
voj	-8.65957
tan	-8.65987
vši	-8.66234
niji	-8.66244
pri	-8.66537
▁Hajduk	-8.66966
▁Bu	-8.66997
▁18	-8.67176
▁neke	-8.68022
▁De	-8.68271
▁Mar	-8.68541
▁=>	-8.68741
▁svim	-8.68958
▁sebe	-8.69174
god	-8.69238
▁VIDEO	-8.69356
ini	-8.6948
stra	-8.6979
▁si	-8.69906
▁Milanović	-8.69913
%	-8.70633
rt	-8.70809
▁često	-8.70892
▁minuti	-8.70924
▁pra	-8.71034
▁p	-8.71068
▁nove	-8.71329
▁isp	-8.71391
kup	-8.71418
tor	-8.71472
▁izgleda	-8.71532
tar	-8.7206
zu	-8.72117
▁priča	-8.72135
▁Što	-8.72213
▁bolje	-8.72336
jem	-8.72502
▁deset	-8.72617
▁Uz	-8.72703
▁Ru	-8.72709
▁Bi	-8.72978
uju	-8.73039
vje	-8.73058
▁Ž	-8.73291
▁moj	-8.73396
▁Pre	-8.73436
▁svog	-8.735
stvo	-8.73575
▁prostor	-8.73583
▁upravo	-8.73838
▁nisam	-8.73839
▁Plenković	-8.73906
ču	-8.73977
▁Ar	-8.74151
iz	-8.74311
▁bih	-8.74322
▁njima	-8.7455
skih	-8.74626
▁vozila	-8.74828
▁kraja	-8.74842
izira	-8.7486
tri	-8.74888
▁minuta	-8.74905
▁dobio	-8.74925
▁Du	-8.74947
▁vodi	-8.74952
▁24	-8.74999
kla	-8.75172
djel	-8.75175
ava	-8.75187
▁svijetu	-8.75372
▁Prema	-8.75511
rija	-8.75645
▁znači	-8.75846
us	-8.76157
▁imali	-8.76205
ika	-8.76282
▁St	-8.76455
▁bu	-8.76514
▁čini	-8.76524
▁dodao	-8.76578
▁Zagreb	-8.76701
▁niz	-8.7686
fi	-8.76998
ciji	-8.77314
▁djece	-8.77385
▁njegova	-8.77513
▁W	-8.7758
▁možda	-8.77727
▁Jo	-8.77767
▁9	-8.77848
ing	-8.77923
▁bo	-8.78059
ilo	-8.78233
▁gol	-8.78262
▁m	-8.78335
▁gleda	-8.78831
▁predsjednika	-8.78884
▁gr	-8.78889
stva	-8.78896
▁Te	-8.79083
▁čeka	-8.79244
▁tisuća	-8.79436
bra	-8.79514
skoj	-8.7956
▁ponovno	-8.79729
čki	-8.79813
▁zajedno	-8.7997
▁ipak	-8.80198
čka	-8.80219
▁sustav	-8.80268
man	-8.80316
ek	-8.80398
▁nalazi	-8.80446
▁želi	-8.80479
▁nastup	-8.8051
▁života	-8.80546
▁[	-8.80567
▁veliki	-8.80589
ss	-8.80609
▁svaki	-8.8073
▁13	-8.80793
▁vo	-8.81093
▁prvaka	-8.8135
▁7	-8.81483
▁hrvatski	-8.81986
▁naš	-8.82166
is	-8.82278
pad	-8.82282
▁one	-8.82329
▁kasnije	-8.82347
▁Tu	-8.82399
▁Pe	-8.82514
▁odmah	-8.82643
▁vode	-8.82877
ama	-8.82979
▁6	-8.82985
▁On	-8.83023
up	-8.83105
▁Pu	-8.8311
▁Gr	-8.83124
▁Kad	-8.83129
▁naše	-8.8323
▁kri	-8.83241
ste	-8.83306
dio	-8.83311
log	-8.83664
▁Ha	-8.8376
▁koristi	-8.83801
▁posla	-8.83832
▁dolazi	-8.83951
▁području	-8.84095
▁cilj	-8.84103
▁utakmicu	-8.84173
tur	-8.84331
▁Grad	-8.84452
▁jednu	-8.84546
let	-8.8459
▁program	-8.84693
▁član	-8.84752
▁ž	-8.84776
vjer	-8.84793
▁prošle	-8.85198
▁jedno	-8.852
J	-8.8525
▁jednog	-8.85274
▁star	-8.85286
▁mogli	-8.85454
▁prvo	-8.85505
nk	-8.85513
ali	-8.85798
ik	-8.86006
▁napad	-8.86232
▁iako	-8.86329
os	-8.86398
▁25	-8.86416
▁0	-8.8645
▁film	-8.86735
▁Nije	-8.87055
iš	-8.87084
met	-8.87232
▁50	-8.87314
▁riječ	-8.87341
▁osobe	-8.87357
jen	-8.8737
▁L	-8.87446
▁isti	-8.87561
▁plaća	-8.87572
lji	-8.87668
▁možete	-8.87791
mir	-8.87893
▁sud	-8.87993
vao	-8.88027
▁Dan	-8.88039
▁Naime	-8.88117
▁Ima	-8.88149
▁trenutku	-8.88169
▁isto	-8.88839
▁imamo	-8.88963
▁cr	-8.89133
▁najviše	-8.89159
čni	-8.89349
▁premijer	-8.89391
▁koncert	-8.89405
▁toliko	-8.8964
▁Osim	-8.89661
▁8	-8.89674
skim	-8.89709
▁niti	-8.89772
inu	-8.89805
▁posao	-8.89993
▁le	-8.90131
▁postoji	-8.90264
▁prava	-8.90486
▁14	-8.90529
▁Tako	-8.90874
nicu	-8.90889
th	-8.91117
.000	-8.9116
ver	-8.91191
▁Ku	-8.91208
▁17	-8.91359
pis	-8.9138
▁problema	-8.915
▁obzirom	-8.9167
por	-8.91845
▁2023.	-8.91907
lom	-8.92168
▁zahtjev	-8.92331
▁Č	-8.92448
▁ranije	-8.92631
pl	-8.92724
▁la	-8.92807
čke	-8.92874
▁dosta	-8.92881
▁najbolje	-8.92974
▁reći	-8.93075
ita	-8.93228
ira	-8.93345
▁Hrvatsku	-8.93452
▁sigurno	-8.9356
▁16	-8.93659
▁zato	-8.93678
▁kraj	-8.93747
▁policija	-8.9379
dan	-8.93803
emo	-8.9395
▁stan	-8.94011
eni	-8.94161
▁žena	-8.9417
▁Gor	-8.94362
▁kandidat	-8.94474
▁ki	-8.94657
▁mjeseci	-8.94724
▁pomoći	-8.94727
lije	-8.94755
▁zašto	-8.94816
▁grada	-8.94833
▁petak	-8.95002
▁dugo	-8.95107
▁Br	-8.95185
br	-8.95435
nija	-8.95601
▁otvoren	-8.95658
▁čega	-8.95748
▁zapravo	-8.9579
▁svojoj	-8.96242
▁h	-8.96257
gra	-8.96318
▁plan	-8.96445
gor	-8.96455
▁objavio	-8.96633
▁igrača	-8.96813
▁kluba	-8.9684
▁svijeta	-8.97044
rov	-8.9713
▁pristup	-8.97283
▁netko	-8.97292
▁SAD	-8.97476
▁drugom	-8.97486
▁automobil	-8.97715
▁slu	-8.97773
▁predstavlja	-8.97975
▁ću	-8.98466
▁osam	-8.98572
▁potpuno	-8.98644
▁prvom	-8.98709
▁vozač	-8.98742
tom	-8.98944
jer	-8.98967
▁raditi	-8.98979
▁navodi	-8.99026
▁vidjeti	-8.9908
▁zemlje	-8.99101
ete	-8.99342
▁Svi	-8.99474
▁ministar	-8.99616
▁svega	-8.99706
▁opet	-8.99826
▁sedam	-8.99889
▁mogla	-8.99958
nj	-8.99963
▁subotu	-9.00106
▁možemo	-9.00118
▁prva	-9.00333
▁Ob	-9.00388
▁proces	-9.00389
▁pravi	-9.00454
▁1.	-9.00481
▁vaš	-9.00638
▁SDP	-9.00658
▁velika	-9.01084
▁imala	-9.01094
▁brzo	-9.01104
▁ključn	-9.01234
nos	-9.01398
isti	-9.01654
▁ovdje	-9.0168
▁izvor	-9.01789
nski	-9.01814
▁tog	-9.01814
ns	-9.01933
▁vr	-9.02027
per	-9.02046
stu	-9.02087
▁pu	-9.02269
▁Izrael	-9.02325
▁traži	-9.02478
ven	-9.02514
▁nacionaln	-9.02544
▁slučaju	-9.02767
vanju	-9.02813
▁slučaj	-9.02836
co	-9.02861
pusti	-9.02866
▁An	-9.02916
il	-9.0306
▁rat	-9.03084
čar	-9.03097
▁dug	-9.03184
min	-9.03205
▁igrač	-9.0331
▁Rad	-9.03504
đi	-9.03522
▁novinar	-9.03524
▁ime	-9.03556
▁društvenim	-9.03649
▁mene	-9.0373
bri	-9.03731
ziv	-9.03745
▁in	-9.03762
▁priliku	-9.03852
▁R	-9.03862
▁partner	-9.04047
▁2022.	-9.04136
čin	-9.0414
▁Naj	-9.04144
mor	-9.04204
▁ugovor	-9.0469
▁poznat	-9.04797
godišnji	-9.04937
▁napada	-9.05066
▁tvrdi	-9.05072
▁nedjelju	-9.05195
vala	-9.05197
čen	-9.05302
rić	-9.0531
▁Kada	-9.05311
▁stoji	-9.05415
▁drugih	-9.05419
▁mnogi	-9.05443
šti	-9.05573
▁Ti	-9.05856
nuti	-9.06041
▁svojih	-9.06141
▁doma	-9.06249
▁promet	-9.06351
▁Međutim	-9.0646
▁ro	-9.06597
▁kojim	-9.06782
▁V	-9.06849
▁tjedna	-9.06851
▁pak	-9.06914
▁cijena	-9.06952
mp	-9.07104
▁ova	-9.07418
▁odnosu	-9.07668
▁rezultat	-9.07713
▁Kr	-9.07727
▁Marko	-9.07753
▁istaknuo	-9.07839
▁nosi	-9.07862
▁ri	-9.07951
ev	-9.082
▁misli	-9.08272
▁Ga	-9.08337
▁direktor	-9.08382
op	-9.08432
▁bol	-9.0845
▁dovoljno	-9.08518
▁vje	-9.08647
▁rada	-9.08684
ene	-9.08748
▁hrvatske	-9.08836
▁ponedjeljak	-9.09037
▁bile	-9.09267
▁zakon	-9.09461
put	-9.09595
lov	-9.09655
▁Lu	-9.09676
▁njihov	-9.09811
▁prve	-9.09919
stvu	-9.10129
ivot	-9.10177
▁40	-9.10206
raz	-9.10279
▁glavni	-9.10314
▁igrati	-9.10397
gen	-9.1046
es	-9.1046
▁moguće	-9.10586
▁Ki	-9.10592
▁23	-9.1073
▁godini	-9.10776
čno	-9.10944
▁tamo	-9.11083
▁znam	-9.11247
▁očekuje	-9.11374
▁be	-9.11412
▁gra	-9.11438
▁potom	-9.11598
▁kola	-9.11872
▁jasno	-9.11941
▁gradsk	-9.11985
for	-9.12066
laz	-9.12402
▁djecu	-9.12633
vid	-9.12728
▁primjer	-9.12795
▁ovu	-9.12902
▁uspjeh	-9.13033
▁priprema	-9.13138
ment	-9.13141
▁izazov	-9.13218
▁određen	-9.13264
itelj	-9.13342
▁ras	-9.13367
▁pita	-9.13382
▁rast	-9.13385
zo	-9.13414
▁sva	-9.1345
pisa	-9.13597
▁najbolji	-9.13642
▁srijedu	-9.13663
pro	-9.13743
▁prati	-9.13765
▁dijete	-9.13874
▁vjerojatno	-9.13922
▁kuće	-9.1405
▁Zbog	-9.14085
▁Dinama	-9.14211
▁osim	-9.14225
▁Per	-9.14445
▁nismo	-9.1451
▁Kao	-9.14648
▁rata	-9.1472
igra	-9.1476
▁nikad	-9.14894
rod	-9.14937
rad	-9.14948
▁trebao	-9.14954
godišnjak	-9.14958
▁bodova	-9.1497
kra	-9.1506
▁stav	-9.15092
fe	-9.15138
▁nogometn	-9.15158
sh	-9.15205
▁izbora	-9.15286
▁stvara	-9.15349
▁Ivana	-9.1539
gled	-9.15436
▁pove	-9.15497
▁putem	-9.15515
▁tih	-9.15531
cijom	-9.15599
din	-9.15613
▁skup	-9.15676
▁nastupa	-9.15689
▁glas	-9.16176
jan	-9.16204
▁hit	-9.16214
▁aktivnosti	-9.16262
ut	-9.16281
▁obitelj	-9.16332
▁mir	-9.16529
▁vlasti	-9.16567
▁100	-9.16642
tić	-9.16832
▁dijelu	-9.17087
▁Prije	-9.17158
▁Real	-9.17163
đu	-9.17216
ry	-9.17307
▁hrvatskog	-9.17311
kov	-9.17424
▁stranke	-9.1744
rom	-9.17441
mer	-9.17808
▁Zagreba	-9.17821
vla	-9.18251
▁metara	-9.18349
▁ispred	-9.18445
telji	-9.18457
▁živi	-9.18458
▁izbor	-9.18464
▁Luka	-9.18547
pra	-9.18603
▁došao	-9.18616
▁gradonačelnik	-9.18623
lica	-9.18769
▁brod	-9.18932
ho	-9.18989
▁J	-9.19104
▁pun	-9.19138
▁Ve	-9.19203
▁velike	-9.19295
▁povijesti	-9.1938
meta	-9.19464
▁Ju	-9.19488
▁Split	-9.19509
▁korak	-9.19522
▁sata	-9.19569
▁br	-9.19623
▁utakmici	-9.19735
era	-9.19746
▁Dr	-9.19869
▁udar	-9.20007
▁model	-9.20109
ana	-9.20203
kić	-9.20204
▁utorak	-9.20636
▁dobiti	-9.20663
▁svijet	-9.20676
'.	-9.20687
▁du	-9.2076
slav	-9.20777
radi	-9.20793
▁razini	-9.21039
pol	-9.21046
▁dom	-9.21144
▁mr	-9.21219
njak	-9.21261
▁Bar	-9.2127
fer	-9.21351
fa	-9.21364
▁doći	-9.21368
▁Republike	-9.21426
kovi	-9.21522
▁Kor	-9.2153
▁Lo	-9.21533
▁momčad	-9.21542
▁drugim	-9.21563
▁nedavno	-9.21637
▁ljubav	-9.21639
▁dobar	-9.21658
▁bivši	-9.21774
▁strani	-9.21805
▁lije	-9.21919
vrš	-9.2196
▁nova	-9.22065
▁posjet	-9.22115
▁Vr	-9.22437
sni	-9.22538
▁škole	-9.22571
▁cijene	-9.22572
▁bogat	-9.2268
▁devet	-9.22696
▁ćete	-9.22783
▁Tr	-9.22882
▁mnogo	-9.22915
▁21	-9.22962
tni	-9.22981
▁komp	-9.22991
glas	-9.23025
ijom	-9.23046
▁BiH	-9.23065
▁mislim	-9.23147
enje	-9.23153
▁stvar	-9.23293
▁osvojio	-9.23306
▁splitsk	-9.23493
▁donosi	-9.23625
▁ured	-9.23645
ir	-9.23665
tr	-9.23708
▁kojih	-9.24032
▁Splitu	-9.24036
ber	-9.24042
▁Mat	-9.24048
▁druga	-9.2408
▁drugo	-9.2412
▁Martin	-9.24185
▁novog	-9.24188
▁županije	-9.24341
▁prijatelj	-9.2436
▁pres	-9.24452
tre	-9.24483
bli	-9.24503
žen	-9.24531
▁Grada	-9.24535
rati	-9.24557
tal	-9.24564
jelo	-9.24595
▁mjeseca	-9.24615
▁ističe	-9.24755
▁glasa	-9.24766
▁slab	-9.2481
ent	-9.24815
▁Rijeka	-9.2484
▁čovjek	-9.24863
▁prvog	-9.24873
▁ču	-9.24958
bor	-9.24974
▁ukupno	-9.24994
▁pl	-9.25003
▁Bra	-9.25059
▁organizira	-9.25127
▁novo	-9.2516
▁visok	-9.25174
jev	-9.25196
▁mrežama	-9.25365
▁uključujući	-9.25381
irati	-9.25493
evi	-9.25541
den	-9.25552
▁dobi	-9.25575
ljiv	-9.25659
▁država	-9.2572
▁razvoj	-9.2574
sno	-9.2576
▁kra	-9.25811
▁izborn	-9.25827
▁primi	-9.25887
▁Zoran	-9.25963
▁ci	-9.26054
▁dolara	-9.26099
▁objavljen	-9.262
▁tvrtke	-9.262
▁ljude	-9.262
▁pojedin	-9.26211
▁pobjedu	-9.26216
lek	-9.26222
▁događa	-9.26282
▁Ova	-9.26307
▁sin	-9.26392
▁trenutno	-9.26407
var	-9.26473
▁kriv	-9.26547
▁Također	-9.26558
▁njen	-9.26737
▁bira	-9.26784
▁njemu	-9.26813
▁iza	-9.26828
▁moglo	-9.26851
▁Trump	-9.26951
iv	-9.26993
▁umjetn	-9.27007
▁snage	-9.27041
▁pobjede	-9.27064
▁auto	-9.27095
vno	-9.27157
▁godinama	-9.27157
čiti	-9.27266
▁time	-9.27329
▁planira	-9.27369
▁moraju	-9.27391
▁međunarodn	-9.27399
▁lipnja	-9.274
▁list	-9.27403
▁moći	-9.27444
▁mladi	-9.27505
▁rod	-9.27547
▁svima	-9.27561
▁kor	-9.27678
▁savjet	-9.27708
▁vlada	-9.27787
▁privatn	-9.27804
▁napraviti	-9.27868
▁št	-9.27873
▁Hrvatski	-9.27904
govor	-9.27917
▁hrvatskih	-9.27947
▁gradu	-9.28218
▁mjesec	-9.28254
nce	-9.28256
vez	-9.28382
▁In	-9.28388
▁sto	-9.28471
res	-9.28517
▁javnosti	-9.28732
▁čemu	-9.28743
▁izvan	-9.28814
▁poručio	-9.28901
▁zatim	-9.28981
▁Vlade	-9.29024
▁pol	-9.29243
▁postao	-9.29385
▁novih	-9.29586
▁mas	-9.29618
vat	-9.29715
▁žele	-9.29726
▁prvu	-9.29747
▁dobili	-9.29847
ret	-9.29917
▁budu	-9.2993
▁ovakv	-9.30016
▁objavila	-9.30029
stru	-9.30148
▁ot	-9.30192
▁ovih	-9.30197
▁posljednje	-9.30216
▁ovoj	-9.3026
▁naslov	-9.30398
as	-9.30444
▁njegove	-9.3063
▁dogodilo	-9.3066
▁Hajduka	-9.30685
der	-9.30831
▁rade	-9.30881
par	-9.31017
▁situacija	-9.31082
▁novac	-9.31098
▁pjeva	-9.31148
▁Os	-9.31149
ot	-9.31267
▁biste	-9.3144
klo	-9.31535
uz	-9.31637
ob	-9.31661
▁neka	-9.31726
▁došlo	-9.31843
▁Filip	-9.31971
▁ob	-9.32009
W	-9.32047
▁posebn	-9.32088
▁bolesti	-9.32129
bio	-9.32133
▁60	-9.32364
▁Danas	-9.32376
san	-9.32488
▁Ovaj	-9.32514
▁izjavio	-9.32533
▁poslovn	-9.3256
▁gu	-9.32657
▁Go	-9.32694
irao	-9.32729
▁trebalo	-9.32739
▁nitko	-9.32774
ster	-9.3291
▁zdrav	-9.32912
▁poslova	-9.3313
ara	-9.33178
▁mlad	-9.33229
nta	-9.33243
▁god	-9.33279
▁Fa	-9.33442
▁otkrila	-9.33567
▁novu	-9.33596
▁glavn	-9.33657
▁bismo	-9.33762
▁sat	-9.33778
▁POGLEDAJTE	-9.33881
▁sebi	-9.33917
▁ispod	-9.33923
▁lo	-9.34139
▁trud	-9.34214
▁otkrio	-9.34413
▁toj	-9.34529
▁nikada	-9.34583
▁djela	-9.34594
▁razgovor	-9.34681
▁djelo	-9.34818
telj	-9.34866
▁zabio	-9.34875
▁El	-9.34953
▁Ho	-9.35012
▁izborima	-9.35032
▁drugog	-9.3508
nut	-9.35157
▁/	-9.35186
▁djeca	-9.35222
▁bor	-9.35308
▁ozlijeđen	-9.35315
▁Ri	-9.35319
▁Dok	-9.35367
▁momčadi	-9.35436
▁pot	-9.35448
▁Op	-9.35465
bija	-9.35571
▁Si	-9.3559
▁zemlji	-9.3559
▁Bio	-9.35631
▁koj	-9.35643
▁potrebno	-9.35674
▁22	-9.35863
▁Radi	-9.35899
pr	-9.35955
▁države	-9.35965
▁razmišlja	-9.35976
▁zatvor	-9.35976
▁sastav	-9.36001
▁odmor	-9.36018
▁osjeća	-9.3617
▁terenu	-9.3619
un	-9.36269
ren	-9.36395
▁Josip	-9.36483
▁službe	-9.36495
Ne	-9.36688
▁(1	-9.36867
▁bolji	-9.36898
ks	-9.36932
eva	-9.37001
ksi	-9.37039
▁njihove	-9.37049
acija	-9.37203
▁vidi	-9.37235
▁sustava	-9.37297
▁interes	-9.37344
tvor	-9.37452
▁Jur	-9.37525
▁poziva	-9.37729
▁Kar	-9.37766
▁igre	-9.37838
▁Fran	-9.37858
30	-9.37905
▁dodatno	-9.37912
veli	-9.37954
▁kući	-9.38011
▁cijeli	-9.38073
▁jedne	-9.38143
žan	-9.38225
jeti	-9.38248
▁promjene	-9.38359
▁Gu	-9.38364
enja	-9.38383
▁kli	-9.38442
nić	-9.38527
▁rujna	-9.3863
▁prenosi	-9.38632
eta	-9.38705
▁obiteljsk	-9.38714
▁važno	-9.38717
▁Bilo	-9.38766
nova	-9.389
▁osjećaj	-9.38983
▁iznos	-9.38987
▁jednostavno	-9.39036
▁prilikom	-9.39036
▁lako	-9.39043
20	-9.391
▁pomo	-9.39105
▁posljednjih	-9.39154
lin	-9.3923
▁trebali	-9.39272
kli	-9.39342
▁oči	-9.39417
▁Ipak	-9.39443
▁nekim	-9.39563
▁stru	-9.39608
▁(3	-9.39658
ler	-9.39673
▁turističk	-9.39727
▁Sp	-9.39745
▁uživa	-9.39984
▁policije	-9.39993
ile	-9.40016
▁Co	-9.40057
▁onih	-9.40093
▁Mir	-9.40124
▁nje	-9.40137
▁četvrtak	-9.40175
▁Bor	-9.40227
▁Fi	-9.40276
vni	-9.40297
▁upozna	-9.403
ff	-9.404
▁st	-9.40541
▁ovim	-9.40573
▁smije	-9.40579
▁pitanja	-9.40611
▁iznosi	-9.40654
▁kre	-9.40713
▁Andrej	-9.40783
▁autor	-9.40859
▁sport	-9.40868
▁video	-9.40919
▁ljudima	-9.4101
sen	-9.41051
▁vrijednosti	-9.4107
▁kažu	-9.41072
dru	-9.411
▁rekli	-9.41358
nske	-9.41384
▁svje	-9.41572
njima	-9.41587
čkog	-9.41743
▁27	-9.41907
▁Novi	-9.41993
▁travnja	-9.42004
▁Gra	-9.42148
▁najveći	-9.42203
▁Europe	-9.42223
icom	-9.42224
son	-9.4233
▁prepozna	-9.42342
▁Foto	-9.42346
▁požar	-9.42377
▁provodi	-9.42392
eno	-9.42404
▁Tur	-9.42431
čili	-9.42458
zer	-9.42598
▁mali	-9.42598
▁Varaždin	-9.42621
▁obra	-9.42643
▁Vu	-9.42665
▁odluka	-9.42782
▁upravlja	-9.42809
▁srpnja	-9.43047
▁tjedan	-9.43059
▁susret	-9.43076
▁životu	-9.43092
▁vozi	-9.43122
gla	-9.43142
▁napisao	-9.43205
▁poziv	-9.43301
▁unutar	-9.43315
▁doček	-9.43337
▁(2	-9.43473
▁28	-9.43494
šao	-9.43534
▁trebala	-9.43593
▁Marin	-9.43669
▁razloga	-9.43673
▁nastavlja	-9.43717
▁listopada	-9.43754
pot	-9.43779
▁dogovor	-9.43963
▁sklopu	-9.44012
▁Kon	-9.44108
alno	-9.44126
▁osnovn	-9.44183
▁osigura	-9.44246
▁Mislim	-9.44296
nac	-9.44305
▁kaznen	-9.44326
▁rizik	-9.44328
▁žene	-9.44507
▁mlade	-9.44555
▁pola	-9.44664
▁Va	-9.44786
dovolj	-9.44829
kova	-9.44946
▁iskustvo	-9.45043
▁tiče	-9.45243
▁reprezentacije	-9.4533
▁četvrt	-9.45486
▁lige	-9.45519
nci	-9.4553
▁izbori	-9.45544
▁Zadar	-9.45566
▁početka	-9.4562
▁poraz	-9.45687
▁stvarno	-9.45732
▁Ukrajini	-9.45764
com	-9.45794
▁stol	-9.45908
iran	-9.46027
▁Oni	-9.46028
▁računa	-9.46055
▁građana	-9.46055
▁dodaje	-9.46209
▁Sla	-9.46209
▁previše	-9.46219
▁ostati	-9.46285
▁Još	-9.46299
ps	-9.46338
▁uglavnom	-9.46347
▁srpsk	-9.46361
▁podršku	-9.46492
▁moramo	-9.46538
iva	-9.46588
▁mladih	-9.46616
▁pada	-9.46691
▁suprug	-9.46742
zor	-9.46743
▁kolu	-9.46744
▁Europi	-9.46807
▁Samo	-9.46811
▁hoće	-9.46813
▁So	-9.46844
▁kulturn	-9.46931
▁tekst	-9.46993
▁zdravstven	-9.47046
acije	-9.47057
iljem	-9.47106
▁barem	-9.47127
vara	-9.4717
▁zemalja	-9.47225
▁projekta	-9.4734
▁uoči	-9.47366
▁red	-9.4739
▁mom	-9.47432
▁treći	-9.4744
▁zaklju	-9.47495
▁sredin	-9.47606
▁radio	-9.47722
▁ulogu	-9.47725
▁post	-9.48011
icama	-9.48073
▁kolovoza	-9.48112
pet	-9.48191
▁Taj	-9.48241
▁dokument	-9.48251
▁Rijeke	-9.48301
▁najmanje	-9.48339
▁živ	-9.48353
▁prvenstva	-9.4841
pt	-9.48424
▁javno	-9.48683
▁X	-9.48715
▁slavi	-9.4873
ška	-9.48733
▁veliku	-9.48738
▁tijelo	-9.48744
▁odluku	-9.48797
▁voli	-9.4885
▁račun	-9.48972
▁Hrvatskog	-9.4902
▁FOTO	-9.49157
▁sigurnosti	-9.49237
Po	-9.49327
▁utjecaj	-9.49403
▁uopće	-9.49459
▁Mu	-9.49488
▁suda	-9.496
▁počinje	-9.49614
▁dobila	-9.49867
▁veći	-9.49887
▁pad	-9.49939
ner	-9.4999
+	-9.50048
▁prijedlog	-9.50062
▁vrata	-9.50081
▁njim	-9.5009
čkom	-9.50105
▁otkriva	-9.5017
nicima	-9.502
▁RTL	-9.50365
▁meni	-9.50408
▁glasova	-9.50437
▁Tra	-9.50662
▁održava	-9.50671
▁tre	-9.50692
▁Drug	-9.50796
▁Europske	-9.50805
▁mjere	-9.50822
sna	-9.50987
▁automobila	-9.51025
▁Olimpijsk	-9.51083
▁Tomislav	-9.51127
▁naveden	-9.51136
▁Jedan	-9.51177
▁vezan	-9.51234
ton	-9.51312
nzi	-9.51341
čko	-9.51405
nka	-9.51455
▁Car	-9.51489
iranje	-9.51555
▁izraelsk	-9.51587
▁promjena	-9.51587
zan	-9.51726
▁svibnja	-9.51741
▁pozitivn	-9.51742
lice	-9.51749
▁umjesto	-9.51762
land	-9.51775
est	-9.51852
sel	-9.5191
▁kr	-9.51945
▁Evo	-9.52003
kti	-9.5208
eve	-9.52168
▁nogometaš	-9.52202
▁brojne	-9.52261
Š	-9.52311
koj	-9.52344
ovu	-9.52353
bil	-9.52488
▁traže	-9.52538
gre	-9.52618
▁trag	-9.52769
▁područja	-9.5298
▁kolo	-9.53035
▁Modrić	-9.53125
▁pokušaj	-9.53142
▁sazna	-9.53173
nima	-9.5326
▁natjecanja	-9.53293
▁reagira	-9.53293
▁nastaviti	-9.5338
▁dosad	-9.53391
▁Jer	-9.53437
ljiva	-9.53553
ec	-9.53629
▁odlu	-9.53662
▁2.	-9.53753
▁Vo	-9.53876
▁navodno	-9.54048
novi	-9.54067
nike	-9.54112
▁znaju	-9.54246
▁naših	-9.54254
▁detalj	-9.54283
▁Prvo	-9.54384
▁odgovara	-9.54451
▁kupa	-9.54519
▁Tijek	-9.54599
▁oba	-9.54601
▁izbore	-9.54736
▁znak	-9.54759
▁električn	-9.54771
▁loše	-9.54837
▁The	-9.54898
dra	-9.54925
▁pop	-9.54955
▁predmet	-9.54981
sk	-9.55062
▁Pra	-9.55153
▁Dje	-9.55194
▁zrakoplov	-9.55346
▁talijansk	-9.55346
50	-9.55411
▁Mal	-9.55519
▁rođen	-9.55534
nuo	-9.55604
▁pitanju	-9.5561
▁obrane	-9.55617
▁programa	-9.55711
▁pr	-9.55824
▁2021.	-9.55827
▁Pr	-9.55881
išta	-9.55916
eri	-9.55954
▁Riječ	-9.56108
▁njihova	-9.56179
obi	-9.56198
▁Vid	-9.56236
dar	-9.56382
▁stanje	-9.56409
▁ostali	-9.56412
len	-9.56458
tru	-9.56631
▁vlasnik	-9.56632
nović	-9.56738
▁per	-9.56797
▁održan	-9.56804
▁Sta	-9.56922
mija	-9.57193
ron	-9.57256
▁rasp	-9.57264
vna	-9.57268
rin	-9.57454
▁kar	-9.57479
ic	-9.57499
▁če	-9.57595
▁vrtić	-9.57602
što	-9.57636
10	-9.57649
lar	-9.57651
▁studenog	-9.57769
▁duž	-9.5785
▁sigurnost	-9.57905
▁osobno	-9.57933
▁90	-9.57975
▁zdravlje	-9.58011
▁parlament	-9.58087
▁redu	-9.58141
▁iznad	-9.5815
▁glazbe	-9.58176
▁obu	-9.58265
▁strah	-9.58266
eš	-9.58267
vor	-9.58336
▁čiji	-9.58411
laže	-9.58416
▁Nema	-9.58428
▁vraća	-9.58488
▁bur	-9.58685
▁postoje	-9.58754
ljev	-9.58765
▁Or	-9.58792
▁odluke	-9.58871
štu	-9.5892
▁trening	-9.58927
▁tijela	-9.58951
čne	-9.58956
▁spava	-9.58971
rd	-9.59
▁razlog	-9.59085
▁mandat	-9.59096
▁zapadn	-9.5911
▁opasn	-9.59113
▁snima	-9.59196
▁stigao	-9.59253
▁prijavi	-9.59259
izma	-9.59302
▁vojn	-9.59349
▁zanimljiv	-9.59384
▁Prvi	-9.59415
▁francusk	-9.59418
▁vratiti	-9.59431
▁ostao	-9.59614
▁tradicionaln	-9.59751
▁Podsjetimo	-9.59752
▁ujutro	-9.59765
đuje	-9.59765
▁teret	-9.59916
▁početkom	-9.59921
ljan	-9.60042
▁promijeni	-9.60074
▁zelen	-9.6009
▁finala	-9.60094
▁Maj	-9.60166
▁povezan	-9.60227
▁gola	-9.60237
▁Naš	-9.60254
▁poslu	-9.60255
▁prethodn	-9.60316
▁Mari	-9.60323
▁neko	-9.60391
▁TV	-9.60428
▁Ana	-9.60503
▁domaćin	-9.60563
▁prvoj	-9.60589
▁rije	-9.60604
▁prilika	-9.60607
tira	-9.60607
▁trenutak	-9.60645
▁domaće	-9.60655
▁majka	-9.60676
▁izbornik	-9.6074
▁mediji	-9.60745
▁Biden	-9.6079
▁državn	-9.60812
▁događaja	-9.60831
ljivo	-9.60836
15	-9.60836
▁Crn	-9.60889
▁energije	-9.60926
▁sadržaj	-9.60926
▁svakom	-9.60927
▁Man	-9.60927
▁Lige	-9.60939
ovac	-9.60999
▁ispit	-9.61041
▁jak	-9.61083
▁HNL	-9.61095
▁prosvjed	-9.61095
▁informacije	-9.61095
▁igrao	-9.61257
▁smrti	-9.61265
▁HRT	-9.61282
▁koriste	-9.61365
pali	-9.61503
zija	-9.61555
▁maj	-9.6163
▁kralj	-9.61661
▁Tom	-9.61699
▁snaga	-9.61704
pravi	-9.61764
▁rok	-9.61776
bili	-9.61806
▁daleko	-9.61891
▁siječnja	-9.61944
▁Njemačkoj	-9.61946
▁uspio	-9.61948
▁građani	-9.61954
čević	-9.61963
▁let	-9.61997
▁prvenstvu	-9.62114
▁zanima	-9.62129
▁odre	-9.62152
ris	-9.62181
jela	-9.62277
▁pripremi	-9.62457
▁poslije	-9.62458
▁festival	-9.62482
▁njegovu	-9.62506
▁čime	-9.62573
▁of	-9.62611
▁najavio	-9.62631
▁hrane	-9.62634
▁Vla	-9.62645
▁došli	-9.6265
ročitajte	-9.62652
▁NATO	-9.628
▁prosinca	-9.628
▁nepo	-9.62904
inom	-9.62924
▁spremni	-9.62973
▁Y	-9.63044
▁skupine	-9.6311
▁boda	-9.63132
▁brz	-9.63135
▁dolaze	-9.63156
▁završio	-9.63181
▁naša	-9.6324
vica	-9.63266
▁studij	-9.63348
▁Bla	-9.63418
▁Ke	-9.63466
▁svemu	-9.63491
▁mogućnost	-9.63502
▁radova	-9.63646
▁rekord	-9.63683
▁lijep	-9.63716
▁brani	-9.6375
nijih	-9.63793
jima	-9.63868
▁Šibenik	-9.63878
▁evo	-9.6389
▁Treba	-9.63901
▁Pred	-9.63927
jski	-9.63931
sad	-9.63966
▁aktualn	-9.64012
▁pruža	-9.64014
▁Sada	-9.64023
▁ho	-9.64122
▁objekt	-9.64259
▁dodala	-9.64347
1.	-9.64351
▁restoran	-9.6436
vom	-9.64369
▁šef	-9.64374
▁35	-9.64426
▁Raz	-9.6447
▁popis	-9.64505
▁zračn	-9.64507
▁centar	-9.64535
▁sezonu	-9.64538
njom	-9.64544
▁upit	-9.64695
▁pokazuje	-9.64733
▁jedini	-9.64811
▁tvrtka	-9.64885
▁Putin	-9.64897
▁dokaz	-9.64932
▁Vlada	-9.64939
▁nudi	-9.64966
▁uhićen	-9.65061
ević	-9.65065
ty	-9.65117
pan	-9.65162
▁proizvoda	-9.6519
-2	-9.6521
▁ponudi	-9.65271
▁odlučio	-9.65285
▁sjajn	-9.65307
ras	-9.65347
▁noći	-9.65387
▁društvo	-9.65414
▁ljeta	-9.65417
▁nadzor	-9.65448
▁pobjeda	-9.65482
čku	-9.65501
▁osobito	-9.65621
Na	-9.65661
▁prolaz	-9.65708
▁dobiva	-9.6588
▁80	-9.65916
▁rješenje	-9.65944
▁novim	-9.65962
▁RH	-9.65985
jom	-9.66008
ište	-9.66019
▁našeg	-9.66031
▁Više	-9.66044
ića	-9.66116
▁standard	-9.66122
▁pogled	-9.6624
▁mar	-9.66267
▁večer	-9.66298
▁kru	-9.66372
▁Tim	-9.66451
▁teren	-9.66456
▁brat	-9.66468
▁sretn	-9.66545
▁situaciju	-9.66657
vlja	-9.66693
▁stručnjak	-9.66712
nata	-9.66791
▁savršen	-9.66837
▁godišnj	-9.66861
▁viš	-9.66902
▁postala	-9.66905
▁ravnatelj	-9.66918
▁sna	-9.66972
bin	-9.66987
▁protekl	-9.67018
▁čist	-9.67056
▁sigurnosn	-9.67064
etiri	-9.67131
▁socijaln	-9.67194
▁supruga	-9.67208
tko	-9.67245
▁odgovornost	-9.67256
▁Ze	-9.67286
aron	-9.67343
▁loš	-9.67374
▁Bel	-9.67549
▁uprave	-9.67557
▁svakog	-9.67576
ško	-9.67672
▁obzira	-9.67807
▁31	-9.67834
-1	-9.67856
▁poru	-9.67921
▁prošlo	-9.6795
ćen	-9.68013
tori	-9.68014
▁potez	-9.68021
▁plin	-9.68199
▁rusk	-9.68265
▁Policija	-9.6828
▁kazala	-9.68281
▁prima	-9.68322
kre	-9.6835
▁Euro	-9.68389
▁Mate	-9.68442
▁vezi	-9.68463
▁Hu	-9.68524
▁Sto	-9.68555
kar	-9.68588
▁Predsjednik	-9.68642
▁Gl	-9.68652
▁ruke	-9.68666
▁materijal	-9.68713
kri	-9.68758
nese	-9.68775
▁posve	-9.6882
▁jednoj	-9.68832
▁događaj	-9.68832
▁New	-9.68832
▁gor	-9.68944
▁jezik	-9.68965
▁globaln	-9.69008
▁vrijedn	-9.69143
▁značaj	-9.69154
▁naravno	-9.69193
▁našim	-9.69249
▁zatvoren	-9.69276
vin	-9.69294
▁govor	-9.69356
▁uskoro	-9.69561
▁Srbije	-9.69672
stavljen	-9.69687
vis	-9.69785
▁razliku	-9.69788
alni	-9.6986
roz	-9.69864
▁društva	-9.69927
kle	-9.6995
▁Dra	-9.69974
▁postaje	-9.70014
▁sukob	-9.70018
▁200	-9.70069
▁2025.	-9.70112
▁lu	-9.70155
▁dje	-9.70178
▁pokret	-9.70203
▁jučer	-9.70297
nf	-9.70336
dina	-9.70392
▁škola	-9.70481
▁Madrid	-9.70483
▁zaključio	-9.70483
▁priče	-9.70493
▁dijela	-9.70505
▁Ot	-9.70535
ovo	-9.70554
▁Par	-9.70569
▁bra	-9.70601
0.000	-9.70612
▁ostaje	-9.70653
▁medicinsk	-9.70668
▁minute	-9.70675
▁inače	-9.70728
▁smjeru	-9.7084
▁mijenja	-9.70903
▁pret	-9.70914
▁pru	-9.70947
izam	-9.71044
▁pokazala	-9.71045
▁novom	-9.71101
lija	-9.71149
▁jedinstven	-9.71228
▁povijesn	-9.7123
▁navija	-9.71234
▁gost	-9.71267
▁fotografije	-9.71285
ger	-9.71331
▁ponos	-9.71351
▁stručn	-9.71492
▁napisala	-9.71581
▁pjesme	-9.71603
▁Kla	-9.71649
vac	-9.71675
▁pokazao	-9.71676
▁Zato	-9.71781
car	-9.71786
▁kandidata	-9.71788
▁iste	-9.71816
ben	-9.71844
nde	-9.71878
▁veze	-9.71945
▁svojom	-9.72004
▁sportsk	-9.72012
▁prostora	-9.72029
nskog	-9.72039
▁70	-9.72057
diti	-9.72063
prije	-9.72073
▁riječi	-9.72091
▁Kup	-9.72114
▁temperatura	-9.72168
▁drugu	-9.7217
▁porast	-9.72196
▁otac	-9.72219
tt	-9.72249
▁zaista	-9.72286
▁prihod	-9.72453
▁budući	-9.72463
rat	-9.72465
▁želje	-9.72494
▁3.	-9.72499
▁kuća	-9.72502
▁bavi	-9.72527
▁početku	-9.72546
▁Već	-9.72566
▁Pod	-9.72639
che	-9.72682
▁zadnje	-9.72687
▁koristiti	-9.72706
▁Ol	-9.72764
▁Vod	-9.72765
irani	-9.72784
▁pokušava	-9.72811
▁Sin	-9.72927
▁26	-9.72945
▁nekih	-9.72947
▁Bog	-9.73022
graf	-9.73042
▁jest	-9.73087
▁stil	-9.7314
iraju	-9.73141
▁nemaju	-9.73147
▁poznati	-9.7321
▁Niko	-9.73221
▁novca	-9.73342
▁Star	-9.73391
tku	-9.73392
▁članovi	-9.73395
▁prometa	-9.73424
▁ozbiljn	-9.73521
▁otvara	-9.7353
▁takav	-9.73534
▁potencijaln	-9.73599
nda	-9.73646
▁Jan	-9.737
stava	-9.73713
ješ	-9.73796
▁nju	-9.73858
▁važn	-9.73864
▁javnost	-9.73882
▁Vukovar	-9.73885
živ	-9.73887
▁prijevoz	-9.73889
▁putu	-9.73894
▁trend	-9.73901
Zc	-9.7391
▁bod	-9.73913
▁Dakle	-9.7392
▁postati	-9.73954
▁Sr	-9.73958
jača	-9.73961
▁izgled	-9.7404
▁modern	-9.74085
▁traje	-9.7413
▁osje	-9.74155
▁odnos	-9.74166
hod	-9.74197
▁susreta	-9.74223
▁kilometara	-9.74267
▁ha	-9.74291
▁Dubrovnik	-9.74356
vaju	-9.7437
bar	-9.74418
▁ozljede	-9.7446
▁karijere	-9.7446
▁Neki	-9.74481
▁sutra	-9.74487
staje	-9.74522
▁šire	-9.74532
ker	-9.7473
▁voditelj	-9.7482
▁dnevn	-9.74841
▁motor	-9.74874
mar	-9.74915
▁pravn	-9.74953
▁objavi	-9.75012
▁klubu	-9.7502
RA	-9.75024
▁odvjetnik	-9.75041
▁napravio	-9.75043
▁spoj	-9.75053
▁val	-9.75146
▁album	-9.75238
▁šal	-9.75251
▁kla	-9.7537
dob	-9.75372
han	-9.75373
▁njemačk	-9.75506
▁Tre	-9.75507
▁Osijek	-9.75565
▁vide	-9.75578
▁stanju	-9.75598
ard	-9.75608
ški	-9.75617
▁sluša	-9.75628
▁pokazuju	-9.75652
▁plaće	-9.75657
▁obi	-9.75714
▁dođe	-9.75771
▁održiv	-9.75829
▁stup	-9.75871
jske	-9.75975
rez	-9.76005
▁primje	-9.76019
bla	-9.76034
▁narod	-9.76118
▁susjed	-9.76132
star	-9.76152
▁istra	-9.76156
▁spomenut	-9.76183
▁pobjednik	-9.76308
▁navode	-9.76316
▁mandata	-9.76404
▁objašnjava	-9.76411
▁ljetn	-9.76416
▁svak	-9.7645
▁velikim	-9.7649
▁filma	-9.76509
tali	-9.76528
▁ljubavi	-9.76536
▁Ban	-9.76547
▁dobra	-9.76554
▁mnoge	-9.76611
▁uspješn	-9.76619
▁#	-9.76631
▁Nikola	-9.76649
▁Ante	-9.76652
rica	-9.76654
▁svakako	-9.76694
▁Marija	-9.7671
▁potrebe	-9.76807
▁Velik	-9.76845
▁potra	-9.76855
▁drugoj	-9.76861
▁dvo	-9.76907
čini	-9.7706
kao	-9.77134
▁plav	-9.77138
nula	-9.77165
▁savez	-9.77189
▁pogotovo	-9.77203
▁2020.	-9.77204
▁pala	-9.77305
▁profesor	-9.77401
▁blizini	-9.77402
▁ožujka	-9.77402
▁počeo	-9.77433
▁Bit	-9.77448
▁iznimno	-9.77499
▁nada	-9.77521
▁milijun	-9.77606
▁cijelu	-9.7762
▁predsjedničk	-9.77634
▁Fr	-9.77658
nov	-9.77697
vit	-9.77769
vijesti	-9.7781
dić	-9.77841
▁tro	-9.779
▁imam	-9.77939
▁ovako	-9.77967
▁dvoboj	-9.78002
▁Robert	-9.78009
▁Bri	-9.7802
▁politi	-9.78071
▁tema	-9.78078
▁koš	-9.78079
kog	-9.78097
▁(4	-9.78174
▁kulture	-9.78201
▁uslijed	-9.78201
ljuje	-9.78202
▁uključi	-9.7828
žić	-9.78397
▁naglasio	-9.78403
▁seksualn	-9.78404
kama	-9.78446
ly	-9.78526
▁moje	-9.78557
▁najveće	-9.78561
▁Kra	-9.78568
▁kuha	-9.7857
▁Portugal	-9.78603
▁pjesmu	-9.78603
▁uspjeli	-9.78603
▁uređaj	-9.78603
elj	-9.7866
har	-9.78713
▁službeno	-9.78749
▁pacijent	-9.78805
▁Zna	-9.78847
▁pronaći	-9.78867
▁politike	-9.78912
▁izgubio	-9.7895
▁došla	-9.79033
▁potres	-9.79036
▁nastavi	-9.79053
▁čuva	-9.7915
▁nevjerojatn	-9.79209
▁sezoni	-9.79215
vcu	-9.79238
▁He	-9.79276
telja	-9.79289
▁Pet	-9.79385
▁centra	-9.79411
▁fakultet	-9.79412
▁ljeto	-9.79414
▁Policijsk	-9.79416
▁napadač	-9.79428
▁hrvatskom	-9.79457
vio	-9.795
▁Naravno	-9.79615
▁Gi	-9.79669
▁opis	-9.79709
Ž	-9.79717
deset	-9.79779
▁Stra	-9.79831
▁igrači	-9.79912
▁krajem	-9.79998
▁sredstva	-9.80023
▁kapetan	-9.80024
gar	-9.80035
▁branitelj	-9.80083
▁spas	-9.80107
▁četvrti	-9.80136
▁Er	-9.80159
pos	-9.8016
▁Ci	-9.80168
rne	-9.80179
ivanje	-9.80218
▁digitaln	-9.80227
▁finale	-9.80232
▁profesionaln	-9.80245
▁(5	-9.8025
▁sljedeće	-9.80254
kan	-9.80274
▁Tri	-9.80397
▁vrhunsk	-9.80432
▁umjeren	-9.80432
▁Ministarstvo	-9.8044
ct	-9.80514
▁Parizu	-9.80519
▁igrali	-9.80668
▁fi	-9.80708
▁stalno	-9.80712
▁skupina	-9.80719
▁ukrajinsk	-9.80731
▁istraživanje	-9.80788
▁natječaj	-9.80845
čna	-9.80854
nska	-9.80863
▁Stan	-9.80895
▁prosječn	-9.81082
gan	-9.81204
▁sami	-9.81234
▁okuplja	-9.81257
▁Jedna	-9.8126
▁svlada	-9.81261
▁vratio	-9.81293
▁obje	-9.81317
slo	-9.81329
▁razgovara	-9.81342
▁rezultate	-9.81344
▁trenera	-9.81352
▁Ove	-9.81384
▁Is	-9.81417
▁prvenstvo	-9.81463
▁Moj	-9.8149
ljenje	-9.81572
▁budućnosti	-9.81722
▁priču	-9.81737
▁portal	-9.81883
▁bl	-9.81888
▁roditelji	-9.81913
▁Pot	-9.81928
▁DP	-9.81946
▁vojni	-9.82089
▁dijeli	-9.82092
▁ostalim	-9.82136
▁većina	-9.82146
▁posu	-9.82147
▁policijsk	-9.82167
top	-9.82423
▁Karl	-9.82462
▁bar	-9.82488
▁ekipa	-9.82505
▁Sad	-9.8251
▁krug	-9.82565
ved	-9.82619
▁objasnio	-9.82688
▁Ministarstva	-9.82722
▁zaštiti	-9.82724
▁mogućnosti	-9.82732
vljen	-9.82782
▁7.	-9.82817
▁prvih	-9.8282
▁osu	-9.829
▁Ono	-9.8292
▁društvu	-9.82925
▁hotel	-9.83049
nar	-9.83088
ral	-9.83133
▁reprezentacija	-9.83135
▁mjera	-9.83137
kinja	-9.83253
45	-9.83253
▁stranka	-9.83332
▁uzrok	-9.83339
rs	-9.8335
▁medija	-9.83459
stala	-9.83468
▁znamo	-9.8356
▁Ben	-9.836
▁gubi	-9.83618
▁trebaju	-9.83664
▁najboljih	-9.83677
▁poznato	-9.8368
▁Njegov	-9.83699
▁prof	-9.83709
lne	-9.83747
▁doprinos	-9.83769
▁nekom	-9.83809
▁zajednice	-9.83828
▁ulaz	-9.83857
▁očito	-9.83883
pred	-9.83913
sc	-9.8392
▁prvak	-9.83931
2)	-9.8397
▁noć	-9.83979
▁olimpijsk	-9.83981
▁suradnji	-9.83982
▁učiniti	-9.83996
▁trg	-9.84004
▁vruć	-9.84016
▁sportaš	-9.84029
▁uvjet	-9.84067
▁poraza	-9.84086
▁dječj	-9.84199
▁prošli	-9.84203
čkih	-9.84342
▁more	-9.8435
▁razred	-9.84354
▁podru	-9.84369
▁nesreće	-9.84424
slu	-9.84463
▁probleme	-9.84477
▁San	-9.84491
godišnjeg	-9.84559
▁središnj	-9.84621
▁početak	-9.84622
▁finalu	-9.84624
čev	-9.84661
3.	-9.84667
▁Val	-9.84675
▁udarac	-9.84765
▁tip	-9.84776
▁loptu	-9.84836
▁čij	-9.84852
▁prekid	-9.84858
▁van	-9.84875
▁ikad	-9.84893
▁17.	-9.84922
pit	-9.84927
▁rješava	-9.8505
▁situacije	-9.8505
▁20.	-9.85077
▁informacija	-9.85099
▁rub	-9.85279
kva	-9.85298
▁odr	-9.85313
niku	-9.85372
▁for	-9.85387
▁zaslu	-9.85422
▁prona	-9.85431
▁Če	-9.8545
▁Sabor	-9.85454
▁imate	-9.8546
▁bori	-9.85498
čenje	-9.85598
▁Ona	-9.85649
1)	-9.85691
▁potvr	-9.85693
▁Sud	-9.85739
▁vrh	-9.85742
▁idu	-9.85789
▁sezona	-9.85925
▁komentira	-9.85962
▁važnost	-9.85976
avaju	-9.85983
▁Cr	-9.86014
▁godišnje	-9.86088
▁znanstven	-9.86092
▁točno	-9.86112
lazak	-9.86118
▁zaštite	-9.86134
ist	-9.86147
▁Goran	-9.8615
▁incident	-9.8617
▁školsk	-9.86348
▁autobus	-9.86348
▁iskustva	-9.86349
▁pogodak	-9.8641
▁bolnici	-9.86423
rk	-9.86503
▁pamet	-9.86525
▁super	-9.86528
▁ceste	-9.86567
!"	-9.86578
dija	-9.86645
▁poruka	-9.86654
▁15.	-9.86663
▁politički	-9.86736
▁meč	-9.86743
▁otišao	-9.86787
▁slijedi	-9.86791
▁povećanje	-9.86793
▁Rusija	-9.86864
biti	-9.86937
▁jugo	-9.86938
▁imena	-9.86952
▁ruku	-9.86965
▁prošlog	-9.86985
▁funkcionira	-9.87002
▁Iran	-9.87026
▁posljednji	-9.87028
vodi	-9.87056
▁dvoje	-9.87111
▁lijepo	-9.87204
▁Tko	-9.87208
▁tržištu	-9.87221
▁lakše	-9.87247
▁unutarnj	-9.87253
▁Jadranu	-9.87354
▁našu	-9.87358
:00	-9.87376
▁ulici	-9.87425
▁Fe	-9.87488
ow	-9.87509
▁zraka	-9.8751
▁zahval	-9.87563
▁nama	-9.87637
iranja	-9.87643
▁ubijen	-9.87671
▁negativ	-9.87705
▁ovoga	-9.8777
▁gradi	-9.87788
▁pregled	-9.87813
▁Fu	-9.87833
▁doba	-9.87851
▁sina	-9.87855
▁Doda	-9.87857
▁zvijezda	-9.87882
▁kratko	-9.8791
▁Mario	-9.87996
▁karijeri	-9.88104
▁bivš	-9.88106
▁potvrdio	-9.88119
▁Među	-9.88168
▁des	-9.88238
▁smanji	-9.88266
▁oblik	-9.88271
▁osvojila	-9.88304
ito	-9.88319
▁okolnosti	-9.88339
▁rođendan	-9.8835
vjes	-9.88422
▁komad	-9.88496
▁osjeti	-9.88505
riju	-9.8851
▁manji	-9.8852
▁Pogledajte	-9.88547
▁usluga	-9.88549
▁tvrde	-9.88621
▁Splita	-9.88626
tke	-9.88741
▁iskren	-9.88808
▁zajedni	-9.88835
ph	-9.8886
▁javlja	-9.88891
▁33	-9.88963
▁Nova	-9.89002
▁fotografija	-9.89027
pom	-9.89139
▁Instagramu	-9.89212
▁pros	-9.89436
▁priopćenju	-9.89441
▁tjelesn	-9.89441
zda	-9.89504
▁borbe	-9.89516
▁Sam	-9.89552
▁govore	-9.89582
▁otkaz	-9.89604
▁postupak	-9.89623
▁proizvođač	-9.89666
▁razdoblju	-9.89666
▁liječnik	-9.89668
▁Europsk	-9.89731
▁povijest	-9.89772
▁Čak	-9.89776
▁Božić	-9.89778
jić	-9.8978
▁div	-9.89785
▁vrijednost	-9.8979
▁stadion	-9.89841
▁45	-9.89851
▁prikaz	-9.89853
▁Baby	-9.89909
▁sastoj	-9.89911
spor	-9.89932
▁državni	-9.89991
▁Damir	-9.89993
▁brak	-9.90007
▁zid	-9.90019
▁Dub	-9.90043
▁odnosi	-9.90047
▁jedino	-9.90089
▁nadležn	-9.90117
▁glumi	-9.90132
bila	-9.90135
▁obrani	-9.90143
▁temelj	-9.90297
▁vodeć	-9.90344
▁strana	-9.90384
irali	-9.9039
▁veza	-9.90535
▁Bre	-9.90584
▁naši	-9.90617
Č	-9.90626
kinu	-9.90647
▁napor	-9.90692
▁stoga	-9.90741
▁vidjeli	-9.90799
▁ostale	-9.90803
▁kojemu	-9.90829
▁svjetski	-9.90833
▁potpisa	-9.90873
ple	-9.90892
vol	-9.90991
sija	-9.90992
ban	-9.91022
▁City	-9.91037
▁Mora	-9.9116
▁moli	-9.91191
▁vanjsk	-9.91209
lina	-9.91268
▁Đ	-9.91272
▁uspješno	-9.91315
▁san	-9.91406
tora	-9.91422
ega	-9.91451
▁ukupn	-9.91464
▁park	-9.91507
▁dogodila	-9.91577
▁broja	-9.91653
cem	-9.91655
▁hrvatska	-9.91712
▁status	-9.91712
▁njoj	-9.91713
▁moja	-9.91718
▁stigla	-9.91718
▁Mnogi	-9.91728
▁pas	-9.91859
▁radu	-9.91886
▁strada	-9.91917
▁moru	-9.91919
▁radnika	-9.92002
▁fotograf	-9.92048
▁onaj	-9.92172
▁lov	-9.92245
▁želim	-9.92302
▁kontakt	-9.92313
▁kanal	-9.92358
▁voda	-9.92385
▁pohvali	-9.92405
▁11.	-9.92489
▁borbi	-9.92489
▁bli	-9.92545
▁vijest	-9.92625
▁iskoristi	-9.92816
nes	-9.92834
▁velikom	-9.92849
▁rješenja	-9.92866
▁školu	-9.92867
▁komentirao	-9.92875
▁šut	-9.92958
inje	-9.92981
▁5.	-9.93024
▁energetsk	-9.93099
▁Poljsk	-9.93116
▁odgovorio	-9.93121
esto	-9.93171
▁zemlja	-9.93189
▁održati	-9.93194
▁volim	-9.93292
▁vidio	-9.93295
irala	-9.93308
▁zgrade	-9.93334
▁For	-9.93335
▁brend	-9.93337
▁poplav	-9.93372
▁pronađen	-9.93592
▁seks	-9.93649
▁našoj	-9.9367
▁unije	-9.93722
▁vrt	-9.93722
▁osvaja	-9.93757
▁kakav	-9.93849
▁utvrdi	-9.93853
▁svečan	-9.93886
▁našem	-9.93893
▁Inače	-9.9404
▁naziva	-9.94049
▁8.	-9.94103
ređen	-9.94108
▁Hrvat	-9.94226
▁poljoprivredn	-9.9427
▁španjolsk	-9.9427
▁domaći	-9.94295
▁prijatelji	-9.94302
jak	-9.94329
čak	-9.94348
▁optu	-9.9436
▁unatoč	-9.94475
▁milijardi	-9.94506
fr	-9.94528
▁razvoja	-9.94539
▁Zagrebačk	-9.94542
▁Nisam	-9.94557
▁nagradu	-9.94558
misli	-9.94671
vil	-9.94684
▁golova	-9.94711
vač	-9.94716
▁kilograma	-9.94788
Za	-9.94832
čeni	-9.94921
▁smještaj	-9.94979
▁počela	-9.94993
▁nogomet	-9.95056
▁Pla	-9.95094
▁budućnost	-9.95157
▁vremenu	-9.95217
▁zaštitu	-9.95218
▁britansk	-9.95218
▁nikakv	-9.95244
▁proizvodi	-9.95253
▁srca	-9.95289
ny	-9.95303
▁vaše	-9.95385
▁proizvod	-9.95485
▁centru	-9.95496
▁Isto	-9.95544
▁lijek	-9.95618
▁financira	-9.95724
▁temelju	-9.95746
▁sektor	-9.95752
▁žensk	-9.95791
▁Ameri	-9.95813
▁cijel	-9.95878
▁Vol	-9.95929
▁karijeru	-9.95933
▁vidljiv	-9.95992
▁navijača	-9.95993
▁komentar	-9.96041
▁donio	-9.96083
▁treće	-9.96101
▁4.	-9.96114
▁vjerujem	-9.9616
▁regionaln	-9.96172
▁York	-9.96175
▁zadnji	-9.96215
▁zatvora	-9.96312
▁preporu	-9.96334
▁21.	-9.96336
les	-9.96363
▁podržava	-9.96386
▁navečer	-9.96413
▁nadam	-9.96469
▁dipl	-9.96476
▁Gre	-9.96504
▁vina	-9.96531
▁turnira	-9.96535
▁kome	-9.96537
▁cijele	-9.96546
▁postavi	-9.96568
▁ostala	-9.96599
rka	-9.96646
▁2019.	-9.96654
▁govorio	-9.9667
▁vatre	-9.96754
▁svaka	-9.96771
▁vrhu	-9.96817
glav	-9.96838
▁Milan	-9.96846
▁simbol	-9.96889
▁oštećen	-9.96896
▁kategoriji	-9.96903
▁potencijal	-9.9701
▁dovesti	-9.9714
▁velik	-9.97171
▁serije	-9.97205
▁mušk	-9.9723
niju	-9.97253
▁smjer	-9.97334
reb	-9.97349
▁teritorij	-9.9738
▁stoljeća	-9.9738
▁okr	-9.97382
▁srce	-9.97409
▁takve	-9.97437
▁nekad	-9.97609
▁Turudić	-9.97624
▁htio	-9.97641
▁ići	-9.97696
▁stres	-9.97712
▁para	-9.97857
▁igraju	-9.97888
▁nesreća	-9.97888
▁raste	-9.97903
jedno	-9.97913
▁Bila	-9.97974
▁poruku	-9.97994
▁europskih	-9.97995
▁bitno	-9.98051
▁njihovu	-9.98118
▁Bijel	-9.98141
rske	-9.98198
▁Gol	-9.98252
▁gledati	-9.98338
▁slobodno	-9.98357
▁mobitel	-9.98357
▁školi	-9.98366
▁pogledajte	-9.98375
▁Rijeci	-9.98433
▁zakona	-9.98496
▁We	-9.98547
▁ruski	-9.98566
▁smatraju	-9.98571
broj	-9.98592
▁anti	-9.98628
▁novčan	-9.98642
▁razvija	-9.98669
▁Bez	-9.98709
▁uvjetima	-9.98739
▁rasta	-9.98746
▁Možemo	-9.98753
▁Mađarsk	-9.98762
vođe	-9.98804
▁velikog	-9.98813
▁kapacitet	-9.98849
▁dobre	-9.98856
▁programu	-9.98878
ft	-9.9893
▁medije	-9.98994
mina	-9.99003
▁12.	-9.99024
rek	-9.99038
▁Hrvati	-9.9911
▁kratk	-9.99134
gur	-9.99295
▁grupe	-9.99345
▁donijeti	-9.99352
sjed	-9.9939
▁dvor	-9.99391
▁luk	-9.99423
▁redatelj	-9.99442
▁drži	-9.99462
▁tehničk	-9.99465
▁stanova	-9.9952
▁članova	-9.99545
▁zahvaljujući	-9.99592
▁plasman	-9.99592
▁Koliko	-9.99595
▁duh	-9.99714
▁boje	-9.9992
▁top	-10.0001
▁prednost	-10.0004
▁ograničen	-10.0006
▁spor	-10.0008
▁sv	-10.0012
▁odigrao	-10.0017
To	-10.0017
▁sjever	-10.0018
▁povećan	-10.0019
▁podataka	-10.0028
▁saborsk	-10.0029
obra	-10.0032
▁obo	-10.0038
▁Petra	-10.0044
▁čine	-10.005
▁financijski	-10.0059
▁sredstava	-10.0059
▁završn	-10.006
sne	-10.0062
▁odluči	-10.0063
▁izlaz	-10.0063
cent	-10.0064
lozi	-10.0066
▁nalaze	-10.0066
rac	-10.0077
▁show	-10.0077
▁18.	-10.0077
vale	-10.008
stati	-10.0087
▁internet	-10.0096
▁iduć	-10.0096
▁km	-10.0113
▁Jako	-10.0121
▁hr	-10.0122
▁velikih	-10.0129
▁Nove	-10.013
stanak	-10.0132
šan	-10.0132
ljenja	-10.0134
▁dizajn	-10.0135
▁et	-10.0136
▁aut	-10.0142
hat	-10.0144
▁američk	-10.0147
▁visoko	-10.0156
▁Ukrajine	-10.016
▁englesk	-10.016
▁Vladimir	-10.0161
▁razv	-10.0177
▁Mil	-10.0178
▁sir	-10.0183
▁istaknula	-10.0185
▁blizu	-10.0187
▁ovogodišnj	-10.019
▁igru	-10.0191
▁listi	-10.0192
gle	-10.0198
▁manj	-10.0202
▁Krist	-10.0206
▁omiljen	-10.0211
▁lokal	-10.022
▁motiv	-10.022
▁završila	-10.0226
▁parkira	-10.0228
rski	-10.023
ovati	-10.0233
▁32	-10.0234
ljak	-10.0234
▁zločin	-10.0234
▁njegovim	-10.0236
▁muzej	-10.0239
▁vrsta	-10.0249
▁znati	-10.0259
▁ujedno	-10.026
▁pridruži	-10.0262
▁udruge	-10.0262
▁lani	-10.0265
▁izabran	-10.0266
▁bolnice	-10.0268
▁Kan	-10.0272
▁Ć	-10.0275
▁poklon	-10.0276
svim	-10.0288
▁parlamentarn	-10.0289
▁primijeti	-10.029
▁podacima	-10.029
▁članica	-10.0292
godišnja	-10.0296
▁avion	-10.03
jka	-10.0301
▁skladu	-10.0302
▁meta	-10.0303
▁10.	-10.0307
▁spominj	-10.0313
▁Jadran	-10.0329
▁istraživanja	-10.033
▁pokreta	-10.0336
▁modn	-10.0337
▁Njihov	-10.0339
▁nastavku	-10.034
▁jača	-10.0347
25	-10.0349
kav	-10.0351
ške	-10.0366
▁premijera	-10.0367
▁pobijedio	-10.0374
▁medijsk	-10.0376
▁hlad	-10.0377
▁iznenadi	-10.038
▁djeci	-10.0382
▁istom	-10.0389
port	-10.0398
age	-10.0398
▁kuću	-10.0401
▁sabor	-10.0401
▁ozljeda	-10.0417
▁promijeniti	-10.0419
▁Kod	-10.0419
▁ostalo	-10.0419
▁završi	-10.0421
▁nagrade	-10.0424
▁konačno	-10.0424
▁stariji	-10.0427
▁Bož	-10.0427
▁Prošl	-10.0431
▁košta	-10.0439
▁kriminal	-10.044
▁Donald	-10.0443
▁Igor	-10.0445
▁iskaz	-10.0447
▁odbora	-10.0456
▁Ed	-10.0457
▁Odlu	-10.0457
▁tehni	-10.0459
▁sudac	-10.0461
ham	-10.0463
▁muškarac	-10.0465
▁produ	-10.0469
reme	-10.0471
šću	-10.0472
▁Slaven	-10.0472
▁njegovom	-10.0476
▁južn	-10.0476
▁župan	-10.048
▁javnog	-10.0492
▁uspostav	-10.0492
▁pozornost	-10.0495
▁boja	-10.0502
▁topli	-10.0505
▁žive	-10.0507
▁str	-10.052
▁Domovinskog	-10.0521
▁pojavi	-10.0531
▁medijima	-10.0531
▁slika	-10.0534
▁fr	-10.0534
▁sljede	-10.0537
▁Ber	-10.0538
▁izme	-10.0543
▁znatno	-10.0549
nite	-10.056
▁kop	-10.0567
▁stupnjeva	-10.0574
▁tijeku	-10.0598
▁priop	-10.0599
▁Ukrajinu	-10.06
▁posljedica	-10.0601
▁redovito	-10.0602
▁desetak	-10.0609
▁veliko	-10.0612
anović	-10.0619
bom	-10.0623
▁Hr	-10.0625
▁Možda	-10.0627
štva	-10.0629
▁vlade	-10.0631
bić	-10.0632
▁lokalno	-10.0635
▁°	-10.0638
▁čita	-10.0641
▁Dalić	-10.0645
▁riječima	-10.0647
dor	-10.0648
▁konkretn	-10.0654
▁Ukrajina	-10.0654
▁smislu	-10.0654
▁36	-10.066
ley	-10.0664
▁dub	-10.0666
▁zadr	-10.0676
▁Em	-10.0677
▁pjevač	-10.068
▁naglašava	-10.068
▁organizacije	-10.0681
▁mre	-10.0681
▁otkri	-10.0684
▁sre	-10.0685
pala	-10.069
▁spreman	-10.0706
▁poziciju	-10.0707
▁pozvao	-10.0707
▁tužitelj	-10.0707
▁Dragan	-10.0708
▁odnose	-10.0709
inama	-10.0712
rani	-10.0713
▁njegovo	-10.0716
▁Svjetsk	-10.0717
0)	-10.0718
▁uvjeren	-10.0722
▁dogoditi	-10.0727
▁13.	-10.0728
▁ulazi	-10.0729
▁Sjevern	-10.0733
▁situaciji	-10.0734
▁Hamas	-10.0739
laganje	-10.0741
ncu	-10.0743
▁pravila	-10.0743
▁dobit	-10.0753
▁Davor	-10.0767
pić	-10.0769
MA	-10.0781
▁plo	-10.0785
▁euro	-10.0788
▁ostvaren	-10.0788
▁njihovo	-10.0791
▁najvećih	-10.0793
▁kamen	-10.0793
▁američki	-10.0793
▁dokaza	-10.0795
▁ideja	-10.0802
▁obavlja	-10.0803
ženi	-10.0803
▁okru	-10.0805
▁skupini	-10.0808
▁odvija	-10.0809
▁500	-10.0811
▁prednosti	-10.0814
▁mreže	-10.0819
▁čovjeka	-10.0822
Ma	-10.0827
▁nagrada	-10.0828
đan	-10.0839
▁maksimaln	-10.0842
▁vremensk	-10.0842
▁29	-10.0842
▁polu	-10.0843
▁6.	-10.0844
▁kinesk	-10.0846
▁Most	-10.0848
▁djevoj	-10.0849
▁stavlja	-10.0853
TA	-10.0856
▁Ivica	-10.0858
12	-10.0858
šlo	-10.0859
▁filmu	-10.0864
▁lice	-10.0868
▁pored	-10.0869
▁temperature	-10.0869
▁Ljudi	-10.0869
▁tisuće	-10.0871
▁kreće	-10.0876
gura	-10.0876
▁34	-10.0878
▁Imamo	-10.0881
▁prošao	-10.0884
rni	-10.0889
▁porez	-10.0889
čara	-10.0891
▁TikTok	-10.0896
▁postigao	-10.0896
vlače	-10.0898
▁neovisn	-10.0898
▁predstavi	-10.0902
▁bend	-10.0903
ivati	-10.0905
ista	-10.0909
▁rek	-10.091
▁pozdrav	-10.0913
▁slično	-10.0917
▁glazbeni	-10.0918
▁pokazati	-10.0925
▁John	-10.0925
▁prostoru	-10.0941
▁potpunosti	-10.0944
ključ	-10.0945
▁prijatelja	-10.0945
▁istraživa	-10.0946
▁Mon	-10.0949
▁ponekad	-10.0951
▁dosadašnj	-10.0951
▁2018.	-10.0951
▁obilje	-10.0956
rna	-10.0963
"",	-10.0965
▁moguć	-10.0966
▁zavod	-10.0967
▁vozilo	-10.0967
▁Kate	-10.0967
▁pobje	-10.097
▁Tada	-10.097
olog	-10.0975
▁čestit	-10.0976
▁Gar	-10.0976
▁regiji	-10.0978
▁pokazali	-10.098
▁Srbiji	-10.0981
▁Vučić	-10.0983
▁njezine	-10.0984
▁umjetničk	-10.0985
▁riješiti	-10.0991
▁v	-10.0995
▁postavljen	-10.0995
čila	-10.0996
▁usluge	-10.1006
▁Upravo	-10.1006
▁proveden	-10.1006
▁period	-10.1006
▁znanja	-10.1007
▁moć	-10.1007
▁kakvo	-10.1009
▁lista	-10.1016
▁lagan	-10.1019
wi	-10.102
čica	-10.1022
▁Zadra	-10.1023
▁puca	-10.1024
▁različitih	-10.1025
bre	-10.1026
▁najve	-10.1029
▁Njema	-10.1031
▁sporazum	-10.1033
▁vrati	-10.1034
▁roku	-10.1035
▁ovisi	-10.1036
▁cijeni	-10.1037
▁jednim	-10.104
▁Inter	-10.1042
▁njihovim	-10.1045
▁roman	-10.1045
▁volje	-10.1051
▁brojni	-10.1051
▁Sch	-10.1052
of	-10.1054
▁širi	-10.1054
▁dogodio	-10.1054
▁ozbiljno	-10.1059
▁sekundi	-10.1061
▁glavu	-10.1062
▁blisk	-10.1063
▁morati	-10.1064
▁pogodio	-10.1066
▁w	-10.1068
▁planu	-10.107
▁sljedeći	-10.107
▁ruske	-10.1075
▁susretu	-10.1077
▁14.	-10.1079
▁odgoj	-10.1081
▁nuklearn	-10.1089
▁stari	-10.1089
▁skoro	-10.1091
▁političar	-10.1098
▁takvo	-10.1102
RO	-10.1107
▁ušao	-10.1109
▁ratu	-10.111
▁predsjedni	-10.1112
▁društven	-10.1114
▁postavlja	-10.1116
▁građane	-10.1117
▁šanse	-10.1117
▁uključuje	-10.1117
▁nepoznat	-10.1117
▁rastu	-10.112
▁ističu	-10.1123
▁iduće	-10.1143
▁područje	-10.1145
▁udruga	-10.1145
▁uvjete	-10.1148
▁poznata	-10.1151
pun	-10.1158
rno	-10.1158
▁napadu	-10.1166
ten	-10.1168
▁Kos	-10.117
▁obla	-10.1175
▁odlično	-10.1176
▁vijeća	-10.1176
▁jednako	-10.1176
▁upozorava	-10.1177
zov	-10.1177
irana	-10.1179
▁granice	-10.118
▁turnir	-10.118
sve	-10.1188
▁glavnog	-10.1193
tov	-10.1199
é	-10.1201
vija	-10.1212
▁Trg	-10.1214
▁njihovih	-10.1216
▁odlučili	-10.1219
▁Županijsk	-10.1221
▁koga	-10.1221
16	-10.1224
▁nekog	-10.1224
▁teške	-10.1225
▁kazne	-10.1227
▁tvrd	-10.1227
▁starije	-10.1229
▁vratar	-10.123
▁alkohola	-10.1231
line	-10.1236
▁Može	-10.1236
▁zahvat	-10.1239
▁okus	-10.1242
nicama	-10.1243
▁vikend	-10.1244
▁Europskog	-10.1249
▁napravi	-10.125
27	-10.1251
ljivi	-10.1256
▁bivšeg	-10.1256
▁2016.	-10.1257
▁dolazak	-10.1262
▁vjetar	-10.1262
▁Lov	-10.1263
▁protu	-10.1266
vanjem	-10.1266
lović	-10.1267
▁mnogim	-10.127
▁kredit	-10.127
▁napravili	-10.1272
▁sumnja	-10.1278
19	-10.1278
▁spomen	-10.1281
▁dakle	-10.1281
▁man	-10.1282
▁obično	-10.1292
▁navijači	-10.1293
▁Varaždina	-10.1295
▁Zadru	-10.1299
▁kat	-10.1299
▁udara	-10.13
▁Stoga	-10.1301
▁stra	-10.1305
▁korištenje	-10.1311
▁gosti	-10.1311
ljub	-10.1312
▁zajednica	-10.1313
X	-10.1313
▁pjesma	-10.1314
▁Hi	-10.1317
▁teži	-10.1318
▁radni	-10.1321
▁the	-10.1322
▁grob	-10.1323
rbi	-10.1324
▁značajno	-10.1333
▁telefon	-10.1338
▁igrama	-10.1339
▁pregleda	-10.134
▁Primorac	-10.1342
▁knjige	-10.1342
▁podatke	-10.1343
▁izvrsn	-10.1343
▁Brazil	-10.1343
▁načelnik	-10.1348
▁doista	-10.1348
▁9.	-10.1353
prost	-10.1355
▁papir	-10.1356
▁sportski	-10.1359
▁slavn	-10.1362
elim	-10.1364
▁vlak	-10.1369
▁glumac	-10.1371
▁tvrtki	-10.1371
▁minimaln	-10.1372
ovca	-10.1373
▁međutim	-10.1374
▁Crven	-10.1374
VA	-10.1378
▁sjedi	-10.1383
▁Dugo	-10.1387
▁stvori	-10.1389
▁pojačan	-10.1392
▁reda	-10.1394
natoč	-10.14
▁konferenciji	-10.14
▁reprezentaciju	-10.14
▁prodaje	-10.14
▁današnje	-10.1401
▁povrat	-10.1401
▁Zakon	-10.1403
alna	-10.1405
▁Opć	-10.1405
▁Med	-10.1416
▁Ča	-10.1417
▁zemljama	-10.1418
▁most	-10.142
tječe	-10.1422
nz	-10.1422
jedi	-10.1425
▁pisan	-10.1426
▁intenzivn	-10.1428
▁300	-10.143
▁oprez	-10.1437
▁primjerice	-10.1443
▁proračun	-10.1445
▁otka	-10.1451
\	-10.1453
▁dijelom	-10.1457
▁napla	-10.146
▁snagu	-10.1463
rač	-10.1467
▁vrijedi	-10.1467
▁politika	-10.1467
▁svakodnevno	-10.1477
▁krvi	-10.1477
▁pusti	-10.1477
▁Ulic	-10.1485
nc	-10.1486
▁veljače	-10.1486
▁Europskom	-10.1488
▁klju	-10.1488
▁bolnicu	-10.149
▁natje	-10.1491
nuli	-10.1498
rp	-10.1498
▁cijelo	-10.1499
▁znanosti	-10.15
▁smrt	-10.1513
▁institucija	-10.1515
▁Gradsk	-10.1518
▁serija	-10.1522
NA	-10.1527
▁igrače	-10.1536
▁puš	-10.1542
bel	-10.1546
▁čije	-10.1549
▁odrasl	-10.1555
▁dis	-10.1575
▁ratn	-10.1576
▁ostalih	-10.1579
sljed	-10.1581
▁Varaždinu	-10.1586
▁16.	-10.1587
dnjih	-10.1592
vili	-10.1593
▁glumica	-10.1601
▁stamben	-10.1603
▁kap	-10.1609
▁ligi	-10.161
▁30.	-10.1611
▁naroda	-10.1612
▁organ	-10.1617
ers	-10.1625
vukao	-10.1626
▁besplatn	-10.1632
▁izbaci	-10.1633
▁blagdan	-10.1634
▁broju	-10.1636
▁nu	-10.1643
11	-10.1644
▁razinu	-10.1646
▁mag	-10.1646
▁učenika	-10.1652
▁Sel	-10.1654
jesti	-10.1656
krat	-10.1658
▁Nj	-10.1659
▁Novo	-10.1661
▁kvalitete	-10.1661
▁prilike	-10.1662
▁izuzetno	-10.1664
▁fotografiju	-10.1664
▁morao	-10.1666
▁ispra	-10.1676
▁izgubi	-10.1677
▁proizvodnje	-10.1681
godišnje	-10.1682
▁priznao	-10.169
▁sigurni	-10.1691
▁snijeg	-10.1697
▁uklju	-10.1698
4)	-10.1706
▁Ir	-10.1707
bol	-10.1708
▁poruke	-10.1709
▁En	-10.171
▁sumnje	-10.1713
▁vodio	-10.1714
▁eksp	-10.172
▁objave	-10.172
▁osigurava	-10.1722
...'	-10.1723
isto	-10.1726
▁stana	-10.1733
▁dogodi	-10.1742
▁oduševljen	-10.175
▁tržište	-10.175
▁KBC	-10.175
šća	-10.1751
▁vole	-10.1751
▁pritom	-10.1753
▁Japan	-10.1762
▁nastavio	-10.1763
▁odlučila	-10.1769
▁drago	-10.177
štvo	-10.1772
▁vijesti	-10.1777
▁položaj	-10.178
▁okvir	-10.1781
▁razvoju	-10.1782
▁nogometa	-10.1784
ovec	-10.1795
▁zastupnika	-10.1804
▁iznosu	-10.1806
▁al	-10.1807
▁vodu	-10.1808
▁platformi	-10.181
17	-10.1812
▁Državn	-10.1817
▁stranici	-10.1817
▁zaustavi	-10.1818
▁zdravlja	-10.1821
▁Hrvata	-10.1834
▁omogu	-10.1838
▁započel	-10.184
▁Instagram	-10.184
▁Vin	-10.1847
▁Dobro	-10.1851
▁Zašto	-10.1851
▁mjesečn	-10.1852
▁uzima	-10.1855
▁ljubi	-10.1856
▁otpad	-10.1857
nskom	-10.1858
yja	-10.1859
▁stanovnika	-10.1862
▁zlo	-10.1863
▁cesta	-10.1863
▁Ves	-10.1865
▁dobru	-10.1871
we	-10.1874
▁najljepš	-10.1875
▁legendarn	-10.1878
▁Drugi	-10.1881
▁novoj	-10.1886
letio	-10.1889
▁krov	-10.189
▁Trumpa	-10.1895
▁favorit	-10.19
▁vatrogasn	-10.19
▁vrste	-10.1905
▁neku	-10.1906
▁građanima	-10.1907
▁boji	-10.1913
▁raka	-10.1923
▁šok	-10.1929
▁doga	-10.193
▁činjenica	-10.193
▁sruši	-10.193
▁zgrada	-10.1931
▁termin	-10.1931
▁želimo	-10.1931
▁Wa	-10.1931
▁prometu	-10.1934
▁David	-10.1941
▁razum	-10.1945
▁pravu	-10.1945
▁detalje	-10.1946
▁derbi	-10.1949
▁trenira	-10.195
▁odjel	-10.1955
dijeli	-10.1955
▁radovi	-10.1957
▁stati	-10.1958
▁Anton	-10.196
vice	-10.196
▁London	-10.196
▁svjetlo	-10.196
▁Posljednj	-10.1961
▁pišu	-10.1961
▁dječak	-10.1962
▁samostaln	-10.1962
▁vjeruje	-10.1962
▁skr	-10.1964
Do	-10.1967
▁Sloven	-10.1977
pek	-10.1981
://	-10.199
▁karakter	-10.1991
▁identitet	-10.1991
▁ulaganja	-10.1991
▁potporu	-10.1991
▁general	-10.1991
▁večeras	-10.1993
▁Istra	-10.2006
▁sjeća	-10.2006
rnu	-10.2008
▁interesa	-10.2008
▁Jug	-10.201
cka	-10.2014
kih	-10.2018
▁Festival	-10.2021
▁zemlju	-10.2022
▁sudu	-10.2026
▁Ljubav	-10.2033
naj	-10.2034
tok	-10.2038
40	-10.2045
▁lokalne	-10.2048
▁obranu	-10.2049
▁nekretnine	-10.2052
▁razdoblje	-10.2052
▁zahtijeva	-10.2052
▁sudionik	-10.2054
▁ponovi	-10.2055
▁govoriti	-10.2057
▁zastupnik	-10.2058
tova	-10.206
▁trenutačno	-10.2064
▁propust	-10.2065
LA	-10.2066
▁Srbija	-10.2067
▁divlj	-10.2071
▁osobi	-10.2077
▁festivala	-10.2078
▁večeri	-10.2081
prot	-10.2083
▁dres	-10.2084
▁svaku	-10.2086
▁reprezentativac	-10.2088
jska	-10.2091
terapij	-10.2091
ivi	-10.21
▁Kat	-10.2101
▁stopa	-10.2104
▁22.	-10.2105
▁olakša	-10.2113
▁Ured	-10.2114
▁izvanredn	-10.2114
▁lak	-10.2115
▁Kli	-10.2117
▁državnog	-10.2125
▁dobije	-10.2128
▁Mor	-10.2129
▁55	-10.2129
licu	-10.2139
▁dnevno	-10.2139
▁kamp	-10.2141
▁Tor	-10.2143
▁cijenu	-10.2145
▁transfer	-10.2145
▁cesti	-10.2145
▁posvećen	-10.2146
▁isključivo	-10.2148
država	-10.2151
zvuč	-10.2151
▁prometne	-10.2155
▁rep	-10.2158
izacije	-10.2162
▁Prva	-10.2164
▁desni	-10.2174
▁natjecanje	-10.2175
▁Ovi	-10.2175
▁štetu	-10.2175
▁putovanja	-10.2176
burg	-10.2177
▁stiže	-10.2179
▁poduze	-10.2181
nder	-10.2183
▁normal	-10.2184
▁vanjskih	-10.2184
▁zrak	-10.2185
▁Dom	-10.2189
cy	-10.2194
ksa	-10.2202
▁ciljem	-10.2204
▁Josipa	-10.2208
▁njegovi	-10.2208
▁proslavi	-10.2208
▁čast	-10.2208
▁Sun	-10.221
▁županija	-10.221
▁pogon	-10.2211
▁povratak	-10.2212
▁ugovora	-10.2215
gli	-10.2219
▁prolazi	-10.2221
▁Luk	-10.2222
▁brojnim	-10.2223
▁car	-10.2229
kin	-10.2232
▁učenici	-10.2237
▁Podr	-10.2238
▁krv	-10.2241
▁tenisač	-10.2244
▁borbu	-10.2245
dosta	-10.2249
▁paket	-10.2257
▁završiti	-10.2268
▁pripada	-10.227
▁njegovog	-10.227
▁naći	-10.2277
shi	-10.2277
▁vlast	-10.2282
▁satima	-10.2283
viz	-10.2284
▁uključen	-10.2285
▁najveća	-10.229
▁njegovoj	-10.229
-3	-10.2293
▁Obje	-10.2294
▁izjavila	-10.2298
▁ponavlja	-10.23
▁suradnju	-10.23
▁Ligi	-10.2302
▁počeli	-10.2302
jević	-10.2305
▁poduzetni	-10.2318
▁uzor	-10.2322
▁Nacionaln	-10.2324
▁razine	-10.2325
▁naveo	-10.2328
▁Međunarodn	-10.2331
▁književn	-10.2331
▁smješten	-10.2331
▁obrazovanja	-10.2331
▁Harris	-10.2332
▁tajnik	-10.2345
▁dodat	-10.2349
cijski	-10.2353
▁tenis	-10.2361
▁europske	-10.2363
▁generacije	-10.2363
▁Perišić	-10.2363
▁krenuo	-10.2365
▁kasn	-10.2367
▁rezultati	-10.2373
▁daljnje	-10.2373
8)	-10.238
▁soli	-10.2389
▁niste	-10.2391
▁baci	-10.2393
▁Talijan	-10.2393
▁proglašen	-10.2395
▁šećer	-10.2395
▁nastavak	-10.2396
▁38	-10.2398
▁predsjednica	-10.2412
rje	-10.2421
▁prijenos	-10.2424
▁nažalost	-10.2426
▁stratešk	-10.2426
▁ministra	-10.2426
▁stajal	-10.2427
▁prodaju	-10.2427
▁Općine	-10.2429
▁propis	-10.2432
21	-10.2437
▁pratiti	-10.2457
▁https	-10.2458
▁hoda	-10.2461
ševi	-10.2463
▁Fin	-10.2465
▁ustavn	-10.2465
▁ulice	-10.2474
▁Alban	-10.2478
▁Mr	-10.2479
▁hrvatskim	-10.2481
▁kvalitetu	-10.249
bir	-10.2491
▁razumije	-10.2491
▁priopćil	-10.2492
čkim	-10.2492
▁Danijel	-10.2497
▁vlastito	-10.2499
▁zagreba	-10.2506
▁zaposlenik	-10.2507
etka	-10.2516
mjesto	-10.2521
▁oružja	-10.2522
▁klimatsk	-10.2522
▁agencija	-10.2522
▁postroj	-10.2523
▁zapovjednik	-10.2526
▁optužn	-10.2529
▁postupa	-10.253
ček	-10.2538
3)	-10.2544
▁korisn	-10.2547
▁Igra	-10.2552
▁zajednički	-10.2554
▁dvostruk	-10.2554
▁uvjerljiv	-10.2557
▁onoga	-10.2557
▁srednje	-10.2557
▁Kri	-10.2558
mis	-10.2558
▁zadovoljni	-10.2561
▁Bayern	-10.2564
bit	-10.2565
▁osigurati	-10.2566
▁Rusije	-10.2568
▁dugogodišnj	-10.2569
▁odnosa	-10.2573
▁fokus	-10.2577
▁oružje	-10.2587
▁djeteta	-10.2587
▁ministri	-10.2587
▁pažnju	-10.2587
▁hranu	-10.2587
▁pomaže	-10.2588
▁usmjeren	-10.2588
▁crveni	-10.2589
▁briga	-10.2594
▁Dubrovnika	-10.2598
pul	-10.2599
▁partnera	-10.2602
▁normalno	-10.261
ight	-10.2617
▁Vatren	-10.2619
▁političke	-10.2621
ženje	-10.2623
▁Dubrovniku	-10.2625
▁umjetnosti	-10.2629
▁šokira	-10.2634
▁istočn	-10.2638
kim	-10.2646
▁zabilježen	-10.2651
▁pripreme	-10.2651
▁trofej	-10.2651
▁med	-10.2654
▁muškaraca	-10.2656
▁postane	-10.2657
▁Vir	-10.2658
nskih	-10.2659
▁izbjegava	-10.2666
▁vikenda	-10.2666
ošću	-10.2676
istički	-10.2683
▁najnovij	-10.2686
▁zdravstva	-10.2688
▁Ustav	-10.2689
▁Van	-10.2689
▁Fer	-10.2691
▁Berlin	-10.2695
▁150	-10.2703
▁obraz	-10.2715
pel	-10.2716
▁najpoznatij	-10.2717
▁vatrogasci	-10.2717
▁kvadrat	-10.2717
▁preminuo	-10.2717
▁utjecati	-10.2717
▁osobama	-10.272
▁Poljudu	-10.2726
▁daljnj	-10.2728
šće	-10.2728
▁odlazi	-10.2728
▁samog	-10.2733
▁39	-10.2736
sci	-10.2738
vode	-10.2739
▁vodstvo	-10.2745
▁svjetskog	-10.2746
▁očekivati	-10.2749
▁lokacija	-10.2749
▁recept	-10.2749
▁ogromn	-10.2749
▁koli	-10.2749
▁ubrzo	-10.2749
▁Bud	-10.275
▁Smatra	-10.275
▁servis	-10.275
▁pogleda	-10.2751
sić	-10.2757
kraj	-10.2766
JE	-10.278
▁prioritet	-10.2782
▁pritisak	-10.2782
▁projekata	-10.2782
▁policiji	-10.2783
▁miris	-10.2783
▁fazi	-10.2784
▁ispuni	-10.2785
▁UN	-10.2786
▁znao	-10.2793
▁blok	-10.2799
▁kiša	-10.2801
▁kut	-10.2805
▁njom	-10.2806
rob	-10.2806
▁saveza	-10.2807
▁protivnik	-10.2814
▁siguran	-10.2815
▁organizaciji	-10.2815
▁božićn	-10.2816
▁krevet	-10.2816
▁nasilja	-10.2817
▁Hrvatskom	-10.2818
▁ljubavn	-10.2832
▁lijevo	-10.2832
dala	-10.2833
▁tj	-10.2844
▁cijelog	-10.2848
▁zaštitn	-10.2849
▁važan	-10.2853
▁širok	-10.2854
▁bes	-10.2857
▁obavi	-10.2859
▁Post	-10.2861
▁37	-10.2861
80	-10.2863
▁obliku	-10.2868
▁različite	-10.2869
▁plod	-10.2872
▁otp	-10.2877
"...	-10.2881
▁mišljenje	-10.2882
▁roditelja	-10.2882
▁uzvrat	-10.2882
▁Mark	-10.2884
▁bazen	-10.2884
▁zaposlen	-10.2894
▁vesel	-10.2896
▁zadarsk	-10.2897
kvi	-10.2903
▁male	-10.291
▁PU	-10.2911
_	-10.2915
▁uobičajen	-10.2915
▁Sjedinjen	-10.2915
▁2017.	-10.2915
▁dugoročn	-10.2915
▁Bal	-10.2917
▁Vaš	-10.2921
▁zimsk	-10.2926
▁otpada	-10.2935
▁sklad	-10.2935
▁postojeć	-10.2939
▁pogledati	-10.294
▁odigra	-10.2945
slobodna	-10.2948
▁korist	-10.2948
▁humanitarn	-10.2948
▁međuvremenu	-10.2948
▁Australi	-10.2948
▁itekako	-10.2948
▁turizma	-10.2948
▁suradnje	-10.2949
▁mjeri	-10.2949
▁Njemačka	-10.295
13	-10.2951
▁gradova	-10.2959
▁Met	-10.2963
▁gotov	-10.2963
▁opcija	-10.2972
▁stabiln	-10.2973
▁Željko	-10.2976
▁korisnika	-10.2977
▁javne	-10.2977
▁Njezin	-10.2982
▁pobjedom	-10.2982
▁pokrenut	-10.2983
▁tadašnj	-10.2987
▁Net	-10.2989
▁Zakona	-10.2994
▁kaznenog	-10.3
▁glazbenik	-10.3003
▁donijel	-10.3005
bal	-10.3006
▁ponašanje	-10.301
▁posebice	-10.3016
▁sobom	-10.3017
▁svu	-10.3018
▁pokušao	-10.3019
▁fizičk	-10.3023
▁morali	-10.3026
▁borba	-10.3032
▁II	-10.3033
▁svako	-10.3034
▁najbolja	-10.3038
▁Lasagna	-10.3049
▁emisiji	-10.3049
▁potrošn	-10.305
rska	-10.305
▁sadašnj	-10.3058
NI	-10.3061
▁Dnevnik	-10.3062
▁neto	-10.3066
▁Ili	-10.3069
▁Američk	-10.3071
▁Zapad	-10.3073
▁sukoba	-10.3082
▁strategij	-10.3083
▁podijelila	-10.3083
▁predstavnici	-10.3084
▁suočava	-10.3084
▁izaziva	-10.3085
▁proveo	-10.3085
▁gostima	-10.3087
▁Beogradu	-10.3089
▁(19	-10.3089
▁plasira	-10.3091
▁kakve	-10.3094
▁igara	-10.3099
▁Facebook	-10.31
▁potreba	-10.3105
▁poena	-10.3114
▁rob	-10.3114
▁gospodarstva	-10.3117
▁milijarde	-10.3117
▁vlasništvu	-10.3117
dite	-10.3124
▁službeni	-10.3127
▁vije	-10.3131
▁voditi	-10.3135
▁veli	-10.3135
▁gore	-10.314
▁Sir	-10.3143
▁izvođač	-10.3151
▁kolege	-10.3151
▁Eurosong	-10.3151
▁stručnjaci	-10.3152
▁podrške	-10.3152
▁29.	-10.3153
▁Super	-10.3153
▁karton	-10.3154
▁udaljen	-10.3155
▁prijeti	-10.3157
▁duboko	-10.3161
ndo	-10.3164
▁radili	-10.3168
▁Drago	-10.3169
▁Mile	-10.317
▁Svoj	-10.317
▁Gazi	-10.3173
▁Malo	-10.3175
▁skriva	-10.318
▁europskim	-10.3183
▁publika	-10.3186
▁šibensk	-10.3186
▁knjiga	-10.3186
▁muškarca	-10.3186
▁državi	-10.3186
▁provedb	-10.3186
▁kampanje	-10.3186
▁Srpsk	-10.3187
▁koševa	-10.3188
▁obvezn	-10.3188
mišlja	-10.319
▁ostvariti	-10.3193
que	-10.3194
▁26.	-10.3197
tivni	-10.3199
▁Han	-10.3201
▁75	-10.3208
pravda	-10.321
▁Plan	-10.3215
▁kontrolira	-10.3216
▁povodom	-10.3216
▁podsjeća	-10.322
▁napomenu	-10.322
▁preuzima	-10.322
▁Brod	-10.3224
▁suprugom	-10.3228
staju	-10.3231
ivjeli	-10.3236
▁Ivo	-10.3236
▁podr	-10.3242
18	-10.3244
▁2000	-10.3251
▁nekadašnj	-10.3255
▁organizacija	-10.3255
▁stožer	-10.3255
pp	-10.326
▁pjevačica	-10.3264
rist	-10.3272
▁Isp	-10.3273
▁ljut	-10.3274
▁prera	-10.3278
▁Rusk	-10.3281
nove	-10.3289
▁Dražen	-10.3292
▁stranu	-10.3293
▁drugima	-10.3295
▁Sandr	-10.3296
▁pošto	-10.3297
▁takvih	-10.3299
▁(6	-10.3302
▁takva	-10.3304
▁vezu	-10.3312
▁ponaša	-10.3316
▁morate	-10.3322
▁Dubrovačk	-10.3324
▁zainteresiran	-10.3324
▁osobu	-10.3324
▁vožnje	-10.3324
▁rezultata	-10.3325
ložio	-10.3328
▁najvažnij	-10.3329
▁proizvode	-10.3332
Ja	-10.3334
▁lud	-10.3343
ign	-10.3351
vić	-10.3351
▁Rim	-10.3352
▁studija	-10.3353
▁GALERIJA	-10.3359
▁Broj	-10.3362
▁kupiti	-10.3366
▁stadionu	-10.3367
60	-10.3373
▁Nadam	-10.3374
▁ispričao	-10.3386
▁idealn	-10.3387
▁tjedana	-10.3391
kriv	-10.3391
▁svjedoči	-10.3394
▁projektil	-10.3395
▁Vuk	-10.3398
▁Neka	-10.34
▁vjen	-10.3401
▁drag	-10.3402
▁rijetk	-10.3403
▁svakodnevn	-10.3405
▁objavili	-10.3405
▁vidimo	-10.3406
▁služi	-10.3414
by	-10.3417
ćuje	-10.3419
▁Paul	-10.3421
▁prijateljima	-10.3423
▁Srbi	-10.3425
▁komentara	-10.3427
▁energiju	-10.3429
▁uspjela	-10.3429
▁platiti	-10.3431
▁Ču	-10.3431
▁osuđen	-10.3433
▁tak	-10.3435
▁prodava	-10.3436
▁jedina	-10.344
▁Kralj	-10.3441
▁našao	-10.3442
▁izgubili	-10.3443
▁korisnik	-10.3443
▁vod	-10.345
▁Her	-10.345
▁moram	-10.3457
▁smanjenje	-10.3458
▁Cha	-10.3459
▁alkohol	-10.3462
▁produž	-10.3462
▁negdje	-10.3464
▁očekuju	-10.3464
▁realizira	-10.3464
▁slovensk	-10.3464
▁poslijepodne	-10.3464
\/	-10.3466
▁istoku	-10.3469
čkoj	-10.347
▁smanjiti	-10.3476
▁izgubila	-10.3478
raš	-10.3478
čice	-10.3484
▁braku	-10.3484
izacija	-10.3492
▁Međimur	-10.3499
▁ekipe	-10.3499
▁nekretnina	-10.3499
▁otprilike	-10.3499
▁prekrasn	-10.3499
▁kompanija	-10.3499
▁povećava	-10.35
▁uloga	-10.3503
▁otići	-10.3505
▁kont	-10.3512
▁kazneno	-10.3517
▁učinkovit	-10.3526
▁informacijama	-10.3527
▁suvremen	-10.3528
▁kaznu	-10.3535
▁podaci	-10.3539
▁proći	-10.3542
▁sunčan	-10.3543
▁obavijesti	-10.3544
▁kreativn	-10.3546
▁oštr	-10.3547
▁osobni	-10.3551
▁domu	-10.3552
▁mladić	-10.3558
▁riješi	-10.3565
▁poslao	-10.3567
ložit	-10.3567
▁doktor	-10.3569
▁Manchester	-10.357
▁Italije	-10.357
▁banke	-10.3571
▁živjeti	-10.3573
▁potpis	-10.3575
▁Marijan	-10.3582
▁rak	-10.3584
▁izvršn	-10.3588
▁bri	-10.3591
▁Pavl	-10.3591
▁službenici	-10.3592
▁sporta	-10.3604
:30	-10.3607
▁zvuk	-10.3608
▁Nikad	-10.3609
▁vojske	-10.3609
▁otvoreno	-10.361
▁vrat	-10.3611
▁bje	-10.3612
▁grupa	-10.3628
▁mala	-10.3628
pati	-10.3631
▁sjevern	-10.364
▁kvalifikacija	-10.3642
▁publiku	-10.3642
▁varaždinsk	-10.3642
▁Švicarsk	-10.3642
▁element	-10.3642
▁spašava	-10.3642
▁Uprave	-10.3642
ovog	-10.3668
▁liste	-10.3668
▁vidim	-10.3675
▁konce	-10.3676
▁upozori	-10.3676
▁započeo	-10.3678
▁klupi	-10.3678
▁namijenjen	-10.3678
▁uskla	-10.3682
▁Reka	-10.3685
▁razne	-10.3691
▁laž	-10.3698
njaka	-10.3699
▁Kre	-10.37
▁Mel	-10.3701
▁Var	-10.3711
▁šir	-10.3712
▁Andre	-10.3714
▁institucije	-10.3714
▁kontrolu	-10.3714
▁Uvijek	-10.3714
▁Posao	-10.3716
▁kapital	-10.3719
▁Njegova	-10.3726
▁slatk	-10.3727
▁rano	-10.3736
▁Boris	-10.3739
▁fra	-10.3742
▁prikazuje	-10.3745
▁Cilj	-10.3745
▁putnika	-10.3745
▁proba	-10.3748
▁građevinsk	-10.375
▁akcije	-10.3751
▁web	-10.3751
▁Klub	-10.3751
▁ishod	-10.3752
▁rukama	-10.3755
▁nesreći	-10.3756
▁kakva	-10.3759
▁razlike	-10.376
▁Europski	-10.3761
▁sjajno	-10.3773
▁sunčano	-10.378
▁Ek	-10.3781
▁kolega	-10.3785
▁zlostavlja	-10.3787
▁drugačije	-10.3787
▁muškarci	-10.3787
▁jezika	-10.3787
▁životinja	-10.3789
▁bivše	-10.3789
▁nositi	-10.3794
▁naslova	-10.3794
!'	-10.3796
▁žut	-10.3798
▁najavi	-10.3799
▁Mas	-10.3802
irane	-10.3809
▁naime	-10.3817
▁idemo	-10.3818
▁testira	-10.3818
etvrt	-10.3819
ničar	-10.3819
▁obožava	-10.3822
▁zapošljava	-10.3823
▁poseban	-10.3823
▁Rusiji	-10.3825
▁pobijediti	-10.3827
▁pomalo	-10.3829
▁isporu	-10.383
▁šteta	-10.3835
▁Velika	-10.3836
▁utje	-10.3838
ble	-10.3848
▁Nažalost	-10.386
▁trgovine	-10.386
▁And	-10.3862
▁48	-10.3863
▁državne	-10.3863
SA	-10.3864
▁demokratsk	-10.3865
▁prazni	-10.3869
▁blag	-10.3872
▁kiše	-10.3876
▁ogled	-10.3876
▁talent	-10.3878
▁datum	-10.3878
rina	-10.3882
▁Europsko	-10.3887
▁klasi	-10.3892
▁Mur	-10.3892
▁desetljeća	-10.3896
▁Film	-10.3897
▁nedjelje	-10.3897
▁pokrenul	-10.3897
▁isplati	-10.3898
▁pozval	-10.3904
▁Ser	-10.3906
▁žal	-10.3907
▁brojnih	-10.3912
▁ostavlja	-10.3914
▁policijski	-10.3919
▁Varaždinske	-10.3921
valo	-10.3921
▁Tek	-10.3926
▁nekako	-10.3929
koliko	-10.3931
▁većinom	-10.3932
zemlj	-10.3932
▁posljedice	-10.3933
▁bicikl	-10.3933
▁vojnika	-10.3936
ovjek	-10.3938
▁upravljanja	-10.3939
▁Poznat	-10.394
▁proizvodnju	-10.3944
▁europski	-10.3954
▁opasnosti	-10.3957
▁osumnjičen	-10.3961
▁elektro	-10.3966
▁Put	-10.3966
▁Sport	-10.3969
▁rezultira	-10.397
▁televizijsk	-10.397
▁tržišta	-10.397
▁prilično	-10.3971
▁djelatnik	-10.3971
▁ulazak	-10.3972
▁misle	-10.3972
▁vojska	-10.3972
▁poboljša	-10.398
▁cestama	-10.398
▁Radić	-10.3989
▁mogle	-10.3992
▁prethodno	-10.3994
▁puni	-10.4
spekt	-10.4001
▁najveć	-10.4002
▁Nizozemsk	-10.4008
▁Dinamu	-10.4008
AN	-10.4014
▁čelnik	-10.402
ujemo	-10.4024
70	-10.4037
▁prate	-10.4042
Ovo	-10.4042
▁jedinica	-10.4044
▁prirode	-10.4045
▁podrška	-10.4046
▁krenuli	-10.4046
▁Živ	-10.4047
▁europsko	-10.4048
▁razgovoru	-10.4048
▁banka	-10.4055
▁osnova	-10.4057
▁njihovi	-10.407
ET	-10.4074
▁nositelj	-10.4076
▁odbor	-10.4077
ü	-10.4082
▁Ujedinjen	-10.4082
▁poziciji	-10.4082
▁ostavio	-10.4083
▁neugodn	-10.4083
▁putovanje	-10.4083
%2	-10.4084
▁bolja	-10.4089
ult	-10.409
▁Osijeka	-10.4091
▁znali	-10.4095
▁potrebna	-10.4096
▁dija	-10.41
mjerno	-10.4103
▁udario	-10.4104
▁poreza	-10.4107
▁Bol	-10.4109
▁prizna	-10.4111
▁potrebn	-10.4111
▁intervju	-10.4113
▁Beograd	-10.4114
▁krugu	-10.4115
▁42	-10.4116
▁disk	-10.4116
zmu	-10.4123
▁doseg	-10.4124
▁prijelaz	-10.4125
▁zdravstvene	-10.4128
▁proz	-10.4131
▁bolest	-10.4131
▁Petar	-10.4135
▁poslovni	-10.4136
▁Kol	-10.4138
▁razgovarati	-10.4138
▁Har	-10.4139
▁prep	-10.414
čnost	-10.4149
▁Svaki	-10.4152
▁poluvremenu	-10.4158
▁promatra	-10.4158
▁ispunjen	-10.4158
▁snimke	-10.4159
▁Njemačke	-10.4159
▁prirodni	-10.4163
▁Bur	-10.4168
▁nogometnog	-10.4171
lud	-10.4172
▁rez	-10.4173
24	-10.4176
▁visoke	-10.4181
▁osvojili	-10.4192
▁zamjenik	-10.4196
▁prijave	-10.4196
▁stranicama	-10.4197
▁redovn	-10.4199
▁Osijeku	-10.4199
▁Vjerujem	-10.42
▁Južn	-10.42
▁svira	-10.4201
vent	-10.4203
▁Th	-10.4205
dy	-10.4207
▁logi	-10.4213
▁razvod	-10.4215
▁jedva	-10.4218
▁poduzetnik	-10.4219
▁SP	-10.4223
▁predstavnik	-10.4223
▁temelji	-10.4223
▁kćeri	-10.4225
▁Top	-10.4225
▁javni	-10.4231
▁ulozi	-10.4232
▁ciklus	-10.4234
▁najčešće	-10.4234
▁HNS	-10.4234
▁agencije	-10.4234
▁vremenom	-10.4234
▁pokazalo	-10.4234
▁stigli	-10.4234
▁zadatak	-10.4234
▁akcija	-10.4235
▁objasni	-10.4235
▁sustavu	-10.4235
▁fond	-10.4238
▁Kal	-10.4241
▁vla	-10.4241
▁Španjolska	-10.4242
juće	-10.4246
škom	-10.4255
▁kuna	-10.4262
▁Ham	-10.4266
▁natjecanju	-10.4272
▁Švedsk	-10.4272
▁istrage	-10.4273
▁mikro	-10.4274
▁400	-10.4275
▁objasnila	-10.4275
▁strijelac	-10.4276
▁Sha	-10.4281
▁čelu	-10.4286
▁rasporedu	-10.4287
▁proračuna	-10.4295
▁ravno	-10.4297
▁Španjolske	-10.4299
▁der	-10.4299
▁potpun	-10.4299
▁povjeren	-10.43
▁hotela	-10.4308
▁OVDJE	-10.431
▁investitor	-10.431
▁ustvrdi	-10.431
▁definira	-10.431
▁kompleks	-10.431
▁rujnu	-10.431
▁postav	-10.4312
▁društvenih	-10.4313
▁Maksimiru	-10.4313
23	-10.4319
▁prošlosti	-10.4322
ovoj	-10.4328
▁optužen	-10.4328
▁scenarij	-10.4337
▁he	-10.4338
▁Dva	-10.4341
▁Rod	-10.4342
▁Cijel	-10.4342
nicom	-10.4347
▁emotivn	-10.4349
▁civiln	-10.4349
▁granica	-10.4357
▁kćer	-10.4358
▁Bili	-10.4363
▁hladno	-10.4364
▁princ	-10.4369
▁najbolj	-10.437
90	-10.4374
pir	-10.4375
▁čitav	-10.4376
nički	-10.4385
▁karti	-10.4386
▁emisije	-10.4387
▁hrvatsku	-10.4387
▁publike	-10.4387
▁William	-10.4387
▁sinoć	-10.4387
▁klubova	-10.4388
▁uprava	-10.4388
▁djecom	-10.4389
▁većinu	-10.4389
▁scene	-10.4391
▁troje	-10.4393
▁odlazak	-10.4393
ištu	-10.44
chi	-10.4403
▁politiku	-10.4405
▁terena	-10.4412
KA	-10.4414
▁polju	-10.4417
▁ostalog	-10.4424
▁napokon	-10.4426
▁djeluje	-10.4426
▁zatvara	-10.4426
▁preostal	-10.4427
▁uništi	-10.4428
▁otvori	-10.4429
▁Hit	-10.443
▁Baš	-10.4433
▁postali	-10.4434
▁dojam	-10.4436
▁zanimljivo	-10.4437
rop	-10.4443
▁Vel	-10.4449
▁želite	-10.4451
▁ispričala	-10.4452
del	-10.4453
duk	-10.4466
▁želja	-10.4468
▁lažn	-10.4479
▁noge	-10.448
▁žiri	-10.4481
▁pogodil	-10.4483
▁otoku	-10.4485
▁Autor	-10.4487
▁izlazi	-10.4496
▁igri	-10.4497
▁povjerenje	-10.45
▁Sveučilišta	-10.4504
▁Tomašević	-10.4504
▁definitivno	-10.4504
▁helikopter	-10.4504
▁kvalitetni	-10.4504
▁klupsk	-10.4504
▁motocikl	-10.4504
▁štrajk	-10.4504
▁kritizira	-10.4504
▁seriji	-10.4506
▁pomaga	-10.4507
▁staln	-10.451
▁svjesni	-10.4511
▁djevojka	-10.452
▁Q	-10.4521
▁pojas	-10.4522
▁otkrili	-10.4525
▁desno	-10.4528
▁opasnost	-10.4536
plasiran	-10.4537
▁pobijedila	-10.4539
▁stanja	-10.454
▁Osta	-10.4541
▁+	-10.4542
▁reakcija	-10.4543
▁Križevci	-10.4543
▁Centra	-10.4543
▁65	-10.4543
▁usporedb	-10.4544
▁kriterij	-10.4544
▁dvorani	-10.4545
▁uhvati	-10.4546
▁američke	-10.4547
▁profil	-10.4549
▁mreža	-10.4549
▁mreži	-10.455
▁povr	-10.4552
▁bliž	-10.4557
▁Rije	-10.4561
▁izgradi	-10.4565
▁različitim	-10.4566
▁dužnosti	-10.4566
▁alat	-10.4569
▁uživati	-10.4575
▁kazna	-10.4576
▁raspoložen	-10.4577
▁Ver	-10.4578
▁pokraj	-10.4578
▁gostiju	-10.4581
▁Stjepan	-10.4582
▁žrtve	-10.4582
▁podiza	-10.4586
▁ispri	-10.4589
▁radimo	-10.459
ST	-10.459
▁Mc	-10.4591
AR	-10.4596
▁razina	-10.4596
▁onom	-10.4598
▁stranih	-10.4606
▁očekivan	-10.4607
stat	-10.461
đ	-10.4618
▁Udruge	-10.4622
▁tzv	-10.4622
▁osvojen	-10.4622
▁poticaj	-10.4623
▁vid	-10.4629
jedna	-10.4629
▁prekršaj	-10.4632
▁Mag	-10.4633
gri	-10.4636
▁pogod	-10.4637
▁klasičn	-10.4639
▁zove	-10.4639
des	-10.4649
▁susre	-10.4651
▁Chi	-10.4652
▁zasad	-10.4657
▁Marka	-10.466
▁konkurent	-10.4662
▁ponudu	-10.4662
▁kruh	-10.4666
▁Izvor	-10.4669
godišnj	-10.4669
▁Kijev	-10.4669
▁stare	-10.467
▁nov	-10.4674
▁stroj	-10.4678
▁sastanak	-10.4682
▁prozor	-10.469
▁umirovljen	-10.4694
bolje	-10.4696
▁prekršaja	-10.4698
▁Des	-10.4701
▁austrijsk	-10.4702
▁unutrašnjosti	-10.4702
▁sudjelovati	-10.4702
▁crkve	-10.4702
▁Viktor	-10.4702
▁regije	-10.4702
▁izjava	-10.4703
▁kućn	-10.4705
▁showa	-10.4713
▁teška	-10.4721
▁umjetnik	-10.4734
dajte	-10.4735
▁danima	-10.4739
▁Domovinski	-10.4742
▁operacije	-10.4742
▁reakcije	-10.4742
▁jaja	-10.4742
▁nekoga	-10.4743
▁otoka	-10.4744
▁početi	-10.4745
▁osvojiti	-10.4746
▁Veliki	-10.4746
▁dovodi	-10.475
▁Otkri	-10.475
▁trgovačk	-10.4755
▁obzir	-10.4758
ijih	-10.476
▁Facebooku	-10.4762
▁sudaca	-10.4762
▁ispad	-10.4764
▁temu	-10.4766
▁Grčk	-10.477
▁Posebno	-10.4772
▁komun	-10.4773
produkcij	-10.4779
▁tehnologije	-10.4782
▁Washington	-10.4782
▁čvrst	-10.4782
▁pronašli	-10.4782
▁jutarnj	-10.4782
▁Beroš	-10.4783
▁crveno	-10.4789
▁obrt	-10.4791
▁Mladi	-10.4793
▁zagrebački	-10.4798
▁test	-10.4803
▁Francuska	-10.4812
▁strast	-10.4813
▁čitatelj	-10.4814
▁javn	-10.482
▁mjestima	-10.4822
▁ljudski	-10.4822
▁unaprijed	-10.4822
▁tijelu	-10.4822
▁mrežu	-10.4825
▁Gordan	-10.4831
▁student	-10.4832
RI	-10.4836
▁Kine	-10.4836
▁igračima	-10.4837
ovom	-10.4837
▁vodom	-10.4839
▁ovisno	-10.484
▁radnici	-10.4842
▁zajedničko	-10.4842
▁razlika	-10.485
▁spriječi	-10.4852
▁europskog	-10.486
▁izdanje	-10.486
▁ekološk	-10.4863
▁2015.	-10.4863
▁izvijestio	-10.4863
▁sposobnosti	-10.4866
▁učitelj	-10.4869
račun	-10.4869
▁videu	-10.487
▁Buduć	-10.487
▁glavi	-10.487
▁Areni	-10.4874
▁Bad	-10.4875
▁Jedno	-10.4876
▁osiguranje	-10.4881
▁Mer	-10.4888
▁Godin	-10.4888
pisala	-10.4897
dalmacija	-10.4903
▁kvaliteta	-10.4903
▁vjerovati	-10.4903
▁Utakmic	-10.4903
▁Libanon	-10.4903
▁dizajner	-10.4904
▁tursk	-10.4904
▁Rumunjsk	-10.4908
▁linije	-10.4911
▁pritvor	-10.4931
images	-10.4944
▁angažira	-10.4944
▁dužnosnik	-10.4944
▁žrtva	-10.4944
▁Zdravlje	-10.4948
rativ	-10.4949
▁porezn	-10.4951
▁natjecatelj	-10.4951
▁okoliš	-10.4952
Y	-10.4955
nošenje	-10.4957
▁zbor	-10.4958
▁pliva	-10.4964
▁najgor	-10.4965
RE	-10.4965
▁takvim	-10.4967
▁morsk	-10.4971
▁aktivno	-10.4974
▁otvorio	-10.4977
▁roditeljima	-10.4978
▁okoliša	-10.4979
▁oglas	-10.4983
▁ubojstvo	-10.4985
▁mirovinu	-10.4985
▁chef	-10.4985
▁medalje	-10.4985
▁utrke	-10.4986
▁odabir	-10.4987
▁Najveć	-10.4987
▁očuvanj	-10.4988
▁Zelen	-10.4989
▁izraz	-10.4992
▁kategorije	-10.4995
▁mog	-10.5003
pisuje	-10.5008
▁konačn	-10.5014
ness	-10.5019
▁rezultatom	-10.502
▁prst	-10.5021
▁mehani	-10.5026
▁razdoblja	-10.5026
▁titulu	-10.5026
▁provesti	-10.5026
▁usred	-10.5031
▁Jak	-10.5032
elnik	-10.5034
▁Park	-10.5042
▁novinarima	-10.5045
▁golom	-10.5048
▁teme	-10.5065
▁izbjegl	-10.5067
▁predviđen	-10.5067
▁zadovoljstvo	-10.5067
▁kraljevsk	-10.5068
▁znate	-10.5068
▁izjave	-10.5069
▁sceni	-10.5071
▁napustio	-10.5073
sata	-10.5075
▁Savez	-10.5078
ološki	-10.5085
▁PO	-10.5089
▁nemamo	-10.5097
▁pije	-10.5099
▁upravljanje	-10.51
▁potpisao	-10.5104
lažu	-10.5104
▁USKOK	-10.5109
▁sudjelovao	-10.5109
▁nemoguć	-10.5109
▁izvijestila	-10.5109
▁fizi	-10.5109
▁zlato	-10.511
▁goste	-10.5113
▁slavlje	-10.5113
▁Posl	-10.5121
▁Dodaj	-10.5127
▁čim	-10.5127
▁društvene	-10.513
▁događaju	-10.5132
▁valja	-10.5144
▁Jutarnji	-10.5144
vnog	-10.5148
▁poslove	-10.5151
▁sudsk	-10.5152
▁obrana	-10.5152
▁strašn	-10.5154
▁linija	-10.5156
▁izvoz	-10.5158
▁and	-10.5161
▁imenovan	-10.5161
▁Svaka	-10.5164
▁komunaln	-10.5168
▁rang	-10.5171
▁mak	-10.5171
mail	-10.5173
▁Takv	-10.5183
▁Gattuso	-10.5192
▁financija	-10.5192
▁obrazovanje	-10.5192
▁zub	-10.5193
29	-10.5198
▁upozorenje	-10.52
▁kvart	-10.5207
▁46	-10.5219
▁ostvari	-10.5219
▁domaćih	-10.5227
▁vatrogasac	-10.5234
▁publici	-10.5234
▁maloljetn	-10.5235
▁razli	-10.5236
▁Znam	-10.5237
▁svatko	-10.5237
▁Križ	-10.5238
▁preuzeo	-10.5238
▁Glav	-10.524
▁rijetko	-10.5244
▁Bivši	-10.5245
dalmatinsk	-10.5247
ovina	-10.5248
▁današnji	-10.5252
▁šk	-10.526
▁kro	-10.5273
▁zvijezde	-10.5277
▁izgradnju	-10.5277
▁([	-10.5279
▁Mamić	-10.528
▁Jakirović	-10.5285
▁far	-10.5288
▁pamti	-10.5295
▁staviti	-10.53
▁različit	-10.5307
▁Ministar	-10.5315
▁brinu	-10.5315
ER	-10.5317
▁turisti	-10.5317
▁sindikat	-10.5319
▁segment	-10.532
▁suparnik	-10.532
▁suprotno	-10.5324
▁masovn	-10.5324
▁vis	-10.5325
val	-10.5326
lnog	-10.5326
▁ministarstvo	-10.5326
▁dionica	-10.5328
▁početn	-10.5332
▁mama	-10.5333
▁Zelenski	-10.5338
▁napravila	-10.5341
▁uvjeti	-10.5361
▁obe	-10.5361
▁predviđa	-10.5362
▁počinitelj	-10.5362
▁ponude	-10.5362
▁općine	-10.5364
▁slučajeva	-10.5366
▁važna	-10.5379
▁Indij	-10.5385
▁zakonsk	-10.5392
▁izravno	-10.5392
▁blago	-10.5398
▁pobijedili	-10.5399
▁donijela	-10.5402
▁obramben	-10.5404
▁kolegi	-10.5405
▁Dominik	-10.5405
▁završava	-10.5405
▁Želim	-10.5407
▁županiji	-10.541
▁online	-10.5413
▁nude	-10.5414
▁turniru	-10.5415
▁Novak	-10.5415
▁predstavnika	-10.5416
▁tekuć	-10.542
▁krajnje	-10.5427
▁stranci	-10.5428
▁(7	-10.543
22	-10.5434
▁ljubitelj	-10.5435
▁smr	-10.5443
▁Dinamov	-10.5447
BA	-10.5447
▁gospodarstvo	-10.5447
▁obljetnic	-10.5447
▁troškova	-10.5447
▁Očekuje	-10.5447
▁nedostaje	-10.5447
▁prijava	-10.5448
▁Milanovi	-10.5448
▁mobiln	-10.5451
▁čin	-10.5456
▁poslovanja	-10.5459
▁psi	-10.5463
▁birača	-10.5465
▁viđen	-10.5475
▁čas	-10.5475
99	-10.5477
▁Mus	-10.5488
▁okružen	-10.5489
▁Charles	-10.549
▁Dalmaciji	-10.549
▁sudjelovali	-10.549
▁četvero	-10.549
▁posljednja	-10.549
▁zadovoljan	-10.549
▁djelatnosti	-10.5491
▁pretvori	-10.5492
▁remi	-10.5492
▁krenuti	-10.5494
69	-10.5498
▁Isus	-10.5498
▁sol	-10.55
▁ostane	-10.5501
▁Glavni	-10.5505
▁njihovoj	-10.5506
▁istraži	-10.551
ovih	-10.551
▁praviln	-10.551
▁vozilom	-10.5521
▁tražiti	-10.5524
lly	-10.5525
▁javnom	-10.5533
▁Problem	-10.5534
▁snimljen	-10.5534
▁hrana	-10.5538
▁prvenstveno	-10.5538
▁bal	-10.5539
▁Kur	-10.554
▁kisel	-10.5542
▁iskoristiti	-10.5543
▁hrvatskoj	-10.5545
14	-10.5548
The	-10.5551
▁problemima	-10.5552
slike	-10.5553
▁raznim	-10.5564
zdrav	-10.5565
▁dubok	-10.5574
▁nesre	-10.5577
▁tehnološk	-10.5577
▁Cam	-10.5595
▁utjecajem	-10.5595
▁Doma	-10.5601
ologije	-10.5605
▁veseli	-10.5619
▁arhitekt	-10.5621
▁otišla	-10.5621
▁lipnju	-10.5621
▁posjetitelji	-10.5621
▁predstavio	-10.5622
▁županijsk	-10.5624
▁uvoz	-10.5626
bert	-10.5629
▁petka	-10.5641
▁planiran	-10.5645
▁jugu	-10.5648
▁prizor	-10.5648
▁vjern	-10.5651
▁američkog	-10.5661
jpg	-10.5664
▁emocionaln	-10.5665
▁glasnogovornik	-10.5665
▁osvje	-10.5665
▁održal	-10.5666
▁proširi	-10.5666
▁krenula	-10.5667
▁završen	-10.5667
ficira	-10.567
▁okupil	-10.5671
▁otpor	-10.5673
▁front	-10.5674
ekuje	-10.5676
▁pobjedi	-10.5681
▁Ter	-10.5684
▁plesa	-10.5687
▁toplo	-10.5687
▁vladajuć	-10.5688
▁ostvario	-10.5692
▁posjed	-10.5694
▁povremeno	-10.5702
35	-10.5703
▁blokira	-10.5704
šak	-10.5707
▁Georg	-10.5709
▁htjeli	-10.5709
▁postupka	-10.5709
▁Đoković	-10.5709
▁dvojica	-10.5709
▁operativn	-10.5709
▁pripadnik	-10.5709
▁Nismo	-10.5709
▁Daniel	-10.571
ller	-10.5712
▁odbio	-10.5713
▁Vladi	-10.5727
▁prave	-10.5728
▁otvorenom	-10.5728
▁reprezentativ	-10.5731
▁kći	-10.5737
nsko	-10.5745
▁luka	-10.5749
▁mark	-10.5751
▁generacija	-10.5753
▁pozicije	-10.5753
▁kamion	-10.5753
▁klijent	-10.5753
Pro	-10.5754
▁tribina	-10.5755
▁prirodno	-10.5756
▁vojne	-10.5758
▁štete	-10.5759
škog	-10.5764
▁nikakve	-10.5776
ologiju	-10.5778
NK	-10.5782
▁ugosti	-10.579
▁ozlije	-10.5794
▁vlastite	-10.5795
dugo	-10.5797
▁polufinalu	-10.5797
▁čvor	-10.5797
▁kompanije	-10.5798
▁najavljen	-10.5798
LI	-10.5799
▁Luke	-10.5807
▁skrb	-10.5808
▁Hoće	-10.5809
▁istog	-10.5812
▁Bulj	-10.5819
▁Cor	-10.5822
▁smanjen	-10.5824
ijskog	-10.5827
▁Trumpov	-10.5837
▁mogući	-10.5837
88	-10.5841
▁Wal	-10.5842
▁infrastrukture	-10.5842
▁tehnologija	-10.5842
▁Sergej	-10.5842
▁mirovine	-10.5842
▁zabranjen	-10.5842
▁Francuz	-10.5842
▁imovine	-10.5842
▁pisali	-10.5843
▁ondje	-10.5844
▁HNK	-10.5845
▁Petković	-10.5847
▁(20	-10.5849
▁predstavljen	-10.5854
▁rodn	-10.586
▁križ	-10.5867
▁majke	-10.587
ovski	-10.5872
▁el	-10.5876
jskom	-10.5878
▁uzeti	-10.588
▁nećemo	-10.5884
▁prikuplja	-10.5887
▁svibnju	-10.5887
▁zaštićen	-10.5887
▁kakvu	-10.5887
▁medalju	-10.5887
▁benzin	-10.5887
▁neobičn	-10.5887
▁Chris	-10.5888
▁zaključila	-10.5888
▁osmin	-10.5888
▁privremeno	-10.589
▁obveza	-10.589
▁pretra	-10.5895
▁doveo	-10.5896
▁studenti	-10.5898
▁fokusira	-10.5899
▁priključ	-10.5902
Ljub	-10.5904
pasti	-10.5908
▁krem	-10.5915
▁dužnost	-10.5916
▁izjavi	-10.5919
▁Šibeniku	-10.5921
▁istina	-10.5922
▁sektoru	-10.5928
▁sudjelovanje	-10.5932
▁ostavku	-10.5932
▁dolaska	-10.5933
▁sretan	-10.5935
▁priznala	-10.5937
▁izašao	-10.5938
▁Hvala	-10.5946
▁hod	-10.5948
smjer	-10.5949
▁malih	-10.5951
▁komentarima	-10.5958
▁Varaždinsk	-10.5958
▁pokaz	-10.596
▁ameri	-10.5962
▁radom	-10.5964
war	-10.5964
▁luksuzn	-10.5967
▁najvažnije	-10.597
▁hitno	-10.5974
▁Reuters	-10.5977
▁ljestvici	-10.5977
▁policajac	-10.5977
▁potpredsjednik	-10.5977
▁Mili	-10.598
▁postaju	-10.598
▁potrebne	-10.5981
▁palestinsk	-10.5981
▁organiziran	-10.5982
▁snimka	-10.5986
▁gospo	-10.5988
qu	-10.6
▁mlađi	-10.6003
▁Gal	-10.6004
▁Auto	-10.6009
skrb	-10.601
▁nose	-10.6019
▁središtu	-10.6023
▁utvrđeno	-10.6023
▁ekran	-10.6023
▁lider	-10.6023
▁United	-10.6023
▁ponuda	-10.6024
▁goriva	-10.6025
▁boriti	-10.6025
OR	-10.6026
▁intervjuu	-10.603
▁izdava	-10.6039
ring	-10.6043
izaciju	-10.6046
jedni	-10.6054
▁tad	-10.6064
▁obali	-10.6066
▁područjima	-10.6068
▁spektakl	-10.6068
▁2014.	-10.6068
▁precizn	-10.6068
▁medalja	-10.6069
▁trgovina	-10.6069
▁Zlatn	-10.6069
▁Kekin	-10.607
▁upozorio	-10.6071
Ako	-10.6073
▁Lje	-10.6073
▁apsolutno	-10.6076
▁Port	-10.6077
▁Silv	-10.6078
▁upisao	-10.6078
▁Gaze	-10.6081
▁voditeljica	-10.6083
▁Nenad	-10.6085
▁ukrajinski	-10.6103
vremeno	-10.6104
nošću	-10.6104
▁budi	-10.611
▁transparent	-10.6114
▁atmosferu	-10.6114
▁atraktivn	-10.6114
▁Italiji	-10.6114
▁srpnju	-10.6114
▁povećati	-10.6114
▁odobren	-10.6115
▁dodatne	-10.6117
▁važni	-10.6119
▁zaborav	-10.6121
▁slavio	-10.6131
▁1000	-10.6131
▁tabl	-10.6133
▁Teško	-10.614
▁44	-10.6148
▁fil	-10.6149
▁izdan	-10.6158
▁studenom	-10.616
▁prebaci	-10.616
▁omogućuje	-10.6161
▁majstor	-10.6161
▁snažno	-10.6162
▁Plenkovi	-10.6162
▁čekaju	-10.6163
▁skupi	-10.6164
▁Grbin	-10.6165
▁Europa	-10.6166
▁plus	-10.617
▁buduće	-10.6173
lijeva	-10.6174
▁fizički	-10.6178
▁iznena	-10.6179
▁600	-10.6187
▁47	-10.6189
▁osvoji	-10.6193
▁pokušal	-10.62
▁dresu	-10.6203
▁čišćenj	-10.6206
▁fin	-10.6207
▁poručila	-10.6208
▁istovremeno	-10.6208
▁održavanje	-10.6212
▁svjetsko	-10.6215
▁58	-10.622
▁gradovima	-10.623
▁sreću	-10.6233
▁Peter	-10.6237
najprije	-10.6246
čnih	-10.6251
▁listopadu	-10.6253
▁glazbu	-10.6253
▁okviru	-10.6253
kru	-10.6263
▁Osob	-10.6268
▁Glas	-10.627
▁uloge	-10.6271
▁Župan	-10.629
▁Can	-10.6293
▁eksperiment	-10.63
▁slobodu	-10.63
▁htjela	-10.63
▁Zlatko	-10.63
▁2012.	-10.63
▁službi	-10.63
▁glavom	-10.63
▁Pokuša	-10.63
▁osjetljiv	-10.63
▁stran	-10.63
▁kolnik	-10.6301
▁glave	-10.6301
28	-10.6302
▁takvu	-10.6304
▁Europu	-10.6306
▁oglasio	-10.6307
▁Sal	-10.6308
▁Slovenije	-10.6311
▁čuti	-10.6312
▁sram	-10.6316
▁golman	-10.6329
▁Moramo	-10.6335
▁odbija	-10.6335
▁baviti	-10.6335
▁pobijedi	-10.6336
EN	-10.6342
▁jedinici	-10.6342
▁nadolazeć	-10.6347
▁potvrdila	-10.6347
▁potpore	-10.6347
▁ostatak	-10.6347
▁Program	-10.6347
▁Sav	-10.6349
▁istoj	-10.635
▁sprema	-10.6351
▁dodatn	-10.6353
▁režim	-10.6356
sch	-10.6361
▁dulje	-10.6374
▁mlađe	-10.6376
▁del	-10.6377
▁pobjedni	-10.639
▁konzumira	-10.6394
▁trenutka	-10.6394
▁prosincu	-10.6394
▁Država	-10.6394
▁trenucima	-10.6394
▁pogorša	-10.6394
▁kampanju	-10.6394
▁sugerira	-10.6396
▁gostujuć	-10.6396
▁profilu	-10.6396
▁školama	-10.6396
▁nogometu	-10.6397
▁Balkan	-10.6398
▁vođen	-10.6399
▁Škot	-10.6401
▁trajekt	-10.6403
TE	-10.6405
▁sjećanja	-10.6419
▁pojavila	-10.6422
▁tren	-10.6423
▁njemački	-10.6425
▁Tamo	-10.6427
▁Lovre	-10.6432
▁propisan	-10.6433
▁čest	-10.6433
▁analitičar	-10.6441
▁asistencija	-10.6441
▁izložbe	-10.6441
▁pogotka	-10.6441
▁ubojstva	-10.6441
▁potroši	-10.6441
▁liječnici	-10.6441
▁sposobnost	-10.6442
▁uputio	-10.6442
▁zagrebačkom	-10.6442
▁subote	-10.6443
▁Francuske	-10.6443
▁duhovn	-10.6444
▁nazivom	-10.6444
▁Trener	-10.6444
▁Istre	-10.6445
▁Dobi	-10.6446
▁120	-10.6449
▁iskusn	-10.6451
▁spriječiti	-10.6455
▁prilog	-10.6455
▁fan	-10.6462
▁ponašanja	-10.6463
unarodn	-10.6466
▁pjesama	-10.6489
▁resurs	-10.6489
▁Ronald	-10.6489
▁skandal	-10.6489
▁spremno	-10.6489
▁omogućil	-10.6491
▁AI	-10.6492
▁kg	-10.6494
▁golem	-10.6505
ling	-10.6509
▁Javn	-10.651
▁jutros	-10.6513
▁istaknuti	-10.6524
▁ruskog	-10.6524
▁mlađ	-10.6528
▁sufinancira	-10.6537
▁preuzeti	-10.6537
▁analizira	-10.6537
▁Centar	-10.6537
▁akciju	-10.6538
▁otok	-10.6538
▁ponovo	-10.6539
tivne	-10.6539
Class	-10.6541
▁Del	-10.6541
▁opreme	-10.6541
▁dodajući	-10.6541
26	-10.6543
▁velikoj	-10.6552
▁cijelom	-10.6559
▁opće	-10.6565
▁struje	-10.657
▁svakoj	-10.6574
▁utvr	-10.6577
▁privatni	-10.6577
▁komentirala	-10.658
▁Najbolji	-10.6585
▁komunicira	-10.6585
▁nikako	-10.6586
▁čuje	-10.6586
▁Harry	-10.6586
▁Rimac	-10.6589
OM	-10.6595
▁korištenja	-10.6596
▁navijačima	-10.6601
▁smijeh	-10.6605
▁čuli	-10.6606
▁mjesecima	-10.661
▁Splitsko	-10.6617
lf	-10.6625
▁puk	-10.6625
▁Najviše	-10.6625
▁zamijeni	-10.663
▁razgovarali	-10.6633
▁ekipu	-10.6633
▁poginuli	-10.6633
▁izazvao	-10.6633
▁svjetske	-10.6633
▁proširen	-10.6633
▁napredak	-10.6633
▁lansira	-10.6633
▁obnovi	-10.6636
▁odlaska	-10.6636
▁ulicama	-10.6637
čnog	-10.6641
▁hitne	-10.6641
rskog	-10.6644
▁smrtn	-10.6645
▁prometnoj	-10.6645
pravno	-10.665
▁tvoj	-10.6652
▁praćen	-10.6652
▁iznenađen	-10.6656
▁Sportsk	-10.6661
▁skok	-10.6663
▁41	-10.6663
▁pregovara	-10.6664
NO	-10.6664
▁43	-10.6666
▁Cro	-10.6674
▁priznanje	-10.6675
▁Red	-10.668
▁Hezbolah	-10.6682
▁ljudsko	-10.6682
▁Croatia	-10.6682
▁nazvao	-10.6682
▁onako	-10.6682
▁zabrani	-10.6683
▁poznaje	-10.6684
fin	-10.6687
▁privremen	-10.6688
▁lokalnih	-10.6693
pjeva	-10.6695
▁opć	-10.6696
▁užas	-10.6707
▁državnom	-10.6724
▁pročita	-10.6724
▁Mogu	-10.6725
▁She	-10.6728
▁Tin	-10.673
▁troškove	-10.673
▁vrijedan	-10.673
▁dostupni	-10.673
▁prošla	-10.6732
▁biskup	-10.6733
▁prikupi	-10.6737
više	-10.6754
▁pokušati	-10.6778
▁angažman	-10.6779
▁popularni	-10.6779
▁Zanimljivo	-10.678
▁predizborn	-10.678
▁tlak	-10.678
▁služba	-10.678
▁vjeruju	-10.6781
▁Puno	-10.6782
▁Bjelica	-10.6784
▁uživo	-10.6786
▁Nadal	-10.6789
▁provode	-10.6791
▁Odbor	-10.6793
▁Flo	-10.6798
▁scena	-10.68
▁pokojn	-10.6801
▁nastala	-10.6805
▁trajal	-10.6807
▁Pariz	-10.6818
▁Col	-10.6825
▁Hrvoje	-10.6829
▁vlasnici	-10.6829
▁prepoznatljiv	-10.6829
▁podijelio	-10.6829
▁djelatnici	-10.6829
▁Kaštel	-10.6831
▁njihovog	-10.6845
DA	-10.6849
▁predstavljaju	-10.6852
licom	-10.6852
▁kvar	-10.6857
▁raspored	-10.6858
▁stranačk	-10.6862
▁ušli	-10.6877
▁Krešimir	-10.6878
▁vježba	-10.6878
▁omogućiti	-10.6878
▁slijede	-10.6878
▁Euru	-10.6879
▁grama	-10.6882
▁gospodin	-10.689
utim	-10.6901
▁nogu	-10.6909
▁rezultatima	-10.6909
▁zaboravi	-10.691
▁debi	-10.6911
knuo	-10.6916
zar	-10.6918
▁Premijer	-10.6928
▁kontrole	-10.6928
▁travnju	-10.6928
▁signal	-10.6928
▁obrok	-10.6929
▁prijateljsk	-10.6929
▁poručili	-10.693
▁svjedok	-10.6931
▁sreće	-10.6935
▁Potom	-10.6936
▁pojavio	-10.6937
▁radionice	-10.6937
▁OŠ	-10.6947
nskoj	-10.6957
berg	-10.6958
zb	-10.696
▁odigran	-10.6961
PO	-10.6963
brza	-10.6968
55	-10.6968
▁Predstav	-10.6972
▁predan	-10.6973
▁faktor	-10.6978
▁turista	-10.6978
▁pokr	-10.6979
▁49	-10.6982
▁prekinut	-10.6982
▁plovi	-10.699
▁penal	-10.6999
▁Ukupn	-10.7003
▁crno	-10.7017
▁Slobodn	-10.702
▁Francusk	-10.7022
▁eventualn	-10.7028
▁transformacij	-10.7028
▁zasigurno	-10.7028
▁promjenu	-10.7028
▁izdvoji	-10.7028
▁izgradnje	-10.7029
▁miješa	-10.7029
▁policiju	-10.703
▁limun	-10.7032
▁istražn	-10.7032
▁gledatelji	-10.7036
▁istragu	-10.7036
▁kategorija	-10.7037
▁vodstvom	-10.7037
▁zabrinut	-10.704
▁Lin	-10.7043
▁Ov	-10.7044
▁hip	-10.7052
med	-10.7056
▁ideje	-10.7058
▁postavio	-10.7059
▁realno	-10.706
▁bolnica	-10.707
TI	-10.707
▁stanovništva	-10.7079
▁veljači	-10.7079
▁nedostatk	-10.7079
▁Eura	-10.7082
▁strog	-10.7084
▁Zavod	-10.7086
▁korijen	-10.7092
▁Saboru	-10.7101
tch	-10.7105
▁znanje	-10.7105
▁Far	-10.7106
▁osiguran	-10.7108
▁državljanin	-10.711
▁Grand	-10.7112
▁sjevernom	-10.7114
VI	-10.7127
▁ostvarili	-10.7129
*	-10.7129
▁konkurenciji	-10.7129
▁prijavljen	-10.713
▁1991.	-10.713
▁potrebu	-10.713
▁Pobjed	-10.713
▁želju	-10.713
▁doslovno	-10.7131
▁situacijama	-10.7132
▁donose	-10.7132
▁pojedinačn	-10.7135
▁EP	-10.7136
▁Lan	-10.7136
▁sudar	-10.7145
▁izazovima	-10.7147
▁stvaranje	-10.715
▁vjetro	-10.7156
▁kombi	-10.7158
vnih	-10.7159
▁nasilje	-10.7159
već	-10.7162
▁tisu	-10.7163
01	-10.7163
▁upoznati	-10.7167
▁shva	-10.7168
▁Sol	-10.7168
▁današnj	-10.7169
▁specifičn	-10.717
▁zabrinutost	-10.717
▁sedmo	-10.7176
▁trebamo	-10.7178
▁namjerava	-10.7178
▁dodatni	-10.7178
▁apartman	-10.718
▁kulturu	-10.718
▁automatsk	-10.7181
▁Los	-10.7183
▁otkriven	-10.7185
▁stabl	-10.7187
▁tunel	-10.7187
▁predvod	-10.719
▁povezanost	-10.7199
▁očekivanja	-10.72
▁poslovanje	-10.7212
bur	-10.7215
▁Rusi	-10.7217
▁mijenjati	-10.722
▁jutro	-10.7227
vicu	-10.7229
bota	-10.7229
▁Dalmacije	-10.7232
▁inozemstvu	-10.7232
▁siječnju	-10.7232
▁DORH	-10.7232
▁napravljen	-10.7232
▁reporter	-10.7232
▁površine	-10.7232
▁Projekt	-10.7232
▁kampanji	-10.7232
▁Google	-10.7232
▁odbaci	-10.7234
▁multi	-10.7234
▁trećem	-10.7234
encija	-10.7238
▁skokova	-10.7239
▁nabavi	-10.7239
▁Hol	-10.7245
▁skrbi	-10.7247
▁Ustavni	-10.7249
▁svijest	-10.725
▁gen	-10.7251
▁dođu	-10.7252
▁Cel	-10.7253
ljivost	-10.7255
riješen	-10.726
▁Branko	-10.7265
▁vašem	-10.7267
▁pitali	-10.727
▁kakvi	-10.7273
▁Gvardiol	-10.7283
▁SuperSport	-10.7283
▁Hercegovine	-10.7283
▁destinacija	-10.7283
▁sukladno	-10.7283
▁tržišn	-10.7283
▁sjednici	-10.7283
▁očevid	-10.7283
▁kombinira	-10.7284
▁psa	-10.7284
▁Priprem	-10.7285
▁dominira	-10.7285
▁gledatelja	-10.7287
▁pratitelji	-10.729
▁zlata	-10.729
▁učenik	-10.729
▁Dragi	-10.7292
▁Objav	-10.7292
▁radost	-10.7292
▁EUR	-10.7292
▁unutra	-10.7295
▁odrasta	-10.7295
▁Nacional	-10.7296
▁pilot	-10.7297
▁dobri	-10.7299
zirati	-10.7303
▁sklon	-10.7304
▁ples	-10.7305
▁iznosila	-10.7305
racija	-10.7313
▁održat	-10.7314
▁smanjenj	-10.7316
▁HR	-10.7317
▁vidite	-10.7318
Pre	-10.732
ther	-10.7334
▁slobode	-10.7335
▁zastupnici	-10.7335
▁objavu	-10.7335
▁povoljn	-10.7335
▁pogođen	-10.7335
▁NBA	-10.7337
▁boravi	-10.7339
▁aspekt	-10.7348
▁meso	-10.7349
▁jedni	-10.7354
NE	-10.7356
▁motivira	-10.7364
▁250	-10.7365
▁Din	-10.7369
▁West	-10.7373
▁Poljud	-10.7373
▁Novom	-10.7374
▁neću	-10.7376
▁glasi	-10.7376
▁neprijatelj	-10.7377
▁pomorsk	-10.7381
▁zaposlenih	-10.7382
%)	-10.7384
▁Mad	-10.7385
▁inspirira	-10.7387
▁atmosfera	-10.7387
▁smanjuje	-10.7387
▁Makedon	-10.7387
▁zaključuje	-10.7387
▁1-0	-10.7387
▁pozicija	-10.7387
▁prijavu	-10.7387
▁prijetnje	-10.7389
▁odabran	-10.7391
▁štetn	-10.7392
▁Bosne	-10.7392
rast	-10.7393
▁Kovačić	-10.7394
▁hvala	-10.7395
▁košarkaš	-10.7395
▁Liv	-10.7399
▁leđa	-10.7401
▁stabilnost	-10.7402
▁stvarnost	-10.7402
89	-10.7404
▁radnog	-10.7407
▁djevojke	-10.7408
▁ranjen	-10.7409
▁bazi	-10.741
▁istraga	-10.7411
▁kriminalističko	-10.7416
▁drama	-10.7429
▁kože	-10.7438
á	-10.744
▁industrije	-10.744
▁Oliver	-10.744
▁učinak	-10.744
▁uspore	-10.7442
▁nekakv	-10.7452
final	-10.7457
▁Frank	-10.7467
▁Ligu	-10.7472
▁pokušavaju	-10.7483
▁svjetskih	-10.7484
▁Svak	-10.7488
▁troškovi	-10.7492
▁DVD	-10.7492
▁dopušten	-10.7492
▁Nedavno	-10.7492
▁dužnosnici	-10.7492
▁turizam	-10.7492
▁2-0	-10.7492
▁Osnovn	-10.7493
▁spaja	-10.7496
▁odigrali	-10.7505
05	-10.7522
▁direktorica	-10.7524
▁led	-10.7524
▁osnovan	-10.7532
▁mirno	-10.7532
▁52	-10.7535
▁sloj	-10.7537
▁polufinale	-10.7545
▁osnivač	-10.7545
▁operacija	-10.7545
štvu	-10.7546
▁izaći	-10.7547
▁nastavila	-10.7549
▁gubitak	-10.755
nošenja	-10.7553
75	-10.7556
norm	-10.7563
ping	-10.7564
ićem	-10.7567
▁glazbeno	-10.7581
▁organizatori	-10.7583
zir	-10.7587
▁kontekstu	-10.7588
Život	-10.7588
▁pacijenata	-10.7598
▁nezavisn	-10.7598
▁navrata	-10.7598
▁EPPO	-10.7599
▁tramvaj	-10.7599
▁kafić	-10.7599
▁postići	-10.7599
▁kamera	-10.7599
▁Angeles	-10.7601
▁okonča	-10.7605
▁Selak	-10.7609
▁djelovanje	-10.7611
▁lokalnim	-10.7611
▁85	-10.7613
▁počast	-10.7629
▁dalmatinsk	-10.7636
▁Svjetskom	-10.764
▁filmova	-10.7641
▁skloni	-10.7642
▁Che	-10.7642
▁ljestvice	-10.7652
▁uzbudljiv	-10.7652
▁prosjeku	-10.7652
▁izmjena	-10.7652
▁mnogih	-10.7653
bačaj	-10.766
▁ograni	-10.7662
▁navijače	-10.7669
▁događanja	-10.767
▁pozira	-10.767
▁korisnici	-10.7672
▁tamn	-10.7675
▁pošten	-10.7675
▁dijelovima	-10.7675
▁zadržava	-10.7683
▁direktno	-10.7684
▁vratila	-10.7687
▁izložen	-10.7689
▁Hvar	-10.769
▁zaustaviti	-10.7691
▁prometna	-10.7697
▁završetka	-10.7706
▁krumpir	-10.7706
▁BBC	-10.7706
▁doživio	-10.7706
▁ukloni	-10.7709
▁preokret	-10.7711
▁Nitko	-10.7712
▁pomisli	-10.7714
▁zaposlenici	-10.7717
▁snažni	-10.7718
▁Pritom	-10.7721
▁otvoriti	-10.7723
rator	-10.7731
▁toplinsk	-10.7736
▁glavnom	-10.7738
▁općina	-10.7742
smrt	-10.7749
▁popust	-10.7749
▁slike	-10.7756
▁neočekivan	-10.776
▁osvrnuo	-10.776
▁rekonstrukcij	-10.776
▁žrtava	-10.776
▁2013.	-10.776
▁James	-10.776
▁procijeni	-10.776
▁oznaka	-10.7761
▁češće	-10.7761
▁obnove	-10.7761
▁ustanova	-10.7761
▁obećan	-10.7764
▁naselja	-10.7764
▁nužno	-10.7765
▁izjedna	-10.7766
▁2-1	-10.7767
▁Ustavnog	-10.7769
▁radnih	-10.7775
▁organizator	-10.7775
▁Jeste	-10.7781
▁narodn	-10.7783
▁Kraj	-10.7785
▁riječk	-10.7788
▁ugodno	-10.7794
▁66	-10.7797
▁NA	-10.7799
▁Kakv	-10.7802
▁Andrij	-10.7811
▁Liverpool	-10.7814
▁Raspudić	-10.7814
▁ugrožen	-10.7814
▁zadržati	-10.7814
▁konzul	-10.7814
▁reprezentaciji	-10.7814
▁Ovdje	-10.7814
▁2011.	-10.7814
▁žestok	-10.7814
▁slični	-10.7815
▁producent	-10.7815
▁sudionici	-10.7818
▁Općinsko	-10.7819
▁većini	-10.782
▁pješa	-10.7826
▁Alen	-10.7827
▁treća	-10.7827
▁rock	-10.7843
▁popularno	-10.7848
▁Jakov	-10.7856
▁povod	-10.7858
▁stvoriti	-10.7858
▁pokuša	-10.786
▁otkriti	-10.7865
▁Trenutno	-10.7869
▁Dalmacija	-10.7869
▁inspektor	-10.7869
Cropix	-10.7869
▁prilagodi	-10.7869
▁2026.	-10.7869
▁zaljubljen	-10.7869
▁Bjelovar	-10.7869
▁ostaviti	-10.7869
▁trajati	-10.787
▁urban	-10.787
▁progovori	-10.7872
▁zaredom	-10.7873
▁Meni	-10.7876
▁centr	-10.7881
▁zaboraviti	-10.7881
title	-10.7882
alost	-10.7895
▁žali	-10.7902
▁društvenoj	-10.7903
▁naredn	-10.7907
▁Velikoj	-10.7916
▁nastupiti	-10.7921
▁uznemir	-10.7923
▁Solin	-10.7923
▁neposredno	-10.7924
▁ponegdje	-10.7924
▁Varteks	-10.7924
▁potvrdili	-10.7924
▁Visok	-10.7924
▁počelo	-10.7925
▁rečeno	-10.7925
▁tamošnj	-10.7929
▁ministarstva	-10.7933
▁obraća	-10.7938
▁službenik	-10.7943
▁pomak	-10.7947
▁ulaznica	-10.795
▁fenomen	-10.7951
▁Pen	-10.7951
▁izdanju	-10.7955
▁većine	-10.7956
▁sjeverozapad	-10.7968
▁Svjetskog	-10.7971
▁muž	-10.7973
▁Kaže	-10.7974
▁noćn	-10.7977
▁Institut	-10.7979
▁Michael	-10.7979
▁Netanyahu	-10.7979
▁Herceg	-10.7979
▁Rakitić	-10.7979
▁izazvala	-10.7979
▁izgrađen	-10.7979
▁objava	-10.7979
▁Istaknu	-10.7979
▁pozvan	-10.7979
▁veznjak	-10.798
▁ispravn	-10.798
▁kazni	-10.798
▁koncept	-10.798
▁vidjela	-10.798
▁boksač	-10.7981
▁formu	-10.7981
▁kupnju	-10.7986
▁Modri	-10.7988
▁šuma	-10.7991
▁Zatim	-10.7992
▁Čini	-10.7993
hop	-10.7995
▁posluži	-10.7997
▁osiguranja	-10.8001
▁Blisk	-10.8002
▁Air	-10.8011
▁rijeke	-10.8015
▁Glavn	-10.8016
Sve	-10.8026
▁upozoravaju	-10.8026
▁Pres	-10.8029
▁političkih	-10.803
▁Vinko	-10.8034
▁financijske	-10.8034
▁infrastrukturu	-10.8034
▁poremećaj	-10.8034
▁pogrešn	-10.8034
▁podijeljen	-10.8034
▁liječničk	-10.8034
▁šansu	-10.8034
▁otišli	-10.8034
▁državu	-10.8035
▁Muzej	-10.8035
▁pomažu	-10.8035
▁Ministarstvu	-10.8036
▁uistinu	-10.8036
▁pronašao	-10.8037
▁Open	-10.804
▁Kamal	-10.8041
▁Ljubi	-10.8042
▁kontinuirano	-10.8042
▁54	-10.8047
▁Antonio	-10.8048
▁donacij	-10.8048
▁Mladen	-10.805
▁Matija	-10.8052
ištima	-10.8055
▁izravn	-10.8056
služb	-10.8058
▁prometni	-10.8062
▁radionica	-10.8063
▁ručn	-10.8063
▁bilježi	-10.8064
▁trans	-10.807
▁Petri	-10.8072
▁sviđa	-10.8074
▁javnim	-10.8076
▁radne	-10.8076
▁kreira	-10.8081
▁inteligencije	-10.809
▁investicija	-10.809
▁nezakonit	-10.809
▁postupku	-10.809
▁prvoligaš	-10.809
▁časopis	-10.809
▁Sopić	-10.8092
▁liječenje	-10.8093
▁ciljeve	-10.8097
▁Istri	-10.8099
ističke	-10.8105
▁doznajemo	-10.8107
▁Plav	-10.8115
▁skuplja	-10.8117
▁krš	-10.8124
▁startu	-10.813
▁Osje	-10.8137
▁Đur	-10.8139
sreću	-10.8142
▁Gen	-10.8143
▁ožujku	-10.8146
▁prihvatiti	-10.8146
▁relativno	-10.8146
▁dugotrajn	-10.8146
▁trenutke	-10.8146
▁komisije	-10.8146
▁Udruga	-10.8146
▁održao	-10.8146
▁izvještaj	-10.8147
▁uništen	-10.8149
▁vreć	-10.8154
ografsk	-10.8156
ekivan	-10.8157
▁sliku	-10.8158
▁obilježava	-10.8161
▁Mol	-10.8164
▁Franjo	-10.8165
▁Bojan	-10.8167
▁Vrlo	-10.8173
▁Turističk	-10.8175
▁Sinj	-10.8176
▁Bruno	-10.8177
▁Zdrav	-10.8179
2024	-10.8183
▁korisnicima	-10.8187
▁Španjolsk	-10.8189
▁postignu	-10.819
▁stranaka	-10.8197
▁eko	-10.8199
metar	-10.8201
prezentacij	-10.8203
▁NACIONAL	-10.8203
▁financijsko	-10.8203
▁emisija	-10.8203
▁knjigu	-10.8203
▁količina	-10.8203
▁pronašla	-10.8203
▁kamere	-10.8203
▁Postoji	-10.8203
▁indeks	-10.8204
▁izvješću	-10.8208
▁pregovori	-10.8208
▁ulaznice	-10.821
▁učinio	-10.821
▁ciljeva	-10.8211
▁Marc	-10.8212
▁Većina	-10.8213
▁rukav	-10.822
▁plaću	-10.8222
▁planove	-10.8235
▁64	-10.8238
lagati	-10.8242
▁BDP	-10.826
▁invazij	-10.826
▁Italija	-10.826
▁olujn	-10.826
▁izražen	-10.8261
▁utvrđen	-10.8262
▁kolegama	-10.8262
▁formira	-10.8265
▁Sigurno	-10.8281
▁Slovačk	-10.8289
▁vratili	-10.8296
▁doznaje	-10.8301
VE	-10.8306
▁međusobno	-10.8308
▁košarkašk	-10.8308
IN	-10.831
▁Maksimir	-10.8312
▁Mostar	-10.8314
▁najpopularnij	-10.8317
▁emitira	-10.8317
▁aktivira	-10.8317
▁mirovinsk	-10.8317
▁mirovina	-10.8319
▁VAR	-10.8319
▁Sloveniji	-10.8324
VO	-10.833
▁odlukom	-10.8332
▁stoper	-10.8335
▁gard	-10.8336
▁brže	-10.8341
▁projektima	-10.8341
▁Vas	-10.8346
▁odigrati	-10.8348
▁iznenađenje	-10.8352
▁prekri	-10.8353
▁brojem	-10.8357
▁57	-10.8361
▁derbiju	-10.8362
▁aktivnost	-10.8368
▁iznajmljiva	-10.8374
▁pjesmom	-10.8374
▁natjecanjima	-10.8374
▁Zvonimir	-10.8374
▁omogućava	-10.8374
▁vitamin	-10.8374
▁pripadnici	-10.8375
▁Važno	-10.8375
▁magistr	-10.8375
▁željezničk	-10.8375
▁suradnik	-10.8376
▁Penava	-10.8377
▁oduzet	-10.8377
▁ovakav	-10.8377
▁polako	-10.8378
▁obale	-10.8379
▁Ger	-10.8381
▁obiln	-10.8389
65	-10.839
nger	-10.8394
rstva	-10.8394
motiv	-10.8396
▁ilegal	-10.8398
▁Želj	-10.8406
▁sjeda	-10.8412
▁51	-10.8423
▁Hajdukov	-10.8426
▁Lucija	-10.8431
▁Primjerice	-10.8432
▁Rezultat	-10.8432
▁pozitivan	-10.8432
▁sredstvima	-10.8432
▁Daily	-10.8432
▁dijele	-10.8433
▁zagrebačkoj	-10.8433
▁sudjeluje	-10.8433
▁mentor	-10.8433
▁ustanove	-10.8433
▁zadužen	-10.8434
▁intimn	-10.8435
▁suigrač	-10.844
▁djelovanja	-10.8444
▁76	-10.8447
▁epi	-10.8458
Ć	-10.846
▁Max	-10.8461
dalj	-10.8464
▁Marić	-10.8466
vcima	-10.847
▁prepun	-10.8474
▁Sanja	-10.8475
▁prodan	-10.848
▁Dar	-10.8481
vir	-10.8481
▁šalje	-10.8489
▁posjetitelje	-10.849
▁sastanka	-10.8491
▁Livaja	-10.8491
▁utrci	-10.8492
▁premda	-10.8493
▁uzeo	-10.8496
▁ostatk	-10.8497
▁brzine	-10.85
▁Sab	-10.8502
▁sportskih	-10.8511
▁iransk	-10.8514
▁hrvatsko	-10.8517
▁nastavn	-10.8518
▁kuhar	-10.8528
▁članice	-10.8528
čast	-10.8532
▁internetsk	-10.8532
▁vratima	-10.8535
▁predstaviti	-10.8542
▁prikazan	-10.8548
▁Norvešk	-10.8549
▁inzistira	-10.8549
▁izgubljen	-10.8549
▁lokaciji	-10.8549
▁lokacije	-10.8549
▁količine	-10.8549
▁mađarsk	-10.8549
▁tvari	-10.8549
▁teškim	-10.8549
▁inovativn	-10.8549
▁Gruzij	-10.855
▁srcu	-10.855
▁obrazovn	-10.8551
▁Severina	-10.8551
▁konačnici	-10.8553
▁politička	-10.8553
▁bave	-10.8554
▁hrani	-10.8557
▁jednak	-10.8561
▁dodatnih	-10.8562
▁karte	-10.8564
▁nijedn	-10.8565
▁Petrović	-10.8567
▁Mislav	-10.857
gospodar	-10.8577
▁Americi	-10.8578
▁susjedn	-10.8579
▁licu	-10.858
▁bijeli	-10.8582
▁dobrobit	-10.859
▁isključen	-10.8591
▁oboje	-10.8591
▁Onda	-10.8592
▁Rekl	-10.8601
▁invaliditetom	-10.8608
▁neizvjesn	-10.8608
▁oporavak	-10.8608
▁praktički	-10.8608
▁promovira	-10.8608
▁Miroslav	-10.8608
▁pretjeran	-10.8608
▁posjetitelja	-10.8608
▁sudjeluju	-10.8608
▁Podsje	-10.8608
▁Vozač	-10.8608
▁stižu	-10.8611
držav	-10.8626
rstvo	-10.8629
stvar	-10.864
▁pokriva	-10.8656
Kad	-10.8657
▁61	-10.8664
▁Republika	-10.8667
▁raznolik	-10.8667
▁ispunjava	-10.8667
▁emocija	-10.8667
▁maslinov	-10.8667
▁Domagoj	-10.8667
▁zdravstvenih	-10.8667
▁poslovi	-10.8667
▁stotine	-10.8667
Iz	-10.8668
▁javila	-10.8668
▁težak	-10.8668
▁vijeće	-10.8673
▁Wil	-10.8682
▁javio	-10.8684
▁potražn	-10.8686
▁ruše	-10.8687
▁dobrih	-10.869
▁poboljšati	-10.869
▁snazi	-10.869
▁@	-10.8692
▁priznati	-10.8692
▁savezn	-10.8693
iranju	-10.8699
▁otvaranje	-10.87
▁stavio	-10.8702
▁fantastičn	-10.8704
▁nasiln	-10.8709
▁planet	-10.8709
▁Ukrajinsk	-10.8711
▁manjina	-10.8725
▁savjetnik	-10.8725
▁Aleksandar	-10.8726
▁Austrija	-10.8726
▁prihvaća	-10.8726
▁Bruxelles	-10.8726
▁tjedno	-10.8726
▁2024	-10.8728
▁zamijeniti	-10.873
▁63	-10.8732
▁dvadeset	-10.8736
▁izrazio	-10.8736
▁zra	-10.8739
▁učinkovitost	-10.8741
▁kostim	-10.8741
▁dodatak	-10.8748
▁53	-10.8748
puštanje	-10.8749
▁odnosima	-10.8752
miješajte	-10.8754
▁niže	-10.876
▁Vit	-10.8766
▁osigurali	-10.8768
izaciji	-10.877
▁čudo	-10.8771
▁krene	-10.8778
=	-10.8785
▁Raj	-10.8785
▁Lokomotive	-10.8786
▁kolovozu	-10.8786
▁konferencije	-10.8786
▁objekata	-10.8786
▁praktičn	-10.8786
▁zabavlja	-10.8786
▁najbliž	-10.8787
▁nikoga	-10.8787
▁druži	-10.8787
▁foto	-10.8788
▁sjet	-10.8788
▁kontra	-10.8789
▁osnovi	-10.879
▁dobrim	-10.8791
▁upozorenja	-10.8792
▁odakle	-10.8792
▁Luci	-10.8793
▁kreću	-10.8795
▁vagi	-10.8796
▁Češk	-10.8796
▁Rat	-10.88
▁visokim	-10.8804
lagali	-10.8806
▁Pan	-10.881
▁formi	-10.8811
▁bolesn	-10.8826
▁primarn	-10.8838
vrsti	-10.884
▁trgova	-10.8844
▁ušla	-10.8846
▁kandidira	-10.8846
▁Uskrs	-10.8846
▁ukazuje	-10.8846
▁lopta	-10.8847
▁recimo	-10.8847
▁izjavu	-10.8847
▁Anđel	-10.8848
▁MUP	-10.8849
▁Slobod	-10.8849
▁otvorila	-10.8851
▁biračk	-10.8862
▁Rib	-10.8864
▁ostaju	-10.8866
▁kontaktira	-10.8871
▁partnerima	-10.8874
▁politici	-10.8883
▁povratka	-10.8888
▁stranice	-10.8891
▁uključuju	-10.8901
▁američkih	-10.8901
▁investicije	-10.8907
▁općenito	-10.8907
▁boravak	-10.8907
▁pravde	-10.8907
▁Horvat	-10.8907
▁stanovnici	-10.8907
▁prevencij	-10.8908
▁probudi	-10.8908
▁namirnica	-10.8909
▁pretvara	-10.891
▁povećal	-10.8911
▁vladi	-10.8911
▁ženu	-10.8912
Brak	-10.8916
▁Rijeku	-10.8921
ništvo	-10.8926
▁javnih	-10.8929
▁Ništa	-10.8943
▁MO	-10.8949
▁zagr	-10.8959
▁jeftinij	-10.8961
▁Taylor	-10.8968
▁korupcije	-10.8968
▁policajci	-10.8968
▁nestabiln	-10.8968
▁poručuje	-10.8968
▁uspjeti	-10.8968
▁povezuje	-10.8968
▁dodavši	-10.8968
▁pojasnio	-10.8968
▁naprijed	-10.8969
▁influencer	-10.8972
▁napustiti	-10.8972
▁Gradskog	-10.8973
▁utrka	-10.8973
▁Obitelj	-10.8976
▁Vjer	-10.8978
▁Konferencijsk	-10.8981
▁trenutn	-10.8985
▁navela	-10.8989
▁sportskog	-10.8989
▁Laur	-10.899
▁srednji	-10.9
▁ligu	-10.9001
▁osmo	-10.9006
▁Mak	-10.9008
▁Kul	-10.9009
▁62	-10.9013
▁ekstremn	-10.9014
▁provjeriti	-10.9019
▁odgovorila	-10.9023
▁dozvola	-10.9029
▁platforma	-10.9029
▁izdvaja	-10.9029
▁naknade	-10.9029
▁sjednice	-10.9029
▁obveze	-10.9029
▁informaciju	-10.9029
▁Anušić	-10.903
▁akt	-10.903
▁tragičn	-10.9033
▁predstava	-10.9047
▁krize	-10.9049
▁izvodi	-10.9057
▁kosu	-10.9063
▁umro	-10.9063
▁napuni	-10.9065
▁Rog	-10.9071
▁najam	-10.9072
▁stoje	-10.9084
▁Darko	-10.9084
▁brine	-10.9087
▁bijes	-10.9089
▁građe	-10.9091
▁dozvole	-10.9091
▁slobodni	-10.9091
▁spremna	-10.9091
▁Valentin	-10.9091
▁Butković	-10.9091
▁smisla	-10.9092
▁suradnja	-10.9092
▁pokazatelj	-10.9092
▁izrazito	-10.9092
▁potvrđuje	-10.9093
▁tisuću	-10.9093
▁obilježil	-10.9094
▁održavanja	-10.9095
▁ribar	-10.9097
▁boks	-10.9098
▁potvrđen	-10.9098
▁ispriča	-10.9101
▁Koji	-10.9104
▁diza	-10.9107
▁provjeri	-10.9108
▁potrazi	-10.9109
▁Francuskoj	-10.9113
▁proveli	-10.9127
▁svježi	-10.9128
▁slave	-10.9135
▁Jadransk	-10.914
▁DHMZ	-10.9153
▁Rujevici	-10.9153
▁nadoknadi	-10.9153
▁osmijeh	-10.9153
▁sastanku	-10.9153
▁ekonomski	-10.9153
▁prevezen	-10.9153
▁svojevrsn	-10.9154
▁privukl	-10.9154
▁obožavatelji	-10.9155
▁suveren	-10.9156
▁okrenut	-10.9157
▁mentalno	-10.9158
▁radove	-10.9158
▁psiho	-10.916
okret	-10.9162
▁predivn	-10.917
▁NK	-10.9172
▁€	-10.9172
▁potreban	-10.9176
▁pijan	-10.9178
▁Nekolik	-10.9178
▁jedinice	-10.9178
▁jači	-10.9196
UP	-10.9198
▁Dalmatin	-10.9216
▁Sindikat	-10.9216
▁kolodvor	-10.9216
▁obavještajn	-10.9216
▁nedostatak	-10.9216
▁emocije	-10.9216
▁Kasnije	-10.9216
▁opušten	-10.9216
▁kultn	-10.9217
▁stotina	-10.9217
▁provela	-10.9217
▁prelazi	-10.9219
▁skupinu	-10.9244
▁Mac	-10.9257
▁javljaju	-10.9263
src	-10.9267
▁Ven	-10.9269
ON	-10.9277
▁56	-10.9278
▁ostvarila	-10.9278
▁blagdansk	-10.9279
▁oslobodi	-10.9279
▁prisutnost	-10.9279
▁kombinacija	-10.9279
▁pokrenuo	-10.9279
▁pozornici	-10.9279
▁prosjeka	-10.9279
▁regija	-10.9279
▁aktivist	-10.9279
▁akciji	-10.9279
▁shvatio	-10.9279
▁virus	-10.928
▁Odmah	-10.928
▁zagrebačkog	-10.928
▁političkog	-10.9281
▁uvođenje	-10.9283
▁poduzeća	-10.9286
▁prigodn	-10.9293
▁odgovoriti	-10.9295
IJE	-10.9298
▁Novog	-10.9309
▁Matej	-10.9314
▁Gorice	-10.9314
▁završili	-10.9316
▁povećanja	-10.9317
▁Hrvatskih	-10.932
▁kose	-10.9323
▁glad	-10.9325
post	-10.9331
▁nastupio	-10.9332
kršaj	-10.9332
▁News	-10.9336
▁Član	-10.9337
▁odgovarajuć	-10.9341
▁konzumacij	-10.9342
▁činjenice	-10.9342
▁izazvati	-10.9342
▁napominje	-10.9342
▁nervoz	-10.9342
▁pištolj	-10.9342
▁pružiti	-10.9342
▁2009.	-10.9342
▁držati	-10.9342
▁prometnih	-10.9342
▁aktivni	-10.9343
Plus	-10.9344
▁rukometaš	-10.9345
▁dokumentarn	-10.9347
▁Protiv	-10.9347
šut	-10.9347
▁smiju	-10.9348
▁fondova	-10.9353
▁kršenj	-10.9353
info	-10.9353
▁podatak	-10.9359
▁plasti	-10.9361
▁opravdan	-10.9367
▁izdanja	-10.9367
▁vlastitu	-10.9371
rgan	-10.9374
▁novosti	-10.938
▁Nisu	-10.9383
▁smiri	-10.9399
LO	-10.9403
▁demokrat	-10.9403
▁dostojanstv	-10.9406
▁poginulo	-10.9406
▁pravosuđa	-10.9406
▁Pašalić	-10.9406
▁crijeva	-10.9406
▁lopte	-10.9406
▁Voyo	-10.9406
etvrtak	-10.9406
▁utrku	-10.9407
▁baštine	-10.9407
▁odličan	-10.9408
▁visini	-10.9409
▁faza	-10.941
zgr	-10.9414
▁detaljn	-10.942
▁stanovnik	-10.9423
▁dodir	-10.9424
▁Pil	-10.9426
▁suprotn	-10.9427
▁pouzdan	-10.9428
▁Knin	-10.9451
ö	-10.947
▁inflacije	-10.947
▁ljudska	-10.947
▁vještine	-10.947
▁ovlasti	-10.947
▁industriji	-10.947
▁namirnice	-10.947
▁naglasila	-10.947
▁potrebi	-10.947
▁Otvoren	-10.947
▁površina	-10.947
▁običaj	-10.9471
▁uzrokovati	-10.9471
▁provjere	-10.9472
▁obračun	-10.9472
▁zabavi	-10.9478
▁izrazil	-10.948
▁Dario	-10.9481
▁životinje	-10.9483
▁troši	-10.9486
▁navodn	-10.9489
▁spomenik	-10.9493
37	-10.9496
▁drže	-10.9497
▁Odjel	-10.95
▁Misli	-10.9502
▁ravnateljica	-10.9504
▁luci	-10.9513
▁gastro	-10.9517
▁sudačk	-10.9526
▁1,5	-10.9534
▁raspolaganju	-10.9534
▁poginuo	-10.9534
▁efekt	-10.9534
▁rasprava	-10.9534
▁pismo	-10.9535
▁scenu	-10.9537
▁odobri	-10.9539
▁sjedište	-10.954
▁poticanj	-10.9541
▁vjetra	-10.9547
▁Đurđ	-10.9548
▁temeljn	-10.9551
mršav	-10.9552
▁Mnog	-10.9552
▁67	-10.9555
▁makar	-10.9573
▁malu	-10.9576
▁rame	-10.9577
▁ugleda	-10.9586
▁Tel	-10.9597
▁UEFA	-10.9599
▁Republici	-10.9599
▁platforme	-10.9599
▁tretman	-10.9599
▁Vedran	-10.9599
▁nimalo	-10.9602
▁crkvi	-10.9602
▁izvješće	-10.9602
▁napisali	-10.9602
▁Orban	-10.9602
▁Lijep	-10.9607
▁boc	-10.9611
▁propustit	-10.9611
▁Miloš	-10.9617
ložili	-10.9627
▁zajednici	-10.9635
▁okoln	-10.9635
▁borac	-10.9636
▁Joško	-10.964
▁sklop	-10.9644
▁Sigur	-10.9656
▁snimanja	-10.9663
▁ponedjeljka	-10.9664
▁dostupno	-10.9664
▁drugačiji	-10.9664
▁pandemije	-10.9665
▁dviju	-10.9665
▁zauzima	-10.9665
pravni	-10.967
▁zdravstvo	-10.9673
▁djed	-10.9673
kninsk	-10.9674
▁koncu	-10.9677
▁originaln	-10.9678
▁istaknut	-10.9682
▁izvrši	-10.9687
▁glazbene	-10.9692
▁talentiran	-10.9698
▁agent	-10.9699
▁poljsk	-10.9706
▁Srbiju	-10.971
▁Matić	-10.9724
▁konzerv	-10.9729
▁poljoprivrede	-10.973
▁pretežno	-10.973
▁sudjelovala	-10.973
▁muškarce	-10.973
▁obnovu	-10.973
▁postizanj	-10.973
▁isproba	-10.973
▁kampanja	-10.9731
▁kupio	-10.9733
▁sačuva	-10.9734
▁potiče	-10.9736
▁bacanj	-10.9736
▁pušten	-10.9736
▁brzinu	-10.9737
▁Dodik	-10.9737
▁Aleks	-10.9737
▁razvijen	-10.9743
RT	-10.9745
hrabri	-10.9755
▁sunca	-10.9758
tječu	-10.9759
▁kavu	-10.9761
▁trećeg	-10.9762
▁vašeg	-10.9776
▁DJ	-10.9781
▁sok	-10.9783
▁redovit	-10.9796
▁mišljenja	-10.9796
▁podignut	-10.9797
▁junior	-10.9797
▁upućen	-10.9797
▁dramatičn	-10.9797
▁industrijsk	-10.9797
▁predstave	-10.9798
▁kompletn	-10.9798
▁snimku	-10.9798
▁provođenj	-10.9799
▁višestruk	-10.98
▁oporbe	-10.9803
▁Pavić	-10.9805
▁najavila	-10.9806
▁Općina	-10.9806
▁spoln	-10.9807
hot	-10.9814
▁svježe	-10.982
▁nesretn	-10.9827
▁59	-10.983
▁materijaln	-10.9837
▁ugostiteljsk	-10.984
▁ugostitelj	-10.9843
▁tv	-10.9846
▁složen	-10.9854
▁Tuđman	-10.9863
▁Španjolc	-10.9863
▁vještina	-10.9863
▁Kalinić	-10.9863
▁potpora	-10.9863
▁izvještava	-10.9864
▁Njemačku	-10.9865
▁Spomen	-10.9866
▁shvaća	-10.9868
▁najmanj	-10.9869
▁odavno	-10.9871
▁Brun	-10.9887
▁jutra	-10.989
▁Mladost	-10.9891
▁Rusiju	-10.9895
▁Win	-10.9902
▁raspisa	-10.9908
etkom	-10.9913
34	-10.9913
crta	-10.9927
▁pečen	-10.9929
▁epizoda	-10.993
▁drukčij	-10.993
▁menadžer	-10.993
▁dijelove	-10.993
▁slučajevima	-10.993
▁Dončić	-10.9931
▁stražnj	-10.9932
regulacij	-10.9932
▁kritika	-10.9934
▁kandidatkinja	-10.9934
▁zdravlju	-10.9941
q	-10.9946
▁Zdravko	-10.9951
▁zaključa	-10.9953
▁jasan	-10.9959
▁VI	-10.9969
▁ukras	-10.9969
▁prevelik	-10.9973
▁Ros	-10.9973
▁korišten	-10.9991
profesional	-10.9992
▁Kost	-10.9993
tekao	-10.9993
▁njegu	-10.9997
▁informira	-10.9998
▁centimetara	-10.9998
▁kazališn	-10.9998
▁kvalitetno	-10.9998
▁televiziji	-10.9998
▁volonter	-10.9998
▁četvrtfinale	-10.9998
▁biznis	-10.9998
▁podržati	-10.9998
▁obaveza	-10.9999
▁skriven	-10.9999
▁odradio	-11.0002
▁droge	-11.0006
▁rukomet	-11.0014
Večer	-11.0016
▁droga	-11.0016
▁Španjolskoj	-11.0019
▁značajan	-11.0028
▁prešao	-11.003
▁registriran	-11.0032
Q	-11.0036
▁obilježavanj	-11.0049
76	-11.0052
▁dubrovačko	-11.0066
▁funkciju	-11.0066
▁hibrid	-11.0066
▁mjestimice	-11.0066
▁Vrijeme	-11.0066
▁industrija	-11.0066
▁Medved	-11.0067
▁glup	-11.0068
▁samouprav	-11.0068
▁ozlijedio	-11.0068
▁Stipe	-11.0069
▁parking	-11.0071
▁nestali	-11.0072
▁Phil	-11.008
▁trideset	-11.0085
puštaju	-11.0106
49	-11.011
▁700	-11.0111
▁strijel	-11.0128
▁pretpostav	-11.0129
▁stavit	-11.013
▁ozbiljnij	-11.0134
▁regulira	-11.0134
▁odvjetništvo	-11.0134
▁prihvatljiv	-11.0134
▁optužbe	-11.0134
▁rasprave	-11.0134
▁mozga	-11.0135
▁prirodi	-11.0135
▁prijetnja	-11.0136
▁saveznik	-11.0138
▁isklju	-11.014
▁raspolo	-11.0146
migrant	-11.0149
▁Odgovor	-11.0151
▁suradnic	-11.0152
▁uspijeva	-11.0153
▁Vlah	-11.0154
▁sobe	-11.0156
inec	-11.0159
▁skromn	-11.0166
▁73	-11.0167
▁jeseni	-11.0167
▁1:0	-11.0168
▁Bačić	-11.0172
▁okruženju	-11.0172
▁poštovanje	-11.0173
▁opcije	-11.018
▁proizvodnja	-11.018
32	-11.0189
▁imenom	-11.0192
▁metra	-11.0201
▁nezaboravn	-11.0203
▁sponzor	-11.0203
▁Večernji	-11.0203
▁doživljaj	-11.0203
▁promjenjiv	-11.0203
▁medicine	-11.0203
▁približi	-11.0203
▁doživjela	-11.0203
▁svrhu	-11.0203
▁Vijeća	-11.0203
▁valjda	-11.0203
▁razmatra	-11.0203
▁priznaje	-11.0204
▁zarobljen	-11.0204
▁2006.	-11.0204
▁shvatiti	-11.0204
▁bruto	-11.0204
▁2008.	-11.0204
▁švedsk	-11.0204
križevačk	-11.0208
▁stope	-11.0208
ivljava	-11.0209
▁završnici	-11.0211
▁vrstu	-11.0212
sport	-11.0212
▁otkup	-11.0215
▁uzgoj	-11.0217
▁nedavn	-11.0221
kakvih	-11.0226
▁dovoljn	-11.0235
Gr	-11.0237
▁Rob	-11.0254
Mar	-11.0266
▁poboljšanje	-11.0269
▁dodaju	-11.027
▁Dortmund	-11.0273
▁poluvremena	-11.0273
▁uzastopn	-11.0273
▁genocid	-11.0273
▁činjenicu	-11.0273
▁autocesti	-11.0273
▁naoružan	-11.0273
▁najuspješnij	-11.0273
▁prestižn	-11.0273
ističko	-11.0275
▁omjer	-11.0277
▁presudi	-11.0278
▁granicu	-11.0282
▁Video	-11.0283
▁68	-11.0287
▁spasio	-11.0294
▁zone	-11.0302
▁Kap	-11.0316
▁plastičn	-11.0328
▁Angel	-11.0339
▁integracij	-11.0343
▁istaknuli	-11.0343
▁oslobođen	-11.0343
▁osobne	-11.0343
▁podsjetio	-11.0343
▁dostupan	-11.0343
▁pozornicu	-11.0343
▁PDV	-11.0343
▁okupljeni	-11.0343
▁građansk	-11.0343
▁2010.	-11.0343
▁prezime	-11.0343
▁Gdje	-11.0344
▁Postoje	-11.0344
▁jednostavni	-11.0349
.500	-11.0353
▁Boban	-11.0354
▁play	-11.0358
▁dogovoren	-11.0364
48	-11.0365
▁priznanja	-11.0373
▁Dnevn	-11.0391
▁Bjel	-11.0392
velike	-11.0398
07	-11.04
▁Austriji	-11.0413
▁Salzburg	-11.0413
▁prehramben	-11.0413
▁izvedbe	-11.0413
▁druženje	-11.0413
▁zatražil	-11.0413
▁sadrži	-11.0413
▁podijeliti	-11.0413
▁borben	-11.0414
▁sjajan	-11.0414
▁nemojte	-11.0414
▁gospodarski	-11.0414
▁Macron	-11.0414
▁srebrn	-11.0414
▁Kremlj	-11.0416
▁poražen	-11.0416
▁nerijetk	-11.0416
▁protein	-11.0423
▁opisao	-11.0425
▁maslac	-11.0437
▁ispali	-11.0444
▁Amerike	-11.0444
▁Marković	-11.0447
@	-11.0454
ativno	-11.0462
▁pića	-11.0463
▁Jose	-11.0467
▁Neven	-11.0467
▁robot	-11.0469
▁čudi	-11.0479
▁demografsk	-11.048
▁Gradonačelnik	-11.0484
▁Jugoslavije	-11.0484
▁Muškarac	-11.0484
▁Sarajevu	-11.0484
▁Saudijsk	-11.0484
▁administracij	-11.0484
▁Mjesec	-11.0484
▁prikupljen	-11.0484
▁uzbuđen	-11.0484
▁trbuh	-11.0484
▁atentat	-11.0484
▁2:0	-11.0484
▁podnijeti	-11.0485
▁Alex	-11.0485
▁dramsk	-11.0486
▁Sjever	-11.0486
▁Nikolina	-11.0487
▁Dž	-11.0489
▁Izraelsk	-11.0492
miješa	-11.0493
izmom	-11.0494
▁utjecal	-11.0501
▁vidjet	-11.0502
▁Šarić	-11.0507
▁itd	-11.0507
▁postavljanj	-11.051
▁Sučić	-11.0513
▁voća	-11.0518
▁navika	-11.0519
▁članove	-11.0524
▁istinsk	-11.0524
▁kontinent	-11.0547
▁Barcelona	-11.0555
▁ogroman	-11.0555
▁pripremu	-11.0555
▁Zapravo	-11.0555
▁Advent	-11.0556
▁privlači	-11.0556
▁izašli	-11.0556
▁transport	-11.0556
▁odlična	-11.0556
▁staklen	-11.0556
▁faze	-11.0557
▁staze	-11.0557
▁umirovljenika	-11.0559
▁Antun	-11.0559
▁stvoren	-11.0562
▁zaustavlja	-11.0563
▁zoni	-11.0566
▁komi	-11.0567
▁presuda	-11.0571
▁graničn	-11.0575
▁usporedi	-11.0575
▁zahvalio	-11.0576
▁zahvaliti	-11.0579
puštanja	-11.0579
▁direkt	-11.058
▁osobnih	-11.0594
▁takvi	-11.0597
▁radnike	-11.0597
°	-11.0598
▁Državnog	-11.061
▁Roman	-11.0618
▁krvn	-11.0619
▁Lokomotiva	-11.0627
▁podrazumijeva	-11.0627
▁studenata	-11.0627
▁koalicije	-11.0627
▁sigurna	-11.0627
▁poručuju	-11.0627
▁izmjene	-11.0627
▁kretanja	-11.0627
▁najviši	-11.0628
▁ugrozi	-11.0628
▁Slavonsk	-11.0628
▁resor	-11.0628
▁Sever	-11.0628
91	-11.0632
▁bogatstvo	-11.0638
▁Izbor	-11.0641
▁urednik	-11.0647
▁You	-11.0649
▁gura	-11.065
▁uspon	-11.0651
▁popularnost	-11.0655
▁takvog	-11.0655
▁tolik	-11.0664
▁Pep	-11.0664
rbo	-11.0675
počet	-11.0676
▁lošij	-11.0686
▁financiran	-11.0691
▁prisustv	-11.0698
▁Mogl	-11.0698
▁Glazben	-11.07
▁Leipzig	-11.07
▁Ludbreg	-11.07
▁dostupne	-11.07
▁identificira	-11.07
▁institut	-11.07
▁gostovanju	-11.07
▁studira	-11.07
▁zgradi	-11.0701
▁Premda	-11.0701
▁obavezn	-11.0701
▁procjenjuje	-11.0705
▁međusobn	-11.0711
▁osvajanje	-11.0713
▁bran	-11.0714
▁postignut	-11.0716
▁smjest	-11.072
▁Mail	-11.0729
010	-11.0737
▁svejedno	-11.0739
▁savjetuje	-11.0742
▁72	-11.0752
▁Domovinskom	-11.0773
▁komercijaln	-11.0773
▁preminula	-11.0773
▁približava	-11.0773
▁vrijeđa	-11.0773
▁izražava	-11.0773
▁koalicijsk	-11.0773
▁sekunde	-11.0773
▁pregovora	-11.0774
▁političku	-11.0775
▁zabave	-11.0775
▁elektroničk	-11.0781
▁kviz	-11.0782
▁nafte	-11.0783
▁razumijevanje	-11.0789
▁rukometn	-11.0826
▁simpati	-11.0829
▁Katar	-11.083
▁Musk	-11.0838
46	-11.0843
▁hrabrost	-11.0846
▁nezaposlen	-11.0846
▁Elizabet	-11.0846
▁Jandroković	-11.0846
▁Stefan	-11.0846
▁1961	-11.0846
▁trajanja	-11.0847
▁Kovačević	-11.0847
▁Direkt	-11.0848
▁posade	-11.0849
▁noćenja	-11.0851
▁Puljak	-11.0851
▁glava	-11.0853
▁Žup	-11.0854
▁Times	-11.0857
▁trajno	-11.0861
plaće	-11.0866
09	-11.0868
▁donira	-11.0876
▁dvaput	-11.0884
▁Šar	-11.0889
▁brodova	-11.0889
▁tank	-11.0896
▁pobjedničk	-11.0907
rget	-11.0908
▁specijaln	-11.0917
▁Aleksandra	-11.092
▁SDSS	-11.092
▁YouTube	-11.092
▁aplikacije	-11.092
▁desetljećima	-11.092
▁inicijativu	-11.092
▁izbjeći	-11.092
▁tragedije	-11.092
▁četvrtfinalu	-11.092
▁kultura	-11.092
▁projekcij	-11.092
▁anketa	-11.092
▁psihološk	-11.0921
▁pomogao	-11.0921
▁fazu	-11.0921
▁četvorn	-11.0921
▁heroj	-11.0921
▁odjeću	-11.0922
▁odraditi	-11.0923
▁Opatij	-11.0923
▁dijalog	-11.0924
▁psiholog	-11.0927
▁otpornost	-11.0932
▁zemljišta	-11.0935
▁iseljen	-11.0941
▁naselje	-11.0942
mjesečn	-11.0955
▁Step	-11.0959
break	-11.0966
▁stanice	-11.0967
▁Slova	-11.0967
▁Petrov	-11.0979
▁vjerojatnost	-11.0985
▁Službe	-11.0995
▁spektakularn	-11.0995
▁tinejdžer	-11.0995
▁autentičn	-11.0995
▁procjena	-11.0995
▁ekipi	-11.0995
▁tradicije	-11.0995
neretvansk	-11.0995
▁Nemojte	-11.0995
▁usvoji	-11.0996
▁imovinsk	-11.0996
▁elitn	-11.0997
▁nogama	-11.0997
▁iskr	-11.0997
▁oprema	-11.0997
▁dvorane	-11.0997
▁uređenje	-11.0998
▁japansk	-11.0998
▁pisao	-11.0998
▁Katarina	-11.0998
▁Celtic	-11.0999
▁zbiva	-11.1006
▁Treće	-11.1009
▁Četvrt	-11.101
▁soba	-11.1022
▁nastave	-11.1026
▁izvješ	-11.1056
▁mnom	-11.1062
▁prošlogodišnj	-11.1062
▁Austrije	-11.107
▁Ravnatelj	-11.107
▁glumačk	-11.107
▁dijelova	-11.107
▁trećoj	-11.107
▁blagoslov	-11.107
▁preporučuje	-11.107
▁priveden	-11.107
▁svjetla	-11.1071
▁uređenja	-11.1071
uzeo	-11.1072
▁ATP	-11.1085
▁Znači	-11.1089
▁kotač	-11.1089
▁prestati	-11.1091
▁obalu	-11.1102
▁vjersk	-11.1102
▁84	-11.1103
▁format	-11.1107
ologija	-11.1111
kuha	-11.1115
Ljubav	-11.1121
▁stanica	-11.1122
▁običn	-11.1123
▁Studen	-11.1145
▁epizode	-11.1146
▁naknadno	-11.1146
▁objavljuje	-11.1146
▁relevantn	-11.1146
▁ocijenio	-11.1146
▁opremu	-11.1146
▁oporavi	-11.1146
▁oružan	-11.1146
▁Građani	-11.1146
▁inženjer	-11.1146
▁veteran	-11.1147
▁Michel	-11.1148
▁gospodarsko	-11.1149
godišnjakinja	-11.115
▁tjera	-11.115
▁rakete	-11.115
▁pretpostavlja	-11.1151
▁pitanjima	-11.1152
▁vladu	-11.1154
▁logor	-11.1155
▁minus	-11.1159
▁Bosni	-11.116
▁Željka	-11.1172
▁cijelosti	-11.1173
▁ušted	-11.1173
▁travnjak	-11.1178
▁74	-11.1179
▁fanovi	-11.1193
▁lav	-11.1211
▁Jennifer	-11.1222
▁München	-11.1222
▁cjelokupn	-11.1222
▁dodijeljen	-11.1222
▁investicijsk	-11.1222
▁komunikacija	-11.1222
▁uspješan	-11.1222
▁Premier	-11.1222
▁glazba	-11.1222
▁knjizi	-11.1222
▁gužve	-11.1222
▁ozbiljan	-11.1222
▁Gotovo	-11.1222
▁postigli	-11.1222
▁vizualn	-11.1222
▁vinograd	-11.1222
▁Govori	-11.1223
▁odlučuju	-11.1223
▁uništava	-11.1223
▁točnije	-11.1223
▁stao	-11.1224
▁Šimun	-11.1224
▁zamisliti	-11.1224
▁dizel	-11.1224
▁srčan	-11.1224
Zahvaljujući	-11.1224
▁Studij	-11.1225
▁suglasnost	-11.1225
▁obratio	-11.1226
▁čip	-11.1228
▁Jones	-11.123
▁svjestan	-11.1233
▁napredn	-11.1235
▁kolektivn	-11.1236
▁ulaska	-11.1243
41	-11.1247
▁granici	-11.125
▁spust	-11.1254
▁žao	-11.1256
▁plakat	-11.1269
▁znakovi	-11.1269
▁kupova	-11.1272
▁čaj	-11.1279
▁kolač	-11.1297
▁asfalt	-11.1299
▁instrument	-11.1299
▁obuhvaća	-11.1299
▁Države	-11.1299
▁tradiciju	-11.1299
▁Arsenal	-11.1299
▁cestovn	-11.1299
▁Thomas	-11.1299
▁postupno	-11.1299
▁stiglo	-11.1299
▁usredoto	-11.1299
▁promicanj	-11.1299
▁invalid	-11.13
▁Belupo	-11.13
▁pravilima	-11.1301
▁podržal	-11.1301
rađivati	-11.1301
▁zagrebačke	-11.1302
▁izvješća	-11.1303
▁nabave	-11.1303
▁staza	-11.1305
▁maslina	-11.1305
▁naučiti	-11.1308
▁razmisli	-11.131
▁Vidović	-11.1313
vezao	-11.1316
▁povratku	-11.1324
▁otvaranju	-11.1327
▁prsten	-11.1331
▁sporn	-11.134
▁83	-11.1341
▁bijeg	-11.1348
▁Imat	-11.1354
▁sirov	-11.1368
boga	-11.137
▁smjes	-11.137
▁Barcelone	-11.1377
▁Telegram	-11.1377
▁dozvolu	-11.1377
▁manifestacija	-11.1377
▁objašnjen	-11.1377
▁Borussij	-11.1377
▁kombinaciji	-11.1377
▁srednjoškol	-11.1377
▁mlijeka	-11.1377
▁reakciju	-11.1377
▁sankcija	-11.1377
▁Budimir	-11.1377
▁obećava	-11.1377
▁metoda	-11.1377
▁trajanju	-11.1377
▁ispitanika	-11.1377
▁sumnjiv	-11.1377
▁vozilima	-11.1378
▁raspravlja	-11.1378
▁opterećen	-11.1379
field	-11.138
▁kritičn	-11.138
▁nikome	-11.138
▁800	-11.1389
▁pružanj	-11.139
▁jeftin	-11.1396
▁grupi	-11.1399
▁podnijel	-11.1405
▁dobitnik	-11.1405
▁Zajec	-11.1407
▁povjerenja	-11.1408
▁zabava	-11.141
▁10.000	-11.1412
▁Škol	-11.1413
reativ	-11.1414
▁majku	-11.1419
▁Marcel	-11.1427
umb	-11.143
▁Kvarner	-11.1455
▁koeficijent	-11.1455
▁tvrtku	-11.1455
▁Splićani	-11.1455
▁Hercegovini	-11.1455
▁nagrađen	-11.1455
▁kritike	-11.1455
▁djevojčice	-11.1456
▁kamatn	-11.1456
▁sugovornik	-11.1456
▁svećenik	-11.1457
▁dolasku	-11.1457
▁obavljen	-11.1458
▁2:1	-11.146
Osjeća	-11.1461
▁treću	-11.1465
▁Često	-11.1467
▁stranku	-11.1471
▁mladosti	-11.1476
▁slikar	-11.1481
▁Simon	-11.1485
▁nastao	-11.1502
▁vijek	-11.1507
▁junak	-11.1524
▁piće	-11.1528
▁mentaln	-11.1528
▁predanost	-11.1531
▁argument	-11.1534
▁zvjezd	-11.1534
▁tragedija	-11.1534
▁trgovini	-11.1534
▁postupci	-11.1534
▁2005.	-11.1534
▁zlatni	-11.1534
▁zabavu	-11.1535
▁pomogli	-11.1537
▁1-1	-11.1545
▁likovn	-11.1551
▁sobu	-11.1554
▁naglo	-11.1558
▁dogovorili	-11.1561
▁71	-11.1563
▁smjel	-11.1565
Tr	-11.1566
▁mokr	-11.1566
ivjela	-11.158
▁tenisk	-11.158
▁Mlad	-11.1581
▁grčk	-11.1587
izbor	-11.1595
▁77	-11.1596
▁akter	-11.1597
▁bračn	-11.1599
▁impresivn	-11.1613
▁prezentira	-11.1613
▁Amerikanci	-11.1613
▁iskorak	-11.1613
▁zaslužuje	-11.1613
▁2007.	-11.1613
▁zgradu	-11.1614
▁romantičn	-11.1614
▁poštuje	-11.1614
▁predstavu	-11.1614
▁djevojčica	-11.1614
▁vezn	-11.1615
▁zona	-11.1618
▁Ivic	-11.1618
▁visine	-11.1619
▁svetog	-11.1621
▁terorističk	-11.1623
▁odlučiva	-11.164
▁ribe	-11.1645
ručio	-11.1649
▁tužn	-11.1668
▁2,5	-11.1671
vraća	-11.1691
▁Jurić	-11.1693
▁Stručnjaci	-11.1693
▁aerodrom	-11.1693
▁horoskop	-11.1693
▁kvalifikacije	-11.1693
▁opremljen	-11.1693
▁pripremljen	-11.1693
▁Baturina	-11.1693
▁glazbi	-11.1693
▁komentator	-11.1693
▁simptomi	-11.1693
▁liječenja	-11.1693
▁prisiljen	-11.1693
94	-11.1693
▁kroničn	-11.1693
▁Adria	-11.1693
▁presude	-11.1694
▁izgradnja	-11.1694
▁prljav	-11.1694
▁planinar	-11.1695
▁naselju	-11.1696
▁tepih	-11.1697
▁6-3	-11.1697
▁utorka	-11.1698
▁adekvatn	-11.1701
▁zime	-11.1703
▁Prijav	-11.1713
▁Pojas	-11.1715
loženo	-11.1721
▁Ranije	-11.174
potpun	-11.1749
▁Moguć	-11.1751
/2024/05/	-11.1774
▁folklor	-11.1774
▁registarsk	-11.1774
▁ugrožava	-11.1774
▁špijun	-11.1774
▁Mihael	-11.1774
▁Emil	-11.1774
▁6-4	-11.1774
▁Roditelji	-11.1774
▁Upravnog	-11.1774
▁izgradnji	-11.1774
▁kritičar	-11.1774
▁prijetnji	-11.1774
▁naglasiti	-11.1774
▁isključi	-11.1776
▁grupn	-11.1776
▁postaja	-11.1777
▁princip	-11.178
▁Razlog	-11.1781
▁povrće	-11.1781
▁vokal	-11.1784
▁Zapadn	-11.1789
▁ponosan	-11.181
▁proval	-11.181
▁istarsk	-11.1828
▁jo	-11.1836
▁rezolucij	-11.1855
▁europska	-11.1855
▁Vjetar	-11.1855
▁klupe	-11.1855
▁eksploziv	-11.1855
▁Livaković	-11.1855
▁pomogne	-11.1855
▁zagrijava	-11.1856
▁Tamara	-11.1856
▁pojave	-11.1857
▁koljena	-11.1858
▁pojava	-11.1858
▁čelnici	-11.1859
▁pratitelja	-11.186
▁odvojen	-11.1861
▁ravnopravn	-11.1865
▁slobodan	-11.1865
▁doznal	-11.1866
▁svašta	-11.1877
▁poboljšava	-11.1887
▁prekršajn	-11.1932
▁iznimn	-11.1932
▁Chelsea	-11.1937
▁diplomatsk	-11.1937
▁osoblje	-11.1937
▁Slavoniji	-11.1937
▁nadbiskup	-11.1937
▁subvencij	-11.1937
▁turizmu	-11.1937
▁Navijači	-11.1937
▁vjenčanja	-11.1937
▁oslanja	-11.1937
▁središte	-11.1937
▁Rudeš	-11.1937
▁pregovore	-11.1938
▁kršćansk	-11.1938
▁slične	-11.1938
▁moraln	-11.1938
▁odradili	-11.1939
▁brzinom	-11.1941
▁Vekić	-11.1944
▁Slovenija	-11.1946
▁centi	-11.1946
▁Loren	-11.1947
▁korner	-11.1948
▁tlo	-11.1951
▁bodove	-11.1956
govaraju	-11.1956
▁temeljem	-11.1959
▁Pjeva	-11.1961
▁Gorsk	-11.1965
▁Shi	-11.1966
▁dečko	-11.1967
▁teror	-11.1969
▁upisan	-11.1998
▁Kolar	-11.2
▁pješačk	-11.2002
rray	-11.2017
discipli	-11.2019
▁aplikacija	-11.202
▁dostupna	-11.202
▁kalendar	-11.202
▁neuspjeh	-11.202
▁nizozemsk	-11.202
▁započinje	-11.202
▁prehrane	-11.202
▁zatražio	-11.202
▁HTV	-11.202
▁nesigurn	-11.202
▁jednostavan	-11.202
▁Leyen	-11.202
▁prijašnj	-11.202
▁Benjamin	-11.202
▁hranom	-11.202
▁povezivanj	-11.2021
▁prisjeća	-11.2023
▁bijele	-11.2025
▁osnivanj	-11.2025
▁Naglasi	-11.2026
▁klin	-11.2026
▁bomba	-11.2026
▁azil	-11.2027
▁ocean	-11.2028
▁tretira	-11.203
▁jedanaest	-11.2031
▁podnio	-11.2032
▁Uoči	-11.2035
▁hladnjak	-11.2037
▁odvod	-11.2044
▁Arena	-11.2052
▁Ostal	-11.2058
▁studentsk	-11.2061
▁gušt	-11.2065
▁skijaš	-11.207
▁kreativnost	-11.2085
▁prvenstven	-11.2093
▁plaćen	-11.21
08	-11.21
▁komunikacije	-11.2103
▁Gabriel	-11.2103
▁Juventus	-11.2103
▁adresu	-11.2103
▁Rafale	-11.2103
▁katoličk	-11.2103
▁vožnju	-11.2103
▁greške	-11.2103
▁krenulo	-11.2103
▁vojsku	-11.2103
▁izvući	-11.2103
▁mornar	-11.2103
▁obratiti	-11.2105
▁zastupa	-11.2105
▁tanjur	-11.2109
▁oglasila	-11.2114
▁predvodio	-11.2114
▁Savjet	-11.2117
▁tablet	-11.2119
▁djelovati	-11.2119
▁ekstrem	-11.2124
▁dovrši	-11.2127
▁gume	-11.2134
▁Šest	-11.2145
▁81	-11.2152
▁letjelica	-11.216
▁novinsk	-11.2163
▁apsolut	-11.2172
ugh	-11.2185
▁Zagrep	-11.2187
▁Barceloni	-11.2187
▁akademsk	-11.2187
▁bespilotn	-11.2187
▁mještani	-11.2187
▁orkestar	-11.2187
▁pljuskovi	-11.2187
▁verbaln	-11.2187
▁kažnjen	-11.2187
▁obližnj	-11.2187
▁smeće	-11.2187
▁zamjenu	-11.2187
▁cestu	-11.2188
▁srijede	-11.2188
▁odjednom	-11.2188
▁zabrane	-11.2189
▁vidjelo	-11.219
▁zadovoljava	-11.2191
▁započeti	-11.2192
▁proizvodnji	-11.2197
▁odlučn	-11.2203
▁Najviš	-11.2204
▁krajnj	-11.2204
▁izvadi	-11.221
kazao	-11.221
▁jesensk	-11.2239
▁ovisnost	-11.224
▁legenda	-11.2249
▁raspola	-11.2256
▁energija	-11.2272
▁nepotrebn	-11.2272
▁publikom	-11.2272
▁oglašava	-11.2272
▁pohađa	-11.2272
▁brutaln	-11.2272
▁odlučuje	-11.2272
▁istražuje	-11.2272
▁broncu	-11.2272
▁potaknul	-11.2272
▁uplati	-11.2273
▁optimist	-11.2273
▁izveden	-11.2273
▁odjeće	-11.2274
▁Posjet	-11.2274
▁Zaklad	-11.2275
▁praksi	-11.2282
▁telefonsk	-11.2286
▁dulji	-11.2287
▁natpis	-11.2287
▁prisje	-11.2291
▁Pir	-11.2307
▁Marjan	-11.2311
anec	-11.2311
▁priprav	-11.2324
▁bek	-11.2325
pouzdan	-11.2328
▁letjel	-11.2335
▁rival	-11.2345
▁singl	-11.2352
▁razočaran	-11.2353
▁izložba	-11.2357
▁manifestacije	-11.2357
▁Koncert	-11.2357
▁migranata	-11.2357
▁oduševila	-11.2357
▁inozemn	-11.2357
▁odražava	-11.2357
▁PSG	-11.2357
▁Imotsk	-11.2357
▁humor	-11.2357
▁obvezu	-11.2357
▁seniorsk	-11.2358
▁izašla	-11.2358
▁gorivo	-11.2359
▁nožem	-11.2359
▁srebro	-11.2359
▁okupira	-11.2361
▁snažan	-11.2362
▁pružil	-11.2363
▁zahvalnost	-11.2368
▁stupanj	-11.2382
▁finaln	-11.2385
▁voće	-11.2395
njić	-11.2401
▁izjednačen	-11.2413
▁salon	-11.2426
anđel	-11.244
▁Fakultet	-11.2443
▁Koprivnici	-11.2443
▁odvjetništvu	-11.2443
▁poginula	-11.2443
▁Amerikanac	-11.2443
▁preventivn	-11.2443
▁prisutni	-11.2443
▁priopćenje	-11.2443
▁crnogorsk	-11.2444
▁rekavši	-11.2444
▁nokaut	-11.2444
▁shvatila	-11.2444
▁shvatili	-11.2444
▁Belupa	-11.2444
▁liberal	-11.2444
▁pažnje	-11.2445
▁počinio	-11.2445
▁džep	-11.2445
▁vlastitim	-11.2447
▁vodstva	-11.2447
▁uzrokovan	-11.2448
▁krajeva	-11.2454
▁potpisuje	-11.2454
▁redovima	-11.2458
▁zrel	-11.2459
▁troše	-11.2461
▁groz	-11.2473
▁panel	-11.2474
▁Cap	-11.2478
▁bolničk	-11.2486
▁raspad	-11.2494
▁klap	-11.2496
pitali	-11.2497
▁Počel	-11.2511
▁original	-11.2512
ivjeti	-11.2519
▁Putinov	-11.2525
▁Mediteran	-11.253
▁Srećom	-11.253
▁cjelovit	-11.253
▁kibernetičk	-11.253
▁najskuplj	-11.253
▁poprilično	-11.253
▁BMW	-11.253
▁koncerata	-11.253
▁Komentira	-11.253
▁gubitka	-11.2531
▁pisalo	-11.2531
▁komisija	-11.2531
▁tribine	-11.2531
▁privlačn	-11.2532
vrijedi	-11.2532
▁farmer	-11.2533
▁nazvan	-11.2534
▁Branka	-11.2537
▁dostavlja	-11.2537
▁uvesti	-11.2537
▁Pitanj	-11.2537
▁umirovljenici	-11.2544
▁filmski	-11.2549
▁Dejan	-11.2558
▁istup	-11.2561
▁Sličn	-11.2569
▁individualn	-11.2586
▁Kursk	-11.2594
▁osječk	-11.2596
▁obavijest	-11.26
▁Rome	-11.26
▁Ukrajinci	-11.2618
▁Vjerojatno	-11.2618
▁laboratorij	-11.2618
▁prehranu	-11.2618
▁prognozira	-11.2618
▁protuzračn	-11.2618
▁rejting	-11.2618
▁oduševio	-11.2618
▁polufinala	-11.2618
▁naknada	-11.2618
▁svjetska	-11.2618
▁proljeće	-11.2618
▁Habijan	-11.2618
▁sredstvo	-11.2618
▁Istraživanj	-11.2618
▁haljini	-11.2618
▁teških	-11.2618
▁spozna	-11.2618
▁prepreka	-11.2619
▁organizaciju	-11.2619
▁navijačk	-11.2621
▁cijep	-11.2624
▁malen	-11.2634
▁priredi	-11.2637
▁Vladu	-11.2638
▁plesn	-11.2656
▁Adam	-11.2659
▁vuk	-11.2661
▁dijelovi	-11.2668
▁umak	-11.267
▁kolik	-11.2695
▁gornj	-11.2698
▁sposobn	-11.2699
▁djelomično	-11.2707
▁glumca	-11.2707
▁ignorira	-11.2707
▁kazališta	-11.2707
▁kontroverzn	-11.2707
▁najmlađi	-11.2707
▁neprihvatljiv	-11.2707
▁performans	-11.2707
▁perspektive	-11.2707
▁prilagođen	-11.2707
▁psihičk	-11.2707
▁temperaturu	-11.2707
▁tjednu	-11.2707
▁ždrijeb	-11.2707
▁hormon	-11.2707
▁solidarnost	-11.2707
OCM	-11.2707
▁Kongres	-11.2707
▁Vijeće	-11.2707
▁finalist	-11.2707
▁Nives	-11.2707
eksplodira	-11.2707
▁pritiskom	-11.2707
▁Cijene	-11.2708
▁pritiska	-11.2708
▁vrhunac	-11.271
▁ugasi	-11.2717
▁zajednicu	-11.2719
▁podnosi	-11.272
▁Tonči	-11.272
▁unuk	-11.2721
▁Igrač	-11.2723
▁progon	-11.274
▁napušta	-11.2743
pravlja	-11.2744
bijeli	-11.2771
▁Princ	-11.2791
▁izuzet	-11.2792
▁Zahval	-11.2795
▁Navodno	-11.2796
▁posljednjoj	-11.2796
▁izazvalo	-11.2796
▁naknadu	-11.2796
▁prevladava	-11.2796
▁šesnaest	-11.2796
▁Hrgović	-11.2796
▁Atlant	-11.2796
▁dvojice	-11.2796
▁3-0	-11.2796
▁polufinaln	-11.2796
▁princeza	-11.2796
▁kladionic	-11.2797
▁proglasil	-11.2797
▁Boys	-11.2799
▁raketa	-11.2799
▁izlaska	-11.2799
▁natrag	-11.28
▁litara	-11.28
▁Jučer	-11.28
▁Kovač	-11.2801
▁praksa	-11.2801
▁dvadesetak	-11.2804
▁Benčić	-11.2806
▁razlozi	-11.2808
▁najniž	-11.2808
▁ciljevi	-11.2812
▁hvali	-11.2815
▁Pokr	-11.2832
▁ubrzan	-11.2833
▁zvon	-11.2835
▁krvav	-11.284
IJA	-11.2846
▁Krk	-11.2847
▁kategori	-11.2848
▁biološk	-11.2848
tražiti	-11.2851
▁Prilik	-11.2861
zmeđu	-11.2868
▁oporben	-11.2878
▁Middleton	-11.2886
▁Volodimir	-11.2886
▁energijom	-11.2886
▁epizodi	-11.2886
▁funkcionaln	-11.2886
▁intenzitet	-11.2886
▁mišljenju	-11.2886
▁pojašnjava	-11.2886
▁sladoled	-11.2886
▁operaciju	-11.2886
▁CNN	-11.2886
▁Jednostavno	-11.2886
▁najstariji	-11.2886
▁jučerašnj	-11.2886
▁Crkve	-11.2886
▁zaostatk	-11.2886
▁2004.	-11.2886
▁Rusijom	-11.2887
▁minutu	-11.2887
▁dušu	-11.2887
▁srednjo	-11.2887
▁snimio	-11.2888
▁ventil	-11.2889
▁Štoviše	-11.2889
▁cure	-11.2889
▁Talijansk	-11.289
▁učinili	-11.2891
▁Detalj	-11.2891
▁dvorana	-11.2894
▁3-1	-11.2895
▁zaštitar	-11.2898
▁žalost	-11.2907
▁podcast	-11.291
▁tečaj	-11.2919
▁fantasti	-11.2919
INA	-11.2938
▁specijalist	-11.2953
▁biljn	-11.2957
ložila	-11.2964
▁grmljavinom	-11.2977
▁inicijative	-11.2977
▁kontejner	-11.2977
▁kontrolom	-11.2977
▁kuhinji	-11.2977
▁najvjerojatnije	-11.2977
▁osobom	-11.2977
▁pozicionira	-11.2977
▁analize	-11.2977
▁arhiv	-11.2977
▁raspravu	-11.2977
▁podršci	-11.2977
▁količinu	-11.2977
▁konobar	-11.2977
▁nominiran	-11.2977
▁ekstra	-11.2977
▁izvedba	-11.2977
▁mlijeko	-11.2977
▁ukazuju	-11.2977
▁sjednica	-11.2978
▁rasvjet	-11.2978
▁ponoći	-11.2979
▁raketn	-11.2979
way	-11.2982
▁Zvon	-11.2986
▁žanr	-11.2988
▁izveo	-11.2999
klonjen	-11.3001
▁Olimpij	-11.3003
▁Omiš	-11.3004
▁zaljubi	-11.3015
▁popodne	-11.3044
ptič	-11.3046
▁prešl	-11.3062
▁intervencija	-11.3069
▁komunikacijsk	-11.3069
▁poluvrijeme	-11.3069
▁proslavil	-11.3069
▁nikakav	-11.3069
▁obećao	-11.3069
▁najbitnij	-11.3069
▁prodajn	-11.3069
▁Potrebn	-11.3069
▁brige	-11.307
▁učestal	-11.307
▁zamjenic	-11.307
▁tešku	-11.3071
▁potvrditi	-11.3071
▁solarn	-11.3072
▁rezerviran	-11.3072
▁razočara	-11.3073
▁kokain	-11.3077
▁Marof	-11.3077
▁povrća	-11.3077
▁ručak	-11.3078
▁Mađar	-11.3103
uspješn	-11.3132
bilježio	-11.3135
▁slomi	-11.3141
▁Carl	-11.3146
▁Istanbul	-11.3161
▁Mercedes	-11.3161
▁Znanstven	-11.3161
▁funkcije	-11.3161
▁pogreške	-11.3161
▁dozvoli	-11.3161
▁analiza	-11.3161
▁procijenjen	-11.3161
▁svojedobno	-11.3161
▁izjednačio	-11.3161
▁Milorad	-11.3161
▁specijaliziran	-11.3161
▁Uskoro	-11.3161
▁takozvan	-11.3161
▁riskira	-11.3162
▁hvata	-11.3162
▁prisjetio	-11.3162
▁oduzima	-11.3162
▁doveden	-11.3162
▁dvorištu	-11.3162
▁sistem	-11.3163
▁pisati	-11.3163
▁promila	-11.3164
▁Razgovara	-11.3164
▁sličan	-11.3166
▁Hotel	-11.3172
▁siln	-11.3178
▁Srednj	-11.3181
▁luksuz	-11.3182
▁vječn	-11.3201
stranačk	-11.3231
>	-11.3255
▁1998.	-11.3255
▁Richard	-11.3255
▁Temperatur	-11.3255
▁naročito	-11.3255
▁obaviješten	-11.3255
▁simptome	-11.3255
▁zabilježil	-11.3255
▁softver	-11.3255
▁Partizan	-11.3255
▁švicarsk	-11.3255
▁pogađa	-11.3255
▁Pjevačica	-11.3255
▁porasla	-11.3255
▁nasljednik	-11.3256
▁Istina	-11.3257
▁Svetog	-11.3257
▁odustati	-11.3257
▁Čovjek	-11.3258
▁Denis	-11.3258
▁Izbornik	-11.326
▁obnova	-11.3261
▁Dunav	-11.3262
▁brigu	-11.3263
▁odlaze	-11.3266
▁znanstvenici	-11.3271
▁odmak	-11.3277
▁Bogdan	-11.3277
▁oblačno	-11.3279
well	-11.3281
▁mirovn	-11.3288
▁stalo	-11.3295
▁ugledn	-11.3306
▁uspije	-11.3326
▁ukinut	-11.333
▁intern	-11.3338
sprkos	-11.3349
▁Središnj	-11.3349
▁Wimbledon	-11.3349
▁oporavka	-11.3349
▁poteškoća	-11.3349
▁potpredsjednic	-11.3349
▁sankcionira	-11.3349
▁Bjelorus	-11.3349
▁Velebit	-11.3349
▁šokantn	-11.3349
▁veličine	-11.3349
▁Popović	-11.3349
▁transakcij	-11.3349
▁sasluša	-11.3349
▁regiju	-11.3349
▁povlači	-11.335
▁zabranu	-11.335
▁formaln	-11.335
▁predavanja	-11.3352
▁sudeći	-11.3352
▁obilazn	-11.3353
▁bizarn	-11.3361
▁kopnen	-11.3363
Superstar	-11.3364
▁nježn	-11.3367
▁sjeme	-11.3377
▁Fond	-11.3384
▁povremen	-11.3418
▁djetinjstva	-11.3444
▁kontinuitet	-11.3444
▁kvalifikacijsk	-11.3444
▁nezadovoljstvo	-11.3444
▁haljinu	-11.3444
▁siromašn	-11.3444
▁namještaj	-11.3444
▁doživljava	-11.3444
▁vožnji	-11.3444
▁djetetu	-11.3444
▁DIP	-11.3444
▁najviša	-11.3444
▁odabrati	-11.3444
▁tijesto	-11.3444
▁Barbara	-11.3444
▁SOA	-11.3444
▁prakse	-11.3444
▁Bugarsk	-11.3445
▁nezgod	-11.3445
▁vjeroval	-11.3445
▁ritam	-11.3445
▁you	-11.3445
▁Island	-11.3448
▁Carlos	-11.3448
▁ultra	-11.3451
▁izvršen	-11.3452
▁Kakav	-11.3453
▁Novinar	-11.3456
▁osmi	-11.3464
▁Pic	-11.3469
▁okrivljenik	-11.3469
inkovit	-11.3473
azijsk	-11.3496
▁odlični	-11.3504
▁rasprodan	-11.3514
ljepša	-11.3525
▁rekordn	-11.353
▁asistencije	-11.354
▁emisiju	-11.354
▁financijsku	-11.354
▁inflacija	-11.354
▁pogotkom	-11.354
▁neslužbeno	-11.354
▁obnovljiv	-11.354
▁preuzela	-11.354
▁verzija	-11.354
▁sjednicu	-11.354
▁polovici	-11.3541
▁brončan	-11.3541
▁pobjegao	-11.3541
▁pluća	-11.3541
▁inovacija	-11.3541
▁desert	-11.3541
▁proslave	-11.3541
▁Zrink	-11.3542
▁snimci	-11.3544
▁zajedničke	-11.3546
▁Nijemci	-11.355
▁gomil	-11.3558
▁dnevnik	-11.3561
▁istinit	-11.36
▁kriminalističk	-11.361
▁HGSS	-11.3637
▁funkciji	-11.3637
▁kancelar	-11.3637
▁sudjelovalo	-11.3637
▁Britaniji	-11.3637
▁Sljedeć	-11.3637
▁koalicija	-11.3637
▁kažnjava	-11.3637
▁usvaja	-11.3638
▁dohodak	-11.3638
▁disciplini	-11.3638
▁nedjeljn	-11.3638
▁Bernard	-11.3638
▁odabrao	-11.3638
▁kandidaturu	-11.3638
▁zabrana	-11.3641
▁demograf	-11.3643
▁hvale	-11.3643
▁povišen	-11.3648
▁pojma	-11.3652
▁raskr	-11.3661
▁Poslovn	-11.3662
▁Riv	-11.3697
Kako	-11.3715
▁zaštita	-11.3724
Jadrolinij	-11.3735
▁registra	-11.3735
▁Anthony	-11.3735
▁Sveučilištu	-11.3735
▁elegantn	-11.3735
▁intelektual	-11.3735
▁prognoza	-11.3735
▁stanovništvo	-11.3735
▁Ponekad	-11.3735
▁vijećnik	-11.3736
▁OPG	-11.3736
▁utvrđivanj	-11.3736
▁Lopez	-11.3736
▁Primorca	-11.3736
▁funti	-11.3736
▁podijelili	-11.3736
▁petnaest	-11.3736
▁ormar	-11.3737
▁parkirn	-11.3737
▁Trogir	-11.3738
▁Ključ	-11.374
▁izabral	-11.3742
▁uzrokuje	-11.3745
vatreni	-11.3754
kakve	-11.3802
€	-11.3805
▁Audi	-11.3818
▁sloboda	-11.3822
▁republika	-11.3823
▁Dodatn	-11.3829
▁dijagnosti	-11.3834
▁1995.	-11.3834
▁Ancelotti	-11.3834
▁educira	-11.3834
▁hektara	-11.3834
▁imunitet	-11.3834
▁kvaliteti	-11.3834
▁autoceste	-11.3834
▁Akademi	-11.3835
▁Moskvi	-11.3835
▁eufori	-11.3835
▁Cristian	-11.3835
▁doživjeti	-11.3835
▁Božinović	-11.3835
▁haljina	-11.3835
▁Uslijed	-11.3835
▁srećom	-11.3835
▁odabrala	-11.3835
▁izabrati	-11.3835
▁prebačen	-11.3835
▁uslugu	-11.3835
▁oporba	-11.3835
▁obnaša	-11.3835
▁otocima	-11.3835
▁Britansk	-11.3835
▁apelira	-11.3836
▁najteže	-11.3836
▁Bosilj	-11.3837
▁ruraln	-11.3838
▁citira	-11.385
▁grub	-11.3867
▁Splitsk	-11.3896
▁dronovi	-11.3905
građani	-11.3906
▁dopušta	-11.3912
▁nacional	-11.3931
AfterDisplay	-11.3934
▁ekskluzivn	-11.3934
▁International	-11.3934
▁Nogometn	-11.3934
▁Pantovčak	-11.3934
▁Profimedia	-11.3934
▁Swift	-11.3934
▁agresije	-11.3934
▁financijska	-11.3934
▁marketing	-11.3934
▁popularna	-11.3934
▁poslodavac	-11.3934
▁završetku	-11.3934
▁Zastupni	-11.3934
▁Fokus	-11.3935
▁Stričak	-11.3935
▁nedaleko	-11.3935
▁glumci	-11.3935
▁poduzima	-11.3935
▁kemijsk	-11.3935
▁vraćen	-11.3935
▁surađuje	-11.3935
▁zadobio	-11.3935
▁popraviti	-11.3935
▁dronova	-11.3936
▁Pjaca	-11.3938
▁aparat	-11.3939
▁petero	-11.394
▁dovela	-11.3943
▁podići	-11.3943
▁1:1	-11.3946
▁zapalil	-11.3959
▁posjeduje	-11.3972
▁Došl	-11.3981
▁formiranj	-11.3994
▁djelatnost	-11.4035
▁druženja	-11.4035
▁evakuira	-11.4035
▁kulturi	-11.4035
▁potrošača	-11.4035
▁Sarajevo	-11.4036
▁hranjiv	-11.4036
▁simptoma	-11.4036
▁istodobno	-11.4036
▁trgovinu	-11.4036
▁Scholz	-11.4036
▁Fotografij	-11.4036
▁držao	-11.4037
▁slavlja	-11.4037
▁dovršen	-11.4038
▁pokaže	-11.4038
▁trajao	-11.4039
▁povjerenstvo	-11.404
▁skida	-11.4043
▁prekomjern	-11.4044
▁željezn	-11.4065
▁reprezentativn	-11.4067
▁ukusn	-11.4079
Elektr	-11.4085
▁ostvarivanj	-11.4094
▁vjernik	-11.4132
▁čovječ	-11.4138
▁Hezbollah	-11.4138
▁Thompson	-11.4138
▁Tottenham	-11.4138
▁bespovratn	-11.4138
▁dijabetes	-11.4138
▁državljana	-11.4138
▁inicijativa	-11.4138
▁očekivao	-11.4138
▁veterinar	-11.4138
▁Alexander	-11.4138
▁obnovljen	-11.4138
▁Magazin	-11.4138
▁pravosudn	-11.4138
▁vježbe	-11.4138
▁prehrani	-11.4138
▁krajevima	-11.4138
▁baterija	-11.4138
▁prisjetila	-11.4138
▁omogućuju	-11.4139
▁prirodu	-11.4139
▁Sky	-11.4139
▁primljen	-11.4139
▁Blue	-11.4141
▁prodati	-11.4142
▁matičn	-11.4144
▁Uskok	-11.4163
▁Šok	-11.4181
▁Bayer	-11.4211
▁Hajdaš	-11.4241
▁Tvrtka	-11.4241
▁ambijent	-11.4241
▁ljudske	-11.4241
▁veleposlanik	-11.4241
▁kirurg	-11.4241
▁ankete	-11.4241
▁trojica	-11.4241
▁obuhvat	-11.4241
▁civila	-11.4241
▁Slijedi	-11.4241
▁počinju	-11.4242
▁političkoj	-11.4242
▁adresi	-11.4242
▁jazz	-11.4245
▁podnesen	-11.4245
▁Kevin	-11.4249
▁sezonsk	-11.4251
▁Helen	-11.4253
▁zabavni	-11.4255
▁namjera	-11.4259
▁sutkinj	-11.4264
▁Nastavi	-11.4268
▁nestalo	-11.4271
▁Miami	-11.4314
▁katastrofa	-11.4327
▁sprječavanj	-11.4333
▁Vijest	-11.4338
▁kršćan	-11.4345
í	-11.4345
▁drugdje	-11.4345
▁dubrovački	-11.4345
▁guverner	-11.4345
▁inteligencija	-11.4345
▁kompromis	-11.4345
▁očekivali	-11.4345
▁upotrijebi	-11.4345
▁Španjolac	-11.4345
▁dominantn	-11.4345
▁efikasn	-11.4345
▁ocjenu	-11.4345
▁Kramarić	-11.4345
▁proslavljen	-11.4345
▁Uglavnom	-11.4345
▁podigao	-11.4345
▁prtlja	-11.4345
▁baterije	-11.4345
▁prirodne	-11.4345
▁ispitivanja	-11.4345
▁Ryan	-11.4345
▁prošlu	-11.4345
▁prenose	-11.4346
▁dvoranu	-11.4347
▁počele	-11.4347
▁nazvati	-11.4348
▁razumjeti	-11.4348
▁2003.	-11.4348
▁pojasnil	-11.436
▁Lučk	-11.4398
▁Serij	-11.4421
▁bolesnik	-11.4433
▁pokretanj	-11.4445
▁iskorištava	-11.445
▁izložbi	-11.445
▁ljepote	-11.445
▁tehnologiju	-11.445
▁analizu	-11.445
▁koncentrira	-11.445
▁tjestenin	-11.445
▁označava	-11.445
▁vijećnici	-11.445
▁Meghan	-11.445
▁Karoglan	-11.445
▁Peking	-11.445
▁dovoljan	-11.445
▁2027.	-11.445
▁skladatelj	-11.4451
ected	-11.4451
▁trošak	-11.4452
▁Lošinj	-11.4452
▁novcem	-11.4452
upanijsk	-11.4452
▁okolici	-11.4453
▁obojic	-11.4457
▁povuče	-11.4464
▁specifi	-11.4473
▁novinarsk	-11.4484
▁očaj	-11.4495
▁skija	-11.4501
▁metaln	-11.4516
životn	-11.4537
▁Kinesk	-11.4544
cjenjuje	-11.4549
▁obratil	-11.455
▁koprivničk	-11.4556
▁1992.	-11.4556
▁Nevjerojatn	-11.4556
▁funkcija	-11.4556
▁kolesterol	-11.4556
▁komunikaciju	-11.4556
▁pamćenje	-11.4556
▁popularne	-11.4556
▁uskrsn	-11.4556
▁stoljeću	-11.4556
▁Belgija	-11.4556
▁instalacij	-11.4557
▁Pozivam	-11.4557
▁Svatko	-11.4557
▁Lončar	-11.4557
▁likvid	-11.4557
▁prodaja	-11.4558
▁šumsk	-11.4558
▁lopti	-11.4559
▁Šef	-11.4562
tolerancij	-11.4562
▁akcijsk	-11.4562
▁osumnjičenik	-11.4585
▁staž	-11.4645
▁Fenerbah	-11.4664
▁Nezavisn	-11.4664
▁belgijsk	-11.4664
▁brazilsk	-11.4664
▁demantira	-11.4664
▁konferenciju	-11.4664
▁katedral	-11.4664
▁dijagnosticiran	-11.4664
▁Moskva	-11.4664
▁klupu	-11.4664
▁tradicija	-11.4664
▁čimbenik	-11.4664
▁obrazovanju	-11.4664
▁Osvrnu	-11.4664
▁Pjesm	-11.4664
▁gospodarenj	-11.4664
▁zadovoljiti	-11.4664
▁kišom	-11.4665
▁uputili	-11.4665
▁Cijena	-11.4665
▁lanjsk	-11.4666
▁dodjeli	-11.4669
▁Dabro	-11.4673
▁stečaj	-11.4673
▁pristupačn	-11.4682
Nedjelj	-11.4683
▁bosansk	-11.4695
▁neprijateljsk	-11.4709
▁odnijel	-11.4711
▁terorist	-11.4728
▁kilogram	-11.4752
▁prijelazn	-11.4767
▁nužn	-11.4769
▁World	-11.4773
▁ansambl	-11.4773
▁atmosferi	-11.4773
▁interpreta	-11.4773
▁ocjenjiva	-11.4773
▁pogriješi	-11.4773
▁regulator	-11.4773
▁Komisije	-11.4773
▁asistent	-11.4773
▁europsku	-11.4773
▁zastupnica	-11.4773
▁iznenađujuć	-11.4773
▁Iskreno	-11.4773
▁vjenčanje	-11.4773
▁Alcaraz	-11.4773
▁svjetlu	-11.4773
▁aktivan	-11.4773
▁prodaji	-11.4773
▁proučava	-11.4773
▁gledatelje	-11.4773
▁Walesa	-11.4773
▁biljke	-11.4773
▁subotnj	-11.4773
▁mjesn	-11.4773
▁prijetnju	-11.4774
▁glatk	-11.4778
▁prevari	-11.4779
▁zauzet	-11.478
▁deseci	-11.4792
▁Snimk	-11.4834
▁Kranj	-11.485
▁biciklist	-11.4864
▁Ovakv	-11.4876
▁ambiciozn	-11.4883
▁konstantno	-11.4883
▁povjesničar	-11.4883
▁prihvaćen	-11.4883
▁pjesnik	-11.4883
▁dobrodošli	-11.4883
▁statistiku	-11.4883
▁Smith	-11.4883
▁koaliciju	-11.4883
▁Centru	-11.4883
▁samopouzdanje	-11.4883
▁snažnu	-11.4883
▁suzbijanj	-11.4883
▁ubojica	-11.4883
▁napominju	-11.4883
▁Uprava	-11.4883
▁Upitan	-11.4883
▁IDS	-11.4883
▁Grmoja	-11.4883
▁Louis	-11.4883
▁Sjajn	-11.4883
▁grupu	-11.4883
▁strukovn	-11.4886
opasn	-11.4888
▁čeln	-11.489
▁uvjerava	-11.4893
▁oluja	-11.4908
▁kvalificira	-11.4913
Split	-11.4964
▁objavil	-11.4969
ologinja	-11.499
ó	-11.4994
▁Engleske	-11.4994
▁destinacije	-11.4994
▁konferencija	-11.4994
▁najbogatij	-11.4994
▁orkestra	-11.4994
▁utemeljen	-11.4994
▁neutraln	-11.4994
▁karcinom	-11.4994
▁portret	-11.4994
▁pratnji	-11.4994
▁jedanaesterac	-11.4994
▁izrečen	-11.4994
▁pothvat	-11.4994
▁presudn	-11.4994
▁umrla	-11.4994
▁proljetn	-11.4995
▁nestanka	-11.4995
▁izvesti	-11.4995
▁izoliran	-11.4995
▁grudi	-11.4995
▁nagađa	-11.4996
▁kišu	-11.4996
▁balkon	-11.4997
▁Gospodin	-11.4997
▁indijsk	-11.5002
▁Baranj	-11.5008
▁licenc	-11.5029
HDZ	-11.5076
meteorološk	-11.5079
▁integrira	-11.5106
▁Moskve	-11.5106
▁gimnasti	-11.5106
▁jugoistočn	-11.5106
▁reality	-11.5106
▁autocesta	-11.5106
▁bombardira	-11.5106
▁unatrag	-11.5106
▁kulinarsk	-11.5106
▁Dallas	-11.5106
▁Leonard	-11.5106
▁7-6	-11.5106
▁oborine	-11.5106
▁1990.	-11.5106
▁nastojanj	-11.5106
▁doduše	-11.5106
▁stotinu	-11.5107
▁rundi	-11.5107
▁drame	-11.5107
▁Idemo	-11.5107
▁komore	-11.5108
▁Štef	-11.5108
▁najteži	-11.511
▁usporava	-11.511
▁zadobil	-11.5123
▁informati	-11.5169
▁tuđ	-11.5178
▁predložen	-11.5181
Mislim	-11.519
▁načeln	-11.5208
▁župn	-11.5212
▁1,3	-11.5216
▁Glasnogovorni	-11.522
▁Legendarn	-11.522
▁Mbappe	-11.522
▁bakterija	-11.522
▁infekcije	-11.522
▁intervencije	-11.522
▁intervenira	-11.522
▁kazalištu	-11.522
▁kozmeti	-11.522
▁najavljuju	-11.522
▁reciklira	-11.522
▁vaterpolist	-11.522
▁Kandidat	-11.522
▁sudjelovanja	-11.522
▁drastičn	-11.522
▁lokaciju	-11.522
▁izvedbi	-11.522
▁Jordan	-11.522
▁Branimir	-11.522
▁Očito	-11.522
▁tkiv	-11.522
▁kratkoročn	-11.522
▁Kapetan	-11.522
▁ukraden	-11.522
▁šume	-11.522
▁Jadrolinije	-11.522
▁Zagrepčani	-11.522
▁Tokiju	-11.5221
▁3:0	-11.5221
▁Brekalo	-11.5221
▁smanjuju	-11.5222
▁vlastitih	-11.5222
▁oborina	-11.5222
▁ranjiv	-11.5222
▁zakazan	-11.5222
▁dućan	-11.5223
▁objektivn	-11.5225
▁mrežn	-11.5227
▁prvotno	-11.5231
▁slijep	-11.5234
▁Narodn	-11.5238
▁župnik	-11.5241
▁državljani	-11.5264
▁Palm	-11.5275
▁3,5	-11.5294
Hrvatska	-11.5305
graničn	-11.5308
▁optere	-11.5333
▁Vojn	-11.5333
▁alternativn	-11.5335
▁dokumenata	-11.5335
▁eksplozije	-11.5335
▁nevremena	-11.5335
▁osoblja	-11.5335
▁prijepodne	-11.5335
▁sveučilišn	-11.5335
▁zlouporab	-11.5335
▁medicinu	-11.5335
▁pročelnik	-11.5335
▁glume	-11.5335
▁neprestano	-11.5335
▁libanonsk	-11.5335
▁pokrovitelj	-11.5335
▁preminulo	-11.5335
▁svrhe	-11.5335
▁liječenju	-11.5335
▁posljednju	-11.5335
▁stjecanj	-11.5335
▁Apple	-11.5335
▁Upozna	-11.5335
▁isplaćen	-11.5335
▁juniorsk	-11.5335
▁pripremn	-11.5335
▁Židov	-11.5335
▁roditeljsk	-11.5335
▁Večernje	-11.5335
▁imovinu	-11.5335
▁pomoglo	-11.5335
▁Preminu	-11.5335
▁kretati	-11.5335
▁Kristijan	-11.5335
▁preferira	-11.5335
▁naučio	-11.5335
▁satelit	-11.5336
▁bombe	-11.5336
▁posvetiti	-11.5336
▁Grupa	-11.5337
▁skladište	-11.5337
▁vještak	-11.5338
▁prevare	-11.5343
▁svemirsk	-11.5343
▁poštuju	-11.5347
▁uveden	-11.5347
▁fenomenaln	-11.5394
▁medij	-11.541
Iznena	-11.5411
▁urednic	-11.543
▁1996.	-11.5451
▁Vatrogasci	-11.5451
▁Zlatka	-11.5451
▁grmljavinsk	-11.5451
▁konvencij	-11.5451
▁osmišljen	-11.5451
▁rumunjsk	-11.5451
▁smrtonosn	-11.5451
▁ljepoti	-11.5451
▁otežava	-11.5451
▁opskrbe	-11.5451
▁kalorija	-11.5451
▁preselio	-11.5451
▁Sanader	-11.5451
▁šansa	-11.5451
▁odgođen	-11.5451
▁Christian	-11.5451
▁dokumentaciju	-11.5451
▁najjači	-11.5451
▁povezati	-11.5451
▁zamjena	-11.5452
▁slovačk	-11.5452
▁naglasak	-11.5452
▁brašno	-11.5452
▁mineral	-11.5452
▁pokazale	-11.5452
▁Ferrari	-11.5452
▁srednju	-11.5452
▁uvjeriti	-11.5453
▁predvođen	-11.5454
▁ulagač	-11.5457
▁smiren	-11.5467
▁sedmi	-11.5484
▁filozofij	-11.5503
Space	-11.5509
▁probavn	-11.5512
▁1,2	-11.5521
▁negira	-11.554
▁blaž	-11.5541
▁COVID	-11.5569
▁Stuttgart	-11.5569
▁Uostalom	-11.5569
▁Volkswagen	-11.5569
▁besplatan	-11.5569
▁doprinijeti	-11.5569
▁edukativn	-11.5569
▁geopolitičk	-11.5569
▁iscrpljen	-11.5569
▁kvalitetne	-11.5569
▁najmlađe	-11.5569
▁neprimjeren	-11.5569
▁pjesmi	-11.5569
▁portugalsk	-11.5569
▁potrošači	-11.5569
▁proizlazi	-11.5569
▁upotrebu	-11.5569
▁uspomene	-11.5569
▁virtualn	-11.5569
▁vremenima	-11.5569
▁optužbi	-11.5569
▁Englez	-11.5569
▁Kulenović	-11.5569
▁narušava	-11.5569
▁pristojn	-11.5569
▁želji	-11.5569
▁ograničava	-11.5569
▁tribini	-11.557
▁Promjen	-11.557
▁zaposli	-11.5571
▁preskoči	-11.5571
▁uragan	-11.5572
▁predsjeda	-11.5572
▁tlu	-11.5573
pretplat	-11.5576
▁Nastup	-11.5578
▁ugriz	-11.5584
očetkom	-11.5586
▁kliničk	-11.5614
▁nečij	-11.565
▁natjecateljsk	-11.5667
Image	-11.5681
▁proširil	-11.5683
▁osloba	-11.5687
▁izložbu	-11.5688
▁maksimum	-11.5688
▁procjene	-11.5688
▁1993.	-11.5688
▁Izložb	-11.5688
▁legende	-11.5688
▁Ubrzo	-11.5688
▁skupštine	-11.5688
▁vlasnica	-11.5688
▁kuhinje	-11.5688
▁stabala	-11.5688
▁protokol	-11.5688
▁sankcije	-11.5688
▁Bošnjak	-11.5688
▁srušen	-11.5688
▁titule	-11.5688
▁Velimir	-11.5688
▁optužio	-11.5688
▁Dječje	-11.5688
▁prekinuo	-11.5688
▁2030.	-11.5688
▁jednokratn	-11.5689
▁Izgleda	-11.5689
▁anonimn	-11.5689
▁summit	-11.5689
▁slogan	-11.5691
▁općinsk	-11.5692
▁parcel	-11.5707
pandemij	-11.5723
▁obavljanj	-11.5746
▁bojn	-11.5758
▁sirijsk	-11.5759
▁Društven	-11.5808
▁Ivanišević	-11.5808
▁distribucij	-11.5808
▁mediteransk	-11.5808
▁milijardu	-11.5808
▁potrošačk	-11.5808
▁upotrebe	-11.5808
▁vlasništvo	-11.5808
▁Bartulica	-11.5808
▁PAOK	-11.5808
▁alergij	-11.5808
▁beogradsk	-11.5808
▁gospodarske	-11.5808
▁haljine	-11.5808
▁uklanjanje	-11.5808
▁dvojicu	-11.5808
▁magazin	-11.5808
▁čarobn	-11.5808
▁paraleln	-11.5808
▁zahvaljujem	-11.5808
▁Govore	-11.5808
▁polovicu	-11.5808
▁domoljub	-11.5808
rađivao	-11.5808
▁pratitelje	-11.5808
▁potvrđuju	-11.5809
▁isplate	-11.581
▁postojanja	-11.581
▁snimili	-11.581
▁Šibensko	-11.581
▁istoimen	-11.5811
▁poglavlj	-11.5812
▁šarm	-11.5814
▁prenijel	-11.5854
▁potpisivanj	-11.5864
▁1,4	-11.5872
kasnije	-11.5903
▁prijevod	-11.5921
▁ambicije	-11.593
▁epizodu	-11.593
▁konstrukt	-11.593
▁mješavin	-11.593
▁osobnu	-11.593
▁proizveden	-11.593
▁televizije	-11.593
▁Twitter	-11.593
▁postupke	-11.593
▁tijelima	-11.593
▁Nadzorn	-11.593
▁površinu	-11.593
▁smisao	-11.593
▁Svjedo	-11.593
▁briljira	-11.593
▁subjekt	-11.593
▁koktel	-11.593
▁harmoni	-11.593
▁oslobađanj	-11.593
▁stigne	-11.593
▁2002.	-11.5931
▁Konzum	-11.5931
▁Predrag	-11.5931
▁oznake	-11.5931
▁zasluženo	-11.5931
▁Vrijedn	-11.5931
▁Francis	-11.5931
▁human	-11.5932
▁namjeru	-11.5932
▁duhovit	-11.5932
▁Kolind	-11.5936
ozbilj	-11.5938
▁Višnj	-11.5939
▁parišk	-11.5948
poštivanj	-11.595
▁pisac	-11.5956
▁autorsk	-11.5969
slavonsk	-11.5993
▁nacrt	-11.6017
▁Ljubljani	-11.6053
▁Mlinarić	-11.6053
▁Posavec	-11.6053
▁Vrhovnog	-11.6053
▁eliminira	-11.6053
▁koncentracija	-11.6053
▁ozljedu	-11.6053
▁platformu	-11.6053
▁poslodavci	-11.6053
▁procjenu	-11.6053
▁kombinacije	-11.6053
▁obnavlja	-11.6053
▁vukovarsk	-11.6053
▁Zaprešić	-11.6054
▁Bivša	-11.6054
▁raskošn	-11.6054
▁otputova	-11.6054
▁okrenuo	-11.6054
▁jednostavna	-11.6054
▁Knoll	-11.6054
▁proljeća	-11.6054
▁pokreće	-11.6054
▁režiji	-11.6054
▁prostorijama	-11.6054
▁General	-11.6054
▁smjene	-11.6054
▁Zemlje	-11.6054
▁Podravsk	-11.6054
▁Mirjana	-11.6054
▁inovacije	-11.6054
▁gostovanje	-11.6054
▁odlične	-11.6055
▁odbijen	-11.6055
▁upravitelj	-11.6055
▁radikaln	-11.6056
▁Prometn	-11.6059
▁Izvršn	-11.606
▁zabavno	-11.6063
▁zgodn	-11.6065
▁republikansk	-11.6068
▁specijal	-11.6075
▁smiješn	-11.6075
▁popodnevn	-11.6086
▁limit	-11.6094
▁plinsk	-11.6104
▁voljen	-11.6113
▁Lasagne	-11.6178
▁Meštrović	-11.6178
▁ekonomske	-11.6178
▁gradonačelnic	-11.6178
▁oporavlja	-11.6178
▁podrijetla	-11.6178
▁Argentina	-11.6178
▁kriptovaluta	-11.6178
▁nepovoljn	-11.6178
▁procedura	-11.6178
▁sveobuhvatn	-11.6178
▁dobrovoljn	-11.6178
▁nagrađivan	-11.6178
▁Index	-11.6179
▁skupštini	-11.6179
▁londonsk	-11.6179
▁posudbu	-11.6179
▁pismu	-11.6179
▁drugačija	-11.6179
▁stajati	-11.6179
▁1994.	-11.6179
▁podzemn	-11.6179
▁Victor	-11.6179
▁mjeru	-11.6179
▁Jasmin	-11.6179
▁povući	-11.6179
▁ogorčen	-11.618
▁pobunjen	-11.6181
▁hrabro	-11.6182
▁režira	-11.6185
▁sprječava	-11.6193
▁Posebn	-11.6208
▁Grub	-11.6252
američk	-11.6276
▁egzistencij	-11.6305
▁tjednima	-11.6305
▁usavršava	-11.6305
▁završetak	-11.6305
▁čokolade	-11.6305
▁budžet	-11.6305
▁preferencij	-11.6305
▁preživljava	-11.6305
▁priuštiti	-11.6305
▁promašio	-11.6305
▁srbijansk	-11.6305
▁uspjesi	-11.6305
▁tvornice	-11.6305
▁turneje	-11.6305
▁Susret	-11.6305
▁Junior	-11.6305
▁uhitila	-11.6305
▁Činjenic	-11.6305
▁Gennaro	-11.6305
▁Italiju	-11.6305
▁mljeven	-11.6305
▁Mirror	-11.6305
▁partizan	-11.6305
▁gostovanja	-11.6305
▁omogućio	-11.6305
▁crvene	-11.6306
▁nedjelja	-11.6306
▁autoritet	-11.6306
▁poznaju	-11.6306
▁taktičk	-11.6308
▁prisustvoval	-11.631
▁odjeven	-11.6312
▁katastrofaln	-11.6327
▁Stigl	-11.6338
▁Gospo	-11.6372
zastupn	-11.6404
▁predložil	-11.6414
▁Slavn	-11.6416
▁trenersk	-11.642
▁Organizator	-11.6433
▁administrativn	-11.6433
▁atmosfere	-11.6433
▁edukacije	-11.6433
▁glazbom	-11.6433
▁inspiracija	-11.6433
▁interijer	-11.6433
▁pojavljuju	-11.6433
▁prebivalište	-11.6433
▁prisutna	-11.6433
▁Jelačića	-11.6433
▁bankovn	-11.6433
▁produktivn	-11.6433
▁djevojčicu	-11.6433
▁jogurt	-11.6433
▁struktura	-11.6433
▁ocjena	-11.6433
▁podsjetil	-11.6433
▁Očekiva	-11.6433
▁optimaln	-11.6433
▁Islamsk	-11.6433
▁Doduše	-11.6433
▁pozornice	-11.6433
▁napušten	-11.6433
▁Dalibor	-11.6433
▁princeze	-11.6433
▁četvoric	-11.6433
▁građevina	-11.6433
▁1989.	-11.6434
▁promociju	-11.6434
▁Barišić	-11.6434
▁cijenjen	-11.6434
▁npr	-11.6434
▁poretku	-11.6434
▁anketi	-11.6434
▁popunjen	-11.6434
▁Najmanje	-11.6434
▁Povod	-11.6435
▁konzervativn	-11.6436
▁bonus	-11.6438
▁spremi	-11.644
▁Porezn	-11.6441
▁Sokol	-11.6446
▁pulsk	-11.6447
▁obaln	-11.6454
▁rasproda	-11.6469
▁centraln	-11.6518
▁tijek	-11.6535
▁kontinuiran	-11.6546
ICA	-11.6554
▁psihijatr	-11.656
′	-11.6563
▁Atletico	-11.6563
▁Dalmaciju	-11.6563
▁Netflix	-11.6563
▁australsk	-11.6563
▁elemenata	-11.6563
▁estetsk	-11.6563
▁evakuacij	-11.6563
▁inozemstva	-11.6563
▁investira	-11.6563
▁krivotvoren	-11.6563
▁pravobranitelj	-11.6563
▁prognoze	-11.6563
▁nezadovoljni	-11.6563
▁pirotehni	-11.6563
stupanjsk	-11.6563
▁reforme	-11.6563
▁ostvaruje	-11.6563
▁preduvjet	-11.6563
▁strpljiv	-11.6563
▁vožnja	-11.6563
▁sjevernokorejsk	-11.6564
▁sporedn	-11.6564
▁presudu	-11.6564
▁fasad	-11.6564
▁izvođenje	-11.6564
hajduk	-11.6566
▁migranti	-11.6573
▁ružn	-11.6603
▁grupacij	-11.6618
▁prelask	-11.6622
▁okrugl	-11.6657
▁zagovara	-11.6679
▁Tešk	-11.6683
$	-11.6695
▁Engleska	-11.6695
▁Celzijevih	-11.6695
▁Krunoslav	-11.6695
▁osobna	-11.6695
▁poskupljenj	-11.6695
▁pridonijeti	-11.6695
▁sveučilišta	-11.6695
▁tržištima	-11.6695
▁četrdeset	-11.6695
▁Istodobno	-11.6695
▁Kolumbij	-11.6695
▁Tyson	-11.6695
▁predstojeć	-11.6695
▁pravomoćn	-11.6695
▁Gospić	-11.6695
▁skandira	-11.6695
▁izvukli	-11.6695
▁poželjn	-11.6695
▁Street	-11.6695
▁upućuje	-11.6695
▁zauzela	-11.6695
▁industriju	-11.6695
▁porasle	-11.6695
▁tvornica	-11.6695
▁Grupe	-11.6696
▁opoziv	-11.6696
▁polovica	-11.6696
▁ligašk	-11.6698
▁Club	-11.6698
▁viraln	-11.6699
▁mrtvo	-11.67
▁odjevn	-11.6705
▁preplav	-11.6707
▁ideološk	-11.6722
▁trenuta	-11.6727
▁legaln	-11.6767
▁propušta	-11.679
▁prilagođava	-11.6828
Pixsell	-11.6828
▁fleksibil	-11.6828
▁kuhinju	-11.6828
▁ljepota	-11.6828
▁nevjerojatan	-11.6828
▁percepcij	-11.6828
▁predškolsk	-11.6828
▁pridonosi	-11.6828
▁unaprje	-11.6828
▁objavom	-11.6828
▁tromjesečju	-11.6828
▁debitirao	-11.6828
▁ocjene	-11.6828
▁tradicijsk	-11.6828
▁nedjeljom	-11.6828
▁usamljen	-11.6828
▁vodovod	-11.6828
▁prikladn	-11.6828
▁privući	-11.6828
▁Urban	-11.6828
▁trgovinsk	-11.6828
▁vodostaj	-11.6828
▁odustao	-11.6828
▁zanemariv	-11.6829
▁Hezonj	-11.6829
▁pisme	-11.6829
▁postaji	-11.6829
▁osjetno	-11.683
▁Justin	-11.6832
▁Pitt	-11.6833
▁tematsk	-11.6835
▁polovin	-11.6891
▁Pital	-11.6896
▁elektri	-11.6911
▁Affleck	-11.6963
▁Bejrut	-11.6963
▁Orešković	-11.6963
▁Suprug	-11.6963
▁holivudsk	-11.6963
▁jugoslavensk	-11.6963
▁ljepotu	-11.6963
▁posvuda	-11.6963
▁repertoar	-11.6963
▁zaprimljen	-11.6963
▁deficit	-11.6963
▁realizaciju	-11.6963
▁zlatne	-11.6963
▁Primorsko	-11.6963
▁Gabrijel	-11.6963
▁Britanije	-11.6963
▁Ulaznice	-11.6963
▁mržnje	-11.6963
▁pokvari	-11.6963
▁polovice	-11.6964
▁maraton	-11.6964
▁jabuka	-11.6964
▁mnogobrojn	-11.6964
▁snježn	-11.6965
▁ambala	-11.6965
▁raskid	-11.6967
▁problematičn	-11.6968
▁optužil	-11.697
▁vlažn	-11.6971
▁Monaco	-11.6972
▁Iduć	-11.6973
▁vjenčani	-11.6974
▁operira	-11.6984
▁poezij	-11.6987
▁Konačn	-11.6994
▁Akcij	-11.7002
▁zaslon	-11.701
▁ponovn	-11.7018
▁postotn	-11.7025
▁dekor	-11.7036
▁hotelsk	-11.7036
Zagreb	-11.707
▁eskalira	-11.71
▁Futsal	-11.71
▁Prosvjed	-11.71
▁agresivno	-11.71
▁infrastrukturn	-11.71
▁televizija	-11.71
♬	-11.71
▁Brozović	-11.71
▁HZZO	-11.71
▁eksplozija	-11.71
▁Pravilnik	-11.71
▁zaprijetio	-11.71
▁zbunjen	-11.71
▁rabljen	-11.71
▁ribolov	-11.71
▁svjetsku	-11.71
▁usvojen	-11.71
▁češnjak	-11.71
▁streljiva	-11.71
▁Oružan	-11.71
▁specijalitet	-11.71
▁1999.	-11.7101
▁okupio	-11.7101
▁Adriatic	-11.7101
▁Invest	-11.7103
▁Zračn	-11.7105
▁Istarsk	-11.7105
▁Bartol	-11.7105
▁sastavljanj	-11.7106
▁plijen	-11.7108
etvero	-11.7111
▁iznenadn	-11.7115
baranjsk	-11.7116
▁pravovremen	-11.7129
▁Sretn	-11.7155
▁registrira	-11.7169
▁kriminaln	-11.7218
klub	-11.722
twitter	-11.7237
•	-11.7239
▁Bellingham	-11.7239
▁Dubravka	-11.7239
▁Koprivnice	-11.7239
▁koordinira	-11.7239
▁legitimn	-11.7239
▁ovosezonsk	-11.7239
▁podsjetimo	-11.7239
▁podvrgnut	-11.7239
▁poteškoće	-11.7239
▁strukture	-11.7239
▁verziju	-11.7239
▁ravnotežu	-11.7239
▁Zahvaljujem	-11.7239
▁najdraži	-11.7239
▁KUD	-11.7239
▁izvedbu	-11.7239
▁leđima	-11.7239
▁Zvijezd	-11.7239
▁razmotri	-11.7239
▁podržao	-11.7239
▁roštilj	-11.7239
▁zadržao	-11.7239
▁servira	-11.7239
▁turiste	-11.724
▁poništen	-11.724
▁studio	-11.724
tjeskob	-11.724
▁reformi	-11.7242
▁Nepal	-11.7249
▁Cetin	-11.7253
▁pravedno	-11.7262
▁počinil	-11.7298
▁Korisn	-11.7323
▁hidro	-11.736
▁bočn	-11.7365
Content	-11.7379
▁Guardian	-11.738
▁Hollywood	-11.738
▁demokracije	-11.738
▁društava	-11.738
▁higijen	-11.738
▁impresionira	-11.738
▁knjižnice	-11.738
▁neovlašten	-11.738
▁odvjetništva	-11.738
▁vaterpolsk	-11.738
▁ambicija	-11.738
▁koordinator	-11.738
▁osvrnul	-11.738
▁preživjeti	-11.738
▁udvostru	-11.738
▁Večeras	-11.738
▁Airlines	-11.738
▁atrakcij	-11.738
▁Agencije	-11.738
▁cipele	-11.738
▁određivanj	-11.738
▁brašna	-11.738
▁nemoćn	-11.738
▁cipela	-11.738
▁prethodi	-11.738
▁zaprimil	-11.738
▁Ajax	-11.738
▁gastronomsk	-11.738
▁crvena	-11.7381
▁Reddit	-11.7381
▁Ministr	-11.7381
▁logističk	-11.7381
▁digl	-11.7381
▁preselil	-11.7384
▁sutrašnj	-11.7386
hranjen	-11.7387
▁masakr	-11.7389
▁varira	-11.739
▁žurn	-11.7396
zbilja	-11.7414
Hell	-11.7434
▁Osječk	-11.7456
oslovno	-11.7484
Nisam	-11.7493
▁krizn	-11.7507
▁prouzroči	-11.7523
MasterChef	-11.7523
▁Momčad	-11.7523
▁agresivni	-11.7523
▁tportal	-11.7523
▁žrtvu	-11.7523
▁Organizacij	-11.7523
▁trijumf	-11.7523
▁autohton	-11.7523
▁vojsci	-11.7523
▁četvrtfinala	-11.7523
▁nekolicin	-11.7523
▁prisutan	-11.7523
▁Društva	-11.7523
▁spontan	-11.7523
▁poklopi	-11.7523
▁sindrom	-11.7523
▁Daruvar	-11.7523
▁Lokaln	-11.7524
▁Formul	-11.7524
▁pristigl	-11.7524
▁Zajednic	-11.7525
▁Jazz	-11.7525
▁mračn	-11.7537
▁kreditn	-11.7539
▁relacij	-11.7557
klopljen	-11.7602
▁rezervi	-11.7662
▁Aktualn	-11.7668
▁Koprivnica	-11.7668
▁bakterije	-11.7668
▁infekcija	-11.7668
▁nedostajalo	-11.7668
▁poljoprivredi	-11.7668
▁televiziju	-11.7668
▁Celzijus	-11.7668
▁Leverkusen	-11.7668
▁MORH	-11.7668
▁Vučković	-11.7668
▁gospodarstvu	-11.7668
▁musliman	-11.7668
▁referendum	-11.7668
▁Šušnjar	-11.7668
▁Podravka	-11.7668
▁kombinaciju	-11.7668
▁kongres	-11.7668
▁Uhićen	-11.7668
▁meteorolog	-11.7668
▁prehrana	-11.7668
▁prokomentirao	-11.7668
▁afričk	-11.7668
▁Zemlji	-11.7668
▁prekinula	-11.7668
▁cestom	-11.7668
▁greška	-11.7668
▁Harkiv	-11.7668
▁gužva	-11.7668
▁Indian	-11.7668
▁Ursul	-11.7668
▁poligon	-11.7668
▁pronalazi	-11.7668
▁Toyot	-11.7668
▁označen	-11.7668
▁silovanje	-11.7668
▁povezuju	-11.7669
▁dvanaest	-11.7669
▁uvršten	-11.7669
▁magnet	-11.767
▁Poreč	-11.7677
▁izjasn	-11.768
▁dovođenj	-11.7686
▁špic	-11.7686
spostavilo	-11.7688
▁dosljedn	-11.7699
hidrometeorološk	-11.7703
estitam	-11.7721
Width	-11.7815
▁graditeljstva	-11.7815
▁izvedbom	-11.7815
▁nadoknade	-11.7815
▁obavještava	-11.7815
▁organizacijsk	-11.7815
▁ružičast	-11.7815
▁organizmu	-11.7815
▁suprotstavi	-11.7815
▁Renault	-11.7815
▁HNB	-11.7815
▁vrtoglav	-11.7815
▁dobavljač	-11.7815
▁kontrola	-11.7815
▁atletsk	-11.7815
▁opskrbu	-11.7815
▁oprostio	-11.7815
▁metode	-11.7815
▁krajolik	-11.7815
▁ekonomsko	-11.7816
▁fiksn	-11.7816
▁Osvoji	-11.7817
▁vredn	-11.7817
▁lopov	-11.7818
▁Knjig	-11.782
▁primjenjiv	-11.7828
▁zaslužn	-11.783
▁Ponovn	-11.7838
▁Jutarnj	-11.7841
▁kontekst	-11.7844
▁putničk	-11.7875
▁informativn	-11.7881
▁vjerojatn	-11.7915
▁Krenul	-11.7929
rešnjev	-11.793
informacij	-11.7961
▁Borussia	-11.7964
▁Demokratsk	-11.7964
▁Luksemburg	-11.7964
▁Predsjedništva	-11.7964
▁Skupštine	-11.7964
▁Vrhovni	-11.7964
▁apsurd	-11.7964
▁brodogradilišt	-11.7964
▁ekipom	-11.7964
▁intervenciju	-11.7964
▁kognitivn	-11.7964
▁konkurenciju	-11.7964
▁kukuruz	-11.7964
▁nogostup	-11.7964
▁prekretnic	-11.7964
▁treninzima	-11.7964
▁uhvaćen	-11.7964
▁zastrašujuć	-11.7964
▁novorođen	-11.7964
▁pretrpjel	-11.7964
▁suvlasnik	-11.7964
▁Financijsk	-11.7964
▁Katoličk	-11.7964
▁loptom	-11.7964
▁ažurira	-11.7964
▁površini	-11.7964
▁Brown	-11.7964
▁ohladi	-11.7964
▁prevozi	-11.7964
▁albansk	-11.7964
▁Varšav	-11.7965
▁napreduje	-11.7966
nokorejsk	-11.7968
▁kontinentaln	-11.7982
▁zabrinjavajuć	-11.7992
▁radijsk	-11.8007
pakira	-11.8064
PIXSELL	-11.8116
▁Charlotte	-11.8116
▁Glumac	-11.8116
▁Regionaln	-11.8116
▁Slučaj	-11.8116
▁antioksidans	-11.8116
▁aranžman	-11.8116
▁energenata	-11.8116
▁istaknuvši	-11.8116
▁izdržati	-11.8116
▁norvešk	-11.8116
▁obuhvaćen	-11.8116
▁ponajviše	-11.8116
▁pozadini	-11.8116
▁infrastruktura	-11.8116
▁neophodn	-11.8116
▁sjeveroistočn	-11.8116
▁cjelini	-11.8116
▁preuzeli	-11.8116
▁razmjenu	-11.8116
▁neodgovorn	-11.8116
▁Britanac	-11.8116
▁pridonijel	-11.8116
▁ostvaruju	-11.8116
▁Predsjednic	-11.8116
▁Rafael	-11.8116
▁Prisjeti	-11.8116
▁Torcida	-11.8116
▁aktivna	-11.8116
▁obilježja	-11.8116
▁evidenc	-11.8116
▁Sesar	-11.8116
▁zlatno	-11.8116
▁traktor	-11.8116
▁horor	-11.8117
▁informacijsk	-11.8117
▁SUV	-11.8117
▁izgorjel	-11.8118
▁željn	-11.8118
▁3:1	-11.8119
▁kontroli	-11.8135
▁manjinsk	-11.8147
nacionaln	-11.8239
ATP	-11.824
suđiva	-11.8261
mplementacij	-11.8269
▁Afganistan	-11.8269
▁Marseille	-11.8269
▁Sigurdsson	-11.8269
▁asistirao	-11.8269
▁dinamičn	-11.8269
▁djetinjstvo	-11.8269
▁dozvoljen	-11.8269
▁elektrane	-11.8269
▁glasnogovornica	-11.8269
▁integritet	-11.8269
▁konkurencija	-11.8269
▁najznačajnij	-11.8269
▁oduševljava	-11.8269
▁unapređenj	-11.8269
▁Floridi	-11.8269
▁Tihomir	-11.8269
▁drugoligaš	-11.8269
▁nezamisliv	-11.8269
▁nepropisn	-11.8269
▁odličnu	-11.8269
▁Objasni	-11.8269
▁koaliciji	-11.8269
▁Bratislav	-11.8269
▁cirkus	-11.8269
▁Nicole	-11.8269
▁frizer	-11.8269
▁Selahi	-11.8269
▁disciplina	-11.827
▁medvjed	-11.827
▁trostruk	-11.827
▁Domaćin	-11.8271
▁važeć	-11.8271
▁usmjerava	-11.8274
▁Vojvo	-11.8279
▁osudil	-11.8286
rovocira	-11.8294
srijemsk	-11.8295
Gospodar	-11.8344
▁smetnj	-11.8355
Count	-11.8379
▁okrivljen	-11.8386
▁kriln	-11.8402
▁UNESCO	-11.8426
▁akademije	-11.8426
▁poljoprivredu	-11.8426
▁ubuduće	-11.8426
▁univerzaln	-11.8426
▁Kitchen	-11.8426
▁Kylian	-11.8426
▁ekosustav	-11.8426
▁operaciji	-11.8426
▁procjeni	-11.8426
▁Popularn	-11.8426
▁cvijeće	-11.8426
▁onečišćen	-11.8426
▁Vinicius	-11.8426
▁ekonomist	-11.8426
▁osvanul	-11.8426
▁Partner	-11.8426
▁Scott	-11.8426
▁reprezentacijom	-11.8426
▁Društvo	-11.8426
▁Stephen	-11.8426
▁genijal	-11.8426
▁(25)	-11.8426
▁rizici	-11.8429
▁najduž	-11.8431
▁pronalask	-11.8433
▁balističk	-11.8448
▁nejasn	-11.8471
▁ustašk	-11.8485
▁križanj	-11.8506
▁izbjegavanj	-11.8513
prijatelj	-11.8519
▁Potpredsjedni	-11.8546
institucionaln	-11.8584
ä	-11.9076
Đ	-11.9742
­	-11.9954
ç	-12.0328
·	-12.1329
è	-12.1759
[	-12.2879
#	-12.3663
}	-12.5758
️	-12.5758
ñ	-12.6092
ë	-12.6092
â	-12.6437
ł	-12.7549
ø	-12.8365
å	-12.9255
à	-12.9731
е	-13.1313
®	-13.1313
×	-13.2526
ú	-13.3193
ô	-13.4676
ğ	-13.4676
●	-13.5509
ï	-13.6419
ð	-13.7419
ò	-13.7419
🟨	-13.7419
ê	-13.853
ß	-13.978
ı	-13.978
🔥	-13.978
î	-13.978
⚤	-13.978
ř	-14.1208
ì	-14.1208
	-14.1208
🎁	-14.1208
😂	-14.1208
ė	-14.2875
ρ	-14.2875
🇷	-14.2875
🇸	-14.2875
ą	-14.4875
ě	-14.4875
μ	-14.4875
⁠	-14.4875
📌	-14.4875
`	-14.4875
ń	-14.7375
ő	-14.7375
ț	-14.7375
о	-14.7375
‒	-14.7375
⚽	-14.7375
	-14.7375
🇺	-14.7375
Å	-14.7375
‍	-15.0708
Í	-15.0708
Ú	-15.0708
ę	-15.0708
Ü	-15.0708
ý	-15.0708
ή	-15.0708
а	-15.0708
‐	-15.0708
―	-15.0708
‖	-15.0708
✓	-15.0708
💙	-15.0708
ā	-15.0708
ȗ	-15.0708
ј	-15.0708
ἀ	-15.5708
🏻	-15.5708
🙏	-15.5708
ż	-15.5708
	-15.5708
Ä	-15.5708
Ø	-15.5708
ù	-15.5708
û	-15.5708
ĉ	-15.5708
ē	-15.5708
ū	-15.5708
ȉ	-15.5708
̊	-15.5708
τ	-15.5708
ό	-15.5708
н	-15.5708
‟	-15.5708
∶	-15.5708
▶	-15.5708
♡	-15.5708
♦	-15.5708
シ	-15.5708
🔄	-15.5708
😅	-15.5708
😎	-15.5708
🟡	-15.5708
🤩	-15.5708
🤯	-15.5708
🥚	-15.5708
ă	-15.5708
¡	-15.5708
ś	-15.5708
π	-15.5708
🇱	-15.5708
🦟	-16.5666
😍	-16.5667
🕸	-16.5667
🕷	-16.5669
💕	-16.5669
ྀ	-16.5671
ི	-16.5672
α	-16.5673
έ	-16.5674
ș	-16.5674
Ş	-16.5676
±	-16.5676
🌸	-16.5678
🇭	-16.5679
̧	-16.568
Ð	-16.5681
§	-16.5681
^	-16.5683
👀	-16.5683
⚠	-16.5685
♥	-16.5686
ṣ	-16.5687
̌	-16.5688
̈	-16.5688
Ó	-16.569
ς	-16.569
ο	-16.5692
❤	-16.5693
✔	-16.5694
Ś	-16.5695
©	-16.5695
☘	-16.5697
Ç	-16.5697
Á	-16.5699
ş	-16.57
̋	-16.5701
►	-16.5702
É	-16.5702
⁄	-16.5704
ã	-16.5704
{	-16.5706
<	-16.5707
Ö	-16.5708
л	-16.5708
Ґ	-16.5708
🤦	-16.5708
🥹	-16.5708
Ô	-16.5708
õ	-16.5708
ľ	-16.5708
ň	-16.5708
ō	-16.5708
ə	-16.5708
☀	-16.5708
陈	-16.5708
🐦	-16.5708
£	-16.5708
¿	-16.5708
À	-16.5708
È	-16.5708
Ò	-16.5708
Ď	-16.5708
İ	-16.5708
ů	-16.5708
Ƙ	-16.5708
ȃ	-16.5708
ȑ	-16.5708
ʟ	-16.5708
̣	-16.5708
Ω	-16.5708
γ	-16.5708
δ	-16.5708
υ	-16.5708
χ	-16.5708
ω	-16.5708
К	-16.5708
ь	-16.5708
і	-16.5708
ӣ	-16.5708
ӧ	-16.5708
ṓ	-16.5708
ọ	-16.5708
ố	-16.5708
‰	-16.5708
↑	-16.5708
⇒	-16.5708
−	-16.5708
⏱	-16.5708
■	-16.5708
▪	-16.5708
○	-16.5708
☃	-16.5708
☑	-16.5708
☺	-16.5708
♀	-16.5708
⚫	-16.5708
✠	-16.5708
✨	-16.5708
❄	-16.5708
传	-16.5708
多	-16.5708
🇦	-16.5708
🇫	-16.5708
🇬	-16.5708
🇾	-16.5708
🌋	-16.5708
🌐	-16.5708
🌠	-16.5708
🌧	-16.5708
🌨	-16.5708
🌺	-16.5708
🌻	-16.5708
🍉	-16.5708
🍊	-16.5708
🎀	-16.5708
🎗	-16.5708
🏡	-16.5708
🐄	-16.5708
🐥	-16.5708
🐱	-16.5708
🐶	-16.5708
👁	-16.5708
👇	-16.5708
👣	-16.5708
👶	-16.5708
💅	-16.5708
💋	-16.5708
💎	-16.5708
💘	-16.5708
💚	-16.5708
💟	-16.5708
💪	-16.5708
💯	-16.5708
📢	-16.5708
📱	-16.5708
📸	-16.5708
🔹	-16.5708
🕓	-16.5708
🖥	-16.5708
😀	-16.5708
😁	-16.5708
😉	-16.5708
😊	-16.5708
😏	-16.5708
😬	-16.5708
😭	-16.5708
🙂	-16.5708
🙌	-16.5708
🛁	-16.5708
🤍	-16.5708
🤔	-16.5708
🤢	-16.5708
🤪	-16.5708
🥥	-16.5708
🥰	-16.5708
🥲	-16.5708
🥺	-16.5708
🩹	-16.5708
🩺	-16.5708
🪐	-16.5708
🫒	-16.5708
🫠	-16.5708
🫶	-16.5708
ţ	-16.5708
¤	-16.5708
Î	-16.5708
Ł	-16.5708
ź	-16.5708
(	-16.5709
🇧	-16.5709
🇮	-16.5709
🇵	-16.5709
