<unk>	0
<s>	0
</s>	0
▁a	-3.28741
▁u	-3.38772
▁i	-3.39076
▁,	-3.74159
▁e	-3.78106
▁.	-3.88754
n	-3.96739
▁je	-4.02629
▁o	-4.05241
▁s	-4.13758
▁na	-4.40162
o	-4.4592
r	-4.50036
▁po	-4.69
▁p	-4.73331
t	-4.78398
a	-4.80428
▁za	-4.80661
e	-4.8343
j	-5.03951
▁;	-5.03979
▁se	-5.04743
▁&	-5.05113
▁da	-5.09157
l	-5.14646
▁om	-5.18593
▁od	-5.22387
▁su	-5.2475
▁t	-5.28807
k	-5.34679
▁"	-5.38705
i	-5.40117
▁on	-5.42965
▁k	-5.43029
▁ne	-5.45392
▁do	-5.4643
▁-	-5.51514
▁iz	-5.57378
▁pro	-5.58749
▁m	-5.66537
m	-5.69703
▁S	-5.75622
▁d	-5.77871
▁ih	-5.79154
▁c	-5.81277
▁0	-5.82971
u	-5.91569
s	-5.92179
▁2	-5.94921
▁io	-5.98552
▁pri	-5.99255
▁og	-6.00413
▁B	-6.01963
▁koji	-6.0289
▁cca	-6.04654
▁P	-6.04949
▁n	-6.05881
p	-6.07167
▁v	-6.07303
▁im	-6.07682
▁D	-6.07862
▁M	-6.08778
▁b	-6.10014
▁iti	-6.10399
▁ima	-6.11834
▁pre	-6.1186
▁godi	-6.12177
c	-6.12762
▁ti	-6.17658
▁1	-6.18963
▁će	-6.19321
v	-6.19991
š	-6.22611
▁U	-6.22672
▁ili	-6.23256
▁acut	-6.24375
▁te	-6.26386
▁ob	-6.28159
▁ka	-6.28646
▁li	-6.29861
▁to	-6.29887
▁ov	-6.30996
▁:	-6.31294
▁što	-6.31326
▁bi	-6.31372
▁I	-6.32322
▁K	-6.3245
g	-6.32678
▁V	-6.4008
▁en	-6.40099
▁T	-6.46059
▁zca	-6.52071
▁'	-6.52276
d	-6.54835
▁oj	-6.55397
▁r	-6.55593
▁č	-6.56102
▁N	-6.5624
▁l	-6.56869
▁ila	-6.59158
▁nije	-6.60192
▁kako	-6.61221
▁O	-6.61682
▁ni	-6.62908
▁ali	-6.63224
▁Z	-6.63871
▁nje	-6.6434
▁raz	-6.64369
▁f	-6.65226
▁ma	-6.65365
▁L	-6.6614
▁R	-6.6667
▁A	-6.6734
▁j	-6.67484
▁no	-6.68815
▁koj	-6.69097
▁(	-6.69414
▁ije	-6.72004
▁)	-6.74464
▁ić	-6.75388
▁Na	-6.79581
▁G	-6.81297
▁ama	-6.82963
▁ju	-6.83089
▁ica	-6.83934
h	-6.85461
z	-6.8551
▁C	-6.86208
▁sam	-6.87325
▁koje	-6.88147
▁sve	-6.88871
▁Hrvat	-6.90212
▁ija	-6.91378
▁H	-6.91823
,	-6.92739
b	-6.93192
▁ak	-6.93594
▁in	-6.95342
▁biti	-6.97523
▁3	-6.97718
▁govor	-6.97792
▁mo	-6.98594
▁stav	-6.99268
▁nja	-7.00212
▁jedn	-7.00263
▁J	-7.02422
▁st	-7.0255
▁la	-7.02684
▁ice	-7.02699
▁4	-7.02753
▁ski	-7.02881
▁5	-7.0369
.	-7.04208
▁an	-7.0445
▁mi	-7.04968
▁me	-7.05045
▁9	-7.05367
jav	-7.06361
▁ske	-7.07088
▁nik	-7.07187
▁smo	-7.07254
▁sa	-7.07773
▁ij	-7.08285
ov	-7.08333
▁naj	-7.09232
▁više	-7.10664
▁itelj	-7.11856
▁ova	-7.12005
▁z	-7.12862
▁ac	-7.15301
▁nakon	-7.16491
▁ž	-7.16893
▁samo	-7.213
reds	-7.22655
▁pa	-7.22761
▁bio	-7.22819
▁osti	-7.23887
▁em	-7.24248
▁ava	-7.25665
▁ović	-7.25724
▁prem	-7.29923
vanj	-7.30811
▁prije	-7.30875
▁F	-7.31599
▁ga	-7.32035
▁6	-7.32938
č	-7.33764
▁tako	-7.33866
▁uz	-7.34251
▁ici	-7.35888
▁ost	-7.37817
▁ci	-7.37819
đ	-7.37925
▁još	-7.38424
▁lja	-7.38804
ijel	-7.38878
▁nek	-7.38878
▁njeg	-7.39191
▁Po	-7.39801
▁mu	-7.40188
▁pod	-7.40206
▁oko	-7.4045
▁već	-7.41024
▁8	-7.41917
▁oliko	-7.42589
▁mjes	-7.42723
▁ljen	-7.43144
▁7	-7.43312
▁rekao	-7.44267
▁?	-7.4472
▁treba	-7.45644
ć	-7.46044
▁drug	-7.47417
▁ska	-7.47469
▁njih	-7.47781
▁rad	-7.48156
sk	-7.48185
▁zbog	-7.48305
▁jed	-7.48785
▁al	-7.49856
▁er	-7.50198
▁ko	-7.50842
▁veli	-7.50929
▁ijsk	-7.51869
▁uje	-7.53399
▁iju	-7.54893
▁h	-7.55127
▁može	-7.55355
▁bilo	-7.55961
▁š	-7.56124
▁Za	-7.56224
f	-7.56774
▁dok	-7.56805
▁	-7.56838
▁pred	-7.58029
▁enje	-7.58587
▁svoj	-7.59324
▁ove	-7.59392
▁jer	-7.5997
▁skog	-7.59988
jed	-7.60957
▁ik	-7.61212
▁zna	-7.61733
▁red	-7.62302
▁dana	-7.63229
en	-7.63246
▁ako	-7.63908
▁stup	-7.64151
▁tar	-7.6501
▁eura	-7.65038
▁djel	-7.65117
▁dstr	-7.65235
▁ist	-7.65285
▁hrva	-7.65291
▁reme	-7.65497
▁nov	-7.66817
▁vrij	-7.66901
▁E	-7.67231
▁grad	-7.67674
▁tu	-7.68204
▁ite	-7.68299
▁!	-7.68942
▁ja	-7.6895
▁bila	-7.69193
▁nju	-7.69473
nj	-7.70203
takm	-7.70652
▁os	-7.71134
▁stran	-7.71274
▁jedan	-7.71495
▁skoj	-7.71959
▁radi	-7.72151
▁bolj	-7.72552
▁/	-7.72686
▁aj	-7.72753
▁lo	-7.73029
▁igra	-7.73635
▁rotiv	-7.739
▁broj	-7.73946
▁iji	-7.74928
▁iran	-7.75072
▁kr	-7.75206
▁svak	-7.75253
▁tri	-7.75355
▁eg	-7.75643
▁Š	-7.7598
▁izbor	-7.76981
▁kup	-7.77082
er	-7.77169
▁ilo	-7.78451
▁cije	-7.78709
▁kada	-7.78961
▁ovi	-7.80233
▁prav	-7.81314
▁nog	-7.81963
▁Euro	-7.8208
an	-7.82204
▁dva	-7.82248
▁sp	-7.8228
▁nim	-7.83012
▁gdje	-7.83346
▁pravo	-7.84386
▁ljudi	-7.84569
▁enja	-7.85772
▁vod	-7.86094
▁op	-7.87225
▁glav	-7.87253
▁bez	-7.87387
▁ira	-7.87667
▁ovo	-7.87887
▁ri	-7.88576
▁vid	-7.88698
▁neg	-7.8877
▁ati	-7.89221
▁osl	-7.89446
▁auto	-7.8982
▁mogu	-7.9
▁tav	-7.90224
tanj	-7.90275
▁ika	-7.90356
▁jak	-7.90631
▁isp	-7.92341
▁icu	-7.92921
▁nih	-7.93464
▁ot	-7.93934
▁kad	-7.93978
▁g	-7.94754
▁jedno	-7.94936
in	-7.95101
▁nu	-7.95642
ven	-7.96131
▁ki	-7.96961
▁nosti	-7.97253
▁skih	-7.97357
▁re	-7.97447
đu	-7.9829
▁Ne	-7.98571
▁skom	-7.98678
▁mjer	-7.98696
▁posto	-7.98724
ijek	-7.99251
oj	-8.00035
▁nam	-8.00296
▁gleda	-8.00632
▁bili	-8.01392
▁svoje	-8.01686
▁vjer	-8.01931
▁tren	-8.02048
▁sv	-8.02225
te	-8.02386
▁ravn	-8.02405
ma	-8.02493
▁ljiv	-8.02731
din	-8.02781
▁toga	-8.06013
▁nisu	-8.06383
▁zdrav	-8.06611
▁ing	-8.06614
▁rije	-8.06641
▁agreb	-8.0666
ljuč	-8.06776
▁uju	-8.07057
▁nj	-8.0752
kon	-8.07613
▁gr	-8.0764
▁To	-8.07886
▁mora	-8.08244
▁glas	-8.08251
▁igur	-8.08335
▁blem	-8.0905
▁sada	-8.09371
▁nici	-8.09514
▁Č	-8.09732
▁osta	-8.10277
ih	-8.11007
▁tvar	-8.11113
▁ev	-8.1145
▁nika	-8.11889
akv	-8.12114
inis	-8.12175
▁imo	-8.12232
▁prvi	-8.12381
▁mir	-8.1246
▁voj	-8.13009
▁ke	-8.13433
▁druš	-8.14091
▁nad	-8.14139
▁va	-8.14196
ješ	-8.14236
▁mili	-8.1426
▁ent	-8.14349
▁taj	-8.14725
▁ku	-8.15088
ezon	-8.15338
▁sku	-8.15357
▁ijal	-8.16371
▁vije	-8.17331
▁vijek	-8.17348
▁dan	-8.17424
▁kod	-8.17459
▁građ	-8.17682
▁minu	-8.17944
▁dr	-8.17969
st	-8.18042
nij	-8.18067
▁vijet	-8.18174
▁malo	-8.18764
▁dobro	-8.18932
▁tim	-8.18986
el	-8.19881
▁škol	-8.20891
▁igrač	-8.21881
▁W	-8.22546
▁nas	-8.22911
olic	-8.23101
▁ustav	-8.23108
▁kaza	-8.23614
▁inf	-8.23684
▁ca	-8.23734
ne	-8.23807
▁put	-8.23819
▁lje	-8.23867
▁pet	-8.24182
log	-8.24222
▁prvo	-8.24263
▁y	-8.24401
▁nji	-8.24735
nter	-8.2486
prav	-8.24951
▁zeml	-8.2498
▁mlad	-8.25006
vrš	-8.25196
ječ	-8.25266
▁danas	-8.258
▁telj	-8.25824
▁us	-8.26525
▁moguć	-8.26777
▁itet	-8.2714
▁voji	-8.27569
▁nom	-8.27872
▁osob	-8.2828
▁izira	-8.28369
▁nost	-8.28395
▁vat	-8.28443
▁tran	-8.28588
▁kaže	-8.28809
▁život	-8.28989
▁nema	-8.29088
▁medi	-8.29211
▁le	-8.2952
▁javn	-8.30103
▁Ž	-8.30136
▁bor	-8.30304
▁stvo	-8.30359
inal	-8.30596
▁tvor	-8.30624
tsk	-8.3082
▁stva	-8.31334
▁gram	-8.31404
▁gol	-8.31503
lj	-8.3203
▁oni	-8.32086
dnj	-8.32121
▁novi	-8.32173
▁metn	-8.32313
▁jekt	-8.32792
▁kon	-8.33131
▁No	-8.3314
igur	-8.33186
▁prve	-8.33323
▁kojem	-8.33576
▁nosi	-8.33637
▁nešto	-8.33695
▁naš	-8.33812
y	-8.33945
▁tat	-8.34052
▁tek	-8.34124
▁insk	-8.34125
▁ional	-8.34737
▁rasp	-8.35351
▁tome	-8.35352
meri	-8.35647
▁dio	-8.3565
▁nogo	-8.35751
▁ol	-8.36487
▁mjen	-8.3666
▁ć	-8.36662
▁ud	-8.37752
▁jeti	-8.37781
▁stoj	-8.38472
▁vodi	-8.38689
▁doda	-8.38773
▁nica	-8.38787
▁is	-8.389
▁zv	-8.38963
▁ht	-8.3918
▁sati	-8.3939
▁tan	-8.39627
▁puno	-8.39895
▁dvije	-8.40396
▁njem	-8.40599
je	-8.40939
▁slav	-8.40941
god	-8.41058
▁zme	-8.41479
▁slov	-8.41507
▁matr	-8.42146
▁ča	-8.42156
▁prek	-8.42163
▁iv	-8.42229
▁etvrt	-8.42523
▁zap	-8.42578
▁znat	-8.42729
▁una	-8.42954
ruž	-8.4304
▁upan	-8.4334
▁par	-8.43474
▁rezu	-8.43605
▁tom	-8.43774
▁zen	-8.43957
▁On	-8.44005
▁ine	-8.44096
▁mije	-8.44561
▁usp	-8.44796
▁lazi	-8.45066
▁hvat	-8.45101
▁žel	-8.45139
▁stor	-8.45279
▁ant	-8.45657
anov	-8.45673
va	-8.46053
▁dalje	-8.46164
▁organ	-8.46414
▁aknu	-8.46735
▁kont	-8.47006
lit	-8.47611
bav	-8.47621
▁način	-8.47675
▁hval	-8.47761
tko	-8.4798
at	-8.48322
▁gotov	-8.48344
▁ini	-8.48475
▁anj	-8.48491
▁svi	-8.49033
▁manje	-8.49187
▁ničk	-8.49392
▁izvod	-8.49417
zac	-8.49436
pre	-8.49685
▁dvo	-8.49695
▁etiri	-8.50161
▁itua	-8.50161
sim	-8.50348
▁stoji	-8.50358
▁kan	-8.50935
▁dru	-8.50956
▁lučaj	-8.51002
▁mnog	-8.51139
▁Pro	-8.51267
▁sad	-8.5128
▁ajduk	-8.51352
▁euro	-8.51623
ju	-8.51854
atel	-8.51899
▁rekla	-8.51995
▁list	-8.52155
▁ra	-8.52199
men	-8.52534
▁imaju	-8.52645
▁met	-8.52703
zna	-8.52722
▁eks	-8.52908
▁vrl	-8.53297
ruč	-8.53352
▁kraj	-8.53484
▁gova	-8.535
▁onda	-8.53951
lik	-8.54101
▁vozi	-8.54561
▁ile	-8.54961
▁kojo	-8.55033
▁međ	-8.55035
▁Kad	-8.5507
zor	-8.55272
▁ativ	-8.55445
ž	-8.55498
▁ve	-8.55572
▁ste	-8.55779
▁acije	-8.56105
znen	-8.56133
▁ras	-8.56384
▁održ	-8.56767
▁vam	-8.56863
▁film	-8.57098
luč	-8.5714
▁klub	-8.57755
jev	-8.57912
▁pust	-8.57992
▁ćem	-8.58002
cij	-8.5805
▁udar	-8.58142
▁Sve	-8.58185
▁budu	-8.58248
▁ovima	-8.58263
▁Pri	-8.58353
▁pun	-8.58718
▁Ivan	-8.58929
▁ša	-8.58954
▁tvrd	-8.59071
▁Od	-8.5916
▁bit	-8.59539
▁neki	-8.59593
rad	-8.5976
▁Ov	-8.59776
nim	-8.59979
▁av	-8.60041
▁kol	-8.60057
▁rast	-8.601
grad	-8.60163
▁emo	-8.60311
▁račun	-8.60355
▁vi	-8.60368
▁eset	-8.60446
▁stvar	-8.6062
▁živ	-8.60648
▁rener	-8.60712
roz	-8.61321
▁riječ	-8.61516
kaza	-8.61622
▁ržav	-8.6184
▁tjec	-8.61853
ako	-8.62121
▁lobo	-8.62213
▁lije	-8.62431
vez	-8.6254
rij	-8.62611
▁isti	-8.62701
▁let	-8.62752
▁kval	-8.631
al	-8.63463
▁vjet	-8.63529
▁kome	-8.63779
▁vr	-8.63934
djel	-8.64206
▁jući	-8.64519
A	-8.64596
▁rod	-8.64781
bjed	-8.64951
▁aktiv	-8.65187
vjer	-8.6523
▁štit	-8.6549
▁nice	-8.65515
čj	-8.65526
▁tor	-8.65535
▁sjed	-8.65548
▁neće	-8.65569
svoj	-8.65597
vši	-8.65681
▁poče	-8.65824
anc	-8.66
vjet	-8.66017
▁aca	-8.66054
▁sko	-8.66223
▁esti	-8.66722
▁drž	-8.67185
▁man	-8.67268
▁drža	-8.67299
▁čin	-8.67394
▁ona	-8.67487
▁puta	-8.67578
▁pada	-8.67641
▁hra	-8.67976
▁eb	-8.6804
▁ijama	-8.6815
▁glaz	-8.68168
▁drugi	-8.6817
▁njima	-8.6831
▁rijed	-8.68458
▁Ak	-8.68528
▁vol	-8.68585
▁ijest	-8.6877
ljed	-8.68929
▁kom	-8.68985
▁volj	-8.6916
▁čki	-8.69262
▁nosno	-8.69365
▁eni	-8.69576
▁rež	-8.69906
elik	-8.69949
▁Mila	-8.70042
▁napad	-8.70193
▁gost	-8.70652
▁tad	-8.70745
▁gor	-8.70764
▁dobr	-8.71012
▁mor	-8.71289
▁komp	-8.71338
laz	-8.71426
est	-8.71553
▁Iz	-8.71669
▁hr	-8.71809
traž	-8.71921
▁rea	-8.71927
▁ina	-8.71993
▁Al	-8.71993
▁didat	-8.72182
▁cilj	-8.72248
▁onač	-8.72391
▁pov	-8.72402
▁služ	-8.72506
▁bac	-8.72625
▁inar	-8.72669
▁nij	-8.72998
▁Kak	-8.73025
▁čeka	-8.73048
▁važn	-8.73246
nov	-8.7325
lužb	-8.73301
▁lak	-8.73419
▁Tako	-8.73468
▁acija	-8.73473
▁njak	-8.73585
amo	-8.73652
▁dnost	-8.73799
lav	-8.73906
▁enju	-8.74019
▁ito	-8.74176
▁inj	-8.74342
▁el	-8.7491
▁est	-8.75504
▁znan	-8.75521
▁tkri	-8.75531
▁veći	-8.7555
▁ada	-8.75677
▁es	-8.75764
▁vode	-8.758
▁tko	-8.76033
▁uč	-8.76037
▁ačk	-8.7605
jeg	-8.76168
▁kaz	-8.76193
▁pisa	-8.76247
▁gled	-8.7629
▁kuć	-8.76368
▁noj	-8.76574
▁irati	-8.76719
▁HDZ	-8.77105
▁pjes	-8.77163
▁Do	-8.77275
▁Međ	-8.77401
▁sjet	-8.77418
kaz	-8.77429
manj	-8.77476
dluk	-8.77629
▁plat	-8.77764
▁oris	-8.77931
▁mjet	-8.7837
▁ime	-8.78427
arij	-8.7871
▁foto	-8.78749
▁čij	-8.78806
▁tra	-8.78974
vog	-8.79011
▁veza	-8.79038
▁Grad	-8.79319
▁ard	-8.79325
lic	-8.79433
▁jte	-8.79572
vol	-8.79607
▁ljub	-8.79676
▁god	-8.79778
▁ičn	-8.80047
lu	-8.80109
omać	-8.80164
vrtk	-8.80223
mo	-8.80588
▁Nov	-8.80628
▁ce	-8.8064
živ	-8.80737
▁stal	-8.81157
▁narod	-8.81438
▁stv	-8.81446
▁rus	-8.81461
▁vas	-8.81541
▁tro	-8.81847
▁ički	-8.81908
▁zakon	-8.81931
▁šest	-8.8198
araž	-8.82175
▁orma	-8.82357
▁dugo	-8.82386
stav	-8.82402
▁laga	-8.82537
▁jeli	-8.82645
▁prvak	-8.82677
▁ubr	-8.82755
▁anja	-8.82974
▁sebno	-8.83077
▁nos	-8.83169
suć	-8.83254
▁stati	-8.83318
▁tehn	-8.8342
šlj	-8.83441
▁treb	-8.83559
▁sin	-8.83908
▁svim	-8.84031
▁traž	-8.84054
▁moga	-8.84099
▁Pre	-8.84295
▁inu	-8.84424
▁lani	-8.8444
▁orm	-8.85176
▁mobil	-8.85189
▁kor	-8.85219
ko	-8.85233
▁ultu	-8.85288
ačk	-8.85421
▁staje	-8.85551
▁din	-8.85585
▁tvari	-8.85673
▁sreć	-8.85882
▁obran	-8.85991
▁osoba	-8.86068
▁Bil	-8.86188
▁rat	-8.86206
▁avaju	-8.86257
▁ran	-8.86278
▁eći	-8.86371
aš	-8.86543
▁St	-8.86609
▁baš	-8.86645
▁ani	-8.86885
▁jesec	-8.8697
▁jesta	-8.87066
la	-8.87072
▁svih	-8.87205
▁ević	-8.87251
red	-8.87281
▁imati	-8.87472
▁cent	-8.87606
▁anje	-8.8763
▁pak	-8.8772
▁misl	-8.87727
▁icama	-8.87955
▁radn	-8.88039
▁veden	-8.88079
▁bran	-8.88139
▁rafi	-8.88359
▁jever	-8.8838
▁ništ	-8.88403
▁pita	-8.88519
▁voz	-8.88573
▁mijer	-8.88573
▁kraju	-8.8868
liz	-8.88797
▁učin	-8.88826
▁prat	-8.88949
roš	-8.892
ak	-8.89222
▁viso	-8.89245
▁ven	-8.89495
▁metar	-8.89574
▁arn	-8.89593
jen	-8.89622
▁ljuč	-8.90081
za	-8.90107
▁ogled	-8.90124
▁top	-8.90295
▁teško	-8.90312
▁inamo	-8.90322
▁bivš	-8.90474
kim	-8.90492
▁Ch	-8.90523
▁sred	-8.90634
▁Kr	-8.90704
T	-8.90893
▁šir	-8.909
▁tež	-8.90909
▁glum	-8.91023
▁usret	-8.91027
▁pr	-8.91053
▁eno	-8.91076
▁večer	-8.91143
il	-8.9138
oris	-8.91423
por	-8.91489
vi	-8.91529
▁ta	-8.91689
▁vija	-8.91697
▁plan	-8.91814
▁čeku	-8.91868
▁bude	-8.92035
treb	-8.92126
▁jveć	-8.92152
▁ide	-8.92227
▁njega	-8.92351
▁Njem	-8.92362
▁ala	-8.92415
▁nikad	-8.92449
▁Split	-8.92505
rošl	-8.92785
▁Sv	-8.92803
▁isto	-8.9291
▁ad	-8.93083
▁član	-8.93174
▁razi	-8.93225
▁duž	-8.93384
▁sud	-8.93551
▁int	-8.93668
▁gosp	-8.93816
▁alno	-8.9392
od	-8.93929
ljež	-8.93987
▁Srbi	-8.94198
▁ću	-8.94287
▁ljan	-8.94455
▁stvu	-8.94476
zd	-8.94536
▁asni	-8.94876
▁be	-8.94888
▁truč	-8.95061
▁znač	-8.95153
▁ivota	-8.9519
ch	-8.95298
▁vojn	-8.95324
put	-8.95376
▁kret	-8.9553
▁EU	-8.95723
▁išta	-8.95748
ije	-8.95753
▁šte	-8.9585
št	-8.96072
▁sil	-8.96091
▁cu	-8.96123
vom	-8.963
▁čest	-8.96344
▁grada	-8.96372
okuš	-8.96375
▁kar	-8.96404
▁ovom	-8.96435
▁rani	-8.96441
jući	-8.96519
ržav	-8.96633
▁10	-8.96676
▁Plen	-8.96697
▁elnik	-8.96935
▁isku	-8.97109
▁ovjek	-8.97119
▁knji	-8.97158
▁log	-8.972
▁rt	-8.97367
▁Št	-8.97406
▁Prem	-8.97435
▁dalj	-8.97578
pnj	-8.97607
▁Ali	-8.97695
▁ravi	-8.97777
▁Gr	-8.97819
▁vore	-8.97835
▁demo	-8.98115
▁kupi	-8.98143
▁jela	-8.98188
▁rošl	-8.9824
▁maj	-8.98455
▁lan	-8.98457
▁end	-8.98508
▁ratu	-8.98514
▁nul	-8.98658
▁uprug	-8.9878
▁ike	-8.9883
▁kori	-8.98835
▁ro	-8.98994
gub	-8.99183
▁[	-8.99401
▁ansk	-8.99479
dij	-8.99528
▁imao	-8.99617
▁rtner	-8.99909
▁zor	-8.99937
▁isli	-9.00057
▁tude	-9.00077
▁vlas	-9.00181
is	-9.00249
▁enz	-9.00347
▁okal	-9.00353
▁rati	-9.00401
▁Ukra	-9.00662
▁kap	-9.00765
jedn	-9.00807
▁Rije	-9.0091
▁ub	-9.00911
▁izv	-9.01122
▁one	-9.0146
▁ništa	-9.01563
▁nac	-9.01657
▁Mar	-9.01704
C	-9.0172
us	-9.02037
▁and	-9.02282
▁Fran	-9.0234
▁mal	-9.02344
▁eka	-9.02378
▁ele	-9.02389
ći	-9.02431
▁traj	-9.02544
▁evi	-9.02604
▁br	-9.02613
▁oć	-9.02664
lekt	-9.03037
▁trag	-9.03141
▁sport	-9.03336
▁koš	-9.03356
▁ože	-9.03378
▁Ova	-9.0338
tivn	-9.03392
▁treć	-9.03688
iše	-9.03849
▁cr	-9.03943
▁Mi	-9.04008
▁liku	-9.04015
▁tali	-9.04072
▁druga	-9.04303
▁VIDEO	-9.04394
▁poč	-9.04408
drž	-9.0463
njen	-9.04632
▁ijek	-9.04665
ul	-9.04732
▁ana	-9.04829
▁ajte	-9.04848
tim	-9.0489
▁sebe	-9.04964
umnj	-9.05037
▁Rusi	-9.05045
▁ljet	-9.05215
ša	-9.05236
▁lin	-9.05352
▁gru	-9.05355
▁dobio	-9.05406
li	-9.05465
▁nuo	-9.05674
▁stala	-9.05775
▁]	-9.05785
ruk	-9.06125
▁aciju	-9.06138
▁posla	-9.06192
▁Dan	-9.06246
▁mješ	-9.06471
▁eri	-9.06509
▁nio	-9.06587
▁mas	-9.06602
▁nove	-9.06673
▁stupa	-9.06681
▁=>	-9.06718
▁ps	-9.06795
▁ivn	-9.07039
▁kri	-9.07104
▁veo	-9.07115
mah	-9.07301
▁emelj	-9.07327
ist	-9.07355
čin	-9.07406
▁renu	-9.0742
▁priv	-9.07463
lad	-9.07664
▁reg	-9.07711
▁20	-9.07788
▁ičar	-9.07807
stup	-9.07856
▁regi	-9.07944
▁želi	-9.0808
vor	-9.08084
▁brzo	-9.08259
▁stat	-9.08277
▁dava	-9.08391
▁vrat	-9.0842
▁lik	-9.08437
lož	-9.08473
D	-9.08632
met	-9.08697
▁iza	-9.08713
▁laze	-9.08718
▁ab	-9.08819
▁davn	-9.08829
▁zagr	-9.08836
▁gađaj	-9.08855
▁ruk	-9.08874
▁ator	-9.08972
▁vlast	-9.08985
▁jviše	-9.09175
▁fer	-9.0927
▁bav	-9.0933
tom	-9.09409
▁ijom	-9.09616
▁tešk	-9.09761
erg	-9.09804
zic	-9.09808
▁ubli	-9.10022
▁otkr	-9.10054
▁vjed	-9.10273
▁loš	-9.10388
▁vlada	-9.10396
blj	-9.104
▁jelo	-9.10549
▁odnos	-9.10644
▁okr	-9.10724
▁čeki	-9.1089
čen	-9.1099
▁snim	-9.11147
ranj	-9.11259
▁Da	-9.1131
▁usk	-9.11386
▁čan	-9.11466
▁novo	-9.11467
tvrd	-9.11498
▁roda	-9.11501
▁zrak	-9.11545
▁of	-9.11718
ršk	-9.11719
▁kraja	-9.11865
▁niz	-9.11917
onic	-9.12025
▁razn	-9.1211
▁stao	-9.12118
▁imali	-9.12134
▁iva	-9.12253
▁otp	-9.12333
▁mogli	-9.12558
▁smrt	-9.12714
▁nep	-9.12761
I	-9.12847
▁lat	-9.12931
▁Trump	-9.13027
▁krš	-9.13094
▁svog	-9.13473
U	-9.13584
▁str	-9.13715
▁Rad	-9.1372
▁icom	-9.13741
▁tog	-9.1375
▁Ko	-9.13866
▁olni	-9.13962
▁gradu	-9.14032
▁dire	-9.14101
▁des	-9.14502
▁nima	-9.14533
ij	-9.14546
▁oja	-9.14695
▁de	-9.14741
▁eli	-9.14749
▁Gor	-9.1476
▁lu	-9.14798
▁rać	-9.1488
imp	-9.14988
▁pokr	-9.14999
▁aka	-9.15112
▁oper	-9.15136
▁djece	-9.15136
▁mak	-9.15148
▁meta	-9.15308
▁Andr	-9.15449
▁TO	-9.1547
▁Ro	-9.15483
kav	-9.16041
▁alo	-9.16065
O	-9.16112
▁nosu	-9.1621
nud	-9.16337
tno	-9.1642
▁vel	-9.16445
▁vik	-9.16512
kup	-9.16618
▁Mat	-9.16774
▁omoć	-9.16854
▁klon	-9.16991
▁ašnj	-9.17008
▁ncert	-9.17548
hi	-9.17644
veća	-9.17662
uz	-9.17803
▁tr	-9.17919
▁Pet	-9.17969
▁arl	-9.18
▁liti	-9.18113
▁irao	-9.18148
▁rađ	-9.18159
pak	-9.18249
▁pal	-9.18379
▁pis	-9.18391
▁oga	-9.185
▁stig	-9.18573
▁icima	-9.18608
▁anjo	-9.18661
▁genc	-9.18751
ređ	-9.18772
▁orts	-9.18794
▁opas	-9.18885
▁%	-9.18997
es	-9.19106
▁rk	-9.19168
E	-9.19241
▁val	-9.19451
▁lazak	-9.19546
▁ajn	-9.19605
▁naše	-9.19617
▁ulic	-9.19677
tvor	-9.19775
▁vrš	-9.19794
▁zlo	-9.19826
▁dnev	-9.1987
▁ang	-9.19929
smo	-9.19947
▁jubav	-9.19983
▁nuta	-9.2022
ud	-9.20252
▁možd	-9.20345
it	-9.20373
▁iš	-9.20417
▁les	-9.20479
▁as	-9.20608
▁bil	-9.20744
▁bolje	-9.20934
▁obja	-9.20937
▁toč	-9.20996
▁ići	-9.21033
đen	-9.21102
▁rav	-9.21253
▁up	-9.21284
▁plas	-9.21295
▁hod	-9.21447
tjec	-9.21526
▁priča	-9.21539
▁uvjet	-9.21665
▁eti	-9.21736
ož	-9.21753
as	-9.21793
▁lož	-9.21979
▁ell	-9.22061
▁ćen	-9.22154
▁padn	-9.22168
▁nča	-9.22184
▁mušk	-9.22246
▁inama	-9.22302
▁ač	-9.22321
▁Ja	-9.22341
▁res	-9.22414
dsk	-9.22512
▁ovati	-9.22587
▁ista	-9.22678
▁bira	-9.228
▁ital	-9.22847
nad	-9.22988
▁zab	-9.23135
▁rol	-9.23192
1	-9.23629
▁tak	-9.23636
▁imir	-9.23873
▁imp	-9.23895
▁novn	-9.239
▁Uz	-9.23983
▁ark	-9.2419
cen	-9.242
▁rodn	-9.24215
▁znak	-9.24224
▁temp	-9.24396
▁ković	-9.24397
▁Bar	-9.24769
▁utku	-9.24772
▁niti	-9.24835
po	-9.24858
zbil	-9.24864
▁tur	-9.24899
▁isk	-9.25025
▁etalj	-9.25127
▁ište	-9.25182
▁15	-9.25568
▁ben	-9.25747
▁Naim	-9.25839
▁plaća	-9.25867
▁boga	-9.25917
▁kolo	-9.26056
▁zrael	-9.26186
▁ba	-9.26205
▁imen	-9.26257
▁azov	-9.2644
▁reći	-9.26517
irom	-9.26558
▁nedo	-9.26563
tur	-9.26666
▁pisao	-9.26681
▁liči	-9.26801
gr	-9.26802
▁boj	-9.26808
rgov	-9.26947
▁kamp	-9.26995
▁Pa	-9.27061
ziva	-9.27077
▁osobe	-9.27375
▁dug	-9.27416
▁obr	-9.27444
▁lad	-9.27473
▁mam	-9.27481
▁daje	-9.27597
▁imam	-9.27701
▁tvr	-9.27766
▁posao	-9.27817
▁azi	-9.27925
aj	-9.27927
▁sk	-9.28001
▁bes	-9.28102
▁Ol	-9.28115
▁ovrat	-9.28121
▁ces	-9.28208
▁redi	-9.28395
id	-9.28403
▁rin	-9.28416
▁Per	-9.28434
▁pros	-9.28638
▁iako	-9.28894
▁vrs	-9.28927
ic	-9.28983
▁ter	-9.29241
▁redn	-9.29341
▁vlad	-9.29346
▁sto	-9.29457
▁omoći	-9.29489
▁kat	-9.2954
▁mogla	-9.29614
▁kl	-9.29624
▁vrt	-9.2971
▁iznos	-9.2981
▁stali	-9.29953
▁park	-9.29971
▁dis	-9.3015
▁SAD	-9.30349
▁alma	-9.30375
▁iste	-9.30465
mi	-9.30475
zva	-9.30525
▁Mari	-9.30549
▁dobi	-9.30594
▁čega	-9.30656
▁blag	-9.30667
▁slu	-9.30699
▁skr	-9.30784
B	-9.30905
▁vrhu	-9.30919
▁učen	-9.30935
▁stan	-9.31071
▁Niko	-9.31104
▁nut	-9.31107
▁znači	-9.31136
▁ment	-9.31154
▁ržiš	-9.3116
▁hit	-9.3141
▁poraz	-9.31475
▁kil	-9.31559
▁petak	-9.31747
K	-9.31828
▁tje	-9.3187
▁erv	-9.31981
▁rođe	-9.32021
▁zašto	-9.3203
▁krat	-9.32249
▁du	-9.32365
S	-9.32408
▁čić	-9.32477
▁ijan	-9.32606
▁brod	-9.32625
▁inac	-9.32646
čno	-9.32712
duć	-9.32744
kip	-9.32757
▁sata	-9.32772
deć	-9.32801
▁oseb	-9.32966
▁kluba	-9.32981
▁prava	-9.33038
▁ec	-9.33042
▁vozač	-9.33044
▁oran	-9.33265
▁zato	-9.33287
▁ruš	-9.33336
▁SDP	-9.33371
▁uper	-9.33383
iz	-9.33439
▁skor	-9.33506
▁like	-9.33553
▁tpun	-9.33651
▁andat	-9.33699
▁nova	-9.33763
▁lov	-9.33783
▁Th	-9.33947
▁komu	-9.33954
▁30	-9.33974
▁ruj	-9.34032
▁ero	-9.3404
ut	-9.34153
▁roces	-9.34319
▁jiv	-9.3449
▁dati	-9.34495
▁ins	-9.34507
▁tres	-9.34551
▁savez	-9.34611
▁laz	-9.34668
▁funk	-9.34673
▁ono	-9.34826
▁tičk	-9.34861
ular	-9.34888
▁ulj	-9.3489
▁oje	-9.34896
▁djev	-9.34944
ad	-9.34967
▁adran	-9.35053
▁vesti	-9.3512
▁logi	-9.35137
▁arla	-9.35197
P	-9.35344
M	-9.35545
aron	-9.3556
▁ill	-9.35579
renc	-9.35679
kcij	-9.35904
▁kre	-9.36014
▁čn	-9.36042
▁zra	-9.36088
▁sedam	-9.36196
▁opet	-9.36226
▁až	-9.36244
▁Šib	-9.36284
▁spjeh	-9.36365
▁brz	-9.36391
▁Josi	-9.3647
▁dala	-9.36478
▁rada	-9.36523
▁imala	-9.36612
▁čke	-9.36711
▁ajin	-9.36716
▁rata	-9.36746
▁svega	-9.36754
▁bole	-9.36792
▁cima	-9.36908
▁Ob	-9.37183
L	-9.37241
▁osam	-9.37254
▁riop	-9.37294
▁ete	-9.37376
▁atelj	-9.37394
▁manj	-9.37412
ez	-9.37425
▁sjaj	-9.37483
▁ikac	-9.37598
▁nisa	-9.37612
▁igrao	-9.37628
▁Y	-9.37651
ncij	-9.37664
▁ubotu	-9.37669
▁Ju	-9.37734
lin	-9.37751
▁obič	-9.37815
▁lop	-9.3786
▁jav	-9.37991
▁bu	-9.38004
▁nicu	-9.38276
▁orij	-9.38463
▁kole	-9.3847
▁uci	-9.38725
▁akle	-9.38837
lač	-9.38851
▁njim	-9.38904
gi	-9.39185
▁ovdje	-9.39334
▁rade	-9.3936
▁12	-9.39442
ijač	-9.39453
▁mene	-9.39496
▁ata	-9.39799
▁lasti	-9.39816
▁pos	-9.39904
▁onal	-9.40008
R	-9.40027
▁jutro	-9.40044
▁rov	-9.40057
zvan	-9.4014
av	-9.40309
▁per	-9.40352
▁doma	-9.40488
▁utova	-9.40731
▁vodn	-9.40883
▁son	-9.40892
▁ijete	-9.40922
▁šli	-9.40994
▁var	-9.41116
▁korak	-9.41242
▁Ant	-9.41514
▁ojat	-9.41564
tenc	-9.41567
▁ok	-9.41635
epub	-9.41647
iječ	-9.41747
▁istr	-9.41787
▁akc	-9.41841
lab	-9.41883
00	-9.4197
▁uć	-9.42061
▁reko	-9.42159
▁vjes	-9.42236
▁čini	-9.4227
▁novac	-9.42295
sjet	-9.42325
▁ian	-9.424
▁kriv	-9.42795
▁ort	-9.42839
▁lika	-9.42899
▁rah	-9.42908
▁metaš	-9.42921
▁urnir	-9.43008
▁eva	-9.43051
▁Tom	-9.43068
▁reć	-9.43074
▁ujuć	-9.4315
▁dese	-9.43212
▁romet	-9.43224
▁snov	-9.43389
zima	-9.4347
▁rem	-9.43692
▁abr	-9.43787
▁avi	-9.43833
▁grama	-9.43882
▁vo	-9.43969
▁čko	-9.44012
▁oc	-9.4408
▁ijent	-9.44104
▁isa	-9.44119
▁išl	-9.44132
▁asn	-9.44133
▁dosad	-9.44229
▁vaja	-9.4426
▁vic	-9.44309
▁tiga	-9.44409
▁spor	-9.44456
▁Zbo	-9.44484
▁opće	-9.44492
▁gla	-9.44551
▁datak	-9.44575
▁slije	-9.4458
▁Kao	-9.44645
▁ovu	-9.44811
▁sijek	-9.44927
▁jedi	-9.44955
▁elj	-9.44991
▁aša	-9.45035
▁thod	-9.45155
ruj	-9.45374
▁jug	-9.45427
▁jatn	-9.45453
▁ident	-9.45523
sel	-9.4555
▁ument	-9.45637
▁kid	-9.45723
▁glasa	-9.45796
▁okus	-9.45865
▁Su	-9.45868
▁gene	-9.45892
▁kop	-9.459
▁snag	-9.46122
▁ešk	-9.46128
▁love	-9.46339
▁pute	-9.46367
▁duše	-9.46462
▁rita	-9.46623
▁nače	-9.46671
▁graf	-9.46698
zlij	-9.46702
▁tih	-9.46713
tor	-9.4677
end	-9.46817
tuž	-9.46945
▁dra	-9.46948
▁kcij	-9.47084
▁uca	-9.47128
▁ištu	-9.47147
▁tič	-9.47173
inam	-9.47203
▁islav	-9.47206
▁ziti	-9.47268
ateg	-9.47531
▁utno	-9.47538
▁ilje	-9.47572
▁itn	-9.47766
▁cel	-9.47869
pl	-9.47909
▁ch	-9.48031
▁mar	-9.48165
▁oš	-9.48407
ci	-9.48528
▁učil	-9.48532
▁etku	-9.48572
▁Jed	-9.48638
▁pjeva	-9.48669
▁žena	-9.48677
retn	-9.48727
▁lako	-9.48783
▁Ivana	-9.48833
▁kog	-9.49042
▁seks	-9.49085
▁luk	-9.49234
▁vješ	-9.49258
▁ruč	-9.49277
▁raž	-9.49302
▁ita	-9.49357
▁Aust	-9.49389
du	-9.49423
▁rist	-9.49488
▁Dom	-9.49551
▁oguće	-9.49696
▁dosta	-9.49709
▁aš	-9.49756
▁post	-9.50008
▁ijih	-9.50128
▁kupn	-9.50135
▁jasno	-9.50217
▁ekt	-9.50261
▁prič	-9.50279
▁vib	-9.50312
▁djecu	-9.50393
▁lek	-9.50511
▁slova	-9.5056
nst	-9.50581
nih	-9.50666
▁mater	-9.50754
▁njoj	-9.50811
gađ	-9.50845
▁uslu	-9.50953
▁čit	-9.50956
▁pot	-9.50993
▁tip	-9.51374
▁čem	-9.51397
▁izvo	-9.51455
▁ivati	-9.51578
njsk	-9.51639
▁anic	-9.51762
▁veni	-9.51831
▁rep	-9.51871
▁ay	-9.51915
▁Real	-9.52102
▁rid	-9.52198
▁lošk	-9.52203
▁dub	-9.52207
rod	-9.52435
▁rend	-9.5245
▁dom	-9.52551
insk	-9.5259
▁smije	-9.52712
▁amb	-9.52745
▁ektor	-9.52761
▁slič	-9.5284
▁abil	-9.52852
▁nter	-9.53065
▁ož	-9.53311
▁esn	-9.53313
▁ale	-9.53329
▁ovn	-9.53421
stan	-9.53465
kov	-9.53503
zem	-9.53537
▁omčad	-9.53699
▁popu	-9.53712
▁došao	-9.5378
▁prim	-9.53928
▁loka	-9.53971
▁elen	-9.54128
šten	-9.54198
▁pušt	-9.54259
▁nte	-9.54271
▁moglo	-9.54305
ab	-9.544
ed	-9.54492
▁bal	-9.54494
)	-9.5451
▁sti	-9.54542
▁torak	-9.54579
▁Šp	-9.54619
▁gal	-9.54686
▁ičko	-9.54756
▁astav	-9.54761
▁zla	-9.54834
▁rs	-9.54914
▁prva	-9.54942
▁loga	-9.55037
jež	-9.55102
▁konc	-9.55115
▁stra	-9.55207
▁Luka	-9.55294
onir	-9.55393
▁Mir	-9.55485
▁ispit	-9.55499
pred	-9.55521
▁11	-9.55531
▁nosn	-9.55602
▁estr	-9.55615
▁opis	-9.55638
lađ	-9.5564
▁si	-9.55656
▁ući	-9.55669
▁ijel	-9.55827
mjer	-9.55846
V	-9.55889
▁Ar	-9.55911
uk	-9.55912
▁kuša	-9.55931
▁model	-9.55991
▁neka	-9.56034
▁spje	-9.56228
▁vođ	-9.56248
▁aju	-9.56261
▁mag	-9.5639
▁rof	-9.56403
▁bora	-9.56446
vač	-9.56684
▁nap	-9.56766
naž	-9.56813
▁stiče	-9.5685
▁sami	-9.56852
nstv	-9.56978
▁Br	-9.56985
▁kola	-9.56996
▁50	-9.56996
▁Prij	-9.56997
oran	-9.57003
▁rok	-9.5702
▁še	-9.57034
▁naći	-9.57192
▁nd	-9.57199
x	-9.57203
klop	-9.57286
▁rič	-9.57333
▁Marko	-9.57344
▁ivotu	-9.57421
▁split	-9.5744
▁trij	-9.57491
▁Sa	-9.57673
▁dbo	-9.57731
▁BiH	-9.57757
▁gir	-9.57765
▁titi	-9.57984
▁atr	-9.58011
▁jan	-9.58094
▁kok	-9.58098
▁noć	-9.58134
kad	-9.58365
▁skrb	-9.58448
:	-9.58583
▁rvu	-9.58687
▁rasta	-9.58731
▁dobar	-9.58794
▁Ist	-9.58796
▁trud	-9.58833
rov	-9.58922
▁rvoj	-9.58982
▁spec	-9.59006
▁sva	-9.59099
▁ron	-9.59164
▁ncu	-9.59336
▁venc	-9.59337
▁Jo	-9.59425
▁nose	-9.59478
tič	-9.59628
▁artin	-9.59646
▁devet	-9.59671
▁krug	-9.59769
▁daju	-9.59849
8	-9.59859
▁ber	-9.5988
▁likom	-9.59953
4	-9.59979
▁jest	-9.60041
▁time	-9.60044
▁ema	-9.60063
▁ovim	-9.60118
▁+	-9.60137
▁ara	-9.60301
▁konf	-9.60328
▁krv	-9.60407
▁najv	-9.60435
▁jam	-9.60591
▁oraju	-9.60603
▁entar	-9.60685
▁akv	-9.60693
▁plitu	-9.60716
▁oval	-9.60782
▁ič	-9.60915
▁PO	-9.60983
▁vođa	-9.61003
▁šić	-9.6112
▁aza	-9.61134
▁gl	-9.61185
▁sebi	-9.61214
▁dij	-9.61241
▁šp	-9.61444
▁uzrok	-9.61625
▁svima	-9.61655
▁etkom	-9.61665
▁čkoj	-9.61739
▁Grada	-9.6175
iž	-9.6182
▁mjene	-9.61842
da	-9.61908
skor	-9.62033
▁djet	-9.62261
▁emis	-9.62324
▁Modr	-9.62342
▁lig	-9.62348
▁fiz	-9.62521
▁bija	-9.62544
▁Sp	-9.62641
▁viš	-9.62669
▁moći	-9.62683
▁pogo	-9.62709
▁Ka	-9.62752
▁krit	-9.6282
▁rig	-9.6285
▁uoč	-9.62863
▁zi	-9.63124
▁vršen	-9.63257
▁oman	-9.63258
▁radio	-9.63306
▁las	-9.63317
▁DA	-9.63349
▁iraju	-9.63525
▁ored	-9.63536
▁polj	-9.63731
če	-9.63848
G	-9.63864
▁djela	-9.63874
▁bjedu	-9.6388
stv	-9.63886
▁lež	-9.6395
▁sukob	-9.63992
▁moj	-9.64067
▁Mil	-9.64081
boj	-9.64104
ndus	-9.64157
▁etn	-9.64194
▁tuž	-9.64197
▁laž	-9.64207
▁ris	-9.64219
▁ljude	-9.6435
sam	-9.64439
▁čita	-9.64579
\	-9.64587
▁piš	-9.6469
▁išić	-9.64731
▁Ra	-9.64732
▁eđen	-9.64742
jeća	-9.64836
▁otin	-9.64922
▁stol	-9.64929
▁vrata	-9.64941
▁ulaz	-9.64963
▁An	-9.64987
▁ogr	-9.65123
▁atn	-9.65187
▁laska	-9.6524
odov	-9.65265
▁18	-9.65282
▁jezik	-9.6531
▁inc	-9.6532
▁alost	-9.65482
▁rac	-9.65508
▁bol	-9.6553
▁njemu	-9.65654
▁Vi	-9.65657
▁ari	-9.65674
▁dig	-9.65721
▁Bio	-9.65746
▁olov	-9.65755
▁Danas	-9.65779
▁Inst	-9.65789
▁ign	-9.65793
▁nes	-9.65794
žev	-9.65836
▁azal	-9.65908
▁snage	-9.65909
▁rv	-9.66001
▁kić	-9.66026
▁skla	-9.66102
6	-9.66182
▁visi	-9.663
▁očet	-9.66307
osob	-9.66323
▁iln	-9.66387
▁obzir	-9.66523
▁hol	-9.66531
▁def	-9.66553
▁jećaj	-9.66613
▁komb	-9.66685
▁njen	-9.66743
misl	-9.66748
▁akter	-9.66748
▁drugo	-9.66766
▁raj	-9.66839
▁hotel	-9.66895
▁Har	-9.66909
▁tenis	-9.67144
▁srpn	-9.67202
▁zim	-9.67373
▁teren	-9.67482
▁poru	-9.67489
▁andr	-9.67585
▁Vlade	-9.67599
▁arin	-9.67887
▁alent	-9.67993
ment	-9.68002
▁fil	-9.68108
▁noge	-9.68144
rag	-9.68149
▁lj	-9.68151
▁kuha	-9.68246
▁ey	-9.68427
▁Opći	-9.68522
▁video	-9.68584
▁ratko	-9.68613
▁ičke	-9.68627
▁Me	-9.68748
▁soc	-9.68821
▁poziv	-9.69146
▁Filip	-9.69249
▁jas	-9.69256
▁igi	-9.69265
▁vela	-9.69336
tpun	-9.69338
▁mate	-9.69378
▁rel	-9.69467
▁koga	-9.69508
▁Dr	-9.6952
▁otok	-9.69544
▁oz	-9.69628
▁etan	-9.69649
▁1.	-9.69783
▁išao	-9.69804
▁došlo	-9.69839
▁aket	-9.69876
▁ambe	-9.69922
acij	-9.6997
drug	-9.69972
▁osje	-9.69973
▁bist	-9.70009
vlj	-9.70147
▁ho	-9.70203
▁mčadi	-9.70257
▁bod	-9.70331
▁jč	-9.70347
abor	-9.7036
▁adion	-9.7039
▁nism	-9.70422
prem	-9.70531
▁gar	-9.70536
▁ažn	-9.70625
GLE	-9.70639
▁zva	-9.7071
▁reba	-9.70738
w	-9.70771
▁Dok	-9.70778
aša	-9.70801
▁kažu	-9.70888
▁utin	-9.70938
▁srp	-9.70948
▁ća	-9.70983
▁udac	-9.7099
tuc	-9.70996
JTE	-9.71021
▁Mark	-9.71063
▁enjem	-9.71116
▁goj	-9.71129
liž	-9.71193
F	-9.71344
▁pol	-9.71344
▁lige	-9.71425
▁fra	-9.71444
▁ožić	-9.71539
▁mat	-9.71588
▁tira	-9.71614
▁lask	-9.71696
▁leg	-9.71701
▁NA	-9.7172
▁lici	-9.71724
▁bank	-9.71736
▁šti	-9.71744
toč	-9.7184
▁New	-9.71874
ašnj	-9.71916
▁zabio	-9.71929
▁gub	-9.72063
▁zvao	-9.721
▁moć	-9.72131
dnev	-9.7217
▁Tu	-9.72246
lar	-9.72336
slav	-9.72456
▁djeca	-9.72468
▁alb	-9.72496
▁ađa	-9.72526
▁bjekt	-9.7257
▁ha	-9.72684
▁pravi	-9.72732
čel	-9.72758
▁odmor	-9.72966
▁erenu	-9.73073
▁alko	-9.73074
▁ener	-9.73226
▁igre	-9.73272
▁žele	-9.73325
▁brak	-9.73503
▁rap	-9.73526
▁FO	-9.7354
▁tvo	-9.73541
▁java	-9.73554
▁evo	-9.73756
▁diz	-9.73967
▁doz	-9.73979
gas	-9.74055
▁šok	-9.74117
▁stane	-9.74178
▁Jur	-9.74212
▁zbor	-9.74277
az	-9.74311
jeva	-9.74343
▁uzet	-9.74391
adr	-9.74412
▁niž	-9.74454
▁ursk	-9.74466
▁nuti	-9.74485
▁roči	-9.74541
▁rimo	-9.74563
žnj	-9.74583
▁erz	-9.74601
▁ež	-9.74775
▁onku	-9.74826
▁land	-9.74831
▁alij	-9.74831
▁lju	-9.74872
jača	-9.74994
▁star	-9.75
▁sat	-9.75107
▁13	-9.75248
▁urg	-9.75275
▁ijen	-9.75326
uris	-9.75446
akc	-9.75468
▁rez	-9.75476
▁čast	-9.75554
▁rekli	-9.75584
▁đ	-9.75648
▁ajka	-9.75658
▁14	-9.75748
▁glo	-9.75762
▁ivot	-9.75771
▁tis	-9.7578
▁razum	-9.7584
▁ef	-9.76018
▁irali	-9.76029
▁ruža	-9.76071
▁epi	-9.76233
▁ražen	-9.76351
ekt	-9.76363
lošk	-9.7638
▁minj	-9.76381
ikac	-9.76392
tic	-9.76457
▁nama	-9.76475
▁dje	-9.7659
▁X	-9.76687
timo	-9.76708
▁arem	-9.76828
▁ijelo	-9.76907
▁abra	-9.76917
▁anti	-9.76941
▁ng	-9.76957
▁stalo	-9.77097
▁levi	-9.77161
▁erce	-9.77194
▁izam	-9.77218
▁čka	-9.77237
kul	-9.77249
im	-9.77322
▁Kin	-9.77348
raz	-9.77366
▁mr	-9.7737
▁tivn	-9.77591
▁40	-9.77641
▁ram	-9.77659
▁oli	-9.77735
▁Fot	-9.77737
▁oči	-9.77747
▁kin	-9.7782
▁vrh	-9.77853
▁vor	-9.77876
▁gra	-9.77956
▁oku	-9.77996
▁ork	-9.78114
▁požar	-9.78228
▁oznat	-9.78242
▁jveći	-9.78268
▁ity	-9.78286
▁bije	-9.78297
▁cik	-9.78327
▁toj	-9.78423
rist	-9.78447
3	-9.78482
nič	-9.78651
▁Vlad	-9.78689
▁vu	-9.78699
▁enik	-9.787
▁ualn	-9.78726
▁kal	-9.78832
▁gres	-9.78917
▁štr	-9.79086
▁porez	-9.79154
▁pava	-9.79193
▁norm	-9.79233
▁izm	-9.79304
▁laže	-9.79366
▁vje	-9.7946
▁ane	-9.79548
▁alni	-9.79576
▁Vid	-9.79591
▁ere	-9.79652
▁ock	-9.79725
▁ešć	-9.79741
▁aut	-9.79812
▁100	-9.79855
▁zema	-9.80028
▁dž	-9.80479
▁izik	-9.8054
▁neu	-9.80631
▁De	-9.8078
▁ovis	-9.80964
▁ožu	-9.81042
▁Iv	-9.81063
▁amp	-9.81081
▁gon	-9.81182
▁utak	-9.81235
▁ers	-9.81345
▁ijep	-9.81458
▁opada	-9.81554
▁etka	-9.81555
▁jni	-9.81672
▁rec	-9.81674
▁tekst	-9.81736
▁eku	-9.81762
▁trk	-9.8178
▁žene	-9.81953
▁17	-9.81992
▁bud	-9.82111
▁osn	-9.82184
▁dali	-9.82191
▁mali	-9.82275
rsk	-9.82307
▁ziv	-9.82358
▁ukov	-9.82373
▁Luk	-9.82387
▁iru	-9.82392
▁odig	-9.82452
▁vidi	-9.82503
pad	-9.82594
▁ori	-9.82627
▁ariz	-9.8286
▁indi	-9.8293
ig	-9.82975
▁pas	-9.82983
▁zvan	-9.8301
▁ču	-9.83095
▁der	-9.8311
▁šću	-9.8312
▁16	-9.83235
▁arij	-9.83359
▁Pe	-9.83461
▁iječ	-9.8364
▁inja	-9.83708
▁ich	-9.83813
▁gen	-9.83817
prič	-9.83912
7	-9.84096
▁vet	-9.84144
tual	-9.84213
▁nt	-9.84362
▁lago	-9.84421
▁ex	-9.84471
▁ilj	-9.8451
▁dvor	-9.84511
▁ćenj	-9.84692
▁svet	-9.84694
▁hoće	-9.84695
▁plov	-9.84701
▁rač	-9.84784
▁abran	-9.84921
▁ovao	-9.85018
▁izma	-9.85084
▁Đ	-9.85134
▁mos	-9.85206
▁edan	-9.85283
▁noći	-9.85423
sion	-9.85489
▁ujemo	-9.85519
▁pola	-9.85555
▁inira	-9.85608
▁staju	-9.85685
▁Mos	-9.85694
▁aciji	-9.85788
▁latn	-9.85793
▁gre	-9.85874
▁aja	-9.85945
▁kolu	-9.85972
▁lice	-9.85998
▁onos	-9.86016
▁jaci	-9.86047
mir	-9.86098
▁utra	-9.8616
▁uva	-9.86172
▁raš	-9.86175
▁gn	-9.86273
▁kupa	-9.86352
uzet	-9.86435
▁eogr	-9.86527
▁išt	-9.86544
▁ašk	-9.86575
▁svjed	-9.86693
▁dola	-9.86743
▁RTL	-9.86767
▁Ta	-9.86823
stič	-9.86831
▁odlu	-9.86907
ljen	-9.86992
ćin	-9.87076
▁abl	-9.87164
▁tic	-9.87166
▁pisan	-9.87206
▁juč	-9.87208
▁zon	-9.87262
▁brat	-9.87275
▁pad	-9.87275
▁vez	-9.87291
▁rest	-9.87526
▁iše	-9.87554
▁tez	-9.8759
▁ranj	-9.87599
▁ortu	-9.87681
▁nstr	-9.87684
▁ved	-9.87686
▁voza	-9.87708
▁che	-9.8772
▁dion	-9.87751
▁plać	-9.87761
▁div	-9.87831
▁w	-9.87853
▁šta	-9.87864
▁show	-9.87971
▁ukr	-9.87978
nic	-9.8813
▁kav	-9.88146
2	-9.88163
▁vanj	-9.8827
▁ijev	-9.8833
▁ru	-9.88366
▁ljav	-9.88435
min	-9.88441
▁kul	-9.88494
▁DP	-9.88504
▁taln	-9.88552
▁voje	-9.88572
▁19	-9.8859
▁klju	-9.88703
▁rut	-9.88754
▁iden	-9.88765
▁di	-9.88876
▁eć	-9.88888
▁25	-9.88951
▁ept	-9.88957
▁olim	-9.89056
▁jk	-9.89095
▁Sam	-9.89112
▁ovit	-9.89121
edb	-9.89159
▁vora	-9.89239
▁čeln	-9.89285
▁ario	-9.89312
▁rtal	-9.89333
▁uru	-9.89377
▁enuo	-9.89469
▁pam	-9.89471
▁atiti	-9.89524
▁imb	-9.89561
▁akl	-9.89599
▁eki	-9.89821
▁bijen	-9.89863
▁ater	-9.89979
Z	-9.9007
▁Pod	-9.90104
▁tac	-9.90321
ub	-9.90341
▁eret	-9.9037
▁otiv	-9.9042
kupn	-9.90517
▁ših	-9.90536
▁kovit	-9.90668
▁24	-9.90865
▁etsk	-9.90899
▁zele	-9.91015
▁El	-9.91016
▁apad	-9.91076
▁staj	-9.91383
▁pomo	-9.91478
▁voda	-9.91588
▁Mad	-9.9182
▁njom	-9.91855
▁Novi	-9.91859
glas	-9.91907
▁ažni	-9.92018
▁vako	-9.92079
▁ook	-9.92104
daš	-9.92118
▁igr	-9.9229
▁škar	-9.92319
▁gosti	-9.92388
stit	-9.92481
▁mom	-9.92505
▁aps	-9.92719
▁bus	-9.9282
▁art	-9.9284
las	-9.92885
▁men	-9.92926
▁reš	-9.93116
▁ival	-9.93117
▁ail	-9.93166
▁eća	-9.93175
▁anta	-9.93364
▁obil	-9.93386
▁ajk	-9.93507
▁upa	-9.93583
▁reza	-9.93602
▁ardi	-9.93602
▁hoda	-9.93684
▁roč	-9.93711
▁und	-9.93801
▁ige	-9.93856
▁danj	-9.93881
ter	-9.93984
▁eter	-9.94036
▁run	-9.94088
▁ast	-9.94143
▁kata	-9.94225
▁anima	-9.94231
čer	-9.94358
▁oks	-9.9436
šao	-9.94379
ramo	-9.94556
H	-9.94603
▁rab	-9.94617
▁eta	-9.94641
▁Le	-9.94709
▁lozi	-9.94855
▁Žel	-9.94866
▁aleko	-9.94922
nut	-9.94943
▁ovač	-9.94949
▁noš	-9.94957
▁kral	-9.94977
▁hi	-9.94987
▁mad	-9.95
▁tpisa	-9.95055
▁otpis	-9.95077
▁ly	-9.95122
▁Os	-9.9543
ton	-9.95574
▁lavn	-9.95617
ženj	-9.95652
▁pao	-9.95667
▁dić	-9.96016
▁movi	-9.96254
▁kinj	-9.96263
▁uput	-9.96336
▁HRT	-9.96353
▁esu	-9.96368
▁kim	-9.96377
▁redu	-9.96513
▁tele	-9.96549
eđen	-9.96624
▁cem	-9.96652
▁inca	-9.96687
▁ref	-9.96711
▁hva	-9.96724
▁ato	-9.9675
▁ljsk	-9.96753
▁hla	-9.96866
▁dem	-9.96911
▁ijes	-9.96934
ral	-9.97051
▁šeg	-9.97115
lup	-9.97125
▁odom	-9.97184
▁ena	-9.97323
N	-9.97384
▁tarn	-9.9744
▁agan	-9.97545
▁kući	-9.97574
▁ton	-9.97597
▁rum	-9.97671
▁olin	-9.97703
▁očn	-9.97788
▁TV	-9.97801
seb	-9.97897
▁Pods	-9.9794
▁HNL	-9.97995
▁ziva	-9.98085
▁itk	-9.98142
▁aši	-9.98192
▁vog	-9.98242
▁kle	-9.98526
▁važ	-9.98587
▁Evo	-9.98599
▁entr	-9.98775
▁agn	-9.98926
▁šin	-9.9893
▁sir	-9.98974
▁amer	-9.99015
▁ene	-9.99097
▁erij	-9.99138
▁javno	-9.9918
▁lok	-9.99233
▁port	-9.99355
▁ikl	-9.9945
▁dokaz	-9.99516
▁kih	-9.99554
▁boda	-9.99582
▁azna	-9.99664
▁irani	-9.99709
▁zbu	-9.99755
▁rag	-9.99954
▁ust	-9.99956
▁osa	-9.99997
▁elu	-10.0004
▁irala	-10.0016
▁our	-10.0022
▁ick	-10.0031
▁tirao	-10.0038
▁Rim	-10.0057
▁Jak	-10.0058
▁enata	-10.0061
▁tva	-10.0071
nom	-10.0075
▁okv	-10.0083
▁už	-10.0089
▁če	-10.0103
▁iven	-10.0104
▁sel	-10.0105
▁azil	-10.0106
▁otor	-10.0111
iv	-10.0113
dej	-10.0132
▁Ve	-10.0135
▁mol	-10.0137
▁rakt	-10.0139
▁ensk	-10.0148
▁kreta	-10.0151
▁ord	-10.0152
▁ft	-10.016
▁jno	-10.0167
▁iječi	-10.0168
▁kos	-10.0183
▁vir	-10.0186
▁tp	-10.0215
▁ruke	-10.022
▁nepr	-10.0247
▁obje	-10.0248
▁ret	-10.0258
▁utr	-10.0274
▁RH	-10.0294
ziv	-10.0301
▁ikad	-10.0304
▁upo	-10.0304
▁att	-10.0305
▁Ukr	-10.0306
▁visn	-10.0307
▁torij	-10.031
▁usta	-10.0317
▁ljuje	-10.0318
▁javi	-10.032
▁duh	-10.0325
▁mjeru	-10.0326
▁rib	-10.0329
▁rank	-10.0329
▁lijun	-10.0334
▁uti	-10.0335
ljev	-10.0345
▁ond	-10.0347
▁jeća	-10.035
▁ličn	-10.0353
▁alić	-10.0353
▁fon	-10.0361
▁anke	-10.0367
nul	-10.0418
▁apa	-10.0425
▁ljivo	-10.0427
sor	-10.0459
aln	-10.0464
▁viz	-10.0501
▁Je	-10.0515
▁asa	-10.053
▁ez	-10.053
▁đe	-10.053
9	-10.0533
▁gin	-10.0533
▁lože	-10.0536
▁aze	-10.0559
▁mani	-10.0564
ljeć	-10.0576
▁šim	-10.0584
▁stil	-10.0591
▁živi	-10.0593
gij	-10.0595
▁trg	-10.0608
▁ovsk	-10.0615
▁arsk	-10.0621
▁lud	-10.0629
▁rom	-10.0645
▁lazn	-10.0648
▁alj	-10.0649
nves	-10.0651
▁anju	-10.0666
▁kriva	-10.067
ač	-10.0678
▁Dub	-10.0687
▁čar	-10.07
▁misi	-10.0717
▁lica	-10.0732
▁dužn	-10.0732
▁ujem	-10.0742
▁jih	-10.0745
▁#	-10.0747
rija	-10.0752
▁eci	-10.0768
▁inv	-10.0776
▁vezi	-10.0784
▁liv	-10.0804
gor	-10.0808
▁gani	-10.0813
▁zgled	-10.0821
▁abor	-10.0825
priv	-10.0837
▁jetn	-10.0842
▁veze	-10.0845
▁oč	-10.0848
▁ate	-10.0863
▁dobit	-10.0871
▁lada	-10.0892
▁omb	-10.0895
▁car	-10.0903
▁ljeni	-10.0919
▁icira	-10.0928
um	-10.0931
▁af	-10.0936
▁ukl	-10.0948
▁rš	-10.095
▁inale	-10.0954
▁rugu	-10.0999
▁tema	-10.1002
▁brin	-10.1005
▁šut	-10.1005
▁ind	-10.1007
▁Pred	-10.1008
▁edij	-10.101
▁Man	-10.1017
▁ren	-10.1044
rač	-10.1049
▁edn	-10.105
▁dram	-10.1051
▁rili	-10.1051
▁napo	-10.1061
▁all	-10.1073
▁hal	-10.1093
ver	-10.11
▁ošte	-10.1124
jub	-10.1135
▁Lu	-10.1142
▁rp	-10.1142
oči	-10.1144
▁ster	-10.1158
▁tre	-10.1163
▁han	-10.118
▁ošla	-10.1184
▁mjena	-10.1188
▁Tim	-10.1189
▁eve	-10.1209
▁60	-10.1215
▁opt	-10.1217
▁civ	-10.1245
▁zb	-10.1248
▁ink	-10.1253
▁ći	-10.1254
▁manji	-10.1256
▁edu	-10.1274
▁oba	-10.1279
▁ića	-10.1306
▁stro	-10.1308
▁lic	-10.1314
▁jka	-10.1327
▁traje	-10.1331
▁inic	-10.134
▁21	-10.1346
plat	-10.1354
šta	-10.1356
▁ure	-10.1365
▁ebr	-10.1399
▁jače	-10.1401
▁jasn	-10.1401
▁eru	-10.1404
jte	-10.1418
▁sje	-10.142
▁pac	-10.1424
▁kov	-10.143
▁ong	-10.1437
▁cija	-10.1439
▁vin	-10.1446
ić	-10.1446
q	-10.1447
▁ozn	-10.1453
▁idu	-10.1461
▁pala	-10.1463
▁laka	-10.1468
▁ička	-10.1472
▁juje	-10.1487
▁°	-10.1491
▁eng	-10.1492
▁jač	-10.1501
▁fic	-10.1502
▁mjera	-10.1504
▁skup	-10.1527
▁inut	-10.1533
▁adr	-10.1561
▁štvu	-10.1571
▁Kor	-10.1574
▁ban	-10.1574
▁lod	-10.1582
▁Kon	-10.1583
▁trenu	-10.1585
▁četv	-10.1591
▁ry	-10.1596
ber	-10.1607
▁2.	-10.1617
su	-10.1621
▁luš	-10.1642
▁adar	-10.1649
▁bar	-10.1653
▁avu	-10.1658
▁anjen	-10.1689
▁bij	-10.169
▁smij	-10.1697
▁orc	-10.1699
▁čk	-10.1704
▁blis	-10.1709
▁gran	-10.171
▁ame	-10.1716
▁rošlo	-10.1725
▁ugl	-10.1728
▁adu	-10.1739
vod	-10.1754
▁šal	-10.1757
▁remi	-10.1758
▁ugr	-10.1765
ard	-10.1765
▁La	-10.1775
▁čuva	-10.1776
▁dir	-10.1776
▁mjere	-10.1785
▁gno	-10.1787
▁min	-10.1798
▁točn	-10.1808
snov	-10.1815
▁trav	-10.1817
▁enti	-10.1827
▁kama	-10.1842
▁meč	-10.1844
ry	-10.185
and	-10.1853
▁ivo	-10.1861
▁teri	-10.1873
▁gramu	-10.1884
▁najm	-10.1905
▁lić	-10.1908
ht	-10.1915
▁pel	-10.1931
▁ljaj	-10.1933
▁išn	-10.1937
▁štvo	-10.1937
▁adi	-10.1947
▁optu	-10.1947
▁zira	-10.1955
▁lav	-10.1956
▁ši	-10.1968
▁ever	-10.1972
▁eut	-10.1973
zij	-10.1989
▁umu	-10.2018
▁ivač	-10.2033
vali	-10.2062
dlič	-10.2065
▁mit	-10.2068
▁arm	-10.207
▁osp	-10.2077
▁Sad	-10.2105
▁lišt	-10.211
žda	-10.2123
▁emij	-10.2125
▁jin	-10.2126
▁inske	-10.2134
▁ovan	-10.2146
spor	-10.2153
▁raga	-10.2166
pri	-10.2183
▁oram	-10.2184
▁roba	-10.2189
▁ljev	-10.2202
▁tion	-10.2208
▁stič	-10.221
▁alic	-10.2211
▁22	-10.2212
nici	-10.2218
▁enim	-10.2223
▁ajuć	-10.2232
▁kus	-10.2241
▁rž	-10.2242
▁Kar	-10.2248
▁zid	-10.2255
▁dob	-10.2271
▁ess	-10.2273
▁maš	-10.2273
▁uče	-10.2284
▁juž	-10.2297
▁mil	-10.231
▁asti	-10.2312
▁ormi	-10.2313
▁rvo	-10.2315
▁rak	-10.2318
▁uha	-10.2325
▁iješ	-10.2337
▁ji	-10.2338
ip	-10.2338
▁stru	-10.2343
▁dlič	-10.2348
▁nevn	-10.2363
gar	-10.2364
▁Ove	-10.2368
▁traži	-10.2368
▁plj	-10.237
▁tiv	-10.2372
▁spek	-10.238
▁Špan	-10.2382
▁zas	-10.2386
der	-10.2398
▁Ho	-10.2411
▁đen	-10.2415
▁kanal	-10.2419
▁iro	-10.2427
▁pap	-10.2438
▁eza	-10.2441
▁ade	-10.2445
▁jača	-10.2461
▁este	-10.2465
▁ler	-10.2473
▁Jel	-10.2473
▁zij	-10.2485
▁šten	-10.2494
▁anin	-10.2496
▁3.	-10.2502
▁arhi	-10.2506
▁isc	-10.251
▁nado	-10.2532
if	-10.2537
man	-10.254
▁obno	-10.2549
▁znati	-10.2576
▁avati	-10.2587
▁vla	-10.2589
▁ondo	-10.2592
kraj	-10.2612
▁čkom	-10.2621
▁mage	-10.2633
,5	-10.2635
▁dam	-10.2636
"	-10.2641
▁ruku	-10.2643
▁kro	-10.2644
▁tari	-10.2646
▁azum	-10.2649
▁seg	-10.265
▁Car	-10.2654
▁idr	-10.266
▁izb	-10.2665
▁riv	-10.268
▁akva	-10.2693
▁žal	-10.2694
▁iver	-10.2696
▁orb	-10.2704
▁rst	-10.2712
što	-10.2713
stoj	-10.2715
▁ugo	-10.272
▁nudi	-10.273
aci	-10.2735
▁rca	-10.2743
▁iri	-10.2747
▁Fr	-10.2753
▁enici	-10.2758
▁ans	-10.2763
▁kasn	-10.2765
▁đu	-10.2773
▁enut	-10.2773
▁omin	-10.2773
▁jeva	-10.2775
▁ow	-10.2779
▁ljeć	-10.278
▁Ad	-10.2817
▁ržava	-10.2825
▁eko	-10.2833
▁edr	-10.2843
otiv	-10.2844
▁eor	-10.2852
▁esl	-10.2867
▁luc	-10.2867
▁raka	-10.2872
▁lor	-10.2873
▁plaće	-10.2876
▁diza	-10.2907
▁7.	-10.2909
▁ovac	-10.2922
▁klu	-10.2931
▁nogi	-10.2937
klju	-10.2939
▁Nik	-10.2945
▁rska	-10.2946
▁uću	-10.2949
▁rago	-10.2981
nuti	-10.2989
▁we	-10.2992
ho	-10.2993
▁či	-10.3026
▁ruž	-10.305
▁net	-10.3056
▁upc	-10.3082
▁ožemo	-10.3084
▁hor	-10.3088
▁znato	-10.3102
▁iel	-10.3103
▁he	-10.3104
BC	-10.311
▁godio	-10.3114
▁evet	-10.3115
▁elim	-10.3126
▁form	-10.3133
▁pla	-10.3134
▁čev	-10.3137
▁nula	-10.3149
▁znala	-10.3151
hva	-10.3156
▁aksi	-10.3173
▁rva	-10.3195
ay	-10.3202
▁gro	-10.3204
▁šav	-10.3207
▁uzd	-10.3217
▁rob	-10.3219
▁ula	-10.322
▁grade	-10.3221
▁Eur	-10.3225
OK	-10.3235
▁jeto	-10.3241
▁šla	-10.3247
ef	-10.3257
▁esto	-10.3261
▁ver	-10.3262
▁njsk	-10.3263
▁ivan	-10.3274
▁činje	-10.3303
▁rsta	-10.3308
dm	-10.3308
▁bitel	-10.3309
▁med	-10.3311
▁lom	-10.3312
▁ern	-10.3323
▁Pal	-10.3328
▁oji	-10.3328
▁rava	-10.3328
▁15.	-10.3338
▁akve	-10.3345
▁jko	-10.3358
▁asp	-10.3365
▁ede	-10.3366
sve	-10.338
▁ečk	-10.3381
ubot	-10.339
▁apl	-10.3394
▁ros	-10.3398
▁ivao	-10.3421
▁doba	-10.3423
▁ječ	-10.3423
▁Sl	-10.3427
▁kot	-10.3427
▁Tik	-10.3447
▁tere	-10.3452
▁misli	-10.3483
▁uli	-10.3491
▁govi	-10.35
▁Par	-10.3503
▁doga	-10.3504
▁23	-10.3508
▁loz	-10.3509
▁teme	-10.3511
▁nves	-10.3516
▁akon	-10.3516
vin	-10.3519
▁mon	-10.352
▁išu	-10.3524
▁lji	-10.3525
▁ulje	-10.3525
▁koč	-10.3532
▁rd	-10.3533
▁bje	-10.3534
▁emu	-10.3534
▁moto	-10.3536
▁judi	-10.354
▁rik	-10.3541
liti	-10.3546
▁Pol	-10.3547
▁traže	-10.3548
sre	-10.3551
▁jesen	-10.3563
▁rve	-10.3564
▁ham	-10.3571
▁rč	-10.359
▁inov	-10.3593
rat	-10.3595
▁hum	-10.3626
▁kli	-10.3634
▁iba	-10.3644
▁sama	-10.3647
▁Is	-10.3658
▁aste	-10.3681
▁mini	-10.3698
▁Vu	-10.3716
▁otk	-10.3735
▁abora	-10.3735
▁odin	-10.3737
▁tal	-10.3752
▁avl	-10.3753
▁alna	-10.3764
tičk	-10.3765
▁gij	-10.3769
▁araj	-10.3783
zin	-10.3795
▁Dal	-10.3799
▁treće	-10.3804
truk	-10.3817
▁aust	-10.3821
▁5.	-10.3822
▁inom	-10.3825
činj	-10.3829
▁obal	-10.3834
per	-10.3834
J	-10.3836
▁ermin	-10.384
▁atur	-10.3843
▁jež	-10.3848
▁lus	-10.385
▁ačko	-10.3873
▁Q	-10.3876
▁iču	-10.3877
▁tet	-10.3881
▁rske	-10.3901
▁tičn	-10.3903
▁spr	-10.3911
▁Op	-10.3912
▁niji	-10.3919
▁van	-10.3924
▁rce	-10.3928
▁mlj	-10.393
▁Tr	-10.3936
▁onov	-10.3938
▁muzej	-10.3942
▁jviš	-10.3949
BA	-10.3954
W	-10.3969
trag	-10.3972
van	-10.3972
▁von	-10.3976
5	-10.4007
▁emlj	-10.4008
mil	-10.4018
▁čel	-10.4018
▁amen	-10.4023
▁70	-10.403
▁aru	-10.4031
▁acima	-10.4031
▁ank	-10.4031
lne	-10.4042
▁ađ	-10.4045
▁sjeć	-10.4058
▁atke	-10.4062
▁sob	-10.4068
▁šlj	-10.4071
▁iku	-10.4075
▁olik	-10.4078
▁AL	-10.4079
▁tok	-10.4087
▁ešt	-10.4088
▁jeci	-10.4098
▁jeć	-10.4101
▁četi	-10.4105
▁ljač	-10.4106
▁anij	-10.4114
▁tima	-10.4127
▁zer	-10.4136
▁20.	-10.4137
▁kuh	-10.4149
▁ajno	-10.4156
▁jači	-10.4163
▁roz	-10.4175
▁ash	-10.4192
▁vira	-10.4215
▁etk	-10.4216
▁orn	-10.4233
▁ix	-10.4239
▁obi	-10.4242
▁alan	-10.4256
▁suđ	-10.4263
▁x	-10.4271
▁Sva	-10.4273
▁Ben	-10.4284
▁rij	-10.4293
▁orit	-10.4293
▁nud	-10.43
▁omu	-10.4304
▁Us	-10.4312
▁etv	-10.432
RA	-10.4321
▁gađa	-10.4329
▁reži	-10.4338
▁4.	-10.4338
▁11.	-10.435
▁tić	-10.4366
▁ohn	-10.44
▁lar	-10.4403
▁prez	-10.4406
▁vina	-10.4408
▁onic	-10.4422
▁nač	-10.4426
▁stic	-10.4437
▁80	-10.4437
▁jstvo	-10.4445
bil	-10.4454
▁rg	-10.4455
▁lam	-10.4455
▁kand	-10.4467
▁sna	-10.4473
▁vak	-10.4475
▁etin	-10.4475
▁ual	-10.4475
rak	-10.4482
▁kć	-10.4484
▁uza	-10.4487
▁reta	-10.4498
▁esta	-10.4508
▁db	-10.4514
▁deb	-10.4517
▁era	-10.4521
▁adić	-10.4535
▁esk	-10.4536
▁rim	-10.4543
▁ami	-10.4552
▁eln	-10.4555
▁ređ	-10.4555
▁tric	-10.4566
▁nti	-10.4566
dav	-10.4567
▁čku	-10.4571
▁otpor	-10.458
dru	-10.4582
▁riž	-10.4583
▁ted	-10.4603
▁voli	-10.4609
▁ačić	-10.461
▁ifi	-10.4621
▁onč	-10.4626
lič	-10.4652
▁Kl	-10.4656
▁imu	-10.4666
▁vide	-10.4667
▁roku	-10.4671
▁Ham	-10.4672
▁rugi	-10.4674
▁17.	-10.4677
▁line	-10.4681
▁upit	-10.4699
▁35	-10.4708
▁znali	-10.4715
▁rija	-10.4715
bar	-10.4718
▁spo	-10.4723
▁rolaz	-10.4725
▁fr	-10.4726
▁ktiv	-10.4729
▁lub	-10.4747
▁truk	-10.4747
▁ura	-10.475
▁rsk	-10.4758
▁JE	-10.476
▁oza	-10.4765
▁šć	-10.4765
▁mis	-10.4773
▁mre	-10.479
▁8.	-10.479
▁90	-10.4796
▁ota	-10.4797
▁cip	-10.4799
▁aran	-10.48
▁astu	-10.4801
'	-10.481
kir	-10.4823
▁ino	-10.4837
▁roj	-10.4848
▁ndi	-10.4868
voj	-10.4879
▁30.	-10.488
▁klop	-10.4894
▁ašl	-10.4897
duz	-10.4899
ću	-10.4908
▁niv	-10.4911
▁šanse	-10.4915
▁Kod	-10.4917
▁geo	-10.4918
▁ladi	-10.4919
▁jelom	-10.493
▁12.	-10.4934
▁anc	-10.4958
▁ote	-10.4962
▁ogu	-10.4968
form	-10.4979
ljiv	-10.4989
▁Var	-10.4992
▁nsk	-10.4995
▁umir	-10.5004
▁Mor	-10.5013
mor	-10.5014
▁hu	-10.5016
▁slob	-10.502
▁udi	-10.5024
vak	-10.5059
▁nis	-10.5083
▁duš	-10.5096
▁ideo	-10.51
▁posl	-10.5103
▁vil	-10.5105
šnj	-10.5132
▁utn	-10.5138
▁the	-10.5149
▁ičan	-10.515
▁rek	-10.5154
▁dep	-10.5158
▁adam	-10.5169
▁eće	-10.5178
lek	-10.5185
sil	-10.5194
▁alat	-10.5203
▁agi	-10.5204
▁posv	-10.5222
▁apan	-10.5222
▁erb	-10.5227
▁rano	-10.5229
tud	-10.5244
▁dim	-10.5259
▁olo	-10.5261
▁sluš	-10.5263
▁rub	-10.5263
▁maže	-10.5278
▁imal	-10.528
▁peri	-10.5284
sij	-10.5284
▁oro	-10.5291
̌	-10.5306
▁*	-10.5306
▁rit	-10.5307
ban	-10.531
▁atra	-10.5337
▁azu	-10.5343
▁jut	-10.5344
▁rc	-10.5356
▁com	-10.5359
▁ela	-10.5365
▁lač	-10.5375
▁10.	-10.5377
▁amar	-10.5386
sh	-10.5408
▁bilj	-10.5409
▁jm	-10.541
čkom	-10.5413
NS	-10.5424
▁avk	-10.5427
▁topa	-10.543
▁idim	-10.5435
▁agen	-10.5436
▁jave	-10.5447
osl	-10.5449
▁nađe	-10.545
▁okret	-10.5455
▁ordan	-10.5463
▁har	-10.548
▁ačn	-10.5481
▁lac	-10.5487
▁ois	-10.5492
▁Ana	-10.5501
▁etar	-10.5503
▁Bit	-10.5513
▁jaš	-10.552
▁avak	-10.5534
▁lagan	-10.5543
▁ulja	-10.5569
▁ular	-10.5576
čiv	-10.5578
▁riz	-10.5596
▁avn	-10.5603
ica	-10.5611
▁kril	-10.5615
▁naž	-10.5628
▁tik	-10.5633
▁opa	-10.5647
ijsk	-10.5649
sklj	-10.5659
▁for	-10.5663
dit	-10.5666
▁dres	-10.5675
▁čas	-10.5685
▁čević	-10.5691
▁vrdi	-10.5692
▁atima	-10.5695
▁rskoj	-10.5696
▁uća	-10.5697
▁pisu	-10.5709
▁avid	-10.571
▁lavi	-10.571
▁hel	-10.5714
▁Du	-10.5714
▁ažu	-10.5722
▁jima	-10.5727
▁ivaj	-10.5732
▁Mih	-10.5733
▁6.	-10.5733
▁esa	-10.5747
▁ora	-10.5763
▁Vel	-10.5766
▁alen	-10.5774
▁Ev	-10.5789
▁rovo	-10.5789
▁anim	-10.5798
▁ljuju	-10.5817
▁inje	-10.5821
▁go	-10.5822
▁greb	-10.5833
▁raca	-10.5836
▁cira	-10.5837
▁ERIJ	-10.5844
▁alka	-10.5845
▁vim	-10.5847
▁stov	-10.5857
▁Sela	-10.5866
▁kvar	-10.5867
▁uka	-10.5881
šti	-10.5891
▁rizn	-10.5911
▁etak	-10.5914
▁ket	-10.5933
▁ido	-10.5937
mb	-10.5942
▁iral	-10.5946
▁rz	-10.5952
▁19.	-10.5953
▁ijeme	-10.5955
▁18.	-10.5958
▁užn	-10.5958
▁ole	-10.5961
▁upu	-10.5964
▁arni	-10.5968
▁ier	-10.5969
▁26	-10.5977
▁iam	-10.5983
eć	-10.5997
▁zg	-10.5998
▁jenje	-10.6029
▁kvad	-10.604
▁poslu	-10.604
▁roje	-10.6041
▁tine	-10.6044
▁14.	-10.6049
▁rza	-10.6053
▁lađ	-10.6062
▁etra	-10.6066
▁aci	-10.6089
▁dent	-10.6099
▁emi	-10.6102
ger	-10.6108
▁bli	-10.6116
▁lag	-10.6133
▁anci	-10.6145
▁esen	-10.615
▁gi	-10.6151
▁šećer	-10.6154
▁ibe	-10.6162
bij	-10.6166
▁eto	-10.617
▁13.	-10.6175
▁dik	-10.6182
▁uta	-10.6199
▁Af	-10.62
▁ore	-10.6223
▁stavi	-10.6225
▁arton	-10.6229
▁Sal	-10.6247
▁mogl	-10.6248
▁Rep	-10.6252
▁ge	-10.6256
▁vama	-10.6259
▁nako	-10.626
▁adio	-10.6268
1.	-10.627
▁ača	-10.6272
▁Go	-10.628
▁enk	-10.6284
▁lum	-10.6285
fer	-10.6288
▁jesti	-10.6321
ktiv	-10.6325
bin	-10.633
▁vj	-10.6331
▁arc	-10.6342
lišt	-10.6344
▁tožer	-10.6346
▁21.	-10.6354
▁lis	-10.6354
▁9.	-10.6369
▁aže	-10.6376
@	-10.6377
▁pub	-10.6388
ster	-10.6411
▁utk	-10.6418
▁igl	-10.6431
▁last	-10.645
▁fin	-10.6464
ved	-10.6471
▁Kol	-10.6474
▁ric	-10.6476
▁tart	-10.6476
▁Pav	-10.649
▁gura	-10.6502
▁Ti	-10.651
Ne	-10.6525
▁rate	-10.6529
▁imi	-10.654
▁kova	-10.6544
▁taš	-10.6546
▁adn	-10.6565
▁orin	-10.6573
▁uga	-10.659
▁ult	-10.6591
▁bazen	-10.6592
▁vit	-10.6607
▁uška	-10.6611
▁osu	-10.6615
▁ism	-10.6637
▁čije	-10.6642
▁onz	-10.6653
▁PU	-10.6662
▁aro	-10.6668
▁500	-10.667
▁itan	-10.6674
▁čen	-10.6704
▁kovi	-10.6706
▁_	-10.6706
mije	-10.6706
AC	-10.6724
▁16.	-10.6726
▁dljiv	-10.6743
▁gas	-10.6747
▁gri	-10.675
▁urs	-10.675
▁uto	-10.6769
▁jesni	-10.677
▁mod	-10.6777
▁asc	-10.6786
▁Mik	-10.6803
20	-10.6804
▁elo	-10.6816
▁adnik	-10.6841
▁rci	-10.6841
▁anac	-10.6841
▁sla	-10.6847
▁nira	-10.6854
▁dnj	-10.6859
▁ilm	-10.6859
▁Paul	-10.6868
▁ukra	-10.6872
▁olu	-10.6873
▁lasi	-10.6877
▁Nek	-10.6889
▁ze	-10.6896
▁kota	-10.6898
▁olje	-10.6905
zuj	-10.6908
▁sav	-10.6911
▁araž	-10.6914
▁gore	-10.6917
▁arr	-10.6923
▁ebe	-10.6954
▁Red	-10.6955
▁dop	-10.6977
▁edo	-10.6983
▁Te	-10.6987
▁vanja	-10.6992
▁ijeti	-10.6997
▁snik	-10.7014
▁nzi	-10.7016
▁ustr	-10.7019
▁njav	-10.7032
ben	-10.7036
▁tual	-10.7037
▁kaž	-10.7037
▁rb	-10.7039
▁eda	-10.7046
▁ašava	-10.7054
▁šnj	-10.7063
▁miris	-10.7063
▁bave	-10.7064
▁vala	-10.7065
▁vač	-10.7078
▁Ni	-10.7078
▁Met	-10.7085
▁avno	-10.709
▁UN	-10.7093
▁arme	-10.7094
▁itar	-10.7116
▁enih	-10.7119
par	-10.7151
▁ljubi	-10.7175
▁odao	-10.7175
▁ovak	-10.7178
▁45	-10.7183
▁sobn	-10.7187
▁stre	-10.719
▁ive	-10.7198
▁enat	-10.7219
▁300	-10.7219
▁ya	-10.7223
▁omij	-10.7223
dan	-10.723
▁vrši	-10.7238
▁trak	-10.724
▁oru	-10.724
▁lut	-10.7264
▁ger	-10.7295
sin	-10.7297
▁adov	-10.7303
▁22.	-10.7305
▁lać	-10.7313
▁eško	-10.7313
▁cion	-10.7321
▁anija	-10.7351
▁auz	-10.7354
▁gu	-10.7355
▁rne	-10.7356
kc	-10.7358
▁ael	-10.7367
▁ovića	-10.7376
To	-10.7387
▁ijem	-10.7397
▁štva	-10.7397
▁uda	-10.7402
▁radu	-10.7411
▁Zv	-10.7427
▁kut	-10.7453
▁ače	-10.7459
▁edb	-10.746
▁lid	-10.7461
▁tka	-10.7466
▁Em	-10.7469
▁jeći	-10.7479
▁26.	-10.7479
▁laš	-10.7484
▁rh	-10.7493
▁mica	-10.7522
▁atori	-10.7531
ORH	-10.7542
čku	-10.7548
▁obol	-10.7556
▁nemo	-10.7561
lov	-10.7576
▁udu	-10.7577
▁her	-10.7578
▁ico	-10.7582
▁29.	-10.7584
▁led	-10.7584
▁most	-10.759
VD	-10.7593
▁irekt	-10.7605
▁pra	-10.7605
▁vezu	-10.7606
▁reću	-10.761
▁ops	-10.7611
▁Dva	-10.7627
▁djec	-10.7632
▁nic	-10.7647
▁ivali	-10.7657
▁egr	-10.7662
▁tili	-10.7669
▁iga	-10.7671
▁ajem	-10.7672
▁eran	-10.7682
▁avlj	-10.7691
lid	-10.7701
▁ksi	-10.7702
▁Jer	-10.7703
▁Mile	-10.7706
▁leda	-10.7709
▁rođ	-10.7719
dom	-10.772
▁Sh	-10.7735
▁eđa	-10.7743
▁eso	-10.7745
▁ušk	-10.7746
▁ožen	-10.7753
▁zgr	-10.7759
▁zne	-10.7768
▁oril	-10.7781
▁čim	-10.7781
▁ljeća	-10.7792
▁odjel	-10.7796
▁rge	-10.781
▁erg	-10.7835
▁mot	-10.7838
▁elit	-10.7843
ažu	-10.7843
▁jd	-10.7871
▁ezo	-10.7871
▁bjas	-10.7874
▁wa	-10.7886
▁Ban	-10.79
▁Dana	-10.7904
▁Bor	-10.7911
▁načaj	-10.7914
▁erk	-10.7914
▁etro	-10.7923
psk	-10.7933
▁žu	-10.7934
▁rta	-10.795
▁aku	-10.7951
tog	-10.7952
▁dno	-10.7954
cy	-10.7956
ože	-10.7973
▁vad	-10.799
▁omet	-10.8001
▁agl	-10.8038
▁chef	-10.8039
▁mark	-10.8047
▁ošk	-10.8059
▁wit	-10.8064
▁Or	-10.8067
▁ass	-10.807
▁usa	-10.8079
▁alja	-10.808
▁jna	-10.8083
▁miš	-10.8087
▁fak	-10.8096
▁aše	-10.8096
▁pir	-10.8097
▁nike	-10.81
▁mena	-10.8107
▁jetio	-10.8108
jeć	-10.8113
▁čani	-10.8126
▁dek	-10.8133
▁atl	-10.8138
▁ance	-10.8138
▁mira	-10.8141
▁You	-10.8142
▁jenja	-10.8143
graf	-10.8146
▁inir	-10.8149
▁25.	-10.8162
▁kona	-10.8167
▁part	-10.8187
NA	-10.8199
▁elem	-10.8207
▁etu	-10.8217
▁Gal	-10.8221
▁moc	-10.8222
▁Spor	-10.8241
▁ček	-10.8244
▁erge	-10.8251
▁opad	-10.8257
▁tno	-10.8262
▁vjeti	-10.8266
▁istu	-10.8266
▁udio	-10.8267
▁ovine	-10.8269
▁pali	-10.8272
ič	-10.8272
▁mreža	-10.8272
▁32	-10.8278
▁umi	-10.828
▁age	-10.8285
▁nese	-10.8286
▁olest	-10.8288
▁org	-10.8317
▁spol	-10.832
▁km	-10.8343
▁28.	-10.8343
▁stin	-10.8345
▁edi	-10.8349
▁šk	-10.8359
▁ekiv	-10.836
▁urba	-10.8364
dv	-10.837
▁28	-10.8374
▁ljud	-10.8374
▁dluk	-10.8377
▁upn	-10.8389
▁licu	-10.8394
▁takm	-10.8395
rstv	-10.8399
ram	-10.8402
▁reni	-10.8406
▁vaj	-10.841
▁els	-10.8426
▁roni	-10.8429
▁enost	-10.8439
▁rup	-10.844
▁kvart	-10.8442
▁žen	-10.8446
▁nski	-10.8449
▁1,	-10.8455
▁reka	-10.8458
my	-10.8459
▁aziv	-10.8468
▁ovor	-10.847
▁For	-10.8491
▁mob	-10.8495
▁oki	-10.85
▁kun	-10.8529
▁jaja	-10.8541
▁oci	-10.8544
tul	-10.8553
▁šire	-10.8566
▁orav	-10.857
▁titu	-10.8593
▁oče	-10.8594
▁ekc	-10.8596
▁potr	-10.8615
▁ert	-10.8623
▁čuj	-10.8633
▁aren	-10.8641
▁telja	-10.8662
▁erc	-10.8663
▁ziran	-10.8664
▁pat	-10.8669
▁ajan	-10.867
▁pove	-10.8671
▁Dio	-10.8675
▁jac	-10.8691
▁mog	-10.8714
▁150	-10.8714
ndid	-10.8723
ux	-10.8744
▁oric	-10.8744
▁tum	-10.8745
▁USK	-10.8748
▁oriti	-10.8765
▁tru	-10.8775
▁edin	-10.8777
▁ivi	-10.8782
▁gim	-10.8792
▁24.	-10.8799
▁niza	-10.8808
▁ćenje	-10.8816
▁enama	-10.8829
▁36	-10.8831
▁rlj	-10.8841
▁Val	-10.8846
▁Ot	-10.8847
▁ekuj	-10.8849
▁tisu	-10.886
▁ivim	-10.887
▁ašte	-10.8876
▁wi	-10.8881
▁zir	-10.8888
▁AI	-10.8888
▁dani	-10.8902
ađa	-10.8903
▁aćen	-10.8907
▁ake	-10.8911
50	-10.892
▁Zd	-10.8932
MA	-10.8938
▁olju	-10.8945
▁đenj	-10.8958
▁31.	-10.896
und	-10.8962
▁reci	-10.8965
▁obra	-10.8981
▁aviti	-10.8985
zme	-10.8986
▁aha	-10.899
▁rgov	-10.8996
▁oslov	-10.8996
pis	-10.9007
tik	-10.9023
▁zlij	-10.9037
▁šum	-10.9042
▁anko	-10.9043
sen	-10.9049
▁Mis	-10.9054
▁enog	-10.9062
▁ačke	-10.9068
▁ivost	-10.9074
▁San	-10.9078
▁upe	-10.9079
▁elja	-10.9081
▁tov	-10.9088
▁eške	-10.9091
▁ruga	-10.9096
▁šef	-10.9097
▁ovara	-10.9109
▁rena	-10.9113
▁del	-10.9114
ket	-10.9125
▁ml	-10.913
▁tona	-10.914
▁aster	-10.9143
▁lon	-10.9151
▁eras	-10.9167
ys	-10.9172
▁nf	-10.919
▁došl	-10.9192
ow	-10.9215
▁čenj	-10.9217
▁lup	-10.9219
ičar	-10.9227
▁EP	-10.9247
▁osm	-10.9253
▁23.	-10.9254
▁pop	-10.9256
▁oyo	-10.9265
nos	-10.9266
▁uči	-10.9266
▁živo	-10.9279
▁HNK	-10.929
▁emit	-10.9293
▁27	-10.9321
▁ikada	-10.9336
▁odli	-10.9352
▁SP	-10.9354
▁lti	-10.9361
▁igu	-10.9365
▁nić	-10.937
▁uris	-10.9371
▁čno	-10.9388
▁asil	-10.9396
▁remn	-10.9401
tov	-10.9401
▁vard	-10.9406
tira	-10.9408
▁jez	-10.9415
▁ekla	-10.9418
▁55	-10.9422
uel	-10.9426
▁jaj	-10.944
već	-10.9443
vid	-10.9448
ice	-10.946
▁rot	-10.9461
▁nca	-10.9477
▁ečaj	-10.9497
▁nc	-10.9513
▁adil	-10.9515
jal	-10.9519
▁alt	-10.9527
▁ijeg	-10.9539
djet	-10.954
▁€	-10.9545
▁akar	-10.9557
▁bali	-10.956
▁sobno	-10.9561
▁anak	-10.9573
▁ambu	-10.9574
nog	-10.9575
▁liz	-10.9579
▁27.	-10.9597
▁gorj	-10.9602
▁mari	-10.9602
▁kove	-10.9612
▁para	-10.9621
▁ojim	-10.9627
▁đenje	-10.9634
sjeć	-10.9672
▁bro	-10.9673
▁ajna	-10.968
▁rušt	-10.9704
▁reč	-10.9706
▁gubi	-10.9707
▁amu	-10.9722
▁rodu	-10.9731
▁šlo	-10.9743
▁inci	-10.9746
▁Med	-10.976
▁rans	-10.9764
▁lider	-10.9767
0%	-10.9768
▁repo	-10.9768
▁sio	-10.978
▁dil	-10.9781
▁žut	-10.9785
▁evoj	-10.979
▁otte	-10.9797
▁iša	-10.9799
▁zem	-10.98
▁ječn	-10.9805
▁II	-10.9807
▁uši	-10.9811
gov	-10.9812
́	-10.9814
▁azin	-10.9815
▁kons	-10.9819
ach	-10.9826
▁vjere	-10.9837
▁Mur	-10.9853
bje	-10.9858
▁Grbin	-10.9861
▁otom	-10.9885
▁rugo	-10.9885
▁mač	-10.9885
▁ekin	-10.9895
▁amn	-10.9901
▁raci	-10.9913
▁Mac	-10.9913
▁mla	-10.992
▁oren	-10.9922
▁nda	-10.9941
tar	-10.9944
▁jede	-10.9951
▁mjeri	-10.9974
▁Ć	-10.9976
▁iža	-10.9984
▁Most	-10.9985
▁pru	-10.9986
▁den	-10.9999
▁urn	-11.0004
▁avna	-11.0006
ib	-11.0024
é	-11.0039
:1	-11.0048
▁ezon	-11.0068
▁riča	-11.0078
▁Rud	-11.0078
son	-11.0097
▁teg	-11.0112
▁bama	-11.0114
▁ube	-11.0131
▁učiti	-11.0138
▁lovoz	-11.0138
▁muč	-11.0139
▁napr	-11.0148
▁moli	-11.0152
▁33	-11.0162
▁učk	-11.0165
nali	-11.0169
▁puš	-11.0177
▁dbi	-11.0178
dar	-11.0192
▁ogle	-11.0193
▁rame	-11.0198
▁orije	-11.0203
▁ncer	-11.0208
▁Clas	-11.0217
▁orac	-11.0221
▁muž	-11.0241
▁Hol	-11.0243
▁rizi	-11.0245
▁boji	-11.0256
▁uki	-11.0258
▁ekr	-11.0262
▁aval	-11.0267
▁EPPO	-11.028
▁ovre	-11.0285
▁uck	-11.0309
for	-11.0315
,3	-11.0324
▁det	-11.0328
▁pool	-11.0328
▁29	-11.0329
▁Wal	-11.0366
▁oziti	-11.0376
▁ega	-11.0383
▁ezen	-11.0406
▁uku	-11.0408
▁oduz	-11.0417
▁onf	-11.0434
▁OŠ	-11.0436
▁Mal	-11.0444
KA	-11.0452
už	-11.0463
Ž	-11.0467
▁riva	-11.0476
▁ace	-11.0482
NK	-11.0486
▁obu	-11.0492
▁adon	-11.0498
▁kiv	-11.0508
muni	-11.051
▁anost	-11.0528
▁rl	-11.0541
▁rić	-11.0548
abil	-11.0556
▁38	-11.0557
▁ralj	-11.056
▁ustv	-11.057
▁dna	-11.0579
▁jati	-11.0583
▁nest	-11.0583
▁q	-11.0583
kom	-11.0587
▁svu	-11.0588
▁rug	-11.0592
▁efi	-11.0593
▁Fu	-11.0595
▁ray	-11.0604
-2	-11.0609
ija	-11.0624
▁avin	-11.065
▁oti	-11.0651
▁kise	-11.0653
▁sre	-11.0665
▁mb	-11.0667
▁ljiva	-11.068
▁rama	-11.0686
▁ajv	-11.0691
▁arko	-11.0692
▁zmi	-11.0694
▁rna	-11.0698
▁Gen	-11.0719
▁sobe	-11.0724
▁limu	-11.073
▁ijat	-11.0731
▁arat	-11.0756
▁dle	-11.0765
▁aža	-11.0775
▁entra	-11.078
▁čaj	-11.0782
▁ty	-11.0783
▁hom	-11.0792
▁nč	-11.0804
,2	-11.081
▁mno	-11.0814
▁anjem	-11.0823
▁cid	-11.0824
▁pil	-11.0825
▁adal	-11.0839
▁ATP	-11.087
▁yl	-11.0877
▁cedu	-11.0879
▁Sav	-11.0891
▁uso	-11.0897
▁uke	-11.0906
▁dnos	-11.091
▁kaf	-11.0926
▁alom	-11.0961
▁rave	-11.0967
▁VAR	-11.0972
▁oka	-11.0972
ržiš	-11.0979
▁iteta	-11.0983
kit	-11.099
▁ovca	-11.0993
▁stana	-11.1
▁lem	-11.1005
▁jp	-11.1007
▁ander	-11.1007
▁nogu	-11.1014
▁raks	-11.1016
X	-11.1018
▁lekt	-11.102
▁ovina	-11.102
OS	-11.1022
▁ubio	-11.1028
▁mah	-11.103
▁uri	-11.1033
▁agu	-11.1033
▁iže	-11.1041
leg	-11.1041
▁gur	-11.1043
▁Ars	-11.1064
▁arba	-11.1073
▁tank	-11.1081
▁epa	-11.1103
▁DVD	-11.1107
-	-11.1117
▁dv	-11.1119
▁75	-11.1123
▁pec	-11.1124
HMZ	-11.1126
▁kože	-11.1138
sud	-11.1144
TV	-11.1149
▁enal	-11.1149
zul	-11.1159
▁jaka	-11.1162
▁nazi	-11.1173
▁tv	-11.1173
▁Kan	-11.1176
▁onta	-11.1181
▁nce	-11.1193
▁ošt	-11.1214
▁vođe	-11.1217
▁rekl	-11.1217
▁teć	-11.122
▁vede	-11.123
▁enis	-11.1242
▁logu	-11.1252
▁ilot	-11.1252
▁taro	-11.1252
▁Rus	-11.1253
▁vaju	-11.1254
▁oca	-11.127
▁afer	-11.1274
▁moral	-11.1289
▁Jame	-11.1294
▁tina	-11.1303
ala	-11.1307
▁jesn	-11.1321
▁vizi	-11.1331
OM	-11.1332
tili	-11.1334
▁ljed	-11.1341
▁gust	-11.1341
▁tetu	-11.1345
▁hib	-11.1347
▁kći	-11.136
▁gori	-11.1366
▁rlo	-11.1367
▁2,	-11.138
▁37	-11.1384
▁smr	-11.1386
▁Jon	-11.1389
▁meće	-11.1393
uzej	-11.1412
TA	-11.1414
▁tke	-11.1419
sok	-11.1427
▁teks	-11.1437
▁orno	-11.145
▁reb	-11.1476
▁ropi	-11.1485
▁ekre	-11.1486
▁Mas	-11.1489
▁eska	-11.1489
▁udo	-11.1491
▁uro	-11.1494
▁BBC	-11.1499
▁tkr	-11.1507
vdje	-11.1508
▁anda	-11.1509
▁vajuć	-11.1518
▁ktor	-11.1522
znaj	-11.1526
dek	-11.1528
▁šet	-11.1547
▁čio	-11.1548
▁zija	-11.1549
▁luka	-11.1559
▁egi	-11.1564
▁liž	-11.1568
▁mov	-11.1577
▁umnj	-11.1584
:0	-11.1585
▁Ale	-11.1588
▁Moj	-11.161
▁Iva	-11.162
▁mina	-11.1631
▁bom	-11.1631
▁repe	-11.1635
▁Đur	-11.1655
▁jeni	-11.1656
▁avni	-11.1659
▁IONA	-11.166
▁hop	-11.168
▁old	-11.1684
▁anka	-11.1689
▁miru	-11.169
▁znen	-11.1691
▁asio	-11.1699
▁init	-11.1701
▁out	-11.1705
60	-11.1718
▁rski	-11.172
▁cast	-11.1722
ćev	-11.1723
bul	-11.1741
▁anđe	-11.1745
rjan	-11.1746
▁Tur	-11.1752
▁Miš	-11.1757
▁mask	-11.1762
▁ibon	-11.1775
▁opć	-11.1777
▁šansu	-11.1793
Š	-11.1803
DS	-11.1821
▁jstva	-11.1826
▁retn	-11.1827
▁ajne	-11.183
▁akvi	-11.1838
▁iši	-11.1838
▁ađe	-11.1845
▁IT	-11.1853
▁ors	-11.186
▁formi	-11.1879
▁jku	-11.1879
▁Max	-11.1882
spla	-11.1883
▁Hamas	-11.1883
▁lija	-11.1892
▁skoč	-11.1901
▁udr	-11.1903
uha	-11.1904
▁ijeke	-11.1905
▁roš	-11.1913
▁rka	-11.1919
▁nsko	-11.1926
▁atu	-11.1936
▁Anđe	-11.1939
▁39	-11.1953
▁hip	-11.196
▁vis	-11.197
▁rtn	-11.1982
▁hat	-11.1986
▁isal	-11.1986
▁trac	-11.1994
rug	-11.2042
▁pris	-11.2042
▁dul	-11.2043
▁kinja	-11.2053
▁elev	-11.2053
▁odre	-11.2081
▁iću	-11.2084
▁ergi	-11.2133
▁zici	-11.2143
▁eba	-11.2148
▁pit	-11.2158
▁kob	-11.2166
▁Afri	-11.2166
▁ble	-11.2169
mogu	-11.2174
▁enko	-11.2188
▁48	-11.2206
▁kaka	-11.2209
▁ves	-11.2212
▁pusti	-11.2212
▁enica	-11.2219
▁65	-11.2228
nira	-11.223
▁rej	-11.2231
▁MUP	-11.224
▁Jad	-11.2242
▁sije	-11.2243
▁tefa	-11.2247
▁pto	-11.2247
▁acio	-11.2279
▁tila	-11.2281
▁ostaj	-11.2302
▁onom	-11.2308
▁uži	-11.2308
▁ose	-11.2319
čar	-11.232
▁rip	-11.2324
har	-11.2336
vel	-11.234
▁Sab	-11.234
▁34	-11.2349
▁biz	-11.2355
▁jeca	-11.2362
▁Ex	-11.2363
▁mane	-11.2374
▁fol	-11.2405
RO	-11.2407
▁tika	-11.241
▁stok	-11.2422
▁ump	-11.2424
▁pul	-11.244
▁šar	-11.2446
▁jab	-11.2455
▁mund	-11.2459
▁ruzi	-11.246
spri	-11.2468
▁Her	-11.248
▁trog	-11.2481
▁ićem	-11.2482
▁iska	-11.2484
ER	-11.2485
▁arte	-11.2486
▁kip	-11.2488
▁250	-11.2495
▁rvat	-11.2506
▁olf	-11.2511
▁inej	-11.2513
▁42	-11.2515
▁etal	-11.2516
▁=	-11.2517
▁sudi	-11.2525
▁ff	-11.2535
▁NK	-11.2536
▁EUR	-11.254
▁Dim	-11.2558
▁rud	-11.2561
▁zma	-11.2568
▁isu	-11.2572
▁lič	-11.2578
novi	-11.2597
▁tas	-11.2611
▁bok	-11.2612
▁DC	-11.2613
▁Tek	-11.2614
▁eleg	-11.2615
▁podu	-11.2615
▁duć	-11.2626
▁ža	-11.263
▁jke	-11.2636
▁AP	-11.2652
▁bos	-11.2662
▁jit	-11.2681
▁rop	-11.2683
▁ženj	-11.2685
▁31	-11.2691
▁arne	-11.2694
▁nuž	-11.2722
▁ET	-11.2748
▁mađa	-11.2753
!	-11.2754
ing	-11.276
▁fik	-11.2773
▁CO	-11.2774
▁asi	-11.2782
▁fot	-11.2802
▁demi	-11.2812
▁sus	-11.2814
Y	-11.2815
▁aks	-11.2826
▁Vil	-11.2827
▁riba	-11.2827
▁ipa	-11.2837
▁Ruž	-11.2837
▁jasan	-11.2847
▁eyen	-11.2855
▁Gol	-11.2864
▁đa	-11.2908
▁jana	-11.2908
▁otel	-11.2916
▁ew	-11.2917
▁eze	-11.2928
▁lah	-11.2929
▁Nad	-11.2938
▁UEF	-11.2944
▁očit	-11.2956
▁kaš	-11.2966
▁ror	-11.2975
▁emp	-11.2986
▁tike	-11.2987
▁trov	-11.2989
▁juće	-11.3011
▁aditi	-11.3011
▁enni	-11.3016
▁ijad	-11.3028
80	-11.3036
▁Jan	-11.3041
▁rev	-11.305
▁woo	-11.3055
?	-11.3064
▁ndar	-11.3076
▁Đurđ	-11.3077
▁ofi	-11.3081
▁raum	-11.3081
▁nada	-11.3088
▁tud	-11.3099
▁esi	-11.311
▁raja	-11.3135
▁oze	-11.315
▁mesa	-11.3151
kar	-11.3152
▁rno	-11.3153
▁rži	-11.3162
▁šans	-11.3165
▁inju	-11.3167
▁3,	-11.3172
▁tica	-11.3182
▁oler	-11.3182
▁ural	-11.3193
▁Baš	-11.3208
▁duha	-11.3212
zač	-11.3212
▁jutr	-11.3217
▁stri	-11.322
▁vih	-11.3238
▁kose	-11.3239
▁Ili	-11.3241
žar	-11.3247
▁edio	-11.3249
▁jeka	-11.3271
▁trp	-11.3282
▁asto	-11.3283
▁uđe	-11.3302
▁Orba	-11.3302
▁Haj	-11.3317
erem	-11.332
▁olja	-11.3327
▁lužb	-11.3331
kla	-11.3334
SS	-11.3342
▁videa	-11.3347
▁nome	-11.3369
▁arić	-11.3371
▁dvij	-11.3381
▁iona	-11.3383
▁tolj	-11.3387
▁erm	-11.3391
▁ald	-11.3393
▁argu	-11.34
▁djeli	-11.3405
▁guš	-11.3407
rnet	-11.3429
▁milo	-11.3435
▁DJ	-11.3454
▁entat	-11.3461
▁žiri	-11.347
▁čne	-11.3476
▁ring	-11.3492
▁orč	-11.3503
MS	-11.351
▁eke	-11.3519
▁Ab	-11.3541
▁urz	-11.3558
▁vara	-11.3577
▁rto	-11.3578
▁odila	-11.3596
▁tup	-11.36
▁Mid	-11.3602
EP	-11.3607
▁kuti	-11.3618
▁vile	-11.3629
orge	-11.3644
IC	-11.3647
▁ish	-11.3652
▁atk	-11.366
▁robo	-11.3684
▁dria	-11.3691
▁azn	-11.3691
,7	-11.3706
▁arci	-11.371
▁Mars	-11.3717
▁PDV	-11.3721
Ja	-11.3726
DSS	-11.3728
▁jele	-11.3731
▁44	-11.3752
apan	-11.3753
▁imun	-11.3759
▁vani	-11.3763
▁nič	-11.3773
▁Zor	-11.3777
▁ule	-11.3791
▁ajd	-11.3817
▁vali	-11.384
▁urne	-11.3844
ndar	-11.3854
▁ašen	-11.3869
▁jevo	-11.3871
40	-11.3878
▁janj	-11.3888
DA	-11.3902
▁46	-11.3905
▁orna	-11.3908
LA	-11.3908
MO	-11.3921
▁loški	-11.3943
▁Lid	-11.3948
▁nači	-11.3951
▁ači	-11.3958
▁dez	-11.3962
▁uše	-11.3968
▁prv	-11.3969
▁enda	-11.3975
▁58	-11.3975
▁aga	-11.3999
▁jamč	-11.4008
dž	-11.4018
▁onte	-11.4026
▁soba	-11.4028
▁skl	-11.4048
▁src	-11.4062
▁izan	-11.4064
▁ö	-11.4068
JE	-11.4088
NI	-11.4116
daje	-11.4124
▁trbuh	-11.4137
▁asl	-11.4141
▁tpis	-11.4144
ack	-11.4183
▁erac	-11.4191
▁rović	-11.4213
▁eča	-11.4215
NE	-11.4218
nder	-11.4223
IS	-11.4223
tvr	-11.4241
▁gaja	-11.4243
▁reh	-11.4258
▁emije	-11.4275
▁tone	-11.4288
▁rojn	-11.4289
VP	-11.429
▁vrati	-11.4314
▁dbe	-11.4316
▁nde	-11.4339
▁gužv	-11.4339
▁asad	-11.4346
UD	-11.4383
▁koša	-11.4386
▁kib	-11.4397
▁jivo	-11.4419
▁Vara	-11.4419
▁é	-11.4426
▁Ćo	-11.4452
▁apr	-11.4458
▁ader	-11.4461
▁omać	-11.4463
des	-11.4467
▁žar	-11.4483
▁Mand	-11.4483
70	-11.4487
▁Fur	-11.4499
▁trž	-11.4502
▁Joe	-11.4506
▁rovi	-11.4524
▁rira	-11.4532
sad	-11.4537
▁any	-11.4539
▁Mün	-11.4564
▁ü	-11.4568
▁žil	-11.4569
▁outh	-11.4579
cion	-11.4588
▁upi	-11.4595
▁Ram	-11.4617
▁sobi	-11.4619
▁tipe	-11.4623
▁Jones	-11.4639
ex	-11.4651
▁Pup	-11.4651
▁tati	-11.4654
viz	-11.4674
▁lažu	-11.4683
▁HR	-11.4683
lim	-11.4701
▁grač	-11.4702
▁junak	-11.4715
▁47	-11.4726
▁cipe	-11.4732
▁aria	-11.4734
▁uće	-11.4746
SK	-11.4762
OR	-11.4768
▁rgu	-11.4806
▁ebi	-11.4821
▁ospo	-11.4838
ky	-11.4852
▁Del	-11.4858
▁vot	-11.4893
▁Kim	-11.4914
▁empe	-11.4915
▁tepe	-11.4929
▁Fil	-11.4933
▁Gre	-11.4937
▁Nico	-11.4939
▁iren	-11.494
▁jans	-11.4947
▁lima	-11.4955
▁row	-11.4972
▁oban	-11.4977
▁soci	-11.4977
▁nivo	-11.498
▁elic	-11.4986
rski	-11.5001
▁taci	-11.5011
▁rdo	-11.5013
▁žava	-11.5018
▁2-0	-11.5028
▁žem	-11.5033
UP	-11.5042
▁šenj	-11.5059
▁edic	-11.506
▁54	-11.5064
▁minus	-11.5067
▁vrtk	-11.507
▁rder	-11.5079
šev	-11.5086
▁leme	-11.5093
▁gužve	-11.5098
,9	-11.5106
▁egz	-11.5111
▁US	-11.5112
▁Opć	-11.5114
MW	-11.5118
▁žet	-11.5141
▁ekl	-11.5154
▁And	-11.5155
▁gul	-11.5162
anel	-11.5175
▁85	-11.5178
▁etni	-11.519
▁arti	-11.5207
▁eck	-11.5211
než	-11.5214
▁jeme	-11.5221
slu	-11.5234
▁iram	-11.5241
▁III	-11.5248
▁koz	-11.5248
▁ačica	-11.525
lak	-11.5252
▁svje	-11.5254
▁homa	-11.5273
OL	-11.5296
▁erna	-11.5298
▁lata	-11.5306
▁Kule	-11.5331
duk	-11.5346
▁DIP	-11.5348
▁rand	-11.5352
▁gušt	-11.5358
▁adaju	-11.5361
▁lamen	-11.537
▁zvon	-11.5376
▁liza	-11.5384
▁laži	-11.5385
▁64	-11.5403
▁zije	-11.5422
▁opra	-11.5429
▁52	-11.543
▁ujan	-11.5443
▁api	-11.5443
▁dahn	-11.5454
▁700	-11.5454
ajuć	-11.5464
▁rla	-11.5472
▁laža	-11.5492
▁HAK	-11.5493
▁ape	-11.5498
IP	-11.5499
rth	-11.5508
▁43	-11.5517
▁ruže	-11.5528
▁rugom	-11.5543
Č	-11.5559
▁Lig	-11.5562
dy	-11.56
▁76	-11.5603
▁ony	-11.562
▁vanju	-11.5636
▁gume	-11.564
▁šuma	-11.5642
OA	-11.5646
▁kale	-11.5646
▁enge	-11.5647
▁orus	-11.5651
war	-11.568
▁IN	-11.5693
▁Sev	-11.5699
▁rišt	-11.5706
PG	-11.5709
-3	-11.5711
▁KS	-11.5722
bolj	-11.5729
▁luba	-11.5735
JA	-11.5742
▁limi	-11.5744
▁otti	-11.5748
▁Wim	-11.575
▁Edi	-11.5752
▁kopa	-11.5757
▁deko	-11.5765
▁kva	-11.5776
▁OI	-11.5789
▁Res	-11.5795
▁ny	-11.5799
▁PSG	-11.5811
▁baka	-11.5818
▁Nive	-11.5821
▁ritm	-11.583
▁OCM	-11.5831
▁Gar	-11.5838
▁esec	-11.5842
▁urd	-11.5851
▁curi	-11.5852
▁modu	-11.5858
ET	-11.5864
▁him	-11.5864
nner	-11.588
▁Bak	-11.588
▁midž	-11.5905
▁olod	-11.5915
rimi	-11.5916
▁kvi	-11.5948
▁mokr	-11.5954
▁tski	-11.5957
▁gađ	-11.5966
▁mand	-11.5967
▁rofe	-11.5988
▁rga	-11.5989
▁1-0	-11.5991
▁užno	-11.6
▁dit	-11.6007
▁PA	-11.6031
AS	-11.6032
▁debi	-11.6051
▁isac	-11.6057
▁hot	-11.6063
▁humor	-11.6068
▁anjur	-11.6083
▁reet	-11.6089
RS	-11.6101
RI	-11.6109
▁klim	-11.6122
▁rosi	-11.6138
jviš	-11.6153
▁ejne	-11.6158
▁Ses	-11.6161
▁Deja	-11.6162
▁motr	-11.6162
aw	-11.6169
▁trpa	-11.6183
▁onna	-11.6186
▁utje	-11.6186
▁OS	-11.6192
AN	-11.6199
eći	-11.6219
ü	-11.6229
PO	-11.623
VE	-11.6266
▁Vas	-11.6273
▁Pek	-11.6274
▁ladu	-11.6335
oef	-11.6343
▁lovi	-11.635
▁dni	-11.635
▁upni	-11.6351
▁Post	-11.6361
▁ford	-11.6363
pust	-11.6364
▁deve	-11.6371
▁Miss	-11.6379
OP	-11.639
mokr	-11.639
▁jski	-11.6401
▁kožu	-11.6411
10	-11.644
▁62	-11.645
▁buk	-11.645
▁rost	-11.6456
▁đi	-11.647
Na	-11.6474
▁jon	-11.648
▁tag	-11.6496
▁ačaj	-11.6521
▁zgod	-11.6532
▁dlak	-11.654
▁Col	-11.6545
▁armi	-11.6553
▁ple	-11.6563
ö	-11.6947
/	-11.7135
í	-11.8136
á	-11.8342
ó	-11.8785
]	-11.8892
′	-12.0354
0	-12.0481
♬	-12.0891
Q	-12.1601
ä	-12.2867
Ć	-12.3109
ç	-12.4119
·	-12.512
&	-12.5327
è	-12.555
+	-12.6227
{	-12.6714
€	-12.8026
;	-12.8606
️	-12.9549
Đ	-12.9878
ë	-12.9883
ñ	-12.9883
â	-13.0227
ł	-13.134
ø	-13.2156
å	-13.3046
⁄	-13.3046
à	-13.3522
>	-13.4016
®	-13.5104
е	-13.5104
*	-13.5687
×	-13.6317
►	-13.6984
ú	-13.6984
ô	-13.8467
ğ	-13.8467
●	-13.93
°	-14.0204
ï	-14.021
ð	-14.121
ò	-14.121
ê	-14.2321
î	-14.3571
ß	-14.3571
ı	-14.3571
⚤	-14.3571
🔥	-14.3571
ì	-14.4999
ř	-14.4999
☘	-14.4999
	-14.4999
🎁	-14.4999
😂	-14.4999
©	-14.6666
ė	-14.6666
Ś	-14.6666
ρ	-14.6666
❤	-14.6666
🇷	-14.6666
🇸	-14.6666
`	-14.8666
ą	-14.8666
ο	-14.8666
ς	-14.8666
⁠	-14.8666
📌	-14.8666
ě	-14.8666
μ	-14.8666
Ó	-15.1166
ń	-15.1166
ț	-15.1166
̈	-15.1166
о	-15.1166
ṣ	-15.1166
‒	-15.1166
⚠	-15.1166
⚽	-15.1166
	-15.1166
ő	-15.1166
$	-15.4494
ā	-15.4499
ј	-15.4499
а	-15.4499
^	-15.4499
§	-15.4499
Í	-15.4499
Ú	-15.4499
Ü	-15.4499
ý	-15.4499
ȗ	-15.4499
‍	-15.4499
‐	-15.4499
―	-15.4499
‖	-15.4499
✓	-15.4499
💙	-15.4499
ę	-15.4499
	-15.9499
¡	-15.9499
±	-15.9499
Ä	-15.9499
Ø	-15.9499
ù	-15.9499
û	-15.9499
ă	-15.9499
ĉ	-15.9499
ś	-15.9499
ż	-15.9499
ș	-15.9499
̊	-15.9499
έ	-15.9499
α	-15.9499
ό	-15.9499
н	-15.9499
ྀ	-15.9499
ἀ	-15.9499
‟	-15.9499
∶	-15.9499
▶	-15.9499
♡	-15.9499
♦	-15.9499
シ	-15.9499
🇱	-15.9499
🏻	-15.9499
🔄	-15.9499
🕷	-15.9499
🕸	-15.9499
😅	-15.9499
😎	-15.9499
🟡	-15.9499
🤩	-15.9499
🤯	-15.9499
🥚	-15.9499
🦟	-15.9499
π	-15.9499
τ	-15.9499
🙏	-16.9465
😍	-16.9466
💕	-16.9467
ི	-16.9468
ȉ	-16.9469
ū	-16.947
Ş	-16.9471
ē	-16.9472
🌸	-16.9473
🇭	-16.9474
ή	-16.9475
̧	-16.9476
Ð	-16.9477
👀	-16.9478
🇺	-16.9479
♥	-16.948
Å	-16.9481
✔	-16.9482
Ç	-16.9483
Á	-16.9484
🟨	-16.9485
ş	-16.9486
̋	-16.9487
É	-16.9488
ã	-16.9489
}	-16.949
<	-16.9491
­	-16.9492
Ö	-16.9493
•	-16.9494
#	-16.9494
_	-16.9495
[	-16.9496
=	-16.9497
%	-16.9498
Ł	-16.9499
л	-16.9499
Ґ	-16.9499
ʟ	-16.9499
£	-16.9499
¤	-16.9499
¿	-16.9499
À	-16.9499
È	-16.9499
Î	-16.9499
Ò	-16.9499
Ô	-16.9499
õ	-16.9499
Ď	-16.9499
İ	-16.9499
ľ	-16.9499
ţ	-16.9499
ů	-16.9499
ź	-16.9499
Ƙ	-16.9499
ȃ	-16.9499
ȑ	-16.9499
ə	-16.9499
̣	-16.9499
Ω	-16.9499
γ	-16.9499
δ	-16.9499
ω	-16.9499
К	-16.9499
ь	-16.9499
і	-16.9499
ӣ	-16.9499
ṓ	-16.9499
ọ	-16.9499
ố	-16.9499
‰	-16.9499
↑	-16.9499
⇒	-16.9499
−	-16.9499
⏱	-16.9499
■	-16.9499
▪	-16.9499
○	-16.9499
☀	-16.9499
☃	-16.9499
☑	-16.9499
☺	-16.9499
♀	-16.9499
⚫	-16.9499
✠	-16.9499
✨	-16.9499
❄	-16.9499
传	-16.9499
多	-16.9499
陈	-16.9499
🇦	-16.9499
🇧	-16.9499
🇫	-16.9499
🇬	-16.9499
🇮	-16.9499
🇵	-16.9499
🇾	-16.9499
🌋	-16.9499
🌐	-16.9499
🌠	-16.9499
🌧	-16.9499
🌨	-16.9499
🌺	-16.9499
🌻	-16.9499
🍉	-16.9499
🍊	-16.9499
🎀	-16.9499
🎗	-16.9499
🏡	-16.9499
🐄	-16.9499
🐥	-16.9499
🐦	-16.9499
🐱	-16.9499
🐶	-16.9499
👁	-16.9499
👇	-16.9499
👣	-16.9499
👶	-16.9499
💅	-16.9499
💋	-16.9499
💎	-16.9499
💘	-16.9499
💚	-16.9499
💟	-16.9499
💪	-16.9499
💯	-16.9499
📢	-16.9499
📱	-16.9499
📸	-16.9499
🔹	-16.9499
🕓	-16.9499
🖥	-16.9499
😀	-16.9499
😁	-16.9499
😉	-16.9499
😊	-16.9499
😏	-16.9499
😬	-16.9499
😭	-16.9499
🙂	-16.9499
🙌	-16.9499
🛁	-16.9499
🤍	-16.9499
🤔	-16.9499
🤢	-16.9499
🤦	-16.9499
🤪	-16.9499
🥥	-16.9499
🥰	-16.9499
🥲	-16.9499
🥹	-16.9499
🥺	-16.9499
🩹	-16.9499
🩺	-16.9499
🪐	-16.9499
🫒	-16.9499
🫠	-16.9499
ň	-16.9499
ō	-16.9499
ӧ	-16.9499
(	-16.9499
υ	-16.9499
χ	-16.9499
