<unk>	0
<s>	0
</s>	0
,	-3.22899
.	-3.46256
▁je	-3.61315
▁i	-3.77529
▁u	-3.85366
a	-3.9401
e	-4.32991
▁na	-4.41051
;	-4.5005
▁se	-4.5299
i	-4.60173
▁da	-4.64768
u	-4.65762
&	-4.71328
▁za	-4.80602
▁su	-4.84682
o	-4.88832
on	-4.90334
▁s	-5.15474
▁od	-5.28733
▁a	-5.31161
m	-5.36098
om	-5.37873
ca	-5.43705
ccar	-5.51011
▁koji	-5.64742
▁"	-5.65594
cute	-5.70481
▁ne	-5.74125
ih	-5.74707
▁će	-5.75494
-	-5.76031
▁što	-5.77589
▁-	-5.79911
▁o	-5.8171
▁to	-5.81851
:	-5.85668
▁iz	-5.86925
zcar	-5.98188
▁do	-6.06484
▁kako	-6.07507
▁te	-6.09909
▁U	-6.11669
▁bi	-6.13681
ti	-6.1387
og	-6.16182
im	-6.16426
▁&	-6.21228
li	-6.2151
▁nije	-6.23041
d	-6.25671
ma	-6.26081
▁sam	-6.28268
▁kao	-6.29401
",	-6.30152
▁ali	-6.30817
▁po	-6.31172
la	-6.31936
oj	-6.3766
▁	-6.38519
"	-6.43994
▁godine	-6.45913
▁koje	-6.48151
▁sve	-6.51204
▁smo	-6.53097
▁biti	-6.55148
▁koja	-6.56313
▁(	-6.57957
▁nakon	-6.62318
▁ili	-6.68806
▁više	-6.69054
na	-6.69449
▁'	-6.72116
ju	-6.72674
t	-6.72715
te	-6.73161
ne	-6.73694
▁bio	-6.7713
▁pa	-6.77225
▁sa	-6.77634
s	-6.78595
mo	-6.81274
g	-6.81288
h	-6.82026
▁samo	-6.85484
▁još	-6.85538
ni	-6.85777
▁jer	-6.8628
▁rekao	-6.91338
ima	-6.92598
)	-6.93658
▁ga	-6.93942
▁zbog	-6.94693
▁mi	-6.96713
▁Na	-6.96988
?	-6.97577
lo	-6.99503
j	-7.00163
▁bilo	-7.03063
▁li	-7.04387
▁S	-7.04513
'	-7.05396
no	-7.0542
ka	-7.06573
▁godina	-7.06608
▁A	-7.08761
▁već	-7.09309
strok	-7.10109
▁eura	-7.11194
▁uz	-7.12663
▁tako	-7.13387
▁ima	-7.15074
le	-7.15104
▁mu	-7.16768
▁dok	-7.17146
▁prije	-7.17344
▁bila	-7.20689
je	-7.20941
▁I	-7.21978
▁može	-7.22007
▁dana	-7.23012
ja	-7.2383
š	-7.24528
▁kada	-7.27513
nja	-7.29889
!	-7.30457
▁protiv	-7.33039
nje	-7.33313
▁prema	-7.33692
".	-7.35133
▁oko	-7.35859
▁mogu	-7.37109
n	-7.37197
k	-7.37269
▁tri	-7.39635
▁ih	-7.40197
▁bez	-7.41927
▁posto	-7.42302
...	-7.42888
▁jedan	-7.42932
▁To	-7.43454
▁gdje	-7.44392
▁nego	-7.45009
▁dva	-7.45302
▁ni	-7.45479
▁kad	-7.46072
▁nam	-7.46519
▁ljudi	-7.46534
nu	-7.46933
▁svoje	-7.4722
ci	-7.48665
ke	-7.48983
▁no	-7.49364
▁Ne	-7.51332
▁toga	-7.52756
▁nisu	-7.52814
▁Za	-7.55682
▁vrijeme	-7.55936
▁sada	-7.56253
an	-7.57672
▁tu	-7.59307
▁ove	-7.61204
▁ako	-7.64152
▁me	-7.64184
em	-7.65401
▁kod	-7.6553
ku	-7.66536
▁pod	-7.67738
▁koju	-7.69329
▁nas	-7.70128
▁nekoliko	-7.70476
r	-7.71388
▁danas	-7.7264
da	-7.72813
▁on	-7.7347
▁pri	-7.76324
▁No	-7.76719
ći	-7.7815
▁bili	-7.78313
▁put	-7.79037
▁Hrvatske	-7.79322
▁dobro	-7.79594
▁prvi	-7.79705
▁treba	-7.80988
▁tijekom	-7.81482
▁tome	-7.81627
▁nešto	-7.81761
▁nema	-7.81847
▁Nakon	-7.81936
▁ovo	-7.82744
),	-7.82918
c	-7.83253
ta	-7.83354
▁P	-7.83415
C	-7.84071
▁pet	-7.84374
▁puno	-7.84398
▁Hrvatskoj	-7.84447
▁ja	-7.85148
▁sati	-7.85207
▁kaže	-7.85211
▁dio	-7.85365
ko	-7.86654
/	-7.86747
▁uvijek	-7.86884
▁dvije	-7.87266
▁im	-7.87606
z	-7.88337
er	-7.89864
ce	-7.90144
▁radi	-7.90368
▁O	-7.9146
nju	-7.92058
▁taj	-7.92125
▁svi	-7.92489
▁milijuna	-7.9279
▁kojima	-7.93133
l	-7.93538
ova	-7.94967
ak	-7.95104
▁kojem	-7.9579
ga	-7.96799
S	-7.96852
▁svoj	-7.9689
ra	-7.97236
nih	-7.9815
▁imaju	-7.98959
▁ste	-7.9909
▁kojoj	-7.99701
ki	-7.99712
▁dan	-8.00076
▁dalje	-8.01037
▁rekla	-8.01104
▁vrlo	-8.01407
▁Hrvatska	-8.01526
▁malo	-8.01543
▁između	-8.01663
▁onda	-8.01806
▁pred	-8.01999
▁vam	-8.023
in	-8.02617
▁Po	-8.046
za	-8.04891
▁jako	-8.0511
▁svojim	-8.05351
▁ćemo	-8.05412
▁predsjednik	-8.06107
ica	-8.06302
va	-8.0633
nom	-8.066
▁Kako	-8.06869
▁oni	-8.06978
▁kroz	-8.07147
▁njih	-8.07148
▁čak	-8.0742
▁svoju	-8.08202
▁joj	-8.08304
ž	-8.08357
▁mo	-8.08593
▁ve	-8.09335
▁način	-8.09463
ije	-8.09831
▁također	-8.11447
▁mjesto	-8.11826
▁neće	-8.1189
▁poput	-8.12366
▁drugi	-8.12409
p	-8.13928
▁pre	-8.14356
nog	-8.14702
▁puta	-8.14772
▁Od	-8.14969
y	-8.15428
▁broj	-8.1579
▁jednom	-8.16539
▁koliko	-8.16711
nim	-8.17163
▁Da	-8.1811
▁Ako	-8.1819
io	-8.18325
b	-8.18763
▁Mi	-8.19032
▁dr	-8.19215
▁utakmice	-8.1949
▁ovaj	-8.19506
▁četiri	-8.19541
▁druge	-8.20216
▁jedna	-8.2055
▁odnosno	-8.21505
',	-8.21883
ice	-8.22033
▁10	-8.22844
▁20	-8.22977
▁među	-8.23525
▁mora	-8.2353
ovi	-8.23849
▁igra	-8.24359
ba	-8.24407
re	-8.24571
č	-8.24874
▁život	-8.25109
▁piše	-8.2514
▁novi	-8.25178
de	-8.25749
iti	-8.26219
▁sezone	-8.26622
▁neki	-8.26639
▁tom	-8.26927
en	-8.27052
▁manje	-8.27189
▁tko	-8.2758
▁HDZ	-8.27773
▁preko	-8.2837
▁strane	-8.2854
st	-8.28582
D	-8.29183
ost	-8.29656
▁ta	-8.29797
▁imao	-8.29858
ove	-8.29936
če	-8.30033
▁C	-8.3023
▁osoba	-8.30484
▁vremena	-8.30522
▁vas	-8.32088
).	-8.32318
▁ona	-8.32638
ić	-8.32986
▁svih	-8.33428
▁obitelji	-8.33651
ili	-8.33708
▁tek	-8.34403
▁mjesta	-8.34469
▁imati	-8.34534
ov	-8.34617
▁njega	-8.34817
▁njegov	-8.35074
▁kraju	-8.3535
▁gotovo	-8.35417
▁šest	-8.35541
▁bit	-8.35602
▁tada	-8.35659
▁ti	-8.35939
B	-8.36024
sa	-8.36111
▁Ivan	-8.36148
▁Ja	-8.36405
lu	-8.36453
▁ka	-8.36636
U	-8.37041
▁Sve	-8.37429
▁zna	-8.37676
▁Dinamo	-8.38203
kom	-8.38254
A	-8.38328
▁tim	-8.39032
▁K	-8.39052
▁kazao	-8.3917
▁ovom	-8.39336
▁Zagrebu	-8.39513
▁njezin	-8.39591
▁sad	-8.39924
▁posebno	-8.4033
vi	-8.40349
jući	-8.40851
▁kojeg	-8.41004
▁mogao	-8.41058
▁pro	-8.41148
di	-8.41624
▁ono	-8.41806
ski	-8.42087
ila	-8.42096
sti	-8.42768
ija	-8.43071
▁godinu	-8.43355
▁ovog	-8.43805
P	-8.44436
▁d	-8.44497
▁Pa	-8.44566
▁EU	-8.44764
▁Ali	-8.45203
▁teško	-8.45242
tu	-8.45313
▁baš	-8.46053
▁Ovo	-8.46058
▁15	-8.46544
▁svom	-8.46662
▁ništa	-8.47305
či	-8.47686
▁Iako	-8.4773
▁pitanje	-8.47939
▁2024.	-8.4806
▁mjestu	-8.48234
]	-8.48489
▁D	-8.48929
▁ju	-8.49331
▁Iz	-8.49442
▁bude	-8.50138
▁Š	-8.50188
ru	-8.50785
▁neke	-8.50816
M	-8.51403
▁E	-8.51454
ska	-8.51711
▁sebe	-8.5181
cu	-8.52278
▁svim	-8.52709
▁=>	-8.52763
▁VIDEO	-8.53374
ve	-8.53507
▁12	-8.54102
▁naj	-8.54422
▁često	-8.5482
▁minuti	-8.54883
▁nove	-8.54934
lje	-8.54971
K	-8.55292
osti	-8.55385
▁stvari	-8.55565
▁problem	-8.55887
▁Do	-8.56005
▁Što	-8.56147
ina	-8.57119
▁bih	-8.57257
▁nisam	-8.57862
▁upravo	-8.57946
▁njima	-8.5806
zi	-8.58243
▁kraja	-8.58321
▁dobio	-8.5844
▁vozila	-8.58671
ri	-8.58769
T	-8.58877
▁imali	-8.58985
▁svijetu	-8.59185
▁Prema	-8.59227
v	-8.5923
▁B	-8.59277
▁utakmica	-8.59873
▁smatra	-8.60031
▁dodao	-8.60584
▁re	-8.60611
O	-8.60697
iji	-8.60714
hr	-8.60969
▁pomoć	-8.61328
▁Zagreb	-8.61364
▁minuta	-8.61373
▁djece	-8.61387
▁predsjednika	-8.6147
F	-8.61714
▁rad	-8.62164
▁života	-8.62424
▁bolje	-8.62606
▁nad	-8.6309
▁tisuća	-8.63454
▁zajedno	-8.63854
▁19	-8.64103
▁njegova	-8.64241
▁Uz	-8.64258
▁ipak	-8.64384
I	-8.64798
▁veliki	-8.64864
▁prvaka	-8.65039
▁možda	-8.6508
ske	-8.65629
▁naše	-8.6566
lja	-8.65954
▁hrvatski	-8.66347
▁kasnije	-8.66354
G	-8.66391
▁odmah	-8.66646
▁Kad	-8.67099
do	-8.67293
▁ponovno	-8.67319
to	-8.67509
▁one	-8.6811
▁području	-8.68116
▁utakmicu	-8.68194
se	-8.68208
▁vode	-8.68217
▁11	-8.68443
▁svog	-8.68468
▁jednu	-8.68529
si	-8.68795
po	-8.68806
▁M	-8.68839
pa	-8.69186
▁prošle	-8.69221
▁mogli	-8.69423
nici	-8.69472
▁svaki	-8.69578
jte	-8.69836
▁iako	-8.70073
▁18	-8.70197
▁30	-8.70548
R	-8.70573
▁[	-8.70729
▁vi	-8.70767
ović	-8.71187
▁znači	-8.71289
▁1	-8.71346
▁osobe	-8.71378
▁možete	-8.71428
▁de	-8.71768
bi	-8.71883
▁Naime	-8.72125
▁trenutku	-8.7219
▁jednog	-8.72194
▁niti	-8.72223
▁imamo	-8.72464
▁2	-8.72579
▁riječ	-8.72874
▁G	-8.72902
▁najviše	-8.73176
▁toliko	-8.73546
▁Osim	-8.73558
▁posao	-8.74002
▁Hajduk	-8.7407
▁nalazi	-8.74182
vši	-8.74231
▁postoji	-8.74235
▁prava	-8.74241
du	-8.74358
▁trener	-8.74477
L	-8.74484
1	-8.74519
▁Tako	-8.74823
▁obzirom	-8.75694
▁5	-8.763
▁grada	-8.76406
▁ranije	-8.76706
▁si	-8.7671
▁deset	-8.76715
▁reći	-8.7693
▁problema	-8.77241
še	-8.77267
▁2023.	-8.77464
▁Hrvatsku	-8.77465
▁klub	-8.77716
▁policija	-8.77808
ena	-8.77974
▁Z	-8.78108
▁pomoći	-8.78236
▁zašto	-8.78594
▁mjeseci	-8.78648
V	-8.78701
▁petak	-8.78946
▁kluba	-8.79507
▁čega	-8.79729
▁zapravo	-8.79854
nica	-8.79934
▁13	-8.79957
▁zato	-8.80055
▁svojoj	-8.80204
▁igrača	-8.80245
▁čini	-8.80347
▁objavio	-8.80406
▁Nije	-8.8047
▁svijeta	-8.80577
sta	-8.80588
čan	-8.80791
▁sigurno	-8.80837
▁govori	-8.80856
▁netko	-8.81215
▁On	-8.81233
ar	-8.81502
▁SAD	-8.81512
▁dolazi	-8.81689
▁raditi	-8.8171
▁par	-8.81788
ine	-8.81846
▁14	-8.82137
▁ću	-8.82141
ji	-8.82294
▁prvom	-8.82349
su	-8.82574
ro	-8.82606
▁potpuno	-8.82666
že	-8.82806
▁vidjeti	-8.83073
▁zemlje	-8.83121
▁4	-8.83161
▁svega	-8.83217
▁tog	-8.83391
▁imala	-8.83446
▁možemo	-8.83773
▁mogla	-8.83901
▁kraj	-8.83942
ži	-8.8403
▁grad	-8.84037
▁subotu	-8.84127
▁pravo	-8.84172
▁SDP	-8.84696
▁prvo	-8.84789
ama	-8.85232
▁kojim	-8.85297
vo	-8.85407
▁ovdje	-8.85701
▁ku	-8.85721
▁3	-8.85872
▁slučaju	-8.8614
▁brzo	-8.86391
▁želi	-8.86429
▁isto	-8.8647
▁mene	-8.87048
ici	-8.87237
cima	-8.87245
be	-8.87375
▁navodi	-8.87438
▁društvenim	-8.87634
E	-8.87636
ča	-8.87665
▁priliku	-8.87874
▁drugom	-8.87934
▁opet	-8.88053
▁vodi	-8.88275
▁jedno	-8.88558
▁Kada	-8.88629
▁priča	-8.88632
eg	-8.88862
f	-8.88912
al	-8.89074
▁2022.	-8.89118
▁24	-8.89192
▁nedjelju	-8.89215
▁drugih	-8.89258
▁sedam	-8.89328
it	-8.89376
▁stoji	-8.89427
ete	-8.89578
čić	-8.89659
▁ova	-8.90058
▁svojih	-8.90123
▁Međutim	-8.9048
▁rada	-8.90597
2	-8.90612
▁tjedna	-8.90872
▁projekt	-8.90935
▁17	-8.91114
▁Plenković	-8.91207
▁16	-8.91238
▁gol	-8.91495
▁odnosu	-8.91553
icu	-8.91698
▁bile	-8.91846
▁istaknuo	-8.9186
▁k	-8.91914
noj	-8.91981
ze	-8.92008
▁dovoljno	-8.92395
▁Grad	-8.92558
▁osam	-8.9259
▁Svi	-8.92712
▁hrvatske	-8.92857
▁njihov	-8.92923
▁ponedjeljak	-8.93058
njem	-8.93281
ati	-8.93464
▁igrati	-8.93624
aj	-8.93808
će	-8.93865
▁igrač	-8.94499
▁dosta	-8.94566
▁naš	-8.94758
ši	-8.94788
▁godini	-8.94789
▁1.	-8.94804
H	-8.94885
▁tamo	-8.94894
▁potom	-8.95137
▁žena	-8.95424
3	-8.95496
ran	-8.95703
▁mnogi	-8.95723
▁napada	-8.95859
▁jasno	-8.95924
▁ovu	-8.96038
▁Tu	-8.96286
▁slu	-8.96376
▁velika	-8.96513
▁djecu	-8.96641
7	-8.96751
▁50	-8.96836
▁Kao	-8.96956
▁prve	-8.96961
▁Mo	-8.9698
▁rezultat	-8.97111
▁Ivana	-8.97202
▁trebao	-8.97262
▁niz	-8.9733
▁tvrdi	-8.97444
emo	-8.97611
▁srijedu	-8.97684
▁rata	-8.97693
6	-8.97821
▁Marko	-8.97836
▁De	-8.97852
▁dijete	-8.97894
ter	-8.97963
▁kuće	-8.98015
▁vjerojatno	-8.98087
▁Zbog	-8.9811
▁izbora	-8.98149
▁Dinama	-8.98218
▁osim	-8.98219
▁ide	-8.98234
▁T	-8.98246
▁g	-8.9851
▁moguće	-8.98511
▁nismo	-8.98529
▁bodova	-8.98968
▁tih	-8.99224
▁ministar	-8.99237
▁Milanović	-8.99313
▁nikad	-8.99373
▁znam	-8.99448
▁putem	-8.99453
▁Ma	-8.99613
▁glavni	-8.99695
nost	-9.00016
▁sustav	-9.00152
4	-9.0043
ća	-9.00467
nik	-9.00579
ša	-9.00868
▁pak	-9.01002
▁dijelu	-9.01108
▁prva	-9.01194
▁Pri	-9.01204
▁7	-9.01413
▁stranke	-9.01442
▁premijer	-9.01614
▁najbolje	-9.01777
▁prostor	-9.01836
▁Zagreba	-9.01956
x	-9.02071
▁sata	-9.02249
nice	-9.02361
▁ispred	-9.02426
▁metara	-9.02453
▁došao	-9.02475
ava	-9.02606
ža	-9.02665
▁Sa	-9.02715
▁povijesti	-9.03147
▁velike	-9.03151
ite	-9.03202
▁F	-9.03215
▁Al	-9.03273
▁dugo	-9.03288
▁kola	-9.03322
lj	-9.03374
▁ime	-9.0354
▁utakmici	-9.03756
od	-9.03871
pi	-9.03952
▁dobiti	-9.03987
▁Ka	-9.04082
vu	-9.04339
▁La	-9.04384
▁odgovor	-9.04476
▁doći	-9.04578
▁ćete	-9.04613
▁utorak	-9.04655
nije	-9.0468
▁nova	-9.04783
▁ko	-9.04825
▁obitelj	-9.0499
▁razini	-9.05005
▁program	-9.05071
sko	-9.05312
▁drugim	-9.05413
▁Republike	-9.05447
▁dobar	-9.05479
▁kojih	-9.05521
▁Split	-9.05529
▁Re	-9.05548
▁momčad	-9.05612
▁nedavno	-9.05745
▁Ba	-9.06211
▁Prije	-9.06274
▁sud	-9.06424
▁Ta	-9.06473
▁cijene	-9.06591
▁škole	-9.06591
go	-9.07007
▁BiH	-9.07057
▁osvojio	-9.07151
▁Grada	-9.07212
▁Luka	-9.07617
▁rat	-9.07681
▁Splitu	-9.07788
▁mjeseca	-9.07949
▁županije	-9.0834
▁prvog	-9.08572
nji	-9.08598
ck	-9.08619
▁devet	-9.08622
▁ističe	-9.08707
▁mnogo	-9.08781
▁Rijeka	-9.08821
▁film	-9.08939
bu	-9.08943
▁novog	-9.08983
▁cijena	-9.09308
▁mrežama	-9.09331
▁ugovor	-9.09396
▁uključujući	-9.094
▁godinama	-9.09783
▁svima	-9.09958
'.	-9.10005
▁40	-9.10054
▁time	-9.10084
▁dolara	-9.10104
▁trenutno	-9.10134
▁cilj	-9.10159
▁raz	-9.10178
▁ljude	-9.10221
▁tvrtke	-9.10221
▁Je	-9.10222
▁pobjedu	-9.10222
5	-9.10416
▁gradu	-9.10513
8	-9.10561
▁Također	-9.10582
ovima	-9.1067
▁100	-9.1081
▁njemu	-9.10824
▁moglo	-9.10847
▁Le	-9.10869
▁moraju	-9.1099
skog	-9.10997
▁snage	-9.1106
▁pobjede	-9.11062
▁moći	-9.11132
▁lipnja	-9.11421
▁doma	-9.11515
▁izgleda	-9.11733
▁napraviti	-9.11753
▁H	-9.1176
▁hrvatskih	-9.11835
▁Hrvatski	-9.11946
▁hrvatskog	-9.12045
▁mislim	-9.12179
▁druga	-9.12288
▁rade	-9.12409
▁koristi	-9.12415
▁javnosti	-9.12556
▁N	-9.12575
us	-9.12625
vr	-9.12695
▁Pro	-9.1273
▁zatim	-9.1273
▁čemu	-9.12758
▁poručio	-9.1289
▁Vlade	-9.13006
ć	-9.13134
▁25	-9.13145
▁najbolji	-9.13159
▁Hajduka	-9.1317
▁novih	-9.13319
▁postao	-9.13376
▁dobili	-9.13408
▁ovoj	-9.13415
▁objavila	-9.13709
▁žele	-9.13743
▁prvu	-9.13743
▁koj	-9.13912
▁rast	-9.13923
ini	-9.14019
▁svijet	-9.14122
N	-9.1416
▁njegove	-9.14162
▁ovih	-9.14226
▁primjer	-9.14301
sku	-9.14337
▁direktor	-9.14626
▁dogodilo	-9.14641
▁Ima	-9.14674
▁predstavlja	-9.14738
▁vaš	-9.15063
▁biste	-9.15224
eni	-9.15258
▁situacija	-9.15286
▁novac	-9.15308
▁razvoj	-9.1571
▁isti	-9.15712
uje	-9.15794
▁došlo	-9.15819
▁ukupno	-9.16046
▁Me	-9.16191
▁trebalo	-9.16341
9	-9.16399
▁Danas	-9.16423
▁izjavio	-9.16446
▁Ovaj	-9.16467
▁š	-9.16643
▁nitko	-9.1677
▁toj	-9.16777
▁očekuje	-9.17087
godišnji	-9.17122
▁novu	-9.1723
▁bivši	-9.17239
▁otkrila	-9.17408
▁sebi	-9.17425
▁21	-9.17693
▁bismo	-9.17776
ali	-9.1781
▁POGLEDAJTE	-9.17903
w	-9.17908
▁otkrio	-9.17984
▁nikada	-9.18051
▁moj	-9.18052
▁ispod	-9.18074
▁zabio	-9.18348
iju	-9.18387
▁8	-9.18626
▁/	-9.18631
▁izborima	-9.18726
0	-9.18994
ac	-9.18996
▁djeca	-9.1906
▁sustava	-9.19143
%	-9.19254
bo	-9.19257
šta	-9.19331
▁momčadi	-9.19402
nika	-9.19435
▁aktivnosti	-9.19483
▁potrebno	-9.19514
gu	-9.1959
▁terenu	-9.19924
▁sat	-9.19958
▁države	-9.19985
▁drugo	-9.20193
▁ma	-9.20236
▁igre	-9.20633
▁plaća	-9.20681
▁Ni	-9.20726
▁njihove	-9.20738
▁čeka	-9.20777
▁nastupa	-9.20809
▁neka	-9.21122
▁dodatno	-9.21246
ur	-9.2127
▁čovjek	-9.21757
▁R	-9.21872
▁jedne	-9.22048
▁trebali	-9.22113
▁onih	-9.22129
▁bolesti	-9.22351
▁promjene	-9.2238
▁Bilo	-9.2246
▁cijeli	-9.22525
cija	-9.22621
▁rujna	-9.2265
▁prenosi	-9.22682
▁prilikom	-9.23058
▁jednostavno	-9.23067
▁posljednjih	-9.23107
▁izvan	-9.23123
▁pi	-9.23362
ch	-9.23415
ing	-9.2343
▁Ipak	-9.23474
cije	-9.23695
▁ljubav	-9.2383
iz	-9.23934
▁ljudima	-9.2395
▁budu	-9.23994
▁policije	-9.2401
▁iza	-9.24116
▁četvrtak	-9.2416
▁Real	-9.24175
lić	-9.24252
▁pitanja	-9.24445
mir	-9.24452
▁ovim	-9.24612
▁sva	-9.24659
▁pristup	-9.24678
enje	-9.24749
jem	-9.24922
▁Ko	-9.2495
▁kažu	-9.24993
▁životu	-9.25047
▁Bo	-9.25103
▁rekli	-9.2515
▁naslov	-9.25519
or	-9.2583
▁Josip	-9.25944
▁Ova	-9.26114
is	-9.26201
▁god	-9.26225
▁Europe	-9.26228
▁trebala	-9.26287
Z	-9.26316
▁Foto	-9.26339
▁napad	-9.26365
ene	-9.26463
▁9	-9.26486
▁njen	-9.26569
▁vlasti	-9.26757
▁važno	-9.26856
▁razloga	-9.26986
▁srpnja	-9.27067
man	-9.2718
▁napisao	-9.27317
nosti	-9.27477
▁tjedan	-9.27533
▁donosi	-9.27591
▁V	-9.27684
▁suda	-9.27804
▁sklopu	-9.27848
▁listopada	-9.27896
▁stvar	-9.27896
▁Oni	-9.28026
▁država	-9.28035
▁Te	-9.2816
▁Mislim	-9.28197
▁Bio	-9.28397
▁žene	-9.28496
▁Vi	-9.28535
▁travnja	-9.28731
▁vidi	-9.28838
▁projekta	-9.2886
▁mjesec	-9.28957
▁z	-9.28998
ković	-9.29012
▁djela	-9.29096
▁tiče	-9.29127
▁pravi	-9.29221
▁Varaždin	-9.2927
▁poslova	-9.29304
▁lako	-9.29325
▁reprezentacije	-9.29351
▁Trump	-9.29398
pe	-9.29456
▁lige	-9.2951
inu	-9.2953
▁drugog	-9.29548
▁6	-9.29618
▁početka	-9.2965
ću	-9.29708
▁pol	-9.29741
▁Ukrajini	-9.29786
▁Još	-9.29946
▁Su	-9.30103
▁moramo	-9.30141
▁posla	-9.30166
▁građana	-9.30203
▁dodaje	-9.30223
▁previše	-9.30228
▁mladih	-9.30229
▁ostati	-9.30303
uju	-9.3036
▁uglavnom	-9.30368
▁korak	-9.30487
▁podršku	-9.30514
▁nekim	-9.30613
▁Europi	-9.30812
▁uoči	-9.3098
▁barem	-9.31136
▁zemalja	-9.31246
pre	-9.3133
▁Izrael	-9.31429
▁ulogu	-9.31701
lan	-9.31811
▁Novi	-9.31839
iljem	-9.31915
▁član	-9.31925
▁koncert	-9.31974
▁najmanje	-9.32218
▁kolovoza	-9.32242
▁Rijeke	-9.32292
▁Dok	-9.32372
▁automobila	-9.32408
▁prvenstva	-9.32431
šte	-9.3251
▁veliku	-9.32558
il	-9.32602
▁priprema	-9.32618
ng	-9.32641
▁vrijednosti	-9.32733
▁odluku	-9.3276
▁sigurnosti	-9.32981
▁meni	-9.32988
▁Hrvatskog	-9.33075
skom	-9.33168
▁FOTO	-9.33184
▁susret	-9.33226
▁60	-9.33308
▁pla	-9.33341
▁dobila	-9.33393
▁uopće	-9.33593
at	-9.33613
00	-9.33706
▁RTL	-9.34386
▁va	-9.34528
▁Olimpijsk	-9.34567
lju	-9.34657
com	-9.34706
▁Europske	-9.34712
▁22	-9.34837
▁Lu	-9.35084
▁odluka	-9.35158
▁Jedan	-9.35162
▁vrata	-9.3522
▁promet	-9.35242
▁veći	-9.35302
▁pola	-9.3557
▁brojne	-9.35693
▁svibnja	-9.35762
▁Evo	-9.35836
▁umjesto	-9.35857
▁video	-9.3586
▁gradonačelnik	-9.35978
Ne	-9.36019
▁sin	-9.36119
▁kući	-9.36131
▁područja	-9.37001
▁unutar	-9.37161
▁dosad	-9.37222
▁nastaviti	-9.37246
▁znaju	-9.37316
▁natjecanja	-9.37385
▁ru	-9.37559
▁programa	-9.37649
▁izbore	-9.37739
▁nama	-9.37809
▁op	-9.38062
▁naših	-9.3808
godišnjak	-9.38272
▁Dan	-9.3839
▁Dr	-9.38426
▁Tijek	-9.38583
▁plan	-9.38597
koj	-9.38909
▁kolu	-9.39281
▁njihova	-9.39396
▁obrane	-9.39408
žu	-9.39413
▁bolji	-9.39474
▁pitanju	-9.39543
▁Di	-9.39649
dr	-9.39787
▁navodno	-9.39832
▁2021.	-9.39848
▁ra	-9.39916
▁stanje	-9.3996
▁Zoran	-9.40004
▁stvarno	-9.40067
iš	-9.40134
pri	-9.40141
▁nogometn	-9.40236
vanje	-9.40291
▁tijelo	-9.40506
▁mlade	-9.40552
▁tr	-9.40769
▁postoje	-9.41218
▁zahtjev	-9.41672
▁tra	-9.41758
nd	-9.41924
▁zdravlje	-9.41964
▁2.	-9.41992
▁glas	-9.4205
▁sigurnost	-9.42093
▁živi	-9.4215
▁gola	-9.42157
▁nosi	-9.4235
ana	-9.42394
▁23	-9.4257
▁vlada	-9.42581
▁zemlji	-9.42608
▁iskustvo	-9.42632
et	-9.42657
▁odluke	-9.42818
ll	-9.42851
▁Radi	-9.42939
▁tijela	-9.42951
▁igrao	-9.42986
▁ostali	-9.42999
▁čiji	-9.43046
ira	-9.43163
▁Prvi	-9.43235
▁stigao	-9.43274
▁vratiti	-9.43286
el	-9.43319
▁događaja	-9.43432
▁ostao	-9.4361
▁slučaj	-9.43652
▁nastup	-9.4369
▁Podsjetimo	-9.43773
▁početkom	-9.43943
+	-9.4401
▁ujutro	-9.4401
▁X	-9.44072
▁finala	-9.4411
ek	-9.44142
▁The	-9.44155
▁strani	-9.44166
▁hoće	-9.44212
▁TV	-9.44407
sp	-9.44436
▁prvoj	-9.44441
▁majka	-9.4447
▁Pre	-9.44721
▁svakom	-9.44749
skoj	-9.44776
▁mediji	-9.44872
▁smrti	-9.44918
▁Lige	-9.44949
▁energije	-9.44949
▁HNL	-9.45116
▁informacije	-9.45116
niji	-9.45145
▁HRT	-9.45291
▁la	-9.45673
▁njegovu	-9.45773
rija	-9.45871
▁boda	-9.45926
▁siječnja	-9.45965
▁Njemačkoj	-9.45965
▁uspio	-9.45966
▁poraz	-9.45983
▁Filip	-9.46022
▁prvenstvu	-9.46136
▁iznad	-9.46148
▁mladi	-9.46151
▁najavio	-9.46232
▁W	-9.46397
▁čime	-9.46413
enja	-9.46509
▁hrane	-9.46651
▁završio	-9.4671
▁došli	-9.46733
▁najveći	-9.46754
▁prosinca	-9.46821
▁NATO	-9.46821
▁umjetn	-9.46992
▁skupine	-9.47023
šić	-9.47049
▁L	-9.47163
▁redu	-9.47284
▁dolaze	-9.47343
▁svemu	-9.47427
▁radova	-9.47486
▁mom	-9.47518
▁nje	-9.47702
▁list	-9.47853
▁Treba	-9.47884
ču	-9.47984
▁kandidat	-9.48002
▁dodala	-9.48249
▁proizvoda	-9.48323
tor	-9.48425
▁Ž	-9.48431
▁treći	-9.48472
▁sezonu	-9.48557
▁Ha	-9.48558
▁radio	-9.48563
▁Samo	-9.48577
aron	-9.48648
▁noći	-9.48662
fi	-9.4871
▁pokazuje	-9.48736
▁novim	-9.48746
▁odlučio	-9.48789
30	-9.4886
▁Pe	-9.48864
▁događa	-9.48934
ver	-9.4929
▁novo	-9.49372
stvo	-9.49388
▁našeg	-9.49409
tra	-9.49414
▁ljeta	-9.49435
▁društvo	-9.49435
▁pobjeda	-9.49442
▁izborn	-9.49507
▁supruga	-9.49521
▁osobito	-9.49628
▁mjere	-9.49746
▁Bar	-9.4984
▁jest	-9.4986
▁Ro	-9.49927
▁osjećaj	-9.49959
▁rješenje	-9.49965
▁RH	-9.49995
▁0	-9.50007
▁nudi	-9.50014
▁traži	-9.50366
▁iznosi	-9.50438
▁proces	-9.50459
▁situaciju	-9.50678
nicu	-9.50734
▁Du	-9.5084
▁postala	-9.50978
▁mogućnost	-9.51007
▁poziv	-9.51028
vali	-9.51093
▁Sada	-9.51181
▁Vlada	-9.51268
▁obzira	-9.5164
▁javno	-9.5166
▁uprave	-9.51723
▁loše	-9.51755
zu	-9.51895
anje	-9.51902
▁c	-9.51937
▁poslije	-9.51938
▁Ra	-9.52263
▁Policija	-9.523
▁kazala	-9.523
▁Više	-9.5233
▁ruke	-9.52365
▁Predsjednik	-9.52664
▁jednoj	-9.52664
▁prilika	-9.52667
▁Č	-9.52673
skih	-9.52683
▁našim	-9.52745
▁kandidata	-9.52876
▁New	-9.52915
▁naša	-9.52952
▁bu	-9.52957
th	-9.53131
▁prostora	-9.53159
▁naravno	-9.53359
▁provodi	-9.5344
▁uskoro	-9.5358
▁Srbije	-9.53597
▁Be	-9.53669
eno	-9.53738
▁postaje	-9.53796
▁društva	-9.53948
lov	-9.54102
▁2025.	-9.54133
ivot	-9.54258
▁smjeru	-9.54317
▁jučer	-9.54318
▁ostaje	-9.5437
▁izvor	-9.54454
co	-9.54471
▁zaključio	-9.54504
▁dijela	-9.54506
▁škola	-9.54677
▁račun	-9.54689
▁medicinsk	-9.54689
▁minute	-9.54691
▁inače	-9.547
▁3.	-9.54705
▁Riječ	-9.54728
▁pe	-9.54907
▁pokazala	-9.55063
▁prometa	-9.55257
▁fotografije	-9.55258
đi	-9.55298
▁napisala	-9.55301
▁vezi	-9.55319
▁Zato	-9.55328
▁djelo	-9.55378
Zc	-9.55467
▁novom	-9.55517
▁svak	-9.55532
▁pjesme	-9.55624
▁svojom	-9.55645
▁pokazao	-9.55651
▁riječi	-9.55665
▁pomo	-9.55781
▁koristiti	-9.55783
▁veze	-9.55874
▁izbor	-9.55875
▁rizik	-9.55939
▁zaista	-9.55968
rije	-9.56148
▁drugu	-9.56192
▁otac	-9.562
▁nemaju	-9.56324
▁Ti	-9.56335
god	-9.56344
ročitajte	-9.56367
▁f	-9.56461
▁početku	-9.56574
▁nekih	-9.56608
▁daleko	-9.56987
tan	-9.56997
▁sutra	-9.57056
▁građani	-9.57131
eva	-9.57146
▁glasova	-9.57159
▁novca	-9.57248
tri	-9.57297
dan	-9.57379
▁Andrej	-9.57407
▁traje	-9.57415
▁klubu	-9.57524
▁takav	-9.57532
▁susreta	-9.57535
▁traže	-9.57536
▁Ar	-9.57639
▁postati	-9.5782
▁Dakle	-9.57921
▁javnost	-9.58085
▁njim	-9.5809
tro	-9.58222
▁Neki	-9.58224
▁Tomislav	-9.58273
sh	-9.58274
▁imam	-9.5828
ciju	-9.58337
▁filma	-9.58364
▁dati	-9.58368
▁kilometara	-9.58447
▁ozljede	-9.58481
▁nastavlja	-9.58544
▁napravio	-9.58563
▁karijere	-9.58595
nija	-9.58753
▁vozač	-9.58851
▁Nema	-9.58888
▁odnos	-9.58889
tom	-9.58907
▁moje	-9.58979
▁Martin	-9.58986
▁dođe	-9.59025
▁Dubrovnik	-9.59094
▁stanju	-9.59185
▁jedini	-9.59211
vati	-9.59493
▁koriste	-9.59509
▁ro	-9.59554
▁poznat	-9.59572
▁nju	-9.59596
ala	-9.59757
▁velikim	-9.59797
▁stan	-9.59838
▁Jer	-9.59894
▁ljubavi	-9.59947
▁J	-9.59965
.000	-9.60077
ilo	-9.60079
▁dobra	-9.60085
▁Osijek	-9.60296
▁Nikola	-9.60311
▁tre	-9.60537
▁#	-9.60642
▁svakako	-9.60664
rt	-9.6075
▁drugoj	-9.60767
▁mnoge	-9.60805
▁potrebe	-9.60827
▁spremni	-9.60846
es	-9.60892
▁Taj	-9.60956
Po	-9.60967
▁Zadar	-9.61094
▁pogotovo	-9.61224
▁2020.	-9.61225
▁Ru	-9.61338
▁iznimno	-9.6137
▁blizini	-9.61423
▁ožujka	-9.61423
▁počeo	-9.61428
▁centar	-9.61481
▁cijelu	-9.61482
▁promjena	-9.61622
▁evo	-9.61632
▁ovako	-9.61942
▁snaga	-9.62048
▁poziva	-9.62102
▁kulture	-9.62222
▁mir	-9.62344
▁Bu	-9.62384
▁naglasio	-9.62423
▁izgubio	-9.62449
ik	-9.62466
▁trenera	-9.62502
▁gr	-9.62503
▁le	-9.62571
▁pjesmu	-9.62624
▁uspjeli	-9.62624
▁pronaći	-9.62845
▁politike	-9.62854
▁uspjeh	-9.62986
▁Ve	-9.63
▁plaće	-9.63154
▁došla	-9.63212
▁sezoni	-9.63231
aju	-9.63313
▁hrvatskom	-9.63392
▁idu	-9.63475
▁Naravno	-9.63648
▁dom	-9.63674
▁Li	-9.63697
▁Ante	-9.63743
min	-9.63789
nt	-9.63795
▁slab	-9.63826
lije	-9.63839
▁Ove	-9.6384
pro	-9.63962
▁krajem	-9.63964
W	-9.64014
▁sredstva	-9.64044
▁stalno	-9.6413
▁zračn	-9.64186
▁pada	-9.64213
▁posljednje	-9.64241
▁finale	-9.6425
▁računa	-9.64271
▁Ono	-9.64304
▁Parizu	-9.64309
era	-9.64346
▁Već	-9.64373
▁Ministarstvo	-9.64457
▁istraživanje	-9.64481
kog	-9.64541
▁neko	-9.64595
▁prati	-9.64649
kla	-9.64709
▁Ona	-9.64743
▁rezultate	-9.6478
▁stav	-9.64792
▁vratio	-9.64806
pu	-9.64965
▁trenutak	-9.64988
▁90	-9.6504
▁razlog	-9.65055
▁planira	-9.651
▁Marija	-9.65139
sto	-9.65239
▁centra	-9.65282
gra	-9.65302
▁lijepo	-9.6537
▁7.	-9.65451
▁iznos	-9.65454
▁prvenstvo	-9.65484
▁budućnosti	-9.65531
▁priču	-9.65536
▁većina	-9.65719
▁gra	-9.65788
ron	-9.65805
▁voditelj	-9.6593
▁DP	-9.6602
bra	-9.66127
▁objasnio	-9.66187
▁prvih	-9.66189
▁znamo	-9.66316
▁roditelji	-9.66343
▁oba	-9.66446
nce	-9.66511
▁ekipa	-9.66526
▁počinje	-9.66556
▁teren	-9.66651
▁trebaju	-9.66667
▁Ministarstva	-9.66738
▁protekl	-9.66751
▁sami	-9.66868
ev	-9.6693
▁društvu	-9.66946
▁probleme	-9.66949
▁poraza	-9.67027
met	-9.67042
▁reprezentacija	-9.67156
▁interes	-9.67268
▁Co	-9.67319
un	-9.67348
▁osje	-9.67353
▁najboljih	-9.67394
▁izbornik	-9.67475
▁of	-9.67512
▁pokazuju	-9.67537
eri	-9.67684
▁misli	-9.67717
▁zajednice	-9.67801
nić	-9.6786
▁di	-9.67894
▁more	-9.67931
▁obje	-9.67978
▁suradnji	-9.68003
▁naši	-9.68106
▁učiniti	-9.68144
▁mandata	-9.68145
▁izazov	-9.6822
▁temperatura	-9.68228
zna	-9.68248
vao	-9.68383
▁priče	-9.68383
▁nesreće	-9.68435
▁imate	-9.6862
▁finalu	-9.68643
▁početak	-9.68653
▁prijedlog	-9.68738
▁navija	-9.6875
car	-9.68779
▁loptu	-9.68863
izira	-9.68882
▁Europsk	-9.69015
čki	-9.69028
▁situacije	-9.69071
▁tvrtka	-9.69086
▁Prvo	-9.69097
vije	-9.69156
▁informacija	-9.69303
▁čij	-9.69455
▁Mar	-9.69621
▁pjeva	-9.69645
ol	-9.69726
▁točno	-9.69805
▁ovoga	-9.69874
▁našu	-9.69922
▁sezona	-9.69938
▁zaštite	-9.70153
▁Mario	-9.70262
▁pokret	-9.70285
ad	-9.70352
▁imena	-9.70356
▁prošlog	-9.70358
▁utjecaj	-9.70363
▁iskustva	-9.70369
▁auto	-9.70382
▁bolnici	-9.70385
▁Ri	-9.70412
▁bar	-9.70418
▁dobi	-9.70432
▁70	-9.70555
fa	-9.70581
▁ceste	-9.70588
▁ruku	-9.70656
▁igrači	-9.70738
▁moja	-9.70758
stva	-9.70776
▁Jadranu	-9.70781
▁zraka	-9.70785
▁otišao	-9.70832
pl	-9.70842
▁Rusija	-9.70844
icom	-9.709
▁Ku	-9.709
▁Tko	-9.70914
kovi	-9.70949
▁dvoje	-9.7095
▁15.	-9.70984
▁medija	-9.71066
čen	-9.71083
▁ljeto	-9.71129
▁automobil	-9.71209
▁tržištu	-9.71243
▁lakše	-9.71251
ika	-9.71255
▁ulici	-9.71283
▁broja	-9.71475
▁znak	-9.71485
!"	-9.71627
J	-9.71661
▁Splita	-9.71702
▁mandat	-9.7178
▁odmor	-9.71788
▁tvrde	-9.71981
▁pad	-9.72038
lom	-9.72049
tar	-9.72082
▁cijel	-9.72148
▁sina	-9.72167
▁potvrdio	-9.72221
▁odgovara	-9.72303
▁karijeri	-9.72353
▁osvojila	-9.72416
▁br	-9.72473
▁Putin	-9.72567
▁Pogledajte	-9.72569
▁model	-9.72576
▁Modrić	-9.72658
đe	-9.72701
▁mali	-9.72816
ljen	-9.72821
▁ići	-9.72862
os	-9.72866
ry	-9.72877
irati	-9.7289
as	-9.72931
▁javlja	-9.72958
▁Instagramu	-9.7305
▁Gu	-9.73115
▁200	-9.73162
đa	-9.73249
▁objašnjava	-9.7332
▁kojemu	-9.73361
▁priopćenju	-9.73462
▁tjelesn	-9.73462
▁razdoblju	-9.73687
▁Baby	-9.73929
▁Damir	-9.73961
▁35	-9.73968
▁povijest	-9.74045
▁Ana	-9.74095
▁godišnje	-9.74111
▁Jedna	-9.74236
▁Lo	-9.74344
ber	-9.74403
▁odr	-9.74412
▁Ki	-9.74494
▁potez	-9.7459
▁stoga	-9.7463
jan	-9.74691
▁daje	-9.74767
▁ostale	-9.74819
▁vidjeli	-9.74844
▁odnosi	-9.74853
▁Bit	-9.75117
ir	-9.7514
▁smije	-9.75194
▁svakog	-9.75252
▁izgled	-9.75315
up	-9.75372
▁dogodila	-9.75391
▁Mnogi	-9.75455
▁moru	-9.75614
▁želim	-9.75666
▁onaj	-9.75681
▁stigla	-9.75734
▁hrvatska	-9.75741
▁njoj	-9.75762
▁mogućnosti	-9.759
▁očito	-9.75933
etiri	-9.75949
▁komentirao	-9.75988
▁11.	-9.76011
▁17.	-9.76019
▁5.	-9.76021
20	-9.76072
▁hit	-9.76127
▁radnika	-9.76164
▁zakon	-9.76315
ct	-9.7634
▁borbi	-9.76433
▁Tri	-9.76461
▁vidio	-9.765
▁budući	-9.76506
▁velikom	-9.76598
grad	-9.76682
▁vrijednost	-9.76721
skim	-9.7676
▁vlasnik	-9.76799
▁rješenja	-9.76888
▁školu	-9.76888
▁26	-9.76968
iva	-9.77088
▁našem	-9.77089
▁održati	-9.77106
▁8.	-9.77133
▁odgovorio	-9.77165
▁zgrade	-9.77353
▁odlu	-9.77368
▁zemlja	-9.77388
▁razvoja	-9.77452
anja	-9.77477
▁našoj	-9.77538
▁zatvora	-9.77759
▁serije	-9.77772
▁prvak	-9.77806
ića	-9.77828
▁kakav	-9.77835
▁Inače	-9.78062
▁razliku	-9.78084
▁Ben	-9.78102
▁govorio	-9.78206
▁vaše	-9.78269
▁milijardi	-9.78527
▁doba	-9.78527
▁nagradu	-9.78539
▁Nisam	-9.78557
▁unatoč	-9.78608
▁golova	-9.78612
stan	-9.78628
▁kilograma	-9.7871
▁Nova	-9.78724
▁zakona	-9.78869
stav	-9.78922
▁4.	-9.78923
ut	-9.78944
lji	-9.7896
▁temelju	-9.7896
▁Br	-9.78988
▁počela	-9.79002
por	-9.791
▁otkriva	-9.79142
▁centru	-9.79151
▁vremenu	-9.79238
▁zaštitu	-9.79239
▁srca	-9.79262
čno	-9.7927
▁El	-9.79272
van	-9.79281
▁budućnost	-9.79428
isti	-9.79439
gor	-9.79496
▁du	-9.79523
▁Ga	-9.79559
▁skupina	-9.7956
▁Pu	-9.7977
Š	-9.79791
▁Pred	-9.79823
▁radu	-9.79938
▁turnira	-9.80002
▁karijeru	-9.80055
čka	-9.80064
▁donio	-9.80077
▁navode	-9.8009
▁poslu	-9.80235
▁ostala	-9.80268
▁vijest	-9.803
▁navijača	-9.80307
▁cijele	-9.80426
ovu	-9.80475
▁h	-9.80509
▁navečer	-9.80611
▁iste	-9.80657
men	-9.80741
▁igraju	-9.8083
▁gledati	-9.80844
▁jedino	-9.80861
▁sto	-9.80868
let	-9.80915
▁2019.	-9.80917
▁kategoriji	-9.80917
ijom	-9.80959
tal	-9.81047
▁ostalim	-9.81098
▁dovesti	-9.81159
bor	-9.81169
▁In	-9.8121
▁rasta	-9.81246
▁programu	-9.81251
▁unije	-9.8127
▁bitno	-9.81271
50	-9.81312
▁uhićen	-9.81335
▁stoljeća	-9.81403
▁takve	-9.81406
tre	-9.81473
jen	-9.81492
▁vraća	-9.81536
▁njihovu	-9.81546
▁km	-9.81553
▁80	-9.81587
▁borbe	-9.81601
▁htio	-9.81646
▁21.	-9.81709
▁stranka	-9.81714
▁uspješno	-9.81722
icama	-9.81806
▁super	-9.81859
▁Bila	-9.8188
▁nesreća	-9.81895
▁poruku	-9.81935
▁europskih	-9.8196
▁smatraju	-9.82012
▁Or	-9.82093
đen	-9.8212
▁Bez	-9.82127
▁školi	-9.82379
▁pogledajte	-9.82387
▁Rijeci	-9.82394
▁45	-9.82481
To	-9.82517
▁uvjetima	-9.82527
▁svaka	-9.82578
▁Možemo	-9.82694
▁izbori	-9.82737
▁dobre	-9.82747
▁velikog	-9.82773
▁rok	-9.82873
▁medije	-9.82874
ita	-9.82932
Za	-9.8309
▁in	-9.83145
▁Ho	-9.83184
▁pop	-9.83208
tak	-9.83234
▁voli	-9.83361
▁grupe	-9.83365
stra	-9.83395
▁studenog	-9.83403
▁članova	-9.83425
▁povećanje	-9.83452
tr	-9.83517
▁donijeti	-9.83539
▁ba	-9.83585
ster	-9.83588
▁plasman	-9.83613
▁zahvaljujući	-9.83619
▁odigrao	-9.8362
▁Koliko	-9.8367
jer	-9.83733
br	-9.83799
▁be	-9.83839
▁prednost	-9.83845
der	-9.8404
▁milijun	-9.84113
▁podataka	-9.84122
▁12.	-9.84143
▁stvara	-9.84209
▁prošli	-9.84251
▁p	-9.84275
▁znati	-9.84293
▁čine	-9.84311
▁20.	-9.8437
▁Sad	-9.84414
▁udarac	-9.84458
njima	-9.84605
▁sredstava	-9.84611
▁Među	-9.84613
gen	-9.84699
▁kupa	-9.84777
op	-9.84823
▁poru	-9.84856
▁premijera	-9.8487
▁velik	-9.84881
▁Nove	-9.84911
▁nalaze	-9.85005
▁požar	-9.85019
ste	-9.85022
▁velikih	-9.85046
lin	-9.85096
var	-9.85125
▁večer	-9.85188
ara	-9.8529
▁poznati	-9.85341
▁Njegov	-9.85367
▁usluga	-9.8542
str	-9.85429
▁ujedno	-9.85509
▁slijedi	-9.85555
▁Ukrajine	-9.8562
▁poznato	-9.85651
eš	-9.85659
▁sv	-9.85809
▁istaknula	-9.85874
▁blizu	-9.85877
▁igru	-9.85884
▁završila	-9.85956
šti	-9.85961
▁njegovim	-9.86003
▁lani	-9.86048
▁putu	-9.86103
▁poruka	-9.86271
▁bo	-9.86298
evi	-9.86458
▁skladu	-9.86496
▁udruge	-9.8664
▁bolnice	-9.86653
▁zvijezda	-9.86695
▁raste	-9.86706
▁partner	-9.86707
▁podacima	-9.86786
▁m	-9.87015
svim	-9.8705
tić	-9.87112
▁istraživanja	-9.87159
red	-9.87222
▁žive	-9.87265
▁Robert	-9.87281
▁10.	-9.87339
▁nastavku	-9.87411
▁promijeniti	-9.87473
▁pobijedio	-9.87494
▁pregled	-9.87604
▁djeci	-9.877
▁Njihov	-9.87701
▁Car	-9.87739
▁članovi	-9.87776
▁službe	-9.87794
▁istom	-9.87834
▁odbora	-9.87947
▁kuću	-9.87954
▁kapetan	-9.88049
▁St	-9.8808
mer	-9.88138
▁nagrade	-9.88207
▁ured	-9.8826
▁Igor	-9.88269
▁lije	-9.88291
▁Par	-9.88373
dar	-9.88387
Ma	-9.88431
▁njegovom	-9.88461
▁policijsk	-9.88477
▁javnog	-9.88477
▁ostalo	-9.88566
▁slika	-9.88596
▁izme	-9.88644
ile	-9.88672
▁konačno	-9.8868
▁rije	-9.88688
▁Slaven	-9.88712
▁uživa	-9.88743
▁predmet	-9.88814
▁službeno	-9.88816
▁redovito	-9.88855
nk	-9.88856
vjer	-9.88929
▁sudac	-9.88964
▁boje	-9.88995
▁medijima	-9.89038
▁muškarac	-9.89128
▁Domovinskog	-9.89234
▁nogomet	-9.89362
ho	-9.89446
▁sportski	-9.89486
raz	-9.89551
ner	-9.8964
▁ž	-9.89642
▁Biden	-9.89644
▁stupnjeva	-9.89761
▁voda	-9.8983
▁njegovo	-9.89948
▁tijeku	-9.89953
▁veliko	-9.89976
▁Ukrajinu	-9.90025
res	-9.90054
▁prijatelja	-9.90097
▁riječima	-9.90113
▁njezine	-9.90126
▁Kon	-9.90127
ec	-9.90154
▁Kod	-9.90195
▁6.	-9.90205
ovac	-9.90258
▁znatno	-9.90288
đu	-9.90298
▁vlade	-9.90298
▁Možda	-9.90305
▁pravila	-9.90326
▁°	-9.90353
▁postupak	-9.90488
▁smislu	-9.90556
▁Ukrajina	-9.90562
▁čovjeka	-9.90694
▁govore	-9.90763
▁odnose	-9.90774
▁Goran	-9.90788
▁organizacije	-9.90823
▁filmu	-9.90842
▁dogoditi	-9.90987
▁spreman	-9.90999
▁bavi	-9.91035
ven	-9.91051
▁poziciju	-9.9109
▁pozvao	-9.9109
irao	-9.91242
▁Per	-9.91251
▁prostoru	-9.91268
esto	-9.91297
▁odgovornost	-9.91328
▁situaciji	-9.91358
▁mjera	-9.91428
vanja	-9.91465
▁Davor	-9.91651
▁najvećih	-9.91738
▁poznata	-9.91881
▁planu	-9.91891
▁skupini	-9.91936
▁Ivica	-9.92006
▁ras	-9.92032
▁prednosti	-9.92062
rić	-9.92071
▁status	-9.92108
▁Kate	-9.92147
▁mreže	-9.92182
▁nagrada	-9.92202
vla	-9.92205
▁potencijal	-9.92248
▁ušao	-9.92256
▁kaznen	-9.92282
fe	-9.92343
▁Marin	-9.92419
▁18.	-9.92476
▁Jo	-9.92497
▁morati	-9.92542
ani	-9.92579
▁pruža	-9.92624
▁Bi	-9.92709
▁temperature	-9.9271
▁tisuće	-9.92717
▁prošao	-9.92722
▁Ljudi	-9.92729
▁zaklju	-9.92941
▁postigao	-9.92982
▁digitaln	-9.93029
mp	-9.9311
▁dobiva	-9.93114
▁vo	-9.93131
▁pove	-9.93247
▁ruske	-9.9327
▁roku	-9.93283
▁znanja	-9.93301
▁potpunosti	-9.93331
▁Imamo	-9.93339
nski	-9.93387
▁pokazati	-9.93393
▁objavi	-9.93394
eve	-9.93452
▁napadu	-9.93472
▁domaćin	-9.93473
▁2018.	-9.9353
▁ponekad	-9.93531
▁9.	-9.93535
▁riješiti	-9.93612
▁vozilo	-9.93671
▁ratu	-9.93704
▁regiji	-9.93804
▁Srbiji	-9.9381
▁Tada	-9.93829
▁pokazali	-9.9383
▁brojni	-9.93852
▁najve	-9.93863
▁uvjete	-9.93993
čin	-9.93997
kup	-9.9406
▁usluge	-9.9408
▁Upravo	-9.94115
▁dogodio	-9.94119
▁različitih	-9.9416
▁jednim	-9.94173
▁susretu	-9.94175
▁njihovim	-9.94208
▁ozbiljno	-9.94253
rov	-9.94276
▁Policijsk	-9.94343
▁cijeni	-9.94359
▁Crn	-9.944
▁volim	-9.94401
▁mre	-9.94454
▁bira	-9.94512
▁Sam	-9.94516
▁19.	-9.94539
▁sekundi	-9.94633
▁glavu	-9.94636
▁pogodio	-9.94644
▁istra	-9.94654
▁drži	-9.94663
stu	-9.94675
▁st	-9.94691
ps	-9.94716
▁Šibenik	-9.94793
zan	-9.94834
▁sljedeći	-9.94837
▁kuća	-9.94918
▁unutarnj	-9.95001
▁isp	-9.95126
▁vide	-9.95161
vala	-9.95168
▁šanse	-9.95189
▁uključuje	-9.9519
▁osnovn	-9.95253
▁koga	-9.95295
▁listi	-9.95327
▁građane	-9.95354
▁područje	-9.95469
▁održava	-9.9549
▁brat	-9.9553
▁značajno	-9.95602
▁glavnog	-9.95656
▁alkohola	-9.95732
▁igrama	-9.95738
▁vijeća	-9.95754
▁granice	-9.95772
▁odlično	-9.95782
▁upozorava	-9.95784
▁skoro	-9.95903
per	-9.95942
ment	-9.95955
▁Varaždina	-9.95968
▁odlučili	-9.95988
▁srce	-9.96122
▁otvoren	-9.96149
▁14.	-9.96169
▁teške	-9.96172
▁njihovih	-9.96188
▁gosti	-9.96277
▁Petra	-9.96285
▁Gr	-9.96313
▁kriv	-9.96346
▁dakle	-9.96347
▁nekog	-9.96374
▁Europskog	-9.96393
▁bivšeg	-9.96397
▁pravn	-9.9641
▁napravili	-9.96416
izam	-9.96465
▁tema	-9.9649
rs	-9.965
čni	-9.9651
▁rekord	-9.96546
▁veće	-9.9656
▁2016.	-9.96594
▁vjetar	-9.96599
nci	-9.96703
ciji	-9.96791
▁Doda	-9.96794
rom	-9.96865
Č	-9.96873
▁sumnja	-9.9688
▁vikend	-9.96889
▁jednako	-9.9689
▁Stoga	-9.96904
▁broju	-9.97016
▁Pod	-9.9706
▁obično	-9.97068
▁udara	-9.97143
▁Zadru	-9.97148
▁morao	-9.9717
▁Vr	-9.97209
▁Božić	-9.97229
▁stil	-9.9725
▁the	-9.97251
▁strana	-9.97269
▁doista	-9.97309
▁sport	-9.97433
▁Primorac	-9.97446
▁knjige	-9.97446
▁podatke	-9.97447
slav	-9.97621
▁navijači	-9.97639
▁tvrtki	-9.97732
▁međutim	-9.97739
▁Bor	-9.97827
▁njihovo	-9.97847
vje	-9.97871
▁kolo	-9.97872
▁vrhu	-9.97906
Na	-9.9797
▁zemljama	-9.97976
tvor	-9.98003
▁konferenciji	-9.98018
▁reprezentaciju	-9.98018
▁prodaje	-9.98039
▁krvi	-9.98096
▁Tom	-9.98214
▁Op	-9.98223
▁dogovor	-9.98243
▁politički	-9.98315
kić	-9.98346
▁primjerice	-9.98375
▁posljednji	-9.98382
▁rođendan	-9.98494
▁naroda	-9.98514
▁treće	-9.98522
▁28	-9.98529
▁sudu	-9.98541
\	-9.98552
▁savršen	-9.98565
vat	-9.98566
▁dijelom	-9.98594
▁snagu	-9.98605
▁zanimljiv	-9.98627
▁vrijedi	-9.98637
▁13.	-9.98681
▁Europskom	-9.98696
▁vodio	-9.9886
▁veljače	-9.98889
▁bolnicu	-9.98892
▁album	-9.9898
natoč	-9.99216
▁30.	-9.99235
▁znanosti	-9.99251
▁van	-9.99267
▁neku	-9.99284
▁Varaždinu	-9.99342
▁pokušaj	-9.99506
▁sadržaj	-9.99527
▁naći	-9.99551
▁učenika	-9.99575
▁ostalih	-9.99679
▁lice	-9.99686
▁doga	-9.99708
pr	-9.99734
rod	-9.99743
▁glumica	-9.99746
▁narod	-9.99788
▁Hrvati	-9.99833
▁ukupn	-9.99937
▁trud	-9.99942
▁nogometaš	-9.99962
dnjih	-10.0002
▁novinar	-10.0007
▁ligi	-10.0007
▁16.	-10.0018
▁priznao	-10.0021
čar	-10.0025
▁onim	-10.0036
▁razinu	-10.0037
▁zatvor	-10.0039
▁glazbe	-10.0041
▁Hrvata	-10.0043
▁32	-10.0051
▁red	-10.0054
▁nastavio	-10.0056
ly	-10.0058
▁autor	-10.0062
▁kvalitete	-10.0063
▁fotografiju	-10.0064
▁prilike	-10.0065
mor	-10.007
▁proizvodnje	-10.007
ler	-10.0077
▁iznosu	-10.0081
▁ravnatelj	-10.0083
▁bod	-10.0085
▁šef	-10.0087
ard	-10.0098
▁slavi	-10.0098
▁poruke	-10.01
▁vole	-10.0102
▁detalje	-10.0103
▁Trumpa	-10.0106
▁sumnje	-10.0108
▁razvoju	-10.0109
▁izuzetno	-10.0119
▁uklju	-10.0122
▁objave	-10.0123
▁val	-10.0125
▁pritom	-10.013
▁dijeli	-10.0133
...'	-10.0135
▁vodu	-10.0135
▁porez	-10.0136
▁tržište	-10.0152
▁KBC	-10.0153
din	-10.0156
▁prometu	-10.0157
▁odlučila	-10.0161
▁zastupnika	-10.0162
10	-10.0163
ger	-10.0167
▁održan	-10.0179
▁San	-10.0188
▁500	-10.0191
▁stanovnika	-10.0193
zo	-10.0193
▁stranici	-10.0194
▁raka	-10.0195
▁olimpijsk	-10.0198
čević	-10.0199
▁ruski	-10.02
▁nogometa	-10.0203
▁So	-10.0205
▁City	-10.0206
ist	-10.0207
▁platformi	-10.0212
▁zdravlja	-10.0213
▁festivala	-10.0224
▁vrsta	-10.0226
▁novoj	-10.0239
žan	-10.0243
▁Zašto	-10.0248
▁fotografija	-10.0253
"",	-10.0255
▁želimo	-10.0257
▁govoriti	-10.0257
▁Instagram	-10.0267
▁dobru	-10.0273
▁građanima	-10.0275
ovo	-10.0279
▁vatrogasn	-10.0302
ošću	-10.0302
▁vrste	-10.0302
▁ulazi	-10.0304
ziv	-10.0306
▁naziva	-10.0307
izma	-10.0309
▁slično	-10.0322
▁osobno	-10.0323
▁činjenica	-10.0332
▁David	-10.0334
▁pravu	-10.0337
▁udar	-10.0342
for	-10.0347
▁ugovora	-10.0348
▁36	-10.0351
▁sastav	-10.0359
▁An	-10.0364
▁pišu	-10.0364
▁Fran	-10.0384
▁čast	-10.0388
▁večeri	-10.0392
://	-10.0392
▁ulaganja	-10.0393
▁večeras	-10.0394
▁ideja	-10.0395
▁kratko	-10.0397
▁potporu	-10.0402
▁ot	-10.0413
▁mijenja	-10.042
▁zemlju	-10.0423
igra	-10.0424
▁obranu	-10.0427
▁Ljubav	-10.043
▁turističk	-10.0434
stvu	-10.0436
▁svaku	-10.0436
:00	-10.045
▁veza	-10.045
▁nekretnine	-10.0454
▁razdoblje	-10.0454
▁Iran	-10.0458
▁vina	-10.0459
▁partnera	-10.047
iv	-10.0472
▁nekom	-10.0475
▁samog	-10.048
▁svjetski	-10.0481
▁lokalne	-10.0482
▁Josipa	-10.0482
▁reprezentativac	-10.0486
▁trenutačno	-10.0501
▁zastupnik	-10.0506
▁satima	-10.0506
▁kreće	-10.0506
▁pala	-10.0507
ob	-10.0507
▁državnog	-10.0508
▁prometne	-10.0508
▁27	-10.0512
▁Tim	-10.0518
▁22.	-10.0527
▁članica	-10.0534
▁suprug	-10.0535
nac	-10.0543
▁cijenu	-10.0546
▁cesti	-10.0547
▁Prva	-10.0549
▁isključivo	-10.0549
godišnja	-10.0557
▁podru	-10.0557
▁brojnim	-10.0563
▁vanjskih	-10.0565
▁prijatelj	-10.0567
▁štetu	-10.0577
▁stiže	-10.0578
▁putovanja	-10.0579
▁pobjednik	-10.0581
▁natjecanje	-10.0586
▁zatvoren	-10.0586
▁kazne	-10.0589
jima	-10.0592
▁ciljem	-10.0593
▁spoj	-10.0593
▁obi	-10.0596
▁pregleda	-10.0599
▁pogodak	-10.0601
inom	-10.0603
kle	-10.0606
▁stol	-10.061
▁povratak	-10.061
▁glasa	-10.0612
kri	-10.0614
▁gleda	-10.0619
▁završiti	-10.0629
▁kontakt	-10.063
▁najveća	-10.063
kih	-10.0634
▁Obje	-10.0636
▁četvrti	-10.0637
▁borbu	-10.064
▁pokušava	-10.0644
▁njegovog	-10.0646
log	-10.0648
▁ulice	-10.0652
ot	-10.066
▁umjeren	-10.0662
aja	-10.0667
kov	-10.0673
▁izjavila	-10.0683
▁njegovoj	-10.0683
▁turnir	-10.0684
▁Vučić	-10.0686
▁300	-10.0686
▁savez	-10.0691
▁rezultati	-10.07
▁suradnju	-10.0702
▁počeli	-10.0702
▁Ligi	-10.0703
▁razine	-10.0706
▁simbol	-10.0707
▁podržava	-10.072
▁prijevoz	-10.0721
▁jedinstven	-10.0731
▁Harris	-10.0734
▁obrazovanja	-10.0734
▁pratiti	-10.0735
▁sukob	-10.0735
▁znao	-10.0735
▁ovakv	-10.0736
▁vjerujem	-10.0736
▁vjeruje	-10.0741
▁lista	-10.075
▁Euro	-10.0762
▁Naj	-10.0763
▁moć	-10.0764
▁europske	-10.0765
▁generacije	-10.0765
▁pun	-10.0767
pt	-10.077
▁Jako	-10.0772
▁naveo	-10.0773
▁niste	-10.0773
▁hrvatskim	-10.0778
▁nadam	-10.0782
▁predsjednica	-10.0783
▁krenuo	-10.0784
put	-10.0787
čev	-10.079
▁državni	-10.0793
▁pao	-10.0796
▁proglašen	-10.0797
▁nastavak	-10.0797
▁pot	-10.0799
▁svakodnevno	-10.0799
▁Vu	-10.0805
▁rođen	-10.0811
njak	-10.0821
san	-10.0826
▁nažalost	-10.0828
▁ministra	-10.0829
▁Općine	-10.0829
son	-10.083
▁prodaju	-10.0835
▁udruga	-10.0835
▁normalno	-10.0839
▁cijelo	-10.0844
Ž	-10.0848
godišnjeg	-10.085
uk	-10.085
▁55	-10.0855
▁pozornost	-10.0855
eli	-10.0857
▁sljedeće	-10.0861
▁https	-10.0863
▁pored	-10.0879
▁osigurati	-10.0882
▁zajednica	-10.089
▁kvalitetu	-10.0892
▁starije	-10.0893
▁odnosa	-10.0894
kao	-10.0895
est	-10.0901
RA	-10.0905
▁ovisi	-10.0906
▁napadač	-10.0908
▁globaln	-10.0918
jev	-10.0919
mjesto	-10.092
▁oružja	-10.0924
▁agencija	-10.0924
▁Dubrovnika	-10.0924
▁klimatsk	-10.0925
ško	-10.0932
kama	-10.0933
kova	-10.0938
▁pokreta	-10.0942
▁Rad	-10.0956
▁Rusije	-10.0962
▁Dubrovniku	-10.0985
▁per	-10.0989
▁djeteta	-10.0989
▁pažnju	-10.0989
▁hranu	-10.0989
▁pomaže	-10.099
▁Bel	-10.0992
id	-10.0992
▁muškaraca	-10.1002
▁34	-10.1005
▁njegovi	-10.1006
▁smrt	-10.1009
▁osobama	-10.1011
▁domaće	-10.1012
veli	-10.1013
čke	-10.1014
▁dnevno	-10.1017
eta	-10.1019
▁vikenda	-10.102
▁političke	-10.1021
▁onoga	-10.1025
▁saveza	-10.1027
ren	-10.1028
▁prosvjed	-10.1036
▁razn	-10.1048
▁pripreme	-10.1053
▁umjetnosti	-10.1068
ic	-10.1071
▁kamen	-10.1084
▁zadnji	-10.1085
▁zdravstva	-10.1087
▁teret	-10.109
▁pu	-10.1094
▁Poljudu	-10.1094
▁motor	-10.1097
▁sna	-10.1106
▁vijesti	-10.1109
▁desetak	-10.1111
▁bol	-10.1111
▁Is	-10.1113
rat	-10.1117
▁preminuo	-10.1119
mar	-10.1119
▁odvjetnik	-10.1121
▁polu	-10.1124
▁međunarodn	-10.1131
▁He	-10.1132
▁utjecati	-10.1133
▁svjetskog	-10.1133
▁cesta	-10.1134
▁vlast	-10.1134
▁slobodno	-10.1136
▁postane	-10.1138
▁Čak	-10.1142
▁prolazi	-10.1143
▁obliku	-10.1148
▁očekivati	-10.1152
▁ubrzo	-10.1152
▁trend	-10.1153
▁smještaj	-10.1154
av	-10.1157
ivanje	-10.1159
▁Mu	-10.1161
▁njom	-10.1164
▁vodstvo	-10.117
▁pra	-10.1172
▁33	-10.1176
kim	-10.1177
▁različite	-10.118
par	-10.1181
▁interesa	-10.1184
▁pritisak	-10.1184
▁projekata	-10.1184
▁policiji	-10.1184
▁fazi	-10.1184
▁rak	-10.1185
▁kiša	-10.1186
▁otpada	-10.1186
▁uzrok	-10.119
▁portal	-10.1193
▁najveće	-10.1195
gan	-10.12
▁odlazi	-10.121
▁cijelog	-10.1215
▁Drugi	-10.1216
▁siguran	-10.1217
▁organizaciji	-10.1217
▁nasilja	-10.1218
▁otvara	-10.1226
▁Hrvatskom	-10.1234
▁morali	-10.1234
▁dug	-10.1235
▁stručnjak	-10.124
bri	-10.1242
▁strah	-10.125
▁važan	-10.1251
▁radili	-10.1256
▁sukoba	-10.1257
▁zaštitn	-10.1257
▁korisnika	-10.1257
▁Zakona	-10.1259
▁standard	-10.1264
▁zadovoljni	-10.127
▁modn	-10.127
ari	-10.1272
▁Isto	-10.1279
▁mišljenje	-10.1284
bar	-10.129
vanju	-10.1291
▁javne	-10.1292
▁Gradsk	-10.1292
▁najbolja	-10.1298
▁povećan	-10.1299
▁pogledati	-10.1301
▁ključn	-10.1304
iranje	-10.1304
▁popis	-10.1307
▁Srbija	-10.1307
nta	-10.1312
▁okolnosti	-10.1313
▁gore	-10.1313
▁upit	-10.1315
▁zdrav	-10.1316
▁Sjedinjen	-10.1317
▁2017.	-10.1317
▁zimsk	-10.1318
ega	-10.1325
▁gradova	-10.133
ff	-10.1335
▁roditelja	-10.1346
▁humanitarn	-10.1351
▁međuvremenu	-10.1351
▁turizma	-10.1351
▁suradnje	-10.1351
▁itekako	-10.1351
▁Njemačka	-10.1351
▁Fa	-10.1352
▁nacija	-10.1353
▁zaposlen	-10.1354
▁kaznenog	-10.1357
▁Željko	-10.136
▁voditi	-10.136
▁studija	-10.1362
"...	-10.1363
▁visoko	-10.1369
▁pokušao	-10.137
▁PU	-10.1372
▁prijatelji	-10.1372
sen	-10.1382
▁Njezin	-10.1384
▁pobjedom	-10.1384
lica	-10.1385
▁zadnje	-10.1392
▁37	-10.1392
▁poena	-10.1398
▁korištenje	-10.1406
avaju	-10.1408
▁boja	-10.1411
▁posebice	-10.1418
▁sobom	-10.1418
▁dres	-10.1425
▁drugima	-10.1428
▁Beogradu	-10.1428
▁pogled	-10.1436
▁rusk	-10.1437
voj	-10.1444
▁gostima	-10.1449
▁Lasagna	-10.1452
▁emisiji	-10.1452
▁Os	-10.1454
▁politika	-10.1478
▁odgoj	-10.148
▁Moj	-10.1486
▁proveo	-10.1487
▁stru	-10.1489
▁kakve	-10.149
▁podijelila	-10.149
▁igara	-10.1491
▁jezik	-10.1495
star	-10.1496
▁zrakoplov	-10.1498
▁dolazak	-10.1504
▁Pet	-10.1508
▁ukrajinsk	-10.1515
▁vlasništvu	-10.1519
▁gospodarstva	-10.152
ss	-10.1525
▁Facebook	-10.1527
lice	-10.1527
▁domaći	-10.1533
pet	-10.1536
bio	-10.1536
vor	-10.1537
▁noć	-10.1539
▁rezultata	-10.1539
▁našao	-10.1545
▁29.	-10.155
▁kolege	-10.1554
▁podrške	-10.1554
▁prethodno	-10.1556
▁Milanovića	-10.156
▁europskim	-10.1563
▁ostvariti	-10.1564
▁jedina	-10.1565
▁suprugom	-10.1571
▁Gazi	-10.1575
▁Kr	-10.1579
▁muškarca	-10.1588
▁državi	-10.1588
▁koševa	-10.1588
▁kampanje	-10.1589
▁kup	-10.1589
▁san	-10.159
ker	-10.1594
▁ha	-10.1594
▁organizira	-10.1597
▁doprinos	-10.1603
▁serija	-10.1604
▁moram	-10.1607
▁korist	-10.1608
▁lo	-10.1608
▁zaštiti	-10.1616
▁povodom	-10.1617
▁modern	-10.1625
▁proizvode	-10.1628
▁stranu	-10.1629
▁komentara	-10.163
nj	-10.1631
▁jesu	-10.165
▁29	-10.1653
▁nikakv	-10.1653
▁John	-10.1658
▁Zadra	-10.166
▁pjevačica	-10.166
lija	-10.1661
▁poslao	-10.1663
▁stadionu	-10.1665
▁širok	-10.1666
kar	-10.1666
▁otkaz	-10.1667
den	-10.1671
▁tekst	-10.168
▁američki	-10.1681
▁tjedana	-10.1681
▁morate	-10.1681
▁div	-10.1683
é	-10.1691
▁Mate	-10.1693
▁26.	-10.1693
▁takva	-10.1693
▁takvih	-10.1697
▁ci	-10.1699
▁kor	-10.1699
▁vezu	-10.17
▁mala	-10.1704
▁mobitel	-10.1705
▁domu	-10.171
▁Sjevern	-10.1711
▁razgovor	-10.1713
▁natječaj	-10.1714
▁radovi	-10.172
jak	-10.1723
▁duboko	-10.1724
▁igrali	-10.1724
sno	-10.1725
▁osobu	-10.1726
▁vožnje	-10.1726
▁objavili	-10.1736
stati	-10.1736
▁kupiti	-10.1736
▁ispričao	-10.1737
▁važnost	-10.1738
rati	-10.1755
▁vidimo	-10.1757
▁prijateljima	-10.1758
▁Ili	-10.176
▁GALERIJA	-10.1761
▁braku	-10.1762
▁smanjenje	-10.1764
zer	-10.1767
Da	-10.1767
▁proizvodi	-10.1767
▁Reka	-10.1774
▁sporta	-10.1774
▁skup	-10.1775
▁profesor	-10.1777
▁dogodi	-10.1782
dić	-10.1784
▁male	-10.1789
▁nadležn	-10.179
▁Si	-10.1791
▁vama	-10.1802
▁drago	-10.1805
▁nekad	-10.1805
▁izgubili	-10.1806
▁događaj	-10.1808
▁Ob	-10.1811
▁smanjiti	-10.1812
▁Velika	-10.1812
▁let	-10.1813
▁osobi	-10.1816
▁proći	-10.182
▁neto	-10.1824
▁uspjela	-10.1831
▁energiju	-10.1832
▁izgubila	-10.184
▁platiti	-10.1841
len	-10.1857
▁liste	-10.1864
▁ri	-10.1865
▁očekuju	-10.1871
▁vje	-10.1872
ft	-10.1874
▁negdje	-10.1875
▁istoku	-10.1875
gar	-10.188
▁Nadam	-10.1896
▁informacijama	-10.1899
▁ekipe	-10.1901
▁kompanija	-10.1901
▁Hu	-10.1902
▁otići	-10.1903
▁otprilike	-10.1905
▁mjeri	-10.1907
▁150	-10.1907
▁Kor	-10.1911
▁sjajno	-10.1914
▁službenici	-10.1928
▁jezika	-10.1928
▁Dragan	-10.1937
▁kaznu	-10.1937
dra	-10.1939
vac	-10.1946
kan	-10.1954
▁podaci	-10.1954
kli	-10.196
▁Bijel	-10.1966
▁Italije	-10.1972
▁banke	-10.1973
▁Manchester	-10.1974
▁živjeti	-10.1976
▁govor	-10.1976
▁pjevač	-10.1982
▁razne	-10.1991
▁glumac	-10.1992
▁Njegova	-10.2005
▁naslova	-10.2008
▁vojske	-10.2008
▁UN	-10.201
▁iduće	-10.202
▁vidim	-10.2022
▁županija	-10.2026
▁funkcionira	-10.2029
15	-10.2029
ivati	-10.2036
una	-10.2037
▁krov	-10.2039
▁publiku	-10.2044
▁Uprave	-10.2047
▁Sun	-10.2049
▁državne	-10.2059
▁pjesma	-10.206
▁čije	-10.206
▁nositi	-10.2062
▁Vladimir	-10.2066
▁demokratsk	-10.2073
▁radni	-10.2077
▁klupi	-10.208
▁započeo	-10.208
▁materijal	-10.2083
1.	-10.2094
ers	-10.2098
▁Man	-10.2104
▁obrani	-10.2109
▁23.	-10.2111
▁ulja	-10.2112
▁institucije	-10.2116
▁kontrolu	-10.2116
▁Posao	-10.2117
▁Uvijek	-10.2118
▁Cilj	-10.2124
tni	-10.2126
▁grupa	-10.2128
▁Malo	-10.2133
koliko	-10.2138
▁ulazak	-10.2142
▁vrh	-10.2145
▁građevinsk	-10.2152
▁akcije	-10.2152
▁ishod	-10.2153
▁web	-10.2153
pis	-10.2153
▁kakva	-10.2154
▁nesreći	-10.2156
▁razlike	-10.2156
▁rukama	-10.2159
▁nadzor	-10.2159
▁Naš	-10.2167
▁posljedica	-10.2169
▁putnika	-10.2172
▁naime	-10.2174
▁seks	-10.2176
ks	-10.2178
▁dobit	-10.2181
ul	-10.2189
▁drugačije	-10.2189
▁idemo	-10.2189
▁posve	-10.2191
▁visoke	-10.2192
▁sunčano	-10.2199
▁bogat	-10.2199
▁pobijediti	-10.2203
▁kolega	-10.2205
▁zdravstvene	-10.2207
▁dokaz	-10.2211
▁razgovoru	-10.2216
ela	-10.2216
▁zajednički	-10.2218
▁Varaždinske	-10.2223
▁posjet	-10.2224
▁poseban	-10.2225
▁šteta	-10.2227
▁Rusiji	-10.2227
▁Dalić	-10.2231
▁ljubavn	-10.2235
▁Boris	-10.2236
▁pres	-10.2238
tur	-10.2239
▁znali	-10.224
▁pomalo	-10.2241
▁ozljeda	-10.2242
nka	-10.2242
▁porezn	-10.2245
▁ho	-10.2253
ent	-10.2254
▁motiv	-10.2257
▁ističu	-10.226
▁trgovine	-10.2262
▁Nažalost	-10.2263
▁kiše	-10.2263
▁brojnih	-10.2267
▁šut	-10.2271
▁Europski	-10.228
▁onom	-10.2282
▁rastu	-10.2288
ele	-10.2289
▁uzor	-10.2294
▁talent	-10.2294
▁Radić	-10.2296
▁nedjelje	-10.2299
▁desetljeća	-10.2299
telj	-10.2302
▁upravljanja	-10.2304
▁dnevn	-10.2308
nijih	-10.2316
▁većinom	-10.2317
▁prof	-10.2318
▁nekako	-10.232
nos	-10.2321
▁otvoreno	-10.2325
25	-10.2335
▁posljedice	-10.2335
▁vojnika	-10.2341
▁proizvodnju	-10.2343
!'	-10.2343
ješ	-10.2343
▁festival	-10.2352
▁cestama	-10.2358
▁izabran	-10.2359
novi	-10.2359
▁igrače	-10.2361
▁sustavu	-10.2367
▁opasnosti	-10.2367
▁brod	-10.2367
▁tržišta	-10.2373
▁vojska	-10.2373
▁prilično	-10.2373
▁televizijsk	-10.2373
▁potrebna	-10.2375
▁poljoprivredn	-10.2376
▁krug	-10.238
▁mogle	-10.2382
han	-10.2382
Ja	-10.2383
cy	-10.2388
Ovo	-10.2388
▁europski	-10.2389
▁zgrada	-10.239
fer	-10.2392
▁krugu	-10.2394
▁njihovi	-10.2395
▁Osijeka	-10.2405
▁Dinamu	-10.241
▁gubi	-10.2417
▁ulozi	-10.2421
kin	-10.2434
▁poreza	-10.2435
▁načelnik	-10.2439
▁48	-10.2442
▁prirode	-10.2447
▁podrška	-10.2447
%2	-10.2452
▁krenuli	-10.2453
▁38	-10.246
▁hotela	-10.2467
▁razgovarati	-10.2467
ras	-10.2468
▁širi	-10.2469
▁samom	-10.2469
nicima	-10.247
▁28.	-10.2474
▁bori	-10.2479
▁bolja	-10.248
▁zanima	-10.2482
▁Ujedinjen	-10.2484
▁poziciji	-10.2484
▁pita	-10.2487
▁potres	-10.2488
▁čitav	-10.2488
šću	-10.2488
▁putovanje	-10.2492
▁tip	-10.2495
▁75	-10.2498
▁projekte	-10.25
pot	-10.25
▁vatrogasci	-10.2502
▁jak	-10.2502
▁Svaki	-10.2504
▁autobus	-10.2505
▁Dana	-10.2505
▁ostavio	-10.2507
▁kuna	-10.2509
ton	-10.2517
cijom	-10.2519
▁koncerta	-10.2519
oko	-10.2522
▁udario	-10.2522
▁proračuna	-10.2525
▁Petar	-10.2526
fr	-10.2537
▁nogometnog	-10.2538
▁Ju	-10.255
▁Osijeku	-10.2553
▁Španjolska	-10.256
▁ispunjen	-10.256
▁poluvremenu	-10.256
▁snimke	-10.256
▁Njemačke	-10.256
▁pojedin	-10.2564
▁slatk	-10.2566
▁postavlja	-10.2572
▁javni	-10.2572
avanje	-10.2578
▁incident	-10.258
▁zanimljivo	-10.2584
▁osvojili	-10.2588
sc	-10.2589
▁Južn	-10.2595
▁stopa	-10.2598
▁prijave	-10.2598
▁šir	-10.2602
▁Bal	-10.2604
▁kćeri	-10.2608
▁stranicama	-10.261
▁Madrid	-10.2612
▁parlament	-10.2617
▁najčešće	-10.2636
▁agencije	-10.2636
▁vremenom	-10.2636
▁pokazalo	-10.2636
▁HNS	-10.2636
▁stigli	-10.2636
▁zadatak	-10.2636
vrš	-10.2636
▁objasnila	-10.2639
▁tradicionaln	-10.2643
▁Španjolske	-10.2648
▁terena	-10.2652
▁posebn	-10.2652
▁opcija	-10.2656
▁Fi	-10.266
▁rasporedu	-10.266
▁sc	-10.2662
▁Ča	-10.2667
▁natjecanju	-10.2674
▁istrage	-10.2674
▁strijelac	-10.2675
▁čelu	-10.2675
▁avion	-10.2677
▁društvenih	-10.2684
▁zapadn	-10.2686
▁jedva	-10.2692
▁Maksimiru	-10.2693
▁OVDJE	-10.2712
▁kompleks	-10.2712
▁rujnu	-10.2712
ovoj	-10.2713
▁scenarij	-10.2722
nskog	-10.2728
▁stavlja	-10.273
▁rano	-10.2733
▁Star	-10.2733
▁stati	-10.2735
▁odlazak	-10.2736
iran	-10.2736
▁spava	-10.2744
vez	-10.2745
▁skupa	-10.2746
ret	-10.275
▁većinu	-10.2751
▁troje	-10.2756
jom	-10.2756
▁prošlosti	-10.276
▁vozi	-10.2761
▁omiljen	-10.2761
▁državn	-10.2766
▁vremensk	-10.2767
▁klubova	-10.2767
▁ob	-10.2767
▁Marka	-10.2768
▁ostalog	-10.2772
▁25.	-10.2773
bil	-10.2774
▁publika	-10.2774
▁naglašava	-10.2775
ban	-10.2777
lek	-10.2778
▁Sta	-10.2786
▁otvorena	-10.2786
▁emisije	-10.2789
▁hrvatsku	-10.2789
▁publike	-10.2789
▁sinoć	-10.279
▁djecom	-10.279
▁američke	-10.2791
▁scene	-10.2791
▁politiku	-10.2794
▁Veliki	-10.2798
▁želite	-10.28
pit	-10.2802
▁sigurni	-10.2807
▁Autor	-10.2808
▁Prošl	-10.2808
sni	-10.281
▁mog	-10.2814
lar	-10.2825
▁napokon	-10.2828
▁preostal	-10.2828
▁dojam	-10.283
▁ispričala	-10.2831
glas	-10.2832
▁djeluje	-10.2832
▁Kar	-10.2834
▁uprava	-10.284
oz	-10.284
▁igri	-10.2844
▁ispri	-10.2853
▁postali	-10.2859
▁uživati	-10.286
▁stanova	-10.286
▁otoku	-10.2866
▁povjerenje	-10.2869
▁kome	-10.2869
▁noge	-10.2871
▁otkrili	-10.2873
nut	-10.2877
▁djevojka	-10.2877
uz	-10.288
adi	-10.288
▁lica	-10.2882
▁stanja	-10.2883
▁Go	-10.2889
▁gradonačelnika	-10.289
▁Dražen	-10.2892
ljiv	-10.2897
▁Zna	-10.2898
▁živ	-10.2904
▁Sveučilišta	-10.2906
▁klupsk	-10.2906
▁svjesni	-10.2907
▁Tomašević	-10.2909
žen	-10.2913
▁definitivno	-10.2915
?"	-10.2915
▁kra	-10.2915
▁opasnost	-10.2917
elj	-10.2917
tko	-10.2917
▁pobijedila	-10.2918
▁showa	-10.2919
▁zasad	-10.2923
▁danima	-10.2925
▁svoja	-10.2929
▁seriji	-10.293
▁radimo	-10.2935
▁skriva	-10.2938
▁stari	-10.2939
▁meč	-10.2942
▁usporedb	-10.2945
▁dvorani	-10.2946
▁mreži	-10.2947
▁stranih	-10.2949
▁Dobro	-10.2949
▁kazna	-10.295
▁jaja	-10.2952
▁Milan	-10.2953
ow	-10.2959
▁Dinamov	-10.2959
▁gostiju	-10.2963
▁različitim	-10.2965
▁mreža	-10.2966
▁recept	-10.2972
što	-10.2981
ivanja	-10.2981
nske	-10.2984
▁žrtve	-10.2985
▁Vo	-10.2985
▁zove	-10.2992
▁okus	-10.3002
▁klasičn	-10.3003
▁dužnosti	-10.3003
▁bra	-10.3005
▁čuva	-10.3007
nite	-10.3012
▁w	-10.3015
▁ratn	-10.3018
▁tzv	-10.3024
▁poticaj	-10.3024
▁trag	-10.3024
▁osvojen	-10.3025
▁Inter	-10.3027
▁košta	-10.3029
▁prošlo	-10.3031
▁Net	-10.3034
▁Turudić	-10.3038
▁Va	-10.3038
▁Udruge	-10.304
▁prekršaja	-10.3043
▁top	-10.3044
▁održiv	-10.3044
▁Kup	-10.3051
▁Francuska	-10.3057
▁rasp	-10.3058
▁39	-10.3059
Do	-10.3063
▁Europsko	-10.3064
▁ponudu	-10.3064
▁Izvor	-10.3066
▁nekoga	-10.3068
▁sastanak	-10.307
▁anti	-10.3072
rd	-10.3075
▁sre	-10.3082
▁šibensk	-10.3082
▁knjiga	-10.3085
▁borba	-10.3085
▁Ver	-10.3086
▁uspjeha	-10.3088
▁sudaca	-10.3092
▁regije	-10.3104
▁otoka	-10.3106
▁osvojiti	-10.3113
▁sudjelovati	-10.3114
▁dovodi	-10.3116
čiti	-10.3119
zor	-10.312
▁unutrašnjosti	-10.3124
▁značaj	-10.3126
▁temu	-10.3134
▁Facebooku	-10.3135
▁spor	-10.3143
▁operacije	-10.3144
▁reakcije	-10.3144
▁Domovinski	-10.3144
▁videu	-10.3161
▁kazneno	-10.3162
▁Post	-10.3163
▁trening	-10.3163
▁manji	-10.3167
rez	-10.3171
▁početi	-10.3176
▁fizičk	-10.3177
▁ponašanje	-10.3179
▁400	-10.3181
▁igračima	-10.3181
▁vratar	-10.3182
▁tehnologije	-10.3184
▁jutarnj	-10.3184
▁objavljen	-10.3192
▁pronašli	-10.3192
▁svako	-10.3194
▁Posebno	-10.3195
▁daljnje	-10.3197
▁osiguranje	-10.3202
▁obzir	-10.3204
▁31.	-10.3205
tt	-10.3207
▁vodom	-10.3211
▁politi	-10.3213
nuti	-10.3217
▁Bur	-10.3223
▁mjestima	-10.3224
▁tijelu	-10.3224
▁mrežu	-10.3225
▁europskog	-10.3229
▁usmjeren	-10.3231
▁izdanje	-10.3237
▁razlika	-10.3238
▁Ču	-10.3242
▁Istra	-10.325
▁uključen	-10.3253
▁linije	-10.3256
▁prvim	-10.3256
ito	-10.3259
tori	-10.3259
▁izvijestio	-10.3265
▁2015.	-10.3265
▁Areni	-10.3267
kav	-10.3272
▁oblik	-10.3273
▁glavi	-10.3275
0.000	-10.3281
▁požara	-10.3294
▁Bog	-10.3294
▁goste	-10.3296
▁otvorio	-10.3296
▁and	-10.3302
_	-10.3304
dalmacija	-10.3305
▁vjerovati	-10.3305
▁vozača	-10.3307
▁konkretn	-10.3308
▁izvora	-10.3312
▁zvuk	-10.3313
▁sporazum	-10.3314
▁glavn	-10.3322
▁događaju	-10.3323
▁organizacija	-10.3326
▁York	-10.3333
ška	-10.3334
▁društvene	-10.3336
▁intervju	-10.3342
▁okoliša	-10.3344
▁sposobnosti	-10.3345
▁Zdravlje	-10.3347
▁takvim	-10.3347
▁zbor	-10.3348
▁roditeljima	-10.3348
▁potpisao	-10.3348
enu	-10.3349
▁znate	-10.335
jet	-10.3354
▁osjeća	-10.3358
▁organiziran	-10.3368
▁izraelsk	-10.3371
čkog	-10.3374
▁golom	-10.3375
pra	-10.338
▁mirovinu	-10.3387
▁ubojstvo	-10.3387
▁chef	-10.3387
▁utrke	-10.3387
▁medalje	-10.3388
▁kategorije	-10.3388
▁okoliš	-10.339
▁tajnik	-10.339
images	-10.3391
▁24.	-10.3395
▁prioritet	-10.3397
▁vrtića	-10.3398
▁rezultatom	-10.3405
▁ista	-10.3409
▁novinarima	-10.3411
▁župan	-10.3413
▁upravljanje	-10.3414
dio	-10.342
eka	-10.3421
▁razdoblja	-10.3428
▁titulu	-10.3428
▁nada	-10.3433
▁glazbeni	-10.3433
▁porast	-10.3433
▁ikad	-10.3435
▁provesti	-10.3438
▁savjet	-10.3448
▁nekretnina	-10.3449
▁derbi	-10.3453
ovog	-10.3454
najprije	-10.346
▁važna	-10.3465
▁redatelj	-10.3467
▁nemamo	-10.3467
▁valja	-10.3469
▁zadovoljstvo	-10.347
▁izjave	-10.347
▁sceni	-10.3472
▁SP	-10.3473
▁sredin	-10.3475
▁puni	-10.348
pol	-10.3482
▁obrana	-10.3485
▁para	-10.3488
▁Film	-10.3488
nuo	-10.3494
▁usred	-10.3497
▁kr	-10.3501
▁Put	-10.3506
▁oštećen	-10.3507
▁prijeti	-10.3507
▁USKOK	-10.3511
▁sudjelovao	-10.3511
▁Med	-10.3512
▁zlato	-10.3514
▁proizvod	-10.3522
▁modela	-10.3522
▁napustio	-10.3523
▁reda	-10.3524
▁kraljevsk	-10.3526
▁stana	-10.3526
▁postavljen	-10.353
▁al	-10.3534
▁Jutarnji	-10.3539
land	-10.3542
▁određen	-10.3542
▁glavna	-10.3543
▁izvijestila	-10.3546
▁telefon	-10.3548
ksi	-10.3552
▁poslove	-10.3553
▁Takv	-10.3554
sata	-10.3556
▁komunaln	-10.3556
▁najveć	-10.3557
▁gradi	-10.3558
nska	-10.3559
▁pru	-10.3568
ovjek	-10.3573
▁izvoz	-10.3575
▁žensk	-10.3575
▁povezan	-10.3578
▁Perišić	-10.3579
nima	-10.358
▁Može	-10.3581
▁Plenkovića	-10.3583
vom	-10.3584
▁ovisno	-10.3586
▁cr	-10.3586
▁uvjeti	-10.3587
▁tenisač	-10.3591
▁mr	-10.3593
▁Gattuso	-10.3595
▁obrazovanje	-10.3596
▁upozorenje	-10.3597
▁polju	-10.3598
kinja	-10.3603
▁Festival	-10.3609
▁domaćih	-10.3613
▁27.	-10.3615
▁Novak	-10.3627
▁ostvaren	-10.363
▁oči	-10.3631
les	-10.3632
▁vrt	-10.3632
▁donijela	-10.3636
lina	-10.3638
▁preuzeo	-10.3638
▁svatko	-10.3638
▁sestra	-10.3642
▁Portugal	-10.3645
ški	-10.3648
▁Bivši	-10.3648
enju	-10.3651
▁duž	-10.3652
▁Ol	-10.3657
roz	-10.3658
▁Mil	-10.3666
▁njemački	-10.3671
▁staviti	-10.3672
▁lud	-10.3675
▁Sch	-10.3675
▁zvijezde	-10.3679
▁izgradnju	-10.3679
▁alkohol	-10.3681
▁zahtjeva	-10.3683
▁Fu	-10.3683
▁stadion	-10.3685
▁kralj	-10.3685
tin	-10.3686
▁Jakirović	-10.3691
▁napravila	-10.3693
▁tima	-10.3709
ište	-10.3709
▁predstavnika	-10.3712
▁zlo	-10.3717
▁Ministar	-10.372
▁ministarstvo	-10.3724
▁sluša	-10.3726
▁pas	-10.3727
govor	-10.3729
▁povećava	-10.3731
▁tražiti	-10.3734
▁Van	-10.3737
▁transfer	-10.3739
▁65	-10.374
▁liječnik	-10.3741
▁institucija	-10.3744
▁teme	-10.3745
rna	-10.3745
▁dvoboj	-10.3747
telji	-10.3747
▁hitno	-10.3762
▁ponude	-10.3764
▁odvija	-10.3765
▁turniru	-10.3765
▁slučajeva	-10.3766
▁dubok	-10.3767
▁općine	-10.3767
▁pobijedili	-10.3778
▁odre	-10.378
čko	-10.3793
▁zabilježen	-10.38
▁obramben	-10.3806
▁županiji	-10.3808
▁javnom	-10.3809
▁nude	-10.3809
▁online	-10.3811
▁njezinu	-10.3812
LA	-10.3817
▁Glavni	-10.3818
▁servis	-10.3826
▁poslovanja	-10.3826
▁poslijepodne	-10.3834
▁otka	-10.3836
▁Ber	-10.3837
▁Mir	-10.3838
▁hotel	-10.3839
▁Most	-10.384
slobodna	-10.3841
bila	-10.3844
▁troškova	-10.3849
▁nedostaje	-10.3849
▁prijava	-10.3849
▁gospodarstvo	-10.3849
▁Gor	-10.3851
▁birača	-10.3852
▁osuđen	-10.3857
▁Đ	-10.3862
▁radila	-10.3862
▁iskoristiti	-10.3866
▁vojne	-10.3868
▁selu	-10.3873
▁petka	-10.3873
▁vozilom	-10.3881
▁Bra	-10.3885
▁predstavio	-10.3888
▁Dalmaciji	-10.3892
▁sudjelovali	-10.3892
▁posljednja	-10.3892
▁zadovoljan	-10.3892
▁Dra	-10.3893
▁Milanovi	-10.3893
▁ostane	-10.3895
▁njihovoj	-10.3897
▁krenuti	-10.39
▁mira	-10.3903
▁kamp	-10.3909
ben	-10.3912
▁Njema	-10.3912
▁Gra	-10.3914
vna	-10.3915
▁prekršaj	-10.3916
▁razgovora	-10.3921
▁raznim	-10.3931
▁problemima	-10.3932
▁otvorenom	-10.3933
▁zrak	-10.3933
▁hrana	-10.3936
▁mnogim	-10.3942
▁hrvatskoj	-10.3942
▁nastavi	-10.3946
rin	-10.3947
▁ulica	-10.3949
ora	-10.3952
stru	-10.3955
nov	-10.396
irani	-10.396
slike	-10.3963
The	-10.3963
dy	-10.3967
rbi	-10.3974
▁oružje	-10.3975
▁most	-10.3982
▁Luke	-10.3983
▁uvoz	-10.3986
▁luksuzn	-10.399
▁utjecajem	-10.399
elnik	-10.3998
▁odbio	-10.4002
▁Kupa	-10.4004
▁Hr	-10.4012
▁ulaz	-10.4013
▁ikada	-10.4016
▁istog	-10.4017
▁otišla	-10.4023
▁lipnju	-10.4023
▁prihoda	-10.4024
▁ostvario	-10.4024
▁lik	-10.4025
▁naziv	-10.4026
graf	-10.4027
▁prizor	-10.4028
▁paket	-10.4034
▁miris	-10.4035
▁američkog	-10.4038
▁Trumpov	-10.404
▁prona	-10.4041
▁dali	-10.4043
▁jugu	-10.4053
▁kćer	-10.4054
▁31	-10.4058
▁nikakve	-10.4061
▁Raz	-10.4064
▁odigran	-10.4065
jpg	-10.4066
▁glasnogovornik	-10.4067
▁([	-10.4067
▁test	-10.4067
▁pobjedi	-10.407
Mi	-10.4072
▁krenula	-10.4073
line	-10.4079
▁osvaja	-10.4082
▁bolest	-10.4083
▁kći	-10.4085
▁stručnjaci	-10.4091
ovih	-10.4096
▁vatre	-10.4102
▁služi	-10.4104
▁Bili	-10.4108
ivi	-10.4109
▁postupka	-10.4111
▁dvojica	-10.4111
▁Đoković	-10.4111
▁Mora	-10.4111
▁izlazi	-10.4112
▁Ke	-10.4112
▁Nismo	-10.4113
▁euro	-10.4114
▁optu	-10.4115
▁mar	-10.4117
▁htjeli	-10.4122
▁Daniel	-10.4123
▁crveni	-10.4123
▁lak	-10.4126
▁najvažnije	-10.4129
▁izravno	-10.4139
▁sigurnosn	-10.4144
▁povremeno	-10.4145
▁vlastite	-10.415
▁pozicije	-10.4155
▁štete	-10.4157
▁bicikl	-10.4158
\/	-10.4159
▁zahtijeva	-10.4161
▁radom	-10.4164
▁Gar	-10.4164
45	-10.4165
▁milijarde	-10.4168
▁priopćil	-10.417
▁blisk	-10.4173
▁Šibeniku	-10.4174
▁prvenstveno	-10.418
▁loš	-10.4182
▁boji	-10.4183
▁kojega	-10.4184
▁novinara	-10.4188
tina	-10.4189
▁+	-10.4189
▁Tra	-10.4191
rka	-10.4192
▁sektoru	-10.4193
ya	-10.4196
▁polufinalu	-10.4199
▁kompanije	-10.4199
▁Hoće	-10.4202
▁istina	-10.4204
▁braka	-10.4205
▁mas	-10.4212
▁ključni	-10.4212
ast	-10.4214
▁Talijan	-10.4214
Pa	-10.4216
godišnjaka	-10.4217
▁Izraela	-10.4218
▁nećemo	-10.4224
rski	-10.4224
ljev	-10.4229
gla	-10.423
▁Ivo	-10.4232
▁Toni	-10.4232
▁snijeg	-10.4242
har	-10.4243
njom	-10.4243
▁infrastrukture	-10.4244
▁tehnologija	-10.4244
▁mirovine	-10.4244
▁pisali	-10.4244
▁imovine	-10.4244
▁ondje	-10.4244
▁HNK	-10.4245
▁predstavljen	-10.4245
▁operativn	-10.4246
▁Sv	-10.4247
▁majke	-10.4247
▁Petković	-10.425
▁uzeti	-10.4255
alno	-10.4256
▁privremeno	-10.4257
▁vr	-10.4262
▁show	-10.4264
▁dužnost	-10.427
glav	-10.4273
▁nacionalne	-10.4274
đ	-10.4275
ley	-10.4277
dajte	-10.428
▁nuklearn	-10.4281
▁Centra	-10.4286
▁lu	-10.4286
▁zaštićen	-10.4289
▁svibnju	-10.4289
▁kakvu	-10.4289
▁medalju	-10.4289
▁zaključila	-10.4289
▁središnj	-10.4291
▁razmišlja	-10.4292
▁potrebne	-10.4292
▁doček	-10.4293
▁branitelja	-10.4297
▁nogometni	-10.4297
▁Kla	-10.4299
▁doveo	-10.4302
▁obveza	-10.4302
▁brend	-10.4303
▁nizu	-10.4308
▁fokus	-10.4312
▁slavio	-10.4314
▁malih	-10.4318
▁Pan	-10.4319
▁podsjeća	-10.4321
bol	-10.4324
▁glumi	-10.4326
ške	-10.433
▁sudjelovanje	-10.4334
▁ostavku	-10.4334
▁dolaska	-10.4334
rek	-10.4335
▁izašao	-10.4336
▁boriti	-10.4336
▁priznala	-10.4336
▁Hvala	-10.434
▁upozorio	-10.4342
▁postaju	-10.4344
▁tad	-10.4346
Ako	-10.4347
▁komentarima	-10.4353
▁čekaju	-10.436
▁sretan	-10.4361
ovom	-10.4364
▁okvir	-10.4365
rk	-10.4372
▁nesre	-10.4373
laz	-10.4374
▁obali	-10.4379
▁Reuters	-10.4379
▁ljestvici	-10.4379
▁potpredsjednik	-10.4379
▁Baš	-10.438
▁palestinsk	-10.4382
▁rijetko	-10.4382
▁stres	-10.439
▁intervjuu	-10.4394
▁predsjedničk	-10.4397
▁dodatne	-10.4401
▁utvrđeno	-10.4402
▁ozlijeđen	-10.4403
▁akcija	-10.4405
▁želja	-10.4406
▁soli	-10.441
▁zapovjednik	-10.4412
▁uslijed	-10.4421
▁slavlje	-10.4422
▁središtu	-10.4425
▁ponuda	-10.4425
▁ameri	-10.4426
▁goriva	-10.4427
▁vrati	-10.4427
40	-10.4428
bli	-10.4432
▁apsolutno	-10.4439
▁Hajduku	-10.4445
▁kredit	-10.4449
▁upravlja	-10.445
▁plina	-10.4451
▁Ci	-10.4454
▁Zakon	-10.4457
▁teška	-10.4458
iranja	-10.446
▁misle	-10.4465
pir	-10.4467
▁područjima	-10.447
▁spektakl	-10.447
▁2014.	-10.447
▁medalja	-10.4471
sk	-10.4473
▁Zlatn	-10.4473
▁Kekin	-10.4474
▁Nenad	-10.4474
▁Gaze	-10.4475
▁voditeljica	-10.4478
▁bore	-10.4482
▁hoda	-10.4491
▁Teško	-10.4494
ljan	-10.4496
▁potencijaln	-10.4502
kra	-10.4508
▁kazneni	-10.4509
▁1000	-10.451
▁postav	-10.4511
che	-10.4511
▁Dva	-10.4513
▁Italiji	-10.4516
▁atmosferu	-10.4516
▁srpnju	-10.4516
▁čita	-10.4516
▁Zorana	-10.4522
▁određene	-10.4523
▁čuti	-10.4523
▁povećati	-10.4524
▁komentar	-10.4539
▁policijski	-10.4542
▁reakcija	-10.4542
▁božićn	-10.4542
rac	-10.4545
▁št	-10.4546
▁projektu	-10.4547
bom	-10.4547
▁ukrajinski	-10.4549
▁ljetn	-10.4552
▁održavanje	-10.4553
▁ovi	-10.4556
gled	-10.4556
▁rodn	-10.4558
▁mama	-10.4562
▁omogućuje	-10.4562
▁snažno	-10.4563
▁plus	-10.4564
▁upisao	-10.4564
▁dresu	-10.4564
▁Grbin	-10.4566
▁okviru	-10.4567
▁Drago	-10.4572
vin	-10.4575
▁gu	-10.4588
▁roman	-10.4588
▁man	-10.4592
▁bivša	-10.4593
▁datum	-10.4602
▁Plenkovi	-10.4605
fo	-10.4609
▁istovremeno	-10.4609
irali	-10.4609
▁sreću	-10.4611
▁želio	-10.4612
▁poručila	-10.4613
▁Sin	-10.4615
▁pogon	-10.4623
▁gradovima	-10.4624
▁spomen	-10.4624
vol	-10.4627
▁pozitivno	-10.4631
▁srpski	-10.4631
▁svjetsko	-10.4635
▁životinja	-10.4638
▁En	-10.4641
▁ponavlja	-10.4644
▁baviti	-10.4646
▁(19	-10.4649
▁suvremen	-10.4654
:30	-10.4655
▁glazbu	-10.4655
▁uloge	-10.4659
▁44	-10.4661
▁Glas	-10.4662
▁početn	-10.4662
▁Gore	-10.4671
▁kg	-10.4671
▁fizički	-10.4674
▁listopadu	-10.4675
▁Sto	-10.4678
nder	-10.4681
▁Paul	-10.4681
▁dizajn	-10.4684
▁socijaln	-10.4687
▁namijenjen	-10.4694
▁Sabora	-10.4694
▁Donald	-10.4694
▁dje	-10.4699
▁slobodu	-10.4702
▁Zlatko	-10.4702
▁službi	-10.4702
▁2012.	-10.4702
▁glavom	-10.4702
▁takvu	-10.4702
▁glave	-10.4703
que	-10.4703
▁Slovenije	-10.4703
▁Europu	-10.4703
▁oglasio	-10.4705
▁istoj	-10.4705
▁Naša	-10.4709
▁ubijen	-10.471
▁trofej	-10.4711
▁pogleda	-10.4714
▁obiteljsk	-10.4721
▁načina	-10.4721
▁jedinici	-10.4723
nes	-10.4723
▁htjela	-10.4724
▁profilu	-10.4725
▁Francuske	-10.4728
▁Ze	-10.4728
▁42	-10.4728
▁izjavi	-10.473
▁nogometu	-10.473
▁prima	-10.4731
vlja	-10.4733
▁srednje	-10.4734
▁nepoznat	-10.4736
▁ući	-10.4741
▁gradske	-10.4745
▁granica	-10.4746
▁Program	-10.4749
ER	-10.4749
▁ostatak	-10.4751
▁školama	-10.4752
▁teži	-10.4753
▁potvrdila	-10.4754
▁sposobnost	-10.4756
▁pojavila	-10.4757
▁Moramo	-10.4758
rina	-10.4759
ata	-10.4761
▁Sud	-10.4762
▁meta	-10.4768
▁potpore	-10.4768
▁pripada	-10.4774
▁Igra	-10.4779
▁dulje	-10.4781
▁stamben	-10.4784
▁opće	-10.4789
▁prosincu	-10.4796
▁trenutka	-10.4796
▁Šibenika	-10.4796
▁kampanju	-10.4796
▁sjećanja	-10.4799
▁trenucima	-10.4802
▁savršeno	-10.4803
▁spriječiti	-10.4803
▁plav	-10.4815
letio	-10.4818
▁trgovačk	-10.4818
▁sunčan	-10.482
▁obavlja	-10.4822
▁dobije	-10.4843
▁asistencija	-10.4843
▁izložbe	-10.4843
▁ubojstva	-10.4843
▁pogotka	-10.4843
▁zagrebačkom	-10.4844
▁duhovn	-10.4844
▁Trener	-10.4844
▁subote	-10.4844
▁ponašanja	-10.4847
▁Istre	-10.4849
▁čuli	-10.485
▁publici	-10.4852
etka	-10.4853
▁Jug	-10.4854
▁uputio	-10.4859
▁šire	-10.4863
gli	-10.4864
BA	-10.4865
▁istu	-10.4866
▁oprez	-10.4867
▁svu	-10.487
ljiva	-10.4871
▁gost	-10.4872
▁obra	-10.4874
▁prikazuje	-10.4874
▁smjer	-10.4879
▁600	-10.488
▁ruskog	-10.4883
▁karton	-10.4887
▁pjesama	-10.4891
▁mjesecima	-10.4892
▁golem	-10.4893
liti	-10.4894
▁nazivom	-10.4895
ris	-10.4897
▁jutros	-10.4901
▁Andreja	-10.4902
▁struje	-10.4902
▁komentirala	-10.4904
rni	-10.4915
▁liječnika	-10.4917
▁predstavnici	-10.4919
▁cijelom	-10.4919
▁učenici	-10.4919
▁kap	-10.4919
▁prave	-10.4928
▁predan	-10.4928
▁odvjetnika	-10.4936
▁akciju	-10.4939
▁opreme	-10.4939
▁velikoj	-10.4941
▁Centar	-10.4941
▁dodajući	-10.4942
▁nositelj	-10.4943
▁čitatelj	-10.4945
▁ponovo	-10.4946
▁park	-10.4946
▁razgovarali	-10.4951
▁Splitsko	-10.4952
▁58	-10.4955
▁svakoj	-10.4956
▁otok	-10.4957
▁hitne	-10.4964
▁zid	-10.4967
▁istaknuti	-10.4967
▁skok	-10.4967
obi	-10.4974
▁restoran	-10.4975
▁navijačima	-10.4976
▁financijski	-10.4977
▁jedinica	-10.4979
▁studenoga	-10.4979
▁Dnevnik	-10.498
▁usta	-10.4981
▁Maj	-10.4982
nović	-10.4982
▁Viktor	-10.4985
čna	-10.4985
▁Rimac	-10.4988
▁uvjeren	-10.4989
▁odbor	-10.4989
▁nikako	-10.4989
▁Europa	-10.499
▁korištenja	-10.499
▁Mr	-10.4992
▁v	-10.4992
▁brani	-10.4999
▁nastala	-10.5
▁41	-10.5001
ekuje	-10.5005
▁vrtić	-10.5006
▁preuzeti	-10.5007
▁Najbolji	-10.5012
▁britansk	-10.5013
▁Najviše	-10.5014
▁lokacija	-10.5015
jeti	-10.5022
▁zamjenik	-10.5033
▁onako	-10.5034
▁ekipu	-10.5035
▁svjetske	-10.5035
▁napredak	-10.5035
▁odlaska	-10.5036
▁prometnoj	-10.5041
▁priznanje	-10.5043
▁unos	-10.5047
▁stranačk	-10.5048
▁izazvao	-10.5048
▁20-	-10.5054
▁tradicionalno	-10.5055
▁ulicama	-10.5058
▁uloga	-10.5059
▁temeljn	-10.5059
▁spas	-10.5064
22	-10.5071
▁šok	-10.5073
▁prate	-10.5074
▁aktivno	-10.5075
▁državnom	-10.5076
jela	-10.508
išta	-10.5084
▁Croatia	-10.5084
▁stra	-10.5084
▁Dominik	-10.5087
▁novčan	-10.5092
▁nazvao	-10.5094
kre	-10.5095
ty	-10.5098
▁uzima	-10.5101
▁tona	-10.5103
▁Har	-10.5105
▁električn	-10.5107
▁Puno	-10.5108
▁lokalnih	-10.5113
utim	-10.5114
▁Vjerujem	-10.5119
ivota	-10.5121
▁utjecaja	-10.5122
▁Val	-10.5124
▁predviđa	-10.5127
▁troškove	-10.5133
▁vrijedan	-10.5133
▁prošla	-10.5133
top	-10.5133
▁identitet	-10.5133
▁predstavljaju	-10.5138
▁grama	-10.5139
žić	-10.514
24	-10.5145
▁Kine	-10.515
▁ograničen	-10.5152
▁Mogu	-10.5154
niku	-10.5155
▁47	-10.5155
▁dodatni	-10.5159
▁teže	-10.516
▁stadiona	-10.5162
▁pokušati	-10.5164
▁pojavio	-10.5167
broj	-10.5172
27	-10.5175
▁nevjerojatno	-10.5177
čkom	-10.5177
▁udaljen	-10.5178
▁intenzivn	-10.5179
▁angažman	-10.5182
▁predizborn	-10.5182
▁blag	-10.5182
▁uživo	-10.5183
▁Bjelica	-10.5183
▁lov	-10.5188
▁posvećen	-10.5192
▁pripremi	-10.5194
▁vojni	-10.5195
ori	-10.5201
▁Buduć	-10.5207
▁njihovog	-10.5213
▁Maja	-10.5215
▁Met	-10.5217
▁Potom	-10.5227
▁provode	-10.5228
▁mlada	-10.5229
▁zelen	-10.5232
▁Marina	-10.5232
▁problemi	-10.5234
bla	-10.5236
▁ušli	-10.5242
▁prepoznatljiv	-10.5245
▁imat	-10.5249
▁radim	-10.5251
11	-10.5254
▁nogu	-10.5256
šće	-10.5259
▁kućn	-10.526
▁podijelio	-10.5262
▁rezultatima	-10.5262
irala	-10.5263
▁AI	-10.5267
ista	-10.5272
▁popisu	-10.5275
▁Krešimir	-10.528
▁vježba	-10.528
▁Euru	-10.5281
pan	-10.5281
▁pitao	-10.5281
age	-10.5282
▁120	-10.5282
▁(1	-10.5285
▁postavio	-10.5288
tru	-10.529
▁Mladi	-10.53
cem	-10.53
▁krv	-10.5301
▁napade	-10.5301
▁njezino	-10.5303
▁Trg	-10.5304
▁Time	-10.5304
▁uređaja	-10.5306
▁pojačan	-10.5307
▁omogućiti	-10.5308
▁Zelenski	-10.5308
▁Hrvoje	-10.5311
X	-10.5315
Pre	-10.5315
jski	-10.5317
▁ideje	-10.5317
▁Sport	-10.5319
▁Gi	-10.5319
▁viđen	-10.5322
▁vrhunsk	-10.5322
▁Saboru	-10.5324
▁Zanimljivo	-10.5324
anović	-10.5329
▁Premijer	-10.533
▁kontrole	-10.533
▁travnju	-10.533
ijim	-10.5331
▁sreće	-10.5332
▁važn	-10.5332
▁stare	-10.5333
rad	-10.5334
▁radionice	-10.5334
pali	-10.5335
▁poručili	-10.5335
vač	-10.5337
▁OŠ	-10.5338
▁vjeruju	-10.534
▁stanu	-10.5347
▁brak	-10.5347
▁veća	-10.5353
enih	-10.5353
▁oca	-10.5356
iraju	-10.5359
ave	-10.5361
▁Svoj	-10.5361
▁nacionaln	-10.537
▁II	-10.5377
šao	-10.5379
▁turista	-10.538
▁briga	-10.5381
▁duh	-10.5383
▁period	-10.5386
▁Martina	-10.5389
▁prolaz	-10.5391
▁Del	-10.5391
▁završn	-10.5392
▁Jadran	-10.5396
▁tj	-10.54
▁želje	-10.54
▁sadržaja	-10.5401
▁vodstvom	-10.5402
▁ostavlja	-10.5403
▁proračun	-10.5407
▁bivše	-10.5409
ula	-10.541
▁direktora	-10.541
▁stvaranje	-10.5411
▁čim	-10.5411
▁Gol	-10.5417
▁završava	-10.5418
▁b	-10.5421
▁43	-10.5423
▁promjenu	-10.543
▁izgradnje	-10.543
▁policiju	-10.543
▁istragu	-10.5432
▁Sla	-10.5436
▁atraktivn	-10.5439
▁zaposlenika	-10.5439
▁zasigurno	-10.5442
▁zatvoru	-10.5444
▁svjedoči	-10.5444
▁Los	-10.5448
▁zadarsk	-10.5448
▁Ovi	-10.5451
▁uvid	-10.5453
▁trebamo	-10.5453
▁favorit	-10.5458
▁situacijama	-10.546
▁Tamo	-10.5463
▁upravljao	-10.5464
▁sjevernom	-10.5464
▁listu	-10.547
▁zapo	-10.5471
▁zagreba	-10.5471
▁pitali	-10.5472
▁dugoročn	-10.5475
ok	-10.5476
▁stanovništva	-10.5481
▁nedostatk	-10.5481
val	-10.5481
▁veljači	-10.5482
▁Eura	-10.5483
čića	-10.5484
▁upoznati	-10.549
▁proba	-10.5492
▁ostvarili	-10.5495
▁Iva	-10.5496
▁Super	-10.5496
▁lagan	-10.5498
▁Bulj	-10.5501
bit	-10.5501
▁Pr	-10.5501
▁festivalu	-10.551
▁splitsk	-10.5514
▁izazovima	-10.5514
▁Sabor	-10.5515
▁mijenjati	-10.5517
▁smješten	-10.552
▁Grand	-10.5522
▁sudionika	-10.5525
shi	-10.5527
▁čin	-10.5528
▁Bayern	-10.5528
▁Županijsk	-10.5528
cha	-10.5529
▁snima	-10.553
▁uobičajen	-10.553
▁konkurenciji	-10.5532
▁prijavljen	-10.5532
▁potrebu	-10.5532
▁1991.	-10.5532
▁želju	-10.5532
▁doslovno	-10.5532
▁donose	-10.5532
▁pojedinačn	-10.5532
Class	-10.5534
▁linija	-10.5535
▁izazove	-10.5538
▁ponudi	-10.5541
▁tisu	-10.5542
▁specifičn	-10.5544
▁zabrinutost	-10.5545
▁morala	-10.555
▁nekakv	-10.5553
▁poslovanje	-10.5563
▁trećem	-10.5566
▁vidljiv	-10.5566
▁razreda	-10.5569
▁dođu	-10.5576
▁Jelena	-10.5578
▁Tr	-10.5579
ip	-10.5581
▁skrbi	-10.5582
▁kulturu	-10.5583
▁ispit	-10.5586
▁znala	-10.5587
▁očekivanja	-10.5588
▁ki	-10.5589
▁iznosila	-10.5589
▁sektor	-10.559
▁redovn	-10.5592
▁neću	-10.5594
▁budem	-10.5601
▁vašem	-10.5606
ević	-10.5609
▁predstavnik	-10.5615
so	-10.5622
▁nasilje	-10.5628
▁nose	-10.563
▁Če	-10.5632
▁mobiln	-10.5633
▁pravom	-10.5633
▁Dalmacije	-10.5634
▁inozemstvu	-10.5634
▁napravljen	-10.5634
▁površine	-10.5634
▁siječnju	-10.5634
▁DORH	-10.5634
▁Google	-10.5634
▁kampanji	-10.5634
▁jutro	-10.5634
▁Projekt	-10.5635
▁skokova	-10.5638
▁psa	-10.5644
▁unaprijed	-10.5647
▁Ustavni	-10.5649
▁pobjednika	-10.5649
rica	-10.5651
acije	-10.5653
ive	-10.5654
▁dvo	-10.5657
itelj	-10.5657
▁dobri	-10.566
▁djelatnosti	-10.5662
▁pokušavaju	-10.5665
▁brz	-10.5673
▁Stan	-10.5678
stava	-10.5679
▁vidite	-10.5679
vio	-10.5681
▁general	-10.5684
▁nemam	-10.5684
▁Gvardiol	-10.5685
▁Hercegovine	-10.5685
▁destinacija	-10.5685
▁tržišn	-10.5685
▁sjednici	-10.5685
▁SuperSport	-10.5686
▁kut	-10.5687
▁susjedn	-10.5688
▁kvar	-10.5693
des	-10.5694
pp	-10.5695
▁bend	-10.5696
▁sukladno	-10.5698
▁lokalno	-10.5699
▁skrb	-10.57
▁priop	-10.57
▁Novom	-10.57
▁zlata	-10.5701
▁sportske	-10.5701
▁osigurava	-10.5703
▁kandidati	-10.5705
ep	-10.5707
▁49	-10.5708
▁spomenuti	-10.5722
▁osnovne	-10.5723
▁gledatelja	-10.5724
sve	-10.5733
▁razred	-10.5737
▁objavu	-10.5737
▁slobode	-10.5737
▁pogođen	-10.5738
▁NBA	-10.5738
▁pokrenul	-10.574
▁Japan	-10.5741
▁važnosti	-10.5742
▁kože	-10.5744
▁održat	-10.5747
ištu	-10.575
▁materijala	-10.5751
▁Klub	-10.5752
▁poslovni	-10.5754
▁odgovornosti	-10.5755
▁Rat	-10.5763
▁održana	-10.5765
▁financija	-10.5769
▁muškarci	-10.5769
▁važne	-10.5771
▁radnog	-10.5779
naj	-10.578
▁Vuk	-10.5785
▁zaposlenih	-10.5787
▁atmosfera	-10.5789
▁smanjuje	-10.5789
▁prijavu	-10.5789
▁zaključuje	-10.5789
▁1-0	-10.5789
▁prijetnje	-10.579
▁štetn	-10.579
▁hvala	-10.579
▁leđa	-10.5791
▁djevojke	-10.5792
▁organizatori	-10.5792
▁temelj	-10.5793
▁odabran	-10.5793
▁predsjednikom	-10.5794
▁Bosne	-10.5794
▁istraga	-10.5796
▁Kovačić	-10.5798
bel	-10.5798
▁trenira	-10.5801
▁der	-10.5802
hod	-10.5806
sne	-10.5807
▁francuski	-10.5807
▁položaj	-10.5813
▁meso	-10.5813
▁daju	-10.5819
▁iskaz	-10.5819
▁Križevci	-10.5822
zda	-10.5824
▁Smatra	-10.5825
▁Er	-10.583
▁jedni	-10.5832
▁poklon	-10.5833
▁bura	-10.5834
▁Javn	-10.5836
▁procesa	-10.5837
▁industrije	-10.5842
▁učinak	-10.5843
rani	-10.5843
yja	-10.5844
▁Ligu	-10.5845
▁banka	-10.5851
inje	-10.5851
misli	-10.5855
▁svjetskih	-10.586
▁nastavila	-10.5863
▁parlamentu	-10.5868
▁odigrali	-10.5868
▁potresa	-10.5875
▁splitski	-10.5876
▁utječe	-10.5877
emu	-10.5883
▁Kra	-10.589
NA	-10.5891
obra	-10.5894
▁DVD	-10.5894
▁turizam	-10.5894
▁2-0	-10.5894
▁spaja	-10.5895
diti	-10.5896
▁prekid	-10.5897
nda	-10.5902
▁Branko	-10.5905
▁mladić	-10.5907
▁vaša	-10.5907
▁Nedavno	-10.5908
▁post	-10.5908
▁narodn	-10.5909
▁direktorica	-10.5909
bre	-10.5913
▁zločin	-10.5914
12	-10.5916
▁Niko	-10.5917
▁izaći	-10.5921
▁procesu	-10.5923
vid	-10.5924
▁komad	-10.5925
▁niza	-10.5925
▁Ban	-10.5927
▁novinare	-10.5929
▁klju	-10.5932
▁Pla	-10.5933
▁Sveti	-10.5935
▁Mari	-10.5941
▁Tre	-10.5944
▁polufinale	-10.5947
▁operacija	-10.5947
▁gubitak	-10.5948
▁Sp	-10.5948
▁dokaza	-10.595
▁suprugu	-10.5951
ivo	-10.5955
▁sljede	-10.5958
čku	-10.596
vica	-10.5961
▁prekida	-10.5966
sel	-10.5969
sna	-10.5971
▁Anton	-10.5973
▁Jakov	-10.5976
▁jednak	-10.598
▁kontekstu	-10.5981
▁mirno	-10.5986
▁Dio	-10.5987
▁prometna	-10.599
▁250	-10.5991
▁zagrebački	-10.5997
▁pacijenata	-10.6
▁navrata	-10.6
▁postići	-10.6003
▁EPPO	-10.6003
▁zaustaviti	-10.6011
▁Selak	-10.6012
klo	-10.6013
▁izraelski	-10.6015
▁mnogih	-10.6015
▁Svjetskom	-10.6017
▁filmova	-10.6017
olog	-10.6017
▁napravi	-10.6019
▁vlasnika	-10.6021
▁događanja	-10.6021
vjes	-10.6022
▁vratila	-10.6024
▁rep	-10.6026
▁glavnom	-10.6027
▁takvo	-10.6032
▁luke	-10.6033
ny	-10.6039
▁rado	-10.6041
▁proveden	-10.6041
▁popust	-10.6043
▁izravn	-10.6043
▁jeziku	-10.6044
▁Jur	-10.6046
▁kli	-10.6046
▁trajekt	-10.6047
▁upis	-10.6051
rne	-10.6052
▁sretni	-10.6053
▁ljestvice	-10.6054
▁uzbudljiv	-10.6054
▁direktno	-10.6055
▁dionica	-10.6058
▁lokalnim	-10.606
▁dijelovima	-10.6066
▁saborsk	-10.6066
▁internetsk	-10.6067
▁svečan	-10.6071
▁Kre	-10.6071
▁Kakv	-10.6083
▁spomenut	-10.6084
▁otvoriti	-10.6085
▁korisnici	-10.609
▁prosjeku	-10.6095
▁radnih	-10.6095
▁Osnovn	-10.6102
▁krumpir	-10.6108
▁završetka	-10.6108
▁BBC	-10.6108
▁Alen	-10.6108
▁preokret	-10.6109
▁svojem	-10.6109
dija	-10.611
wi	-10.611
▁Nitko	-10.6111
▁Pritom	-10.6111
▁započela	-10.6116
jeva	-10.6117
▁nevjerojatn	-10.6119
▁navijače	-10.612
▁kapaciteta	-10.612
▁doživio	-10.6121
▁omogu	-10.6122
▁maksimaln	-10.6124
▁ubio	-10.6126
▁Ge	-10.6128
▁većini	-10.6132
▁slike	-10.6135
▁Gradu	-10.6139
ovca	-10.614
▁legendarn	-10.6142
▁dobrom	-10.6143
▁svjetlo	-10.6144
▁ureda	-10.6145
▁Velike	-10.6145
▁iskren	-10.6147
▁razvija	-10.6152
▁krajnje	-10.6152
▁Meni	-10.6158
vaju	-10.6159
▁osvrnuo	-10.6162
▁2013.	-10.6162
▁žrtava	-10.6162
▁obnove	-10.6162
▁češće	-10.6162
▁James	-10.6163
▁Jeste	-10.6164
▁Sal	-10.617
▁oznaka	-10.617
▁Ustavnog	-10.6171
▁dala	-10.6171
▁otkriti	-10.6172
▁stvoriti	-10.6173
▁parlamentarn	-10.6174
▁ugodno	-10.6174
▁2-1	-10.6177
▁sje	-10.618
▁emotivn	-10.6183
▁uvjeta	-10.6187
ls	-10.6195
▁Tek	-10.6197
▁Gre	-10.6198
▁rod	-10.6199
▁52	-10.6202
▁poznate	-10.6202
▁podr	-10.6207
▁Sol	-10.6209
▁Druga	-10.621
▁Rusi	-10.6215
▁reprezentaciji	-10.6216
▁2011.	-10.6216
▁zadržati	-10.6216
▁producent	-10.6216
mija	-10.6217
▁ugrožen	-10.6218
▁Raspudić	-10.6218
▁Ovdje	-10.6218
▁ulje	-10.6219
▁treća	-10.622
ple	-10.6223
dina	-10.6226
▁zaboraviti	-10.6231
▁vojn	-10.6236
▁sestre	-10.6239
▁mnogima	-10.6242
▁rock	-10.6244
▁povod	-10.6245
▁protu	-10.6246
▁kanal	-10.6248
▁energetsk	-10.6249
▁radne	-10.6249
we	-10.625
▁potreba	-10.6251
▁veseli	-10.6254
▁stranci	-10.6255
▁Joe	-10.6256
▁West	-10.6256
▁osigura	-10.6258
▁Godin	-10.626
▁većine	-10.626
▁godišnji	-10.6262
▁konačn	-10.6266
nata	-10.6267
▁radno	-10.6267
▁ženama	-10.6267
▁Vukovara	-10.6268
▁kuhar	-10.6268
▁glazbenik	-10.627
▁Dalmacija	-10.6271
Cropix	-10.6271
▁2026.	-10.6271
▁Her	-10.6271
▁zaredom	-10.6272
▁potencijalno	-10.6272
▁Nina	-10.6277
▁46	-10.628
▁Velikoj	-10.628
▁Trenutno	-10.6281
▁društvenoj	-10.6282
TI	-10.6282
▁odabir	-10.6287
▁Don	-10.629
title	-10.6292
▁trgu	-10.6293
▁trajati	-10.6295
ant	-10.6297
▁Kat	-10.6308
▁Kal	-10.6308
▁zrakoplova	-10.6309
▁razvod	-10.6312
lović	-10.6316
kal	-10.6318
▁ostaviti	-10.6323
▁uvjerljiv	-10.6323
▁ponegdje	-10.6326
▁počelo	-10.6326
▁rečeno	-10.6326
▁ministarstva	-10.6329
▁učinkovit	-10.6331
▁kupnju	-10.6332
▁potvrdili	-10.6332
▁Kaže	-10.6334
▁izdanju	-10.6335
▁fra	-10.6335
▁osiguranja	-10.6336
▁ulaznica	-10.6337
djel	-10.6346
▁Jan	-10.6346
▁nastupiti	-10.6349
acija	-10.6349
▁suočava	-10.6351
▁Ot	-10.6355
▁Svjetskog	-10.6355
▁šta	-10.6357
▁proizvođača	-10.6367
▁ukrajinske	-10.6373
▁boli	-10.6376
▁Netanyahu	-10.6381
▁izgrađen	-10.6381
▁veznjak	-10.6382
▁izazvala	-10.6383
▁košarkašk	-10.6383
▁Zatim	-10.6384
▁vidjela	-10.6385
▁talijanski	-10.6386
▁vatrogasaca	-10.6387
▁Rakitić	-10.6389
▁maksimalno	-10.6392
nula	-10.6392
▁rijeke	-10.6393
▁Peter	-10.6393
▁stariji	-10.6394
▁cilja	-10.6397
bija	-10.6399
▁političkih	-10.6402
vara	-10.6402
▁Čini	-10.6406
▁Beroš	-10.6408
▁mlađe	-10.6411
▁izvođač	-10.6412
▁Mile	-10.6412
▁javnim	-10.6414
▁Stjepan	-10.6415
▁zdravstveni	-10.6416
▁crkve	-10.6417
▁Vladi	-10.6417
▁mjesečno	-10.6418
▁ples	-10.6418
▁završi	-10.6421
▁bilježi	-10.6422
Sve	-10.6423
▁minimaln	-10.6427
▁rub	-10.6428
▁upozoravaju	-10.6429
▁Modri	-10.643
▁financijske	-10.6436
▁infrastrukturu	-10.6436
▁liječničk	-10.6436
▁otišli	-10.6436
▁šansu	-10.6436
▁podijeljen	-10.6436
▁državu	-10.6437
▁uistinu	-10.6437
▁pronašao	-10.6437
▁Ministarstvu	-10.6437
▁pomažu	-10.6437
▁restorana	-10.6439
▁Th	-10.644
▁izraz	-10.6441
▁Antonio	-10.6442
▁Mladen	-10.6442
▁Matija	-10.6442
▁85	-10.6447
pel	-10.6449
radi	-10.645
NI	-10.6464
▁sviđa	-10.6466
▁sprema	-10.6479
▁studije	-10.6479
▁sektora	-10.6481
▁četvero	-10.6489
▁vezan	-10.6491
▁inteligencije	-10.6492
▁investicija	-10.6492
▁postupku	-10.6492
▁izvrsn	-10.6493
▁liječenje	-10.6493
▁Istri	-10.6494
▁ciljeve	-10.6495
▁We	-10.6497
▁Vir	-10.6497
▁Sopić	-10.6498
▁Bruno	-10.6499
▁ovakve	-10.6501
▁sol	-10.6503
▁doznajemo	-10.6503
▁noćn	-10.6509
▁Vrlo	-10.651
▁William	-10.6511
▁tvrd	-10.6516
▁Blisk	-10.6516
ere	-10.6522
▁blok	-10.6527
▁prikaz	-10.6529
imo	-10.6531
▁jugo	-10.6532
▁fakultet	-10.654
80	-10.6545
▁dvor	-10.6546
▁poslovne	-10.6548
▁dugotrajn	-10.6549
▁ožujku	-10.6549
▁relativno	-10.6549
▁komisije	-10.6549
▁trenutke	-10.6549
▁izvještaj	-10.6549
▁održao	-10.6549
▁uništen	-10.6549
▁Bojan	-10.6552
▁sliku	-10.6554
▁iskreno	-10.6558
▁Franjo	-10.6558
lat	-10.6559
▁prihvatiti	-10.6561
▁odluči	-10.6561
▁Turističk	-10.6563
ved	-10.6565
▁stranaka	-10.6566
▁korisnicima	-10.657
▁spot	-10.657
▁Udruga	-10.6587
▁Hajdukov	-10.6592
▁zavod	-10.6598
▁kre	-10.6598
▁Bre	-10.66
▁blokira	-10.66
▁razgovarao	-10.6602
▁Mas	-10.6602
▁NACIONAL	-10.6605
▁emisija	-10.6605
▁kamere	-10.6605
▁knjigu	-10.6605
▁Postoji	-10.6606
▁ulaznice	-10.6607
▁izvješću	-10.6607
▁plaću	-10.6609
▁ciljeva	-10.6609
▁planove	-10.6615
▁ogromn	-10.6617
▁tražio	-10.6618
▁stvaraju	-10.6624
▁istočn	-10.6625
▁vlak	-10.6627
▁pronašla	-10.6628
▁veću	-10.6628
▁vratili	-10.6632
17	-10.6633
▁broda	-10.6633
▁kolegama	-10.6636
▁Lovre	-10.6636
▁počinitelj	-10.6637
▁nijedn	-10.664
▁pobijedi	-10.6641
▁temelji	-10.6644
▁nogometaša	-10.6645
čne	-10.6647
▁učinio	-10.6648
▁spominje	-10.6649
▁osjetljiv	-10.6655
▁stručnjaka	-10.6655
▁Nikad	-10.6655
▁Većina	-10.6658
▁Bol	-10.6659
▁biskup	-10.6659
EN	-10.666
pos	-10.666
▁l	-10.6662
▁Italija	-10.6662
▁BDP	-10.6663
▁Marić	-10.6672
▁projektima	-10.6676
▁Vel	-10.6677
vljen	-10.6678
▁odigrati	-10.6679
▁biračk	-10.6679
▁64	-10.668
▁Em	-10.6686
▁kriminalističko	-10.6687
▁produ	-10.6689
jelo	-10.6693
▁Charles	-10.6695
▁prirodno	-10.6702
▁doznaje	-10.6708
▁skuplja	-10.6711
▁kontinuirano	-10.6712
▁nepo	-10.6716
▁odjela	-10.6717
rač	-10.6719
▁mirovina	-10.6719
▁Sloveniji	-10.672
▁VAR	-10.672
▁odlukom	-10.6725
▁plana	-10.6727
▁iznenađenje	-10.6727
tora	-10.6728
▁brojem	-10.6728
▁Park	-10.6729
▁pristupa	-10.6731
▁derbiju	-10.6736
▁Washington	-10.6738
▁Sanja	-10.6739
▁zainteresiran	-10.6739
▁osigurao	-10.674
tira	-10.6741
▁prekrasn	-10.6741
▁obale	-10.6742
▁polako	-10.6744
▁vezano	-10.675
3.	-10.675
▁aktivira	-10.675
▁Imat	-10.6754
▁dječak	-10.6755
▁liječnici	-10.6756
MA	-10.6758
▁trebate	-10.6758
▁Jadransk	-10.6762
▁Mag	-10.6763
▁brže	-10.6767
▁međusobno	-10.6771
vel	-10.6771
▁naveli	-10.6772
▁pjesmom	-10.6776
▁natjecanjima	-10.6776
▁Zvonimir	-10.6776
▁omogućava	-10.6776
▁željezničk	-10.6777
▁Penava	-10.6777
▁ovakav	-10.6778
▁Problem	-10.6778
23	-10.678
▁kinesk	-10.678
▁okuplja	-10.6782
▁6,	-10.6789
▁šalje	-10.679
60	-10.6791
▁pozval	-10.6792
▁obilježava	-10.6793
▁traga	-10.6795
▁fe	-10.6798
AR	-10.6801
▁Mad	-10.6801
▁žut	-10.6803
▁Lucija	-10.6809
Tr	-10.681
vale	-10.6811
▁urban	-10.6812
▁bri	-10.6813
vice	-10.6813
▁aktivnostima	-10.6816
pao	-10.6819
▁sportskih	-10.6819
▁raspored	-10.682
▁puk	-10.6822
16	-10.6823
▁obiteljske	-10.6824
-1	-10.6824
▁uzeo	-10.6829
▁razli	-10.683
▁pamet	-10.6833
▁prosječn	-10.6833
▁sredstvima	-10.6834
▁dijele	-10.6834
▁Daily	-10.6834
▁sudjeluje	-10.6834
▁zagrebačkoj	-10.6834
▁mentor	-10.6834
▁ustanove	-10.6835
▁Primjerice	-10.6835
▁zadužen	-10.6835
▁pozitivan	-10.6835
▁djelovanja	-10.6836
▁51	-10.6838
▁svje	-10.6838
▁bave	-10.6839
▁prepun	-10.684
▁Red	-10.6843
▁Neka	-10.6846
▁duga	-10.6855
▁isplati	-10.6856
ovim	-10.6859
▁vruće	-10.6861
▁Utakmica	-10.6862
▁blago	-10.6867
▁veli	-10.6868
ssa	-10.6868
▁vratima	-10.687
▁Doma	-10.687
▁61	-10.687
▁licu	-10.6871
▁županijsk	-10.6871
▁Moja	-10.6873
▁predstaviti	-10.6875
slu	-10.6878
▁samostaln	-10.6879
▁termin	-10.6879
▁ustavn	-10.6881
▁djelatnika	-10.6885
▁prikazan	-10.6885
▁zakonsk	-10.6886
▁zada	-10.6888
▁pripadnici	-10.6888
70	-10.6889
▁sastanka	-10.6892
▁premda	-10.6893
▁Livaja	-10.6893
▁utrci	-10.6893
nama	-10.6894
ura	-10.6895
zni	-10.6896
▁papir	-10.6899
▁brzine	-10.6899
▁članice	-10.6903
šća	-10.6909
▁posjetitelje	-10.6909
▁protivnik	-10.6909
▁srpsk	-10.691
▁karte	-10.6911
▁Yorku	-10.6912
▁detalja	-10.6914
90	-10.6916
▁Američk	-10.6917
▁trudi	-10.6923
lik	-10.6925
▁dodatnih	-10.6927
▁tro	-10.6927
▁Bad	-10.6928
▁Onda	-10.6928
▁ponos	-10.693
zom	-10.693
▁54	-10.6931
▁vra	-10.6933
rit	-10.6934
nskom	-10.6945
▁potpis	-10.6946
▁vrat	-10.6947
▁reagirao	-10.695
▁inzistira	-10.6951
▁izgubljen	-10.6951
▁lokaciji	-10.6951
▁količine	-10.6951
▁lokacije	-10.6951
▁tvari	-10.6951
▁srcu	-10.6952
▁politička	-10.6952
▁Severina	-10.6952
▁Gruzij	-10.6953
▁volio	-10.6954
▁konačnici	-10.6954
▁Americi	-10.6955
▁Ured	-10.6955
▁obrazovn	-10.6955
▁Mislav	-10.6957
▁for	-10.6957
▁naselja	-10.6957
▁sastavu	-10.6959
ćen	-10.696
▁pokraj	-10.696
▁Iza	-10.696
▁hrani	-10.6961
ljivo	-10.6962
▁slijede	-10.6966
▁Petrović	-10.6968
▁Važno	-10.6969
▁teškim	-10.6974
▁Tur	-10.698
▁zdravstvenih	-10.6984
▁promatra	-10.699
▁cijenama	-10.6991
▁luka	-10.6995
cent	-10.6998
▁klijent	-10.6999
▁današnje	-10.7
▁masovn	-10.7001
▁hrvatsko	-10.7001
▁izra	-10.7002
jić	-10.7004
inja	-10.7007
▁otpad	-10.7009
▁oporavak	-10.701
▁promovira	-10.701
▁sudjeluju	-10.701
▁koncept	-10.701
▁praktički	-10.701
▁Miroslav	-10.701
▁stižu	-10.7011
▁Mal	-10.7013
▁invaliditetom	-10.7015
▁Marijan	-10.7015
▁sir	-10.7016
gov	-10.7017
▁Donalda	-10.7019
▁zadr	-10.7019
▁otvaranje	-10.7021
▁Ulic	-10.7021
▁poboljšati	-10.7022
▁Vas	-10.7028
▁posljednjem	-10.7028
dor	-10.703
▁Hi	-10.7033
▁posjetitelja	-10.7034
▁Vozač	-10.7035
▁mak	-10.7037
▁Nacional	-10.7038
▁blagdansk	-10.7039
nicama	-10.7043
tek	-10.7046
▁generacija	-10.7049
▁Sergej	-10.7051
▁med	-10.7051
▁tamn	-10.7054
▁nacionalnih	-10.7055
▁manjina	-10.7056
pad	-10.7056
▁popularni	-10.7058
▁kruh	-10.7058
▁razina	-10.7059
▁treninga	-10.706
▁Cor	-10.7061
▁Hrvat	-10.7061
▁osigurali	-10.7063
chi	-10.7067
▁2024	-10.7068
▁Domagoj	-10.7069
▁stotine	-10.7069
▁ključna	-10.7069
▁težak	-10.7069
gre	-10.7069
▁vijeće	-10.707
▁Mor	-10.7072
▁snazi	-10.7073
▁zamijeniti	-10.7077
▁@	-10.7078
▁hladno	-10.7081
▁pr	-10.7081
▁javila	-10.7082
▁dobrih	-10.7082
▁ostatk	-10.7082
▁fizi	-10.7083
▁krene	-10.7084
▁znanje	-10.7088
▁rizika	-10.7088
▁obu	-10.7089
Kad	-10.7092
▁konzumira	-10.7092
▁odnosima	-10.7094
▁karakter	-10.7094
▁objavljeno	-10.7096
▁dar	-10.7096
del	-10.71
▁potpun	-10.7104
▁Hamas	-10.7106
▁lijek	-10.7106
▁albuma	-10.7108
▁izjava	-10.7109
▁izvanredn	-10.7109
ljak	-10.7111
▁moli	-10.7112
▁utakmicama	-10.7114
nar	-10.7119
▁Dom	-10.712
▁primio	-10.712
▁javio	-10.7121
▁Harry	-10.7122
▁mogući	-10.7122
▁stavio	-10.7122
nicom	-10.7124
▁današnji	-10.7125
▁roditelje	-10.7126
▁dvadeset	-10.7127
▁66	-10.7127
▁grob	-10.7128
▁Aleksandar	-10.7128
▁tjedno	-10.7128
▁opasno	-10.713
avi	-10.713
▁visokim	-10.7131
▁dobrim	-10.7131
▁izrazio	-10.7132
▁malim	-10.7134
▁dodatak	-10.7134
▁optužen	-10.7137
▁76	-10.7138
▁mladima	-10.7142
Od	-10.7151
▁izvijestili	-10.7155
▁najboljeg	-10.7161
alo	-10.7165
▁sporn	-10.7169
▁EP	-10.7169
▁kažem	-10.717
▁električne	-10.7171
▁Vod	-10.7176
jedno	-10.7184
=	-10.7186
▁kazni	-10.7187
▁Lokomotive	-10.7188
▁konferencije	-10.7188
▁objekata	-10.7188
▁nikoga	-10.7189
▁formu	-10.7189
▁onog	-10.7189
▁kreću	-10.7189
▁upozorenja	-10.719
▁odakle	-10.7191
▁vagi	-10.7191
▁našli	-10.7192
▁provoditi	-10.7199
▁otvorila	-10.72
▁ušla	-10.7201
nike	-10.7203
▁nosila	-10.7204
▁ostaju	-10.7206
▁govorili	-10.7206
29	-10.7206
sad	-10.7206
▁stratešk	-10.7207
nio	-10.7209
▁kolovozu	-10.721
▁(3	-10.7211
▁bor	-10.7211
▁pripremiti	-10.7215
▁vani	-10.7215
slo	-10.7217
▁kapacitet	-10.7222
▁partnerima	-10.7232
▁pokušaja	-10.7233
▁američkih	-10.7238
▁ljubitelj	-10.7245
ü	-10.7248
▁Uskrs	-10.7248
▁ukazuje	-10.7248
▁lopta	-10.7249
▁izjavu	-10.7249
▁MUP	-10.7249
vić	-10.7251
zv	-10.7253
▁divlj	-10.7254
▁recimo	-10.7256
▁politici	-10.7257
▁povratka	-10.7257
▁stup	-10.7258
▁dob	-10.7263
▁formi	-10.7264
▁stranice	-10.7266
▁koncertu	-10.7268
▁še	-10.7276
▁priznati	-10.7278
▁Brazil	-10.7281
laže	-10.7282
▁oglas	-10.7282
▁roka	-10.7282
alost	-10.7283
▁osnivač	-10.7283
▁ravnatelja	-10.7285
▁Puli	-10.7286
▁javnih	-10.7287
▁ekološk	-10.7289
▁EUR	-10.7289
of	-10.729
▁izaziva	-10.7291
gri	-10.7292
▁ligu	-10.7293
tke	-10.7294
▁Gordan	-10.7297
▁socijalne	-10.7298
ns	-10.7298
▁63	-10.73
▁uključuju	-10.7305
▁boravak	-10.7309
▁investicije	-10.7309
▁pravde	-10.7309
▁općenito	-10.7309
▁namirnica	-10.731
▁ženu	-10.731
▁Horvat	-10.7311
▁kostim	-10.7311
čak	-10.7312
▁Rijeku	-10.7312
▁Pra	-10.7313
▁Ništa	-10.7315
▁Max	-10.7316
▁Mon	-10.7317
▁Koji	-10.7317
▁pale	-10.7318
▁lagano	-10.7324
▁Gl	-10.7325
▁sportskog	-10.7328
▁duže	-10.7339
unarodn	-10.7339
▁nu	-10.7348
▁turisti	-10.7351
▁Konferencijsk	-10.7351
▁Gradskog	-10.7354
▁As	-10.7356
▁pozivaju	-10.7357
▁snimljen	-10.7358
▁studenom	-10.7359
▁našla	-10.7362
NK	-10.7364
▁57	-10.7365
▁seksualn	-10.7366
▁moji	-10.7369
▁Bla	-10.737
▁Taylor	-10.737
▁korupcije	-10.737
▁uspjeti	-10.737
▁policajci	-10.737
▁povezuje	-10.737
▁dodavši	-10.737
▁pojasnio	-10.737
▁povrat	-10.737
▁utrka	-10.7372
▁naprijed	-10.7372
▁poručuje	-10.7373
▁radnici	-10.7374
wa	-10.7375
riju	-10.7375
nese	-10.7376
▁provjeriti	-10.7377
▁kosu	-10.7379
▁napustiti	-10.7379
▁savezn	-10.7381
▁današnj	-10.7386
▁navela	-10.7386
RI	-10.7391
▁kuha	-10.7391
▁odgovorila	-10.7393
▁Y	-10.7394
▁najam	-10.7398
▁majstor	-10.7402
▁pl	-10.7405
▁One	-10.7408
▁Gori	-10.7409
▁daljnji	-10.7414
▁fenomen	-10.7417
▁dokument	-10.7418
▁izgledati	-10.7423
ts	-10.7424
▁oštr	-10.7426
telja	-10.743
▁dozvola	-10.7431
▁naknade	-10.7431
▁obveze	-10.7431
▁sjednice	-10.7431
▁informaciju	-10.7431
▁emocionaln	-10.7432
▁krize	-10.7433
▁Col	-10.7434
▁Dugo	-10.7434
▁predstava	-10.7436
▁stoje	-10.7437
▁Anušić	-10.7438
▁Svaka	-10.7438
▁umro	-10.7438
▁planiran	-10.7439
▁obo	-10.7439
čili	-10.7442
hat	-10.7442
▁odli	-10.7445
▁Ć	-10.7445
▁napadača	-10.7446
▁održavanja	-10.7446
▁aktivnost	-10.7448
▁brine	-10.745
bal	-10.7451
▁bli	-10.7457
▁obiteljski	-10.7457
▁pregovara	-10.7461
▁Mali	-10.7461
▁sav	-10.7462
▁varaždinsk	-10.7464
▁fotograf	-10.7466
▁udio	-10.7467
▁Darko	-10.7468
▁talijansk	-10.7472
▁srednji	-10.7473
▁privatni	-10.7475
▁zavoda	-10.748
▁prijenos	-10.7482
▁smanjen	-10.7482
▁sjeveru	-10.7483
više	-10.7486
▁namjerava	-10.7486
▁govorimo	-10.7492
▁dozvole	-10.7493
▁spremna	-10.7493
▁suradnja	-10.7493
▁potvrđuje	-10.7493
▁smisla	-10.7493
▁Butković	-10.7494
▁izrazito	-10.7494
▁pokazatelj	-10.7494
▁tisuću	-10.7494
▁potrazi	-10.7494
▁izvodi	-10.7497
▁Francuskoj	-10.7498
▁proveli	-10.7498
▁najavljen	-10.7498
▁sjedi	-10.7506
▁korisnik	-10.7508
▁prijaviti	-10.7508
▁smjera	-10.7511
▁Oko	-10.7511
▁radove	-10.7517
▁NK	-10.752
▁fakulteta	-10.7522
AN	-10.7524
▁Pot	-10.7529
ane	-10.7531
▁nužno	-10.7531
▁Ruski	-10.7532
▁snimka	-10.7536
meta	-10.7537
▁originaln	-10.7537
sija	-10.7543
▁jači	-10.7544
▁Matej	-10.7548
▁Sav	-10.7549
▁prijateljsk	-10.7549
▁sudačk	-10.7552
▁62	-10.7552
▁Danijela	-10.7552
bir	-10.7553
▁Rujevici	-10.7555
▁sastanku	-10.7555
▁prevezen	-10.7555
šle	-10.7558
▁DHMZ	-10.7558
▁potreban	-10.7562
▁stabiln	-10.7564
▁€	-10.7566
▁jedinice	-10.7568
▁ideju	-10.7568
▁PO	-10.757
▁definira	-10.7571
Iz	-10.7571
vent	-10.7574
▁sanja	-10.7576
▁Han	-10.7577
čenje	-10.7579
▁naredn	-10.7581
▁oduševljen	-10.7586
▁prepoznati	-10.7588
▁iskoristio	-10.7591
▁izlet	-10.7592
Y	-10.7595
šan	-10.7598
▁objavljena	-10.7607
▁predivn	-10.761
rp	-10.7612
21	-10.7613
kti	-10.7615
▁Con	-10.7616
▁nedostatak	-10.7618
▁opušten	-10.7618
▁emocije	-10.7618
▁mesa	-10.7618
▁provela	-10.7618
zija	-10.7618
▁Kasnije	-10.7618
▁stotina	-10.7619
▁aktualni	-10.762
▁buduće	-10.7621
▁53	-10.7621
▁skupinu	-10.7623
▁kose	-10.7628
▁kriminal	-10.763
▁ostvarila	-10.7633
▁prelazi	-10.7633
tura	-10.7635
▁javljaju	-10.7639
▁ustvrdio	-10.764
▁završili	-10.764
▁vanjsk	-10.764
▁stilu	-10.7641
dugo	-10.7643
19	-10.7644
▁Dani	-10.7645
▁odgovoriti	-10.7646
▁domaćina	-10.7647
▁Nogometaši	-10.765
▁niže	-10.7655
▁navodn	-10.7659
▁živote	-10.766
▁išao	-10.766
▁najbolju	-10.7661
▁Novog	-10.7662
tova	-10.767
▁komada	-10.767
▁Imal	-10.7671
▁članovima	-10.7671
▁odmora	-10.7673
▁Hrvatskih	-10.7675
▁pokrenuo	-10.7681
▁pozornici	-10.7681
▁akciji	-10.7681
▁virus	-10.7681
▁Odmah	-10.7681
▁zagrebačkog	-10.7681
▁poduzeća	-10.7681
▁prigodn	-10.7682
▁Gorice	-10.7689
▁političkog	-10.769
▁Sandra	-10.769
manje	-10.7691
▁hotelu	-10.7694
▁brojke	-10.7695
▁povećanja	-10.7698
▁supruge	-10.7698
▁Stra	-10.7702
▁prometnih	-10.7703
▁sportu	-10.7706
▁seksualno	-10.7707
▁partneri	-10.7708
nde	-10.771
lijeva	-10.7711
▁Leon	-10.7712
▁čuo	-10.7715
elim	-10.7716
▁shvatio	-10.7728
▁desni	-10.7729
▁nastupio	-10.773
▁možeš	-10.774
irana	-10.7742
▁visok	-10.7743
▁Mateo	-10.7743
▁napominje	-10.7744
▁pištolj	-10.7744
▁činjenice	-10.7744
▁držati	-10.7744
▁2009.	-10.7744
▁cilju	-10.7745
▁str	-10.7745
▁Protiv	-10.7745
▁smiju	-10.7746
▁Londonu	-10.7746
▁fondova	-10.7746
▁opravdan	-10.7747
▁odbija	-10.7747
▁izdanja	-10.7751
▁izazvati	-10.7751
▁Nisu	-10.7752
▁pružiti	-10.7753
▁osobni	-10.7754
▁vlastitu	-10.7754
▁sredine	-10.7756
ujemo	-10.7758
▁Maksimir	-10.7759
▁samostalno	-10.7759
▁napao	-10.7759
▁obilje	-10.7759
▁Kara	-10.7761
licu	-10.7762
▁uvođenje	-10.7764
▁drama	-10.777
▁glasi	-10.7771
▁sok	-10.7771
src	-10.7774
▁profil	-10.7776
▁Fe	-10.7777
▁potrebn	-10.7777
▁Ter	-10.7778
▁saborski	-10.7779
▁prosjeka	-10.7779
▁splitskog	-10.778
▁svladao	-10.7782
▁staln	-10.7788
▁poslovnih	-10.7788
pati	-10.779
nova	-10.7793
rob	-10.7795
▁školsk	-10.7797
kala	-10.7799
▁Novo	-10.7803
▁podatak	-10.7805
ček	-10.7807
▁crijeva	-10.7808
▁poginulo	-10.7808
▁Voyo	-10.7808
▁pravosuđa	-10.7808
▁baštine	-10.7808
▁utrku	-10.7808
▁kamo	-10.7809
▁lopte	-10.781
▁odličan	-10.781
▁visini	-10.7811
▁Pašalić	-10.7812
DA	-10.7813
▁Očekuje	-10.7814
▁showu	-10.7816
tv	-10.7817
▁tražili	-10.7818
▁kona	-10.7827
▁drže	-10.7828
aka	-10.7831
▁stranica	-10.7831
etvrtak	-10.7836
▁TikTok	-10.7837
▁projektila	-10.784
▁kultn	-10.7842
rot	-10.7846
▁Jel	-10.7851
▁gledali	-10.7853
▁rang	-10.7853
ten	-10.7856
▁doktor	-10.7861
kali	-10.7863
▁umor	-10.7864
evoj	-10.7865
nte	-10.7868
▁autora	-10.7868
▁prostorima	-10.7869
▁United	-10.7869
▁inflacije	-10.7872
▁ljudska	-10.7872
▁industriji	-10.7872
▁naglasila	-10.7872
▁namirnice	-10.7872
▁Otvoren	-10.7872
▁potrebi	-10.7872
▁vozači	-10.7873
▁osjećam	-10.7873
▁običaj	-10.7873
▁životinje	-10.7876
▁uzrokovati	-10.7878
▁Dario	-10.7879
▁vještine	-10.7879
▁luci	-10.788
▁miru	-10.788
▁sadr	-10.7885
▁troši	-10.7889
▁ravnateljica	-10.789
▁dječaka	-10.7897
▁ugostiteljsk	-10.7899
rio	-10.7902
čkih	-10.7903
▁američk	-10.7909
▁novosti	-10.7911
čica	-10.7912
▁rekordn	-10.7912
▁malu	-10.7912
▁predsjedniku	-10.7913
▁kulturno	-10.7924
▁šećer	-10.7924
ey	-10.7924
▁ozlije	-10.7924
26	-10.7929
▁radnje	-10.7929
▁kvaliteta	-10.793
▁Oba	-10.7931
▁poveo	-10.7936
▁poginuo	-10.7936
▁raspolaganju	-10.7936
▁pismo	-10.7936
▁rasprava	-10.7936
▁sjedište	-10.7937
▁scenu	-10.7938
▁vjetra	-10.7938
▁Nekolik	-10.7939
▁DJ	-10.7941
▁brata	-10.7941
▁klasi	-10.7942
▁And	-10.7956
▁postaviti	-10.796
▁odlučiti	-10.7962
▁trebale	-10.7962
▁Zdravko	-10.7966
▁poslati	-10.7967
▁toplo	-10.7967
tna	-10.7969
▁smijeh	-10.7969
pred	-10.7972
▁Ed	-10.7974
▁postalo	-10.7974
Pro	-10.7975
▁šefa	-10.7975
▁ovlasti	-10.7978
▁Znam	-10.798
▁donijel	-10.7983
ral	-10.7987
▁čelnik	-10.7989
▁promijenio	-10.7992
▁sklad	-10.7992
▁1,5	-10.7993
▁baca	-10.7996
▁dopis	-10.7997
▁Joško	-10.7999
▁Republici	-10.8001
▁UEFA	-10.8001
▁platforme	-10.8001
▁tretman	-10.8001
▁Vedran	-10.8001
▁crkvi	-10.8001
▁napisali	-10.8001
▁izvješće	-10.8002
▁mikro	-10.8002
▁Gal	-10.8005
▁zajednici	-10.8006
▁nimalo	-10.8007
▁kreativn	-10.8009
▁Kim	-10.8011
▁snimanja	-10.8011
lla	-10.8011
▁upoznali	-10.8014
▁Mamić	-10.8015
čini	-10.8016
▁regionaln	-10.8021
▁propisan	-10.8025
▁osigurala	-10.8026
▁glazbene	-10.8028
▁osnova	-10.8029
sljed	-10.803
▁mušk	-10.8034
▁srušio	-10.8035
▁zabavlja	-10.8036
▁mjesečn	-10.8038
▁francusk	-10.804
▁Rusk	-10.8042
▁slavili	-10.8045
▁fakultetu	-10.8046
▁završen	-10.8048
▁britanski	-10.8049
▁30-	-10.8049
▁volje	-10.805
▁Kijev	-10.805
valo	-10.805
RO	-10.8057
▁mla	-10.8058
▁periodu	-10.806
▁Sha	-10.8064
▁ponedjeljka	-10.8067
▁drugačiji	-10.8067
▁dviju	-10.8067
▁pandemije	-10.8067
▁koncu	-10.8068
▁zdravstvo	-10.8068
▁čudo	-10.8069
▁slovensk	-10.8075
▁56	-10.8077
▁Srbiju	-10.8077
▁parlamenta	-10.8079
▁kavu	-10.8081
▁Matić	-10.8081
▁poma	-10.8081
ale	-10.8082
▁benzin	-10.8084
uri	-10.8086
▁osu	-10.8089
▁Cro	-10.8091
▁službene	-10.8097
▁plin	-10.8097
▁Rod	-10.8105
▁trećeg	-10.8107
▁car	-10.8108
▁Nacionaln	-10.8118
▁Imam	-10.8118
▁kupio	-10.8119
▁glavnih	-10.812
▁vašeg	-10.8121
nal	-10.8122
ncu	-10.8122
▁pogledu	-10.8122
▁protivnika	-10.8123
▁koš	-10.8124
▁registriran	-10.8124
▁slučajno	-10.8124
▁Rus	-10.8126
njaci	-10.8126
▁dominira	-10.8127
▁obnovu	-10.8132
▁poljoprivrede	-10.8132
▁sudjelovala	-10.8132
▁pretežno	-10.8132
▁potiče	-10.8133
▁Dodik	-10.8133
▁pušten	-10.8133
mina	-10.8133
ble	-10.8133
▁kampanja	-10.8133
▁brzinu	-10.8137
▁Danijel	-10.8137
▁potaknuti	-10.814
▁Sva	-10.814
▁Luci	-10.8142
▁bolju	-10.8144
▁sunca	-10.8145
▁Ustav	-10.8148
▁istim	-10.8149
nzi	-10.815
vija	-10.8153
▁oboje	-10.8153
▁komentirati	-10.8153
▁poslovn	-10.8154
-3	-10.8161
▁Broj	-10.8162
▁ključno	-10.8162
▁lider	-10.8162
▁Cha	-10.8165
▁plaćanja	-10.8166
▁jača	-10.8166
▁poznatog	-10.817
▁užas	-10.817
▁ministrica	-10.8173
▁najavila	-10.8173
▁(2	-10.8179
▁dječj	-10.8181
▁sudsk	-10.8185
▁izborni	-10.8185
spor	-10.8188
▁profesionaln	-10.8188
dite	-10.8189
ijem	-10.8194
▁vozio	-10.8196
▁Kro	-10.8196
▁složen	-10.8197
▁Vol	-10.8197
▁pucao	-10.8197
▁mišljenja	-10.8199
▁upućen	-10.8199
▁dramatičn	-10.8199
▁predstave	-10.8199
▁snimku	-10.8199
▁Vidi	-10.82
▁industrijsk	-10.8201
▁Općina	-10.8202
▁mladim	-10.8202
▁fin	-10.8205
▁kratkom	-10.8206
▁Pavić	-10.8206
▁Madrida	-10.8207
ljub	-10.8207
▁internetu	-10.8209
▁Plan	-10.8211
▁nesretn	-10.8214
▁Sir	-10.8216
▁najavljuje	-10.8218
▁izgubiti	-10.822
▁prst	-10.8226
▁ponuditi	-10.8227
34	-10.8227
▁sredini	-10.8227
▁umjetničk	-10.8232
aši	-10.8232
▁morsk	-10.8234
▁čvrst	-10.8236
▁igrala	-10.8236
▁okolnostima	-10.8241
▁književn	-10.8247
mail	-10.8248
▁67	-10.8248
▁kaos	-10.8253
vit	-10.8254
▁izgubi	-10.8257
▁bolnica	-10.8261
▁pojas	-10.8264
▁Njemačku	-10.8266
▁poduzetnik	-10.8266
▁videa	-10.8266
▁prilog	-10.8268
▁posebnim	-10.827
▁IT	-10.8272
▁izboru	-10.8272
▁suprotno	-10.8273
▁ključne	-10.8273
▁jutra	-10.8273
▁Rim	-10.8275
▁najvećim	-10.8275
▁najboljim	-10.8275
▁imalo	-10.8278
▁medijsk	-10.8279
▁neposredno	-10.828
▁poslala	-10.8281
▁Rusiju	-10.8281
▁pisan	-10.8282
▁bl	-10.8283
▁Kalinić	-10.8285
▁Es	-10.8292
▁odavno	-10.8295
rci	-10.83
rske	-10.83
35	-10.8308
▁nosio	-10.8308
▁muzej	-10.831
▁Vin	-10.8311
▁dužnosnici	-10.8312
▁ozlijeđenih	-10.8317
▁Berlinu	-10.832
▁četvrt	-10.8322
▁muzeja	-10.8326
▁potpora	-10.8326
5.	-10.8327
▁zadnja	-10.8328
▁dijelove	-10.8332
▁epizoda	-10.8332
▁menadžer	-10.8332
▁promjenama	-10.8332
▁kandidatkinja	-10.8334
▁zdravlju	-10.8334
▁zahvat	-10.8337
▁Dončić	-10.8339
prot	-10.834
▁stavit	-10.834
▁slučajevima	-10.834
▁jasan	-10.8341
▁prebaci	-10.8347
Mar	-10.8348
ovci	-10.8348
▁miješa	-10.835
▁Hamasa	-10.8351
▁živimo	-10.8353
▁prevelik	-10.8355
▁rani	-10.8357
▁tebe	-10.8362
dali	-10.8363
▁ozbiljne	-10.837
▁Radio	-10.8374
▁ubacio	-10.8381
▁Najveći	-10.8381
▁napor	-10.8388
▁seriju	-10.8388
ham	-10.8393
▁Kina	-10.8394
▁kombinira	-10.8394
▁tvoj	-10.8399
▁kvalitetno	-10.84
▁televiziji	-10.84
▁četvrtfinale	-10.84
▁podržati	-10.84
▁skriven	-10.84
▁kazališn	-10.84
▁osnovan	-10.8402
▁prešao	-10.8404
▁droge	-10.8405
▁objasniti	-10.8407
▁posebna	-10.8407
▁junior	-10.8408
▁značajan	-10.8409
▁Španjolskoj	-10.8412
▁komentira	-10.8413
▁bazi	-10.8415
▁Vit	-10.8416
niju	-10.842
▁Wa	-10.8421
▁centimetara	-10.8426
▁Tor	-10.8427
▁postignut	-10.8428
▁ranjen	-10.8429
▁legendarni	-10.843
ture	-10.8431
▁odradio	-10.8438
▁trebati	-10.8439
▁pacijenti	-10.8445
jka	-10.8446
▁obaveza	-10.8448
▁blagdan	-10.8449
isto	-10.845
laskom	-10.8452
▁svoga	-10.8452
▁rukometn	-10.8454
▁programe	-10.8455
▁kakvo	-10.8455
ficira	-10.8466
▁mjestimice	-10.8468
▁industrija	-10.8468
▁funkciju	-10.8468
▁ozlijedio	-10.8468
▁Stipe	-10.8468
▁Vrijeme	-10.847
▁trideset	-10.847
▁parking	-10.847
▁otvoreni	-10.8474
▁700	-10.8474
▁vodeći	-10.8479
▁zub	-10.8481
▁djelatnici	-10.8483
▁idući	-10.8485
▁59	-10.8486
▁nekome	-10.8496
▁predmeta	-10.8497
▁golman	-10.8499
▁Dje	-10.8505
bili	-10.8512
▁visokih	-10.8512
▁Svjetsko	-10.8514
▁žali	-10.8515
▁obnovi	-10.8515
▁sportaša	-10.8516
▁objava	-10.8516
čina	-10.8516
▁Volim	-10.8519
▁Top	-10.8519
▁vezane	-10.852
▁besplatn	-10.852
▁ze	-10.852
▁benda	-10.8521
1)	-10.8524
▁vino	-10.853
▁inovativn	-10.8531
▁Mol	-10.8534
▁odvjetništvo	-10.8536
▁mozga	-10.8536
▁prirodi	-10.8537
▁rasprave	-10.8537
▁princ	-10.854
▁puna	-10.854
▁če	-10.8541
▁opcije	-10.8541
▁sobe	-10.8541
▁tajna	-10.8542
▁okruženju	-10.8544
▁umjetnika	-10.8546
▁skromn	-10.8546
štu	-10.8547
▁priznaje	-10.8547
▁kamion	-10.8548
▁Bačić	-10.8552
▁proizvodnja	-10.8552
udi	-10.8553
▁metra	-10.8556
▁optužbe	-10.8556
▁člana	-10.8558
ON	-10.8558
▁vije	-10.8563
▁imenom	-10.8565
tekao	-10.8566
▁domaćem	-10.857
▁TikToku	-10.857
▁aktualn	-10.8571
▁dim	-10.8577
▁svijesti	-10.8578
▁radilo	-10.8581
Dr	-10.8585
▁zastupnici	-10.8585
▁slučaja	-10.8587
▁Tin	-10.859
▁kla	-10.8593
▁austrijsk	-10.8597
pisa	-10.8598
▁1:0	-10.8598
▁kvalifikacija	-10.8601
ovec	-10.8603
▁ratni	-10.8605
▁doživljaj	-10.8605
▁medicine	-10.8605
▁nezaboravn	-10.8605
▁svrhu	-10.8605
▁valjda	-10.8605
▁švedsk	-10.8605
▁bruto	-10.8605
▁Vijeća	-10.8606
▁Večernji	-10.8606
▁2008.	-10.8606
▁2006.	-10.8606
▁vrstu	-10.8606
▁uzgoj	-10.8609
':	-10.861
▁završnici	-10.861
▁automobilom	-10.8614
▁izvršn	-10.8617
▁shvatiti	-10.862
OR	-10.8624
▁incidenta	-10.8625
▁koša	-10.8626
▁poboljšanje	-10.8629
▁aspekt	-10.8629
▁djelovanje	-10.863
▁doživjela	-10.8631
▁pronađen	-10.8635
▁Izraelu	-10.8635
▁jeseni	-10.8638
▁go	-10.8639
pusti	-10.8641
rno	-10.8643
▁News	-10.8644
▁kralja	-10.8651
▁demografsk	-10.8653
▁troškovi	-10.8655
▁žrtva	-10.8655
▁žal	-10.8656
▁službeni	-10.8656
▁plavi	-10.8657
▁upoznao	-10.8658
▁Ya	-10.8661
▁jaka	-10.8662
▁Fer	-10.8662
▁scena	-10.8663
malo	-10.8664
▁smeta	-10.8667
▁dodaju	-10.8672
▁bazen	-10.8673
▁Dortmund	-10.8675
▁autocesti	-10.8675
▁genocid	-10.8675
▁poluvremena	-10.8675
▁uzastopn	-10.8675
▁činjenicu	-10.8675
▁prestižn	-10.8675
▁omjer	-10.8676
izacija	-10.8676
pod	-10.8677
▁granicu	-10.8678
▁zone	-10.868
rop	-10.868
ljenje	-10.8684
▁državnih	-10.8687
▁Mato	-10.8691
▁izazova	-10.8696
▁čišćenje	-10.8696
▁plastičn	-10.8696
jača	-10.8699
▁pokušaju	-10.87
▁analitičar	-10.8704
ivao	-10.8706
▁(20	-10.8708
▁Musk	-10.871
▁ispita	-10.8713
▁pune	-10.8715
▁dizajner	-10.8716
▁osmin	-10.8718
▁Kini	-10.8721
avanja	-10.8724
▁disk	-10.8724
mišlja	-10.8732
▁vod	-10.8733
▁stope	-10.8739
▁napet	-10.874
▁PDV	-10.8745
▁dostupan	-10.8745
▁integracij	-10.8745
▁istaknuli	-10.8745
▁osobne	-10.8745
▁pozornicu	-10.8745
▁Gdje	-10.8745
▁2010.	-10.8745
▁Dim	-10.8745
▁Međunarodn	-10.8745
▁kulturne	-10.8745
▁priznanja	-10.8748
▁čisti	-10.875
▁oslobođen	-10.8751
▁dobrog	-10.8754
55	-10.8755
▁čudi	-10.8757
las	-10.8758
▁Pin	-10.8763
▁reagirati	-10.8765
▁sponzor	-10.8765
▁podsjetio	-10.8766
▁pohvali	-10.8768
▁automobilu	-10.8768
ero	-10.877
mis	-10.8772
čeni	-10.8774
▁mlađi	-10.8774
IS	-10.8775
▁Boban	-10.8779
▁istinu	-10.8779
▁Mogl	-10.8779
▁životn	-10.878
▁obiteljima	-10.8781
▁sabora	-10.8788
▁postavi	-10.8791
velike	-10.8791
On	-10.8791
▁vlasnici	-10.8795
▁specijaln	-10.8796
-19	-10.8798
▁alat	-10.88
prije	-10.8804
▁gledatelji	-10.8807
▁signal	-10.8809
rska	-10.8812
▁Austriji	-10.8815
▁izvedbe	-10.8815
▁zatražil	-10.8815
▁srebrn	-10.8815
▁Macron	-10.8816
▁nerijetk	-10.8816
▁sadrži	-10.8817
▁sjajan	-10.8819
▁imale	-10.8819
▁Djeca	-10.882
▁Amerike	-10.882
▁nemojte	-10.882
▁građansk	-10.8821
▁druženje	-10.8823
▁pića	-10.8824
▁sugerira	-10.8825
▁Marković	-10.8826
▁podijeliti	-10.8828
▁Postoje	-10.8828
▁opisao	-10.883
▁Neven	-10.8831
▁pasa	-10.8834
▁rez	-10.8835
▁poslali	-10.884
vina	-10.8842
▁gradskog	-10.8843
▁državama	-10.8843
▁itd	-10.8844
▁Kur	-10.8845
pravi	-10.8848
▁proizvođač	-10.8849
▁detalj	-10.8853
▁boravka	-10.8875
rl	-10.888
▁Cr	-10.8883
▁graditi	-10.8883
▁maloljetn	-10.8883
▁68	-10.8884
▁Gradonačelnik	-10.8886
▁Jugoslavije	-10.8886
▁Mjesec	-10.8886
▁Muškarac	-10.8886
▁Sarajevu	-10.8886
▁Saudijsk	-10.8886
▁prikupljen	-10.8886
▁dramsk	-10.8886
▁2:0	-10.8887
▁utjecal	-10.8889
▁Nikolina	-10.8892
▁voća	-10.8892
čara	-10.8893
ivotu	-10.8894
▁izvještava	-10.8895
▁zoni	-10.8896
▁članove	-10.8898
▁Šarić	-10.8901
port	-10.8902
▁podnijeti	-10.8904
▁mladog	-10.8905
99	-10.8905
▁realno	-10.8907
14	-10.8908
▁Sučić	-10.8914
sch	-10.8919
▁Lov	-10.892
IN	-10.8921
▁slave	-10.8922
▁nalog	-10.8923
▁zelene	-10.8923
▁donijeli	-10.8926
▁voziti	-10.8926
▁odigra	-10.8928
igi	-10.893
rice	-10.8931
▁vidjet	-10.8931
▁hlad	-10.8936
▁kasno	-10.8937
▁popularnost	-10.894
▁star	-10.894
▁stresa	-10.8944
nčić	-10.8948
▁otpor	-10.8948
▁nastavljaju	-10.8949
▁privatnom	-10.8951
▁nemoguće	-10.8951
▁objekt	-10.8952
▁žiri	-10.8952
inama	-10.8954
hop	-10.8956
ijih	-10.8957
▁ogroman	-10.8958
▁pripremu	-10.8958
▁Advent	-10.8958
▁faze	-10.8958
▁izašli	-10.8958
▁staze	-10.8958
▁odlična	-10.8958
▁Barcelona	-10.8959
▁Zapravo	-10.896
▁presuda	-10.8962
▁stvoren	-10.8962
▁urednik	-10.8965
▁OI	-10.8965
▁Posljednj	-10.8965
▁zahvaliti	-10.8968
▁šećera	-10.8968
▁osobnih	-10.897
▁očekivan	-10.8971
▁oporbe	-10.8973
▁Župan	-10.8974
▁bur	-10.8975
▁privlači	-10.8979
▁pohvaliti	-10.898
tz	-10.898
▁Državnog	-10.8981
▁mojoj	-10.8982
▁takvog	-10.8984
elja	-10.8985
▁domaćeg	-10.8986
▁gađa	-10.8986
▁govora	-10.8988
▁tipa	-10.8993
▁osvajanje	-10.8993
13	-10.9003
▁umirovljenika	-10.9006
▁pripadnika	-10.9008
▁Mail	-10.9009
▁Can	-10.9011
°	-10.9013
▁sram	-10.9015
▁posljednjeg	-10.9017
jeli	-10.902
▁sindikata	-10.9021
▁takvi	-10.9022
▁poznaje	-10.9027
▁zahvalio	-10.9028
▁Lokomotiva	-10.9029
▁koalicije	-10.9029
▁podrazumijeva	-10.9029
▁sigurna	-10.9029
▁studenata	-10.9029
▁izmjene	-10.903
▁bogatstvo	-10.9031
▁studiju	-10.9031
▁poručuju	-10.9033
▁Posljednji	-10.9033
▁manja	-10.9033
▁kretanja	-10.9035
▁uspon	-10.9037
▁73	-10.9039
▁radnike	-10.9044
rje	-10.9047
▁materijaln	-10.9047
▁Ulica	-10.9049
▁financira	-10.9052
lis	-10.9053
▁vrijedn	-10.9053
▁Slavonsk	-10.9056
▁ljudsko	-10.9056
▁Oliver	-10.9057
▁državljanin	-10.9057
▁Beograd	-10.9058
▁Sr	-10.9061
▁savjetuje	-10.9065
▁čist	-10.9069
▁plaćen	-10.9069
Ka	-10.9073
▁suprotn	-10.9073
▁Ham	-10.9079
▁dodir	-10.9083
▁visokog	-10.9085
▁znanstven	-10.9085
▁tata	-10.9086
▁pokrenuti	-10.9094
▁pitaju	-10.9095
▁kolač	-10.9097
▁sretna	-10.91
đuje	-10.9101
▁spoln	-10.9102
▁gostovanju	-10.9102
▁zgradi	-10.9102
▁Premda	-10.9102
▁procjenjuje	-10.9102
▁Hol	-10.9103
▁posjetitelji	-10.9107
▁teritorij	-10.9108
▁osjećaju	-10.9109
▁bana	-10.9109
▁tenis	-10.9111
▁srpske	-10.9113
▁ostvari	-10.9116
kove	-10.9119
▁svejedno	-10.912
▁pogodaka	-10.9122
▁Ram	-10.9122
▁sobi	-10.9123
▁susjed	-10.9123
▁vidljivo	-10.9124
▁Antun	-10.9125
Ima	-10.9126
▁vodili	-10.913
ženi	-10.9132
▁riješi	-10.9136
▁Opć	-10.9136
▁smatram	-10.9136
▁dostupne	-10.9138
▁potpisa	-10.9141
▁obvezni	-10.9142
2.	-10.9142
gura	-10.9142
▁osobnog	-10.9143
▁prozor	-10.9144
▁isključen	-10.9147
▁dalmatinsk	-10.9149
▁lokaln	-10.9149
▁Rado	-10.9149
▁Wi	-10.9151
▁Cijel	-10.9152
vik	-10.9156
▁tehnički	-10.9156
▁Modrića	-10.9158
▁političar	-10.916
▁glasati	-10.9161
rak	-10.9166
▁nekada	-10.917
▁napadima	-10.9172
▁Domovinskom	-10.9175
▁preminula	-10.9175
▁približava	-10.9175
▁sekunde	-10.9175
▁pregovora	-10.9175
▁zabave	-10.9175
▁političku	-10.9175
▁vrijeđa	-10.9175
▁kviz	-10.9176
▁komercijaln	-10.9176
▁razumijevanje	-10.9177
▁nafte	-10.9179
▁George	-10.918
▁Pariz	-10.918
▁Reala	-10.9181
▁Ce	-10.9185
▁Žup	-10.9187
▁hr	-10.9187
▁upoznala	-10.9188
▁bivš	-10.919
▁Bogu	-10.919
▁neugodn	-10.9191
▁pasti	-10.9192
▁rukomet	-10.9193
nc	-10.9198
▁mandatu	-10.9198
▁graničn	-10.9199
▁štrajk	-10.9199
-4	-10.9199
▁elektroničk	-10.9199
▁državno	-10.9202
▁brinu	-10.9204
▁pamti	-10.9211
▁NA	-10.9211
▁zauvijek	-10.9213
▁ure	-10.9217
▁obraz	-10.9217
▁mil	-10.9219
▁pokušali	-10.922
zak	-10.9227
▁trgovina	-10.9229
▁ljut	-10.9229
▁intimn	-10.9231
▁budi	-10.9235
▁općina	-10.9235
▁Pobjed	-10.9236
▁Ser	-10.9236
▁tank	-10.9237
▁izvršni	-10.9241
som	-10.9242
▁Stefan	-10.9248
▁trajanja	-10.9249
▁posade	-10.9249
▁Kovačević	-10.9249
▁vjerojatnost	-10.9249
▁Puljak	-10.9249
▁1961	-10.9249
▁Video	-10.925
▁noćenja	-10.925
mat	-10.9251
▁Jandroković	-10.9252
▁trajno	-10.9252
▁visoka	-10.9254
▁Chi	-10.9255
▁brodova	-10.9256
▁zakonu	-10.9259
▁dvaput	-10.9262
▁primili	-10.9265
▁kont	-10.9266
?!	-10.9268
▁suđenje	-10.9269
▁pokr	-10.9269
njaka	-10.9272
▁Vukovar	-10.9276
▁razvijati	-10.9278
▁Var	-10.9281
▁kolektivn	-10.9289
▁mislio	-10.929
▁pošto	-10.9291
▁sadašnj	-10.9291
▁Država	-10.9303
▁Kraj	-10.9312
▁njime	-10.9312
▁službenim	-10.9314
▁Times	-10.9315
▁Turudića	-10.9316
▁SDSS	-10.9323
▁Aleksandra	-10.9323
▁aplikacije	-10.9323
▁desetljećima	-10.9323
▁inicijativu	-10.9323
▁tragedije	-10.9323
▁četvrtfinalu	-10.9323
▁fazu	-10.9323
▁pomogao	-10.9323
▁odjeću	-10.9323
▁izbjeći	-10.9324
▁dijalog	-10.9325
▁kultura	-10.9326
6.	-10.9327
▁zemljišta	-10.9327
▁Tomislava	-10.933
▁širenje	-10.933
▁vijek	-10.9331
▁djed	-10.9332
▁vrhunski	-10.9332
▁stanice	-10.9333
▁primanja	-10.9334
▁odraditi	-10.9334
▁naselje	-10.9335
▁startu	-10.9336
▁Dodaj	-10.9339
▁središnje	-10.9341
ovanje	-10.9341
▁propust	-10.9344
▁marke	-10.9344
▁Znate	-10.9345
▁oduvijek	-10.9347
vir	-10.9347
▁mosta	-10.9349
▁čest	-10.935
▁besplatno	-10.935
▁režim	-10.9351
▁dopusti	-10.9352
▁pilot	-10.9354
▁sabor	-10.9354
▁koristio	-10.9356
▁dnevni	-10.9358
▁soba	-10.936
18	-10.936
8.	-10.936
▁vjersk	-10.9363
ložio	-10.9363
▁natječaja	-10.9368
▁pomorsk	-10.9376
▁povezani	-10.9384
▁Petrov	-10.9384
▁Marijana	-10.939
▁restoranu	-10.9396
▁razum	-10.9396
▁ekipi	-10.9397
▁spektakularn	-10.9397
▁tradicije	-10.9397
▁elitn	-10.9397
▁imovinsk	-10.9397
▁nogama	-10.9398
▁japansk	-10.9398
▁dvorane	-10.9398
▁Celtic	-10.9398
pek	-10.9399
▁Katarina	-10.9399
▁stanica	-10.94
▁Nemojte	-10.94
▁Kost	-10.94
▁rasti	-10.9402
▁nastave	-10.9403
etvrt	-10.9403
rada	-10.9403
▁pisao	-10.9405
▁peti	-10.9408
▁mnom	-10.9408
▁suho	-10.9408
▁Istaknu	-10.941
▁neovisn	-10.9412
▁neobičn	-10.9415
▁Ovako	-10.9418
▁fi	-10.9418
▁uređenje	-10.9419
▁kvalifikacijama	-10.9419
▁odjel	-10.9419
▁radnom	-10.9419
▁rodi	-10.9423
ore	-10.9426
▁željeli	-10.9427
▁izražen	-10.9428
32	-10.9432
▁72	-10.9434
▁Republika	-10.9435
alni	-10.9437
▁igrat	-10.9438
▁kar	-10.9448
▁nered	-10.9448
▁Mat	-10.9448
▁studenti	-10.945
▁prijateljica	-10.9451
▁ulaganje	-10.9451
▁daljnj	-10.9453
▁AP	-10.9453
▁zadržava	-10.9454
▁predsjedni	-10.9456
čice	-10.9461
▁kvadrata	-10.9464
▁vodila	-10.9465
▁Dino	-10.9467
▁ponosni	-10.9467
▁Austrije	-10.9472
▁dijelova	-10.9472
▁trećoj	-10.9472
▁preporučuje	-10.9472
▁svjetla	-10.9472
▁priveden	-10.9473
nuli	-10.9473
▁zabranjen	-10.9475
▁mah	-10.9475
▁Znači	-10.9476
▁prestati	-10.9479
▁uređenja	-10.9479
zdrav	-10.9481
▁ATP	-10.9481
▁glumačk	-10.9481
▁obalu	-10.9481
▁Portugala	-10.9482
▁nov	-10.9489
▁dvoboju	-10.949
▁tajne	-10.949
▁rodila	-10.9494
▁jesen	-10.9495
▁brenda	-10.9495
▁koli	-10.9504
▁Priča	-10.9504
fu	-10.9506
▁naru	-10.9507
▁faktor	-10.9508
▁dugogodišnji	-10.951
▁snimanje	-10.9513
▁mag	-10.9514
▁spasio	-10.9517
▁Sjever	-10.9521
▁opisu	-10.9522
▁Jedno	-10.9523
▁ovakvim	-10.9524
▁ozlijeđeno	-10.9526
▁84	-10.9527
▁sudar	-10.9528
▁Osob	-10.9531
Ljubav	-10.9532
onako	-10.9533
▁slo	-10.9541
▁Svjetsk	-10.9542
▁Trgu	-10.9543
▁prethodne	-10.9547
▁epizode	-10.9548
▁relevantn	-10.9548
▁opremu	-10.9548
▁inženjer	-10.9548
▁objavljuje	-10.9548
▁pitanjima	-10.9549
▁vladu	-10.955
▁logor	-10.955
▁shvaća	-10.955
▁minus	-10.955
off	-10.955
▁oružan	-10.9551
▁Željka	-10.9551
▁rakete	-10.9552
▁klubovi	-10.9552
▁reagira	-10.9553
2)	-10.9553
▁Građani	-10.9553
▁poznatih	-10.9554
▁automatski	-10.9555
▁Bosni	-10.9555
▁Orban	-10.9556
▁Sara	-10.9558
▁zajedni	-10.9558
▁cijelosti	-10.956
▁dvoboja	-10.9561
▁prometnu	-10.9562
ićem	-10.9563
▁starijih	-10.9563
▁stao	-10.9564
godišnjakinja	-10.9564
sić	-10.9564
▁nogometaši	-10.957
▁talijanskog	-10.9574
▁privatnog	-10.9576
▁održavaju	-10.9578
▁ocijenio	-10.9578
▁Fin	-10.9579
▁kum	-10.9582
▁umak	-10.9583
▁prodan	-10.9585
▁gledao	-10.9585
▁dječje	-10.9587
tali	-10.9588
▁povoljn	-10.959
tivni	-10.9592
▁naknadno	-10.9594
▁(6	-10.9595
▁Las	-10.9595
▁napredn	-10.96
LO	-10.9601
▁količina	-10.9605
▁rubu	-10.9607
▁partnerom	-10.961
▁straha	-10.9615
▁Zapad	-10.9618
vni	-10.9618
▁poplava	-10.9622
á	-10.9624
▁Jennifer	-10.9624
▁Premier	-10.9624
▁cjelokupn	-10.9624
▁dodijeljen	-10.9624
▁gužve	-10.9624
▁komunikacija	-10.9624
▁ozbiljan	-10.9624
▁glazba	-10.9625
▁točnije	-10.9625
▁postigli	-10.9625
▁knjizi	-10.9626
▁Jones	-10.9627
čila	-10.9627
▁obratio	-10.9627
▁malom	-10.9627
▁Policijski	-10.9628
ključ	-10.9628
▁ulaska	-10.9629
država	-10.9629
▁žao	-10.963
▁govorila	-10.9631
▁promijenilo	-10.9632
▁trgova	-10.9633
▁malen	-10.9633
▁granici	-10.9634
▁nasiln	-10.9635
▁Poljud	-10.9641
▁zamisliti	-10.9641
▁svjestan	-10.9646
▁uspješan	-10.9647
vili	-10.9649
▁gledaju	-10.965
zb	-10.9652
▁nacionalnog	-10.9658
▁eto	-10.9659
irane	-10.966
tika	-10.9661
▁udarca	-10.9661
▁gospodin	-10.9662
and	-10.9666
dovolj	-10.9671
▁stvarima	-10.9672
▁Državni	-10.9674
▁gradsk	-10.9676
▁objekta	-10.968
▁služba	-10.9682
▁skr	-10.9682
▁razvi	-10.9684
▁Gotovo	-10.9684
▁glazbenika	-10.9686
▁iduć	-10.969
▁privremen	-10.9694
▁transparent	-10.9697
▁ubijeno	-10.9697
▁uređaj	-10.9699
cka	-10.97
▁Države	-10.9701
▁tradiciju	-10.9701
▁Thomas	-10.9701
▁cestovn	-10.9701
▁stiglo	-10.9701
▁Belupo	-10.9702
▁pravilima	-10.9702
▁obuhvaća	-10.9702
▁nabave	-10.9702
▁duge	-10.9702
▁zagrebačke	-10.9702
▁izvješća	-10.9702
▁svira	-10.9703
▁staza	-10.9704
▁pozitivne	-10.9705
▁co	-10.9707
▁povratku	-10.9707
▁otvaranju	-10.971
▁Vidović	-10.971
▁vjen	-10.971
▁naučiti	-10.9711
▁Arsenal	-10.9714
▁završilo	-10.9714
▁prsten	-10.9715
▁moju	-10.9717
▁promijenila	-10.9718
▁Ger	-10.9719
▁prihvaća	-10.9724
▁privatne	-10.9727
▁Nacionalnog	-10.973
▁penal	-10.9731
ight	-10.9731
▁bijeg	-10.9732
▁lijepe	-10.9734
▁međunarodni	-10.9735
▁zadnjem	-10.9738
▁apartman	-10.9738
▁navedeno	-10.9739
dru	-10.9739
▁dužnosnik	-10.9739
▁sportaši	-10.974
▁određeni	-10.9741
▁izdan	-10.9743
▁okru	-10.9744
▁kave	-10.9744
▁pretvara	-10.9745
jeg	-10.9745
▁dobitnik	-10.9747
▁zaštititi	-10.975
▁punom	-10.9756
▁Srbi	-10.9758
pić	-10.976
stanak	-10.976
▁Pavl	-10.9761
▁izgledaju	-10.9764
RT	-10.9765
▁Tru	-10.9765
▁radionica	-10.9767
▁fr	-10.9767
pravni	-10.9767
Pri	-10.9769
▁studentsk	-10.9769
VA	-10.977
▁neprijatelj	-10.977
▁prijelazn	-10.977
▁he	-10.9771
▁bolesn	-10.9771
▁voza	-10.9771
▁liga	-10.9773
▁puš	-10.9775
▁poduzetnika	-10.9776
▁puca	-10.9776
ö	-10.9779
▁Barcelone	-10.9779
▁Telegram	-10.9779
▁dozvolu	-10.9779
▁kombinaciji	-10.9779
▁mlijeka	-10.9779
▁reakciju	-10.9779
▁trajanju	-10.9779
▁manifestacija	-10.9779
▁raspravlja	-10.9779
▁Budimir	-10.978
▁nikome	-10.978
▁povjerenja	-10.978
▁ispitanika	-10.978
▁okr	-10.9783
▁majku	-10.9783
▁detalji	-10.9783
▁uvjerljivo	-10.9783
▁grupi	-10.9783
▁remi	-10.9785
▁vozilima	-10.9785
▁reprezentativn	-10.9786
▁tjera	-10.9787
▁Zajec	-10.9788
▁prihvatljiv	-10.9791
▁10.000	-10.9793
▁savjete	-10.9794
▁bijes	-10.9795
rili	-10.9796
vodi	-10.9797
▁Marcel	-10.9797
▁išli	-10.9798
▁Mike	-10.9799
▁kritičn	-10.9801
▁prijatelje	-10.9807
▁Nu	-10.9807
▁Bidena	-10.9808
▁krije	-10.981
▁opisuje	-10.9811
▁loša	-10.9812
▁Rok	-10.9814
▁zaslu	-10.9815
šlo	-10.9815
▁vojnog	-10.9816
▁Michael	-10.9817
▁nervoz	-10.9819
▁lokalni	-10.9825
▁ometa	-10.9826
▁Auto	-10.9828
▁Miro	-10.9829
▁Otkri	-10.983
▁Crnoj	-10.983
▁naglo	-10.9833
▁cm	-10.9836
▁Čeka	-10.9838
▁izgledalo	-10.9839
▁temama	-10.984
▁pozicija	-10.9841
▁uvjet	-10.9841
▁sumnjiv	-10.9843
▁Govori	-10.9844
kat	-10.9844
laganje	-10.9846
cc	-10.9848
▁2000	-10.9848
▁Mađarska	-10.9849
▁uhi	-10.985
▁točke	-10.9851
▁zločina	-10.9854
▁Hercegovini	-10.9857
▁tvrtku	-10.9857
▁nagrađen	-10.9857
▁djevojčice	-10.9857
▁sugovornik	-10.9857
▁kamatn	-10.9858
▁obavljen	-10.9858
▁međunarodne	-10.9859
▁Često	-10.986
▁treću	-10.9861
▁aviona	-10.9861
▁kritike	-10.9861
▁stranku	-10.9861
▁Američki	-10.9864
▁karijera	-10.9864
▁iransk	-10.9865
▁plaži	-10.9865
▁prijevoza	-10.9865
▁nastao	-10.9866
▁Simon	-10.9869
▁obiln	-10.9869
▁dvostruk	-10.9869
initi	-10.987
▁dolasku	-10.9871
▁predanost	-10.9873
▁postupno	-10.9874
lni	-10.9875
▁piće	-10.9875
▁trg	-10.9879
▁Oscara	-10.9885
▁najavili	-10.9888
▁plasira	-10.9891
▁mladosti	-10.9891
▁počast	-10.9895
▁For	-10.9896
ušić	-10.9897
▁ote	-10.9897
▁obrok	-10.9899
▁kontrolira	-10.9902
▁klima	-10.9904
▁format	-10.9908
ovski	-10.9909
▁stara	-10.9909
jevi	-10.9909
▁plesn	-10.9909
▁analizira	-10.991
▁njemačk	-10.9911
rovi	-10.9915
▁svijest	-10.9917
▁visoki	-10.9918
▁ml	-10.9918
▁objaviti	-10.9919
▁Gorica	-10.992
▁mlad	-10.9922
▁plesa	-10.9925
dob	-10.9935
▁trgovini	-10.9936
▁tragedija	-10.9936
▁zabavu	-10.9936
▁2005.	-10.9937
▁pomogli	-10.9937
beno	-10.9939
▁likovn	-10.994
▁sobu	-10.994
▁godišnj	-10.9941
▁školske	-10.9941
▁Rog	-10.9943
▁dogovorili	-10.9943
▁Vatreni	-10.9945
▁nevrijeme	-10.9947
▁ograničenja	-10.9948
▁Mark	-10.9953
▁košarkaš	-10.9953
▁74	-10.9955
▁Vaš	-10.9955
Zahvaljujući	-10.9955
▁planiraju	-10.9958
▁Vukovaru	-10.9959
đan	-10.9961
▁83	-10.9964
▁ruci	-10.9964
TE	-10.9965
uda	-10.9965
▁del	-10.9967
▁laž	-10.997
▁Želim	-10.9972
ljivi	-10.9974
?'	-10.9979
lac	-10.9981
▁Ren	-10.9982
loga	-10.9983
▁jeftin	-10.9983
▁or	-10.9984
▁čekati	-10.9986
▁neovisno	-10.9991
zov	-10.9991
▁15-	-10.9992
▁dečko	-10.9993
▁nadamo	-10.9995
▁ustanova	-10.9996
▁Isti	-10.9999
▁povezanost	-11
▁policajaca	-11.0002
KA	-11.0003
▁Vis	-11.0004
▁1-1	-11.0005
etku	-11.0006
▁kritizira	-11.0007
-2	-11.0008
▁2:1	-11.0014
▁impresivn	-11.0015
▁prezentira	-11.0015
▁zaslužuje	-11.0015
▁zgradu	-11.0015
▁iskorak	-11.0015
▁predstavu	-11.0015
▁poštuje	-11.0015
▁djevojčica	-11.0015
▁Amerikanci	-11.0015
▁2007.	-11.0016
▁svetog	-11.0018
▁ribe	-11.0018
stre	-11.0019
▁visine	-11.0021
▁gledamo	-11.0022
sse	-11.0024
▁Zelen	-11.0025
▁tužn	-11.0025
▁71	-11.0027
▁suparnika	-11.0028
▁kriza	-11.0029
▁prosječna	-11.0031
▁suci	-11.0031
▁ispuniti	-11.0032
dine	-11.0033
▁romantičn	-11.0033
▁financijskih	-11.0033
▁Saša	-11.0034
▁šali	-11.0043
▁ponovi	-11.0043
▁Roko	-11.0044
by	-11.0044
▁terorističk	-11.0044
kg	-11.0046
▁ekstremn	-11.005
▁prvenstven	-11.0051
▁očima	-11.0054
▁kri	-11.0055
▁Četvrt	-11.0057
▁komunicira	-11.0058
rast	-11.0058
▁Jurić	-11.0063
▁pijan	-11.0063
▁Eurosongu	-11.0069
▁mat	-11.0072
▁Art	-11.0073
▁krivo	-11.0073
▁tlak	-11.0073
▁""	-11.0075
▁kamera	-11.0075
▁Sigurno	-11.0076
▁pravilo	-11.0077
▁logi	-11.0077
ves	-11.0079
▁Kaza	-11.0081
▁pouzdan	-11.0083
▁razgovara	-11.0088
▁čaj	-11.0091
▁Stručnjaci	-11.0095
▁horoskop	-11.0095
▁komentator	-11.0095
▁liječenja	-11.0095
▁prisiljen	-11.0095
▁glazbi	-11.0095
▁presude	-11.0095
RE	-11.0096
▁Baturina	-11.0096
▁naselju	-11.0096
▁utorka	-11.0096
▁6-3	-11.0096
▁pripremljen	-11.0096
▁zime	-11.0097
▁Pojas	-11.0097
▁Prijav	-11.0099
▁državnim	-11.0099
▁rukom	-11.01
▁Ranije	-11.0102
▁mojim	-11.0103
▁opremljen	-11.0103
▁liniju	-11.0106
▁izgradnja	-11.0107
▁kvalifikacije	-11.0107
▁postupa	-11.0109
▁2,5	-11.0109
nin	-11.0109
stat	-11.011
▁muči	-11.0111
▁kroničn	-11.0111
▁išla	-11.0113
dni	-11.0115
▁riba	-11.012
▁krila	-11.0122
živ	-11.0123
▁molim	-11.0127
▁parova	-11.0128
▁indeks	-11.013
ijeg	-11.0133
▁800	-11.0134
▁Madridu	-11.0136
▁play	-11.0138
ničar	-11.0138
▁auta	-11.0139
▁zra	-11.014
▁profesionalni	-11.0142
TA	-11.0142
▁viši	-11.0143
▁novinsk	-11.0146
▁kršćansk	-11.0147
▁nabavi	-11.015
▁brojna	-11.015
elje	-11.0152
▁Cijeli	-11.0152
▁redatelja	-11.0152
šak	-11.0154
▁Vara	-11.0154
▁engleski	-11.0155
▁emocija	-11.0156
ssi	-11.016
▁moraln	-11.0161
▁Drugom	-11.017
▁osnovi	-11.0172
▁priči	-11.0173
▁ukras	-11.0173
▁identiteta	-11.0175
▁izgradnji	-11.0176
▁Mihael	-11.0176
▁prijetnji	-11.0176
▁naglasiti	-11.0176
▁Roditelji	-11.0176
▁grupn	-11.0176
▁6-4	-11.0177
▁povrće	-11.0177
▁Razlog	-11.0177
▁kritičar	-11.0178
▁kle	-11.0178
ređen	-11.018
tov	-11.0181
▁Upravnog	-11.0181
▁Kol	-11.0182
▁Vili	-11.0183
▁ponosan	-11.0183
▁sti	-11.0184
▁obranio	-11.0184
▁prete	-11.0184
▁lijepa	-11.0185
lne	-11.0186
▁događaje	-11.0189
▁znaš	-11.0196
ksa	-11.0197
▁gor	-11.0203
▁zatvara	-11.0204
▁Dragi	-11.0205
▁77	-11.0206
2024	-11.0209
▁sije	-11.021
irano	-11.0211
▁pješačk	-11.0222
▁Kos	-11.0223
▁Lin	-11.0223
▁Liverpool	-11.0225
rima	-11.0225
gle	-11.0228
pjeva	-11.023
▁Sab	-11.023
▁djeluju	-11.0233
ovati	-11.0234
▁nemate	-11.0234
▁istarsk	-11.0235
▁osobnim	-11.0236
▁kombinacija	-11.0237
▁faza	-11.0238
▁sudionici	-11.0238
nošću	-11.0239
Plus	-11.024
Q	-11.024
09	-11.0242
▁registarsk	-11.0244
▁kim	-11.0244
▁njezini	-11.0244
▁vlastiti	-11.0248
lazak	-11.0249
▁španjolsk	-11.025
▁europska	-11.0257
▁klupe	-11.0257
▁rezolucij	-11.0257
▁Vjetar	-11.0257
▁Tamara	-11.0258
▁koljena	-11.0258
▁odvojen	-11.0258
▁pojave	-11.0259
▁2000.	-11.0259
▁pojava	-11.026
▁dodatnu	-11.026
▁slobodan	-11.0262
▁izjedna	-11.0262
▁Livaković	-11.0263
▁svašta	-11.0263
▁Slobodn	-11.0264
qu	-11.0265
▁podu	-11.0265
▁(7	-11.0267
kva	-11.0268
▁Dodaje	-11.0269
▁poduzeti	-11.0273
▁otvaranja	-11.0274
7.	-11.0275
▁posjetiti	-11.0276
▁psi	-11.028
▁potvrda	-11.0283
▁azil	-11.0283
Vi	-11.0285
▁Mur	-11.0287
▁iznose	-11.0289
▁izbornika	-11.0293
28	-11.0295
▁posebne	-11.0295
,00	-11.03
▁Poljske	-11.0303
encija	-11.0304
▁naveden	-11.0304
▁pratitelja	-11.0304
▁dopušten	-11.031
ph	-11.0311
▁KS	-11.0312
▁koristili	-11.0314
▁starta	-11.0315
▁pročita	-11.0316
vanjem	-11.0317
▁DC	-11.0319
▁jače	-11.0319
▁oporben	-11.0321
▁isklju	-11.0322
▁traju	-11.0322
▁bivšim	-11.0323
▁digitalne	-11.0326
▁blagdana	-11.0328
▁takvom	-11.033
▁ograni	-11.033
▁instrument	-11.0332
▁ekonomski	-11.0333
▁nadbiskup	-11.0339
▁oslanja	-11.0339
▁osoblje	-11.0339
▁turizmu	-11.0339
▁vjenčanja	-11.0339
▁središte	-11.0339
▁Rudeš	-11.0339
▁pregovore	-11.0339
▁Slavoniji	-11.0339
▁zahtjeve	-11.0339
▁slične	-11.0339
▁motora	-11.034
▁Slovenija	-11.034
rta	-11.034
▁tlo	-11.0341
▁Vekić	-11.0341
▁negativno	-11.0341
▁brzinom	-11.0342
▁čelnici	-11.0342
▁saziv	-11.0345
▁bodove	-11.0346
dalmatinske	-11.0346
▁splitsko	-11.0348
tel	-11.0349
▁odradili	-11.0351
▁Nikole	-11.0352
▁slaže	-11.0353
▁obvezn	-11.0354
▁propisa	-11.0356
▁primje	-11.0357
▁Šest	-11.0359
▁internet	-11.0359
▁obe	-11.0361
▁točka	-11.0361
▁prostorije	-11.0363
▁uživaju	-11.0363
enom	-11.0367
▁tehnološk	-11.0368
▁treningu	-11.037
▁klubovima	-11.0371
▁Vid	-11.0374
▁idealn	-11.0377
▁pokušal	-11.0378
▁vojnici	-11.0379
pom	-11.0381
▁interesu	-11.0381
▁temeljem	-11.0386
▁Spa	-11.0393
vaj	-11.0398
▁radost	-11.0398
taj	-11.04
▁sunce	-11.0402
info	-11.0402
▁Nika	-11.0406
▁pusti	-11.0406
▁Mus	-11.0408
▁stabilnost	-11.0409
▁Papa	-11.0409
▁Vla	-11.041
▁Medved	-11.0411
▁teksta	-11.0414
-11	-11.0416
▁osumnjičeni	-11.0417
▁aplikacija	-11.0422
▁jednostavan	-11.0422
▁neuspjeh	-11.0422
▁prehrane	-11.0422
▁započinje	-11.0422
▁Leyen	-11.0422
▁prijašnj	-11.0422
▁zatražio	-11.0422
▁Benjamin	-11.0422
▁hranom	-11.0422
▁prisjeća	-11.0422
▁HTV	-11.0422
▁Navijači	-11.0425
▁tretira	-11.0425
▁spremno	-11.0426
▁bijele	-11.0427
▁Uoči	-11.0427
▁neočekivan	-11.0429
▁podnio	-11.043
▁postaja	-11.0434
▁Zapadn	-11.0434
▁tereti	-11.0435
▁povukao	-11.0435
▁Arena	-11.0437
stanu	-11.0437
▁tablet	-11.0437
reći	-11.0442
▁Donna	-11.0444
▁iznenadio	-11.0447
▁pokloni	-11.0448
▁reper	-11.0449
▁potr	-11.0449
▁nestala	-11.045
▁iskusn	-11.0452
▁dvostruko	-11.0457
▁stvarnosti	-11.0458
▁imaš	-11.0465
▁Dobi	-11.0467
▁baka	-11.0467
▁političari	-11.0467
▁diplomatsk	-11.0476
▁skandal	-11.0476
▁ugosti	-11.0476
▁zvan	-11.0477
▁Odluka	-11.0478
▁dostupna	-11.0482
▁stoper	-11.0485
▁druži	-11.0486
31	-11.0487
▁debi	-11.0488
▁Com	-11.049
▁prijavio	-11.0493
q	-11.0493
▁izlaz	-11.0494
▁trik	-11.0495
▁95	-11.0496
▁učenike	-11.05
▁izložen	-11.0504
▁Juventus	-11.0505
▁adresu	-11.0505
▁komunikacije	-11.0505
▁vožnju	-11.0505
▁vojsku	-11.0505
▁greške	-11.0505
▁tanjur	-11.0506
▁Rafale	-11.0507
▁ključ	-11.0507
▁katoličk	-11.0507
▁obratiti	-11.0507
▁Naši	-11.0508
▁djelovati	-11.0508
▁Gabriel	-11.0509
▁popularno	-11.0509
▁krenulo	-11.0511
▁počne	-11.0512
▁izvući	-11.0518
▁svladali	-11.0518
▁autobusa	-11.0518
▁topli	-11.0519
▁muž	-11.052
▁primiti	-11.0522
▁Majka	-11.0525
▁većim	-11.0526
▁Sigur	-11.0527
▁kruga	-11.0529
▁Bože	-11.0534
▁europskom	-11.0534
sport	-11.0535
bolje	-11.0541
▁tursk	-11.0545
▁Ugovor	-11.0549
▁životni	-11.055
▁motocikl	-11.0551
▁oglasila	-11.0553
▁sila	-11.0555
▁mobitela	-11.0557
▁predvodio	-11.0557
▁svakoga	-11.0558
▁iznio	-11.056
▁vesel	-11.056
▁predstavi	-11.0561
▁mojih	-11.0562
▁dobivaju	-11.0563
▁moguća	-11.0566
▁Obitelj	-11.0566
▁pozira	-11.0568
▁osječk	-11.057
▁poplave	-11.0575
▁HR	-11.0576
▁angažira	-11.0581
▁front	-11.0584
rskog	-11.0584
▁Barceloni	-11.0589
▁akademsk	-11.0589
▁bespilotn	-11.0589
▁kažnjen	-11.0589
▁orkestar	-11.0589
▁pljuskovi	-11.0589
▁zamjenu	-11.0589
▁srijede	-11.0589
▁oblaka	-11.0589
▁razvijen	-11.0589
▁odjednom	-11.0589
▁zabrane	-11.0589
▁cestu	-11.059
▁smeće	-11.059
▁Alex	-11.0592
▁vidjelo	-11.0592
▁proizvodnji	-11.0593
▁izvadi	-11.0594
▁kapital	-11.0595
▁šk	-11.0596
▁prijedloga	-11.0597
▁slan	-11.0601
▁korisnike	-11.0603
▁luku	-11.0604
▁ozbiljn	-11.0605
▁kriminalističk	-11.0605
▁novinari	-11.0605
▁zabrani	-11.0606
▁priopći	-11.0609
▁zdravstveno	-11.0611
▁zaboravi	-11.0612
▁pripremama	-11.0617
▁financiranje	-11.0618
▁novinarsk	-11.0618
zar	-11.0619
*	-11.0621
▁pošte	-11.0624
▁Najviš	-11.0627
▁strada	-11.0628
▁viša	-11.0629
▁razmišljati	-11.063
▁slušati	-11.0632
▁zaradio	-11.064
▁redom	-11.064
▁transport	-11.0643
▁davno	-11.0645
▁pokriva	-11.0646
▁proslavio	-11.0647
3)	-11.0649
▁81	-11.0649
▁posjed	-11.0649
▁Putina	-11.0651
▁dobiju	-11.0651
▁Mel	-11.0652
njen	-11.0652
▁("	-11.0654
▁kategorija	-11.0655
▁pružaju	-11.0662
▁prošlost	-11.0664
▁njezinog	-11.0664
▁78	-11.0665
▁legenda	-11.0667
▁Bayerna	-11.0669
▁publikom	-11.0674
▁odlučuje	-11.0674
▁istražuje	-11.0674
▁broncu	-11.0674
▁potaknul	-11.0674
▁odjeće	-11.0674
▁Putinov	-11.0674
▁praksi	-11.0675
▁sigurnosne	-11.0675
▁energija	-11.0675
▁zakonom	-11.0676
▁individualn	-11.0676
▁spasiti	-11.0679
▁Marjan	-11.0679
▁Klara	-11.0681
▁nesreću	-11.0682
▁vlastito	-11.0682
▁žirija	-11.0683
▁održal	-11.0683
▁leži	-11.0685
▁obaviti	-11.0686
▁očevid	-11.0687
▁pravilu	-11.0688
▁razmatra	-11.0688
▁oštećenja	-11.0689
▁Moram	-11.0689
▁otkup	-11.0691
tch	-11.0692
▁fokusira	-11.0693
▁prethodni	-11.0694
istički	-11.0694
▁odluci	-11.0695
▁sastava	-11.0698
▁dopustiti	-11.0699
▁čisto	-11.07
kriv	-11.0705
▁Srpsk	-11.0705
▁provjere	-11.0706
▁dostupni	-11.0706
▁singl	-11.0708
▁Kli	-11.0708
ans	-11.0708
▁kupaca	-11.0709
▁obrt	-11.0712
godišnje	-11.0712
lf	-11.0712
▁najvećeg	-11.0714
anj	-11.0714
▁salon	-11.072
▁pronađeno	-11.072
▁radite	-11.0721
▁stran	-11.0721
▁udari	-11.0723
▁Kursk	-11.0724
▁panel	-11.0724
▁poremećaj	-11.0735
▁najpoznatij	-11.0737
▁Dubrovačk	-11.0742
mogu	-11.0746
▁gradski	-11.0748
▁stanovnici	-11.0748
DI	-11.0748
▁Jadrana	-11.0749
▁rob	-11.0749
▁smještaja	-11.0753
meni	-11.0754
tona	-11.0756
▁izborne	-11.0757
▁(4	-11.0758
▁inozemn	-11.0759
▁izložba	-11.0759
▁migranata	-11.0759
▁oduševila	-11.0759
▁PSG	-11.0759
▁manifestacije	-11.0759
elite	-11.0759
▁izašla	-11.0759
▁srebro	-11.076
▁snažan	-11.0761
▁sukobu	-11.0762
ling	-11.0762
▁nos	-11.0762
▁nožem	-11.0763
▁voće	-11.0764
▁Juri	-11.0765
▁finaln	-11.0765
▁vratara	-11.0767
▁Nadalje	-11.0767
▁pati	-11.0767
▁prođe	-11.0768
▁gorivo	-11.0768
▁stupnja	-11.0769
▁Otok	-11.0769
▁fantastičn	-11.077
▁Brod	-11.0771
ET	-11.0771
▁uređen	-11.0772
▁pomoćnik	-11.0775
▁Andrea	-11.0777
▁Ukupno	-11.0777
▁započeti	-11.0777
▁Netko	-11.078
▁hod	-11.0781
lt	-11.0784
▁rek	-11.0785
njeg	-11.0785
▁Dž	-11.0787
▁10-	-11.0788
▁pojedinim	-11.0789
▁društveno	-11.079
▁biraju	-11.0793
▁Vladimira	-11.0795
33	-11.0795
▁okupljanje	-11.08
▁studira	-11.0802
▁voljen	-11.0805
▁ruskim	-11.0807
bur	-11.0812
▁mjesecu	-11.0814
▁preuzima	-11.0814
▁osvoji	-11.0815
▁organizirati	-11.0815
▁otkriven	-11.0816
burg	-11.0819
▁makar	-11.0819
▁efekt	-11.0821
▁Drugog	-11.0822
▁platforma	-11.0825
puca	-11.0826
▁imenovan	-11.0827
▁izveden	-11.0832
▁jesensk	-11.0832
▁Zagrebačke	-11.0832
▁tribina	-11.0832
▁autori	-11.0834
▁vječn	-11.0835
▁gen	-11.0835
enog	-11.0844
07	-11.0845
▁Fakultet	-11.0845
▁odvjetništvu	-11.0845
▁poginula	-11.0845
▁preventivn	-11.0845
▁prisutni	-11.0845
▁rekavši	-11.0846
▁nokaut	-11.0846
▁Belupa	-11.0846
▁pažnje	-11.0846
▁priopćenje	-11.0846
▁počinio	-11.0846
▁džep	-11.0846
▁biznis	-11.0846
▁vodstva	-11.0846
▁crnogorsk	-11.0847
▁Koprivnici	-11.0847
▁kreira	-11.0847
raš	-11.0848
▁dodati	-11.0848
▁redovima	-11.0849
ds	-11.0849
▁50-	-11.0849
▁odgovore	-11.0851
▁palo	-11.0851
▁namjerno	-11.0852
▁Poljskoj	-11.0852
▁potpisuje	-11.0852
▁krajeva	-11.0853
▁groz	-11.0853
▁obilježen	-11.0856
▁umjetnost	-11.0857
▁jačanje	-11.0857
▁heroj	-11.0858
▁shvatila	-11.0861
▁podne	-11.0861
▁pacijent	-11.0861
▁shvatili	-11.0863
▁izraelske	-11.0865
▁zapošljavanje	-11.0866
iri	-11.0868
▁Možete	-11.0871
NO	-11.0871
▁smrtno	-11.0871
▁crne	-11.0871
▁vuk	-11.0876
▁seniorsk	-11.0876
▁Talijansk	-11.0876
▁križ	-11.0878
▁putuje	-11.0884
▁očekujemo	-11.0884
▁starog	-11.0885
▁Des	-11.0885
▁stupanj	-11.0889
▁dužnosnika	-11.089
▁Ameri	-11.0891
▁liniji	-11.0891
▁posjeta	-11.0894
▁vlastitim	-11.0897
▁bolničk	-11.0897
▁španjolski	-11.09
▁minimalno	-11.0901
▁posu	-11.0901
▁sjajn	-11.0901
▁svojeg	-11.0903
▁dugi	-11.0904
▁kisel	-11.091
▁Varteks	-11.0911
glu	-11.0912
▁sporazuma	-11.0913
▁ruskom	-11.0915
▁Marije	-11.0917
▁mini	-11.0921
▁skloni	-11.0921
▁Kamal	-11.0924
▁američkim	-11.0927
jević	-11.0929
▁BMW	-11.0932
▁cjelovit	-11.0932
▁koncerata	-11.0932
▁poprilično	-11.0932
▁gubitka	-11.0932
▁pisalo	-11.0932
▁komisija	-11.0933
▁tribine	-11.0933
▁uvesti	-11.0934
▁automobile	-11.0934
▁Bat	-11.0935
▁korake	-11.0937
▁Branka	-11.0938
St	-11.094
▁Dejan	-11.094
biti	-11.094
▁Rije	-11.0941
▁navijačk	-11.0941
▁izdao	-11.0942
▁kibernetičk	-11.0943
▁Gri	-11.0943
▁Gen	-11.0943
▁gotov	-11.0944
▁pali	-11.0945
▁dečki	-11.0945
▁štiti	-11.0947
▁obljetnice	-11.0948
bin	-11.0949
▁prijavi	-11.0952
▁Srećom	-11.0953
▁hitnu	-11.0954
▁igramo	-11.0955
▁Sel	-11.0955
▁Dar	-11.0956
ity	-11.0957
▁većem	-11.0958
▁vara	-11.0962
▁riječk	-11.0962
▁beba	-11.0963
▁snijega	-11.0964
tok	-11.0965
▁farmer	-11.0967
▁Rome	-11.0968
▁samouprave	-11.0969
▁detaljno	-11.0971
▁parlamentarne	-11.0971
▁okrenuti	-11.0973
▁krivi	-11.0974
ult	-11.0974
ranje	-11.0974
▁nalaz	-11.0977
▁predsjednički	-11.098
rstvo	-11.0981
▁tenisa	-11.0982
36	-11.0983
▁branio	-11.0985
sjed	-11.0985
▁prikuplja	-11.0985
▁Duh	-11.0988
-13	-11.0988
▁fotografijama	-11.0991
▁intenzivno	-11.0992
▁dru	-11.0993
▁gradnje	-11.0995
▁doveli	-11.0996
▁oduzet	-11.0997
▁Odbora	-11.0997
▁smanjenja	-11.0998
Gr	-11.1
▁oru	-11.1002
▁Duje	-11.1003
▁boravi	-11.1004
OS	-11.1005
▁droga	-11.1008
▁ok	-11.1009
▁nekadašnji	-11.1009
▁čudno	-11.1014
▁javna	-11.1014
▁bolova	-11.1014
▁Andrija	-11.1015
▁arhitekt	-11.1018
▁aut	-11.1018
▁Ukrajinci	-11.102
▁naknada	-11.102
▁oduševio	-11.102
▁polufinala	-11.102
▁prehranu	-11.102
▁rejting	-11.102
▁svjetska	-11.102
▁Habijan	-11.102
▁haljini	-11.102
▁prepreka	-11.102
▁organizaciju	-11.102
▁proljeće	-11.1021
▁Vjerojatno	-11.1022
▁Vladu	-11.1022
▁borben	-11.1022
▁protuzračn	-11.1023
▁američka	-11.1023
▁kopnu	-11.1024
▁kazali	-11.1025
▁čelnika	-11.1025
▁kontaktu	-11.1025
▁toplinsk	-11.1025
bina	-11.1026
▁teških	-11.1027
▁Adam	-11.1028
▁primi	-11.1031
▁rođena	-11.1033
berg	-11.1033
▁Gran	-11.1035
▁rješavanje	-11.1035
▁87	-11.1036
▁Dali	-11.1037
AK	-11.104
Ko	-11.1044
▁Novu	-11.1044
▁civilne	-11.1047
▁prognozira	-11.105
▁Smatram	-11.1051
▁Rak	-11.1052
▁teritorija	-11.1053
▁prometni	-11.1057
▁iznosa	-11.1058
▁izlazak	-11.1058
dok	-11.1058
▁ponaša	-11.1058
▁najpoznatijih	-11.1061
▁najnovije	-11.1061
▁zdravstven	-11.1063
▁promijeni	-11.1066
▁zida	-11.1068
▁nazvan	-11.1069
▁180	-11.1074
▁Mađarske	-11.1074
▁posjetio	-11.1077
▁unutarnje	-11.1078
▁Mara	-11.108
▁kakvom	-11.1082
ljenja	-11.1083
▁ciklus	-11.1084
zir	-11.1085
▁Kralj	-11.1087
▁svjetskim	-11.1087
JE	-11.1088
▁dijelovi	-11.1089
▁aktivni	-11.1101
▁Plav	-11.1102
▁sposobn	-11.1104
ys	-11.1106
▁turistički	-11.1107
▁djelomično	-11.1109
▁glumca	-11.1109
▁ignorira	-11.1109
▁kontroverzn	-11.1109
▁performans	-11.1109
▁perspektive	-11.1109
▁temperaturu	-11.1109
▁tjednu	-11.1109
▁Kongres	-11.1109
▁finalist	-11.1109
▁pritiskom	-11.1109
▁Cijene	-11.1109
▁ždrijeb	-11.1109
▁pritiska	-11.1109
▁prilagođen	-11.1109
▁Vijeće	-11.1109
▁kazališta	-11.111
▁Nives	-11.111
▁vrhunac	-11.111
▁strašno	-11.111
▁zajednicu	-11.1111
▁Maro	-11.1111
▁progon	-11.1112
▁vozilu	-11.1114
▁kožu	-11.1115
▁luk	-11.1116
▁okršaj	-11.1117
vis	-11.1117
▁zaljubljen	-11.1118
▁Jak	-11.1118
▁biološk	-11.112
▁stvaranju	-11.1122
▁najbliž	-11.1123
▁izdvaja	-11.1123
▁krvn	-11.1125
▁raznolik	-11.1128
▁prešl	-11.1131
▁sredstvo	-11.1132
▁mentalno	-11.1132
▁spol	-11.1133
▁spada	-11.1135
sha	-11.1138
▁glavnu	-11.1139
kad	-11.1141
▁zaštitar	-11.1142
▁Bilić	-11.1144
▁učenicima	-11.1146
▁izvođača	-11.1148
▁Pos	-11.1149
▁Rekla	-11.115
▁kilometra	-11.1152
▁sloj	-11.1153
▁stručn	-11.1154
▁Poznat	-11.1156
▁nađe	-11.1156
▁odgovoran	-11.1156
▁strog	-11.1158
▁najgore	-11.1159
sl	-11.1159
▁uvodi	-11.117
▁uzrokovan	-11.1173
ST	-11.1174
▁okoln	-11.1177
▁površina	-11.1178
▁Vesna	-11.1179
▁žalost	-11.1181
elimo	-11.1185
▁Tonči	-11.1187
avni	-11.1188
▁uspijeva	-11.119
▁savjetnik	-11.1191
▁pogrešno	-11.1191
▁eventualn	-11.1193
lozi	-11.1194
▁PR	-11.1194
▁pratili	-11.1195
▁Navodno	-11.1198
▁naknadu	-11.1198
▁posljednjoj	-11.1198
▁dvojice	-11.1198
▁polufinaln	-11.1198
▁3-0	-11.1198
▁princeza	-11.1198
▁praksa	-11.1198
▁izlaska	-11.1199
▁litara	-11.1199
▁najniž	-11.1199
▁izazvalo	-11.1199
▁raketa	-11.1199
▁djevojku	-11.1201
▁dvadesetak	-11.1204
▁zvon	-11.1204
▁Zajedno	-11.1206
▁Benčić	-11.1206
▁ljudskih	-11.1207
▁Filipović	-11.1207
▁Savjet	-11.121
▁Air	-11.1213
▁Savez	-11.1215
▁Hrgović	-11.1217
▁otvorili	-11.1217
▁Prilik	-11.1218
▁samim	-11.1218
▁propis	-11.1219
bas	-11.1219
▁ravno	-11.1219
▁dionici	-11.122
▁objavljeni	-11.122
▁članak	-11.1223
▁krvav	-11.1224
ins	-11.1224
rc	-11.1226
▁At	-11.1227
▁emitira	-11.123
tičar	-11.1231
Život	-11.1232
fin	-11.1234
▁Pen	-11.1235
▁Znamo	-11.1239
zmeđu	-11.124
▁vraćaju	-11.124
▁umu	-11.124
▁utvrđen	-11.1241
▁Roberta	-11.1244
▁ozljedama	-11.1247
▁Alan	-11.1251
▁student	-11.1258
▁bliže	-11.1258
▁Bri	-11.1262
▁natrag	-11.1263
▁prihvatio	-11.1263
▁vjerujemo	-11.1266
▁regija	-11.1268
▁Glavn	-11.1268
hit	-11.1269
95	-11.1271
▁malog	-11.1271
▁prezime	-11.1276
▁Mer	-11.1278
▁prisutnost	-11.1278
▁Bud	-11.1278
▁argument	-11.1279
▁parku	-11.128
▁pros	-11.1281
▁mislili	-11.1282
jska	-11.1285
▁blagoslov	-11.1286
▁psiholog	-11.1287
▁CNN	-11.1288
▁Crkve	-11.1288
▁Middleton	-11.1288
▁Volodimir	-11.1288
▁epizodi	-11.1288
▁intenzitet	-11.1288
▁mišljenju	-11.1288
▁operaciju	-11.1288
▁pojašnjava	-11.1288
▁sladoled	-11.1288
▁jučerašnj	-11.1288
▁energijom	-11.1288
▁dušu	-11.1288
▁minutu	-11.1288
▁idem	-11.1289
▁unutra	-11.1289
▁cure	-11.1289
▁Rusijom	-11.1289
▁2004.	-11.129
▁3-1	-11.129
▁dvorana	-11.1291
▁Štoviše	-11.1291
TO	-11.1302
▁Križ	-11.1304
▁misija	-11.1305
▁biljn	-11.1306
▁učinili	-11.1306
▁prolaze	-11.1307
šević	-11.1308
▁sletio	-11.1308
▁prijelaz	-11.1311
riti	-11.1312
▁Jednostavno	-11.1314
▁tečaj	-11.1314
▁francuskog	-11.1317
▁izbornog	-11.1319
▁strateški	-11.132
▁snimio	-11.1321
▁gušt	-11.1321
▁potrebama	-11.1321
▁Kan	-11.1324
▁Mirko	-11.1326
▁braniti	-11.133
▁uzeli	-11.1333
▁činiti	-11.1333
▁Pitanj	-11.1333
▁trenutaka	-11.1334
▁potpisan	-11.1335
▁održivog	-11.1337
▁bitna	-11.1339
%)	-11.1339
▁slavila	-11.1343
▁Krist	-11.1344
▁pošten	-11.1346
▁političkim	-11.1347
▁porod	-11.1348
▁gradskom	-11.1352
▁moguć	-11.1354
SK	-11.1355
▁dogovora	-11.1359
▁Stru	-11.136
▁organizator	-11.136
▁odobren	-11.1361
tku	-11.1365
endan	-11.1366
▁kafić	-11.1366
▁Kovač	-11.1367
▁Kru	-11.1367
▁određenih	-11.1371
hy	-11.1371
▁Zar	-11.1375
▁glup	-11.1377
▁stožera	-11.1379
▁grmljavinom	-11.1379
▁inicijative	-11.1379
▁kontrolom	-11.1379
▁kuhinji	-11.1379
▁osobom	-11.1379
▁količinu	-11.1379
▁podršci	-11.1379
▁analize	-11.1379
▁mlijeko	-11.1379
▁sjednica	-11.1379
▁raspravu	-11.1379
▁raketn	-11.138
▁Zvon	-11.138
šina	-11.138
▁Jar	-11.1381
▁razo	-11.1383
▁bal	-11.1383
▁brigade	-11.1384
tski	-11.1386
▁pse	-11.1387
ure	-11.1387
PO	-11.1389
▁izbjegavati	-11.1393
▁zaljubi	-11.1394
▁Ovim	-11.1395
▁Omiš	-11.1397
▁rijetk	-11.1398
▁Lip	-11.1398
▁pretvori	-11.1398
▁tribinama	-11.14
▁82	-11.1401
▁Kri	-11.1401
▁najvjerojatnije	-11.1401
▁jo	-11.1402
▁ponoviti	-11.1404
etkom	-11.1404
ovcu	-11.1405
▁održala	-11.1406
▁pije	-11.1407
▁žestok	-11.1407
48	-11.1408
▁potra	-11.1409
▁hvali	-11.1409
▁izveo	-11.1411
▁interneta	-11.1413
▁radnicima	-11.1417
▁ponoći	-11.1421
▁institucijama	-11.1422
veo	-11.1422
▁ljubavni	-11.1423
šku	-11.1425
čnu	-11.1426
▁predlaže	-11.1429
▁dokumentarn	-11.1429
▁Katar	-11.143
▁mislite	-11.1431
▁vremenski	-11.1435
▁jesti	-11.1435
▁svečano	-11.1437
žin	-11.1445
▁suparnik	-11.1448
▁gradska	-11.1449
▁spis	-11.1449
▁obožavatelji	-11.1451
▁postavljanje	-11.1453
avati	-11.1453
▁Frank	-11.1454
01	-11.1455
▁London	-11.1456
▁krevet	-11.1457
▁obavijest	-11.1457
▁segment	-11.1457
▁popodne	-11.1462
▁nebo	-11.1462
▁šeta	-11.1466
▁maj	-11.1467
▁Mili	-11.1467
▁križa	-11.1469
▁pripremaju	-11.1469
▁intervencija	-11.1471
▁nikakav	-11.1471
▁poluvrijeme	-11.1471
godišnj	-11.1471
▁brige	-11.1471
▁prodajn	-11.1471
▁solarn	-11.1471
▁komunikacijsk	-11.1472
▁povrća	-11.1472
▁ručak	-11.1472
▁pobačaj	-11.1477
▁Prve	-11.1477
sy	-11.1477
▁Zadarske	-11.1479
▁zvuči	-11.148
▁potvrditi	-11.1482
▁utvrditi	-11.1486
▁rješava	-11.1486
▁Marof	-11.1488
▁prigovor	-11.1493
▁tešku	-11.1494
▁obećao	-11.1494
▁69	-11.1495
▁komentirali	-11.1498
▁Ir	-11.1499
▁manjine	-11.1499
▁posljednjim	-11.1503
uši	-11.1503
▁sjajna	-11.1504
▁dionice	-11.1504
▁dodali	-11.1504
▁kriminaln	-11.1505
38	-11.1506
▁Vlah	-11.1506
▁mokr	-11.1506
▁upali	-11.1506
▁Misli	-11.1507
roš	-11.151
▁Jedino	-11.1514
▁nominiran	-11.1514
▁priredi	-11.1517
čnost	-11.152
▁osjećati	-11.152
▁šuma	-11.1521
▁č	-11.1522
▁Raj	-11.1523
▁službenoj	-11.1523
▁brodu	-11.1523
▁najljepše	-11.1525
▁kru	-11.1525
▁stabilno	-11.1525
▁odmak	-11.1528
▁smanjio	-11.1532
▁rasprodan	-11.1534
▁studij	-11.1534
▁ovome	-11.1536
▁vladi	-11.1536
▁sprije	-11.1537
IP	-11.154
▁vojnu	-11.154
▁Neće	-11.1546
▁junak	-11.1551
▁pranje	-11.1551
▁gradskim	-11.1554
▁direkt	-11.1554
▁podizanje	-11.1558
▁Austrija	-11.1561
▁Mercedes	-11.1563
▁procijenjen	-11.1563
▁izjednačio	-11.1563
▁Uskoro	-11.1563
▁prisjetio	-11.1563
▁Milorad	-11.1563
▁pisati	-11.1563
▁analiza	-11.1563
▁takozvan	-11.1563
▁promila	-11.1563
▁funkcije	-11.1564
▁specijaliziran	-11.1564
▁dvorištu	-11.1564
▁pogreške	-11.1564
▁sličan	-11.1566
▁Hotel	-11.1566
05	-11.1567
▁ispao	-11.1569
▁umjetnik	-11.1569
▁propustio	-11.1569
▁Jasno	-11.157
LI	-11.1571
▁pozvan	-11.1572
▁bitan	-11.1572
▁svojedobno	-11.1573
/2	-11.1577
▁led	-11.1579
▁ukinut	-11.1588
▁nastupila	-11.1589
▁sigurnosni	-11.1591
ros	-11.1591
ther	-11.1592
▁teritoriju	-11.1592
lak	-11.1595
▁Karlo	-11.1595
▁Miss	-11.1596
▁prethodnih	-11.1598
▁(8	-11.1598
▁izvori	-11.1598
▁projektil	-11.16
▁Liv	-11.1601
▁zdravstvenog	-11.1601
▁splitskom	-11.1608
ajno	-11.1611
lika	-11.1612
▁dječji	-11.1613
▁Bro	-11.1618
▁gem	-11.1619
nf	-11.1625
▁njemačke	-11.1626
▁pogod	-11.1626
kopa	-11.1627
aša	-11.1631
▁prednji	-11.1632
▁von	-11.1633
▁Drugo	-11.1635
▁Mađar	-11.1637
▁sigurnosnih	-11.1642
vnih	-11.1643
▁Napad	-11.1646
▁portala	-11.1648
▁obilježil	-11.1649
▁Hezbolah	-11.1649
čine	-11.165
▁Ronaldo	-11.1652
▁prilaz	-11.1653
▁snova	-11.1654
▁Šimun	-11.1655
▁Poslije	-11.1656
ire	-11.1656
▁Partizan	-11.1657
▁naročito	-11.1657
▁švicarsk	-11.1657
▁1998.	-11.1657
▁porasla	-11.1657
▁Richard	-11.1657
▁nasljednik	-11.1657
▁obnova	-11.1657
▁Svetog	-11.1657
▁Pjevačica	-11.1658
▁odustati	-11.1658
▁Izbornik	-11.1658
▁brigu	-11.1659
▁krevetu	-11.166
▁dobrobit	-11.166
▁Denis	-11.1661
▁oblačno	-11.1661
▁Glav	-11.1662
▁mirovn	-11.1662
▁Čovjek	-11.1662
▁primijetili	-11.1663
viz	-11.1663
▁pozdrav	-11.1665
▁Dunav	-11.1666
▁Žu	-11.1668
▁stalo	-11.1669
ric	-11.167
▁Istina	-11.1673
▁lijeve	-11.1673
▁pojaviti	-11.1676
▁usvoji	-11.1677
▁simptome	-11.1677
▁original	-11.1684
▁Ivanu	-11.1687
▁istup	-11.1687
▁povremen	-11.1688
▁Počel	-11.1691
ulja	-11.1691
▁srpskog	-11.1692
▁ostanak	-11.1693
▁Odgovor	-11.1696
▁Ov	-11.1699
▁130	-11.17
▁moraš	-11.17
▁poveli	-11.1701
▁policijskih	-11.1701
▁smijemo	-11.1703
-6	-11.1704
▁Tro	-11.1705
▁donesena	-11.1705
▁angažiran	-11.1705
▁poljsk	-11.1707
▁bogate	-11.1712
žite	-11.1713
▁osmijeh	-11.1713
▁znanstvenici	-11.1721
▁reci	-11.1721
▁prehramben	-11.1721
▁Beograda	-11.1722
▁bliski	-11.1723
▁neugodno	-11.1726
▁sastoji	-11.1728
▁ciljan	-11.173
Superstar	-11.1731
▁Oz	-11.1732
▁masn	-11.1733
▁Alban	-11.1733
▁branič	-11.1734
▁povr	-11.1735
▁Radovi	-11.1735
▁slikar	-11.1737
▁Lan	-11.1738
▁svježe	-11.1739
▁opis	-11.174
▁vla	-11.174
▁šal	-11.1741
▁Chris	-11.1745
▁kupci	-11.1747
▁osjeti	-11.1747
▁napadi	-11.1748
itelji	-11.1749
▁konce	-11.1749
Što	-11.175
▁ovogodišnj	-11.1751
▁Il	-11.1751
▁Središnj	-11.1751
▁oporavka	-11.1751
▁regiju	-11.1751
▁skupi	-11.1751
▁šokantn	-11.1751
▁zabranu	-11.1751
▁veličine	-11.1751
▁doveden	-11.1752
▁kopnen	-11.1752
vec	-11.1753
▁potencijalni	-11.1754
▁nježn	-11.1755
▁bizarn	-11.1756
▁pokrenut	-11.1756
▁predavanja	-11.1756
▁liječi	-11.1756
▁Popović	-11.1757
▁Žena	-11.1761
alna	-11.1762
▁razmišljanja	-11.1765
▁najvažnijih	-11.1766
▁povlači	-11.1766
▁zanimanja	-11.1768
▁okupljanja	-11.1768
Ju	-11.1769
▁Ch	-11.1769
▁nastoji	-11.177
▁razočaran	-11.177
▁Državno	-11.1771
▁predstavila	-11.1771
▁Hrvate	-11.1773
▁pričati	-11.1774
▁sudeći	-11.1778
▁fond	-11.1781
▁uspije	-11.1781
▁kreditn	-11.1783
Naj	-11.1785
▁grčk	-11.1786
▁timu	-11.1787
▁muče	-11.1787
▁Županijskog	-11.1791
zel	-11.1792
▁javi	-11.1793
▁lijep	-11.1794
▁Knin	-11.1796
▁meča	-11.1798
▁čekanja	-11.1799
▁rezerviran	-11.1802
▁Pir	-11.1806
▁sjajne	-11.1811
▁vid	-11.1812
rović	-11.1815
▁Kap	-11.1815
▁crno	-11.1816
▁premijeru	-11.1818
ndo	-11.1818
▁kata	-11.1823
▁istaknut	-11.1825
▁povijesn	-11.183
▁Želi	-11.183
An	-11.1832
dili	-11.1839
▁žuti	-11.184
▁šoku	-11.1843
▁gospodarski	-11.1843
▁eksperiment	-11.1844
pen	-11.1845
▁Glazben	-11.1846
▁doživljava	-11.1846
▁haljinu	-11.1846
▁kontinuitet	-11.1846
▁nezadovoljstvo	-11.1846
▁vožnji	-11.1846
▁djetetu	-11.1846
▁odabrati	-11.1846
▁najviša	-11.1846
▁prakse	-11.1846
▁SOA	-11.1846
▁Barbara	-11.1846
▁nezgod	-11.1846
▁ritam	-11.1846
▁djetinjstva	-11.1846
▁tijesto	-11.1847
▁Island	-11.1847
▁vođa	-11.1848
▁DIP	-11.1848
▁Kakav	-11.1849
▁nigdje	-11.1851
▁Novinar	-11.1851
▁mrtvih	-11.1851
zin	-11.1852
▁Bull	-11.1853
▁lijekova	-11.1854
▁resor	-11.1854
ww	-11.1855
▁Din	-11.1858
▁proglasil	-11.1858
▁Milanovićev	-11.186
La	-11.1865
▁ciklusa	-11.1865
▁kolnika	-11.1867
▁pomaga	-11.187
▁ugostiti	-11.1871
▁izborio	-11.1872
▁nezakonit	-11.1872
pisala	-11.1872
▁njemačkog	-11.1872
▁Carlos	-11.1874
▁buduć	-11.1875
▁18-	-11.1876
▁kvalifikacijsk	-11.1878
▁gori	-11.1879
▁interese	-11.1879
elu	-11.1879
▁mijenjaju	-11.1881
OM	-11.1881
▁vrha	-11.1882
▁gradnju	-11.1885
▁Podr	-11.1885
▁upozorila	-11.189
▁boju	-11.1892
89	-11.1896
▁prihod	-11.1896
▁Fr	-11.1902
▁dodatn	-11.1902
▁zakup	-11.1903
▁Došl	-11.1908
▁spašava	-11.1908
▁trenersk	-11.191
▁uniji	-11.1911
▁forma	-11.1911
▁radna	-11.1912
▁Tina	-11.1913
zal	-11.1913
▁Prvom	-11.1921
▁investitor	-11.1925
kru	-11.1925
▁Poljska	-11.1925
▁namještaj	-11.1927
▁životno	-11.1931
kinu	-11.1931
▁osvajač	-11.1935
▁tvrtkama	-11.1936
▁nastupe	-11.1936
MO	-11.1936
▁glava	-11.1937
▁Pop	-11.1938
▁ćeš	-11.194
▁službenika	-11.1941
▁19-	-11.1942
▁asistencije	-11.1942
▁emisiju	-11.1942
▁financijsku	-11.1942
▁inflacija	-11.1942
▁neslužbeno	-11.1942
▁obnovljiv	-11.1942
▁pogotkom	-11.1942
▁preuzela	-11.1942
▁verzija	-11.1942
▁pluća	-11.1942
▁pobjegao	-11.1942
▁sjednicu	-11.1942
▁polovici	-11.1942
▁proslave	-11.1943
▁brončan	-11.1943
▁desert	-11.1943
▁zajedničke	-11.1943
▁snimci	-11.1943
▁Bož	-11.1944
▁saznanja	-11.1947
▁27-	-11.1948
▁pogađa	-11.1948
▁Nijemci	-11.1948
▁pogorša	-11.1949
▁poginulih	-11.1949
▁iznenađenja	-11.195
▁Srednj	-11.195
91	-11.195
▁Želimo	-11.195
▁plaže	-11.1953
▁Zor	-11.1956
▁opasne	-11.1957
pak	-11.1957
▁moment	-11.1959
▁očuvanje	-11.196
nit	-11.1962
▁Pravi	-11.1963
▁Voli	-11.1964
▁Potrebn	-11.1965
▁rođenja	-11.1966
▁zeleni	-11.1966
▁Cityja	-11.1966
▁domaćim	-11.1968
▁istinit	-11.197
▁mase	-11.1971
▁ulaze	-11.1972
juće	-11.1975
▁mnoštvo	-11.1978
Je	-11.198
▁invazije	-11.1981
ekivan	-11.1982
▁prirodni	-11.1983
▁Brad	-11.1985
▁Borna	-11.1987
▁pitala	-11.1989
▁Nikada	-11.1989
▁visoku	-11.1992
VO	-11.1992
▁poštovanje	-11.1993
▁otvori	-11.1993
▁zlostavlja	-11.1993
▁zainteresirani	-11.1994
▁sklon	-11.1994
▁okret	-11.1995
▁Libanonu	-11.1996
▁nezavisn	-11.1996
▁Španjolsk	-11.1997
▁smrtn	-11.1999
▁čuje	-11.2
▁vlastitom	-11.2002
▁saveznici	-11.201
▁Lijep	-11.201
▁obraća	-11.2012
pija	-11.2012
▁Škol	-11.2013
▁starih	-11.2013
▁prijavila	-11.2019
▁sačuva	-11.2019
▁pliva	-11.202
▁donosimo	-11.202
▁regulira	-11.2021
norm	-11.2021
▁lijevi	-11.2022
▁teškom	-11.2023
▁cijevi	-11.2025
▁Đur	-11.2026
▁pravilno	-11.2026
▁pronađena	-11.203
▁navika	-11.2031
▁dis	-11.2034
▁ljubi	-11.2036
▁Tar	-11.2038
▁medijske	-11.2038
▁kandidatima	-11.2038
▁Jučer	-11.204
▁kancelar	-11.204
▁koalicija	-11.204
▁nedjeljn	-11.204
▁sudjelovalo	-11.204
▁Britaniji	-11.204
▁HGSS	-11.204
▁dohodak	-11.204
▁odabrao	-11.204
▁kažnjava	-11.204
▁funkciji	-11.204
▁kandidaturu	-11.204
▁Bernard	-11.204
▁zabrana	-11.204
▁hvale	-11.2041
▁preporu	-11.2041
▁zabavi	-11.2042
▁stožer	-11.2042
▁učinkovitost	-11.2042
▁dugogodišnj	-11.2042
▁ostavila	-11.2043
▁uobičajeno	-11.2043
▁Pravo	-11.2043
▁povišen	-11.2043
▁odlaze	-11.2044
▁Sutra	-11.2045
▁Općinskog	-11.205
▁stići	-11.2051
▁navedeni	-11.2052
▁Dinamom	-11.2056
▁grana	-11.206
▁pušta	-11.206
▁engleskog	-11.206
▁Lučk	-11.2063
▁prag	-11.2064
▁kupcima	-11.2064
▁Glavnog	-11.2066
▁brinuti	-11.2069
▁obožava	-11.2072
▁Jedini	-11.2077
UR	-11.2079
▁odgovorili	-11.208
▁Sljedeć	-11.2082
▁tragičn	-11.2083
zmu	-11.2084
▁nastavili	-11.2084
▁Svak	-11.2085
▁Crna	-11.2085
▁provjerava	-11.2086
▁slobodnog	-11.2087
▁natje	-11.2093
▁posljedicama	-11.2093
▁jugozapadni	-11.2102
▁obavijesti	-11.2103
▁telefona	-11.2105
▁političara	-11.2105
▁79	-11.2108
▁Sportske	-11.2109
▁nećete	-11.2109
▁četvrto	-11.2109
▁dnevnik	-11.211
▁mjerama	-11.2112
▁zagr	-11.2115
▁otpadom	-11.2117
▁iznenađen	-11.2117
▁prijetnja	-11.2118
▁gura	-11.212
▁proizvodima	-11.212
▁pojma	-11.2121
▁nepoznati	-11.2125
Kako	-11.2127
dis	-11.2128
▁nadu	-11.2129
▁vještina	-11.2129
šiti	-11.2129
▁pogodila	-11.213
samo	-11.2131
▁potrebni	-11.2131
▁kombi	-11.2132
▁čestit	-11.2136
▁Ponekad	-11.2138
▁Sveučilištu	-11.2138
▁elegantn	-11.2138
▁stanovništvo	-11.2138
▁Lopez	-11.2138
▁OPG	-11.2138
▁Primorca	-11.2138
▁funti	-11.2138
▁parkirn	-11.2138
▁Ključ	-11.2138
▁Anthony	-11.2139
▁ormar	-11.2139
▁Institut	-11.2139
▁uzrokuje	-11.2141
▁zovu	-11.2142
evu	-11.2144
▁ukus	-11.2145
▁kasni	-11.2146
▁Miloš	-11.2146
usa	-11.2146
▁stupi	-11.2146
▁životom	-11.2147
▁Milana	-11.2148
▁Marku	-11.2148
are	-11.2149
▁Jose	-11.2151
▁podijelili	-11.2154
▁zadnjoj	-11.2154
škom	-11.2155
▁susjeda	-11.2158
▁Maria	-11.2162
zne	-11.2163
▁dugoročno	-11.2163
▁odgovora	-11.2163
▁Priprema	-11.2165
▁kriterij	-11.2166
▁nacionalnoj	-11.2172
▁primarn	-11.2172
▁Cel	-11.2174
ljuje	-11.2176
69	-11.2176
lanovi	-11.2176
▁ispuni	-11.2179
AL	-11.218
cijski	-11.2183
▁prekinut	-11.2185
▁Petri	-11.2186
▁90-	-11.2191
▁autorsk	-11.2192
▁Audi	-11.2192
▁Nemam	-11.2197
▁uzvrat	-11.22
▁Open	-11.22
▁tekuć	-11.2202
▁zanimljiva	-11.2202
▁helikopter	-11.2202
▁znanstveno	-11.2204
▁zabrinuti	-11.2206
▁privatn	-11.2206
▁izrade	-11.2209
▁otkrivaju	-11.221
▁ostvarivanj	-11.221
▁dugu	-11.221
ney	-11.2213
€	-11.222
▁zaposlenici	-11.2221
▁rezultiral	-11.2223
▁zahtijevaju	-11.2224
▁Crven	-11.2224
stala	-11.2225
▁Elizabet	-11.2225
▁Zavoda	-11.2227
▁talentiran	-11.2228
vci	-11.2229
▁sloboda	-11.223
▁okusa	-11.2231
▁pojedinci	-11.2231
živi	-11.2232
▁svome	-11.2233
▁Male	-11.2233
▁prosvjeda	-11.2234
▁odgovarati	-11.2234
▁Ancelotti	-11.2237
▁Moskvi	-11.2237
▁autoceste	-11.2237
▁kvaliteti	-11.2237
▁haljina	-11.2237
▁imunitet	-11.2237
▁srećom	-11.2237
▁prebačen	-11.2237
▁izabrati	-11.2237
▁oporba	-11.2237
▁uslugu	-11.2237
▁obnaša	-11.2237
▁1995.	-11.2237
▁Božinović	-11.2237
▁ruraln	-11.2237
▁najteže	-11.2237
▁Britansk	-11.2237
▁citira	-11.2239
▁otocima	-11.2242
▁grub	-11.2243
▁gradovi	-11.2246
▁banaka	-11.2248
▁Div	-11.2249
▁doživjeti	-11.2249
jeve	-11.225
▁nastavit	-11.225
▁Hrvatsko	-11.2253
▁viš	-11.2255
▁susjedi	-11.2255
▁sitni	-11.2256
enim	-11.2257
▁Život	-11.2261
▁hektara	-11.2263
▁žrtvama	-11.2265
jske	-11.2265
▁očiju	-11.2266
etak	-11.2267
vet	-11.2268
▁oštro	-11.2269
ting	-11.2269
▁bijeli	-11.2272
▁zakonit	-11.2272
▁odabrala	-11.2274
▁Boga	-11.2274
▁Mak	-11.2274
▁suigrač	-11.2276
▁Che	-11.2276
▁Kul	-11.2277
ota	-11.2277
▁Final	-11.2279
▁upozna	-11.2281
▁nacionalni	-11.2281
▁najnovij	-11.2283
▁apelira	-11.2283
▁Bli	-11.2284
ller	-11.2285
ljena	-11.2287
▁događalo	-11.2289
5%	-11.229
▁spavati	-11.2293
▁nave	-11.2294
65	-11.2294
▁Let	-11.2295
▁bok	-11.2295
ign	-11.2295
bert	-11.2299
▁zaštita	-11.23
▁putuju	-11.2302
▁shvati	-11.2303
▁najpopularnij	-11.2304
▁zaustavio	-11.2306
▁zadnjeg	-11.2307
▁obavještajn	-11.2308
▁definiran	-11.2312
▁dodat	-11.2313
retan	-11.2315
▁Isus	-11.2316
▁napetosti	-11.2316
▁Angeles	-11.2327
▁otkad	-11.2327
▁tadašnji	-11.2327
▁Milanoviću	-11.233
rena	-11.2333
Le	-11.2334
▁Mc	-11.2334
Mo	-11.2334
▁sirov	-11.2335
▁International	-11.2337
▁Swift	-11.2337
▁agresije	-11.2337
▁financijska	-11.2337
▁popularna	-11.2337
▁surađuje	-11.2337
▁završetku	-11.2337
▁zadobio	-11.2337
▁Stričak	-11.2337
▁Fokus	-11.2337
▁Profimedia	-11.2337
▁vraćen	-11.2337
▁dronova	-11.2337
▁aparat	-11.2337
▁Pjaca	-11.2338
▁dovela	-11.2338
▁Renata	-11.2339
▁podići	-11.234
▁kemijsk	-11.234
▁kartu	-11.234
▁Antonija	-11.2341
▁odgovaraju	-11.2342
▁vladajuće	-11.2344
▁petero	-11.2344
▁Mand	-11.2346
▁prepoznali	-11.2346
▁lanac	-11.2347
▁100.000	-11.2349
ološki	-11.2349
war	-11.2349
▁napomenuti	-11.2351
▁nedaleko	-11.2354
▁pisanju	-11.2355
▁popraviti	-11.2355
▁morat	-11.2355
▁prekomjern	-11.2358
▁agent	-11.236
▁primijetio	-11.2362
▁zabili	-11.2362
▁ispunjava	-11.2362
▁presudi	-11.2363
▁bilje	-11.2364
out	-11.2364
▁ozlijeđena	-11.2365
Pr	-11.2368
▁provedbu	-11.2368
▁raj	-11.2368
▁Cup	-11.2375
▁posjeduje	-11.2375
IT	-11.2377
▁RS	-11.2378
▁civiln	-11.2385
▁napali	-11.2385
▁mega	-11.2386
▁intern	-11.2386
▁dogovoren	-11.2387
▁plaćaju	-11.2388
▁upisan	-11.2389
▁Predstav	-11.239
88	-11.2396
▁des	-11.2403
▁uspješni	-11.2405
▁viđa	-11.2406
rist	-11.2408
▁odrasle	-11.2408
▁brzina	-11.2409
▁važni	-11.2411
▁luksuz	-11.2413
▁domaća	-11.2415
kraj	-11.2419
▁doseg	-11.2422
▁ljetne	-11.2424
▁njegu	-11.2424
▁komentare	-11.2424
▁posluži	-11.2426
▁dodan	-11.2426
▁zdravi	-11.2427
▁načinu	-11.2427
▁prosječno	-11.2427
▁fu	-11.243
.500	-11.2431
▁uop	-11.2432
▁kratki	-11.2432
▁hranjiv	-11.2438
▁trgovinu	-11.2438
▁Scholz	-11.2438
▁istodobno	-11.2438
▁Sarajevo	-11.2438
▁povjerenstvo	-11.2438
▁držao	-11.2438
▁pokaže	-11.2438
▁slavlja	-11.2438
▁trajao	-11.2438
▁potrošača	-11.2438
▁dovršen	-11.2439
▁Serij	-11.2439
▁plovi	-11.2439
▁kulturi	-11.2439
▁druženja	-11.244
▁napore	-11.244
▁VI	-11.244
▁opciju	-11.2442
▁zvao	-11.2442
vani	-11.2443
▁Radman	-11.2444
▁nedavn	-11.2445
▁spašavanja	-11.2445
▁Šime	-11.2445
▁Hezbolaha	-11.2446
čani	-11.2446
▁uslijedio	-11.2446
▁III	-11.2447
▁gradom	-11.2447
▁lakši	-11.2448
▁neizvjesn	-11.2448
▁Gorici	-11.245
▁utječu	-11.2452
▁iskoristili	-11.2453
▁globalno	-11.2454
▁zaraditi	-11.2455
▁ulazu	-11.2457
▁glad	-11.2459
▁svjedoče	-11.246
▁okruženje	-11.2461
▁odbila	-11.2462
▁kredita	-11.2463
tne	-11.2467
nz	-11.2467
▁političkom	-11.2467
▁kvalitetni	-11.2467
▁uhićenja	-11.2468
▁parka	-11.2468
▁dolaskom	-11.2473
▁zamisli	-11.2473
ologiju	-11.2475
▁pravni	-11.2476
▁zahval	-11.2476
tivan	-11.2477
ping	-11.2478
▁poslovnog	-11.2478
▁detaljima	-11.2479
▁klubom	-11.248
lly	-11.2482
▁Kijevu	-11.2484
▁terminal	-11.2485
▁stavi	-11.2485
▁zastupa	-11.2485
▁čvrsto	-11.2486
▁prekinuti	-11.249
▁uništil	-11.2491
▁svakodnevni	-11.2494
▁stroj	-11.2494
▁tenisk	-11.2497
▁englesk	-11.2497
pada	-11.2497
hal	-11.2499
▁slavni	-11.2501
▁masti	-11.2504
▁podržavaju	-11.2506
▁Osta	-11.2507
▁Vidim	-11.2508
▁klik	-11.251
ljivost	-11.251
▁pozvali	-11.2514
52	-11.2514
▁mladića	-11.2516
▁nadoknadi	-11.2518
42	-11.2519
▁razgovore	-11.252
▁fanovi	-11.2522
▁plasti	-11.2525
▁temelje	-11.2528
ick	-11.2528
▁karti	-11.2533
puštaju	-11.2535
tle	-11.2535
▁nalik	-11.2536
▁Tvrdi	-11.2537
▁napušta	-11.2537
92	-11.2537
▁Šo	-11.2539
▁optimist	-11.254
▁Hezbollah	-11.254
▁Tottenham	-11.254
▁bespovratn	-11.254
▁državljana	-11.254
▁inicijativa	-11.254
▁obnovljen	-11.254
▁očekivao	-11.254
▁baterija	-11.254
▁prehrani	-11.254
▁Magazin	-11.254
▁prisjetila	-11.254
▁vježbe	-11.254
▁prljav	-11.254
▁prirodu	-11.254
▁omogućuju	-11.254
▁primljen	-11.254
▁postrojbe	-11.254
▁kaznenom	-11.254
▁Blue	-11.254
▁matičn	-11.254
▁krajevima	-11.2541
vrsti	-11.2541
▁Alexander	-11.2541
▁pravosudn	-11.2542
▁sadrže	-11.2542
▁Sudac	-11.2542
▁Janković	-11.2543
▁najmanj	-11.2544
▁izdvojiti	-11.2545
▁Uskok	-11.2546
37	-11.2548
▁fali	-11.2549
▁suradnik	-11.255
▁vozače	-11.2551
▁tvrdnje	-11.2552
▁Brojni	-11.2553
▁djelatnik	-11.2554
▁88	-11.2554
▁gorju	-11.2555
▁desne	-11.2555
▁računati	-11.2555
▁prodati	-11.2556
▁redova	-11.2556
▁gastro	-11.2558
▁stalni	-11.2563
▁stavljen	-11.2564
▁ovogodišnjeg	-11.2565
▁specijalist	-11.2566
▁Hit	-11.2568
▁gradove	-11.2568
▁setu	-11.2573
▁ZA	-11.2574
▁vlastitog	-11.2574
▁koraka	-11.2575
▁nadzora	-11.2576
▁obvezu	-11.2576
▁predviđen	-11.2576
vil	-11.2578
▁pripremili	-11.2581
▁iznosio	-11.2582
▁lokacijama	-11.2582
▁novinarka	-11.2584
▁kupuje	-11.2585
inc	-11.2586
▁sli	-11.2587
▁strast	-11.2589
the	-11.259
ford	-11.2592
▁zdravo	-11.2592
▁muškarce	-11.2595
▁bes	-11.2595
▁osjetiti	-11.2596
▁današnjeg	-11.2596
▁profesora	-11.2599
▁Mostar	-11.2599
▁Nama	-11.26
▁poboljša	-11.2601
▁strategije	-11.2603
▁projekti	-11.2604
04	-11.2604
▁Naglasi	-11.2608
▁doprinosi	-11.2611
▁1:1	-11.2611
▁živio	-11.2612
▁stvorio	-11.2613
▁oduševljeni	-11.2613
▁zapis	-11.2622
▁Ella	-11.2622
▁neprijateljsk	-11.2622
▁metoda	-11.2623
▁izmjena	-11.2623
▁tehničk	-11.2623
▁tekstu	-11.2625
▁tadašnj	-11.2626
▁leta	-11.2626
▁ukazuju	-11.2627
▁Mnog	-11.2627
▁Mira	-11.2628
čkim	-11.2629
▁niži	-11.263
▁ministri	-11.2631
▁obr	-11.2636
▁ošte	-11.2636
▁dnu	-11.2637
▁Jure	-11.2638
▁poražen	-11.2639
▁eksp	-11.2642
▁ljudske	-11.2643
▁veleposlanik	-11.2643
▁Hajdaš	-11.2643
▁Tvrtka	-11.2643
▁ankete	-11.2643
▁trojica	-11.2643
▁adresi	-11.2643
▁počinju	-11.2643
▁civila	-11.2643
▁zaključiti	-11.2644
▁istraživanju	-11.2644
▁sezonsk	-11.2645
▁Selo	-11.2645
▁Helen	-11.2646
▁zabrinut	-11.2646
▁zadovoljna	-11.2646
▁nestalo	-11.2648
▁učini	-11.2648
▁političkoj	-11.2649
▁Slam	-11.2651
▁sjećam	-11.2651
▁Kevin	-11.2651
jaka	-11.2652
▁Martinović	-11.2652
▁zabavni	-11.2652
▁Jelen	-11.2655
▁sindikat	-11.2655
▁čovjeku	-11.2656
▁idealno	-11.2657
▁borac	-11.2658
enti	-11.2658
▁Zavod	-11.2658
▁jazz	-11.2661
▁fil	-11.2663
▁pratiteljima	-11.2665
dala	-11.2667
ički	-11.2671
▁pir	-11.2672
▁izgraditi	-11.2672
▁Traži	-11.2673
▁Kuć	-11.2674
bić	-11.2676
▁hormon	-11.2676
▁Rezultati	-11.2678
▁lijevo	-11.2678
▁iznenada	-11.2679
▁izradu	-11.268
▁Pil	-11.268
▁najboljem	-11.2681
▁mentaln	-11.2681
▁Eurosonga	-11.2682
▁Kata	-11.2684
▁četvrtine	-11.2685
54	-11.2686
▁saznati	-11.269
▁Dnevni	-11.2694
▁privla	-11.2695
▁obrat	-11.2697
▁namjera	-11.2698
▁Slijedi	-11.2698
▁porastao	-11.2699
▁poznatim	-11.2701
OV	-11.2703
pun	-11.2707
▁stabla	-11.2708
▁gradskih	-11.2708
51	-11.2713
▁Imaju	-11.2714
▁crta	-11.2715
▁nalet	-11.2717
▁baci	-11.2722
▁gledam	-11.2725
▁vrijedne	-11.2729
▁padu	-11.2731
▁slobodni	-11.2736
▁Franje	-11.2738
▁nadaju	-11.2739
▁katastrofa	-11.2739
▁rezultira	-11.2739
▁Dol	-11.2741
▁seksa	-11.2741
▁medijski	-11.2743
▁stvarati	-11.2745
▁All	-11.2746
▁guverner	-11.2747
▁inteligencija	-11.2747
▁kompromis	-11.2747
▁ocjenu	-11.2747
▁očekivali	-11.2747
▁Španjolac	-11.2747
▁baterije	-11.2747
▁dominantn	-11.2747
▁proslavljen	-11.2747
▁Uglavnom	-11.2747
▁humor	-11.2747
▁prirodne	-11.2747
▁prošlu	-11.2747
▁drugdje	-11.2747
▁prenose	-11.2747
▁počele	-11.2747
▁dvoranu	-11.2747
▁razumjeti	-11.2747
čkoj	-11.2748
▁ispitivanja	-11.2748
▁2003.	-11.2748
▁Qu	-11.2749
▁Otac	-11.2749
▁prenijeti	-11.275
▁nazvati	-11.2754
▁sjeverni	-11.2755
▁svojevrsn	-11.2755
ivali	-11.2755
▁dubrovački	-11.2755
▁podigao	-11.2756
▁Kramarić	-11.2758
▁onu	-11.2758
▁vanjske	-11.2759
▁roditelj	-11.276
▁kolodvor	-11.2761
▁Mandić	-11.2761
▁Opet	-11.2762
▁Pita	-11.2764
▁Ovog	-11.2764
▁primjeren	-11.2766
▁domaćini	-11.2768
▁najviši	-11.2768
nijeti	-11.2769
▁ispra	-11.277
▁djelu	-11.2773
▁posti	-11.2773
▁otvaraju	-11.2774
▁izrazil	-11.2774
▁zadnj	-11.2775
▁organizirao	-11.2776
▁pritvor	-11.2779
▁svježi	-11.2779
▁stvaranja	-11.278
▁opisala	-11.2781
▁kot	-11.2783
▁start	-11.2784
▁automobili	-11.2784
▁razinama	-11.2784
umb	-11.2785
▁pomak	-11.2785
▁proslavila	-11.2786
▁toplije	-11.2786
▁vašoj	-11.2786
▁Pol	-11.2787
▁odgovorni	-11.279
▁band	-11.2791
▁radosti	-11.2792
▁Situacija	-11.2793
▁crveno	-11.2794
▁Naše	-11.2795
▁iznena	-11.2798
ces	-11.2802
▁dublje	-11.2802
▁Cap	-11.2805
▁Najveć	-11.2808
▁podrum	-11.2808
▁izabrani	-11.2809
▁plati	-11.2811
tte	-11.2812
▁trajala	-11.2815
▁zauzima	-11.2816
▁dopušta	-11.2816
▁govoru	-11.2816
▁vrhunske	-11.2817
▁Bjel	-11.2817
▁bog	-11.2819
dat	-11.282
▁Por	-11.282
tta	-11.2821
▁nastupu	-11.2823
▁Cer	-11.2825
▁Gora	-11.2826
▁Vaša	-11.2826
day	-11.2827
▁nastupima	-11.2829
Nije	-11.2831
zirati	-11.2832
cher	-11.2833
▁Šar	-11.2834
▁Ab	-11.2835
▁krem	-11.2836
▁Pola	-11.2839
▁kritika	-11.284
▁javn	-11.2841
▁koeficijent	-11.2842
▁tv	-11.2843
▁gume	-11.2847
▁Marc	-11.2851
▁komentari	-11.2852
▁Meghan	-11.2852
▁izložbi	-11.2852
▁tehnologiju	-11.2852
▁tjestenin	-11.2852
▁vijećnici	-11.2852
▁ljepote	-11.2852
▁označava	-11.2852
▁analizu	-11.2852
▁Karoglan	-11.2852
▁skladatelj	-11.2852
▁Michel	-11.2852
▁2027.	-11.2852
▁trošak	-11.2853
▁okolici	-11.2853
▁Mia	-11.2853
▁Peking	-11.2853
ected	-11.2855
inović	-11.2855
▁dočekao	-11.2856
▁party	-11.2857
▁upitao	-11.2857
▁Franković	-11.2857
▁Mladost	-11.2858
▁prolazak	-11.2863
▁dovoljan	-11.2863
▁ogled	-11.2865
▁remija	-11.2866
▁vitamin	-11.2869
▁policajac	-11.2869
▁Men	-11.287
85	-11.2872
▁novcem	-11.2873
▁plod	-11.2873
▁Vlado	-11.2878
kus	-11.2879
rf	-11.288
▁saboru	-11.2882
▁počinjen	-11.2882
▁predstavljanje	-11.2883
:10	-11.2883
▁čas	-11.2885
▁osmo	-11.2896
▁sportsk	-11.2896
▁vrti	-11.2897
▁glazbeno	-11.2899
▁HAK	-11.29
▁izgovor	-11.2902
▁pratitelji	-11.2905
▁uspjehe	-11.291
▁odnijel	-11.2912
▁Svjetski	-11.2913
▁Far	-11.2913
▁pružanje	-11.2913
▁inspiriran	-11.2914
▁trenerom	-11.2915
▁podnesen	-11.2917
▁navedene	-11.2917
▁zeleno	-11.2919
cm	-11.2921
▁Buk	-11.2921
▁Tour	-11.2924
▁Kristina	-11.2925
▁tehni	-11.2926
▁kanalu	-11.2931
▁filmski	-11.2933
izmom	-11.2936
▁trofeja	-11.2938
▁pregovori	-11.2939
▁prote	-11.2939
▁Državn	-11.2939
▁donese	-11.294
Go	-11.294
član	-11.2941
▁kineski	-11.2941
▁ugled	-11.2943
▁plinsk	-11.2943
▁Bill	-11.2947
▁stvori	-11.2947
▁parkira	-11.2947
▁inspektor	-11.295
87	-11.295
▁stranim	-11.2952
▁influencer	-11.2956
▁Lep	-11.2958
▁Ukrajinski	-11.2958
▁instalacij	-11.2959
▁komunikaciju	-11.2959
▁popularne	-11.2959
▁uskrsn	-11.2959
▁Belgija	-11.2959
▁pamćenje	-11.2959
▁Lončar	-11.2959
▁1992.	-11.2959
▁šumsk	-11.2959
▁funkcija	-11.2959
▁stoljeću	-11.2959
▁lopti	-11.2959
▁Svatko	-11.2959
▁Šef	-11.296
▁koprivničk	-11.296
▁stvarnost	-11.296
▁umjereno	-11.2961
▁potrošnju	-11.2961
▁Požar	-11.2961
▁akcijsk	-11.2961
▁Siriji	-11.2962
▁mozak	-11.2963
▁pojavljuje	-11.2963
▁Turske	-11.2964
▁prodaja	-11.2964
▁pojavi	-11.2964
▁plamen	-11.2966
▁hrvatskoga	-11.2968
▁Pozivam	-11.2969
▁Ludbreg	-11.297
▁donošenje	-11.2973
▁Jesu	-11.2975
▁gradona	-11.2977
▁Ide	-11.2977
▁međunarodno	-11.2978
▁učinila	-11.2978
dal	-11.2978
nove	-11.2979
▁Zagrebački	-11.2979
▁službenik	-11.298
▁uspješne	-11.298
▁izdr	-11.2981
▁visokom	-11.2983
puštanja	-11.2983
▁pridružio	-11.2987
Ru	-11.2987
▁poticanje	-11.299
▁međusobn	-11.2994
▁zatvorena	-11.2995
▁ključan	-11.2995
81	-11.2995
staje	-11.2996
▁motiviran	-11.2998
▁vođen	-11.2999
▁povijesne	-11.3
▁simptoma	-11.3
▁proglasio	-11.3
▁Anti	-11.3001
▁ribar	-11.3005
▁navodeći	-11.3005
▁idućeg	-11.3006
▁zamijenio	-11.3009
▁ženi	-11.301
▁paketa	-11.3012
▁ubija	-11.3013
▁iskr	-11.3013
▁Loren	-11.3016
▁Pep	-11.3017
▁kapitala	-11.3017
ševi	-11.302
▁Filipa	-11.302
pat	-11.3027
sci	-11.3028
▁njema	-11.3032
▁otvorene	-11.3034
▁suđenja	-11.3035
▁ce	-11.3037
▁korišten	-11.3038
▁okupili	-11.3038
▁jam	-11.3041
▁obratil	-11.3043
▁kino	-11.3044
▁160	-11.3045
▁temi	-11.3045
▁Luku	-11.3047
▁laži	-11.3048
▁pret	-11.3049
▁Božića	-11.3051
▁privatno	-11.3053
▁zdrave	-11.3055
▁vezana	-11.3056
▁žanr	-11.3059
▁zube	-11.3059
▁zabava	-11.3061
▁ponovio	-11.3061
▁Stvarno	-11.3061
▁ogleda	-11.3062
avanju	-11.3062
▁govorim	-11.3063
▁djelatnost	-11.3064
kupio	-11.3065
▁demantira	-11.3066
▁katedral	-11.3066
▁Moskva	-11.3066
▁Nezavisn	-11.3066
▁belgijsk	-11.3066
▁brazilsk	-11.3066
▁klupu	-11.3066
▁konferenciju	-11.3066
▁tradicija	-11.3066
▁Osvrnu	-11.3066
▁kišom	-11.3066
▁Cijena	-11.3066
▁lanjsk	-11.3066
▁čimbenik	-11.3066
▁bomba	-11.3067
▁dodjeli	-11.3067
▁zaustavi	-11.3068
▁izboriti	-11.3069
▁Albanije	-11.307
▁obrazovanju	-11.307
▁Dabro	-11.307
VAJ	-11.3071
▁Sky	-11.3071
▁Turska	-11.3072
▁zadovoljiti	-11.3073
▁uputili	-11.3076
▁zajedničko	-11.3076
kinje	-11.3076
▁92	-11.3079
pitali	-11.308
▁kompletn	-11.3081
▁talijanske	-11.3081
▁svladala	-11.3082
▁Bayer	-11.3084
▁spavanja	-11.3085
▁gospodarenj	-11.3087
▁zapošljava	-11.3089
▁Fo	-11.309
▁Nada	-11.3091
▁CO	-11.3091
▁Pic	-11.3092
▁zraku	-11.3094
▁proširenje	-11.3094
▁težine	-11.3094
▁potpuni	-11.3094
▁predložio	-11.3095
76	-11.3095
▁značajne	-11.3098
▁prihvati	-11.31
▁izlaze	-11.3101
▁određenim	-11.3102
▁željela	-11.3105
▁Sje	-11.3106
▁energetske	-11.3108
▁Ustava	-11.3108
▁vrtu	-11.3108
▁najnoviji	-11.3109
▁oprezni	-11.3113
▁studente	-11.3117
▁pratite	-11.3118
▁njenom	-11.312
▁napomenuo	-11.3121
▁sljedećeg	-11.3122
▁natjecateljsk	-11.3124
▁privatnim	-11.3124
▁Pas	-11.3128
▁kalendar	-11.3128
▁polja	-11.3129
▁dane	-11.313
%.	-11.313
▁odveo	-11.3133
EC	-11.3133
▁Isp	-11.3134
▁Vele	-11.3134
▁uvodn	-11.3136
▁izbacio	-11.3137
▁ukidanje	-11.3138
▁Jack	-11.314
▁Međunarodni	-11.3141
▁Španjolci	-11.3144
▁predstavljati	-11.3145
▁Irana	-11.3146
▁sretno	-11.3147
▁Ina	-11.3148
▁špijun	-11.3148
▁iznajmljivač	-11.315
▁pristupačn	-11.3151
▁vješti	-11.3152
▁zapadu	-11.3153
▁kandidira	-11.3153
▁osjetio	-11.3154
mana	-11.3154
▁igračem	-11.3154
jedan	-11.3156
▁autorica	-11.3156
▁živa	-11.3158
▁uključi	-11.3163
▁Drug	-11.3163
SS	-11.3163
▁sira	-11.3163
▁proračunu	-11.3164
▁rastuć	-11.3166
▁lav	-11.3166
▁dubrovačko	-11.3166
▁tak	-11.317
PA	-11.3173
▁vrtiću	-11.3173
▁prilagodi	-11.3174
▁Komisije	-11.3175
▁World	-11.3175
▁ansambl	-11.3175
▁asistent	-11.3175
▁atmosferi	-11.3175
▁europsku	-11.3175
▁zastupnica	-11.3175
▁vjenčanje	-11.3175
▁Alcaraz	-11.3175
▁proučava	-11.3175
▁mjesn	-11.3175
▁biljke	-11.3175
▁prijetnju	-11.3175
▁raspravi	-11.3176
▁prodaji	-11.3176
▁aktivan	-11.3177
▁prijateljstva	-11.3177
▁(10	-11.3177
▁regionalne	-11.3178
▁fotografiji	-11.3178
▁Četiri	-11.3178
▁prevari	-11.3178
▁deseci	-11.3179
▁otkazan	-11.318
▁lijekove	-11.318
▁poja	-11.318
▁kretanje	-11.3183
▁Babić	-11.3184
▁Ostal	-11.3184
▁tinejdžer	-11.3186
▁travnjak	-11.3186
▁električni	-11.3188
▁unija	-11.319
▁psihološk	-11.3192
▁Saveza	-11.3193
▁derbija	-11.3195
▁arhiv	-11.3195
▁doživjeli	-11.3196
▁ministara	-11.3198
▁Salzburg	-11.3198
▁kilogram	-11.3199
▁prošloj	-11.32
▁predstavili	-11.3201
▁fol	-11.3201
▁Sko	-11.3202
▁praktičn	-11.3206
▁zapovjednika	-11.3207
▁odgovori	-11.3207
▁Ovakv	-11.3209
štvo	-11.321
▁aktualnog	-11.321
izaciju	-11.321
▁slažu	-11.3211
ivala	-11.3213
▁Gosti	-11.3213
▁Lici	-11.3215
nskih	-11.3216
▁proslavi	-11.3217
▁sl	-11.3217
▁povećanju	-11.3218
nko	-11.3219
izmu	-11.3221
▁lokalnoj	-11.3221
▁kasn	-11.3221
▁Iskreno	-11.3222
72	-11.3223
▁peri	-11.3227
nsko	-11.3227
4%	-11.3227
▁probudi	-11.3228
▁Kel	-11.3228
▁Sar	-11.323
▁gledatelje	-11.3231
▁zanimljive	-11.3232
▁informira	-11.3232
▁osiguran	-11.3232
▁Dragana	-11.3233
▁Walesa	-11.3233
vost	-11.3233
▁kulturnog	-11.3233
▁većeg	-11.3236
▁postojeće	-11.3238
▁krivim	-11.3238
▁uspješn	-11.324
49	-11.3241
▁25-	-11.3242
▁Slobodna	-11.3243
▁Mediteran	-11.3243
Bo	-11.3245
0)	-11.3245
▁Rock	-11.3245
▁Emil	-11.3246
▁skijaš	-11.3248
▁postan	-11.3249
▁prazni	-11.325
▁opasna	-11.3251
etvrti	-11.3253
@	-11.3254
▁biciklist	-11.3255
▁proizvodn	-11.3256
▁nisi	-11.3261
▁upoznat	-11.3262
hen	-11.3262
-21	-11.3263
ćev	-11.3264
▁raspisa	-11.3264
▁dijagnosticiran	-11.3264
08	-11.3265
ložit	-11.3265
▁prekri	-11.3271
▁današnjem	-11.3276
▁kontra	-11.3277
▁izvješ	-11.3278
rap	-11.3279
▁udjela	-11.3281
▁zabranjeno	-11.3281
▁istine	-11.3285
▁Smith	-11.3285
▁ambiciozn	-11.3285
▁koaliciju	-11.3285
▁pjesnik	-11.3285
▁povjesničar	-11.3285
▁statistiku	-11.3285
▁snažnu	-11.3285
▁napominju	-11.3285
▁ubojica	-11.3285
▁Grmoja	-11.3285
▁samopouzdanje	-11.3285
▁Upitan	-11.3285
▁Louis	-11.3285
▁grupu	-11.3285
▁prihvaćen	-11.3285
▁pedeset	-11.3285
▁kat	-11.3285
▁Centru	-11.3286
/20	-11.3286
▁strukovn	-11.3287
▁ZET	-11.3287
▁prijateljstvo	-11.3287
▁prestaje	-11.3288
▁IDS	-11.3288
▁išlo	-11.3288
▁dočekali	-11.3288
▁dočekati	-11.3289
▁olujn	-11.329
▁utvr	-11.329
▁oluja	-11.3292
▁uvjerava	-11.3294
57	-11.3295
▁kvalitetan	-11.3295
▁običn	-11.3296
▁Doris	-11.3297
▁kratk	-11.3297
▁opć	-11.3298
▁precizn	-11.3299
▁trbuh	-11.3299
▁Uprava	-11.33
▁četvornih	-11.3301
▁dovelo	-11.3302
vlače	-11.3303
▁Ex	-11.3305
▁prvaci	-11.3305
▁prilagoditi	-11.3307
▁limuna	-11.3309
▁višestruk	-11.3313
▁by	-11.3315
▁uvod	-11.3315
▁posjetiteljima	-11.3317
▁sustave	-11.3318
▁Umag	-11.3319
▁stavili	-11.332
▁uhvati	-11.332
▁metaln	-11.3325
▁6-2	-11.3327
▁pacijentima	-11.3331
▁diza	-11.3332
▁Vodi	-11.3334
▁000	-11.3334
rstva	-11.3335
▁parlamentarnim	-11.3339
41	-11.3339
▁manjih	-11.3341
▁kupu	-11.3341
▁Markov	-11.3342
▁x	-11.3345
zam	-11.3348
▁mislila	-11.3348
▁njemačkom	-11.335
47	-11.3352
▁natjecatelji	-11.3352
plan	-11.3353
ide	-11.3353
▁ostavili	-11.3353
▁(5	-11.3357
▁iskusni	-11.3358
DP	-11.3359
▁pratio	-11.3361
▁bek	-11.3364
▁razgovori	-11.3364
▁Banj	-11.3366
▁Siniša	-11.337
▁nade	-11.3371
▁zapadni	-11.3373
▁stambene	-11.3374
djela	-11.3374
▁licenc	-11.3375
sson	-11.3376
benik	-11.3377
▁vjetro	-11.3378
rik	-11.3378
▁komp	-11.3379
Split	-11.3379
▁lošeg	-11.3379
▁ugovore	-11.338
75	-11.3382
▁Mars	-11.3383
Svi	-11.3383
▁juniorsk	-11.3383
▁polo	-11.3386
king	-11.3389
▁LA	-11.3389
vidi	-11.3389
kakvih	-11.3391
čite	-11.3393
▁simptomi	-11.3394
▁poslovnom	-11.3394
▁Engleske	-11.3396
▁destinacije	-11.3396
▁konferencija	-11.3396
▁portret	-11.3396
▁utemeljen	-11.3396
▁pratnji	-11.3396
▁pothvat	-11.3396
▁umrla	-11.3396
▁nestanka	-11.3396
▁kišu	-11.3396
▁balkon	-11.3396
▁Wal	-11.3396
▁zaustavljen	-11.3396
▁grudi	-11.3397
▁Roland	-11.3398
▁redar	-11.3398
▁nestao	-11.3399
▁Dosad	-11.34
▁privukao	-11.34
▁Grlić	-11.34
▁Nizozemska	-11.34
▁proljetn	-11.3401
▁tehničar	-11.3401
▁voze	-11.3402
▁Gospodin	-11.3402
▁presudn	-11.3403
▁indijsk	-11.3404
dila	-11.3405
▁manjim	-11.3407
▁predavanje	-11.3408
▁priprav	-11.3408
▁Njih	-11.3409
rman	-11.3409
▁četvrtka	-11.341
▁crnu	-11.3412
▁Koncert	-11.3412
čnim	-11.3414
-5	-11.3415
▁izvesti	-11.3415
▁zaustavili	-11.3416
▁prihvatila	-11.3416
▁desnog	-11.3417
▁izmjenama	-11.3417
▁boljim	-11.342
▁punu	-11.3421
▁WC	-11.3422
▁Tuđman	-11.3424
▁pažljivo	-11.3425
▁Vran	-11.3428
▁Andre	-11.3429
▁sedmo	-11.3431
▁gotovi	-11.3431
▁propustit	-11.3432
▁upisa	-11.3433
▁velja	-11.3438
▁Odbor	-11.3439
vezao	-11.3439
▁dolje	-11.3441
▁prodava	-11.3444
▁služe	-11.3447
anima	-11.3448
▁Rimu	-11.3449
▁stolu	-11.3449
▁ponudio	-11.345
▁divlje	-11.3451
▁asfalt	-11.3451
▁Mati	-11.3452
tanje	-11.3453
▁Pjeva	-11.3453
▁sjaj	-11.3455
▁Mosta	-11.3455
▁boljeg	-11.3458
▁Dodal	-11.346
▁sinu	-11.3461
▁autentičn	-11.3466
▁Festivala	-11.3468
ziju	-11.3471
▁održano	-11.3472
▁plave	-11.3475
anin	-11.3477
SA	-11.348
đenja	-11.3481
:45	-11.3482
▁Ive	-11.3484
lagali	-11.3485
▁zahvatil	-11.3485
▁troše	-11.3486
▁oporavi	-11.3486
▁Sre	-11.3488
▁letjelica	-11.349
▁Tih	-11.349
HDZ	-11.3491
▁struke	-11.3493
▁neobično	-11.3495
▁spremnost	-11.3502
net	-11.3503
▁Nov	-11.3507
▁Vam	-11.3508
▁snagama	-11.3508
▁Moskve	-11.3508
▁kulinarsk	-11.3508
▁reality	-11.3508
▁bombardira	-11.3508
▁Dallas	-11.3508
▁doduše	-11.3508
▁rundi	-11.3508
▁stotinu	-11.3508
▁1990.	-11.3508
▁komore	-11.3508
▁unatrag	-11.3508
▁zona	-11.3508
▁oborine	-11.3508
▁drame	-11.3508
▁razumijevanja	-11.3509
▁gospođa	-11.3509
▁poštovanja	-11.3509
▁Leonard	-11.3509
▁krizu	-11.3509
▁Australiji	-11.351
▁7-6	-11.351
▁zakonski	-11.351
vno	-11.351
▁kuhanje	-11.3511
▁zadobil	-11.3512
▁Fort	-11.3513
šut	-11.3513
▁nastojanj	-11.3515
▁usporava	-11.3516
▁inspektorat	-11.3517
▁Perković	-11.352
▁krši	-11.352
▁Lis	-11.3522
▁sportova	-11.3523
▁Idemo	-11.3523
▁financiranja	-11.3524
▁YouTube	-11.3525
▁poslovima	-11.3526
▁stvorili	-11.3529
▁kupnje	-11.353
▁primila	-11.3532
▁domova	-11.3533
▁kupili	-11.3533
yn	-11.3533
▁(2)	-11.3536
▁tvrdio	-11.3539
▁Kremlj	-11.354
▁stavila	-11.3541
▁olimpijski	-11.3541
▁pješa	-11.3543
▁dogovoru	-11.3545
▁podignut	-11.3545
▁ljudski	-11.3545
▁predložen	-11.3547
▁punim	-11.3551
▁turistička	-11.3552
uška	-11.3552
▁TZ	-11.3553
▁odlučn	-11.3553
▁poduze	-11.3553
▁Sjajn	-11.3555
▁razumijem	-11.3555
8)	-11.3555
▁Fred	-11.3558
▁crvenom	-11.3559
▁baza	-11.3565
▁osmini	-11.3569
▁transfera	-11.3575
▁započeli	-11.3576
06	-11.3577
▁vre	-11.3579
▁smanji	-11.3579
▁ocem	-11.3582
▁okružen	-11.3582
▁kotaru	-11.3584
▁kontejner	-11.3585
▁bogati	-11.3591
▁američkom	-11.3591
osa	-11.3592
▁Međimur	-11.3593
▁sportskom	-11.3595
▁održavati	-11.3596
▁sjever	-11.3597
▁savjeta	-11.3597
▁tla	-11.3598
▁prekidu	-11.36
▁investicijsk	-11.3601
▁predsjedničkih	-11.3603
Mislim	-11.3605
▁element	-11.3605
▁modni	-11.3606
▁iskustvom	-11.3608
▁Planira	-11.361
▁razv	-11.3612
ložila	-11.3613
▁župn	-11.3613
▁stručni	-11.3617
reb	-11.3618
ladi	-11.362
▁Glasnogovorni	-11.3622
▁Legendarn	-11.3622
▁Mbappe	-11.3622
▁bakterija	-11.3622
▁infekcije	-11.3622
▁intervencije	-11.3622
▁lokaciju	-11.3622
▁sudjelovanja	-11.3622
▁izvedbi	-11.3622
▁kratkoročn	-11.3622
▁ukraden	-11.3622
▁Jadrolinije	-11.3622
▁šume	-11.3622
▁Kapetan	-11.3622
▁ranjiv	-11.3622
▁Tokiju	-11.3622
▁kazalištu	-11.3622
▁Jordan	-11.3622
▁dućan	-11.3622
▁zakazan	-11.3622
▁Branimir	-11.3622
▁zaigrati	-11.3622
▁oborina	-11.3623
▁Brekalo	-11.3623
▁mrežn	-11.3623
▁napala	-11.3623
▁potragu	-11.3623
▁pomogla	-11.3624
▁dragi	-11.3624
▁Očito	-11.3624
▁majčin	-11.3624
▁bivšem	-11.3625
▁klase	-11.3625
▁segmentu	-11.3626
▁zemljište	-11.3628
▁sjeća	-11.3628
▁konstantno	-11.3629
▁Fre	-11.363
▁jasna	-11.3631
▁proširiti	-11.3631
break	-11.3631
▁kraljica	-11.3631
▁Srpski	-11.3631
▁župnik	-11.3632
▁zatvoriti	-11.3633
▁Ivanec	-11.3633
▁Zu	-11.3634
▁Angelesu	-11.3634
▁bje	-11.3635
▁vlastitih	-11.3638
▁najavljuju	-11.3638
▁seksualne	-11.3639
▁praćenje	-11.3639
▁turističkih	-11.3642
▁kriti	-11.3643
▁Nagrad	-11.3647
▁izražava	-11.3649
rali	-11.365
▁Lučić	-11.3651
▁poslovanju	-11.3651
▁hotelsk	-11.3652
▁čvor	-11.3652
▁testira	-11.3653
▁poslan	-11.3656
▁pripadnik	-11.3656
ranja	-11.3658
▁(18	-11.3659
▁klin	-11.3659
")	-11.3659
▁dočekuje	-11.3663
▁ugleda	-11.3665
▁glazbenih	-11.3666
▁određeno	-11.3666
▁3:0	-11.3668
▁Vojn	-11.367
▁privukla	-11.367
▁Gorana	-11.3674
▁konj	-11.3676
▁nakit	-11.3676
▁Opus	-11.3678
▁socijalni	-11.3678
dale	-11.3679
▁kupuju	-11.3679
▁izoliran	-11.368
▁seksualni	-11.368
▁pravima	-11.3682
▁splitske	-11.3684
Moj	-11.3684
rala	-11.3685
▁razumije	-11.3691
▁Ani	-11.3693
▁teškog	-11.3695
▁održivosti	-11.3697
▁meču	-11.3704
▁Beču	-11.3704
▁Francuz	-11.3704
▁Ten	-11.3705
snu	-11.3706
ologije	-11.3706
▁opasni	-11.3706
▁aktivist	-11.3708
▁Bruxellesu	-11.371
▁detaljn	-11.3711
▁uspješna	-11.3711
▁mještani	-11.3717
▁projekcij	-11.3719
Hrvatska	-11.372
▁gospo	-11.3721
eras	-11.3723
▁skupo	-11.3725
▁Ulice	-11.3727
▁Jean	-11.3729
Brak	-11.373
▁Ros	-11.3732
bama	-11.3732
▁osmi	-11.3733
lnog	-11.3737
▁dokumenata	-11.3737
▁eksplozije	-11.3737
▁glume	-11.3737
▁libanonsk	-11.3737
▁liječenju	-11.3737
▁medicinu	-11.3737
▁neprestano	-11.3737
▁nevremena	-11.3737
▁osoblja	-11.3737
▁pročelnik	-11.3737
▁sveučilišn	-11.3737
▁zlouporab	-11.3737
▁isplaćen	-11.3737
▁posljednju	-11.3737
▁svrhe	-11.3737
▁kretati	-11.3737
▁pripremn	-11.3737
▁Apple	-11.3737
▁Kristijan	-11.3737
▁pomoglo	-11.3737
▁Židov	-11.3737
▁vještak	-11.3737
▁imovinu	-11.3737
▁skladište	-11.3737
▁bombe	-11.3737
▁tražila	-11.3738
▁alternativn	-11.3738
▁ljeti	-11.3738
▁popisa	-11.3738
▁posvetiti	-11.3739
▁poštuju	-11.3739
▁prijepodne	-11.374
▁svemirsk	-11.374
▁navike	-11.3741
▁eventualno	-11.3743
▁Švedskoj	-11.3746
▁86	-11.3749
63	-11.375
▁prirodnih	-11.375
▁propisima	-11.375
▁kreveta	-11.3751
▁suglasnost	-11.3751
▁plo	-11.3752
ivjela	-11.3752
▁Treći	-11.3753
▁Dnevnika	-11.3753
▁prosječne	-11.3756
▁Leipzig	-11.3757
▁Kvarner	-11.3758
▁nazivaju	-11.3761
▁ponosna	-11.3761
▁fenomenaln	-11.3763
▁bake	-11.3763
▁24-	-11.3766
▁izlazn	-11.3766
nina	-11.3767
▁3,5	-11.3768
▁hibridn	-11.3768
jest	-11.3768
03	-11.377
▁ozbiljna	-11.3772
▁Talijani	-11.3773
▁jugoistočn	-11.3778
pul	-11.3779
▁nep	-11.378
▁ostanu	-11.378
dva	-11.378
▁konkretno	-11.3781
▁tužitelj	-11.3786
▁birati	-11.3787
▁probavn	-11.3787
▁99	-11.3788
▁Nekad	-11.3789
▁poslovnim	-11.3791
▁desno	-11.3793
):	-11.3795
▁kapetana	-11.3795
▁ukusn	-11.3798
▁opasn	-11.3798
▁povećal	-11.3798
▁obiteljskog	-11.3798
▁Nadal	-11.3798
▁Odjela	-11.3799
▁proziva	-11.3801
▁slovenski	-11.3801
▁Srpske	-11.3801
▁najvećem	-11.3803
▁mail	-11.3807
▁saveznik	-11.3809
▁plaćanje	-11.3811
▁She	-11.3811
▁mađarsk	-11.3813
jedni	-11.3814
▁načine	-11.3815
▁njenog	-11.3816
▁tužitelja	-11.3816
▁1,3	-11.3816
▁Ilić	-11.3817
▁Berlin	-11.3817
raju	-11.3818
▁ugostitelj	-11.3818
▁slijep	-11.3821
▁maslina	-11.3823
▁Kova	-11.3823
▁skupu	-11.3824
▁naučio	-11.3826
▁župana	-11.3826
▁nastupom	-11.383
▁uđe	-11.383
▁strogo	-11.3831
▁filozofij	-11.3833
▁fan	-11.3833
▁Dubrovačko	-11.3834
▁međunarodnog	-11.3835
▁Shi	-11.3841
▁Tad	-11.3843
mpl	-11.3844
▁komun	-11.3845
CI	-11.3848
▁Grupa	-11.3849
vicu	-11.3849
▁konvencij	-11.3853
▁rumunjsk	-11.3853
▁Vatrogasci	-11.3853
▁Zlatka	-11.3853
▁grmljavinsk	-11.3853
▁osmišljen	-11.3853
▁smrtonosn	-11.3853
▁opskrbe	-11.3853
▁povezati	-11.3853
▁1996.	-11.3853
▁Sanader	-11.3853
▁šansa	-11.3853
▁Christian	-11.3853
▁otežava	-11.3853
▁zamjena	-11.3853
▁srednju	-11.3853
▁brašno	-11.3853
▁ljepoti	-11.3853
▁Ferrari	-11.3853
▁naglasak	-11.3853
▁odgođen	-11.3853
▁pokazale	-11.3853
▁uvjeriti	-11.3853
▁mineral	-11.3853
▁ulagač	-11.3853
štvu	-11.3854
▁dokumentaciju	-11.3854
▁semafor	-11.3854
▁živjeli	-11.3854
▁otpjeva	-11.3854
▁kalorija	-11.3854
▁dojke	-11.3854
▁potrošnje	-11.3855
▁zavoj	-11.3855
▁sljedeću	-11.3855
▁Ljubi	-11.3855
▁preselio	-11.3855
▁Njemački	-11.3856
▁Narodn	-11.3857
▁pobjeći	-11.3857
▁svjež	-11.3857
▁Dvornik	-11.3858
▁uslijedila	-11.3859
-20	-11.386
▁šalice	-11.3862
▁Bidenov	-11.3862
▁negativne	-11.3863
▁vjere	-11.3863
▁zdravstvenom	-11.3863
▁isključi	-11.3865
▁ističući	-11.3866
lud	-11.3867
▁međunarodnih	-11.3868
▁smiren	-11.3869
▁sedmi	-11.3871
▁paziti	-11.3871
▁Dobra	-11.3873
▁NE	-11.3873
rine	-11.3874
▁zajedničkog	-11.3874
▁volimo	-11.3876
▁...	-11.3878
▁nacrt	-11.3878
OL	-11.3879
▁nadolazeće	-11.388
▁predvođen	-11.3881
▁Cam	-11.3881
▁najljepših	-11.3887
▁negira	-11.3888
▁Večernje	-11.3891
▁ručn	-11.3891
▁uredu	-11.3893
▁spavanje	-11.3893
njava	-11.3894
▁laboratorij	-11.3896
▁Gorskom	-11.3897
▁odlasku	-11.3898
▁standarda	-11.3898
▁putova	-11.3899
▁Vaše	-11.39
▁kuša	-11.3901
▁predstavnicima	-11.3902
▁božićni	-11.3904
▁utje	-11.3904
▁Đurđ	-11.3904
▁nečij	-11.3905
▁Sindikata	-11.3905
▁slovačk	-11.3905
▁192	-11.3907
▁lijevom	-11.3908
▁zaostatka	-11.391
▁sinom	-11.391
▁korisno	-11.3911
AC	-11.3912
▁Messi	-11.3912
▁privatnih	-11.3912
▁izazovi	-11.3912
▁raspoložen	-11.3913
▁povratn	-11.3913
▁olakšava	-11.3914
▁stručno	-11.3917
▁padne	-11.3919
▁povijesni	-11.392
▁turski	-11.392
▁pokoj	-11.3921
▁pitati	-11.3921
▁sudionike	-11.3921
▁bogatu	-11.3922
▁organizirali	-11.3923
očetkom	-11.3924
ijoj	-11.3928
▁obračun	-11.3928
još	-11.393
▁Tolik	-11.3931
▁povela	-11.3932
▁juga	-11.3932
▁uzbu	-11.3932
▁odigrala	-11.3935
▁zatra	-11.3935
▁položaja	-11.3939
ljene	-11.394
▁Splićani	-11.3941
▁zastava	-11.3941
▁MI	-11.3942
▁upala	-11.3943
▁France	-11.3944
▁rane	-11.3945
▁(9	-11.3949
44	-11.3952
kvi	-11.3953
▁kršenje	-11.3953
▁konkurentnost	-11.3953
▁kakvi	-11.3954
▁Australi	-11.3954
▁Koš	-11.3955
▁nužn	-11.3957
▁roditeljsk	-11.3959
▁Bosilj	-11.3959
▁Chelsea	-11.3963
▁vladajuć	-11.3965
▁Glo	-11.3967
▁parkiran	-11.3968
▁golu	-11.3968
▁ugrožava	-11.3969
▁staklen	-11.397
▁Stuttgart	-11.3971
▁iscrpljen	-11.3971
▁neprimjeren	-11.3971
▁COVID	-11.3971
▁Uostalom	-11.3971
▁Volkswagen	-11.3971
▁besplatan	-11.3971
▁doprinijeti	-11.3971
▁kvalitetne	-11.3971
▁pjesmi	-11.3971
▁portugalsk	-11.3971
▁proizlazi	-11.3971
▁upotrebu	-11.3971
▁uspomene	-11.3971
▁virtualn	-11.3971
▁vremenima	-11.3971
▁pristojn	-11.3971
▁želji	-11.3971
▁sankcija	-11.3971
▁tribini	-11.3971
▁uragan	-11.3971
▁najmlađe	-11.3971
▁tlu	-11.3971
▁geopolitičk	-11.3971
▁drugoplasiran	-11.3972
▁lokal	-11.3972
▁Vlašić	-11.3972
▁zaposli	-11.3972
▁edukativn	-11.3972
▁ustanovi	-11.3972
▁potvrdu	-11.3972
▁afere	-11.3973
▁francuske	-11.3973
▁Kolo	-11.3974
▁posvetio	-11.3974
▁uveden	-11.3974
▁odaziv	-11.3976
▁sjeverozapadni	-11.3976
▁činilo	-11.3977
▁crni	-11.3977
▁Kulenović	-11.3977
rray	-11.3978
02	-11.3978
kako	-11.3979
▁najvažniji	-11.3979
▁ovogodišnji	-11.3979
▁telefonsk	-11.398
▁Rib	-11.3981
▁nijedan	-11.3983
▁jasni	-11.3984
▁kliničk	-11.3985
▁Liam	-11.3986
▁glasanje	-11.3988
▁Komentira	-11.3989
▁olakšati	-11.3989
▁Brun	-11.399
▁žar	-11.399
▁povezane	-11.399
▁poboljšava	-11.3991
▁potvrđen	-11.3992
▁Q	-11.3993
▁zaposlenicima	-11.3995
39	-11.3995
▁Der	-11.3996
▁planet	-11.3996
▁optužbi	-11.3997
▁pristupiti	-11.3997
▁ruši	-11.3997
▁dugogodišnje	-11.3999
▁planova	-11.4
▁kupce	-11.4
▁uključival	-11.4004
▁Slobod	-11.4005
▁ring	-11.4006
▁1,2	-11.401
▁Rio	-11.4011
▁sajam	-11.4015
▁vrijedno	-11.4015
▁Dubrovački	-11.4016
▁vala	-11.4018
▁Poznati	-11.402
▁baze	-11.402
TV	-11.402
▁organ	-11.4023
▁Hvaru	-11.4025
▁alarm	-11.4025
▁preporuka	-11.4025
▁proizvođači	-11.4025
▁ovogodišnjem	-11.4026
DC	-11.4027
▁ubiti	-11.4031
▁Švicarske	-11.4032
uzeo	-11.4033
▁čuvati	-11.4036
vukao	-11.4038
list	-11.4038
▁ča	-11.4039
▁kandidate	-11.4042
▁plaćati	-11.4046
▁Rade	-11.4046
▁el	-11.4047
▁But	-11.4048
▁svečanosti	-11.4048
Ve	-11.4049
▁otkri	-11.4052
▁tehnika	-11.4054
▁provedbe	-11.4056
▁energetsku	-11.4057
▁kvart	-11.4057
tljiv	-11.4058
▁kro	-11.4058
čast	-11.406
▁vjeru	-11.4061
▁svjedoci	-11.4061
▁Deset	-11.4063
▁Sjeverna	-11.4065
▁državljani	-11.4067
▁suočavaju	-11.4068
VI	-11.4073
▁slavn	-11.4073
▁oblika	-11.4073
▁zarobljeni	-11.4074
▁administracij	-11.4079
▁zlatni	-11.4079
▁nestali	-11.408
▁5000	-11.4082
šek	-11.4083
▁pretjeran	-11.4083
▁upravi	-11.4086
▁zanimanje	-11.4087
▁raspolo	-11.4088
▁davati	-11.4088
▁Herceg	-11.409
▁Izložb	-11.409
▁Ubrzo	-11.409
▁izložbu	-11.409
▁kuhinje	-11.409
▁legende	-11.409
▁maksimum	-11.409
▁procjene	-11.409
▁skupštine	-11.409
▁stabala	-11.409
▁vlasnica	-11.409
▁Bošnjak	-11.409
▁srušen	-11.409
▁prekinuo	-11.409
▁titule	-11.409
▁1993.	-11.409
▁Dječje	-11.409
▁Velimir	-11.409
▁jednokratn	-11.409
▁anonimn	-11.409
▁summit	-11.409
▁2030.	-11.409
field	-11.409
▁kazalište	-11.4091
▁pauze	-11.4092
▁vatru	-11.4092
▁dija	-11.4092
▁protokol	-11.4094
▁parcel	-11.4094
▁slogan	-11.4094
▁Lje	-11.4095
▁prvakinja	-11.4095
▁očev	-11.4095
▁Hlad	-11.4095
dinu	-11.4097
▁popravi	-11.4099
▁uplati	-11.41
▁sirijsk	-11.4102
▁sankcije	-11.4104
▁fokusu	-11.4104
▁jezera	-11.411
▁produžen	-11.411
▁Pat	-11.411
▁podnosi	-11.4111
▁budite	-11.4112
▁elektro	-11.4112
▁Izgleda	-11.4114
▁190	-11.4115
▁vidu	-11.4117
▁Rođen	-11.4118
▁javiti	-11.412
▁Ivanom	-11.412
▁tumor	-11.4121
▁komunističk	-11.4121
▁(11	-11.4121
▁smanjenj	-11.4123
▁karaktera	-11.4123
VE	-11.4124
▁kruha	-11.4125
▁obilježavanja	-11.4126
već	-11.4127
▁općinsk	-11.4127
▁sapun	-11.4129
▁Hod	-11.4129
▁tren	-11.4132
▁Pored	-11.4132
▁optužio	-11.4135
bez	-11.4135
▁sportaš	-11.4135
▁znanstveni	-11.4136
▁dodijeli	-11.4138
▁izradi	-11.4138
▁poduzima	-11.4139
avno	-11.4143
▁bojim	-11.4144
UP	-11.4145
▁uzela	-11.4145
▁pretjerano	-11.4146
▁Olmo	-11.4148
▁čekali	-11.4149
▁reporter	-11.415
jar	-11.4155
▁zračni	-11.4158
58	-11.4159
▁bogata	-11.4159
▁ov	-11.4161
▁Borussije	-11.4162
▁Izraelsk	-11.4163
sil	-11.4164
▁Lana	-11.4164
▁Valentin	-11.4166
▁uzrokuju	-11.4172
▁Plenkoviću	-11.4173
▁kućama	-11.4176
▁pomogne	-11.4177
NE	-11.4177
▁sufinancira	-11.4178
ens	-11.4179
▁predviđeno	-11.4179
▁Lev	-11.418
▁Kluba	-11.418
▁Tea	-11.418
▁pobje	-11.419
▁doprinose	-11.4193
▁koalicijsk	-11.4193
▁staro	-11.4194
ert	-11.4195
▁sukobi	-11.4195
▁Pula	-11.4196
▁bazena	-11.42
▁prvotno	-11.4201
▁programima	-11.4201
rnu	-11.4202
▁stanovnike	-11.4203
▁ambijent	-11.4209
▁Bartulica	-11.421
▁Društven	-11.421
▁beogradsk	-11.421
▁dvojicu	-11.421
▁haljine	-11.421
▁mediteransk	-11.421
▁milijardu	-11.421
▁upotrebe	-11.421
▁vlasništvo	-11.421
í	-11.421
▁zahvaljujem	-11.421
▁Ivanišević	-11.421
▁PAOK	-11.421
▁potvrđuju	-11.421
▁isplate	-11.421
▁čarobn	-11.421
▁polovicu	-11.421
▁šarm	-11.421
▁poglavlj	-11.4211
▁oluje	-11.4211
▁gospodarske	-11.4211
med	-11.4212
▁predsjedničkim	-11.4212
▁Šibensko	-11.4212
▁sistem	-11.4212
▁istoimen	-11.4212
▁magazin	-11.4213
▁majkom	-11.4213
▁postojanja	-11.4214
▁podijeli	-11.4215
▁tehnike	-11.4217
▁kružn	-11.4218
▁Žene	-11.4219
▁pribli	-11.422
▁burn	-11.4221
▁društveni	-11.4221
▁kartona	-11.4221
▁snimili	-11.4222
▁uklanjanje	-11.4224
▁dugog	-11.4224
▁60-	-11.4224
▁domoljub	-11.4224
▁pozivam	-11.4225
▁vodič	-11.4226
▁sjedala	-11.4227
▁reklo	-11.4227
iste	-11.4228
▁Oleg	-11.4229
▁odrediti	-11.4229
▁potrošačk	-11.423
▁kuhan	-11.4231
▁Opatij	-11.4231
▁pregovorima	-11.4233
▁Gordana	-11.4236
▁Green	-11.4236
▁načelnika	-11.4238
▁Zagrebačka	-11.4239
▁strategija	-11.4239
▁reagirali	-11.4242
▁udala	-11.4242
bota	-11.4243
▁trgovinama	-11.4243
▁tehničke	-11.4245
▁parovi	-11.4245
▁kontrolirati	-11.4245
▁Ras	-11.4246
▁obećava	-11.4246
▁98	-11.4247
98	-11.4247
▁Međunarodnog	-11.4247
real	-11.4248
▁kop	-11.425
▁izjavama	-11.4251
▁Ureda	-11.4252
pola	-11.4253
▁studentima	-11.4257
▁muškarcima	-11.4257
▁pozicionira	-11.4257
▁pojačanje	-11.4258
▁vokal	-11.4258
▁izgledao	-11.4259
▁pratitelje	-11.4262
ekao	-11.4266
▁događajima	-11.4268
▁predvodi	-11.4269
▁sljedećem	-11.4269
▁Lee	-11.427
▁Dosta	-11.4271
▁pretpostavlja	-11.4272
▁potpisivanj	-11.4273
▁navedenog	-11.4275
▁Govore	-11.4275
▁iznositi	-11.4276
▁organizirala	-11.4276
▁uništava	-11.4277
▁razvoda	-11.4277
ćenje	-11.4278
▁otpornosti	-11.4278
▁članka	-11.4281
jedi	-11.4283
▁najva	-11.4283
▁boks	-11.4284
▁nadležnosti	-11.4285
elli	-11.4291
duži	-11.4292
▁desetke	-11.4292
▁proširen	-11.4293
▁isporu	-11.4294
nis	-11.4297
▁napadnut	-11.4298
Rim	-11.4301
▁Razv	-11.4301
▁večeru	-11.4301
▁Peru	-11.4301
▁jeste	-11.4308
▁dulji	-11.4309
▁profesorica	-11.431
sis	-11.431
▁Veliko	-11.4314
▁Rumunjska	-11.4314
▁izbio	-11.4314
▁favorita	-11.4315
▁Arsen	-11.4316
▁Donje	-11.4317
▁borili	-11.4318
▁masa	-11.4319
:15	-11.4319
▁lovi	-11.4322
▁standarde	-11.4322
▁pritvorsk	-11.4325
jin	-11.4331
▁ambicije	-11.4332
▁epizodu	-11.4332
▁koktel	-11.4332
▁mješavin	-11.4332
▁osobnu	-11.4332
▁postupke	-11.4332
▁televizije	-11.4332
▁površinu	-11.4332
▁tijelima	-11.4332
▁briljira	-11.4332
▁smisao	-11.4332
▁Predrag	-11.4332
▁stigne	-11.4332
▁duhovit	-11.4332
▁namjeru	-11.4333
▁pristao	-11.4333
IJE	-11.4333
▁2002.	-11.4333
▁glasovi	-11.4334
▁pisac	-11.4336
▁parišk	-11.4336
▁Pisa	-11.4337
▁oznake	-11.4337
▁zastoj	-11.4339
▁stanari	-11.434
▁lošij	-11.4344
▁kontinuiran	-11.4348
▁raspoloženje	-11.4348
▁Fri	-11.4351
rama	-11.4355
▁Čim	-11.4355
▁Osje	-11.4356
▁prepoznat	-11.4361
▁sućut	-11.4363
ivanju	-11.4363
▁zapad	-11.4363
▁ostalima	-11.4363
▁softver	-11.4363
▁pohvalila	-11.4363
▁upozorili	-11.4364
ištima	-11.4365
▁srčan	-11.4368
jedini	-11.4368
▁potpisali	-11.4369
▁konkurent	-11.4369
▁mode	-11.437
▁jesam	-11.4371
▁23-	-11.4371
▁rukometaši	-11.4373
▁ekološki	-11.4374
▁inspirira	-11.4374
▁Cur	-11.4375
▁tunela	-11.4375
▁putnici	-11.4377
nijim	-11.438
▁samoj	-11.4381
▁Rast	-11.4382
▁maslac	-11.4384
▁odgovorno	-11.4385
▁vjern	-11.4386
▁spomenik	-11.4388
▁izgledala	-11.4398
▁postizanje	-11.4401
▁konja	-11.4402
▁plakat	-11.4402
▁kanala	-11.4403
▁vizualn	-11.4405
▁povećao	-11.4406
Nema	-11.4409
▁poljoprivrednik	-11.4409
ivjeti	-11.4413
▁mete	-11.4414
▁automobilima	-11.4414
▁stopu	-11.4415
▁napuni	-11.4417
▁narativ	-11.4421
inkovit	-11.4421
▁ostavi	-11.4424
▁strašn	-11.4424
miješa	-11.4425
▁loših	-11.4429
▁šesti	-11.4434
46	-11.4434
▁bacio	-11.4435
▁Nastup	-11.4435
▁pretvoril	-11.4436
▁BI	-11.4437
▁1,4	-11.4439
kasnije	-11.4439
▁ponosno	-11.444
▁balon	-11.4443
▁bolj	-11.4443
▁Općinsko	-11.4443
▁najmlađi	-11.4445
▁birači	-11.4446
▁plaža	-11.4446
▁Večer	-11.4447
▁ovogodišnje	-11.4449
▁okvira	-11.4455
▁Ljubljani	-11.4456
▁Vrhovnog	-11.4456
▁eliminira	-11.4456
▁kombinacije	-11.4456
▁koncentracija	-11.4456
▁obnavlja	-11.4456
▁ozljedu	-11.4456
▁platformu	-11.4456
▁poslodavci	-11.4456
▁procjenu	-11.4456
▁jednostavna	-11.4456
▁režiji	-11.4456
▁Knoll	-11.4456
▁okrenuo	-11.4456
▁vukovarsk	-11.4456
▁Zemlje	-11.4456
▁smjene	-11.4456
▁Mirjana	-11.4456
▁inovacije	-11.4456
▁Jednom	-11.4456
▁Podravsk	-11.4456
▁Koreje	-11.4456
▁blizak	-11.4456
▁Posavec	-11.4456
▁postignuća	-11.4456
▁gostovanje	-11.4456
▁stajališta	-11.4456
▁proljeća	-11.4456
▁odlične	-11.4456
▁strastven	-11.4456
▁HEP	-11.4457
▁proteklog	-11.4457
▁Mlinarić	-11.4457
▁groblju	-11.4457
▁3-2	-11.4458
▁2-2	-11.4459
▁strahu	-11.4459
▁izrađen	-11.4459
▁igralište	-11.4459
▁normalan	-11.4459
▁(1)	-11.446
▁radikaln	-11.446
▁zbivanja	-11.446
▁tajnika	-11.446
▁planovi	-11.4461
▁zabavno	-11.4461
▁ispravno	-11.4461
▁pokreće	-11.4461
▁upravitelj	-11.4462
▁nastavu	-11.4462
▁rodnom	-11.4463
KO	-11.4465
▁potonu	-11.4465
▁Fir	-11.4466
▁Zaprešić	-11.4466
▁proizveden	-11.4467
Ho	-11.4467
▁kupljen	-11.4467
▁Podgor	-11.4467
▁upute	-11.4468
▁prostorijama	-11.447
▁Kolar	-11.4471
▁znaku	-11.4476
ness	-11.4476
▁Lovro	-11.4479
▁pojavili	-11.4479
▁dovoljna	-11.4482
džić	-11.4482
▁filmove	-11.4482
▁Tony	-11.4483
▁kreativnost	-11.4483
▁Bruxelles	-11.4485
▁kategorijama	-11.4485
▁tenisačica	-11.4485
▁Jedn	-11.4486
▁natjecatelja	-11.4489
▁članku	-11.4496
▁pozivu	-11.4497
▁Bivša	-11.4497
▁korijen	-11.4497
▁trake	-11.45
In	-11.4504
▁mirni	-11.4506
ajna	-11.4507
odaci	-11.4508
▁glazbena	-11.4508
▁ispada	-11.4508
▁vruć	-11.451
▁dokazati	-11.4512
ljuju	-11.4512
▁tempo	-11.4512
▁slabo	-11.4513
▁saznal	-11.4514
▁boksačk	-11.4514
ord	-11.4514
▁klasik	-11.4515
▁rekorder	-11.4516
▁volite	-11.4517
▁ruka	-11.4521
▁kotač	-11.4523
▁Francuski	-11.4523
▁kava	-11.4525
▁Ok	-11.4527
žena	-11.4528
▁lokalnom	-11.4528
▁Božje	-11.4529
▁press	-11.4531
čnih	-11.4532
mann	-11.4535
▁Williams	-11.4539
▁pretra	-11.4539
▁javnoj	-11.4539
▁Matea	-11.4543
rve	-11.4544
▁Posebn	-11.4545
pala	-11.4545
▁platio	-11.4546
▁drugoga	-11.4548
rok	-11.4549
▁potvr	-11.455
/1	-11.4552
stein	-11.4557
▁jedanaest	-11.4557
▁razredu	-11.4559
▁kamiona	-11.456
▁poslovi	-11.4561
zovi	-11.4561
▁Trst	-11.4564
▁tužitelji	-11.4565
▁realizira	-11.4567
▁obaln	-11.4572
▁saznali	-11.4573
▁svlada	-11.4574
▁kritizirao	-11.4575
▁krenu	-11.4575
▁uživanje	-11.4575
▁počet	-11.4576
Braka	-11.4577
▁Direkt	-11.4577
▁Kas	-11.4579
gori	-11.458
▁postupanje	-11.4581
▁psiho	-11.4581
▁Lasagne	-11.4581
▁dobrovoljn	-11.4581
▁gradonačelnic	-11.4581
▁kriptovaluta	-11.4581
▁nagrađivan	-11.4581
▁oporavlja	-11.4581
▁podrijetla	-11.4581
▁posudbu	-11.4581
▁skupštini	-11.4581
▁londonsk	-11.4581
▁pismu	-11.4581
▁drugačija	-11.4581
▁mjeru	-11.4581
▁podzemn	-11.4581
▁1994.	-11.4581
▁pjevati	-11.4581
▁Jasmin	-11.4581
▁Win	-11.4581
▁ogorčen	-11.4581
▁dodjelu	-11.4581
▁ekonomske	-11.4581
86	-11.4581
▁Karlovac	-11.4582
▁ultra	-11.4582
▁Story	-11.4582
▁mišića	-11.4584
▁boksa	-11.4584
▁Index	-11.4585
▁smiri	-11.4587
▁zvali	-11.4587
▁Moje	-11.4587
▁večernji	-11.4587
▁Najavi	-11.4588
▁boksač	-11.4588
▁stajati	-11.4588
▁oružjem	-11.4592
bet	-11.4592
low	-11.4594
▁uzrast	-11.4597
▁donošenja	-11.4597
▁povući	-11.4597
▁trans	-11.4597
▁značilo	-11.4597
▁vanjski	-11.4598
▁Meštrović	-11.4599
▁nastaje	-11.46
▁romanti	-11.4601
ring	-11.4602
▁Ag	-11.4604
▁ozbiljnije	-11.4605
▁lažn	-11.4608
▁nepovoljn	-11.4609
▁dječjeg	-11.461
▁putovati	-11.461
▁Black	-11.4613
▁javili	-11.4613
▁generalno	-11.4613
▁sredinu	-11.4619
▁pora	-11.462
▁sjevern	-11.4621
▁Stvar	-11.4623
▁ukupnog	-11.4623
▁otkriveno	-11.4624
▁40-	-11.4626
▁naslovom	-11.4626
▁suze	-11.4627
▁Roman	-11.4628
dijeli	-11.4628
▁89	-11.4631
▁ozbiljnij	-11.4631
▁91	-11.4631
▁produž	-11.4632
▁trenirati	-11.4633
set	-11.4634
▁kaš	-11.4635
ges	-11.4636
cho	-11.4639
▁truda	-11.464
▁istok	-11.464
▁zatvorsk	-11.4643
▁Veliku	-11.4644
▁saznao	-11.4644
lana	-11.4645
▁pričao	-11.4645
▁Tagi	-11.4652
▁živim	-11.4653
▁Tam	-11.4656
▁prov	-11.4664
▁vezn	-11.4665
▁dokaze	-11.4666
▁grupacij	-11.4666
▁adekvatn	-11.4667
▁Pres	-11.4675
▁starijim	-11.4677
▁kupova	-11.4679
▁pravog	-11.468
zemlj	-11.468
▁donira	-11.4681
▁ratnog	-11.4681
▁oduševljenje	-11.4682
▁praćen	-11.4682
▁Anđel	-11.4684
▁ljetni	-11.4686
vcu	-11.4687
▁vitamina	-11.4687
▁priključi	-11.4687
▁poveća	-11.4689
▁pobjednici	-11.4695
▁5'	-11.4697
▁pokrenuli	-11.47
▁Fra	-11.4701
▁ljuti	-11.4701
novo	-11.4702
▁objavljenom	-11.4702
▁zabilje	-11.4702
▁izjednačen	-11.4705
▁Instituta	-11.4705
▁korisn	-11.4706
▁srbijansk	-11.4707
▁čokolade	-11.4707
▁Mirror	-11.4707
▁turneje	-11.4707
▁tvornice	-11.4707
▁Italiju	-11.4707
▁Susret	-11.4707
▁budžet	-11.4707
▁gostovanja	-11.4707
▁Junior	-11.4707
▁nedjelja	-11.4707
▁mljeven	-11.4707
▁poznaju	-11.4707
▁uhitila	-11.4707
▁bijelu	-11.4708
▁autoritet	-11.4708
▁nepravilnosti	-11.4708
▁zagrebačka	-11.4709
▁Gretić	-11.4709
▁Bon	-11.4709
▁crvene	-11.471
▁sustavi	-11.471
▁Objavljen	-11.4711
▁Stigl	-11.4712
▁zimi	-11.4713
▁tjednima	-11.4713
▁priuštiti	-11.4713
▁odjeven	-11.4713
▁Pala	-11.4715
▁Svakako	-11.4716
▁katastrofaln	-11.4716
▁palače	-11.4718
▁Mađarskoj	-11.4718
▁Zakonu	-11.4719
link	-11.4721
▁predaje	-11.4722
▁odnio	-11.4722
mes	-11.4723
đeno	-11.4725
▁napustili	-11.4725
▁filmske	-11.4726
▁piva	-11.4728
maz	-11.4729
▁omiljeni	-11.473
▁Jane	-11.4732
▁taktičk	-11.4732
▁Činjenic	-11.4733
▁doznati	-11.4733
▁kratke	-11.4733
▁nekima	-11.4734
▁globalni	-11.4735
▁promašio	-11.4737
▁aerodrom	-11.4739
▁omogućio	-11.4741
▁čekamo	-11.4743
▁Mariju	-11.4746
▁Plenkovićev	-11.4746
▁sličnim	-11.4746
▁bračn	-11.4747
▁standardima	-11.4747
▁udru	-11.4748
▁završetak	-11.4748
▁Ray	-11.4749
▁potpisati	-11.4749
▁Varaždinska	-11.4752
▁noću	-11.4752
▁kriminala	-11.4754
▁pohod	-11.4754
▁sveobuhvatn	-11.4755
▁predao	-11.4755
▁časnik	-11.4756
▁pridružiti	-11.4758
licom	-11.4759
▁istražni	-11.4762
▁kip	-11.4764
▁Baj	-11.4766
▁tradicionalni	-11.4768
▁kontinent	-11.4769
staju	-11.4769
▁vrućina	-11.477
▁suveren	-11.4772
▁zadovoljava	-11.4776
▁koristeć	-11.4776
▁koristila	-11.4777
▁nagradn	-11.4778
▁Prizna	-11.4779
▁80-	-11.478
▁Živ	-11.478
▁gostujući	-11.4784
▁sile	-11.4785
▁osjećaje	-11.4786
▁određena	-11.4786
▁režima	-11.4787
▁Valentina	-11.4788
▁Matt	-11.4789
ovina	-11.479
▁RA	-11.4792
▁centraln	-11.4794
▁slabije	-11.4797
▁kaznenu	-11.4798
▁odražava	-11.4799
sred	-11.4799
▁Njem	-11.48
▁Mata	-11.48
▁pojedinaca	-11.4801
▁hvata	-11.4801
▁zaustavlja	-11.4803
▁uzme	-11.4805
▁dostupnost	-11.4805
▁zasluženo	-11.4805
▁zaradi	-11.4806
▁nastupao	-11.4809
▁nebu	-11.4809
▁osumnjičen	-11.481
▁događaji	-11.481
▁NO	-11.4811
kupan	-11.4814
▁May	-11.4815
▁dakako	-11.4815
sam	-11.4816
▁22-	-11.4817
▁trenutn	-11.4817
▁probi	-11.4822
▁kraće	-11.4824
▁bojn	-11.4828
▁orkestra	-11.483
94	-11.4831
▁hrabro	-11.4831
▁raskošn	-11.4833
▁provođenje	-11.4834
▁svjetlu	-11.4835
▁administrativn	-11.4835
▁atmosfere	-11.4835
▁djevojčicu	-11.4835
▁edukacije	-11.4835
▁inspiracija	-11.4835
▁jogurt	-11.4835
▁ocjena	-11.4835
▁optimaln	-11.4835
▁prebivalište	-11.4835
▁prisutna	-11.4835
▁cijenjen	-11.4835
▁napla	-11.4835
▁pozornice	-11.4835
▁Doduše	-11.4835
▁Jelačića	-11.4835
▁napušten	-11.4835
▁promociju	-11.4835
▁bankovn	-11.4835
▁glazbom	-11.4835
▁princeze	-11.4835
▁anketi	-11.4835
▁npr	-11.4835
▁poretku	-11.4835
▁1989.	-11.4835
▁Povod	-11.4836
▁terapije	-11.4836
▁Crkva	-11.4836
▁Istovremeno	-11.4836
▁bonus	-11.4836
▁Slavonije	-11.4836
▁struktura	-11.4836
▁Dalibor	-11.4836
▁popunjen	-11.4836
▁pulsk	-11.4836
▁Porezn	-11.4837
▁polje	-11.4837
▁ogradu	-11.4837
▁konzervativn	-11.4838
▁pojavljuju	-11.4838
▁Sokol	-11.4839
▁spremi	-11.4839
▁igrališta	-11.4839
▁Srba	-11.484
▁Vidjet	-11.4841
▁usklađen	-11.4842
▁zastave	-11.4842
▁Barišić	-11.4842
▁godišnjicu	-11.4842
▁objašnjenje	-11.4843
▁Švicarskoj	-11.4844
▁uništiti	-11.4845
▁nazad	-11.4846
▁odbijen	-11.4849
▁hitove	-11.485
▁Glumica	-11.4852
▁održavanju	-11.4852
▁kafića	-11.4854
▁3000	-11.4855
▁padati	-11.4855
▁domove	-11.4855
▁postojeć	-11.4856
▁Plavi	-11.4856
▁izvode	-11.4857
tječe	-11.4857
▁stanovanja	-11.4858
▁Burić	-11.4859
▁Danska	-11.4861
▁Najmanje	-11.4861
▁dogovorio	-11.4863
▁glazbenog	-11.4864
▁ušted	-11.4867
▁zanimalo	-11.4867
▁postotak	-11.4868
▁riješili	-11.4871
elio	-11.4872
▁prosjek	-11.4872
▁Majer	-11.4874
rade	-11.4877
ženje	-11.4879
nesu	-11.4879
▁udaraca	-11.4882
▁znakovi	-11.4882
▁prili	-11.4885
▁pokretu	-11.4886
▁Islamsk	-11.4887
siti	-11.4888
▁pokretanje	-11.489
▁rijetkih	-11.4892
▁četvoric	-11.4895
▁vatreni	-11.4896
gal	-11.4897
▁daljnjeg	-11.4898
▁Tajvan	-11.4901
▁Spomen	-11.4902
▁tlaka	-11.4902
▁Hal	-11.4902
▁kopa	-11.4903
ajmo	-11.4904
godišnjoj	-11.4905
▁Svako	-11.4906
▁stjecanj	-11.4907
gnuti	-11.4908
▁Temperatura	-11.4909
▁drag	-11.4911
▁brze	-11.4913
inski	-11.4913
▁pridru	-11.4913
tas	-11.4916
▁Preko	-11.4919
▁treneri	-11.4919
▁Perišića	-11.4922
▁pronađe	-11.4923
▁110	-11.4923
Ni	-11.4925
kakve	-11.4929
▁Lea	-11.4931
▁struka	-11.4931
▁ostavit	-11.4933
▁pokuša	-11.4933
▁Švicarska	-11.4934
▁zakone	-11.4934
▁Brat	-11.4936
▁neposredn	-11.4937
▁odbacio	-11.4939
▁potvrđeno	-11.4943
▁izvedba	-11.4945
▁objekte	-11.4946
▁Gennaro	-11.4946
▁radnik	-11.4947
▁razlozi	-11.4947
▁otp	-11.4948
▁pratila	-11.4949
služi	-11.4949
▁tijek	-11.4956
gdje	-11.4959
▁motorn	-11.4961
▁stožeru	-11.4962
▁foto	-11.4963
▁psihijatr	-11.4964
▁Otka	-11.4965
′	-11.4965
▁evakuacij	-11.4965
▁Atletico	-11.4965
▁Dalmaciju	-11.4965
▁australsk	-11.4965
▁elemenata	-11.4965
▁estetsk	-11.4965
▁inozemstva	-11.4965
▁prognoze	-11.4965
▁vožnja	-11.4965
▁reforme	-11.4965
▁ostvaruje	-11.4965
▁strpljiv	-11.4965
▁fasad	-11.4965
▁sjevernokorejsk	-11.4965
▁presudu	-11.4965
▁investira	-11.4965
▁preduvjet	-11.4965
▁presti	-11.4966
▁naprosto	-11.4966
▁sporedn	-11.4966
▁karata	-11.4966
▁igrom	-11.4966
▁suočiti	-11.4967
▁uložiti	-11.4968
▁otrov	-11.4968
▁Princ	-11.4968
▁ružn	-11.4968
rgan	-11.4969
▁povjerenik	-11.4969
▁nogometnom	-11.4969
▁koristite	-11.4969
▁sastojke	-11.497
▁odvaja	-11.4973
▁iskoristi	-11.4973
▁boce	-11.4973
▁sestara	-11.4974
▁pravda	-11.4975
▁odraz	-11.4976
▁kakvim	-11.4976
▁iznenaditi	-11.4977
▁Gro	-11.4977
nički	-11.498
▁vrijedni	-11.4982
▁višak	-11.4982
▁okrugl	-11.4982
▁modeli	-11.4983
▁kulturn	-11.4986
▁lijevog	-11.4988
▁izvođenje	-11.4988
▁odjevn	-11.499
▁prošlom	-11.4991
▁očuvanj	-11.4995
▁odvod	-11.4996
▁isprati	-11.4996
▁Državama	-11.5001
SI	-11.5001
tovi	-11.5002
▁središnji	-11.5003
▁ukupni	-11.5005
▁Sinja	-11.5008
▁realiziran	-11.5009
▁sustavom	-11.5011
▁pravobranitelj	-11.5011
▁rijetki	-11.5013
nny	-11.5016
▁ostvarenje	-11.5018
▁trudna	-11.5021
bilo	-11.5022
evima	-11.5023
▁kompliciran	-11.5026
AS	-11.5027
▁ideološk	-11.5029
▁razmišljanje	-11.5033
▁Bell	-11.5037
▁identificira	-11.5041
▁djevoj	-11.5043
kazao	-11.5044
▁grah	-11.5046
▁glavno	-11.5047
▁omogućil	-11.5047
▁Hajdukom	-11.5047
letjeti	-11.5052
▁sportom	-11.5052
▁nizozemsk	-11.5052
▁kriju	-11.5053
▁povezana	-11.5053
▁Rezultat	-11.5054
▁Budi	-11.5055
▁Balkanu	-11.5056
▁Nizozemske	-11.5058
▁rukometaš	-11.5059
▁planiranje	-11.506
neretvanske	-11.5065
▁sklopi	-11.5066
▁sjede	-11.5068
▁suditi	-11.5074
▁šalju	-11.5074
▁domet	-11.5075
rva	-11.5076
▁šokira	-11.5077
▁očevida	-11.5078
▁postal	-11.5078
rel	-11.5081
▁Očekujem	-11.5083
▁suradnika	-11.5084
▁prihvat	-11.5086
▁pozitivn	-11.5087
▁Rob	-11.5088
▁Gorsk	-11.509
▁legaln	-11.509
▁Mostaru	-11.509
▁disciplini	-11.509
plasiran	-11.5091
▁Engleska	-11.5097
▁pravomoćn	-11.5097
▁Celzijevih	-11.5097
▁Istodobno	-11.5097
▁Kolumbij	-11.5097
▁Krunoslav	-11.5097
▁osobna	-11.5097
▁poskupljenj	-11.5097
▁pridonijeti	-11.5097
▁sveučilišta	-11.5097
▁tržištima	-11.5097
▁izvukli	-11.5097
▁upućuje	-11.5097
▁Street	-11.5097
▁skandira	-11.5097
▁industriju	-11.5097
▁porasle	-11.5097
▁zauzela	-11.5097
▁plivač	-11.5097
▁tvornica	-11.5097
▁Club	-11.5097
▁Tyson	-11.5097
▁polovica	-11.5097
▁viraln	-11.5098
▁opoziv	-11.5098
▁živjela	-11.5098
▁zdravstvu	-11.5099
▁Johnson	-11.5099
▁mirisa	-11.5099
▁Tajland	-11.5099
▁Radovan	-11.5099
▁osnivanj	-11.51
▁pozdravlja	-11.5101
▁odgaja	-11.5101
▁organiziraju	-11.5103
▁starosti	-11.5103
▁kaj	-11.5103
▁članstvo	-11.5104
▁stola	-11.5104
▁Sh	-11.5104
▁33.	-11.5105
▁dizajniran	-11.5107
▁otopi	-11.5107
well	-11.5109
▁Gospić	-11.5109
▁dogovoriti	-11.511
▁sprječava	-11.511
▁golovima	-11.5112
▁Svoje	-11.5112
▁istražiti	-11.5114
▁širem	-11.5117
▁Piše	-11.5118
živali	-11.5118
▁predstojeć	-11.5119
▁dizajna	-11.512
▁kupila	-11.5123
▁filmovima	-11.5123
▁uključiti	-11.5124
pravu	-11.5125
ivim	-11.5126
▁volonter	-11.5127
služb	-11.5129
▁izračuna	-11.5129
▁ugro	-11.5131
▁golove	-11.5131
▁španjolskog	-11.5132
krat	-11.5132
▁ligašk	-11.5132
▁tepih	-11.5136
▁prikupil	-11.5137
▁povezanosti	-11.514
▁vreć	-11.5141
▁bočn	-11.5143
▁predložil	-11.5146
▁Bitno	-11.5148
▁Grupe	-11.5149
▁transformacije	-11.5154
▁tajnica	-11.5154
▁zajedničkom	-11.5156
▁novogodišnj	-11.5156
▁provedeno	-11.5156
▁starom	-11.5158
terapij	-11.516
▁postotn	-11.516
▁provo	-11.516
▁najbitnije	-11.5162
▁pridržava	-11.5162
▁svjedo	-11.5163
▁robu	-11.5164
▁zločine	-11.5165
▁priopćili	-11.5165
▁pacijente	-11.5167
pustila	-11.5167
▁bliži	-11.5168
▁Zrinka	-11.517
▁sadašnji	-11.5171
lada	-11.5171
▁Francuzi	-11.5174
▁spomenika	-11.5176
▁Pokuša	-11.5177
▁emotivno	-11.5177
▁promjenjiv	-11.5179
tović	-11.518
▁profesionalno	-11.5181
▁učenje	-11.5181
▁nezadovoljni	-11.5181
▁tramvajsk	-11.5181
▁nastupi	-11.5183
▁seksu	-11.5185
▁drven	-11.5185
▁natpis	-11.5186
▁Moguće	-11.5187
▁veselje	-11.5189
▁Krim	-11.5191
▁prikazuju	-11.5191
▁plinom	-11.5193
▁inter	-11.5194
▁Samobor	-11.5195
▁istinski	-11.5196
▁pečen	-11.5202
▁najpoznatiji	-11.5204
▁rusko	-11.5205
lagati	-11.5206
▁Ven	-11.5207
▁privremeni	-11.5207
izaciji	-11.5208
▁Solin	-11.5209
▁brzi	-11.5212
▁modu	-11.5214
Naš	-11.5215
▁stradao	-11.5216
▁spremnik	-11.5218
▁sportska	-11.5219
smrt	-11.5219
▁nacionalnim	-11.5219
▁rusku	-11.522
▁Bir	-11.5223
▁Unije	-11.5226
▁posvećena	-11.5226
▁toplinski	-11.5227
▁kirurg	-11.5229
knuo	-11.5229
▁debitirao	-11.523
▁kuhinju	-11.523
▁nedjeljom	-11.523
▁nevjerojatan	-11.523
▁objavom	-11.523
▁ocjene	-11.523
▁percepcij	-11.523
▁pridonosi	-11.523
▁tradicijsk	-11.523
▁tromjesečju	-11.523
text	-11.523
▁vodostaj	-11.523
▁trgovinsk	-11.523
▁usamljen	-11.523
▁odustao	-11.523
▁prikladn	-11.523
▁zanemariv	-11.523
▁postaji	-11.523
▁uvođenja	-11.523
▁ljepota	-11.523
▁dojavu	-11.523
▁Justin	-11.523
▁pisme	-11.523
▁postigla	-11.5231
▁poslom	-11.5231
▁osjetno	-11.5231
▁nadzorniku	-11.5231
▁talaca	-11.5232
▁2001.	-11.5233
▁privući	-11.5233
▁digl	-11.5235
▁Davis	-11.5235
▁volju	-11.5235
▁idealan	-11.5235
▁Serie	-11.5235
▁Svijet	-11.5235
▁Ameriku	-11.5238
▁duša	-11.5238
▁najavi	-11.5239
▁općini	-11.524
▁Nepal	-11.524
▁Kaštel	-11.524
▁znoj	-11.5244
▁dalek	-11.5247
njoj	-11.5248
▁primjene	-11.5249
▁tematsk	-11.525
▁govoreći	-11.5252
▁Mac	-11.5253
site	-11.5254
▁ustavni	-11.5254
▁Liga	-11.5254
▁četvrtom	-11.5254
▁četvrta	-11.5256
▁polovin	-11.5257
▁Najbolje	-11.5257
▁Objav	-11.5258
▁sjeda	-11.5258
▁21-	-11.5258
59	-11.5259
▁posjetili	-11.5259
▁Poljak	-11.5259
▁mlađa	-11.5262
▁znakova	-11.5262
visi	-11.5263
▁trajalo	-11.5264
skop	-11.5266
▁Mama	-11.5269
▁odjelu	-11.5269
▁vodećih	-11.527
▁osjećate	-11.527
EP	-11.5271
▁milijune	-11.5271
▁prethodn	-11.5273
▁najpopularnijih	-11.5273
▁ljutit	-11.5275
▁provedbi	-11.5275
▁Izraelski	-11.5275
▁postavili	-11.5276
▁diplomat	-11.5278
▁vladaju	-11.5278
▁93	-11.528
▁kampu	-11.528
▁struju	-11.5281
▁krizi	-11.5283
pas	-11.5284
▁Kosova	-11.5284
▁domaću	-11.5285
▁ulogama	-11.5287
▁treneru	-11.5288
▁dostavlja	-11.5289
▁europsko	-11.5291
▁prijedlogu	-11.5292
▁spomenute	-11.5293
račun	-11.5294
▁silu	-11.5296
▁prirodnim	-11.5296
▁čista	-11.5298
▁različiti	-11.5298
racija	-11.5298
ujka	-11.53
▁predškolsk	-11.5302
▁Promet	-11.5302
lasku	-11.5303
▁Domu	-11.5303
▁napora	-11.5305
▁Sindikat	-11.5305
▁Prometn	-11.5307
▁HV	-11.5307
▁Šal	-11.5308
▁snove	-11.5308
▁nivou	-11.5309
▁Koja	-11.5309
▁Nj	-11.531
▁fonda	-11.5311
▁Zapada	-11.5311
pisuje	-11.5314
▁strasti	-11.5315
▁starim	-11.5317
▁hrabrosti	-11.5318
▁Washingtonu	-11.532
▁Istanbul	-11.5321
▁žestoko	-11.5323
▁piti	-11.5323
▁konobar	-11.5324
▁trenuta	-11.5324
▁okupil	-11.5326
▁Odjel	-11.5327
▁nezakonito	-11.5329
▁vrući	-11.5331
▁prikupi	-11.5332
▁privlačn	-11.5332
vezan	-11.5333
▁hobi	-11.5333
▁najljepši	-11.5334
▁dosadašnj	-11.5335
▁Kane	-11.5337
▁iznimn	-11.5338
▁tuš	-11.5339
▁Noć	-11.5341
▁you	-11.5347
▁fokusiran	-11.5349
▁proda	-11.535
gur	-11.535
▁izbjegava	-11.5351
▁dometa	-11.5352
▁kolona	-11.5353
▁propustiti	-11.5357
▁olakša	-11.5358
nsku	-11.5359
▁prizna	-11.5359
hot	-11.5359
▁nepotrebn	-11.5359
▁hrp	-11.536
▁Ran	-11.5361
▁Sever	-11.5362
kninske	-11.5362
ložili	-11.5363
▁glasno	-11.5363
▁Affleck	-11.5365
▁Bejrut	-11.5365
▁Britanije	-11.5365
▁Suprug	-11.5365
▁holivudsk	-11.5365
▁ljepotu	-11.5365
▁mržnje	-11.5365
▁posvuda	-11.5365
▁realizaciju	-11.5365
▁repertoar	-11.5365
▁zaprimljen	-11.5365
▁Primorsko	-11.5365
▁Ulaznice	-11.5365
▁Gabrijel	-11.5365
▁Promjen	-11.5365
▁Sadu	-11.5365
▁zlatne	-11.5365
▁snježn	-11.5365
▁pokvari	-11.5365
▁jabuka	-11.5365
▁maraton	-11.5365
▁krš	-11.5366
▁sjet	-11.5366
▁mnogobrojn	-11.5366
▁(42)	-11.5366
▁Koreja	-11.5366
▁polovice	-11.5366
▁navikli	-11.5366
▁vlažn	-11.5366
▁problematičn	-11.5367
▁dokumentacije	-11.5367
▁nabava	-11.5367
▁Orešković	-11.5367
▁Turskoj	-11.5367
▁Makedonije	-11.5367
▁oblasti	-11.5367
▁jugoslavensk	-11.5368
▁vjenčani	-11.5368
▁zbroj	-11.5368
▁Iduć	-11.5369
▁Monaco	-11.5369
▁rublja	-11.537
▁Akcij	-11.537
▁račune	-11.537
▁140	-11.5372
▁napustila	-11.5372
▁azijsk	-11.5373
▁imenima	-11.5373
▁Poznato	-11.5374
▁smiješn	-11.5374
▁anga	-11.5375
▁zaslon	-11.5376
▁brane	-11.5376
▁glumice	-11.5377
▁manj	-11.5377
▁Slovačk	-11.538
▁Studija	-11.538
▁poezij	-11.538
▁proval	-11.5381
▁Vjer	-11.5382
▁Domin	-11.5383
▁krivnju	-11.5383
▁sustavima	-11.5383
▁odrasli	-11.5384
ning	-11.5384
▁očekujem	-11.5385
▁koži	-11.5385
▁Strank	-11.5389
▁zgodn	-11.539
▁kandidirati	-11.5392
▁smanjuju	-11.5393
▁duha	-11.5393
[...]
