<unk>	0
<s>	0
</s>	0
▁a	-3.33425
▁u	-3.40832
▁i	-3.43024
▁,	-3.73386
▁e	-3.83917
▁.	-3.87968
▁je	-4.05027
▁o	-4.11309
▁s	-4.1536
n	-4.26892
▁	-4.37812
▁na	-4.4053
▁p	-4.73436
▁po	-4.77545
▁za	-4.8098
o	-4.86427
a	-4.95814
r	-4.97298
▁;	-5.03007
▁&	-5.04142
▁se	-5.04851
e	-5.05542
▁da	-5.12979
▁om	-5.18521
▁su	-5.25442
▁od	-5.26138
t	-5.3032
▁t	-5.3269
j	-5.35986
▁"	-5.37783
▁on	-5.38884
▁ne	-5.45324
▁k	-5.45968
▁-	-5.50628
▁do	-5.5066
i	-5.53855
▁iz	-5.5427
▁m	-5.57787
▁pro	-5.60208
k	-5.61328
▁d	-5.65431
▁c	-5.66122
l	-5.71047
▁S	-5.77952
▁ih	-5.78937
▁0	-5.82829
s	-5.9373
▁v	-5.94718
▁2	-5.94745
▁n	-5.9569
u	-5.97184
▁pri	-5.97299
▁io	-5.99786
▁og	-6.00524
▁koji	-6.03831
▁pre	-6.05277
m	-6.05986
▁B	-6.0599
▁im	-6.06016
▁P	-6.08364
▁b	-6.10168
▁iti	-6.11083
▁ima	-6.11567
▁D	-6.12665
▁će	-6.16713
▁godi	-6.17006
▁M	-6.17551
v	-6.18352
▁1	-6.1905
▁ti	-6.2223
▁ili	-6.23381
▁U	-6.24515
▁acut	-6.24998
▁ov	-6.25536
▁en	-6.30037
▁te	-6.30123
▁:	-6.30486
▁što	-6.30634
▁cca	-6.30793
▁to	-6.31744
▁ob	-6.32089
▁K	-6.32168
▁r	-6.32567
p	-6.34093
▁I	-6.36699
▁bi	-6.37703
▁li	-6.4132
▁V	-6.44181
▁T	-6.45625
c	-6.4713
d	-6.47496
▁č	-6.47517
▁l	-6.50584
▁'	-6.51406
▁N	-6.52449
▁z	-6.55147
▁koj	-6.56669
▁oj	-6.59425
▁ila	-6.59945
▁raz	-6.60432
▁kako	-6.60521
▁nije	-6.61481
▁ni	-6.62088
▁in	-6.63313
▁ali	-6.653
▁an	-6.65478
▁O	-6.68432
▁nje	-6.68452
▁Z	-6.69316
▁ma	-6.69917
▁(	-6.69929
▁L	-6.70139
š	-6.70964
▁no	-6.73371
▁)	-6.73689
▁j	-6.7459
▁ić	-6.74964
▁R	-6.76365
▁A	-6.81399
▁ak	-6.84179
▁f	-6.84459
▁ica	-6.84526
▁zca	-6.84749
g	-6.85236
▁ama	-6.86353
▁ije	-6.8694
▁sam	-6.86942
▁G	-6.87741
▁sve	-6.88956
▁Hrvat	-6.89332
,	-6.89411
▁koje	-6.91369
▁ka	-6.91525
en	-6.91902
▁ij	-6.9246
▁ju	-6.93535
▁ija	-6.94433
▁Na	-6.95102
▁C	-6.95376
car	-6.9637
▁biti	-6.96831
▁govor	-6.96922
▁J	-6.98132
▁3	-6.98451
▁mo	-6.98586
▁jedn	-6.99528
▁nja	-7.00198
▁st	-7.00718
▁la	-7.00951
▁ski	-7.01476
▁stav	-7.01689
▁ice	-7.02463
in	-7.03134
▁naj	-7.0326
▁4	-7.04248
▁H	-7.0586
z	-7.06281
▁5	-7.06971
▁ske	-7.06985
▁nik	-7.07311
▁smo	-7.07646
▁9	-7.08253
▁više	-7.09835
kao	-7.10133
▁ac	-7.1082
▁itelj	-7.11209
je	-7.11992
▁sa	-7.12172
▁mi	-7.1301
ov	-7.13688
.	-7.13724
nj	-7.15165
▁nakon	-7.15407
▁ova	-7.16032
▁me	-7.18733
▁ko	-7.19837
▁samo	-7.19969
▁em	-7.21273
▁bio	-7.2141
b	-7.2252
▁pred	-7.23064
▁al	-7.23664
▁osti	-7.24404
▁ović	-7.24767
ij	-7.25408
an	-7.2745
▁er	-7.27833
▁ost	-7.28285
▁pa	-7.28423
č	-7.29059
▁ž	-7.29328
sk	-7.29895
▁prije	-7.31082
jav	-7.31599
▁ava	-7.3251
▁nek	-7.34492
▁tako	-7.35048
▁uz	-7.35347
▁Po	-7.35365
▁lja	-7.3555
▁već	-7.35643
vanj	-7.36048
▁ci	-7.36066
▁jed	-7.36138
▁još	-7.3756
▁njeg	-7.38006
▁ici	-7.39132
▁prem	-7.39359
▁6	-7.39882
▁ga	-7.39928
st	-7.40854
▁oliko	-7.41729
▁nov	-7.42786
▁rekao	-7.43469
▁?	-7.43864
▁rad	-7.44261
▁treba	-7.44841
▁ljen	-7.45407
▁F	-7.46125
▁jer	-7.46251
▁drug	-7.46816
▁7	-7.46945
▁njih	-7.4698
▁zbog	-7.47429
▁8	-7.48043
▁pod	-7.48348
▁ska	-7.48986
▁mu	-7.49506
ko	-7.49686
ijel	-7.50053
▁os	-7.51385
lj	-7.5182
al	-7.51902
▁re	-7.52821
▁ijsk	-7.52914
▁h	-7.53357
im	-7.53628
▁može	-7.54554
▁dok	-7.54719
▁Za	-7.54798
▁ik	-7.55173
▁bilo	-7.55195
▁tar	-7.57229
▁iju	-7.5739
ih	-7.58128
▁oko	-7.58513
đ	-7.59362
▁skog	-7.59374
▁enje	-7.59401
▁it	-7.59755
▁aj	-7.6031
▁red	-7.60662
▁ove	-7.6069
▁svoj	-7.61437
▁kup	-7.61671
ć	-7.61952
▁ist	-7.62316
▁š	-7.63346
jed	-7.63348
▁kr	-7.63806
▁stup	-7.64194
▁eura	-7.64331
na	-7.65811
reds	-7.65912
▁uje	-7.66376
oj	-7.67525
▁grad	-7.6778
▁dana	-7.67921
▁!	-7.68171
▁mjes	-7.68542
▁bila	-7.68684
▁djel	-7.68845
▁nju	-7.69584
▁stran	-7.70474
▁hrva	-7.70527
▁zna	-7.70814
▁jedan	-7.70973
▁skoj	-7.71616
▁veli	-7.71685
▁bolj	-7.71815
▁ite	-7.71897
▁/	-7.72056
▁rotiv	-7.7303
▁broj	-7.73281
ž	-7.73382
av	-7.73802
▁igra	-7.74
▁iran	-7.74005
▁ja	-7.74016
▁svak	-7.74524
takm	-7.74779
ar	-7.74782
▁Š	-7.75319
▁g	-7.75517
▁ako	-7.7581
▁dstr	-7.76228
▁izbor	-7.7632
te	-7.76452
▁tri	-7.7712
▁ot	-7.78306
▁kada	-7.7873
▁reme	-7.80003
▁radi	-7.80736
▁iji	-7.81502
▁eg	-7.81666
▁dva	-7.81968
▁lo	-7.82125
▁Euro	-7.82195
▁sp	-7.82203
▁nim	-7.82311
▁gdje	-7.82459
▁nog	-7.82465
▁vod	-7.82527
▁pravo	-7.83186
▁ljudi	-7.83713
er	-7.84522
▁ilo	-7.84995
▁voj	-7.85311
▁enja	-7.85754
▁bez	-7.86506
▁glav	-7.87349
▁vid	-7.87752
▁prav	-7.88499
▁osl	-7.88704
h	-7.89022
▁mogu	-7.8935
▁auto	-7.89554
▁ira	-7.90224
▁ar	-7.90617
▁ovi	-7.90807
▁sv	-7.90989
ma	-7.91107
▁tu	-7.9111
▁gr	-7.92765
▁icu	-7.9323
▁jedno	-7.9348
▁nih	-7.94203
▁kad	-7.94441
▁ika	-7.94692
▁tav	-7.95283
og	-7.95833
▁cije	-7.96259
▁nosti	-7.96616
▁skih	-7.96744
▁posto	-7.97894
▁skom	-7.98144
▁dan	-7.98153
▁mjer	-7.98427
on	-7.98603
mo	-7.98886
▁ol	-7.99669
▁nam	-7.99678
▁gleda	-7.99844
▁pr	-8.00506
▁svoje	-8.00932
▁bili	-8.01027
▁ati	-8.01086
▁tren	-8.01259
din	-8.01894
▁ljiv	-8.0235
▁isp	-8.02498
▁ri	-8.0269
▁nu	-8.02886
ne	-8.02976
om	-8.03012
▁vjer	-8.03584
▁toga	-8.05353
▁ovo	-8.05472
ako	-8.05669
▁nisu	-8.0567
▁zdrav	-8.05746
▁agreb	-8.05852
▁E	-8.06321
el	-8.06456
tanj	-8.06484
▁Ne	-8.0664
▁vrij	-8.07255
▁uju	-8.07717
ljuč	-8.07732
▁ev	-8.07789
▁glas	-8.08151
▁blem	-8.08167
▁mora	-8.0882
▁nici	-8.09394
▁sada	-8.09416
▁nj	-8.09507
▁ravn	-8.10916
▁igur	-8.11188
▁To	-8.11364
▁nika	-8.11669
▁ing	-8.11856
ak	-8.11919
▁prvi	-8.11921
▁is	-8.12155
va	-8.12316
▁jak	-8.12944
▁op	-8.13376
▁tvar	-8.14611
▁dr	-8.14725
▁put	-8.14927
nij	-8.15162
▁vijek	-8.1614
no	-8.16517
▁sku	-8.16706
▁građ	-8.16795
▁vijet	-8.16814
▁ijal	-8.17302
▁malo	-8.17839
▁dobro	-8.17937
▁taj	-8.17976
▁kod	-8.18241
▁imo	-8.18401
▁Č	-8.19038
▁nad	-8.19148
ac	-8.1947
▁vr	-8.19935
▁škol	-8.2003
▁međ	-8.20142
▁ra	-8.2026
prav	-8.20445
▁igrač	-8.21088
▁tim	-8.2175
ezon	-8.21764
at	-8.21895
▁ustav	-8.22371
▁mir	-8.23799
▁ent	-8.23835
il	-8.23914
đu	-8.24504
▁danas	-8.25004
▁pet	-8.25091
▁rije	-8.25274
▁mlad	-8.25625
▁itet	-8.25636
▁nji	-8.25666
▁lje	-8.25771
▁moguć	-8.25887
▁ta	-8.25973
▁us	-8.26169
f	-8.26203
▁nas	-8.2632
▁telj	-8.26421
▁inf	-8.26454
vrš	-8.26936
▁izira	-8.27763
▁nost	-8.27936
▁kaže	-8.27973
▁život	-8.28083
▁kaza	-8.28577
log	-8.28789
▁nema	-8.28879
or	-8.29108
▁tr	-8.29149
ješ	-8.29308
▁javn	-8.29493
▁nom	-8.29723
▁stvo	-8.30087
▁gram	-8.30238
▁ku	-8.30272
po	-8.30694
▁tvor	-8.31428
▁metn	-8.31475
▁ke	-8.31561
▁gol	-8.31613
lik	-8.31619
▁va	-8.31761
▁stva	-8.32028
▁jekt	-8.3211
▁kojem	-8.32415
▁stv	-8.32454
▁neg	-8.32528
▁osob	-8.32552
▁nešto	-8.32941
▁vije	-8.33692
li	-8.33856
▁ional	-8.34077
▁ki	-8.34243
nter	-8.34255
▁nosi	-8.34401
ven	-8.34423
▁tome	-8.34644
ijek	-8.3537
▁Ž	-8.35397
▁rasp	-8.35529
▁nogo	-8.35631
▁god	-8.36067
▁ć	-8.36304
▁No	-8.36409
▁iv	-8.36772
elik	-8.36774
▁mjen	-8.36991
od	-8.37108
▁ve	-8.37122
▁dio	-8.37246
▁tat	-8.3745
▁tan	-8.37567
▁bor	-8.37711
▁anj	-8.37821
▁ht	-8.37937
▁naš	-8.38431
▁nica	-8.38592
▁vodi	-8.3874
▁kon	-8.38995
▁sati	-8.39398
▁el	-8.39519
▁dvije	-8.39559
▁puno	-8.39718
ti	-8.39847
▁žel	-8.40277
god	-8.40829
▁ud	-8.40897
▁znat	-8.4102
olic	-8.41105
▁slav	-8.41171
▁insk	-8.41502
▁etvrt	-8.41724
▁njem	-8.41748
▁zme	-8.42216
▁zeml	-8.42335
▁tek	-8.42583
▁upan	-8.42674
▁et	-8.43136
nov	-8.43502
ječ	-8.4391
▁hvat	-8.44284
▁usp	-8.44365
▁lazi	-8.44376
tsk	-8.44425
aš	-8.44676
▁stor	-8.44708
▁tom	-8.44898
▁le	-8.45016
igur	-8.45281
▁par	-8.45384
▁dalje	-8.45525
▁Pri	-8.45589
▁organ	-8.45594
▁kont	-8.45754
▁hr	-8.46498
▁slov	-8.46556
▁način	-8.46636
pre	-8.47106
▁gotov	-8.47466
▁sk	-8.47708
it	-8.47903
▁kan	-8.47943
▁jeti	-8.4796
▁lije	-8.48029
▁doda	-8.48151
▁hval	-8.48155
ruž	-8.48189
▁drž	-8.48254
▁y	-8.48313
▁izvod	-8.48649
▁manje	-8.48673
▁prvo	-8.49009
▁etiri	-8.49307
▁ca	-8.49387
cij	-8.49475
▁stoji	-8.49479
▁rezu	-8.49547
▁ničk	-8.49698
▁svi	-8.49865
▁lučaj	-8.50117
▁prve	-8.50348
▁ajduk	-8.50556
▁es	-8.50723
▁Pro	-8.50874
▁aknu	-8.51031
▁rekla	-8.51175
▁obja	-8.51298
▁av	-8.51627
▁oni	-8.5164
▁vat	-8.51648
▁orm	-8.52201
▁imaju	-8.52556
za	-8.52779
la	-8.52794
▁list	-8.53341
▁kraj	-8.53494
▁stoj	-8.54038
▁mili	-8.54057
▁euro	-8.54085
▁kol	-8.54088
da	-8.54108
▁sad	-8.54354
▁ant	-8.5438
▁onda	-8.54426
▁W	-8.54489
▁tran	-8.55045
▁zap	-8.5525
▁druš	-8.55396
▁acije	-8.56035
▁film	-8.5618
▁održ	-8.56211
▁vam	-8.56328
▁bit	-8.56662
▁klub	-8.567
▁minu	-8.56741
est	-8.57229
▁pust	-8.57231
▁mnog	-8.57269
▁ine	-8.57323
▁zv	-8.57347
▁kom	-8.5735
▁vi	-8.57572
▁Sve	-8.57684
▁Ivan	-8.57836
▁met	-8.57868
▁ovima	-8.57914
aj	-8.58198
▁or	-8.58378
ju	-8.58427
ent	-8.58633
ije	-8.58725
djel	-8.58736
▁Od	-8.58766
▁rast	-8.58912
ni	-8.59054
▁kval	-8.59081
▁stvar	-8.59354
▁novi	-8.59429
▁račun	-8.59504
▁medi	-8.59551
▁rener	-8.59891
▁pun	-8.59935
▁matr	-8.5996
▁ativ	-8.60181
▁ini	-8.60195
dnj	-8.60404
▁riječ	-8.60718
▁eset	-8.61044
▁On	-8.61062
▁udar	-8.6108
▁Kad	-8.61362
▁rod	-8.61485
▁man	-8.62233
▁una	-8.62342
▁živ	-8.62519
▁emo	-8.62752
▁tvrd	-8.6286
▁neki	-8.62916
ruč	-8.63107
▁let	-8.63143
▁ras	-8.63242
znen	-8.63313
▁est	-8.63385
▁sko	-8.63402
vjet	-8.6353
št	-8.63534
nim	-8.63874
svoj	-8.63939
joj	-8.63956
rij	-8.64242
▁aktiv	-8.64247
▁ržav	-8.64269
▁vrl	-8.64876
▁rež	-8.64884
jen	-8.64909
▁ile	-8.65006
▁nice	-8.6505
▁neće	-8.65056
▁budu	-8.65209
▁jući	-8.65299
▁ir	-8.65561
▁tor	-8.65669
▁tak	-8.66048
ic	-8.66255
vši	-8.66275
jev	-8.66714
men	-8.66847
▁kaz	-8.66893
iš	-8.67033
▁sjed	-8.67192
▁puta	-8.67197
▁služ	-8.67393
▁ijama	-8.67557
▁rijed	-8.67653
▁njima	-8.67659
▁pada	-8.6786
▁štit	-8.67877
▁drugi	-8.67947
▁nosno	-8.68407
▁mor	-8.68739
▁vol	-8.69153
▁napad	-8.69222
▁gost	-8.69863
▁ijest	-8.69923
ra	-8.70166
▁ste	-8.7027
▁dobr	-8.70786
▁pol	-8.70844
▁čin	-8.71049
▁voz	-8.71053
▁gor	-8.71118
▁komp	-8.71232
▁didat	-8.71311
▁volj	-8.71461
▁cilj	-8.71601
▁Iz	-8.72043
et	-8.72053
vjer	-8.72132
▁čeka	-8.7255
▁inar	-8.72888
▁Ov	-8.72907
▁važn	-8.72925
▁dnost	-8.72932
▁Međ	-8.72939
▁acija	-8.73058
lužb	-8.73452
▁onač	-8.73693
▁Tako	-8.73737
▁enju	-8.7402
▁ut	-8.74059
▁Al	-8.7451
vez	-8.74573
traž	-8.74758
ad	-8.7478
▁njak	-8.74803
▁lobo	-8.75054
▁poče	-8.75128
▁at	-8.75185
▁gled	-8.7544
▁kuć	-8.75543
ljed	-8.75579
grad	-8.75762
▁ce	-8.75795
▁aca	-8.7617
▁vode	-8.76197
▁HDZ	-8.76197
jeg	-8.76266
▁irati	-8.76337
bav	-8.76612
▁pjes	-8.76855
▁vija	-8.77046
akv	-8.77055
▁tjec	-8.77543
▁log	-8.77557
▁odlu	-8.77698
▁inj	-8.7783
▁osta	-8.77833
atel	-8.7791
▁noj	-8.78046
▁bac	-8.78194
▁Grad	-8.78216
▁plat	-8.78359
▁ljub	-8.78612
▁glaz	-8.78819
▁St	-8.78852
stav	-8.78885
▁vjet	-8.79187
▁Mila	-8.79395
▁Nov	-8.79667
▁sjet	-8.797
▁rat	-8.79824
kon	-8.79846
▁nij	-8.80033
▁ičn	-8.80088
▁ačk	-8.80166
▁nos	-8.80243
▁zakon	-8.80287
▁jte	-8.80321
▁narod	-8.80395
▁Pre	-8.80551
▁čij	-8.80622
▁drža	-8.80652
▁šest	-8.81098
laz	-8.81291
▁dugo	-8.81329
anov	-8.8175
▁prvak	-8.81808
red	-8.81867
▁il	-8.81958
▁bivš	-8.82182
▁sebno	-8.82259
▁dvo	-8.82308
▁laga	-8.82636
▁oris	-8.82671
▁stati	-8.82731
▁itua	-8.82948
▁mije	-8.83055
▁svim	-8.83231
▁Sv	-8.8342
▁vas	-8.8359
▁tko	-8.83685
▁kor	-8.83937
▁uč	-8.84086
▁tehn	-8.84364
▁mobil	-8.84397
▁gova	-8.8444
▁ran	-8.84597
▁ide	-8.84634
▁tvari	-8.84923
▁staje	-8.84966
lic	-8.85288
▁sreć	-8.85385
▁Rije	-8.85386
▁obran	-8.85465
▁osoba	-8.85494
▁veza	-8.85514
▁moga	-8.85523
▁avaju	-8.85583
roš	-8.85754
▁baš	-8.85833
jedn	-8.86114
▁jesec	-8.86116
rije	-8.86269
▁ubr	-8.86281
manj	-8.86557
▁mijer	-8.86558
▁isti	-8.86583
▁izv	-8.86617
go	-8.86636
▁ević	-8.86639
iz	-8.86715
▁svih	-8.86787
▁pisa	-8.86791
to	-8.86801
▁traž	-8.86871
▁ultu	-8.86943
▁treb	-8.87029
▁veden	-8.87186
▁jesta	-8.87272
▁icama	-8.87322
treb	-8.87331
▁jever	-8.87352
▁ona	-8.87421
tivn	-8.87447
▁učin	-8.87448
bjed	-8.87526
▁znan	-8.87578
anj	-8.87578
▁radn	-8.87707
▁Mar	-8.87747
▁ime	-8.87781
▁imati	-8.87808
roz	-8.87934
▁kraju	-8.88066
▁jeli	-8.8811
▁ro	-8.88411
▁metar	-8.88453
▁ard	-8.88514
▁duž	-8.88545
▁misl	-8.88846
▁Ch	-8.8912
▁teško	-8.89223
vor	-8.89266
▁čki	-8.89269
▁anja	-8.89302
▁ogled	-8.89424
ja	-8.89474
▁Do	-8.89572
▁inamo	-8.89598
lad	-8.8974
▁poč	-8.89834
amo	-8.89891
▁lak	-8.89972
luč	-8.90065
▁šir	-8.90082
▁ništ	-8.901
▁usret	-8.90222
▁ub	-8.90262
▁večer	-8.90321
▁stal	-8.90414
voj	-8.90488
▁tež	-8.90532
▁up	-8.90603
▁bran	-8.90649
▁sred	-8.90834
▁fin	-8.90901
▁vozi	-8.90977
▁jveć	-8.9115
▁viso	-8.91407
▁bude	-8.91443
▁inu	-8.91444
▁plan	-8.91451
▁eći	-8.91504
sam	-8.91508
▁Split	-8.91602
▁int	-8.91821
▁nikad	-8.91857
tko	-8.91966
▁cent	-8.92095
▁član	-8.92335
▁pak	-8.92449
▁njega	-8.92505
▁vo	-8.92899
▁ito	-8.92979
▁eni	-8.92984
▁arn	-8.93064
rad	-8.93086
▁ina	-8.93148
▁vojn	-8.93166
▁Bil	-8.93207
ozor	-8.93502
▁ok	-8.93676
ljež	-8.93899
▁poli	-8.93998
▁Njem	-8.94003
▁jen	-8.94032
▁znač	-8.94143
▁isto	-8.94169
▁kar	-8.94229
gub	-8.94268
▁stvu	-8.94288
▁imao	-8.94401
▁ivota	-8.94462
▁Kr	-8.94578
▁foto	-8.94885
▁tkri	-8.94991
▁išta	-8.95001
druč	-8.95105
▁ovom	-8.95155
▁prat	-8.95197
jel	-8.95241
▁sud	-8.95337
▁EU	-8.95352
▁truč	-8.95371
▁as	-8.95579
▁pita	-8.95593
▁lin	-8.95628
nic	-8.95748
▁čeku	-8.95879
akon	-8.95952
▁glum	-8.95958
▁Plen	-8.96009
▁elnik	-8.96085
šao	-8.96268
▁anje	-8.96369
▁grada	-8.96417
▁ovjek	-8.96421
▁gosp	-8.96424
▁rav	-8.965
lav	-8.9663
ut	-8.96713
▁knji	-8.96814
▁tra	-8.97284
▁rafi	-8.97309
▁eks	-8.9734
▁reg	-8.97453
▁iš	-8.97481
▁10	-8.97599
▁demo	-8.97706
▁čest	-8.97759
ik	-8.9784
smo	-8.97963
▁uprug	-8.97977
▁Ali	-8.98192
▁dalj	-8.98277
▁lani	-8.98426
▁nac	-8.9843
▁ven	-8.98708
▁ada	-8.98747
▁[	-8.98921
▁rtner	-8.99028
▁ad	-8.9914
▁Srbi	-8.99236
▁kap	-8.99406
▁str	-8.99465
▁kori	-8.99702
▁ljuč	-9.0003
▁esti	-9.00143
put	-9.00161
▁sl	-9.00525
iše	-9.00598
▁vlas	-9.00654
▁ništa	-9.00816
▁isku	-9.00858
omać	-9.01157
▁vel	-9.01287
▁kret	-9.01288
▁veći	-9.0142
▁rošl	-9.01483
zac	-9.02049
živ	-9.02302
▁sport	-9.02332
mah	-9.02362
▁Fran	-9.02372
▁nul	-9.02507
▁razn	-9.02645
kaza	-9.02654
▁trag	-9.02751
▁ike	-9.0281
▁treć	-9.02844
▁arl	-9.02957
▁okal	-9.03008
▁pot	-9.03041
▁mal	-9.03234
ol	-9.03285
▁ički	-9.03406
▁liku	-9.03412
▁VIDEO	-9.03507
▁end	-9.03878
▁ajte	-9.04106
▁dobio	-9.04218
▁jela	-9.04288
▁ću	-9.04303
▁sebe	-9.04342
▁nuo	-9.04456
▁kome	-9.04624
▁druga	-9.04633
▁koš	-9.0473
ržav	-9.04824
▁20	-9.04879
▁ćem	-9.04931
▁pov	-9.05109
▁]	-9.05114
▁stala	-9.05141
▁sin	-9.05186
tvrd	-9.05216
▁ćen	-9.0523
▁aciju	-9.05447
▁posla	-9.05448
aln	-9.05529
▁=>	-9.05787
lož	-9.0582
▁ča	-9.06012
▁enz	-9.06119
umnj	-9.06204
▁emelj	-9.06508
▁Dan	-9.06557
▁zor	-9.066
▁stupa	-9.06603
iječ	-9.07012
inis	-9.07134
▁brzo	-9.07149
▁mini	-9.07435
▁be	-9.07444
▁vrat	-9.07509
▁ani	-9.07558
▁Gr	-9.07563
▁nove	-9.07597
stup	-9.07639
▁ičar	-9.07642
▁vlast	-9.07689
▁gađaj	-9.0792
▁ator	-9.07944
▁zagr	-9.08009
▁alno	-9.08181
đen	-9.08257
▁jviše	-9.08387
ri	-9.08394
▁laze	-9.08468
▁eno	-9.08585
▁Prem	-9.08748
▁ansk	-9.0881
vi	-9.08858
▁top	-9.08993
▁ujuć	-9.08993
▁nio	-9.09043
▁br	-9.09162
▁otkr	-9.09177
▁stat	-9.09242
▁tešk	-9.0927
▁loš	-9.09557
▁veo	-9.09728
▁vlada	-9.09732
▁ijom	-9.09799
is	-9.09873
▁odnos	-9.09873
▁and	-9.09911
▁miš	-9.10017
▁din	-9.10367
▁dava	-9.10455
▁zrak	-9.10458
▁uk	-9.10461
▁ože	-9.10592
▁otp	-9.10864
▁hra	-9.11019
▁aš	-9.11038
▁kl	-9.11066
meri	-9.11401
kup	-9.11434
▁kraja	-9.11469
▁svog	-9.11735
▁kri	-9.11758
▁mogli	-9.11802
▁rem	-9.1189
▁smrt	-9.1192
rošl	-9.12138
▁Trump	-9.12159
▁snim	-9.12249
▁traj	-9.1226
▁Ova	-9.12521
▁imali	-9.12721
▁Rusi	-9.12722
▁one	-9.12855
▁Št	-9.12881
▁poru	-9.1291
▁icom	-9.13166
▁pis	-9.13296
▁lož	-9.13319
▁iza	-9.13332
▁čan	-9.13443
▁kat	-9.1345
▁Mi	-9.13587
▁Ukra	-9.13603
▁stao	-9.13739
▁ljet	-9.13779
▁gradu	-9.13825
▁niz	-9.1403
ređ	-9.14055
▁Gor	-9.14092
▁tude	-9.14273
▁djece	-9.14324
re	-9.14378
▁Rad	-9.14451
▁Andr	-9.1453
▁okr	-9.14602
A	-9.14665
ca	-9.14665
▁pokr	-9.14727
▁fer	-9.14815
▁TO	-9.14817
inal	-9.14978
▁jelo	-9.15083
▁tog	-9.15222
▁vjed	-9.15289
tvor	-9.15438
ul	-9.15879
▁omoć	-9.16006
▁nosu	-9.16083
▁mjet	-9.16338
tjec	-9.16339
▁klon	-9.16489
▁dru	-9.16531
▁ncert	-9.16633
▁ele	-9.16843
pak	-9.16849
čin	-9.17041
▁irao	-9.17064
▁lan	-9.1708
▁des	-9.17277
vo	-9.17287
▁ulic	-9.17287
met	-9.17371
▁toč	-9.17748
▁meta	-9.17787
▁ratu	-9.17863
▁genc	-9.17884
sp	-9.17898
drž	-9.18066
▁icima	-9.18258
▁oper	-9.18454
▁oć	-9.18456
▁jel	-9.1848
▁%	-9.18544
▁krš	-9.1865
▁lazak	-9.18713
▁ljan	-9.18849
▁jubav	-9.18957
▁ivn	-9.18988
▁ajn	-9.19056
▁naše	-9.1907
▁uvjet	-9.1908
ist	-9.19202
▁bav	-9.19279
▁ruk	-9.19397
njen	-9.19411
▁ašnj	-9.19514
▁opas	-9.19653
dluk	-9.1986
▁prek	-9.19881
ro	-9.19881
▁zlo	-9.19936
▁pal	-9.20071
▁rać	-9.20188
▁želi	-9.2023
zbil	-9.20306
▁bolje	-9.20533
▁evi	-9.20559
▁plas	-9.20574
▁rati	-9.20635
▁oga	-9.20767
▁vore	-9.20828
▁priča	-9.20928
▁hod	-9.21097
▁ići	-9.21219
▁mas	-9.21289
▁možd	-9.21462
jući	-9.2163
as	-9.21733
▁padn	-9.21897
▁inama	-9.22021
am	-9.22093
čk	-9.22109
▁zen	-9.22435
▁ovati	-9.22526
▁znak	-9.22614
▁iva	-9.22645
▁rodn	-9.22765
▁ell	-9.2299
▁ažn	-9.23048
▁bira	-9.23086
▁Mat	-9.23136
▁imir	-9.23145
▁sto	-9.23174
▁vik	-9.23322
▁Uz	-9.23348
▁nut	-9.23641
▁Da	-9.23671
▁ković	-9.23702
▁lik	-9.23865
▁utku	-9.24005
▁regi	-9.24014
ud	-9.24044
▁bil	-9.24122
▁etalj	-9.24252
▁ala	-9.24352
▁rol	-9.24403
▁ište	-9.24618
veća	-9.24868
▁ač	-9.24871
▁vje	-9.25091
kol	-9.25098
▁kolo	-9.25118
vr	-9.25124
▁plaća	-9.25137
▁pisao	-9.25256
▁ijan	-9.25263
▁pos	-9.25291
▁zrael	-9.25349
eg	-9.25368
▁maj	-9.25408
▁mušk	-9.25436
kv	-9.25594
▁reći	-9.25718
▁isli	-9.2581
▁ang	-9.26005
▁aka	-9.26127
▁asni	-9.2622
suć	-9.26223
▁roda	-9.26239
▁kamp	-9.26258
ka	-9.26363
▁imen	-9.26522
▁osobe	-9.26585
kaz	-9.26713
▁15	-9.2673
▁voji	-9.26762
▁niti	-9.26841
▁ener	-9.26878
▁dug	-9.26945
▁nedo	-9.26951
lekt	-9.26965
▁ono	-9.27058
▁azov	-9.27102
duć	-9.27128
▁posao	-9.27136
▁Pet	-9.27381
raz	-9.27416
▁imp	-9.2746
▁ovrat	-9.27476
▁Bar	-9.27491
onic	-9.27496
ran	-9.27584
uz	-9.27601
▁cu	-9.27704
rušt	-9.27787
▁učen	-9.27868
vog	-9.27886
▁tud	-9.28136
▁rađ	-9.28162
▁ubli	-9.28206
▁boga	-9.28253
▁dob	-9.28376
▁liti	-9.28426
▁vlad	-9.28439
▁ter	-9.28488
em	-9.28802
▁Kak	-9.28848
▁park	-9.28872
▁mogla	-9.28931
▁boj	-9.28977
▁iznos	-9.29048
▁omoći	-9.29051
▁vrš	-9.29293
▁Naim	-9.29417
▁SAD	-9.29425
▁of	-9.29436
▁čeki	-9.29514
▁tvr	-9.29664
čen	-9.29712
▁stali	-9.29734
▁blag	-9.29793
▁čega	-9.29815
lo	-9.30018
▁vrhu	-9.30131
▁Amer	-9.30178
▁ital	-9.30291
▁res	-9.30397
▁usk	-9.30428
ač	-9.30451
▁znači	-9.30519
▁rep	-9.30652
▁mak	-9.308
▁hit	-9.30828
tim	-9.30893
es	-9.31002
▁petak	-9.31006
▁poraz	-9.3107
▁di	-9.31168
▁mat	-9.31226
▁vrt	-9.31267
▁ul	-9.3128
zna	-9.31285
▁ista	-9.31295
▁lj	-9.31628
▁vođ	-9.31648
▁brod	-9.31802
▁šte	-9.31881
▁čić	-9.31885
▁zašto	-9.31921
▁stig	-9.3199
tur	-9.32036
▁vozač	-9.3223
▁SDP	-9.32462
▁ržiš	-9.32515
▁ruš	-9.3252
▁kluba	-9.32537
oris	-9.3266
▁sata	-9.32736
▁novo	-9.32744
▁Ja	-9.32826
▁andat	-9.32857
▁uper	-9.32895
▁dar	-9.32907
▁utak	-9.32972
▁inac	-9.33134
▁eb	-9.33179
▁erv	-9.33235
▁like	-9.3334
▁prava	-9.33368
▁roces	-9.33435
anc	-9.33618
▁ravi	-9.33738
pl	-9.33816
▁funk	-9.3388
▁tres	-9.33916
▁30	-9.3403
▁dnev	-9.34072
▁renu	-9.34194
▁savez	-9.34241
▁vesti	-9.34365
▁val	-9.34374
▁adran	-9.34386
▁lat	-9.34499
▁iste	-9.34508
stv	-9.34529
▁ment	-9.34625
por	-9.34787
ranj	-9.34842
▁priv	-9.34853
▁skr	-9.34952
okuš	-9.35091
▁zato	-9.35197
▁igrao	-9.35197
▁lov	-9.35214
▁tičk	-9.35296
▁gru	-9.35312
ular	-9.35407
▁sedam	-9.35427
▁spjeh	-9.35447
▁Šib	-9.35654
▁ic	-9.35688
▁Th	-9.35801
▁brz	-9.35808
▁opet	-9.3586
▁Josi	-9.35878
▁bod	-9.35952
▁jiv	-9.35992
▁svega	-9.36038
▁sti	-9.36064
liz	-9.36089
▁isk	-9.3625
ci	-9.36279
▁dje	-9.36311
▁ec	-9.36429
▁Per	-9.36446
▁nima	-9.36689
jest	-9.36741
▁imala	-9.36814
▁ubotu	-9.36821
▁stan	-9.36857
▁sjaj	-9.36998
▁ijek	-9.37
▁ajin	-9.3701
▁rata	-9.37089
▁oja	-9.37123
▁čke	-9.37142
▁les	-9.37153
▁Niko	-9.37196
▁až	-9.37215
▁min	-9.37238
ir	-9.37285
nut	-9.37354
▁nča	-9.37416
kcij	-9.37432
▁ill	-9.37438
▁cima	-9.37763
▁rov	-9.37861
▁nicu	-9.37892
▁slu	-9.37958
▁orts	-9.37995
▁12	-9.38076
ada	-9.38145
▁iako	-9.38157
▁njim	-9.38215
▁akle	-9.38381
▁ovdje	-9.38413
▁Ob	-9.38424
tno	-9.38433
▁osam	-9.38453
▁temp	-9.38464
▁ark	-9.38504
▁ben	-9.38528
uk	-9.38555
le	-9.38572
▁dati	-9.38601
ta	-9.38605
▁dala	-9.38661
▁oran	-9.38723
▁krat	-9.38793
▁atelj	-9.38816
▁doma	-9.38825
▁mene	-9.38902
ruk	-9.38935
▁ruj	-9.39013
▁ikac	-9.39054
▁lasti	-9.39096
▁gla	-9.39157
▁jutro	-9.3916
▁mje	-9.39652
▁ru	-9.39746
▁orma	-9.39843
bor	-9.39905
▁utova	-9.39914
▁rade	-9.40166
▁Br	-9.40196
▁Ant	-9.40342
▁korak	-9.40476
▁eli	-9.40604
▁obič	-9.40608
▁pros	-9.40621
▁šli	-9.40633
▁ijete	-9.40696
▁sijek	-9.40771
gr	-9.408
▁kre	-9.40838
▁oc	-9.40918
▁bli	-9.40925
▁rada	-9.41015
▁amb	-9.41369
▁novac	-9.41629
▁uć	-9.41632
▁ab	-9.41643
▁eti	-9.41685
▁čk	-9.41744
▁optu	-9.41769
▁zab	-9.41844
▁kriv	-9.41905
▁metaš	-9.41934
▁eba	-9.42043
▁urnir	-9.42175
▁romet	-9.42368
▁amer	-9.4246
▁čini	-9.42568
▁daje	-9.42634
pnj	-9.42657
▁akc	-9.42718
zic	-9.42899
▁azi	-9.43135
▁uci	-9.4314
▁ort	-9.43172
▁ijent	-9.43187
▁Tom	-9.43245
zva	-9.43281
▁dosad	-9.43392
iv	-9.43415
tor	-9.43421
▁lika	-9.43464
▁jug	-9.436
▁rah	-9.43658
▁ument	-9.43742
▁grama	-9.43762
▁čn	-9.43796
▁vaja	-9.43896
▁datak	-9.43953
sjet	-9.4396
zlij	-9.44039
▁utno	-9.44063
▁Ak	-9.44069
▁tiga	-9.44182
▁asn	-9.44282
▁opće	-9.44292
▁slije	-9.44301
▁ulj	-9.44329
▁thod	-9.44376
▁Mil	-9.44423
▁popu	-9.44452
▁ident	-9.44523
▁alo	-9.44652
▁kid	-9.44737
▁du	-9.4478
tenc	-9.44813
▁Kao	-9.44867
renc	-9.44874
vrtk	-9.44934
▁obr	-9.4494
▁rus	-9.45013
▁lad	-9.4503
▁snag	-9.45231
▁orij	-9.45314
▁išl	-9.45407
▁okus	-9.45488
▁glasa	-9.45622
kim	-9.45627
▁spor	-9.45728
▁manj	-9.45812
▁nep	-9.4583
▁nova	-9.45911
▁Ko	-9.45926
kip	-9.45981
y	-9.45987
▁jav	-9.45994
▁nap	-9.46019
▁nače	-9.46052
▁islav	-9.46055
▁ogr	-9.46194
▁tije	-9.46202
nih	-9.46232
▁ištu	-9.46482
▁vjes	-9.466
▁tih	-9.46683
ož	-9.46791
▁rea	-9.46999
▁rođe	-9.46999
▁duše	-9.47167
▁graf	-9.4722
do	-9.47408
▁pjeva	-9.47481
ao	-9.4749
▁srp	-9.47604
▁Mini	-9.47646
▁ešk	-9.47648
▁etku	-9.47845
▁št	-9.47847
▁žena	-9.47921
▁Šp	-9.48049
▁pl	-9.48212
▁dom	-9.48232
▁si	-9.48247
▁tro	-9.48306
▁Ivana	-9.48464
▁kop	-9.4873
eć	-9.48865
▁oguće	-9.48877
▁uoč	-9.48959
araž	-9.49013
▁tip	-9.4912
▁lako	-9.49183
▁tvrt	-9.49202
se	-9.49215
▁jasno	-9.49251
▁seks	-9.49348
▁dosta	-9.49374
▁ek	-9.4939
▁kupi	-9.49392
▁luk	-9.4941
▁djecu	-9.49606
▁mater	-9.49606
▁per	-9.49623
su	-9.49655
pred	-9.49767
ter	-9.49789
▁gl	-9.49953
▁slova	-9.50017
▁Vara	-9.50028
ed	-9.5004
acij	-9.50169
▁am	-9.50266
▁cel	-9.50344
▁davn	-9.50589
nad	-9.50634
▁okaz	-9.50723
▁Aust	-9.50773
▁ič	-9.50959
▁odrš	-9.50994
čno	-9.51081
▁njoj	-9.51179
▁ivati	-9.51248
▁Real	-9.51256
▁rist	-9.51272
▁de	-9.51393
lab	-9.51612
▁redn	-9.51645
▁dub	-9.51687
▁aša	-9.51706
▁rend	-9.51842
▁Dom	-9.51854
▁inan	-9.51919
▁smije	-9.51953
▁sil	-9.51985
▁ektor	-9.52002
nud	-9.52075
▁mil	-9.52312
▁rid	-9.52387
erg	-9.52436
▁bes	-9.52472
▁ej	-9.52504
▁tad	-9.52558
▁ovu	-9.52621
▁laz	-9.52663
▁ps	-9.52681
▁omčad	-9.5284
▁gal	-9.52901
▁dije	-9.52992
▁prič	-9.53002
▁došao	-9.53115
ez	-9.53279
▁An	-9.53345
▁ijih	-9.5338
▁rij	-9.53437
▁moglo	-9.53465
klop	-9.53592
zem	-9.5364
▁Ka	-9.53778
▁torak	-9.53783
▁lu	-9.53787
▁gov	-9.53881
▁lošk	-9.53997
▁eri	-9.54069
ći	-9.54237
▁astav	-9.54398
▁jatn	-9.54432
lađ	-9.54456
▁Ju	-9.54477
▁bol	-9.54563
▁Luka	-9.5458
ilo	-9.54585
retn	-9.5466
▁djev	-9.54694
ur	-9.5475
ašnj	-9.54763
▁elen	-9.54793
▁ispit	-9.54854
rgov	-9.54951
dr	-9.55122
▁model	-9.55148
▁ay	-9.55219
▁ete	-9.55337
▁ući	-9.55342
▁abil	-9.55509
arij	-9.55551
▁kuša	-9.55552
▁estr	-9.556
▁naći	-9.55616
tom	-9.55752
▁liči	-9.55874
vač	-9.56157
▁son	-9.5618
▁vor	-9.56264
mjer	-9.56285
inut	-9.56331
▁Marko	-9.5637
epub	-9.56408
▁split	-9.56488
▁ba	-9.56611
▁Mari	-9.56691
vom	-9.56709
▁neka	-9.5672
▁ivotu	-9.5676
▁BiH	-9.56848
▁kog	-9.56863
▁stiče	-9.56991
▁noć	-9.57084
▁uslu	-9.57167
▁anjo	-9.57206
stal	-9.57211
tv	-9.57221
▁Os	-9.5729
▁loga	-9.57357
▁prva	-9.57359
▁bud	-9.57386
T	-9.57483
▁Jed	-9.57522
▁skrb	-9.5755
▁ch	-9.57571
▁učil	-9.57577
▁komu	-9.57741
▁dobar	-9.57834
▁nosn	-9.57865
ša	-9.5788
▁rvu	-9.57906
▁tur	-9.5796
▁mar	-9.58001
▁trud	-9.58051
▁skor	-9.58086
zima	-9.58099
jetn	-9.58103
▁Ro	-9.58131
▁ao	-9.58204
▁spec	-9.58223
▁rof	-9.58338
▁kola	-9.58406
bil	-9.58436
▁rok	-9.58449
▁venc	-9.58481
▁rasta	-9.5852
▁oval	-9.58548
mi	-9.58636
▁rvoj	-9.58658
▁devet	-9.58755
▁artin	-9.58775
naž	-9.5887
▁ša	-9.58955
▁krug	-9.58988
▁prim	-9.59
žev	-9.59034
▁klju	-9.59247
▁likom	-9.5926
▁konf	-9.59358
▁konc	-9.5944
▁radio	-9.59634
insk	-9.59802
▁plitu	-9.59854
▁oraju	-9.599
▁mag	-9.59907
▁Mir	-9.5996
▁Ist	-9.60036
▁anic	-9.60066
▁Su	-9.60073
▁sami	-9.60227
▁tis	-9.60246
▁Dr	-9.60262
▁time	-9.60322
▁imam	-9.60354
▁šp	-9.60414
▁oš	-9.60454
▁entar	-9.60456
▁abr	-9.60516
▁nose	-9.60556
▁reko	-9.60561
▁šić	-9.60567
▁ekt	-9.60584
ačk	-9.60672
▁rig	-9.60699
▁uzrok	-9.60736
▁krv	-9.60753
▁stra	-9.6078
▁arla	-9.60803
▁čkoj	-9.60851
▁etkom	-9.60973
▁daju	-9.60976
▁lig	-9.61171
▁titi	-9.6121
▁spje	-9.61238
▁ulaz	-9.61254
▁Grada	-9.61361
▁mjene	-9.61378
misl	-9.6144
00	-9.6157
ziva	-9.61592
▁Modr	-9.61606
rn	-9.61633
▁Sp	-9.61634
▁sebi	-9.61647
ijen	-9.61781
▁svima	-9.61844
▁emis	-9.6186
▁itn	-9.61867
zvan	-9.61887
stan	-9.61895
▁prv	-9.61996
rag	-9.62175
▁ovim	-9.6226
▁ncu	-9.62334
▁moći	-9.62415
tič	-9.62551
▁vršen	-9.62605
▁ož	-9.62757
drug	-9.62788
▁mješ	-9.62835
▁opis	-9.62923
▁eva	-9.62985
▁bjedu	-9.63037
▁iraju	-9.6307
▁laž	-9.63076
oš	-9.63174
▁11	-9.63175
▁sukob	-9.63177
mp	-9.63196
▁lok	-9.63308
▁lež	-9.63427
▁jan	-9.63437
▁viš	-9.63457
deć	-9.63467
\	-9.63481
▁dis	-9.63508
▁njen	-9.63607
▁ljude	-9.63622
▁čita	-9.63722
▁bija	-9.63737
rač	-9.63739
▁djela	-9.63822
▁drugo	-9.63918
cen	-9.63927
▁ruč	-9.63945
▁nter	-9.64107
▁kro	-9.64135
▁išić	-9.64136
▁vla	-9.64162
▁jam	-9.64199
▁18	-9.64347
▁kok	-9.64361
▁vrata	-9.64417
▁pozn	-9.6447
▁vib	-9.64553
▁ored	-9.64557
▁jezik	-9.646
▁laska	-9.64612
▁nes	-9.64819
▁+	-9.64832
▁alost	-9.64902
▁esn	-9.64907
▁Danas	-9.64932
▁soc	-9.65003
▁snage	-9.651
▁čem	-9.65216
ekt	-9.65273
▁njemu	-9.6529
▁bole	-9.65343
▁ion	-9.65372
ličn	-9.65588
▁Inst	-9.65617
▁pogo	-9.65656
▁obzir	-9.65668
▁kić	-9.65755
▁ovn	-9.65815
▁jećaj	-9.65827
▁onal	-9.65956
▁50	-9.65975
▁akter	-9.66016
▁hotel	-9.6602
▁otin	-9.66032
▁Bio	-9.66063
▁sva	-9.66101
:	-9.66248
▁andr	-9.66281
▁ijev	-9.66331
▁komb	-9.66361
▁fiz	-9.664
▁tenis	-9.66432
▁teren	-9.66485
▁piš	-9.66526
▁alma	-9.66612
tpun	-9.6672
▁Vlade	-9.66773
▁tuž	-9.66808
▁krit	-9.66851
▁reć	-9.66906
▁eđen	-9.66948
▁igi	-9.66967
prem	-9.67004
▁moj	-9.67052
▁očet	-9.67206
▁ign	-9.67243
▁def	-9.67272
▁alent	-9.6728
▁trij	-9.67334
▁bu	-9.67349
▁kuha	-9.67423
▁video	-9.676
▁hol	-9.67603
▁noge	-9.67617
▁vodn	-9.67706
aša	-9.67718
▁Pa	-9.67728
▁ilje	-9.67767
▁post	-9.67828
▁istr	-9.67832
▁čit	-9.67928
lu	-9.67987
▁ratko	-9.68029
▁raž	-9.68039
▁Y	-9.68118
tr	-9.68131
▁poziv	-9.68146
skor	-9.68157
sim	-9.68189
▁fil	-9.68236
ica	-9.68346
pri	-9.68349
▁Filip	-9.68363
▁kcij	-9.68403
▁tisu	-9.68484
▁eki	-9.68678
az	-9.68771
▁došlo	-9.6892
▁otok	-9.68924
▁etan	-9.69024
irom	-9.69075
▁Har	-9.69226
▁aket	-9.69269
▁mčadi	-9.6938
▁koga	-9.69382
▁arin	-9.69399
▁ičke	-9.69444
▁oman	-9.69448
▁adion	-9.69473
toč	-9.69492
▁ey	-9.69862
▁Dok	-9.69907
▁uca	-9.69946
▁kažu	-9.70047
▁love	-9.70066
▁enjem	-9.70162
io	-9.70297
▁udac	-9.70387
▁Mark	-9.70442
▁vela	-9.70582
▁lige	-9.706
▁zvao	-9.70669
▁lask	-9.70682
▁mam	-9.70711
▁išao	-9.70757
▁bank	-9.7081
▁mate	-9.70882
▁New	-9.70902
▁urg	-9.7101
▁rt	-9.71048
▁ožić	-9.71059
▁azal	-9.711
▁sat	-9.71255
▁oli	-9.7129
me	-9.71377
▁Ol	-9.71385
▁fra	-9.71448
iti	-9.71452
▁lop	-9.71539
▁moć	-9.716
▁zabio	-9.71616
▁ursk	-9.71653
▁bjekt	-9.7173
▁lici	-9.71827
▁cc	-9.71838
▁Opći	-9.71881
▁stol	-9.7203
▁alb	-9.72088
▁djeca	-9.72102
ndus	-9.72149
▁1.	-9.72193
▁jč	-9.72209
▁gen	-9.72219
▁bije	-9.72249
▁odmor	-9.72383
▁gene	-9.72466
▁aju	-9.72498
▁utin	-9.72505
▁erenu	-9.72562
akc	-9.72691
▁žele	-9.72721
▁brak	-9.72783
▁ičk	-9.72804
▁net	-9.72833
ruj	-9.7288
stro	-9.72917
▁ved	-9.73115
čj	-9.73263
▁šok	-9.73288
▁atr	-9.73301
▁visi	-9.73326
▁inc	-9.73326
▁pravi	-9.7338
▁igre	-9.73403
▁FO	-9.7342
▁ziti	-9.73572
▁olov	-9.73595
▁erz	-9.73609
▁bo	-9.73612
▁ton	-9.73654
▁stane	-9.7366
▁var	-9.73705
▁Sa	-9.73737
▁zim	-9.73772
S	-9.74021
▁rez	-9.74022
kov	-9.74268
▁land	-9.74312
up	-9.74369
▁klu	-9.74483
▁niž	-9.74572
▁doz	-9.74601
▁čast	-9.74633
▁ivot	-9.74677
▁eka	-9.74764
njsk	-9.74874
▁rekli	-9.7489
▁vez	-9.74946
▁nuta	-9.74967
▁razum	-9.74977
▁rel	-9.75033
▁diz	-9.75062
▁Jur	-9.75118
▁obje	-9.75137
▁ron	-9.75156
▁djet	-9.75192
▁ita	-9.75358
▁ruža	-9.7539
▁stalo	-9.75419
▁ajka	-9.75455
C	-9.75477
▁nuti	-9.75544
▁Pred	-9.7561
▁ražen	-9.75673
▁java	-9.75704
▁irali	-9.75724
šlj	-9.75761
omen	-9.75771
▁ero	-9.75816
▁nte	-9.75915
vol	-9.76158
▁zbor	-9.76214
▁dire	-9.7631
▁erce	-9.76385
▁ijelo	-9.7642
▁olni	-9.76526
▁eć	-9.76626
▁oči	-9.76629
▁ana	-9.76675
▁arij	-9.76702
▁vrh	-9.76761
▁lju	-9.7678
dnev	-9.76821
lošk	-9.76843
▁tvo	-9.76965
▁glo	-9.77005
▁ris	-9.77006
▁goj	-9.77021
ve	-9.77055
▁svet	-9.7709
▁abra	-9.77338
▁požar	-9.77343
▁minj	-9.77348
▁najv	-9.77417
nul	-9.77465
jer	-9.77491
▁Osi	-9.77511
▁Vlad	-9.77707
▁oznat	-9.77799
▁NA	-9.77799
▁jveći	-9.7782
▁atn	-9.77847
▁epi	-9.77848
▁ity	-9.77878
▁gres	-9.77995
▁eku	-9.78043
0	-9.78064
▁dig	-9.78067
▁či	-9.781
šten	-9.78121
▁Tu	-9.78168
▁crv	-9.78223
▁14	-9.78327
▁reba	-9.78477
▁norm	-9.78513
▁porez	-9.78515
▁Vid	-9.78558
▁izam	-9.78638
▁40	-9.78748
▁laže	-9.78807
▁100	-9.78839
▁arem	-9.79078
▁ich	-9.79086
sebn	-9.79097
▁Kin	-9.79204
▁ork	-9.79264
▁ešć	-9.79267
▁ock	-9.7931
▁Fot	-9.79627
end	-9.79712
▁čka	-9.79745
▁polj	-9.79819
prič	-9.79849
ćin	-9.79942
▁ukov	-9.79971
▁izm	-9.79998
▁sjeć	-9.80075
▁pava	-9.803
▁akv	-9.80317
os	-9.80402
ima	-9.80748
tiče	-9.80873
▁štr	-9.80996
▁ožu	-9.81065
▁gar	-9.81089
rist	-9.81101
▁žene	-9.81141
▁opada	-9.81151
▁med	-9.81157
▁etka	-9.81179
▁vješ	-9.81197
▁Luk	-9.81256
▁ovao	-9.8126
▁tekst	-9.81276
▁rac	-9.81279
▁ef	-9.81284
▁uj	-9.81622
▁kupn	-9.81682
1	-9.8177
ateg	-9.81783
▁abl	-9.81825
▁razi	-9.81922
kl	-9.82155
▁izik	-9.82158
▁osje	-9.8216
▁šću	-9.82273
▁pušt	-9.82274
▁17	-9.82284
▁dvor	-9.82341
▁uzet	-9.82392
▁13	-9.82395
▁gir	-9.82412
▁roč	-9.82478
▁ariz	-9.82578
▁uš	-9.82662
▁ex	-9.82683
▁aut	-9.82805
▁latn	-9.82845
▁indi	-9.8287
▁zir	-9.82913
▁jas	-9.8293
▁go	-9.82936
čel	-9.83142
uzet	-9.83142
▁alko	-9.8329
▁trg	-9.83348
tual	-9.83384
▁lago	-9.83554
▁pisan	-9.83726
us	-9.83836
▁hoće	-9.83881
▁leg	-9.84004
▁dion	-9.84072
▁dž	-9.84152
▁16	-9.84164
▁evo	-9.84188
▁abran	-9.84189
▁plov	-9.84246
▁logi	-9.84271
glas	-9.84417
▁trk	-9.84456
▁mr	-9.84503
mir	-9.84511
▁srpn	-9.8453
slav	-9.84714
▁inira	-9.84734
▁vidi	-9.84742
▁noći	-9.84879
▁tali	-9.8489
▁ujemo	-9.84905
▁riop	-9.84943
▁elj	-9.84975
▁cr	-9.85032
▁zvan	-9.85067
ke	-9.85074
▁oram	-9.85085
▁jedi	-9.8511
▁raš	-9.85123
▁staju	-9.85141
▁um	-9.85157
▁mali	-9.85163
▁ćenj	-9.85202
▁dobi	-9.85242
nič	-9.85301
▁jaci	-9.85364
▁aciji	-9.8538
nstv	-9.8539
▁iln	-9.85408
kad	-9.85433
▁vođa	-9.85461
▁lice	-9.85752
ilij	-9.85767
▁ian	-9.8582
zor	-9.85849
▁RTL	-9.85858
▁rap	-9.85909
▁kolu	-9.85935
▁tpun	-9.85977
▁gub	-9.86022
kav	-9.86049
tel	-9.86074
▁eogr	-9.8611
▁svjed	-9.86136
▁Mos	-9.86243
rov	-9.86263
▁kal	-9.86305
▁ču	-9.86361
▁ber	-9.86373
▁plać	-9.86606
▁brat	-9.86793
▁igr	-9.86798
▁gra	-9.87006
▁rimo	-9.8702
▁kin	-9.8711
▁oku	-9.87116
▁show	-9.87132
šl	-9.87142
▁ualn	-9.87205
▁anti	-9.87362
▁ortu	-9.87445
▁rin	-9.87445
▁ed	-9.87446
tn	-9.8755
▁nama	-9.87652
stič	-9.87763
▁ičko	-9.87763
▁ers	-9.87873
▁išt	-9.87877
▁izma	-9.87888
▁tez	-9.88012
dsk	-9.8812
kul	-9.88266
▁dola	-9.88329
▁alij	-9.88333
▁lip	-9.88352
▁iden	-9.88372
▁iječ	-9.88429
kraj	-9.88507
▁rest	-9.88514
▁voza	-9.88515
▁rtal	-9.88549
▁čeln	-9.8856
novn	-9.88601
tuc	-9.88653
lit	-9.88734
sel	-9.88736
▁imb	-9.88753
▁der	-9.88779
▁dali	-9.88811
▁enik	-9.88904
▁edan	-9.88947
ljen	-9.88977
▁onku	-9.88995
▁ađa	-9.89012
▁rita	-9.89082
▁mos	-9.89179
▁por	-9.89335
blj	-9.89386
▁ario	-9.89412
▁bijen	-9.8955
▁atiti	-9.89571
▁viz	-9.89612
▁oz	-9.89634
▁kovit	-9.89653
▁enuo	-9.89845
▁zem	-9.89892
▁olim	-9.8993
▁ft	-9.89945
▁kupa	-9.89967
stit	-9.89974
▁ših	-9.90056
▁eret	-9.9026
▁div	-9.90369
▁ovan	-9.90399
▁jest	-9.90507
sn	-9.90562
▁utra	-9.90829
ira	-9.90838
▁ari	-9.90917
▁novn	-9.90928
▁iven	-9.90964
▁DP	-9.91023
▁aksi	-9.91053
▁25	-9.91186
▁juč	-9.91315
▁19	-9.91424
▁azna	-9.91481
▁24	-9.91481
tan	-9.91492
jatn	-9.91627
▁etsk	-9.91653
▁Novi	-9.91679
▁nd	-9.91699
▁ukr	-9.91808
▁Pod	-9.91824
▁njom	-9.91898
▁toj	-9.91923
▁uput	-9.92
▁bal	-9.92061
▁škar	-9.92097
▁Sl	-9.92109
▁gosti	-9.92276
▁opt	-9.92281
▁Sam	-9.92376
▁hla	-9.92442
▁ašk	-9.92485
)	-9.92491
▁levi	-9.92561
▁bus	-9.92584
leg	-9.92846
▁Zor	-9.92897
▁star	-9.92935
▁gon	-9.93072
▁hoda	-9.93222
▁iru	-9.93243
▁vako	-9.93316
▁ajk	-9.93373
▁las	-9.93456
▁dovo	-9.93466
▁ijez	-9.93483
▁pad	-9.93499
U	-9.93512
▁ambe	-9.9352
▁onos	-9.93589
▁noš	-9.93636
▁Ukr	-9.9367
▁rani	-9.93681
▁ziv	-9.93719
tpor	-9.93729
▁tac	-9.93889
▁ater	-9.93892
▁neu	-9.94001
kuš	-9.94015
▁rec	-9.94019
▁Žel	-9.94051
▁sta	-9.94123
▁lozi	-9.94147
▁sel	-9.94171
▁Mad	-9.94193
▁aleko	-9.94222
▁otpis	-9.94265
▁reza	-9.94382
▁tpisa	-9.94413
▁hva	-9.94452
boj	-9.94469
▁voda	-9.94553
jsk	-9.94605
▁ly	-9.94636
op	-9.94896
ek	-9.95078
▁eter	-9.9508
▁pola	-9.95108
▁zi	-9.95111
▁kinj	-9.95121
▁pute	-9.95164
▁aps	-9.95192
▁anima	-9.95269
ijač	-9.95293
▁uh	-9.95396
ješt	-9.95403
▁ook	-9.95419
▁HRT	-9.95428
eset	-9.95444
▁rab	-9.95552
sl	-9.9563
▁jk	-9.95721
▁inja	-9.95765
▁voje	-9.95896
▁ept	-9.95907
▁reš	-9.96021
▁šeg	-9.96276
▁rut	-9.9636
▁aln	-9.964
▁car	-9.96429
▁dić	-9.96487
▁olin	-9.96506
▁ljsk	-9.96625
▁entr	-9.96679
▁kata	-9.96685
▁tva	-9.96766
▁tele	-9.96774
▁važ	-9.96838
▁tivn	-9.96839
▁redu	-9.96844
lat	-9.9692
▁javno	-9.97133
▁itu	-9.97189
▁oks	-9.97319
▁HNL	-9.97359
▁duh	-9.97411
▁kući	-9.97451
▁inca	-9.97454
▁Evo	-9.976
▁tic	-9.97835
▁akl	-9.97883
▁run	-9.97886
▁ige	-9.97993
jež	-9.98003
▁zon	-9.98015
vješ	-9.98055
▁ovač	-9.98137
▁ale	-9.98205
▁pao	-9.98244
irek	-9.98267
osob	-9.98314
▁cem	-9.98339
▁dokaz	-9.98359
▁rija	-9.98387
▁elu	-9.98392
▁pomo	-9.98413
▁otiv	-9.9844
▁TV	-9.98714
▁tirao	-9.98756
▁Iv	-9.98846
▁Pods	-9.98976
imp	-9.99251
▁zbu	-9.99276
▁bij	-9.99374
▁šin	-9.9942
▁boda	-9.99789
▁irala	-9.99825
▁uru	-9.99926
▁enata	-9.99945
rof	-9.99987
lač	-10.0005
▁ng	-10.0008
▁Jak	-10.0012
▁rič	-10.0015
▁očn	-10.0027
ija	-10.003
▁agan	-10.0032
daš	-10.0037
▁azil	-10.0043
▁pas	-10.0048
rod	-10.0049
▁mol	-10.0075
▁mom	-10.0081
▁kreta	-10.0082
▁lavn	-10.0095
▁ruke	-10.0103
▁kav	-10.0103
ič	-10.0108
▁Me	-10.0112
▁iječi	-10.0115
▁rakt	-10.0119
▁che	-10.0123
▁kul	-10.0127
▁rib	-10.013
▁ljivo	-10.013
▁tira	-10.0146
▁ref	-10.0163
▁otor	-10.0169
će	-10.0171
▁Rim	-10.0171
▁avi	-10.0183
▁loka	-10.0184
▁ijen	-10.0187
ris	-10.0197
ovol	-10.0202
▁ranj	-10.0221
▁ziva	-10.0228
▁irani	-10.0232
▁RH	-10.024
usk	-10.0245
▁amp	-10.025
onir	-10.0252
▁lijun	-10.0256
▁agn	-10.0262
▁ljuje	-10.0273
▁torij	-10.0277
▁alić	-10.0287
▁ikad	-10.0294
▁godio	-10.0306
▁etn	-10.0313
▁und	-10.0315
tic	-10.0319
abor	-10.0323
▁60	-10.0337
nves	-10.0341
▁ho	-10.0346
▁ovit	-10.0349
▁upa	-10.0352
▁mjeru	-10.0372
▁mis	-10.0378
▁odom	-10.0385
▁dem	-10.0387
▁danj	-10.0395
ljeć	-10.0398
br	-10.0399
ila	-10.0405
lij	-10.0414
ekst	-10.0421
▁ikl	-10.043
▁ijel	-10.0433
orb	-10.0445
emen	-10.0457
▁lazn	-10.0462
sve	-10.0464
lin	-10.0475
▁fon	-10.0518
▁jno	-10.0524
kupn	-10.0531
▁okv	-10.0531
▁erij	-10.0534
▁tp	-10.0535
ncij	-10.0538
edb	-10.0548
▁anta	-10.0563
▁uži	-10.0565
▁PO	-10.0568
▁rs	-10.0576
▁apad	-10.0581
▁ličn	-10.0583
rael	-10.0584
▁ardi	-10.0587
▁rag	-10.0587
▁đe	-10.059
▁alni	-10.0595
du	-10.0596
▁lud	-10.0598
▁vir	-10.0599
▁živi	-10.0601
▁šim	-10.0618
▁kriva	-10.0633
▁jni	-10.0649
ojim	-10.0662
▁Dub	-10.0666
▁#	-10.0667
▁raj	-10.0675
▁stil	-10.0679
un	-10.0684
▁ovsk	-10.0686
▁đ	-10.07
▁dobit	-10.0703
▁isa	-10.0703
▁ensk	-10.0706
▁itk	-10.0719
▁če	-10.0722
▁zgled	-10.0738
▁ilj	-10.0746
▁enut	-10.0752
▁mad	-10.0757
▁javi	-10.0766
▁ret	-10.0781
priv	-10.0788
▁vezi	-10.0789
dij	-10.079
▁zele	-10.0802
▁staj	-10.0809
▁ond	-10.081
▁ival	-10.0826
vin	-10.0827
▁port	-10.0831
alij	-10.0836
ogađ	-10.0843
▁anjen	-10.0851
▁ujem	-10.0852
▁izvo	-10.0852
▁veze	-10.0853
▁ivan	-10.0856
edij	-10.0858
▁lica	-10.0861
▁ene	-10.0863
▁oje	-10.0881
▁jeća	-10.0885
van	-10.0893
▁mani	-10.0897
▁inale	-10.09
ženj	-10.0901
▁kih	-10.0912
▁rugu	-10.0918
okaz	-10.0939
▁usta	-10.0944
▁dram	-10.0949
▁rank	-10.0952
▁Je	-10.0953
▁icira	-10.0959
▁ick	-10.0965
eks	-10.0973
inc	-10.0973
▁čko	-10.0998
▁bist	-10.1
▁brin	-10.1008
vno	-10.101
▁eća	-10.102
▁oč	-10.1026
ki	-10.1035
▁arsk	-10.1054
▁rv	-10.1055
▁liv	-10.1055
▁eng	-10.1057
▁jud	-10.1075
▁our	-10.1078
jeća	-10.1082
pad	-10.1087
▁ošte	-10.1093
▁ins	-10.1099
▁lada	-10.11
▁ljeni	-10.1101
▁aši	-10.1105
urad	-10.1115
▁visn	-10.1117
▁ori	-10.1121
▁inv	-10.1121
▁ošla	-10.1123
plat	-10.1123
▁roči	-10.1129
▁nit	-10.1139
vod	-10.114
▁esu	-10.1151
▁att	-10.1156
▁X	-10.1163
▁hal	-10.1163
▁rač	-10.1199
▁tema	-10.1228
▁manji	-10.1236
▁aze	-10.1257
ršk	-10.1271
tiv	-10.1291
▁traje	-10.1295
▁jasn	-10.1302
▁jače	-10.1322
▁idu	-10.1323
▁pam	-10.1334
▁mjena	-10.134
▁Đ	-10.1342
▁ster	-10.1345
što	-10.1348
▁edij	-10.1348
▁pla	-10.1349
▁anju	-10.1349
▁omb	-10.1361
▁prot	-10.1399
▁°	-10.1403
rt	-10.1411
▁anke	-10.1422
▁iješ	-10.144
jub	-10.1449
▁civ	-10.1466
▁uče	-10.1486
▁štvu	-10.1487
▁adar	-10.1488
▁alic	-10.1501
nu	-10.1504
▁četv	-10.151
▁ebr	-10.1512
▁rošlo	-10.153
▁vet	-10.1531
▁ram	-10.1542
eđen	-10.1544
▁pala	-10.1545
lar	-10.1549
▁sigu	-10.1549
▁ozn	-10.1553
▁šal	-10.1555
▁edu	-10.1557
ilj	-10.1566
▁osn	-10.1574
▁ren	-10.1585
jeć	-10.159
▁tal	-10.1598
▁odig	-10.1611
▁točn	-10.1612
▁lek	-10.1613
▁arm	-10.1614
id	-10.1616
▁trenu	-10.1626
las	-10.1627
▁dij	-10.1628
ljev	-10.1634
▁iše	-10.164
▁ces	-10.1641
▁ijes	-10.1641
▁jka	-10.1648
▁nis	-10.1649
▁fic	-10.1653
min	-10.1658
▁kim	-10.1681
▁blis	-10.1682
▁nt	-10.1687
▁ička	-10.1699
▁čuva	-10.1706
▁mjera	-10.1709
▁smij	-10.1709
inam	-10.1718
rat	-10.1727
▁ere	-10.173
▁ukl	-10.1736
▁El	-10.1756
▁Man	-10.1765
▁Kon	-10.1767
▁ađ	-10.1775
▁ivač	-10.1776
▁zva	-10.1778
▁eci	-10.1801
▁jač	-10.1811
▁mjere	-10.1814
GLE	-10.1819
jez	-10.1819
▁han	-10.1826
▁meč	-10.1827
▁oba	-10.1837
▁gin	-10.1843
▁Kor	-10.1844
▁orc	-10.1847
▁čar	-10.1861
▁ovak	-10.1862
▁išn	-10.1865
▁sm	-10.1865
▁štvo	-10.187
▁abor	-10.1877
▁nism	-10.1881
▁deb	-10.1883
▁ag	-10.1883
▁21	-10.1891
▁ata	-10.1895
▁gramu	-10.1897
▁gno	-10.1905
▁ever	-10.1906
ozil	-10.1911
▁zgra	-10.1911
▁Tim	-10.1916
▁dao	-10.1925
▁lić	-10.1938
▁tarn	-10.1957
eš	-10.1966
▁ord	-10.1966
liž	-10.1973
▁Lu	-10.1976
▁ail	-10.1995
▁ugr	-10.1997
▁juje	-10.2004
ga	-10.2006
▁obno	-10.2014
▁bin	-10.2017
▁Eur	-10.2024
▁lic	-10.2024
ego	-10.203
▁vri	-10.203
▁zid	-10.2032
▁ast	-10.2036
▁ern	-10.2037
▁Nik	-10.2039
▁ry	-10.204
▁apa	-10.2047
▁stru	-10.2055
gij	-10.2062
▁cija	-10.2066
▁stič	-10.2076
4	-10.2077
olit	-10.2096
▁inic	-10.2099
▁lod	-10.2103
▁inske	-10.2107
▁raga	-10.2128
▁fot	-10.2147
▁kov	-10.2147
▁ajuć	-10.2149
▁kle	-10.2158
nc	-10.2164
stoj	-10.2174
▁roba	-10.2179
ub	-10.218
▁2.	-10.2188
▁ež	-10.2188
▁snov	-10.2215
▁obil	-10.2228
▁Pe	-10.2245
▁Sad	-10.2245
▁all	-10.2269
▁ića	-10.2276
▁avu	-10.2276
ard	-10.2281
▁pac	-10.2284
▁Ove	-10.23
ob	-10.2309
2	-10.2314
▁najm	-10.2324
dlič	-10.2325
▁uzd	-10.2332
▁emij	-10.2334
▁ljav	-10.2338
▁Ar	-10.2338
▁upc	-10.2343
▁juž	-10.235
▁traži	-10.236
▁eve	-10.2369
▁ong	-10.2372
▁kanal	-10.2381
▁Rep	-10.2382
sa	-10.2387
▁tič	-10.2389
▁sir	-10.239
di	-10.239
nici	-10.2404
▁Ve	-10.2408
▁maš	-10.2412
▁Jel	-10.2413
▁Zbo	-10.2426
ment	-10.2429
puno	-10.2436
▁ug	-10.2451
▁aza	-10.2452
ikac	-10.2454
▁oziv	-10.2459
žnj	-10.2461
rema	-10.2478
▁iver	-10.2487
▁tion	-10.2497
gađ	-10.2501
▁inut	-10.2504
▁šten	-10.2504
▁ljev	-10.2511
D	-10.2541
▁mage	-10.2551
▁3.	-10.2567
▁rž	-10.2568
"	-10.2568
uj	-10.2573
spor	-10.2574
▁rvo	-10.2574
▁ruku	-10.2579
stin	-10.2588
▁Ni	-10.259
aron	-10.2593
▁azum	-10.2597
▁skup	-10.2598
maju	-10.2615
zd	-10.2624
▁zb	-10.2629
mac	-10.2639
▁az	-10.2647
bog	-10.2647
▁šut	-10.2648
▁zira	-10.2654
▁alj	-10.2665
▁poz	-10.2673
▁napo	-10.2673
▁anin	-10.2682
▁enim	-10.2683
▁nudi	-10.2683
▁seg	-10.2689
▁žal	-10.2691
▁znati	-10.2697
tar	-10.2699
▁avati	-10.2707
▁enici	-10.2722
vih	-10.2731
ali	-10.2745
▁čkom	-10.2745
▁umu	-10.2749
ić	-10.2751
ab	-10.2752
odov	-10.2757
vak	-10.2759
▁dužn	-10.2761
▁Var	-10.2767
▁teri	-10.277
drav	-10.2773
▁zc	-10.2778
▁uću	-10.2786
▁ur	-10.2787
▁jača	-10.2789
če	-10.2809
▁plaće	-10.281
▁ržava	-10.2811
▁ust	-10.2817
opć	-10.2822
▁luc	-10.2831
klju	-10.2833
▁luš	-10.2837
▁ljaj	-10.285
emlj	-10.2854
▁eta	-10.2858
▁znato	-10.2879
▁ormi	-10.288
▁22	-10.288
▁Car	-10.2882
▁lor	-10.2882
▁itan	-10.2884
▁kasn	-10.2885
tin	-10.2887
▁oseb	-10.2897
▁elek	-10.2901
▁ban	-10.2904
jeva	-10.2905
▁rago	-10.2916
▁diza	-10.2916
ečer	-10.2922
▁ane	-10.2924
▁7.	-10.2928
▁raka	-10.2936
▁ijep	-10.2938
▁rska	-10.2942
▁fr	-10.2954
▁Ma	-10.2958
uć	-10.296
▁uha	-10.2966
▁ondo	-10.2974
▁rca	-10.2984
▁akva	-10.2985
▁DA	-10.2986
▁jetn	-10.2991
▁vic	-10.2992
O	-10.2995
▁ožemo	-10.3003
▁taln	-10.3004
mać	-10.3005
▁gran	-10.3025
vaj	-10.3033
▁redo	-10.3048
▁eš	-10.3052
▁Kar	-10.3059
oran	-10.306
gov	-10.3061
lja	-10.3061
▁kot	-10.3068
▁nevn	-10.3083
▁ovac	-10.3095
▁evet	-10.3113
▁skla	-10.3114
▁ler	-10.3114
▁znala	-10.3136
už	-10.3136
jača	-10.3137
rank	-10.3137
▁nula	-10.314
▁izb	-10.3143
▁pap	-10.3156
▁rob	-10.3157
▁už	-10.3165
▁nado	-10.3166
hva	-10.3174
▁arhi	-10.3175
▁osp	-10.3179
▁lišt	-10.3187
▁ljeć	-10.319
▁dam	-10.3191
▁Ra	-10.3218
I	-10.322
▁esk	-10.3228
▁jin	-10.3233
▁kak	-10.3251
▁rk	-10.3256
▁15.	-10.3261
▁eut	-10.3271
▁Oli	-10.3274
▁ugl	-10.3274
▁vj	-10.3278
▁elim	-10.3279
BC	-10.3282
▁bitel	-10.3287
▁grade	-10.3287
▁ema	-10.3293
▁Kl	-10.3296
▁ato	-10.3297
▁kojo	-10.3306
▁rsta	-10.3307
▁zla	-10.3312
▁bar	-10.3315
▁činje	-10.3327
▁zra	-10.3337
▁akve	-10.3338
tra	-10.3339
JTE	-10.334
▁ans	-10.3344
▁zij	-10.3358
▁tre	-10.3371
▁cip	-10.3384
▁zas	-10.3384
▁Dina	-10.3401
▁ure	-10.3401
▁vrs	-10.3405
▁w	-10.3406
▁redi	-10.3407
▁šla	-10.3408
▁form	-10.3441
,5	-10.3445
▁af	-10.3452
▁loz	-10.3468
▁kole	-10.3475
▁jesen	-10.3475
▁ivao	-10.3477
▁ml	-10.3484
▁misli	-10.349
zon	-10.3497
▁esl	-10.3499
▁traže	-10.35
etko	-10.3508
▁Tik	-10.354
▁apl	-10.3549
▁nogi	-10.355
gl	-10.3557
▁ojat	-10.3557
jih	-10.3569
▁Ta	-10.3575
▁uva	-10.3577
▁tičn	-10.3594
▁ponu	-10.3594
▁fik	-10.3595
TE	-10.3596
▁Is	-10.3597
▁Op	-10.3598
▁išu	-10.361
▁tere	-10.3614
ot	-10.3616
▁jeva	-10.3618
▁laka	-10.3629
▁Vel	-10.3638
▁jut	-10.365
dej	-10.367
▁eru	-10.3685
▁ind	-10.3685
▁asti	-10.3686
▁abora	-10.3699
▁Nak	-10.3703
▁Dal	-10.3707
▁jeć	-10.3712
▁avl	-10.3736
▁ivo	-10.3737
nd	-10.3742
▁akon	-10.3755
▁treće	-10.3757
▁utr	-10.3757
▁ame	-10.376
▁adu	-10.3772
▁ha	-10.3773
▁ermin	-10.3774
dan	-10.3775
uris	-10.3777
▁amen	-10.3777
▁ređ	-10.3787
▁art	-10.3798
▁ix	-10.3803
▁rek	-10.3807
▁doba	-10.3809
▁pel	-10.3817
▁lus	-10.3841
▁edr	-10.3842
▁slič	-10.3847
▁muzej	-10.3854
▁spek	-10.3858
▁kus	-10.3863
▁vij	-10.3866
▁vu	-10.3876
▁vin	-10.3876
▁šti	-10.3889
▁Ad	-10.3896
6	-10.3897
▁rske	-10.3906
▁gn	-10.3907
▁judi	-10.3911
uhi	-10.392
oči	-10.3921
▁5.	-10.3931
▁đen	-10.3956
▁jviš	-10.3974
▁spr	-10.3978
▁amar	-10.3981
▁kuh	-10.3989
▁dir	-10.3995
▁obal	-10.3996
ku	-10.4003
▁atke	-10.4013
▁hor	-10.402
▁Pal	-10.4021
▁ček	-10.4027
▁rak	-10.4033
▁moto	-10.4047
P	-10.4054
▁šta	-10.4057
▁njsk	-10.4061
▁četi	-10.4064
▁20.	-10.4066
▁rce	-10.4067
▁doga	-10.4076
L	-10.408
▁ham	-10.408
▁ljač	-10.4081
▁koč	-10.4083
iž	-10.4088
▁atur	-10.409
▁iču	-10.409
▁vora	-10.4093
▁ajno	-10.4108
▁kil	-10.4108
▁jači	-10.4112
▁trav	-10.4114
▁van	-10.4116
ubot	-10.4119
▁ečk	-10.412
ben	-10.4131
▁čev	-10.4133
▁ruž	-10.4142
▁lom	-10.4147
▁inom	-10.4151
▁23	-10.4152
▁gani	-10.4153
▁esto	-10.4154
▁acima	-10.4155
▁Vi	-10.4168
▁omin	-10.4176
rvi	-10.4186
ljiv	-10.4189
▁olik	-10.4196
▁araj	-10.4209
uac	-10.4213
▁rč	-10.4228
▁ez	-10.4232
ban	-10.4253
▁11.	-10.4258
▁hum	-10.4259
▁znaj	-10.4263
▁ink	-10.4269
▁un	-10.4277
▁movi	-10.4281
▁gađa	-10.4285
zul	-10.4329
▁riv	-10.4333
▁nstr	-10.4339
▁orit	-10.4339
▁obj	-10.434
▁mit	-10.4341
▁ome	-10.4343
pr	-10.4346
▁nač	-10.4359
▁eln	-10.4368
▁jstvo	-10.4369
▁idr	-10.4371
form	-10.4375
▁ess	-10.4378
▁ulje	-10.4385
▁rik	-10.4387
▁jko	-10.4399
▁ara	-10.4399
▁vira	-10.4408
▁alna	-10.4415
▁tiv	-10.4418
▁enti	-10.4423
▁kama	-10.4423
erij	-10.4425
per	-10.4437
▁4.	-10.4444
▁tric	-10.4447
▁Q	-10.4447
▁tić	-10.4461
▁kć	-10.4461
▁aste	-10.4472
ru	-10.4479
▁adić	-10.4485
▁rp	-10.4494
▁ioni	-10.4495
ev	-10.4497
ski	-10.45
▁kand	-10.451
▁ohn	-10.451
▁stic	-10.4511
▁jat	-10.4525
gi	-10.4537
sion	-10.4539
▁tok	-10.4544
▁remi	-10.4553
▁riž	-10.4553
▁DAJ	-10.4555
▁dese	-10.456
8	-10.4572
▁ena	-10.4579
▁rst	-10.4581
▁ačić	-10.4582
▁17.	-10.4596
lič	-10.4598
▁vide	-10.4611
▁roku	-10.462
▁aust	-10.4626
▁rolaz	-10.4648
▁duš	-10.465
▁zer	-10.465
▁etin	-10.4661
▁inov	-10.4672
▁prez	-10.4673
▁ash	-10.4688
▁edn	-10.4692
▁otpor	-10.4698
▁stro	-10.47
nst	-10.4703
▁čel	-10.4719
▁etk	-10.472
▁znali	-10.4724
▁upit	-10.4727
▁čku	-10.4747
▁Špan	-10.4747
▁jeci	-10.4747
kril	-10.4759
▁inte	-10.4773
ziv	-10.4793
kr	-10.4793
▁30.	-10.48
▁voli	-10.4812
▁upo	-10.4816
▁x	-10.482
truk	-10.4825
▁umir	-10.4827
▁8.	-10.4829
▁šanse	-10.4829
oga	-10.4835
tuž	-10.4839
bi	-10.4856
▁12.	-10.4858
▁db	-10.4862
▁emu	-10.4869
▁jelom	-10.4878
trag	-10.4895
▁onč	-10.4907
▁lub	-10.491
▁id	-10.4928
▁truk	-10.4933
▁line	-10.4939
▁astu	-10.497
mat	-10.4978
▁lagan	-10.5009
gas	-10.5022
ramo	-10.5034
▁ideo	-10.5048
▁otk	-10.5056
avno	-10.5056
▁80	-10.5062
▁sce	-10.5066
5	-10.5081
nog	-10.5092
▁nud	-10.5096
▁rsk	-10.5096
▁rugi	-10.5107
▁Par	-10.5121
dn	-10.5125
▁adam	-10.5126
▁ojač	-10.5129
▁aja	-10.5137
▁tari	-10.514
ds	-10.5142
▁geo	-10.5146
▁sluš	-10.5151
nom	-10.5156
mu	-10.5163
and	-10.5168
▁rum	-10.5169
snov	-10.517
▁AL	-10.5172
▁Kod	-10.5188
̌	-10.5195
▁etv	-10.5203
▁svo	-10.5208
▁ovis	-10.5216
▁sob	-10.5223
▁the	-10.5224
▁gij	-10.5229
▁lože	-10.523
ok	-10.5233
▁ačn	-10.5237
▁tima	-10.5241
▁šlj	-10.5249
K	-10.5256
▁maže	-10.5258
▁ank	-10.5263
▁še	-10.5266
▁etim	-10.5267
▁mre	-10.5268
▁iral	-10.5273
▁10.	-10.5304
'	-10.5307
▁rano	-10.5341
▁lam	-10.5345
▁Ham	-10.5361
▁ndi	-10.5365
aci	-10.5381
▁apan	-10.5391
▁ordan	-10.5397
▁avak	-10.5398
tu	-10.5414
▁idim	-10.5416
ef	-10.5417
▁*	-10.542
▁uti	-10.5428
3	-10.5433
kan	-10.5436
▁okret	-10.5441
tičk	-10.5457
▁uđ	-10.5458
▁men	-10.5464
▁70	-10.547
▁onj	-10.5472
▁rub	-10.5475
▁De	-10.5479
▁šav	-10.5481
▁erb	-10.5483
ost	-10.5484
▁vina	-10.5497
▁riz	-10.5513
▁anim	-10.5519
▁topa	-10.5519
▁Jo	-10.5532
▁ašl	-10.5536
▁ver	-10.5539
▁agen	-10.5558
x	-10.5562
▁alan	-10.5572
timo	-10.5585
▁tje	-10.5598
▁jeto	-10.5602
▁čas	-10.5606
▁čević	-10.5608
▁lag	-10.5619
▁rođ	-10.5619
▁jave	-10.5621
▁Fr	-10.5622
▁este	-10.5623
▁peri	-10.5628
čan	-10.5631
▁Us	-10.5637
▁rskoj	-10.5646
ili	-10.5652
▁azu	-10.5657
▁dres	-10.5658
▁isc	-10.5664
oz	-10.5664
▁90	-10.5668
▁šć	-10.5673
de	-10.5682
▁ičan	-10.569
▁ate	-10.5692
▁ječ	-10.5701
▁mon	-10.5708
Ne	-10.5708
nje	-10.5709
▁kli	-10.5712
▁alat	-10.5718
▁odr	-10.5725
▁tart	-10.5725
▁sama	-10.5732
▁Bit	-10.5743
▁ljuju	-10.5744
ch	-10.5756
▁pisu	-10.5759
▁rim	-10.5765
▁atima	-10.5766
kc	-10.5794
▁JE	-10.5795
▁avid	-10.5799
▁rom	-10.5801
▁6.	-10.5802
▁ERIJ	-10.5807
mor	-10.5826
tk	-10.5829
▁oda	-10.5853
▁kos	-10.5863
▁raca	-10.587
▁19.	-10.5871
▁lavi	-10.5873
▁18.	-10.5879
▁dep	-10.5894
▁klop	-10.591
▁avk	-10.5913
▁lav	-10.5919
▁rizn	-10.5929
▁tet	-10.593
LE	-10.5944
▁ijeme	-10.5947
▁posl	-10.5948
▁zema	-10.5951
▁teme	-10.5956
▁pog	-10.5957
▁ifi	-10.5958
rsk	-10.5962
▁ade	-10.5966
▁14.	-10.5969
▁poslu	-10.5981
▁nepr	-10.5987
zb	-10.5987
▁rva	-10.5994
▁Pol	-10.6016
▁roz	-10.6019
ce	-10.602
▁Ben	-10.6032
▁utn	-10.6037
▁kvad	-10.6039
čkom	-10.6049
▁sje	-10.6063
vat	-10.6067
▁šećer	-10.6068
ver	-10.6074
iđ	-10.6077
▁ted	-10.6084
▁mogl	-10.6088
▁turi	-10.6091
▁13.	-10.6093
▁Ana	-10.6095
▁rava	-10.6096
▁elit	-10.6102
▁uči	-10.6112
▁eso	-10.6119
▁misi	-10.6127
▁stov	-10.6129
▁Mor	-10.6141
▁jima	-10.6159
To	-10.616
▁hel	-10.6169
nja	-10.6175
▁arton	-10.6188
▁Rus	-10.6199
▁ult	-10.6207
nsk	-10.621
▁jaš	-10.6212
jek	-10.6223
▁tine	-10.6234
lov	-10.6235
▁kari	-10.6244
▁21.	-10.6257
▁tožer	-10.6258
▁cira	-10.6263
@	-10.6267
▁etar	-10.6275
▁užn	-10.6276
▁lum	-10.6284
▁arni	-10.629
ozna	-10.6295
ijsk	-10.6298
▁ažu	-10.6313
▁lis	-10.6324
▁for	-10.6338
▁dal	-10.6348
▁etak	-10.6373
▁rc	-10.6378
▁alen	-10.6387
▁Sela	-10.639
▁Kol	-10.6396
▁suđ	-10.6404
▁enk	-10.6412
▁upu	-10.6413
žda	-10.6429
▁iku	-10.6436
▁gura	-10.6453
▁roje	-10.6459
▁POG	-10.6462
jte	-10.6463
seb	-10.6466
▁rit	-10.647
▁9.	-10.6472
▁bazen	-10.6483
činj	-10.6491
sta	-10.6495
pa	-10.651
▁vanj	-10.6517
▁asp	-10.6518
▁last	-10.6522
▁roj	-10.6522
▁Mih	-10.6522
▁har	-10.6532
▁35	-10.6533
▁vrdi	-10.6557
der	-10.6558
▁500	-10.6568
▁eor	-10.6568
▁vama	-10.6577
▁spo	-10.6582
visn	-10.6584
nis	-10.6601
▁ažni	-10.6604
▁adr	-10.6605
▁_	-10.6608
▁von	-10.6614
▁upn	-10.6615
ktiv	-10.6628
▁ros	-10.663
▁16.	-10.6647
▁Mo	-10.6651
▁adio	-10.6658
▁Nek	-10.6662
▁ular	-10.6663
▁niv	-10.6665
▁esen	-10.6668
▁ap	-10.667
▁jet	-10.6671
otiv	-10.6681
▁imal	-10.6681
▁dljiv	-10.6689
▁esta	-10.6695
stru	-10.6707
▁esio	-10.6713
▁agi	-10.672
▁aziv	-10.6723
jeca	-10.6731
▁com	-10.6738
ama	-10.6747
▁gro	-10.6748
▁uća	-10.6758
val	-10.6761
▁Paul	-10.6769
▁lit	-10.6771
▁jesni	-10.6772
▁adnik	-10.6776
▁rza	-10.6794
psk	-10.6797
▁26	-10.6807
▁orin	-10.6808
▁zn	-10.6809
▁Le	-10.6821
šem	-10.6829
▁zgr	-10.6831
OK	-10.6856
▁lasi	-10.6861
▁kovi	-10.6863
▁dim	-10.6866
B	-10.6872
▁Sh	-10.6874
▁bora	-10.6875
▁ket	-10.6876
▁egr	-10.6887
▁mog	-10.69
▁Ev	-10.691
▁avan	-10.6921
▁stavi	-10.6923
▁Ho	-10.6924
rija	-10.6925
▁aci	-10.6937
▁emi	-10.6942
▁bave	-10.6942
ože	-10.696
▁etra	-10.6965
tik	-10.6966
▁vanja	-10.6966
▁ig	-10.6974
▁jesti	-10.6976
▁ivaj	-10.6985
▁Red	-10.6993
▁adi	-10.6998
▁jez	-10.7001
ntn	-10.7009
▁mot	-10.7014
▁miris	-10.7014
pun	-10.7015
▁ešt	-10.7024
▁rg	-10.7025
▁Ot	-10.7026
▁čije	-10.7036
▁ula	-10.7042
var	-10.7046
fer	-10.7047
▁taš	-10.7051
jet	-10.7054
▁lađ	-10.7057
▁slob	-10.7073
▁ip	-10.7077
▁ašava	-10.7078
▁ći	-10.7094
▁gore	-10.7101
▁nzi	-10.7105
▁onov	-10.7107
▁rate	-10.7111
▁ow	-10.7112
▁dop	-10.7116
utar	-10.7117
▁300	-10.7118
▁kaž	-10.7134
▁sna	-10.7138
▁nađe	-10.7168
▁vala	-10.7168
vlj	-10.7179
▁cik	-10.7181
▁anij	-10.7186
ste	-10.7193
▁orb	-10.7199
až	-10.7206
▁jeći	-10.7214
▁ljubi	-10.7223
▁22.	-10.7224
nt	-10.7225
▁ivali	-10.7239
odin	-10.7246
nik	-10.7247
ihov	-10.7251
▁Pav	-10.7251
▁aran	-10.7256
▁utk	-10.7261
▁poj	-10.7277
▁reži	-10.7278
bar	-10.7288
▁kvar	-10.7289
▁onz	-10.729
▁niji	-10.7296
oseb	-10.7298
šnj	-10.7303
▁anac	-10.7304
▁ogo	-10.7319
▁PU	-10.7335
▁vil	-10.7336
▁eče	-10.7351
▁uška	-10.7354
▁trak	-10.736
▁onic	-10.7371
▁štva	-10.738
▁26.	-10.7396
▁enih	-10.7397
▁anija	-10.7405
▁enat	-10.7419
▁UN	-10.7426
▁asa	-10.7428
gor	-10.7431
▁auz	-10.7436
nal	-10.7436
rav	-10.7445
avlj	-10.7447
▁1,	-10.7447
diš	-10.7454
▁ožen	-10.747
▁kral	-10.747
kog	-10.7487
▁kril	-10.7489
▁29.	-10.7499
▁djec	-10.7499
▁eško	-10.7502
▁uli	-10.7521
▁jenje	-10.7523
▁sobn	-10.7529
▁we	-10.7534
▁irekt	-10.7536
▁ulja	-10.7546
▁ijeti	-10.7547
▁Zv	-10.7551
ičn	-10.7552
▁reću	-10.7552
▁atori	-10.7559
▁zl	-10.7571
▁pop	-10.7578
zij	-10.7603
▁nisa	-10.7605
▁gas	-10.7608
▁greb	-10.7612
▁ukra	-10.7613
▁jetio	-10.7618
▁eza	-10.7619
▁cion	-10.7638
▁vezu	-10.7648
▁ois	-10.765
▁ijem	-10.7652
rvat	-10.7664
▁omu	-10.7673
▁ops	-10.7693
▁Pr	-10.7694
▁sla	-10.7699
vest	-10.7708
▁snik	-10.7708
cu	-10.7712
▁olo	-10.7727
nuti	-10.773
▁ljeća	-10.774
w	-10.775
▁inir	-10.7773
▁lac	-10.7773
▁nic	-10.7775
▁rci	-10.7775
▁atra	-10.7778
lim	-10.7779
▁udu	-10.7782
▁mica	-10.7783
▁asc	-10.7785
▁pon	-10.7787
▁pub	-10.7796
▁olje	-10.7807
▁vis	-10.7809
▁ugo	-10.781
ht	-10.7811
ćan	-10.7813
▁jm	-10.7816
▁part	-10.7826
▁eđa	-10.783
▁kun	-10.7846
▁ekc	-10.7858
▁rge	-10.7869
▁ukt	-10.787
▁načaj	-10.7872
▁ger	-10.7876
▁ese	-10.7884
▁ovića	-10.79
akš	-10.7907
▁ilm	-10.7919
▁gre	-10.7921
zov	-10.7937
▁chef	-10.7947
▁opa	-10.796
čn	-10.7963
▁Dana	-10.7964
▁Sal	-10.7981
▁wit	-10.7981
▁kut	-10.7981
▁opad	-10.7984
▁lid	-10.7999
ip	-10.8
mije	-10.8
▁Dva	-10.8005
graf	-10.8027
man	-10.8051
▁ner	-10.8052
▁ual	-10.8054
▁Vu	-10.8065
▁veni	-10.8065
lan	-10.8071
▁ktiv	-10.8073
▁ladi	-10.8085
▁25.	-10.8086
▁Jer	-10.8089
vid	-10.8093
ig	-10.8097
▁moc	-10.8108
▁ism	-10.8109
elj	-10.8112
▁atl	-10.8114
▁leda	-10.8115
▁her	-10.8116
▁iel	-10.8116
sob	-10.8124
▁arr	-10.8142
▁most	-10.8144
opt	-10.8145
▁45	-10.8158
skr	-10.8158
▁ače	-10.8163
▁odjel	-10.817
▁eće	-10.8176
▁čani	-10.8177
▁bl	-10.8185
▁mreža	-10.8188
▁lob	-10.8192
▁dat	-10.8197
▁fi	-10.8204
▁ezo	-10.8209
▁stre	-10.8216
▁olest	-10.8225
▁La	-10.8227
adr	-10.8233
▁etro	-10.8249
▁ustr	-10.8251
▁obn	-10.8254
▁erg	-10.8256
▁ier	-10.8258
▁28.	-10.8258
▁rta	-10.8262
▁ća	-10.8267
▁oče	-10.8282
▁kvart	-10.8292
▁ksi	-10.8295
▁elem	-10.8296
▁ovine	-10.8314
▁inje	-10.8321
▁ušk	-10.8324
▁vjeti	-10.8328
▁edb	-10.8331
▁radu	-10.8334
▁fak	-10.8337
▁ljud	-10.834
▁daj	-10.8341
BA	-10.8341
▁erge	-10.8351
▁eko	-10.8352
len	-10.8353
oja	-10.8357
▁sc	-10.8359
▁Bor	-10.8382
▁You	-10.8392
▁nako	-10.8402
▁orn	-10.8417
▁spol	-10.8429
▁čim	-10.843
▁jež	-10.8438
▁ziran	-10.8451
▁ah	-10.8452
▁licu	-10.8456
▁laš	-10.8456
▁Gal	-10.8464
▁nemo	-10.847
▁lano	-10.8477
▁odao	-10.8481
▁miro	-10.8488
▁Or	-10.8491
▁kova	-10.8498
▁led	-10.8511
▁šire	-10.8514
▁roni	-10.8515
▁tum	-10.8516
▁ajem	-10.8533
▁Tr	-10.854
▁titu	-10.8546
▁mena	-10.8558
▁ance	-10.8565
▁jaja	-10.8566
▁urs	-10.8568
▁erk	-10.8574
▁Bo	-10.8587
▁vrši	-10.859
▁imi	-10.8596
▁nike	-10.8598
bij	-10.8609
▁150	-10.8625
▁tik	-10.8629
▁dik	-10.8631
▁reka	-10.8632
▁ješ	-10.8639
▁mob	-10.8664
▁USK	-10.8671
▁imu	-10.8672
eds	-10.8674
▁avn	-10.8676
šk	-10.8676
pis	-10.8677
ši	-10.8686
▁đu	-10.8696
▁iba	-10.8702
▁igl	-10.8709
▁24.	-10.8722
već	-10.8723
▁udio	-10.8735
▁naž	-10.8738
▁bje	-10.8741
▁aster	-10.8745
▁itar	-10.8752
irov	-10.8769
▁rne	-10.877
▁oriti	-10.8782
▁AI	-10.8787
▁telja	-10.881
VD	-10.8811
▁enost	-10.8811
▁lič	-10.8815
sti	-10.8821
sklj	-10.8826
▁pove	-10.8838
▁reni	-10.8843
▁pozi	-10.8844
▁živo	-10.8846
atr	-10.8847
▁aru	-10.885
▁zne	-10.8863
ijed	-10.8865
▁31.	-10.8865
▁Go	-10.8874
▁ebe	-10.8885
▁mla	-10.8887
▁ede	-10.8888
▁podn	-10.8891
▁lar	-10.8891
▁ekiv	-10.8899
ster	-10.89
▁gri	-10.8911
▁mira	-10.8916
▁vač	-10.8923
▁kam	-10.8926
ral	-10.8929
▁ijeg	-10.8945
ušta	-10.8953
7	-10.896
▁tili	-10.8967
▁enama	-10.897
▁aks	-10.8975
atn	-10.8977
▁ior	-10.8986
▁araž	-10.8986
▁ši	-10.8987
▁aviti	-10.8988
▁sr	-10.8991
▁šef	-10.8991
▁reci	-10.8997
roj	-10.9018
▁oslov	-10.9019
▁ico	-10.9023
▁rn	-10.9025
▁ivost	-10.9027
▁acu	-10.9035
▁ogu	-10.9037
hi	-10.9044
▁ćenje	-10.9072
▁lut	-10.9076
sre	-10.9079
▁eške	-10.908
▁aćen	-10.91
▁asil	-10.9105
▁anci	-10.9119
▁avlj	-10.9121
▁jenja	-10.9128
▁dv	-10.9128
▁els	-10.9138
▁obol	-10.9144
▁zavr	-10.9144
▁čenj	-10.9165
▁urba	-10.9168
▁23.	-10.9173
▁niza	-10.9173
▁Val	-10.9174
ho	-10.9176
▁đenj	-10.9179
▁zg	-10.9181
▁hi	-10.9187
uč	-10.9188
▁Met	-10.9192
▁nese	-10.9193
▁HNK	-10.9197
▁ote	-10.9197
▁ačke	-10.9198
▁istu	-10.9199
dit	-10.9205
▁njav	-10.9207
▁lač	-10.9235
▁ino	-10.924
lje	-10.9251
um	-10.9257
▁jac	-10.9262
▁vaj	-10.9264
▁ruga	-10.9271
▁obra	-10.9272
▁gim	-10.9281
▁olju	-10.9282
my	-10.9286
▁ivim	-10.929
▁nez	-10.9295
▁anc	-10.9298
▁rz	-10.9304
▁došl	-10.9305
▁doć	-10.9306
▁erc	-10.9307
raž	-10.9308
20	-10.9315
▁emit	-10.9334
▁vard	-10.9345
▁pome	-10.9378
▁lać	-10.9381
▁pali	-10.9387
kih	-10.9391
jim	-10.9399
▁isl	-10.9406
▁posv	-10.9412
▁pul	-10.9424
▁oru	-10.9445
▁sobno	-10.946
▁Zd	-10.9472
▁eras	-10.9474
▁ečaj	-10.9474
▁bro	-10.9475
ux	-10.948
▁aše	-10.9481
▁ovara	-10.9513
▁27.	-10.9515
ikl	-10.952
▁mun	-10.9525
▁bjas	-10.9529
▁bilj	-10.9538
▁enu	-10.9549
▁igu	-10.955
alno	-10.9562
▁đenje	-10.9594
▁jede	-10.9603
enim	-10.9603
▁Af	-10.9609
rans	-10.961
▁II	-10.9611
▁oji	-10.9623
ijes	-10.9627
sok	-10.9632
▁lup	-10.9645
ug	-10.9657
▁28	-10.9665
▁gi	-10.9667
▁lider	-10.9667
▁udi	-10.9669
▁bali	-10.9676
avez	-10.9696
▁ein	-10.9699
ajn	-10.97
́	-10.9703
naš	-10.9705
▁€	-10.9706
▁iša	-10.9711
▁uris	-10.9731
▁gubi	-10.9735
▁Dio	-10.9735
▁tkr	-10.9738
▁oric	-10.975
▁pra	-10.976
zin	-10.976
▁azin	-10.9763
▁Grbin	-10.9775
▁nav	-10.9779
▁mark	-10.9789
▁ekla	-10.9792
▁obi	-10.9815
avil	-10.9816
zi	-10.9821
▁vjere	-10.983
▁Ars	-10.9834
sjeć	-10.9838
itan	-10.9852
šta	-10.9857
▁dno	-10.9859
čit	-10.9862
ovin	-10.9868
▁ikada	-10.9872
djet	-10.9908
▁onf	-10.992
▁Most	-10.9926
▁uta	-10.9931
▁San	-10.9944
▁Mile	-10.9955
otom	-10.9957
▁kove	-10.9973
▁šlo	-10.9974
▁Pl	-10.9984
▁Sva	-10.9985
avn	-10.9987
▁odli	-10.9991
▁rlj	-10.9992
▁inci	-10.9993
▁puš	-10.9996
▁Rud	-11.0016
▁jeru	-11.0022
▁nić	-11.0035
▁riča	-11.0044
▁emlj	-11.0052
▁lovoz	-11.0056
▁plj	-11.0071
žić	-11.0075
▁jun	-11.0075
▁vad	-11.0085
▁ekin	-11.0092
▁akar	-11.0097
▁tl	-11.0116
▁dent	-11.0119
nam	-11.0121
ren	-11.0123
▁ora	-11.0125
▁učiti	-11.0137
▁pat	-11.0147
▁zad	-11.015
▁27	-11.016
▁jek	-11.016
▁rh	-11.0178
▁uga	-11.0182
▁EPPO	-11.0189
▁nsk	-11.0203
▁ncer	-11.0214
▁upe	-11.0216
▁rizi	-11.0216
▁rodu	-11.0219
▁rgov	-11.0222
vn	-11.0228
▁bama	-11.023
▁Hol	-11.023
▁mov	-11.0233
▁eran	-11.0236
▁omij	-11.0237
▁sret	-11.0238
▁nazi	-11.0241
▁mari	-11.0261
▁edi	-11.0265
▁ya	-11.0283
▁otom	-11.0284
ten	-11.0287
▁Clas	-11.0288
▁osu	-11.0297
▁rena	-11.0309
▁orac	-11.0316
▁oma	-11.0316
▁adov	-11.0319
▁Ban	-11.0321
▁ajna	-11.0334
▁kaf	-11.0341
▁ječn	-11.0355
▁oziti	-11.0355
▁sadr	-11.0356
▁anak	-11.0356
▁boji	-11.0359
▁enog	-11.0361
▁ogle	-11.0364
ava	-11.0368
▁ezen	-11.0374
atra	-11.0375
▁kise	-11.0381
▁muč	-11.0387
▁avin	-11.0391
▁Wal	-11.0394
▁org	-11.0395
▁alja	-11.0397
▁rika	-11.0403
▁remn	-11.0415
kac	-11.0426
G	-11.0427
▁Ti	-11.0428
▁aval	-11.0437
▁iri	-11.0443
▁para	-11.0447
▁OŠ	-11.0459
▁eč	-11.0469
gar	-11.0476
▁dluk	-11.0485
▁urn	-11.0488
▁muž	-11.0489
▁iža	-11.05
▁rve	-11.0504
▁dek	-11.0513
▁orav	-11.0517
▁36	-11.0522
▁mjeri	-11.0524
▁era	-11.0527
▁adil	-11.0528
▁adn	-11.053
lup	-11.0547
▁dlič	-11.0549
▁rir	-11.0549
▁lon	-11.055
▁ive	-11.0554
▁šnj	-11.0591
▁osm	-11.0601
dov	-11.0614
▁mač	-11.0619
▁moli	-11.0632
▁lti	-11.0635
▁podr	-11.0642
▁anko	-11.0642
ORH	-11.0649
▁moral	-11.0652
▁nc	-11.0655
▁psi	-11.0657
▁dbi	-11.0671
▁hu	-11.0672
ute	-11.0679
▁Mac	-11.0686
▁33	-11.0694
▁Prij	-11.0695
▁age	-11.0695
aju	-11.0701
sij	-11.0718
tud	-11.0742
▁ray	-11.0744
cy	-11.0745
dar	-11.075
▁lim	-11.0756
▁tona	-11.0757
▁ajan	-11.076
▁ušte	-11.0761
▁ert	-11.0762
ržiš	-11.0773
▁taro	-11.0773
▁ander	-11.0778
▁ATP	-11.0778
▁jih	-11.0784
▁rtn	-11.0786
▁cij	-11.08
▁uc	-11.08
▁etu	-11.0802
M	-11.0808
ice	-11.0809
▁km	-11.0818
▁eu	-11.0819
▁adal	-11.0826
▁reč	-11.0834
▁sobe	-11.0854
NK	-11.0862
▁iže	-11.0863
▁skl	-11.0863
▁dol	-11.0868
etsk	-11.0869
▁ovre	-11.0871
▁nč	-11.0872
oč	-11.0897
▁uza	-11.0898
dru	-11.0911
▁avna	-11.0914
▁For	-11.0918
▁rić	-11.0919
den	-11.0929
▁oci	-11.0934
▁pob	-11.0937
▁vog	-11.094
ođ	-11.0944
▁Sla	-11.0948
▁jaka	-11.0963
▁entra	-11.0966
R	-11.0967
▁mina	-11.0972
▁šum	-11.0973
▁uto	-11.0973
▁ty	-11.0974
-	-11.0987
▁tru	-11.0989
▁ijat	-11.0991
▁DVD	-11.0995
▁Mur	-11.0997
nos	-11.1005
rak	-11.1006
▁ibe	-11.1007
▁Nje	-11.1014
▁aren	-11.102
▁he	-11.1022
ert	-11.1022
HMZ	-11.1023
▁29	-11.1041
▁alka	-11.1046
ičar	-11.1046
▁VAR	-11.1059
▁rekl	-11.1061
▁sav	-11.107
▁efi	-11.108
oduz	-11.1088
▁anjem	-11.111
▁ljiva	-11.1123
▁edin	-11.113
▁ovor	-11.1134
ag	-11.1136
osl	-11.1168
▁kože	-11.117
ved	-11.1175
▁ten	-11.1183
igl	-11.1188
▁tka	-11.1197
H	-11.1211
▁tank	-11.1217
rvom	-11.1218
▁eto	-11.1218
▁anost	-11.1236
▁kći	-11.1237
rump	-11.1239
q	-11.1241
▁tv	-11.1244
▁lt	-11.1244
sil	-11.1257
▁aku	-11.126
▁ilot	-11.1277
▁SP	-11.1281
▁arko	-11.1289
▁ralj	-11.1289
▁cid	-11.1292
▁amal	-11.1326
▁afer	-11.1331
▁ota	-11.1331
▁esa	-11.1335
ng	-11.1337
▁alm	-11.1341
▁potr	-11.1342
▁napr	-11.1345
uzej	-11.1345
▁lev	-11.1348
že	-11.1355
▁tetu	-11.1372
▁sman	-11.1379
▁vede	-11.1388
▁BBC	-11.1392
▁ovca	-11.1393
▁jati	-11.1394
▁ropi	-11.14
▁mno	-11.1404
▁egi	-11.1404
▁dle	-11.1407
▁šet	-11.1411
▁arme	-11.1413
▁vajuć	-11.1424
▁2,	-11.1429
▁ael	-11.143
▁meće	-11.1432
▁cedu	-11.1433
▁Em	-11.1451
▁rili	-11.1457
▁iće	-11.1458
▁iteta	-11.1464
▁naz	-11.147
▁ovina	-11.1471
▁smr	-11.1476
▁alom	-11.1478
▁pool	-11.1478
▁orno	-11.1481
▁th	-11.1485
▁logu	-11.1496
ati	-11.1501
ner	-11.1505
▁vak	-11.1518
ec	-11.1521
▁teks	-11.1523
▁podu	-11.1524
▁32	-11.1525
▁čen	-11.1535
▁Dra	-11.1542
▁Be	-11.1543
▁gorj	-11.1544
▁stana	-11.1546
▁Gen	-11.1548
▁gust	-11.1558
▁rama	-11.157
▁nca	-11.1572
▁Jame	-11.1579
▁raks	-11.1598
▁ostaj	-11.1609
▁luka	-11.1611
sm	-11.1626
▁vaju	-11.1629
▁Tur	-11.163
▁nce	-11.163
▁Vr	-11.1638
▁lij	-11.1638
▁oza	-11.1642
▁asio	-11.1643
ener	-11.1649
▁nogu	-11.1652
▁IONA	-11.1657
▁Mik	-11.1658
NAC	-11.1659
▁kra	-11.1667
ket	-11.1672
bul	-11.1673
▁ambu	-11.1673
▁err	-11.1677
reće	-11.1677
▁uši	-11.1686
lišt	-11.171
▁zija	-11.171
▁šansu	-11.1719
▁ača	-11.1722
▁teć	-11.1726
▁ijer	-11.1734
itiv	-11.1745
▁pec	-11.1748
▁jna	-11.175
▁ibon	-11.1751
▁ustv	-11.1753
▁ake	-11.1758
▁rup	-11.1758
▁ktor	-11.1761
▁uso	-11.1768
▁jstva	-11.1771
bin	-11.1773
▁tam	-11.1776
▁mask	-11.178
vdje	-11.1781
▁jev	-11.1789
▁Iva	-11.1791
▁Mal	-11.1795
▁Hamas	-11.1799
▁ijeke	-11.18
▁Max	-11.1802
▁uf	-11.1806
▁cast	-11.1807
▁Il	-11.1818
▁alt	-11.1819
▁kla	-11.1824
▁formi	-11.1836
▁evoj	-11.1846
▁olit	-11.1852
▁osa	-11.1863
▁sus	-11.1866
▁ekr	-11.1867
▁miru	-11.187
▁ze	-11.188
▁žut	-11.1882
jal	-11.1883
▁ušt	-11.1884
ba	-11.1886
▁uze	-11.1888
▁gan	-11.1893
oles	-11.1905
ema	-11.1908
tnj	-11.191
ber	-11.1922
▁ačko	-11.1933
▁enci	-11.1934
ća	-11.1956
▁oki	-11.1959
▁Spor	-11.1962
▁ošt	-11.1983
kom	-11.1988
▁akvi	-11.2004
stra	-11.2007
▁avao	-11.201
▁kaš	-11.2014
▁pe	-11.2018
▁rado	-11.2022
▁omun	-11.2027
,3	-11.203
?	-11.2031
▁inej	-11.2038
▁oduz	-11.2041
bjas	-11.2041
▁ubio	-11.2048
▁imat	-11.2052
empe	-11.2064
▁kinja	-11.2071
▁anđe	-11.2079
rstv	-11.2086
dio	-11.2088
ezd	-11.2089
▁Afri	-11.2091
▁ubo	-11.2096
▁ajne	-11.2098
mun	-11.2101
▁otte	-11.2103
▁ješt	-11.2103
▁dani	-11.211
▁3,	-11.2118
▁elev	-11.2119
tij	-11.212
ry	-11.2137
▁hib	-11.2144
▁MUP	-11.2144
omun	-11.2147
orn	-11.2155
▁razo	-11.2155
uš	-11.2161
▁jku	-11.2172
▁Sab	-11.2201
▁lem	-11.2204
▁ezd	-11.2206
▁rot	-11.2221
▁tke	-11.2222
▁hip	-11.2226
iva	-11.2242
tal	-11.2248
▁izne	-11.2266
▁dul	-11.2269
▁liz	-11.2274
▁obu	-11.2285
si	-11.2285
▁skoč	-11.2287
bolj	-11.2289
!	-11.2292
liti	-11.2317
▁Moj	-11.2324
ton	-11.2331
ogi	-11.2332
▁Đur	-11.2334
▁ff	-11.2337
▁aže	-11.2341
nevn	-11.2343
▁opć	-11.2344
▁55	-11.2348
▁enko	-11.235
čki	-11.2352
ndid	-11.2354
▁riva	-11.2357
▁azne	-11.2359
skih	-11.236
▁nski	-11.2365
▁rži	-11.2375
ing	-11.238
▁Te	-11.2389
▁250	-11.2398
▁Anđe	-11.2399
▁kona	-11.2401
▁=	-11.2418
▁enc	-11.2419
▁mund	-11.2426
▁pusti	-11.243
oći	-11.2435
sor	-11.2438
bit	-11.2438
▁oren	-11.2443
▁iro	-11.2444
vent	-11.2457
▁Ex	-11.2457
▁yl	-11.246
N	-11.2461
▁ural	-11.2463
▁Her	-11.2466
dm	-11.2466
edn	-11.2469
▁cur	-11.2477
▁trac	-11.2477
▁ode	-11.2481
▁ep	-11.2486
▁aha	-11.2491
▁ađe	-11.2492
▁aža	-11.2502
▁eorg	-11.2504
▁umi	-11.2504
▁anka	-11.2514
▁rl	-11.2514
▁alk	-11.2528
NS	-11.2539
▁fol	-11.2541
▁enica	-11.2576
ala	-11.2581
▁učk	-11.2587
▁svu	-11.2588
▁ela	-11.2588
osao	-11.2591
▁zašt	-11.2609
▁žen	-11.2613
▁enis	-11.2614
▁arat	-11.2615
▁rug	-11.2619
eći	-11.2621
▁38	-11.2621
▁ge	-11.2622
▁Du	-11.2629
stat	-11.2636
▁čio	-11.2647
▁dbo	-11.2657
▁čno	-11.2658
bač	-11.266
▁stok	-11.2666
▁gur	-11.2668
ske	-11.267
sud	-11.2682
9	-11.2687
▁mađa	-11.2691
▁Tek	-11.2697
▁oln	-11.2714
▁tno	-11.2719
▁ajv	-11.2727
▁oyo	-11.2727
▁azn	-11.2731
lek	-11.2734
▁ivi	-11.2734
kor	-11.2758
▁EUR	-11.2759
▁Opć	-11.2787
▁jasan	-11.2788
lovn	-11.279
▁nf	-11.2813
▁eyen	-11.2819
zme	-11.2822
▁acio	-11.2823
▁rovo	-11.2828
▁Ruž	-11.2831
▁agl	-11.2833
mogu	-11.2845
▁uda	-11.2847
▁ivš	-11.285
ravn	-11.2853
▁kip	-11.2855
▁UEF	-11.2856
ln	-11.286
sin	-11.286
▁rš	-11.2863
▁anda	-11.2864
▁demi	-11.2865
▁ekuj	-11.2869
▁Vil	-11.2873
▁ićem	-11.288
agr	-11.2883
TV	-11.2896
▁ać	-11.2898
▁jke	-11.2901
rlo	-11.2902
til	-11.2905
▁Gol	-11.2925
▁jesn	-11.2926
▁NK	-11.293
▁ble	-11.2944
jn	-11.2954
▁DC	-11.2961
▁liž	-11.2964
▁rave	-11.2968
▁ljene	-11.2976
&	-11.2977
▁iši	-11.2981
▁iću	-11.2983
▁Đurđ	-11.2983
▁den	-11.2991
eća	-11.2993
▁aditi	-11.3002
▁čaj	-11.3016
▁etal	-11.302
▁enal	-11.3023
▁oze	-11.3028
▁rka	-11.3046
▁pir	-11.3056
▁lini	-11.3057
rg	-11.3061
▁juće	-11.3067
eb	-11.3071
▁adon	-11.3076
ralj	-11.3081
▁dnos	-11.3086
žno	-11.3086
▁reb	-11.3086
rem	-11.3088
▁ami	-11.3089
▁eleg	-11.3098
Ja	-11.3099
▁jutr	-11.3101
▁tike	-11.3101
▁ont	-11.3111
opl	-11.3124
▁icir	-11.3128
▁ndar	-11.3128
mb	-11.3138
jem	-11.314
mil	-11.3143
▁šans	-11.3164
▁ojim	-11.3166
▁avno	-11.3167
▁gori	-11.3208
ras	-11.3212
ekiv	-11.3222
▁jab	-11.3225
▁rugo	-11.3225
▁raum	-11.323
▁34	-11.3231
▁trov	-11.3252
▁nuž	-11.3259
▁oler	-11.3267
▁Baš	-11.3271
▁tem	-11.329
▁rski	-11.3298
▁orije	-11.3302
vali	-11.3312
lug	-11.3317
▁mesa	-11.3335
▁hrv	-11.3335
▁tefa	-11.334
▁hop	-11.3343
▁lekt	-11.3344
▁šar	-11.3347
V	-11.3348
▁videa	-11.3351
▁dvij	-11.3373
▁tika	-11.3375
▁arić	-11.3386
▁odre	-11.339
▁udr	-11.3392
▁zam	-11.3395
▁elo	-11.3395
▁ring	-11.3404
▁amu	-11.342
F	-11.3421
očit	-11.3421
E	-11.3428
▁EP	-11.3432
▁avni	-11.3441
▁ispo	-11.3443
▁aći	-11.3446
rug	-11.345
50	-11.3463
edic	-11.3491
▁uka	-11.3496
▁entat	-11.3503
▁atim	-11.3506
skoj	-11.3508
▁rlo	-11.3516
▁DJ	-11.3522
▁ekre	-11.3523
▁ole	-11.3523
▁nira	-11.3556
▁ži	-11.3563
▁31	-11.3564
60	-11.3567
▁Bi	-11.3574
▁kose	-11.3589
▁CO	-11.3594
oriš	-11.3595
sobn	-11.3608
▁Nad	-11.3617
▁Fur	-11.362
ck	-11.3624
▁Orba	-11.3628
▁PDV	-11.363
▁tina	-11.364
ađa	-11.3641
obro	-11.3643
ans	-11.3645
▁tila	-11.3652
▁trp	-11.3655
▁ube	-11.3662
▁ubl	-11.3666
▁rud	-11.3668
▁Bu	-11.3672
ram	-11.3691
▁ofi	-11.3702
mer	-11.3703
dat	-11.3715
juju	-11.372
jan	-11.3725
▁raf	-11.3742
▁fe	-11.3746
emu	-11.3749
održ	-11.3757
▁Mid	-11.376
▁jana	-11.3778
alj	-11.3784
;	-11.3796
vel	-11.3809
▁nest	-11.3815
▁arne	-11.382
▁nome	-11.3821
eću	-11.3826
▁isal	-11.3835
▁yj	-11.3838
pan	-11.3847
▁pit	-11.385
▁prave	-11.3851
▁edio	-11.3864
rša	-11.3866
▁ašen	-11.3867
▁det	-11.3867
▁zah	-11.387
▁Jad	-11.3872
čiv	-11.3879
▁Uk	-11.388
▁usa	-11.3895
▁Ili	-11.39
▁Ph	-11.3902
▁tij	-11.3907
▁čne	-11.3908
▁arci	-11.3922
▁elja	-11.3927
▁rušt	-11.3931
▁aral	-11.3932
Na	-11.3935
▁nda	-11.3936
▁trog	-11.3942
▁ass	-11.395
▁iol	-11.3958
▁jamč	-11.3959
▁75	-11.3981
▁rd	-11.3981
▁loški	-11.3987
▁biv	-11.399
▁Srb	-11.3994
pod	-11.4007
▁ader	-11.4013
▁src	-11.4027
▁bok	-11.403
duz	-11.4032
ekl	-11.4039
▁trbuh	-11.4044
▁eo	-11.4052
▁lji	-11.4057
▁uku	-11.4081
▁odila	-11.4088
▁tpis	-11.4094
▁ipa	-11.4096
▁esi	-11.4099
▁olu	-11.41
ozač	-11.4107
▁roš	-11.4109
▁37	-11.4112
▁elic	-11.4113
rodu	-11.4113
esn	-11.412
▁emp	-11.413
▁vani	-11.4132
▁65	-11.4139
▁ilaz	-11.4145
▁48	-11.4155
▁dra	-11.4156
kt	-11.4175
▁guš	-11.4192
▁zmi	-11.4197
▁jivo	-11.4214
▁akt	-11.4218
▁Med	-11.4219
▁kib	-11.4225
▁rović	-11.4233
▁odin	-11.424
▁onio	-11.4246
VP	-11.4247
▁pi	-11.4251
str	-11.4256
▁ruzi	-11.4259
▁ji	-11.4275
▁djeli	-11.4276
▁ajm	-11.4277
DSS	-11.4284
▁tica	-11.4292
▁ovje	-11.4299
▁argu	-11.4301
▁uki	-11.4306
▁eur	-11.4309
▁reh	-11.4315
▁tolj	-11.4317
ler	-11.432
▁jd	-11.4331
▁nači	-11.4331
ćaj	-11.4338
▁urne	-11.4353
▁trž	-11.4377
▁oti	-11.4378
▁ope	-11.4403
▁Mand	-11.4406
▁ergi	-11.4409
▁In	-11.4423
▁orč	-11.4434
adnj	-11.4444
▁dbe	-11.4447
▁neo	-11.4452
onz	-11.4462
▁vit	-11.4463
▁preu	-11.4465
▁ijad	-11.4466
▁bom	-11.4482
▁Mün	-11.4485
▁sije	-11.4486
1.	-11.4488
▁lija	-11.4489
▁ish	-11.4489
▁kiv	-11.4494
▁sre	-11.4508
slu	-11.4511
znaj	-11.4521
▁ril	-11.4527
▁ega	-11.4528
▁ew	-11.4533
▁rev	-11.4535
▁Joe	-11.4536
kla	-11.4538
▁imun	-11.4547
▁Jones	-11.4551
▁erac	-11.4557
▁jn	-11.4558
▁kaka	-11.4563
ici	-11.4575
▁Re	-11.4578
▁Kan	-11.4581
▁vrati	-11.4589
▁odn	-11.4592
etn	-11.4601
▁emije	-11.4603
▁metr	-11.4608
of	-11.4609
vima	-11.4612
atur	-11.4614
▁uđe	-11.4614
▁ovr	-11.4615
▁pu	-11.462
▁odl	-11.4629
▁očit	-11.4629
▁gaja	-11.463
tav	-11.4632
gur	-11.4637
▁junak	-11.4646
▁biz	-11.465
▁tipe	-11.4653
▁odu	-11.4658
▁enni	-11.4659
▁že	-11.4666
▁dria	-11.4686
,7	-11.4701
art	-11.4712
▁dez	-11.4741
▁39	-11.4748
jač	-11.4748
▁sobi	-11.4759
▁pris	-11.4759
▁alog	-11.4773
▁soba	-11.4776
▁ženj	-11.4779
▁minus	-11.4786
▁raja	-11.479
▁zma	-11.4794
▁mah	-11.4815
▁rans	-11.4817
▁ors	-11.4821
▁eze	-11.4824
viz	-11.4826
▁onu	-11.4831
▁reta	-11.4833
▁stava	-11.484
▁omp	-11.484
▁HN	-11.4848
▁lažu	-11.485
šev	-11.4852
▁atk	-11.4853
jep	-11.4861
▁Pup	-11.4873
▁hom	-11.4883
▁rgu	-11.4885
▁rj	-11.4886
▁ijet	-11.4893
zan	-11.4895
▁orija	-11.4897
isao	-11.4899
▁jes	-11.4904
ep	-11.4923
▁2-0	-11.4925
kur	-11.4928
▁tava	-11.4929
dom	-11.4936
▁pitan	-11.4938
for	-11.494
ću	-11.4946
▁asad	-11.4949
tog	-11.4971
▁gužve	-11.4977
▁lah	-11.4981
▁mb	-11.4981
isk	-11.4992
nju	-11.4992
▁arba	-11.4994
▁Sav	-11.4997
▁unt	-11.5029
▁svje	-11.5035
tvr	-11.5038
▁znal	-11.5038
▁rto	-11.5047
,2	-11.5051
uc	-11.5052
sno	-11.5064
▁And	-11.5067
▁stin	-11.5068
maš	-11.5071
▁jaj	-11.5079
luk	-11.5082
▁Nico	-11.5083
▁ump	-11.5083
▁ET	-11.5084
▁žava	-11.5086
▁onom	-11.509
▁rder	-11.5093
▁eša	-11.5098
▁oto	-11.5098
▁Jan	-11.5098
▁šenj	-11.5098
▁Jon	-11.5112
▁otel	-11.5113
vara	-11.5118
▁duha	-11.5157
▁kob	-11.5157
▁III	-11.5158
▁nič	-11.5163
▁oka	-11.517
kus	-11.5178
▁outh	-11.519
▁odi	-11.5195
▁retn	-11.5195
DS	-11.5197
▁teg	-11.5222
Za	-11.5231
reš	-11.5236
▁DIP	-11.524
kat	-11.5243
novi	-11.5245
▁tov	-11.5251
skog	-11.5253
▁gušt	-11.5264
▁IT	-11.5285
▁ačica	-11.5285
▁zm	-11.5304
▁ijeko	-11.5308
še	-11.5316
▁Miš	-11.5317
sto	-11.5319
▁lamen	-11.5321
▁pil	-11.5324
▁700	-11.5341
▁sov	-11.5347
▁woo	-11.5363
rek	-11.5366
ji	-11.5369
▁žar	-11.538
reko	-11.538
▁zvon	-11.54
▁don	-11.5403
J	-11.5404
▁azan	-11.541
▁žem	-11.5416
esp	-11.5423
usre	-11.5424
▁dsje	-11.5432
▁rugom	-11.5432
tov	-11.5438
▁dahn	-11.5439
▁ony	-11.544
▁eren	-11.5454
▁uma	-11.5454
▁Zb	-11.5479
▁adaju	-11.5486
▁info	-11.5494
▁Lig	-11.5495
▁kit	-11.5497
▁tul	-11.5516
▁dah	-11.5518
▁inju	-11.5521
▁amn	-11.5527
▁laži	-11.553
▁nivo	-11.5536
MW	-11.554
▁HAK	-11.557
▁ušta	-11.5574
▁jans	-11.5574
▁šuma	-11.5576
▁nde	-11.5577
▁rand	-11.5586
▁oril	-11.5587
▁kva	-11.5594
▁Fil	-11.5599
▁ves	-11.5601
▁stri	-11.5608
▁ukup	-11.5621
▁orna	-11.5622
▁tual	-11.5637
▁pek	-11.5637
▁vanju	-11.5643
▁kota	-11.5657
▁erit	-11.5662
ger	-11.5666
▁klo	-11.567
▁opra	-11.5673
▁rame	-11.5675
▁limu	-11.5676
▁azv	-11.5692
▁42	-11.5714
▁ozo	-11.5716
▁PSG	-11.5722
▁ingl	-11.5724
eč	-11.573
▁homa	-11.5731
ijet	-11.5738
▁Poli	-11.5742
▁arc	-11.5746
▁kate	-11.5751
▁edo	-11.5773
▁utje	-11.5773
▁AP	-11.5776
▁liza	-11.578
▁Kule	-11.5781
▁bra	-11.5783
▁anjur	-11.5783
▁iam	-11.5789
▁irov	-11.5799
gen	-11.5801
▁mlj	-11.5801
nogi	-11.5802
▁laža	-11.5802
▁hot	-11.5806
▁amo	-11.5806
▁lata	-11.581
▁midž	-11.5811
▁kale	-11.582
jviš	-11.582
PG	-11.5826
▁cje	-11.5826
orav	-11.5828
ow	-11.5834
▁baka	-11.5843
▁Ze	-11.5845
žu	-11.586
ach	-11.5861
▁hat	-11.5862
▁Va	-11.5888
▁1-0	-11.5889
oren	-11.5904
▁egl	-11.5906
▁gume	-11.5912
▁Wim	-11.5914
▁enj	-11.5919
▁uše	-11.5921
les	-11.5926
spla	-11.5931
▁sf	-11.5936
ks	-11.5943
ex	-11.5946
ođen	-11.595
▁adom	-11.5954
▁nato	-11.5954
▁omet	-11.5957
▁ači	-11.5967
▁humor	-11.5988
▁ect	-11.599
▁pru	-11.5996
▁6,	-11.5996
▁umnj	-11.601
ast	-11.6011
amt	-11.6023
obil	-11.6028
▁Dim	-11.6029
▁Nive	-11.603
dav	-11.6031
▁nves	-11.6032
rup	-11.6035
olj	-11.604
▁enda	-11.6041
▁ozna	-11.6045
▁luba	-11.6048
▁asi	-11.6053
rgan	-11.6071
▁omn	-11.6091
▁oban	-11.6101
▁rišt	-11.6104
▁del	-11.6108
▁omen	-11.6114
▁rb	-11.6123
▁maž	-11.6133
▁isac	-11.6134
▁sten	-11.6137
▁otti	-11.6141
▁prop	-11.6158
▁bir	-11.6172
dek	-11.6172
▁iram	-11.6174
▁rdo	-11.6176
▁KS	-11.6176
▁Gl	-11.6177
▁rna	-11.6182
olu	-11.6186
▁ens	-11.6186
▁ljak	-11.6187
▁uke	-11.6198
▁atom	-11.6201
▁orus	-11.6205
oper	-11.6221
ine	-11.6224
▁vara	-11.6225
pust	-11.623
kir	-11.6239
40	-11.6245
▁ido	-11.6245
ova	-11.6246
bio	-11.6251
▁kons	-11.6278
isal	-11.628
▁Miss	-11.6288
mrt	-11.629
nije	-11.6296
▁ford	-11.6297
▁edic	-11.6298
▁cen	-11.6304
▁ritm	-11.6313
▁olod	-11.6318
▁ladu	-11.6324
▁out	-11.6327
▁atu	-11.6333
▁ćet	-11.6347
▁Kim	-11.6359
iral	-11.6369
▁kožu	-11.6369
▁mokr	-11.637
0%	-11.6374
▁olja	-11.6375
▁obli	-11.6377
▁vodo	-11.6378
▁Sev	-11.6389
▁arti	-11.6394
▁rira	-11.6406
▁ošk	-11.6406
▁4,	-11.6408
▁zel	-11.6412
▁Am	-11.6414
▁onte	-11.6417
80	-11.6417
▁aria	-11.6424
▁reet	-11.6447
ha	-11.646
vu	-11.6477
▁CNN	-11.6494
▁otr	-11.6497
▁dlak	-11.6513
▁stim	-11.6513
▁Res	-11.6514
▁izd	-11.6518
▁tone	-11.653
▁Vas	-11.6537
otov	-11.6537
▁Ram	-11.6538
▁kum	-11.654
igr	-11.6542
ah	-11.6543
▁vra	-11.6547
mal	-11.6554
▁eča	-11.656
▁Deja	-11.6568
▁imov	-11.6576
▁eh	-11.6581
▁row	-11.6589
▁ambl	-11.6591
ovi	-11.6595
▁deve	-11.6601
▁44	-11.6606
ičk	-11.6614
ško	-11.6617
▁nev	-11.6629
▁sabo	-11.6631
▁varn	-11.6633
Da	-11.6634
▁Mont	-11.6635
▁soci	-11.6644
▁takm	-11.6648
hval	-11.666
▁stavu	-11.6673
ite	-11.668
▁2-1	-11.6682
▁Pek	-11.6684
▁žet	-11.6692
▁grač	-11.6702
▁Alan	-11.6725
▁sura	-11.6727
rjan	-11.6731
70	-11.6737
osje	-11.6739
MS	-11.6747
▁Rok	-11.6752
▁ačaj	-11.6759
nk	-11.6759
suđ	-11.6766
dne	-11.6769
apad	-11.6775
▁ijeka	-11.6781
▁taci	-11.6795
▁olici	-11.6798
▁Edi	-11.6806
▁kcija	-11.6811
▁rojn	-11.6837
▁uck	-11.6839
▁arhe	-11.6841
▁OI	-11.6841
▁iber	-11.685
▁ia	-11.6853
▁pus	-11.6854
▁ritam	-11.686
bot	-11.686
▁asta	-11.6861
ky	-11.6872
iješ	-11.6873
▁eđ	-11.6893
▁arb	-11.6896
▁modu	-11.6899
▁lih	-11.6905
▁eksa	-11.6908
▁dov	-11.6908
▁ujan	-11.6908
▁zici	-11.691
▁ujk	-11.6918
▁ovic	-11.6918
▁hlađ	-11.6921
▁izan	-11.6948
▁bet	-11.6953
OA	-11.6954
▁užno	-11.6963
▁pto	-11.6978
▁ny	-11.6984
▁oid	-11.6985
▁mand	-11.699
▁šan	-11.6993
jak	-11.7001
▁raci	-11.7002
▁nuk	-11.7003
▁rofe	-11.7006
des	-11.7013
▁iž	-11.7025
▁Gar	-11.7038
vij	-11.705
▁erna	-11.7052
▁opl	-11.7053
▁inska	-11.7057
ime	-11.7067
▁empe	-11.7067
ay	-11.7075
ska	-11.7079
▁oro	-11.7089
ičit	-11.7107
▁gađ	-11.7116
sh	-11.7117
▁orsk	-11.7135
▁rop	-11.7138
▁Jul	-11.7143
▁wift	-11.7145
▁erm	-11.7149
▁Post	-11.7153
teg	-11.7156
tet	-11.7159
▁lovi	-11.7162
be	-11.7165
▁lima	-11.7169
mjet	-11.7176
▁rači	-11.7197
digr	-11.7206
▁čima	-11.7208
▁entu	-11.7227
▁jp	-11.7233
nek	-11.7241
▁čeg	-11.726
▁rovi	-11.727
▁rakse	-11.7271
▁češ	-11.7272
▁čili	-11.7288
▁jić	-11.7289
EP	-11.7295
▁zgod	-11.7297
vođ	-11.7297
▁OCM	-11.7297
▁jezi	-11.7313
asno	-11.7313
▁Ses	-11.7313
▁lot	-11.7328
isl	-11.7328
▁zlij	-11.7328
▁Ris	-11.7328
jevo	-11.7336
▁Tor	-11.7337
▁HGSS	-11.7337
▁unav	-11.7343
arsk	-11.7348
eni	-11.7348
Z	-11.7352
▁ound	-11.7363
▁eric	-11.7367
oje	-11.7371
skom	-11.7373
▁Jun	-11.7374
▁Col	-11.7399
-6	-11.7402
▁bis	-11.7407
ack	-11.7413
▁gaj	-11.7413
▁dina	-11.7421
ažu	-11.7437
▁mod	-11.7443
▁by	-11.7449
▁pli	-11.7451
▁Haj	-11.7451
▁ace	-11.7455
▁ore	-11.7457
▁aton	-11.7458
▁vali	-11.7466
▁hake	-11.7468
▁Fi	-11.7472
▁iska	-11.7481
kar	-11.7484
▁Ner	-11.7498
▁Pel	-11.7501
pro	-11.7502
▁ašte	-11.7505
▁him	-11.7506
▁disa	-11.7506
▁uša	-11.7528
ony	-11.7533
▁opez	-11.7535
enj	-11.7562
anij	-11.7567
▁tj	-11.7568
▁mith	-11.7572
noj	-11.7576
par	-11.759
▁ric	-11.7591
ajk	-11.761
nir	-11.7616
šaj	-11.7629
▁ura	-11.7633
▁ovin	-11.7659
▁ojk	-11.7672
▁cm	-11.7674
▁iči	-11.7675
▁mašt	-11.7675
rb	-11.7676
▁jazz	-11.7681
▁turn	-11.7684
▁erez	-11.7691
▁ege	-11.7692
▁lakat	-11.7703
▁andi	-11.7714
▁đa	-11.7714
▁ijun	-11.7727
▁mij	-11.7734
lue	-11.7738
▁orio	-11.7739
▁rane	-11.7742
he	-11.7743
▁nuđ	-11.7752
▁ezon	-11.7765
▁žuti	-11.7783
▁kolač	-11.7787
▁zije	-11.7788
zab	-11.7798
▁gat	-11.7799
▁glumi	-11.78
▁orga	-11.7811
▁znen	-11.7828
▁ose	-11.7828
▁polo	-11.7829
▁enij	-11.7832
▁vile	-11.7849
▁ajl	-11.785
▁motr	-11.7852
ošl	-11.7853
▁šk	-11.7867
▁mož	-11.7876
raja	-11.7893
▁VID	-11.7902
▁guma	-11.7903
▁ovč	-11.7907
žn	-11.7914
▁olz	-11.7932
▁olks	-11.7934
▁enč	-11.7934
▁buk	-11.7944
mij	-11.7957
▁ropa	-11.7957
▁šes	-11.7966
▁trpa	-11.7968
▁Vic	-11.7971
▁jar	-11.7975
▁nske	-11.7993
▁ejne	-11.8004
▁poja	-11.8006
▁niku	-11.8012
▁oca	-11.8026
▁uzi	-11.8054
▁dna	-11.8063
▁kg	-11.8065
rst	-11.807
]	-11.807
▁Rod	-11.8073
uša	-11.8078
▁til	-11.8081
▁čenje	-11.809
▁rip	-11.8093
▁zube	-11.8096
uel	-11.8102
▁ream	-11.8109
▁rmal	-11.811
CO	-11.8111
▁ibl	-11.8112
▁vih	-11.8117
▁HZZ	-11.8125
▁sli	-11.8134
bro	-11.8134
ddy	-11.8137
▁enir	-11.814
▁hig	-11.8142
▁ummi	-11.8144
asn	-11.8161
▁stir	-11.8162
▁opi	-11.8169
enc	-11.8182
,9	-11.8199
▁Pau	-11.82
▁ulo	-11.8215
▁Ć	-11.8215
▁how	-11.8215
▁gaz	-11.8218
▁mper	-11.8231
ax	-11.8235
▁egz	-11.8236
▁43	-11.8239
▁ilom	-11.8248
▁World	-11.8257
▁žd	-11.8258
port	-11.8278
▁žn	-11.8285
▁užen	-11.8291
▁vođe	-11.8294
▁lova	-11.8296
▁uzro	-11.8302
ožar	-11.8302
▁deko	-11.8321
lon	-11.833
▁Nor	-11.8348
▁58	-11.8349
▁roc	-11.8349
▁46	-11.8352
ualn	-11.8357
kal	-11.8358
▁WC	-11.8362
▁inko	-11.8374
▁žiri	-11.8378
▁unk	-11.8384
▁gne	-11.8387
ze	-11.8387
▁jaju	-11.8391
▁vice	-11.8398
▁tit	-11.8403
▁ožd	-11.841
abil	-11.8418
-3	-11.8423
▁ozl	-11.8442
ča	-11.8448
fij	-11.8464
▁koli	-11.8469
▁WTA	-11.8471
kš	-11.8472
▁pehar	-11.848
emal	-11.8486
jesn	-11.8487
▁poš	-11.849
▁koša	-11.8499
iran	-11.8502
▁Ćo	-11.852
▁Fede	-11.8566
eta	-11.8571
▁tura	-11.8576
gan	-11.8582
▁zdr	-11.8594
▁alio	-11.8601
čer	-11.8603
▁anov	-11.8616
Mi	-11.8619
▁umij	-11.8619
tro	-11.8631
igra	-11.8634
▁dne	-11.8637
zn	-11.8638
mokr	-11.8639
▁Fred	-11.8641
rati	-11.8643
▁cir	-11.8652
▁47	-11.8655
▁Des	-11.8657
cion	-11.8667
▁žu	-11.8671
nder	-11.8673
nit	-11.8674
bod	-11.8678
▁uvar	-11.8685
ell	-11.8687
▁adnj	-11.8693
▁unj	-11.8694
ajte	-11.8695
edv	-11.8706
nski	-11.8707
ank	-11.8715
▁šak	-11.8715
či	-11.8723
▁eck	-11.8723
ron	-11.8724
▁Bur	-11.8727
padn	-11.8729
▁olj	-11.8735
▁rej	-11.8737
bnj	-11.8744
▁Rec	-11.8756
tit	-11.8769
▁kab	-11.878
▁bete	-11.879
▁djeti	-11.8791
▁ph	-11.8793
šava	-11.8795
raš	-11.8797
▁romo	-11.88
▁own	-11.8801
▁robo	-11.8803
MO	-11.8807
▁curi	-11.8817
▁Phil	-11.882
▁ajd	-11.8823
▁suđe	-11.8831
▁gul	-11.8838
ge	-11.8838
▁HS	-11.8846
aliz	-11.8846
tira	-11.8847
▁way	-11.8848
▁85	-11.8852
rodn	-11.8852
▁etko	-11.8857
▁Mit	-11.8857
▁duć	-11.8865
▁oton	-11.8866
▁ngle	-11.8872
▁azar	-11.8879
▁abi	-11.8883
▁orum	-11.8884
▁Jug	-11.8896
▁lužb	-11.8898
▁ajp	-11.8898
▁zaba	-11.8902
VAJ	-11.8904
▁libe	-11.8908
▁rvom	-11.8912
MA	-11.8931
▁aro	-11.8935
▁64	-11.8938
▁RS	-11.8946
▁5,	-11.8947
▁osi	-11.8967
dic	-11.8981
▁orat	-11.8983
▁upi	-11.8988
▁ano	-11.8992
▁utro	-11.8993
▁urd	-11.8997
▁iren	-11.9
rd	-11.9002
▁Mars	-11.9008
▁arok	-11.9009
▁štap	-11.9013
sku	-11.9015
▁odgo	-11.9021
▁Veg	-11.9028
▁rla	-11.9032
▁Apple	-11.9038
▁init	-11.9041
▁alac	-11.9044
duk	-11.9057
▁bapp	-11.9071
▁130	-11.9073
▁eda	-11.9078
▁Del	-11.9098
atk	-11.9098
▁Koš	-11.9104
▁bake	-11.9115
▁rene	-11.9122
▁vati	-11.9128
odaj	-11.9131
▁Ven	-11.9131
▁ospo	-11.9135
▁jele	-11.9138
azb	-11.9145
▁oft	-11.9149
▁Ri	-11.9149
▁kvi	-11.9152
▁Lj	-11.9155
▁jeđe	-11.9158
▁Vis	-11.917
▁isnik	-11.9173
ravo	-11.9174
▁Mis	-11.9183
ljo	-11.9187
uver	-11.9189
▁Jac	-11.9192
telj	-11.9194
▁kant	-11.9196
entr	-11.9232
▁jeđ	-11.9233
▁očin	-11.9271
▁osv	-11.9272
▁fes	-11.9277
OS	-11.9278
▁tas	-11.9283
▁Di	-11.9287
▁rskom	-11.9294
▁udo	-11.93
▁7,	-11.9312
▁aus	-11.932
▁eon	-11.9327
▁gu	-11.9338
▁Grg	-11.9338
LS	-11.9339
▁vest	-11.9339
▁dale	-11.9341
▁Lav	-11.9351
▁rzi	-11.9356
▁udara	-11.9357
nogo	-11.9362
▁žanr	-11.9362
▁eđi	-11.9363
▁lug	-11.9377
▁učn	-11.9379
edin	-11.9391
▁MAX	-11.94
▁Fior	-11.9401
ns	-11.9402
▁IN	-11.9402
▁Ed	-11.9405
dv	-11.9408
▁inger	-11.9413
▁41	-11.9414
jec	-11.9418
▁Asad	-11.9423
▁nali	-11.9427
▁adap	-11.9432
▁Bad	-11.9432
▁ovat	-11.9435
ABA	-11.9439
▁rosi	-11.9442
▁isin	-11.9448
ny	-11.9451
▁etr	-11.9458
amet	-11.9458
rđ	-11.9472
▁enzi	-11.9494
iste	-11.9497
▁gart	-11.9501
vim	-11.9511
▁okru	-11.9516
▁95	-11.9541
meta	-11.9551
▁mio	-11.9556
odne	-11.9557
▁baze	-11.956
▁cit	-11.9564
▁Can	-11.9566
▁alkon	-11.957
▁ušan	-11.957
apan	-11.957
▁olan	-11.9583
pisa	-11.9587
ile	-11.9604
dmor	-11.9613
koj	-11.962
rce	-11.9622
lam	-11.9625
▁ann	-11.9634
▁Ren	-11.9637
▁guta	-11.9649
▁Art	-11.9652
▁dins	-11.9653
▁ea	-11.9654
▁dnj	-11.9667
▁jeme	-11.9669
▁Kit	-11.9676
▁dizel	-11.9678
aja	-11.9681
▁aes	-11.9698
▁tepe	-11.9698
▁olom	-11.9699
ež	-11.97
▁tup	-11.9706
▁liš	-11.9711
▁aga	-11.9712
▁arda	-11.9714
▁tol	-11.9722
▁urbu	-11.9725
uje	-11.9725
▁heim	-11.9737
▁isko	-11.9743
▁Šar	-11.9747
▁mast	-11.9751
▁ezi	-11.9761
▁Ras	-11.9762
čku	-11.9766
▁mode	-11.9772
▁Sel	-11.9777
X	-11.9778
sad	-11.978
▁riba	-11.9783
anje	-11.9786
▁maz	-11.9791
▁asto	-11.9792
▁epar	-11.9796
UD	-11.9804
▁gužv	-11.9818
▁loj	-11.9822
▁ouis	-11.9837
▁emlje	-11.9842
▁>	-11.9855
▁arbo	-11.9856
▁chen	-11.9857
▁rje	-11.9857
elen	-11.9859
▁iams	-11.9863
▁5'	-11.9866
▁ćut	-11.9872
šir	-11.9874
riš	-11.9884
odsj	-11.9886
tak	-11.9892
▁HR	-11.9896
▁igan	-11.9898
th	-11.9901
▁rađa	-11.9916
rnet	-11.9918
žur	-11.9923
lade	-11.993
▁PR	-11.9931
▁Rem	-11.994
jk	-11.9941
▁ancir	-11.9944
▁arca	-11.9959
▁PAO	-11.996
▁US	-11.9964
▁uri	-11.9965
▁udru	-11.9965
pe	-11.9973
rž	-11.9983
▁Fra	-11.9983
▁Baye	-11.9983
▁znoj	-11.9988
san	-11.9997
▁dnja	-11.9999
pin	-12.0003
pul	-12.001
▁etit	-12.001
▁armi	-12.0013
etr	-12.0017
▁Aff	-12.0025
toje	-12.003
▁vare	-12.0044
▁...	-12.0057
▁ross	-12.0063
▁Mas	-12.0099
▁ovni	-12.0112
▁onc	-12.012
▁jogu	-12.0132
▁ruže	-12.0134
oju	-12.0143
▁vike	-12.0145
▁Reg	-12.0147
lak	-12.0153
▁jo	-12.016
▁Dig	-12.017
▁Urba	-12.0173
▁imon	-12.0193
▁orila	-12.0197
enti	-12.0201
stao	-12.0205
▁smje	-12.0219
▁rice	-12.022
▁arap	-12.0223
▁Rio	-12.0245
▁jma	-12.0249
ivn	-12.0253
▁učila	-12.0261
▁jumf	-12.0264
▁Kup	-12.0265
lid	-12.0267
▁kve	-12.0269
▁bog	-12.0271
▁dav	-12.028
▁rook	-12.0281
▁arab	-12.0286
oker	-12.0287
gu	-12.0312
lobo	-12.0318
▁enta	-12.0323
▁alje	-12.0325
čar	-12.0328
▁Dep	-12.0343
▁tski	-12.0349
▁Pur	-12.035
▁Seri	-12.0358
anel	-12.0363
▁eke	-12.0363
▁60.	-12.0365
▁Kur	-12.0367
▁76	-12.0374
30	-12.0375
očet	-12.0375
▁bek	-12.0377
▁dele	-12.0383
▁roup	-12.0384
é	-12.0389
▁iona	-12.039
▁49	-12.0392
▁arco	-12.0393
▁52	-12.0405
▁NES	-12.0406
▁win	-12.0414
▁Zub	-12.0422
▁psa	-12.0422
NE	-12.0423
▁Def	-12.0424
▁old	-12.043
▁33.	-12.0432
▁oh	-12.0434
bur	-12.0436
▁Mary	-12.0438
▁Ča	-12.0445
renu	-12.0446
▁ebi	-12.0451
▁epal	-12.0451
▁izlo	-12.0453
▁štiti	-12.0454
▁aero	-12.046
▁laci	-12.0461
▁rece	-12.0471
▁Gre	-12.0477
▁tati	-12.0479
▁tk	-12.0488
▁sez	-12.0505
rop	-12.0507
ajuć	-12.0512
▁žil	-12.0512
▁54	-12.0527
▁ža	-12.0528
▁ejrut	-12.0529
▁fal	-12.0545
▁poka	-12.055
▁past	-12.0561
▁eljak	-12.0564
jenj	-12.0565
niz	-12.0566
▁iča	-12.0575
▁Rak	-12.0575
jes	-12.0575
zuj	-12.058
▁Pil	-12.059
šmin	-12.0613
▁atar	-12.062
bu	-12.0623
▁sum	-12.0624
▁sio	-12.063
rk	-12.063
sao	-12.0631
▁Whit	-12.0636
▁jeca	-12.0646
▁koz	-12.0653
ete	-12.0653
▁zani	-12.0657
▁50.	-12.0666
▁tel	-12.0667
FC	-12.0668
▁dni	-12.0691
▁cipe	-12.0693
▁rudž	-12.0693
▁jski	-12.0696
▁MORH	-12.0699
▁Hana	-12.0707
▁riš	-12.0717
▁asl	-12.0724
onus	-12.0725
▁agar	-12.0726
▁orta	-12.0727
▁esec	-12.073
▁aver	-12.0733
▁tpo	-12.0737
▁Fu	-12.074
cert	-12.0753
♬	-12.078
▁asan	-12.0784
▁ovnik	-12.0784
▁zgu	-12.0788
▁vrd	-12.079
▁$	-12.0796
▁fere	-12.0796
▁nel	-12.0796
▁Est	-12.0809
▁knj	-12.0814
▁imul	-12.0815
sko	-12.0824
▁trani	-12.0832
▁Fox	-12.0838
ilik	-12.084
▁lovan	-12.0843
▁zo	-12.0844
▁62	-12.0849
▁TZ	-12.0849
nali	-12.0851
▁ilor	-12.0855
▁govi	-12.0863
ekuj	-12.0865
▁lla	-12.0866
▁ženi	-12.0869
▁mpi	-12.0885
ort	-12.0901
▁vizi	-12.0908
▁Šir	-12.091
▁Hal	-12.0915
ekao	-12.0915
▁bos	-12.0925
-4	-12.0929
▁•	-12.0929
▁aura	-12.093
aziv	-12.0935
▁tras	-12.0938
▁agu	-12.0938
▁Lid	-12.094
▁HNB	-12.094
▁Sea	-12.0943
▁1:0	-12.0944
▁1-1	-12.0944
▁oys	-12.0954
▁any	-12.096
▁ll	-12.0972
▁žnje	-12.098
odrš	-12.0982
▁epa	-12.0987
nosi	-12.0989
▁ods	-12.0992
On	-12.1009
▁fa	-12.101
if	-12.1013
emo	-12.1017
▁adut	-12.1024
▁ecte	-12.103
▁kuš	-12.1032
▁Emm	-12.1034
▁rba	-12.106
▁oža	-12.1067
▁artn	-12.1078
15	-12.1083
▁erti	-12.1088
▁trip	-12.1089
šć	-12.1097
ory	-12.1097
▁nada	-12.1099
▁Elvi	-12.1105
▁Šuta	-12.1114
tat	-12.1144
▁aht	-12.1156
▁INA	-12.1158
šti	-12.1165
▁Rum	-12.1168
IJA	-12.1168
rez	-12.1171
▁osh	-12.1177
▁avio	-12.118
▁ald	-12.1205
▁lank	-12.1212
▁Co	-12.1217
vić	-12.1222
▁field	-12.1223
▁SUV	-12.1225
▁2:0	-12.123
▁jskog	-12.1236
▁ruge	-12.1243
▁Eto	-12.1244
▁raže	-12.1247
▁opri	-12.125
▁61	-12.1251
▁juh	-12.1252
▁Len	-12.1252
ion	-12.1255
ovar	-12.1264
▁ager	-12.1281
▁nebu	-12.1291
▁Hr	-12.1293
db	-12.1296
▁ogli	-12.1296
▁Kova	-12.1298
IP	-12.1302
▁ariš	-12.1303
▁Grb	-12.1304
▁akš	-12.1306
▁zr	-12.1308
rv	-12.1312
▁tate	-12.1317
ey	-12.1318
▁Ursu	-12.1321
▁nat	-12.1326
GK	-12.1335
▁neba	-12.1339
▁jevo	-12.1344
▁diti	-12.1348
čeln	-12.1354
imal	-12.1356
▁šle	-12.1358
▁gand	-12.1362
▁PIXS	-12.1366
bje	-12.1372
▁ojn	-12.1374
▁ogl	-12.1377
▁reen	-12.1381
lem	-12.1383
▁fam	-12.1388
▁51	-12.1389
▁posti	-12.1401
▁uće	-12.1403
▁furt	-12.1405
▁mul	-12.1408
▁eth	-12.141
udic	-12.1418
Od	-12.142
▁ture	-12.1425
▁alju	-12.1428
▁Las	-12.1434
▁kuti	-12.1434
▁azir	-12.1437
▁Mu	-12.1442
▁eron	-12.1444
▁ente	-12.1446
har	-12.1451
▁tep	-12.1452
LJE	-12.1453
▁ozit	-12.1455
▁nuto	-12.1459
fi	-12.1461
▁enov	-12.147
▁At	-12.1487
gra	-12.149
▁oster	-12.149
ph	-12.1491
▁atan	-12.1491
▁Cat	-12.1491
▁žur	-12.1492
▁fan	-12.1501
▁omać	-12.1503
▁Jura	-12.1504
BI	-12.1505
ovez	-12.1508
▁3-0	-12.1515
▁epe	-12.1518
NA	-12.1519
▁ELL	-12.1519
▁gem	-12.152
▁rilo	-12.1521
▁Drž	-12.1525
ntaž	-12.1528
▁čju	-12.1536
▁ozi	-12.1537
▁ardin	-12.1546
▁piti	-12.1548
ww	-12.1553
▁repe	-12.1553
▁LED	-12.1557
▁Dalm	-12.1563
▁vrtk	-12.1565
▁hobi	-12.157
▁stu	-12.1573
fon	-12.1574
▁IV	-12.1579
▁nem	-12.1598
▁čiv	-12.1602
tul	-12.1605
▁koži	-12.1611
▁mel	-12.1621
▁ubot	-12.1642
pol	-12.1643
▁eme	-12.1649
ratk	-12.1661
▁jeka	-12.1661
▁ombi	-12.1686
▁afar	-12.1689
▁tlj	-12.1699
▁Haa	-12.1703
▁onta	-12.1704
▁kir	-12.1708
▁Div	-12.1709
▁janj	-12.1711
▁icio	-12.1718
▁Čov	-12.1725
▁66	-12.173
▁kna	-12.1731
▁Big	-12.1734
▁Ba	-12.1737
▁Peo	-12.1738
▁KK	-12.1742
▁Alp	-12.1744
▁Bau	-12.1751
▁kosi	-12.1752
▁off	-12.1757
▁dor	-12.1761
yan	-12.1766
dil	-12.1785
▁ahim	-12.1802
eko	-12.1804
međ	-12.1811
▁RB	-12.1813
▁VNIK	-12.1816
▁3-1	-12.1816
▁isn	-12.1818
▁ekar	-12.1821
▁ajma	-12.1832
▁ucak	-12.1835
▁klap	-12.1839
▁ačka	-12.1849
ib	-12.1863
▁ys	-12.1863
▁Int	-12.1866
eza	-12.1881
arn	-12.1883
sni	-12.1897
▁erin	-12.19
▁oša	-12.1902
▁Rog	-12.1902
net	-12.1907
▁abro	-12.1908
stva	-12.1912
▁HV	-12.1926
▁anat	-12.1942
:1	-12.1945
lju	-12.1948
RC	-12.1949
▁ds	-12.1956
▁kv	-12.1969
▁pati	-12.1971
▁zom	-12.1972
▁Kurir	-12.1975
▁homo	-12.1978
▁đi	-12.1982
▁once	-12.1988
▁agla	-12.1989
bl	-12.1989
▁Air	-12.1993
▁tici	-12.1997
reb	-12.2004
▁34.	-12.2004
ap	-12.2014
▁aki	-12.2018
▁box	-12.2019
▁bun	-12.202
▁makn	-12.2022
nuo	-12.2024
▁biser	-12.2026
koji	-12.2026
▁sudi	-12.2042
▁cat	-12.205
▁ordon	-12.2052
▁štan	-12.2061
▁rši	-12.2061
ijev	-12.2063
▁Ange	-12.2075
egen	-12.2086
▁8,	-12.209
son	-12.2101
obje	-12.2104
ćev	-12.2107
▁slo	-12.2114
▁jene	-12.212
akt	-12.2137
▁klik	-12.2139
odao	-12.2145
▁Sesar	-12.2146
▁Supe	-12.2155
▁Hod	-12.2159
eleg	-12.2161
▁arta	-12.2176
▁rvat	-12.218
▁63	-12.2191
než	-12.2191
▁abri	-12.2195
nz	-12.2198
▁stima	-12.2205
▁dlo	-12.2207
▁mes	-12.2213
▁vim	-12.2218
mnj	-12.2226
▁api	-12.2229
▁mann	-12.2232
▁olf	-12.2232
duše	-12.2244
▁ezu	-12.2256
▁ower	-12.226
ina	-12.2261
▁mj	-12.2261
▁afir	-12.2267
cca	-12.227
ott	-12.2271
▁ogom	-12.2276
▁uro	-12.2282
ošt	-12.2283
TC	-12.2283
▁baj	-12.2284
atko	-12.2298
▁bahč	-12.2304
▁ođen	-12.2311
▁350	-12.2314
▁nor	-12.2314
▁kiks	-12.2315
one	-12.2318
enut	-12.2319
▁več	-12.2319
zer	-12.2324
▁sion	-12.2327
▁Hum	-12.233
▁množ	-12.2331
laš	-12.2334
jve	-12.2336
aks	-12.2339
▁Kre	-12.2341
bir	-12.2341
nat	-12.2341
▁nfo	-12.2343
juč	-12.235
▁zubi	-12.235
▁Pej	-12.2353
ty	-12.2367
▁vjeta	-12.2368
▁ivat	-12.237
▁paz	-12.2372
▁irat	-12.2375
▁naro	-12.2378
▁indr	-12.2379
▁čeni	-12.2384
▁abel	-12.2393
▁ravan	-12.2396
▁Rov	-12.2399
▁kn	-12.2401
▁sen	-12.2403
BT	-12.2404
▁Pan	-12.2411
▁LG	-12.2415
lije	-12.2439
▁ox	-12.2442
▁ispr	-12.2445
asl	-12.2448
ct	-12.2455
▁Rug	-12.246
▁57	-12.246
▁Eko	-12.2464
vil	-12.2466
atsk	-12.2473
▁lasa	-12.2474
▁lavo	-12.2474
ult	-12.2477
▁Mc	-12.2482
▁klim	-12.2484
▁jaht	-12.2485
▁get	-12.2502
▁ški	-12.2502
raj	-12.2503
vija	-12.2505
rać	-12.2514
▁Wi	-12.2516
▁enge	-12.2523
▁san	-12.2524
▁Oba	-12.2525
▁race	-12.2531
NC	-12.2535
▁etni	-12.2548
▁yon	-12.2549
tali	-12.2561
▁sab	-12.2563
▁ach	-12.2564
mel	-12.2565
▁lnost	-12.2569
▁prod	-12.2576
spri	-12.258
▁Top	-12.2586
▁can	-12.2591
OL	-12.2591
ađ	-12.26
und	-12.2604
▁etno	-12.2605
▁40.	-12.2608
▁Jos	-12.2611
let	-12.2619
▁Clip	-12.2627
▁Kiš	-12.2629
▁indu	-12.2636
▁tef	-12.2636
▁korp	-12.2639
godi	-12.2641
rin	-12.2644
stor	-12.2649
▁lock	-12.2653
orgi	-12.2666
▁acij	-12.2667
▁mati	-12.2676
▁cil	-12.2677
▁Bik	-12.2679
eph	-12.2682
▁jeni	-12.2697
▁onaco	-12.2708
▁day	-12.2717
▁eska	-12.2719
▁78	-12.2737
azin	-12.2741
odat	-12.2747
▁nož	-12.2749
▁Ahme	-12.2751
sen	-12.2764
MF	-12.2768
▁zdan	-12.2772
▁Life	-12.2776
▁ull	-12.2783
ker	-12.2785
▁wa	-12.2794
▁back	-12.2796
ward	-12.2796
đa	-12.2812
▁é	-12.2817
mö	-12.2817
▁idor	-12.2818
▁kW	-12.2821
ovim	-12.2823
▁olfs	-12.2831
▁modr	-12.2833
▁naci	-12.2839
▁Mass	-12.2842
uman	-12.2854
▁apo	-12.2855
▁niš	-12.2863
▁ćine	-12.2873
tvu	-12.288
▁ave	-12.2881
▁osan	-12.2881
▁dira	-12.2881
▁Wil	-12.2883
aki	-12.2885
▁ado	-12.2886
▁olova	-12.2891
▁Pap	-12.2903
nev	-12.2908
▁gužva	-12.2922
▁žin	-12.2931
▁jake	-12.2932
▁tite	-12.2935
▁Kal	-12.2943
bila	-12.2951
▁uzer	-12.2952
▁ončar	-12.296
▁adra	-12.2961
▁ewis	-12.2964
▁avtat	-12.2969
▁Ćir	-12.2979
▁KB	-12.2984
▁kinu	-12.2987
▁atch	-12.2993
KA	-12.2996
▁grl	-12.3003
tek	-12.3003
25	-12.3021
▁olut	-12.3021
eđ	-12.3029
▁Hil	-12.3035
▁ech	-12.3042
▁lači	-12.3046
upru	-12.305
▁beka	-12.3052
▁each	-12.3052
▁OV	-12.3057
▁Rab	-12.3057
▁tir	-12.3058
▁sira	-12.3058
▁72	-12.3059
▁veu	-12.3075
▁dima	-12.3087
▁olub	-12.3096
▁ams	-12.3099
▁Adel	-12.31
▁Đorđ	-12.3116
▁bappé	-12.3117
inu	-12.3118
▁kisik	-12.3121
Ž	-12.3122
tri	-12.314
▁urge	-12.3147
▁meća	-12.315
▁rku	-12.3153
▁hut	-12.3159
▁ott	-12.3167
reba	-12.3168
▁muk	-12.3186
rani	-12.3188
▁vrše	-12.3188
ant	-12.3188
▁miks	-12.3193
▁56	-12.3196
▁Uni	-12.3197
▁pan	-12.3202
jduk	-12.3214
▁ešta	-12.3214
▁Zel	-12.3215
▁cure	-12.3221
ll	-12.3226
▁žita	-12.323
▁orbe	-12.3231
jski	-12.3235
▁daća	-12.3236
▁Paz	-12.3238
jeđ	-12.3245
cc	-12.3251
ža	-12.326
han	-12.3268
▁dars	-12.327
▁ašu	-12.3271
-2	-12.3272
NG	-12.3272
▁opus	-12.3272
all	-12.3277
nes	-12.328
ndar	-12.328
SU	-12.3281
▁ađar	-12.3298
▁upl	-12.3311
1,	-12.3325
′	-12.3328
▁Spli	-12.3332
▁toar	-12.3335
▁32.	-12.3341
taj	-12.3348
▁abio	-12.3352
aća	-12.3366
▁35.	-12.3369
▁onna	-12.3371
▁hl	-12.3373
10	-12.3388
azn	-12.339
▁Ema	-12.3397
▁Kne	-12.3404
▁edl	-12.3415
▁viti	-12.3421
DA	-12.3423
▁Bul	-12.3445
▁Deb	-12.3446
▁assa	-12.3451
JNA	-12.3467
▁McC	-12.3471
▁elji	-12.3478
▁hew	-12.3481
▁alija	-12.3485
▁dež	-12.3487
učn	-12.349
▁etap	-12.3492
▁pij	-12.3496
▁jaha	-12.3509
▁Zim	-12.3518
ać	-12.3521
nač	-12.3528
war	-12.353
▁gog	-12.3534
▁dej	-12.3536
▁53	-12.3538
▁avr	-12.3538
rom	-12.3546
▁Mađa	-12.3546
▁ount	-12.355
▁najma	-12.355
EA	-12.3554
▁AR	-12.3554
uška	-12.3559
▁arte	-12.3561
▁Mike	-12.3565
▁sok	-12.3566
▁sol	-12.3576
▁jur	-12.3582
oljn	-12.3611
▁ačima	-12.3611
▁jva	-12.3611
▁ipe	-12.3613
žir	-12.362
▁84	-12.3625
▁euf	-12.3637
▁čuv	-12.3638
▁ađi	-12.3641
▁mame	-12.3645
hr	-12.3648
▁mazd	-12.3649
AV	-12.366
▁gnu	-12.366
▁atal	-12.3663
▁grab	-12.3664
ovje	-12.367
ix	-12.3676
▁glu	-12.3678
ash	-12.3679
orge	-12.3681
▁erkur	-12.3682
▁ancu	-12.3682
▁vask	-12.3683
▁link	-12.3685
▁his	-12.369
fika	-12.369
bo	-12.3702
▁oral	-12.3705
▁drva	-12.3712
ove	-12.3714
▁nave	-12.3715
▁repo	-12.3715
▁mut	-12.3716
▁Fat	-12.3717
pit	-12.3725
▁ason	-12.3725
esk	-12.3729
▁ets	-12.3732
ladi	-12.3741
▁Doh	-12.3741
▁Cor	-12.376
▁Clar	-12.3761
▁Im	-12.3762
▁ampa	-12.3772
AL	-12.3776
▁rde	-12.3777
▁ramp	-12.3778
▁irme	-12.378
rim	-12.3781
▁wo	-12.3785
▁Čul	-12.3799
▁UK	-12.3806
▁Dram	-12.3811
▁riti	-12.3813
▁urz	-12.3814
▁ume	-12.3817
cmi	-12.3819
▁lb	-12.3837
▁PSV	-12.3852
ata	-12.3858
▁kiva	-12.386
muni	-12.3864
▁sni	-12.3867
▁neči	-12.3871
▁panj	-12.3872
nny	-12.3872
▁jast	-12.3873
▁Lidl	-12.3878
▁ung	-12.3886
hit	-12.3886
▁HŽ	-12.3889
RL	-12.3889
▁rgo	-12.3896
▁ande	-12.3896
lno	-12.39
škar	-12.3909
▁quar	-12.3909
▁uop	-12.391
rhu	-12.3916
▁ihove	-12.3918
▁aw	-12.3923
▁EURO	-12.3923
▁upr	-12.3932
vala	-12.3942
▁Ned	-12.3951
pt	-12.3957
▁omo	-12.3959
21	-12.3962
▁rana	-12.3967
▁ejz	-12.397
▁Jaz	-12.3972
16	-12.3976
▁Lee	-12.3986
ox	-12.399
▁Kom	-12.3995
ect	-12.3995
▁dama	-12.4009
žen	-12.401
▁usic	-12.4013
▁atha	-12.4014
▁ck	-12.4015
▁­	-12.4018
▁ljima	-12.4023
▁anade	-12.4027
ajd	-12.4041
▁Rob	-12.4042
▁73	-12.4062
▁75.	-12.4068
▁wi	-12.4069
▁Zar	-12.4079
24	-12.4081
▁amij	-12.4085
▁lišta	-12.4112
▁uvje	-12.4112
ASA	-12.4144
▁vac	-12.4145
ovr	-12.4145
▁Lik	-12.415
▁amil	-12.4158
▁59	-12.4161
acut	-12.4162
ačn	-12.4163
▁NJE	-12.4168
ret	-12.4175
DO	-12.4178
▁čet	-12.4191
▁Ru	-12.42
▁mazon	-12.4203
ovo	-12.421
▁irk	-12.4213
▁alos	-12.4214
▁mrež	-12.4217
ate	-12.4217
▁zet	-12.4218
▁aniji	-12.4225
▁ašn	-12.4227
▁grla	-12.4231
▁ciga	-12.4234
▁atas	-12.4244
adic	-12.4251
rš	-12.4258
▁ierez	-12.4274
▁ars	-12.4278
mit	-12.4281
▁mer	-12.4283
▁buru	-12.4284
▁Ku	-12.429
▁jeda	-12.4291
▁rampe	-12.4294
▁KM	-12.4296
▁dec	-12.4297
lazi	-12.4298
▁70.	-12.4302
▁nok	-12.4304
▁hats	-12.4312
▁arah	-12.4315
▁Assa	-12.4316
▁uže	-12.4318
wart	-12.4327
▁avil	-12.4329
▁83	-12.4329
▁Memo	-12.433
▁ons	-12.433
▁iga	-12.433
▁Moz	-12.4333
▁ćer	-12.4334
ži	-12.4357
▁ucci	-12.4366
▁Ser	-12.4366
anir	-12.4368
iji	-12.4371
▁mamu	-12.4371
eba	-12.4371
▁teve	-12.4372
orez	-12.4376
emel	-12.4381
▁ojom	-12.4383
▁offe	-12.4391
adi	-12.4392
▁egov	-12.4407
▁GPZO	-12.4414
▁tego	-12.4421
jeli	-12.4422
ZS	-12.4422
UP	-12.4424
▁VI	-12.4425
RVA	-12.4432
▁co	-12.4433
▁deh	-12.4441
▁q	-12.4441
▁food	-12.4453
%	-12.4458
▁68	-12.4461
▁uchs	-12.447
rski	-12.447
moli	-12.4471
tili	-12.4472
▁gnje	-12.4483
olik	-12.4488
▁smi	-12.4494
▁likl	-12.4499
ide	-12.4504
▁krap	-12.451
vis	-12.4513
ući	-12.4517
▁Mah	-12.4522
▁ie	-12.4523
▁zic	-12.4537
▁sche	-12.4542
SS	-12.4544
▁jik	-12.456
eck	-12.4563
▁vaka	-12.4564
▁uber	-12.457
ćen	-12.457
▁gib	-12.4576
▁ago	-12.4578
žet	-12.4579
ijih	-12.458
▁Nige	-12.4588
▁omme	-12.4591
▁ohan	-12.4594
▁Juri	-12.4597
SP	-12.4608
▁Zl	-12.4611
▁erne	-12.4612
▁njaka	-12.4613
aw	-12.4624
▁auro	-12.4631
osad	-12.4648
▁unu	-12.4649
▁skupi	-12.4654
▁Zo	-12.466
đe	-12.4663
gol	-12.4676
ly	-12.4676
▁110	-12.4688
▁oy	-12.4697
rzo	-12.4697
etan	-12.4698
▁ifik	-12.47
zrok	-12.4705
▁Pep	-12.4717
▁Emo	-12.4718
▁uff	-12.4722
▁67	-12.4723
▁Day	-12.4725
▁Ger	-12.473
▁ugom	-12.4733
▁uman	-12.4734
▁Zuba	-12.4737
▁mart	-12.4741
▁Rev	-12.4744
PD	-12.4746
▁HZ	-12.4752
▁Nj	-12.4755
▁Pos	-12.4756
▁Fen	-12.4758
▁obit	-12.4767
ale	-12.4772
čica	-12.4777
SW	-12.4782
šte	-12.4785
▁kopa	-12.4787
▁orba	-12.4801
stic	-12.4809
▁utte	-12.481
▁raču	-12.4812
▁Ši	-12.4818
▁vibr	-12.4823
▁82	-12.4832
▁ehni	-12.4839
sje	-12.4845
▁luč	-12.4846
▁plja	-12.4852
Y	-12.4852
▁OK	-12.4854
▁aker	-12.4854
▁you	-12.4855
▁fed	-12.4868
▁ašt	-12.4869
▁urzi	-12.4869
▁Mic	-12.4872
▁EK	-12.4877
▁slje	-12.4877
▁ozga	-12.489
res	-12.4896
osti	-12.4897
ani	-12.491
▁OS	-12.4914
▁AK	-12.4919
▁Beš	-12.492
▁ule	-12.4922
▁Cur	-12.4924
▁Ref	-12.4929
▁šah	-12.4938
▁Dori	-12.4949
FP	-12.4949
▁Moni	-12.496
iq	-12.4964
▁auren	-12.4967
titu	-12.4967
▁Mel	-12.4969
▁Hor	-12.4969
▁vao	-12.4971
▁anks	-12.4971
OM	-12.4973
▁tag	-12.4978
▁arth	-12.4983
rimi	-12.4986
▁Ale	-12.4987
pi	-12.5003
▁zora	-12.5006
·	-12.5009
▁alač	-12.5014
ari	-12.5016
▁McG	-12.5031
▁IDF	-12.5035
▁ijed	-12.5036
▁eatr	-12.5044
▁trop	-12.5053
▁juha	-12.5057
▁arh	-12.5058
▁Unio	-12.5061
anim	-12.5061
▁ID	-12.5062
▁ple	-12.5073
▁berg	-12.5078
▁55.	-12.5082
▁ćud	-12.5092
▁osla	-12.5095
▁muz	-12.5098
▁pen	-12.5099
▁luđ	-12.5099
▁bri	-12.5107
▁pjev	-12.5107
▁Se	-12.5108
▁uran	-12.5113
▁AG	-12.5116
▁Afp	-12.5118
18	-12.5119
▁einer	-12.5129
▁sn	-12.5145
ft	-12.5148
mar	-12.5153
▁Bak	-12.5153
▁ijeku	-12.5154
nas	-12.5168
ves	-12.517
▁Marie	-12.5174
▁NO	-12.5178
▁Mela	-12.5183
taln	-12.5187
▁odaj	-12.5193
▁ror	-12.52
▁itch	-12.5207
▁konce	-12.5221
obot	-12.5225
▁Tra	-12.5226
▁veća	-12.523
▁ripa	-12.523
▁imfo	-12.5238
▁Messi	-12.5241
▁Olaf	-12.5241
ijep	-12.5242
▁life	-12.5247
▁JUB	-12.5249
▁dove	-12.525
▁74.	-12.5253
▁gumb	-12.5255
▁ubi	-12.5258
▁ršut	-12.5261
klj	-12.5262
▁opera	-12.527
▁Špa	-12.5272
cije	-12.5272
▁Puh	-12.5277
▁kend	-12.5284
▁Team	-12.5284
▁Melo	-12.529
lavn	-12.5292
▁omis	-12.5293
▁kcije	-12.5296
▁aure	-12.5299
▁isco	-12.5301
▁viol	-12.5313
▁ehid	-12.5314
čet	-12.5323
▁gig	-12.5323
rožđ	-12.5332
▁ZA	-12.5333
▁uno	-12.5342
eal	-12.5345
▁Kum	-12.5352
▁šno	-12.5355
▁zuba	-12.5358
NO	-12.5358
▁opat	-12.5361
▁ruz	-12.5368
▁ken	-12.5369
▁koh	-12.5369
▁čuju	-12.5375
BF	-12.538
▁orte	-12.5392
njak	-12.5408
▁šop	-12.5413
▁77	-12.5417
▁Sup	-12.5421
▁yd	-12.5425
▁čuj	-12.5432
▁đuje	-12.5439
▁adic	-12.544
▁ola	-12.5449
▁krim	-12.5452
▁NDH	-12.5454
▁pom	-12.5459
▁HND	-12.5461
▁Lad	-12.5475
▁ley	-12.5485
▁All	-12.5485
▁irn	-12.5487
▁STEM	-12.5493
▁EC	-12.5495
eka	-12.5497
▁Čil	-12.551
▁cer	-12.5512
▁ruce	-12.5514
kuša	-12.5516
▁huli	-12.5523
icu	-12.5528
▁dvi	-12.5528
ore	-12.5528
▁ksa	-12.5536
▁onez	-12.5578
rton	-12.5581
got	-12.5588
nira	-12.5594
▁ježi	-12.5595
imo	-12.5599
mach	-12.5601
gal	-12.5603
rgar	-12.561
▁tala	-12.5623
ura	-12.5628
▁Zh	-12.5636
PS	-12.5639
▁NL	-12.5639
Ma	-12.564
▁cimet	-12.5648
ayer	-12.5649
▁Of	-12.565
▁hoć	-12.5654
▁apr	-12.5656
▁sip	-12.5661
▁öl	-12.5664
▁Rol	-12.5667
▁zub	-12.5668
▁Ins	-12.5668
oveć	-12.5669
▁abat	-12.567
pet	-12.567
▁now	-12.567
rva	-12.5673
19	-12.5675
▁isu	-12.5678
▁McD	-12.5679
▁AEK	-12.568
▁Eco	-12.5692
▁Love	-12.5697
ruz	-12.5699
juć	-12.5705
▁Pak	-12.5707
cky	-12.5722
▁mane	-12.5722
uf	-12.5725
▁iami	-12.5726
▁ljed	-12.5742
▁otu	-12.5759
▁deš	-12.5763
▁ape	-12.5767
lažu	-12.5769
▁NE	-12.5774
▁Ia	-12.5774
▁vega	-12.5775
▁rimi	-12.5785
▁diše	-12.5788
▁80.	-12.579
ET	-12.579
▁oten	-12.5791
▁tt	-12.5798
▁anu	-12.5808
12	-12.5816
stvo	-12.5824
▁iron	-12.5839
snik	-12.5841
SB	-12.5849
▁olde	-12.5863
▁mond	-12.5872
šin	-12.5876
▁klj	-12.5884
▁Buk	-12.5889
▁amne	-12.5902
▁markt	-12.5903
▁3-2	-12.5911
▁Wood	-12.5914
90	-12.5922
▁Ćur	-12.5927
▁oyal	-12.5934
azz	-12.5938
▁58.	-12.594
AZU	-12.5942
raft	-12.5944
▁Leg	-12.5946
▁lass	-12.5947
▁Zek	-12.5951
▁ophi	-12.5959
▁92	-12.5965
spo	-12.5965
▁DRA	-12.5968
▁šuti	-12.5969
▁idi	-12.5972
rum	-12.5973
ora	-12.5977
▁oyota	-12.5985
▁ambi	-12.5985
▁jon	-12.5985
ika	-12.5985
▁apto	-12.5988
▁Ass	-12.5991
uper	-12.5992
▁ebu	-12.5993
▁oduš	-12.5996
▁ield	-12.5997
žab	-12.6001
▁bla	-12.601
gova	-12.6023
▁ego	-12.6028
▁šap	-12.6031
top	-12.6036
▁99	-12.6038
▁yp	-12.6049
▁enika	-12.605
▁rtu	-12.6057
▁ardo	-12.6062
▁oši	-12.6083
▁fl	-12.6084
▁zit	-12.6085
eri	-12.6087
▁rach	-12.6101
▁šumu	-12.6102
ich	-12.6102
▁beni	-12.6107
37	-12.6116
žep	-12.6131
▁deba	-12.6133
nar	-12.6138
▁EPP	-12.614
▁HAC	-12.6141
HS	-12.6144
▁Rom	-12.6153
▁1:1	-12.6155
▁kWh	-12.6156
▁2-2	-12.6156
▁kabel	-12.616
▁spre	-12.6162
▁aman	-12.6166
▁46.	-12.6174
▁Ced	-12.618
▁79	-12.6181
▁rupa	-12.6191
eli	-12.6192
nji	-12.6195
▁hak	-12.6199
▁Fire	-12.6201
▁Emma	-12.6215
▁tut	-12.6216
dao	-12.6221
▁Arm	-12.6236
▁ihov	-12.6242
▁vl	-12.6249
▁Meta	-12.6252
run	-12.6253
▁izi	-12.6267
▁rbe	-12.6272
▁eat	-12.6276
INA	-12.6277
▁akra	-12.6289
▁dea	-12.6289
▁9,	-12.6301
▁71	-12.6307
štv	-12.6307
▁Laz	-12.6308
▁Ab	-12.631
▁arak	-12.6317
▁Bol	-12.6322
dala	-12.6324
volj	-12.6339
▁raši	-12.6345
▁rive	-12.6346
azov	-12.6366
ekli	-12.6368
▁otka	-12.637
▁rđ	-12.6371
▁Kuha	-12.6371
ps	-12.6371
▁NSATU	-12.6376
▁rthur	-12.6377
TS	-12.6384
▁Dur	-12.6387
isn	-12.639
▁masa	-12.6398
PO	-12.6403
eden	-12.6406
▁We	-12.6406
kret	-12.6407
nner	-12.6413
▁trbu	-12.6423
▁kas	-12.6425
int	-12.6426
truč	-12.643
ona	-12.6434
▁wee	-12.6445
▁gube	-12.645
▁iolin	-12.6455
▁69	-12.6457
▁kaci	-12.6464
▁anadi	-12.6468
IA	-12.6473
▁Edu	-12.6482
▁debi	-12.6487
pu	-12.6491
janj	-12.6496
▁anal	-12.651
▁Xav	-12.6512
▁liko	-12.6514
▁Dol	-12.6516
▁daha	-12.6517
njih	-12.6522
▁Jami	-12.6525
▁Er	-12.6538
ech	-12.6541
▁uo	-12.6544
▁enns	-12.6545
▁Tea	-12.6551
▁esar	-12.6551
jol	-12.6555
▁81	-12.6559
raf	-12.6566
oji	-12.6569
▁Ep	-12.6573
Pa	-12.6576
rch	-12.6581
▁Džek	-12.6587
▁pira	-12.659
▁Fo	-12.6594
▁Kož	-12.6595
▁undid	-12.6596
▁odno	-12.66
{	-12.6603
▁rona	-12.6608
▁lend	-12.6609
▁osno	-12.6614
rik	-12.6616
▁essi	-12.6622
▁tein	-12.6624
▁Han	-12.6627
▁Ive	-12.6638
▁Elka	-12.6639
ušt	-12.6643
▁žute	-12.6644
▁Wild	-12.6652
▁pah	-12.6653
▁orde	-12.6655
cija	-12.666
DP	-12.6661
▁kvu	-12.6671
▁ERS	-12.6673
▁20%	-12.6677
▁Mes	-12.6677
ndez	-12.6685
23	-12.6687
ogu	-12.6698
▁icije	-12.6699
▁fac	-12.6701
45	-12.6704
▁azm	-12.6704
▁ibal	-12.6704
▁avit	-12.6705
▁GO	-12.6713
af	-12.6715
▁ostu	-12.6716
Ph	-12.6717
▁atak	-12.6718
daje	-12.6724
▁Ekva	-12.6724
▁isi	-12.6728
▁adni	-12.6735
▁afi	-12.6741
▁klet	-12.6746
IT	-12.6756
▁rih	-12.6762
▁ritz	-12.6762
▁čevi	-12.6763
▁urin	-12.6763
ara	-12.6765
▁obin	-12.6765
▁emlji	-12.6782
gat	-12.6785
ncy	-12.6789
▁tyl	-12.6793
eff	-12.6794
zit	-12.6796
▁ađu	-12.6811
dal	-12.6821
▁auri	-12.6829
zv	-12.6837
▁Erd	-12.6837
▁ološ	-12.6838
▁amid	-12.6845
▁izr	-12.6849
dab	-12.6857
▁odje	-12.6858
▁sebn	-12.6859
KS	-12.6868
hip	-12.6875
▁ranč	-12.6877
▁Zemu	-12.6884
▁53.	-12.6896
ativ	-12.6899
▁Erik	-12.6899
▁76.	-12.6899
▁zak	-12.6912
▁ody	-12.6914
BB	-12.6914
▁dorf	-12.6915
▁dit	-12.6916
▁lena	-12.6919
▁ary	-12.6921
eth	-12.6926
▁Reb	-12.693
▁đir	-12.6931
▁Ray	-12.6936
▁dida	-12.6938
▁agun	-12.6945
▁anji	-12.6948
iser	-12.695
.)	-12.6951
▁GP	-12.6952
▁zul	-12.6954
sab	-12.6956
uha	-12.6957
▁Run	-12.6957
▁NI	-12.6961
▁Nass	-12.6964
ff	-12.6965
▁AN	-12.6969
tup	-12.6976
▁vege	-12.6979
nch	-12.6985
▁ucker	-12.6987
▁bach	-12.6987
▁isca	-12.6987
ovan	-12.6998
mill	-12.6998
▁žnj	-12.7001
▁boy	-12.7008
▁apar	-12.7011
▁dn	-12.7012
ERA	-12.7013
14	-12.7015
Š	-12.7016
tis	-12.7017
IV	-12.7027
BS	-12.7027
▁Web	-12.7037
ady	-12.7045
▁Win	-12.7049
▁87	-12.7051
▁Yo	-12.7057
▁vag	-12.7057
▁Lea	-12.7057
▁ulin	-12.7063
▁damu	-12.7071
▁ouse	-12.7083
PT	-12.7095
▁Au	-12.7095
nif	-12.7115
mmer	-12.7119
▁NKET	-12.7124
▁lec	-12.7125
▁ateg	-12.7129
▁Payne	-12.7131
▁TSKA	-12.7135
asta	-12.7139
▁asakr	-12.714
▁Šut	-12.7143
hno	-12.7145
orij	-12.715
tank	-12.7151
▁ift	-12.7153
▁0,	-12.7153
▁52.	-12.7163
▁Ver	-12.7163
▁eži	-12.7168
▁itt	-12.7169
:0	-12.7177
▁pora	-12.7178
▁Led	-12.7188
▁igar	-12.7191
▁acq	-12.7197
PK	-12.7202
▁Good	-12.7204
▁tovo	-12.7204
▁As	-12.7216
▁poto	-12.7216
▁wond	-12.7217
▁anch	-12.7223
▁konk	-12.7224
jese	-12.7232
olaz	-12.7233
iče	-12.7237
▁ećan	-12.7237
▁alker	-12.7241
▁kof	-12.7242
▁magn	-12.7265
▁grb	-12.7275
▁Wem	-12.7281
▁hian	-12.7288
▁CD	-12.7292
5%	-12.7296
ašto	-12.73
▁Fel	-12.7312
▁arki	-12.7318
▁zgl	-12.7319
▁astr	-12.7319
ču	-12.7327
▁ain	-12.7327
▁Žut	-12.733
RH	-12.7332
▁Knji	-12.7335
▁muš	-12.7336
11	-12.7338
▁Tre	-12.7346
by	-12.7348
java	-12.735
▁amin	-12.735
▁ratk	-12.7357
med	-12.7358
ŠK	-12.7364
▁ouch	-12.7367
ust	-12.7367
▁ilij	-12.7371
▁<	-12.7383
NL	-12.7383
2,	-12.7384
▁Krle	-12.7385
▁MOST	-12.7391
▁ICC	-12.7392
nost	-12.7393
▁erl	-12.7399
▁ward	-12.7411
▁Peru	-12.7413
▁šip	-12.7414
▁taž	-12.7414
▁DOM	-12.7416
▁anad	-12.7418
▁66.	-12.742
13	-12.7423
IH	-12.7427
▁mont	-12.7428
del	-12.7431
aq	-12.7437
▁oxh	-12.744
▁lopp	-12.7442
bili	-12.745
▁klimu	-12.7451
▁Ha	-12.7452
▁inh	-12.7458
▁41.	-12.7458
▁orom	-12.7459
▁jasl	-12.746
▁ugs	-12.7462
▁tuka	-12.7465
▁oguć	-12.7466
▁arge	-12.7469
▁36.	-12.7471
POO	-12.748
ansk	-12.7482
▁dev	-12.7489
lag	-12.749
▁ranče	-12.7492
▁Det	-12.7494
▁odst	-12.7494
▁degu	-12.7494
ary	-12.7497
▁tle	-12.7502
▁vok	-12.7503
▁mus	-12.7504
▁Raj	-12.7508
ej	-12.7513
▁alih	-12.7514
▁ky	-12.7516
▁lato	-12.7519
▁try	-12.7525
▁ston	-12.7526
redn	-12.753
▁regon	-12.7533
▁Aus	-12.7537
▁86	-12.754
IĆ	-12.7545
▁ww	-12.7547
che	-12.7556
▁Mami	-12.7558
▁ekl	-12.7558
▁SE	-12.7565
rič	-12.7566
▁arac	-12.7571
fin	-12.7575
▁pće	-12.759
▁mega	-12.7602
dir	-12.7606
▁ljim	-12.7607
ator	-12.7609
▁ekti	-12.7609
▁May	-12.7619
▁tock	-12.7626
zir	-12.7629
▁cere	-12.7631
▁Joke	-12.7633
rc	-12.7634
▁Evan	-12.7636
gust	-12.7642
avk	-12.7647
▁ugi	-12.7649
▁Kop	-12.7656
▁ŽIVO	-12.7658
▁oret	-12.7662
▁OVI	-12.7662
▁feld	-12.7665
▁phile	-12.7667
▁cal	-12.7667
▁Jesen	-12.7672
▁dać	-12.7674
▁Silva	-12.7681
▁54.	-12.7695
▁Kos	-12.7716
▁ugla	-12.7717
▁112	-12.7725
▁diž	-12.7727
▁šute	-12.7727
▁embr	-12.7729
▁awk	-12.7733
▁vinu	-12.7733
▁ports	-12.7735
gon	-12.7738
▁ovol	-12.7741
▁apel	-12.7746
nac	-12.7755
▁Ćos	-12.7756
kako	-12.7757
▁88	-12.7768
▁šen	-12.7769
▁inat	-12.7771
dy	-12.7774
njeg	-12.7775
▁DW	-12.7778
ebel	-12.7778
▁90.	-12.778
▁Ank	-12.7781
W	-12.7786
▁Mekt	-12.7797
tch	-12.7798
▁alek	-12.7814
obar	-12.7817
▁Tih	-12.7817
VJET	-12.782
▁Nig	-12.7824
dje	-12.7827
▁šama	-12.7828
kin	-12.7828
ANA	-12.7836
▁Dis	-12.784
▁memo	-12.784
Do	-12.7842
▁urze	-12.7845
yle	-12.7846
▁orni	-12.7853
dres	-12.7856
eh	-12.7856
▁Gim	-12.7858
-5	-12.7872
zu	-12.7873
▁irmi	-12.7873
▁eal	-12.7875
▁FA	-12.7885
▁efe	-12.7893
nnes	-12.7896
▁Gaj	-12.7897
tre	-12.7909
▁kac	-12.791
▁Aure	-12.791
▁gorje	-12.7918
ill	-12.7925
sch	-12.7927
▁look	-12.793
▁HOO	-12.7938
▁Eni	-12.7945
▁Aria	-12.7945
▁3:1	-12.7946
▁ush	-12.7946
mn	-12.7948
▁zbil	-12.7948
ock	-12.795
EC	-12.7953
▁59.	-12.7963
▁kur	-12.7964
▁meg	-12.7971
▁ence	-12.7974
▁85.	-12.7979
▁oju	-12.7979
▁USA	-12.799
▁Beka	-12.7992
▁37.	-12.8001
▁arkle	-12.8004
▁los	-12.8005
▁ilet	-12.8006
ošlo	-12.8008
▁kvara	-12.8013
▁bure	-12.8017
▁lake	-12.8018
▁lfs	-12.8022
▁74	-12.8025
▁Dap	-12.8033
▁orest	-12.8047
▁was	-12.8055
▁Fun	-12.8056
her	-12.8058
▁LA	-12.8058
▁vili	-12.8059
vir	-12.8066
▁inal	-12.8067
▁šiša	-12.8067
azal	-12.8069
ljan	-12.807
▁war	-12.8072
▁cot	-12.8074
▁ude	-12.8076
▁Đu	-12.8082
▁oriš	-12.809
rok	-12.8096
▁ery	-12.8097
erem	-12.8098
▁Hrv	-12.8117
▁abdo	-12.8121
▁puh	-12.814
bol	-12.8141
▁arg	-12.8144
▁mid	-12.8146
pci	-12.8149
▁amf	-12.8155
▁anye	-12.8159
▁au	-12.8159
▁Well	-12.8168
▁bik	-12.8168
▁Yu	-12.8172
▁UV	-12.8179
atim	-12.8183
eti	-12.8184
▁ribu	-12.8191
▁HT	-12.8193
▁endu	-12.8207
▁limi	-12.821
▁rše	-12.8222
▁kuta	-12.8227
▁6-4	-12.8227
▁Foot	-12.8237
▁Fair	-12.8241
▁Tak	-12.8242
▁IG	-12.8249
▁jec	-12.825
▁orge	-12.8252
▁šil	-12.8253
▁milo	-12.8259
sy	-12.8266
▁liju	-12.8269
▁Meri	-12.8269
▁nizi	-12.8275
auf	-12.8277
▁61.	-12.8279
▁eler	-12.8283
rol	-12.8284
ncer	-12.8284
▁Sah	-12.8292
▁Der	-12.8295
▁dže	-12.8297
▁miču	-12.8308
eće	-12.831
varn	-12.8315
CG	-12.832
nath	-12.8321
zil	-12.8323
erif	-12.8325
▁Nas	-12.8326
own	-12.8333
naj	-12.8336
▁miri	-12.8337
ong	-12.8339
▁hoke	-12.8342
▁deka	-12.8344
app	-12.835
▁izg	-12.8355
▁Rac	-12.837
▁erif	-12.8372
eter	-12.8373
▁tlu	-12.8373
▁bosa	-12.8375
▁98	-12.8376
▁adova	-12.8379
▁zio	-12.838
▁Xi	-12.8387
jasn	-12.8391
17	-12.8392
▁alea	-12.84
▁čep	-12.8401
▁Huma	-12.8404
▁aser	-12.8406
▁ulka	-12.8413
dž	-12.8421
▁esp	-12.8422
▁agin	-12.8428
▁Has	-12.8431
▁ushi	-12.8432
▁Ani	-12.8435
▁EV	-12.8439
▁okuš	-12.8441
nima	-12.8442
bas	-12.8443
rit	-12.8446
koš	-12.8448
35	-12.8454
▁upni	-12.8467
▁USD	-12.8473
▁arja	-12.8476
IFA	-12.8484
▁asaž	-12.8486
▁Elit	-12.849
▁ider	-12.8495
▁Cit	-12.8495
▁ktu	-12.8498
95	-12.8506
▁žila	-12.8506
pel	-12.8512
▁HZJZ	-12.8517
▁Utah	-12.8517
▁6-2	-12.8521
▁omog	-12.8522
▁gulaš	-12.8522
▁ebo	-12.8524
▁guez	-12.8526
▁mn	-12.8526
užno	-12.8526
▁hlep	-12.8527
▁ublin	-12.8534
rig	-12.8535
▁pur	-12.8537
▁87.	-12.8539
▁kadr	-12.854
▁77.	-12.8541
▁84.	-12.8544
ome	-12.8554
▁Arhe	-12.8559
▁IJE	-12.8561
▁81.	-12.8561
▁usko	-12.8562
▁ačun	-12.8563
▁Ži	-12.8563
▁47.	-12.8563
▁gos	-12.8565
AE	-12.8572
▁ruise	-12.8574
▁BDP	-12.8576
▁Kir	-12.8582
RS	-12.8586
reme	-12.8591
▁Let	-12.8596
▁raff	-12.8597
▁elje	-12.8597
▁Gra	-12.8601
▁klah	-12.861
▁esse	-12.862
▁Demo	-12.8621
cht	-12.8629
▁45.	-12.8633
▁Đa	-12.8642
▁enry	-12.8647
prug	-12.865
▁župa	-12.8651
▁dvj	-12.8656
▁kuma	-12.8658
33	-12.8658
▁pape	-12.8659
žar	-12.8662
▁Yoo	-12.8665
▁ojed	-12.8668
▁Fer	-12.8677
▁trože	-12.8678
▁izgr	-12.8688
▁Amb	-12.8699
▁Dek	-12.8702
bal	-12.8705
▁izbo	-12.8706
▁kep	-12.871
▁91	-12.871
vrdi	-12.8716
▁Miku	-12.872
▁jem	-12.8731
▁oord	-12.8735
mam	-12.874
▁tin	-12.8746
▁ack	-12.8752
▁nti	-12.8759
▁Arhi	-12.8769
▁IVE	-12.8776
▁obe	-12.8777
▁Nes	-12.8778
▁dog	-12.8778
▁Mak	-12.8785
▁loom	-12.8793
▁loud	-12.8797
čkoj	-12.8806
ark	-12.8819
▁OECD	-12.8819
▁Orbán	-12.8819
▁HTS	-12.8826
▁Emi	-12.8832
▁ajs	-12.8832
DC	-12.8843
▁68.	-12.8846
▁Medi	-12.885
▁57.	-12.8856
ICA	-12.8857
▁drht	-12.8858
ody	-12.886
▁64.	-12.8861
osto	-12.8862
▁vni	-12.8863
▁Mišo	-12.8865
▁Ros	-12.8865
▁open	-12.8866
▁esca	-12.8868
ovn	-12.8868
▁meda	-12.887
▁vot	-12.887
rm	-12.8872
▁aler	-12.8875
▁zu	-12.8881
HNL	-12.8881
▁65.	-12.8887
čev	-12.8889
▁tte	-12.8889
▁arga	-12.8895
▁House	-12.8896
▁trož	-12.8896
HO	-12.89
▁okre	-12.8901
▁kuč	-12.8904
▁SSS	-12.8906
CS	-12.8916
▁Ath	-12.8921
▁Niž	-12.8933
usic	-12.8935
▁Ane	-12.8959
▁Mod	-12.8964
▁une	-12.8966
▁Pete	-12.8969
▁Ash	-12.8983
▁idan	-12.8985
▁Elo	-12.8991
DU	-12.8995
▁ispa	-12.9001
ury	-12.9003
đaj	-12.9003
▁ermi	-12.9004
▁ndu	-12.9013
omb	-12.9015
▁obot	-12.9024
▁Hur	-12.9026
omi	-12.9031
naln	-12.9057
▁dila	-12.9058
▁ikan	-12.9059
▁Neg	-12.906
▁epti	-12.9068
aca	-12.907
ksi	-12.9071
▁lm	-12.9072
-1	-12.9072
▁are	-12.908
iju	-12.9083
▁šnje	-12.9096
▁len	-12.9105
uke	-12.911
▁ptu	-12.9123
ull	-12.913
▁iors	-12.913
▁Ava	-12.9131
▁alin	-12.9134
lop	-12.9135
▁Forum	-12.9136
▁čov	-12.9137
▁dst	-12.9142
▁ihovi	-12.9146
▁jenik	-12.9148
▁low	-12.9149
▁Eva	-12.9149
▁Eth	-12.915
▁ešn	-12.9153
▁ileć	-12.9154
ramu	-12.9154
▁79.	-12.9154
▁63.	-12.9165
▁hink	-12.9172
▁71.	-12.918
26	-12.918
iber	-12.9191
alek	-12.9194
NV	-12.9201
eki	-12.9215
esto	-12.9215
▁vec	-12.922
oc	-12.9224
▁Fans	-12.9225
▁Uef	-12.9245
lub	-12.9245
▁urry	-12.9248
63	-12.9249
avi	-12.9249
▁chic	-12.9249
▁aži	-12.9255
▁šiš	-12.9255
vam	-12.9258
▁etti	-12.927
▁aska	-12.9271
3,	-12.9282
▁ašti	-12.9291
Po	-12.9293
▁teni	-12.9294
▁sja	-12.9294
▁iho	-12.9295
▁okoš	-12.9296
65	-12.9298
▁Gas	-12.93
ffer	-12.9305
CMC	-12.9312
urn	-12.9318
erc	-12.9318
▁snic	-12.9324
▁sima	-12.9325
▁itat	-12.933
▁arao	-12.9333
▁hort	-12.9336
▁Out	-12.9336
▁Muh	-12.9347
jam	-12.9358
▁Ful	-12.936
▁vlak	-12.9361
▁laza	-12.9362
GS	-12.9374
▁mami	-12.9374
utt	-12.9377
stig	-12.9386
▁yr	-12.9399
nske	-12.9399
▁Lov	-12.9402
igh	-12.9415
▁čav	-12.9422
▁ađara	-12.9424
▁Ga	-12.9427
▁Duha	-12.9437
▁rail	-12.9438
tkom	-12.9443
▁phy	-12.9444
▁}	-12.9445
▁Av	-12.9448
▁rugge	-12.9456
▁HRZ	-12.9457
▁utl	-12.9459
bus	-12.946
▁ačv	-12.9462
Ti	-12.9464
▁Orsa	-12.9479
izi	-12.948
▁rebak	-12.9481
đenj	-12.9482
▁Ćip	-12.9484
▁ATA	-12.949
▁owl	-12.9493
▁namo	-12.9493
▁ikv	-12.9496
▁arbie	-12.9502
▁My	-12.9516
▁EN	-12.9524
▁jesto	-12.9531
nšiz	-12.9534
▁38.	-12.9535
▁Un	-12.9538
edam	-12.9539
▁orti	-12.9544
ick	-12.9547
▁Dea	-12.9555
▁ax	-12.9555
-7	-12.9557
▁ajt	-12.9571
▁NY	-12.9572
▁Pere	-12.9573
▁set	-12.9575
▁Duh	-12.9596
▁orza	-12.9596
▁marž	-12.9603
SV	-12.9608
▁laud	-12.9614
rap	-12.9616
oy	-12.9618
▁usi	-12.9647
▁Wol	-12.9671
▁oth	-12.9673
▁dro	-12.9674
uh	-12.9675
plj	-12.968
▁oker	-12.9681
▁rich	-12.9684
▁96	-12.9699
22	-12.9704
▁kemo	-12.971
▁baci	-12.9731
▁ojs	-12.9755
set	-12.976
▁alte	-12.976
ojic	-12.976
▁trep	-12.9768
▁En	-12.9769
▁fo	-12.9771
▁romb	-12.9775
▁lost	-12.9794
▁dašn	-12.9795
▁GUP	-12.9797
▁Lib	-12.9799
orak	-12.98
▁olis	-12.9804
▁baha	-12.9806
▁anil	-12.9806
▁kru	-12.9806
▁earch	-12.9813
tari	-12.9816
▁67.	-12.9819
▁ebek	-12.9842
▁Noć	-12.9845
▁VW	-12.9845
▁adno	-12.9849
▁onac	-12.9849
▁ib	-12.9852
▁42.	-12.9856
aže	-12.9857
uta	-12.9865
ćem	-12.9866
▁51.	-12.9869
▁olta	-12.9873
▁irek	-12.9873
▁irom	-12.9882
▁Min	-12.9899
▁89	-12.9904
▁izze	-12.9906
▁dile	-12.9908
▁Din	-12.9911
▁azl	-12.9918
▁OB	-12.9919
▁Đer	-12.993
▁nikom	-12.9935
▁Rij	-12.9942
▁HB	-12.9945
▁žan	-12.9947
ade	-12.9948
▁kume	-12.9953
▁omi	-12.9966
▁GT	-12.9968
mpl	-12.9969
▁Peri	-12.9971
EM	-12.9974
rth	-12.998
▁jena	-12.9982
▁ovar	-12.9987
▁dl	-12.9991
▁eff	-12.9992
▁ossi	-12.9994
▁ogla	-12.9997
▁Mus	-13.0002
▁tuu	-13.0009
▁ayo	-13.0014
▁Meh	-13.0022
▁upp	-13.0028
▁fu	-13.0036
▁epu	-13.0043
▁elom	-13.0051
▁ajak	-13.0054
zač	-13.0062
▁Frie	-13.0069
▁Hous	-13.0069
▁rost	-13.007
ague	-13.0077
▁Pas	-13.0084
▁had	-13.0088
uho	-13.0089
▁tla	-13.0093
▁ranz	-13.0094
-0	-13.0101
▁aleb	-13.0108
▁sci	-13.011
▁olun	-13.0114
▁Čop	-13.0115
▁ajde	-13.0128
▁irja	-13.0128
▁Diz	-13.013
▁1/2	-13.0131
▁(2)	-13.0133
ya	-13.0133
▁Musa	-13.0134
hez	-13.0135
▁6-3	-13.0141
▁laće	-13.0155
▁72.	-13.0169
▁62.	-13.0175
EB	-13.018
SA	-13.0189
▁adit	-13.0192
▁39.	-13.0203
▁agre	-13.0204
▁kuj	-13.021
ožen	-13.0216
▁zat	-13.023
▁oge	-13.023
▁Con	-13.0232
▁anaf	-13.0235
▁Welle	-13.0237
▁krhk	-13.0267
Hrvat	-13.0271
▁jeku	-13.0274
▁LP	-13.0281
▁mine	-13.0287
▁arha	-13.0293
▁mach	-13.0299
nica	-13.03
gn	-13.0303
▁ajor	-13.0306
▁ofa	-13.0308
▁ursa	-13.0309
▁Milk	-13.0311
▁oldo	-13.0311
eda	-13.0314
▁lex	-13.0314
▁ška	-13.0322
▁Hus	-13.0331
▁isch	-13.0335
▁onat	-13.0336
TF	-13.0339
▁alu	-13.0343
fun	-13.0344
lig	-13.0345
▁esco	-13.0352
ese	-13.0359
75	-13.0369
▁TM	-13.038
tez	-13.0384
▁hy	-13.0387
▁elju	-13.0395
▁frek	-13.0399
ede	-13.0402
više	-13.0415
ohn	-13.0421
ppy	-13.0421
▁vig	-13.0423
9%	-13.0426
▁pear	-13.0429
▁ling	-13.0431
▁Hans	-13.0432
▁Aft	-13.0432
zh	-13.0434
▁umn	-13.0444
▁akti	-13.0445
EV	-13.0451
▁aneg	-13.0467
▁iq	-13.0467
▁Deka	-13.0468
▁Pec	-13.047
▁FM	-13.0477
▁ürich	-13.0488
onač	-13.0494
▁uls	-13.0494
▁tuk	-13.0496
▁RI	-13.0506
iffr	-13.0509
+	-13.0511
▁88.	-13.0514
▁HOS	-13.0514
▁69.	-13.0515
▁ough	-13.0515
ele	-13.0516
ril	-13.0516
▁50%	-13.0516
▁bosi	-13.0517
TK	-13.052
oma	-13.0525
vaju	-13.0525
▁FC	-13.0527
▁OVIĆ	-13.0528
tem	-13.0534
▁šće	-13.0535
▁Roy	-13.0545
RK	-13.0547
▁NP	-13.0548
fet	-13.0549
ović	-13.0552
odu	-13.0552
▁ojun	-13.0562
▁Kuć	-13.0564
US	-13.0565
imer	-13.0567
▁obo	-13.0572
▁Fest	-13.0577
▁jaz	-13.0579
riv	-13.059
▁AGR	-13.0592
ito	-13.0593
▁slap	-13.0599
bac	-13.0603
bud	-13.0605
ACI	-13.0614
▁Kumr	-13.0615
vas	-13.0622
▁kc	-13.0624
▁kore	-13.0625
▁Dore	-13.0627
mje	-13.0628
▁Mega	-13.0632
tje	-13.0638
5.	-13.0639
▁dil	-13.064
ser	-13.0642
šn	-13.0643
zca	-13.0652
▁debe	-13.0661
▁Pay	-13.0662
3%	-13.0663
▁Ede	-13.0672
▁faš	-13.0676
▁ajder	-13.0676
▁nakv	-13.0677
▁Pam	-13.0679
▁žr	-13.0697
ikt	-13.0702
▁nar	-13.0712
GO	-13.0714
SG	-13.072
▁kraf	-13.0721
Q	-13.0723
▁iolet	-13.0726
▁Aut	-13.0731
▁AO	-13.0732
▁toje	-13.0736
▁Fia	-13.0736
ivan	-13.0742
arm	-13.0753
▁spri	-13.0762
očin	-13.0767
▁Hot	-13.0771
win	-13.0772
▁lant	-13.0776
bel	-13.0778
išt	-13.0786
▁Ap	-13.079
▁ljati	-13.0795
▁arma	-13.0804
uju	-13.0804
pid	-13.0808
jedi	-13.0809
uss	-13.0816
▁vale	-13.0835
▁ilja	-13.0838
koje	-13.0841
▁Hit	-13.0842
▁wol	-13.0844
▁akud	-13.0844
▁hof	-13.085
▁EBU	-13.0863
▁alde	-13.0866
▁rove	-13.0866
▁4-1	-13.0867
ER	-13.0875
MED	-13.0877
▁Anđ	-13.0878
▁JANA	-13.0878
▁arkt	-13.0879
▁žegi	-13.0885
ont	-13.0886
▁ahar	-13.0889
▁Cir	-13.0889
etk	-13.0896
▁1/	-13.0902
tter	-13.0904
▁roga	-13.0907
▁orzu	-13.0907
▁Aven	-13.0908
▁Fed	-13.0908
▁Mmae	-13.0911
▁2,2	-13.092
yer	-13.092
▁anica	-13.0925
▁44.	-13.0926
aka	-13.0931
▁OD	-13.0935
▁aham	-13.0939
▁raži	-13.0941
▁Allen	-13.0954
▁Tep	-13.0957
▁isic	-13.0958
▁sho	-13.0961
▁lati	-13.0966
▁roti	-13.0969
laže	-13.0969
▁Kut	-13.097
lif	-13.0976
▁unde	-13.0978
▁97	-13.0981
oni	-13.0986
▁ulmi	-13.0988
▁OSR	-13.0989
▁Miše	-13.099
▁umen	-13.0997
▁kora	-13.0998
▁abs	-13.1005
oef	-13.1008
▁urb	-13.1023
▁rog	-13.1033
▁resc	-13.1034
▁Duž	-13.1035
▁Rig	-13.1036
imi	-13.1039
govor	-13.1044
▁dost	-13.1046
▁ilton	-13.1046
▁ser	-13.1051
ogr	-13.1057
▁bat	-13.106
▁teč	-13.106
▁ozil	-13.1061
▁sak	-13.1067
▁MO	-13.1068
▁vota	-13.1069
▁izla	-13.1072
▁nk	-13.1078
ngel	-13.108
▁AT	-13.1081
▁Hand	-13.1092
▁ire	-13.1101
pher	-13.1103
▁anir	-13.1108
ign	-13.1117
▁huti	-13.1123
▁HDS	-13.1124
▁kutak	-13.1127
▁IJER	-13.113
▁alta	-13.1133
▁220	-13.1136
▁Elle	-13.1137
ith	-13.1138
spit	-13.1149
▁Bel	-13.1154
▁ishi	-13.1161
▁Eu	-13.1161
▁dovi	-13.1161
▁ammer	-13.1164
▁Free	-13.1164
▁mao	-13.117
▁nera	-13.1175
▁urni	-13.1176
co	-13.1177
VI	-13.1178
▁wen	-13.1179
▁mpo	-13.1182
yber	-13.1182
ude	-13.1187
▁ekvi	-13.1189
▁rio	-13.1191
kos	-13.1203
dno	-13.1207
jelu	-13.1222
umb	-13.1222
lum	-13.1225
PÖ	-13.124
▁ruyne	-13.1244
▁NFL	-13.1249
SKA	-13.125
js	-13.1256
▁ashi	-13.1258
▁Meli	-13.1266
▁0-0	-13.1267
▁Ajd	-13.1268
riop	-13.1272
▁orres	-13.1277
ami	-13.1277
▁82.	-13.1279
▁üss	-13.1288
ume	-13.1289
Je	-13.1291
mon	-13.1293
▁leme	-13.1293
▁lite	-13.1296
▁Gil	-13.1301
▁izn	-13.1302
▁rda	-13.1304
▁Avi	-13.1306
▁timo	-13.1311
▁evr	-13.1314
▁nag	-13.1318
▁uni	-13.1325
ana	-13.1325
ižu	-13.1326
▁tap	-13.1331
bran	-13.1345
▁ozar	-13.1349
▁učit	-13.1349
▁Grub	-13.1351
▁žit	-13.1352
▁Ruk	-13.1361
▁Anni	-13.1363
▁arom	-13.1369
▁Lo	-13.1387
▁bas	-13.1393
▁razl	-13.1409
77	-13.1413
▁ribl	-13.1414
rep	-13.1415
▁uche	-13.1417
ble	-13.1418
OV	-13.1426
▁hei	-13.1431
▁olte	-13.1431
▁Pu	-13.1439
eber	-13.1441
MZ	-13.1444
▁viga	-13.1445
▁Abd	-13.1446
biti	-13.1452
▁kuri	-13.1457
▁okas	-13.1458
ospo	-13.146
cur	-13.1463
fan	-13.1465
/	-13.1477
▁bene	-13.148
▁if	-13.1486
▁IMA	-13.1487
▁gam	-13.149
▁celer	-13.1502
▁luž	-13.1506
▁talo	-13.1513
▁CB	-13.1516
eke	-13.1518
▁zbe	-13.1518
▁Senk	-13.152
▁qua	-13.1524
No	-13.1526
▁šifr	-13.1529
▁gum	-13.153
▁PP	-13.1532
▁RT	-13.1535
▁oal	-13.1537
ELJ	-13.1539
▁deva	-13.1541
▁SNS	-13.1545
▁rsat	-13.1545
▁Ame	-13.1546
▁oysa	-13.1551
atch	-13.1554
▁gang	-13.1558
▁Ment	-13.1572
gebr	-13.1572
▁hobo	-13.1577
▁elf	-13.1584
:3	-13.1585
emor	-13.1586
▁taf	-13.1589
▁nin	-13.159
nger	-13.1593
niti	-13.1597
▁och	-13.1597
2%	-13.1606
36	-13.1607
▁ogue	-13.1609
▁zli	-13.1616
▁izl	-13.1617
▁kti	-13.1624
▁jude	-13.1625
▁dif	-13.1626
lah	-13.1626
iku	-13.163
55	-13.1639
▁jeno	-13.1642
▁Ća	-13.1642
▁nosa	-13.1644
▁burgh	-13.1644
▁amor	-13.1644
▁izdar	-13.1645
KK	-13.165
▁loyd	-13.1654
▁warz	-13.1658
▁adoks	-13.166
rvak	-13.1666
▁kana	-13.1669
▁IZ	-13.1674
▁oyot	-13.1675
dif	-13.1676
▁igura	-13.1678
▁78.	-13.1683
▁Jonas	-13.1683
▁jit	-13.1685
▁odne	-13.1686
did	-13.1692
▁KOM	-13.1692
ranc	-13.1702
▁neć	-13.1704
eva	-13.1706
▁2"	-13.1708
▁10%	-13.172
▁ained	-13.1726
hu	-13.1729
▁Clo	-13.173
dum	-13.1737
▁5,5	-13.1742
▁ajram	-13.1743
▁road	-13.1745
duze	-13.1754
▁Lar	-13.1761
uti	-13.1762
▁Wes	-13.1778
▁wich	-13.1781
ešk	-13.1786
šli	-13.1795
▁amac	-13.1804
▁tream	-13.1805
▁VR	-13.1805
isp	-13.1811
LO	-13.1812
▁ruis	-13.1816
▁gel	-13.1821
▁AD	-13.1826
28	-13.1827
VE	-13.1829
▁Gun	-13.1839
▁iksi	-13.1842
▁vate	-13.1842
Iz	-13.1852
▁ENIK	-13.1861
▁dač	-13.1862
▁tonj	-13.187
▁maci	-13.1871
▁gine	-13.1876
kle	-13.1878
dona	-13.1882
▁Mun	-13.1896
▁luta	-13.1905
▁RK	-13.1906
▁irmu	-13.1911
kit	-13.1914
▁raža	-13.1921
▁ovez	-13.1924
▁Joz	-13.193
▁MR	-13.1932
▁ache	-13.1943
ori	-13.196
rci	-13.1962
▁Fam	-13.1963
TO	-13.1965
▁ranš	-13.1976
CMA	-13.1985
oba	-13.1989
▁pc	-13.1997
▁čl	-13.1998
▁yun	-13.2002
▁AC	-13.2013
hal	-13.2015
▁ozin	-13.2019
jas	-13.2027
DI	-13.2035
▁SU	-13.2038
▁diri	-13.204
",	-13.205
lis	-13.2051
▁Usyk	-13.2058
▁graph	-13.2062
▁NRW	-13.2062
▁3:2	-13.2063
▁eđe	-13.2074
6%	-13.2074
AT	-13.2077
▁šev	-13.2077
ešt	-13.208
▁adin	-13.2081
ički	-13.2086
gran	-13.2087
▁Cro	-13.2102
abr	-13.2105
oć	-13.2107
▁erth	-13.2108
▁ajer	-13.211
veza	-13.2112
▁Sov	-13.2114
▁šču	-13.2116
▁2,9	-13.2116
▁ozde	-13.2117
rkan	-13.2119
▁Pen	-13.2125
▁gnj	-13.2129
▁šl	-13.2129
▁uzma	-13.2136
▁MW	-13.2144
▁48.	-13.2151
▁makl	-13.2152
▁Medu	-13.2154
▁HOK	-13.2155
▁inec	-13.2155
▁gut	-13.2167
▁ecce	-13.2174
ath	-13.2175
▁oles	-13.2182
▁depo	-13.2182
▁čad	-13.2189
▁inga	-13.219
▁oše	-13.2192
ys	-13.2193
▁dic	-13.2201
VA	-13.221
▁azd	-13.2215
▁Čile	-13.2217
CIA	-13.2224
▁War	-13.2229
HC	-13.2234
▁ebal	-13.2244
uff	-13.2257
BOR	-13.2263
▁COP	-13.2279
▁HBO	-13.2282
▁estu	-13.2285
ktu	-13.2295
▁peed	-13.2297
tran	-13.2298
užv	-13.2302
▁Jim	-13.231
▁kis	-13.2313
rili	-13.2321
▁iskl	-13.2325
▁aff	-13.2328
nez	-13.2348
▁SD	-13.2351
▁adem	-13.2351
▁esh	-13.2357
mand	-13.237
TRA	-13.2372
ure	-13.2373
ehni	-13.2378
▁ld	-13.2382
▁janja	-13.2385
▁Ah	-13.2388
ugh	-13.2389
▁zar	-13.2389
▁blj	-13.2393
DL	-13.2397
▁atum	-13.2425
▁Eti	-13.2427
▁Neda	-13.2428
▁kele	-13.2428
▁legr	-13.2431
▁inez	-13.2433
▁2)	-13.2451
▁Amir	-13.2452
▁eudo	-13.2458
hat	-13.2458
▁nađ	-13.2459
▁nol	-13.2469
▁Šum	-13.248
rot	-13.2485
rojn	-13.2487
▁Ime	-13.2493
▁HMI	-13.2495
ire	-13.2499
oli	-13.2499
▁Arin	-13.25
▁bedem	-13.2501
▁otn	-13.2502
▁Etn	-13.2503
itelj	-13.2504
▁oži	-13.2505
▁Wolf	-13.2511
▁bre	-13.2511
▁zzur	-13.2515
▁ZET	-13.2517
▁89.	-13.2519
▁93.	-13.2522
▁86.	-13.2525
▁atel	-13.2528
jiv	-13.2531
▁83.	-13.2533
ORA	-13.2536
▁egzi	-13.2538
▁165	-13.2539
▁alf	-13.2539
zbor	-13.254
▁Old	-13.254
▁Marsa	-13.2541
▁nak	-13.2545
27	-13.2549
▁49.	-13.2551
▁haw	-13.2557
ustr	-13.2559
▁ndus	-13.2567
cer	-13.2588
▁tago	-13.2598
▁haj	-13.2605
uri	-13.2606
▁OTP	-13.2612
odno	-13.2614
▁skač	-13.2614
▁vitak	-13.262
▁Pip	-13.262
▁amba	-13.262
▁uča	-13.2636
ild	-13.2636
dam	-13.2637
▁upra	-13.2638
ebn	-13.264
▁epo	-13.2642
▁ško	-13.2655
▁beau	-13.2659
dsj	-13.266
FF	-13.2661
kada	-13.2664
▁hajd	-13.2664
edan	-13.2666
▁iler	-13.267
▁aux	-13.267
uth	-13.2673
▁jt	-13.2679
▁rako	-13.2681
▁ries	-13.2682
6,	-13.2686
▁bak	-13.2693
▁issa	-13.2703
fe	-13.2712
REB	-13.2714
nađ	-13.2717
▁sme	-13.2718
▁bah	-13.272
▁Rož	-13.2722
TAK	-13.2725
▁nsko	-13.2735
žij	-13.274
▁nke	-13.274
▁ON	-13.2742
▁Wel	-13.275
▁SR	-13.2763
kst	-13.2769
▁INE	-13.2778
▁olfa	-13.278
▁rajer	-13.278
▁adre	-13.2784
▁new	-13.2785
▁ATIC	-13.2789
▁auša	-13.2789
▁Hut	-13.2791
▁ains	-13.2796
▁alei	-13.2805
▁Fe	-13.2809
▁ioč	-13.2815
▁hij	-13.282
vje	-13.2821
▁aper	-13.2828
▁turm	-13.2832
▁blat	-13.2852
▁zaje	-13.2854
▁dell	-13.2857
▁Tar	-13.2865
▁Fol	-13.2868
▁mek	-13.2872
▁ial	-13.2876
▁anto	-13.2883
▁Lac	-13.2884
▁gej	-13.2888
okr	-13.2889
▁Are	-13.2897
▁NJA	-13.2906
▁Albi	-13.2908
FA	-13.2911
▁BK	-13.2926
▁oći	-13.2927
utak	-13.2929
nakon	-13.2934
▁arch	-13.2935
▁inea	-13.2935
▁PRO	-13.2941
▁EHF	-13.2947
▁Kukoč	-13.2951
▁Fif	-13.2951
▁Ruud	-13.296
▁Fari	-13.2961
▁irma	-13.2961
▁ijam	-13.2961
▁MOO	-13.2966
:2	-13.2966
VO	-13.2968
ere	-13.2972
mov	-13.2977
▁Mire	-13.2983
▁house	-13.2987
▁hukt	-13.2988
▁73.	-13.2992
▁igman	-13.2993
▁Fid	-13.2996
▁avat	-13.2996
enja	-13.2999
▁kugor	-13.2999
▁0:1	-13.2999
▁Get	-13.3
▁56.	-13.3001
▁Gan	-13.3005
▁tech	-13.3006
jin	-13.3009
row	-13.3011
▁Lil	-13.3011
▁Jona	-13.3012
▁leti	-13.3012
▁arag	-13.3018
rus	-13.3021
▁Zab	-13.3026
▁austa	-13.3028
list	-13.3029
▁guv	-13.3045
▁kud	-13.3045
47	-13.3051
dos	-13.3055
▁nala	-13.3055
uđ	-13.3057
umen	-13.3059
otp	-13.3061
▁krip	-13.3065
▁BY	-13.3066
▁uba	-13.3075
▁ICT	-13.3077
▁93	-13.3084
▁Nel	-13.3086
ang	-13.3098
led	-13.3102
ZO	-13.3105
▁enn	-13.3108
stu	-13.3111
▁plo	-13.3114
▁zasl	-13.3116
▁jang	-13.3124
▁3:	-13.3125
▁habi	-13.3129
▁spra	-13.314
▁aque	-13.3143
▁Zav	-13.315
▁zebr	-13.3155
udi	-13.3157
MP	-13.3158
▁žile	-13.3158
▁emen	-13.3164
▁drv	-13.3164
asy	-13.3174
agon	-13.3178
▁DV	-13.3181
▁aphi	-13.3188
2.	-13.3205
vad	-13.3212
sq	-13.322
▁Koka	-13.3237
▁mp	-13.3238
▁Kul	-13.3243
zo	-13.3245
▁jakn	-13.3247
vla	-13.3247
▁tig	-13.3251
8%	-13.327
ini	-13.3272
▁Tiha	-13.3278
▁Bake	-13.3286
▁ajdu	-13.3286
▁ipar	-13.3286
aha	-13.3296
▁FIF	-13.3304
zik	-13.3305
▁abak	-13.3314
▁hir	-13.3326
▁CRO	-13.3335
samo	-13.3342
▁plit	-13.3351
enk	-13.3353
▁ux	-13.3365
ešć	-13.3367
▁unke	-13.3369
▁wan	-13.3386
ovu	-13.34
▁zez	-13.3402
▁odij	-13.3409
▁hab	-13.341
ever	-13.3419
išk	-13.342
▁libi	-13.3425
▁Kuk	-13.3428
pen	-13.343
▁6-1	-13.3431
rder	-13.3434
▁OIB	-13.3435
▁2:2	-13.3438
▁ersi	-13.344
▁ntr	-13.344
▁Miki	-13.3441
▁AB	-13.3444
▁eller	-13.3444
▁nast	-13.3446
njem	-13.3447
▁word	-13.345
jela	-13.3453
▁kt	-13.3453
▁Lider	-13.3459
▁0-1	-13.3461
▁Faye	-13.3462
▁Way	-13.3467
▁0-2	-13.3469
▁amos	-13.347
obi	-13.3475
▁Wed	-13.3498
AG	-13.3501
▁tamp	-13.3501
▁43.	-13.3501
▁RN	-13.3502
▁ašč	-13.3504
▁spe	-13.3505
(	-13.3508
rib	-13.3508
šen	-13.3509
tafe	-13.351
▁zobe	-13.3512
ilan	-13.3519
▁chi	-13.352
▁Saka	-13.3522
▁erty	-13.3529
▁amj	-13.3532
▁ntn	-13.3533
ebec	-13.3534
▁ruck	-13.3537
▁fede	-13.3546
▁abab	-13.3554
▁Sul	-13.3556
▁eich	-13.356
hor	-13.356
blan	-13.3561
▁okrum	-13.3561
▁Ves	-13.3561
▁WH	-13.3564
rs	-13.3581
žel	-13.3582
▁OVA	-13.3582
▁rcis	-13.3588
davn	-13.3591
▁Pabl	-13.3592
▁anag	-13.3593
ond	-13.3594
▁ó	-13.3599
▁krak	-13.3603
▁Kvar	-13.361
▁uver	-13.361
eku	-13.3611
hra	-13.3613
▁yber	-13.3618
▁aće	-13.3619
mpe	-13.3627
▁Wha	-13.3627
▁ufi	-13.3638
▁Sen	-13.3642
▁EX	-13.3644
enje	-13.3648
▁rukv	-13.365
▁nil	-13.3654
mur	-13.3666
DF	-13.3667
▁ou	-13.3674
azi	-13.3678
▁tvom	-13.3679
▁Uršu	-13.3688
▁uža	-13.3693
▁Ac	-13.3695
▁kubi	-13.3696
itu	-13.37
▁Aka	-13.3702
▁elce	-13.3704
inj	-13.3709
▁ER	-13.3721
emij	-13.3722
▁escu	-13.3722
PV	-13.3727
▁litk	-13.3727
kot	-13.3732
los	-13.3737
zid	-13.3739
ss	-13.3749
▁′	-13.3756
▁ITA	-13.376
▁brus	-13.3761
nte	-13.3776
eve	-13.3778
asan	-13.3779
▁Wee	-13.3785
▁HE	-13.3787
nf	-13.3788
▁zelj	-13.3788
▁oua	-13.38
▁Mara	-13.3802
▁ejza	-13.3803
▁EZI	-13.3829
jaju	-13.3829
▁veom	-13.3835
▁Lap	-13.3848
▁ips	-13.3865
IM	-13.3868
aza	-13.3874
urg	-13.3883
▁Neil	-13.3886
▁vč	-13.3886
arin	-13.3893
▁(2	-13.3902
▁Dimi	-13.3904
▁sis	-13.3908
ota	-13.391
egus	-13.391
▁kač	-13.3917
▁Avan	-13.3921
okal	-13.3928
▁Coc	-13.393
▁olmes	-13.3932
▁4:0	-13.3932
▁Fett	-13.3936
TZ	-13.3938
▁Wiss	-13.3938
▁FER	-13.3941
DAR	-13.3945
ourg	-13.3949
▁CT	-13.3951
▁7,3	-13.3953
neg	-13.3957
▁zlj	-13.3961
▁čni	-13.3961
enh	-13.3966
nel	-13.3967
▁192	-13.3968
▁ehn	-13.3968
▁LAD	-13.3968
▁juri	-13.3975
rsko	-13.3978
▁work	-13.3991
▁cifr	-13.3996
jede	-13.3999
oda	-13.4001
ord	-13.4005
kub	-13.4006
▁CN	-13.4008
▁coun	-13.4024
▁ERT	-13.4027
▁yla	-13.4028
▁rex	-13.4028
▁Mot	-13.4032
vije	-13.4039
arc	-13.404
▁uth	-13.4041
votu	-13.4041
▁Žil	-13.4042
dst	-13.4043
▁krpa	-13.4048
OO	-13.4053
▁Ö	-13.4054
AI	-13.4066
▁ESP	-13.4068
▁iff	-13.4068
▁Tari	-13.4076
▁Mare	-13.4078
▁azze	-13.4079
Uz	-13.408
▁ozza	-13.4082
ysi	-13.4094
NP	-13.4101
▁adri	-13.4102
▁quo	-13.4107
▁Zaha	-13.4116
▁wh	-13.4122
▁amel	-13.4123
84	-13.4124
idi	-13.4125
▁Gam	-13.4135
▁asna	-13.4139
▁rute	-13.4152
▁sed	-13.4154
lež	-13.4158
ew	-13.4162
MPO	-13.4164
▁šver	-13.4165
▁bj	-13.4167
▁arbi	-13.4179
▁Ari	-13.4181
▁obbi	-13.419
ón	-13.4191
▁ful	-13.4193
ARS	-13.4195
▁Arno	-13.4197
▁raw	-13.4207
zdan	-13.4208
daju	-13.4214
▁Cast	-13.4217
98	-13.4228
▁štur	-13.4233
▁Dev	-13.4237
▁agr	-13.4243
nus	-13.4254
uru	-13.4255
WF	-13.4257
▁Afer	-13.4258
▁gema	-13.4261
▁agda	-13.4267
▁LAG	-13.4268
▁effr	-13.4269
CB	-13.427
JE	-13.4278
ASS	-13.4282
inz	-13.4283
▁Xia	-13.4284
68	-13.4285
▁Ande	-13.4295
▁agy	-13.4295
remn	-13.4296
▁difu	-13.4305
ovc	-13.4306
yes	-13.4313
▁SC	-13.4313
▁eram	-13.4317
▁TI	-13.4318
ukob	-13.4328
oto	-13.4331
▁opo	-13.4332
▁Peh	-13.4338
▁tigm	-13.4342
▁ijač	-13.4342
:4	-13.4344
▁core	-13.4345
▁čil	-13.4349
▁iče	-13.4351
29	-13.4351
▁haja	-13.4356
▁lege	-13.4359
▁otre	-13.4372
EPT	-13.4374
▁lab	-13.4376
▁roma	-13.4378
rovi	-13.4383
▁OR	-13.4392
ruš	-13.4392
AO	-13.4397
▁puk	-13.4397
evi	-13.4397
▁akuu	-13.4403
ebat	-13.4411
▁krađ	-13.4415
▁Rea	-13.4416
▁Duka	-13.4425
▁Šiš	-13.4427
▁Raš	-13.4428
▁iott	-13.4429
▁Mode	-13.4436
▁ria	-13.4442
▁Asa	-13.4443
spr	-13.4443
▁(5)	-13.4448
▁ous	-13.445
▁(3)	-13.445
▁Flego	-13.4454
▁Dec	-13.4456
▁Jam	-13.4458
uci	-13.4462
AP	-13.4462
▁eart	-13.4464
▁Tiger	-13.4467
▁Molve	-13.4473
inar	-13.4477
▁ize	-13.4478
▁šnja	-13.4484
▁oll	-13.4485
agan	-13.4487
▁Ita	-13.4487
▁alle	-13.4489
▁Mrle	-13.4497
▁Ded	-13.4503
ogo	-13.4505
cha	-13.4505
▁dema	-13.4505
rec	-13.4507
▁ašpa	-13.4508
▁Beg	-13.4512
Č	-13.4514
▁alve	-13.4517
zy	-13.4517
▁Oh	-13.4518
▁kopč	-13.453
▁rmad	-13.4532
▁limf	-13.4537
hel	-13.4541
▁Frid	-13.4542
prije	-13.4543
▁Fir	-13.455
▁Kobe	-13.4552
▁odal	-13.4556
▁žega	-13.4561
▁duc	-13.4562
▁Šer	-13.4573
JA	-13.4574
pec	-13.4574
ric	-13.4574
▁kokoš	-13.4587
▁Cop	-13.4589
ring	-13.459
▁ercy	-13.459
get	-13.459
▁rumb	-13.4593
▁TUP	-13.4594
▁ING	-13.4602
▁ogi	-13.4603
▁KD	-13.4606
▁Ross	-13.4609
▁štip	-13.4614
oth	-13.4614
▁jord	-13.4619
DRA	-13.4625
enz	-13.4627
▁PLI	-13.4628
▁išk	-13.4632
▁raun	-13.4635
▁ucks	-13.4646
▁uang	-13.4646
▁Zid	-13.4653
DR	-13.4663
▁epoh	-13.4667
▁jim	-13.4669
▁PL	-13.4672
▁Miha	-13.4673
▁oppi	-13.4673
▁Ax	-13.4678
tir	-13.4679
▁lovo	-13.4688
SKI	-13.469
ED	-13.469
▁šu	-13.4691
gla	-13.4697
tvar	-13.4701
lne	-13.4702
▁Roo	-13.4712
▁baku	-13.4715
IB	-13.4715
pub	-13.4719
▁epp	-13.4724
otor	-13.4728
mes	-13.4735
▁Piv	-13.474
▁ius	-13.4745
▁wig	-13.4747
uma	-13.4749
▁Diem	-13.4751
▁Žit	-13.4752
▁Aco	-13.4755
zen	-13.4764
▁OP	-13.4765
▁apne	-13.4779
31	-13.4785
▁MG	-13.4787
▁hand	-13.4794
vet	-13.4805
cker	-13.4814
PP	-13.4816
acig	-13.4823
jč	-13.4824
ier	-13.4828
▁Spo	-13.4829
FL	-13.483
▁tasa	-13.4835
uli	-13.4838
▁auff	-13.484
▁Yan	-13.4851
▁ECM	-13.4853
▁elika	-13.4858
▁Cl	-13.4862
▁Jok	-13.4865
GP	-13.4866
ych	-13.4873
▁onk	-13.4877
▁Sr	-13.4885
ode	-13.4885
▁urov	-13.4888
▁raba	-13.4892
apa	-13.4893
▁apsu	-13.4897
▁ENA	-13.4902
▁oby	-13.4907
ežu	-13.4917
▁duz	-13.4918
▁Šans	-13.4918
mot	-13.4924
▁šmi	-13.4924
▁lače	-13.4928
▁has	-13.4929
▁jetru	-13.4934
▁dlu	-13.4935
▁toke	-13.4937
▁ćur	-13.4939
ipe	-13.4942
▁PA	-13.4953
▁pore	-13.4956
adn	-13.4962
▁umar	-13.4965
UK	-13.4967
pus	-13.4981
®	-13.4993
▁hlo	-13.4996
▁ošč	-13.4998
▁Noel	-13.5001
ess	-13.5002
▁(4)	-13.5004
>	-13.501
▁Sala	-13.5012
▁enne	-13.5015
▁5:0	-13.5016
▁4:1	-13.5022
▁Zeli	-13.5023
▁Delta	-13.5029
▁KP	-13.5038
▁EB	-13.504
▁Geo	-13.5041
▁FS	-13.5044
▁98.	-13.505
▁andu	-13.5052
▁iefs	-13.5055
1%	-13.5059
▁giba	-13.5064
▁elfie	-13.5065
uro	-13.5066
▁cien	-13.5069
EST	-13.5084
▁rmade	-13.5088
ish	-13.509
wen	-13.5096
▁Aqua	-13.51
▁uge	-13.5102
▁RTV	-13.5102
ike	-13.5103
▁anđ	-13.5103
anaš	-13.5111
alo	-13.5112
nak	-13.5117
▁91.	-13.5118
rl	-13.5119
▁Enri	-13.5124
Tu	-13.5126
vati	-13.5128
epen	-13.513
▁vre	-13.5134
▁eši	-13.5143
▁pods	-13.5143
▁HG	-13.5155
▁ecan	-13.5156
jeti	-13.5159
CA	-13.5161
rob	-13.5164
LTP	-13.5173
▁Doge	-13.5173
tt	-13.5176
▁usn	-13.5176
▁icij	-13.5177
▁zav	-13.5178
▁dod	-13.5178
▁JU	-13.5179
▁rezi	-13.5179
imul	-13.5181
pal	-13.5184
▁bana	-13.5188
rend	-13.5192
▁nal	-13.5197
▁klek	-13.5202
▁uko	-13.5216
▁ida	-13.5216
▁2%	-13.5223
▁Mon	-13.5227
▁assy	-13.5229
▁ankt	-13.5235
▁Abdu	-13.5235
▁ENTA	-13.5242
▁Mind	-13.5245
▁dišu	-13.5249
▁unje	-13.5258
iger	-13.5265
fred	-13.5267
▁HD	-13.527
▁Armi	-13.527
▁acea	-13.5272
▁hemo	-13.5276
▁alib	-13.5281
▁Wein	-13.5283
lip	-13.53
▁aya	-13.5304
▁Cla	-13.5306
▁Bene	-13.5307
▁lair	-13.5314
▁BH	-13.5318
▁eak	-13.5318
▁litu	-13.532
▁NS	-13.5327
▁bob	-13.5328
▁Čap	-13.5331
▁Had	-13.5332
▁Dem	-13.5334
▁oke	-13.5334
▁hamb	-13.5339
▁Lev	-13.534
▁iday	-13.534
▁onga	-13.5348
HD	-13.5352
tp	-13.5361
ljn	-13.5364
▁Alpe	-13.5368
tako	-13.5372
▁hice	-13.5373
▁agram	-13.5374
▁Lab	-13.5375
▁affe	-13.5377
▁mix	-13.5382
ene	-13.5382
▁meka	-13.5386
4%	-13.5387
▁unč	-13.5398
▁IBA	-13.54
▁Saha	-13.5403
▁Mitr	-13.5406
udio	-13.5411
▁//	-13.5411
ern	-13.5416
7%	-13.5418
▁ilu	-13.5422
▁ovc	-13.5422
IQ	-13.5428
▁gger	-13.5429
▁OVE	-13.5436
▁ér	-13.5444
▁Mill	-13.5445
▁ezer	-13.5447
▁orzo	-13.5447
▁Vla	-13.5457
▁BRI	-13.546
48	-13.5462
anic	-13.5463
▁Elis	-13.5465
▁Mul	-13.5465
▁Hag	-13.547
▁adema	-13.547
▁uch	-13.5475
▁(1	-13.5488
CI	-13.5497
JU	-13.5501
▁fun	-13.5502
▁ltar	-13.5509
34	-13.5509
▁aliz	-13.5511
wan	-13.5513
án	-13.5516
▁argo	-13.5517
▁Rebe	-13.5521
▁SK	-13.5523
▁Cas	-13.5524
▁zeza	-13.554
AD	-13.5541
▁aly	-13.5541
AS	-13.5543
▁HUB	-13.5544
gin	-13.5552
▁asse	-13.556
▁hah	-13.5563
▁icy	-13.5566
enu	-13.5568
emi	-13.5571
▁Dire	-13.5576
▁PG	-13.5582
▁Base	-13.5585
▁ehem	-13.5586
▁hans	-13.559
▁avar	-13.5593
▁aph	-13.5593
▁aggi	-13.5596
▁hep	-13.5603
KOM	-13.5607
cima	-13.5617
▁SFR	-13.5617
▁ikrut	-13.5618
▁knu	-13.5625
▁EMS	-13.563
▁Pala	-13.563
ful	-13.5631
ovor	-13.5632
▁tafe	-13.5634
▁0:0	-13.5635
aht	-13.5636
▁will	-13.5637
oliko	-13.5639
▁ženje	-13.5646
▁ERC	-13.5649
▁ecco	-13.565
▁(4	-13.5651
▁1⁄2	-13.5653
▁luid	-13.5653
▁92.	-13.5655
ešto	-13.5657
▁asap	-13.5657
▁Savi	-13.5659
vne	-13.5661
▁MV	-13.5663
▁End	-13.5665
▁anel	-13.567
▁eyem	-13.567
dok	-13.5672
azak	-13.5674
▁XII	-13.5674
▁ango	-13.5679
▁haub	-13.568
▁Days	-13.569
ero	-13.569
▁DS	-13.5692
dsje	-13.5699
lec	-13.5701
▁anč	-13.5702
▁latou	-13.5703
▁beg	-13.5704
ame	-13.5708
▁NICE	-13.5709
▁arka	-13.5711
rid	-13.5712
▁umice	-13.5712
ept	-13.5712
mfor	-13.5713
▁hist	-13.5718
upn	-13.5721
Vi	-13.5723
▁ulga	-13.5724
▁1)	-13.5725
čadi	-13.5726
▁pres	-13.5728
▁OVO	-13.5733
▁tini	-13.5735
▁Ki	-13.5738
▁bour	-13.5742
46	-13.5742
▁TK	-13.5746
iffe	-13.5752
▁94	-13.5786
▁ende	-13.5789
▁lg	-13.5792
▁VN	-13.5793
▁rječ	-13.5795
86	-13.5799
euz	-13.5802
51	-13.5807
▁utap	-13.5809
▁eyn	-13.5814
▁etaž	-13.5817
rekao	-13.5818
▁žup	-13.5825
▁arey	-13.5829
▁Jar	-13.5829
▁IRA	-13.5855
▁ophe	-13.5856
▁DAN	-13.5856
▁raft	-13.5864
RF	-13.5865
▁opan	-13.5865
▁CM	-13.5873
▁ctiv	-13.5876
▁IJEK	-13.588
▁drma	-13.5882
gum	-13.5884
▁Yama	-13.589
oko	-13.5893
▁Šur	-13.5899
▁Kh	-13.5903
VB	-13.5905
▁hys	-13.5912
▁vež	-13.5916
▁kren	-13.592
ubli	-13.5931
bn	-13.5931
▁sch	-13.5933
AN	-13.5937
ider	-13.594
sv	-13.5951
▁kela	-13.5957
treba	-13.596
jp	-13.5963
agus	-13.5964
▁Dieg	-13.5969
▁Mü	-13.5974
bon	-13.5975
rh	-13.5977
▁ampe	-13.5978
▁aba	-13.5978
▁anže	-13.5979
-8	-13.5981
▁amy	-13.5985
▁Pari	-13.5986
yb	-13.5995
▁deto	-13.6001
gger	-13.6005
▁ipi	-13.6013
hou	-13.6013
▁užve	-13.6019
aut	-13.6021
▁Row	-13.6021
▁5%	-13.6023
▁5"	-13.6023
▁num	-13.6023
rac	-13.6023
▁ouise	-13.6024
EZ	-13.6026
rke	-13.6026
▁️	-13.6034
jt	-13.6035
▁Wie	-13.6039
▁apre	-13.6056
SE	-13.6065
ored	-13.607
▁SO	-13.6071
drš	-13.6071
▁Hama	-13.6077
▁Home	-13.6079
▁dili	-13.6088
▁odat	-13.6092
▁obl	-13.6097
fr	-13.6111
emb	-13.6118
▁Saar	-13.6118
▁uill	-13.6119
isa	-13.612
▁ejl	-13.6129
▁nha	-13.613
8,	-13.6136
▁itle	-13.6137
▁Arbu	-13.6142
asa	-13.6142
▁ipan	-13.6147
▁reat	-13.6151
zam	-13.6152
ungl	-13.6155
onos	-13.6157
▁Dum	-13.6162
AM	-13.6165
▁hemi	-13.6165
MC	-13.6167
▁uir	-13.6169
▁Doro	-13.6169
▁eath	-13.617
ŽA	-13.6176
49	-13.6183
▁žud	-13.6184
nen	-13.6189
▁Lan	-13.6193
TI	-13.6199
▁KON	-13.6205
×	-13.6206
▁POL	-13.6209
još	-13.6212
▁App	-13.6212
▁Dia	-13.6214
osa	-13.6215
▁FILM	-13.6217
▁wald	-13.6221
▁urf	-13.6222
▁RAD	-13.6228
▁orne	-13.6229
tug	-13.6232
▁PC	-13.6233
▁ayer	-13.6235
mas	-13.6236
▁5:1	-13.6237
▁jil	-13.624
▁wed	-13.6241
▁MI	-13.6251
▁tupi	-13.6254
▁94.	-13.6254
CRO	-13.6259
▁Arba	-13.6267
▁idž	-13.6268
TA	-13.6268
▁vill	-13.6269
▁oeln	-13.627
oë	-13.6272
▁bnb	-13.6275
▁ddie	-13.628
▁eha	-13.6297
▁Čel	-13.6303
▁augh	-13.6307
▁mic	-13.631
▁fur	-13.6312
▁HP	-13.6314
▁komi	-13.6317
▁Hras	-13.6318
▁sit	-13.632
▁onroe	-13.6321
▁urfa	-13.6331
▁njeni	-13.6332
▁Čal	-13.6336
pov	-13.6338
▁SA	-13.6339
7,	-13.635
▁ezn	-13.6356
▁vne	-13.6366
▁ITU	-13.6371
EU	-13.6371
38	-13.6372
▁Got	-13.6372
88	-13.6372
▁pć	-13.6375
▁odm	-13.6376
▁4-	-13.6376
▁Pac	-13.6381
▁Bro	-13.6382
▁DO	-13.6383
▁šeće	-13.6385
▁Žd	-13.6386
iden	-13.639
▁ergu	-13.6403
jat	-13.6405
▁ogoz	-13.6406
ough	-13.6406
▁QR	-13.6414
▁DPA	-13.6415
gog	-13.6417
čiti	-13.6419
▁lay	-13.6422
ĆE	-13.6425
lton	-13.6432
▁SIP	-13.6436
▁ubec	-13.6438
▁STAR	-13.6449
▁kož	-13.6452
▁artr	-13.6455
▁Šap	-13.6456
ažen	-13.6456
ORAK	-13.6458
▁Li	-13.6463
▁enig	-13.6467
bet	-13.6472
juds	-13.6473
dva	-13.6475
EMA	-13.6476
▁hap	-13.6478
▁loži	-13.648
▁Jere	-13.6488
toj	-13.6494
IG	-13.6509
▁INT	-13.6514
▁lava	-13.6519
▁arjak	-13.6519
▁AS	-13.653
▁ojen	-13.6534
▁izda	-13.6539
▁olaz	-13.6544
▁maza	-13.6546
alah	-13.6551
▁Ay	-13.6552
▁deć	-13.6554
▁chai	-13.6564
km	-13.6564
▁rumm	-13.6569
▁duk	-13.6578
▁Greg	-13.6582
SC	-13.6586
▁Či	-13.6591
▁Mond	-13.6597
▁hema	-13.6598
vic	-13.6614
▁piel	-13.6616
▁Kik	-13.6619
▁ginj	-13.6625
RR	-13.6627
kač	-13.6628
▁kej	-13.6632
▁lanc	-13.6637
▁cho	-13.664
▁elfi	-13.6642
rel	-13.6644
zbog	-13.6649
▁lind	-13.6656
▁Wat	-13.6656
▁Alba	-13.6671
hid	-13.6671
▁GS	-13.6679
BZ	-13.6679
▁Güt	-13.6682
▁Cen	-13.6684
IO	-13.6685
▁ochu	-13.6696
▁lash	-13.6704
FRA	-13.6706
FIL	-13.6706
▁FT	-13.6708
▁rome	-13.6717
▁odo	-13.6718
▁Arne	-13.6723
▁wer	-13.6732
iro	-13.6732
RA	-13.6733
▁Đin	-13.6748
edi	-13.6752
▁Rais	-13.6755
osi	-13.6757
cut	-13.676
▁žiča	-13.6787
laze	-13.6791
▁Gig	-13.6793
▁rey	-13.6793
uni	-13.6794
▁tapa	-13.6794
luš	-13.6795
▁Epi	-13.6797
▁Hud	-13.6804
▁wc	-13.6819
▁sh	-13.6824
ašl	-13.6825
▁fig	-13.6827
▁ral	-13.6833
▁alaž	-13.6833
raju	-13.6837
▁long	-13.6838
▁ES	-13.6838
▁bedr	-13.6839
▁VA	-13.6844
▁jeg	-13.685
▁air	-13.6851
▁Sm	-13.6867
▁almo	-13.6867
aze	-13.6867
abl	-13.6868
►	-13.6873
▁oche	-13.6876
▁HRM	-13.6886
ung	-13.689
▁dla	-13.689
▁olve	-13.6894
▁1:3	-13.6899
▁itis	-13.6901
▁Kuba	-13.6902
▁šif	-13.6913
▁einz	-13.692
78	-13.6923
▁bur	-13.6925
▁izu	-13.6926
▁ELIK	-13.6928
▁1:	-13.6929
▁DUBR	-13.693
▁urdi	-13.6937
▁DI	-13.6937
▁eptun	-13.6937
▁krp	-13.6939
▁Ćiri	-13.6941
▁seb	-13.6947
▁Die	-13.6951
amp	-13.6956
yd	-13.6957
way	-13.6959
▁azz	-13.6962
ijal	-13.6963
▁Hop	-13.6969
▁zan	-13.6971
▁razu	-13.6974
▁utu	-13.6977
▁tavi	-13.6978
▁ombo	-13.6982
gram	-13.6989
▁EZ	-13.6993
▁sal	-13.6998
▁torm	-13.7005
▁ambr	-13.7006
šlo	-13.7012
nda	-13.7014
▁aves	-13.7016
▁atv	-13.7016
▁Far	-13.7016
▁hon	-13.7017
lji	-13.7025
▁Tick	-13.7029
▁Ele	-13.7033
resc	-13.7042
▁elis	-13.7043
▁PK	-13.7045
▁anne	-13.7049
▁IS	-13.7057
TEF	-13.7058
▁á	-13.7059
️	-13.706
cch	-13.7067
▁jakne	-13.7069
▁fito	-13.7071
▁2:	-13.7073
FK	-13.7074
▁baum	-13.7078
▁Sat	-13.7089
▁3%	-13.7101
▁asu	-13.7103
▁ROB	-13.7103
▁riff	-13.7119
▁IM	-13.7123
▁Kava	-13.7141
RNA	-13.7144
▁XV	-13.7145
▁Uber	-13.7146
jo	-13.715
6)	-13.7151
▁škri	-13.7155
mič	-13.7157
AK	-13.7158
rkel	-13.7162
▁pane	-13.7164
▁Sare	-13.7165
asil	-13.7181
upan	-13.7182
ley	-13.7182
▁It	-13.7184
▁ajči	-13.7184
▁olic	-13.7206
UM	-13.7213
his	-13.7214
▁desi	-13.7219
▁Yeo	-13.7234
▁Hari	-13.7241
▁ilv	-13.7254
▁ASK	-13.7259
▁kif	-13.726
▁Cav	-13.7281
▁anz	-13.7286
▁eas	-13.7295
▁KC	-13.7296
rich	-13.7297
▁muć	-13.7297
imun	-13.7297
▁enkl	-13.7307
▁É	-13.7307
▁és	-13.7311
▁inne	-13.7315
▁marš	-13.7323
aši	-13.7324
LAS	-13.7327
▁odil	-13.7334
▁alis	-13.7337
tva	-13.7339
76	-13.7341
čaj	-13.7342
▁Pace	-13.7344
▁Thie	-13.7357
lob	-13.7367
▁tars	-13.7374
▁ges	-13.7377
AC	-13.738
▁ZG	-13.7383
▁roy	-13.7385
MSC	-13.7385
može	-13.7388
ins	-13.7398
▁arde	-13.7401
hen	-13.7415
orld	-13.7416
ned	-13.7418
▁adež	-13.7432
epo	-13.7433
▁5:	-13.7436
▁ye	-13.7437
▁Zamet	-13.7445
▁tes	-13.7446
▁amni	-13.7446
▁ö	-13.7453
bilo	-13.7455
EK	-13.7456
dvi	-13.7456
▁ešer	-13.7457
▁Rek	-13.7458
odi	-13.746
▁anth	-13.7463
▁7%	-13.7464
▁Afr	-13.7469
▁apaj	-13.7473
rađ	-13.7477
▁žice	-13.748
ADA	-13.7485
▁eged	-13.7486
▁haš	-13.749
▁Mađ	-13.7499
▁IKA	-13.7506
KC	-13.7508
▁unče	-13.7515
laži	-13.7519
▁hay	-13.7521
ole	-13.7521
čke	-13.7524
▁žiro	-13.7524
▁ocu	-13.7524
IF	-13.7525
▁digr	-13.7535
▁glad	-13.7537
▁Gum	-13.7538
ega	-13.7539
▁PIK	-13.756
▁atto	-13.7564
▁ENT	-13.7569
▁oward	-13.757
▁pip	-13.7576
cus	-13.7594
▁öt	-13.7595
▁ONČAR	-13.7596
▁AM	-13.7596
▁Yahy	-13.7597
▁zeged	-13.7598
▁Field	-13.7598
▁(7)	-13.7598
▁KU	-13.7598
▁(1)	-13.7598
▁ewa	-13.7599
▁fetiš	-13.7599
▁ROM	-13.7602
▁lle	-13.7603
uv	-13.7604
▁orjan	-13.7608
ZA	-13.7612
▁OPEC	-13.7614
▁ürge	-13.7617
▁revi	-13.7618
▁HKS	-13.7619
▁Kai	-13.7643
emot	-13.7648
▁107	-13.7649
▁25%	-13.7657
SI	-13.7662
▁Čileu	-13.767
▁Bay	-13.7673
▁moti	-13.7674
LA	-13.7681
7.	-13.7682
▁eau	-13.7684
▁REU	-13.7685
▁nota	-13.7687
44	-13.7692
▁snu	-13.7697
bilj	-13.7697
EX	-13.77
lom	-13.7703
▁tab	-13.7711
▁RA	-13.7719
ijer	-13.7725
dus	-13.7727
▁Must	-13.7728
:5	-13.7729
▁Grd	-13.7731
▁verd	-13.7737
▁3)	-13.7738
▁agh	-13.774
▁kios	-13.7741
í	-13.7744
ozi	-13.7746
▁Cv	-13.7747
oće	-13.7748
rske	-13.7755
▁Kis	-13.7757
▁arhat	-13.7759
▁SPC	-13.7766
▁Cou	-13.7767
▁loge	-13.7772
rif	-13.7784
▁elas	-13.7788
▁ughe	-13.7788
▁Gün	-13.7795
rea	-13.7797
▁eksh	-13.7798
▁likt	-13.7803
▁kiki	-13.7812
pas	-13.7813
ASK	-13.7817
▁oung	-13.782
▁Ruš	-13.7823
▁iffe	-13.7823
е	-13.7828
▁rno	-13.783
▁diš	-13.783
ube	-13.7839
▁Zen	-13.7841
▁oine	-13.7851
▁angan	-13.7855
▁iama	-13.7863
lio	-13.7878
nama	-13.7879
PN	-13.788
▁VAN	-13.7885
moć	-13.7888
▁inč	-13.7888
▁Daj	-13.7893
▁zrn	-13.7893
▁gusk	-13.7897
sat	-13.7901
▁vič	-13.7902
sper	-13.7903
▁HA	-13.7909
▁kuc	-13.7909
isin	-13.7914
▁aban	-13.7914
▁adair	-13.7917
rmin	-13.7927
▁sij	-13.7928
▁hav	-13.7929
▁odra	-13.7929
▁abo	-13.7931
39	-13.7938
IK	-13.7938
tac	-13.7942
▁holo	-13.7943
▁iril	-13.7943
▁Emre	-13.7961
€	-13.7963
▁osk	-13.7963
▁Mag	-13.7963
▁quee	-13.7964
SIS	-13.7964
▁orpu	-13.7969
tif	-13.7971
▁embe	-13.7976
IN	-13.7987
▁Nat	-13.7995
▁peda	-13.7998
atil	-13.8005
▁kuži	-13.8006
▁komo	-13.8013
▁Amar	-13.802
greb	-13.8023
▁vise	-13.8029
igar	-13.8032
EN	-13.8034
▁rm	-13.8034
▁may	-13.8034
▁ezzi	-13.8038
▁buku	-13.8043
dovi	-13.8046
▁EMA	-13.8052
91	-13.8056
jene	-13.8058
▁ajed	-13.8063
mješ	-13.8067
guž	-13.8075
▁opre	-13.8084
uch	-13.8087
▁Moha	-13.8088
▁ođe	-13.8102
▁muh	-13.8104
▁Laye	-13.8112
▁ewar	-13.812
▁ORT	-13.8121
epin	-13.8126
▁rajc	-13.8129
zra	-13.8143
ück	-13.8144
▁ranja	-13.8146
day	-13.815
▁defa	-13.816
▁ađare	-13.816
▁ugan	-13.8163
▁rizz	-13.8163
▁auru	-13.8169
eler	-13.8173
▁eatl	-13.8174
▁good	-13.818
nce	-13.819
▁rgi	-13.8197
edu	-13.8197
▁olor	-13.8197
div	-13.8199
KD	-13.8202
▁latu	-13.8205
▁AMA	-13.8205
▁abaj	-13.8206
▁sija	-13.8208
▁assi	-13.8211
▁Orb	-13.8211
▁repa	-13.8214
voje	-13.8232
anja	-13.8233
▁ilaž	-13.8235
▁SAF	-13.8237
bast	-13.8239
SD	-13.8244
▁Id	-13.8245
▁atil	-13.8245
▁ynt	-13.8246
▁NIS	-13.8247
ian	-13.8254
▁apin	-13.8255
▁Sir	-13.8258
▁agel	-13.8263
▁maker	-13.8273
▁law	-13.8274
ave	-13.8281
iler	-13.8281
▁ask	-13.8284
onal	-13.8285
▁HRV	-13.8286
▁Kok	-13.8294
▁rpn	-13.8295
▁Tišm	-13.8296
99	-13.8298
nika	-13.8299
▁žic	-13.83
▁gus	-13.83
ros	-13.8306
ON	-13.8307
32	-13.8317
▁Pao	-13.8318
▁oos	-13.8323
tle	-13.8325
▁ups	-13.8325
▁AZ	-13.8327
▁alem	-13.833
AFT	-13.8332
remi	-13.8332
▁VB	-13.8333
▁užan	-13.8342
▁cas	-13.8343
▁Kana	-13.8343
▁Hani	-13.8346
▁(6	-13.835
▁1%	-13.8354
▁ONE	-13.8355
ould	-13.8355
▁̋	-13.8356
hl	-13.8363
▁çois	-13.8364
▁elon	-13.8366
▁room	-13.8367
▁oph	-13.8369
▁CEO	-13.8369
▁VIZ	-13.8371
▁4:2	-13.8371
▁algi	-13.8371
▁gorja	-13.8376
▁eog	-13.8377
▁iraj	-13.8378
VC	-13.838
▁Neuer	-13.8388
▁haq	-13.8388
ige	-13.8398
AMAG	-13.8401
▁wic	-13.8404
eura	-13.8404
▁hun	-13.8406
▁IO	-13.8407
enik	-13.8408
▁Wy	-13.8409
▁FIS	-13.8409
▁emal	-13.8412
▁Bare	-13.8413
▁ür	-13.8417
▁snos	-13.8421
▁diff	-13.8421
anz	-13.8426
pot	-13.8429
▁Cook	-13.8436
SF	-13.844
BU	-13.8446
uše	-13.8449
▁Lui	-13.8449
teta	-13.8453
▁Tuzl	-13.8457
69	-13.8457
dul	-13.8464
▁DOBR	-13.8474
▁Huss	-13.8478
▁vey	-13.848
rby	-13.848
▁AZO	-13.8486
IMA	-13.8487
▁čuh	-13.8487
▁Look	-13.8492
rekt	-13.8494
▁iot	-13.8498
UO	-13.85
▁carp	-13.8505
▁XX	-13.8506
evas	-13.851
ajed	-13.8513
KE	-13.8515
▁Koko	-13.8521
▁šahu	-13.8527
▁urti	-13.8529
▁azo	-13.8537
kli	-13.8538
ubr	-13.854
pra	-13.8546
FAS	-13.8547
▁Si	-13.8551
La	-13.8552
jedo	-13.8557
▁who	-13.8569
lt	-13.8575
▁Elf	-13.858
▁Kam	-13.8587
▁itz	-13.8593
▁ašir	-13.8597
UN	-13.8603
ita	-13.8606
▁Silb	-13.861
ači	-13.8611
▁ENC	-13.8614
▁Xabi	-13.8617
stran	-13.8619
▁urza	-13.8631
▁ambo	-13.8636
▁3/	-13.8637
ream	-13.8638
alma	-13.8639
icij	-13.864
▁ahr	-13.8645
▁REM	-13.865
▁udy	-13.8651
▁Ek	-13.8652
ppel	-13.8654
▁BIA	-13.8657
▁lerc	-13.8667
▁ahur	-13.8668
jedan	-13.8671
rz	-13.8675
▁ICE	-13.868
▁awks	-13.8681
▁Fifi	-13.8686
▁irgi	-13.8689
▁daš	-13.8693
iss	-13.8697
▁Paj	-13.8706
ajp	-13.8707
mali	-13.8717
▁sj	-13.872
▁wor	-13.8722
Wh	-13.8725
▁kopi	-13.8726
▁miss	-13.8729
89	-13.8729
OLA	-13.8731
▁HC	-13.8732
▁ifta	-13.8734
▁gad	-13.8736
▁bahc	-13.8738
We	-13.874
mlj	-13.8742
so	-13.8746
▁nomn	-13.8754
▁ouss	-13.8762
vnj	-13.8765
▁thy	-13.8772
dana	-13.8779
▁oshi	-13.8781
MD	-13.8783
▁Alai	-13.8784
▁rola	-13.8789
▁addy	-13.879
▁EI	-13.8792
WS	-13.8796
4,	-13.8801
RT	-13.8803
▁Ott	-13.8809
▁blje	-13.8809
▁Gir	-13.8815
isan	-13.8822
sip	-13.8822
OI	-13.8826
▁dm	-13.8828
▁furi	-13.8829
▁raus	-13.8836
▁pig	-13.8841
▁hee	-13.8847
mjes	-13.8853
▁adz	-13.8863
jni	-13.8865
▁asm	-13.8867
IJE	-13.887
žav	-13.8873
OGE	-13.8874
▁onder	-13.8875
▁arif	-13.8877
rotiv	-13.8885
mis	-13.8894
6.	-13.8895
▁Ćel	-13.8901
▁Foun	-13.8902
▁4"	-13.8904
▁Vuc	-13.8908
▁trap	-13.8915
▁jaž	-13.892
rve	-13.8923
age	-13.8925
▁itta	-13.8931
ALA	-13.8939
MG	-13.8948
UDI	-13.8948
▁alim	-13.8949
▁ukci	-13.8958
▁dj	-13.8958
▁got	-13.8964
▁anya	-13.8969
▁have	-13.8978
▁ayle	-13.8989
▁edik	-13.8989
▁izza	-13.8996
▁Tip	-13.9002
▁cha	-13.9015
▁Meda	-13.9016
▁Ul	-13.9018
gh	-13.902
▁urbi	-13.902
▁avel	-13.9021
ão	-13.9021
▁OF	-13.9022
▁CJEN	-13.9025
▁obij	-13.9027
▁ange	-13.9036
▁AV	-13.9039
wer	-13.904
▁mota	-13.904
▁anst	-13.9041
▁ST	-13.9043
rah	-13.9043
TM	-13.9046
▁epsi	-13.9056
hrva	-13.9057
aste	-13.9061
znos	-13.9066
▁enst	-13.9071
▁IE	-13.9075
▁ikvi	-13.9075
▁ean	-13.9078
▁tuci	-13.9078
▁resa	-13.9079
▁iffa	-13.9082
dnja	-13.9086
▁udima	-13.9089
▁azama	-13.9094
▁gaf	-13.9104
▁IX	-13.9106
rtu	-13.911
▁Dela	-13.9112
▁uppi	-13.9115
▁Just	-13.9117
▁jašm	-13.9118
▁olk	-13.9127
ance	-13.9132
▁VRO	-13.9133
LK	-13.9134
▁ngu	-13.9139
uer	-13.9146
▁melo	-13.9151
AVA	-13.9156
posl	-13.9165
▁max	-13.9167
▁abe	-13.9171
veli	-13.9175
lok	-13.9184
▁azni	-13.9187
▁rtur	-13.9188
●	-13.919
grač	-13.919
▁ščez	-13.9192
▁(8)	-13.9194
▁timu	-13.9195
URA	-13.9195
ETA	-13.9198
▁Guy	-13.92
▁7-5	-13.9201
NU	-13.9201
▁dejt	-13.9204
▁arnes	-13.9206
▁PD	-13.9208
hil	-13.9218
▁šjor	-13.9219
▁rapč	-13.922
BE	-13.9224
▁lecht	-13.9224
aker	-13.9225
▁dli	-13.9227
azen	-13.9229
izbor	-13.9229
▁ols	-13.9231
▁aldo	-13.9237
▁Agui	-13.9239
▁zjap	-13.9243
kri	-13.9248
▁oui	-13.9249
judi	-13.9255
▁koči	-13.9255
▁Milo	-13.9256
▁ORČ	-13.9265
▁Muć	-13.9272
▁abad	-13.9273
▁2.0	-13.9273
▁urtis	-13.9279
PA	-13.928
▁tori	-13.9287
gled	-13.929
▁anyo	-13.9291
tig	-13.9294
▁pose	-13.9298
▁DR	-13.93
▁earn	-13.9304
CK	-13.9307
▁Ču	-13.9309
vrt	-13.9313
dur	-13.9314
▁MLS	-13.9315
pon	-13.9316
▁aur	-13.9318
▁REĆ	-13.9319
OP	-13.9323
▁(3	-13.9324
LB	-13.9327
broj	-13.9339
▁idak	-13.9347
daj	-13.9348
▁vadi	-13.9349
▁Dot	-13.9351
▁Was	-13.9352
čij	-13.9356
▁lili	-13.9371
▁rops	-13.9374
▁erma	-13.9381
GB	-13.9389
▁111	-13.939
OŠ	-13.9391
radn	-13.9394
▁faun	-13.9397
-9	-13.9399
MI	-13.9403
hij	-13.9413
PF	-13.9418
▁kupe	-13.9421
▁Puma	-13.9429
EF	-13.9433
sè	-13.9437
▁apra	-13.944
EG	-13.9449
▁ené	-13.9453
▁NC	-13.9457
svak	-13.9469
▁petr	-13.947
▁laht	-13.9475
OC	-13.9477
cje	-13.9482
IC	-13.9485
▁algo	-13.9486
▁RF	-13.949
tolj	-13.9491
jne	-13.9493
išl	-13.9496
▁wis	-13.95
rp	-13.9501
▁Low	-13.9507
▁ecka	-13.9509
utn	-13.9519
▁allo	-13.952
mak	-13.9523
ssy	-13.9524
PB	-13.9524
▁Kip	-13.9528
uric	-13.9536
IJEK	-13.954
81	-13.954
▁ecke	-13.9541
▁undus	-13.9541
rež	-13.9541
mul	-13.955
šal	-13.955
▁AFC	-13.9553
UZ	-13.9557
▁orfi	-13.9564
▁NIK	-13.9567
▁almi	-13.9568
▁RIT	-13.9569
▁Hir	-13.9569
▁hire	-13.9577
▁Kei	-13.958
▁umba	-13.9582
▁aguš	-13.9584
▁nute	-13.9584
▁lk	-13.9585
▁üle	-13.9587
▁lace	-13.9589
▁EL	-13.9595
ump	-13.96
▁rong	-13.9606
dig	-13.9616
▁teo	-13.962
▁čepa	-13.9621
PU	-13.963
isti	-13.9632
▁astm	-13.9636
▁okosi	-13.9637
maj	-13.9639
▁Kuka	-13.964
▁rova	-13.9641
▁iliš	-13.9644
nice	-13.9648
▁gušć	-13.9648
dnik	-13.9648
dstr	-13.9651
▁šeć	-13.9652
My	-13.9656
▁Atta	-13.9657
▁rapi	-13.966
▁lahu	-13.9678
ckl	-13.9687
▁ranak	-13.9687
beck	-13.969
▁ordo	-13.9697
▁olvo	-13.97
▁ahri	-13.9702
lni	-13.9709
▁unch	-13.9713
▁apul	-13.9715
AST	-13.9718
▁Kia	-13.9724
čio	-13.9727
fil	-13.9733
yll	-13.9738
42	-13.9739
soc	-13.9742
▁šib	-13.9743
pez	-13.9744
▁INAM	-13.9746
NJE	-13.975
▁Dika	-13.975
61	-13.9752
BM	-13.9761
MT	-13.9773
IS	-13.9788
jom	-13.9789
▁THE	-13.9792
kiv	-13.9794
▁ibn	-13.9796
▁CER	-13.9808
▁tošta	-13.9812
▁ILA	-13.9814
▁hopu	-13.9819
▁arad	-13.9819
67	-13.9821
▁usti	-13.9824
▁Komo	-13.9831
▁litr	-13.9839
eci	-13.9845
bli	-13.9845
ces	-13.9845
▁zbje	-13.9849
radi	-13.9852
upa	-13.9854
afe	-13.9869
▁oya	-13.9869
acu	-13.987
ool	-13.9876
▁boom	-13.9877
▁EST	-13.9884
▁ennes	-13.9885
▁Đure	-13.9891
orm	-13.9893
▁agbi	-13.9893
▁Ekv	-13.9901
KO	-13.9905
▁MSC	-13.9908
▁onto	-13.9909
▁azg	-13.991
96	-13.9915
▁Gog	-13.9917
▁wim	-13.9931
AMP	-13.9937
▁Teo	-13.9945
▁Sar	-13.9947
pravo	-13.9948
▁Akt	-13.9949
▁arijo	-13.9958
kas	-13.9965
MER	-13.9981
▁Baki	-13.9981
▁Glen	-13.9985
▁dona	-13.9987
▁eced	-13.9992
APP	-14.0002
▁ramb	-14.0003
ljudi	-14.0003
avan	-14.0006
▁goju	-14.0007
IZ	-14.0014
▁8%	-14.0015
▁ante	-14.0018
ejt	-14.0021
▁ažan	-14.0027
gand	-14.0033
▁HAP	-14.0044
znat	-14.0044
▁ongo	-14.0047
94	-14.005
▁Xin	-14.0059
▁anici	-14.0062
ller	-14.0064
iza	-14.0064
▁Rap	-14.0064
HL	-14.0077
▁EKO	-14.0081
▁Wei	-14.0089
IJET	-14.0091
▁fale	-14.0092
▁elhi	-14.0094
▁eoni	-14.0094
▁Zeb	-14.0094
amb	-14.0098
▁kuž	-14.0099
▁arš	-14.0106
▁legn	-14.0107
▁clips	-14.0108
▁AUT	-14.0115
▁EURU	-14.0116
▁PAC	-14.0119
▁akn	-14.012
▁OIE	-14.0121
▁ibr	-14.0124
▁Rosa	-14.0127
▁Hy	-14.0131
▁urp	-14.0131
▁0:2	-14.0131
▁Lin	-14.0132
▁eppe	-14.0132
dnji	-14.0134
▁NFP	-14.0139
RD	-14.0141
▁irm	-14.0145
▁OVAC	-14.0155
dim	-14.0158
▁Đap	-14.0159
dem	-14.0159
▁acka	-14.0164
▁138	-14.017
uze	-14.0173
▁gd	-14.0173
56	-14.0175
▁OM	-14.018
85	-14.0196
▁BB	-14.0198
▁IP	-14.0201
kval	-14.0208
▁avij	-14.0211
▁oce	-14.0218
▁Krk	-14.0218
▁RAS	-14.0229
eče	-14.0233
▁edni	-14.0239
edur	-14.0241
dol	-14.0244
▁dgar	-14.0247
▁yru	-14.0247
▁AŽ	-14.0248
▁Kore	-14.025
ula	-14.0251
mund	-14.0256
▁BAC	-14.0256
▁TS	-14.0259
▁kozm	-14.0264
▁ŠEM	-14.0265
▁GDP	-14.0265
AVO	-14.0272
66	-14.0272
Euro	-14.0274
▁my	-14.0274
Ni	-14.0284
▁seda	-14.0285
Ta	-14.0286
RB	-14.029
ea	-14.0291
▁yres	-14.0293
Ex	-14.0293
▁cus	-14.0299
gdje	-14.03
▁Ark	-14.0304
gle	-14.0311
zgra	-14.0311
▁+3	-14.0316
▁ISS	-14.0316
CD	-14.0325
ë	-14.0329
EE	-14.0332
▁harm	-14.0337
ela	-14.0337
▁arod	-14.0338
▁ENI	-14.0343
▁teh	-14.0344
▁à	-14.0352
▁gay	-14.0354
▁addi	-14.0357
ača	-14.037
▁olle	-14.0374
▁goke	-14.0376
▁SF	-14.0381
nč	-14.0382
KU	-14.0384
▁cors	-14.0386
▁fuz	-14.0388
▁Če	-14.0395
°	-14.04
▁elle	-14.0406
▁Fast	-14.0406
▁taju	-14.041
JAR	-14.043
▁elmu	-14.043
rmal	-14.0432
▁amps	-14.0435
▁žir	-14.0435
▁Šant	-14.0437
gy	-14.0441
▁yste	-14.0445
▁pive	-14.0446
▁app	-14.0446
HF	-14.0459
▁Saul	-14.046
▁orr	-14.0461
▁riji	-14.0462
▁bata	-14.0465
ONA	-14.0466
UC	-14.0472
ye	-14.0472
rast	-14.0473
▁ugu	-14.0473
▁Book	-14.0473
RID	-14.0478
▁Peg	-14.0481
▁tamb	-14.0481
▁mela	-14.0485
tuf	-14.0487
čita	-14.0488
bat	-14.0492
▁Ors	-14.0495
IKA	-14.05
▁ripp	-14.0503
▁IVA	-14.0504
▁Clea	-14.0512
▁27,	-14.0514
▁rise	-14.0529
mad	-14.0543
▁HU	-14.0552
▁Đul	-14.0553
onov	-14.0555
▁Fru	-14.0562
▁neš	-14.0567
HA	-14.0572
DIN	-14.058
aps	-14.059
▁Fit	-14.0592
nio	-14.0592
▁atte	-14.06
voz	-14.0602
▁PLO	-14.0605
ARA	-14.0609
▁uart	-14.061
▁GER	-14.0618
▁Vega	-14.0618
NB	-14.0619
▁God	-14.0621
iper	-14.0631
com	-14.0632
▁šuš	-14.0632
▁JD	-14.0639
▁MK	-14.0644
dah	-14.0648
VR	-14.0655
▁yn	-14.0657
LIK	-14.0659
▁Eda	-14.0661
▁pt	-14.0661
▁erto	-14.0662
▁Sá	-14.0663
▁caff	-14.0666
CE	-14.0669
▁Čaj	-14.0674
▁ramo	-14.0678
▁Fan	-14.0678
▁ATI	-14.0679
▁Dežu	-14.068
ONG	-14.0681
▁ady	-14.0682
▁öv	-14.0684
▁toli	-14.0686
plan	-14.0689
zira	-14.069
sid	-14.0692
▁fag	-14.0696
gre	-14.0698
▁ulsi	-14.0698
▁žami	-14.0706
▁zlu	-14.0727
tner	-14.073
92	-14.0731
▁Eas	-14.0732
PC	-14.0738
kuy	-14.0742
▁(8	-14.0748
▁FF	-14.0748
▁NZ	-14.0758
▁anga	-14.0758
ena	-14.076
▁HDL	-14.0764
▁rew	-14.0771
▁resh	-14.0772
▁ön	-14.0775
▁šiv	-14.0777
ICE	-14.0782
taž	-14.0787
ČKI	-14.079
aje	-14.0794
inf	-14.0796
fa	-14.0797
▁STO	-14.0798
▁alti	-14.0802
▁EF	-14.0806
▁beš	-14.081
▁Tiš	-14.0815
glav	-14.0818
OT	-14.0819
▁publ	-14.0831
tl	-14.0832
▁uklj	-14.0832
▁MS	-14.0835
ašk	-14.0836
ojom	-14.0849
▁olcu	-14.085
▁zemp	-14.085
IPA	-14.0853
▁erem	-14.0855
▁+4	-14.0869
LJA	-14.0874
▁azmi	-14.0878
▁AF	-14.0879
ence	-14.0888
▁jabu	-14.0889
▁Arbo	-14.0894
▁7)	-14.0896
RI	-14.0901
kak	-14.0908
ader	-14.0909
▁Koke	-14.0917
▁June	-14.0918
▁terc	-14.092
ity	-14.0921
▁eid	-14.0928
▁šahi	-14.0928
ILI	-14.093
▁alco	-14.093
▁hopa	-14.0935
▁audi	-14.0942
ček	-14.0944
▁rko	-14.0957
▁elid	-14.0974
▁(5	-14.0979
ift	-14.0982
over	-14.0982
AMA	-14.1008
▁ulf	-14.1009
riž	-14.1019
ME	-14.1028
jedno	-14.103
IRA	-14.1033
NJA	-14.1043
auto	-14.1047
▁idje	-14.105
▁ENE	-14.1052
▁rack	-14.1052
yl	-14.1056
▁edž	-14.1057
4.	-14.1066
43	-14.1068
oram	-14.1069
▁ä	-14.1083
▁ü	-14.109
▁IJA	-14.1092
▁Dee	-14.1097
▁Adi	-14.1098
ð	-14.1099
▁🟨	-14.1099
isu	-14.1101
▁roa	-14.1101
▁Kub	-14.1102
una	-14.1103
▁urk	-14.1103
▁Wahl	-14.1108
▁gips	-14.111
▁AMG	-14.1113
▁Uniq	-14.1115
▁doša	-14.1115
▁ecc	-14.1115
▁hem	-14.1116
▁BUZ	-14.1116
▁6%	-14.1122
▁6:1	-14.1126
▁Yale	-14.1126
dran	-14.1128
▁bum	-14.1131
▁rasak	-14.1132
▁kara	-14.1138
▁hous	-14.1139
WD	-14.114
▁anču	-14.1145
kuj	-14.1145
▁eny	-14.115
uto	-14.1151
ART	-14.1153
▁adda	-14.1154
▁Arbe	-14.1155
▁onop	-14.1156
▁McM	-14.1157
amu	-14.1159
▁pono	-14.1162
87	-14.1168
▁amme	-14.1168
vard	-14.1168
▁143	-14.1174
nest	-14.1176
rima	-14.1178
▁ECR	-14.1181
ICS	-14.1187
▁EDI	-14.1198
ezer	-14.1201
HK	-14.1204
▁wick	-14.1205
▁yeh	-14.1211
▁STA	-14.1213
▁DAB	-14.1214
lor	-14.122
ngen	-14.1222
vib	-14.1227
▁ince	-14.123
▁CR	-14.1232
▁té	-14.1233
▁šek	-14.1238
low	-14.1242
zl	-14.1244
▁jah	-14.1245
zlo	-14.1247
odn	-14.1247
▁Off	-14.125
▁EPC	-14.1252
▁Pag	-14.1257
GM	-14.1257
omu	-14.1262
▁117	-14.1263
OOL	-14.1268
kay	-14.1272
IL	-14.1272
▁IDE	-14.1283
last	-14.1288
▁KAO	-14.129
▁itv	-14.1292
▁oewe	-14.1292
▁02.	-14.1297
▁MIG	-14.1298
▁nko	-14.13
▁case	-14.1303
prek	-14.1305
▁BM	-14.131
3:	-14.1319
▁ktob	-14.1322
▁IVO	-14.1324
▁leb	-14.1332
▁GM	-14.1332
laća	-14.1336
ous	-14.134
▁rul	-14.1348
▁ARA	-14.1349
74	-14.1354
▁SPAR	-14.1356
nosti	-14.1361
▁PET	-14.1364
▁uns	-14.137
▁bn	-14.1373
▁Rey	-14.1379
rge	-14.1382
dl	-14.1385
▁rami	-14.1391
▁Ćuk	-14.1397
▁ét	-14.14
▁rox	-14.14
▁jour	-14.1402
▁Šu	-14.1404
bez	-14.1405
SK	-14.141
ael	-14.1416
▁Pi	-14.1418
▁abeck	-14.142
▁perol	-14.1423
▁okl	-14.1423
▁orhi	-14.1427
▁Arch	-14.1428
▁umbe	-14.1432
▁eyo	-14.1433
oze	-14.1435
▁aso	-14.1437
▁uv	-14.1437
umu	-14.145
▁hrđ	-14.1463
IX	-14.1464
▁Elli	-14.1466
▁enos	-14.1481
leda	-14.1482
▁RED	-14.1485
vni	-14.1489
omoć	-14.1491
posto	-14.1496
▁cree	-14.1497
▁obac	-14.1499
▁ovd	-14.1499
▁SPA	-14.1504
▁ulla	-14.1506
▁Gemm	-14.1508
▁CA	-14.1511
▁ped	-14.1514
▁achs	-14.1523
▁INI	-14.1524
TP	-14.1524
rir	-14.1527
elim	-14.1531
▁Koba	-14.1537
▁ART	-14.154
▁DE	-14.1541
▁Baku	-14.1545
▁Hay	-14.1548
▁ZNA	-14.155
rađa	-14.1554
▁sas	-14.1554
▁Ža	-14.1565
▁inhe	-14.1567
▁Buri	-14.1568
▁OPE	-14.1568
CJ	-14.1578
razz	-14.1578
▁onea	-14.1584
▁čes	-14.1586
▁TIA	-14.1595
▁bjed	-14.1597
sc	-14.1598
73	-14.1602
esti	-14.1604
nap	-14.1607
▁rowe	-14.1614
▁ays	-14.1621
civ	-14.1621
adil	-14.1622
▁alig	-14.1629
ár	-14.1634
▁odge	-14.1642
hn	-14.1651
▁host	-14.1654
▁erd	-14.1662
sov	-14.1663
▁šibi	-14.1666
▁aun	-14.1672
ROJ	-14.1677
▁lita	-14.1687
▁hine	-14.1687
▁peh	-14.1688
eip	-14.1695
vao	-14.1696
▁leće	-14.1701
gleda	-14.1702
▁OSA	-14.1702
▁Lol	-14.1703
KIC	-14.1706
▁EGA	-14.1708
JAK	-14.1709
▁hin	-14.1712
jun	-14.1712
57	-14.1715
▁UDB	-14.1718
pto	-14.1722
SM	-14.1723
▁Đi	-14.1731
▁unta	-14.1733
▁ROG	-14.1742
danj	-14.1742
▁ct	-14.1746
▁amfor	-14.1746
▁Juna	-14.1748
▁Bas	-14.1752
ROK	-14.1754
slov	-14.1757
aći	-14.1766
zal	-14.1767
oks	-14.1771
pur	-14.178
▁LC	-14.1784
esh	-14.1786
▁bam	-14.1789
▁EPA	-14.1792
fo	-14.1797
kod	-14.1805
▁šou	-14.1806
▁01	-14.1807
eo	-14.1809
▁eval	-14.1816
svoje	-14.1817
IRU	-14.1818
ebe	-14.1823
▁OLI	-14.1826
▁vd	-14.1827
▁Ahma	-14.1828
▁ED	-14.1832
▁pje	-14.1838
▁Ry	-14.1841
▁aden	-14.1842
▁Uh	-14.1842
▁raco	-14.1845
▁game	-14.1846
▁sma	-14.1853
wo	-14.1853
▁hras	-14.1854
▁wil	-14.1856
▁Dou	-14.1862
▁OMA	-14.1871
čila	-14.1871
íc	-14.1873
▁ync	-14.1876
eu	-14.1877
▁ourc	-14.1886
▁con	-14.189
hir	-14.1891
▁Mio	-14.1893
ajč	-14.1896
tvo	-14.1899
lavi	-14.1903
▁ocha	-14.1903
▁MIR	-14.1904
▁ease	-14.1906
lev	-14.1913
▁7-	-14.1914
▁5-	-14.1917
▁Čep	-14.1931
▁UC	-14.1932
▁Era	-14.1943
▁oann	-14.1945
▁iffer	-14.1947
▁bere	-14.196
▁APA	-14.1963
▁Myk	-14.1963
▁mé	-14.1964
▁ø	-14.1967
▁mič	-14.1977
▁ordi	-14.1978
▁4%	-14.1987
ACE	-14.1988
▁tilin	-14.199
▁Name	-14.1994
▁rchi	-14.1998
▁mazi	-14.2001
▁ozm	-14.2009
škol	-14.2011
etak	-14.2011
oman	-14.2013
▁meno	-14.2015
lich	-14.2016
▁uzern	-14.2017
DAC	-14.2019
▁alaš	-14.2044
▁Hoda	-14.2045
jelo	-14.2047
▁pci	-14.2047
▁iki	-14.2051
eme	-14.2066
▁Sess	-14.2068
▁kaj	-14.2075
kop	-14.2077
▁orda	-14.2077
ndi	-14.2078
RU	-14.2078
laža	-14.2079
▁Alfi	-14.2081
vant	-14.2081
▁bebo	-14.2084
▁Ess	-14.2096
rab	-14.2096
ENI	-14.2097
▁NB	-14.2099
▁Mame	-14.2108
▁Ker	-14.2108
▁enna	-14.211
▁hiba	-14.211
RAN	-14.2113
58	-14.2113
▁Jane	-14.2113
▁ION	-14.2121
don	-14.213
AGA	-14.2133
umn	-14.2135
oro	-14.2138
▁GB	-14.2141
▁Arc	-14.2145
rty	-14.2152
osta	-14.2155
šan	-14.2156
▁Bike	-14.2158
▁ritu	-14.2158
obr	-14.216
▁eja	-14.2163
▁Arb	-14.2164
TL	-14.2164
▁rape	-14.2167
▁OW	-14.2168
▁oah	-14.2168
▁TVO	-14.217
▁1'	-14.217
lm	-14.2181
▁zda	-14.2185
ID	-14.2189
▁ROPIX	-14.221
▁ández	-14.221
▁artí	-14.2211
rey	-14.2212
▁(9)	-14.2212
▁MAK	-14.2218
IVA	-14.2219
AWE	-14.2224
▁Wayne	-14.2226
▁Eis	-14.2226
▁oudek	-14.2229
DE	-14.2229
▁6:0	-14.2231
▁truck	-14.2235
▁owie	-14.2237
amer	-14.2238
▁ZBOR	-14.2238
▁walk	-14.2238
att	-14.2241
▁ERE	-14.2242
▁weig	-14.2243
64	-14.2243
▁BIS	-14.2245
etar	-14.2246
pada	-14.2246
▁Dicmu	-14.2248
sb	-14.2248
▁egze	-14.2248
▁Molvi	-14.2253
▁Gym	-14.2255
▁wall	-14.2259
▁PIN	-14.2259
▁iya	-14.226
▁Momir	-14.2267
▁Gome	-14.2268
▁anš	-14.2271
▁iege	-14.2274
▁ojgua	-14.2279
▁Arte	-14.228
▁adja	-14.2281
tren	-14.2285
▁Yi	-14.2286
▁olff	-14.2291
▁LEM	-14.2294
▁issi	-14.2296
▁209	-14.2297
pat	-14.2299
▁Tk	-14.2299
ggs	-14.23
▁ligo	-14.2307
EPU	-14.2309
▁Fa	-14.231
▁Ya	-14.2312
▁208	-14.2313
kori	-14.2313
laž	-14.2316
▁Enzo	-14.2318
▁Weis	-14.2322
El	-14.2326
zdrav	-14.2326
pru	-14.2328
DV	-14.2329
▁AJD	-14.233
▁6)	-14.2332
NIK	-14.2335
agreb	-14.2338
▁Xha	-14.234
▁182	-14.2344
tru	-14.2345
▁142	-14.2345
▁MP	-14.2347
utov	-14.2355
zgu	-14.2358
▁etir	-14.2358
▁08.	-14.236
▁loth	-14.2376
lker	-14.2376
▁gud	-14.2379
▁avo	-14.2381
OD	-14.2382
▁Dor	-14.2383
▁EŠK	-14.2386
▁04.	-14.2388
▁EŽI	-14.2392
▁uan	-14.2393
▁EKS	-14.2394
▁Ye	-14.2396
▁Saab	-14.2396
išta	-14.2397
▁hoot	-14.24
ašn	-14.2402
▁GA	-14.2403
▁iđ	-14.2403
▁TOR	-14.2408
▁NCA	-14.241
▁vage	-14.2413
62	-14.2413
▁arsa	-14.2415
▁zag	-14.2415
ía	-14.2416
▁krob	-14.2418
▁ajz	-14.2419
▁Zir	-14.2421
AKO	-14.2423
▁Erv	-14.2424
▁EVE	-14.2425
▁zym	-14.2431
šle	-14.2441
PH	-14.2443
tome	-14.245
▁EBR	-14.2455
ufl	-14.2461
▁ía	-14.2467
▁spl	-14.2469
▁ahre	-14.247
53	-14.2471
reg	-14.2471
▁gath	-14.2473
▁Aman	-14.2474
jekt	-14.2474
▁šeik	-14.2477
▁Rađ	-14.2477
▁"3.	-14.2479
▁Hos	-14.2479
▁Ple	-14.2479
▁ORK	-14.248
▁enfa	-14.2485
▁raho	-14.2487
▁lebd	-14.2487
▁ruma	-14.2491
▁rico	-14.2492
MU	-14.2496
▁UI	-14.2496
ham	-14.2499
kra	-14.25
ubb	-14.2507
aket	-14.2508
attl	-14.2513
▁ALI	-14.2513
▁UGA	-14.252
▁LD	-14.2521
▁Eil	-14.2522
▁abu	-14.2523
ENT	-14.2527
▁NAS	-14.2529
▁FI	-14.2531
▁olt	-14.2534
▁eten	-14.2534
▁over	-14.2535
▁izz	-14.2548
nosn	-14.2554
▁Neme	-14.2568
mark	-14.2571
wa	-14.2571
▁gis	-14.258
▁(7	-14.2581
▁Teš	-14.2583
OGA	-14.2584
▁Roc	-14.2586
▁asco	-14.2587
▁OŽEM	-14.2592
phy	-14.2599
pos	-14.26
▁nst	-14.261
+1	-14.261
▁Sto	-14.2611
▁orz	-14.2615
▁tabi	-14.2619
ST	-14.2619
▁rema	-14.2624
▁ymp	-14.2629
vit	-14.2635
▁baz	-14.2652
▁outha	-14.2657
▁kub	-14.2663
▁PLU	-14.2664
▁laču	-14.2668
▁edem	-14.267
kob	-14.2681
▁Će	-14.2682
▁rain	-14.2685
ošk	-14.2693
▁Yari	-14.2701
▁Una	-14.2702
our	-14.2706
▁él	-14.2709
▁deal	-14.2711
▁eix	-14.2714
▁čec	-14.2715
toga	-14.2719
▁mrš	-14.2726
▁STE	-14.2734
▁MC	-14.2734
▁NIA	-14.2738
llen	-14.2742
usta	-14.2743
▁rasa	-14.2747
nisu	-14.2753
▁KL	-14.2757
▁RIJE	-14.2769
ass	-14.2778
▁upav	-14.2779
▁Dir	-14.2784
ray	-14.2787
▁alme	-14.2791
▁aron	-14.2793
▁Prap	-14.2793
▁urpi	-14.2794
▁tama	-14.2795
▁moč	-14.2796
▁BR	-14.2796
▁ESC	-14.2798
▁NOS	-14.2799
▁Mine	-14.2801
nema	-14.2809
TD	-14.281
LN	-14.2813
imit	-14.2814
▁ugha	-14.2819
▁PS	-14.2822
▁Aid	-14.2825
▁Urša	-14.283
▁rock	-14.2831
▁Pir	-14.2833
âm	-14.2842
▁jsk	-14.2845
ink	-14.2848
fu	-14.2855
jd	-14.2859
Al	-14.2864
▁ažol	-14.2867
▁erse	-14.2868
Di	-14.287
▁erme	-14.2879
▁nne	-14.289
amar	-14.2891
▁admi	-14.2891
zet	-14.2893
hed	-14.2898
GL	-14.2903
▁cap	-14.2903
▁yer	-14.2913
kva	-14.2916
▁ŽIV	-14.2924
▁Tah	-14.2926
BAR	-14.293
▁clea	-14.2931
vrij	-14.294
▁šnit	-14.2941
▁artu	-14.2942
▁Deh	-14.2954
lać	-14.2955
▁irza	-14.2964
irn	-14.2969
▁akci	-14.2972
▁ould	-14.2973
▁ias	-14.2976
▁kleč	-14.2976
▁RON	-14.2976
▁Wa	-14.298
▁elik	-14.2999
▁gle	-14.3004
▁gruš	-14.3005
andr	-14.3012
blem	-14.3018
▁endr	-14.3019
▁igg	-14.3021
HV	-14.3029
▁jame	-14.303
▁IOC	-14.3033
emis	-14.3038
▁Žig	-14.3048
SL	-14.3049
jemo	-14.3052
ARK	-14.3064
▁Ela	-14.3068
▁Dicm	-14.3068
▁arit	-14.3073
outh	-14.3075
▁ahmu	-14.3076
elif	-14.3076
nča	-14.308
pn	-14.3081
▁sici	-14.3084
mora	-14.309
▁Niki	-14.3091
▁olge	-14.3103
▁sun	-14.3105
▁inch	-14.3111
▁ekme	-14.3118
▁sno	-14.3118
▁Bra	-14.3119
hol	-14.3132
▁Kere	-14.3135
▁štak	-14.3135
sco	-14.3135
iri	-14.3148
▁DM	-14.315
sada	-14.3152
▁rote	-14.3161
▁Dame	-14.3164
▁FB	-14.3168
▁oksi	-14.3172
aime	-14.3177
▁zima	-14.3178
▁meha	-14.3178
▁Kaf	-14.3183
▁Wor	-14.319
ld	-14.319
▁lame	-14.3192
▁enor	-14.3198
▁Hig	-14.3199
▁elma	-14.3201
▁Sor	-14.3204
RV	-14.3205
miš	-14.3209
▁ICA	-14.3214
▁Fali	-14.3221
UG	-14.3225
ł	-14.3228
▁kler	-14.3239
▁DB	-14.3244
DJ	-14.3245
▁pedi	-14.325
▁umb	-14.3251
▁Auro	-14.3255
ets	-14.3257
tvrt	-14.326
▁fek	-14.3262
▁kuki	-14.3266
čec	-14.3275
▁ürs	-14.3285
reć	-14.3286
off	-14.3306
▁tope	-14.3309
52	-14.331
▁HK	-14.3313
▁que	-14.3319
▁SEC	-14.3321
we	-14.3324
ose	-14.3329
▁keč	-14.3336
▁Yve	-14.3337
učin	-14.3341
▁REA	-14.335
▁ium	-14.3356
sic	-14.3357
▁DU	-14.3362
uber	-14.3363
eq	-14.3367
▁achi	-14.3372
▁yle	-14.3374
ES	-14.3376
▁PM	-14.3376
eep	-14.3382
▁foru	-14.3388
GC	-14.3393
▁illas	-14.3395
▁Jr	-14.3396
▁itva	-14.3396
rev	-14.3402
▁adži	-14.3413
▁Šik	-14.3414
▁Neo	-14.3418
nan	-14.3419
prvi	-14.342
▁voka	-14.342
▁Vra	-14.3423
▁Pon	-14.3425
OVE	-14.3427
▁adig	-14.3429
vijek	-14.3433
LM	-14.3435
eif	-14.3439
čko	-14.3444
▁OSI	-14.3447
▁orse	-14.345
izel	-14.3451
ß	-14.346
ı	-14.346
⚤	-14.346
🔥	-14.346
▁TZGZ	-14.346
OTIV	-14.3461
PR	-14.3462
▁Fib	-14.3464
lé	-14.3465
▁OHB	-14.3465
▁bbott	-14.3466
VOR	-14.3468
▁ADIO	-14.3473
▁án	-14.3474
▁TSK	-14.3475
nci	-14.348
gus	-14.348
▁tain	-14.3481
▁WNB	-14.3482
bek	-14.3483
CC	-14.3485
▁RAC	-14.3485
mons	-14.3492
ezo	-14.3497
▁arcu	-14.3498
▁uzz	-14.3499
▁nab	-14.3503
vijet	-14.3505
▁FOR	-14.3507
ntr	-14.3509
▁GQ	-14.351
71	-14.351
▁EPS	-14.3514
▁bad	-14.3515
▁Dile	-14.3518
▁Doz	-14.3522
▁hif	-14.3523
▁rota	-14.353
reen	-14.353
▁ošl	-14.3534
▁vond	-14.3542
▁139	-14.3545
zr	-14.3549
▁hrp	-14.355
▁4)	-14.3554
ake	-14.3555
▁183	-14.3556
otu	-14.3561
▁UCL	-14.3562
ewan	-14.3562
▁[8	-14.3565
▁metl	-14.3568
▁ucka	-14.357
▁ESB	-14.3572
▁meć	-14.3573
Pro	-14.3573
▁puz	-14.3576
eur	-14.3577
▁kemi	-14.3581
obn	-14.3581
▁Ćub	-14.3583
▁275	-14.3583
▁krpe	-14.3588
▁ozge	-14.3588
▁Woo	-14.359
▁ZNE	-14.3592
▁Šal	-14.3593
▁evč	-14.3593
mez	-14.3594
▁ears	-14.3605
▁Moh	-14.3607
▁ls	-14.3608
▁evis	-14.3609
uka	-14.3614
lači	-14.3622
OG	-14.3624
nha	-14.3624
dobro	-14.3625
▁oled	-14.3629
▁arre	-14.363
zz	-14.3635
▁Amr	-14.3638
▁orle	-14.3641
▁jelu	-14.3645
KB	-14.3646
taš	-14.3646
▁coop	-14.3649
kti	-14.3652
▁Lyl	-14.3655
pći	-14.366
▁arim	-14.367
5,	-14.3678
dik	-14.368
▁SUP	-14.368
rba	-14.3686
vrd	-14.3688
lot	-14.369
▁RAK	-14.3694
titi	-14.3716
▁tegn	-14.3719
▁Pain	-14.3726
▁olfe	-14.373
gos	-14.3731
▁oão	-14.3731
▁ARI	-14.3735
▁uett	-14.3748
▁burg	-14.3749
vik	-14.3751
▁Albe	-14.3754
él	-14.3755
▁arç	-14.3757
▁olon	-14.3757
▁full	-14.3757
▁itze	-14.376
▁irki	-14.3761
▁oooo	-14.3764
▁IJEL	-14.3768
lac	-14.377
▁COM	-14.3772
▁CMC	-14.3772
▁legl	-14.3773
▁Wool	-14.3782
rio	-14.3784
▁Kaj	-14.3787
▁Royc	-14.3793
▁ugh	-14.38
▁tiva	-14.3801
▁Urs	-14.3801
▁tne	-14.3804
▁ipka	-14.3814
▁hoc	-14.3814
▁asha	-14.3816
▁Up	-14.3817
UH	-14.3817
▁vš	-14.3818
▁ronh	-14.3819
▁orp	-14.3821
▁nevi	-14.3825
72	-14.3832
amat	-14.3836
uko	-14.3846
▁RIS	-14.3852
▁raju	-14.3855
▁OL	-14.3872
▁Ec	-14.3877
▁injo	-14.3877
▁Ran	-14.3883
▁whe	-14.3883
onel	-14.3886
out	-14.3886
▁iels	-14.3887
▁WB	-14.3887
wy	-14.39
gul	-14.39
▁hing	-14.3902
JEST	-14.3903
▁ón	-14.3906
▁anus	-14.3907
▁ietz	-14.3907
▁onći	-14.3911
pil	-14.3913
zali	-14.3926
▁RAG	-14.3931
ifi	-14.3933
▁ISA	-14.3934
građ	-14.394
uži	-14.3951
▁jör	-14.3952
rq	-14.3955
igrač	-14.3962
EO	-14.3964
žan	-14.3966
▁Ca	-14.3969
ređe	-14.397
žem	-14.3983
žud	-14.3986
▁Argu	-14.3986
▁2'	-14.3992
sum	-14.3994
bra	-14.3996
▁dlib	-14.4002
▁RU	-14.4003
▁UO	-14.4006
AVK	-14.4008
▁ious	-14.402
▁barg	-14.402
▁ijce	-14.4021
▁Bes	-14.4024
▁HOP	-14.4029
LC	-14.403
ç	-14.4034
afi	-14.4035
▁ath	-14.4036
sec	-14.4041
▁ör	-14.4046
▁RFE	-14.405
malo	-14.4052
▁SDS	-14.4052
▁nvic	-14.4057
ANI	-14.4059
rada	-14.4062
▁Ahm	-14.4062
▁alp	-14.4064
ears	-14.4065
83	-14.4066
▁pok	-14.4067
ESS	-14.4068
▁Who	-14.4071
▁Cod	-14.4085
▁uzy	-14.4092
▁utle	-14.4093
edo	-14.4098
ustav	-14.41
▁Pame	-14.4104
▁Ace	-14.4106
▁Ke	-14.4116
▁lte	-14.412
kel	-14.412
ola	-14.4123
▁wat	-14.413
uba	-14.4131
uge	-14.4133
CER	-14.4135
Ah	-14.4145
▁elni	-14.4148
erz	-14.415
▁krep	-14.4151
▁ramm	-14.4155
▁ás	-14.4162
Mar	-14.4165
ritm	-14.4168
RAT	-14.417
▁ijo	-14.4175
▁urku	-14.4176
▁Mys	-14.4178
ničk	-14.4194
▁-)	-14.4201
▁aris	-14.4201
žin	-14.4208
▁Tec	-14.4212
▁undo	-14.4217
▁ethe	-14.4219
▁Ron	-14.4232
ane	-14.4236
▁ours	-14.4249
dion	-14.425
zak	-14.4253
rry	-14.4253
▁Tuš	-14.4256
ush	-14.4257
▁ohns	-14.4258
▁ačvi	-14.4261
▁raut	-14.4261
▁jete	-14.4264
▁rokat	-14.4265
▁POD	-14.4266
PADA	-14.427
wal	-14.4271
▁ornj	-14.4275
▁hti	-14.4277
3.	-14.4278
▁DZ	-14.4301
CH	-14.4303
▁amsa	-14.431
ULT	-14.4313
šifr	-14.4313
tešk	-14.4314
▁owe	-14.4314
▁hov	-14.4315
▁urri	-14.4321
▁DPD	-14.4322
▁VE	-14.4327
NOR	-14.4329
svje	-14.4331
▁epen	-14.4334
vrat	-14.4337
▁rža	-14.4338
▁Eg	-14.4346
TY	-14.4346
▁Kour	-14.4356
▁etl	-14.4357
▁TAN	-14.4357
▁dri	-14.4361
▁VS	-14.4365
▁tade	-14.437
FR	-14.4371
▁remu	-14.4372
ö	-14.4375
arl	-14.438
danas	-14.4383
▁Mirn	-14.4385
▁iaga	-14.4385
glo	-14.4389
koč	-14.4396
asp	-14.4397
ljsk	-14.4407
ODA	-14.441
gel	-14.4415
zm	-14.4422
▁ICO	-14.4433
mala	-14.4433
▁Abb	-14.4433
▁XI	-14.4434
▁Silv	-14.4436
ä	-14.4443
▁airo	-14.4447
▁ild	-14.4455
zim	-14.4463
ENA	-14.4466
:6	-14.4472
čka	-14.4472
the	-14.4474
tum	-14.4475
▁EŠ	-14.4475
moguć	-14.4477
bis	-14.4482
AX	-14.449
▁zezn	-14.4494
▁Nev	-14.4495
▁eide	-14.4499
▁ELE	-14.45
▁aču	-14.4501
SDA	-14.4504
▁pso	-14.4505
▁epr	-14.4508
▁hiz	-14.4509
▁Kib	-14.4514
▁Rous	-14.4515
ons	-14.4516
ór	-14.452
▁Urš	-14.455
afo	-14.4551
ico	-14.4553
tab	-14.4555
▁CE	-14.4559
nigm	-14.4564
▁EG	-14.4572
PEC	-14.4573
▁Sari	-14.4574
AZA	-14.4574
▁PGD	-14.4575
▁SKO	-14.4581
esl	-14.4581
▁nage	-14.459
▁lemi	-14.4593
odru	-14.4597
▁orf	-14.4598
AJ	-14.4599
▁avič	-14.4602
ürt	-14.4604
ILA	-14.4607
rí	-14.4608
▁basa	-14.4614
HOP	-14.4614
▁robu	-14.4616
▁Neum	-14.4617
▁olti	-14.4621
▁ELA	-14.4622
sman	-14.4623
▁amma	-14.4627
▁plun	-14.463
tarn	-14.4632
▁OTA	-14.4633
▁qu	-14.4634
PRA	-14.4635
pir	-14.4642
▁pele	-14.4644
ŽE	-14.4645
isi	-14.4656
imen	-14.4662
tok	-14.4667
vot	-14.4671
▁Wh	-14.4673
efir	-14.4677
▁KOP	-14.468
izira	-14.468
NT	-14.468
BK	-14.4684
ule	-14.4686
lut	-14.4687
▁ćev	-14.4691
▁Ef	-14.4691
▁awn	-14.4704
▁argi	-14.4705
ahar	-14.4707
▁ROS	-14.4713
život	-14.4714
ajin	-14.4718
OR	-14.4718
mol	-14.4718
Ć	-14.472
rhk	-14.4722
▁kivi	-14.4728
▁anca	-14.4729
▁lix	-14.4749
hum	-14.4751
▁ATV	-14.4757
▁onir	-14.4761
▁bow	-14.4767
mper	-14.477
itn	-14.478
▁myr	-14.4784
▁olli	-14.4787
DD	-14.4793
mj	-14.4798
▁retu	-14.4801
ukar	-14.4802
iga	-14.4809
▁ns	-14.481
DK	-14.4812
fro	-14.4815
▁TT	-14.4815
▁imf	-14.4816
aga	-14.483
▁DOR	-14.4834
▁trof	-14.4838
guar	-14.4842
▁reti	-14.4848
▁MIL	-14.4851
▁VIK	-14.4852
▁Rei	-14.4852
▁Ein	-14.4853
cid	-14.4856
▁Att	-14.4864
▁Kuli	-14.4865
NOS	-14.4867
▁SAP	-14.4867
GSS	-14.4872
FB	-14.4875
▁shi	-14.4877
▁roen	-14.4879
EL	-14.488
ZJZ	-14.4881
ì	-14.4889
▁DAZN	-14.4889
☘	-14.4889
	-14.4889
🎁	-14.4889
😂	-14.4889
▁Sil	-14.4891
mlad	-14.4891
itet	-14.4891
▁Sleep	-14.4892
▁hyth	-14.4892
▁ncé	-14.4893
▁GPZ	-14.4894
▁amfi	-14.4894
▁ecs	-14.4898
▁HBK	-14.49
▁BIL	-14.4901
baš	-14.4902
▁Org	-14.4905
▁urham	-14.4906
▁ai	-14.4906
▁izzi	-14.4907
▁afe	-14.4911
▁REG	-14.4911
▁enzh	-14.4913
▁KMD	-14.4915
▁alz	-14.4915
▁burn	-14.4919
▁ies	-14.4919
ogur	-14.4921
▁azel	-14.4922
▁ks	-14.4922
▁cCa	-14.4923
▁0:4	-14.4924
▁walt	-14.4924
▁okyo	-14.4924
ubi	-14.4924
▁LV	-14.4928
▁McE	-14.4929
▁Hul	-14.4932
IMO	-14.4932
▁Glib	-14.4934
ppen	-14.4936
▁erine	-14.4938
kre	-14.4943
▁SIL	-14.4946
MH	-14.4956
uck	-14.4956
▁5)	-14.4958
ekla	-14.4961
▁ühl	-14.4965
ès	-14.4967
▁285	-14.4968
▁CVV	-14.497
▁CH	-14.497
▁ROA	-14.4971
▁endo	-14.4971
JED	-14.4972
LOT	-14.4974
▁Drake	-14.4975
agu	-14.4975
▁13%	-14.4976
▁HZS	-14.4978
▁nock	-14.4978
▁heck	-14.4979
▁Yous	-14.4989
GUR	-14.499
▁ELU	-14.499
▁Reus	-14.499
▁174	-14.4993
opa	-14.4994
FT	-14.4995
▁DNR	-14.4998
▁9,7	-14.4999
▁Labs	-14.5003
rta	-14.501
▁šn	-14.5014
AJA	-14.5016
▁urek	-14.5018
▁hé	-14.502
▁lopk	-14.5026
lf	-14.5032
▁EGE	-14.5034
ibe	-14.5034
▁were	-14.5035
umi	-14.5036
OB	-14.5049
▁lick	-14.5054
▁WA	-14.5057
▁abah	-14.5059
▁moot	-14.5065
▁Yah	-14.5066
▁OG	-14.5066
ts	-14.5067
▁IC	-14.5069
▁Sene	-14.5079
ó	-14.5087
evo	-14.5088
▁Klap	-14.5089
▁jap	-14.509
▁Glih	-14.5098
▁RIST	-14.5099
▁anea	-14.51
▁â	-14.5108
▁rass	-14.5117
▁ogin	-14.5125
▁CL	-14.5129
osn	-14.5129
avnj	-14.5137
▁Unai	-14.514
▁Ćul	-14.5141
▁Um	-14.5142
aver	-14.5142
kaže	-14.5143
▁kvit	-14.5148
▁dišem	-14.5149
adu	-14.5153
▁IR	-14.5157
▁asch	-14.5157
▁VIĆ	-14.5159
avna	-14.5162
▁KLM	-14.5162
▁vark	-14.5166
▁olem	-14.517
▁Epp	-14.5172
▁appi	-14.5172
▁Gat	-14.5173
▁etic	-14.5175
kojem	-14.5182
▁SQ	-14.5195
▁luzi	-14.5197
▁offi	-14.5202
▁lauf	-14.5203
NSD	-14.5204
▁FK	-14.5204
▁Badž	-14.5204
▁tupar	-14.5211
IBA	-14.5215
uo	-14.5216
▁OĐ	-14.5217
▁kusi	-14.5218
▁ŽO	-14.522
jima	-14.5222
▁undu	-14.5228
▁zvo	-14.5228
8.	-14.5231
▁antz	-14.5231
llin	-14.5232
▁Orš	-14.5233
▁cea	-14.5237
NIH	-14.5238
nešto	-14.5238
▁heik	-14.5239
▁alik	-14.5242
▁ižot	-14.5248
ŠTA	-14.525
▁Kaja	-14.5253
▁keep	-14.5259
poč	-14.5263
▁Mr	-14.5265
▁dris	-14.5267
▁RE	-14.5272
LZ	-14.5277
▁lies	-14.5279
▁Feta	-14.5281
ugr	-14.5282
▁auch	-14.5283
nta	-14.5285
▁ANC	-14.5287
ncu	-14.5299
▁Gab	-14.5304
jm	-14.5306
javn	-14.5307
riz	-14.5308
▁asal	-14.531
cot	-14.5311
užen	-14.5311
wid	-14.5313
▁Ahli	-14.5315
▁DOS	-14.5319
▁arfu	-14.532
▁SM	-14.5322
tni	-14.5322
▁Ork	-14.5322
▁Duš	-14.5325
▁OTV	-14.5325
edav	-14.5325
▁TSKI	-14.5336
▁hie	-14.5338
▁valu	-14.5344
unch	-14.5345
▁Haw	-14.5346
STI	-14.535
TH	-14.5352
ional	-14.5361
viš	-14.5373
▁luze	-14.5373
▁dak	-14.5374
ind	-14.5379
▁rie	-14.5382
zma	-14.5392
▁oća	-14.5393
▁tekn	-14.5395
ook	-14.5403
LJI	-14.5407
tip	-14.5408
▁jus	-14.5408
ô	-14.5415
kvi	-14.542
eca	-14.5422
▁aćeh	-14.5422
LUM	-14.5427
▁tw	-14.5429
riff	-14.5433
▁KO	-14.5434
▁duo	-14.5436
kid	-14.5436
▁Arms	-14.544
▁yo	-14.5446
▁asci	-14.5452
▁aye	-14.5453
▁Rams	-14.5454
NI	-14.5455
▁gara	-14.5456
star	-14.5458
▁unse	-14.5465
▁opar	-14.5466
▁elan	-14.5472
▁ukha	-14.5474
reta	-14.5485
ail	-14.5494
▁abd	-14.5495
▁arši	-14.5503
▁Dux	-14.551
▁CAC	-14.5512
▁libr	-14.5514
▁Eliz	-14.5516
▁Weg	-14.5517
▁TAK	-14.5519
▁ossa	-14.552
metn	-14.5522
▁Dahi	-14.5525
mić	-14.5527
HP	-14.5527
▁agol	-14.5528
▁lazer	-14.5534
NIQ	-14.5539
▁IPA	-14.5556
▁OPĆ	-14.5564
▁Abba	-14.5573
▁olce	-14.5577
▁alva	-14.5586
▁MM	-14.5586
spir	-14.5587
ipar	-14.5588
▁NIN	-14.5595
ual	-14.5596
▁Cope	-14.5599
▁Sera	-14.5615
▁ginu	-14.5616
▁Alis	-14.5622
ljak	-14.5626
UB	-14.5627
▁rust	-14.5629
▁udim	-14.563
iff	-14.5633
▁Hanu	-14.5634
kro	-14.5638
▁ojgu	-14.5638
štit	-14.5641
▁Dat	-14.5643
▁Yag	-14.5644
itch	-14.565
▁MU	-14.5652
▁RVA	-14.5657
rest	-14.5659
POL	-14.5667
41	-14.567
▁LAVN	-14.5676
sir	-14.5684
▁akos	-14.569
▁ćuš	-14.5691
▁klep	-14.5708
amen	-14.5709
ondo	-14.5715
▁shv	-14.5715
hur	-14.5716
aknu	-14.5717
vsk	-14.5717
▁Čor	-14.5718
▁GR	-14.5719
AVC	-14.5728
▁cow	-14.5729
ERE	-14.5729
▁OGA	-14.5753
▁aaaa	-14.5761
▁osq	-14.5762
è	-14.5762
▁rossi	-14.5763
▁IVI	-14.5766
5'	-14.5768
▁guer	-14.5771
▁adž	-14.5776
▁umph	-14.5777
▁jauk	-14.578
▁BOR	-14.5785
ono	-14.5789
dry	-14.5793
VT	-14.5795
▁Rumi	-14.5798
▁ETA	-14.58
rču	-14.5817
▁ampl	-14.5838
▁šč	-14.5839
BL	-14.5842
▁she	-14.5842
oln	-14.5848
▁LJA	-14.585
▁UZ	-14.5863
▁UŠ	-14.5866
ater	-14.5871
rakt	-14.5872
ND	-14.5882
▁ogn	-14.5885
▁IST	-14.5888
▁hen	-14.5888
SH	-14.5891
▁Urb	-14.5893
▁fetu	-14.5894
▁Jule	-14.5896
jena	-14.5898
▁kci	-14.59
otvr	-14.5905
▁toneu	-14.5919
OJE	-14.5923
BD	-14.5927
▁BIT	-14.5929
ZNA	-14.5931
TB	-14.5933
▁acc	-14.5935
wich	-14.5937
▁Zhu	-14.5954
▁Dž	-14.5956
dvije	-14.5956
rasp	-14.5967
▁ette	-14.5979
▁oyd	-14.5988
vna	-14.5989
▁rima	-14.599
▁CS	-14.599
▁Kuko	-14.5994
▁Čik	-14.5994
▁+2	-14.5995
▁utto	-14.6
▁arse	-14.6004
▁Kuma	-14.6011
▁ssis	-14.6014
▁zal	-14.6014
RO	-14.602
metr	-14.6022
▁Puk	-14.6023
bno	-14.6034
▁He	-14.6035
moći	-14.6045
▁kvrc	-14.6045
ugi	-14.6052
▁uand	-14.6055
▁haha	-14.6056
▁dlaž	-14.6063
liko	-14.6067
▁note	-14.607
▁iko	-14.6074
YS	-14.6075
TN	-14.6075
▁Dob	-14.6077
bach	-14.6084
iven	-14.6085
UV	-14.6088
▁umbl	-14.6098
FAC	-14.6101
▁ušl	-14.6103
EPA	-14.612
mjen	-14.6121
▁mm	-14.6127
▁unak	-14.613
cel	-14.6141
▁gues	-14.6142
▁ouli	-14.6146
ò	-14.6146
▁VK	-14.6148
uhe	-14.6159
▁LAV	-14.6162
▁ANI	-14.6165
JK	-14.6166
enju	-14.6169
▁gozb	-14.6171
ŠS	-14.6176
▁OŽE	-14.6178
Ch	-14.6181
▁RAT	-14.6181
šić	-14.6188
▁LAN	-14.6191
etvrt	-14.6191
▁Jah	-14.6193
▁Alt	-14.6194
8'	-14.6199
CF	-14.6201
▁ŽU	-14.6202
St	-14.6203
▁ŽN	-14.6204
hov	-14.6205
FE	-14.6207
▁Maš	-14.6209
MIR	-14.6209
lick	-14.6209
aff	-14.6223
fir	-14.6224
mos	-14.6234
▁dict	-14.6236
zele	-14.6239
▁asar	-14.6241
ett	-14.6259
▁PSK	-14.626
▁Fai	-14.6267
▁avaz	-14.6273
▁Paq	-14.6274
▁Zahi	-14.6277
▁ursu	-14.6278
dob	-14.628
arat	-14.628
elu	-14.6283
▁žij	-14.6294
fic	-14.6294
ower	-14.6297
▁ZOM	-14.63
▁Cli	-14.6313
vodi	-14.6313
▁CI	-14.6315
lus	-14.6317
▁Kafa	-14.6333
▁col	-14.6335
té	-14.6335
▁olv	-14.6336
▁OLA	-14.6341
rnj	-14.6343
▁lear	-14.6348
▁hob	-14.6348
▁roja	-14.6351
▁due	-14.6355
rafi	-14.6364
GE	-14.6366
▁Fin	-14.6367
▁mok	-14.6367
▁Gib	-14.6368
kari	-14.637
▁jenu	-14.6374
▁Wag	-14.6376
▁Gut	-14.6377
Ko	-14.6378
sati	-14.6385
▁gde	-14.6392
▁fet	-14.6393
▁ucha	-14.6406
jud	-14.6406
▁EO	-14.6411
MNL	-14.6415
▁APAD	-14.6415
▁deli	-14.6417
▁ORM	-14.6417
▁umm	-14.642
ér	-14.6441
uća	-14.645
epi	-14.6451
rži	-14.6454
demi	-14.6468
▁ačel	-14.647
▁Jalt	-14.6473
roba	-14.6476
eno	-14.6476
zne	-14.6477
▁Alle	-14.6482
▁9)	-14.6483
▁ronz	-14.6484
ITI	-14.6485
IE	-14.6489
▁Meš	-14.6497
▁RES	-14.6499
▁LIM	-14.6499
GA	-14.6503
▁rif	-14.6515
▁slij	-14.6516
pp	-14.6516
▁ulk	-14.6517
▁Bag	-14.6521
és	-14.6524
ça	-14.6531
▁MEN	-14.6536
▁Fum	-14.654
▁Side	-14.6541
▁areš	-14.6544
WE	-14.6545
▁tos	-14.6546
©	-14.6555
Ś	-14.6555
▁***	-14.6555
▁✔	-14.6555
▁guyen	-14.6555
▁ütter	-14.6556
▁Usher	-14.6559
▁IKT	-14.6561
▁Why	-14.6562
▁náci	-14.6563
užb	-14.6564
▁erčep	-14.6565
▁awhi	-14.6567
▁Fišer	-14.6569
▁6:2	-14.6571
▁6:3	-14.6571
ODMA	-14.6571
ia	-14.6572
▁LAT	-14.6574
▁4:3	-14.6577
▁DRUG	-14.6577
▁Caf	-14.6577
ás	-14.658
▁6:	-14.6583
▁37%	-14.6583
▁Hua	-14.6586
▁öw	-14.6586
eru	-14.6587
▁Papuk	-14.6596
▁tamn	-14.6596
▁REDS	-14.6601
▁Juk	-14.6605
▁ALL	-14.6606
dalje	-14.6607
▁Wait	-14.6607
▁IGH	-14.6607
▁iorg	-14.6609
loš	-14.6609
echt	-14.6609
organ	-14.6613
▁went	-14.6616
▁asle	-14.6619
▁GV	-14.6623
▁EAL	-14.6631
▁1.6	-14.6635
▁SKA	-14.6637
▁NT	-14.6638
asni	-14.6639
▁rijs	-14.664
▁ftek	-14.6641
▁Saš	-14.6642
▁Dahm	-14.6644
▁bau	-14.665
▁lard	-14.665
▁whi	-14.6651
▁ICIJ	-14.6653
roup	-14.666
▁ions	-14.6663
▁Mezz	-14.6671
▁178	-14.6674
▁Ću	-14.6676
▁iss	-14.6691
RNI	-14.6694
▁146	-14.6698
šnit	-14.6706
▁unge	-14.6706
▁Čond	-14.6708
▁610	-14.6709
▁ukes	-14.6714
zeml	-14.6714
▁ogan	-14.6716
▁PŠ	-14.6723
▁oun	-14.6725
matr	-14.6726
način	-14.6727
▁Alf	-14.6729
▁fred	-14.6732
ošao	-14.6733
▁99.	-14.6733
▁KOR	-14.6734
▁Els	-14.6734
▁SME	-14.6737
▁appa	-14.6738
▁bzor	-14.6739
▁ALA	-14.6742
▁AVI	-14.6743
▁medu	-14.6751
▁Aqs	-14.6751
dni	-14.6751
▁SRP	-14.6752
▁harf	-14.6753
rč	-14.6754
tka	-14.6755
▁Mol	-14.6763
GZ	-14.6763
vjed	-14.6769
▁HŠ	-14.6772
▁Agri	-14.6775
UI	-14.6782
con	-14.6787
rugi	-14.6795
AKA	-14.6798
▁RAN	-14.6799
▁Efr	-14.6799
▁Word	-14.6803
▁SS	-14.6814
gotov	-14.6818
▁Vig	-14.682
▁raje	-14.682
ČE	-14.6828
▁06.	-14.6829
▁tera	-14.6829
cho	-14.683
▁alab	-14.6832
▁rpez	-14.6835
▁ogađ	-14.6838
▁ulum	-14.6839
▁yph	-14.6842
▁Ege	-14.6844
▁sjev	-14.6845
eced	-14.6845
▁Gay	-14.6846
▁hio	-14.6848
In	-14.6856
▁MH	-14.6858
▁urks	-14.6859
▁07.	-14.686
▁did	-14.6873
aul	-14.6875
2'	-14.6877
tes	-14.6885
luc	-14.6886
▁ROBE	-14.6888
PIS	-14.6898
vota	-14.6902
pore	-14.6907
dža	-14.6909
gir	-14.6914
▁wide	-14.6914
rck	-14.6915
hvat	-14.6917
▁cale	-14.6919
ČAN	-14.692
▁otta	-14.6921
UE	-14.6921
izvod	-14.6948
manje	-14.6951
▁irta	-14.6952
▁jeve	-14.6953
tina	-14.6955
▁Weh	-14.6959
▁agna	-14.6962
▁Mirs	-14.6962
BR	-14.697
▁tve	-14.6975
▁arče	-14.6976
Vege	-14.6977
▁SB	-14.6978
zar	-14.698
lass	-14.6985
▁DRI	-14.6988
▁Pop	-14.6992
▁TEK	-14.7001
▁IB	-14.7002
JF	-14.7005
tol	-14.7006
▁Cot	-14.7006
▁barb	-14.7018
MB	-14.7019
etiri	-14.702
▁amus	-14.702
▁Gin	-14.702
▁urova	-14.7022
▁egu	-14.7023
▁Hu	-14.7028
▁olos	-14.7029
VZ	-14.703
kok	-14.7032
▁9%	-14.7033
stoji	-14.704
KER	-14.704
ery	-14.7043
▁Abi	-14.7046
▁KOL	-14.7046
▁RAL	-14.7047
Le	-14.7047
▁adise	-14.7058
LU	-14.7061
▁Eri	-14.7068
▁JY	-14.7076
kont	-14.7079
▁RAI	-14.7081
▁loss	-14.7082
▁OME	-14.7083
▁Noge	-14.7091
▁ibb	-14.7095
▁amše	-14.7099
rvo	-14.71
▁Pat	-14.7106
▁nve	-14.7106
lučaj	-14.7108
tkri	-14.711
▁XM	-14.7116
▁Koret	-14.7118
ERV	-14.7129
etni	-14.713
▁Zah	-14.7132
▁tio	-14.7133
▁avaj	-14.7147
▁armu	-14.7154
ajduk	-14.7157
neki	-14.7159
akm	-14.716
čili	-14.7163
▁tuš	-14.717
▁šopi	-14.7174
▁ukne	-14.7175
▁plet	-14.7181
▁Cler	-14.7187
▁emer	-14.7191
▁Džej	-14.7191
▁Kane	-14.7192
▁ebel	-14.7194
▁IZI	-14.7195
uzen	-14.7197
▁Đan	-14.7197
▁ukar	-14.7198
pek	-14.7198
diz	-14.7205
tà	-14.7215
AH	-14.7215
žul	-14.7217
dren	-14.722
▁ašav	-14.7225
rekla	-14.7225
▁Ovan	-14.7227
▁Ç	-14.723
šet	-14.7238
▁Öz	-14.7242
▁EAN	-14.7244
ALU	-14.7246
▁(9	-14.7248
▁ORA	-14.7256
▁TB	-14.7257
▁Bis	-14.7259
▁+7	-14.7262
IST	-14.7264
▁Dez	-14.7268
▁iole	-14.7279
▁FAB	-14.728
▁Bate	-14.7281
▁preg	-14.7281
▁iens	-14.7285
rne	-14.7293
▁voru	-14.7293
ean	-14.7294
▁Eb	-14.7295
▁EM	-14.7297
▁lept	-14.7299
▁Drač	-14.7301
ethe	-14.7305
ISA	-14.731
sit	-14.7312
tad	-14.7313
▁INO	-14.7319
DJE	-14.7319
soba	-14.7322
ništ	-14.7322
▁Mek	-14.733
osp	-14.7338
▁Dež	-14.734
doda	-14.7352
▁SN	-14.7366
▁OVC	-14.7374
▁ORI	-14.7375
▁esc	-14.7375
imaju	-14.7377
RIS	-14.7379
cK	-14.738
▁nitz	-14.7381
▁Dahl	-14.7387
▁Ezr	-14.739
ulic	-14.7391
▁FE	-14.7395
▁hibi	-14.7398
fes	-14.7399
zzo	-14.7401
▁oise	-14.7405
▁sco	-14.7406
išn	-14.7413
▁Pic	-14.7418
▁Fal	-14.742
▁Eze	-14.7423
▁Ric	-14.7432
ound	-14.7432
datn	-14.7433
▁Eh	-14.7446
▁TRI	-14.7446
meč	-14.745
prvo	-14.7451
▁atze	-14.7453
RP	-14.7461
olin	-14.7461
trij	-14.7462
▁juj	-14.7464
▁mace	-14.7471
▁ifo	-14.7474
hod	-14.7476
ažn	-14.7478
▁ECA	-14.7481
▁ISO	-14.7482
▁Ćut	-14.7489
far	-14.7489
▁roop	-14.7498
rezu	-14.7501
icer	-14.7505
▁gnju	-14.7511
POG	-14.7513
▁GW	-14.7522
čić	-14.7523
▁maid	-14.7528
▁sveg	-14.7532
▁rang	-14.7541
ajs	-14.755
▁jese	-14.7559
▁ór	-14.7561
▁isce	-14.7566
▁so	-14.7567
▁ŠR	-14.7567
▁opot	-14.7568
▁arwi	-14.7568
ŠR	-14.7576
▁Bede	-14.7578
mus	-14.7581
▁eroi	-14.7592
▁risi	-14.76
prve	-14.761
rut	-14.7617
59	-14.7622
▁Myr	-14.7625
aft	-14.7628
usp	-14.7635
▁EME	-14.7636
▁ORE	-14.7641
ače	-14.7656
▁nci	-14.7658
Sa	-14.7661
ožu	-14.7664
▁NOR	-14.7665
▁Džem	-14.7666
aya	-14.767
▁Rah	-14.7671
▁Tihe	-14.7677
▁Ang	-14.7677
▁01.	-14.7677
obja	-14.7679
▁ando	-14.7689
▁sur	-14.769
apin	-14.7695
▁anfi	-14.7698
▁Curi	-14.77
▁deng	-14.771
sli	-14.7714
voji	-14.7715
guš	-14.7716
▁ned	-14.7723
▁Janj	-14.7724
ATA	-14.7725
▁typ	-14.773
▁heme	-14.7731
ATI	-14.7737
▁uby	-14.7739
Đ	-14.7741
▁atam	-14.7743
▁Mili	-14.7744
▁KOS	-14.7747
▁zaj	-14.7758
rma	-14.7761
acije	-14.7763
PM	-14.7764
▁CK	-14.7766
Pri	-14.7774
mica	-14.7776
LAN	-14.7785
▁obb	-14.7792
▁Zgr	-14.7792
DG	-14.7796
▁nec	-14.7796
▁Kaba	-14.7798
itk	-14.78
▁lapan	-14.781
▁DAR	-14.7813
nde	-14.7818
gd	-14.7829
▁Gode	-14.7831
svi	-14.7835
aža	-14.7838
▁abba	-14.784
anne	-14.7841
ibl	-14.7845
▁lepe	-14.7846
wn	-14.7847
▁Hami	-14.785
▁Gane	-14.785
FS	-14.7851
▁Ains	-14.7854
wi	-14.7854
▁+5	-14.7857
ravi	-14.7857
▁ADA	-14.7861
eich	-14.7864
rip	-14.7865
▁Clin	-14.7867
▁ONG	-14.7869
dra	-14.7869
▁ARD	-14.7872
▁VOD	-14.7873
▁ipas	-14.7878
▁ILI	-14.7879
▁ahm	-14.7884
▁grmi	-14.789
▁east	-14.7894
nti	-14.7904
▁tage	-14.7905
tio	-14.7906
▁maro	-14.7907
ndr	-14.7908
niq	-14.7911
▁NCIJ	-14.7914
▁guru	-14.7915
▁eind	-14.7915
▁zac	-14.7916
▁eše	-14.7918
▁Meg	-14.7921
ston	-14.7924
▁Lie	-14.7924
▁hysi	-14.7926
▁hus	-14.7926
▁olen	-14.794
IČE	-14.7948
RŽA	-14.7948
▁Yul	-14.7954
▁losi	-14.7959
▁PAN	-14.7959
▁eys	-14.7962
▁alot	-14.7964
▁Ard	-14.7968
▁apama	-14.7968
ovima	-14.7969
▁Miu	-14.7973
ato	-14.7978
use	-14.798
ezen	-14.7994
▁EVI	-14.7999
mili	-14.8005
FOR	-14.8008
▁Bah	-14.8008
▁wege	-14.8009
euro	-14.801
▁Ok	-14.8012
dis	-14.8022
ŠE	-14.8024
krit	-14.8024
▁jog	-14.8025
2)	-14.8026
▁Kabi	-14.803
▁bot	-14.803
▁Ashe	-14.8035
onda	-14.8035
▁JK	-14.8037
▁Ate	-14.8037
▁IŠ	-14.8038
HZ	-14.8045
VNI	-14.8046
/-	-14.8046
▁Bum	-14.8049
▁Lep	-14.8051
▁Zeba	-14.8052
dev	-14.8053
džo	-14.8056
WC	-14.8061
▁GRO	-14.8071
LIĆ	-14.8074
efa	-14.8081
▁kolj	-14.8085
ANO	-14.8087
▁Hof	-14.8088
▁izou	-14.8088
kut	-14.8091
▁žira	-14.8092
hib	-14.81
igu	-14.81
▁Žan	-14.8111
▁MIS	-14.8113
▁Dud	-14.8117
ebr	-14.812
▁8)	-14.8124
▁04	-14.8125
▁mpe	-14.8127
stvar	-14.8128
▁VČA	-14.8135
▁njo	-14.8139
rub	-14.8142
račun	-14.8143
▁fir	-14.8144
▁ô	-14.8146
druš	-14.8154
▁Molv	-14.8159
šur	-14.8161
▁icok	-14.8162
iže	-14.8166
▁RET	-14.8172
pla	-14.8172
AF	-14.8175
EKT	-14.8179
wee	-14.818
msk	-14.8183
rener	-14.8186
Me	-14.8195
▁uric	-14.8198
rla	-14.8201
▁ERI	-14.8204
▁cude	-14.8208
▁ár	-14.8209
oti	-14.821
ađar	-14.8211
nke	-14.8213
▁otv	-14.8216
film	-14.8227
▁opr	-14.8231
▁Faru	-14.8231
▁ött	-14.8234
▁oso	-14.8242
ñe	-14.8242
▁heli	-14.8242
MK	-14.8249
šum	-14.825
sla	-14.825
▁mrz	-14.8252
ATC	-14.8253
eša	-14.8254
▁HMN	-14.8255
▁Rami	-14.8257
▁Kure	-14.8271
ø	-14.8274
▁adiz	-14.8276
riječ	-14.8278
▁LEN	-14.8278
▁Pope	-14.8281
erbe	-14.8282
klub	-14.8284
▁File	-14.8285
▁ulp	-14.8288
ječn	-14.8289
py	-14.8289
▁RO	-14.829
kaš	-14.8293
minu	-14.8297
▁EPO	-14.8298
LP	-14.8298
▁MA	-14.83
▁ietr	-14.8301
▁utj	-14.8301
▁hope	-14.8302
▁usl	-14.8311
HRA	-14.8311
CM	-14.8314
olo	-14.8324
aper	-14.833
uet	-14.833
82	-14.8332
FO	-14.8341
▁disc	-14.8345
▁ruc	-14.8345
luž	-14.8346
ilm	-14.8348
▁Hom	-14.8354
mnog	-14.8355
▁WS	-14.8361
▁NJ	-14.8362
uca	-14.8363
▁Ahl	-14.8366
▁NKO	-14.8367
▁ešč	-14.8367
ožđ	-14.8368
▁urt	-14.837
▁WD	-14.8371
ukn	-14.8373
▁KUP	-14.8376
niž	-14.8379
els	-14.838
▁uay	-14.8383
fur	-14.8386
jaht	-14.8394
▁hia	-14.84
ptu	-14.8402
▁BIO	-14.8407
ušk	-14.8407
▁LNI	-14.8409
Ivan	-14.8411
fra	-14.8416
▁Asp	-14.8418
▁lave	-14.8419
▁IHR	-14.8419
fy	-14.8422
▁ORTA	-14.8425
▁ULA	-14.8426
uda	-14.8428
▁quer	-14.843
yem	-14.8431
▁Lei	-14.8442
▁Gu	-14.8443
uđe	-14.8445
nca	-14.8453
dor	-14.8454
▁Roš	-14.8456
▁Gid	-14.8456
sjed	-14.8463
▁nata	-14.8467
ise	-14.847
î	-14.847
aba	-14.8474
uće	-14.8477
UT	-14.8483
▁MOJ	-14.8488
▁Nic	-14.8499
HE	-14.8502
▁Sahr	-14.8503
▁Hun	-14.851
▁OTR	-14.8511
thy	-14.8514
▁alež	-14.8515
▁TAJ	-14.852
▁FUN	-14.8523
izir	-14.8525
orda	-14.8548
▁EDA	-14.8551
`	-14.8555
ą	-14.8555
ο	-14.8555
ς	-14.8555
⁠	-14.8555
▁aş	-14.8555
▁eşi	-14.8555
📌	-14.8555
ří	-14.8555
▁bahç	-14.8555
▁>>	-14.8556
▁WASP	-14.8556
▁Gable	-14.8561
VAK	-14.8561
LJ	-14.8562
▁oğ	-14.8563
▁gunđ	-14.8566
▁Fahd	-14.8571
▁Pahor	-14.8571
▁Hyde	-14.8571
mage	-14.8572
▁63)	-14.8574
▁RAM	-14.8574
esar	-14.8575
▁hid	-14.8576
▁CAF	-14.8577
▁EPF	-14.8578
▁vík	-14.8581
▁Games	-14.8582
▁SAMO	-14.8582
veći	-14.8582
SKY	-14.8586
UKA	-14.8586
▁OZIV	-14.8587
▁fug	-14.8588
ijan	-14.8595
▁glia	-14.8595
oler	-14.8596
▁€)	-14.8596
▁Hå	-14.8597
▁6-0	-14.8599
▁Niñ	-14.86
VH	-14.8606
▁JUDI	-14.8606
old	-14.8608
▁ract	-14.8608
▁guze	-14.8613
▁TZG	-14.8614
▁AMET	-14.8614
▁ynn	-14.8615
▁348	-14.8616
medi	-14.8617
▁tür	-14.862
▁UTF	-14.8621
▁Water	-14.8621
▁mech	-14.8622
▁2/	-14.8623
▁Arn	-14.8625
▁Cap	-14.863
▁Zn	-14.8636
VICA	-14.8637
▁andhi	-14.864
▁mans	-14.8641
ubl	-14.8642
jac	-14.8642
eym	-14.8643
▁❤	-14.8644
▁skop	-14.8644
▁Age	-14.865
ogl	-14.8653
▁WTC	-14.8658
čni	-14.8659
▁guch	-14.8662
▁19'	-14.8662
ARP	-14.8664
isto	-14.8668
".	-14.8669
aktiv	-14.867
▁iroud	-14.8671
ište	-14.8677
▁writ	-14.8679
▁Adap	-14.868
▁mape	-14.8684
au	-14.8685
▁Bapt	-14.8687
▁erho	-14.8695
97	-14.8695
▁NJI	-14.8698
▁kay	-14.87
umf	-14.8703
▁tpu	-14.8704
▁ANA	-14.8705
sce	-14.8707
▁OTK	-14.871
▁zesn	-14.8711
Dr	-14.8711
▁pdf	-14.8714
▁öp	-14.8715
▁rept	-14.8718
▁hv	-14.8719
1'	-14.8721
▁Ted	-14.8728
▁cafe	-14.873
enci	-14.8732
kvar	-14.8732
▁303	-14.8733
epar	-14.8733
▁FN	-14.8734
▁Yuri	-14.8737
▁CG	-14.8739
▁FIG	-14.874
EEN	-14.8745
▁ucc	-14.8746
▁onway	-14.8747
▁(7.	-14.8748
▁Nede	-14.8751
utk	-14.8751
▁alza	-14.8752
▁(3.	-14.8753
▁meid	-14.8753
▁entl	-14.8755
NIS	-14.8756
▁Cip	-14.8757
▁FMF	-14.8766
OVA	-14.8766
zlje	-14.8768
udar	-14.8772
ahn	-14.8773
bes	-14.8773
BG	-14.8774
uža	-14.8776
rita	-14.8777
tiš	-14.8782
▁KV	-14.8789
▁not	-14.879
▁ušč	-14.8791
žic	-14.8791
▁inus	-14.8794
▁drie	-14.8796
▁beru	-14.8801
pac	-14.8802
▁RX	-14.8807
HIP	-14.8811
▁NSK	-14.8811
▁anze	-14.8819
▁THA	-14.8824
ZP	-14.8828
▁Argy	-14.8829
▁NSAI	-14.8833
▁midi	-14.8835
▁Hull	-14.8836
▁mize	-14.8836
▁afr	-14.8837
▁rawl	-14.8837
▁BTC	-14.8837
ån	-14.8838
▁uzm	-14.8842
zap	-14.8842
▁Fago	-14.8849
▁loba	-14.8852
▁Brze	-14.8853
LD	-14.8854
▁IFC	-14.8855
▁buđ	-14.8861
ovrč	-14.8863
▁RAVA	-14.8865
▁kuli	-14.8865
▁Bal	-14.8883
▁Kvir	-14.8883
HR	-14.8884
▁Acu	-14.8884
▁elé	-14.8889
▁aune	-14.889
ukl	-14.8893
OMA	-14.8893
▁03.	-14.8895
▁ippo	-14.89
▁Lim	-14.8913
▁ERN	-14.8913
▁mig	-14.8914
kap	-14.8915
▁äär	-14.8922
▁Made	-14.8927
▁Arca	-14.8927
▁Bac	-14.8927
▁Act	-14.8927
▁LIG	-14.8927
aše	-14.8928
rys	-14.8931
LCA	-14.8938
▁tepa	-14.8942
▁azoh	-14.8949
▁ett	-14.8951
ú	-14.8956
▁UKU	-14.8956
luba	-14.8958
▁USS	-14.8958
▁isla	-14.8961
▁HUD	-14.8963
PE	-14.8966
▁Envi	-14.8968
ehar	-14.8968
▁wain	-14.8971
▁Fau	-14.8973
anas	-14.8975
▁tiz	-14.8977
▁Agn	-14.8977
ojn	-14.898
▁BAS	-14.8981
▁DEN	-14.8984
▁žejl	-14.8988
aži	-14.8994
▁metež	-14.8994
▁Ole	-14.8995
▁FR	-14.8998
▁onde	-14.9
Il	-14.9003
▁othe	-14.9008
▁veto	-14.9015
▁AJ	-14.9018
ačun	-14.9027
ijama	-14.904
▁awa	-14.9043
▁uckse	-14.9044
VIJE	-14.9048
rijed	-14.9051
▁DMA	-14.9051
njima	-14.9052
9,	-14.9054
▁eamu	-14.9056
▁ebre	-14.9062
knu	-14.9064
▁ursi	-14.9064
▁Lai	-14.9075
▁adag	-14.9076
▁šapa	-14.9076
▁lotu	-14.9076
▁Fedo	-14.908
▁rcol	-14.908
▁ofob	-14.9083
drugi	-14.9084
▁Fry	-14.9085
avel	-14.9085
▁tn	-14.9089
▁Baj	-14.9092
▁ekte	-14.9093
ikad	-14.9094
▁Dul	-14.9096
▁EA	-14.9109
▁PV	-14.911
Sve	-14.9114
wil	-14.9115
▁ayd	-14.9116
▁rzy	-14.9116
▁iman	-14.9124
SO	-14.913
▁Mimo	-14.9131
nosno	-14.9135
viv	-14.9136
▁Dam	-14.9141
▁Urbi	-14.9147
YT	-14.9156
▁Papu	-14.9159
▁ILO	-14.9163
kazu	-14.9165
▁DeR	-14.9168
▁LI	-14.9168
▁Argo	-14.9169
▁Cry	-14.9169
olf	-14.9175
▁agne	-14.9179
▁lv	-14.919
▁dab	-14.9193
▁rase	-14.9193
▁aškaj	-14.9194
▁ćir	-14.92
nin	-14.921
▁OVAR	-14.9216
neće	-14.9217
▁ania	-14.9219
6€	-14.9223
napad	-14.9225
eško	-14.9226
▁owle	-14.9227
budu	-14.9242
atit	-14.9244
▁Kubu	-14.9251
▁cacc	-14.9254
egd	-14.9264
▁olè	-14.9269
▁ilde	-14.927
esec	-14.9273
▁ouma	-14.9273
oat	-14.9277
oče	-14.9278
▁Avil	-14.9288
utin	-14.929
ijest	-14.9306
gie	-14.9309
▁heit	-14.9309
weg	-14.9313
▁inkv	-14.9315
▁-5	-14.9317
ević	-14.9318
▁opp	-14.932
ivi	-14.9321
▁Zup	-14.9326
▁Klik	-14.9328
ujuć	-14.933
▁rača	-14.9332
▁PH	-14.9333
▁Deli	-14.9334
▁Unu	-14.9335
▁tukn	-14.9337
▁jenj	-14.9338
ciju	-14.9338
▁IA	-14.9351
▁Nil	-14.9353
fri	-14.9354
▁TU	-14.9354
etz	-14.9356
▁kičm	-14.9357
79	-14.9358
ops	-14.9359
aču	-14.9365
▁UKL	-14.9366
*	-14.9366
muz	-14.9366
▁Yug	-14.9373
▁BAR	-14.9377
▁Koul	-14.9386
hy	-14.9387
mati	-14.939
ens	-14.9391
AZ	-14.9392
▁Robo	-14.9403
irao	-14.9406
▁use	-14.941
ugo	-14.941
▁ordu	-14.9416
odul	-14.9418
▁SRB	-14.9422
▁udry	-14.943
▁aida	-14.9432
CP	-14.9436
oge	-14.9438
à	-14.9446
arte	-14.945
▁Whi	-14.9451
▁GRA	-14.9451
▁Mem	-14.9452
ROF	-14.9457
puta	-14.9458
didat	-14.9459
rami	-14.9464
služ	-14.9465
▁uzzo	-14.9471
žit	-14.9477
vk	-14.9478
▁PUS	-14.9479
▁ál	-14.9487
▁ancho	-14.9494
▁wy	-14.9497
ajt	-14.9501
▁arog	-14.9503
SR	-14.9509
ESA	-14.9509
▁alci	-14.9512
Gr	-14.9513
▁Four	-14.9516
NAS	-14.9519
▁sne	-14.952
ehn	-14.9523
▁INU	-14.9527
▁udge	-14.9527
▁lil	-14.9529
Kad	-14.9531
gru	-14.9533
abi	-14.9535
▁If	-14.9538
jug	-14.9539
obio	-14.9548
tent	-14.9552
▁irt	-14.9552
▁uel	-14.9557
▁Yar	-14.9559
▁PAR	-14.9561
▁ewit	-14.9563
krat	-14.9564
▁dac	-14.9565
▁ejp	-14.9569
▁HDSS	-14.9578
▁emb	-14.958
▁Osak	-14.9587
rgen	-14.9588
▁kič	-14.959
▁ISM	-14.9598
ür	-14.9598
▁epč	-14.96
▁Azu	-14.9604
▁Gus	-14.9608
ijom	-14.9609
Pol	-14.9611
▁ques	-14.9612
šč	-14.9615
hot	-14.9622
eže	-14.9623
▁ła	-14.9623
▁UR	-14.9627
cir	-14.9628
esta	-14.9632
dnost	-14.9642
err	-14.9642
KOD	-14.9642
▁čaju	-14.9644
▁VL	-14.9646
ići	-14.9649
lod	-14.9655
acija	-14.9658
▁zec	-14.966
▁miža	-14.9661
▁oho	-14.9661
iln	-14.9661
▁DSR	-14.9661
▁Ine	-14.9666
▁lana	-14.9674
▁tries	-14.9678
esa	-14.9678
▁ukno	-14.9681
aus	-14.9688
▁hub	-14.9691
▁Silk	-14.9692
▁neč	-14.9697
▁OPA	-14.9703
▁ušav	-14.9703
▁Sass	-14.9708
▁ćać	-14.9711
▁yet	-14.9712
▁LUK	-14.9712
sj	-14.9712
▁reto	-14.9715
▁urki	-14.9716
cig	-14.972
▁ajda	-14.972
ZV	-14.972
are	-14.9724
▁deg	-14.9728
šu	-14.973
MR	-14.973
any	-14.9736
OPA	-14.9749
▁Xh	-14.975
▁horp	-14.9752
VK	-14.9755
gost	-14.9758
inan	-14.9758
▁spa	-14.9765
lić	-14.9771
zg	-14.9771
▁Job	-14.9776
jka	-14.9784
▁Dah	-14.9786
▁Rho	-14.979
▁irot	-14.9793
▁essa	-14.9801
arb	-14.9803
nor	-14.9807
▁POK	-14.981
erm	-14.9811
▁AND	-14.9814
▁occi	-14.9832
prat	-14.9836
rmi	-14.9837
54	-14.9846
aro	-14.9848
▁acia	-14.9853
maz	-14.9854
▁ŠOK	-14.9856
dobr	-14.9858
▁Arg	-14.986
ške	-14.9865
▁Debo	-14.9871
emok	-14.9873
▁eshi	-14.9879
▁hn	-14.9903
▁Kot	-14.9903
poli	-14.9907
▁ú	-14.991
komp	-14.9912
▁jagu	-14.9916
▁ELO	-14.9919
▁athe	-14.9923
▁Pepu	-14.9931
▁ith	-14.9931
▁tore	-14.9933
obe	-14.9935
LY	-14.9935
▁éle	-14.9941
▁eber	-14.9942
ła	-14.9943
law	-14.9944
vrl	-14.9945
cilj	-14.9951
▁alv	-14.9953
▁risak	-14.9954
▁Gub	-14.9956
▁oiss	-14.9957
▁Aide	-14.9962
▁öst	-14.9962
verc	-14.9966
req	-14.9969
▁yna	-14.9974
woo	-14.9975
žd	-14.9976
aris	-14.9984
ROS	-14.9987
▁LN	-14.9989
▁Wo	-14.999
▁Bane	-14.9997
▁muze	-14.9998
▁leš	-14.9998
▁SNI	-15.0002
šar	-15.0004
▁IAM	-15.0006
▁Bell	-15.0007
▁nta	-15.0013
II	-15.0023
rata	-15.0024
irati	-15.0027
šak	-15.0031
RE	-15.0035
▁Kra	-15.0043
▁RUG	-15.0045
▁Foo	-15.0046
▁Haas	-15.0048
čeka	-15.006
▁oly	-15.0066
▁arbe	-15.0071
igi	-15.0073
▁chy	-15.0082
▁kto	-15.0089
▁gumi	-15.0096
važn	-15.0102
lada	-15.0102
čad	-15.0103
xx	-15.0104
▁vc	-15.011
ida	-15.0113
▁CMA	-15.0116
▁TA	-15.0118
▁ĆE	-15.0119
▁PIS	-15.0132
DIO	-15.0137
ü	-15.0142
▁RAJ	-15.0142
â	-15.0144
▁ebas	-15.0151
▁Hem	-15.0167
UĆI	-15.0175
▁е	-15.0181
dent	-15.0185
▁hisa	-15.0191
▁eldo	-15.0192
Tako	-15.0198
oru	-15.0198
▁enev	-15.0201
TT	-15.0202
AR	-15.0207
▁ague	-15.0209
liš	-15.0214
▁Unit	-15.0215
▁Alab	-15.022
ROT	-15.0221
▁rifo	-15.023
▁eatt	-15.023
▁andž	-15.0231
▁ynd	-15.0237
▁PEP	-15.024
▁maka	-15.0242
ikom	-15.0246
▁moda	-15.0248
zni	-15.0262
itar	-15.0266
▁ENN	-15.0267
CN	-15.0267
EW	-15.0267
▁mill	-15.0276
LT	-15.0277
hind	-15.0289
enne	-15.0297
rome	-15.0304
MV	-15.0304
▁sek	-15.0313
▁hape	-15.0313
▁ojar	-15.0318
new	-15.0319
rao	-15.032
OST	-15.0327
▁alus	-15.0328
▁ERA	-15.0328
▁Đon	-15.0328
Ka	-15.0338
agh	-15.0341
erge	-15.0343
▁UH	-15.0347
▁usre	-15.0348
poče	-15.0353
▁chin	-15.0358
▁joke	-15.0358
▁yu	-15.036
▁MPO	-15.0365
▁8:	-15.0369
9.	-15.037
sobe	-15.0371
▁fai	-15.0371
▁beb	-15.0373
enis	-15.0378
▁hind	-15.0378
▁Kob	-15.0382
▁eye	-15.0386
▁mađ	-15.0391
rna	-15.0394
▁reči	-15.0396
▁veg	-15.0407
▁jay	-15.0415
uga	-15.0418
ρ	-15.0419
CT	-15.0421
TRO	-15.0423
▁Upp	-15.0427
▁7:	-15.0427
ukov	-15.0428
▁Fri	-15.0432
nuk	-15.0438
uči	-15.0438
LAT	-15.0441
▁HUO	-15.0443
▁ANIJ	-15.0447
▁rma	-15.0451
▁Sale	-15.0454
LAG	-15.0455
▁urse	-15.0457
ml	-15.0464
▁KF	-15.0466
ERS	-15.0467
XX	-15.0469
▁drap	-15.0471
▁KI	-15.0472
zakon	-15.0472
vode	-15.0474
PŠ	-15.0476
▁SAR	-15.0479
▁angu	-15.0481
narod	-15.0484
▁erak	-15.0486
▁ML	-15.049
ruga	-15.0496
itz	-15.0496
▁MBO	-15.0498
brin	-15.0498
▁effe	-15.0498
▁bip	-15.0507
STA	-15.0512
▁jiva	-15.0512
vy	-15.0513
▁dosa	-15.0521
▁EES	-15.0524
PZO	-15.0525
vlas	-15.0528
žni	-15.0528
arth	-15.0538
▁BUD	-15.054
pjes	-15.0555
ivo	-15.0556
▁6-	-15.0556
dbe	-15.0559
▁gong	-15.0561
EI	-15.0562
▁Pub	-15.0566
▁ollo	-15.0574
▁ongi	-15.0574
▁Zib	-15.0576
▁vuc	-15.058
▁är	-15.0583
unk	-15.0583
IES	-15.0583
▁path	-15.0585
▁JAS	-15.0587
▁PSO	-15.059
elf	-15.0591
tima	-15.0594
lil	-15.0594
▁üd	-15.0595
▁Gust	-15.0596
▁irl	-15.0599
▁Pais	-15.0601
3)	-15.0601
▁Fide	-15.0607
▁aqua	-15.0607
▁ecch	-15.061
▁dow	-15.0615
AFI	-15.0617
odlu	-15.0623
Ov	-15.0625
ope	-15.0627
▁OCI	-15.0633
anal	-15.0636
7)	-15.0636
▁Dema	-15.0637
▁REN	-15.0642
oku	-15.0643
prvak	-15.0645
93	-15.0648
▁WE	-15.0649
LET	-15.0651
▁erdu	-15.0655
nnie	-15.0659
▁Bed	-15.0662
jno	-15.0678
atl	-15.0678
ña	-15.068
▁arča	-15.0682
▁Dik	-15.0683
TANA	-15.0691
▁aq	-15.0691
▁EMO	-15.0695
▁Dej	-15.0695
▁bubr	-15.0695
sebno	-15.0696
▁Yus	-15.0697
▁Ala	-15.0698
čep	-15.0699
Grad	-15.0699
Bay	-15.0712
▁udl	-15.0723
fL	-15.0726
▁ines	-15.073
▁-7	-15.0731
▁Peta	-15.0733
▁naut	-15.0733
ljub	-15.0745
stati	-15.0752
▁molj	-15.0752
▁NPO	-15.0754
tj	-15.0754
▁Ett	-15.0755
▁Đuka	-15.076
▁CES	-15.0762
öm	-15.0764
▁edže	-15.0765
PRO	-15.0772
Car	-15.079
ät	-15.0792
drža	-15.0793
▁rstv	-15.0797
á	-15.08
glaz	-15.0802
dine	-15.0802
▁Clif	-15.0803
▁eleb	-15.0805
ppl	-15.0806
▁NU	-15.0809
LG	-15.0822
ebi	-15.0823
▁Whe	-15.0827
▁!!	-15.0827
▁hyb	-15.0829
Međ	-15.0834
▁urbe	-15.0836
hađ	-15.0847
▁Coh	-15.0849
iru	-15.085
▁otto	-15.0851
▁tefo	-15.0855
Mila	-15.0855
jman	-15.0855
eng	-15.0857
INT	-15.0864
▁nsig	-15.0865
Te	-15.0872
▁Meši	-15.0883
▁oul	-15.0883
API	-15.0896
▁Pik	-15.09
▁roph	-15.0914
buk	-15.0929
mobil	-15.0939
imu	-15.0942
ouch	-15.0942
▁OST	-15.0953
ERI	-15.0964
TUP	-15.0976
▁UIR	-15.098
▁OZ	-15.0981
üh	-15.0985
▁udet	-15.0989
OJA	-15.099
▁iner	-15.0991
rtin	-15.0994
ntar	-15.0995
▁yb	-15.0995
tvari	-15.1001
naz	-15.1005
▁TAR	-15.1007
tlj	-15.1007
staje	-15.101
MAS	-15.1013
GRA	-15.1016
▁RSK	-15.1019
ezi	-15.1021
▁disi	-15.1025
šest	-15.1029
▁SIN	-15.1029
▁VRT	-15.1031
chot	-15.1033
KM	-15.1038
ĐE	-15.1039
▁Á	-15.104
:7	-15.1043
Ó	-15.1055
ț	-15.1055
̈	-15.1055
о	-15.1055
ṣ	-15.1055
‒	-15.1055
▁<<<	-15.1055
▁♥	-15.1055
▁🇺	-15.1055
▁👀	-15.1055
⚠	-15.1055
⚽	-15.1055
	-15.1055
▁Å	-15.1055
dugo	-15.1056
▁aygun	-15.1057
▁ophé	-15.1057
▁öck	-15.1058
▁FVS	-15.106
▁OSTA	-15.1062
obran	-15.1062
def	-15.1063
▁LORI	-15.1065
▁30€	-15.1066
osoba	-15.1066
▁BFM	-15.1069
NNA	-15.107
▁ARLA	-15.107
▁Áng	-15.107
elo	-15.1074
avaju	-15.1075
▁Kouao	-15.1075
▁oost	-15.1075
▁wir	-15.1077
▁DLUK	-15.1084
ĐA	-15.1085
▁PORT	-15.1087
▁wid	-15.1088
▁66)	-15.109
▁NLM	-15.1091
▁RR	-15.1094
▁Haif	-15.1094
▁STI	-15.1095
▁save	-15.1096
▁Movie	-15.1096
abu	-15.1098
▁WIF	-15.1102
▁ckyt	-15.1102
EDNI	-15.1103
▁DKP	-15.1103
ğlu	-15.1106
teks	-15.1108
▁CPC	-15.1108
ouge	-15.1108
▁Bou	-15.1109
▁GIF	-15.111
▁Djou	-15.1111
UST	-15.1112
▁nig	-15.1115
▁NG	-15.1119
▁ülle	-15.1124
▁7-0	-15.1125
▁Ewin	-15.113
▁392	-15.113
kuć	-15.1132
ARE	-15.1132
jesec	-15.1135
▁Đuk	-15.1142
▁BOG	-15.1143
▁eep	-15.1145
fak	-15.1146
bivš	-15.1149
▁HGS	-15.1153
▁TD	-15.1155
bla	-15.1157
▁ühn	-15.1159
fik	-15.1162
stol	-15.1162
▁μ	-15.1168
▁aRPH	-15.1168
▁zd	-15.117
▁PPV	-15.1171
AFA	-15.1174
▁DNOS	-15.1175
▁nau	-15.1176
uče	-15.1179
elom	-15.118
▁gym	-15.1181
▁IKOL	-15.1181
▁179	-15.1184
mijer	-15.1187
▁afra	-15.1188
▁anki	-15.1196
▁Dyk	-15.1197
CCC	-15.1201
▁Rav	-15.1203
üll	-15.1203
▁SEE	-15.1204
ista	-15.1205
laga	-15.1206
HDZ	-15.1206
▁SAS	-15.1207
mr	-15.1208
▁owler	-15.1209
laču	-15.121
▁idd	-15.121
▁NHC	-15.1213
▁IJ	-15.1214
▁SKOR	-15.1214
▁22)	-15.1217
▁ANJA	-15.1219
▁UMA	-15.122
▁1"	-15.1223
yn	-15.1226
kn	-15.1227
▁JEŠ	-15.1227
ROMO	-15.1228
CSI	-15.123
▁nokta	-15.1232
▁NHL	-15.1234
▁Ade	-15.1234
kab	-15.1237
▁hée	-15.124
▁gole	-15.1241
▁AVNO	-15.1244
roda	-15.1246
▁oste	-15.1246
ulle	-15.1249
atak	-15.1249
▁vite	-15.1253
▁IZAM	-15.1257
veden	-15.1258
▁lthe	-15.1259
▁CEP	-15.1263
itua	-15.1265
TER	-15.1265
▁OZE	-15.1268
PI	-15.127
jesta	-15.1273
svim	-15.1273
icama	-15.1274
jever	-15.1277
▁OHO	-15.1278
▁XXII	-15.1283
▁mich	-15.1284
▁fit	-15.1284
ror	-15.1289
▁Ann	-15.1292
cem	-15.1295
▁cifru	-15.1298
▁GRAD	-15.1304
COM	-15.1308
▁SIC	-15.1309
STO	-15.1313
wyn	-15.1317
▁awe	-15.1317
▁ndž	-15.1324
▁BAM	-15.1325
▁Thr	-15.1326
▁URNI	-15.1327
▁BOJ	-15.1329
imati	-15.1332
▁🇷	-15.1332
▁🇸	-15.1332
▁Jahj	-15.1333
Fi	-15.1337
▁škak	-15.1339
▁njuš	-15.134
▁Đape	-15.1341
▁Cin	-15.1341
▁irlf	-15.1342
▁STAV	-15.1348
▁erde	-15.1348
▁vbas	-15.135
rdi	-15.135
▁erhi	-15.1351
▁icho	-15.1353
▁sif	-15.1356
▁RVO	-15.1358
kraju	-15.1359
▁Zubi	-15.136
efe	-15.136
afer	-15.1363
wei	-15.1364
▁tins	-15.1364
▁ELIN	-15.1368
▁ilda	-15.1372
▁isse	-15.1372
▁oros	-15.1372
▁OSJE	-15.1375
▁okov	-15.1375
▁bon	-15.1376
▁amia	-15.1377
Afe	-15.1378
▁grm	-15.138
▁ULO	-15.1383
▁DER	-15.1388
▁eoff	-15.1388
stir	-15.1391
▁SUZ	-15.1391
▁INS	-15.1395
▁reu	-15.1396
▁NIC	-15.1396
rtal	-15.1402
oka	-15.1403
metar	-15.1404
▁Greb	-15.1404
▁čoke	-15.1405
▁MET	-15.1408
▁ŠČ	-15.1408
AVE	-15.1408
tehn	-15.1409
▁PER	-15.1411
▁aï	-15.1412
▁ione	-15.1416
▁žab	-15.1417
▁asli	-15.142
▁Ansa	-15.1431
▁Erh	-15.1432
seks	-15.1434
▁drig	-15.1434
▁2.)	-15.1435
šil	-15.1436
▁aré	-15.1441
egr	-15.1442
▁Klim	-15.1443
▁pse	-15.1445
▁wok	-15.1452
ubo	-15.1458
▁lahi	-15.1459
▁Wisl	-15.1459
▁itel	-15.1459
PET	-15.146
uva	-15.1463
▁icked	-15.1464
ANJ	-15.1465
agl	-15.1466
ital	-15.147
gem	-15.1475
▁ohl	-15.1476
▁rya	-15.1486
▁ANIM	-15.1487
▁EDIJ	-15.149
teško	-15.1492
▁SLA	-15.1498
▁ase	-15.1502
osan	-15.1511
IRN	-15.1512
▁IRAL	-15.1513
vl	-15.1514
ogled	-15.1516
▁TVA	-15.1517
riča	-15.1518
sreć	-15.152
Rije	-15.1522
▁SUM	-15.1524
▁lohe	-15.1525
inamo	-15.1536
rud	-15.1547
eze	-15.1548
BRE	-15.1548
▁Ét	-15.1555
inus	-15.1555
moga	-15.156
ILJ	-15.1572
▁iksir	-15.1573
▁ggio	-15.1579
▁SAB	-15.1581
▁PAD	-15.1585
tam	-15.1593
▁eode	-15.1597
Nov	-15.1604
usret	-15.1606
imb	-15.1606
UME	-15.1613
večer	-15.1617
▁Esse	-15.1618
▁LU	-15.1618
▁HPS	-15.1622
▁pero	-15.1622
rano	-15.1626
ano	-15.1632
ekr	-15.1633
▁AKA	-15.1634
åt	-15.1636
ones	-15.164
rps	-15.1641
can	-15.1641
bry	-15.1645
▁itiv	-15.1646
▁IDA	-15.1649
daha	-15.165
▁ç	-15.1652
▁ukc	-15.1654
▁cake	-15.1656
▁ño	-15.1656
▁Yut	-15.1661
▁ürn	-15.1671
part	-15.1676
▁eco	-15.1677
ars	-15.1677
▁GSM	-15.1678
▁Aha	-15.1678
svih	-15.1681
bri	-15.1687
tho	-15.1691
▁data	-15.1691
agal	-15.1692
ask	-15.1699
Pre	-15.17
▁IGE	-15.1703
ultu	-15.1706
▁utov	-15.1709
▁Firm	-15.1725
▁mied	-15.1726
▁quat	-15.1728
▁Čem	-15.1731
▁Moll	-15.1736
▁DRV	-15.1747
▁RC	-15.1747
SKO	-15.175
dle	-15.1751
▁EKV	-15.1751
▁noks	-15.1754
▁oo	-15.1756
▁CBD	-15.1757
▁ramet	-15.1758
zla	-15.176
Split	-15.1765
inh	-15.1767
▁Jamč	-15.1768
▁ejdo	-15.1768
▁aide	-15.1774
▁aise	-15.1776
LPR	-15.1781
SJ	-15.1781
znan	-15.1782
▁roto	-15.1785
ozn	-15.179
▁asem	-15.1794
nikad	-15.1796
▁IME	-15.1796
▁jad	-15.1799
▁ARKO	-15.1802
ote	-15.1804
orse	-15.1804
▁wend	-15.1808
▁uehi	-15.1813
▁uzzl	-15.1814
áz	-15.1833
▁OGIJ	-15.1834
▁Weil	-15.1839
yff	-15.1845
akl	-15.1846
rcy	-15.1847
leč	-15.1848
▁RIZ	-15.1865
▁WI	-15.1866
njega	-15.1871
▁auka	-15.1872
▁ilvi	-15.1875
▁occ	-15.188
irk	-15.1881
sis	-15.1886
čic	-15.1889
▁Krmp	-15.1892
▁olla	-15.1894
▁uffe	-15.1898
▁Alg	-15.1908
traj	-15.191
CME	-15.1911
era	-15.1912
▁ranc	-15.1915
▁apu	-15.1919
▁asda	-15.1922
dvo	-15.1926
▁rous	-15.1927
ROD	-15.1936
vac	-15.1938
▁(1.	-15.1941
rze	-15.1942
▁hno	-15.1943
gađa	-15.1948
▁Ag	-15.1952
▁suk	-15.1954
ečk	-15.1955
Mo	-15.1956
▁anno	-15.1957
ulis	-15.1958
▁Rid	-15.1968
▁kono	-15.1984
▁UP	-15.1985
▁VICA	-15.1986
▁radl	-15.1986
ađe	-15.1988
▁štv	-15.1991
▁Mokr	-15.1993
▁jadan	-15.1994
SIP	-15.1995
nq	-15.1998
▁risp	-15.1999
▁OMC	-15.1999
▁Figa	-15.2004
KP	-15.2006
rbin	-15.2019
psy	-15.2019
ryp	-15.2025
▁DIS	-15.2037
sal	-15.2042
CU	-15.2045
▁agua	-15.2047
▁HKU	-15.2055
▁PRA	-15.2061
▁RŽA	-15.2062
▁leđ	-15.2066
štr	-15.2068
isli	-15.2069
▁NTE	-15.207
▁Ćev	-15.207
▁Ort	-15.2071
rped	-15.2072
▁učar	-15.2073
▁gw	-15.2076
▁cend	-15.2077
agen	-15.2078
▁BOL	-15.208
▁ute	-15.2081
[...]
