<unk>	0
<s>	0
</s>	0
je	-0
▁s	-1
▁p	-2
na	-3
ra	-4
▁i	-5
ko	-6
ni	-7
ti	-8
▁d	-9
▁o	-10
▁u	-11
no	-12
▁je	-13
li	-14
re	-15
ro	-16
ta	-17
la	-18
va	-19
ri	-20
▁na	-21
ja	-22
ka	-23
ne	-24
▁po	-25
ma	-26
te	-27
vi	-28
to	-29
▁z	-30
vo	-31
▁b	-32
ca	-33
▁m	-34
ju	-35
di	-36
ji	-37
ve	-38
▁za	-39
▁ko	-40
ci	-41
da	-42
lo	-43
go	-44
▁se	-45
▁da	-46
▁su	-47
▁a	-48
▁do	-49
st	-50
ru	-51
mo	-52
▁ne	-53
le	-54
ki	-55
nje	-56
▁od	-57
▁ka	-58
ku	-59
nu	-60
▁iz	-61
▁bi	-62
▁t	-63
me	-64
▁pro	-65
sta	-66
ga	-67
ke	-68
▁P	-69
▁S	-70
▁sa	-71
će	-72
sti	-73
ron	-74
caron	-75
▁ra	-76
▁pre	-77
▁pri	-78
▁M	-79
mi	-80
▁N	-81
zi	-82
bi	-83
lje	-84
lu	-85
nja	-86
či	-87
če	-88
▁mo	-89
po	-90
de	-91
▁š	-92
▁D	-93
▁g	-94
▁k	-95
pa	-96
tu	-97
cu	-98
ce	-99
ba	-100
bo	-101
▁to	-102
si	-103
▁go	-104
▁B	-105
▁te	-106
▁ni	-107
▁K	-108
sko	-109
▁re	-110
že	-111
▁v	-112
za	-113
▁T	-114
ča	-115
sa	-116
▁koji	-117
▁H	-118
ski	-119
ći	-120
▁I	-121
še	-122
ccaron	-123
▁O	-124
▁U	-125
ži	-126
▁A	-127
lja	-128
du	-129
do	-130
pi	-131
sto	-132
▁1	-133
gu	-134
▁V	-135
▁će	-136
gra	-137
jo	-138
▁R	-139
▁"	-140
▁mi	-141
lju	-142
▁no	-143
▁2	-144
nji	-145
▁ve	-146
▁vi	-147
▁e	-148
cute	-149
cacute	-150
se	-151
nom	-152
▁pa	-153
ća	-154
▁Z	-155
rva	-156
rije	-157
▁što	-158
nog	-159
▁ta	-160
▁godi	-161
nih	-162
▁-	-163
ža	-164
▁f	-165
ša	-166
vje	-167
nim	-168
tra	-169
cije	-170
lji	-171
▁G	-172
▁ob	-173
su	-174
▁ma	-175
▁J	-176
ske	-177
pu	-178
vr	-179
▁li	-180
▁h	-181
be	-182
ši	-183
cija	-184
gi	-185
zcaron	-186
▁L	-187
▁Na	-188
▁svo	-189
▁me	-190
so	-191
nju	-192
rvat	-193
vu	-194
▁tre	-195
▁ima	-196
▁Ma	-197
dni	-198
pe	-199
▁vo	-200
lj	-201
▁kako	-202
▁bo	-203
ge	-204
sje	-205
zo	-206
đe	-207
ze	-208
▁di	-209
▁pu	-210
▁koje	-211
vije	-212
▁dru	-213
▁Po	-214
▁(	-215
dje	-216
▁naj	-217
▁sta	-218
kom	-219
▁raz	-220
▁ti	-221
▁&	-222
▁Za	-223
mje	-224
▁E	-225
▁nije	-226
kon	-227
▁va	-228
",	-229
▁in	-230
▁pred	-231
▁ja	-232
ska	-233
▁nje	-234
▁si	-235
▁sve	-236
vno	-237
▁kao	-238
mu	-239
▁C	-240
▁ali	-241
ho	-242
tak	-243
▁20	-244
dno	-245
▁F	-246
pre	-247
▁pr	-248
stu	-249
▁sam	-250
pra	-251
▁Ka	-252
▁de	-253
▁is	-254
ran	-255
▁če	-256
rati	-257
▁gra	-258
▁Hrvat	-259
nije	-260
▁godine	-261
▁ku	-262
▁mje	-263
vni	-264
▁Mi	-265
zu	-266
or	-267
▁pos	-268
zna	-269
..	-270
rža	-271
▁smo	-272
▁zna	-273
tni	-274
bu	-275
vić	-276
▁pod	-277
▁biti	-278
▁pot	-279
▁pi	-280
▁koja	-281
đu	-282
đa	-283
▁jo	-284
skog	-285
▁st	-286
▁dje	-287
tno	-288
00	-289
ina	-290
govo	-291
ču	-292
liko	-293
vlja	-294
▁nakon	-295
▁ot	-296
an	-297
▁pla	-298
rno	-299
▁samo	-300
▁ili	-301
▁dana	-302
▁više	-303
▁stra	-304
▁pra	-305
▁Š	-306
▁lju	-307
▁kon	-308
sni	-309
sno	-310
▁Ne	-311
▁us	-312
kao	-313
nta	-314
▁prije	-315
dio	-316
▁'	-317
▁gla	-318
▁mu	-319
▁bio	-320
▁nji	-321
▁tu	-322
rt	-323
▁tra	-324
▁eu	-325
šta	-326
▁jed	-327
ste	-328
▁Do	-329
▁uz	-330
dan	-331
▁igra	-332
ije	-333
▁svi	-334
▁Da	-335
čki	-336
vanje	-337
▁3	-338
tiv	-339
▁ga	-340
er	-341
ha	-342
gre	-343
▁tako	-344
rni	-345
▁ovo	-346
▁ži	-347
bog	-348
skoj	-349
▁ba	-350
▁kra	-351
ću	-352
gle	-353
tje	-354
▁može	-355
vati	-356
▁jer	-357
▁još	-358
▁du	-359
dst	-360
skom	-361
▁ru	-362
skih	-363
lni	-364
▁be	-365
▁poli	-366
dra	-367
▁To	-368
▁že	-369
žu	-370
gla	-371
▁osta	-372
▁pe	-373
▁Ko	-374
vio	-375
nti	-376
telji	-377
sku	-378
bro	-379
▁rekao	-380
nda	-381
▁treba	-382
mije	-383
▁mogu	-384
fi	-385
lno	-386
ciju	-387
▁godina	-388
▁Mo	-389
▁zbog	-390
vali	-391
▁posto	-392
▁spo	-393
šte	-394
godi	-395
rok	-396
ar	-397
▁či	-398
▁slu	-399
št	-400
▁sva	-401
vanja	-402
▁Sa	-403
stra	-404
▁bilo	-405
vlje	-406
lije	-407
fe	-408
sjedni	-409
▁bu	-410
▁No	-411
stva	-412
▁vr	-413
▁bro	-414
▁lo	-415
▁vrije	-416
▁obja	-417
kla	-418
vom	-419
nici	-420
kra	-421
rija	-422
▁oso	-423
▁Ra	-424
čko	-425
čno	-426
ako	-427
▁os	-428
▁veli	-429
▁vje	-430
▁ro	-431
▁oko	-432
▁eura	-433
▁202	-434
reme	-435
takmi	-436
▁obi	-437
dstrok	-438
bje	-439
▁cije	-440
tro	-441
▁dobi	-442
ona	-443
▁dok	-444
tom	-445
▁Bi	-446
in	-447
▁hrvat	-448
red	-449
▁vla	-450
pli	-451
jom	-452
▁utakmi	-453
kri	-454
▁već	-455
▁doda	-456
telj	-457
▁au	-458
▁Re	-459
van	-460
uro	-461
vori	-462
joj	-463
što	-464
klju	-465
▁bila	-466
▁tri	-467
om	-468
▁posta	-469
▁Ja	-470
kre	-471
lim	-472
nt	-473
▁Pa	-474
▁Bo	-475
▁4	-476
▁radi	-477
▁Me	-478
nika	-479
▁izbo	-480
rom	-481
he	-482
▁živo	-483
nci	-484
▁kada	-485
viti	-486
▁op	-487
nica	-488
▁mora	-489
▁5	-490
...	-491
▁nas	-492
▁tije	-493
tko	-494
nima	-495
pri	-496
▁predsjedni	-497
".	-498
▁njego	-499
▁ju	-500
il	-501
skim	-502
vara	-503
vima	-504
nosti	-505
▁Ba	-506
▁Euro	-507
▁sto	-508
▁iza	-509
vih	-510
kti	-511
▁č	-512
ter	-513
▁ljudi	-514
▁Pe	-515
▁prema	-516
▁c	-517
risti	-518
šti	-519
▁svoje	-520
ško	-521
▁odlu	-522
voj	-523
sla	-524
▁drža	-525
▁neko	-526
jući	-527
▁Ha	-528
▁odno	-529
rani	-530
▁dva	-531
lazi	-532
ven	-533
spo	-534
stvo	-535
▁ih	-536
ner	-537
hi	-538
▁Ni	-539
▁la	-540
vim	-541
▁protiv	-542
▁kri	-543
▁ze	-544
▁Be	-545
▁Ve	-546
čke	-547
▁Va	-548
▁19	-549
cima	-550
▁ova	-551
pisa	-552
▁auto	-553
▁Zagre	-554
iz	-555
▁njiho	-556
▁bez	-557
▁nasta	-558
▁nam	-559
▁Je	-560
ble	-561
nost	-562
▁jedan	-563
▁poče	-564
ndi	-565
),	-566
▁drugi	-567
ciji	-568
▁6	-569
▁gdje	-570
tar	-571
▁rije	-572
▁nego	-573
▁sre	-574
▁kre	-575
met	-576
rao	-577
ruč	-578
njem	-579
tka	-580
▁klu	-581
nuti	-582
godiš	-583
▁sla	-584
lom	-585
nd	-586
pje	-587
▁kad	-588
▁mili	-589
▁sada	-590
▁Pro	-591
sre	-592
vila	-593
jte	-594
▁mla	-595
▁ce	-596
▁nema	-597
kup	-598
▁pomo	-599
tvr	-600
for	-601
▁pita	-602
vao	-603
▁Iz	-604
bli	-605
dne	-606
šao	-607
▁dije	-608
▁Go	-609
▁tr	-610
▁pobje	-611
▁ki	-612
▁svje	-613
▁toga	-614
▁im	-615
▁nisu	-616
▁trenu	-617
▁sje	-618
▁Vi	-619
▁pove	-620
stup	-621
pla	-622
gleda	-623
vaju	-624
bno	-625
jek	-626
▁Jo	-627
dna	-628
▁Du	-629
el	-630
▁pje	-631
▁broj	-632
dom	-633
nuo	-634
▁vrijeme	-635
▁Li	-636
▁dobro	-637
▁prija	-638
▁Mar	-639
▁Pre	-640
▁tvr	-641
▁Ru	-642
▁sigu	-643
▁sma	-644
▁upra	-645
▁poka	-646
▁ci	-647
▁lije	-648
▁svije	-649
▁među	-650
▁Ta	-651
pada	-652
tim	-653
tua	-654
▁W	-655
▁ča	-656
4.	-657
▁or	-658
0.	-659
ren	-660
▁ove	-661
▁stu	-662
▁popu	-663
sli	-664
rima	-665
nski	-666
▁društ	-667
▁Č	-668
lova	-669
▁predsta	-670
▁proble	-671
▁7	-672
vog	-673
▁pozi	-674
▁fo	-675
lne	-676
▁fina	-677
jim	-678
meta	-679
▁še	-680
jem	-681
▁politi	-682
▁ako	-683
▁novi	-684
▁taj	-685
▁sti	-686
rio	-687
rbi	-688
star	-689
▁sezo	-690
nice	-691
▁obra	-692
▁on	-693
1.	-694
▁zaje	-695
▁Gra	-696
▁dio	-697
bra	-698
▁kod	-699
vijek	-700
tjeca	-701
log	-702
▁oz	-703
▁proš	-704
▁ide	-705
▁Su	-706
ška	-707
▁par	-708
▁Ž	-709
▁zdra	-710
zira	-711
▁koju	-712
nik	-713
gao	-714
rta	-715
▁mjese	-716
sam	-717
diti	-718
▁nekoliko	-719
▁upo	-720
kto	-721
▁stva	-722
▁potre	-723
▁Dina	-724
▁so	-725
noj	-726
niji	-727
▁proiz	-728
▁zah	-729
▁le	-730
vija	-731
▁danas	-732
nira	-733
▁zavr	-734
▁drugo	-735
cij	-736
2.	-737
▁tje	-738
▁Ro	-739
▁poru	-740
▁medi	-741
▁sati	-742
▁Ju	-743
vala	-744
voji	-745
▁sna	-746
čio	-747
▁pose	-748
▁ško	-749
ciona	-750
gani	-751
dar	-752
▁Pri	-753
▁najbo	-754
▁neki	-755
3.	-756
čin	-757
vne	-758
▁miliju	-759
lano	-760
▁zem	-761
▁Bu	-762
lan	-763
klo	-764
▁uspje	-765
▁bili	-766
meri	-767
▁oba	-768
▁poslje	-769
hu	-770
pan	-771
vna	-772
▁ste	-773
stve	-774
tku	-775
▁otkri	-776
čka	-777
▁osi	-778
dnji	-779
▁prili	-780
kraji	-781
zul	-782
đer	-783
▁Lu	-784
rne	-785
lek	-786
nosi	-787
▁kro	-788
en	-789
▁Hrvatske	-790
▁Od	-791
▁ho	-792
vši	-793
▁izra	-794
▁kaže	-795
▁kori	-796
5.	-797
sjeti	-798
pro	-799
▁lje	-800
▁isto	-801
žbe	-802
vore	-803
ng	-804
▁tome	-805
▁jedno	-806
tne	-807
▁proizvo	-808
▁odgovo	-809
▁prvi	-810
▁tijekom	-811
▁isti	-812
▁nešto	-813
▁Nakon	-814
▁vreme	-815
▁8	-816
rak	-817
▁sr	-818
zao	-819
▁doma	-820
telja	-821
▁zapo	-822
▁pozna	-823
▁istra	-824
▁Rije	-825
tan	-826
vnog	-827
▁Lo	-828
kupi	-829
▁nogo	-830
▁Hrvatskoj	-831
▁puno	-832
▁sigurno	-833
nija	-834
▁Nje	-835
menta	-836
▁umje	-837
▁malo	-838
▁kom	-839
▁fa	-840
volj	-841
ković	-842
▁uvijek	-843
vili	-844
▁žu	-845
▁prva	-846
▁izme	-847
▁dvije	-848
vla	-849
man	-850
▁Vla	-851
▁put	-852
▁vozi	-853
▁organi	-854
▁inte	-855
nistar	-856
zulta	-857
▁pono	-858
din	-859
▁Pu	-860
▁La	-861
al	-862
▁slo	-863
▁Tu	-864
op	-865
▁nad	-866
▁Spli	-867
▁poja	-868
▁kojima	-869
nio	-870
dru	-871
im	-872
▁njezi	-873
bije	-874
gađa	-875
▁Sve	-876
len	-877
▁201	-878
dova	-879
gli	-880
▁milijuna	-881
▁nika	-882
jdu	-883
▁održa	-884
bri	-885
šu	-886
bio	-887
dnje	-888
▁kojem	-889
▁br	-890
vnom	-891
tiri	-892
▁sad	-893
vreme	-894
rje	-895
▁pogo	-896
▁dr	-897
niti	-898
▁ona	-899
zenta	-900
▁jedna	-901
▁ri	-902
▁napra	-903
nama	-904
▁Se	-905
više	-906
▁oče	-907
▁rekla	-908
▁Le	-909
vodi	-910
stru	-911
pak	-912
▁neće	-913
▁imaju	-914
▁fil	-915
▁tro	-916
▁područ	-917
tre	-918
▁rezulta	-919
).	-920
čkog	-921
▁najve	-922
▁uklju	-923
▁kojoj	-924
▁dvo	-925
kli	-926
smo	-927
ime	-928
▁dalje	-929
rana	-930
tovo	-931
▁An	-932
▁sluča	-933
▁onda	-934
▁Hajdu	-935
leda	-936
▁svoj	-937
▁govori	-938
▁vrlo	-939
▁Hrvatska	-940
đi	-941
▁uvje	-942
▁između	-943
▁In	-944
forma	-945
prezenta	-946
000	-947
kovi	-948
▁euro	-949
▁Te	-950
tri	-951
▁jako	-952
▁situa	-953
▁budu	-954
▁9	-955
▁mre	-956
jan	-957
čne	-958
▁dan	-959
com	-960
▁pet	-961
▁osje	-962
zne	-963
▁ope	-964
▁tek	-965
▁dese	-966
▁vam	-967
▁ćemo	-968
▁reprezenta	-969
tke	-970
▁Vo	-971
▁voj	-972
▁razli	-973
▁prosto	-974
▁događa	-975
▁Ku	-976
žno	-977
▁Europ	-978
▁veći	-979
ver	-980
▁svojim	-981
tio	-982
dri	-983
stri	-984
▁susta	-985
▁smje	-986
jih	-987
▁gu	-988
▁Kako	-989
nera	-990
▁De	-991
▁svoju	-992
▁projek	-993
▁kroz	-994
',	-995
čni	-996
nj	-997
▁Ga	-998
kle	-999
▁njih	-1000
▁čak	-1001
▁naše	-1002
▁oni	-1003
▁rea	-1004
▁joj	-1005
▁Osi	-1006
▁dola	-1007
▁10	-1008
▁poku	-1009
▁progra	-1010
roja	-1011
stak	-1012
▁poslo	-1013
nske	-1014
kr	-1015
▁ču	-1016
▁mom	-1017
rali	-1018
vanju	-1019
6.	-1020
▁tak	-1021
▁četvr	-1022
riti	-1023
▁predsjednik	-1024
čić	-1025
raž	-1026
ški	-1027
▁kvali	-1028
▁loka	-1029
▁također	-1030
▁ak	-1031
▁mjesto	-1032
8.	-1033
vac	-1034
▁gleda	-1035
▁puta	-1036
▁veliki	-1037
vnosti	-1038
▁poput	-1039
▁hi	-1040
▁minu	-1041
▁ula	-1042
▁pora	-1043
▁ono	-1044
▁Ukraji	-1045
▁ras	-1046
▁pripre	-1047
šli	-1048
▁zajedni	-1049
7.	-1050
▁prven	-1051
▁vra	-1052
nače	-1053
čiti	-1054
▁osoba	-1055
▁zašti	-1056
▁svjet	-1057
rna	-1058
▁glaz	-1059
dije	-1060
▁uda	-1061
▁građa	-1062
▁prona	-1063
▁osigu	-1064
ncija	-1065
ndida	-1066
▁jednom	-1067
▁koliko	-1068
čili	-1069
▁izja	-1070
nka	-1071
▁vodi	-1072
▁Si	-1073
uze	-1074
▁napa	-1075
movi	-1076
vijesti	-1077
▁Ako	-1078
▁ge	-1079
▁grad	-1080
vede	-1081
ks	-1082
tna	-1083
▁društve	-1084
bora	-1085
▁bra	-1086
govara	-1087
nula	-1088
štu	-1089
ksi	-1090
▁konce	-1091
▁mnog	-1092
▁ovaj	-1093
čkih	-1094
▁način	-1095
▁utakmice	-1096
▁četiri	-1097
▁sli	-1098
▁zat	-1099
▁tada	-1100
▁ime	-1101
▁tisu	-1102
šnje	-1103
▁15	-1104
▁dugo	-1105
▁pret	-1106
▁druge	-1107
▁smatra	-1108
vor	-1109
▁Dinamo	-1110
▁jedi	-1111
ćem	-1112
▁nastu	-1113
cijama	-1114
▁osvoji	-1115
▁odnosno	-1116
▁neka	-1117
▁Tako	-1118
sao	-1119
nali	-1120
▁europ	-1121
DZ	-1122
tor	-1123
rac	-1124
sle	-1125
nova	-1126
▁istak	-1127
hva	-1128
▁vidje	-1129
▁službe	-1130
tima	-1131
▁preko	-1132
▁naja	-1133
▁vrati	-1134
sne	-1135
▁spa	-1136
▁ši	-1137
stvu	-1138
▁ure	-1139
vesti	-1140
▁sura	-1141
slu	-1142
nke	-1143
rica	-1144
▁Fran	-1145
plo	-1146
menti	-1147
▁fi	-1148
▁Vu	-1149
▁piše	-1150
▁glu	-1151
▁zra	-1152
▁foto	-1153
▁lu	-1154
▁pokuša	-1155
▁kandida	-1156
▁obitelji	-1157
vnih	-1158
njak	-1159
▁Iva	-1160
▁razi	-1161
šnji	-1162
▁bli	-1163
▁dogodi	-1164
čkom	-1165
pusti	-1166
mati	-1167
▁sezone	-1168
▁imao	-1169
▁tko	-1170
▁pokre	-1171
▁tom	-1172
▁ulo	-1173
mobi	-1174
▁HDZ	-1175
čkoj	-1176
▁želi	-1177
▁promje	-1178
ranje	-1179
lima	-1180
▁kul	-1181
▁akti	-1182
▁zdrav	-1183
dam	-1184
▁Au	-1185
▁Varaž	-1186
▁strane	-1187
lna	-1188
▁spre	-1189
▁Di	-1190
pozna	-1191
ljivo	-1192
▁manje	-1193
mpa	-1194
▁nu	-1195
▁cr	-1196
▁skupi	-1197
▁susre	-1198
ljede	-1199
▁primje	-1200
vra	-1201
▁mladi	-1202
▁pone	-1203
glasi	-1204
▁natjeca	-1205
co	-1206
▁regi	-1207
dila	-1208
ške	-1209
▁vremena	-1210
▁Naj	-1211
rala	-1212
▁vije	-1213
▁zaklju	-1214
sna	-1215
men	-1216
▁župa	-1217
▁pokaza	-1218
per	-1219
đen	-1220
▁život	-1221
▁vlasti	-1222
čer	-1223
▁završi	-1224
▁ener	-1225
žda	-1226
▁EU	-1227
▁vas	-1228
▁odre	-1229
▁poveća	-1230
▁potvr	-1231
▁koristi	-1232
cama	-1233
pru	-1234
▁al	-1235
▁inter	-1236
▁navija	-1237
dili	-1238
▁svih	-1239
▁pravo	-1240
mir	-1241
teta	-1242
fa	-1243
▁12	-1244
ljem	-1245
▁neo	-1246
lnih	-1247
▁imati	-1248
prije	-1249
▁pote	-1250
▁sasta	-1251
▁svako	-1252
nk	-1253
lić	-1254
jedi	-1255
▁Među	-1256
▁unu	-1257
▁mjesta	-1258
mogu	-1259
▁kraju	-1260
▁Al	-1261
▁njega	-1262
oj	-1263
šla	-1264
mr	-1265
▁automobi	-1266
ovje	-1267
▁kru	-1268
▁rad	-1269
▁gotovo	-1270
rod	-1271
▁fotogra	-1272
▁informa	-1273
9.	-1274
▁poda	-1275
▁ljuba	-1276
▁ostva	-1277
▁Dra	-1278
▁Ima	-1279
▁tere	-1280
▁bri	-1281
čna	-1282
▁teško	-1283
▁vode	-1284
▁oda	-1285
jka	-1286
raju	-1287
▁potpu	-1288
rvi	-1289
čan	-1290
▁sudje	-1291
cio	-1292
rka	-1293
▁viso	-1294
▁Milano	-1295
pnja	-1296
ID	-1297
▁bude	-1298
jemo	-1299
pravo	-1300
snije	-1301
▁Ova	-1302
▁bit	-1303
rane	-1304
zni	-1305
rovi	-1306
▁Zagrebu	-1307
nskog	-1308
▁kazao	-1309
▁suda	-1310
logi	-1311
čaj	-1312
▁Tre	-1313
▁ovom	-1314
▁Pi	-1315
kova	-1316
dovi	-1317
▁proda	-1318
šić	-1319
lnog	-1320
▁odu	-1321
▁uči	-1322
▁naši	-1323
▁Srbi	-1324
▁rje	-1325
▁mogao	-1326
▁teh	-1327
▁Ali	-1328
▁prati	-1329
ture	-1330
▁isku	-1331
▁polu	-1332
▁Njema	-1333
hvati	-1334
▁posebno	-1335
▁kojeg	-1336
kve	-1337
▁supru	-1338
▁kolo	-1339
▁nagra	-1340
▁Plen	-1341
▁teme	-1342
▁nesre	-1343
▁momča	-1344
rtu	-1345
novi	-1346
▁organiza	-1347
▁godinu	-1348
▁ameri	-1349
▁kazne	-1350
šnja	-1351
▁Ovo	-1352
▁obitelj	-1353
riji	-1354
fo	-1355
bor	-1356
▁Fi	-1357
pred	-1358
▁gospo	-1359
kav	-1360
▁Ši	-1361
▁Ho	-1362
▁part	-1363
esti	-1364
▁premije	-1365
▁izgu	-1366
▁glazbe	-1367
▁knji	-1368
blje	-1369
rić	-1370
▁Ti	-1371
▁ovog	-1372
▁podr	-1373
▁odma	-1374
▁stude	-1375
slim	-1376
tara	-1377
▁nedje	-1378
lio	-1379
ak	-1380
▁2024.	-1381
▁So	-1382
vica	-1383
▁tim	-1384
▁prvo	-1385
▁dra	-1386
▁djela	-1387
mpe	-1388
▁one	-1389
▁sredi	-1390
▁obo	-1391
▁Ivan	-1392
▁ništa	-1393
mp	-1394
▁napisa	-1395
EO	-1396
titi	-1397
panjo	-1398
▁podu	-1399
▁Iako	-1400
▁bolni	-1401
ck	-1402
čku	-1403
▁Ri	-1404
▁karije	-1405
▁svom	-1406
▁mode	-1407
▁napada	-1408
▁mjestu	-1409
▁11	-1410
govi	-1411
zak	-1412
▁nosi	-1413
▁Mu	-1414
▁Što	-1415
▁vide	-1416
▁Tru	-1417
ch	-1418
cje	-1419
▁baš	-1420
jske	-1421
tki	-1422
▁neke	-1423
▁sport	-1424
vnim	-1425
▁ok	-1426
publi	-1427
▁dire	-1428
▁Dubro	-1429
▁Fo	-1430
▁zado	-1431
IDEO	-1432
▁pru	-1433
tali	-1434
▁posla	-1435
▁pitanje	-1436
▁muška	-1437
▁financi	-1438
nzi	-1439
▁200	-1440
▁sebe	-1441
-1	-1442
▁=	-1443
▁upozo	-1444
▁odra	-1445
▁posti	-1446
▁vidi	-1447
▁važ	-1448
▁Rusi	-1449
▁osjeća	-1450
loga	-1451
▁klju	-1452
tet	-1453
▁subo	-1454
čima	-1455
▁prizna	-1456
▁=>	-1457
▁tran	-1458
▁deset	-1459
tkom	-1460
▁uli	-1461
▁VIDEO	-1462
som	-1463
glo	-1464
žiti	-1465
mina	-1466
gom	-1467
nča	-1468
▁uspo	-1469
▁šest	-1470
▁18	-1471
čkim	-1472
dnja	-1473
rojatno	-1474
panjol	-1475
▁pjes	-1476
▁čeka	-1477
nata	-1478
lnim	-1479
▁izda	-1480
▁često	-1481
▁Sla	-1482
▁nove	-1483
pio	-1484
ljak	-1485
▁minuti	-1486
▁izgleda	-1487
kuje	-1488
▁stvari	-1489
▁opo	-1490
▁otvore	-1491
bar	-1492
▁Fa	-1493
▁osno	-1494
TO	-1495
lnik	-1496
▁slobo	-1497
▁naš	-1498
njoj	-1499
▁rodi	-1500
▁priča	-1501
▁pomoć	-1502
▁raspo	-1503
▁najbolji	-1504
▁(1	-1505
▁bih	-1506
▁oti	-1507
▁svim	-1508
▁obzi	-1509
▁ponu	-1510
▁kraja	-1511
▁njegovo	-1512
▁promet	-1513
ćih	-1514
fina	-1515
▁njima	-1516
▁spe	-1517
DP	-1518
miš	-1519
nde	-1520
▁bor	-1521
▁novina	-1522
digra	-1523
▁dosta	-1524
misi	-1525
▁nisam	-1526
limpi	-1527
▁napo	-1528
bre	-1529
▁imali	-1530
▁dobio	-1531
▁predsjednika	-1532
vjetni	-1533
▁vlasni	-1534
▁stru	-1535
ali	-1536
▁vozila	-1537
▁svijetu	-1538
▁gru	-1539
▁bolje	-1540
▁grado	-1541
stro	-1542
▁utjeca	-1543
▁ministar	-1544
njima	-1545
▁minuta	-1546
▁Prema	-1547
▁istraži	-1548
▁30	-1549
▁pobije	-1550
▁života	-1551
▁fu	-1552
▁uo	-1553
▁optu	-1554
stima	-1555
▁utakmica	-1556
tnih	-1557
▁Ministar	-1558
▁Ca	-1559
▁upravo	-1560
jna	-1561
▁poma	-1562
▁dodao	-1563
▁ugovo	-1564
▁kr	-1565
rili	-1566
▁Uz	-1567
▁navo	-1568
▁And	-1569
nuli	-1570
▁Poli	-1571
▁uključu	-1572
▁Nije	-1573
▁Zagreba	-1574
rem	-1575
▁djece	-1576
nce	-1577
spe	-1578
jski	-1579
▁kraj	-1580
vnika	-1581
▁druga	-1582
jima	-1583
▁svaki	-1584
▁možda	-1585
gova	-1586
▁opa	-1587
▁bole	-1588
nga	-1589
▁pona	-1590
ved	-1591
ranja	-1592
▁raču	-1593
▁Op	-1594
AD	-1595
nca	-1596
kva	-1597
▁bla	-1598
▁njegov	-1599
čila	-1600
che	-1601
▁njegova	-1602
bili	-1603
kako	-1604
it	-1605
opće	-1606
vca	-1607
▁mnogi	-1608
▁Pred	-1609
rice	-1610
▁tisuća	-1611
vnik	-1612
▁trži	-1613
lina	-1614
▁Sta	-1615
▁zajedno	-1616
▁poz	-1617
▁Grad	-1618
▁ipak	-1619
▁nalazi	-1620
▁prvaka	-1621
rina	-1622
▁Izra	-1623
san	-1624
▁[	-1625
▁13	-1626
nicu	-1627
▁tele	-1628
▁čovje	-1629
▁Slo	-1630
▁Lju	-1631
▁ispo	-1632
laz	-1633
šku	-1634
▁predstavlja	-1635
▁poči	-1636
▁omogu	-1637
▁uče	-1638
mom	-1639
rava	-1640
nović	-1641
tura	-1642
dnika	-1643
▁uži	-1644
▁stano	-1645
godišnji	-1646
▁problem	-1647
▁neza	-1648
▁vrijedno	-1649
▁kasnije	-1650
žio	-1651
▁izvo	-1652
šlo	-1653
▁odmah	-1654
▁hrvatski	-1655
▁ukup	-1656
zima	-1657
zem	-1658
▁idu	-1659
▁kaza	-1660
vdje	-1661
▁Dru	-1662
▁struč	-1663
▁Ze	-1664
slo	-1665
▁sklo	-1666
▁dolazi	-1667
▁nogomet	-1668
▁sred	-1669
▁kole	-1670
▁Zagreb	-1671
▁području	-1672
▁pol	-1673
greba	-1674
▁ponovno	-1675
▁utakmicu	-1676
▁elek	-1677
▁nedo	-1678
vez	-1679
▁jednu	-1680
▁Y	-1681
▁kla	-1682
▁kontro	-1683
šće	-1684
mpera	-1685
▁proce	-1686
▁odigra	-1687
▁Republi	-1688
▁Ameri	-1689
▁prošle	-1690
▁smi	-1691
▁mogli	-1692
kama	-1693
▁(2	-1694
tori	-1695
▁znači	-1696
nena	-1697
vaja	-1698
veo	-1699
ktor	-1700
▁zapa	-1701
ivo	-1702
▁iako	-1703
zuje	-1704
▁kvalite	-1705
▁svog	-1706
▁usta	-1707
čnih	-1708
teljima	-1709
▁Že	-1710
▁sud	-1711
▁odje	-1712
▁možete	-1713
voljno	-1714
vjet	-1715
đena	-1716
laze	-1717
▁osobe	-1718
▁inf	-1719
lnu	-1720
▁Ki	-1721
▁plaća	-1722
dnjih	-1723
▁imamo	-1724
▁zagreba	-1725
ry	-1726
bom	-1727
▁niti	-1728
▁osu	-1729
▁javno	-1730
▁sljede	-1731
▁Bar	-1732
▁odli	-1733
▁voza	-1734
kaza	-1735
▁sce	-1736
▁komu	-1737
▁Naime	-1738
▁djelo	-1739
rske	-1740
▁jednog	-1741
▁trenutku	-1742
▁neu	-1743
▁čini	-1744
▁upravlja	-1745
▁kilo	-1746
LE	-1747
▁0	-1748
▁zlo	-1749
piti	-1750
lih	-1751
▁Kad	-1752
lma	-1753
jeva	-1754
lovi	-1755
ravno	-1756
▁najviše	-1757
đenje	-1758
▁1.	-1759
▁eki	-1760
br	-1761
▁novo	-1762
▁ž	-1763
▁zato	-1764
rila	-1765
stitu	-1766
tnu	-1767
renje	-1768
▁izgra	-1769
dina	-1770
▁Osim	-1771
▁Co	-1772
▁Kra	-1773
▁posao	-1774
▁Pod	-1775
▁trener	-1776
▁toliko	-1777
ksu	-1778
▁HN	-1779
▁grada	-1780
▁postoji	-1781
▁profe	-1782
▁energi	-1783
mbe	-1784
lija	-1785
▁publi	-1786
nike	-1787
ris	-1788
▁obzirom	-1789
▁14	-1790
lar	-1791
▁zako	-1792
▁moguć	-1793
▁2023.	-1794
nska	-1795
▁Zo	-1796
vizi	-1797
▁kojim	-1798
▁zahtje	-1799
▁for	-1800
telje	-1801
▁prava	-1802
▁ranije	-1803
▁radio	-1804
▁reći	-1805
rnost	-1806
▁Niko	-1807
▁pomoći	-1808
▁ponedje	-1809
šenje	-1810
nac	-1811
▁Hrvatsku	-1812
▁kluba	-1813
▁naciona	-1814
▁unutar	-1815
ati	-1816
▁ozbi	-1817
▁tamo	-1818
hr	-1819
▁policija	-1820
dnju	-1821
▁mjeseci	-1822
rma	-1823
▁zašto	-1824
▁izazo	-1825
▁igrača	-1826
▁manda	-1827
čica	-1828
▁mno	-1829
▁Split	-1830
▁iznena	-1831
▁tempera	-1832
▁Pr	-1833
▁petak	-1834
▁17	-1835
▁sum	-1836
ll	-1837
zda	-1838
▁isko	-1839
teljica	-1840
▁svijeta	-1841
▁16	-1842
▁neda	-1843
▁produ	-1844
▁riječ	-1845
▁jednosta	-1846
lnom	-1847
▁Hajduk	-1848
▁una	-1849
▁čega	-1850
▁ozlije	-1851
vića	-1852
▁svojoj	-1853
▁zapravo	-1854
▁osob	-1855
▁utvr	-1856
▁objavio	-1857
veli	-1858
đeno	-1859
ćeg	-1860
cijom	-1861
▁tradi	-1862
io	-1863
ton	-1864
▁problema	-1865
kad	-1866
▁zau	-1867
tin	-1868
stava	-1869
bija	-1870
▁smr	-1871
▁24	-1872
▁deta	-1873
▁netko	-1874
▁raditi	-1875
▁Dana	-1876
▁klub	-1877
rnik	-1878
troga	-1879
▁brzo	-1880
▁upu	-1881
▁SAD	-1882
nad	-1883
▁25	-1884
▁ovi	-1885
▁zdravstve	-1886
▁srije	-1887
lost	-1888
▁kola	-1889
▁fotografi	-1890
sci	-1891
▁ću	-1892
mira	-1893
▁pore	-1894
šću	-1895
▁imala	-1896
ut	-1897
spi	-1898
▁Varaždin	-1899
▁preda	-1900
▁Josi	-1901
▁ša	-1902
drža	-1903
▁svega	-1904
mor	-1905
▁vidjeti	-1906
vnu	-1907
▁opre	-1908
▁mreža	-1909
▁komenti	-1910
▁nepo	-1911
▁možemo	-1912
▁zemlje	-1913
▁oto	-1914
▁velika	-1915
▁zahva	-1916
▁navodi	-1917
rd	-1918
ena	-1919
▁On	-1920
▁gospodar	-1921
▁kar	-1922
▁tog	-1923
▁promije	-1924
dija	-1925
nak	-1926
▁Šibe	-1927
▁misli	-1928
▁mogla	-1929
▁nesta	-1930
▁sedam	-1931
▁člano	-1932
vre	-1933
▁Mari	-1934
▁subotu	-1935
▁korisni	-1936
rba	-1937
20	-1938
struk	-1939
▁veza	-1940
▁prvom	-1941
▁kate	-1942
▁SDP	-1943
▁sja	-1944
▁zgra	-1945
▁pravi	-1946
▁zastup	-1947
lica	-1948
▁eks	-1949
▁intere	-1950
▁vjerojatno	-1951
tić	-1952
zma	-1953
▁oči	-1954
▁djevoj	-1955
▁najbolje	-1956
▁pjeva	-1957
gled	-1958
'.	-1959
tnika	-1960
▁slučaju	-1961
▁ovdje	-1962
▁izno	-1963
▁razvo	-1964
dnik	-1965
taka	-1966
▁osam	-1967
nskih	-1968
▁demo	-1969
▁brani	-1970
▁He	-1971
▁Kri	-1972
▁Kada	-1973
▁posjeti	-1974
▁šte	-1975
▁izvan	-1976
▁razdo	-1977
▁poduze	-1978
▁mene	-1979
▁veliko	-1980
voje	-1981
▁vjeru	-1982
▁film	-1983
▁podi	-1984
▁stvara	-1985
▁Đ	-1986
mišlja	-1987
den	-1988
ss	-1989
pisu	-1990
▁društvenim	-1991
gro	-1992
▁pola	-1993
terija	-1994
▁listo	-1995
tr	-1996
▁funk	-1997
nove	-1998
▁eko	-1999
▁trav	-2000
▁komenta	-2001
▁priliku	-2002
▁sko	-2003
kuplja	-2004
boj	-2005
▁priva	-2006
▁Francu	-2007
▁Plenković	-2008
▁Če	-2009
▁2022.	-2010
▁Veli	-2011
▁priro	-2012
▁potpuno	-2013
▁rada	-2014
fika	-2015
▁199	-2016
ima	-2017
nin	-2018
▁opet	-2019
▁razgovo	-2020
tem	-2021
▁odvjetni	-2022
▁očeki	-2023
▁drugih	-2024
liti	-2025
▁vlada	-2026
▁nedjelju	-2027
,5	-2028
vrše	-2029
▁izvje	-2030
▁svojih	-2031
▁sudjelo	-2032
▁udru	-2033
▁drugom	-2034
▁genera	-2035
▁tru	-2036
▁boga	-2037
▁gol	-2038
▁PO	-2039
ista	-2040
▁ozbilj	-2041
šava	-2042
▁pogleda	-2043
nte	-2044
▁kultu	-2045
▁50	-2046
ranu	-2047
▁biv	-2048
osta	-2049
žava	-2050
▁puto	-2051
▁sprem	-2052
▁vrhu	-2053
▁Međutim	-2054
▁Španjol	-2055
TE	-2056
▁bile	-2057
▁zaba	-2058
▁domaći	-2059
▁ha	-2060
▁doku	-2061
▁tjedna	-2062
godišnja	-2063
tog	-2064
žić	-2065
▁podije	-2066
▁dosa	-2067
▁smije	-2068
▁odnosu	-2069
▁stoji	-2070
▁Milanović	-2071
▁uto	-2072
tica	-2073
▁povje	-2074
▁Gla	-2075
stupa	-2076
▁namje	-2077
▁Sto	-2078
▁parla	-2079
▁istaknuo	-2080
▁snim	-2081
dić	-2082
lin	-2083
pita	-2084
▁turni	-2085
jno	-2086
▁trans	-2087
gen	-2088
▁Andre	-2089
30	-2090
▁jezi	-2091
▁povije	-2092
manje	-2093
čnu	-2094
voza	-2095
ster	-2096
▁gradonače	-2097
▁povra	-2098
▁hrvatske	-2099
▁kona	-2100
▁igrati	-2101
▁ponedjeljak	-2102
▁uslu	-2103
▁objasni	-2104
▁Ar	-2105
▁mini	-2106
▁prosje	-2107
▁dovoljno	-2108
▁nogometa	-2109
tt	-2110
▁Bra	-2111
▁Ivana	-2112
biti	-2113
dana	-2114
▁donije	-2115
son	-2116
tnog	-2117
▁ugo	-2118
ple	-2119
▁ogra	-2120
▁100	-2121
plit	-2122
▁mije	-2123
▁pisa	-2124
▁trebao	-2125
▁čla	-2126
▁proje	-2127
▁godini	-2128
vrši	-2129
ksa	-2130
▁dogovo	-2131
AJ	-2132
▁Sva	-2133
đenja	-2134
▁vatroga	-2135
▁ovu	-2136
▁žena	-2137
žan	-2138
▁Hrva	-2139
poru	-2140
▁nastupa	-2141
▁turisti	-2142
▁katego	-2143
tine	-2144
▁Kao	-2145
▁skla	-2146
▁zaposle	-2147
slav	-2148
▁Marko	-2149
rži	-2150
dro	-2151
▁potom	-2152
zor	-2153
▁ar	-2154
▁obilje	-2155
šno	-2156
▁sami	-2157
▁djecu	-2158
▁prome	-2159
dese	-2160
dite	-2161
▁hla	-2162
▁posve	-2163
stavlja	-2164
nicima	-2165
▁iznosi	-2166
▁bije	-2167
vlju	-2168
dnici	-2169
▁rata	-2170
▁ispri	-2171
▁izbora	-2172
▁sije	-2173
▁prve	-2174
▁lop	-2175
▁srijedu	-2176
▁bira	-2177
▁kriti	-2178
đeni	-2179
ment	-2180
▁kuće	-2181
▁dijete	-2182
nskom	-2183
misli	-2184
▁turi	-2185
▁zara	-2186
▁Dinama	-2187
▁dne	-2188
sob	-2189
▁nova	-2190
▁osim	-2191
▁nismo	-2192
tnom	-2193
▁pretho	-2194
▁mnogo	-2195
▁jasno	-2196
▁planira	-2197
▁aktivnosti	-2198
sima	-2199
▁Zbog	-2200
▁potencija	-2201
rska	-2202
emo	-2203
▁bivši	-2204
▁putem	-2205
▁poveza	-2206
dak	-2207
ete	-2208
njeg	-2209
glasio	-2210
▁buduć	-2211
▁NA	-2212
njom	-2213
▁veče	-2214
▁preki	-2215
▁bodova	-2216
▁pojedi	-2217
žili	-2218
▁znam	-2219
▁ban	-2220
▁sata	-2221
▁Prije	-2222
vljen	-2223
▁upozna	-2224
ntra	-2225
▁maj	-2226
▁prote	-2227
rano	-2228
rp	-2229
▁emo	-2230
▁pozo	-2231
ndo	-2232
čnim	-2233
▁dijelu	-2234
mio	-2235
▁Zna	-2236
▁nikad	-2237
▁prepozna	-2238
▁Luka	-2239
▁ćete	-2240
▁postoje	-2241
▁stranke	-2242
bina	-2243
▁posje	-2244
bila	-2245
▁obu	-2246
vanjem	-2247
čita	-2248
▁nama	-2249
▁festi	-2250
nal	-2251
▁šu	-2252
▁kojih	-2253
nicama	-2254
▁izbje	-2255
▁metara	-2256
▁rezultat	-2257
jar	-2258
dnom	-2259
▁došao	-2260
veza	-2261
▁Svi	-2262
▁ispu	-2263
▁slije	-2264
▁velike	-2265
▁Gr	-2266
kata	-2267
lnoj	-2268
▁srp	-2269
▁razu	-2270
▁poseb	-2271
▁ispred	-2272
▁povijesti	-2273
kna	-2274
ogra	-2275
upa	-2276
▁doži	-2277
▁potra	-2278
vama	-2279
▁Bri	-2280
rena	-2281
tova	-2282
▁zemlji	-2283
▁Gu	-2284
▁dobiti	-2285
tina	-2286
štva	-2287
▁potro	-2288
šenja	-2289
▁doći	-2290
▁utakmici	-2291
dnu	-2292
▁nazi	-2293
▁kampa	-2294
▁moguće	-2295
dima	-2296
lnosti	-2297
▁zamje	-2298
miti	-2299
vremeno	-2300
kvi	-2301
zija	-2302
▁Grada	-2303
▁utorak	-2304
▁priprema	-2305
▁Vje	-2306
▁deve	-2307
vora	-2308
▁tehno	-2309
▁razini	-2310
sak	-2311
zam	-2312
tnim	-2313
rnoj	-2314
jedno	-2315
▁nado	-2316
▁Republike	-2317
kić	-2318
▁Dan	-2319
nciji	-2320
▁sjeve	-2321
ur	-2322
vci	-2323
▁at	-2324
▁svima	-2325
pis	-2326
▁spome	-2327
▁mirovi	-2328
▁zo	-2329
▁oru	-2330
▁svib	-2331
wa	-2332
▁Ke	-2333
vite	-2334
ljena	-2335
▁drugim	-2336
▁mjeseca	-2337
▁21	-2338
▁kup	-2339
▁institu	-2340
▁zla	-2341
▁škole	-2342
▁cijene	-2343
nić	-2344
loba	-2345
▁uhi	-2346
▁Splitu	-2347
▁poslije	-2348
tnoj	-2349
▁značaj	-2350
nite	-2351
▁BiH	-2352
ljiva	-2353
▁osvojio	-2354
rski	-2355
▁split	-2356
▁ig	-2357
▁Bro	-2358
▁time	-2359
▁obrazo	-2360
▁investi	-2361
th	-2362
▁osobi	-2363
▁zanim	-2364
▁momčad	-2365
renja	-2366
kretni	-2367
▁donosi	-2368
▁Ce	-2369
▁pak	-2370
▁čita	-2371
▁ža	-2372
▁glaso	-2373
gnu	-2374
▁obli	-2375
▁glasa	-2376
is	-2377
▁godinama	-2378
▁županije	-2379
đene	-2380
▁otvori	-2381
▁anali	-2382
▁ističe	-2383
vnoj	-2384
▁prosi	-2385
▁rizi	-2386
žen	-2387
▁šo	-2388
lov	-2389
limpij	-2390
▁gradu	-2391
▁Rijeka	-2392
▁mrežama	-2393
▁Ci	-2394
▁Spo	-2395
▁izlo	-2396
▁uključujući	-2397
šiti	-2398
▁suko	-2399
▁cijena	-2400
▁nedosta	-2401
▁Drža	-2402
od	-2403
tora	-2404
▁psi	-2405
fere	-2406
▁emisi	-2407
ndar	-2408
▁dobar	-2409
▁dolara	-2410
▁rade	-2411
tnosti	-2412
▁ljude	-2413
▁tvrtke	-2414
▁pobjedu	-2415
ana	-2416
▁niz	-2417
▁tih	-2418
▁zvije	-2419
▁Hajduka	-2420
▁moći	-2421
▁traja	-2422
▁moraju	-2423
▁Također	-2424
line	-2425
▁moglo	-2426
▁njemu	-2427
▁glavni	-2428
▁milijar	-2429
▁okru	-2430
▁snage	-2431
▁sustav	-2432
▁pobjede	-2433
▁projekt	-2434
svje	-2435
▁naro	-2436
▁izbor	-2437
▁međuna	-2438
▁40	-2439
▁njegove	-2440
ngle	-2441
▁ple	-2442
čenje	-2443
▁član	-2444
▁tvrdi	-2445
▁lipnja	-2446
lak	-2447
pom	-2448
tih	-2449
žnje	-2450
▁hrvatskih	-2451
▁napraviti	-2452
der	-2453
▁javnosti	-2454
▁koli	-2455
štvo	-2456
ban	-2457
ljen	-2458
lla	-2459
čar	-2460
stre	-2461
ženje	-2462
▁savje	-2463
▁zatim	-2464
▁medici	-2465
▁čemu	-2466
▁njema	-2467
▁poručio	-2468
toč	-2469
▁obje	-2470
▁ovoj	-2471
▁Vlade	-2472
▁novih	-2473
kul	-2474
▁Doda	-2475
▁prvog	-2476
▁izaz	-2477
▁dobili	-2478
▁Foto	-2479
▁sebi	-2480
vljena	-2481
▁postao	-2482
jopri	-2483
▁poža	-2484
▁Modri	-2485
▁trgovi	-2486
▁objavila	-2487
▁nedavno	-2488
▁hote	-2489
▁prvu	-2490
▁žele	-2491
▁Opći	-2492
stagra	-2493
▁program	-2494
▁gr	-2495
▁hrvatskog	-2496
zuju	-2497
▁ovih	-2498
▁zaslu	-2499
ela	-2500
em	-2501
▁toj	-2502
vlada	-2503
▁Fili	-2504
gdje	-2505
leko	-2506
ntar	-2507
vela	-2508
zije	-2509
cijski	-2510
▁dogodilo	-2511
jne	-2512
▁cilj	-2513
▁Domovi	-2514
To	-2515
LED	-2516
fije	-2517
▁Tra	-2518
vku	-2519
tera	-2520
loški	-2521
▁nada	-2522
▁diza	-2523
▁biste	-2524
mac	-2525
tivne	-2526
▁otvara	-2527
nila	-2528
▁novog	-2529
glavnom	-2530
žila	-2531
▁plo	-2532
učili	-2533
▁želje	-2534
▁situacija	-2535
niju	-2536
▁Kon	-2537
▁kva	-2538
▁nasi	-2539
▁postup	-2540
▁trenutno	-2541
mija	-2542
▁došlo	-2543
▁nikada	-2544
▁podrža	-2545
ljan	-2546
▁prošlo	-2547
tinu	-2548
▁trebalo	-2549
riju	-2550
▁St	-2551
erce	-2552
▁dija	-2553
▁izvr	-2554
▁izjavio	-2555
čak	-2556
▁Fe	-2557
▁HR	-2558
▁Pla	-2559
▁Ovaj	-2560
▁Marija	-2561
▁POG	-2562
pušta	-2563
▁svjedo	-2564
čnom	-2565
▁Danas	-2566
snu	-2567
krša	-2568
▁nitko	-2569
▁fizi	-2570
▁prosla	-2571
▁svijet	-2572
▁travnja	-2573
jni	-2574
zvo	-2575
▁novu	-2576
▁vaše	-2577
▁siječ	-2578
ktora	-2579
▁sustava	-2580
AJTE	-2581
▁Kar	-2582
▁sredst	-2583
liza	-2584
ramo	-2585
čnog	-2586
▁Novi	-2587
▁POGLED	-2588
▁popula	-2589
▁otkrila	-2590
▁Instagra	-2591
▁Mla	-2592
▁pogi	-2593
▁poslu	-2594
▁očekuje	-2595
▁meda	-2596
▁bismo	-2597
▁činje	-2598
▁mislim	-2599
▁započe	-2600
▁/	-2601
▁pobo	-2602
▁ispod	-2603
▁otkrio	-2604
▁zemlja	-2605
▁POGLEDAJTE	-2606
JE	-2607
▁zabio	-2608
▁Izrael	-2609
▁organizira	-2610
reni	-2611
stan	-2612
▁manji	-2613
gama	-2614
mini	-2615
čina	-2616
▁Sje	-2617
vljaju	-2618
matra	-2619
dnih	-2620
▁vanj	-2621
▁izborima	-2622
gor	-2623
lila	-2624
▁ponaša	-2625
▁strana	-2626
▁suo	-2627
ljeća	-2628
▁ravna	-2629
▁muškar	-2630
▁potreb	-2631
▁razvoj	-2632
Ne	-2633
▁kak	-2634
▁teni	-2635
▁djeca	-2636
▁njihove	-2637
:1	-2638
sh	-2639
igra	-2640
▁Har	-2641
▁sporta	-2642
žba	-2643
▁ad	-2644
laga	-2645
nsko	-2646
▁video	-2647
▁onih	-2648
▁isklju	-2649
▁terenu	-2650
vka	-2651
▁(3	-2652
tere	-2653
▁Tomi	-2654
▁snima	-2655
vnici	-2656
▁Može	-2657
blja	-2658
mica	-2659
▁stre	-2660
▁Svjet	-2661
▁države	-2662
▁momčadi	-2663
▁razmišlja	-2664
ćen	-2665
baci	-2666
▁igre	-2667
▁plat	-2668
▁igrač	-2669
▁provo	-2670
▁Hrvatski	-2671
▁sho	-2672
▁Predsjedni	-2673
šća	-2674
▁Vr	-2675
▁crve	-2676
▁New	-2677
▁indu	-2678
▁bolji	-2679
žni	-2680
▁San	-2681
▁partne	-2682
▁poljopri	-2683
pisao	-2684
▁kojom	-2685
eno	-2686
▁trebali	-2687
▁oduše	-2688
aj	-2689
zom	-2690
-2	-2691
gan	-2692
lnika	-2693
▁kući	-2694
▁potrebno	-2695
▁jedne	-2696
▁natje	-2697
▁prisu	-2698
njo	-2699
dnoj	-2700
tili	-2701
▁novac	-2702
▁njihov	-2703
▁ukraji	-2704
▁Pari	-2705
▁bolesti	-2706
▁poslova	-2707
lac	-2708
▁2.	-2709
vice	-2710
▁promjene	-2711
đuje	-2712
vljeni	-2713
▁životu	-2714
Po	-2715
▁rujna	-2716
▁prenosi	-2717
▁uni	-2718
▁ljudima	-2719
▁ljud	-2720
▁stvar	-2721
cem	-2722
▁FO	-2723
▁prilikom	-2724
▁posljednjih	-2725
▁he	-2726
▁Bilo	-2727
▁22	-2728
▁šan	-2729
ili	-2730
▁Ipak	-2731
▁lako	-2732
▁rado	-2733
▁opera	-2734
▁provje	-2735
▁smanji	-2736
▁najveći	-2737
▁svakodne	-2738
▁Ste	-2739
▁brzi	-2740
▁škola	-2741
;,	-2742
nijih	-2743
▁kame	-2744
▁mijenja	-2745
vča	-2746
sjetimo	-2747
▁stadio	-2748
▁policije	-2749
nstve	-2750
▁četvrtak	-2751
▁dro	-2752
▁sku	-2753
▁zadovolj	-2754
▁Slove	-2755
▁pitanja	-2756
▁prostor	-2757
▁Dje	-2758
▁Sre	-2759
ljenje	-2760
cha	-2761
▁izvijesti	-2762
▁Bio	-2763
▁odgovor	-2764
▁kažu	-2765
▁ulaga	-2766
▁napre	-2767
▁rekli	-2768
▁smanje	-2769
siona	-2770
▁projekta	-2771
kar	-2772
jskog	-2773
▁pada	-2774
metara	-2775
▁konku	-2776
lle	-2777
dnog	-2778
cijske	-2779
▁trebala	-2780
▁RT	-2781
▁zema	-2782
▁ispla	-2783
▁razloga	-2784
ini	-2785
▁okoli	-2786
▁umjetni	-2787
gne	-2788
▁dao	-2789
▁Tije	-2790
▁odgovara	-2791
kog	-2792
mos	-2793
▁doče	-2794
▁posljedi	-2795
rnosti	-2796
▁Europe	-2797
▁cijeli	-2798
▁ukupno	-2799
▁ožu	-2800
▁iznim	-2801
▁Cr	-2802
▁Ber	-2803
▁cje	-2804
sjeća	-2805
snih	-2806
▁premijer	-2807
bla	-2808
▁uzro	-2809
▁parki	-2810
▁srpnja	-2811
▁Oni	-2812
▁živi	-2813
▁prora	-2814
▁socija	-2815
▁korište	-2816
▁napisao	-2817
bur	-2818
▁pobolj	-2819
▁prijed	-2820
nese	-2821
▁elektri	-2822
▁nekretni	-2823
ila	-2824
ljeni	-2825
▁Dalma	-2826
▁pruža	-2827
▁sklopu	-2828
▁dodatno	-2829
▁materija	-2830
▁listopada	-2831
ber	-2832
▁ispriča	-2833
▁bes	-2834
▁moj	-2835
▁država	-2836
▁FOTO	-2837
▁reko	-2838
▁žene	-2839
▁računa	-2840
am	-2841
ine	-2842
▁pripa	-2843
▁vrata	-2844
▁nevje	-2845
▁umi	-2846
lazak	-2847
▁kupa	-2848
▁reak	-2849
▁mlade	-2850
▁1,	-2851
▁dati	-2852
▁rast	-2853
▁tiče	-2854
-0	-2855
▁uvo	-2856
▁Samo	-2857
on	-2858
▁Gor	-2859
▁Mate	-2860
▁reprezentacije	-2861
iti	-2862
▁am	-2863
▁lige	-2864
▁moramo	-2865
▁opasno	-2866
▁tjedan	-2867
koho	-2868
mili	-2869
raca	-2870
▁reda	-2871
▁Zadar	-2872
▁početka	-2873
▁epi	-2874
▁sadrža	-2875
▁Ukrajini	-2876
▁ovim	-2877
▁razgovara	-2878
▁Mislim	-2879
▁mladih	-2880
▁ostati	-2881
▁građana	-2882
▁dozna	-2883
▁previše	-2884
▁obe	-2885
▁kolu	-2886
▁predvi	-2887
▁uglavnom	-2888
▁podršku	-2889
▁jednostavno	-2890
▁Ge	-2891
pušte	-2892
▁pacije	-2893
ya	-2894
kim	-2895
rke	-2896
šio	-2897
▁hoće	-2898
▁Europi	-2899
fu	-2900
razu	-2901
▁god	-2902
tivno	-2903
▁koša	-2904
▁zada	-2905
▁barem	-2906
▁preuze	-2907
▁automobila	-2908
▁Par	-2909
▁dozvo	-2910
▁zemalja	-2911
▁drugog	-2912
▁prijatelj	-2913
▁Zla	-2914
▁vodst	-2915
klu	-2916
▁nekim	-2917
▁ulogu	-2918
tac	-2919
slje	-2920
snim	-2921
▁važno	-2922
▁dodaje	-2923
NA	-2924
▁veliku	-2925
;.	-2926
▁strate	-2927
▁kolovoza	-2928
▁sigurnosti	-2929
▁Rijeke	-2930
▁vrijednosti	-2931
▁ograni	-2932
▁prvenstva	-2933
▁X	-2934
snog	-2935
▁kli	-2936
vjeti	-2937
▁defi	-2938
▁priti	-2939
▁kuća	-2940
▁odluku	-2941
▁najmanje	-2942
ly	-2943
▁polo	-2944
vremenu	-2945
▁23	-2946
0.000	-2947
lijan	-2948
ras	-2949
tske	-2950
▁gubi	-2951
▁susje	-2952
▁dobila	-2953
ih	-2954
▁Bru	-2955
jutro	-2956
▁završe	-2957
▁kuha	-2958
▁norma	-2959
▁uopće	-2960
▁Tr	-2961
▁vike	-2962
▁prima	-2963
čuje	-2964
žena	-2965
skoro	-2966
▁čovjek	-2967
▁Europske	-2968
▁projekti	-2969
tski	-2970
▁Bje	-2971
▁Nova	-2972
▁navede	-2973
▁iskoristi	-2974
▁Trump	-2975
vid	-2976
mila	-2977
▁mobi	-2978
▁počinje	-2979
▁60	-2980
▁Još	-2981
▁RTL	-2982
▁dalj	-2983
▁ošte	-2984
ssi	-2985
▁velja	-2986
gno	-2987
bilje	-2988
▁premi	-2989
▁umjesto	-2990
▁hu	-2991
▁doka	-2992
▁diljem	-2993
▁polufina	-2994
▁programa	-2995
▁treni	-2996
rova	-2997
▁hra	-2998
▁brojne	-2999
▁odluka	-3000
50	-3001
▁fran	-3002
▁njezin	-3003
▁profi	-3004
▁izrael	-3005
▁troško	-3006
pad	-3007
ćeni	-3008
▁Raz	-3009
nskim	-3010
jedinje	-3011
▁različi	-3012
▁svibnja	-3013
▁direktor	-3014
čeni	-3015
▁uze	-3016
▁loše	-3017
▁Evo	-3018
▁gro	-3019
▁Usta	-3020
▁kompa	-3021
čen	-3022
luje	-3023
tiva	-3024
▁lak	-3025
▁putu	-3026
▁prila	-3027
▁stari	-3028
▁njihova	-3029
▁televizi	-3030
by	-3031
kove	-3032
vlji	-3033
▁utr	-3034
stina	-3035
▁opći	-3036
▁Jedan	-3037
▁priopće	-3038
▁Cha	-3039
▁w	-3040
▁naša	-3041
▁bivše	-3042
▁mjesec	-3043
▁naba	-3044
▁dopri	-3045
▁sazna	-3046
šati	-3047
▁meni	-3048
▁raspra	-3049
▁područja	-3050
▁nastaviti	-3051
kih	-3052
tek	-3053
škom	-3054
▁treći	-3055
▁izbore	-3056
▁presu	-3057
▁reagi	-3058
▁shvati	-3059
▁natjecanja	-3060
štvu	-3061
▁naših	-3062
▁alkoho	-3063
lena	-3064
▁Wa	-3065
▁zi	-3066
▁per	-3067
▁The	-3068
▁blo	-3069
▁ozna	-3070
▁traži	-3071
ing	-3072
▁žrt	-3073
▁posljednje	-3074
▁oruž	-3075
▁zausta	-3076
▁tehnologi	-3077
▁zrako	-3078
mer	-3079
▁Sti	-3080
▁devet	-3081
▁prosvje	-3082
ljev	-3083
▁nagla	-3084
rastruk	-3085
▁napusti	-3086
šni	-3087
▁oku	-3088
▁gola	-3089
▁prika	-3090
▁ljubav	-3091
▁ugovor	-3092
eli	-3093
▁(4	-3094
▁stručnja	-3095
val	-3096
tlji	-3097
njuje	-3098
▁jedin	-3099
▁obrane	-3100
kro	-3101
▁Upra	-3102
▁pitanju	-3103
▁prekrša	-3104
jska	-3105
▁Dok	-3106
▁zabra	-3107
celo	-3108
▁duž	-3109
▁2021.	-3110
▁napad	-3111
▁znaju	-3112
spje	-3113
▁atmos	-3114
▁dostup	-3115
podne	-3116
ad	-3117
formi	-3118
▁Nema	-3119
▁redu	-3120
▁seku	-3121
▁Tijekom	-3122
tila	-3123
▁Pra	-3124
▁igrao	-3125
BC	-3126
tije	-3127
turu	-3128
tnost	-3129
▁jugo	-3130
▁cijelo	-3131
RI	-3132
stom	-3133
▁dre	-3134
tija	-3135
▁sat	-3136
▁energe	-3137
▁tijelo	-3138
▁profesiona	-3139
▁okre	-3140
▁zadrža	-3141
eni	-3142
mbo	-3143
▁Ot	-3144
čenja	-3145
▁preh	-3146
Ccaron	-3147
▁gosti	-3148
▁tradiciona	-3149
▁liječ	-3150
▁zdravlje	-3151
▁ruko	-3152
▁aktua	-3153
ao	-3154
blju	-3155
lice	-3156
čine	-3157
▁asi	-3158
▁iznad	-3159
▁proraču	-3160
▁Taj	-3161
▁Radi	-3162
▁priop	-3163
▁vraća	-3164
▁događaja	-3165
ljene	-3166
žalost	-3167
▁3.	-3168
stao	-3169
▁tehni	-3170
▁odluke	-3171
▁Šu	-3172
▁pli	-3173
čitajte	-3174
▁tijela	-3175
▁njegovu	-3176
gh	-3177
▁20.	-3178
▁vratiti	-3179
▁iskustvo	-3180
▁sigurnost	-3181
▁Hu	-3182
nili	-3183
▁Jadra	-3184
▁stigao	-3185
▁francu	-3186
▁zabora	-3187
lmati	-3188
▁Vladi	-3189
▁ostao	-3190
▁sutra	-3191
▁izrazi	-3192
▁sprije	-3193
▁infrastruk	-3194
kta	-3195
▁jest	-3196
▁cesta	-3197
▁korak	-3198
▁traže	-3199
▁ostali	-3200
▁ujutro	-3201
▁Podsjetimo	-3202
▁Še	-3203
▁kontak	-3204
▁početkom	-3205
žne	-3206
▁finala	-3207
▁Hrvatskog	-3208
▁TV	-3209
čića	-3210
▁Sin	-3211
▁prvoj	-3212
▁zakon	-3213
▁majka	-3214
boo	-3215
dran	-3216
vilo	-3217
▁miš	-3218
▁koriste	-3219
skr	-3220
fici	-3221
▁boda	-3222
▁smrti	-3223
▁sudio	-3224
▁stvarno	-3225
▁Jako	-3226
▁Lige	-3227
▁Real	-3228
▁najva	-3229
▁mediji	-3230
▁zanima	-3231
▁energije	-3232
▁HNL	-3233
▁naz	-3234
feren	-3235
▁Osije	-3236
▁strani	-3237
▁informacije	-3238
▁HRT	-3239
kinja	-3240
▁identi	-3241
▁Stu	-3242
stati	-3243
dama	-3244
▁upa	-3245
▁tema	-3246
▁pristup	-3247
čice	-3248
▁Sada	-3249
▁borbe	-3250
▁navodno	-3251
▁ke	-3252
▁cent	-3253
▁čime	-3254
▁blizi	-3255
▁uspio	-3256
▁stanje	-3257
▁siječnja	-3258
▁Njemačkoj	-3259
▁ubr	-3260
▁ispa	-3261
▁nave	-3262
▁interne	-3263
▁najavio	-3264
▁prvenstvu	-3265
lega	-3266
▁zvu	-3267
▁Plenkovi	-3268
▁Kre	-3269
rtuga	-3270
▁učin	-3271
▁globa	-3272
▁završio	-3273
▁došli	-3274
▁hrane	-3275
:0	-3276
▁NATO	-3277
vljeno	-3278
▁klubo	-3279
▁prijet	-3280
▁prosinca	-3281
kov	-3282
mani	-3283
njen	-3284
▁skupine	-3285
ava	-3286
mnji	-3287
▁age	-3288
▁ski	-3289
▁posu	-3290
▁dolaze	-3291
gita	-3292
▁poh	-3293
▁anti	-3294
▁svemu	-3295
ćima	-3296
▁proizvoda	-3297
▁nju	-3298
ceboo	-3299
▁izmje	-3300
▁centra	-3301
▁daleko	-3302
var	-3303
▁evo	-3304
▁nau	-3305
vrije	-3306
▁Treba	-3307
▁novim	-3308
▁resto	-3309
▁seksu	-3310
yo	-3311
ala	-3312
▁Gru	-3313
ita	-3314
ziva	-3315
tnici	-3316
▁dodala	-3317
jam	-3318
▁proti	-3319
▁demokra	-3320
▁sezonu	-3321
▁odlučio	-3322
▁Zdra	-3323
▁mani	-3324
▁Beogra	-3325
▁procje	-3326
▁omogući	-3327
▁nastavlja	-3328
koj	-3329
▁noći	-3330
▁tvrtka	-3331
▁zahvalju	-3332
tnik	-3333
lnost	-3334
▁uoči	-3335
ir	-3336
ps	-3337
▁rat	-3338
▁nače	-3339
▁slučaj	-3340
▁supruga	-3341
kuju	-3342
rite	-3343
listi	-3344
čević	-3345
▁lege	-3346
▁ljeta	-3347
▁voli	-3348
▁čiji	-3349
▁Župa	-3350
▁znanstve	-3351
ćoj	-3352
žbi	-3353
▁Madri	-3354
▁protu	-3355
▁osvaja	-3356
qu	-3357
▁RH	-3358
▁Više	-3359
▁kape	-3360
▁vjero	-3361
▁radova	-3362
▁prostora	-3363
▁zabri	-3364
enje	-3365
mima	-3366
▁polica	-3367
▁mr	-3368
lili	-3369
nina	-3370
čeno	-3371
▁Vlada	-3372
▁kazali	-3373
jnu	-3374
ćom	-3375
čnoj	-3376
▁Prvi	-3377
▁postala	-3378
▁situaciju	-3379
▁savrše	-3380
▁komunika	-3381
▁kandidata	-3382
ženi	-3383
▁doba	-3384
▁proši	-3385
▁obzira	-3386
▁sposob	-3387
▁osobito	-3388
jskih	-3389
▁Isto	-3390
▁plaće	-3391
nsku	-3392
▁15.	-3393
vnost	-3394
▁nastup	-3395
▁pridru	-3396
vina	-3397
grama	-3398
stoji	-3399
▁mjere	-3400
▁uprave	-3401
▁primjer	-3402
▁pokazuje	-3403
ncu	-3404
▁Is	-3405
vici	-3406
rović	-3407
▁odgo	-3408
▁koali	-3409
▁kratko	-3410
sk	-3411
ram	-3412
▁sni	-3413
▁iste	-3414
▁Josip	-3415
▁ispra	-3416
▁sunča	-3417
▁mogućnost	-3418
▁parlamenta	-3419
dinu	-3420
vale	-3421
▁okvi	-3422
▁ruke	-3423
▁vezi	-3424
▁savez	-3425
▁kazala	-3426
▁životi	-3427
▁Policija	-3428
mena	-3429
▁redo	-3430
▁maksi	-3431
cionira	-3432
▁jednoj	-3433
▁drugači	-3434
▁Kla	-3435
ljeno	-3436
prili	-3437
▁Stra	-3438
▁nadle	-3439
▁svakom	-3440
ziju	-3441
▁upi	-3442
▁našim	-3443
▁prilika	-3444
▁prometa	-3445
▁prihvati	-3446
Na	-3447
▁Or	-3448
▁ek	-3449
▁gradonačelnik	-3450
▁Udru	-3451
ol	-3452
ćim	-3453
jama	-3454
▁koma	-3455
▁priče	-3456
▁nogome	-3457
▁svojom	-3458
▁zabilje	-3459
et	-3460
yja	-3461
rine	-3462
rnih	-3463
▁Car	-3464
▁održi	-3465
▁Srbije	-3466
▁riječi	-3467
▁uskoro	-3468
▁Faceboo	-3469
▁nakna	-3470
nku	-3471
▁imam	-3472
▁skup	-3473
▁traje	-3474
▁smjeru	-3475
▁društva	-3476
▁naravno	-3477
▁specija	-3478
▁vese	-3479
▁2025.	-3480
▁Itali	-3481
202	-3482
štine	-3483
Zcaron	-3484
▁jučer	-3485
▁sjeća	-3486
sen	-3487
▁ljubi	-3488
▁poklo	-3489
▁dijela	-3490
▁poziva	-3491
▁zaključio	-3492
jedna	-3493
▁zele	-3494
▁filma	-3495
▁inače	-3496
▁minute	-3497
mana	-3498
stiti	-3499
▁supro	-3500
▁ino	-3501
▁pala	-3502
▁imovi	-3503
▁društvo	-3504
▁napisala	-3505
▁pokazala	-3506
▁ap	-3507
▁preu	-3508
▁ozlje	-3509
▁dokumenta	-3510
▁Pročitajte	-3511
▁fotografije	-3512
ns	-3513
nicija	-3514
▁klubu	-3515
▁stabi	-3516
▁površi	-3517
▁susret	-3518
▁koristiti	-3519
nos	-3520
▁Ša	-3521
▁foku	-3522
▁nemaju	-3523
▁pjesme	-3524
▁stvori	-3525
▁zadovo	-3526
▁zaista	-3527
▁pokazao	-3528
▁preporu	-3529
lka	-3530
por	-3531
čena	-3532
▁odo	-3533
rnica	-3534
▁veze	-3535
▁vrti	-3536
zirati	-3537
▁intenzi	-3538
▁državlja	-3539
▁ca	-3540
niku	-3541
reno	-3542
▁nekih	-3543
▁pobjeda	-3544
▁susreta	-3545
▁poljoprivre	-3546
▁inci	-3547
lizira	-3548
▁drugu	-3549
▁studi	-3550
▁temperatura	-3551
Za	-3552
▁vru	-3553
ćenja	-3554
▁priho	-3555
JA	-3556
bru	-3557
zbo	-3558
▁Ona	-3559
rskoj	-3560
▁otac	-3561
▁stati	-3562
▁početku	-3563
zan	-3564
▁Os	-3565
žnju	-3566
▁Jer	-3567
▁Zato	-3568
▁umiro	-3569
▁kvalifika	-3570
sio	-3571
▁of	-3572
kade	-3573
▁radni	-3574
▁njezina	-3575
ld	-3576
▁7.	-3577
▁dubo	-3578
▁klasi	-3579
▁novca	-3580
▁građani	-3581
▁rješenje	-3582
▁17.	-3583
rnice	-3584
▁sabor	-3585
ljka	-3586
▁kće	-3587
▁anga	-3588
▁ugro	-3589
▁takav	-3590
▁postaje	-3591
rko	-3592
▁postati	-3593
ćuje	-3594
▁ići	-3595
▁Dakle	-3596
▁dobri	-3597
▁atmosfe	-3598
▁primije	-3599
▁trenera	-3600
mpi	-3601
dera	-3602
▁izd	-3603
▁mali	-3604
▁ovak	-3605
▁uboj	-3606
▁rođen	-3607
mpo	-3608
▁5.	-3609
škog	-3610
▁Mnog	-3611
▁moje	-3612
šnjava	-3613
▁Polju	-3614
▁našeg	-3615
gencije	-3616
▁napravio	-3617
▁kilometara	-3618
RA	-3619
▁26	-3620
▁sama	-3621
▁pogre	-3622
▁ozljede	-3623
▁karijere	-3624
▁90	-3625
▁novom	-3626
▁okupi	-3627
▁Bre	-3628
▁dođe	-3629
▁provodi	-3630
▁Kova	-3631
▁Mađa	-3632
▁albu	-3633
▁prihva	-3634
▁stanju	-3635
▁javnost	-3636
▁ljubavi	-3637
▁velikim	-3638
naca	-3639
vana	-3640
tivna	-3641
▁uspješ	-3642
\/	-3643
vec	-3644
dnim	-3645
▁Zoran	-3646
jati	-3647
▁Ško	-3648
laska	-3649
▁navode	-3650
▁pojača	-3651
▁Naciona	-3652
rin	-3653
snom	-3654
čara	-3655
plika	-3656
▁para	-3657
▁dobra	-3658
nose	-3659
▁Bla	-3660
godišnjeg	-3661
lli	-3662
znu	-3663
▁ska	-3664
▁Ante	-3665
▁derbi	-3666
▁Nikola	-3667
▁ostaje	-3668
gna	-3669
tle	-3670
đenih	-3671
▁Neki	-3672
▁obeća	-3673
▁#	-3674
kada	-3675
▁mnoge	-3676
▁cijelu	-3677
▁drugoj	-3678
▁svakako	-3679
▁stanovni	-3680
▁Vije	-3681
▁blag	-3682
▁koncert	-3683
▁potrebe	-3684
▁utje	-3685
▁Sara	-3686
▁2020.	-3687
▁izuze	-3688
▁potica	-3689
▁pogotovo	-3690
valo	-3691
veze	-3692
▁naru	-3693
▁Herce	-3694
▁počeo	-3695
▁ožujka	-3696
▁blizini	-3697
▁profeso	-3698
▁mogućnosti	-3699
vju	-3700
miru	-3701
nulo	-3702
rnici	-3703
▁škol	-3704
▁dvoji	-3705
▁promjena	-3706
▁plu	-3707
▁njim	-3708
▁Jan	-3709
▁Ono	-3710
▁noć	-3711
▁čet	-3712
brani	-3713
dnije	-3714
▁Cije	-3715
ljenja	-3716
▁snaga	-3717
▁uslije	-3718
▁izgubio	-3719
▁kulture	-3720
▁rezultate	-3721
▁11.	-3722
▁ovako	-3723
▁igrali	-3724
▁jedini	-3725
▁naglasio	-3726
ene	-3727
▁uređa	-3728
▁digita	-3729
▁eksplo	-3730
▁pjesmu	-3731
▁Portuga	-3732
▁uspjeli	-3733
ger	-3734
▁nao	-3735
▁fakul	-3736
▁pokreta	-3737
▁pronaći	-3738
▁politike	-3739
Mo	-3740
▁Hr	-3741
stoj	-3742
▁Anto	-3743
▁sina	-3744
▁skri	-3745
▁Maksi	-3746
▁došla	-3747
▁ovoga	-3748
▁probleme	-3749
▁sezoni	-3750
ker	-3751
bama	-3752
love	-3753
▁sin	-3754
▁asiste	-3755
raz	-3756
▁plan	-3757
▁povo	-3758
▁broja	-3759
▁Naravno	-3760
njih	-3761
teri	-3762
▁gosto	-3763
▁krajem	-3764
▁Dubrovnik	-3765
gresi	-3766
▁radu	-3767
▁Parizu	-3768
▁centar	-3769
▁sredstva	-3770
cka	-3771
▁ljeto	-3772
▁svake	-3773
▁ubije	-3774
▁finale	-3775
tru	-3776
jskom	-3777
▁kata	-3778
▁dosad	-3779
▁porta	-3780
▁znamo	-3781
▁medija	-3782
▁vratio	-3783
predsjedni	-3784
,2	-3785
zin	-3786
▁budućnosti	-3787
▁htje	-3788
▁nase	-3789
▁stro	-3790
▁poraza	-3791
▁kombina	-3792
▁intervju	-3793
vda	-3794
tost	-3795
ćena	-3796
▁obno	-3797
▁stup	-3798
▁Istra	-3799
▁usmje	-3800
▁naslov	-3801
godišnjak	-3802
čaje	-3803
▁Ove	-3804
▁nudi	-3805
▁Jedna	-3806
▁topli	-3807
▁najvaž	-3808
▁većina	-3809
▁Pogleda	-3810
▁okuplja	-3811
šića	-3812
▁Doma	-3813
▁reži	-3814
▁priču	-3815
▁prvih	-3816
▁mandata	-3817
▁zanimlji	-3818
teo	-3819
▁DP	-3820
ljep	-3821
štaj	-3822
▁Lasa	-3823
▁ocje	-3824
▁česti	-3825
▁raspore	-3826
▁automobil	-3827
▁(5	-3828
pora	-3829
▁udar	-3830
▁svlada	-3831
▁trebaju	-3832
sad	-3833
vcu	-3834
▁epizo	-3835
▁izved	-3836
▁podru	-3837
▁objasnio	-3838
▁prvenstvo	-3839
boru	-3840
▁12.	-3841
▁redovi	-3842
▁roditelji	-3843
gri	-3844
▁4.	-3845
minali	-3846
▁ekipa	-3847
▁građe	-3848
,3	-3849
lit	-3850
rup	-3851
▁Kr	-3852
voru	-3853
▁ukra	-3854
▁imate	-3855
▁postu	-3856
▁hrvatskom	-3857
▁Ministarstva	-3858
,4	-3859
dilo	-3860
▁ulaz	-3861
▁simbo	-3862
▁društvu	-3863
▁iznimno	-3864
▁trenutak	-3865
▁Predsjednik	-3866
vit	-3867
▁Ana	-3868
▁moja	-3869
▁mjera	-3870
▁završ	-3871
▁stranka	-3872
▁talijan	-3873
▁najboljih	-3874
mla	-3875
▁27	-3876
▁Gi	-3877
vile	-3878
đuju	-3879
▁zatvore	-3880
▁Ch	-3881
▁Fu	-3882
djela	-3883
▁zavo	-3884
▁unije	-3885
▁pokazuju	-3886
▁Tri	-3887
▁našu	-3888
▁kojemu	-3889
▁uspjeh	-3890
▁vjenča	-3891
▁glasova	-3892
▁prijevo	-3893
▁zajednice	-3894
min	-3895
šnjeg	-3896
▁uzbu	-3897
žnosni	-3898
▁konzu	-3899
▁Splita	-3900
▁učiniti	-3901
▁suradnji	-3902
-3	-3903
tira	-3904
▁198	-3905
▁dječ	-3906
▁iskre	-3907
us	-3908
cep	-3909
▁8.	-3910
▁povu	-3911
lacije	-3912
▁cilje	-3913
▁zamije	-3914
▁nesreće	-3915
VD	-3916
mrt	-3917
▁80	-3918
▁Ope	-3919
▁ele	-3920
njena	-3921
▁nega	-3922
▁finalu	-3923
▁inteli	-3924
▁osigura	-3925
žna	-3926
▁vid	-3927
tfina	-3928
šević	-3929
▁avio	-3930
▁dose	-3931
▁Super	-3932
▁loptu	-3933
▁statu	-3934
▁We	-3935
kati	-3936
nskoj	-3937
▁razo	-3938
▁dvoje	-3939
▁igrači	-3940
▁situacije	-3941
,1	-3942
▁vaš	-3943
skoga	-3944
zirao	-3945
zozem	-3946
▁regu	-3947
▁predi	-3948
▁Barcelo	-3949
▁potpisa	-3950
▁Tomislav	-3951
mova	-3952
nche	-3953
▁18.	-3954
▁pam	-3955
tković	-3956
▁migra	-3957
▁razlog	-3958
▁trenuta	-3959
▁informacija	-3960
les	-3961
▁Af	-3962
▁10.	-3963
▁svr	-3964
▁daje	-3965
▁znati	-3966
KO	-3967
▁35	-3968
njim	-3969
▁imena	-3970
:00	-3971
mentu	-3972
▁Toma	-3973
▁lijepo	-3974
▁inicija	-3975
▁zaštite	-3976
▁jedinstve	-3977
,8	-3978
BA	-3979
▁Ob	-3980
▁Mario	-3981
▁točno	-3982
▁autobu	-3983
▁Jadranu	-3984
▁bolnici	-3985
▁iskustva	-3986
▁reprezentacija	-3987
▁visi	-3988
▁ceste	-3989
▁očito	-3990
fer	-3991
▁Zako	-3992
▁diplo	-3993
▁Rusija	-3994
▁otišao	-3995
ler	-3996
▁Tko	-3997
▁Bran	-3998
▁odnos	-3999
▁popra	-4000
put	-4001
tive	-4002
▁Alek	-4003
▁lakše	-4004
▁objek	-4005
▁ulici	-4006
▁tržištu	-4007
▁posljednji	-4008
Ma	-4009
▁Ži	-4010
▁Turu	-4011
▁iska	-4012
▁vele	-4013
▁ljest	-4014
▁tvrde	-4015
▁zraka	-4016
▁Ć	-4017
nuta	-4018
cikli	-4019
▁opra	-4020
▁govore	-4021
▁poznati	-4022
▁list	-4023
▁obla	-4024
▁zvijezda	-4025
▁Prvo	-4026
▁navi	-4027
▁prakti	-4028
▁osvojila	-4029
▁potvrdio	-4030
OR	-4031
▁Cro	-4032
▁ruku	-4033
▁Osijek	-4034
▁kandidat	-4035
▁Instagramu	-4036
▁Ministarstvo	-4037
▁karijeri	-4038
▁poboljša	-4039
▁razumije	-4040
▁Pogledajte	-4041
▁super	-4042
▁tjele	-4043
▁javlja	-4044
▁odnosi	-4045
ica	-4046
▁vu	-4047
▁19.	-4048
▁Cit	-4049
▁sed	-4050
▁Peri	-4051
▁kreta	-4052
▁inozem	-4053
ljko	-4054
čava	-4055
▁21.	-4056
▁lice	-4057
▁svaka	-4058
▁prilago	-4059
ou	-4060
hom	-4061
ivot	-4062
vljuje	-4063
▁Andrej	-4064
▁Amerika	-4065
▁proizvođa	-4066
▁priopćenju	-4067
▁Eu	-4068
isto	-4069
komo	-4070
▁unutra	-4071
▁razdoblju	-4072
AR	-4073
nec	-4074
yer	-4075
▁70	-4076
jsku	-4077
▁Baby	-4078
▁bora	-4079
▁kupo	-4080
govarati	-4081
▁razvoja	-4082
reda	-4083
▁scena	-4084
▁incide	-4085
▁obrani	-4086
▁dužnosni	-4087
,6	-4088
tte	-4089
vani	-4090
ntima	-4091
proda	-4092
rnika	-4093
▁meta	-4094
tivnih	-4095
▁Sveučili	-4096
▁istraživanje	-4097
gara	-4098
▁Una	-4099
slava	-4100
▁poraz	-4101
▁stoga	-4102
▁postavlja	-4103
dove	-4104
▁ostale	-4105
▁pregovo	-4106
▁zad	-4107
nijeg	-4108
▁kapa	-4109
▁kora	-4110
▁onaj	-4111
▁Riječ	-4112
▁povijest	-4113
▁zrakoplo	-4114
SS	-4115
▁Dne	-4116
▁gre	-4117
▁karak	-4118
▁vidio	-4119
▁zatra	-4120
▁želim	-4121
▁vidjeli	-4122
▁dogodila	-4123
▁različiti	-4124
rnu	-4125
solu	-4126
vniku	-4127
▁moru	-4128
▁moto	-4129
▁veće	-4130
▁teren	-4131
▁tenisa	-4132
ama	-4133
lgi	-4134
ženo	-4135
▁Vin	-4136
▁njoj	-4137
▁osjeti	-4138
▁stigla	-4139
▁strada	-4140
▁radnika	-4141
▁hrvatska	-4142
▁komentirao	-4143
,7	-4144
▁196	-4145
presi	-4146
▁Bije	-4147
▁gori	-4148
▁klima	-4149
▁Olimpij	-4150
▁velikom	-4151
vak	-4152
enja	-4153
▁Ben	-4154
▁edu	-4155
ženja	-4156
▁oslo	-4157
▁Slavo	-4158
▁raste	-4159
▁upisa	-4160
▁stalno	-4161
▁govorio	-4162
▁partner	-4163
čari	-4164
▁Ban	-4165
▁Robe	-4166
▁borbi	-4167
▁nekada	-4168
▁serije	-4169
▁sezona	-4170
▁pohvali	-4171
▁zatvora	-4172
▁prijatelji	-4173
bav	-4174
etiri	-4175
▁more	-4176
▁listi	-4177
▁popla	-4178
▁privla	-4179
▁održati	-4180
pisi	-4181
dnica	-4182
▁Polj	-4183
▁svakog	-4184
▁unatoč	-4185
▁zakona	-4186
▁rješenja	-4187
▁odgovorio	-4188
▁Pose	-4189
▁našoj	-4190
▁psiho	-4191
▁sveča	-4192
rira	-4193
gurno	-4194
▁izvor	-4195
▁našem	-4196
▁zgrade	-4197
▁razliku	-4198
▁spremni	-4199
▁umirovlje	-4200
▁bre	-4201
▁top	-4202
stvom	-4203
▁vina	-4204
▁nastupi	-4205
▁28	-4206
anta	-4207
lini	-4208
▁kakav	-4209
▁osumnji	-4210
▁španjol	-4211
▁vrijednost	-4212
ny	-4213
vine	-4214
koliko	-4215
▁Inače	-4216
▁vatre	-4217
▁bespla	-4218
uje	-4219
▁ter	-4220
lesti	-4221
▁kine	-4222
▁odmo	-4223
▁titu	-4224
▁Kopri	-4225
▁poznato	-4226
▁kilograma	-4227
zno	-4228
žnja	-4229
▁Gre	-4230
▁Yor	-4231
▁sru	-4232
▁Brita	-4233
▁Nisam	-4234
▁nepri	-4235
▁školu	-4236
▁golova	-4237
▁nagradu	-4238
▁temelju	-4239
▁turnira	-4240
▁milijardi	-4241
tona	-4242
▁Wil	-4243
fek	-4244
rnog	-4245
▁centru	-4246
▁cijele	-4247
▁počela	-4248
aju	-4249
▁dom	-4250
▁srca	-4251
▁treće	-4252
▁ugosti	-4253
▁njihovu	-4254
▁vremenu	-4255
▁zaštitu	-4256
▁međunaro	-4257
▁programu	-4258
▁kriminali	-4259
pić	-4260
▁13.	-4261
▁Bila	-4262
▁priopći	-4263
esto	-4264
etvr	-4265
▁presta	-4266
▁regiona	-4267
▁skupina	-4268
naj	-4269
▁6.	-4270
▁Nji	-4271
▁donio	-4272
godišnje	-4273
▁karijeru	-4274
▁navijača	-4275
zmu	-4276
▁sk	-4277
tama	-4278
▁halji	-4279
▁Lokomo	-4280
▁ostala	-4281
rti	-4282
turi	-4283
▁Joh	-4284
vljene	-4285
▁pribli	-4286
▁navečer	-4287
▁budućnost	-4288
▁premijera	-4289
Do	-4290
ret	-4291
jica	-4292
▁Primo	-4293
▁gledati	-4294
▁osjećaj	-4295
ova	-4296
rnim	-4297
bacio	-4298
▁2019.	-4299
▁policij	-4300
▁kategoriji	-4301
▁UN	-4302
ćenje	-4303
▁Mnogi	-4304
▁iznos	-4305
▁dovesti	-4306
▁standar	-4307
tetu	-4308
▁teri	-4309
▁takve	-4310
▁vijest	-4311
▁godišnje	-4312
▁stoljeća	-4313
▁km	-4314
▁Bor	-4315
njeva	-4316
▁htio	-4317
▁soli	-4318
▁obrati	-4319
▁proces	-4320
▁strije	-4321
▁Per	-4322
▁mlado	-4323
▁poruku	-4324
▁izjedna	-4325
▁nesreća	-4326
▁početak	-4327
▁europskih	-4328
kin	-4329
▁og	-4330
mlja	-4331
▁Nor	-4332
▁Već	-4333
▁uka	-4334
▁neiz	-4335
▁bitno	-4336
▁trene	-4337
▁agresi	-4338
▁međunarod	-4339
šle	-4340
rene	-4341
▁omi	-4342
stoje	-4343
▁poziv	-4344
▁pošto	-4345
▁Rijeci	-4346
▁igraju	-4347
▁izbori	-4348
▁minima	-4349
▁mobite	-4350
▁ostalim	-4351
▁uvjetima	-4352
▁pogledajte	-4353
TA	-4354
▁197	-4355
▁dobre	-4356
▁novča	-4357
▁kapaci	-4358
▁razvija	-4359
▁Hercegovi	-4360
,9	-4361
▁Br	-4362
▁Don	-4363
▁boje	-4364
▁školi	-4365
▁Jadran	-4366
▁zapovje	-4367
▁14.	-4368
▁drži	-4369
▁Sport	-4370
▁jutro	-4371
▁Možemo	-4372
▁medije	-4373
▁US	-4374
▁fe	-4375
▁Filip	-4376
▁grupe	-4377
▁rasta	-4378
▁ravno	-4379
▁odigrao	-4380
▁provede	-4381
▁članova	-4382
▁donijeti	-4383
▁podataka	-4384
▁smatraju	-4385
▁plas	-4386
▁čine	-4387
▁Petra	-4388
▁staja	-4389
▁Koliko	-4390
▁zahvaljujući	-4391
šen	-4392
▁adre	-4393
▁muze	-4394
nirati	-4395
▁povećanje	-4396
ul	-4397
šan	-4398
mice	-4399
▁odr	-4400
▁kome	-4401
▁ulazi	-4402
▁poznat	-4403
▁naglasi	-4404
▁zahvali	-4405
▁industri	-4406
10	-4407
una	-4408
▁Ser	-4409
▁tera	-4410
lacija	-4411
▁Engle	-4412
▁njezine	-4413
▁velikih	-4414
nut	-4415
godio	-4416
▁Nove	-4417
▁dina	-4418
▁budući	-4419
▁nalaze	-4420
▁ujedno	-4421
▁raspolo	-4422
▁sredstava	-4423
▁objašnjava	-4424
ov	-4425
siti	-4426
▁Mje	-4427
jskim	-4428
▁inspi	-4429
▁potak	-4430
▁zadnje	-4431
▁njegovim	-4432
▁9.	-4433
▁maksima	-4434
▁četvrtfina	-4435
liga	-4436
vimo	-4437
nisti	-4438
terna	-4439
▁Hama	-4440
▁tuži	-4441
▁studenog	-4442
ham	-4443
▁preo	-4444
▁tale	-4445
▁engle	-4446
▁usluga	-4447
▁Ukrajine	-4448
Mi	-4449
graf	-4450
tovi	-4451
▁igru	-4452
▁lani	-4453
nijeti	-4454
▁blizu	-4455
▁završila	-4456
▁istaknula	-4457
moć	-4458
▁For	-4459
dnice	-4460
▁autoce	-4461
▁skladu	-4462
▁nepozna	-4463
▁obavlja	-4464
▁prednost	-4465
nov	-4466
▁Tik	-4467
▁supa	-4468
▁poruka	-4469
▁udarac	-4470
žem	-4471
prija	-4472
▁jača	-4473
▁rake	-4474
▁žive	-4475
▁udruge	-4476
▁bolnice	-4477
▁pravosu	-4478
▁izbornik	-4479
▁njegovom	-4480
▁podacima	-4481
lira	-4482
zacije	-4483
▁lista	-4484
▁odbora	-4485
▁prošlog	-4486
▁čovjeka	-4487
"",	-4488
svim	-4489
čeki	-4490
▁Tro	-4491
▁papi	-4492
▁show	-4493
▁spomi	-4494
▁velikog	-4495
▁propusti	-4496
▁pobijedio	-4497
▁istraživanja	-4498
:2	-4499
▁EP	-4500
ncima	-4501
▁Njiho	-4502
▁nastavku	-4503
▁promijeniti	-4504
šnjem	-4505
▁djeci	-4506
▁neovi	-4507
▁stana	-4508
▁vrsta	-4509
snogovo	-4510
▁dosada	-4511
pije	-4512
timi	-4513
žuje	-4514
▁kuću	-4515
▁plju	-4516
bičaje	-4517
▁košta	-4518
▁košarka	-4519
▁članovi	-4520
dimo	-4521
▁30.	-4522
voren	-4523
▁Odlu	-4524
▁naju	-4525
nijela	-4526
▁Petro	-4527
▁rješa	-4528
▁Austra	-4529
▁nagrade	-4530
▁samosta	-4531
bice	-4532
▁16.	-4533
▁Ale	-4534
▁znak	-4535
▁Donal	-4536
▁prijatelja	-4537
00.	-4538
ljivi	-4539
▁Osta	-4540
▁baze	-4541
▁filmu	-4542
▁Poslje	-4543
▁medijima	-4544
RO	-4545
šo	-4546
tivi	-4547
vamo	-4548
tosti	-4549
šnjoj	-4550
▁Nada	-4551
▁izvu	-4552
▁naći	-4553
▁servi	-4554
▁staro	-4555
▁volje	-4556
▁odnose	-4557
▁Milanovi	-4558
▁prostoru	-4559
▁um	-4560
noga	-4561
šten	-4562
▁pao	-4563
▁poznata	-4564
rbe	-4565
brova	-4566
▁arhi	-4567
▁voda	-4568
▁slika	-4569
▁igrače	-4570
▁predlo	-4571
▁progno	-4572
▁pravila	-4573
▁isključi	-4574
▁riječima	-4575
▁prednosti	-4576
pr	-4577
▁Modrić	-4578
▁mandat	-4579
▁tijeku	-4580
PO	-4581
oko	-4582
rek	-4583
▁prido	-4584
▁ekonom	-4585
▁postupa	-4586
▁Ukrajinu	-4587
▁stupnjeva	-4588
▁°	-4589
šne	-4590
lika	-4591
▁laga	-4592
lovima	-4593
▁Možda	-4594
▁vlade	-4595
▁jedino	-4596
▁konkre	-4597
ntu	-4598
uju	-4599
zama	-4600
▁baca	-4601
▁prio	-4602
▁ratu	-4603
▁smislu	-4604
▁konfere	-4605
šna	-4606
▁indi	-4607
▁reze	-4608
▁nukle	-4609
▁opora	-4610
▁	-4611
a	-4612
i	-4613
o	-4614
e	-4615
n	-4616
r	-4617
j	-4618
t	-4619
u	-4620
s	-4621
k	-4622
l	-4623
d	-4624
v	-4625
m	-4626
p	-4627
z	-4628
g	-4629
c	-4630
b	-4631
,	-4632
.	-4633
š	-4634
č	-4635
ć	-4636
h	-4637
ž	-4638
;	-4639
&	-4640
P	-4641
S	-4642
"	-4643
f	-4644
N	-4645
0	-4646
M	-4647
-	-4648
D	-4649
2	-4650
1	-4651
B	-4652
O	-4653
A	-4654
T	-4655
đ	-4656
K	-4657
I	-4658
H	-4659
U	-4660
R	-4661
V	-4662
Z	-4663
:	-4664
L	-4665
E	-4666
G	-4667
J	-4668
3	-4669
C	-4670
5	-4671
'	-4672
4	-4673
)	-4674
(	-4675
F	-4676
9	-4677
y	-4678
6	-4679
7	-4680
8	-4681
Š	-4682
?	-4683
w	-4684
!	-4685
/	-4686
W	-4687
Č	-4688
Ž	-4689
x	-4690
%	-4691
=	-4692
[	-4693
>	-4694
]	-4695
Y	-4696
Đ	-4697
X	-4698
+	-4699
\	-4700
q	-4701
Ć	-4702
#	-4703
°	-4704
Q	-4705
ü	-4706
é	-4707
*	-4708
@	-4709
_	-4710
€	-4711
ö	-4712
á	-4713
í	-4714
ó	-4715
′	-4716
$	-4717
♬	-4718
•	-4719
ä	-4720
Ö	-4721
­	-4722
ç	-4723
<	-4724
·	-4725
è	-4726
{	-4727
}	-4728
️	-4729
ë	-4730
ñ	-4731
â	-4732
ł	-4733
ø	-4734
ã	-4735
å	-4736
⁄	-4737
à	-4738
É	-4739
®	-4740
е	-4741
×	-4742
ú	-4743
►	-4744
ô	-4745
ğ	-4746
̋	-4747
●	-4748
ï	-4749
ð	-4750
ò	-4751
ş	-4752
🟨	-4753
ê	-4754
Á	-4755
Ç	-4756
ß	-4757
î	-4758
ı	-4759
⚤	-4760
🔥	-4761
ì	-4762
ř	-4763
☘	-4764
	-4765
🎁	-4766
😂	-4767
©	-4768
ė	-4769
Ś	-4770
ρ	-4771
✔	-4772
❤	-4773
🇷	-4774
🇸	-4775
`	-4776
ą	-4777
ě	-4778
μ	-4779
ο	-4780
ς	-4781
⁠	-4782
📌	-4783
Å	-4784
Ó	-4785
ń	-4786
ő	-4787
ț	-4788
̈	-4789
̌	-4790
о	-4791
ṣ	-4792
‒	-4793
♥	-4794
⚠	-4795
⚽	-4796
	-4797
🇺	-4798
👀	-4799
^	-4800
§	-4801
Í	-4802
Ð	-4803
Ú	-4804
Ü	-4805
ý	-4806
ā	-4807
ę	-4808
ȗ	-4809
̧	-4810
ή	-4811
а	-4812
ј	-4813
‍	-4814
‐	-4815
―	-4816
‖	-4817
✓	-4818
🇭	-4819
🌸	-4820
💙	-4821
	-4822
¡	-4823
±	-4824
Ä	-4825
Ø	-4826
ù	-4827
û	-4828
ă	-4829
ĉ	-4830
ē	-4831
ś	-4832
Ş	-4833
ū	-4834
ż	-4835
ȉ	-4836
ș	-4837
̊	-4838
έ	-4839
α	-4840
π	-4841
τ	-4842
ό	-4843
н	-4844
ི	-4845
ྀ	-4846
ἀ	-4847
‟	-4848
∶	-4849
▶	-4850
♡	-4851
♦	-4852
シ	-4853
🇱	-4854
🏻	-4855
💕	-4856
🔄	-4857
🕷	-4858
🕸	-4859
😅	-4860
😍	-4861
😎	-4862
🙏	-4863
🟡	-4864
🤩	-4865
🤯	-4866
🥚	-4867
🦟	-4868
£	-4869
¤	-4870
¿	-4871
À	-4872
È	-4873
Î	-4874
Ò	-4875
Ô	-4876
õ	-4877
Ď	-4878
İ	-4879
ľ	-4880
Ł	-4881
ň	-4882
ō	-4883
ţ	-4884
ů	-4885
ź	-4886
Ƙ	-4887
ȃ	-4888
ȑ	-4889
ə	-4890
ʟ	-4891
̣	-4892
Ω	-4893
γ	-4894
δ	-4895
υ	-4896
χ	-4897
ω	-4898
К	-4899
л	-4900
ь	-4901
і	-4902
Ґ	-4903
ӣ	-4904
ӧ	-4905
ṓ	-4906
ọ	-4907
ố	-4908
‰	-4909
↑	-4910
⇒	-4911
−	-4912
⏱	-4913
■	-4914
▪	-4915
○	-4916
☀	-4917
☃	-4918
☑	-4919
☺	-4920
♀	-4921
⚫	-4922
✠	-4923
✨	-4924
❄	-4925
传	-4926
多	-4927
陈	-4928
🇦	-4929
🇧	-4930
🇫	-4931
🇬	-4932
🇮	-4933
🇵	-4934
🇾	-4935
🌋	-4936
🌐	-4937
🌠	-4938
🌧	-4939
🌨	-4940
🌺	-4941
🌻	-4942
🍉	-4943
🍊	-4944
🎀	-4945
🎗	-4946
🏡	-4947
🐄	-4948
🐥	-4949
🐦	-4950
🐱	-4951
🐶	-4952
👁	-4953
👇	-4954
👣	-4955
👶	-4956
💅	-4957
💋	-4958
💎	-4959
💘	-4960
💚	-4961
💟	-4962
💪	-4963
💯	-4964
📢	-4965
📱	-4966
📸	-4967
🔹	-4968
🕓	-4969
🖥	-4970
😀	-4971
😁	-4972
😉	-4973
😊	-4974
😏	-4975
😬	-4976
😭	-4977
🙂	-4978
🙌	-4979
🛁	-4980
🤍	-4981
🤔	-4982
🤢	-4983
🤦	-4984
🤪	-4985
🥥	-4986
🥰	-4987
🥲	-4988
🥹	-4989
🥺	-4990
🩹	-4991
🩺	-4992
🪐	-4993
🫒	-4994
🫠	-4995
🫶	-4996
