<unk>	0
<s>	0
</s>	0
▁a	-3.28061
▁u	-3.37922
▁i	-3.38757
▁,	-3.7235
▁e	-3.77672
▁.	-3.86945
n	-4.00012
▁je	-4.00983
▁o	-4.04578
▁s	-4.13133
▁na	-4.3887
o	-4.55366
r	-4.58093
▁po	-4.67734
▁p	-4.73553
▁za	-4.79034
t	-4.89382
a	-4.97733
e	-5.0018
▁;	-5.02169
▁se	-5.02742
▁&	-5.03303
j	-5.0761
▁da	-5.08953
▁om	-5.17201
▁od	-5.20728
▁su	-5.22876
▁t	-5.27758
l	-5.30821
▁"	-5.36911
▁on	-5.41379
▁k	-5.43042
k	-5.44154
▁ne	-5.44281
▁do	-5.44777
▁-	-5.49705
▁iz	-5.56319
▁pro	-5.58572
i	-5.63697
▁m	-5.65756
▁S	-5.76266
▁ih	-5.77157
▁d	-5.77873
▁c	-5.79134
▁0	-5.81641
m	-5.83393
▁2	-5.93218
▁io	-5.96647
▁pri	-5.97701
▁og	-6.00372
▁koji	-6.01569
▁B	-6.03412
▁cca	-6.03547
▁v	-6.0416
▁n	-6.05035
s	-6.06135
▁im	-6.06277
▁P	-6.06839
▁iti	-6.08675
▁b	-6.0965
▁ima	-6.09833
▁pre	-6.10417
▁godi	-6.10499
▁D	-6.11029
▁M	-6.13374
▁1	-6.16428
▁ti	-6.16518
u	-6.16667
▁će	-6.17231
▁ili	-6.21404
▁acut	-6.22564
▁U	-6.22613
c	-6.24807
▁te	-6.2607
▁ob	-6.2674
p	-6.27932
▁ka	-6.28272
▁to	-6.29277
▁:	-6.29484
▁što	-6.29521
▁ov	-6.29551
▁li	-6.31293
▁bi	-6.32363
▁I	-6.34352
v	-6.34361
▁K	-6.34525
š	-6.34946
▁V	-6.39848
▁en	-6.41349
▁T	-6.45916
▁'	-6.50466
▁zca	-6.5056
▁r	-6.53432
g	-6.53573
▁č	-6.54609
▁oj	-6.55172
▁ila	-6.575
▁N	-6.58287
▁nije	-6.58584
▁l	-6.58882
▁kako	-6.59416
▁ali	-6.61518
▁ni	-6.61932
▁nje	-6.62643
▁raz	-6.62833
▁O	-6.6457
▁ma	-6.65787
▁koj	-6.66058
▁no	-6.67301
▁j	-6.67392
▁Z	-6.67414
▁f	-6.68171
▁L	-6.68614
▁(	-6.69054
d	-6.71654
▁R	-6.71851
▁)	-6.72654
▁ije	-6.72856
▁ić	-6.75061
▁A	-6.75714
▁Na	-6.78215
▁ica	-6.82173
▁ama	-6.82637
▁ju	-6.82881
▁sam	-6.85796
▁G	-6.86253
▁koje	-6.86474
▁sve	-6.87106
▁Hrvat	-6.88402
▁in	-6.89962
▁ija	-6.90153
▁C	-6.93069
▁ak	-6.93625
▁biti	-6.95697
▁govor	-6.95983
▁3	-6.96145
▁mo	-6.96549
,	-6.97118
▁nja	-6.98426
▁jedn	-6.99061
▁stav	-7.00094
▁ice	-7.00872
▁an	-7.01442
▁J	-7.01875
▁4	-7.01876
▁H	-7.02222
▁la	-7.02658
▁ski	-7.02837
▁me	-7.03548
▁sa	-7.03664
jav	-7.03873
▁st	-7.05066
▁5	-7.05177
▁ske	-7.05255
▁ij	-7.05392
▁smo	-7.05462
▁mi	-7.06668
▁nik	-7.06977
▁9	-7.0717
▁naj	-7.07202
z	-7.08026
▁više	-7.08846
▁ova	-7.09665
▁itelj	-7.10049
▁z	-7.11932
▁ac	-7.13841
▁nakon	-7.14653
ov	-7.14965
b	-7.17506
reds	-7.18609
▁samo	-7.19315
▁bio	-7.20674
▁ž	-7.21034
▁pa	-7.21433
▁osti	-7.21986
.	-7.22355
▁em	-7.22933
▁ović	-7.24035
▁ava	-7.27265
▁prem	-7.27499
▁prije	-7.29055
vanj	-7.29066
▁tako	-7.32046
▁ga	-7.35553
▁ici	-7.36194
▁ost	-7.3636
▁još	-7.36614
▁uz	-7.36618
▁Po	-7.3698
▁6	-7.37177
▁nek	-7.37345
ijel	-7.37358
▁njeg	-7.37442
▁lja	-7.38227
▁ci	-7.38419
▁već	-7.39447
▁pod	-7.39503
đ	-7.39887
▁oliko	-7.40774
▁mjes	-7.40917
▁rekao	-7.42453
▁?	-7.4291
▁ljen	-7.43738
▁treba	-7.43801
▁oko	-7.43819
▁mu	-7.44738
▁7	-7.44864
▁F	-7.45303
▁drug	-7.45927
▁njih	-7.45954
▁ska	-7.46032
▁8	-7.4608
▁zbog	-7.46496
▁jed	-7.46692
▁ko	-7.48407
▁rad	-7.49969
▁ijsk	-7.50064
sk	-7.50321
▁er	-7.50888
h	-7.51256
▁uje	-7.51471
▁al	-7.5232
ć	-7.52572
▁iju	-7.52846
▁veli	-7.53419
▁Za	-7.53464
▁može	-7.53549
▁bilo	-7.5411
▁dok	-7.5463
▁jer	-7.54837
▁enje	-7.5681
▁ove	-7.57103
▁svoj	-7.57692
▁h	-7.58081
▁skog	-7.58167
jed	-7.58247
▁ik	-7.58891
▁pred	-7.59414
č	-7.60415
▁nov	-7.60527
▁š	-7.61494
▁dana	-7.61689
▁zna	-7.61692
▁ako	-7.62474
▁stup	-7.62475
▁tar	-7.62519
▁eura	-7.63237
▁dstr	-7.63425
▁hrva	-7.63516
▁djel	-7.63598
▁reme	-7.63724
▁ist	-7.63992
▁red	-7.64302
▁vrij	-7.65153
nj	-7.65285
▁grad	-7.66168
▁ite	-7.66648
▁!	-7.67132
▁	-7.67233
▁bila	-7.6732
▁nju	-7.67617
takm	-7.68662
en	-7.69221
▁stran	-7.69446
▁jedan	-7.69643
▁radi	-7.69743
▁skoj	-7.70134
▁bolj	-7.7086
▁/	-7.71195
▁tu	-7.71871
▁igra	-7.71939
▁rotiv	-7.72091
▁broj	-7.72133
▁ja	-7.73051
▁iji	-7.73207
▁svak	-7.73489
▁os	-7.74547
▁iran	-7.74562
▁tri	-7.74862
▁izbor	-7.7519
▁kup	-7.75786
▁eg	-7.76846
▁kada	-7.77023
ih	-7.77885
▁sp	-7.77939
▁kr	-7.78078
▁Š	-7.78174
▁aj	-7.78899
▁ilo	-7.79673
▁Euro	-7.80262
▁dva	-7.8039
▁nog	-7.80451
▁nim	-7.81102
▁cije	-7.81313
▁gdje	-7.81536
▁pravo	-7.82432
▁ljudi	-7.82755
▁lo	-7.83037
▁prav	-7.83097
▁enja	-7.83982
▁ovi	-7.84617
▁glav	-7.85436
▁bez	-7.85547
▁ira	-7.86607
▁vid	-7.87068
▁vod	-7.87195
▁osl	-7.87448
▁auto	-7.87981
▁mogu	-7.88191
tanj	-7.88255
▁ika	-7.8843
▁ati	-7.88507
▁ovo	-7.90043
đu	-7.9046
▁jak	-7.91045
▁icu	-7.91149
▁neg	-7.91487
▁nih	-7.91539
▁tav	-7.91845
▁kad	-7.92177
▁jedno	-7.92832
▁re	-7.93693
▁isp	-7.94014
▁ot	-7.95093
▁nosti	-7.95376
▁skih	-7.95425
din	-7.95571
ijek	-7.96729
▁skom	-7.96826
▁posto	-7.96865
▁nam	-7.97165
▁ri	-7.97256
▁mjer	-7.973
▁nu	-7.97326
▁gleda	-7.98761
oj	-7.99183
▁g	-7.9941
▁sv	-7.99466
▁bili	-7.99519
▁svoje	-7.99687
▁vjer	-8.00235
▁tren	-8.00256
▁ravn	-8.00818
▁ljiv	-8.01148
▁E	-8.01708
▁voj	-8.02652
▁Ne	-8.03344
▁toga	-8.04156
ljuč	-8.04466
▁nisu	-8.04568
▁op	-8.0477
▁zdrav	-8.04802
▁agreb	-8.04852
▁uju	-8.05114
f	-8.05247
▁rije	-8.05798
▁nj	-8.06077
▁mora	-8.06369
▁igur	-8.0652
▁glas	-8.0656
kon	-8.07209
▁blem	-8.07238
▁sada	-8.07451
▁nici	-8.07681
▁ev	-8.08349
ven	-8.09259
▁tvar	-8.09391
▁ing	-8.0941
▁nika	-8.09695
▁To	-8.09966
▁prvi	-8.10565
▁gr	-8.10802
ješ	-8.11053
▁mir	-8.11251
inis	-8.11261
▁nad	-8.11677
▁druš	-8.12212
▁ki	-8.12346
▁imo	-8.12415
▁mili	-8.12658
▁dan	-8.13274
▁sku	-8.13511
▁taj	-8.13514
ezon	-8.13518
te	-8.13586
akv	-8.1407
▁ijal	-8.14257
▁Č	-8.14764
▁ke	-8.14923
▁vijek	-8.15505
▁kod	-8.15593
▁vije	-8.15756
▁građ	-8.15871
▁minu	-8.16248
▁vijet	-8.16271
▁malo	-8.16909
▁dobro	-8.17059
▁tim	-8.17251
in	-8.18084
▁škol	-8.19092
▁ent	-8.19649
▁nas	-8.20037
▁igrač	-8.2005
▁dr	-8.20733
▁ustav	-8.21432
▁put	-8.21549
▁kaza	-8.21713
▁lje	-8.21986
ječ	-8.2205
▁pet	-8.22312
log	-8.22736
▁nji	-8.22849
prav	-8.2315
▁prvo	-8.23164
▁zeml	-8.23194
▁mlad	-8.23198
nter	-8.23284
vrš	-8.23602
▁danas	-8.2392
olic	-8.23984
▁bor	-8.24015
er	-8.24157
▁telj	-8.2416
▁moguć	-8.24963
nij	-8.25129
▁inf	-8.2528
▁itet	-8.25288
▁it	-8.25344
▁va	-8.25501
▁nom	-8.25743
▁us	-8.25876
lj	-8.26555
▁izira	-8.26559
▁nost	-8.26599
▁osob	-8.26726
▁kaže	-8.26988
▁nema	-8.27143
▁život	-8.27172
▁medi	-8.2768
▁ca	-8.28186
inal	-8.28374
▁javn	-8.28412
▁stvo	-8.28609
▁ku	-8.28652
tsk	-8.28731
▁tvor	-8.2882
▁tran	-8.29191
▁stva	-8.29598
▁gol	-8.29675
▁gram	-8.29763
dnj	-8.30299
▁metn	-8.30356
ma	-8.30453
▁vat	-8.30673
▁naš	-8.30854
▁jekt	-8.30919
▁prve	-8.31335
igur	-8.31375
▁kojem	-8.3158
▁nosi	-8.3171
▁nešto	-8.31887
▁tek	-8.31929
▁Ž	-8.32707
▁kon	-8.32892
▁ional	-8.32922
▁tome	-8.33425
meri	-8.33492
▁rasp	-8.33522
▁nogo	-8.33782
▁dio	-8.33836
▁tat	-8.34895
▁mjen	-8.35108
▁ć	-8.35295
▁No	-8.35564
▁oni	-8.35812
ne	-8.35943
▁insk	-8.36293
▁ht	-8.36622
▁vodi	-8.36704
▁stoj	-8.36738
▁osta	-8.36851
▁ud	-8.36889
▁doda	-8.36901
▁nica	-8.36976
▁jeti	-8.3701
▁zv	-8.37474
▁voji	-8.3755
▁sati	-8.37551
▁puno	-8.37996
▁novi	-8.38249
st	-8.38301
▁njem	-8.38321
▁tan	-8.38378
▁dvije	-8.38579
god	-8.38887
▁slav	-8.39123
an	-8.39195
▁le	-8.39641
▁zme	-8.39693
▁iv	-8.39771
▁slov	-8.39855
▁etvrt	-8.40713
▁zap	-8.40742
▁matr	-8.40808
▁znat	-8.40893
ruž	-8.41038
▁upan	-8.41491
▁par	-8.41506
▁tom	-8.41665
▁rezu	-8.41691
anov	-8.41994
▁ol	-8.42116
▁y	-8.42382
▁una	-8.42804
▁On	-8.42855
▁mije	-8.42869
▁prek	-8.42939
▁ča	-8.43073
▁žel	-8.43126
▁lazi	-8.43217
▁hvat	-8.43273
▁is	-8.43378
▁stor	-8.43387
▁zen	-8.43546
▁ine	-8.43579
▁usp	-8.4373
▁dalje	-8.44277
▁organ	-8.44613
▁kont	-8.45076
▁aknu	-8.45232
pre	-8.45389
▁način	-8.45854
▁hval	-8.45984
▁ini	-8.46218
▁gotov	-8.46535
▁ant	-8.46774
▁svi	-8.46938
bav	-8.47084
▁manje	-8.4733
▁ničk	-8.4758
▁izvod	-8.47595
zac	-8.48246
▁etiri	-8.48351
▁itua	-8.48389
▁stoji	-8.48444
sim	-8.48645
▁dru	-8.48666
tko	-8.4917
▁lučaj	-8.49192
▁mnog	-8.49353
▁Pro	-8.49428
▁ajduk	-8.49546
▁euro	-8.49857
▁dvo	-8.50001
▁rekla	-8.50175
▁list	-8.50289
▁W	-8.50756
▁imaju	-8.50825
▁anj	-8.51277
▁vrl	-8.51353
ruč	-8.51531
▁gova	-8.51727
▁kraj	-8.51868
▁onda	-8.52061
▁sad	-8.52309
▁vozi	-8.52469
▁Kad	-8.53119
▁kan	-8.53197
atel	-8.53334
zna	-8.53356
men	-8.54089
▁acije	-8.54288
zor	-8.54433
elik	-8.54581
▁održ	-8.54949
ju	-8.55066
▁vam	-8.55067
▁film	-8.55274
je	-8.55513
▁ras	-8.55551
znen	-8.556
▁budu	-8.55675
▁Pri	-8.55768
▁eks	-8.55892
jev	-8.56008
▁klub	-8.56075
▁Sve	-8.56291
▁pust	-8.56304
▁ovima	-8.56386
luč	-8.5663
▁bit	-8.56718
▁met	-8.56818
nim	-8.56897
▁ile	-8.56932
▁pun	-8.56958
▁Od	-8.57166
▁Ivan	-8.5723
▁tvrd	-8.5725
▁ativ	-8.57472
grad	-8.57474
rad	-8.57612
▁ste	-8.57622
ž	-8.57779
▁kojo	-8.57907
ako	-8.57984
roz	-8.58256
▁emo	-8.58273
▁rast	-8.58314
▁račun	-8.58583
▁stvar	-8.58685
▁eset	-8.58712
▁rener	-8.58896
▁živ	-8.59026
▁Ov	-8.59075
▁neki	-8.59595
vši	-8.59634
▁riječ	-8.5968
▁ćem	-8.59854
▁tjec	-8.6007
▁udar	-8.6016
▁ržav	-8.60165
vez	-8.60311
▁lobo	-8.60489
▁kome	-8.61993
cij	-8.62099
▁let	-8.62174
lik	-8.62278
▁kval	-8.62345
djel	-8.62565
čj	-8.62617
kaza	-8.62697
▁jući	-8.62698
bjed	-8.63007
▁kol	-8.63094
▁av	-8.63123
▁rod	-8.63223
▁aktiv	-8.63383
▁nice	-8.63678
▁neće	-8.63781
▁aca	-8.63795
▁sjed	-8.63927
vjet	-8.64021
▁drž	-8.64055
svoj	-8.64086
anc	-8.64228
▁ve	-8.64329
▁međ	-8.64474
▁tor	-8.64493
▁vjet	-8.64838
vjer	-8.65141
▁sko	-8.65558
▁puta	-8.65568
▁hra	-8.65581
▁čin	-8.65707
▁pada	-8.65776
▁drugi	-8.6605
▁ijama	-8.66295
▁glaz	-8.66343
▁njima	-8.66424
▁lije	-8.66505
▁rijed	-8.66597
▁vol	-8.66853
▁ijest	-8.66905
rij	-8.67007
▁man	-8.67067
▁volj	-8.6732
▁štit	-8.6746
▁vi	-8.67485
▁nosno	-8.67521
ljed	-8.67588
▁rež	-8.67795
▁poče	-8.67822
▁Mila	-8.67883
▁napad	-8.6839
▁nij	-8.68443
▁tad	-8.68544
▁Ak	-8.68549
va	-8.6883
▁pov	-8.68914
▁gost	-8.68934
▁stv	-8.6895
▁mor	-8.6907
▁dobr	-8.69338
▁Iz	-8.69404
▁gor	-8.69412
▁komp	-8.69515
▁el	-8.69598
lužb	-8.70129
▁kom	-8.7013
traž	-8.70144
▁esti	-8.70176
▁didat	-8.70387
▁cilj	-8.70515
nov	-8.70567
▁onač	-8.70568
▁inar	-8.70685
▁eb	-8.70879
jeg	-8.70938
▁čeka	-8.71222
▁isti	-8.7139
▁važn	-8.71416
▁Tako	-8.71673
▁acija	-8.71719
▁dnost	-8.71981
▁služ	-8.72067
▁enju	-8.7218
vog	-8.72326
lav	-8.72419
▁čki	-8.72752
▁vr	-8.7283
▁ona	-8.72848
▁veći	-8.7293
▁inj	-8.73282
▁ša	-8.73536
stav	-8.73552
▁vode	-8.73653
▁eni	-8.73682
▁tkri	-8.73694
▁Kak	-8.73701
est	-8.7379
▁ime	-8.73828
▁ito	-8.73869
▁hr	-8.74151
▁lak	-8.74262
▁tko	-8.74271
▁kaz	-8.74413
▁znan	-8.74429
▁noj	-8.74473
▁njak	-8.74499
▁gled	-8.7461
▁kuć	-8.74629
dluk	-8.74765
▁irati	-8.74953
kim	-8.74967
▁HDZ	-8.75296
▁rea	-8.75299
▁pjes	-8.75354
▁drža	-8.75515
▁sjet	-8.75578
▁pisa	-8.75651
▁Međ	-8.75806
aš	-8.75889
▁plat	-8.75958
laz	-8.76517
▁mjet	-8.76559
manj	-8.767
mo	-8.76713
▁bac	-8.76717
▁est	-8.76719
▁oris	-8.76742
▁ačk	-8.76815
ko	-8.76944
▁veza	-8.76996
▁čij	-8.7714
▁foto	-8.77142
▁god	-8.77462
omać	-8.77563
▁Grad	-8.77634
▁jte	-8.77714
▁ljub	-8.77947
vrtk	-8.78315
▁ra	-8.78568
▁Nov	-8.78783
▁ina	-8.78881
vol	-8.78983
▁rus	-8.78986
živ	-8.79168
▁ubr	-8.79226
▁ada	-8.79281
▁ičn	-8.7946
▁narod	-8.79563
▁stal	-8.79821
▁zakon	-8.80038
▁šest	-8.80159
▁ički	-8.80172
▁jeli	-8.80269
araž	-8.8043
▁dugo	-8.80512
▁laga	-8.80781
▁prvak	-8.80847
▁Al	-8.81073
▁anja	-8.81075
suć	-8.81187
▁sebno	-8.81299
▁stati	-8.81437
▁orma	-8.81698
▁tehn	-8.81754
▁treb	-8.81872
▁vas	-8.81918
▁inu	-8.82122
▁orm	-8.82198
▁moga	-8.8227
▁svim	-8.82299
▁uč	-8.82339
▁traž	-8.82461
▁St	-8.8249
amo	-8.82631
▁Pre	-8.82698
▁lani	-8.82798
lu	-8.82986
▁pr	-8.83102
▁ultu	-8.83327
▁mobil	-8.83385
arij	-8.83603
▁tvari	-8.83669
▁staje	-8.837
▁tra	-8.83887
▁osoba	-8.84022
▁sreć	-8.84071
lic	-8.84109
▁obran	-8.8417
put	-8.84199
▁Bil	-8.84383
ržav	-8.84386
▁avaju	-8.84437
oris	-8.84513
roš	-8.8461
ačk	-8.84733
▁baš	-8.84805
▁ce	-8.8483
kaz	-8.8493
▁nos	-8.85059
▁jesec	-8.8516
▁jesta	-8.8525
▁eći	-8.85323
▁svih	-8.8535
▁pak	-8.85421
▁ević	-8.85437
▁imati	-8.85646
red	-8.85664
▁anje	-8.8569
▁radn	-8.85743
at	-8.85872
▁cent	-8.85899
▁misl	-8.85984
liz	-8.86047
▁icama	-8.86087
▁veden	-8.86261
▁jever	-8.86315
▁tro	-8.86384
▁bran	-8.86449
▁mijer	-8.86623
▁rafi	-8.86641
▁ništ	-8.86764
▁kraju	-8.86793
▁rat	-8.86823
jen	-8.86832
▁učin	-8.86916
šlj	-8.87044
▁voz	-8.87273
▁ard	-8.87302
▁ven	-8.87391
▁sin	-8.87409
▁viso	-8.87416
▁arn	-8.87476
▁metar	-8.87681
▁prat	-8.87782
▁ljuč	-8.88265
▁Ch	-8.88292
▁ogled	-8.88311
▁teško	-8.88415
▁es	-8.88435
▁din	-8.88495
▁inamo	-8.885
▁eno	-8.8874
▁sred	-8.88912
▁šir	-8.89057
▁tež	-8.89115
▁usret	-8.89217
▁razi	-8.89328
▁večer	-8.89333
▁Do	-8.89356
rošl	-8.89909
▁njega	-8.89934
▁plan	-8.90032
▁čeku	-8.90049
▁Sv	-8.90084
▁bude	-8.90175
treb	-8.90357
al	-8.9036
▁ani	-8.90369
▁jveć	-8.90434
▁Njem	-8.9055
▁nikad	-8.90575
▁top	-8.90684
▁Split	-8.90687
▁sud	-8.90706
▁isto	-8.90726
▁član	-8.91371
▁duž	-8.91625
▁bivš	-8.91682
▁gosp	-8.92007
ljež	-8.92137
▁kret	-8.92231
▁Srbi	-8.92446
▁isku	-8.92581
▁stvu	-8.92646
▁asni	-8.92685
▁kor	-8.92865
jući	-8.92884
▁alno	-8.93044
▁truč	-8.93266
▁ivota	-8.93321
▁išta	-8.93332
▁znač	-8.93385
▁int	-8.93544
▁ide	-8.93561
▁vojn	-8.9377
▁pita	-8.93793
▁rani	-8.93838
ij	-8.93922
tivn	-8.93971
▁grada	-8.94083
▁šte	-8.94128
▁EU	-8.94243
▁ljan	-8.94283
▁ovom	-8.94456
▁log	-8.94466
▁čest	-8.94534
vom	-8.94792
▁Plen	-8.94901
▁elnik	-8.95126
▁Št	-8.95196
▁glum	-8.95332
▁ovjek	-8.95339
▁knji	-8.95354
▁Prem	-8.95358
▁kupi	-8.95417
▁jela	-8.95417
ije	-8.95537
▁Ali	-8.95584
▁ravi	-8.95684
▁10	-8.95837
▁one	-8.95915
▁imao	-8.95977
▁vore	-8.9601
▁dalj	-8.96014
▁vija	-8.96096
▁demo	-8.96212
▁ike	-8.9633
▁nul	-8.96357
▁ratu	-8.9638
▁rošl	-8.96584
▁uprug	-8.96971
gub	-8.97209
▁Kr	-8.97415
▁kar	-8.97601
▁end	-8.97746
▁ansk	-8.97753
na	-8.97845
▁isli	-8.98076
▁[	-8.9809
▁rtner	-8.98097
▁rati	-8.98279
jedn	-8.98331
▁vlas	-8.98433
pnj	-8.9851
▁okal	-8.98529
▁maj	-8.98627
vor	-8.98642
▁tude	-8.98834
▁nac	-8.99037
▁kap	-8.99081
▁izv	-8.99117
▁mal	-8.99446
erg	-8.99552
av	-8.99561
▁ništa	-8.99579
por	-8.99636
iše	-8.99689
▁ala	-8.99817
▁Ukra	-8.99964
▁ću	-8.99989
▁Fran	-9.00354
▁traj	-9.00766
▁Rije	-9.00873
▁evi	-9.00935
▁Ova	-9.01268
▁trag	-9.013
▁sport	-9.01462
▁ože	-9.0151
▁koš	-9.01543
▁zor	-9.01632
▁ran	-9.01779
▁druga	-9.01861
▁treć	-9.01999
el	-9.02043
▁liku	-9.0213
njen	-9.02179
lad	-9.02254
ruk	-9.02375
▁VIDEO	-9.02584
▁poč	-9.02782
▁ajte	-9.03016
▁sebe	-9.03139
umnj	-9.03158
▁ljet	-9.03201
lekt	-9.03204
▁kori	-9.03315
▁Rusi	-9.03338
▁nuo	-9.03429
▁dobio	-9.03433
▁nio	-9.03542
▁stala	-9.03792
▁oć	-9.03853
▁]	-9.03975
drž	-9.0398
▁Dan	-9.04038
▁enz	-9.04197
▁aciju	-9.04323
▁stupa	-9.04327
▁posla	-9.04343
▁nove	-9.04475
▁iza	-9.04515
▁mješ	-9.04677
▁ad	-9.04848
▁gru	-9.04895
▁=>	-9.04909
▁veo	-9.04956
▁priv	-9.05047
▁Mar	-9.05325
ist	-9.05331
ranj	-9.05391
▁eka	-9.0544
▁emelj	-9.05519
mah	-9.05856
▁renu	-9.05877
▁ičar	-9.0588
▁dava	-9.06252
▁brzo	-9.06368
▁cu	-9.06369
stup	-9.06399
▁regi	-9.06542
▁ta	-9.06577
lit	-9.06599
▁stat	-9.06618
lož	-9.06646
▁laze	-9.06787
▁vrat	-9.06888
▁zagr	-9.06924
▁želi	-9.06952
▁gađaj	-9.07038
▁vlast	-9.07074
▁ator	-9.07123
▁bav	-9.07262
▁jviše	-9.07332
▁ubli	-9.07417
▁20	-9.07697
čin	-9.07762
▁ijom	-9.07799
▁tešk	-9.08062
▁otkr	-9.08177
▁reg	-9.08301
▁ivn	-9.08307
▁loš	-9.08452
▁vlada	-9.08475
▁vjed	-9.08488
zic	-9.08657
▁ruk	-9.08686
▁odnos	-9.08831
dij	-9.08961
▁čeki	-9.08972
▁jelo	-9.09093
▁čan	-9.09224
ršk	-9.09277
▁razn	-9.09434
▁snim	-9.09439
▁roda	-9.09464
▁kri	-9.09486
blj	-9.09555
▁zrak	-9.09595
tvrd	-9.09688
▁kraja	-9.09819
▁imali	-9.10206
▁ro	-9.10311
▁otp	-9.10375
▁stao	-9.1048
▁lan	-9.10532
▁oja	-9.10691
▁mogli	-9.10727
met	-9.10886
▁smrt	-9.10892
▁krš	-9.10918
onic	-9.10941
▁Trump	-9.11217
zd	-9.11228
od	-9.11327
▁str	-9.11441
▁nep	-9.11484
▁tog	-9.11617
▁tr	-9.11654
▁svog	-9.11751
▁Rad	-9.11825
▁ele	-9.11901
▁icom	-9.11922
▁gradu	-9.11979
imp	-9.12017
▁Gr	-9.12193
▁dire	-9.12198
▁okr	-9.12205
▁nima	-9.12483
▁fer	-9.12599
▁Gor	-9.12834
▁usk	-9.12969
▁rać	-9.13034
▁niz	-9.13099
▁pokr	-9.13109
▁mas	-9.13155
▁meta	-9.13282
▁djece	-9.13302
kup	-9.13427
▁Andr	-9.13623
▁olni	-9.13746
vi	-9.13823
▁vel	-9.13826
▁and	-9.13874
▁aka	-9.13878
▁oga	-9.13878
nud	-9.14034
▁des	-9.14085
▁nosu	-9.1431
▁lin	-9.14326
tom	-9.14392
▁eli	-9.14713
▁lik	-9.14733
▁omoć	-9.15132
▁ašnj	-9.15209
▁TO	-9.15278
▁klon	-9.15358
▁poli	-9.15432
▁Mat	-9.1546
▁Da	-9.15644
pak	-9.15658
▁rt	-9.15722
▁ncert	-9.15724
kav	-9.15747
▁arl	-9.15768
▁iš	-9.1581
▁novo	-9.15837
▁iva	-9.15867
▁irao	-9.1591
▁pal	-9.15983
veća	-9.16007
▁orts	-9.16147
smo	-9.16204
▁pis	-9.16224
tno	-9.16258
▁anjo	-9.16539
▁icima	-9.16747
▁be	-9.16857
ređ	-9.16895
▁stig	-9.16924
▁genc	-9.16952
▁oper	-9.16973
▁sk	-9.17017
▁opas	-9.1703
▁ajn	-9.17129
▁%	-9.17188
▁alo	-9.17207
▁sil	-9.17354
▁Mi	-9.17361
▁liti	-9.17419
▁br	-9.17435
čen	-9.17442
▁naše	-9.17473
▁ulic	-9.17583
▁ići	-9.17591
▁lazak	-9.17744
št	-9.17853
▁nuta	-9.17981
▁zlo	-9.17989
▁dnev	-9.18072
▁jubav	-9.1817
tvor	-9.18219
▁les	-9.18221
▁bolje	-9.1858
▁toč	-9.18615
ći	-9.18941
▁ćen	-9.19005
▁plas	-9.19403
▁Pet	-9.19543
▁možd	-9.19588
▁priča	-9.19627
tjec	-9.19638
▁hod	-9.19715
▁rav	-9.19861
▁uvjet	-9.19918
▁lat	-9.20134
▁val	-9.20245
▁padn	-9.20313
▁mušk	-9.20443
▁inama	-9.20475
▁ista	-9.20567
▁davn	-9.20605
▁ub	-9.20673
▁nča	-9.20691
▁ovati	-9.20768
▁vik	-9.20821
▁ana	-9.20882
▁mak	-9.20887
▁ital	-9.20907
▁bira	-9.20948
▁imp	-9.21039
tim	-9.21136
▁ps	-9.21149
▁rol	-9.21151
▁ell	-9.21325
▁Uz	-9.21707
dsk	-9.21783
▁lož	-9.21848
▁imir	-9.21857
▁znak	-9.22162
▁as	-9.22238
▁rodn	-9.22269
cen	-9.22523
▁ković	-9.22586
▁temp	-9.22599
▁vrš	-9.22665
▁rađ	-9.22806
▁Bar	-9.22902
▁lu	-9.22943
▁utku	-9.22947
▁eri	-9.22953
zbil	-9.23033
▁niti	-9.23133
▁etalj	-9.23312
▁ište	-9.23357
▁ang	-9.23446
▁kolo	-9.23948
▁plaća	-9.23986
▁tak	-9.24123
▁ijek	-9.2413
▁imen	-9.24155
▁boga	-9.24234
rgov	-9.24261
▁up	-9.24271
▁zrael	-9.24381
▁obr	-9.2451
▁Naim	-9.24546
▁ter	-9.24595
▁reći	-9.24624
▁pisao	-9.24661
▁azov	-9.24681
A	-9.24757
▁nedo	-9.24864
▁liči	-9.24911
▁boj	-9.25044
čno	-9.25157
▁res	-9.25181
▁lad	-9.2519
▁kamp	-9.25211
▁osobe	-9.25231
▁bil	-9.25271
▁ač	-9.2538
▁pros	-9.25408
▁daje	-9.25586
▁kat	-9.25642
▁dug	-9.25669
▁obja	-9.25753
▁cr	-9.25911
▁posao	-9.26004
irom	-9.26035
▁tvr	-9.26074
▁ovrat	-9.26298
▁novn	-9.26422
ak	-9.26483
▁Ol	-9.26756
▁eti	-9.27058
▁zab	-9.27114
uz	-9.27241
▁iako	-9.2743
▁vrs	-9.27472
đen	-9.27544
▁omoći	-9.27573
▁vrt	-9.2762
▁vlad	-9.27669
▁iste	-9.27708
▁15	-9.27759
▁mogla	-9.27768
nad	-9.27892
▁iznos	-9.27989
▁stali	-9.27992
▁park	-9.28051
▁bes	-9.28256
▁SAD	-9.28525
▁alma	-9.28623
ziva	-9.28707
▁učen	-9.28779
▁of	-9.28815
▁čega	-9.28834
▁skr	-9.28847
▁blag	-9.28872
▁kil	-9.28917
ijač	-9.28925
zva	-9.28938
▁vrhu	-9.29075
▁znači	-9.29194
▁hit	-9.293
▁ržiš	-9.29339
▁ment	-9.29359
▁Niko	-9.29379
tur	-9.29574
▁ijan	-9.29657
▁Ja	-9.29664
kip	-9.29787
▁poraz	-9.29808
▁ono	-9.29809
▁imam	-9.29839
po	-9.29845
▁erv	-9.29873
▁petak	-9.29926
▁redn	-9.3004
▁rođe	-9.30132
▁zašto	-9.30227
▁krat	-9.30391
▁stan	-9.30474
▁prava	-9.30534
▁čić	-9.30661
▁brod	-9.30783
▁nova	-9.30783
▁inac	-9.30806
deć	-9.30888
▁sata	-9.3089
▁kluba	-9.30892
▁uper	-9.30961
▁ruš	-9.30962
ša	-9.31
▁oje	-9.31037
▁oseb	-9.31176
▁ben	-9.31191
▁vozač	-9.31225
▁sto	-9.31237
▁zato	-9.31298
sam	-9.3142
▁like	-9.31461
▁skor	-9.31482
▁SDP	-9.31549
▁oran	-9.31618
▁andat	-9.31854
▁tpun	-9.31888
▁jav	-9.31915
▁tali	-9.32013
▁ruj	-9.32106
▁komu	-9.32133
ož	-9.32421
duć	-9.32491
▁roces	-9.32508
▁Mari	-9.32565
▁dati	-9.32604
▁tres	-9.32714
▁jiv	-9.32728
▁azi	-9.32774
▁savez	-9.32803
▁funk	-9.32886
ular	-9.32994
▁tičk	-9.33021
▁30	-9.33143
aron	-9.33151
▁djev	-9.33239
▁adran	-9.33336
▁vesti	-9.3334
▁arla	-9.33505
▁bole	-9.3364
▁rada	-9.33727
▁kre	-9.33767
kcij	-9.33938
▁du	-9.34047
▁dala	-9.34091
▁logi	-9.34106
▁sedam	-9.34406
renc	-9.34409
▁rin	-9.3444
▁Šib	-9.34451
▁spjeh	-9.34511
▁opet	-9.34531
▁imala	-9.34554
▁brz	-9.34638
▁rata	-9.34691
▁ulj	-9.34705
▁Josi	-9.34726
▁ajin	-9.34835
▁pos	-9.3484
▁Th	-9.34888
▁čke	-9.34909
▁svega	-9.34939
▁cima	-9.35036
▁slu	-9.35048
▁ill	-9.35098
▁ete	-9.35182
lač	-9.35253
▁igrao	-9.35273
▁redi	-9.35303
▁uci	-9.35325
▁riop	-9.35481
▁atelj	-9.35588
▁Per	-9.35647
▁sjaj	-9.35706
▁ikac	-9.35801
▁ubotu	-9.35855
ncij	-9.35857
▁manj	-9.35885
gr	-9.35886
▁laz	-9.35916
▁osam	-9.35981
▁obič	-9.35985
zvan	-9.36151
▁ian	-9.36287
▁nicu	-9.36464
▁rade	-9.3659
▁akle	-9.36985
▁njim	-9.37102
▁mene	-9.37532
▁ovdje	-9.37534
iz	-9.37577
▁dobi	-9.37581
▁ero	-9.37938
▁lasti	-9.37978
▁ark	-9.38013
▁per	-9.38063
▁nut	-9.38163
▁jutro	-9.38218
▁son	-9.38512
▁onal	-9.38526
▁pot	-9.38596
nst	-9.38655
▁vodn	-9.38663
iječ	-9.38878
▁utova	-9.38918
epub	-9.38975
aj	-9.39049
▁ijete	-9.39135
▁šli	-9.39151
▁lop	-9.39164
▁dis	-9.39295
▁uć	-9.39326
lab	-9.39331
▁korak	-9.39431
▁ojat	-9.39519
▁Ant	-9.3952
▁akc	-9.3953
▁doma	-9.39641
tenc	-9.3981
▁čn	-9.39944
00	-9.40175
▁čini	-9.40208
▁reko	-9.40312
▁vjes	-9.40402
▁novac	-9.40471
▁lika	-9.40811
▁ok	-9.40868
▁Tom	-9.40943
▁kriv	-9.41058
▁metaš	-9.41081
▁rah	-9.41167
▁urnir	-9.41226
▁dese	-9.41253
▁romet	-9.4142
▁Ob	-9.41466
▁reć	-9.4164
▁grama	-9.4166
zima	-9.41666
▁love	-9.41687
▁ovu	-9.41693
▁mam	-9.4177
il	-9.41857
▁kl	-9.41892
▁išl	-9.42066
▁eva	-9.42098
▁ijent	-9.42181
▁až	-9.42282
▁dosad	-9.42412
▁vaja	-9.42417
▁Kao	-9.42437
▁kole	-9.42451
▁aša	-9.42535
▁spor	-9.42578
▁tiga	-9.4259
▁opće	-9.42668
▁orij	-9.42724
▁datak	-9.42762
▁slije	-9.42783
▁ces	-9.42807
▁Zbo	-9.42809
▁jug	-9.43112
▁Ko	-9.43171
▁sijek	-9.43201
▁ument	-9.43218
▁gene	-9.43318
ruj	-9.43342
▁thod	-9.43347
▁glasa	-9.43468
▁kid	-9.43485
▁rem	-9.43519
▁ident	-9.43653
▁jatn	-9.43829
▁čko	-9.43868
▁tič	-9.43923
▁okus	-9.44005
▁ujuć	-9.44054
▁tih	-9.44294
▁rita	-9.44327
▁snag	-9.44422
za	-9.44597
▁duše	-9.44671
▁graf	-9.44871
▁12	-9.44954
zlij	-9.44972
▁nače	-9.45164
▁ištu	-9.45293
▁islav	-9.45346
y	-9.45398
▁utno	-9.45633
▁ešk	-9.45712
▁ziti	-9.45818
▁ilje	-9.45897
▁gla	-9.4596
▁pute	-9.46083
▁si	-9.46523
▁vo	-9.46673
▁Ivana	-9.46702
▁lako	-9.46723
▁oc	-9.46723
▁etku	-9.46739
▁Jed	-9.46754
▁žena	-9.46783
▁ec	-9.46861
▁pjeva	-9.46905
▁isa	-9.46967
▁Su	-9.47324
▁luk	-9.47356
▁kog	-9.47369
▁vješ	-9.47445
▁ruč	-9.47451
ateg	-9.4746
▁seks	-9.47505
▁Dom	-9.47533
▁rist	-9.47574
▁Aust	-9.47603
▁prim	-9.47634
▁cel	-9.47841
▁kupn	-9.47896
▁oguće	-9.47922
▁dosta	-9.47935
tor	-9.48023
▁rov	-9.48106
▁prič	-9.48159
▁ijih	-9.48189
kov	-9.48258
▁dom	-9.48341
▁jasno	-9.48359
▁slova	-9.48361
▁tip	-9.48423
ud	-9.48424
▁djecu	-9.48568
gađ	-9.48747
▁lov	-9.48827
▁mater	-9.48836
insk	-9.48993
▁njoj	-9.49098
▁nap	-9.49271
njsk	-9.49577
▁ivati	-9.49797
gi	-9.49839
▁čit	-9.499
▁ab	-9.50039
▁rid	-9.50134
sel	-9.50197
▁dub	-9.50201
▁Real	-9.50306
▁lošk	-9.50418
▁rend	-9.50611
▁smije	-9.50817
▁ektor	-9.50947
▁nter	-9.51112
zem	-9.51197
kad	-9.51212
nih	-9.51236
stan	-9.51501
▁Ju	-9.51542
▁abil	-9.516
▁uslu	-9.51718
▁gal	-9.51719
▁kop	-9.51762
▁omčad	-9.51889
▁došao	-9.51975
▁elen	-9.51999
▁ekt	-9.5203
pl	-9.52062
▁itn	-9.52135
▁nte	-9.52192
▁pušt	-9.52339
▁moglo	-9.52458
sjet	-9.52693
▁torak	-9.5274
▁loga	-9.52918
▁aš	-9.52987
▁ući	-9.52999
▁prva	-9.53144
▁aju	-9.53177
▁bal	-9.53197
oran	-9.53212
▁ay	-9.53364
▁Luka	-9.53383
▁uca	-9.5347
▁vib	-9.53478
▁astav	-9.53497
▁estr	-9.53504
pred	-9.53539
lađ	-9.53564
jež	-9.536
▁nosn	-9.53601
▁sami	-9.53645
▁ispit	-9.53662
▁zla	-9.53663
▁loka	-9.53713
šten	-9.53799
▁opis	-9.53821
▁ičko	-9.53924
raz	-9.54011
▁kuša	-9.54171
▁ijel	-9.54196
end	-9.54204
▁esn	-9.54207
▁model	-9.54223
▁vođ	-9.54293
tič	-9.54321
vač	-9.5434
▁anic	-9.54367
▁kola	-9.54715
▁stiče	-9.54962
▁Šp	-9.54987
▁stra	-9.55011
naž	-9.55014
onir	-9.55084
▁naći	-9.55099
▁učil	-9.55211
▁rk	-9.55256
▁rs	-9.55444
▁Marko	-9.55445
klop	-9.5547
▁atr	-9.55487
im	-9.5549
nstv	-9.55522
▁neka	-9.55535
▁rof	-9.55564
▁ivotu	-9.55564
▁split	-9.55572
▁isk	-9.55593
▁rič	-9.55655
▁trij	-9.55673
▁mar	-9.55758
▁veni	-9.5583
▁sva	-9.55836
▁gir	-9.55847
▁BiH	-9.55947
▁rok	-9.56101
hi	-9.56111
▁Br	-9.56151
▁titi	-9.56239
▁čem	-9.56244
▁noć	-9.56351
▁sl	-9.56364
▁vic	-9.56382
▁ita	-9.56453
▁ch	-9.56505
▁rasta	-9.56565
▁skrb	-9.5661
▁Ist	-9.56824
▁rvu	-9.56825
▁dobar	-9.56917
▁trud	-9.5701
▁rvoj	-9.57189
▁spec	-9.5721
okuš	-9.57262
▁nose	-9.57343
▁Prij	-9.57367
▁venc	-9.57478
▁ncu	-9.57524
▁jan	-9.57524
▁time	-9.57665
▁artin	-9.57813
▁devet	-9.5785
▁mag	-9.5787
lin	-9.5788
▁daju	-9.57898
▁lek	-9.57954
▁krug	-9.57965
▁ba	-9.58003
▁istr	-9.5804
▁jam	-9.5814
▁likom	-9.58147
▁ovim	-9.58169
▁kok	-9.58181
▁krv	-9.58344
▁konf	-9.5844
▁tur	-9.58575
▁bu	-9.58578
▁nd	-9.58667
▁konc	-9.587
▁abr	-9.58705
▁ber	-9.58762
▁oraju	-9.58793
T	-9.58816
ul	-9.58831
jeća	-9.58877
▁plitu	-9.58903
▁entar	-9.58937
▁de	-9.59007
▁Mir	-9.59014
▁šp	-9.59037
▁ogr	-9.59245
▁šić	-9.59292
▁post	-9.59293
▁vođa	-9.59334
▁sebi	-9.59388
la	-9.59442
▁svima	-9.59536
▁oman	-9.59541
mjer	-9.59578
▁mjene	-9.59598
▁Grada	-9.5964
▁uzrok	-9.59828
▁etkom	-9.59873
▁čkoj	-9.5988
▁dar	-9.59993
▁oval	-9.6009
▁izvo	-9.60325
▁emis	-9.60425
▁lig	-9.6045
▁Modr	-9.60576
▁bija	-9.60628
▁sti	-9.60657
▁var	-9.60694
▁fiz	-9.60702
▁rig	-9.60748
▁moći	-9.60766
▁radio	-9.60787
du	-9.60842
▁Sp	-9.60972
▁djela	-9.61104
▁krit	-9.61141
skor	-9.6116
▁viš	-9.61224
▁elj	-9.61312
▁tje	-9.61341
▁vršen	-9.61566
gas	-9.61602
▁ored	-9.6169
▁moj	-9.61708
▁iraju	-9.61708
▁rep	-9.61799
▁atn	-9.62019
▁+	-9.62037
▁bjedu	-9.62068
▁lež	-9.62135
odov	-9.62138
▁asn	-9.62186
▁sukob	-9.62204
▁Ro	-9.62252
▁tuž	-9.62279
▁pogo	-9.62293
rag	-9.6235
▁nes	-9.62357
▁ljude	-9.62503
▁ris	-9.62516
▁čita	-9.62609
▁akv	-9.62613
▁ulaz	-9.62658
▁dbo	-9.6267
▁raž	-9.62774
\	-9.62778
▁laž	-9.62812
li	-9.62845
▁eđen	-9.62849
▁vrata	-9.62899
▁išić	-9.6292
▁azal	-9.6301
▁otin	-9.63016
▁Y	-9.63034
▁stol	-9.63093
boj	-9.63096
▁jest	-9.63179
rod	-9.63246
▁kcij	-9.63278
▁laska	-9.63305
čel	-9.63359
▁uoč	-9.63413
▁jezik	-9.63543
▁ign	-9.6359
▁rv	-9.63627
▁njemu	-9.63661
▁PO	-9.63698
▁alost	-9.63723
▁11	-9.63789
▁etn	-9.63851
▁Bio	-9.63877
▁snage	-9.63948
▁Danas	-9.63949
▁drugo	-9.64021
▁Inst	-9.64063
▁50	-9.64079
▁kić	-9.64134
▁visi	-9.64319
▁ey	-9.6444
osob	-9.6445
▁avi	-9.64463
▁očet	-9.64465
▁obzir	-9.64721
▁jećaj	-9.64781
stal	-9.64788
▁komb	-9.6481
▁akter	-9.64925
▁dra	-9.64993
misl	-9.65066
▁hotel	-9.65085
▁najv	-9.65124
▁optu	-9.6522
▁ort	-9.65251
▁tenis	-9.65354
▁andr	-9.65442
▁zim	-9.65531
▁noge	-9.65535
▁ož	-9.65548
▁nisa	-9.65586
aša	-9.65622
▁teren	-9.65633
▁bol	-9.65637
▁lj	-9.65647
▁ron	-9.65675
▁Vlade	-9.65678
▁DA	-9.65726
▁gl	-9.6586
▁arin	-9.65863
▁iln	-9.65896
▁inc	-9.65993
▁alent	-9.66177
▁fil	-9.66259
▁kuha	-9.663
▁srpn	-9.66372
▁srp	-9.66514
jeva	-9.66593
ndus	-9.66613
▁Opći	-9.66673
▁igi	-9.66707
▁video	-9.66718
▁soc	-9.66747
▁ičke	-9.66816
▁ratko	-9.6684
▁rel	-9.67047
▁poziv	-9.67216
▁vela	-9.67282
▁Har	-9.67325
▁njen	-9.67334
▁ambe	-9.67406
▁mate	-9.67427
▁Filip	-9.67439
▁def	-9.67457
▁koga	-9.67533
stv	-9.67606
▁etan	-9.6765
acij	-9.67712
▁spje	-9.67734
▁oš	-9.67747
tpun	-9.67776
▁otok	-9.67813
▁aket	-9.6792
▁ažn	-9.6796
▁išao	-9.67985
▁došlo	-9.67998
▁bist	-9.68019
▁mat	-9.68054
kuš	-9.68318
▁1.	-9.68345
▁jč	-9.68412
▁hol	-9.68415
▁mčadi	-9.68448
▁skla	-9.68507
drug	-9.68539
▁adion	-9.68549
▁Vi	-9.68624
:	-9.68655
▁Dok	-9.68671
prem	-9.68681
GLE	-9.68849
▁tira	-9.68852
▁enjem	-9.68936
▁jedi	-9.6894
▁kažu	-9.68986
▁utin	-9.69014
▁ća	-9.69154
▁udac	-9.69178
▁Mark	-9.69234
JTE	-9.69244
▁Tu	-9.69324
▁amb	-9.69327
▁lige	-9.69463
liž	-9.69518
▁fra	-9.69546
▁lici	-9.69719
▁ema	-9.69722
▁ožić	-9.6973
tuc	-9.69752
▁Pa	-9.69755
▁lask	-9.69872
▁bank	-9.69892
▁zva	-9.69944
▁New	-9.7003
abor	-9.70101
▁zabio	-9.70116
▁ovn	-9.70126
▁zvao	-9.70135
▁pravi	-9.70227
dnev	-9.70253
▁moć	-9.70358
▁alb	-9.70362
▁bod	-9.70582
▁sat	-9.70583
▁djeca	-9.70613
toč	-9.70626
▁Jo	-9.7068
▁bjekt	-9.70759
▁poru	-9.70776
▁doz	-9.70785
▁dij	-9.70929
▁18	-9.70975
▁Sa	-9.71039
▁odmor	-9.71088
▁žele	-9.7109
▁še	-9.71216
▁erenu	-9.7128
▁osje	-9.71334
▁goj	-9.71337
▁igre	-9.7135
tic	-9.71377
▁vu	-9.71533
▁java	-9.71567
▁nism	-9.71608
inam	-9.71711
▁brak	-9.71718
▁olov	-9.71779
▁ursk	-9.71975
▁djet	-9.72053
slav	-9.72126
▁evo	-9.7215
▁rimo	-9.72168
▁NA	-9.72169
▁stane	-9.72173
▁diz	-9.72233
▁tis	-9.72256
▁roči	-9.72294
▁šok	-9.72319
ašnj	-9.72338
▁anti	-9.72355
▁bora	-9.72361
▁erz	-9.72405
▁nama	-9.72422
▁nuti	-9.72478
▁zbor	-9.72486
▁tvo	-9.72502
▁rap	-9.72547
▁niž	-9.72612
▁mr	-9.7262
▁reba	-9.72741
▁uzet	-9.72744
žnj	-9.72769
▁šti	-9.72822
▁land	-9.72925
▁lju	-9.72991
▁star	-9.73255
edb	-9.73258
rist	-9.73324
▁đ	-9.7336
akc	-9.73395
▁FO	-9.73414
žev	-9.73505
▁ari	-9.73506
▁zra	-9.73548
▁ič	-9.73584
▁čast	-9.73694
▁ajka	-9.73727
▁rekli	-9.73749
▁glo	-9.73762
▁Mil	-9.73824
▁snov	-9.73952
▁razum	-9.7396
▁kal	-9.73995
▁pol	-9.7404
▁ivot	-9.74083
▁irali	-9.74145
▁ruža	-9.74187
timo	-9.74353
▁raj	-9.74437
retn	-9.74446
▁minj	-9.74527
▁neu	-9.74528
lošk	-9.74561
▁ražen	-9.74704
▁urg	-9.74716
jača	-9.74721
▁epi	-9.74745
ez	-9.74776
▁abra	-9.74849
▁ijelo	-9.74929
▁stalo	-9.75001
ikac	-9.75005
▁arem	-9.75114
kul	-9.75239
▁izam	-9.75253
▁erce	-9.75263
▁Kin	-9.75276
▁dje	-9.7542
▁čka	-9.75425
rač	-9.75489
nič	-9.7549
▁oči	-9.75829
▁popu	-9.75872
▁Fot	-9.75892
▁vrh	-9.75908
▁ich	-9.7598
▁leg	-9.76028
▁gub	-9.76056
▁cik	-9.76169
▁jveći	-9.76241
▁požar	-9.76333
▁aut	-9.7635
▁ork	-9.76389
vlj	-9.76449
▁oznat	-9.7652
▁zi	-9.76634
▁An	-9.7665
▁ity	-9.76748
▁rac	-9.76905
▁Vlad	-9.77014
▁ualn	-9.77042
▁gres	-9.77046
▁ins	-9.7714
▁pava	-9.77323
▁norm	-9.77404
▁laže	-9.77412
▁štr	-9.77416
▁porez	-9.77496
▁vje	-9.7754
iš	-9.77577
▁Vid	-9.7761
▁ng	-9.77616
▁levi	-9.7773
lar	-9.77759
▁ock	-9.77849
▁gar	-9.77915
▁onku	-9.77927
▁100	-9.78053
▁ešć	-9.78105
▁zema	-9.7817
▁dig	-9.78178
▁izm	-9.78418
▁ata	-9.78482
▁vor	-9.78547
▁ale	-9.78551
▁ovis	-9.78588
▁las	-9.78627
nic	-9.78747
▁izik	-9.7884
▁gon	-9.79042
pad	-9.79079
▁Dr	-9.79086
▁ožu	-9.79119
▁ijen	-9.79149
▁jas	-9.79208
uris	-9.79476
▁der	-9.79601
▁ež	-9.79656
▁etka	-9.79665
▁opada	-9.79692
▁dali	-9.79835
▁tekst	-9.79884
▁Jur	-9.7994
▁ijep	-9.79967
▁alko	-9.80025
▁žene	-9.80031
▁iru	-9.80046
▁rez	-9.80049
▁piš	-9.80109
▁vidi	-9.80118
▁mali	-9.80147
▁odig	-9.80196
▁eku	-9.80262
▁bud	-9.803
▁tivn	-9.80303
▁Luk	-9.80575
▁ziv	-9.80579
▁ukov	-9.80666
▁trk	-9.80689
▁ex	-9.80848
▁utak	-9.80866
▁zvan	-9.80957
▁ariz	-9.81005
▁indi	-9.81009
az	-9.81033
▁svet	-9.81184
▁šću	-9.81266
▁dž	-9.81418
▁ovao	-9.81629
▁vet	-9.8175
▁iječ	-9.81785
▁alij	-9.81813
▁polj	-9.81828
▁inja	-9.81832
▁jni	-9.81977
C	-9.82063
▁toj	-9.82193
prič	-9.822
▁izma	-9.8221
▁ef	-9.82214
▁pola	-9.82296
▁dvor	-9.82302
▁kin	-9.82317
tual	-9.82401
▁arij	-9.82546
is	-9.826
▁osn	-9.82689
▁gen	-9.82738
iž	-9.82773
▁lago	-9.8287
stič	-9.82911
▁hoće	-9.82926
▁plov	-9.82951
▁mos	-9.82961
▁abran	-9.83003
▁ćenj	-9.83085
▁edan	-9.83132
▁gre	-9.83136
▁14	-9.833
▁kupa	-9.83438
▁noći	-9.83453
▁latn	-9.83455
▁išt	-9.83577
▁ujemo	-9.83639
▁oku	-9.83663
▁inira	-9.83726
rov	-9.83777
▁staju	-9.83839
▁eć	-9.83862
▁kolu	-9.83916
▁aciji	-9.83963
▁Mos	-9.83985
tuž	-9.83996
▁onos	-9.8402
▁lice	-9.8406
ćin	-9.84141
▁jaci	-9.84156
stit	-9.84237
▁raš	-9.84429
▁utra	-9.84509
▁enik	-9.84547
▁ers	-9.8458
sion	-9.84597
uzet	-9.8462
▁eogr	-9.84725
▁tez	-9.84828
▁bije	-9.84843
▁pad	-9.84866
▁svjed	-9.84884
▁RTL	-9.84959
▁40	-9.85002
▁pisan	-9.85034
▁gra	-9.85109
▁juč	-9.85109
▁iše	-9.85261
▁kul	-9.85357
▁abl	-9.85385
▁zon	-9.85409
▁rest	-9.85489
▁ane	-9.85498
▁brat	-9.8554
▁voza	-9.85553
▁dion	-9.85597
▁ukr	-9.8569
▁kav	-9.85702
▁13	-9.8574
▁ortu	-9.85764
▁div	-9.8585
ad	-9.85869
▁nstr	-9.85872
▁imb	-9.8594
▁show	-9.86162
▁vez	-9.862
▁plać	-9.86206
▁ljav	-9.86221
▁jk	-9.86289
▁voje	-9.86433
ment	-9.86596
▁akl	-9.86659
▁taln	-9.86698
▁oli	-9.86753
▁pam	-9.86807
▁olim	-9.87071
▁iden	-9.87157
▁Iv	-9.87164
▁ađa	-9.87193
▁17	-9.87197
▁ario	-9.87227
▁ater	-9.87315
▁čeln	-9.87429
▁rtal	-9.8747
ramo	-9.8759
▁alni	-9.87656
▁ovit	-9.87678
▁atiti	-9.87714
▁bijen	-9.87812
▁vora	-9.87858
▁Sam	-9.87925
▁Pod	-9.87957
▁enuo	-9.87991
▁ail	-9.88025
daš	-9.88043
kv	-9.88115
▁ašk	-9.8814
▁vanj	-9.88279
ljen	-9.88364
▁eret	-9.88368
▁ranj	-9.88434
▁dola	-9.88498
▁tac	-9.88509
kupn	-9.88575
▁voda	-9.88632
▁aza	-9.8864
▁ših	-9.88756
glas	-9.88781
▁kovit	-9.88811
▁pas	-9.88828
▁otiv	-9.88831
▁zele	-9.8904
▁etsk	-9.89158
▁apad	-9.8929
če	-9.89383
▁Novi	-9.89748
▁igr	-9.89758
▁eki	-9.89763
▁mom	-9.89811
▁pomo	-9.89853
▁Mad	-9.89934
▁staj	-9.89962
▁njom	-9.9004
▁vako	-9.90084
▁klju	-9.90097
▁ook	-9.9011
▁ijev	-9.90139
▁anta	-9.90181
▁Me	-9.90199
)	-9.902
▁gosti	-9.90269
▁DP	-9.90298
▁odlu	-9.90492
▁škar	-9.90551
▁bus	-9.90634
▁ival	-9.90766
▁ču	-9.90776
▁25	-9.9079
▁ažni	-9.90832
▁sel	-9.90866
▁ajk	-9.91123
▁reš	-9.91222
▁ige	-9.91269
▁16	-9.9131
▁rač	-9.91384
▁rut	-9.91539
▁reza	-9.91561
▁hoda	-9.91598
mir	-9.91607
▁tic	-9.9162
▁eter	-9.91622
▁pao	-9.91759
▁aja	-9.91786
▁Os	-9.91873
▁uru	-9.91883
▁run	-9.91996
▁rec	-9.92091
▁rab	-9.92111
▁kata	-9.92147
nut	-9.92167
▁mad	-9.92207
▁danj	-9.92253
▁anima	-9.92303
▁roč	-9.9238
▁oks	-9.92393
▁ener	-9.92395
▁noš	-9.92509
lup	-9.92514
▁ly	-9.92767
▁upa	-9.92899
▁Žel	-9.9297
▁lozi	-9.92986
▁men	-9.93146
▁aleko	-9.93154
▁tpisa	-9.93215
šao	-9.93245
▁otpis	-9.93251
▁obil	-9.93254
▁kral	-9.933
▁lavn	-9.93516
▁amp	-9.93778
▁24	-9.93846
ženj	-9.94007
id	-9.94062
▁redu	-9.94072
▁ijes	-9.94136
▁dić	-9.94176
▁esu	-9.94181
▁ovač	-9.94193
nom	-9.94277
▁iven	-9.94321
▁kim	-9.94367
▁kinj	-9.94441
▁Ka	-9.94516
▁HRT	-9.94529
▁movi	-9.94662
▁cem	-9.94707
▁inca	-9.9471
▁ton	-9.94776
▁olin	-9.94806
▁hva	-9.94814
▁tele	-9.94841
▁čk	-9.94883
▁ljsk	-9.94942
▁odom	-9.94948
▁ene	-9.95022
▁uput	-9.95098
dej	-9.95152
▁šeg	-9.95214
ut	-9.95268
▁kući	-9.95436
▁lok	-9.95559
▁ref	-9.95659
▁agan	-9.95922
seb	-9.96005
▁očn	-9.96018
▁entr	-9.96037
▁ziva	-9.96105
▁aps	-9.9612
▁ikl	-9.9617
▁HNL	-9.96194
▁šin	-9.96301
▁und	-9.96486
▁vog	-9.96574
▁ved	-9.96634
▁Evo	-9.96644
▁TV	-9.96649
▁Pods	-9.9674
▁erij	-9.9678
▁javno	-9.96827
▁važ	-9.96841
▁ena	-9.96852
▁agn	-9.96978
▁irani	-9.96982
▁azna	-9.96984
▁19	-9.96997
▁ilj	-9.97201
▁ft	-9.9733
▁ere	-9.97354
▁elu	-9.97395
sp	-9.97427
▁nez	-9.97483
▁aši	-9.97561
▁dokaz	-9.97581
▁boda	-9.976
▁che	-9.97637
nul	-9.97757
▁zbu	-9.97881
▁mol	-9.9797
▁ept	-9.98094
▁eća	-9.98107
▁rag	-9.98167
U	-9.98175
▁irala	-9.98206
▁kih	-9.98311
▁tirao	-9.98424
▁tva	-9.98433
▁itk	-9.98495
▁slič	-9.98563
▁Jak	-9.98565
▁ara	-9.98626
▁enata	-9.98743
▁Ta	-9.98751
▁Rim	-9.98833
▁amer	-9.98866
aln	-9.98972
▁azil	-9.98991
▁šta	-9.99106
▁kreta	-9.99345
▁rakt	-9.99441
▁vir	-9.99482
▁otor	-9.99489
▁ensk	-9.99668
▁iječi	-9.99745
▁jno	-9.99769
▁uva	-9.99795
mi	-9.99993
▁ruke	-10.0006
▁tarn	-10.0013
sor	-10.0021
eđen	-10.0047
▁ardi	-10.0054
▁upo	-10.0066
▁ato	-10.0069
▁mjeru	-10.0102
▁RH	-10.0102
▁ond	-10.0103
▁okv	-10.011
▁rank	-10.0114
▁hla	-10.0117
▁javi	-10.0119
▁ikad	-10.0125
▁torij	-10.0128
ljev	-10.0134
▁Ukr	-10.0134
▁ljuje	-10.0137
▁visn	-10.0144
▁jeća	-10.0161
▁alić	-10.0161
▁uti	-10.0161
▁usta	-10.0165
▁lijun	-10.0165
▁ljivo	-10.0167
▁fon	-10.0171
▁duh	-10.0179
▁our	-10.0183
▁anke	-10.0184
▁obje	-10.0186
▁viz	-10.0202
▁oč	-10.0238
▁ram	-10.0258
▁ho	-10.0299
as	-10.032
▁đe	-10.0329
rsk	-10.0332
▁eci	-10.0334
▁ick	-10.0341
▁mani	-10.0342
▁aze	-10.0351
▁lože	-10.0351
▁živi	-10.0372
▁rum	-10.0373
▁port	-10.0377
ljeć	-10.0384
▁šim	-10.0392
▁nt	-10.0394
▁tp	-10.0408
▁arsk	-10.0412
▁stil	-10.0415
▁lud	-10.0428
▁ovsk	-10.0429
1	-10.0431
▁čar	-10.0431
▁lazn	-10.0441
nves	-10.0451
▁anju	-10.0452
▁ličn	-10.0453
▁kriva	-10.0463
▁liv	-10.0475
▁Dub	-10.0483
▁ujem	-10.0515
es	-10.0525
▁dužn	-10.0528
▁misi	-10.053
▁lica	-10.0544
▁jetn	-10.0565
▁#	-10.0566
▁ust	-10.0579
▁jih	-10.059
▁vezi	-10.0591
▁inv	-10.0593
las	-10.0594
▁ljeni	-10.0597
▁X	-10.0609
jel	-10.0623
go	-10.0638
▁zgled	-10.064
▁gani	-10.0643
▁veze	-10.0648
▁dobit	-10.0658
▁lada	-10.0676
▁edij	-10.0687
▁trg	-10.0693
▁rili	-10.0704
adr	-10.0705
ekt	-10.071
▁Je	-10.0726
▁ića	-10.0737
vali	-10.0739
ter	-10.074
oči	-10.0751
▁icira	-10.0758
priv	-10.0763
▁inale	-10.0783
▁eve	-10.0784
▁abor	-10.079
▁tema	-10.0797
▁apa	-10.0802
▁rugu	-10.0812
it	-10.0818
▁osa	-10.0822
▁att	-10.0825
▁dram	-10.0836
▁brin	-10.0842
▁ster	-10.0843
▁Man	-10.0843
▁napo	-10.0857
▁hal	-10.0863
jub	-10.0878
▁dem	-10.088
▁mjena	-10.0932
▁ošte	-10.0936
▁ret	-10.0947
▁Pred	-10.0952
▁nepr	-10.0955
▁rp	-10.0956
▁ukl	-10.0981
▁ošla	-10.1001
▁civ	-10.1002
▁ori	-10.1006
▁lic	-10.1009
vod	-10.102
▁opt	-10.1043
čer	-10.1045
▁manji	-10.1055
▁edu	-10.106
▁60	-10.1063
▁Tim	-10.1077
jte	-10.1085
▁stro	-10.1094
▁traje	-10.1111
▁di	-10.1126
▁jka	-10.1128
▁alj	-10.1131
▁sje	-10.1166
su	-10.1173
▁pl	-10.1177
▁eta	-10.1183
▁jasn	-10.1186
▁idu	-10.1193
plat	-10.1196
▁jače	-10.1205
▁mjera	-10.1209
▁eru	-10.1213
▁ban	-10.1213
▁pala	-10.1225
▁pac	-10.1228
▁cija	-10.1258
▁kle	-10.1259
▁ozn	-10.1263
▁Kon	-10.1264
▁ebr	-10.1275
uk	-10.1276
▁inic	-10.1278
▁ička	-10.1291
▁juje	-10.1297
voj	-10.1299
▁fic	-10.131
▁°	-10.1311
▁oba	-10.1312
▁eng	-10.1314
▁jač	-10.1335
▁lod	-10.1348
▁car	-10.1355
▁trenu	-10.1358
▁inut	-10.1367
▁adar	-10.1369
▁sir	-10.1379
▁kov	-10.1384
▁štvu	-10.139
▁luš	-10.1396
▁omb	-10.1401
ić	-10.1409
▁četv	-10.1413
▁avu	-10.143
▁ry	-10.1431
us	-10.1439
▁ugr	-10.1453
▁edn	-10.1455
▁bij	-10.1467
▁gran	-10.1483
▁šal	-10.1491
▁anjen	-10.1492
▁mjere	-10.1494
▁rošlo	-10.1509
▁blis	-10.1526
▁ru	-10.1531
▁smij	-10.1535
da	-10.1543
▁gno	-10.1543
▁han	-10.1547
▁eut	-10.1548
rija	-10.1563
▁orc	-10.1577
snov	-10.1588
▁kos	-10.16
▁čuva	-10.1602
▁ure	-10.1604
▁ord	-10.1605
▁remi	-10.1622
▁trav	-10.1622
žda	-10.1626
▁meč	-10.1633
▁2.	-10.165
▁ever	-10.165
▁teri	-10.1655
▁enti	-10.1659
▁gramu	-10.1667
gij	-10.1691
▁lić	-10.1708
▁išn	-10.171
▁ren	-10.1713
▁zb	-10.1737
▁Kor	-10.1748
▁gn	-10.1753
▁štvo	-10.1756
▁bar	-10.1758
▁zira	-10.1773
▁net	-10.1774
▁ivo	-10.178
▁rib	-10.1783
▁uče	-10.1805
▁ovan	-10.1814
sve	-10.1822
▁alic	-10.1841
▁ivač	-10.185
bil	-10.1855
ard	-10.1857
▁inske	-10.1859
▁jin	-10.1861
▁umu	-10.1861
▁dob	-10.1863
▁seg	-10.1868
▁Đ	-10.1885
▁pel	-10.1887
▁Sad	-10.189
nici	-10.189
dlič	-10.1891
spor	-10.1893
ab	-10.1921
▁mil	-10.1921
▁eza	-10.1924
kraj	-10.1926
▁kus	-10.1937
og	-10.1943
▁emij	-10.1964
▁raga	-10.1968
▁21	-10.1988
▁roba	-10.1992
ic	-10.1994
▁točn	-10.1994
▁Lu	-10.1997
▁ljev	-10.1999
▁Kar	-10.2005
▁zas	-10.2008
▁tiv	-10.201
▁tion	-10.2012
▁este	-10.2013
▁ast	-10.2018
▁vin	-10.2022
▁maš	-10.2024
▁enim	-10.2053
▁zid	-10.2064
▁ajuć	-10.2067
▁rž	-10.2074
▁ormi	-10.2076
▁osp	-10.2086
▁utr	-10.2104
▁iješ	-10.2113
▁juž	-10.2114
▁gin	-10.2117
▁Ove	-10.2117
▁spek	-10.2129
▁asti	-10.214
▁traži	-10.215
▁mit	-10.2166
▁nevn	-10.2174
▁ate	-10.2178
▁rvo	-10.2199
▁anin	-10.2215
▁uha	-10.222
▁đen	-10.2238
▁Jel	-10.2239
▁kanal	-10.2239
▁kama	-10.2246
▁Špan	-10.2247
▁nado	-10.2255
▁jača	-10.2264
▁godio	-10.2273
▁šten	-10.2291
▁tre	-10.2291
▁3.	-10.2297
▁iver	-10.2308
što	-10.2309
ač	-10.2315
▁Sl	-10.2315
▁zij	-10.2317
▁najm	-10.2318
▁arhi	-10.2332
▁ong	-10.2333
▁ind	-10.2334
▁znati	-10.2337
▁oji	-10.2338
stoj	-10.2342
▁Ve	-10.2356
▁ondo	-10.2357
▁ljaj	-10.2372
ci	-10.2378
▁min	-10.2379
min	-10.2383
▁avati	-10.2404
nuti	-10.2405
▁omin	-10.2408
▁stič	-10.2409
▁ans	-10.2411
▁ler	-10.2412
▁mage	-10.2422
▁skup	-10.2424
▁čkom	-10.2427
▁all	-10.2438
▁ruku	-10.2443
▁lor	-10.2447
▁ći	-10.2452
ziv	-10.2454
le	-10.246
▁azum	-10.2465
▁Car	-10.2467
▁jeva	-10.2475
▁če	-10.2476
▁akva	-10.2477
▁žal	-10.2497
▁ječ	-10.251
▁Ra	-10.253
▁nudi	-10.254
▁stru	-10.2552
▁rca	-10.2559
pri	-10.2574
▁ržava	-10.2575
▁enici	-10.2578
▁kasn	-10.2578
▁ame	-10.2582
▁akon	-10.2591
▁esl	-10.2591
▁oram	-10.2598
▁ljeć	-10.261
▁ha	-10.2632
▁nogi	-10.2641
▁raka	-10.2669
▁ugl	-10.267
▁luc	-10.2673
▁plaće	-10.2677
▁ovac	-10.2693
▁w	-10.2698
▁7.	-10.2699
▁diza	-10.2702
ličn	-10.2716
▁ula	-10.272
▁uću	-10.2723
▁idr	-10.2724
▁eko	-10.2734
▁Vu	-10.275
klju	-10.2751
▁už	-10.2751
▁iel	-10.2754
▁rska	-10.2755
▁rve	-10.2768
▁rago	-10.2788
▁arm	-10.2791
▁šut	-10.2792
▁uzd	-10.2796
▁znato	-10.285
▁iri	-10.2858
▁adu	-10.2863
▁uh	-10.2868
▁tari	-10.2868
▁22	-10.2869
▁grade	-10.2869
▁ruž	-10.2878
▁ožemo	-10.2904
▁lišt	-10.2905
▁elim	-10.291
▁nula	-10.291
▁edr	-10.2911
▁evet	-10.2924
▁rst	-10.2924
▁pap	-10.293
▁šav	-10.2933
▁enut	-10.2943
▁ink	-10.2947
▁form	-10.2957
▁uli	-10.2958
L	-10.2959
▁jeto	-10.2962
zij	-10.2962
▁obno	-10.2966
▁izb	-10.2975
▁znala	-10.2977
▁ivan	-10.2984
▁hum	-10.3
,5	-10.3003
▁esto	-10.3004
▁pla	-10.3016
▁lom	-10.3026
▁rva	-10.3026
▁sama	-10.3043
▁Eur	-10.3053
▁šla	-10.3057
▁dam	-10.307
truk	-10.3073
▁njsk	-10.3081
▁upc	-10.3083
hva	-10.3084
▁rsta	-10.3113
▁činje	-10.3121
▁gro	-10.3124
▁Ad	-10.3127
▁bitel	-10.3128
▁apl	-10.3132
▁kot	-10.3134
▁akve	-10.3135
▁laka	-10.3152
▁15.	-10.3153
tv	-10.3168
tičk	-10.3176
▁ivao	-10.3178
BC	-10.3182
▁jko	-10.3187
▁ečk	-10.3194
▁klu	-10.3209
otiv	-10.3227
▁tere	-10.3233
▁doba	-10.3235
▁ern	-10.3242
▁emu	-10.3246
▁ros	-10.3256
▁misli	-10.3262
▁Is	-10.3264
▁El	-10.3268
▁Tik	-10.3275
sre	-10.329
▁ulje	-10.3299
▁loz	-10.3299
trag	-10.3307
▁van	-10.3309
▁traže	-10.3311
▁išu	-10.3313
▁ver	-10.3327
▁nves	-10.3334
▁jesen	-10.3335
4	-10.3336
▁rak	-10.3348
▁rč	-10.3351
▁moto	-10.3354
▁kro	-10.336
▁judi	-10.3363
▁doga	-10.3372
▁govi	-10.3373
gor	-10.3375
and	-10.3389
vak	-10.3423
▁inov	-10.3437
▁aste	-10.344
▁Pal	-10.3445
▁aksi	-10.3462
▁eor	-10.3471
▁mini	-10.3487
▁avl	-10.3502
▁uza	-10.3508
▁abora	-10.3536
▁Op	-10.3545
▁rob	-10.3549
▁araj	-10.355
▁riv	-10.3555
▁Dal	-10.357
▁bin	-10.3573
▁hor	-10.3573
▁treće	-10.3576
▁gij	-10.3581
▁ix	-10.3599
▁atur	-10.36
▁Pe	-10.3601
▁5.	-10.3611
▁teme	-10.3612
▁lus	-10.3614
▁obal	-10.3627
▁inom	-10.3635
▁oz	-10.3638
ubot	-10.3642
ral	-10.3648
▁alna	-10.3655
činj	-10.3656
▁ogo	-10.3663
I	-10.3669
▁iču	-10.3671
▁ermin	-10.3672
aci	-10.3673
▁amen	-10.3687
▁tet	-10.369
▁jeci	-10.3691
▁koč	-10.37
▁rske	-10.3712
▁Ar	-10.3725
▁rce	-10.3732
liti	-10.3742
▁čel	-10.3747
alij	-10.3748
▁kli	-10.375
▁aru	-10.3751
▁muzej	-10.3761
▁tičn	-10.3763
▁jeć	-10.3764
▁ham	-10.3773
▁tima	-10.3773
▁jviš	-10.3781
▁mlj	-10.3786
▁iku	-10.3788
▁nač	-10.3793
▁rom	-10.3796
▁adi	-10.38
▁olik	-10.3815
dm	-10.3829
▁đu	-10.3847
▁acima	-10.3849
▁zer	-10.3867
▁atke	-10.3875
▁šlj	-10.3883
▁ljač	-10.3897
▁plj	-10.3909
▁čev	-10.3915
▁sob	-10.3915
▁kuh	-10.3924
▁lar	-10.3926
▁ređ	-10.3931
▁četi	-10.3931
▁ajno	-10.3932
ica	-10.3936
OK	-10.395
▁20.	-10.395
▁roz	-10.3955
▁jači	-10.397
▁odin	-10.398
kol	-10.3999
▁art	-10.4003
▁vla	-10.4003
vin	-10.4011
▁vira	-10.4012
▁Kl	-10.4025
▁alan	-10.4025
▁orit	-10.407
▁asa	-10.407
▁nud	-10.4077
▁esk	-10.4082
▁x	-10.4083
▁Q	-10.4088
▁ier	-10.4098
▁prez	-10.4105
▁lam	-10.4107
▁etk	-10.4124
▁ual	-10.4134
▁db	-10.4142
▁gađa	-10.4146
▁4.	-10.4148
▁11.	-10.4155
▁tić	-10.4156
▁ohn	-10.4161
▁ess	-10.4171
▁lav	-10.4172
▁reta	-10.4175
▁dlič	-10.4178
▁ted	-10.4193
▁tok	-10.4196
lič	-10.4202
▁vina	-10.4207
▁eln	-10.4207
▁etin	-10.4223
▁stic	-10.4234
▁kć	-10.4249
▁kand	-10.4249
▁von	-10.4257
▁nti	-10.4258
▁či	-10.4263
▁jstvo	-10.4264
▁ešt	-10.4291
▁ino	-10.4305
▁onic	-10.431
▁reži	-10.4325
▁esta	-10.4327
▁tric	-10.4332
▁rsk	-10.4335
▁vide	-10.4336
tud	-10.4347
▁line	-10.4351
▁adić	-10.4352
▁ede	-10.4353
▁onč	-10.4354
▁aust	-10.436
▁Nik	-10.4363
▁voli	-10.4372
▁ez	-10.4384
▁etv	-10.4387
▁prot	-10.4388
▁čku	-10.4388
▁asp	-10.4388
▁23	-10.4392
▁riž	-10.4393
▁otpor	-10.4396
▁rik	-10.441
▁med	-10.4411
▁ota	-10.4418
▁ačić	-10.4428
▁spo	-10.4454
▁roku	-10.4476
▁rugi	-10.4477
iv	-10.4481
▁17.	-10.4492
▁spr	-10.4519
▁znali	-10.4537
▁rolaz	-10.4542
▁lub	-10.4549
▁miš	-10.4554
▁Par	-10.4559
▁ote	-10.4559
▁truk	-10.4565
▁mre	-10.4568
▁upit	-10.4576
▁8.	-10.4586
▁astu	-10.4598
▁rava	-10.4603
▁Us	-10.4612
▁ačko	-10.4623
▁niv	-10.4641
▁geo	-10.4647
▁era	-10.465
▁ašl	-10.4655
▁Ben	-10.4662
▁ndi	-10.467
▁cip	-10.4674
▁aran	-10.4683
▁ade	-10.4688
▁utn	-10.4689
▁imal	-10.4693
▁30.	-10.4694
▁Kod	-10.4712
▁klop	-10.4719
▁šanse	-10.4728
vno	-10.4729
▁jelom	-10.4731
▁umir	-10.4748
▁12.	-10.4748
▁fr	-10.4751
▁rija	-10.4753
▁AL	-10.476
▁amar	-10.4768
▁jut	-10.477
▁Sva	-10.4777
▁ash	-10.4791
▁dije	-10.4801
▁Var	-10.4813
▁Mor	-10.4815
form	-10.4816
ljiv	-10.4822
duz	-10.4823
▁nsk	-10.4823
▁sjeć	-10.4832
▁otk	-10.4836
▁mis	-10.4838
▁ađ	-10.4849
▁ideo	-10.485
▁slob	-10.485
▁deb	-10.4852
▁Pol	-10.487
▁af	-10.488
▁rš	-10.4886
čkom	-10.4891
▁sna	-10.4892
▁nis	-10.49
▁erb	-10.4903
▁rano	-10.4917
S	-10.4921
▁duš	-10.4924
▁ladi	-10.4936
"	-10.4946
kir	-10.4946
▁ois	-10.4948
▁posl	-10.4954
BA	-10.4976
▁rij	-10.4977
▁avn	-10.498
▁alat	-10.4984
▁adam	-10.4987
▁jm	-10.4994
▁apan	-10.4998
▁imu	-10.5001
šnj	-10.5009
▁the	-10.5014
lne	-10.5022
▁sluš	-10.5034
sil	-10.5035
▁ael	-10.5038
▁Ham	-10.5048
ilj	-10.5064
▁eće	-10.5065
▁ičan	-10.5078
▁emi	-10.5088
▁isc	-10.5095
▁jaš	-10.5102
▁rub	-10.5112
▁maže	-10.5118
▁dim	-10.5121
▁imi	-10.5123
̌	-10.5125
ijsk	-10.5134
▁roj	-10.5142
▁topa	-10.5169
▁oza	-10.5171
▁onov	-10.5176
▁avk	-10.5178
▁jež	-10.5183
▁azu	-10.5184
▁com	-10.5185
▁10.	-10.5189
▁etar	-10.5195
▁atra	-10.52
▁iba	-10.5205
▁rek	-10.5217
▁agen	-10.5228
▁tik	-10.5231
čiv	-10.5237
▁jave	-10.5239
▁bilj	-10.5243
▁avak	-10.5249
▁omu	-10.5251
▁idim	-10.5253
osl	-10.5275
▁ordan	-10.5278
▁Bit	-10.5279
▁okret	-10.5283
▁*	-10.5301
▁ulja	-10.5304
▁Ana	-10.531
▁lagan	-10.532
▁70	-10.533
▁ular	-10.534
▁ačn	-10.5346
▁JE	-10.5358
▁peri	-10.5364
▁obi	-10.5384
novn	-10.5392
dit	-10.5396
▁niji	-10.5402
▁kril	-10.5412
▁Vel	-10.5413
▁ktiv	-10.5418
sklj	-10.5419
▁rovo	-10.5436
▁čas	-10.5447
▁vim	-10.5453
▁nađe	-10.5454
▁ela	-10.5454
▁iral	-10.5467
▁anij	-10.5469
▁ji	-10.5472
▁lavi	-10.5487
▁dres	-10.549
▁šć	-10.549
▁naž	-10.5495
▁rc	-10.5498
▁pisu	-10.5505
▁Le	-10.5506
▁alen	-10.5508
▁čević	-10.5511
▁avid	-10.5512
▁rskoj	-10.5517
▁6.	-10.5523
▁atima	-10.5527
▁80	-10.5528
▁dir	-10.5544
▁vrdi	-10.5549
▁har	-10.5549
▁jima	-10.5554
▁uća	-10.5558
▁ažu	-10.556
▁ivaj	-10.5563
▁aci	-10.5574
eć	-10.5574
▁ugo	-10.5577
▁ket	-10.56
▁ifi	-10.5602
▁raca	-10.5602
▁stov	-10.5613
▁bje	-10.5617
▁ljuju	-10.5636
dr	-10.5638
▁iro	-10.564
▁greb	-10.5648
▁cira	-10.5655
stin	-10.5662
▁anim	-10.5678
▁riz	-10.5681
▁90	-10.5685
▁ERIJ	-10.5688
▁užn	-10.5689
▁stavi	-10.5693
▁eto	-10.5702
▁etak	-10.5707
▁rz	-10.5719
6	-10.5725
▁Sela	-10.5725
▁upu	-10.5739
ću	-10.5752
▁orb	-10.5756
▁arni	-10.5758
▁ijeme	-10.5761
▁19.	-10.5768
▁18.	-10.5772
▁alka	-10.5779
▁agi	-10.578
lišt	-10.5781
▁lag	-10.5794
▁tine	-10.5827
▁rza	-10.5834
▁roje	-10.5839
▁jenje	-10.584
▁poslu	-10.5852
▁kvad	-10.5857
ban	-10.5858
▁uka	-10.586
▁inje	-10.5862
▁14.	-10.5863
bar	-10.5863
▁lađ	-10.5869
▁for	-10.5886
▁rizn	-10.5886
▁lis	-10.5898
▁udi	-10.5899
sij	-10.5929
▁hel	-10.5931
▁mon	-10.5937
▁vj	-10.5938
▁dent	-10.5945
▁vama	-10.5964
▁etra	-10.5965
▁lji	-10.5973
▁šećer	-10.5978
▁esen	-10.5984
▁13.	-10.5988
▁ed	-10.5989
▁Fr	-10.6006
▁redo	-10.6015
▁lum	-10.602
O	-10.6041
rat	-10.6043
▁adio	-10.6048
▁onz	-10.6099
▁mogl	-10.6099
▁jesti	-10.6105
▁arton	-10.6116
▁aže	-10.6118
▁9.	-10.6128
▁rim	-10.6138
▁tart	-10.6139
▁dop	-10.6139
▁tal	-10.6143
▁21.	-10.6155
▁tožer	-10.6165
▁dik	-10.6171
D	-10.6184
@	-10.6197
▁Kol	-10.62
▁last	-10.6209
▁utk	-10.6219
Ne	-10.6221
ktiv	-10.6222
▁ult	-10.6239
▁nako	-10.6241
▁rate	-10.6249
▁orin	-10.6272
8	-10.6273
▁kova	-10.6293
▁bli	-10.6308
▁gura	-10.631
▁fin	-10.6314
x	-10.6322
▁gri	-10.6346
▁Pav	-10.6353
▁taš	-10.6365
▁rd	-10.6365
▁Rep	-10.6366
▁enk	-10.6368
▁rg	-10.6368
▁čije	-10.638
▁uto	-10.6399
▁bazen	-10.6411
▁osu	-10.6427
▁gas	-10.643
▁igl	-10.6436
▁dep	-10.646
zin	-10.6465
▁500	-10.6489
▁uga	-10.6503
▁kovi	-10.6508
▁crv	-10.6509
NS	-10.6513
▁_	-10.6525
▁itan	-10.6526
▁uda	-10.6527
▁ya	-10.653
▁16.	-10.654
▁pub	-10.654
▁adr	-10.6557
▁35	-10.6557
zuj	-10.656
▁dljiv	-10.6562
rak	-10.6568
▁ogu	-10.6582
▁jesni	-10.6582
▁Nek	-10.6594
▁kota	-10.6606
▁ača	-10.6606
▁ilm	-10.6607
▁ism	-10.6609
▁gore	-10.6615
▁lac	-10.6618
▁ow	-10.6624
car	-10.6627
▁anac	-10.6646
▁lasi	-10.6651
▁uta	-10.6678
▁Paul	-10.6682
▁nit	-10.6682
▁uška	-10.6692
▁adnik	-10.67
▁suđ	-10.6714
▁eče	-10.6724
kc	-10.6735
▁olje	-10.6738
▁ank	-10.674
▁vil	-10.6741
▁araž	-10.6742
▁Red	-10.6743
▁itar	-10.6745
▁arme	-10.6759
▁njav	-10.677
▁we	-10.6777
▁elit	-10.6779
▁vanja	-10.6779
▁ovića	-10.6798
▁vala	-10.68
lid	-10.6801
ved	-10.6819
▁bave	-10.6822
To	-10.6828
lov	-10.6829
▁ijeti	-10.683
▁ukra	-10.683
▁nzi	-10.6839
▁Sh	-10.6842
▁ive	-10.6842
▁Ev	-10.6849
▁vač	-10.6863
▁ašava	-10.6871
▁tual	-10.6873
▁nira	-10.6876
▁snik	-10.6876
▁kaž	-10.6879
▁miris	-10.688
▁orn	-10.6893
▁Mih	-10.6897
▁La	-10.6903
▁ljubi	-10.6932
▁odao	-10.6937
▁stre	-10.6941
▁vrši	-10.6954
▁esa	-10.6958
▁enat	-10.6963
▁ijem	-10.6964
▁enih	-10.6967
ent	-10.6968
▁ger	-10.6968
▁kvar	-10.6979
▁Zv	-10.6986
▁sav	-10.699
▁oro	-10.6991
▁posv	-10.6991
▁trak	-10.6996
▁rh	-10.7003
▁sobn	-10.7005
▁Tr	-10.702
mil	-10.7021
▁arr	-10.7023
▁ustr	-10.7027
▁300	-10.7039
▁lid	-10.705
mije	-10.7055
▁radu	-10.7072
▁auz	-10.7083
▁eško	-10.7091
▁egr	-10.7094
▁ibe	-10.7108
rof	-10.7117
▁Sal	-10.7121
▁22.	-10.7122
▁anija	-10.7128
▁tam	-10.7128
▁cion	-10.7132
▁ura	-10.7134
▁udu	-10.7153
▁jeći	-10.7163
▁rne	-10.7178
šti	-10.7179
▁km	-10.719
▁omij	-10.7193
▁laš	-10.7196
▁štva	-10.7217
jeć	-10.7217
▁PU	-10.7234
▁olo	-10.7269
▁opa	-10.7273
▁ops	-10.7278
▁edb	-10.7284
▁26.	-10.7295
▁atori	-10.73
▁Ho	-10.7307
▁ače	-10.7323
▁nic	-10.7327
▁ovak	-10.7327
▁ico	-10.7329
▁led	-10.7343
▁mica	-10.7351
▁pra	-10.7352
▁her	-10.7353
čku	-10.7356
▁rci	-10.7358
▁UN	-10.7373
▁Dva	-10.7377
▁most	-10.7385
▁tka	-10.7401
▁29.	-10.7402
▁nemo	-10.7402
▁26	-10.7406
▁reću	-10.7408
ho	-10.7408
▁nike	-10.7409
▁vezu	-10.7412
VD	-10.7418
▁tili	-10.7419
▁irekt	-10.7419
▁avlj	-10.7424
▁Mile	-10.7443
▁ivali	-10.7447
▁asc	-10.7449
▁ši	-10.7454
▁ksi	-10.7455
▁obol	-10.7464
▁ora	-10.7472
▁djec	-10.7475
▁ajem	-10.7491
▁zg	-10.7497
▁ml	-10.75
dav	-10.7501
▁leda	-10.751
▁zne	-10.7517
▁Ban	-10.7524
▁ožen	-10.7526
ben	-10.7528
20	-10.7529
▁rođ	-10.7531
ac	-10.7537
skr	-10.755
▁eđa	-10.7551
▁emlj	-10.7556
▁ušk	-10.7557
▁usa	-10.7576
▁eran	-10.7576
▁ezo	-10.7584
▁ljeća	-10.7589
▁rge	-10.76
▁rta	-10.76
▁avno	-10.762
▁čim	-10.7623
▁jd	-10.7635
▁Dana	-10.7658
zme	-10.7658
w	-10.766
▁bjas	-10.7693
▁ebe	-10.7703
▁Bor	-10.7705
bij	-10.7723
▁načaj	-10.7732
▁odjel	-10.7743
▁pop	-10.7748
▁mira	-10.7763
▁eda	-10.7765
▁ido	-10.7768
▁etro	-10.7789
▁jetio	-10.7793
ičar	-10.7796
▁eso	-10.78
▁sta	-10.7806
▁atl	-10.7808
▁aše	-10.7827
▁kari	-10.7841
▁chef	-10.7854
▁wit	-10.7855
▁kun	-10.7856
▁anc	-10.7858
ože	-10.7866
▁alja	-10.7875
▁inir	-10.7878
▁vak	-10.788
▁zgr	-10.7883
▁Ni	-10.789
▁čani	-10.7892
▁dno	-10.7894
▁pek	-10.7914
▁moc	-10.7917
dru	-10.7927
▁fak	-10.7928
▁part	-10.7945
▁etu	-10.795
▁istu	-10.7951
▁mena	-10.7957
▁upn	-10.7961
▁oci	-10.7963
▁jna	-10.7964
▁25.	-10.7978
▁elem	-10.798
▁You	-10.7985
ip	-10.799
▁ance	-10.7994
▁vjeti	-10.7994
▁jenja	-10.8
▁Jer	-10.8004
▁ošk	-10.8005
'	-10.8018
▁Gal	-10.802
▁pali	-10.8023
ver	-10.8029
▁lač	-10.803
ster	-10.8037
▁tno	-10.8038
▁urs	-10.8043
▁erge	-10.8044
▁Spor	-10.8051
▁udio	-10.8055
▁pat	-10.8057
▁nese	-10.8057
graf	-10.8061
▁ivi	-10.8066
▁vaj	-10.8075
▁ovine	-10.8077
▁opad	-10.8082
▁mreža	-10.8089
▁ček	-10.8109
▁olest	-10.8114
▁aln	-10.812
▁els	-10.8132
psk	-10.8135
▁spol	-10.8142
▁ovor	-10.8144
▁urba	-10.8155
▁oru	-10.8156
▁28.	-10.8159
▁kona	-10.8161
van	-10.8162
▁ekiv	-10.8171
▁takm	-10.8183
my	-10.8191
▁Ma	-10.8193
▁reni	-10.8195
▁dluk	-10.8197
2	-10.8206
▁licu	-10.8207
▁roni	-10.8208
▁mob	-10.8211
▁ljud	-10.8213
▁aziv	-10.8216
▁oki	-10.8227
▁kvart	-10.8237
rstv	-10.8237
▁tud	-10.8241
▁sret	-10.8264
▁reka	-10.8266
▁enost	-10.8267
▁gi	-10.8267
▁šire	-10.83
▁telja	-10.8307
mor	-10.8319
▁tum	-10.8322
▁tpo	-10.8339
▁jaja	-10.8345
▁Ti	-10.8347
▁oče	-10.8348
leg	-10.8353
▁lać	-10.8368
▁ajan	-10.8377
ch	-10.8377
▁ekc	-10.8383
▁orav	-10.8384
▁stin	-10.8386
▁1,	-10.8418
▁Af	-10.8422
▁titu	-10.8425
ed	-10.8428
▁erg	-10.8435
▁aren	-10.8444
tog	-10.8446
▁jac	-10.8455
▁ziran	-10.8467
▁mog	-10.8472
▁pove	-10.8483
▁Dio	-10.8489
▁150	-10.8529
▁San	-10.853
▁dani	-10.8531
rael	-10.8532
jal	-10.8533
ik	-10.8537
▁erk	-10.8548
mat	-10.8564
▁oriti	-10.8571
▁oric	-10.8577
▁niza	-10.8577
pis	-10.858
▁45	-10.8584
▁USK	-10.8584
ux	-10.8584
▁ćenje	-10.8598
▁adov	-10.8599
▁gim	-10.8602
▁24.	-10.8613
▁iam	-10.8614
▁Val	-10.8637
▁enama	-10.8645
▁tru	-10.8669
▁rlj	-10.8683
▁ivim	-10.8688
▁jez	-10.8696
▁ekuj	-10.8698
▁Zd	-10.8701
▁elo	-10.8721
▁aćen	-10.8729
▁zir	-10.8729
▁Met	-10.8732
vo	-10.8734
▁edin	-10.8735
▁reci	-10.8738
▁olju	-10.8758
▁Ot	-10.8763
▁31.	-10.877
▁ačke	-10.8776
▁đenj	-10.8789
▁upe	-10.8797
dv	-10.8799
▁oslov	-10.8804
▁ole	-10.8806
▁AI	-10.881
▁aviti	-10.8812
▁anci	-10.8818
▁rgov	-10.8821
▁eške	-10.8837
ef	-10.8837
der	-10.8861
▁tisu	-10.8861
▁aster	-10.8863
▁čen	-10.8865
▁ruga	-10.8874
▁ašte	-10.8882
▁Mis	-10.889
▁ivost	-10.8894
▁zlij	-10.8896
▁šef	-10.8902
▁enog	-10.8905
▁rena	-10.8911
▁ovara	-10.8919
tik	-10.892
▁ake	-10.896
vid	-10.8966
cy	-10.8973
tul	-10.8986
▁živo	-10.9001
▁lt	-10.9003
▁lup	-10.9012
▁došl	-10.9015
▁osm	-10.9026
▁čenj	-10.9026
▁mot	-10.9033
▁tona	-10.9036
▁potr	-10.9039
▁vad	-10.9039
▁eras	-10.9039
▁lon	-10.906
q	-10.9062
▁23.	-10.9069
▁emit	-10.9075
▁enu	-10.9076
▁anko	-10.9077
▁Dina	-10.9089
▁iša	-10.909
bin	-10.9107
▁HNK	-10.9108
▁ikada	-10.9115
▁odli	-10.9117
▁jaj	-10.9138
▁nić	-10.916
▁edo	-10.9164
▁remn	-10.9177
▁akar	-10.9179
nog	-10.9188
▁asil	-10.919
▁vard	-10.9202
fer	-10.9203
▁lut	-10.9209
▁lti	-10.921
▁šnj	-10.9215
već	-10.9221
tov	-10.923
▁ijeg	-10.9233
▁ekla	-10.9234
▁ambu	-10.9237
▁igu	-10.9255
▁para	-10.9271
▁bro	-10.929
▁anak	-10.9294
uel	-10.93
▁De	-10.93
▁ečaj	-10.9314
▁ami	-10.9315
▁hi	-10.9318
br	-10.9325
▁ert	-10.9326
▁nca	-10.9328
▁bali	-10.9334
▁mari	-10.9341
▁čno	-10.935
djet	-10.9359
▁azin	-10.9359
sjeć	-10.9363
▁sobno	-10.9366
▁adil	-10.9385
▁kove	-10.9396
▁age	-10.9412
▁27.	-10.9415
▁vjere	-10.9425
▁obra	-10.9436
ket	-10.9437
▁đenje	-10.9439
▁rans	-10.945
▁inci	-10.9458
▁ajna	-10.9461
▁ojim	-10.9467
▁gubi	-10.9499
▁jede	-10.9506
▁reč	-10.9513
▁den	-10.9513
B	-10.9528
▁rodu	-10.9542
▁obu	-10.9549
▁uši	-10.9551
▁II	-10.9556
▁šlo	-10.9556
▁uris	-10.956
▁lider	-10.9567
▁hu	-10.9571
▁rame	-10.9586
▁€	-10.9587
▁adn	-10.9596
▁ječn	-10.9597
▁mjeri	-10.9611
▁ješt	-10.9622
▁mark	-10.9629
▁Du	-10.9631
́	-10.9633
▁mač	-10.9633
▁erc	-10.9639
▁oren	-10.9639
▁otom	-10.9648
bje	-10.9649
▁nda	-10.9664
▁kut	-10.967
▁ekin	-10.968
▁Grbin	-10.9681
▁onf	-10.9698
▁aval	-10.9713
▁aku	-10.9723
▁mla	-10.974
tel	-10.9744
▁sla	-10.9751
R	-10.9757
▁repo	-10.9758
▁Mur	-10.976
▁rugo	-10.9762
inc	-10.9784
▁Most	-10.9786
šta	-10.9786
▁For	-10.9788
▁iža	-10.9799
▁rušt	-10.9804
▁evoj	-10.9815
▁avna	-10.9816
▁Mac	-10.9828
▁riča	-10.9845
▁nc	-10.9863
▁pru	-10.9867
▁ezon	-10.9875
▁Rud	-10.9875
▁učk	-10.9879
▁Ars	-10.9882
▁raci	-10.9887
▁amu	-10.9902
▁muč	-10.9903
▁moli	-10.992
▁bama	-10.9928
▁ega	-10.9935
▁orije	-10.9935
▁uki	-10.9935
▁napr	-10.9936
▁nski	-10.9939
▁kons	-10.9956
▁lovoz	-10.9958
▁ekr	-10.9963
▁učiti	-10.9964
▁ijat	-10.9969
▁dbi	-10.9978
▁Hol	-10.9984
▁rl	-10.9993
▁boji	-11.0022
▁ncer	-11.0026
▁rizi	-11.003
▁Clas	-11.0032
▁orac	-11.0033
▁puš	-11.0037
▁muž	-11.0038
▁ogle	-11.0052
▁pool	-11.0053
▁28	-11.0064
kit	-11.0066
▁Or	-11.0072
joj	-11.0078
▁ovre	-11.0081
▁ty	-11.0082
▁EPPO	-11.0099
nali	-11.0102
sno	-11.0139
▁otte	-11.0149
▁oduz	-11.0157
ry	-11.0169
ndid	-11.0174
▁avin	-11.0182
▁org	-11.0184
5	-11.0186
▁ezen	-11.0193
▁Wal	-11.02
▁oziti	-11.0207
▁rit	-11.0211
3	-11.0214
▁ljiva	-11.0233
▁rup	-11.0235
▁riva	-11.0239
gl	-11.0242
▁dnj	-11.0249
▁mb	-11.0253
▁go	-11.0254
sud	-11.0275
▁OŠ	-11.0281
▁Mal	-11.0287
▁svu	-11.0287
▁čuj	-11.0295
▁vit	-11.0304
▁liz	-11.0312
▁nest	-11.0336
▁arko	-11.0347
▁efi	-11.0347
▁rić	-11.0355
▁anost	-11.0355
▁uso	-11.0371
▁rama	-11.0377
▁ustv	-11.038
▁pil	-11.0389
▁jati	-11.0398
▁ralj	-11.0402
▁ošt	-11.0408
▁ric	-11.0418
▁kise	-11.0419
▁pob	-11.0419
▁ray	-11.0427
abil	-11.0458
ORH	-11.0468
lek	-11.0469
▁jp	-11.0474
ljo	-11.0474
▁cid	-11.0476
▁zem	-11.0484
▁adon	-11.0494
▁čaj	-11.0517
▁mah	-11.0518
▁sobe	-11.0519
gar	-11.0525
▁adal	-11.0529
▁nč	-11.0534
▁kaf	-11.0536
▁mno	-11.054
▁Go	-11.0545
▁lip	-11.0549
▁rave	-11.0552
▁Gen	-11.0558
▁entra	-11.0564
▁oti	-11.057
▁iće	-11.0578
▁iteta	-11.0583
▁zmi	-11.0587
▁aha	-11.0589
▁dna	-11.0603
▁anjem	-11.0604
▁umi	-11.0607
nos	-11.0613
▁dek	-11.0616
▁rna	-11.0618
▁jaka	-11.063
▁dle	-11.0644
▁ace	-11.0659
▁repe	-11.067
▁pir	-11.0671
▁arat	-11.0682
▁nogu	-11.0687
▁ATP	-11.0689
for	-11.0691
▁cedu	-11.0696
▁urn	-11.0719
▁27	-11.0725
▁dnos	-11.0728
▁limu	-11.0729
▁alom	-11.0734
▁stana	-11.0739
▁lekt	-11.0739
▁že	-11.0749
▁gur	-11.0758
▁oril	-11.0765
NK	-11.077
▁ilot	-11.0771
▁ander	-11.0778
ran	-11.0791
▁taro	-11.0794
▁onta	-11.0816
▁ovca	-11.0825
▁arba	-11.0839
tili	-11.0839
▁ijer	-11.0843
▁tank	-11.0847
▁uči	-11.0847
▁raks	-11.0851
ila	-11.0854
▁egi	-11.0859
▁ovina	-11.0863
ržiš	-11.0884
tira	-11.0894
▁SP	-11.0895
▁iže	-11.0895
▁enal	-11.0896
▁uro	-11.09
▁ubio	-11.0902
▁moral	-11.0902
ič	-11.0904
▁šum	-11.0919
▁aro	-11.0919
▁DVD	-11.0927
P	-11.0928
dan	-11.0931
▁afer	-11.0938
em	-11.0952
▁kože	-11.0961
HMZ	-11.0974
AC	-11.0977
▁enis	-11.0981
▁kam	-11.0984
▁pec	-11.0987
▁vede	-11.0987
▁aža	-11.0989
▁tov	-11.0992
▁teć	-11.0994
▁nce	-11.0996
▁nazi	-11.1025
▁out	-11.1025
▁logu	-11.1025
▁uke	-11.1032
,3	-11.1033
▁ore	-11.1035
▁rekl	-11.1036
▁vođe	-11.1037
▁udo	-11.1045
▁zah	-11.1052
▁jesn	-11.1053
▁33	-11.106
▁vaju	-11.1066
vdje	-11.1091
▁naz	-11.1094
spla	-11.1108
▁kći	-11.1109
▁Rus	-11.1113
▁mov	-11.1122
▁smr	-11.1129
▁Jame	-11.113
▁VAR	-11.1138
▁tetu	-11.1143
▁agl	-11.1144
▁uze	-11.1146
▁rlo	-11.1162
▁oca	-11.1163
▁gust	-11.1166
▁Mik	-11.1166
▁orno	-11.1188
▁tke	-11.1204
sok	-11.1206
▁det	-11.1209
▁gori	-11.1214
▁meće	-11.1217
▁amal	-11.1221
▁he	-11.1225
▁omet	-11.1243
uzej	-11.1247
▁teks	-11.1252
▁2,	-11.1258
▁šet	-11.1259
G	-11.1261
▁hip	-11.1266
▁ube	-11.1266
▁29	-11.1268
▁sus	-11.1268
▁tina	-11.127
ht	-11.1286
stra	-11.1291
▁ekre	-11.1293
▁ropi	-11.1293
▁čio	-11.1296
▁BBC	-11.1316
▁Iva	-11.1317
▁luka	-11.132
▁ljed	-11.1321
▁tkr	-11.1324
▁ktor	-11.1334
▁zija	-11.1334
▁vajuć	-11.1336
ton	-11.1349
▁vizi	-11.1357
▁Moj	-11.1369
▁liž	-11.1373
▁reb	-11.1375
muni	-11.1378
▁rado	-11.1382
▁iću	-11.1382
▁rtn	-11.1382
▁miru	-11.1385
▁Ale	-11.1394
▁uku	-11.1401
▁umnj	-11.1408
▁Te	-11.1409
▁36	-11.1416
▁kip	-11.1417
▁eska	-11.1427
▁Jad	-11.1432
▁anka	-11.1433
▁bom	-11.1452
▁dsje	-11.1468
▁pris	-11.1486
▁mask	-11.1497
▁asio	-11.1508
▁omen	-11.1509
▁ajne	-11.1515
▁ijeke	-11.1516
60	-11.1518
▁opć	-11.1523
▁iši	-11.1528
▁cast	-11.1539
▁hib	-11.1543
▁IONA	-11.1545
▁isal	-11.1545
▁žut	-11.1546
▁anđe	-11.1551
▁rka	-11.1551
▁edi	-11.1552
zul	-11.1558
▁retn	-11.1565
▁Tur	-11.1569
bul	-11.1576
▁akvi	-11.1581
▁Sav	-11.1585
▁ose	-11.1599
▁anda	-11.1606
ija	-11.1607
▁šansu	-11.1607
▁ađe	-11.1608
▁iga	-11.1611
▁ibon	-11.1629
per	-11.1629
▁znen	-11.1633
▁roš	-11.1647
▁jstva	-11.1648
rug	-11.1649
▁formi	-11.1675
▁dul	-11.1676
▁pit	-11.1678
dek	-11.1681
▁mun	-11.1681
▁lija	-11.1683
▁ostaj	-11.1684
▁Hamas	-11.1704
▁uži	-11.1709
▁Max	-11.1711
▁ajv	-11.1716
▁skoč	-11.1718
▁nf	-11.1723
▁trac	-11.1726
▁lem	-11.1733
50	-11.1745
▁jku	-11.1759
▁32	-11.1771
▁gorj	-11.1783
▁Anđe	-11.1786
▁podr	-11.1795
▁arte	-11.1803
▁kinja	-11.1826
▁odre	-11.183
▁alt	-11.1837
▁elev	-11.1838
▁ergi	-11.1846
ca	-11.1854
▁err	-11.1876
▁iol	-11.1891
▁jar	-11.1891
▁zici	-11.1892
▁ese	-11.1897
▁pusti	-11.1905
▁iska	-11.1907
▁pto	-11.1925
▁šar	-11.1926
▁pul	-11.1954
rjan	-11.1956
▁olu	-11.1962
▁kob	-11.1963
▁mane	-11.1964
,2	-11.1976
▁Afri	-11.1989
▁kaka	-11.2015
ćev	-11.2016
▁biz	-11.2017
▁rej	-11.2022
▁ble	-11.2029
▁tila	-11.2037
▁enica	-11.2044
▁MUP	-11.2051
▁Sab	-11.2059
▁elja	-11.2064
▁avni	-11.2068
▁onom	-11.2073
▁okaz	-11.2075
▁Em	-11.2088
▁asi	-11.209
▁acio	-11.2091
up	-11.2099
▁lini	-11.2105
nira	-11.212
▁podu	-11.2121
▁sije	-11.2131
▁ff	-11.214
▁Her	-11.2148
kla	-11.2152
spri	-11.2154
▁ljene	-11.2156
▁rb	-11.2157
▁Ex	-11.2165
▁th	-11.2177
▁stok	-11.2189
▁fol	-11.2206
▁ušt	-11.2217
▁tefa	-11.2218
▁žen	-11.2222
▁enko	-11.2223
▁aks	-11.2225
▁isu	-11.2226
▁Đur	-11.2229
▁inej	-11.2241
▁sudi	-11.2245
▁Fu	-11.2245
▁tv	-11.2245
▁mund	-11.2255
novi	-11.2263
▁ruzi	-11.2267
▁etal	-11.2267
TV	-11.2295
▁rvat	-11.2303
▁mina	-11.2304
▁250	-11.2305
▁jeca	-11.232
▁rud	-11.2334
▁=	-11.2336
▁rski	-11.2342
▁kir	-11.2343
▁ićem	-11.2345
▁fot	-11.2353
▁nada	-11.2367
▁ijet	-11.2377
▁avao	-11.238
▁zma	-11.2382
▁Tek	-11.2383
▁tika	-11.2389
▁lič	-11.2394
▁avan	-11.2399
▁jke	-11.24
▁NK	-11.2406
▁riba	-11.2412
▁bok	-11.2415
mogu	-11.2458
▁kaš	-11.2463
gov	-11.2468
▁psi	-11.2482
▁fik	-11.2489
▁trog	-11.2494
▁stava	-11.25
▁Vil	-11.2515
ala	-11.2519
▁nuž	-11.2523
▁eleg	-11.2535
▁mađa	-11.2552
▁55	-11.2554
E	-11.2556
uc	-11.2559
▁ezd	-11.257
!	-11.2573
▁demi	-11.2575
▁ror	-11.2584
▁ural	-11.2604
▁olit	-11.2605
▁emp	-11.2611
▁Nad	-11.2612
▁prave	-11.2614
▁oyo	-11.2623
▁Gol	-11.2626
▁esi	-11.2628
▁Ruž	-11.2646
dar	-11.2648
▁sre	-11.2655
▁jasan	-11.2659
▁ijad	-11.2659
▁DC	-11.2669
▁eyen	-11.2671
▁ump	-11.2674
▁đa	-11.2675
▁udr	-11.2677
▁jana	-11.2681
zač	-11.2682
▁oto	-11.2689
▁atu	-11.2711
▁trov	-11.2716
▁očit	-11.2732
▁koli	-11.2756
▁duć	-11.2766
▁UEF	-11.2767
▁tike	-11.2767
▁rev	-11.2775
▁tava	-11.2776
▁teg	-11.2787
▁hop	-11.2811
80	-11.2825
▁ors	-11.2826
▁ofi	-11.2831
▁EUR	-11.2835
▁aditi	-11.2835
▁juće	-11.2837
▁duha	-11.2843
▁raja	-11.2849
son	-11.2869
▁ndar	-11.2874
▁djeli	-11.2877
?	-11.2884
▁arne	-11.2888
▁inju	-11.289
H	-11.2893
▁Đurđ	-11.2895
▁jab	-11.29
▁raum	-11.2902
▁otel	-11.2905
▁nome	-11.2923
▁vra	-11.2936
▁stri	-11.2953
▁EP	-11.2957
▁kiv	-11.2957
▁rži	-11.2963
▁tica	-11.2964
▁enni	-11.2967
▁kose	-11.2975
ndar	-11.2977
▁oler	-11.2992
▁rto	-11.2999
▁ew	-11.3001
▁Ili	-11.3007
▁edio	-11.3009
▁jeka	-11.301
▁woo	-11.3014
▁jutr	-11.3017
▁šans	-11.3019
▁mesa	-11.302
▁rop	-11.3022
▁amn	-11.3024
▁Baš	-11.3042
▁CO	-11.3045
▁oze	-11.3062
▁Kan	-11.3075
▁uđe	-11.3087
▁trp	-11.309
▁kit	-11.3091
▁oziv	-11.3108
iti	-11.311
▁Haj	-11.3111
▁Orba	-11.3114
▁čne	-11.3121
▁videa	-11.313
▁eke	-11.3132
▁38	-11.3138
▁ves	-11.3142
▁olja	-11.3149
▁lužb	-11.315
▁vara	-11.3173
▁arić	-11.3183
▁3,	-11.3184
viz	-11.3187
▁onio	-11.3211
▁milo	-11.322
▁argu	-11.322
▁libe	-11.322
▁kla	-11.3229
znaj	-11.3241
▁dvij	-11.3242
▁tolj	-11.3248
▁Mid	-11.3255
▁ring	-11.3264
▁nsko	-11.3265
▁žiri	-11.3268
▁DJ	-11.3283
▁entat	-11.33
▁vih	-11.3305
▁ope	-11.3311
▁atk	-11.3316
▁izan	-11.3341
,7	-11.3349
apan	-11.3363
ig	-11.3372
mb	-11.3374
▁aći	-11.3377
Ja	-11.3387
▁rno	-11.3388
▁vali	-11.3389
erem	-11.34
▁nič	-11.342
▁init	-11.3449
▁orč	-11.3459
sin	-11.3465
▁iona	-11.347
▁kuti	-11.3482
▁odila	-11.3487
▁dria	-11.3495
▁vis	-11.3497
▁robo	-11.3517
▁arci	-11.3518
▁Dra	-11.3524
▁eba	-11.3537
▁PDV	-11.3542
▁vani	-11.3555
▁oža	-11.3564
▁sli	-11.3576
▁urne	-11.3583
▁orna	-11.3588
J	-11.3593
▁enda	-11.3596
▁imun	-11.3609
▁ader	-11.3629
▁onte	-11.3631
▁dv	-11.3635
▁omp	-11.3637
▁ženj	-11.3641
▁ači	-11.3659
40	-11.3669
▁ušta	-11.3673
▁prv	-11.3681
K	-11.3684
▁aral	-11.37
▁loški	-11.3702
▁Pl	-11.3716
▁sio	-11.3729
▁ašen	-11.373
▁nači	-11.3745
▁34	-11.3759
NA	-11.3765
▁uf	-11.3779
▁tone	-11.3782
DSS	-11.3793
▁soba	-11.3806
▁vile	-11.3807
▁src	-11.3811
▁yl	-11.3814
▁jamč	-11.3815
▁ajm	-11.3841
▁Ph	-11.3849
um	-11.3858
▁31	-11.3862
▁lah	-11.3886
ice	-11.3914
▁reh	-11.3919
F	-11.3919
ađa	-11.392
▁kib	-11.3926
ažu	-11.3949
▁cipe	-11.3951
▁trbuh	-11.3954
DS	-11.3959
rnet	-11.3964
▁nde	-11.3966
▁eča	-11.3971
▁dez	-11.3973
▁tpis	-11.3975
ow	-11.4001
▁erac	-11.4014
▁guš	-11.4021
▁Joe	-11.403
▁eša	-11.4031
▁rović	-11.4031
▁emije	-11.4031
VP	-11.4032
▁vrati	-11.4042
▁koša	-11.4051
▁Fur	-11.4059
▁rojn	-11.4064
▁ish	-11.4065
▁eze	-11.4068
▁jele	-11.407
▁uše	-11.409
▁metr	-11.4096
▁dbe	-11.4097
▁asad	-11.41
▁yj	-11.4102
▁gaja	-11.4103
▁ža	-11.4108
▁skl	-11.4109
▁Vara	-11.4119
dom	-11.4132
▁cur	-11.4135
▁tati	-11.4143
▁jivo	-11.4152
▁upi	-11.4159
kom	-11.416
▁Ram	-11.4169
cion	-11.4175
▁rovi	-11.4188
ach	-11.4193
▁trž	-11.4202
▁ens	-11.4214
▁Ze	-11.4229
ack	-11.4243
▁žar	-11.4246
▁omać	-11.4251
▁Mand	-11.4276
▁uri	-11.428
70	-11.4282
▁tipe	-11.4321
▁atim	-11.4327
tvr	-11.4328
▁ijeko	-11.4335
▁jevo	-11.4363
▁rira	-11.437
ay	-11.4391
▁aga	-11.4404
▁Mün	-11.4405
▁aria	-11.4408
▁48	-11.441
▁sobi	-11.4411
▁rot	-11.4418
▁ebi	-11.4427
▁outh	-11.4433
▁oban	-11.4436
▁lažu	-11.4455
▁Jones	-11.4457
▁tas	-11.4466
▁cer	-11.4474
▁enc	-11.4479
1.	-11.4481
▁Zor	-11.4489
MO	-11.4489
▁del	-11.4492
▁Pup	-11.4495
N	-11.451
▁grač	-11.4512
▁junak	-11.4534
▁rj	-11.4535
▁tup	-11.4538
▁iram	-11.4546
▁ril	-11.455
▁empe	-11.4563
▁ekl	-11.4575
▁klo	-11.4578
jer	-11.4585
▁rgu	-11.4594
anel	-11.4595
▁ospo	-11.4604
▁65	-11.462
▁lima	-11.4626
▁ET	-11.463
eks	-11.463
▁Il	-11.4631
eći	-11.4653
é	-11.4669
▁ilaz	-11.467
vel	-11.4696
▁37	-11.4703
▁rdo	-11.4712
▁tepe	-11.472
▁unt	-11.4722
▁azan	-11.4724
▁iren	-11.473
▁hom	-11.473
▁egl	-11.4734
▁homa	-11.4734
▁leme	-11.4736
orge	-11.4739
▁orija	-11.4757
▁Nico	-11.4757
▁uće	-11.4766
▁soci	-11.4767
▁jans	-11.4769
▁oka	-11.4776
▁Fil	-11.4782
▁Kim	-11.4784
▁nivo	-11.4792
▁ony	-11.4794
▁minus	-11.4795
▁75	-11.4818
šev	-11.482
▁žava	-11.4836
▁2-0	-11.4842
▁vrtk	-11.4847
▁arti	-11.4848
oef	-11.4857
▁edic	-11.4862
▁stavu	-11.4863
▁gužve	-11.4873
▁Jan	-11.4878
▁lata	-11.4891
▁žem	-11.4891
▁šenj	-11.4895
▁rder	-11.4915
▁jeme	-11.4915
▁irov	-11.4926
▁imov	-11.4944
▁taci	-11.495
▁etr	-11.4952
▁Opć	-11.4961
▁etni	-11.4965
7	-11.4977
▁Dim	-11.498
▁sten	-11.4994
▁azn	-11.5004
▁tul	-11.5014
▁ulo	-11.5018
▁asto	-11.5036
než	-11.5046
▁žet	-11.5051
▁IT	-11.5063
▁III	-11.5066
▁ačica	-11.5069
▁kopa	-11.507
▁rofe	-11.5072
▁elic	-11.5074
▁39	-11.5077
0%	-11.5086
▁liza	-11.5099
▁Mars	-11.5104
▁rand	-11.5107
▁opl	-11.5115
ky	-11.513
▁ge	-11.5131
▁limi	-11.514
ost	-11.5141
▁laži	-11.5143
▁Kule	-11.5148
▁erna	-11.5153
▁gušt	-11.5154
▁jeni	-11.5166
▁rla	-11.5167
▁DIP	-11.5168
▁stim	-11.5175
▁adaju	-11.5176
▁sadr	-11.5178
▁lamen	-11.5182
▁zvon	-11.5189
▁zije	-11.5192
▁ze	-11.5209
▁Edi	-11.5211
slu	-11.5215
▁laža	-11.5216
▁niku	-11.5218
▁ujan	-11.5221
rski	-11.5245
▁opra	-11.5247
▁erit	-11.5269
▁700	-11.5272
rimi	-11.5278
▁osi	-11.5306
▁prop	-11.5319
▁arc	-11.532
▁Lig	-11.5326
▁oid	-11.5329
▁Jon	-11.533
▁svje	-11.5334
▁preu	-11.5339
▁ruže	-11.534
▁dale	-11.5342
▁rugom	-11.5353
▁HAK	-11.536
bor	-11.5362
sen	-11.5362
bolj	-11.5374
▁hat	-11.5385
▁Med	-11.5386
▁modu	-11.5398
▁dahn	-11.5402
▁asl	-11.541
▁šuma	-11.5411
▁vanju	-11.5422
▁kg	-11.5425
▁isn	-11.5434
▁aes	-11.5442
▁adom	-11.5443
▁gume	-11.5444
des	-11.5445
▁kale	-11.5447
▁sol	-11.5452
-	-11.5465
OS	-11.5475
ex	-11.5485
▁pitan	-11.5492
▁nato	-11.5498
▁uck	-11.55
▁jit	-11.5504
▁dah	-11.5504
▁ass	-11.5507
▁lih	-11.5513
▁luba	-11.5513
▁ozo	-11.5517
▁deko	-11.5522
▁ritm	-11.5528
▁him	-11.5538
▁iči	-11.5544
▁ado	-11.5547
▁lot	-11.5549
lno	-11.5553
▁otti	-11.556
▁ny	-11.5566
▁orus	-11.5567
▁Res	-11.5568
▁polo	-11.5578
▁rane	-11.5579
▁Wim	-11.5589
▁Mas	-11.5593
▁ovic	-11.5598
▁Sev	-11.5606
▁rišt	-11.5614
▁ijeka	-11.5621
duk	-11.5621
▁Gar	-11.5631
▁nuk	-11.5632
▁PSG	-11.5635
▁Nive	-11.5635
▁kvi	-11.5636
▁dit	-11.5637
PG	-11.564
▁baka	-11.5651
▁laci	-11.5654
▁row	-11.5674
▁mand	-11.5682
MS	-11.5683
▁hot	-11.5685
▁midž	-11.5717
▁abi	-11.5718
▁vodo	-11.5728
▁ule	-11.5734
▁olod	-11.5743
▁debi	-11.5752
▁arda	-11.5755
▁mokr	-11.5763
▁gađ	-11.5764
▁KS	-11.5765
▁rga	-11.5765
ib	-11.5774
▁užno	-11.5782
▁Pek	-11.5788
▁ujk	-11.5789
rez	-11.5794
▁Miš	-11.58
▁rosi	-11.5805
▁1-0	-11.5806
▁esec	-11.5813
MW	-11.5819
▁info	-11.5838
▁isac	-11.5841
▁anjur	-11.5856
▁ingl	-11.586
▁žd	-11.5863
nner	-11.5864
ajuć	-11.5871
▁humor	-11.5886
sad	-11.589
▁apr	-11.5891
M	-11.5897
▁ezi	-11.5903
▁reet	-11.5904
▁inska	-11.5911
▁ejne	-11.5925
▁lovi	-11.5927
▁Gre	-11.5928
▁entu	-11.5933
▁pus	-11.5936
▁janj	-11.5941
▁trpa	-11.5945
▁Pel	-11.5947
Na	-11.5957
▁učn	-11.5962
▁Deja	-11.5972
▁ovje	-11.5987
▁ljak	-11.5993
jviš	-11.5997
▁And	-11.5998
▁Vas	-11.6006
će	-11.605
▁fes	-11.6052
▁varn	-11.607
▁utje	-11.6076
▁motr	-11.6078
▁ladu	-11.6087
▁bra	-11.6098
▁loj	-11.6118
mokr	-11.612
EP	-11.6128
▁Bu	-11.6148
▁dni	-11.6167
▁mod	-11.6171
▁ford	-11.6177
▁Post	-11.6177
▁AP	-11.6204
▁znal	-11.6205
▁icir	-11.6212
▁deve	-11.6217
▁Miss	-11.6229
▁Pau	-11.6232
▁kožu	-11.6232
▁42	-11.6246
▁gov	-11.6249
▁rost	-11.6249
▁rip	-11.6251
oper	-11.6271
▁vati	-11.6276
▁turi	-11.6281
▁dina	-11.6283
▁jon	-11.6283
sm	-11.6295
▁iber	-11.6308
▁ačaj	-11.6317
▁koz	-11.6327
▁armi	-11.6332
OA	-11.6343
▁Col	-11.6344
▁zgod	-11.6355
▁digr	-11.6367
▁dlak	-11.6369
▁ovč	-11.6377
lak	-11.6388
▁Alan	-11.6394
▁sf	-11.6397
▁kcija	-11.6399
▁čima	-11.6403
▁CNN	-11.6406
▁upni	-11.6415
▁curi	-11.6421
▁arhe	-11.6431
Da	-11.6437
ony	-11.6439
▁uvar	-11.6441
ger	-11.6462
▁6,	-11.647
▁ipa	-11.6478
▁enč	-11.6482
▁Jul	-11.649
▁ambl	-11.6491
▁orat	-11.6495
▁jma	-11.6496
UD	-11.6509
▁Sea	-11.6509
▁olici	-11.6509
▁Mont	-11.6514
Za	-11.6523
▁Rok	-11.6525
▁enij	-11.653
▁atan	-11.6532
nder	-11.6534
▁čili	-11.6536
▁Pil	-11.6536
▁lova	-11.6542
▁orio	-11.6556
▁onna	-11.6562
▁atar	-11.658
▁opi	-11.6587
▁2-1	-11.6596
▁piti	-11.6605
▁utro	-11.661
▁odaj	-11.661
▁panj	-11.6614
▁zm	-11.6619
▁Ris	-11.6641
uver	-11.6656
▁arbo	-11.6657
▁hake	-11.6657
MA	-11.6659
-6	-11.6661
▁jić	-11.6663
ler	-11.6664
▁št	-11.6674
lan	-11.6681
▁izne	-11.6687
▁kum	-11.6688
▁unav	-11.6691
▁idi	-11.6696
▁mio	-11.6699
▁Jura	-11.6702
▁ođen	-11.6706
▁memo	-11.6714
,9	-11.6717
▁elek	-11.6739
▁Ven	-11.6745
▁eric	-11.6749
▁Supe	-11.6749
▁aus	-11.676
▁OI	-11.6782
▁ubi	-11.6785
▁rači	-11.6794
▁sok	-11.6795
▁dima	-11.6798
▁eksa	-11.6832
▁nske	-11.6833
▁tem	-11.6839
▁rene	-11.684
▁44	-11.6845
▁hlađ	-11.6848
▁ibl	-11.6854
▁aton	-11.6858
▁čeg	-11.6873
▁kve	-11.6883
▁rje	-11.6886
▁olan	-11.6892
▁Ses	-11.6897
▁mati	-11.6901
ing	-11.6909
▁maž	-11.691
▁ritam	-11.6949
▁4,	-11.6953
▁Rod	-11.6955
▁uran	-11.6957
▁češ	-11.6965
▁by	-11.6983
▁mašt	-11.6994
daje	-11.6994
▁izd	-11.7008
▁psa	-11.7009
▁ariš	-11.7011
▁stir	-11.7012
▁gne	-11.7031
ddy	-11.7042
▁wift	-11.7054
ww	-11.7069
▁Ras	-11.707
▁epa	-11.7124
▁disa	-11.7125
▁deba	-11.7134
▁Vic	-11.7158
▁dne	-11.7163
▁ll	-11.7174
▁ound	-11.7176
▁rakse	-11.7181
▁omun	-11.719
▁Ćo	-11.7193
▁Mit	-11.7207
▁kant	-11.7218
▁zbil	-11.7227
▁glumi	-11.7232
▁urge	-11.7233
▁ilom	-11.7236
▁avr	-11.7237
▁otu	-11.7245
▁HGSS	-11.7247
mjet	-11.7249
▁olz	-11.725
▁ral	-11.7258
▁gaz	-11.7262
▁Tor	-11.7271
suđ	-11.7279
▁alk	-11.7284
▁tura	-11.7286
▁ajp	-11.7296
▁jaju	-11.732
▁bek	-11.7326
▁erez	-11.7334
▁isin	-11.734
▁ummi	-11.7362
▁ph	-11.7371
▁cen	-11.7379
▁riš	-11.739
▁uop	-11.7391
▁akt	-11.7392
▁ajl	-11.74
▁PA	-11.7402
pun	-11.7405
▁ect	-11.7407
▁opez	-11.7419
▁buk	-11.7438
▁turn	-11.7441
▁bete	-11.7443
▁orga	-11.7457
isk	-11.7469
▁urd	-11.7478
▁atom	-11.7483
▁mith	-11.7484
ovje	-11.7487
odsj	-11.7498
rce	-11.7503
▁rana	-11.7503
▁šk	-11.7506
▁Ed	-11.752
▁rađa	-11.753
▁rmal	-11.7559
▁posti	-11.7566
▁ola	-11.757
▁gat	-11.7575
▁jazz	-11.7576
▁enir	-11.7597
▁žuti	-11.7617
▁agu	-11.7619
▁rvom	-11.7624
▁žu	-11.7625
▁šan	-11.7628
▁Lav	-11.7639
lug	-11.7653
▁vot	-11.7662
▁erm	-11.7662
▁kolač	-11.7669
▁odgo	-11.7686
▁zom	-11.7693
▁Dea	-11.7694
▁ume	-11.7698
▁Ani	-11.7699
orgi	-11.7703
▁rug	-11.7707
▁lakat	-11.7708
▁nave	-11.7714
▁nuđ	-11.7719
▁ogli	-11.7726
▁rako	-11.774
▁enge	-11.7745
▁lug	-11.7746
▁olks	-11.7752
hval	-11.7752
▁inko	-11.7754
▁ropa	-11.7764
▁ivš	-11.7765
▁guma	-11.7772
▁šes	-11.779
▁ream	-11.7794
▁nali	-11.7795
▁oton	-11.7798
▁uša	-11.7806
▁roc	-11.7808
uš	-11.7808
▁šak	-11.7808
▁čenje	-11.7812
▁tski	-11.7816
▁Des	-11.7841
aki	-11.7843
▁gul	-11.7843
▁mast	-11.7857
▁lla	-11.7861
he	-11.7888
▁alju	-11.7906
▁ave	-11.791
▁Can	-11.7914
ebel	-11.792
▁vest	-11.7921
▁mper	-11.7931
▁arta	-11.7942
▁ovni	-11.7944
▁šmi	-11.7953
▁how	-11.7964
▁paz	-11.7974
▁VID	-11.7984
▁ozna	-11.7985
▁rika	-11.7985
▁zube	-11.7987
▁jva	-11.7991
▁uzro	-11.8005
▁kva	-11.8008
lim	-11.8013
▁OS	-11.8027
▁anji	-11.8046
▁raši	-11.8053
gur	-11.8055
▁dema	-11.8055
▁ald	-11.8056
▁Fede	-11.8066
▁jski	-11.8081
▁Bur	-11.8085
▁Gl	-11.811
▁vao	-11.8111
▁sira	-11.812
▁maz	-11.8126
▁umij	-11.8127
▁Ren	-11.8129
▁djeti	-11.8138
CO	-11.8156
▁World	-11.8167
▁alac	-11.8168
▁Nor	-11.8185
▁vice	-11.8186
▁andi	-11.8189
▁Bau	-11.819
▁Šar	-11.8206
▁zdr	-11.8212
▁orum	-11.8213
žur	-11.8221
▁beni	-11.8233
-3	-11.8234
▁orta	-11.8239
▁Ner	-11.8247
▁IN	-11.8256
▁ple	-11.8256
▁reen	-11.8263
azz	-11.8275
▁diti	-11.8276
▁udara	-11.8278
▁arok	-11.8281
▁iča	-11.8315
▁dele	-11.8315
V	-11.8316
▁pati	-11.8331
▁Kit	-11.8356
de	-11.8361
▁Del	-11.8374
skih	-11.838
▁WTA	-11.8383
pci	-11.8389
▁pehar	-11.8394
▁jogu	-11.8394
▁pće	-11.8397
▁cit	-11.8398
▁egz	-11.8401
▁veu	-11.8401
yle	-11.8411
▁ente	-11.8417
▁dama	-11.8423
▁azar	-11.8429
▁romo	-11.8436
▁unk	-11.8437
▁fan	-11.8438
dum	-11.8441
▁sima	-11.8449
▁WC	-11.845
▁Am	-11.8451
▁Rem	-11.8451
les	-11.8459
nch	-11.8467
▁kuš	-11.8477
▁enzi	-11.8485
▁isi	-11.8489
▁Fred	-11.85
▁ecte	-11.8512
▁Rec	-11.8514
VAJ	-11.8515
▁HZZ	-11.8517
▁43	-11.8517
emu	-11.852
▁suđe	-11.8521
IP	-11.8525
▁way	-11.853
▁Vis	-11.8545
▁Jac	-11.8564
ežu	-11.8571
tar	-11.8573
▁aero	-11.8596
▁jeđe	-11.8598
zdan	-11.8607
▁toje	-11.8608
▁lev	-11.8623
▁olom	-11.8632
▁Bad	-11.8634
▁eck	-11.8662
▁own	-11.8663
skog	-11.867
▁gaj	-11.8682
▁aver	-11.8695
▁Dalm	-11.8705
▁smje	-11.8706
▁igan	-11.8708
]	-11.8711
titu	-11.8716
▁Koš	-11.8721
▁ngle	-11.8723
▁Phil	-11.8726
▁bapp	-11.8727
nit	-11.8738
▁epe	-11.874
bur	-11.875
▁RS	-11.8755
▁Jug	-11.8758
▁etit	-11.8758
▁zet	-11.8766
pul	-11.8768
▁rzi	-11.8781
▁orsk	-11.8798
til	-11.8798
▁dnja	-11.8804
▁enta	-11.8804
▁pur	-11.8809
den	-11.8826
LS	-11.883
▁ajd	-11.8831
▁isnik	-11.8832
▁vare	-11.8834
▁lb	-11.884
▁onac	-11.8846
▁Pan	-11.8848
NE	-11.8858
▁gem	-11.8859
asta	-11.8868
Mi	-11.8873
rima	-11.8908
▁old	-11.8912
▁erti	-11.892
onus	-11.8924
▁urbu	-11.8924
▁é	-11.8931
▁Kal	-11.8937
▁past	-11.8943
▁Apple	-11.8945
▁Pur	-11.8947
▁štap	-11.8955
▁130	-11.8965
▁idan	-11.8966
▁ombi	-11.897
▁bake	-11.8973
▁46	-11.8975
▁abio	-11.8979
▁ogom	-11.8988
ižu	-11.9002
▁ams	-11.9006
▁Len	-11.9012
žar	-11.9014
▁dic	-11.9017
▁adap	-11.9022
▁eđi	-11.9024
▁okru	-11.9028
▁ipe	-11.9047
▁epar	-11.9056
man	-11.9075
▁rskom	-11.9077
▁bet	-11.9079
▁Baye	-11.9109
▁95	-11.911
▁vac	-11.9124
▁Rio	-11.9128
sta	-11.9132
▁sion	-11.9135
▁ušan	-11.9138
▁azni	-11.9143
jve	-11.9145
▁akš	-11.9146
OL	-11.9153
▁opus	-11.917
▁hig	-11.9174
▁ross	-11.9177
▁arca	-11.9183
▁aura	-11.9188
▁Fior	-11.9196
▁guta	-11.9228
▁47	-11.9229
▁žanr	-11.9231
▁INA	-11.9238
▁Art	-11.9241
bast	-11.9243
▁58	-11.9251
▁gog	-11.9258
▁zgu	-11.9267
▁štiti	-11.9267
▁inger	-11.9271
▁afi	-11.9277
▁tras	-11.9281
▁5,	-11.9284
▁MAX	-11.9299
▁baj	-11.9317
▁Reg	-11.9319
▁Asad	-11.932
▁tate	-11.9328
30	-11.933
zab	-11.9334
▁win	-11.9343
▁baze	-11.9358
▁mode	-11.9363
sh	-11.9383
▁avil	-11.9384
▁api	-11.9397
renu	-11.9398
▁Jun	-11.9402
▁US	-11.9403
▁mel	-11.941
▁zul	-11.941
▁Rak	-11.941
tiv	-11.9416
▁>	-11.9419
epin	-11.9432
kar	-11.9438
ber	-11.9439
▁sme	-11.9448
▁64	-11.9457
▁tlj	-11.9458
▁oft	-11.9463
▁bos	-11.9464
▁ubot	-11.9481
▁Hal	-11.9481
▁ačka	-11.9483
▁7,	-11.9488
▁41	-11.9489
zi	-11.9525
▁oša	-11.9539
▁diri	-11.9541
▁dro	-11.9542
DA	-11.9543
▁ojk	-11.9545
▁naci	-11.9546
▁rece	-11.9557
▁nož	-11.9558
▁dizel	-11.956
▁heim	-11.9576
▁ezu	-11.9581
▁abro	-11.9582
▁85	-11.9593
▁Kre	-11.9594
▁Kup	-11.9598
▁žita	-11.9599
mer	-11.9605
▁PR	-11.9605
▁icije	-11.9613
SS	-11.9621
ine	-11.9629
▁ilja	-11.9633
var	-11.9638
▁emlje	-11.9644
▁vike	-11.9647
▁rice	-11.9648
▁asan	-11.9649
▁luč	-11.9653
▁gart	-11.9658
▁Grg	-11.9664
▁znoj	-11.9673
▁fal	-11.9676
▁atal	-11.969
▁5'	-11.9692
▁učila	-11.9694
▁čiv	-11.9701
▁Veg	-11.9706
▁tite	-11.9706
pust	-11.9707
▁Urba	-11.9708
▁trani	-11.9719
rodn	-11.9721
▁Kur	-11.9723
▁ouis	-11.9729
▁iams	-11.9737
▁riti	-11.9738
▁toar	-11.9749
ub	-11.9751
▁vij	-11.9766
▁Haa	-11.9768
ax	-11.9768
▁arap	-11.9774
▁egov	-11.9774
▁gužv	-11.9779
▁rook	-11.9798
▁imul	-11.9808
▁glu	-11.9816
▁vrd	-11.9822
▁revi	-11.9823
▁dira	-11.9833
▁šle	-11.9845
▁klim	-11.985
BI	-11.9851
▁Dig	-11.9858
▁udru	-11.9875
▁enov	-11.9883
GK	-11.9891
▁žil	-11.9892
▁čet	-11.9893
▁once	-11.9901
▁arab	-11.9905
▁ivat	-11.9917
▁Aff	-11.9925
▁anat	-11.9929
▁...	-11.9933
▁uzi	-11.9934
▁viti	-11.9939
▁poja	-11.9939
▁Div	-11.9951
▁Seri	-11.9952
▁zel	-11.9957
▁orila	-11.9971
▁ancir	-11.9972
▁assa	-11.9981
▁naro	-11.9982
eph	-11.9983
▁aht	-11.9986
▁zdan	-11.9988
▁tici	-11.9998
▁mes	-12.0001
▁asta	-12.0002
oker	-12.0003
▁ciga	-12.0008
▁žin	-12.0012
FC	-12.0016
▁ćut	-12.0019
▁Dep	-12.0029
▁jezi	-12.0037
▁Šuta	-12.0047
▁ude	-12.0047
IA	-12.0055
▁ntr	-12.0056
▁alm	-12.007
meta	-12.0076
dsje	-12.0076
▁rba	-12.008
nnes	-12.0107
▁Rum	-12.0107
▁Rog	-12.0115
▁epal	-12.0122
▁cat	-12.0129
▁oos	-12.0149
▁eur	-12.015
▁lank	-12.0157
▁get	-12.016
▁slo	-12.017
▁jumf	-12.0175
▁roup	-12.0177
▁žur	-12.0186
▁54	-12.0194
▁Est	-12.0197
▁ges	-12.0201
▁OCM	-12.0211
▁uman	-12.0216
▁kab	-12.0218
▁60.	-12.0223
▁chen	-12.0226
▁Šir	-12.0229
▁Moni	-12.0231
skom	-12.0234
▁alkon	-12.0237
▁arco	-12.0244
▁fam	-12.0245
Y	-12.0249
▁dej	-12.0258
▁irn	-12.026
ntaž	-12.0265
▁inal	-12.0273
▁Las	-12.0274
▁ženi	-12.0276
dil	-12.0282
▁wa	-12.0283
▁arbi	-12.0284
▁rimi	-12.0301
▁agar	-12.0314
▁33.	-12.0323
▁Def	-12.0324
▁Tra	-12.0325
▁Đa	-12.0328
▁Mary	-12.0331
▁fere	-12.0343
▁neba	-12.0343
▁ape	-12.0346
▁yd	-12.0354
už	-12.0354
cu	-12.0356
▁tte	-12.0361
▁ture	-12.0369
▁mpi	-12.0371
▁Kova	-12.0377
▁ovnik	-12.0379
▁nuto	-12.0381
▁rilo	-12.0393
▁poka	-12.0405
▁inte	-12.0405
▁usi	-12.0415
▁eljak	-12.0424
▁klik	-12.0429
▁sci	-12.0433
▁NES	-12.0435
▁ejrut	-12.0438
▁Whit	-12.0439
▁lasa	-12.0453
▁erin	-12.0454
▁neči	-12.0455
rkan	-12.0461
▁sni	-12.0463
▁aw	-12.0479
▁Hana	-12.0488
▁osh	-12.0488
▁osv	-12.0505
▁50.	-12.052
čar	-12.0525
▁alte	-12.0527
▁Cat	-12.0541
▁Memo	-12.0542
-4	-12.055
if	-12.0553
▁osan	-12.0555
▁tala	-12.0561
▁Elo	-12.0563
ruz	-12.0573
▁rudž	-12.0578
KA	-12.0583
mu	-12.0594
▁hobi	-12.0599
moli	-12.0599
▁76	-12.06
rgar	-12.0604
X	-12.0616
ram	-12.0629
▁tla	-12.063
▁žnje	-12.0632
▁MORH	-12.0633
▁eth	-12.0636
▁ande	-12.0641
▁lovan	-12.0641
und	-12.0642
udic	-12.065
▁obli	-12.0651
OM	-12.0658
▁52	-12.0658
▁astr	-12.0658
▁ađar	-12.0666
▁irk	-12.0671
▁ruge	-12.0675
▁ager	-12.0675
▁čju	-12.0678
▁ubo	-12.0678
▁gu	-12.069
9	-12.0692
▁Emm	-12.0693
▁TZ	-12.0695
♬	-12.071
▁$	-12.071
▁Fox	-12.0715
▁AR	-12.0718
▁Elvi	-12.0722
▁artn	-12.0726
▁avio	-12.0736
ras	-12.0747
▁obit	-12.0753
▁ajma	-12.0763
▁Lid	-12.0772
▁tut	-12.0778
▁adic	-12.0785
▁abri	-12.0785
▁lec	-12.0785
▁eme	-12.08
RC	-12.0803
edij	-12.0804
▁raže	-12.0807
bir	-12.0808
▁oster	-12.0811
kat	-12.0819
▁Pap	-12.0827
▁unu	-12.0836
▁izlo	-12.0843
▁upl	-12.0845
▁Peo	-12.0849
▁kume	-12.0849
▁HNB	-12.0851
▁jik	-12.0853
▁1-1	-12.086
▁ukt	-12.0861
▁1:0	-12.0864
▁atak	-12.0867
▁gnje	-12.0869
▁Zim	-12.0874
▁uzer	-12.0875
▁stima	-12.0887
▁Bik	-12.0892
▁Hod	-12.0893
▁trip	-12.0894
▁gand	-12.0895
▁Eto	-12.0907
▁Mela	-12.0909
▁ung	-12.0915
▁agla	-12.0916
W	-12.0931
▁ojom	-12.0932
▁eron	-12.0936
LJE	-12.0939
enh	-12.0942
▁dile	-12.0943
▁kosi	-12.095
ris	-12.0958
▁juh	-12.097
▁Bak	-12.0979
▁49	-12.0983
▁Fra	-12.0984
TC	-12.0985
▁jskog	-12.1006
jak	-12.1007
▁pora	-12.1018
▁đi	-12.1019
15	-12.1023
pit	-12.1034
▁več	-12.1042
▁nebu	-12.1044
:1	-12.1051
▁adut	-12.1075
▁imon	-12.1075
bas	-12.108
▁azir	-12.1087
▁ull	-12.1089
90	-12.1101
ph	-12.1109
par	-12.1112
▁Ane	-12.1113
▁Ć	-12.1132
▁field	-12.1133
NC	-12.1133
▁Ursu	-12.1136
▁AG	-12.1138
▁SUV	-12.1141
▁ekar	-12.115
▁2:0	-12.1152
▁Grb	-12.1154
▁Pak	-12.1154
▁esp	-12.116
▁mpo	-12.117
▁ozit	-12.1178
▁Zuba	-12.1179
tra	-12.1181
▁omme	-12.1206
▁bun	-12.1208
▁dea	-12.1228
▁dove	-12.1256
▁Ser	-12.1271
▁amij	-12.1276
▁PIXS	-12.1278
▁tuka	-12.1278
▁62	-12.1279
ory	-12.1282
eč	-12.1287
▁HR	-12.1287
▁zic	-12.129
nny	-12.1296
▁furt	-12.1297
▁IV	-12.1299
upru	-12.1303
NO	-12.1306
RA	-12.1314
▁ets	-12.1319
▁vjeta	-12.1321
▁Alp	-12.1328
UP	-12.1336
▁Big	-12.1354
ty	-12.1354
▁lavo	-12.1363
▁anks	-12.1365
▁bre	-12.1369
▁alija	-12.1374
▁Pej	-12.1375
▁olf	-12.1375
▁KK	-12.1376
cha	-12.1382
ix	-12.1382
▁rog	-12.1385
kur	-12.1395
▁ozi	-12.1413
▁ašu	-12.1416
▁Fia	-12.1418
▁ozil	-12.1422
rać	-12.1424
▁ELL	-12.1425
▁LED	-12.1429
1,	-12.1431
▁3-0	-12.1432
▁koži	-12.1437
▁nera	-12.1458
▁his	-12.1464
▁ahim	-12.1465
▁uča	-12.1468
dov	-12.1471
▁61	-12.1482
▁ateg	-12.1482
▁rđ	-12.1485
▁afar	-12.1487
▁rši	-12.1488
▁rda	-12.1489
▁indr	-12.15
▁homo	-12.1502
▁Air	-12.1504
▁ški	-12.1509
▁OK	-12.1527
▁irom	-12.1528
▁itt	-12.153
Ž	-12.1543
▁Cor	-12.1555
aw	-12.1562
▁Čov	-12.1569
▁etko	-12.1571
▁Int	-12.1577
▁olde	-12.1591
▁ksa	-12.1595
▁uba	-12.1605
▁Mike	-12.1607
▁klap	-12.1621
▁deka	-12.1622
▁51	-12.1629
SU	-12.1638
▁rove	-12.1645
▁ubl	-12.1648
▁kore	-12.1652
▁muk	-12.1654
▁Oba	-12.1664
▁oral	-12.1668
IJA	-12.1669
▁Eko	-12.1671
▁okuš	-12.1673
▁dec	-12.1676
mel	-12.1677
▁Ab	-12.1677
tab	-12.1682
▁Mu	-12.1684
▁ardin	-12.1699
▁sman	-12.1711
aju	-12.1713
čan	-12.172
▁ešta	-12.1721
▁VNIK	-12.1728
vija	-12.1729
▁3-1	-12.1731
ndez	-12.1741
▁race	-12.1746
▁HS	-12.176
▁ox	-12.1762
▁NI	-12.1796
▁Niki	-12.1812
▁Kiš	-12.1814
EA	-12.1815
▁liš	-12.1835
žep	-12.1844
▁rku	-12.1844
kan	-12.1848
▁ambi	-12.1849
▁ucak	-12.1849
▁mul	-12.1851
▁Rov	-12.1859
▁čeni	-12.1866
blan	-12.1868
▁los	-12.1873
▁štan	-12.1879
▁Kurir	-12.188
▁34.	-12.1896
▁box	-12.1901
▁biser	-12.1909
▁tag	-12.191
▁arom	-12.191
▁Ange	-12.1928
▁Mađa	-12.1939
▁pira	-12.1942
▁ozl	-12.1944
25	-12.1947
▁omog	-12.1948
▁taž	-12.195
▁ordon	-12.1956
▁Top	-12.1964
▁adra	-12.1974
▁RB	-12.1978
vat	-12.1979
▁Drž	-12.1985
▁Zek	-12.1993
eleg	-12.2
▁imfo	-12.2022
▁aži	-12.2026
MF	-12.2029
▁edl	-12.2034
▁aker	-12.2036
▁Sesar	-12.2042
▁adre	-12.2047
AL	-12.205
▁Rug	-12.2054
▁jast	-12.2062
▁jaht	-12.2062
▁sip	-12.2069
▁Hil	-12.2069
▁Hor	-12.2072
▁rgo	-12.2077
▁gnu	-12.2083
▁Mini	-12.2083
▁can	-12.2084
▁vega	-12.209
▁omis	-12.209
▁ower	-12.2091
▁olova	-12.2094
▁elji	-12.2094
▁orte	-12.2098
▁abel	-12.2108
▁yon	-12.212
▁olub	-12.2128
ast	-12.2132
▁8,	-12.2133
ey	-12.2144
CI	-12.2147
▁ech	-12.2147
▁dlo	-12.2155
mur	-12.216
▁63	-12.2164
▁sja	-12.2172
▁afir	-12.2173
▁oši	-12.2183
▁akra	-12.2184
NG	-12.2187
▁kiks	-12.2201
▁tein	-12.2204
▁kinu	-12.2207
▁bahč	-12.2212
▁množ	-12.2219
▁ravan	-12.2221
▁zubi	-12.2221
▁350	-12.2222
▁nfo	-12.2224
▁grl	-12.2233
▁wee	-12.2235
▁gine	-12.2237
▁kiva	-12.2241
▁Ahme	-12.2242
▁Uni	-12.2242
▁korp	-12.2246
▁LG	-12.2247
rton	-12.2249
▁najma	-12.2253
▁čad	-12.2263
▁čav	-12.2266
▁enne	-12.2279
▁bri	-12.2289
▁q	-12.2294
SB	-12.2304
▁modr	-12.2312
On	-12.2314
▁day	-12.2315
RH	-12.2316
AV	-12.2354
▁lnost	-12.2357
BT	-12.2366
▁diš	-12.2367
▁aska	-12.2381
▁meka	-12.2388
▁uzma	-12.24
▁atha	-12.2402
▁daća	-12.2403
▁bog	-12.2405
Od	-12.2413
-2	-12.2423
▁ajs	-12.2425
▁ancu	-12.2434
▁40.	-12.2436
▁ston	-12.2441
dnji	-12.2453
war	-12.2458
▁Paz	-12.246
▁opri	-12.2461
▁Ned	-12.2469
▁Kom	-12.2473
▁rona	-12.2474
kos	-12.2477
▁nosa	-12.2478
▁inat	-12.2497
▁HZ	-12.25
▁plja	-12.2504
▁Wi	-12.251
har	-12.2517
▁drva	-12.2518
▁UK	-12.2519
▁Clip	-12.2523
ET	-12.2526
▁66	-12.253
▁tego	-12.2533
▁lock	-12.2535
▁meća	-12.2546
▁teve	-12.2551
▁njaka	-12.2556
▁hut	-12.2562
▁kW	-12.2565
PS	-12.2574
tter	-12.2575
rth	-12.2576
▁Zub	-12.258
▁auro	-12.2599
▁mame	-12.2605
▁Wil	-12.2615
šir	-12.2615
▁Rob	-12.2625
PD	-12.2629
ore	-12.2635
▁Juri	-12.2636
ly	-12.2643
▁beka	-12.2644
▁idor	-12.2646
▁uže	-12.2646
▁olut	-12.2654
nja	-12.2658
acig	-12.2677
▁lači	-12.2677
▁onaco	-12.2682
Š	-12.2684
▁Rab	-12.2685
▁Mic	-12.2686
▁Life	-12.2686
wart	-12.2694
▁any	-12.2701
▁orbe	-12.2704
▁AN	-12.2707
mö	-12.2708
▁olfs	-12.2714
▁ćine	-12.2719
▁Rom	-12.2719
▁rtu	-12.2728
▁Mass	-12.2735
DO	-12.2739
▁ramp	-12.2739
▁Ema	-12.2742
▁Nige	-12.2742
▁ončar	-12.2745
cmi	-12.2746
▁Melo	-12.2752
odrš	-12.2758
bit	-12.2764
▁elje	-12.2772
▁Fen	-12.2776
▁ađi	-12.2779
▁gužva	-12.2779
▁eatr	-12.2786
mand	-12.279
SP	-12.2797
▁ampa	-12.2799
▁Unio	-12.2803
▁Pep	-12.283
▁vok	-12.284
▁atch	-12.2845
▁bla	-12.2848
▁etap	-12.2854
▁avtat	-12.2857
▁ewis	-12.2859
▁mamu	-12.2863
▁rde	-12.2873
▁tle	-12.2875
▁cure	-12.2875
▁Adel	-12.2877
▁vrše	-12.2891
10	-12.2893
▁Cur	-12.2897
▁blj	-12.2914
▁Beš	-12.2918
▁oke	-12.2929
▁Are	-12.2938
▁EC	-12.294
▁Assa	-12.294
▁orti	-12.2942
▁Sel	-12.2945
▁sebn	-12.2954
anje	-12.297
▁grab	-12.2973
▁hei	-12.2975
▁litr	-12.2987
fet	-12.3001
▁Eni	-12.3003
▁back	-12.3003
▁ilor	-12.3006
net	-12.3019
▁zio	-12.302
▁luta	-12.3021
▁Đorđ	-12.3028
▁kisik	-12.3028
▁bappé	-12.3028
▁wi	-12.3031
▁57	-12.3043
▁jeku	-12.3045
▁ovol	-12.3047
▁miks	-12.3048
▁jaha	-12.3048
▁rih	-12.3057
ER	-12.3077
duše	-12.3079
▁eorg	-12.3082
▁Deb	-12.3083
▁each	-12.3085
škar	-12.3092
▁utu	-12.3094
rch	-12.3104
▁arak	-12.3106
žir	-12.3108
▁uber	-12.3108
▁irek	-12.3111
inz	-12.3111
▁ason	-12.3113
▁Fat	-12.3116
▁meda	-12.3116
▁anto	-12.3119
šć	-12.3129
▁Gra	-12.3131
▁Bul	-12.3135
▁Lik	-12.3137
0	-12.314
▁Spli	-12.3145
AS	-12.3161
▁ulka	-12.3168
▁Zel	-12.317
▁Emi	-12.3176
LO	-12.3185
RL	-12.3191
ox	-12.3192
▁mine	-12.3211
ward	-12.3211
▁deva	-12.3224
▁32.	-12.323
RVA	-12.3235
▁35.	-12.3246
▁jake	-12.3248
fon	-12.3251
▁offe	-12.3264
▁usic	-12.3268
▁Yu	-12.3273
▁EK	-12.3281
▁iama	-12.3288
▁žit	-12.3328
▁ihov	-12.3338
▁uff	-12.3341
Ma	-12.3343
▁72	-12.3351
▁iron	-12.3354
▁vask	-12.3358
▁Kai	-12.3364
▁Tre	-12.337
▁itat	-12.337
▁McC	-12.3383
▁hew	-12.3384
▁juri	-12.3387
▁ačima	-12.339
▁ount	-12.3394
▁irme	-12.3397
▁odno	-12.3398
▁obin	-12.3411
▁Mah	-12.3427
▁84	-12.3433
▁vili	-12.3439
▁makn	-12.347
▁Ger	-12.3473
BS	-12.3475
▁diše	-12.3476
čeln	-12.3479
▁amin	-12.348
▁atas	-12.3484
▁zora	-12.3486
▁onez	-12.3486
▁78	-12.3487
▁adni	-12.3488
▁ihove	-12.3489
▁epti	-12.349
▁urz	-12.3496
sy	-12.3497
▁ardo	-12.3502
▁AK	-12.3503
▁off	-12.3504
▁aniji	-12.3505
▁koh	-12.3511
▁miri	-12.3513
▁apto	-12.3515
▁Ver	-12.3516
▁Moz	-12.3524
ASA	-12.3524
▁link	-12.3524
▁čuv	-12.3525
▁sura	-12.3531
imer	-12.3533
▁grla	-12.3535
▁Dram	-12.3536
▁arma	-12.3541
▁HV	-12.3546
▁vaka	-12.355
FP	-12.3551
▁Bol	-12.3553
nik	-12.3572
▁Lee	-12.3575
▁Clar	-12.3576
▁erkur	-12.3576
rik	-12.3581
▁orza	-12.3606
▁smi	-12.3607
▁aure	-12.3608
▁Čul	-12.3617
▁izgr	-12.3618
▁quar	-12.362
▁ence	-12.3623
▁knj	-12.3626
▁likl	-12.3632
▁ljima	-12.3633
iq	-12.3634
▁vni	-12.3635
▁lišta	-12.3635
mmer	-12.3642
▁odra	-12.3649
▁Rev	-12.3656
ZS	-12.3683
uke	-12.3698
▁53	-12.37
ske	-12.3709
▁kur	-12.3713
ech	-12.3722
rup	-12.3722
▁ježi	-12.373
▁alos	-12.3732
▁muz	-12.3737
▁KB	-12.3741
′	-12.3744
▁mazd	-12.3744
▁HŽ	-12.376
▁Ćir	-12.3762
▁PSV	-12.3766
IT	-12.3767
▁mut	-12.3768
▁ehni	-12.377
▁šop	-12.3772
▁arkt	-12.3777
▁tovo	-12.3787
▁šno	-12.3787
▁trop	-12.3791
▁bob	-12.3792
▁ijač	-12.3796
žij	-12.3804
▁anade	-12.3811
▁arah	-12.3813
▁Lidl	-12.3816
24	-12.3822
▁olte	-12.3838
ysi	-12.3845
▁oduš	-12.3847
▁Dol	-12.3854
▁cal	-12.3856
IĆ	-12.3857
21	-12.3858
▁kep	-12.3861
▁kuj	-12.3866
▁orba	-12.3866
▁usko	-12.3873
▁deh	-12.3875
▁enika	-12.3882
▁žnj	-12.3888
▁masa	-12.3895
▁cot	-12.3896
▁dil	-12.3897
▁sab	-12.3899
▁enci	-12.391
▁utte	-12.3926
▁deš	-12.393
▁Mak	-12.3931
▁mazon	-12.3942
▁NJE	-12.3946
▁56	-12.395
▁isco	-12.3956
▁KM	-12.3956
▁75.	-12.3958
ah	-12.3959
Z	-12.3965
▁ribu	-12.3978
▁Ede	-12.3993
▁jim	-12.3995
IS	-12.4004
▁krap	-12.4005
▁Buk	-12.401
sch	-12.4026
▁life	-12.4028
TS	-12.4029
Q	-12.403
▁bosa	-12.4051
HO	-12.4054
bot	-12.4056
▁ebu	-12.4057
▁urin	-12.4059
bel	-12.4062
▁kcije	-12.4067
ect	-12.4068
▁NO	-12.4074
▁skupi	-12.4076
▁mrež	-12.4076
▁amor	-12.4078
▁dvi	-12.4082
▁ašti	-12.4082
▁ijeku	-12.4083
▁lake	-12.4088
▁kemo	-12.4097
▁fac	-12.4111
PT	-12.4124
▁puk	-12.413
▁EURO	-12.4131
▁Jos	-12.4132
▁Det	-12.4134
sab	-12.4135
IH	-12.4138
▁ucci	-12.4138
▁ierez	-12.4142
▁buru	-12.4143
▁loom	-12.4147
▁opera	-12.4155
▁59	-12.4156
▁ach	-12.4163
▁70.	-12.4179
▁hats	-12.4189
RS	-12.4189
▁depo	-12.4191
16	-12.4197
▁komi	-12.4199
▁rampe	-12.4209
▁liko	-12.421
lažu	-12.4212
▁oriš	-12.4215
▁dla	-12.4219
eep	-12.4248
▁šnje	-12.4249
▁Emo	-12.4261
▁ohan	-12.4263
EN	-12.4264
▁Hum	-12.4265
▁bas	-12.4265
▁Ced	-12.4266
▁šama	-12.4266
▁jenik	-12.4269
▁sche	-12.4276
▁Pari	-12.4276
eth	-12.4284
▁ifik	-12.4302
▁šap	-12.4306
▁oguć	-12.432
▁čil	-12.4321
▁ky	-12.4322
▁GPZO	-12.4326
▁Kum	-12.4327
▁ugom	-12.433
▁uchs	-12.433
IFA	-12.4331
▁auri	-12.4333
▁food	-12.4334
▁LA	-12.4341
stva	-12.4348
rožđ	-12.4356
▁hij	-12.4359
▁uls	-12.4364
IN	-12.4374
▁arb	-12.4377
▁Krle	-12.4378
▁lati	-12.439
▁zuba	-12.4405
▁arge	-12.4405
▁Kop	-12.4405
▁zrn	-12.4422
:0	-12.4423
▁Lad	-12.4437
▁tef	-12.4443
▁83	-12.4448
▁mid	-12.445
▁Ive	-12.4457
45	-12.4458
▁orde	-12.4487
▁yp	-12.4489
▁cil	-12.4492
▁anal	-12.4503
▁mann	-12.4504
▁Rol	-12.4506
▁kopi	-12.4513
▁Dori	-12.4543
vij	-12.4547
▁110	-12.4552
▁ćud	-12.4556
▁otka	-12.4563
▁iami	-12.4567
▁opat	-12.4568
▁jil	-12.4576
dž	-12.4593
▁Dou	-12.4594
▁ipi	-12.4595
nif	-12.46
kub	-12.4604
▁Day	-12.4606
▁Mire	-12.4612
▁raču	-12.4612
▁amil	-12.4613
▁kti	-12.4614
▁Ća	-12.4625
▁Ru	-12.4636
-0	-12.4642
▁gig	-12.4648
▁upr	-12.4652
▁knu	-12.4664
▁arki	-12.4666
▁amne	-12.4667
▁mart	-12.4667
▁esar	-12.467
▁73	-12.4681
▁onat	-12.4689
▁Win	-12.469
▁fed	-12.4696
▁urzi	-12.4707
▁konce	-12.4709
▁All	-12.473
▁ozga	-12.4735
▁eži	-12.4738
▁you	-12.4743
▁viol	-12.4757
▁Pete	-12.4767
▁dila	-12.4769
▁Lui	-12.4771
▁Fi	-12.4782
AM	-12.4798
▁Ref	-12.4798
IM	-12.4808
▁oret	-12.4809
▁ripa	-12.4816
▁aler	-12.4848
▁čuju	-12.4849
len	-12.4854
SW	-12.4854
▁vec	-12.4854
▁juha	-12.4855
▁bata	-12.4865
▁orom	-12.4867
▁ioč	-12.4871
ash	-12.4883
nis	-12.4894
OP	-12.4904
▁Huma	-12.4931
·	-12.4939
▁McG	-12.4939
▁auren	-12.4939
▁Srb	-12.4944
▁IDF	-12.4949
▁einer	-12.4951
▁lost	-12.4951
all	-12.4952
▁EV	-12.4955
▁55.	-12.4968
▁erma	-12.4968
▁NE	-12.4971
▁ugla	-12.4972
▁usti	-12.4972
▁Led	-12.4983
▁luđ	-12.4992
▁azm	-12.4995
ds	-12.4995
▁huli	-12.4999
ott	-12.5001
▁jesto	-12.5007
▁rach	-12.5007
▁dovi	-12.5012
▁vibr	-12.5025
auf	-12.503
▁arao	-12.5039
▁Afp	-12.504
EC	-12.5041
▁Han	-12.5043
▁orni	-12.5051
▁arac	-12.5052
▁klet	-12.5052
▁šuti	-12.5058
▁ptu	-12.5061
▁nta	-12.5064
37	-12.5065
▁apar	-12.5079
▁lab	-12.5082
▁arth	-12.5088
▁Ava	-12.509
▁itch	-12.5093
▁šah	-12.5096
▁šute	-12.5102
▁orge	-12.5105
tch	-12.5106
onel	-12.5113
▁išk	-12.5114
▁ndus	-12.5117
▁lena	-12.5118
by	-12.512
lat	-12.5121
BF	-12.5137
2,	-12.5142
▁grb	-12.5146
&	-12.5146
▁hee	-12.5149
▁Messi	-12.5151
▁Olaf	-12.5152
▁74.	-12.5156
▁ršut	-12.5157
▁gumb	-12.5159
▁Ande	-12.5164
▁JUB	-12.5169
▁Dur	-12.5169
▁Čil	-12.517
asan	-12.5172
▁đuje	-12.5172
PO	-12.5175
Č	-12.5178
▁Team	-12.518
▁ioni	-12.5186
▁Meta	-12.5199
▁68	-12.5207
LA	-12.5211
▁kof	-12.5214
▁hav	-12.5223
▁ley	-12.5231
▁ehid	-12.5241
▁Doh	-12.5241
▁Gim	-12.5244
▁aneg	-12.5248
fika	-12.5264
▁abat	-12.5269
▁82	-12.528
▁Marie	-12.5281
▁now	-12.5282
▁Roo	-12.529
▁lass	-12.5313
mill	-12.5318
▁mond	-12.5319
▁apel	-12.534
▁damu	-12.5341
23	-12.5347
▁esse	-12.5351
▁mami	-12.5356
▁NDH	-12.5369
▁ruce	-12.5371
▁HND	-12.5372
▁STEM	-12.5374
ŠK	-12.5375
▁okre	-12.5378
▁allo	-12.5387
▁Sup	-12.5395
▁öl	-12.5397
▁kend	-12.5401
▁Of	-12.5406
▁Eco	-12.5407
▁ZA	-12.5417
zrok	-12.5429
del	-12.543
í	-12.5438
ild	-12.5438
▁Love	-12.5441
▁lite	-12.5444
REB	-12.5447
val	-12.5449
uf	-12.5449
▁irat	-12.5457
▁ajak	-12.5466
uha	-12.5468
▁mega	-12.5469
bač	-12.5479
▁Dis	-12.548
▁rbe	-12.5487
▁pah	-12.5492
▁oći	-12.5494
▁rupa	-12.5503
rci	-12.5504
▁ophi	-12.5509
▁vege	-12.5511
ON	-12.5511
▁Kut	-12.5514
rap	-12.5514
▁sija	-12.5515
▁rive	-12.5515
ker	-12.5519
▁lato	-12.5541
KS	-12.5544
▁kuč	-12.5546
19	-12.5546
▁epu	-12.5552
ü	-12.5557
▁esh	-12.556
▁berg	-12.5561
▁Mara	-12.5564
cur	-12.5567
▁77	-12.5567
iser	-12.5567
ourg	-12.5568
▁cimet	-12.5569
▁NL	-12.5579
▁Con	-12.5582
▁oy	-12.5584
▁trbu	-12.5588
▁ntn	-12.559
▁McD	-12.5591
▁gel	-12.5592
▁AEK	-12.5599
▁GO	-12.5605
▁oše	-12.561
fij	-12.5615
▁war	-12.5625
▁itle	-12.5627
IV	-12.5628
▁nke	-12.5631
mach	-12.5631
▁kvu	-12.5637
eck	-12.5643
▁uge	-12.5643
▁80.	-12.5646
▁DRA	-12.5651
▁Sah	-12.5652
▁etno	-12.5656
▁inh	-12.5668
18	-12.5672
DU	-12.5676
▁92	-12.5703
▁ranč	-12.5704
.)	-12.5718
▁ačun	-12.5728
▁ield	-12.573
▁Kana	-12.5734
▁isca	-12.5748
INA	-12.5756
ull	-12.5757
▁anil	-12.5766
rovi	-12.5776
▁dvj	-12.5781
▁krim	-12.5785
▁mota	-12.5789
cky	-12.5794
▁Pao	-12.5796
ngel	-12.5802
▁essi	-12.5812
▁Zh	-12.5813
▁rše	-12.5815
▁Ćur	-12.5819
▁Wood	-12.5821
žab	-12.5825
▁ugi	-12.5826
▁nizi	-12.5828
▁3-2	-12.5832
▁58.	-12.5833
▁oyal	-12.5837
AZU	-12.5837
plj	-12.5839
▁Kuha	-12.5841
NI	-12.5854
▁oyota	-12.586
eff	-12.5863
▁ejz	-12.5868
▁daha	-12.587
▁Žut	-12.5871
▁gube	-12.5872
▁Tea	-12.5872
▁zub	-12.5878
▁aser	-12.5881
Pa	-12.589
12	-12.5905
▁Avi	-12.5906
▁Fire	-12.5909
▁Kuć	-12.5912
▁šumu	-12.5913
CS	-12.5937
▁Pam	-12.594
gog	-12.5943
▁amid	-12.596
▁Emma	-12.5963
ys	-12.5976
▁markt	-12.5976
▁á	-12.5977
▁Raj	-12.5979
SA	-12.598
▁elju	-12.5981
▁ebo	-12.5985
▁adno	-12.5988
▁Meli	-12.599
▁Gaj	-12.5993
ffer	-12.5999
▁Lea	-12.6
▁avit	-12.6018
▁ift	-12.602
▁Der	-12.6049
▁Kir	-12.605
▁EPP	-12.6053
lazi	-12.6057
▁Erd	-12.6061
▁Leg	-12.6062
raft	-12.6062
▁9,	-12.6064
▁eren	-12.6065
▁46.	-12.6066
▁kWh	-12.6071
▁đir	-12.6073
▁kabel	-12.6077
▁HAC	-12.6085
▁1:1	-12.6086
▁šil	-12.6089
▁2-2	-12.609
▁anadi	-12.6091
oy	-12.6093
▁VI	-12.6102
▁Xav	-12.6109
▁oua	-12.6109
▁ibal	-12.611
▁ispa	-12.6121
skoj	-12.6135
gal	-12.6138
▁Edu	-12.6152
▁ugs	-12.6157
▁Run	-12.6159
▁alea	-12.6159
▁yla	-12.6161
▁olta	-12.6162
▁vag	-12.6163
▁žute	-12.6167
▁Fel	-12.6167
pid	-12.6175
▁teč	-12.6179
▁Laz	-12.619
cht	-12.6193
▁67	-12.6199
▁Ins	-12.6202
▁amba	-12.622
kuša	-12.6221
▁ljim	-12.6221
▁iolin	-12.6227
▁99	-12.623
▁Reb	-12.6233
▁igar	-12.6234
▁Lar	-12.6235
▁Mes	-12.6238
▁ouse	-12.6242
▁olis	-12.6245
HS	-12.6253
5%	-12.6256
▁iors	-12.6262
▁alih	-12.6271
▁jaz	-12.6272
▁tap	-12.6273
uč	-12.6286
BB	-12.6287
▁meg	-12.6288
▁NSATU	-12.6289
▁Džek	-12.6289
▁rthur	-12.6289
▁71	-12.6291
▁efe	-12.6298
VI	-12.63
▁Elka	-12.6303
ERA	-12.631
▁Jami	-12.6321
▁estu	-12.6324
▁tuu	-12.6342
▁lend	-12.6372
ser	-12.638
▁amj	-12.6381
▁ocu	-12.6381
▁nakv	-12.6382
▁ećan	-12.6385
▁čevi	-12.6395
▁Aria	-12.6409
▁Yoo	-12.6409
▁Puh	-12.6409
▁Miku	-12.641
▁Medi	-12.6414
63	-12.6417
▁anch	-12.6419
▁šu	-12.6423
35	-12.6429
CMA	-12.6454
▁Nes	-12.6457
▁FA	-12.6463
▁gorje	-12.6464
▁Rac	-12.6466
▁almo	-12.6467
-5	-12.6469
▁dida	-12.6469
▁čep	-12.648
▁Jona	-12.648
▁OVI	-12.649
▁Ass	-12.6497
▁emal	-12.6521
▁Joke	-12.6523
▁jud	-12.6526
▁emlji	-12.6528
{	-12.6533
▁gib	-12.6537
▁IJE	-12.6539
▁ERS	-12.6542
▁ary	-12.655
▁ašn	-12.6552
▁Wild	-12.6554
▁ward	-12.6558
▁Ekva	-12.656
33	-12.6561
▁mont	-12.6562
▁etti	-12.6568
▁šen	-12.6569
▁Zemu	-12.6574
▁roto	-12.6578
▁ritz	-12.6584
PK	-12.6585
▁boy	-12.6596
3,	-12.6598
▁81	-12.6599
aq	-12.66
▁auša	-12.6608
▁ratk	-12.6617
▁20%	-12.6618
▁hoć	-12.6622
▁Peru	-12.6623
▁69	-12.6637
nač	-12.6638
TE	-12.6647
▁oord	-12.6648
▁Meda	-12.6652
▁nikom	-12.6664
▁vinu	-12.6664
▁hy	-12.6686
▁teni	-12.6688
pher	-12.6698
lij	-12.6706
22	-12.6716
zh	-12.672
ady	-12.6728
▁ndu	-12.6734
▁uža	-12.674
▁obot	-12.6742
▁ombo	-12.6747
▁snu	-12.6748
▁ID	-12.6751
95	-12.6752
▁bot	-12.6753
▁ilv	-12.6754
ANA	-12.6755
▁ermi	-12.6767
▁konk	-12.6773
▁viga	-12.6775
▁vlak	-12.6776
NL	-12.678
▁Cit	-12.6785
▁53.	-12.6793
▁76.	-12.6797
usic	-12.6797
▁ody	-12.6801
▁Erik	-12.6804
app	-12.6811
▁ulmi	-12.6811
▁Ros	-12.6814
▁Wem	-12.6817
▁ó	-12.682
▁esca	-12.6821
▁aba	-12.6823
▁issa	-12.6825
▁anica	-12.6827
▁Nass	-12.6827
▁dorf	-12.6828
gan	-12.6828
▁Ray	-12.6835
▁rail	-12.6836
šli	-12.6837
▁79	-12.6842
CMC	-12.6843
ny	-12.6847
▁Kož	-12.6847
▁oth	-12.6849
▁orne	-12.6853
▁kud	-12.6864
▁alve	-12.6864
▁duk	-12.6869
▁was	-12.6869
▁Miha	-12.687
ell	-12.6877
▁bach	-12.6878
▁mus	-12.6878
▁ush	-12.6881
▁arha	-12.6881
▁plo	-12.6888
65	-12.689
▁niš	-12.6895
▁ilet	-12.6896
▁Let	-12.6898
VJET	-12.6904
▁SE	-12.6907
▁ouch	-12.6919
▁zgl	-12.6929
kac	-12.6931
IC	-12.6937
▁irmi	-12.6939
▁kuta	-12.6942
▁Pas	-12.6946
▁tago	-12.6952
GO	-12.6955
▁ucker	-12.6969
▁talo	-12.697
▁oys	-12.6976
mič	-12.6977
zer	-12.6983
▁alta	-12.6987
▁Xi	-12.6997
▁Evan	-12.6998
▁RI	-12.7002
▁My	-12.7011
▁Dap	-12.7012
▁agun	-12.7017
▁šip	-12.7028
▁kvara	-12.7037
▁liju	-12.704
▁wond	-12.704
CG	-12.7041
▁Aure	-12.7042
▁Payne	-12.7042
▁asakr	-12.7044
▁TSKA	-12.705
▁Good	-12.705
▁RA	-12.7052
▁52.	-12.7057
▁kač	-12.706
Ph	-12.706
▁hian	-12.7063
▁šev	-12.7063
▁UV	-12.7064
▁Gan	-12.7071
▁vne	-12.7075
▁num	-12.7077
▁Nas	-12.7079
▁ešn	-12.7088
▁IG	-12.7091
▁acq	-12.7092
▁Knji	-12.7092
▁ekti	-12.7113
▁regon	-12.7113
jedi	-12.7116
▁rezi	-12.7119
▁ačv	-12.7126
▁Dia	-12.7128
▁Rei	-12.7146
▁owl	-12.7148
▁Yo	-12.7148
nath	-12.715
ock	-12.7159
▁eši	-12.7167
▁Miše	-12.7173
13	-12.7174
▁asaž	-12.7178
AN	-12.7181
▁Peri	-12.7182
▁try	-12.7186
ćan	-12.7187
▁alker	-12.719
▁Asa	-12.7197
▁jasl	-12.7205
▁drv	-12.7205
▁NKET	-12.7212
TF	-12.7216
kač	-12.7216
▁kuma	-12.7225
▁Đu	-12.7227
ayer	-12.7257
POO	-12.7259
▁eler	-12.7266
▁Deka	-12.727
hip	-12.7272
▁žan	-12.7276
▁anne	-12.7283
čev	-12.7291
▁MOST	-12.7307
▁ICC	-12.7309
á	-12.7311
▁ider	-12.7312
▁baci	-12.7313
▁chi	-12.7314
▁66.	-12.7314
▁oce	-12.7315
▁Mami	-12.7315
▁pear	-12.7316
ime	-12.7317
▁oxh	-12.7325
nger	-12.7332
▁oker	-12.7334
▁puh	-12.7335
▁36.	-12.7339
▁Ash	-12.734
▁hof	-12.7341
14	-12.7347
▁klimu	-12.7349
▁41.	-12.7351
▁ery	-12.7352
▁župa	-12.7357
▁anu	-12.7361
▁Mod	-12.7364
▁bad	-12.7367
▁pjev	-12.7367
▁ped	-12.7368
▁Mekt	-12.7373
▁olve	-12.7377
▁ofa	-12.7381
▁embr	-12.7386
▁May	-12.7391
▁ports	-12.7391
▁izda	-12.7395
▁Dimi	-12.7402
▁ranče	-12.7406
▁Gas	-12.7408
▁tock	-12.741
ire	-12.7412
▁orest	-12.7423
▁Meri	-12.7425
OV	-12.7427
▁zavr	-12.7443
▁akud	-12.7448
▁Ep	-12.7448
-1	-12.7452
AT	-12.7452
▁Eas	-12.7458
▁Jar	-12.7476
▁kra	-12.749
dos	-12.7493
▁arse	-12.7505
▁Fer	-12.7507
▁elom	-12.7521
▁zani	-12.7522
▁trep	-12.7543
▁gad	-12.7551
▁ileć	-12.757
▁ŽIVO	-12.7573
▁phile	-12.7573
▁feld	-12.7573
▁Jesen	-12.7575
▁Beka	-12.7575
▁lopp	-12.7578
▁Ita	-12.758
▁tlu	-12.7583
▁God	-12.7584
▁mož	-12.7587
▁Silva	-12.7587
▁54.	-12.7588
SV	-12.7601
▁112	-12.7603
▁utl	-12.7609
▁Bel	-12.7616
gust	-12.7619
che	-12.7625
▁bure	-12.7635
▁Demo	-12.7636
▁look	-12.7638
▁90.	-12.7639
▁awk	-12.765
▁Ćos	-12.7654
▁zbe	-12.766
▁trož	-12.766
▁hobo	-12.767
rst	-12.7677
▁Amb	-12.7678
▁rota	-12.7682
▁ax	-12.7685
▁šiša	-12.7706
11	-12.7708
▁asna	-12.7713
▁agre	-12.7717
▁jude	-12.7726
zy	-12.7727
▁ramo	-12.7731
DP	-12.7731
▁Niž	-12.7739
▁Tih	-12.7761
han	-12.7767
▁had	-12.7773
▁akti	-12.779
▁DOM	-12.7796
▁tini	-12.7802
▁Neg	-12.7806
▁ous	-12.7812
US	-12.7812
his	-12.7813
55	-12.7814
▁žila	-12.7828
75	-12.7836
▁vič	-12.7841
▁Aut	-12.7843
▁lfs	-12.7854
▁abdo	-12.7855
▁DW	-12.7855
▁HOO	-12.7856
▁59.	-12.7861
▁bat	-12.7869
▁3:1	-12.7869
▁85.	-12.7871
▁arkle	-12.7873
vant	-12.7873
▁Out	-12.7875
▁37.	-12.788
▁abs	-12.7884
▁ebal	-12.7895
▁USA	-12.7898
▁86	-12.7904
▁Hrv	-12.7905
lag	-12.791
▁ache	-12.7911
▁undid	-12.7914
▁haj	-12.7916
▁erif	-12.7916
▁ekvi	-12.7931
RK	-12.7932
▁šiš	-12.7943
▁urze	-12.7944
▁izze	-12.7947
▁kuri	-12.795
▁Šut	-12.7953
▁87	-12.796
▁tve	-12.7967
▁anye	-12.7971
▁laza	-12.7972
▁Hur	-12.7974
dres	-12.7974
DC	-12.7992
egus	-12.7999
▁krak	-12.8
tri	-12.8008
▁alje	-12.8016
▁erl	-12.8021
mun	-12.8026
26	-12.803
AP	-12.8037
▁AD	-12.804
TK	-12.8041
ZO	-12.8058
▁itu	-12.806
▁adova	-12.8062
▁vota	-12.8064
▁lant	-12.8067
▁IZ	-12.8078
▁ON	-12.8081
lton	-12.8081
▁Fun	-12.8084
AE	-12.8092
▁96	-12.8095
▁pape	-12.8095
▁dež	-12.8096
▁Well	-12.8104
cija	-12.8112
▁laud	-12.8112
ICA	-12.8115
▁ozde	-12.812
nha	-12.8131
EM	-12.8133
▁miču	-12.814
▁Arhi	-12.8149
▁raža	-12.8149
▁6-4	-12.815
▁tonj	-12.8154
ury	-12.8161
nađ	-12.8167
▁Fair	-12.8167
▁Eva	-12.8168
▁agin	-12.817
▁unke	-12.8172
▁hoke	-12.8173
▁61.	-12.8176
GS	-12.8192
EV	-12.8194
▁Foot	-12.8202
▁Web	-12.8213
▁Dek	-12.8214
▁dili	-12.8221
hat	-12.823
▁Fam	-12.8238
▁ihovi	-12.8241
▁Pere	-12.8243
▁ufi	-12.8246
▁USD	-12.8248
ME	-12.8264
▁zli	-12.8275
eber	-12.8276
▁ushi	-12.8278
▁učit	-12.8278
▁Elit	-12.8287
▁IVE	-12.8288
▁zelj	-12.8292
▁EN	-12.8296
▁adri	-12.8304
▁dif	-12.8309
▁uche	-12.8313
kob	-12.8319
▁upp	-12.8331
yes	-12.8336
NV	-12.8337
▁alek	-12.835
▁eff	-12.8351
▁Tar	-12.8353
▁OB	-12.8355
ide	-12.8372
▁krađ	-12.8373
-7	-12.8375
▁unde	-12.8379
▁ajor	-12.8397
▁ursa	-12.8414
▁isko	-12.8416
+	-12.8425
;	-12.8425
dy	-12.8426
▁kru	-12.8429
▁Utah	-12.8431
▁HZJZ	-12.8432
▁Arhe	-12.8432
▁hlep	-12.8434
▁gulaš	-12.8435
▁guez	-12.8436
▁raff	-12.8437
▁87.	-12.844
▁77.	-12.8442
▁6-2	-12.8442
▁84.	-12.8443
umb	-12.8443
▁Muh	-12.8444
▁Era	-12.8446
▁47.	-12.8451
▁BDP	-12.8456
▁81.	-12.8463
▁Wol	-12.8466
▁dže	-12.8469
▁ars	-12.8471
▁ruise	-12.848
▁ipar	-12.8489
▁45.	-12.849
▁klah	-12.8493
▁ljati	-12.8494
▁avel	-12.8503
▁raži	-12.8515
▁trože	-12.8518
▁Orsa	-12.8521
▁Mišo	-12.8521
gova	-12.8549
▁onto	-12.855
▁91	-12.855
iss	-12.8553
▁loud	-12.8555
▁enry	-12.8566
▁zit	-12.8567
ary	-12.8584
▁irma	-12.8591
▁Uef	-12.8593
▁aleb	-12.8615
med	-12.8623
▁ES	-12.8623
sper	-12.8628
▁Milk	-12.863
▁Lov	-12.8645
UM	-12.8653
▁baha	-12.866
▁anel	-12.8663
▁wen	-12.8667
▁88	-12.8669
▁laće	-12.8686
VA	-12.8708
TI	-12.8718
▁admi	-12.872
▁Nig	-12.8731
Ti	-12.8732
▁OECD	-12.8733
▁Orbán	-12.8733
▁68.	-12.8744
zir	-12.8748
▁98	-12.8748
▁HTS	-12.8748
▁57.	-12.8749
ick	-12.8751
▁64.	-12.8752
▁Diz	-12.8755
▁drht	-12.8758
zu	-12.8758
▁Ath	-12.8759
▁65.	-12.8768
▁leti	-12.8768
uth	-12.8778
pol	-12.8778
yb	-12.8784
▁aper	-12.8792
▁House	-12.8794
▁Jim	-12.8802
▁Mega	-12.8802
▁andu	-12.8802
▁ossi	-12.8804
Do	-12.8812
ody	-12.8814
▁Ded	-12.8838
dam	-12.8841
▁dev	-12.8841
erif	-12.8847
▁low	-12.8847
▁ips	-12.8857
▁isic	-12.8862
▁Aus	-12.8863
▁lava	-12.8866
▁riji	-12.8869
17	-12.8877
▁MO	-12.8882
▁Hus	-12.8883
hez	-12.8889
AO	-12.8896
▁CD	-12.8904
▁izza	-12.8906
▁rul	-12.8907
▁74	-12.8909
▁apsu	-12.8917
▁roga	-12.894
▁iksi	-12.8942
▁alle	-12.8955
hno	-12.8963
▁ašpa	-12.8984
▁ambo	-12.8987
▁oppi	-12.8995
▁Hit	-12.8996
/	-12.9004
▁SSS	-12.9005
▁drma	-12.902
▁ruz	-12.9028
▁libi	-12.9037
eter	-12.9041
▁gum	-12.9041
▁Gil	-12.9047
▁Forum	-12.9047
▁ajde	-12.9049
▁Eth	-12.9052
▁79.	-12.9055
▁Frie	-12.9057
▁fir	-12.9057
ume	-12.906
▁63.	-12.9061
▁lili	-12.9064
▁Fans	-12.9066
▁beš	-12.9069
idi	-12.9074
▁hink	-12.9075
IB	-12.9076
▁vale	-12.908
▁71.	-12.9081
▁chic	-12.9084
igh	-12.9089
▁raje	-12.9092
fun	-12.9094
▁ains	-12.9094
▁spri	-12.9097
▁oles	-12.9102
▁roma	-12.9106
▁arga	-12.9112
▁marž	-12.9118
▁Milo	-12.9123
▁FC	-12.9127
▁Pec	-12.913
▁Zav	-12.9134
▁magn	-12.9141
▁kora	-12.9151
agon	-12.9154
▁Duha	-12.9164
▁irja	-12.9172
▁holo	-12.9174
▁maza	-12.9177
▁Mus	-12.9179
▁orpu	-12.9181
▁rova	-12.9193
▁urry	-12.9193
▁ejza	-12.9195
llen	-12.92
77	-12.9204
▁phy	-12.9207
▁Ful	-12.9212
hor	-12.9214
VO	-12.9218
▁ojun	-12.9219
▁ađara	-12.9222
▁šće	-12.9222
▁izbo	-12.9225
CA	-12.9229
▁ATA	-12.9233
▁Juna	-12.9234
▁Ele	-12.9241
▁OD	-12.9245
6,	-12.9247
ith	-12.9274
MP	-12.9276
ncy	-12.9294
AG	-12.9302
▁Gam	-12.9306
ikt	-12.9317
▁erem	-12.9317
▁rute	-12.9318
ö	-12.9319
▁eau	-12.9321
▁Mare	-12.9328
▁rich	-12.9334
36	-12.934
win	-12.9349
▁luž	-12.935
▁oldo	-12.9359
▁NP	-12.9361
▁rugge	-12.9369
▁Ćip	-12.9374
▁Duh	-12.938
RI	-12.9387
▁ayo	-12.9396
▁čni	-12.94
▁HRZ	-12.9404
▁38.	-12.9406
▁aron	-12.9412
▁maci	-12.9414
wan	-12.9417
eća	-12.9418
▁ü	-12.9421
▁alem	-12.9423
▁gam	-12.9427
▁inč	-12.9431
▁uth	-12.9432
OR	-12.9435
▁kana	-12.9438
▁Lib	-12.9441
▁umn	-12.9444
▁mach	-12.9449
▁zez	-12.9456
▁SK	-12.9463
▁anir	-12.9474
▁hlo	-12.9478
▁ipan	-12.948
▁rgi	-12.948
▁ild	-12.9482
▁romb	-12.9484
▁Fed	-12.9491
▁yr	-12.9497
▁dašn	-12.9499
▁ranz	-12.9501
▁itva	-12.9513
▁arka	-12.9517
▁okas	-12.9528
abu	-12.9538
▁arbie	-12.9538
laže	-12.9555
▁hort	-12.9566
▁dell	-12.9576
▁Beg	-12.9585
EK	-12.9604
▁qua	-12.9604
",	-12.9609
▁Noć	-12.9609
▁adem	-12.9611
EF	-12.9613
▁ling	-12.9613
gra	-12.9618
▁vig	-12.9625
▁inez	-12.9629
CB	-12.9633
yer	-12.9635
DI	-12.9635
▁nute	-12.9637
bol	-12.9643
▁rain	-12.9647
▁SU	-12.9651
rkel	-12.9664
TA	-12.9667
▁Pip	-12.9678
IF	-12.9682
▁hrp	-12.9693
HNL	-12.9697
▁Cir	-12.97
▁earch	-12.9706
▁iq	-12.9714
▁67.	-12.9714
▁egzi	-12.9721
▁Ment	-12.9722
▁GUP	-12.9726
▁42.	-12.9736
▁VW	-12.9742
▁och	-12.9744
▁LP	-12.9752
▁Đer	-12.9758
▁PP	-12.9758
▁51.	-12.9759
▁HDS	-12.9764
▁umar	-12.9772
▁AC	-12.9777
▁Duž	-12.9778
▁Musa	-12.9779
▁Abd	-12.9779
▁bak	-12.9784
▁alde	-12.9788
▁Medu	-12.9794
▁Wes	-12.9796
▁rebak	-12.9812
▁Meh	-12.9815
▁AS	-12.9819
▁enns	-12.9825
rze	-12.9826
▁GT	-12.9828
▁skač	-12.9828
ES	-12.9836
IO	-12.984
▁aya	-12.9843
▁slap	-12.9857
▁anaf	-12.9861
▁ebek	-12.9865
▁roti	-12.9868
▁Cro	-12.987
▁IMA	-12.9877
▁ško	-12.9888
▁cien	-12.99
▁astm	-12.9901
KO	-12.9907
▁inea	-12.9913
▁erne	-12.992
▁sco	-12.9921
nšiz	-12.9922
▁makl	-12.9923
▁Foo	-12.9925
jam	-12.9936
▁Čop	-12.9937
▁ulin	-12.9938
▁NY	-12.9952
▁taf	-12.996
▁opan	-12.9961
▁ozar	-12.9963
▁okoš	-12.9968
▁hrv	-12.9983
▁MW	-12.9991
▁Hous	-12.9993
AD	-13
▁faš	-13.0001
ble	-13.0003
▁azne	-13.0007
use	-13.0009
VE	-13.001
▁HB	-13.0027
▁tama	-13.0028
▁Bake	-13.0029
▁Hot	-13.0035
9%	-13.0041
▁ashi	-13.0046
▁1/2	-13.0047
▁ška	-13.0048
▁urni	-13.005
▁(2)	-13.0051
▁njeni	-13.0053
▁Ves	-13.0055
▁72.	-13.0065
▁frek	-13.0065
▁6-3	-13.0067
▁62.	-13.0068
▁VR	-13.007
▁TM	-13.0071
▁krhk	-13.0074
▁39.	-13.008
▁Hans	-13.0089
▁Rea	-13.0092
stor	-13.0108
▁AO	-13.0124
▁Welle	-13.013
▁lex	-13.0133
▁ups	-13.0134
▁Dore	-13.0144
▁Wee	-13.0144
▁lita	-13.015
▁Fest	-13.0154
▁IS	-13.0154
27	-13.0155
▁Ime	-13.0163
dif	-13.0168
JE	-13.0171
cch	-13.0171
▁bosi	-13.0175
▁esco	-13.018
▁ough	-13.0191
▁89	-13.0203
ó	-13.0214
TAK	-13.0215
▁argo	-13.0224
▁kraf	-13.0232
51	-13.0251
alah	-13.0254
zni	-13.0268
▁AB	-13.0283
▁Get	-13.0284
▁eđe	-13.0286
▁ED	-13.0295
▁Clo	-13.0296
SG	-13.0303
▁Lil	-13.0307
▁abe	-13.0314
anz	-13.0317
▁Hut	-13.0326
▁ozin	-13.0328
▁aham	-13.0329
▁snos	-13.0334
▁huti	-13.0337
▁ogue	-13.0344
▁Fir	-13.0346
▁my	-13.0352
get	-13.0367
:3	-13.037
▁SR	-13.0371
▁Tiha	-13.0373
▁FM	-13.0373
3%	-13.0376
▁Saha	-13.0378
▁Tari	-13.0385
uri	-13.0393
▁alva	-13.0393
▁gej	-13.0396
▁olun	-13.0397
2%	-13.0399
ague	-13.04
▁žud	-13.0403
▁ürich	-13.0404
rder	-13.0404
▁OVIĆ	-13.0404
EX	-13.0405
▁asse	-13.0406
▁anže	-13.041
▁AT	-13.0412
▁Ruk	-13.0412
▁ecan	-13.0412
▁88.	-13.0413
▁69.	-13.0415
▁50%	-13.0445
▁HOS	-13.0445
užv	-13.0445
▁Roy	-13.0449
▁isch	-13.0456
ata	-13.0456
KE	-13.0457
▁wol	-13.0458
▁unta	-13.0459
▁iolet	-13.0467
▁etaž	-13.0473
NP	-13.0476
▁ogla	-13.0477
▁kutak	-13.0478
HA	-13.0494
▁litu	-13.0496
▁Armi	-13.0497
▁Rig	-13.05
HC	-13.0502
▁Mun	-13.0507
▁Aven	-13.0518
▁nci	-13.0525
▁hir	-13.0533
▁alei	-13.0536
▁2"	-13.054
▁Tep	-13.0542
▁Elle	-13.0543
▁ahar	-13.0543
▁Pay	-13.0544
▁olor	-13.0547
▁oži	-13.0572
▁HT	-13.0577
▁ux	-13.0586
▁beg	-13.0587
▁ajder	-13.0593
▁Kumr	-13.0597
▁OR	-13.0614
▁austa	-13.0625
▁sho	-13.0626
▁ponu	-13.0637
uch	-13.0637
MED	-13.0648
ckl	-13.0652
▁resc	-13.0671
▁Kam	-13.0679
▁spra	-13.0685
▁onga	-13.0699
▁alf	-13.0701
▁fede	-13.0703
▁Wie	-13.0706
▁Zaha	-13.0706
▁ishi	-13.0707
47	-13.071
▁repa	-13.072
▁krip	-13.0723
DR	-13.0725
▁MR	-13.073
▁97	-13.073
ppy	-13.0731
▁ö	-13.0736
▁pig	-13.0743
▁Zeli	-13.0752
▁ongo	-13.0752
aks	-13.0756
▁eart	-13.0762
▁amel	-13.0776
▁orzu	-13.0778
▁žegi	-13.078
uff	-13.0781
▁ehn	-13.0783
▁hemi	-13.0785
▁Free	-13.0785
▁4-1	-13.0787
ELJ	-13.0789
▁JANA	-13.0789
▁Mmae	-13.0793
▁EBU	-13.0803
▁44.	-13.0804
▁Allen	-13.0804
▁road	-13.0813
▁Eti	-13.0816
▁ribl	-13.0834
▁Mot	-13.0834
UK	-13.0849
DL	-13.0852
▁Ajd	-13.0855
ence	-13.086
▁Miki	-13.0862
▁agol	-13.0863
ršu	-13.0873
AJ	-13.0877
▁eide	-13.0884
▁Cen	-13.0888
hil	-13.0898
▁ojač	-13.09
▁gang	-13.0905
hen	-13.0906
▁Ank	-13.0914
▁fig	-13.0915
▁uver	-13.0917
▁gut	-13.0929
▁kubi	-13.0933
▁eha	-13.0934
▁Hand	-13.0936
▁2,2	-13.0955
own	-13.0972
▁Fari	-13.0972
lah	-13.0987
▁tigm	-13.0999
▁Joz	-13.1007
▁rima	-13.1008
▁Neda	-13.1016
lam	-13.1034
▁War	-13.1043
her	-13.105
▁220	-13.1055
▁Cod	-13.1058
▁anag	-13.1062
▁taju	-13.1072
▁vise	-13.1077
iffr	-13.108
▁Cop	-13.1086
▁aff	-13.1089
▁ersi	-13.1095
NU	-13.1096
▁wan	-13.1105
RU	-13.1129
▁azl	-13.1144
6%	-13.1153
gol	-13.1155
dnik	-13.1156
▁ulga	-13.1157
gebr	-13.1157
▁legr	-13.1158
PÖ	-13.1159
▁ruyne	-13.1159
PP	-13.1162
▁col	-13.1163
▁ä	-13.1163
ath	-13.1163
▁raw	-13.1167
▁orres	-13.1168
▁šču	-13.1169
▁NFL	-13.1169
▁üss	-13.1172
▁82.	-13.1176
▁Grub	-13.1179
▁Piv	-13.1182
▁izdar	-13.1184
▁RK	-13.1189
šen	-13.1199
▁Senk	-13.12
▁hap	-13.1201
▁iege	-13.1215
▁0-0	-13.1217
▁šifr	-13.1219
▁wo	-13.122
▁itz	-13.1223
▁voka	-13.123
▁rsat	-13.1234
▁KOM	-13.1244
set	-13.1247
▁fek	-13.1248
▁amos	-13.1249
▁Sene	-13.1249
▁ilton	-13.1253
▁eudo	-13.1254
▁oysa	-13.1268
▁bur	-13.1283
28	-13.1288
atch	-13.1292
▁celer	-13.1299
▁zobe	-13.1301
▁Cou	-13.1303
▁habi	-13.1304
▁Dev	-13.1304
▁duc	-13.1307
▁kele	-13.1307
▁Fol	-13.1309
ngen	-13.131
▁GP	-13.1324
▁muš	-13.1324
ED	-13.1327
MZ	-13.1329
▁lle	-13.1333
▁zda	-13.1335
▁nota	-13.134
rami	-13.1343
▁Gun	-13.1343
▁Šum	-13.1346
▁Komo	-13.1347
isal	-13.1356
▁vate	-13.1372
SKA	-13.1377
▁blat	-13.1407
▁amma	-13.1412
res	-13.1413
PV	-13.1429
▁ampe	-13.1434
▁ries	-13.1435
▁artu	-13.1439
▁TI	-13.144
OD	-13.144
dir	-13.1442
▁elis	-13.1454
▁ium	-13.1456
JU	-13.1459
aha	-13.1465
▁glad	-13.1473
▁oyot	-13.1478
sq	-13.1479
OG	-13.1481
▁ruis	-13.1504
▁alza	-13.1505
▁Albi	-13.1505
:2	-13.1511
▁elf	-13.1512
▁janja	-13.1519
▁koči	-13.152
cco	-13.1529
▁Wha	-13.153
▁lair	-13.153
bud	-13.1538
▁arbe	-13.155
Je	-13.1555
▁adoks	-13.1559
▁burgh	-13.156
▁ained	-13.1562
▁loyd	-13.1563
6)	-13.1565
orij	-13.1566
▁wich	-13.1566
yber	-13.157
▁NJA	-13.1571
▁IJER	-13.1573
OT	-13.1573
▁warz	-13.1575
▁pip	-13.1575
▁78.	-13.1575
▁ajram	-13.1579
▁BRI	-13.158
▁irmu	-13.1581
▁agram	-13.1585
▁urek	-13.1592
▁tream	-13.1594
▁sici	-13.1601
84	-13.1601
▁Jonas	-13.1602
ond	-13.1612
▁JU	-13.1623
KK	-13.1623
let	-13.163
▁NS	-13.1631
BOR	-13.1652
ese	-13.1656
48	-13.1657
▁Kik	-13.1664
SK	-13.1668
▁10%	-13.1671
▁alti	-13.1687
▁dli	-13.1688
▁Anni	-13.1698
▁ammer	-13.17
▁anč	-13.1701
▁5,5	-13.1714
▁amni	-13.1721
▁Špa	-13.1722
wen	-13.1726
UZ	-13.1729
bac	-13.174
▁aves	-13.1741
▁reti	-13.1745
▁onop	-13.1751
ring	-13.1752
▁Saka	-13.1753
▁degu	-13.1766
▁Ari	-13.1776
TO	-13.1779
▁Sat	-13.1783
▁got	-13.1786
▁obbi	-13.1798
▁rajer	-13.1814
▁cho	-13.182
▁Lan	-13.1827
▁2)	-13.1857
▁arši	-13.186
▁atum	-13.1865
RE	-13.1866
▁gnj	-13.1871
▁SD	-13.1884
▁šnja	-13.1886
▁1/	-13.1886
▁Base	-13.1887
▁assi	-13.1891
▁ranš	-13.1894
▁inec	-13.1899
yd	-13.1899
▁Arin	-13.1914
ORA	-13.1921
▁DI	-13.1924
▁žiča	-13.1932
▁has	-13.1942
PN	-13.1943
▁DV	-13.1948
▁enig	-13.1952
ret	-13.196
▁ENIK	-13.1964
▁jaž	-13.1966
8%	-13.197
ä	-13.197
▁Usyk	-13.1976
▁quo	-13.1977
▁NRW	-13.1977
▁graph	-13.1977
▁ibn	-13.1981
▁3:2	-13.1986
▁peed	-13.1991
▁ezn	-13.2012
▁48.	-13.2019
TZ	-13.2025
▁ecce	-13.2031
▁Koka	-13.204
46	-13.2057
▁BK	-13.2062
▁agbi	-13.2068
▁PL	-13.2074
▁lemi	-13.2078
▁almi	-13.2082
▁cifr	-13.2088
▁Čile	-13.209
▁Wel	-13.2094
▁2,9	-13.2101
▁ucks	-13.2103
▁OP	-13.2104
29	-13.2111
▁amme	-13.2117
CK	-13.2118
SM	-13.2121
▁hemo	-13.2123
▁oine	-13.2125
▁HOK	-13.2127
PA	-13.2129
▁Had	-13.2135
▁Mol	-13.2146
▁jang	-13.2161
▁anca	-13.2162
over	-13.2167
▁DS	-13.2169
▁litk	-13.2172
lue	-13.2175
LE	-13.2176
EZ	-13.2176
JA	-13.2185
▁hab	-13.2188
▁Sul	-13.2217
▁turm	-13.2226
EE	-13.2229
TRA	-13.2236
▁utap	-13.2236
▁Etn	-13.2243
▁erth	-13.2246
▁olfa	-13.2248
reme	-13.2249
▁haw	-13.2251
▁EZ	-13.2265
▁Nel	-13.2273
68	-13.2274
▁Zab	-13.2285
▁COP	-13.2288
rck	-13.2293
è	-13.2295
31	-13.2297
▁Amir	-13.2304
44	-13.2307
▁RT	-13.231
▁Kuk	-13.2319
▁LI	-13.2333
fro	-13.234
AK	-13.2359
▁apra	-13.236
▁Marsa	-13.237
▁Rož	-13.2381
▁slje	-13.2392
:4	-13.2393
▁ango	-13.2397
OO	-13.2398
▁Old	-13.2398
98	-13.2401
ugen	-13.2404
▁bedem	-13.241
▁zzur	-13.241
▁Wolf	-13.2415
▁93.	-13.2417
▁HMI	-13.2417
▁89.	-13.2419
ugh	-13.2421
▁OTP	-13.2421
▁86.	-13.2422
▁′	-13.2422
▁beau	-13.2423
▁vitak	-13.2424
▁aque	-13.2424
▁83.	-13.2427
▁49.	-13.2434
▁ozza	-13.2434
SI	-13.2438
▁ZET	-13.2445
€	-13.2449
▁Yan	-13.2451
▁165	-13.2452
▁hajd	-13.2453
49	-13.2457
SKI	-13.2461
▁new	-13.2467
agus	-13.2467
▁defa	-13.2475
▁ugu	-13.2476
▁SA	-13.2486
▁Kvar	-13.2494
▁pore	-13.2498
▁itta	-13.2514
▁Cla	-13.2521
uzen	-13.2531
▁core	-13.2534
ich	-13.2537
FF	-13.2542
RD	-13.2555
oth	-13.256
▁abak	-13.2564
▁PRO	-13.2568
▁Amr	-13.258
▁elika	-13.2598
▁tafe	-13.2608
▁Hani	-13.2612
▁agh	-13.2614
▁Neil	-13.2616
ord	-13.2621
▁rcis	-13.2623
▁muh	-13.2623
▁tamp	-13.2625
rek	-13.2628
▁oui	-13.264
▁toke	-13.2642
šur	-13.2642
▁ašč	-13.2642
▁OV	-13.2646
▁Epi	-13.265
▁žile	-13.2656
▁zeza	-13.2659
▁CB	-13.2663
yan	-13.2664
tle	-13.2672
▁iril	-13.2682
▁Jane	-13.2692
▁lanc	-13.2694
▁Kore	-13.27
▁Mul	-13.2757
▁tuk	-13.2758
▁ajda	-13.2762
▁SNS	-13.2764
▁Spo	-13.2773
▁melo	-13.2775
▁Bro	-13.2782
▁hah	-13.2788
▁CR	-13.2799
išk	-13.2799
bus	-13.2801
▁izla	-13.2806
▁eich	-13.281
RB	-13.2829
▁Fid	-13.2834
▁Wed	-13.2855
▁Cav	-13.2856
AI	-13.2856
etz	-13.2864
▁Kukoč	-13.2865
ebec	-13.2866
▁EHF	-13.2867
▁INE	-13.2867
▁zebr	-13.2867
▁Ruud	-13.2868
▁igman	-13.2868
▁ordo	-13.2868
▁hukt	-13.2869
▁ICT	-13.2871
▁Mon	-13.2874
▁73.	-13.2882
▁EX	-13.2883
▁56.	-13.2883
▁ATIC	-13.2883
▁yber	-13.2884
▁MOO	-13.2888
IK	-13.2889
▁house	-13.2896
▁lob	-13.29
▁Arno	-13.2914
▁muć	-13.2918
▁kugor	-13.2918
▁Gog	-13.2923
▁arh	-13.2924
▁aldo	-13.2924
▁yun	-13.2924
▁šver	-13.2928
▁ful	-13.2939
▁rukv	-13.2947
oze	-13.295
▁BY	-13.2951
▁klek	-13.2952
▁embe	-13.2958
▁eoni	-13.2958
▁0:1	-13.2965
hed	-13.2969
▁uang	-13.2972
sku	-13.2977
▁Dum	-13.2988
asy	-13.2988
BE	-13.2989
▁tech	-13.2989
▁aphi	-13.2996
▁Xia	-13.2996
▁moda	-13.2997
tafe	-13.3001
▁Dire	-13.3001
▁CRO	-13.3002
▁rex	-13.3005
▁krpa	-13.3008
▁ušte	-13.3028
▁Kava	-13.3033
▁epp	-13.3035
ón	-13.3042
▁Sir	-13.3051
▁earn	-13.3056
ADA	-13.3063
▁SC	-13.3065
MC	-13.3066
▁Mode	-13.3071
▁žic	-13.3074
▁Šiš	-13.3076
▁Rek	-13.3077
▁AZ	-13.3097
▁apne	-13.3101
▁umba	-13.3102
▁KD	-13.3111
▁kemi	-13.3114
▁acka	-13.3115
▁artr	-13.3124
▁arch	-13.3127
▁loži	-13.314
▁lind	-13.3145
▁ezer	-13.3148
▁štur	-13.3149
▁Žil	-13.315
▁HBO	-13.3152
pur	-13.3164
▁osno	-13.3171
▁gema	-13.3173
ĆE	-13.3175
uss	-13.3177
▁anyo	-13.3181
▁DR	-13.3188
▁ajdu	-13.3189
▁Ott	-13.3191
▁eode	-13.3192
▁uppi	-13.32
▁Die	-13.3203
RV	-13.321
▁tepa	-13.3216
▁anya	-13.3227
icu	-13.3234
▁tain	-13.3245
▁unč	-13.3251
▁Dec	-13.3256
IJE	-13.3257
▁Kub	-13.3263
lob	-13.3265
SC	-13.3267
▁deli	-13.3271
▁blje	-13.3273
▁ankt	-13.3284
ncer	-13.3286
KU	-13.3295
ller	-13.3295
▁ngu	-13.3298
row	-13.3304
▁raju	-13.3308
▁Lap	-13.3314
▁eller	-13.3319
▁RN	-13.3319
stvo	-13.3322
▁apin	-13.3324
▁Faye	-13.3341
▁word	-13.3341
cK	-13.3343
▁ruck	-13.3344
▁Pabl	-13.3349
▁93	-13.335
▁6-1	-13.3352
▁escu	-13.3353
▁good	-13.3356
▁desi	-13.3358
rati	-13.3361
▁OIB	-13.3362
▁agda	-13.3363
▁elce	-13.3364
▁Lider	-13.3364
▁Jok	-13.3366
▁Way	-13.3367
88	-13.3368
5.	-13.3368
▁wer	-13.337
▁Uršu	-13.337
▁2:2	-13.3374
▁43.	-13.3374
▁hand	-13.3376
▁raun	-13.3379
DF	-13.3379
▁tasa	-13.3381
▁0-1	-13.3396
FA	-13.3398
▁Hras	-13.34
DAR	-13.3409
86	-13.3412
▁ltar	-13.3416
92	-13.3421
▁raft	-13.3426
▁zasl	-13.3426
▁nha	-13.3426
▁brus	-13.3431
▁0-2	-13.3432
svje	-13.3433
▁Hama	-13.3437
▁bah	-13.344
▁abab	-13.3448
▁GS	-13.345
▁OL	-13.3453
▁Žit	-13.3454
RF	-13.3455
▁Duka	-13.3455
▁Vla	-13.3461
▁Coc	-13.3466
▁okrum	-13.3477
▁Alai	-13.348
▁ctiv	-13.3491
lub	-13.3497
▁robu	-13.3508
▁peda	-13.3524
jač	-13.3529
▁erty	-13.3533
▁lače	-13.3538
▁obac	-13.3543
▁Paj	-13.3548
azen	-13.3556
▁lege	-13.356
eve	-13.3564
▁RU	-13.3565
▁hema	-13.3568
32	-13.358
▁anfi	-13.3583
▁Mill	-13.3588
▁Pir	-13.3593
▁akuu	-13.3603
▁atte	-13.3605
▁Raš	-13.3615
▁azv	-13.3623
ipe	-13.3625
ID	-13.3633
61	-13.3634
▁wis	-13.3648
uric	-13.3651
▁Mag	-13.3659
▁OVE	-13.3662
bon	-13.3666
▁eram	-13.3685
▁mela	-13.3686
▁giba	-13.3704
▁Fif	-13.3713
▁Arba	-13.3719
▁Noel	-13.3722
8,	-13.3725
afe	-13.373
▁adit	-13.373
▁ITA	-13.3742
▁CT	-13.3743
OI	-13.3744
▁Daj	-13.3745
▁Avan	-13.3774
▁rami	-13.3776
▁kios	-13.379
▁elas	-13.38
IR	-13.3801
▁CN	-13.3805
rtu	-13.3807
▁Ćiri	-13.3809
▁Geo	-13.3814
▁ahr	-13.3822
▁kuc	-13.3822
▁Wei	-13.3822
69	-13.3823
▁Cas	-13.3833
1%	-13.3836
zzo	-13.3836
▁Has	-13.3839
▁olmes	-13.3841
▁raus	-13.3841
▁work	-13.3842
▁PG	-13.3842
▁Fett	-13.3842
▁Wiss	-13.3845
▁ilaž	-13.3846
▁azg	-13.3855
:5	-13.3855
cker	-13.3859
▁jetru	-13.386
▁4:0	-13.3864
▁Cast	-13.3866
▁EB	-13.3869
▁agy	-13.3869
▁192	-13.3869
▁ERT	-13.387
▁(4	-13.3896
▁MI	-13.3897
▁room	-13.3899
▁7,3	-13.39
▁chai	-13.3901
▁azze	-13.3908
▁Bene	-13.3926
▁elon	-13.393
▁rey	-13.3933
▁Rau	-13.3944
SE	-13.3944
▁agra	-13.3945
▁hans	-13.3947
91	-13.3953
IG	-13.3962
▁hice	-13.3963
▁iott	-13.3964
▁(2	-13.3965
▁uill	-13.3966
▁deto	-13.3967
▁Pala	-13.3976
▁haja	-13.3982
hra	-13.3983
▁ince	-13.3992
▁uart	-13.3993
ŽA	-13.3993
▁Kobe	-13.3996
▁KP	-13.3999
▁ejl	-13.4
▁Dir	-13.4001
▁pele	-13.4008
lig	-13.4009
bet	-13.4012
Iz	-13.4014
▁Diem	-13.4017
▁likt	-13.402
laži	-13.4023
IZ	-13.4024
▁effr	-13.4024
▁coun	-13.4025
▁Afer	-13.4028
dža	-13.4033
▁eval	-13.4034
pez	-13.4034
▁meno	-13.4037
▁End	-13.4069
▁raf	-13.4073
▁krob	-13.4076
▁VA	-13.4082
PC	-13.4082
81	-13.4088
▁kopč	-13.4093
▁fai	-13.4095
▁rumb	-13.4096
▁OVA	-13.4098
DRA	-13.411
ube	-13.4122
34	-13.4125
▁vond	-13.4129
▁resa	-13.4129
MPO	-13.4131
▁kela	-13.4134
▁krp	-13.4146
▁ranja	-13.4155
▁gis	-13.4157
▁iff	-13.4159
EL	-13.4159
▁FER	-13.416
orld	-13.4168
▁ogoz	-13.4171
▁cus	-13.4181
▁urti	-13.4186
▁rote	-13.4193
guž	-13.4193
▁Lev	-13.4204
▁Fan	-13.4205
WF	-13.4206
▁eleb	-13.4216
▁ENA	-13.422
rec	-13.422
ish	-13.423
ešk	-13.4234
EPT	-13.4244
RP	-13.4253
▁hep	-13.4255
▁eše	-13.4261
57	-13.4282
▁cou	-13.4283
▁ROB	-13.4286
▁Zid	-13.429
▁rječ	-13.4291
ASS	-13.4294
▁rmad	-13.4303
▁acea	-13.4307
mić	-13.4335
▁Hag	-13.4337
▁Rij	-13.4342
▁LAG	-13.436
▁Far	-13.4362
4%	-13.4362
▁verd	-13.4366
▁(5)	-13.4367
▁Flego	-13.4368
▁žega	-13.4368
▁toli	-13.4369
▁Tiger	-13.4369
▁(3)	-13.4371
opol	-13.4371
▁Šans	-13.4373
▁2%	-13.4375
▁kokoš	-13.4378
▁orzo	-13.4378
fan	-13.4379
▁limf	-13.4379
▁arit	-13.438
▁Mrle	-13.4382
▁aču	-13.4383
▁jord	-13.4384
▁Molve	-13.4386
▁Frid	-13.4387
Po	-13.4392
▁Mind	-13.4393
▁ehem	-13.4395
▁ženje	-13.4397
▁oled	-13.4401
way	-13.4401
CE	-13.4408
▁baku	-13.441
▁auru	-13.4414
▁öt	-13.4416
▁Ross	-13.4421
▁wig	-13.4422
GP	-13.4424
▁algo	-13.4424
▁TUP	-13.4427
▁sch	-13.4429
pto	-13.4436
▁HD	-13.4436
rob	-13.4437
▁epoh	-13.4446
▁ginj	-13.4447
▁bau	-13.4472
▁Adi	-13.4475
▁ercy	-13.4481
▁AV	-13.4502
▁difu	-13.4502
▁eyem	-13.4519
FL	-13.4526
▁avij	-13.453
▁Aco	-13.4532
▁adda	-13.4534
▁Jam	-13.4554
▁Oh	-13.4556
▁MG	-13.4561
hou	-13.4561
MI	-13.4563
▁Ax	-13.4564
▁Alpe	-13.4565
▁ritu	-13.4565
▁HA	-13.4567
▁BH	-13.4576
▁hist	-13.458
▁urbi	-13.4582
▁zemp	-13.4584
▁aux	-13.4593
▁eged	-13.4597
▁Abdu	-13.4598
▁tapa	-13.4605
▁remu	-13.4608
▁štip	-13.4613
▁vill	-13.4616
No	-13.4618
▁Ah	-13.4619
Vi	-13.4621
▁ayer	-13.4626
▁aly	-13.4639
KC	-13.4642
▁ošč	-13.4654
▁Yama	-13.4661
▁Žd	-13.4663
▁lovo	-13.4663
fred	-13.4663
▁Kei	-13.4665
▁Got	-13.4686
▁atto	-13.4688
▁ornj	-13.469
▁oeln	-13.4709
ion	-13.4709
▁Koko	-13.471
▁Ay	-13.4712
▁ergu	-13.4713
rib	-13.4727
BO	-13.4727
▁zlu	-13.4728
▁itze	-13.4736
▁ér	-13.4739
▁Hari	-13.4747
SO	-13.4754
▁urdi	-13.4761
▁Čal	-13.4768
▁hak	-13.4773
7,	-13.4777
▁PC	-13.4779
▁PLI	-13.4781
▁oby	-13.4782
▁trap	-13.4785
▁Hop	-13.4786
▁kuž	-13.4791
▁HE	-13.4791
ungl	-13.4798
▁Savi	-13.4807
EST	-13.4817
▁azo	-13.482
▁affe	-13.4824
▁kuka	-13.4834
▁tvom	-13.4837
62	-13.4844
agu	-13.4852
▁dlu	-13.4857
ung	-13.486
▁LAD	-13.486
tem	-13.4865
▁adz	-13.4881
▁olon	-13.4892
▁App	-13.4897
▁latu	-13.49
VB	-13.4906
7%	-13.4907
-8	-13.4909
raf	-13.4913
ñ	-13.4917
rop	-13.4917
ł	-13.492
®	-13.4923
▁(4)	-13.4923
▁Delta	-13.4926
▁Aqua	-13.493
▁HUB	-13.493
▁//	-13.4931
▁5%	-13.4935
▁iefs	-13.4935
▁auff	-13.4937
▁98.	-13.4937
ORAK	-13.4937
▁Doge	-13.4939
ych	-13.4948
▁5:0	-13.4948
▁Čap	-13.495
▁gger	-13.4951
▁aggi	-13.4955
▁4:1	-13.496
▁Saar	-13.4965
▁TK	-13.4966
▁ING	-13.4973
▁Peg	-13.4976
▁Kis	-13.4978
▁Grd	-13.4978
▁Šur	-13.4989
▁elfie	-13.4991
▁rmade	-13.4996
▁elfi	-13.5002
▁dišu	-13.5003
▁arre	-13.5004
▁Enri	-13.5004
▁91.	-13.5005
▁idak	-13.5007
▁adja	-13.501
▁olle	-13.501
▁Elis	-13.502
▁Gum	-13.502
MSC	-13.5039
▁RTV	-13.5043
▁kler	-13.5044
▁Doro	-13.505
▁VN	-13.5052
ous	-13.5061
FIL	-13.5066
▁aden	-13.507
▁Lab	-13.507
▁Mitr	-13.5071
▁asha	-13.5087
▁ENTA	-13.5088
▁iffe	-13.5094
ohn	-13.5098
ful	-13.5103
▁adema	-13.5104
2.	-13.5104
BU	-13.5112
▁Pac	-13.5123
▁PK	-13.5125
▁Pame	-13.5126
▁hamb	-13.5129
▁olem	-13.5131
▁1)	-13.5137
▁Wein	-13.5137
▁assy	-13.5139
▁lay	-13.5141
94	-13.5147
85	-13.5161
▁ür	-13.5173
▁DO	-13.5174
KD	-13.519
▁CA	-13.5198
▁Pace	-13.5205
▁mix	-13.5217
asa	-13.5221
▁iday	-13.5227
▁Čel	-13.5228
▁roja	-13.5235
▁enkl	-13.5249
▁Anđ	-13.5256
▁kif	-13.5257
▁Šer	-13.5268
▁elan	-13.5271
▁Wat	-13.5276
UC	-13.5279
89	-13.5286
▁IP	-13.5288
▁IBA	-13.5297
▁cree	-13.5301
▁tupi	-13.5304
zov	-13.5337
▁goju	-13.5341
bal	-13.5355
▁ouss	-13.5369
▁asap	-13.5371
▁airo	-13.5374
▁Alba	-13.5376
▁OM	-13.5376
▁ecco	-13.5382
▁Mü	-13.5386
▁furi	-13.5386
gger	-13.539
▁arg	-13.5393
▁olti	-13.5395
ley	-13.5401
▁Deli	-13.5402
▁Was	-13.5429
▁ecke	-13.5431
▁Rebe	-13.544
▁yle	-13.5446
ider	-13.5456
ZA	-13.5458
▁urza	-13.546
▁Hud	-13.5461
LTP	-13.5483
▁haš	-13.5488
davn	-13.5499
å	-13.5501
▁Bed	-13.5503
▁roy	-13.5508
HD	-13.5508
▁1⁄2	-13.5511
▁Bou	-13.5512
▁oche	-13.5512
▁XII	-13.5514
▁ikrut	-13.5514
▁užve	-13.5515
▁️	-13.5515
rgan	-13.552
▁umice	-13.5522
▁NICE	-13.5525
▁Dieg	-13.553
▁SFR	-13.5532
aste	-13.5533
UN	-13.5534
hid	-13.5537
▁92.	-13.554
▁will	-13.5545
šek	-13.5546
▁ERC	-13.5547
▁piel	-13.5549
▁luid	-13.5553
▁kič	-13.5565
▁Arbu	-13.5567
▁IRA	-13.5567
▁gni	-13.5568
▁IJA	-13.5568
▁ođe	-13.5569
▁hov	-13.5574
▁haub	-13.5576
▁Days	-13.5586
▁latou	-13.5589
▁0:0	-13.5604
▁hin	-13.5607
▁žup	-13.5608
▁EF	-13.5611
▁RAD	-13.5612
▁Thie	-13.5613
▁Home	-13.5619
▁5"	-13.5622
RR	-13.5624
▁Row	-13.5632
agan	-13.5632
▁Šap	-13.5633
guar	-13.5634
▁MV	-13.5649
zbe	-13.5652
▁fur	-13.5652
▁Gig	-13.5658
▁urfa	-13.566
▁94	-13.5667
▁zec	-13.5671
juč	-13.5673
▁Arne	-13.5684
▁ambr	-13.5686
▁asci	-13.5691
epar	-13.5691
lich	-13.5701
dah	-13.5703
PB	-13.572
▁acia	-13.5728
EG	-13.573
▁apaj	-13.5737
▁ecc	-13.5741
52	-13.5743
▁Fee	-13.5743
▁indu	-13.5743
72	-13.5748
▁ochu	-13.5749
▁Će	-13.5753
▁anth	-13.5755
▁bnb	-13.5761
CH	-13.5774
laču	-13.578
▁ubec	-13.5796
▁nage	-13.5797
IL	-13.5797
▁ordi	-13.58
ešć	-13.5804
▁arey	-13.5811
99	-13.5812
Uz	-13.5817
▁Jere	-13.5825
RO	-13.583
rea	-13.5836
▁Seli	-13.5837
▁Kaj	-13.584
▁kož	-13.5842
ener	-13.5844
▁ouise	-13.5851
▁Fit	-13.5853
▁wed	-13.5856
78	-13.5856
73	-13.5858
▁OVO	-13.5863
▁vado	-13.5863
rem	-13.587
ST	-13.5878
67	-13.5878
38	-13.5897
▁ions	-13.5899
▁gue	-13.5903
▁utle	-13.5904
▁aph	-13.5912
div	-13.5914
▁Gat	-13.592
▁eath	-13.592
eif	-13.5938
76	-13.5956
▁otre	-13.596
▁Arte	-13.5965
▁čec	-13.5968
LAS	-13.5981
OC	-13.5994
▁Bes	-13.6009
▁asle	-13.6015
53	-13.6026
▁Kuka	-13.6042
▁šeće	-13.6042
esh	-13.6045
56	-13.6046
▁Hom	-13.6053
▁augh	-13.6054
▁vadi	-13.6055
Tu	-13.6056
▁ette	-13.6058
▁fun	-13.6076
▁AJ	-13.6085
NT	-13.6095
4'	-13.6116
▁ith	-13.6119
▁opar	-13.612
BZ	-13.612
▁Aid	-13.6124
CRO	-13.6125
▁yru	-13.6135
×	-13.6136
▁FILM	-13.6136
▁wald	-13.6136
▁Gün	-13.6137
▁Güt	-13.6137
▁ddie	-13.6137
▁XX	-13.6139
▁94.	-13.6144
▁3%	-13.6145
▁roen	-13.6156
▁Atta	-13.6156
▁carp	-13.6156
iffe	-13.6157
▁Dika	-13.6157
▁Rais	-13.6158
▁onroe	-13.6165
▁Yeo	-13.6175
▁KON	-13.6175
▁5:1	-13.6176
▁Kuli	-13.6179
LB	-13.6186
▁east	-13.6189
▁bab	-13.6191
▁Mond	-13.6196
▁arjak	-13.6199
▁Sare	-13.6199
▁DPA	-13.6211
oë	-13.6212
▁Moha	-13.6222
▁škri	-13.6222
▁fito	-13.6225
▁alme	-13.6232
▁erme	-13.6247
▁bedr	-13.6256
▁Greg	-13.6256
▁erca	-13.6258
▁ikvi	-13.6276
▁gus	-13.6292
▁eppe	-13.6293
afo	-13.6293
▁ZG	-13.6295
▁Debo	-13.6304
▁agel	-13.6304
▁kuži	-13.6309
▁Kuba	-13.6311
▁Sala	-13.6313
▁EL	-13.6316
KOM	-13.6316
elif	-13.6329
▁KC	-13.6331
▁él	-13.6332
▁meha	-13.6341
▁IO	-13.6343
bic	-13.6343
▁Pic	-13.635
gem	-13.6356
▁amia	-13.6364
ubi	-13.6371
▁miss	-13.6372
▁iffa	-13.6376
▁keč	-13.6383
▁DE	-13.6391
▁irgi	-13.6393
▁arsa	-13.6393
▁hun	-13.6394
42	-13.6409
HL	-13.6412
▁ORT	-13.6414
▁(1	-13.6416
▁gud	-13.6419
▁Đin	-13.6421
▁IJEK	-13.644
39	-13.6441
▁Eri	-13.6453
SD	-13.6458
▁Gir	-13.6459
▁ESP	-13.6459
▁HC	-13.6471
cot	-13.6483
▁lash	-13.6493
▁angan	-13.6494
VR	-13.6495
EMA	-13.6499
PR	-13.6506
ppel	-13.6517
▁apul	-13.6519
▁rome	-13.6535
▁POL	-13.6551
▁long	-13.6556
▁Kia	-13.6566
▁QR	-13.6575
▁torm	-13.658
▁ugan	-13.6581
ARS	-13.6582
▁umbe	-13.6596
▁Lei	-13.6598
▁azz	-13.66
▁oah	-13.6602
AST	-13.6604
▁ITU	-13.6608
▁Afr	-13.661
▁jakne	-13.6626
leč	-13.6642
▁asli	-13.6645
ND	-13.6647
ough	-13.6649
▁apu	-13.6652
▁NC	-13.6659
▁Dob	-13.6665
OB	-13.6679
▁Lol	-13.6685
▁utto	-13.6693
07	-13.6693
▁edik	-13.6699
▁Vega	-13.6701
▁loba	-13.671
▁Arm	-13.6711
▁wc	-13.6714
▁arja	-13.6721
▁INT	-13.6739
▁hay	-13.6747
▁afra	-13.6749
AVA	-13.6752
▁SIP	-13.6757
▁užan	-13.6762
▁STAR	-13.6766
▁rumm	-13.6768
▁dris	-13.678
▁enev	-13.6794
>	-13.6797
►	-13.6803
▁žiro	-13.6805
▁orfi	-13.6808
▁HRM	-13.6809
▁7%	-13.6809
▁DUBR	-13.6811
▁riff	-13.6812
▁ajči	-13.6813
▁MS	-13.6817
▁eptun	-13.6819
▁boom	-13.682
▁olge	-13.6821
▁žami	-13.6821
▁Eda	-13.6826
▁ASK	-13.6828
ream	-13.6831
FK	-13.6834
▁EMA	-13.6835
▁Kh	-13.6836
resc	-13.684
NJA	-13.6842
▁ELIK	-13.6842
2'	-13.6843
▁1:3	-13.6844
ück	-13.6848
▁Muć	-13.685
96	-13.6856
▁adež	-13.6859
MD	-13.6859
▁Tick	-13.6863
▁Mel	-13.6864
▁Janj	-13.6867
džo	-13.6878
PF	-13.6878
▁AMA	-13.6885
▁gusk	-13.6886
▁baum	-13.6891
▁raut	-13.6894
▁Đap	-13.6903
▁ecka	-13.6904
omb	-13.6905
▁iya	-13.6906
▁IKA	-13.6911
hel	-13.6915
ukar	-13.692
▁Uber	-13.6931
▁alco	-13.6936
▁hrđ	-13.6942
RT	-13.6945
▁és	-13.6948
▁retu	-13.6952
▁KU	-13.6952
▁lace	-13.6955
▁AM	-13.6956
▁Hos	-13.6965
5'	-13.6968
▁olvo	-13.6971
SF	-13.6981
▁žice	-13.6981
▁Ruš	-13.6987
▁elma	-13.6989
▁Kure	-13.6999
▁hno	-13.7001
71	-13.7002
▁Foun	-13.701
▁ughe	-13.7011
▁lerc	-13.7011
án	-13.7014
▁Dela	-13.7015
▁REM	-13.7017
▁šif	-13.7018
▁Fifi	-13.7028
rich	-13.7033
▁irta	-13.7041
▁oung	-13.7042
▁gorja	-13.7044
▁IE	-13.7044
▁VB	-13.7046
GA	-13.7047
▁skop	-13.705
▁quee	-13.7057
▁Must	-13.7061
▁ešer	-13.7062
▁FT	-13.7072
43	-13.7073
▁rtur	-13.7084
▁TS	-13.7084
▁abaj	-13.7092
▁Hir	-13.7097
ubli	-13.7098
▁irza	-13.7099
žic	-13.7101
PH	-13.7102
LJ	-13.7107
▁einz	-13.7107
▁upav	-13.711
ár	-13.7113
▁eatl	-13.7122
▁Arbe	-13.7125
▁RF	-13.7127
izel	-13.7132
▁Tiš	-13.7139
▁urf	-13.7145
UB	-13.7146
▁DAN	-13.7161
wer	-13.7166
▁fale	-13.7166
▁Els	-13.718
▁bam	-13.7195
▁3)	-13.7243
▁IM	-13.7263
ASK	-13.7263
▁oya	-13.7266
▁ER	-13.7271
▁ourc	-13.7276
day	-13.7278
anne	-13.728
ezer	-13.7281
LU	-13.7289
▁erse	-13.7292
pet	-13.7293
▁PD	-13.7299
▁bed	-13.7302
▁orse	-13.7303
▁kivi	-13.7306
▁Bag	-13.7315
▁SS	-13.7322
▁Đi	-13.7326
▁hic	-13.7344
▁foo	-13.7346
rby	-13.7348
▁Zamet	-13.7365
laža	-13.7369
▁Mine	-13.7388
▁arif	-13.7395
▁addi	-13.7395
py	-13.7395
▁Laye	-13.741
▁rang	-13.7417
▁EZI	-13.7427
ë	-13.743
▁Peh	-13.7431
▁anki	-13.7434
▁Kota	-13.7437
▁hys	-13.7438
▁ENT	-13.7439
▁marš	-13.7442
▁kozm	-13.7443
UO	-13.7444
nnie	-13.7444
SIS	-13.7445
▁arim	-13.7446
▁rož	-13.7449
▁IDE	-13.7466
▁Zir	-13.7466
▁idž	-13.7469
▁Wy	-13.747
▁bum	-13.7481
▁Tak	-13.7492
️	-13.7512
▁ONČAR	-13.7517
▁zeged	-13.7517
▁Field	-13.7517
▁Yahy	-13.7517
▁(1)	-13.7518
▁fetiš	-13.7518
▁PIK	-13.7519
▁ürge	-13.7519
▁jour	-13.752
▁(7)	-13.7522
▁cors	-13.7524
▁1%	-13.7524
▁ulp	-13.7525
▁REU	-13.7528
▁Ahma	-13.754
OLA	-13.754
▁OPEC	-13.7543
▁offi	-13.7544
▁oward	-13.7544
▁HKS	-13.7548
▁Emre	-13.7548
▁iaga	-13.7551
▁107	-13.7553
▁Amar	-13.7553
▁Čileu	-13.7555
▁Rap	-13.7557
▁NT	-13.7567
▁voru	-13.7569
▁adair	-13.7571
ould	-13.7584
▁audi	-13.7588
66	-13.7589
▁Huss	-13.7589
▁urpi	-13.76
▁hie	-13.7601
▁25%	-13.7602
▁pedi	-13.7606
▁alaš	-13.7618
▁Koba	-13.7632
OŠ	-13.7634
agal	-13.7637
▁udima	-13.7642
▁Žig	-13.7657
▁fet	-13.7659
▁Juk	-13.766
▁Šik	-13.7669
DE	-13.7671
▁tamb	-13.7683
▁wic	-13.7683
▁laht	-13.7685
gand	-13.7688
MT	-13.7688
▁buku	-13.7689
▁tuci	-13.7708
▁issi	-13.7712
URA	-13.7718
▁KO	-13.7721
▁host	-13.7725
▁ruma	-13.7735
87	-13.7741
▁ROM	-13.7749
▁arhat	-13.7756
▁Just	-13.7761
▁rizz	-13.7764
ETA	-13.7771
▁SPC	-13.7773
▁Ela	-13.7781
▁vey	-13.7782
rty	-13.7793
CC	-13.7798
enci	-13.78
▁Teo	-13.7806
▁ör	-13.7813
▁ipas	-13.7815
▁ezzi	-13.7818
▁Dem	-13.7832
LK	-13.7833
▁fag	-13.7833
▁Tišm	-13.7839
GE	-13.7846
▁goš	-13.7852
▁unče	-13.7856
▁SF	-13.7858
▁01	-13.787
▁Tip	-13.7876
▁roh	-13.7884
cca	-13.7899
▁šek	-13.7899
▁ilda	-13.7899
ČE	-13.7902
▁mazi	-13.7903
lker	-13.7904
▁buć	-13.791
▁Bai	-13.791
STI	-13.7911
▁ašir	-13.7913
▁SO	-13.7917
▁maker	-13.7918
TN	-13.7921
ONA	-13.7926
AFT	-13.7929
▁ađare	-13.793
LJA	-13.7949
▁MP	-13.7949
▁Pag	-13.7957
▁šiv	-13.7958
▁epsi	-13.7963
▁VAN	-13.7963
▁arog	-13.7966
▁aide	-13.7975
▁štak	-13.7976
▁orp	-13.7977
▁MC	-13.7988
▁gea	-13.8012
▁ranak	-13.8026
FAS	-13.8029
74	-13.8029
eich	-13.8046
ubb	-13.8049
▁hio	-13.8055
▁udy	-13.8057
rhk	-13.8063
▁ynt	-13.8074
▁olen	-13.8078
▁Ric	-13.8081
▁aguš	-13.8082
▁gui	-13.8085
▁lepe	-13.8093
▁akta	-13.8093
▁oshi	-13.81
▁algi	-13.8103
▁čuh	-13.8111
▁hiz	-13.812
PI	-13.8135
razz	-13.8143
▁Ein	-13.8146
▁inhe	-13.8146
▁EMS	-13.8152
UDI	-13.8165
▁irot	-13.8173
žul	-13.8179
▁ulla	-13.818
1'	-13.818
▁Kip	-13.8192
cus	-13.8196
VC	-13.8201
82	-13.8205
93	-13.8211
▁may	-13.822
-9	-13.822
ART	-13.8225
WS	-13.8232
▁RON	-13.8236
▁eep	-13.8244
TM	-13.8247
LM	-13.8258
▁OF	-13.826
La	-13.8264
▁arča	-13.8266
▁SAF	-13.8272
▁ICE	-13.8275
▁ukci	-13.8277
е	-13.8281
▁çois	-13.8286
▁Neuer	-13.8289
▁Silb	-13.8289
▁Puk	-13.8289
▁Xabi	-13.829
▁Cook	-13.8291
▁CEO	-13.8292
▁Look	-13.8292
▁lies	-13.8294
▁odge	-13.8294
▁bebo	-13.8296
▁anus	-13.8301
▁thy	-13.8301
▁FF	-13.8302
▁4:2	-13.8305
▁diff	-13.831
▁haq	-13.8311
▁Ćel	-13.8311
▁FIS	-13.8313
▁VIZ	-13.8313
▁bahc	-13.832
▁ažan	-13.8322
▁eced	-13.8327
VS	-13.8327
ader	-13.8338
▁opol	-13.8341
▁Tuzl	-13.8342
▁Ess	-13.8343
AVO	-13.8344
▁CER	-13.8349
▁awks	-13.8357
▁ENC	-13.8358
▁Miu	-13.8363
▁elmu	-13.8367
▁AŽ	-13.8368
▁šahu	-13.8371
▁ahri	-13.8374
▁Šal	-13.8383
▁yer	-13.8388
▁abad	-13.8392
▁IX	-13.8398
▁who	-13.84
▁Elf	-13.84
ovin	-13.8407
▁DOBR	-13.8413
6'	-13.8426
Wh	-13.8427
▁law	-13.843
▁areš	-13.843
▁Đure	-13.8431
▁ginu	-13.8441
▁azama	-13.8442
▁BIA	-13.8444
▁gde	-13.8447
▁Vuc	-13.8448
▁ulsi	-13.8451
▁RIT	-13.8453
▁ietr	-13.8467
▁4"	-13.8471
spir	-13.8473
▁agru	-13.8489
▁yna	-13.8504
▁aida	-13.8505
▁Duš	-13.8508
▁ease	-13.8517
AJA	-13.8518
▁Dema	-13.8523
▁MK	-13.8527
▁elhi	-13.8536
▁ifta	-13.8538
▁foru	-13.8545
▁mize	-13.8549
▁leb	-13.8561
▁Ace	-13.8582
▁ipka	-13.8597
41	-13.8612
▁šibi	-13.8625
iler	-13.863
▁ulf	-13.8635
▁urki	-13.8638
▁onder	-13.8644
EU	-13.8649
▁Cai	-13.8649
▁ssis	-13.865
▁ahur	-13.8652
OGE	-13.8661
We	-13.8669
▁eny	-13.867
▁ramb	-13.8673
▁mé	-13.8678
ç	-13.8684
rif	-13.8689
IRA	-13.869
▁Čaj	-13.8693
▁ady	-13.8695
▁arnes	-13.8695
▁lave	-13.87
▁rajc	-13.87
▁have	-13.871
▁otta	-13.8725
▁azmi	-13.873
aff	-13.8736
lé	-13.8738
▁Rosa	-13.8738
▁XV	-13.8739
▁Sess	-13.874
PU	-13.8764
▁argi	-13.8772
BM	-13.8784
▁1:	-13.8788
▁adig	-13.879
▁igg	-13.8791
▁ranc	-13.88
▁gaf	-13.8801
AMP	-13.8809
▁dejt	-13.8813
▁oph	-13.8828
▁jašm	-13.8828
age	-13.8832
▁ouli	-13.8849
▁gues	-13.8854
▁max	-13.8866
▁VS	-13.8866
▁Baki	-13.8893
▁game	-13.8907
rey	-13.8918
egen	-13.8927
HF	-13.894
ALA	-13.8992
GM	-13.9002
▁jabu	-13.9005
RID	-13.9009
▁Ard	-13.9026
AF	-13.9034
▁irki	-13.9037
▁ozlj	-13.904
▁3/	-13.905
▁emer	-13.9053
▁NIS	-13.9054
▁NIK	-13.9056
▁ethe	-13.907
ROJ	-13.9085
▁Bay	-13.9087
GL	-13.9096
▁Jah	-13.9096
AMAG	-13.9096
▁rass	-13.9098
▁rapč	-13.9104
ø	-13.9114
●	-13.9119
▁Agui	-13.912
▁ščez	-13.912
▁zjap	-13.912
▁Guy	-13.9121
▁2.0	-13.9122
▁šjor	-13.9123
▁ø	-13.9125
▁faun	-13.9126
▁goke	-13.9126
▁(8)	-13.9128
aver	-13.9128
▁Clea	-13.9129
▁Wor	-13.913
▁8%	-13.913
▁Name	-13.913
▁lecht	-13.9131
▁REĆ	-13.9133
▁THE	-13.9136
▁yste	-13.9137
▁Puma	-13.9137
:6	-13.9138
▁7-5	-13.9141
▁pive	-13.9143
▁üle	-13.9148
▁caff	-13.9154
▁öv	-13.916
▁urtis	-13.9161
▁žira	-13.9168
▁wh	-13.9175
▁okosi	-13.9179
▁Doz	-13.9182
▁NZ	-13.9187
▁case	-13.9193
▁(8	-13.9193
CD	-13.9198
MG	-13.9198
▁fit	-13.9201
▁AFC	-13.9206
▁Mame	-13.921
HR	-13.9213
▁gušć	-13.9221
▁111	-13.9221
IJET	-13.9248
▁Arbo	-13.9263
▁uld	-13.9264
hur	-13.9266
▁Glen	-13.9269
▁Xin	-13.9269
▁hid	-13.9269
▁Low	-13.9284
▁GR	-13.9287
NB	-13.9287
▁MLS	-13.9293
▁ekme	-13.9294
uža	-13.9304
▁ARI	-13.9308
▁wim	-13.931
▁ORČ	-13.9315
▁hire	-13.9319
▁June	-13.9324
▁rong	-13.9331
▁kvaz	-13.9357
▁UC	-13.9359
▁JD	-13.9362
▁ears	-13.937
▁ené	-13.9371
▁EST	-13.9372
▁STA	-13.9381
▁čepa	-13.9382
▁kub	-13.9385
HV	-13.9387
BD	-13.9406
▁lahu	-13.9411
▁olos	-13.9411
▁ukar	-13.9412
▁Elli	-13.9415
▁rasak	-13.9422
NOS	-13.9423
▁drie	-13.943
▁hopu	-13.9432
íc	-13.9433
fri	-13.9442
▁Pain	-13.9446
kay	-13.9453
▁(5	-13.9453
▁CM	-13.9455
▁tw	-13.9465
▁hoc	-13.947
kuy	-13.9482
edes	-13.9499
▁Fib	-13.95
▁hine	-13.9501
83	-13.9502
64	-13.9513
▁tošta	-13.9517
▁que	-13.9521
▁izzi	-13.9532
▁amps	-13.9538
▁medu	-13.9549
rry	-13.9555
AKO	-13.9559
yll	-13.9574
▁Sá	-13.9577
▁ENI	-13.9579
▁RAS	-13.9591
▁ARA	-13.9594
".	-13.9596
ggs	-13.9604
▁ERE	-13.9618
ČA	-13.9622
sco	-13.9622
▁asal	-13.9625
▁Sele	-13.9625
TD	-13.9629
ILI	-13.9631
▁oann	-13.9632
▁deal	-13.9633
FE	-13.9648
ehar	-13.9662
IKA	-13.9677
FS	-13.9687
▁ONE	-13.969
▁enos	-13.9698
ifi	-13.9715
▁whi	-13.9715
▁Kuma	-13.9717
▁apos	-13.9718
IMA	-13.972
▁INI	-13.973
▁šib	-13.9731
▁STO	-13.9732
▁gay	-13.9752
▁otto	-13.9752
Ć	-13.9752
▁VRO	-13.9759
WD	-13.9765
▁(6	-13.9768
čec	-13.978
▁vage	-13.9786
▁Gut	-13.9802
▁MSC	-13.9812
TP	-13.9818
▁HN	-13.9821
▁FS	-13.9825
▁OLI	-13.9826
59	-13.9827
▁Neme	-13.9829
▁dgar	-13.9834
▁kiki	-13.9838
GB	-13.9865
▁HP	-13.9905
SH	-13.9909
CJ	-13.9921
▁carl	-13.9937
▁CJEN	-13.9938
79	-13.9943
bek	-13.9957
FR	-13.9958
čic	-13.996
▁fuz	-13.9961
97	-13.9963
rgen	-13.9983
▁urku	-13.9986
Di	-13.9992
â	-13.9993
▁ATI	-14.0005
qua	-14.0018
°	-14.0024
IJEK	-14.0024
▁Eil	-14.0025
ï	-14.0029
My	-14.0033
▁harm	-14.0033
▁ía	-14.0033
▁amfi	-14.0033
▁AUT	-14.0033
▁à	-14.0033
▁OIE	-14.0038
▁clips	-14.0039
▁EURU	-14.0039
▁ukne	-14.004
▁6%	-14.0041
▁HAP	-14.0043
▁Šant	-14.0043
▁Book	-14.0043
▁cCa	-14.0044
JAK	-14.0044
▁ŠEM	-14.0044
▁yres	-14.0049
iga	-14.0055
JAR	-14.0059
▁olcu	-14.0068
▁leće	-14.0072
▁138	-14.0078
▁Fast	-14.008
▁GDP	-14.0084
▁Gome	-14.0085
▁ILA	-14.0089
▁CI	-14.0093
▁hé	-14.0096
NJE	-14.0099
▁0:2	-14.0102
▁NFP	-14.0105
▁Saul	-14.0111
attl	-14.0116
▁REA	-14.012
▁Koti	-14.0131
▁OW	-14.0139
▁ossa	-14.0142
▁rew	-14.0143
▁lear	-14.015
▁fob	-14.0156
▁anču	-14.016
▁edem	-14.0162
▁ISS	-14.0172
▁rait	-14.0173
▁hopa	-14.0174
▁ifo	-14.0175
▁reed	-14.0178
VZ	-14.0186
IVA	-14.0191
RNA	-14.0193
▁alež	-14.0194
▁Yve	-14.0195
ŽE	-14.02
BAR	-14.0204
▁ijce	-14.0205
▁OVAC	-14.0206
▁kuki	-14.0208
sè	-14.0217
▁Cli	-14.0225
▁Mađ	-14.023
UH	-14.0231
▁škr	-14.0236
▁ćać	-14.0248
▁urri	-14.0252
▁Ekv	-14.026
▁Kaja	-14.0263
▁27,	-14.0263
▁Fai	-14.0271
▁Fau	-14.0275
▁Koke	-14.0279
LP	-14.0283
▁ürs	-14.0284
▁udim	-14.0297
▁evč	-14.0324
▁ious	-14.0339
▁Wea	-14.0342
▁DM	-14.0345
▁OG	-14.0346
▁achi	-14.0348
▁Rađ	-14.0361
far	-14.0361
▁EKO	-14.0379
▁reit	-14.0383
▁PAC	-14.0393
DAC	-14.04
IPA	-14.0404
▁7)	-14.0407
▁ripp	-14.041
▁barb	-14.0412
▁ours	-14.0414
nigm	-14.0415
▁peh	-14.0419
▁IVA	-14.0435
▁uett	-14.0436
wy	-14.0441
wal	-14.0443
▁Fiu	-14.0452
UG	-14.0458
▁ALI	-14.0459
▁Eis	-14.0462
58	-14.0467
▁ereu	-14.0486
▁Dežu	-14.0489
▁Buri	-14.0497
▁arcu	-14.0498
▁orhi	-14.0499
▁unca	-14.0505
▁whe	-14.0505
ew	-14.0517
Ni	-14.0521
NIK	-14.0526
ush	-14.0528
esar	-14.0536
▁opot	-14.0538
LIK	-14.0551
▁šiva	-14.0561
▁eres	-14.0561
TH	-14.0566
▁Lie	-14.0576
▁1'	-14.0591
8'	-14.06
ARA	-14.0602
▁STE	-14.0602
▁RED	-14.0603
▁mpe	-14.0604
SR	-14.0605
LN	-14.0637
▁šahi	-14.0653
▁Čik	-14.0686
▁Teš	-14.0707
▁EDI	-14.0708
▁té	-14.0729
▁asda	-14.0735
▁DB	-14.0739
▁resh	-14.0739
ibl	-14.0745
PE	-14.0753
gos	-14.0777
▁BAC	-14.0792
▁Lai	-14.0802
SL	-14.0803
ouge	-14.0808
▁laču	-14.0821
▁UI	-14.0831
JK	-14.0832
▁Bike	-14.085
ESS	-14.0862
nset	-14.0885
IX	-14.0893
AZ	-14.09
▁HK	-14.0902
▁Hoda	-14.091
MER	-14.0915
▁VE	-14.0917
▁TSK	-14.0921
▁Đul	-14.0932
aps	-14.0945
▁isse	-14.0945
▁Raf	-14.0952
▁+4	-14.0952
Đ	-14.0952
DIN	-14.0952
mund	-14.0958
▁iole	-14.0994
▁Haw	-14.0999
▁hous	-14.1
él	-14.1002
RAN	-14.1004
ONG	-14.101
ČKI	-14.1011
ú	-14.1023
à	-14.1023
HK	-14.1025
ICE	-14.1026
Ex	-14.1028
ð	-14.1029
ò	-14.1029
▁Wahl	-14.1029
▁Yale	-14.103
▁gips	-14.103
▁McM	-14.103
▁Uniq	-14.1032
MU	-14.1033
▁Ćuk	-14.1033
▁EO	-14.1033
▁ktob	-14.1033
▁abeck	-14.1034
▁Alfi	-14.1034
▁IŠ	-14.1037
:7	-14.1037
▁Myk	-14.1039
▁4%	-14.1039
▁yeh	-14.1039
▁EGA	-14.104
▁AMG	-14.1044
▁DAB	-14.1044
▁Yari	-14.1044
▁ayd	-14.1044
▁Off	-14.1046
▁Gemm	-14.1048
▁amfor	-14.1052
▁plet	-14.106
▁Xha	-14.1064
▁143	-14.1074
▁+3	-14.1075
▁6:1	-14.1077
▁Sari	-14.1078
▁wri	-14.108
ŠTA	-14.1082
▁clea	-14.1082
▁02.	-14.1086
▁perol	-14.1091
▁BUZ	-14.1093
▁wick	-14.1094
BR	-14.1095
▁oewe	-14.11
AMA	-14.1104
▁GB	-14.111
▁TRI	-14.111
▁117	-14.1113
▁â	-14.1115
▁Rey	-14.1122
▁rchi	-14.1122
▁Wag	-14.1123
▁rowe	-14.1126
▁UDB	-14.1133
amma	-14.115
▁Arch	-14.1157
▁Fal	-14.1158
▁jodi	-14.1158
3:	-14.1159
▁OTA	-14.1164
▁rox	-14.1164
posl	-14.1166
▁ICA	-14.1171
▁SPA	-14.1172
▁šou	-14.1182
▁adži	-14.1183
▁škak	-14.1184
▁PET	-14.1189
▁OMA	-14.119
▁Baku	-14.1203
▁ilde	-14.1205
▁achs	-14.1205
▁orle	-14.1207
▁ENE	-14.1209
▁ahre	-14.1211
fur	-14.1226
GRA	-14.1229
▁alum	-14.1233
▁Hay	-14.1233
▁ZNA	-14.1238
▁gibi	-14.1244
▁Fali	-14.1246
inus	-14.1266
▁TIA	-14.1277
▁luzi	-14.1278
erbe	-14.128
taž	-14.1281
▁Apa	-14.1281
▁Pub	-14.1292
▁ulum	-14.1312
EPU	-14.1313
▁Meka	-14.132
VOR	-14.1324
▁Hem	-14.1337
▁(3	-14.1343
▁Bah	-14.1343
▁TAN	-14.1349
IŠ	-14.1351
▁hibi	-14.1369
▁mied	-14.1372
uber	-14.1372
▁ECR	-14.1373
▁ART	-14.1378
▁kleč	-14.14
▁KAO	-14.142
2)	-14.1436
▁olla	-14.1438
ACE	-14.1438
▁Hed	-14.146
▁trof	-14.1469
▁alci	-14.148
▁eont	-14.1491
▁6)	-14.1495
▁bow	-14.1512
▁gath	-14.1514
BL	-14.1527
▁ön	-14.153
AGA	-14.1543
ssy	-14.1549
▁BB	-14.1569
▁rock	-14.1583
ovrč	-14.1587
▁adiz	-14.1609
▁Ors	-14.1622
AVK	-14.1629
▁gnju	-14.163
▁IVO	-14.1649
LC	-14.1665
▁IR	-14.1677
ILA	-14.1679
raž	-14.1684
▁NJI	-14.1685
▁Humo	-14.1694
lev	-14.1707
▁igh	-14.1709
▁iens	-14.1726
▁hif	-14.173
▁Kabi	-14.1734
▁Tah	-14.174
▁Beli	-14.175
▁Rej	-14.1752
▁libr	-14.1754
▁Puha	-14.176
▁egze	-14.177
▁Ted	-14.1785
šlin	-14.1788
OTIV	-14.1801
DD	-14.1812
▁iels	-14.1817
7.	-14.1819
▁Zeb	-14.186
▁oros	-14.1868
RM	-14.1869
▁aufe	-14.1875
ğ	-14.2138
ê	-14.214
ß	-14.339
î	-14.339
ı	-14.339
⚤	-14.339
🔥	-14.339
ô	-14.4813
ì	-14.4818
☘	-14.4818
	-14.4818
🎁	-14.4818
😂	-14.4818
©	-14.6485
ė	-14.6485
Ś	-14.6485
ρ	-14.6485
*	-14.848
`	-14.8485
ą	-14.8485
ě	-14.8485
ο	-14.8485
ς	-14.8485
⁠	-14.8485
📌	-14.8485
Ó	-15.0985
ț	-15.0985
̈	-15.0985
о	-15.0985
ṣ	-15.0985
‒	-15.0985
⚠	-15.0985
⚽	-15.0985
	-15.0985
ń	-15.0985
ő	-15.0985
$	-15.4313
^	-15.4318
§	-15.4318
Í	-15.4318
Ú	-15.4318
Ü	-15.4318
ý	-15.4318
ę	-15.4318
ȗ	-15.4318
а	-15.4318
ј	-15.4318
‍	-15.4318
‐	-15.4318
―	-15.4318
‖	-15.4318
⁄	-15.4318
✓	-15.4318
💙	-15.4318
ā	-15.4318
🇷	-15.9313
🇸	-15.9313
π	-15.9318
τ	-15.9318
ř	-15.9318
	-15.9318
¡	-15.9318
±	-15.9318
Ä	-15.9318
Ø	-15.9318
ù	-15.9318
û	-15.9318
ă	-15.9318
ĉ	-15.9318
̊	-15.9318
α	-15.9318
ό	-15.9318
н	-15.9318
ྀ	-15.9318
ἀ	-15.9318
‟	-15.9318
∶	-15.9318
▶	-15.9318
♡	-15.9318
♦	-15.9318
シ	-15.9318
🇱	-15.9318
🏻	-15.9318
🔄	-15.9318
🕷	-15.9318
🕸	-15.9318
😅	-15.9318
😎	-15.9318
🟡	-15.9318
🤩	-15.9318
🤯	-15.9318
🥚	-15.9318
🦟	-15.9318
ś	-15.9318
ż	-15.9318
ș	-15.9318
έ	-15.9318
🙏	-16.9284
😍	-16.9285
💕	-16.9286
ི	-16.9287
ȉ	-16.9288
ū	-16.9289
Ş	-16.929
ē	-16.9291
🌸	-16.9292
🇭	-16.9293
ή	-16.9294
̧	-16.9295
Ð	-16.9296
👀	-16.9297
🇺	-16.9298
♥	-16.9299
Å	-16.93
✔	-16.9301
Ç	-16.9302
Á	-16.9303
🟨	-16.9304
ş	-16.9305
̋	-16.9306
É	-16.9307
ã	-16.9308
}	-16.9309
<	-16.931
­	-16.9311
Ö	-16.9312
μ	-16.9313
❤	-16.9313
•	-16.9313
#	-16.9314
_	-16.9314
[	-16.9315
=	-16.9316
%	-16.9317
Ł	-16.9318
υ	-16.9318
χ	-16.9318
À	-16.9318
£	-16.9318
¤	-16.9318
¿	-16.9318
È	-16.9318
Î	-16.9318
Ò	-16.9318
Ô	-16.9318
õ	-16.9318
Ď	-16.9318
ľ	-16.9318
ň	-16.9318
ō	-16.9318
ţ	-16.9318
ů	-16.9318
ź	-16.9318
Ƙ	-16.9318
ȃ	-16.9318
ȑ	-16.9318
ə	-16.9318
ʟ	-16.9318
̣	-16.9318
Ω	-16.9318
γ	-16.9318
δ	-16.9318
ω	-16.9318
К	-16.9318
л	-16.9318
ь	-16.9318
і	-16.9318
Ґ	-16.9318
ӣ	-16.9318
ӧ	-16.9318
ṓ	-16.9318
ọ	-16.9318
ố	-16.9318
‰	-16.9318
↑	-16.9318
⇒	-16.9318
−	-16.9318
⏱	-16.9318
■	-16.9318
▪	-16.9318
○	-16.9318
☃	-16.9318
☑	-16.9318
☺	-16.9318
♀	-16.9318
⚫	-16.9318
✠	-16.9318
✨	-16.9318
❄	-16.9318
传	-16.9318
多	-16.9318
🇦	-16.9318
🇧	-16.9318
🇫	-16.9318
🇬	-16.9318
🇮	-16.9318
🇵	-16.9318
🇾	-16.9318
🌋	-16.9318
🌐	-16.9318
🌠	-16.9318
🌧	-16.9318
🌨	-16.9318
🌺	-16.9318
🌻	-16.9318
🍉	-16.9318
🍊	-16.9318
🎀	-16.9318
🎗	-16.9318
🏡	-16.9318
🐄	-16.9318
🐥	-16.9318
🐦	-16.9318
🐱	-16.9318
🐶	-16.9318
👁	-16.9318
👇	-16.9318
👣	-16.9318
👶	-16.9318
💅	-16.9318
💋	-16.9318
💎	-16.9318
💘	-16.9318
💚	-16.9318
💟	-16.9318
💪	-16.9318
💯	-16.9318
📢	-16.9318
📱	-16.9318
📸	-16.9318
🔹	-16.9318
🕓	-16.9318
🖥	-16.9318
😀	-16.9318
😁	-16.9318
😉	-16.9318
😊	-16.9318
😏	-16.9318
😬	-16.9318
😭	-16.9318
🙂	-16.9318
🙌	-16.9318
🛁	-16.9318
🤍	-16.9318
🤔	-16.9318
🤢	-16.9318
🤦	-16.9318
🤪	-16.9318
🥥	-16.9318
🥰	-16.9318
🥲	-16.9318
🥹	-16.9318
🥺	-16.9318
🩹	-16.9318
🩺	-16.9318
🪐	-16.9318
🫒	-16.9318
🫠	-16.9318
(	-16.9318
İ	-16.9318
☀	-16.9318
陈	-16.9318
