<unk>	0
<s>	0
</s>	0
je	-0
▁s	-1
▁p	-2
na	-3
ra	-4
▁i	-5
ko	-6
ni	-7
ti	-8
▁d	-9
▁o	-10
▁u	-11
no	-12
▁je	-13
li	-14
re	-15
ro	-16
ta	-17
la	-18
va	-19
ri	-20
▁na	-21
ja	-22
ka	-23
ne	-24
▁po	-25
ma	-26
te	-27
vi	-28
to	-29
▁z	-30
vo	-31
▁b	-32
ca	-33
▁m	-34
ju	-35
di	-36
ji	-37
ve	-38
▁za	-39
▁ko	-40
ci	-41
da	-42
lo	-43
go	-44
▁se	-45
▁da	-46
▁su	-47
▁a	-48
▁do	-49
st	-50
ru	-51
mo	-52
▁ne	-53
le	-54
ki	-55
nje	-56
▁od	-57
▁ka	-58
ku	-59
nu	-60
▁iz	-61
▁bi	-62
▁t	-63
me	-64
▁pro	-65
sta	-66
ga	-67
ke	-68
▁P	-69
▁S	-70
▁sa	-71
će	-72
sti	-73
ron	-74
caron	-75
▁ra	-76
▁pre	-77
▁pri	-78
▁M	-79
mi	-80
▁N	-81
zi	-82
bi	-83
lje	-84
lu	-85
nja	-86
či	-87
če	-88
▁mo	-89
po	-90
de	-91
▁š	-92
▁D	-93
▁g	-94
▁k	-95
pa	-96
tu	-97
cu	-98
ce	-99
ba	-100
bo	-101
▁to	-102
si	-103
▁go	-104
▁B	-105
▁te	-106
▁ni	-107
▁K	-108
sko	-109
▁re	-110
že	-111
▁v	-112
za	-113
▁T	-114
ča	-115
sa	-116
▁koji	-117
▁H	-118
ski	-119
ći	-120
▁I	-121
še	-122
ccaron	-123
▁O	-124
▁U	-125
ži	-126
▁A	-127
lja	-128
du	-129
do	-130
pi	-131
sto	-132
▁1	-133
gu	-134
▁V	-135
▁će	-136
gra	-137
jo	-138
▁R	-139
▁"	-140
▁mi	-141
lju	-142
▁no	-143
▁2	-144
nji	-145
▁ve	-146
▁vi	-147
▁e	-148
cute	-149
cacute	-150
se	-151
nom	-152
▁pa	-153
ća	-154
▁Z	-155
rva	-156
rije	-157
▁što	-158
nog	-159
▁ta	-160
▁godi	-161
nih	-162
▁-	-163
ža	-164
▁f	-165
ša	-166
vje	-167
nim	-168
tra	-169
cije	-170
lji	-171
▁G	-172
▁ob	-173
su	-174
▁ma	-175
▁J	-176
ske	-177
pu	-178
vr	-179
▁li	-180
▁h	-181
be	-182
ši	-183
cija	-184
gi	-185
zcaron	-186
▁L	-187
▁Na	-188
▁svo	-189
▁me	-190
so	-191
nju	-192
rvat	-193
vu	-194
▁tre	-195
▁ima	-196
▁Ma	-197
dni	-198
pe	-199
▁vo	-200
lj	-201
▁kako	-202
▁bo	-203
ge	-204
sje	-205
zo	-206
đe	-207
ze	-208
▁di	-209
▁pu	-210
▁koje	-211
vije	-212
▁dru	-213
▁Po	-214
▁(	-215
dje	-216
▁naj	-217
▁sta	-218
kom	-219
▁raz	-220
▁ti	-221
▁&	-222
▁Za	-223
mje	-224
▁E	-225
▁nije	-226
kon	-227
▁va	-228
",	-229
▁in	-230
▁pred	-231
▁ja	-232
ska	-233
▁nje	-234
▁si	-235
▁sve	-236
vno	-237
▁kao	-238
mu	-239
▁C	-240
▁ali	-241
ho	-242
tak	-243
▁20	-244
dno	-245
▁F	-246
pre	-247
▁pr	-248
stu	-249
▁sam	-250
pra	-251
▁Ka	-252
▁de	-253
▁is	-254
ran	-255
▁če	-256
rati	-257
▁gra	-258
▁Hrvat	-259
nije	-260
▁godine	-261
▁ku	-262
▁mje	-263
vni	-264
▁Mi	-265
zu	-266
or	-267
▁pos	-268
zna	-269
..	-270
rža	-271
▁smo	-272
▁zna	-273
tni	-274
bu	-275
vić	-276
▁pod	-277
▁biti	-278
▁pot	-279
▁pi	-280
▁koja	-281
đu	-282
đa	-283
▁jo	-284
skog	-285
▁st	-286
▁dje	-287
tno	-288
00	-289
ina	-290
govo	-291
ču	-292
liko	-293
vlja	-294
▁nakon	-295
▁ot	-296
an	-297
▁pla	-298
rno	-299
▁samo	-300
▁ili	-301
▁dana	-302
▁više	-303
▁stra	-304
▁pra	-305
▁Š	-306
▁lju	-307
▁kon	-308
sni	-309
sno	-310
▁Ne	-311
▁us	-312
kao	-313
nta	-314
▁prije	-315
dio	-316
▁'	-317
▁gla	-318
▁mu	-319
▁bio	-320
▁nji	-321
▁tu	-322
rt	-323
▁tra	-324
▁eu	-325
šta	-326
▁jed	-327
ste	-328
▁Do	-329
▁uz	-330
dan	-331
▁igra	-332
ije	-333
▁svi	-334
▁Da	-335
čki	-336
vanje	-337
▁3	-338
tiv	-339
▁ga	-340
er	-341
ha	-342
gre	-343
▁tako	-344
rni	-345
▁ovo	-346
▁ži	-347
bog	-348
skoj	-349
▁ba	-350
▁kra	-351
ću	-352
gle	-353
tje	-354
▁može	-355
vati	-356
▁jer	-357
▁još	-358
▁du	-359
dst	-360
skom	-361
▁ru	-362
skih	-363
lni	-364
▁be	-365
▁poli	-366
dra	-367
▁To	-368
▁že	-369
žu	-370
gla	-371
▁osta	-372
▁pe	-373
▁Ko	-374
vio	-375
nti	-376
telji	-377
sku	-378
bro	-379
▁rekao	-380
nda	-381
▁treba	-382
mije	-383
▁mogu	-384
fi	-385
lno	-386
ciju	-387
▁godina	-388
▁Mo	-389
▁zbog	-390
vali	-391
▁posto	-392
▁spo	-393
šte	-394
godi	-395
rok	-396
ar	-397
▁či	-398
▁slu	-399
št	-400
▁sva	-401
vanja	-402
▁Sa	-403
stra	-404
▁bilo	-405
vlje	-406
lije	-407
fe	-408
sjedni	-409
▁bu	-410
▁No	-411
stva	-412
▁vr	-413
▁bro	-414
▁lo	-415
▁vrije	-416
▁obja	-417
kla	-418
vom	-419
nici	-420
kra	-421
rija	-422
▁oso	-423
▁Ra	-424
čko	-425
čno	-426
ako	-427
▁os	-428
▁veli	-429
▁vje	-430
▁ro	-431
▁oko	-432
▁eura	-433
▁202	-434
reme	-435
takmi	-436
▁obi	-437
dstrok	-438
bje	-439
▁cije	-440
tro	-441
▁dobi	-442
ona	-443
▁dok	-444
tom	-445
▁Bi	-446
in	-447
▁hrvat	-448
red	-449
▁vla	-450
pli	-451
jom	-452
▁utakmi	-453
kri	-454
▁već	-455
▁doda	-456
telj	-457
▁au	-458
▁Re	-459
van	-460
uro	-461
vori	-462
joj	-463
što	-464
klju	-465
▁bila	-466
▁tri	-467
om	-468
▁posta	-469
▁Ja	-470
kre	-471
lim	-472
nt	-473
▁Pa	-474
▁Bo	-475
▁4	-476
▁radi	-477
▁Me	-478
nika	-479
▁izbo	-480
rom	-481
he	-482
▁živo	-483
nci	-484
▁kada	-485
viti	-486
▁op	-487
nica	-488
▁mora	-489
▁5	-490
...	-491
▁nas	-492
▁tije	-493
tko	-494
nima	-495
pri	-496
▁predsjedni	-497
".	-498
▁njego	-499
▁ju	-500
il	-501
skim	-502
vara	-503
vima	-504
nosti	-505
▁Ba	-506
▁Euro	-507
▁sto	-508
▁iza	-509
vih	-510
kti	-511
▁č	-512
ter	-513
▁ljudi	-514
▁Pe	-515
▁prema	-516
▁c	-517
risti	-518
šti	-519
▁svoje	-520
ško	-521
▁odlu	-522
voj	-523
sla	-524
▁drža	-525
▁neko	-526
jući	-527
▁Ha	-528
▁odno	-529
rani	-530
▁dva	-531
lazi	-532
ven	-533
spo	-534
stvo	-535
▁ih	-536
ner	-537
hi	-538
▁Ni	-539
▁la	-540
vim	-541
▁protiv	-542
▁kri	-543
▁ze	-544
▁Be	-545
▁Ve	-546
čke	-547
▁Va	-548
▁19	-549
cima	-550
▁ova	-551
pisa	-552
▁auto	-553
▁Zagre	-554
iz	-555
▁njiho	-556
▁bez	-557
▁nasta	-558
▁nam	-559
▁Je	-560
ble	-561
nost	-562
▁jedan	-563
▁poče	-564
ndi	-565
),	-566
▁drugi	-567
ciji	-568
▁6	-569
▁gdje	-570
tar	-571
▁rije	-572
▁nego	-573
▁sre	-574
▁kre	-575
met	-576
rao	-577
ruč	-578
njem	-579
tka	-580
▁klu	-581
nuti	-582
godiš	-583
▁sla	-584
lom	-585
nd	-586
pje	-587
▁kad	-588
▁mili	-589
▁sada	-590
▁Pro	-591
sre	-592
vila	-593
jte	-594
▁mla	-595
▁ce	-596
▁nema	-597
kup	-598
▁pomo	-599
tvr	-600
for	-601
▁pita	-602
vao	-603
▁Iz	-604
bli	-605
dne	-606
šao	-607
▁dije	-608
▁Go	-609
▁tr	-610
▁pobje	-611
▁ki	-612
▁svje	-613
▁toga	-614
▁im	-615
▁nisu	-616
▁trenu	-617
▁sje	-618
▁Vi	-619
▁pove	-620
stup	-621
pla	-622
gleda	-623
vaju	-624
bno	-625
jek	-626
▁Jo	-627
dna	-628
▁Du	-629
el	-630
▁pje	-631
▁broj	-632
dom	-633
nuo	-634
▁vrijeme	-635
▁Li	-636
▁dobro	-637
▁prija	-638
▁Mar	-639
▁Pre	-640
▁tvr	-641
▁Ru	-642
▁sigu	-643
▁sma	-644
▁upra	-645
▁poka	-646
▁ci	-647
▁lije	-648
▁svije	-649
▁među	-650
▁Ta	-651
pada	-652
tim	-653
tua	-654
▁W	-655
▁ča	-656
4.	-657
▁or	-658
0.	-659
ren	-660
▁ove	-661
▁stu	-662
▁popu	-663
sli	-664
rima	-665
nski	-666
▁društ	-667
▁Č	-668
lova	-669
▁predsta	-670
▁proble	-671
▁7	-672
vog	-673
▁pozi	-674
▁fo	-675
lne	-676
▁fina	-677
jim	-678
meta	-679
▁še	-680
jem	-681
▁politi	-682
▁ako	-683
▁novi	-684
▁taj	-685
▁sti	-686
rio	-687
rbi	-688
star	-689
▁sezo	-690
nice	-691
▁obra	-692
▁on	-693
1.	-694
▁zaje	-695
▁Gra	-696
▁dio	-697
bra	-698
▁kod	-699
vijek	-700
tjeca	-701
log	-702
▁oz	-703
▁proš	-704
▁ide	-705
▁Su	-706
ška	-707
▁par	-708
▁Ž	-709
▁zdra	-710
zira	-711
▁koju	-712
nik	-713
gao	-714
rta	-715
▁mjese	-716
sam	-717
diti	-718
▁nekoliko	-719
▁upo	-720
kto	-721
▁stva	-722
▁potre	-723
▁Dina	-724
▁so	-725
noj	-726
niji	-727
▁proiz	-728
▁zah	-729
▁le	-730
vija	-731
▁danas	-732
nira	-733
▁zavr	-734
▁drugo	-735
cij	-736
2.	-737
▁tje	-738
▁Ro	-739
▁poru	-740
▁medi	-741
▁sati	-742
▁Ju	-743
vala	-744
voji	-745
▁sna	-746
čio	-747
▁pose	-748
▁ško	-749
ciona	-750
gani	-751
dar	-752
▁Pri	-753
▁najbo	-754
▁neki	-755
3.	-756
čin	-757
vne	-758
▁miliju	-759
lano	-760
▁zem	-761
▁Bu	-762
lan	-763
klo	-764
▁uspje	-765
▁bili	-766
meri	-767
▁oba	-768
▁poslje	-769
hu	-770
pan	-771
vna	-772
▁ste	-773
stve	-774
tku	-775
▁otkri	-776
čka	-777
▁osi	-778
dnji	-779
▁prili	-780
kraji	-781
zul	-782
đer	-783
▁Lu	-784
rne	-785
lek	-786
nosi	-787
▁kro	-788
en	-789
▁Hrvatske	-790
▁Od	-791
▁ho	-792
vši	-793
▁izra	-794
▁kaže	-795
▁kori	-796
5.	-797
sjeti	-798
pro	-799
▁lje	-800
▁isto	-801
žbe	-802
vore	-803
ng	-804
▁tome	-805
▁jedno	-806
tne	-807
▁proizvo	-808
▁odgovo	-809
▁prvi	-810
▁tijekom	-811
▁isti	-812
▁nešto	-813
▁Nakon	-814
▁vreme	-815
▁8	-816
rak	-817
▁sr	-818
zao	-819
▁doma	-820
telja	-821
▁zapo	-822
▁pozna	-823
▁istra	-824
▁Rije	-825
tan	-826
vnog	-827
▁Lo	-828
kupi	-829
▁nogo	-830
▁Hrvatskoj	-831
▁puno	-832
▁sigurno	-833
nija	-834
▁Nje	-835
menta	-836
▁umje	-837
▁malo	-838
▁kom	-839
▁fa	-840
volj	-841
ković	-842
▁uvijek	-843
vili	-844
▁žu	-845
▁prva	-846
▁izme	-847
▁dvije	-848
vla	-849
man	-850
▁Vla	-851
▁put	-852
▁vozi	-853
▁organi	-854
▁inte	-855
nistar	-856
zulta	-857
▁pono	-858
din	-859
▁Pu	-860
▁La	-861
al	-862
▁slo	-863
▁Tu	-864
op	-865
▁nad	-866
▁Spli	-867
▁poja	-868
▁kojima	-869
nio	-870
dru	-871
im	-872
▁njezi	-873
bije	-874
gađa	-875
▁Sve	-876
len	-877
▁201	-878
dova	-879
gli	-880
▁milijuna	-881
▁nika	-882
jdu	-883
▁održa	-884
bri	-885
šu	-886
bio	-887
dnje	-888
▁kojem	-889
▁br	-890
vnom	-891
tiri	-892
▁sad	-893
vreme	-894
rje	-895
▁pogo	-896
▁dr	-897
niti	-898
▁ona	-899
zenta	-900
▁jedna	-901
▁ri	-902
▁napra	-903
nama	-904
▁Se	-905
više	-906
▁oče	-907
▁rekla	-908
▁Le	-909
vodi	-910
stru	-911
pak	-912
▁neće	-913
▁imaju	-914
▁fil	-915
▁tro	-916
▁područ	-917
tre	-918
▁rezulta	-919
).	-920
čkog	-921
▁najve	-922
▁uklju	-923
▁kojoj	-924
▁dvo	-925
kli	-926
smo	-927
ime	-928
▁dalje	-929
rana	-930
tovo	-931
▁An	-932
▁sluča	-933
▁onda	-934
▁Hajdu	-935
leda	-936
▁svoj	-937
▁govori	-938
▁vrlo	-939
▁Hrvatska	-940
đi	-941
▁uvje	-942
▁između	-943
▁In	-944
forma	-945
prezenta	-946
000	-947
kovi	-948
▁euro	-949
▁Te	-950
tri	-951
▁jako	-952
▁situa	-953
▁budu	-954
▁9	-955
▁mre	-956
jan	-957
čne	-958
▁dan	-959
com	-960
▁pet	-961
▁osje	-962
zne	-963
▁ope	-964
▁tek	-965
▁dese	-966
▁vam	-967
▁ćemo	-968
▁reprezenta	-969
tke	-970
▁Vo	-971
▁voj	-972
▁razli	-973
▁prosto	-974
▁događa	-975
▁Ku	-976
žno	-977
▁Europ	-978
▁veći	-979
ver	-980
▁svojim	-981
tio	-982
dri	-983
stri	-984
▁susta	-985
▁smje	-986
jih	-987
▁gu	-988
▁Kako	-989
nera	-990
▁De	-991
▁svoju	-992
▁projek	-993
▁kroz	-994
',	-995
čni	-996
nj	-997
▁Ga	-998
kle	-999
▁njih	-1000
▁čak	-1001
▁naše	-1002
▁oni	-1003
▁rea	-1004
▁joj	-1005
▁Osi	-1006
▁dola	-1007
▁10	-1008
▁poku	-1009
▁progra	-1010
roja	-1011
stak	-1012
▁poslo	-1013
nske	-1014
kr	-1015
▁ču	-1016
▁mom	-1017
rali	-1018
vanju	-1019
6.	-1020
▁tak	-1021
▁četvr	-1022
riti	-1023
▁predsjednik	-1024
čić	-1025
raž	-1026
ški	-1027
▁kvali	-1028
▁loka	-1029
▁također	-1030
▁ak	-1031
▁mjesto	-1032
8.	-1033
vac	-1034
▁gleda	-1035
▁puta	-1036
▁veliki	-1037
vnosti	-1038
▁poput	-1039
▁hi	-1040
▁minu	-1041
▁ula	-1042
▁pora	-1043
▁ono	-1044
▁Ukraji	-1045
▁ras	-1046
▁pripre	-1047
šli	-1048
▁zajedni	-1049
7.	-1050
▁prven	-1051
▁vra	-1052
nače	-1053
čiti	-1054
▁osoba	-1055
▁zašti	-1056
▁svjet	-1057
rna	-1058
▁glaz	-1059
dije	-1060
▁uda	-1061
▁građa	-1062
▁prona	-1063
▁osigu	-1064
ncija	-1065
ndida	-1066
▁jednom	-1067
▁koliko	-1068
čili	-1069
▁izja	-1070
nka	-1071
▁vodi	-1072
▁Si	-1073
uze	-1074
▁napa	-1075
movi	-1076
vijesti	-1077
▁Ako	-1078
▁ge	-1079
▁grad	-1080
vede	-1081
ks	-1082
tna	-1083
▁društve	-1084
bora	-1085
▁bra	-1086
govara	-1087
nula	-1088
štu	-1089
ksi	-1090
▁konce	-1091
▁mnog	-1092
▁ovaj	-1093
čkih	-1094
▁način	-1095
▁utakmice	-1096
▁četiri	-1097
▁sli	-1098
▁zat	-1099
▁tada	-1100
▁ime	-1101
▁tisu	-1102
šnje	-1103
▁15	-1104
▁dugo	-1105
▁pret	-1106
▁druge	-1107
▁smatra	-1108
vor	-1109
▁Dinamo	-1110
▁jedi	-1111
ćem	-1112
▁nastu	-1113
cijama	-1114
▁osvoji	-1115
▁odnosno	-1116
▁neka	-1117
▁Tako	-1118
sao	-1119
nali	-1120
▁europ	-1121
DZ	-1122
tor	-1123
rac	-1124
sle	-1125
nova	-1126
▁istak	-1127
hva	-1128
▁vidje	-1129
▁službe	-1130
tima	-1131
▁preko	-1132
▁naja	-1133
▁vrati	-1134
sne	-1135
▁spa	-1136
▁ši	-1137
stvu	-1138
▁ure	-1139
vesti	-1140
▁sura	-1141
slu	-1142
nke	-1143
rica	-1144
▁Fran	-1145
plo	-1146
menti	-1147
▁fi	-1148
▁Vu	-1149
▁piše	-1150
▁glu	-1151
▁zra	-1152
▁foto	-1153
▁lu	-1154
▁pokuša	-1155
▁kandida	-1156
▁obitelji	-1157
vnih	-1158
njak	-1159
▁Iva	-1160
▁razi	-1161
šnji	-1162
▁bli	-1163
▁dogodi	-1164
čkom	-1165
pusti	-1166
mati	-1167
▁sezone	-1168
▁imao	-1169
▁tko	-1170
▁pokre	-1171
▁tom	-1172
▁ulo	-1173
mobi	-1174
▁HDZ	-1175
čkoj	-1176
▁želi	-1177
▁promje	-1178
ranje	-1179
lima	-1180
▁kul	-1181
▁akti	-1182
▁zdrav	-1183
dam	-1184
▁Au	-1185
▁Varaž	-1186
▁strane	-1187
lna	-1188
▁spre	-1189
▁Di	-1190
pozna	-1191
ljivo	-1192
▁manje	-1193
mpa	-1194
▁nu	-1195
▁cr	-1196
▁skupi	-1197
▁susre	-1198
ljede	-1199
▁primje	-1200
vra	-1201
▁mladi	-1202
▁pone	-1203
glasi	-1204
▁natjeca	-1205
co	-1206
▁regi	-1207
dila	-1208
ške	-1209
▁vremena	-1210
▁Naj	-1211
rala	-1212
▁vije	-1213
▁zaklju	-1214
sna	-1215
men	-1216
▁župa	-1217
▁pokaza	-1218
per	-1219
đen	-1220
▁život	-1221
▁vlasti	-1222
čer	-1223
▁završi	-1224
▁ener	-1225
žda	-1226
▁EU	-1227
▁vas	-1228
▁odre	-1229
▁poveća	-1230
▁potvr	-1231
▁koristi	-1232
cama	-1233
pru	-1234
▁al	-1235
▁inter	-1236
▁navija	-1237
dili	-1238
▁svih	-1239
▁pravo	-1240
mir	-1241
teta	-1242
fa	-1243
▁12	-1244
ljem	-1245
▁neo	-1246
lnih	-1247
▁imati	-1248
prije	-1249
▁pote	-1250
▁sasta	-1251
▁svako	-1252
nk	-1253
lić	-1254
jedi	-1255
▁Među	-1256
▁unu	-1257
▁mjesta	-1258
mogu	-1259
▁kraju	-1260
▁Al	-1261
▁njega	-1262
oj	-1263
šla	-1264
mr	-1265
▁automobi	-1266
ovje	-1267
▁kru	-1268
▁rad	-1269
▁gotovo	-1270
rod	-1271
▁fotogra	-1272
▁informa	-1273
9.	-1274
▁poda	-1275
▁ljuba	-1276
▁ostva	-1277
▁Dra	-1278
▁Ima	-1279
▁tere	-1280
▁bri	-1281
čna	-1282
▁teško	-1283
▁vode	-1284
▁oda	-1285
jka	-1286
raju	-1287
▁potpu	-1288
rvi	-1289
čan	-1290
▁sudje	-1291
cio	-1292
rka	-1293
▁viso	-1294
▁Milano	-1295
pnja	-1296
ID	-1297
▁bude	-1298
jemo	-1299
pravo	-1300
snije	-1301
▁Ova	-1302
▁bit	-1303
rane	-1304
zni	-1305
rovi	-1306
▁Zagrebu	-1307
nskog	-1308
▁kazao	-1309
▁suda	-1310
logi	-1311
čaj	-1312
▁Tre	-1313
▁ovom	-1314
▁Pi	-1315
kova	-1316
dovi	-1317
▁proda	-1318
šić	-1319
lnog	-1320
▁odu	-1321
▁uči	-1322
▁naši	-1323
▁Srbi	-1324
▁rje	-1325
▁mogao	-1326
▁teh	-1327
▁Ali	-1328
▁prati	-1329
ture	-1330
▁isku	-1331
▁polu	-1332
▁Njema	-1333
hvati	-1334
▁posebno	-1335
▁kojeg	-1336
kve	-1337
▁supru	-1338
▁kolo	-1339
▁nagra	-1340
▁Plen	-1341
▁teme	-1342
▁nesre	-1343
▁momča	-1344
rtu	-1345
novi	-1346
▁organiza	-1347
▁godinu	-1348
▁ameri	-1349
▁kazne	-1350
šnja	-1351
▁Ovo	-1352
▁obitelj	-1353
riji	-1354
fo	-1355
bor	-1356
▁Fi	-1357
pred	-1358
▁gospo	-1359
kav	-1360
▁Ši	-1361
▁Ho	-1362
▁part	-1363
esti	-1364
▁premije	-1365
▁izgu	-1366
▁glazbe	-1367
▁knji	-1368
blje	-1369
rić	-1370
▁Ti	-1371
▁ovog	-1372
▁podr	-1373
▁odma	-1374
▁stude	-1375
slim	-1376
tara	-1377
▁nedje	-1378
lio	-1379
ak	-1380
▁2024.	-1381
▁So	-1382
vica	-1383
▁tim	-1384
▁prvo	-1385
▁dra	-1386
▁djela	-1387
mpe	-1388
▁one	-1389
▁sredi	-1390
▁obo	-1391
▁Ivan	-1392
▁ništa	-1393
mp	-1394
▁napisa	-1395
EO	-1396
titi	-1397
panjo	-1398
▁podu	-1399
▁Iako	-1400
▁bolni	-1401
ck	-1402
čku	-1403
▁Ri	-1404
▁karije	-1405
▁svom	-1406
▁mode	-1407
▁napada	-1408
▁mjestu	-1409
▁11	-1410
govi	-1411
zak	-1412
▁nosi	-1413
▁Mu	-1414
▁Što	-1415
▁vide	-1416
▁Tru	-1417
ch	-1418
cje	-1419
▁baš	-1420
jske	-1421
tki	-1422
▁neke	-1423
▁sport	-1424
vnim	-1425
▁ok	-1426
publi	-1427
▁dire	-1428
▁Dubro	-1429
▁Fo	-1430
▁zado	-1431
IDEO	-1432
▁pru	-1433
tali	-1434
▁posla	-1435
▁pitanje	-1436
▁muška	-1437
▁financi	-1438
nzi	-1439
▁200	-1440
▁sebe	-1441
-1	-1442
▁=	-1443
▁upozo	-1444
▁odra	-1445
▁posti	-1446
▁vidi	-1447
▁važ	-1448
▁Rusi	-1449
▁osjeća	-1450
loga	-1451
▁klju	-1452
tet	-1453
▁subo	-1454
čima	-1455
▁prizna	-1456
▁=>	-1457
▁tran	-1458
▁deset	-1459
tkom	-1460
▁uli	-1461
▁VIDEO	-1462
som	-1463
glo	-1464
žiti	-1465
mina	-1466
gom	-1467
nča	-1468
▁uspo	-1469
▁šest	-1470
▁18	-1471
čkim	-1472
dnja	-1473
rojatno	-1474
panjol	-1475
▁pjes	-1476
▁čeka	-1477
nata	-1478
lnim	-1479
▁izda	-1480
▁često	-1481
▁Sla	-1482
▁nove	-1483
pio	-1484
ljak	-1485
▁minuti	-1486
▁izgleda	-1487
kuje	-1488
▁stvari	-1489
▁opo	-1490
▁otvore	-1491
bar	-1492
▁Fa	-1493
▁osno	-1494
TO	-1495
lnik	-1496
▁slobo	-1497
▁naš	-1498
njoj	-1499
▁rodi	-1500
▁priča	-1501
▁pomoć	-1502
▁raspo	-1503
▁najbolji	-1504
▁(1	-1505
▁bih	-1506
▁oti	-1507
▁svim	-1508
▁obzi	-1509
▁ponu	-1510
▁kraja	-1511
▁njegovo	-1512
▁promet	-1513
ćih	-1514
fina	-1515
▁njima	-1516
▁spe	-1517
DP	-1518
miš	-1519
nde	-1520
▁bor	-1521
▁novina	-1522
digra	-1523
▁dosta	-1524
misi	-1525
▁nisam	-1526
limpi	-1527
▁napo	-1528
bre	-1529
▁imali	-1530
▁dobio	-1531
▁predsjednika	-1532
vjetni	-1533
▁vlasni	-1534
▁stru	-1535
ali	-1536
▁vozila	-1537
▁svijetu	-1538
▁gru	-1539
▁bolje	-1540
▁grado	-1541
stro	-1542
▁utjeca	-1543
▁ministar	-1544
njima	-1545
▁minuta	-1546
▁Prema	-1547
▁istraži	-1548
▁30	-1549
▁pobije	-1550
▁života	-1551
▁fu	-1552
▁uo	-1553
▁optu	-1554
stima	-1555
▁utakmica	-1556
tnih	-1557
▁Ministar	-1558
▁Ca	-1559
▁upravo	-1560
jna	-1561
▁poma	-1562
▁dodao	-1563
▁ugovo	-1564
▁kr	-1565
rili	-1566
▁Uz	-1567
▁navo	-1568
▁And	-1569
nuli	-1570
▁Poli	-1571
▁uključu	-1572
▁Nije	-1573
▁Zagreba	-1574
rem	-1575
▁djece	-1576
nce	-1577
spe	-1578
jski	-1579
▁kraj	-1580
vnika	-1581
▁druga	-1582
jima	-1583
▁svaki	-1584
▁možda	-1585
gova	-1586
▁opa	-1587
▁bole	-1588
nga	-1589
▁pona	-1590
ved	-1591
ranja	-1592
▁raču	-1593
▁Op	-1594
AD	-1595
nca	-1596
kva	-1597
▁bla	-1598
▁njegov	-1599
čila	-1600
che	-1601
▁njegova	-1602
bili	-1603
kako	-1604
it	-1605
opće	-1606
vca	-1607
▁mnogi	-1608
▁Pred	-1609
rice	-1610
▁tisuća	-1611
vnik	-1612
▁trži	-1613
lina	-1614
▁Sta	-1615
▁zajedno	-1616
▁poz	-1617
▁Grad	-1618
▁ipak	-1619
▁nalazi	-1620
▁prvaka	-1621
rina	-1622
▁Izra	-1623
san	-1624
▁[	-1625
▁13	-1626
nicu	-1627
▁tele	-1628
▁čovje	-1629
▁Slo	-1630
▁Lju	-1631
▁ispo	-1632
laz	-1633
šku	-1634
▁predstavlja	-1635
▁poči	-1636
▁omogu	-1637
▁uče	-1638
mom	-1639
rava	-1640
nović	-1641
tura	-1642
dnika	-1643
▁uži	-1644
▁stano	-1645
godišnji	-1646
▁problem	-1647
▁neza	-1648
▁vrijedno	-1649
▁kasnije	-1650
žio	-1651
▁izvo	-1652
šlo	-1653
▁odmah	-1654
▁hrvatski	-1655
▁ukup	-1656
zima	-1657
zem	-1658
▁idu	-1659
▁kaza	-1660
vdje	-1661
▁Dru	-1662
▁struč	-1663
▁Ze	-1664
slo	-1665
▁sklo	-1666
▁dolazi	-1667
▁nogomet	-1668
▁sred	-1669
▁kole	-1670
▁Zagreb	-1671
▁području	-1672
▁pol	-1673
greba	-1674
▁ponovno	-1675
▁utakmicu	-1676
▁elek	-1677
▁nedo	-1678
vez	-1679
▁jednu	-1680
▁Y	-1681
▁kla	-1682
▁kontro	-1683
šće	-1684
mpera	-1685
▁proce	-1686
▁odigra	-1687
▁Republi	-1688
▁Ameri	-1689
▁prošle	-1690
▁smi	-1691
▁mogli	-1692
kama	-1693
▁(2	-1694
tori	-1695
▁znači	-1696
nena	-1697
vaja	-1698
veo	-1699
ktor	-1700
▁zapa	-1701
ivo	-1702
▁iako	-1703
zuje	-1704
▁kvalite	-1705
▁svog	-1706
▁usta	-1707
čnih	-1708
teljima	-1709
▁Že	-1710
▁sud	-1711
▁odje	-1712
▁možete	-1713
voljno	-1714
vjet	-1715
đena	-1716
laze	-1717
▁osobe	-1718
▁inf	-1719
lnu	-1720
▁Ki	-1721
▁plaća	-1722
dnjih	-1723
▁imamo	-1724
▁zagreba	-1725
ry	-1726
bom	-1727
▁niti	-1728
▁osu	-1729
▁javno	-1730
▁sljede	-1731
▁Bar	-1732
▁odli	-1733
▁voza	-1734
kaza	-1735
▁sce	-1736
▁komu	-1737
▁Naime	-1738
▁djelo	-1739
rske	-1740
▁jednog	-1741
▁trenutku	-1742
▁neu	-1743
▁čini	-1744
▁upravlja	-1745
▁kilo	-1746
LE	-1747
▁0	-1748
▁zlo	-1749
piti	-1750
lih	-1751
▁Kad	-1752
lma	-1753
jeva	-1754
lovi	-1755
ravno	-1756
▁najviše	-1757
đenje	-1758
▁1.	-1759
▁eki	-1760
br	-1761
▁novo	-1762
▁ž	-1763
▁zato	-1764
rila	-1765
stitu	-1766
tnu	-1767
renje	-1768
▁izgra	-1769
dina	-1770
▁Osim	-1771
▁Co	-1772
▁Kra	-1773
▁posao	-1774
▁Pod	-1775
▁trener	-1776
▁toliko	-1777
ksu	-1778
▁HN	-1779
▁grada	-1780
▁postoji	-1781
▁profe	-1782
▁energi	-1783
mbe	-1784
lija	-1785
▁publi	-1786
nike	-1787
ris	-1788
▁obzirom	-1789
▁14	-1790
lar	-1791
▁zako	-1792
▁moguć	-1793
▁2023.	-1794
nska	-1795
▁Zo	-1796
vizi	-1797
▁kojim	-1798
▁zahtje	-1799
▁for	-1800
telje	-1801
▁prava	-1802
▁ranije	-1803
▁radio	-1804
▁reći	-1805
rnost	-1806
▁Niko	-1807
▁pomoći	-1808
▁ponedje	-1809
šenje	-1810
nac	-1811
▁Hrvatsku	-1812
▁kluba	-1813
▁naciona	-1814
▁unutar	-1815
ati	-1816
▁ozbi	-1817
▁tamo	-1818
hr	-1819
▁policija	-1820
dnju	-1821
▁mjeseci	-1822
rma	-1823
▁zašto	-1824
▁izazo	-1825
▁igrača	-1826
▁manda	-1827
čica	-1828
▁mno	-1829
▁Split	-1830
▁iznena	-1831
▁tempera	-1832
▁Pr	-1833
▁petak	-1834
▁17	-1835
▁sum	-1836
ll	-1837
zda	-1838
▁isko	-1839
teljica	-1840
▁svijeta	-1841
▁16	-1842
▁neda	-1843
▁produ	-1844
▁riječ	-1845
▁jednosta	-1846
lnom	-1847
▁Hajduk	-1848
▁una	-1849
▁čega	-1850
▁ozlije	-1851
vića	-1852
▁svojoj	-1853
▁zapravo	-1854
▁osob	-1855
▁utvr	-1856
▁objavio	-1857
veli	-1858
đeno	-1859
ćeg	-1860
cijom	-1861
▁tradi	-1862
io	-1863
ton	-1864
▁problema	-1865
kad	-1866
▁zau	-1867
tin	-1868
stava	-1869
bija	-1870
▁smr	-1871
▁24	-1872
▁deta	-1873
▁netko	-1874
▁raditi	-1875
▁Dana	-1876
▁klub	-1877
rnik	-1878
troga	-1879
▁brzo	-1880
▁upu	-1881
▁SAD	-1882
nad	-1883
▁25	-1884
▁ovi	-1885
▁zdravstve	-1886
▁srije	-1887
lost	-1888
▁kola	-1889
▁fotografi	-1890
sci	-1891
▁ću	-1892
mira	-1893
▁pore	-1894
šću	-1895
▁imala	-1896
ut	-1897
spi	-1898
▁Varaždin	-1899
▁preda	-1900
▁Josi	-1901
▁ša	-1902
drža	-1903
▁svega	-1904
mor	-1905
▁vidjeti	-1906
vnu	-1907
▁opre	-1908
▁mreža	-1909
▁komenti	-1910
▁nepo	-1911
▁možemo	-1912
▁zemlje	-1913
▁oto	-1914
▁velika	-1915
▁zahva	-1916
▁navodi	-1917
rd	-1918
ena	-1919
▁On	-1920
▁gospodar	-1921
▁kar	-1922
▁tog	-1923
▁promije	-1924
dija	-1925
nak	-1926
▁Šibe	-1927
▁misli	-1928
▁mogla	-1929
▁nesta	-1930
▁sedam	-1931
▁člano	-1932
vre	-1933
▁Mari	-1934
▁subotu	-1935
▁korisni	-1936
rba	-1937
20	-1938
struk	-1939
▁veza	-1940
▁prvom	-1941
▁kate	-1942
▁SDP	-1943
▁sja	-1944
▁zgra	-1945
▁pravi	-1946
▁zastup	-1947
lica	-1948
▁eks	-1949
▁intere	-1950
▁vjerojatno	-1951
tić	-1952
zma	-1953
▁oči	-1954
▁djevoj	-1955
▁najbolje	-1956
▁pjeva	-1957
gled	-1958
'.	-1959
tnika	-1960
▁slučaju	-1961
▁ovdje	-1962
▁izno	-1963
▁razvo	-1964
dnik	-1965
taka	-1966
▁osam	-1967
nskih	-1968
▁demo	-1969
▁brani	-1970
▁He	-1971
▁Kri	-1972
▁Kada	-1973
▁posjeti	-1974
▁šte	-1975
▁izvan	-1976
▁razdo	-1977
▁poduze	-1978
▁mene	-1979
▁veliko	-1980
voje	-1981
▁vjeru	-1982
▁film	-1983
▁podi	-1984
▁stvara	-1985
▁Đ	-1986
mišlja	-1987
den	-1988
ss	-1989
pisu	-1990
▁društvenim	-1991
gro	-1992
▁pola	-1993
terija	-1994
▁listo	-1995
tr	-1996
▁funk	-1997
nove	-1998
▁eko	-1999
▁trav	-2000
▁komenta	-2001
▁priliku	-2002
▁sko	-2003
kuplja	-2004
boj	-2005
▁priva	-2006
▁Francu	-2007
▁Plenković	-2008
▁Če	-2009
▁2022.	-2010
▁Veli	-2011
▁priro	-2012
▁potpuno	-2013
▁rada	-2014
fika	-2015
▁199	-2016
ima	-2017
nin	-2018
▁opet	-2019
▁razgovo	-2020
tem	-2021
▁odvjetni	-2022
▁očeki	-2023
▁drugih	-2024
liti	-2025
▁vlada	-2026
▁nedjelju	-2027
,5	-2028
vrše	-2029
▁izvje	-2030
▁svojih	-2031
▁sudjelo	-2032
▁udru	-2033
▁drugom	-2034
▁genera	-2035
▁tru	-2036
▁boga	-2037
▁gol	-2038
▁PO	-2039
ista	-2040
▁ozbilj	-2041
šava	-2042
▁pogleda	-2043
nte	-2044
▁kultu	-2045
▁50	-2046
ranu	-2047
▁biv	-2048
osta	-2049
žava	-2050
▁puto	-2051
▁sprem	-2052
▁vrhu	-2053
▁Međutim	-2054
▁Španjol	-2055
TE	-2056
▁bile	-2057
▁zaba	-2058
▁domaći	-2059
▁ha	-2060
▁doku	-2061
▁tjedna	-2062
godišnja	-2063
tog	-2064
žić	-2065
▁podije	-2066
▁dosa	-2067
▁smije	-2068
▁odnosu	-2069
▁stoji	-2070
▁Milanović	-2071
▁uto	-2072
tica	-2073
▁povje	-2074
▁Gla	-2075
stupa	-2076
▁namje	-2077
▁Sto	-2078
▁parla	-2079
▁istaknuo	-2080
▁snim	-2081
dić	-2082
lin	-2083
pita	-2084
▁turni	-2085
jno	-2086
▁trans	-2087
gen	-2088
▁Andre	-2089
30	-2090
▁jezi	-2091
▁povije	-2092
manje	-2093
čnu	-2094
voza	-2095
ster	-2096
▁gradonače	-2097
▁povra	-2098
▁hrvatske	-2099
▁kona	-2100
▁igrati	-2101
▁ponedjeljak	-2102
▁uslu	-2103
▁objasni	-2104
▁Ar	-2105
▁mini	-2106
▁prosje	-2107
▁dovoljno	-2108
▁nogometa	-2109
tt	-2110
▁Bra	-2111
▁Ivana	-2112
biti	-2113
dana	-2114
▁donije	-2115
son	-2116
tnog	-2117
▁ugo	-2118
ple	-2119
▁ogra	-2120
▁100	-2121
plit	-2122
▁mije	-2123
▁pisa	-2124
▁trebao	-2125
▁čla	-2126
▁proje	-2127
▁godini	-2128
vrši	-2129
ksa	-2130
▁dogovo	-2131
AJ	-2132
▁Sva	-2133
đenja	-2134
▁vatroga	-2135
▁ovu	-2136
▁žena	-2137
žan	-2138
▁Hrva	-2139
poru	-2140
▁nastupa	-2141
▁turisti	-2142
▁katego	-2143
tine	-2144
▁Kao	-2145
▁skla	-2146
▁zaposle	-2147
slav	-2148
▁Marko	-2149
rži	-2150
dro	-2151
▁potom	-2152
zor	-2153
▁ar	-2154
▁obilje	-2155
šno	-2156
▁sami	-2157
▁djecu	-2158
▁prome	-2159
dese	-2160
dite	-2161
▁hla	-2162
▁posve	-2163
stavlja	-2164
nicima	-2165
▁iznosi	-2166
▁bije	-2167
vlju	-2168
dnici	-2169
▁rata	-2170
▁ispri	-2171
▁izbora	-2172
▁sije	-2173
▁prve	-2174
▁lop	-2175
▁srijedu	-2176
▁bira	-2177
▁kriti	-2178
đeni	-2179
ment	-2180
▁kuće	-2181
▁dijete	-2182
nskom	-2183
misli	-2184
▁turi	-2185
▁zara	-2186
▁Dinama	-2187
▁dne	-2188
sob	-2189
▁nova	-2190
▁osim	-2191
▁nismo	-2192
tnom	-2193
▁pretho	-2194
▁mnogo	-2195
▁jasno	-2196
▁planira	-2197
▁aktivnosti	-2198
sima	-2199
▁Zbog	-2200
▁potencija	-2201
rska	-2202
emo	-2203
▁bivši	-2204
▁putem	-2205
▁poveza	-2206
dak	-2207
ete	-2208
njeg	-2209
glasio	-2210
▁buduć	-2211
▁NA	-2212
njom	-2213
▁veče	-2214
▁preki	-2215
▁bodova	-2216
▁pojedi	-2217
žili	-2218
▁znam	-2219
▁ban	-2220
▁sata	-2221
▁Prije	-2222
vljen	-2223
▁upozna	-2224
ntra	-2225
▁maj	-2226
▁prote	-2227
rano	-2228
rp	-2229
▁emo	-2230
▁pozo	-2231
ndo	-2232
čnim	-2233
▁dijelu	-2234
mio	-2235
▁Zna	-2236
▁nikad	-2237
▁prepozna	-2238
▁Luka	-2239
▁ćete	-2240
▁postoje	-2241
▁stranke	-2242
bina	-2243
▁posje	-2244
bila	-2245
▁obu	-2246
vanjem	-2247
čita	-2248
▁nama	-2249
▁festi	-2250
nal	-2251
▁šu	-2252
▁kojih	-2253
nicama	-2254
▁izbje	-2255
▁metara	-2256
▁rezultat	-2257
jar	-2258
dnom	-2259
▁došao	-2260
veza	-2261
▁Svi	-2262
▁ispu	-2263
▁slije	-2264
▁velike	-2265
▁Gr	-2266
kata	-2267
lnoj	-2268
▁srp	-2269
▁razu	-2270
▁poseb	-2271
▁ispred	-2272
▁povijesti	-2273
kna	-2274
ogra	-2275
upa	-2276
▁doži	-2277
▁potra	-2278
vama	-2279
▁Bri	-2280
rena	-2281
tova	-2282
▁zemlji	-2283
▁Gu	-2284
▁dobiti	-2285
tina	-2286
štva	-2287
▁potro	-2288
šenja	-2289
▁doći	-2290
▁utakmici	-2291
dnu	-2292
▁nazi	-2293
▁kampa	-2294
▁moguće	-2295
dima	-2296
lnosti	-2297
▁zamje	-2298
miti	-2299
vremeno	-2300
kvi	-2301
zija	-2302
▁Grada	-2303
▁utorak	-2304
▁priprema	-2305
▁Vje	-2306
▁deve	-2307
vora	-2308
▁tehno	-2309
▁razini	-2310
sak	-2311
zam	-2312
tnim	-2313
rnoj	-2314
jedno	-2315
▁nado	-2316
▁Republike	-2317
kić	-2318
▁Dan	-2319
nciji	-2320
▁sjeve	-2321
ur	-2322
vci	-2323
▁at	-2324
▁svima	-2325
pis	-2326
▁spome	-2327
▁mirovi	-2328
▁zo	-2329
▁oru	-2330
▁svib	-2331
wa	-2332
▁Ke	-2333
vite	-2334
ljena	-2335
▁drugim	-2336
▁mjeseca	-2337
▁21	-2338
▁kup	-2339
▁institu	-2340
▁zla	-2341
▁škole	-2342
▁cijene	-2343
nić	-2344
loba	-2345
▁uhi	-2346
▁Splitu	-2347
▁poslije	-2348
tnoj	-2349
▁značaj	-2350
nite	-2351
▁BiH	-2352
ljiva	-2353
▁osvojio	-2354
rski	-2355
▁split	-2356
▁ig	-2357
▁Bro	-2358
▁time	-2359
▁obrazo	-2360
▁investi	-2361
th	-2362
▁osobi	-2363
▁zanim	-2364
▁momčad	-2365
renja	-2366
kretni	-2367
▁donosi	-2368
▁Ce	-2369
▁pak	-2370
▁čita	-2371
▁ža	-2372
▁glaso	-2373
gnu	-2374
▁obli	-2375
▁glasa	-2376
is	-2377
▁godinama	-2378
▁županije	-2379
đene	-2380
▁otvori	-2381
▁anali	-2382
▁ističe	-2383
vnoj	-2384
▁prosi	-2385
▁rizi	-2386
žen	-2387
▁šo	-2388
lov	-2389
limpij	-2390
▁gradu	-2391
▁Rijeka	-2392
▁mrežama	-2393
▁Ci	-2394
▁Spo	-2395
▁izlo	-2396
▁uključujući	-2397
šiti	-2398
▁suko	-2399
▁cijena	-2400
▁nedosta	-2401
▁Drža	-2402
od	-2403
tora	-2404
▁psi	-2405
fere	-2406
▁emisi	-2407
ndar	-2408
▁dobar	-2409
▁dolara	-2410
▁rade	-2411
tnosti	-2412
▁ljude	-2413
▁tvrtke	-2414
▁pobjedu	-2415
ana	-2416
▁niz	-2417
▁tih	-2418
▁zvije	-2419
▁Hajduka	-2420
▁moći	-2421
▁traja	-2422
▁moraju	-2423
▁Također	-2424
line	-2425
▁moglo	-2426
▁njemu	-2427
▁glavni	-2428
▁milijar	-2429
▁okru	-2430
▁snage	-2431
▁sustav	-2432
▁pobjede	-2433
▁projekt	-2434
svje	-2435
▁naro	-2436
▁izbor	-2437
▁međuna	-2438
▁40	-2439
▁njegove	-2440
ngle	-2441
▁ple	-2442
čenje	-2443
▁član	-2444
▁tvrdi	-2445
▁lipnja	-2446
lak	-2447
pom	-2448
tih	-2449
žnje	-2450
▁hrvatskih	-2451
▁napraviti	-2452
der	-2453
▁javnosti	-2454
▁koli	-2455
štvo	-2456
ban	-2457
ljen	-2458
lla	-2459
čar	-2460
stre	-2461
ženje	-2462
▁savje	-2463
▁zatim	-2464
▁medici	-2465
▁čemu	-2466
▁njema	-2467
▁poručio	-2468
toč	-2469
▁obje	-2470
▁ovoj	-2471
▁Vlade	-2472
▁novih	-2473
kul	-2474
▁Doda	-2475
▁prvog	-2476
▁izaz	-2477
▁dobili	-2478
▁Foto	-2479
▁sebi	-2480
vljena	-2481
▁postao	-2482
jopri	-2483
▁poža	-2484
▁Modri	-2485
▁trgovi	-2486
▁objavila	-2487
▁nedavno	-2488
▁hote	-2489
▁prvu	-2490
▁žele	-2491
▁Opći	-2492
stagra	-2493
▁program	-2494
▁gr	-2495
▁hrvatskog	-2496
zuju	-2497
▁ovih	-2498
▁zaslu	-2499
ela	-2500
em	-2501
▁toj	-2502
vlada	-2503
▁Fili	-2504
gdje	-2505
leko	-2506
ntar	-2507
vela	-2508
zije	-2509
cijski	-2510
▁dogodilo	-2511
jne	-2512
▁cilj	-2513
▁Domovi	-2514
To	-2515
LED	-2516
fije	-2517
▁Tra	-2518
vku	-2519
tera	-2520
loški	-2521
▁nada	-2522
▁diza	-2523
▁biste	-2524
mac	-2525
tivne	-2526
▁otvara	-2527
nila	-2528
▁novog	-2529
glavnom	-2530
žila	-2531
▁plo	-2532
učili	-2533
▁želje	-2534
▁situacija	-2535
niju	-2536
▁Kon	-2537
▁kva	-2538
▁nasi	-2539
▁postup	-2540
▁trenutno	-2541
mija	-2542
▁došlo	-2543
▁nikada	-2544
▁podrža	-2545
ljan	-2546
▁prošlo	-2547
tinu	-2548
▁trebalo	-2549
riju	-2550
▁St	-2551
erce	-2552
▁dija	-2553
▁izvr	-2554
▁izjavio	-2555
čak	-2556
▁Fe	-2557
▁HR	-2558
▁Pla	-2559
▁Ovaj	-2560
▁Marija	-2561
▁POG	-2562
pušta	-2563
▁svjedo	-2564
čnom	-2565
▁Danas	-2566
snu	-2567
krša	-2568
▁nitko	-2569
▁fizi	-2570
▁prosla	-2571
▁svijet	-2572
▁travnja	-2573
jni	-2574
zvo	-2575
▁novu	-2576
▁vaše	-2577
▁siječ	-2578
ktora	-2579
▁sustava	-2580
AJTE	-2581
▁Kar	-2582
▁sredst	-2583
liza	-2584
ramo	-2585
čnog	-2586
▁Novi	-2587
▁POGLED	-2588
▁popula	-2589
▁otkrila	-2590
▁Instagra	-2591
▁Mla	-2592
▁pogi	-2593
▁poslu	-2594
▁očekuje	-2595
▁meda	-2596
▁bismo	-2597
▁činje	-2598
▁mislim	-2599
▁započe	-2600
▁/	-2601
▁pobo	-2602
▁ispod	-2603
▁otkrio	-2604
▁zemlja	-2605
▁POGLEDAJTE	-2606
JE	-2607
▁zabio	-2608
▁Izrael	-2609
▁organizira	-2610
reni	-2611
stan	-2612
▁manji	-2613
gama	-2614
mini	-2615
čina	-2616
▁Sje	-2617
vljaju	-2618
matra	-2619
dnih	-2620
▁vanj	-2621
▁izborima	-2622
gor	-2623
lila	-2624
▁ponaša	-2625
▁strana	-2626
▁suo	-2627
ljeća	-2628
▁ravna	-2629
▁muškar	-2630
▁potreb	-2631
▁razvoj	-2632
Ne	-2633
▁kak	-2634
▁teni	-2635
▁djeca	-2636
▁njihove	-2637
:1	-2638
sh	-2639
igra	-2640
▁Har	-2641
▁sporta	-2642
žba	-2643
▁ad	-2644
laga	-2645
nsko	-2646
▁video	-2647
▁onih	-2648
▁isklju	-2649
▁terenu	-2650
vka	-2651
▁(3	-2652
tere	-2653
▁Tomi	-2654
▁snima	-2655
vnici	-2656
▁Može	-2657
blja	-2658
mica	-2659
▁stre	-2660
▁Svjet	-2661
▁države	-2662
▁momčadi	-2663
▁razmišlja	-2664
ćen	-2665
baci	-2666
▁igre	-2667
▁plat	-2668
▁igrač	-2669
▁provo	-2670
▁Hrvatski	-2671
▁sho	-2672
▁Predsjedni	-2673
šća	-2674
▁Vr	-2675
▁crve	-2676
▁New	-2677
▁indu	-2678
▁bolji	-2679
žni	-2680
▁San	-2681
▁partne	-2682
▁poljopri	-2683
pisao	-2684
▁kojom	-2685
eno	-2686
▁trebali	-2687
▁oduše	-2688
aj	-2689
zom	-2690
-2	-2691
gan	-2692
lnika	-2693
▁kući	-2694
▁potrebno	-2695
▁jedne	-2696
▁natje	-2697
▁prisu	-2698
njo	-2699
dnoj	-2700
tili	-2701
▁novac	-2702
▁njihov	-2703
▁ukraji	-2704
▁Pari	-2705
▁bolesti	-2706
▁poslova	-2707
lac	-2708
▁2.	-2709
vice	-2710
▁promjene	-2711
đuje	-2712
vljeni	-2713
▁životu	-2714
Po	-2715
▁rujna	-2716
▁prenosi	-2717
▁uni	-2718
▁ljudima	-2719
▁ljud	-2720
▁stvar	-2721
cem	-2722
▁FO	-2723
▁prilikom	-2724
▁posljednjih	-2725
▁he	-2726
▁Bilo	-2727
▁22	-2728
▁šan	-2729
ili	-2730
▁Ipak	-2731
▁lako	-2732
▁rado	-2733
▁opera	-2734
▁provje	-2735
▁smanji	-2736
▁najveći	-2737
▁svakodne	-2738
▁Ste	-2739
▁brzi	-2740
▁škola	-2741
;,	-2742
nijih	-2743
▁kame	-2744
▁mijenja	-2745
vča	-2746
sjetimo	-2747
▁stadio	-2748
▁policije	-2749
nstve	-2750
▁četvrtak	-2751
▁dro	-2752
▁sku	-2753
▁zadovolj	-2754
▁Slove	-2755
▁pitanja	-2756
▁prostor	-2757
▁Dje	-2758
▁Sre	-2759
ljenje	-2760
cha	-2761
▁izvijesti	-2762
▁Bio	-2763
▁odgovor	-2764
▁kažu	-2765
▁ulaga	-2766
▁napre	-2767
▁rekli	-2768
▁smanje	-2769
siona	-2770
▁projekta	-2771
kar	-2772
jskog	-2773
▁pada	-2774
metara	-2775
▁konku	-2776
lle	-2777
dnog	-2778
cijske	-2779
▁trebala	-2780
▁RT	-2781
▁zema	-2782
▁ispla	-2783
▁razloga	-2784
ini	-2785
▁okoli	-2786
▁umjetni	-2787
gne	-2788
▁dao	-2789
▁Tije	-2790
▁odgovara	-2791
kog	-2792
mos	-2793
▁doče	-2794
▁posljedi	-2795
rnosti	-2796
▁Europe	-2797
▁cijeli	-2798
▁ukupno	-2799
▁ožu	-2800
▁iznim	-2801
▁Cr	-2802
▁Ber	-2803
▁cje	-2804
sjeća	-2805
snih	-2806
▁premijer	-2807
bla	-2808
▁uzro	-2809
▁parki	-2810
▁srpnja	-2811
▁Oni	-2812
▁živi	-2813
▁prora	-2814
▁socija	-2815
▁korište	-2816
▁napisao	-2817
bur	-2818
▁pobolj	-2819
▁prijed	-2820
nese	-2821
▁elektri	-2822
▁nekretni	-2823
ila	-2824
ljeni	-2825
▁Dalma	-2826
▁pruža	-2827
▁sklopu	-2828
▁dodatno	-2829
▁materija	-2830
▁listopada	-2831
ber	-2832
▁ispriča	-2833
▁bes	-2834
▁moj	-2835
▁država	-2836
▁FOTO	-2837
▁reko	-2838
▁žene	-2839
▁računa	-2840
am	-2841
ine	-2842
▁pripa	-2843
▁vrata	-2844
▁nevje	-2845
▁umi	-2846
lazak	-2847
▁kupa	-2848
▁reak	-2849
▁mlade	-2850
▁1,	-2851
▁dati	-2852
▁rast	-2853
▁tiče	-2854
-0	-2855
▁uvo	-2856
▁Samo	-2857
on	-2858
▁Gor	-2859
▁Mate	-2860
▁reprezentacije	-2861
iti	-2862
▁am	-2863
▁lige	-2864
▁moramo	-2865
▁opasno	-2866
▁tjedan	-2867
koho	-2868
mili	-2869
raca	-2870
▁reda	-2871
▁Zadar	-2872
▁početka	-2873
▁epi	-2874
▁sadrža	-2875
▁Ukrajini	-2876
▁ovim	-2877
▁razgovara	-2878
▁Mislim	-2879
▁mladih	-2880
▁ostati	-2881
▁građana	-2882
▁dozna	-2883
▁previše	-2884
▁obe	-2885
▁kolu	-2886
▁predvi	-2887
▁uglavnom	-2888
▁podršku	-2889
▁jednostavno	-2890
▁Ge	-2891
pušte	-2892
▁pacije	-2893
ya	-2894
kim	-2895
rke	-2896
šio	-2897
▁hoće	-2898
▁Europi	-2899
fu	-2900
razu	-2901
▁god	-2902
tivno	-2903
▁koša	-2904
▁zada	-2905
▁barem	-2906
▁preuze	-2907
▁automobila	-2908
▁Par	-2909
▁dozvo	-2910
▁zemalja	-2911
▁drugog	-2912
▁prijatelj	-2913
▁Zla	-2914
▁vodst	-2915
klu	-2916
▁nekim	-2917
▁ulogu	-2918
tac	-2919
slje	-2920
snim	-2921
▁važno	-2922
▁dodaje	-2923
NA	-2924
▁veliku	-2925
;.	-2926
▁strate	-2927
▁kolovoza	-2928
▁sigurnosti	-2929
▁Rijeke	-2930
▁vrijednosti	-2931
▁ograni	-2932
▁prvenstva	-2933
▁X	-2934
snog	-2935
▁kli	-2936
vjeti	-2937
▁defi	-2938
▁priti	-2939
▁kuća	-2940
▁odluku	-2941
▁najmanje	-2942
ly	-2943
▁polo	-2944
vremenu	-2945
▁23	-2946
0.000	-2947
lijan	-2948
ras	-2949
tske	-2950
▁gubi	-2951
▁susje	-2952
▁dobila	-2953
ih	-2954
▁Bru	-2955
jutro	-2956
▁završe	-2957
▁kuha	-2958
▁norma	-2959
▁uopće	-2960
▁Tr	-2961
▁vike	-2962
▁prima	-2963
čuje	-2964
žena	-2965
skoro	-2966
▁čovjek	-2967
▁Europske	-2968
▁projekti	-2969
tski	-2970
▁Bje	-2971
▁Nova	-2972
▁navede	-2973
▁iskoristi	-2974
▁Trump	-2975
vid	-2976
mila	-2977
▁mobi	-2978
▁počinje	-2979
▁60	-2980
▁Još	-2981
▁RTL	-2982
▁dalj	-2983
▁ošte	-2984
ssi	-2985
▁velja	-2986
gno	-2987
bilje	-2988
▁premi	-2989
▁umjesto	-2990
▁hu	-2991
▁doka	-2992
▁diljem	-2993
▁polufina	-2994
▁programa	-2995
▁treni	-2996
rova	-2997
▁hra	-2998
▁brojne	-2999
▁odluka	-3000
50	-3001
▁fran	-3002
▁njezin	-3003
▁profi	-3004
▁izrael	-3005
▁troško	-3006
pad	-3007
ćeni	-3008
▁Raz	-3009
nskim	-3010
jedinje	-3011
▁različi	-3012
▁svibnja	-3013
▁direktor	-3014
čeni	-3015
▁uze	-3016
▁loše	-3017
▁Evo	-3018
▁gro	-3019
▁Usta	-3020
▁kompa	-3021
čen	-3022
luje	-3023
tiva	-3024
▁lak	-3025
▁putu	-3026
▁prila	-3027
▁stari	-3028
▁njihova	-3029
▁televizi	-3030
by	-3031
kove	-3032
vlji	-3033
▁utr	-3034
stina	-3035
▁opći	-3036
▁Jedan	-3037
▁priopće	-3038
▁Cha	-3039
▁w	-3040
▁naša	-3041
▁bivše	-3042
▁mjesec	-3043
▁naba	-3044
▁dopri	-3045
▁sazna	-3046
šati	-3047
▁meni	-3048
▁raspra	-3049
▁područja	-3050
▁nastaviti	-3051
kih	-3052
tek	-3053
škom	-3054
▁treći	-3055
▁izbore	-3056
▁presu	-3057
▁reagi	-3058
▁shvati	-3059
▁natjecanja	-3060
štvu	-3061
▁naših	-3062
▁alkoho	-3063
lena	-3064
▁Wa	-3065
▁zi	-3066
▁per	-3067
▁The	-3068
▁blo	-3069
▁ozna	-3070
▁traži	-3071
ing	-3072
▁žrt	-3073
▁posljednje	-3074
▁oruž	-3075
▁zausta	-3076
▁tehnologi	-3077
▁zrako	-3078
mer	-3079
▁Sti	-3080
▁devet	-3081
▁prosvje	-3082
ljev	-3083
▁nagla	-3084
rastruk	-3085
▁napusti	-3086
šni	-3087
▁oku	-3088
▁gola	-3089
▁prika	-3090
▁ljubav	-3091
▁ugovor	-3092
eli	-3093
▁(4	-3094
▁stručnja	-3095
val	-3096
tlji	-3097
njuje	-3098
▁jedin	-3099
▁obrane	-3100
kro	-3101
▁Upra	-3102
▁pitanju	-3103
▁prekrša	-3104
jska	-3105
▁Dok	-3106
▁zabra	-3107
celo	-3108
▁duž	-3109
▁2021.	-3110
▁napad	-3111
▁znaju	-3112
spje	-3113
▁atmos	-3114
▁dostup	-3115
podne	-3116
ad	-3117
formi	-3118
▁Nema	-3119
▁redu	-3120
▁seku	-3121
▁Tijekom	-3122
tila	-3123
▁Pra	-3124
▁igrao	-3125
BC	-3126
tije	-3127
turu	-3128
tnost	-3129
▁jugo	-3130
▁cijelo	-3131
RI	-3132
stom	-3133
▁dre	-3134
tija	-3135
▁sat	-3136
▁energe	-3137
▁tijelo	-3138
▁profesiona	-3139
▁okre	-3140
▁zadrža	-3141
eni	-3142
mbo	-3143
▁Ot	-3144
čenja	-3145
▁preh	-3146
Ccaron	-3147
▁gosti	-3148
▁tradiciona	-3149
▁liječ	-3150
▁zdravlje	-3151
▁ruko	-3152
▁aktua	-3153
ao	-3154
blju	-3155
lice	-3156
čine	-3157
▁asi	-3158
▁iznad	-3159
▁proraču	-3160
▁Taj	-3161
▁Radi	-3162
▁priop	-3163
▁vraća	-3164
▁događaja	-3165
ljene	-3166
žalost	-3167
▁3.	-3168
stao	-3169
▁tehni	-3170
▁odluke	-3171
▁Šu	-3172
▁pli	-3173
čitajte	-3174
▁tijela	-3175
▁njegovu	-3176
gh	-3177
▁20.	-3178
▁vratiti	-3179
▁iskustvo	-3180
▁sigurnost	-3181
▁Hu	-3182
nili	-3183
▁Jadra	-3184
▁stigao	-3185
▁francu	-3186
▁zabora	-3187
lmati	-3188
▁Vladi	-3189
▁ostao	-3190
▁sutra	-3191
▁izrazi	-3192
▁sprije	-3193
▁infrastruk	-3194
kta	-3195
▁jest	-3196
▁cesta	-3197
▁korak	-3198
▁traže	-3199
▁ostali	-3200
▁ujutro	-3201
▁Podsjetimo	-3202
▁Še	-3203
▁kontak	-3204
▁početkom	-3205
žne	-3206
▁finala	-3207
▁Hrvatskog	-3208
▁TV	-3209
čića	-3210
▁Sin	-3211
▁prvoj	-3212
▁zakon	-3213
▁majka	-3214
boo	-3215
dran	-3216
vilo	-3217
▁miš	-3218
▁koriste	-3219
skr	-3220
fici	-3221
▁boda	-3222
▁smrti	-3223
▁sudio	-3224
▁stvarno	-3225
▁Jako	-3226
▁Lige	-3227
▁Real	-3228
▁najva	-3229
▁mediji	-3230
▁zanima	-3231
▁energije	-3232
▁HNL	-3233
▁naz	-3234
feren	-3235
▁Osije	-3236
▁strani	-3237
▁informacije	-3238
▁HRT	-3239
kinja	-3240
▁identi	-3241
▁Stu	-3242
stati	-3243
dama	-3244
▁upa	-3245
▁tema	-3246
▁pristup	-3247
čice	-3248
▁Sada	-3249
▁borbe	-3250
▁navodno	-3251
▁ke	-3252
▁cent	-3253
▁čime	-3254
▁blizi	-3255
▁uspio	-3256
▁stanje	-3257
▁siječnja	-3258
▁Njemačkoj	-3259
▁ubr	-3260
▁ispa	-3261
▁nave	-3262
▁interne	-3263
▁najavio	-3264
▁prvenstvu	-3265
lega	-3266
▁zvu	-3267
▁Plenkovi	-3268
▁Kre	-3269
rtuga	-3270
▁učin	-3271
▁globa	-3272
▁završio	-3273
▁došli	-3274
▁hrane	-3275
:0	-3276
▁NATO	-3277
vljeno	-3278
▁klubo	-3279
▁prijet	-3280
▁prosinca	-3281
kov	-3282
mani	-3283
njen	-3284
▁skupine	-3285
ava	-3286
mnji	-3287
▁age	-3288
▁ski	-3289
▁posu	-3290
▁dolaze	-3291
gita	-3292
▁poh	-3293
▁anti	-3294
▁svemu	-3295
ćima	-3296
▁proizvoda	-3297
▁nju	-3298
ceboo	-3299
▁izmje	-3300
▁centra	-3301
▁daleko	-3302
var	-3303
▁evo	-3304
▁nau	-3305
vrije	-3306
▁Treba	-3307
▁novim	-3308
▁resto	-3309
▁seksu	-3310
yo	-3311
ala	-3312
▁Gru	-3313
ita	-3314
ziva	-3315
tnici	-3316
▁dodala	-3317
jam	-3318
▁proti	-3319
▁demokra	-3320
▁sezonu	-3321
▁odlučio	-3322
▁Zdra	-3323
▁mani	-3324
▁Beogra	-3325
▁procje	-3326
▁omogući	-3327
▁nastavlja	-3328
koj	-3329
▁noći	-3330
▁tvrtka	-3331
▁zahvalju	-3332
tnik	-3333
lnost	-3334
▁uoči	-3335
ir	-3336
ps	-3337
▁rat	-3338
▁nače	-3339
▁slučaj	-3340
▁supruga	-3341
kuju	-3342
rite	-3343
listi	-3344
čević	-3345
▁lege	-3346
▁ljeta	-3347
▁voli	-3348
▁čiji	-3349
▁Župa	-3350
▁znanstve	-3351
ćoj	-3352
žbi	-3353
▁Madri	-3354
▁protu	-3355
▁osvaja	-3356
qu	-3357
▁RH	-3358
▁Više	-3359
▁kape	-3360
▁vjero	-3361
▁radova	-3362
▁prostora	-3363
▁zabri	-3364
enje	-3365
mima	-3366
▁polica	-3367
▁mr	-3368
lili	-3369
nina	-3370
čeno	-3371
▁Vlada	-3372
▁kazali	-3373
jnu	-3374
ćom	-3375
čnoj	-3376
▁Prvi	-3377
▁postala	-3378
▁situaciju	-3379
▁savrše	-3380
▁komunika	-3381
▁kandidata	-3382
ženi	-3383
▁doba	-3384
▁proši	-3385
▁obzira	-3386
▁sposob	-3387
▁osobito	-3388
jskih	-3389
▁Isto	-3390
▁plaće	-3391
nsku	-3392
▁15.	-3393
vnost	-3394
▁nastup	-3395
▁pridru	-3396
vina	-3397
grama	-3398
stoji	-3399
▁mjere	-3400
▁uprave	-3401
▁primjer	-3402
▁pokazuje	-3403
ncu	-3404
▁Is	-3405
vici	-3406
rović	-3407
▁odgo	-3408
▁koali	-3409
▁kratko	-3410
sk	-3411
ram	-3412
▁sni	-3413
▁iste	-3414
▁Josip	-3415
▁ispra	-3416
▁sunča	-3417
▁mogućnost	-3418
▁parlamenta	-3419
dinu	-3420
vale	-3421
▁okvi	-3422
▁ruke	-3423
▁vezi	-3424
▁savez	-3425
▁kazala	-3426
▁životi	-3427
▁Policija	-3428
mena	-3429
▁redo	-3430
▁maksi	-3431
cionira	-3432
▁jednoj	-3433
▁drugači	-3434
▁Kla	-3435
ljeno	-3436
prili	-3437
▁Stra	-3438
▁nadle	-3439
▁svakom	-3440
ziju	-3441
▁upi	-3442
▁našim	-3443
▁prilika	-3444
▁prometa	-3445
▁prihvati	-3446
Na	-3447
▁Or	-3448
▁ek	-3449
▁gradonačelnik	-3450
▁Udru	-3451
ol	-3452
ćim	-3453
jama	-3454
▁koma	-3455
▁priče	-3456
▁nogome	-3457
▁svojom	-3458
▁zabilje	-3459
et	-3460
yja	-3461
rine	-3462
rnih	-3463
▁Car	-3464
▁održi	-3465
▁Srbije	-3466
▁riječi	-3467
▁uskoro	-3468
▁Faceboo	-3469
▁nakna	-3470
nku	-3471
▁imam	-3472
▁skup	-3473
▁traje	-3474
▁smjeru	-3475
▁društva	-3476
▁naravno	-3477
▁specija	-3478
▁vese	-3479
▁2025.	-3480
▁Itali	-3481
202	-3482
štine	-3483
Zcaron	-3484
▁jučer	-3485
▁sjeća	-3486
sen	-3487
▁ljubi	-3488
▁poklo	-3489
▁dijela	-3490
▁poziva	-3491
▁zaključio	-3492
jedna	-3493
▁zele	-3494
▁filma	-3495
▁inače	-3496
▁minute	-3497
mana	-3498
stiti	-3499
▁supro	-3500
▁ino	-3501
▁pala	-3502
▁imovi	-3503
▁društvo	-3504
▁napisala	-3505
▁pokazala	-3506
▁ap	-3507
▁preu	-3508
▁ozlje	-3509
▁dokumenta	-3510
▁Pročitajte	-3511
▁fotografije	-3512
ns	-3513
nicija	-3514
▁klubu	-3515
▁stabi	-3516
▁površi	-3517
▁susret	-3518
▁koristiti	-3519
nos	-3520
▁Ša	-3521
▁foku	-3522
▁nemaju	-3523
▁pjesme	-3524
▁stvori	-3525
▁zadovo	-3526
▁zaista	-3527
▁pokazao	-3528
▁preporu	-3529
lka	-3530
por	-3531
čena	-3532
▁odo	-3533
rnica	-3534
▁veze	-3535
▁vrti	-3536
zirati	-3537
▁intenzi	-3538
▁državlja	-3539
▁ca	-3540
niku	-3541
reno	-3542
▁nekih	-3543
▁pobjeda	-3544
▁susreta	-3545
▁poljoprivre	-3546
▁inci	-3547
lizira	-3548
▁drugu	-3549
▁studi	-3550
▁temperatura	-3551
Za	-3552
▁vru	-3553
ćenja	-3554
▁priho	-3555
JA	-3556
bru	-3557
zbo	-3558
▁Ona	-3559
rskoj	-3560
▁otac	-3561
▁stati	-3562
▁početku	-3563
zan	-3564
▁Os	-3565
žnju	-3566
▁Jer	-3567
▁Zato	-3568
▁umiro	-3569
▁kvalifika	-3570
sio	-3571
▁of	-3572
kade	-3573
▁radni	-3574
▁njezina	-3575
ld	-3576
▁7.	-3577
▁dubo	-3578
▁klasi	-3579
▁novca	-3580
▁građani	-3581
▁rješenje	-3582
▁17.	-3583
rnice	-3584
▁sabor	-3585
ljka	-3586
▁kće	-3587
▁anga	-3588
▁ugro	-3589
▁takav	-3590
▁postaje	-3591
rko	-3592
▁postati	-3593
ćuje	-3594
▁ići	-3595
▁Dakle	-3596
▁dobri	-3597
▁atmosfe	-3598
▁primije	-3599
▁trenera	-3600
mpi	-3601
dera	-3602
▁izd	-3603
▁mali	-3604
▁ovak	-3605
▁uboj	-3606
▁rođen	-3607
mpo	-3608
▁5.	-3609
škog	-3610
▁Mnog	-3611
▁moje	-3612
šnjava	-3613
▁Polju	-3614
▁našeg	-3615
gencije	-3616
▁napravio	-3617
▁kilometara	-3618
RA	-3619
▁26	-3620
▁sama	-3621
▁pogre	-3622
▁ozljede	-3623
▁karijere	-3624
▁90	-3625
▁novom	-3626
▁okupi	-3627
▁Bre	-3628
▁dođe	-3629
▁provodi	-3630
▁Kova	-3631
▁Mađa	-3632
▁albu	-3633
▁prihva	-3634
▁stanju	-3635
▁javnost	-3636
▁ljubavi	-3637
▁velikim	-3638
naca	-3639
vana	-3640
tivna	-3641
▁uspješ	-3642
\/	-3643
vec	-3644
dnim	-3645
▁Zoran	-3646
jati	-3647
▁Ško	-3648
laska	-3649
▁navode	-3650
▁pojača	-3651
▁Naciona	-3652
rin	-3653
snom	-3654
čara	-3655
plika	-3656
▁para	-3657
▁dobra	-3658
nose	-3659
▁Bla	-3660
godišnjeg	-3661
lli	-3662
znu	-3663
▁ska	-3664
▁Ante	-3665
▁derbi	-3666
▁Nikola	-3667
▁ostaje	-3668
gna	-3669
tle	-3670
đenih	-3671
▁Neki	-3672
▁obeća	-3673
▁#	-3674
kada	-3675
▁mnoge	-3676
▁cijelu	-3677
▁drugoj	-3678
▁svakako	-3679
▁stanovni	-3680
▁Vije	-3681
▁blag	-3682
▁koncert	-3683
▁potrebe	-3684
▁utje	-3685
▁Sara	-3686
▁2020.	-3687
▁izuze	-3688
▁potica	-3689
▁pogotovo	-3690
valo	-3691
veze	-3692
▁naru	-3693
▁Herce	-3694
▁počeo	-3695
▁ožujka	-3696
▁blizini	-3697
▁profeso	-3698
▁mogućnosti	-3699
vju	-3700
miru	-3701
nulo	-3702
rnici	-3703
▁škol	-3704
▁dvoji	-3705
▁promjena	-3706
▁plu	-3707
▁njim	-3708
▁Jan	-3709
▁Ono	-3710
▁noć	-3711
▁čet	-3712
brani	-3713
dnije	-3714
▁Cije	-3715
ljenja	-3716
▁snaga	-3717
▁uslije	-3718
▁izgubio	-3719
▁kulture	-3720
▁rezultate	-3721
▁11.	-3722
▁ovako	-3723
▁igrali	-3724
▁jedini	-3725
▁naglasio	-3726
ene	-3727
▁uređa	-3728
▁digita	-3729
▁eksplo	-3730
▁pjesmu	-3731
▁Portuga	-3732
▁uspjeli	-3733
ger	-3734
▁nao	-3735
▁fakul	-3736
▁pokreta	-3737
▁pronaći	-3738
▁politike	-3739
Mo	-3740
▁Hr	-3741
stoj	-3742
▁Anto	-3743
▁sina	-3744
▁skri	-3745
▁Maksi	-3746
▁došla	-3747
▁ovoga	-3748
▁probleme	-3749
▁sezoni	-3750
ker	-3751
bama	-3752
love	-3753
▁sin	-3754
▁asiste	-3755
raz	-3756
▁plan	-3757
▁povo	-3758
▁broja	-3759
▁Naravno	-3760
njih	-3761
teri	-3762
▁gosto	-3763
▁krajem	-3764
▁Dubrovnik	-3765
gresi	-3766
▁radu	-3767
▁Parizu	-3768
▁centar	-3769
▁sredstva	-3770
cka	-3771
▁ljeto	-3772
▁svake	-3773
▁ubije	-3774
▁finale	-3775
tru	-3776
jskom	-3777
▁kata	-3778
▁dosad	-3779
▁porta	-3780
▁znamo	-3781
▁medija	-3782
▁vratio	-3783
predsjedni	-3784
,2	-3785
zin	-3786
▁budućnosti	-3787
▁htje	-3788
▁nase	-3789
▁stro	-3790
▁poraza	-3791
▁kombina	-3792
▁intervju	-3793
vda	-3794
tost	-3795
ćena	-3796
▁obno	-3797
▁stup	-3798
▁Istra	-3799
▁usmje	-3800
▁naslov	-3801
godišnjak	-3802
čaje	-3803
▁Ove	-3804
▁nudi	-3805
▁Jedna	-3806
▁topli	-3807
▁najvaž	-3808
▁većina	-3809
▁Pogleda	-3810
▁okuplja	-3811
šića	-3812
▁Doma	-3813
▁reži	-3814
▁priču	-3815
▁prvih	-3816
▁mandata	-3817
▁zanimlji	-3818
teo	-3819
▁DP	-3820
ljep	-3821
štaj	-3822
▁Lasa	-3823
▁ocje	-3824
▁česti	-3825
▁raspore	-3826
▁automobil	-3827
▁(5	-3828
pora	-3829
▁udar	-3830
▁svlada	-3831
▁trebaju	-3832
sad	-3833
vcu	-3834
▁epizo	-3835
▁izved	-3836
▁podru	-3837
▁objasnio	-3838
▁prvenstvo	-3839
boru	-3840
▁12.	-3841
▁redovi	-3842
▁roditelji	-3843
gri	-3844
▁4.	-3845
minali	-3846
▁ekipa	-3847
▁građe	-3848
,3	-3849
lit	-3850
rup	-3851
▁Kr	-3852
voru	-3853
▁ukra	-3854
▁imate	-3855
▁postu	-3856
▁hrvatskom	-3857
▁Ministarstva	-3858
,4	-3859
dilo	-3860
▁ulaz	-3861
▁simbo	-3862
▁društvu	-3863
▁iznimno	-3864
▁trenutak	-3865
▁Predsjednik	-3866
vit	-3867
▁Ana	-3868
▁moja	-3869
▁mjera	-3870
▁završ	-3871
▁stranka	-3872
▁talijan	-3873
▁najboljih	-3874
mla	-3875
▁27	-3876
▁Gi	-3877
vile	-3878
đuju	-3879
▁zatvore	-3880
▁Ch	-3881
▁Fu	-3882
djela	-3883
▁zavo	-3884
▁unije	-3885
▁pokazuju	-3886
▁Tri	-3887
▁našu	-3888
▁kojemu	-3889
▁uspjeh	-3890
▁vjenča	-3891
▁glasova	-3892
▁prijevo	-3893
▁zajednice	-3894
min	-3895
šnjeg	-3896
▁uzbu	-3897
žnosni	-3898
▁konzu	-3899
▁Splita	-3900
▁učiniti	-3901
▁suradnji	-3902
-3	-3903
tira	-3904
▁198	-3905
▁dječ	-3906
▁iskre	-3907
us	-3908
cep	-3909
▁8.	-3910
▁povu	-3911
lacije	-3912
▁cilje	-3913
▁zamije	-3914
▁nesreće	-3915
VD	-3916
mrt	-3917
▁80	-3918
▁Ope	-3919
▁ele	-3920
njena	-3921
▁nega	-3922
▁finalu	-3923
▁inteli	-3924
▁osigura	-3925
žna	-3926
▁vid	-3927
tfina	-3928
šević	-3929
▁avio	-3930
▁dose	-3931
▁Super	-3932
▁loptu	-3933
▁statu	-3934
▁We	-3935
kati	-3936
nskoj	-3937
▁razo	-3938
▁dvoje	-3939
▁igrači	-3940
▁situacije	-3941
,1	-3942
▁vaš	-3943
skoga	-3944
zirao	-3945
zozem	-3946
▁regu	-3947
▁predi	-3948
▁Barcelo	-3949
▁potpisa	-3950
▁Tomislav	-3951
mova	-3952
nche	-3953
▁18.	-3954
▁pam	-3955
tković	-3956
▁migra	-3957
▁razlog	-3958
▁trenuta	-3959
▁informacija	-3960
les	-3961
▁Af	-3962
▁10.	-3963
▁svr	-3964
▁daje	-3965
▁znati	-3966
KO	-3967
▁35	-3968
njim	-3969
▁imena	-3970
:00	-3971
mentu	-3972
▁Toma	-3973
▁lijepo	-3974
▁inicija	-3975
▁zaštite	-3976
▁jedinstve	-3977
,8	-3978
BA	-3979
▁Ob	-3980
▁Mario	-3981
▁točno	-3982
▁autobu	-3983
▁Jadranu	-3984
▁bolnici	-3985
▁iskustva	-3986
▁reprezentacija	-3987
▁visi	-3988
▁ceste	-3989
▁očito	-3990
fer	-3991
▁Zako	-3992
▁diplo	-3993
▁Rusija	-3994
▁otišao	-3995
ler	-3996
▁Tko	-3997
▁Bran	-3998
▁odnos	-3999
▁popra	-4000
put	-4001
tive	-4002
▁Alek	-4003
▁lakše	-4004
▁objek	-4005
▁ulici	-4006
▁tržištu	-4007
▁posljednji	-4008
Ma	-4009
▁Ži	-4010
▁Turu	-4011
▁iska	-4012
▁vele	-4013
▁ljest	-4014
▁tvrde	-4015
▁zraka	-4016
▁Ć	-4017
nuta	-4018
cikli	-4019
▁opra	-4020
▁govore	-4021
▁poznati	-4022
▁list	-4023
▁obla	-4024
▁zvijezda	-4025
▁Prvo	-4026
▁navi	-4027
▁prakti	-4028
▁osvojila	-4029
▁potvrdio	-4030
OR	-4031
▁Cro	-4032
▁ruku	-4033
▁Osijek	-4034
▁kandidat	-4035
▁Instagramu	-4036
▁Ministarstvo	-4037
▁karijeri	-4038
▁poboljša	-4039
▁razumije	-4040
▁Pogledajte	-4041
▁super	-4042
▁tjele	-4043
▁javlja	-4044
▁odnosi	-4045
ica	-4046
▁vu	-4047
▁19.	-4048
▁Cit	-4049
▁sed	-4050
▁Peri	-4051
▁kreta	-4052
▁inozem	-4053
ljko	-4054
čava	-4055
▁21.	-4056
▁lice	-4057
▁svaka	-4058
▁prilago	-4059
ou	-4060
hom	-4061
ivot	-4062
vljuje	-4063
▁Andrej	-4064
▁Amerika	-4065
▁proizvođa	-4066
▁priopćenju	-4067
▁Eu	-4068
isto	-4069
komo	-4070
▁unutra	-4071
▁razdoblju	-4072
AR	-4073
nec	-4074
yer	-4075
▁70	-4076
jsku	-4077
▁Baby	-4078
▁bora	-4079
▁kupo	-4080
govarati	-4081
▁razvoja	-4082
reda	-4083
▁scena	-4084
▁incide	-4085
▁obrani	-4086
▁dužnosni	-4087
,6	-4088
tte	-4089
vani	-4090
ntima	-4091
proda	-4092
rnika	-4093
▁meta	-4094
tivnih	-4095
▁Sveučili	-4096
▁istraživanje	-4097
gara	-4098
▁Una	-4099
slava	-4100
▁poraz	-4101
▁stoga	-4102
▁postavlja	-4103
dove	-4104
▁ostale	-4105
▁pregovo	-4106
▁zad	-4107
nijeg	-4108
▁kapa	-4109
▁kora	-4110
▁onaj	-4111
▁Riječ	-4112
▁povijest	-4113
▁zrakoplo	-4114
SS	-4115
▁Dne	-4116
▁gre	-4117
▁karak	-4118
▁vidio	-4119
▁zatra	-4120
▁želim	-4121
▁vidjeli	-4122
▁dogodila	-4123
▁različiti	-4124
rnu	-4125
solu	-4126
vniku	-4127
▁moru	-4128
▁moto	-4129
▁veće	-4130
▁teren	-4131
▁tenisa	-4132
ama	-4133
lgi	-4134
ženo	-4135
▁Vin	-4136
▁njoj	-4137
▁osjeti	-4138
▁stigla	-4139
▁strada	-4140
▁radnika	-4141
▁hrvatska	-4142
▁komentirao	-4143
,7	-4144
▁196	-4145
presi	-4146
▁Bije	-4147
▁gori	-4148
▁klima	-4149
▁Olimpij	-4150
▁velikom	-4151
vak	-4152
enja	-4153
▁Ben	-4154
▁edu	-4155
ženja	-4156
▁oslo	-4157
▁Slavo	-4158
▁raste	-4159
▁upisa	-4160
▁stalno	-4161
▁govorio	-4162
▁partner	-4163
čari	-4164
▁Ban	-4165
▁Robe	-4166
▁borbi	-4167
▁nekada	-4168
▁serije	-4169
▁sezona	-4170
▁pohvali	-4171
▁zatvora	-4172
▁prijatelji	-4173
bav	-4174
etiri	-4175
▁more	-4176
▁listi	-4177
▁popla	-4178
▁privla	-4179
▁održati	-4180
pisi	-4181
dnica	-4182
▁Polj	-4183
▁svakog	-4184
▁unatoč	-4185
▁zakona	-4186
▁rješenja	-4187
▁odgovorio	-4188
▁Pose	-4189
▁našoj	-4190
▁psiho	-4191
▁sveča	-4192
rira	-4193
gurno	-4194
▁izvor	-4195
▁našem	-4196
▁zgrade	-4197
▁razliku	-4198
▁spremni	-4199
▁umirovlje	-4200
▁bre	-4201
▁top	-4202
stvom	-4203
▁vina	-4204
▁nastupi	-4205
▁28	-4206
anta	-4207
lini	-4208
▁kakav	-4209
▁osumnji	-4210
▁španjol	-4211
▁vrijednost	-4212
ny	-4213
vine	-4214
koliko	-4215
▁Inače	-4216
▁vatre	-4217
▁bespla	-4218
uje	-4219
▁ter	-4220
lesti	-4221
▁kine	-4222
▁odmo	-4223
▁titu	-4224
▁Kopri	-4225
▁poznato	-4226
▁kilograma	-4227
zno	-4228
žnja	-4229
▁Gre	-4230
▁Yor	-4231
▁sru	-4232
▁Brita	-4233
▁Nisam	-4234
▁nepri	-4235
▁školu	-4236
▁golova	-4237
▁nagradu	-4238
▁temelju	-4239
▁turnira	-4240
▁milijardi	-4241
tona	-4242
▁Wil	-4243
fek	-4244
rnog	-4245
▁centru	-4246
▁cijele	-4247
▁počela	-4248
aju	-4249
▁dom	-4250
▁srca	-4251
▁treće	-4252
▁ugosti	-4253
▁njihovu	-4254
▁vremenu	-4255
▁zaštitu	-4256
▁međunaro	-4257
▁programu	-4258
▁kriminali	-4259
pić	-4260
▁13.	-4261
▁Bila	-4262
▁priopći	-4263
esto	-4264
etvr	-4265
▁presta	-4266
▁regiona	-4267
▁skupina	-4268
naj	-4269
▁6.	-4270
▁Nji	-4271
▁donio	-4272
godišnje	-4273
▁karijeru	-4274
▁navijača	-4275
zmu	-4276
▁sk	-4277
tama	-4278
▁halji	-4279
▁Lokomo	-4280
▁ostala	-4281
rti	-4282
turi	-4283
▁Joh	-4284
vljene	-4285
▁pribli	-4286
▁navečer	-4287
▁budućnost	-4288
▁premijera	-4289
Do	-4290
ret	-4291
jica	-4292
▁Primo	-4293
▁gledati	-4294
▁osjećaj	-4295
ova	-4296
rnim	-4297
bacio	-4298
▁2019.	-4299
▁policij	-4300
▁kategoriji	-4301
▁UN	-4302
ćenje	-4303
▁Mnogi	-4304
▁iznos	-4305
▁dovesti	-4306
▁standar	-4307
tetu	-4308
▁teri	-4309
▁takve	-4310
▁vijest	-4311
▁godišnje	-4312
▁stoljeća	-4313
▁km	-4314
▁Bor	-4315
njeva	-4316
▁htio	-4317
▁soli	-4318
▁obrati	-4319
▁proces	-4320
▁strije	-4321
▁Per	-4322
▁mlado	-4323
▁poruku	-4324
▁izjedna	-4325
▁nesreća	-4326
▁početak	-4327
▁europskih	-4328
kin	-4329
▁og	-4330
mlja	-4331
▁Nor	-4332
▁Već	-4333
▁uka	-4334
▁neiz	-4335
▁bitno	-4336
▁trene	-4337
▁agresi	-4338
▁međunarod	-4339
šle	-4340
rene	-4341
▁omi	-4342
stoje	-4343
▁poziv	-4344
▁pošto	-4345
▁Rijeci	-4346
▁igraju	-4347
▁izbori	-4348
▁minima	-4349
▁mobite	-4350
▁ostalim	-4351
▁uvjetima	-4352
▁pogledajte	-4353
TA	-4354
▁197	-4355
▁dobre	-4356
▁novča	-4357
▁kapaci	-4358
▁razvija	-4359
▁Hercegovi	-4360
,9	-4361
▁Br	-4362
▁Don	-4363
▁boje	-4364
▁školi	-4365
▁Jadran	-4366
▁zapovje	-4367
▁14.	-4368
▁drži	-4369
▁Sport	-4370
▁jutro	-4371
▁Možemo	-4372
▁medije	-4373
▁US	-4374
▁fe	-4375
▁Filip	-4376
▁grupe	-4377
▁rasta	-4378
▁ravno	-4379
▁odigrao	-4380
▁provede	-4381
▁članova	-4382
▁donijeti	-4383
▁podataka	-4384
▁smatraju	-4385
▁plas	-4386
▁čine	-4387
▁Petra	-4388
▁staja	-4389
▁Koliko	-4390
▁zahvaljujući	-4391
šen	-4392
▁adre	-4393
▁muze	-4394
nirati	-4395
▁povećanje	-4396
ul	-4397
šan	-4398
mice	-4399
▁odr	-4400
▁kome	-4401
▁ulazi	-4402
▁poznat	-4403
▁naglasi	-4404
▁zahvali	-4405
▁industri	-4406
10	-4407
una	-4408
▁Ser	-4409
▁tera	-4410
lacija	-4411
▁Engle	-4412
▁njezine	-4413
▁velikih	-4414
nut	-4415
godio	-4416
▁Nove	-4417
▁dina	-4418
▁budući	-4419
▁nalaze	-4420
▁ujedno	-4421
▁raspolo	-4422
▁sredstava	-4423
▁objašnjava	-4424
ov	-4425
siti	-4426
▁Mje	-4427
jskim	-4428
▁inspi	-4429
▁potak	-4430
▁zadnje	-4431
▁njegovim	-4432
▁9.	-4433
▁maksima	-4434
▁četvrtfina	-4435
liga	-4436
vimo	-4437
nisti	-4438
terna	-4439
▁Hama	-4440
▁tuži	-4441
▁studenog	-4442
ham	-4443
▁preo	-4444
▁tale	-4445
▁engle	-4446
▁usluga	-4447
▁Ukrajine	-4448
Mi	-4449
graf	-4450
tovi	-4451
▁igru	-4452
▁lani	-4453
nijeti	-4454
▁blizu	-4455
▁završila	-4456
▁istaknula	-4457
moć	-4458
▁For	-4459
dnice	-4460
▁autoce	-4461
▁skladu	-4462
▁nepozna	-4463
▁obavlja	-4464
▁prednost	-4465
nov	-4466
▁Tik	-4467
▁supa	-4468
▁poruka	-4469
▁udarac	-4470
žem	-4471
prija	-4472
▁jača	-4473
▁rake	-4474
▁žive	-4475
▁udruge	-4476
▁bolnice	-4477
▁pravosu	-4478
▁izbornik	-4479
▁njegovom	-4480
▁podacima	-4481
lira	-4482
zacije	-4483
▁lista	-4484
▁odbora	-4485
▁prošlog	-4486
▁čovjeka	-4487
"",	-4488
svim	-4489
čeki	-4490
▁Tro	-4491
▁papi	-4492
▁show	-4493
▁spomi	-4494
▁velikog	-4495
▁propusti	-4496
▁pobijedio	-4497
▁istraživanja	-4498
:2	-4499
▁EP	-4500
ncima	-4501
▁Njiho	-4502
▁nastavku	-4503
▁promijeniti	-4504
šnjem	-4505
▁djeci	-4506
▁neovi	-4507
▁stana	-4508
▁vrsta	-4509
snogovo	-4510
▁dosada	-4511
pije	-4512
timi	-4513
žuje	-4514
▁kuću	-4515
▁plju	-4516
bičaje	-4517
▁košta	-4518
▁košarka	-4519
▁članovi	-4520
dimo	-4521
▁30.	-4522
voren	-4523
▁Odlu	-4524
▁naju	-4525
nijela	-4526
▁Petro	-4527
▁rješa	-4528
▁Austra	-4529
▁nagrade	-4530
▁samosta	-4531
bice	-4532
▁16.	-4533
▁Ale	-4534
▁znak	-4535
▁Donal	-4536
▁prijatelja	-4537
00.	-4538
ljivi	-4539
▁Osta	-4540
▁baze	-4541
▁filmu	-4542
▁Poslje	-4543
▁medijima	-4544
RO	-4545
šo	-4546
tivi	-4547
vamo	-4548
tosti	-4549
šnjoj	-4550
▁Nada	-4551
▁izvu	-4552
▁naći	-4553
▁servi	-4554
▁staro	-4555
▁volje	-4556
▁odnose	-4557
▁Milanovi	-4558
▁prostoru	-4559
▁um	-4560
noga	-4561
šten	-4562
▁pao	-4563
▁poznata	-4564
rbe	-4565
brova	-4566
▁arhi	-4567
▁voda	-4568
▁slika	-4569
▁igrače	-4570
▁predlo	-4571
▁progno	-4572
▁pravila	-4573
▁isključi	-4574
▁riječima	-4575
▁prednosti	-4576
pr	-4577
▁Modrić	-4578
▁mandat	-4579
▁tijeku	-4580
PO	-4581
oko	-4582
rek	-4583
▁prido	-4584
▁ekonom	-4585
▁postupa	-4586
▁Ukrajinu	-4587
▁stupnjeva	-4588
▁°	-4589
šne	-4590
lika	-4591
▁laga	-4592
lovima	-4593
▁Možda	-4594
▁vlade	-4595
▁jedino	-4596
▁konkre	-4597
ntu	-4598
uju	-4599
zama	-4600
▁baca	-4601
▁prio	-4602
▁ratu	-4603
▁smislu	-4604
▁konfere	-4605
šna	-4606
▁indi	-4607
▁reze	-4608
▁nukle	-4609
▁opora	-4610
▁sudac	-4611
▁aplika	-4612
▁dogoditi	-4613
▁organizacije	-4614
toj	-4615
spek	-4616
▁bru	-4617
snost	-4618
▁ušao	-4619
▁Križe	-4620
▁masli	-4621
▁prigo	-4622
▁javnog	-4623
▁morati	-4624
▁pozvao	-4625
▁godišnji	-4626
▁poziciju	-4627
▁nevjeroja	-4628
dbe	-4629
tnice	-4630
▁Umje	-4631
▁broju	-4632
▁rastu	-4633
▁muškarac	-4634
▁najvećih	-4635
▁situaciji	-4636
isti	-4637
slije	-4638
▁Kate	-4639
strije	-4640
▁Ivica	-4641
▁napadu	-4642
▁odvija	-4643
▁progla	-4644
▁izbjega	-4645
▁zadnjih	-4646
▁Varaždina	-4647
▁Domovinskog	-4648
▁funkcionira	-4649
gije	-4650
jana	-4651
ljom	-4652
▁Igra	-4653
▁sluša	-4654
▁novinar	-4655
ara	-4656
port	-4657
▁Cel	-4658
▁roku	-4659
▁dizaj	-4660
▁istom	-4661
▁mreže	-4662
▁ruske	-4663
▁obožava	-4664
▁skupini	-4665
▁uspješno	-4666
ye	-4667
▁Dr	-4668
▁Bez	-4669
festa	-4670
▁male	-4671
▁sino	-4672
▁Slobo	-4673
▁rizik	-4674
▁destina	-4675
▁spreman	-4676
▁susretu	-4677
▁postupak	-4678
▁odgovornost	-4679
▁Sad	-4680
▁zbi	-4681
▁Dani	-4682
▁ostalo	-4683
▁prošao	-4684
▁tisuće	-4685
▁znatno	-4686
▁temperature	-4687
▁29	-4688
▁45	-4689
linu	-4690
▁puca	-4691
pisuje	-4692
▁Imamo	-4693
▁TikTo	-4694
▁blago	-4695
▁morao	-4696
▁velik	-4697
▁odluči	-4698
▁pozdra	-4699
▁znanja	-4700
▁postigao	-4701
▁kriminalisti	-4702
lon	-4703
rov	-4704
tice	-4705
tinui	-4706
▁Tada	-4707
▁Zele	-4708
▁dali	-4709
▁sudu	-4710
▁Drugi	-4711
▁preži	-4712
▁razmje	-4713
▁njihovim	-4714
▁pokazati	-4715
▁potpunosti	-4716
zapa	-4717
žnom	-4718
ranju	-4719
▁Gori	-4720
▁olak	-4721
tivnim	-4722
▁2018.	-4723
▁Bayer	-4724
▁uvjete	-4725
▁dogodio	-4726
▁riješiti	-4727
dit	-4728
munj	-4729
zora	-4730
šlja	-4731
▁Bli	-4732
▁uki	-4733
tnica	-4734
vnica	-4735
▁nami	-4736
▁napla	-4737
▁privu	-4738
▁Srbiji	-4739
▁regiji	-4740
▁sjever	-4741
▁telefo	-4742
▁Župani	-4743
▁pokazali	-4744
at	-4745
lici	-4746
vena	-4747
▁Indi	-4748
▁ljepo	-4749
▁perio	-4750
▁ispita	-4751
▁usluge	-4752
▁vozilo	-4753
▁ponekad	-4754
▁zahtjev	-4755
▁pregleda	-4756
▁različitih	-4757
zio	-4758
▁Kod	-4759
▁Kor	-4760
▁mrt	-4761
▁Kata	-4762
▁povr	-4763
▁smrt	-4764
▁prvak	-4765
▁sporazu	-4766
▁kontinui	-4767
NI	-4768
šak	-4769
stoja	-4770
▁glavu	-4771
▁kreće	-4772
▁volim	-4773
▁brojni	-4774
▁detalj	-4775
▁favori	-4776
▁igrama	-4777
▁elektro	-4778
▁pogodio	-4779
▁sekundi	-4780
▁alkohola	-4781
▁prijedlog	-4782
▁Hi	-4783
leti	-4784
šnjo	-4785
▁eli	-4786
▁proba	-4787
▁Upravo	-4788
▁prista	-4789
▁dubrova	-4790
▁konačno	-4791
roma	-4792
uzda	-4793
▁Bit	-4794
rskog	-4795
vjela	-4796
▁koga	-4797
scipli	-4798
▁gostu	-4799
▁šanse	-4800
▁ističu	-4801
▁zvijez	-4802
▁građane	-4803
▁olimpij	-4804
▁njihovih	-4805
gov	-4806
zme	-4807
▁osni	-4808
strija	-4809
▁dakle	-4810
▁jednim	-4811
▁prošli	-4812
▁serija	-4813
▁jednako	-4814
rku	-4815
lović	-4816
▁Lije	-4817
▁neku	-4818
intere	-4819
▁vijeća	-4820
▁granice	-4821
▁starije	-4822
▁odlučili	-4823
ziti	-4824
▁Char	-4825
▁Ljudi	-4826
▁Najbo	-4827
▁formi	-4828
▁grupa	-4829
▁inova	-4830
▁teške	-4831
▁aktivi	-4832
▁polovi	-4833
▁prolazi	-4834
ft	-4835
nes	-4836
đimu	-4837
▁bron	-4838
▁bilje	-4839
▁promo	-4840
▁trage	-4841
▁napravili	-4842
▁Ča	-4843
dobno	-4844
▁osvr	-4845
▁srce	-4846
▁2016.	-4847
▁odmor	-4848
▁rekor	-4849
▁vodio	-4850
▁naroda	-4851
▁sumnja	-4852
▁vjetar	-4853
▁Europskog	-4854
▁sudjelova	-4855
miju	-4856
▁uma	-4857
▁Jugo	-4858
zacija	-4859
▁Stoga	-4860
▁Zadru	-4861
▁sasvim	-4862
▁otkriva	-4863
▁rođendan	-4864
nar	-4865
ndu	-4866
ših	-4867
čaja	-4868
▁22.	-4869
njeni	-4870
▁najvi	-4871
▁samom	-4872
▁teški	-4873
▁Trumpa	-4874
▁doista	-4875
▁pjesma	-4876
▁uključuje	-4877
peri	-4878
sira	-4879
tove	-4880
žene	-4881
▁the	-4882
▁zag	-4883
vnice	-4884
minira	-4885
▁Brazi	-4886
▁dokaza	-4887
▁knjige	-4888
▁podatke	-4889
▁Primorac	-4890
▁Varaždinu	-4891
▁prvenstve	-4892
/2	-4893
wi	-4894
juće	-4895
deset	-4896
▁doga	-4897
▁krvi	-4898
jevima	-4899
▁desni	-4900
▁nekog	-4901
▁tvrtki	-4902
▁međutim	-4903
▁konferen	-4904
▁zemljama	-4905
▁tvo	-4906
▁vre	-4907
ravak	-4908
▁menta	-4909
▁skoro	-4910
▁bivšeg	-4911
▁postoja	-4912
▁prometu	-4913
▁redovito	-4914
▁konferenciji	-4915
▁reprezentaciju	-4916
ttps	-4917
▁kop	-4918
▁simp	-4919
▁akade	-4920
▁tribi	-4921
▁Švica	-4922
▁Martin	-4923
▁dugoro	-4924
▁konkure	-4925
▁četvrti	-4926
▁primjerice	-4927
bano	-4928
nior	-4929
▁ote	-4930
▁dodje	-4931
▁pokri	-4932
▁snagu	-4933
▁dijelom	-4934
▁nagrada	-4935
▁ugovora	-4936
fti	-4937
kala	-4938
▁Kro	-4939
▁upla	-4940
▁večer	-4941
▁bolnicu	-4942
▁razvoju	-4943
▁veljače	-4944
▁učinkovi	-4945
▁znanosti	-4946
▁politički	-4947
let	-4948
▁an	-4949
rama	-4950
šili	-4951
▁Slu	-4952
▁Spa	-4953
▁Kine	-4954
▁Podra	-4955
▁onima	-4956
▁povla	-4957
▁komisi	-4958
▁učenika	-4959
▁Europskom	-4960
jskoj	-4961
▁anke	-4962
▁gradi	-4963
▁Hrvata	-4964
▁iznosu	-4965
▁glumica	-4966
▁ostalih	-4967
▁33	-4968
rata	-4969
▁misi	-4970
▁Zadra	-4971
▁planu	-4972
▁porez	-4973
▁Vukova	-4974
▁pretpo	-4975
▁zastupnika	-4976
▁potpredsjedni	-4977
lića	-4978
čuju	-4979
▁Var	-4980
njeno	-4981
▁kupu	-4982
▁ligi	-4983
▁raka	-4984
snosti	-4985
▁stambe	-4986
▁priznao	-4987
▁prodaje	-4988
▁nastavio	-4989
CI	-4990
grafi	-4991
▁Milo	-4992
▁Time	-4993
▁glas	-4994
prijed	-4995
▁najpo	-4996
▁prekra	-4997
▁razinu	-4998
//	-4999
aja	-5000
sve	-5001
tti	-5002
▁36	-5003
▁Jaki	-5004
▁Poče	-5005
▁tero	-5006
sjetio	-5007
▁narod	-5008
▁Josipa	-5009
▁pogodi	-5010
▁glavnog	-5011
▁prilike	-5012
▁festivala	-5013
▁kvalitete	-5014
▁fotografiju	-5015
▁proizvodnje	-5016
šim	-5017
▁vodu	-5018
▁poruke	-5019
▁sumnje	-5020
luju	-5021
▁vole	-5022
▁Damir	-5023
▁apsolu	-5024
▁objave	-5025
▁pritom	-5026
▁želimo	-5027
▁odlučila	-5028
cho	-5029
rigi	-5030
▁KBC	-5031
čnost	-5032
▁poni	-5033
▁Vjeru	-5034
▁potroša	-5035
▁procije	-5036
▁tržište	-5037
▁stanovnika	-5038
demo	-5039
▁far	-5040
▁Putin	-5041
▁korup	-5042
▁položa	-5043
▁temelj	-5044
▁govoriti	-5045
▁interesa	-5046
▁stranici	-5047
sse	-5048
RIJA	-5049
▁logi	-5050
▁vama	-5051
zaciju	-5052
▁Festi	-5053
▁novoj	-5054
▁Olimpi	-5055
▁zdravlja	-5056
▁platformi	-5057
▁Ange	-5058
▁City	-5059
dovolj	-5060
▁Dobro	-5061
▁Zašto	-5062
▁recep	-5063
▁humani	-5064
▁osobno	-5065
▁najljep	-5066
▁partnera	-5067
▁građanima	-5068
dy	-5069
limo	-5070
▁Cen	-5071
▁šta	-5072
▁teži	-5073
▁dobru	-5074
▁svaku	-5075
▁visoko	-5076
▁interes	-5077
▁Šibenik	-5078
▁fotografija	-5079
ttu	-5080
hani	-5081
veni	-5082
▁oču	-5083
▁nekom	-5084
▁samog	-5085
▁vrste	-5086
▁satima	-5087
▁simpto	-5088
▁zadnji	-5089
▁Nizozem	-5090
▁milijun	-5091
▁utjecaj	-5092
-4	-5093
▁500	-5094
▁opro	-5095
▁znao	-5096
▁pravu	-5097
▁račun	-5098
▁vozač	-5099
▁odabra	-5100
▁područje	-5101
▁32	-5102
činu	-5103
žnog	-5104
▁Iza	-5105
▁moć	-5106
▁pad	-5107
stara	-5108
▁Mogu	-5109
▁pišu	-5110
▁poko	-5111
▁Božić	-5112
▁Londo	-5113
▁Unatoč	-5114
▁obično	-5115
▁oslobo	-5116
▁krimina	-5117
://	-5118
ALE	-5119
▁sank	-5120
▁šeće	-5121
tkinja	-5122
▁ideja	-5123
▁luksu	-5124
▁model	-5125
▁detalje	-5126
▁potporu	-5127
▁večeras	-5128
▁ulaganja	-5129
cy	-5130
um	-5131
...'	-5132
gram	-5133
logu	-5134
▁25.	-5135
▁jela	-5136
▁vodo	-5137
▁čija	-5138
▁forma	-5139
▁stopa	-5140
▁obranu	-5141
▁trgova	-5142
▁večeri	-5143
▁zemlju	-5144
▁lokalne	-5145
▁Ukrajina	-5146
▁navijači	-5147
▁rezultati	-5148
ševa	-5149
gnuti	-5150
▁Alba	-5151
▁uklo	-5152
▁ulice	-5153
prilike	-5154
▁rekord	-5155
▁direkto	-5156
▁nekretnine	-5157
dine	-5158
vero	-5159
vski	-5160
▁Večer	-5161
▁najveća	-5162
▁slijedi	-5163
▁prometne	-5164
▁(6	-5165
▁sv	-5166
laže	-5167
▁gor	-5168
manti	-5169
▁boji	-5170
▁duho	-5171
▁najče	-5172
▁svjetski	-5173
ct	-5174
jete	-5175
stio	-5176
▁mir	-5177
▁Prva	-5178
▁krea	-5179
▁niko	-5180
▁pake	-5181
▁reci	-5182
▁Goran	-5183
▁cesti	-5184
▁cijenu	-5185
▁postro	-5186
▁sjevero	-5187
▁članica	-5188
▁vanjskih	-5189
UP	-5190
bit	-5191
štima	-5192
▁štetu	-5193
▁ciljem	-5194
▁odnosa	-5195
▁brojnim	-5196
▁njegovog	-5197
▁njegovoj	-5198
▁putovanja	-5199
lti	-5200
▁Ras	-5201
▁teo	-5202
▁Obje	-5203
▁jesu	-5204
▁posa	-5205
▁ocije	-5206
▁Srbija	-5207
▁izuzetno	-5208
▁završiti	-5209
▁županija	-5210
▁hrvatskim	-5211
▁Dubrovnika	-5212
▁reprezentati	-5213
hat	-5214
udi	-5215
skup	-5216
ćeno	-5217
čaka	-5218
▁bje	-5219
▁svu	-5220
▁Miro	-5221
▁poti	-5222
▁veća	-5223
▁borbu	-5224
▁drago	-5225
▁nikak	-5226
ALERIJA	-5227
antasti	-5228
▁ostvari	-5229
▁manifesta	-5230
▁isključivo	-5231
:4	-5232
▁El	-5233
pula	-5234
▁napu	-5235
▁ured	-5236
▁mlije	-5237
▁odusta	-5238
▁pripada	-5239
▁izjavila	-5240
▁povratak	-5241
▁pristupa	-5242
MA	-5243
▁Q	-5244
vke	-5245
▁300	-5246
▁sme	-5247
đenju	-5248
▁Ligi	-5249
▁kuhi	-5250
▁naveo	-5251
▁potpo	-5252
▁zalju	-5253
▁počeli	-5254
▁razine	-5255
▁pratiti	-5256
▁državnog	-5257
▁konkuren	-5258
▁ozbiljno	-5259
▁suradnju	-5260
ff	-5261
jić	-5262
jmo	-5263
ćina	-5264
▁kor	-5265
▁Nogo	-5266
▁Novo	-5267
▁izab	-5268
▁prese	-5269
▁stiže	-5270
▁Međuna	-5271
▁knjiže	-5272
▁zaosta	-5273
▁drugima	-5274
▁propisa	-5275
▁obrazovanja	-5276
vač	-5277
ljenih	-5278
▁niste	-5279
▁krenuo	-5280
▁građevi	-5281
▁europske	-5282
▁vjerujem	-5283
▁muškaraca	-5284
▁generacije	-5285
▁predsjednica	-5286
mda	-5287
▁Fer	-5288
▁spek	-5289
▁bogat	-5290
▁pogodak	-5291
▁vikenda	-5292
05	-5293
ani	-5294
rie	-5295
žbu	-5296
cifi	-5297
land	-5298
letio	-5299
▁eduka	-5300
▁Općine	-5301
▁saveza	-5302
▁udruga	-5303
▁nažalost	-5304
▁njegovih	-5305
▁sljedeće	-5306
▁Dubrovniku	-5307
ite	-5308
ljiv	-5309
padu	-5310
▁26.	-5311
dište	-5312
▁kana	-5313
▁šoki	-5314
▁https	-5315
▁podno	-5316
▁prodaju	-5317
▁osigurati	-5318
Su	-5319
ges	-5320
čene	-5321
▁Mos	-5322
▁atra	-5323
▁hoda	-5324
▁stan	-5325
▁Pozna	-5326
▁neobi	-5327
▁onoga	-5328
▁preci	-5329
▁osobama	-5330
▁zaintere	-5331
▁kvalitetu	-5332
▁razdoblje	-5333
▁zajednica	-5334
dže	-5335
alno	-5336
deći	-5337
onal	-5338
▁Klu	-5339
snika	-5340
vajući	-5341
▁cilja	-5342
▁nadam	-5343
▁sekto	-5344
▁oružja	-5345
▁agencija	-5346
▁rezultata	-5347
jku	-5348
▁apa	-5349
tskih	-5350
▁dvobo	-5351
▁propa	-5352
▁uvjer	-5353
▁Rusije	-5354
▁dvostru	-5355
▁pozornost	-5356
▁Milanovića	-5357
▁trenutačno	-5358
imna	-5359
kali	-5360
▁zao	-5361
ština	-5362
▁teku	-5363
▁hranu	-5364
▁pažnju	-5365
▁djeteta	-5366
▁vijesti	-5367
sama	-5368
▁van	-5369
rskom	-5370
▁dala	-5371
▁Gattu	-5372
▁ovisi	-5373
▁struk	-5374
▁zauze	-5375
▁domaće	-5376
▁vlasnik	-5377
▁nastavak	-5378
▁političke	-5379
▁natjecanje	-5380
!"	-5381
shi	-5382
valu	-5383
hvaća	-5384
kovića	-5385
▁Biden	-5386
▁Jutar	-5387
▁Vatre	-5388
▁trofe	-5389
▁otpada	-5390
▁pristu	-5391
▁sukoba	-5392
▁upotre	-5393
▁Poljudu	-5394
▁legenda	-5395
▁najveće	-5396
▁postane	-5397
▁pripreme	-5398
▁službeno	-5399
▁umjetnosti	-5400
we	-5401
vce	-5402
▁we	-5403
snik	-5404
vano	-5405
▁vrh	-5406
gledu	-5407
▁spor	-5408
▁ulja	-5409
▁Dubra	-5410
▁svoja	-5411
nitivno	-5412
vremena	-5413
▁radili	-5414
▁njegovi	-5415
▁stavlja	-5416
▁festival	-5417
▁zdravstva	-5418
rs	-5419
snio	-5420
vaca	-5421
▁bak	-5422
▁zim	-5423
▁Kore	-5424
▁uzima	-5425
▁Zakona	-5426
▁morali	-5427
▁odlazi	-5428
▁uključi	-5429
▁ministra	-5430
▁najpozna	-5431
▁preminuo	-5432
▁utjecati	-5433
▁značajno	-5434
▁činjenica	-5435
/1	-5436
chi	-5437
ele	-5438
mić	-5439
rij	-5440
▁29.	-5441
▁isho	-5442
▁briga	-5443
▁kolek	-5444
▁neugo	-5445
▁ogrom	-5446
▁opisa	-5447
▁pored	-5448
▁ubrzo	-5449
▁Smatra	-5450
▁pomaže	-5451
▁korisnika	-5452
▁očekivati	-5453
▁različite	-5454
▁Srp	-5455
▁uru	-5456
tivan	-5457
▁Stje	-5458
▁glum	-5459
čnosti	-5460
▁Hezbo	-5461
▁kombi	-5462
▁Harris	-5463
▁policiji	-5464
▁projekata	-5465
▁34	-5466
žnim	-5467
▁Tvr	-5468
▁ite	-5469
▁olu	-5470
▁tam	-5471
njuju	-5472
zanje	-5473
▁Budi	-5474
▁fazi	-5475
▁kiša	-5476
▁rela	-5477
▁božić	-5478
▁kreve	-5479
▁nasilja	-5480
▁siguran	-5481
▁tjedana	-5482
▁vodstvo	-5483
▁organizaciji	-5484
snoj	-5485
tska	-5486
▁javne	-5487
▁važan	-5488
▁zadar	-5489
pustiti	-5490
▁Hrvati	-5491
▁Slaven	-5492
▁Veliko	-5493
▁nacija	-5494
▁plasti	-5495
▁državni	-5496
▁najbolja	-5497
▁voditelj	-5498
▁unutrašnjo	-5499
.,	-5500
rci	-5501
vko	-5502
▁PU	-5503
rsku	-5504
stvr	-5505
šnju	-5506
žnih	-5507
▁Net	-5508
▁špi	-5509
▁napome	-5510
▁voditi	-5511
▁studija	-5512
▁pogledati	-5513
▁roditelja	-5514
▁II	-5515
▁23.	-5516
▁Fil	-5517
▁Mir	-5518
▁Tor	-5519
▁rok	-5520
davno	-5521
šajte	-5522
▁Auto	-5523
▁bavi	-5524
▁otka	-5525
▁2017.	-5526
▁našao	-5527
▁poena	-5528
▁testi	-5529
▁Robert	-5530
▁invali	-5531
▁desetak	-5532
▁gradova	-5533
▁Sjedinje	-5534
▁uobičaje	-5535
▁okolnosti	-5536
est	-5537
▁cu	-5538
vred	-5539
▁oca	-5540
▁Dugo	-5541
▁gore	-5542
▁neto	-5543
▁klije	-5544
▁optimi	-5545
▁Dubrova	-5546
▁itekako	-5547
▁neprija	-5548
▁pokušao	-5549
▁turizma	-5550
▁Njemačka	-5551
▁suradnje	-5552
▁glasnogovo	-5553
▁međuvremenu	-5554
elu	-5555
inje	-5556
▁Oče	-5557
▁ver	-5558
teoro	-5559
▁Boži	-5560
▁moram	-5561
▁liječni	-5562
▁temelji	-5563
▁Beogradu	-5564
▁pobjedom	-5565
čnije	-5566
▁bori	-5567
▁pješa	-5568
▁sobom	-5569
▁objavi	-5570
▁predvo	-5571
▁gostima	-5572
▁kaznenog	-5573
▁posebice	-5574
▁31	-5575
nule	-5576
▁jedina	-5577
▁Lasagna	-5578
▁emisiji	-5579
▁korištenje	-5580
lski	-5581
vene	-5582
▁Rado	-5583
▁igara	-5584
▁kakve	-5585
▁vlast	-5586
▁poslao	-5587
▁proveo	-5588
▁Jugosla	-5589
▁policaj	-5590
▁prikaza	-5591
▁politika	-5592
▁Hrvatskom	-5593
▁komentara	-5594
▁podijelila	-5595
gana	-5596
jevi	-5597
▁Seve	-5598
▁domu	-5599
▁direk	-5600
▁opskr	-5601
▁izvođa	-5602
▁naslova	-5603
▁plasman	-5604
▁usposta	-5605
▁suprugom	-5606
▁europskim	-5607
▁proizvode	-5608
▁vlasništvu	-5609
▁gospodarstva	-5610
han	-5611
▁Ču	-5612
blji	-5613
lama	-5614
lana	-5615
raka	-5616
▁Budu	-5617
▁Vale	-5618
▁šibe	-5619
▁Marin	-5620
▁kolege	-5621
▁morate	-5622
▁proved	-5623
▁podrške	-5624
▁posljed	-5625
▁ostvariti	-5626
kse	-5627
"...	-5628
lite	-5629
lozi	-5630
▁Gazi	-5631
▁Kali	-5632
metaši	-5633
▁liste	-5634
▁najte	-5635
▁državi	-5636
▁koševa	-5637
▁stranu	-5638
▁suprug	-5639
▁podnije	-5640
▁povodom	-5641
▁vjeruje	-5642
▁kampanje	-5643
▁muškarca	-5644
▁stadionu	-5645
▁mišljenje	-5646
nilo	-5647
rove	-5648
▁Gar	-5649
▁Ita	-5650
terpo	-5651
ženju	-5652
▁Iran	-5653
▁Tele	-5654
▁dovo	-5655
▁mala	-5656
▁Ljubav	-5657
▁kvadra	-5658
▁njihovo	-5659
▁publika	-5660
▁podsjeća	-5661
▁obavijesti	-5662
▁Žu	-5663
▁24.	-5664
rnicu	-5665
▁Igor	-5666
▁zadu	-5667
▁čije	-5668
▁cjelo	-5669
▁preva	-5670
▁stože	-5671
▁namije	-5672
▁vidimo	-5673
▁odlično	-5674
▁američki	-5675
▁današnji	-5676
▁naglašava	-5677
▁pjevačica	-5678
par	-5679
žite	-5680
▁Zvo	-5681
▁che	-5682
▁mar	-5683
▁komp	-5684
▁širo	-5685
▁Willi	-5686
▁braku	-5687
▁razno	-5688
▁takva	-5689
▁grmlja	-5690
▁takvih	-5691
▁dolazak	-5692
▁objavili	-5693
▁svjetskog	-5694
AT	-5695
sr	-5696
▁Er	-5697
▁sc	-5698
manu	-5699
▁Che	-5700
▁hit	-5701
posla	-5702
▁osobu	-5703
▁dodije	-5704
▁jezika	-5705
▁kupiti	-5706
▁radovi	-5707
▁vožnje	-5708
▁ispričao	-5709
▁prijateljima	-5710
dbi	-5711
▁Mc	-5712
▁Šo	-5713
klih	-5714
tion	-5715
▁28.	-5716
▁Tim	-5717
▁pis	-5718
likop	-5719
štena	-5720
▁Miha	-5721
▁dvori	-5722
▁psihi	-5723
▁ruski	-5724
▁Velika	-5725
▁kapetan	-5726
▁GALERIJA	-5727
▁sportski	-5728
▁Instagram	-5729
gori	-5730
tite	-5731
▁Čak	-5732
▁Bide	-5733
▁lica	-5734
▁meto	-5735
▁čast	-5736
▁Davor	-5737
▁marke	-5738
▁proći	-5739
▁Manche	-5740
▁izgubili	-5741
▁ministri	-5742
▁smanjiti	-5743
lesa	-5744
▁Zri	-5745
▁bom	-5746
▁red	-5747
▁ubo	-5748
▁prisi	-5749
▁udara	-5750
teljice	-5751
▁britan	-5752
▁istoku	-5753
▁poreme	-5754
▁pretra	-5755
▁Njegova	-5756
▁platiti	-5757
▁uspjela	-5758
▁važnost	-5759
▁energiju	-5760
▁izgubila	-5761
▁Ad	-5762
novo	-5763
tiji	-5764
▁bod	-5765
slobo	-5766
▁boja	-5767
logije	-5768
▁sindi	-5769
▁negdje	-5770
▁sloven	-5771
▁zadovoljni	-5772
▁svakodnevno	-5773
▁poslijepodne	-5774
▁informacijama	-5775
▁reprezentativac	-5776
ane	-5777
▁(19	-5778
▁Bog	-5779
kcija	-5780
vjeli	-5781
▁John	-5782
▁bana	-5783
▁datu	-5784
▁šire	-5785
▁ekipe	-5786
▁otići	-5787
▁varaž	-5788
▁Međimu	-5789
▁pokret	-5790
▁Željko	-5791
▁diploma	-5792
▁pobjedni	-5793
▁kompanija	-5794
▁otprilike	-5795
šom	-5796
prje	-5797
▁ispi	-5798
▁Slova	-5799
▁kaznu	-5800
▁nekad	-5801
▁nepre	-5802
▁polju	-5803
▁prave	-5804
▁razne	-5805
vrijeme	-5806
▁prirod	-5807
▁uspore	-5808
▁državne	-5809
▁izvješta	-5810
▁preuzima	-5811
rat	-5812
laca	-5813
mjese	-5814
okola	-5815
▁Malo	-5816
spekti	-5817
▁Rekao	-5818
▁banke	-5819
▁uživa	-5820
▁vidim	-5821
▁izlazi	-5822
▁podaci	-5823
▁Italije	-5824
▁opravda	-5825
▁preosta	-5826
▁živjeti	-5827
▁poduzetni	-5828
-6	-5829
Ni	-5830
▁ući	-5831
njaka	-5832
▁Obja	-5833
▁ambi	-5834
▁Najve	-5835
▁imeno	-5836
▁naslo	-5837
▁prete	-5838
▁nositi	-5839
▁vojske	-5840
▁domaćin	-5841
▁katastro	-5842
▁projekte	-5843
es	-5844
▁(7	-5845
tirati	-5846
▁Uprave	-5847
▁Osijeka	-5848
▁preokre	-5849
▁publiku	-5850
▁sustavu	-5851
▁svjetlo	-5852
▁fantasti	-5853
▁koncerta	-5854
bić	-5855
▁čvr	-5856
genti	-5857
đenim	-5858
▁nape	-5859
menata	-5860
▁ekono	-5861
▁klupi	-5862
▁naime	-5863
▁potez	-5864
▁uskla	-5865
▁prolaz	-5866
▁njihovi	-5867
▁započeo	-5868
▁discipli	-5869
▁otvoreno	-5870
▁upozorava	-5871
tam	-5872
mojte	-5873
ovjek	-5874
▁daju	-5875
▁tima	-5876
▁vezu	-5877
klanja	-5878
▁Posao	-5879
▁idemo	-5880
▁znali	-5881
▁Uvijek	-5882
▁obliku	-5883
▁visoke	-5884
▁nuklear	-5885
▁očekuju	-5886
▁putnika	-5887
▁vrijedi	-5888
▁kontrolu	-5889
▁razgovoru	-5890
▁institucije	-5891
ORH	-5892
kru	-5893
nsi	-5894
▁38	-5895
▁zu	-5896
grad	-5897
čani	-5898
▁Tom	-5899
▁naf	-5900
▁udo	-5901
▁istu	-5902
▁kriv	-5903
▁ogla	-5904
ravaju	-5905
▁kakva	-5906
▁akcije	-5907
▁rukama	-5908
▁status	-5909
▁zatvor	-5910
▁nesreći	-5911
▁razlike	-5912
▁ponavlja	-5913
▁zdravstvene	-5914
škoj	-5915
▁Ivo	-5916
▁ala	-5917
ljive	-5918
tivni	-5919
▁poje	-5920
▁sjaj	-5921
cijskih	-5922
▁cijeni	-5923
▁glumac	-5924
▁isporu	-5925
▁nemogu	-5926
▁životinja	-5927
▁pobijediti	-5928
▁posljedica	-5929
▁zlostavlja	-5930
▁Varaždinske	-5931
lci	-5932
vane	-5933
▁domo	-5934
▁izla	-5935
▁jelo	-5936
▁Rumunj	-5937
▁Rusiji	-5938
▁ispiti	-5939
▁kolega	-5940
▁pomalo	-5941
▁brojnih	-5942
▁poseban	-5943
▁interven	-5944
▁normalno	-5945
▁zapošlja	-5946
FA	-5947
zv	-5948
▁Obi	-5949
▁Pan	-5950
▁suz	-5951
tivnu	-5952
▁jese	-5953
▁kiše	-5954
▁donese	-5955
▁analiti	-5956
▁blagdan	-5957
▁ozljeda	-5958
▁Nažalost	-5959
▁kontroli	-5960
▁potrebna	-5961
▁trgovine	-5962
Da	-5963
NK	-5964
dim	-5965
plici	-5966
▁Napo	-5967
logiju	-5968
žavaju	-5969
▁krugu	-5970
▁hotela	-5971
▁nekako	-5972
▁većinom	-5973
▁vojnika	-5974
▁nedjelje	-5975
▁desetljeća	-5976
▁upravljanja	-5977
15	-5978
spa	-5979
čem	-5980
▁194	-5981
▁Flo	-5982
▁Oli	-5983
njaci	-5984
▁izre	-5985
▁kredi	-5986
▁prate	-5987
▁ulozi	-5988
▁osvoje	-5989
▁ulazak	-5990
▁cestama	-5991
▁održava	-5992
▁pokušava	-5993
▁prijevoz	-5994
▁posljedice	-5995
▁proizvodnju	-5996
▁SP	-5997
▁150	-5998
▁Van	-5999
tanje	-6000
▁feno	-6001
▁misle	-6002
▁mogle	-6003
▁oduze	-6004
▁origi	-6005
▁rezul	-6006
▁samou	-6007
▁poreza	-6008
▁prince	-6009
▁vojska	-6010
▁Osijeku	-6011
▁cijelog	-6012
▁sigurni	-6013
▁tržišta	-6014
▁statisti	-6015
▁proračuna	-6016
%2	-6017
ice	-6018
▁šef	-6019
▁civi	-6020
▁prav	-6021
▁zate	-6022
▁bolja	-6023
▁centi	-6024
▁letje	-6025
▁Dinamu	-6026
▁Umjesto	-6027
▁desetlje	-6028
▁pritisak	-6029
▁zanimljivo	-6030
▁gradonačelnika	-6031
mar	-6032
sur	-6033
ence	-6034
fera	-6035
tivu	-6036
pović	-6037
▁Kristi	-6038
▁krenuli	-6039
▁podrška	-6040
▁prirode	-6041
▁europski	-6042
▁razgovarati	-6043
Ja	-6044
jaca	-6045
rnom	-6046
žnji	-6047
▁Rafa	-6048
▁izabra	-6049
▁terena	-6050
▁udario	-6051
▁nadokna	-6052
▁ostavio	-6053
▁Ujedinje	-6054
▁poziciji	-6055
▁prilično	-6056
▁smanjenje	-6057
▁Španjolska	-6058
:3	-6059
VDJE	-6060
viju	-6061
zati	-6062
▁31.	-6063
ivota	-6064
▁poto	-6065
▁Drago	-6066
▁skupa	-6067
▁duboko	-6068
▁zgrada	-6069
▁događaj	-6070
▁kraljev	-6071
▁otvorena	-6072
▁postignu	-6073
▁nogometnog	-6074
▁vatrogasci	-6075
sić	-6076
▁39	-6077
gore	-6078
▁Ili	-6079
ncije	-6080
▁Maro	-6081
kladno	-6082
tivnog	-6083
▁javni	-6084
▁snimke	-6085
▁Njemačke	-6086
▁osvojili	-6087
▁promatra	-6088
▁poluvremenu	-6089
IP	-6090
OV	-6091
:30	-6092
eka	-6093
eki	-6094
jac	-6095
ćene	-6096
▁Pau	-6097
▁ošt	-6098
▁uku	-6099
mente	-6100
shing	-6101
▁Belu	-6102
▁štra	-6103
▁jedva	-6104
▁Aleksa	-6105
▁prijave	-6106
▁opasnosti	-6107
▁rasporedu	-6108
▁stranicama	-6109
▁Španjolske	-6110
ssa	-6111
ćeva	-6112
▁HNS	-6113
▁kupi	-6114
▁pože	-6115
▁zasi	-6116
▁Marka	-6117
▁ciklu	-6118
▁Primor	-6119
▁Saraje	-6120
▁predme	-6121
▁stigli	-6122
▁turnir	-6123
▁sunčano	-6124
▁Europski	-6125
▁agencije	-6126
▁najčešće	-6127
▁pokazalo	-6128
▁vremenom	-6129
▁Maksimiru	-6130
▁drugačije	-6131
▁nogometne	-6132
▁objasnila	-6133
▁Zu	-6134
voda	-6135
ranih	-6136
redbi	-6137
▁kuna	-6138
▁čelu	-6139
▁Šved	-6140
▁Petar	-6141
▁nepro	-6142
▁Sjever	-6143
▁kojega	-6144
▁opcija	-6145
▁oporbe	-6146
▁sudaca	-6147
▁istrage	-6148
▁dužnosti	-6149
▁društvenih	-6150
▁natjecanju	-6151
ot	-6152
Ovo	-6153
▁37	-6154
cent	-6155
jača	-6156
loge	-6157
▁Glu	-6158
▁Lov	-6159
▁njom	-6160
▁vino	-6161
▁OVDJE	-6162
▁plasi	-6163
▁rujnu	-6164
▁ustvr	-6165
▁Austri	-6166
▁Njegov	-6167
▁danima	-6168
▁dnevno	-6169
▁prolje	-6170
▁većinu	-6171
▁komplek	-6172
▁specifi	-6173
▁uspjeha	-6174
▁američke	-6175
▁prošlosti	-6176
▁ug	-6177
gija	-6178
ruža	-6179
vinu	-6180
▁27.	-6181
▁guž	-6182
▁brat	-6183
▁brod	-6184
▁Svaki	-6185
▁Vrije	-6186
▁jezik	-6187
▁pamet	-6188
▁showa	-6189
▁troje	-6190
▁načina	-6191
▁radimo	-6192
▁sumnji	-6193
▁želite	-6194
▁klubova	-6195
id	-6196
ty	-6197
tika	-6198
▁vez	-6199
▁klup	-6200
tljivo	-6201
▁Zahva	-6202
▁doslo	-6203
▁kćeri	-6204
▁optuž	-6205
▁otoku	-6206
▁sinoć	-6207
▁zasta	-6208
▁djecom	-6209
▁nadzor	-6210
▁nekoga	-6211
▁emisije	-6212
▁platfor	-6213
▁publike	-6214
▁hrvatsku	-6215
▁politiku	-6216
▁Plenkovića	-6217
Ra	-6218
jke	-6219
▁Kli	-6220
čnici	-6221
▁duga	-6222
▁maso	-6223
terije	-6224
▁Belgi	-6225
▁dojam	-6226
▁scene	-6227
▁napokon	-6228
▁postali	-6229
▁uživati	-6230
▁ispričala	-6231
▁odvjetnik	-6232
▁putovanje	-6233
▁+	-6234
tao	-6235
dini	-6236
jeve	-6237
vača	-6238
▁Domi	-6239
▁Zaje	-6240
▁jaja	-6241
▁noge	-6242
▁prit	-6243
▁save	-6244
vješta	-6245
▁Zanim	-6246
▁prera	-6247
▁najmla	-6248
▁stanja	-6249
▁otkrili	-6250
▁prekršaja	-6251
▁Manchester	-6252
▁sposobnosti	-6253
ziv	-6254
toli	-6255
▁Mal	-6256
▁Tho	-6257
▁fri	-6258
Sport	-6259
govor	-6260
loške	-6261
▁Cilj	-6262
▁Dali	-6263
▁šteta	-6264
▁izvora	-6265
▁kontek	-6266
▁seriji	-6267
▁vozača	-6268
▁helikop	-6269
▁stranih	-6270
▁pobijedila	-6271
▁službenici	-6272
▁Sveučilišta	-6273
▁HA	-6274
nema	-6275
▁Film	-6276
▁boksa	-6277
▁kazna	-6278
▁mreži	-6279
▁otoka	-6280
▁Centra	-6281
▁izazov	-6282
▁dvorani	-6283
▁gostiju	-6284
▁posloda	-6285
▁različitim	-6286
era	-6287
tla	-6288
/202	-6289
burg	-6290
▁seg	-6291
sobno	-6292
▁nara	-6293
▁orke	-6294
▁zove	-6295
▁širi	-6296
▁iznaj	-6297
▁požar	-6298
▁požara	-6299
▁uništi	-6300
▁njihovom	-6301
▁proteklih	-6302
inu	-6303
kula	-6304
▁tzv	-6305
▁Kije	-6306
▁bilj	-6307
▁poča	-6308
stvima	-6309
▁videu	-6310
▁Udruge	-6311
▁domovi	-6312
▁komple	-6313
▁napomi	-6314
▁portal	-6315
▁uhvati	-6316
▁operati	-6317
▁rijetko	-6318
▁Facebooku	-6319
▁Francuska	-6320
▁koncentra	-6321
!'	-6322
jsko	-6323
tala	-6324
vida	-6325
▁ista	-6326
▁osla	-6327
▁selu	-6328
▁Dodao	-6329
▁Jedno	-6330
▁teška	-6331
▁žrtve	-6332
▁ponudu	-6333
▁svjesni	-6334
▁razgovor	-6335
▁spomenuti	-6336
▁definitivno	-6337
KOK	-6338
pti	-6339
▁55	-6340
▁kuć	-6341
dalma	-6342
▁same	-6343
▁temu	-6344
novića	-6345
tivnom	-6346
▁Dalić	-6347
▁borba	-6348
▁crkve	-6349
▁popis	-6350
▁Veliki	-6351
▁austri	-6352
▁cijela	-6353
▁dinami	-6354
▁knjiga	-6355
▁regije	-6356
▁djeluje	-6357
▁igračima	-6358
▁nadolaze	-6359
▁osvojiti	-6360
▁sudjelovati	-6361
▁unutrašnjosti	-6362
ove	-6363
minu	-6364
rona	-6365
tinj	-6366
volu	-6367
šila	-6368
▁san	-6369
▁Bero	-6370
▁ruka	-6371
▁Otkri	-6372
▁nepra	-6373
▁naslje	-6374
▁početi	-6375
▁uprava	-6376
▁njezinu	-6377
▁reakcije	-6378
▁operacije	-6379
▁Dva	-6380
tniji	-6381
▁prof	-6382
▁golom	-6383
▁goste	-6384
▁jutar	-6385
▁Washing	-6386
▁okoliša	-6387
▁događaju	-6388
▁opasnost	-6389
▁pronašli	-6390
▁nogometaš	-6391
▁parlament	-6392
▁tehnologije	-6393
Ima	-6394
vari	-6395
▁geo	-6396
▁Gran	-6397
▁magi	-6398
vljuju	-6399
▁mrežu	-6400
▁pošte	-6401
▁izbaci	-6402
▁linije	-6403
▁pretje	-6404
▁tijelu	-6405
▁vrtića	-6406
▁kazneno	-6407
▁Facebook	-6408
▁mjestima	-6409
▁ponašanje	-6410
▁ravnatelj	-6411
▁rezultatom	-6412
vat	-6413
risa	-6414
▁Sha	-6415
▁and	-6416
▁uza	-6417
lnici	-6418
▁dono	-6419
▁2015.	-6420
▁Sjeve	-6421
▁slavi	-6422
▁vodom	-6423
▁znate	-6424
▁želja	-6425
▁nemamo	-6426
▁otvorio	-6427
▁proizvodi	-6428
▁izvijestio	-6429
tov	-6430
▁Đo	-6431
vide	-6432
ziji	-6433
▁Ara	-6434
▁Liva	-6435
▁Vele	-6436
▁kota	-6437
▁Areni	-6438
▁kosti	-6439
▁važna	-6440
desetak	-6441
▁Libano	-6442
▁Utakmi	-6443
▁korist	-6444
▁počini	-6445
dalmacija	-6446
▁potpisao	-6447
▁slobodno	-6448
▁društvene	-6449
▁vjerovati	-6450
▁roditeljima	-6451
jekt	-6452
meni	-6453
▁Bož	-6454
▁imu	-6455
▁ovla	-6456
službe	-6457
▁angaži	-6458
▁glavna	-6459
▁modela	-6460
▁pogled	-6461
▁župani	-6462
▁priklju	-6463
▁Zdravlje	-6464
▁organizacija	-6465
RE	-6466
uz	-6467
hla	-6468
mbi	-6469
žim	-6470
▁48	-6471
dnost	-6472
veden	-6473
▁odabi	-6474
▁utrke	-6475
financi	-6476
▁ovisno	-6477
▁medalje	-6478
▁odlazak	-6479
▁savjeto	-6480
▁mirovinu	-6481
▁varaždin	-6482
▁zahtjeva	-6483
▁kategorije	-6484
▁novinarima	-6485
▁ugostitelj	-6486
LA	-6487
ght	-6488
mpu	-6489
malo	-6490
nava	-6491
sata	-6492
sila	-6493
vent	-6494
▁Pot	-6495
▁web	-6496
▁doja	-6497
▁mira	-6498
▁okri	-6499
kovima	-6500
▁mjeri	-6501
▁vijeć	-6502
▁komuna	-6503
▁sestra	-6504
▁titulu	-6505
▁Posebno	-6506
▁provesti	-6507
▁savjetni	-6508
▁sveučili	-6509
▁razdoblja	-6510
▁povjerenje	-6511
KA	-6512
wo	-6513
nel	-6514
▁Sil	-6515
▁izo	-6516
šnjih	-6517
šković	-6518
▁crije	-6519
▁sceni	-6520
▁Talija	-6521
▁admini	-6522
▁izjave	-6523
▁vaterpo	-6524
▁zatvara	-6525
▁napustio	-6526
▁zastupnik	-6527
▁nekretnina	-6528
jice	-6529
rate	-6530
▁moz	-6531
▁uža	-6532
ranom	-6533
▁ikad	-6534
▁nare	-6535
▁USKOK	-6536
▁gimna	-6537
▁jefti	-6538
▁rekon	-6539
▁usred	-6540
▁linija	-6541
▁zatvori	-6542
▁Jutarnji	-6543
▁donijela	-6544
▁sudjelovao	-6545
▁izvijestila	-6546
jma	-6547
žnu	-6548
▁Joe	-6549
▁Sam	-6550
ndova	-6551
▁šali	-6552
▁grani	-6553
▁prvim	-6554
▁dobiva	-6555
▁kreati	-6556
▁mehani	-6557
▁naziva	-6558
▁uvjeti	-6559
▁malolje	-6560
▁pljusko	-6561
▁poslove	-6562
▁procesu	-6563
▁doživlja	-6564
▁humanitar	-6565
▁predstavnika	-6566
tike	-6567
uter	-6568
čini	-6569
▁Kru	-6570
▁You	-6571
zerva	-6572
▁Alex	-6573
▁igri	-6574
tovima	-6575
▁Premi	-6576
▁iduće	-6577
dalmati	-6578
▁Splića	-6579
▁sjajno	-6580
▁takvim	-6581
▁Izraela	-6582
▁domaćih	-6583
▁stanova	-6584
▁staviti	-6585
▁europskog	-6586
▁financija	-6587
▁osiguranje	-6588
eg	-6589
ser	-6590
kedo	-6591
▁jak	-6592
▁Grbi	-6593
▁Bivši	-6594
▁Trenu	-6595
▁ulica	-6596
▁radila	-6597
▁raznih	-6598
▁slično	-6599
▁svatko	-6600
▁preuzeo	-6601
▁publici	-6602
▁suvreme	-6603
▁turniru	-6604
▁milijarde	-6605
▁vatrogasa	-6606
▁Policijske	-6607
▁([	-6608
anje	-6609
kraj	-6610
leta	-6611
rića	-6612
tsku	-6613
ćuju	-6614
čito	-6615
▁Fina	-6616
▁Kupa	-6617
▁Sigu	-6618
▁Zapa	-6619
▁baci	-6620
▁obve	-6621
▁sadr	-6622
▁suge	-6623
dovima	-6624
đivati	-6625
▁autor	-6626
▁obzir	-6627
▁zasad	-6628
▁Trumpo	-6629
▁tražiti	-6630
▁zvijezde	-6631
▁izgradnju	-6632
▁napravila	-6633
gni	-6634
ley	-6635
dića	-6636
duše	-6637
mine	-6638
stop	-6639
đani	-6640
▁ape	-6641
▁lip	-6642
▁crno	-6643
▁kise	-6644
▁koor	-6645
▁veću	-6646
▁vita	-6647
images	-6648
torija	-6649
▁Sabor	-6650
▁oblje	-6651
▁proma	-6652
cijskog	-6653
▁oglasi	-6654
▁presti	-6655
▁vikend	-6656
▁zaigra	-6657
▁razlika	-6658
▁pobjednik	-6659
▁razgovora	-6660
▁Olimpijskim	-6661
jp	-6662
dia	-6663
▁42	-6664
▁400	-6665
▁Sal	-6666
▁menad	-6667
▁petka	-6668
▁valja	-6669
▁vojne	-6670
▁Madrid	-6671
▁javnom	-6672
▁općine	-6673
▁ponude	-6674
▁sastav	-6675
▁predviđa	-6676
▁slučajeva	-6677
▁pobijedili	-6678
▁institucija	-6679
nis	-6680
rca	-6681
žak	-6682
tero	-6683
▁Isu	-6684
▁Moj	-6685
▁Oba	-6686
đenog	-6687
▁Osno	-6688
▁Vuko	-6689
stupan	-6690
▁Drugo	-6691
▁album	-6692
▁ikada	-6693
▁izgle	-6694
▁pande	-6695
▁iznajm	-6696
▁online	-6697
▁obrambe	-6698
▁spomenu	-6699
▁vozilom	-6700
▁njihovoj	-6701
▁županiji	-6702
▁poslovanja	-6703
cki	-6704
sija	-6705
▁Han	-6706
njene	-6707
▁krug	-6708
▁neod	-6709
cijska	-6710
gnosti	-6711
▁mikro	-6712
▁radom	-6713
▁birača	-6714
▁dijeli	-6715
▁regula	-6716
slobodna	-6717
▁troškova	-6718
godišnjaka	-6719
▁nezadovolj	-6720
▁predstavio	-6721
▁problemima	-6722
▁iskoristiti	-6723
au	-6724
rtava	-6725
▁dona	-6726
▁nizu	-6727
▁tona	-6728
▁uzne	-6729
▁Serge	-6730
▁bloki	-6731
▁Croati	-6732
▁obrana	-6733
▁ostane	-6734
▁raznim	-6735
▁bicikli	-6736
▁izdanje	-6737
▁krenuti	-6738
▁nikakve	-6739
▁obavije	-6740
▁pregled	-6741
▁četvero	-6742
▁pretvori	-6743
▁Dalmaciji	-6744
▁nedostaje	-6745
▁posljednja	-6746
▁zadovoljan	-6747
▁sudjelovali	-6748
dbu	-6749
loj	-6750
mara	-6751
▁Pav	-6752
▁meč	-6753
▁skr	-6754
fenzi	-6755
tskog	-6756
vrati	-6757
▁Luke	-6758
▁otpa	-6759
▁stav	-6760
▁hrana	-6761
▁najma	-6762
▁odbio	-6763
▁poštu	-6764
vanjima	-6765
▁Proble	-6766
▁mnogim	-6767
▁Gattuso	-6768
▁Hajduku	-6769
▁prihoda	-6770
▁zamisli	-6771
▁načelnik	-6772
▁novinara	-6773
▁pojedina	-6774
▁tjelesne	-6775
▁hrvatskoj	-6776
ST	-6777
The	-6778
zra	-6779
▁Mia	-6780
▁bar	-6781
▁nes	-6782
▁Geor	-6783
▁kama	-6784
▁limu	-6785
šavaju	-6786
▁gluma	-6787
▁Zorana	-6788
▁čokola	-6789
▁detalji	-6790
▁transpa	-6791
▁zaštiti	-6792
▁ostvario	-6793
▁strijelac	-6794
▁utjecajem	-6795
▁obrazovanje	-6796
2)	-6797
5,	-6798
dugo	-6799
▁nov	-6800
nstva	-6801
slike	-6802
▁Koso	-6803
▁jugu	-6804
▁vete	-6805
rajući	-6806
▁braka	-6807
▁hotel	-6808
▁plesa	-6809
▁izgled	-6810
▁lipnju	-6811
▁motivi	-6812
▁oružje	-6813
▁otišla	-6814
▁emociona	-6815
▁Šibeniku	-6816
▁upozorenje	-6817
▁ministarstvo	-6818
jpg	-6819
▁kći	-6820
▁men	-6821
metra	-6822
strem	-6823
tnije	-6824
tskom	-6825
▁Isla	-6826
▁fron	-6827
▁odab	-6828
▁poza	-6829
▁Inter	-6830
▁plani	-6831
▁Glavni	-6832
▁krenula	-6833
▁realiza	-6834
▁zabrinu	-6835
▁istaknuti	-6836
my	-6837
▁Anu	-6838
▁even	-6839
▁Marti	-6840
▁Nismo	-6841
šavanja	-6842
▁Primje	-6843
▁gastro	-6844
▁htjeli	-6845
▁kapita	-6846
▁nećemo	-6847
▁Turisti	-6848
▁djetinj	-6849
▁dvojica	-6850
▁sektoru	-6851
▁trening	-6852
▁postupka	-6853
▁projektu	-6854
▁vlastite	-6855
▁veleposla	-6856
▁stručnjaci	-6857
ovi	-6858
anja	-6859
zina	-6860
▁Med	-6861
tskim	-6862
▁liga	-6863
dnosti	-6864
▁Struč	-6865
▁plina	-6866
▁štete	-6867
▁pozicije	-6868
▁ubojstvo	-6869
▁prethodno	-6870
▁nacionalne	-6871
ET	-6872
Pro	-6873
cke	-6874
ćev	-6875
sona	-6876
šena	-6877
▁Air	-6878
▁Dvo	-6879
▁Tek	-6880
▁dis	-6881
▁pas	-6882
▁sen	-6883
grada	-6884
▁Adri	-6885
▁Hoće	-6886
▁Poja	-6887
▁Vučić	-6888
▁zlato	-6889
žavanja	-6890
▁bolest	-6891
▁istina	-6892
▁slavio	-6893
▁stolje	-6894
▁uzroko	-6895
▁kontine	-6896
▁republi	-6897
▁zadatak	-6898
▁djevojka	-6899
▁ostavlja	-6900
▁potrebne	-6901
▁smještaj	-6902
▁američkog	-6903
▁kompanije	-6904
▁otvorenom	-6905
▁stručnjak	-6906
▁polufinalu	-6907
▁zainteresi	-6908
bne	-6909
ppe	-6910
▁HNK	-6911
▁Spe	-6912
▁bur	-6913
▁Bili	-6914
▁majke	-6915
▁ondje	-6916
▁takti	-6917
▁tragi	-6918
▁želio	-6919
▁pisali	-6920
▁imovine	-6921
▁umjeren	-6922
▁kvalitet	-6923
▁mirovine	-6924
▁branitelja	-6925
▁infrastrukture	-6926
Re	-6927
eš	-6928
lly	-6929
▁Raki	-6930
▁Vodi	-6931
▁benzi	-6932
▁doveo	-6933
▁kakvu	-6934
▁malih	-6935
▁nared	-6936
▁stope	-6937
▁boriti	-6938
▁eksperi	-6939
▁medalju	-6940
▁svibnju	-6941
▁Vladimir	-6942
▁priznala	-6943
▁intervjuu	-6944
▁prikuplja	-6945
▁zaključila	-6946
▁upravljanje	-6947
01	-6948
MZ	-6949
Ako	-6950
fal	-6951
wit	-6952
▁Cu	-6953
veno	-6954
čicu	-6955
telju	-6956
▁bore	-6957
▁gole	-6958
▁kćer	-6959
▁nose	-6960
rirati	-6961
▁Gospo	-6962
▁Hvala	-6963
▁Norve	-6964
▁glumi	-6965
vljenje	-6966
▁izašao	-6967
▁izosta	-6968
▁sretan	-6969
▁cijeloj	-6970
▁dodatne	-6971
▁dolaska	-6972
▁ostavku	-6973
▁palesti	-6974
▁registri	-6975
▁upozorio	-6976
▁komentarima	-6977
ard	-6978
lie	-6979
šica	-6980
ških	-6981
▁Dio	-6982
▁tad	-6983
▁tip	-6984
▁Poku	-6985
▁nazo	-6986
▁rano	-6987
▁slab	-6988
▁Unite	-6989
▁obali	-6990
▁uzeti	-6991
▁Dragan	-6992
▁Reuter	-6993
▁pomaga	-6994
▁određene	-6995
▁partneri	-6996
▁sastanak	-6997
▁vidljivo	-6998
▁ljestvici	-6999
▁gospodarstvo	-7000
▁poljoprivred	-7001
mora	-7002
▁dug	-7003
▁ise	-7004
▁nai	-7005
lnica	-7006
šteni	-7007
▁mama	-7008
▁Potre	-7009
▁Raspu	-7010
▁dresu	-7011
▁ilega	-7012
▁mlađe	-7013
▁čišće	-7014
šavanje	-7015
▁Object	-7016
▁akcija	-7017
▁goriva	-7018
▁Andreja	-7019
▁alterna	-7020
▁intelige	-7021
▁izbornoj	-7022
▁središtu	-7023
▁Tomašević	-7024
▁nogometni	-7025
▁policijski	-7026
▁predstavni	-7027
ritet	-7028
stero	-7029
▁Gaze	-7030
▁avan	-7031
luence	-7032
novima	-7033
▁2014.	-7034
▁bivša	-7035
▁dobit	-7036
▁krivo	-7037
▁mlađi	-7038
▁ponaj	-7039
▁sukob	-7040
▁upita	-7041
▁zapri	-7042
▁okviru	-7043
▁upisao	-7044
▁medalja	-7045
▁otvoren	-7046
▁spektak	-7047
▁Europsko	-7048
▁Šibenika	-7049
▁područjima	-7050
▁voditeljica	-7051
Ko	-7052
gić	-7053
vicu	-7054
▁čuti	-7055
▁Prija	-7056
▁kršća	-7057
dnicima	-7058
▁Sabora	-7059
▁otkako	-7060
▁srpnju	-7061
▁tajnik	-7062
▁Italiji	-7063
▁postaju	-7064
▁Zelenski	-7065
▁povećati	-7066
▁atmosferu	-7067
Tu	-7068
goj	-7069
remo	-7070
▁Ovi	-7071
šenju	-7072
▁kafi	-7073
▁zamo	-7074
politi	-7075
▁radim	-7076
▁dovodi	-7077
▁majsto	-7078
▁najsta	-7079
▁Turudić	-7080
▁pokušaj	-7081
▁predmet	-7082
▁nogometu	-7083
▁problemi	-7084
▁reakcija	-7085
▁povremeno	-7086
▁transforma	-7087
EP	-7088
ano	-7089
har	-7090
que	-7091
rea	-7092
▁Ol	-7093
▁kg	-7094
▁ina	-7095
▁mog	-7096
stili	-7097
▁mane	-7098
▁Teško	-7099
▁glavi	-7100
▁sreću	-7101
đivanje	-7102
▁baviti	-7103
▁hrabro	-7104
▁optere	-7105
▁suigra	-7106
▁ostalog	-7107
▁poručila	-7108
▁gradovima	-7109
▁raspolaga	-7110
▁studenoga	-7111
LI	-7112
xa	-7113
trag	-7114
znih	-7115
▁Sko	-7116
djeli	-7117
kcije	-7118
trije	-7119
▁1000	-7120
▁Naša	-7121
▁zare	-7122
▁zaro	-7123
▁David	-7124
▁Nadam	-7125
▁Pobje	-7126
▁istoj	-7127
▁očeku	-7128
▁stare	-7129
▁uloge	-7130
▁glazbu	-7131
▁kolegi	-7132
▁čekaju	-7133
▁dužnost	-7134
▁gradske	-7135
▁profilu	-7136
▁direktora	-7137
▁listopadu	-7138
▁najvažnije	-7139
▁odvjetnika	-7140
jak	-7141
lor	-7142
ntan	-7143
ntna	-7144
▁Jen	-7145
▁Lau	-7146
▁Naš	-7147
▁Wal	-7148
▁Tamo	-7149
▁2012.	-7150
▁glave	-7151
▁takvu	-7152
▁trend	-7153
▁Europu	-7154
▁Moramo	-7155
▁glavom	-7156
▁htjela	-7157
▁službi	-7158
▁oglasio	-7159
▁slobodu	-7160
▁školama	-7161
▁natječaj	-7162
▁Francuske	-7163
▁Slovenije	-7164
▁liječnika	-7165
▁unutarnjih	-7166
Sa	-7167
teh	-7168
ralo	-7169
▁Gro	-7170
▁jam	-7171
vajte	-7172
▁Dodi	-7173
▁bici	-7174
▁eska	-7175
▁otpo	-7176
▁ulje	-7177
zirali	-7178
▁stanu	-7179
▁automa	-7180
▁jedana	-7181
▁odbija	-7182
▁granica	-7183
▁potpore	-7184
▁srednje	-7185
▁Zahvalju	-7186
▁jedinici	-7187
▁pojavila	-7188
▁mjesecima	-7189
▁omogućuje	-7190
▁potvrdila	-7191
▁istovremeno	-7192
8)	-7193
NE	-7194
mah	-7195
▁Nu	-7196
▁Kne	-7197
▁Mer	-7198
rijama	-7199
▁Balka	-7200
▁parti	-7201
▁pogor	-7202
▁probu	-7203
mentima	-7204
zivanje	-7205
▁pobjedi	-7206
▁priprem	-7207
▁Europska	-7208
▁kampanju	-7209
▁prosincu	-7210
▁sjećanja	-7211
▁trenutka	-7212
▁utjecaja	-7213
▁trenucima	-7214
▁spriječiti	-7215
1)	-7216
nc	-7217
jeg	-7218
tana	-7219
trka	-7220
ziran	-7221
đenom	-7222
šnjim	-7223
▁Boru	-7224
▁dopu	-7225
▁čuli	-7226
▁Istre	-7227
▁Marina	-7228
▁napade	-7229
▁subote	-7230
▁uputio	-7231
▁izložbe	-7232
▁napadač	-7233
▁nazivom	-7234
▁pogotka	-7235
▁ubojstva	-7236
▁ponašanja	-7237
▁asistencija	-7238
evi	-7239
dile	-7240
▁Lje	-7241
▁Opa	-7242
djelo	-7243
ispla	-7244
▁Kana	-7245
loškog	-7246
▁Kreši	-7247
▁jutros	-7248
▁skanda	-7249
▁struje	-7250
▁neuspje	-7251
▁pjesama	-7252
▁velikoj	-7253
▁jedinica	-7254
▁utvrđeno	-7255
▁Domovinski	-7256
▁komentirala	-7257
▁zagrebačkom	-7258
▁zadovoljstvo	-7259
ily	-7260
rale	-7261
šnog	-7262
žuju	-7263
▁Chi	-7264
tenti	-7265
▁loši	-7266
▁Izvor	-7267
▁hitne	-7268
▁uloga	-7269
▁akciju	-7270
▁kolovo	-7271
▁obveza	-7272
▁opreme	-7273
▁ponovo	-7274
▁seksua	-7275
▁sugovo	-7276
▁Argenti	-7277
▁Najviše	-7278
▁nastala	-7279
▁romanti	-7280
▁smješta	-7281
▁učenici	-7282
godišnjem	-7283
▁dodajući	-7284
▁stadiona	-7285
▁teritori	-7286
▁sufinanci	-7287
▁navijačima	-7288
▁razgovarali	-7289
▁predstavnici	-7290
sca	-7291
tit	-7292
ves	-7293
lass	-7294
nosa	-7295
pija	-7296
rsko	-7297
tuje	-7298
▁Kona	-7299
▁Maja	-7300
▁Toni	-7301
▁imat	-7302
▁jeze	-7303
▁sela	-7304
▁skrb	-7305
▁Harry	-7306
▁Pjeva	-7307
▁onako	-7308
▁prepu	-7309
▁putni	-7310
▁skija	-7311
▁uzrok	-7312
▁Europa	-7313
▁koncep	-7314
▁nezavi	-7315
▁nikako	-7316
▁uhićen	-7317
▁dogovor	-7318
▁prijava	-7319
▁srednjo	-7320
▁Najbolji	-7321
▁državnom	-7322
▁izvanred	-7323
▁komunici	-7324
▁proizvod	-7325
▁korištenja	-7326
ega	-7327
▁eg	-7328
feri	-7329
▁Mac	-7330
▁Sch	-7331
tović	-7332
čenju	-7333
▁Gore	-7334
▁okon	-7335
ljenog	-7336
porter	-7337
▁Autor	-7338
▁Rimac	-7339
▁ekipu	-7340
▁infek	-7341
▁motor	-7342
▁nadzo	-7343
▁nemam	-7344
▁obvez	-7345
▁strah	-7346
▁upora	-7347
▁Zagrep	-7348
▁ponuda	-7349
▁izazvao	-7350
▁objekti	-7351
▁odlaska	-7352
▁origina	-7353
▁stajali	-7354
▁ulicama	-7355
▁lokacija	-7356
▁napredak	-7357
▁svjetske	-7358
▁osumnjiče	-7359
▁prometnoj	-7360
▁zajednički	-7361
▁financijski	-7362
lesu	-7363
čaju	-7364
čana	-7365
▁Goo	-7366
▁pun	-7367
porta	-7368
▁Puno	-7369
▁Star	-7370
▁dane	-7371
▁vaša	-7372
stojan	-7373
▁Muška	-7374
▁dulje	-7375
▁mlada	-7376
▁osvje	-7377
▁Zlatko	-7378
▁koncer	-7379
▁nazvao	-7380
▁samopo	-7381
▁Hezbola	-7382
▁izborni	-7383
▁zabrani	-7384
▁lokalnih	-7385
dov	-7386
lea	-7387
mes	-7388
▁AI	-7389
duje	-7390
▁gri	-7391
▁ika	-7392
danje	-7393
kupno	-7394
nstvo	-7395
tanja	-7396
istinu	-7397
▁Micha	-7398
▁Radio	-7399
▁glasi	-7400
▁turne	-7401
▁Centar	-7402
▁prošla	-7403
▁razoča	-7404
▁Martina	-7405
▁pojavio	-7406
▁prikupi	-7407
▁pokušati	-7408
▁preuzeti	-7409
▁sadržaja	-7410
▁troškove	-7411
▁vrijedan	-7412
▁apsolutno	-7413
▁održavanje	-7414
Je	-7415
lus	-7416
ninu	-7417
▁Her	-7418
▁Obo	-7419
▁žup	-7420
kinje	-7421
vrata	-7422
▁Mile	-7423
▁ideo	-7424
▁teže	-7425
▁angaž	-7426
▁listu	-7427
▁pitao	-7428
▁uživo	-7429
▁olimpi	-7430
▁popisu	-7431
▁porast	-7432
▁preven	-7433
▁služba	-7434
▁trenin	-7435
▁Bjelica	-7436
▁aktivno	-7437
▁uređaja	-7438
▁Vjerujem	-7439
▁njihovog	-7440
▁objavlje	-7441
▁Zanimljivo	-7442
▁prvenstveno	-7443
▁rezultatima	-7444
Vi	-7445
ljo	-7446
mid	-7447
tmu	-7448
▁75	-7449
bala	-7450
bara	-7451
ruje	-7452
teru	-7453
vači	-7454
▁nogu	-7455
▁nude	-7456
▁skre	-7457
▁ušli	-7458
▁Kašte	-7459
▁Potom	-7460
▁Saboru	-7461
▁ruskog	-7462
▁sprema	-7463
▁vratar	-7464
▁cijelom	-7465
▁izazove	-7466
▁definira	-7467
▁podržava	-7468
▁postavio	-7469
▁podijelio	-7470
▁Olimpijske	-7471
▁predsjednikom	-7472
Bi	-7473
Ve	-7474
Cro	-7475
ngu	-7476
pone	-7477
zali	-7478
znim	-7479
▁20-	-7480
▁Ide	-7481
▁obr	-7482
▁Euru	-7483
▁Jela	-7484
▁inva	-7485
torica	-7486
▁apart	-7487
▁ideje	-7488
▁domina	-7489
▁kontra	-7490
▁vježba	-7491
▁dramati	-7492
▁procesa	-7493
▁slavlje	-7494
▁trebamo	-7495
▁zatvoru	-7496
▁omogućiti	-7497
▁OŠ	-7498
dbre	-7499
lozo	-7500
panj	-7501
pova	-7502
ting	-7503
▁600	-7504
▁Sli	-7505
njava	-7506
tirao	-7507
▁Japa	-7508
▁Ruje	-7509
▁luka	-7510
vardio	-7511
▁Milan	-7512
▁Premije	-7513
▁poteško	-7514
▁travnju	-7515
▁uklanja	-7516
▁kontrole	-7517
▁poručili	-7518
▁povjeren	-7519
▁pripremi	-7520
▁savršeno	-7521
▁vodstvom	-7522
▁radionice	-7523
▁pobjednika	-7524
▁sposobnost	-7525
un	-7526
pto	-7527
▁iš	-7528
drije	-7529
mpati	-7530
▁Afri	-7531
▁peti	-7532
donače	-7533
ljenim	-7534
▁Boris	-7535
▁sreće	-7536
▁crveni	-7537
▁Kraljev	-7538
▁popular	-7539
▁postroj	-7540
▁razreda	-7541
▁turista	-7542
▁festivalu	-7543
▁upravljao	-7544
▁situacijama	-7545
▁zaposlenika	-7546
▁predstavljaju	-7547
efi	-7548
vod	-7549
zlo	-7550
šem	-7551
▁(8	-7552
enju	-7553
djeti	-7554
▁Izbo	-7555
▁Voza	-7556
▁pilo	-7557
▁trgo	-7558
▁vani	-7559
▁vizu	-7560
ljenju	-7561
▁istog	-7562
▁skrbi	-7563
▁instru	-7564
▁morala	-7565
▁siroma	-7566
▁zanema	-7567
▁dugotra	-7568
▁eventua	-7569
▁istragu	-7570
▁izdvoji	-7571
▁održana	-7572
▁policiju	-7573
▁promjenu	-7574
▁izgradnje	-7575
▁kandidati	-7576
▁zasigurno	-7577
▁sudjelovanje	-7578
4)	-7579
5)	-7580
▁PS	-7581
smom	-7582
▁Gri	-7583
▁sub	-7584
▁Osca	-7585
▁neću	-7586
ćenito	-7587
▁Radić	-7588
▁resur	-7589
▁uveli	-7590
vjeroja	-7591
▁Jelena	-7592
▁korije	-7593
▁pitali	-7594
▁svakoj	-7595
▁osnovne	-7596
▁student	-7597
▁veljači	-7598
▁upoznati	-7599
▁izazovima	-7600
▁mijenjati	-7601
▁ostvarili	-7602
▁sudionika	-7603
▁materijala	-7604
▁stanovništva	-7605
2,	-7606
dC	-7607
ONA	-7608
hra	-7609
ija	-7610
kan	-7611
liju	-7612
mske	-7613
▁azi	-7614
▁čim	-7615
▁šet	-7616
rskih	-7617
▁Eura	-7618
▁Osje	-7619
▁dođu	-7620
▁seks	-7621
▁1991.	-7622
▁sprje	-7623
▁vašem	-7624
▁želju	-7625
▁donose	-7626
▁nerije	-7627
▁vjetro	-7628
▁Borussi	-7629
▁daljnje	-7630
▁izravno	-7631
▁potrebu	-7632
▁stariji	-7633
▁iznosila	-7634
▁konkurenciji	-7635
pp	-7636
Lju	-7637
lca	-7638
šći	-7639
šeno	-7640
▁Jur	-7641
▁uga	-7642
nicom	-7643
snici	-7644
▁kemi	-7645
▁okup	-7646
▁Gleda	-7647
zivanja	-7648
▁Budući	-7649
▁svojem	-7650
▁trećem	-7651
▁dodajte	-7652
▁kulturu	-7653
▁grmljavi	-7654
▁privreme	-7655
▁važnosti	-7656
▁vlasnika	-7657
▁osigurava	-7658
▁očekivanja	-7659
▁odgovornosti	-7660
Ca	-7661
ls	-7662
bna	-7663
lik	-7664
▁46	-7665
šice	-7666
▁Ton	-7667
▁psa	-7668
▁tla	-7669
verpo	-7670
▁Crne	-7671
▁DORH	-7672
▁Stan	-7673
taciju	-7674
▁Gradu	-7675
▁grama	-7676
▁takvo	-7677
▁važne	-7678
▁vojni	-7679
▁župan	-7680
▁Google	-7681
▁kralji	-7682
▁mješta	-7683
▁odobre	-7684
▁vidite	-7685
▁fizički	-7686
▁seksual	-7687
▁skokova	-7688
▁doprinos	-7689
▁kampanji	-7690
▁površine	-7691
▁siječnju	-7692
▁sportske	-7693
▁Dalmacije	-7694
▁perspekti	-7695
▁priznanje	-7696
▁sjevernom	-7697
▁inozemstvu	-7698
▁djelatnosti	-7699
▁zapovjednik	-7700
▁nevjerojatno	-7701
▁glasnogovornik	-7702
1,	-7703
CM	-7704
rur	-7705
▁HT	-7706
mera	-7707
nela	-7708
renu	-7709
vaku	-7710
šnih	-7711
▁Red	-7712
prema	-7713
zisti	-7714
▁Kola	-7715
▁krei	-7716
▁Zakon	-7717
▁broda	-7718
▁jedni	-7719
▁lansi	-7720
▁prepre	-7721
▁Gvardio	-7722
▁William	-7723
▁provode	-7724
▁sadržaj	-7725
▁sjednici	-7726
▁Jakirović	-7727
▁parkirali	-7728
▁dijagnosti	-7729
▁gledatelja	-7730
▁Hercegovine	-7731
Ka	-7732
ip	-7733
▁44	-7734
▁Em	-7735
▁co	-7736
gora	-7737
gura	-7738
menu	-7739
▁Mor	-7740
▁NBA	-7741
▁nat	-7742
plova	-7743
▁Pono	-7744
▁horo	-7745
▁kože	-7746
▁najo	-7747
▁stdC	-7748
▁Novom	-7749
▁dokaz	-7750
▁dobije	-7751
▁najbli	-7752
▁objavu	-7753
▁Perišić	-7754
▁Ustavni	-7755
▁dalmati	-7756
▁slobode	-7757
▁zagrija	-7758
▁doslovno	-7759
▁novinare	-7760
▁stdClass	-7761
▁sukladno	-7762
▁parlamentu	-7763
▁zaposlenih	-7764
▁tehnologija	-7765
":	-7766
▁,	-7767
eri	-7768
rve	-7769
tati	-7770
vidu	-7771
▁120	-7772
▁Zem	-7773
▁bol	-7774
rišta	-7775
▁Buga	-7776
▁leđa	-7777
▁ubio	-7778
▁Bosne	-7779
▁hvala	-7780
▁potpi	-7781
▁proto	-7782
▁ubrza	-7783
▁Makedo	-7784
▁tranzi	-7785
▁utječe	-7786
▁Institu	-7787
▁prijavu	-7788
▁suprugu	-7789
▁djevojke	-7790
▁muškarci	-7791
▁atmosfera	-7792
▁prijetnje	-7793
▁SuperSport	-7794
HMZ	-7795
jum	-7796
žom	-7797
utim	-7798
zolu	-7799
šali	-7800
▁isc	-7801
▁Juri	-7802
▁Kroz	-7803
▁Ligu	-7804
▁Pore	-7805
▁Viso	-7806
▁zrak	-7807
koviti	-7808
▁Mladi	-7809
pularni	-7810
▁motoci	-7811
▁održat	-7812
▁njezino	-7813
▁poznate	-7814
▁Križevci	-7815
▁konzerva	-7816
▁odigrali	-7817
▁nastavila	-7818
▁svjetskih	-7819
▁industrije	-7820
Pa	-7821
nea	-7822
teme	-7823
zite	-7824
škol	-7825
▁DVD	-7826
▁Los	-7827
▁Ore	-7828
▁ora	-7829
kluzi	-7830
stala	-7831
▁dvoj	-7832
▁ekra	-7833
▁kono	-7834
▁pije	-7835
▁ispro	-7836
▁izaći	-7837
▁ureda	-7838
▁uzvra	-7839
zapadni	-7840
▁jeziku	-7841
▁dopušte	-7842
▁ključni	-7843
▁mnogima	-7844
▁popodne	-7845
▁prekida	-7846
▁turizam	-7847
▁sredinom	-7848
▁zrakoplov	-7849
▁direktorica	-7850
TP	-7851
chu	-7852
letje	-7853
posle	-7854
renju	-7855
▁luke	-7856
▁pobu	-7857
▁Kekin	-7858
▁cvije	-7859
▁knjiž	-7860
▁proče	-7861
▁člana	-7862
▁dvoboj	-7863
▁mnogih	-7864
▁ponudi	-7865
▁Nedavno	-7866
▁progovo	-7867
▁trenira	-7868
▁prometna	-7869
▁kontekstu	-7870
▁kapaciteta	-7871
▁polufinale	-7872
▁potencijal	-7873
koni	-7874
lian	-7875
viji	-7876
▁She	-7877
▁šut	-7878
droli	-7879
ćevoj	-7880
▁EPPO	-7881
▁tram	-7882
tacije	-7883
▁Ronal	-7884
▁Stude	-7885
▁plana	-7886
▁Hrvoje	-7887
▁ispada	-7888
▁ruskih	-7889
▁uvjeta	-7890
teljstvo	-7891
▁Istraži	-7892
▁ekstrem	-7893
▁filmova	-7894
▁navrata	-7895
▁postići	-7896
▁vratila	-7897
▁zahvati	-7898
▁događanja	-7899
▁pacijenata	-7900
▁zaustaviti	-7901
▁zrakoplova	-7902
rad	-7903
licu	-7904
▁Cor	-7905
▁pau	-7906
▁Medi	-7907
▁Meni	-7908
▁trgu	-7909
nijeli	-7910
▁Imali	-7911
▁uzbud	-7912
▁znala	-7913
▁dobrom	-7914
▁radnih	-7915
▁većini	-7916
▁Croatia	-7917
▁dionica	-7918
▁nasmija	-7919
▁prijeti	-7920
▁vjeruju	-7921
▁Splitsko	-7922
▁otvoriti	-7923
▁prosjeku	-7924
▁započela	-7925
▁ljestvice	-7926
▁dijelovima	-7927
▁privremeno	-7928
▁zaključuje	-7929
▁reprezentativ	-7930
7,	-7931
Bo	-7932
IV	-7933
!",	-7934
llo	-7935
net	-7936
pix	-7937
▁Či	-7938
redo	-7939
čuna	-7940
▁BBC	-7941
▁ist	-7942
▁Kama	-7943
▁bura	-7944
▁inde	-7945
▁Druga	-7946
▁Istak	-7947
▁Nitko	-7948
▁križa	-7949
▁najja	-7950
▁opisu	-7951
▁slike	-7952
▁znača	-7953
▁Pritom	-7954
▁Velike	-7955
▁krumpi	-7956
▁pravom	-7957
▁doživio	-7958
▁istraga	-7959
▁karakte	-7960
▁Vukovara	-7961
▁današnje	-7962
▁hrvatsko	-7963
▁incident	-7964
▁lokalnim	-7965
▁korisnici	-7966
▁prisustvo	-7967
▁završetka	-7968
▁rekonstruk	-7969
6)	-7970
rbu	-7971
▁Đu	-7972
stav	-7973
▁Fin	-7974
▁nez	-7975
dekva	-7976
dović	-7977
vosti	-7978
▁mate	-7979
▁obna	-7980
▁stje	-7981
▁trbu	-7982
▁ugra	-7983
▁2013.	-7984
▁Jeste	-7985
▁Selak	-7986
▁propu	-7987
▁radne	-7988
ferenci	-7989
▁hladno	-7990
▁obnove	-7991
▁sestre	-7992
▁većine	-7993
▁ženama	-7994
▁živote	-7995
▁Talijan	-7996
▁naselja	-7997
▁neočeki	-7998
▁osvrnuo	-7999
▁otkriti	-8000
▁neslužbe	-8001
▁smanjuje	-8002
▁studenti	-8003
▁stvoriti	-8004
▁ustanova	-8005
▁zamjenik	-8006
▁željezni	-8007
▁Svjetskom	-8008
▁poslovanje	-8009
▁ukrajinske	-8010
ZO	-8011
ell	-8012
mon	-8013
nej	-8014
▁65	-8015
cida	-8016
đenu	-8017
▁Pet	-8018
▁Tay	-8019
▁pop	-8020
plasi	-8021
▁Nina	-8022
▁boli	-8023
▁njen	-8024
▁onim	-8025
▁orga	-8026
zirani	-8027
▁2011.	-8028
▁Ovdje	-8029
▁Slije	-8030
▁radno	-8031
▁slabo	-8032
▁traga	-8033
▁treća	-8034
▁zlata	-8035
▁češće	-8036
▁žesto	-8037
▁Organi	-8038
▁mjesti	-8039
▁žrtava	-8040
▁Liverpo	-8041
▁glavnom	-8042
▁Međunaro	-8043
▁Portugal	-8044
▁izbjegli	-8045
▁zadržati	-8046
▁obavješta	-8047
▁restorana	-8048
▁zaboraviti	-8049
▁proizvođača	-8050
▁reprezentaciji	-8051
SA	-8052
as	-8053
Sve	-8054
kat	-8055
mno	-8056
mail	-8057
yahu	-8058
▁Rea	-8059
▁Vene	-8060
▁pomi	-8061
▁silo	-8062
▁urba	-8063
▁časo	-8064
▁2026.	-8065
▁Netan	-8066
▁inspe	-8067
▁ovakve	-8068
▁sastoj	-8069
▁Velikoj	-8070
▁moderni	-8071
▁potreba	-8072
▁procedu	-8073
▁sektora	-8074
▁stranci	-8075
▁trajati	-8076
▁zaredom	-8077
▁Trenutno	-8078
▁navijače	-8079
▁ostaviti	-8080
▁Dalmacija	-8081
▁nastupiti	-8082
▁zaljublje	-8083
▁društvenoj	-8084
▁nogometaša	-8085
?"	-8086
mak	-8087
▁Wi	-8088
▁it	-8089
▁Lovre	-8090
▁podje	-8091
▁prire	-8092
mercija	-8093
▁kupnju	-8094
▁obraća	-8095
▁počelo	-8096
▁izdanju	-8097
▁potresa	-8098
▁zločina	-8099
▁ključnih	-8100
▁ponegdje	-8101
▁profesor	-8102
▁sljedeći	-8103
▁potvrdili	-8104
▁osiguranja	-8105
▁stručnjaka	-8106
▁turističke	-8107
▁vatrogasaca	-8108
▁ministarstva	-8109
uti	-8110
čao	-8111
sije	-8112
▁One	-8113
▁poha	-8114
Displa	-8115
▁Bjelo	-8116
▁Zatim	-8117
▁formu	-8118
▁jesti	-8119
▁prezi	-8120
Display	-8121
▁javnim	-8122
▁radnog	-8123
▁revolu	-8124
▁rijeke	-8125
▁tražio	-8126
godišnju	-8127
▁neizvje	-8128
▁slijede	-8129
▁izazvala	-8130
▁njemački	-8131
▁povećava	-8132
▁Netanyahu	-8133
▁političkih	-8134
iva	-8135
ONAL	-8136
ljda	-8137
žnoj	-8138
▁Ver	-8139
gović	-8140
title	-8141
▁Muze	-8142
▁pame	-8143
ncijom	-8144
▁spaja	-8145
▁sviđa	-8146
▁šansu	-8147
▁Matija	-8148
▁državu	-8149
▁fokusi	-8150
▁ofenzi	-8151
▁otišli	-8152
▁pomažu	-8153
▁uistinu	-8154
▁poremeća	-8155
▁poslovne	-8156
▁pronašao	-8157
▁prikazuje	-8158
▁financijske	-8159
▁Ministarstvu	-8160
▁infrastrukturu	-8161
dor	-8162
xel	-8163
▁HG	-8164
king	-8165
sili	-8166
varu	-8167
▁195	-8168
▁Oko	-8169
▁Uni	-8170
▁vrt	-8171
burgu	-8172
ranog	-8173
▁Glaz	-8174
▁Isti	-8175
▁Moja	-8176
▁Vrlo	-8177
▁York	-8178
▁odla	-8179
▁onog	-8180
▁svla	-8181
▁ubla	-8182
loških	-8183
▁smeta	-8184
▁tekst	-8185
▁odjela	-8186
▁otkaza	-8187
▁pregle	-8188
▁rizika	-8189
▁startu	-8190
▁ciljeve	-8191
▁rukomet	-8192
▁skuplja	-8193
▁stadion	-8194
▁vidjela	-8195
▁postupku	-8196
▁prvoliga	-8197
▁završava	-8198
▁doznajemo	-8199
▁republika	-8200
▁problemati	-8201
▁inteligencije	-8202
▁49	-8203
▁Us	-8204
▁ae	-8205
▁fra	-8206
▁gar	-8207
namje	-8208
ndard	-8209
▁NACI	-8210
▁dugi	-8211
▁suca	-8212
▁Čini	-8213
▁izvla	-8214
▁sliku	-8215
▁šesto	-8216
▁najdra	-8217
▁održao	-8218
▁ožujku	-8219
▁rečeno	-8220
▁snijeg	-8221
▁Antonio	-8222
▁nasilje	-8223
▁neposre	-8224
▁rezervi	-8225
▁trebate	-8226
▁komisije	-8227
▁stranaka	-8228
▁trenutke	-8229
▁prihvatiti	-8230
▁razgovarao	-8231
▁korisnicima	-8232
▁predsjedniku	-8233
the	-8234
čera	-8235
▁Lan	-8236
krati	-8237
▁Male	-8238
▁dove	-8239
▁plus	-8240
▁strp	-8241
▁Zvoni	-8242
▁emiti	-8243
▁evaku	-8244
▁onome	-8245
▁plaću	-8246
▁Ludbre	-8247
▁Navija	-8248
▁Udruga	-8249
▁Većina	-8250
▁kamere	-8251
▁knjigu	-8252
▁učinio	-8253
teljstva	-8254
▁Postoji	-8255
▁autenti	-8256
▁ciljeva	-8257
▁planove	-8258
▁vratili	-8259
▁Festival	-8260
▁izvješću	-8261
▁kolegama	-8262
▁pronašla	-8263
▁ulaznice	-8264
▁Europskoj	-8265
▁stvaranje	-8266
▁teroristi	-8267
▁projektima	-8268
dd	-8269
,00	-8270
▁43	-8271
▁ID	-8272
ltra	-8273
ranj	-8274
ževa	-8275
▁250	-8276
▁BDP	-8277
sniji	-8278
▁Neka	-8279
▁iran	-8280
▁Sanja	-8281
▁govor	-8282
▁podne	-8283
▁primi	-8284
▁spava	-8285
▁brojem	-8286
▁izvori	-8287
lnostima	-8288
▁Italija	-8289
▁Valenti	-8290
▁napredo	-8291
▁pomisli	-8292
▁posebnu	-8293
▁razvije	-8294
▁Ustavnog	-8295
▁odigrati	-8296
▁osigurao	-8297
▁obiteljske	-8298
Be	-8299
ER	-8300
dr	-8301
Pre	-8302
don	-8303
fle	-8304
kvu	-8305
use	-8306
▁tj	-8307
elim	-8308
šeni	-8309
knuti	-8310
sport	-8311
stila	-8312
štinu	-8313
▁Karo	-8314
▁Suda	-8315
▁dres	-8316
▁druk	-8317
▁poro	-8318
tijeva	-8319
▁obale	-8320
▁Trener	-8321
▁albuma	-8322
▁izgubi	-8323
▁polako	-8324
▁derbiju	-8325
▁ključna	-8326
▁odlukom	-8327
▁studije	-8328
▁Sloveniji	-8329
▁Svjetskog	-8330
▁pregovara	-8331
▁pokušavaju	-8332
▁aktivnostima	-8333
adi	-8334
▁Lin	-8335
ženih	-8336
▁Antu	-8337
▁Puti	-8338
▁licu	-8339
▁opse	-8340
▁prat	-8341
▁roka	-8342
▁suve	-8343
▁uzeo	-8344
laciju	-8345
▁Mosta	-8346
▁Yorku	-8347
▁prste	-8348
▁volio	-8349
žavanje	-8350
▁Lucija	-8351
▁Penava	-8352
▁ovakav	-8353
▁oznaka	-8354
▁srpski	-8355
▁učinak	-8356
▁Donalda	-8357
▁nastavi	-8358
▁omoguća	-8359
▁pjesmom	-8360
▁sastavu	-8361
▁NACIONAL	-8362
▁Nekoliko	-8363
▁treninga	-8364
▁liječnici	-8365
▁sportskih	-8366
▁djelatnika	-8367
▁natjecanjima	-8368
▁tradicionalno	-8369
ek	-8370
zz	-8371
mene	-8372
ntne	-8373
ston	-8374
ušti	-8375
ndidi	-8376
▁Most	-8377
▁bave	-8378
▁mađa	-8379
00.000	-8380
▁Daily	-8381
▁Nikad	-8382
▁Petri	-8383
▁Sindi	-8384
▁hitno	-8385
▁intim	-8386
▁sjeda	-8387
▁sugla	-8388
▁dijele	-8389
▁Jadroli	-8390
▁Rezulta	-8391
▁ostatak	-8392
▁svojevr	-8393
▁uslijed	-8394
▁vratima	-8395
▁nezabora	-8396
▁pokušaja	-8397
▁ustanove	-8398
▁pozitivan	-8399
▁Primjerice	-8400
▁djelovanja	-8401
▁sredstvima	-8402
▁predstaviti	-8403
▁zagrebačkoj	-8404
45	-8405
res	-8406
▁SD	-8407
sezo	-8408
znom	-8409
▁Baš	-8410
bolje	-8411
šanje	-8412
▁Batu	-8413
▁Kara	-8414
▁Onda	-8415
▁Svje	-8416
▁Uskr	-8417
▁dubi	-8418
▁miro	-8419
▁uspi	-8420
▁Bruno	-8421
▁karte	-8422
▁oboje	-8423
▁svoga	-8424
▁utrci	-8425
grafije	-8426
sjetila	-8427
▁Jandro	-8428
▁Livaja	-8429
▁autori	-8430
▁brzine	-8431
▁okoliš	-8432
▁premda	-8433
▁spekta	-8434
▁kaznena	-8435
▁mladima	-8436
▁članice	-8437
▁Utakmica	-8438
▁cijenama	-8439
▁dodatnih	-8440
▁koncertu	-8441
▁reagirao	-8442
▁sastanka	-8443
▁kontrover	-8444
▁usporedbi	-8445
▁invalidite	-8446
▁ravnatelja	-8447
▁posljednjem	-8448
%,	-8449
žja	-8450
daka	-8451
povi	-8452
▁Ham	-8453
▁Man	-8454
▁ate	-8455
▁pat	-8456
avaju	-8457
▁Arse	-8458
▁Vide	-8459
▁moji	-8460
▁srcu	-8461
▁stil	-8462
▁Brani	-8463
▁kažem	-8464
▁najza	-8465
▁motiva	-8466
▁Americi	-8467
▁doznaje	-8468
▁inzisti	-8469
▁istaknu	-8470
▁nestabi	-8471
▁Premijer	-8472
▁Raspudić	-8473
▁Severina	-8474
▁izgublje	-8475
▁količine	-8476
▁lokacije	-8477
▁lokaciji	-8478
▁konačnici	-8479
▁politička	-8480
▁utakmicama	-8481
▁upozoravaju	-8482
▁zabrinutost	-8483
▁posjetitelje	-8484
▁zdravstvenih	-8485
9)	-8486
žo	-8487
vin	-8488
klom	-8489
ševi	-8490
sjeda	-8491
šteno	-8492
▁Anđe	-8493
▁niza	-8494
▁uzor	-8495
▁Sredi	-8496
▁filmo	-8497
▁sanja	-8498
▁stižu	-8499
▁sugra	-8500
▁tabli	-8501
vljenih	-8502
▁Franjo	-8503
▁mogući	-8504
▁vezano	-8505
▁iskreno	-8506
▁kazneni	-8507
▁krajnje	-8508
▁promovi	-8509
▁dostojan	-8510
▁odnosima	-8511
▁oporavak	-8512
▁ulaznica	-8513
▁osigurali	-8514
▁pozitivno	-8515
▁praktički	-8516
▁električne	-8517
▁maksimalno	-8518
▁poboljšati	-8519
▁teritorija	-8520
▁nacionalnih	-8521
▁posjetitelja	-8522
▁invaliditetom	-8523
Ba	-8524
▁@	-8525
▁Mr	-8526
lona	-8527
šima	-8528
▁Vil	-8529
▁ske	-8530
▁deba	-8531
▁tuma	-8532
pisima	-8533
racija	-8534
torima	-8535
▁Novak	-8536
▁banka	-8537
▁hidro	-8538
▁javio	-8539
▁krene	-8540
▁mirno	-8541
▁našli	-8542
▁snazi	-8543
▁vrtić	-8544
▁2024.,	-8545
▁Prošle	-8546
▁dobrih	-8547
▁javila	-8548
▁primio	-8549
▁razina	-8550
▁stavio	-8551
▁teškim	-8552
▁znanje	-8553
▁Dalmati	-8554
▁napušta	-8555
▁stotine	-8556
▁umjetne	-8557
▁govorili	-8558
▁napadača	-8559
▁Republika	-8560
▁influence	-8561
▁zahtijeva	-8562
▁generacija	-8563
▁zamijeniti	-8564
▁iznenađenje	-8565
4/	-8566
7)	-8567
fri	-8568
▁58	-8569
▁as	-8570
beno	-8571
kore	-8572
rilo	-8573
veća	-8574
▁Sun	-8575
ljaka	-8576
tskoj	-8577
▁Vrho	-8578
▁jede	-8579
▁komo	-8580
▁krva	-8581
▁udio	-8582
▁Misli	-8583
▁Sveti	-8584
▁oblik	-8585
▁Branko	-8586
▁Bruxel	-8587
▁izjava	-8588
▁odmora	-8589
▁Dnevnik	-8590
▁izrazio	-8591
▁visokim	-8592
▁Austrija	-8593
▁direktno	-8594
▁mjesečno	-8595
▁prihvaća	-8596
▁spominje	-8597
▁elektroni	-8598
▁provoditi	-8599
▁relativno	-8600
▁socijalne	-8601
▁izvijestili	-8602
':	-8603
3)	-8604
IC	-8605
ira	-8606
ten	-8607
▁""	-8608
▁47	-8609
▁Sr	-8610
▁Smi	-8611
▁umr	-8612
▁ura	-8613
▁val	-8614
štini	-8615
▁brže	-8616
▁mari	-8617
▁meso	-8618
▁niže	-8619
▁ušla	-8620
▁vagi	-8621
lanovi	-8622
pustio	-8623
đenjem	-8624
žljivo	-8625
▁fokus	-8626
▁kreću	-8627
▁reali	-8628
▁stavo	-8629
▁težak	-8630
▁Euroso	-8631
▁nikoga	-8632
▁nosila	-8633
▁odakle	-8634
▁povolj	-8635
▁vješta	-8636
▁dodatni	-8637
▁meteoro	-8638
▁preveze	-8639
▁rijetki	-8640
▁talenti	-8641
▁domaćina	-8642
▁kolovozu	-8643
▁objekata	-8644
▁otvorila	-8645
▁američkih	-8646
▁Aleksandar	-8647
▁Lokomotive	-8648
▁partnerima	-8649
▁pripremiti	-8650
▁upozorenja	-8651
▁konferencije	-8652
cea	-8653
tel	-8654
ćeve	-8655
▁Com	-8656
▁MUP	-8657
▁VAR	-8658
▁umo	-8659
pendi	-8660
vniji	-8661
▁2024	-8662
▁Guar	-8663
▁duže	-8664
▁ligu	-8665
▁memo	-8666
▁otok	-8667
▁pale	-8668
▁riba	-8669
▁Svaka	-8670
▁Varte	-8671
▁cilju	-8672
▁hrani	-8673
▁izlaz	-8674
▁malim	-8675
▁našla	-8676
▁Komisi	-8677
▁izjavu	-8678
▁javnih	-8679
▁osloba	-8680
▁recimo	-8681
▁zavoda	-8682
▁kandidi	-8683
▁lokalno	-8684
▁individu	-8685
▁poginuli	-8686
▁politici	-8687
▁poslovni	-8688
▁povratka	-8689
▁stranice	-8690
▁liječenje	-8691
▁roditelje	-8692
▁sudjeluju	-8693
▁Konferenci	-8694
▁.	-8695
hin	-8696
vaj	-8697
šoj	-8698
▁HZ	-8699
etka	-8700
liji	-8701
pila	-8702
▁Rim	-8703
▁lik	-8704
▁med	-8705
lniku	-8706
rskim	-8707
činje	-8708
▁Mili	-8709
▁jabu	-8710
▁peto	-8711
▁sala	-8712
▁ženu	-8713
▁Ništa	-8714
▁šalje	-8715
▁Rijeku	-8716
▁izjavi	-8717
▁pravde	-8718
▁prekri	-8719
razumije	-8720
▁integra	-8721
▁prijela	-8722
▁promica	-8723
▁fakulteta	-8724
▁izgledati	-8725
▁sportskog	-8726
▁uključuju	-8727
▁objavljena	-8728
▁investicije	-8729
DV	-8730
MO	-8731
500	-8732
jnog	-8733
prem	-8734
vera	-8735
vito	-8736
▁Max	-8737
▁Plo	-8738
▁ner	-8739
tnicu	-8740
▁2000	-8741
▁Mila	-8742
▁išao	-8743
▁kosu	-8744
vilima	-8745
▁Imate	-8746
▁Nasta	-8747
▁Peter	-8748
▁Ruski	-8749
▁grija	-8750
▁naziv	-8751
▁pušta	-8752
▁stoje	-8753
▁utrka	-8754
▁navela	-8755
▁dodavši	-8756
▁gubitak	-8757
▁radnici	-8758
▁uspjeti	-8759
▁Danijela	-8760
▁Gradskog	-8761
▁govorimo	-8762
▁naprijed	-8763
▁pojasnio	-8764
▁korupcije	-8765
▁napustiti	-8766
▁unaprijed	-8767
▁odgovorila	-8768
▁provjeriti	-8769
**	-8770
60	-8771
nia	-8772
▁41	-8773
▁MO	-8774
▁Uo	-8775
ming	-8776
neta	-8777
sigu	-8778
tonu	-8779
▁Egi	-8780
nijom	-8781
▁Navo	-8782
▁Ured	-8783
▁brak	-8784
▁debi	-8785
▁opće	-8786
▁umro	-8787
Cropix	-8788
ljenom	-8789
čavaju	-8790
▁Mlado	-8791
▁ideal	-8792
▁izgla	-8793
▁krize	-8794
▁stilu	-8795
▁autora	-8796
▁inspek	-8797
▁komada	-8798
▁obveze	-8799
▁osmije	-8800
▁smjera	-8801
▁upravi	-8802
▁zračne	-8803
▁Reuters	-8804
▁detalja	-8805
▁dijagno	-8806
▁elektra	-8807
▁impresi	-8808
▁izaziva	-8809
▁izdvaja	-8810
▁kontakt	-8811
▁naknade	-8812
▁pročita	-8813
▁sjeveru	-8814
▁supruge	-8815
▁sjednice	-8816
▁komercija	-8817
▁najboljeg	-8818
▁platforma	-8819
▁održavanja	-8820
▁ukrajinski	-8821
▁destinacija	-8822
▁informaciju	-8823
gio	-8824
▁Mü	-8825
▁NK	-8826
giju	-8827
jicu	-8828
list	-8829
žile	-8830
▁Dor	-8831
▁Maj	-8832
▁Pje	-8833
▁raj	-8834
▁Kaže	-8835
▁nere	-8836
▁remi	-8837
▁trag	-8838
▁viru	-8839
▁Istri	-8840
▁Ljubi	-8841
▁brata	-8842
▁ideju	-8843
▁možeš	-8844
▁najno	-8845
▁predo	-8846
▁pretr	-8847
▁preve	-8848
▁snije	-8849
eficije	-8850
▁Dražen	-8851
▁ostaju	-8852
▁radove	-8853
▁smisla	-8854
▁sportu	-8855
▁tisuću	-8856
▁boravak	-8857
▁dozvole	-8858
▁međusob	-8859
▁potrazi	-8860
▁proveli	-8861
▁spremna	-8862
▁najprije	-8863
▁općenito	-8864
▁registar	-8865
▁reporter	-8866
▁studenom	-8867
▁suradnja	-8868
▁francuski	-8869
▁ozlijeđen	-8870
▁prijaviti	-8871
▁Francuskoj	-8872
▁predstavnik	-8873
▁karakteristi	-8874
▁potencijalno	-8875
▁€	-8876
EFA	-8877
ray	-8878
bacu	-8879
lera	-8880
sada	-8881
škim	-8882
▁Oso	-8883
nikom	-8884
rište	-8885
▁DHMZ	-8886
▁Stri	-8887
▁gale	-8888
▁mesa	-8889
▁robo	-8890
▁šefa	-8891
▁Gabri	-8892
▁multi	-8893
▁ojača	-8894
▁pišto	-8895
▁rasko	-8896
▁teret	-8897
▁tinej	-8898
▁uglji	-8899
▁hotelu	-8900
▁izlaga	-8901
▁snimka	-8902
▁tekstu	-8903
▁prebaci	-8904
▁sredine	-8905
▁ukazuje	-8906
▁Petković	-8907
▁Rujevici	-8908
▁jedinice	-8909
▁koordina	-8910
▁potreban	-8911
▁proračun	-8912
▁sastanku	-8913
▁aktivnost	-8914
▁iskoristio	-8915
▁prepoznati	-8916
70	-8917
;&	-8918
kl	-8919
▁Ex	-8920
pati	-8921
▁Oto	-8922
▁Wol	-8923
▁sig	-8924
▁Đur	-8925
▁Crve	-8926
▁dodi	-8927
▁izva	-8928
▁kore	-8929
▁kose	-8930
▁nago	-8931
▁port	-8932
▁Grand	-8933
▁Važno	-8934
▁kolod	-8935
▁napao	-8936
▁Donald	-8937
▁Sandra	-8938
▁brojke	-8939
▁opušte	-8940
▁sretni	-8941
▁Kasnije	-8942
▁emocije	-8943
▁prelazi	-8944
▁provela	-8945
▁skupinu	-8946
▁najbolju	-8947
▁prevlada	-8948
▁ustvrdio	-8949
▁završili	-8950
donačelnik	-8951
▁Hrvatskih	-8952
▁ostvarila	-8953
▁članovima	-8954
▁Nogometaši	-8955
▁administra	-8956
▁odgovoriti	-8957
des	-8958
dža	-8959
▁Can	-8960
▁ilu	-8961
▁čuo	-8962
dnicu	-8963
ljiti	-8964
ljuje	-8965
▁kamo	-8966
▁miru	-8967
static	-8968
▁Ivanu	-8969
▁Odmah	-8970
▁Saudi	-8971
▁imalo	-8972
▁kroni	-8973
▁nužno	-8974
▁showu	-8975
đivanja	-8976
▁Gorice	-8977
▁akciji	-8978
▁dobrim	-8979
▁osuđen	-8980
▁savjet	-8981
▁talija	-8982
▁varija	-8983
mentirao	-8984
▁Londonu	-8985
▁dječaka	-8986
▁favorit	-8987
▁konzuma	-8988
▁priušti	-8989
▁shvatio	-8990
▁javljaju	-8991
▁nastupio	-8992
▁poduzeća	-8993
▁pokrenuo	-8994
▁prosjeka	-8995
▁redatelj	-8996
▁stipendi	-8997
▁stranica	-8998
▁pacijenti	-8999
▁povećanja	-9000
▁pozornici	-9001
▁prometnih	-9002
▁projektila	-9003
▁samopouzda	-9004
ić	-9005
jk	-9006
blo	-9007
lse	-9008
sso	-9009
4/05	-9010
jnih	-9011
mite	-9012
vost	-9013
zmom	-9014
▁EUR	-9015
▁Far	-9016
▁Svo	-9017
▁der	-9018
grani	-9019
losti	-9020
loška	-9021
vcima	-9022
▁Mami	-9023
▁Nisu	-9024
▁nadu	-9025
▁odvo	-9026
▁zape	-9027
▁Čako	-9028
▁Flori	-9029
▁Mateo	-9030
▁lopta	-9031
▁najam	-9032
▁plovi	-9033
▁poveo	-9034
▁držati	-9035
▁naveli	-9036
▁ugodno	-9037
▁vijeće	-9038
▁fondova	-9039
▁izdanja	-9040
▁najnovi	-9041
▁naoruža	-9042
▁pružiti	-9043
▁suočava	-9044
▁svladao	-9045
▁zahtije	-9046
▁izazvati	-9047
▁vlastitu	-9048
▁nogometna	-9049
▁operacija	-9050
▁poslovnih	-9051
▁potvrđuje	-9052
▁činjenice	-9053
▁kontinuirano	-9054
%.	-9055
EN	-9056
La	-9057
UD	-9058
del	-9059
rit	-9060
biji	-9061
elje	-9062
čevi	-9063
▁Cla	-9064
▁Mag	-9065
▁Rad	-9066
gorje	-9067
ivotu	-9068
ljana	-9069
ranim	-9070
ćenih	-9071
▁Koji	-9072
▁Puli	-9073
▁Voyo	-9074
▁drže	-9075
▁naji	-9076
▁obro	-9077
▁zavi	-9078
▁2009.	-9079
▁Mjese	-9080
▁atrak	-9081
▁lopte	-9082
▁pogla	-9083
▁smiju	-9084
▁toplo	-9085
▁videa	-9086
cijskom	-9087
▁visini	-9088
▁Sigurno	-9089
▁baštine	-9090
▁crijeva	-9091
▁gledali	-9092
▁odličan	-9093
▁trebale	-9094
▁Đoković	-9095
▁izrazito	-9096
▁priznati	-9097
▁proglasi	-9098
▁pravosuđa	-9099
▁prostorima	-9100
Co	-9101
nit	-9102
žih	-9103
bera	-9104
berg	-9105
ljno	-9106
novu	-9107
skop	-9108
zana	-9109
▁2-0	-9110
▁sun	-9111
▁uvr	-9112
dosta	-9113
stali	-9114
▁Mata	-9115
▁Toki	-9116
▁luci	-9117
▁malu	-9118
▁suci	-9119
▁Gospi	-9120
▁sedmo	-9121
▁spoji	-9122
▁produk	-9123
▁radnje	-9124
▁teksto	-9125
/2024/05	-9126
▁Madrida	-9127
▁arhitek	-9128
▁ljudska	-9129
▁naslije	-9130
▁poslati	-9131
▁slučaja	-9132
▁povezuje	-9133
▁pretvara	-9134
▁vještine	-9135
▁inflacije	-9136
▁naglasila	-9137
▁namirnice	-9138
▁napominje	-9139
▁splitskog	-9140
▁životinje	-9141
▁industriji	-9142
▁objavljeno	-9143
▁protivnika	-9144
▁uzrokovati	-9145
wn	-9146
sel	-9147
jnim	-9148
kalo	-9149
lilo	-9150
ricu	-9151
tlja	-9152
▁1,5	-9153
▁rak	-9154
mično	-9155
tijih	-9156
ventu	-9157
▁Maru	-9158
▁Nico	-9159
▁Orba	-9160
▁polj	-9161
▁suho	-9162
▁Darko	-9163
▁Meksi	-9164
▁iscrp	-9165
▁scenu	-9166
▁skupo	-9167
čavanje	-9168
▁glavne	-9169
▁izboru	-9170
▁karton	-9171
▁skloni	-9172
▁vjetra	-9173
▁Program	-9174
▁periodu	-9175
▁poginuo	-9176
▁pogledu	-9177
▁postalo	-9178
▁tražili	-9179
▁mirovina	-9180
▁odlučiti	-9181
▁prijelaz	-9182
▁sjedište	-9183
▁fakultetu	-9184
▁kvaliteta	-9185
▁osigurala	-9186
▁postaviti	-9187
▁sudjeluje	-9188
▁promijenio	-9189
▁raspolaganju	-9190
ček	-9191
▁Qu	-9192
nine	-9193
nkom	-9194
▁mra	-9195
cioni	-9196
▁Bari	-9197
▁Neza	-9198
▁UEFA	-9199
▁tret	-9200
▁ušte	-9201
stribu	-9202
žnosti	-9203
▁Bunde	-9204
▁Dario	-9205
▁Novog	-9206
▁brine	-9207
▁kakvo	-9208
▁nosio	-9209
▁utrku	-9210
▁štiti	-9211
▁Master	-9212
▁igrala	-9213
▁nimalo	-9214
▁održan	-9215
▁osobni	-9216
▁simbol	-9217
▁srušio	-9218
▁tjedno	-9219
▁dozvola	-9220
▁glavnih	-9221
▁ključne	-9222
▁podatak	-9223
▁slavili	-9224
▁trebati	-9225
▁aktualni	-9226
▁glazbene	-9227
▁napisali	-9228
▁predmeta	-9229
▁roditelj	-9230
▁snimanja	-9231
▁upoznali	-9232
▁Republici	-9233
▁platforme	-9234
▁potaknuti	-9235
▁prilagodi	-9236
▁zajednici	-9237
▁odgovaraju	-9238
kne	-9239
tta	-9240
▁Ap	-9241
▁ZA	-9242
enih	-9243
nder	-9244
nita	-9245
zvao	-9246
žemo	-9247
▁ama	-9248
▁usu	-9249
zanja	-9250
▁Krem	-9251
▁Skup	-9252
▁idea	-9253
▁kavu	-9254
▁stol	-9255
▁zadr	-9256
groman	-9257
strana	-9258
▁bespo	-9259
▁bolju	-9260
▁dviju	-9261
▁koncu	-9262
▁kupio	-9263
▁vozio	-9264
▁Srbiju	-9265
▁dovolj	-9266
▁izvrši	-9267
▁snažno	-9268
▁ugleda	-9269
▁posebna	-9270
▁sredini	-9271
▁poručuje	-9272
▁programe	-9273
▁službene	-9274
▁pandemije	-9275
▁ministrica	-9276
▁talijanski	-9277
▁ponedjeljka	-9278
▁organizatori	-9279
▁ravnateljica	-9280
ww	-9281
sov	-9282
▁IT	-9283
pili	-9284
site	-9285
▁Jor	-9286
▁kvi	-9287
levan	-9288
▁Boga	-9289
▁Bulj	-9290
▁Imam	-9291
▁geno	-9292
▁jaka	-9293
▁praz	-9294
▁saču	-9295
▁zamr	-9296
loškom	-9297
sandra	-9298
vedena	-9299
▁karti	-9300
▁odbor	-9301
▁pucao	-9302
▁refor	-9303
▁sunca	-9304
▁Hamasa	-9305
▁brzinu	-9306
▁katoli	-9307
▁muzeja	-9308
▁obnovu	-9309
▁potiče	-9310
▁Beograd	-9311
▁depresi	-9312
▁planina	-9313
▁potrebi	-9314
▁Koprivni	-9315
▁kampanja	-9316
▁komentar	-9317
▁najavila	-9318
▁plaćanja	-9319
▁poznatog	-9320
▁pretežno	-9321
▁splitski	-9322
▁internetu	-9323
▁pokrenula	-9324
▁komentirati	-9325
▁sudjelovala	-9326
▁poljoprivrede	-9327
,0	-9328
▁(0	-9329
▁Ky	-9330
▁OP	-9331
vita	-9332
čite	-9333
šnim	-9334
▁pog	-9335
▁Znam	-9336
▁done	-9337
▁gene	-9338
▁park	-9339
▁puni	-9340
▁sana	-9341
▁tebe	-9342
▁upit	-9343
▁Reala	-9344
▁molit	-9345
▁sramo	-9346
▁zavje	-9347
▁mladim	-9348
▁nekome	-9349
▁nomina	-9350
▁snimku	-9351
▁zadnja	-9352
▁Izraelu	-9353
▁mobitel	-9354
▁poslala	-9355
▁ravnote	-9356
▁izgubiti	-9357
▁magistra	-9358
▁ponuditi	-9359
▁standard	-9360
▁višestru	-9361
▁međusobno	-9362
▁mišljenja	-9363
▁predstave	-9364
▁zdravstvo	-9365
▁okolnostima	-9366
90	-9367
eo	-9368
▁PA	-9369
šite	-9370
▁Tuđ	-9371
▁Vol	-9372
ekuje	-9373
prave	-9374
▁Klub	-9375
▁napi	-9376
riraju	-9377
zivati	-9378
▁Carlo	-9379
▁benda	-9380
▁crkvi	-9381
▁jutra	-9382
▁služi	-9383
▁spada	-9384
▁vrući	-9385
▁Općina	-9386
▁Rusiju	-9387
▁lagano	-9388
▁odavno	-9389
▁premje	-9390
▁seriju	-9391
▁shvaća	-9392
▁ubacio	-9393
▁živimo	-9394
▁Berlinu	-9395
▁bolnica	-9396
▁poprili	-9397
▁stavite	-9398
▁Njemačku	-9399
▁ozbiljne	-9400
▁incidenta	-9401
▁koeficije	-9402
▁kombinira	-9403
▁otvaranje	-9404
▁promjenama	-9405
▁ozlijeđenih	-9406
▁dugogodišnji	-9407
Go	-9408
OK	-9409
▁Am	-9410
▁Oz	-9411
ding	-9412
hati	-9413
zaka	-9414
▁1-0	-9415
▁Gen	-9416
▁Kim	-9417
▁fol	-9418
▁hor	-9419
▁sav	-9420
stica	-9421
▁Kina	-9422
▁Posa	-9423
▁Rena	-9424
▁dugu	-9425
▁čaro	-9426
▁Dvije	-9427
▁jasan	-9428
▁naran	-9429
▁nekoj	-9430
▁njegu	-9431
▁pogle	-9432
▁prebi	-9433
▁vašeg	-9434
▁drukči	-9435
▁kralja	-9436
▁vezane	-9437
▁Palesti	-9438
▁Problem	-9439
▁bilježi	-9440
▁izabran	-9441
▁menadže	-9442
▁potpora	-9443
▁simboli	-9444
▁demograf	-9445
▁dijelove	-9446
▁najvećim	-9447
▁posebnim	-9448
▁zdravlju	-9449
▁dužnosnici	-9450
▁investicija	-9451
▁slučajevima	-9452
▁zagrebačkog	-9453
▁kandidatkinja	-9454
ed	-9455
pao	-9456
ria	-9457
rim	-9458
▁DJ	-9459
....	-9460
tore	-9461
čilo	-9462
▁otu	-9463
spješ	-9464
▁bazi	-9465
▁cipe	-9466
▁kave	-9467
▁pasa	-9468
▁puna	-9469
▁pune	-9470
logija	-9471
stavno	-9472
▁Joško	-9473
▁Konce	-9474
▁Nijem	-9475
▁bizni	-9476
▁droge	-9477
▁hibri	-9478
▁istim	-9479
cijskim	-9480
▁kratki	-9481
▁ljubim	-9482
▁prehra	-9483
▁prešao	-9484
▁radilo	-9485
▁recept	-9486
▁odradio	-9487
▁podrije	-9488
▁uzastop	-9489
▁izvješće	-9490
▁jugoisto	-9491
▁podržati	-9492
▁privatni	-9493
▁sportaša	-9494
▁stvaraju	-9495
▁značajan	-9496
▁objasniti	-9497
▁umjetnika	-9498
▁medicinske	-9499
▁televiziji	-9500
▁Olimpijskih	-9501
▁centimetara	-9502
▁Španjolskoj	-9503
▁četvrtfinale	-9504
6,	-9505
:5	-9506
ED	-9507
cao	-9508
lda	-9509
oni	-9510
src	-9511
uma	-9512
bran	-9513
dice	-9514
inom	-9515
vate	-9516
▁Sho	-9517
▁doj	-9518
berne	-9519
dišta	-9520
tropo	-9521
▁Imao	-9522
▁bren	-9523
▁kalo	-9524
▁masa	-9525
▁reso	-9526
▁Grbin	-9527
▁imale	-9528
▁masla	-9529
▁suspe	-9530
▁sveće	-9531
▁vruće	-9532
▁adekva	-9533
▁trećeg	-9534
▁Očekuje	-9535
▁Poslije	-9536
▁TikToku	-9537
▁Vrijeme	-9538
▁domaćem	-9539
▁emisija	-9540
▁izazova	-9541
▁kratkom	-9542
▁novosti	-9543
▁obaveza	-9544
▁visokih	-9545
▁Svjetsko	-9546
▁funkciju	-9547
▁pokušaju	-9548
▁svijesti	-9549
▁ozlijedio	-9550
▁automobilu	-9551
▁djelatnici	-9552
▁industrija	-9553
▁mjestimice	-9554
▁obiteljima	-9555
▁političkog	-9556
▁automobilom	-9557
▁najpopularni	-9558
OS	-9559
uk	-9560
bni	-9561
lko	-9562
▁Haj	-9563
licom	-9564
▁Demo	-9565
▁Jura	-9566
▁Luci	-9567
▁Paša	-9568
▁doho	-9569
▁ljep	-9570
▁sobe	-9571
▁spoj	-9572
▁spon	-9573
▁vašu	-9574
▁šuma	-9575
ivanja	-9576
▁metra	-9577
▁odred	-9578
▁odšte	-9579
▁skrom	-9580
▁tajna	-9581
etvrtak	-9582
▁Sergej	-9583
▁Taylor	-9584
▁imenom	-9585
▁jeseni	-9586
▁naobla	-9587
▁objava	-9588
▁opcije	-9589
▁sektor	-9590
▁vodeći	-9591
▁Modrića	-9592
▁Njihova	-9593
▁dobrodo	-9594
▁izvanre	-9595
▁nastoja	-9596
▁optužbe	-9597
▁prirodi	-9598
▁simpati	-9599
▁kaznenih	-9600
▁rasprave	-9601
▁spektakl	-9602
▁zabavlja	-9603
▁okruženju	-9604
▁prijetnja	-9605
▁proizvodnja	-9606
sha	-9607
sho	-9608
▁ud	-9609
rinu	-9610
▁	-9611
a	-9612
i	-9613
o	-9614
e	-9615
n	-9616
r	-9617
j	-9618
t	-9619
u	-9620
s	-9621
k	-9622
l	-9623
d	-9624
v	-9625
m	-9626
p	-9627
z	-9628
g	-9629
c	-9630
b	-9631
,	-9632
.	-9633
š	-9634
č	-9635
ć	-9636
h	-9637
ž	-9638
;	-9639
&	-9640
P	-9641
S	-9642
"	-9643
f	-9644
N	-9645
0	-9646
M	-9647
-	-9648
D	-9649
2	-9650
1	-9651
B	-9652
O	-9653
A	-9654
T	-9655
đ	-9656
K	-9657
I	-9658
H	-9659
U	-9660
R	-9661
V	-9662
Z	-9663
:	-9664
L	-9665
E	-9666
G	-9667
J	-9668
3	-9669
C	-9670
5	-9671
'	-9672
4	-9673
)	-9674
(	-9675
F	-9676
9	-9677
y	-9678
6	-9679
7	-9680
8	-9681
Š	-9682
?	-9683
w	-9684
!	-9685
/	-9686
W	-9687
Č	-9688
Ž	-9689
x	-9690
%	-9691
=	-9692
[	-9693
>	-9694
]	-9695
Y	-9696
Đ	-9697
X	-9698
+	-9699
\	-9700
q	-9701
Ć	-9702
#	-9703
°	-9704
Q	-9705
ü	-9706
é	-9707
*	-9708
@	-9709
_	-9710
€	-9711
ö	-9712
á	-9713
í	-9714
ó	-9715
′	-9716
$	-9717
♬	-9718
•	-9719
ä	-9720
Ö	-9721
­	-9722
ç	-9723
<	-9724
·	-9725
è	-9726
{	-9727
}	-9728
️	-9729
ë	-9730
ñ	-9731
â	-9732
ł	-9733
ø	-9734
ã	-9735
å	-9736
⁄	-9737
à	-9738
É	-9739
®	-9740
е	-9741
×	-9742
ú	-9743
►	-9744
ô	-9745
ğ	-9746
̋	-9747
●	-9748
ï	-9749
ð	-9750
ò	-9751
ş	-9752
🟨	-9753
ê	-9754
Á	-9755
Ç	-9756
ß	-9757
î	-9758
ı	-9759
⚤	-9760
🔥	-9761
ì	-9762
ř	-9763
☘	-9764
	-9765
🎁	-9766
😂	-9767
©	-9768
ė	-9769
Ś	-9770
ρ	-9771
✔	-9772
❤	-9773
🇷	-9774
🇸	-9775
`	-9776
ą	-9777
ě	-9778
μ	-9779
ο	-9780
ς	-9781
⁠	-9782
📌	-9783
Å	-9784
Ó	-9785
ń	-9786
ő	-9787
ț	-9788
̈	-9789
̌	-9790
о	-9791
ṣ	-9792
‒	-9793
♥	-9794
⚠	-9795
⚽	-9796
	-9797
🇺	-9798
👀	-9799
^	-9800
§	-9801
Í	-9802
Ð	-9803
Ú	-9804
Ü	-9805
ý	-9806
ā	-9807
ę	-9808
ȗ	-9809
̧	-9810
ή	-9811
а	-9812
ј	-9813
‍	-9814
‐	-9815
―	-9816
‖	-9817
✓	-9818
🇭	-9819
🌸	-9820
💙	-9821
	-9822
¡	-9823
±	-9824
Ä	-9825
Ø	-9826
ù	-9827
û	-9828
ă	-9829
ĉ	-9830
ē	-9831
ś	-9832
Ş	-9833
ū	-9834
ż	-9835
ȉ	-9836
ș	-9837
̊	-9838
έ	-9839
α	-9840
π	-9841
τ	-9842
ό	-9843
н	-9844
ི	-9845
ྀ	-9846
ἀ	-9847
‟	-9848
∶	-9849
▶	-9850
♡	-9851
♦	-9852
シ	-9853
🇱	-9854
🏻	-9855
💕	-9856
🔄	-9857
🕷	-9858
🕸	-9859
😅	-9860
😍	-9861
😎	-9862
🙏	-9863
🟡	-9864
🤩	-9865
🤯	-9866
🥚	-9867
🦟	-9868
£	-9869
¤	-9870
¿	-9871
À	-9872
È	-9873
Î	-9874
Ò	-9875
Ô	-9876
õ	-9877
Ď	-9878
İ	-9879
ľ	-9880
Ł	-9881
ň	-9882
ō	-9883
ţ	-9884
ů	-9885
ź	-9886
Ƙ	-9887
ȃ	-9888
ȑ	-9889
ə	-9890
ʟ	-9891
̣	-9892
Ω	-9893
γ	-9894
δ	-9895
υ	-9896
χ	-9897
ω	-9898
К	-9899
л	-9900
ь	-9901
і	-9902
Ґ	-9903
ӣ	-9904
ӧ	-9905
ṓ	-9906
ọ	-9907
ố	-9908
‰	-9909
↑	-9910
⇒	-9911
−	-9912
⏱	-9913
■	-9914
▪	-9915
○	-9916
☀	-9917
☃	-9918
☑	-9919
☺	-9920
♀	-9921
⚫	-9922
✠	-9923
✨	-9924
❄	-9925
传	-9926
多	-9927
陈	-9928
🇦	-9929
🇧	-9930
🇫	-9931
🇬	-9932
🇮	-9933
🇵	-9934
🇾	-9935
🌋	-9936
🌐	-9937
🌠	-9938
🌧	-9939
🌨	-9940
🌺	-9941
🌻	-9942
🍉	-9943
🍊	-9944
🎀	-9945
🎗	-9946
🏡	-9947
🐄	-9948
🐥	-9949
🐦	-9950
🐱	-9951
🐶	-9952
👁	-9953
👇	-9954
👣	-9955
👶	-9956
💅	-9957
💋	-9958
💎	-9959
💘	-9960
💚	-9961
💟	-9962
💪	-9963
💯	-9964
📢	-9965
📱	-9966
📸	-9967
🔹	-9968
🕓	-9969
🖥	-9970
😀	-9971
😁	-9972
😉	-9973
😊	-9974
😏	-9975
😬	-9976
😭	-9977
🙂	-9978
🙌	-9979
🛁	-9980
🤍	-9981
🤔	-9982
🤢	-9983
🤦	-9984
🤪	-9985
🥥	-9986
🥰	-9987
🥲	-9988
🥹	-9989
🥺	-9990
🩹	-9991
🩺	-9992
🪐	-9993
🫒	-9994
🫠	-9995
🫶	-9996
