<unk>	0
<s>	0
</s>	0
je	-0
▁s	-1
▁p	-2
▁n	-3
▁i	-4
ra	-5
ko	-6
▁o	-7
▁u	-8
▁d	-9
ti	-10
▁je	-11
ni	-12
li	-13
re	-14
ro	-15
ta	-16
▁na	-17
la	-18
va	-19
no	-20
ri	-21
ja	-22
ka	-23
▁po	-24
na	-25
ma	-26
te	-27
vi	-28
▁z	-29
to	-30
vo	-31
▁m	-32
▁,	-33
▁b	-34
ca	-35
ju	-36
ve	-37
ji	-38
▁za	-39
di	-40
▁ko	-41
▁.	-42
ci	-43
▁a	-44
ne	-45
da	-46
lo	-47
go	-48
▁se	-49
▁da	-50
▁su	-51
▁do	-52
st	-53
▁ne	-54
ru	-55
▁ka	-56
le	-57
▁od	-58
mo	-59
ki	-60
▁t	-61
▁bi	-62
ku	-63
▁iz	-64
▁pro	-65
nu	-66
me	-67
▁P	-68
sta	-69
▁S	-70
ke	-71
ga	-72
▁sa	-73
nje	-74
će	-75
▁ra	-76
ron	-77
▁"	-78
caron	-79
sti	-80
▁M	-81
▁pri	-82
▁pre	-83
▁N	-84
ije	-85
▁mo	-86
lje	-87
▁g	-88
▁š	-89
lu	-90
zi	-91
če	-92
či	-93
nja	-94
▁k	-95
de	-96
▁D	-97
▁te	-98
bi	-99
po	-100
▁to	-101
▁go	-102
mi	-103
cu	-104
ce	-105
pa	-106
▁B	-107
tu	-108
ba	-109
bo	-110
▁v	-111
▁re	-112
▁K	-113
že	-114
▁e	-115
si	-116
▁T	-117
sko	-118
▁I	-119
▁H	-120
ča	-121
▁koji	-122
▁no	-123
▁1	-124
▁O	-125
ccaron	-126
ći	-127
še	-128
za	-129
▁U	-130
▁A	-131
ski	-132
▁-	-133
sa	-134
ži	-135
▁2	-136
▁V	-137
▁će	-138
lja	-139
▁R	-140
sto	-141
du	-142
▁vi	-143
▁ni	-144
gu	-145
▁ve	-146
▁mi	-147
jo	-148
pi	-149
gra	-150
do	-151
▁ma	-152
lju	-153
▁pa	-154
cute	-155
cacute	-156
▁Z	-157
▁ta	-158
▁li	-159
▁h	-160
rva	-161
▁godi	-162
▁što	-163
▁f	-164
▁&	-165
rije	-166
se	-167
ža	-168
▁st	-169
ća	-170
▁ima	-171
ša	-172
nog	-173
vje	-174
cije	-175
▁G	-176
▁ob	-177
▁J	-178
nom	-179
lji	-180
dni	-181
vr	-182
▁L	-183
▁me	-184
▁Na	-185
ske	-186
cija	-187
zcaron	-188
be	-189
▁vo	-190
▁ti	-191
lj	-192
nih	-193
▁svo	-194
▁os	-195
pu	-196
ši	-197
rvat	-198
▁Ma	-199
▁tre	-200
▁ja	-201
▁bo	-202
en	-203
▁va	-204
▁pu	-205
ran	-206
▁kako	-207
vu	-208
nim	-209
▁sta	-210
su	-211
▁Po	-212
gi	-213
▁dru	-214
pe	-215
▁koje	-216
zo	-217
▁nje	-218
vije	-219
▁(	-220
nji	-221
▁naj	-222
▁'	-223
dje	-224
▁nije	-225
▁raz	-226
▁in	-227
▁E	-228
▁Za	-229
▁pred	-230
nju	-231
kon	-232
mje	-233
vno	-234
▁sve	-235
kom	-236
▁C	-237
▁ali	-238
▁20	-239
er	-240
▁kao	-241
▁:	-242
tak	-243
ska	-244
sje	-245
▁sam	-246
▁F	-247
▁di	-248
ho	-249
▁pr	-250
dno	-251
ge	-252
mu	-253
▁si	-254
▁če	-255
▁gra	-256
▁ku	-257
▁Ka	-258
ze	-259
pre	-260
stu	-261
▁",	-262
▁de	-263
or	-264
▁is	-265
pra	-266
▁mje	-267
▁Hrvat	-268
vić	-269
▁godine	-270
▁pra	-271
vni	-272
▁pot	-273
▁Mi	-274
▁zna	-275
▁pos	-276
rža	-277
▁pi	-278
▁smo	-279
zu	-280
tni	-281
▁biti	-282
▁pod	-283
zna	-284
▁jo	-285
đe	-286
▁koja	-287
an	-288
▁č	-289
sni	-290
▁dje	-291
đu	-292
▁pla	-293
bu	-294
tno	-295
so	-296
▁ili	-297
đa	-298
▁ot	-299
00	-300
tra	-301
▁nakon	-302
liko	-303
ina	-304
vlja	-305
govo	-306
▁dana	-307
skog	-308
▁samo	-309
▁lju	-310
▁3	-311
▁više	-312
rno	-313
▁tu	-314
▁Š	-315
▁kon	-316
rati	-317
▁ga	-318
▁mu	-319
▁nji	-320
▁Ne	-321
▁prije	-322
▁bio	-323
▁gla	-324
rt	-325
▁us	-326
▁ovo	-327
▁tra	-328
kao	-329
▁igra	-330
dio	-331
▁ba	-332
▁eu	-333
▁Do	-334
▁uz	-335
▁lo	-336
dan	-337
▁ju	-338
▁ži	-339
▁Da	-340
▁svi	-341
šta	-342
▁jed	-343
men	-344
▁tako	-345
▁ru	-346
rni	-347
▁kra	-348
gre	-349
tiv	-350
bog	-351
▁du	-352
ste	-353
ar	-354
lni	-355
čki	-356
▁stra	-357
▁jer	-358
▁može	-359
▁još	-360
▁poli	-361
▁že	-362
▁či	-363
nije	-364
dst	-365
tje	-366
▁pe	-367
▁To	-368
sno	-369
gle	-370
▁osta	-371
▁Ko	-372
vanje	-373
dra	-374
skoj	-375
▁la	-376
▁rekao	-377
žu	-378
▁mogu	-379
▁treba	-380
vio	-381
▁be	-382
▁Mo	-383
ču	-384
lno	-385
▁spo	-386
gla	-387
bro	-388
ću	-389
vati	-390
▁godina	-391
▁posto	-392
▁zbog	-393
▁slu	-394
ciju	-395
▁ro	-396
mije	-397
skom	-398
▁?	-399
fi	-400
skih	-401
telji	-402
ha	-403
▁bu	-404
št	-405
šte	-406
sku	-407
▁sva	-408
▁Sa	-409
▁c	-410
rok	-411
telj	-412
▁bilo	-413
▁vr	-414
▁4	-415
▁bro	-416
sjedni	-417
vali	-418
▁No	-419
▁202	-420
▁vrije	-421
vlje	-422
▁Ra	-423
▁vje	-424
▁5	-425
▁obja	-426
čno	-427
godi	-428
▁on	-429
▁oso	-430
▁veli	-431
van	-432
▁cije	-433
kla	-434
lije	-435
stra	-436
▁Ja	-437
vanja	-438
stva	-439
▁oko	-440
▁)	-441
▁obi	-442
▁vla	-443
▁ih	-444
▁eura	-445
takmi	-446
fe	-447
kra	-448
▁već	-449
dstrok	-450
▁dok	-451
▁Bi	-452
ren	-453
tar	-454
▁hrvat	-455
nici	-456
bje	-457
in	-458
..	-459
▁Ta	-460
ven	-461
rija	-462
tro	-463
vori	-464
▁utakmi	-465
ona	-466
▁au	-467
▁tri	-468
▁bila	-469
red	-470
pli	-471
čko	-472
▁doda	-473
▁radi	-474
▁Re	-475
▁dobi	-476
▁ci	-477
▁Pa	-478
kri	-479
▁Bo	-480
▁ova	-481
reme	-482
▁posta	-483
▁om	-484
▁Eu	-485
što	-486
jom	-487
▁kada	-488
joj	-489
klju	-490
vom	-491
lim	-492
▁op	-493
▁izbo	-494
▁živo	-495
▁Me	-496
ter	-497
▁mora	-498
▁sto	-499
▁6	-500
▁le	-501
▁predsjedni	-502
▁tije	-503
il	-504
el	-505
▁nas	-506
▁!	-507
▁njego	-508
▁Ba	-509
kre	-510
▁novi	-511
viti	-512
▁Euro	-513
tko	-514
ciji	-515
▁im	-516
▁ce	-517
om	-518
tom	-519
▁svoje	-520
nika	-521
▁ljudi	-522
▁prema	-523
▁drža	-524
▁odlu	-525
nica	-526
ner	-527
kti	-528
▁kori	-529
▁ze	-530
▁Ha	-531
▁...	-532
▁19	-533
▁neko	-534
▁dva	-535
▁kri	-536
▁Ni	-537
▁protiv	-538
▁odno	-539
stvo	-540
šti	-541
vara	-542
▁Pe	-543
vima	-544
ško	-545
lazi	-546
▁ki	-547
rom	-548
bno	-549
▁Va	-550
▁Ve	-551
▁".	-552
▁7	-553
sla	-554
▁bez	-555
▁Zagre	-556
▁auto	-557
pri	-558
▁ove	-559
voj	-560
▁kre	-561
▁nam	-562
▁njiho	-563
hi	-564
▁nasta	-565
▁jedan	-566
▁kad	-567
▁sla	-568
▁rije	-569
▁poče	-570
nima	-571
▁drugi	-572
▁iza	-573
ble	-574
pisa	-575
▁ča	-576
spo	-577
▁gdje	-578
▁sre	-579
čke	-580
dar	-581
nti	-582
met	-583
▁nego	-584
he	-585
▁Pro	-586
▁sti	-587
cima	-588
▁klu	-589
▁tr	-590
▁sada	-591
log	-592
ruč	-593
▁pita	-594
nost	-595
▁Iz	-596
▁mili	-597
▁Je	-598
▁mla	-599
tka	-600
▁dije	-601
rani	-602
▁pomo	-603
▁sje	-604
kup	-605
nd	-606
iz	-607
▁svje	-608
▁Go	-609
vila	-610
▁Vi	-611
▁nema	-612
jte	-613
sre	-614
pje	-615
tvr	-616
▁broj	-617
for	-618
nt	-619
nski	-620
šao	-621
stup	-622
▁pobje	-623
cij	-624
▁toga	-625
nuti	-626
tor	-627
▁lije	-628
▁nisu	-629
jući	-630
nik	-631
▁Du	-632
▁prija	-633
▁Jo	-634
bli	-635
▁trenu	-636
▁pje	-637
▁pove	-638
vih	-639
nosti	-640
▁Li	-641
▁tvr	-642
▁W	-643
▁sigu	-644
▁Ru	-645
▁Mar	-646
▁vrijeme	-647
▁Pre	-648
▁dobro	-649
▁or	-650
vim	-651
▁stu	-652
ndi	-653
▁Č	-654
lova	-655
▁še	-656
nuo	-657
▁među	-658
dne	-659
lom	-660
▁8	-661
▁svije	-662
▁sma	-663
rao	-664
▁poka	-665
▁upra	-666
gleda	-667
▁pozi	-668
▁fo	-669
tua	-670
▁fina	-671
▁politi	-672
▁stva	-673
tim	-674
godiš	-675
▁popu	-676
▁društ	-677
▁taj	-678
▁predsta	-679
▁proble	-680
pada	-681
▁ako	-682
dna	-683
▁obra	-684
▁sezo	-685
▁dio	-686
▁par	-687
▁Gra	-688
▁Be	-689
▁Ž	-690
▁kod	-691
dom	-692
▁lje	-693
star	-694
skim	-695
4.	-696
▁oz	-697
▁ide	-698
▁zdra	-699
▁ri	-700
lan	-701
▁zaje	-702
meta	-703
▁mjese	-704
lne	-705
bije	-706
vijek	-707
▁proš	-708
▁so	-709
▁9	-710
tjeca	-711
sli	-712
▁Su	-713
jek	-714
▁ste	-715
▁koju	-716
▁potre	-717
▁ško	-718
▁svoji	-719
▁Pri	-720
vaju	-721
▁tje	-722
▁Dina	-723
0.	-724
ako	-725
▁nekoliko	-726
gao	-727
pan	-728
▁poru	-729
▁medi	-730
rio	-731
ška	-732
▁Ro	-733
tan	-734
▁Ju	-735
1.	-736
▁isti	-737
čin	-738
▁danas	-739
▁/	-740
▁bili	-741
vog	-742
▁drugo	-743
▁proiz	-744
▁zah	-745
nice	-746
voji	-747
▁zavr	-748
ng	-749
▁sati	-750
sam	-751
▁najbo	-752
▁uspje	-753
ciona	-754
diti	-755
pla	-756
▁Bu	-757
▁pose	-758
▁zem	-759
▁neki	-760
▁ho	-761
▁upo	-762
▁kom	-763
▁oba	-764
▁miliju	-765
man	-766
▁r	-767
vao	-768
gani	-769
vija	-770
lek	-771
▁nu	-772
rta	-773
▁Od	-774
▁poslje	-775
čio	-776
▁otkri	-777
▁sr	-778
▁Lu	-779
▁sku	-780
▁sna	-781
niji	-782
▁isto	-783
▁osi	-784
▁prili	-785
lano	-786
▁kaže	-787
▁pozna	-788
▁kro	-789
klo	-790
vne	-791
zul	-792
đer	-793
▁kaza	-794
bra	-795
meri	-796
dnji	-797
kraji	-798
▁jedno	-799
▁Hrvatske	-800
2.	-801
gen	-802
▁slo	-803
tku	-804
▁odgovo	-805
zira	-806
▁tome	-807
▁izra	-808
▁proizvo	-809
žbe	-810
▁Nakon	-811
rak	-812
▁prvi	-813
▁nešto	-814
njem	-815
3.	-816
▁tijekom	-817
len	-818
rima	-819
risti	-820
zen	-821
▁fa	-822
nira	-823
▁doma	-824
▁Lo	-825
vna	-826
▁Rije	-827
▁malo	-828
▁nogo	-829
▁puno	-830
stve	-831
▁istra	-832
vore	-833
▁put	-834
▁sigurno	-835
▁Nje	-836
▁žu	-837
đen	-838
din	-839
▁umje	-840
▁Hrvatskoj	-841
tio	-842
ković	-843
tne	-844
▁osje	-845
▁vozi	-846
nosi	-847
▁uvijek	-848
▁prva	-849
▁zapo	-850
vnog	-851
▁organi	-852
▁Vla	-853
▁dvije	-854
hu	-855
▁nad	-856
▁dr	-857
▁La	-858
▁izme	-859
▁Tu	-860
▁inte	-861
▁Pu	-862
volj	-863
jem	-864
al	-865
čka	-866
▁Spli	-867
▁15	-868
▁rezul	-869
nistar	-870
▁pono	-871
▁nika	-872
▁Sve	-873
▁201	-874
▁kojima	-875
vili	-876
▁poja	-877
im	-878
▁njezi	-879
▁vreme	-880
▁doga	-881
▁sad	-882
vala	-883
▁govori	-884
telja	-885
▁milijuna	-886
vši	-887
▁ona	-888
▁br	-889
▁održa	-890
jdu	-891
op	-892
dova	-893
leda	-894
▁jedna	-895
gli	-896
▁kojem	-897
nio	-898
▁tro	-899
▁sko	-900
▁pogo	-901
tiri	-902
žno	-903
▁oče	-904
rne	-905
▁Le	-906
▁rekla	-907
zenta	-908
vla	-909
dnje	-910
čni	-911
▁In	-912
▁An	-913
▁Se	-914
▁fil	-915
▁dalje	-916
▁dvo	-917
▁napra	-918
▁neće	-919
▁10	-920
▁euro	-921
▁imaju	-922
pak	-923
▁najve	-924
▁područ	-925
▁gu	-926
▁pet	-927
čaj	-928
▁tek	-929
▁dan	-930
▁uklju	-931
▁rezulta	-932
njak	-933
nija	-934
nda	-935
▁kojoj	-936
000	-937
▁svoj	-938
▁Hajdu	-939
bri	-940
▁onda	-941
niti	-942
▁Hrvatska	-943
▁Te	-944
više	-945
tovo	-946
▁uvje	-947
jan	-948
▁dese	-949
dru	-950
▁vrlo	-951
▁voj	-952
▁između	-953
▁mre	-954
▁jako	-955
▁Vo	-956
kr	-957
▁ču	-958
▁budu	-959
đi	-960
prezenta	-961
vnom	-962
vreme	-963
▁situa	-964
▁vam	-965
▁Ku	-966
forma	-967
raž	-968
▁gleda	-969
ime	-970
▁ope	-971
▁joj	-972
▁ćemo	-973
▁De	-974
stru	-975
▁prosto	-976
▁reprezenta	-977
▁Europ	-978
šu	-979
▁čak	-980
▁veći	-981
▁događa	-982
smo	-983
ver	-984
▁razli	-985
▁ak	-986
▁svojim	-987
▁oni	-988
▁navo	-989
",	-990
nj	-991
tke	-992
▁pokaza	-993
čić	-994
▁njih	-995
ak	-996
▁projek	-997
▁smje	-998
▁Sr	-999
sije	-1000
tri	-1001
▁susta	-1002
▁ši	-1003
▁Kako	-1004
▁kroz	-1005
dri	-1006
▁svoju	-1007
▁ras	-1008
▁tak	-1009
čne	-1010
▁naše	-1011
▁poku	-1012
kli	-1013
▁Ga	-1014
▁kvali	-1015
▁dola	-1016
▁predsjednik	-1017
▁ista	-1018
stri	-1019
▁ono	-1020
▁mom	-1021
nama	-1022
▁progra	-1023
▁vra	-1024
▁vodi	-1025
čkog	-1026
▁grad	-1027
pro	-1028
bio	-1029
▁hi	-1030
zne	-1031
▁puta	-1032
vor	-1033
▁sli	-1034
▁loka	-1035
roja	-1036
nera	-1037
tre	-1038
▁minu	-1039
▁lu	-1040
▁poslo	-1041
▁četvr	-1042
kle	-1043
▁ge	-1044
▁ov	-1045
▁mjesto	-1046
▁tom	-1047
▁također	-1048
▁veliki	-1049
ks	-1050
▁j	-1051
▁Ukraji	-1052
5.	-1053
▁bra	-1054
▁poput	-1055
▁pripre	-1056
noj	-1057
▁zajedni	-1058
šli	-1059
▁zašti	-1060
▁ula	-1061
▁),	-1062
vac	-1063
▁svjet	-1064
titi	-1065
▁glaz	-1066
▁prven	-1067
▁osoba	-1068
šnje	-1069
den	-1070
▁komen	-1071
nače	-1072
▁osigu	-1073
▁pora	-1074
▁fi	-1075
▁jednom	-1076
▁koliko	-1077
ch	-1078
▁prona	-1079
▁kandi	-1080
riti	-1081
▁ime	-1082
ški	-1083
▁preko	-1084
▁izja	-1085
▁način	-1086
▁Dinamo	-1087
▁tada	-1088
▁vrati	-1089
▁Ako	-1090
čiti	-1091
▁društve	-1092
▁konce	-1093
▁napa	-1094
▁18	-1095
▁pret	-1096
▁europ	-1097
▁uda	-1098
▁četiri	-1099
▁jedi	-1100
▁ovaj	-1101
▁druge	-1102
6.	-1103
▁mnog	-1104
govara	-1105
▁Si	-1106
vnosti	-1107
▁dugo	-1108
▁utakmice	-1109
▁Fran	-1110
▁zat	-1111
▁cr	-1112
▁tko	-1113
▁vidje	-1114
▁tisu	-1115
uze	-1116
▁podi	-1117
▁spa	-1118
▁Tako	-1119
▁smatra	-1120
nova	-1121
▁osvoji	-1122
▁službe	-1123
▁',	-1124
▁odnosno	-1125
čili	-1126
▁neka	-1127
bora	-1128
▁građa	-1129
vijesti	-1130
kovi	-1131
rek	-1132
▁nastu	-1133
štu	-1134
com	-1135
per	-1136
7.	-1137
šnji	-1138
mir	-1139
▁istak	-1140
tira	-1141
DZ	-1142
▁manje	-1143
sao	-1144
▁piše	-1145
movi	-1146
tara	-1147
▁ure	-1148
hva	-1149
▁glu	-1150
▁kul	-1151
▁bli	-1152
▁zra	-1153
▁naja	-1154
lić	-1155
▁Vu	-1156
▁Naj	-1157
▁akti	-1158
▁život	-1159
▁posje	-1160
▁foto	-1161
▁kandida	-1162
▁al	-1163
vesti	-1164
ksi	-1165
▁pokuša	-1166
▁Di	-1167
▁sura	-1168
▁spre	-1169
▁obitelji	-1170
▁sezone	-1171
rana	-1172
▁bit	-1173
▁razi	-1174
▁12	-1175
▁HDZ	-1176
nske	-1177
▁vije	-1178
nula	-1179
▁želi	-1180
▁zdrav	-1181
▁imao	-1182
▁Au	-1183
▁bor	-1184
▁promje	-1185
▁0	-1186
▁Varaž	-1187
▁pokre	-1188
▁dogodi	-1189
▁primje	-1190
▁skupi	-1191
▁strane	-1192
dam	-1193
▁susre	-1194
stvu	-1195
▁ski	-1196
šić	-1197
nali	-1198
▁ovom	-1199
▁mladi	-1200
sle	-1201
tima	-1202
▁Iva	-1203
čer	-1204
▁bri	-1205
▁vremena	-1206
ljede	-1207
mobi	-1208
rac	-1209
▁natjeca	-1210
plo	-1211
▁finan	-1212
cijama	-1213
▁ovi	-1214
ljivo	-1215
ali	-1216
▁ener	-1217
▁kr	-1218
▁ulo	-1219
mpa	-1220
on	-1221
▁stran	-1222
tet	-1223
▁vlasti	-1224
nk	-1225
▁EU	-1226
▁vas	-1227
▁nave	-1228
▁inter	-1229
▁pravo	-1230
▁pone	-1231
▁koristi	-1232
▁Al	-1233
▁završi	-1234
▁potvr	-1235
▁Ima	-1236
▁župa	-1237
▁zaklju	-1238
sne	-1239
glasi	-1240
▁vode	-1241
▁poveća	-1242
vanju	-1243
žda	-1244
vnih	-1245
dila	-1246
▁navija	-1247
▁svih	-1248
pozna	-1249
▁kru	-1250
▁Među	-1251
▁ovog	-1252
▁imati	-1253
čan	-1254
pusti	-1255
▁pote	-1256
▁unu	-1257
▁mjesta	-1258
ck	-1259
▁svako	-1260
ške	-1261
▁teh	-1262
pru	-1263
▁kraju	-1264
rica	-1265
▁njega	-1266
▁Dra	-1267
čkih	-1268
▁potpu	-1269
▁proda	-1270
▁gotovo	-1271
▁odre	-1272
▁sluča	-1273
▁automobi	-1274
▁ostva	-1275
▁ljuba	-1276
▁teško	-1277
▁kazao	-1278
▁informa	-1279
▁Pr	-1280
lma	-1281
šla	-1282
▁fotogra	-1283
riji	-1284
zni	-1285
ovje	-1286
▁viso	-1287
▁tere	-1288
cio	-1289
rić	-1290
▁Ova	-1291
oj	-1292
▁kultu	-1293
▁sudje	-1294
lima	-1295
slu	-1296
▁Milano	-1297
▁bude	-1298
▁sasta	-1299
bor	-1300
dili	-1301
▁rje	-1302
▁ameri	-1303
pnja	-1304
▁Tre	-1305
▁Pi	-1306
vra	-1307
teta	-1308
▁Zagrebu	-1309
▁2024.	-1310
▁poda	-1311
mr	-1312
▁nosi	-1313
▁posebno	-1314
▁Ali	-1315
lna	-1316
ID	-1317
▁isku	-1318
pravo	-1319
▁mogao	-1320
▁naši	-1321
▁fe	-1322
▁dra	-1323
▁slobo	-1324
▁tim	-1325
▁teme	-1326
▁organiza	-1327
▁11	-1328
ljem	-1329
▁Njema	-1330
▁njima	-1331
▁oda	-1332
tin	-1333
▁Ho	-1334
▁Plen	-1335
čkoj	-1336
ljen	-1337
▁kojeg	-1338
▁kolo	-1339
mp	-1340
jka	-1341
lnih	-1342
jeli	-1343
mogu	-1344
▁Ivan	-1345
▁polu	-1346
tna	-1347
prije	-1348
▁supru	-1349
▁Ši	-1350
▁ca	-1351
▁regi	-1352
rali	-1353
▁kazne	-1354
snije	-1355
▁momča	-1356
▁godinu	-1357
▁obitelj	-1358
šnja	-1359
▁gospo	-1360
▁Ovo	-1361
▁nesre	-1362
co	-1363
▁knji	-1364
▁part	-1365
▁Fi	-1366
hvati	-1367
▁nagra	-1368
rna	-1369
vica	-1370
▁glazbe	-1371
▁premije	-1372
čna	-1373
▁uči	-1374
ranje	-1375
▁one	-1376
sna	-1377
kuje	-1378
▁djela	-1379
▁Ti	-1380
▁an	-1381
kav	-1382
▁izgu	-1383
kve	-1384
lnik	-1385
8.	-1386
nta	-1387
▁deset	-1388
san	-1389
slim	-1390
▁baš	-1391
▁nju	-1392
▁sport	-1393
▁Ri	-1394
▁200	-1395
▁ništa	-1396
▁vide	-1397
jedi	-1398
▁mode	-1399
▁podr	-1400
▁prvo	-1401
zak	-1402
▁Mu	-1403
čkom	-1404
▁bolni	-1405
▁sredi	-1406
▁ok	-1407
▁Iako	-1408
lnog	-1409
nar	-1410
▁nedje	-1411
dovi	-1412
▁odma	-1413
9.	-1414
rovi	-1415
panjo	-1416
▁klju	-1417
▁svom	-1418
▁mjestu	-1419
▁karije	-1420
▁Dubro	-1421
EO	-1422
▁napada	-1423
▁utakmica	-1424
▁napisa	-1425
▁So	-1426
▁odu	-1427
▁Tru	-1428
▁=	-1429
▁vidi	-1430
▁Što	-1431
▁neke	-1432
▁pru	-1433
▁obo	-1434
▁30	-1435
▁važ	-1436
mpe	-1437
▁nove	-1438
▁pitanje	-1439
▁muška	-1440
▁rad	-1441
▁šest	-1442
▁osjeća	-1443
▁stru	-1444
IDEO	-1445
kova	-1446
publi	-1447
▁tran	-1448
▁zado	-1449
▁13	-1450
bija	-1451
▁radni	-1452
rtu	-1453
▁čeka	-1454
▁posla	-1455
▁stvari	-1456
▁sebe	-1457
cje	-1458
▁upozo	-1459
ljak	-1460
▁direk	-1461
▁prizna	-1462
▁subo	-1463
▁hra	-1464
▁=>	-1465
▁otvore	-1466
bar	-1467
▁Fo	-1468
pio	-1469
▁VIDEO	-1470
▁istraži	-1471
▁fu	-1472
▁stude	-1473
▁uli	-1474
▁Sla	-1475
▁često	-1476
rojatno	-1477
govi	-1478
▁priča	-1479
▁pjes	-1480
▁rodi	-1481
▁bolje	-1482
▁Op	-1483
▁najbolji	-1484
▁sek	-1485
panjol	-1486
▁spe	-1487
▁naš	-1488
▁uspo	-1489
▁pomoć	-1490
▁minuti	-1491
▁posti	-1492
▁izgleda	-1493
ćem	-1494
fa	-1495
▁vlasni	-1496
glo	-1497
▁podu	-1498
vnik	-1499
▁promet	-1500
▁prove	-1501
čar	-1502
tki	-1503
▁bih	-1504
▁Fa	-1505
pred	-1506
▁raspo	-1507
dnja	-1508
▁kraja	-1509
▁gru	-1510
▁svim	-1511
▁njegovo	-1512
▁obzi	-1513
vljen	-1514
▁ponu	-1515
tkom	-1516
▁odra	-1517
▁nisam	-1518
rava	-1519
▁oti	-1520
ćih	-1521
govor	-1522
▁dobio	-1523
▁predsjednika	-1524
▁uo	-1525
▁imali	-1526
▁ministar	-1527
▁Prema	-1528
▁grado	-1529
▁vozila	-1530
▁Uz	-1531
▁Ca	-1532
naro	-1533
▁raču	-1534
▁dosta	-1535
▁bla	-1536
▁izda	-1537
▁utjeca	-1538
▁života	-1539
▁svijetu	-1540
tali	-1541
tora	-1542
),	-1543
TO	-1544
▁ću	-1545
▁kraj	-1546
▁druga	-1547
▁minuta	-1548
nata	-1549
▁Grad	-1550
it	-1551
nal	-1552
▁Poli	-1553
▁And	-1554
▁napo	-1555
▁Ministar	-1556
DP	-1557
ton	-1558
▁Pred	-1559
▁dodao	-1560
šlja	-1561
▁optu	-1562
vnim	-1563
▁pobije	-1564
▁odi	-1565
laz	-1566
žiti	-1567
▁ž	-1568
blje	-1569
vjet	-1570
▁neo	-1571
▁opo	-1572
vjetni	-1573
▁poma	-1574
▁upravo	-1575
▁uključu	-1576
rem	-1577
▁opa	-1578
▁Zagreba	-1579
▁bole	-1580
▁možda	-1581
▁svaki	-1582
▁uče	-1583
▁Nije	-1584
▁djece	-1585
limpi	-1586
▁nalazi	-1587
žen	-1588
lin	-1589
▁njegov	-1590
▁njegova	-1591
▁Slo	-1592
zuje	-1593
▁čini	-1594
▁stano	-1595
ljiv	-1596
▁kla	-1597
▁[	-1598
▁tele	-1599
▁priro	-1600
opće	-1601
stro	-1602
▁poz	-1603
▁mnogi	-1604
nović	-1605
▁Mari	-1606
loga	-1607
piti	-1608
▁pol	-1609
▁trži	-1610
▁prvaka	-1611
nskog	-1612
bre	-1613
▁tisuća	-1614
▁zajedno	-1615
▁ipak	-1616
čku	-1617
▁Lju	-1618
▁čovje	-1619
▁elek	-1620
zima	-1621
kva	-1622
▁Izra	-1623
ncija	-1624
▁nov	-1625
rka	-1626
AD	-1627
▁16	-1628
▁uži	-1629
▁Zagreb	-1630
nin	-1631
njen	-1632
ćen	-1633
▁predstavlja	-1634
▁1.	-1635
▁Sta	-1636
▁ukup	-1637
jski	-1638
▁sred	-1639
▁).	-1640
▁hrvatski	-1641
▁kontro	-1642
▁izvo	-1643
▁Y	-1644
▁vrijedno	-1645
gova	-1646
▁Dru	-1647
▁pona	-1648
▁nogomet	-1649
▁problema	-1650
▁poči	-1651
▁kasnije	-1652
vnika	-1653
fina	-1654
▁problem	-1655
▁inf	-1656
čima	-1657
▁for	-1658
▁komu	-1659
▁14	-1660
▁struč	-1661
ris	-1662
▁odmah	-1663
▁znači	-1664
▁ša	-1665
▁smi	-1666
šlo	-1667
▁Ze	-1668
▁sklo	-1669
▁ponovno	-1670
▁idu	-1671
▁jednu	-1672
▁provo	-1673
▁17	-1674
▁omogu	-1675
▁ska	-1676
nča	-1677
ll	-1678
nuli	-1679
ment	-1680
▁Ameri	-1681
▁dolazi	-1682
▁Osi	-1683
vez	-1684
raju	-1685
voljno	-1686
▁voza	-1687
▁proce	-1688
▁području	-1689
▁utakmicu	-1690
rala	-1691
▁kvalite	-1692
▁mogli	-1693
lar	-1694
▁cen	-1695
▁Republi	-1696
▁Že	-1697
▁kole	-1698
▁ispo	-1699
▁zagre	-1700
žio	-1701
▁niti	-1702
▁zapa	-1703
▁prošle	-1704
ratu	-1705
▁nja	-1706
ut	-1707
šku	-1708
▁odigra	-1709
▁sud	-1710
kaza	-1711
▁Bar	-1712
▁25	-1713
▁iako	-1714
jna	-1715
▁Kra	-1716
▁prati	-1717
nena	-1718
čila	-1719
nac	-1720
▁svog	-1721
gije	-1722
rili	-1723
▁zagreba	-1724
sija	-1725
▁zlo	-1726
▁24	-1727
▁novo	-1728
▁plaća	-1729
▁možete	-1730
ivo	-1731
kako	-1732
tori	-1733
▁grada	-1734
jima	-1735
kama	-1736
tnih	-1737
▁Pod	-1738
▁osobe	-1739
▁jednog	-1740
gom	-1741
▁Ki	-1742
▁sce	-1743
▁osu	-1744
▁imamo	-1745
▁Kad	-1746
▁toliko	-1747
vaja	-1748
▁ovu	-1749
dnjih	-1750
▁upravlja	-1751
▁sljede	-1752
▁naro	-1753
▁Naime	-1754
▁javno	-1755
jske	-1756
▁reći	-1757
mperatu	-1758
▁naciona	-1759
br	-1760
lnim	-1761
▁Osim	-1762
▁moguć	-1763
▁trenutku	-1764
zem	-1765
▁odli	-1766
▁ha	-1767
▁kilo	-1768
▁eki	-1769
▁trener	-1770
▁HN	-1771
▁najviše	-1772
lio	-1773
▁ozbi	-1774
▁profe	-1775
der	-1776
▁neza	-1777
godišnji	-1778
▁osno	-1779
▁posao	-1780
▁prava	-1781
▁;	-1782
▁(1	-1783
▁šte	-1784
▁odje	-1785
▁usta	-1786
▁izgra	-1787
▁postoji	-1788
žava	-1789
rnik	-1790
▁djelo	-1791
▁zato	-1792
▁misli	-1793
▁50	-1794
stitu	-1795
▁2023.	-1796
▁Split	-1797
stima	-1798
▁radio	-1799
▁igrača	-1800
feren	-1801
▁produ	-1802
čen	-1803
ravno	-1804
▁veza	-1805
LE	-1806
▁Gr	-1807
▁publi	-1808
renje	-1809
▁zahtje	-1810
laze	-1811
▁obzirom	-1812
▁Zo	-1813
cama	-1814
đenje	-1815
lov	-1816
▁kojim	-1817
▁Niko	-1818
▁tamo	-1819
▁Hajduk	-1820
ktu	-1821
dnim	-1822
▁pomoći	-1823
▁ranije	-1824
nca	-1825
gled	-1826
mbe	-1827
▁unutar	-1828
▁ke	-1829
mira	-1830
▁kluba	-1831
▁ponedje	-1832
▁Če	-1833
nos	-1834
▁sum	-1835
▁zako	-1836
▁policija	-1837
zor	-1838
rnost	-1839
▁zahva	-1840
▁Hrvatsku	-1841
son	-1842
▁mno	-1843
▁izazo	-1844
▁riječ	-1845
šava	-1846
▁zašto	-1847
lih	-1848
lost	-1849
vre	-1850
šće	-1851
▁jednosta	-1852
ss	-1853
rice	-1854
▁oku	-1855
šenje	-1856
▁ozlije	-1857
▁tog	-1858
▁čega	-1859
▁petak	-1860
▁mjeseci	-1861
mor	-1862
▁Fe	-1863
▁manda	-1864
▁iznena	-1865
bom	-1866
nicu	-1867
▁smr	-1868
hr	-1869
▁suda	-1870
dić	-1871
▁svijeta	-1872
▁ar	-1873
▁neda	-1874
▁tradi	-1875
tić	-1876
▁raditi	-1877
đeno	-1878
spe	-1879
mina	-1880
▁utvr	-1881
nce	-1882
čnih	-1883
đena	-1884
▁pravi	-1885
bili	-1886
▁zapravo	-1887
▁svojoj	-1888
rila	-1889
▁klub	-1890
▁kola	-1891
pis	-1892
▁objavio	-1893
▁zdravstve	-1894
▁Varaždin	-1895
▁SAD	-1896
nci	-1897
nka	-1898
lnu	-1899
▁kar	-1900
▁Dana	-1901
▁deta	-1902
▁gospodar	-1903
▁On	-1904
dnju	-1905
▁opre	-1906
▁netko	-1907
nak	-1908
▁Josi	-1909
ry	-1910
tnu	-1911
▁brzo	-1912
▁srije	-1913
▁temperatu	-1914
▁ža	-1915
▁eks	-1916
▁brani	-1917
dnik	-1918
▁gol	-1919
▁una	-1920
▁imala	-1921
troga	-1922
dnih	-1923
▁vidjeti	-1924
▁pjeva	-1925
▁fotografi	-1926
▁pisa	-1927
▁Šibe	-1928
▁velika	-1929
▁promije	-1930
▁(2	-1931
▁mreža	-1932
▁svega	-1933
sjeti	-1934
▁zastup	-1935
▁pore	-1936
▁kate	-1937
▁vlada	-1938
▁zemlje	-1939
nad	-1940
sci	-1941
▁možemo	-1942
▁veliko	-1943
▁najbolje	-1944
▁oči	-1945
▁sedam	-1946
▁eko	-1947
▁mogla	-1948
▁razvo	-1949
▁vjerojatno	-1950
▁demo	-1951
▁pola	-1952
cijski	-1953
▁člano	-1954
▁prvom	-1955
▁intere	-1956
slav	-1957
čkim	-1958
▁isko	-1959
▁zgra	-1960
zije	-1961
▁SDP	-1962
▁korisni	-1963
▁mene	-1964
ćeg	-1965
▁film	-1966
teljica	-1967
ban	-1968
▁funk	-1969
▁nedo	-1970
▁subotu	-1971
cijom	-1972
▁osam	-1973
▁vjeru	-1974
▁sja	-1975
▁rada	-1976
▁oto	-1977
teljima	-1978
▁Ar	-1979
▁Kri	-1980
▁izvan	-1981
▁stoji	-1982
▁Veli	-1983
▁djevoj	-1984
▁ovdje	-1985
▁ozbilj	-1986
▁trans	-1987
▁slučaju	-1988
mom	-1989
▁og	-1990
▁Plenković	-1991
▁He	-1992
jeva	-1993
njima	-1994
stava	-1995
▁bile	-1996
▁genera	-1997
▁navodi	-1998
▁Đ	-1999
▁dne	-2000
menta	-2001
▁očeki	-2002
▁potpuno	-2003
▁zau	-2004
▁boga	-2005
▁poduze	-2006
lija	-2007
som	-2008
vnu	-2009
▁Kada	-2010
▁priva	-2011
▁drugom	-2012
čica	-2013
▁razdo	-2014
ved	-2015
žić	-2016
▁preda	-2017
fo	-2018
▁osob	-2019
▁2022.	-2020
▁listo	-2021
▁emi	-2022
▁trav	-2023
nike	-2024
telje	-2025
boj	-2026
lovi	-2027
▁Francu	-2028
▁priliku	-2029
▁društvenim	-2030
dija	-2031
▁199	-2032
▁opet	-2033
sad	-2034
▁smije	-2035
▁Gla	-2036
▁hla	-2037
▁tru	-2038
▁povije	-2039
▁odvjetni	-2040
▁mije	-2041
▁izvje	-2042
▁w	-2043
▁sprem	-2044
▁dovoljno	-2045
ster	-2046
zija	-2047
terija	-2048
▁PO	-2049
dina	-2050
▁Osije	-2051
zda	-2052
▁Co	-2053
▁Bra	-2054
▁zi	-2055
▁nova	-2056
▁namje	-2057
▁parla	-2058
▁drugih	-2059
▁svojih	-2060
▁nedjelju	-2061
▁puto	-2062
▁pogleda	-2063
▁biv	-2064
tem	-2065
▁em	-2066
▁100	-2067
spi	-2068
▁izvr	-2069
▁povje	-2070
kuplja	-2071
▁domaći	-2072
▁Španjol	-2073
▁snim	-2074
▁prosje	-2075
dnom	-2076
novi	-2077
▁ogra	-2078
▁tjedna	-2079
▁Međutim	-2080
▁vrhu	-2081
aj	-2082
▁Sto	-2083
šen	-2084
▁nesta	-2085
▁Milanović	-2086
▁doku	-2087
▁stan	-2088
▁zaba	-2089
▁jezi	-2090
▁mini	-2091
ista	-2092
tnika	-2093
mišlja	-2094
ati	-2095
gor	-2096
▁odnosu	-2097
▁NA	-2098
▁Sva	-2099
rg	-2100
▁uspješ	-2101
▁igrati	-2102
▁gradonače	-2103
▁1,	-2104
zma	-2105
▁Andre	-2106
▁istaknuo	-2107
fika	-2108
▁turni	-2109
▁hrvatske	-2110
▁ovoj	-2111
drža	-2112
▁žena	-2113
dnu	-2114
▁kona	-2115
▁upu	-2116
jih	-2117
▁turisti	-2118
taka	-2119
▁ponedjeljak	-2120
▁uslu	-2121
▁Ivana	-2122
▁nogometa	-2123
▁zo	-2124
▁nama	-2125
tine	-2126
▁Bro	-2127
▁ugo	-2128
tica	-2129
▁rata	-2130
▁ovih	-2131
▁objasni	-2132
▁Marko	-2133
▁povra	-2134
▁deve	-2135
pisu	-2136
▁neu	-2137
dro	-2138
▁donije	-2139
▁Ch	-2140
▁turi	-2141
▁godini	-2142
dnog	-2143
▁trebao	-2144
dese	-2145
lina	-2146
▁čla	-2147
▁uto	-2148
▁ban	-2149
▁rea	-2150
▁zaposle	-2151
-1	-2152
voje	-2153
▁skla	-2154
njoj	-2155
▁katego	-2156
rma	-2157
▁srp	-2158
▁Hrva	-2159
▁bivši	-2160
▁proje	-2161
▁vatroga	-2162
kić	-2163
▁kriti	-2164
jemo	-2165
▁maj	-2166
▁nom	-2167
▁kup	-2168
▁poveza	-2169
TE	-2170
tr	-2171
▁Kao	-2172
▁prve	-2173
▁potom	-2174
▁lop	-2175
▁izbora	-2176
▁posve	-2177
dana	-2178
ur	-2179
▁bira	-2180
▁djecu	-2181
▁Zbog	-2182
▁sije	-2183
▁obilje	-2184
▁nastupa	-2185
▁iznosi	-2186
kar	-2187
▁Zna	-2188
manje	-2189
▁ispri	-2190
đenja	-2191
▁stvara	-2192
▁razu	-2193
▁rezultat	-2194
▁aktivnosti	-2195
io	-2196
▁dijete	-2197
▁21	-2198
▁tih	-2199
▁srijedu	-2200
plit	-2201
▁kuće	-2202
cijske	-2203
▁osim	-2204
▁postoje	-2205
▁priprema	-2206
▁Prije	-2207
▁jasno	-2208
▁prome	-2209
▁Dinama	-2210
▁mnogo	-2211
▁at	-2212
▁nismo	-2213
▁preki	-2214
▁značaj	-2215
▁prepozna	-2216
▁potencija	-2217
ranja	-2218
▁pretho	-2219
gan	-2220
▁40	-2221
▁bodova	-2222
▁znam	-2223
▁traži	-2224
bina	-2225
stupa	-2226
▁udru	-2227
▁putem	-2228
AJ	-2229
▁Luka	-2230
▁odr	-2231
voza	-2232
▁šu	-2233
▁buduć	-2234
▁dijelu	-2235
▁emo	-2236
▁slije	-2237
glasio	-2238
dak	-2239
▁sata	-2240
▁St	-2241
▁Bri	-2242
▁psi	-2243
▁planira	-2244
▁veče	-2245
▁prote	-2246
▁velike	-2247
th	-2248
▁'.	-2249
▁Kon	-2250
lnom	-2251
▁Svi	-2252
▁nikad	-2253
▁ple	-2254
▁ćete	-2255
veza	-2256
▁festi	-2257
▁kak	-2258
▁Vje	-2259
▁izbje	-2260
▁tehno	-2261
▁stranke	-2262
▁povijesti	-2263
▁Dan	-2264
▁došao	-2265
čnu	-2266
▁kojih	-2267
▁ispred	-2268
▁metara	-2269
logi	-2270
▁zla	-2271
▁kampa	-2272
jar	-2273
▁obu	-2274
▁ske	-2275
vremeno	-2276
▁pozo	-2277
▁dobiti	-2278
kad	-2279
kna	-2280
nić	-2281
vlju	-2282
▁zemlji	-2283
stavlja	-2284
▁moguće	-2285
tog	-2286
▁Gu	-2287
▁cu	-2288
▁pak	-2289
šenja	-2290
pita	-2291
▁čita	-2292
▁sjeve	-2293
gnu	-2294
žan	-2295
▁povr	-2296
govora	-2297
▁očekuje	-2298
▁utakmici	-2299
▁obrazo	-2300
▁oru	-2301
che	-2302
▁ig	-2303
▁doći	-2304
kog	-2305
ljan	-2306
tnog	-2307
poru	-2308
čita	-2309
▁nazi	-2310
▁utorak	-2311
▁agen	-2312
▁Dalma	-2313
▁potro	-2314
▁institu	-2315
sak	-2316
▁ispu	-2317
▁Grada	-2318
▁gr	-2319
▁koli	-2320
▁razini	-2321
▁time	-2322
▁poseb	-2323
▁Žu	-2324
šiti	-2325
ple	-2326
▁osobi	-2327
▁strana	-2328
▁split	-2329
▁anali	-2330
▁glasa	-2331
▁Republike	-2332
▁uhi	-2333
▁škole	-2334
▁drugim	-2335
kata	-2336
loba	-2337
▁mirovi	-2338
30	-2339
▁svib	-2340
▁svima	-2341
▁investi	-2342
kretni	-2343
▁cijene	-2344
▁mjeseca	-2345
nove	-2346
▁član	-2347
▁zanim	-2348
▁osvojio	-2349
▁BiH	-2350
▁moći	-2351
▁gradu	-2352
▁poslije	-2353
▁bije	-2354
▁doži	-2355
▁zamje	-2356
ogra	-2357
ok	-2358
▁obli	-2359
▁rizi	-2360
▁zvije	-2361
▁Splitu	-2362
▁projekt	-2363
kor	-2364
▁Ke	-2365
▁plo	-2366
▁država	-2367
▁otvori	-2368
tina	-2369
▁niz	-2370
▁sustav	-2371
▁22	-2372
▁Spo	-2373
tirao	-2374
▁rade	-2375
▁Rijeka	-2376
▁prosi	-2377
▁momčad	-2378
▁glaso	-2379
vora	-2380
▁nog	-2381
lak	-2382
▁ug	-2383
▁Drža	-2384
▁tvrdi	-2385
▁spome	-2386
▁uključujući	-2387
misli	-2388
▁ovim	-2389
▁traja	-2390
▁godinama	-2391
▁županije	-2392
▁ističe	-2393
ava	-2394
nde	-2395
▁Ci	-2396
▁okru	-2397
▁dobar	-2398
▁izbor	-2399
▁Također	-2400
▁donosi	-2401
▁cijena	-2402
štvo	-2403
▁mrežama	-2404
stan	-2405
jedno	-2406
▁glavni	-2407
štva	-2408
limpij	-2409
▁tvrtke	-2410
▁dolara	-2411
▁he	-2412
▁suko	-2413
▁moglo	-2414
▁pobjedu	-2415
▁ljude	-2416
▁želje	-2417
▁medici	-2418
▁upozna	-2419
▁Hajduka	-2420
godišnjak	-2421
▁moraju	-2422
▁milijar	-2423
▁nedavno	-2424
▁diza	-2425
rina	-2426
▁sebi	-2427
▁lipnja	-2428
▁nedosta	-2429
▁njemu	-2430
▁snage	-2431
▁dobili	-2432
var	-2433
▁toj	-2434
▁međunaro	-2435
▁podijeli	-2436
rnoj	-2437
▁Tra	-2438
▁njegove	-2439
▁pobjede	-2440
▁program	-2441
▁hrvatskih	-2442
▁fizi	-2443
▁obje	-2444
▁njema	-2445
▁savje	-2446
▁javnosti	-2447
▁posjeti	-2448
▁napraviti	-2449
▁2.	-2450
ngle	-2451
godišnje	-2452
jni	-2453
dite	-2454
▁novih	-2455
▁čemu	-2456
▁Vr	-2457
dnika	-2458
▁Modri	-2459
▁izlo	-2460
▁trgovi	-2461
jno	-2462
▁prvog	-2463
▁Pla	-2464
▁poručio	-2465
ete	-2466
▁zatim	-2467
▁popula	-2468
tel	-2469
rske	-2470
▁dija	-2471
▁izaz	-2472
▁Vlade	-2473
▁postao	-2474
tivno	-2475
▁Foto	-2476
▁hrvatskog	-2477
šten	-2478
▁trenutno	-2479
▁HR	-2480
▁Opći	-2481
▁cilj	-2482
▁svjedo	-2483
renja	-2484
▁prvu	-2485
▁žele	-2486
▁objavila	-2487
▁novog	-2488
cira	-2489
jopri	-2490
čenje	-2491
▁poža	-2492
stagra	-2493
▁Domovi	-2494
▁novu	-2495
▁svijet	-2496
zuju	-2497
▁Mla	-2498
▁sho	-2499
▁Fili	-2500
▁Kar	-2501
▁manji	-2502
▁nikada	-2503
▁dogodilo	-2504
mio	-2505
▁novina	-2506
▁crve	-2507
toč	-2508
▁vanj	-2509
emo	-2510
vizi	-2511
▁ljud	-2512
▁biste	-2513
▁Marija	-2514
▁sudjelo	-2515
đene	-2516
dnici	-2517
▁stre	-2518
sh	-2519
leko	-2520
▁Doda	-2521
▁Novi	-2522
▁Srbi	-2523
LED	-2524
čak	-2525
žni	-2526
▁Danas	-2527
▁došlo	-2528
glavnom	-2529
▁situacija	-2530
blja	-2531
▁nasi	-2532
▁potreb	-2533
▁indu	-2534
▁zara	-2535
▁Izrael	-2536
▁mislim	-2537
▁podrža	-2538
▁postup	-2539
▁trebalo	-2540
▁ad	-2541
▁prošlo	-2542
▁zemlja	-2543
mac	-2544
vite	-2545
▁Ovaj	-2546
▁nitko	-2547
▁izjavio	-2548
ndo	-2549
▁pada	-2550
▁sporta	-2551
▁Instagra	-2552
▁prosla	-2553
đeni	-2554
▁uni	-2555
▁vre	-2556
▁siječ	-2557
▁pojedi	-2558
erce	-2559
gdje	-2560
lnoj	-2561
▁POG	-2562
▁sustava	-2563
tt	-2564
šću	-2565
krša	-2566
▁vaše	-2567
▁nepo	-2568
▁sredst	-2569
▁izborima	-2570
▁Može	-2571
▁ispod	-2572
▁ponaša	-2573
▁organizira	-2574
▁ravna	-2575
▁momčadi	-2576
učili	-2577
▁činje	-2578
▁otkrila	-2579
▁der	-2580
▁plat	-2581
kov	-2582
đuje	-2583
▁video	-2584
▁POGLED	-2585
fije	-2586
▁bismo	-2587
▁otkrio	-2588
▁razvoj	-2589
▁travnja	-2590
▁POGLEDAJ	-2591
▁premijer	-2592
vku	-2593
▁pogi	-2594
,5	-2595
nicima	-2596
▁Svjet	-2597
▁POGLEDAJTE	-2598
siji	-2599
▁zabio	-2600
▁zaslu	-2601
▁započe	-2602
▁San	-2603
▁pobo	-2604
▁djeca	-2605
sobno	-2606
▁teni	-2607
▁zadovolj	-2608
sk	-2609
▁Sje	-2610
▁igrač	-2611
šlje	-2612
▁Har	-2613
▁isklju	-2614
▁njihove	-2615
▁Predsjedni	-2616
tinu	-2617
ranju	-2618
▁terenu	-2619
▁onih	-2620
osta	-2621
▁muškar	-2622
▁Hrvatski	-2623
čnim	-2624
▁New	-2625
ljeća	-2626
▁igre	-2627
žba	-2628
▁jedne	-2629
▁novac	-2630
▁of	-2631
▁Dje	-2632
▁ukraji	-2633
▁šan	-2634
▁države	-2635
zam	-2636
▁ji	-2637
▁Tomi	-2638
▁dove	-2639
▁živi	-2640
▁prisu	-2641
▁snima	-2642
▁potrebno	-2643
▁lako	-2644
▁razmišlja	-2645
▁napre	-2646
▁poljopri	-2647
tova	-2648
▁bolji	-2649
▁opera	-2650
▁poslova	-2651
dima	-2652
loški	-2653
nskih	-2654
tnosti	-2655
▁kojom	-2656
▁prostor	-2657
▁kući	-2658
▁pros	-2659
▁kli	-2660
▁okoli	-2661
tnim	-2662
▁nado	-2663
▁odla	-2664
nicama	-2665
▁odgovor	-2666
▁prijatelj	-2667
ksa	-2668
tnik	-2669
▁god	-2670
▁trebali	-2671
snu	-2672
▁23	-2673
▁Or	-2674
tnom	-2675
▁Sre	-2676
▁dro	-2677
lnosti	-2678
▁oduše	-2679
▁stvar	-2680
ljiva	-2681
▁gubi	-2682
▁životu	-2683
tili	-2684
ženje	-2685
▁kažu	-2686
▁provje	-2687
vice	-2688
▁Cr	-2689
matra	-2690
▁bolesti	-2691
▁najveći	-2692
▁promjene	-2693
▁FO	-2694
▁njihov	-2695
lac	-2696
mer	-2697
▁brzi	-2698
▁natje	-2699
▁rujna	-2700
šća	-2701
▁Bilo	-2702
stre	-2703
▁Ipak	-2704
▁zema	-2705
▁poslu	-2706
pisao	-2707
▁rado	-2708
▁stadio	-2709
▁ljudima	-2710
▁škola	-2711
tivne	-2712
vljaju	-2713
▁socija	-2714
▁prilikom	-2715
▁posljednjih	-2716
zvo	-2717
▁RT	-2718
mati	-2719
▁Pari	-2720
▁slučaj	-2721
▁Pos	-2722
▁meda	-2723
▁rekli	-2724
▁smanji	-2725
▁prenosi	-2726
▁dao	-2727
▁partne	-2728
▁Ber	-2729
▁Raz	-2730
vnici	-2731
▁norma	-2732
▁mijenja	-2733
▁60	-2734
gama	-2735
▁svakodne	-2736
▁policije	-2737
vića	-2738
▁Bio	-2739
▁pitanja	-2740
▁četvrtak	-2741
pr	-2742
mat	-2743
▁konku	-2744
▁ispla	-2745
▁konferen	-2746
▁materija	-2747
tih	-2748
šio	-2749
▁kame	-2750
▁odgovara	-2751
wa	-2752
ela	-2753
▁šo	-2754
vlada	-2755
▁dati	-2756
mos	-2757
nila	-2758
▁glumi	-2759
▁ukupno	-2760
sima	-2761
▁parki	-2762
sjetimo	-2763
▁stvarno	-2764
nska	-2765
▁kupa	-2766
▁računa	-2767
▁građana	-2768
▁projekta	-2769
▁razloga	-2770
▁trebala	-2771
pom	-2772
▁bes	-2773
▁Tije	-2774
▁Europe	-2775
▁jednostavno	-2776
▁X	-2777
▁žene	-2778
▁iznim	-2779
dije	-2780
▁ožu	-2781
▁stati	-2782
▁posljedi	-2783
vka	-2784
▁ulaga	-2785
▁cijeli	-2786
vid	-2787
bila	-2788
▁uze	-2789
žili	-2790
▁izvijesti	-2791
rano	-2792
nstve	-2793
▁rast	-2794
metara	-2795
rane	-2796
▁korište	-2797
▁direktor	-2798
seli	-2799
▁reak	-2800
▁razgovara	-2801
▁Ge	-2802
mini	-2803
pušta	-2804
sen	-2805
▁Oni	-2806
▁pobolj	-2807
▁elektri	-2808
pad	-2809
▁srpnja	-2810
▁dodatno	-2811
▁napisao	-2812
tere	-2813
▁prijed	-2814
▁Gor	-2815
▁dozvo	-2816
JE	-2817
nite	-2818
▁Dok	-2819
▁moj	-2820
▁tiče	-2821
▁devet	-2822
▁pruža	-2823
▁ispriča	-2824
▁nekretni	-2825
▁listopada	-2826
▁(3	-2827
▁Par	-2828
est	-2829
mija	-2830
čina	-2831
▁doče	-2832
vljena	-2833
▁opasno	-2834
▁am	-2835
▁lak	-2836
▁Zadar	-2837
▁važno	-2838
▁sklopu	-2839
▁meni	-2840
▁Mislim	-2841
siona	-2842
▁FOTO	-2843
▁Mate	-2844
▁uzro	-2845
▁ostati	-2846
kul	-2847
tnoj	-2848
lnika	-2849
▁prora	-2850
▁reda	-2851
gne	-2852
ini	-2853
▁Samo	-2854
▁ograni	-2855
▁previše	-2856
vci	-2857
▁hu	-2858
nsko	-2859
žnje	-2860
▁Zla	-2861
▁lige	-2862
▁dodaje	-2863
▁početka	-2864
▁uglavnom	-2865
am	-2866
koj	-2867
lica	-2868
▁epi	-2869
▁moramo	-2870
▁nih	-2871
▁vodst	-2872
▁tjedan	-2873
▁reprezentacije	-2874
▁3.	-2875
▁umi	-2876
▁kolu	-2877
▁mladih	-2878
koho	-2879
ljev	-2880
▁barem	-2881
▁sadrža	-2882
▁Ukrajini	-2883
ljena	-2884
▁strate	-2885
▁čovjek	-2886
▁per	-2887
▁podršku	-2888
▁koša	-2889
▁potra	-2890
tac	-2891
vnoj	-2892
▁obe	-2893
▁pripa	-2894
▁rekor	-2895
▁pacije	-2896
▁veliku	-2897
▁vu	-2898
rena	-2899
▁nekim	-2900
▁tehni	-2901
nzi	-2902
reni	-2903
▁Nova	-2904
▁hoće	-2905
▁profi	-2906
▁Europi	-2907
▁automobila	-2908
zer	-2909
vrše	-2910
▁drugog	-2911
dnoj	-2912
▁defi	-2913
▁Rijeke	-2914
▁zemalja	-2915
-0	-2916
njo	-2917
▁preuze	-2918
▁27	-2919
▁najmanje	-2920
▁kuća	-2921
val	-2922
▁suo	-2923
▁ulogu	-2924
riju	-2925
▁dozna	-2926
▁plaće	-2927
▁kolovoza	-2928
▁sigurnosti	-2929
▁vrijednosti	-2930
▁Cen	-2931
▁mobi	-2932
kim	-2933
čuje	-2934
▁Trump	-2935
ker	-2936
▁Bru	-2937
▁prvenstva	-2938
kih	-2939
▁mar	-2940
▁odluku	-2941
▁predvi	-2942
is	-2943
lijan	-2944
▁otvara	-2945
▁vike	-2946
▁priti	-2947
▁dobila	-2948
ler	-2949
▁RTL	-2950
▁uopće	-2951
▁izrael	-2952
rska	-2953
▁gro	-2954
sjeća	-2955
▁prima	-2956
ly	-2957
▁Još	-2958
jutro	-2959
▁dalj	-2960
▁umjetni	-2961
▁Europske	-2962
▁konkuren	-2963
▁projekti	-2964
▁premi	-2965
▁vrata	-2966
▁vraća	-2967
▁brojne	-2968
▁10.	-2969
▁skog	-2970
▁nevje	-2971
▁iskoristi	-2972
od	-2973
nte	-2974
▁sat	-2975
▁putu	-2976
raca	-2977
▁kva	-2978
▁kompa	-2979
▁umjesto	-2980
skoro	-2981
struktu	-2982
▁ek	-2983
▁Slove	-2984
▁odluka	-2985
▁programa	-2986
▁Ste	-2987
mosfe	-2988
▁fran	-2989
▁dostup	-2990
▁pristup	-2991
ing	-2992
nskom	-2993
▁loše	-2994
▁polo	-2995
▁učin	-2996
▁reali	-2997
▁rođen	-2998
▁velja	-2999
ras	-3000
čnog	-3001
▁opći	-3002
▁diljem	-3003
▁mjesec	-3004
tila	-3005
žila	-3006
▁redu	-3007
▁prila	-3008
▁alkoho	-3009
▁Wa	-3010
▁mr	-3011
▁pli	-3012
▁Jedan	-3013
▁svibnja	-3014
▁Evo	-3015
▁naša	-3016
▁ljubav	-3017
▁njezin	-3018
▁troško	-3019
▁ugovor	-3020
▁ošte	-3021
▁počinje	-3022
▁različi	-3023
baci	-3024
▁dre	-3025
▁uvo	-3026
▁izno	-3027
▁kuha	-3028
gno	-3029
▁Sti	-3030
▁polufina	-3031
▁korak	-3032
▁smanje	-3033
▁nastaviti	-3034
Ne	-3035
▁Pra	-3036
lnost	-3037
▁izla	-3038
▁bivše	-3039
▁izbore	-3040
▁njihova	-3041
vač	-3042
▁The	-3043
▁priopće	-3044
▁ben	-3045
▁reagi	-3046
▁treći	-3047
▁raspra	-3048
▁shvati	-3049
▁duž	-3050
lla	-3051
zin	-3052
▁Taj	-3053
▁područja	-3054
klu	-3055
skr	-3056
▁Ot	-3057
luje	-3058
▁rat	-3059
tiva	-3060
čava	-3061
▁blo	-3062
▁jugo	-3063
▁naših	-3064
▁natjecanja	-3065
▁žrt	-3066
▁dopri	-3067
vjeti	-3068
▁Usta	-3069
▁zele	-3070
jedinje	-3071
▁navede	-3072
▁posljednje	-3073
min	-3074
zan	-3075
jelo	-3076
▁staja	-3077
▁Radi	-3078
▁Real	-3079
▁gola	-3080
▁2021.	-3081
▁strani	-3082
▁profesiona	-3083
ir	-3084
ana	-3085
▁20.	-3086
▁jedin	-3087
▁obrane	-3088
▁vratiti	-3089
razu	-3090
▁evo	-3091
▁oruž	-3092
▁Josip	-3093
▁mlade	-3094
▁čiji	-3095
vljeni	-3096
▁igrao	-3097
▁presu	-3098
▁TV	-3099
spek	-3100
▁sazna	-3101
▁primjer	-3102
▁napad	-3103
▁jest	-3104
▁susret	-3105
štaj	-3106
▁zrako	-3107
▁35	-3108
▁traže	-3109
▁zakon	-3110
▁prekrša	-3111
▁preh	-3112
▁znaju	-3113
▁zausta	-3114
▁pitanju	-3115
line	-3116
snih	-3117
▁Nema	-3118
vremenu	-3119
vama	-3120
▁boda	-3121
▁Tijekom	-3122
▁napusti	-3123
▁stigao	-3124
▁utr	-3125
▁jući	-3126
▁gosti	-3127
▁nagla	-3128
▁26	-3129
▁seku	-3130
▁tijelo	-3131
rastruktu	-3132
cem	-3133
▁Vladi	-3134
▁tradiciona	-3135
celo	-3136
▁seksu	-3137
▁ostali	-3138
▁stručnja	-3139
by	-3140
▁cijelo	-3141
▁poboljša	-3142
dran	-3143
▁Sin	-3144
jskog	-3145
▁ozna	-3146
▁liječ	-3147
▁godišnje	-3148
ili	-3149
štvu	-3150
▁ruko	-3151
▁poljoprivre	-3152
stina	-3153
tnost	-3154
▁Upra	-3155
▁iznad	-3156
▁ostao	-3157
▁zdravlje	-3158
▁ići	-3159
Ccaron	-3160
▁aktua	-3161
▁sutra	-3162
▁tijela	-3163
▁demokra	-3164
▁gradonačelnik	-3165
▁5.	-3166
BC	-3167
ld	-3168
▁smrti	-3169
▁centra	-3170
gh	-3171
▁vjero	-3172
▁proraču	-3173
▁cent	-3174
▁Treba	-3175
▁francu	-3176
▁Hu	-3177
▁naba	-3178
▁energe	-3179
▁sprije	-3180
▁sigurnost	-3181
por	-3182
▁Os	-3183
▁izrazi	-3184
▁odluke	-3185
▁zabora	-3186
▁komenta	-3187
▁događaja	-3188
▁Tr	-3189
žalost	-3190
▁cesta	-3191
▁energi	-3192
▁iskustvo	-3193
-2	-3194
▁90	-3195
▁zvu	-3196
▁priop	-3197
▁atmosfe	-3198
▁njegovu	-3199
bla	-3200
rin	-3201
▁Is	-3202
▁HNL	-3203
podne	-3204
▁legen	-3205
čitajte	-3206
▁identi	-3207
nut	-3208
▁asi	-3209
▁anti	-3210
▁majka	-3211
▁kontak	-3212
▁prosvje	-3213
kro	-3214
zom	-3215
rira	-3216
▁HRT	-3217
▁zadrža	-3218
▁početkom	-3219
tek	-3220
šno	-3221
▁hrane	-3222
▁novim	-3223
▁ujutro	-3224
bilje	-3225
▁Jadra	-3226
▁borbe	-3227
▁finala	-3228
▁završe	-3229
▁Podsjetimo	-3230
▁informacije	-3231
njuje	-3232
▁daleko	-3233
▁dolaze	-3234
▁Hrvatskog	-3235
▁2,	-3236
▁Šu	-3237
miti	-3238
▁Stu	-3239
▁prvoj	-3240
▁mediji	-3241
▁koriste	-3242
ena	-3243
ine	-3244
▁susje	-3245
▁dogovo	-3246
▁navodno	-3247
▁novinar	-3248
▁infrastruktu	-3249
ad	-3250
▁Bel	-3251
vnost	-3252
▁zabra	-3253
▁platfor	-3254
▁sudjelova	-3255
:1	-3256
et	-3257
mbo	-3258
▁(4	-3259
vljeno	-3260
▁stanje	-3261
▁zanima	-3262
mili	-3263
▁Lige	-3264
▁okre	-3265
▁sudio	-3266
▁energije	-3267
blju	-3268
▁Kre	-3269
▁NATO	-3270
▁čime	-3271
ih	-3272
▁7.	-3273
▁došli	-3274
▁komunika	-3275
šni	-3276
▁siječnja	-3277
tske	-3278
▁kazala	-3279
▁prosinca	-3280
▁znanstve	-3281
▁voli	-3282
▁najva	-3283
sor	-3284
▁Sada	-3285
▁globa	-3286
▁interne	-3287
▁+	-3288
like	-3289
▁ubr	-3290
čević	-3291
▁blizi	-3292
▁uspio	-3293
▁dodala	-3294
▁Plenkovi	-3295
▁Njemačkoj	-3296
kan	-3297
▁15.	-3298
rtuga	-3299
▁sezonu	-3300
▁najavio	-3301
▁prvenstvu	-3302
ov	-3303
snog	-3304
stao	-3305
ila	-3306
▁klubo	-3307
▁mjere	-3308
▁prika	-3309
▁skupine	-3310
▁završio	-3311
▁financij	-3312
lira	-3313
▁digi	-3314
▁uoči	-3315
▁ljubi	-3316
▁prijet	-3317
To	-3318
vlji	-3319
▁Zdra	-3320
▁mani	-3321
▁para	-3322
▁krimi	-3323
▁savez	-3324
▁proizvoda	-3325
cebo	-3326
▁pala	-3327
▁Gru	-3328
▁stabi	-3329
▁svemu	-3330
njom	-3331
▁noći	-3332
▁vezi	-3333
▁ispra	-3334
▁osobito	-3335
▁veze	-3336
▁Više	-3337
▁hote	-3338
▁resto	-3339
▁radova	-3340
▁pobjeda	-3341
▁supruga	-3342
▁uve	-3343
mentar	-3344
▁dosad	-3345
▁standar	-3346
ljeni	-3347
▁ljeta	-3348
▁mogućnost	-3349
pen	-3350
▁RH	-3351
mila	-3352
tija	-3353
▁naz	-3354
▁Isto	-3355
▁Beogra	-3356
▁mišlje	-3357
▁tvrtka	-3358
▁pokazuje	-3359
vilo	-3360
čnom	-3361
▁kazali	-3362
▁odlučio	-3363
▁omogući	-3364
▁zahvalju	-3365
NA	-3366
▁kape	-3367
▁Vlada	-3368
rij	-3369
tru	-3370
▁Mora	-3371
▁osvaja	-3372
▁y	-3373
niju	-3374
▁protu	-3375
▁polica	-3376
▁prostora	-3377
mnji	-3378
▁procje	-3379
jim	-3380
▁Ša	-3381
▁poh	-3382
▁Prvi	-3383
▁migra	-3384
▁kratko	-3385
šnjava	-3386
▁Madri	-3387
▁drugu	-3388
▁Ben	-3389
čenja	-3390
▁zada	-3391
:0	-3392
ol	-3393
ćoj	-3394
▁ruke	-3395
▁Car	-3396
▁Ce	-3397
▁nače	-3398
▁okvi	-3399
▁obzira	-3400
▁postala	-3401
▁kandidata	-3402
▁Še	-3403
▁imam	-3404
▁situaciju	-3405
qu	-3406
▁l	-3407
mpi	-3408
žbi	-3409
žne	-3410
▁redo	-3411
▁Policija	-3412
▁nastavlja	-3413
▁nakna	-3414
▁poziva	-3415
ziva	-3416
▁našim	-3417
▁održi	-3418
▁nastup	-3419
▁prilika	-3420
tera	-3421
▁proši	-3422
▁sjeća	-3423
▁jednoj	-3424
▁uprave	-3425
ćom	-3426
▁4.	-3427
ivot	-3428
▁izmje	-3429
▁sluša	-3430
▁specija	-3431
tnici	-3432
▁iste	-3433
▁odgo	-3434
▁ovak	-3435
▁koali	-3436
▁maksi	-3437
▁zabri	-3438
▁naravno	-3439
▁11.	-3440
▁ele	-3441
▁svakom	-3442
▁zadovo	-3443
let	-3444
kuju	-3445
▁vru	-3446
▁doba	-3447
▁2025.	-3448
▁pridru	-3449
).	-3450
rski	-3451
▁dom	-3452
▁skup	-3453
▁svojom	-3454
▁kvalifika	-3455
▁sin	-3456
▁ispa	-3457
▁Župa	-3458
rnosti	-3459
▁prihvati	-3460
čine	-3461
lena	-3462
▁17.	-3463
▁koma	-3464
▁nogome	-3465
▁Kla	-3466
▁sni	-3467
▁Facebo	-3468
▁prometa	-3469
▁ap	-3470
▁Jer	-3471
▁Itali	-3472
▁imovi	-3473
▁intenzi	-3474
ćuje	-3475
▁upa	-3476
▁doka	-3477
▁uskoro	-3478
▁razgovo	-3479
slo	-3480
▁80	-3481
▁inače	-3482
▁ozlje	-3483
▁Srbije	-3484
▁dijela	-3485
▁riječi	-3486
▁građani	-3487
▁Bla	-3488
nijih	-3489
▁dobri	-3490
▁naslov	-3491
▁prihva	-3492
▁smjeru	-3493
▁stvori	-3494
▁zabilje	-3495
vit	-3496
grama	-3497
▁jučer	-3498
▁presta	-3499
▁društva	-3500
biti	-3501
▁uboj	-3502
▁škol	-3503
▁broja	-3504
▁novca	-3505
▁priče	-3506
čeno	-3507
Zcaron	-3508
RI	-3509
jne	-3510
snim	-3511
▁ino	-3512
▁filma	-3513
▁poklo	-3514
▁zaključio	-3515
▁klubu	-3516
▁minute	-3517
▁nemaju	-3518
▁Pročitajte	-3519
▁mali	-3520
▁nadle	-3521
▁sunča	-3522
▁napisala	-3523
▁koristiti	-3524
us	-3525
liti	-3526
nese	-3527
▁Jan	-3528
▁upi	-3529
▁foku	-3530
▁Dakle	-3531
▁traje	-3532
▁površi	-3533
▁zaista	-3534
▁društvo	-3535
▁pokazala	-3536
ber	-3537
▁8.	-3538
tije	-3539
▁Ona	-3540
rović	-3541
▁fotografije	-3542
nili	-3543
pije	-3544
▁ver	-3545
▁dubo	-3546
▁klasi	-3547
▁nekih	-3548
▁novom	-3549
▁pjesme	-3550
▁pokazao	-3551
▁državlja	-3552
▁nim	-3553
reno	-3554
▁Mnog	-3555
▁lice	-3556
▁otac	-3557
▁supro	-3558
▁postaje	-3559
jam	-3560
ksu	-3561
nito	-3562
▁inci	-3563
▁sama	-3564
▁vrti	-3565
▁priho	-3566
▁susreta	-3567
▁temperatura	-3568
zno	-3569
ranu	-3570
vici	-3571
▁vid	-3572
▁Udru	-3573
▁sabor	-3574
rp	-3575
▁45	-3576
kove	-3577
siju	-3578
nicija	-3579
▁Zoran	-3580
▁ugosti	-3581
▁12.	-3582
▁noć	-3583
▁jedini	-3584
▁početku	-3585
iti	-3586
▁kće	-3587
▁Cije	-3588
▁Zato	-3589
▁ugro	-3590
▁takav	-3591
godišnja	-3592
▁njezina	-3593
▁rješenje	-3594
ff	-3595
vca	-3596
▁stro	-3597
▁pogre	-3598
▁#	-3599
ljka	-3600
0.000	-3601
▁studi	-3602
▁umiro	-3603
▁ostaje	-3604
▁Naciona	-3605
▁velikim	-3606
▁Kr	-3607
kade	-3608
▁Mađa	-3609
▁anga	-3610
▁posu	-3611
▁Dubrovnik	-3612
sada	-3613
▁plan	-3614
ita	-3615
vod	-3616
štine	-3617
▁postati	-3618
▁trenera	-3619
▁Ob	-3620
▁kata	-3621
▁skom	-3622
▁stup	-3623
▁stanju	-3624
▁primije	-3625
▁mogućnosti	-3626
eli	-3627
čeni	-3628
▁tema	-3629
▁našeg	-3630
▁ljubavi	-3631
▁životi	-3632
▁napravio	-3633
▁kilometara	-3634
▁odo	-3635
ljivi	-3636
▁blag	-3637
▁Polju	-3638
▁ozljede	-3639
▁preporu	-3640
▁karijere	-3641
jnu	-3642
škom	-3643
▁albu	-3644
▁dođe	-3645
▁dobra	-3646
▁Nikola	-3647
▁dob	-3648
▁Sara	-3649
▁moje	-3650
▁javnost	-3651
▁70	-3652
šević	-3653
▁Ante	-3654
▁potrebe	-3655
▁sposobno	-3656
▁6.	-3657
▁plu	-3658
▁paž	-3659
rnica	-3660
▁2020.	-3661
▁navode	-3662
▁koncert	-3663
▁njim	-3664
▁dvoji	-3665
▁počeo	-3666
cionira	-3667
▁komentira	-3668
▁čet	-3669
▁obeća	-3670
▁eksplo	-3671
nskim	-3672
ima	-3673
ziju	-3674
▁sina	-3675
▁Naravno	-3676
▁kulture	-3677
▁svakako	-3678
▁promjena	-3679
JA	-3680
▁Ono	-3681
▁izd	-3682
▁Neki	-3683
▁radu	-3684
▁mnoge	-3685
▁cijelu	-3686
▁drugoj	-3687
▁igrali	-3688
▁televizi	-3689
▁centar	-3690
▁potica	-3691
ćim	-3692
▁(5	-3693
▁Hr	-3694
ćenja	-3695
▁došla	-3696
▁medija	-3697
▁uspjeli	-3698
plika	-3699
▁spek	-3700
▁utje	-3701
▁ožujka	-3702
▁pogotovo	-3703
▁Predsjednik	-3704
▁Bre	-3705
▁ocje	-3706
▁porta	-3707
▁glasova	-3708
▁izgubio	-3709
les	-3710
▁Man	-3711
stoji	-3712
▁Herce	-3713
▁ovako	-3714
▁digita	-3715
▁blizini	-3716
ou	-3717
▁DP	-3718
tivni	-3719
▁mjera	-3720
▁spasi	-3721
▁Jedna	-3722
▁ljeto	-3723
▁znamo	-3724
▁igrači	-3725
▁sezoni	-3726
vju	-3727
▁Vije	-3728
▁uređa	-3729
▁uslije	-3730
▁vratio	-3731
▁Portuga	-3732
▁stanovni	-3733
▁28	-3734
▁198	-3735
▁gosto	-3736
▁snaga	-3737
▁Andrej	-3738
▁pokreta	-3739
▁naglasio	-3740
▁politike	-3741
▁rezultate	-3742
▁obno	-3743
▁usmje	-3744
▁Tomislav	-3745
žena	-3746
▁nau	-3747
▁pjesmu	-3748
▁okuplja	-3749
▁pronaći	-3750
▁°	-3751
dinu	-3752
▁regu	-3753
▁voda	-3754
▁ovoga	-3755
▁automobil	-3756
ncu	-3757
▁Maksi	-3758
▁fakul	-3759
▁građe	-3760
▁topli	-3761
▁asiste	-3762
▁probleme	-3763
igra	-3764
čnoj	-3765
▁izuze	-3766
▁česti	-3767
ul	-3768
nose	-3769
spje	-3770
▁Tri	-3771
deset	-3772
▁finale	-3773
rine	-3774
▁Ove	-3775
rnice	-3776
▁gori	-3777
▁skri	-3778
▁Istra	-3779
▁ubije	-3780
đuju	-3781
▁top	-3782
▁visi	-3783
▁krajem	-3784
▁najvaž	-3785
▁sredstva	-3786
▁hrvatskom	-3787
vodi	-3788
▁ica	-3789
▁meta	-3790
▁udar	-3791
▁kreta	-3792
▁Parizu	-3793
▁iznimno	-3794
rvi	-3795
prav	-3796
snik	-3797
▁gor	-3798
▁ter	-3799
▁Doma	-3800
▁htje	-3801
▁Riječ	-3802
▁svake	-3803
▁istraživanje	-3804
▁nudi	-3805
▁pusti	-3806
▁poraza	-3807
▁najboljih	-3808
▁budućnosti	-3809
ženi	-3810
▁18.	-3811
▁super	-3812
▁intervju	-3813
yer	-3814
▁gre	-3815
▁vina	-3816
▁Super	-3817
▁izved	-3818
▁izvor	-3819
▁većina	-3820
ao	-3821
▁pam	-3822
ligen	-3823
ljene	-3824
▁imate	-3825
▁trebaju	-3826
▁list	-3827
▁reži	-3828
▁ulaz	-3829
▁redovi	-3830
▁kombina	-3831
tirati	-3832
▁priču	-3833
▁prvih	-3834
▁prvenstvo	-3835
AR	-3836
rnici	-3837
▁moja	-3838
▁obla	-3839
▁poznati	-3840
mena	-3841
▁Ana	-3842
▁Lasa	-3843
▁vele	-3844
▁Pogleda	-3845
▁objasnio	-3846
mpo	-3847
mrt	-3848
▁ić	-3849
▁Ban	-3850
▁nase	-3851
▁ekipa	-3852
▁epizo	-3853
▁točno	-3854
▁završ	-3855
lice	-3856
stom	-3857
▁simbo	-3858
▁roditelji	-3859
kin	-3860
▁trenutak	-3861
jedna	-3862
▁društvu	-3863
▁Ministarstva	-3864
rup	-3865
▁Gi	-3866
▁ći	-3867
▁Ži	-3868
nulo	-3869
tost	-3870
▁dvoje	-3871
▁strada	-3872
▁vjenča	-3873
▁govorio	-3874
▁mandata	-3875
▁nesreće	-3876
ny	-3877
▁Ć	-3878
cep	-3879
▁vaš	-3880
▁dječ	-3881
▁izve	-3882
▁nada	-3883
▁našu	-3884
▁očito	-3885
ham	-3886
▁9.	-3887
tive	-3888
▁uspjeh	-3889
▁zajednice	-3890
teo	-3891
▁naru	-3892
▁stari	-3893
▁kojemu	-3894
▁pokazuju	-3895
kvi	-3896
čaje	-3897
▁avio	-3898
▁laga	-3899
tković	-3900
▁Filip	-3901
▁klima	-3902
▁učiniti	-3903
pušte	-3904
▁agre	-3905
▁imena	-3906
▁konzu	-3907
▁postu	-3908
▁Splita	-3909
▁finalu	-3910
▁suradnji	-3911
OR	-3912
pila	-3913
▁loptu	-3914
▁odnos	-3915
▁Rusija	-3916
▁inteligen	-3917
▁cilje	-3918
▁znati	-3919
▁lijepo	-3920
▁prakti	-3921
▁talijan	-3922
▁jedinstve	-3923
▁19.	-3924
▁Anto	-3925
▁tera	-3926
▁uzbu	-3927
▁razlog	-3928
▁potpisa	-3929
▁trenuta	-3930
tski	-3931
▁ović	-3932
▁trenin	-3933
▁vidjeli	-3934
▁zatvore	-3935
▁situacije	-3936
lon	-3937
▁Peri	-3938
▁soli	-3939
▁ceste	-3940
▁statu	-3941
▁govore	-3942
▁Barcelo	-3943
▁raspore	-3944
▁zvijezda	-3945
▁posljednji	-3946
keta	-3947
škog	-3948
▁Cro	-3949
▁Baby	-3950
▁njoj	-3951
▁listi	-3952
▁ekonom	-3953
▁svlada	-3954
▁vremenu	-3955
▁godišnji	-3956
▁razumije	-3957
▁informacija	-3958
▁svr	-3959
▁ljest	-3960
▁podru	-3961
▁osjećaj	-3962
▁zaštite	-3963
VD	-3964
ljep	-3965
teri	-3966
▁21.	-3967
zozem	-3968
▁Bran	-3969
▁bora	-3970
▁potpo	-3971
▁autobu	-3972
ya	-3973
▁Toma	-3974
▁kupo	-3975
▁ruku	-3976
▁partner	-3977
▁prilago	-3978
...	-3979
tle	-3980
voru	-3981
voren	-3982
▁Mario	-3983
▁dužno	-3984
▁objek	-3985
▁plani	-3986
▁inicija	-3987
▁iskustva	-3988
cha	-3989
znu	-3990
čice	-3991
▁Tko	-3992
▁diplo	-3993
▁lakše	-3994
▁Jadranu	-3995
▁bolnici	-3996
▁prijatelji	-3997
▁Ministarstvo	-3998
▁reprezentacija	-3999
ljeno	-4000
▁tvrde	-4001
▁ulici	-4002
▁otišao	-4003
ljko	-4004
▁Alek	-4005
▁Turu	-4006
▁obrani	-4007
▁tržištu	-4008
▁Vin	-4009
▁more	-4010
▁povu	-4011
▁čine	-4012
▁Osijek	-4013
▁ostale	-4014
▁sezona	-4015
▁hrvatska	-4016
▁Pogledajte	-4017
rova	-4018
▁Bije	-4019
▁bici	-4020
▁drži	-4021
▁nega	-4022
▁razo	-4023
▁zraka	-4024
▁zamije	-4025
▁kandidat	-4026
put	-4027
zbo	-4028
ćima	-4029
ziran	-4030
▁logi	-4031
logije	-4032
▁teren	-4033
▁provodi	-4034
:00	-4035
▁sed	-4036
pić	-4037
▁500	-4038
tivna	-4039
vrije	-4040
▁Prvo	-4041
▁spremni	-4042
bav	-4043
dbe	-4044
ity	-4045
vak	-4046
▁Dr	-4047
▁ukra	-4048
▁Sport	-4049
▁gledati	-4050
▁karijeri	-4051
▁osvojila	-4052
▁potvrdio	-4053
lega	-4054
▁Dne	-4055
▁Ško	-4056
dobno	-4057
▁vidio	-4058
▁Instagramu	-4059
fek	-4060
▁noj	-4061
▁komi	-4062
▁moru	-4063
▁pojača	-4064
▁unutra	-4065
▁financi	-4066
▁problemi	-4067
graf	-4068
lacije	-4069
▁scena	-4070
▁javlja	-4071
▁fotografija	-4072
njih	-4073
▁Već	-4074
nijeti	-4075
▁poziv	-4076
▁inozem	-4077
▁Fu	-4078
▁edu	-4079
▁Robe	-4080
▁Stra	-4081
▁stigla	-4082
▁postavlja	-4083
jska	-4084
▁kapa	-4085
▁opor	-4086
▁stoga	-4087
▁svaka	-4088
▁odnosi	-4089
▁proizvođa	-4090
▁priopćenju	-4091
em	-4092
boru	-4093
▁veće	-4094
▁karak	-4095
▁raste	-4096
▁razvoja	-4097
▁velikom	-4098
▁razdoblju	-4099
voz	-4100
▁196	-4101
▁Gre	-4102
struk	-4103
đenih	-4104
▁kine	-4105
▁stalno	-4106
gna	-4107
nov	-4108
▁29	-4109
▁3,	-4110
brani	-4111
▁ravno	-4112
▁želim	-4113
▁povijest	-4114
dera	-4115
▁nao	-4116
▁City	-4117
▁Polj	-4118
▁bren	-4119
▁tenisa	-4120
▁mir	-4121
▁navi	-4122
▁onaj	-4123
▁nekada	-4124
▁savrše	-4125
njim	-4126
▁13.	-4127
tfina	-4128
▁prav	-4129
▁preu	-4130
▁privla	-4131
▁serije	-4132
▁osumnji	-4133
▁komentirao	-4134
komo	-4135
▁Per	-4136
▁Kova	-4137
▁Zako	-4138
▁Sveučili	-4139
▁dogodila	-4140
▁zrakoplo	-4141
▁povo	-4142
▁Slavo	-4143
▁kakav	-4144
▁našem	-4145
▁tjele	-4146
▁školu	-4147
▁zgrade	-4148
▁poznato	-4149
▁radnika	-4150
▁različiti	-4151
vec	-4152
▁Br	-4153
zacije	-4154
▁građevi	-4155
▁rješenja	-4156
bama	-4157
rskoj	-4158
▁Pose	-4159
▁kora	-4160
▁pošto	-4161
▁psiho	-4162
▁0,	-4163
land	-4164
▁eva	-4165
▁jača	-4166
▁godiš	-4167
▁industri	-4168
▁skr	-4169
▁borbi	-4170
▁predi	-4171
▁pohvali	-4172
▁zatvora	-4173
žna	-4174
mana	-4175
vile	-4176
etiri	-4177
▁vatre	-4178
▁vrijednost	-4179
BA	-4180
mani	-4181
▁Wil	-4182
▁proces	-4183
▁svakog	-4184
▁Olimpij	-4185
▁održati	-4186
solu	-4187
stoj	-4188
▁pale	-4189
▁našoj	-4190
▁upisa	-4191
▁bespla	-4192
▁unatoč	-4193
▁zakona	-4194
▁odgovorio	-4195
mar	-4196
▁kome	-4197
▁Inače	-4198
▁popla	-4199
▁sveča	-4200
▁ostala	-4201
▁Bor	-4202
djela	-4203
▁moto	-4204
▁puca	-4205
▁bitno	-4206
▁poraz	-4207
▁rasta	-4208
▁centru	-4209
▁španjol	-4210
fu	-4211
gara	-4212
▁Joh	-4213
▁oslo	-4214
▁Mnogi	-4215
▁golova	-4216
fer	-4217
šan	-4218
▁km	-4219
▁Nji	-4220
▁dose	-4221
▁lani	-4222
▁titu	-4223
govarati	-4224
ret	-4225
▁reci	-4226
▁Nisam	-4227
▁197	-4228
šnjeg	-4229
vljuje	-4230
▁osobno	-4231
▁razliku	-4232
▁turnira	-4233
▁programu	-4234
▁kilograma	-4235
enje	-4236
▁cijele	-4237
▁nagradu	-4238
▁temelju	-4239
▁milijardi	-4240
▁van	-4241
▁halji	-4242
▁počela	-4243
▁regiona	-4244
▁skupina	-4245
uje	-4246
▁iska	-4247
▁2019.	-4248
▁Kopri	-4249
▁Lokomo	-4250
▁njihovu	-4251
▁zaštitu	-4252
▁14.	-4253
▁Yor	-4254
▁srca	-4255
▁donio	-4256
▁Modrić	-4257
▁igraju	-4258
▁poruku	-4259
▁priopći	-4260
▁UN	-4261
burg	-4262
love	-4263
▁Sigu	-4264
▁uzima	-4265
▁odusta	-4266
▁postoja	-4267
▁karijeru	-4268
▁europskih	-4269
▁El	-4270
▁šta	-4271
▁derbi	-4272
▁lista	-4273
▁kriminali	-4274
▁US	-4275
mova	-4276
voda	-4277
▁Don	-4278
▁sru	-4279
▁osigura	-4280
▁navijača	-4281
dama	-4282
naca	-4283
pili	-4284
▁For	-4285
torica	-4286
▁takve	-4287
▁Jadran	-4288
▁vijest	-4289
▁budućnost	-4290
▁premijera	-4291
▁pao	-4292
▁dalma	-4293
▁iznos	-4294
▁novča	-4295
▁treće	-4296
▁Možemo	-4297
▁pribli	-4298
▁objašnjava	-4299
▁pogledajte	-4300
OK	-4301
ira	-4302
▁Tik	-4303
▁omi	-4304
▁boje	-4305
▁volje	-4306
▁dovesti	-4307
▁policij	-4308
▁kategoriji	-4309
▁Ser	-4310
▁Jako	-4311
▁iskre	-4312
▁obrati	-4313
▁navečer	-4314
kati	-4315
▁Mir	-4316
▁htio	-4317
▁plju	-4318
▁teri	-4319
▁dobre	-4320
▁početak	-4321
anta	-4322
etvr	-4323
zirati	-4324
▁podni	-4325
▁Koliko	-4326
▁minima	-4327
▁strije	-4328
▁vremen	-4329
▁ostalim	-4330
▁stranka	-4331
▁Nor	-4332
snost	-4333
▁bilje	-4334
▁mlado	-4335
20	-4336
mlja	-4337
▁show	-4338
▁smrt	-4339
▁poznat	-4340
▁nesreća	-4341
▁stavlja	-4342
▁velikog	-4343
▁stoljeća	-4344
▁uvjetima	-4345
ženja	-4346
▁skoj	-4347
▁grupe	-4348
▁izbori	-4349
nuta	-4350
▁Engle	-4351
▁Petra	-4352
▁gradi	-4353
▁školi	-4354
▁Rijeci	-4355
▁poznata	-4356
▁povećanje	-4357
snici	-4358
▁Bila	-4359
▁boja	-4360
nirati	-4361
▁Martin	-4362
▁kapaci	-4363
▁medije	-4364
▁razvija	-4365
▁Hercegovi	-4366
SS	-4367
ssi	-4368
mentu	-4369
štava	-4370
▁muze	-4371
▁jutro	-4372
▁zadnje	-4373
▁odigrao	-4374
▁raspolo	-4375
▁zapovje	-4376
\/	-4377
nec	-4378
▁Nove	-4379
▁adre	-4380
▁sami	-4381
▁potak	-4382
▁budući	-4383
▁članova	-4384
▁donijeti	-4385
▁zahvaljujući	-4386
dena	-4387
reda	-4388
▁Mje	-4389
bacio	-4390
koliko	-4391
▁velikih	-4392
▁podataka	-4393
▁smatraju	-4394
▁EP	-4395
dilo	-4396
jica	-4397
▁Bli	-4398
▁dali	-4399
▁plas	-4400
▁žive	-4401
predsjedni	-4402
kiva	-4403
▁Oče	-4404
kinja	-4405
ljive	-4406
▁Kali	-4407
▁inspi	-4408
▁ujedno	-4409
▁zahvali	-4410
▁vši	-4411
dnica	-4412
njeva	-4413
▁igru	-4414
▁engle	-4415
▁ulazi	-4416
▁obavlja	-4417
▁36	-4418
žuje	-4419
▁16.	-4420
▁bru	-4421
▁dina	-4422
▁Bayer	-4423
▁poruka	-4424
▁Amerika	-4425
▁njezine	-4426
▁njegovim	-4427
▁sredstava	-4428
▁Af	-4429
▁Hama	-4430
▁Primo	-4431
▁mandat	-4432
▁nalaze	-4433
šle	-4434
dent	-4435
▁Tro	-4436
▁com	-4437
▁papi	-4438
▁popra	-4439
▁trene	-4440
▁dijeli	-4441
▁usluga	-4442
▁maksima	-4443
▁umirovlje	-4444
lle	-4445
▁30.	-4446
▁300	-4447
rnika	-4448
▁pravila	-4449
▁stariji	-4450
▁studenog	-4451
▁obve	-4452
▁tuži	-4453
nijela	-4454
▁blizu	-4455
▁vrsta	-4456
▁udarac	-4457
▁izbornik	-4458
▁istaknula	-4459
▁Brita	-4460
▁Njiho	-4461
▁Poslje	-4462
▁skladu	-4463
▁izjedna	-4464
▁Ukrajine	-4465
▁njegovom	-4466
ica	-4467
▁baca	-4468
▁dogo	-4469
▁znak	-4470
▁Slobo	-4471
▁čovjeka	-4472
▁prednost	-4473
▁završila	-4474
skup	-4475
▁Odlu	-4476
▁djeci	-4477
▁dokaza	-4478
-3	-4479
sira	-4480
snom	-4481
▁Zele	-4482
▁poje	-4483
▁javnog	-4484
▁odbora	-4485
▁bolnice	-4486
at	-4487
ala	-4488
čije	-4489
▁koga	-4490
▁naći	-4491
▁formi	-4492
▁košta	-4493
▁igrače	-4494
▁udruge	-4495
▁podacima	-4496
▁poziciju	-4497
tovi	-4498
ženo	-4499
▁Ope	-4500
▁lica	-4501
▁Inter	-4502
▁spomi	-4503
▁pravosu	-4504
▁prošlog	-4505
har	-4506
▁Una	-4507
▁kor	-4508
▁pad	-4509
ljenje	-4510
▁kreće	-4511
▁rastu	-4512
▁autoce	-4513
▁košarka	-4514
▁naglasi	-4515
▁utjecaj	-4516
▁nastavku	-4517
▁pobijedio	-4518
▁prijatelja	-4519
▁promijeniti	-4520
▁istraživanja	-4521
ty	-4522
ori	-4523
▁33	-4524
▁Kor	-4525
stoja	-4526
▁male	-4527
▁odmo	-4528
▁supa	-4529
▁Petro	-4530
▁servi	-4531
▁nagrade	-4532
▁članovi	-4533
dy	-4534
rd	-4535
šili	-4536
▁zbi	-4537
▁kuću	-4538
▁osni	-4539
▁spor	-4540
▁tale	-4541
▁neovi	-4542
▁spreman	-4543
▁propusti	-4544
▁32	-4545
svim	-4546
▁kop	-4547
▁arhi	-4548
▁Donal	-4549
▁rješa	-4550
▁Austra	-4551
▁nepozna	-4552
▁prostoru	-4553
▁tehnologi	-4554
bran	-4555
▁zad	-4556
▁Osta	-4557
▁ratu	-4558
bičaje	-4559
▁filmu	-4560
▁menta	-4561
▁staro	-4562
▁prista	-4563
laga	-4564
vale	-4565
▁tor	-4566
▁Dani	-4567
lacija	-4568
▁Možda	-4569
▁nukle	-4570
▁prvak	-4571
▁medijima	-4572
▁uspješno	-4573
yo	-4574
ćev	-4575
▁Bit	-4576
▁Lije	-4577
▁Umje	-4578
▁stana	-4579
▁večer	-4580
▁glasno	-4581
▁progno	-4582
▁samosta	-4583
▁četvrtfina	-4584
rov	-4585
▁odnose	-4586
▁pozvao	-4587
▁otkriva	-4588
▁isključi	-4589
ft	-4590
▁Hi	-4591
čara	-4592
▁Bez	-4593
▁Cel	-4594
▁jedino	-4595
▁obožava	-4596
▁olimpij	-4597
▁prednosti	-4598
▁Domovinskog	-4599
ten	-4600
nsku	-4601
▁Bal	-4602
▁the	-4603
▁Igra	-4604
▁čije	-4605
▁vlade	-4606
▁znanja	-4607
▁riječima	-4608
▁nevjeroja	-4609
mica	-4610
tion	-4611
▁istom	-4612
▁odmor	-4613
▁tijeku	-4614
▁Milanovi	-4615
▁muškarac	-4616
▁stupnjeva	-4617
▁organizacije	-4618
raz	-4619
bice	-4620
tivi	-4621
ćena	-4622
vniku	-4623
▁dubro	-4624
▁mreže	-4625
▁aplika	-4626
▁smislu	-4627
▁znatno	-4628
▁Ukrajinu	-4629
RA	-4630
ziv	-4631
munj	-4632
vina	-4633
slava	-4634
▁Kate	-4635
▁glas	-4636
▁odgovornost	-4637
▁Kata	-4638
▁ušao	-4639
tivnih	-4640
▁sudac	-4641
▁morati	-4642
▁zvijez	-4643
▁sporazu	-4644
▁zahtjev	-4645
▁rođendan	-4646
".	-4647
port	-4648
čnost	-4649
▁indi	-4650
▁izvu	-4651
▁Imamo	-4652
▁Ivica	-4653
▁broju	-4654
▁ideja	-4655
▁preve	-4656
▁Upravo	-4657
▁brojni	-4658
▁ostalo	-4659
▁progla	-4660
▁postupa	-4661
▁dogoditi	-4662
▁moć	-4663
▁sadr	-4664
▁ruske	-4665
▁predlo	-4666
▁skupini	-4667
▁zadnjih	-4668
miru	-4669
▁Sad	-4670
▁Tada	-4671
prijed	-4672
▁blago	-4673
▁masli	-4674
▁opora	-4675
▁interven	-4676
▁najvećih	-4677
▁postupak	-4678
▁situaciji	-4679
nior	-4680
▁lan	-4681
▁mrt	-4682
snika	-4683
▁Gori	-4684
▁njom	-4685
▁Najbo	-4686
▁prigo	-4687
▁rizik	-4688
▁velik	-4689
▁napadu	-4690
▁odvija	-4691
▁destina	-4692
dove	-4693
njeg	-4694
▁Drugi	-4695
▁Križe	-4696
▁detalj	-4697
govornik	-4698
▁izbjega	-4699
čena	-4700
▁22.	-4701
▁Kod	-4702
▁roku	-4703
▁sudu	-4704
▁vodio	-4705
▁aktivi	-4706
▁prošao	-4707
▁razmje	-4708
jsko	-4709
▁eli	-4710
ćenje	-4711
▁tero	-4712
▁2018.	-4713
▁Damir	-4714
▁dizaj	-4715
▁grupa	-4716
▁tisuće	-4717
▁susretu	-4718
▁pokazati	-4719
▁riješiti	-4720
▁učinkovi	-4721
TA	-4722
listi	-4723
▁porez	-4724
▁proba	-4725
▁slika	-4726
▁odluči	-4727
▁kontinu	-4728
▁ponekad	-4729
▁potpunosti	-4730
▁temperature	-4731
▁kriminalisti	-4732
šak	-4733
ciran	-4734
▁Crve	-4735
▁Indi	-4736
pisuje	-4737
▁morao	-4738
▁zatra	-4739
▁jednim	-4740
▁serija	-4741
▁usluge	-4742
▁vozilo	-4743
▁postigao	-4744
▁letje	-4745
▁pozdra	-4746
▁njihovim	-4747
gov	-4748
gram	-4749
▁olak	-4750
▁teške	-4751
▁volim	-4752
▁igrama	-4753
▁konkre	-4754
▁manife	-4755
▁sumnja	-4756
▁uvjete	-4757
▁Župani	-4758
▁dogodio	-4759
▁konačno	-4760
▁starije	-4761
▁četvrti	-4762
▁govoriti	-4763
▁funkcionira	-4764
isto	-4765
čića	-4766
▁Ale	-4767
strije	-4768
▁glavu	-4769
▁ovisi	-4770
▁perio	-4771
▁Srbiji	-4772
▁regiji	-4773
▁elektro	-4774
▁građane	-4775
▁pokazali	-4776
ama	-4777
zirao	-4778
▁opti	-4779
▁preži	-4780
▁dubrova	-4781
▁pogodio	-4782
▁pokušava	-4783
▁različitih	-4784
▁ljepo	-4785
▁prošli	-4786
godišnjeg	-4787
▁alkohola	-4788
▁redovito	-4789
▁prijedlog	-4790
▁Ča	-4791
▁neku	-4792
▁Božić	-4793
▁dosada	-4794
▁favori	-4795
▁jednako	-4796
▁sekundi	-4797
jić	-4798
▁bron	-4799
▁jela	-4800
▁krvi	-4801
▁neiz	-4802
▁raka	-4803
▁privu	-4804
▁teški	-4805
▁šanse	-4806
▁Hrvati	-4807
▁ističu	-4808
▁granice	-4809
▁voditelj	-4810
nes	-4811
▁vodu	-4812
lovima	-4813
zaciju	-4814
▁Goran	-4815
▁dakle	-4816
▁ispita	-4817
▁stambe	-4818
▁njihovih	-4819
▁Varaždina	-4820
▁politički	-4821
▁uključuje	-4822
▁Var	-4823
▁uki	-4824
tnije	-4825
▁Brazi	-4826
▁promo	-4827
▁vijeća	-4828
▁interes	-4829
▁odlučili	-4830
▁znanosti	-4831
▁primjerice	-4832
ket	-4833
bano	-4834
šnjo	-4835
▁Ras	-4836
▁Slu	-4837
vjela	-4838
▁srce	-4839
▁čija	-4840
▁Ljudi	-4841
▁onima	-4842
▁pravu	-4843
▁sjever	-4844
▁vjetar	-4845
▁prolazi	-4846
▁Europskog	-4847
PO	-4848
ct	-4849
lazak	-4850
▁Poče	-4851
▁2016.	-4852
▁Stoga	-4853
▁nekog	-4854
▁trage	-4855
▁bivšeg	-4856
▁sasvim	-4857
▁prodaje	-4858
▁parlamentar	-4859
žem	-4860
đimu	-4861
jskom	-4862
stoje	-4863
▁baci	-4864
▁osvr	-4865
scipli	-4866
strija	-4867
▁Večer	-4868
▁slike	-4869
▁vozač	-4870
▁Vukova	-4871
▁pjesma	-4872
▁napravili	-4873
ard	-4874
gija	-4875
▁far	-4876
niran	-4877
▁proti	-4878
▁samom	-4879
▁Švica	-4880
▁doista	-4881
▁knjige	-4882
▁naroda	-4883
▁obično	-4884
▁polovi	-4885
▁poruke	-4886
▁podatke	-4887
hat	-4888
moć	-4889
dnice	-4890
lović	-4891
▁2024	-4892
▁moli	-4893
▁pišu	-4894
▁Putin	-4895
▁korup	-4896
▁skoro	-4897
▁Trumpa	-4898
▁Primorac	-4899
▁prvenstve	-4900
▁konferenciji	-4901
šo	-4902
mla	-4903
▁34	-4904
čani	-4905
ravak	-4906
▁Jugo	-4907
▁duho	-4908
▁Vjeru	-4909
▁inova	-4910
▁slijedi	-4911
pisi	-4912
▁Spa	-4913
▁Time	-4914
▁gostu	-4915
▁najvi	-4916
▁dijelom	-4917
▁prometu	-4918
▁Varaždinu	-4919
▁dokumenta	-4920
▁reprezentaciju	-4921
sob	-4922
▁tvo	-4923
▁Char	-4924
▁akade	-4925
▁inspek	-4926
▁tvrtki	-4927
▁međutim	-4928
▁učenika	-4929
▁zemljama	-4930
▁Europskom	-4931
dbi	-4932
▁sino	-4933
▁vama	-4934
▁vole	-4935
▁ostalih	-4936
vimo	-4937
▁simp	-4938
jevima	-4939
▁Podra	-4940
▁planu	-4941
▁račun	-4942
▁tribi	-4943
▁apsolu	-4944
▁bolnicu	-4945
▁nagrada	-4946
▁prilike	-4947
▁Kro	-4948
▁ori	-4949
▁Kine	-4950
▁ligi	-4951
vljene	-4952
▁novoj	-4953
▁preci	-4954
▁snagu	-4955
▁ugovora	-4956
▁veljače	-4957
▁zdravlja	-4958
ps	-4959
cka	-4960
tov	-4961
ljom	-4962
▁nami	-4963
▁opće	-4964
▁Zadra	-4965
▁pokri	-4966
▁povla	-4967
▁trgova	-4968
▁razvoju	-4969
▁kontinui	-4970
▁zag	-4971
▁Mogu	-4972
▁boji	-4973
▁kupu	-4974
▁Josipa	-4975
▁dugoro	-4976
▁glumica	-4977
▁Šibenik	-4978
▁izuzetno	-4979
▁ozbiljno	-4980
dit	-4981
uju	-4982
čuju	-4983
▁dala	-4984
▁teži	-4985
▁ulja	-4986
▁Zadru	-4987
▁Hrvata	-4988
▁iznosu	-4989
▁milijun	-4990
▁pregleda	-4991
es	-4992
ger	-4993
▁55	-4994
ture	-4995
čari	-4996
▁vese	-4997
▁opskr	-4998
▁snije	-4999
▁pogodi	-5000
▁festivala	-5001
▁zastupnika	-5002
▁zu	-5003
luju	-5004
▁25.	-5005
tnica	-5006
intere	-5007
▁desni	-5008
▁Srbija	-5009
▁priznao	-5010
▁nastavio	-5011
▁stranici	-5012
▁fotografiju	-5013
tnice	-5014
▁...'	-5015
▁Milo	-5016
▁eduka	-5017
▁vanje	-5018
▁razinu	-5019
▁želimo	-5020
▁glavnog	-5021
▁kvalitete	-5022
▁38	-5023
rene	-5024
▁uka	-5025
▁hoda	-5026
▁krea	-5027
▁veća	-5028
▁znao	-5029
▁Festi	-5030
▁dodje	-5031
▁uvjer	-5032
▁sumnje	-5033
▁zadnji	-5034
▁pristupa	-5035
▁proizvodnje	-5036
▁Q	-5037
vine	-5038
▁KBC	-5039
minira	-5040
▁vrste	-5041
▁Unatoč	-5042
▁objave	-5043
▁obranu	-5044
▁ostvari	-5045
▁odlučila	-5046
alno	-5047
▁Dobro	-5048
▁prave	-5049
▁recep	-5050
▁dobije	-5051
▁pritom	-5052
▁temelj	-5053
▁potroša	-5054
▁tržište	-5055
▁područje	-5056
zmu	-5057
▁we	-5058
tetu	-5059
▁ote	-5060
▁Marin	-5061
▁model	-5062
▁položa	-5063
▁zemlju	-5064
▁najljep	-5065
▁Ukrajina	-5066
▁stanovnika	-5067
▁potpredsjedni	-5068
bić	-5069
udi	-5070
ših	-5071
▁31	-5072
presi	-5073
▁Ange	-5074
▁ured	-5075
▁Londo	-5076
▁luksu	-5077
▁kapetan	-5078
▁procije	-5079
▁europske	-5080
peri	-5081
▁Kli	-5082
njava	-5083
▁Miro	-5084
sjetio	-5085
▁Zašto	-5086
▁fanta	-5087
▁prekra	-5088
▁visoko	-5089
▁građanima	-5090
▁platformi	-5091
un	-5092
stiti	-5093
▁dobru	-5094
▁prido	-5095
▁Nizozem	-5096
▁partnera	-5097
fti	-5098
enja	-5099
liga	-5100
▁Prva	-5101
▁bori	-5102
▁poni	-5103
▁svaku	-5104
▁satima	-5105
▁brojnim	-5106
▁Ču	-5107
čaja	-5108
▁ala	-5109
▁sank	-5110
▁samog	-5111
▁vijesti	-5112
▁trenutačno	-5113
mić	-5114
kola	-5115
lika	-5116
njeno	-5117
vnica	-5118
▁tima	-5119
▁šeće	-5120
▁plasi	-5121
▁simpto	-5122
▁detalje	-5123
▁večeras	-5124
rnih	-5125
▁san	-5126
▁gore	-5127
▁drago	-5128
▁stiže	-5129
▁najveća	-5130
▁potporu	-5131
▁državnog	-5132
id	-5133
hom	-5134
jana	-5135
onal	-5136
zora	-5137
njena	-5138
▁ulice	-5139
▁plasti	-5140
▁pokret	-5141
▁večeri	-5142
▁pratiti	-5143
▁sigurni	-5144
▁ulaganja	-5145
▁rezultati	-5146
▁predsjednica	-5147
šne	-5148
▁4,	-5149
ktor	-5150
▁bod	-5151
▁Robert	-5152
▁oslobo	-5153
▁lokalne	-5154
▁pripada	-5155
▁prometne	-5156
▁nekretnine	-5157
RO	-5158
ser	-5159
zme	-5160
▁sc	-5161
▁Gat	-5162
▁red	-5163
▁niko	-5164
▁uklo	-5165
▁stopa	-5166
▁odabra	-5167
▁plasman	-5168
▁članica	-5169
▁festival	-5170
▁navijači	-5171
ALE	-5172
▁um	-5173
RIJA	-5174
jekt	-5175
žnom	-5176
ntima	-5177
▁Nogo	-5178
▁cesti	-5179
▁najče	-5180
▁štetu	-5181
▁krenuo	-5182
▁svjetski	-5183
▁isključivo	-5184
Na	-5185
dbu	-5186
▁Iza	-5187
▁che	-5188
▁opro	-5189
▁vodo	-5190
▁humani	-5191
▁odnosa	-5192
▁voditi	-5193
▁sjevero	-5194
▁njegovog	-5195
▁hrvatskim	-5196
zio	-5197
padu	-5198
valo	-5199
▁Klu	-5200
▁bar	-5201
šnjem	-5202
▁Jaki	-5203
▁Biden	-5204
▁uživa	-5205
▁cijenu	-5206
▁predvo	-5207
▁radili	-5208
▁prikaza	-5209
▁Međunaro	-5210
▁njegovoj	-5211
▁vanjskih	-5212
▁političke	-5213
žer	-5214
esto	-5215
lici	-5216
miju	-5217
▁oču	-5218
▁vož	-5219
zerva	-5220
▁Obje	-5221
▁ciljem	-5222
▁vjeruje	-5223
▁povratak	-5224
▁završiti	-5225
▁županija	-5226
▁putovanja	-5227
▁Dubrovnika	-5228
▁generacije	-5229
cy	-5230
jm	-5231
đan	-5232
cifi	-5233
sigu	-5234
▁26.	-5235
jskih	-5236
▁Alba	-5237
zacija	-5238
▁kolek	-5239
▁Slaven	-5240
▁knjiže	-5241
gro	-5242
šna	-5243
▁er	-5244
hani	-5245
isti	-5246
okre	-5247
▁tam	-5248
▁atra	-5249
▁bogat	-5250
▁borbu	-5251
▁forma	-5252
▁sjedi	-5253
ALERIJA	-5254
▁počeli	-5255
▁prodaju	-5256
▁propisa	-5257
um	-5258
bin	-5259
▁29.	-5260
▁bom	-5261
▁Ligi	-5262
▁hranu	-5263
▁mlije	-5264
▁niste	-5265
▁nacija	-5266
▁interesa	-5267
▁izjavila	-5268
▁II	-5269
▁zim	-5270
▁Budi	-5271
▁kuhi	-5272
▁naveo	-5273
▁pored	-5274
▁propa	-5275
prilike	-5276
▁Harris	-5277
▁razine	-5278
▁suradnju	-5279
lli	-5280
▁37	-5281
▁48	-5282
uzda	-5283
▁Fer	-5284
▁Fil	-5285
▁bak	-5286
▁svu	-5287
▁skih	-5288
▁Vatre	-5289
▁postro	-5290
▁domaćin	-5291
▁drugima	-5292
▁nastavak	-5293
▁uobičaje	-5294
▁zaintere	-5295
▁manifesta	-5296
▁obrazovanja	-5297
UP	-5298
ene	-5299
▁39	-5300
▁We	-5301
hvat	-5302
niku	-5303
▁sme	-5304
▁grani	-5305
▁nadam	-5306
▁nekom	-5307
▁onoga	-5308
▁oprav	-5309
nitivno	-5310
▁priori	-5311
▁saveza	-5312
▁udruga	-5313
▁Aleksan	-5314
▁desetak	-5315
▁vikenda	-5316
▁vjerujem	-5317
▁muškaraca	-5318
mda	-5319
ning	-5320
zama	-5321
▁cje	-5322
▁jak	-5323
▁Nada	-5324
▁Stje	-5325
▁Općine	-5326
▁pretpo	-5327
▁pogodak	-5328
▁njegovih	-5329
▁osigurati	-5330
wi	-5331
▁en	-5332
juće	-5333
šati	-5334
proda	-5335
▁Novo	-5336
▁kombi	-5337
▁Smatra	-5338
▁nažalost	-5339
▁značajno	-5340
▁Dubrovniku	-5341
▁Tvr	-5342
▁hit	-5343
▁sra	-5344
▁kana	-5345
▁naju	-5346
▁autor	-5347
▁nikak	-5348
chester	-5349
▁pažnju	-5350
vko	-5351
šića	-5352
▁apa	-5353
manti	-5354
nisti	-5355
▁Dali	-5356
▁šoki	-5357
▁Gattu	-5358
▁ocije	-5359
▁trofe	-5360
▁oružja	-5361
▁otpada	-5362
▁pomaže	-5363
▁osobama	-5364
▁prijevoz	-5365
▁kvalitetu	-5366
▁razdoblje	-5367
▁rezultata	-5368
▁zajednica	-5369
▁sv	-5370
kete	-5371
pula	-5372
tura	-5373
ziti	-5374
▁brat	-5375
▁koše	-5376
▁Dubra	-5377
▁Pozna	-5378
▁božić	-5379
▁liste	-5380
▁domaće	-5381
▁dvostru	-5382
▁siguran	-5383
▁struktu	-5384
▁živjeti	-5385
▁Milanovića	-5386
Za	-5387
lik	-5388
▁PU	-5389
▁23.	-5390
▁vrh	-5391
▁šću	-5392
▁poti	-5393
▁stav	-5394
▁Jutar	-5395
▁kreve	-5396
▁Rusije	-5397
▁ovisno	-5398
▁postane	-5399
▁vlasnik	-5400
▁sljedeće	-5401
▁pozornost	-5402
▁natjecanje	-5403
imna	-5404
▁Ide	-5405
▁špi	-5406
ovjek	-5407
▁glum	-5408
▁briga	-5409
▁cilja	-5410
▁važan	-5411
▁Ljubav	-5412
▁objavi	-5413
▁djeteta	-5414
▁njegovi	-5415
▁Njemačka	-5416
▁pripreme	-5417
▁prijateljima	-5418
šim	-5419
čaka	-5420
▁oca	-5421
▁širo	-5422
▁odlazi	-5423
▁sukoba	-5424
▁ministra	-5425
▁najbolja	-5426
▁službeno	-5427
▁umjetnosti	-5428
jd	-5429
mice	-5430
▁izi	-5431
▁rok	-5432
govore	-5433
▁našao	-5434
▁Veliko	-5435
▁morali	-5436
▁Poljudu	-5437
▁najveće	-5438
▁temelji	-5439
▁preminuo	-5440
▁zdravstva	-5441
žbu	-5442
▁Srp	-5443
▁Tim	-5444
▁ogrom	-5445
▁podno	-5446
▁svoja	-5447
▁Zakona	-5448
▁kvadra	-5449
▁državni	-5450
▁profeso	-5451
▁vodstvo	-5452
▁naglašava	-5453
▁činjenica	-5454
vero	-5455
gledu	-5456
▁Dugo	-5457
▁bavi	-5458
▁pušta	-5459
▁Velika	-5460
▁nasilja	-5461
▁turizma	-5462
▁uključi	-5463
▁utjecati	-5464
▁očekivati	-5465
▁različite	-5466
▁svjetskog	-5467
▁organizaciji	-5468
▁24.	-5469
▁bje	-5470
tičar	-5471
▁Rado	-5472
▁kiša	-5473
▁2017.	-5474
▁Hezbo	-5475
▁javne	-5476
▁neugo	-5477
▁ubrzo	-5478
▁zalju	-5479
▁nositi	-5480
▁suprug	-5481
▁održava	-5482
▁Sjedinje	-5483
▁najpozna	-5484
▁korisnika	-5485
▁projekata	-5486
▁korištenje	-5487
rus	-5488
▁Net	-5489
▁Tor	-5490
▁pis	-5491
vnice	-5492
▁Igor	-5493
▁John	-5494
▁fazi	-5495
▁policiji	-5496
▁europskim	-5497
▁400	-5498
▁Gar	-5499
▁tur	-5500
▁"...	-5501
▁isho	-5502
tekako	-5503
tkinja	-5504
▁Davor	-5505
▁kakve	-5506
▁sekto	-5507
▁testi	-5508
▁zauze	-5509
▁studija	-5510
▁tjedana	-5511
▁vrijedi	-5512
▁Hrvatskom	-5513
▁olu	-5514
▁ući	-5515
▁čvr	-5516
hvaća	-5517
letio	-5518
▁vezu	-5519
▁poena	-5520
▁razno	-5521
▁kupiti	-5522
▁američki	-5523
▁Instagram	-5524
▁mišljenje	-5525
▁unutrašnjo	-5526
▁vlasništvu	-5527
CI	-5528
aju	-5529
jku	-5530
ština	-5531
▁Budu	-5532
▁nare	-5533
▁Bjeli	-5534
▁dvobo	-5535
▁glasi	-5536
▁potez	-5537
▁izvođa	-5538
▁jedina	-5539
▁napome	-5540
▁platiti	-5541
▁hrvatsko	-5542
▁normalno	-5543
▁okolnosti	-5544
▁pogledati	-5545
▁roditelja	-5546
eni	-5547
▁Ad	-5548
snio	-5549
▁baze	-5550
▁jelo	-5551
▁komp	-5552
▁osmi	-5553
▁rela	-5554
▁klije	-5555
▁neobi	-5556
▁pješa	-5557
▁udara	-5558
▁zadar	-5559
▁invali	-5560
▁stranu	-5561
▁Dubrova	-5562
▁gradova	-5563
▁liječni	-5564
▁pokušao	-5565
▁kaznenog	-5566
▁politika	-5567
;,	-5568
ćina	-5569
▁Iran	-5570
▁moram	-5571
▁najpo	-5572
▁Olimpi	-5573
▁poslao	-5574
▁emisiji	-5575
▁itekako	-5576
▁pobjedom	-5577
▁posebice	-5578
▁sportski	-5579
▁suradnje	-5580
▁međuvremenu	-5581
▁ća	-5582
deći	-5583
jsku	-5584
šila	-5585
▁28.	-5586
▁teo	-5587
▁daju	-5588
▁nice	-5589
▁igara	-5590
▁vlast	-5591
▁upotre	-5592
▁blagdan	-5593
▁dolazak	-5594
▁provede	-5595
▁Beogradu	-5596
nku	-5597
sić	-5598
tice	-5599
žnog	-5600
▁Tom	-5601
njuju	-5602
zanje	-5603
▁2000	-5604
▁čast	-5605
▁sobom	-5606
▁nadzor	-5607
▁namije	-5608
▁optimi	-5609
▁proveo	-5610
▁gostima	-5611
▁policaj	-5612
▁proizvode	-5613
ges	-5614
roma	-5615
▁Lov	-5616
▁Čak	-5617
teoro	-5618
▁mala	-5619
▁psihi	-5620
▁preven	-5621
▁Lasagna	-5622
▁Njegova	-5623
▁podijelila	-5624
▁gospodarstva	-5625
vani	-5626
tivac	-5627
▁domu	-5628
▁cjelo	-5629
▁energet	-5630
▁posljed	-5631
▁fantasti	-5632
▁stadionu	-5633
▁suprugom	-5634
▁komentara	-5635
fon	-5636
rnu	-5637
rata	-5638
▁Seve	-5639
▁dodi	-5640
▁razne	-5641
▁rezer	-5642
▁ruski	-5643
▁kolege	-5644
▁obliku	-5645
▁naslova	-5646
▁ostvariti	-5647
▁zadovoljni	-5648
▁Mc	-5649
cent	-5650
činu	-5651
▁Bog	-5652
▁Van	-5653
▁Zvo	-5654
▁ice	-5655
davno	-5656
▁Gazi	-5657
▁kriv	-5658
▁šibe	-5659
▁dvori	-5660
▁kakva	-5661
▁cijeni	-5662
▁državi	-5663
▁morate	-5664
▁vidimo	-5665
▁podrške	-5666
▁discipli	-5667
rs	-5668
▁!"	-5669
▁75	-5670
kala	-5671
▁bana	-5672
▁vala	-5673
▁opisa	-5674
▁koševa	-5675
▁odlično	-5676
▁povodom	-5677
▁publika	-5678
▁kampanje	-5679
▁muškarca	-5680
▁preuzima	-5681
▁specijali	-5682
pora	-5683
stvr	-5684
▁Ita	-5685
stara	-5686
šajte	-5687
▁Kore	-5688
▁Tele	-5689
▁Međimu	-5690
▁poreme	-5691
▁sloven	-5692
▁usposta	-5693
▁agencija	-5694
▁današnji	-5695
▁pjevačica	-5696
2)	-5697
sr	-5698
han	-5699
▁sk	-5700
▁Sch	-5701
▁Boži	-5702
▁Malo	-5703
metaši	-5704
▁radovi	-5705
▁takvih	-5706
▁vožnje	-5707
▁Faceboo	-5708
▁njihovo	-5709
▁ispričao	-5710
▁obavijesti	-5711
ns	-5712
▁(6	-5713
linu	-5714
▁braku	-5715
▁kaznu	-5716
▁takva	-5717
▁Njegov	-5718
▁grmlja	-5719
▁status	-5720
▁Željko	-5721
▁ministri	-5722
▁objavili	-5723
▁SP	-5724
laže	-5725
ntra	-5726
tivan	-5727
đenju	-5728
▁Miha	-5729
▁Rekao	-5730
▁Willi	-5731
▁misle	-5732
▁nepri	-5733
▁osobu	-5734
▁proći	-5735
▁uskla	-5736
▁Rumunj	-5737
▁dobiva	-5738
▁jezika	-5739
▁prolaz	-5740
▁uspjela	-5741
▁katastro	-5742
▁podsjeća	-5743
▁ravnatelj	-5744
▁oj	-5745
inje	-5746
tona	-5747
likop	-5748
▁nica	-5749
▁znali	-5750
pustiti	-5751
▁dokumen	-5752
▁važnost	-5753
▁GALERIJA	-5754
▁energiju	-5755
▁smanjiti	-5756
nel	-5757
rku	-5758
toj	-5759
gađa	-5760
ćeni	-5761
▁150	-5762
▁194	-5763
▁meto	-5764
▁rano	-5765
▁Drago	-5766
▁banke	-5767
▁izgubila	-5768
▁izgubili	-5769
▁otprilike	-5770
jmo	-5771
kali	-5772
klih	-5773
▁ambi	-5774
▁upla	-5775
▁nekad	-5776
▁istoku	-5777
▁negdje	-5778
▁portal	-5779
▁turnir	-5780
▁potrebna	-5781
▁kompanija	-5782
▁informacijama	-5783
▁reprezentativac	-5784
tti	-5785
▁6,	-5786
▁Pan	-5787
▁afe	-5788
▁dis	-5789
▁jte	-5790
▁vez	-5791
pović	-5792
vjeli	-5793
▁brod	-5794
▁dovo	-5795
▁šire	-5796
ljenja	-5797
▁Zahva	-5798
▁otići	-5799
▁preva	-5800
▁izlazi	-5801
▁kraljev	-5802
▁svakodnevno	-5803
▁Er	-5804
▁Šo	-5805
▁even	-5806
▁liga	-5807
▁Najve	-5808
▁ekipe	-5809
▁sindi	-5810
▁varaž	-5811
▁vidim	-5812
▁Jugosla	-5813
▁Umjesto	-5814
▁državne	-5815
▁nuklear	-5816
▁putnika	-5817
▁kontroli	-5818
▁Manchester	-5819
shi	-5820
▁7,	-5821
tiji	-5822
▁and	-5823
tivnim	-5824
▁Uvijek	-5825
▁ispiti	-5826
▁pretra	-5827
▁rukama	-5828
▁kontrolu	-5829
▁vremenom	-5830
▁poslijepodne	-5831
ani	-5832
lti	-5833
prje	-5834
ćeno	-5835
posla	-5836
▁Auto	-5837
▁datu	-5838
▁idemo	-5839
▁Primor	-5840
▁Sjever	-5841
▁akcije	-5842
▁podaci	-5843
▁Italije	-5844
▁pobjedni	-5845
▁projekte	-5846
▁proizvodi	-5847
sama	-5848
tove	-5849
žene	-5850
▁Ili	-5851
▁uku	-5852
mojte	-5853
▁Obja	-5854
vremena	-5855
▁naziva	-5856
▁vojske	-5857
▁zatvor	-5858
▁sustavu	-5859
▁upozorava	-5860
▁razgovarati	-5861
▁zdravstvene	-5862
Mo	-5863
▁Zu	-5864
vski	-5865
▁fri	-5866
štima	-5867
▁Domi	-5868
▁Rusi	-5869
▁Posao	-5870
▁najte	-5871
▁Uprave	-5872
▁poreza	-5873
▁ulazak	-5874
▁Osijeka	-5875
▁njihovi	-5876
▁očekuju	-5877
▁preosta	-5878
▁publiku	-5879
▁svjetlo	-5880
▁koncerta	-5881
▁otvoreno	-5882
▁zapošlja	-5883
▁prikazuje	-5884
AT	-5885
my	-5886
▁%	-5887
dine	-5888
▁Ivo	-5889
▁uru	-5890
▁šef	-5891
▁ogla	-5892
▁klupi	-5893
▁naime	-5894
▁pomalo	-5895
▁započeo	-5896
▁poziciji	-5897
▁poduzetni	-5898
▁zlostavlja	-5899
rko	-5900
tam	-5901
zapa	-5902
▁27.	-5903
▁Slova	-5904
▁napla	-5905
▁prisi	-5906
▁visoke	-5907
▁brojnih	-5908
▁nesreći	-5909
▁razgovoru	-5910
▁Varaždinske	-5911
▁institucije	-5912
ORH	-5913
zao	-5914
logu	-5915
▁naf	-5916
▁ošt	-5917
gnuti	-5918
▁ispi	-5919
▁zove	-5920
▁širi	-5921
menata	-5922
▁imeno	-5923
▁glumac	-5924
▁hotela	-5925
▁poseban	-5926
▁razlike	-5927
▁specifi	-5928
▁europski	-5929
▁ponavlja	-5930
▁prilično	-5931
▁slobodna	-5932
▁drugačije	-5933
kta	-5934
lor	-5935
tite	-5936
▁Cha	-5937
▁Obi	-5938
▁Oli	-5939
▁Zri	-5940
▁napu	-5941
▁pije	-5942
▁prate	-5943
▁Rusiji	-5944
▁kolega	-5945
▁nekako	-5946
▁određe	-5947
▁ozljeda	-5948
▁svjesni	-5949
▁većinom	-5950
▁Nažalost	-5951
▁životinja	-5952
▁pobijediti	-5953
▁posljedica	-5954
rnog	-5955
▁Tur	-5956
▁web	-5957
▁Gran	-5958
▁njem	-5959
▁sjaj	-5960
▁vino	-5961
dovolj	-5962
kladno	-5963
▁bolja	-5964
▁stigli	-5965
▁preokre	-5966
▁posljedice	-5967
▁Španjolska	-5968
▁upravljanja	-5969
zv	-5970
▁5,	-5971
▁co	-5972
▁Flo	-5973
terpo	-5974
▁Napo	-5975
▁istu	-5976
▁kiše	-5977
▁zadu	-5978
▁mogle	-5979
▁slavi	-5980
▁motoci	-5981
▁američke	-5982
▁trgovine	-5983
▁odvjetnik	-5984
▁zanimljivo	-5985
-4	-5986
nis	-5987
nule	-5988
štena	-5989
spekti	-5990
▁centi	-5991
▁javni	-5992
▁jezik	-5993
▁krugu	-5994
▁origi	-5995
▁duboko	-5996
▁obavje	-5997
▁vojska	-5998
▁ostavio	-5999
▁studeno	-6000
▁vojnika	-6001
▁Ujedinje	-6002
▁nedjelje	-6003
▁desetljeća	-6004
▁proizvodnju	-6005
dor	-6006
ova	-6007
ence	-6008
▁31.	-6009
▁ten	-6010
▁Dalić	-6011
▁ulozi	-6012
vrijeme	-6013
▁britan	-6014
▁slično	-6015
▁sumnji	-6016
▁cestama	-6017
▁drugači	-6018
▁krenuli	-6019
▁gradonačelnika	-6020
vana	-6021
šnjoj	-6022
▁Maro	-6023
▁prince	-6024
▁produk	-6025
▁zgrada	-6026
▁Osijeku	-6027
▁cijelog	-6028
▁komplek	-6029
▁tržišta	-6030
▁statisti	-6031
▁prepoznat	-6032
▁proračuna	-6033
▁putovanje	-6034
nit	-6035
▁Sc	-6036
lski	-6037
stven	-6038
▁Mila	-6039
▁feno	-6040
▁odve	-6041
šković	-6042
▁Svaki	-6043
▁popis	-6044
▁požar	-6045
▁teška	-6046
▁Dinamu	-6047
▁isporu	-6048
▁sastav	-6049
▁snimke	-6050
▁uspore	-6051
▁nadokna	-6052
▁desetlje	-6053
▁osvojili	-6054
▁otvorena	-6055
▁pritisak	-6056
▁nogometnog	-6057
ph	-6058
ye	-6059
▁//	-6060
▁HA	-6061
.000	-6062
nati	-6063
lično	-6064
▁Film	-6065
▁maso	-6066
▁štra	-6067
▁dnevno	-6068
▁udario	-6069
▁opravda	-6070
▁podrška	-6071
▁prirode	-6072
▁Europski	-6073
▁postignu	-6074
ero	-6075
lci	-6076
▁65	-6077
▁pas	-6078
okola	-6079
▁Cilj	-6080
▁civi	-6081
▁jedva	-6082
▁skupa	-6083
▁Veliki	-6084
▁terena	-6085
▁prijave	-6086
▁smanjenje	-6087
▁vatrogasci	-6088
MA	-6089
▁!'	-6090
VDJE	-6091
ženju	-6092
▁Vele	-6093
▁OVDJE	-6094
▁Petar	-6095
▁marke	-6096
▁događaj	-6097
▁najčešće	-6098
▁nogometne	-6099
▁stranicama	-6100
▁Španjolske	-6101
:30	-6102
ght	-6103
valu	-6104
▁HNS	-6105
▁sen	-6106
ljima	-6107
▁vita	-6108
▁ciklu	-6109
▁oduze	-6110
▁polju	-6111
▁troje	-6112
▁Kristi	-6113
▁Saraje	-6114
▁izazov	-6115
▁želite	-6116
▁pregled	-6117
▁stanova	-6118
▁uživati	-6119
▁Njemačke	-6120
▁agencije	-6121
▁opasnosti	-6122
▁poluvremenu	-6123
lila	-6124
rite	-6125
žnim	-6126
▁guž	-6127
▁Vale	-6128
▁kuna	-6129
▁Šved	-6130
▁kredi	-6131
▁osjet	-6132
▁šteta	-6133
▁opcija	-6134
▁stanja	-6135
▁vozača	-6136
▁sunčano	-6137
▁politiku	-6138
▁nogometaš	-6139
▁parlament	-6140
▁rasporedu	-6141
raka	-6142
rnicu	-6143
zulta	-6144
▁ovla	-6145
ravaju	-6146
▁Marka	-6147
▁kćeri	-6148
▁mikro	-6149
▁vodom	-6150
▁danima	-6151
▁prolje	-6152
▁radimo	-6153
▁sudaca	-6154
▁dužnosti	-6155
▁pokazalo	-6156
▁Maksimiru	-6157
▁objasnila	-6158
gri	-6159
par	-6160
kada	-6161
▁Tho	-6162
redbi	-6163
▁jaja	-6164
▁noge	-6165
▁Jedno	-6166
▁showa	-6167
▁kojega	-6168
▁oporbe	-6169
▁seriji	-6170
▁vikend	-6171
▁istrage	-6172
▁klubova	-6173
▁uspjeha	-6174
▁društvenih	-6175
▁natjecanju	-6176
jevi	-6177
stak	-6178
žnih	-6179
▁čka	-6180
Sport	-6181
grafi	-6182
▁Zaje	-6183
▁okri	-6184
▁čelu	-6185
▁mjeri	-6186
▁rujnu	-6187
▁načina	-6188
▁osnova	-6189
▁Posebno	-6190
▁djeluje	-6191
▁otkrili	-6192
▁stranih	-6193
▁Francuska	-6194
▁prošlosti	-6195
▁Plenkovića	-6196
▁definitivno	-6197
▁Us	-6198
stav	-6199
▁Eli	-6200
▁seg	-6201
shing	-6202
strem	-6203
▁Mile	-6204
▁Rafa	-6205
▁duga	-6206
▁mira	-6207
▁šali	-6208
▁boksa	-6209
▁kazna	-6210
▁otoka	-6211
▁nekoga	-6212
▁pogled	-6213
▁uhvati	-6214
▁većinu	-6215
▁hrvatsku	-6216
▁koncentra	-6217
FA	-6218
we	-6219
Ovo	-6220
nava	-6221
nilo	-6222
▁Mal	-6223
▁čić	-6224
▁klup	-6225
▁magi	-6226
▁zate	-6227
▁Vrije	-6228
▁jutar	-6229
▁otoku	-6230
▁scene	-6231
▁sinoć	-6232
▁Austri	-6233
▁Centra	-6234
▁dinami	-6235
▁djecom	-6236
▁uništi	-6237
▁emisije	-6238
▁napokon	-6239
▁postali	-6240
▁publike	-6241
▁razgovor	-6242
▁zastupnik	-6243
NK	-6244
elu	-6245
▁Dva	-6246
▁Sil	-6247
▁men	-6248
▁Belu	-6249
▁dopu	-6250
▁nici	-6251
▁orke	-6252
klanja	-6253
torija	-6254
▁Zanim	-6255
▁dojam	-6256
▁mreži	-6257
▁optuž	-6258
▁komple	-6259
▁kontek	-6260
▁operati	-6261
▁ispričala	-6262
:4	-6263
▁At	-6264
▁tt	-6265
lozi	-6266
▁Ara	-6267
dalma	-6268
vanjem	-6269
▁kosti	-6270
▁videu	-6271
▁domovi	-6272
▁izvora	-6273
▁Facebook	-6274
▁prekršaja	-6275
▁pobijedila	-6276
zati	-6277
▁Pot	-6278
▁kuć	-6279
ivota	-6280
▁Stan	-6281
▁mehani	-6282
▁osvoje	-6283
▁dvorani	-6284
▁helikop	-6285
▁napadač	-6286
▁posloda	-6287
▁spomenuti	-6288
▁službenici	-6289
ele	-6290
gana	-6291
▁Jen	-6292
▁ing	-6293
▁ubo	-6294
▁bilj	-6295
▁izna	-6296
▁neto	-6297
▁pože	-6298
▁prof	-6299
▁same	-6300
▁selu	-6301
▁Otkri	-6302
▁ustvr	-6303
▁žrtve	-6304
▁naslje	-6305
▁počini	-6306
▁predme	-6307
▁gostiju	-6308
▁rijetko	-6309
▁Vladimir	-6310
▁promatra	-6311
▁europskog	-6312
▁različitim	-6313
▁ugostitelj	-6314
▁Sveučilišta	-6315
▁sudjelovati	-6316
kl	-6317
mon	-6318
sur	-6319
tit	-6320
lnici	-6321
▁prit	-6322
▁borba	-6323
▁crkve	-6324
▁najgo	-6325
▁želja	-6326
▁cijela	-6327
▁knjiga	-6328
▁koncer	-6329
▁ponudu	-6330
▁požara	-6331
▁raznih	-6332
▁rekord	-6333
▁savjeto	-6334
▁njihovom	-6335
▁proteklih	-6336
IP	-6337
Po	-6338
mak	-6339
▁geo	-6340
▁tzv	-6341
▁čki	-6342
stvom	-6343
▁Bero	-6344
porter	-6345
▁jefti	-6346
▁važna	-6347
▁Udruge	-6348
▁austri	-6349
▁legenda	-6350
▁Facebooku	-6351
rama	-6352
▁600	-6353
▁Bož	-6354
▁Kije	-6355
▁ruka	-6356
▁teku	-6357
▁temu	-6358
▁Dodao	-6359
▁album	-6360
▁golom	-6361
▁plesa	-6362
▁radom	-6363
▁modela	-6364
▁regula	-6365
▁uspije	-6366
KOK	-6367
bur	-6368
jac	-6369
net	-6370
upa	-6371
jaca	-6372
lesa	-6373
▁Sam	-6374
▁lip	-6375
▁uža	-6376
vršen	-6377
▁domo	-6378
▁otka	-6379
▁poča	-6380
▁2015.	-6381
▁motor	-6382
▁pamet	-6383
▁linija	-6384
▁napomi	-6385
▁regije	-6386
▁uprava	-6387
▁nastupi	-6388
▁pojedin	-6389
▁igračima	-6390
▁osvojiti	-6391
▁operacije	-6392
▁osiguranje	-6393
▁organizacija	-6394
▁unutrašnjosti	-6395
aja	-6396
šom	-6397
▁(7	-6398
▁kg	-6399
lili	-6400
▁Moj	-6401
▁You	-6402
▁ran	-6403
tosti	-6404
▁debi	-6405
▁goste	-6406
▁mrežu	-6407
▁Libano	-6408
▁linije	-6409
▁najmla	-6410
▁početi	-6411
▁Washing	-6412
▁njezinu	-6413
▁okoliša	-6414
▁događaju	-6415
▁doživlja	-6416
▁reakcije	-6417
▁zahtjeva	-6418
▁tehnologije	-6419
1)	-6420
NI	-6421
ken	-6422
▁ur	-6423
▁gri	-6424
čnici	-6425
▁Fina	-6426
▁znate	-6427
▁vrtića	-6428
▁kazneno	-6429
▁otvorio	-6430
▁mjestima	-6431
▁opasnost	-6432
▁podržava	-6433
▁pronašli	-6434
▁društvene	-6435
▁Glu	-6436
▁Areni	-6437
▁djeti	-6438
▁hrana	-6439
▁Utakmi	-6440
▁izgled	-6441
▁korist	-6442
▁nemamo	-6443
▁pretje	-6444
▁radila	-6445
▁tijelu	-6446
▁načelnik	-6447
▁registri	-6448
▁ponašanje	-6449
▁povjerenje	-6450
▁rezultatom	-6451
rist	-6452
▁jam	-6453
nskoj	-6454
tniji	-6455
▁Liva	-6456
▁igri	-6457
▁Trenu	-6458
▁stanu	-6459
▁valja	-6460
▁glavna	-6461
▁kreati	-6462
▁takvim	-6463
▁odlazak	-6464
▁pokušaj	-6465
▁Zdravlje	-6466
▁izvijestio	-6467
Mi	-6468
as	-6469
▁42	-6470
volu	-6471
▁Med	-6472
njaci	-6473
▁dono	-6474
▁osla	-6475
▁bloki	-6476
▁obzir	-6477
▁angaži	-6478
▁kapita	-6479
▁potpisao	-6480
▁vjerovati	-6481
▁kategorije	-6482
▁roditeljima	-6483
goj	-6484
vena	-6485
▁Mac	-6486
▁Pau	-6487
▁evi	-6488
▁koor	-6489
▁mama	-6490
slovno	-6491
▁odabi	-6492
▁sestra	-6493
▁župani	-6494
▁slobodno	-6495
▁sveučili	-6496
▁sposobnosti	-6497
lz	-6498
▁Tek	-6499
▁imu	-6500
▁Bili	-6501
▁kama	-6502
▁poto	-6503
▁kršća	-6504
▁sceni	-6505
▁utrke	-6506
▁vijeć	-6507
▁Glavni	-6508
▁izabra	-6509
▁izjave	-6510
▁medalje	-6511
▁mirovinu	-6512
▁provesti	-6513
▁novinarima	-6514
9)	-6515
:2	-6516
eka	-6517
tika	-6518
vozu	-6519
ćuju	-6520
▁Joe	-6521
▁Kru	-6522
▁izo	-6523
rtava	-6524
terije	-6525
vljuju	-6526
▁David	-6527
▁Sjeve	-6528
▁USKOK	-6529
▁crije	-6530
▁oblje	-6531
▁ulica	-6532
▁usred	-6533
▁titulu	-6534
▁uvjeti	-6535
▁uzroko	-6536
▁Gattuso	-6537
▁staviti	-6538
▁vaterpo	-6539
▁Jutarnji	-6540
▁zvijezde	-6541
▁razdoblja	-6542
▁nekretnina	-6543
ell	-6544
▁Đu	-6545
vari	-6546
đani	-6547
paren	-6548
▁Vodi	-6549
▁crno	-6550
▁krug	-6551
▁nose	-6552
▁posa	-6553
▁Sabor	-6554
▁gimna	-6555
▁prvim	-6556
▁izbaci	-6557
▁mobite	-6558
▁vratar	-6559
▁Turudić	-6560
▁procesu	-6561
▁zatvori	-6562
▁napustio	-6563
▁nacionalne	-6564
▁izvijestila	-6565
jak	-6566
rci	-6567
▁Đo	-6568
viju	-6569
▁Han	-6570
▁Jur	-6571
▁moz	-6572
▁Alex	-6573
▁Hoće	-6574
▁kota	-6575
▁dobit	-6576
▁hotel	-6577
▁rekon	-6578
▁zasad	-6579
teljice	-6580
▁Proble	-6581
▁admini	-6582
▁optere	-6583
▁ostane	-6584
▁pristu	-6585
▁svatko	-6586
▁poslove	-6587
▁donijela	-6588
▁internet	-6589
▁humanitar	-6590
▁stručnjak	-6591
▁sudjelovao	-6592
▁predstavnika	-6593
4)	-6594
jp	-6595
pp	-6596
žak	-6597
▁Oba	-6598
▁suz	-6599
▁jese	-6600
▁gastro	-6601
▁obrana	-6602
▁oglasi	-6603
▁sjajno	-6604
▁domaćih	-6605
▁kontine	-6606
▁pljusko	-6607
▁nadolaze	-6608
▁hrvatskoj	-6609
▁pobjednik	-6610
▁upozorenje	-6611
▁zadovoljan	-6612
dov	-6613
iva	-6614
kos	-6615
sse	-6616
▁it	-6617
ziji	-6618
tivnu	-6619
▁Bivši	-6620
▁alter	-6621
▁pande	-6622
▁Splića	-6623
▁Izraela	-6624
▁obrambe	-6625
▁publici	-6626
▁razlika	-6627
▁izgradnju	-6628
▁Policijske	-6629
▁obrazovanje	-6630
OV	-6631
ara	-6632
loge	-6633
vaca	-6634
čene	-6635
čito	-6636
▁Adri	-6637
▁Osno	-6638
ljenih	-6639
▁menad	-6640
▁vojne	-6641
▁štete	-6642
▁javnom	-6643
▁inciden	-6644
▁palesti	-6645
▁preuzeo	-6646
▁stajali	-6647
▁tražiti	-6648
▁turniru	-6649
▁napravila	-6650
▁vatrogasa	-6651
uz	-6652
snoj	-6653
toli	-6654
▁meč	-6655
▁tip	-6656
▁Geor	-6657
▁Kupa	-6658
▁bore	-6659
▁suge	-6660
▁čkom	-6661
▁glavi	-6662
▁iduće	-6663
▁pošte	-6664
▁Talija	-6665
▁motivi	-6666
▁online	-6667
▁dogovor	-6668
▁zaštiti	-6669
▁savjetni	-6670
▁razgovora	-6671
8)	-6672
mbi	-6673
kedo	-6674
panj	-6675
uter	-6676
šnju	-6677
žite	-6678
▁iji	-6679
▁TikTo	-6680
▁poštu	-6681
▁Madrid	-6682
▁pisali	-6683
▁krenula	-6684
▁smještaj	-6685
▁vidljivo	-6686
▁pobijedili	-6687
▁posljednja	-6688
▁Olimpijskim	-6689
▁ministarstvo	-6690
gić	-6691
jke	-6692
▁([	-6693
▁44	-6694
vinu	-6695
▁Mia	-6696
▁peti	-6697
▁Premi	-6698
▁Prija	-6699
▁odbio	-6700
▁petka	-6701
▁Dragan	-6702
▁iznajm	-6703
▁općine	-6704
▁ponude	-6705
▁raznim	-6706
▁gradske	-6707
▁krenuti	-6708
▁suvreme	-6709
▁umjeren	-6710
▁vozilom	-6711
▁četvero	-6712
▁predviđa	-6713
▁nedostaje	-6714
▁slučajeva	-6715
▁poslovanja	-6716
▁institucija	-6717
lot	-6718
▁Gri	-6719
brati	-6720
▁Medi	-6721
▁Pale	-6722
▁naslo	-6723
▁stare	-6724
▁trend	-6725
▁vanja	-6726
▁čišće	-6727
▁emociona	-6728
▁kvalitet	-6729
▁njihovoj	-6730
▁varaždin	-6731
▁županiji	-6732
▁gospodarstvo	-6733
kse	-6734
ley	-6735
lly	-6736
duše	-6737
laca	-6738
▁Naš	-6739
▁Pav	-6740
▁azi	-6741
dnost	-6742
▁Luke	-6743
▁fron	-6744
▁nizu	-6745
▁otpa	-6746
▁Potre	-6747
▁Serge	-6748
▁kakvu	-6749
▁majke	-6750
▁Croati	-6751
▁birača	-6752
▁izdanje	-6753
▁nikakve	-6754
▁troškova	-6755
▁predstavio	-6756
▁problemima	-6757
▁iskoristiti	-6758
▁sudjelovali	-6759
▁voditeljica	-6760
01	-6761
ves	-6762
▁Ol	-6763
jice	-6764
▁HNK	-6765
▁Isu	-6766
▁bur	-6767
▁kćer	-6768
▁gluma	-6769
▁malih	-6770
▁prera	-6771
sigurno	-6772
▁Trumpo	-6773
▁donese	-6774
▁istina	-6775
▁majsto	-6776
▁sretan	-6777
▁Hajduku	-6778
▁ekstrem	-6779
▁predmet	-6780
▁novinara	-6781
▁pretvori	-6782
▁Dalmaciji	-6783
▁Tomašević	-6784
▁zainteresi	-6785
kula	-6786
nema	-6787
stio	-6788
vida	-6789
▁Toni	-6790
▁nape	-6791
lizira	-6792
žavaju	-6793
▁mnogim	-6794
▁pobjedi	-6795
▁prihoda	-6796
▁slavlje	-6797
▁pozicije	-6798
▁tjelesne	-6799
▁američkog	-6800
▁strijelac	-6801
sata	-6802
▁Air	-6803
▁ape	-6804
šnjih	-6805
▁Poja	-6806
▁Vuko	-6807
▁jugu	-6808
▁licu	-6809
▁slab	-6810
▁Vučić	-6811
▁spava	-6812
▁župan	-6813
▁Zorana	-6814
▁akcija	-6815
▁otišla	-6816
▁slavio	-6817
▁bicikli	-6818
▁dvojica	-6819
▁obavije	-6820
▁ostvario	-6821
▁pojedina	-6822
▁projektu	-6823
▁istaknuti	-6824
▁utjecajem	-6825
▁stručnjaci	-6826
dini	-6827
▁Anu	-6828
▁kći	-6829
▁Isla	-6830
▁vani	-6831
▁čkog	-6832
gnosti	-6833
stvima	-6834
▁braka	-6835
▁mlađe	-6836
▁radim	-6837
▁bolest	-6838
▁lipnju	-6839
▁oružje	-6840
▁pomaga	-6841
▁čokola	-6842
▁Turisti	-6843
▁podnije	-6844
▁spomenu	-6845
▁izbornoj	-6846
▁natječaj	-6847
▁ubojstvo	-6848
▁Šibeniku	-6849
▁transparen	-6850
jpg	-6851
mpu	-6852
ruža	-6853
tama	-6854
▁mog	-6855
jskoj	-6856
▁Poku	-6857
▁dona	-6858
▁kemi	-6859
▁limu	-6860
▁spaša	-6861
▁uzeti	-6862
▁akciju	-6863
▁boriti	-6864
▁htjeli	-6865
▁nećemo	-6866
▁impresi	-6867
▁republi	-6868
▁trening	-6869
▁potrebne	-6870
▁proizvod	-6871
▁kompanije	-6872
▁otvorenom	-6873
5)	-6874
gni	-6875
mara	-6876
▁loš	-6877
▁1000	-6878
▁jede	-6879
▁uzne	-6880
▁Gospo	-6881
▁Nismo	-6882
▁Pobje	-6883
▁izgle	-6884
▁samou	-6885
▁takti	-6886
desetak	-6887
▁Primje	-6888
▁obveza	-6889
▁automat	-6890
▁djetinj	-6891
▁dolaska	-6892
▁imovine	-6893
▁sektoru	-6894
▁zatvara	-6895
▁djevojka	-6896
▁postupka	-6897
▁vlastite	-6898
▁veleposla	-6899
▁najvažnije	-6900
▁tehnologija	-6901
▁upravljanje	-6902
▁Ur	-6903
zina	-6904
▁mor	-6905
▁nep	-6906
ljava	-6907
▁eska	-6908
▁gole	-6909
▁poko	-6910
▁teže	-6911
▁ulje	-6912
▁Hvala	-6913
▁Teško	-6914
▁infek	-6915
▁goriva	-6916
▁tajnik	-6917
▁zabrinu	-6918
▁ostavlja	-6919
▁branitelja	-6920
▁potencijal	-6921
eno	-6922
ite	-6923
▁AI	-6924
jati	-6925
▁dug	-6926
▁Pjeva	-6927
▁plina	-6928
▁sreću	-6929
▁sukob	-6930
▁zlato	-6931
▁želio	-6932
▁baviti	-6933
▁nemogu	-6934
▁čekaju	-6935
▁zadatak	-6936
▁mirovine	-6937
▁prethodno	-6938
▁korištenja	-6939
▁polufinalu	-6940
gon	-6941
jma	-6942
kat	-6943
sten	-6944
ting	-6945
tivu	-6946
▁tad	-6947
▁uza	-6948
▁Raki	-6949
▁Zapa	-6950
▁Norve	-6951
▁Struč	-6952
▁doveo	-6953
▁najma	-6954
▁okupi	-6955
▁ondje	-6956
▁prive	-6957
▁Euroson	-6958
▁eksperi	-6959
▁spektak	-6960
▁priznala	-6961
▁nogometni	-6962
▁prikuplja	-6963
▁infrastrukture	-6964
ram	-6965
žnu	-6966
▁49	-6967
▁ps	-6968
▁Her	-6969
▁Wal	-6970
đivati	-6971
▁agresi	-6972
▁autori	-6973
▁skladi	-6974
▁Perišić	-6975
▁dodatne	-6976
▁medalju	-6977
▁postaju	-6978
▁svibnju	-6979
▁zamisli	-6980
▁određene	-6981
▁sastanak	-6982
▁ubojstva	-6983
▁intervjuu	-6984
▁milijarde	-6985
▁zaključila	-6986
▁€	-6987
kraj	-6988
▁Lau	-6989
▁Red	-6990
▁ner	-6991
▁doja	-6992
▁save	-6993
▁Unite	-6994
▁Zakon	-6995
▁obali	-6996
▁uzrok	-6997
▁Moramo	-6998
▁Reuter	-6999
▁izašao	-7000
▁okviru	-7001
▁presti	-7002
▁ruskog	-7003
▁seksua	-7004
▁vježba	-7005
▁cijeloj	-7006
▁ostavku	-7007
▁seksual	-7008
▁Zahvalju	-7009
▁upozorio	-7010
▁utvrđeno	-7011
▁ljestvici	-7012
▁povremeno	-7013
▁komentarima	-7014
vin	-7015
▁46	-7016
enzi	-7017
ling	-7018
▁Lje	-7019
▁Sha	-7020
čnije	-7021
logiju	-7022
▁2014.	-7023
▁Drugo	-7024
▁bivša	-7025
▁glave	-7026
▁Andreja	-7027
▁Kraljev	-7028
▁nogometu	-7029
▁partneri	-7030
ET	-7031
▁ev	-7032
▁Gro	-7033
▁Mer	-7034
▁Ovi	-7035
▁čke	-7036
▁iran	-7037
▁vizu	-7038
dovima	-7039
stupan	-7040
▁2012.	-7041
▁Raspu	-7042
▁dosto	-7043
▁dresu	-7044
▁podne	-7045
▁refor	-7046
▁skija	-7047
▁Object	-7048
▁poručila	-7049
▁povjeren	-7050
▁sjećanja	-7051
▁središtu	-7052
▁policijski	-7053
▁predstavni	-7054
▁razgovarali	-7055
▁zadovoljstvo	-7056
-6	-7057
The	-7058
ice	-7059
dimo	-7060
▁Dvo	-7061
▁Kne	-7062
▁mak	-7063
▁čim	-7064
▁Gaze	-7065
▁Naša	-7066
▁Tamo	-7067
luence	-7068
▁Milan	-7069
▁ekono	-7070
▁Centar	-7071
▁kolegi	-7072
▁odbija	-7073
▁otkaza	-7074
▁upisao	-7075
▁aktivno	-7076
▁medalja	-7077
▁ostalog	-7078
▁otvoren	-7079
▁priprem	-7080
▁sadržaj	-7081
▁Zelenski	-7082
▁lokacija	-7083
▁Šibenika	-7084
▁apsolutno	-7085
▁područjima	-7086
Ako	-7087
tao	-7088
duje	-7089
vene	-7090
▁Chi	-7091
▁bal	-7092
kcija	-7093
▁avan	-7094
snosti	-7095
▁govor	-7096
▁Sabora	-7097
▁hrabro	-7098
▁otkako	-7099
▁srpnju	-7100
▁stolje	-7101
▁Italiji	-7102
▁profilu	-7103
▁srednje	-7104
▁Europska	-7105
▁doprinos	-7106
▁reakcija	-7107
▁teritori	-7108
▁atmosferu	-7109
▁dalmacija	-7110
▁omogućuje	-7111
▁parlamenta	-7112
Ma	-7113
▁@	-7114
gira	-7115
slje	-7116
▁120	-7117
▁Dio	-7118
▁man	-7119
lnica	-7120
šenju	-7121
▁kafi	-7122
▁čuli	-7123
▁Izvor	-7124
▁istoj	-7125
▁narod	-7126
▁pitao	-7127
▁strah	-7128
▁olimpi	-7129
▁uhićen	-7130
▁malolje	-7131
▁Najbolji	-7132
▁povećati	-7133
▁gradovima	-7134
▁studenoga	-7135
▁Domovinski	-7136
▁istovremeno	-7137
MZ	-7138
Ni	-7139
jača	-7140
▁Mos	-7141
▁lik	-7142
▁val	-7143
loške	-7144
▁Gore	-7145
▁Kara	-7146
▁čuti	-7147
▁Boris	-7148
▁Nadam	-7149
▁uloge	-7150
zivanje	-7151
▁televi	-7152
▁veseli	-7153
▁zaosta	-7154
▁potpore	-7155
▁priklju	-7156
▁velikoj	-7157
▁školama	-7158
▁sposobnost	-7159
▁zagrebačkom	-7160
▁43	-7161
▁Ov	-7162
blji	-7163
▁Opa	-7164
▁Sko	-7165
▁fon	-7166
▁dulje	-7167
▁takvu	-7168
▁Marina	-7169
▁Turudi	-7170
▁glavom	-7171
▁glazbu	-7172
▁htjela	-7173
▁Najviše	-7174
▁dužnost	-7175
▁granica	-7176
▁Europsko	-7177
▁jedinici	-7178
▁direktora	-7179
▁listopadu	-7180
▁osumnjiče	-7181
▁odvjetnika	-7182
▁prvenstveno	-7183
Da	-7184
ane	-7185
que	-7186
tuje	-7187
▁"",	-7188
▁20-	-7189
metra	-7190
▁Dodi	-7191
▁Star	-7192
▁seks	-7193
▁Mladi	-7194
▁Radio	-7195
▁ilega	-7196
▁krivo	-7197
▁listu	-7198
▁probu	-7199
pularni	-7200
▁Europu	-7201
▁Zlatko	-7202
▁skanda	-7203
▁službi	-7204
▁oglasio	-7205
▁slobodu	-7206
▁učenici	-7207
▁Francuske	-7208
▁Slovenije	-7209
▁liječnika	-7210
▁mjesecima	-7211
▁raspolaga	-7212
▁unutarnjih	-7213
Do	-7214
eš	-7215
lie	-7216
vcu	-7217
▁Pono	-7218
▁inva	-7219
▁luka	-7220
▁skim	-7221
▁skrb	-7222
▁suve	-7223
▁Istre	-7224
▁hitne	-7225
▁hrani	-7226
▁mlađi	-7227
▁zasta	-7228
▁koncep	-7229
▁prijeti	-7230
▁jedinica	-7231
▁kampanju	-7232
▁pojavila	-7233
▁ponašanja	-7234
▁potvrdila	-7235
▁reprezentativ	-7236
6)	-7237
▁bol	-7238
▁kaž	-7239
▁ora	-7240
jskim	-7241
▁ideo	-7242
▁njen	-7243
▁sela	-7244
ktivno	-7245
▁grija	-7246
▁jesti	-7247
▁pogor	-7248
▁tragi	-7249
▁mješta	-7250
▁opreme	-7251
▁dramati	-7252
▁izložbe	-7253
▁poznate	-7254
▁povećava	-7255
▁prosincu	-7256
▁trenutka	-7257
▁utjecaja	-7258
▁vrijedan	-7259
▁zanimlji	-7260
▁trenucima	-7261
▁nezadovolj	-7262
▁spriječiti	-7263
▁komentirala	-7264
vke	-7265
▁PS	-7266
▁eg	-7267
jeve	-7268
lass	-7269
siti	-7270
▁Pen	-7271
▁obr	-7272
▁šut	-7273
tanje	-7274
▁Kona	-7275
▁Puno	-7276
▁Argen	-7277
▁Autor	-7278
▁Harry	-7279
▁Radić	-7280
▁parti	-7281
▁stože	-7282
žavanja	-7283
▁Europa	-7284
▁jedana	-7285
▁napade	-7286
▁subote	-7287
▁uputio	-7288
▁nazivom	-7289
▁pogotka	-7290
▁Vjerujem	-7291
▁komunici	-7292
▁stadiona	-7293
nc	-7294
fal	-7295
dugo	-7296
vred	-7297
žuju	-7298
▁Maja	-7299
▁boli	-7300
▁Muška	-7301
▁Rimac	-7302
▁prete	-7303
▁uloga	-7304
▁upora	-7305
đivanje	-7306
▁jutros	-7307
▁razoča	-7308
▁struje	-7309
▁nastala	-7310
▁pjesama	-7311
▁prijava	-7312
▁državnom	-7313
▁napredak	-7314
▁preuzeti	-7315
▁osigurava	-7316
▁transforma	-7317
tal	-7318
wit	-7319
king	-7320
trka	-7321
▁Pet	-7322
▁psa	-7323
▁leđa	-7324
▁nara	-7325
▁nima	-7326
▁praz	-7327
▁dokaz	-7328
▁mlada	-7329
▁nemam	-7330
▁onako	-7331
▁Trener	-7332
▁images	-7333
▁nikako	-7334
▁ponovo	-7335
▁sprema	-7336
▁svojem	-7337
▁kontakt	-7338
▁odlaska	-7339
▁srednjo	-7340
▁demokrat	-7341
▁dodajući	-7342
▁kontrole	-7343
▁sadržaja	-7344
▁navijačima	-7345
▁predstavnici	-7346
šći	-7347
risa	-7348
trag	-7349
▁vić	-7350
▁Jela	-7351
▁imat	-7352
▁nude	-7353
▁okon	-7354
▁pete	-7355
▁vaša	-7356
tovima	-7357
▁Micha	-7358
▁priku	-7359
▁proma	-7360
▁razve	-7361
▁crveni	-7362
▁nazvao	-7363
▁popisu	-7364
▁Martina	-7365
▁izazvao	-7366
▁ulicama	-7367
▁savršeno	-7368
▁sportaši	-7369
▁održavanje	-7370
▁financijski	-7371
ER	-7372
Ja	-7373
ily	-7374
mes	-7375
tike	-7376
naest	-7377
tinske	-7378
▁ekipu	-7379
▁uživo	-7380
▁najsta	-7381
▁ponuda	-7382
▁služba	-7383
▁Hezbola	-7384
▁kulturu	-7385
▁slobode	-7386
▁Konferen	-7387
▁lokalnih	-7388
▁pokušati	-7389
▁svjetske	-7390
▁prometnoj	-7391
▁zajednički	-7392
dira	-7393
ranj	-7394
▁ina	-7395
▁Gleda	-7396
▁Kašte	-7397
▁obvez	-7398
desetih	-7399
▁porast	-7400
▁prošla	-7401
▁prihvat	-7402
▁njihovog	-7403
▁postavio	-7404
▁zrakoplov	-7405
▁zapovjednik	-7406
KA	-7407
loj	-7408
rat	-7409
▁58	-7410
▁Cu	-7411
▁žup	-7412
ranji	-7413
▁Kana	-7414
▁riba	-7415
taciju	-7416
▁ideje	-7417
▁osvje	-7418
▁promi	-7419
▁turne	-7420
▁važne	-7421
▁kralji	-7422
▁morala	-7423
▁Bjelica	-7424
▁William	-7425
▁pojavio	-7426
▁romanti	-7427
▁student	-7428
▁poručili	-7429
▁troškove	-7430
▁Zanimljivo	-7431
▁rezultatima	-7432
▁predsjednikom	-7433
vat	-7434
▁OŠ	-7435
▁iš	-7436
▁Baš	-7437
▁tla	-7438
mijer	-7439
njeni	-7440
tenti	-7441
štaja	-7442
▁Gvar	-7443
▁kore	-7444
▁ušli	-7445
novima	-7446
▁Kekin	-7447
▁Kreši	-7448
▁Makar	-7449
▁Potom	-7450
▁angaž	-7451
▁popri	-7452
vljenje	-7453
▁Zagrep	-7454
▁cijelom	-7455
▁turista	-7456
▁uređaja	-7457
▁Premijer	-7458
▁teroristi	-7459
▁Olimpijske	-7460
▁asistencija	-7461
remo	-7462
▁Goo	-7463
▁jaka	-7464
▁nogu	-7465
racija	-7466
službe	-7467
▁1991.	-7468
▁sjeda	-7469
▁sreće	-7470
▁Saboru	-7471
▁klimat	-7472
▁kontra	-7473
▁pitali	-7474
▁izazove	-7475
▁izborni	-7476
▁vratila	-7477
▁konzerva	-7478
▁omogućiti	-7479
▁podijelio	-7480
tmu	-7481
fici	-7482
turu	-7483
▁Lin	-7484
▁pun	-7485
nstva	-7486
šteni	-7487
▁Euru	-7488
▁zare	-7489
▁apart	-7490
▁domina	-7491
▁izravno	-7492
▁neposre	-7493
▁procesa	-7494
▁trebamo	-7495
▁zatvoru	-7496
▁vlasnika	-7497
▁perspekti	-7498
mah	-7499
pti	-7500
rje	-7501
▁8,	-7502
▁Nu	-7503
lian	-7504
lozo	-7505
▁sub	-7506
▁čku	-7507
dović	-7508
▁Batu	-7509
▁Ukup	-7510
▁okup	-7511
▁grama	-7512
▁knjiž	-7513
▁stope	-7514
▁komuna	-7515
▁zanema	-7516
▁razreda	-7517
▁travnju	-7518
▁doslovno	-7519
▁kampanji	-7520
▁pripremi	-7521
▁važnosti	-7522
▁vodstvom	-7523
▁festivalu	-7524
▁radionice	-7525
▁kategorija	-7526
▁pobjednika	-7527
▁odgovornosti	-7528
▁sudjelovanje	-7529
▁predstavljaju	-7530
▁glasnogovornik	-7531
ot	-7532
žim	-7533
lama	-7534
mail	-7535
zali	-7536
ćene	-7537
▁250	-7538
▁Ver	-7539
▁icu	-7540
mpati	-7541
▁Afri	-7542
▁Mili	-7543
▁Ruje	-7544
▁gađa	-7545
▁miru	-7546
▁pame	-7547
ficira	-7548
▁istog	-7549
▁Pripre	-7550
▁donose	-7551
▁dvoboj	-7552
▁korije	-7553
▁nezavi	-7554
▁ponudi	-7555
▁siroma	-7556
▁Gvardio	-7557
▁eventua	-7558
▁krimina	-7559
▁postroj	-7560
▁turizam	-7561
▁objavlje	-7562
▁promjenu	-7563
▁izgradnje	-7564
▁kandidati	-7565
▁upravljao	-7566
▁situacijama	-7567
▁zaposlenika	-7568
▁nevjerojatno	-7569
nke	-7570
res	-7571
▁Či	-7572
šeno	-7573
škoj	-7574
▁Con	-7575
▁šet	-7576
▁Osje	-7577
▁Voza	-7578
▁dođu	-7579
▁jeze	-7580
kovima	-7581
▁jedni	-7582
▁Jelena	-7583
▁vidite	-7584
▁vjetro	-7585
▁Ustavni	-7586
▁daljnje	-7587
▁dugotra	-7588
▁istragu	-7589
▁izdvoji	-7590
▁održana	-7591
▁osnovne	-7592
▁policiju	-7593
▁upoznati	-7594
▁završava	-7595
▁istraživa	-7596
▁sjevernom	-7597
▁sudionika	-7598
▁zasigurno	-7599
AN	-7600
EP	-7601
ek	-7602
don	-7603
dbre	-7604
list	-7605
smom	-7606
▁Los	-7607
▁Obo	-7608
▁ist	-7609
vrata	-7610
▁Eura	-7611
▁Osca	-7612
▁Pore	-7613
▁mane	-7614
▁neću	-7615
▁otpo	-7616
▁pali	-7617
tinski	-7618
▁Barba	-7619
▁vašem	-7620
▁Budući	-7621
▁Google	-7622
▁miješa	-7623
▁svakoj	-7624
▁trećem	-7625
▁fizički	-7626
▁izvanre	-7627
▁potrebu	-7628
▁veljači	-7629
▁profesor	-7630
▁sportske	-7631
▁Jakirović	-7632
▁izazovima	-7633
▁mijenjati	-7634
▁ostvarili	-7635
▁materijala	-7636
▁zaposlenih	-7637
▁stanovništva	-7638
dC	-7639
chi	-7640
rit	-7641
play	-7642
▁Cor	-7643
▁vrt	-7644
nstvo	-7645
stero	-7646
▁nazo	-7647
▁plus	-7648
▁tren	-7649
čekiva	-7650
▁Gradu	-7651
▁lansi	-7652
▁prepu	-7653
▁sprje	-7654
▁želju	-7655
▁poteško	-7656
▁iznosila	-7657
▁redatelj	-7658
▁priznanje	-7659
▁unaprijed	-7660
▁dijagnosti	-7661
▁zabrinutost	-7662
▁konkurenciji	-7663
rie	-7664
tok	-7665
▁Em	-7666
▁Sun	-7667
sniji	-7668
▁DORH	-7669
▁zrak	-7670
istinu	-7671
▁Druga	-7672
▁naziv	-7673
▁putni	-7674
▁resur	-7675
▁dodajte	-7676
▁trenira	-7677
▁parkirali	-7678
▁očekivanja	-7679
del	-7680
lus	-7681
▁47	-7682
▁HT	-7683
ljni	-7684
▁Ore	-7685
▁Zem	-7686
▁isc	-7687
▁Crne	-7688
▁Kroz	-7689
▁vati	-7690
▁Novom	-7691
▁hvala	-7692
▁skrbi	-7693
▁podije	-7694
▁Institu	-7695
▁provode	-7696
▁skokova	-7697
▁transfe	-7698
▁uklanja	-7699
▁zabrani	-7700
▁grmljavi	-7701
▁površine	-7702
▁privreme	-7703
▁siječnju	-7704
▁sjednici	-7705
▁sukladno	-7706
▁Dalmacije	-7707
▁SuperSport	-7708
▁industrije	-7709
▁inozemstvu	-7710
▁djelatnosti	-7711
dim	-7712
kol	-7713
▁9,	-7714
vicu	-7715
▁195	-7716
bijan	-7717
▁Male	-7718
▁bura	-7719
▁kože	-7720
vjeren	-7721
▁Bosne	-7722
▁izaći	-7723
▁radne	-7724
▁razum	-7725
▁vojni	-7726
▁člana	-7727
▁dovodi	-7728
▁okoliš	-7729
▁pravom	-7730
▁popular	-7731
▁stadion	-7732
▁novinare	-7733
▁željezni	-7734
▁Dalmacija	-7735
▁gledatelja	-7736
▁parlamentu	-7737
▁Hercegovine	-7738
▁\	-7739
pto	-7740
ille	-7741
ruje	-7742
▁NBA	-7743
zisti	-7744
▁luke	-7745
▁nicu	-7746
▁poza	-7747
▁stdC	-7748
▁Želi	-7749
rirati	-7750
▁broda	-7751
▁Makedo	-7752
▁objavu	-7753
▁održat	-7754
▁radnih	-7755
▁utječe	-7756
▁Croatia	-7757
▁Nedavno	-7758
▁Talijan	-7759
▁dionica	-7760
▁prijavu	-7761
▁Križevci	-7762
▁Portugal	-7763
▁djevojke	-7764
▁incident	-7765
▁muškarci	-7766
▁stdClass	-7767
▁zamjenik	-7768
▁ljestvice	-7769
▁prisustvo	-7770
▁zaključuje	-7771
;.	-7772
ST	-7773
efi	-7774
grad	-7775
▁eve	-7776
ktora	-7777
verpo	-7778
▁Buga	-7779
▁Komi	-7780
▁Ligu	-7781
▁horo	-7782
▁trgo	-7783
▁zaro	-7784
▁Imali	-7785
▁Jeste	-7786
▁insta	-7787
▁krene	-7788
▁nskog	-7789
▁plana	-7790
▁podje	-7791
▁znala	-7792
▁srpski	-7793
▁tranzi	-7794
▁vezano	-7795
▁alterna	-7796
▁ključni	-7797
▁njezino	-7798
▁očekiva	-7799
▁suprugu	-7800
▁odigrali	-7801
▁smanjuje	-7802
▁atmosfera	-7803
▁financija	-7804
▁prijetnje	-7805
kt	-7806
HMZ	-7807
ega	-7808
rove	-7809
zolu	-7810
▁Mil	-7811
▁nai	-7812
▁Agen	-7813
▁Juri	-7814
▁Paša	-7815
▁dvoj	-7816
▁inde	-7817
▁komo	-7818
▁kono	-7819
▁onim	-7820
▁stje	-7821
tivnog	-7822
▁2013.	-7823
▁smeta	-7824
zapadni	-7825
▁dobrom	-7826
▁građan	-7827
▁nerije	-7828
▁ruskih	-7829
▁Očekuje	-7830
▁razvije	-7831
▁vjeruju	-7832
▁Festival	-7833
▁Splitsko	-7834
▁kontekstu	-7835
▁nastavila	-7836
▁svjetskih	-7837
zz	-7838
Cro	-7839
bit	-7840
jum	-7841
čun	-7842
▁Mr	-7843
rtal	-7844
▁DVD	-7845
▁Emi	-7846
▁Fin	-7847
▁Ham	-7848
▁Mor	-7849
▁fra	-7850
danje	-7851
grada	-7852
▁Nina	-7853
ktivni	-7854
▁2026.	-7855
▁tekst	-7856
▁ureda	-7857
▁Matija	-7858
▁hladno	-7859
▁jeziku	-7860
▁mjesti	-7861
▁mnogih	-7862
▁revolu	-7863
▁rijeke	-7864
▁skloni	-7865
▁glavnom	-7866
▁mnogima	-7867
▁prekida	-7868
▁vratili	-7869
▁Trenutno	-7870
▁sredinom	-7871
▁direktorica	-7872
ONA	-7873
pix	-7874
▁85	-7875
▁ID	-7876
pija	-7877
stin	-7878
▁Spe	-7879
▁ika	-7880
▁raj	-7881
▁Viso	-7882
▁poro	-7883
▁stol	-7884
▁trag	-7885
▁tram	-7886
▁upit	-7887
cijska	-7888
▁2011.	-7889
▁Novak	-7890
▁prese	-7891
▁traga	-7892
▁upita	-7893
▁uzbud	-7894
▁češće	-7895
financi	-7896
▁Hrvoje	-7897
▁Velike	-7898
▁ostaju	-7899
▁prepre	-7900
▁radnog	-7901
▁gledali	-7902
▁zahvati	-7903
▁legendar	-7904
▁ostaviti	-7905
▁otvoriti	-7906
▁prometna	-7907
▁roditelj	-7908
▁Svjetskom	-7909
▁kapaciteta	-7910
▁polufinale	-7911
CM	-7912
cida	-7913
lesu	-7914
manu	-7915
vito	-7916
čana	-7917
▁Gol	-7918
▁Tay	-7919
▁med	-7920
gović	-7921
plova	-7922
▁EPPO	-7923
▁Glaz	-7924
▁Selak	-7925
▁slabo	-7926
▁spaja	-7927
▁javnim	-7928
▁krumpi	-7929
▁odobre	-7930
▁uvjeta	-7931
▁Projekt	-7932
▁filmova	-7933
▁navrata	-7934
▁postići	-7935
▁lokalnim	-7936
▁proračun	-7937
▁događanja	-7938
▁sufinanci	-7939
▁pacijenata	-7940
▁ukrajinske	-7941
▁zaustaviti	-7942
▁zrakoplova	-7943
3)	-7944
nosa	-7945
▁BBC	-7946
▁Gen	-7947
▁gar	-7948
▁nat	-7949
▁pat	-7950
▁živ	-7951
droli	-7952
▁Koso	-7953
▁Meni	-7954
▁Most	-7955
▁cija	-7956
▁done	-7957
▁onog	-7958
▁plin	-7959
▁trbu	-7960
▁trgu	-7961
▁Nitko	-7962
▁Ovdje	-7963
▁radno	-7964
▁stoje	-7965
▁takvo	-7966
▁treća	-7967
▁unije	-7968
▁volio	-7969
▁Pritom	-7970
▁Većina	-7971
▁povolj	-7972
▁većini	-7973
▁Istraži	-7974
▁vidjela	-7975
▁navijače	-7976
▁prekršaj	-7977
▁prijenos	-7978
▁prosjeku	-7979
▁stvoriti	-7980
▁započela	-7981
▁korisnici	-7982
▁dijelovima	-7983
▁osiguranja	-7984
▁privremeno	-7985
▁rekonstruk	-7986
TP	-7987
wn	-7988
jeg	-7989
vaj	-7990
anje	-7991
▁ira	-7992
▁sus	-7993
▁Japa	-7994
▁York	-7995
▁cima	-7996
▁izre	-7997
▁mari	-7998
▁strp	-7999
▁Čini	-8000
▁ideal	-8001
▁kompo	-8002
▁križa	-8003
▁obraz	-8004
▁ubrza	-8005
▁uzvra	-8006
▁žesto	-8007
zivanja	-8008
▁Sloven	-8009
▁obraća	-8010
▁savjet	-8011
▁sestre	-8012
▁Liverpo	-8013
▁doživio	-8014
▁istraga	-8015
▁moderni	-8016
▁neprija	-8017
▁osvrnuo	-8018
▁popodne	-8019
▁rukomet	-8020
▁Vukovara	-8021
▁završetka	-8022
▁poslovanje	-8023
ano	-8024
des	-8025
▁41	-8026
▁64	-8027
veno	-8028
dekva	-8029
tiran	-8030
▁Kama	-8031
▁Muze	-8032
▁cvije	-8033
▁multi	-8034
▁vrtić	-8035
▁zlata	-8036
▁najbli	-8037
▁obnove	-8038
▁telefo	-8039
▁većine	-8040
▁ženama	-8041
▁živote	-8042
▁žrtava	-8043
▁otkriti	-8044
▁procedu	-8045
▁Raspudić	-8046
▁Ustavnog	-8047
▁govorili	-8048
▁poremeća	-8049
▁studenti	-8050
▁ustanova	-8051
▁Svjetskog	-8052
▁nogometaša	-8053
▁političkih	-8054
▁turističke	-8055
berg	-8056
skop	-8057
utim	-8058
▁Kur	-8059
▁One	-8060
▁VAR	-8061
kluzi	-8062
▁Vene	-8063
▁dres	-8064
▁port	-8065
tacije	-8066
▁opisu	-8067
▁služi	-8068
▁Udruga	-8069
▁počelo	-8070
▁znanje	-8071
▁potreba	-8072
▁izbjegli	-8073
▁ključnih	-8074
▁poslovne	-8075
▁reporter	-8076
▁zadržati	-8077
▁restorana	-8078
▁stručnjaka	-8079
▁zaboraviti	-8080
▁proizvođača	-8081
▁reprezentaciji	-8082
LA	-8083
Su	-8084
bne	-8085
lit	-8086
▁SD	-8087
yahu	-8088
ćava	-8089
▁pau	-8090
▁rak	-8091
drije	-8092
šnjim	-8093
▁Isti	-8094
▁kami	-8095
▁nske	-8096
▁revi	-8097
▁roka	-8098
▁upot	-8099
tijeva	-8100
▁Istak	-8101
▁Sveti	-8102
▁cijom	-8103
▁formu	-8104
▁potpi	-8105
▁prezi	-8106
dnicima	-8107
tanyahu	-8108
▁kupnju	-8109
▁nezako	-8110
▁ovakve	-8111
▁rečeno	-8112
▁sastoj	-8113
▁tražio	-8114
▁Antonio	-8115
▁Velikoj	-8116
▁nastoja	-8117
▁potresa	-8118
▁sektora	-8119
▁skuplja	-8120
▁stranci	-8121
▁trajati	-8122
▁zaredom	-8123
▁zločina	-8124
▁ponegdje	-8125
▁standard	-8126
▁nastupiti	-8127
▁društvenoj	-8128
▁financijske	-8129
▁ministarstva	-8130
ls	-8131
▁66	-8132
ONAL	-8133
brao	-8134
nejd	-8135
nina	-8136
▁Bje	-8137
▁Suda	-8138
▁Vrlo	-8139
▁dugi	-8140
▁ekra	-8141
▁obna	-8142
▁urba	-8143
▁zamo	-8144
▁časo	-8145
▁Bjelo	-8146
▁Lovre	-8147
▁Sanja	-8148
▁Sredi	-8149
▁Zatim	-8150
▁komer	-8151
▁proče	-8152
▁skupo	-8153
▁sliku	-8154
▁Organi	-8155
▁državu	-8156
▁ispada	-8157
▁odjela	-8158
▁snijeg	-8159
▁zaigra	-8160
▁Postoji	-8161
▁izdanju	-8162
▁napredo	-8163
▁naselja	-8164
▁nasilje	-8165
▁slijede	-8166
▁njemački	-8167
▁sljedeći	-8168
▁Netanyahu	-8169
▁potvrdili	-8170
▁razgovarao	-8171
▁predstavnik	-8172
▁vatrogasaca	-8173
jk	-8174
sio	-8175
xel	-8176
▁ul	-8177
beno	-8178
promi	-8179
▁Moja	-8180
▁bave	-8181
▁krva	-8182
▁post	-8183
▁proz	-8184
▁uzeo	-8185
▁Vidje	-8186
▁nepre	-8187
▁šansu	-8188
vjeroja	-8189
▁pomažu	-8190
▁učinio	-8191
▁Italija	-8192
▁Rezulta	-8193
▁autenti	-8194
▁elektra	-8195
▁favorit	-8196
▁rezervi	-8197
▁studije	-8198
▁izazvala	-8199
▁pronašao	-8200
▁tužitelj	-8201
▁relativno	-8202
▁infrastrukturu	-8203
%2	-8204
Tu	-8205
▁MA	-8206
▁cm	-8207
ding	-8208
rona	-8209
▁ute	-8210
▁Svje	-8211
▁Ured	-8212
▁mađa	-8213
▁niže	-8214
CIONAL	-8215
▁Ronal	-8216
▁Slije	-8217
▁2024.,	-8218
▁knjigu	-8219
▁kompli	-8220
▁otišli	-8221
▁pregle	-8222
▁bilježi	-8223
▁dopušte	-8224
▁integra	-8225
▁iskreno	-8226
▁progovo	-8227
▁telefon	-8228
▁trebate	-8229
▁uistinu	-8230
▁direktno	-8231
▁rezultira	-8232
▁stvaranje	-8233
▁Ministarstvu	-8234
nat	-8235
sca	-8236
▁54	-8237
▁oh	-8238
čicu	-8239
▁Com	-8240
▁Maj	-8241
▁Rad	-8242
▁umr	-8243
title	-8244
▁Antu	-8245
▁logo	-8246
▁orga	-8247
▁poha	-8248
▁stil	-8249
▁suca	-8250
donače	-8251
▁plaću	-8252
▁prire	-8253
▁propu	-8254
▁Dražen	-8255
▁Lucija	-8256
▁osuđen	-8257
▁rizika	-8258
▁startu	-8259
▁Program	-8260
▁ciljeve	-8261
▁postupku	-8262
▁doznajemo	-8263
▁politička	-8264
▁pregovara	-8265
▁predsjedniku	-8266
▁inteligencije	-8267
ip	-8268
▁HG	-8269
▁ZA	-8270
vidu	-8271
▁Oko	-8272
▁Ton	-8273
▁jom	-8274
▁nes	-8275
▁udo	-8276
▁uma	-8277
▁Anđe	-8278
▁druk	-8279
▁uzor	-8280
dnosti	-8281
▁Peter	-8282
▁javio	-8283
▁pucao	-8284
▁kamere	-8285
▁održao	-8286
▁ožujku	-8287
▁podsje	-8288
▁Stjepan	-8289
▁Nekoliko	-8290
▁komisije	-8291
▁lokacije	-8292
▁sporazum	-8293
▁stranaka	-8294
▁trenutke	-8295
▁ulaznice	-8296
▁Europskoj	-8297
▁prioritet	-8298
▁obiteljske	-8299
▁prihvatiti	-8300
▁projektima	-8301
▁iznenađenje	-8302
▁korisnicima	-8303
RE	-8304
ntu	-8305
tic	-8306
▁MO	-8307
▁tj	-8308
ljda	-8309
▁Max	-8310
▁dubi	-8311
▁išao	-8312
▁pobu	-8313
▁Hamas	-8314
▁ispro	-8315
▁kreću	-8316
▁onome	-8317
▁stižu	-8318
▁sviđa	-8319
▁težak	-8320
žavanje	-8321
▁Ludbre	-8322
▁Penava	-8323
▁brojem	-8324
▁dijele	-8325
▁oznaka	-8326
▁stavio	-8327
▁ciljeva	-8328
▁emisija	-8329
▁odlukom	-8330
▁planove	-8331
▁posebnu	-8332
▁pregovo	-8333
▁NACIONAL	-8334
▁definira	-8335
▁izvješću	-8336
▁kolegama	-8337
▁mjesečno	-8338
▁osigurao	-8339
▁pronašla	-8340
▁američkih	-8341
▁najboljeg	-8342
▁maksimalno	-8343
wo	-8344
▁NK	-8345
mima	-8346
▁Mag	-8347
▁ber	-8348
▁pop	-8349
▁uga	-8350
▁Karo	-8351
▁Vide	-8352
▁duže	-8353
▁miro	-8354
▁čuva	-8355
nijeli	-8356
vljava	-8357
▁Zvoni	-8358
▁intim	-8359
▁kažem	-8360
mentira	-8361
▁albuma	-8362
▁igrala	-8363
▁nosila	-8364
▁polako	-8365
▁premda	-8366
▁sretni	-8367
▁talija	-8368
▁karakte	-8369
▁ključna	-8370
▁talenti	-8371
▁vratima	-8372
▁zagrija	-8373
▁članice	-8374
▁Severina	-8375
▁Utakmica	-8376
▁godišnja	-8377
▁odigrati	-8378
▁socijalne	-8379
▁zahtijeva	-8380
▁djelovanja	-8381
▁nacionalnih	-8382
▁zdravstvenih	-8383
▁x	-8384
Lju	-8385
rad	-8386
rke	-8387
▁IT	-8388
elim	-8389
mske	-8390
▁1,5	-8391
mokra	-8392
▁Onda	-8393
▁opse	-8394
▁prat	-8395
▁svla	-8396
▁trča	-8397
▁ženu	-8398
šavaju	-8399
▁Bruno	-8400
▁Petri	-8401
▁evaku	-8402
▁malim	-8403
▁mirno	-8404
▁obale	-8405
▁svoga	-8406
ljivost	-8407
▁Livaja	-8408
▁Navija	-8409
▁izgubi	-8410
▁karton	-8411
▁trofej	-8412
▁Jadroli	-8413
▁derbiju	-8414
▁doznaje	-8415
▁ostatak	-8416
▁suočava	-8417
▁govorimo	-8418
▁lokaciji	-8419
▁Republika	-8420
▁Sloveniji	-8421
▁komercija	-8422
▁liječnici	-8423
▁ozlijeđen	-8424
▁pozitivan	-8425
▁sportskih	-8426
▁Primjerice	-8427
▁generacija	-8428
▁pokušavaju	-8429
▁aktivnostima	-8430
▁najpopularni	-8431
dia	-8432
una	-8433
▁05	-8434
lini	-8435
vača	-8436
ževa	-8437
▁Lan	-8438
▁ate	-8439
▁ise	-8440
▁let	-8441
▁sav	-8442
▁Uskr	-8443
▁aero	-8444
▁mate	-8445
▁moji	-8446
▁puni	-8447
▁tuma	-8448
loškog	-8449
▁Brani	-8450
▁Yorku	-8451
▁brine	-8452
▁hitno	-8453
▁izlaz	-8454
▁izvla	-8455
▁jesen	-8456
▁oboje	-8457
▁pomor	-8458
▁ugovo	-8459
▁mogući	-8460
▁ovakav	-8461
▁spekta	-8462
▁učinak	-8463
▁Donalda	-8464
▁kazneni	-8465
▁održivo	-8466
▁pjesmom	-8467
▁sastavu	-8468
▁naprijed	-8469
▁nezabora	-8470
▁treninga	-8471
▁kontrover	-8472
▁pozitivno	-8473
▁praktički	-8474
▁djelatnika	-8475
▁zagrebačkoj	-8476
▁natjecanjima	-8477
▁tradicionalno	-8478
adi	-8479
ray	-8480
sar	-8481
▁(8	-8482
▁Oz	-8483
▁BDP	-8484
▁Can	-8485
▁fol	-8486
▁mra	-8487
laska	-8488
renju	-8489
▁sala	-8490
▁Daily	-8491
▁Grand	-8492
▁Nikad	-8493
▁Sindi	-8494
▁hidro	-8495
▁primi	-8496
▁utrci	-8497
▁Franjo	-8498
▁adekva	-8499
▁motiva	-8500
▁prehra	-8501
▁teškim	-8502
▁upravi	-8503
▁Valenti	-8504
▁asisten	-8505
▁uslijed	-8506
▁Austrija	-8507
▁dostojan	-8508
▁pokušaja	-8509
▁priznati	-8510
▁prvoliga	-8511
▁reagirao	-8512
▁sastanka	-8513
▁ustanove	-8514
▁sredstvima	-8515
▁predstaviti	-8516
eg	-8517
▁Wi	-8518
nela	-8519
slov	-8520
stop	-8521
▁Izbo	-8522
▁Rich	-8523
▁niza	-8524
▁nska	-8525
▁srcu	-8526
▁udio	-8527
▁sanja	-8528
▁Prošle	-8529
▁brzine	-8530
▁dobrim	-8531
▁razina	-8532
▁inzisti	-8533
▁kaznena	-8534
▁krajnje	-8535
▁meteoro	-8536
▁mladima	-8537
▁nastavi	-8538
▁svojevr	-8539
▁Hrvatsko	-8540
▁cijenama	-8541
▁dodatnih	-8542
▁koncertu	-8543
▁aktivnost	-8544
▁influence	-8545
▁republika	-8546
▁usporedbi	-8547
▁poboljšati	-8548
▁ravnatelja	-8549
▁utakmicama	-8550
▁posljednjem	-8551
▁kontinuirano	-8552
▁posjetitelje	-8553
Dis	-8554
▁52	-8555
ming	-8556
stić	-8557
veni	-8558
tović	-8559
štinu	-8560
▁kamo	-8561
▁polj	-8562
▁Ništa	-8563
▁Svaka	-8564
▁nadzo	-8565
▁oblik	-8566
Display	-8567
▁Branko	-8568
▁javnih	-8569
▁osloba	-8570
▁pjevač	-8571
▁spomen	-8572
▁Americi	-8573
▁umjetne	-8574
▁visokim	-8575
▁današnje	-8576
▁količine	-8577
▁prijelaz	-8578
▁konačnici	-8579
▁roditelje	-8580
▁električne	-8581
▁upozoravaju	-8582
▁posjetitelja	-8583
▁PD	-8584
▁ch	-8585
rnim	-8586
ston	-8587
▁Sud	-8588
▁Uni	-8589
▁čuo	-8590
kujem	-8591
njene	-8592
đenim	-8593
▁Neka	-8594
▁kosu	-8595
▁ligu	-8596
▁ljep	-8597
▁spoj	-8598
riraju	-8599
▁Misli	-8600
▁fokus	-8601
▁odbor	-8602
▁tabli	-8603
▁štiti	-8604
ditetom	-8605
▁Bruxel	-8606
▁dobrih	-8607
▁dovolj	-8608
▁elemen	-8609
▁izvori	-8610
▁javila	-8611
cionalno	-8612
▁Dnevnik	-8613
▁promovi	-8614
▁stotine	-8615
▁odnosima	-8616
▁oporavak	-8617
▁otvorila	-8618
▁politici	-8619
▁ulaznica	-8620
▁elektroni	-8621
▁liječenje	-8622
▁osigurali	-8623
▁sudjeluju	-8624
▁teritorija	-8625
▁invaliditetom	-8626
15	-8627
ZO	-8628
bni	-8629
▁76	-8630
enju	-8631
kana	-8632
▁Rim	-8633
▁Vol	-8634
▁Stri	-8635
▁legi	-8636
▁otok	-8637
▁park	-8638
▁Imate	-8639
▁Mosta	-8640
▁Ruski	-8641
▁Važno	-8642
▁karte	-8643
▁našli	-8644
▁pasti	-8645
▁snazi	-8646
▁vozio	-8647
▁odakle	-8648
▁primio	-8649
▁protek	-8650
▁recimo	-8651
▁Sigurno	-8652
▁graditi	-8653
▁nasmija	-8654
▁neizvje	-8655
▁rijetki	-8656
▁domaćina	-8657
▁koordina	-8658
▁napadača	-8659
▁pobijedi	-8660
▁potreban	-8661
▁prihvaća	-8662
▁službene	-8663
▁provoditi	-8664
▁sportskog	-8665
▁Aleksandar	-8666
▁ukrajinski	-8667
▁zamijeniti	-8668
dr	-8669
ral	-8670
▁73	-8671
▁gle	-8672
ekuje	-8673
levan	-8674
▁Guar	-8675
▁Mosk	-8676
▁brže	-8677
▁deba	-8678
▁priu	-8679
zirali	-8680
▁krize	-8681
▁najja	-8682
▁stavo	-8683
▁Jandro	-8684
▁izjava	-8685
▁odmora	-8686
▁zločin	-8687
▁Problem	-8688
▁dodatni	-8689
▁istaknu	-8690
▁izrazio	-8691
▁mobitel	-8692
▁individu	-8693
▁spominje	-8694
▁stranice	-8695
▁identitet	-8696
▁izvijestili	-8697
▁potpredsjednik	-8698
▁Ex	-8699
elje	-8700
gura	-8701
menu	-8702
njiv	-8703
vent	-8704
čera	-8705
žnoj	-8706
▁!",	-8707
▁700	-8708
▁MUP	-8709
▁dim	-8710
▁hva	-8711
mjese	-8712
čajan	-8713
▁Kola	-8714
▁meso	-8715
▁ušla	-8716
▁vagi	-8717
lanovi	-8718
▁Ljubi	-8719
▁kupio	-8720
▁nosio	-8721
▁zapri	-8722
▁šesto	-8723
sjetila	-8724
▁Taylor	-8725
▁izjavi	-8726
▁izjavu	-8727
▁nikoga	-8728
▁pravde	-8729
▁simbol	-8730
▁smjera	-8731
▁Reuters	-8732
▁Vukovar	-8733
▁dodavši	-8734
▁radnici	-8735
▁kolovozu	-8736
▁objekata	-8737
▁poslovni	-8738
▁povratka	-8739
▁registar	-8740
▁svijesti	-8741
donačelnik	-8742
▁Lokomotive	-8743
▁objavljena	-8744
▁partnerima	-8745
▁političkog	-8746
▁pripremiti	-8747
▁upozorenja	-8748
▁konferencije	-8749
ljo	-8750
ndu	-8751
▁Ap	-8752
▁HZ	-8753
šnih	-8754
▁Ple	-8755
▁Plo	-8756
▁sig	-8757
štini	-8758
▁Nisu	-8759
▁West	-8760
▁brak	-8761
▁pune	-8762
▁remi	-8763
▁tole	-8764
▁ubla	-8765
▁umro	-8766
▁Marti	-8767
▁Varte	-8768
▁cilju	-8769
▁našla	-8770
▁ponaj	-8771
▁utrka	-8772
▁Donald	-8773
▁fokusi	-8774
▁potraž	-8775
▁radilo	-8776
▁subven	-8777
▁ugodno	-8778
▁zavoda	-8779
▁Dominik	-8780
▁lokalno	-8781
▁ukazuje	-8782
▁Đoković	-8783
▁Gradskog	-8784
▁Petković	-8785
▁poginuli	-8786
▁neočekiva	-8787
7)	-8788
LI	-8789
fri	-8790
pin	-8791
▁57	-8792
▁Mü	-8793
redo	-8794
šnog	-8795
▁Egi	-8796
▁Mel	-8797
▁Mur	-8798
▁onu	-8799
ljuje	-8800
▁Bulj	-8801
▁Mali	-8802
▁gale	-8803
▁nadu	-8804
▁osti	-8805
koviti	-8806
▁Odmah	-8807
▁atrak	-8808
▁iscrp	-8809
▁stres	-8810
▁sugla	-8811
▁teret	-8812
▁šalje	-8813
▁Anušić	-8814
▁Rijeku	-8815
▁komada	-8816
▁najdra	-8817
▁ofenzi	-8818
▁sportu	-8819
▁varija	-8820
▁boravak	-8821
▁dijagno	-8822
▁izabran	-8823
▁proveli	-8824
▁spremna	-8825
▁Danijela	-8826
▁općenito	-8827
▁povezuje	-8828
▁spektakl	-8829
▁suradnja	-8830
▁fakulteta	-8831
▁izgledati	-8832
▁korupcije	-8833
▁strateški	-8834
▁uključuju	-8835
▁održavanja	-8836
▁destinacija	-8837
▁investicije	-8838
▁potencijalno	-8839
can	-8840
kvu	-8841
sel	-8842
sve	-8843
▁51	-8844
▁62	-8845
▁10,	-8846
▁Far	-8847
▁Mid	-8848
▁Wol	-8849
▁dar	-8850
▁sun	-8851
gazin	-8852
ndida	-8853
▁Saudi	-8854
▁makar	-8855
▁propi	-8856
▁termi	-8857
▁uglji	-8858
▁govora	-8859
▁iskori	-8860
▁navela	-8861
▁servis	-8862
▁snažno	-8863
▁snimka	-8864
▁alkohol	-8865
▁gubitak	-8866
▁promica	-8867
▁pročita	-8868
▁supruge	-8869
▁uspjeti	-8870
▁izrazito	-8871
▁pojasnio	-8872
▁sjednice	-8873
▁napustiti	-8874
▁postaviti	-8875
▁odgovorila	-8876
▁prepoznati	-8877
▁provjeriti	-8878
▁ć	-8879
eri	-8880
fan	-8881
▁AP	-8882
▁Uo	-8883
anja	-8884
etka	-8885
▁Kim	-8886
djeti	-8887
stica	-8888
▁Bari	-8889
▁DHMZ	-8890
▁Puti	-8891
▁Skup	-8892
▁Vrho	-8893
▁chef	-8894
▁kose	-8895
▁malu	-8896
▁memo	-8897
▁mono	-8898
▁rane	-8899
Cropix	-8900
▁Grbin	-8901
▁Istri	-8902
▁imalo	-8903
▁jasan	-8904
▁lopte	-8905
▁najam	-8906
▁nužno	-8907
▁pišto	-8908
▁stilu	-8909
▁Master	-8910
▁akciji	-8911
▁autora	-8912
▁držati	-8913
▁obveze	-8914
▁osmije	-8915
▁pouzda	-8916
▁predje	-8917
▁prekri	-8918
▁smisla	-8919
▁tekstu	-8920
▁tisuću	-8921
▁vješta	-8922
▁zračne	-8923
▁detalja	-8924
▁izdanja	-8925
▁izdvaja	-8926
▁međusob	-8927
▁naknade	-8928
▁pomisli	-8929
▁potrebi	-8930
▁prijela	-8931
▁sjeveru	-8932
▁skupinu	-8933
▁trebati	-8934
▁diplomat	-8935
▁izvješta	-8936
▁Hrvatskih	-8937
▁francuski	-8938
▁platforma	-8939
▁odgovoriti	-8940
▁uzrokovati	-8941
▁informaciju	-8942
▁karakteristi	-8943
0)	-8944
Ca	-8945
dle	-8946
eki	-8947
mato	-8948
tala	-8949
zite	-8950
▁800	-8951
▁Haj	-8952
tanja	-8953
čenju	-8954
▁Navo	-8955
▁inja	-8956
▁luci	-8957
▁šefa	-8958
vilima	-8959
▁Mjese	-8960
▁Mlado	-8961
▁Novog	-8962
▁brata	-8963
▁brita	-8964
▁ideju	-8965
▁miris	-8966
▁možeš	-8967
▁nskom	-8968
▁plovi	-8969
▁slabi	-8970
cijskih	-8971
eficije	-8972
▁radnje	-8973
▁radove	-8974
▁Beograd	-8975
▁Kasnije	-8976
▁dozvole	-8977
▁origina	-8978
▁potrazi	-8979
▁slučaja	-8980
▁jedinice	-8981
▁najprije	-8982
▁studenom	-8983
▁vlastitu	-8984
▁potvrđuje	-8985
▁prijaviti	-8986
▁splitskog	-8987
▁sudjeluje	-8988
▁Francuskoj	-8989
cia	-8990
žom	-8991
varu	-8992
vede	-8993
▁Dor	-8994
▁Oso	-8995
▁Smi	-8996
▁hor	-8997
▁ilu	-8998
▁nik	-8999
▁vao	-9000
▁Kaže	-9001
▁drže	-9002
▁jabu	-9003
▁krei	-9004
▁masa	-9005
▁robo	-9006
▁Darko	-9007
▁lopta	-9008
▁okvir	-9009
▁stara	-9010
▁čisti	-9011
▁Britan	-9012
▁Sandra	-9013
▁Sergej	-9014
▁hotelu	-9015
▁lagano	-9016
▁održan	-9017
▁osobni	-9018
▁sektor	-9019
▁tinejd	-9020
lnostima	-9021
▁emocije	-9022
▁sredine	-9023
▁Gvardiol	-9024
▁Rujevici	-9025
▁najbolju	-9026
▁sastanku	-9027
▁završili	-9028
▁nogometna	-9029
▁operacija	-9030
▁Nogometaši	-9031
▁industriji	-9032
▁iskoristio	-9033
▁nogometaši	-9034
▁zagrebačkog	-9035
ed	-9036
EFA	-9037
spa	-9038
▁EUR	-9039
▁ija	-9040
▁zgo	-9041
▁Đur	-9042
ganje	-9043
šteno	-9044
▁Klub	-9045
▁kuli	-9046
▁puna	-9047
▁2009.	-9048
▁Ivanu	-9049
▁Nasta	-9050
▁napao	-9051
▁otkaz	-9052
ficiran	-9053
▁brojke	-9054
▁instru	-9055
▁tjedno	-9056
▁vijeće	-9057
▁prebaci	-9058
▁prelazi	-9059
▁provela	-9060
▁demograf	-9061
▁glazbeni	-9062
▁neslužbe	-9063
▁stranica	-9064
▁ustvrdio	-9065
▁ostvarila	-9066
▁pacijenti	-9067
▁poslovnih	-9068
▁članovima	-9069
▁ravnateljica	-9070
:3	-9071
Ima	-9072
Sve	-9073
▁Ak	-9074
bala	-9075
▁Ken	-9076
▁krv	-9077
mično	-9078
rijet	-9079
▁Puli	-9080
▁nski	-9081
▁palo	-9082
▁Gospi	-9083
▁Mateo	-9084
▁filmo	-9085
▁kolod	-9086
▁kroni	-9087
▁najno	-9088
▁sedmo	-9089
▁showu	-9090
▁smiju	-9091
▁Gorice	-9092
▁kapeta	-9093
▁nimalo	-9094
▁prekid	-9095
▁regija	-9096
▁stipen	-9097
▁Londonu	-9098
▁dječaka	-9099
▁ključne	-9100
▁pružiti	-9101
▁shvatio	-9102
▁dvadeset	-9103
▁izazvati	-9104
▁izvanred	-9105
▁javljaju	-9106
▁nastupio	-9107
▁poduzeća	-9108
▁pokrenuo	-9109
▁prosjeka	-9110
▁objavljen	-9111
▁povećanja	-9112
▁pozornici	-9113
▁prehrambe	-9114
▁prometnih	-9115
▁zadovolji	-9116
▁zaljublje	-9117
▁administra	-9118
▁projektila	-9119
ić	-9120
cki	-9121
inu	-9122
▁?"	-9123
▁DJ	-9124
▁Qu	-9125
giju	-9126
gnut	-9127
leta	-9128
▁Kup	-9129
▁Sim	-9130
▁Voj	-9131
▁kvi	-9132
▁ref	-9133
nirao	-9134
▁Arse	-9135
▁Krem	-9136
▁Maru	-9137
▁Voyo	-9138
▁star	-9139
▁vete	-9140
▁Dario	-9141
▁Dvije	-9142
▁ishod	-9143
▁metra	-9144
▁nepro	-9145
▁poveo	-9146
▁rasti	-9147
▁sveće	-9148
▁utrku	-9149
▁videa	-9150
varanju	-9151
▁glavne	-9152
▁naveli	-9153
▁visini	-9154
▁fondova	-9155
▁konzuma	-9156
▁ljudska	-9157
▁najnovi	-9158
▁odličan	-9159
▁poslati	-9160
▁svladao	-9161
▁kampanja	-9162
▁najvećim	-9163
▁prevlada	-9164
▁napominje	-9165
▁činjenice	-9166
▁problemati	-9167
▁prostorima	-9168
tte	-9169
rnom	-9170
▁2-0	-9171
bljen	-9172
đenog	-9173
▁UEFA	-9174
▁Znam	-9175
▁jači	-9176
▁kave	-9177
▁lega	-9178
▁peto	-9179
▁suci	-9180
laciju	-9181
▁Flori	-9182
▁bolju	-9183
▁datum	-9184
▁infor	-9185
▁njena	-9186
▁obave	-9187
▁reper	-9188
▁stupa	-9189
▁toplo	-9190
▁snimku	-9191
▁vjetra	-9192
▁vodeći	-9193
▁vodila	-9194
▁Kovačić	-9195
▁Najveći	-9196
▁Postoje	-9197
▁baštine	-9198
▁crijeva	-9199
▁relevan	-9200
▁trebale	-9201
▁Krešimir	-9202
▁mirovina	-9203
▁proglasi	-9204
▁vještine	-9205
▁kvaliteta	-9206
▁namirnice	-9207
▁pravosuđa	-9208
▁životinje	-9209
▁organizatori	-9210
**	-9211
IV	-9212
ast	-9213
daš	-9214
▁56	-9215
▁OP	-9216
jicu	-9217
piju	-9218
štem	-9219
▁Koji	-9220
▁Mata	-9221
▁duži	-9222
▁liko	-9223
▁mati	-9224
▁obro	-9225
▁rake	-9226
▁tret	-9227
▁Beroš	-9228
▁pogla	-9229
▁pokoj	-9230
▁vladi	-9231
▁Gordan	-9232
▁odavno	-9233
▁vodili	-9234
▁živimo	-9235
▁Madrida	-9236
▁posebna	-9237
▁tenisač	-9238
▁aktualni	-9239
▁plaćanja	-9240
▁poznatog	-9241
▁Republici	-9242
▁inflacije	-9243
▁naglasila	-9244
▁osigurala	-9245
▁objavljeno	-9246
▁promijenio	-9247
▁protivnika	-9248
bel	-9249
▁Val	-9250
▁bre	-9251
▁zre	-9252
elnik	-9253
roman	-9254
▁Alen	-9255
▁Imam	-9256
▁Nico	-9257
▁crta	-9258
▁geno	-9259
▁gost	-9260
▁kavu	-9261
▁kupi	-9262
▁pomi	-9263
▁Gabri	-9264
▁Meksi	-9265
▁scenu	-9266
▁United	-9267
▁gledao	-9268
▁izboru	-9269
▁ljubim	-9270
▁recept	-9271
▁samopo	-9272
▁vezane	-9273
▁voziti	-9274
▁zadnja	-9275
▁dozvola	-9276
▁periodu	-9277
▁poginuo	-9278
▁pogledu	-9279
▁postalo	-9280
▁ravnote	-9281
▁slavili	-9282
▁izvješće	-9283
▁fakultetu	-9284
▁platforme	-9285
▁potaknuti	-9286
▁prilagodi	-9287
▁ministrica	-9288
▁talijanski	-9289
▁komentirati	-9290
▁raspolaganju	-9291
OM	-9292
gar	-9293
▁63	-9294
bacu	-9295
liji	-9296
nist	-9297
tete	-9298
▁Rea	-9299
▁nor	-9300
vajte	-9301
činje	-9302
▁Boga	-9303
▁Pret	-9304
▁ospo	-9305
▁skre	-9306
▁zone	-9307
▁Čako	-9308
▁čaro	-9309
▁Bunde	-9310
▁sramo	-9311
▁lijepi	-9312
▁luksuz	-9313
▁razred	-9314
▁srušio	-9315
razumije	-9316
▁glavnih	-9317
▁podatak	-9318
▁glazbene	-9319
▁komentar	-9320
▁napisali	-9321
▁odlučiti	-9322
▁posvećen	-9323
▁predmeta	-9324
▁pretežno	-9325
▁snimanja	-9326
▁upoznali	-9327
▁vlasnici	-9328
▁zajednici	-9329
▁zdravstvo	-9330
-5	-9331
▁67	-9332
ljno	-9333
▁1-0	-9334
▁2-1	-9335
▁eta	-9336
riran	-9337
tijih	-9338
▁tipa	-9339
▁čkoj	-9340
▁šuma	-9341
ljenog	-9342
stribu	-9343
▁Japan	-9344
▁bizni	-9345
▁dviju	-9346
▁hibri	-9347
▁koncu	-9348
▁sunca	-9349
▁vašeg	-9350
▁vrući	-9351
lovanje	-9352
▁Daniel	-9353
▁Danije	-9354
▁Mladen	-9355
▁Srbiju	-9356
▁kralja	-9357
▁potiče	-9358
▁seriju	-9359
▁spasio	-9360
▁teksto	-9361
▁trećeg	-9362
▁zelene	-9363
▁Marijan	-9364
▁Vrijeme	-9365
▁analiti	-9366
▁objekti	-9367
▁sredini	-9368
▁stavite	-9369
▁poručuje	-9370
▁pandemije	-9371
▁televiziji	-9372
▁zastupnici	-9373
▁ponedjeljka	-9374
▁kandidatkinja	-9375
▁99	-9376
▁Ky	-9377
daka	-9378
▁(19	-9379
▁Jor	-9380
▁Pje	-9381
▁čin	-9382
denti	-9383
ventu	-9384
▁Imao	-9385
▁Kina	-9386
▁dugu	-9387
▁gene	-9388
▁kalo	-9389
▁loši	-9390
▁pasa	-9391
▁rock	-9392
▁tebe	-9393
▁vali	-9394
▁Carlo	-9395
▁benda	-9396
▁jutra	-9397
▁kakvo	-9398
▁najza	-9399
▁vruće	-9400
grafije	-9401
▁Hamasa	-9402
▁Općina	-9403
▁brzinu	-9404
▁istinu	-9405
▁mladim	-9406
▁muzeja	-9407
▁obnovu	-9408
▁potres	-9409
▁shvaća	-9410
▁četvor	-9411
▁Izraelu	-9412
▁napušta	-9413
▁poslala	-9414
▁simpati	-9415
▁dostupan	-9416
▁najavila	-9417
▁ozbiljne	-9418
▁posebnim	-9419
▁privatni	-9420
▁splitski	-9421
▁stvaraju	-9422
▁internetu	-9423
▁međusobno	-9424
▁mišljenja	-9425
▁pokrenula	-9426
▁predstave	-9427
▁sudjelovala	-9428
▁poljoprivrede	-9429
▁kriminalističko	-9430
EN	-9431
uk	-9432
rač	-9433
sal	-9434
ssa	-9435
▁72	-9436
tlja	-9437
▁Bad	-9438
▁Cla	-9439
▁She	-9440
▁Ter	-9441
▁fru	-9442
▁žal	-9443
prave	-9444
sport	-9445
▁Mara	-9446
▁Mato	-9447
▁Toki	-9448
▁cipe	-9449
▁kiru	-9450
▁pića	-9451
pustio	-9452
▁Reala	-9453
▁drama	-9454
▁droge	-9455
▁otpad	-9456
▁spada	-9457
šavanje	-9458
▁Bayern	-9459
▁mislio	-9460
▁nekome	-9461
▁Poslije	-9462
▁odradio	-9463
▁tražili	-9464
▁zahtije	-9465
▁izgubiti	-9466
▁magistra	-9467
▁ponuditi	-9468
▁sportaša	-9469
▁otvaranje	-9470
▁najavljuje	-9471
▁okolnostima	-9472
▁ozlijeđenih	-9473
vis	-9474
žja	-9475
▁61	-9476
▁Am	-9477
▁OV	-9478
mski	-9479
▁30-	-9480
▁Tuđ	-9481
▁ama	-9482
▁ici	-9483
▁Kori	-9484
▁Mami	-9485
▁suho	-9486
▁test	-9487
▁trud	-9488
▁čuje	-9489
▁Nijem	-9490
▁Stipe	-9491
▁molit	-9492
▁njegu	-9493
▁pretr	-9494
▁rasko	-9495
cijskog	-9496
▁Rusiju	-9497
▁kratki	-9498
▁nomina	-9499
▁poklon	-9500
▁ubacio	-9501
▁valjda	-9502
▁Berlinu	-9503
▁Njihova	-9504
▁bolnica	-9505
▁sigurna	-9506
▁visokih	-9507
▁Njemačku	-9508
▁medicine	-9509
▁otvoreni	-9510
▁podrijet	-9511
▁pretvara	-9512
▁primanja	-9513
▁zdravlju	-9514
▁značajan	-9515
▁financira	-9516
▁incidenta	-9517
▁koeficije	-9518
▁promjenama	-9519
▁dugogodišnji	-9520
škol	-9521
▁Eko	-9522
▁Ran	-9523
▁argu	-9524
▁baka	-9525
▁bazi	-9526
▁hero	-9527
▁libe	-9528
▁spon	-9529
▁Joško	-9530
▁Nenad	-9531
▁karti	-9532
▁nekoj	-9533
▁ojača	-9534
▁tajna	-9535
▁Brazil	-9536
▁dječak	-9537
▁posjet	-9538
▁izaziva	-9539
▁psihija	-9540
▁uvjeren	-9541
▁dijelove	-9542
▁izgublje	-9543
▁podržati	-9544
▁programe	-9545
▁djelovanje	-9546
▁dužnosnici	-9547
▁podijeliti	-9548
▁prijatelje	-9549
▁investicija	-9550
▁proizvodnja	-9551
▁slučajevima	-9552
▁kvalifikacija	-9553
up	-9554
▁KS	-9555
▁VI	-9556
▁hr	-9557
tati	-9558
čaju	-9559
▁203	-9560
▁Imo	-9561
▁čko	-9562
zanja	-9563
▁Gdje	-9564
▁Neće	-9565
▁zoni	-9566
▁2008.	-9567
▁2010.	-9568
▁Djeca	-9569
▁Konce	-9570
▁Video	-9571
▁blaga	-9572
▁crkvi	-9573
▁istim	-9574
▁manja	-9575
▁orije	-9576
▁Promet	-9577
▁imenom	-9578
▁objava	-9579
▁osobne	-9580
▁prešao	-9581
▁Charles	-9582
▁TikToku	-9583
▁djelova	-9584
▁domaćem	-9585
▁izazova	-9586
▁obaveza	-9587
▁priušti	-9588
▁uzastop	-9589
▁kulturne	-9590
▁pokušaju	-9591
▁čišćenje	-9592
▁objasniti	-9593
▁ozlijedio	-9594
▁prijetnja	-9595
▁umjetnika	-9596
▁industrija	-9597
▁medicinske	-9598
▁obiteljima	-9599
▁Olimpijskih	-9600
▁centimetara	-9601
▁Španjolskoj	-9602
▁četvrtfinale	-9603
05	-9604
:5	-9605
src	-9606
use	-9607
ruju	-9608
▁Sho	-9609
▁uvr	-9610
berne	-9611
tetom	-9612
vijet	-9613
▁Jura	-9614
▁niji	-9615
▁zvuk	-9616
▁2006.	-9617
▁Sopić	-9618
▁Ulica	-9619
▁bruto	-9620
▁imale	-9621
▁kasno	-9622
▁masla	-9623
▁roman	-9624
▁skrom	-9625
▁dnevna	-9626
▁izašli	-9627
▁jeseni	-9628
▁opcije	-9629
▁Modrića	-9630
▁gradili	-9631
▁kratkom	-9632
▁novosti	-9633
▁optužbe	-9634
▁poznaje	-9635
▁Večernji	-9636
▁dominira	-9637
▁državnih	-9638
▁funkciju	-9639
▁okrivlje	-9640
▁višestru	-9641
▁materijal	-9642
▁popularni	-9643
▁automobilu	-9644
▁djelatnici	-9645
▁mjestimice	-9646
▁obilježava	-9647
▁odgovaraju	-9648
▁samopouzda	-9649
▁automobilom	-9650
UD	-9651
▁Ed	-9652
▁PA	-9653
diju	-9654
nita	-9655
zabe	-9656
▁2,5	-9657
▁Ala	-9658
▁Boy	-9659
▁ost	-9660
alost	-9661
▁Dječ	-9662
▁Jose	-9663
▁idea	-9664
▁modu	-9665
▁okus	-9666
▁sana	-9667
▁sobe	-9668
▁stao	-9669
▁tata	-9670
▁vašu	-9671
▁šved	-9672
▁bespo	-9673
▁izgla	-9674
▁mozga	-9675
▁proto	-9676
lovanja	-9677
đivanja	-9678
▁Godine	-9679
▁Horvat	-9680
▁lijepe	-9681
▁oblaka	-9682
▁pravne	-9683
▁sjajan	-9684
▁talent	-9685
▁Ljublja	-9686
▁Obitelj	-9687
▁prirodi	-9688
▁upoznao	-9689
▁distribu	-9690
▁kaznenih	-9691
▁poručuju	-9692
▁rasprave	-9693
▁registra	-9694
▁restoran	-9695
▁glazbenik	-9696
▁godišnjoj	-9697
▁okruženju	-9698
▁završnici	-9699
▁poboljšanje	-9700
▁odvjetništvo	-9701
ED	-9702
Sa	-9703
dba	-9704
mno	-9705
šoj	-9706
▁?!	-9707
▁Mba	-9708
▁Nad	-9709
▁lji	-9710
▁tan	-9711
▁News	-9712
▁Rade	-9713
▁Volo	-9714
▁dani	-9715
▁danu	-9716
▁gita	-9717
▁kapi	-9718
▁mesa	-9719
▁plje	-9720
▁Ovako	-9721
▁Znači	-9722
▁malom	-9723
▁mosta	-9724
▁pošti	-9725
▁spoji	-9726
▁svrhu	-9727
▁vrstu	-9728
▁zavod	-9729
▁žrtva	-9730
▁Vijeća	-9731
▁sabora	-9732
▁gledaju	-9733
▁govorila	-9734
▁gradskog	-9735
▁koristio	-9736
▁prezenta	-9737
▁shvatiti	-9738
▁slučajno	-9739
▁troškovi	-9740
▁Tomislava	-9741
▁doživjela	-9742
▁političku	-9743
▁zagrebački	-9744
eld	-9745
ilo	-9746
kru	-9747
sso	-9748
ipzi	-9749
▁PDV	-9750
▁fir	-9751
▁umo	-9752
tropo	-9753
▁Kini	-9754
▁Pone	-9755
▁Salz	-9756
▁kari	-9757
▁real	-9758
▁saču	-9759
▁trau	-9760
▁voka	-9761
▁zavi	-9762
▁ković	-9763
▁odred	-9764
▁ovima	-9765
▁staze	-9766
etvrtak	-9767
▁Dortmu	-9768
▁dodaju	-9769
▁podupi	-9770
▁premje	-9771
▁sretna	-9772
▁suspen	-9773
▁šećera	-9774
▁granicu	-9775
▁izvedbe	-9776
▁referen	-9777
▁smatram	-9778
▁vladaju	-9779
▁vrijeđa	-9780
▁Svjetsko	-9781
▁dodijeli	-9782
▁najuspje	-9783
▁poginulo	-9784
▁pogodaka	-9785
▁autocesti	-9786
▁pokrenuti	-9787
▁činjenicu	-9788
▁Lokomotiva	-9789
▁poluvremena	-9790
hati	-9791
viji	-9792
▁Ade	-9793
▁Bur	-9794
tnicu	-9795
▁doho	-9796
▁zamr	-9797
▁oruža	-9798
▁pisao	-9799
▁pomak	-9800
▁ubija	-9801
berneti	-9802
▁dobrog	-9803
▁mladog	-9804
▁rodila	-9805
▁sadrži	-9806
mentirao	-9807
▁Zapravo	-9808
▁isproba	-9809
▁poslali	-9810
▁članove	-9811
▁državama	-9812
▁kretanja	-9813
▁nemoguće	-9814
▁osjećaju	-9815
▁provjere	-9816
▁scenarij	-9817
▁svjedoči	-9818
▁zabavlja	-9819
▁istaknuli	-9820
▁podsjetio	-9821
▁policajci	-9822
▁pozornicu	-9823
▁priopćila	-9824
▁priznanja	-9825
▁reagirati	-9826
',	-9827
IC	-9828
ija	-9829
ppe	-9830
und	-9831
▁53	-9832
▁68	-9833
▁IN	-9834
▁OI	-9835
chel	-9836
ninu	-9837
▁193	-9838
▁itd	-9839
▁žan	-9840
▁Mail	-9841
▁evoj	-9842
▁onom	-9843
▁zona	-9844
▁Legen	-9845
▁njime	-9846
▁slave	-9847
▁tvari	-9848
▁Četvr	-9849
▁Leipzi	-9850
▁atenta	-9851
▁opisao	-9852
▁raskri	-9853
▁srpske	-9854
▁tereta	-9855
▁vidjet	-9856
▁Amerike	-9857
▁boravka	-9858
▁logisti	-9859
▁nemojte	-9860
▁osobnih	-9861
▁Austriji	-9862
▁Butković	-9863
▁Nikolina	-9864
▁Sarajevu	-9865
▁donijeli	-9866
▁dostupne	-9867
▁kriminal	-9868
▁matemati	-9869
▁njezinom	-9870
▁Barcelona	-9871
▁najboljim	-9872
▁kontinenta	-9873
▁pripadnika	-9874
▁poljoprivred	-9875
▁Gradonačelnik	-9876
/2	-9877
SA	-9878
žo	-9879
dre	-9880
iji	-9881
sov	-9882
uti	-9883
▁95	-9884
▁SO	-9885
▁Ty	-9886
▁lj	-9887
lona	-9888
voja	-9889
▁Put	-9890
▁ška	-9891
posle	-9892
vniji	-9893
▁Bogu	-9894
▁Neke	-9895
▁Posa	-9896
▁Rodi	-9897
▁Sini	-9898
▁depo	-9899
▁gara	-9900
▁leta	-9901
▁moju	-9902
▁valu	-9903
▁voća	-9904
▁James	-9905
▁Polja	-9906
▁Ravna	-9907
▁budem	-9908
▁mojoj	-9909
▁njene	-9910
▁plavi	-9911
▁punom	-9912
▁Država	-9913
▁dvaput	-9914
▁obliko	-9915
▁pokraj	-9916
▁prikup	-9917
▁smijeh	-9918
▁strahu	-9919
▁svježe	-9920
▁takvog	-9921
▁visoka	-9922
▁zabave	-9923
▁zgradi	-9924
▁Elizabe	-9925
▁Vatroga	-9926
▁mandatu	-9927
▁maslino	-9928
▁napravi	-9929
▁ogroman	-9930
▁primili	-9931
▁Muškarac	-9932
▁Turudića	-9933
▁pripremu	-9934
▁ravnopra	-9935
▁spominja	-9936
▁godišnjeg	-9937
▁podnijeti	-9938
▁privatnom	-9939
▁sindikata	-9940
▁katastrofa	-9941
▁nedostatak	-9942
▁zaustavlja	-9943
▁Jugoslavije	-9944
eo	-9945
gr	-9946
the	-9947
čev	-9948
▁78	-9949
tant	-9950
▁Che	-9951
▁Dom	-9952
▁Omi	-9953
▁sol	-9954
ivotu	-9955
lanta	-9956
▁dize	-9957
▁faze	-9958
▁izva	-9959
▁išli	-9960
▁mnom	-9961
▁nade	-9962
▁sobi	-9963
▁utor	-9964
▁Bartu	-9965
▁Jenni	-9966
▁naran	-9967
▁samim	-9968
▁tajne	-9969
▁Premda	-9970
▁dizajn	-9971
▁opušte	-9972
▁poskup	-9973
▁radite	-9974
▁zakonu	-9975
▁dobrodo	-9976
▁domaćeg	-9977
▁izmjene	-9978
▁ključno	-9979
▁najveću	-9980
▁naslije	-9981
▁odlična	-9982
▁odrasli	-9983
▁radnike	-9984
▁studiju	-9985
▁Državnog	-9986
▁interpre	-9987
▁prosvjed	-9988
▁zahvalio	-9989
▁natječaja	-9990
▁nerijetko	-9991
▁pohvaliti	-9992
▁prosječna	-9993
▁protivnik	-9994
▁zahvaliti	-9995
▁dokumentar	-9996
▁nastavljaju	-9997
▁posljednjeg	-9998
▁razumijevanje	-9999
▁umirovljenika	-10000
ky	-10001
bna	-10002
lgi	-10003
tur	-10004
uth	-10005
zad	-10006
▁FI	-10007
šena	-10008
▁Mol	-10009
▁Mün	-10010
▁Poz	-10011
▁set	-10012
▁šar	-10013
▁šok	-10014
▁žao	-10015
nijom	-10016
▁Naši	-10017
▁Stru	-10018
▁nost	-10019
▁reka	-10020
kovića	-10021
▁Jakov	-10022
▁Pravi	-10023
▁Priča	-10024
▁banka	-10025
▁takvi	-10026
▁okonča	-10027
▁period	-10028
▁pitaju	-10029
▁emitira	-10030
▁glasati	-10031
▁poticaj	-10032
▁primiti	-10033
▁visokog	-10034
▁Marijana	-10035
▁ovogodiš	-10036
▁ozbiljan	-10037
▁pohvalio	-10038
▁pokušali	-10039
▁bogatstvo	-10040
▁britanski	-10041
▁koalicije	-10042
▁proglašen	-10043
▁studenata	-10044
▁Policijski	-10045
▁povjerenja	-10046
▁vjerojatnost	-10047
era	-10048
žih	-10049
▁DC	-10050
kalo	-10051
larm	-10052
pina	-10053
pova	-10054
čnik	-10055
▁Sli	-10056
▁Vil	-10057
▁Vir	-10058
▁lom	-10059
▁zbu	-10060
▁Sela	-10061
▁paki	-10062
bivali	-10063
tinjak	-10064
tivnom	-10065
▁Matić	-10066
▁Ulici	-10067
▁Volim	-10068
▁kance	-10069
▁krije	-10070
▁pismo	-10071
▁uteme	-10072
▁vanju	-10073
čavanje	-10074
▁10.000	-10075
▁Protiv	-10076
▁Službe	-10077
▁brenda	-10078
▁buduće	-10079
▁junior	-10080
▁odredi	-10081
▁straha	-10082
▁stresa	-10083
▁Državni	-10084
▁manjina	-10085
▁osobnog	-10086
▁pomogao	-10087
▁stanice	-10088
▁svlačio	-10089
▁zabrane	-10090
▁željeli	-10091
▁Jednosta	-10092
▁napadima	-10093
▁saborski	-10094
▁svejedno	-10095
▁zauvijek	-10096
▁drugačiji	-10097
▁kiberneti	-10098
▁namirnica	-10099
▁predstava	-10100
▁preminula	-10101
▁gostovanju	-10102
▁prostorija	-10103
▁podrazumije	-10104
▁procjenjuje	-10105
▁posjetitelji	-10106
202	-10107
Tok	-10108
gio	-10109
ove	-10110
ček	-10111
else	-10112
kšić	-10113
ping	-10114
▁Raj	-10115
▁ano	-10116
dnicu	-10117
njaka	-10118
šanje	-10119
▁Zavr	-10120
▁dale	-10121
▁dovr	-10122
▁efek	-10123
▁este	-10124
▁jače	-10125
▁omje	-10126
▁uvid	-10127
zivati	-10128
▁Marić	-10129
▁Patri	-10130
▁Pavić	-10131
▁brend	-10132
▁dimen	-10133
▁nafte	-10134
▁većim	-10135
▁Otvore	-10136
▁arhite	-10137
▁brojna	-10138
▁hladni	-10139
▁neutra	-10140
▁Nemojte	-10141
▁Rakitić	-10142
▁dvoboja	-10143
▁mislili	-10144
▁naoruža	-10145
▁ponosni	-10146
▁potpora	-10147
▁pozvala	-10148
▁savršen	-10149
▁sekunde	-10150
▁svjetla	-10151
▁Koprivni	-10152
▁Zvonimir	-10153
▁oduvijek	-10154
▁razmatra	-10155
▁službeni	-10156
▁upoznala	-10157
▁uređenja	-10158
▁pregovora	-10159
▁sljedećih	-10160
▁službenim	-10161
▁obavještaj	-10162
▁Domovinskom	-10163
hin	-10164
▁59	-10165
▁CN	-10166
▁En	-10167
▁Sv	-10168
▁Čo	-10169
▁duh	-10170
šljen	-10171
▁Bide	-10172
▁Cibo	-10173
▁Luci	-10174
▁SDSS	-10175
▁atle	-10176
▁duge	-10177
▁loša	-10178
▁najo	-10179
▁nivo	-10180
▁zbor	-10181
vković	-10182
čavaju	-10183
▁YouTu	-10184
▁Znate	-10185
▁krite	-10186
▁namet	-10187
▁slova	-10188
▁table	-10189
▁Često	-10190
▁Bidena	-10191
▁Cijeli	-10192
▁Puljak	-10193
▁Viktor	-10194
▁anketa	-10195
▁filozo	-10196
▁katoli	-10197
▁posade	-10198
▁radnom	-10199
▁senior	-10200
▁skriva	-10201
▁brodova	-10202
▁dvoboju	-10203
▁dvorane	-10204
▁izbjeći	-10205
▁nastave	-10206
▁noćenja	-10207
▁povezan	-10208
▁Marković	-10209
▁Mađarska	-10210
▁Petrović	-10211
▁konstruk	-10212
▁odraditi	-10213
▁određeni	-10214
▁pozicija	-10215
▁poznatih	-10216
▁priznaje	-10217
▁svjestan	-10218
▁trajanja	-10219
▁trgovina	-10220
▁Portugala	-10221
▁najuspješ	-10222
▁omogućava	-10223
▁prebivali	-10224
▁razvijati	-10225
▁restoranu	-10226
▁aplikacije	-10227
▁legendarni	-10228
▁desetljećima	-10229
▁komunikacija	-10230
ang	-10231
dže	-10232
pus	-10233
žar	-10234
▁as	-10235
▁eto	-10236
metni	-10237
▁fazu	-10238
▁kruh	-10239
▁zvje	-10240
▁Šimu	-10241
loških	-10242
▁Pariz	-10243
▁Thoma	-10244
▁ekipi	-10245
▁pogle	-10246
▁točke	-10247
▁vreći	-10248
mislite	-10249
▁2023.,	-10250
▁Govori	-10251
▁TikTok	-10252
▁aviona	-10253
▁konven	-10254
▁odjeću	-10255
▁općina	-10256
▁jedanae	-10257
▁obrazlo	-10258
▁razumje	-10259
▁točnije	-10260
▁Katarina	-10261
▁fakultet	-10262
▁pozivaju	-10263
▁rasprava	-10264
▁sjeverno	-10265
▁uspješan	-10266
▁prijevoza	-10267
▁privatnog	-10268
▁producent	-10269
▁tragedije	-10270
▁zemljišta	-10271
▁Aleksandra	-10272
▁uvjerljivo	-10273
▁inicijativu	-10274
▁četvrtfinalu	-10275
Pa	-10276
emu	-10277
rec	-10278
set	-10279
tvo	-10280
▁Ul	-10281
prem	-10282
teru	-10283
▁ATP	-10284
▁Smo	-10285
▁Swi	-10286
▁Upi	-10287
▁boj	-10288
▁ome	-10289
▁otu	-10290
▁puc	-10291
▁zvo	-10292
dosta	-10293
rnera	-10294
zapad	-10295
▁Mike	-10296
▁Regi	-10297
▁Scho	-10298
▁Stre	-10299
▁Trgu	-10300
▁disa	-10301
▁išla	-10302
▁nago	-10303
▁rubu	-10304
retvan	-10305
▁Bačić	-10306
▁aspek	-10307
▁grupi	-10308
▁nović	-10309
njavaju	-10310
▁Gotovo	-10311
▁Njezin	-10312
▁glazba	-10313
▁nogama	-10314
▁rezolu	-10315
▁stiglo	-10316
▁usvoji	-10317
▁čekati	-10318
▁gledamo	-10319
▁inženje	-10320
▁izvršni	-10321
▁pritvor	-10322
▁suparni	-10323
▁školske	-10324
▁korisnik	-10325
▁kvadrata	-10326
▁oslobađa	-10327
▁stvarima	-10328
▁tradicije	-10329
▁glazbenika	-10330
▁pripadnici	-10331
▁kvalifikacije	-10332
▁kvalifikacijama	-10333
;&	-10334
Ka	-10335
VP	-10336
ave	-10337
cho	-10338
oni	-10339
rez	-10340
rim	-10341
yen	-10342
▁87	-10343
▁ud	-10344
chen	-10345
▁Vra	-10346
▁dže	-10347
▁šti	-10348
rativ	-10349
▁milo	-10350
▁nebo	-10351
zaciji	-10352
▁Dragi	-10353
▁cesto	-10354
▁majku	-10355
▁obalu	-10356
▁odšte	-10357
▁plane	-10358
▁počne	-10359
▁redom	-10360
▁vladu	-10361
▁čimbe	-10362
▁George	-10363
▁Mislav	-10364
▁opremu	-10365
▁prezen	-10366
▁trećoj	-10367
▁ukupne	-10368
▁Christi	-10369
▁Domagoj	-10370
▁Premier	-10371
▁dolasku	-10372
▁gostuju	-10373
▁nestabi	-10374
▁objekta	-10375
▁obratio	-10376
▁ovakvim	-10377
▁položaj	-10378
▁svijest	-10379
▁Austrije	-10380
▁dijelova	-10381
▁karakter	-10382
▁osnovnih	-10383
▁prestati	-10384
▁snimanje	-10385
▁starijih	-10386
▁besplatno	-10387
▁partnerom	-10388
▁prethodne	-10389
▁sporazuma	-10390
▁Washington	-10391
▁nacionalnog	-10392
▁talijanskog	-10393
▁pretpostavlja	-10394
cen	-10395
mid	-10396
▁gi	-10397
mene	-10398
▁Zra	-10399
▁kap	-10400
njivo	-10401
▁Post	-10402
▁ciju	-10403
▁kvar	-10404
▁most	-10405
Ljubav	-10406
▁Bosni	-10407
▁smjer	-10408
▁zavje	-10409
▁Osjeća	-10410
▁bijele	-10411
▁budemo	-10412
▁dnevni	-10413
▁knjizi	-10414
▁mladić	-10415
▁opušta	-10416
▁rakete	-10417
▁udarca	-10418
▁ulaska	-10419
▁Željka	-10420
▁Građani	-10421
▁detalji	-10422
▁epizoda	-10423
▁epizode	-10424
▁izborne	-10425
▁klubovi	-10426
▁lokalni	-10427
▁poplava	-10428
▁savjete	-10429
▁Jennifer	-10430
▁cjelokup	-10431
▁kompromi	-10432
▁naknadno	-10433
▁ocijenio	-10434
▁privatne	-10435
▁cijelosti	-10436
▁izbornika	-10437
▁pitanjima	-10438
▁zaštititi	-10439
▁međunarodne	-10440
▁poduzetnika	-10441
Be	-10442
EL	-10443
-1.	-10444
ted	-10445
zon	-10446
zra	-10447
▁98	-10448
▁Ža	-10449
tilo	-10450
vera	-10451
▁12,	-10452
▁Jug	-10453
talno	-10454
žnost	-10455
▁Bože	-10456
▁Broj	-10457
▁govo	-10458
▁pope	-10459
▁zadr	-10460
▁zlou	-10461
▁2005.	-10462
▁Direk	-10463
▁grije	-10464
▁gužve	-10465
▁krila	-10466
▁ovome	-10467
▁plije	-10468
▁prlja	-10469
▁razre	-10470
▁stalo	-10471
▁verba	-10472
▁širom	-10473
▁Njihov	-10474
▁dodije	-10475
▁gotovi	-10476
▁pisalo	-10477
▁visoki	-10478
▁Bjelova	-10479
▁granici	-10480
▁naučiti	-10481
▁ovlasti	-10482
▁zadnjem	-10483
▁zaštita	-10484
▁Maksimir	-10485
▁količina	-10486
▁objašnje	-10487
▁postigli	-10488
▁povratku	-10489
▁pozitivne	-10490
▁pravilima	-10491
▁tradiciju	-10492
▁zamisliti	-10493
▁neposredno	-10494
▁zagrebačke	-10495
▁promijenila	-10496
▁promijenilo	-10497
▁Zahvaljujući	-10498
.,	-10499
EC	-10500
lt	-10501
"",	-10502
hod	-10503
lue	-10504
nia	-10505
drom	-10506
stor	-10507
tico	-10508
▁Art	-10509
▁dla	-10510
▁eti	-10511
▁tik	-10512
jević	-10513
loška	-10514
znice	-10515
▁Rena	-10516
▁biza	-10517
▁cvje	-10518
▁ijom	-10519
▁imaš	-10520
▁ruci	-10521
▁tepi	-10522
▁zape	-10523
▁zime	-10524
▁Crnoj	-10525
▁Kranj	-10526
▁Leona	-10527
▁Mamić	-10528
▁asfal	-10529
▁dalji	-10530
▁hvali	-10531
▁oboga	-10532
▁oprem	-10533
▁Države	-10534
▁Gorica	-10535
▁bijeli	-10536
▁golman	-10537
▁lijepa	-10538
▁motora	-10539
▁nabave	-10540
▁nikome	-10541
▁usredo	-10542
▁vojnog	-10543
▁Vatreni	-10544
▁fenomen	-10545
▁opisuje	-10546
▁pomogli	-10547
▁ubijeno	-10548
▁druženje	-10549
▁jugoisto	-10550
▁kompleks	-10551
▁obuhvaća	-10552
▁postupno	-10553
▁transfer	-10554
▁zahtjeve	-10555
▁završilo	-10556
▁izgledaju	-10557
▁izgledalo	-10558
▁održavaju	-10559
▁otvaranju	-10560
▁radionica	-10561
▁Sjedinjene	-10562
▁namijenjen	-10563
▁Nacionalnog	-10564
heo	-10565
lub	-10566
mit	-10567
šci	-10568
mula	-10569
▁Lou	-10570
▁sor	-10571
▁ura	-10572
žnije	-10573
▁Dino	-10574
▁Jedi	-10575
▁Kule	-10576
▁Naja	-10577
▁Nika	-10578
▁Pove	-10579
▁Roma	-10580
▁drve	-10581
▁faza	-10582
▁otpu	-10583
▁pile	-10584
▁prou	-10585
▁ribe	-10586
▁zida	-10587
▁znaš	-10588
▁2007.	-10589
▁brodo	-10590
▁treću	-10591
▁France	-10592
▁Oscara	-10593
▁iznose	-10594
▁nadamo	-10595
▁temama	-10596
▁trudno	-10597
▁daljnji	-10598
▁dozvolu	-10599
▁kritike	-10600
▁krumpir	-10601
▁mlijeka	-10602
▁nizozem	-10603
▁pravilo	-10604
▁svakoga	-10605
▁ugovore	-10606
▁Nacional	-10607
▁izvješća	-10608
▁karijera	-10609
▁reakciju	-10610
▁trajanju	-10611
▁tromjese	-10612
▁vozilima	-10613
▁Barcelone	-10614
▁europskom	-10615
▁kombinira	-10616
▁komunisti	-10617
▁redatelja	-10618
▁savjetuje	-10619
▁djevojčice	-10620
▁ispitanika	-10621
▁prijedloga	-10622
▁samostalno	-10623
▁kombinaciji	-10624
▁financijskih	-10625
bac	-10626
evi	-10627
jen	-10628
ćan	-10629
tini	-10630
čevi	-10631
šnim	-10632
žile	-10633
▁car	-10634
▁flo	-10635
nicom	-10636
plasi	-10637
vnije	-10638
znost	-10639
▁auta	-10640
▁grup	-10641
▁opra	-10642
▁stvo	-10643
▁viđa	-10644
▁čudo	-10645
čnosti	-10646
▁2000.	-10647
▁Krama	-10648
▁bitna	-10649
▁igrat	-10650
▁mojim	-10651
▁plaži	-10652
▁tanju	-10653
▁točka	-10654
▁Karlov	-10655
▁Odluka	-10656
▁glazbi	-10657
▁liniju	-10658
▁moguća	-10659
▁nastao	-10660
▁parova	-10661
▁svemir	-10662
▁teksta	-10663
▁tvrtku	-10664
▁udalje	-10665
▁vozači	-10666
▁kultura	-10667
▁nastoji	-10668
▁pojasni	-10669
▁stranku	-10670
▁Vukovaru	-10671
▁europska	-10672
▁fenomena	-10673
▁mladosti	-10674
▁najavili	-10675
▁objaviti	-10676
▁trgovini	-10677
▁nevrijeme	-10678
▁planiraju	-10679
▁suparnika	-10680
▁automatski	-10681
▁identiteta	-10682
▁policajaca	-10683
▁poštovanje	-10684
▁Hercegovini	-10685
▁ograničenja	-10686
ola	-10687
▁BM	-10688
▁Wo	-10689
deni	-10690
gnuo	-10691
čini	-10692
šice	-10693
▁Ant	-10694
▁Wor	-10695
▁Inde	-10696
▁Obra	-10697
▁Saša	-10698
▁Tran	-10699
▁laži	-10700
▁play	-10701
▁poba	-10702
▁sobu	-10703
▁zali	-10704
forman	-10705
▁Situa	-10706
▁grafi	-10707
▁očima	-10708
▁raski	-10709
▁traju	-10710
▁čelni	-10711
▁Putina	-10712
▁Razlog	-10713
▁bivšim	-10714
▁delega	-10715
▁kupaca	-10716
▁nemate	-10717
▁obolje	-10718
▁princi	-10719
▁starta	-10720
▁visine	-10721
▁zabavu	-10722
▁Madridu	-10723
▁general	-10724
▁neuspje	-10725
▁posebne	-10726
▁veznjak	-10727
▁Baturina	-10728
▁američka	-10729
▁državnim	-10730
▁njezinim	-10731
▁digitalne	-10732
▁izgradnja	-10733
▁tragedija	-10734
▁analitičar	-10735
▁dogovorili	-10736
▁gledatelji	-10737
Dst	-10738
lip	-10739
▁(0	-10740
▁Yo	-10741
dice	-10742
krca	-10743
pati	-10744
povi	-10745
ttps	-10746
šica	-10747
▁13,	-10748
▁?",	-10749
▁Mom	-10750
▁ane	-10751
▁kle	-10752
▁oce	-10753
onako	-10754
pljen	-10755
znica	-10756
žniji	-10757
▁Klju	-10758
▁viša	-10759
Dstrok	-10760
▁Petko	-10761
▁benzi	-10762
▁kralj	-10763
▁nared	-10764
▁odgoj	-10765
▁ometa	-10766
▁sunce	-10767
▁Drugom	-10768
▁Glazbe	-10769
▁Sljede	-10770
▁objekt	-10771
▁prilog	-10772
▁zgradu	-10773
▁Karlova	-10774
▁obranio	-10775
▁osjećam	-10776
▁presude	-10777
▁autobusa	-10778
▁blagdana	-10779
▁dostupna	-10780
▁interesu	-10781
▁ispuniti	-10782
▁mobitela	-10783
▁odgovore	-10784
▁Eurosongu	-10785
▁američkim	-10786
▁namjerava	-10787
▁predstavu	-10788
▁prijetnji	-10789
▁djevojčica	-10790
▁sigurnosne	-10791
MO	-10792
blo	-10793
oma	-10794
čat	-10795
▁84	-10796
duju	-10797
kvih	-10798
miji	-10799
sand	-10800
▁Kva	-10801
▁trž	-10802
Super	-10803
digra	-10804
diran	-10805
šnjak	-10806
štene	-10807
▁Paul	-10808
▁Rude	-10809
▁ciji	-10810
▁krip	-10811
▁viši	-10812
▁Matej	-10813
▁Neven	-10814
▁danom	-10815
▁kruga	-10816
▁rukom	-10817
▁selek	-10818
▁špiju	-10819
▁Dodaje	-10820
▁Ranije	-10821
▁Tamara	-10822
▁hranom	-10823
▁kakvom	-10824
▁kamera	-10825
▁korake	-10826
▁utorka	-10827
injenica	-10828
▁Palesti	-10829
▁djeluju	-10830
▁državno	-10831
▁konzumi	-10832
▁naselju	-10833
▁osobnim	-10834
▁pomogne	-10835
▁ponosan	-10836
▁uvelike	-10837
▁horoskop	-10838
▁liječnik	-10839
▁poduzeti	-10840
▁tehnički	-10841
▁uzrokova	-10842
▁Roditelji	-10843
▁liječenja	-10844
▁migranata	-10845
▁naglasiti	-10846
▁zanimljiv	-10847
▁Stručnjaci	-10848
▁Vjerojatno	-10849
▁povezanost	-10850
▁državljanin	-10851
▁financiranje	-10852
La	-10853
:0,	-10854
ovi	-10855
rca	-10856
ult	-10857
▁83	-10858
▁HS	-10859
klom	-10860
liju	-10861
mero	-10862
nala	-10863
rsku	-10864
sica	-10865
timo	-10866
▁Dre	-10867
▁Sja	-10868
▁ćeš	-10869
bijen	-10870
scima	-10871
▁Roko	-10872
▁Uoči	-10873
▁leža	-10874
▁luku	-10875
▁reče	-10876
▁timu	-10877
▁zapi	-10878
racije	-10879
▁Borus	-10880
▁Poslo	-10881
▁cirku	-10882
▁istar	-10883
▁morna	-10884
▁priči	-10885
▁straž	-10886
▁Dončić	-10887
▁Provje	-10888
▁bombar	-10889
▁ceremo	-10890
▁folklo	-10891
▁labora	-10892
▁odvoje	-10893
▁ruskom	-10894
▁trajek	-10895
▁YouTube	-10896
▁diploma	-10897
▁dodatnu	-10898
▁emocija	-10899
▁potvrda	-10900
▁raspisa	-10901
▁sastava	-10902
▁slušati	-10903
▁srpskog	-10904
▁ukoliko	-10905
▁učenike	-10906
▁vidjelo	-10907
▁vraćaju	-10908
▁Upravnog	-10909
▁kulturno	-10910
▁navedeno	-10911
▁nositelj	-10912
▁novinari	-10913
▁oglasila	-10914
▁prirodno	-10915
▁slobodan	-10916
▁suprotno	-10917
▁treningu	-10918
▁uređenje	-10919
▁uvođenje	-10920
▁vlastiti	-10921
▁izgradnji	-10922
▁koristili	-10923
▁kombinacija	-10924
.)	-10925
-0.	-10926
010	-10927
hen	-10928
lde	-10929
nor	-10930
rod	-10931
sco	-10932
▁Ya	-10933
ramo	-10934
rinu	-10935
▁15-	-10936
▁Mau	-10937
▁iko	-10938
▁kaz	-10939
▁kim	-10940
kovac	-10941
▁Mešt	-10942
▁Neza	-10943
▁Odje	-10944
▁osna	-10945
▁ušte	-10946
štenje	-10947
▁Arena	-10948
▁Sjeća	-10949
▁dulji	-10950
▁klupe	-10951
▁neuro	-10952
▁Chelse	-10953
▁Vjetar	-10954
▁izvješ	-10955
▁kanali	-10956
▁kiseli	-10957
▁ljetne	-10958
▁naobla	-10959
▁ogleda	-10960
▁pojava	-10961
▁pojave	-10962
▁rođena	-10963
▁suprot	-10964
▁svašta	-10965
▁zastra	-10966
▁činiti	-10967
▁Poljske	-10968
▁crnogor	-10969
▁dionice	-10970
▁gradnje	-10971
▁gradski	-10972
▁koljena	-10973
▁mjesecu	-10974
▁odrasta	-10975
▁oslanja	-10976
▁ovakvih	-10977
▁suđenje	-10978
▁turizmu	-10979
▁vodstva	-10980
▁Sjeverne	-10981
▁namjerno	-10982
▁Kovačević	-10983
▁izraelske	-10984
▁otvaranja	-10985
▁posjetiti	-10986
▁pregovore	-10987
▁smještaja	-10988
▁sudionici	-10989
▁pratitelja	-10990
▁jednostavan	-10991
▁natjecatelj	-10992
IS	-10993
bl	-10994
lix	-10995
rik	-10996
▁Zi	-10997
fter	-10998
sice	-10999
▁Lea	-11000
▁Mou	-11001
▁dip	-11002
▁nac	-11003
▁pse	-11004
▁setu	-11005
▁Anton	-11006
▁Majka	-11007
▁Napra	-11008
▁Netko	-11009
▁Nešto	-11010
▁Vekić	-11011
▁izvoz	-11012
▁kalen	-11013
▁mojih	-11014
▁ratne	-11015
▁svome	-11016
▁čisto	-11017
▁Želim	-11018
▁Nikole	-11019
▁bodove	-11020
▁branio	-11021
▁dobiju	-11022
▁greške	-11023
▁iznosa	-11024
▁jučera	-11025
▁pitala	-11026
▁sklada	-11027
▁slične	-11028
▁stoper	-11029
▁takvom	-11030
▁Bayerna	-11031
▁Michael	-11032
▁brzinom	-11033
▁kandidi	-11034
▁krenulo	-11035
▁preseli	-11036
▁spremno	-11037
▁stanica	-11038
▁stotina	-11039
▁vratara	-11040
▁detaljno	-11041
▁donijelo	-11042
▁neovisno	-11043
▁njezinog	-11044
▁odradili	-11045
▁prijavio	-11046
▁temeljem	-11047
▁Slavoniji	-11048
▁Slovenija	-11049
▁Vladimira	-11050
▁izraelski	-11051
▁klubovima	-11052
▁odgovoran	-11053
▁pronađeno	-11054
▁vjenčanja	-11055
▁Posljednji	-11056
▁prostorije	-11057
▁komunikacije	-11058
▁organizaciju	-11059
▁parlamentarne	-11060
pol	-11061
ric	-11062
tes	-11063
zij	-11064
šem	-11065
▁Ćo	-11066
Plus	-11067
brzo	-11068
ćama	-11069
▁HTV	-11070
▁Ška	-11071
ganja	-11072
ranom	-11073
▁igno	-11074
▁klin	-11075
▁mara	-11076
▁nere	-11077
▁plja	-11078
▁prim	-11079
▁soft	-11080
▁Čeka	-11081
mjerno	-11082
đenjem	-11083
▁Benja	-11084
▁Donna	-11085
▁Korču	-11086
▁Leyen	-11087
▁Mandi	-11088
▁Moram	-11089
▁javna	-11090
▁kanal	-11091
▁većem	-11092
▁čudno	-11093
▁2022.,	-11094
▁Belupo	-11095
▁Možete	-11096
▁Rafale	-11097
▁adresu	-11098
▁dijabe	-11099
▁načinu	-11100
▁podnio	-11101
▁Jadrana	-11102
▁naselje	-11103
▁posjeta	-11104
▁povukao	-11105
▁preveze	-11106
▁zakonom	-11107
▁zapadne	-11108
▁angažman	-11109
▁prehrane	-11110
▁usredoto	-11111
▁zaroblje	-11112
▁zatražio	-11113
▁iznenadio	-11114
▁korisnike	-11115
▁proslavio	-11116
dalmatinske	-11117
▁automobile	-11118
▁obiteljski	-11119
▁počinitelj	-11120
▁raspravlja	-11121
▁stvarnosti	-11122
▁neprijatelj	-11123
▁Konferencijske	-11124
kus	-11125
čem	-11126
▁69	-11127
bura	-11128
kica	-11129
sezo	-11130
sine	-11131
tore	-11132
vodu	-11133
čilo	-11134
▁Den	-11135
▁Dim	-11136
▁Tin	-11137
▁Trg	-11138
▁kal	-11139
▁rej	-11140
▁tlo	-11141
▁šić	-11142
krati	-11143
krije	-11144
loško	-11145
vrati	-11146
žević	-11147
▁Atle	-11148
▁leži	-11149
▁ruše	-11150
▁zagr	-11151
ivanje	-11152
▁Profi	-11153
▁Ustav	-11154
▁Zakla	-11155
▁cjeli	-11156
▁davno	-11157
▁iznio	-11158
▁motiv	-11159
▁uzeli	-11160
▁živio	-11161
▁Alexan	-11162
▁Medite	-11163
▁igramo	-11164
▁izosta	-11165
▁izvući	-11166
▁počast	-11167
▁pristi	-11168
▁profil	-11169
▁prozor	-11170
▁snažan	-11171
▁sposob	-11172
▁studen	-11173
▁sukobu	-11174
▁vojsku	-11175
▁vožnju	-11176
▁štrajk	-11177
▁Juventu	-11178
▁nestala	-11179
▁poplave	-11180
▁zamjenu	-11181
▁Miroslav	-11182
▁dobivaju	-11183
▁izvođača	-11184
▁ljudskih	-11185
▁najvećeg	-11186
▁obratiti	-11187
▁svladali	-11188
▁ulaganje	-11189
▁započeti	-11190
▁djelovati	-11191
▁funkciona	-11192
▁potpisuje	-11193
▁predvodio	-11194
▁trenutaka	-11195
▁objavljuje	-11196
▁pripremama	-11197
▁stabilnost	-11198
vjerojatnije	-11199
▁iznajmljiva	-11200
▁organizirati	-11201
▁podrazumijeva	-11202
▁predsjednički	-11203
cm	-11204
ney	-11205
▁71	-11206
▁SU	-11207
gali	-11208
ljić	-11209
ntna	-11210
▁192	-11211
▁Kle	-11212
▁Mon	-11213
▁Sen	-11214
▁har	-11215
▁mal	-11216
njski	-11217
sburg	-11218
spilo	-11219
▁Pogo	-11220
▁crne	-11221
▁uskr	-11222
▁Fakul	-11223
▁Orban	-11224
▁Pravo	-11225
▁Stran	-11226
▁Vozač	-11227
▁Znamo	-11228
▁cestu	-11229
▁dezin	-11230
▁muški	-11231
▁nadma	-11232
▁nožem	-11233
▁opsta	-11234
▁parku	-11235
▁proko	-11236
▁ulaze	-11237
▁Poziva	-11238
▁biraju	-11239
▁doigra	-11240
▁izdrža	-11241
▁ruskim	-11242
▁solida	-11243
▁uznemi	-11244
▁Roberta	-11245
▁bespilo	-11246
▁namjera	-11247
▁snijega	-11248
▁spasiti	-11249
▁srijede	-11250
▁uzvrati	-11251
▁zaradio	-11252
▁energija	-11253
▁njezinih	-11254
▁odjednom	-11255
▁okrenuti	-11256
▁Barceloni	-11257
▁najnovije	-11258
▁pojedinim	-11259
▁zaslužuje	-11260
▁ozlijeđeno	-11261
▁proizvodnji	-11262
▁razmišljati	-11263
▁zapošljavanje	-11264
Ve	-11265
dol	-11266
hni	-11267
sila	-11268
vita	-11269
▁Fre	-11270
▁PSG	-11271
▁Wim	-11272
▁hek	-11273
▁usa	-11274
media	-11275
ženih	-11276
▁Crna	-11277
▁Pala	-11278
▁Papa	-11279
▁Stor	-11280
▁idem	-11281
▁muzi	-11282
▁uzme	-11283
▁volo	-11284
kratko	-11285
ljivim	-11286
▁Jurić	-11287
▁Klara	-11288
▁efika	-11289
▁fasci	-11290
▁korek	-11291
▁muzej	-11292
▁nadbi	-11293
▁rekre	-11294
▁uniji	-11295
▁Marije	-11296
▁Ukupno	-11297
▁biskup	-11298
▁broncu	-11299
▁dodati	-11300
▁istica	-11301
▁izašla	-11302
▁načine	-11303
▁odjeće	-11304
▁odluci	-11305
▁pisati	-11306
▁pohađa	-11307
▁povodu	-11308
▁praksi	-11309
▁radnim	-11310
▁stvore	-11311
▁svojeg	-11312
▁teških	-11313
▁tjednu	-11314
▁žirija	-11315
▁Andrija	-11316
▁Zdravko	-11317
▁dodatak	-11318
▁gradnju	-11319
▁mislite	-11320
▁nesreću	-11321
▁obaviti	-11322
▁pravilu	-11323
▁rekavši	-11324
▁temelje	-11325
▁uživaju	-11326
▁čelnika	-11327
govornica	-11328
▁dogovora	-11329
▁gradskom	-11330
▁objavlji	-11331
▁odgovora	-11332
▁prijesto	-11333
▁prisjeća	-11334
▁prometnu	-11335
▁prošlost	-11336
▁publikom	-11337
▁raspored	-11338
▁dopustiti	-11339
▁nezaposle	-11340
▁oštećenja	-11341
▁performan	-11342
▁smanjenja	-11343
▁započinje	-11344
▁dužnosnika	-11345
cid	-11346
▁NE	-11347
▁by	-11348
dica	-11349
gaja	-11350
rilo	-11351
ther	-11352
zore	-11353
▁11,	-11354
▁aku	-11355
▁doj	-11356
▁nez	-11357
elimo	-11358
initi	-11359
znicu	-11360
▁Gale	-11361
▁Glas	-11362
▁Miho	-11363
▁Pupo	-11364
▁Vara	-11365
▁koka	-11366
▁nija	-11367
▁piće	-11368
▁soba	-11369
▁trik	-11370
▁vira	-11371
▁bliže	-11372
▁dečki	-11373
▁droga	-11374
▁kopri	-11375
▁lijek	-11376
▁prođe	-11377
▁sakri	-11378
▁slaže	-11379
▁sudbi	-11380
▁sugra	-11381
grafija	-11382
vljenja	-11383
▁Poljud	-11384
▁divlja	-11385
▁učesta	-11386
▁Pašalić	-11387
▁Zajedno	-11388
▁izložba	-11389
▁najskup	-11390
▁njezini	-11391
▁pokraji	-11392
▁sastoja	-11393
▁stupnja	-11394
▁Navijači	-11395
▁godišnju	-11396
▁gradskim	-11397
▁kontaktu	-11398
▁redovima	-11399
▁shvatili	-11400
▁oduševila	-11401
▁očekujemo	-11402
▁umjetnost	-11403
▁vlastitim	-11404
▁Zagrebačke	-11405
▁okupljanje	-11406
▁policijske	-11407
▁stanovnici	-11408
▁Jandroković	-11409
▁Jednostavno	-11410
▁manifestacije	-11411
ww	-11412
kau	-11413
rum	-11414
▁DA	-11415
dora	-11416
jnog	-11417
nine	-11418
rsko	-11419
slen	-11420
vane	-11421
▁180	-11422
▁Hen	-11423
▁Lon	-11424
▁jem	-11425
▁klo	-11426
▁lov	-11427
▁zid	-11428
bačen	-11429
stili	-11430
tskom	-11431
▁Duje	-11432
▁Nama	-11433
▁Novu	-11434
▁boju	-11435
▁kade	-11436
▁tipi	-11437
▁zovu	-11438
▁Akade	-11439
▁Dodik	-11440
▁Nives	-11441
▁Vesna	-11442
▁bitan	-11443
▁dekla	-11444
▁demon	-11445
▁najdu	-11446
▁najni	-11447
▁Belupa	-11448
▁Cijene	-11449
▁Kongre	-11450
▁Middle	-11451
▁Odbora	-11452
▁Srećom	-11453
▁dovrše	-11454
▁ionako	-11455
▁kladio	-11456
▁liniji	-11457
▁pažnje	-11458
▁srebro	-11459
▁teškom	-11460
▁ždrije	-11461
▁Bliskom	-11462
▁Kalinić	-11463
▁arhitek	-11464
▁krajeva	-11465
▁počinio	-11466
▁pratili	-11467
▁stabili	-11468
▁tribina	-11469
▁Poljskoj	-11470
▁komisija	-11471
▁mentalno	-11472
▁poginula	-11473
▁predizbo	-11474
▁shvatila	-11475
▁svjetska	-11476
▁svjetskim	-11477
▁učenicima	-11478
▁vjerujemo	-11479
▁Koprivnici	-11480
▁djelomično	-11481
▁obljetnice	-11482
▁političkim	-11483
▁poprilično	-11484
▁postavljen	-11485
▁zadovoljna	-11486
▁odvjetništvu	-11487
▁prijateljica	-11488
Kad	-11489
ben	-11490
las	-11491
ror	-11492
tva	-11493
zar	-11494
▁74	-11495
dile	-11496
jalo	-11497
tten	-11498
▁10-	-11499
▁BMW	-11500
▁Bea	-11501
▁Hil	-11502
▁Las	-11503
▁Oto	-11504
▁Vic	-11505
▁oka	-11506
▁von	-11507
stila	-11508
▁Blan	-11509
▁Mark	-11510
▁Mira	-11511
▁napi	-11512
▁nađe	-11513
▁vrha	-11514
ivanja	-11515
▁Bojan	-11516
▁Najvi	-11517
▁Parti	-11518
▁Rekla	-11519
▁Uspje	-11520
▁Vladu	-11521
▁astro	-11522
▁brige	-11523
▁djelu	-11524
▁glava	-11525
▁hitnu	-11526
▁izdao	-11527
▁oštro	-11528
▁paket	-11529
▁podca	-11530
▁siste	-11531
▁važnu	-11532
▁visok	-11533
▁Branka	-11534
▁doveli	-11535
▁glavnu	-11536
▁manipu	-11537
▁slatki	-11538
▁trendo	-11539
▁uvesti	-11540
▁civilne	-11541
▁gradska	-11542
▁gubitka	-11543
▁kompone	-11544
▁onemogu	-11545
▁osnivač	-11546
▁slavila	-11547
▁tribine	-11548
▁širenje	-11549
▁menadžer	-11550
▁neugodno	-11551
▁povezani	-11552
▁upotrije	-11553
▁graditelj	-11554
▁koncerata	-11555
▁rješavanje	-11556
▁samouprave	-11557
▁učinkoviti	-11558
▁električnih	-11559
▁fotografijama	-11560
SC	-11561
ep	-11562
-3,	-11563
sic	-11564
tch	-11565
šnu	-11566
▁Sy	-11567
▁ac	-11568
gare	-11569
hony	-11570
lera	-11571
▁Hit	-11572
kcije	-11573
ljana	-11574
ograd	-11575
ćenih	-11576
đivao	-11577
▁Izme	-11578
▁Mati	-11579
▁Prve	-11580
▁duha	-11581
▁golu	-11582
▁isla	-11583
▁izvi	-11584
▁kise	-11585
▁nevi	-11586
▁sinu	-11587
▁vođa	-11588
sumnji	-11589
tovalu	-11590
▁Svako	-11591
▁Topli	-11592
▁banko	-11593
▁kazni	-11594
▁kopnu	-11595
▁radna	-11596
▁slado	-11597
▁venti	-11598
▁Domaći	-11599
▁Oliver	-11600
▁Uskoro	-11601
▁izasla	-11602
▁natrag	-11603
▁radost	-11604
▁riješi	-11605
▁suigra	-11606
▁terori	-11607
▁integri	-11608
▁intelek	-11609
▁naknadu	-11610
▁portala	-11611
▁prolaze	-11612
▁zauzima	-11613
▁Mađarske	-11614
▁dijelovi	-11615
▁njemačke	-11616
▁oduševio	-11617
▁otvorili	-11618
▁posjetio	-11619
▁prehranu	-11620
▁prirodni	-11621
▁proljeće	-11622
▁premijeru	-11623
▁hrvatskoga	-11624
▁kriptovalu	-11625
▁polufinala	-11626
▁posljednjoj	-11627
▁preporučuje	-11628
▁najpoznatijih	-11629
lum	-11630
pat	-11631
pez	-11632
tec	-11633
tej	-11634
čad	-11635
kore	-11636
▁18-	-11637
▁Sum	-11638
▁Upo	-11639
▁Vas	-11640
▁Win	-11641
▁pok	-11642
braja	-11643
rević	-11644
stral	-11645
strom	-11646
▁Knji	-11647
▁Poru	-11648
▁aler	-11649
▁dušu	-11650
▁kožu	-11651
▁meča	-11652
▁mrša	-11653
▁peda	-11654
▁razd	-11655
tkinje	-11656
▁2004.	-11657
▁Iskre	-11658
▁Jasno	-11659
▁Merce	-11660
▁Tonči	-11661
▁okrša	-11662
▁plaža	-11663
▁princ	-11664
▁samoj	-11665
▁smeće	-11666
▁subje	-11667
▁talen	-11668
▁ugled	-11669
▁šesna	-11670
vljenih	-11671
▁Benčić	-11672
▁Istina	-11673
▁Pantov	-11674
▁bogate	-11675
▁drasti	-11676
▁glumca	-11677
▁misija	-11678
▁napadi	-11679
▁podzem	-11680
▁praksa	-11681
▁pušten	-11682
▁raketa	-11683
▁raspro	-11684
▁smrtno	-11685
▁tjedni	-11686
▁vozilu	-11687
▁Navodno	-11688
▁Predsta	-11689
▁Vidović	-11690
▁aktivni	-11691
▁dvojice	-11692
▁izlaska	-11693
▁nastupe	-11694
▁reagira	-11695
▁spavati	-11696
▁verzija	-11697
▁vrhunac	-11698
zapadnjak	-11699
▁djevojku	-11700
▁ekskluzi	-11701
▁izbornog	-11702
▁nikakvih	-11703
▁odlučuju	-11704
▁pritiska	-11705
▁suvereni	-11706
▁Razgovara	-11707
▁kazališta	-11708
▁kilometra	-11709
▁osvajanje	-11710
▁pritiskom	-11711
▁stvaranju	-11712
▁zajednicu	-11713
▁dvadesetak	-11714
▁francuskog	-11715
▁perspektive	-11716
▁temperaturu	-11717
0-	-11718
EV	-11719
IN	-11720
Re	-11721
hy	-11722
iv	-11723
gue	-11724
ivi	-11725
kša	-11726
lec	-11727
nav	-11728
nij	-11729
tis	-11730
▁79	-11731
▁LA	-11732
fija	-11733
ford	-11734
vini	-11735
šaka	-11736
▁130	-11737
▁Are	-11738
▁CNN	-11739
▁dir	-11740
zović	-11741
▁Godi	-11742
▁Otka	-11743
▁Para	-11744
▁išče	-11745
▁pari	-11746
▁rati	-11747
▁vlak	-11748
▁zbri	-11749
habili	-11750
jković	-11751
▁Neret	-11752
▁izveo	-11753
▁kriza	-11754
▁malog	-11755
▁pohva	-11756
▁prola	-11757
▁socio	-11758
▁vojnu	-11759
▁Volodi	-11760
▁ciklus	-11761
▁dodali	-11762
▁koraka	-11763
▁litara	-11764
▁osobom	-11765
▁sjajna	-11766
▁sletio	-11767
▁spušta	-11768
▁tekući	-11769
▁Budimpe	-11770
▁analize	-11771
▁braniti	-11772
▁glavnim	-11773
▁isplati	-11774
▁koncept	-11775
▁održala	-11776
▁pričati	-11777
▁stožera	-11778
▁učinili	-11779
▁Američki	-11780
▁Dortmund	-11781
▁izazvalo	-11782
▁osjećati	-11783
▁površina	-11784
▁princeza	-11785
▁protuzra	-11786
▁vrhunski	-11787
▁interneta	-11788
▁ozljedama	-11789
▁prihvatio	-11790
▁intenzivno	-11791
▁zanimljiva	-11792
▁manifestacija	-11793
OS	-11794
:0.	-11795
ito	-11796
▁IV	-11797
▁PR	-11798
meni	-11799
▁Blo	-11800
▁Hol	-11801
▁Idu	-11802
▁Top	-11803
▁dnu	-11804
▁pče	-11805
nijim	-11806
▁Deta	-11807
▁Kape	-11808
▁Vili	-11809
▁Vodo	-11810
▁anke	-11811
▁hodo	-11812
▁nula	-11813
▁selo	-11814
▁seta	-11815
▁upis	-11816
▁žiri	-11817
cijsku	-11818
witter	-11819
▁Anali	-11820
▁Boban	-11821
▁Crkve	-11822
▁brodu	-11823
▁magne	-11824
▁masno	-11825
▁nijan	-11826
▁otpor	-11827
▁stiho	-11828
▁zvuči	-11829
▁Nikada	-11830
▁gradom	-11831
▁minutu	-11832
▁ponoći	-11833
▁snimio	-11834
▁tereti	-11835
▁čelnik	-11836
▁Dinamom	-11837
▁Habijan	-11838
▁Ponekad	-11839
▁Rusijom	-11840
▁epizodi	-11841
▁govorim	-11842
▁iskorak	-11843
▁koncent	-11844
▁prezime	-11845
▁stupanj	-11846
▁životom	-11847
▁interese	-11848
▁održivog	-11849
▁predlaže	-11850
▁prometni	-11851
▁raspravu	-11852
▁Middleton	-11853
▁energijom	-11854
▁kontrolom	-11855
▁mišljenju	-11856
▁određenih	-11857
▁operaciju	-11858
▁potrebama	-11859
▁zabrinuti	-11860
▁najstariji	-11861
▁spektakula	-11862
▁posljednjim	-11863
OCM	-11864
▁00	-11865
▁Ći	-11866
mist	-11867
zori	-11868
▁000	-11869
▁19-	-11870
▁33.	-11871
▁Phi	-11872
▁Por	-11873
likom	-11874
▁Sred	-11875
▁bend	-11876
▁deli	-11877
▁išta	-11878
▁juna	-11879
▁kabi	-11880
▁kamp	-11881
▁mlađ	-11882
▁osve	-11883
rovima	-11884
▁Jones	-11885
▁Jučer	-11886
▁imuni	-11887
▁ispao	-11888
▁kupci	-11889
▁moraš	-11890
▁naglo	-11891
▁proše	-11892
▁punje	-11893
▁ručak	-11894
▁snova	-11895
▁učili	-11896
šavanja	-11897
▁Federa	-11898
▁Medved	-11899
▁obećao	-11900
▁odobri	-11901
▁opasne	-11902
▁stakle	-11903
▁vješti	-11904
cioniran	-11905
▁brigade	-11906
▁interak	-11907
▁jačanje	-11908
▁konstan	-11909
▁kuhinji	-11910
▁nikakav	-11911
▁podršci	-11912
▁stranim	-11913
▁uspjehe	-11914
miješajte	-11915
▁Znanstve	-11916
▁dvorištu	-11917
▁količinu	-11918
▁ponoviti	-11919
▁utvrditi	-11920
▁ministara	-11921
▁potvrditi	-11922
▁radnicima	-11923
▁tribinama	-11924
▁Milanoviću	-11925
▁nekadašnji	-11926
▁prisutnost	-11927
▁grmljavinom	-11928
▁inicijative	-11929
▁izbjegavati	-11930
▁komentirali	-11931
▁institucijama	-11932
▁profesionalni	-11933
▁najvjerojatnije	-11934
cht	-11935
jev	-11936
▁GP	-11937
▁Ry	-11938
▁es	-11939
gori	-11940
zaka	-11941
znim	-11942
▁1-1	-11943
▁III	-11944
▁čan	-11945
itelj	-11946
metar	-11947
unaro	-11948
▁Maje	-11949
▁Snim	-11950
▁Supe	-11951
▁Tina	-11952
▁lete	-11953
▁lika	-11954
▁miši	-11955
▁sira	-11956
▁šoka	-11957
politi	-11958
stveno	-11959
▁Kakav	-11960
▁Maria	-11961
▁Posta	-11962
▁bilja	-11963
▁brigu	-11964
▁cjepi	-11965
▁posre	-11966
▁ribar	-11967
▁ritam	-11968
▁samih	-11969
▁stići	-11970
▁takoz	-11971
▁tešku	-11972
▁uvjet	-11973
▁čista	-11974
▁švica	-11975
▁Franje	-11976
▁Jedino	-11977
▁birali	-11978
▁govoru	-11979
▁lijeve	-11980
▁odbaci	-11981
▁povrća	-11982
▁spozna	-11983
▁vozače	-11984
▁zakono	-11985
▁Budimir	-11986
▁haljini	-11987
▁manjine	-11988
▁povjere	-11989
▁smanjio	-11990
▁smijemo	-11991
▁zaprije	-11992
▁Beograda	-11993
▁Zadarske	-11994
▁donesena	-11995
▁medijske	-11996
▁original	-11997
▁prisjetio	-11998
▁službenoj	-11999
▁splitskom	-12000
▁teritorij	-12001
▁Amerikanci	-12002
▁inspektora	-12003
▁svojedobno	-12004
▁teritoriju	-12005
▁ovogodišnji	-12006
▁poluvrijeme	-12007
▁zdravstvenog	-12008
lis	-12009
run	-12010
bert	-12011
cite	-12012
fona	-12013
info	-12014
mpom	-12015
zmom	-12016
čuna	-12017
štar	-12018
želj	-12019
žilo	-12020
▁Ari	-12021
▁Kno	-12022
▁Sce	-12023
▁ića	-12024
▁pog	-12025
▁sir	-12026
▁uop	-12027
▁Šte	-12028
dnjak	-12029
logom	-12030
rirao	-12031
▁Osvr	-12032
▁Rome	-12033
▁faši	-12034
▁grob	-12035
▁gume	-12036
▁nsku	-12037
▁čkih	-12038
stanbu	-12039
teljem	-12040
vijest	-12041
▁Fener	-12042
▁Sutra	-12043
▁dotak	-12044
▁hvale	-12045
▁južno	-12046
▁minus	-12047
▁ranim	-12048
▁ratni	-12049
▁riski	-12050
▁ultra	-12051
▁vjere	-12052
▁Hrvate	-12053
▁obnova	-12054
▁odlaze	-12055
▁sličan	-12056
▁srećom	-12057
▁starih	-12058
▁stroja	-12059
▁svetog	-12060
▁vjerni	-12061
▁zdrave	-12062
▁Želimo	-12063
▁Istanbu	-12064
▁Poljska	-12065
▁izborio	-12066
▁krevetu	-12067
▁kulturi	-12068
▁naknada	-12069
▁oblačno	-12070
▁presuda	-12071
▁promila	-12072
▁Štoviše	-12073
▁životne	-12074
▁Bundesli	-12075
▁dokument	-12076
▁funkcije	-12077
▁naročito	-12078
▁njezinoj	-12079
▁odlučuje	-12080
▁otvorene	-12081
▁pogreške	-12082
▁pogrešno	-12083
▁dvostruko	-12084
▁nastupila	-12085
▁propustio	-12086
▁izjednačio	-12087
▁nacionalni	-12088
▁političkom	-12089
▁prethodnih	-12090
▁policijskih	-12091
▁sigurnosnih	-12092
au	-12093
kto	-12094
mba	-12095
zza	-12096
▁81	-12097
▁CO	-12098
▁IC	-12099
▁MI	-12100
▁Đa	-12101
▁90-	-12102
▁Ger	-12103
▁Men	-12104
▁Rat	-12105
▁SOA	-12106
▁Sna	-12107
▁kok	-12108
kinje	-12109
▁Anti	-12110
▁Gala	-12111
▁Jure	-12112
▁Mona	-12113
▁aran	-12114
▁pilo	-12115
▁šoku	-12116
▁ženi	-12117
bacuje	-12118
▁1998.	-12119
▁frizu	-12120
▁irati	-12121
▁najbi	-12122
▁šesti	-12123
grafiju	-12124
▁Andrea	-12125
▁Križev	-12126
▁Milana	-12127
▁Thomas	-12128
▁Vedran	-12129
▁Wimble	-12130
▁krijum	-12131
▁lijevo	-12132
▁obusta	-12133
▁presre	-12134
▁prizor	-12135
▁realno	-12136
▁sjajne	-12137
▁stjeca	-12138
▁straho	-12139
▁sudeći	-12140
▁ubijen	-12141
▁Čovjek	-12142
▁Danijel	-12143
▁Koncert	-12144
▁ambicio	-12145
▁ciklusa	-12146
▁domaćim	-12147
▁dopusti	-12148
▁hladnja	-12149
▁kolnika	-12150
▁kredita	-12151
▁mislila	-12152
▁najgore	-12153
▁ostanak	-12154
▁porasla	-12155
▁postaja	-12156
▁sastoji	-12157
▁toleran	-12158
▁vanjske	-12159
▁zabranu	-12160
▁zadužen	-12161
▁zastupa	-12162
▁znakovi	-12163
▁Izbornik	-12164
▁Priprema	-12165
▁dizajner	-12166
▁donosimo	-12167
▁odustati	-12168
▁ostavila	-12169
▁pojaviti	-12170
▁pravilno	-12171
▁simptome	-12172
▁telefona	-12173
▁veličine	-12174
▁Pjevačica	-12175
▁Temperatu	-12176
▁prosvjeda	-12177
▁nacionalnu	-12178
▁pripremaju	-12179
▁nacionalnoj	-12180
▁predstavila	-12181
▁primijetili	-12182
tz	-12183
pao	-12184
pta	-12185
čom	-12186
Što	-12187
▁("	-12188
▁82	-12189
▁88	-12190
▁Ly	-12191
▁RS	-12192
▁ml	-12193
dona	-12194
giji	-12195
jnih	-12196
mite	-12197
rusa	-12198
sson	-12199
tent	-12200
tska	-12201
čane	-12202
šina	-12203
▁DIP	-12204
▁Shi	-12205
▁Sma	-12206
▁lić	-12207
prkos	-12208
▁Bosi	-12209
▁Duba	-12210
▁Loka	-12211
▁sing	-12212
▁vjen	-12213
▁zvao	-12214
cional	-12215
žnosti	-12216
▁Borna	-12217
▁Marce	-12218
▁Zajec	-12219
▁Zapad	-12220
▁bubre	-12221
▁gorju	-12222
▁okusa	-12223
▁pluća	-12224
▁stani	-12225
▁vezan	-12226
▁Cristi	-12227
▁Pokuša	-12228
▁borila	-12229
▁gorivo	-12230
▁nigdje	-12231
▁osnovi	-12232
▁regiju	-12233
▁slasti	-12234
▁visoku	-12235
▁Anthony	-12236
▁Barbara	-12237
▁Glavnog	-12238
▁Legenda	-12239
▁haljinu	-12240
▁mjerama	-12241
▁stajati	-12242
▁suzdrža	-12243
▁urednik	-12244
▁čekanja	-12245
▁Hezbolah	-12246
▁događaje	-12247
▁engleski	-12248
▁lijekova	-12249
▁odabrati	-12250
▁oporavka	-12251
▁rehabili	-12252
▁njemačkog	-12253
▁obavijest	-12254
▁pronađena	-12255
▁sportskim	-12256
▁tromjeseč	-12257
▁zanimanja	-12258
▁zaustavio	-12259
▁Profimedia	-12260
▁okupljanja	-12261
▁ozlijeđena	-12262
▁političari	-12263
▁predavanja	-12264
▁službenika	-12265
▁financijsku	-12266
▁najvažnijih	-12267
▁Županijskog	-12268
▁razmišljanja	-12269
lca	-12270
obi	-12271
rti	-12272
▁?'	-12273
njić	-12274
▁1,2	-12275
▁vir	-12276
▁zab	-12277
ređen	-12278
▁Grmo	-12279
▁Izlo	-12280
▁King	-12281
▁Matt	-12282
▁Nave	-12283
▁Ovim	-12284
▁miri	-12285
▁naci	-12286
▁reli	-12287
▁čudi	-12288
▁živa	-12289
loškom	-12290
tuzija	-12291
▁1995.	-12292
▁Mirko	-12293
▁Prona	-12294
▁Prvom	-12295
▁Uskrs	-12296
▁avion	-12297
▁farma	-12298
▁imple	-12299
▁kućan	-12300
▁ljuti	-12301
▁padne	-12302
▁pogon	-12303
▁Šarić	-12304
▁Filipa	-12305
▁biznis	-12306
▁gledam	-12307
▁kardio	-12308
▁klubom	-12309
▁mrtvih	-12310
▁nećete	-12311
▁porije	-12312
▁poveli	-12313
▁prakse	-12314
▁termin	-12315
▁vožnji	-12316
▁Nadalje	-12317
▁dionici	-12318
▁djetetu	-12319
▁funkcio	-12320
▁ljudske	-12321
▁otpadom	-12322
▁postanu	-12323
▁provoka	-12324
▁susjeda	-12325
▁čovjeku	-12326
▁Svjetski	-12327
▁događalo	-12328
▁dovoljan	-12329
▁tvrtkama	-12330
▁ugostiti	-12331
▁zatvoren	-12332
▁Internati	-12333
▁Situacija	-12334
▁arhitektu	-12335
▁inflacija	-12336
▁istražuje	-12337
▁prekinuti	-12338
▁upozorila	-12339
▁političara	-12340
▁središnjoj	-12341
▁djetinjstva	-12342
▁iznenađenja	-12343
▁ukrajinskih	-12344
▁zdravstveni	-12345
▁potencijalne	-12346
▁nezadovoljstvo	-12347
Je	-12348
cro	-12349
div	-12350
int	-12351
qua	-12352
žit	-12353
▁BI	-12354
etku	-12355
gora	-12356
gove	-12357
java	-12358
plet	-12359
vjed	-12360
ward	-12361
šene	-12362
▁1,4	-12363
▁Ata	-12364
▁Mat	-12365
▁puk	-12366
burgu	-12367
gnuta	-12368
tinga	-12369
vatre	-12370
▁Kraj	-12371
▁beba	-12372
▁izdr	-12373
▁nosa	-12374
▁skro	-12375
▁zače	-12376
▁Karlo	-12377
▁držao	-12378
▁junio	-12379
▁očiju	-12380
▁parka	-12381
▁plaže	-12382
▁resor	-12383
▁ruska	-12384
▁staza	-12385
▁Bernar	-12386
▁Cityja	-12387
▁Djevoj	-12388
▁Dodala	-12389
▁London	-12390
▁obrtni	-12391
▁slikar	-12392
▁snimci	-12393
▁susjed	-12394
▁udobno	-12395
▁uslugu	-12396
▁vezana	-12397
▁Najviša	-12398
▁Pitanje	-12399
▁emisiju	-12400
▁gospoda	-12401
▁kupcima	-12402
▁najviša	-12403
▁odabrao	-12404
▁podnese	-12405
▁rođenja	-12406
▁tretman	-12407
▁zabrana	-12408
▁zadnjoj	-12409
▁Libanonu	-12410
▁Povjeren	-12411
▁Sportske	-12412
▁državnoj	-12413
▁entuzija	-12414
▁funkciji	-12415
▁invazije	-12416
▁očuvanje	-12417
▁pobjegao	-12418
▁pogotkom	-12419
▁polovici	-12420
▁preuzela	-12421
▁privlači	-12422
▁proslave	-12423
▁protivni	-12424
▁saznanja	-12425
▁sjednicu	-12426
▁splitsko	-12427
▁središte	-12428
▁umjereno	-12429
▁uzrokuje	-12430
▁engleskog	-12431
▁minimalno	-12432
▁neprihvat	-12433
▁poginulih	-12434
▁prijavila	-12435
▁seksualno	-12436
▁slobodnog	-12437
▁intelektua	-12438
▁klimatskih	-12439
▁neslužbeno	-12440
▁zajedničke	-12441
▁asistencije	-12442
▁kandidatima	-12443
▁proizvodima	-12444
▁učinkovitost	-12445
ON	-12446
med	-12447
nea	-12448
obu	-12449
▁77	-12450
▁OS	-12451
liki	-12452
mine	-12453
sing	-12454
site	-12455
stov	-12456
▁19,	-12457
▁190	-12458
▁Kom	-12459
▁Kul	-12460
▁Pin	-12461
▁Zah	-12462
▁alu	-12463
▁oži	-12464
▁tić	-12465
goran	-12466
llywo	-12467
sjeda	-12468
teran	-12469
▁Gora	-12470
▁HGSS	-12471
▁Jane	-12472
▁Mini	-12473
▁Opet	-12474
▁Optu	-12475
▁Sana	-12476
▁Ulaz	-12477
▁Vaša	-12478
▁arti	-12479
▁duše	-12480
▁izma	-12481
▁kova	-12482
▁nemi	-12483
▁padu	-12484
▁rezi	-12485
▁tlak	-12486
▁udje	-12487
▁voze	-12488
▁Žena	-12489
verner	-12490
zivaju	-12491
▁Frank	-12492
▁Sučić	-12493
▁Times	-12494
▁ansam	-12495
▁depre	-12496
▁plave	-12497
▁pojma	-12498
▁seksa	-12499
▁sjede	-12500
▁tiska	-12501
▁unija	-12502
vanjima	-12503
▁Genera	-12504
▁Svatko	-12505
▁Zavoda	-12506
▁civili	-12507
▁davati	-12508
▁hranji	-12509
▁krevet	-12510
▁poviše	-12511
▁predan	-12512
▁ugleda	-12513
▁usvaja	-12514
▁brinuti	-12515
▁dizajne	-12516
▁dohodak	-12517
▁državna	-12518
▁dvorana	-12519
▁iznosio	-12520
▁kulinar	-12521
▁nadzora	-12522
▁osmisli	-12523
▁prodaja	-12524
▁prodati	-12525
▁sustave	-12526
▁zadnjeg	-12527
▁Istaknuo	-12528
▁kretanje	-12529
▁najmlađi	-12530
▁pogodila	-12531
▁povjesni	-12532
▁Britaniji	-12533
▁Općinskog	-12534
▁analizira	-12535
▁komentare	-12536
▁nastavili	-12537
▁popularna	-12538
▁profesora	-12539
▁vlastitom	-12540
▁odgovorili	-12541
▁psihijatri	-12542
▁financijska	-12543
▁jugozapadni	-12544
▁kandidaturu	-12545
▁sudjelovalo	-12546
▁zdravstveno	-12547
▁posljedicama	-12548
TI	-12549
-0)	-12550
lia	-12551
sce	-12552
biji	-12553
ghan	-12554
ljke	-12555
vare	-12556
▁50-	-12557
▁Klo	-12558
▁OPG	-12559
▁Sky	-12560
▁War	-12561
ljuju	-12562
▁Jack	-12563
▁Loši	-12564
▁Musk	-12565
▁afri	-12566
▁debe	-12567
▁egzi	-12568
▁icom	-12569
▁manj	-12570
▁mega	-12571
▁rura	-12572
▁skra	-12573
▁uvoz	-12574
roviti	-12575
▁Anđel	-12576
▁Lopez	-12577
▁Pjaca	-12578
▁Preko	-12579
▁Sesve	-12580
▁desne	-12581
▁funti	-12582
▁japan	-12583
▁kamen	-12584
▁mirni	-12585
▁nosti	-12586
▁party	-12587
▁podvr	-12588
▁pokva	-12589
▁stava	-12590
▁Đurđe	-12591
▁Božića	-12592
▁Vijeće	-12593
▁dječje	-12594
▁izrade	-12595
▁kupili	-12596
▁mobili	-12597
▁napali	-12598
▁podići	-12599
▁presko	-12600
▁studij	-12601
▁trajao	-12602
▁vježbe	-12603
▁Bjeloru	-12604
▁Ukoliko	-12605
▁ljudsko	-12606
▁mladića	-12607
▁najteže	-12608
▁otocima	-12609
▁produže	-12610
▁pružaju	-12611
▁slavlja	-12612
▁susjedi	-12613
▁željela	-12614
▁Primorca	-12615
▁Sarajevo	-12616
▁djelatni	-12617
▁dobrobit	-12618
▁gradskih	-12619
▁orkestar	-12620
▁pojavlji	-12621
▁postroje	-12622
▁računati	-12623
▁uspješna	-12624
▁uspješne	-12625
▁vještina	-12626
▁Livaković	-12627
▁Liverpool	-12628
▁Rezultati	-12629
▁doprinosi	-12630
▁ekonomski	-12631
▁mijenjaju	-12632
▁odgovorni	-12633
▁otkrivaju	-12634
▁razgovore	-12635
▁komentator	-12636
▁odgovarati	-12637
▁podijelili	-12638
▁proizvođač	-12639
▁Sveučilištu	-12640
Pro	-12641
sho	-12642
▁Es	-12643
▁kW	-12644
glav	-12645
pama	-12646
vobo	-12647
zbor	-12648
▁160	-12649
▁2:1	-12650
▁Ama	-12651
▁Hla	-12652
chenu	-12653
rskog	-12654
valio	-12655
▁Naše	-12656
▁Opće	-12657
▁Stva	-12658
▁kino	-12659
▁otku	-12660
▁rasi	-12661
lijeva	-12662
slaven	-12663
▁Irana	-12664
▁Kijev	-12665
▁Thomp	-12666
▁bloka	-12667
▁hormo	-12668
▁kirur	-12669
▁kopne	-12670
▁masti	-12671
▁najbr	-12672
▁oprez	-12673
▁polaz	-12674
▁smrto	-12675
▁start	-12676
▁sveti	-12677
▁ulazu	-12678
▁šećer	-12679
terinar	-12680
▁Ancelo	-12681
▁Moskvi	-12682
▁Pokaza	-12683
▁Renata	-12684
▁banaka	-12685
▁elegan	-12686
▁napore	-12687
▁odbila	-12688
▁opasna	-12689
▁oporba	-12690
▁parale	-12691
▁pitati	-12692
▁povrće	-12693
▁pranje	-12694
▁reguli	-12695
▁zabili	-12696
▁čvrsto	-12697
▁dronova	-12698
▁gradovi	-12699
▁hektara	-12700
▁ljudski	-12701
▁nastupu	-12702
▁pozvali	-12703
▁prijete	-12704
▁stavila	-12705
▁živjela	-12706
▁žrtvama	-12707
▁Antonija	-12708
▁dalmatin	-12709
▁izabrati	-12710
▁odabrala	-12711
▁preokret	-12712
▁pronađen	-12713
▁rasproda	-12714
▁stabilno	-12715
▁trgovinu	-12716
▁Božinović	-12717
▁Hezbolaha	-12718
▁autoceste	-12719
▁doživjeti	-12720
▁klimatske	-12721
▁kvaliteti	-12722
▁najboljem	-12723
▁napetosti	-12724
▁pojedinci	-12725
▁popraviti	-12726
▁automobili	-12727
▁ispitivanja	-12728
▁popularnost	-12729
▁zaposlenici	-12730
▁zdravstvenim	-12731
ud	-12732
bah	-12733
jor	-12734
pov	-12735
▁(9	-12736
▁JE	-12737
bota	-12738
nogo	-12739
rami	-12740
roni	-12741
zana	-12742
▁27-	-12743
▁900	-12744
▁nos	-12745
▁out	-12746
▁vio	-12747
dnike	-12748
vrede	-12749
znike	-12750
▁1961	-12751
▁Alca	-12752
▁Izvr	-12753
▁Selo	-12754
▁Slam	-12755
▁Usko	-12756
▁Zapo	-12757
▁naji	-12758
▁papa	-12759
▁povi	-12760
zirani	-12761
▁Imaju	-12762
▁Ivane	-12763
▁Sudac	-12764
▁Swift	-12765
▁borac	-12766
▁dragi	-12767
▁kartu	-12768
▁kolni	-12769
▁penal	-12770
▁proži	-12771
▁vašim	-12772
▁Dnevni	-12773
▁Kijevu	-12774
▁Macron	-12775
▁Radovi	-12776
▁Tvrtka	-12777
▁Zastup	-12778
▁doktor	-12779
▁domaća	-12780
▁dovela	-12781
▁njenom	-12782
▁paketa	-12783
▁petero	-12784
▁pratio	-12785
▁starog	-12786
▁trajno	-12787
▁utječu	-12788
dalmatin	-12789
neretvan	-12790
▁100.000	-12791
▁Gradske	-12792
▁Iskreno	-12793
▁Stričak	-12794
▁izlazak	-12795
▁kapital	-12796
▁ključan	-12797
▁ključnu	-12798
▁ljetnih	-12799
▁odrasle	-12800
▁pisanju	-12801
▁plaćaju	-12802
▁potpuni	-12803
▁strašno	-12804
▁transak	-12805
▁zadobio	-12806
▁živjeli	-12807
▁životno	-12808
▁Jakirovi	-12809
▁Uglavnom	-12810
▁agresije	-12811
▁dolaskom	-12812
▁dostupni	-12813
▁kaznenom	-12814
▁kratkoro	-12815
▁nedaleko	-12816
▁nepresta	-12817
▁pacijent	-12818
▁poznatim	-12819
▁prirodne	-12820
▁provedbu	-12821
▁sjednica	-12822
▁trenerom	-12823
▁detaljima	-12824
▁gastronom	-12825
▁novinarka	-12826
▁optimisti	-12827
▁posjeduje	-12828
▁poslovnog	-12829
▁predstavi	-12830
▁smanjenju	-12831
▁svjetskom	-12832
▁zatvorena	-12833
▁završetku	-12834
▁kontrolira	-12835
▁napomenuti	-12836
▁prepoznali	-12837
▁primijetio	-12838
▁spašavanja	-12839
▁turistička	-12840
▁zabilježen	-12841
▁osumnjičeni	-12842
cke	-12843
ise	-12844
wer	-12845
zde	-12846
Kako	-12847
cker	-12848
licu	-12849
rnuo	-12850
▁6-4	-12851
▁Del	-12852
▁IDS	-12853
▁Mio	-12854
▁chi	-12855
▁kut	-12856
▁vri	-12857
gorje	-12858
▁Ella	-12859
▁Miss	-12860
▁Pola	-12861
▁budi	-12862
▁kuka	-12863
▁punu	-12864
▁uhva	-12865
▁čkim	-12866
▁žuti	-12867
ljivih	-12868
logija	-12869
▁Kruno	-12870
▁Marku	-12871
▁janje	-12872
▁mješa	-12873
▁morat	-12874
▁nutri	-12875
▁pilot	-12876
▁pojas	-12877
▁saslu	-12878
▁Brojni	-12879
▁Dubrov	-12880
▁Glasno	-12881
▁Gorici	-12882
▁Strije	-12883
▁Totten	-12884
▁cijevi	-12885
▁izraže	-12886
▁ocjenu	-12887
▁opciju	-12888
▁očevid	-12889
▁pogađa	-12890
▁pristo	-12891
▁putuje	-12892
▁putuju	-12893
▁strogo	-12894
▁teškoj	-12895
▁tramva	-12896
▁dopušta	-12897
▁gradove	-12898
▁ocjenji	-12899
▁osmijeh	-12900
▁povrije	-12901
▁pratite	-12902
▁stvorio	-12903
▁toplije	-12904
▁trajala	-12905
▁trofeja	-12906
▁tvrdnje	-12907
▁Organiza	-12908
▁Slobodna	-12909
▁druženja	-12910
▁obnovlji	-12911
▁prehrani	-12912
▁uhićenja	-12913
▁vrijedne	-12914
▁zakonoda	-12915
▁zaraditi	-12916
▁gostujući	-12917
▁istodobno	-12918
▁potrošača	-12919
▁uslijedio	-12920
▁jugoslaven	-12921
▁objavljeni	-12922
▁političkoj	-12923
▁prisjetila	-12924
▁zabranjeno	-12925
▁iskoristili	-12926
▁oduševljeni	-12927
▁organizirao	-12928
▁povjerenstvo	-12929
▁znanstvenici	-12930
▁prijateljstva	-12931
▁razumijevanja	-12932
LS	-12933
lat	-12934
šin	-12935
▁JA	-12936
drag	-12937
esti	-12938
lago	-12939
tero	-12940
žana	-12941
▁15,	-12942
▁16,	-12943
▁3,5	-12944
▁Biv	-12945
▁Der	-12946
▁HAK	-12947
▁Lee	-12948
▁ani	-12949
▁jah	-12950
▁nei	-12951
▁saz	-12952
▁uđe	-12953
ivati	-12954
lanti	-12955
lošku	-12956
▁Brod	-12957
▁Naro	-12958
▁Otac	-12959
▁Park	-12960
▁amba	-12961
▁guma	-12962
▁išlo	-12963
▁sila	-12964
▁sile	-12965
▁slje	-12966
cijsko	-12967
vizije	-12968
šenjem	-12969
▁2027.	-12970
▁Izvje	-12971
▁Svoje	-12972
▁imenu	-12973
▁klini	-12974
▁krema	-12975
▁porno	-12976
▁potje	-12977
▁služe	-12978
▁veoma	-12979
bijanje	-12980
▁Cijena	-12981
▁Između	-12982
▁ambije	-12983
▁dublje	-12984
▁ekstra	-12985
▁fanovi	-12986
▁idućih	-12987
▁istine	-12988
▁konsta	-12989
▁kontej	-12990
▁metoda	-12991
▁obnovi	-12992
▁prvaci	-12993
▁ratnih	-12994
▁remija	-12995
▁sadrže	-12996
▁trošak	-12997
▁udalji	-12998
rovitelj	-12999
▁Belgija	-13000
▁aktivan	-13001
▁izacija	-13002
▁osoblje	-13003
▁prirodu	-13004
▁trojica	-13005
▁zapadni	-13006
▁Hezbolla	-13007
▁baterija	-13008
▁dovoljna	-13009
▁koprivni	-13010
▁muškarce	-13011
▁osjetiti	-13012
▁očekivao	-13013
▁uspijeva	-13014
▁vrhunske	-13015
▁Eurosonga	-13016
▁današnjeg	-13017
▁doživljaj	-13018
▁dužnosnik	-13019
▁izdvojiti	-13020
▁koristeći	-13021
▁krajevima	-13022
▁kulturnog	-13023
▁podizanje	-13024
▁postrojbe	-13025
▁predanost	-13026
▁stvaranja	-13027
▁vlastitog	-13028
▁Plenkoviću	-13029
▁biciklisti	-13030
▁državljana	-13031
▁lokacijama	-13032
▁pripremili	-13033
▁proslavila	-13034
▁strategije	-13035
▁turistički	-13036
▁inicijativa	-13037
▁međunarodnim	-13038
▁ovogodišnjeg	-13039
▁postavljanje	-13040
▁predstavljen	-13041
-2,	-13042
bon	-13043
bru	-13044
bus	-13045
dow	-13046
kvo	-13047
lva	-13048
nic	-13049
zum	-13050
▁NO	-13051
▁RE	-13052
▁RI	-13053
biju	-13054
jnim	-13055
lans	-13056
čare	-13057
šite	-13058
▁3-1	-13059
▁Inf	-13060
▁Obu	-13061
▁Sco	-13062
▁Tea	-13063
▁fer	-13064
▁usi	-13065
▁zvi	-13066
ranih	-13067
časti	-13068
▁Jesu	-13069
▁dalo	-13070
▁izri	-13071
▁mlje	-13072
▁ples	-13073
torima	-13074
▁Stani	-13075
▁Zapre	-13076
▁bacio	-13077
▁cijep	-13078
▁dečko	-13079
▁intri	-13080
▁krajo	-13081
▁krivi	-13082
▁polja	-13083
▁stepe	-13084
▁vašoj	-13085
▁većih	-13086
▁čekao	-13087
▁Gorana	-13088
▁ankete	-13089
▁birati	-13090
▁civila	-13091
▁izradu	-13092
▁novcem	-13093
▁pomoću	-13094
▁radika	-13095
▁stabla	-13096
▁tjeste	-13097
▁vukova	-13098
▁zdravi	-13099
▁zdravo	-13100
▁Dragana	-13101
▁Mladost	-13102
▁Stvarno	-13103
▁Varteks	-13104
▁izmjena	-13105
▁počinju	-13106
▁saznati	-13107
▁stavili	-13108
▁tražila	-13109
▁gradskoj	-13110
▁iznenada	-13111
▁pažljivo	-13112
▁porastao	-13113
▁sjeverni	-13114
▁smješten	-13115
▁stvarati	-13116
▁društveno	-13117
▁izgraditi	-13118
▁komentari	-13119
▁najljepše	-13120
▁povijesne	-13121
▁četvrtine	-13122
▁Martinović	-13123
▁Ukrajinski	-13124
▁poštovanja	-13125
▁talijanske	-13126
▁zaključiti	-13127
▁obrazovanju	-13128
▁prikazujemo	-13129
▁istraživanju	-13130
▁pratiteljima	-13131
▁predstavljanje	-13132
kg	-13133
-1)	-13134
sha	-13135
ajno	-13136
fica	-13137
gona	-13138
sona	-13139
đite	-13140
▁Jel	-13141
▁ero	-13142
▁jez	-13143
▁mae	-13144
▁pul	-13145
▁ton	-13146
▁Save	-13147
▁anđe	-13148
▁crnu	-13149
▁eufo	-13150
▁noga	-13151
▁pole	-13152
▁ugra	-13153
▁zube	-13154
ljenim	-13155
pisuju	-13156
▁1992.	-13157
▁2003.	-13158
▁arheo	-13159
▁dolje	-13160
▁gusto	-13161
▁kinja	-13162
▁prepo	-13163
▁virus	-13164
▁zvjez	-13165
▁Česti	-13166
▁Jedini	-13167
▁Moskva	-13168
▁Ustava	-13169
▁bankar	-13170
▁izlaze	-13171
▁kanalu	-13172
▁nekima	-13173
▁njenog	-13174
▁nuklea	-13175
▁odabir	-13176
▁počele	-13177
▁prihod	-13178
▁prošlu	-13179
▁prtlja	-13180
▁saboru	-13181
▁suditi	-13182
▁tvrdio	-13183
▁Španjo	-13184
▁Celzije	-13185
▁Kandida	-13186
▁autobus	-13187
▁drugdje	-13188
▁dvoranu	-13189
▁iskusni	-13190
▁izbornu	-13191
▁katedra	-13192
▁nazvati	-13193
▁okolici	-13194
▁opisala	-13195
▁oprezni	-13196
▁podigao	-13197
▁prenose	-13198
▁prodaji	-13199
▁simboli	-13200
▁ukazuju	-13201
▁čelnici	-13202
▁životni	-13203
▁Kristina	-13204
▁autorica	-13205
▁baterije	-13206
▁europsku	-13207
▁kapitala	-13208
▁navedene	-13209
▁prepreka	-13210
▁priopćio	-13211
▁razinama	-13212
▁stambene	-13213
▁Festivala	-13214
▁infekcije	-13215
▁koalicija	-13216
▁kolestero	-13217
▁nastupima	-13218
▁očekivali	-13219
▁popularne	-13220
▁prenijeti	-13221
▁pretposta	-13222
▁razumjeti	-13223
▁realizira	-13224
▁seksualne	-13225
▁energetske	-13226
▁kvalitetno	-13227
▁nedostatka	-13228
▁podržavaju	-13229
▁poduzetnik	-13230
▁pojašnjava	-13231
▁rukometaši	-13232
▁zanimljive	-13233
▁tehnologiju	-13234
▁zapovjednika	-13235
▁inteligencija	-13236
▁prijateljstvo	-13237
Ko	-13238
sma	-13239
vil	-13240
▁Ah	-13241
▁Og	-13242
▁RA	-13243
▁WC	-13244
boli	-13245
nisa	-13246
zili	-13247
šeni	-13248
▁20,	-13249
▁3-0	-13250
▁50.	-13251
▁Pal	-13252
▁era	-13253
ljela	-13254
misti	-13255
namje	-13256
torij	-13257
vezao	-13258
ćevoj	-13259
▁Crno	-13260
▁Dubo	-13261
▁Zden	-13262
▁crni	-13263
▁krov	-13264
▁lova	-13265
▁peri	-13266
▁rana	-13267
▁reza	-13268
▁vrtu	-13269
▁štet	-13270
cionar	-13271
▁Ivani	-13272
▁Nagra	-13273
▁Požar	-13274
▁Vrati	-13275
▁brazi	-13276
▁desno	-13277
▁epide	-13278
▁ključ	-13279
▁komad	-13280
▁mozak	-13281
▁napro	-13282
▁odjel	-13283
▁opozi	-13284
▁stane	-13285
▁zraku	-13286
▁Meghan	-13287
▁Nezavi	-13288
▁Turska	-13289
▁bogata	-13290
▁idućeg	-13291
▁krivot	-13292
▁povrat	-13293
▁prepla	-13294
▁skandi	-13295
▁struke	-13296
▁uređaj	-13297
▁Karogla	-13298
▁analizu	-13299
▁dočekao	-13300
▁igračem	-13301
▁ispunje	-13302
▁izbacio	-13303
▁izložbi	-13304
▁kritika	-13305
▁ljepote	-13306
▁ponovio	-13307
▁pravnim	-13308
▁pridrža	-13309
▁tijesto	-13310
▁visokom	-13311
▁vojnici	-13312
▁Mercedes	-13313
▁izboriti	-13314
▁prisutni	-13315
▁prolazak	-13316
▁srednjih	-13317
▁Filipović	-13318
▁Franković	-13319
▁Ravnatelj	-13320
▁Ukrajinci	-13321
▁jutarnjim	-13322
▁negativno	-13323
▁određenim	-13324
▁pojedinih	-13325
▁prosječne	-13326
▁savjetnik	-13327
▁vladajuće	-13328
▁aplikacija	-13329
▁medicinskih	-13330
▁zahtijevaju	-13331
ffi	-13332
saj	-13333
tha	-13334
▁92	-13335
▁oc	-13336
ljub	-13337
peut	-13338
uzro	-13339
vači	-13340
vske	-13341
▁Cru	-13342
▁Kel	-13343
▁Kit	-13344
▁Uma	-13345
▁jim	-13346
▁lja	-13347
▁spi	-13348
djeli	-13349
klapa	-13350
▁Adam	-13351
▁Dije	-13352
▁Komu	-13353
▁Lisa	-13354
▁Lisi	-13355
▁Luku	-13356
▁fali	-13357
▁opis	-13358
▁raza	-13359
▁repe	-13360
▁temi	-13361
obuhva	-13362
▁Dabro	-13363
▁Ferra	-13364
▁Savez	-13365
▁World	-13366
▁belgi	-13367
▁bosan	-13368
▁jasna	-13369
▁klase	-13370
▁kocki	-13371
▁lider	-13372
▁opore	-13373
▁papri	-13374
▁predo	-13375
▁punim	-13376
▁ukaza	-13377
▁važni	-13378
▁većeg	-13379
▁Berlin	-13380
▁Centru	-13381
▁Saveza	-13382
▁Siriji	-13383
▁Turske	-13384
▁cijske	-13385
▁korona	-13386
▁kupila	-13387
▁marihu	-13388
▁mladen	-13389
▁pedago	-13390
▁unapre	-13391
▁vrtiću	-13392
▁Izgleda	-13393
▁Trenuta	-13394
▁drugoga	-13395
▁okupili	-13396
▁planina	-13397
▁potpisi	-13398
▁povlači	-13399
▁prouzro	-13400
▁savjeta	-13401
▁sloboda	-13402
▁suđenja	-13403
▁učinila	-13404
▁bespovra	-13405
▁kapetana	-13406
▁ostavili	-13407
▁pamćenje	-13408
▁simptoma	-13409
▁stoljeću	-13410
▁studente	-13411
▁značajne	-13412
▁branitelj	-13413
▁kritizira	-13414
▁njemačkom	-13415
▁potrošnju	-13416
▁predložio	-13417
▁pregovori	-13418
▁pridružio	-13419
▁privatnim	-13420
▁proglasio	-13421
▁proračunu	-13422
▁stvarnost	-13423
▁sveobuhva	-13424
▁zamijenio	-13425
▁Zagrebački	-13426
▁pojavljuje	-13427
▁regionalne	-13428
▁zastupnica	-13429
▁komunikaciju	-13430
▁konferenciju	-13431
▁predstavljati	-13432
-19	-13433
dge	-13434
dum	-13435
tum	-13436
▁ol	-13437
ntne	-13438
zona	-13439
▁Bol	-13440
▁Fri	-13441
▁Hra	-13442
▁Psi	-13443
▁nić	-13444
▁peć	-13445
▁por	-13446
▁uva	-13447
▁Špi	-13448
endan	-13449
landa	-13450
llery	-13451
snica	-13452
talni	-13453
tarac	-13454
đenom	-13455
▁Elek	-13456
▁Ener	-13457
▁Open	-13458
▁Part	-13459
▁izam	-13460
▁kava	-13461
▁neče	-13462
▁rang	-13463
▁voće	-13464
povije	-13465
▁Bilić	-13466
▁Imala	-13467
▁Susre	-13468
▁brinu	-13469
▁certi	-13470
▁garde	-13471
▁grupu	-13472
▁karci	-13473
▁kišom	-13474
▁klupu	-13475
▁ljeti	-13476
▁nijih	-13477
▁odveo	-13478
▁pamti	-13479
▁prefe	-13480
▁stolu	-13481
▁toksi	-13482
▁turbu	-13483
▁umrla	-13484
▁usavr	-13485
▁vaših	-13486
▁Radman	-13487
▁Uprava	-13488
▁Uslije	-13489
▁anonim	-13490
▁doduše	-13491
▁manjim	-13492
▁odvoji	-13493
▁strast	-13494
▁struko	-13495
▁težine	-13496
▁upitao	-13497
▁zapadu	-13498
▁Demokra	-13499
▁analiza	-13500
▁demanti	-13501
▁dodjeli	-13502
▁kretati	-13503
▁nepotre	-13504
▁nikakvu	-13505
▁osjetio	-13506
▁ukupnom	-13507
▁uputili	-13508
▁četvrto	-13509
▁Albanije	-13510
▁Dnevnika	-13511
▁Sjeverna	-13512
▁domaćini	-13513
▁fotograf	-13514
▁lokalnoj	-13515
▁navodeći	-13516
▁neprimje	-13517
▁pokušala	-13518
▁spavanja	-13519
▁splitske	-13520
▁svladala	-13521
▁zagovara	-13522
▁američkom	-13523
▁današnjem	-13524
▁kandidate	-13525
▁konkretno	-13526
▁napomenuo	-13527
▁osvojenih	-13528
▁pljuskovi	-13529
▁policajac	-13530
▁poslovnom	-13531
▁razgovori	-13532
▁sljedećeg	-13533
▁tradicija	-13534
▁transfera	-13535
▁Nizozemska	-13536
▁djelatnost	-13537
▁dobrodošli	-13538
▁energetsku	-13539
▁kvalitetan	-13540
▁sugovornik	-13541
▁španjolski	-13542
▁Posljednjih	-13543
▁organizator	-13544
▁zadovoljiti	-13545
▁parlamentarnih	-13546
▁parlamentarnim	-13547
Vi	-13548
os	-13549
Pre	-13550
SEL	-13551
ago	-13552
cer	-13553
her	-13554
sch	-13555
čao	-13556
▁HV	-13557
vuda	-13558
ćeva	-13559
▁Ive	-13560
▁Min	-13561
▁ZET	-13562
▁eri	-13563
▁muž	-13564
▁poe	-13565
▁str	-13566
▁čvo	-13567
posto	-13568
▁Dori	-13569
▁Lepo	-13570
▁Lici	-13571
▁Peru	-13572
▁crte	-13573
▁košu	-13574
▁meču	-13575
▁nisi	-13576
▁piti	-13577
▁piva	-13578
▁vrho	-13579
▁zale	-13580
njskog	-13581
▁"...,	-13582
▁Doris	-13583
▁Očito	-13584
▁Trans	-13585
▁bombe	-13586
▁dizel	-13587
▁garan	-13588
▁hajdu	-13589
▁https	-13590
▁kozme	-13591
▁lošeg	-13592
▁monta	-13593
▁okupa	-13594
▁otkad	-13595
▁sinom	-13596
▁slažu	-13597
▁subot	-13598
▁taksi	-13599
▁ulaže	-13600
▁upala	-13601
▁Ivanom	-13602
▁Kralje	-13603
▁Mjesec	-13604
▁Siniša	-13605
▁Walesa	-13606
▁biljke	-13607
▁desnog	-13608
▁eviden	-13609
▁javiti	-13610
▁limuna	-13611
▁nedugo	-13612
▁prizem	-13613
▁rekrea	-13614
▁slatko	-13615
▁snažnu	-13616
▁Četiri	-13617
▁župana	-13618
▁Ronaldo	-13619
▁Slijedi	-13620
▁derbija	-13621
▁mnoštvo	-13622
▁prošloj	-13623
▁spasila	-13624
▁stručni	-13625
▁svjetlu	-13626
▁tehnika	-13627
▁termina	-13628
▁uživali	-13629
▁Fenerbah	-13630
▁Komisije	-13631
▁dogovoru	-13632
▁lijekove	-13633
▁objašnja	-13634
▁otvaraju	-13635
▁ozbiljna	-13636
▁rukometa	-13637
▁susjedni	-13638
▁usmjeren	-13639
▁aktualnog	-13640
▁atmosferi	-13641
▁doživjeli	-13642
▁koaliciju	-13643
▁povećanju	-13644
▁povijesni	-13645
▁prijetnju	-13646
▁unutarnje	-13647
▁vjenčanje	-13648
▁gledatelje	-13649
▁konstantno	-13650
▁kontaktira	-13651
▁statistiku	-13652
▁uobičajeno	-13653
▁fotografiji	-13654
▁predstavili	-13655
▁financiranja	-13656
▁intervencija	-13657
▁predsjedničke	-13658
PI	-13659
ev	-13660
xa	-13661
car	-13662
dou	-13663
hur	-13664
led	-13665
zmi	-13666
▁6-	-13667
▁86	-13668
▁\/	-13669
livu	-13670
nder	-13671
zila	-13672
▁Cle	-13673
▁Ole	-13674
▁Pao	-13675
▁Spi	-13676
▁daj	-13677
▁rom	-13678
dnjom	-13679
janje	-13680
litet	-13681
rljiv	-13682
stein	-13683
▁Plan	-13684
▁Rimu	-13685
▁jogu	-13686
▁kišu	-13687
▁mole	-13688
▁ocem	-13689
▁odvo	-13690
▁piro	-13691
▁skok	-13692
▁suče	-13693
▁trka	-13694
▁unos	-13695
▁šume	-13696
▁Radni	-13697
▁Ulice	-13698
▁drame	-13699
▁izlet	-13700
▁kompe	-13701
▁petom	-13702
▁rundi	-13703
▁stali	-13704
▁zvali	-13705
cijskoj	-13706
miranja	-13707
vljanje	-13708
▁Drugog	-13709
▁Grmoja	-13710
▁Roland	-13711
▁Srpski	-13712
▁Upitan	-13713
▁bliski	-13714
▁boljeg	-13715
▁divlje	-13716
▁divlji	-13717
▁dovelo	-13718
▁libera	-13719
▁manjih	-13720
▁nestao	-13721
▁optima	-13722
▁padati	-13723
▁pričao	-13724
▁razvod	-13725
▁redova	-13726
▁stekao	-13727
▁Državno	-13728
▁Guardio	-13729
▁Magazin	-13730
▁Posjeti	-13731
▁izvesti	-13732
▁letjeli	-13733
▁ponudio	-13734
▁radosti	-13735
▁Engleske	-13736
▁dočekali	-13737
▁dočekati	-13738
▁gospodin	-13739
▁ostalima	-13740
▁poduzima	-13741
▁prestaje	-13742
▁dugoročno	-13743
▁iskustvom	-13744
▁izmjenama	-13745
▁napominju	-13746
▁postojeće	-13747
▁promijeni	-13748
▁četvornih	-13749
▁posljednju	-13750
▁pacijentima	-13751
▁prilagoditi	-13752
▁turističkih	-13753
▁kontrolirati	-13754
▁obožavatelji	-13755
▁posjetiteljima	-13756
45	-13757
LO	-13758
llo	-13759
moj	-13760
str	-13761
▁':	-13762
Nije	-13763
bana	-13764
klop	-13765
sion	-13766
ssan	-13767
stal	-13768
turi	-13769
▁25-	-13770
▁60.	-13771
▁Pol	-13772
▁koš	-13773
▁laž	-13774
▁www	-13775
▁zap	-13776
lnice	-13777
tisti	-13778
šnice	-13779
▁5000	-13780
▁Jana	-13781
▁Njih	-13782
▁OVAJ	-13783
▁figu	-13784
▁ogor	-13785
▁pija	-13786
▁sola	-13787
▁vale	-13788
▁Šime	-13789
gledno	-13790
protec	-13791
▁1990.	-13792
▁Idemo	-13793
▁Nedje	-13794
▁Prati	-13795
▁Proiz	-13796
▁Valen	-13797
▁javnu	-13798
▁kasni	-13799
▁krizu	-13800
▁lijep	-13801
▁modne	-13802
▁nezgo	-13803
▁nicom	-13804
▁pobri	-13805
▁prevo	-13806
▁prste	-13807
▁skupu	-13808
▁umije	-13809
▁učiti	-13810
▁znaku	-13811
▁čitav	-13812
ljiviji	-13813
▁Iznena	-13814
▁bivšem	-13815
▁domova	-13816
▁javili	-13817
▁osmini	-13818
▁osminu	-13819
▁osniva	-13820
▁paziti	-13821
▁pedija	-13822
▁pretko	-13823
▁stigne	-13824
▁večera	-13825
▁vojnih	-13826
▁Nijemci	-13827
▁Student	-13828
▁crvenom	-13829
▁izazovi	-13830
▁kreveta	-13831
▁metropo	-13832
▁odlasku	-13833
▁optužen	-13834
▁pištolj	-13835
▁pomogla	-13836
▁pratnji	-13837
▁pravima	-13838
▁prekidu	-13839
▁reality	-13840
▁snagama	-13841
▁stotinu	-13842
protected	-13843
▁kraljica	-13844
▁lokaciju	-13845
▁nestanka	-13846
▁orkestra	-13847
▁povezane	-13848
▁privukao	-13849
▁simptomi	-13850
▁stvarala	-13851
▁stvorili	-13852
▁četvrtka	-13853
▁kapacitet	-13854
▁okruženje	-13855
▁predstoje	-13856
▁sportskom	-13857
▁standarda	-13858
▁vremenske	-13859
fterDisplay	-13860
▁Dubrovački	-13861
▁Zagrebačka	-13862
▁jedanaeste	-13863
▁predavanje	-13864
▁prihvatila	-13865
▁zaustavili	-13866
▁Sjedinjenim	-13867
▁destinacije	-13868
▁sjeveroisto	-13869
▁predsjedničkih	-13870
BI	-13871
NC	-13872
avi	-13873
hla	-13874
ord	-13875
uva	-13876
zić	-13877
▁HB	-13878
▁NI	-13879
lene	-13880
mora	-13881
raku	-13882
tter	-13883
šnom	-13884
▁1,8	-13885
▁18,	-13886
▁7-6	-13887
▁Ate	-13888
▁Sku	-13889
▁ada	-13890
▁dat	-13891
▁evu	-13892
▁uko	-13893
▁upe	-13894
leksi	-13895
verza	-13896
škovi	-13897
▁Alan	-13898
▁Blue	-13899
▁Jean	-13900
▁Pože	-13901
▁Rock	-13902
▁Tere	-13903
▁Wolf	-13904
▁jima	-13905
▁kopa	-13906
▁kovi	-13907
▁leti	-13908
▁naki	-13909
▁odbo	-13910
▁ohla	-13911
▁poša	-13912
▁sema	-13913
▁vile	-13914
cirati	-13915
portal	-13916
▁Dalla	-13917
▁Grupa	-13918
▁Kluba	-13919
▁Rodri	-13920
▁Volks	-13921
▁Zdrav	-13922
▁idući	-13923
▁kakvi	-13924
▁pijan	-13925
▁sajam	-13926
▁uvodi	-13927
▁uzela	-13928
▁Celtic	-13929
▁Ivanec	-13930
▁Mbappe	-13931
▁Moskve	-13932
▁Srpske	-13933
▁Vidjet	-13934
▁bogati	-13935
▁doslje	-13936
▁komore	-13937
▁kotaru	-13938
▁kupnje	-13939
▁kvarta	-13940
▁mirisa	-13941
▁modeli	-13942
▁nadaju	-13943
▁napala	-13944
▁oblika	-13945
▁pokaže	-13946
▁popisa	-13947
▁slavni	-13948
▁teškog	-13949
▁virtua	-13950
▁volimo	-13951
▁činilo	-13952
▁Kapetan	-13953
▁Njezina	-13954
▁Smatram	-13955
▁doktora	-13956
▁gospođa	-13957
▁imenova	-13958
▁izvedbi	-13959
▁mlijeko	-13960
▁oborine	-13961
▁oduzima	-13962
▁opskrbe	-13963
▁poništi	-13964
▁primila	-13965
▁recikli	-13966
▁signali	-13967
▁trajekt	-13968
▁treneri	-13969
▁ubojica	-13970
▁unatrag	-13971
▁upozora	-13972
▁Angelesu	-13973
▁ekološki	-13974
▁gimnasti	-13975
▁ispravno	-13976
▁izgledao	-13977
▁nastupom	-13978
▁položaja	-13979
▁pomoćnik	-13980
▁praćenje	-13981
▁privukla	-13982
▁pružanje	-13983
▁segmentu	-13984
▁sportova	-13985
▁tehničke	-13986
▁terapije	-13987
▁započeli	-13988
▁zbivanja	-13989
▁autocesta	-13990
▁bakterija	-13991
▁letjelica	-13992
▁održavati	-13993
▁poslovima	-13994
▁poslovnim	-13995
▁predizbor	-13996
▁prirodnih	-13997
▁vlastitih	-13998
▁vremenima	-13999
▁zatvoriti	-14000
▁Australiji	-14001
▁helikopter	-14002
▁održivosti	-14003
▁postojanja	-14004
▁intervencije	-14005
ig	-14006
day	-14007
ddy	-14008
hid	-14009
nga	-14010
ria	-14011
ure	-14012
zga	-14013
OVID	-14014
atic	-14015
bile	-14016
pana	-14017
tonu	-14018
voju	-14019
▁Dia	-14020
▁Dro	-14021
▁Glo	-14022
▁Olu	-14023
▁Ren	-14024
▁Rio	-14025
▁Uži	-14026
▁tlu	-14027
▁uro	-14028
▁šum	-14029
dstva	-14030
etkom	-14031
giran	-14032
vnicu	-14033
▁Beču	-14034
▁Jeli	-14035
▁Leon	-14036
▁alat	-14037
▁juga	-14038
▁sate	-14039
▁suze	-14040
▁vaju	-14041
▁zapu	-14042
▁Đako	-14043
▁želu	-14044
▁1993.	-14045
▁1996.	-14046
▁Apple	-14047
▁Denis	-14048
▁Dobra	-14049
▁Green	-14050
▁Izbje	-14051
▁Mogli	-14052
▁bisku	-14053
▁dojke	-14054
▁dreso	-14055
▁otkup	-14056
▁predu	-14057
▁reklo	-14058
▁smiri	-14059
▁testo	-14060
▁torbi	-14061
▁Život	-14062
živanja	-14063
▁Hajdaš	-14064
▁Odjela	-14065
▁Prizna	-14066
▁Svjedo	-14067
▁Tokiju	-14068
▁Tuđman	-14069
▁Vinkov	-14070
▁bogatu	-14071
▁cigare	-14072
▁dnevne	-14073
▁izmije	-14074
▁kupuje	-14075
▁kupuju	-14076
▁libano	-14077
▁naučio	-14078
▁navika	-14079
▁odgoji	-14080
▁ostanu	-14081
▁perili	-14082
▁pozivu	-14083
▁prsten	-14084
▁pucnja	-14085
▁rodnom	-14086
▁zabija	-14087
▁zakaza	-14088
▁šalice	-14089
▁Popović	-14090
▁gradona	-14091
▁idealno	-14092
▁imovinu	-14093
▁najboga	-14094
▁najjači	-14095
▁osoblja	-14096
▁podnosi	-14097
▁pomoglo	-14098
▁potragu	-14099
▁sustavi	-14100
▁zastava	-14101
▁Šibenča	-14102
▁objavilo	-14103
▁upotrebu	-14104
▁zaigrati	-14105
▁zloupora	-14106
▁Ancelotti	-14107
▁doprinose	-14108
▁francuske	-14109
▁glazbenih	-14110
▁kazalištu	-14111
▁liječenju	-14112
▁poticanje	-14113
▁propisima	-14114
▁proširiti	-14115
▁tužitelja	-14116
▁Bruxellesu	-14117
▁izvještava	-14118
▁poslovanju	-14119
▁predviđeno	-14120
▁sigurnosni	-14121
▁Jadrolinije	-14122
▁sudjelovanja	-14123
▁International	-14124
▁sjeverozapadni	-14125
bet	-14126
vel	-14127
▁ST	-14128
gart	-14129
ller	-14130
mane	-14131
ralo	-14132
ricu	-14133
urne	-14134
▁17,	-14135
▁22-	-14136
▁34.	-14137
▁Fio	-14138
▁Lew	-14139
▁Uhi	-14140
▁Vaš	-14141
▁uzo	-14142
▁čas	-14143
dniji	-14144
ljica	-14145
činom	-14146
▁Boru	-14147
▁Deve	-14148
▁Ilić	-14149
▁Jona	-14150
▁Melo	-14151
▁Odno	-14152
▁Soci	-14153
▁bake	-14154
▁cama	-14155
▁leže	-14156
▁mete	-14157
▁neod	-14158
▁pute	-14159
▁usko	-14160
▁Žene	-14161
Mislim	-14162
▁2030.	-14163
▁Gosti	-14164
▁Matea	-14165
▁Ureda	-14166
▁dikta	-14167
▁glume	-14168
▁harmo	-14169
▁kruha	-14170
▁odjek	-14171
▁pleme	-14172
▁svrhe	-14173
▁truda	-14174
▁želji	-14175
▁Kremlj	-14176
▁bazena	-14177
▁blagda	-14178
▁izvodi	-14179
▁kemika	-14180
▁minera	-14181
▁navike	-14182
▁obilaz	-14183
▁povela	-14184
▁sjesti	-14185
▁spusti	-14186
▁čekali	-14187
▁Gordana	-14188
▁Poznati	-14189
▁dodatna	-14190
▁isposta	-14191
▁jednoga	-14192
▁kartona	-14193
▁križeva	-14194
▁naletio	-14195
▁pobjeći	-14196
▁ponosna	-14197
▁povreme	-14198
▁prijavi	-14199
▁rezerva	-14200
▁srednju	-14201
▁udaraca	-14202
▁vođenje	-14203
▁dočekuje	-14204
▁medicinu	-14205
▁najvećem	-14206
▁odražava	-14207
▁povezati	-14208
▁propušta	-14209
▁provjera	-14210
▁sljedeću	-14211
▁zanemari	-14212
▁Švedskoj	-14213
▁Kulenović	-14214
▁Sindikata	-14215
▁karaktera	-14216
▁mediteran	-14217
▁načelnika	-14218
▁negativne	-14219
▁nevremena	-14220
▁posvetiti	-14221
▁potrošnje	-14222
▁sudionike	-14223
▁Vatrogasci	-14224
▁dokumenata	-14225
▁eksplozije	-14226
▁izraelskih	-14227
▁neprestano	-14228
▁olimpijski	-14229
▁prijepodne	-14230
▁međunarodni	-14231
▁obiteljskog	-14232
▁pokrovitelj	-14233
▁zabilježeno	-14234
▁međunarodnih	-14235
▁međunarodnog	-14236
▁organizirali	-14237
▁zdravstvenom	-14238
//	-14239
:1.	-14240
ffe	-14241
jci	-14242
nie	-14243
tat	-14244
▁89	-14245
▁Ab	-14246
▁el	-14247
▁wa	-14248
elek	-14249
ketu	-14250
lića	-14251
žine	-14252
▁1,3	-14253
▁110	-14254
▁Jas	-14255
▁Jed	-14256
▁MAX	-14257
▁Oda	-14258
▁Oti	-14259
▁PRO	-14260
▁Uči	-14261
▁suk	-14262
▁zar	-14263
djelo	-14264
wagen	-14265
zivao	-14266
▁Bull	-14267
▁Jase	-14268
▁Kaza	-14269
▁Lana	-14270
▁Olmo	-14271
▁Seba	-14272
▁Vuči	-14273
▁dram	-14274
▁reme	-14275
▁zaga	-14276
ninske	-14277
tjecaj	-14278
▁COVID	-14279
▁Dejan	-14280
▁Donje	-14281
▁Kakva	-14282
▁Treći	-14283
▁Vlaho	-14284
▁afere	-14285
▁izoli	-14286
▁ogled	-14287
▁otpje	-14288
▁stije	-14289
▁troši	-14290
▁udala	-14291
▁Scholz	-14292
▁Stefan	-14293
▁Toliko	-14294
▁Vlašić	-14295
▁Zlatka	-14296
▁borili	-14297
▁budite	-14298
▁farmer	-14299
▁fokusu	-14300
▁glavno	-14301
▁iranje	-14302
▁kakvim	-14303
▁kanala	-14304
▁konoba	-14305
▁majkom	-14306
▁okvira	-14307
▁pojavi	-14308
▁potpis	-14309
▁prepri	-14310
▁ratnog	-14311
▁račune	-14312
▁struka	-14313
▁titule	-14314
▁večeru	-14315
▁vizual	-14316
▁čuvati	-14317
▁Dvornik	-14318
▁Gorskom	-14319
▁Kalifor	-14320
▁Nogomet	-14321
▁Osumnji	-14322
▁drugome	-14323
▁glavobo	-14324
▁haljine	-14325
▁isplate	-14326
▁lijevom	-14327
▁nijedan	-14328
▁parking	-14329
▁plaćati	-14330
▁pogrije	-14331
▁portuga	-14332
▁potvrdu	-14333
▁pratila	-14334
▁razvoda	-14335
▁rješava	-14336
▁tajnika	-14337
▁treneru	-14338
▁zaposli	-14339
▁Njemački	-14340
▁Prilikom	-14341
▁dobitnik	-14342
▁favorita	-14343
▁ističući	-14344
▁kalorija	-14345
▁kancelar	-14346
▁naglasak	-14347
▁navedeni	-14348
▁odigrala	-14349
▁pokazale	-14350
▁preselio	-14351
▁procjene	-14352
▁sredstvo	-14353
▁sugerira	-14354
▁tadašnji	-14355
▁uvjeriti	-14356
▁zastrašu	-14357
▁nadoknadi	-14358
▁privatnih	-14359
▁prvakinja	-14360
▁standarde	-14361
▁zaostatka	-14362
▁kvalitetne	-14363
▁najljepših	-14364
▁suglasnost	-14365
▁uslijedila	-14366
▁Međunarodni	-14367
▁gospodarski	-14368
▁proizvođači	-14369
▁zajedničkog	-14370
▁zainteresira	-14371
▁dokumentaciju	-14372
▁obilježavanja	-14373
▁predstavnicima	-14374
▁zainteresirani	-14375
Od	-14376
UR	-14377
mum	-14378
ngu	-14379
uer	-14380
šek	-14381
▁97	-14382
▁PP	-14383
▁nt	-14384
etak	-14385
inom	-14386
mera	-14387
prva	-14388
reen	-14389
strp	-14390
vska	-14391
▁14,	-14392
▁1:0	-14393
▁23-	-14394
▁Edu	-14395
▁Rok	-14396
▁aro	-14397
▁bub	-14398
▁mag	-14399
▁opu	-14400
▁son	-14401
livud	-14402
mente	-14403
ranog	-14404
▁Koli	-14405
▁Mela	-14406
▁Moje	-14407
▁Play	-14408
▁Pula	-14409
▁Vino	-14410
▁jake	-14411
▁noću	-14412
▁ohra	-14413
▁osva	-14414
▁rame	-14415
▁ranu	-14416
▁shva	-14417
▁sloj	-14418
▁stvu	-14419
▁učio	-14420
▁važe	-14421
▁vidu	-14422
▁zvez	-14423
laskom	-14424
▁Balka	-14425
▁Dosad	-14426
▁Dubai	-14427
▁Gradi	-14428
▁Hvaru	-14429
▁Potvr	-14430
▁Srije	-14431
▁Stari	-14432
▁Stutt	-14433
▁Uosta	-14434
▁brane	-14435
▁imuno	-14436
▁infla	-14437
▁konja	-14438
▁likvi	-14439
▁milje	-14440
▁nalog	-14441
▁narud	-14442
▁rusku	-14443
▁stavi	-14444
▁čević	-14445
▁Bosilj	-14446
▁Promje	-14447
▁brilji	-14448
▁cijski	-14449
▁crvene	-14450
▁dobroj	-14451
▁evakui	-14452
▁javnoj	-14453
▁obavez	-14454
▁osobnu	-14455
▁pravda	-14456
▁rumunj	-14457
▁sestri	-14458
▁silova	-14459
▁sjajnu	-14460
▁skupio	-14461
▁zeleni	-14462
▁Dodajte	-14463
▁Međimur	-14464
▁Planira	-14465
▁cjelovi	-14466
▁desetke	-14467
▁izborna	-14468
▁legende	-14469
▁optužbi	-14470
▁planova	-14471
▁svečano	-14472
▁tribini	-14473
▁vanjski	-14474
▁voljela	-14475
▁Naglasio	-14476
▁Potrebno	-14477
▁Talijani	-14478
▁Uostalom	-14479
▁brodogra	-14480
▁najmlađe	-14481
▁normalan	-14482
▁olakšati	-14483
▁posvetio	-14484
▁povezana	-14485
▁prisutna	-14486
▁provedbe	-14487
▁putovati	-14488
▁sankcija	-14489
▁svjedoci	-14490
▁uspomene	-14491
▁besplatan	-14492
▁donošenje	-14493
▁geopoliti	-14494
▁odgovorno	-14495
▁otkriveno	-14496
▁političar	-14497
▁proizlazi	-14498
▁Švicarske	-14499
▁Dubrovačko	-14500
▁Volkswagen	-14501
▁pristupiti	-14502
▁programima	-14503
▁Sjedinjenih	-14504
▁doprinijeti	-14505
▁gospodarske	-14506
▁jedinstvenu	-14507
▁ovogodišnjem	-14508
▁zaposlenicima	-14509
EM	-14510
bs	-14511
gru	-14512
nus	-14513
▁GO	-14514
▁TZ	-14515
lant	-14516
sell	-14517
ssia	-14518
▁Eki	-14519
▁Gab	-14520
▁Ina	-14521
▁Leo	-14522
▁Tad	-14523
▁Zlo	-14524
▁adu	-14525
▁ela	-14526
▁saj	-14527
▁spu	-14528
kular	-14529
renih	-14530
stira	-14531
▁Tiho	-14532
▁Zvez	-14533
▁jaku	-14534
▁krši	-14535
▁neop	-14536
▁niče	-14537
▁ovca	-14538
▁rske	-14539
▁slom	-14540
▁sreb	-14541
▁umor	-14542
▁uzva	-14543
▁Šubi	-14544
Cacute	-14545
rijera	-14546
strira	-14547
▁Index	-14548
▁Kovač	-14549
▁Monte	-14550
▁Održa	-14551
▁Profe	-14552
▁Publi	-14553
▁Staro	-14554
▁Supru	-14555
▁Ubrzo	-14556
▁bazen	-14557
▁davao	-14558
▁golma	-14559
▁ispit	-14560
▁mjeru	-14561
▁nadah	-14562
▁nazna	-14563
▁parce	-14564
▁pauze	-14565
▁praši	-14566
▁razot	-14567
▁vatru	-14568
▁živim	-14569
ravnote	-14570
▁Jednom	-14571
▁Srebre	-14572
▁diskri	-14573
▁indeks	-14574
▁jezera	-14575
▁kućama	-14576
▁nestrp	-14577
▁obuhva	-14578
▁parovi	-14579
▁prikri	-14580
▁radnik	-14581
▁smisao	-14582
▁zalaga	-14583
▁Njegovo	-14584
▁dragovo	-14585
▁dvojicu	-14586
▁haljina	-14587
▁izglasa	-14588
▁izložbu	-14589
▁kuhinje	-14590
▁najgori	-14591
▁optužio	-14592
▁stabala	-14593
▁tehnike	-14594
▁Hajdukov	-14595
▁iznositi	-14596
▁izrazili	-14597
▁jednokra	-14598
▁maksimum	-14599
▁nastupao	-14600
▁orijenti	-14601
▁prekinuo	-14602
▁problemu	-14603
▁sankcije	-14604
▁snimljen	-14605
▁svjedoče	-14606
▁tijelima	-14607
▁ukidanje	-14608
▁ustavnih	-14609
▁vitamina	-14610
▁vlasnica	-14611
▁Borussije	-14612
▁Volodimir	-14613
▁društveni	-14614
▁ekonomske	-14615
▁kazalište	-14616
▁milijardu	-14617
▁pojačanje	-14618
▁prenosimo	-14619
▁promišlja	-14620
▁reagirali	-14621
▁skupštine	-14622
▁sljedećem	-14623
▁transport	-14624
▁trenirati	-14625
▁Španjolci	-14626
▁izraelskim	-14627
▁kvalitetni	-14628
▁ponajprije	-14629
▁stanovnike	-14630
▁strategija	-14631
▁televizije	-14632
▁trgovinama	-14633
▁jednostavna	-14634
▁nadležnosti	-14635
▁obiteljskih	-14636
▁predsjedničkim	-14637
500	-14638
://	-14639
bec	-14640
get	-14641
▁SA	-14642
deri	-14643
lažu	-14644
mann	-14645
ovoj	-14646
sili	-14647
tiku	-14648
▁1,7	-14649
▁Dar	-14650
▁Die	-14651
▁sle	-14652
jović	-14653
kušić	-14654
čanin	-14655
▁Live	-14656
▁Opus	-14657
▁PAOK	-14658
▁Vaše	-14659
▁Veče	-14660
▁audi	-14661
▁brze	-14662
▁istr	-14663
▁sapu	-14664
▁spot	-14665
▁uzra	-14666
stveni	-14667
šnjaka	-14668
▁2002.	-14669
▁Array	-14670
▁Društ	-14671
▁Garro	-14672
▁Hotel	-14673
▁Kralj	-14674
▁Loren	-14675
▁Nadal	-14676
▁Story	-14677
▁Upozo	-14678
▁Zelen	-14679
▁dugog	-14680
▁istok	-14681
▁izbio	-14682
▁londo	-14683
▁loših	-14684
▁metar	-14685
▁molim	-14686
▁mudro	-14687
▁nervo	-14688
▁nskoj	-14689
▁oluje	-14690
▁otuđi	-14691
▁režim	-14692
▁sedmi	-14693
▁trake	-14694
▁vrate	-14695
▁zapje	-14696
▁Franci	-14697
▁Govore	-14698
▁Matije	-14699
▁Napada	-14700
▁Prošlo	-14701
▁Zemlje	-14702
▁boljim	-14703
▁dokaze	-14704
▁olakša	-14705
▁skočio	-14706
▁tunela	-14707
▁zakone	-14708
▁čekamo	-14709
▁članak	-14710
▁članka	-14711
▁Nedosta	-14712
▁Odgovor	-14713
▁Svakako	-14714
▁dnevnom	-14715
▁epizodu	-14716
▁kamiona	-14717
▁planeta	-14718
▁pokriva	-14719
▁ponosno	-14720
▁posjedo	-14721
▁postavi	-14722
▁poznaju	-14723
▁putnici	-14724
▁sjedala	-14725
▁snimili	-14726
▁uključe	-14727
▁uspored	-14728
▁Kramarić	-14729
▁Najbolje	-14730
▁Početkom	-14731
▁globalno	-14732
▁izjavama	-14733
▁nadzorni	-14734
▁naslovom	-14735
▁neobično	-14736
▁odrediti	-14737
▁određena	-14738
▁polovicu	-14739
▁potrebni	-14740
▁pravomoć	-14741
▁predvodi	-14742
▁privatno	-14743
▁Bartulica	-14744
▁Rumunjska	-14745
▁izgledala	-14746
▁navedenog	-14747
▁nepoznati	-14748
▁pohvalila	-14749
▁proteklog	-14750
▁socijalnu	-14751
▁stambenih	-14752
▁suočavaju	-14753
▁vijećnici	-14754
▁Švicarska	-14755
▁dezinforma	-14756
▁događajima	-14757
▁eventualno	-14758
▁muškarcima	-14759
▁nogometnom	-14760
▁otpornosti	-14761
▁postizanje	-14762
▁pratitelje	-14763
▁priopćenje	-14764
▁stajališta	-14765
▁studentima	-14766
▁tehnološki	-14767
▁vatrogasne	-14768
▁vlasništvo	-14769
▁znanstveno	-14770
▁olimpijskog	-14771
▁pregovorima	-14772
▁profesorica	-14773
▁Međunarodnog	-14774
▁organizirala	-14775
▁raspoloženje	-14776
▁registarskih	-14777
▁stanovništvo	-14778
21	-14779
:15	-14780
Con	-14781
mus	-14782
nen	-14783
rap	-14784
tex	-14785
đač	-14786
▁5'	-14787
▁ex	-14788
▁đi	-14789
dian	-14790
lana	-14791
rant	-14792
rile	-14793
vira	-14794
čiji	-14795
žnja	-14796
▁Ure	-14797
▁Uče	-14798
▁brz	-14799
▁don	-14800
▁glo	-14801
▁nca	-14802
▁rit	-14803
▁you	-14804
▁čna	-14805
ments	-14806
mpion	-14807
opskr	-14808
pravi	-14809
rskom	-14810
zerba	-14811
▁6-3,	-14812
▁Kolo	-14813
▁Nata	-14814
▁diri	-14815
▁gala	-14816
▁nasu	-14817
▁puko	-14818
▁satu	-14819
▁sjeo	-14820
▁suću	-14821
▁ugri	-14822
▁zimi	-14823
mitelj	-14824
raciju	-14825
▁1989.	-14826
▁Black	-14827
▁Kazao	-14828
▁Pavli	-14829
▁Potpu	-14830
▁Smith	-14831
▁Takav	-14832
▁kampu	-14833
▁odnio	-14834
▁ploča	-14835
▁ponos	-14836
▁punih	-14837
▁ranih	-14838
▁ranje	-14839
▁upute	-14840
bijanja	-14841
leksibi	-14842
▁Moguće	-14843
▁Ugovor	-14844
▁Zakonu	-14845
▁adresi	-14846
▁bolova	-14847
▁crveno	-14848
▁eurozo	-14849
▁milosr	-14850
▁nomini	-14851
▁oprema	-14852
▁oznake	-14853
▁platio	-14854
▁volite	-14855
▁zdrava	-14856
▁Brekalo	-14857
▁Posavec	-14858
▁Predrag	-14859
▁beograd	-14860
▁fizičke	-14861
▁glasovi	-14862
▁inovati	-14863
▁kaznenu	-14864
▁namjeru	-14865
▁okrenuo	-14866
▁pjevati	-14867
▁pokretu	-14868
▁povećao	-14869
▁pristao	-14870
▁razredu	-14871
▁sredinu	-14872
▁umjetna	-14873
▁volonte	-14874
▁Engleska	-14875
▁Hajdukom	-14876
▁Karlovac	-14877
▁Perišića	-14878
▁Viroviti	-14879
▁ambicije	-14880
▁glazbena	-14881
▁konzulta	-14882
▁lokalnom	-14883
▁nastavit	-14884
▁nedjelja	-14885
▁označava	-14886
▁pojavili	-14887
▁postupke	-14888
▁površinu	-14889
▁procjenu	-14890
▁produlji	-14891
▁sustavom	-14892
[...]
