<unk>	0
<s>	0
</s>	0
,	-3.50969
.	-3.68694
a	-3.72666
▁je	-3.88421
▁u	-3.97055
▁i	-3.99741
e	-4.15781
o	-4.30485
u	-4.34621
i	-4.38196
▁na	-4.50248
m	-4.70809
▁se	-4.77521
;	-4.78794
▁da	-4.88358
▁za	-4.88594
▁s	-4.91709
ti	-4.9565
&	-4.9975
▁su	-5.05067
on	-5.05409
li	-5.05695
la	-5.07122
▁	-5.28692
ma	-5.29589
▁od	-5.30916
s	-5.32949
na	-5.33192
t	-5.36805
▁a	-5.38536
▁po	-5.45356
om	-5.46446
ca	-5.46529
je	-5.4723
▁o	-5.54242
ni	-5.55775
d	-5.56631
ne	-5.59902
▁ne	-5.6203
g	-5.69093
r	-5.72566
▁iz	-5.76339
ka	-5.78867
ccar	-5.79752
k	-5.80151
no	-5.8316
ra	-5.84582
▁do	-5.87037
-	-5.88725
▁koji	-5.92617
▁"	-5.94045
te	-5.94879
ju	-5.95268
h	-5.96013
cute	-5.9926
le	-6.00583
▁to	-6.00687
:	-6.03077
▁će	-6.03585
lo	-6.03981
ih	-6.04206
n	-6.04358
ja	-6.05747
▁što	-6.06402
nu	-6.08976
▁-	-6.09102
nje	-6.11017
▁te	-6.12315
nja	-6.13222
▁U	-6.13593
im	-6.18738
og	-6.21152
▁S	-6.22293
j	-6.22572
š	-6.2394
mo	-6.25893
zcar	-6.26933
l	-6.28006
▁bi	-6.28452
da	-6.32625
ta	-6.32826
va	-6.33927
▁kako	-6.36302
vi	-6.3715
z	-6.41648
ve	-6.41977
oj	-6.43759
ci	-6.46427
▁nije	-6.50669
▁sam	-6.50879
▁&	-6.51426
▁pro	-6.51724
",	-6.55317
c	-6.55814
▁kao	-6.574
ko	-6.57722
ima	-6.58867
ri	-6.60055
▁pa	-6.60085
▁ali	-6.61079
▁pri	-6.61546
"	-6.62433
▁A	-6.64597
ku	-6.64686
ga	-6.64951
v	-6.66627
ke	-6.67036
p	-6.71462
▁sve	-6.71496
▁I	-6.72242
▁godine	-6.74658
▁(	-6.75735
▁koje	-6.75903
ž	-6.75936
▁pre	-6.7836
re	-6.79361
st	-6.80094
di	-6.81479
▁sa	-6.81643
ba	-6.8189
za	-6.82376
sti	-6.82381
▁smo	-6.82623
▁biti	-6.84926
▁koja	-6.85276
vo	-6.87837
▁mi	-6.89495
▁Na	-6.89902
an	-6.90155
▁li	-6.90746
▁nakon	-6.91082
nih	-6.9156
nom	-6.92899
▁više	-6.9457
bi	-6.95438
sta	-6.95986
pa	-6.96901
nog	-6.97101
▁Po	-6.9783
y	-6.9827
lu	-6.98432
nim	-6.98901
če	-6.99689
▁'	-7.01136
lje	-7.02657
ru	-7.02832
)	-7.04022
b	-7.04442
▁bio	-7.05516
iti	-7.05973
▁samo	-7.0605
zi	-7.0615
nju	-7.06556
▁ili	-7.07007
▁re	-7.07915
či	-7.09587
▁ko	-7.10273
▁ga	-7.10534
ce	-7.10585
ći	-7.11197
▁P	-7.11394
de	-7.11558
sa	-7.12409
će	-7.13011
▁još	-7.14279
ova	-7.14358
ije	-7.15511
du	-7.16023
ča	-7.16112
?	-7.17482
S	-7.17839
▁uz	-7.18033
si	-7.18157
to	-7.19087
en	-7.19398
že	-7.19889
▁rekao	-7.20086
ovi	-7.20953
▁već	-7.21087
lja	-7.21484
ži	-7.21938
'	-7.22151
▁pod	-7.22285
▁jer	-7.22325
▁prije	-7.23011
▁zbog	-7.23438
▁O	-7.2354
ro	-7.24259
▁ima	-7.26059
č	-7.2653
▁C	-7.26597
▁ka	-7.29501
▁mu	-7.30001
▁To	-7.30006
er	-7.30432
tu	-7.30612
▁bilo	-7.32244
po	-7.32279
▁H	-7.32757
A	-7.32786
io	-7.33495
▁K	-7.33534
P	-7.34317
▁E	-7.34874
▁z	-7.34912
▁godina	-7.35036
I	-7.35529
ki	-7.35547
cija	-7.35759
▁ni	-7.36116
▁Za	-7.36293
▁naj	-7.36908
▁Ne	-7.37396
se	-7.37947
O	-7.38158
ća	-7.38159
▁ja	-7.38165
▁no	-7.38681
strok	-7.38842
▁me	-7.39031
5	-7.39108
▁eura	-7.39926
▁tako	-7.40408
▁dok	-7.41249
▁pred	-7.41672
ša	-7.42116
▁de	-7.42716
2	-7.43243
cije	-7.43508
8	-7.46283
▁može	-7.47762
▁ma	-7.48054
be	-7.48107
ska	-7.48124
▁k	-7.48722
!	-7.48895
▁Mi	-7.49046
7	-7.49798
0	-7.49924
ši	-7.49996
▁bila	-7.50102
4	-7.50615
ak	-7.51029
ica	-7.51526
em	-7.51664
▁mo	-7.52207
6	-7.52307
kom	-7.5313
▁tri	-7.53165
▁protiv	-7.53171
▁tu	-7.54079
3	-7.54786
in	-7.55229
f	-7.55505
▁kada	-7.5583
pu	-7.5611
...	-7.56182
še	-7.5665
vu	-7.5669
▁dana	-7.56701
C	-7.56872
▁oko	-7.56994
▁raz	-7.57504
▁ba	-7.57959
D	-7.5803
ski	-7.58277
▁posto	-7.58726
ila	-7.58887
ice	-7.59009
▁g	-7.59436
nji	-7.59687
T	-7.59787
▁Š	-7.60146
".	-7.60392
▁prema	-7.60952
▁dr	-7.61328
ove	-7.61456
do	-7.61885
al	-7.61907
nica	-7.62463
ze	-7.62686
su	-7.6327
ov	-7.63331
▁dva	-7.63635
▁rad	-7.63852
▁bez	-7.64055
▁mogu	-7.64233
▁svoje	-7.64846
▁Do	-7.64968
▁put	-7.65355
ža	-7.66341
ar	-7.66585
▁Ma	-7.66747
▁jedan	-7.67548
▁zna	-7.67911
▁broj	-7.68014
▁Ko	-7.68192
M	-7.6838
▁njegov	-7.69013
vanje	-7.69047
▁nam	-7.69281
pe	-7.69645
red	-7.69925
▁kad	-7.7008
▁vi	-7.70694
lj	-7.71493
▁igra	-7.71569
bu	-7.72454
nije	-7.72552
▁19	-7.72874
▁gdje	-7.73136
pi	-7.73236
▁ve	-7.7333
nici	-7.73873
▁M	-7.73932
9	-7.74052
▁nego	-7.74064
▁ljudi	-7.74957
▁radi	-7.75494
▁No	-7.75514
gu	-7.76154
w	-7.76537
ija	-7.76781
▁ih	-7.77064
ili	-7.77092
▁š	-7.77332
▁Ka	-7.7793
N	-7.78319
1	-7.78786
▁mora	-7.78801
▁D	-7.78951
ciju	-7.79342
ina	-7.79565
K	-7.80103
▁nas	-7.80187
iji	-7.80485
bo	-7.80859
go	-7.81008
šta	-7.81242
▁nisu	-7.8163
▁Ba	-7.81804
▁toga	-7.82238
E	-7.82582
▁op	-7.83524
▁4	-7.8364
ost	-7.83876
R	-7.8423
▁vrijeme	-7.84678
ske	-7.85298
▁Ja	-7.85351
sp	-7.85437
▁sada	-7.85824
▁dobro	-7.85837
),	-7.85953
B	-7.86016
nik	-7.86496
sto	-7.86571
▁F	-7.86596
nd	-7.8666
▁f	-7.86996
▁njihov	-7.87046
▁treba	-7.87746
vr	-7.87982
▁Da	-7.88115
cu	-7.88228
stra	-7.88511
stav	-7.88664
▁Pa	-7.89927
▁5	-7.9039
or	-7.90488
sko	-7.91045
▁ove	-7.9215
tra	-7.92522
▁Z	-7.92556
▁svi	-7.9268
ć	-7.92727
▁pet	-7.92785
▁ako	-7.94092
▁ob	-7.94117
vati	-7.94736
▁kod	-7.94779
▁Sa	-7.94924
rije	-7.95066
▁6	-7.95272
šte	-7.95689
▁tra	-7.95833
vanja	-7.95854
▁ta	-7.9616
▁nema	-7.96197
sku	-7.96529
đa	-7.96747
▁20	-7.97313
▁dio	-7.97431
/	-7.98316
noj	-7.98461
ter	-7.98544
V	-7.98692
▁koju	-7.98772
▁nekoliko	-7.99223
ović	-7.99364
el	-7.99385
▁bo	-7.99625
▁prvi	-7.9991
nice	-8.00151
▁taj	-8.003
iju	-8.00376
U	-8.00452
▁Iz	-8.00985
ću	-8.01307
log	-8.01784
▁Me	-8.01926
▁danas	-8.01995
▁Od	-8.0334
▁on	-8.03476
ran	-8.05159
ste	-8.05611
ici	-8.05794
▁ra	-8.05967
nika	-8.06
▁ovo	-8.06068
▁sati	-8.06167
▁G	-8.0627
osti	-8.06436
▁Bo	-8.06777
▁Vi	-8.07016
▁B	-8.07977
▁Hrvatske	-8.08081
▁7	-8.08229
▁di	-8.08277
▁Li	-8.08341
▁kaže	-8.08562
▁puno	-8.08625
▁Mo	-8.08711
▁bili	-8.09254
jući	-8.09451
it	-8.09671
zna	-8.09881
▁10	-8.09903
▁kup	-8.09917
pre	-8.10106
▁tijekom	-8.10215
▁tome	-8.10547
▁nešto	-8.10554
▁kojem	-8.10572
▁Nakon	-8.10684
ur	-8.10982
▁isp	-8.11118
▁ku	-8.11482
tak	-8.12225
▁život	-8.12597
▁ru	-8.12611
▁2	-8.12638
▁Re	-8.12818
▁h	-8.12987
ji	-8.1319
00	-8.13193
▁Hrvatskoj	-8.13196
▁ju	-8.13641
▁svoj	-8.14005
▁ste	-8.14152
▁promet	-8.14305
skog	-8.14926
▁V	-8.15267
voj	-8.15516
▁Ra	-8.15575
▁uvijek	-8.15628
tro	-8.15849
▁malo	-8.15894
▁dvije	-8.16028
vje	-8.16173
skom	-8.16176
▁3	-8.16737
đe	-8.16745
ite	-8.16754
▁W	-8.17241
ng	-8.17287
dr	-8.1736
jte	-8.17586
žu	-8.18912
▁pla	-8.19045
▁Je	-8.19286
▁ki	-8.19407
L	-8.19598
av	-8.19713
ković	-8.19806
van	-8.19806
▁njezin	-8.20071
▁Pri	-8.20635
vali	-8.20646
nt	-8.20724
nost	-8.20842
▁La	-8.20939
cima	-8.20945
▁predsjednik	-8.20949
bra	-8.21186
laz	-8.21387
ine	-8.21551
▁milijuna	-8.21681
stvo	-8.21752
▁Ro	-8.22401
tor	-8.22561
▁grad	-8.22743
▁vam	-8.22781
▁način	-8.22905
čan	-8.23203
ljen	-8.23401
▁isto	-8.23625
lju	-8.23716
đen	-8.23732
▁vo	-8.2389
x	-8.23914
djel	-8.23981
ck	-8.24001
▁im	-8.24421
▁pu	-8.2446
▁Bu	-8.24513
▁1	-8.24815
ovima	-8.24861
▁ti	-8.25096
▁kojima	-8.25256
čić	-8.25359
▁gol	-8.25379
▁T	-8.25627
G	-8.263
▁rekla	-8.26464
▁15	-8.26693
▁proizvod	-8.26941
▁Ni	-8.27169
▁d	-8.27249
▁pi	-8.27479
▁neće	-8.28053
▁rezultat	-8.28076
▁imaju	-8.28218
▁Pro	-8.2823
rija	-8.28321
▁kojoj	-8.28445
nosti	-8.28841
▁pra	-8.28862
▁va	-8.2943
zu	-8.29474
▁c	-8.29699
ch	-8.29868
▁onda	-8.29994
▁bit	-8.30027
tar	-8.3009
▁Hrvatska	-8.30291
▁vrlo	-8.30291
▁između	-8.30306
stva	-8.30437
pri	-8.30734
▁jako	-8.31024
ob	-8.31511
▁problem	-8.31703
▁ide	-8.31733
▁in	-8.31878
▁dan	-8.31905
▁dalje	-8.31937
▁m	-8.31992
▁De	-8.32224
▁govori	-8.32315
▁Bi	-8.32624
▁Č	-8.32862
▁Mar	-8.32882
ciji	-8.33036
▁film	-8.33458
lji	-8.33772
Z	-8.33798
▁Ivan	-8.33858
▁klub	-8.33899
▁prostor	-8.33977
▁Sve	-8.34106
▁svojim	-8.34143
▁poznat	-8.34151
njem	-8.34287
▁8	-8.34537
stu	-8.34672
▁N	-8.34759
ić	-8.34764
▁oni	-8.34931
▁njih	-8.34932
niji	-8.35057
▁ćemo	-8.35075
pisa	-8.35176
▁Le	-8.35233
▁čak	-8.35265
nj	-8.35364
lan	-8.3558
▁cijel	-8.35617
▁Kako	-8.35855
▁kroz	-8.35908
fi	-8.3611
▁Te	-8.36169
▁Ta	-8.36173
▁kri	-8.36315
mir	-8.36488
▁drugi	-8.36491
▁joj	-8.3705
▁svoju	-8.37539
god	-8.37633
▁program	-8.38047
ena	-8.3848
rt	-8.38691
▁par	-8.39158
▁novi	-8.39307
grad	-8.39406
čni	-8.39792
tom	-8.40067
▁također	-8.40192
por	-8.40475
▁12	-8.40497
▁Ha	-8.40519
men	-8.40604
▁mjesto	-8.40616
skoj	-8.40652
▁gleda	-8.40736
šti	-8.41023
iz	-8.41066
▁jedna	-8.412
▁poput	-8.41324
nk	-8.41326
▁Ga	-8.42297
čke	-8.42937
vši	-8.43326
▁naš	-8.43418
▁p	-8.43463
▁osoba	-8.43855
str	-8.43953
čar	-8.4425
▁Su	-8.4438
H	-8.44568
▁oba	-8.44838
zor	-8.44969
ll	-8.45154
▁vje	-8.45245
▁osigura	-8.45247
▁jednom	-8.45417
vrš	-8.45445
F	-8.45447
▁koliko	-8.45453
▁la	-8.45644
▁trener	-8.45681
ing	-8.45687
▁prijatelj	-8.4572
',	-8.4574
▁Ru	-8.45751
et	-8.4582
▁sto	-8.45842
▁nad	-8.46051
šić	-8.46074
▁tim	-8.46139
▁puta	-8.4619
ol	-8.46266
zo	-8.46608
il	-8.46626
).	-8.46656
icu	-8.46864
ču	-8.47511
▁Ako	-8.47697
vno	-8.4773
kup	-8.47874
▁Dinamo	-8.48092
pra	-8.48113
▁utakmice	-8.48234
▁Al	-8.48253
▁četiri	-8.48283
▁ovaj	-8.48307
jeti	-8.48532
glas	-8.48844
▁gr	-8.48917
▁druge	-8.48959
vije	-8.49157
▁Di	-8.49179
▁odgovor	-8.49615
▁moj	-8.49621
čki	-8.49638
▁ovog	-8.49671
▁Pe	-8.4997
eg	-8.50005
ver	-8.50051
▁le	-8.50199
stan	-8.5038
▁odnosno	-8.50417
sni	-8.50733
▁star	-8.50746
br	-8.50985
▁Ju	-8.51073
▁među	-8.51202
▁11	-8.51375
ac	-8.51552
▁stan	-8.51728
gen	-8.51897
▁On	-8.51986
ek	-8.5244
▁preko	-8.52461
bor	-8.52548
uje	-8.52718
▁pl	-8.52731
▁gra	-8.52778
▁ot	-8.52804
▁kre	-8.52876
▁šest	-8.53169
▁Pu	-8.5332
govor	-8.53365
▁Gr	-8.53381
▁rast	-8.53403
▁Ve	-8.53945
▁piše	-8.53951
▁neki	-8.54086
▁vodi	-8.54558
▁gost	-8.54672
up	-8.54714
ško	-8.54955
tur	-8.55073
▁kandidat	-8.55314
▁18	-8.55342
▁sezone	-8.55371
▁pravo	-8.55401
▁obitelji	-8.55783
▁vidi	-8.55793
▁si	-8.55849
▁projekt	-8.55896
▁sad	-8.56068
%	-8.56087
tan	-8.5615
isti	-8.56478
▁HDZ	-8.5651
▁tko	-8.56579
▁manje	-8.56605
šao	-8.56941
▁pe	-8.57117
đi	-8.57207
▁ono	-8.57208
▁ona	-8.57349
▁30	-8.57415
J	-8.57995
čno	-8.58177
▁strane	-8.58242
lije	-8.58457
gra	-8.58697
ika	-8.59027
skih	-8.59094
aj	-8.5919
▁Pre	-8.59207
▁vremena	-8.59266
▁obra	-8.59835
▁teško	-8.59886
▁politi	-8.59919
▁svje	-8.60116
▁Jo	-8.60269
izira	-8.60285
▁državn	-8.60525
▁Ri	-8.60571
▁ri	-8.60984
rić	-8.61014
▁EU	-8.61064
čka	-8.61089
inu	-8.61141
▁rasp	-8.61163
lom	-8.61206
▁tr	-8.61257
▁Ar	-8.6132
lić	-8.61412
od	-8.61416
▁vas	-8.61479
tr	-8.61668
▁kojeg	-8.61869
▁imao	-8.61887
▁ču	-8.61969
▁plan	-8.62044
▁St	-8.62046
▁tom	-8.62181
▁svih	-8.6248
▁baš	-8.62481
nski	-8.62583
▁svak	-8.62622
▁kraj	-8.62695
▁ovom	-8.62877
vjer	-8.63161
▁mjesta	-8.63214
▁posebno	-8.6345
▁njega	-8.63637
dio	-8.63878
kla	-8.64175
▁bu	-8.64306
▁gotovo	-8.64331
▁tada	-8.64475
▁Be	-8.64526
▁kraju	-8.64947
▁Ž	-8.65029
▁Ovo	-8.65134
▁tek	-8.65162
▁9	-8.65253
▁imati	-8.656
▁jedno	-8.65617
▁cr	-8.65631
jem	-8.65674
▁skup	-8.65721
telji	-8.66083
žen	-8.66125
▁bude	-8.66836
th	-8.66981
▁rat	-8.67139
▁Ku	-8.67177
▁cilj	-8.67229
▁13	-8.67518
▁Europsk	-8.67588
▁Kr	-8.67662
▁visok	-8.67732
▁Ob	-8.67891
▁kazao	-8.67913
▁Zagrebu	-8.68546
▁Hajduk	-8.68605
uju	-8.6877
▁L	-8.68897
man	-8.68914
ks	-8.6944
▁svom	-8.69508
▁200	-8.69672
▁mogao	-8.69806
▁želi	-8.69933
ss	-8.69939
▁17	-8.70187
▁nastup	-8.70189
▁Split	-8.70371
ini	-8.70497
rov	-8.70533
▁Lo	-8.70693
ns	-8.70743
▁smatra	-8.71048
jan	-8.71132
▁prati	-8.71164
pusti	-8.71353
▁naše	-8.71408
vlja	-8.71586
▁otvoren	-8.7161
▁godinu	-8.72106
pl	-8.72331
slav	-8.72533
▁An	-8.72603
nija	-8.72693
eni	-8.7271
lek	-8.72805
iran	-8.72815
tri	-8.72845
vala	-8.72963
▁hrvatski	-8.7313
kov	-8.73283
▁iza	-8.73311
▁napad	-8.7356
▁list	-8.73606
hr	-8.7412
▁razvoj	-8.74252
ira	-8.74333
ved	-8.74347
igra	-8.7438
▁ras	-8.74431
▁premijer	-8.74445
pro	-8.74571
vla	-8.74726
]	-8.74883
▁2024.	-8.75075
nicu	-8.7514
min	-8.75168
▁sustav	-8.75223
▁14	-8.75371
▁član	-8.75488
▁red	-8.75535
▁pravi	-8.7555
▁susret	-8.75587
skim	-8.75632
gled	-8.75862
telj	-8.76024
▁mnogi	-8.76118
▁ništa	-8.76191
▁vod	-8.76195
▁Iako	-8.76499
▁posla	-8.76837
▁pitanje	-8.76901
ava	-8.76961
▁mjestu	-8.76979
lov	-8.77042
▁stvari	-8.77074
▁utakmica	-8.77171
▁pomoć	-8.77221
▁čeka	-8.77223
▁br	-8.77572
▁Što	-8.77766
ziv	-8.7793
vni	-8.783
▁Br	-8.78328
▁Ali	-8.78438
▁vlasti	-8.78519
tni	-8.78563
▁suprug	-8.78792
gor	-8.78858
▁16	-8.7928
▁partner	-8.79382
for	-8.79412
novi	-8.79629
tal	-8.79766
▁vr	-8.79776
čkog	-8.80001
▁ministar	-8.80041
▁rije	-8.80049
▁Lu	-8.80764
▁Du	-8.8082
per	-8.80836
▁veći	-8.80922
dan	-8.80948
vao	-8.8109
vez	-8.81173
▁=>	-8.81507
▁prizna	-8.81722
▁mr	-8.81808
▁neke	-8.81857
▁udar	-8.8192
▁če	-8.8194
▁VIDEO	-8.82113
▁ž	-8.82245
čen	-8.82247
ilo	-8.82266
▁svim	-8.82392
pis	-8.82416
lica	-8.82456
var	-8.82551
▁Milanović	-8.82602
ret	-8.82879
▁zakon	-8.82905
▁stav	-8.8299
▁sebe	-8.83111
▁riječ	-8.83277
▁često	-8.83448
rod	-8.83609
ho	-8.83679
▁isti	-8.83717
▁minuti	-8.8372
▁izgleda	-8.84042
▁igrač	-8.8406
▁nove	-8.84216
▁Uz	-8.84465
▁Os	-8.84533
nov	-8.84614
▁du	-8.84643
vanju	-8.84711
met	-8.84845
rati	-8.84906
▁Varaždin	-8.85115
▁priča	-8.85381
▁rusk	-8.8544
đu	-8.85456
fe	-8.85457
▁bolje	-8.85555
▁deset	-8.85587
▁Go	-8.85646
nuti	-8.85702
rom	-8.85711
▁gu	-8.85738
kra	-8.85847
▁tro	-8.85942
tvor	-8.86044
▁svog	-8.86245
bri	-8.86338
ita	-8.86499
radi	-8.86578
▁upravo	-8.86607
▁nisam	-8.86607
▁Plenković	-8.86743
▁američk	-8.86944
▁lo	-8.87049
▁temelj	-8.87104
▁24	-8.87142
pravi	-8.87222
itelj	-8.87278
ber	-8.87289
▁izgubi	-8.87532
▁njima	-8.87535
raz	-8.87652
us	-8.87668
▁minuta	-8.87671
▁vozila	-8.87762
▁25	-8.87818
iš	-8.87915
▁bih	-8.88097
mor	-8.88128
▁svijetu	-8.88208
▁Gor	-8.88235
▁dobio	-8.88279
▁str	-8.88301
▁novinar	-8.88494
▁Trump	-8.88529
▁Prema	-8.88592
nci	-8.88674
jedno	-8.88737
▁kraja	-8.88815
▁čini	-8.8883
ir	-8.88867
▁znači	-8.88872
▁auto	-8.88872
▁sud	-8.89117
▁Zagreb	-8.89293
▁vrati	-8.89297
kre	-8.89307
▁dodao	-8.89375
ren	-8.89662
lazak	-8.89807
▁kr	-8.89814
▁bor	-8.90033
▁djece	-8.90187
lar	-8.90214
pot	-8.90359
▁pobijedi	-8.90419
▁možda	-8.90493
▁imali	-8.9052
▁Pet	-8.90672
▁slu	-8.90698
op	-8.90767
co	-8.90767
▁ho	-8.90792
▁one	-8.90846
▁strani	-8.90985
▁prvo	-8.91048
▁hit	-8.91107
gre	-8.91356
▁pres	-8.91369
▁niz	-8.91768
▁tre	-8.91807
▁novo	-8.91848
▁predsjednika	-8.91853
ene	-8.91969
ete	-8.92012
▁ugovor	-8.92048
sh	-8.92086
▁Ima	-8.92171
nka	-8.92177
▁tisuća	-8.92196
▁ponovno	-8.92205
▁Va	-8.92615
era	-8.92617
▁Nije	-8.92724
▁ro	-8.92746
▁ipak	-8.92995
▁lije	-8.93001
mer	-8.93115
▁veliki	-8.93178
▁nalazi	-8.93224
▁mjeseci	-8.93231
▁zajedno	-8.93284
▁[	-8.93427
▁Tu	-8.93577
▁0	-8.93663
▁života	-8.93707
▁Ki	-8.93853
▁predstavlja	-8.93929
▁Grad	-8.94045
▁prvaka	-8.94209
▁fi	-8.94221
▁bri	-8.94363
stvu	-8.94406
stru	-8.94549
▁glazbe	-8.9474
irao	-8.94775
alno	-8.95023
▁kasnije	-8.95098
▁njegova	-8.95164
▁slučaj	-8.95253
▁odmah	-8.95435
▁be	-8.95614
▁21	-8.95641
▁R	-8.95646
▁traži	-8.95681
▁odnos	-8.95706
▁Mu	-8.9609
▁So	-8.96133
▁koristi	-8.96156
▁Bar	-8.96304
pad	-8.96327
▁svaki	-8.96353
▁vode	-8.96502
ment	-8.96527
fer	-8.96531
ven	-8.96541
nos	-8.96614
▁nosi	-8.96664
▁pita	-8.96681
▁dolazi	-8.96738
čin	-8.96846
▁području	-8.96861
▁utakmicu	-8.96939
▁Kad	-8.97076
fa	-8.97244
▁jednu	-8.97393
mis	-8.97586
▁Kra	-8.97608
▁javn	-8.97654
▁završi	-8.97703
▁stru	-8.97756
nović	-8.97849
▁prošle	-8.97968
▁službe	-8.98062
▁mogli	-8.98133
klo	-8.98153
štu	-8.98221
▁dosta	-8.98539
nce	-8.98632
▁znam	-8.98644
▁kar	-8.98705
▁vla	-8.98922
▁Fran	-8.99083
▁nogomet	-8.99126
▁problema	-8.99194
▁djelo	-8.9927
▁iako	-8.99304
▁Ti	-8.99413
▁bol	-8.99484
držav	-8.99531
▁jednog	-8.99562
▁Naj	-8.99946
▁osobe	-9.00123
-1	-9.00141
ivot	-9.00195
▁plaća	-9.00427
veli	-9.0045
der	-9.00641
▁možete	-9.0086
▁Naime	-9.00881
▁trenutku	-9.00935
▁upravlja	-9.01098
▁odluči	-9.01147
meta	-9.01262
▁sin	-9.01341
dovolj	-9.01423
▁Ho	-9.01447
▁čovjek	-9.01507
▁imamo	-9.01627
▁kaznen	-9.01864
irati	-9.01914
▁najviše	-9.01918
▁ci	-9.01922
▁pristup	-9.02087
▁toliko	-9.02111
▁stran	-9.02129
▁ostvari	-9.02166
▁koncert	-9.02193
▁poslova	-9.02251
▁Velik	-9.02343
▁50	-9.02462
den	-9.02524
▁Osim	-9.02529
sno	-9.02594
▁ime	-9.0266
▁Izrael	-9.02663
▁posao	-9.02789
▁Kon	-9.02982
▁postoji	-9.03049
ijom	-9.0306
put	-9.03153
▁pol	-9.03285
▁prava	-9.03295
kti	-9.03312
▁dobi	-9.03625
▁Vr	-9.03707
sk	-9.03784
▁Tako	-9.03794
▁direktor	-9.03858
▁niti	-9.04035
▁zajedni	-9.04236
▁obzirom	-9.04427
▁ljubav	-9.04448
ška	-9.04585
▁2023.	-9.04673
▁zatvor	-9.04809
▁jedini	-9.04915
vara	-9.04976
vat	-9.05038
▁zahtjev	-9.05097
▁Hrvat	-9.05115
▁sportsk	-9.05205
▁glas	-9.0529
▁lokal	-9.05315
ent	-9.05428
nova	-9.05455
bil	-9.05467
▁ranije	-9.05485
bija	-9.05616
nske	-9.05814
▁Dan	-9.05835
▁dugo	-9.05973
▁sigurno	-9.06065
▁odlu	-9.0608
▁reći	-9.06206
▁Hrvatsku	-9.06244
▁najbolje	-9.06478
ksi	-9.06496
ik	-9.06568
▁policija	-9.06568
ry	-9.06669
čkom	-9.06807
▁žena	-9.06977
▁poraz	-9.06981
njak	-9.06994
san	-9.0705
▁izazov	-9.07264
stavljen	-9.07278
▁dom	-9.07344
▁pomoći	-9.07547
▁zašto	-9.07572
▁djevoj	-9.07618
.000	-9.07673
▁petak	-9.07846
ard	-9.08107
▁Par	-9.08195
▁Rad	-9.08333
▁Dubrovnik	-9.08556
▁zapravo	-9.08557
čne	-9.08616
▁stvara	-9.08625
▁čega	-9.08652
▁rod	-9.08799
let	-9.08883
▁svojoj	-9.08982
bli	-9.0901
▁savjet	-9.09015
▁zato	-9.09079
▁grada	-9.09138
▁ova	-9.09157
▁Mari	-9.09169
▁kor	-9.09311
lin	-9.09491
vid	-9.0953
▁Bra	-9.0959
▁svijeta	-9.09847
com	-9.09885
▁objavio	-9.09976
emo	-9.0998
▁savez	-9.09992
▁detalj	-9.10006
30	-9.10116
▁netko	-9.10238
▁SAD	-9.10242
▁(2	-9.10333
tre	-9.10341
▁automobil	-9.10414
▁zdravstven	-9.10421
▁drugom	-9.1045
▁igrača	-9.10751
▁mandat	-9.10781
cijom	-9.10848
▁potpuno	-9.11063
▁živ	-9.11155
▁22	-9.11267
▁kluba	-9.11347
▁osam	-9.11359
▁vozač	-9.11579
kovi	-9.11631
▁komentira	-9.11776
▁prvom	-9.11779
▁vidjeti	-9.11844
▁zemlje	-9.11868
jer	-9.11922
▁vaš	-9.11945
bio	-9.12193
▁ću	-9.12276
▁navodi	-9.12308
▁bira	-9.12389
▁događa	-9.12427
▁Dr	-9.12428
▁prva	-9.12452
jedi	-9.12461
▁iznos	-9.12465
▁In	-9.12596
▁mogla	-9.1261
▁pomo	-9.12614
▁opet	-9.12681
▁1.	-9.12691
▁sedam	-9.12727
vica	-9.12794
▁subotu	-9.12873
▁možemo	-9.1293
▁Euro	-9.12968
▁raditi	-9.13065
▁zdrav	-9.13066
▁svega	-9.13126
▁proces	-9.13175
▁vjerojatno	-9.13331
jelo	-9.13367
▁SDP	-9.13424
godišnj	-9.1351
▁nacionaln	-9.13516
▁bl	-9.13551
ner	-9.13777
▁40	-9.1379
▁interes	-9.13794
▁Josip	-9.13796
▁naslov	-9.13816
▁dogodi	-9.13822
▁velika	-9.13835
▁ključn	-9.14086
▁drugim	-9.1425
čili	-9.14374
eva	-9.14407
▁ovdje	-9.14445
▁Svi	-9.14631
godišnjak	-9.14667
▁organizira	-9.14735
▁izvor	-9.14783
▁mir	-9.1482
ški	-9.14851
▁brzo	-9.15025
▁kola	-9.15193
nf	-9.15223
nta	-9.15361
▁gor	-9.15434
res	-9.15504
▁Vla	-9.15757
▁imala	-9.15821
▁Co	-9.15894
▁slučaju	-9.15927
deset	-9.16027
▁komp	-9.16072
▁poslovn	-9.16236
▁uvjet	-9.16274
▁pret	-9.16328
▁otkri	-9.16342
dina	-9.1644
▁planira	-9.16508
▁društvenim	-9.16546
▁sva	-9.16583
▁priliku	-9.16626
evi	-9.16744
nac	-9.16856
▁sport	-9.169
▁2022.	-9.16901
▁društven	-9.17066
▁tog	-9.17094
▁Vu	-9.17122
▁Osijek	-9.17197
▁nje	-9.17226
▁mas	-9.17237
mp	-9.17359
godišnji	-9.17548
▁prve	-9.17549
▁radio	-9.17559
▁ured	-9.17564
kić	-9.1759
▁mene	-9.17642
▁razgovor	-9.17671
▁brod	-9.17757
▁napada	-9.17833
▁održava	-9.17875
kva	-9.17908
▁nedjelju	-9.17962
čiti	-9.18024
▁izbor	-9.18096
▁privatn	-9.18139
▁Gra	-9.18186
▁stoji	-9.18224
▁kont	-9.18265
▁drugih	-9.18344
▁ozbiljn	-9.18444
▁Kada	-9.18655
▁narod	-9.18708
▁svojih	-9.18752
nima	-9.18804
▁neka	-9.18816
pr	-9.18826
▁budu	-9.18987
▁nastavi	-9.19001
▁tvrdi	-9.19086
▁pokret	-9.1912
reb	-9.19177
žan	-9.19193
ster	-9.19221
▁Međutim	-9.19227
lice	-9.19491
▁tjedna	-9.19618
čku	-9.19668
▁brz	-9.19683
▁cijena	-9.19732
tko	-9.19781
▁dug	-9.19866
▁smije	-9.19869
▁Mat	-9.20024
▁Pred	-9.20141
1.	-9.20449
▁pove	-9.20484
▁govor	-9.20548
▁godišnj	-9.20563
kova	-9.20567
▁istaknuo	-9.20604
▁Marko	-9.20631
▁bogat	-9.20639
▁pak	-9.2068
▁turnir	-9.20803
▁lu	-9.20897
▁Jadran	-9.20908
▁dovoljno	-9.21004
▁misli	-9.21043
čko	-9.21055
sel	-9.21217
jedni	-9.21253
tira	-9.21293
njima	-9.21376
▁bra	-9.2149
▁odnosu	-9.21498
▁hrvatske	-9.21601
▁prošlo	-9.21742
misli	-9.21767
▁ponedjeljak	-9.21802
▁situacija	-9.21802
▁tjedan	-9.21903
▁(1	-9.22236
▁100	-9.22251
▁glavni	-9.22254
▁zagreba	-9.2243
▁Tr	-9.22505
dob	-9.22521
▁Drug	-9.22539
▁važn	-9.2258
olog	-9.22706
▁pokuša	-9.23009
pos	-9.23086
▁23	-9.23106
▁promijeni	-9.23116
▁uživa	-9.23182
▁Ameri	-9.2321
▁kli	-9.23312
pt	-9.2332
▁Cr	-9.23414
▁J	-9.23427
▁potvr	-9.23511
▁godini	-9.23543
par	-9.2361
jev	-9.23691
W	-9.23751
▁moguće	-9.2385
▁mediji	-9.23859
icom	-9.2386
ps	-9.23924
▁bile	-9.23963
▁dje	-9.24002
zer	-9.24102
▁očekuje	-9.2414
▁tamo	-9.24156
sad	-9.24211
vijesti	-9.24234
pol	-9.24385
▁Hrvatski	-9.24539
▁dogovor	-9.24608
▁kojim	-9.24623
▁Bel	-9.24641
▁potom	-9.247
▁jasno	-9.24762
čini	-9.24884
▁igrati	-9.24995
vom	-9.25075
▁doma	-9.2508
▁okr	-9.25082
vodi	-9.25307
▁djecu	-9.25422
ljiva	-9.25466
lozi	-9.25718
▁Op	-9.25743
▁ha	-9.25795
ljiv	-9.25797
▁razgovara	-9.25798
▁uspjeh	-9.25799
▁priprema	-9.25905
▁glavn	-9.25951
din	-9.26074
▁određen	-9.26209
telja	-9.26254
▁srijedu	-9.2643
▁dijete	-9.26643
▁primjer	-9.26702
▁Zbog	-9.26851
▁ovu	-9.26932
▁Dinama	-9.26962
▁kuće	-9.27011
živ	-9.2703
▁osim	-9.27032
▁večer	-9.27079
▁dnevn	-9.27175
▁nismo	-9.2728
vor	-9.27327
▁mnogo	-9.2749
▁rada	-9.27571
▁nikad	-9.27628
▁aktivnosti	-9.27643
▁najbolji	-9.27647
▁bodova	-9.27757
▁dokaz	-9.27827
port	-9.27913
▁druga	-9.27922
▁obitelj	-9.28183
vaju	-9.2822
▁trg	-9.28284
▁zahval	-9.28294
▁putem	-9.28379
▁Ova	-9.28412
▁izbora	-9.28414
▁maj	-9.28468
▁Ivana	-9.28486
▁tih	-9.28726
▁nastupa	-9.28861
▁drugo	-9.28889
▁trebao	-9.28974
10	-9.29129
▁upozna	-9.29206
▁komentar	-9.2931
▁rata	-9.29719
▁Zagreba	-9.29726
▁građani	-9.29853
▁dijelu	-9.29854
nde	-9.29927
▁nogometn	-9.29946
vođe	-9.2996
njom	-9.30047
zija	-9.30055
šću	-9.3009
+	-9.3017
▁Real	-9.30282
▁stranke	-9.3036
▁hrvatskog	-9.30387
icama	-9.30486
čna	-9.3054
▁festival	-9.30837
▁Kao	-9.30848
▁mlad	-9.30932
▁Tre	-9.30964
▁Prije	-9.31046
▁metara	-9.31067
▁mali	-9.31122
▁ispred	-9.31331
▁gradonačelnik	-9.31388
▁došao	-9.31792
ler	-9.31853
▁gradsk	-9.32041
▁Luka	-9.32052
▁zemlji	-9.32064
▁objavi	-9.32093
tić	-9.3212
▁velike	-9.32175
▁iznosi	-9.32274
▁četvrt	-9.32316
▁rok	-9.32431
▁korak	-9.32452
▁povijesti	-9.32465
▁utakmici	-9.325
▁utjecaj	-9.325
'.	-9.3251
nić	-9.32548
▁živi	-9.32631
aron	-9.3282
▁model	-9.32911
▁stvar	-9.32924
▁svijet	-9.33312
▁slavi	-9.33322
▁utorak	-9.33402
▁sata	-9.33631
ban	-9.3371
▁razini	-9.3387
▁dobiti	-9.33951
▁nedavno	-9.34074
dra	-9.34157
▁Republike	-9.34191
▁Fa	-9.34288
kri	-9.3432
▁dobar	-9.34385
▁momčad	-9.34418
▁shva	-9.34456
▁porez	-9.34561
kar	-9.34586
20	-9.34836
▁posjet	-9.34933
▁mar	-9.35106
▁doći	-9.35124
▁nova	-9.35208
▁Tra	-9.35264
▁sklad	-9.35302
▁škole	-9.35339
▁cijene	-9.3535
▁devet	-9.35508
▁Per	-9.35542
▁kla	-9.35656
▁bivši	-9.35723
▁prethodn	-9.358
▁studij	-9.35805
▁ukupno	-9.35836
▁BiH	-9.35857
▁splitsk	-9.36259
▁pogled	-9.36325
▁opć	-9.36341
▁Car	-9.36349
▁mislim	-9.36356
▁donosi	-9.36399
lne	-9.36437
prije	-9.3645
▁zanimljiv	-9.36513
▁pun	-9.36722
đuje	-9.3674
dru	-9.36746
▁Zna	-9.36792
▁prolaz	-9.36821
▁60	-9.36867
▁osvojio	-9.3695
che	-9.3698
▁Gu	-9.36985
kav	-9.36993
ff	-9.37034
▁Or	-9.3706
alni	-9.37074
▁mjesec	-9.37129
▁županije	-9.37136
ište	-9.37234
▁otvori	-9.37254
ljivo	-9.37285
▁glasa	-9.37305
▁Martin	-9.37309
▁krv	-9.37386
▁ćete	-9.37396
jske	-9.37428
vljen	-9.37482
sen	-9.37508
▁mjeseca	-9.37515
▁kriv	-9.3753
▁Rijeka	-9.37547
▁Grada	-9.3755
▁ističe	-9.37609
▁Sp	-9.37683
Š	-9.3776
▁Španjolsk	-9.3778
▁travnja	-9.37901
▁uzrok	-9.37951
▁prvog	-9.37976
▁stvarno	-9.38037
▁Splitu	-9.38088
▁uključujući	-9.3815
▁mrežama	-9.38172
▁vozi	-9.38175
▁slab	-9.38223
▁država	-9.38388
▁novog	-9.38479
▁sjajn	-9.38501
▁kra	-9.38589
▁Zoran	-9.38731
▁kojih	-9.3877
▁navija	-9.38792
▁autor	-9.38804
iraju	-9.38814
jski	-9.38821
▁Sloven	-9.38854
▁dolara	-9.38918
pred	-9.38929
▁trenutno	-9.38936
▁tvrtke	-9.38965
▁objavljen	-9.38965
▁ljude	-9.38967
▁Kor	-9.38993
▁pobjedu	-9.39033
▁pojedin	-9.39136
▁mladi	-9.39154
▁Također	-9.39324
▁sukob	-9.39474
▁moglo	-9.3957
▁njemu	-9.39598
▁umjetn	-9.39635
▁hr	-9.39649
▁snage	-9.39807
▁pobjede	-9.39877
stava	-9.39994
▁26	-9.39997
▁Vid	-9.40053
▁dvo	-9.40054
▁time	-9.40071
▁Bri	-9.4013
▁međunarodn	-9.40165
▁lipnja	-9.40168
ljev	-9.40203
▁napraviti	-9.4042
▁Đ	-9.40439
nike	-9.40451
▁moći	-9.40452
▁sastav	-9.40458
nicima	-9.40509
▁moraju	-9.40778
▁suda	-9.40796
▁primi	-9.40855
bar	-9.40869
▁vlada	-9.40893
▁(3	-9.40896
▁hrvatskih	-9.40909
rin	-9.40923
▁godinama	-9.40999
nzi	-9.4113
▁vojn	-9.41151
▁otvara	-9.41168
▁svima	-9.41203
▁Francusk	-9.4126
▁teren	-9.41296
ške	-9.41507
▁Mir	-9.41523
▁čemu	-9.41523
▁tvrd	-9.4156
▁javnosti	-9.41603
▁poručio	-9.41624
▁Novi	-9.41751
kriv	-9.4178
50	-9.41812
reme	-9.41822
▁Vlade	-9.41862
nskog	-9.41885
▁kru	-9.41912
▁izvan	-9.41996
▁zatim	-9.42061
▁zaklju	-9.42109
▁postao	-9.42183
▁jezik	-9.42296
▁gradu	-9.42346
▁pr	-9.42391
▁čij	-9.42451
▁novih	-9.42472
▁sat	-9.42492
▁žele	-9.42505
▁prvu	-9.42538
▁hotel	-9.42548
▁Doda	-9.42661
▁pru	-9.42732
▁ovakv	-9.42814
irani	-9.42845
▁ovih	-9.42911
▁objavila	-9.42935
nijih	-9.42974
▁posljednje	-9.42983
▁obo	-9.43033
▁rak	-9.43105
▁dobili	-9.43197
▁Još	-9.432
▁pregled	-9.43326
▁Kar	-9.43359
▁zaslu	-9.43543
▁koj	-9.436
▁dogodilo	-9.43674
▁Raz	-9.43836
▁novac	-9.43847
▁dvor	-9.43885
▁konačn	-9.43896
▁ovoj	-9.43911
zan	-9.43932
spor	-9.43953
▁Šibenik	-9.43978
▁Hajduka	-9.4412
▁strana	-9.44156
▁pjeva	-9.4417
vna	-9.44198
▁ponaša	-9.44257
▁vije	-9.44367
-2	-9.4444
▁različit	-9.44494
▁došlo	-9.44498
▁št	-9.44562
▁pojavi	-9.4463
▁biste	-9.44656
sc	-9.44664
iranje	-9.44672
▁povezan	-9.44681
hod	-9.44708
▁bolesti	-9.44741
▁Filip	-9.44742
▁Danas	-9.45142
▁for	-9.45234
▁Ovaj	-9.45352
nata	-9.45446
ređen	-9.45521
▁nitko	-9.45586
▁glumi	-9.45623
ral	-9.45719
land	-9.45848
▁trebalo	-9.45888
▁izjavio	-9.45918
ras	-9.4594
sjed	-9.45973
▁današnj	-9.46012
▁zrak	-9.46103
▁video	-9.46111
▁novu	-9.46199
▁gubi	-9.46449
▁dija	-9.46523
▁zemlja	-9.46523
▁bismo	-9.46541
▁posebn	-9.46618
▁javno	-9.46626
▁POGLEDAJTE	-9.46647
čkoj	-9.4666
▁ispod	-9.46742
▁poslu	-9.46791
▁Mor	-9.46886
tok	-9.46922
▁otkrila	-9.46972
▁manji	-9.46987
▁trud	-9.47004
natoč	-9.47021
▁god	-9.47061
▁konce	-9.47069
▁nikada	-9.47404
▁osjeća	-9.47442
▁riječi	-9.47686
▁djela	-9.47875
gur	-9.47955
▁izborima	-9.4796
▁predstavi	-9.47969
▁hlad	-9.47976
▁Dok	-9.47985
▁zabio	-9.48
▁momčadi	-9.48075
▁ozlijeđen	-9.4809
▁potrebn	-9.48117
glav	-9.48208
rica	-9.48241
▁djeca	-9.48241
▁drugog	-9.48304
▁vide	-9.48369
▁otkrio	-9.48452
▁treće	-9.48481
▁Radi	-9.48491
▁vanjsk	-9.48607
▁rade	-9.48657
▁značaj	-9.48668
▁države	-9.48741
▁razmišlja	-9.48749
▁Sin	-9.48763
▁/	-9.48831
▁njegove	-9.48872
▁iduć	-9.48924
▁dokument	-9.48978
viz	-9.49113
▁toj	-9.4927
▁ispit	-9.49405
▁odmor	-9.49465
▁terenu	-9.49487
▁vojni	-9.49743
▁New	-9.49745
▁bolji	-9.49767
▁Pot	-9.49799
čenje	-9.49815
▁Bor	-9.49844
▁potrebno	-9.5001
▁škola	-9.50068
▁oblik	-9.50084
▁policijsk	-9.50097
▁snima	-9.50099
čkih	-9.50146
▁poziva	-9.50311
▁Njegov	-9.50319
▁informacija	-9.50459
▁povjeren	-9.5087
▁lako	-9.50952
▁kući	-9.50953
▁ukrajinsk	-9.5099
star	-9.5107
▁jedne	-9.51113
▁promjene	-9.51125
▁sustava	-9.51204
▁Bio	-9.51257
▁Svjetsk	-9.51259
▁osvoji	-9.51317
▁rujna	-9.51398
▁prenosi	-9.51403
▁trag	-9.51683
▁jednostavno	-9.51802
▁prilikom	-9.51806
▁bavi	-9.51823
ovac	-9.51929
▁posljednjih	-9.51959
▁važno	-9.51965
▁noć	-9.51976
ly	-9.51991
▁vaše	-9.52029
▁Bilo	-9.52066
▁bivš	-9.52203
▁Ipak	-9.52213
▁smanji	-9.52236
▁igre	-9.52264
▁obu	-9.52334
tori	-9.52406
▁voditelj	-9.5247
▁sebi	-9.52572
▁mijenja	-9.5263
ris	-9.52633
Ne	-9.52703
roz	-9.52718
▁Fi	-9.52737
▁stadion	-9.52754
▁turističk	-9.52759
▁policije	-9.52777
dar	-9.528
▁krug	-9.52881
▁27	-9.529
▁četvrtak	-9.52968
▁Svak	-9.53009
▁dodatno	-9.53223
▁Tur	-9.53319
▁obiteljsk	-9.5332
▁trebali	-9.53323
▁osjećaj	-9.53343
▁vrijednosti	-9.53506
▁prona	-9.53507
▁događaj	-9.53528
laže	-9.53548
▁pitanja	-9.53551
▁roditelji	-9.53581
▁ovim	-9.53597
▁nekim	-9.53632
▁njemačk	-9.53739
kinu	-9.53833
▁rekli	-9.5388
išta	-9.53901
▁kažu	-9.53996
▁Andrej	-9.54046
▁Y	-9.54435
▁izborn	-9.54454
▁vezan	-9.54492
▁oči	-9.54526
▁potra	-9.5457
▁ljudima	-9.54616
▁prednost	-9.54699
▁Europe	-9.5504
▁prepozna	-9.55108
▁ravnatelj	-9.55108
▁Foto	-9.55117
▁unutar	-9.55166
▁Jur	-9.55171
pali	-9.55194
▁požar	-9.55292
▁provodi	-9.55312
▁28	-9.55347
▁El	-9.55466
0.000	-9.55522
▁onih	-9.55528
▁nastavlja	-9.55537
▁osje	-9.55539
▁Mal	-9.55561
kinja	-9.55709
▁njen	-9.55722
▁odluka	-9.55779
▁njihove	-9.55793
▁nepo	-9.55797
▁srpnja	-9.55812
▁cijeli	-9.55869
▁napisao	-9.56003
▁domaći	-9.56004
jedna	-9.56105
▁doček	-9.56149
final	-9.56184
▁poboljša	-9.56378
▁Dje	-9.56459
▁razloga	-9.56475
▁listopada	-9.5652
▁pruža	-9.56584
▁životu	-9.56594
▁najveći	-9.56654
▁pokušava	-9.56804
▁Mislim	-9.56805
▁sklopu	-9.56879
nska	-9.56882
▁osnovn	-9.5695
▁poziv	-9.56959
tku	-9.57013
▁FOTO	-9.5709
▁rizik	-9.57104
štva	-9.57123
avaju	-9.57219
▁materijal	-9.57233
▁Mate	-9.57313
▁žene	-9.57319
mija	-9.57418
▁pobje	-9.57571
▁pada	-9.57613
▁trebala	-9.57638
▁računa	-9.57775
▁iskustvo	-9.5781
▁mlade	-9.57938
▁predsjedni	-9.57962
▁dodatn	-9.58022
▁reprezentacije	-9.58096
▁Ze	-9.58109
▁izbori	-9.58196
▁tiče	-9.58204
▁Već	-9.58253
▁Tim	-9.58293
▁Nova	-9.58319
▁lige	-9.58319
▁Zadar	-9.58372
▁muškarac	-9.58385
▁početka	-9.58386
dija	-9.58401
▁Ukrajini	-9.5853
▁građana	-9.58821
▁Samo	-9.58858
▁previše	-9.58967
▁dodaje	-9.58999
▁Pra	-9.5906
▁uglavnom	-9.59114
▁srpsk	-9.59114
▁Ustav	-9.59134
▁Putin	-9.5919
▁loš	-9.59191
▁ostati	-9.59249
▁podršku	-9.59258
▁potpisa	-9.59264
graf	-9.59359
▁mladih	-9.59455
▁moramo	-9.59476
ger	-9.59555
▁drag	-9.59567
▁Novo	-9.59605
▁Europi	-9.59621
▁kulturn	-9.59697
▁hoće	-9.59716
▁bori	-9.59765
▁zaposlen	-9.59792
ševi	-9.59811
han	-9.5982
▁rekord	-9.59844
▁barem	-9.59853
▁zemalja	-9.59991
▁Kat	-9.60032
▁kolu	-9.60278
▁treći	-9.60309
▁uoči	-9.60321
▁sredin	-9.60371
▁susjed	-9.60436
▁per	-9.6046
bili	-9.60486
▁ulogu	-9.60586
▁vrata	-9.60603
▁najmanje	-9.60742
slu	-9.60806
▁šal	-9.60877
▁kolovoza	-9.60878
▁val	-9.60901
▁želim	-9.60916
▁Rijeke	-9.61028
▁projekta	-9.61085
▁prvenstva	-9.61175
▁Če	-9.61199
▁brak	-9.61204
štvo	-9.61366
▁tekst	-9.61489
▁tijelo	-9.6153
▁X	-9.61582
▁euro	-9.6162
▁park	-9.61627
▁odluku	-9.61715
▁veliku	-9.61729
▁kuća	-9.61788
▁Hrvatskog	-9.61824
▁Taj	-9.61834
▁luk	-9.61893
stala	-9.6196
ević	-9.61973
▁29	-9.62018
▁optu	-9.6205
▁sigurnosti	-9.62097
▁Niko	-9.62197
▁uopće	-9.62227
▁počinje	-9.6239
▁stol	-9.62465
▁eksp	-9.62524
▁Oni	-9.62556
tivni	-9.62558
▁kuha	-9.62636
▁iskoristi	-9.62676
▁vikend	-9.62676
▁zastupnik	-9.62676
▁odgovara	-9.62804
▁Sabor	-9.62812
▁prijedlog	-9.62828
▁njim	-9.62851
pp	-9.62887
▁račun	-9.62998
▁dobila	-9.63095
▁RTL	-9.6313
▁glasova	-9.63203
▁voli	-9.63212
irala	-9.63299
stati	-9.63319
▁mjere	-9.6359
▁objekt	-9.63616
▁Tomislav	-9.63892
▁automobila	-9.63904
▁centr	-9.63909
▁naveden	-9.63927
▁Jedan	-9.63964
▁Olimpijsk	-9.64107
▁izraelsk	-9.64353
▁promjena	-9.64353
▁ponos	-9.64358
▁nogometaš	-9.64433
▁Glav	-9.64481
ty	-9.64485
▁umjesto	-9.64493
▁svibnja	-9.64507
▁pozitivn	-9.64511
▁show	-9.64661
▁Pr	-9.64704
▁znak	-9.64729
▁meni	-9.64821
stanak	-9.65035
▁nikakv	-9.65107
▁Zakon	-9.65199
▁traže	-9.65246
▁povrat	-9.65372
▁smrt	-9.65504
▁Evo	-9.65564
▁postavi	-9.6565
▁Milan	-9.65653
rina	-9.65706
▁dizajn	-9.65746
▁područja	-9.65746
▁mlađ	-9.65776
▁ostalo	-9.65815
▁sektor	-9.6592
▁vijest	-9.65958
▁eko	-9.66018
▁izlaz	-9.66019
▁mom	-9.66033
▁natjecanja	-9.66058
▁reagira	-9.66059
▁Modrić	-9.66065
▁alkohol	-9.66214
▁sazna	-9.66215
▁navodno	-9.66334
nese	-9.66367
▁dosad	-9.66387
▁kratko	-9.66417
čević	-9.6648
▁čita	-9.66505
▁Europske	-9.66613
iljem	-9.66684
▁posve	-9.66718
▁brojne	-9.66719
▁igrači	-9.66783
pet	-9.66793
▁The	-9.66861
▁nastaviti	-9.66889
čak	-9.67037
▁naših	-9.67149
rek	-9.67177
▁Riječ	-9.67189
▁spas	-9.67207
▁otpad	-9.67215
▁svakodnevn	-9.67317
▁normal	-9.67318
▁otkriva	-9.67344
▁bod	-9.67356
▁Prvo	-9.6739
▁Tijek	-9.67462
NK	-9.67471
▁električn	-9.67475
RA	-9.67534
irali	-9.67607
▁prikaz	-9.67629
▁plaće	-9.67664
▁svjetski	-9.67669
▁loše	-9.67809
▁izbore	-9.67855
▁Marin	-9.679
▁kolo	-9.67945
sljed	-9.68048
industrij	-9.68085
▁zrakoplov	-9.68112
▁talijansk	-9.68112
▁želje	-9.68122
▁stup	-9.68165
▁ostali	-9.68241
▁prekršaj	-9.68299
▁predmet	-9.68302
▁rođen	-9.68323
▁pitanju	-9.68449
▁Jer	-9.68453
vremeno	-9.68471
▁politički	-9.6853
▁2021.	-9.68592
▁znaju	-9.68719
NA	-9.6882
čica	-9.68869
▁plin	-9.68965
koj	-9.69119
▁obrane	-9.69224
▁daljnj	-9.69361
▁upit	-9.69379
▁vlasnik	-9.69404
▁of	-9.69411
▁župan	-9.69527
▁održan	-9.69564
▁najveć	-9.7
mina	-9.70056
ključ	-9.70125
▁Dub	-9.70238
▁stanje	-9.70296
▁vrtić	-9.70302
rske	-9.70392
▁studenog	-9.70535
▁opasn	-9.70599
▁90	-9.70617
▁osobno	-9.707
šća	-9.70755
▁Bla	-9.70766
▁sigurnost	-9.70773
što	-9.7079
▁parlament	-9.70845
▁zdravlje	-9.70857
▁strah	-9.70903
▁Vod	-9.70958
▁iznad	-9.70994
▁proračun	-9.71117
▁vraća	-9.71195
Ljub	-9.7125
pić	-9.71276
▁nekog	-9.71286
▁javlja	-9.71369
▁Ben	-9.7148
Ž	-9.71526
ročitajte	-9.71687
▁trening	-9.71699
▁tijela	-9.717
▁80	-9.71703
▁odluke	-9.71785
▁postoje	-9.72018
▁stigao	-9.72019
▁prijavi	-9.72028
▁razlog	-9.72032
▁cesta	-9.72035
▁Prvi	-9.72079
▁spava	-9.72165
▁francusk	-9.72184
▁zaborav	-9.7219
▁čiji	-9.72194
▁zapadn	-9.72215
ncu	-9.72353
▁dodat	-9.7241
▁ostao	-9.72438
ovu	-9.72503
▁Podsjetimo	-9.72517
▁tradicionaln	-9.72517
▁ujutro	-9.72542
▁(4	-9.72547
▁početkom	-9.72684
▁kontakt	-9.72694
▁zelen	-9.72868
▁finala	-9.72873
▁duž	-9.73114
▁TV	-9.7317
▁trenutak	-9.73187
▁teret	-9.73308
▁Nema	-9.73364
▁prilika	-9.734
▁vratiti	-9.73499
▁prvoj	-9.73509
▁domaće	-9.73512
▁redu	-9.73526
har	-9.73556
▁Biden	-9.73611
▁izvješ	-9.73656
▁majka	-9.73683
▁energije	-9.73691
▁sadržaj	-9.73691
vice	-9.73712
▁Lige	-9.7372
▁izbornik	-9.73724
▁Bog	-9.73728
▁Sto	-9.73857
▁HNL	-9.7386
▁prosvjed	-9.7386
▁informacije	-9.73865
▁HRT	-9.7403
▁student	-9.7403
▁koriste	-9.74141
ham	-9.7424
▁svakom	-9.74299
▁snaga	-9.74451
▁primje	-9.74474
▁smrti	-9.74496
▁vozilo	-9.74528
▁događaja	-9.74576
▁borbe	-9.74675
▁siječnja	-9.74709
▁Njemačkoj	-9.74716
▁daleko	-9.74716
▁uspio	-9.74721
▁prvenstvu	-9.7488
▁opis	-9.75015
▁Gi	-9.75086
▁pripremi	-9.75223
▁poslije	-9.7523
▁brani	-9.75333
▁motiv	-9.75336
ljub	-9.75408
▁hrane	-9.75417
▁došli	-9.75455
▁NATO	-9.75565
▁prosinca	-9.75565
▁čime	-9.75609
▁poduzetni	-9.75627
▁zanima	-9.75647
▁korisnik	-9.75735
▁spremni	-9.7574
▁skupine	-9.75837
▁najavio	-9.75868
▁dolaze	-9.75947
▁sir	-9.76209
▁tj	-9.76276
▁svemu	-9.76331
▁najbolj	-9.76398
JE	-9.76584
▁sutra	-9.76586
spekt	-9.76651
▁tv	-9.76655
▁sudac	-9.76698
izma	-9.76732
▁evo	-9.76741
▁35	-9.76768
▁aktualn	-9.76777
▁radova	-9.76784
▁Treba	-9.76787
▁mogućnost	-9.7685
15	-9.76979
▁dodala	-9.77009
▁restoran	-9.77126
▁zračn	-9.77142
▁šef	-9.7716
▁kralj	-9.77161
▁boda	-9.77225
▁centar	-9.77301
▁žal	-9.77301
▁sezonu	-9.7731
dijeli	-9.77356
▁nudi	-9.77358
▁pokušaj	-9.77361
▁Zdrav	-9.77476
▁pokazuje	-9.77514
▁Sel	-9.77552
▁Sada	-9.77593
▁vjen	-9.77637
▁tvrtka	-9.77651
▁obi	-9.77708
▁internet	-9.77826
▁uhićen	-9.77827
▁70	-9.77846
▁Vlada	-9.7796
▁znanstven	-9.78002
ljenje	-9.78028
▁ponudi	-9.78063
▁završio	-9.78139
▁društvo	-9.7818
▁ljeta	-9.78193
▁nadzor	-9.78281
▁pobjeda	-9.78407
▁osobito	-9.78409
▁Luk	-9.78416
▁Dra	-9.78423
▁osvaja	-9.78533
▁rješenje	-9.7871
▁RH	-9.78762
▁europski	-9.7881
▁veliko	-9.78815
etvrt	-9.78825
▁standard	-9.78889
▁Više	-9.79023
▁Maj	-9.79193
▁noći	-9.79233
▁Beograd	-9.79245
▁povećan	-9.79349
▁situaciju	-9.79422
▁osu	-9.79442
nskih	-9.79475
▁navijači	-9.79476
▁stručnjak	-9.79503
iranja	-9.79596
▁savršen	-9.79604
▁bur	-9.79607
▁novim	-9.79646
▁sretn	-9.79733
▁protekl	-9.79788
▁našeg	-9.79866
izam	-9.79902
▁financira	-9.7996
▁socijaln	-9.7996
▁sunčan	-9.79973
▁postala	-9.79985
▁čist	-9.80008
▁posu	-9.80034
▁Stan	-9.80132
▁sigurnosn	-9.80149
▁Isto	-9.80194
▁odlučio	-9.80218
▁svakog	-9.80329
▁uprave	-9.80332
▁sjever	-9.80432
▁kategori	-9.80469
▁obzira	-9.8057
kraj	-9.80844
▁31	-9.80847
rski	-9.80861
jić	-9.809
▁odgovornost	-9.80962
▁potez	-9.80981
▁okvir	-9.81046
▁Policija	-9.81051
▁kazala	-9.81053
▁dobiva	-9.8116
▁Lov	-9.81165
▁lijep	-9.8117
▁domaćin	-9.81179
▁preporu	-9.81233
etiri	-9.81279
▁čas	-9.81356
▁Predsjednik	-9.81408
pun	-9.81608
▁ruke	-9.81769
▁globaln	-9.81773
gospodar	-9.8178
▁našim	-9.81783
▁vezi	-9.81791
▁jednoj	-9.8181
▁vrijedn	-9.81894
▁izjavi	-9.81923
▁naravno	-9.81969
▁fr	-9.8229
▁Facebook	-9.82324
▁uskoro	-9.82333
▁popis	-9.82412
▁razliku	-9.82516
▁postaje	-9.82542
▁Srbije	-9.82668
▁specijal	-9.82693
▁društva	-9.82693
▁Naš	-9.82807
▁2025.	-9.82877
▁dres	-9.82911
▁jučer	-9.83064
▁ostaje	-9.83096
▁sjeća	-9.83098
▁Madrid	-9.83248
▁zaključio	-9.8325
▁dijela	-9.83265
▁Sch	-9.83398
▁medicinsk	-9.83434
▁minute	-9.83445
▁zatvoren	-9.83495
▁inače	-9.83599
▁upozorava	-9.8362
▁Star	-9.83676
▁smjeru	-9.83688
vcu	-9.8378
▁pokazala	-9.83816
▁napisala	-9.83838
▁završn	-9.83902
Zc	-9.83973
▁jedinstven	-9.83993
▁povijesn	-9.84002
▁nju	-9.84027
▁fotografije	-9.84062
▁ples	-9.84175
▁Zato	-9.84238
vent	-9.84354
▁učenik	-9.84367
▁pjesme	-9.84368
▁pokazao	-9.84387
▁šire	-9.84392
▁priče	-9.84419
top	-9.84461
▁zaista	-9.84542
▁stvori	-9.84555
▁svojom	-9.84559
▁brat	-9.84665
▁radni	-9.84737
ljivi	-9.8478
▁odnosi	-9.84806
▁Auto	-9.84813
▁novom	-9.84857
▁temperatura	-9.84933
▁drugu	-9.8494
▁Bre	-9.84962
▁viš	-9.84963
▁veze	-9.85009
▁vrhu	-9.85026
▁otac	-9.85064
▁objasni	-9.85106
▁stručn	-9.85123
▁donijel	-9.85151
▁vesel	-9.85158
▁budući	-9.85291
▁početku	-9.85312
▁prihod	-9.85352
nički	-9.85427
▁porast	-9.85452
▁zadnje	-9.85602
▁nekih	-9.85757
▁dobri	-9.85762
▁ugosti	-9.8578
▁Marija	-9.85819
▁novca	-9.85894
▁mag	-9.85952
▁koristiti	-9.85955
▁let	-9.86051
▁organ	-9.86052
▁članovi	-9.86154
▁podru	-9.86201
▁nemaju	-9.86223
dić	-9.86244
▁moguć	-9.86274
▁Stra	-9.86309
▁kćer	-9.86315
▁takav	-9.86329
▁dubok	-9.86376
jima	-9.86379
▁stati	-9.86425
▁Vukovar	-9.8665
▁Dakle	-9.86654
▁zaustavi	-9.86654
▁prijevoz	-9.8667
▁svjetsko	-9.86763
▁vrh	-9.8681
▁javnost	-9.86816
▁modern	-9.86909
krat	-9.86952
▁kilometara	-9.87033
▁pravn	-9.8704
▁centra	-9.87046
▁postati	-9.87056
▁rijetk	-9.87067
▁napravio	-9.87073
▁trend	-9.87225
▁ozljede	-9.87226
▁karijere	-9.87226
▁opasnost	-9.87294
▁fizičk	-9.87424
▁Neki	-9.8743
▁motor	-9.87695
▁odvjetnik	-9.87807
▁europsko	-9.87817
▁(5	-9.87876
▁izgled	-9.87949
▁album	-9.88002
▁spoj	-9.88311
▁Njema	-9.88356
▁anti	-9.88366
-3	-9.88373
▁pojas	-9.88411
▁navode	-9.88411
▁pokazuju	-9.88425
▁princ	-9.88497
▁sluša	-9.88523
▁omogu	-9.8857
▁održiv	-9.88591
▁Anton	-9.88842
▁traje	-9.88857
▁iznimno	-9.88878
▁spomen	-9.88895
▁stanju	-9.88896
▁velik	-9.88948
▁najvažnij	-9.8898
▁Jako	-9.89005
▁derbi	-9.89033
▁spomenut	-9.89071
▁dođe	-9.89153
▁objašnjava	-9.89177
▁postavlja	-9.8918
▁ljetn	-9.89206
▁mnoge	-9.89383
▁svakako	-9.8939
▁#	-9.89411
godišnjeg	-9.89451
▁blag	-9.89481
rez	-9.89527
▁Ol	-9.8957
▁umirovljen	-9.89572
▁potrebe	-9.89572
▁slika	-9.89684
▁drugoj	-9.89738
▁Kup	-9.89744
▁velikim	-9.89797
▁Nikola	-9.89809
▁Ante	-9.89832
▁stil	-9.89851
▁pogotovo	-9.89968
▁2020.	-9.8997
▁pobjednik	-9.90021
▁vodstvo	-9.90055
▁takvo	-9.90068
▁ljubavi	-9.90098
▁dobra	-9.90145
▁blizini	-9.90167
▁ožujka	-9.90167
▁profesor	-9.90167
▁počeo	-9.90271
▁milijun	-9.90336
jača	-9.90375
ple	-9.90434
ljuje	-9.90568
▁Robert	-9.90768
▁dvoboj	-9.90772
▁tip	-9.90776
▁blagdan	-9.90813
▁ovako	-9.90851
▁uključi	-9.90954
▁kulture	-9.90966
▁uslijed	-9.9097
▁seksualn	-9.91167
▁naglasio	-9.91171
▁Poljud	-9.91193
▁Portugal	-9.91368
▁pjesmu	-9.91368
▁uspjeli	-9.91369
▁upozori	-9.91369
▁For	-9.91369
▁uređaj	-9.9137
▁predstavnik	-9.91372
▁pacijent	-9.91572
burg	-9.91614
▁pronaći	-9.91704
▁dobit	-9.91796
▁Man	-9.91802
▁potres	-9.91805
▁došla	-9.91843
▁nevjerojatn	-9.91974
▁sezoni	-9.91992
ny	-9.92024
▁super	-9.92049
▁politike	-9.92064
▁priop	-9.92168
▁fakultet	-9.92177
▁ljeto	-9.92186
▁Policijsk	-9.9219
▁stalno	-9.92196
▁predsjedničk	-9.92243
▁Opć	-9.92293
▁Naravno	-9.92381
vač	-9.92424
▁Bož	-9.92562
▁hrvatskom	-9.92718
▁kapetan	-9.92789
▁sredstva	-9.9279
▁Parizu	-9.9279
▁stanovnik	-9.92791
▁stabiln	-9.92791
▁četvrti	-9.92806
▁krajem	-9.92879
▁digitaln	-9.92993
nskom	-9.92994
▁finale	-9.93008
▁branitelj	-9.93028
▁profesionaln	-9.93041
▁sljedeće	-9.93056
27	-9.93071
▁okoliš	-9.93099
▁medija	-9.93133
▁uspješn	-9.93137
▁skupina	-9.9317
▁umjeren	-9.93198
▁Ministarstvo	-9.93221
hat	-9.93295
▁Ber	-9.93324
▁najveće	-9.93457
▁istraživanje	-9.93563
▁intervju	-9.93609
▁natječaj	-9.93613
▁vrhunsk	-9.93674
▁napadač	-9.93701
▁prosječn	-9.93815
vjes	-9.93847
▁okuplja	-9.94023
▁svlada	-9.94027
▁Jedna	-9.94032
▁Gl	-9.94085
▁Tri	-9.94195
▁Bit	-9.94227
▁prvenstvo	-9.94229
▁poduze	-9.94376
cijski	-9.94426
▁budućnosti	-9.94494
▁Podr	-9.9459
▁obilje	-9.94606
▁duh	-9.94617
▁portal	-9.94662
▁običn	-9.94806
▁mogućnosti	-9.94823
▁Ove	-9.94825
▁priču	-9.94825
▁med	-9.949
▁DP	-9.95008
TA	-9.95035
▁Zelen	-9.95045
▁Krist	-9.95056
▁dijeli	-9.95259
broj	-9.9526
▁ekipa	-9.9527
▁udarac	-9.95384
▁gradi	-9.95469
45	-9.9548
▁Ministarstva	-9.95502
▁zaštiti	-9.95507
▁društvu	-9.9569
▁kombi	-9.95804
VA	-9.95826
▁reprezentacija	-9.95901
▁simbol	-9.95903
▁mjera	-9.9591
▁bes	-9.95928
▁potencijaln	-9.95982
▁kamp	-9.95984
▁sportaš	-9.96014
▁prvih	-9.96033
▁ostalim	-9.96078
▁Državn	-9.96112
▁većina	-9.96259
age	-9.96261
žić	-9.9628
▁objasnio	-9.96341
skrb	-9.96494
izaciju	-9.96517
▁doprinos	-9.96535
▁prof	-9.96621
▁potpis	-9.96628
▁očito	-9.96685
▁najboljih	-9.96706
▁stranka	-9.96727
▁olimpijsk	-9.96747
▁suradnji	-9.96747
▁zajednice	-9.96748
▁trebaju	-9.9676
▁učiniti	-9.96781
▁dužnost	-9.96823
▁vruć	-9.96858
▁Ot	-9.96933
▁dječj	-9.96978
▁prošli	-9.97001
▁nesreće	-9.97173
▁telefon	-9.97173
ujemo	-9.97296
▁središnj	-9.97387
▁početak	-9.9739
▁finalu	-9.97398
▁profil	-9.97417
▁razred	-9.97519
▁loptu	-9.97602
1)	-9.97655
▁prekid	-9.97682
▁propis	-9.97717
Q	-9.97815
▁rješava	-9.97815
▁situacije	-9.97815
▁Most	-9.97882
▁more	-9.97996
▁prvak	-9.98096
▁službeno	-9.9811
▁raspored	-9.98249
▁kop	-9.9826
2)	-9.98304
▁propust	-9.98361
▁obje	-9.98421
▁Mark	-9.98423
▁lijepo	-9.98451
▁točno	-9.9848
▁Varaždinsk	-9.98509
▁dvoje	-9.98568
▁incident	-9.98678
▁sezona	-9.98707
cent	-9.98768
▁potencijal	-9.98811
▁čuva	-9.98891
▁zaštite	-9.98906
▁poruka	-9.98921
▁školsk	-9.99113
▁iskustva	-9.99116
▁autobus	-9.99116
▁pogodak	-9.99116
▁Goran	-9.99177
▁bolnici	-9.99239
▁ceste	-9.99337
▁lice	-9.99338
▁pamet	-9.99405
▁Rusija	-9.99551
▁otišao	-9.99562
▁spriječi	-9.99563
▁slijedi	-9.99566
!"	-9.99673
▁Gradsk	-9.99713
▁posljednji	-9.99731
▁Vol	-9.99735
▁funkcionira	-9.99768
▁osnova	-9.99805
▁otkaz	-9.99817
▁jugo	-9.99856
▁dub	-9.99882
▁sposobnost	-9.99888
▁povećanje	-9.99927
▁uspješno	-9.99948
▁kriminal	-9.99977
▁tržištu	-9.99987
▁lakše	-9.99988
▁kanal	-10.0013
▁ruku	-10.0022
▁potreba	-10.0022
▁koš	-10.0032
zmu	-10.0033
Č	-10.0038
▁Tko	-10.004
▁ulici	-10.0043
▁negativ	-10.0046
▁vrt	-10.0046
▁ubijen	-10.0047
:00	-10.0047
▁imena	-10.0049
▁obavlja	-10.0051
▁Iran	-10.0058
▁Ć	-10.0061
▁zvijezda	-10.0065
▁ikad	-10.007
▁smanjenj	-10.0077
▁karijeri	-10.0087
▁potvrdio	-10.0091
▁Među	-10.0097
▁okolnosti	-10.0109
▁kolega	-10.011
▁rođendan	-10.0113
▁33	-10.0115
▁prošlog	-10.0125
▁Pogledajte	-10.0131
▁učinkovit	-10.0131
▁zločin	-10.0131
▁usluga	-10.0132
▁iskren	-10.0132
▁razumije	-10.014
▁unutarnj	-10.0147
▁očekivan	-10.0154
▁Srbi	-10.0157
dosta	-10.0166
▁komad	-10.0173
▁fotografija	-10.018
▁osjeti	-10.0183
▁parkira	-10.0185
▁osvojila	-10.019
▁Čak	-10.0195
▁Instagramu	-10.0206
▁važnost	-10.0207
▁Karl	-10.021
▁tjelesn	-10.0221
▁priopćenju	-10.0221
▁rub	-10.0231
▁proizvođač	-10.0243
▁razdoblju	-10.0243
▁liječnik	-10.0244
▁Božić	-10.0251
▁povijest	-10.0253
▁Sad	-10.0255
ološki	-10.0261
▁Baby	-10.0266
▁sastoj	-10.027
▁Damir	-10.0287
▁nadležn	-10.0288
▁Crn	-10.029
▁postupak	-10.0301
▁vrijednost	-10.0309
▁rukomet	-10.0311
▁Mnogi	-10.0336
▁jedino	-10.0339
▁et	-10.0342
▁vidjeli	-10.0357
▁isklju	-10.0358
▁ostale	-10.0359
▁45	-10.0365
▁City	-10.0379
▁zid	-10.0382
▁stoga	-10.0401
▁karakter	-10.0402
▁volje	-10.0414
istički	-10.0415
▁obrani	-10.0426
▁Maksimir	-10.0448
▁hrvatska	-10.0448
▁status	-10.0448
▁stigla	-10.0448
▁njoj	-10.0448
▁strada	-10.0452
0)	-10.0458
▁obožava	-10.0471
▁zadnji	-10.0472
▁fotograf	-10.0477
▁onaj	-10.0495
▁pošto	-10.0513
▁pohvali	-10.0518
nder	-10.0521
▁radnika	-10.0525
▁nadam	-10.0537
▁moru	-10.0542
▁borbi	-10.0547
▁meč	-10.0556
▁dogodila	-10.0557
▁rješenja	-10.0563
▁školu	-10.0564
▁proslavi	-10.0568
▁Val	-10.0571
▁energetsk	-10.0586
▁Poljsk	-10.0593
▁održati	-10.0596
▁odgovorio	-10.0603
▁vodeć	-10.0606
▁zgrade	-10.061
▁brend	-10.0611
▁poplav	-10.0611
▁najavi	-10.0613
▁Hr	-10.0616
▁velikom	-10.0622
▁šut	-10.0623
▁utvrdi	-10.0633
elim	-10.0639
▁pronađen	-10.0639
▁volim	-10.064
▁Talijan	-10.0657
▁vatre	-10.0664
▁kakav	-10.0672
▁našoj	-10.0678
▁formi	-10.0679
▁Inače	-10.0682
izacije	-10.0685
▁razum	-10.0685
▁naziva	-10.07
▁poljoprivredn	-10.0704
▁španjolsk	-10.0704
dalmatinsk	-10.0704
▁talent	-10.0704
▁milijardi	-10.0727
▁Nisam	-10.0728
▁bicikl	-10.0728
▁svečan	-10.0731
▁kredit	-10.0734
▁nagradu	-10.0735
▁Igra	-10.0761
▁smještaj	-10.0774
▁golova	-10.0778
▁počela	-10.078
▁Sud	-10.0791
▁budućnost	-10.0792
▁vremenu	-10.0798
▁osobni	-10.0798
▁zaštitu	-10.0799
▁britansk	-10.0799
▁fond	-10.081
▁srca	-10.0822
▁vidljiv	-10.0824
▁kazne	-10.0839
▁Zapad	-10.0846
▁skrb	-10.0854
▁kome	-10.0863
▁rob	-10.0867
▁karijeru	-10.087
▁žensk	-10.0875
▁navijača	-10.0886
▁regionaln	-10.0894
▁York	-10.0894
▁podržava	-10.0897
▁vjerujem	-10.0906
▁donio	-10.0906
▁Ministar	-10.0913
▁navečer	-10.0918
▁Zagrebačk	-10.0935
▁dipl	-10.0938
▁2019.	-10.0942
▁ukupn	-10.0961
▁ostala	-10.0965
▁oštećen	-10.0966
▁kategoriji	-10.097
▁izravn	-10.0987
fr	-10.0989
▁dovesti	-10.0992
é	-10.1015
▁teritorij	-10.1015
▁stoljeća	-10.1015
▁takve	-10.1016
▁srce	-10.1019
▁smjer	-10.1021
dnjih	-10.1027
▁Turudić	-10.1039
▁htio	-10.1046
▁stres	-10.1058
▁nesreća	-10.1063
▁Mađarsk	-10.1063
▁poruku	-10.1065
▁epi	-10.1075
RO	-10.1095
▁Cha	-10.1096
▁europskih	-10.1099
q	-10.1107
▁slobodno	-10.1112
▁mobitel	-10.1112
▁pogledajte	-10.1112
▁Rijeci	-10.1113
▁školi	-10.1115
▁smatraju	-10.1121
▁hrvatsko	-10.1123
▁mušk	-10.1133
▁novčan	-10.1137
▁razvija	-10.1137
▁plav	-10.1138
▁Bijel	-10.1139
▁dobre	-10.114
▁medije	-10.1148
▁uvjetima	-10.1151
▁Možemo	-10.1155
▁Bez	-10.1158
▁kapacitet	-10.1161
16	-10.1166
▁komun	-10.1171
▁privremen	-10.1172
▁aktivno	-10.1174
▁velikog	-10.12
▁32	-10.121
▁grupe	-10.1211
▁redatelj	-10.1213
▁odigrao	-10.1214
▁donijeti	-10.1214
▁Fer	-10.122
▁Moj	-10.123
▁zahvaljujući	-10.1236
▁plasman	-10.1236
▁Koliko	-10.1237
▁čine	-10.1242
▁članova	-10.1243
▁kreativn	-10.1263
▁stanova	-10.1278
▁drži	-10.1282
▁ograničen	-10.1285
▁tehničk	-10.1303
elnik	-10.1307
▁sjevern	-10.1323
sreću	-10.1328
▁financijski	-10.1336
▁sredstava	-10.1336
ult	-10.1336
▁Petra	-10.1356
▁nalaze	-10.1357
ficira	-10.1365
prot	-10.1368
▁ovogodišnj	-10.139
▁nekad	-10.1409
▁utvrđen	-10.1411
▁topli	-10.1427
▁div	-10.1427
▁velikih	-10.1427
▁lov	-10.1432
▁Ukrajine	-10.1436
▁englesk	-10.1436
▁Vladimir	-10.1436
▁zabrinut	-10.1437
▁poklon	-10.1453
▁Trg	-10.1461
▁saborsk	-10.1461
▁istaknula	-10.1462
▁blizu	-10.1462
▁Sigur	-10.1462
▁Sjevern	-10.1465
NI	-10.1467
▁igru	-10.1476
▁omiljen	-10.1487
▁36	-10.1501
▁muzej	-10.152
▁tenis	-10.1534
▁stariji	-10.1535
▁lijek	-10.1535
▁pridruži	-10.1538
▁udruge	-10.1538
▁vrsta	-10.1547
▁bolnice	-10.155
▁izabran	-10.155
svim	-10.1562
▁sabor	-10.1563
▁parlamentarn	-10.1567
▁primijeti	-10.1569
▁odbora	-10.1572
▁medijsk	-10.1576
bić	-10.1578
▁podacima	-10.1578
▁članica	-10.1582
▁avion	-10.1582
▁desni	-10.1587
▁spominj	-10.159
▁istraživanja	-10.1611
▁Njihov	-10.1615
▁nastavku	-10.1617
▁tehni	-10.1649
▁boji	-10.1655
▁iznenadi	-10.1657
▁obraz	-10.1669
▁Osta	-10.1679
laganje	-10.1681
▁djeci	-10.1682
▁ozljeda	-10.1693
▁Prošl	-10.1694
▁kuću	-10.1695
▁uspostav	-10.1695
▁nagrade	-10.1704
▁Donald	-10.1719
▁modn	-10.1721
▁iskaz	-10.1722
▁jača	-10.174
▁Slaven	-10.1746
▁Igor	-10.1746
▁Posl	-10.1764
▁južn	-10.1771
▁pozornost	-10.1773
▁Odlu	-10.1775
▁košta	-10.1781
▁Gol	-10.1791
▁sklon	-10.1795
▁Domovinskog	-10.1798
▁iznenađen	-10.1801
▁sljede	-10.1809
▁okružen	-10.1824
▁izme	-10.1828
▁znatno	-10.1829
▁stupnjeva	-10.1851
▁tijeku	-10.1851
▁javnog	-10.186
▁istraživa	-10.1861
▁Ukrajinu	-10.1877
▁posljedica	-10.1877
▁posjed	-10.1888
▁desetak	-10.1898
▁34	-10.1898
▁500	-10.19
▁spreman	-10.1904
▁Možda	-10.1904
▁stavlja	-10.1907
▁aut	-10.1912
▁pjevač	-10.1921
▁°	-10.1922
▁Dalić	-10.1929
▁konkretn	-10.193
▁Ukrajina	-10.193
▁smislu	-10.193
▁vlade	-10.1932
ovjek	-10.1945
▁blisk	-10.1956
▁naglašava	-10.1957
▁zamijeni	-10.1957
▁organizacije	-10.1957
▁tužitelj	-10.1984
▁pozvao	-10.1984
▁poziciju	-10.1984
▁Dragan	-10.1985
▁uvjeren	-10.1993
▁organizator	-10.201
▁situaciji	-10.201
▁Hamas	-10.2017
▁usred	-10.2022
▁jednako	-10.2028
▁ozlije	-10.2034
▁odvija	-10.2043
▁Davor	-10.205
▁natje	-10.2051
▁izbjegava	-10.2064
▁ostvaren	-10.2064
▁skupini	-10.2075
12	-10.2082
▁mreže	-10.2092
▁kamen	-10.2092
▁najvećih	-10.2099
▁nagrada	-10.2109
▁maksimaln	-10.2118
▁vremensk	-10.2118
▁Fr	-10.2137
▁kinesk	-10.2139
slike	-10.214
▁temperature	-10.2145
▁tisuće	-10.2145
▁Ljudi	-10.2146
▁pokr	-10.2152
▁prst	-10.2152
▁bend	-10.2163
račun	-10.2171
▁TikTok	-10.2173
▁košarkaš	-10.2173
▁Slobod	-10.2173
▁postigao	-10.2173
▁neovisn	-10.2177
prost	-10.2181
▁kreće	-10.219
▁slično	-10.2193
▁pozdrav	-10.2199
▁pokazati	-10.2201
▁ovisno	-10.2201
▁John	-10.2207
▁Imamo	-10.2207
▁kratk	-10.2223
▁korisn	-10.2224
▁prošao	-10.2226
▁2018.	-10.2227
▁ponekad	-10.2227
▁dosadašnj	-10.2227
pouzdan	-10.2229
▁čestit	-10.223
▁potpunosti	-10.2237
▁osumnjičen	-10.2255
▁regiji	-10.2255
▁pokazali	-10.2256
▁Srbiji	-10.2259
▁umjetničk	-10.2262
▁korisnici	-10.2262
▁Vučić	-10.2263
▁jednim	-10.2279
▁usluge	-10.2282
▁Upravo	-10.2283
▁proveden	-10.2283
▁period	-10.2283
▁kakvo	-10.2296
▁otpor	-10.2297
▁Zadra	-10.2304
▁lagan	-10.2306
*	-10.231
▁sporazum	-10.231
▁istaknut	-10.231
▁ovisi	-10.2313
90	-10.232
▁cijeni	-10.2323
▁Inter	-10.2331
▁različitih	-10.2336
▁roman	-10.2336
▁sekundi	-10.2338
▁pogodio	-10.2338
▁zavod	-10.2338
▁glavu	-10.234
▁sljedeći	-10.2348
▁moć	-10.235
▁nuklearn	-10.2366
▁skoro	-10.237
▁odgoj	-10.2374
vlače	-10.2376
▁političar	-10.238
▁građane	-10.2393
▁šanse	-10.2393
▁uključuje	-10.2394
▁nepoznat	-10.2394
▁ističu	-10.2403
▁područje	-10.2421
▁udruga	-10.2422
▁korišten	-10.2434
▁Jedno	-10.2434
▁odlično	-10.2451
▁vijeća	-10.2464
▁prijelaz	-10.2468
▁granice	-10.2469
▁glavnog	-10.2478
▁grupa	-10.2479
▁starije	-10.2501
▁Županijsk	-10.2507
▁napravili	-10.2508
▁bivšeg	-10.2511
▁teške	-10.253
▁zahvat	-10.2532
▁2016.	-10.2534
▁doznaje	-10.2535
▁okus	-10.2541
▁vjetar	-10.255
▁Može	-10.2554
▁the	-10.2567
X	-10.257
▁sumnja	-10.257
▁Zadru	-10.2579
▁Stoga	-10.2589
▁pjesma	-10.2591
▁doista	-10.26
▁grob	-10.261
informacij	-10.2617
tječe	-10.2619
▁Primorac	-10.2619
▁knjige	-10.2619
▁prvenstven	-10.2619
▁podatke	-10.2619
▁načelnik	-10.2619
▁izvrsn	-10.2621
▁Brazil	-10.2621
bolje	-10.2631
▁papir	-10.2632
▁far	-10.2634
▁korištenje	-10.2637
▁tvrtki	-10.2648
▁glumac	-10.2648
▁minimaln	-10.2649
▁međutim	-10.2652
▁Crven	-10.2665
▁Dugo	-10.2672
▁konferenciji	-10.2676
▁reprezentaciju	-10.2676
▁pojačan	-10.268
▁prodaje	-10.268
▁intenzivn	-10.2705
▁300	-10.2705
RE	-10.2717
▁primjerice	-10.2719
▁oprez	-10.2721
\	-10.273
▁vrijedi	-10.2734
▁dijelom	-10.2734
▁slavn	-10.2735
▁snagu	-10.2739
99	-10.2751
▁Vel	-10.2757
▁veljače	-10.2763
▁bolnicu	-10.2769
19	-10.2779
▁napla	-10.2788
▁institucija	-10.2792
▁znanosti	-10.2799
▁značajno	-10.281
▁odrasl	-10.2846
▁pisan	-10.2846
▁ostalih	-10.2868
▁stamben	-10.2879
vukao	-10.2886
▁ligi	-10.2892
▁besplatn	-10.2908
▁izuzetno	-10.2908
▁izbaci	-10.291
2024	-10.2911
▁kvalitete	-10.2938
▁prilike	-10.2941
▁razinu	-10.2942
▁fotografiju	-10.2942
▁vratar	-10.2951
▁sigurni	-10.2969
▁poruke	-10.2969
11	-10.2972
▁snijeg	-10.2992
▁apsolut	-10.2997
▁objave	-10.2997
▁sumnje	-10.3006
▁uklju	-10.3013
▁tabl	-10.3018
▁oduševljen	-10.3027
▁tržište	-10.3027
▁KBC	-10.3027
tivne	-10.3028
jević	-10.3043
▁Japan	-10.3044
▁položaj	-10.3057
▁disk	-10.3073
▁platformi	-10.3086
▁čim	-10.3092
▁Instagram	-10.3106
▁zdravlja	-10.311
▁započel	-10.3117
▁ljubi	-10.3126
▁Zašto	-10.3128
▁mjesečn	-10.3138
▁ravno	-10.314
▁legendarn	-10.3146
▁najljepš	-10.3146
▁dobru	-10.3149
ijskog	-10.3157
▁klju	-10.316
discipli	-10.3176
▁favorit	-10.3176
▁vatrogasn	-10.3176
ografsk	-10.318
▁vrste	-10.3192
letio	-10.3197
rativ	-10.3205
▁činjenica	-10.3207
▁zgrada	-10.3208
▁djelatnost	-10.3208
▁sruši	-10.3208
▁termin	-10.3209
▁uspore	-10.3216
▁vjeruje	-10.3223
▁Dobro	-10.3223
▁David	-10.3225
▁Wal	-10.3225
▁trenutačno	-10.3237
▁London	-10.3237
▁Sir	-10.3237
▁svjetlo	-10.3238
▁Posljednj	-10.3238
▁pišu	-10.3239
▁samostaln	-10.3239
▁dječak	-10.3241
▁krov	-10.3245
služb	-10.3246
▁pravu	-10.3248
▁trenira	-10.3262
://	-10.3267
▁identitet	-10.3267
▁general	-10.3267
▁potporu	-10.3267
▁ulaganja	-10.3267
▁natjecatelj	-10.3267
▁večeras	-10.3271
▁šok	-10.3282
LA	-10.3283
▁Mogu	-10.3285
▁Festival	-10.3298
▁Ljubav	-10.3298
▁zemlju	-10.3298
▁nekretnine	-10.3328
▁zahtijeva	-10.3328
▁razdoblje	-10.3328
▁sudionik	-10.3333
▁direkt	-10.3349
▁osobi	-10.335
▁Najviš	-10.3361
▁Srbija	-10.3367
▁reprezentativac	-10.3367
▁reprezentativ	-10.3382
Večer	-10.3383
▁olakša	-10.339
▁obilježava	-10.339
terapij	-10.3391
▁izvanredn	-10.3393
▁provjeri	-10.3399
▁38	-10.341
▁Brun	-10.3413
▁transfer	-10.3421
▁isključivo	-10.3421
▁cijenu	-10.3423
▁cesti	-10.3423
▁posvećen	-10.3425
▁natjecanje	-10.3452
▁putovanja	-10.3453
▁štetu	-10.3453
▁Ulic	-10.3457
▁Prva	-10.3458
▁stiže	-10.3465
▁popularno	-10.3483
▁županija	-10.3491
▁ciljem	-10.3494
▁povratak	-10.3496
▁učenici	-10.3516
▁tenisač	-10.3525
▁bje	-10.3532
▁borbu	-10.3533
▁paket	-10.3542
▁pripada	-10.3547
▁uključen	-10.3555
▁pogon	-10.357
izacija	-10.3571
▁suradnju	-10.3576
▁ponavlja	-10.3578
▁Ligi	-10.3581
▁počeli	-10.3584
▁Međunarodn	-10.3608
▁književn	-10.3608
▁smješten	-10.3608
▁Harris	-10.3608
▁obrazovanja	-10.3608
▁logi	-10.3618
▁razine	-10.363
▁Super	-10.3639
▁generacije	-10.3639
▁Bayern	-10.3639
▁europske	-10.3639
▁Perišić	-10.364
▁krenuo	-10.3641
▁divlj	-10.3671
▁proglašen	-10.3671
▁šećer	-10.3671
▁nastavak	-10.3674
▁lokalno	-10.3688
čnost	-10.3698
▁nažalost	-10.3703
▁postignu	-10.3703
▁stratešk	-10.3703
▁ministra	-10.3703
▁stajal	-10.3705
▁prodaju	-10.3706
▁Općine	-10.3708
▁prijenos	-10.3716
▁postupa	-10.3718
▁https	-10.3735
▁tajnik	-10.3747
▁kvalitetu	-10.3767
▁međusobn	-10.3767
▁priopćil	-10.3771
▁Alban	-10.3777
▁Danijel	-10.3781
mjesto	-10.3789
▁dugogodišnj	-10.3795
▁oružja	-10.3799
▁klimatsk	-10.3799
▁agencija	-10.3799
▁proširi	-10.3799
▁postroj	-10.38
▁zapovjednik	-10.3807
▁optužn	-10.3818
▁dvostruk	-10.3831
▁Rusije	-10.3831
▁uvjerljiv	-10.3834
▁srednje	-10.3838
▁zadovoljni	-10.3844
▁fokus	-10.3855
@	-10.3863
▁oružje	-10.3863
▁ministri	-10.3863
▁djeteta	-10.3863
▁pažnju	-10.3864
▁usmjeren	-10.3865
▁hranu	-10.3866
▁pomaže	-10.3869
▁crveni	-10.387
▁zaposlenik	-10.3876
▁šokira	-10.3894
▁Herceg	-10.3895
▁Chris	-10.3896
▁Vatren	-10.3897
▁vjern	-10.3901
▁zajednički	-10.3901
▁umjetnosti	-10.3905
▁glazbenik	-10.3908
▁političke	-10.3909
▁predvod	-10.3926
▁zabilježen	-10.3928
▁pripreme	-10.3928
▁trofej	-10.3928
▁lažn	-10.3935
▁postane	-10.394
▁Var	-10.3955
ight	-10.3958
▁najnovij	-10.3968
▁zdravstva	-10.3969
▁Berlin	-10.3977
zvuč	-10.3992
▁najpoznatij	-10.3993
▁utjecati	-10.3993
▁vatrogasci	-10.3993
▁kvadrat	-10.3993
▁preminuo	-10.3993
▁Želj	-10.3999
▁39	-10.4002
mjerno	-10.4021
▁odlazi	-10.4022
▁očekivati	-10.4026
▁recept	-10.4026
▁lokacija	-10.4026
▁pješa	-10.4026
▁ogromn	-10.4026
▁ubrzo	-10.4026
▁servis	-10.4026
▁Smatra	-10.4027
▁vlastito	-10.4047
▁prioritet	-10.4059
▁projekata	-10.4059
▁pritisak	-10.4059
▁policiji	-10.4061
▁fazi	-10.4062
▁ispuni	-10.4066
▁miris	-10.4071
▁plod	-10.4082
▁organizaciji	-10.4092
▁siguran	-10.4092
▁božićn	-10.4094
▁nasilja	-10.4095
que	-10.4098
▁krevet	-10.41
▁Hrvatskom	-10.4103
▁blok	-10.4119
▁Glas	-10.4124
▁širok	-10.4125
▁zaštitn	-10.4129
▁važan	-10.4134
▁mišljenje	-10.4158
▁roditelja	-10.4158
▁uzvrat	-10.4159
▁pogledati	-10.4163
▁suprotno	-10.4168
▁bazen	-10.4172
▁istočn	-10.4173
▁tren	-10.4174
▁pokaz	-10.4177
▁obrt	-10.4177
▁zadarsk	-10.4179
_	-10.4191
▁2017.	-10.4192
▁uobičajen	-10.4192
▁Sjedinjen	-10.4192
▁dijelovi	-10.4192
▁dugoročn	-10.4192
đ	-10.421
▁zimsk	-10.422
slobodna	-10.4225
▁humanitarn	-10.4225
▁međuvremenu	-10.4225
▁Australi	-10.4225
▁turizma	-10.4225
▁suradnje	-10.4225
▁itekako	-10.4225
▁mjeri	-10.4226
▁Njemačka	-10.4228
▁gotov	-10.4229
▁Njezin	-10.4259
▁pobjedom	-10.4259
▁pokrenut	-10.4261
▁Fin	-10.4261
▁tadašnj	-10.4267
▁Željko	-10.4272
▁ustavn	-10.4273
▁produž	-10.4273
▁posebice	-10.4292
▁sobom	-10.4295
▁korist	-10.4317
▁Lasagna	-10.4326
▁emisiji	-10.4326
▁psiho	-10.4326
▁potrošn	-10.4327
▁Dnevnik	-10.4342
▁sadašnj	-10.4342
▁vlak	-10.4343
▁strategij	-10.436
▁predstavnici	-10.436
▁podijelila	-10.436
▁suočava	-10.4361
▁kakve	-10.4361
▁kriminalističk	-10.4362
▁izaziva	-10.4364
▁plasira	-10.4368
▁proveo	-10.4371
▁igara	-10.4385
▁milijarde	-10.4394
▁vlasništvu	-10.4394
▁gospodarstva	-10.4394
▁(19	-10.4412
mišlja	-10.4423
▁izvođač	-10.4428
▁Eurosong	-10.4428
▁kolege	-10.4428
▁podrške	-10.4428
▁stručnjaci	-10.4429
▁karton	-10.4433
▁skriva	-10.444
▁udaljen	-10.4445
▁kontrolira	-10.4462
▁šibensk	-10.4462
▁publika	-10.4462
▁muškarca	-10.4462
▁Srpsk	-10.4462
▁knjiga	-10.4462
▁kampanje	-10.4463
▁koševa	-10.4465
▁državi	-10.4465
▁provedb	-10.4466
▁postojeć	-10.447
▁obvezn	-10.4481
pravda	-10.4493
▁podsjeća	-10.4497
▁napomenu	-10.4497
▁preuzima	-10.4497
▁kasn	-10.4503
▁nekadašnj	-10.4531
▁organizacija	-10.4532
▁ostavlja	-10.4532
▁Živ	-10.4534
▁stožer	-10.4535
▁Brod	-10.4536
▁Sandr	-10.4539
▁pjevačica	-10.4541
▁lijevo	-10.4554
▁iznena	-10.456
▁takvih	-10.4566
▁Dražen	-10.4571
▁Nacionaln	-10.4573
▁takva	-10.458
▁Van	-10.4581
▁Južn	-10.4586
▁Dubrovačk	-10.46
▁zainteresiran	-10.46
▁osobu	-10.46
▁vožnje	-10.4601
▁mentaln	-10.4602
▁vrat	-10.4608
ložio	-10.461
▁ljut	-10.4612
smjer	-10.4629
ü	-10.4635
▁GALERIJA	-10.4635
▁Nadam	-10.4665
▁svjedoči	-10.467
▁Američk	-10.4679
▁energiju	-10.4705
▁uspjela	-10.4705
▁platiti	-10.4711
▁osuđen	-10.4712
▁prodava	-10.4732
▁poslijepodne	-10.4741
▁očekuju	-10.4741
▁realizira	-10.4741
▁negdje	-10.4741
▁slovensk	-10.4741
\/	-10.4744
▁ekstrem	-10.4776
▁Međimur	-10.4776
▁ekipe	-10.4776
▁nekretnina	-10.4776
▁otprilike	-10.4776
▁kompanija	-10.4776
▁prekrasn	-10.4776
▁povećava	-10.4776
▁otići	-10.4787
▁Paul	-10.4792
▁idealn	-10.4798
▁podaci	-10.481
▁kaznu	-10.4812
▁službenici	-10.4826
▁projektil	-10.4826
▁Andre	-10.4835
▁oštr	-10.4839
▁Manchester	-10.4847
▁Italije	-10.4847
▁banke	-10.4848
▁živjeti	-10.4856
▁testira	-10.4874
▁zvuk	-10.4889
▁vojske	-10.4891
▁Nikad	-10.4892
[	-10.4905
▁kvalifikacija	-10.4918
▁varaždinsk	-10.4918
▁element	-10.4918
▁publiku	-10.4918
▁Švicarsk	-10.4918
▁izvršn	-10.4919
▁spašava	-10.4919
▁Uprave	-10.4919
ivljava	-10.4927
▁fil	-10.4953
▁započeo	-10.4954
▁pretpostav	-10.4954
▁namijenjen	-10.4955
▁klupi	-10.4955
▁suvremen	-10.4965
▁uskla	-10.4966
▁Pavl	-10.4985
▁mladić	-10.499
▁institucije	-10.4991
▁kontrolu	-10.4991
▁kapital	-10.4991
▁Uvijek	-10.4991
▁Posao	-10.4995
▁Cilj	-10.4999
▁Boris	-10.5004
ložit	-10.5014
▁slatk	-10.5019
▁građevinsk	-10.5027
▁nesreći	-10.5027
▁web	-10.5027
▁razlike	-10.5028
▁rukama	-10.5029
▁ishod	-10.503
▁akcije	-10.503
▁Klub	-10.5031
▁zlostavlja	-10.5063
▁muškarci	-10.5063
▁drugačije	-10.5063
▁životinja	-10.5066
▁isporu	-10.5072
▁zapošljava	-10.51
▁poseban	-10.51
▁Rusiji	-10.51
▁prikazuje	-10.5101
▁šteta	-10.5111
▁pomalo	-10.5119
▁Nažalost	-10.5136
▁trgovine	-10.5136
▁prazni	-10.516
▁Drago	-10.5169
▁desetljeća	-10.5173
▁pokrenul	-10.5173
▁Film	-10.5174
▁nedjelje	-10.5175
▁ograni	-10.5176
▁isplati	-10.5178
▁Mladi	-10.5204
▁pozval	-10.5204
▁datum	-10.5209
▁posljedice	-10.521
▁žut	-10.5213
▁demokratsk	-10.523
▁Poznat	-10.5234
▁elektro	-10.5239
▁televizijsk	-10.5247
▁rezultira	-10.5247
▁tržišta	-10.5247
▁vojska	-10.5247
▁prilično	-10.5248
▁djelatnik	-10.5249
▁mogle	-10.5249
▁misle	-10.5252
koliko	-10.5253
zemlj	-10.5271
▁Nizozemsk	-10.5284
▁Dinamu	-10.5284
▁čelnik	-10.532
▁original	-10.5321
▁fenomen	-10.5321
▁podrška	-10.5322
▁krenuli	-10.5323
▁prirode	-10.5323
▁Radić	-10.533
▁Ujedinjen	-10.5359
▁poziciji	-10.5359
▁ostavio	-10.5359
▁neugodn	-10.536
▁putovanje	-10.536
▁smjes	-10.5371
počet	-10.5382
▁doseg	-10.5405
▁nositelj	-10.5428
▁poluvremenu	-10.5434
▁ispunjen	-10.5435
▁promatra	-10.5435
▁snimke	-10.5438
▁Njemačke	-10.5438
▁prirodni	-10.5449
▁bolest	-10.5459
▁Vjerujem	-10.5472
▁zamjenik	-10.5472
▁prijave	-10.5474
▁stranicama	-10.5478
▁redovn	-10.5487
▁ciklus	-10.551
▁najčešće	-10.551
▁HNS	-10.551
▁agencije	-10.551
▁stigli	-10.5511
▁pokazalo	-10.5511
▁vremenom	-10.5511
▁zadatak	-10.5512
▁akcija	-10.5514
€	-10.5548
▁strijelac	-10.5548
▁natjecanju	-10.5548
▁istrage	-10.5549
▁oporbe	-10.5549
▁Švedsk	-10.555
▁mikro	-10.5553
▁pogodil	-10.5557
▁bolesn	-10.5565
▁razvod	-10.5572
▁OVDJE	-10.5587
▁investitor	-10.5587
▁definira	-10.5587
▁ustvrdi	-10.5587
▁scenarij	-10.5587
▁kompleks	-10.5587
▁rujnu	-10.5587
▁optužen	-10.5605
▁civiln	-10.5625
▁emotivn	-10.5626
▁Cijel	-10.5628
▁susre	-10.5652
▁William	-10.5664
▁emisije	-10.5664
▁hrvatsku	-10.5664
▁publike	-10.5664
▁sinoć	-10.5664
▁osvje	-10.5666
▁uprava	-10.5667
▁djecom	-10.5668
▁scene	-10.5673
▁Marijan	-10.5675
▁potpun	-10.5686
▁napokon	-10.5703
▁djeluje	-10.5703
▁zatvara	-10.5704
▁preostal	-10.5707
▁uništi	-10.5709
▁postali	-10.5713
▁Rusk	-10.5738
▁kontinuiran	-10.5741
▁želja	-10.5743
▁Sveučilišta	-10.578
▁Tomašević	-10.578
▁definitivno	-10.578
▁helikopter	-10.578
▁kvalitetni	-10.578
▁motocikl	-10.578
▁klupsk	-10.578
▁štrajk	-10.578
▁kritizira	-10.5781
▁seriji	-10.5787
▁pomaga	-10.5792
▁mreža	-10.5807
▁žiri	-10.5812
plasiran	-10.5817
▁Križevci	-10.582
▁raspoložen	-10.582
▁reakcija	-10.582
▁Centra	-10.582
▁mreži	-10.582
▁kriterij	-10.5823
▁usporedb	-10.5823
▁dvorani	-10.5823
▁uhvati	-10.5827
▁izgradi	-10.5848
▁Stjepan	-10.5859
▁žrtve	-10.5859
▁klasičn	-10.5859
▁podiza	-10.5868
▁Udruge	-10.5899
▁tzv	-10.5899
▁osvojen	-10.5899
▁trgovačk	-10.59
▁poticaj	-10.5901
produkcij	-10.5906
ö	-10.5938
▁konkurent	-10.5938
▁ponudu	-10.5941
▁tursk	-10.5942
▁Kijev	-10.5959
▁Chi	-10.5961
▁unutrašnjosti	-10.5978
▁sudjelovati	-10.5978
▁austrijsk	-10.5978
▁Viktor	-10.5978
▁crkve	-10.5978
▁regije	-10.5979
▁strast	-10.598
▁izjava	-10.5984
▁kućn	-10.5992
▁Domovinski	-10.6018
▁operacije	-10.6018
▁reakcije	-10.6018
▁Otkri	-10.6028
▁početi	-10.603
▁obzir	-10.604
▁smanjen	-10.6047
▁umjetnik	-10.6055
▁Washington	-10.6058
▁tehnologije	-10.6058
▁čvrst	-10.6058
▁pronašli	-10.6059
▁jutarnj	-10.606
▁Beroš	-10.6062
ivjeli	-10.6063
▁crveno	-10.6077
▁Rumunjsk	-10.6099
▁mjestima	-10.6099
▁unaprijed	-10.6099
▁ljudski	-10.6099
▁mrežu	-10.6099
▁tijelu	-10.6099
▁razlika	-10.6103
▁izdanje	-10.6109
▁staln	-10.611
▁Gordan	-10.6118
▁pliva	-10.613
▁2015.	-10.6139
▁ekološk	-10.614
▁izvijestio	-10.6141
▁Buduć	-10.6144
▁čitatelj	-10.615
▁učitelj	-10.6158
▁glavi	-10.6159
▁ispad	-10.6174
dalmacija	-10.6179
▁kvaliteta	-10.618
▁takvim	-10.618
▁vjerovati	-10.618
▁Utakmic	-10.618
▁Libanon	-10.618
Y	-10.6212
▁angažira	-10.622
▁dužnosnik	-10.6221
▁žrtva	-10.6221
images	-10.6221
▁povremen	-10.6222
▁mehani	-10.6227
nošenje	-10.6238
▁Godin	-10.624
▁morsk	-10.6244
▁zagrebački	-10.6253
pisuje	-10.6259
▁ubojstvo	-10.6261
▁mirovinu	-10.6262
▁chef	-10.6262
▁medalje	-10.6262
▁utrke	-10.6264
▁odabir	-10.6264
▁Najveć	-10.6266
▁očuvanj	-10.6268
▁Križ	-10.6302
▁razdoblja	-10.6303
▁titulu	-10.6303
▁provesti	-10.6304
▁izbjegl	-10.6344
▁zadovoljstvo	-10.6344
▁predviđen	-10.6344
▁kraljevsk	-10.6344
▁izjave	-10.6349
▁napustio	-10.6354
▁sceni	-10.6355
prezentacij	-10.6385
▁USKOK	-10.6385
▁sudjelovao	-10.6385
▁nemoguć	-10.6386
▁izvijestila	-10.6386
▁zlato	-10.639
▁slavlje	-10.6393
▁luksuzn	-10.6427
▁poslove	-10.6427
▁strašn	-10.6429
▁imenovan	-10.6441
▁izvoz	-10.6455
▁komunaln	-10.6463
▁Gattuso	-10.6469
▁financija	-10.6469
▁upozorenje	-10.6469
▁obrazovanje	-10.6469
▁turisti	-10.651
▁vatrogasac	-10.6511
▁preuzeo	-10.6511
▁publici	-10.6511
▁junior	-10.6512
▁maloljetn	-10.6512
▁Takv	-10.6514
▁osmin	-10.6514
▁svatko	-10.6517
▁Jakirović	-10.6553
▁zvijezde	-10.6553
▁izgradnju	-10.6553
▁Mamić	-10.6554
pandemij	-10.6563
▁letjel	-10.6576
▁zub	-10.6579
pjeva	-10.6579
▁odigran	-10.659
▁sindikat	-10.6596
▁segment	-10.6597
▁suparnik	-10.6598
▁masovn	-10.6618
▁predviđa	-10.6638
▁počinitelj	-10.6639
▁ponude	-10.6642
▁početn	-10.6646
▁obramben	-10.6681
▁Dominik	-10.6681
▁kolegi	-10.6683
▁završava	-10.6684
▁Želim	-10.6685
▁online	-10.6685
▁nude	-10.6685
▁Indij	-10.6689
▁Očekuje	-10.6724
▁obljetnic	-10.6724
▁gospodarstvo	-10.6724
▁troškova	-10.6724
▁tekuć	-10.6724
▁nedostaje	-10.6724
▁prijava	-10.6726
▁ljubitelj	-10.6732
▁mobiln	-10.6736
▁Dalmaciji	-10.6767
cjenjuje	-10.6767
▁Charles	-10.6767
▁sudjelovali	-10.6767
▁četvero	-10.6767
▁posljednja	-10.6767
▁uznemir	-10.6767
▁zadovoljan	-10.6767
▁Isus	-10.6772
▁pretvori	-10.6773
▁ostane	-10.6784
▁Problem	-10.681
zdrav	-10.681
▁snimljen	-10.6811
▁praviln	-10.6852
▁tehnološk	-10.6854
▁konzerv	-10.6854
▁arhitekt	-10.6897
▁otišla	-10.6898
▁lipnju	-10.6898
▁posjetitelji	-10.6898
štvu	-10.6901
▁Pjeva	-10.6918
▁zajedničko	-10.6923
▁emocionaln	-10.6941
▁glasnogovornik	-10.6941
▁održal	-10.6942
▁krenula	-10.6942
jpg	-10.6944
▁vladajuć	-10.6945
▁završen	-10.6948
▁okupil	-10.6952
▁front	-10.6959
▁županijsk	-10.696
▁blokira	-10.6971
▁Georg	-10.6985
▁postupka	-10.6985
▁htjeli	-10.6985
▁operativn	-10.6985
▁dvojica	-10.6985
▁Đoković	-10.6985
▁pripadnik	-10.6986
▁Nismo	-10.6986
▁Daniel	-10.6987
▁generacija	-10.7029
▁klijent	-10.703
▁kamion	-10.703
▁pozicije	-10.703
▁tribina	-10.7031
▁prirodno	-10.7038
▁polufinalu	-10.7074
▁čvor	-10.7074
▁kompanije	-10.7074
▁najavljen	-10.7076
▁ameri	-10.7086
▁Grčk	-10.7114
▁Sergej	-10.7119
▁infrastrukture	-10.7119
▁tehnologija	-10.7119
▁sloboda	-10.7119
▁mirovine	-10.7119
▁zabranjen	-10.7119
▁imovine	-10.7119
▁Francuz	-10.7119
▁pisali	-10.7123
▁ondje	-10.7124
motiv	-10.7128
graničn	-10.7146
▁Nacional	-10.7154
▁prikuplja	-10.7163
▁svibnju	-10.7163
▁zaštićen	-10.7164
▁neobičn	-10.7164
▁medalju	-10.7164
▁zaključila	-10.7164
▁kakvu	-10.7164
▁benzin	-10.7164
▁obveza	-10.7165
▁fokusira	-10.7175
migrant	-10.7197
▁sudjelovanje	-10.7208
▁ostavku	-10.7209
▁sretan	-10.721
▁Gospo	-10.721
▁dolaska	-10.7213
▁postaju	-10.7225
▁gospo	-10.723
▁ljestvici	-10.7254
▁potpredsjednik	-10.7254
▁Reuters	-10.7254
▁palestinsk	-10.7254
▁policajac	-10.7254
▁registrira	-10.7299
▁središtu	-10.7299
▁United	-10.7299
▁goriva	-10.73
▁ekran	-10.73
▁ilegal	-10.73
▁2014.	-10.7345
▁područjima	-10.7345
▁spektakl	-10.7345
▁trgovina	-10.7345
▁Kekin	-10.7345
▁medalja	-10.7346
▁precizn	-10.7346
▁Zlatn	-10.7349
▁Silv	-10.7363
ekivan	-10.7376
▁pobjedni	-10.7386
▁transparent	-10.7391
▁atmosferu	-10.7391
▁atraktivn	-10.7391
▁srpnju	-10.7391
▁Italiji	-10.7391
▁povećati	-10.7391
▁odobren	-10.7391
▁Plenkovi	-10.7391
▁Nenad	-10.7393
▁izdava	-10.7402
▁Župan	-10.7436
▁studenom	-10.7437
▁omogućuje	-10.7437
▁prebaci	-10.7438
▁snažno	-10.7438
▁majstor	-10.7439
▁prisustv	-10.7439
▁Grbin	-10.7443
▁čišćenj	-10.7483
▁poručila	-10.7483
▁hrabro	-10.7484
▁listopadu	-10.753
▁glazbu	-10.753
▁Sportsk	-10.7533
▁eksperiment	-10.7576
▁slobodu	-10.7576
▁htjela	-10.7576
▁Zlatko	-10.7576
▁2012.	-10.7576
▁osjetljiv	-10.7576
▁oglasio	-10.7577
▁takvu	-10.7577
▁glavom	-10.7577
▁službi	-10.7577
▁Pokuša	-10.7578
▁glave	-10.7582
▁kolnik	-10.7582
▁teror	-10.7606
▁nadolazeć	-10.7623
▁potpore	-10.7623
▁potvrdila	-10.7624
▁ostatak	-10.7624
▁Program	-10.7624
▁režim	-10.766
▁konzumira	-10.767
▁trenutka	-10.767
▁prosincu	-10.767
▁Država	-10.767
▁trenucima	-10.767
▁Balkan	-10.7671
▁pogorša	-10.7671
▁kampanju	-10.7671
▁sugerira	-10.7673
▁gostujuć	-10.768
▁trajekt	-10.7687
▁Škot	-10.7689
▁analitičar	-10.7718
▁asistencija	-10.7718
▁izložbe	-10.7718
▁pogotka	-10.7718
▁ubojstva	-10.7718
▁liječnici	-10.7718
▁potroši	-10.7718
▁uputio	-10.7719
▁subote	-10.7721
▁Istre	-10.7721
▁duhovn	-10.7723
▁pjesama	-10.7765
▁skandal	-10.7765
▁resurs	-10.7765
▁Ronald	-10.7765
▁spremno	-10.7767
▁omogućil	-10.7772
▁iskusn	-10.7778
unarodn	-10.7802
▁analizira	-10.7813
▁sufinancira	-10.7813
▁preuzeti	-10.7813
▁Centar	-10.7813
▁akciju	-10.7817
Class	-10.7828
▁čeln	-10.785
▁Najbolji	-10.7861
▁pregovara	-10.7861
▁komunicira	-10.7861
▁Rimac	-10.7863
▁nikako	-10.7864
▁sudsk	-10.7883
▁poginuli	-10.791
▁ekipu	-10.791
▁Zagrep	-10.791
▁kontinent	-10.791
▁izazvao	-10.791
▁svjetske	-10.791
▁napredak	-10.791
▁proširen	-10.791
▁lansira	-10.791
▁Hezbolah	-10.7958
▁Croatia	-10.7958
▁ljudsko	-10.7958
▁nazvao	-10.796
▁praćen	-10.7961
▁poznaje	-10.7964
zastupn	-10.7976
▁vrijedan	-10.8007
▁troškove	-10.8007
▁dostupni	-10.8007
▁Nadal	-10.8011
▁biskup	-10.8012
▁prikupi	-10.802
▁angažman	-10.8056
▁predizborn	-10.8056
▁Zanimljivo	-10.8056
▁popularni	-10.8056
▁služba	-10.8058
▁vjeruju	-10.806
▁tlak	-10.8061
▁prepoznatljiv	-10.8106
▁Hrvoje	-10.8106
▁djelatnici	-10.8106
▁podijelio	-10.8107
▁vlasnici	-10.8107
▁foto	-10.811
▁Kaštel	-10.8115
▁pokojn	-10.8133
▁Krešimir	-10.8155
▁vježba	-10.8155
▁omogućiti	-10.8155
▁slijede	-10.8155
▁trajal	-10.816
▁gospodin	-10.8176
▁Premijer	-10.8205
▁kontrole	-10.8205
▁signal	-10.8205
▁travnju	-10.8205
▁obrok	-10.8215
▁zakonsk	-10.8215
▁svjedok	-10.8216
▁faktor	-10.8255
▁turista	-10.8255
▁prekinut	-10.8269
▁Javn	-10.8275
▁eventualn	-10.8305
▁transformacij	-10.8305
▁zasigurno	-10.8305
▁promjenu	-10.8305
▁izdvoji	-10.8305
▁izgradnje	-10.8306
▁Ukupn	-10.8306
▁istražn	-10.8306
▁limun	-10.8315
▁penal	-10.8318
▁Step	-10.8333
▁stanovništva	-10.8355
▁nedostatk	-10.8355
▁veljači	-10.8355
▁Adria	-10.8356
▁Zavod	-10.8373
▁korijen	-10.8397
▁doslovno	-10.8406
▁konkurenciji	-10.8406
▁specifičn	-10.8406
▁1991.	-10.8406
▁potrebu	-10.8406
▁prijavljen	-10.8406
▁namjerava	-10.8406
▁Pobjed	-10.8407
▁želju	-10.8407
▁pojedinačn	-10.8413
▁apartman	-10.8457
▁kulturu	-10.8457
▁automatsk	-10.8457
▁stabl	-10.846
▁hip	-10.8503
▁Dalmacije	-10.8508
▁inozemstvu	-10.8508
▁siječnju	-10.8508
▁DORH	-10.8508
▁reporter	-10.8508
▁napravljen	-10.8508
▁površine	-10.8508
▁kampanji	-10.8509
▁Projekt	-10.8509
▁Google	-10.8509
▁sklop	-10.8538
▁tunel	-10.8552
▁Gvardiol	-10.856
▁SuperSport	-10.856
▁destinacija	-10.856
▁sukladno	-10.856
▁Hercegovine	-10.856
▁tržišn	-10.856
▁očevid	-10.856
▁Studen	-10.856
▁sjednici	-10.8561
▁kombinira	-10.8561
▁dominira	-10.8564
▁Priprem	-10.8565
▁Dragi	-10.8571
▁Objav	-10.8583
▁održat	-10.859
▁pilot	-10.8603
▁nekakv	-10.8604
▁slobode	-10.8612
▁NBA	-10.8612
▁zastupnici	-10.8612
▁simpati	-10.8612
▁objavu	-10.8612
▁pogođen	-10.8612
▁povoljn	-10.8614
najprije	-10.8625
▁atmosfera	-10.8664
▁inspirira	-10.8664
▁Makedon	-10.8664
▁smanjuje	-10.8664
▁pomorsk	-10.8664
▁Kovačić	-10.8664
▁zaključuje	-10.8664
▁1-0	-10.8664
▁prijavu	-10.8665
▁pozicija	-10.8665
▁odabran	-10.8673
▁štetn	-10.8676
á	-10.8716
▁Oliver	-10.8717
▁učinak	-10.8718
▁Branko	-10.8763
▁dužnosnici	-10.8769
Jadrolinij	-10.8769
▁DVD	-10.8769
▁troškovi	-10.8769
▁turizam	-10.8769
▁dopušten	-10.8769
▁Nedavno	-10.8769
▁2-0	-10.8769
▁Osnovn	-10.8772
▁ranjen	-10.8782
▁polufinale	-10.8822
▁operacija	-10.8822
▁osnivač	-10.8822
▁EPPO	-10.8875
▁nezavisn	-10.8875
▁pacijenata	-10.8875
▁navrata	-10.8875
▁tramvaj	-10.8876
▁izložen	-10.8876
▁kafić	-10.8877
▁kamera	-10.8877
▁Angeles	-10.8878
▁okonča	-10.8884
▁ljestvice	-10.8928
▁uzbudljiv	-10.8928
▁prosjeku	-10.8928
▁izmjena	-10.8929
bačaj	-10.8964
▁završetka	-10.8982
▁krumpir	-10.8982
▁BBC	-10.8982
▁doživio	-10.8982
▁Andrij	-10.8989
▁snažni	-10.8992
riješen	-10.9023
▁2013.	-10.9036
▁neočekivan	-10.9036
▁osvrnuo	-10.9036
▁rekonstrukcij	-10.9036
▁žrtava	-10.9036
▁James	-10.9037
▁obećan	-10.9038
▁Liverpool	-10.909
▁Raspudić	-10.909
▁zadržati	-10.909
▁Ovdje	-10.909
▁ugrožen	-10.909
▁producent	-10.9091
▁konzul	-10.9091
▁žestok	-10.9091
▁reprezentaciji	-10.9091
▁2011.	-10.9091
▁Zahval	-10.9091
▁sudionici	-10.9095
▁Općinsko	-10.9097
▁2026.	-10.9145
▁Dalmacija	-10.9145
▁Trenutno	-10.9145
▁inspektor	-10.9145
Cropix	-10.9145
▁Bjelovar	-10.9145
▁prilagodi	-10.9145
▁zaljubljen	-10.9145
▁ostaviti	-10.9146
▁ispravn	-10.9149
plaće	-10.9158
▁toplinsk	-10.916
▁ponegdje	-10.92
▁republika	-10.92
▁Varteks	-10.92
▁neposredno	-10.92
▁potvrdili	-10.9201
▁Visok	-10.9201
▁boksač	-10.9202
▁Modri	-10.9207
▁tamošnj	-10.921
▁Institut	-10.9255
▁Michael	-10.9255
▁Netanyahu	-10.9255
▁Istaknu	-10.9255
▁Rakitić	-10.9255
▁izazvala	-10.9255
▁izgrađen	-10.9255
▁veznjak	-10.9256
▁bilježi	-10.9256
▁objava	-10.9256
▁pozvan	-10.9258
kakvih	-10.9271
▁financijske	-10.9311
▁infrastrukturu	-10.9311
▁poremećaj	-10.9311
▁pogrešn	-10.9311
▁šansu	-10.9311
▁podijeljen	-10.9311
▁Mladen	-10.9311
▁otišli	-10.9311
▁liječničk	-10.9311
▁Muzej	-10.9314
▁Blisk	-10.933
▁sjeverozapad	-10.9331
▁inteligencije	-10.9367
▁investicija	-10.9367
▁nezakonit	-10.9367
▁postupku	-10.9367
▁prvoligaš	-10.9367
▁časopis	-10.9368
▁Kakv	-10.9412
▁ožujku	-10.9423
▁relativno	-10.9423
▁trenutke	-10.9423
▁prihvatiti	-10.9423
▁dugotrajn	-10.9423
▁komisije	-10.9423
▁održao	-10.9423
▁Udruga	-10.9423
▁uništen	-10.9428
▁Turističk	-10.9429
▁izvještaj	-10.9429
▁vreć	-10.9441
rget	-10.9451
▁NACIONAL	-10.9479
▁emisija	-10.9479
▁financijsko	-10.9479
▁količina	-10.9479
▁Postoji	-10.948
▁knjigu	-10.948
▁Slovačk	-10.948
▁pronašla	-10.948
▁indeks	-10.948
▁donacij	-10.95
puštanje	-10.9501
▁sprječava	-10.9536
▁BDP	-10.9536
▁Italija	-10.9536
▁invazij	-10.9536
▁olujn	-10.9538
▁župn	-10.9564
▁katastrofa	-10.9593
▁najpopularnij	-10.9593
▁aktivira	-10.9593
▁emitira	-10.9593
▁mirovina	-10.9594
▁mirovinsk	-10.9594
▁Zvonimir	-10.9651
▁iznajmljiva	-10.9651
▁pjesmom	-10.9651
▁natjecanjima	-10.9651
▁željezničk	-10.9651
▁suradnik	-10.9651
▁pripadnici	-10.9651
▁omogućava	-10.9651
▁vitamin	-10.9652
▁Važno	-10.9653
▁magistr	-10.9656
▁oduzet	-10.9656
▁Primjerice	-10.9709
▁Rezultat	-10.9709
▁sredstvima	-10.9709
▁pozitivan	-10.9709
▁Daily	-10.9709
▁sudjeluje	-10.9711
▁mentor	-10.9711
Ć	-10.9718
▁suigrač	-10.9728
▁intimn	-10.973
▁posjetitelje	-10.9767
▁sastanka	-10.9767
▁ostatk	-10.9772
▁izgubljen	-10.9825
▁Norvešk	-10.9825
▁inzistira	-10.9825
▁količine	-10.9825
▁lokaciji	-10.9825
▁Petrović	-10.9825
▁lokacije	-10.9825
▁mađarsk	-10.9826
▁inovativn	-10.9827
▁Gruzij	-10.9827
▁obrazovn	-10.983
puštaju	-10.9875
▁invaliditetom	-10.9884
▁oporavak	-10.9884
▁praktički	-10.9884
▁neizvjesn	-10.9884
▁Vozač	-10.9884
▁Miroslav	-10.9884
▁promovira	-10.9884
▁posjetitelja	-10.9884
▁sudjeluju	-10.9884
▁pretjeran	-10.9884
▁obiln	-10.994
▁Republika	-10.9943
▁Ukrajinsk	-10.9943
▁Domagoj	-10.9943
▁ispunjava	-10.9944
▁emocija	-10.9944
▁raznolik	-10.9944
▁maslinov	-10.9944
▁poslovi	-10.9944
▁Rekl	-10.9987
▁potražn	-10.999
▁fantastičn	-10.9994
▁Aleksandar	-11.0003
▁Austrija	-11.0003
▁Bruxelles	-11.0003
▁prihvaća	-11.0003
▁izrazio	-11.0003
▁jeftinij	-11.0004
▁primarn	-11.0007
▁nasiln	-11.002
=	-11.0062
▁Lokomotive	-11.0063
▁konferencije	-11.0063
▁kolovozu	-11.0063
▁objekata	-11.0063
▁praktičn	-11.0063
▁najbliž	-11.0064
▁kandidira	-11.0123
▁Uskrs	-11.0123
▁MUP	-11.0123
▁ukazuje	-11.0123
▁lopta	-11.0123
▁Anđel	-11.0126
▁Češk	-11.0148
▁uključuju	-11.0175
▁investicije	-11.0184
▁općenito	-11.0184
▁boravak	-11.0184
▁pravde	-11.0184
▁stanovnici	-11.0184
▁Horvat	-11.0184
▁prevencij	-11.0186
▁povećal	-11.0195
▁ručn	-11.0235
▁Taylor	-11.0245
▁influencer	-11.0245
▁korupcije	-11.0245
▁policajci	-11.0245
▁poručuje	-11.0245
▁nestabiln	-11.0245
▁povezuje	-11.0245
▁iransk	-11.0263
▁platforma	-11.0306
▁dozvola	-11.0306
▁izdvaja	-11.0306
▁naknade	-11.0306
▁tragičn	-11.031
▁izrazil	-11.0317
▁Nekolik	-11.0352
▁slobodni	-11.0368
▁dozvole	-11.0368
▁izrazito	-11.0368
▁tisuću	-11.0368
▁spremna	-11.0368
▁Valentin	-11.0368
▁Butković	-11.0368
▁pokazatelj	-11.0369
▁obilježil	-11.0376
▁trenutn	-11.0385
▁DHMZ	-11.043
▁Rujevici	-11.043
▁nadoknadi	-11.043
▁osmijeh	-11.043
▁sastanku	-11.043
▁ekonomski	-11.0431
▁svojevrsn	-11.0431
▁prevezen	-11.0431
▁privukl	-11.0433
▁okrenut	-11.0441
▁predivn	-11.0459
▁Dalmatin	-11.0492
▁obavještajn	-11.0492
▁Sindikat	-11.0492
▁kolodvor	-11.0492
▁nedostatak	-11.0492
▁emocije	-11.0492
▁opušten	-11.0493
▁kultn	-11.0498
▁demokrat	-11.0522
▁oslobodi	-11.0555
▁prisutnost	-11.0555
▁pokrenuo	-11.0555
▁prosjeka	-11.0555
▁aktivist	-11.0555
▁kombinacija	-11.0555
▁kršenj	-11.0561
▁konzumacij	-11.0618
▁napominje	-11.0618
▁činjenice	-11.0618
meteorološk	-11.0618
▁izazvati	-11.0618
▁pištolj	-11.0619
▁nervoz	-11.0619
▁dokumentarn	-11.0626
▁odgovarajuć	-11.0628
▁opravdan	-11.0648
▁dostojanstv	-11.0682
▁pravosuđa	-11.0682
▁poginulo	-11.0682
▁Pašalić	-11.0682
▁crijeva	-11.0682
▁inflacije	-11.0746
▁ljudska	-11.0746
▁informati	-11.0746
/2024/05/	-11.0746
▁vještine	-11.0746
▁Otvoren	-11.0747
▁običaj	-11.075
▁raspolaganju	-11.0811
▁poginuo	-11.0811
▁efekt	-11.0811
▁poticanj	-11.0823
▁biračk	-11.085
▁Republici	-11.0876
°	-11.1855
>	-11.4531
í	-11.5621
ó	-11.627
′	-11.784
$	-11.7971
♬	-11.8377
•	-11.8516
ä	-12.0353
Đ	-12.0999
­	-12.1231
ç	-12.1604
·	-12.2605
è	-12.3035
#	-12.492
}	-12.7035
️	-12.7035
ë	-12.7368
ñ	-12.7368
â	-12.7713
ł	-12.8825
ø	-12.9642
å	-13.0531
à	-13.1007
®	-13.2589
е	-13.2589
×	-13.3803
ú	-13.4469
ğ	-13.5953
ô	-13.5953
●	-13.6786
ï	-13.7695
ò	-13.8695
🟨	-13.8695
ð	-13.8695
ê	-13.9806
î	-14.1056
ß	-14.1056
ı	-14.1056
⚤	-14.1056
🔥	-14.1056
ì	-14.2485
ř	-14.2485
	-14.2485
🎁	-14.2485
😂	-14.2485
🇸	-14.4151
🇷	-14.4151
ė	-14.4151
ρ	-14.4152
`	-14.6151
ě	-14.6151
📌	-14.6151
⁠	-14.6151
ą	-14.6151
μ	-14.6152
ő	-14.8651
ț	-14.8651
о	-14.8651
‒	-14.8651
⚽	-14.8651
	-14.8651
🇺	-14.8651
ń	-14.8651
Å	-14.8652
ή	-15.1985
Í	-15.1985
Ú	-15.1985
Ü	-15.1985
ý	-15.1985
ę	-15.1985
ā	-15.1985
ȗ	-15.1985
а	-15.1985
ј	-15.1985
‍	-15.1985
‐	-15.1985
―	-15.1985
‖	-15.1985
✓	-15.1985
💙	-15.1985
🇱	-15.6985
π	-15.6985
û	-15.6985
̊	-15.6985
н	-15.6985
∶	-15.6985
🤯	-15.6985
ă	-15.6985
	-15.6985
¡	-15.6985
Ä	-15.6985
Ø	-15.6985
ù	-15.6985
ĉ	-15.6985
ē	-15.6985
ś	-15.6985
ū	-15.6985
ż	-15.6985
‟	-15.6985
▶	-15.6985
♡	-15.6985
♦	-15.6985
シ	-15.6985
🏻	-15.6985
🔄	-15.6985
😅	-15.6985
😎	-15.6985
🙏	-15.6985
🟡	-15.6985
🤩	-15.6985
🥚	-15.6985
ȉ	-15.6985
ἀ	-15.6985
ό	-15.6985
τ	-15.6985
🦟	-16.6942
😍	-16.6943
🕸	-16.6944
🕷	-16.6945
💕	-16.6946
ྀ	-16.6947
ི	-16.6948
α	-16.6949
έ	-16.695
ș	-16.6951
Ş	-16.6952
±	-16.6953
🌸	-16.6954
🇭	-16.6955
̧	-16.6956
Ð	-16.6957
§	-16.6958
^	-16.6959
👀	-16.696
⚠	-16.6961
♥	-16.6962
ṣ	-16.6963
̌	-16.6964
̈	-16.6965
Ó	-16.6966
ς	-16.6967
ο	-16.6968
❤	-16.6969
✔	-16.697
Ś	-16.6971
©	-16.6972
☘	-16.6973
Ç	-16.6974
Á	-16.6975
ş	-16.6976
̋	-16.6977
►	-16.6978
É	-16.6979
⁄	-16.698
ã	-16.6981
{	-16.6982
<	-16.6983
Ö	-16.6984
🇮	-16.6984
🇵	-16.6984
🇬	-16.6985
🌐	-16.6985
📱	-16.6985
£	-16.6985
л	-16.6985
Ґ	-16.6985
ň	-16.6985
ō	-16.6985
ţ	-16.6985
ů	-16.6985
Ƙ	-16.6985
ȑ	-16.6985
☀	-16.6985
¤	-16.6985
¿	-16.6985
À	-16.6985
Ò	-16.6985
Ô	-16.6985
õ	-16.6985
Ď	-16.6985
Ł	-16.6985
ź	-16.6985
ȃ	-16.6985
ʟ	-16.6985
Ω	-16.6985
γ	-16.6985
χ	-16.6985
ω	-16.6985
К	-16.6985
ь	-16.6985
і	-16.6985
ӣ	-16.6985
ӧ	-16.6985
ọ	-16.6985
ố	-16.6985
‰	-16.6985
↑	-16.6985
⇒	-16.6985
−	-16.6985
⏱	-16.6985
■	-16.6985
▪	-16.6985
○	-16.6985
☃	-16.6985
☑	-16.6985
☺	-16.6985
♀	-16.6985
⚫	-16.6985
✠	-16.6985
✨	-16.6985
❄	-16.6985
传	-16.6985
多	-16.6985
陈	-16.6985
🇦	-16.6985
🇧	-16.6985
🇫	-16.6985
🇾	-16.6985
🌋	-16.6985
🌠	-16.6985
🌧	-16.6985
🌨	-16.6985
🌺	-16.6985
🌻	-16.6985
🍉	-16.6985
🍊	-16.6985
🎀	-16.6985
🎗	-16.6985
🏡	-16.6985
🐄	-16.6985
🐥	-16.6985
🐦	-16.6985
🐱	-16.6985
🐶	-16.6985
👁	-16.6985
👇	-16.6985
👣	-16.6985
👶	-16.6985
💅	-16.6985
💋	-16.6985
💎	-16.6985
💘	-16.6985
💚	-16.6985
💟	-16.6985
💪	-16.6985
💯	-16.6985
📢	-16.6985
📸	-16.6985
🔹	-16.6985
🕓	-16.6985
😀	-16.6985
😁	-16.6985
😉	-16.6985
😊	-16.6985
😏	-16.6985
😬	-16.6985
😭	-16.6985
🙂	-16.6985
🙌	-16.6985
🛁	-16.6985
🤍	-16.6985
🤔	-16.6985
🤢	-16.6985
🤦	-16.6985
🤪	-16.6985
🥥	-16.6985
🥰	-16.6985
🥲	-16.6985
🥹	-16.6985
🥺	-16.6985
🩹	-16.6985
🩺	-16.6985
🪐	-16.6985
🫒	-16.6985
🫠	-16.6985
🫶	-16.6985
È	-16.6985
İ	-16.6985
ľ	-16.6985
ə	-16.6985
̣	-16.6985
Î	-16.6985
ṓ	-16.6985
(	-16.6985
δ	-16.6985
υ	-16.6985
🖥	-16.6985
