<unk>	0
<s>	0
</s>	0
a	-3.38797
▁je	-3.69076
e	-3.72349
▁i	-3.73858
▁u	-3.79806
i	-3.95124
,	-3.97599
o	-4.01152
▁,	-4.10799
.	-4.17708
u	-4.20146
▁.	-4.37681
▁na	-4.41898
;	-4.61707
▁se	-4.63943
▁da	-4.7164
▁za	-4.8232
▁a	-4.93075
▁su	-4.9331
&	-4.95088
on	-4.95225
om	-5.0124
▁s	-5.06219
▁od	-5.28464
ih	-5.29963
▁ne	-5.38962
▁	-5.42882
▁"	-5.49059
ti	-5.4997
m	-5.53304
ca	-5.55172
▁o	-5.56738
im	-5.62292
ccar	-5.62679
▁-	-5.65562
og	-5.68166
▁koji	-5.73452
▁će	-5.80204
▁iz	-5.81059
cute	-5.82137
▁to	-5.87501
▁što	-5.88703
d	-5.89817
▁&	-5.91653
oj	-5.94805
▁te	-6.02689
▁do	-6.0648
▁po	-6.07038
▁koj	-6.07537
zcar	-6.09846
-	-6.12614
▁bi	-6.14898
▁U	-6.16428
ma	-6.18494
▁kako	-6.18629
g	-6.20076
▁m	-6.26913
▁nije	-6.29745
li	-6.32496
▁sam	-6.33174
la	-6.37855
▁ali	-6.38426
▁kao	-6.39151
▁:	-6.41503
t	-6.41647
▁'	-6.45679
s	-6.53679
▁ni	-6.56007
▁godine	-6.5691
▁",	-6.59454
▁sve	-6.60113
▁koje	-6.63435
▁smo	-6.63463
ju	-6.64716
▁biti	-6.64895
▁(	-6.6667
▁svoj	-6.68826
te	-6.69562
▁nakon	-6.73752
▁ili	-6.75568
▁li	-6.76445
k	-6.76689
an	-6.77151
▁više	-6.78651
▁ima	-6.7911
n	-6.79234
h	-6.808
▁S	-6.82837
▁pa	-6.83955
ima	-6.86851
▁bio	-6.87586
j	-6.87965
▁sa	-6.91761
▁I	-6.92411
:	-6.92455
▁Na	-6.934
ni	-6.94434
▁još	-6.9659
▁samo	-6.96981
▁jer	-6.97237
▁ga	-6.97795
š	-6.99143
▁rekao	-7.01999
▁mi	-7.05225
▁zbog	-7.06061
▁A	-7.06292
mo	-7.06573
▁već	-7.08784
▁može	-7.10919
no	-7.11278
▁bilo	-7.13921
▁t	-7.14246
▁uz	-7.17526
▁?	-7.17731
ci	-7.1796
▁godina	-7.18126
ći	-7.19344
ka	-7.20918
strok	-7.21786
▁eura	-7.22744
▁tako	-7.24929
▁prije	-7.25758
▁mu	-7.2654
)	-7.26608
en	-7.27932
▁ja	-7.28765
▁ih	-7.29178
▁dok	-7.29829
▁bila	-7.30198
▁ma	-7.3045
▁dana	-7.32589
▁no	-7.32744
▁kada	-7.36163
ne	-7.36382
r	-7.36456
▁om	-7.37187
▁h	-7.37511
ić	-7.37651
▁e	-7.40313
▁g	-7.42724
"	-7.43619
▁on	-7.43664
▁protiv	-7.44711
▁prema	-7.46037
▁tri	-7.46275
▁njegov	-7.46826
▁oko	-7.47007
▁mogu	-7.48088
▁Ne	-7.4939
▁bez	-7.502
tko	-7.50926
▁dva	-7.51132
▁To	-7.51628
▁posto	-7.5165
▁...	-7.52207
p	-7.53093
▁kad	-7.53416
▁jedan	-7.53548
▁ove	-7.53604
er	-7.53912
y	-7.54026
▁P	-7.54154
▁Za	-7.54735
▁svoje	-7.55114
▁ju	-7.55342
▁!	-7.55381
lo	-7.55475
▁gdje	-7.55594
z	-7.55968
▁treba	-7.55973
▁nam	-7.56454
▁nego	-7.56964
č	-7.57364
▁ljudi	-7.57937
st	-7.58782
je	-7.60255
▁tu	-7.60644
▁O	-7.6095
▁im	-7.61864
▁".	-7.61987
▁ti	-7.62985
▁nisu	-7.63845
▁toga	-7.64346
▁mo	-7.65178
▁pod	-7.65328
▁sada	-7.66535
ke	-7.66559
▁vrijeme	-7.67316
ak	-7.68666
ja	-7.688
l	-7.69501
nje	-7.70223
koliko	-7.70226
▁pri	-7.70907
na	-7.71035
▁pre	-7.72278
in	-7.74208
▁me	-7.74254
em	-7.74317
▁ako	-7.74481
▁kod	-7.75664
vijek	-7.75821
▁prvi	-7.76001
▁nema	-7.76715
▁ovo	-7.78137
▁njihov	-7.78179
▁nas	-7.7951
▁mogl	-7.79778
ako	-7.80651
nja	-7.8066
▁naš	-7.82343
▁danas	-7.83577
ko	-7.84004
▁dobro	-7.85504
▁bili	-7.8587
▁ov	-7.86307
le	-7.86684
▁put	-7.8762
▁Po	-7.88305
▁No	-7.88391
ar	-7.88916
▁tijek	-7.88962
ra	-7.89986
▁pet	-7.90471
▁Hrvatske	-7.90883
▁radi	-7.90944
▁kojem	-7.91782
▁velik	-7.91872
▁/	-7.92578
▁nešto	-7.92858
▁Nak	-7.9376
▁tome	-7.93869
▁dio	-7.94335
▁puno	-7.94758
▁mora	-7.95109
▁ka	-7.95199
▁kaže	-7.95572
C	-7.9585
▁Hrvatskoj	-7.96003
va	-7.96198
▁sati	-7.96958
put	-7.97954
▁pred	-7.98221
▁dvije	-7.9829
c	-7.99185
▁dan	-7.99195
da	-8.00307
▁predsjednik	-8.00769
▁svi	-8.01571
'	-8.01603
nu	-8.01792
▁la	-8.02008
▁malo	-8.02364
▁j	-8.02588
▁taj	-8.03351
▁)	-8.03535
▁milijuna	-8.04719
ov	-8.05415
ac	-8.05484
▁ste	-8.05546
ost	-8.0703
među	-8.08886
▁njezin	-8.08904
▁novi	-8.09269
▁dalje	-8.0938
▁rekla	-8.09403
▁neće	-8.09649
▁imaju	-8.10141
▁D	-8.10559
S	-8.10707
▁vam	-8.10757
▁10	-8.10815
▁način	-8.11774
▁onda	-8.11908
▁vrl	-8.12025
▁Hrvatska	-8.12108
▁C	-8.12167
f	-8.12246
▁broj	-8.12393
▁kojim	-8.12498
▁n	-8.12773
▁ta	-8.13432
▁ve	-8.14096
ta	-8.14221
▁jako	-8.14477
ama	-8.15422
▁Od	-8.15568
▁joj	-8.15756
ž	-8.15768
▁čak	-8.16119
kroz	-8.1636
▁ćemo	-8.16589
▁oni	-8.16892
v	-8.16926
ski	-8.17201
▁njih	-8.17473
▁dr	-8.17543
▁Kak	-8.18592
ć	-8.19139
▁zna	-8.19216
▁ova	-8.19436
▁Kad	-8.19618
▁20	-8.19973
▁K	-8.20999
ki	-8.21208
▁ovog	-8.21581
▁G	-8.22173
akođer	-8.22799
ku	-8.22802
▁mjesto	-8.2285
▁š	-8.23025
▁drugi	-8.23635
ica	-8.24179
▁nek	-8.24236
vaj	-8.25256
▁tom	-8.25743
▁nov	-8.25937
▁pro	-8.25994
ice	-8.26492
▁igra	-8.26759
▁puta	-8.2713
▁jednom	-8.27316
▁le	-8.28399
▁),	-8.28417
ce	-8.28499
▁koliko	-8.28524
▁naj	-8.28985
▁M	-8.29476
▁društven	-8.29955
▁četiri	-8.30287
▁ona	-8.30311
▁d	-8.30431
nosno	-8.30516
▁druge	-8.3062
▁Ak	-8.30687
▁utakmice	-8.311
sam	-8.31775
▁jedna	-8.32291
▁manje	-8.32956
▁Da	-8.32979
▁među	-8.33068
▁Ivan	-8.34009
▁E	-8.3413
b	-8.34141
▁gotov	-8.34171
▁piše	-8.34327
▁re	-8.34716
▁ovom	-8.35075
aj	-8.35291
▁neki	-8.35825
▁život	-8.36185
▁tim	-8.362
▁hrvatsk	-8.36579
smo	-8.36839
▁sezone	-8.37508
▁HDZ	-8.38139
▁preko	-8.38443
▁takv	-8.38479
▁šest	-8.38728
▁Ja	-8.39103
▁Mi	-8.3992
▁kojeg	-8.40033
▁strane	-8.40068
▁vodi	-8.40611
▁vremena	-8.40739
P	-8.40778
▁15	-8.40832
▁Europsk	-8.41221
▁bit	-8.41364
▁osoba	-8.41689
iti	-8.41754
D	-8.42221
▁vas	-8.4232
A	-8.42599
▁tek	-8.42871
▁nje	-8.44333
▁T	-8.44401
▁Š	-8.44464
▁govori	-8.44719
▁svih	-8.45036
▁lo	-8.45209
▁mjesta	-8.45514
▁tada	-8.4561
▁',	-8.45626
▁obitelji	-8.45727
▁njega	-8.46134
ava	-8.46211
▁europsk	-8.46439
▁Iz	-8.46628
T	-8.46687
▁H	-8.46738
▁kraju	-8.47051
▁prošl	-8.47081
▁kazao	-8.47162
I	-8.47315
▁Do	-8.47402
2	-8.47785
▁imati	-8.47879
▁Sve	-8.48171
▁Pa	-8.48239
▁Dinamo	-8.4825
▁imao	-8.4848
▁k	-8.48538
▁de	-8.48754
▁posebno	-8.48889
ba	-8.49739
▁moga	-8.49932
▁B	-8.50239
▁Ni	-8.50271
",	-8.503
▁sad	-8.50705
▁vi	-8.51243
▁Zagrebu	-8.51675
nik	-8.51752
B	-8.51951
▁2024.	-8.52088
▁svom	-8.52125
ira	-8.52335
▁12	-8.53535
▁ono	-8.53783
ri	-8.54069
▁njima	-8.54165
0	-8.54454
▁godinu	-8.54463
▁Ali	-8.549
▁EU	-8.5501
K	-8.55547
vši	-8.55668
▁čest	-8.55795
▁naše	-8.55989
šao	-8.56405
▁teško	-8.56502
1	-8.57166
3	-8.57244
ova	-8.57264
▁baš	-8.57498
4	-8.57792
▁ništa	-8.57937
re	-8.58192
al	-8.58243
ve	-8.58552
▁pitanje	-8.5882
]	-8.58934
▁problem	-8.58938
▁19	-8.59093
zi	-8.59437
▁mjestu	-8.59444
▁Ovo	-8.59446
▁hrvatski	-8.59987
it	-8.60141
▁Što	-8.60385
ović	-8.60568
▁nad	-8.60757
▁nju	-8.60902
bi	-8.61383
▁Prem	-8.61511
▁državn	-8.61864
mah	-8.62234
▁F	-8.62243
lja	-8.62528
▁svim	-8.62695
▁gol	-8.62707
▁stvari	-8.63224
▁sebe	-8.63351
▁bolje	-8.63529
▁objavi	-8.637
▁veliki	-8.63718
▁Z	-8.63879
▁bude	-8.6402
▁cijel	-8.64038
▁ku	-8.64388
or	-8.64399
▁=>	-8.6442
▁30	-8.64511
▁obzir	-8.64893
▁VIDEO	-8.64904
U	-8.65253
▁nove	-8.65374
▁1	-8.65457
▁potpuno	-8.65501
ovi	-8.65584
▁javn	-8.6575
▁11	-8.65752
▁imam	-8.6607
▁minuti	-8.66388
▁r	-8.6703
▁18	-8.67319
/	-8.67352
M	-8.67776
▁Zagreb	-8.67892
ila	-8.67977
▁pomoć	-8.68683
▁trener	-8.68728
▁bih	-8.68775
▁svog	-8.68925
sti	-8.68996
▁N	-8.69088
▁upravo	-8.69262
▁vozila	-8.69571
če	-8.6959
▁dobio	-8.69726
5	-8.70279
▁imali	-8.7056
▁kraja	-8.70616
O	-8.70757
▁ću	-8.70907
▁dodao	-8.7095
▁svijetu	-8.7111
▁utakmica	-8.71147
▁smatra	-8.71611
▁13	-8.71664
nih	-8.72099
▁čini	-8.72111
▁Uz	-8.72177
lu	-8.72225
▁možda	-8.7231
▁političk	-8.72648
▁c	-8.72702
6	-8.72742
▁djece	-8.72752
hr	-8.72972
vi	-8.73165
iji	-8.73405
▁minuta	-8.74027
R	-8.74277
▁vode	-8.74521
▁znači	-8.7471
F	-8.74726
▁rusk	-8.75009
ch	-8.75017
▁ponovno	-8.75036
▁života	-8.75078
▁ipak	-8.75191
▁Hajduk	-8.75354
▁želi	-8.7542
▁3	-8.7547
▁zajedno	-8.7548
▁osvoji	-8.75886
ija	-8.76102
▁prvaka	-8.76143
▁nu	-8.76146
▁predsjednika	-8.76162
▁tisuća	-8.76736
▁posljednj	-8.77114
▁klub	-8.77133
8	-8.77343
▁kasnije	-8.77409
▁one	-8.77544
▁st	-8.77764
čić	-8.77875
▁).	-8.78996
▁[	-8.79228
▁nalazi	-8.79552
▁ostal	-8.79612
▁području	-8.79774
▁utakmicu	-8.79774
7	-8.79804
.000	-8.7984
▁moj	-8.79853
▁jednu	-8.79858
▁svaki	-8.80056
▁brojn	-8.80222
nog	-8.80269
▁rad	-8.80411
▁16	-8.80665
▁Le	-8.80829
▁V	-8.80839
▁5	-8.81063
▁ra	-8.81582
▁jednog	-8.81616
V	-8.81897
▁projekt	-8.81904
▁pravo	-8.81925
▁Velik	-8.82006
▁Pri	-8.82308
▁visok	-8.82516
▁grad	-8.82692
▁osobe	-8.82713
▁odgovor	-8.82955
▁par	-8.83404
ur	-8.83449
▁toliko	-8.83592
▁Naime	-8.83664
▁v	-8.83732
▁prava	-8.83892
▁reći	-8.83914
▁Osim	-8.83949
G	-8.84022
▁trenutku	-8.84085
ili	-8.84194
▁deset	-8.84376
▁17	-8.84392
ije	-8.84773
▁1.	-8.8481
▁On	-8.84894
▁dolazi	-8.8503
▁14	-8.8509
▁najviše	-8.85162
▁pokazal	-8.85257
▁posao	-8.85259
▁sustav	-8.8532
▁riječ	-8.85334
▁Tako	-8.85412
▁svjetsk	-8.85504
▁postoji	-8.85525
▁njegova	-8.8567
▁grada	-8.85908
pa	-8.86231
▁50	-8.8665
▁premijer	-8.86802
▁ovu	-8.87471
▁L	-8.87626
▁najbolje	-8.87643
▁2023.	-8.87671
▁ot	-8.87714
nici	-8.87776
▁prvo	-8.87963
▁poznat	-8.88049
▁ranije	-8.88058
ro	-8.88172
E	-8.88335
ista	-8.8839
▁istaknu	-8.8852
▁zato	-8.88551
si	-8.88708
▁policija	-8.88865
či	-8.89064
▁Hrvatsku	-8.89122
▁Ova	-8.89126
▁igrača	-8.89343
▁zašto	-8.89413
▁isto	-8.89457
00	-8.8981
▁različit	-8.89813
▁čega	-8.89901
▁sigurno	-8.89928
cu	-8.9
▁petak	-8.90038
▁posla	-8.90043
▁pomoći	-8.90135
▁Nije	-8.90429
▁drugom	-8.90598
▁jedno	-8.90692
▁mjeseci	-8.90882
▁Pro	-8.90929
▁susret	-8.90991
▁24	-8.91181
▁priča	-8.91258
▁zapravo	-8.91297
▁Plenković	-8.91379
▁kraj	-8.91384
▁nacionaln	-8.91475
▁zdravstven	-8.91645
▁problema	-8.91653
▁2	-8.91748
▁raditi	-8.92011
▁SAD	-8.92026
▁jedn	-8.92229
▁kluba	-8.92282
▁tog	-8.92326
▁nja	-8.92421
%	-8.92811
▁gradsk	-8.92941
▁svijeta	-8.93145
▁vidjeti	-8.93674
▁prvom	-8.93689
▁program	-8.94063
▁svega	-8.94218
▁slu	-8.94326
us	-8.94377
▁zemlje	-8.94416
▁kakv	-8.94455
9	-8.94492
ck	-8.94597
▁Milanović	-8.94642
▁imala	-8.94671
▁Josip	-8.94688
▁4	-8.94734
▁možemo	-8.95082
tim	-8.95224
▁vjerojatno	-8.95326
▁SDP	-8.95537
▁subotu	-8.95786
▁mene	-8.95927
▁mnogi	-8.9616
▁nastup	-8.96328
▁stoji	-8.96548
▁Re	-8.96732
▁ovdje	-8.96873
kom	-8.96926
▁em	-8.97081
ina	-8.97367
▁navodi	-8.97567
▁slučaju	-8.97903
▁izgleda	-8.98073
▁z	-8.98377
▁nogometn	-8.98485
x	-8.98512
▁raz	-8.98613
▁rada	-8.98764
▁opet	-8.99022
▁ide	-8.99171
▁p	-8.99283
▁tešk	-8.9938
▁2022.	-8.9947
▁sedam	-8.99542
▁brzo	-8.99816
▁dovoljno	-8.99849
▁lokaln	-8.99986
lje	-8.99999
▁ministar	-9.00003
▁rezultat	-9.00165
ter	-9.00266
▁priliku	-9.00296
▁ci	-9.00621
jte	-9.00679
▁Grad	-9.00702
lj	-9.00831
cima	-9.00859
▁nedjelju	-9.00873
▁drugih	-9.00916
čan	-9.01116
▁sva	-9.01142
▁traži	-9.01164
▁100	-9.01243
man	-9.01308
L	-9.01318
▁Svi	-9.01402
▁Međutim	-9.01558
▁7	-9.01654
▁nog	-9.01865
nost	-9.01939
▁uključuju	-9.02039
kako	-9.02132
▁tjedna	-9.02192
▁koristi	-9.02263
▁njen	-9.02471
▁osam	-9.03323
▁tvrdi	-9.03445
▁40	-9.03661
▁odnosu	-9.03664
▁žena	-9.03971
▁De	-9.03973
w	-9.04029
▁igrati	-9.04175
▁odluči	-9.04199
ite	-9.04206
▁ponedjeljak	-9.04315
ine	-9.04412
▁tamo	-9.04444
▁napada	-9.04659
▁Hrvatski	-9.04864
▁va	-9.04885
▁glavn	-9.05092
▁Al	-9.05172
br	-9.05234
▁ovim	-9.05276
▁svak	-9.05316
▁Je	-9.05322
▁moguće	-9.05412
▁niz	-9.0546
▁čeka	-9.05472
▁ca	-9.05583
be	-9.05614
▁godini	-9.05733
str	-9.05775
▁potom	-9.0627
▁cilj	-9.06372
▁bil	-9.06464
▁iznos	-9.06748
▁igrač	-9.06802
▁Zbog	-9.0695
jući	-9.06987
▁znam	-9.07047
▁tih	-9.07393
▁dosta	-9.07457
▁25	-9.07469
▁prve	-9.07469
▁Tu	-9.0756
▁rata	-9.07627
▁jasno	-9.07837
▁Marko	-9.08001
▁djecu	-9.0809
▁ispre	-9.08282
▁R	-9.08387
▁hrvatske	-9.0846
▁Kao	-9.08991
▁nikad	-9.09149
ir	-9.09163
▁velika	-9.09206
▁nom	-9.09239
▁6	-9.09285
▁dijete	-9.09299
▁srijedu	-9.09404
▁kuće	-9.09553
▁Č	-9.09557
▁Ma	-9.09593
mjesto	-9.09736
▁Dinama	-9.09876
▁izbora	-9.0989
▁prostor	-9.09949
▁sportsk	-9.10051
▁Mo	-9.10407
ran	-9.10408
▁bodova	-9.10516
▁Ro	-9.10602
▁vlastit	-9.10633
▁pak	-9.10844
▁putem	-9.11001
▁razn	-9.11152
▁Ivana	-9.11459
akav	-9.11502
▁Split	-9.11672
osim	-9.11849
▁ski	-9.12089
▁dijelu	-9.12152
TE	-9.12272
▁prva	-9.12333
▁dugo	-9.12368
▁hrvatskog	-9.12452
▁stigl	-9.12456
▁nastupa	-9.12477
▁kola	-9.12524
▁zagrebačk	-9.12586
nom	-9.1296
▁sud	-9.13
▁isti	-9.13045
▁uspjel	-9.13093
▁stranke	-9.1312
▁Luka	-9.13179
ze	-9.13343
H	-9.13365
▁rast	-9.13507
▁došao	-9.13617
▁ce	-9.13617
▁l	-9.13647
▁ska	-9.13684
▁metara	-9.13743
el	-9.13777
ljen	-9.13803
▁glavni	-9.13933
▁povijesti	-9.14044
▁mislim	-9.14232
▁Pre	-9.14272
▁prona	-9.14278
▁nova	-9.1459
▁dobiti	-9.14765
▁plaća	-9.14784
▁rat	-9.14855
že	-9.14879
▁drugim	-9.14897
▁otvoren	-9.14964
at	-9.15048
▁utakmici	-9.15079
▁američk	-9.15112
ska	-9.15113
▁sata	-9.15235
▁21	-9.15274
▁Ž	-9.15739
▁utorak	-9.1575
nim	-9.15781
ove	-9.15827
▁moram	-9.15946
▁dobar	-9.16001
▁Zagreba	-9.16056
▁momčad	-9.16232
▁razini	-9.16436
▁Prije	-9.16447
is	-9.16533
▁vojn	-9.16644
eg	-9.16731
▁Ob	-9.16903
▁izborn	-9.16975
ek	-9.16997
▁obitelj	-9.17099
▁doći	-9.17108
▁W	-9.17114
▁Republike	-9.17268
▁mnogo	-9.17307
▁škole	-9.17333
▁nedavno	-9.17512
▁devet	-9.17564
▁9	-9.17647
▁cijene	-9.1782
▁Misli	-9.17949
▁živ	-9.17987
▁BiH	-9.18025
nju	-9.18058
▁ugovor	-9.1841
▁čovjek	-9.18567
▁La	-9.18568
emo	-9.18643
ru	-9.18753
godišnjak	-9.18798
▁moći	-9.18828
ković	-9.18854
▁razvoj	-9.18941
▁Rijeka	-9.18967
▁vaš	-9.19311
šta	-9.19409
▁prvog	-9.19451
▁predstavlja	-9.19561
▁bivši	-9.19599
▁čem	-9.1965
▁novog	-9.19868
▁Splitu	-9.20091
▁druga	-9.20118
▁ističe	-9.20125
▁kaznen	-9.20158
▁gradu	-9.2017
▁županije	-9.20181
▁ime	-9.20233
▁sklop	-9.20504
▁mjeseca	-9.20526
▁Također	-9.20631
▁Zoran	-9.20714
▁velike	-9.20775
▁cijena	-9.2079
▁Grada	-9.20844
▁donosi	-9.20877
▁mrežama	-9.20997
▁Trump	-9.21274
▁godinama	-9.21435
▁dolara	-9.21644
▁tvrtke	-9.2171
▁pobjedu	-9.2176
▁završi	-9.21835
▁ljude	-9.2188
spod	-9.22107
▁ru	-9.2217
▁određen	-9.22224
▁lipnja	-9.22237
▁svijet	-9.22251
▁time	-9.22285
▁moraju	-9.22462
▁rade	-9.22543
▁međunarodn	-9.22597
▁ovi	-9.22649
▁snage	-9.22666
▁trenutno	-9.22706
▁pobjede	-9.22717
▁osta	-9.22826
▁pol	-9.22933
▁njemu	-9.22978
ča	-9.23147
cija	-9.23439
▁napraviti	-9.23466
▁posebn	-9.23601
▁novac	-9.23722
▁doma	-9.2374
▁radn	-9.24108
▁čim	-9.24177
▁poručio	-9.24194
▁javnosti	-9.24335
▁korak	-9.24401
▁svima	-9.24406
▁god	-9.24427
lan	-9.24432
▁dobili	-9.24491
▁primjer	-9.24643
▁Vlade	-9.24661
ster	-9.24663
▁postao	-9.24717
▁poslovn	-9.24798
▁najbolji	-9.24929
▁ukupno	-9.25068
▁sat	-9.25145
▁prvu	-9.25154
▁žele	-9.25161
▁izvan	-9.25359
▁Ra	-9.25459
▁ovakv	-9.25524
za	-9.25597
▁bist	-9.25669
▁pristup	-9.25801
▁objavila	-9.25954
▁očekuje	-9.26022
N	-9.26132
sko	-9.26226
▁prilik	-9.26428
▁60	-9.26448
▁film	-9.26548
▁ske	-9.26599
▁postal	-9.26658
▁situacija	-9.2692
av	-9.27044
▁dobil	-9.27047
ev	-9.27064
▁Danas	-9.27206
▁Real	-9.27218
▁osjećaj	-9.27288
▁došlo	-9.273
▁dogodilo	-9.27318
▁Hajduka	-9.27366
▁vidi	-9.27683
▁vanjsk	-9.27805
▁ri	-9.28062
▁većin	-9.28077
▁bolesti	-9.28127
veo	-9.28289
▁izjavio	-9.28359
▁sebi	-9.28421
▁ljubav	-9.28454
as	-9.28742
▁izborima	-9.288
▁22	-9.2885
▁zahtjev	-9.28928
▁Me	-9.28946
Z	-9.29043
il	-9.2907
▁otkrila	-9.29299
▁POGLEDAJ	-9.29303
▁direktor	-9.29389
▁trebalo	-9.29423
▁otkrio	-9.29485
ske	-9.295
▁aktivnosti	-9.29521
▁8	-9.29653
▁zabio	-9.29718
▁interes	-9.29797
▁drugog	-9.29889
▁djeca	-9.30083
▁strani	-9.30231
▁nikada	-9.30232
▁privatn	-9.30391
bu	-9.30542
▁vrati	-9.30743
▁dobr	-9.31015
▁Njegov	-9.31141
▁potrebno	-9.31217
▁igre	-9.31226
▁države	-9.31388
glavnom	-9.3146
▁turističk	-9.31565
▁Kr	-9.31577
▁terenu	-9.31583
▁drugo	-9.31593
es	-9.3162
▁zadnj	-9.31726
▁ko	-9.31873
▁djela	-9.31903
▁momčadi	-9.32017
▁financijsk	-9.32268
ec	-9.32502
osti	-9.32654
godišnji	-9.32899
▁Dan	-9.33002
jen	-9.33197
▁koncert	-9.33204
▁2.	-9.33316
▁sustava	-9.33346
▁kažu	-9.33368
▁naslov	-9.33373
▁napad	-9.33442
▁odigra	-9.33554
po	-9.33622
rt	-9.33647
▁budu	-9.33769
▁bogat	-9.33811
▁rujna	-9.33903
▁posljednje	-9.34016
▁nekim	-9.34041
ing	-9.34107
▁tr	-9.34136
▁Ipak	-9.34173
▁važno	-9.34439
lin	-9.34451
iran	-9.34481
▁Bilo	-9.34578
th	-9.34648
▁promjene	-9.34684
▁vaše	-9.3481
▁prenosi	-9.35003
▁trebal	-9.35047
▁izgradnj	-9.35123
ete	-9.35202
▁uspjeh	-9.35205
▁Andrej	-9.35212
▁poče	-9.35273
▁rekli	-9.354
▁policije	-9.35532
▁ljudima	-9.35611
▁Br	-9.35613
▁pitanja	-9.35684
▁trebali	-9.35692
▁četvrtak	-9.35705
▁Dr	-9.35756
▁javno	-9.35959
▁vlasti	-9.35972
▁video	-9.36112
▁pokaza	-9.36125
▁ljudsk	-9.36145
▁naglasi	-9.36222
▁Varaždin	-9.36294
▁jednostavno	-9.36326
▁pola	-9.36408
▁pun	-9.36497
▁kom	-9.36527
▁država	-9.36568
▁građana	-9.36631
▁mjesec	-9.36944
▁Vi	-9.3715
▁Bio	-9.3716
▁glazben	-9.37188
▁priprema	-9.37198
▁životu	-9.37259
▁splitsk	-9.37264
▁dodatno	-9.37382
▁vrijednosti	-9.374
▁žene	-9.37431
▁prometn	-9.37522
▁'.	-9.37551
▁tjedan	-9.37576
▁Marin	-9.37576
up	-9.37734
▁Ima	-9.37762
pi	-9.37959
▁Europe	-9.38042
▁lako	-9.38071
▁stan	-9.38097
▁op	-9.38191
▁poziv	-9.38516
▁odluka	-9.38695
▁temelj	-9.38729
▁Sa	-9.38787
▁J	-9.388
▁Novi	-9.38864
▁tiče	-9.39118
▁napisao	-9.39151
iljem	-9.39212
▁listopada	-9.39237
▁meni	-9.3936
▁23	-9.39432
▁mlad	-9.39432
▁Gr	-9.3945
▁objavljen	-9.39502
▁cijeli	-9.39528
▁Izrael	-9.39556
▁srpnja	-9.39662
▁razloga	-9.39671
▁FOTO	-9.39732
▁misli	-9.39996
▁travnja	-9.40156
▁bijel	-9.4016
čar	-9.40175
▁cu	-9.40376
opće	-9.40398
▁previše	-9.40443
▁pravi	-9.40531
▁Foto	-9.40577
▁dodaje	-9.40578
▁poslova	-9.40586
uje	-9.40626
▁lige	-9.40647
▁voli	-9.40759
nt	-9.40794
▁di	-9.4096
et	-9.40986
▁reprezentacije	-9.41011
▁Još	-9.41176
▁novo	-9.41344
▁Oni	-9.41435
▁Ukrajini	-9.41443
▁skog	-9.41698
▁dodatn	-9.4171
▁najveć	-9.41786
▁jak	-9.41806
▁mladih	-9.41905
▁podršku	-9.41975
▁Ta	-9.4248
▁proces	-9.42585
▁neka	-9.42624
▁iznosi	-9.42627
▁kr	-9.4263
▁hoće	-9.42752
▁zemalja	-9.42757
▁Dok	-9.42762
▁Rijeke	-9.42766
ver	-9.42828
ol	-9.42846
▁Te	-9.42847
▁X	-9.43011
▁Di	-9.4317
▁treće	-9.43182
▁uoči	-9.43274
▁ulogu	-9.43365
▁Europi	-9.43418
▁njim	-9.43483
▁najmanje	-9.43585
▁tijelo	-9.43645
iv	-9.43653
▁kolovoza	-9.43692
▁lijep	-9.43764
ss	-9.43786
▁početka	-9.43816
ša	-9.43928
▁godišnje	-9.43931
▁in	-9.44026
▁osnovn	-9.44061
▁služben	-9.44128
▁projekta	-9.442
ut	-9.44224
▁provodi	-9.44279
▁prvenstva	-9.44379
▁tra	-9.44405
▁pla	-9.44506
ng	-9.44541
▁Hrvatskog	-9.44569
▁odluku	-9.44672
▁RTL	-9.44687
▁er	-9.44696
▁poraz	-9.44912
▁automobila	-9.44936
▁sin	-9.44958
▁gradonačelnik	-9.45086
▁Tomislav	-9.45137
▁bare	-9.45155
▁sigurnosti	-9.45307
▁kući	-9.45398
▁nih	-9.4548
▁član	-9.45527
▁dom	-9.45594
skoro	-9.4561
▁obiteljsk	-9.45766
▁Zakon	-9.45793
ža	-9.4591
▁Jedan	-9.45944
un	-9.45971
▁stvarno	-9.46003
▁Olimpijsk	-9.46118
▁najveći	-9.46209
▁gr	-9.46361
vo	-9.46419
▁slučaj	-9.46513
▁Ka	-9.46566
▁pravn	-9.46804
▁znaju	-9.46891
▁prati	-9.46917
▁svibnja	-9.46959
sh	-9.4698
▁Evo	-9.47164
▁unutar	-9.47178
J	-9.47411
vr	-9.47505
▁vrata	-9.47531
▁stvar	-9.47582
▁Bu	-9.47592
▁nikakv	-9.4767
▁početk	-9.47762
▁odnos	-9.48026
▁uspi	-9.48041
kov	-9.48061
▁nastaviti	-9.48364
▁područja	-9.48503
▁kandidat	-9.48522
ži	-9.48538
koj	-9.48593
▁plan	-9.48859
▁In	-9.48947
▁natjecanja	-9.48971
pl	-9.49058
▁loše	-9.49136
▁kolu	-9.49161
▁jući	-9.49267
▁ostali	-9.49445
▁Bo	-9.49522
▁navodno	-9.49556
▁električn	-9.49599
▁dosad	-9.49627
▁bolji	-9.49651
▁Tijek	-9.49758
▁obrane	-9.49773
▁živi	-9.49792
▁stiga	-9.50081
to	-9.50088
▁nosi	-9.50095
▁izbore	-9.50144
▁evo	-9.50152
▁kazal	-9.50174
▁stanje	-9.50232
▁TV	-9.50272
▁vratiti	-9.50446
▁zemlji	-9.50527
kl	-9.50629
▁Ar	-9.5065
▁račun	-9.50655
▁2021.	-9.50706
▁70	-9.50958
▁ču	-9.51006
▁veći	-9.51104
▁izvor	-9.51123
▁pitanju	-9.5119
▁ostat	-9.51328
vu	-9.51394
▁zapadn	-9.51466
▁Ba	-9.51546
▁Crn	-9.51591
▁nama	-9.51607
▁crn	-9.51818
▁3.	-9.51889
▁promet	-9.519
▁programa	-9.52035
▁sigurnost	-9.52102
▁postoje	-9.52273
▁35	-9.5234
šić	-9.526
▁Filip	-9.52646
▁redu	-9.52656
tor	-9.52773
▁Mar	-9.52778
▁vlada	-9.528
jedno	-9.52858
▁radio	-9.52918
▁izbori	-9.52938
▁zdravlje	-9.52969
▁održan	-9.53018
▁osobn	-9.53027
▁ev	-9.53033
▁iznad	-9.53064
▁tijela	-9.53123
▁bivše	-9.53131
dje	-9.53236
▁razlog	-9.53346
▁zelen	-9.5359
▁The	-9.53618
▁Ko	-9.53626
▁Ha	-9.53643
▁model	-9.53883
▁mogućnost	-9.53932
▁gra	-9.53969
ljiv	-9.54135
▁nastavlja	-9.54143
▁iskustvo	-9.54221
▁boda	-9.54293
var	-9.54302
▁građani	-9.5438
▁New	-9.54383
▁ljetn	-9.54438
▁smrti	-9.54457
▁ke	-9.54577
▁HNL	-9.546
▁odluke	-9.54882
▁izbor	-9.54993
▁čiji	-9.55072
pe	-9.55098
▁HRT	-9.55103
▁majka	-9.55128
▁planira	-9.55229
▁hrane	-9.55268
▁Podsjetimo	-9.55442
▁ujutro	-9.55509
!	-9.55572
iva	-9.55582
▁mlade	-9.55638
▁finala	-9.55691
▁dolaze	-9.55734
?	-9.55765
telj	-9.55771
▁mediji	-9.55786
▁trenutak	-9.55834
▁Ti	-9.55848
▁mladi	-9.55855
▁događa	-9.55895
▁prvoj	-9.55971
red	-9.56084
▁osobit	-9.56142
▁događaja	-9.56234
▁informacije	-9.56246
▁poseb	-9.56274
),	-9.56293
▁svakom	-9.56393
▁Lige	-9.56441
▁energije	-9.5658
▁ro	-9.56584
▁NATO	-9.56605
▁Prvi	-9.56616
▁zračn	-9.56625
▁igrao	-9.56737
▁El	-9.56793
▁mali	-9.56832
▁Samo	-9.56851
os	-9.56883
▁održat	-9.56917
▁koriste	-9.5699
▁prosinca	-9.57113
▁poslije	-9.57114
▁ključn	-9.57141
enje	-9.57154
▁došli	-9.57181
▁organizira	-9.57265
▁mjere	-9.57328
▁krenul	-9.57342
▁Jer	-9.57382
▁blizin	-9.57623
đe	-9.57693
▁Njemačkoj	-9.57694
▁centar	-9.57794
▁sezonu	-9.57794
▁sjajn	-9.5781
▁vo	-9.57817
ivot	-9.57837
▁kulturn	-9.57889
▁Bar	-9.57912
▁prvenstvu	-9.57941
▁gola	-9.57962
jak	-9.5799
▁prethodn	-9.58028
▁siječnja	-9.58113
▁skupine	-9.58164
▁ukrajinsk	-9.5819
▁radova	-9.58199
▁održava	-9.58252
▁ji	-9.58309
▁javlja	-9.58342
▁dodala	-9.58372
▁nudi	-9.58372
gdje	-9.58378
▁vezan	-9.58513
▁najbolj	-9.58515
▁socijaln	-9.58997
▁svemu	-9.59118
lić	-9.59153
▁mal	-9.59171
nika	-9.59193
kakav	-9.59323
ul	-9.59335
▁glas	-9.59356
▁rođen	-9.59466
▁Naš	-9.59531
▁Vlada	-9.59579
▁daleko	-9.59589
▁pogled	-9.59594
▁sigurnosn	-9.59597
▁naša	-9.59625
▁Radi	-9.5967
▁pobjeda	-9.59696
▁veze	-9.59725
▁Više	-9.598
▁Li	-9.59826
▁povijesn	-9.59864
▁teren	-9.59867
▁Naj	-9.59873
▁Martin	-9.59892
▁tisuć	-9.5997
▁prilika	-9.60045
▁ljeta	-9.60047
anje	-9.60054
▁proizvoda	-9.60132
▁Općin	-9.60197
▁RH	-9.60283
▁zakon	-9.60303
▁pokazuje	-9.60305
▁šk	-9.60369
▁gleda	-9.60518
jan	-9.60547
▁Policij	-9.6058
▁desn	-9.60591
▁tvrtka	-9.60855
▁glasova	-9.60919
▁umjetn	-9.60919
mer	-9.60942
▁našeg	-9.60952
dr	-9.60971
▁ović	-9.61014
▁zanimljiv	-9.61066
▁noći	-9.6138
▁drugu	-9.61447
ovima	-9.6146
Ne	-9.61486
▁upravlja	-9.61541
▁rješenje	-9.61567
▁90	-9.61597
▁Predsjednik	-9.61623
▁supruga	-9.61685
▁+	-9.61688
▁list	-9.61752
▁društvo	-9.61808
▁potez	-9.61812
▁ruke	-9.61876
▁sku	-9.61894
▁Per	-9.61929
tar	-9.61952
▁sti	-9.6205
▁okvir	-9.62157
▁stručn	-9.62204
▁bu	-9.62318
▁računa	-9.6233
▁26	-9.62333
▁situaciju	-9.62336
▁završil	-9.62395
▁protekl	-9.62436
▁be	-9.62504
ini	-9.62632
▁srpsk	-9.62692
▁pad	-9.62738
▁Uprav	-9.6277
▁pokret	-9.62832
▁svakog	-9.62866
ks	-9.63031
▁Domovinsk	-9.63044
▁uprave	-9.63081
▁jest	-9.63327
▁naravno	-9.63424
▁milijard	-9.63468
▁prijedlog	-9.63472
▁vezi	-9.63496
▁stol	-9.63508
▁razgovor	-9.63521
▁treć	-9.63617
▁medicinsk	-9.63659
▁Sada	-9.63665
van	-9.63684
▁0	-9.63693
▁2025.	-9.63776
▁stav	-9.6382
▁ran	-9.63844
▁ostaje	-9.63914
▁zatvoren	-9.63927
▁globaln	-9.63992
▁Dubrovnik	-9.63994
▁njemačk	-9.64383
▁znak	-9.64416
▁7.	-9.64456
▁postat	-9.64523
cije	-9.64616
▁čij	-9.64847
▁pjeva	-9.64877
čki	-9.64885
men	-9.64903
aron	-9.64935
nica	-9.64993
▁w	-9.6501
▁škola	-9.65022
čin	-9.6517
▁inače	-9.65241
▁Srbije	-9.65255
▁Svjetsk	-9.65282
▁jedinstven	-9.65443
▁rizik	-9.65551
▁Gradsk	-9.65595
▁jučer	-9.65606
▁novom	-9.65644
▁traže	-9.65801
▁društva	-9.65859
▁smjeru	-9.65965
com	-9.65991
▁kandidata	-9.66055
etiri	-9.66064
▁sutra	-9.66077
▁naši	-9.66078
▁ozbiljn	-9.66126
▁četvrt	-9.66128
▁sjevern	-9.6615
▁zaključio	-9.66161
▁Zato	-9.66244
ročitajte	-9.66334
▁minute	-9.66348
▁Riječ	-9.66448
▁mom	-9.66574
fi	-9.66636
▁prostora	-9.66665
▁sredin	-9.6669
▁Dakle	-9.66721
▁postaje	-9.66775
▁traje	-9.66786
▁napisala	-9.6679
▁sto	-9.66929
bo	-9.67023
Zc	-9.67149
▁lijev	-9.67201
▁donijel	-9.67293
▁koristiti	-9.67334
▁novca	-9.67385
▁otac	-9.67547
▁fotografije	-9.67578
▁dug	-9.67597
▁bivš	-9.67612
▁jedini	-9.67748
▁sko	-9.67812
▁Star	-9.67845
▁bar	-9.67865
iz	-9.67881
▁šef	-9.67883
▁dijela	-9.67904
▁kup	-9.67972
▁izraelsk	-9.67972
▁pjesme	-9.67981
▁ić	-9.68004
▁Du	-9.68013
▁vrijedn	-9.68014
▁nalaz	-9.68081
▁idu	-9.68156
▁njihova	-9.68209
nji	-9.68258
▁odmor	-9.68295
▁izgled	-9.68309
▁200	-9.68325
▁5.	-9.68335
sk	-9.68407
▁Bab	-9.68463
▁prometa	-9.68582
▁temperatura	-9.68669
▁javnost	-9.68746
isti	-9.68762
▁#	-9.68812
▁dobiva	-9.68907
▁Ve	-9.68956
dan	-9.68965
▁uspješn	-9.68996
▁b	-9.69115
▁riječi	-9.6937
▁45	-9.69686
▁Osijek	-9.69689
▁stanju	-9.6974
▁f	-9.69776
▁Bi	-9.70033
▁klubu	-9.70063
▁ob	-9.70083
▁početku	-9.70092
▁80	-9.70208
jev	-9.70217
▁kilometara	-9.70226
▁članovi	-9.70268
▁karijere	-9.70347
▁ozljede	-9.70374
▁potrebn	-9.70406
▁pe	-9.70459
▁napravio	-9.70475
▁ozlijeđen	-9.70591
▁večer	-9.70667
▁Neki	-9.70675
▁Taj	-9.70724
▁stran	-9.70804
đ	-9.70864
▁prosječn	-9.70895
▁Varaždinsk	-9.70905
▁centra	-9.71026
▁2020.	-9.7111
▁pomo	-9.71141
▁sudjeloval	-9.7118
▁pokazuju	-9.71305
▁filma	-9.71357
▁Ivic	-9.71374
▁sklad	-9.71483
▁obzira	-9.71498
▁dogodil	-9.71581
▁pogotov	-9.71697
▁skom	-9.7175
▁rije	-9.71815
▁potrebe	-9.71835
▁Naravno	-9.71894
▁kulture	-9.71894
ob	-9.72026
▁cijsk	-9.72089
▁An	-9.7211
čen	-9.72177
▁bod	-9.72188
šte	-9.72241
▁drugoj	-9.72246
▁igrači	-9.72265
▁4.	-9.7228
▁Nikola	-9.72295
▁ukupn	-9.72422
▁iznimno	-9.72488
sad	-9.72556
▁pregled	-9.72629
▁ožujka	-9.72683
▁tre	-9.72688
▁ljubavi	-9.72696
▁mnoge	-9.72824
▁izazov	-9.72825
▁prosvjed	-9.72865
ća	-9.72879
▁Robert	-9.72884
▁du	-9.72907
▁predmet	-9.72914
▁sumnj	-9.72918
▁spremni	-9.72977
▁Imam	-9.73017
kon	-9.73077
▁došla	-9.73102
lazak	-9.73165
▁zdrav	-9.73168
▁popularn	-9.73212
▁ras	-9.73221
▁izgubio	-9.73337
▁DP	-9.73459
▁olimpijsk	-9.73479
▁sezoni	-9.73481
tur	-9.73537
▁ovako	-9.73544
▁pobijedil	-9.73581
▁unato	-9.73698
▁udar	-9.7375
▁promjena	-9.73829
▁sličn	-9.73834
▁pojedin	-9.73896
▁politike	-9.73905
▁odlu	-9.74071
▁snaga	-9.74099
▁11.	-9.74129
vati	-9.74173
▁nim	-9.74224
▁digitaln	-9.74282
▁dnevn	-9.74295
▁moral	-9.74338
▁Pod	-9.74339
▁of	-9.74453
▁školsk	-9.74483
mir	-9.7449
▁automobil	-9.74499
▁°	-9.74501
▁more	-9.7456
▁pokuša	-9.74669
par	-9.74677
▁pop	-9.74689
▁zadnje	-9.74737
▁najavi	-9.74742
▁svakak	-9.74801
▁mandata	-9.7486
▁pjesmu	-9.74872
▁milijun	-9.74902
▁Već	-9.74923
▁ured	-9.74959
▁skupina	-9.74987
▁dobi	-9.75006
▁Ante	-9.75071
▁Nema	-9.75091
▁susreta	-9.75197
▁Policijsk	-9.75282
skog	-9.75303
▁auto	-9.75312
▁finale	-9.75316
tra	-9.75417
▁hrvatskom	-9.75466
▁moje	-9.75482
▁sredstva	-9.75498
▁povezan	-9.755
▁ps	-9.75523
▁točno	-9.75545
▁krajem	-9.75619
▁hit	-9.7566
▁dobra	-9.75685
▁15.	-9.75694
▁pokušaj	-9.75715
skom	-9.75771
enja	-9.7586
▁Ben	-9.75911
▁stvara	-9.75989
▁istaknul	-9.76042
▁pove	-9.7607
▁27	-9.76071
lju	-9.76189
▁mandat	-9.76277
▁Ru	-9.76283
▁intervju	-9.76316
▁budući	-9.76325
▁Parizu	-9.76333
▁oba	-9.7634
▁konferencij	-9.76366
▁kor	-9.76366
car	-9.76435
▁Zadar	-9.76539
▁djelo	-9.76556
co	-9.76634
▁Jedna	-9.76699
▁plaće	-9.76714
▁mogućnosti	-9.76754
▁crven	-9.76795
▁Ove	-9.76834
▁najboljih	-9.76895
▁važnost	-9.76895
▁Sad	-9.76943
▁talijansk	-9.76945
▁istraživanje	-9.76956
▁treći	-9.77003
▁Ono	-9.77007
▁izbornik	-9.77008
▁ostalim	-9.77152
▁poru	-9.77343
▁prvenstvo	-9.77358
▁stalno	-9.77382
▁brz	-9.77399
▁!"	-9.77417
▁znamo	-9.77501
▁Ga	-9.77503
▁20.	-9.77525
▁počinje	-9.77554
▁Državn	-9.77557
▁Lu	-9.77574
▁najveće	-9.77671
voj	-9.77719
▁objasnio	-9.77746
▁8.	-9.77787
▁budućnosti	-9.77799
nekad	-9.7784
▁trebaju	-9.77917
inu	-9.77973
▁sezona	-9.77977
▁roditelji	-9.78065
▁sina	-9.78098
skih	-9.78163
▁Tra	-9.78186
▁Ministarstvo	-9.78199
▁Marija	-9.78202
ren	-9.78223
▁onog	-9.78283
sp	-9.78423
▁društvu	-9.78521
▁nesreće	-9.78604
▁prvak	-9.78747
▁ekipa	-9.78756
▁udarac	-9.78786
▁reprezentacija	-9.78814
▁vozač	-9.78887
tan	-9.78939
▁Par	-9.78985
▁pada	-9.79017
▁trenera	-9.79019
▁rezultate	-9.79052
▁potpisa	-9.79132
▁partner	-9.79147
▁Car	-9.79168
▁povod	-9.79201
▁zajednice	-9.79251
▁slab	-9.79324
tri	-9.79326
▁utjecaj	-9.79394
▁Treba	-9.79483
▁obje	-9.79532
▁osigura	-9.79601
▁Jo	-9.79607
▁Ana	-9.79622
▁učiniti	-9.79647
▁suradnji	-9.7966
▁početak	-9.79693
▁finalu	-9.79807
▁Ministarstva	-9.7986
▁Rusija	-9.79898
▁imena	-9.79916
▁sljedeće	-9.79956
▁Goran	-9.80014
▁17.	-9.80074
▁dvoje	-9.80086
▁Ov	-9.80096
▁Modrić	-9.80117
▁vraća	-9.80234
▁veliko	-9.80275
▁zahvaljuju	-9.80306
▁10.	-9.8031
▁loptu	-9.80313
▁medija	-9.80404
dio	-9.80457
▁situacije	-9.80514
▁plav	-9.80548
▁životn	-9.80554
▁vozi	-9.80587
▁pozitivn	-9.80596
▁mir	-9.8066
rin	-9.80762
▁12.	-9.80804
▁poraza	-9.80804
▁Putin	-9.80805
▁vremenu	-9.80944
▁brojni	-9.80972
ji	-9.81004
▁njoj	-9.81005
▁Glavn	-9.81016
▁32	-9.81026
▁van	-9.8109
▁6.	-9.81094
▁ceste	-9.81128
▁Ona	-9.81388
▁Božić	-9.81394
pr	-9.81553
▁zajedničk	-9.81567
▁priče	-9.81611
vin	-9.81639
▁ruku	-9.81645
▁bira	-9.81648
▁jedin	-9.81663
▁povećanje	-9.81688
▁osvojil	-9.81744
▁zaštite	-9.81776
▁ljeto	-9.81896
▁vidjeli	-9.81903
▁lice	-9.81917
elj	-9.81993
▁lakše	-9.82027
▁bolnici	-9.82035
▁govore	-9.82136
▁informacija	-9.82195
▁tvrde	-9.82246
▁otišao	-9.82251
▁Prvo	-9.82272
▁ulici	-9.82299
niji	-9.82343
▁vrijednost	-9.82391
▁tržištu	-9.82462
▁Maj	-9.82463
▁kapetan	-9.82515
▁osje	-9.82533
ler	-9.82625
▁Jadranu	-9.82651
▁probleme	-9.82666
▁Pogledajte	-9.82683
▁iskustva	-9.82691
▁broja	-9.82747
▁ponudi	-9.8288
▁poziva	-9.82889
▁energetsk	-9.82909
nice	-9.82983
▁Tom	-9.82985
▁zraka	-9.83039
▁33	-9.83114
▁Mario	-9.83114
▁srednj	-9.83156
▁prošlog	-9.83249
▁bo	-9.83291
▁brani	-9.83295
ilo	-9.83468
▁postupak	-9.83469
▁Bor	-9.83568
▁rođendan	-9.8357
▁loš	-9.83754
▁povijest	-9.83857
▁voditelj	-9.83913
▁narod	-9.83914
▁sastav	-9.83938
▁karijeri	-9.83972
val	-9.83975
▁ratn	-9.84211
▁tjelesn	-9.84226
per	-9.84244
▁gledati	-9.84301
▁moru	-9.84342
noj	-9.84362
▁ići	-9.84373
▁odličn	-9.8443
▁ći	-9.84434
▁potvrdio	-9.84443
▁sv	-9.84458
▁čine	-9.84499
▁potvrdil	-9.84512
▁Pred	-9.84528
▁Ri	-9.84563
▁naveden	-9.84563
▁naziv	-9.84574
▁moguć	-9.84593
▁dođe	-9.84597
▁požar	-9.84642
▁dijeli	-9.84866
▁Damir	-9.84926
▁super	-9.84949
▁priču	-9.84963
▁Mnogi	-9.85137
▁priopćenju	-9.85143
njak	-9.8515
▁Instagramu	-9.85154
▁nekom	-9.85161
▁želim	-9.85166
▁dati	-9.85201
▁volim	-9.85309
▁domaće	-9.85339
▁bavi	-9.85372
▁razdoblju	-9.85464
▁nadam	-9.85492
▁vijest	-9.85533
▁razliku	-9.85541
▁zemlja	-9.85574
▁francusk	-9.85645
▁Nov	-9.85697
▁Pe	-9.85721
▁poznati	-9.85723
stoj	-9.85773
▁Bit	-9.85797
▁objašnjava	-9.85822
▁napor	-9.85842
đa	-9.8588
▁navode	-9.85962
▁St	-9.86006
▁navija	-9.86018
▁vlasnik	-9.86041
tak	-9.86309
▁Be	-9.86318
šli	-9.86322
▁28	-9.86348
▁smije	-9.86373
▁ki	-9.86406
▁lijepo	-9.86429
▁Nova	-9.86432
▁stog	-9.86476
▁Splita	-9.86538
▁fotografija	-9.8656
▁dokaz	-9.86599
▁pi	-9.86639
▁br	-9.86751
▁36	-9.86806
▁prirodn	-9.86813
▁val	-9.86837
ry	-9.86853
▁Rad	-9.86876
▁noj	-9.86919
▁vodstvo	-9.86919
ent	-9.86922
▁školu	-9.86933
▁poručil	-9.86934
eš	-9.86953
▁Gu	-9.86994
▁komentirao	-9.87021
▁očito	-9.87038
▁brat	-9.87109
▁iste	-9.87158
▁500	-9.87193
▁modern	-9.87258
▁vidio	-9.87281
▁igraju	-9.87298
▁serije	-9.87351
▁status	-9.87391
▁izvijestil	-9.8743
▁moja	-9.87511
▁neko	-9.87538
▁rješenja	-9.8758
▁Kolik	-9.87656
▁bitno	-9.87663
javio	-9.87677
▁radnika	-9.87678
met	-9.8769
▁zgrade	-9.87758
▁borbi	-9.8786
prije	-9.88014
▁Lo	-9.88062
ron	-9.88081
▁nadzor	-9.88163
▁odr	-9.88182
▁Bijel	-9.8832
▁21.	-9.88323
▁činjenic	-9.88329
▁sukob	-9.88428
▁9.	-9.88434
res	-9.88436
▁Sam	-9.885
▁odgovorio	-9.88645
rs	-9.88648
dnoj	-9.88737
▁radu	-9.88739
▁Inače	-9.88779
▁rekord	-9.88831
▁čko	-9.88953
▁Iran	-9.89022
▁Is	-9.8923
▁centru	-9.8924
▁odnosi	-9.89247
▁voda	-9.89315
▁vjerujem	-9.89316
▁golova	-9.89317
▁slavi	-9.89325
▁rasta	-9.89333
▁dijel	-9.89372
op	-9.89411
kih	-9.89421
▁pronađen	-9.89508
▁Pot	-9.89615
uju	-9.89751
▁č	-9.89884
▁budućnost	-9.89916
▁gospodarsk	-9.89934
▁rok	-9.9005
▁imat	-9.90138
▁hitn	-9.90147
lov	-9.90174
▁nagradu	-9.90197
▁žensk	-9.90224
▁potencijaln	-9.90243
▁zatvora	-9.90259
anja	-9.90279
▁Milan	-9.90334
▁km	-9.90435
ic	-9.90467
▁Ot	-9.90508
▁poznato	-9.90515
▁kilograma	-9.90689
▁Kan	-9.90705
▁2019.	-9.90779
▁Među	-9.908
▁poruku	-9.90928
▁srca	-9.90932
▁objekt	-9.90992
▁lani	-9.91001
▁godišnj	-9.9104
▁tradicionaln	-9.9107
▁zaštitu	-9.91078
ard	-9.91079
▁ostvari	-9.91111
bl	-9.91144
:00	-9.91281
▁karijeru	-9.91293
mb	-9.91319
sku	-9.91373
▁Sveučilišt	-9.91373
▁18.	-9.91384
gan	-9.91429
▁počela	-9.91461
▁predstavi	-9.91493
▁policijsk	-9.92056
ist	-9.92062
▁pogledajte	-9.92114
▁razvoja	-9.92122
▁smatraju	-9.92148
▁Možemo	-9.92181
▁navijača	-9.9221
▁znati	-9.92247
▁njom	-9.92267
▁dovesti	-9.92456
▁uspješno	-9.9248
▁per	-9.9251
▁vratil	-9.92566
▁navečer	-9.92668
▁kategoriji	-9.92738
▁Bila	-9.92774
▁kon	-9.92787
▁istra	-9.92831
▁turnira	-9.92863
nce	-9.92903
▁htio	-9.92913
▁stranka	-9.92931
▁vremensk	-9.93059
▁boje	-9.93098
▁zakona	-9.93105
▁posjet	-9.93106
▁Super	-9.93112
▁aktualn	-9.93134
▁uhićen	-9.93202
fer	-9.93245
▁Bez	-9.9325
▁55	-9.93304
▁studenog	-9.93335
▁borbe	-9.93426
▁Mož	-9.93451
jem	-9.93545
▁stoljeća	-9.93547
▁nesreća	-9.93553
▁posljednji	-9.93694
▁lu	-9.93701
▁doni	-9.93752
▁uvjetima	-9.93752
iš	-9.93752
▁doba	-9.93906
▁programu	-9.93926
Tko	-9.93985
▁Ho	-9.94026
W	-9.94034
▁školi	-9.94041
▁Rijeci	-9.9406
▁grupe	-9.94109
▁Mal	-9.94168
▁osobno	-9.94211
izira	-9.94233
▁zlatn	-9.94282
▁Vladimir	-9.94285
▁odgovara	-9.94305
▁prednost	-9.9432
▁Ulic	-9.9447
▁jutro	-9.94601
▁medijsk	-9.94661
▁seks	-9.9468
▁slobodn	-9.94688
▁medije	-9.94731
▁ostvaril	-9.9474
▁konkurencij	-9.94775
▁otkriva	-9.94842
▁Mil	-9.94998
▁pala	-9.95038
▁donijeti	-9.95099
▁com	-9.95135
▁Co	-9.95141
▁isp	-9.95155
▁podijelil	-9.95243
ner	-9.95253
▁plasman	-9.95271
▁Tri	-9.95437
▁stati	-9.95439
▁brod	-9.95482
▁park	-9.95483
▁19.	-9.95499
▁Sjevern	-9.95532
▁an	-9.95588
▁Ustavn	-9.95589
▁ž	-9.95731
▁omiljen	-9.95772
▁igru	-9.9578
▁parlamentarn	-9.95784
▁poruka	-9.95888
▁vide	-9.95932
▁sredstava	-9.96019
▁organizacij	-9.96033
let	-9.96122
▁odjel	-9.96161
▁članova	-9.9625
▁poslu	-9.96262
▁iduć	-9.96266
▁usluga	-9.96296
▁podataka	-9.96362
▁Kor	-9.96371
▁lik	-9.96412
▁sadržaj	-9.9646
rije	-9.96532
▁Biden	-9.96542
▁svaka	-9.96634
▁zvijezda	-9.96698
▁standard	-9.96735
▁mjera	-9.96814
▁ba	-9.96845
▁vrsta	-9.96914
pri	-9.96945
▁desetak	-9.96973
▁blizu	-9.97025
▁Prošl	-9.97157
din	-9.97158
▁Kod	-9.97213
▁jedino	-9.97258
▁Ukrajine	-9.97278
▁južn	-9.97293
▁pojavi	-9.97296
▁Njihov	-9.97369
▁stotin	-9.97435
▁dobre	-9.97441
▁Val	-9.97475
▁zabran	-9.9749
adi	-9.97551
▁listi	-9.97593
▁umjeren	-9.97625
▁Nove	-9.97649
ment	-9.97704
▁trenutačn	-9.97813
▁djeci	-9.97839
▁vrhu	-9.98
▁muškarac	-9.9805
itelj	-9.98051
▁bolnice	-9.98057
▁38	-9.98094
▁veće	-9.98094
▁portal	-9.98242
▁vanje	-9.98274
▁lista	-9.98278
▁udruge	-9.98297
dar	-9.9833
▁Or	-9.98356
▁Stan	-9.98358
▁poziciju	-9.98361
▁koga	-9.9838
▁Kat	-9.98451
ff	-9.98455
▁podacima	-9.98462
▁13.	-9.98612
▁vrijedi	-9.98712
▁modn	-9.98759
rk	-9.98882
▁sudac	-9.98883
▁istom	-9.98906
▁promijeniti	-9.98925
▁mušk	-9.98951
▁nagrade	-9.99091
▁onim	-9.99102
▁nastavku	-9.99123
▁cijeni	-9.9913
▁Igor	-9.99139
svim	-9.99142
▁strana	-9.99197
eni	-9.99249
▁krug	-9.99286
▁djeluj	-9.99322
▁inicijativ	-9.99327
▁kuću	-9.99345
▁čist	-9.99388
▁spreman	-9.99405
▁putu	-9.99424
▁Ju	-9.99484
▁Donald	-9.99586
▁popis	-9.99606
▁članica	-9.99685
▁čki	-9.99707
▁Moj	-9.99712
▁pobijedio	-9.99762
▁al	-9.99797
▁održiv	-9.99807
▁Ukrajina	-9.99846
nes	-9.99856
▁y	-9.99864
▁profesionaln	-9.99978
▁profesor	-10.0006
▁odgovornost	-10.0007
▁postiga	-10.0011
▁umjetničk	-10.0012
▁istraživanja	-10.0013
▁Slaven	-10.0015
▁izme	-10.0018
▁Vr	-10.0019
ću	-10.002
▁14.	-10.0028
▁ljubavn	-10.0036
▁Unato	-10.0037
▁odbora	-10.0042
▁red	-10.0042
▁medijima	-10.0048
▁ulazi	-10.0049
kić	-10.0049
▁službe	-10.0059
▁pozornost	-10.0063
▁pozvao	-10.0063
▁postavljen	-10.0064
▁znatno	-10.0068
▁znanstven	-10.0086
▁negativn	-10.0088
rija	-10.0092
▁pravila	-10.0095
▁doprinos	-10.0096
roz	-10.0104
ber	-10.0107
▁29	-10.0108
▁vlade	-10.0116
▁kinesk	-10.0117
ven	-10.012
▁tip	-10.012
▁konačno	-10.0123
▁događaj	-10.0126
▁Mate	-10.0126
icu	-10.0127
▁Šibenik	-10.0129
▁slijedi	-10.0134
▁the	-10.014
▁znanja	-10.014
▁stupnjeva	-10.0142
▁prit	-10.0146
▁ustavn	-10.0146
▁nogomet	-10.0157
▁kvalitetn	-10.0158
ton	-10.0162
▁Ukrajinu	-10.0168
▁smislu	-10.0168
▁mreže	-10.0169
▁Dalić	-10.0176
▁prijatelja	-10.0177
▁riječima	-10.0184
▁premijera	-10.0185
▁Sp	-10.0191
▁dvoboj	-10.0202
▁trag	-10.0203
▁300	-10.0216
brzo	-10.0223
▁šire	-10.0224
▁uživa	-10.0225
▁Op	-10.0233
▁Fa	-10.0241
▁vina	-10.0242
▁udara	-10.0243
▁kuća	-10.0247
▁kratk	-10.026
▁pra	-10.0262
▁drži	-10.0263
▁ozbiljno	-10.0269
▁30.	-10.0273
▁dogoditi	-10.0275
▁skupini	-10.0281
▁Dragan	-10.0281
▁dijelov	-10.0285
lji	-10.0285
rati	-10.0293
▁postavi	-10.0295
▁filmu	-10.0301
▁situaciji	-10.0302
▁Davor	-10.0304
▁37	-10.0307
▁redovito	-10.0314
▁planu	-10.0326
▁star	-10.0326
▁politički	-10.0327
▁Pl	-10.0328
đen	-10.0329
▁Najbolj	-10.033
▁prostoru	-10.0331
▁roman	-10.0331
▁Ljudi	-10.0333
▁izuzetn	-10.0343
▁ratu	-10.0354
▁sljedeć	-10.0355
▁nagrada	-10.0359
▁ideja	-10.036
der	-10.0362
kog	-10.0368
▁porast	-10.0369
▁raste	-10.0384
▁vrhunsk	-10.0388
▁teret	-10.0389
▁predsjedničk	-10.0392
▁udari	-10.0395
ita	-10.0395
▁organizacije	-10.04
▁Tada	-10.0402
▁Zašt	-10.0404
▁vratar	-10.0404
▁nuklearn	-10.041
▁2018.	-10.041
▁seksualn	-10.0413
vije	-10.0413
▁najvećih	-10.0414
▁39	-10.0414
▁nastal	-10.0416
▁jezik	-10.0416
godišnja	-10.0421
▁poznata	-10.0427
▁vozilo	-10.043
▁riješiti	-10.0431
▁prednosti	-10.0446
por	-10.0458
▁usluge	-10.0464
▁Crven	-10.0464
▁proveden	-10.047
▁odnose	-10.0472
▁mre	-10.0474
▁pojavil	-10.0475
den	-10.0481
▁Kate	-10.0485
▁obično	-10.0487
▁nemam	-10.0495
▁kriv	-10.05
▁količin	-10.0501
min	-10.0505
▁snažn	-10.0511
▁temperature	-10.0511
▁slika	-10.0512
▁Portugal	-10.0517
▁područje	-10.0519
▁proizvodi	-10.0523
▁mijenja	-10.0524
▁čovjeka	-10.0526
▁unutarnj	-10.0529
▁48	-10.0538
▁regiji	-10.0546
▁građane	-10.0546
▁glavu	-10.0547
▁Srbiji	-10.0547
▁pret	-10.0554
▁gosti	-10.0559
▁roku	-10.0561
ant	-10.0566
▁filmsk	-10.0569
ly	-10.0574
▁dolazak	-10.0578
▁ch	-10.0591
▁manji	-10.0597
▁trud	-10.0604
▁najve	-10.061
▁turnir	-10.0612
▁pogodio	-10.0617
▁natječaj	-10.0632
▁skoro	-10.0632
▁napadu	-10.0633
▁dogodio	-10.064
nosti	-10.0641
▁pokušava	-10.0644
▁starije	-10.0652
▁udruga	-10.0657
▁šanse	-10.0657
▁ističu	-10.0657
▁granice	-10.066
▁ovisi	-10.0666
▁rodn	-10.067
▁sekundi	-10.0673
▁iduće	-10.0674
▁Petra	-10.0678
▁ostavi	-10.068
▁uključuje	-10.0685
▁stamben	-10.0685
▁uvjete	-10.0691
▁odlučil	-10.0692
▁najviš	-10.0694
▁srce	-10.0701
▁2024	-10.0711
▁Brazil	-10.0713
▁dakle	-10.0713
▁primjerice	-10.0719
▁nekog	-10.072
▁govoriti	-10.073
▁vjetar	-10.0741
▁Županijsk	-10.0743
▁razgovara	-10.0743
vod	-10.0751
▁znanosti	-10.0755
▁igrama	-10.0756
▁bl	-10.0757
▁proša	-10.0757
▁vodu	-10.076
é	-10.0769
▁2016.	-10.0769
▁Stoga	-10.0771
▁izjavil	-10.0773
▁Y	-10.0776
▁glavnog	-10.0781
▁provel	-10.0782
▁vijeća	-10.0794
▁dokument	-10.0795
▁Drugi	-10.0799
▁krvi	-10.0799
▁Nacionaln	-10.0802
▁drža	-10.0804
▁prodaje	-10.0807
▁slike	-10.0809
tječe	-10.0811
▁čije	-10.0817
nk	-10.0817
raz	-10.0821
▁veza	-10.0824
▁knjige	-10.0825
▁polovic	-10.0826
▁sudu	-10.0831
▁poruke	-10.0832
▁napravili	-10.0834
▁pravu	-10.0837
▁politika	-10.0841
▁alkohola	-10.0843
▁podatke	-10.0843
▁22.	-10.0853
▁Primorac	-10.0854
▁pišu	-10.0854
▁16.	-10.0855
▁zaklju	-10.086
▁upozorava	-10.0861
▁vijesti	-10.0862
▁nogometaš	-10.0865
▁Jako	-10.0865
▁nepoznat	-10.0869
▁kolo	-10.0872
▁savjet	-10.0881
NK	-10.0882
▁album	-10.0885
▁let	-10.0889
▁Go	-10.0893
▁pohvali	-10.0894
▁zajednica	-10.0898
▁lica	-10.0899
log	-10.0905
▁Zagrebačk	-10.0906
▁njegovo	-10.0906
▁navijači	-10.091
▁reprezentaciju	-10.0911
▁glumac	-10.0914
▁obavlja	-10.0918
▁raka	-10.0928
▁korištenje	-10.0929
▁sport	-10.0933
▁ostalo	-10.0939
esto	-10.0947
▁međutim	-10.0948
▁današnje	-10.0953
▁Bal	-10.0958
▁potencijal	-10.096
▁regionaln	-10.0961
▁izgubil	-10.0963
▁načelnik	-10.0965
▁zemljama	-10.0967
▁radovi	-10.0973
▁pratit	-10.0974
▁vole	-10.0975
▁tvrtki	-10.0975
▁topl	-10.0976
▁kreće	-10.0976
▁kamen	-10.0982
▁bolnicu	-10.0997
▁Ki	-10.0997
▁Pun	-10.0998
▁redatelj	-10.1011
▁lov	-10.1012
▁sumnja	-10.1014
▁pu	-10.1015
▁učenika	-10.1015
▁Može	-10.1017
▁savršen	-10.1018
▁igrače	-10.1022
▁Man	-10.1024
▁veljače	-10.1026
▁dubrovačk	-10.1026
▁zdravlja	-10.1028
▁ligi	-10.1036
▁tema	-10.1047
▁upit	-10.1047
▁kratko	-10.105
▁snagu	-10.1053
▁stavit	-10.1055
▁prolaz	-10.1059
▁morsk	-10.1068
).	-10.1072
▁uklju	-10.1077
ega	-10.1082
mar	-10.1089
▁istočn	-10.1105
▁Bel	-10.1106
▁službeno	-10.1108
▁svjetski	-10.1108
▁Instagram	-10.1108
▁Zadru	-10.1112
ata	-10.1119
▁odlask	-10.1121
▁doga	-10.1129
nac	-10.1137
▁ponos	-10.1149
▁pruža	-10.1154
▁Kon	-10.1157
▁boja	-10.1158
son	-10.1159
olog	-10.1173
vanje	-10.119
▁glumica	-10.1191
▁njem	-10.1193
pre	-10.1199
▁razinu	-10.1202
▁priznao	-10.1203
▁prometu	-10.1207
▁kra	-10.1213
▁spomenut	-10.1217
▁bori	-10.1221
▁stranici	-10.1224
▁novoj	-10.1224
▁Varaždinu	-10.1225
▁čast	-10.1227
▁dolask	-10.1231
▁savez	-10.1233
▁fotografiju	-10.1235
▁...'	-10.1245
ps	-10.1248
▁Varaždina	-10.1248
▁prošli	-10.125
▁naroda	-10.1254
▁detalje	-10.1259
▁KBC	-10.126
▁obranu	-10.126
▁započe	-10.1263
▁proizvodnje	-10.1267
▁Tim	-10.1269
▁uzrok	-10.127
▁fizičk	-10.1277
vor	-10.1277
▁dostupn	-10.1279
▁Hrvata	-10.1283
▁zahvali	-10.1283
▁City	-10.1284
▁stil	-10.1284
godišnje	-10.1285
▁noć	-10.1287
▁tržište	-10.1288
▁prijatelj	-10.129
▁obrani	-10.129
▁broju	-10.1298
▁vr	-10.1301
▁spoj	-10.1302
▁dres	-10.1304
▁američki	-10.1309
▁Su	-10.1309
▁položaj	-10.1318
▁zemlju	-10.1318
▁David	-10.1319
▁objave	-10.1321
▁Euro	-10.1322
▁prijevoz	-10.1326
▁suprug	-10.1329
▁polu	-10.1334
▁Europ	-10.1338
▁vrste	-10.1339
▁nastavio	-10.1344
▁Festival	-10.1348
▁kvalitete	-10.1354
▁Moram	-10.1364
▁širi	-10.1364
▁vidjel	-10.1365
▁zastupnik	-10.1368
nc	-10.137
▁autor	-10.1372
▁značajno	-10.1387
▁strah	-10.1389
▁stanovnika	-10.1391
▁nadležn	-10.1401
▁Kup	-10.1405
▁Nis	-10.1417
▁stavi	-10.1418
▁građanima	-10.1421
▁Bivš	-10.1432
▁razvoju	-10.1435
▁vatrogasn	-10.1438
▁osjeća	-10.1439
▁platformi	-10.1445
▁visoko	-10.1446
Š	-10.1454
▁ravnatelj	-10.1462
▁sna	-10.1465
▁španjolsk	-10.1467
▁favorit	-10.1468
▁festivala	-10.1469
ll	-10.1473
▁želimo	-10.1477
▁zastupnika	-10.1477
▁tijeku	-10.1478
sc	-10.1489
▁pobjednik	-10.1498
▁večeras	-10.15
▁lije	-10.1501
▁nogometa	-10.1509
▁Tr	-10.1516
▁odvija	-10.1518
▁motor	-10.1518
▁primi	-10.1519
ker	-10.1528
▁Most	-10.1529
▁povratk	-10.153
▁stiže	-10.1531
land	-10.1532
▁Najviš	-10.1537
▁župan	-10.1547
▁Jan	-10.1548
▁para	-10.1556
▁fa	-10.1559
št	-10.1567
▁Srbija	-10.1579
▁vjeruje	-10.1582
ena	-10.1586
▁festival	-10.1589
▁Prva	-10.1589
ziv	-10.1598
▁čić	-10.1599
▁Ljubav	-10.1611
▁Han	-10.1611
▁rub	-10.1612
▁prilike	-10.1615
▁ocjen	-10.1615
▁povećan	-10.1617
kar	-10.1618
▁pogodak	-10.1618
▁reprezentativac	-10.162
▁izvanredn	-10.162
▁gore	-10.1625
▁Os	-10.1626
slav	-10.1629
▁čin	-10.163
▁kupa	-10.163
▁pogon	-10.1632
▁gradi	-10.1634
▁porez	-10.164
▁tajnik	-10.164
▁državni	-10.1648
▁štetu	-10.1651
▁razdoblje	-10.1651
▁isključivo	-10.1651
▁"...	-10.1654
▁nekretnine	-10.1663
▁ulice	-10.1669
▁satima	-10.167
▁potporu	-10.167
▁ulaganja	-10.1672
▁košta	-10.1676
▁ubijen	-10.1676
▁natjecanje	-10.1681
▁transfer	-10.1681
▁odlučila	-10.1684
▁sudjelova	-10.1685
▁predsjednica	-10.1693
▁Trumpa	-10.1695
▁cesti	-10.1701
▁krenuo	-10.1704
▁objasnil	-10.1706
▁kontakt	-10.1707
▁Pet	-10.1707
▁sportski	-10.1712
▁posvećen	-10.1712
▁komentiral	-10.1715
▁zavod	-10.1716
▁zabilježen	-10.1718
▁trening	-10.1719
▁večeri	-10.1721
▁incident	-10.1724
▁domaćin	-10.1725
To	-10.1732
▁vrh	-10.1736
▁cijenu	-10.1736
▁povratak	-10.1745
▁stručnjak	-10.1747
▁promjen	-10.175
▁snima	-10.175
▁tehničk	-10.1759
▁pr	-10.1763
▁dizajn	-10.1764
▁Hrvati	-10.1764
rd	-10.1768
▁Vučić	-10.1774
▁Perišić	-10.1775
▁postaj	-10.1782
▁putovanja	-10.179
▁pot	-10.1793
▁stopa	-10.1796
▁borbu	-10.1806
▁We	-10.1812
ub	-10.1815
▁dogovor	-10.1818
prilike	-10.1823
▁hranu	-10.1837
▁Ligi	-10.1837
▁uključen	-10.1837
pis	-10.1839
▁širok	-10.1839
bor	-10.184
▁prodaju	-10.1842
▁županija	-10.1846
▁potres	-10.185
▁završiti	-10.1851
▁prijenos	-10.1854
▁generacije	-10.1861
▁komunikacij	-10.1862
▁vikend	-10.1863
▁suradnju	-10.1868
▁Harris	-10.1868
▁razine	-10.1872
▁svakodnevno	-10.1879
▁napadač	-10.1881
▁glazbe	-10.1889
evi	-10.1889
▁smješten	-10.1891
nuo	-10.1894
▁partnera	-10.1896
▁nastavak	-10.1899
▁Danijel	-10.19
▁obrazovanja	-10.19
▁počeli	-10.1902
▁pored	-10.1903
bar	-10.1906
▁ugovora	-10.1908
pustiti	-10.1908
▁podržava	-10.191
▁razvija	-10.1911
▁trend	-10.1914
0.000	-10.1916
▁naziva	-10.1919
▁uzima	-10.1929
▁dovel	-10.1937
▁miris	-10.1939
▁lažn	-10.1944
▁jednako	-10.1959
▁nacija	-10.196
▁zadnji	-10.1963
▁či	-10.1963
▁Marijan	-10.1971
▁govoril	-10.1974
đu	-10.1975
▁oblik	-10.1979
▁preuze	-10.1983
▁lokacija	-10.1988
▁radili	-10.1989
nj	-10.1992
▁nsko	-10.1993
▁nažalost	-10.1994
▁normalno	-10.1996
▁pregleda	-10.2003
▁podijeli	-10.2012
▁Pr	-10.2013
▁zlo	-10.2019
▁29.	-10.2021
▁činjenica	-10.2024
▁servis	-10.2026
▁ar	-10.2032
▁150	-10.2034
▁Ver	-10.2037
▁europski	-10.2039
▁svakodnevn	-10.2046
ty	-10.2054
▁dobit	-10.2056
▁pažnju	-10.2057
▁oružja	-10.2058
▁usmjeren	-10.2058
▁pomaže	-10.2059
▁narodn	-10.2061
▁zapovjednik	-10.207
šla	-10.208
▁top	-10.2086
▁Zlatk	-10.2087
▁siguran	-10.209
▁klimatsk	-10.209
▁živjeti	-10.2091
▁središt	-10.2093
▁Vu	-10.2099
▁75	-10.2104
▁spor	-10.2107
▁dnevno	-10.2121
kan	-10.2121
▁gostovanj	-10.2123
▁potpor	-10.2126
▁Rusije	-10.2126
▁nevjerojatn	-10.2132
▁ulja	-10.2132
▁kazne	-10.2135
▁odvjetnik	-10.2139
zu	-10.2142
▁PU	-10.2148
▁ministra	-10.2149
▁prihod	-10.215
▁šću	-10.2154
▁zimsk	-10.2155
▁važan	-10.2156
▁rezultati	-10.2161
▁kvalitetu	-10.2162
▁vlast	-10.2162
▁anti	-10.2166
vno	-10.2174
vanja	-10.2183
▁recept	-10.2187
▁odlazi	-10.2187
▁upozori	-10.2188
▁Tešk	-10.2189
▁prijateljima	-10.2189
stvo	-10.2189
▁uputi	-10.2191
▁osobama	-10.2192
▁agencija	-10.2192
ator	-10.2198
▁samog	-10.2198
▁obliku	-10.2204
▁proračun	-10.2207
▁smrt	-10.2207
▁smještaj	-10.2209
▁sir	-10.2212
▁stavlja	-10.2213
▁priopćil	-10.2214
ličan	-10.2218
▁odgovorn	-10.2218
▁zdravstva	-10.2219
▁preminuo	-10.2219
▁djeteta	-10.2221
▁materijal	-10.2224
▁ć	-10.2228
▁proda	-10.2231
ito	-10.2232
▁pacijent	-10.2233
▁Ke	-10.2238
ciju	-10.224
▁otpada	-10.2241
▁Čak	-10.2251
▁postane	-10.2252
▁središnj	-10.2252
▁Japan	-10.2252
▁cesta	-10.2253
▁kazneno	-10.2254
▁demokratsk	-10.2257
▁Dubrovniku	-10.226
▁umjetnosti	-10.2263
nić	-10.2265
▁Ustav	-10.2268
▁ulaz	-10.2268
▁završetk	-10.2272
gen	-10.2274
▁vikenda	-10.2277
eka	-10.2278
▁Men	-10.2283
▁očekivati	-10.2284
▁nasilja	-10.2285
▁pripreme	-10.2294
▁saveza	-10.2298
ez	-10.2299
▁uređaj	-10.2307
▁turizma	-10.2309
▁Poljudu	-10.2313
▁važn	-10.2313
▁Sjedinjen	-10.2317
▁projekata	-10.2317
▁2017.	-10.2317
▁najpoznatij	-10.2317
▁prioritet	-10.2317
▁kiša	-10.2319
▁Njemačka	-10.2329
mjer	-10.2329
▁organiziran	-10.2333
▁Dubrovnika	-10.2336
▁zatvor	-10.2342
▁Isto	-10.2346
tal	-10.2348
▁policiji	-10.2351
▁pritisak	-10.2351
▁fazi	-10.2352
vao	-10.2354
▁muškaraca	-10.2358
▁odnosa	-10.2362
▁26.	-10.2369
▁trak	-10.237
▁ogromn	-10.237
▁ruski	-10.2374
▁Fran	-10.2377
▁Mu	-10.238
▁zadovoljni	-10.238
▁humanitarn	-10.2383
▁dvoran	-10.2385
▁Fr	-10.2385
▁otvara	-10.2392
▁Hrvatskom	-10.2397
ow	-10.2405
▁če	-10.2405
▁novčan	-10.2406
▁nositi	-10.2411
▁vlasništvu	-10.2416
▁mišljenje	-10.2416
▁zaključil	-10.2416
▁unutrašnjost	-10.242
▁šut	-10.2421
▁značaj	-10.2422
▁odlično	-10.2425
▁42	-10.2427
grad	-10.2427
▁prima	-10.2429
lar	-10.2429
▁korist	-10.2433
▁vatrogasci	-10.2435
▁stru	-10.2436
bacio	-10.2438
▁prijatelji	-10.2441
sni	-10.2443
▁Njezin	-10.245
▁kupiti	-10.2451
▁bazen	-10.2456
▁okolnosti	-10.2456
▁vezu	-10.2457
▁poena	-10.2464
▁struktur	-10.2471
▁Reka	-10.2479
▁pita	-10.248
▁Dnevnik	-10.2483
▁platiti	-10.2483
▁borba	-10.2484
▁zadarsk	-10.2485
▁pogledati	-10.2485
▁Brod	-10.2489
▁ista	-10.2491
▁gradova	-10.2491
▁lj	-10.2497
▁San	-10.2501
▁staln	-10.2502
▁korisnika	-10.2503
▁cijelog	-10.2506
▁međuvremenu	-10.2516
▁suradnje	-10.2516
▁pobjedom	-10.2516
▁obi	-10.2525
▁400	-10.2527
▁studija	-10.2528
▁opcija	-10.2532
čni	-10.2532
▁Jelen	-10.2534
▁Facebook	-10.2534
▁simbol	-10.2538
▁roditelja	-10.2538
▁liste	-10.2539
▁utjecat	-10.2542
▁ing	-10.2545
▁srednje	-10.2545
ns	-10.2545
ene	-10.2545
▁Dražen	-10.255
nije	-10.2558
▁Bosn	-10.256
▁Matij	-10.2567
▁Mari	-10.2567
▁Kar	-10.2567
▁UN	-10.2577
▁Kom	-10.2581
▁porezn	-10.2582
▁sobom	-10.2585
▁četvrti	-10.2589
čku	-10.259
▁proveo	-10.2591
▁emisiji	-10.2593
▁udaljen	-10.2595
▁Sun	-10.2596
▁kreativn	-10.2599
▁osm	-10.2599
▁papir	-10.2601
▁Hu	-10.2607
▁prijeti	-10.2608
▁šir	-10.2608
▁stručnjaci	-10.261
▁sudsk	-10.2616
▁Lasagna	-10.2617
▁gospodarstva	-10.2617
▁gostima	-10.262
▁Doda	-10.2621
▁spomen	-10.2628
▁funkcionira	-10.2633
▁ponašanje	-10.2634
▁Beogradu	-10.2636
▁napo	-10.2638
ljan	-10.2638
▁igara	-10.2651
▁knjiga	-10.2652
▁karton	-10.2652
▁razred	-10.2655
▁serija	-10.2657
▁34	-10.2664
▁(2	-10.2664
▁služi	-10.2665
▁sukoba	-10.2668
▁and	-10.2688
▁mobitel	-10.2688
▁interesa	-10.2689
▁pos	-10.269
▁He	-10.2695
▁englesk	-10.2706
▁kanal	-10.2707
▁Zadra	-10.2714
veli	-10.2714
▁šibensk	-10.2719
▁državi	-10.2721
▁Nadam	-10.2724
▁suprugom	-10.2728
▁23.	-10.2735
kovi	-10.2738
▁stranu	-10.274
▁rijetk	-10.2742
▁ostvariti	-10.2744
▁nice	-10.2744
▁san	-10.2752
▁koševa	-10.2754
▁kampanje	-10.2754
▁zrakoplov	-10.2755
▁podrške	-10.2756
ley	-10.2756
▁ekonomsk	-10.2758
▁Željko	-10.2764
▁korištenj	-10.2764
▁stadionu	-10.2777
▁sporta	-10.2778
▁pru	-10.2778
tre	-10.278
▁Paul	-10.2781
▁Sandr	-10.2788
▁slovensk	-10.2788
▁neto	-10.2789
▁proizvode	-10.2791
▁kolege	-10.2797
▁podru	-10.2799
▁nekad	-10.2801
▁muškarca	-10.2807
dva	-10.2808
ft	-10.2811
▁posve	-10.2816
▁rano	-10.2816
▁igrali	-10.2824
▁pokreta	-10.2828
▁ispričal	-10.2837
▁vožnje	-10.2839
▁shvati	-10.2841
▁poboljša	-10.2849
20	-10.2853
▁ispričao	-10.2862
ell	-10.2864
▁britansk	-10.2868
▁Gazi	-10.287
▁kar	-10.288
▁grupa	-10.2883
▁kap	-10.2884
▁kaznu	-10.2889
▁osobu	-10.2892
▁Klub	-10.2892
▁misle	-10.2892
▁slobodno	-10.2896
▁vlak	-10.2897
▁osuđen	-10.2901
▁svu	-10.2902
▁sc	-10.2909
▁javni	-10.2911
▁komentara	-10.2914
▁vidimo	-10.2923
▁25.	-10.2924
pustio	-10.2924
▁bol	-10.2924
▁duboko	-10.2929
▁novinar	-10.2929
▁GALERIJA	-10.2932
▁pjevačica	-10.2933
▁pokazat	-10.2941
▁domać	-10.2943
▁Dom	-10.2945
▁energiju	-10.2945
▁uvjeren	-10.2947
▁proći	-10.295
▁Sud	-10.2957
prav	-10.2959
▁braku	-10.296
▁javil	-10.2961
▁očekuju	-10.2962
▁banke	-10.2963
žan	-10.2968
▁Sport	-10.2969
čev	-10.2973
▁65	-10.2976
nos	-10.2982
▁SP	-10.2982
▁pripremi	-10.2983
▁stres	-10.2984
▁Ca	-10.2993
▁talent	-10.2996
▁Južn	-10.2997
▁domaći	-10.2998
▁blisk	-10.3
▁Manche	-10.3001
▁morate	-10.3003
▁Turudić	-10.3011
pt	-10.3018
▁cr	-10.3019
▁sjedi	-10.3022
▁glumc	-10.3025
niste	-10.3025
▁tt	-10.3026
▁objavili	-10.3028
▁vidim	-10.3032
▁informacijama	-10.3035
▁otići	-10.3037
▁priličn	-10.3038
▁domu	-10.304
ivi	-10.3056
▁Dobro	-10.3062
▁Nikad	-10.3063
▁ća	-10.3065
▁prekrasn	-10.307
▁Met	-10.3073
▁službenici	-10.3073
▁drugima	-10.3077
▁istoku	-10.3081
▁?"	-10.309
▁šteta	-10.3093
▁28.	-10.3095
▁namijenjen	-10.31
▁izvrsn	-10.3102
▁građevinsk	-10.3103
▁kontrolu	-10.3103
▁vremenom	-10.3103
▁kvar	-10.3104
▁man	-10.3104
▁opasn	-10.3107
▁najavil	-10.3108
▁Ed	-10.3109
▁poduzetnik	-10.311
▁rukama	-10.311
▁smanjenje	-10.3112
▁stradal	-10.3114
▁znali	-10.3115
▁svira	-10.3118
▁Udrug	-10.312
▁podaci	-10.3121
▁Fi	-10.3124
▁Cha	-10.3125
▁kompanija	-10.3128
▁izvijesti	-10.3132
▁Italije	-10.3138
▁Malo	-10.3145
▁parlament	-10.3146
jav	-10.3148
rad	-10.3151
▁prijateljsk	-10.3161
▁dokaza	-10.3161
▁akcije	-10.3163
▁predstavnici	-10.3168
▁pokrenut	-10.317
▁ekipe	-10.3171
▁element	-10.3174
▁ispunjen	-10.3174
▁web	-10.3174
▁Sva	-10.318
▁ploč	-10.3187
▁otvoreno	-10.3187
▁konkretn	-10.3188
▁dobije	-10.319
▁stana	-10.3192
▁Inter	-10.3199
▁vojske	-10.32
▁namjer	-10.32
▁dvoj	-10.3206
▁upoznal	-10.3207
▁izgubili	-10.3208
▁publiku	-10.321
▁varaždinsk	-10.321
▁Posao	-10.321
▁afer	-10.3212
▁nekretnina	-10.3212
▁tjedana	-10.3217
malo	-10.3219
dra	-10.322
▁razgovarati	-10.3227
▁Tin	-10.3227
▁24.	-10.323
▁Ili	-10.3233
▁putnika	-10.3234
▁vid	-10.3238
▁klupi	-10.3246
▁Cijel	-10.3247
▁rezultata	-10.3248
▁glasa	-10.3251
▁priznal	-10.3253
▁naglašava	-10.3255
▁poziciji	-10.3257
▁upisa	-10.3258
▁Mr	-10.3259
▁mjeri	-10.3261
nski	-10.3262
▁Dodaj	-10.3267
▁kriminal	-10.327
▁pomalo	-10.3273
▁Bog	-10.3274
▁nica	-10.3279
▁zločin	-10.3281
▁televizijsk	-10.3282
▁ishod	-10.3282
▁Cilj	-10.3287
▁nesreći	-10.3288
▁prolazi	-10.3292
▁dali	-10.3293
▁Boris	-10.3294
▁upozna	-10.3297
▁onom	-10.3304
▁rastu	-10.3316
▁prazn	-10.3316
▁organizacija	-10.3318
▁stranačk	-10.3319
▁gradnj	-10.3319
▁razlike	-10.3321
▁vala	-10.3321
▁duh	-10.3323
▁jte	-10.3324
avi	-10.3326
▁Vjerujem	-10.3326
▁institucije	-10.3328
▁vrat	-10.3328
▁Film	-10.3329
▁jezika	-10.3335
▁Milanovića	-10.3336
▁kla	-10.3338
▁nestal	-10.3339
▁pravil	-10.3345
▁prof	-10.3352
▁pjesma	-10.3353
▁čitav	-10.3354
▁Đ	-10.3355
▁Rusiji	-10.3356
▁euro	-10.3356
▁Nažalost	-10.3357
▁44	-10.3361
▁bolest	-10.3363
▁drugačije	-10.3365
▁alat	-10.3366
▁posljedica	-10.3368
demo	-10.337
▁Sin	-10.3374
▁bicikl	-10.3375
▁Radić	-10.3377
gor	-10.3379
ević	-10.3383
▁pobijediti	-10.3385
▁pušten	-10.3391
▁datum	-10.3393
RA	-10.3393
▁otišl	-10.3393
▁ozljeda	-10.3394
▁46	-10.3399
▁financira	-10.3403
▁prikazuje	-10.3404
▁planiran	-10.3404
▁test	-10.3408
▁akcija	-10.3411
▁posljedice	-10.3417
▁zaposlen	-10.3418
čke	-10.3422
▁Raz	-10.3427
▁Poznat	-10.3428
▁pozval	-10.3428
▁navel	-10.3428
▁kiše	-10.3428
▁poljoprivredn	-10.3434
▁En	-10.3435
▁Vel	-10.3445
▁Mur	-10.3445
▁Ber	-10.3454
▁Ujedinjen	-10.3464
▁nedjelje	-10.3464
▁desetljeća	-10.3465
▁usred	-10.3465
▁igri	-10.3472
▁mala	-10.3476
▁upravljanja	-10.3483
▁izda	-10.3484
▁dvor	-10.3489
▁ponavlja	-10.3489
▁proizvodnju	-10.3496
▁dje	-10.3496
▁kolega	-10.3499
▁vojska	-10.3501
▁sol	-10.3502
▁ulozi	-10.3502
ast	-10.3505
▁Severin	-10.3509
▁nik	-10.3512
▁dječj	-10.3515
▁sunčano	-10.3516
▁odbor	-10.3518
▁razmišlja	-10.3519
▁smanjit	-10.352
▁govor	-10.352
▁Španjolska	-10.3523
▁profil	-10.3527
▁cestama	-10.3527
▁šta	-10.3531
▁Kla	-10.3532
▁zakonsk	-10.3535
▁Znam	-10.3538
▁tržišta	-10.3538
▁kompleks	-10.3538
▁trgovine	-10.3539
▁zabavn	-10.3539
▁protu	-10.3539
▁glavi	-10.3541
▁vojnika	-10.3543
▁zaštiti	-10.3543
▁Petar	-10.3545
▁motiv	-10.3547
▁pas	-10.3547
▁Nikol	-10.3548
▁Dinamov	-10.3553
▁Put	-10.3556
▁bolj	-10.3568
▁Madrid	-10.3571
▁Dinamu	-10.3575
▁snimke	-10.3576
▁naime	-10.3579
▁predstavnik	-10.358
▁putovanje	-10.358
▁kuna	-10.3581
▁razgovoru	-10.3582
▁male	-10.3582
▁31	-10.3585
▁opasnosti	-10.3586
▁naslova	-10.3586
▁saborsk	-10.3594
▁Wi	-10.3594
▁božićn	-10.3602
▁poreza	-10.3613
▁definitivn	-10.3613
▁reform	-10.3613
▁prirode	-10.3613
▁kut	-10.3614
liko	-10.3617
▁aktivn	-10.3619
▁potrebna	-10.3621
▁svjesni	-10.3622
▁hotela	-10.3632
▁//	-10.3633
▁Va	-10.3642
▁prijave	-10.365
▁redovn	-10.3651
▁lak	-10.3652
▁kćeri	-10.3655
▁avion	-10.3664
▁publika	-10.3667
▁fizi	-10.3667
▁podrška	-10.3668
▁Svaki	-10.3671
▁krugu	-10.3679
▁OVDJE	-10.3688
▁restoran	-10.3689
▁izabran	-10.3694
▁stranicama	-10.3702
▁Uprave	-10.3704
▁zgrada	-10.3705
ivanje	-10.3719
▁stanova	-10.3725
▁HNS	-10.3726
▁optužnic	-10.3726
▁poluvremenu	-10.3726
▁Bak	-10.3727
▁Stjepan	-10.3728
nija	-10.3729
len	-10.3729
▁troje	-10.3731
▁razvod	-10.3732
▁sastoj	-10.3733
▁doktor	-10.3736
▁bolja	-10.3738
▁Sel	-10.3739
▁!'	-10.3743
▁najčešće	-10.3744
▁dvojic	-10.3751
:30	-10.376
▁Van	-10.3762
▁zamjenik	-10.3763
▁politiku	-10.3766
▁Zapad	-10.3766
sen	-10.3768
▁epizod	-10.3769
▁sluša	-10.3771
▁izazval	-10.3772
▁str	-10.3772
cy	-10.3773
▁emotivn	-10.3779
▁stanja	-10.378
▁granica	-10.3783
▁vatren	-10.3783
▁uživati	-10.3783
▁duš	-10.3784
▁Španjolske	-10.3785
▁želite	-10.3791
▁bur	-10.3791
bil	-10.3795
▁uvjet	-10.3796
▁strijelac	-10.3801
▁zadatak	-10.3802
▁prem	-10.3803
tvor	-10.3804
▁napomenu	-10.3808
▁slobodna	-10.381
pro	-10.3811
▁sposobnosti	-10.3812
▁vodil	-10.3813
▁Vuk	-10.3813
▁proglašen	-10.3814
▁tursk	-10.3816
rez	-10.3818
▁odgoj	-10.383
▁iskoristi	-10.383
▁Osijeku	-10.3832
▁iskren	-10.3833
▁povjerenje	-10.3833
▁agencije	-10.3838
▁sustavu	-10.3838
▁natjecanju	-10.384
▁skupštin	-10.384
▁seriji	-10.3842
▁dosadašnj	-10.3844
▁58	-10.3847
▁vodom	-10.3848
▁slatk	-10.385
ovjek	-10.3858
▁okus	-10.3859
▁Osijeka	-10.3861
▁odlazak	-10.3861
▁svlada	-10.3863
▁suočava	-10.3863
▁hval	-10.3866
▁ničk	-10.3869
▁Njemačke	-10.3871
gar	-10.3874
▁optu	-10.3876
▁John	-10.3877
▁vama	-10.3878
▁rujnu	-10.3878
▁Godin	-10.3879
sno	-10.388
▁rasporedu	-10.388
▁čelu	-10.388
▁scenarij	-10.3881
Ovo	-10.3882
▁noćn	-10.3884
▁mreža	-10.3895
▁osigurat	-10.3897
▁želja	-10.39
▁Maksimiru	-10.3902
▁istrage	-10.3904
▁pokrenul	-10.3906
▁konačn	-10.3914
▁civiln	-10.3916
▁preostal	-10.3917
▁31.	-10.3923
irati	-10.3925
▁drago	-10.3925
▁uprava	-10.3926
▁proračuna	-10.3931
▁čka	-10.3933
▁vrt	-10.3934
▁Lovr	-10.3936
▁klubova	-10.3936
▁otvaranj	-10.3938
▁div	-10.3939
▁otkrili	-10.3945
▁jaja	-10.3953
▁danima	-10.3954
▁publike	-10.3955
▁jutarnj	-10.3955
▁djecom	-10.3956
▁scene	-10.3956
▁krv	-10.3957
▁en	-10.396
tić	-10.3961
▁djevojka	-10.3962
▁ostalog	-10.3963
▁sinoć	-10.3965
▁Autor	-10.3965
▁skupa	-10.3966
▁Sch	-10.397
▁osiguran	-10.397
▁prošlosti	-10.3974
▁spava	-10.3981
▁Posebno	-10.3982
▁njihovo	-10.3989
▁zaštitn	-10.3989
▁opasnost	-10.3992
TA	-10.3994
▁mreži	-10.3995
▁dojam	-10.3995
▁pogodil	-10.3997
▁smanji	-10.4001
▁odigral	-10.4003
▁der	-10.4005
▁osvojili	-10.4006
▁završn	-10.4006
izam	-10.401
▁oči	-10.4011
▁krov	-10.4014
▁nositelj	-10.4018
▁suvremen	-10.4021
▁Em	-10.4025
▁43	-10.4027
▁tehnološk	-10.4033
▁Križevci	-10.4033
▁Tomašević	-10.4033
▁kazna	-10.4033
▁prozor	-10.4035
▁ča	-10.4036
▁Francuska	-10.4037
▁klasičn	-10.4038
▁sigurni	-10.405
▁Marka	-10.4051
▁27.	-10.4053
▁Igra	-10.4062
▁politi	-10.4064
▁radimo	-10.4066
▁emisije	-10.4066
▁nici	-10.4067
▁helikopter	-10.4072
▁klupsk	-10.4072
▁kriterij	-10.4072
▁osvojen	-10.4072
▁doživjel	-10.4072
▁štrajk	-10.4072
▁kućn	-10.4072
▁Izvor	-10.4075
▁nosil	-10.4077
▁49	-10.4078
▁trgovačk	-10.4081
▁otoku	-10.4082
▁mlađ	-10.4084
▁Baš	-10.4093
▁mr	-10.4094
▁autobus	-10.4096
▁alkohol	-10.4097
▁pao	-10.4097
▁mama	-10.4099
▁usporedb	-10.4111
▁promocij	-10.4111
▁6,	-10.4112
▁hladn	-10.4113
▁Zna	-10.4113
▁proizvod	-10.4116
▁izmjen	-10.4118
vukao	-10.412
▁zanimljivo	-10.4124
▁postavlja	-10.4127
▁prst	-10.4128
▁gostiju	-10.413
▁izrad	-10.4136
sel	-10.414
▁Dana	-10.4144
▁ponudu	-10.415
▁Najveć	-10.415
▁kruh	-10.4151
▁ekološk	-10.4151
▁poticaj	-10.4154
▁valja	-10.4154
.30	-10.4156
▁koncerta	-10.4157
▁47	-10.4157
ny	-10.4157
▁njegovi	-10.4157
▁showa	-10.4163
▁Odluk	-10.4163
▁tvornic	-10.4167
▁komad	-10.4174
Za	-10.4182
▁prvim	-10.4183
▁41	-10.4186
▁austrijsk	-10.419
▁tzv	-10.419
▁hotel	-10.4192
▁izvedb	-10.4193
▁pjevač	-10.4196
▁Gra	-10.4199
▁njihovi	-10.4199
▁reakcija	-10.4199
▁rang	-10.42
▁kandidatkinj	-10.4202
▁kraljevsk	-10.4203
▁otoka	-10.4204
eri	-10.4207
vlja	-10.4211
▁sjajno	-10.4212
▁dužnosti	-10.4213
▁sla	-10.4215
▁rak	-10.4216
▁Park	-10.4219
ret	-10.422
▁poslal	-10.4225
▁rob	-10.4225
▁Sv	-10.4226
▁Takv	-10.423
▁Beroš	-10.423
▁čitatelj	-10.4231
▁600	-10.4236
▁ljiv	-10.4239
▁sastanak	-10.4241
▁med	-10.4242
zvati	-10.4249
▁žrtve	-10.4249
▁sporazum	-10.425
▁Kal	-10.4255
▁američke	-10.4257
▁post	-10.4259
▁projekte	-10.4262
▁ovogodišnje	-10.4264
▁stari	-10.4267
▁regije	-10.4269
▁2015.	-10.4269
▁operacije	-10.427
▁chef	-10.427
▁glumi	-10.427
▁videu	-10.4273
njem	-10.4277
▁razlika	-10.4278
▁linija	-10.4283
▁osiguranje	-10.4283
▁temu	-10.4285
▁svjedoči	-10.429
▁značajn	-10.4291
▁soli	-10.4292
▁sunčan	-10.4295
▁ulje	-10.4296
▁terena	-10.4301
▁pogleda	-10.4302
▁unaprijed	-10.4309
▁mrežu	-10.4309
▁Gordan	-10.431
▁zbor	-10.4311
▁obrana	-10.4316
▁Ol	-10.4316
▁postav	-10.4319
▁linije	-10.4324
▁autocest	-10.4326
▁kome	-10.4327
nline	-10.434
▁sektor	-10.4345
▁sudaca	-10.4346
▁karakter	-10.4349
▁prekršaja	-10.4353
ovac	-10.4355
▁igračima	-10.4361
las	-10.4367
▁gradonačelnika	-10.4368
▁Facebooku	-10.4369
▁reakcije	-10.4371
▁podsjeti	-10.4372
▁pametn	-10.4373
▁Joe	-10.4374
▁okoliš	-10.4375
▁Europsko	-10.4375
▁buk	-10.4376
▁tehnologije	-10.4376
▁kg	-10.4377
▁5,	-10.4378
▁izlazi	-10.4382
▁vozača	-10.4384
zni	-10.4386
▁odrasl	-10.439
▁Utakmic	-10.439
▁komunaln	-10.439
▁tijelu	-10.439
▁masovn	-10.439
▁hrana	-10.4391
▁Areni	-10.4392
▁daljnje	-10.4407
▁nekoga	-10.4407
▁većinu	-10.441
▁Pol	-10.442
▁meč	-10.4421
vući	-10.4421
▁otvorio	-10.4424
▁show	-10.4429
▁stadion	-10.4429
▁Zdravlje	-10.4431
▁živjel	-10.4436
port	-10.4436
▁York	-10.4443
▁šok	-10.4445
▁kli	-10.4452
izma	-10.446
▁mira	-10.4466
▁dubok	-10.4469
_	-10.4469
▁Lan	-10.447
▁znate	-10.4471
dalmacija	-10.4471
vat	-10.4474
▁okuplja	-10.4482
▁Har	-10.4482
▁slično	-10.4483
▁vjerovati	-10.4485
rić	-10.4486
▁tima	-10.4488
▁telefon	-10.4491
▁mjesečn	-10.4495
▁upravljanje	-10.4502
▁pronašli	-10.4508
▁odabir	-10.4513
▁zid	-10.4514
▁roditeljima	-10.4518
▁dobri	-10.4519
▁prav	-10.4525
▁goste	-10.453
▁sestra	-10.453
▁željel	-10.4532
▁održavanj	-10.4536
▁derbi	-10.4537
▁Ci	-10.4537
▁cijelo	-10.4541
▁dogodi	-10.4546
▁nastavi	-10.4546
▁ovisno	-10.4548
▁Ministar	-10.4551
▁mirovinu	-10.4553
▁predvodi	-10.4553
▁sre	-10.4553
▁rješavanj	-10.4553
▁izjave	-10.4554
▁sceni	-10.4554
▁utrke	-10.4555
▁kategorije	-10.4558
▁pritvor	-10.4558
▁članic	-10.4562
▁događaju	-10.4566
▁htjel	-10.4566
▁Hval	-10.4566
▁mjestima	-10.4567
čka	-10.4569
▁Novak	-10.4569
▁crveni	-10.4573
▁provesti	-10.4574
▁postali	-10.4576
▁novinarima	-10.4578
▁skup	-10.458
▁stvarn	-10.4582
▁medalje	-10.4592
▁nski	-10.4593
▁Gattuso	-10.4594
▁USKOK	-10.4594
▁postigl	-10.4594
▁zlato	-10.4595
▁mobiln	-10.4595
▁ubojstvo	-10.4602
▁mar	-10.4602
čiti	-10.4604
▁važna	-10.4606
▁radom	-10.4608
▁izdanje	-10.4609
▁vje	-10.4611
▁sjaj	-10.4617
▁Her	-10.4618
▁kontrolira	-10.4624
▁minimaln	-10.4626
▁ulica	-10.4626
▁liječnik	-10.4628
▁segment	-10.4636
▁luksuzn	-10.4636
▁niž	-10.4639
▁dis	-10.4642
▁razdoblja	-10.4643
▁očuvanj	-10.4643
▁Jutarnji	-10.4649
▁Ku	-10.4651
▁okoliša	-10.4651
▁gubi	-10.4652
▁selu	-10.4654
▁titulu	-10.4655
▁čkog	-10.4658
han	-10.4659
▁Ured	-10.4674
▁Problem	-10.4677
▁rezultatom	-10.4677
▁Hoće	-10.4677
▁poslove	-10.4677
▁obrad	-10.4681
▁vrtića	-10.4682
▁vrtić	-10.4684
▁potpis	-10.4686
nder	-10.469
▁krajnje	-10.4693
▁prekršaj	-10.4693
▁Treć	-10.4694
▁prethodno	-10.4696
▁jednostavn	-10.4699
▁prijelaz	-10.4702
▁zadovoljstvo	-10.4711
▁optužen	-10.4717
zz	-10.4719
▁Mamić	-10.472
▁Doma	-10.4721
▁čuva	-10.4727
▁zvijezde	-10.4731
▁duž	-10.4733
▁Mladi	-10.4736
▁jasn	-10.4739
▁Dra	-10.4741
▁upozorenje	-10.4756
▁požara	-10.4757
▁zadovoljan	-10.4759
▁financija	-10.476
▁obramben	-10.476
▁publici	-10.476
▁log	-10.4761
nijih	-10.4761
▁obrazovanje	-10.4761
▁koncentracij	-10.4762
▁Međunarodn	-10.4771
▁teme	-10.4774
dnim	-10.4775
▁Mas	-10.4777
▁zrak	-10.4777
▁uvjeti	-10.4777
▁poklon	-10.4782
ang	-10.4784
▁domaćih	-10.4792
▁puni	-10.4797
▁Dva	-10.4797
▁zaštićen	-10.4802
▁operativn	-10.4803
▁gubitk	-10.4807
OR	-10.481
▁štete	-10.4813
▁rijetko	-10.4815
▁uspjeha	-10.4818
▁ameri	-10.482
▁palestinsk	-10.4823
▁radila	-10.4825
▁oštećen	-10.4827
▁budem	-10.4827
+	-10.483
▁Bulj	-10.4831
▁Mir	-10.4841
▁Talijan	-10.4841
▁krenut	-10.4842
▁Gol	-10.4843
▁nude	-10.4845
▁Jakirović	-10.4846
▁manj	-10.4847
▁noge	-10.4853
▁potreb	-10.4854
ight	-10.4854
▁Vo	-10.4859
▁Slobodn	-10.4864
▁prijavi	-10.4875
▁istu	-10.4876
▁zahtjeva	-10.4884
▁ze	-10.4885
ukladno	-10.4887
▁sindikat	-10.4887
▁izvora	-10.4892
▁napravila	-10.4892
▁samom	-10.4894
▁stanu	-10.4895
ER	-10.4897
▁dovodi	-10.4899
▁lud	-10.4901
▁čekaju	-10.4901
q	-10.4907
▁započel	-10.4908
ser	-10.4911
▁županijsk	-10.4913
▁Cijen	-10.4915
▁eva	-10.4916
▁Europski	-10.4921
▁vruć	-10.4922
▁Net	-10.4922
▁osnovan	-10.4924
▁termin	-10.4927
▁ponude	-10.4929
▁nedostaje	-10.4929
▁najavljen	-10.493
▁počinitelj	-10.493
▁([	-10.493
▁ljubitelj	-10.493
▁Charles	-10.493
▁općine	-10.493
▁Mag	-10.4933
▁prizor	-10.4934
▁odbio	-10.4935
▁Miš	-10.4936
▁plaćen	-10.4938
▁poslovanja	-10.4941
▁ministarstvo	-10.4942
▁trenira	-10.4949
▁ostane	-10.4962
gro	-10.4965
▁mnogim	-10.4966
▁održa	-10.497
▁otpor	-10.4971
▁obljetnic	-10.4972
▁gospodarstvo	-10.4972
▁Većin	-10.4973
▁85	-10.4974
▁trajat	-10.4975
▁ice	-10.4976
▁Vaš	-10.4978
▁povećava	-10.4981
▁pokušal	-10.4982
▁institucija	-10.4983
▁Svak	-10.4987
▁svako	-10.4991
▁kre	-10.4993
▁vozilom	-10.4993
▁pisali	-10.4993
▁Istra	-10.4997
▁66	-10.5002
▁boji	-10.5003
▁54	-10.5005
▁najljepš	-10.5009
sigurno	-10.5013
▁završava	-10.5015
▁emocionaln	-10.5015
zan	-10.5015
▁troškova	-10.5015
ill	-10.5017
▁birača	-10.5018
▁tj	-10.5018
▁paket	-10.5025
▁govorim	-10.5028
▁teška	-10.5028
▁županiji	-10.5029
".	-10.503
▁turniru	-10.5033
▁petka	-10.5034
▁Zelenski	-10.504
▁Jug	-10.5042
▁poslijepodne	-10.5045
▁prijava	-10.5046
▁Želim	-10.5046
▁majke	-10.5049
▁Vir	-10.505
▁64	-10.5054
▁120	-10.5055
▁predstavnika	-10.5056
▁osvaja	-10.5057
▁Dalmaciji	-10.5058
▁majstor	-10.5058
▁sretan	-10.5059
▁riječk	-10.5059
▁HNK	-10.5061
▁vanja	-10.5062
▁Toni	-10.5062
▁iskoristiti	-10.5062
▁snijeg	-10.5066
čević	-10.5069
▁modela	-10.5076
▁istina	-10.5078
▁susjedn	-10.5079
▁izrazi	-10.508
▁očekivan	-10.5081
▁bore	-10.5081
▁istog	-10.509
▁Sanj	-10.5091
▁slučajeva	-10.5093
▁Zlatn	-10.5101
▁snimljen	-10.5102
▁prigod	-10.5102
▁pobjedi	-10.5105
▁produkcij	-10.5105
▁Ter	-10.5107
▁Daniel	-10.5113
▁problemima	-10.5114
%2	-10.5117
▁pozicije	-10.5119
▁Imal	-10.5127
sata	-10.5131
▁sposobnost	-10.5135
▁policijski	-10.5136
▁52	-10.5144
kin	-10.5146
▁voditeljica	-10.5148
▁oružje	-10.5148
▁otvorenom	-10.5148
▁završen	-10.5151
▁jugu	-10.5151
▁Luke	-10.5151
▁iznosil	-10.5152
ograf	-10.5156
▁utjecajem	-10.5156
▁slavlje	-10.5161
▁slavn	-10.5169
▁Trumpov	-10.5173
▁uzet	-10.5175
itet	-10.5178
▁Sal	-10.5182
▁Milanovi	-10.5187
▁lipnju	-10.5189
▁posjetitelji	-10.5189
▁prepoznatljiv	-10.5195
skoj	-10.5198
▁nastupit	-10.5199
▁prate	-10.5199
▁djelatnosti	-10.5202
▁procjen	-10.5202
ljev	-10.5202
▁pratil	-10.5204
▁licu	-10.5206
▁viš	-10.521
▁materijaln	-10.5216
▁primjen	-10.5222
dalmatinsk	-10.5231
▁rješava	-10.5232
▁eksplozij	-10.5232
▁pripadnik	-10.5232
jpg	-10.5233
▁odigran	-10.5234
▁Petković	-10.5235
▁Marc	-10.5236
▁prošlo	-10.5238
▁znanje	-10.524
▁Ivo	-10.524
▁glasnogovornik	-10.5243
▁osobi	-10.5245
▁porasl	-10.5247
▁kći	-10.5249
▁akciju	-10.5252
▁stratešk	-10.5252
▁AI	-10.5254
▁brinu	-10.5255
▁prvenstveno	-10.5262
stanak	-10.5276
▁Đoković	-10.5277
▁imovine	-10.5277
▁obveza	-10.5277
▁Glas	-10.5282
▁direktoric	-10.5283
▁reda	-10.5284
▁Javn	-10.5284
zor	-10.5288
▁komentar	-10.5289
tz	-10.5291
pisali	-10.5292
▁vidljiv	-10.5295
▁povremeno	-10.5298
▁TikTok	-10.5303
▁še	-10.5305
▁zajednički	-10.5308
laže	-10.5313
▁kompanije	-10.5318
▁ravnateljic	-10.532
▁realizacij	-10.5321
▁klijent	-10.5321
▁kamion	-10.5321
▁postupka	-10.5321
▁snimka	-10.5322
▁zabranjen	-10.5323
▁goriva	-10.5324
▁ostvaren	-10.5324
▁ža	-10.5325
ele	-10.5325
▁pisa	-10.5328
▁lagan	-10.5331
▁zove	-10.5333
▁Pan	-10.5335
▁boriti	-10.5335
▁kapacitet	-10.5338
▁srpnj	-10.5338
▁osvrnu	-10.534
▁dužnost	-10.5342
▁Pra	-10.5345
▁smjen	-10.535
tv	-10.5358
▁ponov	-10.5361
kazuje	-10.5364
▁pojas	-10.5365
▁edukacij	-10.5365
▁mirovine	-10.5365
▁polufinalu	-10.5365
▁potpredsjednik	-10.5365
▁sreću	-10.5366
▁Str	-10.5373
▁obavijesti	-10.5385
▁jača	-10.5391
mor	-10.5391
▁omogućit	-10.5396
▁7,	-10.5398
oči	-10.5399
▁ljen	-10.5403
pol	-10.5404
▁Novo	-10.5408
▁Sergej	-10.541
▁spektakl	-10.541
▁tad	-10.541
▁trojic	-10.5411
▁predstavljen	-10.5411
naest	-10.5423
▁Er	-10.5426
▁sretn	-10.5426
▁utvrđeno	-10.5427
▁tehnologija	-10.5428
▁uzel	-10.543
▁vić	-10.543
▁odvjetništv	-10.5439
▁gost	-10.544
▁htjeli	-10.544
▁Šibeniku	-10.544
▁(3	-10.5442
▁sektoru	-10.5443
ct	-10.5444
▁Plenkovića	-10.5449
▁atraktivn	-10.5452
▁svibnju	-10.5455
▁plus	-10.5455
▁privremen	-10.5455
▁ulaznic	-10.5457
▁Antoni	-10.5458
▁Kra	-10.5458
▁zvuk	-10.5459
▁izravno	-10.5461
▁fokus	-10.5464
for	-10.5465
▁gledam	-10.5465
▁baviti	-10.5466
▁zanima	-10.5468
▁fin	-10.547
▁sudjelovanje	-10.5473
▁lider	-10.5476
▁generacija	-10.5479
▁Mor	-10.5479
▁medalju	-10.548
▁novinara	-10.5483
▁braka	-10.5485
novi	-10.5486
▁slavio	-10.5487
▁najvažnije	-10.5488
▁apsolutno	-10.5492
▁okupil	-10.5492
una	-10.5496
30	-10.5499
▁Reuters	-10.55
▁United	-10.55
▁potrag	-10.55
▁ostavku	-10.5501
▁€	-10.5508
▁ubojstva	-10.551
▁čita	-10.5513
▁teže	-10.5515
▁shvatil	-10.5515
▁komentarima	-10.5521
▁zahtijeva	-10.5521
▁trofej	-10.5523
▁izrazit	-10.5524
▁Sta	-10.5525
▁tekst	-10.5527
▁Bili	-10.5529
▁for	-10.5529
jski	-10.553
▁omogućuj	-10.553
▁4,	-10.5531
kinja	-10.5532
▁prostorij	-10.5533
▁prisutn	-10.5537
ično	-10.554
ivati	-10.5541
▁obali	-10.5541
▁sjednic	-10.5544
▁ljestvici	-10.5544
pun	-10.5545
▁2014.	-10.5545
▁Nenad	-10.5546
▁ekran	-10.5546
▁glave	-10.5546
▁dvojica	-10.5546
▁Kupa	-10.5548
▁infrastrukture	-10.5549
pin	-10.5552
▁prihoda	-10.5556
▁otišla	-10.5556
▁intervencij	-10.5572
čno	-10.5585
▁Del	-10.5585
AR	-10.5588
▁2012.	-10.559
▁ponuda	-10.5591
▁Program	-10.5591
▁Kekin	-10.5592
▁vu	-10.5593
The	-10.5593
▁Općinsk	-10.5593
▁Sol	-10.5594
rska	-10.5596
▁masn	-10.5599
▁bor	-10.5606
▁tor	-10.5608
▁mlađe	-10.5611
vic	-10.5614
▁skok	-10.5628
▁aktivno	-10.5629
▁opće	-10.5635
▁sudjelovat	-10.5635
▁područjima	-10.5636
▁zaključuj	-10.5636
▁Grbin	-10.5636
▁ključni	-10.5636
▁Dominik	-10.5637
rij	-10.5638
▁Centar	-10.5638
▁Domovinski	-10.5638
▁Sla	-10.5638
▁branitelja	-10.5639
▁Peter	-10.5644
▁Ban	-10.5646
▁meta	-10.5646
▁razgovora	-10.5647
▁financijski	-10.5648
▁Cr	-10.5651
▁čke	-10.5656
▁sprema	-10.5656
▁dojav	-10.5656
▁uobičajen	-10.5657
age	-10.5658
nama	-10.5658
▁skriva	-10.5673
▁Gore	-10.5682
nar	-10.5682
▁Italiji	-10.5682
▁nogometni	-10.5686
▁Zadarsk	-10.5688
▁Bur	-10.569
▁medalja	-10.5694
▁nizu	-10.5696
▁svjedo	-10.5699
▁razgovarali	-10.5701
▁šal	-10.5708
fa	-10.5714
▁sastank	-10.5719
▁Plenkovi	-10.5722
▁demokracij	-10.5728
▁studenom	-10.5728
▁analitičar	-10.5728
nskog	-10.5729
Sport	-10.5732
stovremeno	-10.5733
▁Time	-10.5734
▁@	-10.5737
▁otok	-10.5738
▁Gaze	-10.5741
▁gradovima	-10.5742
▁Tamo	-10.5742
▁luka	-10.575
▁jednak	-10.5752
▁kakvu	-10.5752
1.	-10.5754
of	-10.5755
stižu	-10.5758
▁pripada	-10.5762
▁radim	-10.5765
▁polju	-10.5765
▁atmosferu	-10.5766
fr	-10.5771
▁Kraj	-10.5772
▁Viktor	-10.5773
▁duhovn	-10.5775
▁trajal	-10.5775
rske	-10.5776
▁uloge	-10.5784
▁tenisač	-10.5784
▁Post	-10.5786
▁kvalitet	-10.5789
▁nalog	-10.5791
Po	-10.5795
▁Trg	-10.5797
▁javi	-10.5797
▁vježba	-10.5798
▁smanjenj	-10.58
▁sjećanja	-10.58
▁stare	-10.58
vrš	-10.5801
▁Izraela	-10.5803
▁izacij	-10.5804
▁nogometu	-10.5804
▁pozitiv	-10.581
ject	-10.5811
etka	-10.5813
▁održal	-10.5813
mail	-10.582
▁glazbu	-10.5821
▁glavom	-10.5821
▁Sportsk	-10.5823
▁dresu	-10.5824
ređen	-10.5827
▁prilog	-10.5829
▁školama	-10.5831
▁Njema	-10.5831
▁Jak	-10.5838
▁jedinici	-10.584
▁ostatak	-10.5842
▁proslavi	-10.5843
dajte	-10.5846
▁smijeh	-10.5849
god	-10.5853
▁listopadu	-10.5854
▁branitelj	-10.5855
▁životinja	-10.5857
▁Svet	-10.5859
▁63	-10.5859
▁čuli	-10.586
▁iji	-10.5862
▁održavanje	-10.5867
▁Trenutn	-10.5868
▁slobodu	-10.5868
▁službi	-10.5868
▁Nedavn	-10.5868
▁napusti	-10.5868
▁Trener	-10.5868
▁profilu	-10.5868
▁oglasio	-10.587
▁vlasnici	-10.587
▁buduće	-10.5872
▁golman	-10.5877
▁stvaranj	-10.5885
▁režim	-10.5887
▁princ	-10.5888
▁rasp	-10.589
bir	-10.5891
▁Kara	-10.5892
▁76	-10.5902
15	-10.5903
▁golem	-10.5907
san	-10.5908
▁natjecatelj	-10.5909
▁razmjen	-10.5915
▁kampanju	-10.5915
▁trajekt	-10.5916
▁Istre	-10.5916
▁Croatia	-10.5919
▁učenici	-10.592
▁hrani	-10.5921
▁dulje	-10.5925
▁plati	-10.5926
▁podsjeća	-10.5928
▁želje	-10.5928
▁bilježi	-10.5931
▁propisan	-10.5938
▁(6	-10.5942
▁Postoj	-10.5943
▁početn	-10.5945
▁EP	-10.5946
▁20-	-10.5946
▁predan	-10.5946
▁period	-10.5953
▁Hajduku	-10.5954
▁oprez	-10.5954
▁savršeno	-10.5958
hod	-10.5959
▁prosincu	-10.5962
▁opreme	-10.5962
▁asistencija	-10.5962
Č	-10.5963
▁predstavljaju	-10.5966
▁kredit	-10.5967
▁pokojn	-10.5968
▁trenucima	-10.5968
Na	-10.5969
▁svje	-10.597
▁spriječiti	-10.5976
▁Krist	-10.598
▁Min	-10.598
▁projektu	-10.5986
▁Slovenije	-10.5987
▁izložbe	-10.599
▁Spa	-10.5991
jesti	-10.5994
boj	-10.5997
▁jedinica	-10.5998
▁fr	-10.5999
▁muzej	-10.6
▁pitao	-10.6001
▁identitet	-10.6003
▁Srpsk	-10.6004
▁Francuske	-10.6006
▁komunicira	-10.6009
▁resurs	-10.6009
▁Sabora	-10.6009
▁subote	-10.6011
▁otkaz	-10.6014
zov	-10.6014
▁nesre	-10.6018
▁muž	-10.6019
▁Gl	-10.6021
▁milijarde	-10.6022
▁normaln	-10.6023
MA	-10.6024
▁blagdan	-10.6024
▁mjesecima	-10.6029
▁viđen	-10.6032
▁potvrd	-10.6036
▁Jest	-10.6037
▁vesel	-10.6037
▁osigural	-10.6037
▁grama	-10.6038
▁Mora	-10.604
▁250	-10.6043
▁ponašanja	-10.6043
▁uloga	-10.6048
AN	-10.6052
▁ša	-10.6053
▁napredak	-10.6057
▁pjesama	-10.6057
▁besplatn	-10.6057
▁moćn	-10.6059
▁Rimac	-10.606
▁skim	-10.6063
▁struje	-10.6065
dy	-10.6067
▁izvoz	-10.6069
▁krem	-10.6071
▁posjeti	-10.6072
▁pravom	-10.6082
▁Bayern	-10.6087
▁odre	-10.6088
▁Mogu	-10.609
▁skupi	-10.609
▁dodaju	-10.6091
▁fl	-10.6092
▁ranjen	-10.6092
▁Drago	-10.6093
▁ogled	-10.6093
▁uporab	-10.6096
▁potpun	-10.6099
▁51	-10.6103
▁kontrole	-10.6105
▁pošten	-10.6105
Class	-10.6105
▁Europu	-10.6107
▁images	-10.6109
▁leđa	-10.611
▁dodjel	-10.6114
▁teorij	-10.6123
kri	-10.6124
▁radni	-10.6131
▁II	-10.6138
▁jedni	-10.6139
▁navijačima	-10.6146
▁izazvao	-10.6153
▁prijavljen	-10.6153
▁nazvao	-10.6153
▁privremeno	-10.6153
▁obnovi	-10.6153
▁pojasni	-10.6154
▁Sabor	-10.6155
▁priznanje	-10.616
▁idem	-10.6168
aja	-10.6172
elje	-10.6172
▁smanjen	-10.6172
▁8,	-10.6175
▁ulicama	-10.6179
▁tvoj	-10.6184
▁obrati	-10.6187
pot	-10.6192
▁pokrenu	-10.6194
▁pres	-10.6197
▁Kre	-10.6198
▁slobode	-10.6201
▁kulturu	-10.6201
▁misij	-10.6204
▁uživo	-10.6204
▁graničn	-10.6206
▁pogotka	-10.6207
▁sljedeći	-10.6207
▁unije	-10.6217
ris	-10.6219
▁brend	-10.6222
▁Centra	-10.6223
▁vjeruju	-10.6225
▁ograničen	-10.6228
▁Q	-10.6231
▁struk	-10.6231
,5	-10.6235
▁Svjetsko	-10.6238
▁57	-10.6238
▁otvoril	-10.624
▁Šibenika	-10.624
▁Dugo	-10.6242
▁Posljednj	-10.6245
udi	-10.6247
▁Pariz	-10.6248
▁Argentin	-10.625
▁ilegaln	-10.625
▁Kaštel	-10.625
▁Ministarstv	-10.6251
▁Splitsko	-10.6252
▁"",	-10.6253
▁gospodin	-10.6253
▁Zelen	-10.6255
▁liječnika	-10.6258
▁Imat	-10.6266
▁hrabr	-10.6271
▁listu	-10.6272
▁temeljn	-10.6274
tet	-10.6274
▁trenutka	-10.6277
nat	-10.6281
▁ostavlja	-10.6282
▁osjeti	-10.6284
▁kov	-10.6285
▁ekipu	-10.6289
▁okru	-10.629
▁prometnoj	-10.6295
▁fizički	-10.6297
▁pobijedi	-10.6297
▁predizborn	-10.6298
▁troškove	-10.6299
▁liječnici	-10.6299
ložen	-10.6301
▁jugo	-10.6306
▁zainteresiran	-10.6307
▁Vijeć	-10.6315
▁odvjetnika	-10.6322
▁or	-10.6326
▁Dobr	-10.6326
▁dočeka	-10.6329
▁dječje	-10.633
▁Mik	-10.6331
▁Bra	-10.6338
▁pokušavaju	-10.6341
▁raspored	-10.6345
▁angažman	-10.6347
▁Krešimir	-10.6347
▁istražn	-10.6348
▁kartic	-10.635
▁prekid	-10.6351
▁Odbor	-10.6352
▁štetn	-10.6353
▁Gar	-10.6353
▁siječnj	-10.6354
▁kat	-10.6355
▁tlak	-10.6358
remijer	-10.6361
▁provode	-10.6362
ave	-10.6362
nite	-10.6364
vesti	-10.6365
▁slijede	-10.6365
▁Sinj	-10.6365
▁Grand	-10.6366
▁nt	-10.6367
▁ustvrdi	-10.6368
und	-10.6368
▁divlj	-10.6372
ban	-10.6373
▁Sr	-10.6374
▁kraljic	-10.6374
▁bal	-10.6375
▁današnj	-10.6376
▁sje	-10.638
▁predstav	-10.6381
▁klju	-10.6381
▁krvn	-10.6386
▁daju	-10.6387
▁studenoga	-10.639
▁rezultatima	-10.6393
▁1991.	-10.6397
▁sreće	-10.6397
▁faktor	-10.6397
▁nekakv	-10.6397
nka	-10.6398
▁boli	-10.6398
▁svladal	-10.64
▁Buduć	-10.64
▁hladno	-10.6403
▁67	-10.6404
▁73	-10.6405
▁osnivač	-10.6412
▁stadiona	-10.6413
▁Svoj	-10.6414
▁ideje	-10.6415
▁turista	-10.6416
▁rado	-10.6416
▁ši	-10.642
▁omogućil	-10.642
▁državljanin	-10.6422
▁Bjelica	-10.6422
▁informacij	-10.6424
▁dijelovi	-10.6429
▁Aleksandr	-10.643
▁Zanimljivo	-10.6432
▁zu	-10.6433
▁popisu	-10.6433
▁dugoročn	-10.6434
elnik	-10.6445
▁ekonomij	-10.6446
▁Euru	-10.6446
NBA	-10.6447
▁stavil	-10.6448
▁cijelom	-10.6449
▁majic	-10.645
spo	-10.645
▁sjever	-10.6452
▁pozicija	-10.6457
▁stajal	-10.6457
▁studenti	-10.6465
▁uvjerljiv	-10.6465
▁05	-10.6466
▁strategij	-10.6469
▁odbija	-10.6471
▁ovogodišnj	-10.6477
▁Los	-10.6483
▁Med	-10.6486
▁pojačan	-10.6487
▁lom	-10.6491
▁Hrvoje	-10.6493
▁godišnji	-10.6495
▁travnju	-10.6496
▁Ukupn	-10.6496
▁kampanji	-10.6496
▁kombinacij	-10.6497
▁obrok	-10.6498
▁bolnica	-10.65
▁povezanost	-10.6501
▁pronašl	-10.6501
▁nose	-10.6506
▁iskreno	-10.6519
pp	-10.653
▁idealn	-10.6535
▁relativn	-10.6539
▁kin	-10.6541
▁Gal	-10.6544
▁Gvardiol	-10.6546
▁najstarij	-10.6546
▁postrojb	-10.6546
▁korijen	-10.6546
▁turizam	-10.6546
▁realn	-10.6546
▁penal	-10.6546
▁Ča	-10.6546
▁donose	-10.6547
▁Saboru	-10.6551
▁pilot	-10.6552
▁sedmo	-10.6553
letio	-10.6555
▁62	-10.6568
▁Top	-10.657
berg	-10.6581
▁izašl	-10.6583
▁sav	-10.6591
▁avantur	-10.6596
▁policiju	-10.6596
▁tak	-10.6598
▁najnovij	-10.6609
▁svakoj	-10.6609
▁nasilje	-10.6615
▁niji	-10.6621
▁53	-10.6623
▁stvaraju	-10.6626
▁poslovanje	-10.6627
▁specifičn	-10.6633
▁oštr	-10.6634
▁situacijama	-10.6635
▁radionice	-10.6637
▁nedostatk	-10.6647
▁Google	-10.6647
▁sporn	-10.6647
▁trebamo	-10.6647
▁veljači	-10.6647
stava	-10.6648
▁istragu	-10.6649
▁Eura	-10.6649
▁vidite	-10.6651
▁NA	-10.6652
▁Iza	-10.6652
X	-10.6652
▁organizator	-10.6654
▁utjecaja	-10.6658
▁službenik	-10.6659
▁duga	-10.666
▁važne	-10.6665
▁vojni	-10.6666
▁radnog	-10.6667
▁zlata	-10.6673
▁zatvoru	-10.6676
▁izazovima	-10.6677
pisao	-10.6678
▁skrbi	-10.6683
▁namjerava	-10.6685
▁miješa	-10.6689
▁istaknuti	-10.6692
▁mog	-10.6697
▁Projekt	-10.6697
▁apartman	-10.6697
▁transformacij	-10.6697
Ja	-10.6697
▁srpski	-10.6698
▁dalmatinsk	-10.6699
▁zabrinutost	-10.6699
▁Vrl	-10.67
istinu	-10.67
▁Lovre	-10.6704
▁tunel	-10.6704
▁nastupil	-10.6705
▁Zavod	-10.6707
▁West	-10.6712
▁61	-10.6713
radio	-10.6715
▁zaposlenih	-10.6716
▁kritizira	-10.6719
▁mijenjati	-10.6723
ett	-10.6723
▁stanovništva	-10.6724
▁niza	-10.6726
▁kamp	-10.6731
▁osjetljiv	-10.6731
▁investitor	-10.6734
▁žut	-10.6735
▁postojeć	-10.6736
▁festivalu	-10.6743
▁zaposlenika	-10.6744
▁želju	-10.6744
▁izgrađen	-10.6748
▁DORH	-10.6748
▁1-0	-10.6748
▁2-1	-10.6748
▁napravljen	-10.6749
▁pojedinačn	-10.6749
▁izravn	-10.675
▁Oliver	-10.6753
▁izdanj	-10.6755
ral	-10.6761
▁pale	-10.6762
\	-10.6763
▁pjesm	-10.677
ški	-10.6771
▁sadržaja	-10.6771
▁stvaranje	-10.6772
▁stvori	-10.6773
▁Grčk	-10.6774
rat	-10.6776
▁prekinut	-10.678
▁zatraži	-10.6783
▁(4	-10.6784
▁Svaka	-10.6784
▁provedb	-10.6784
▁vod	-10.6785
LA	-10.6786
▁Hr	-10.6787
▁Srbi	-10.6789
▁Dalmacije	-10.68
▁industrije	-10.68
▁inozemstvu	-10.68
▁površine	-10.68
▁tržišn	-10.68
▁šetnj	-10.68
▁Gotov	-10.68
▁očevid	-10.68
▁pratitelji	-10.6801
▁pisan	-10.6802
▁skokova	-10.6802
▁dođ	-10.6803
▁dvostruk	-10.6803
rod	-10.6804
▁Iva	-10.6815
▁koristil	-10.682
vrijedan	-10.6821
▁tjedn	-10.6823
▁moć	-10.6823
OŠ	-10.6824
▁sudionika	-10.6827
▁trenutk	-10.6827
▁svečan	-10.683
▁šte	-10.6834
▁znala	-10.6834
▁nevjerojatno	-10.6835
▁djelatnici	-10.6836
gle	-10.6838
▁Tek	-10.6839
▁očekivanja	-10.6841
▁razum	-10.6844
▁uređaja	-10.6844
▁koli	-10.6846
▁Dalmacija	-10.6851
▁Osnovn	-10.6851
▁pogođen	-10.6851
▁front	-10.6852
▁smjer	-10.6853
▁kategorija	-10.6854
▁rock	-10.6855
▁prijatelje	-10.6856
▁potrošnj	-10.6856
▁kože	-10.6856
▁Če	-10.6859
nova	-10.6861
▁osobni	-10.6861
▁aspekt	-10.6862
▁brak	-10.6868
▁mikro	-10.687
▁detaljn	-10.6871
▁odgovornosti	-10.6875
▁kvaliteta	-10.6882
▁nos	-10.6884
▁72	-10.6888
▁počet	-10.6889
▁Živ	-10.689
▁djelovanje	-10.6897
▁provjer	-10.6899
▁povećat	-10.69
▁napade	-10.6903
▁povjerenstv	-10.6903
▁prijavu	-10.6903
▁djevojke	-10.6905
šću	-10.6906
▁Kovačić	-10.6908
▁pozivaju	-10.6908
▁Vladi	-10.6908
▁56	-10.6919
▁ho	-10.6922
▁tamn	-10.6923
▁legendarn	-10.6924
▁isplati	-10.6926
▁muškarci	-10.6927
▁pap	-10.6929
50	-10.693
▁Jadran	-10.6931
▁gledatelja	-10.6931
▁dim	-10.6934
▁vodeć	-10.6936
▁meso	-10.6941
ivo	-10.6945
▁Druga	-10.6945
▁\	-10.6947
▁banka	-10.6952
▁dvo	-10.6952
▁smanjuje	-10.6955
▁2-0	-10.6955
▁operacija	-10.6955
▁počast	-10.6955
▁Ligu	-10.6956
▁kralj	-10.6961
▁psa	-10.6962
▁Poljud	-10.6962
▁gledatelji	-10.6962
▁Hercegovine	-10.6962
▁destinacija	-10.6965
▁prihvati	-10.6965
▁Jel	-10.6967
▁ljestvice	-10.6967
▁krene	-10.6967
ošću	-10.6968
▁objavu	-10.6971
▁osnova	-10.6979
▁Gori	-10.6981
▁zagreba	-10.6983
▁prijetnje	-10.6991
▁ističk	-10.6994
▁organizatori	-10.7
▁vodeći	-10.7001
▁izazove	-10.7001
▁Novom	-10.7002
▁korisn	-10.7004
▁razreda	-10.7005
▁Bri	-10.7007
▁2013.	-10.7007
▁pozvan	-10.7008
▁producent	-10.7008
▁učinak	-10.7008
▁odredb	-10.7008
stan	-10.7011
uši	-10.7012
ziran	-10.7016
▁Sav	-10.7016
▁riješi	-10.7016
▁Martina	-10.7016
▁usta	-10.7017
▁obuk	-10.7018
▁gledaju	-10.7019
▁snimanj	-10.702
▁Hamas	-10.7021
▁troškovi	-10.7022
▁ostaju	-10.7024
▁Pavl	-10.7033
▁Mus	-10.7033
▁nicu	-10.7033
▁smeta	-10.7034
▁prave	-10.7034
▁praktič	-10.7035
cent	-10.7036
▁vani	-10.7037
▁Smatra	-10.7042
▁Solin	-10.7043
doslovno	-10.7046
▁svjetlo	-10.7049
▁bura	-10.7054
Ž	-10.7059
▁Ond	-10.706
▁2026.	-10.706
▁DVD	-10.706
▁James	-10.706
▁dužnosnici	-10.706
▁predstavil	-10.7061
▁kontekstu	-10.7061
▁Nogometaš	-10.7062
▁najjač	-10.7063
▁mogući	-10.7068
▁pobjednika	-10.7071
▁parlamentu	-10.7071
▁luke	-10.7072
▁rijeke	-10.7073
▁davn	-10.7077
▁Katarin	-10.708
▁borben	-10.709
▁pacijenti	-10.7091
▁glazbenik	-10.7092
▁maksimaln	-10.7094
▁stabiln	-10.7094
▁Slav	-10.7098
EN	-10.7099
▁general	-10.7102
▁današnji	-10.7108
▁mjesečno	-10.7112
▁kažem	-10.7113
▁2011.	-10.7113
▁polufinale	-10.7113
▁knjižnic	-10.7113
▁nezavisn	-10.7113
▁kafić	-10.7113
▁stvoril	-10.7114
▁gubitak	-10.7117
▁Rekl	-10.7122
▁most	-10.7124
▁direktora	-10.7124
▁miru	-10.7127
▁hoda	-10.7127
▁istraga	-10.7127
▁Petri	-10.7134
▁iransk	-10.7135
▁otvoriti	-10.7136
▁izdan	-10.7138
▁veseli	-10.7138
▁Pal	-10.714
▁uzbudljiv	-10.7143
▁kandidati	-10.715
▁svjedok	-10.7155
▁motocikl	-10.7156
▁Opć	-10.716
▁pone	-10.716
▁smatram	-10.7164
▁ocijeni	-10.7166
▁krumpir	-10.7166
▁pacijenata	-10.7166
▁EPPO	-10.7166
▁postići	-10.7167
▁kamera	-10.7167
▁navrata	-10.7167
▁zaustavi	-10.717
▁obrazovn	-10.7172
▁atmosfera	-10.7172
▁Vit	-10.7173
▁68	-10.7174
▁filmova	-10.7175
▁Tur	-10.7177
glav	-10.7178
▁materijala	-10.7179
▁blago	-10.7181
žić	-10.7183
▁Jakov	-10.7186
▁problemi	-10.7194
▁potresa	-10.7198
▁utvrđen	-10.72
▁nogu	-10.72
ivota	-10.7203
▁njemački	-10.7203
▁zaustaviti	-10.7208
▁toplinsk	-10.7211
▁Vid	-10.7213
▁novinare	-10.7214
▁fi	-10.7214
▁vlasnika	-10.7215
▁pisanj	-10.7217
▁Rusi	-10.7218
▁dionica	-10.7218
▁rekonstrukcij	-10.722
▁Pritom	-10.722
▁BBC	-10.7221
▁preuzet	-10.7221
▁suprugu	-10.7222
▁preokret	-10.7222
▁češće	-10.7222
▁nužno	-10.7225
▁osigurava	-10.7225
▁fond	-10.7227
▁Alen	-10.7229
▁osiguranja	-10.7236
▁potaknut	-10.7237
▁nastavila	-10.7238
▁mirno	-10.724
▁stoje	-10.7242
▁Open	-10.725
▁korisnici	-10.725
▁trajn	-10.7251
Ak	-10.7252
▁uslijedil	-10.7255
▁Mon	-10.7255
▁analizira	-10.7256
▁upozoravaju	-10.7258
▁rod	-10.726
▁vati	-10.7264
▁Korej	-10.7269
▁9,	-10.7272
▁Liverpool	-10.7273
▁ugrožen	-10.7273
▁žestok	-10.7274
dobno	-10.7274
ore	-10.7274
▁spas	-10.7275
▁podijeljen	-10.7277
▁lan	-10.7278
▁doživio	-10.7278
▁Čini	-10.728
▁Mladen	-10.7281
▁ostaviti	-10.7285
▁prosjeku	-10.7286
▁sestre	-10.7287
▁tradicionalno	-10.7288
▁dru	-10.73
▁košarkaš	-10.7303
▁stožer	-10.7313
dakle	-10.7314
▁navijače	-10.7318
▁sretni	-10.7319
▁direktno	-10.732
▁naplat	-10.732
▁broda	-10.7321
▁pital	-10.7326
▁zastupnici	-10.7327
▁Michael	-10.7327
▁poremećaj	-10.7327
▁procedur	-10.7327
▁žrtava	-10.7327
▁obnove	-10.7328
▁Muzej	-10.7328
▁Raspudić	-10.7328
▁priop	-10.733
▁Brank	-10.7338
▁ušl	-10.734
▁otkriti	-10.7345
▁fra	-10.7345
▁nesta	-10.7345
▁Nina	-10.7349
▁gura	-10.7349
▁dodat	-10.7351
▁59	-10.7354
▁jeziku	-10.7356
▁trgu	-10.7358
Ma	-10.7359
▁izabra	-10.7365
▁Sela	-10.7368
▁događanja	-10.737
▁Ant	-10.737
▁sli	-10.737
Da	-10.7376
▁pamet	-10.7376
▁poveća	-10.738
▁Institut	-10.7382
▁Varteks	-10.7382
▁reprezentaciji	-10.7382
▁vitamin	-10.7382
▁neočekivan	-10.7382
▁Rakitić	-10.7382
▁troši	-10.7383
ruč	-10.7384
▁VAR	-10.7384
▁Modri	-10.7385
▁vezano	-10.7385
▁vra	-10.7386
▁ravno	-10.7391
▁čan	-10.7394
▁dionic	-10.7395
▁sljede	-10.7396
▁Aleksand	-10.7401
▁zadržati	-10.7401
šten	-10.7402
▁košarkašk	-10.7406
▁četvero	-10.7407
▁valj	-10.7409
▁stroj	-10.7415
ple	-10.742
▁šećer	-10.7426
▁prekida	-10.743
▁uzvrat	-10.7435
▁stranci	-10.7435
▁brać	-10.7436
Cropix	-10.7436
▁Bjelovar	-10.7437
▁ikakv	-10.7437
▁rečeno	-10.7437
▁cijom	-10.7437
▁zaredom	-10.7438
▁liječenje	-10.7439
▁Visok	-10.7439
▁skuplja	-10.7439
▁popravi	-10.7439
tok	-10.744
▁odluk	-10.744
▁Jur	-10.7442
▁hitno	-10.7443
▁lošk	-10.7444
govara	-10.7444
▁vil	-10.7447
▁Rat	-10.7447
▁posudb	-10.7448
▁morat	-10.7448
▁ženama	-10.7451
▁kriminalističko	-10.7453
▁najvažnij	-10.7456
nijeti	-10.7457
▁pomorsk	-10.7457
▁svjež	-10.7458
▁naredn	-10.7461
▁mladić	-10.7466
▁probi	-10.7466
▁zaboraviti	-10.7467
▁nske	-10.748
▁Kaže	-10.7482
▁kontinuirano	-10.7482
▁Jadransk	-10.7484
▁glazbeni	-10.7485
▁fenomen	-10.7487
▁spašava	-10.7487
▁Važno	-10.7488
▁rep	-10.7488
▁stal	-10.7491
▁Netanyahu	-10.7491
▁liječničk	-10.7491
▁naselja	-10.7493
▁državu	-10.7493
▁počelo	-10.7495
▁Blisk	-10.7495
▁sliku	-10.7496
▁cija	-10.7496
▁Bell	-10.7497
▁fakultet	-10.7499
▁Američk	-10.75
▁oznaka	-10.7505
▁cilje	-10.7506
▁donesen	-10.7506
▁liga	-10.7507
▁maksimalno	-10.7512
lija	-10.7515
▁Gradu	-10.7517
title	-10.7523
▁kapaciteta	-10.7525
▁Kine	-10.7528
▁kupnju	-10.7531
▁suprotn	-10.7532
▁blagdansk	-10.7534
▁Bil	-10.7534
▁eve	-10.7534
jeti	-10.7542
nović	-10.7542
▁Vukovara	-10.7542
▁Italija	-10.7547
▁Rezultat	-10.7547
▁šansu	-10.7547
▁pomažu	-10.7547
▁koncept	-10.7547
▁učinio	-10.7547
▁veznjak	-10.7547
▁zaigra	-10.7548
▁savezn	-10.7549
▁kazni	-10.7549
▁Đur	-10.7549
▁Kamal	-10.7551
▁bave	-10.7552
▁stoper	-10.7557
▁procesu	-10.7565
▁ministarstva	-10.7565
▁spot	-10.7567
tivno	-10.7568
▁mlađi	-10.7569
▁(8	-10.7572
▁Rak	-10.7574
▁87	-10.758
▁mišić	-10.758
▁Bre	-10.7582
▁bana	-10.7582
▁oca	-10.7585
▁ukrajinski	-10.7585
▁izaziva	-10.7585
▁internetsk	-10.7588
▁Marij	-10.7597
▁vatrogasaca	-10.7599
▁Sopić	-10.7602
▁knjigu	-10.7602
▁Istri	-10.7605
▁uslijed	-10.7606
▁predviđa	-10.7606
▁Turističk	-10.7606
▁Barbar	-10.7608
▁stariji	-10.7612
▁skrb	-10.7619
▁London	-10.7619
▁nabav	-10.7621
▁sadašnj	-10.7624
▁mnogima	-10.7629
▁indeks	-10.7634
▁gledali	-10.7638
▁izjavi	-10.7639
▁uvjeta	-10.7639
▁sudionici	-10.7643
▁registriran	-10.7651
▁infrastrukturu	-10.7653
▁Sir	-10.7653
▁vaša	-10.7656
▁procesa	-10.7657
▁inteligencije	-10.7658
▁plina	-10.7658
▁časopis	-10.7658
▁plaću	-10.766
▁ciljeve	-10.7661
▁doznajemo	-10.7668
▁ispri	-10.7668
▁izdanju	-10.7669
▁priprem	-10.7678
▁fantastičn	-10.768
▁postupku	-10.7683
▁proizvođača	-10.7685
▁oštećenj	-10.7687
▁radno	-10.7691
lis	-10.7693
▁William	-10.7694
▁vara	-10.7704
▁zrakoplova	-10.7704
▁studije	-10.7705
▁pozitivno	-10.7707
▁protivnik	-10.7712
▁prihvatil	-10.7713
▁spriječil	-10.7714
▁čar	-10.7714
▁ožujku	-10.7714
▁spominje	-10.7714
▁zadužen	-10.7714
▁izvještaj	-10.7714
▁kamere	-10.7715
▁ekstremn	-10.7716
▁objava	-10.7717
▁predjel	-10.7719
▁rib	-10.7722
▁poslovni	-10.7725
▁posud	-10.7732
▁iznenađenje	-10.7732
▁stranaka	-10.7733
shi	-10.7733
▁vješt	-10.7734
bol	-10.7735
▁Sara	-10.7738
▁korisnicima	-10.7741
▁Švedsk	-10.7744
▁cima	-10.7745
rica	-10.7745
▁formi	-10.7747
▁Franjo	-10.7747
▁intenzivn	-10.7749
▁lokacije	-10.7749
▁Col	-10.7751
▁obvezn	-10.7754
▁kontra	-10.7754
jač	-10.7759
▁prihvatiti	-10.7763
rao	-10.7763
▁jači	-10.7766
vac	-10.7768
▁dugotrajn	-10.7768
▁NACIONAL	-10.7771
▁obavještajn	-10.7771
▁mađarsk	-10.7771
▁sudbin	-10.7771
▁kreću	-10.7771
▁dječak	-10.7773
▁prob	-10.7773
▁planove	-10.7775
▁prikaz	-10.7775
▁ciljeva	-10.7775
roš	-10.7777
▁sviđa	-10.7779
▁kinj	-10.778
▁karte	-10.7782
▁Con	-10.7784
▁Bruno	-10.7787
▁laž	-10.7787
▁ples	-10.779
▁Washington	-10.779
▁potreba	-10.7791
▁Palestin	-10.7794
▁ostatk	-10.7796
▁projektima	-10.7798
kama	-10.7804
▁pregovor	-10.7806
▁kolegama	-10.7808
▁izvješću	-10.7809
▁načina	-10.781
▁investicija	-10.7814
▁led	-10.7815
▁odabral	-10.7819
ST	-10.7821
▁tisu	-10.7822
▁Lucija	-10.7824
▁privatni	-10.7824
▁biračk	-10.7825
▁Branko	-10.7827
▁skandal	-10.7828
▁mirovina	-10.7828
▁Zvonimir	-10.7828
▁oduzet	-10.7828
▁tužb	-10.7828
▁intimn	-10.7829
▁Bad	-10.783
▁Plan	-10.783
▁brže	-10.7831
On	-10.7833
▁cm	-10.7834
▁Zagor	-10.7836
▁formira	-10.7838
▁Bojan	-10.7839
▁oprosti	-10.784
▁Dani	-10.7844
▁Mark	-10.7844
▁jaka	-10.7846
▁predviđen	-10.7849
vid	-10.7851
▁Maksimir	-10.7853
Brak	-10.7853
▁pokušat	-10.7853
▁sudjeluj	-10.7853
njen	-10.7853
▁utvrdil	-10.7855
▁74	-10.7855
čkih	-10.7856
▁ureda	-10.7857
▁opasno	-10.7858
▁Marić	-10.7862
▁lijek	-10.7863
▁Mali	-10.7863
▁aktivnost	-10.7864
▁polako	-10.7866
▁dodatni	-10.7866
▁radionica	-10.7867
vela	-10.7867
▁Dori	-10.7869
▁jeftinij	-10.7871
▁prodan	-10.7873
▁pucao	-10.7874
čna	-10.7876
vez	-10.7878
▁Ger	-10.7879
▁restorana	-10.7883
▁84	-10.7884
▁Primjerice	-10.7885
▁najpopularnij	-10.7885
▁željezničk	-10.7885
▁Livaja	-10.7885
▁donacij	-10.7887
▁upis	-10.7888
▁Križ	-10.789
▁dove	-10.789
▁zabrani	-10.7891
▁procjenjuj	-10.7892
▁olujn	-10.7894
▁Bol	-10.7894
▁obale	-10.7897
▁78	-10.7897
▁zahvat	-10.7897
▁djelovanja	-10.79
▁Penava	-10.7901
▁člank	-10.7902
▁derbiju	-10.7903
aši	-10.7903
▁preuzel	-10.7906
▁veli	-10.7906
tel	-10.7906
▁sektora	-10.7908
▁prisjeti	-10.7908
▁Ad	-10.791
ovo	-10.7912
▁odabran	-10.7912
▁Matej	-10.7913
▁lokaciji	-10.7913
▁produ	-10.7913
▁Udruga	-10.7914
▁učinkovit	-10.7915
LI	-10.7915
▁rekordn	-10.7915
▁Mad	-10.7915
▁nered	-10.7915
▁kazneni	-10.7921
▁tivn	-10.7921
▁izložen	-10.7928
▁Majk	-10.793
▁doznaje	-10.793
▁Rumunjsk	-10.793
▁uvoz	-10.7937
▁Red	-10.7938
▁Norvešk	-10.7942
▁natjecanjima	-10.7942
▁suradnik	-10.7942
▁izgubljen	-10.7942
▁Miroslav	-10.7943
▁naprijed	-10.7943
▁omogućava	-10.7948
vjer	-10.7949
▁agresivn	-10.7949
▁komisije	-10.795
▁pir	-10.795
▁brine	-10.7952
▁vruće	-10.7952
▁1,5	-10.7953
▁IT	-10.7953
wi	-10.7953
▁ugodno	-10.7955
▁crkve	-10.7959
▁šalje	-10.796
▁prikazan	-10.7961
▁trg	-10.7961
▁režij	-10.7962
naj	-10.7967
▁Englesk	-10.797
▁Ču	-10.7974
▁spomenuti	-10.7977
▁ženu	-10.7983
▁Hrvat	-10.7986
▁oboje	-10.7991
▁spol	-10.7993
▁stručnjaka	-10.7994
▁nogometaša	-10.7995
▁Zemlj	-10.7996
▁Kakv	-10.7996
▁aktivnostima	-10.7996
▁Ukrajinsk	-10.8
▁industrijsk	-10.8
▁sredstvima	-10.8
▁prvoligaš	-10.8001
▁BDP	-10.8001
▁Sloveniji	-10.8001
▁Sveti	-10.8003
▁utrci	-10.8004
▁trenutn	-10.8005
▁ulaznica	-10.8006
▁Lin	-10.8007
▁Nikolin	-10.8015
▁poštovanje	-10.8017
▁dobrom	-10.802
▁tren	-10.8023
▁95	-10.8027
▁isključen	-10.8031
▁Jedin	-10.8032
▁niže	-10.8038
▁bend	-10.8038
▁pouzdan	-10.8038
▁Bud	-10.804
▁fu	-10.8042
▁razina	-10.8045
▁stupanj	-10.8047
▁službeni	-10.805
anović	-10.8053
▁članov	-10.8055
ü	-10.8055
▁Vozač	-10.8058
▁inzistira	-10.8058
▁posjetitelje	-10.8058
▁pratnj	-10.8058
▁srcu	-10.8059
težak	-10.8059
▁pojavljuj	-10.806
▁stajališt	-10.8061
▁tvari	-10.8062
▁brzine	-10.8062
▁Mislav	-10.8063
▁pripadnici	-10.8063
▁priznati	-10.8064
▁Nik	-10.8064
▁vratima	-10.8066
stupan	-10.8068
▁originaln	-10.8069
▁71	-10.8073
▁Nemoj	-10.8081
▁Rim	-10.8088
▁Frank	-10.8089
▁ustanove	-10.8089
▁nska	-10.8091
▁zaboravi	-10.8093
cira	-10.8101
▁bek	-10.8103
▁Oko	-10.8104
rac	-10.8106
▁komisij	-10.8109
▁icu	-10.8109
▁Gruzij	-10.8117
▁posjetitelja	-10.8117
▁Lijep	-10.8117
▁inovativn	-10.8117
▁uzor	-10.8117
▁potvrđen	-10.8117
▁konačnici	-10.8117
▁potencijalno	-10.8117
▁virus	-10.8117
▁2000	-10.812
▁Petrović	-10.8122
▁Americi	-10.8122
▁Hajdukov	-10.8125
▁takvo	-10.8127
▁snažno	-10.8127
▁traga	-10.813
▁Škotsk	-10.813
▁emisija	-10.8132
aily	-10.8133
acije	-10.8133
▁Fe	-10.8136
▁savjetnik	-10.8136
▁djelatnika	-10.8137
▁Niko	-10.8138
▁većini	-10.814
▁zahtjevn	-10.8142
▁moji	-10.8146
▁duže	-10.8147
▁mirn	-10.8149
▁(5	-10.815
▁Yorku	-10.8158
▁Beograd	-10.8158
▁manjina	-10.8161
▁plana	-10.8164
lly	-10.8168
▁pristupa	-10.817
▁cijenama	-10.817
▁urban	-10.8172
▁Nacional	-10.8173
▁očekujem	-10.8173
▁invaliditetom	-10.8175
▁oporavak	-10.8175
▁promovira	-10.8175
▁firm	-10.8176
▁kosu	-10.8177
▁reagirao	-10.8177
▁kostim	-10.8179
▁politici	-10.8187
vodi	-10.8191
▁ligu	-10.8193
▁oper	-10.8198
▁čestita	-10.8199
que	-10.8201
▁sudar	-10.8207
▁tro	-10.8208
▁Mol	-10.8211
▁Puli	-10.8215
▁lagano	-10.8217
▁Cor	-10.822
▁blag	-10.8221
▁disk	-10.8223
▁transparent	-10.8224
▁Bla	-10.8224
▁roditelje	-10.8228
▁plasira	-10.823
▁Uskrs	-10.8235
▁Domagoj	-10.8235
▁recimo	-10.8235
▁Hitn	-10.8235
▁turisti	-10.8236
hat	-10.8236
▁Češk	-10.8238
▁snazi	-10.8239
▁maslinov	-10.824
▁utakmicama	-10.824
▁primarn	-10.8241
▁Max	-10.8242
▁(7	-10.8244
▁temelji	-10.8245
1)	-10.8245
▁temelje	-10.8246
▁razli	-10.8248
▁ispal	-10.8248
▁promatra	-10.825
▁Mer	-10.8258
▁Duj	-10.8263
▁potreban	-10.8263
▁Ostal	-10.8265
▁sudjeluje	-10.8268
Kad	-10.8268
▁reagira	-10.8271
▁vijeće	-10.8272
▁izjava	-10.8274
▁klin	-10.8274
▁el	-10.8276
utim	-10.8276
▁odnosima	-10.8277
▁pamti	-10.8279
▁roka	-10.828
ključiti	-10.8281
▁poslovi	-10.8281
▁kamo	-10.8281
▁detalja	-10.8283
▁Djec	-10.8285
▁Tro	-10.8286
vija	-10.8288
▁obilježava	-10.8293
rit	-10.8294
▁2,	-10.8294
▁Komisij	-10.8294
▁Rusk	-10.8295
▁prihvatljiv	-10.8295
▁bra	-10.8297
▁bijes	-10.8301
▁dodatak	-10.8302
▁nijedn	-10.8302
▁Fl	-10.8304
▁Ovi	-10.8309
▁opskrb	-10.831
▁podjel	-10.8311
▁boln	-10.8313
top	-10.8313
▁Ab	-10.8318
▁Moja	-10.832
▁otpad	-10.8321
▁uplat	-10.8321
▁Čest	-10.8323
▁Isus	-10.8324
▁bun	-10.8324
▁lokalno	-10.8326
▁redovit	-10.8326
▁Gorsk	-10.8327
del	-10.8327
pir	-10.833
što	-10.8335
▁sastavu	-10.8339
▁baca	-10.8339
▁opć	-10.834
▁oglas	-10.8344
▁poljsk	-10.8348
▁krize	-10.8349
▁EUR	-10.835
▁emocija	-10.8352
▁smanjil	-10.8352
▁MUP	-10.8354
▁Taylor	-10.8354
▁dodavši	-10.8354
▁izjavu	-10.8355
▁pravde	-10.8355
▁obr	-10.8356
▁zajedništv	-10.8357
▁nikoga	-10.8357
▁prepun	-10.836
▁ispit	-10.8361
▁objekata	-10.8361
▁vagi	-10.8362
▁kupio	-10.8365
▁Flor	-10.8366
▁dijele	-10.8369
▁Koj	-10.8372
▁korisnik	-10.8377
▁ministr	-10.8377
▁ple	-10.8379
▁isprav	-10.8381
▁x	-10.8382
▁radnici	-10.8388
▁kolovozu	-10.839
▁francuski	-10.8394
▁štiti	-10.8397
▁Upravn	-10.8399
▁iskoristil	-10.84
▁izmjena	-10.84
▁zahval	-10.8402
▁stranice	-10.8405
Ni	-10.8406
▁namirnica	-10.8406
pos	-10.8406
▁partnerima	-10.8408
▁Neka	-10.841
▁poduzet	-10.8412
▁kandidira	-10.8414
▁kolekcij	-10.8414
▁reprezentativc	-10.8414
▁prevencij	-10.8414
▁policajci	-10.8414
▁Horvat	-10.8414
▁umro	-10.8421
▁osjećam	-10.8422
▁utrka	-10.8423
▁disciplin	-10.8425
bom	-10.8427
▁pripremiti	-10.8428
▁Kos	-10.8428
▁upozorenja	-10.843
▁700	-10.8432
▁Počet	-10.8438
▁pali	-10.844
▁izbaci	-10.8449
▁Napo	-10.8453
▁Željk	-10.8458
▁kona	-10.8461
▁rezultira	-10.8462
▁odavn	-10.8462
▁osigurali	-10.8469
▁dvadeset	-10.847
▁Vol	-10.847
▁čvrst	-10.8473
alost	-10.8473
▁popust	-10.8475
▁boravak	-10.8475
▁dijagnoz	-10.8475
▁najbliž	-10.8475
▁općenito	-10.8475
▁poručuje	-10.8475
▁povezuje	-10.8475
▁Jedno	-10.8475
▁Anušić	-10.8475
▁spremna	-10.8476
▁Sigurno	-10.8477
▁Rijeku	-10.8477
rijeme	-10.8478
▁mentaln	-10.8484
▁tragičn	-10.8485
▁omogu	-10.8485
▁suradnja	-10.8488
▁stanovnici	-10.8493
▁mladima	-10.8494
▁Kasni	-10.8494
▁plin	-10.8495
uzeo	-10.85
▁ručn	-10.8503
▁većine	-10.8503
▁Ruski	-10.8504
ney	-10.8504
▁aktualni	-10.8507
▁prometna	-10.8507
▁potvrđuj	-10.8509
▁suprotno	-10.8511
▁odabra	-10.8515
▁reagiral	-10.8516
▁svijesti	-10.8516
▁generacij	-10.8519
▁Lokomotive	-10.852
▁kolegic	-10.8526
▁igral	-10.8527
▁albuma	-10.8528
▁800	-10.8533
▁98	-10.8536
▁dozvola	-10.8536
▁uspjeti	-10.8536
▁pretež	-10.8536
▁nadoknadi	-10.8536
▁Butković	-10.8537
▁Izraelsk	-10.854
▁Konferencijsk	-10.8546
▁investicije	-10.8551
▁viša	-10.8553
▁pasti	-10.8557
▁odgovorila	-10.8558
▁Tre	-10.8561
▁ciklus	-10.8565
▁upal	-10.8565
▁sudačk	-10.8567
ves	-10.8568
▁upotreb	-10.857
▁žup	-10.8575
▁Air	-10.8575
▁proslav	-10.8576
▁pušta	-10.8576
▁međusobno	-10.8578
vjestan	-10.8578
▁proizvođač	-10.858
▁jelo	-10.8585
▁ugostiteljsk	-10.8586
▁toplo	-10.8587
▁treninga	-10.8593
▁naknade	-10.8597
▁smisla	-10.8597
▁obveze	-10.8597
▁Agencij	-10.8597
▁uzrokovati	-10.8597
▁Protiv	-10.8598
▁razvijen	-10.8599
▁Knin	-10.8599
▁kose	-10.8599
šća	-10.8599
▁Saš	-10.86
▁predivn	-10.86
▁faza	-10.8601
▁skupinu	-10.8602
▁Odjel	-10.8603
▁DHMZ	-10.8605
▁jasan	-10.8606
ivanja	-10.8609
▁Bon	-10.861
▁odradil	-10.8612
▁Mnog	-10.8612
▁složen	-10.8613
rani	-10.8617
▁provjeriti	-10.8618
TI	-10.862
▁Mc	-10.8622
▁Ok	-10.8623
▁odgovoriti	-10.8624
rot	-10.8627
▁izać	-10.8627
▁odgovarajuć	-10.8629
▁akciji	-10.8632
▁napominj	-10.8632
▁oduševljen	-10.8633
▁jom	-10.8634
▁ispita	-10.8636
▁tank	-10.8637
▁otvaranje	-10.8637
▁korupcije	-10.8637
▁prepoznati	-10.8643
▁tjedno	-10.8645
lović	-10.8645
▁pretvara	-10.8649
▁toplin	-10.8649
▁AP	-10.8655
▁Rado	-10.8657
▁vatre	-10.8658
▁dozvole	-10.8659
▁opušten	-10.8659
▁potrazi	-10.8659
▁talentiran	-10.8661
mijenjen	-10.8662
bel	-10.8663
▁opisuj	-10.8665
▁pokazatelj	-10.8665
▁obožavatelji	-10.8665
▁99	-10.8666
▁lopta	-10.8667
▁Valentin	-10.8668
▁radove	-10.867
bili	-10.8672
ping	-10.8672
▁susjed	-10.8674
živ	-10.8674
▁jedinice	-10.8675
▁Francuskoj	-10.8679
25	-10.8684
▁čaš	-10.8684
▁Ram	-10.8685
▁Darko	-10.8685
▁nedavn	-10.8687
▁preminul	-10.8693
▁svojeg	-10.8698
▁luci	-10.8702
▁stavov	-10.8703
▁Sigur	-10.8703
▁ponovi	-10.8704
▁napustil	-10.8707
▁dominira	-10.871
▁kultn	-10.8711
▁čelnik	-10.8713
all	-10.8717
▁radnje	-10.8719
▁prijaviti	-10.8719
▁središnje	-10.8721
▁industriji	-10.8721
▁svojevrsn	-10.8721
▁privukl	-10.8721
▁provjere	-10.8722
▁trans	-10.8722
▁prevezen	-10.8723
▁brut	-10.8723
▁pridruži	-10.8724
▁Zadnj	-10.8726
▁osmijeh	-10.8728
▁snimi	-10.8729
▁čudi	-10.8731
▁koncertu	-10.8732
▁ravnatelja	-10.8734
▁30-	-10.8738
▁drže	-10.8738
nicu	-10.8739
▁lošij	-10.8739
▁rizika	-10.874
▁aktivist	-10.8741
▁Zapadn	-10.8741
▁važnij	-10.8743
▁izazvat	-10.8743
▁borac	-10.8746
Sve	-10.875
▁izgledati	-10.8751
▁izlet	-10.8751
▁Anton	-10.8752
▁boravi	-10.8752
▁parlamenta	-10.8754
▁lju	-10.8756
▁njezino	-10.8758
▁pružit	-10.8758
▁smjera	-10.8762
jel	-10.8763
▁emocije	-10.8766
▁83	-10.8768
▁potvrdi	-10.8768
▁dopis	-10.8769
▁News	-10.8775
▁zapošljava	-10.8779
▁dostav	-10.8781
▁sjeveru	-10.8781
▁sitn	-10.8782
▁Sindikat	-10.8784
▁pištolj	-10.8784
▁tranzicij	-10.8784
▁Republic	-10.8784
▁2009.	-10.8784
▁prelazi	-10.8784
▁Otvoren	-10.8784
▁nedostatak	-10.8784
▁co	-10.8785
▁obilježavanj	-10.8785
▁ponaša	-10.8786
▁HR	-10.8786
▁brodov	-10.8787
▁Moskv	-10.8787
src	-10.8789
▁kombinira	-10.8792
▁DJ	-10.8796
▁Rujevici	-10.8797
▁sportu	-10.8802
▁lopte	-10.8803
▁69	-10.8804
▁pregovara	-10.8806
▁Port	-10.881
▁Don	-10.8812
▁objavljeno	-10.8816
▁ideju	-10.8817
▁podatak	-10.8824
▁Berlin	-10.8825
▁Australij	-10.8826
kim	-10.8828
▁prag	-10.8832
▁iznenadil	-10.8833
nov	-10.8839
▁točn	-10.8842
ts	-10.8842
▁čisti	-10.8844
▁Dio	-10.8846
▁kolodvor	-10.8846
▁pozornici	-10.8846
▁prehramben	-10.8846
▁zadovolji	-10.8846
▁spomenik	-10.8851
▁Gorice	-10.8851
▁smiju	-10.8852
▁fakulteta	-10.8855
lice	-10.8855
▁fe	-10.8857
▁brojke	-10.886
▁sjednice	-10.8867
▁nastupio	-10.887
▁kolon	-10.8872
▁prisutnost	-10.8874
▁predloži	-10.8879
▁Njemačk	-10.888
▁cilja	-10.8883
▁stvorit	-10.8884
▁mjestim	-10.8885
▁napao	-10.8886
pitan	-10.8887
▁organiziral	-10.8887
▁obilježil	-10.8889
▁kćer	-10.8889
▁mesa	-10.8889
▁Krk	-10.889
▁otkrivanj	-10.889
▁ži	-10.8896
▁istim	-10.8899
▁Auto	-10.89
▁napadača	-10.8901
▁odli	-10.8903
▁Vrhovn	-10.891
▁konzumacij	-10.891
▁običaj	-10.891
▁gospođ	-10.891
▁Voyo	-10.891
▁dokumentarn	-10.891
▁kampanja	-10.8911
▁Pašalić	-10.8911
▁utrku	-10.8912
▁Dario	-10.8913
▁šalic	-10.8915
▁domaćina	-10.8915
▁visini	-10.8915
▁volje	-10.8916
▁Ć	-10.8918
▁Vatreni	-10.892
▁biskup	-10.8921
▁spasil	-10.8922
▁staja	-10.8922
▁stilu	-10.8923
▁Radio	-10.8924
▁unos	-10.8924
▁sastanku	-10.8926
▁grob	-10.8926
▁že	-10.8926
▁izra	-10.8928
▁metra	-10.8929
▁Leon	-10.8931
▁Tar	-10.8937
▁čudo	-10.8942
▁budi	-10.8948
▁naglasil	-10.8952
▁bri	-10.8955
▁hotelu	-10.8959
burg	-10.896
▁divn	-10.8963
▁1,	-10.8964
▁manja	-10.8965
▁Dug	-10.8967
eno	-10.8969
▁Rus	-10.8971
▁UEFA	-10.8973
▁crkvi	-10.8973
▁poginulo	-10.8973
▁potražnj	-10.8973
▁snimku	-10.8974
▁pravosuđa	-10.8974
▁obračun	-10.8974
▁sveučilišt	-10.8974
▁vještine	-10.8975
zar	-10.8977
▁fokusira	-10.898
▁prostorima	-10.8982
▁slučajno	-10.8982
▁uvođenje	-10.8983
▁Koji	-10.8985
▁Jedn	-10.8986
▁Dol	-10.8988
▁šum	-10.8988
▁dvij	-10.899
▁Lar	-10.899
▁primijeti	-10.899
▁palo	-10.899
Y	-10.8991
ekuje	-10.8991
šin	-10.8992
▁vla	-10.8993
▁Gleda	-10.8993
elim	-10.8993
▁darov	-10.8993
▁namirnice	-10.8998
▁Joško	-10.8999
▁igračk	-10.9
▁Ham	-10.9
▁potrebi	-10.9005
▁komada	-10.901
▁drag	-10.9011
▁povećal	-10.9011
▁eksperiment	-10.9012
▁projektil	-10.9012
▁povećanja	-10.9014
▁skladišt	-10.9017
▁Londonu	-10.9018
▁Var	-10.9019
Plus	-10.902
▁poduzeća	-10.902
▁prosjeka	-10.9024
▁Vidi	-10.9025
▁pokušaja	-10.9025
▁aktivira	-10.9026
▁Sha	-10.9031
▁životinje	-10.9032
▁signal	-10.9035
▁ključna	-10.9035
▁površina	-10.9038
▁rasprava	-10.9038
▁ovlasti	-10.9038
▁skriven	-10.9038
OM	-10.9043
▁din	-10.9045
▁akademij	-10.9046
▁supruge	-10.9046
▁Mladost	-10.9057
hvat	-10.9058
ček	-10.9058
▁Vesn	-10.9058
▁ovsk	-10.9058
▁nosio	-10.906
▁plaćanja	-10.9061
▁saznal	-10.9061
▁posjed	-10.9061
▁puca	-10.9066
▁porasta	-10.907
▁gori	-10.9072
▁Hol	-10.9073
▁konferencije	-10.9075
ric	-10.908
▁količina	-10.9081
▁showu	-10.9083
▁spoln	-10.9083
▁rez	-10.9086
▁platforma	-10.9089
▁Podravk	-10.9089
▁demokrat	-10.9091
▁fondova	-10.9095
▁dramatičn	-10.9098
▁tražili	-10.9098
▁talijanski	-10.9099
▁stranica	-10.91
▁poginuo	-10.9102
▁upućen	-10.9102
▁Vedran	-10.9102
▁tretman	-10.9102
▁glup	-10.9102
▁kultura	-10.9102
▁scenu	-10.9103
▁Orban	-10.9103
▁parking	-10.9105
▁govora	-10.9108
▁Brun	-10.9109
▁pusti	-10.9109
▁agent	-10.9112
▁Dragi	-10.9113
▁najboljim	-10.9116
▁kavu	-10.9116
▁met	-10.9118
▁novosti	-10.912
vel	-10.9121
rna	-10.9122
▁moli	-10.9126
▁predstava	-10.9127
▁neć	-10.9128
▁oznak	-10.913
▁crijeva	-10.9137
▁komentirati	-10.9137
▁et	-10.9141
▁raspolaganju	-10.9143
▁Kijev	-10.9148
avanje	-10.9152
▁zapis	-10.9153
▁promijenio	-10.9155
▁blok	-10.9157
▁vjetra	-10.9158
▁književn	-10.9161
▁Las	-10.9164
▁baštine	-10.9164
▁Vas	-10.9164
▁integracij	-10.9167
▁pretrag	-10.9167
▁Gradonačelni	-10.9167
▁zdravstvo	-10.9168
▁Kalinić	-10.9169
▁sramot	-10.917
▁uspostavi	-10.9171
▁ostvarenj	-10.9172
▁izvješće	-10.9172
▁glava	-10.9173
▁živimo	-10.9173
▁pije	-10.9174
▁zadovoljn	-10.9179
▁uputil	-10.9179
▁zone	-10.9179
▁specijaln	-10.9184
▁zval	-10.9185
▁dar	-10.9185
▁Mateo	-10.919
▁čuje	-10.9193
▁samostaln	-10.9195
▁fotografij	-10.9198
▁projektila	-10.9202
▁inflacije	-10.9208
▁najavljuj	-10.9213
▁načel	-10.9218
▁car	-10.9219
▁izlask	-10.9224
▁zajednici	-10.9228
▁voziti	-10.9228
▁travnjak	-10.9228
▁dječaka	-10.9231
▁televiziji	-10.9232
▁podigl	-10.9233
▁potiče	-10.9233
▁utvrdi	-10.9234
▁obo	-10.9234
▁seriju	-10.9236
▁koncu	-10.9236
▁Matić	-10.9237
▁Dodik	-10.9237
▁vino	-10.9242
etvrtak	-10.9243
▁domet	-10.9244
▁Francuz	-10.9246
▁Srbiju	-10.9249
▁Pep	-10.925
▁osti	-10.9251
▁sunca	-10.9257
▁Rib	-10.9258
čkog	-10.9259
▁osumnjičen	-10.9259
▁stekl	-10.926
▁pil	-10.9263
▁ministrica	-10.9265
rijetko	-10.9267
▁ek	-10.927
▁ponedjeljka	-10.927
▁Broj	-10.9274
▁mladim	-10.9277
▁mah	-10.9278
▁Miro	-10.9278
▁fakultetu	-10.928
▁partneric	-10.928
enju	-10.9281
nata	-10.9281
kaz	-10.9282
▁proglasi	-10.9284
▁neposredno	-10.9286
▁Prav	-10.9286
▁platforme	-10.9288
▁grčk	-10.929
▁One	-10.9297
▁gimnazij	-10.9298
▁obnovu	-10.9298
▁postizanj	-10.9298
▁figur	-10.9298
▁započinj	-10.9298
▁mišljenja	-10.9298
▁brzinu	-10.93
▁srušio	-10.9301
▁bazi	-10.9302
▁kock	-10.9303
▁prigodn	-10.9304
▁daljnji	-10.9304
▁79	-10.9307
▁Postoje	-10.9308
▁77	-10.9309
▁periodu	-10.931
▁neslužben	-10.9311
▁jutra	-10.9316
▁crt	-10.9318
▁međusobn	-10.9319
▁glad	-10.932
▁propusti	-10.9322
▁kompletn	-10.9324
▁autora	-10.9328
▁kapital	-10.9329
▁običn	-10.9329
▁stara	-10.9331
▁88	-10.9332
▁Kina	-10.9332
▁cilju	-10.9333
▁Pobjed	-10.934
▁obeća	-10.934
▁Mogl	-10.9341
▁malen	-10.9342
▁mentor	-10.9344
▁Kost	-10.9346
▁Bl	-10.9346
▁preuzimanj	-10.9355
▁Harry	-10.9355
žin	-10.9355
▁kretanj	-10.936
▁1:0	-10.9364
▁Pavić	-10.9364
▁pandemije	-10.9365
▁psiho	-10.9366
KA	-10.9366
▁pića	-10.9368
▁kakvo	-10.9369
▁puk	-10.9371
▁Očekuje	-10.9371
▁Mato	-10.9372
▁drugačiji	-10.9373
▁Odgovor	-10.9374
▁poljoprivrede	-10.9375
▁istraživanj	-10.9375
▁telj	-10.9378
▁droge	-10.9378
▁istinu	-10.9379
▁vidljivo	-10.9382
▁kasno	-10.9383
▁napravi	-10.9385
▁stupi	-10.9386
▁predstavit	-10.9386
lne	-10.939
▁ljevic	-10.9392
▁građ	-10.9394
▁istaknut	-10.9395
panj	-10.9395
ške	-10.9398
▁droga	-10.9398
▁junior	-10.9399
▁izgubiti	-10.94
▁okupljanj	-10.94
▁odmora	-10.9402
▁Volim	-10.9409
▁vjern	-10.941
▁okolnostima	-10.9412
▁primijetil	-10.9418
▁vin	-10.9423
▁(1	-10.9423
▁Sto	-10.9424
▁završnic	-10.9426
▁počini	-10.9427
▁Vis	-10.9428
▁internetu	-10.9428
▁Tuđman	-10.9431
▁genocid	-10.9431
▁menadžer	-10.9431
▁naknadn	-10.9431
▁molitv	-10.9431
▁kazališn	-10.9432
▁zaustavil	-10.9432
▁Kim	-10.9433
▁volj	-10.9433
▁zdravlju	-10.9433
▁dodir	-10.9434
▁osjećat	-10.9434
▁vještina	-10.9434
▁učinil	-10.9443
▁bračn	-10.9446
▁Rusiju	-10.9448
▁preseli	-10.9449
▁play	-10.9455
▁Mile	-10.9457
▁protivnika	-10.9457
▁partneri	-10.9459
▁splitski	-10.946
▁najmanj	-10.946
ativ	-10.9461
▁tebe	-10.9463
▁sjedište	-10.9464
▁Izbor	-10.9466
pet	-10.9472
▁zgrad	-10.9473
▁Mart	-10.9474
▁kvalifikacija	-10.9476
▁PR	-10.9477
▁gađa	-10.9477
▁81	-10.9479
▁zatvaranj	-10.9489
lagati	-10.9489
▁rane	-10.949
▁komercijaln	-10.9498
▁populacij	-10.9498
▁obožava	-10.9498
▁galerij	-10.9498
▁građansk	-10.9499
▁Dončić	-10.95
▁uređen	-10.95
▁PO	-10.9504
▁Ya	-10.9504
▁uvid	-10.9504
▁kratkom	-10.9505
▁podignut	-10.9505
dajući	-10.9505
▁slučajevima	-10.9507
▁Mlad	-10.951
▁promjenama	-10.9513
▁medicine	-10.9514
▁kombinacija	-10.9514
▁saznanj	-10.9517
▁baka	-10.9517
▁saveznik	-10.9526
▁ozlijeđenih	-10.9536
▁Osob	-10.9537
▁bacanj	-10.9538
▁drama	-10.9545
▁Il	-10.9548
više	-10.955
▁tenisk	-10.955
▁Libanon	-10.9553
▁kum	-10.9557
▁jesen	-10.9558
▁spaja	-10.9559
▁KS	-10.9559
▁okrenut	-10.9561
▁daljnj	-10.9564
▁scena	-10.9565
▁Dubravk	-10.9566
▁industrija	-10.9566
▁inspiracij	-10.9566
▁Građani	-10.9566
▁2010.	-10.9566
▁2008.	-10.9566
▁četvrtfinale	-10.9566
▁čišćenje	-10.9566
▁ozlijedio	-10.9568
▁razmjer	-10.9568
▁povel	-10.9571
▁Video	-10.9571
▁Neće	-10.9573
voz	-10.9574
bran	-10.9576
▁zoni	-10.9577
▁financiranj	-10.9578
▁poznaje	-10.958
▁objasniti	-10.958
▁imenom	-10.9581
▁povrat	-10.9582
rali	-10.9582
▁tajna	-10.9584
▁rukometn	-10.9584
▁Španjolskoj	-10.9585
▁vele	-10.959
▁ostavil	-10.9591
▁Njemačku	-10.9591
▁Berlinu	-10.9592
▁slavil	-10.9593
▁lokalni	-10.9595
▁snimanja	-10.9596
▁mnog	-10.9599
▁navodn	-10.9599
▁izvodi	-10.9603
▁svjesn	-10.9607
▁plavi	-10.9608
▁konzumira	-10.961
▁Baj	-10.961
▁Kur	-10.961
▁viši	-10.9611
▁stražnj	-10.9611
▁centimetara	-10.9612
▁ost	-10.9612
▁proizvodnja	-10.9615
▁dogovoren	-10.9616
▁krivo	-10.962
▁opis	-10.962
▁brata	-10.9621
▁definira	-10.9621
▁Raj	-10.9621
▁briga	-10.9622
▁Balkan	-10.9623
▁pitaju	-10.9623
▁predstave	-10.9625
▁kolač	-10.9629
▁predsjednički	-10.963
▁otvoreni	-10.9631
▁drukčij	-10.9634
▁funkciju	-10.9634
▁regulacij	-10.9634
▁sponzor	-10.9634
▁Medved	-10.9634
▁višestruk	-10.9634
▁fotk	-10.9634
▁oslobođen	-10.9634
▁2006.	-10.9634
▁Večernji	-10.9634
▁isplat	-10.9634
▁tur	-10.9635
▁pojav	-10.9636
▁skromn	-10.9638
▁primanja	-10.9638
▁Madrida	-10.9639
▁priznaje	-10.964
▁Bačić	-10.964
▁Stipe	-10.9641
▁uspijeva	-10.9642
▁hrvatsko	-10.9644
▁stvo	-10.9644
rski	-10.9645
▁raspoloženj	-10.9646
▁detalj	-10.9656
▁činil	-10.9661
▁prošla	-10.9664
▁brd	-10.9668
▁obilje	-10.9668
▁najam	-10.9668
▁kralja	-10.9671
▁sok	-10.9673
▁peti	-10.9676
▁sportaša	-10.9676
▁žrtv	-10.9676
▁crta	-10.9678
▁Art	-10.9679
▁Društv	-10.968
▁osjet	-10.968
▁učitelj	-10.9683
▁benda	-10.9691
▁gran	-10.9691
▁prijetnja	-10.9697
▁vali	-10.97
▁izboru	-10.97
ö	-10.9702
▁Mjesec	-10.9702
▁poručuju	-10.9702
▁švedsk	-10.9702
▁mozga	-10.9702
▁rasprave	-10.9702
▁prirodi	-10.9702
▁nesretn	-10.9703
▁resor	-10.9704
▁druženje	-10.9706
▁plastičn	-10.9706
▁okruženju	-10.9711
▁Vukovar	-10.9713
▁sobe	-10.9715
▁rekl	-10.9718
▁opcije	-10.9719
▁Mail	-10.972
NI	-10.972
▁sigurna	-10.9721
dik	-10.9723
▁zarobljen	-10.9724
▁gostujuć	-10.9727
duk	-10.9727
▁izrazil	-10.9727
▁bak	-10.973
▁adekvatn	-10.9731
▁Hamasa	-10.9732
▁ravn	-10.9734
▁VI	-10.9735
▁mark	-10.974
▁planet	-10.9745
▁pretvori	-10.9749
zir	-10.9749
▁Ser	-10.9751
▁sprije	-10.9754
▁Karl	-10.9755
▁stva	-10.9757
VA	-10.9762
▁doček	-10.9766
▁nezaboravn	-10.977
▁doživljaj	-10.9771
▁poražen	-10.9771
▁prilagodb	-10.9771
▁Macron	-10.9772
▁Zahvaljuju	-10.9772
▁terorističk	-10.9772
ive	-10.9773
▁Znači	-10.9774
▁uzgoj	-10.9774
▁potpisuj	-10.9774
žava	-10.9778
▁uključi	-10.9778
▁trebati	-10.9779
▁muzeja	-10.978
▁Antun	-10.978
▁heroj	-10.9786
▁hlad	-10.9786
▁Nadal	-10.9786
▁tata	-10.9786
▁vidjet	-10.9787
▁kritika	-10.9788
▁jesti	-10.9791
▁TikToku	-10.9798
▁glasi	-10.98
▁izvršn	-10.9801
▁kiselin	-10.9801
kul	-10.9802
▁?!	-10.9803
jednom	-10.9805
▁kata	-10.9805
Do	-10.9806
▁benzinsk	-10.9807
▁hr	-10.9814
▁osmin	-10.9814
▁optužbe	-10.9816
▁saborski	-10.9816
▁članstv	-10.9817
▁2,5	-10.9817
▁boril	-10.9818
▁For	-10.9818
▁britanski	-10.9819
▁umjetnika	-10.982
▁stao	-10.9821
▁oblaka	-10.9822
▁Carl	-10.9823
ford	-10.9823
▁videa	-10.9824
sch	-10.9825
▁Che	-10.9827
▁svježe	-10.9829
▁popularnost	-10.9829
▁mentalno	-10.983
▁slave	-10.9832
▁plesn	-10.9836
▁bacil	-10.9838
▁omogući	-10.9839
▁kontinent	-10.984
▁Dortmund	-10.9841
▁PDV	-10.9841
▁poluvremena	-10.9841
▁uzastopn	-10.9841
▁najuspješnij	-10.9841
▁otkup	-10.9841
▁prestižn	-10.9841
▁staze	-10.9841
▁podupir	-10.9841
▁protein	-10.9841
▁jeseni	-10.9842
▁gust	-10.9842
▁granicu	-10.9843
▁uhitil	-10.9844
▁svrhu	-10.9845
▁kupljen	-10.9845
▁Din	-10.9845
▁tvor	-10.9847
▁šuma	-10.9848
▁sanacij	-10.9851
▁ogrom	-10.9852
▁Ljub	-10.9855
▁Kol	-10.9858
bal	-10.9863
▁automobilom	-10.9864
▁urednik	-10.9864
▁ković	-10.9865
▁plesa	-10.9868
▁Musk	-10.9869
▁kršćansk	-10.987
▁organ	-10.9877
▁veličin	-10.9879
▁Kini	-10.9879
▁posveti	-10.9883
▁lopt	-10.9883
▁pismo	-10.9887
▁vrstu	-10.9888
by	-10.9889
▁praćenj	-10.9892
▁gornj	-10.9892
▁dubin	-10.9893
▁testira	-10.9895
▁završnici	-10.9898
▁dnevni	-10.9901
▁imale	-10.9902
▁prebaci	-10.9904
▁dramsk	-10.9908
▁demografsk	-10.9911
▁pozornicu	-10.9911
▁najdraž	-10.9911
▁trbuh	-10.9911
▁2:0	-10.9911
▁Zapravo	-10.9911
▁poboljšanje	-10.9912
▁savjetuje	-10.9913
▁obiteljima	-10.9914
amp	-10.9914
▁Sučić	-10.9916
▁Boban	-10.992
▁Marković	-10.9921
▁rutin	-10.9923
▁sredini	-10.9924
▁Čeka	-10.9926
▁naselje	-10.9926
▁Neven	-10.9926
▁prevelik	-10.9929
▁djelom	-10.9931
▁finaln	-10.9932
jiv	-10.9934
▁krajnj	-10.9934
▁odradi	-10.9935
▁kim	-10.9937
▁srebrn	-10.9938
▁riba	-10.9938
▁Mand	-10.9942
▁lno	-10.9944
▁relevantn	-10.9944
bot	-10.9945
▁Chi	-10.9945
daju	-10.9948
▁Priča	-10.995
beno	-10.9953
▁legendarni	-10.9954
▁klasi	-10.9954
▁pasa	-10.9956
▁George	-10.9958
▁kuhar	-10.9959
▁reagirati	-10.9959
▁plod	-10.9963
▁kok	-10.9968
▁ure	-10.9973
▁Žup	-10.9974
▁Ir	-10.9979
▁Leipzig	-10.9981
▁Salzburg	-10.9981
▁Sarajevu	-10.9981
▁atentat	-10.9981
▁ravnotež	-10.9981
▁maslac	-10.9981
▁Kremlj	-10.9981
▁radil	-10.9982
▁istok	-10.9983
▁Barcelona	-10.9984
▁teži	-10.9985
▁Amerike	-10.9985
▁pojm	-10.9989
▁brojev	-10.999
▁pregovori	-10.9991
▁političar	-10.9992
▁navika	-10.9996
▁podr	-10.9996
▁OI	-10.9998
▁priznanja	-11
▁trećin	-11.0001
▁pokraj	-11.0013
▁Izraelu	-11.0013
▁nemoguće	-11.0017
▁vizualn	-11.0017
▁lje	-11.0018
▁zona	-11.0021
▁kop	-11.0021
▁državama	-11.0024
▁tolik	-11.0029
▁Država	-11.003
▁formu	-11.0036
▁ispali	-11.0038
uškarac	-11.0039
▁rodila	-11.0041
vdje	-11.0044
▁opisao	-11.0045
▁itd	-11.0046
▁dvorišt	-11.0047
▁tjera	-11.0051
▁Elizabet	-11.0052
▁institut	-11.0052
▁prikupljen	-11.0052
▁staklen	-11.0052
▁zabave	-11.0052
▁kupovin	-11.0052
▁transport	-11.0052
▁Roditelj	-11.0052
▁približi	-11.0053
▁minus	-11.0054
prkos	-11.0054
▁stvoren	-11.0055
▁člana	-11.0055
▁sačuva	-11.0056
▁voća	-11.0056
▁likovn	-11.0056
▁zvijezd	-11.0056
▁Šarić	-11.0057
▁Republika	-11.0059
▁teritorij	-11.0059
▁opisu	-11.0064
▁određeni	-11.0066
▁sadrži	-11.0071
alno	-11.0071
▁Austral	-11.0074
▁Austriji	-11.0074
▁vre	-11.008
▁opravdan	-11.008
▁Mak	-11.0082
▁boravka	-11.0084
▁sugerira	-11.0085
▁podnijeti	-11.0087
lekt	-11.0088
▁žrtva	-11.009
▁metod	-11.0092
▁Obr	-11.0093
▁vao	-11.0093
▁postignut	-11.0093
▁tvrdnj	-11.0095
▁poja	-11.0096
▁sabora	-11.0099
▁Otkri	-11.0104
▁Lokomotiva	-11.011
▁Wal	-11.0112
IS	-11.0113
▁nemate	-11.0116
ham	-11.0118
▁efekt	-11.0123
▁Saudijsk	-11.0123
▁administracij	-11.0123
▁varijant	-11.0123
▁Torcid	-11.0123
▁zastupnic	-11.0124
▁žiri	-11.0124
▁trideset	-11.0125
▁ramp	-11.0126
▁faze	-11.0126
▁ljubimc	-11.0127
▁privlači	-11.0132
▁slučaja	-11.0133
▁elektro	-11.0135
▁plodov	-11.0137
emu	-11.0138
▁marke	-11.014
▁sobi	-11.014
▁82	-11.0141
▁Brojn	-11.0144
▁igrat	-11.0147
▁Rod	-11.0149
vrst	-11.015
▁kave	-11.0151
▁automobilu	-11.0152
pek	-11.0154
▁smrtn	-11.0159
▁tipa	-11.016
▁sabor	-11.016
▁testiranj	-11.0165
▁evoj	-11.0168
▁povoljn	-11.0169
▁stope	-11.0174
▁vozači	-11.0175
▁suda	-11.0176
▁osvajanje	-11.0176
▁krađ	-11.0178
vit	-11.0178
▁kuha	-11.018
▁Jenni	-11.0186
njaci	-11.0187
▁raj	-11.0187
▁obrt	-11.0188
▁Rok	-11.0191
▁domaćeg	-11.0192
▁incidenta	-11.0193
▁generaln	-11.0194
▁Ludbreg	-11.0195
▁koalicije	-11.0195
▁studenata	-11.0195
▁pozadin	-11.0195
▁ozbiljan	-11.0195
▁psihološk	-11.0195
▁imovinsk	-11.0195
▁oružan	-11.0196
▁Slavonsk	-11.0197
▁pobjedničk	-11.0201
▁uspon	-11.0205
▁ugled	-11.0208
vil	-11.0209
che	-11.0212
▁optuži	-11.0213
▁razumijevanje	-11.0215
▁Des	-11.0221
▁puna	-11.0223
nel	-11.0224
▁samostalno	-11.0225
rne	-11.0226
▁mosta	-11.0227
▁Sil	-11.023
▁primili	-11.0237
ting	-11.024
▁uvjerljivo	-11.024
▁ključno	-11.0247
▁rasti	-11.0247
▁Razl	-11.0248
▁studiju	-11.025
▁stotina	-11.0252
▁tajne	-11.0252
▁kvalitetnij	-11.0252
▁prijateljic	-11.0254
▁mnom	-11.0257
▁zgradi	-11.0258
▁Gri	-11.0261
▁sposobn	-11.0262
▁kolektivn	-11.0265
▁Finsk	-11.0266
▁koalicijsk	-11.0268
▁podrazumijeva	-11.0268
▁svlačionic	-11.0268
▁kviz	-11.0268
▁pomogao	-11.0268
▁1-1	-11.0268
▁staza	-11.0269
▁zauzel	-11.0269
▁autentičn	-11.027
▁najgor	-11.027
▁tužn	-11.0271
▁izvedbe	-11.0274
▁kasni	-11.0274
▁Jugoslavije	-11.0275
▁kretanja	-11.0278
▁utjecal	-11.028
▁šećera	-11.0281
▁Roman	-11.0281
dugo	-11.0281
▁krije	-11.0281
▁glasati	-11.0284
▁bogatstvo	-11.0285
▁radnike	-11.0286
▁potpora	-11.0287
▁ispunjava	-11.0288
▁Rog	-11.0289
▁sazna	-11.0289
▁Nagrad	-11.0289
▁siln	-11.0299
▁živote	-11.0303
▁uništen	-11.0303
▁Budi	-11.0307
▁hrabrost	-11.0308
▁odbil	-11.031
ajno	-11.0312
▁obaveza	-11.0313
▁rukomet	-11.0318
▁zamijeni	-11.0318
▁Glazben	-11.0325
▁vic	-11.0329
▁preuzima	-11.0331
▁epizoda	-11.0333
▁povjerenja	-11.0336
▁čaj	-11.0336
▁izašli	-11.0336
▁leta	-11.0337
lac	-11.0339
▁Arabij	-11.0341
▁Stefan	-11.0341
▁nezadovoljstv	-11.0341
▁svjetla	-11.0341
▁japansk	-11.0341
▁predmeta	-11.0341
▁Kovačević	-11.0341
▁nastaj	-11.0344
▁Škol	-11.0348
▁napadima	-11.0349
▁nafte	-11.035
▁sretna	-11.0351
▁zagrebački	-11.0352
▁DC	-11.0354
▁stanica	-11.0357
dol	-11.0359
▁vanju	-11.036
▁suđenje	-11.0361
▁Petrov	-11.0362
▁konj	-11.0362
▁izraelski	-11.0365
▁otpornost	-11.0366
▁inovacij	-11.0367
▁planiranj	-11.037
▁rek	-11.0371
▁prepoznaj	-11.0373
▁umirovljenika	-11.0374
int	-11.0375
▁postavit	-11.0379
▁prodajn	-11.038
▁bog	-11.0382
▁znakovi	-11.0383
▁izvršni	-11.0385
▁širenje	-11.0385
lijeva	-11.0386
▁ratni	-11.0386
▁vodstv	-11.0387
▁10-	-11.039
▁strašn	-11.039
▁neugodn	-11.039
▁sportaš	-11.0393
▁dopušten	-11.0393
▁student	-11.0395
▁pros	-11.0396
▁Luci	-11.0396
▁Emil	-11.0397
▁izazova	-11.0398
▁gužv	-11.0399
▁Advent	-11.04
AK	-11.0406
▁Albanij	-11.0409
▁Bogu	-11.0412
ovoj	-11.0412
▁ugrozi	-11.0413
▁besplatno	-11.0414
▁Puljak	-11.0414
▁SDSS	-11.0414
▁Skupštin	-11.0414
▁YouTube	-11.0414
▁reprezentativn	-11.0414
▁1961	-11.0414
▁desetljećima	-11.0414
▁pažljiv	-11.0414
▁Tvrtk	-11.0414
▁nastave	-11.0414
▁dijalog	-11.0415
▁napredn	-11.0415
▁Jandroković	-11.0415
▁Jones	-11.0416
▁platn	-11.0417
▁komedij	-11.0417
▁izbjeći	-11.0418
zin	-11.0418
▁jače	-11.0419
▁kritičn	-11.042
▁kolik	-11.042
▁izraz	-11.0423
▁stanice	-11.0426
▁radite	-11.0427
▁omjer	-11.0428
▁iznenad	-11.0429
▁vjersk	-11.043
▁neobičn	-11.0431
juje	-11.0434
▁uređenja	-11.0434
▁ponosni	-11.0434
▁Znate	-11.0438
▁zra	-11.0441
▁slaže	-11.0447
▁Can	-11.0448
▁Moguć	-11.0449
▁Boga	-11.0453
▁svijest	-11.0454
▁odraditi	-11.0458
▁All	-11.0463
▁poštova	-11.0463
▁oporbe	-11.0464
▁noćenja	-11.0468
▁općina	-11.0468
▁kant	-11.0471
▁Glum	-11.0473
▁stup	-11.0476
▁pijan	-11.0478
▁automatski	-11.0479
▁bliza	-11.048
▁instrument	-11.0483
▁koleg	-11.0483
▁Thomas	-11.0488
▁odvjetnic	-11.0488
▁uspješan	-11.0488
▁četvorn	-11.0488
▁četvrtfinalu	-11.0488
▁odjeću	-11.0488
▁Govori	-11.0489
▁nazval	-11.0489
▁silovanj	-11.0489
▁vinograd	-11.0489
▁sanja	-11.0489
▁soba	-11.0489
▁sekunde	-11.0489
▁fazu	-11.0489
▁Gre	-11.0491
▁Eurovizij	-11.0491
▁kotač	-11.0492
▁Portugala	-11.0492
2)	-11.0493
IJE	-11.0494
▁rezerv	-11.0495
▁trup	-11.0496
▁elektroničk	-11.0499
▁izračun	-11.0501
▁posad	-11.0502
▁Nin	-11.0503
▁nekada	-11.0505
▁putnik	-11.0506
▁iziran	-11.0507
▁spektakularn	-11.051
▁Ren	-11.0513
lanovi	-11.0514
▁uređenje	-11.0518
▁trajanja	-11.0519
▁ofenziv	-11.0522
▁sudionik	-11.0523
▁Gen	-11.0524
▁stresa	-11.0525
▁investicijsk	-11.0525
▁mla	-11.0526
▁klima	-11.0528
etvrt	-11.0528
▁statisti	-11.0531
▁krun	-11.0533
▁komentira	-11.0536
▁osumnjičeni	-11.0539
▁tehnički	-11.0543
▁sjeverozapadn	-11.0544
▁proba	-11.0545
▁točke	-11.0546
▁izvel	-11.0549
▁pokriva	-11.0549
▁Pin	-11.0553
▁zajedni	-11.0554
▁elitn	-11.0555
▁dizajner	-11.0557
▁našl	-11.0562
▁Ros	-11.0562
▁glazba	-11.0563
▁projekcij	-11.0563
▁tradicije	-11.0563
▁tinejdžer	-11.0563
▁kvalifikacije	-11.0563
▁Celtic	-11.0564
▁pružaju	-11.0572
▁vozačk	-11.0572
ura	-11.0574
▁visoki	-11.0575
▁učink	-11.0582
▁jeftin	-11.0583
▁startu	-11.0584
▁uslijedi	-11.0584
▁ATP	-11.0585
▁cije	-11.0586
▁86	-11.0588
▁mandatu	-11.0588
▁kvalifikacijama	-11.0588
▁nogama	-11.059
▁inspekcij	-11.0592
▁infrastruktur	-11.0593
▁Maro	-11.0594
▁Ran	-11.0595
Moj	-11.0596
avaju	-11.0596
▁molim	-11.0599
miješajte	-11.0599
▁(19	-11.06
▁posjetil	-11.0601
▁Dal	-11.0606
▁voza	-11.0611
▁osobne	-11.0614
▁služba	-11.0616
▁objavljuje	-11.0617
▁izazovn	-11.0618
▁aplikacije	-11.0619
▁alternativ	-11.062
▁sjećanj	-11.062
▁Antonij	-11.0621
▁nost	-11.0622
▁računal	-11.0622
▁zvan	-11.0623
▁popodne	-11.0627
▁igranj	-11.063
▁prirodno	-11.0635
▁pustil	-11.0636
▁zemljišta	-11.0637
▁osnov	-11.0637
neretvansk	-11.0638
▁argument	-11.0638
▁magistral	-11.0638
▁opremu	-11.0638
▁zbirk	-11.0638
▁Cibon	-11.0638
▁cestovn	-11.0638
▁blagoslov	-11.0638
▁vije	-11.0639
▁vladu	-11.0639
▁Premier	-11.0639
▁presuda	-11.064
▁priveden	-11.0641
▁pogodaka	-11.0642
▁smijem	-11.0643
▁Mađarska	-11.0644
▁obalu	-11.0645
hy	-11.0646
▁Austrija	-11.0646
očiti	-11.0648
▁?'	-11.0649
▁Vjet	-11.0649
▁skloni	-11.0651
▁rival	-11.0652
▁prestati	-11.0654
▁Dali	-11.0655
▁zabava	-11.0657
▁pljuskov	-11.0657
▁format	-11.0658
▁dig	-11.066
▁posade	-11.066
▁tragedije	-11.0669
Ljubav	-11.0669
▁NE	-11.067
▁najtež	-11.067
▁kulturno	-11.0672
▁preminula	-11.0672
▁majku	-11.0675
▁obiln	-11.0675
▁osjetil	-11.0676
▁mil	-11.0683
▁Dino	-11.0686
▁koš	-11.0688
▁sadr	-11.069
▁verzij	-11.0692
ivotu	-11.0692
mišljen	-11.0698
▁starijih	-11.0702
▁trgovina	-11.0705
ustav	-11.0708
▁Gran	-11.0709
▁restoranu	-11.0713
▁cjelokupn	-11.0714
▁nagrađen	-11.0714
▁pitanjima	-11.0714
▁veteran	-11.0714
▁Studij	-11.0714
▁promicanj	-11.0714
▁Opatij	-11.0714
▁glumačk	-11.0714
▁Budimir	-11.0715
▁knjizi	-11.0715
▁čelnici	-11.0716
▁Arsenal	-11.0719
▁Osjeća	-11.0719
▁Vidović	-11.072
▁aktiv	-11.072
▁15-	-11.0724
▁logor	-11.0725
▁cijelosti	-11.0728
▁emitira	-11.0729
▁izborni	-11.073
▁šić	-11.0732
▁Rud	-11.0736
▁Kut	-11.0737
▁Jar	-11.0738
▁eto	-11.0739
▁prsten	-11.0739
▁Fu	-11.074
cher	-11.074
▁sumnjiv	-11.0742
▁gor	-11.0743
▁nabavi	-11.0744
▁Zlat	-11.0746
daleko	-11.0746
yn	-11.0746
▁neugodno	-11.0747
▁zakonu	-11.0753
▁Vil	-11.0756
▁dužnosnik	-11.0757
Kako	-11.0758
▁Turudića	-11.0761
▁otkriven	-11.0761
▁Austrije	-11.0763
▁četvrtin	-11.0766
▁uhi	-11.0768
vljen	-11.0769
▁brenda	-11.0776
▁godišnja	-11.0777
▁Modrića	-11.0778
ekivan	-11.0779
▁okupljen	-11.0781
▁imenovan	-11.0781
▁zvon	-11.0781
▁internet	-11.0782
▁Jugoslavij	-11.0782
▁Voj	-11.0784
IP	-11.0788
▁neovisn	-11.0789
▁planin	-11.0789
▁rakete	-11.0789
▁putova	-11.079
▁pečen	-11.079
▁Vjerojat	-11.079
▁tradiciju	-11.079
▁komentator	-11.079
▁suglasnost	-11.079
▁2005.	-11.079
▁srčan	-11.0791
▁Belupo	-11.0791
▁Šimun	-11.0791
▁garaž	-11.0791
▁pripremljen	-11.0792
▁Siniš	-11.0793
▁Zajec	-11.0793
▁Pen	-11.0794
▁Četvrt	-11.0794
▁dodijeljen	-11.0796
▁autoric	-11.0796
▁zabavi	-11.0798
▁kvadrata	-11.0799
▁Stra	-11.08
▁krila	-11.0801
▁zaštititi	-11.0802
▁granici	-11.0803
▁brodova	-11.0806
▁klubovi	-11.0807
▁preporučuje	-11.0809
▁svečanost	-11.0809
▁Trgu	-11.0809
▁bijeg	-11.081
▁primiti	-11.081
đan	-11.0811
▁dobitnik	-11.0812
▁zamisliti	-11.0813
▁azil	-11.0816
▁pravilima	-11.0816
▁Cro	-11.0818
▁nović	-11.0818
▁ulaganje	-11.0819
▁predanost	-11.0819
▁komunikacijsk	-11.0826
vl	-11.0828
▁naučiti	-11.0832
▁ozlije	-11.0833
▁postavil	-11.0833
▁ideal	-11.0835
▁voljen	-11.0837
▁redom	-11.084
▁umak	-11.0844
▁spasit	-11.0845
ther	-11.085
▁postojeće	-11.0854
▁proširi	-11.0856
▁grešk	-11.0863
▁poplava	-11.0864
nec	-11.0865
▁Ivanu	-11.0865
▁udarca	-11.0866
▁Države	-11.0867
▁Kvarner	-11.0867
▁eskalacij	-11.0867
▁svećenik	-11.0867
▁2:1	-11.0867
▁obuhvaća	-11.0867
▁ranij	-11.0869
▁stavljen	-11.0872
▁opremljen	-11.0873
▁nikome	-11.0874
▁iral	-11.0875
▁zime	-11.0875
▁pisalo	-11.0876
▁stvarima	-11.0877
▁buduć	-11.0879
▁malom	-11.088
slov	-11.0881
▁partnerom	-11.0881
▁Marcel	-11.0882
cm	-11.0886
▁Simon	-11.0886
▁pliva	-11.0892
čak	-11.0893
ovec	-11.0894
▁tužitelj	-11.0896
▁postupno	-11.0897
▁Rije	-11.0898
▁Brad	-11.0899
▁boc	-11.0899
▁suho	-11.0904
"",	-11.0905
▁detalji	-11.0907
▁počne	-11.091
▁Posljednji	-11.091
▁zamijenit	-11.091
▁pomogli	-11.0912
▁promijenilo	-11.0913
▁vladajuć	-11.0913
▁ulaska	-11.0914
▁ruci	-11.0919
▁neprijatelj	-11.092
▁LA	-11.0921
▁podržat	-11.0922
▁platil	-11.0924
▁pronalaz	-11.0926
▁zadobi	-11.0927
▁ukras	-11.0927
▁razočaran	-11.0928
▁Gorica	-11.0929
▁podne	-11.0931
▁ciju	-11.0931
▁Francusk	-11.0932
kriv	-11.0932
▁Kap	-11.0935
▁vezn	-11.0935
▁klap	-11.0937
▁ubrza	-11.094
▁Dje	-11.0941
▁Zdravko	-11.0944
▁Chris	-11.0944
▁neovisno	-11.0945
▁Barcelone	-11.0945
▁dozvolu	-11.0945
▁mlijeka	-11.0945
▁nizozemsk	-11.0945
▁sankcija	-11.0945
▁Telegram	-11.0945
▁foto	-11.0945
▁2007.	-11.0945
▁ispitanika	-11.0946
▁podnijel	-11.0946
▁piće	-11.0947
▁tekstov	-11.0948
▁nogometaši	-11.0948
▁svetog	-11.095
▁Stip	-11.0951
vol	-11.0952
▁akter	-11.0953
▁vozilima	-11.0953
▁identificira	-11.0958
▁prijateljica	-11.0964
▁kriza	-11.0964
▁starij	-11.0966
▁dvorane	-11.097
▁vraćaju	-11.097
▁rani	-11.097
▁zabavlja	-11.097
▁Član	-11.0974
▁preša	-11.0975
▁ijom	-11.0976
▁Mel	-11.0977
hor	-11.0979
▁putnici	-11.0984
jske	-11.0986
▁trajanju	-11.0993
▁hod	-11.0996
▁jede	-11.0997
▁ekipi	-11.0998
▁sajm	-11.0998
▁Born	-11.1
▁naglo	-11.1001
▁es	-11.1002
▁djevojčice	-11.1003
▁donošenj	-11.1006
▁Šest	-11.1007
▁Bože	-11.1009
▁fotografira	-11.101
▁temama	-11.1015
▁ošte	-11.1015
▁reakciju	-11.1019
▁glazbi	-11.1023
▁katoličk	-11.1023
▁6-3	-11.1023
▁kamatn	-11.1023
▁romantičn	-11.1023
field	-11.1023
▁liniju	-11.1024
▁napet	-11.1025
▁promijenila	-11.1025
▁plaži	-11.1027
▁namjerno	-11.1027
▁mladosti	-11.1028
▁blokira	-11.1028
▁iznimn	-11.1028
▁viđa	-11.103
▁dolasku	-11.1031
▁preporuč	-11.1032
cional	-11.1032
▁stranku	-11.1034
▁nevrijeme	-11.1035
▁Jurić	-11.1037
▁žalb	-11.1038
▁obavljen	-11.1038
▁natječaja	-11.1038
▁bes	-11.1038
▁gužve	-11.1039
▁koeficijent	-11.104
▁telefonsk	-11.1041
▁parova	-11.1043
▁kritike	-11.1044
▁angažira	-11.1051
▁brig	-11.1051
dite	-11.1052
iranje	-11.1053
▁izgledalo	-11.1053
1000	-11.1058
stavio	-11.1063
▁karijera	-11.1063
▁izvješća	-11.1063
▁ubijeno	-11.1065
▁Drav	-11.1067
▁glazbenika	-11.1068
▁točka	-11.1079
▁kuk	-11.1081
vjeren	-11.1082
igra	-11.1084
▁oru	-11.1087
▁punom	-11.1092
▁bitna	-11.1092
▁plovi	-11.1092
▁izgubi	-11.1092
▁potpisal	-11.1093
ness	-11.1094
▁Zor	-11.1094
▁Kaza	-11.1095
▁tvrtku	-11.11
▁straha	-11.1101
▁Situacij	-11.1102
▁isporuk	-11.1102
▁6-4	-11.1102
▁postupci	-11.1102
▁zabavu	-11.1102
▁rečenic	-11.1102
▁princip	-11.1102
▁visine	-11.1106
▁nadolazeć	-11.1106
▁Ranij	-11.1108
▁ostan	-11.1108
▁novinarsk	-11.1111
▁sigurn	-11.1111
▁sobu	-11.1112
▁plastik	-11.1113
▁točni	-11.1116
gač	-11.1116
▁izađ	-11.1117
▁dogovorili	-11.1118
▁oporben	-11.1128
▁prikupljanj	-11.113
▁kandidatur	-11.113
▁Oscara	-11.1133
▁temp	-11.1134
▁zida	-11.1135
▁imenovanj	-11.1136
▁grupi	-11.1139
▁Dar	-11.1142
▁zahvaln	-11.1142
▁saziv	-11.1144
▁shvaća	-11.1146
▁viz	-11.1146
▁modu	-11.1148
▁očima	-11.115
mišlja	-11.1151
▁nastao	-11.1152
8)	-11.1155
▁Hercegovini	-11.1157
▁Bosni	-11.116
▁pripremil	-11.1163
▁gradit	-11.1163
▁sila	-11.1163
▁obli	-11.1165
▁navedeno	-11.1167
▁lijevo	-11.1171
▁traju	-11.1175
▁Kli	-11.1176
hvaćen	-11.1176
▁otvorenj	-11.1178
▁multi	-11.118
▁prezentira	-11.1181
▁dimenzij	-11.1181
▁iskorak	-11.1181
▁povrće	-11.1181
▁zaslužuje	-11.1181
▁prisiljen	-11.1181
▁opisal	-11.1181
▁zmij	-11.1182
▁Pojas	-11.1182
▁pokloni	-11.1183
▁parkirališt	-11.1184
zbio	-11.1184
▁aviona	-11.1184
▁tretira	-11.1186
▁usporedi	-11.1187
▁Splitsk	-11.119
▁čas	-11.1191
pres	-11.1191
▁nabave	-11.1192
▁Vukovaru	-11.1195
tručnjaci	-11.1199
ult	-11.1199
▁partij	-11.1205
▁Plav	-11.1206
velike	-11.1207
▁ugodn	-11.1209
▁Times	-11.1209
▁kupaca	-11.1211
▁prikupi	-11.1212
▁ispuniti	-11.1214
▁trgovini	-11.1214
▁programe	-11.1219
▁prvenstven	-11.122
▁Len	-11.1222
▁prijetnji	-11.1224
▁otkaza	-11.1231
▁2000.	-11.1232
▁uživaju	-11.1239
▁kombinaciji	-11.124
▁Slovačk	-11.1241
▁Istaknu	-11.1243
▁manifestacija	-11.1244
▁ekip	-11.125
▁Baturina	-11.1251
zmu	-11.1252
▁impresivn	-11.1259
▁aerodrom	-11.1261
▁horoskop	-11.1261
▁rezolucij	-11.1261
▁simptomi	-11.1261
▁sugovornik	-11.1261
▁špijun	-11.1261
▁Mihael	-11.1261
▁pomogne	-11.1261
▁tržnic	-11.1261
▁hranom	-11.1261
▁Voditelj	-11.1261
▁kritičar	-11.1262
▁pješačk	-11.1262
▁utorka	-11.1262
▁naselju	-11.1262
▁liječenja	-11.1262
▁vladavin	-11.1264
vršava	-11.1264
▁djevojčica	-11.1264
▁izvođač	-11.1265
▁upoznat	-11.1265
▁tepih	-11.1266
▁spasio	-11.1266
▁migranata	-11.1268
▁gušt	-11.1268
▁unuk	-11.1268
▁rukom	-11.1268
▁ograničenja	-11.127
▁lovi	-11.127
▁prili	-11.1271
▁Eurosongu	-11.1271
▁dugogodišnji	-11.1273
▁izvještava	-11.1273
▁180	-11.1274
▁Drugom	-11.1276
▁92	-11.1276
▁presude	-11.1277
▁baštin	-11.128
▁smjel	-11.128
▁pojedinci	-11.128
▁policajaca	-11.1281
▁ribe	-11.1282
▁auta	-11.1285
▁ciji	-11.1285
▁fil	-11.1287
▁Smatram	-11.1288
▁obratit	-11.129
ller	-11.1291
▁ključ	-11.1294
▁vrećic	-11.1296
▁sporazuma	-11.1301
▁ruž	-11.1301
▁upisan	-11.1312
▁Ljubi	-11.1313
▁Roko	-11.1315
▁Reala	-11.1315
▁diplomatsk	-11.1315
▁Der	-11.1316
▁Kuk	-11.1317
▁dvoboja	-11.1319
▁suparnika	-11.1323
cikl	-11.1324
▁poboljšanj	-11.1327
▁aplikacij	-11.1327
▁ustanova	-11.1331
LO	-11.1333
▁ml	-11.1339
▁užasn	-11.1341
▁ceremonij	-11.1342
▁Imotsk	-11.1342
▁odvojen	-11.1342
▁zatekl	-11.1343
▁trgovin	-11.1346
▁motivacij	-11.1347
▁crno	-11.1349
▁šeta	-11.135
▁slobodan	-11.1351
▁tablet	-11.1352
▁putuje	-11.1353
avni	-11.1356
▁obra	-11.1357
nske	-11.1359
▁reper	-11.136
▁Laur	-11.1361
▁istarsk	-11.1364
▁zatražil	-11.1368
▁tragedija	-11.1371
▁Papa	-11.1372
▁prijevoza	-11.1372
▁susjedi	-11.1372
▁vječn	-11.1375
▁Amerikanci	-11.1376
▁vjeru	-11.138
lažu	-11.1381
nički	-11.1382
▁savjete	-11.1383
▁sije	-11.1385
▁biološk	-11.139
pati	-11.139
▁Traži	-11.1392
▁starta	-11.1403
▁Tamara	-11.1404
▁Kul	-11.1407
▁vojnici	-11.1408
▁izveden	-11.141
▁luk	-11.141
▁gorsk	-11.1411
▁agencij	-11.1412
▁prednj	-11.1421
▁prista	-11.1422
▁jednostavan	-11.1423
▁klupe	-11.1423
▁oslanja	-11.1423
▁subvencij	-11.1423
▁crnogorsk	-11.1423
▁prijašnj	-11.1423
▁verbaln	-11.1423
▁pratitelja	-11.1423
utsal	-11.1424
▁Američki	-11.1424
▁Livaković	-11.1424
▁ocean	-11.1424
ivan	-11.1425
▁sunce	-11.1425
▁Madridu	-11.1426
▁Obitelj	-11.1426
▁obraz	-11.1426
▁Arena	-11.1428
▁kroničn	-11.1428
▁Vara	-11.1428
▁Gabriel	-11.1431
▁svašta	-11.1432
▁osječk	-11.1433
njić	-11.1436
▁Navijači	-11.1437
▁studentsk	-11.1438
▁turizmu	-11.1449
▁klo	-11.1453
▁grupn	-11.1458
▁Bidena	-11.1458
ys	-11.1459
▁ovisnost	-11.1459
▁vlastiti	-11.146
▁popularni	-11.1465
▁podržal	-11.1465
▁kreativnost	-11.1468
▁spremno	-11.147
▁lansira	-11.1476
▁ispitivanj	-11.1478
▁Počel	-11.1479
▁atmosfer	-11.1482
▁fer	-11.1483
▁držal	-11.1484
▁biraju	-11.1484
▁stabilnost	-11.1486
nošću	-11.149
▁učenike	-11.1496
▁pogotk	-11.1498
10	-11.1499
▁tereti	-11.1499
▁metal	-11.15
▁Sjever	-11.1501
▁križa	-11.1502
▁posjetiti	-11.1503
▁luku	-11.1504
▁osoblje	-11.1505
▁smeće	-11.1505
▁jučerašnj	-11.1505
▁tanjur	-11.1505
▁brzinom	-11.1505
▁sezonsk	-11.1505
VO	-11.1506
▁Rudeš	-11.1506
▁strijelc	-11.1506
▁Vekić	-11.1507
▁korner	-11.1507
▁hladnjak	-11.1507
▁130	-11.1507
▁vjenčanja	-11.1508
Mi	-11.1508
▁bodove	-11.151
▁otkrić	-11.1512
▁89	-11.1513
▁prometnu	-11.1515
▁salon	-11.1518
▁podlog	-11.1519
▁objaviti	-11.1523
▁okr	-11.1523
dala	-11.1525
vir	-11.1528
▁novinsk	-11.1529
▁zapad	-11.1533
▁ruše	-11.1535
▁pjevačic	-11.1535
▁iskusn	-11.1536
▁Vin	-11.1539
▁prijelazn	-11.1539
▁Brz	-11.1541
▁metoda	-11.1542
▁klubovima	-11.1542
▁iskaza	-11.1542
stao	-11.155
▁izni	-11.1552
▁smjes	-11.1554
▁liječi	-11.1555
▁okrenu	-11.1557
▁fanovi	-11.1558
▁dobiju	-11.1558
▁dodal	-11.1559
▁IN	-11.1559
▁ojača	-11.156
▁Duh	-11.156
▁zločina	-11.1561
▁3-1	-11.1563
isto	-11.1564
▁financiranje	-11.1565
▁makar	-11.1566
▁pridružil	-11.1566
▁nauči	-11.1569
▁Far	-11.157
▁Nek	-11.1576
▁oglasila	-11.1576
▁Nemam	-11.1583
▁biznis	-11.1587
▁Slavoniji	-11.1587
▁HTV	-11.1587
▁Benjamin	-11.1587
▁kažnjen	-11.1587
▁Korčul	-11.1587
▁adresu	-11.1587
▁Rafale	-11.1587
▁Savjet	-11.1588
▁Leyen	-11.1588
▁povezivanj	-11.1588
▁riješen	-11.1588
▁Alex	-11.1588
▁šokiral	-11.1588
▁dobn	-11.1588
▁Luk	-11.1592
▁zi	-11.1592
▁iznenadio	-11.1592
▁Marjan	-11.1592
▁Naši	-11.1593
▁praznik	-11.1594
▁Poljske	-11.1595
▁singl	-11.1596
▁tužiteljstv	-11.1598
▁identiteta	-11.1598
▁Savez	-11.1599
▁profesoric	-11.1603
nemojte	-11.1604
▁pravilno	-11.1613
bjeg	-11.1615
▁ciljan	-11.1615
▁Kralj	-11.1619
▁sloj	-11.1619
▁zaslužen	-11.1619
▁robot	-11.1619
▁Sab	-11.162
▁registarsk	-11.1622
▁loša	-11.1622
▁terapij	-11.1624
▁izlaz	-11.1625
▁tele	-11.1625
▁predsjednic	-11.1626
▁koša	-11.1627
▁teksta	-11.1628
▁volonter	-11.1629
▁križ	-11.163
▁radost	-11.1631
▁nikak	-11.1632
▁ugostit	-11.1632
▁tlo	-11.1632
▁prekinu	-11.1632
▁prirodni	-11.1635
▁Igrač	-11.1639
▁pauz	-11.1639
▁Potrebn	-11.1639
▁vrhunski	-11.1643
▁odredi	-11.1645
▁vedr	-11.1648
nsku	-11.165
▁predsjedni	-11.1651
▁Buk	-11.1657
▁normal	-11.1659
▁pati	-11.1667
gnut	-11.1669
▁republik	-11.167
▁unutra	-11.167
▁Juventus	-11.1671
▁Mediteran	-11.1671
▁Zaklad	-11.1671
▁cjelin	-11.1671
▁zamjenu	-11.1671
▁prilagođen	-11.1671
▁snažan	-11.1672
▁gorivo	-11.1673
▁bolničk	-11.1675
▁gume	-11.1675
▁obiteljski	-11.1675
▁osnivanj	-11.1675
▁pomoćnik	-11.1676
▁brutaln	-11.1676
▁navijačk	-11.1676
▁nježn	-11.1677
▁Pir	-11.1678
▁setu	-11.1679
▁čudno	-11.1681
▁obranio	-11.1682
▁Vuj	-11.1684
▁leži	-11.1686
▁krivi	-11.1687
▁djelomičn	-11.1688
▁koljena	-11.1688
▁Mike	-11.1689
▁pism	-11.1689
▁Otok	-11.169
▁otkrivaju	-11.1693
▁vožnju	-11.1695
▁panel	-11.1695
RO	-11.1696
▁opravda	-11.1696
▁dostupni	-11.1699
▁sudit	-11.1699
▁prošlost	-11.1702
▁pojave	-11.1708
▁vojsku	-11.1708
▁puštanj	-11.1709
▁iskustv	-11.171
▁Kursk	-11.1711
▁smrtno	-11.1712
▁žali	-11.1712
▁seniorsk	-11.1713
▁zapo	-11.1713
▁aktivni	-11.1714
laganje	-11.1715
▁Obje	-11.1717
▁ponosn	-11.1717
▁poveza	-11.1719
▁emisij	-11.1721
▁tort	-11.1722
▁slanj	-11.1723
▁Donna	-11.1724
▁završilo	-11.1726
▁osnovi	-11.1727
▁NO	-11.1733
▁djed	-11.1733
▁kupova	-11.1735
▁nađe	-11.1738
▁treningu	-11.1742
▁intenzivno	-11.1745
▁blagdana	-11.1748
▁Hal	-11.1749
▁savjetovanj	-11.1749
▁svemir	-11.1749
etku	-11.1752
▁Barceloni	-11.1755
▁Fakultet	-11.1755
▁bespilotn	-11.1755
▁odlučuje	-11.1755
▁orkestar	-11.1755
▁raskrižj	-11.1755
▁doigravanj	-11.1755
▁nožem	-11.1755
▁stvarnosti	-11.1755
▁popriličn	-11.1758
▁centri	-11.1759
▁greške	-11.176
▁zapošljavanje	-11.1761
▁finalist	-11.1762
▁platform	-11.1763
▁političari	-11.1763
▁zaposlenik	-11.1767
▁motora	-11.1767
▁umjetnost	-11.177
▁apsolutn	-11.177
▁unutarnje	-11.1772
▁zaštit	-11.1772
▁objekta	-11.1772
▁novinari	-11.1772
▁pravedn	-11.1773
▁krevet	-11.1773
▁akademsk	-11.1774
▁pregovore	-11.1775
▁temperatur	-11.1776
▁prehrane	-11.1777
NA	-11.1777
mješten	-11.1777
▁definiran	-11.1777
▁ring	-11.1781
▁Dim	-11.1781
vanju	-11.1781
▁Maur	-11.1783
▁Donj	-11.1785
▁vat	-11.1789
▁raketn	-11.179
▁plasiran	-11.1795
▁potaknul	-11.1797
▁nastavil	-11.1798
▁događaje	-11.1798
▁Slovenija	-11.1801
▁vodstva	-11.1801
▁Div	-11.1802
gre	-11.1802
▁hvali	-11.1804
▁poplave	-11.1806
▁prekri	-11.1807
▁ljubi	-11.1808
▁50-	-11.1808
▁remi	-11.1808
▁gen	-11.1809
▁angažiran	-11.1809
▁teretn	-11.181
▁pripremama	-11.1811
ištu	-11.1812
▁ZA	-11.1814
▁pojava	-11.1823
ins	-11.1824
▁poma	-11.1824
lni	-11.1825
▁inženjer	-11.1827
▁rukometaš	-11.1827
▁postupa	-11.1828
▁proizvodnji	-11.1833
▁srijede	-11.1837
▁reza	-11.1839
▁Koncert	-11.184
▁istražuje	-11.184
▁pohađa	-11.184
▁publikom	-11.184
▁odjeće	-11.184
▁Jučer	-11.184
▁PSG	-11.184
▁obližnj	-11.184
▁praksi	-11.184
▁rekavši	-11.184
▁zadatk	-11.184
▁blagajn	-11.184
▁ideologij	-11.184
▁prisjeća	-11.184
▁natpis	-11.184
▁optim	-11.184
▁nesreću	-11.184
▁glasovi	-11.1841
▁studij	-11.1841
▁trik	-11.1842
▁žirija	-11.1846
OS	-11.1848
▁Pag	-11.1849
▁raspad	-11.1852
▁cestu	-11.1853
▁energija	-11.1856
vna	-11.1858
stavljaju	-11.1859
▁jačanje	-11.1861
▁započet	-11.1861
cc	-11.1864
▁And	-11.1867
▁užival	-11.1869
▁MI	-11.1875
▁Lokomotiv	-11.1878
▁Ameri	-11.1886
▁%	-11.1886
▁priči	-11.1887
▁Gor	-11.1887
šak	-11.1888
▁autobusa	-11.189
▁kemijsk	-11.189
▁doz	-11.1891
▁podrža	-11.1896
▁predstavljanj	-11.1897
▁sadrž	-11.1898
▁Makarsk	-11.1899
▁teritorija	-11.1899
▁Azij	-11.1901
▁Fer	-11.1904
▁vladi	-11.1905
▁raznolik	-11.1906
▁dopustiti	-11.1906
▁zakonom	-11.1911
▁podni	-11.1915
▁čvor	-11.1918
▁dvostruko	-11.1919
▁Rome	-11.192
▁Vidim	-11.1924
▁inozemn	-11.1925
▁najskuplj	-11.1925
▁depresij	-11.1925
▁preživjel	-11.1925
▁haljini	-11.1925
▁karakteristik	-11.1925
▁3-0	-11.1925
▁Jednostavno	-11.1927
▁Sličn	-11.1927
▁redovima	-11.1927
▁korisnike	-11.1927
▁progon	-11.1929
▁hvata	-11.193
▁privlačn	-11.1933
▁ozlijeđeno	-11.1935
▁najvjerojatnij	-11.1935
▁smiri	-11.1937
▁prođe	-11.1939
▁ženi	-11.194
▁postavljanje	-11.1942
▁ster	-11.1948
▁seksualno	-11.1951
▁mislite	-11.1951
▁Juri	-11.1951
▁Zajedno	-11.1953
initi	-11.1954
▁isteka	-11.1955
▁000	-11.1955
▁važni	-11.1955
▁čekam	-11.1957
off	-11.1958
▁Pop	-11.1958
▁konkurent	-11.196
▁proširil	-11.1961
▁Adam	-11.1964
▁prostorija	-11.1964
▁sram	-11.1965
▁Kas	-11.1966
▁broncu	-11.1966
ling	-11.1966
▁stra	-11.1967
▁bran	-11.1967
▁tuđ	-11.1971
▁stanovi	-11.1973
▁zaslu	-11.1975
▁Želi	-11.1977
▁Pitanj	-11.1977
▁Drugog	-11.1977
▁doznal	-11.1977
▁odrasta	-11.1978
▁eks	-11.1981
▁pokrajin	-11.1986
vuče	-11.1987
▁moraln	-11.1989
PO	-11.1991
▁kreditn	-11.1995
▁Navodn	-11.1998
▁Ten	-11.2
▁Andrea	-11.2
▁slučajev	-11.2001
▁profesionalni	-11.2004
▁mobitela	-11.2005
▁by	-11.2006
▁izložba	-11.2009
▁organizaciju	-11.201
▁Međimursk	-11.2011
▁hormon	-11.2011
▁poginula	-11.2011
▁preventivn	-11.2011
▁Habijan	-11.2011
▁Pravo	-11.2011
▁nokaut	-11.2011
▁cjelovit	-11.2011
▁Belupa	-11.2011
▁uzrokovan	-11.2011
▁sredstvo	-11.2011
▁Amerikanac	-11.2012
▁voće	-11.2012
▁krajeva	-11.2012
▁zovu	-11.2013
▁naruči	-11.2013
ON	-11.2014
▁obilježen	-11.202
▁postojal	-11.2021
les	-11.2021
▁beba	-11.2022
▁Miss	-11.2026
▁stupnja	-11.2028
▁izvođača	-11.203
▁Poljskoj	-11.2031
▁čokolad	-11.2035
▁kriminaln	-11.2036
▁priopćenje	-11.2037
old	-11.2038
▁krvav	-11.2038
▁ugovore	-11.2038
▁Srećom	-11.2039
▁traum	-11.204
▁probudi	-11.2042
▁fotograf	-11.2042
▁aplikacija	-11.2049
▁povezani	-11.2052
▁nekadašnji	-11.2053
3)	-11.2054
▁izbornika	-11.2054
▁realno	-11.2057
▁liniji	-11.2058
▁Klara	-11.2058
▁Andrija	-11.2059
▁razmatra	-11.2059
▁podijelit	-11.206
▁učenicima	-11.2061
▁boju	-11.2067
▁jesensk	-11.2068
▁pitala	-11.2069
▁Sen	-11.207
▁kopa	-11.2076
▁desni	-11.2077
▁Zar	-11.2078
á	-11.2079
▁zidov	-11.2081
▁manifestacije	-11.2086
▁mini	-11.2087
▁tramvaj	-11.2087
▁radionic	-11.2091
45	-11.2097
▁divlje	-11.2098
▁junak	-11.2098
▁BMW	-11.2098
▁Ugovor	-11.2098
▁naknada	-11.2098
▁koncerata	-11.2098
▁samouprave	-11.2098
▁Gennar	-11.2099
▁Vladu	-11.2099
▁farmer	-11.2099
▁podcast	-11.2099
MO	-11.2099
▁Hotel	-11.2099
▁klik	-11.2103
▁Prilik	-11.2104
▁Dejan	-11.2105
▁bok	-11.2107
▁tribina	-11.2109
▁Bayerna	-11.2109
▁legenda	-11.2111
▁ter	-11.2119
▁formiranj	-11.2122
▁Karlo	-11.2124
▁isklju	-11.2125
▁trenersk	-11.2128
▁dostupna	-11.2129
etak	-11.2129
▁letjelica	-11.2132
▁zaljubljen	-11.2133
▁93	-11.2136
▁izdvaja	-11.2138
▁Jadrana	-11.2139
▁tekućin	-11.2144
▁čitanj	-11.2145
▁Fin	-11.2146
▁Kovač	-11.2147
▁trudi	-11.2148
▁pažnje	-11.2149
▁bliže	-11.2149
▁sinov	-11.2153
▁Stat	-11.216
▁Osje	-11.216
▁Gornj	-11.216
▁komunikacije	-11.2161
▁realizira	-11.2161
▁oduševila	-11.2161
▁kontaktira	-11.2164
▁stalo	-11.2167
▁pješ	-11.2173
▁Voli	-11.2173
▁konce	-11.2174
greb	-11.2175
▁baci	-11.2175
▁gitar	-11.2178
▁Koprivnici	-11.218
▁tribine	-11.2185
▁naknadu	-11.2186
▁oduševio	-11.2186
▁performans	-11.2186
▁polufinala	-11.2186
▁pridonos	-11.2186
▁rejting	-11.2186
▁stipendij	-11.2186
▁psihičk	-11.2186
▁proljeće	-11.2186
▁promaši	-11.2186
▁najniž	-11.2186
▁mirovn	-11.2187
▁natrag	-11.2187
▁Istraživanj	-11.2188
▁vođa	-11.2189
▁kopnu	-11.219
zam	-11.2191
▁tenisa	-11.2193
▁blokad	-11.2194
▁Bas	-11.2195
gara	-11.2196
▁Alan	-11.2197
▁mještani	-11.2199
▁teras	-11.2201
▁Putinov	-11.2202
▁kul	-11.2208
▁prognozira	-11.221
▁Bilić	-11.221
▁objavil	-11.2213
ožar	-11.2213
▁gradnju	-11.2214
▁Bož	-11.2219
▁kle	-11.2219
▁lijekov	-11.2221
▁dužnosnika	-11.2224
▁sukobu	-11.2224
▁Ovim	-11.2225
▁riv	-11.2225
▁propisa	-11.2225
▁Dobi	-11.2234
▁izlazak	-11.2238
▁Župan	-11.2239
▁you	-11.224
▁tražil	-11.2242
▁Vili	-11.2243
▁Kraljev	-11.2248
▁obavljanj	-11.2251
▁reporterk	-11.2253
▁lni	-11.2253
▁rasprodan	-11.2255
▁But	-11.2258
▁umirovljenici	-11.2261
▁djelu	-11.2263
▁kontroverzn	-11.2264
▁središte	-11.2267
▁prekinul	-11.2267
▁Drug	-11.2269
vet	-11.2271
▁dečk	-11.2272
▁ignorira	-11.2274
▁solidarnost	-11.2274
▁2004.	-11.2275
▁debitira	-11.2275
▁praksa	-11.2275
▁ždrijeb	-11.2275
▁Tonči	-11.2275
▁Kongres	-11.2275
▁kožu	-11.2275
▁djevojku	-11.2277
▁najgore	-11.2278
▁Istina	-11.2279
▁okršaj	-11.228
▁plaža	-11.228
▁strog	-11.228
▁kibernetičk	-11.228
▁vozilu	-11.2281
▁Benčić	-11.2281
▁dvadesetak	-11.2282
▁vinsk	-11.2282
▁biljn	-11.2284
▁drven	-11.2286
▁žalost	-11.2289
▁pritiskom	-11.2293
▁She	-11.2294
▁Došl	-11.2295
▁min	-11.2298
čkoj	-11.2301
▁priopći	-11.2301
▁Omiš	-11.2302
▁pogrešno	-11.2304
▁bitan	-11.2305
▁odvjetništvu	-11.2306
vik	-11.2307
▁eventualn	-11.2308
▁Ukrajinci	-11.2308
▁prehranu	-11.231
▁smještaja	-11.2312
▁pomak	-11.2315
▁čelnika	-11.2315
▁šutnj	-11.2317
Q	-11.2319
▁Por	-11.2322
Život	-11.2325
▁gard	-11.2328
▁mirovinsk	-11.2329
▁kolnik	-11.233
▁korupcij	-11.2334
njava	-11.2334
▁zajednicu	-11.2334
▁Marije	-11.2334
▁pripremaju	-11.2337
▁prisjetil	-11.2339
▁inflacij	-11.234
▁mjesecu	-11.2346
goransk	-11.2348
▁kilometra	-11.2348
fin	-11.2351
▁kontaktu	-11.2351
▁Ronald	-11.2352
▁Zdravk	-11.2353
▁kriminalističk	-11.2353
▁zaštitar	-11.2354
▁individualn	-11.2354
▁Vlatk	-11.2356
▁tekuć	-11.2357
▁Borussi	-11.2359
▁obavi	-11.236
▁Budimpešt	-11.2364
▁CNN	-11.2364
▁Volodimir	-11.2364
▁intenzitet	-11.2364
▁osobom	-11.2364
▁sladoled	-11.2364
▁cvijeć	-11.2364
▁komponent	-11.2364
▁susreć	-11.2364
▁analize	-11.2364
▁razlozi	-11.2364
▁primljen	-11.2364
▁Hrgović	-11.2365
▁povukl	-11.2365
▁litara	-11.2366
▁pritiska	-11.2368
▁spavati	-11.2369
▁Matt	-11.2371
▁brige	-11.2372
▁Filipović	-11.2374
▁pojašnjava	-11.2374
▁Mađarske	-11.2382
▁Jasno	-11.2383
▁nadu	-11.2384
▁suparnik	-11.2385
▁zalih	-11.2392
▁limun	-11.2392
▁sklon	-11.2397
▁elektran	-11.2399
▁Napad	-11.2401
▁članak	-11.2402
▁studira	-11.2403
▁starog	-11.2408
▁Es	-11.241
▁dinamik	-11.2411
▁ozljedama	-11.242
▁odobren	-11.2423
▁kupil	-11.2424
▁Prve	-11.2424
▁Dubrovačk	-11.2424
▁temperaturu	-11.2426
▁parovi	-11.2426
▁vrst	-11.2426
▁tras	-11.2429
▁krenulo	-11.2429
▁dram	-11.2431
▁Putina	-11.2431
▁regija	-11.2431
dija	-11.2433
▁tadašnj	-11.2433
▁ramen	-11.2438
▁snijega	-11.2439
▁priključi	-11.2439
▁Spomen	-11.2444
▁Prv	-11.2448
▁Dodal	-11.2448
▁naučil	-11.2451
▁bizarn	-11.2453
▁maksim	-11.2453
▁Komentira	-11.2454
▁Middleton	-11.2454
▁Poslije	-11.2454
▁kontejner	-11.2454
▁kontrolom	-11.2454
▁rasvjet	-11.2454
▁Mercedes	-11.2454
▁mlijeko	-11.2454
▁operaciju	-11.2454
▁raspravu	-11.2454
▁minutu	-11.2454
▁konobar	-11.2454
▁mišljenju	-11.2454
▁Rusijom	-11.2454
▁Detalj	-11.2454
▁nijans	-11.2455
▁okrivljenik	-11.2456
▁slikar	-11.2459
▁nestala	-11.2461
▁siv	-11.2462
▁stihov	-11.2462
▁dionici	-11.2464
▁sufinanciranj	-11.2464
▁pruži	-11.2473
▁pružil	-11.2474
▁energijom	-11.2475
▁muči	-11.2476
▁akcijsk	-11.2477
▁sletio	-11.2479
▁agresij	-11.2483
▁stop	-11.2484
▁odobrenj	-11.2485
▁raketa	-11.2486
▁složil	-11.2489
▁perspektive	-11.249
▁napal	-11.2491
▁Ras	-11.2491
▁inter	-11.2493
tle	-11.2493
▁velja	-11.2493
▁potrebama	-11.2497
▁kreira	-11.2498
▁uvesti	-11.2512
▁značenj	-11.2513
▁Isti	-11.2515
▁prijedloga	-11.2515
▁dnu	-11.2521
pen	-11.2523
▁raspoložen	-11.2528
▁ponoći	-11.2529
▁prepreka	-11.253
▁srebro	-11.2531
▁obavijest	-11.2534
jeg	-11.2534
▁predlaže	-11.2538
▁shvatit	-11.2539
▁kupnj	-11.2542
▁neuspjeh	-11.2545
▁procijenjen	-11.2545
▁podršci	-11.2545
▁arhiv	-11.2545
▁ukazuju	-11.2545
▁nazvan	-11.2545
▁suveren	-11.2546
▁uredb	-11.2546
▁ručak	-11.2546
▁kokain	-11.2546
▁svadb	-11.2546
▁kazali	-11.2546
▁prilaz	-11.2548
▁znanstvenici	-11.2549
▁Cer	-11.2551
ingham	-11.2553
▁Vlah	-11.2553
▁princeza	-11.2555
▁kupci	-11.2559
▁18-	-11.2561
▁otvorili	-11.2562
▁naročit	-11.2564
▁nasljednik	-11.2565
▁letjel	-11.2567
▁ispao	-11.2567
▁tribinama	-11.2569
▁zvuči	-11.257
▁nadležnost	-11.2571
▁Hezbolah	-11.2572
▁Rob	-11.2573
▁optužb	-11.2574
▁izbjegavati	-11.2574
▁umjetnik	-11.2579
▁dugogodišnj	-11.258
▁Pij	-11.2583
▁nija	-11.2584
▁radnicima	-11.2584
▁kazališta	-11.2588
Gr	-11.2591
▁Crkve	-11.2591
▁institucijama	-11.2594
▁grmljavinom	-11.2598
▁Mes	-11.2599
▁povratn	-11.26
▁nekadašnje	-11.26
info	-11.2602
▁Bolj	-11.2605
▁okupi	-11.2605
▁žen	-11.2609
▁žar	-11.2611
▁ponoviti	-11.2612
▁daval	-11.2612
▁slavila	-11.2617
▁laga	-11.262
▁pozdravi	-11.262
▁odustaj	-11.2621
▁dušu	-11.2622
▁ekonomski	-11.2625
▁učinili	-11.2625
▁odgovaraju	-11.2626
dalje	-11.2627
vlači	-11.2628
▁ll	-11.2631
▁autori	-11.2632
▁automobile	-11.2632
tad	-11.2633
▁glasač	-11.2635
▁Afrik	-11.2636
▁pobačaj	-11.2636
▁sankcionira	-11.2636
▁Milorad	-11.2636
▁takozvan	-11.2636
unarodn	-11.2636
▁zamjenic	-11.2637
▁poluvrijeme	-11.2637
▁ritam	-11.2637
▁šokantn	-11.2637
▁doživjet	-11.2637
▁analiza	-11.2637
▁prilago	-11.2637
▁povrća	-11.2637
▁Denis	-11.2637
▁Boys	-11.2637
▁taktik	-11.2638
▁III	-11.2641
▁Mirko	-11.2641
▁psi	-11.2645
▁Marof	-11.2645
▁saznat	-11.2645
pao	-11.2646
▁krajevi	-11.2647
žil	-11.2648
▁Rock	-11.2648
▁podiž	-11.2649
čne	-11.2651
▁primjeren	-11.2655
▁Mađar	-11.2656
▁Milanovićev	-11.266
▁uvođenj	-11.2661
▁vjeroval	-11.2661
▁manjine	-11.2661
▁nula	-11.2663
▁kuhinji	-11.2665
▁snova	-11.2665
▁brigade	-11.2666
▁Wil	-11.2667
▁bojn	-11.2674
▁igram	-11.2675
▁Hvar	-11.2685
▁punjenj	-11.2685
▁Vla	-11.2686
▁hitnu	-11.2689
way	-11.2694
▁počinj	-11.2694
▁stići	-11.2699
▁polica	-11.2703
▁prešl	-11.2706
▁JE	-11.2712
▁presudi	-11.2715
▁pust	-11.2715
▁najnovije	-11.2719
zel	-11.272
▁zatvorit	-11.2722
čito	-11.2722
▁dobrobit	-11.2722
rač	-11.2725
▁gem	-11.2726
▁postan	-11.2726
▁krp	-11.2727
▁podnosi	-11.2727
▁živio	-11.2728
▁legaln	-11.2729
▁Središnj	-11.2729
▁Istanbul	-11.2729
▁Velebit	-11.2729
▁funkcije	-11.2729
▁obaviješten	-11.2729
▁obnovljiv	-11.2729
▁polufinaln	-11.2729
▁pucnjav	-11.2729
▁specijaliziran	-11.2729
▁švicarsk	-11.2729
▁dozvoli	-11.2729
▁kulturi	-11.2729
▁srećom	-11.2729
▁dovršen	-11.2729
▁Bundeslig	-11.2729
▁trudnoć	-11.2729
▁događal	-11.2729
▁siromašn	-11.273
▁napretk	-11.273
▁Dubrov	-11.273
▁dečko	-11.273
▁ukinut	-11.273
▁obnova	-11.273
▁Sutra	-11.2732
▁čišć	-11.2732
▁oblačno	-11.2732
▁Popović	-11.2733
▁vjernik	-11.2733
▁djelovat	-11.2734
▁ligašk	-11.2735
▁vjere	-11.2735
▁promila	-11.2735
▁27-	-11.2736
injenic	-11.2736
▁Žena	-11.2737
▁dvorištu	-11.2737
▁nezakonit	-11.2737
▁strašno	-11.2737
▁istinit	-11.2741
▁revizij	-11.2742
▁sjeća	-11.2742
▁osvet	-11.2742
▁iskaznic	-11.2745
▁zatvara	-11.2751
▁uniji	-11.2754
▁Ispr	-11.2758
▁Cel	-11.2761
▁engleski	-11.2766
▁interneta	-11.2768
▁Tursk	-11.2773
▁kal	-11.2774
▁porod	-11.2774
▁nebo	-11.2775
bijel	-11.2776
▁Gold	-11.2777
▁podizanje	-11.278
▁Franje	-11.2784
▁juri	-11.2786
▁Božj	-11.2787
ovci	-11.2791
▁biciklist	-11.2793
▁pričati	-11.2796
▁propust	-11.2799
▁Svetog	-11.28
▁carin	-11.28
▁izazvalo	-11.2802
▁RS	-11.2804
▁dogovora	-11.2804
▁iranje	-11.2807
▁obilaz	-11.2808
▁dečki	-11.2809
▁minimalno	-11.2809
▁dugi	-11.2812
▁bliž	-11.2812
▁izjednačio	-11.2813
▁čno	-11.2816
▁Španjolsk	-11.2817
▁1998.	-11.2823
▁Temperatur	-11.2823
▁Wimbledon	-11.2823
▁frizur	-11.2823
▁najbitnij	-11.2823
▁proizlaz	-11.2823
▁simptome	-11.2823
▁softver	-11.2823
▁obnovljen	-11.2823
▁selekcij	-11.2823
▁Partizan	-11.2823
▁odustati	-11.2823
▁SOA	-11.2823
▁zastupa	-11.2823
▁nominiran	-11.2823
▁Peđ	-11.2823
▁efikasn	-11.2823
▁Richard	-11.2823
Superstar	-11.2823
▁pljuskovi	-11.2823
▁nošenj	-11.2824
▁Bogdan	-11.2828
▁uporno	-11.2829
▁vrši	-11.2829
▁Fond	-11.283
▁mijenjaju	-11.2831
▁Blue	-11.2831
▁Dunav	-11.2832
▁teritoriju	-11.2833
▁specijalist	-11.2834
▁pranje	-11.2836
▁žlic	-11.2837
IN	-11.2838
▁Kuć	-11.2838
▁grani	-11.2845
▁Ex	-11.2846
klonjen	-11.2846
▁uspostav	-11.2848
▁sudeći	-11.2849
▁Cup	-11.285
▁Bull	-11.285
▁verzija	-11.2852
puštaju	-11.2854
▁ispadanj	-11.2855
▁izražen	-11.2856
grešaka	-11.2857
▁istraživač	-11.2861
▁partnerstv	-11.2862
▁19-	-11.2863
▁Lov	-11.2868
lop	-11.2868
▁dočekal	-11.2871
▁okoln	-11.2873
Što	-11.2875
▁fali	-11.2881
▁vrti	-11.2881
▁parkira	-11.2882
▁ukusn	-11.2884
▁Vijeće	-11.2884
▁Band	-11.2885
▁povr	-11.2887
▁branič	-11.2889
▁Banj	-11.2889
▁krevetu	-11.2896
▁Jura	-11.2897
▁propis	-11.29
▁Drugo	-11.2902
▁regulira	-11.291
▁ostanak	-11.2912
▁Tour	-11.2914
▁sort	-11.2914
▁Anthony	-11.2917
▁Profimedia	-11.2917
▁haljinu	-11.2917
▁kancelar	-11.2917
▁oporavka	-11.2917
▁potpredsjednic	-11.2917
▁regiju	-11.2917
▁Bugarsk	-11.2917
▁plovidb	-11.2917
▁kopnen	-11.2917
▁pizz	-11.2918
▁Island	-11.2919
▁Novinar	-11.2919
▁neovisnost	-11.2919
▁iznose	-11.292
▁DIP	-11.2921
▁otvori	-11.2922
▁Final	-11.2922
▁učinkovitost	-11.2922
pitao	-11.2922
▁kaj	-11.2925
▁citira	-11.2925
▁zvao	-11.2925
▁zgodn	-11.2933
▁rezultiral	-11.2937
▁90-	-11.294
▁stožera	-11.2941
ign	-11.2941
▁uvodn	-11.2943
▁povlači	-11.2943
▁dira	-11.2944
▁RA	-11.2945
▁gradona	-11.2946
▁precizno	-11.2946
▁Vlaš	-11.2946
▁vjen	-11.2947
▁policijskih	-11.295
pat	-11.2953
▁Mira	-11.2954
▁(0	-11.2955
▁izdavanj	-11.2955
▁Talijansk	-11.2956
▁korake	-11.2958
▁ubija	-11.296
▁zakonit	-11.296
▁160	-11.296
▁trajno	-11.2961
stala	-11.2961
▁kuhan	-11.2964
▁pogreške	-11.2964
▁CO	-11.2964
▁zahtijevaju	-11.2966
wer	-11.2969
▁obvezu	-11.2976
▁stajati	-11.2978
▁intern	-11.298
▁progovori	-11.2981
▁životno	-11.2983
▁Županij	-11.2986
▁Priprema	-11.2988
▁težin	-11.2988
▁rukav	-11.299
▁dodatk	-11.2992
▁rezerviran	-11.2992
▁Bill	-11.2994
▁predavanja	-11.2994
▁norm	-11.2996
▁nigdje	-11.2996
▁zlostavlja	-11.2998
▁odlučn	-11.2999
▁mjerama	-11.3001
▁Brač	-11.3002
▁najvažnijih	-11.3003
▁Poljska	-11.3003
▁motivira	-11.3004
▁odlaze	-11.3006
▁brodu	-11.3006
▁ovis	-11.301
▁Slovenij	-11.3011
▁1995.	-11.3012
▁Atalant	-11.3012
▁International	-11.3012
▁djetinjstva	-11.3012
▁doživljava	-11.3012
▁instalacij	-11.3012
▁kažnjava	-11.3012
▁kontinuitet	-11.3012
▁prognoza	-11.3012
▁protuzračn	-11.3012
▁porijekl	-11.3012
▁desert	-11.3012
▁tijesto	-11.3012
▁prakse	-11.3012
▁pozira	-11.3012
▁humor	-11.3012
▁skrenu	-11.3012
▁Britansk	-11.3012
▁Srednj	-11.3013
▁solarn	-11.3013
▁aparat	-11.3013
▁povlačenj	-11.3013
▁Carlos	-11.3013
▁dvorana	-11.3014
▁plinsk	-11.3014
▁šokiran	-11.3014
▁arhitektur	-11.3015
▁gorju	-11.3015
▁govoru	-11.3016
▁iznenađenja	-11.3017
▁grub	-11.3017
▁mrtvih	-11.3018
▁Poslovn	-11.3018
▁dnevnik	-11.3021
▁saveznici	-11.3023
ww	-11.3023
vlada	-11.3023
▁gomil	-11.3023
tivni	-11.3024
rstva	-11.3024
▁pazi	-11.3029
▁domaćim	-11.3032
▁moment	-11.3035
▁njak	-11.3037
▁izdr	-11.3038
▁čeln	-11.3038
▁odredišt	-11.3039
▁Radovi	-11.3039
▁učiteljic	-11.304
▁Život	-11.3042
▁uspije	-11.3042
▁zanimanja	-11.3044
▁vožnji	-11.3048
▁padne	-11.3048
CI	-11.3049
▁Sljedeć	-11.305
▁vođen	-11.3051
▁namještaj	-11.3052
▁počinjenj	-11.3052
▁čekanja	-11.3053
▁sinu	-11.3056
▁valov	-11.3058
▁1,2	-11.3064
okret	-11.3064
▁provjerava	-11.3064
▁žuti	-11.3065
▁(18	-11.3065
▁vrha	-11.3071
▁Mostar	-11.3072
ložio	-11.3072
▁Glav	-11.3074
▁ograni	-11.3075
rni	-11.3077
▁mislila	-11.3077
▁Boj	-11.3079
▁ubojic	-11.3079
▁uzrokuj	-11.308
▁prihvaća	-11.3082
▁iskr	-11.3082
▁192	-11.3083
▁pluća	-11.3083
▁formaln	-11.3084
▁potpisan	-11.3084
▁Koprivnic	-11.3084
▁spada	-11.3084
▁tadašnje	-11.3084
▁Fri	-11.3085
▁nastavit	-11.3088
▁proizvođači	-11.3089
▁meča	-11.3089
▁gospodar	-11.309
▁zrel	-11.3092
▁tamošnj	-11.3093
▁Ovog	-11.3093
endan	-11.3096
▁nj	-11.3096
▁obraćanj	-11.3097
▁Luc	-11.3098
▁djetetu	-11.31
▁asfalt	-11.3104
▁temeljit	-11.3105
▁događanj	-11.3106
▁Pil	-11.3108
▁Predsjedništv	-11.3108
▁funkciji	-11.3108
▁uslugu	-11.3108
▁Bernard	-11.3108
▁koalicija	-11.3108
▁nedjeljn	-11.3108
▁Atlant	-11.3108
▁pobjegao	-11.3108
▁brončan	-11.3108
▁zapalil	-11.3108
▁asistencije	-11.3108
▁Zrink	-11.3109
▁snimci	-11.3109
▁dž	-11.3109
▁matičn	-11.311
▁Dinamom	-11.3112
▁kombi	-11.3115
▁Pozivam	-11.3115
▁petnaest	-11.3116
▁plaže	-11.3118
▁poginulih	-11.3119
▁otpadom	-11.312
▁izboril	-11.312
▁postupanj	-11.3121
▁najljepše	-11.3121
rop	-11.3122
SA	-11.3124
▁autorsk	-11.3124
▁Cityja	-11.3124
broj	-11.3125
▁Hrvate	-11.3125
▁konstantn	-11.3129
▁Dubai	-11.3129
▁sasta	-11.3132
▁masti	-11.3135
▁rođenja	-11.3135
▁laži	-11.3137
▁sanira	-11.3137
▁kupcima	-11.3138
\/	-11.3141
▁očiju	-11.3142
▁opasne	-11.3142
▁ljuti	-11.3144
▁duha	-11.3145
etkom	-11.315
▁odgovorni	-11.3151
▁Imaju	-11.3153
▁veličine	-11.3154
IJA	-11.3157
▁ostvarivanj	-11.3158
=	-11.316
▁vrijeđa	-11.316
▁izvid	-11.3162
▁elegantn	-11.3166
▁svečano	-11.3168
▁1,4	-11.3171
bas	-11.3171
▁krugov	-11.3173
▁djelatnost	-11.3176
▁šoku	-11.3177
▁spominja	-11.3177
▁Beograda	-11.3181
▁rsko	-11.3182
▁Bat	-11.3184
erson	-11.3184
▁Let	-11.3184
▁cijevi	-11.3186
▁kolnika	-11.3188
▁osu	-11.319
▁oporavi	-11.3191
▁sloboda	-11.3194
▁poginuli	-11.3194
▁čni	-11.3196
▁doveden	-11.3198
▁slan	-11.3203
▁HGSS	-11.3205
▁educira	-11.3205
▁Magazin	-11.3205
▁vraćen	-11.3205
▁dohodak	-11.3205
▁Britaniji	-11.3205
▁imunitet	-11.3205
▁Nicol	-11.3206
▁komunističk	-11.3206
▁poveznic	-11.3206
▁parkirn	-11.3206
▁povišen	-11.3206
▁US	-11.3207
▁Dodatn	-11.3207
▁misija	-11.3209
▁jugozapadni	-11.321
▁Radman	-11.3211
▁riješil	-11.3213
▁voze	-11.3214
▁Opet	-11.3217
▁terorist	-11.3221
▁Marku	-11.3221
▁kandidatima	-11.3224
▁umor	-11.3225
▁odgovorili	-11.3227
▁razumje	-11.3227
▁Pak	-11.3232
▁kazališt	-11.3232
▁razmišljanja	-11.3233
EP	-11.3233
▁pisat	-11.3233
▁Hrvatsko	-11.3234
▁funkcioniranj	-11.3237
▁Vidjel	-11.3238
▁%)	-11.3238
▁gradom	-11.3238
▁pogrešk	-11.324
▁parkiranj	-11.324
▁var	-11.3245
▁zabrinuti	-11.3247
▁Mac	-11.3249
▁fanov	-11.3251
▁ekskluzivn	-11.3254
▁Ken	-11.3254
▁lanac	-11.3255
▁Olimpij	-11.3255
▁nekretnin	-11.3256
▁boksač	-11.3256
ality	-11.3256
stat	-11.3257
▁band	-11.3257
▁Jure	-11.3258
▁primil	-11.3259
▁Slobod	-11.326
▁svjedoče	-11.3263
▁Prvom	-11.3264
▁informira	-11.3265
▁osudi	-11.3265
▁čet	-11.3265
▁posljedicama	-11.3266
▁utvr	-11.3267
▁kva	-11.3277
▁invazije	-11.3282
▁motiviran	-11.3288
▁lijekova	-11.3289
▁tić	-11.3292
▁iznenađen	-11.3294
▁stabilno	-11.3294
▁sprječavanj	-11.3298
▁oblikova	-11.3299
▁Charl	-11.3302
▁Lopez	-11.3303
▁Pantovčak	-11.3303
▁hranjiv	-11.3303
▁kvalifikacijsk	-11.3303
▁postrojenj	-11.3303
▁prigovor	-11.3303
▁OPG	-11.3303
▁Sarajevo	-11.3303
▁Fokus	-11.3303
▁prljav	-11.3303
▁najbrž	-11.3303
▁funti	-11.3303
▁šmink	-11.3304
▁marketing	-11.3304
▁svijeć	-11.3304
▁Trogir	-11.3304
▁Sky	-11.3304
▁trajao	-11.3304
▁utvrđivanj	-11.3304
▁migracija	-11.3304
▁azijsk	-11.3304
▁Tem	-11.3304
ble	-11.3305
▁putuju	-11.3305
▁Ultr	-11.3305
▁apelira	-11.3305
▁ormar	-11.3305
▁brad	-11.3305
▁mnoštvo	-11.3305
▁party	-11.3308
▁otocima	-11.331
▁razvi	-11.3312
▁vijećnik	-11.3313
▁redova	-11.3317
▁zaštita	-11.3318
▁prijavil	-11.332
▁leti	-11.332
▁pozivam	-11.332
▁titul	-11.332
▁Pas	-11.3321
▁lakši	-11.3322
▁Libanonu	-11.3322
▁pristupačn	-11.3323
▁Jane	-11.3323
▁upravn	-11.3329
UR	-11.333
▁marin	-11.3335
▁debi	-11.3337
▁hvale	-11.3338
▁osvajač	-11.3338
▁obe	-11.3341
▁Lak	-11.3342
▁pročita	-11.3342
▁190	-11.3346
▁upozorila	-11.3351
ološki	-11.3355
▁ciklusa	-11.3355
▁Audi	-11.3356
▁bjež	-11.3356
▁strateški	-11.3357
▁grij	-11.3359
▁izbacil	-11.3361
▁Lučk	-11.3362
▁tajnic	-11.3364
▁uništil	-11.3365
▁osjetit	-11.3368
eras	-11.3373
▁zaposlenici	-11.338
▁priušti	-11.3381
▁privla	-11.3382
▁utr	-11.3386
▁prodaja	-11.3387
▁Kh	-11.3388
▁izgradi	-11.3388
▁zadržava	-11.3391
▁podržavaju	-11.3392
▁kandidaturu	-11.3393
▁Nijemci	-11.3393
sil	-11.3393
▁nastoji	-11.3394
▁Thompson	-11.3402
▁Ancelotti	-11.3402
▁Božinović	-11.3402
▁Cristian	-11.3402
▁hektara	-11.3402
▁prebačen	-11.3402
▁prokomentira	-11.3402
▁svakodnevic	-11.3402
▁haljina	-11.3402
▁usredotoč	-11.3402
▁oporba	-11.3402
▁surađuje	-11.3402
▁obnaša	-11.3402
▁ruraln	-11.3402
▁1:1	-11.3402
▁gradovi	-11.3403
▁otkad	-11.3403
▁sistem	-11.3403
▁dronova	-11.3403
▁prilagodit	-11.3403
▁napetosti	-11.3404
▁human	-11.3405
▁IV	-11.3408
▁znanstvenik	-11.3413
▁mega	-11.3415
▁97	-11.3416
▁potpuni	-11.3416
▁banaka	-11.3416
▁96	-11.3421
▁Šime	-11.3423
▁okupljanja	-11.3423
▁portala	-11.3424
▁vjenča	-11.3425
▁Preko	-11.3426
▁slavlja	-11.3426
▁inspirira	-11.3427
▁inflacija	-11.3429
▁sjednicu	-11.3433
▁žrtvama	-11.3439
▁Nika	-11.344
▁sjednica	-11.3443
rušen	-11.3443
▁(9	-11.3443
▁donira	-11.3448
▁Angeles	-11.3453
▁Tad	-11.3456
▁ukus	-11.3456
▁91	-11.3458
▁ulaze	-11.3459
ičević	-11.3459
▁Primorca	-11.3462
▁Idem	-11.3468
▁bronc	-11.3469
▁odgovarati	-11.3471
▁hladnij	-11.3471
▁naglašavaju	-11.3476
▁lić	-11.3478
▁političara	-11.348
▁umorn	-11.348
▁proslave	-11.3483
▁zlostavljanj	-11.3483
čnu	-11.3484
▁Vidje	-11.3485
▁umirovljenik	-11.3489
▁prijavila	-11.3489
▁invalid	-11.3491
▁900	-11.3493
mann	-11.3495
▁Dnevni	-11.3499
▁katastrofa	-11.3499
▁podrum	-11.35
▁Atletic	-11.3502
▁Scholz	-11.3502
▁Swift	-11.3502
▁dijabetes	-11.3502
▁migranti	-11.3502
▁neprestan	-11.3502
▁poslodavac	-11.3502
▁utemeljen	-11.3502
▁Stričak	-11.3502
▁transakcij	-11.3502
▁obilježj	-11.3502
▁Iskreno	-11.3503
▁prekomjern	-11.3503
▁stečaj	-11.3503
▁Miloš	-11.3503
▁kartu	-11.3504
▁Mili	-11.3504
▁poduzetništv	-11.3504
▁Mirjan	-11.3504
▁Miami	-11.3504
▁Gir	-11.3505
▁Kevin	-11.3505
▁glum	-11.3507
▁petero	-11.3507
▁izradi	-11.3508
▁vježbe	-11.3508
▁odobri	-11.3508
▁spašavanja	-11.351
▁Sudac	-11.3512
▁brzina	-11.3513
▁proizvodn	-11.3514
▁kredita	-11.3515
▁Ronaldo	-11.3515
sor	-11.3515
▁Bot	-11.3515
▁oprezni	-11.3516
▁mete	-11.3516
▁napali	-11.3518
▁jazz	-11.352
▁ključan	-11.352
▁razlikuj	-11.352
▁terminal	-11.3524
▁tragedij	-11.3526
▁kupili	-11.3527
▁promijeni	-11.3527
▁zdravo	-11.3529
▁dugu	-11.353
▁ispuni	-11.3532
štar	-11.3537
▁Pjaca	-11.354
▁susjeda	-11.3541
▁("	-11.3542
▁detaljima	-11.3549
▁Ray	-11.355
▁Jedini	-11.3552
visi	-11.3556
▁uobičajeno	-11.3558
▁sjećam	-11.356
▁služe	-11.356
▁perspektiv	-11.3563
▁Sh	-11.3563
▁umjereno	-11.3567
▁Šar	-11.3567
▁djelatnik	-11.3568
mel	-11.3569
▁Gora	-11.3569
▁otvaraju	-11.3576
rick	-11.3577
▁uzork	-11.3577
▁napuni	-11.3587
▁dosadašnje	-11.3592
▁del	-11.3593
▁pustit	-11.3595
▁original	-11.3596
▁start	-11.3596
▁bliski	-11.36
dljiv	-11.36
▁pozdrav	-11.3601
▁podizanj	-11.3602
▁Tottenham	-11.3603
▁revolucij	-11.3603
▁simptoma	-11.3603
▁veterinar	-11.3603
▁Alexander	-11.3603
▁dominantn	-11.3603
▁funkcija	-11.3603
▁pogađa	-11.3603
▁nominacij	-11.3603
▁IDS	-11.3603
▁zaraditi	-11.3603
▁mjesn	-11.3604
▁njegu	-11.3604
▁tehničar	-11.3604
▁potrošača	-11.3604
▁napadi	-11.3605
▁dob	-11.3605
▁druženja	-11.3605
▁Michel	-11.3605
▁izvukl	-11.3606
▁toplije	-11.3609
rotect	-11.361
▁Helen	-11.3611
▁Fotografij	-11.3614
▁gradove	-11.3618
▁Gorici	-11.3618
▁okruženje	-11.3619
▁prepoznali	-11.3619
▁plaćaju	-11.3622
▁uhićenja	-11.3624
▁praktičn	-11.3625
▁proglasil	-11.3625
▁izlazn	-11.3626
▁utječu	-11.3627
▁odustal	-11.3629
▁urednic	-11.363
▁telefona	-11.3632
▁lokal	-11.3633
▁dugoročno	-11.3634
▁fešt	-11.3634
▁magi	-11.3637
▁tehni	-11.364
▁desnic	-11.3641
▁dek	-11.3643
500	-11.3644
▁intervencija	-11.3645
▁Renata	-11.3646
▁posjeduje	-11.3647
▁iskusni	-11.3647
▁Maria	-11.3647
IA	-11.3652
▁brojka	-11.3652
▁manekenk	-11.3655
▁Morat	-11.3655
▁diplom	-11.3656
▁vladajuće	-11.3658
▁strast	-11.3659
pisala	-11.3664
▁najteže	-11.3665
▁plasiral	-11.3665
▁Uglavnom	-11.3666
▁pitati	-11.3669
▁povremen	-11.367
bjekt	-11.3672
prosto	-11.3673
▁ac	-11.3673
▁približava	-11.3673
▁ugleda	-11.3679
▁izvori	-11.368
▁opciju	-11.3682
▁mjerenj	-11.3684
▁rastuć	-11.3685
▁dopust	-11.3687
▁novinarka	-11.3689
▁prijateljstva	-11.3689
▁mještan	-11.369
elimo	-11.3691
▁strpljenj	-11.3692
▁gubit	-11.3693
▁Adri	-11.3697
▁standardn	-11.37
▁gostova	-11.3701
▁Ella	-11.3703
stodobno	-11.3704
▁suše	-11.3705
▁2027.	-11.3705
▁Hajdaš	-11.3705
▁Hezbollah	-11.3705
▁ambijent	-11.3705
▁državljana	-11.3705
▁očekivao	-11.3705
▁Belgija	-11.3705
▁portret	-11.3705
▁skladatelj	-11.3706
▁prirodu	-11.3706
▁trošak	-11.3706
▁udalji	-11.3706
▁podiga	-11.3706
-19	-11.3706
▁Ovakv	-11.3707
▁Uskok	-11.3707
▁pristojn	-11.3707
▁guverner	-11.3707
▁skijaš	-11.3708
▁kupuj	-11.3708
▁dodavanj	-11.3709
▁Janković	-11.3709
▁3,5	-11.3709
▁motorn	-11.3709
▁HAK	-11.371
▁influencer	-11.371
▁remija	-11.3712
▁korišten	-11.3712
▁Moskvi	-11.3713
▁knji	-11.3713
▁išlo	-11.3715
▁debel	-11.3717
▁zabilježil	-11.3717
poznati	-11.3721
▁guma	-11.3724
▁slušat	-11.3731
▁Jack	-11.3732
zija	-11.3735
▁životom	-11.3736
▁oštro	-11.3737
▁vođenj	-11.3738
▁Kijevu	-11.3738
▁gest	-11.374
▁Stvarn	-11.374
▁pojedinc	-11.3742
▁Vijest	-11.3745
▁profesional	-11.3745
vlače	-11.3745
hvatiti	-11.3746
▁Sar	-11.3746
▁odraz	-11.3747
▁koz	-11.3749
▁pozicionira	-11.375
jska	-11.375
▁punim	-11.3754
els	-11.3754
▁komentare	-11.3755
▁ljut	-11.3755
▁sile	-11.3759
▁predstavnic	-11.376
▁zor	-11.376
▁jaht	-11.3762
beni	-11.3762
▁Laz	-11.3765
▁istine	-11.3771
▁prikuplja	-11.3772
▁okružen	-11.3775
▁agresije	-11.3775
▁ometa	-11.3778
rajte	-11.3778
▁Hezbolaha	-11.3778
▁prvaci	-11.3778
▁muškarce	-11.378
▁konkretno	-11.3785
▁razumijevanja	-11.3786
▁razmislit	-11.3787
jsko	-11.3788
▁okusa	-11.3793
▁Ker	-11.3795
▁simpati	-11.3796
▁oduševljeni	-11.3802
▁provedbu	-11.3802
▁BI	-11.3805
▁neuro	-11.3805
▁izdaj	-11.3805
▁ispitivanja	-11.3806
ens	-11.3808
▁veleposlanik	-11.3809
▁stabla	-11.3809
▁Pjesm	-11.3809
▁naslijedi	-11.3809
▁naoblak	-11.3809
▁ankete	-11.3809
▁Ryan	-11.3809
▁adresi	-11.3809
▁civila	-11.3809
▁bomba	-11.3809
▁novcem	-11.3809
▁Kramarić	-11.381
▁precizn	-11.381
▁obojic	-11.3811
▁maloljetnik	-11.3811
▁pripal	-11.3811
▁pravosudn	-11.3811
▁prenijet	-11.3812
▁plamen	-11.3813
▁Jesu	-11.3813
▁sutkinj	-11.3814
▁Vatrogas	-11.3814
▁poštovanja	-11.3814
▁obrazovanju	-11.3814
▁prehrani	-11.3816
▁Mandić	-11.3818
elio	-11.3819
▁uop	-11.3819
▁Martinović	-11.382
▁Tvrdi	-11.382
▁modernizacij	-11.3821
▁kuša	-11.3822
▁razmišljat	-11.3827
▁dija	-11.3828
▁vozače	-11.3831
▁Svečan	-11.3834
dovoljan	-11.3835
tvrd	-11.3835
▁kvalitetno	-11.3838
▁krenu	-11.3844
▁unija	-11.3845
▁Cam	-11.3845
17	-11.3852
my	-11.3853
▁Čovje	-11.3856
▁ritm	-11.3861
▁proved	-11.3868
▁podnesen	-11.3873
▁Milen	-11.3874
▁privatnost	-11.3875
▁manjk	-11.3879
▁valu	-11.3883
▁djevoj	-11.3885
▁dose	-11.3887
▁policajac	-11.3888
▁dublje	-11.3891
▁zdrave	-11.3892
▁izgledal	-11.3897
▁žal	-11.3901
/2	-11.3901
▁ispisa	-11.3903
▁mislil	-11.3904
▁osvajanj	-11.3906
▁ikad	-11.3907
nfluencerica	-11.3908
▁dugogodišnje	-11.3908
SS	-11.3909
▁fan	-11.3909
í	-11.3913
▁1992.	-11.3913
▁inteligencija	-11.3913
▁katedral	-11.3913
▁kolesterol	-11.3913
▁kompromis	-11.3913
▁tjestenin	-11.3913
▁Španjolac	-11.3913
▁Smith	-11.3913
▁Louis	-11.3913
▁rajčic	-11.3913
▁2003.	-11.3913
▁prenose	-11.3913
▁infekcije	-11.3913
▁ranjiv	-11.3914
▁povred	-11.3914
▁drugdje	-11.3914
▁cijenjen	-11.3915
▁proslavljen	-11.3915
▁zube	-11.3916
▁čvrsto	-11.3917
▁prihvaćen	-11.3919
▁očaj	-11.3919
▁odnijel	-11.3922
veden	-11.3924
▁radosti	-11.3927
▁nika	-11.3928
▁tenis	-11.3931
▁sugrađan	-11.3932
Pro	-11.3934
▁mladića	-11.3936
▁kupuje	-11.394
▁Dian	-11.3944
▁Šk	-11.3945
▁dovoljna	-11.3945
▁hip	-11.3946
▁šah	-11.3946
▁omogućuju	-11.3946
▁proslavila	-11.3948
▁kino	-11.3951
▁stavljaju	-11.3951
▁OS	-11.3952
▁nosti	-11.3953
▁ruši	-11.3953
▁razinama	-11.3953
▁tvrdnje	-11.3954
▁prijateljstvo	-11.3961
▁tekstu	-11.3963
▁tadašnji	-11.3966
▁Izborni	-11.397
▁Eurosonga	-11.397
▁stvarnost	-11.3981
▁Slijedi	-11.3984
▁Vodi	-11.3986
▁baterija	-11.3988
▁plaka	-11.3989
▁vođenje	-11.399
▁pomisli	-11.3991
▁Vesel	-11.3997
▁izvedba	-11.4
▁dostojanstv	-11.4001
▁zainteresirani	-11.4002
itav	-11.4006
▁koljen	-11.4006
▁vodeće	-11.4006
▁hibridn	-11.401
▁inspektor	-11.401
▁Selo	-11.4011
▁zadr	-11.4014
▁prodaji	-11.4017
▁Nezavisn	-11.4018
▁brazilsk	-11.4018
▁označava	-11.4018
▁Karoglan	-11.4018
▁Meghan	-11.4018
▁analizu	-11.4018
▁nezgod	-11.4018
▁potraja	-11.4018
▁isplaćen	-11.4018
▁ljepote	-11.4018
▁mozak	-11.4018
▁optužuj	-11.4018
▁Peking	-11.4019
▁Lošinj	-11.4019
▁smrtonosn	-11.4019
▁zabrinut	-11.4019
▁Samobor	-11.402
▁tehnologiju	-11.4021
▁poznaj	-11.4021
▁španjolski	-11.4022
▁Tajvan	-11.4022
▁Jok	-11.4022
▁autoceste	-11.4023
▁Franković	-11.4025
▁Krst	-11.4027
▁pružanje	-11.4028
▁isključi	-11.403
▁kalendar	-11.403
▁Vrati	-11.4031
▁glasovanj	-11.4031
▁šali	-11.4032
▁Nive	-11.4036
▁postaja	-11.404
▁Kristina	-11.4042
▁gradilišt	-11.4042
▁razbi	-11.4044
▁Male	-11.4044
▁pokaže	-11.4046
▁sportaši	-11.4047
▁vašoj	-11.4047
▁povuče	-11.4049
▁prolazak	-11.405
▁pitam	-11.4051
▁WC	-11.4051
▁baterije	-11.4054
▁druži	-11.406
▁izložbi	-11.406
đuje	-11.4061
▁Nogometn	-11.4065
▁okrenul	-11.4066
čenje	-11.4069
▁naglas	-11.4071
▁predvi	-11.4073
▁istup	-11.4075
▁okolici	-11.4084
▁padu	-11.4087
▁okolin	-11.4089
▁okonča	-11.4091
▁staro	-11.4092
▁utvrdit	-11.4093
▁očekivali	-11.4095
▁krav	-11.4096
▁Jose	-11.4096
▁inspiriran	-11.4097
▁ambiciozn	-11.4098
▁donese	-11.41
▁Cal	-11.4105
▁dojmov	-11.4106
▁doseg	-11.4108
ding	-11.411
▁Pita	-11.4111
▁Sjajn	-11.4118
▁Pjeva	-11.4119
▁izdvojit	-11.4122
▁luksuz	-11.4122
▁izvođenj	-11.4123
▁poticanje	-11.4123
▁World	-11.4124
▁Federacij	-11.4124
▁Povjerenstv	-11.4124
▁belgijsk	-11.4124
▁bespovratn	-11.4124
▁graditeljstv	-11.4124
▁marihuan	-11.4124
▁pamćenje	-11.4124
▁suspendira	-11.4124
▁afričk	-11.4124
▁Alcaraz	-11.4124
▁pljačk	-11.4124
▁Lončar	-11.4124
▁stoljeću	-11.4125
▁suđenja	-11.4125
▁koprivničk	-11.4125
▁Dabro	-11.4125
▁domaćini	-11.4125
▁Djevic	-11.4125
▁Izgleda	-11.4125
▁Centru	-11.4125
▁klase	-11.4125
▁zauzet	-11.4126
▁prevari	-11.4126
▁Šef	-11.4127
▁Siriji	-11.4127
▁Mars	-11.4128
▁kružn	-11.4132
▁saboru	-11.4132
▁staž	-11.4134
sing	-11.4136
▁ori	-11.4136
▁Dosad	-11.4136
▁Indi	-11.4136
▁spis	-11.4139
▁plo	-11.4141
▁starost	-11.4142
▁obavez	-11.4148
▁odrasle	-11.4148
▁predstavljanje	-11.415
▁šumsk	-11.4151
▁prehran	-11.4153
▁Andre	-11.4154
▁Steve	-11.4159
▁ubojica	-11.4161
▁Planira	-11.4161
▁nervoz	-11.4161
▁strahov	-11.4162
▁slabo	-11.4167
▁dolje	-11.4168
▁slavni	-11.4168
▁bacio	-11.417
▁četvrtine	-11.4177
▁loži	-11.4178
▁Hor	-11.418
▁kisel	-11.4186
▁dodijeli	-11.4188
fil	-11.4189
šnji	-11.4191
▁štit	-11.4191
▁kvalificira	-11.4193
▁Ast	-11.4194
king	-11.4194
▁krivim	-11.4198
▁Očekujem	-11.4199
▁Kir	-11.4203
▁godišnjic	-11.4204
▁doprinosi	-11.4204
▁strategije	-11.4205
▁stavk	-11.4213
▁nazivaju	-11.4215
▁ukaza	-11.4216
rak	-11.4216
▁kilogram	-11.4218
▁tv	-11.4219
▁razmišljanj	-11.4223
▁osumnjičenik	-11.4223
▁izlaze	-11.4224
▁Svoje	-11.4226
▁nastavn	-11.4227
▁Tru	-11.4228
▁demantira	-11.4232
▁ansambl	-11.4232
▁doduše	-11.4232
▁klupu	-11.4232
▁povjesničar	-11.4232
▁stjecanj	-11.4232
▁tradicija	-11.4232
▁Osvrnu	-11.4232
▁čimbenik	-11.4232
▁raspravi	-11.4232
▁deseci	-11.4232
▁radikaln	-11.4232
▁proljetn	-11.4232
▁Hamburg	-11.4232
▁kišom	-11.4232
gallery	-11.4233
▁produži	-11.4234
▁Najmanj	-11.4235
običan	-11.4239
▁spavanja	-11.4243
▁Dvor	-11.4243
▁25-	-11.4246
▁komentari	-11.4247
▁Fred	-11.4248
▁dijagnosticiran	-11.4249
▁patnj	-11.425
▁lanjsk	-11.4256
▁sjel	-11.4256
▁postotn	-11.4256
etvrti	-11.4257
▁Bayer	-11.4259
▁laboratorij	-11.426
▁Španjolci	-11.426
▁gospodarenj	-11.4261
▁obaln	-11.4261
▁vaju	-11.4261
▁poduzetnici	-11.4262
▁stanovništvo	-11.4265
▁Dubrovački	-11.4267
▁kvadrat	-11.4268
▁napušta	-11.4269
▁Dansk	-11.427
▁asistent	-11.4271
▁Serij	-11.4275
▁prašin	-11.4276
▁posluži	-11.4279
▁jezgr	-11.428
▁ispitan	-11.4282
▁sme	-11.4289
vnog	-11.4294
▁MO	-11.4299
▁ljeti	-11.4301
▁tla	-11.4302
▁temi	-11.4302
▁Tam	-11.4306
▁pobjednic	-11.4309
▁Oz	-11.4313
▁opasna	-11.4316
▁grupu	-11.4319
▁polja	-11.4322
▁razgovaral	-11.4323
▁dlak	-11.4324
▁izabrani	-11.4325
bat	-11.4325
▁paketa	-11.4328
▁bolesn	-11.4328
▁ispravno	-11.4328
▁Ravnatelj	-11.4329
▁jačanj	-11.433
24	-11.4331
▁Vlado	-11.4332
▁počel	-11.4334
▁vokal	-11.4337
▁ulaže	-11.4337
▁Vam	-11.4338
▁Luku	-11.4339
▁suprotstav	-11.434
▁ZET	-11.4341
▁dozvoljen	-11.4341
▁koaliciju	-11.4341
▁svjetlu	-11.4341
▁zaustavljen	-11.4341
▁6-2	-11.4341
▁raspolo	-11.4341
▁Walesa	-11.4341
▁bombe	-11.4341
▁biljke	-11.4341
▁stepenic	-11.4341
▁usklađen	-11.4341
▁Zdenk	-11.4341
▁mrežn	-11.4341
VAJ	-11.4342
▁subotnj	-11.4343
▁Snimk	-11.4343
▁statistiku	-11.4345
▁vjenčanje	-11.4345
vec	-11.4346
▁baza	-11.4347
▁konstrukcij	-11.4347
▁indijsk	-11.4348
▁užas	-11.435
▁derbija	-11.4354
▁sruši	-11.4354
▁zagrij	-11.4354
▁glatk	-11.4356
▁https	-11.4357
bert	-11.4358
▁steka	-11.4365
▁automobili	-11.4369
▁kanalu	-11.4377
▁Babić	-11.4378
▁otrov	-11.4379
▁logičn	-11.4385
▁vijećnici	-11.4385
▁spavanje	-11.4386
▁prijetnju	-11.4387
▁kućic	-11.4387
▁Sum	-11.439
▁zagovara	-11.4391
▁Lici	-11.4391
▁kava	-11.4392
▁trofeja	-11.4394
▁juniorsk	-11.4394
▁Nevjerojatn	-11.4394
▁Turska	-11.4396
▁spremnost	-11.4396
▁Turske	-11.4399
▁Baranj	-11.4399
▁Kaž	-11.44
▁dvoranu	-11.44
▁prosje	-11.4401
▁ukidanje	-11.4402
▁Gaz	-11.4404
▁komplet	-11.4407
▁zraku	-11.4408
▁idealno	-11.4413
▁izacija	-11.4413
▁Deset	-11.4416
▁pek	-11.4416
▁slažu	-11.4427
▁zapadu	-11.4431
▁kriti	-11.4434
▁nepotrebn	-11.4435
▁piva	-11.4436
▁strogo	-11.4436
▁Nizozemska	-11.4438
sput	-11.4439
štvo	-11.444
▁potrošnju	-11.4441
▁stupa	-11.4442
▁izabral	-11.4442
▁ukra	-11.4442
▁raspravlja	-11.4448
▁vrtu	-11.4448
▁postojanj	-11.445
▁Nekad	-11.445
▁Guardiol	-11.445
▁Kandidat	-11.445
▁samopouzdanje	-11.445
▁suzbijanj	-11.445
▁drastičn	-11.445
▁pedeset	-11.445
▁Grmoja	-11.4451
▁rundi	-11.4451
▁Venecij	-11.4451
druzi	-11.4451
▁kišu	-11.4451
▁uvjerava	-11.4451
▁prestaje	-11.4453
▁ocem	-11.4455
▁totaln	-11.4457
▁Umag	-11.4459
▁pogo	-11.4459
▁gledatelje	-11.4461
▁kapitala	-11.4461
šević	-11.4463
▁upravi	-11.4463
▁Gospodin	-11.4467
▁proširenje	-11.4467
▁plaćanje	-11.4468
▁Hod	-11.4468
▁TZ	-11.4469
▁pušk	-11.4469
▁časnik	-11.4471
▁Gosti	-11.4474
▁procijeni	-11.4474
▁Uredb	-11.4478
▁Promet	-11.4479
▁Mađarsk	-11.4479
▁studente	-11.4479
mislite	-11.4481
▁boljim	-11.4482
▁Vatren	-11.4486
stavili	-11.449
▁Az	-11.4492
▁Donje	-11.4498
▁ubrzan	-11.4498
▁razumijem	-11.4502
▁\/	-11.4506
▁mode	-11.4507
▁odgodi	-11.451
▁upotrijeb	-11.4512
▁težine	-11.4512
▁ispr	-11.4515
▁umirovljeni	-11.4517
▁psiholog	-11.4517
▁trenerom	-11.4517
▁vrtiću	-11.4519
▁izvesti	-11.4519
▁presudn	-11.4526
▁neobično	-11.4536
▁autobusn	-11.4538
Nije	-11.4539
jedi	-11.4548
▁ostavili	-11.455
▁namjen	-11.455
▁budit	-11.4551
▁nužn	-11.4554
▁Poljsk	-11.4556
▁Naglasi	-11.4556
▁struke	-11.4556
ó	-11.4562
▁karcinom	-11.4562
▁kemikalij	-11.4562
▁kulinarsk	-11.4562
▁metropol	-11.4562
▁jedanaesterac	-11.4562
▁nadmaši	-11.4562
▁Christian	-11.4562
▁stigne	-11.4562
▁umrla	-11.4562
▁ukraden	-11.4562
▁Dubrovačko	-11.4562
▁Branimir	-11.4562
▁pothvat	-11.4562
▁Leonard	-11.4563
▁balkon	-11.4563
juće	-11.4563
▁grudi	-11.4564
▁MA	-11.4567
▁Njih	-11.4567
▁Grlić	-11.4568
▁očisti	-11.4568
▁Saveza	-11.4569
▁pretkol	-11.4569
7-6	-11.4571
▁čvorov	-11.4572
▁Perković	-11.4572
▁iskus	-11.4573
▁autom	-11.4573
▁bilje	-11.4575
mijeniti	-11.4579
▁domova	-11.4579
▁Trebal	-11.4584
▁donošenje	-11.4585
▁poznajem	-11.4588
▁5000	-11.4589
▁očekival	-11.4593
▁Albanije	-11.4595
▁nji	-11.4595
▁atmosferi	-11.46
▁far	-11.4601
▁lokaciju	-11.4605
▁tik	-11.4605
▁kuhanje	-11.4609
▁učestal	-11.4611
▁bad	-11.4613
▁paziti	-11.4614
ljub	-11.4617
▁23-	-11.4623
▁lika	-11.4625
▁krizu	-11.4625
▁raspon	-11.4626
▁četvrtk	-11.4629
▁1990.	-11.4633
▁predavanje	-11.4633
▁mole	-11.4637
▁zanimal	-11.4639
▁izoliran	-11.4644
▁Uef	-11.4645
baviti	-11.4648
▁bacit	-11.4649
▁kovi	-11.4649
▁disciplini	-11.465
▁nicom	-11.4652
▁Pola	-11.4654
▁liberaln	-11.4655
-5	-11.4656
▁pokušaval	-11.4661
▁prisustvova	-11.4661
▁1,3	-11.4663
▁(2)	-11.4669
▁ban	-11.4672
vodeći	-11.4673
▁Herceg	-11.4674
terapeut	-11.4674
▁Mbappe	-11.4674
▁bakterija	-11.4674
▁edukativn	-11.4674
▁pokreć	-11.4674
▁treninzi	-11.4674
▁unatrag	-11.4674
▁virtualn	-11.4674
▁vremenima	-11.4674
▁poništi	-11.4674
▁Kapetan	-11.4674
▁poštuju	-11.4674
▁3:0	-11.4674
▁izrečen	-11.4674
▁polje	-11.4674
▁Štef	-11.4674
▁produžen	-11.4674
▁Brekalo	-11.4674
▁Grupa	-11.4674
▁uložit	-11.4674
▁Dallas	-11.4674
▁iscrpljen	-11.4674
▁nastojanj	-11.4675
▁proziva	-11.4675
▁Volks	-11.4675
▁propal	-11.4675
▁umrl	-11.4675
▁dodjeli	-11.4676
▁obrasc	-11.4676
▁zbivanja	-11.4676
▁Lind	-11.4677
▁komore	-11.4677
▁sajam	-11.4677
▁1,8	-11.4677
▁pomogla	-11.4677
▁natjecateljsk	-11.4677
▁nestanka	-11.4679
▁Run	-11.4679
▁oborine	-11.468
▁padati	-11.4681
▁predložen	-11.4682
▁inspektorat	-11.4682
lež	-11.4683
▁pješak	-11.4686
▁navikl	-11.4688
▁svjetlost	-11.4689
▁snagama	-11.4689
▁sjet	-11.4691
▁Hercegovin	-11.4692
▁94	-11.4693
▁bojim	-11.4695
▁Ivanec	-11.4697
▁nakit	-11.4697
▁vaterpolist	-11.4699
▁alternativn	-11.4701
▁Štr	-11.4701
▁nisko	-11.4706
▁Cest	-11.4707
▁Paol	-11.4708
▁elit	-11.471
lyn	-11.4713
▁visi	-11.4714
▁masa	-11.4714
▁Ani	-11.4715
▁radnik	-11.4716
▁žila	-11.4717
▁ograničenj	-11.4717
jc	-11.4717
▁pridružit	-11.4721
▁dočekali	-11.4723
▁nasmija	-11.4723
▁napominju	-11.4724
▁spoznaj	-11.4726
▁himn	-11.4726
uška	-11.4727
CE	-11.4731
▁posvetil	-11.4732
▁kupanj	-11.4737
▁Kolo	-11.4739
▁roditeljsk	-11.4741
▁poslan	-11.4743
▁kategorij	-11.4744
▁preuzm	-11.4745
lock	-11.4746
iri	-11.4747
▁HB	-11.4747
▁nadbiskup	-11.4749
▁Rimu	-11.475
▁rušenj	-11.4751
▁Hall	-11.4752
▁drame	-11.4752
▁limuna	-11.4755
▁objav	-11.4757
▁tehnika	-11.4757
▁meču	-11.4758
▁biljež	-11.4761
▁piti	-11.4761
▁sira	-11.4762
wag	-11.4768
▁razvit	-11.4769
▁tal	-11.4771
▁destinacije	-11.4782
▁značajne	-11.4784
▁1993.	-11.4788
▁1996.	-11.4788
▁Glasnogovorni	-11.4788
▁Jadrolinije	-11.4788
▁Jordan	-11.4788
▁Svjedo	-11.4788
▁interpretacij	-11.4788
▁libanonsk	-11.4788
▁mješavin	-11.4788
▁osoblja	-11.4788
▁prikladn	-11.4788
▁sveučilišn	-11.4788
▁zlouporab	-11.4788
▁najbogatij	-11.4788
▁Apple	-11.4788
▁Sevill	-11.4788
▁Kristijan	-11.4788
▁Prizna	-11.4788
▁Zagrepčani	-11.4788
▁dućan	-11.4788
▁imovinu	-11.4788
▁smanjuju	-11.4788
▁putovnic	-11.4788
▁zakazan	-11.4788
▁liječenju	-11.4788
▁perilic	-11.4788
▁dojke	-11.4789
▁prvotno	-11.4789
▁nedovoljn	-11.479
▁Rođen	-11.4792
▁lamp	-11.4793
crt	-11.4795
ABA	-11.4795
▁poslovanju	-11.4796
▁Lučić	-11.4796
▁kotaru	-11.48
▁Green	-11.4801
▁oborina	-11.4801
▁propisima	-11.4802
▁župnik	-11.4802
▁Pic	-11.4803
▁Zagrebački	-11.4805
▁Akademij	-11.4806
▁pamt	-11.4811
▁Mati	-11.4812
▁Jean	-11.4812
▁desetk	-11.4814
▁održivosti	-11.4815
▁zrakoplovstv	-11.4816
▁iskustvom	-11.4816
▁umjetnic	-11.4816
▁Šeg	-11.4821
▁skloništ	-11.4821
▁juga	-11.4823
ošen	-11.4823
▁džep	-11.4827
▁Lab	-11.4829
▁pjesnik	-11.483
▁Staln	-11.4832
▁Bob	-11.4839
▁posluša	-11.4842
▁Angelesu	-11.4846
jenja	-11.4847
▁pomoglo	-11.4851
▁Kop	-11.4854
▁borc	-11.4855
▁šume	-11.4856
▁Tag	-11.4857
Misli	-11.4858
rž	-11.4859
▁predviđeno	-11.4859
▁eventualno	-11.4859
▁oluja	-11.486
▁Tokiju	-11.4861
▁zira	-11.4861
▁Fir	-11.4863
▁Talijani	-11.4865
▁110	-11.4866
▁javit	-11.4873
▁pridržava	-11.4874
▁sinom	-11.4878
▁pit	-11.4879
▁dogovoru	-11.4879
▁osmini	-11.4881
palio	-11.4882
▁burn	-11.4882
▁prisutni	-11.4882
▁zadovoljava	-11.4885
▁svemirsk	-11.4886
jor	-11.4893
▁slabost	-11.4899
▁propušta	-11.4902
▁demografij	-11.4903
▁mediteransk	-11.4903
▁nevremena	-11.4903
▁prijepodne	-11.4903
▁uspjesi	-11.4903
▁Kulenović	-11.4903
▁odgođen	-11.4903
▁harmoni	-11.4903
▁Sanader	-11.4903
▁dominacij	-11.4903
▁pećnic	-11.4903
▁Židov	-11.4903
▁dokumenata	-11.4903
▁mineral	-11.4903
▁2030.	-11.4903
▁pokrovitelj	-11.4903
▁čarobn	-11.4903
▁rodbin	-11.4903
▁Legendarn	-11.4903
▁strukovn	-11.4903
▁Narodn	-11.4903
▁paprik	-11.4904
▁dočekuje	-11.4904
▁pročelnik	-11.4904
▁rski	-11.4905
▁alarm	-11.4906
▁preporu	-11.4907
▁King	-11.4907
▁navike	-11.4907
▁prevare	-11.4908
▁pobjeći	-11.4909
▁prekidu	-11.4909
▁odaziv	-11.4909
▁iznimk	-11.491
▁Engleske	-11.491
▁jezičn	-11.4911
▁fenomenaln	-11.4911
▁svojstv	-11.4911
▁Žene	-11.4912
▁slojev	-11.4912
▁sedmi	-11.4912
▁Markov	-11.4913
▁tlu	-11.4913
fal	-11.4917
▁mudr	-11.4917
▁Dobil	-11.4918
▁Večernje	-11.4919
▁sudjelovanja	-11.4919
▁vještak	-11.4921
▁konferenciju	-11.4923
▁negira	-11.4924
▁crvenom	-11.4927
▁Beču	-11.4927
▁sportova	-11.4928
▁nić	-11.4929
▁Bruxellesu	-11.4931
▁misa	-11.4932
njev	-11.4934
▁pretvoril	-11.494
▁pratim	-11.4941
▁zemljište	-11.4942
mber	-11.4944
▁priključ	-11.4944
▁vidljivost	-11.4945
▁pogodi	-11.4946
▁okret	-11.4947
▁NI	-11.4947
▁zahvatil	-11.4956
▁upozoril	-11.4957
▁Švedskoj	-11.4957
▁primanj	-11.4957
▁voditeljic	-11.496
▁24-	-11.4961
▁DO	-11.4963
▁Lev	-11.4963
▁kazalištu	-11.4966
▁čul	-11.4967
▁upala	-11.4969
▁vijeć	-11.4969
▁zastava	-11.4971
▁skočil	-11.4977
▁skupu	-11.4977
▁press	-11.4978
pazite	-11.4978
sar	-11.498
▁grmljavin	-11.4981
▁zadrža	-11.4986
rgi	-11.4986
▁Ilić	-11.4987
▁rol	-11.4987
▁medicinu	-11.4991
ljuje	-11.4992
▁jasna	-11.4992
▁Dalmatinsk	-11.4993
ES	-11.4996
▁zavoj	-11.4996
▁terapije	-11.4997
▁nka	-11.5
▁izvješ	-11.5002
▁Pel	-11.5002
erry	-11.5003
▁Anđelk	-11.5004
▁gled	-11.5005
ažen	-11.5005
▁kupnje	-11.5008
▁lav	-11.5008
▁ekstrem	-11.501
▁olakšava	-11.501
▁Chelsea	-11.5014
▁spremnik	-11.5014
▁ribar	-11.5017
▁Osumnji	-11.5019
▁COVID	-11.5019
▁Egipt	-11.5019
▁glavobolj	-11.5019
▁haljine	-11.5019
▁otpjeva	-11.5019
▁pogriješi	-11.5019
▁portugalsk	-11.5019
▁predvođen	-11.5019
▁zaostatka	-11.5019
▁zvjezdic	-11.5019
▁plijen	-11.5019
▁brašno	-11.5019
▁pružen	-11.5019
▁ugljik	-11.5019
▁otežava	-11.5019
▁zamjena	-11.5019
▁priredb	-11.5019
▁oslon	-11.5019
▁šansa	-11.5019
▁zaposli	-11.5019
▁poželjn	-11.5019
▁uragan	-11.5019
doprinijeti	-11.5019
▁semafor	-11.5019
▁iznenađujuć	-11.5019
▁ljepoti	-11.5019
▁kreveta	-11.502
▁potrošači	-11.5021
▁Dvornik	-11.5021
▁Bosan	-11.5021
▁Australiji	-11.5021
▁bubre	-11.5022
vuk	-11.5022
▁dizajniran	-11.5022
▁prvakinja	-11.5022
lizira	-11.5023
▁kliničk	-11.5024
▁diplomira	-11.5025
▁pivo	-11.5025
▁balet	-11.5025
▁godišnjak	-11.5026
▁postojanja	-11.5027
▁stijen	-11.503
▁udobnost	-11.503
▁pravima	-11.5032
▁dužin	-11.5032
▁izbjegavanj	-11.5033
▁Anđel	-11.5034
▁otkazan	-11.5034
▁France	-11.5034
▁kupce	-11.5035
▁slovačk	-11.5035
▁kip	-11.5035
▁kot	-11.5036
▁želji	-11.504
▁privuka	-11.5042
▁preporuka	-11.5043
▁flot	-11.5043
▁majkom	-11.5044
▁neizvjesn	-11.5046
▁pretjerano	-11.5047
▁konkurentnost	-11.5048
▁napisa	-11.505
▁boks	-11.5053
▁skr	-11.5054
▁najavljuju	-11.5054
▁bosansk	-11.5055
▁Olmo	-11.5059
▁namjera	-11.506
▁vjera	-11.5062
▁Alp	-11.5063
▁uživanje	-11.5065
▁obavit	-11.5069
▁270	-11.5071
▁Jud	-11.5072
▁upotrebu	-11.5072
▁Liam	-11.5073
▁utje	-11.5075
▁mail	-11.5081
▁izam	-11.5082
▁prozva	-11.5083
ivjeti	-11.5084
▁boksa	-11.5085
▁pranj	-11.5089
▁Franc	-11.509
▁Tih	-11.509
▁Vaše	-11.5091
▁letjelic	-11.5092
▁Lis	-11.5096
▁ver	-11.51
▁oslobađanj	-11.5101
▁tuži	-11.5101
▁ulagač	-11.5101
▁svrhe	-11.5102
▁22-	-11.5103
▁kršenje	-11.5104
▁off	-11.5107
▁Međunarodni	-11.5107
fic	-11.5108
▁puhat	-11.5111
okol	-11.5115
▁ostavljaju	-11.5118
▁bogatij	-11.512
▁Moskve	-11.5121
staviti	-11.5123
▁plivač	-11.5123
▁metaln	-11.5125
▁okup	-11.5128
▁Bosilj	-11.5136
▁Englez	-11.5136
▁Stuttgart	-11.5136
▁Twitter	-11.5136
▁Uostalom	-11.5136
▁besplatan	-11.5136
▁briljira	-11.5136
▁jugoslavensk	-11.5136
▁konvencij	-11.5136
▁magazin	-11.5136
▁rumunjsk	-11.5136
▁uspomene	-11.5136
▁zvezd	-11.5136
▁koncesij	-11.5137
▁dotaknu	-11.5137
▁Susret	-11.5137
▁Velimir	-11.5137
://	-11.5137
▁geopolitičk	-11.5137
▁2-2	-11.5137
▁Lisinsk	-11.5137
▁sirijsk	-11.5137
▁napadnut	-11.5139
▁Messi	-11.5141
▁opskrbe	-11.5142
▁đen	-11.5142
▁kretat	-11.5142
▁Fic	-11.5144
▁dokumentaciju	-11.5145
▁češć	-11.5146
▁vjetr	-11.5148
▁tišin	-11.5148
▁Pula	-11.5151
▁stvu	-11.5151
▁Mata	-11.5152
▁probavn	-11.5155
▁planova	-11.5155
stein	-11.5155
▁stolu	-11.5156
sov	-11.5156
▁čuvati	-11.5156
▁tvrdo	-11.5158
▁Predra	-11.5161
▁dozna	-11.5161
▁zaposlenicima	-11.5163
▁srušil	-11.5164
▁korisno	-11.5167
▁orkestra	-11.5168
▁križevačk	-11.5168
▁HV	-11.5171
▁ograniči	-11.5173
▁poglavlj	-11.5177
itanij	-11.5178
▁hotelsk	-11.518
image	-11.5182
estit	-11.5183
▁Pisa	-11.5184
džić	-11.5185
▁koraci	-11.5185
▁vježb	-11.5188
DA	-11.5188
▁glume	-11.5191
▁državljani	-11.5194
▁Navod	-11.5195
▁benzin	-11.5195
▁pravda	-11.5197
▁Anti	-11.5202
▁Puha	-11.5202
▁konzervativn	-11.5202
▁kalorija	-11.5204
▁promijenil	-11.5207
▁zajedničkog	-11.5208
▁zadržal	-11.5209
▁uveden	-11.5211
▁dostupnost	-11.5211
▁jima	-11.5211
učava	-11.5213
▁ruka	-11.5214
▁miks	-11.5215
▁poklop	-11.5217
▁Noć	-11.5217
-7	-11.5218
▁Brat	-11.5219
▁metar	-11.5223
▁grmljavinsk	-11.5225
▁vladaju	-11.5225
▁nasiln	-11.5227
▁ponaj	-11.5228
▁tribini	-11.523
▁RB	-11.5231
▁glasno	-11.5234
▁klasik	-11.5236
▁čekali	-11.5238
▁ugrožava	-11.524
▁temeljen	-11.5244
▁krši	-11.5245
▁Švicarske	-11.5249
▁Arsen	-11.525
▁Princ	-11.5251
▁zaključa	-11.5253
pada	-11.5254
▁fondov	-11.5254
▁cama	-11.5254
▁pandemij	-11.5255
▁okolic	-11.5255
▁Bošnjak	-11.5255
▁Izložb	-11.5255
▁drugoplasiran	-11.5255
▁jednokratn	-11.5255
▁jugoistočn	-11.5255
▁neprimjeren	-11.5255
▁stabala	-11.5255
▁sankcije	-11.5255
▁tijelima	-11.5255
▁interakcij	-11.5255
▁Zvezd	-11.5256
▁domoljub	-11.5256
▁3-2	-11.5256
▁summit	-11.5256
▁televizije	-11.5256
▁slogan	-11.5256
▁kućanst	-11.5256
▁općinsk	-11.5256
▁parišk	-11.5257
▁jezera	-11.5257
▁parcel	-11.5257
▁sporedn	-11.5257
▁vatru	-11.5257
▁mjeru	-11.5258
▁Black	-11.5258
▁protokol	-11.5259
▁osvje	-11.526
▁trgova	-11.526
▁uništi	-11.526
▁grip	-11.526
▁doznat	-11.5261
▁Borussije	-11.5262
▁diplomacij	-11.5263
anas	-11.5263
▁značajk	-11.5264
▁Index	-11.5264
▁aut	-11.5265
▁Ive	-11.5265
▁vaterpol	-11.5266
▁350	-11.5266
▁kreacij	-11.5268
▁pojačanje	-11.5268
▁izgradit	-11.5268
▁čević	-11.5269
▁Srpske	-11.5269
▁planiraj	-11.527
▁iznena	-11.5273
▁Preminu	-11.5273
▁započeli	-11.5274
▁vile	-11.5277
▁Vjer	-11.5278
▁pojasnil	-11.5279
▁potpisivanj	-11.528
▁ideološk	-11.5281
▁Pored	-11.5282
▁tužitelja	-11.5283
▁stanari	-11.5284
▁oglasil	-11.5285
▁otkril	-11.5286
▁granat	-11.529
▁pokaziva	-11.529
▁zanimanje	-11.5291
▁ozbiljnij	-11.5292
▁izložbu	-11.5293
▁smisao	-11.5294
▁naredi	-11.5295
▁trgovinama	-11.5296
kus	-11.5297
vent	-11.5298
▁pružanj	-11.5299
▁titule	-11.5299
▁propustit	-11.5299
bet	-11.5299
▁Monte	-11.53
▁ovac	-11.53
▁sekund	-11.5302
▁Večera	-11.5305
▁stavljanj	-11.5313
▁proizvodim	-11.5314
▁neutraln	-11.5316
istički	-11.5317
▁PRO	-11.5317
▁May	-11.5321
▁dojm	-11.5322
▁kvadratn	-11.5322
▁pretjeran	-11.5324
▁Brani	-11.5326
▁mami	-11.5329
▁bas	-11.533
▁Hvaru	-11.5331
▁srušen	-11.5331
▁Alb	-11.5332
▁izdal	-11.5334
▁bake	-11.534
▁Večer	-11.534
▁glasanj	-11.5341
vjeriti	-11.5342
▁legende	-11.5343
▁poslodavc	-11.5344
▁Rio	-11.5344
▁ex	-11.5346
▁Bruxelles	-11.5346
▁dulj	-11.5347
▁Klinik	-11.5347
lište	-11.5349
▁kućama	-11.5357
▁okrug	-11.5358
▁baze	-11.5359
▁imenova	-11.5363
EC	-11.5365
▁krivnj	-11.5365
▁primijetit	-11.5368
ljivost	-11.5368
▁najmlađe	-11.537
▁trenirati	-11.5371
▁višk	-11.5371
▁Direkt	-11.5372
▁izražava	-11.5372
▁Opus	-11.5373
▁Andr	-11.5373
▁Osta	-11.5375
▁Lepoglav	-11.5376
▁PAOK	-11.5376
▁dezinformacij	-11.5376
▁montaž	-11.5376
▁strpljiv	-11.5376
▁sveobuhvatn	-11.5376
▁vlasništvo	-11.5376
▁Knoll	-11.5376
▁cigaret	-11.5376
▁kratkoročn	-11.5376
▁otuđi	-11.5376
▁podzemn	-11.5376
▁zahvaljujem	-11.5376
▁Garros	-11.5376
▁eliminira	-11.5376
▁obrazloženj	-11.5376
▁Konzum	-11.5376
▁Ivanišević	-11.5376
▁General	-11.5376
▁gurnu	-11.5376
▁Govore	-11.5376
▁vukovarsk	-11.5376
▁anonimn	-11.5376
▁2002.	-11.5376
▁shop	-11.5376
▁proizve	-11.5377
▁Story	-11.5377
▁pratitelje	-11.5377
▁padal	-11.5378
▁Maz	-11.5378
▁razumije	-11.5378
▁tenkov	-11.5379
▁1,7	-11.5379
itatelj	-11.538
▁najava	-11.5381
▁gledanj	-11.5382
▁Cvit	-11.5382
21	-11.5383
▁prestal	-11.5383
▁dno	-11.5385
Od	-11.5385
▁Thi	-11.5385
▁popunjen	-11.5386
▁Oleg	-11.5387
otte	-11.5387
▁dogovori	-11.5388
▁primjenjuj	-11.5389
▁voljela	-11.5393
▁potvrdu	-11.5394
▁posvetit	-11.5394
▁štap	-11.5395
▁nadolazeće	-11.5399
▁glasanje	-11.54
▁vlasnica	-11.5405
▁učenje	-11.5406
▁filozofij	-11.5406
▁spojev	-11.5406
▁vladin	-11.5406
▁nagradi	-11.5407
▁tehnike	-11.5409
▁konja	-11.541
▁snimili	-11.541
▁pripremn	-11.5411
ručio	-11.5413
▁Live	-11.5414
▁ec	-11.5416
▁Društven	-11.5416
▁funkcionaln	-11.5417
▁poduzeć	-11.5417
▁starenj	-11.5418
▁fokusu	-11.5418
elite	-11.5422
▁otkriveno	-11.5422
▁bavil	-11.5423
▁DA	-11.5425
▁reporter	-11.5428
▁Ljubljani	-11.543
▁događajima	-11.543
▁poznava	-11.543
ugh	-11.5433
▁izuzet	-11.5433
▁Čim	-11.5434
▁muškarcima	-11.5435
▁izjavama	-11.5435
▁učenic	-11.5437
Space	-11.5441
▁prepoznat	-11.5442
▁isplate	-11.5442
▁ljub	-11.5444
▁kosi	-11.5444
▁34.	-11.5444
▁pohvalila	-11.5447
▁Silvij	-11.5449
▁link	-11.5451
▁dalek	-11.5451
▁opterećenj	-11.5452
▁iskaz	-11.5454
▁kuhinje	-11.5455
▁dopušta	-11.5457
▁osjećal	-11.5458
▁Dječje	-11.5458
▁prodavat	-11.5462
▁poboljšava	-11.5462
▁ružn	-11.5466
▁(1)	-11.5466
BC	-11.5468
▁stanovnike	-11.5469
▁paraleln	-11.5472
▁Sea	-11.5472
▁plivanj	-11.5474
▁brane	-11.5475
▁uništava	-11.5475
▁kugl	-11.5475
▁oluje	-11.5477
▁vež	-11.5484
▁Katar	-11.5484
▁uzrokuju	-11.5486
▁skočio	-11.5486
▁Lud	-11.5487
▁djeloval	-11.5493
▁uključival	-11.5493
▁Šibensko	-11.5494
▁liječnic	-11.5497
posljetku	-11.5498
▁1989.	-11.5498
▁Bjelorusij	-11.5498
▁Posavec	-11.5498
▁beogradsk	-11.5498
▁izvjesn	-11.5498
▁površinu	-11.5498
▁televizija	-11.5498
▁nedjelja	-11.5498
▁duhovit	-11.5498
▁osmišljen	-11.5498
▁eurozon	-11.5498
▁Kolind	-11.5498
▁maraton	-11.5498
▁Ekip	-11.5498
▁mališan	-11.5498
▁čujem	-11.5498
▁proizveden	-11.5498
▁koktel	-11.5498
▁strastven	-11.5499
▁Karlovac	-11.5499
▁upravitelj	-11.5499
▁produlji	-11.5499
▁prenijel	-11.5499
▁narativ	-11.5499
▁Potpun	-11.5499
▁Činjenic	-11.5499
▁nevolj	-11.55
▁Zaprešić	-11.5501
▁nazad	-11.5502
▁tajni	-11.5504
▁odabrat	-11.5504
▁Trenutačn	-11.5504
▁obustav	-11.5505
▁seksu	-11.5505
▁izvadi	-11.5506
▁Kolar	-11.5507
▁znoj	-11.5508
▁zimi	-11.5508
▁Sur	-11.5509
sis	-11.5509
▁Stru	-11.5512
▁smiren	-11.5513
▁obraća	-11.5513
▁napast	-11.5514
▁sućut	-11.5515
▁čuvar	-11.5518
▁poljoprivrednik	-11.5519
▁očev	-11.5519
▁plju	-11.5522
▁vodič	-11.5524
mal	-11.5526
▁udruženj	-11.5527
▁Plenkovićev	-11.5531
▁ogr	-11.5533
▁Švicarska	-11.5537
▁napravit	-11.5539
▁Cent	-11.5539
▁zahvati	-11.5539
▁dugov	-11.5541
▁prezime	-11.5544
▁Reg	-11.5546
▁Ruž	-11.5546
▁šarm	-11.5546
▁režira	-11.5548
▁zadržavanj	-11.555
▁5'	-11.555
▁berb	-11.5553
tivan	-11.5555
▁stanic	-11.5557
▁rasple	-11.5558
▁ambicije	-11.5558
enko	-11.556
▁čuvaju	-11.5565
▁poduzima	-11.5565
▁Kust	-11.5565
▁Bartulica	-11.5567
▁pošte	-11.5569
▁pretpostavlja	-11.557
▁Rast	-11.557
▁Cop	-11.5573
▁svijetl	-11.5573
▁vjero	-11.5573
▁dragi	-11.5578
▁poslužit	-11.5582
▁Liječnic	-11.5586
▁postupke	-11.5587
▁Blaž	-11.5592
▁nastavk	-11.5595
▁automobilima	-11.5596
▁slovi	-11.5597
▁navedenog	-11.5598
▁izbjegli	-11.5598
▁Iren	-11.56
▁destinacij	-11.5604
▁bavim	-11.5606
▁lijekovi	-11.5606
▁birači	-11.5608
▁Hab	-11.5613
▁pauze	-11.5613
▁Posebn	-11.5616
▁planovi	-11.5618
▁saznaj	-11.5619
▁stank	-11.5619
▁gradonačelnic	-11.5621
▁industriju	-11.5621
▁londonsk	-11.5621
▁obnavlja	-11.5621
▁podrijetla	-11.5621
▁tradicijsk	-11.5621
▁ogorčen	-11.5621
▁senzacij	-11.5621
▁usvajanj	-11.5621
▁Jasmin	-11.5621
▁prodavač	-11.5621
▁nastavu	-11.5621
Adriatic	-11.5622
▁susrel	-11.5622
▁pretplat	-11.5622
▁proljeća	-11.5622
▁Poljak	-11.5622
▁košulj	-11.5622
▁groblju	-11.5623
▁Stigl	-11.5623
▁zakup	-11.5623
▁Mlinarić	-11.5624
▁HEP	-11.5624
▁pridonijet	-11.5625
▁uzbuđenj	-11.5625
▁katastrofaln	-11.5625
▁Međimurj	-11.5627
▁priroda	-11.5627
▁Liga	-11.5628
▁pričam	-11.5628
činjen	-11.5628
▁filmove	-11.5633
drom	-11.5635
▁Tony	-11.564
▁suze	-11.5641
▁tež	-11.5643
▁Trst	-11.5644
▁draž	-11.5646
▁More	-11.5647
▁upali	-11.5648
▁kraće	-11.5648
▁rekorder	-11.5652
▁zvučn	-11.5653
▁Glumic	-11.5653
▁uredno	-11.5653
▁sjedala	-11.5653
▁registracij	-11.5655
▁oduševil	-11.5656
▁počinjen	-11.5657
:15	-11.5663
▁kompanij	-11.5664
▁pozdravil	-11.5665
▁revij	-11.5666
▁Williams	-11.5667
▁štedi	-11.5667
▁Aten	-11.5668
▁požel	-11.567
▁procjene	-11.5672
▁prosjek	-11.5675
▁ministri	-11.5676
▁Splićani	-11.5676
▁Njem	-11.5678
▁Bet	-11.5678
▁uzbu	-11.5679
▁napredova	-11.5682
▁starijim	-11.5684
▁balon	-11.5685
▁potvrđuju	-11.5688
▁prikazuj	-11.5691
▁povući	-11.5693
▁pomagal	-11.5697
sson	-11.5699
▁uklanjanje	-11.5704
OL	-11.5705
▁redar	-11.5708
▁crkven	-11.5709
▁Vlast	-11.5713
▁ozljedu	-11.5716
▁Petro	-11.5719
▁Ide	-11.572
luk	-11.5721
▁skupo	-11.5725
▁pušenj	-11.5731
▁oružjem	-11.5737
▁plakat	-11.5741
▁otkri	-11.5743
▁okrivljen	-11.5744
▁najmlađi	-11.5746
▁1994.	-11.5746
▁Fiorentin	-11.5746
▁Lasagne	-11.5746
▁budžet	-11.5746
▁euforij	-11.5746
▁koordinacij	-11.5746
▁podjednak	-11.5746
▁preživljava	-11.5746
▁Junior	-11.5746
▁otputova	-11.5746
▁taktičk	-11.5747
▁preskoči	-11.5747
▁Kalifornij	-11.5747
▁žurn	-11.5747
▁nagrađivan	-11.5747
▁01	-11.5747
▁nepravd	-11.5747
▁odjeven	-11.5747
▁mljeven	-11.5747
▁Meštrović	-11.5747
▁autoritet	-11.5748
zvrstan	-11.575
▁prepoznavanj	-11.5751
▁Fury	-11.5752
▁tenisačica	-11.5752
▁djelima	-11.5753
▁Dosta	-11.5754
▁nacrt	-11.5754
▁manipulacij	-11.5756
▁Stoj	-11.5757
▁Sokol	-11.5758
▁dodjeljuj	-11.576
▁ozbiljnije	-11.5761
▁event	-11.5761
▁strojev	-11.5762
▁novogodišnj	-11.5771
▁Bank	-11.5773
▁pravomoćn	-11.5773
▁40-	-11.5773
▁ispravn	-11.5773
▁Istovremeno	-11.5774
▁plovila	-11.5774
▁tjednima	-11.5776
▁SA	-11.5777
▁Mađarskoj	-11.5777
▁živim	-11.5777
▁pjevati	-11.5778
▁3000	-11.5781
▁140	-11.5786
▁noću	-11.5787
▁Plavi	-11.5788
▁igralište	-11.5789
▁Beč	-11.5791
▁obećava	-11.5793
▁Bitno	-11.5793
▁glumic	-11.5794
▁drugačija	-11.5796
▁oporavlja	-11.5797
▁šalju	-11.5798
▁nasilni	-11.5801
▁slijep	-11.5806
▁oduševljenje	-11.5808
▁luta	-11.581
Pre	-11.5815
▁direkt	-11.5817
▁pik	-11.5818
▁Kova	-11.5819
▁fantasti	-11.5822
▁odražava	-11.5826
reb	-11.5827
▁ević	-11.5828
pitali	-11.5829
hl	-11.5831
trov	-11.5833
▁dugog	-11.5834
▁Ljet	-11.5842
▁Dub	-11.5844
▁srbijansk	-11.5852
▁dolin	-11.5856
▁postignuća	-11.5858
▁Hran	-11.5858
▁povoljnij	-11.586
▁Slavk	-11.5861
▁pisac	-11.5862
▁epizodu	-11.5867
▁tečaj	-11.5867
▁kaza	-11.5868
▁parkiran	-11.5872
▁Italiju	-11.5873
▁Mirror	-11.5873
▁Nadzorn	-11.5873
▁Ristovsk	-11.5873
▁glazbom	-11.5873
▁jogurt	-11.5873
▁magnet	-11.5873
▁nepravilnosti	-11.5873
▁australsk	-11.5873
▁turneje	-11.5873
▁četvoric	-11.5873
▁bankovn	-11.5873
▁rizičn	-11.5873
▁Club	-11.5873
▁retro	-11.5873
▁uzrast	-11.5873
▁Vodovod	-11.5873
▁Izvršn	-11.5873
▁pulsk	-11.5873
▁izolacij	-11.5873
▁kabin	-11.5873
▁ultra	-11.5874
▁Dalibor	-11.5874
▁pobunjeni	-11.5874
▁Objavljen	-11.5874
▁izrađen	-11.5874
▁Britanc	-11.5874
Ima	-11.5874
▁Palm	-11.5875
▁ogradu	-11.5875
▁sadašnje	-11.5876
▁prevladava	-11.5876
▁Gretić	-11.5877
▁Sestr	-11.5877
▁Koristi	-11.5877
▁izlaganj	-11.5878
▁izjednačen	-11.5878
▁optimaln	-11.5879
▁vrućina	-11.5879
▁penj	-11.588
▁ponudil	-11.5881
▁župn	-11.5881
▁predaje	-11.5881
▁pojedinaca	-11.5882
▁rehabilitacij	-11.5882
▁forum	-11.5882
▁09	-11.5882
▁palače	-11.5883
▁Zemlje	-11.5883
▁Ulaznic	-11.5883
▁Tor	-11.5886
▁Švicarskoj	-11.5886
▁Crkva	-11.5887
▁ponašanj	-11.5887
▁tipičn	-11.5887
▁opoziv	-11.5889
▁Nj	-11.589
▁80-	-11.589
▁Povod	-11.5891
▁Jedva	-11.5891
▁centraln	-11.5893
▁preprek	-11.5893
▁kontinuiran	-11.5894
▁Cap	-11.5894
▁starim	-11.5895
▁Hrvatic	-11.5898
▁nemoj	-11.5899
▁držim	-11.5899
▁Šok	-11.59
▁Kok	-11.5901
▁vrijed	-11.5903
▁potrošačk	-11.5904
▁roditelj	-11.5907
▁ispunil	-11.5912
▁potroši	-11.5913
▁Bjel	-11.5917
▁pristupit	-11.5925
▁bočn	-11.5926
▁Podravsk	-11.5927
▁standardima	-11.5933
▁učenik	-11.5934
▁Kreš	-11.5935
▁pohod	-11.5936
▁maloljetn	-11.594
▁skupil	-11.5941
▁Zvijezd	-11.5945
▁opuštanj	-11.5945
▁oglašavanj	-11.5946
▁daljnjeg	-11.5947
▁Šol	-11.5951
▁zaustavlja	-11.5951
▁praš	-11.5953
▁izraženij	-11.5956
break	-11.5958
▁ranog	-11.5961
▁prora	-11.5962
▁naprav	-11.5962
▁zatvorsk	-11.5963
▁grupacij	-11.5966
▁čev	-11.5966
▁Studen	-11.5967
▁War	-11.5967
▁grah	-11.5969
▁taksi	-11.5971
▁najva	-11.5971
▁pakiranj	-11.5971
▁ček	-11.5972
▁pismu	-11.5976
▁Breg	-11.5979
▁nalet	-11.5986
▁provođenje	-11.5987
▁Shi	-11.5988
▁objektiv	-11.5988
▁slabije	-11.5994
▁60-	-11.5996
▁poziral	-11.5997
▁oslab	-11.6
▁Dalmaciju	-11.6001
▁Doduše	-11.6001
▁Organizator	-11.6001
▁podnošenj	-11.6001
▁pozornice	-11.6001
▁siromaštv	-11.6001
▁Jelačića	-11.6001
▁Jutro	-11.6001
▁elemenata	-11.6001
▁interijer	-11.6001
▁potrudi	-11.6001
▁građevina	-11.6001
▁administrativn	-11.6001
▁poretku	-11.6001
▁Nastup	-11.6001
▁odlagališt	-11.6001
▁bonus	-11.6001
▁zastave	-11.6001
▁anketi	-11.6001
▁Grupe	-11.6001
▁torbic	-11.6001
▁mrtvo	-11.6002
▁meteorološk	-11.6002
▁kontinentaln	-11.6002
▁lekcij	-11.6002
▁istoimen	-11.6002
▁delicij	-11.6003
▁kvartal	-11.6003
▁zarađuj	-11.6003
▁građen	-11.6003
▁2001.	-11.6003
▁Barišić	-11.6003
▁karata	-11.6004
▁igrom	-11.6004
▁objašnjenje	-11.6005
▁Amerikank	-11.6006
▁večernji	-11.6007
▁Srba	-11.6008
▁sadržava	-11.6008
▁hitove	-11.6008
▁inovacije	-11.6009
▁uhvatil	-11.6009
▁Poziv	-11.601
▁ovlašten	-11.6013
▁domove	-11.6013
▁Rab	-11.6013
▁dizal	-11.6013
▁zaborav	-11.6014
▁Istodobno	-11.6014
▁stanovanja	-11.6015
▁izbjegava	-11.6018
▁npr	-11.6019
žite	-11.6019
▁ger	-11.6021
▁Burić	-11.6022
▁trča	-11.6022
▁golove	-11.6024
▁kriptovaluta	-11.6025
▁poznatij	-11.6026
▁smiješ	-11.6026
▁realiziran	-11.6028
▁razočara	-11.6029
35	-11.603
▁spremi	-11.6032
▁sjeo	-11.6036
▁bolesni	-11.6036
▁*	-11.6037
▁Majer	-11.6038
▁dopušteno	-11.6038
▁pjesmi	-11.6042
▁tamošnje	-11.6044
▁trgovinsk	-11.6045
▁uništiti	-11.6046
kuha	-11.605
▁upoznavanj	-11.605
▁naoružanj	-11.6051
▁manifestacij	-11.6051
▁Sretn	-11.6058
▁pokretanje	-11.606
▁godišnjicu	-11.606
▁djevojčicu	-11.6061
▁gledal	-11.6062
▁gasi	-11.6064
▁maslina	-11.6065
iger	-11.6065
▁mrak	-11.607
▁zauzima	-11.6073
▁List	-11.6076
▁Lip	-11.6077
▁Seri	-11.6082
▁vožnja	-11.6086
▁Znanstveni	-11.6086
▁odlučuju	-11.6093
▁žn	-11.6094
▁stradao	-11.6095
▁nezaposlen	-11.6098
▁idej	-11.6106
▁boksačk	-11.6108
chel	-11.611
▁čestic	-11.6112
▁sufinancira	-11.6116
▁Sor	-11.6124
▁obratil	-11.6126
▁21-	-11.6126
▁obavil	-11.6126
▁arhitekt	-11.6127
▁prisut	-11.6128
▁legitimn	-11.613
′	-11.6131
▁Hollywood	-11.6131
▁KUD	-11.6131
▁Netflix	-11.6131
▁Zahvaljujem	-11.6131
▁egzistencij	-11.6131
▁energetik	-11.6131
▁estetsk	-11.6131
▁inozemstva	-11.6131
▁kašnjenj	-11.6131
▁povjerenik	-11.6131
▁prognoze	-11.6131
▁pravobranitelj	-11.6131
▁Global	-11.6131
▁društav	-11.6131
▁Tyson	-11.6131
▁Davis	-11.6131
▁empatij	-11.6131
▁sestara	-11.6131
▁Dolazi	-11.6131
▁Porezn	-11.6131
▁Nataš	-11.6132
▁Johnson	-11.6133
▁rashod	-11.6133
▁pozdravlja	-11.6133
▁fasad	-11.6134
▁prelask	-11.6134
▁iznenaditi	-11.6136
▁poštivanj	-11.614
▁ustraj	-11.6141
▁digl	-11.6143
▁odjevn	-11.6143
▁Blank	-11.6143
▁krasi	-11.6143
▁(10	-11.6144
zbuđen	-11.6144
▁učinkovito	-11.6145
▁plinom	-11.6145
▁(14	-11.6146
▁kazat	-11.6146
rskog	-11.6147
▁sastojke	-11.6148
▁karta	-11.6148
▁gotovin	-11.6149
▁volju	-11.6151
▁trudna	-11.6153
▁Piše	-11.6153
▁Gil	-11.6157
▁obrat	-11.6157
▁blat	-11.6164
▁Slavonije	-11.6165
▁cest	-11.6168
▁Bul	-11.6169
▁Državama	-11.6172
▁rijeka	-11.6175
▁koristite	-11.6177
▁Nizozemske	-11.6177
▁željn	-11.6178
▁Mary	-11.6179
▁pričeka	-11.618
▁Koreje	-11.6181
▁sportom	-11.6182
▁pristaj	-11.6183
▁dinami	-11.6184
▁You	-11.6187
puh	-11.6188
▁pričal	-11.6191
čnih	-11.6191
▁crijev	-11.6192
▁dogovoriti	-11.6193
▁smatral	-11.6194
▁završet	-11.6194
▁princeze	-11.6198
AV	-11.6203
▁dignu	-11.6207
▁diplomat	-11.6208
▁presti	-11.6211
▁prikupil	-11.6212
▁zdravij	-11.6215
▁suknj	-11.6216
▁priopćen	-11.6222
▁stopu	-11.6224
▁istinsk	-11.6226
▁uklanjanj	-11.6226
▁Arra	-11.6228
▁robn	-11.6228
▁presudu	-11.6229
▁Vukovarsk	-11.623
▁maknu	-11.6232
▁(12	-11.6234
▁čokolade	-11.6235
▁odbijen	-11.6238
▁obori	-11.6239
▁pobjednici	-11.6241
▁igrališta	-11.6242
▁troše	-11.6243
▁naglask	-11.6245
▁kreta	-11.6245
▁muče	-11.6246
▁Pret	-11.625
▁Slu	-11.6252
▁eter	-11.6254
inčić	-11.6255
▁poštuje	-11.6256
LE	-11.6257
▁Šal	-11.6257
▁Kolumbij	-11.6263
▁1999.	-11.6263
▁Affleck	-11.6263
▁Gospić	-11.6263
▁Prosvjed	-11.6263
▁Suprug	-11.6263
▁evakuacij	-11.6263
▁koordinator	-11.6263
▁koordinira	-11.6263
▁poskupljenj	-11.6263
▁preduvjet	-11.6263
▁rabljen	-11.6263
▁tržištima	-11.6263
▁zdravstvu	-11.6263
▁Hezonj	-11.6263
▁Krunoslav	-11.6263
▁gastronomsk	-11.6263
▁mršavljenj	-11.6263
▁1945.	-11.6263
▁Knjig	-11.6263
▁Tvornic	-11.6263
▁vodovod	-11.6263
▁jedanaest	-11.6263
▁četrdeset	-11.6263
▁ljepota	-11.6263
▁Play	-11.6264
▁špic	-11.6265
▁Radovan	-11.6265
▁Bologn	-11.6265
▁Konačn	-11.6265
▁Tajland	-11.6265
▁talaca	-11.6267
▁birališt	-11.6267
vce	-11.6268
▁Street	-11.6269
▁ulicu	-11.6269
▁boce	-11.6269
▁Kamp	-11.627
▁sudov	-11.627
ICA	-11.6271
▁dupl	-11.6275
▁Celzijevih	-11.6276
:45	-11.6279
▁provođenj	-11.6279
▁postavljaju	-11.6279
▁Eko	-11.6279
▁tumor	-11.6281
▁Sret	-11.6282
▁dobivanj	-11.6282
▁My	-11.6283
▁padaju	-11.6284
▁ugostitelj	-11.6284
▁filmovima	-11.6285
ujka	-11.6286
▁smiješn	-11.6286
▁suzdržan	-11.6286
▁invazij	-11.6291
▁viraln	-11.6292
▁ostvaruje	-11.6292
▁pretrp	-11.6294
▁uključivanj	-11.6294
▁postupanje	-11.6294
qua	-11.6294
▁ulask	-11.6295
▁krš	-11.6298
phi	-11.6299
lijep	-11.63
▁istražiti	-11.6302
▁taoc	-11.6305
▁Eurosong	-11.6305
▁promjenjiv	-11.6307
▁PP	-11.6316
▁Nor	-11.6317
▁kršenj	-11.6318
Ć	-11.6319
▁KK	-11.6321
▁opus	-11.6325
▁trenuta	-11.6327
zdrav	-11.6328
BE	-11.633
▁Bidenov	-11.633
▁Mostaru	-11.6338
▁litij	-11.6339
▁Manj	-11.6343
skop	-11.6343
Rim	-11.6344
HS	-11.635
▁Vjeruj	-11.6351
▁ispada	-11.6352
rah	-11.6354
▁istinski	-11.6356
▁pamtiti	-11.6357
▁veselje	-11.6358
▁podsjećaju	-11.6359
▁izvode	-11.6359
▁krizi	-11.636
▁Lad	-11.636
▁tvrdil	-11.6363
▁Vran	-11.6364
▁que	-11.6364
DP	-11.6368
Hell	-11.6368
▁Živim	-11.6369
▁šteti	-11.6371
▁Zlo	-11.6374
▁sirov	-11.6378
▁Zub	-11.6381
▁ulaganj	-11.6382
▁pjevala	-11.6383
▁FA	-11.6383
▁olakša	-11.6384
▁nezakonito	-11.6384
▁pronađe	-11.6387
▁Podsjeti	-11.6387
▁željen	-11.6389
▁udjela	-11.639
▁milj	-11.6391
▁Andrij	-11.6392
▁verziju	-11.6393
▁RI	-11.6395
▁Danska	-11.6395
▁Primorsko	-11.6396
▁deficit	-11.6396
▁eskalira	-11.6396
▁nedjeljom	-11.6396
▁nevjerojatan	-11.6396
▁percepcij	-11.6396
▁repertoar	-11.6396
▁vodostaj	-11.6396
▁vojsci	-11.6396
▁Gabrijel	-11.6396
▁ribolov	-11.6396
▁oblasti	-11.6396
▁prilagođava	-11.6396
▁Bartol	-11.6396
▁nadzorniku	-11.6396
▁Pitt	-11.6396
▁Justin	-11.6397
▁tematsk	-11.6397
▁stakla	-11.6397
▁Iduć	-11.6397
▁zabija	-11.6397
▁odustao	-11.6397
▁polovin	-11.6397
▁zbroj	-11.6398
▁općini	-11.6398
▁Nepal	-11.6399
▁prepriča	-11.6399
▁imenima	-11.64
▁Ameriku	-11.64
▁politikom	-11.6401
▁snove	-11.6401
▁Wall	-11.6402
▁zagrijavanj	-11.6403
▁rublja	-11.6404
▁rađen	-11.6404
▁geo	-11.6406
▁negativ	-11.6406
▁Strank	-11.6406
▁gora	-11.6406
▁Osječk	-11.6407
▁Kosova	-11.6408
▁Kamen	-11.6408
▁Mama	-11.6409
▁nezadovoljni	-11.6409
▁vinar	-11.6411
▁obuć	-11.6411
▁kroj	-11.6412
▁znakova	-11.6412
▁nagradn	-11.6414
▁Osvoji	-11.6416
▁Islamsk	-11.6418
▁Balkanu	-11.6419
▁željeznic	-11.6421
▁potaknu	-11.6422
kupan	-11.6422
▁starom	-11.6423
▁rov	-11.6424
▁Koz	-11.6426
▁50.000	-11.6427
sudio	-11.6431
▁Sand	-11.6432
▁neposredn	-11.6437
▁poslom	-11.6438
▁ljutit	-11.6439
▁ustanovi	-11.644
▁Kum	-11.6441
▁autu	-11.6443
▁otvor	-11.6444
▁dvogodišnj	-11.6445
▁stabilnosti	-11.6448
▁Land	-11.6449
▁surađivati	-11.6449
▁kur	-11.6452
▁struju	-11.6452
▁kemij	-11.6453
logiju	-11.6453
▁prebivalište	-11.6457
▁tromjesečju	-11.6459
▁ulogama	-11.6459
▁pomaga	-11.6463
▁uzimaju	-11.6464
▁usmjeri	-11.6468
▁dužni	-11.6469
▁nebu	-11.6469
▁Javi	-11.647
▁(11	-11.6474
▁natje	-11.6481
kasnije	-11.6486
▁Angel	-11.6486
lasci	-11.6487
▁17-	-11.6488
▁medij	-11.6489
▁Brit	-11.6489
▁progovoril	-11.649
▁potroša	-11.6495
▁poslovnic	-11.6495
▁Molim	-11.6498
▁potražit	-11.6498
▁ben	-11.6498
▁lanca	-11.65
▁protivnici	-11.6501
▁ukloni	-11.6502
luci	-11.6502
▁rasla	-11.6508
▁kampu	-11.6513
▁znanost	-11.6513
▁suradnic	-11.6521
▁značajnij	-11.6521
▁nivou	-11.6522
▁Promjen	-11.6526
▁28-	-11.6527
▁Bjelic	-11.6528
▁novine	-11.653
▁kotar	-11.6531
▁Bejrut	-11.6531
▁holivudsk	-11.6531
▁musliman	-11.6531
▁zanemariv	-11.6531
▁ljepotu	-11.6531
▁pokvari	-11.6531
▁crkva	-11.6531
▁servira	-11.6531
▁Britanije	-11.6531
▁zaprijetio	-11.6531
Nema	-11.6531
▁zaslon	-11.6531
▁jabuka	-11.6531
▁Svijet	-11.6531
▁studio	-11.6531
▁(42)	-11.6531
▁okreć	-11.6532
▁raskid	-11.6532
▁viziju	-11.6532
▁Orešković	-11.6532
▁vlažn	-11.6532
▁zbunjen	-11.6532
▁vesla	-11.6532
▁Makedonije	-11.6533
seljavanj	-11.6533
▁Brozović	-11.6533
▁kriju	-11.6534
▁gastro	-11.6534
▁kuhinju	-11.6534
▁dobiven	-11.6534
▁mračn	-11.6534
▁bačen	-11.6535
▁poezij	-11.6535
▁logističk	-11.6535
▁zamoli	-11.6536
▁adut	-11.6536
▁Pravilnik	-11.6538
▁Monaco	-11.6538
▁sprječava	-11.6538
▁rujan	-11.654
▁koži	-11.654
▁zaleđ	-11.6541
▁prerano	-11.6541
▁posvuda	-11.6541
▁Stvar	-11.6544
▁rađa	-11.6544
▁Pej	-11.6548
▁tramvajsk	-11.6548
▁vez	-11.6548
▁Stiž	-11.6549
▁bje	-11.6553
▁JA	-11.6556
ficir	-11.6558
▁Službe	-11.6561
▁anga	-11.6562
▁pobje	-11.6564
ray	-11.6565
▁sastavni	-11.6568
padaju	-11.657
▁Turskoj	-11.657
▁službama	-11.6572
▁hrp	-11.6572
▁veselim	-11.6575
inkovit	-11.6578
▁Koprivničko	-11.6578
▁fokusiran	-11.6578
▁KO	-11.6583
▁Medij	-11.6585
▁sustavima	-11.6592
ump	-11.6594
▁dokazuj	-11.6594
▁Osobn	-11.6596
▁beton	-11.66
▁dobrodošl	-11.6603
▁sugeriraju	-11.6604
▁strasti	-11.6606
uglas	-11.6608
▁Edin	-11.6608
▁pjen	-11.6615
▁preferira	-11.6615
▁Washingtonu	-11.662
▁pridru	-11.6621
▁Vinko	-11.6622
izgled	-11.6623
▁putovanju	-11.6623
▁upućuje	-11.6623
▁pjesmama	-11.6624
▁putev	-11.6626
▁prič	-11.6628
izacije	-11.6633
▁razumij	-11.6637
▁stanovnik	-11.6637
▁uspor	-11.6639
▁Francuzi	-11.664
▁okrugl	-11.6644
▁kriminalisti	-11.6646
▁land	-11.6652
▁profit	-11.6654
▁Sje	-11.6656
▁Bub	-11.6659
▁navijač	-11.666
▁Fil	-11.6661
▁Međimurje	-11.6662
▁Božje	-11.6662
▁prihvat	-11.6662
▁alergi	-11.6663
▁Makedon	-11.6665
▁obavezn	-11.6666
▁skladb	-11.6667
▁konzerv	-11.6667
▁objavljiva	-11.6668
▁intelektualn	-11.6668
▁streljiva	-11.6668
▁televiziju	-11.6668
♬	-11.6668
▁razriješ	-11.6668
▁Reddit	-11.6668
▁leđima	-11.6668
▁roštilj	-11.6668
▁ponuđen	-11.6668
▁kript	-11.6668
▁spretn	-11.6668
▁Dušan	-11.6668
▁barijer	-11.6668
▁mehanizm	-11.6668
▁sastavljanj	-11.6668
▁specijalitet	-11.6668
▁počiva	-11.6668
▁Zračn	-11.6668
▁HZZO	-11.6668
▁češnjak	-11.6668
▁Devet	-11.6671
▁glumice	-11.6671
▁Loren	-11.6671
▁određivanj	-11.6672
▁Stepin	-11.6674
▁osuđuj	-11.6674
▁preporuke	-11.6674
▁otkrije	-11.6675
▁kanalizacij	-11.6675
▁Nikš	-11.6676
▁iznijel	-11.6678
▁istraži	-11.6678
▁zv	-11.668
▁9:	-11.6682
▁zg	-11.6684
▁devedesetih	-11.6685
đuju	-11.6685
▁Kolakuši	-11.6685
▁anketama	-11.6687
▁ocjenjuj	-11.6688
▁Adrian	-11.6689
▁Strah	-11.669
stali	-11.6693
▁audio	-11.6696
▁izvođenje	-11.6696
▁regionalnog	-11.6698
▁krivnju	-11.6698
▁26-	-11.67
▁zaslug	-11.6701
▁poslodavci	-11.6705
grijava	-11.6708
▁112	-11.671
▁mržnje	-11.6711
▁Villa	-11.6711
▁Slavn	-11.6713
▁zlostavljanje	-11.6716
▁propustiti	-11.6716
▁Donosi	-11.6717
▁usvoji	-11.6718
▁eksploziv	-11.6724
▁Melani	-11.6725
▁izdvoji	-11.6725
▁Umr	-11.6726
stvom	-11.673
▁krovn	-11.6732
▁olakšat	-11.6735
▁Ovogodišnj	-11.6736
▁ljudskog	-11.674
▁Andro	-11.6742
▁direktn	-11.6746
-0)	-11.6747
▁propustil	-11.6748
▁prekršajni	-11.6757
▁predložil	-11.6758
▁bus	-11.676
▁promjenjivo	-11.6761
▁sjedišt	-11.6768
▁dokumentacije	-11.6771
▁Radn	-11.6776
▁Prometn	-11.678
▁šar	-11.6783
bijen	-11.679
omčad	-11.6791
▁misliti	-11.6792
lištu	-11.6796
perativ	-11.6798
▁zaštitil	-11.6805
▁turiste	-11.6805
▁Urban	-11.6805
▁Amerika	-11.6806
twitter	-11.6807
▁atrakcij	-11.6807
▁cipele	-11.6807
▁komplikacij	-11.6807
▁narudžb	-11.6807
▁preživjeti	-11.6807
▁sjevernokorejsk	-11.6807
▁sugovornic	-11.6807
▁trijumf	-11.6807
▁brašna	-11.6807
▁fleksibiln	-11.6807
▁Slučaj	-11.6807
▁reputacij	-11.6807
▁cipela	-11.6807
▁Oružan	-11.6807
▁Ajax	-11.6807
▁važeć	-11.6807
▁Valencij	-11.6807
▁redakcij	-11.6807
▁masakr	-11.6807
▁određuje	-11.6807
▁Miletić	-11.6808
▁problematičn	-11.6808
▁zatvoril	-11.6808
▁tumači	-11.6808
▁kobn	-11.6808
▁skuplji	-11.6809
▁prolask	-11.6809
▁sreća	-11.6809
▁slavu	-11.6809
▁Povrat	-11.681
▁okuša	-11.6811
▁centi	-11.6812
▁susjedstv	-11.6812
▁informativn	-11.6812
▁pobun	-11.6813
▁Well	-11.6814
▁suncu	-11.6814
▁Istarsk	-11.6814
▁nametnu	-11.6814
▁zarade	-11.6815
▁bebe	-11.6816
▁Darij	-11.6817
▁raskošn	-11.682
▁sobn	-11.682
▁momci	-11.6821
▁prošlogodišnje	-11.6821
▁Haj	-11.6821
AC	-11.6821
▁legend	-11.6822
▁naftn	-11.6823
▁zonu	-11.6823
▁nastoje	-11.6826
▁neizvjesnost	-11.6826
▁Rich	-11.6827
▁Indian	-11.6828
▁obavezno	-11.6833
▁Podravin	-11.6833
▁raš	-11.6834
▁savjest	-11.6834
▁dokumentacij	-11.6836
▁tabl	-11.6838
▁podsjetimo	-11.6839
▁užit	-11.684
kninske	-11.6842
▁krizn	-11.6844
▁snimila	-11.6845
▁mladenk	-11.6845
Naš	-11.6845
▁Njen	-11.6847
plat	-11.6849
▁izlasku	-11.6849
▁Zadrani	-11.6852
▁smjernic	-11.6855
▁duel	-11.6857
set	-11.6857
▁operira	-11.6862
▁mesn	-11.6863
▁puha	-11.6865
▁Idej	-11.6866
▁Ključn	-11.6866
▁milijarder	-11.6866
▁napravim	-11.6867
[...]
