<unk>	0
<s>	0
</s>	0
,	-3.15965
▁a	-3.23907
.	-3.66712
t	-3.84709
i	-3.97763
▁	-4.2518
▁az	-4.27562
▁A	-4.64771
▁és	-4.79618
-	-4.82713
k	-4.83983
e	-4.86337
a	-4.94613
▁hogy	-5.07501
▁is	-5.16968
s	-5.17315
▁-	-5.25671
en	-5.30326
ek	-5.33649
▁meg	-5.34843
ok	-5.35469
▁nem	-5.3631
et	-5.46944
▁egy	-5.48801
es	-5.48881
ban	-5.52437
:	-5.57984
ó	-5.59076
on	-5.61223
d	-5.62368
ra	-5.6378
ben	-5.70111
ni	-5.71355
n	-5.72954
▁ki	-5.73377
▁el	-5.75453
nak	-5.75535
re	-5.76948
os	-5.83639
▁Az	-5.86276
ő	-5.89528
l	-5.89792
nek	-5.9187
ja	-5.9215
m	-5.93079
z	-5.93793
▁(	-5.94833
an	-5.9605
át	-6.08922
sz	-6.09393
ot	-6.12056
y	-6.15711
ik	-6.1673
▁fel	-6.17114
▁szerint	-6.18182
b	-6.18629
h	-6.2026
at	-6.20995
▁be	-6.21448
ét	-6.23943
)	-6.24802
▁de	-6.28196
án	-6.28946
ta	-6.3147
g	-6.32812
▁volt	-6.33645
ott	-6.3378
ak	-6.34805
▁"	-6.35751
"	-6.37479
ás	-6.37796
f	-6.40565
▁már	-6.42572
el	-6.4641
er	-6.49629
▁le	-6.51317
ba	-6.51733
ol	-6.54232
▁s	-6.56831
p	-6.60091
ú	-6.61362
▁S	-6.61548
r	-6.62565
te	-6.62912
v	-6.64882
▁csak	-6.6517
ű	-6.65186
▁még	-6.65417
ett	-6.67421
ul	-6.69444
▁ha	-6.735
c	-6.73632
ed	-6.74619
be	-6.75944
om	-6.76609
és	-6.76613
j	-6.7852
▁sz	-6.79946
▁K	-6.80103
okat	-6.80385
én	-6.80704
ség	-6.81201
cs	-6.8164
ék	-6.82707
eket	-6.83037
em	-6.84646
▁van	-6.85121
gy	-6.85388
ad	-6.85986
▁két	-6.86032
▁mint	-6.86036
é	-6.86433
u	-6.87542
ában	-6.87787
▁több	-6.88454
al	-6.8857
▁M	-6.89077
va	-6.89607
or	-6.90429
▁azt	-6.91209
ár	-6.91432
ez	-6.91488
▁f	-6.92562
▁kell	-6.92671
▁sem	-6.92969
o	-6.93986
▁ez	-6.94021
ság	-6.94854
as	-6.95597
▁F	-6.95664
ve	-6.96319
á	-6.97895
▁magyar	-6.98125
▁pedig	-6.98147
ig	-6.9842
ny	-6.98768
ar	-6.9972
ért	-6.9973
ták	-6.99762
▁után	-7.00354
ül	-7.01035
▁T	-7.01432
ál	-7.0193
in	-7.0251
unk	-7.03423
3	-7.03638
▁vagy	-7.04126
je	-7.04728
▁V	-7.04775
▁p	-7.04919
▁B	-7.05328
5	-7.06483
ai	-7.06647
▁G	-7.06777
▁P	-7.07139
ként	-7.08376
tak	-7.08501
us	-7.09342
▁nagy	-7.10304
▁Sz	-7.11098
▁b	-7.1134
ük	-7.11513
▁aki	-7.1193
ják	-7.12876
▁k	-7.13363
hoz	-7.14455
▁lehet	-7.14718
▁át	-7.14953
▁első	-7.15883
2	-7.16141
▁majd	-7.16159
ünk	-7.16815
4	-7.17293
uk	-7.18791
na	-7.18806
▁miatt	-7.18865
▁új	-7.19941
ról	-7.20505
ít	-7.21083
A	-7.21762
▁minden	-7.22072
ból	-7.2256
?	-7.22584
ében	-7.23051
▁amely	-7.24051
ur	-7.24911
is	-7.25101
▁lesz	-7.25932
▁C	-7.2638
ák	-7.26458
ről	-7.26577
9	-7.26751
6	-7.27063
▁ami	-7.2719
▁így	-7.27521
kor	-7.28018
▁mondta	-7.29017
▁h	-7.29345
▁ellen	-7.29489
▁H	-7.29661
▁mert	-7.30009
1	-7.31009
▁olyan	-7.31671
nál	-7.32337
tek	-7.32422
8	-7.32492
ának	-7.32891
▁akkor	-7.33217
hat	-7.33289
▁úgy	-7.33822
ri	-7.33942
ének	-7.34622
▁E	-7.34926
ből	-7.35101
▁Ha	-7.36361
▁év	-7.37259
▁között	-7.37926
ér	-7.3851
ték	-7.39563
7	-7.39905
▁kormány	-7.40811
▁mi	-7.41308
▁egyik	-7.41644
),	-7.42116
▁azonban	-7.42395
li	-7.44471
▁I	-7.4462
le	-7.44806
▁N	-7.4485
B	-7.44969
ára	-7.45149
▁leg	-7.45304
ei	-7.45972
egy	-7.46164
eg	-7.46312
hez	-7.47626
ö	-7.47884
ása	-7.47899
él	-7.47904
S	-7.48589
vel	-7.48826
it	-7.4992
▁jó	-7.50035
0	-7.50058
M	-7.50658
tól	-7.50732
ját	-7.51476
▁m	-7.51552
áz	-7.52215
öl	-7.52253
▁forint	-7.52313
ch	-7.52687
ci	-7.53265
het	-7.53952
▁köz	-7.5428
val	-7.54682
től	-7.54829
▁vissza	-7.55972
am	-7.56314
▁ember	-7.57778
▁három	-7.57799
▁millió	-7.59164
szer	-7.59563
▁más	-7.59767
juk	-7.60164
ére	-7.60167
▁össze	-7.60427
szt	-7.60587
▁5	-7.61476
▁arra	-7.61865
▁rá	-7.61946
nél	-7.62893
kat	-7.63373
bb	-7.6369
od	-7.63897
▁elő	-7.64286
▁nap	-7.64293
K	-7.64396
▁előtt	-7.64568
ne	-7.648
▁idő	-7.65024
▁fő	-7.65057
ut	-7.65956
ával	-7.66581
▁világ	-7.67085
▁most	-7.6714
▁L	-7.67174
▁D	-7.67241
E	-7.67264
tal	-7.67708
▁v	-7.67999
C	-7.68369
vi	-7.68683
P	-7.68831
▁Mi	-7.69308
▁Egy	-7.69507
ítás	-7.69529
▁4	-7.69728
▁éves	-7.70035
▁jog	-7.70198
▁W	-7.70578
la	-7.70832
ló	-7.71193
▁cs	-7.7124
▁autó	-7.71557
oz	-7.71836
ése	-7.719
▁fog	-7.71955
T	-7.72007
I	-7.72792
▁6	-7.72895
ha	-7.73592
▁volna	-7.73757
ök	-7.74089
▁csapat	-7.74119
▁áll	-7.7437
né	-7.74405
hető	-7.75136
ók	-7.75213
ka	-7.75439
▁Ez	-7.75919
x	-7.75978
ör	-7.76352
nyi	-7.76405
▁élet	-7.76596
!	-7.76713
▁alatt	-7.76903
ebb	-7.77309
ható	-7.77484
im	-7.77523
ír	-7.77966
í	-7.78013
▁illetve	-7.78041
▁mellett	-7.7811
▁R	-7.78881
ma	-7.79543
V	-7.79655
▁alap	-7.79883
um	-7.80283
▁kis	-7.80468
▁ezer	-7.80493
▁J	-7.80536
int	-7.80595
da	-7.80758
zs	-7.80835
ön	-7.81032
abb	-7.81798
▁ország	-7.81909
▁ezt	-7.8243
▁g	-7.82681
ött	-7.82752
ker	-7.82752
▁milliárd	-7.82954
▁által	-7.83391
F	-7.83444
olt	-7.83769
let	-7.8383
▁amikor	-7.83967
▁ár	-7.84197
mi	-7.84276
▁hozzá	-7.85519
di	-7.85564
▁akik	-7.85958
▁tud	-7.85974
▁lát	-7.86235
tor	-7.86269
D	-7.86516
ény	-7.86574
N	-7.86896
▁l	-7.87083
▁O	-7.87432
ők	-7.88039
ü	-7.88176
w	-7.88261
▁ne	-7.88297
▁Nem	-7.8845
▁fél	-7.88531
adó	-7.88953
ter	-7.89908
▁él	-7.90426
▁ér	-7.90736
il	-7.90823
/	-7.91007
▁talál	-7.91248
▁19	-7.9134
mény	-7.92182
ir	-7.92652
tár	-7.92887
▁ma	-7.92986
▁7	-7.9301
▁De	-7.93298
ap	-7.93572
ia	-7.9372
ész	-7.93725
ing	-7.94004
leg	-7.94224
▁párt	-7.94525
▁cég	-7.94572
▁vár	-7.94734
▁adó	-7.94747
▁amerikai	-7.95068
▁tart	-7.95214
▁sok	-7.95624
▁lett	-7.95724
▁Magyar	-7.95839
▁jár	-7.96088
▁nagyon	-7.9613
▁négy	-7.96466
ével	-7.96519
▁tovább	-7.96896
▁rendszer	-7.97143
H	-7.9719
▁hanem	-7.97425
▁kor	-7.98132
▁férfi	-7.98567
aj	-7.98663
▁ilyen	-7.98953
▁10	-7.99111
ult	-7.99223
▁százalék	-7.99582
za	-7.99907
▁törvény	-8.00089
og	-8.00319
▁túl	-8.00596
ly	-8.00682
okkal	-8.00835
00	-8.01074
▁kérdés	-8.01352
ekkel	-8.02038
▁20	-8.02409
▁közölte	-8.02675
ös	-8.03239
rá	-8.03423
▁te	-8.0476
zet	-8.05048
▁r	-8.05278
▁keres	-8.05382
▁helyzet	-8.05455
ám	-8.05665
▁Fidesz	-8.05736
▁vezető	-8.06074
▁kép	-8.06957
ális	-8.07473
vé	-8.07498
▁Cs	-8.07635
ki	-8.07763
".	-8.07891
▁nincs	-8.0799
▁8	-8.08053
▁azért	-8.08144
▁viszont	-8.08755
ány	-8.09239
▁hely	-8.09382
se	-8.09567
▁második	-8.09599
zi	-8.09703
R	-8.11091
▁euró	-8.11208
▁ahol	-8.1121
eszt	-8.11452
▁d	-8.11534
ro	-8.11544
▁kerül	-8.11638
iz	-8.11675
▁ezért	-8.11732
;	-8.11977
▁annak	-8.12116
▁akar	-8.124
ző	-8.12487
▁eredmény	-8.12601
tel	-8.12755
▁nélkül	-8.12938
▁vi	-8.13297
▁város	-8.13337
▁MNO	-8.13497
nap	-8.1354
az	-8.137
▁Z	-8.13971
▁film	-8.1409
ver	-8.14118
▁kap	-8.14561
hely	-8.14921
vá	-8.14944
▁vált	-8.15006
▁ház	-8.15248
ic	-8.15376
ító	-8.15535
▁szám	-8.15622
▁szó	-8.15892
O	-8.15994
op	-8.16216
▁százalékkal	-8.16245
▁például	-8.16722
ező	-8.16839
ór	-8.16859
▁ügy	-8.1739
▁saját	-8.17463
▁ka	-8.17619
ill	-8.17678
elt	-8.17983
oly	-8.18022
▁arról	-8.18101
▁Ma	-8.18538
szám	-8.18602
▁ő	-8.18709
▁pénz	-8.18715
ani	-8.18822
▁pár	-8.18877
mer	-8.19141
ág	-8.19165
▁ugyanis	-8.19215
▁hat	-8.19215
▁valamint	-8.19229
▁1	-8.1935
▁kér	-8.19551
rend	-8.1977
nd	-8.19861
ng	-8.20097
▁öt	-8.20161
L	-8.20261
▁elnök	-8.20451
▁pont	-8.20615
▁való	-8.20676
un	-8.20787
▁Le	-8.20839
▁óta	-8.20905
▁itt	-8.21157
mel	-8.2123
▁állam	-8.21351
ítés	-8.21401
ült	-8.21481
▁közel	-8.21619
▁hét	-8.21632
bi	-8.21827
▁El	-8.21885
otta	-8.21941
ell	-8.22003
lő	-8.22215
▁család	-8.22482
zés	-8.22528
ssz	-8.22642
▁3	-8.22799
▁alapján	-8.23015
eit	-8.23741
elő	-8.23849
ását	-8.24171
ette	-8.25021
▁hónap	-8.25058
▁korábban	-8.25175
▁munka	-8.25239
▁út	-8.25393
▁számára	-8.25704
áj	-8.25708
▁másik	-8.2599
▁jelent	-8.26063
▁hiszen	-8.26077
▁e	-8.26182
▁rendőrség	-8.26271
ag	-8.26444
▁cél	-8.26577
áció	-8.26595
▁2	-8.27297
▁szak	-8.27298
▁verseny	-8.27326
usz	-8.27423
▁került	-8.2752
▁képviselő	-8.276
▁Mar	-8.28152
fog	-8.28196
lás	-8.28306
zó	-8.28608
hu	-8.291
▁fej	-8.29106
ást	-8.29122
▁Ro	-8.29224
▁lap	-8.29379
▁12	-8.29405
▁amit	-8.29572
▁U	-8.29904
fi	-8.30453
▁jól	-8.30606
tam	-8.30709
▁című	-8.30753
▁érték	-8.30799
▁jel	-8.30898
▁Magyarország	-8.30991
▁sor	-8.3103
▁szem	-8.31051
ház	-8.31138
sal	-8.31269
st	-8.31322
▁közül	-8.31473
öv	-8.31488
ász	-8.3165
őr	-8.3172
kép	-8.31847
ket	-8.3186
▁program	-8.3189
lat	-8.31974
okra	-8.32082
▁18	-8.3217
telen	-8.322
lo	-8.3243
ná	-8.32476
▁Európa	-8.32479
éz	-8.32537
▁akár	-8.32585
▁Al	-8.32734
ába	-8.32913
▁szervezet	-8.32938
▁százalékos	-8.32993
▁használ	-8.33003
▁9	-8.33539
szor	-8.33819
▁c	-8.33824
ép	-8.33931
▁mind	-8.34033
▁nő	-8.34182
▁marad	-8.34192
▁zár	-8.34208
▁lenne	-8.34272
▁dollár	-8.34775
▁rend	-8.34856
ették	-8.34875
▁ugyan	-8.34891
ított	-8.3492
esen	-8.35346
▁hír	-8.35377
▁Ki	-8.35625
▁jobb	-8.35945
▁idén	-8.35949
men	-8.36164
▁11	-8.36265
gó	-8.36284
fel	-8.36302
▁kör	-8.36655
ep	-8.36672
éről	-8.36678
áll	-8.36833
▁Meg	-8.37096
ján	-8.37109
osan	-8.37272
▁január	-8.37303
oknak	-8.37355
ozó	-8.37494
▁amelyek	-8.37757
rész	-8.37789
▁egész	-8.37931
ug	-8.38044
▁legnagyobb	-8.38351
▁legjobb	-8.38502
ind	-8.38537
ozás	-8.38574
kel	-8.38598
zás	-8.38825
▁történt	-8.3888
▁Nagy	-8.3896
▁ért	-8.38987
ából	-8.39338
...	-8.39428
▁terület	-8.39491
koz	-8.39545
▁néhány	-8.39604
▁míg	-8.39646
▁kellett	-8.39711
▁teljes	-8.39749
▁korábbi	-8.3975
SZ	-8.40174
ést	-8.40405
len	-8.40428
▁vesz	-8.40525
▁tör	-8.40543
▁tett	-8.40546
▁Ka	-8.40606
jában	-8.40667
▁mér	-8.41027
▁során	-8.41094
▁csoport	-8.41128
▁0	-8.41137
ony	-8.41175
▁tette	-8.4122
▁elmúlt	-8.41366
▁december	-8.41416
▁szer	-8.41492
▁szemben	-8.41646
▁fontos	-8.41707
▁re	-8.41804
▁gól	-8.41922
ven	-8.41935
▁német	-8.42359
ését	-8.4255
ált	-8.42554
▁bank	-8.42689
▁alá	-8.42981
▁tíz	-8.43228
0-	-8.43265
▁erős	-8.43347
▁csökkent	-8.43433
ós	-8.43519
▁ti	-8.43598
▁eddig	-8.43606
jának	-8.4361
▁mond	-8.43663
▁magán	-8.43676
▁könyv	-8.43743
▁személy	-8.43916
ce	-8.43939
de	-8.44455
▁nagyobb	-8.44577
zen	-8.44709
).	-8.44759
pa	-8.44838
par	-8.4501
▁döntés	-8.45044
ait	-8.45313
▁azzal	-8.45426
▁mely	-8.45473
▁víz	-8.45833
▁hang	-8.4588
▁elmondta	-8.462
áról	-8.46245
rel	-8.46357
ezés	-8.46501
tem	-8.46651
ck	-8.4666
mp	-8.4677
▁mutat	-8.46859
der	-8.46972
▁választ	-8.47051
▁irány	-8.47257
tér	-8.47462
ton	-8.47483
▁éve	-8.47518
▁játék	-8.47572
ához	-8.47673
vezető	-8.47766
son	-8.48044
G	-8.48058
▁15	-8.48226
▁tavaly	-8.48361
▁16	-8.48409
vány	-8.48582
ga	-8.48625
▁gazdasági	-8.48986
szak	-8.49289
üt	-8.49369
▁ezzel	-8.49496
jük	-8.49539
zik	-8.49622
▁ezek	-8.49805
▁200	-8.49895
szerű	-8.49949
sel	-8.50028
1-	-8.50074
ív	-8.50103
▁ön	-8.50434
▁tiszt	-8.50498
▁László	-8.5051
▁ter	-8.50526
▁szól	-8.50829
▁szabad	-8.50957
▁Mo	-8.50962
ikus	-8.5103
ezte	-8.51154
▁adott	-8.51246
atlan	-8.51479
▁ott	-8.51564
▁mivel	-8.51673
▁együtt	-8.51702
ások	-8.51835
▁mindig	-8.51877
▁mű	-8.52
▁hiány	-8.52222
▁ment	-8.52259
▁vannak	-8.52412
ov	-8.52431
▁La	-8.5281
elme	-8.52864
▁Er	-8.52989
▁nyom	-8.53032
díj	-8.53096
ment	-8.53478
zat	-8.53658
sa	-8.53942
▁tartott	-8.5402
▁utolsó	-8.54034
▁később	-8.541
kkal	-8.54109
▁elnöke	-8.54154
▁tér	-8.54244
hi	-8.5451
▁néz	-8.54881
ót	-8.54942
▁vasárnap	-8.55104
úr	-8.55106
▁ám	-8.55173
▁Pa	-8.55195
ály	-8.55298
köz	-8.55321
▁újra	-8.55363
lag	-8.55641
▁hazai	-8.55654
▁gondol	-8.55895
adás	-8.56053
▁oldal	-8.56134
ink	-8.56308
▁szerződés	-8.56376
lá	-8.56485
gi	-8.56579
▁emberek	-8.56682
▁semmi	-8.56848
▁kapott	-8.57046
▁Re	-8.57096
▁szükség	-8.57678
▁szabály	-8.57702
▁MSZP	-8.57803
▁inkább	-8.57861
▁25	-8.57963
▁lehetőség	-8.58348
pont	-8.58369
▁cím	-8.58383
th	-8.58674
▁gy	-8.59087
éssel	-8.59136
ej	-8.59353
▁nemzetközi	-8.59564
▁30	-8.59611
▁Budapest	-8.59657
sége	-8.59676
▁Orbán	-8.59682
lés	-8.59828
▁kár	-8.5993
▁támogatás	-8.60019
▁voltak	-8.60021
▁maga	-8.60022
ég	-8.60121
▁határ	-8.6037
▁ill	-8.60474
ekben	-8.60548
ással	-8.6071
▁nyugdíj	-8.60809
▁17	-8.60934
▁piac	-8.60982
▁ide	-8.61044
▁őket	-8.6115
▁Á	-8.61228
lan	-8.61297
▁összeg	-8.61406
▁vég	-8.6142
▁Péter	-8.61599
ró	-8.61692
elem	-8.61886
▁eljárás	-8.61908
vet	-8.61937
▁ismert	-8.62033
▁13	-8.62055
lap	-8.62073
▁körül	-8.6239
▁hitel	-8.62394
▁közép	-8.62571
kó	-8.62714
▁játékos	-8.62967
ca	-8.63102
▁szerepel	-8.63161
▁gyermek	-8.6318
▁sikerült	-8.63232
▁önkormányzat	-8.63305
▁következő	-8.63321
▁támogat	-8.63325
▁14	-8.6343
▁része	-8.63438
okban	-8.63514
heti	-8.63602
▁további	-8.6362
út	-8.63692
▁november	-8.63736
▁biztos	-8.63737
▁Köz	-8.638
szk	-8.63858
talan	-8.63892
▁perc	-8.6407
▁nyolc	-8.64122
▁politikai	-8.64192
▁jövő	-8.64199
co	-8.64246
ügy	-8.64283
▁elég	-8.64339
ád	-8.64364
▁bele	-8.64577
▁Br	-8.64587
ass	-8.64853
cz	-8.65083
ang	-8.65111
▁bár	-8.65121
ája	-8.65368
vár	-8.65543
▁beszél	-8.65606
▁ennek	-8.65718
ésére	-8.65759
jét	-8.65764
▁rész	-8.65921
mond	-8.65936
▁harmadik	-8.65936
▁kon	-8.66002
ített	-8.66245
tart	-8.6628
kció	-8.66309
▁állami	-8.6638
alma	-8.66416
▁milyen	-8.66428
▁indul	-8.66594
har	-8.66985
▁orosz	-8.66995
▁Bo	-8.67136
▁meccs	-8.6719
öt	-8.67391
jon	-8.67754
▁éppen	-8.67777
ber	-8.67926
ger	-8.68156
▁szül	-8.68161
▁in	-8.68365
and	-8.68589
▁számít	-8.68696
▁valami	-8.6873
▁magát	-8.68732
man	-8.6881
▁vizsgálat	-8.69259
▁men	-8.69267
anak	-8.69321
olás	-8.69504
▁készül	-8.69601
osz	-8.69785
etlen	-8.6993
▁belül	-8.69992
▁Sa	-8.70098
kal	-8.701
zott	-8.70116
▁István	-8.70241
▁jut	-8.70263
▁történet	-8.70501
ügyi	-8.70593
▁siker	-8.70816
zett	-8.70918
▁tr	-8.70935
▁mindenki	-8.70991
▁politikus	-8.71169
▁sajtó	-8.71181
▁neki	-8.71182
új	-8.7119
öm	-8.71194
▁európai	-8.71203
▁helyi	-8.7144
▁di	-8.71448
ron	-8.71589
gel	-8.71647
▁gyerek	-8.71666
város	-8.71774
▁halál	-8.718
▁múlt	-8.72039
nia	-8.72166
▁bor	-8.72184
▁mintegy	-8.72346
▁jelentős	-8.72351
oló	-8.72421
▁próbál	-8.72576
▁segít	-8.72874
gal	-8.72931
▁Be	-8.72979
ral	-8.73137
old	-8.73244
▁hal	-8.73296
úl	-8.73325
tikus	-8.7339
ekre	-8.73391
▁szóló	-8.73401
▁közös	-8.73422
▁lévő	-8.73463
hogy	-8.73589
ho	-8.73643
▁bíróság	-8.73669
▁eset	-8.73683
land	-8.73713
▁hát	-8.74015
▁föld	-8.74184
▁jelen	-8.74247
nal	-8.7445
ves	-8.74631
▁jelenleg	-8.74636
▁erre	-8.74731
▁jegy	-8.74786
dő	-8.74823
ög	-8.75065
▁este	-8.75137
▁anyag	-8.75138
port	-8.7529
ud	-8.75374
hal	-8.75437
▁2010.	-8.75533
▁folytat	-8.7556
▁erő	-8.75564
▁se	-8.7557
ására	-8.75613
hetetlen	-8.75629
von	-8.7599
▁képest	-8.76023
kod	-8.76276
▁mérkőzés	-8.76296
▁szerdán	-8.76426
▁írja	-8.76495
▁utóbbi	-8.76501
ította	-8.76536
▁végén	-8.76549
▁ír	-8.76626
▁kívül	-8.76714
vonal	-8.76808
▁forintot	-8.76844
ev	-8.76968
▁miniszterelnök	-8.76997
est	-8.77176
▁Már	-8.77267
▁információ	-8.77341
ke	-8.77458
pp	-8.77559
▁hasonló	-8.77648
▁újabb	-8.77662
ista	-8.77731
▁Bu	-8.7784
▁feladat	-8.77841
▁Ba	-8.77853
▁kezd	-8.78212
▁haj	-8.78271
▁27	-8.78397
▁mag	-8.78448
bo	-8.78465
▁évvel	-8.78569
ür	-8.78583
▁rossz	-8.78819
▁száz	-8.78844
zár	-8.78871
▁ellenére	-8.78922
▁igen	-8.78974
kör	-8.79047
▁hétfőn	-8.79152
▁Ko	-8.79153
▁képes	-8.79222
▁hatás	-8.79337
▁helyen	-8.79389
per	-8.79395
ébe	-8.79411
▁lép	-8.79433
▁szinte	-8.79456
▁amelyet	-8.79464
áb	-8.79486
lát	-8.79499
▁magas	-8.79555
no	-8.79555
ülés	-8.7963
▁reggel	-8.79703
▁sokkal	-8.7971
ozott	-8.79795
▁tag	-8.79833
to	-8.80208
ty	-8.80237
▁fiatal	-8.80363
dik	-8.80365
ón	-8.80454
▁válság	-8.80715
▁kapcsolat	-8.80753
do	-8.80779
▁MTI	-8.80869
▁gyors	-8.81051
▁kedden	-8.8106
ítani	-8.81127
millió	-8.81141
nő	-8.81373
met	-8.81455
▁Gábor	-8.81457
áló	-8.81471
nya	-8.81523
súly	-8.81576
védelmi	-8.81612
▁hagy	-8.81648
▁kedv	-8.81658
ika	-8.81744
▁igaz	-8.81749
▁üzlet	-8.81752
erő	-8.81773
jai	-8.81815
form	-8.8193
▁hoz	-8.82294
▁komoly	-8.82433
mű	-8.82459
▁ismét	-8.82603
ko	-8.8287
▁egyes	-8.8287
okon	-8.83047
ítő	-8.83064
▁követ	-8.83085
▁dél	-8.8315
ezer	-8.8318
▁Egyesül	-8.83183
▁legyen	-8.83187
ll	-8.83246
▁Magyarországon	-8.83257
▁Ferenc	-8.83392
▁21	-8.83472
▁tervez	-8.83509
▁alakul	-8.83538
ási	-8.83597
ru	-8.83657
▁szél	-8.8383
▁részt	-8.84126
▁ver	-8.84273
▁február	-8.84298
▁Ra	-8.84575
▁jelentette	-8.84595
▁egyelőre	-8.84605
ország	-8.84705
vény	-8.84711
▁szeretné	-8.84786
▁elv	-8.84851
sen	-8.84868
▁Gy	-8.84992
▁egyetlen	-8.85009
tör	-8.8514
dal	-8.85226
▁szeret	-8.85273
20	-8.85397
▁Ar	-8.85446
ard	-8.85452
▁március	-8.85597
▁vezet	-8.85659
▁egyébként	-8.85712
'	-8.8575
▁idei	-8.85777
get	-8.8588
▁évek	-8.85884
▁vele	-8.85918
bor	-8.8599
ották	-8.86026
év	-8.8617
enek	-8.8621
vált	-8.86282
eken	-8.86331
lak	-8.86421
▁szintén	-8.86526
lal	-8.86664
▁évben	-8.86703
▁hó	-8.86764
lin	-8.86871
▁helyett	-8.8701
ow	-8.87026
▁követően	-8.8714
▁egymás	-8.87151
féle	-8.87269
állítás	-8.87347
▁csütörtökön	-8.8741
▁én	-8.87446
▁igény	-8.87461
▁nehéz	-8.87536
vas	-8.87638
tunk	-8.87684
▁bel	-8.87712
▁ünnep	-8.88007
ottak	-8.88085
▁pénteken	-8.88096
éből	-8.88129
sor	-8.88161
▁tudja	-8.88208
▁ahogy	-8.88227
ától	-8.8827
▁foglalkoz	-8.88329
▁otthon	-8.88482
ex	-8.88571
▁elleni	-8.8868
ács	-8.88788
▁nyert	-8.88966
edett	-8.89179
▁Li	-8.89454
▁orvos	-8.89596
▁24	-8.89837
▁bizottság	-8.89847
séges	-8.89874
▁In	-8.89939
▁pro	-8.89964
tag	-8.90081
▁hosszú	-8.9011
▁motor	-8.90225
▁sport	-8.90522
séget	-8.90531
▁műsor	-8.90579
▁kar	-8.90692
▁fi	-8.90699
var	-8.9101
me	-8.91092
oldal	-8.91144
▁fordul	-8.91387
▁Jo	-8.91413
mu	-8.91497
▁végül	-8.91573
▁egyre	-8.9159
▁rövid	-8.91695
▁vizsgál	-8.91722
hatnak	-8.91777
▁megyei	-8.91937
ős	-8.91966
▁egyszer	-8.92237
▁helyez	-8.92346
▁bűn	-8.92436
▁22	-8.92471
▁álló	-8.92646
▁társaság	-8.92729
lép	-8.92733
jár	-8.92755
▁először	-8.92845
▁előző	-8.93041
ün	-8.9306
jelen	-8.93094
▁javaslat	-8.93175
▁baleset	-8.93177
▁tehát	-8.93259
anyag	-8.93309
őd	-8.9344
▁abban	-8.93492
▁szín	-8.93523
csak	-8.93551
olta	-8.93722
▁tudta	-8.93724
mal	-8.93832
▁Co	-8.93898
▁Sport	-8.94005
sága	-8.94013
▁kisebb	-8.94021
▁fizet	-8.94025
▁ebben	-8.94117
▁kíván	-8.94162
eknek	-8.94222
▁z	-8.94254
▁János	-8.94512
▁brit	-8.94525
▁He	-8.94617
▁Szer	-8.94621
▁súlyos	-8.94644
▁amelynek	-8.94657
10	-8.94749
▁gazdaság	-8.94816
▁benne	-8.94872
2-	-8.94929
▁miután	-8.95016
nk	-8.95029
▁tekint	-8.95064
▁ro	-8.9512
30	-8.95185
▁játsz	-8.95196
▁felé	-8.9527
izmus	-8.95451
omb	-8.955
meg	-8.9553
beli	-8.95561
▁vezetője	-8.95571
hatja	-8.95705
▁utas	-8.95708
ham	-8.95803
▁délután	-8.95949
iai	-8.95958
▁növekedés	-8.95981
▁György	-8.96034
▁Mint	-8.96059
▁dolgoz	-8.96128
van	-8.96144
▁jelölt	-8.96296
▁Da	-8.96322
esebb	-8.96349
▁po	-8.96391
▁szükséges	-8.9665
mé	-8.96707
ezett	-8.96752
íz	-8.96786
▁készült	-8.96878
ések	-8.96885
▁vélemény	-8.9689
irat	-8.9691
▁forrás	-8.96924
▁Bar	-8.96931
▁ezen	-8.97028
▁26	-8.97075
pl	-8.97087
fa	-8.97148
▁október	-8.97149
▁Ny	-8.97177
▁Ch	-8.97398
föld	-8.97486
akat	-8.97584
▁élő	-8.97753
▁miniszter	-8.97772
▁formá	-8.97813
▁Jobbik	-8.97928
gat	-8.97961
tartás	-8.97977
3-	-8.98013
▁Világ	-8.98015
▁Tamás	-8.98029
▁legalább	-8.98108
▁szép	-8.98138
▁Vi	-8.98501
mo	-8.98573
▁per	-8.98662
▁polgármester	-8.9889
▁Te	-8.98957
▁tartó	-8.98971
ff	-8.99069
jával	-8.99192
▁me	-8.9925
▁lány	-8.99363
▁megy	-8.99513
▁folyamat	-8.99571
br	-8.99581
zel	-8.99771
▁kapcsolatban	-8.99812
▁írta	-8.99916
▁valaki	-8.99948
▁jelenlegi	-8.99973
ide	-9.00034
▁adat	-9.00059
▁kellene	-9.00123
kedés	-9.00205
ásra	-9.00313
▁teljesen	-9.00333
▁szerep	-9.00359
ési	-9.00373
▁mégis	-9.00443
▁emel	-9.00467
tette	-9.0058
▁Ca	-9.0088
min	-9.01032
▁gáz	-9.01209
▁gond	-9.01217
▁Ti	-9.01217
▁külön	-9.01218
▁szövetség	-9.0136
▁New	-9.01503
lem	-9.01513
▁dolgozó	-9.0157
elés	-9.0159
▁vet	-9.017
▁EU	-9.01701
einek	-9.01711
▁Me	-9.01792
▁jutott	-9.01905
világ	-9.01948
bu	-9.02061
▁válogatott	-9.02154
▁Nemzeti	-9.0232
alom	-9.02434
▁száma	-9.02504
▁vett	-9.02516
érték	-9.02524
mány	-9.02694
▁Di	-9.02713
lov	-9.02913
üket	-9.02988
▁állapot	-9.0301
rendszer	-9.03037
▁bér	-9.03213
▁arány	-9.03331
▁rendőrök	-9.03332
▁És	-9.03502
▁vállal	-9.03524
▁szerző	-9.03524
▁von	-9.03717
▁tulajdon	-9.03727
str	-9.03776
▁Zrt	-9.03843
▁forduló	-9.03857
▁Fel	-9.03901
8-	-9.0392
gr	-9.0393
▁parlament	-9.04017
▁nép	-9.04111
▁cikk	-9.04145
dás	-9.04179
▁táv	-9.04338
ásával	-9.04447
▁neve	-9.04704
▁23	-9.04807
▁hivatalos	-9.04819
öd	-9.04904
▁lakás	-9.04934
▁esetben	-9.04942
go	-9.05005
▁Zoltán	-9.05042
▁nyilván	-9.05042
ler	-9.05095
▁bemutat	-9.0526
▁kevesebb	-9.05416
▁persze	-9.05418
▁gép	-9.05453
▁miért	-9.05534
+	-9.05603
▁X	-9.0596
▁fok	-9.05978
ob	-9.06023
▁Új	-9.06075
▁közben	-9.06201
nie	-9.06239
▁költségvetés	-9.06285
▁É	-9.06621
▁helyszín	-9.06638
▁test	-9.06801
nem	-9.0681
▁Po	-9.06859
▁mo	-9.06871
▁hol	-9.06897
▁forintos	-9.06966
▁észak	-9.07011
▁termék	-9.07085
▁ugyanakkor	-9.07117
▁nemzeti	-9.07241
▁bu	-9.07246
▁alig	-9.07259
lik	-9.07359
▁épít	-9.07378
▁közlemény	-9.07425
▁nyer	-9.07514
▁csupán	-9.07594
▁senki	-9.07599
tuk	-9.07778
szó	-9.07864
▁pénzügyi	-9.07923
▁megoldás	-9.08104
gen	-9.08135
▁karácsony	-9.0817
hol	-9.08174
tató	-9.08229
50	-9.08271
▁megfelelő	-9.08318
mér	-9.08363
▁BKV	-9.08363
▁többi	-9.08392
▁Viktor	-9.0846
▁méter	-9.08558
alap	-9.08604
ságot	-9.08737
ember	-9.08797
▁rom	-9.08911
▁hétfő	-9.08926
▁lépés	-9.09066
▁francia	-9.09093
▁kampány	-9.09138
▁április	-9.09138
▁hete	-9.0917
▁főváros	-9.09277
cc	-9.09363
▁klub	-9.09387
▁nyelv	-9.09423
ner	-9.09443
▁érdek	-9.09454
▁Bár	-9.09587
▁tanulmány	-9.09635
▁talán	-9.09643
éves	-9.09667
▁Ho	-9.09756
▁50	-9.09919
▁választás	-9.09957
vég	-9.09957
hetnek	-9.0996
▁összesen	-9.09999
sék	-9.10069
any	-9.10081
itás	-9.10101
▁kész	-9.10128
for	-9.10198
▁százaléka	-9.10201
autó	-9.10207
5-	-9.10277
éhez	-9.10507
▁legtöbb	-9.10508
ainak	-9.1055
▁épület	-9.10568
▁Na	-9.10582
▁vál	-9.1059
▁héten	-9.10646
▁mit	-9.10656
▁emlék	-9.10724
▁érdekében	-9.10879
▁hi	-9.10923
hatatlan	-9.10982
▁köt	-9.11063
ukat	-9.11071
▁adatok	-9.11204
▁Ne	-9.1137
▁péntek	-9.11585
▁Államok	-9.117
▁gyár	-9.11752
▁jobban	-9.11755
jegy	-9.11911
csoport	-9.12081
▁központ	-9.12279
mar	-9.1229
▁teszi	-9.12297
▁település	-9.12306
élet	-9.12328
nyugat	-9.12459
▁3-	-9.12478
▁előre	-9.12661
elte	-9.12744
▁név	-9.12794
▁kezdet	-9.12846
▁kilométer	-9.12902
▁szereplő	-9.12937
▁oda	-9.12958
▁Ber	-9.1297
▁közé	-9.13092
éd	-9.13117
ésével	-9.13159
▁ismer	-9.13306
▁Ta	-9.13418
▁maradt	-9.13471
▁figyel	-9.13536
▁2009	-9.1355
han	-9.13719
bl	-9.14044
▁utal	-9.14056
▁csütörtök	-9.14183
▁Fi	-9.14191
fizet	-9.14214
szel	-9.14296
▁sorozat	-9.14398
▁alkotmány	-9.14423
▁összes	-9.14495
atás	-9.14579
▁ezelőtt	-9.14586
▁áldozat	-9.14736
elnök	-9.14752
ac	-9.14787
kap	-9.14856
átor	-9.14924
▁döntött	-9.14988
▁András	-9.14996
ruhá	-9.15025
▁rendez	-9.15137
íteni	-9.15253
ry	-9.15357
4-	-9.15367
rány	-9.15376
▁biztosít	-9.15484
▁lak	-9.15509
álló	-9.15546
▁uniós	-9.15705
▁tulajdonos	-9.15787
jára	-9.159
▁társ	-9.15914
▁várható	-9.15966
▁fa	-9.15992
▁modell	-9.16031
▁költség	-9.16176
▁elején	-9.16193
piac	-9.16271
▁elsősorban	-9.16295
pi	-9.16359
▁barát	-9.16384
log	-9.16389
▁Itthon	-9.16395
▁aztán	-9.16401
▁hivatal	-9.16467
olni	-9.16478
▁vállalat	-9.16486
▁Ku	-9.16539
▁elfogad	-9.16616
ettek	-9.16671
▁100	-9.16677
ium	-9.16687
▁Ezt	-9.16726
▁Hi	-9.16832
▁j	-9.171
csi	-9.17171
etett	-9.17273
▁listá	-9.1743
▁olasz	-9.17659
zni	-9.17677
▁intézmény	-9.17759
▁szív	-9.17799
endő	-9.17865
tetés	-9.17885
▁különböző	-9.17912
művész	-9.18002
▁állat	-9.18076
▁Val	-9.18103
▁tanács	-9.18248
▁sőt	-9.18273
▁állt	-9.18276
fér	-9.18287
▁fogad	-9.18447
gu	-9.18478
▁küld	-9.18509
ésre	-9.18736
sé	-9.18749
▁közlekedés	-9.18752
6-	-9.18796
▁állás	-9.18886
▁darab	-9.18896
▁keresztül	-9.18936
▁vette	-9.18958
▁vagyis	-9.1899
▁nevez	-9.19025
▁Sándor	-9.19259
▁külföldi	-9.19259
köt	-9.19345
ekről	-9.19506
▁szint	-9.19532
▁esemény	-9.1969
all	-9.19725
▁József	-9.19798
U	-9.19829
▁MDF	-9.19906
▁szakasz	-9.19985
ségét	-9.19998
▁óra	-9.20055
▁számos	-9.20208
mat	-9.20245
haj	-9.20246
▁bal	-9.20347
▁fejlesztés	-9.204
▁szolgál	-9.20452
▁rendőr	-9.20526
▁vezetés	-9.20551
▁spanyol	-9.20643
▁egészség	-9.20687
▁hív	-9.20691
▁indult	-9.20844
kar	-9.20863
▁szezon	-9.20891
száz	-9.20938
▁természet	-9.20969
▁So	-9.21025
▁40	-9.21079
▁Index	-9.21105
ín	-9.2113
▁Minden	-9.2113
álás	-9.21186
▁módon	-9.21211
marad	-9.21338
▁lehetett	-9.21407
tétel	-9.21409
▁Eb	-9.21782
▁adta	-9.21809
▁sí	-9.22067
▁okoz	-9.22089
tud	-9.22166
▁nemcsak	-9.2218
oc	-9.223
▁részlet	-9.22359
▁tárgyalás	-9.2251
▁Rendőr	-9.22626
▁kül	-9.22664
▁nőtt	-9.22745
▁nők	-9.22821
hang	-9.2286
▁környezet	-9.22875
▁esetében	-9.22881
oszt	-9.23075
▁vagyok	-9.23102
▁vagyon	-9.23243
jelölt	-9.23362
▁teljesítmény	-9.23461
▁fény	-9.23467
tro	-9.23524
▁Ennek	-9.23541
▁mer	-9.23598
▁No	-9.23684
▁vér	-9.2372
ju	-9.2374
lét	-9.23892
▁egykori	-9.23939
▁szolgáltatás	-9.23962
cse	-9.23986
▁szervez	-9.2403
▁sérülés	-9.24108
oda	-9.24172
ers	-9.24281
okból	-9.24306
óval	-9.24314
▁ke	-9.24316
▁időszak	-9.24365
kkel	-9.24378
▁utcá	-9.2445
ká	-9.24459
▁döntő	-9.24472
▁kol	-9.24662
műve	-9.24938
▁problémá	-9.24971
▁kilenc	-9.25017
▁tü	-9.25018
▁kutatás	-9.25058
▁budapesti	-9.25244
hár	-9.25251
▁tesz	-9.25426
▁kez	-9.2544
▁Lu	-9.25524
állás	-9.2555
▁következ	-9.2555
jön	-9.25688
▁mély	-9.25818
▁érintett	-9.25825
▁kettő	-9.25834
▁hogyan	-9.25837
▁kéz	-9.25853
▁érte	-9.25879
▁(1	-9.25958
▁tanul	-9.2596
▁szóvivője	-9.25976
▁tagja	-9.2601
▁28	-9.26121
▁Így	-9.26163
▁To	-9.26403
▁Kis	-9.26519
▁kapcsolatos	-9.26525
▁média	-9.26735
▁látható	-9.26769
fizetés	-9.26812
▁addig	-9.26857
▁lakosság	-9.2686
▁évi	-9.26864
▁egyetem	-9.26886
uló	-9.26895
▁változás	-9.26933
▁haza	-9.26944
▁Több	-9.26972
▁folyó	-9.27046
▁követel	-9.2712
▁tömeg	-9.27205
elmi	-9.27227
sh	-9.27262
▁vége	-9.27368
▁fotó	-9.27369
▁kínai	-9.27438
▁ára	-9.27457
▁igazgató	-9.27532
▁átlag	-9.27686
nyom	-9.27714
▁években	-9.27737
▁megjelent	-9.27795
társa	-9.27799
▁azaz	-9.27806
közben	-9.27844
▁Sch	-9.27918
▁felül	-9.27998
pr	-9.28147
▁ítél	-9.2815
▁2.	-9.28247
cent	-9.28262
▁beteg	-9.28483
tető	-9.28529
▁látogat	-9.2864
▁jött	-9.2864
▁Se	-9.28644
▁idején	-9.28706
ítette	-9.28784
▁Két	-9.28832
▁térség	-9.28851
▁dob	-9.2886
▁angol	-9.28877
▁végzett	-9.28884
▁Kft	-9.28891
▁Ga	-9.28955
▁viszony	-9.28958
▁ahhoz	-9.29154
osabb	-9.29229
▁küzd	-9.29246
▁kockázat	-9.29324
▁fogalmazott	-9.29325
víz	-9.2935
▁választások	-9.29356
ció	-9.29359
álta	-9.2941
▁Megye	-9.29516
▁harc	-9.29548
vétel	-9.29549
org	-9.29579
▁működés	-9.29663
▁nevű	-9.29682
▁baj	-9.29783
szint	-9.29786
rajz	-9.29858
jelentés	-9.2986
▁lét	-9.29977
politik	-9.30079
ris	-9.30083
▁mennyi	-9.30113
nék	-9.30126
▁emelked	-9.30152
▁Gazdaság	-9.3016
▁2010-	-9.3017
▁Még	-9.30247
▁vonatkozó	-9.3028
7-	-9.30467
ódott	-9.30499
dó	-9.30588
▁1-	-9.30593
okról	-9.30673
biztos	-9.30795
▁közötti	-9.30894
növel	-9.30906
▁du	-9.30966
▁Zs	-9.3104
▁rendkívül	-9.31131
▁derül	-9.31288
vásár	-9.31312
▁tevékenység	-9.31367
▁ülés	-9.31375
▁Ju	-9.31415
▁dönt	-9.31458
szem	-9.31471
▁játszott	-9.31487
▁többször	-9.3149
▁csinál	-9.31501
▁országos	-9.31733
csa	-9.31734
▁Or	-9.31875
▁Ja	-9.319
▁tudott	-9.31903
▁szombat	-9.31979
▁Car	-9.32182
▁szombaton	-9.32218
séggel	-9.32269
▁kelet	-9.32294
▁osztály	-9.32327
▁Ezek	-9.32435
neve	-9.32493
▁állít	-9.32524
▁előzetes	-9.3259
15	-9.32602
▁érkezett	-9.32648
olva	-9.3266
▁olvasható	-9.32742
▁tartalmaz	-9.3284
zon	-9.32857
űr	-9.32884
▁született	-9.3298
gép	-9.33018
▁részvény	-9.33111
jú	-9.33155
▁2009-	-9.33193
▁valószínűleg	-9.33231
ásának	-9.33308
▁mögött	-9.33329
du	-9.33614
▁érkez	-9.33756
▁vendég	-9.33766
▁ők	-9.3399
W	-9.34028
▁Zsolt	-9.3412
▁telefon	-9.342
▁feltétel	-9.34309
ford	-9.3432
álni	-9.34433
lu	-9.34433
19	-9.34443
▁mellé	-9.34503
dr	-9.34655
gg	-9.34664
▁őr	-9.3468
abban	-9.34691
ákat	-9.34747
▁2008-	-9.34753
szav	-9.34851
▁vád	-9.34872
▁idéz	-9.34952
▁mondja	-9.35005
▁lakó	-9.35092
pol	-9.3512
▁fordít	-9.35147
▁választási	-9.35147
▁valóban	-9.35204
▁azonnal	-9.35215
▁árfolyam	-9.35223
árd	-9.35224
▁húsz	-9.35253
▁végez	-9.35271
▁távol	-9.35276
▁Bor	-9.35285
▁szeptember	-9.3533
ológiai	-9.35353
▁Ő	-9.35367
▁Mind	-9.35394
jen	-9.35425
▁ál	-9.35442
áig	-9.35464
edik	-9.35537
▁pontos	-9.35651
assa	-9.35662
▁cégek	-9.35838
zék	-9.35854
▁sokat	-9.35855
köd	-9.35891
▁Attila	-9.35964
▁megbíz	-9.36093
társ	-9.36165
▁ingatlan	-9.3622
lasz	-9.36246
▁meghatároz	-9.36247
▁Országos	-9.36346
▁század	-9.36416
▁jön	-9.36451
▁napon	-9.36485
▁pályázat	-9.36492
▁díj	-9.36539
▁ajánl	-9.36547
▁esett	-9.36547
ajtó	-9.36683
up	-9.36704
▁31	-9.36742
szín	-9.36743
▁alkot	-9.36784
▁elé	-9.37052
▁forgalom	-9.37076
▁bevétel	-9.37102
▁jelentés	-9.37119
gazdaság	-9.37212
▁egyéni	-9.37362
▁segítség	-9.37448
▁Lo	-9.37551
▁tudom	-9.37552
kész	-9.37791
burg	-9.37856
▁felett	-9.37867
▁dokumentum	-9.3789
▁2008	-9.37894
odott	-9.3792
▁válasz	-9.37924
▁véd	-9.37967
uc	-9.38073
pénz	-9.38075
gyel	-9.38172
und	-9.38238
helyettes	-9.38245
▁ráadásul	-9.38279
ítja	-9.38293
▁többség	-9.38329
ségek	-9.38331
▁előny	-9.38345
▁vállalkozás	-9.38378
ván	-9.38528
J	-9.38559
▁beszélt	-9.3858
▁csúcs	-9.38742
▁hatóságok	-9.38812
ítása	-9.38814
▁Csak	-9.38826
▁hatalmas	-9.38841
kapcsol	-9.38855
főkapitányság	-9.38884
▁munkatársa	-9.3897
mos	-9.39022
▁tartja	-9.3903
jének	-9.39195
▁kiadás	-9.39216
▁eddigi	-9.39344
ozni	-9.39396
film	-9.39407
▁nyit	-9.39474
osztály	-9.39645
▁tudni	-9.39664
▁kezel	-9.39703
▁női	-9.39761
▁akció	-9.3989
ozza	-9.39928
▁fenn	-9.40001
▁tagjai	-9.40159
▁szerzett	-9.40167
tív	-9.4021
▁felelős	-9.40301
▁igazol	-9.40348
▁4-	-9.40451
▁kiderült	-9.40586
▁készített	-9.40596
▁Kar	-9.40603
lég	-9.40655
szik	-9.40676
▁pénzt	-9.40688
tin	-9.40699
▁készít	-9.40731
fej	-9.40745
po	-9.4077
her	-9.40796
csapat	-9.40851
▁Ö	-9.40864
▁világbajnok	-9.40913
▁biztonság	-9.40957
▁szerv	-9.41027
▁beruházás	-9.4105
▁régi	-9.41101
▁arc	-9.41135
▁198	-9.41191
▁fegyver	-9.41209
ezni	-9.41281
▁szakmai	-9.41322
▁azóta	-9.41356
▁Ben	-9.41386
▁várhatóan	-9.41519
▁mai	-9.41589
írás	-9.41699
▁pr	-9.41709
dor	-9.41837
▁tűnik	-9.41856
▁parlamenti	-9.41861
vidék	-9.41911
▁azonos	-9.41956
jel	-9.41985
▁esetén	-9.42211
▁tévé	-9.42284
uta	-9.42334
▁arany	-9.42396
]	-9.42397
▁Miklós	-9.42397
▁mindössze	-9.42406
▁engedély	-9.42535
ein	-9.42541
▁ko	-9.42553
▁pillanat	-9.42668
pro	-9.42669
▁kicsit	-9.42705
▁folyamatosan	-9.42841
▁igazság	-9.42944
▁hall	-9.42982
olja	-9.43006
▁pálya	-9.43012
lad	-9.43017
▁Lajos	-9.43078
▁termel	-9.43134
▁tan	-9.43246
ozik	-9.43299
▁országban	-9.43316
▁tűz	-9.43354
▁elemző	-9.43386
evő	-9.43445
▁csökken	-9.43517
ou	-9.43568
▁férfit	-9.43659
▁költségvetési	-9.4373
▁BL	-9.43787
▁támadás	-9.43903
▁tenni	-9.43916
▁egyszerű	-9.43987
▁jogszabály	-9.44057
▁Most	-9.44112
▁megelőz	-9.44141
▁Vas	-9.44197
▁találkozó	-9.44317
▁együttes	-9.44354
terv	-9.44447
lépés	-9.44508
▁Hír	-9.44534
▁lényeg	-9.44558
▁Har	-9.44638
▁York	-9.4473
▁nyilatkozta	-9.44741
▁[	-9.44774
▁teszt	-9.44855
▁létre	-9.44874
▁halad	-9.44894
▁utaz	-9.44988
▁Van	-9.45004
▁elismer	-9.45008
▁gyakorlat	-9.45085
felé	-9.45104
▁költ	-9.45178
▁bo	-9.45268
ációs	-9.45401
jog	-9.45581
▁kamat	-9.45611
▁gyerekek	-9.45667
váltás	-9.457
▁29	-9.45701
▁bűncselekmény	-9.45705
▁Jó	-9.45766
▁föl	-9.45772
▁mostani	-9.45778
▁enged	-9.4578
▁nyújt	-9.45817
▁visszatér	-9.4583
▁megáll	-9.45959
▁Nap	-9.46005
▁országok	-9.46011
▁kórház	-9.4603
▁lég	-9.46033
▁évtized	-9.46126
szal	-9.46132
▁En	-9.46144
▁láb	-9.4618
hallgat	-9.46262
▁védelm	-9.46288
▁1.	-9.46337
▁3.	-9.46396
▁őt	-9.46407
intézet	-9.46497
▁For	-9.46654
▁energia	-9.46691
▁60	-9.46697
▁jelenti	-9.46732
▁Ri	-9.4678
▁módosít	-9.46988
▁végig	-9.47063
▁iskolá	-9.47144
ong	-9.47223
▁ég	-9.47253
▁kínál	-9.4726
ré	-9.47298
▁mentő	-9.47318
▁Budapesten	-9.4732
▁többek	-9.47338
▁román	-9.47352
▁tölt	-9.47547
▁forinttal	-9.47606
▁mérték	-9.47629
▁foglal	-9.47658
▁soha	-9.47831
elni	-9.47841
tatott	-9.47891
▁örök	-9.47987
X	-9.47988
▁annyira	-9.47989
▁átlagos	-9.48021
▁javít	-9.48127
fal	-9.48161
12	-9.48181
▁indított	-9.48272
▁Hogy	-9.48274
▁kevés	-9.48276
hívás	-9.48353
▁többet	-9.48397
▁érez	-9.48425
▁olvas	-9.48457
ánál	-9.4846
▁Hu	-9.4853
▁Úgy	-9.48549
▁mar	-9.48559
▁negyedév	-9.48589
▁felvétel	-9.48715
▁Pr	-9.48803
építés	-9.48866
▁Pál	-9.48877
▁végre	-9.48945
▁fut	-9.49012
▁akinek	-9.49057
▁keret	-9.49125
jén	-9.49129
▁edző	-9.49141
▁szakember	-9.49142
▁kezelés	-9.49232
fo	-9.49281
▁szállít	-9.49293
▁módszer	-9.49312
▁elem	-9.49329
asztal	-9.49556
▁internet	-9.49582
▁bizonyos	-9.49652
▁tudós	-9.49687
ros	-9.49827
▁veszély	-9.49844
▁érvényes	-9.49855
▁teljesít	-9.49996
▁rep	-9.50064
▁fenntart	-9.50092
▁kormányfő	-9.50209
▁vonat	-9.50212
▁Mag	-9.50283
ozta	-9.5035
gar	-9.50472
▁ígér	-9.50535
▁projekt	-9.50588
▁Do	-9.50642
▁figyelmet	-9.50691
igaz	-9.50729
90	-9.50732
▁negyedik	-9.50757
▁hisz	-9.50822
▁szavaz	-9.50953
▁szét	-9.50978
▁lehetne	-9.51013
odik	-9.51065
▁Par	-9.51083
jegyzés	-9.51141
▁mindkét	-9.51183
▁előbb	-9.51212
▁belső	-9.51251
író	-9.51274
▁alkalmaz	-9.513
▁számol	-9.51322
könyv	-9.51362
▁található	-9.51389
▁dr	-9.51487
ább	-9.51542
szerzés	-9.51554
▁Egyetem	-9.51627
étől	-9.51749
▁lenni	-9.51851
▁köszön	-9.51987
▁kötelező	-9.52011
Z	-9.5204
▁35	-9.52063
▁vagyunk	-9.52078
▁emberi	-9.5225
fer	-9.52304
▁állampolgár	-9.52369
▁Unió	-9.52382
▁pályá	-9.52382
terme	-9.52478
▁esély	-9.52495
com	-9.52579
▁fehér	-9.52742
▁2011-	-9.52751
pel	-9.52775
▁Nemzet	-9.52777
▁részét	-9.52819
mas	-9.52864
▁alakít	-9.52884
▁kora	-9.52906
▁ku	-9.52914
▁munkahely	-9.53074
▁különösen	-9.53089
▁biztonsági	-9.53139
▁ex	-9.53153
▁por	-9.53258
▁kiemelt	-9.53297
▁rak	-9.53303
vill	-9.53338
▁indokol	-9.53424
▁felmérés	-9.53432
▁kocsi	-9.53448
▁időben	-9.53521
idő	-9.5357
▁kényszer	-9.5358
▁The	-9.53594
emelés	-9.53603
▁esz	-9.53608
▁tényleg	-9.53705
ították	-9.53747
▁testület	-9.53751
vásárlás	-9.53782
▁sokan	-9.53801
szolgáltató	-9.53814
▁zavar	-9.53865
▁adatai	-9.53928
▁szakértő	-9.54032
áját	-9.54033
▁zene	-9.54056
40	-9.54103
▁ügyben	-9.54142
sta	-9.54192
országi	-9.54246
▁kutató	-9.54253
képpen	-9.54312
játék	-9.54359
▁népszerű	-9.5437
uz	-9.54453
▁Online	-9.54489
▁szlovák	-9.54642
mentes	-9.54652
▁busz	-9.54679
▁történelmi	-9.54681
▁száll	-9.54704
nyugdíjpénztár	-9.54796
▁utca	-9.54799
kozott	-9.54846
▁gyanú	-9.54847
▁felelősség	-9.54987
▁hosszabb	-9.54997
ria	-9.5509
▁legutóbb	-9.55126
enként	-9.55229
tábor	-9.55268
▁Du	-9.55307
▁egyáltalán	-9.55411
▁kr	-9.5542
sch	-9.55449
▁rég	-9.55462
▁változat	-9.55547
▁Dr	-9.55615
▁2-	-9.55619
▁mell	-9.55627
▁Gyurcsány	-9.55721
▁kísérlet	-9.55764
▁tervezett	-9.55853
szeg	-9.55875
▁sérült	-9.55876
▁dolog	-9.55876
terem	-9.55988
igazgató	-9.56005
▁pl	-9.56012
▁fenyeget	-9.56187
már	-9.56335
▁polgár	-9.5634
állomás	-9.56362
fő	-9.5638
▁Em	-9.56413
▁államtitkár	-9.56516
▁vásárol	-9.5653
▁fővárosi	-9.56543
▁Dél	-9.5657
▁értékel	-9.56647
▁bizony	-9.56651
▁hideg	-9.56656
▁díja	-9.56666
▁meleg	-9.56734
▁terv	-9.56826
▁rendezvény	-9.56833
hatóság	-9.5684
▁tenger	-9.56842
▁érdemes	-9.56868
▁to	-9.56887
▁írás	-9.56897
vári	-9.57272
▁legfontosabb	-9.57282
▁hangsúlyozta	-9.57378
▁minőség	-9.57441
más	-9.5752
▁szándék	-9.57597
▁általános	-9.57607
▁2010	-9.57613
Sz	-9.57682
▁Tr	-9.57728
hetik	-9.57729
▁futball	-9.57744
▁interjú	-9.57755
▁újságíró	-9.57761
▁nemzet	-9.57796
fél	-9.57876
▁jóval	-9.57883
▁szocialista	-9.57913
▁célja	-9.58028
▁egyedül	-9.58078
▁Kr	-9.58082
mag	-9.58183
▁sors	-9.58218
▁erről	-9.58253
▁eredeti	-9.58256
▁néző	-9.58335
▁általában	-9.5835
▁befolyás	-9.5839
tatta	-9.58391
▁természetesen	-9.58427
▁pontosan	-9.58493
▁épp	-9.58537
hatják	-9.58569
vin	-9.58602
▁Szövetség	-9.58708
▁ellenőrzés	-9.58708
áért	-9.58749
▁ekkor	-9.58943
▁tény	-9.59031
▁jövőre	-9.59038
míg	-9.59055
▁kés	-9.59121
▁írt	-9.59251
▁évre	-9.5936
▁tavalyi	-9.59375
▁magasabb	-9.59467
▁maguk	-9.59501
▁svájci	-9.5951
▁kialakul	-9.59517
▁ős	-9.59685
ítják	-9.59718
vér	-9.59756
ence	-9.59793
andó	-9.59815
▁Bizottság	-9.59832
▁olvasó	-9.5984
rúg	-9.59872
din	-9.59922
▁tárgyal	-9.59991
▁király	-9.59995
gál	-9.6001
ékony	-9.60026
magyar	-9.60032
▁jármű	-9.60034
▁betegség	-9.60052
▁Fr	-9.60097
tani	-9.60102
▁part	-9.60294
▁nyilatkozat	-9.6033
▁össz	-9.60346
É	-9.60361
▁eső	-9.6045
▁Szent	-9.60477
hálózat	-9.60481
▁rendelkezés	-9.60513
jelentkez	-9.60602
▁kutatók	-9.6062
gyártó	-9.60646
▁szavazó	-9.6066
szolgálat	-9.60688
fogalmaz	-9.60694
▁csap	-9.60728
▁Bank	-9.60767
▁ítélet	-9.60966
szob	-9.60983
▁Ver	-9.61025
▁kötött	-9.61038
▁Ste	-9.61061
▁egyéb	-9.61064
fokú	-9.61082
ülő	-9.61095
▁róla	-9.61098
▁tudják	-9.61106
szter	-9.61108
rd	-9.61123
ékeny	-9.61182
%	-9.61459
▁csatlakoz	-9.61459
▁fideszes	-9.61459
▁Ker	-9.61482
▁csomag	-9.61529
▁jövőben	-9.61533
▁Németország	-9.61624
▁változtat	-9.61628
▁fizetés	-9.61637
pár	-9.61701
▁lesznek	-9.61708
▁fiú	-9.61868
választás	-9.61899
▁Kovács	-9.61953
▁Leg	-9.61964
▁Szerinte	-9.61967
pal	-9.61987
▁tárgy	-9.62009
wa	-9.6201
▁üzem	-9.62026
▁használat	-9.62048
▁helyre	-9.62106
▁május	-9.62118
lel	-9.62133
▁bíz	-9.62152
▁ennyi	-9.62166
▁hozott	-9.6224
éért	-9.6228
▁igazgatója	-9.62338
berg	-9.62525
▁találtak	-9.62611
▁felügyel	-9.62638
▁egészen	-9.62694
▁fal	-9.62804
képzés	-9.62817
hib	-9.62947
▁tűzoltó	-9.62949
▁Szabó	-9.62951
▁miközbe	-9.62983
▁szokás	-9.63197
▁szabadság	-9.6323
▁kom	-9.63244
▁igazán	-9.63278
ésének	-9.633
gő	-9.63366
▁szöveg	-9.63448
Á	-9.63531
▁vita	-9.63546
▁visel	-9.63576
▁Bal	-9.63619
▁fogja	-9.63787
▁válaszol	-9.63871
verseny	-9.63878
zött	-9.63883
▁nyerte	-9.63941
▁komp	-9.63987
nának	-9.64039
▁megállapodás	-9.64122
▁oktatás	-9.64289
▁Géza	-9.64291
▁katona	-9.64295
▁poszt	-9.64432
▁társadalmi	-9.64449
▁úgynevezett	-9.64457
▁friss	-9.64459
▁olaj	-9.6448
lam	-9.64597
▁internetes	-9.64604
▁Tanács	-9.64627
tartó	-9.64628
zák	-9.64682
▁gyanúsított	-9.64758
puszt	-9.64793
▁mennyiség	-9.64794
▁témá	-9.64796
▁vág	-9.64846
▁említett	-9.64896
▁annyi	-9.64969
▁tapasztalat	-9.64977
▁nekik	-9.64986
▁zöld	-9.65136
▁oszt	-9.65465
bel	-9.65687
ságát	-9.65801
niuk	-9.6583
▁különbség	-9.65837
▁egészségügyi	-9.65845
Az	-9.65846
▁fest	-9.65911
▁napokban	-9.65968
25	-9.66151
▁társadalom	-9.66162
▁segítségével	-9.66209
▁beszéd	-9.66253
▁sikeres	-9.66282
▁iskola	-9.66291
▁szerencs	-9.66318
▁rajta	-9.66383
▁nappal	-9.66388
rendezés	-9.664
▁gyűjt	-9.66495
▁kapu	-9.66511
▁Kö	-9.66565
▁Más	-9.66592
▁hozta	-9.66633
▁oka	-9.6665
▁indít	-9.66794
▁eszköz	-9.66847
▁lengyel	-9.66854
▁diák	-9.6688
▁valószínű	-9.67003
▁2006-	-9.6702
▁ehhez	-9.67026
▁hit	-9.67027
▁Mol	-9.67053
▁független	-9.67123
▁magyarországi	-9.67136
▁Hol	-9.67136
▁LMP	-9.672
▁ebből	-9.672
hetett	-9.67306
▁személyes	-9.67491
▁védő	-9.67535
▁délelőtt	-9.67562
hatott	-9.67668
▁férfiak	-9.67674
▁piaci	-9.67693
▁kérte	-9.67737
▁Ol	-9.6775
▁tudnak	-9.67768
tikai	-9.67785
▁Ezzel	-9.67811
▁képvisel	-9.6788
▁hangulat	-9.67898
cseré	-9.67957
▁megtalál	-9.68103
▁ismeretlen	-9.6812
▁Központ	-9.68125
▁bizonyít	-9.68127
örök	-9.68155
határ	-9.6825
origo	-9.68252
▁ölt	-9.6829
▁érdekes	-9.68322
szervezet	-9.68386
száll	-9.68517
▁szerez	-9.68527
▁80	-9.68539
▁igazi	-9.68596
ítva	-9.68671
▁részben	-9.68676
▁együttműködés	-9.68697
sson	-9.68725
▁viz	-9.68739
▁kétszer	-9.68751
▁író	-9.68764
▁korlát	-9.68787
▁adósság	-9.68814
▁hatóság	-9.68825
▁Gu	-9.68844
▁Kor	-9.68851
▁hirdet	-9.68863
isták	-9.68864
▁2011	-9.68885
első	-9.68889
▁közölt	-9.68892
▁mu	-9.6894
ebben	-9.68968
nagy	-9.69046
vizsgá	-9.69079
rom	-9.69147
mennyiben	-9.6915
esse	-9.69241
▁kezdte	-9.69277
▁őrizetbe	-9.69307
▁színész	-9.6937
▁minisztérium	-9.69484
▁Sp	-9.69519
▁attól	-9.69545
nák	-9.69613
▁labdarúgó	-9.69662
getés	-9.69663
▁téli	-9.69767
▁köszönhetően	-9.69841
sértés	-9.69889
▁nyomozás	-9.69903
▁távoz	-9.69926
▁szék	-9.69972
▁bajnokság	-9.69989
milliárd	-9.7003
▁idegen	-9.70057
▁remény	-9.70181
lé	-9.70254
▁32	-9.70281
▁jelentősen	-9.70287
járó	-9.70315
▁versenyző	-9.70334
▁KA	-9.70445
▁keretében	-9.70467
▁járó	-9.70491
▁Her	-9.70548
védelem	-9.70667
▁500	-9.70683
▁elnökség	-9.70714
kedő	-9.70743
▁havi	-9.70801
ox	-9.71015
18	-9.71138
oga	-9.71276
▁osztrák	-9.71278
▁háború	-9.71337
▁életét	-9.71404
▁civil	-9.71459
▁véli	-9.7154
büntet	-9.71635
▁portál	-9.71657
pad	-9.71802
▁leginkább	-9.71822
atív	-9.71873
▁Y	-9.71911
▁épül	-9.71952
▁másod	-9.71998
▁stabil	-9.72005
▁profi	-9.72006
▁édes	-9.72017
jött	-9.72039
előtt	-9.72178
list	-9.7218
▁ipar	-9.72283
▁értelme	-9.72291
▁fogyasztó	-9.7234
▁köztük	-9.72385
▁alkalommal	-9.72558
▁közleked	-9.72568
▁reform	-9.7262
▁érint	-9.72847
▁tüntet	-9.72935
▁megfelelően	-9.72955
sorozat	-9.72974
▁mintha	-9.72987
▁csaknem	-9.72999
▁hasonlóan	-9.73042
▁szolgálat	-9.73084
▁Föld	-9.73109
▁lezár	-9.73124
fogás	-9.73176
▁videó	-9.73293
▁körülmények	-9.73295
leges	-9.73304
tartalm	-9.73344
▁szavazat	-9.7357
futó	-9.73649
▁Mal	-9.73789
▁börtön	-9.73844
▁országgyűlési	-9.73845
▁Amikor	-9.7385
▁széles	-9.7387
októl	-9.73995
▁vereség	-9.74002
▁reagál	-9.74032
ődött	-9.74039
▁tervek	-9.74135
▁papír	-9.7418
▁sziget	-9.7425
mint	-9.74255
▁70	-9.74308
▁esélye	-9.74352
gyilkos	-9.74361
▁úton	-9.74364
▁szerda	-9.74376
▁liter	-9.74415
tudomány	-9.74533
▁londoni	-9.7459
▁sincs	-9.74593
▁alkalmazott	-9.74596
▁akad	-9.74602
▁ezeket	-9.74606
▁mód	-9.74654
▁ősz	-9.74722
szerkezet	-9.74781
▁kezdő	-9.74808
▁nyug	-9.74837
▁vezette	-9.74843
zük	-9.74884
bajnokság	-9.74885
nov	-9.74902
▁megpróbál	-9.74966
▁hátrány	-9.74995
▁kiállítás	-9.74998
▁bejelentés	-9.75096
höz	-9.75158
▁vezérigazgató	-9.75159
▁Vagy	-9.75165
▁Su	-9.75227
▁forintra	-9.75282
▁mikor	-9.75337
jében	-9.75337
▁Hozzátette	-9.75345
▁Csaba	-9.75347
▁bar	-9.75488
▁bír	-9.7551
▁felső	-9.75513
▁egyház	-9.75522
▁Antikvárium	-9.7553
▁működő	-9.7553
▁felnőtt	-9.75531
▁Tibor	-9.75565
▁forgalma	-9.75572
▁mértékben	-9.75598
▁kemény	-9.75598
▁harmad	-9.75673
▁ajánlat	-9.75678
▁elkezd	-9.75703
▁javasol	-9.75719
▁százalékát	-9.75726
▁197	-9.75729
▁győztes	-9.75834
▁bajnok	-9.75904
▁Hivatal	-9.75908
▁működik	-9.75908
▁kapcsán	-9.7591
hor	-9.7593
▁munkát	-9.76079
▁tiltakoz	-9.76098
▁előadás	-9.76099
pu	-9.76132
tiszt	-9.76263
▁partner	-9.76306
▁Győr	-9.76356
▁szabályozás	-9.76371
▁kapta	-9.76421
▁45	-9.76425
Q	-9.76479
▁terjed	-9.76486
▁gyógyszer	-9.76526
lkotmánybíróság	-9.7667
▁javul	-9.7667
▁vasút	-9.7667
▁Igaz	-9.76671
▁lőtt	-9.76692
▁emelkedett	-9.76695
jenek	-9.76757
biztonság	-9.7678
társaság	-9.76792
ick	-9.76832
▁jellemző	-9.76861
▁győz	-9.76882
▁férj	-9.76953
▁tapasztal	-9.77039
▁gyakran	-9.77052
▁ütköz	-9.77053
ológus	-9.77237
szabad	-9.77263
▁kezdeményez	-9.7735
terület	-9.77368
▁asszony	-9.77432
▁tájékoztat	-9.77482
▁kedvező	-9.77512
TE	-9.7762
▁erősít	-9.77624
▁közönség	-9.77638
járat	-9.77688
▁15-	-9.77741
▁Elő	-9.77763
▁kísér	-9.77819
▁lehetővé	-9.77824
énnyel	-9.77826
kormány	-9.77919
▁számolt	-9.7797
▁elmond	-9.78112
sztó	-9.78228
való	-9.78238
▁alkalm	-9.78327
ipari	-9.78343
▁iránt	-9.78404
▁győzelem	-9.78422
▁kedd	-9.7845
▁Duna	-9.78499
▁gyorsan	-9.78509
▁Oroszország	-9.78598
▁remek	-9.78609
eink	-9.78626
tatni	-9.78629
▁Ü	-9.78677
▁blog	-9.78758
▁Országgyűlés	-9.78793
▁kötet	-9.78835
▁had	-9.78939
ásáról	-9.78944
▁görög	-9.78989
▁ellát	-9.7912
▁jég	-9.79225
▁tartani	-9.79243
▁tanú	-9.79315
▁fizetni	-9.79375
▁Balázs	-9.79381
▁napja	-9.79386
▁ideje	-9.79476
ster	-9.79496
▁San	-9.79519
▁szociális	-9.79592
vo	-9.79646
▁bajnoki	-9.79696
▁300	-9.79736
jából	-9.79751
▁Ugyan	-9.79775
párt	-9.79871
▁június	-9.79971
▁múlva	-9.79971
▁benzin	-9.79973
▁kö	-9.79976
▁Ed	-9.7999
ley	-9.79995
▁negyed	-9.80044
▁rendező	-9.80045
▁panasz	-9.80169
▁védekez	-9.80228
▁állítólag	-9.80367
▁ügyvéd	-9.80368
éséhez	-9.80411
▁szinten	-9.80414
▁Cl	-9.80452
▁Károly	-9.80565
▁megnyer	-9.80603
▁tartják	-9.80686
▁tudjuk	-9.80719
▁íz	-9.80727
▁körülbelül	-9.80764
▁nyilvánosságra	-9.80764
▁dolgok	-9.80764
▁biztosan	-9.80813
▁kulturális	-9.80963
▁határozat	-9.80975
▁szab	-9.80977
▁légi	-9.81023
oper	-9.81093
▁alacsony	-9.81334
junk	-9.81352
▁Címké	-9.81363
▁televízió	-9.81363
▁emlékeztet	-9.81365
▁régió	-9.8155
▁figyelmeztet	-9.81565
▁ötlet	-9.81584
irodalom	-9.81781
▁hatékony	-9.81803
▁Ger	-9.8183
▁űr	-9.81957
▁Nemzetközi	-9.81965
zal	-9.81973
▁Imre	-9.81974
▁lehetőséget	-9.82066
▁támad	-9.82115
▁tartozó	-9.82119
▁megyében	-9.82146
▁időjárás	-9.82169
orvos	-9.8217
▁esti	-9.82216
▁helyet	-9.82345
▁kategóriá	-9.82369
bil	-9.8244
▁kórházba	-9.82507
telep	-9.82552
▁függ	-9.82555
▁tehet	-9.82589
▁szakemberek	-9.82604
▁fekete	-9.82617
▁erőszak	-9.82648
▁körében	-9.82686
▁főleg	-9.82687
kodás	-9.82755
▁svéd	-9.82777
▁végrehajt	-9.82783
▁töltött	-9.82835
▁annyit	-9.82883
ológia	-9.82941
▁futam	-9.83056
▁Inter	-9.83125
katasztrófa	-9.83181
▁nevezte	-9.83207
▁fedez	-9.8323
▁okozott	-9.83357
▁hány	-9.83386
három	-9.83413
▁szenvedett	-9.83521
eivel	-9.83568
▁hagyományos	-9.83588
▁kizárólag	-9.83589
▁résztvevő	-9.83589
történet	-9.83604
képesség	-9.83617
▁venni	-9.83636
▁ennél	-9.83655
▁kölcsön	-9.83794
▁Bíróság	-9.83794
▁gondolkod	-9.8381
▁pályán	-9.83976
lövés	-9.84108
▁195	-9.84177
▁nemrég	-9.84211
▁lop	-9.84236
▁könnyű	-9.84306
aival	-9.84361
▁olimpiai	-9.84385
▁pozíció	-9.84412
hullám	-9.84496
▁érdeklőd	-9.84508
ellenes	-9.84608
▁számlá	-9.84765
▁Év	-9.84807
▁probléma	-9.84825
▁levegő	-9.84825
▁esetleg	-9.85032
▁részén	-9.85044
▁90	-9.85122
11	-9.85144
▁tőle	-9.85157
▁ajándék	-9.85241
▁Ér	-9.85309
▁gyógy	-9.85356
állították	-9.85408
▁Fővárosi	-9.85449
▁sztrájk	-9.85449
szerkesztő	-9.85449
▁John	-9.85451
főnök	-9.85491
▁akarta	-9.85621
▁harminc	-9.85658
▁forgat	-9.85689
▁tol	-9.85743
mód	-9.85782
▁titkos	-9.85867
▁tartózkod	-9.85869
▁állította	-9.8587
▁Szeged	-9.86078
▁rádió	-9.86084
▁levele	-9.86215
▁kultúr	-9.86287
dzs	-9.86496
▁augusztus	-9.86497
▁elkövetett	-9.86497
▁Pécs	-9.86502
▁büntetés	-9.86566
▁ügyészség	-9.8671
üveg	-9.86714
▁keddi	-9.86753
▁érdem	-9.86851
▁33	-9.86901
▁centiméter	-9.86919
▁index	-9.86921
▁szerdai	-9.86936
▁juttat	-9.86937
▁2007-	-9.86938
szolgáltatás	-9.86983
▁lemond	-9.86999
▁áram	-9.87058
▁kormányzati	-9.87136
▁mester	-9.87195
program	-9.87198
▁módosítás	-9.87224
cu	-9.87248
kov	-9.87329
labda	-9.87345
▁Észak	-9.87394
törvény	-9.87451
csap	-9.87477
▁szellem	-9.87558
▁belőle	-9.87562
▁nyújtott	-9.876
▁teher	-9.87614
▁hajó	-9.87621
▁honlap	-9.87658
▁járat	-9.8774
▁GDP	-9.8777
▁tavasz	-9.8777
▁magam	-9.87776
▁ezúttal	-9.87984
▁Persze	-9.87985
▁születés	-9.88023
▁alkalmas	-9.88025
▁okozta	-9.88036
▁tartozik	-9.8804
járól	-9.88045
▁hallgat	-9.88147
▁lépett	-9.88176
▁vb	-9.88197
robbant	-9.88204
▁továbbá	-9.88245
200	-9.88329
dob	-9.88373
▁előfordul	-9.88413
▁büntető	-9.88418
▁másfél	-9.8843
▁pénztár	-9.88447
rém	-9.8857
▁36	-9.88634
▁támadó	-9.88753
▁lehetséges	-9.88848
▁kérdez	-9.88851
▁fogyasztás	-9.88902
▁egyszerűen	-9.88988
▁területén	-9.88998
▁révén	-9.89059
▁külső	-9.89063
▁nyílt	-9.89087
▁közösségi	-9.89116
▁Ter	-9.89184
ung	-9.89216
minősít	-9.89218
▁vezetett	-9.89224
▁Real	-9.89253
▁ellenzéki	-9.89255
▁melyek	-9.89277
cél	-9.89286
▁pártok	-9.893
teljes	-9.89418
▁közelében	-9.89451
Í	-9.89491
&	-9.89492
▁pozitív	-9.89492
▁szenved	-9.89631
▁vették	-9.89705
▁komment	-9.8974
európai	-9.89816
▁kevésbé	-9.89879
▁rajt	-9.89893
▁iroda	-9.8992
▁illetékes	-9.89927
▁boldog	-9.89927
▁másodperc	-9.89927
▁Tóth	-9.8993
▁vádlott	-9.89936
▁látszik	-9.89996
ller	-9.9006
▁Debrecen	-9.90146
sággal	-9.90147
▁többsége	-9.90181
hatunk	-9.90302
szab	-9.90356
▁Népszabadság	-9.90364
▁bíró	-9.90411
képp	-9.90543
▁Man	-9.90688
▁Ezért	-9.90724
táv	-9.90725
fajta	-9.90725
▁teremt	-9.9073
zza	-9.90761
▁196	-9.90767
▁szakértők	-9.90803
▁konkrét	-9.90804
▁japán	-9.90804
▁nyilatkoz	-9.90805
▁némi	-9.90809
▁eszközök	-9.90866
ovics	-9.90959
típus	-9.91022
▁évig	-9.91034
▁különleges	-9.91039
▁rab	-9.91072
▁felhasznál	-9.91213
▁elérhető	-9.91246
észeti	-9.91282
13	-9.91328
▁percben	-9.9134
▁telep	-9.91358
▁sokszor	-9.9142
17	-9.91442
▁szerepet	-9.9145
▁infláció	-9.91466
▁ingyen	-9.91468
45	-9.91479
▁Tovább	-9.91688
▁várakozás	-9.91688
törés	-9.91814
60	-9.91873
KDNP	-9.9191
▁rengeteg	-9.9191
▁regény	-9.9191
▁elemzés	-9.91973
▁vezér	-9.92011
kezelő	-9.9203
kutatás	-9.92053
szív	-9.92068
▁kapus	-9.92099
▁elmarad	-9.92118
▁július	-9.92132
hessen	-9.92177
▁százalékot	-9.92318
▁hajlandó	-9.92356
▁csillag	-9.92361
▁rendelkező	-9.92524
▁szent	-9.92542
bér	-9.92559
▁valóság	-9.92579
▁művészet	-9.92595
▁szűk	-9.92604
▁Anna	-9.92622
▁fiatalok	-9.92752
jába	-9.92767
▁megfigyel	-9.92804
őrök	-9.92807
▁örül	-9.92832
feljebb	-9.92839
▁befektetés	-9.93028
▁intézkedés	-9.93134
▁kiderül	-9.93137
futás	-9.93153
▁látta	-9.93166
beszél	-9.93181
bány	-9.93202
▁példa	-9.93254
▁napilap	-9.93257
éria	-9.93417
▁of	-9.93425
▁szánt	-9.93463
▁szomszéd	-9.93479
szerző	-9.93481
▁kapcsolód	-9.93487
▁évente	-9.93491
▁felkészül	-9.93492
▁Én	-9.93501
▁mozgás	-9.93589
▁közösség	-9.93722
▁ered	-9.93894
▁éjszaka	-9.93932
▁öröm	-9.93934
▁levél	-9.9394
▁mutató	-9.9395
▁amelyeket	-9.94034
▁egyaránt	-9.9416
▁kiváló	-9.94162
▁hivatkozva	-9.9422
▁gyanús	-9.94364
▁építés	-9.94375
▁történő	-9.94387
▁Ru	-9.94407
▁mutatja	-9.94419
ová	-9.9442
▁nyitott	-9.94475
▁oldalon	-9.94486
▁hozzátette	-9.94494
▁nyomoz	-9.94498
▁felhasználó	-9.9451
▁pontot	-9.94596
▁állandó	-9.94679
▁34	-9.94776
bevétel	-9.94782
követ	-9.948
▁Horváth	-9.94844
▁reklám	-9.94844
vezetés	-9.94889
vadász	-9.94896
vizsgálat	-9.95068
▁munkavállaló	-9.95074
▁étel	-9.95088
jék	-9.95095
▁bőr	-9.95104
bizottság	-9.95266
▁rögzít	-9.95304
▁Varga	-9.95304
▁kötelezettség	-9.95305
▁gazdag	-9.95306
▁terror	-9.95307
▁helyszínen	-9.95367
védő	-9.95397
▁honlapján	-9.95425
▁Nagyon	-9.95436
▁szóvivő	-9.95446
▁óriási	-9.9546
▁élelmiszer	-9.95534
14	-9.95551
▁nekem	-9.95628
jével	-9.95648
▁egyértelmű	-9.95727
politikai	-9.95752
▁tökéletes	-9.95765
▁műszaki	-9.95767
▁ural	-9.9589
Európában	-9.95956
▁meglepetés	-9.95997
▁rejt	-9.96033
▁híres	-9.9617
▁Google	-9.96229
▁munkájá	-9.96231
▁Ilyen	-9.96231
sziget	-9.96317
16	-9.9632
encia	-9.96447
80	-9.9651
▁Nép	-9.96527
▁nagyjából	-9.96559
▁Bel	-9.9656
közel	-9.96631
▁döntetlen	-9.96726
▁sikerül	-9.96919
▁kereskedelmi	-9.96969
27	-9.97073
95	-9.97151
▁közleményében	-9.97341
▁legyőz	-9.97397
▁kapitány	-9.97421
▁meglepő	-9.97429
▁Tor	-9.97546
▁szórakoz	-9.97636
▁kaptak	-9.97758
▁cseh	-9.97895
▁veszteség	-9.9791
▁fejlődés	-9.98014
▁vállalkozó	-9.9805
▁Franciaország	-9.98104
▁figyelm	-9.98152
▁állítja	-9.98231
▁időszakban	-9.98233
▁Kom	-9.98292
▁folytatód	-9.98314
▁Ugyanakkor	-9.98341
▁tartomány	-9.98342
választott	-9.98342
▁jegybank	-9.98365
hajtás	-9.98373
▁adni	-9.98374
por	-9.98506
▁tűnt	-9.98579
állomány	-9.98595
▁intézkedések	-9.98716
▁Itt	-9.98719
que	-9.98745
▁elkerül	-9.98767
▁gyakor	-9.98785
▁következtében	-9.9882
mor	-9.98964
▁érkező	-9.98968
▁szakszervezet	-9.99091
▁mindez	-9.9911
▁akarja	-9.99154
▁kétharmad	-9.99295
titkár	-9.9933
▁Madrid	-9.99535
▁letartóztatás	-9.99535
orosz	-9.99556
▁plusz	-9.99579
kupa	-9.99665
ánnyal	-9.99697
gyal	-9.9971
állítani	-9.99786
▁hord	-9.99821
▁fokozat	-9.99857
▁hatalom	-9.9986
▁pályára	-9.9987
▁bármi	-9.99887
▁bevezetés	-9.99988
▁Szabolcs	-10.0002
▁37	-10.0006
▁Pest	-10.0006
nyer	-10.0009
ston	-10.0011
▁kelt	-10.0013
▁magukat	-10.0014
▁meghalt	-10.002
▁II	-10.0025
▁mobil	-10.0027
▁államfő	-10.003
▁mondani	-10.0044
▁valamennyi	-10.005
▁gyengül	-10.005
külön	-10.0054
vonás	-10.0054
cal	-10.0069
▁Per	-10.0071
▁stílus	-10.0074
22	-10.0083
▁apró	-10.0089
▁ellátás	-10.0103
tanács	-10.0106
osztás	-10.0112
▁ötven	-10.0113
eiket	-10.0113
▁ügyében	-10.012
csökkentés	-10.0121
▁Minisztérium	-10.0123
▁dolgozott	-10.0126
▁egyértelműen	-10.0127
▁vehet	-10.0128
▁szerb	-10.0138
▁véletlen	-10.0147
▁hús	-10.0165
▁megkap	-10.0171
▁birtok	-10.0172
lip	-10.018
bocs	-10.018
▁Akkor	-10.0184
▁lassan	-10.0197
▁remél	-10.0197
▁hiába	-10.0204
▁árul	-10.0204
szállító	-10.0204
▁Jan	-10.0216
▁hőmérséklet	-10.0221
oztak	-10.0226
▁problémák	-10.0231
▁kivétel	-10.0239
▁majdnem	-10.0242
▁Michael	-10.0246
▁tudományos	-10.0247
▁Román	-10.0247
csatorn	-10.0251
▁Ön	-10.0265
kötő	-10.0272
▁194	-10.028
koreai	-10.0281
▁Forma	-10.0282
▁számában	-10.0289
▁sújt	-10.0297
▁indítvány	-10.0298
▁szempontból	-10.03
▁csodá	-10.0316
▁Antal	-10.0325
▁húz	-10.0327
▁vevő	-10.0329
▁újság	-10.0331
▁Obama	-10.0345
▁dísz	-10.0345
front	-10.0354
▁falu	-10.0355
▁fogadta	-10.0364
▁Ros	-10.0377
▁sztár	-10.0381
▁lista	-10.0387
▁emiatt	-10.0395
▁számítógép	-10.0395
▁ötödik	-10.0395
▁illető	-10.0407
▁tájékoztatása	-10.0409
▁létrehoz	-10.0422
▁könnyen	-10.0443
▁frank	-10.0446
▁tőke	-10.0446
▁befejez	-10.0447
évé	-10.0451
▁csökkenés	-10.0463
▁vádol	-10.0488
énél	-10.0493
Ú	-10.0496
▁zsidó	-10.0496
▁holland	-10.0501
▁mondott	-10.0507
▁bírál	-10.0514
jére	-10.0515
▁sebesség	-10.0517
▁font	-10.0519
▁szerezte	-10.0521
▁botrány	-10.0522
ogatás	-10.0525
▁alacsonyabb	-10.0525
▁Fehér	-10.0547
gatás	-10.0548
▁PL	-10.055
▁esetleges	-10.0563
▁tartanak	-10.0563
▁jelentő	-10.0566
ügyminisztérium	-10.0572
▁SZDSZ	-10.0572
▁elképzelés	-10.0572
▁Áll	-10.0583
▁jelezte	-10.0585
24	-10.0598
▁gyakorlatilag	-10.0598
▁üzemeltet	-10.0599
▁szeretne	-10.0603
▁részletes	-10.0606
döntő	-10.0614
▁Három	-10.0624
▁Mindez	-10.0644
hetünk	-10.0648
▁közgyűlés	-10.0649
▁figyelembe	-10.0651
▁példá	-10.0652
▁tanár	-10.0658
▁számú	-10.0666
▁izraeli	-10.0675
▁korrupció	-10.0675
▁üzenet	-10.0675
▁hamarosan	-10.0677
állam	-10.068
ítható	-10.0683
Y	-10.0688
állal	-10.0698
▁szavazás	-10.0699
▁nyáron	-10.0701
▁valamely	-10.0701
▁rekord	-10.0702
▁szigorú	-10.071
▁követő	-10.0713
pálya	-10.0715
▁játszik	-10.0718
▁szocialisták	-10.0727
▁megszüntet	-10.0727
▁hozzájárul	-10.0727
▁kicsi	-10.0728
▁könnyebb	-10.073
▁voks	-10.073
▁Ó	-10.0734
lánc	-10.0752
▁kerületi	-10.0759
▁dolgozik	-10.0769
▁bővül	-10.0779
▁veszélyes	-10.0781
▁elérni	-10.0781
▁élvez	-10.0784
fejlesztés	-10.0794
ovic	-10.0794
▁észre	-10.0799
▁online	-10.0805
▁szünet	-10.0805
▁tárca	-10.0805
▁City	-10.0806
vette	-10.0807
▁közepén	-10.0808
motor	-10.0809
▁Össze	-10.0809
▁fogják	-10.0813
csomag	-10.082
▁ugyanaz	-10.0824
▁mesél	-10.0832
96	-10.0838
ődik	-10.0839
▁fölött	-10.0839
▁Ott	-10.0848
▁baloldal	-10.0861
▁visz	-10.0862
amerikai	-10.0874
forrás	-10.0874
▁érintő	-10.0879
▁sofőr	-10.0884
szurkoló	-10.0884
▁deviza	-10.0884
▁Robert	-10.0884
tűnő	-10.0887
▁menekül	-10.0889
▁ismeret	-10.09
gondol	-10.0901
▁Mihály	-10.091
▁modern	-10.091
▁könny	-10.0924
▁befektetők	-10.0933
▁Veszprém	-10.0937
▁környék	-10.095
▁PK	-10.0955
zsák	-10.0958
▁tele	-10.0959
▁szegény	-10.0963
▁400	-10.0965
▁bizonytalan	-10.0966
▁aktív	-10.097
▁származó	-10.0972
▁nyomán	-10.0973
▁időpont	-10.0985
▁végéig	-10.099
▁FC	-10.099
▁nevel	-10.0991
▁kezdődött	-10.0992
▁részvétel	-10.0994
▁kaphat	-10.0997
▁gumi	-10.102
▁TV	-10.1027
alkotás	-10.1034
▁vonul	-10.1038
▁negatív	-10.1043
ösztön	-10.1043
▁Gyula	-10.1044
▁rosszul	-10.1063
▁kétség	-10.107
▁bejelentette	-10.107
▁működtet	-10.107
szent	-10.1079
▁ígéret	-10.108
▁Gal	-10.1082
▁negyven	-10.1097
▁bírság	-10.11
▁belvíz	-10.11
▁világbajnokság	-10.1108
▁sejt	-10.1115
folyam	-10.112
▁álláspont	-10.1129
▁összefüggés	-10.1142
▁Mesterházy	-10.1151
▁értelmében	-10.1151
▁Nyugat	-10.1151
▁finanszírozás	-10.1156
▁000	-10.1176
▁Manchester	-10.1178
▁hétvégén	-10.1178
▁szuper	-10.1178
▁létszám	-10.1184
▁tehetség	-10.1194
▁kerülhet	-10.1202
emlék	-10.1202
▁igyekez	-10.1205
▁zené	-10.121
▁eredményei	-10.1212
téve	-10.1212
▁érdeklődés	-10.1248
▁bázis	-10.126
▁feltételez	-10.1261
▁biztosító	-10.1264
▁késő	-10.1279
vetett	-10.1283
▁tájékoztatás	-10.1283
▁United	-10.1287
▁Tavaly	-10.1287
▁felfedez	-10.1287
▁irodá	-10.1287
nyíl	-10.1288
▁velük	-10.1289
▁gondolat	-10.1293
▁foglalkoztat	-10.1293
▁szex	-10.13
▁takar	-10.1305
▁adja	-10.1311
▁keresztény	-10.1315
▁bizalm	-10.1315
▁rendelet	-10.1315
▁következménye	-10.1324
▁háttér	-10.1324
▁sötét	-10.1342
▁2007	-10.1348
▁Intézet	-10.137
▁intézmények	-10.1375
▁tudták	-10.1378
lévő	-10.1397
▁legújabb	-10.1397
▁semmilyen	-10.1397
▁verzió	-10.1398
▁mozi	-10.1402
▁órák	-10.1403
▁felesége	-10.1403
▁Andr	-10.1404
▁válik	-10.1405
▁megjelenés	-10.1411
off	-10.1412
▁horvát	-10.1425
▁történik	-10.1425
▁38	-10.1425
▁Kína	-10.1426
▁intéz	-10.1431
▁fűz	-10.1439
nénk	-10.1451
▁diplomá	-10.1453
liberális	-10.1453
▁Balaton	-10.1453
▁médiatörvény	-10.1454
▁150	-10.1468
▁vall	-10.1472
▁feleség	-10.1486
▁tanácsadó	-10.1491
▁különös	-10.1497
▁eljut	-10.1498
▁OTP	-10.1509
▁BBC	-10.1509
▁veszélyeztet	-10.1509
▁utak	-10.1528
▁készültség	-10.153
▁számított	-10.1536
▁Bajnai	-10.1537
▁táj	-10.1539
▁terhel	-10.1541
repülő	-10.1546
rov	-10.1552
▁sajnos	-10.1565
▁NB	-10.1569
kocsi	-10.157
▁nagykövet	-10.1575
▁végére	-10.1589
▁kifejezetten	-10.1593
változás	-10.1602
▁kop	-10.1605
▁abból	-10.1609
hetjük	-10.1615
vesztés	-10.1617
ring	-10.1618
▁cigány	-10.1622
▁becsül	-10.1624
tiltott	-10.1629
▁magunk	-10.163
▁utazás	-10.1633
kedve	-10.164
▁származ	-10.1641
nánk	-10.1649
▁Ráadásul	-10.165
▁kijelentette	-10.165
▁Aztán	-10.1651
▁élmény	-10.1658
hitel	-10.166
▁hallgató	-10.1667
▁alkohol	-10.1679
▁ismerős	-10.1684
▁valójában	-10.1695
▁bizonyíték	-10.1697
▁körzet	-10.1699
▁Facebook	-10.1707
▁megsérült	-10.1707
▁annál	-10.1707
▁testvér	-10.1711
▁kever	-10.1716
▁viselked	-10.172
▁Ligá	-10.1726
▁olvashat	-10.1729
▁havazás	-10.1736
▁öreg	-10.1737
▁csatár	-10.1743
cég	-10.1744
▁mérleg	-10.1762
▁főpolgármester	-10.1765
▁legmagasabb	-10.1765
▁MÁV	-10.1765
▁járulék	-10.1765
▁Times	-10.1766
pedig	-10.1767
III	-10.1773
▁beszámoló	-10.1778
▁közvetlen	-10.1784
▁nyilatkozott	-10.1788
helyzet	-10.1792
▁szempontjából	-10.1794
▁Franc	-10.1796
▁web	-10.1796
▁folytatás	-10.18
▁érzés	-10.1801
▁42	-10.1815
▁alkalmazás	-10.1815
▁hasonlít	-10.1822
központ	-10.1835
▁2006	-10.1838
▁ügyvezető	-10.1838
▁átalakítás	-10.1851
▁Dávid	-10.1851
▁Pal	-10.1853
▁megszerez	-10.1857
▁kisebbség	-10.1866
▁2000	-10.1867
▁koncert	-10.188
fesz	-10.1881
▁fagy	-10.1883
pályás	-10.1891
jétől	-10.1901
▁Pénz	-10.191
▁tagállam	-10.1911
tatták	-10.192
▁vendégek	-10.1924
▁Tisza	-10.193
▁jelöl	-10.1935
stratégia	-10.1939
▁hírügynökség	-10.1939
▁mezőny	-10.1939
▁tegnap	-10.1939
▁szívesen	-10.1946
▁határidő	-10.1972
▁viszonylag	-10.1973
▁foci	-10.1976
▁vágy	-10.1977
▁anti	-10.1981
kereskedő	-10.1983
szállás	-10.2001
szövetség	-10.2003
▁esztendő	-10.2027
papír	-10.2033
▁tisztelet	-10.2059
▁Euro	-10.2073
▁órakor	-10.2076
▁Mercedes	-10.2086
▁hasznos	-10.2086
▁magazin	-10.2087
▁lóerő	-10.2087
▁Chris	-10.209
▁egymással	-10.2097
▁park	-10.2106
fürdő	-10.2116
▁képviselője	-10.2117
beteg	-10.212
▁kilátás	-10.2122
▁sportoló	-10.2123
győzelme	-10.2133
▁rendelkezik	-10.2138
▁vallás	-10.2143
▁Görögország	-10.2146
▁miszerint	-10.2146
▁közvetít	-10.2149
▁valódi	-10.215
▁Párt	-10.2152
▁felfüggeszt	-10.2153
▁hiba	-10.2172
▁múzeum	-10.2176
▁Dom	-10.2178
▁határozott	-10.2184
▁Pro	-10.2197
▁politika	-10.2202
▁Mert	-10.2216
▁tájékoztatta	-10.2216
került	-10.2216
jelző	-10.2233
▁előrejelzés	-10.2236
▁karrier	-10.2236
▁kivitel	-10.2236
▁divat	-10.2238
▁gyűl	-10.2238
▁megerősít	-10.2263
▁hagyomány	-10.2267
▁Fotó	-10.227
▁hívta	-10.2291
▁rendszeresen	-10.2291
▁pszich	-10.2295
▁Róbert	-10.2297
▁híd	-10.2297
▁alsó	-10.2297
réteg	-10.2303
▁villamos	-10.2327
▁elutasít	-10.2327
▁jelenség	-10.2332
▁hamar	-10.2332
▁számíthat	-10.2334
▁ponttal	-10.2334
kérdez	-10.2337
▁elhelyez	-10.2339
▁nincsenek	-10.2343
▁rivális	-10.2357
▁ukrán	-10.2357
▁London	-10.2357
▁valamilyen	-10.2358
kibocsátás	-10.2358
▁nehezen	-10.2358
▁egyetért	-10.2362
szakasz	-10.2374
rablás	-10.2382
▁labdá	-10.2388
▁segély	-10.2388
▁méltó	-10.2388
▁fórum	-10.2388
▁messze	-10.2389
▁színésznő	-10.2391
Ameriká	-10.241
▁fejleszt	-10.2415
▁benyújt	-10.2419
▁biztosítás	-10.242
▁rendelkez	-10.2428
korlátozás	-10.2433
▁ezután	-10.245
▁alul	-10.2451
▁mégsem	-10.2452
▁Kíná	-10.2458
szabály	-10.246
▁1-0	-10.2463
▁szoftver	-10.248
▁önmagá	-10.2481
▁hátsó	-10.2481
▁félidő	-10.2488
▁érzi	-10.2493
válasz	-10.2497
▁olimpiá	-10.2511
▁finom	-10.2512
egyház	-10.2515
▁gyilkosság	-10.2519
▁hamis	-10.2532
▁Rá	-10.2533
▁legfőbb	-10.2542
▁David	-10.2542
▁brazil	-10.2573
▁utat	-10.2585
alakul	-10.2596
▁hossz	-10.2599
▁elfogadott	-10.2603
▁Múzeum	-10.2605
▁bővít	-10.2605
▁néha	-10.2606
▁nálunk	-10.2607
Ö	-10.262
▁gyengé	-10.2636
▁kedvenc	-10.2647
▁fejlőd	-10.2654
▁nyereség	-10.2657
▁Spanyolország	-10.2668
▁39	-10.2683
▁közvélemény	-10.2699
afrikai	-10.2699
▁látványos	-10.27
▁elkészít	-10.2709
▁Tud	-10.2711
▁Bull	-10.2712
fehér	-10.2715
vállalat	-10.2715
fesztivál	-10.2731
▁nekünk	-10.274
▁környékén	-10.2747
▁száj	-10.2759
▁Izrael	-10.2762
▁ütem	-10.2764
▁elődöntő	-10.2769
▁emelte	-10.2772
▁láthat	-10.2782
▁kanadai	-10.2794
▁koncepció	-10.2794
▁megtakarítás	-10.2794
▁USA	-10.2794
▁ellenzék	-10.2815
▁számítani	-10.2826
▁ausztrál	-10.2826
▁immár	-10.2826
jutott	-10.2841
függő	-10.2851
▁éjjel	-10.2858
felől	-10.2868
▁kormánypárt	-10.2868
Amerika	-10.287
▁kidolgoz	-10.289
▁Pedig	-10.2891
▁változott	-10.2904
▁hős	-10.2909
▁ellenfele	-10.2916
▁kém	-10.2918
▁euróövezet	-10.2923
▁Külön	-10.2923
q	-10.293
mutató	-10.2934
▁visszaesés	-10.2937
▁csőd	-10.2943
▁érdekelt	-10.2954
▁egyebek	-10.2955
ztatás	-10.2964
▁színház	-10.2965
vállalás	-10.2967
▁rendezett	-10.2979
felvétel	-10.2982
személy	-10.2985
▁legalábbis	-10.2985
▁Washington	-10.2988
▁földrengés	-10.2988
▁választókerület	-10.2988
▁csapadék	-10.2988
robbanás	-10.2988
▁eltérő	-10.2988
▁elindul	-10.2989
▁üzemanyag	-10.299
vándor	-10.299
▁kezdődik	-10.2992
▁szoros	-10.2995
vezeték	-10.301
▁elkövető	-10.3021
▁edzés	-10.3022
▁tanít	-10.3028
▁órán	-10.3049
ozzák	-10.305
▁fölé	-10.3051
▁tél	-10.3054
▁hatására	-10.3062
gazda	-10.3064
▁amúgy	-10.3086
▁huszon	-10.3086
▁hatalm	-10.3094
▁értesít	-10.3098
▁bárki	-10.3113
▁Könyv	-10.3119
▁Múlt	-10.312
▁tényező	-10.3125
▁ülésén	-10.314
hivatal	-10.3142
▁finanszíroz	-10.3142
▁rögtön	-10.3152
▁pihen	-10.3152
▁itthon	-10.3152
▁napján	-10.3165
kártyá	-10.317
omlott	-10.3172
▁művel	-10.3172
osztott	-10.3173
akar	-10.3189
▁visszaélés	-10.3193
módosítás	-10.321
=	-10.3218
▁gyenge	-10.3218
▁Béla	-10.322
▁vív	-10.3248
▁államháztartás	-10.3251
▁ENSZ	-10.3251
▁ügynök	-10.3251
pótlás	-10.3252
▁gyakorol	-10.3252
▁mikro	-10.3254
▁nevét	-10.3262
▁választók	-10.3267
kutató	-10.3277
mail	-10.3283
▁Egészség	-10.3285
▁Miskolc	-10.3285
menedzser	-10.3285
▁kiegészít	-10.3285
▁ápol	-10.3285
▁cserél	-10.3287
▁állapít	-10.3296
▁tagad	-10.3297
cím	-10.3313
▁óv	-10.3317
▁konfliktus	-10.3318
▁mandátum	-10.3318
▁jellegű	-10.3318
▁típusú	-10.3318
▁elégedett	-10.3326
▁nála	-10.333
▁foglalkoztatás	-10.3335
▁kezdeményezés	-10.3344
▁templom	-10.3352
▁gyalog	-10.3352
▁kulcs	-10.3353
graf	-10.3384
demokrata	-10.3386
▁repülőtér	-10.3386
▁bronz	-10.3386
tenger	-10.3386
ight	-10.3388
össze	-10.3391
▁megnéz	-10.3398
▁részéről	-10.3398
öntött	-10.3409
kommunikáció	-10.3419
▁Barcelona	-10.342
▁rajongó	-10.342
▁elhagy	-10.342
gyűjtemény	-10.3422
▁ront	-10.3423
élyes	-10.3439
mivel	-10.344
izált	-10.3449
▁fekvő	-10.3454
▁közbeszerzés	-10.3454
emelkedés	-10.3456
ajtótájékoztatón	-10.347
váz	-10.3486
▁Olaszország	-10.3488
▁hadsereg	-10.3488
▁kerékpár	-10.3488
▁kénytelen	-10.3488
▁török	-10.3491
mérnök	-10.3492
▁Jack	-10.3495
▁Lengyelország	-10.3522
▁történelem	-10.3522
▁kutyá	-10.3523
▁különadó	-10.3537
konferenciá	-10.3556
▁Néhány	-10.3591
▁2012-	-10.3591
▁végleges	-10.3594
▁csúsz	-10.3613
▁Németh	-10.3625
▁meglehetős	-10.3625
▁kislány	-10.3626
▁feldolgoz	-10.3628
▁világháború	-10.3628
▁megvalósít	-10.3628
▁drog	-10.3634
izáció	-10.3634
kocká	-10.3636
▁Jelenleg	-10.366
pénzügyminiszter	-10.366
▁folyik	-10.366
▁meggyőz	-10.366
▁megkérdezett	-10.3661
▁hajtott	-10.3679
töltés	-10.368
▁Port	-10.368
▁beszámol	-10.3681
▁táplál	-10.3695
▁Miután	-10.3695
▁Simon	-10.3697
▁okozhat	-10.3705
▁függetlenül	-10.3713
▁rokon	-10.3713
▁felhő	-10.3715
▁egyeztetés	-10.373
▁Blikk	-10.373
▁ügyfél	-10.3736
▁önálló	-10.3737
▁2005-	-10.3738
▁ettől	-10.3741
▁Rend	-10.3759
▁titok	-10.376
▁tervei	-10.3761
technika	-10.3762
▁elhunyt	-10.3765
▁Ádám	-10.3765
▁emellett	-10.3765
▁kissé	-10.378
▁hozam	-10.3796
▁pilóta	-10.38
▁folyt	-10.3818
▁végző	-10.3821
színű	-10.3823
▁alól	-10.3826
▁személyiség	-10.3827
▁növény	-10.3836
▁szexuális	-10.3836
▁erősödött	-10.3836
▁Molnár	-10.3836
ográf	-10.3836
▁képzel	-10.3852
▁kerek	-10.3871
▁tucat	-10.3871
▁vörös	-10.3871
honnan	-10.3871
▁magyarázta	-10.3872
▁Hagyó	-10.3872
▁közzé	-10.3886
▁hektár	-10.3907
▁piros	-10.3907
meccs	-10.3908
▁sokáig	-10.3917
▁hatvan	-10.3922
▁lelki	-10.3943
▁megerősítette	-10.3947
▁ablak	-10.3949
▁vesztette	-10.3953
▁Színház	-10.3978
▁Végül	-10.3978
▁értesülés	-10.3978
▁jogosult	-10.3978
Szolnok	-10.398
▁kihasznál	-10.398
▁munkanélküliség	-10.3999
▁1,3	-10.4002
▁megakadályoz	-10.4014
▁Négy	-10.4014
veszély	-10.4018
▁1-1	-10.402
▁mindenképpen	-10.4032
▁Kapuso	-10.405
▁hvg	-10.4051
▁eredetileg	-10.4058
▁előírás	-10.4065
▁mondhat	-10.4065
▁vihar	-10.4069
▁egyesület	-10.4087
▁metró	-10.4087
▁amellye	-10.4087
▁sportág	-10.41
▁irányító	-10.4107
▁esté	-10.411
zavar	-10.4116
▁speciális	-10.4123
▁ágazat	-10.4123
▁értékesítés	-10.4151
▁elektronikus	-10.4159
▁koncentrál	-10.4159
▁Nincs	-10.416
▁2-0	-10.416
▁Kelet	-10.4163
▁megállapítás	-10.4196
▁fénykép	-10.4204
▁értékesít	-10.4207
▁hangsúlyoz	-10.4212
▁példány	-10.4231
▁hajnalban	-10.4233
▁téma	-10.4233
▁felmerül	-10.4235
▁külügyminiszter	-10.427
▁hazánk	-10.427
▁úsz	-10.4303
▁elegendő	-10.4307
▁mindegyik	-10.4307
▁Olyan	-10.4307
▁minket	-10.4307
bajnok	-10.4331
barát	-10.4338
▁átmeneti	-10.4344
▁Szabad	-10.4344
termék	-10.4359
kereskedelem	-10.4381
▁dohány	-10.4381
▁klasszikus	-10.4381
▁köztársasági	-10.4381
▁felújítás	-10.4381
gyógy	-10.4391
▁Gergely	-10.4419
▁önkéntes	-10.4419
▁bocsát	-10.4419
▁címvédő	-10.4422
spanyol	-10.4427
▁szigor	-10.4443
▁Bajnokok	-10.4456
▁államadósság	-10.4456
▁izgalmas	-10.4456
▁repülőgép	-10.4456
▁elkészül	-10.4457
▁házasság	-10.4458
▁globális	-10.4494
▁hölgy	-10.4494
▁közlése	-10.4496
▁győzött	-10.4502
▁szempont	-10.4502
▁2-1	-10.4529
▁Ferrari	-10.4532
▁búcsú	-10.4532
▁Mont	-10.4533
▁menetrend	-10.4534
▁parkoló	-10.4534
jobb	-10.454
▁olcsóbb	-10.4542
▁akadály	-10.4556
▁kabinet	-10.457
▁IMF	-10.457
▁szektor	-10.4571
▁Talán	-10.4571
negyed	-10.4571
▁export	-10.4574
▁közvetlenül	-10.4582
▁megfelel	-10.4584
▁növeked	-10.4603
▁jövedelem	-10.4608
▁hirtelen	-10.4608
▁összecsapás	-10.4608
▁fiatalember	-10.4614
▁nyugdíjrendszer	-10.4616
▁Martin	-10.4618
▁2002-	-10.4618
iskola	-10.4619
▁hivatkoz	-10.4636
kapitányság	-10.4637
▁illegális	-10.4646
▁zuhan	-10.4646
▁torná	-10.465
▁hónappal	-10.4653
▁alapvető	-10.4677
▁Lázár	-10.4685
▁befektető	-10.469
▁fogyaszt	-10.4691
▁hajléktalan	-10.4723
▁törvényjavaslat	-10.4723
▁emleget	-10.4724
▁alelnöke	-10.4724
▁tánc	-10.4724
▁Iroda	-10.4727
▁ellenőriz	-10.4762
▁Király	-10.4762
▁üres	-10.4773
hirdetés	-10.4795
▁mezőgazdaság	-10.4801
▁Eredmény	-10.4801
▁ellentétben	-10.4801
▁kíváncsi	-10.4807
▁barátnő	-10.4807
válogatott	-10.4815
koalíció	-10.484
▁Chelsea	-10.484
▁Arsenal	-10.484
▁merénylet	-10.484
▁BMW	-10.484
▁bármely	-10.484
▁Bokros	-10.484
▁onnan	-10.484
▁előkészít	-10.4842
darab	-10.4849
▁csont	-10.4856
▁szoci	-10.4878
▁munkáltató	-10.4879
küszöb	-10.4879
özigazgatási	-10.4879
▁kritikus	-10.4879
▁erdő	-10.4881
▁Állami	-10.4886
▁ugr	-10.4894
utóbb	-10.491
▁eltűnt	-10.4919
▁konzervatív	-10.4919
csarnok	-10.4919
▁lelkes	-10.4919
▁Liga	-10.4932
▁csend	-10.4943
▁nyak	-10.4948
▁gazdaságpolitik	-10.4951
▁Gordon	-10.4958
▁Katalin	-10.4958
▁pilótá	-10.4958
▁végső	-10.496
▁közzétett	-10.4985
▁Somogy	-10.4998
▁magyarázat	-10.4998
▁vallomás	-10.4999
▁kommunikációs	-10.4999
▁színvonal	-10.5005
▁szobá	-10.5024
▁megmutat	-10.5026
terjesztés	-10.5032
▁csatorná	-10.5034
▁katolikus	-10.5038
▁norvég	-10.5038
▁Ágnes	-10.5038
▁Borsod	-10.5038
parancsnok	-10.5043
üzem	-10.506
▁unió	-10.5063
▁1,5	-10.5063
▁Parlament	-10.5078
történész	-10.5078
▁Természetesen	-10.5079
▁költöz	-10.5079
▁színpad	-10.5081
▁Audi	-10.5094
▁James	-10.5119
beszéd	-10.5137
technológiá	-10.5158
▁portugál	-10.5158
▁nyilvánvaló	-10.5161
kezelés	-10.5181
▁Korábban	-10.5199
▁elsődleges	-10.5199
▁technikai	-10.5202
kupá	-10.5213
▁fordulójá	-10.5224
▁Irán	-10.5235
▁elektromos	-10.5239
▁energiá	-10.5239
▁radikális	-10.5239
▁Emellett	-10.5239
▁kattint	-10.5239
▁érzékel	-10.524
▁tárol	-10.5248
▁dől	-10.5251
▁klíma	-10.528
▁megváltoztat	-10.528
▁generáció	-10.528
▁ütött	-10.5281
▁megújul	-10.5284
dráma	-10.529
▁forma	-10.5312
munka	-10.5315
▁kialakítás	-10.5321
▁mínusz	-10.5321
▁bármilyen	-10.5321
▁gépjármű	-10.5321
▁udvar	-10.5321
▁Isten	-10.5322
▁szorul	-10.5336
vezér	-10.535
▁Tudomány	-10.5362
▁Független	-10.5362
▁dízel	-10.5362
▁értesült	-10.5362
▁kamion	-10.5363
▁köteles	-10.5363
▁0-0	-10.5367
▁hozzátéve	-10.5368
▁kamerá	-10.5369
gyújt	-10.5379
▁nyilvántartás	-10.5409
bukott	-10.5413
▁bruttó	-10.5445
▁sosem	-10.5447
▁említ	-10.5464
▁vörösiszap	-10.5487
▁bukkan	-10.5487
▁integr	-10.5487
techniká	-10.5487
▁Peter	-10.549
▁óriás	-10.5501
▁csalás	-10.5513
▁meghosszabbít	-10.5529
▁összehasonlít	-10.5529
▁MNB	-10.5529
▁Honvéd	-10.5546
▁ciklus	-10.5571
▁frakcióvezető	-10.5571
▁becslése	-10.5571
▁vegyes	-10.5572
▁fém	-10.5573
selejtező	-10.5613
▁nehezebb	-10.5613
▁számukra	-10.5613
keresés	-10.5614
támadás	-10.5619
érdek	-10.5634
közlekedés	-10.5641
ä	-10.5655
▁elképzelhető	-10.5655
▁Árpád	-10.5655
▁tizenegy	-10.5655
▁Klub	-10.5655
▁elítél	-10.5656
▁légitársaság	-10.5656
▁gazdá	-10.5698
▁utód	-10.5698
▁felismer	-10.5698
▁nyugodt	-10.5698
▁gépkocsi	-10.57
▁aggód	-10.5704
▁Petr	-10.574
▁nettó	-10.5741
▁láng	-10.5741
▁eleve	-10.5753
▁passz	-10.5761
▁Párizs	-10.5783
▁adomány	-10.5784
▁Európá	-10.5791
bontás	-10.5804
▁betölt	-10.5811
próbá	-10.5815
▁aktuális	-10.5827
▁alapítvány	-10.5827
▁furcsa	-10.5827
▁pécsi	-10.5827
▁gondoskod	-10.5827
▁emlékezet	-10.5827
▁garantál	-10.587
▁Brüsszel	-10.587
▁négyzetméter	-10.587
▁Japán	-10.587
▁régóta	-10.587
▁orr	-10.5871
▁segíteni	-10.5878
fogyasztás	-10.5902
▁holttest	-10.5913
▁luxus	-10.5913
▁többnyire	-10.5914
▁vajon	-10.5915
▁India	-10.5916
▁izg	-10.5935
▁kudarc	-10.5957
nyolc	-10.5991
▁Hajdú	-10.6001
▁mozdul	-10.6001
▁December	-10.6001
▁Velvet	-10.6001
▁száraz	-10.6002
▁tenisz	-10.6003
▁felsőoktatás	-10.6045
▁feltétlenül	-10.6045
▁megítélés	-10.6045
mester	-10.6045
▁észlel	-10.6046
tájékoztatóján	-10.6047
▁sértett	-10.6053
nyilván	-10.608
stratégiá	-10.6089
▁APEH	-10.6089
▁WikiLeaks	-10.6089
▁létezik	-10.6089
▁Míg	-10.6089
▁jöhet	-10.609
▁Szombathely	-10.6092
▁változatlan	-10.6095
fegyver	-10.6125
▁Eddig	-10.6134
szervezés	-10.6149
▁bekerül	-10.6154
takarékos	-10.6159
kereskedelmi	-10.617
▁Első	-10.6173
szerződés	-10.6173
▁gyümölcs	-10.6178
▁forgatókönyv	-10.6178
▁RTL	-10.6178
▁kanyar	-10.6178
mérkőzés	-10.6216
▁szegedi	-10.6223
▁ritka	-10.6223
éllyel	-10.6223
▁szemlél	-10.6228
viadal	-10.6236
gazdálkodás	-10.6247
▁indoklás	-10.6268
▁legfrissebb	-10.6268
▁tekintettel	-10.6268
▁kávé	-10.6268
▁ügyelet	-10.6269
▁Andrea	-10.6272
ília	-10.6273
▁elrendel	-10.6282
▁iratok	-10.6282
▁forgalm	-10.6286
▁összetett	-10.6291
▁tavasszal	-10.6313
▁funkció	-10.6313
▁sajnál	-10.6313
▁hetven	-10.6314
▁Film	-10.6315
▁szárny	-10.6316
▁ügyfelek	-10.6316
▁kizárt	-10.6326
▁hibát	-10.6351
kívül	-10.6352
▁hulladék	-10.6359
▁tőzsde	-10.6359
▁Renault	-10.6359
figurá	-10.6366
▁sark	-10.6371
▁herceg	-10.6404
▁indiai	-10.6405
szögezte	-10.6408
csúszott	-10.6426
▁kötelez	-10.6427
▁olcsó	-10.6438
Nagy	-10.6448
tisztviselő	-10.645
▁szovjet	-10.645
▁énekesnő	-10.645
▁karakter	-10.645
ujj	-10.6452
lapvetően	-10.6459
▁gazdálkod	-10.6472
▁rámutat	-10.6473
▁minimális	-10.6496
▁ábrázol	-10.6496
▁Hungar	-10.6496
▁felszámolás	-10.6496
▁kihagy	-10.6497
▁Ekkor	-10.6498
▁környezetvédelm	-10.6542
▁beavatkozás	-10.6543
▁végeredmény	-10.6543
▁cáfol	-10.6543
▁füst	-10.6543
▁MTV	-10.6543
▁ezüst	-10.6543
bombá	-10.6558
▁Sajnos	-10.6589
▁kábítószer	-10.6589
▁külföldön	-10.6589
▁fizikai	-10.6589
völgy	-10.6592
▁részesül	-10.6595
▁Bayern	-10.6636
▁bölcs	-10.6636
▁akadályoz	-10.6658
▁keletkezett	-10.6683
▁Idén	-10.6684
▁megbeszélés	-10.6685
▁Vettel	-10.6685
▁kifejezés	-10.669
▁megteremt	-10.6691
húzó	-10.6706
▁csatá	-10.6709
▁zajló	-10.673
▁hibáz	-10.673
▁amilyen	-10.6731
▁stáb	-10.6739
▁béke	-10.6762
▁béké	-10.6771
▁Hírügynökség	-10.6777
▁Igazgatóság	-10.6777
▁Kecskemét	-10.6777
▁ajánlószelvény	-10.6777
▁Békés	-10.6778
tulajdonos	-10.6778
▁elveszít	-10.6778
▁másrészt	-10.6791
▁kéne	-10.6819
▁Svédország	-10.6825
▁körülményei	-10.6826
forgalmi	-10.6838
▁1,2	-10.6845
▁terjeszt	-10.6866
▁BUX	-10.6873
▁Január	-10.6873
▁Egyelőre	-10.6873
▁perccel	-10.6873
▁elvárás	-10.688
asszony	-10.6899
gyűjtés	-10.6914
▁évforduló	-10.6921
▁római	-10.6921
▁vastag	-10.6921
tábla	-10.6922
▁olimpia	-10.6927
költség	-10.6927
▁multi	-10.6929
▁Utóbbi	-10.6969
▁kártérítés	-10.6969
▁Péntek	-10.697
nyelv	-10.6975
▁járművek	-10.6979
▁Televízió	-10.7018
▁demokrácia	-10.7018
▁főszereplő	-10.7018
▁hétköznap	-10.7018
▁Először	-10.7018
▁Emlék	-10.7018
▁erősödés	-10.702
▁műtét	-10.7022
▁statisztika	-10.7067
▁Kultúr	-10.7067
▁kutya	-10.7067
BRFK	-10.7116
▁Farkas	-10.7116
▁deficit	-10.7116
▁médiá	-10.7116
▁negyeddöntő	-10.7117
▁tojás	-10.7117
használat	-10.7118
qui	-10.7119
▁zseb	-10.712
▁szavai	-10.7122
▁autópályá	-10.7133
#	-10.7165
▁feszültség	-10.7165
▁Krisztián	-10.7165
▁kritiká	-10.7165
lövő	-10.7173
▁normá	-10.7214
▁Később	-10.7214
▁Vasárnap	-10.7214
▁Williams	-10.7214
▁igyekszik	-10.7214
▁köbméter	-10.7214
▁származású	-10.7214
▁felajánl	-10.7214
▁óvatos	-10.7216
▁elvégz	-10.7228
szkij	-10.7261
▁Alapítvány	-10.7264
▁intenzív	-10.7264
▁kifejtette	-10.7264
▁Vörös	-10.7264
▁virág	-10.7264
▁meteor	-10.7314
▁tonna	-10.7316
Magyarország	-10.7323
kezdeni	-10.7328
▁válogat	-10.7337
szivárog	-10.7364
▁Balogh	-10.7364
▁bolygó	-10.7364
▁mozog	-10.7365
▁Afganisztán	-10.7415
▁feltehetően	-10.7415
▁bekövetkez	-10.7415
▁normális	-10.7415
▁közepé	-10.7416
▁talaj	-10.7417
▁fejlett	-10.7417
▁Ákos	-10.7417
▁video	-10.7424
▁Erdély	-10.7466
▁kiterjed	-10.7466
▁elárul	-10.747
kezdés	-10.748
szivattyú	-10.7517
▁NATO	-10.7517
▁Újpest	-10.7517
▁érvényben	-10.7517
▁befogad	-10.7528
▁minősített	-10.7533
▁Richard	-10.7568
▁Svájc	-10.7568
▁megsemmisít	-10.7568
▁szokatlan	-10.7569
▁vélte	-10.7569
▁Zala	-10.7573
▁megrendez	-10.7602
▁Szombat	-10.7617
▁Biztos	-10.762
▁világszerte	-10.762
▁jelentkező	-10.7627
konstrukció	-10.7671
▁München	-10.7671
▁forradalom	-10.7671
▁Kossuth	-10.7671
▁megvalósul	-10.7671
▁párizsi	-10.7671
▁megszokott	-10.7672
óceán	-10.7672
▁innen	-10.7673
▁jóváhagy	-10.7723
▁Dániel	-10.7723
▁Szlovákiá	-10.7723
▁tetszik	-10.7724
▁cukor	-10.7724
Korea	-10.7727
▁egyenlít	-10.7728
▁regionális	-10.7776
▁Oscar	-10.7776
▁börtönbüntetés	-10.7776
forgalom	-10.7792
▁zajlik	-10.7828
▁lendület	-10.7828
▁kellemetlen	-10.7829
▁cipő	-10.7829
▁Apple	-10.7829
▁Máté	-10.7833
▁szorít	-10.784
▁fogalm	-10.787
▁Csütörtök	-10.7881
▁győzelmé	-10.7881
▁hétvégi	-10.7882
▁összegyűjt	-10.7882
▁Vissza	-10.7883
▁ázsiai	-10.7935
▁Kedden	-10.7935
▁Moszkva	-10.7935
▁tempó	-10.7935
▁fárad	-10.7937
▁tized	-10.7942
katasztrófá	-10.7988
▁argentin	-10.7988
▁ideiglenes	-10.7988
▁megalapozott	-10.7988
▁folyamán	-10.7989
▁megkezdő	-10.7989
▁szállodá	-10.7991
▁kontinens	-10.8042
▁Twitter	-10.8042
▁Választás	-10.8042
▁monetáris	-10.8042
▁munkálatok	-10.8042
▁pápa	-10.8042
▁részesedés	-10.8042
▁simán	-10.8044
▁Alonso	-10.8096
▁digitális	-10.8096
▁tönkre	-10.8096
▁üldöz	-10.8096
▁Hasonló	-10.8096
▁téved	-10.8097
▁egyensúly	-10.8097
Kiskun	-10.8099
▁ruha	-10.8119
▁Hétfőn	-10.815
fájdalma	-10.815
▁zsűri	-10.815
▁dolga	-10.815
▁felszólít	-10.815
▁mosoly	-10.8151
Szatmár	-10.8151
▁újjá	-10.8157
▁finn	-10.8174
folyó	-10.8175
▁elenged	-10.8183
▁alkalom	-10.8204
▁meghaladja	-10.8205
csempész	-10.8205
▁Barack	-10.8205
▁villá	-10.8247
▁Ausztrál	-10.826
▁Ausztriá	-10.826
▁tizenöt	-10.826
▁lélek	-10.8265
▁Matolcsy	-10.8315
▁bonyolult	-10.8315
▁dolgot	-10.8315
▁mobiltelefon	-10.8315
▁Vancouver	-10.8315
▁ugyanúgy	-10.8315
klub	-10.8347
▁Toyota	-10.8371
▁Vélemény	-10.8371
▁utoljára	-10.8371
▁büdzsé	-10.8371
▁évszázad	-10.8371
▁Bécs	-10.8371
gyűjtő	-10.8378
francia	-10.8396
csúcs	-10.8397
▁legrosszabb	-10.8426
▁produkál	-10.8426
▁eltávolít	-10.8426
▁enyhít	-10.8427
pattan	-10.8428
▁műfaj	-10.8429
▁munkák	-10.8429
közlési	-10.843
kártya	-10.844
▁kiprób	-10.8444
győztes	-10.8453
▁tegye	-10.8471
▁Sólyom	-10.8483
▁kézilabda	-10.8483
▁iráni	-10.8483
modell	-10.851
▁Phil	-10.8527
▁hull	-10.853
>	-10.8539
▁mérséklőd	-10.8539
▁Érdekes	-10.8539
▁Richter	-10.8539
▁közszolgálati	-10.8539
▁Michel	-10.8539
▁közreműköd	-10.854
▁órával	-10.854
ugrott	-10.8552
▁szavak	-10.8554
▁Liverpool	-10.8596
▁ragad	-10.8596
_	-10.8596
▁érzem	-10.8596
gyűrű	-10.8597
▁1994	-10.8597
▁elkövetés	-10.8608
▁szerencsétlen	-10.8618
ecske	-10.8622
mozgás	-10.8625
vonulás	-10.8632
▁büntetőeljárás	-10.8653
▁kapacitás	-10.8653
▁legnépszerűbb	-10.8653
▁személygépkocsi	-10.8653
▁tizenkét	-10.8653
▁Fülöp	-10.8653
▁Rádió	-10.8653
▁Jövő	-10.8653
▁reakció	-10.8653
▁megvizsgál	-10.8654
▁együttműköd	-10.868
▁húzód	-10.8702
▁debreceni	-10.8711
▁franciák	-10.8711
▁végkielégítés	-10.8711
▁ugye	-10.8711
▁kisfiú	-10.8711
▁megszület	-10.8711
▁nevében	-10.8711
▁taxi	-10.8711
▁blokk	-10.8714
▁felépít	-10.8718
▁Horn	-10.8728
▁megtámad	-10.8742
press	-10.8755
▁tőzsdé	-10.8768
▁kommunista	-10.8768
▁palesztin	-10.8768
▁virradó	-10.8768
▁ugyanolyan	-10.8768
▁újdonság	-10.8768
▁tonná	-10.8771
hívták	-10.8796
▁Fejlesztés	-10.8826
▁Székesfehérvár	-10.8826
▁genetikai	-10.8826
▁maximum	-10.8826
▁népszavazás	-10.8826
▁zászló	-10.8826
▁George	-10.8827
▁tolvaj	-10.8827
szerelvény	-10.8828
▁alternatív	-10.8885
▁kényelmes	-10.8885
▁kontroll	-10.8885
▁összességében	-10.8885
▁humor	-10.8885
▁hibák	-10.8893
▁Széchenyi	-10.8944
▁Vlagyimir	-10.8944
▁közgazdász	-10.8944
▁valahogy	-10.8944
▁Nyomozó	-10.8944
▁automatikus	-10.8944
▁valaha	-10.8944
▁Bálint	-10.8944
lényegében	-10.8958
hívott	-10.897
▁Ildikó	-10.9003
▁gyönyörű	-10.9003
▁producer	-10.9003
▁püspök	-10.9003
▁megvásárol	-10.9009
▁sugár	-10.9016
Bereg	-10.9061
▁moszkvai	-10.9062
Dunántúl	-10.9062
▁Webber	-10.9063
▁tekintetében	-10.9063
▁sárga	-10.9065
▁kifogásol	-10.9066
▁elvégez	-10.9068
▁erejé	-10.9076
▁munkanélküli	-10.9087
•	-10.9122
▁Erzsébet	-10.9122
▁Tarlós	-10.9122
▁felesleges	-10.9123
▁Szerdán	-10.9123
▁diadal	-10.9124
▁Munká	-10.9132
▁legkisebb	-10.9183
▁drága	-10.9183
▁Fontos	-10.9183
▁Benedek	-10.9183
▁rendőrkapitány	-10.9214
▁Futball	-10.9243
▁recept	-10.9243
▁tükröz	-10.9243
▁munkája	-10.9243
▁2013-	-10.9243
▁engem	-10.9243
▁órától	-10.9244
▁közepes	-10.9244
háború	-10.928
küzdelme	-10.9283
kifejez	-10.9283
miniszter	-10.9284
▁megszűnt	-10.9304
▁mindenesetre	-10.9304
▁Black	-10.9304
▁vonatkozik	-10.9304
▁mögé	-10.9304
▁fellebbez	-10.9304
▁kalóz	-10.9304
▁Szalai	-10.9305
▁statisztiká	-10.9366
▁vélhetően	-10.9366
▁Thomas	-10.9366
▁mekkora	-10.9366
▁övezet	-10.9366
▁dicsér	-10.9367
▁megállapította	-10.9427
▁Telekom	-10.9427
▁legközelebb	-10.9427
!!!	-10.9427
▁megszólal	-10.9427
▁megjegyezte	-10.9427
www	-10.9427
▁szörny	-10.9428
▁Daily	-10.9428
▁noha	-10.9428
érkezett	-10.9472
▁Társaság	-10.9489
▁működött	-10.9489
▁sajtóügyeletese	-10.9489
▁vezetőedző	-10.9489
▁Messi	-10.949
fejlesztő	-10.949
hamisít	-10.9522
▁létrehozásá	-10.9525
▁Putyin	-10.9552
▁hűtlen	-10.9552
▁kilogramm	-10.9552
▁életveszélyes	-10.9552
oszlop	-10.9552
▁Haladás	-10.9553
állapították	-10.9555
▁hátteré	-10.956
▁Horvátország	-10.9615
▁büszke	-10.9615
▁szilveszter	-10.9615
növekedés	-10.9663
Belföld	-10.9664
▁Racing	-10.9678
▁drágul	-10.9678
▁méltat	-10.9682
▁tekintély	-10.9708
▁Schumacher	-10.9742
▁bennünket	-10.9742
▁informatikai	-10.9742
▁vélekedett	-10.9742
▁Vilmos	-10.9742
▁óráig	-10.9742
▁demokráciá	-10.9806
▁varázs	-10.9806
▁minimum	-10.9806
▁törekvés	-10.9806
▁elfoglal	-10.9806
robbanó	-10.9806
▁szlovén	-10.9807
Abaúj	-10.9814
▁utólag	-10.987
▁lennének	-10.987
▁sűrű	-10.987
▁Juventus	-10.9935
▁Lendvai	-10.9935
▁Média	-10.9935
▁düh	-10.9935
fertőzés	-10.9996
ukleáris	-11.0001
▁Kérdés	-11.0001
▁Schmitt	-11.0001
▁bűnöző	-11.0001
▁elhangzott	-11.0001
▁zaklat	-11.0001
▁sajtószabadság	-11.0001
testület	-11.0056
▁jégkorong	-11.0066
▁publikál	-11.0066
▁Juhász	-11.0066
▁besorolás	-11.0067
▁kinevezés	-11.0067
▁Fejér	-11.0067
▁iraki	-11.0067
pillant	-11.0067
▁1997	-11.0068
▁celeb	-11.0068
▁megemlít	-11.0069
▁Reuters	-11.0133
*	-11.047
−	-11.0892
­	-11.3043
$	-11.3313
©	-11.3877
Ü	-11.4331
Ő	-11.5187
Ó	-11.5299
@	-11.639
Ű	-11.6641
ë	-11.9754
õ	-12.1252
ć	-12.1878
§	-12.2317
à	-12.3509
×	-12.4862
è	-12.4862
č	-12.6773
	-12.7885
[	-12.8993
ô	-12.9136
š	-12.9591
‭	-13.0567
Š	-13.1093
ă	-13.2862
†	-13.5846
ç	-13.6755
<	-13.6755
~	-13.7755
ñ	-13.7755
°	-13.8866
û	-13.8866
â	-14.0116
\	-14.0116
ý	-14.1544
ß	-14.1544
ń	-14.3211
ø	-14.3211
	-14.3211
`	-14.3211
ł	-14.3211
ş	-14.5211
⁄	-14.5211
ţ	-14.5211
Č	-14.5211
	-14.7711
	-14.7711
È	-14.7711
ž	-14.7711
Ž	-14.7711
¬	-15.1044
±	-15.1044
å	-15.1044
ò	-15.1044
ň	-15.1044
̈	-15.1044
‒	-15.1044
®	-15.1045
^	-15.6044
ï	-15.6044
	-15.6044
·	-15.6044
Ä	-15.6044
ã	-15.6044
ì	-15.6044
ה	-15.6044
′	-15.6044
€	-15.6044
≤	-15.6044
ť	-15.6045
ÿ	-15.6045
Đ	-15.6045
£	-16.6042
‬	-16.6043
̋	-16.6044
Ś	-16.6044
Å	-16.6044
æ	-16.6044
ê	-16.6044
ð	-16.6044
Ć	-16.6044
ę	-16.6044
ı	-16.6044
ř	-16.6044
Ť	-16.6044
ů	-16.6044
ż	-16.6044
ș	-16.6044
λ	-16.6044
ї	-16.6044
ו	-16.6044
י	-16.6044
∗	-16.6044
	-16.6044
î	-16.6045
ą	-16.6045
Ţ	-16.6045
μ	-16.6045
(	-16.6045
đ	-16.6045
ś	-16.6045
