[UNK]	0
[CLS]	1
[SEP]	2
[PAD]	3
[MASK]	4
!	5
"	6
#	7
$	8
%	9
&	10
'	11
(	12
)	13
*	14
+	15
,	16
-	17
.	18
/	19
0	20
1	21
2	22
3	23
4	24
5	25
6	26
7	27
8	28
9	29
:	30
;	31
<	32
=	33
>	34
?	35
@	36
[	37
\	38
]	39
^	40
_	41
`	42
a	43
b	44
c	45
d	46
e	47
f	48
g	49
h	50
i	51
j	52
k	53
l	54
m	55
n	56
o	57
p	58
q	59
r	60
s	61
t	62
u	63
v	64
w	65
x	66
y	67
z	68
~	69
	70
	71
	72
	73
£	74
§	75
©	76
¬	77
­	78
®	79
°	80
±	81
·	82
×	83
ß	84
à	85
á	86
â	87
ã	88
ä	89
å	90
æ	91
ç	92
è	93
é	94
ê	95
ë	96
ì	97
í	98
î	99
ï	100
ð	101
ñ	102
ò	103
ó	104
ô	105
õ	106
ö	107
ø	108
ú	109
û	110
ü	111
ý	112
ÿ	113
ă	114
ą	115
ć	116
č	117
đ	118
ę	119
ı	120
ł	121
ń	122
ň	123
ő	124
ř	125
ś	126
ş	127
š	128
ţ	129
ť	130
ů	131
ű	132
ż	133
ž	134
ș	135
̈	136
̋	137
λ	138
μ	139
ї	140
ה	141
ו	142
י	143
‒	144
†	145
•	146
‬	147
‭	148
′	149
⁄	150
€	151
−	152
∗	153
≤	154
	155
	156
##i	157
##m	158
##á	159
##r	160
##a	161
##ő	162
##t	163
##g	164
##y	165
##ű	166
##e	167
##z	168
##n	169
##d	170
##v	171
##l	172
##c	173
##h	174
##o	175
##j	176
##s	177
##ä	178
##u	179
##é	180
##k	181
##í	182
##ó	183
##ü	184
##f	185
##p	186
##q	187
##w	188
##ö	189
##b	190
##5	191
##ú	192
##7	193
##6	194
##8	195
##3	196
##9	197
##x	198
##0	199
##)	200
##;	201
##"	202
##1	203
##ă	204
##[	205
##2	206
##\	207
##š	208
##ć	209
##4	210
##ô	211
##č	212
##à	213
##,	214
##.	215
##ò	216
##è	217
##æ	218
##*	219
##?	220
##]	221
##ţ	222
##:	223
##ø	224
##õ	225
##'	226
##!	227
##-	228
##ÿ	229
##ë	230
##+	231
##‭	232
##ï	233
##đ	234
##†	235
##>	236
##ý	237
##_	238
##û	239
##/	240
##ł	241
##å	242
##ð	243
##ś	244
##ę	245
##ß	246
##ñ	247
##ń	248
##ç	249
##ů	250
##ì	251
##′	252
##ş	253
##î	254
##ž	255
##ą	256
##ê	257
##ř	258
###	259
##ň	260
##ș	261
##ї	262
##â	263
##ť	264
##ż	265
##@	266
##=	267
##$	268
##&	269
##ה	270
##ו	271
##(	272
##~	273
##et	274
##en	275
##el	276
##gy	277
##sz	278
##er	279
##at	280
##an	281
sz	282
az	283
##al	284
##ek	285
##or	286
##on	287
##ár	288
##ak	289
##em	290
##ás	291
##eg	292
##ol	293
##in	294
##án	295
##ál	296
##es	297
##tt	298
el	299
##és	300
##ar	301
##ik	302
##ez	303
##ég	304
##én	305
##os	306
##ok	307
és	308
##bb	309
ho	310
##ér	311
egy	312
kö	313
##ett	314
##ül	315
##ág	316
meg	317
##ít	318
##ap	319
is	320
##ét	321
##át	322
hogy	323
##ék	324
##il	325
##oz	326
##él	327
##int	328
##ed	329
##ott	330
nem	331
##is	332
##agy	333
##ban	334
##szt	335
##it	336
cs	337
##ad	338
##ben	339
##om	340
##ta	341
##cs	342
szer	343
##ól	344
##ul	345
##ség	346
##as	347
##am	348
ki	349
##ni	350
köz	351
##og	352
##ák	353
fel	354
##ány	355
##ai	356
##ény	357
##aj	358
le	359
##ja	360
##áz	361
ez	362
##ely	363
##re	364
##ra	365
am	366
##ig	367
al	368
##ag	369
##ent	370
##nk	371
##iz	372
##az	373
tö	374
ak	375
##ép	376
##ész	377
ál	378
##ot	379
be	380
##ság	381
##ut	382
##rt	383
##ny	384
##ől	385
##het	386
##olt	387
##ám	388
##end	389
gy	390
ny	391
##nak	392
##ell	393
##ci	394
min	395
##us	396
##nt	397
áll	398
de	399
##nek	400
##ök	401
év	402
vál	403
##ató	404
##ért	405
##art	406
##ond	407
##lt	408
##len	409
##ont	410
kor	411
##od	412
##ud	413
for	414
##szer	415
szerint	416
##ró	417
mi	418
##ab	419
es	420
##ber	421
##egy	422
jel	423
##av	424
rend	425
ol	426
##ezet	427
már	428
elő	429
volt	430
##ött	431
leg	432
##szág	433
mind	434
##unk	435
##vet	436
em	437
##agyar	438
val	439
##let	440
ér	441
magyar	442
ad	443
20	444
ut	445
id	446
##uk	447
##ev	448
ter	449
nagy	450
##att	451
ha	452
er	453
##ov	454
##ill	455
or	456
##ert	457
##ep	458
ok	459
##ább	460
hely	461
##kö	462
ker	463
né	464
több	465
in	466
##ént	467
##ában	468
##ej	469
át	470
##ős	471
##est	472
hi	473
még	474
azt	475
##atás	476
szám	477
##ön	478
##ssz	479
##ők	480
##esz	481
##ült	482
##olg	483
##vel	484
##zet	485
##id	486
kap	487
csak	488
mint	489
##aszt	490
##mány	491
##alm	492
##ük	493
##kor	494
##ív	495
hoz	496
tud	497
##ében	498
ar	499
##te	500
van	501
##ály	502
##ált	503
##elm	504
lehet	505
kell	506
##ette	507
tart	508
száz	509
##ia	510
##ba	511
##um	512
an	513
##oly	514
##val	515
két	516
##éd	517
##obb	518
vagy	519
más	520
nek	521
ben	522
##ve	523
##ció	524
##ző	525
ig	526
nak	527
en	528
mag	529
ért	530
ban	531
##áll	532
##áj	533
amely	534
biz	535
##árt	536
##ei	537
##koz	538
##kez	539
##elő	540
új	541
sem	542
vég	543
il	544
##ítás	545
##iszt	546
kép	547
##eket	548
össz	549
fog	550
##ony	551
ellen	552
##ió	553
hat	554
mond	555
##ort	556
##ső	557
##ajd	558
##eszt	559
##alék	560
##hat	561
##ély	562
##öl	563
tel	564
pr	565
##mény	566
re	567
##ch	568
##ur	569
##ók	570
##ír	571
##ín	572
##öv	573
##őr	574
##kal	575
százalék	576
##ára	577
##ör	578
##úl	579
##ebb	580
##ják	581
##ület	582
##nök	583
##okat	584
##ország	585
##ése	586
eu	587
ped	588
kül	589
mill	590
##ított	591
mű	592
##ód	593
szem	594
##áb	595
rész	596
ek	597
nap	598
##ult	599
##éz	600
minden	601
jelent	602
pedig	603
##ug	604
##íz	605
##eh	606
##leg	607
##ható	608
vár	609
##dés	610
kör	611
##na	612
ra	613
##ós	614
munk	615
##ikai	616
után	617
##im	618
kez	619
##asz	620
##elt	621
tár	622
azon	623
200	624
##be	625
##op	626
##ilág	627
vi	628
##ján	629
vezet	630
euró	631
ját	632
##ani	633
##tal	634
vis	635
##aság	636
##vény	637
tal	638
ország	639
##zés	640
ind	641
forint	642
##esen	643
##je	644
állam	645
kormány	646
szak	647
alap	648
##lal	649
világ	650
##gyan	651
fő	652
majd	653
ár	654
##ost	655
fi	656
##ére	657
ember	658
##ád	659
bel	660
han	661
##eny	662
int	663
ugyan	664
lesz	665
első	666
úgy	667
##ális	668
##emény	669
##abb	670
##önt	671
kis	672
így	673
ügy	674
##va	675
szab	676
##lan	677
##ölt	678
##ob	679
##azd	680
19	681
sok	682
követ	683
aki	684
jó	685
hét	686
##tak	687
oly	688
miatt	689
##etlen	690
##énz	691
tört	692
##nap	693
##ember	694
sor	695
vissz	696
##ló	697
##ked	698
##ást	699
sp	700
##ügy	701
##yen	702
igaz	703
mar	704
tan	705
ép	706
##nál	707
mert	708
hal	709
között	710
##vezet	711
##vár	712
##áció	713
lát	714
akkor	715
##ri	716
##etés	717
foly	718
tör	719
idő	720
olyan	721
##fi	722
##ikus	723
saj	724
##ának	725
##ne	726
##ös	727
##ház	728
mondta	729
##ót	730
elm	731
##hoz	732
##00	733
##ünk	734
st	735
alk	736
##köz	737
kész	738
##év	739
ir	740
vált	741
kér	742
választ	743
ver	744
ami	745
##iv	746
él	747
bizt	748
##ások	749
ism	750
##nyi	751
##jel	752
##öld	753
tov	754
##atal	755
tovább	756
hár	757
##ász	758
hozz	759
tám	760
##szak	761
##ezett	762
most	763
##ém	764
##osan	765
##ím	766
pénz	767
fej	768
ked	769
##ének	770
nemzet	771
egyik	772
##ezt	773
csap	774
##ező	775
##íj	776
jog	777
gazd	778
per	779
azonban	780
aut	781
##étel	782
##eni	783
##ával	784
##ési	785
##olit	786
fr	787
eg	788
ed	789
jár	790
kezd	791
##ossz	792
##atok	793
érd	794
##ács	795
dönt	796
való	797
##zs	798
mell	799
##ést	800
rendőr	801
##ir	802
##any	803
##nok	804
fér	805
valam	806
##ták	807
201	808
##áv	809
##adás	810
három	811
elnök	812
##árd	813
##ról	814
##for	815
##tel	816
##osz	817
ról	818
eset	819
telj	820
##ikor	821
illet	822
##kel	823
ír	824
##atkoz	825
által	826
##ási	827
külön	828
ezt	829
##ekt	830
##un	831
##eti	832
##ck	833
európ	834
##hető	835
millió	836
##jt	837
vol	838
pont	839
cím	840
##almaz	841
nél	842
kapcs	843
##éter	844
jelen	845
polit	846
##zel	847
on	848
har	849
ered	850
##eb	851
men	852
ne	853
##fel	854
##eng	855
##ván	856
arra	857
szó	858
##izs	859
##tö	860
vissza	861
term	862
élet	863
korább	864
##pont	865
##ati	866
br	867
ott	868
nev	869
szint	870
össze	871
visz	872
egész	873
én	874
##ból	875
##ító	876
kon	877
et	878
sik	879
##atott	880
ah	881
nyil	882
##fő	883
kom	884
bal	885
vezető	886
jobb	887
társ	888
##ozás	889
par	890
mér	891
len	892
##incs	893
##eked	894
##ki	895
kat	896
##old	897
előtt	898
nyug	899
##oló	900
##tó	901
##ített	902
magyarország	903
##ozat	904
gond	905
nő	906
fél	907
dolg	908
szerep	909
##and	910
##elmi	911
),	912
##ről	913
történ	914
gazdaság	915
amer	916
##lő	917
besz	918
cég	919
von	920
##up	921
itt	922
##ítés	923
kapcsol	924
##oll	925
##árm	926
párt	927
##alom	928
##ti	929
##ög	930
##tár	931
##iárd	932
gyer	933
##ozó	934
##ing	935
lak	936
##lat	937
ma	938
költ	939
##hez	940
##últ	941
rendszer	942
amikor	943
éves	944
talál	945
##dig	946
érdek	947
##író	948
##vis	949
##ből	950
ít	951
tag	952
##met	953
érték	954
##izsg	955
##ic	956
ház	957
##ével	958
##éld	959
kar	960
rá	961
péld	962
##fog	963
##tatás	964
bud	965
játék	966
siker	967
volna	968
##véd	969
haj	970
##kül	971
##dul	972
ezer	973
másod	974
##ökk	975
négy	976
vas	977
megy	978
##ip	979
vesz	980
milliárd	981
baj	982
##jár	983
hó	984
öt	985
te	986
##ozott	987
alatt	988
teljes	989
illetve	990
nyom	991
seg	992
fid	993
##ezés	994
##úly	995
##adó	996
fil	997
##űn	998
ból	999
közl	1000
ként	1001
csapat	1002
vers	1003
hang	1004
hasz	1005
dél	1006
jöv	1007
nagyon	1008
10	1009
bar	1010
keres	1011
akik	1012
at	1013
tól	1014
zs	1015
amerikai	1016
vállal	1017
től	1018
mellett	1019
miniszt	1020
tav	1021
hír	1022
##oh	1023
##őség	1024
vel	1025
biztos	1026
##óz	1027
ba	1028
##ezte	1029
##usz	1030
##ütt	1031
##gató	1032
##uár	1033
nál	1034
##gg	1035
férfi	1036
fidesz	1037
##enc	1038
közölt	1039
hiv	1040
törvény	1041
##juk	1042
haz	1043
pály	1044
##kol	1045
##gel	1046
jav	1047
##után	1048
##elet	1049
támog	1050
ilyen	1051
üz	1052
##iai	1053
mód	1054
szól	1055
##díj	1056
véd	1057
vizsg	1058
##szerű	1059
##ető	1060
csökk	1061
##ram	1062
##omb	1063
##tam	1064
##ünt	1065
nincs	1066
##lés	1067
##enek	1068
kut	1069
szín	1070
marad	1071
együtt	1072
szolg	1073
ment	1074
##ogy	1075
##ex	1076
lép	1077
csal	1078
##vas	1079
##ként	1080
##elés	1081
##séges	1082
15	1083
##atlan	1084
##öz	1085
verseny	1086
##kép	1087
##ors	1088
##jelent	1089
eredmény	1090
##elem	1091
autó	1092
##kod	1093
##ása	1094
erős	1095
pár	1096
lett	1097
túl	1098
##apest	1099
budapest	1100
kil	1101
fiz	1102
képvis	1103
##hely	1104
has	1105
egyes	1106
##ülés	1107
##ket	1108
##ern	1109
cél	1110
##ium	1111
##tat	1112
következ	1113
##ját	1114
ebb	1115
##omány	1116
német	1117
vél	1118
##város	1119
mut	1120
##osság	1121
##ub	1122
##íg	1123
kev	1124
##da	1125
közel	1126
##ába	1127
##szín	1128
##ester	1129
európai	1130
##észt	1131
ről	1132
##őz	1133
azért	1134
bet	1135
##ocs	1136
hisz	1137
".	1138
##le	1139
ezért	1140
##form	1141
figy	1142
személy	1143
ás	1144
##ábor	1145
##ór	1146
sport	1147
##álat	1148
kam	1149
##őt	1150
##avaz	1151
kapcsolat	1152
hanem	1153
##mű	1154
terv	1155
helyzet	1156
fran	1157
##esség	1158
##no	1159
##ant	1160
kérdés	1161
ja	1162
##ver	1163
##oport	1164
kés	1165
város	1166
szerző	1167
eml	1168
ot	1169
##ogram	1170
##ügyi	1171
kl	1172
##vány	1173
##óbb	1174
út	1175
ét	1176
##ilyen	1177
2010	1178
uk	1179
költség	1180
közölte	1181
bef	1182
##st	1183
eddig	1184
segít	1185
harm	1186
##aly	1187
kív	1188
##inek	1189
##tört	1190
##dő	1191
szük	1192
ezek	1193
reg	1194
hozzá	1195
körül	1196
##dal	1197
film	1198
##lás	1199
bár	1200
abb	1201
##pen	1202
jövő	1203
##ügg	1204
akar	1205
viszont	1206
szabad	1207
határ	1208
##ául	1209
jelenleg	1210
lét	1211
lap	1212
12	1213
jut	1214
##ef	1215
tett	1216
annak	1217
tavaly	1218
##rend	1219
##anak	1220
műkö	1221
második	1222
tér	1223
bl	1224
##ánt	1225
ahol	1226
nép	1227
het	1228
##ang	1229
néh	1230
##zett	1231
##cia	1232
rom	1233
any	1234
ber	1235
##hon	1236
például	1237
##só	1238
szeret	1239
köny	1240
mik	1241
hagy	1242
##tek	1243
bizony	1244
foglal	1245
nélkül	1246
##uszt	1247
##ítani	1248
pia	1249
tiszt	1250
olvas	1251
##pr	1252
##éntek	1253
##ából	1254
arról	1255
ből	1256
kerül	1257
terület	1258
jan	1259
negy	1260
##ontos	1261
forg	1262
##úz	1263
18	1264
##eli	1265
##ec	1266
saját	1267
di	1268
ör	1269
hétfő	1270
##ásár	1271
program	1272
hónap	1273
gondol	1274
miniszter	1275
alak	1276
alkot	1277
szo	1278
mno	1279
ön	1280
##ista	1281
kín	1282
##dik	1283
##vétel	1284
##ékoz	1285
##éb	1286
##lát	1287
intéz	1288
táv	1289
korábban	1290
csoport	1291
hivatal	1292
hát	1293
amit	1294
11	1295
##észet	1296
beszél	1297
##all	1298
##oszt	1299
család	1300
oszt	1301
##ven	1302
##ess	1303
ugyanis	1304
százalékkal	1305
bíró	1306
ch	1307
hason	1308
játsz	1309
gyak	1310
kedd	1311
gól	1312
hez	1313
##övet	1314
munka	1315
orosz	1316
##ink	1317
##ája	1318
kr	1319
került	1320
##esebb	1321
jegy	1322
uta	1323
mely	1324
##sal	1325
ór	1326
##ször	1327
os	1328
valamint	1329
közös	1330
##rób	1331
30	1332
##etett	1333
oldal	1334
elmond	1335
ennek	1336
##ájékoz	1337
##lam	1338
ismer	1339
hiszen	1340
bank	1341
jól	1342
csü	1343
emel	1344
óta	1345
##ika	1346
##ter	1347
##almas	1348
ének	1349
szabály	1350
##leszt	1351
##közi	1352
azok	1353
száll	1354
##ottság	1355
hossz	1356
péntek	1357
ának	1358
ezzel	1359
##föld	1360
használ	1361
bajnok	1362
##törtök	1363
csütörtök	1364
nyugdíj	1365
legn	1366
köt	1367
föld	1368
##itk	1369
mivel	1370
##ően	1371
test	1372
hit	1373
moz	1374
alapján	1375
tek	1376
##der	1377
##onság	1378
neh	1379
##újt	1380
tul	1381
rendőrség	1382
másik	1383
irány	1384
##erg	1385
felt	1386
##dött	1387
rég	1388
ség	1389
késő	1390
néhány	1391
##ették	1392
szavaz	1393
számára	1394
##eség	1395
##..	1396
perc	1397
víz	1398
##ass	1399
##ist	1400
dec	1401
##lott	1402
##fél	1403
tulajd	1404
egyet	1405
növ	1406
fordul	1407
im	1408
tárgy	1409
akár	1410
elem	1411
bor	1412
##olc	1413
míg	1414
##of	1415
csökkent	1416
25	1417
nyilván	1418
évek	1419
semm	1420
képviselő	1421
közül	1422
##sel	1423
lehetőség	1424
16	1425
##adik	1426
december	1427
##jobb	1428
ist	1429
amelyek	1430
##essz	1431
negyed	1432
önk	1433
szervezet	1434
című	1435
##zal	1436
százalékos	1437
dr	1438
as	1439
adó	1440
doll	1441
pl	1442
uni	1443
folyam	1444
##lag	1445
##ús	1446
and	1447
##áló	1448
felh	1449
megh	1450
hor	1451
kal	1452
##rás	1453
érkez	1454
##ológ	1455
##ította	1456
okat	1457
##szab	1458
ám	1459
január	1460
##ttal	1461
aján	1462
##ker	1463
iz	1464
kedv	1465
nyilatkoz	1466
tíz	1467
##elnök	1468
ap	1469
nov	1470
ára	1471
lenne	1472
##zi	1473
szerd	1474
tulajdon	1475
adat	1476
##tató	1477
##za	1478
##ések	1479
tű	1480
nemzetközi	1481
szövet	1482
gyerek	1483
hol	1484
kár	1485
fiatal	1486
szerv	1487
utol	1488
legjobb	1489
főváros	1490
##ha	1491
magas	1492
##ánd	1493
fut	1494
##ője	1495
legnagy	1496
csat	1497
körny	1498
legnagyobb	1499
hasonló	1500
mer	1501
raj	1502
emlék	1503
fer	1504
szomb	1505
nemzeti	1506
##alak	1507
form	1508
jelentős	1509
ink	1510
dolgoz	1511
szoci	1512
közép	1513
##tor	1514
eng	1515
könyv	1516
győz	1517
parlam	1518
parlament	1519
kellett	1520
##sége	1521
egyéb	1522
##ségi	1523
kit	1524
vit	1525
nagyobb	1526
##sa	1527
szél	1528
elég	1529
17	1530
fontos	1531
tanács	1532
rep	1533
##nny	1534
gyors	1535
##ac	1536
azzal	1537
##ítő	1538
megsz	1539
##von	1540
13	1541
hatás	1542
során	1543
idén	1544
ható	1545
tesz	1546
gazdasági	1547
14	1548
elmúlt	1549
teh	1550
##ászló	1551
##súly	1552
szemben	1553
elt	1554
vannak	1555
##jabb	1556
tartott	1557
bíróság	1558
elmondta	1559
##érték	1560
megyei	1561
hiány	1562
nyolc	1563
##isz	1564
rendel	1565
...	1566
ham	1567
legy	1568
egym	1569
##árnap	1570
vasárnap	1571
bizottság	1572
foglalkoz	1573
később	1574
korábbi	1575
án	1576
##okban	1577
##ull	1578
##előtt	1579
díj	1580
##gyű	1581
néz	1582
kereszt	1583
##adt	1584
fogy	1585
ság	1586
##szp	1587
##ején	1588
nyert	1589
tanul	1590
költségvet	1591
mindig	1592
gyakor	1593
mot	1594
polg	1595
hon	1596
piac	1597
függ	1598
##óbbi	1599
##iség	1600
##őzés	1601
##obl	1602
inform	1603
fejleszt	1604
részt	1605
##nal	1606
tekint	1607
##atot	1608
elfog	1609
szolgált	1610
##bán	1611
##áról	1612
##ib	1613
fok	1614
##assz	1615
##rat	1616
##ene	1617
milyen	1618
szen	1619
megáll	1620
támogatás	1621
vid	1622
kif	1623
##sor	1624
##út	1625
megfel	1626
esz	1627
tájékoz	1628
erő	1629
##né	1630
probl	1631
rossz	1632
##élet	1633
##ános	1634
##szám	1635
##ását	1636
gép	1637
##nél	1638
##ói	1639
további	1640
problém	1641
unk	1642
ismert	1643
prób	1644
##ejt	1645
sér	1646
##eset	1647
vez	1648
##mer	1649
##itány	1650
ant	1651
##ong	1652
tr	1653
újra	1654
##nő	1655
##csak	1656
ni	1657
ko	1658
alá	1659
tette	1660
##öt	1661
lászló	1662
gyan	1663
##zék	1664
helyett	1665
vásár	1666
##ard	1667
##jai	1668
igazgató	1669
hu	1670
##eccs	1671
állami	1672
.)	1673
##aton	1674
##séget	1675
2009	1676
bűn	1677
els	1678
##ezni	1679
).	1680
##talan	1681
##ettek	1682
erre	1683
##eit	1684
központ	1685
fin	1686
##új	1687
##mek	1688
ával	1689
##li	1690
sal	1691
##son	1692
hazai	1693
történt	1694
érint	1695
javas	1696
legal	1697
utolsó	1698
mszp	1699
inkább	1700
eljár	1701
adott	1702
sajtó	1703
tor	1704
felel	1705
##telen	1706
szerződés	1707
különb	1708
dem	1709
múlt	1710
voltak	1711
##ítette	1712
őket	1713
politikai	1714
th	1715
meccs	1716
gyű	1717
súly	1718
elnöke	1719
##enni	1720
kapott	1721
enged	1722
##mányz	1723
##vég	1724
dollár	1725
november	1726
zár	1727
könny	1728
várható	1729
tény	1730
önkor	1731
27	1732
önkormányz	1733
állít	1734
##ését	1735
kötel	1736
lev	1737
##ari	1738
méd	1739
##ka	1740
##leges	1741
##évő	1742
orbán	1743
##land	1744
199	1745
##lin	1746
fen	1747
ebben	1748
##vos	1749
att	1750
szig	1751
őr	1752
##alt	1753
port	1754
ünk	1755
összeg	1756
brit	1757
anyag	1758
francia	1759
indul	1760
rendelkez	1761
természet	1762
##lov	1763
éppen	1764
##átt	1765
folyamat	1766
hív	1767
vád	1768
##almazott	1769
##mér	1770
közleked	1771
alkotmány	1772
##ték	1773
##per	1774
emberek	1775
##ft	1776
mod	1777
##sze	1778
##viv	1779
kiv	1780
kór	1781
elh	1782
magán	1783
##ehér	1784
##ür	1785
##csi	1786
telep	1787
##ülő	1788
sikerült	1789
21	1790
##almi	1791
mérk	1792
gyermek	1793
magát	1794
találkoz	1795
biztonság	1796
beteg	1797
harmadik	1798
megállap	1799
tiz	1800
játékos	1801
emelked	1802
megt	1803
##lik	1804
##óta	1805
##éről	1806
állap	1807
jelölt	1808
##igaz	1809
oz	1810
szület	1811
##úsz	1812
történet	1813
##acs	1814
##mények	1815
##érium	1816
átlag	1817
##színű	1818
##olás	1819
intern	1820
hitel	1821
ford	1822
készült	1823
növeked	1824
figyelm	1825
kisebb	1826
utc	1827
##jük	1828
2008	1829
halál	1830
újabb	1831
##imp	1832
megfelelő	1833
válog	1834
##sér	1835
irod	1836
péter	1837
kir	1838
mutat	1839
legalább	1840
24	1841
##se	1842
ában	1843
mintegy	1844
tap	1845
szerdán	1846
##oni	1847
##ment	1848
##etni	1849
##ozta	1850
politikus	1851
hatóság	1852
megv	1853
ip	1854
kult	1855
országos	1856
következő	1857
hétfőn	1858
cik	1859
##osítás	1860
iskol	1861
22	1862
bünt	1863
ük	1864
felad	1865
lab	1866
mit	1867
fot	1868
üt	1869
veszély	1870
##uh	1871
persze	1872
##ármester	1873
##jában	1874
##anyol	1875
igen	1876
egyetem	1877
##ro	1878
mérkőzés	1879
##ebr	1880
##kv	1881
kedden	1882
##ították	1883
belül	1884
lég	1885
##nn	1886
információ	1887
##rel	1888
észak	1889
##úr	1890
utóbbi	1891
valószínű	1892
fogyaszt	1893
##kész	1894
egyelő	1895
##itás	1896
egyelőre	1897
szeg	1898
eket	1899
##követ	1900
keresked	1901
neki	1902
istván	1903
##har	1904
##szik	1905
abban	1906
közlemény	1907
##ion	1908
##edett	1909
spanyol	1910
barát	1911
végül	1912
talált	1913
ezen	1914
műv	1915
ül	1916
##gyel	1917
kü	1918
##min	1919
26	1920
sokkal	1921
##ait	1922
tárgyal	1923
miniszterelnök	1924
éve	1925
társaság	1926
",	1927
szóló	1928
##baj	1929
##utt	1930
helyi	1931
hall	1932
##áp	1933
egyre	1934
szükség	1935
szlov	1936
##ekkel	1937
miután	1938
olasz	1939
##ezték	1940
##akkor	1941
helyen	1942
változ	1943
tam	1944
##úg	1945
külföld	1946
ugyanakkor	1947
föl	1948
szintén	1949
egészség	1950
kutató	1951
megb	1952
felelős	1953
part	1954
febr	1955
szív	1956
elér	1957
##cius	1958
vállalkoz	1959
gáz	1960
képest	1961
ab	1962
jell	1963
írja	1964
hozzát	1965
kívül	1966
##lap	1967
##chn	1968
komoly	1969
reggel	1970
##mus	1971
ing	1972
index	1973
der	1974
##íteni	1975
50	1976
til	1977
bele	1978
üzem	1979
##állítás	1980
egyébként	1981
válasz	1982
tűz	1983
március	1984
részlet	1985
ismét	1986
február	1987
válság	1988
megold	1989
üzlet	1990
ang	1991
kider	1992
forintot	1993
##övid	1994
##őv	1995
##ulás	1996
okkal	1997
lévő	1998
nyer	1999
##öző	2000
számít	2001
##lom	2002
amelyet	2003
nor	2004
először	2005
végén	2006
nehéz	2007
rendez	2008
kí	2009
##álni	2010
##áját	2011
kény	2012
pénteken	2013
tölt	2014
dar	2015
##ári	2016
kórház	2017
##nnep	2018
##mel	2019
évvel	2020
##atív	2021
egyetlen	2022
tizen	2023
kösz	2024
##ah	2025
##elte	2026
rövid	2027
se	2028
annyi	2029
csütörtökön	2030
ünnep	2031
##otta	2032
elv	2033
este	2034
ellenére	2035
igény	2036
magyarországon	2037
##ral	2038
##ázat	2039
##ord	2040
elleni	2041
bi	2042
mti	2043
társad	2044
vélemény	2045
ferenc	2046
motor	2047
egyszer	2048
ide	2049
23	2050
fal	2051
tehát	2052
pro	2053
kett	2054
vizsgálat	2055
budapesti	2056
ex	2057
##öm	2058
szor	2059
##ow	2060
man	2061
##olni	2062
hosszú	2063
fehér	2064
készül	2065
vett	2066
veszt	2067
##biz	2068
kíván	2069
internet	2070
vill	2071
##uc	2072
##ón	2073
egyen	2074
##ens	2075
időszak	2076
sorozat	2077
##mal	2078
dob	2079
##ógy	2080
szinte	2081
válogatott	2082
szép	2083
##bajnok	2084
megl	2085
##uház	2086
orvos	2087
##nem	2088
aztán	2089
miért	2090
##ma	2091
##inak	2092
szóviv	2093
sch	2094
##fr	2095
##ottak	2096
töm	2097
jobbik	2098
##esek	2099
inter	2100
40	2101
évben	2102
tak	2103
teljesít	2104
pan	2105
##kori	2106
fény	2107
##ff	2108
##ese	2109
om	2110
közt	2111
bír	2112
egyszerű	2113
ri	2114
létre	2115
sen	2116
talán	2117
##olta	2118
álló	2119
klub	2120
##inc	2121
próbál	2122
##apitány	2123
gábor	2124
pap	2125
világbajnok	2126
arány	2127
##ün	2128
közben	2129
fogad	2130
ellenőr	2131
októ	2132
hib	2133
október	2134
végre	2135
100	2136
cser	2137
keret	2138
##szor	2139
##őleg	2140
kezdő	2141
##ákat	2142
kéz	2143
lány	2144
##tart	2145
szakért	2146
##haj	2147
##sék	2148
maga	2149
poz	2150
követően	2151
##ációs	2152
konc	2153
##foly	2154
forduló	2155
környezet	2156
bem	2157
kért	2158
##úcs	2159
bejelent	2160
otthon	2161
##ékeny	2162
esély	2163
##szk	2164
mérték	2165
##zás	2166
rem	2167
##heti	2168
viszony	2169
##oldal	2170
##polg	2171
##ítja	2172
jelentette	2173
vezetője	2174
kih	2175
gyárt	2176
nyújt	2177
techn	2178
mozg	2179
baleset	2180
tem	2181
##ner	2182
##miniszt	2183
2011	2184
##ánk	2185
itthon	2186
kevés	2187
##jegy	2188
##aki	2189
energ	2190
##országban	2191
érdem	2192
éj	2193
##örgy	2194
##vezető	2195
műsor	2196
##ron	2197
hangsúly	2198
##ennyi	2199
akad	2200
##védelmi	2201
ével	2202
##ört	2203
továbbra	2204
##elek	2205
befekt	2206
délután	2207
helyszín	2208
##erős	2209
##ind	2210
tudja	2211
new	2212
##endég	2213
előre	2214
##asztal	2215
szok	2216
teljesen	2217
ro	2218
nyit	2219
##zó	2220
##ekben	2221
##iss	2222
##ilis	2223
##endő	2224
gyeng	2225
mégis	2226
része	2227
vonatkoz	2228
feltétel	2229
rek	2230
tev	2231
tév	2232
##ná	2233
olimp	2234
##hetetlen	2235
amelynek	2236
##ással	2237
szakember	2238
karács	2239
##gal	2240
##ítvány	2241
fők	2242
vik	2243
##izet	2244
karácsony	2245
lel	2246
vendég	2247
vizsgál	2248
mindk	2249
semmi	2250
##szolg	2251
hogyan	2252
gör	2253
##ézet	2254
##ona	2255
mel	2256
##orban	2257
##ay	2258
##uz	2259
##bert	2260
##enger	2261
román	2262
bér	2263
##ics	2264
áld	2265
gyógy	2266
##asznál	2267
##encs	2268
szent	2269
nyel	2270
legyen	2271
györgy	2272
fegy	2273
##pal	2274
szocial	2275
##lak	2276
különös	2277
alig	2278
szükséges	2279
mindenki	2280
##rány	2281
eszköz	2282
##akat	2283
lem	2284
##gr	2285
állás	2286
jános	2287
sőt	2288
előző	2289
értelm	2290
##nyit	2291
ik	2292
újság	2293
##anyag	2294
csup	2295
##man	2296
szövetség	2297
választás	2298
többi	2299
labd	2300
##íti	2301
li	2302
##ához	2303
##urg	2304
##állal	2305
összesen	2306
szlovák	2307
##mun	2308
valami	2309
##ébe	2310
szenv	2311
csökken	2312
kamp	2313
##line	2314
bemut	2315
idei	2316
ráadás	2317
dok	2318
független	2319
vagyis	2320
haszn	2321
kutatás	2322
kapcsolatban	2323
ill	2324
sel	2325
kock	2326
ró	2327
fed	2328
##gazd	2329
fővárosi	2330
##ton	2331
demok	2332
gyűjt	2333
cent	2334
ápr	2335
##ezer	2336
országgyű	2337
ők	2338
##ották	2339
kevesebb	2340
javaslat	2341
##határ	2342
egyesült	2343
köszön	2344
termék	2345
vele	2346
döntés	2347
let	2348
ekkel	2349
jelenlegi	2350
pénzügyi	2351
tulajdonos	2352
kiem	2353
gr	2354
vezér	2355
kel	2356
##dönt	2357
ráadásul	2358
szerepel	2359
##la	2360
gyanús	2361
akt	2362
rendőrök	2363
##co	2364
##árs	2365
##ept	2366
íg	2367
##ga	2368
közvet	2369
hav	2370
##enet	2371
kísér	2372
.,	2373
##ándor	2374
zrt	2375
polgármester	2376
szolgáltatás	2377
szék	2378
tanulmány	2379
28	2380
vet	2381
ülés	2382
##gép	2383
##vát	2384
##isták	2385
##íció	2386
elkövet	2387
kampány	2388
április	2389
mad	2390
##tr	2391
száma	2392
kelet	2393
##lós	2394
épület	2395
##áig	2396
##atták	2397
je	2398
tűn	2399
szerencs	2400
##eken	2401
épít	2402
csupán	2403
oda	2404
kellene	2405
esetben	2406
met	2407
##ukat	2408
modell	2409
kics	2410
forr	2411
feladat	2412
##avar	2413
##hetően	2414
benne	2415
forintos	2416
segítség	2417
##ilk	2418
##ügyminiszt	2419
zolt	2420
súlyos	2421
list	2422
online	2423
##nev	2424
megk	2425
érvény	2426
##jának	2427
elsős	2428
ére	2429
##izmus	2430
##több	2431
tamás	2432
elfogad	2433
med	2434
##fa	2435
##pénz	2436
utas	2437
##üt	2438
szeretn	2439
pill	2440
##uta	2441
##atta	2442
küz	2443
##acsony	2444
##jét	2445
##társ	2446
óra	2447
##port	2448
számos	2449
##elni	2450
cikk	2451
mög	2452
meglep	2453
##apitányság	2454
elsősorban	2455
##mai	2456
##efon	2457
##ségek	2458
had	2459
pal	2460
##jed	2461
##ométer	2462
állt	2463
bkv	2464
méter	2465
##ái	2466
##zik	2467
angol	2468
elkép	2469
ell	2470
okoz	2471
jobban	2472
horvát	2473
tudomány	2474
vide	2475
héten	2476
szül	2477
európa	2478
##ságot	2479
indok	2480
##jon	2481
##urcs	2482
százaléka	2483
legtöbb	2484
indult	2485
látog	2486
alkalmaz	2487
##ce	2488
##cel	2489
lény	2490
nők	2491
sv	2492
tur	2493
lengyel	2494
##ulat	2495
írta	2496
intézmény	2497
egyed	2498
##folyam	2499
tevékeny	2500
választási	2501
tagja	2502
mol	2503
to	2504
##ázs	2505
döntött	2506
osztály	2507
zoltán	2508
nemcsak	2509
nyí	2510
szempont	2511
jön	2512
##jából	2513
##kív	2514
arany	2515
##ers	2516
##ánc	2517
csom	2518
viktor	2519
kocs	2520
##illió	2521
##hatja	2522
##ítása	2523
áról	2524
ellát	2525
##adék	2526
szerinte	2527
##áni	2528
seb	2529
##ecs	2530
na	2531
tél	2532
##éssel	2533
##olja	2534
állapot	2535
##íp	2536
##ilag	2537
idej	2538
bárm	2539
csin	2540
érdekében	2541
##rá	2542
intézked	2543
darab	2544
mester	2545
##ly	2546
##kívül	2547
vér	2548
##df	2549
minisztérium	2550
##átor	2551
##akció	2552
évi	2553
hajt	2554
buk	2555
hí	2556
sh	2557
szez	2558
##álló	2559
lig	2560
##mi	2561
##szi	2562
folytat	2563
##ark	2564
kialak	2565
kilenc	2566
##vonal	2567
tapasztal	2568
látt	2569
felé	2570
kan	2571
maradt	2572
uniós	2573
##ansz	2574
írt	2575
##ismer	2576
##elmű	2577
józs	2578
esemény	2579
kínai	2580
húz	2581
jött	2582
ék	2583
élő	2584
fű	2585
ítél	2586
un	2587
##tatott	2588
##jú	2589
##tag	2590
35	2591
gar	2592
jutott	2593
eh	2594
##zott	2595
##ezik	2596
##okon	2597
tet	2598
összes	2599
##ármaz	2600
##gatás	2601
ezelőtt	2602
##ball	2603
##ezi	2604
szakasz	2605
képes	2606
kárt	2607
##odás	2608
##függ	2609
##ólag	2610
##igazgató	2611
31	2612
kiz	2613
különböző	2614
király	2615
##mag	2616
29	2617
lass	2618
##ork	2619
hozzátette	2620
tömeg	2621
ahhoz	2622
##eztek	2623
var	2624
##elők	2625
2006	2626
##oha	2627
eljárás	2628
pi	2629
elején	2630
kik	2631
##ca	2632
gyakorlat	2633
##jekt	2634
##uló	2635
akció	2636
női	2637
##özben	2638
változat	2639
##féle	2640
külföldi	2641
teljesítmény	2642
du	2643
##atos	2644
##asági	2645
nőtt	2646
származ	2647
kft	2648
addig	2649
##által	2650
lényeg	2651
##éni	2652
##zetes	2653
vág	2654
ében	2655
##omás	2656
##veszt	2657
mdf	2658
##ileg	2659
##ókat	2660
lakás	2661
andrás	2662
##fer	2663
szombaton	2664
józsef	2665
kov	2666
szerk	2667
valaki	2668
mély	2669
hid	2670
lő	2671
##hatnak	2672
valószínűleg	2673
45	2674
##atni	2675
hir	2676
##ument	2677
vagyok	2678
##enci	2679
munkat	2680
##okkal	2681
közötti	2682
futball	2683
sim	2684
lehetett	2685
keresztül	2686
mal	2687
##evő	2688
beruház	2689
kilométer	2690
alacsony	2691
##szabad	2692
##lus	2693
becs	2694
ideg	2695
kerület	2696
értes	2697
the	2698
település	2699
##ésére	2700
##fl	2701
##ozni	2702
##észeti	2703
honlap	2704
dokument	2705
sokat	2706
##álás	2707
##ékony	2708
módon	2709
auszt	2710
kup	2711
mon	2712
ég	2713
terh	2714
sziget	2715
szezon	2716
mai	2717
##fit	2718
közé	2719
korlát	2720
attil	2721
görög	2722
szal	2723
##nyire	2724
##ésre	2725
jármű	2726
húsz	2727
tém	2728
színész	2729
titk	2730
##ozik	2731
ág	2732
##ina	2733
szű	2734
teszt	2735
egykori	2736
rendkívül	2737
látható	2738
sándor	2739
egyért	2740
##tatási	2741
##ocsát	2742
esetében	2743
azóta	2744
her	2745
miközben	2746
nyelv	2747
##iában	2748
##rál	2749
részvény	2750
közep	2751
természetesen	2752
rak	2753
##víz	2754
katon	2755
egyértelmű	2756
##erte	2757
nehez	2758
költségvetési	2759
csúcs	2760
adatok	2761
érdeklő	2762
##attal	2763
forgalom	2764
##titk	2765
##uális	2766
##cz	2767
sváj	2768
lond	2769
ve	2770
##száz	2771
megny	2772
tartó	2773
működ	2774
kiderült	2775
pontos	2776
mező	2777
felhasznál	2778
##óg	2779
tenger	2780
jellem	2781
senki	2782
ák	2783
##össz	2784
felső	2785
gal	2786
od	2787
vegy	2788
kiad	2789
kezdemény	2790
krit	2791
com	2792
szept	2793
mindent	2794
média	2795
szóvivője	2796
szeptember	2797
lakosság	2798
valóban	2799
önkormányzat	2800
60	2801
2007	2802
árfolyam	2803
döntő	2804
ehhez	2805
nö	2806
azokat	2807
kommun	2808
##ettel	2809
##iskol	2810
bra	2811
##eteg	2812
vagyon	2813
többször	2814
hagyomány	2815
években	2816
##énk	2817
csill	2818
nevű	2819
bék	2820
##van	2821
ka	2822
##ekv	2823
ob	2824
##ente	2825
deb	2826
pál	2827
ekkor	2828
koll	2829
##ásra	2830
sokan	2831
megjelent	2832
##örös	2833
ához	2834
végzett	2835
##ler	2836
előny	2837
támad	2838
költségvetés	2839
elképzel	2840
##mond	2841
napon	2842
##ósság	2843
érkezett	2844
napi	2845
vad	2846
##ntart	2847
fogalmazott	2848
hatalmas	2849
rög	2850
bo	2851
bb	2852
eszt	2853
őt	2854
sajt	2855
csomag	2856
forrás	2857
azonnal	2858
##pály	2859
század	2860
pénzt	2861
cseh	2862
unió	2863
feny	2864
##üntetés	2865
olvasható	2866
szombat	2867
##ágy	2868
##óri	2869
utal	2870
testület	2871
##jeszt	2872
##sért	2873
##hatatlan	2874
biztonsági	2875
kapcsolatos	2876
született	2877
mögött	2878
esett	2879
választások	2880
mindkét	2881
assz	2882
car	2883
##emt	2884
##ízió	2885
ingatlan	2886
hird	2887
tudott	2888
##anszír	2889
járt	2890
éről	2891
##szabály	2892
vonatkozó	2893
jég	2894
##erő	2895
korr	2896
idején	2897
bot	2898
##űnt	2899
kormányz	2900
hivatalos	2901
kicsit	2902
erősö	2903
##éhez	2904
##ata	2905
államok	2906
bajnokság	2907
növel	2908
felett	2909
akit	2910
##szervezet	2911
igazság	2912
##kör	2913
ügyész	2914
##ung	2915
teszi	2916
elekt	2917
kérd	2918
cégek	2919
jának	2920
mob	2921
##szó	2922
##ítése	2923
##álták	2924
hamar	2925
##rák	2926
##elen	2927
##ism	2928
telefon	2929
várhatóan	2930
ából	2931
feket	2932
megjel	2933
mondja	2934
tehet	2935
kifej	2936
robb	2937
##utó	2938
fu	2939
előbb	2940
erről	2941
fejlő	2942
távol	2943
többek	2944
kapus	2945
tudni	2946
tartja	2947
fizetés	2948
régi	2949
juk	2950
laj	2951
sí	2952
sta	2953
ebből	2954
beszélt	2955
dokumentum	2956
magyaráz	2957
örök	2958
megbíz	2959
évt	2960
##éves	2961
kataszt	2962
##andó	2963
óri	2964
##enz	2965
működés	2966
32	2967
bőv	2968
múl	2969
##olog	2970
jelentkez	2971
harc	2972
##műkö	2973
tenni	2974
##rán	2975
##eum	2976
##zők	2977
szob	2978
mindössz	2979
park	2980
fotó	2981
##ran	2982
szom	2983
##ítottak	2984
visszat	2985
##str	2986
kol	2987
tudta	2988
198	2989
mil	2990
##sem	2991
együttműkö	2992
legut	2993
ellenzék	2994
zsolt	2995
pet	2996
##elked	2997
##arúg	2998
férfit	2999
labdarúg	3000
attila	3001
zöld	3002
##lési	3003
##ux	3004
##fok	3005
meghatár	3006
##rec	3007
küzd	3008
akart	3009
ügyben	3010
##éből	3011
##nyal	3012
mindössze	3013
svéd	3014
tartalmaz	3015
pálya	3016
gen	3017
##érd	3018
##cselek	3019
engedély	3020
különösen	3021
##anat	3022
felügy	3023
áldozat	3024
finanszír	3025
##ue	3026
##orn	3027
parlamenti	3028
##szerzés	3029
fegyver	3030
##kat	3031
##iter	3032
szereplő	3033
##urális	3034
##eznek	3035
fenntart	3036
##mp	3037
##nie	3038
idéz	3039
tájékoztatás	3040
bört	3041
vörös	3042
##millió	3043
frank	3044
sérülés	3045
szeged	3046
hull	3047
##zése	3048
szöv	3049
térség	3050
pé	3051
rád	3052
ész	3053
##döntő	3054
##zák	3055
##evízió	3056
országban	3057
folyamatosan	3058
##éve	3059
akinek	3060
tűnik	3061
rab	3062
##aba	3063
előzetes	3064
név	3065
##rid	3066
##ash	3067
ígér	3068
cl	3069
zaj	3070
haza	3071
főkapitányság	3072
##beli	3073
katasztró	3074
##alap	3075
##tatta	3076
író	3077
##részt	3078
szerzett	3079
level	3080
legf	3081
tudós	3082
##álta	3083
bűncselek	3084
máj	3085
##di	3086
##atja	3087
kore	3088
##bizt	3089
##olták	3090
##almat	3091
blog	3092
izra	3093
ei	3094
ett	3095
többet	3096
##sen	3097
##álja	3098
embert	3099
##áború	3100
projekt	3101
dolgozó	3102
hatóságok	3103
szét	3104
feleség	3105
edző	3106
fest	3107
##ípus	3108
mor	3109
politik	3110
##pár	3111
szil	3112
intézet	3113
eddigi	3114
fell	3115
annyira	3116
##nan	3117
bevétel	3118
##tól	3119
konz	3120
éjszak	3121
##des	3122
felmér	3123
menny	3124
dí	3125
kop	3126
##úra	3127
##ítják	3128
felvétel	3129
mobil	3130
tol	3131
éhez	3132
értékes	3133
miklós	3134
mat	3135
##lcs	3136
hétvég	3137
piaci	3138
többség	3139
esetén	3140
magyarországi	3141
módos	3142
figyelem	3143
szakmai	3144
energia	3145
hál	3146
it	3147
##ius	3148
##bil	3149
végig	3150
belső	3151
##ko	3152
##gyek	3153
lez	3154
##ian	3155
##iát	3156
##kó	3157
##ítették	3158
demokrat	3159
egyéni	3160
befoly	3161
ii	3162
##hetnek	3163
pályáz	3164
##ői	3165
##csap	3166
jövőre	3167
##pénztár	3168
jap	3169
megelő	3170
##ized	3171
##nökség	3172
egészségügyi	3173
busz	3174
##úttal	3175
##élés	3176
forin	3177
##kalom	3178
jogszabály	3179
évtized	3180
##vá	3181
módszer	3182
hosszabb	3183
nyilvánosság	3184
meleg	3185
##ie	3186
kateg	3187
jelenti	3188
fo	3189
##jen	3190
központi	3191
##olcs	3192
börtön	3193
munkav	3194
egymás	3195
ölt	3196
##őd	3197
##ham	3198
##elmet	3199
80	3200
alkalom	3201
##ünet	3202
megjelen	3203
##cc	3204
##ke	3205
szex	3206
hangsúlyozta	3207
japán	3208
york	3209
idős	3210
##attak	3211
bíz	3212
##ozza	3213
##őket	3214
la	3215
sért	3216
menet	3217
beszéd	3218
televízió	3219
fizet	3220
##bel	3221
##ancs	3222
##ama	3223
budapesten	3224
felül	3225
időben	3226
hírek	3227
szabadság	3228
##úzeum	3229
óv	3230
jogi	3231
negyedik	3232
győzt	3233
ellent	3234
rang	3235
vette	3236
##burg	3237
csod	3238
azonos	3239
##vált	3240
győr	3241
szigor	3242
##ián	3243
##vér	3244
kezelés	3245
mostani	3246
zen	3247
tudom	3248
emberi	3249
rendezvény	3250
érdemes	3251
ger	3252
##ya	3253
##emi	3254
részét	3255
általában	3256
##ológiai	3257
kísérlet	3258
sajtót	3259
osztrák	3260
szocialista	3261
forinttal	3262
mos	3263
##onal	3264
holland	3265
##osabb	3266
egyedül	3267
kovács	3268
fekete	3269
múzeum	3270
minőség	3271
szabó	3272
eredmények	3273
##ry	3274
ezeket	3275
##nyug	3276
##ájuk	3277
prod	3278
tervezett	3279
környék	3280
zavar	3281
küld	3282
##vári	3283
történelmi	3284
svájci	3285
lajos	3286
egyáltal	3287
takar	3288
egyáltalán	3289
500	3290
kont	3291
op	3292
bizonyos	3293
újságíró	3294
##ódó	3295
hivatkoz	3296
kényszer	3297
típus	3298
amelyben	3299
vir	3300
pat	3301
##úgy	3302
folyó	3303
kötelező	3304
fenyeg	3305
##raj	3306
##ügyminiszter	3307
gyurcs	3308
nyilatkozta	3309
mich	3310
kötött	3311
tv	3312
##edik	3313
prof	3314
##fordul	3315
következt	3316
hő	3317
munkahely	3318
##polgár	3319
mennyiség	3320
36	3321
változás	3322
##kodás	3323
hideg	3324
vagyunk	3325
##irat	3326
soha	3327
##mar	3328
##elik	3329
##oknak	3330
real	3331
pontosan	3332
33	3333
népszerű	3334
gyurcsány	3335
agy	3336
pil	3337
szerb	3338
évre	3339
##idő	3340
épp	3341
tim	3342
számító	3343
ös	3344
amennyi	3345
található	3346
##pl	3347
olaj	3348
##írt	3349
érzék	3350
##üket	3351
kormányfő	3352
tűzolt	3353
szav	3354
általános	3355
##ódott	3356
fenn	3357
##br	3358
zárt	3359
##nos	3360
győ	3361
török	3362
rádió	3363
300	3364
agg	3365
tra	3366
##élt	3367
##lenül	3368
##ity	3369
gyilk	3370
##állás	3371
##ultak	3372
sérült	3373
##ota	3374
egészen	3375
őrizet	3376
mes	3377
mikor	3378
##gyen	3379
##ésben	3380
##alma	3381
va	3382
##ukció	3383
beszám	3384
szánd	3385
löv	3386
##elték	3387
90	3388
hegy	3389
##ellett	3390
debrec	3391
##edés	3392
##ázis	3393
igazi	3394
meghal	3395
stabil	3396
igyek	3397
##dolg	3398
##titkár	3399
##éig	3400
csatlak	3401
##rét	3402
konk	3403
érintett	3404
figyelmet	3405
május	3406
af	3407
civ	3408
##jut	3409
jét	3410
##ros	3411
kiállítás	3412
##sági	3413
állat	3414
labdarúgó	3415
elé	3416
erd	3417
jóval	3418
jöved	3419
alakul	3420
gyerekek	3421
büntető	3422
kutatók	3423
tők	3424
minős	3425
go	3426
ph	3427
##rak	3428
ítélet	3429
színház	3430
kos	3431
##eltek	3432
szöveg	3433
##vi	3434
megerős	3435
hozott	3436
friss	3437
vidék	3438
dolog	3439
##prób	3440
helyre	3441
##ontosabb	3442
legfontosabb	3443
kemény	3444
pénztár	3445
##tter	3446
csillag	3447
70	3448
##izetés	3449
maguk	3450
igazgatója	3451
##nevezett	3452
láb	3453
fogja	3454
lesznek	3455
bevezet	3456
##ású	3457
dip	3458
nekik	3459
reform	3460
magasabb	3461
##hajt	3462
civil	3463
cig	3464
poszt	3465
vitt	3466
attól	3467
kulturális	3468
társadalom	3469
bek	3470
papír	3471
tudják	3472
##de	3473
##lét	3474
##éri	3475
##oltak	3476
vállalat	3477
kereskedelmi	3478
kab	3479
lop	3480
tavalyi	3481
érvényes	3482
szár	3483
faj	3484
he	3485
##dsz	3486
kiadás	3487
lehetne	3488
##lám	3489
asszony	3490
sztr	3491
téli	3492
34	3493
hű	3494
frakció	3495
társadalmi	3496
diplom	3497
##viz	3498
##kocs	3499
##őzs	3500
##dp	3501
##ast	3502
repül	3503
##utas	3504
jú	3505
adta	3506
mintha	3507
igazán	3508
családi	3509
szándék	3510
növekedés	3511
lmp	3512
mo	3513
##bo	3514
infl	3515
##eztet	3516
##ájékoztató	3517
ló	3518
me	3519
##kék	3520
leh	3521
##berg	3522
##rendszer	3523
diák	3524
médi	3525
ellenőrzés	3526
##ekre	3527
áram	3528
írás	3529
aszt	3530
részben	3531
nappal	3532
eredeti	3533
találtak	3534
együttműködés	3535
bul	3536
géz	3537
##vét	3538
egyház	3539
##ack	3540
##jön	3541
##áns	3542
tényleg	3543
vb	3544
##akor	3545
##kezd	3546
harmad	3547
##tuk	3548
##zelem	3549
játszott	3550
hány	3551
ruh	3552
kib	3553
készített	3554
módosítás	3555
jövőben	3556
arc	3557
kamat	3558
##szabadság	3559
kijelent	3560
kiss	3561
##igo	3562
str	3563
##járás	3564
fiú	3565
sajtótájékoztató	3566
reng	3567
regény	3568
internetes	3569
##bé	3570
##írás	3571
hátt	3572
tib	3573
amíg	3574
tartóz	3575
kétszer	3576
vége	3577
##nőtt	3578
szell	3579
megoldás	3580
net	3581
##rég	3582
##fér	3583
ezr	3584
úton	3585
eleg	3586
havi	3587
##ekvő	3588
eny	3589
gl	3590
szerda	3591
##ájában	3592
hasonlóan	3593
joh	3594
est	3595
antik	3596
bok	3597
##ezz	3598
##adta	3599
##országi	3600
fideszes	3601
vezérigazgató	3602
afr	3603
hátrány	3604
pillanat	3605
bő	3606
kul	3607
##ezők	3608
##örvény	3609
ismeretlen	3610
tevékenység	3611
##állam	3612
célja	3613
szociális	3614
szenved	3615
##nyel	3616
szolgálat	3617
hallg	3618
partner	3619
37	3620
##lék	3621
utaz	3622
##ratég	3623
eb	3624
remény	3625
##nia	3626
temp	3627
duna	3628
géza	3629
pak	3630
##si	3631
kölcs	3632
##ítva	3633
00	3634
csaknem	3635
stat	3636
jelentősen	3637
várt	3638
várak	3639
úgynevezett	3640
járó	3641
ft	3642
husz	3643
##var	3644
nyár	3645
benz	3646
nyugat	3647
##ológus	3648
del	3649
nk	3650
##ötte	3651
délelőtt	3652
##osztály	3653
sar	3654
tü	3655
##bíró	3656
##keres	3657
##éseket	3658
országok	3659
bü	3660
pót	3661
ennél	3662
részes	3663
sajnos	3664
hajnal	3665
fáj	3666
mosz	3667
##már	3668
##állt	3669
legink	3670
leginkább	3671
##álaszt	3672
napokban	3673
lőtt	3674
ere	3675
mindez	3676
co	3677
origo	3678
tudnak	3679
idegen	3680
pir	3681
legk	3682
harminc	3683
kötet	3684
visszatér	3685
magyarok	3686
köztük	3687
puszt	3688
##erv	3689
terjed	3690
közlekedési	3691
segítségével	3692
tagjai	3693
##műv	3694
##ror	3695
##valós	3696
belől	3697
országgyűlés	3698
hálóz	3699
bold	3700
munkát	3701
stratég	3702
életét	3703
##oldali	3704
győzelem	3705
jutt	3706
##szint	3707
fizetni	3708
olimpiai	3709
kanad	3710
kollég	3711
űr	3712
##mad	3713
többen	3714
alkalmazott	3715
levél	3716
bu	3717
##jára	3718
##itel	3719
érdekes	3720
negyedév	3721
íz	3722
##io	3723
##áci	3724
adósság	3725
gyógyszer	3726
londoni	3727
braz	3728
sztráj	3729
##ere	3730
##ilap	3731
legfel	3732
.:	3733
aug	3734
jon	3735
sár	3736
##dék	3737
##ésével	3738
állampolgár	3739
illeték	3740
helyettes	3741
##szem	3742
##átum	3743
közön	3744
##nai	3745
szol	3746
megvalós	3747
##izál	3748
kod	3749
tisz	3750
támadás	3751
jogos	3752
lenni	3753
régió	3754
kategóri	3755
##usztus	3756
pest	3757
##ax	3758
műszak	3759
önkormányzati	3760
állítólag	3761
száml	3762
méret	3763
ipar	3764
munkatárs	3765
kommunik	3766
##sák	3767
##áris	3768
197	3769
köszönhetően	3770
ep	3771
##tunk	3772
ev	3773
##élkül	3774
ügyvéd	3775
időt	3776
szinten	3777
max	3778
férfiak	3779
egyesület	3780
##itív	3781
##ula	3782
##nius	3783
kapu	3784
esetleg	3785
jelleg	3786
liter	3787
##mut	3788
minim	3789
nekem	3790
reag	3791
eredet	3792
hord	3793
font	3794
átalak	3795
sors	3796
együttes	3797
mentő	3798
országgyűlési	3799
házas	3800
júl	3801
láz	3802
##akt	3803
köztárs	3804
tök	3805
keretében	3806
##párt	3807
##olják	3808
##íték	3809
##edes	3810
felnőtt	3811
##felé	3812
körülbel	3813
gyakran	3814
drág	3815
körülbelül	3816
pa	3817
##ársa	3818
vereség	3819
lakó	3820
portál	3821
táb	3822
##mód	3823
##nes	3824
##vállal	3825
tudjuk	3826
emelkedett	3827
##tartás	3828
győztes	3829
főleg	3830
##iket	3831
##ítható	3832
##iméter	3833
##képpen	3834
használt	3835
futam	3836
rév	3837
hírügy	3838
alkotmánybíró	3839
június	3840
ötö	3841
gólt	3842
gyorsan	3843
szolgáltató	3844
kockázat	3845
édes	3846
##olf	3847
##ozók	3848
tit	3849
főszer	3850
##várium	3851
oper	3852
sincs	3853
elkész	3854
megf	3855
forintra	3856
##uper	3857
##kodó	3858
rajta	3859
megfelelően	3860
boldog	3861
##ey	3862
##ped	3863
##onttal	3864
mutató	3865
létrehoz	3866
remek	3867
befolyás	3868
000	3869
##ódik	3870
forma	3871
heti	3872
kd	3873
##öny	3874
##ivat	3875
védelm	3876
alkalommal	3877
bors	3878
ge	3879
gdp	3880
élt	3881
elb	3882
hom	3883
ától	3884
pályán	3885
##rom	3886
ezúttal	3887
gu	3888
lov	3889
##üst	3890
hiába	3891
őrizetbe	3892
dal	3893
##kan	3894
megtal	3895
beszélg	3896
felhív	3897
##érte	3898
szakszervezet	3899
mértékben	3900
jellemző	3901
##etők	3902
##elvény	3903
##abban	3904
##házy	3905
kezdett	3906
politika	3907
##ővé	3908
kin	3909
##tan	3910
helyet	3911
##onz	3912
kapitány	3913
annyit	3914
vonal	3915
éből	3916
közz	3917
##artóz	3918
##ris	3919
##jebb	3920
nemrég	3921
néző	3922
százalékát	3923
művész	3924
norm	3925
amennyiben	3926
rengeteg	3927
érte	3928
működik	3929
kedvező	3930
tiltak	3931
antikvárium	3932
rag	3933
csaba	3934
emellett	3935
tartani	3936
választók	3937
mened	3938
előtti	3939
sk	3940
ideje	3941
##szich	3942
75	3943
##polit	3944
##era	3945
##abda	3946
##ültek	3947
biztosan	3948
##prém	3949
ausztrál	3950
sztrájk	3951
##jával	3952
##eri	3953
minél	3954
tartják	3955
##ölcs	3956
kapcsán	3957
rendező	3958
deviz	3959
összefügg	3960
##úti	3961
kerék	3962
nyugati	3963
kötelezett	3964
##fokú	3965
enyh	3966
pszich	3967
##álisan	3968
hangulat	3969
védő	3970
lehetőséget	3971
letartóz	3972
fül	3973
erőszak	3974
##perc	3975
egyszerűen	3976
if	3977
##okra	3978
##amos	3979
mindenk	3980
körében	3981
195	3982
műszaki	3983
venni	3984
##enn	3985
mire	3986
olcs	3987
emi	3988
lehetővé	3989
államtitkár	3990
pozíció	3991
madrid	3992
teremt	3993
55	3994
##kezett	3995
hatékony	3996
munkan	3997
lépett	3998
könnyű	3999
eszközök	4000
augusztus	4001
gra	4002
isz	4003
rák	4004
vették	4005
befektetés	4006
##veg	4007
megszer	4008
másfél	4009
továbbá	4010
##fogás	4011
veszprém	4012
védek	4013
akadály	4014
##ereg	4015
##ítási	4016
eltér	4017
av	4018
of	4019
ába	4020
repülő	4021
kevésbé	4022
kormányzati	4023
ült	4024
szokás	4025
tudományos	4026
fa	4027
##től	4028
közgyű	4029
ov	4030
##ítását	4031
hírügynökség	4032
##énnyel	4033
sokszor	4034
kocsi	4035
##faj	4036
##árólag	4037
gyanú	4038
ideig	4039
múlva	4040
fesz	4041
ritk	4042
##egő	4043
felv	4044
számol	4045
károly	4046
megvált	4047
remél	4048
##ini	4049
köv	4050
napja	4051
látvány	4052
kezdet	4053
büntetés	4054
##méter	4055
magam	4056
alapvet	4057
kölcsön	4058
emiatt	4059
42	4060
##tlen	4061
címkék	4062
körülmények	4063
##ij	4064
eső	4065
egymást	4066
résztv	4067
##köny	4068
hozta	4069
imre	4070
vállalkozás	4071
ügyészség	4072
nyilvánosságra	4073
mart	4074
megyében	4075
közösségi	4076
izg	4077
lemond	4078
kizárólag	4079
készít	4080
pozitív	4081
##gazdasági	4082
dom	4083
ötlet	4084
##ine	4085
##ától	4086
valós	4087
hamis	4088
konkrét	4089
km	4090
évente	4091
##hatóság	4092
##óth	4093
óriási	4094
szakértők	4095
##szolgált	4096
szenvedett	4097
botrány	4098
col	4099
ton	4100
felelősség	4101
tibor	4102
eur	4103
##űr	4104
##zat	4105
##org	4106
##esi	4107
##odott	4108
indított	4109
##foglal	4110
folytató	4111
médiat	4112
dav	4113
##ílus	4114
érz	4115
okozott	4116
lehetséges	4117
bajnoki	4118
panasz	4119
##einek	4120
##ására	4121
megprób	4122
feljelent	4123
barcel	4124
portug	4125
##séklet	4126
38	4127
pontot	4128
működő	4129
probléma	4130
nyílt	4131
lista	4132
meggy	4133
##takar	4134
városi	4135
körüli	4136
megkérd	4137
por	4138
##wi	4139
gazdag	4140
komment	4141
ellentét	4142
tar	4143
gyár	4144
balázs	4145
kérte	4146
munkavállal	4147
fc	4148
ur	4149
képzés	4150
díjat	4151
tárgyalás	4152
július	4153
akkori	4154
balaton	4155
vezetői	4156
versenyző	4157
iskola	4158
veszteség	4159
portugál	4160
kur	4161
szdsz	4162
##ányi	4163
##ust	4164
nagyjából	4165
kiváló	4166
##harmad	4167
##uzs	4168
##ttel	4169
ezután	4170
keddi	4171
spe	4172
európában	4173
tervek	4174
szerdai	4175
##mérséklet	4176
reklám	4177
vaj	4178
látszik	4179
képviselők	4180
ukat	4181
fejlesztési	4182
alkotmánybíróság	4183
mindegy	4184
ingyen	4185
##ebben	4186
határozat	4187
szakemberek	4188
sa	4189
##np	4190
196	4191
kulcs	4192
számolt	4193
vezetett	4194
mérsék	4195
##ael	4196
napilap	4197
alkalmas	4198
menek	4199
tavasz	4200
betegség	4201
derül	4202
ellenzéki	4203
statiszt	4204
egyben	4205
felf	4206
magaz	4207
szerepelt	4208
roma	4209
szabályozás	4210
adatai	4211
400	4212
ly	4213
##ráció	4214
másodperc	4215
elemző	4216
ipari	4217
elkövetett	4218
repülőt	4219
lo	4220
tartozik	4221
eurót	4222
oldalon	4223
korrup	4224
fl	4225
##széd	4226
##ektor	4227
nevezte	4228
##ológia	4229
ajánlat	4230
gyanúsított	4231
tóth	4232
##ukt	4233
jelentés	4234
szerepet	4235
rich	4236
valóság	4237
házi	4238
ötven	4239
déli	4240
rekord	4241
bűncselekmény	4242
miskol	4243
##áf	4244
##ébb	4245
terror	4246
tartozó	4247
olvasó	4248
interjú	4249
szomszéd	4250
far	4251
lend	4252
rejt	4253
##jének	4254
szur	4255
ren	4256
##ényi	4257
ajándék	4258
jával	4259
tábor	4260
visszav	4261
tökélet	4262
bél	4263
képesség	4264
##osszabb	4265
elnökség	4266
##zió	4267
szé	4268
##bank	4269
felkész	4270
##rab	4271
hatály	4272
##élyes	4273
világh	4274
elmar	4275
keresztény	4276
rögz	4277
bur	4278
kelt	4279
##rész	4280
keleti	4281
híd	4282
elektron	4283
ür	4284
##alk	4285
évig	4286
adni	4287
tartomány	4288
élelmi	4289
igazgatóság	4290
vádlott	4291
gener	4292
##ódi	4293
stílus	4294
mennyi	4295
közelében	4296
népszabadság	4297
alakult	4298
révén	4299
viz	4300
megjegy	4301
##onyol	4302
nélküli	4303
élelmiszer	4304
kecs	4305
rel	4306
##hetett	4307
kapta	4308
norvég	4309
koncent	4310
robban	4311
afg	4312
megrend	4313
kies	4314
ellenfel	4315
ugyancsak	4316
konfer	4317
területén	4318
vezette	4319
##polgármester	4320
din	4321
##ölgy	4322
járul	4323
valamennyi	4324
nyerte	4325
eljárást	4326
mutatja	4327
világbajnokság	4328
39	4329
hv	4330
angel	4331
amelyeket	4332
2005	4333
##eztetés	4334
biztosít	4335
percben	4336
szövetségi	4337
##kocsi	4338
fór	4339
##ezmény	4340
csúsz	4341
állandó	4342
##ukor	4343
##áján	4344
autós	4345
pártok	4346
szerződést	4347
fert	4348
sug	4349
##étől	4350
felsz	4351
végrehajt	4352
lassan	4353
koreai	4354
sáv	4355
benn	4356
százalékot	4357
művel	4358
halad	4359
széles	4360
wash	4361
hatalom	4362
majdnem	4363
iroda	4364
kultúr	4365
kerületi	4366
izraeli	4367
san	4368
##ons	4369
##való	4370
külső	4371
negyven	4372
semmit	4373
munkanélkül	4374
fac	4375
tünt	4376
esti	4377
állítja	4378
goog	4379
kdnp	4380
##úd	4381
elad	4382
alapítvány	4383
klassz	4384
öröm	4385
##essen	4386
katal	4387
mél	4388
sztár	4389
##chester	4390
sikeres	4391
hajland	4392
.),	4393
kórházba	4394
washing	4395
41	4396
mak	4397
##szerint	4398
##eztetett	4399
atom	4400
személyes	4401
vita	4402
szélső	4403
táp	4404
tőzs	4405
##öp	4406
szolgál	4407
könnyen	4408
hamarosan	4409
fejlődés	4410
tájékoztatása	4411
sm	4412
##pad	4413
csapata	4414
bolt	4415
mc	4416
som	4417
##ilm	4418
##ozást	4419
hozzáj	4420
ajánl	4421
káros	4422
átlagos	4423
közleményében	4424
horváth	4425
videó	4426
##nyugdíj	4427
ju	4428
szünet	4429
##ásával	4430
##hetik	4431
számú	4432
kriszt	4433
hvg	4434
google	4435
44	4436
dik	4437
##aránt	4438
egyaránt	4439
##ilt	4440
194	4441
##közel	4442
##közben	4443
üzleti	4444
manchester	4445
##bi	4446
##enként	4447
##und	4448
rajong	4449
szóvivő	4450
belőle	4451
mát	4452
árt	4453
szuper	4454
##ara	4455
kora	4456
mih	4457
kaptak	4458
szórak	4459
megállapodás	4460
birt	4461
helyszínen	4462
meglepetés	4463
fórum	4464
48	4465
jo	4466
jük	4467
##encia	4468
##ana	4469
építés	4470
ukrán	4471
önmag	4472
oroszország	4473
tűnt	4474
levegő	4475
##magas	4476
beruházás	4477
katonai	4478
januárban	4479
kockáz	4480
kiemelt	4481
hivatkozva	4482
john	4483
magazin	4484
bőr	4485
üket	4486
##hogy	4487
mellé	4488
történő	4489
pénteki	4490
fokozat	4491
különbség	4492
katasztróf	4493
ják	4494
##oks	4495
pályára	4496
lelk	4497
65	4498
fent	4499
gum	4500
messz	4501
##qu	4502
##ikk	4503
##ezése	4504
fognak	4505
szabolcs	4506
örül	4507
szegény	4508
kiderül	4509
dun	4510
ján	4511
olt	4512
##ésének	4513
megfi	4514
használat	4515
időszakban	4516
liber	4517
szerkeszt	4518
egyértelműen	4519
kő	4520
##vei	4521
autom	4522
énekes	4523
dollárt	4524
dísz	4525
roh	4526
##erület	4527
megint	4528
##uth	4529
különleges	4530
##védő	4531
üzenet	4532
hétfői	4533
nyilatkozat	4534
szeretnék	4535
sebesség	4536
pol	4537
vettek	4538
##ita	4539
##sszel	4540
közeli	4541
üzemelt	4542
szerkezet	4543
számítógép	4544
##ezhető	4545
mark	4546
párizs	4547
helyzetben	4548
azoknak	4549
centiméter	4550
folytatás	4551
anyagi	4552
varga	4553
hőmérséklet	4554
jában	4555
rét	4556
##ítik	4557
fele	4558
neve	4559
ilyenkor	4560
apró	4561
északi	4562
megn	4563
százalékra	4564
közönség	4565
háború	4566
zal	4567
##jog	4568
##ebo	4569
véletlen	4570
szervezetek	4571
##tér	4572
##jén	4573
##csoport	4574
inn	4575
akarja	4576
ud	4577
##zött	4578
##sh	4579
##sp	4580
jelöl	4581
plusz	4582
magánnyugdíj	4583
##dor	4584
felúj	4585
mennyire	4586
zsid	4587
csütörtöki	4588
piacon	4589
elérhető	4590
ötödik	4591
menedzs	4592
birtok	4593
kkal	4594
##atikus	4595
##ései	4596
##edék	4597
##men	4598
részén	4599
##ázó	4600
##elly	4601
2002	4602
2004	4603
dolgozott	4604
karri	4605
polgár	4606
##ötét	4607
43	4608
##janak	4609
##elyik	4610
##ítások	4611
rajz	4612
következtében	4613
cigány	4614
ti	4615
évet	4616
ügyében	4617
sikerül	4618
gyakorlatilag	4619
hagyományos	4620
benzin	4621
##esse	4622
kettő	4623
nyáron	4624
rob	4625
##amp	4626
számában	4627
magukat	4628
tőle	4629
kerültek	4630
isten	4631
töltött	4632
karácsonyi	4633
aktív	4634
bázis	4635
hum	4636
kert	4637
sof	4638
##tem	4639
##odik	4640
forrad	4641
ai	4642
da	4643
havaz	4644
hung	4645
sop	4646
szerintem	4647
mások	4648
államfő	4649
##tatni	4650
említett	4651
szűk	4652
legutóbbi	4653
speci	4654
káb	4655
##egész	4656
felfügg	4657
autót	4658
törvényt	4659
korrupció	4660
felfüggeszt	4661
cip	4662
hús	4663
kétharmad	4664
##kező	4665
összeh	4666
rendszert	4667
tették	4668
michael	4669
ágy	4670
előadás	4671
mondott	4672
ügyfel	4673
öreg	4674
49	4675
teg	4676
##nék	4677
##áltak	4678
indítvány	4679
merc	4680
koncert	4681
étel	4682
##átus	4683
##amb	4684
gyártó	4685
bán	4686
für	4687
neg	4688
##hang	4689
átv	4690
mondani	4691
vezetők	4692
hasonl	4693
fagy	4694
ros	4695
sújt	4696
##áért	4697
szed	4698
##egyen	4699
többsége	4700
ral	4701
so	4702
kettős	4703
szempontból	4704
szén	4705
közbe	4706
valah	4707
kellem	4708
fogják	4709
##ivál	4710
meghalt	4711
problémák	4712
nyitott	4713
szigorú	4714
tétel	4715
##tus	4716
##urt	4717
elker	4718
##adi	4719
irodalom	4720
források	4721
obama	4722
vadász	4723
máv	4724
##oznak	4725
szerű	4726
vall	4727
2000	4728
bizonytalan	4729
city	4730
szek	4731
##adók	4732
melyek	4733
andre	4734
brazil	4735
ste	4736
##af	4737
alelnök	4738
előfordul	4739
##hatják	4740
visszaes	4741
pályázat	4742
területen	4743
játszik	4744
##igazgatás	4745
demokrá	4746
##indul	4747
##nyt	4748
gazdál	4749
2012	4750
##ley	4751
kérdésre	4752
étől	4753
hallgató	4754
bemutató	4755
pk	4756
##orvos	4757
állnak	4758
okozta	4759
tartanak	4760
érdeklődés	4761
ígéret	4762
hozzájár	4763
hajd	4764
##car	4765
##szerző	4766
látja	4767
##rium	4768
érkező	4769
tilt	4770
hajlandó	4771
riv	4772
fogalmaz	4773
alkalm	4774
véli	4775
ismeret	4776
fordult	4777
álláspont	4778
észre	4779
letartóztatás	4780
közgyűlés	4781
tegnap	4782
46	4783
kg	4784
##járt	4785
##po	4786
##osok	4787
vezetés	4788
valójában	4789
gárd	4790
red	4791
voks	4792
állította	4793
jelezte	4794
közösség	4795
képviselői	4796
hold	4797
elismer	4798
##őlt	4799
adóz	4800
##lehet	4801
szocialisták	4802
bab	4803
megtakar	4804
ennyi	4805
##ence	4806
támogatást	4807
honlapján	4808
##váltás	4809
47	4810
sötét	4811
##nár	4812
##hol	4813
##elmes	4814
##ozása	4815
maxim	4816
agr	4817
mand	4818
##gó	4819
##erek	4820
##inál	4821
##ile	4822
jára	4823
ul	4824
vétel	4825
ázs	4826
öszt	4827
##fut	4828
##onc	4829
##nként	4830
##ítására	4831
verzió	4832
##jelölt	4833
brü	4834
futó	4835
rendelkező	4836
unit	4837
rendkívüli	4838
gyilkosság	4839
hálózat	4840
##könyv	4841
facebo	4842
bir	4843
közv	4844
válik	4845
tartalm	4846
létszám	4847
melyik	4848
dolgozik	4849
debrecen	4850
kibocsát	4851
56	4852
##ho	4853
##üm	4854
robert	4855
huszon	4856
eit	4857
ős	4858
old	4859
befej	4860
dolgozók	4861
veszélyes	4862
legfeljebb	4863
vágy	4864
leb	4865
hiba	4866
kezdte	4867
védelmi	4868
németország	4869
fölött	4870
##ügyminisztérium	4871
kifejezett	4872
ural	4873
##köt	4874
annál	4875
időjárás	4876
elemzés	4877
kezdődött	4878
hős	4879
elvég	4880
##sága	4881
velük	4882
kiter	4883
hétvégén	4884
felfed	4885
air	4886
rám	4887
##ered	4888
mellék	4889
mérleg	4890
abból	4891
önként	4892
rosszul	4893
tévé	4894
közepén	4895
koz	4896
web	4897
üd	4898
##han	4899
gyal	4900
ifjú	4901
mihály	4902
negatív	4903
ait	4904
mn	4905
##óban	4906
szel	4907
tudták	4908
látni	4909
időpont	4910
irán	4911
autók	4912
##ford	4913
találkozó	4914
ettől	4915
jos	4916
##árom	4917
kiegész	4918
véget	4919
##ebek	4920
bay	4921
testvér	4922
tanácsadó	4923
asztal	4924
dzs	4925
hev	4926
nat	4927
##jenek	4928
##enő	4929
##onyi	4930
utáni	4931
világos	4932
alatti	4933
autópály	4934
elemzők	4935
bejelentette	4936
pécs	4937
figyelembe	4938
gab	4939
si	4940
tető	4941
ugyanaz	4942
nyomán	4943
##kodik	4944
ismerős	4945
drog	4946
alacsonyabb	4947
##bev	4948
##ital	4949
végéig	4950
nálunk	4951
fiatalok	4952
származó	4953
mt	4954
##uver	4955
nyugdíjpénztár	4956
záró	4957
véleménye	4958
vasárnapi	4959
halálos	4960
főszerep	4961
fék	4962
jer	4963
tük	4964
##mán	4965
##özés	4966
##cion	4967
rendelet	4968
parancs	4969
védelem	4970
városban	4971
drám	4972
mindkett	4973
felmérés	4974
ösztön	4975
##aná	4976
##arc	4977
kivétel	4978
tanár	4979
döntetlen	4980
akiknek	4981
kilát	4982
szeretne	4983
csinál	4984
hullám	4985
lezár	4986
##edt	4987
éven	4988
körülmény	4989
győzelm	4990
közlekedés	4991
működt	4992
kijelentette	4993
karrier	4994
mercedes	4995
mért	4996
rúg	4997
tom	4998
ánál	4999
üveg	5000
##ood	5001
##újabb	5002
legújabb	5003
nagykövet	5004
##epció	5005
magunk	5006
ily	5007
##iós	5008
rec	5009
belvíz	5010
követő	5011
látsz	5012
csapatok	5013
kedves	5014
gát	5015
jö	5016
##vé	5017
##ogó	5018
##eje	5019
kapnak	5020
nekünk	5021
##ítást	5022
##ódás	5023
falu	5024
mesterházy	5025
előz	5026
bajnai	5027
filmet	5028
szólt	5029
berend	5030
intézmények	5031
médiatörvény	5032
járulék	5033
gerg	5034
wik	5035
will	5036
##ákban	5037
alsó	5038
személyi	5039
regiszt	5040
szabályok	5041
semmilyen	5042
értelmében	5043
##hagy	5044
##atórium	5045
tagállam	5046
lépés	5047
##földi	5048
##esszor	5049
dolláros	5050
légi	5051
viszonylag	5052
háttér	5053
ac	5054
bál	5055
megsér	5056
idők	5057
##kodott	5058
piros	5059
##vásár	5060
megegy	5061
##adott	5062
milliós	5063
miként	5064
szívesen	5065
előrejel	5066
united	5067
##ach	5068
##ze	5069
##olikus	5070
elkezd	5071
milliárdos	5072
##szol	5073
szán	5074
gyula	5075
előkész	5076
természetes	5077
bont	5078
lu	5079
lux	5080
páp	5081
##etése	5082
körzet	5083
hajó	5084
segély	5085
határozott	5086
szeretné	5087
hónapban	5088
meccsen	5089
##biztonság	5090
kifejezetten	5091
bé	5092
zene	5093
iránt	5094
történik	5095
támogató	5096
##allgatás	5097
britan	5098
induló	5099
művészet	5100
meglepő	5101
bbc	5102
mesél	5103
52	5104
ront	5105
sc	5106
##eknek	5107
##emét	5108
##esít	5109
##élemény	5110
##ovics	5111
beny	5112
támadó	5113
esetleges	5114
bizonyíték	5115
szoft	5116
aminek	5117
amúgy	5118
végére	5119
államokban	5120
születés	5121
békés	5122
##ellyel	5123
bak	5124
kém	5125
alkoh	5126
megye	5127
nincsenek	5128
tettek	5129
oldalán	5130
egyetért	5131
konzerv	5132
trag	5133
glob	5134
templom	5135
##ainak	5136
##kut	5137
szim	5138
érzés	5139
mégsem	5140
telek	5141
viselked	5142
élmény	5143
valamit	5144
nyomozás	5145
otp	5146
decemberben	5147
villamos	5148
nehezen	5149
pécsi	5150
times	5151
kék	5152
##jék	5153
szánt	5154
utat	5155
##iac	5156
várja	5157
legalábbis	5158
munkatársa	5159
tőke	5160
tisza	5161
dig	5162
##ozási	5163
rendőrk	5164
róla	5165
szerepl	5166
veszi	5167
szenny	5168
##anci	5169
##áng	5170
legend	5171
##asztás	5172
ütköz	5173
derült	5174
közvetlen	5175
dáv	5176
mont	5177
##ené	5178
megúj	5179
legfő	5180
oktatás	5181
kétség	5182
hatvan	5183
napján	5184
nevet	5185
összeget	5186
elérni	5187
megkap	5188
fellép	5189
legfőbb	5190
do	5191
po	5192
tanú	5193
váltó	5194
biztosító	5195
##városi	5196
hivatalosan	5197
foglalkozó	5198
finom	5199
vám	5200
úr	5201
kezel	5202
embereket	5203
közösen	5204
csatár	5205
tran	5206
kecsk	5207
rad	5208
eladás	5209
##iti	5210
##agóg	5211
##ellen	5212
valódi	5213
tartalék	5214
legyőz	5215
fejlesztés	5216
torn	5217
utca	5218
befektetők	5219
los	5220
ponttal	5221
##rád	5222
csend	5223
csőd	5224
tervezet	5225
négyzet	5226
kuty	5227
környezetvédelmi	5228
opt	5229
sofőr	5230
##jet	5231
##udi	5232
helyzetet	5233
imf	5234
információk	5235
szegedi	5236
dávid	5237
nb	5238
rt	5239
ád	5240
terjeszt	5241
találták	5242
koncepció	5243
elsz	5244
##ason	5245
feldolg	5246
legmagas	5247
szállod	5248
nyilatkozott	5249
ferr	5250
szempontjából	5251
méltó	5252
doh	5253
tánc	5254
szov	5255
##ovic	5256
főpolgármester	5257
fejl	5258
rendszeresen	5259
polgári	5260
modern	5261
##ismert	5262
##sztikus	5263
##adal	5264
korszak	5265
voltam	5266
konf	5267
##ublik	5268
tisztelet	5269
szervező	5270
##fk	5271
##ikában	5272
##ázott	5273
álm	5274
##esztivál	5275
##hatunk	5276
munkás	5277
##külön	5278
mutatott	5279
néha	5280
későbbi	5281
kupa	5282
sos	5283
tej	5284
adja	5285
küldött	5286
ponton	5287
képviselője	5288
teszik	5289
kivitel	5290
intézkedések	5291
közbeszerzés	5292
53	5293
jam	5294
##ox	5295
##éért	5296
##ins	5297
adtak	5298
utak	5299
komp	5300
orvosi	5301
pih	5302
kanadai	5303
bány	5304
hé	5305
áp	5306
##autó	5307
##álkoz	5308
##evők	5309
megállapod	5310
főként	5311
moszkv	5312
közzét	5313
ök	5314
##intézet	5315
##asztó	5316
amelyen	5317
látott	5318
csatorn	5319
merény	5320
készülék	5321
szolnok	5322
munkatársai	5323
fia	5324
katt	5325
##nének	5326
##elég	5327
##alás	5328
##ítettek	5329
nőt	5330
erősen	5331
furcs	5332
sejt	5333
vá	5334
##vek	5335
##ore	5336
##ezést	5337
##ségét	5338
közleményben	5339
demokratikus	5340
85	5341
cel	5342
##őző	5343
egyebek	5344
##ítél	5345
hitt	5346
##ájának	5347
##ítését	5348
##osztás	5349
órakor	5350
vásárl	5351
rivális	5352
legmagasabb	5353
fark	5354
ib	5355
pad	5356
tat	5357
us	5358
usa	5359
##ht	5360
csep	5361
miszerint	5362
történelem	5363
segítséget	5364
##lotta	5365
egymással	5366
fogadta	5367
afrikai	5368
david	5369
funk	5370
##zár	5371
##lány	5372
##part	5373
##isztán	5374
formában	5375
antal	5376
rendelkezik	5377
nyereség	5378
liberális	5379
top	5380
##ii	5381
##sereg	5382
##ülése	5383
150	5384
immár	5385
szakértő	5386
akadém	5387
szombathely	5388
virág	5389
bocsát	5390
kre	5391
##hatott	5392
részvétel	5393
mostan	5394
valamilyen	5395
##ökkent	5396
támogatott	5397
fűt	5398
no	5399
ser	5400
##ano	5401
##adja	5402
oktatási	5403
kerek	5404
élv	5405
kever	5406
kamer	5407
téren	5408
##ológi	5409
tekintet	5410
érintő	5411
nyújtott	5412
látogató	5413
mezőny	5414
washington	5415
sír	5416
táj	5417
##gent	5418
##dése	5419
##bor	5420
##aks	5421
alul	5422
##szerte	5423
járat	5424
##engés	5425
##szky	5426
vendégek	5427
róbert	5428
tapasztalat	5429
##mes	5430
adót	5431
idény	5432
tudtak	5433
bankok	5434
üzemanyag	5435
57	5436
mex	5437
tok	5438
száj	5439
azután	5440
nyak	5441
tárca	5442
##zések	5443
jóvá	5444
nyugdíjas	5445
teher	5446
hadsereg	5447
kabin	5448
bull	5449
fak	5450
tri	5451
tip	5452
vív	5453
##vid	5454
##olaj	5455
lep	5456
képesek	5457
összet	5458
mondták	5459
vásárlás	5460
legutóbb	5461
ru	5462
##rált	5463
##vesz	5464
##ezhet	5465
##ügyész	5466
félre	5467
##ica	5468
példa	5469
berlin	5470
fővárosban	5471
felügyelet	5472
gyalog	5473
tuc	5474
étter	5475
##büntetés	5476
##ősen	5477
kína	5478
kecskemét	5479
##szö	5480
##ekszik	5481
##ítést	5482
tartós	5483
mondjuk	5484
vasas	5485
atlan	5486
novemberben	5487
elvesz	5488
kézil	5489
erdély	5490
lám	5491
tot	5492
##if	5493
elutas	5494
##okk	5495
megalap	5496
##ozások	5497
##ozzák	5498
##asi	5499
elhu	5500
utcai	5501
kezdődik	5502
aktiv	5503
büszk	5504
vajon	5505
süt	5506
##fehér	5507
##éria	5508
##ítanak	5509
csont	5510
##ella	5511
némi	5512
számítani	5513
##opp	5514
stad	5515
rajt	5516
esélye	5517
erősödött	5518
barcelona	5519
54	5520
ajt	5521
##tön	5522
elől	5523
felszám	5524
##vezetője	5525
egészséges	5526
tájékoztatta	5527
elfogadott	5528
rögtön	5529
jellegű	5530
##junk	5531
##kóz	5532
##emben	5533
##csk	5534
##ürg	5535
illetékes	5536
##pedig	5537
iv	5538
##les	5539
##aték	5540
##aként	5541
##ezs	5542
meglehet	5543
kapusok	5544
katasztrófa	5545
eredetileg	5546
mexik	5547
bm	5548
önt	5549
titkos	5550
infláció	5551
##politikai	5552
közvélemény	5553
szovjet	5554
dup	5555
hekt	5556
nal	5557
##üv	5558
##emű	5559
vicc	5560
##ird	5561
nevét	5562
értékű	5563
szavazás	5564
adatokat	5565
átlagosan	5566
látogatás	5567
szög	5568
bronz	5569
szombati	5570
vizsgálatok	5571
kezdeményezés	5572
51	5573
ag	5574
bonyol	5575
tegy	5576
##--	5577
közigazgatás	5578
alv	5579
értek	5580
körben	5581
vihar	5582
ügyfél	5583
sikert	5584
nyomozó	5585
akarta	5586
kultúra	5587
feletti	5588
környékén	5589
tábl	5590
afgan	5591
sugár	5592
lél	5593
szülő	5594
számított	5595
változott	5596
csapadék	5597
figyel	5598
földr	5599
kissé	5600
tápl	5601
cap	5602
ugr	5603
##pest	5604
rendezett	5605
néven	5606
vanco	5607
műt	5608
árul	5609
építő	5610
mutatkoz	5611
mérkőzésen	5612
éjjel	5613
székes	5614
kritikus	5615
vancouver	5616
95	5617
##ier	5618
##her	5619
##20	5620
##arnok	5621
argent	5622
élete	5623
népsz	5624
hagyó	5625
távon	5626
egyszerre	5627
típusú	5628
szoftver	5629
osz	5630
vl	5631
##öd	5632
##etik	5633
##ítési	5634
ellene	5635
eurós	5636
cserél	5637
liga	5638
fig	5639
tó	5640
vak	5641
##eik	5642
##szeg	5643
##járat	5644
folyamatos	5645
vállalkozások	5646
aránya	5647
tűzoltó	5648
kn	5649
##szí	5650
alapító	5651
##kedés	5652
választó	5653
amivel	5654
hátsó	5655
órán	5656
állapotban	5657
ágaz	5658
tucat	5659
58	5660
zuh	5661
##vai	5662
##ank	5663
##emelés	5664
képet	5665
##övezet	5666
euróövezet	5667
sokáig	5668
hazánk	5669
kérdést	5670
melynek	5671
##asszal	5672
felesége	5673
##ileaks	5674
cr	5675
állomás	5676
helyezett	5677
jelenet	5678
közülük	5679
ablak	5680
öltöz	5681
választókerület	5682
nyar	5683
##játék	5684
hatására	5685
októberben	5686
méteres	5687
szexuális	5688
pilóta	5689
klasszikus	5690
wikileaks	5691
64	5692
höz	5693
##üz	5694
##akban	5695
hozni	5696
megszünt	5697
jelöltje	5698
története	5699
tizenk	5700
mandátum	5701
jének	5702
tab	5703
##one	5704
##ülést	5705
felmer	5706
##asztott	5707
mindenképpen	5708
##napi	5709
katolikus	5710
##történ	5711
hirdetés	5712
beszélgetés	5713
angeles	5714
600	5715
búcs	5716
nic	5717
ébe	5718
##usi	5719
kormánypárt	5720
belép	5721
döntést	5722
jack	5723
órás	5724
tartottak	5725
honvéd	5726
tökéletes	5727
aj	5728
log	5729
ezüst	5730
kerest	5731
ensz	5732
akiket	5733
melyet	5734
##bizottság	5735
benyújt	5736
konflik	5737
hül	5738
pre	5739
áért	5740
##ky	5741
szat	5742
nyugod	5743
szavazó	5744
növény	5745
london	5746
tűzoltók	5747
elektronikus	5748
##eredmény	5749
bes	5750
fős	5751
##ih	5752
felszer	5753
híres	5754
torna	5755
vizsgálatot	5756
kerékpár	5757
béla	5758
elhunyt	5759
gál	5760
mk	5761
tál	5762
##emp	5763
folytatott	5764
felszól	5765
.-	5766
fekvő	5767
rát	5768
##álati	5769
##ozatok	5770
kiadó	5771
lef	5772
##uss	5773
állomány	5774
emelés	5775
államház	5776
főügyész	5777
folyik	5778
##ekedett	5779
személyiség	5780
##ántúl	5781
politikusok	5782
##szolgálat	5783
##gazdaság	5784
termékek	5785
részvények	5786
köztársasági	5787
dohány	5788
kattint	5789
laz	5790
##nának	5791
##czi	5792
##ttest	5793
##artás	5794
##illiárd	5795
##eztem	5796
gondolom	5797
##mann	5798
magyarázta	5799
messze	5800
konzervatív	5801
##kun	5802
##iká	5803
##ezr	5804
##ülni	5805
##rtelen	5806
jelentőség	5807
összecsap	5808
költöz	5809
##szerűbb	5810
##atlanul	5811
érkezik	5812
tartották	5813
játékosok	5814
februárban	5815
fénykép	5816
polgármestere	5817
mete	5818
árfolyama	5819
kormányzat	5820
professzor	5821
fájd	5822
konferenci	5823
stadion	5824
meglehetősen	5825
kony	5826
lat	5827
##me	5828
##szék	5829
##alíció	5830
##ary	5831
felte	5832
másrészt	5833
##eiben	5834
##che	5835
részéről	5836
##ezettek	5837
közlése	5838
szüksége	5839
akarnak	5840
hete	5841
kifejt	5842
profi	5843
molnár	5844
zsidó	5845
havazás	5846
pok	5847
##jében	5848
##járm	5849
##jait	5850
helyszí	5851
##kezdő	5852
szeml	5853
2003	5854
társa	5855
##tartási	5856
##ársaság	5857
metró	5858
##onald	5859
sajtótájékoztatón	5860
##bevétel	5861
kabinet	5862
##jármű	5863
bűnt	5864
elveszt	5865
indiai	5866
önálló	5867
export	5868
herc	5869
meghatározó	5870
##emier	5871
rendőrkapitányság	5872
hab	5873
##issz	5874
##avéd	5875
képzel	5876
edzés	5877
##ipari	5878
támogatja	5879
németh	5880
klím	5881
kerülhet	5882
tartotta	5883
mozgás	5884
ülésén	5885
dv	5886
vír	5887
##hi	5888
##étlen	5889
képek	5890
időre	5891
hasznos	5892
mindegyik	5893
somogy	5894
facebook	5895
68	5896
radik	5897
verte	5898
##seg	5899
##gyilk	5900
##atják	5901
szar	5902
##ezési	5903
vallom	5904
##kezés	5905
##esztő	5906
várják	5907
kislány	5908
front	5909
nevezett	5910
vonat	5911
kereslet	5912
függetlenül	5913
színésznő	5914
gomb	5915
ugy	5916
##óm	5917
##orna	5918
felk	5919
nyári	5920
árp	5921
##forg	5922
következmény	5923
dics	5924
kedvezmény	5925
fogyasztás	5926
látta	5927
borsod	5928
59	5929
ket	5930
##vizsg	5931
##ogyan	5932
elhely	5933
##ezve	5934
szerezte	5935
illeg	5936
amiért	5937
##almazás	5938
mentes	5939
tárgyalások	5940
reggeli	5941
elektrom	5942
megerősítette	5943
mindenkinek	5944
befektetési	5945
##hy	5946
##uli	5947
esik	5948
##essége	5949
jegybank	5950
irányító	5951
nyilvánvaló	5952
dolgozni	5953
franciaország	5954
hívta	5955
##ionális	5956
próbálkoz	5957
show	5958
görögország	5959
ádám	5960
cor	5961
kb	5962
sürg	5963
##ns	5964
##ánál	5965
lehetnek	5966
##állító	5967
integ	5968
pénzügyminiszter	5969
bajnokok	5970
elsők	5971
világbajnoki	5972
technikai	5973
repülőgép	5974
boly	5975
##oli	5976
##ettem	5977
##adni	5978
beval	5979
adták	5980
utód	5981
államad	5982
amire	5983
##teremt	5984
gépjármű	5985
meccset	5986
gyűjtemény	5987
##pályás	5988
robbant	5989
munkanélküliség	5990
jós	5991
sy	5992
vé	5993
##zon	5994
##onnan	5995
##ami	5996
felvet	5997
##ova	5998
hirtelen	5999
##iver	6000
##ítésére	6001
példány	6002
sportág	6003
ségét	6004
kedvenc	6005
kihív	6006
lelki	6007
hajnalban	6008
láng	6009
##iam	6010
##del	6011
##uel	6012
##eksz	6013
egyeztetés	6014
kifogás	6015
##észek	6016
##kezelő	6017
halott	6018
blikk	6019
kárp	6020
##sea	6021
bírság	6022
feszült	6023
mün	6024
##szki	6025
köb	6026
##ogat	6027
alól	6028
premier	6029
történtek	6030
menni	6031
javaslatot	6032
kiemelte	6033
megelőző	6034
réteg	6035
pop	6036
ug	6037
##yás	6038
##nák	6039
##okrat	6040
##ille	6041
számuk	6042
##áltató	6043
áron	6044
elnöki	6045
##járó	6046
színvonal	6047
ása	6048
250	6049
kialakult	6050
carl	6051
megsérült	6052
]-	6053
##fal	6054
minket	6055
leggy	6056
ügynök	6057
épül	6058
kapcsolódó	6059
hajlék	6060
eredménye	6061
chel	6062
##szóviv	6063
óriás	6064
jövedelem	6065
dán	6066
dur	6067
##jött	6068
megőr	6069
##étlenül	6070
hozam	6071
##olya	6072
napig	6073
vastag	6074
eltűnt	6075
közleménye	6076
szerencsére	6077
farkas	6078
##yú	6079
##jan	6080
##kos	6081
szimp	6082
forgató	6083
##eve	6084
képtelen	6085
##enisz	6086
páros	6087
győzött	6088
beszámoló	6089
izgalmas	6090
repülőtér	6091
ábr	6092
##tom	6093
##kit	6094
##kezet	6095
##erny	6096
termelés	6097
eredményt	6098
felügyelő	6099
produkció	6100
olcsóbb	6101
tükr	6102
fesztivál	6103
##ein	6104
##bl	6105
kim	6106
##anyar	6107
értéke	6108
ukraj	6109
mozi	6110
befektető	6111
elképzelhető	6112
bokros	6113
székesfehér	6114
ejt	6115
##onstr	6116
##ily	6117
kidolg	6118
elődöntő	6119
##állított	6120
külügyminiszter	6121
címet	6122
gyenge	6123
szülők	6124
fém	6125
hód	6126
ták	6127
##ria	6128
##zük	6129
##alan	6130
elind	6131
megem	6132
##ozták	6133
amellyel	6134
arsen	6135
munkáltató	6136
##elemben	6137
ajánló	6138
kíváncsi	6139
orvosok	6140
izrael	6141
elegendő	6142
dub	6143
mín	6144
nav	6145
##éppen	6146
##rón	6147
adás	6148
ügyek	6149
##fic	6150
##enged	6151
katona	6152
budai	6153
színpad	6154
versenyt	6155
szervezett	6156
vásárol	6157
szakértői	6158
tulajdonosa	6159
tetsz	6160
speciális	6161
800	6162
lás	6163
éért	6164
öl	6165
##dem	6166
##óra	6167
##pe	6168
szt	6169
##oztak	6170
##séggel	6171
all	6172
árak	6173
kerülnek	6174
pilót	6175
érzékeny	6176
magánnyugdíjpénztár	6177
william	6178
sosem	6179
konfliktus	6180
chelsea	6181
ital	6182
rájuk	6183
ód	6184
##ge	6185
##inős	6186
emleg	6187
adnak	6188
sajnál	6189
szóval	6190
ahogyan	6191
közölték	6192
lapnak	6193
char	6194
tizenegy	6195
igénybe	6196
simon	6197
finanszírozás	6198
megelőz	6199
kommunikációs	6200
bánt	6201
##vent	6202
##elnek	6203
##akad	6204
megért	6205
##cser	6206
lehetetlen	6207
végleges	6208
főigazgató	6209
szintű	6210
vasút	6211
tiszta	6212
közvetlenül	6213
érdeklőd	6214
##ismerte	6215
éjszaka	6216
##csapat	6217
martin	6218
herceg	6219
átt	6220
##öbb	6221
##erm	6222
szerinti	6223
mielőtt	6224
##állomás	6225
hatnak	6226
amiben	6227
félidő	6228
tisztáz	6229
app	6230
önkormányzatok	6231
győri	6232
takarék	6233
##vételt	6234
szokásos	6235
98	6236
##sc	6237
ször	6238
elk	6239
elvár	6240
felület	6241
adós	6242
##korú	6243
országot	6244
1990	6245
egyetemi	6246
paul	6247
dinam	6248
münch	6249
sül	6250
vevő	6251
##itt	6252
##uni	6253
##áros	6254
kapos	6255
vezeti	6256
főnök	6257
erősebb	6258
rosszabb	6259
demokrata	6260
vezérigazgatója	6261
meteor	6262
67	6263
##busz	6264
egyrészt	6265
##rei	6266
beav	6267
napot	6268
intenz	6269
meghív	6270
vesztette	6271
kikap	6272
naponta	6273
szurkol	6274
##alkot	6275
mnb	6276
gergely	6277
gord	6278
qu	6279
##eként	6280
##ulni	6281
gyüm	6282
ném	6283
magának	6284
mindeneset	6285
háromszor	6286
mérnök	6287
dolgok	6288
vállalatok	6289
##képp	6290
szeretet	6291
területi	6292
kosár	6293
ellentétben	6294
mindenesetre	6295
rov	6296
zenek	6297
##lia	6298
cselek	6299
kicsi	6300
felb	6301
##örés	6302
pedagóg	6303
ügyvezető	6304
németországban	6305
##iszony	6306
csoda	6307
%-	6308
audi	6309
einek	6310
pot	6311
rett	6312
##gáz	6313
##löv	6314
##ója	6315
##arancs	6316
##étert	6317
igazol	6318
gondos	6319
színes	6320
kapcsolatot	6321
bármilyen	6322
debreceni	6323
fenti	6324
kv	6325
##sy	6326
##koló	6327
##ikát	6328
##csökkent	6329
legsz	6330
végző	6331
2001	6332
##ünket	6333
foglalkozik	6334
menetrend	6335
lázár	6336
berendezés	6337
bmw	6338
vírus	6339
fan	6340
kaz	6341
##mis	6342
##osta	6343
##velt	6344
##almak	6345
várnak	6346
férj	6347
problémát	6348
komolyan	6349
gyanúja	6350
gumi	6351
dunántúl	6352
zala	6353
globális	6354
elektromos	6355
gel	6356
##que	6357
##ekció	6358
##köl	6359
##eszélés	6360
tudunk	6361
tele	6362
ását	6363
##essék	6364
szállították	6365
nyugdíjrendszer	6366
ciklus	6367
##uttó	6368
szoros	6369
hulladék	6370
újságírók	6371
kinev	6372
résztvevő	6373
feljelentést	6374
arsenal	6375
ainak	6376
bölcs	6377
kra	6378
les	6379
##tatták	6380
##ks	6381
##ográ	6382
állatok	6383
legr	6384
utóbb	6385
vigy	6386
árvíz	6387
##ességében	6388
hónappal	6389
gondolat	6390
alkotás	6391
rendőrségi	6392
milan	6393
kötelezettség	6394
alkohol	6395
bol	6396
hábor	6397
post	6398
rug	6399
##osi	6400
megközel	6401
##usk	6402
193	6403
##kedő	6404
vasúti	6405
fizetett	6406
##vers	6407
regionális	6408
hetven	6409
anya	6410
utazás	6411
nyilvános	6412
csere	6413
földrengés	6414
vin	6415
##rog	6416
##ars	6417
nyúl	6418
adomány	6419
erők	6420
inf	6421
##eim	6422
újpest	6423
forinton	6424
beli	6425
féle	6426
nyomás	6427
bárki	6428
távú	6429
elégedett	6430
finn	6431
kórházban	6432
köztársaság	6433
##fajta	6434
merénylet	6435
##szöb	6436
gyümölcs	6437
f1	6438
kós	6439
##ain	6440
##ettó	6441
##örg	6442
élni	6443
balog	6444
tagok	6445
játszani	6446
ellenőriz	6447
szellem	6448
can	6449
díz	6450
sam	6451
megfog	6452
hatják	6453
kormányt	6454
halt	6455
címvédő	6456
beszélni	6457
fiatalember	6458
dolgoznak	6459
elhagy	6460
kiemelked	6461
tartalmazó	6462
tv2	6463
megnéz	6464
hajdú	6465
funkció	6466
bx	6467
bocs	6468
divat	6469
hig	6470
passz	6471
##bér	6472
##javas	6473
képző	6474
##hatjuk	6475
kezdve	6476
törvényjavas	6477
programot	6478
régóta	6479
unkat	6480
##szolgáltatás	6481
miskolc	6482
megfigy	6483
hajléktalan	6484
mínusz	6485
törvényjavaslat	6486
!!	6487
bez	6488
fár	6489
wa	6490
##reg	6491
##hal	6492
szök	6493
##ákkal	6494
##nyom	6495
adják	6496
terep	6497
##lanul	6498
választott	6499
fejt	6500
##ice	6501
programok	6502
kínál	6503
legjobban	6504
megvan	6505
fordulóban	6506
ellátás	6507
közigazgatási	6508
det	6509
kincs	6510
mek	6511
rip	6512
tünet	6513
##őben	6514
##sanak	6515
##pap	6516
szót	6517
##orú	6518
végső	6519
jobboldali	6520
rózs	6521
lakossági	6522
katasztrófavéd	6523
66	6524
ná	6525
##enko	6526
##okba	6527
egységes	6528
felében	6529
alex	6530
érzi	6531
elsőd	6532
##kodni	6533
szlovén	6534
toj	6535
csinálni	6536
jégkor	6537
parkoló	6538
bűncselekmények	6539
juttatás	6540
negyedévben	6541
folytatódik	6542
bern	6543
jából	6544
ke	6545
kub	6546
lad	6547
sét	6548
##out	6549
##fia	6550
elkö	6551
megakad	6552
felép	6553
adók	6554
készülő	6555
kamion	6556
helyzetbe	6557
szavazat	6558
növekedést	6559
lámp	6560
megakadály	6561
cz	6562
tét	6563
##érmes	6564
utalt	6565
áruház	6566
jelenség	6567
bruttó	6568
baloldali	6569
veszik	6570
##járól	6571
eredményei	6572
öngyilk	6573
##venni	6574
tekintettel	6575
házasság	6576
optim	6577
számukra	6578
beavatkoz	6579
##ault	6580
szi	6581
egység	6582
##otor	6583
##odor	6584
##ová	6585
tudat	6586
hallott	6587
hozza	6588
onnan	6589
megoldást	6590
##friss	6591
##biztosítás	6592
vidéki	6593
alapvető	6594
alelnöke	6595
james	6596
furcsa	6597
cal	6598
kegy	6599
keny	6600
##moz	6601
##furt	6602
##edv	6603
##avart	6604
erdő	6605
okozó	6606
hatodik	6607
döntése	6608
valamelyik	6609
találta	6610
érdekelt	6611
csapatot	6612
sportoló	6613
akarják	6614
bérlet	6615
szeretnénk	6616
módosító	6617
##rajz	6618
phil	6619
száraz	6620
árpád	6621
ec	6622
jeg	6623
lóg	6624
mult	6625
őszint	6626
##fej	6627
megnyit	6628
rendezés	6629
amelyik	6630
ellenes	6631
karak	6632
120	6633
jutottak	6634
apeh	6635
tekintve	6636
hozzátéve	6637
vizsgálja	6638
édesany	6639
héttel	6640
gordon	6641
káv	6642
rog	6643
elej	6644
csú	6645
éva	6646
márk	6647
előd	6648
anna	6649
end	6650
kapcsolatok	6651
megtud	6652
szeptemberben	6653
alapvetően	6654
bomb	6655
con	6656
##au	6657
##vaj	6658
##világ	6659
##elése	6660
##annyi	6661
##ária	6662
megismer	6663
##rag	6664
##eszi	6665
úgyhogy	6666
##ekedés	6667
házban	6668
##helyett	6669
hagyta	6670
kínálat	6671
emelte	6672
sége	6673
emlékeztetett	6674
peter	6675
kén	6676
kud	6677
kosz	6678
lis	6679
son	6680
vetett	6681
##három	6682
##sburg	6683
##kai	6684
##atikai	6685
elszám	6686
többnyire	6687
tudtam	6688
napos	6689
vezetést	6690
jegyző	6691
##iszap	6692
rendelkezésre	6693
fölé	6694
sopron	6695
tragéd	6696
63	6697
69	6698
pe	6699
tax	6700
ven	6701
vert	6702
##ménnyel	6703
esk	6704
okból	6705
##óknak	6706
stb	6707
mail	6708
könyvtár	6709
sága	6710
interj	6711
kizár	6712
igazságügyi	6713
ferrari	6714
államadósság	6715
!"	6716
vont	6717
##bes	6718
bejegy	6719
állítás	6720
szerintük	6721
hatja	6722
szakm	6723
szerepe	6724
##olly	6725
betegek	6726
selejt	6727
szezonban	6728
téma	6729
vörösiszap	6730
katalin	6731
nas	6732
noha	6733
alt	6734
##elmek	6735
szembe	6736
munkáját	6737
##ney	6738
lakos	6739
##iptom	6740
segíteni	6741
létezik	6742
ajánlott	6743
könnyebb	6744
1998	6745
üld	6746
lemez	6747
római	6748
ágnes	6749
bulvár	6750
reagált	6751
87	6752
div	6753
kód	6754
tenisz	6755
##ikat	6756
##edek	6757
kisz	6758
##izáció	6759
##onda	6760
helyét	6761
##őrök	6762
élén	6763
##ávol	6764
tavasszal	6765
kerülő	6766
holttest	6767
parlamentben	6768
energi	6769
toy	6770
becslés	6771
mezőgazdasági	6772
kiadott	6773
literes	6774
cáf	6775
dáni	6776
kál	6777
wal	6778
##non	6779
sziv	6780
##oki	6781
##imir	6782
élnek	6783
kutya	6784
ására	6785
##talanul	6786
sorozatban	6787
aktuális	6788
renault	6789
ázsiai	6790
kibocsátás	6791
bus	6792
tend	6793
##áit	6794
##ődés	6795
##fesz	6796
szál	6797
tudás	6798
énél	6799
##ítószer	6800
##eletese	6801
megszűn	6802
hibát	6803
ausztri	6804
visszavon	6805
összehason	6806
kézilabda	6807
összehasonl	6808
bát	6809
##ans	6810
elrend	6811
##itársaság	6812
valuta	6813
számítás	6814
összességében	6815
címmel	6816
hátra	6817
súlyosan	6818
megtart	6819
légitársaság	6820
eltérő	6821
üres	6822
62	6823
88	6824
kanyar	6825
elár	6826
##azon	6827
nagyság	6828
végi	6829
embernek	6830
haladás	6831
##ipar	6832
hatással	6833
egymillió	6834
gyakorl	6835
trén	6836
gyengült	6837
garant	6838
##ellenes	6839
radikális	6840
jégkorong	6841
nettó	6842
##ikák	6843
egyiptom	6844
terve	6845
##chan	6846
indít	6847
##napos	6848
kéri	6849
termelő	6850
találni	6851
##assa	6852
rock	6853
georg	6854
##biztonsági	6855
négyzetméter	6856
kifejtette	6857
):	6858
700	6859
dag	6860
##nel	6861
##hatás	6862
##egyű	6863
éri	6864
többlet	6865
könyvet	6866
doboz	6867
letölt	6868
felsőok	6869
előbbi	6870
megbízott	6871
mennyiségű	6872
pesti	6873
világháború	6874
bács	6875
cam	6876
uj	6877
##rum	6878
##film	6879
szí	6880
helyes	6881
##ünkre	6882
előtte	6883
##ings	6884
rendszerben	6885
lehetősége	6886
nézni	6887
spanyolország	6888
monet	6889
kontr	6890
rámut	6891
nyugdíjpénztári	6892
szereplők	6893
főügyészség	6894
ábráz	6895
elsődleges	6896
61	6897
art	6898
##yom	6899
##hl	6900
##kul	6901
##árták	6902
##isztáni	6903
##zsák	6904
2013	6905
határidő	6906
lapunk	6907
kötvény	6908
mozdul	6909
##gyűjt	6910
ünket	6911
ütött	6912
változások	6913
interneten	6914
kárty	6915
katonák	6916
észl	6917
idősebb	6918
rtl	6919
műtét	6920
elsőként	6921
jász	6922
rö	6923
ten	6924
twi	6925
vész	6926
vizet	6927
##zen	6928
##dzs	6929
##huz	6930
##gyal	6931
##szelvény	6932
helyén	6933
##öng	6934
##elme	6935
várni	6936
járnak	6937
##irány	6938
párhuz	6939
hónapos	6940
órát	6941
szállító	6942
változtatás	6943
szolgáltatások	6944
rakét	6945
vegyes	6946
pályafut	6947
kontin	6948
fürdő	6949
73	6950
genet	6951
lánc	6952
maj	6953
##besz	6954
megkezd	6955
rendben	6956
valak	6957
átadás	6958
számát	6959
hozták	6960
ügyet	6961
hiszem	6962
használni	6963
megszok	6964
nyolcvan	6965
részletek	6966
tolvaj	6967
szárny	6968
luxus	6969
dü	6970
pu	6971
sl	6972
##bud	6973
##elési	6974
##szent	6975
##alép	6976
##ori	6977
jelentett	6978
forintért	6979
társai	6980
létesít	6981
##esszió	6982
szervezők	6983
kifizetés	6984
mutatják	6985
külföldön	6986
számítanak	6987
##own	6988
legkev	6989
titok	6990
megjegyezte	6991
demokrácia	6992
kilátás	6993
hüly	6994
ein	6995
##seb	6996
##uck	6997
csász	6998
okok	6999
##almát	7000
##umb	7001
életben	7002
##fogó	7003
filozó	7004
bayern	7005
mtv	7006
parancsnok	7007
89	7008
gb	7009
sun	7010
##ík	7011
##regy	7012
százezer	7013
világszerte	7014
pénzügy	7015
kereső	7016
kereset	7017
zsuzs	7018
velvet	7019
játszó	7020
meghosszabb	7021
tízezer	7022
##ace	7023
zárta	7024
véleményét	7025
nyíregy	7026
hallgat	7027
pápa	7028
gi	7029
lök	7030
pró	7031
állni	7032
összegyű	7033
fogva	7034
körbe	7035
kiskun	7036
##ander	7037
törvények	7038
feltétlenül	7039
megszor	7040
gyűl	7041
válaszol	7042
értesült	7043
szilveszt	7044
##módosítás	7045
robbanás	7046
forradalom	7047
zenekar	7048
fx	7049
füst	7050
porn	7051
tüntetés	7052
##lop	7053
##jei	7054
##ura	7055
##ola	7056
##ánnyal	7057
újd	7058
hétköz	7059
elmélet	7060
mérkőzést	7061
köszönt	7062
##semmis	7063
szellemi	7064
ütközött	7065
kudarc	7066
72	7067
hölgy	7068
lek	7069
nik	7070
##höz	7071
##ock	7072
szektor	7073
megsemmis	7074
##usok	7075
##ody	7076
mindezt	7077
##kora	7078
ellenfél	7079
élett	7080
filmek	7081
##rendű	7082
egyenl	7083
egyedi	7084
total	7085
feltehetően	7086
nék	7087
rod	7088
##ger	7089
##jába	7090
##sé	7091
##élly	7092
követi	7093
visszalép	7094
##irend	7095
használják	7096
bírósági	7097
állítják	7098
fogyasztó	7099
délutáni	7100
lényegében	7101
##jutott	7102
nának	7103
##hiv	7104
##itális	7105
##iga	7106
másnap	7107
világon	7108
világban	7109
jogerős	7110
pontra	7111
tisztség	7112
munkaerő	7113
mozgalom	7114
választáson	7115
feladata	7116
bajnokságban	7117
megváltoz	7118
##demokrat	7119
##éllyel	7120
ee	7121
jai	7122
ret	7123
áz	7124
##rik	7125
csel	7126
##aján	7127
##use	7128
legfriss	7129
végeredmény	7130
napra	7131
kormánynak	7132
betölt	7133
hatása	7134
áldozatok	7135
gárda	7136
illegális	7137
sülly	7138
##papír	7139
nyíregyház	7140
##hivatal	7141
legfrissebb	7142
96	7143
ken	7144
patt	7145
##iá	7146
hotel	7147
gyöny	7148
##esztin	7149
soros	7150
egyike	7151
zsák	7152
imád	7153
csatorna	7154
részletes	7155
foci	7156
koss	7157
megtalál	7158
ingyenes	7159
brüsszel	7160
gyönyör	7161
74	7162
cukor	7163
háló	7164
##pel	7165
##its	7166
mini	7167
kormányzás	7168
versenyen	7169
következik	7170
tizenöt	7171
bejelentés	7172
olimpia	7173
kilométeres	7174
graf	7175
védekezés	7176
argentin	7177
intenzív	7178
twitter	7179
="	7180
jével	7181
kes	7182
##yk	7183
##esett	7184
megsért	7185
##omba	7186
kiegyen	7187
marg	7188
##eztető	7189
##ektív	7190
amerikában	7191
forgalma	7192
nyilvántartás	7193
csökkenés	7194
okozhat	7195
hírt	7196
választásokon	7197
zajló	7198
kábítószer	7199
közbeszerzési	7200
riport	7201
kád	7202
kassz	7203
wil	7204
##cell	7205
##he	7206
##hid	7207
bevon	7208
játssz	7209
belga	7210
életvesz	7211
rendszerváltás	7212
séggel	7213
##harc	7214
művészeti	7215
##grád	7216
jogosult	7217
kommunikáció	7218
lelkes	7219
bil	7220
trend	7221
##gond	7222
##sá	7223
##ino	7224
emelt	7225
érett	7226
##illa	7227
látják	7228
hárm	7229
mac	7230
##szerűen	7231
határon	7232
játékosa	7233
kénytelen	7234
##szolgálati	7235
elkerül	7236
hur	7237
kun	7238
sör	7239
szokat	7240
##omra	7241
szerény	7242
máris	7243
napirend	7244
életbe	7245
##tian	7246
szabadon	7247
készültség	7248
küszöb	7249
kívüli	7250
többiek	7251
ezelőtti	7252
tehetség	7253
iii	7254
strukt	7255
mindenkit	7256
tavaszi	7257
interjúban	7258
szórakoz	7259
monetáris	7260
78	7261
fe	7262
jud	7263
mélt	7264
rokon	7265
vét	7266
##mező	7267
##vin	7268
##hit	7269
##ozs	7270
alb	7271
##odalom	7272
orr	7273
átmen	7274
mást	7275
ennyire	7276
magára	7277
maradvány	7278
befizetés	7279
koalíció	7280
fordított	7281
gyűjtött	7282
működését	7283
##ezzük	7284
britanni	7285
digitális	7286
##gő	7287
##lon	7288
##uis	7289
elter	7290
##ázta	7291
##even	7292
okra	7293
##ájára	7294
irat	7295
mérg	7296
szolgáló	7297
térkép	7298
könyve	7299
lehetőségét	7300
##esszük	7301
kaland	7302
foglalkoztatás	7303
otthonában	7304
keletkezett	7305
értesülés	7306
várakozás	7307
statisztikai	7308
kossuth	7309
juh	7310
kasz	7311
megér	7312
alább	7313
aleksz	7314
alaposan	7315
klin	7316
olvashat	7317
utoljára	7318
döntöttek	7319
kártér	7320
településen	7321
meghatározott	7322
frankfurt	7323
óvod	7324
látványos	7325
karakter	7326
86	7327
domb	7328
jához	7329
pü	7330
##jak	7331
##fogy	7332
sztor	7333
megr	7334
csek	7335
amik	7336
##uty	7337
##olyan	7338
összetett	7339
##iók	7340
szemét	7341
készen	7342
lettek	7343
fizikai	7344
közelebb	7345
##ória	7346
szerzője	7347
kifiz	7348
bűnös	7349
##mentes	7350
parti	7351
palesztin	7352
írták	7353
szűr	7354
esztend	7355
stratégiai	7356
generáció	7357
bú	7358
bossz	7359
liver	7360
ron	7361
óce	7362
##meg	7363
##dott	7364
##omp	7365
jelzés	7366
rendelt	7367
tartalom	7368
kétszáz	7369
##rich	7370
jogok	7371
jelenlét	7372
játékok	7373
amerikaiak	7374
franci	7375
forgatás	7376
borz	7377
kivált	7378
labdát	7379
##jedt	7380
##titkára	7381
kétharmados	7382
ajánlószelvény	7383
kéne	7384
bux	7385
don	7386
jen	7387
ronald	7388
sak	7389
##aha	7390
##ale	7391
köd	7392
##cska	7393
##amin	7394
##ázni	7395
nyi	7396
market	7397
stáb	7398
egyikük	7399
céget	7400
túlél	7401
költségek	7402
perccel	7403
fontosabb	7404
tesznek	7405
hiánya	7406
hazaiak	7407
anyagok	7408
lengyelország	7409
##cionális	7410
erdélyi	7411
tizenkét	7412
##ficit	7413
bib	7414
nunk	7415
rud	7416
##lar	7417
##jal	7418
##piac	7419
##szás	7420
szür	7421
megment	7422
##edző	7423
##oton	7424
gyar	7425
előír	7426
nézett	7427
##évé	7428
illetően	7429
hónapja	7430
jegyezték	7431
##ötő	7432
utcán	7433
vállalkozó	7434
diplomáci	7435
ritka	7436
udvar	7437
közzétett	7438
liverpo	7439
76	7440
bog	7441
gp	7442
ká	7443
zak	7444
##já	7445
szap	7446
##olható	7447
állítani	7448
kapac	7449
vezeték	7450
éles	7451
##inger	7452
munkaügyi	7453
használja	7454
elfogadás	7455
ütkö	7456
kívánja	7457
szépen	7458
kommunista	7459
##maradt	7460
tőzsd	7461
fokozatosan	7462
##spök	7463
##kutatás	7464
hektár	7465
köbméter	7466
?"	7467
##lép	7468
alons	7469
napok	7470
talaj	7471
vonul	7472
##űnő	7473
elmondása	7474
könyvek	7475
1000	7476
feltételek	7477
folytatja	7478
szobr	7479
fegyveres	7480
kategóriában	7481
párizsi	7482
kellemetlen	7483
heves	7484
82	7485
halm	7486
jul	7487
##életi	7488
##csuk	7489
leány	7490
gyök	7491
##zséb	7492
##főnök	7493
ittas	7494
területek	7495
eléged	7496
ságot	7497
tényező	7498
ferencváros	7499
levelet	7500
díja	7501
foc	7502
ellentmond	7503
méretű	7504
tonna	7505
meggyőző	7506
telekom	7507
lag	7508
rol	7509
sűr	7510
##mo	7511
##kelő	7512
##pót	7513
##izált	7514
##szeres	7515
terén	7516
banki	7517
##cht	7518
vezetése	7519
kisfi	7520
törzs	7521
különféle	7522
betét	7523
forgalmaz	7524
programja	7525
perces	7526
kali	7527
lányok	7528
mértékű	7529
szeretnének	7530
jönnek	7531
események	7532
nehezebb	7533
mosoly	7534
sajtótájékoztatóján	7535
hátter	7536
erej	7537
innen	7538
afganisztán	7539
09	7540
bill	7541
lit	7542
posta	7543
##gás	7544
##lése	7545
##we	7546
##eres	7547
##inél	7548
##álatok	7549
megd	7550
szerezni	7551
##ákon	7552
##izt	7553
deve	7554
korai	7555
##szakasz	7556
különadó	7557
brfk	7558
megvásár	7559
ütem	7560
kihasznál	7561
listát	7562
bukkan	7563
származású	7564
eszterg	7565
igyekszik	7566
lóerős	7567
deleg	7568
énekesnő	7569
##különb	7570
ml	7571
##tet	7572
##ou	7573
feles	7574
befog	7575
számon	7576
sorban	7577
##várog	7578
folyt	7579
##ászat	7580
értékben	7581
zseb	7582
védett	7583
személyesen	7584
##ange	7585
órával	7586
emlékeztet	7587
könnyed	7588
fehérvár	7589
egyenlő	7590
vizsgálják	7591
kérdése	7592
beszámolt	7593
normális	7594
önkéntes	7595
dan	7596
mur	7597
we	7598
##ets	7599
évfordul	7600
haiti	7601
számot	7602
jót	7603
fejezte	7604
gyereket	7605
nyomozást	7606
gondolja	7607
hiányzik	7608
anyagot	7609
információi	7610
nyerni	7611
egyensúly	7612
##hajtó	7613
valamivel	7614
simán	7615
éjszakai	7616
sárga	7617
ideiglen	7618
miskolci	7619
üdv	7620
autópálya	7621
balogh	7622
heg	7623
sá	7624
##vert	7625
##lán	7626
##kán	7627
szik	7628
megoszt	7629
##itz	7630
deficit	7631
nagym	7632
##obbant	7633
forintba	7634
pártelnök	7635
sikerrel	7636
zsír	7637
bereg	7638
chris	7639
##terület	7640
mozog	7641
negyeddöntő	7642
ass	7643
iskolai	7644
profit	7645
ezren	7646
dall	7647
mp	7648
tes	7649
szank	7650
közszolgálati	7651
korában	7652
magával	7653
mondják	7654
szakma	7655
magyarországra	7656
atlét	7657
biztosítani	7658
##ózás	7659
eredményeket	7660
tisztában	7661
győzelmet	7662
##úton	7663
utcában	7664
kezdődő	7665
##nevezés	7666
tetszik	7667
nyelvű	7668
szélsőséges	7669
figur	7670
püspök	7671
83	7672
jak	7673
mág	7674
pá	7675
pek	7676
ősz	7677
##kam	7678
terem	7679
helyez	7680
készpénz	7681
váltás	7682
illeti	7683
kompl	7684
hangoz	7685
##ózis	7686
lapok	7687
eltávol	7688
érinti	7689
térségben	7690
nato	7691
átmeneti	7692
99	7693
bod	7694
rez	7695
sap	7696
tért	7697
vallás	7698
képerny	7699
árver	7700
járól	7701
##telj	7702
volán	7703
vonz	7704
értékelés	7705
maradtak	7706
import	7707
vásárló	7708
emelkedik	7709
láttam	7710
produc	7711
beker	7712
##keresked	7713
richard	7714
ágazat	7715
peking	7716
900	7717
bun	7718
gre	7719
mész	7720
nel	7721
##rág	7722
##fe	7723
##bban	7724
##abizt	7725
helye	7726
számomra	7727
magat	7728
reakció	7729
##enyi	7730
ugyanúgy	7731
férje	7732
barack	7733
kérdések	7734
kérdésére	7735
gondolkod	7736
szállás	7737
engem	7738
piacra	7739
tájékoztató	7740
elhang	7741
dokumentumok	7742
idézte	7743
minimális	7744
ovb	7745
ugye	7746
mekkora	7747
##zsébet	7748
cit	7749
jén	7750
tür	7751
ősszel	7752
##milliárd	7753
##ccs	7754
##wood	7755
##ásában	7756
##arch	7757
megkeres	7758
előter	7759
nézet	7760
lehető	7761
végki	7762
összek	7763
kormányzó	7764
eger	7765
támogat	7766
ásával	7767
biztonságos	7768
labor	7769
pozs	7770
helyszínre	7771
székely	7772
érvényben	7773
tartalmazza	7774
véletlenül	7775
münchen	7776
szivatt	7777
leny	7778
pinc	7779
publik	7780
##yer	7781
##nam	7782
##lev	7783
sző	7784
felszín	7785
évesen	7786
korszerű	7787
kezelő	7788
alkat	7789
milliót	7790
visszaélés	7791
ebbe	7792
filmben	7793
vízügyi	7794
play	7795
érkeztek	7796
tulajdonképpen	7797
gépek	7798
aláír	7799
barátság	7800
szépség	7801
ígért	7802
erősödés	7803
produk	7804
folyóirat	7805
vitték	7806
közzé	7807
ast	7808
den	7809
dug	7810
webb	7811
##hetünk	7812
márka	7813
##isztikai	7814
részére	7815
váltott	7816
mentők	7817
##ogramm	7818
hozzáfér	7819
jegyezte	7820
emlékezet	7821
sajtóügy	7822
gyűr	7823
balesetet	7824
zajlik	7825
moszk	7826
levélben	7827
jóváhagy	7828
asz	7829
gaz	7830
mez	7831
plat	7832
váz	7833
##orl	7834
megmut	7835
felek	7836
váltak	7837
##ártól	7838
szóba	7839
javul	7840
mikr	7841
hónapokban	7842
csoportok	7843
góllal	7844
1999	7845
olaszország	7846
ítélte	7847
rablás	7848
gabri	7849
államháztartási	7850
selejtező	7851
dani	7852
gén	7853
lév	7854
só	7855
##elést	7856
##ekint	7857
##olási	7858
elért	7859
elismerte	7860
felől	7861
tönk	7862
állítása	7863
jelek	7864
újjá	7865
##kedik	7866
esetek	7867
konstr	7868
buda	7869
személyek	7870
hetedik	7871
hitelt	7872
szavazók	7873
plak	7874
gyermekek	7875
szerencsétlen	7876
##század	7877
ákos	7878
pálink	7879
diákok	7880
flor	7881
szörny	7882
újdonság	7883
81	7884
84	7885
fab	7886
jók	7887
lin	7888
öv	7889
##űz	7890
##fin	7891
elit	7892
##ikum	7893
##ólyom	7894
közelm	7895
alm	7896
nagyszerű	7897
helyére	7898
törleszt	7899
iráni	7900
élők	7901
írni	7902
színű	7903
bizonyult	7904
forgalmi	7905
hamburg	7906
1994	7907
kihagy	7908
köszönhető	7909
intézkedés	7910
malév	7911
beruházások	7912
börtönbüntetés	7913
##elikop	7914
krisztián	7915
benyújtott	7916
williams	7917
közelmúlt	7918
su	7919
sé	7920
##jev	7921
megkezdő	7922
##tas	7923
feltár	7924
felvon	7925
##építés	7926
évad	7927
nagydíj	7928
oknak	7929
##ősebb	7930
kezdték	7931
szintet	7932
vélhetően	7933
abba	7934
folyamán	7935
novemberi	7936
feladatok	7937
aligha	7938
turb	7939
hajtott	7940
varázs	7941
svájc	7942
fellebb	7943
felülvizsg	7944
pillanatban	7945
tonn	7946
##údió	7947
valahogy	7948
ifjúsági	7949
jöhet	7950
megalapozott	7951
apple	7952
gyönyörű	7953
esztergom	7954
05	7955
08	7956
hx	7957
lip	7958
rap	7959
war	7960
##éki	7961
nemes	7962
felaján	7963
álom	7964
mária	7965
talp	7966
ugyanez	7967
stre	7968
választották	7969
##ászati	7970
2014	7971
##andr	7972
vesznek	7973
vizsgáló	7974
##tekint	7975
diszk	7976
##ásáról	7977
használható	7978
legnép	7979
eltelt	7980
nézve	7981
gyakori	7982
tapaszt	7983
megválaszt	7984
fogyasztói	7985
abszol	7986
ext	7987
nyitva	7988
listán	7989
indokolta	7990
matolcs	7991
hétvégi	7992
mexikói	7993
alonso	7994
matolcsy	7995
véve	7996
zni	7997
##tünk	7998
##gól	7999
##yle	8000
##vegy	8001
##szen	8002
##ero	8003
##ate	8004
elny	8005
##entúl	8006
állított	8007
olv	8008
helyezés	8009
alapon	8010
##ational	8011
kard	8012
vélte	8013
szállítás	8014
tájékoztatott	8015
##csics	8016
hiteles	8017
fotók	8018
teljesítménye	8019
mechan	8020
lehessen	8021
elmarad	8022
elmaradt	8023
##csökkentés	8024
79	8025
cd	8026
eiket	8027
moh	8028
sci	8029
##mit	8030
##liai	8031
##inho	8032
felismer	8033
erzsébet	8034
átlát	8035
tudtuk	8036
##vezetés	8037
összeállítás	8038
rendszeres	8039
játékot	8040
náluk	8041
apja	8042
kísért	8043
vettel	8044
ülésen	8045
utasok	8046
korlátozás	8047
fizetési	8048
sértett	8049
lovas	8050
remélem	8051
andrea	8052
##fejleszt	8053
megszokott	8054
77	8055
mu	8056
wolf	8057
##intéz	8058
csarnok	8059
álltak	8060
okban	8061
rac	8062
ügynökség	8063
sorrend	8064
mentén	8065
régen	8066
fordulat	8067
kitért	8068
márciusban	8069
ünnepi	8070
##bizony	8071
látták	8072
szakaszon	8073
tudósok	8074
bekövet	8075
megtakarítás	8076
##oxid	8077
altern	8078
kontinens	8079
előterjeszt	8080
71	8081
ku	8082
mess	8083
sólyom	8084
tunk	8085
zó	8086
őszi	8087
##láb	8088
##hette	8089
sza	8090
##adást	8091
közgazd	8092
állást	8093
évszázad	8094
végeztek	8095
elsőfokú	8096
mentek	8097
fokozott	8098
madar	8099
fűz	8100
fajta	8101
fülöp	8102
érzem	8103
legyőzte	8104
megállapodást	8105
akadémia	8106
kosárl	8107
fanta	8108
párhuzam	8109
diplomáciai	8110
közgazdász	8111
jába	8112
land	8113
nom	8114
unok	8115
ww	8116
##éje	8117
alp	8118
##ükben	8119
mondom	8120
műfaj	8121
euróval	8122
kezdtek	8123
dolgot	8124
pártja	8125
kínában	8126
szervek	8127
magasság	8128
legyenek	8129
informatikai	8130
találkozott	8131
jelöltek	8132
arányban	8133
gyengébb	8134
kevesebbet	8135
ellop	8136
értékesítés	8137
meghaladja	8138
liverpool	8139
alternatív	8140
bic	8141
dől	8142
lik	8143
mm	8144
##zus	8145
##nánk	8146
##választ	8147
##ph	8148
egyúttal	8149
##ilton	8150
csok	8151
csemp	8152
kimut	8153
számok	8154
mondat	8155
körök	8156
árny	8157
jóték	8158
igazolt	8159
fejezet	8160
##őzött	8161
említette	8162
##off	8163
bizottságának	8164
díját	8165
díjas	8166
##ardo	8167
folytatta	8168
bőven	8169
büdzs	8170
szakszervezetek	8171
maximum	8172
kiemelkedő	8173
##biztosítási	8174
jótékony	8175
ler	8176
luk	8177
rém	8178
tás	8179
ult	8180
öz	8181
##dtek	8182
##itu	8183
##ajt	8184
##ava	8185
főiskol	8186
ugyanolyan	8187
választotta	8188
##irk	8189
szereplés	8190
maradnak	8191
hetekben	8192
felhábor	8193
nézők	8194
sággal	8195
részleteket	8196
##oldalú	8197
balesetben	8198
szolgáltatást	8199
televíziós	8200
##vállalás	8201
máté	8202
dupl	8203
székesfehérvár	8204
toyota	8205
moszkva	8206
ivan	8207
pól	8208
west	8209
##nó	8210
##nunk	8211
##erd	8212
##adások	8213
szerelem	8214
voltunk	8215
műszer	8216
alapú	8217
világot	8218
belföld	8219
##közl	8220
##viselő	8221
vállalt	8222
maradék	8223
lépést	8224
oscar	8225
földi	8226
januári	8227
bíróságon	8228
figyelmét	8229
##sey	8230
egészségügy	8231
székhely	8232
akarták	8233
tudósító	8234
olcsó	8235
fertőzés	8236
főszereplő	8237
vlagy	8238
##suk	8239
##sük	8240
##ponttal	8241
##onnyal	8242
##ináció	8243
eld	8244
##aim	8245
##agen	8246
legközel	8247
hihetetlen	8248
##cher	8249
##ává	8250
##pontos	8251
vezetőedző	8252
játéknap	8253
versenykép	8254
eltilt	8255
eszm	8256
kutatások	8257
azonnali	8258
felhívta	8259
legrosszabb	8260
dániel	8261
óceán	8262
legközelebb	8263
91	8264
fekt	8265
gon	8266
holt	8267
null	8268
ty	8269
övezet	8270
##dni	8271
##hív	8272
ele	8273
felirat	8274
##ázás	8275
##iget	8276
márpedig	8277
tudok	8278
hatott	8279
országokban	8280
##prom	8281
hátul	8282
szövetsége	8283
formájában	8284
koord	8285
bio	8286
meglévő	8287
ftc	8288
humor	8289
sztori	8290
marketing	8291
lan	8292
pof	8293
##menet	8294
##álják	8295
##ítók	8296
korosztály	8297
magyarázat	8298
utólag	8299
##hatta	8300
telt	8301
sokak	8302
életet	8303
németek	8304
black	8305
információkat	8306
ketten	8307
szerencsés	8308
mobiltel	8309
legfelső	8310
guard	8311
##szolgáltató	8312
széch	8313
megfigyel	8314
felmerült	8315
besor	8316
##utyin	8317
tapasztalt	8318
3d	8319
buz	8320
dj	8321
ga	8322
gim	8323
hy	8324
matt	8325
##ré	8326
##ítve	8327
leon	8328
magabizt	8329
jelenik	8330
zsig	8331
melletti	8332
betű	8333
tervezi	8334
piacok	8335
őriz	8336
halála	8337
irodalmi	8338
információt	8339
próbálja	8340
technológi	8341
bármi	8342
blogok	8343
matem	8344
virr	8345
gyilkos	8346
drága	8347
mérséklő	8348
richter	8349
mindketten	8350
búcsúz	8351
kalifor	8352
élen	8353
##kány	8354
##szal	8355
##atik	8356
##olók	8357
elnevezés	8358
##apcs	8359
kimond	8360
felejt	8361
jelkép	8362
valaha	8363
számolni	8364
##aszn	8365
épült	8366
stand	8367
esetekben	8368
mennek	8369
történeti	8370
területeken	8371
távozott	8372
képviselőjelölt	8373
schum	8374
jöttek	8375
kilométerre	8376
telefonon	8377
kifejezés	8378
reagál	8379
moszkvai	8380
kárpát	8381
kontroll	8382
végkielég	8383
fern	8384
nig	8385
teng	8386
##lása	8387
elérte	8388
ését	8389
megteremt	8390
##igazd	8391
telen	8392
prim	8393
tárc	8394
iraki	8395
nevében	8396
házat	8397
házigazd	8398
barany	8399
következett	8400
személyzet	8401
személygép	8402
helyzete	8403
ismeri	8404
kalóz	8405
megszól	8406
megszűnt	8407
fordulójában	8408
elfogadta	8409
ítélték	8410
esztendő	8411
büntetőel	8412
vitte	8413
fejlett	8414
legnépszerűbb	8415
cas	8416
kkel	8417
vx	8418
##munk	8419
##zál	8420
eleve	8421
##isebb	8422
##cső	8423
reál	8424
életében	8425
vonatok	8426
tervez	8427
kívánt	8428
tettes	8429
földön	8430
testi	8431
lehetőségek	8432
apa	8433
fontosnak	8434
thom	8435
kereskedők	8436
esélyes	8437
fedél	8438
kerületben	8439
svédország	8440
edzője	8441
átalakítás	8442
lendület	8443
visszaesés	8444
gazdálkod	8445
bálint	8446
##elikopter	8447
vlagyimir	8448
bag	8449
göd	8450
mé	8451
##dt	8452
##dy	8453
elenged	8454
beszerzés	8455
##odó	8456
érthető	8457
prog	8458
##kedett	8459
jogot	8460
##iről	8461
írják	8462
kongr	8463
vezetőjét	8464
ath	8465
##esszív	8466
kisebbségi	8467
üzletember	8468
villa	8469
kilencven	8470
kiadások	8471
szolgáltatók	8472
demokráci	8473
népszavaz	8474
##történet	8475
potenci	8476
virradó	8477
hen	8478
nob	8479
ox	8480
ája	8481
##lel	8482
##ski	8483
##ekul	8484
##csoly	8485
felét	8486
gyújt	8487
tervei	8488
kapható	8489
magad	8490
kezdeni	8491
##vándor	8492
lépések	8493
csalás	8494
##helyen	8495
családok	8496
díjak	8497
szerződések	8498
halálát	8499
iskolában	8500
villany	8501
lánya	8502
szakaszán	8503
tájékoztatást	8504
vonalon	8505
munkavállalók	8506
mclar	8507
önmagában	8508
üzemeltető	8509
előfordulhat	8510
szatmár	8511
összecsapás	8512
tojás	8513
fm	8514
ps	8515
zem	8516
##táv	8517
##tőzs	8518
##cal	8519
##bur	8520
##edő	8521
##adót	8522
##cional	8523
jelzi	8524
ildik	8525
stúdió	8526
hozzájuk	8527
nemzetgazdasági	8528
##osszolg	8529
##upa	8530
értéktőzs	8531
hazug	8532
##elések	8533
eredményes	8534
működött	8535
magánszem	8536
találkozón	8537
történetét	8538
barátnő	8539
fogadja	8540
hibás	8541
viszonyok	8542
havas	8543
video	8544
indoklás	8545
titkosszolg	8546
tengeri	8547
hűtlen	8548
művelődés	8549
automatikus	8550
széchenyi	8551
ildikó	8552
magánszemély	8553
holly	8554
mr	8555
rág	8556
##űri	8557
##úrt	8558
##erni	8559
eldönt	8560
##artam	8561
##érés	8562
csong	8563
bevet	8564
##ellel	8565
mic	8566
##ejtek	8567
belg	8568
leszög	8569
törekv	8570
##közlési	8571
komm	8572
autóbusz	8573
képviselet	8574
séget	8575
erőfor	8576
gépkocsi	8577
könnyebben	8578
riaszt	8579
románia	8580
áprilisban	8581
távolság	8582
sérüléseket	8583
szavai	8584
stratégi	8585
brazí	8586
ritkán	8587
bécs	8588
szurkolók	8589
düh	8590
alábbi	8591
bart	8592
luc	8593
sil	8594
elef	8595
elítél	8596
##ülnek	8597
##csom	8598
##niai	8599
bev	8600
nyitás	8601
##udvar	8602
érez	8603
##olgár	8604
műhely	8605
szemmel	8606
munkája	8607
pénzintézet	8608
##ektől	8609
baloldal	8610
dolgokat	8611
##ubl	8612
blokk	8613
futott	8614
hatáskör	8615
motoros	8616
##tartó	8617
olimpián	8618
szeretném	8619
indokol	8620
térségében	8621
boksz	8622
várakozások	8623
visszavág	8624
daily	8625
előrejelzés	8626
plakát	8627
hd	8628
musz	8629
nuk	8630
pusk	8631
ry	8632
##iek	8633
##remű	8634
##yal	8635
szk	8636
szülés	8637
nemi	8638
##ségű	8639
kiszi	8640
közremű	8641
akadt	8642
érő	8643
tartozás	8644
benedek	8645
kezelni	8646
##aszk	8647
##özt	8648
óráig	8649
folyamatban	8650
változtat	8651
kézi	8652
mértéke	8653
nyitó	8654
##ütés	8655
mögé	8656
ligája	8657
lényegesen	8658
epiz	8659
minimum	8660
barcelon	8661
tekintetében	8662
racing	8663
közreműkö	8664
fü	8665
hető	8666
víg	8667
##pp	8668
##elhető	8669
rendszám	8670
mindannyi	8671
jelentése	8672
start	8673
választmány	8674
jogsért	8675
összefoglal	8676
parkol	8677
##viselők	8678
tech	8679
határid	8680
jutás	8681
hagyott	8682
adatait	8683
##telenül	8684
részletesen	8685
kutatási	8686
jean	8687
szalai	8688
visszatért	8689
zenei	8690
édesap	8691
lemondott	8692
tarlós	8693
katasztrófavédelmi	8694
császár	8695
összegyűjt	8696
epizód	8697
04	8698
92	8699
gig	8700
gold	8701
iván	8702
nének	8703
psz	8704
pók	8705
túr	8706
##yű	8707
##vál	8708
##anás	8709
elj	8710
szert	8711
szerez	8712
közúti	8713
##abd	8714
előrel	8715
##ettebb	8716
##iaci	8717
kezében	8718
embere	8719
nyomozók	8720
támogatta	8721
túli	8722
segítő	8723
alakít	8724
csoportban	8725
tekinthető	8726
franciaországban	8727
kiválaszt	8728
ozás	8729
iskolák	8730
tilos	8731
viszonyítva	8732
gyártás	8733
turizmus	8734
lassú	8735
idézi	8736
legkisebb	8737
menedzser	8738
iránti	8739
kongressz	8740
dra	8741
geszt	8742
hc	8743
kai	8744
sark	8745
xx	8746
##ix	8747
##vit	8748
ésére	8749
albert	8750
##öngy	8751
##eszél	8752
##elmény	8753
prot	8754
külügyminisztérium	8755
részében	8756
részleg	8757
belváros	8758
joga	8759
egészében	8760
túlzott	8761
gondoltam	8762
csoportos	8763
órától	8764
nyertek	8765
trük	8766
##liában	8767
kereskedelem	8768
tömör	8769
vonatkozik	8770
tour	8771
szalon	8772
megnyerte	8773
béke	8774
hosszabbítás	8775
hűt	8776
védelme	8777
euro	8778
szombathelyi	8779
george	8780
thomas	8781
hollywood	8782
elefánt	8783
nó	8784
putyin	8785
vért	8786
wood	8787
ász	8788
##elve	8789
hoff	8790
##ölés	8791
ügylet	8792
épített	8793
veres	8794
kiló	8795
szálló	8796
felhő	8797
középső	8798
hibrid	8799
szokott	8800
intézkedéseket	8801
pályázati	8802
elkészült	8803
szurkoló	8804
##jártó	8805
forgatókönyv	8806
abszolút	8807
mclaren	8808
##csomag	8809
arab	8810
hun	8811
jukat	8812
xvi	8813
##áva	8814
##fb	8815
megítél	8816
szerette	8817
kivon	8818
##cium	8819
márton	8820
előf	8821
érvel	8822
hoztak	8823
műanyag	8824
iratok	8825
gondot	8826
házak	8827
keresni	8828
zsar	8829
vállalta	8830
1500	8831
területet	8832
180	8833
oldalt	8834
vásárolt	8835
válaszolt	8836
számíthat	8837
ideális	8838
##mitt	8839
kizárt	8840
szilárd	8841
fenyegető	8842
követte	8843
##jogi	8844
bécsi	8845
legendás	8846
##demokrata	8847
gyűrű	8848
kosárlabda	8849
báb	8850
pic	8851
rut	8852
##ty	8853
##óczi	8854
szij	8855
##ement	8856
elfel	8857
##ago	8858
állították	8859
jelző	8860
rendő	8861
helyezték	8862
körös	8863
191	8864
időközben	8865
##émium	8866
zsűri	8867
hónapok	8868
nyolcad	8869
találkozót	8870
fordít	8871
szlovákiai	8872
bemutatott	8873
doktor	8874
működési	8875
##aktérium	8876
vereséget	8877
csúszott	8878
agrár	8879
britanniában	8880
juhász	8881
kapacitás	8882
webber	8883
schumach	8884
fit	8885
kast	8886
pető	8887
sir	8888
vilm	8889
ól	8890
##mon	8891
##rációs	8892
##zá	8893
##kinek	8894
##enza	8895
##alitás	8896
##olvas	8897
megism	8898
beck	8899
legh	8900
##kön	8901
sorsa	8902
élvonal	8903
tagország	8904
négyes	8905
ezeknek	8906
gondolkodás	8907
chic	8908
szabálytalan	8909
szabálysért	8910
szállít	8911
támogatási	8912
megfelel	8913
dollárral	8914
rendelkezés	8915
betegségek	8916
hitelek	8917
rendezik	8918
eszter	8919
mindezek	8920
juvent	8921
bocsán	8922
szilveszter	8923
##kereskedelmi	8924
sajtóügyeletese	8925
extra	8926
www	8927
fernand	8928
cer	8929
kh	8930
úti	8931
##iben	8932
##pul	8933
##orok	8934
csaj	8935
csecs	8936
közti	8937
##entő	8938
értem	8939
##eiről	8940
végez	8941
napló	8942
kedvel	8943
##telenek	8944
magyarországot	8945
##ítések	8946
törvényhoz	8947
középpályás	8948
erőtelj	8949
1997	8950
változik	8951
##ömb	8952
schmitt	8953
##ffer	8954
próbálják	8955
tulajdonosok	8956
felhasználó	8957
felhasználók	8958
1989	8959
minőségű	8960
eleget	8961
deviza	8962
hírügynökségnek	8963
lendvai	8964
roham	8965
hozzájárul	8966
vicces	8967
judit	8968
album	8969
csongrád	8970
nukle	8971
93	8972
94	8973
aba	8974
bri	8975
baktérium	8976
fre	8977
##meket	8978
##rist	8979
##zy	8980
##ülési	8981
csuk	8982
##astr	8983
felsor	8984
##ellát	8985
helyiség	8986
reut	8987
világk	8988
mutatták	8989
jutni	8990
alkotó	8991
percig	8992
ságát	8993
##mérő	8994
készülnek	8995
műsorában	8996
olimpi	8997
ítélt	8998
szigetek	8999
megbízható	9000
stabilitás	9001
influ	9002
résztvevők	9003
valahol	9004
kellemes	9005
konyh	9006
üdvöz	9007
mobiltelefon	9008
kastély	9009
hf	9010
kok	9011
non	9012
plet	9013
pert	9014
völgy	9015
##iás	9016
##törvény	9017
##sch	9018
##eleti	9019
megvéd	9020
##ish	9021
ezáltal	9022
adag	9023
oka	9024
##becs	9025
időnként	9026
választást	9027
komb	9028
költő	9029
rendszerbe	9030
biztosítás	9031
nincsen	9032
vélekedett	9033
órákban	9034
vízszint	9035
tárgyak	9036
próbált	9037
állapota	9038
cserébe	9039
kiadvány	9040
objekt	9041
iszap	9042
megkérdezett	9043
tartományban	9044
kiesett	9045
ellenfele	9046
bennünket	9047
mindkettő	9048
dízel	9049
gimn	9050
gat	9051
wi	9052
##nünk	9053
##list	9054
##ure	9055
##pa	9056
##ezlet	9057
aratott	9058
hatunk	9059
hatjuk	9060
hatatlan	9061
mondván	9062
190	9063
időn	9064
döntését	9065
másodfokú	9066
vizsgált	9067
##ásait	9068
órák	9069
fiatalabb	9070
nyolcadik	9071
fejlesztések	9072
elfogták	9073
vádat	9074
ozott	9075
komolyabb	9076
ünnepség	9077
pillan	9078
látogat	9079
##művészeti	9080
ügyfelek	9081
bicik	9082
bolgár	9083
kinek	9084
tró	9085
zászló	9086
zavart	9087
áig	9088
##éző	9089
##eld	9090
##esc	9091
megkö	9092
levon	9093
##ájú	9094
mondhat	9095
munkák	9096
viadal	9097
követelmény	9098
sorra	9099
címlap	9100
összeom	9101
eto	9102
lennének	9103
ezekben	9104
feltölt	9105
horn	9106
##négy	9107
elhár	9108
feladatot	9109
recept	9110
tranz	9111
bonyolult	9112
tucatnyi	9113
felszerelt	9114
valutaalap	9115
margit	9116
szokatlan	9117
franciák	9118
szankció	9119
fantasztikus	9120
abaúj	9121
ké	9122
knak	9123
seh	9124
önök	9125
##gat	9126
##vevő	9127
##viszony	9128
szp	9129
##eget	9130
##apság	9131
szerelvény	9132
##ulta	9133
köze	9134
teráp	9135
kapták	9136
##ölni	9137
kormányszóviv	9138
dönteni	9139
brut	9140
kilogramm	9141
célpont	9142
tervező	9143
franc	9144
segíti	9145
hetjük	9146
földgáz	9147
növekvő	9148
manapság	9149
madár	9150
brav	9151
fenyegetés	9152
bevezetése	9153
frakcióvezető	9154
dunaúj	9155
terjedő	9156
##művész	9157
napjaink	9158
szomszédos	9159
ilyes	9160
##szkij	9161
##regény	9162
gyakorlati	9163
genetikai	9164
reuters	9165
07	9166
mul	9167
mas	9168
mus	9169
mocs	9170
pas	9171
##lók	9172
##kő	9173
##kál	9174
##onta	9175
##olat	9176
kövér	9177
csík	9178
koron	9179
##abi	9180
tudomás	9181
műve	9182
fejér	9183
segített	9184
biztosított	9185
ást	9186
diag	9187
christ	9188
istálló	9189
kalap	9190
eljárások	9191
hatósági	9192
kereskedés	9193
nyers	9194
pitt	9195
közepes	9196
májusban	9197
lopás	9198
fiúk	9199
ragasz	9200
kecskeméti	9201
bundes	9202
árnyék	9203
kint	9204
krón	9205
off	9206
vékony	9207
##ora	9208
csáb	9209
##air	9210
oktató	9211
ekben	9212
halász	9213
történész	9214
tőlük	9215
vélik	9216
útra	9217
filmje	9218
##essé	9219
oroszok	9220
andó	9221
bűnügyi	9222
demonstr	9223
figyelmeztet	9224
labda	9225
pannon	9226
elkövető	9227
küzdő	9228
századi	9229
magyarázza	9230
jelentkezett	9231
küzdelem	9232
helyreállítás	9233
összefüggésben	9234
hasonlít	9235
##zárkóz	9236
bűntett	9237
klíma	9238
életveszélyes	9239
pszáf	9240
vilmos	9241
nukleáris	9242
bosz	9243
cm	9244
jenő	9245
vajd	9246
##nagy	9247
##néz	9248
##ling	9249
##uártól	9250
eljut	9251
##ságosan	9252
##utak	9253
összhang	9254
mindenféle	9255
szabott	9256
követett	9257
csapatt	9258
gondolt	9259
keresnek	9260
velem	9261
javult	9262
túlságosan	9263
##osságú	9264
forgó	9265
tulajdonság	9266
szociál	9267
tehera	9268
szembeni	9269
ismerte	9270
mutatta	9271
egyetemen	9272
fogyasztók	9273
barátja	9274
##portál	9275
szalag	9276
járművek	9277
szomorú	9278
zajlott	9279
beszédében	9280
robot	9281
##fordult	9282
helyszíni	9283
bolygó	9284
képernyő	9285
mese	9286
poh	9287
sereg	9288
##ásának	9289
##udomány	9290
##uki	9291
többé	9292
privat	9293
idővel	9294
járvány	9295
pályát	9296
alakulat	9297
##oft	9298
csökkentés	9299
kalkul	9300
kedvéért	9301
adatb	9302
130	9303
levő	9304
hozzátart	9305
fedezet	9306
szabadságveszt	9307
pénztárak	9308
cigar	9309
ajánlatot	9310
tökéletesen	9311
felújítás	9312
agresszív	9313
táplálkoz	9314
messi	9315
hell	9316
zar	9317
ülő	9318
##atőr	9319
szállt	9320
##emen	9321
##álé	9322
megél	9323
megköt	9324
##edi	9325
##ague	9326
bevásár	9327
##öket	9328
átfogó	9329
kaptam	9330
##kozás	9331
jelentő	9332
utánpót	9333
alapított	9334
igazából	9335
látom	9336
jogát	9337
döntések	9338
##cks	9339
szóban	9340
szintre	9341
ítani	9342
keresett	9343
autóval	9344
célra	9345
kérdésünkre	9346
110	9347
izland	9348
holott	9349
republik	9350
emelkedés	9351
ozni	9352
elvileg	9353
érdemi	9354
news	9355
híján	9356
forgalomba	9357
##érdek	9358
korea	9359
következtetés	9360
vártnál	9361
főszerk	9362
louis	9363
jeges	9364
létesítmény	9365
juventus	9366
utánpótlás	9367
fant	9368
hul	9369
junk	9370
pav	9371
##dög	9372
##jével	9373
szm	9374
##ülhet	9375
##ith	9376
##ságát	9377
kaphat	9378
százalékról	9379
mondtam	9380
készlet	9381
rendőri	9382
hajlam	9383
ásának	9384
kérdéses	9385
hamilton	9386
növekedése	9387
növekedési	9388
vállalkozók	9389
papp	9390
nyelven	9391
bukott	9392
támadások	9393
kopog	9394
csatlakozott	9395
uralkodó	9396
félidőben	9397
rózsa	9398
szijjártó	9399
aukció	9400
cont	9401
kc	9402
lic	9403
nád	9404
oszk	9405
vándor	9406
##ire	9407
##elep	9408
szől	9409
##oke	9410
egyfajta	9411
szerte	9412
felment	9413
##oty	9414
bevándor	9415
erőt	9416
okos	9417
infr	9418
##idéz	9419
fogott	9420
##lanak	9421
jogállam	9422
kezdi	9423
általuk	9424
különben	9425
keresik	9426
híresség	9427
##helyi	9428
forgalmat	9429
problémái	9430
tölti	9431
szorg	9432
értelme	9433
kártya	9434
királyi	9435
##ezze	9436
hatályba	9437
robbanó	9438
világbajnokságon	9439
drámai	9440
capital	9441
szemlélet	9442
kikapott	9443
!!!	9444
detro	9445
schumacher	9446
cigarett	9447
bent	9448
wind	9449
##aw	9450
##lo	9451
##jünk	9452
##kes	9453
##ward	9454
##??	9455
leír	9456
league	9457
számban	9458
amelyből	9459
bizonnyal	9460
##eivel	9461
tárlat	9462
virt	9463
##zési	9464
##eztelen	9465
cégnek	9466
példát	9467
helyzetét	9468
útvonal	9469
oldalak	9470
folyamatok	9471
140	9472
##ulladt	9473
elsej	9474
demszky	9475
változtatni	9476
szorul	9477
szövetségének	9478
szerepelnek	9479
modellek	9480
indokolt	9481
ékszer	9482
láthatóan	9483
jogszabályok	9484
rendezvényen	9485
##plén	9486
fizetnie	9487
kanada	9488
color	9489
josé	9490
elutasította	9491
##verseny	9492
kávé	9493
legkevesebb	9494
zemplén	9495
infrastr	9496
golf	9497
lal	9498
lim	9499
##;"	9500
szag	9501
##akar	9502
##ulin	9503
kiszab	9504
amin	9505
forró	9506
éreztem	9507
számla	9508
kapja	9509
százmillió	9510
jától	9511
ügyelet	9512
192	9513
olykor	9514
elnökének	9515
szerepét	9516
vona	9517
barna	9518
hetik	9519
##essenek	9520
érintettek	9521
megállapította	9522
technológiai	9523
vendéglát	9524
ausztria	9525
engedélyt	9526
finanszírozási	9527
class	9528
erőszakos	9529
büntetést	9530
sújtotta	9531
celeb	9532
szarvas	9533
endre	9534
becslések	9535
esztendős	9536
##orld	9537
republikán	9538
dis	9539
eközben	9540
vacs	9541
éig	9542
##eron	9543
##ann	9544
##olas	9545
##inda	9546
##oltatás	9547
##elle	9548
kortárs	9549
orv	9550
band	9551
eknek	9552
áru	9553
spór	9554
készíteni	9555
támasz	9556
fejét	9557
##anyi	9558
visszaél	9559
ördög	9560
decemberi	9561
gyerekeket	9562
összege	9563
egyszerűs	9564
technika	9565
szlovákia	9566
legtöbben	9567
vagyonkezelő	9568
jártak	9569
michel	9570
bulg	9571
eszközöket	9572
magunkat	9573
megeml	9574
01	9575
gul	9576
hill	9577
lé	9578
páci	9579
tig	9580
feled	9581
##aiban	9582
lejár	9583
##ságú	9584
esedék	9585
bizalom	9586
reális	9587
ekre	9588
emberölés	9589
##rigy	9590
jogász	9591
##ation	9592
ahonnan	9593
##ical	9594
célt	9595
##noszt	9596
ezeken	9597
##hone	9598
druk	9599
szövetséges	9600
szervezés	9601
parlamentbe	9602
honvédelmi	9603
helyettese	9604
megtám	9605
belüli	9606
kértek	9607
turisztikai	9608
hajtás	9609
teljesítményt	9610
becsület	9611
települések	9612
szobor	9613
milán	9614
akartak	9615
kétszeres	9616
farag	9617
afgán	9618
juni	9619
jour	9620
pornó	9621
street	9622
belgium	9623
infrastrukt	9624
böng	9625
faz	9626
gh	9627
liszt	9628
narancs	9629
##lánc	9630
##ense	9631
##inte	9632
felr	9633
alud	9634
akk	9635
##hetjük	9636
nagyot	9637
mégpedig	9638
szemtan	9639
##ehez	9640
##felvétel	9641
társas	9642
chil	9643
nyugdíjba	9644
erőfesz	9645
dollárra	9646
illuszt	9647
ellátó	9648
ítéletet	9649
állampolgárok	9650
remekül	9651
hatályos	9652
koncentrál	9653
doc	9654
feldolgozás	9655
lélek	9656
háborús	9657
##beszéd	9658
roland	9659
szivattyú	9660
párhuzamosan	9661
szemtanú	9662
02	9663
bost	9664
bátor	9665
dz	9666
honda	9667
janak	9668
lelet	9669
mani	9670
nünk	9671
##n1	9672
##für	9673
##orosz	9674
megít	9675
megtört	9676
##éket	9677
##ozva	9678
kijel	9679
##attuk	9680
ander	9681
intell	9682
igazolás	9683
tanús	9684
valamely	9685
##kelet	9686
gyermeket	9687
hazud	9688
##képvis	9689
célba	9690
tervezés	9691
foglaltak	9692
gondolják	9693
gyorsabb	9694
nyertes	9695
összegű	9696
hívja	9697
alkotmányos	9698
elhal	9699
történetében	9700
fotós	9701
egyenesen	9702
arányos	9703
télen	9704
lényege	9705
becsült	9706
petr	9707
eivel	9708
festmény	9709
megjelenő	9710
rangsor	9711
minőségi	9712
eredményeként	9713
##rajzi	9714
mour	9715
inflációs	9716
idegenben	9717
nemrégiben	9718
elemzői	9719
konferencia	9720
##opping	9721
zuhant	9722
rogán	9723
szórakoztató	9724
sűrű	9725
06	9726
eik	9727
nos	9728
ráját	9729
sav	9730
world	9731
##zanak	9732
##hát	9733
##uer	9734
##kát	9735
##beteg	9736
szünt	9737
##real	9738
##nyik	9739
##egyver	9740
##unkra	9741
adminiszt	9742
számunkra	9743
kism	9744
##ölte	9745
készítő	9746
írország	9747
velünk	9748
erősítette	9749
filmes	9750
téri	9751
romák	9752
irányuló	9753
ferih	9754
kitart	9755
hiányt	9756
foglalkoztatott	9757
1996	9758
1992	9759
halálra	9760
társaságok	9761
takt	9762
októberi	9763
videoton	9764
kialakul	9765
megnyug	9766
enyhe	9767
pszichiát	9768
vallási	9769
tagállamok	9770
ukrajna	9771
navra	9772
nasa	9773
totalcar	9774
évforduló	9775
gabriella	9776
nyolcaddöntő	9777
bed	9778
camp	9779
jéz	9780
##yi	9781
##lav	9782
##üveg	9783
##fus	9784
##anó	9785
##aló	9786
##akadt	9787
csi	9788
csók	9789
szereti	9790
kiprób	9791
amiket	9792
bebizony	9793
##elli	9794
kori	9795
képeket	9796
vezetni	9797
kérelm	9798
##eződés	9799
mellette	9800
pontja	9801
##andi	9802
lépése	9803
versenyben	9804
##tatja	9805
romlott	9806
mikro	9807
gólp	9808
használata	9809
nyilatkozó	9810
tulajdonában	9811
fejlesztő	9812
elfoglal	9813
270	9814
kényelm	9815
extr	9816
éjfél	9817
honlapja	9818
terhesség	9819
rangadó	9820
befolyásolja	9821
lyuk	9822
alkalmából	9823
közelmúltban	9824
koordin	9825
journal	9826
keszt	9827
tég	9828
tob	9829
tün	9830
tenn	9831
éh	9832
##ret	9833
##gé	9834
##dhet	9835
##lad	9836
##óni	9837
##énél	9838
##ságok	9839
gyöngy	9840
emelet	9841
magyarul	9842
számtalan	9843
tudatos	9844
amelyre	9845
teli	9846
prémium	9847
kispad	9848
visszam	9849
élénk	9850
pénzek	9851
dolga	9852
##dulás	9853
keresi	9854
utazott	9855
kötő	9856
mozd	9857
kedvez	9858
megszület	9859
hiányában	9860
##ibi	9861
támogatása	9862
zárás	9863
zárult	9864
embereknek	9865
miniszterelnöki	9866
norbert	9867
egyenes	9868
##front	9869
technológia	9870
bemutatkoz	9871
keletkez	9872
vágott	9873
raktár	9874
évtizedek	9875
meghaladta	9876
hátrányos	9877
szolid	9878
homok	9879
kétségbe	9880
pihen	9881
faktor	9882
berlini	9883
eleinte	9884
eljutt	9885
rutin	9886
esedékes	9887
aink	9888
h1	9889
nad	9890
rit	9891
sev	9892
ték	9893
ősi	9894
##mos	9895
##ea	9896
##lettel	9897
##sson	9898
##unt	9899
##way	9900
##bben	9901
gyom	9902
adri	9903
org	9904
helyezte	9905
##ájával	9906
újonnan	9907
mindenhol	9908
##zést	9909
főz	9910
építeni	9911
##központ	9912
##eztette	9913
joggal	9914
##ácsi	9915
maradni	9916
hagyja	9917
foglalt	9918
szavazni	9919
dolgoztak	9920
középpont	9921
fokoz	9922
tizenhat	9923
sorozatot	9924
centrum	9925
feladatokat	9926
horvátország	9927
században	9928
múlik	9929
kategória	9930
jétől	9931
papírok	9932
moody	9933
egyházi	9934
brüssz	9935
britannia	9936
étterem	9937
mkb	9938
felsőoktatási	9939
bos	9940
cla	9941
fis	9942
gaszt	9943
pán	9944
veh	9945
úszó	9946
##íni	9947
##pan	9948
##ikó	9949
##ezent	9950
lefoglal	9951
bevételt	9952
##elminős	9953
jelentették	9954
hany	9955
kisgy	9956
akivel	9957
##ációt	9958
brown	9959
pártot	9960
##antikus	9961
kerülni	9962
hónapjában	9963
családja	9964
jegyzés	9965
hitelminős	9966
csökkenteni	9967
meghallgatás	9968
baráti	9969
rövidebb	9970
##ows	9971
veszteg	9972
lemar	9973
turisták	9974
bármelyik	9975
változatlan	9976
##nyugati	9977
nappali	9978
részesed	9979
domin	9980
sopr	9981
mesélte	9982
csendes	9983
##irdetett	9984
vinni	9985
egyiptomi	9986
alkatrész	9987
csecsem	9988
navracsics	9989
h1n1	9990
bob	9991
dopping	9992
jére	9993
nák	9994
##nózis	9995
##lási	9996
##szövet	9997
##olnak	9998
##ettünk	9999
lejárt	10000
előseg	10001
##ejű	10002
számoltak	10003
angyal	10004
bence	10005
naptár	10006
munkálatok	10007
szakkép	10008
fifa	10009
viszi	10010
félév	10011
törvénymódosítás	10012
##kodnak	10013
kilép	10014
ezekkel	10015
hetek	10016
berg	10017
jegyzett	10018
utazó	10019
órára	10020
##almasabb	10021
irányítás	10022
adóf	10023
1993	10024
indulás	10025
megtiszt	10026
kézzel	10027
leminős	10028
bemutatás	10029
bármikor	10030
híre	10031
származik	10032
kolont	10033
meghaladó	10034
elbocsát	10035
tiltakozás	10036
felkészülés	10037
diktat	10038
megegyezés	10039
feszültség	10040
elindult	10041
kósa	10042
bezár	10043
büntetőeljárás	10044
des	10045
kf	10046
ost	10047
sod	10048
toll	10049
##rop	10050
##rang	10051
##get	10052
##vás	10053
##cím	10054
##hög	10055
##jöv	10056
##ube	10057
aznap	10058
##emlék	10059
elöl	10060
megseb	10061
megkülönb	10062
##ételt	10063
csip	10064
korona	10065
##őkép	10066
reh	10067
százalékuk	10068
vic	10069
viselő	10070
talan	10071
nevelő	10072
példaként	10073
lépéseket	10074
##antól	10075
útján	10076
győzte	10077
honnan	10078
hívják	10079
találkozik	10080
ünnepek	10081
fehérorosz	10082
senkit	10083
építési	10084
csinált	10085
kancell	10086
szavak	10087
##vállalkoz	10088
koncentráció	10089
tőzsde	10090
lebonyol	10091
dzsud	10092
bas	10093
lot	10094
ráj	10095
észt	10096
##sort	10097
##ena	10098
##emet	10099
##egr	10100
##eger	10101
##esült	10102
közterület	10103
##azion	10104
##hetőleg	10105
rendes	10106
##őke	10107
képregény	10108
százalékban	10109
körű	10110
kérő	10111
életre	10112
párti	10113
rendszerek	10114
team	10115
maradhat	10116
betart	10117
ismerik	10118
akárcsak	10119
gázolaj	10120
jobbikos	10121
bejelentett	10122
ikat	10123
szlovákiában	10124
csomó	10125
fűző	10126
350	10127
tömegközl	10128
ezres	10129
bőve	10130
hajnali	10131
összefüggés	10132
menekült	10133
dikt	10134
johnson	10135
sikertelen	10136
oszlop	10137
dubaj	10138
kisfiú	10139
felesleges	10140
dallas	10141
legfelsőbb	10142
böngész	10143
03	10144
dek	10145
kó	10146
kérték	10147
##gar	10148
##láv	10149
##szott	10150
##atika	10151
kip	10152
##ázium	10153
##rabban	10154
##este	10155
kapni	10156
tartoznak	10157
##édul	10158
váró	10159
árát	10160
vonult	10161
költött	10162
lépni	10163
kevesen	10164
személyautó	10165
##dőjel	10166
jegyban	10167
repülés	10168
engedték	10169
ozó	10170
utcára	10171
mutatnak	10172
megoldani	10173
próbálta	10174
temető	10175
polgármesteri	10176
tűnő	10177
##rác	10178
döntőben	10179
csehország	10180
##biztos	10181
egyedülálló	10182
népszerűs	10183
aggód	10184
erdei	10185
jones	10186
##vállalat	10187
júniusban	10188
szégyen	10189
szolgálati	10190
ajtó	10191
viharos	10192
konferencián	10193
dunántúli	10194
öngyilkos	10195
szapor	10196
komplex	10197
magatartás	10198
erőforrás	10199
nógrád	10200
dzsudzsák	10201
fek	10202
massz	10203
nánk	10204
tészt	10205
up	10206
zott	10207
##cik	10208
##bet	10209
##etnek	10210
szfér	10211
szelvény	10212
##iklás	10213
##ilván	10214
##adel	10215
##ello	10216
mindhárom	10217
kering	10218
kaptunk	10219
arch	10220
értelemben	10221
fogtak	10222
indítottak	10223
alapja	10224
főh	10225
marian	10226
épülő	10227
olyanok	10228
##felől	10229
természeti	10230
mérő	10231
gazdaságpolit	10232
amerika	10233
sikeresen	10234
szolgálja	10235
léptek	10236
ással	10237
tisztán	10238
olvasni	10239
játszottak	10240
növekszik	10241
felhalm	10242
középiskol	10243
vitát	10244
szenz	10245
szenátus	10246
gyermeke	10247
megállapítás	10248
fölény	10249
fenntartható	10250
régióban	10251
lovag	10252
ragad	10253
mátyás	10254
weboldal	10255
születésnap	10256
##vidék	10257
##----	10258
assange	10259
##fejlesztési	10260
elnevezésű	10261
tengely	10262
fernando	10263
gimnázium	10264
brüsszeli	10265
dns	10266
ful	10267
hort	10268
jében	10269
kak	10270
wall	10271
##áh	10272
##őbb	10273
##hont	10274
##oom	10275
##wagen	10276
##gyárt	10277
##erre	10278
##ancia	10279
##ory	10280
elönt	10281
##apt	10282
##ado	10283
állhat	10284
kellő	10285
kétezer	10286
##örög	10287
india	10288
forintnyi	10289
miatti	10290
otthont	10291
házkutatás	10292
hajtó	10293
nyomtatási	10294
nyomaték	10295
hangot	10296
hírportál	10297
szólva	10298
kamara	10299
##rendelet	10300
bizonyítani	10301
januártól	10302
programban	10303
csökkenti	10304
eltűn	10305
foglalkozni	10306
hívták	10307
művek	10308
megbeszélés	10309
##ucc	10310
havonta	10311
székház	10312
garanci	10313
támadást	10314
óvat	10315
hegyi	10316
##rosoft	10317
tevékenységét	10318
fertőzött	10319
gazdálkodás	10320
vásárlók	10321
dvsc	10322
legszebb	10323
philadel	10324
összehasonlítás	10325
heged	10326
értéktőzsde	10327
microsoft	10328
au	10329
ani	10330
dor	10331
dátum	10332
gram	10333
helikopter	10334
pint	10335
rok	10336
vezettek	10337
vesszük	10338
xii	10339
##esta	10340
##ise	10341
felidéz	10342
teret	10343
újonc	10344
képzett	10345
mondható	10346
##imenz	10347
##etlenül	10348
neves	10349
érdekeit	10350
tagság	10351
sikere	10352
hangzott	10353
városában	10354
gondolni	10355
tízmillió	10356
gyakorolt	10357
ismertette	10358
finálé	10359
médium	10360
közlekedő	10361
ülést	10362
helyenként	10363
kettőt	10364
állásfoglal	10365
ekkora	10366
növeli	10367
jelentkező	10368
festő	10369
bevételek	10370
csodálat	10371
3000	10372
csatlakozás	10373
létrehozott	10374
iszlám	10375
egymástól	10376
megkérdezettek	10377
centiméteres	10378
hungar	10379
szerűen	10380
ilyet	10381
ruha	10382
euróövezeti	10383
kormánypárti	10384
tükröz	10385
megdöbb	10386
butt	10387
dab	10388
mász	10389
máig	10390
stag	10391
well	10392
ébr	10393
##rai	10394
##hull	10395
##éj	10396
csavar	10397
##adics	10398
alföldi	10399
gyász	10400
koránt	10401
##egyed	10402
erköl	10403
##ábban	10404
##ályos	10405
ellenkező	10406
mondan	10407
napvilág	10408
mindennapi	10409
belföldi	10410
##vezeték	10411
##ric	10412
változó	10413
nemzetbiztonsági	10414
##ezteti	10415
volks	10416
háza	10417
vállalati	10418
figyelni	10419
disz	10420
gondolta	10421
gólszerző	10422
irányba	10423
szavazott	10424
lehetőségeket	10425
foglalkoztatási	10426
támogatását	10427
torony	10428
1991	10429
készültek	10430
kutatói	10431
takács	10432
senkinek	10433
melinda	10434
kialakulás	10435
stressz	10436
minimál	10437
házaspár	10438
autósok	10439
kivételével	10440
magánnyugdíjpénztárak	10441
némileg	10442
volkswagen	10443
dir	10444
dús	10445
fb	10446
fúj	10447
gás	10448
##zuk	10449
##vére	10450
##szel	10451
##szül	10452
##ane	10453
##ikon	10454
##bbi	10455
##kölcs	10456
elmenek	10457
vonzó	10458
rendszere	10459
teljesített	10460
biztosítási	10461
hivatás	10462
vizsgálni	10463
akarok	10464
jutó	10465
sajátos	10466
percet	10467
merült	10468
vitamin	10469
bizottsági	10470
fokon	10471
1995	10472
internazion	10473
növekedett	10474
igencsak	10475
vizsgálata	10476
műsorvezető	10477
##index	10478
változata	10479
győzelemmel	10480
ügyvédje	10481
kockázati	10482
határozottan	10483
tűzoltóság	10484
esküv	10485
interjút	10486
ausztriában	10487
fedélzet	10488
kormányszóvivő	10489
detroit	10490
páciens	10491
erkölcsi	10492
baba	10493
tág	10494
##éveszt	10495
##kov	10496
##úró	10497
##inz	10498
##arab	10499
##énes	10500
egykor	10501
tartom	10502
országnak	10503
##ádi	10504
váltotta	10505
járatok	10506
elnökválaszt	10507
esetet	10508
pártnak	10509
csapatban	10510
népesség	10511
holnap	10512
sajtószóviv	10513
portf	10514
változást	10515
februári	10516
áprilisi	10517
épületet	10518
örökség	10519
##ifik	10520
hazánkban	10521
dvd	10522
befektetői	10523
négyzetméteres	10524
kádár	10525
alekszandr	10526
rudolf	10527
hangoztatta	10528
daniel	10529
jézus	10530
fák	10531
inak	10532
ksh	10533
mam	10534
pen	10535
áját	10536
##iába	10537
##vest	10538
##ásban	10539
elindul	10540
##íthető	10541
válhat	10542
##avi	10543
##over	10544
##almatlan	10545
jelentek	10546
alapos	10547
világgazdaság	10548
belügyminiszter	10549
pénzügyminisztérium	10550
találat	10551
tagadta	10552
##ico	10553
segéd	10554
mentelmi	10555
"...	10556
befiz	10557
létező	10558
##asson	10559
gyorsabban	10560
költségvetést	10561
problémákat	10562
aláírás	10563
vásárolni	10564
legalacsony	10565
büntet	10566
megbeteg	10567
fogadott	10568
##tartások	10569
##erősebb	10570
értelmiség	10571
ígérte	10572
küzdött	10573
megváltozott	10574
hallgatók	10575
futómű	10576
körzetben	10577
ibolya	10578
retteg	10579
színek	10580
gyarap	10581
bukkantak	10582
legalacsonyabb	10583
burg	10584
bomba	10585
dam	10586
dőlt	10587
eink	10588
hattak	10589
piszt	10590
vatik	10591
zte	10592
##ss	10593
##by	10594
##bar	10595
##))	10596
megaszt	10597
##íthatatlan	10598
##éta	10599
kiált	10600
##otikus	10601
bejut	10602
nyír	10603
##szerv	10604
előállítás	10605
adhat	10606
neked	10607
magában	10608
##állni	10609
prakt	10610
szembes	10611
##ugh	10612
munkab	10613
jobboldal	10614
értékelte	10615
csapatnak	10616
haszon	10617
fidesznek	10618
vizsgálták	10619
tisztesség	10620
##essy	10621
##kerek	10622
rajtuk	10623
villám	10624
listáján	10625
folytatni	10626
lényeges	10627
pontosabban	10628
felmérése	10629
opera	10630
jellemzően	10631
pszichológus	10632
tábornok	10633
utakon	10634
mostanában	10635
nyugodtan	10636
rámutatott	10637
szponz	10638
bert	10639
gőz	10640
nm	10641
nok	10642
rász	10643
ránk	10644
tott	10645
yout	10646
##latok	10647
##cél	10648
##kovics	10649
##ásokat	10650
##ikája	10651
szereztek	10652
kijelölt	10653
##ogatás	10654
##ányos	10655
##ray	10656
##rah	10657
##cid	10658
depr	10659
rendre	10660
legs	10661
méghoz	10662
jelenthet	10663
váratlan	10664
vezetésével	10665
spr	10666
továbbjut	10667
kérdésben	10668
hetnek	10669
jegyében	10670
##term	10671
szabályokat	10672
tárgyalt	10673
merész	10674
##ulladás	10675
motiv	10676
erővel	10677
vélemények	10678
##őleges	10679
gyűjtő	10680
szülei	10681
ligában	10682
##tagok	10683
előnye	10684
idézett	10685
figyelemmel	10686
aggod	10687
afrika	10688
tüzet	10689
húsvét	10690
nagykövetség	10691
megkapta	10692
összetétel	10693
latin	10694
beszámolója	10695
koszov	10696
mlsz	10697
személygépkocsi	10698
youtube	10699
méghozzá	10700
kond	10701
káp	10702
lil	10703
mem	10704
sol	10705
suz	10706
usz	10707
zl	10708
##mában	10709
##ves	10710
##bolt	10711
##etű	10712
##ésű	10713
##érmet	10714
köl	10715
##aph	10716
csíp	10717
##oth	10718
beszer	10719
állítottak	10720
legerősebb	10721
okon	10722
végleg	10723
##élyeg	10724
külügyi	10725
munkával	10726
főosztály	10727
készítette	10728
kérni	10729
ötszáz	10730
beton	10731
akarat	10732
hivatali	10733
##osztott	10734
köteles	10735
megvizsg	10736
mérkőzésén	10737
kereskedő	10738
mann	10739
bírságot	10740
létrejött	10741
##örtén	10742
romániai	10743
épületek	10744
sebas	10745
nacional	10746
áldozatot	10747
huszár	10748
elbeszélés	10749
ellentétes	10750
mérsékelt	10751
dráma	10752
vancouveri	10753
szimpat	10754
litván	10755
felülvizsgálat	10756
megkülönbözt	10757
cin	10758
ival	10759
kaj	10760
meztelen	10761
og	10762
vevők	10763
##más	10764
##toni	10765
##nénk	10766
##fű	10767
##parancs	10768
##gyógy	10769
##onom	10770
megker	10771
##airól	10772
leját	10773
##ight	10774
évről	10775
előadó	10776
emeltek	10777
helyeken	10778
átlép	10779
##ump	10780
##örök	10781
milliméter	10782
naps	10783
napközben	10784
hozzák	10785
mennyit	10786
érdekel	10787
színeiben	10788
egyesek	10789
##ossági	10790
krim	10791
##kerék	10792
hatását	10793
rekonstr	10794
elképesztő	10795
darabot	10796
akciós	10797
fellend	10798
patak	10799
lövöld	10800
kabát	10801
szenvedély	10802
skál	10803
devizap	10804
augusztusban	10805
megszerezte	10806
hungary	10807
kiterjed	10808
alapítója	10809
kaposvári	10810
elkötel	10811
nyilvántartásba	10812
zakl	10813
devecser	10814
ideiglenes	10815
elhangzott	10816
konstrukció	10817
megkezdődött	10818
büdzsé	10819
automatikusan	10820
petőfi	10821
adatbázis	10822
windows	10823
rájátszás	10824
claud	10825
internazionale	10826
bd	10827
gur	10828
gro	10829
kval	10830
kac	10831
lobb	10832
pog	10833
ropp	10834
##rad	10835
##coni	10836
##kert	10837
##por	10838
elkül	10839
##ériai	10840
egyezmény	10841
##ilkol	10842
##csik	10843
alát	10844
##aga	10845
gyert	10846
gyári	10847
számának	10848
##állomány	10849
##esztés	10850
prom	10851
##őrség	10852
árus	10853
ügyekben	10854
##fiai	10855
élére	10856
sikk	10857
értékek	10858
tex	10859
teljesíteni	10860
hírlap	10861
kamera	10862
berlus	10863
hagyták	10864
csoportja	10865
köthető	10866
érkeznek	10867
tulajdonú	10868
sérülést	10869
születik	10870
balesetek	10871
energet	10872
hangsúlyt	10873
használták	10874
bármely	10875
korlátozott	10876
korrekt	10877
kérdez	10878
fejlődő	10879
igyekeznek	10880
tüdő	10881
mutatója	10882
tárgyalásokat	10883
lyon	10884
innov	10885
tornán	10886
aktivitás	10887
tálib	10888
##gyűjtés	10889
könnyedén	10890
soproni	10891
zloty	10892
berlusconi	10893
ci	10894
cat	10895
náci	10896
sió	10897
tb	10898
teny	10899
##motor	10900
##gej	10901
##nám	10902
##lem	10903
##lást	10904
##anács	10905
##ességes	10906
szergej	10907
felzárkóz	10908
leáll	10909
##utató	10910
állása	10911
előírás	10912
kétmillió	10913
szeme	10914
időjár	10915
##eztük	10916
##telep	10917
##cker	10918
nyomoz	10919
maradjon	10920
párharc	10921
útja	10922
jutnak	10923
hónapig	10924
##került	10925
károk	10926
repr	10927
tekintély	10928
erőmű	10929
toront	10930
kivéve	10931
nehézség	10932
##hajó	10933
kocsis	10934
ellátott	10935
comp	10936
kollektív	10937
lezárták	10938
sértés	10939
opel	10940
konkur	10941
frissen	10942
lopott	10943
megtalálták	10944
1956	10945
hatékonyabb	10946
veszprémi	10947
avat	10948
valósul	10949
szélsőjobb	10950
ártatlan	10951
összehang	10952
felfedezés	10953
ugrott	10954
jackson	10955
kattintson	10956
taxi	10957
mechanizmus	10958
psv	10959
drasztikus	10960
manipul	10961
anim	10962
bad	10963
dni	10964
fát	10965
kát	10966
king	10967
romb	10968
soh	10969
zik	10970
áfa	10971
öm	10972
##gart	10973
##nik	10974
##lok	10975
##elv	10976
##sziget	10977
##oka	10978
##reform	10979
##refer	10980
érezte	10981
##ukk	10982
##ívum	10983
##olyi	10984
##óka	10985
##éseit	10986
jelentenek	10987
##ízis	10988
várost	10989
államnak	10990
alapuló	10991
főút	10992
árbevétel	10993
##rip	10994
készítés	10995
nemzetiség	10996
döntenek	10997
játékost	10998
zseni	10999
törvényben	11000
akartam	11001
határát	11002
irányába	11003
csökkentése	11004
160	11005
sajtórefer	11006
fennak	11007
olaszországban	11008
eléri	11009
esélyt	11010
szakemberei	11011
modellt	11012
vágó	11013
sima	11014
politikát	11015
pályázatot	11016
gerinc	11017
kiadása	11018
utazási	11019
stratégia	11020
időtartam	11021
álláspontja	11022
##kutató	11023
feldolgozó	11024
csepp	11025
##forgalmi	11026
zalaeger	11027
őszintén	11028
kálmán	11029
hétköznapi	11030
megtalálható	11031
kiegyensúly	11032
bútor	11033
bravúr	11034
bundesl	11035
bevásárló	11036
philadelph	11037
aik	11038
dez	11039
ic	11040
koszt	11041
lj	11042
srác	11043
tw	11044
vul	11045
##vad	11046
##első	11047
megcs	11048
##iság	11049
##itási	11050
##adták	11051
kiírt	11052
##usch	11053
korban	11054
##abeli	11055
esp	11056
rendészeti	11057
számvevő	11058
újból	11059
részeként	11060
mindennap	11061
államtitkára	11062
alapanyag	11063
##rij	11064
illető	11065
ottani	11066
összefogás	11067
értéket	11068
hajsz	11069
baja	11070
autóban	11071
németországi	11072
anyja	11073
könyvel	11074
hagyni	11075
kitör	11076
viták	11077
megszavaz	11078
nézzük	11079
fogyaték	11080
motors	11081
antoni	11082
indulhat	11083
történetének	11084
barátai	11085
döntéshoz	11086
elfogadhatatlan	11087
kocsit	11088
tapasztalatok	11089
mélyen	11090
clint	11091
mehet	11092
korrupciós	11093
fejlemény	11094
csepeli	11095
londonban	11096
kaposvár	11097
fejtette	11098
verték	11099
szürke	11100
green	11101
méh	11102
elfelejt	11103
intellig	11104
zalaegerszeg	11105
számvevőszék	11106
hév	11107
kart	11108
pezs	11109
rm	11110
##hold	11111
##kil	11112
##úció	11113
##etek	11114
##szfér	11115
elismert	11116
kid	11117
ezett	11118
beép	11119
estek	11120
terj	11121
##eph	11122
##tein	11123
tartás	11124
végezni	11125
##ióta	11126
kormányrendelet	11127
fir	11128
ügye	11129
tanult	11130
visszafog	11131
visszautas	11132
nevezték	11133
konszol	11134
vállalni	11135
védelmet	11136
mutattak	11137
dioxid	11138
melyben	11139
csökkentette	11140
transz	11141
tényleges	11142
international	11143
veszélyt	11144
válaszolta	11145
megoldások	11146
nyeremény	11147
bejelentése	11148
pillér	11149
galax	11150
megbízás	11151
moson	11152
igyekezett	11153
##művek	11154
normál	11155
washingtoni	11156
##irdetés	11157
árvízvédelmi	11158
hármas	11159
csekély	11160
előírások	11161
platform	11162
korántsem	11163
konszolid	11164
ferg	11165
rej	11166
samp	11167
zás	11168
##piaci	11169
egyén	11170
##ítők	11171
##tai	11172
szerelmes	11173
##értve	11174
##odni	11175
##egyet	11176
nagysága	11177
erkölcs	11178
okról	11179
fogok	11180
fogunk	11181
##ebbi	11182
állampapír	11183
követel	11184
##házi	11185
star	11186
kérnek	11187
választani	11188
támaszt	11189
járni	11190
nevelés	11191
érdeke	11192
nyomon	11193
javára	11194
menti	11195
kérdéseket	11196
szeretett	11197
szoba	11198
bajnokságot	11199
földre	11200
decemberében	11201
amelyekben	11202
univer	11203
merkel	11204
tanácskozás	11205
rendelkeznek	11206
rendelkezésére	11207
kisebbség	11208
töltötte	11209
igényel	11210
schi	11211
hibák	11212
mozgást	11213
utasítás	11214
hadi	11215
tagjainak	11216
mélypont	11217
vehet	11218
kezdeményezte	11219
csomagot	11220
bővült	11221
bízik	11222
református	11223
heat	11224
buli	11225
pakisztáni	11226
pusztán	11227
megfont	11228
munkavállaló	11229
kuratórium	11230
stef	11231
idényben	11232
tipikus	11233
slág	11234
sakk	11235
gonosz	11236
ryan	11237
fantáz	11238
##hullám	11239
gáspár	11240
##zan	11241
##ném	11242
##dó	11243
##enberg	11244
eleje	11245
szerver	11246
##asem	11247
kiép	11248
kiszám	11249
felder	11250
alag	11251
##uson	11252
##ontás	11253
érv	11254
##ida	11255
fogták	11256
mindenütt	11257
jelentést	11258
látjuk	11259
##ímél	11260
elnökét	11261
nőnek	11262
##andós	11263
biztosítja	11264
lépnek	11265
eredményét	11266
eredményeit	11267
párbaj	11268
fizető	11269
célok	11270
népi	11271
gólját	11272
emelni	11273
adóhatóság	11274
holoka	11275
tanuló	11276
javasolja	11277
készültséget	11278
vettem	11279
kihallgatás	11280
mégiscsak	11281
elfogadható	11282
elképzelés	11283
assziszt	11284
áldozata	11285
lőtte	11286
kategóriába	11287
hordó	11288
megpróbál	11289
veszteséget	11290
sms	11291
cipő	11292
ugyanazt	11293
mostanra	11294
nyarán	11295
nyilvánvalóan	11296
sürgős	11297
##rogén	11298
próba	11299
laboratórium	11300
standard	11301
előrelép	11302
virtuális	11303
sohasem	11304
fas	11305
ruház	11306
vari	11307
##özet	11308
##etet	11309
##olása	11310
eladó	11311
##istó	11312
szerető	11313
kiszolg	11314
##endszer	11315
előzet	11316
érzik	11317
többségi	11318
##kezési	11319
prov	11320
emberiség	11321
elment	11322
amiből	11323
2015	11324
karban	11325
milliárdot	11326
léphet	11327
célzó	11328
véleked	11329
##órás	11330
##órendszer	11331
szerzői	11332
hiányosság	11333
tekinti	11334
iphone	11335
inger	11336
angliában	11337
proc	11338
##zóna	11339
téves	11340
terméket	11341
grand	11342
tevékenységet	11343
nyílik	11344
változatlanul	11345
megnyert	11346
vonatkozóan	11347
rabló	11348
konzult	11349
ízlés	11350
krisztina	11351
kockázatot	11352
viselkedés	11353
elszen	11354
büszke	11355
népszava	11356
pedagógus	11357
tragédia	11358
brüsszelben	11359
elégedetlen	11360
pászt	11361
producer	11362
zsigmond	11363
kaliforniai	11364
leszögezte	11365
pillanatok	11366
sehol	11367
visszamen	11368
csodálatos	11369
suzuki	11370
bén	11371
ca	11372
dk	11373
hin	11374
sas	11375
##nője	11376
##hár	11377
##uch	11378
##gyár	11379
szin	11380
##éséhez	11381
##iker	11382
alpolgármester	11383
##ámadás	11384
helyek	11385
helyben	11386
hozatal	11387
határt	11388
műhold	11389
szakad	11390
spi	11391
haladt	11392
lakók	11393
karossz	11394
törvényi	11395
térd	11396
hetett	11397
kerüljön	11398
miniszteri	11399
csoportot	11400
##osztó	11401
chi	11402
rendőrséget	11403
elemzése	11404
szélesebb	11405
javasolta	11406
sajtószabadság	11407
válogatás	11408
hallani	11409
felelősséget	11410
panor	11411
omat	11412
tévés	11413
cikkek	11414
idejére	11415
tapasztalható	11416
működnek	11417
növelte	11418
örökös	11419
levelek	11420
rekordot	11421
előrejelzések	11422
kerékpáros	11423
érdeklődők	11424
takarékos	11425
bejegyzés	11426
alpesi	11427
kiszivárog	11428
rendőrt	11429
pletyk	11430
megasztár	11431
roppant	11432
bc	11433
eszerint	11434
hím	11435
rub	11436
##ibb	11437
##tig	11438
##cég	11439
##ui	11440
##ítt	11441
##anna	11442
szett	11443
##esés	11444
##oss	11445
kört	11446
kirab	11447
közre	11448
válnak	11449
##odtak	11450
tervet	11451
tartály	11452
##állyal	11453
eurózóna	11454
kormányok	11455
##ostel	11456
fiat	11457
haltak	11458
életrajz	11459
komárom	11460
íteni	11461
ezerrel	11462
hírül	11463
javítás	11464
segíthet	11465
bloom	11466
foglalkozott	11467
aláírt	11468
légkör	11469
rendeznek	11470
kényelmes	11471
lányt	11472
gyártók	11473
semmiféle	11474
medvegy	11475
korrekció	11476
virg	11477
sérültek	11478
lövés	11479
együttműködési	11480
levéltár	11481
nyíltan	11482
szerkesztőség	11483
üzemeltetés	11484
dupla	11485
kereste	11486
cameron	11487
lapunknak	11488
fűzte	11489
rehab	11490
button	11491
rászor	11492
alátám	11493
97	11494
bű	11495
búj	11496
gall	11497
jim	11498
pul	11499
tin	11500
wat	11501
whit	11502
##cent	11503
##kin	11504
##ekas	11505
##ettük	11506
##ada	11507
kivet	11508
leendő	11509
##rep	11510
ernő	11511
##kös	11512
átmenet	11513
tudatta	11514
összesz	11515
körm	11516
euróra	11517
alapkam	11518
törő	11519
kérik	11520
elnököt	11521
életmód	11522
javítani	11523
mikulás	11524
hátral	11525
##allg	11526
jegyek	11527
utast	11528
borult	11529
##szabású	11530
foglalkoztató	11531
támogatások	11532
vidám	11533
továbbiakban	11534
anti	11535
financi	11536
##újában	11537
emelkedő	11538
haláleset	11539
ipad	11540
információs	11541
olaszok	11542
##meleg	11543
vizsgálta	11544
fegyelmi	11545
cikkében	11546
húzta	11547
tehetséges	11548
egymásnak	11549
vidékfejlesztési	11550
feljelentés	11551
örülök	11552
menedzsment	11553
hozzájárulás	11554
mértek	11555
békéscs	11556
szálloda	11557
nyugodt	11558
ugrás	11559
leggyors	11560
interjújában	11561
megszűnik	11562
guardian	11563
világkupa	11564
tranzakció	11565
mourinho	11566
##adicsom	11567
nénk	11568
ram	11569
sand	11570
##negyed	11571
##vös	11572
##oj	11573
##ösz	11574
##oney	11575
##etty	11576
szerzők	11577
korú	11578
korabeli	11579
mir	11580
utó	11581
nagyváros	11582
okát	11583
fogjuk	11584
prost	11585
##ókusz	11586
köré	11587
országba	11588
kormánybiztos	11589
szakács	11590
leszám	11591
##ációk	11592
##ünkben	11593
stars	11594
hárman	11595
háromnegyed	11596
címe	11597
cége	11598
##icz	11599
hangos	11600
javulás	11601
##helyzet	11602
célkit	11603
segítette	11604
kötni	11605
feltűn	11606
régészeti	11607
merev	11608
170	11609
hatást	11610
emelkedéssel	11611
abu	11612
bírálta	11613
listáját	11614
kritiz	11615
növelni	11616
távoli	11617
törökország	11618
keményen	11619
pénztári	11620
összefüggő	11621
győzelme	11622
##ismertebb	11623
választókerületben	11624
ráta	11625
lásd	11626
jegyzőkönyv	11627
einket	11628
gyöker	11629
összhangban	11630
junior	11631
sajtószóvivője	11632
kiegyensúlyozott	11633
elszenv	11634
célkitű	11635
cenz	11636
méz	11637
sant	11638
trón	11639
zél	11640
zöm	11641
##hov	11642
szebb	11643
elve	11644
elkülön	11645
##are	11646
éssel	11647
##ágai	11648
##ite	11649
közút	11650
alg	11651
albán	11652
##uti	11653
##nyomás	11654
előáll	11655
##letes	11656
kelljen	11657
##kezik	11658
fogás	11659
kezét	11660
visel	11661
áradás	11662
árokba	11663
időz	11664
csapattal	11665
szór	11666
kompen	11667
játékvezető	11668
fizika	11669
ásához	11670
akarunk	11671
bizonyítja	11672
foglalja	11673
távozás	11674
játszanak	11675
oroszországban	11676
oldalas	11677
elemek	11678
csata	11679
vitatott	11680
veszélyben	11681
ombud	11682
gyanúsítottak	11683
medenc	11684
nyíl	11685
titkár	11686
##erőmű	11687
pályaudvar	11688
megelőzés	11689
buszok	11690
börtönben	11691
munkaviszony	11692
agyon	11693
listavezető	11694
rögzített	11695
katalán	11696
szórakozó	11697
kiegészítő	11698
tipp	11699
afganisztáni	11700
jelentősége	11701
megelőzően	11702
megfigyelés	11703
beavatkozás	11704
##válság	11705
pohár	11706
orvost	11707
fazekas	11708
szolidar	11709
!)	11710
dénes	11711
món	11712
rev	11713
tím	11714
wer	11715
##rény	11716
##eink	11717
##enham	11718
##ásai	11719
##ikával	11720
megszerzés	11721
##ítheti	11722
kielég	11723
##igan	11724
##áma	11725
##abány	11726
eséllyel	11727
emelték	11728
valencia	11729
helyt	11730
##eját	11731
csakhogy	11732
##ívó	11733
várjuk	11734
euróért	11735
világra	11736
soron	11737
##anda	11738
szólnak	11739
lépcső	11740
hasson	11741
következmények	11742
tervezik	11743
hetetlen	11744
forgat	11745
forgalm	11746
meghirdetett	11747
nyilatkozatot	11748
eléggé	11749
reptér	11750
tized	11751
fordítani	11752
ülése	11753
elvitt	11754
egyenként	11755
gyengülés	11756
téved	11757
center	11758
rendőröket	11759
dolgozói	11760
jövedelm	11761
pho	11762
visszatérő	11763
##tanács	11764
automat	11765
hungária	11766
rali	11767
bizonytalanság	11768
debrecenben	11769
befejező	11770
kiterjeszt	11771
csatornák	11772
szolnoki	11773
látogatók	11774
alvás	11775
lady	11776
ronaldo	11777
nobel	11778
bocsánatot	11779
kvalifik	11780
ombuds	11781
hatták	11782
my	11783
mig	11784
##aut	11785
##do	11786
##dve	11787
##vh	11788
##hő	11789
elle	11790
##adalmas	11791
közok	11792
##épp	11793
korán	11794
olni	11795
mindaz	11796
erika	11797
képe	11798
jelentik	11799
váratlanul	11800
kezdés	11801
leszünk	11802
látás	11803
folyos	11804
amihez	11805
##enix	11806
##keleti	11807
visszahív	11808
brad	11809
ahová	11810
komprom	11811
vezetőjének	11812
lakott	11813
túlsúly	11814
jegyet	11815
bankközi	11816
hitler	11817
másikat	11818
vízi	11819
plán	11820
andor	11821
nyilatkozni	11822
károkat	11823
fogyasztási	11824
külföldre	11825
energiát	11826
eszközt	11827
pillant	11828
palot	11829
unalmas	11830
összesítés	11831
##czy	11832
patri	11833
szerbia	11834
gyerekeknek	11835
tüz	11836
felelősségre	11837
kiesés	11838
eladós	11839
rajongók	11840
jersey	11841
##mánnyal	11842
államháztartás	11843
költözött	11844
háromszoros	11845
hétköznap	11846
roncs	11847
megválasztott	11848
teherautó	11849
gasztron	11850
tottenham	11851
sebastian	11852
bt	11853
bon	11854
bélyeg	11855
cirk	11856
döbb	11857
fill	11858
jord	11859
lar	11860
link	11861
rs	11862
vig	11863
##ich	11864
##magyar	11865
##d5	11866
##lett	11867
##bal	11868
##erán	11869
elkezdő	11870
köre	11871
megal	11872
felgy	11873
lew	11874
##entes	11875
jelezték	11876
emészt	11877
##esty	11878
vagyoni	11879
magához	11880
##ilágítás	11881
folyós	11882
összevet	11883
##izsgálás	11884
hajr	11885
keveset	11886
ezekre	11887
határozza	11888
bizonyított	11889
hónapra	11890
krist	11891
használó	11892
univers	11893
izmus	11894
őrült	11895
##úszott	11896
barátok	11897
tárgyaló	11898
ellenőrző	11899
döntéseket	11900
alkalmazni	11901
bukar	11902
írtak	11903
becsül	11904
terhes	11905
ingatlanok	11906
névtelen	11907
minősítette	11908
maguknak	11909
vittek	11910
kezdetben	11911
hamisítás	11912
akkoriban	11913
rejtett	11914
autópályán	11915
belvízvédelmi	11916
látszott	11917
regisztrált	11918
választópolgár	11919
konyha	11920
integráció	11921
##unió	11922
rugalmas	11923
elszámoltatás	11924
bosszú	11925
erejű	11926
##zálog	11927
hazugság	11928
vígjáték	11929
hoffmann	11930
szimpatiz	11931
phoenix	11932
htt	11933
mass	11934
ránt	11935
tu	11936
um	11937
vg	11938
##zatos	11939
##nom	11940
##óc	11941
##futó	11942
ésének	11943
csák	11944
##csont	11945
##endi	11946
##oda	11947
jelzálog	11948
ins	11949
##kozy	11950
képen	11951
##ábla	11952
jelentések	11953
fradi	11954
életkor	11955
életének	11956
társulat	11957
lennie	11958
magyarországnak	11959
##védők	11960
híradó	11961
csalód	11962
versenyzők	11963
túlnyom	11964
közeljöv	11965
személyt	11966
kapcsolata	11967
szabadláb	11968
szavazatok	11969
gyanúj	11970
zárja	11971
tizedik	11972
veszélybe	11973
megbeszél	11974
egyszeri	11975
dobogó	11976
környezetben	11977
helyszínről	11978
grúz	11979
nőket	11980
lakásban	11981
forrásból	11982
korrig	11983
megjelenése	11984
ebéd	11985
sarkozy	11986
védelmét	11987
750	11988
europ	11989
állandóan	11990
klasszis	11991
birtokában	11992
kutyák	11993
bánya	11994
szögezte	11995
somogyi	11996
dicsér	11997
meteorológiai	11998
##mozgás	11999
cáfolta	12000
cseleked	12001
##mezőny	12002
boston	12003
megítélés	12004
pánik	12005
elöntött	12006
##egyetem	12007
financial	12008
bukarest	12009
közeljövőben	12010
bró	12011
bort	12012
fik	12013
henger	12014
lok	12015
tünk	12016
tari	12017
vinc	12018
##méd	12019
##űs	12020
##ee	12021
##hárm	12022
##szav	12023
szam	12024
szúr	12025
##orit	12026
##eman	12027
##emelked	12028
megtekint	12029
##edit	12030
szerelt	12031
község	12032
felmond	12033
rendbe	12034
tartalma	12035
végezte	12036
illat	12037
vezethet	12038
országszerte	12039
árad	12040
##ádé	12041
##lang	12042
támadt	12043
perben	12044
menő	12045
félelem	12046
értékét	12047
másodszor	12048
abbá	12049
hetes	12050
hátvéd	12051
beszélnek	12052
mozik	12053
évekig	12054
szervez	12055
szerviz	12056
jelentősebb	12057
ismerteti	12058
emelkedtek	12059
okozza	12060
véres	12061
eljárásban	12062
gyakorlatban	12063
forgalomban	12064
sík	12065
kolumb	12066
csatlakoz	12067
alkalmazottak	12068
megvalósítás	12069
megpróbált	12070
mutatkozott	12071
popul	12072
emlegetett	12073
##gólos	12074
likvid	12075
potenciális	12076
fulham	12077
http	12078
folt	12079
gm	12080
kt	12081
lav	12082
shar	12083
tuk	12084
##rát	12085
##hettek	12086
##senek	12087
##kar	12088
##pi	12089
##úf	12090
##orcium	12091
##érem	12092
közöl	12093
ezentúl	12094
miami	12095
legsúly	12096
magyarság	12097
2020	12098
helyről	12099
átvétel	12100
kapasz	12101
bennem	12102
ellenében	12103
hatalm	12104
##orth	12105
prop	12106
műsort	12107
alapszakasz	12108
árhullám	12109
józan	12110
olymp	12111
kérésére	12112
millióra	12113
cégnél	12114
teheti	12115
csapatát	12116
barom	12117
vállalja	12118
lapot	12119
##úzió	12120
játszhat	12121
irányította	12122
ajánlás	12123
könyves	12124
megszüntetés	12125
egymilliárd	12126
##asszony	12127
támogatására	12128
fordítás	12129
spanyolországban	12130
vállalkozói	12131
beleértve	12132
szakértője	12133
műsorban	12134
tanulmányok	12135
épületben	12136
legtöbbet	12137
indultak	12138
bármit	12139
tetej	12140
nőttek	12141
ideges	12142
utalva	12143
mögötte	12144
konzorcium	12145
tartózkodó	12146
kapuba	12147
norvégia	12148
eladni	12149
sebességgel	12150
párizsban	12151
pihenő	12152
tatabány	12153
tapasztalatai	12154
fáradt	12155
játssza	12156
puskás	12157
póker	12158
nadrág	12159
philadelphia	12160
visszafogott	12161
pláne	12162
legsúlyosabb	12163
bf	12164
gas	12165
listák	12166
missz	12167
ító	12168
##ác	12169
##hattak	12170
##our	12171
##energ	12172
##ele	12173
##osodott	12174
megmoz	12175
megmaradt	12176
##ili	12177
##ilit	12178
##edy	12179
felelő	12180
akat	12181
beind	12182
rendezték	12183
előírt	12184
emeli	12185
kapunk	12186
részének	12187
államban	12188
állampolg	12189
alapok	12190
leszek	12191
hétig	12192
mars	12193
marse	12194
eredménnyel	12195
találnak	12196
biztosította	12197
##kolat	12198
##kodtak	12199
ásáról	12200
kapcsolatba	12201
hetente	12202
földet	12203
szavaztak	12204
adatvédelmi	12205
eltör	12206
függően	12207
gépet	12208
vezény	12209
megtan	12210
állapította	12211
veszélyeztet	12212
##row	12213
választásokat	12214
centi	12215
előnyt	12216
morg	12217
felvételek	12218
demokraták	12219
egymáshoz	12220
sértő	12221
minősítés	12222
tábla	12223
júliusban	12224
portugália	12225
tüntetők	12226
mutatkozik	12227
áttekint	12228
pályafutása	12229
valakit	12230
érettségi	12231
publikált	12232
tönkre	12233
megítélése	12234
##ellátás	12235
napvilágot	12236
marseille	12237
dmit	12238
ff	12239
fázis	12240
gir	12241
led	12242
mcc	12243
pac	12244
áf	12245
ókori	12246
##használ	12247
##uj	12248
##kl	12249
##kárt	12250
##eret	12251
##adett	12252
amatőr	12253
##izm	12254
##azz	12255
rendesen	12256
legjelent	12257
legismertebb	12258
ers	12259
erik	12260
fogadás	12261
százalékponttal	12262
várta	12263
ügyi	12264
spekul	12265
style	12266
##enie	12267
elnökségi	12268
róluk	12269
lakások	12270
lakói	12271
##védelem	12272
párbeszéd	12273
szerződése	12274
órában	12275
használta	12276
amelyekkel	12277
fokos	12278
támogatásával	12279
gyűlt	12280
valószínűs	12281
##ápor	12282
biológiai	12283
fehérvári	12284
klubok	12285
fogadták	12286
közvetítés	12287
építkezés	12288
láttak	12289
mélység	12290
kupában	12291
##ágyi	12292
kérdezte	12293
drágább	12294
homlok	12295
elemzője	12296
automata	12297
szigorúan	12298
letartóztatását	12299
körülményeit	12300
luxem	12301
vallomást	12302
következményei	12303
megfogalmaz	12304
csúny	12305
tréner	12306
valakinek	12307
értesülései	12308
frankfurti	12309
ütközés	12310
tásk	12311
diagnoszt	12312
gulyás	12313
pszichiátri	12314
kancellár	12315
pintér	12316
elnökválasztás	12317
energetikai	12318
legjelentősebb	12319
caf	12320
fiók	12321
gor	12322
muz	12323
téve	12324
vető	12325
##aur	12326
##yd	12327
##vénnyel	12328
##íd	12329
##óv	12330
##font	12331
##áli	12332
##esleg	12333
elolvas	12334
##égett	12335
hova	12336
megind	12337
szeres	12338
lej	12339
lex	12340
##azar	12341
##észett	12342
miről	12343
rendezni	12344
hoznak	12345
##uma	12346
##eire	12347
##urd	12348
indítás	12349
főorvos	12350
##vezetők	12351
volv	12352
volum	12353
harry	12354
életüket	12355
vezetőit	12356
félig	12357
##ohl	12358
vizsga	12359
képvisel	12360
ásra	12361
##ster	12362
néppárt	12363
tisztességes	12364
oldala	12365
azokra	12366
horg	12367
izom	12368
kitér	12369
központban	12370
történteket	12371
különböz	12372
vádolják	12373
megtesz	12374
panel	12375
egyszerűbb	12376
feltételeket	12377
##izetők	12378
fegyvert	12379
termékeket	12380
palack	12381
járművet	12382
szeptemberi	12383
utaló	12384
fennmar	12385
színházi	12386
lóerő	12387
negyedévi	12388
gyógyszerek	12389
vádlottak	12390
győzelmét	12391
látszólag	12392
felszámolás	12393
##isszum	12394
repülőtéren	12395
okokból	12396
keser	12397
kiegyenl	12398
kopogtató	12399
megtörtént	12400
panoráma	12401
kompromisszum	12402
gyanújával	12403
ehelyett	12404
gömb	12405
kacs	12406
tun	12407
##mat	12408
##hu	12409
##jas	12410
##falt	12411
szőr	12412
##alált	12413
##akör	12414
##embe	12415
elnéz	12416
##ike	12417
kiindul	12418
feld	12419
##aidő	12420
lefelé	12421
ali	12422
minnes	12423
legény	12424
##ukban	12425
többfelé	12426
máshol	12427
munkába	12428
szakadt	12429
ugyanezt	12430
marc	12431
közöttük	12432
látó	12433
törölt	12434
pénzből	12435
gazda	12436
címét	12437
korábbinál	12438
fideszt	12439
erősíti	12440
125	12441
szeretem	12442
die	12443
programját	12444
beszélve	12445
szervezete	12446
adatot	12447
futás	12448
hatású	12449
honfit	12450
sajtóban	12451
zárva	12452
spanyolok	12453
kettes	12454
roy	12455
csökkenése	12456
ítélőt	12457
igazságszolgáltatás	12458
bővülés	12459
moratórium	12460
pályázatok	12461
szigorítás	12462
zárták	12463
frakcióvezetője	12464
fontot	12465
folytatódott	12466
élelmiszerek	12467
biztosítók	12468
számítógépes	12469
kábel	12470
ételek	12471
jöj	12472
ápoló	12473
élvez	12474
tartósan	12475
következménye	12476
édesanyja	12477
bevonásával	12478
bekerült	12479
aston	12480
##asznált	12481
mindannyian	12482
szőlő	12483
felrobbant	12484
minimálbér	12485
devizapiac	12486
időjárási	12487
antonio	12488
rehabilit	12489
boh	12490
dac	12491
falak	12492
gró	12493
ion	12494
jar	12495
pis	12496
ring	12497
rong	12498
##ies	12499
##my	12500
##ren	12501
##árak	12502
##aktor	12503
##ásos	12504
##itor	12505
##ador	12506
##csarnok	12507
kiab	12508
gyul	12509
minap	12510
def	12511
nagykan	12512
nagyszabású	12513
##epl	12514
érti	12515
ellensúly	12516
##írű	12517
munkáj	12518
főbb	12519
stutt	12520
élve	12521
mostantól	12522
jogalkot	12523
elnöksége	12524
##árdi	12525
írtam	12526
rendszerét	12527
módja	12528
kamar	12529
határoz	12530
tettem	12531
olvasók	12532
alakítás	12533
utazik	12534
##tervezet	12535
adócs	12536
tanulni	12537
különbséget	12538
thr	12539
thai	12540
indulnak	12541
ükkel	12542
kutatócsoport	12543
üzletág	12544
nehézségek	12545
veterán	12546
alkalmazás	12547
tömeges	12548
debüt	12549
kolozs	12550
szegeden	12551
fenyeget	12552
ezret	12553
1970	12554
felnőttek	12555
világhírű	12556
forradalmi	12557
felfüggesztett	12558
keveredett	12559
léleg	12560
elhelyez	12561
kihívás	12562
pilóták	12563
kinevezés	12564
elterjedt	12565
bekövetkezett	12566
magabiztosan	12567
prognózis	12568
brutális	12569
vendéglátó	12570
clinton	12571
medvegyev	12572
ombudsman	12573
##fontosságú	12574
nagykanizs	12575
stuttgart	12576
hel	12577
lind	12578
meny	12579
sec	12580
##kap	12581
szánk	12582
eleven	12583
egyeztet	12584
megöl	12585
nemz	12586
csor	12587
kimer	12588
közméd	12589
felir	12590
rendet	12591
legkor	12592
összev	12593
ellenség	12594
szemüveg	12595
világrang	12596
belügyminisztérium	12597
követelés	12598
millióval	12599
hard	12600
harag	12601
paraszt	12602
ított	12603
barn	12604
hírközlési	12605
törvényeket	12606
hetet	12607
munkaadó	12608
oroszlán	12609
hosszas	12610
andr	12611
legjobbja	12612
##értékelő	12613
egymásra	12614
fokú	12615
magától	12616
figyelmeztetés	12617
veszélye	12618
számíthatnak	12619
kívánják	12620
dobott	12621
nyújtó	12622
##roncs	12623
csökkenést	12624
feder	12625
kísérő	12626
tudományi	12627
királynő	12628
hagyományosan	12629
dokumentumot	12630
##érdem	12631
fenntartó	12632
blogon	12633
felvételi	12634
módszert	12635
óvatos	12636
estére	12637
tempó	12638
pótlék	12639
madridi	12640
eszközökkel	12641
kommentár	12642
felkészült	12643
meglepetést	12644
alkalmával	12645
voksolás	12646
tanácsadója	12647
karrierje	12648
acél	12649
négyzetkil	12650
padló	12651
preszt	12652
cselekmény	12653
info	12654
felsőoktatás	12655
##főnöke	12656
virradóra	12657
ferihegy	12658
stagnál	12659
elkötelezett	12660
bloomberg	12661
négyzetkilométer	12662
cell	12663
fekszik	12664
fodor	12665
get	12666
kram	12667
msz	12668
mold	12669
nf	12670
nhl	12671
##téri	12672
##ew	12673
##eot	12674
##d4	12675
##dok	12676
##una	12677
##enék	12678
szop	12679
##áliai	12680
##etti	12681
cson	12682
csik	12683
##izz	12684
##ende	12685
##értek	12686
##ukott	12687
okot	12688
incid	12689
##velő	12690
##öllő	12691
részeg	12692
ray	12693
kezébe	12694
országból	12695
főtitkár	12696
olyat	12697
elméleti	12698
amiről	12699
hozzánk	12700
történelm	12701
kapcsolód	12702
tagú	12703
csapatk	12704
hangja	12705
zsin	12706
velenc	12707
##díjat	12708
kilós	12709
költségeit	12710
ezekből	12711
oldalról	12712
andy	12713
környező	12714
gyorskor	12715
nick	12716
javasolt	12717
tényezők	12718
összegeket	12719
találkozás	12720
egyetemes	12721
fogyasztása	12722
kórházi	12723
vesztett	12724
köztiszt	12725
bírálat	12726
októberében	12727
környezeti	12728
##jegyző	12729
álláskeres	12730
vetette	12731
turista	12732
járműv	12733
beszédet	12734
##marad	12735
együttműködést	12736
szolgálatot	12737
belőlük	12738
iparág	12739
evol	12740
hatékonyság	12741
felvett	12742
olvasóink	12743
menedzsere	12744
tartalmú	12745
szántó	12746
kreatív	12747
székesfehérvári	12748
navig	12749
kegyetlen	12750
röhög	12751
##szenny	12752
gödöllő	12753
elengedhetetlen	12754
kilencvenes	12755
kongresszus	12756
influenza	12757
erőfeszítés	12758
docler	12759
bővebben	12760
vatikán	12761
sampdor	12762
:/	12763
bö	12764
cris	12765
peng	12766
rektor	12767
sab	12768
sejtek	12769
óbud	12770
##megy	12771
##rol	12772
##rit	12773
##aux	12774
##tív	12775
##tattak	12776
##hét	12777
szu	12778
szász	12779
közalap	12780
##rav	12781
##nyolc	12782
kapják	12783
másképp	12784
ennyit	12785
magáról	12786
küls	12787
tároló	12788
főt	12789
emberrel	12790
ügyes	12791
hallat	12792
haladó	12793
töredék	12794
szintje	12795
macska	12796
bajba	12797
csapatának	12798
hazat	12799
támogatni	12800
kérdésekre	12801
jac	12802
útját	12803
ukkal	12804
költsége	12805
hetilap	12806
romantikus	12807
184	12808
nyugdíjak	12809
nehogy	12810
irányt	12811
ségének	12812
vízzel	12813
##kereszt	12814
különbségek	12815
meccsén	12816
összegét	12817
közlekedést	12818
mérkőz	12819
légiós	12820
küsz	12821
fogadják	12822
romániában	12823
látogatott	12824
nőknél	12825
lengyelországban	12826
teljesítményét	12827
témában	12828
döntőbe	12829
támadtak	12830
hirdet	12831
fuvar	12832
tennie	12833
névre	12834
fox	12835
megjelenés	12836
fizetnek	12837
rangers	12838
diplomat	12839
##boy	12840
írásban	12841
elegáns	12842
mentőszolgálat	12843
kedvezőbb	12844
kedvezőtlen	12845
rákóczi	12846
tárgyaláson	12847
örömmel	12848
cipr	12849
tiltott	12850
háttérben	12851
vívott	12852
nicolas	12853
kidolgozott	12854
tetszett	12855
tudatosan	12856
afganisztánban	12857
aszfalt	12858
pálinka	12859
beckham	12860
group	12861
dezső	12862
holokauszt	12863
nemzedék	12864
://	12865
közalapítvány	12866
bírt	12867
coz	12868
cuk	12869
cast	12870
onként	12871
rat	12872
sd	12873
super	12874
##vani	12875
##szél	12876
szíj	12877
szing	12878
szitu	12879
##alatt	12880
##olhat	12881
elhatár	12882
elfogy	12883
hot	12884
##ítsa	12885
##ulatot	12886
##ogató	12887
##szerkezet	12888
##ukkan	12889
nagyban	12890
tudna	12891
tudná	12892
arm	12893
anal	12894
enni	12895
ellenük	12896
hatta	12897
hatalmi	12898
műles	12899
napokon	12900
viselt	12901
forintról	12902
árat	12903
maradás	12904
tank	12905
kérem	12906
autókat	12907
##oszex	12908
millióan	12909
társával	12910
lakást	12911
ített	12912
veszít	12913
szólította	12914
együttese	12915
figyelő	12916
hozzáállás	12917
hagyják	12918
##ecz	12919
azokkal	12920
nyilatkozva	12921
tanulság	12922
motort	12923
elsején	12924
megállapították	12925
utóbbiak	12926
265	12927
ingad	12928
válaszadók	12929
számíthatunk	12930
nyújtani	12931
feltétele	12932
alighan	12933
meglepően	12934
terhelés	12935
működése	12936
zöldség	12937
többségében	12938
##kóp	12939
munkavég	12940
##market	12941
győző	12942
kollégium	12943
jogosítvány	12944
iszony	12945
kockázatok	12946
alkalmatlan	12947
ösztönöz	12948
működtetés	12949
tragikus	12950
nyugdíjasok	12951
táplál	12952
argentín	12953
dinamikus	12954
válaszolva	12955
emlékezetes	12956
madarak	12957
##erdam	12958
##képviselet	12959
vesztegetés	12960
lotus	12961
hátralévő	12962
mónika	12963
dmitrij	12964
alighanem	12965
???	12966
dud	12967
goly	12968
iszt	12969
jol	12970
las	12971
léz	12972
póz	12973
zón	12974
##mik	12975
##gott	12976
##űg	12977
##háború	12978
##jk	12979
##park	12980
##ölet	12981
##szög	12982
##ítsák	12983
csányi	12984
##ade	12985
felvenni	12986
##ázza	12987
##abás	12988
vallott	12989
érni	12990
érhető	12991
him	12992
##édi	12993
szemet	12994
eken	12995
munkások	12996
kezelt	12997
főtitkára	12998
emberei	12999
úgyis	13000
spir	13001
folyadék	13002
fejében	13003
mellesleg	13004
háromszáz	13005
nevén	13006
nevezi	13007
gondolták	13008
rendszerrel	13009
háztartások	13010
támogatják	13011
túlzás	13012
örv	13013
góljával	13014
gyereke	13015
győzni	13016
foglalkozás	13017
piacot	13018
dollárért	13019
tények	13020
vádak	13021
megtenni	13022
nyerő	13023
időszakában	13024
köztud	13025
ellenőrzése	13026
hibáz	13027
hibázott	13028
##uzz	13029
##mund	13030
tulajdonosai	13031
gyanúsítják	13032
érvénytelen	13033
medve	13034
születtek	13035
alkalmazása	13036
futballista	13037
simor	13038
kupát	13039
éghaj	13040
fenyő	13041
hamarabb	13042
írók	13043
feleségét	13044
változásokat	13045
színházban	13046
ellenőrzést	13047
tükör	13048
lőttek	13049
átalakítása	13050
felhívás	13051
sky	13052
skand	13053
kommentálta	13054
munkanélküli	13055
rajongó	13056
jánál	13057
aival	13058
időpontja	13059
mtk	13060
faluban	13061
kémiai	13062
moszkvában	13063
részvételével	13064
tekintetben	13065
durva	13066
bernadett	13067
öngyilkosság	13068
bérleti	13069
megérkezett	13070
bűnösnek	13071
szurkolói	13072
megélhet	13073
kijelző	13074
tobor	13075
ritmus	13076
fellendülés	13077
előzetesen	13078
olympi	13079
presztíz	13080
kímél	13081
mis	13082
pel	13083
pör	13084
ököl	13085
##tük	13086
##eck	13087
##hessen	13088
##sai	13089
##fik	13090
##ald	13091
##tté	13092
egyez	13093
szerelmi	13094
felfelé	13095
gyur	13096
rendeltek	13097
emet	13098
##attunk	13099
helyért	13100
tudod	13101
tartva	13102
telegr	13103
utána	13104
államot	13105
veretlen	13106
feje	13107
járás	13108
járható	13109
pontokat	13110
etn	13111
gondok	13112
karamb	13113
biztosítása	13114
ukban	13115
akarjuk	13116
beretty	13117
nélkülöz	13118
tisztelt	13119
kerülne	13120
hónapon	13121
alakja	13122
kínos	13123
jegyzése	13124
feltör	13125
immun	13126
##ofit	13127
legjobbak	13128
magasan	13129
tájékozód	13130
sérülése	13131
anyagokat	13132
iskolába	13133
bihar	13134
karácsonykor	13135
kialakítása	13136
eseményeket	13137
jellemezte	13138
kritika	13139
bővül	13140
bíznak	13141
rangú	13142
küldte	13143
fennáll	13144
módosítása	13145
negyedévében	13146
eredetű	13147
1950	13148
médiatanács	13149
##uzsál	13150
menekül	13151
meglepetésre	13152
használatát	13153
fellépés	13154
árulta	13155
ezüstérmes	13156
fájdalom	13157
carlos	13158
jövedelemadó	13159
megnyitó	13160
előterjesztés	13161
kaida	13162
hollywoodi	13163
ilyesmi	13164
szmog	13165
chilei	13166
##szövetség	13167
jegybanki	13168
schiffer	13169
átmenetileg	13170
##ejáték	13171
ellehetetlen	13172
szimpatizáns	13173
minnesota	13174
gróf	13175
küszkö	13176
telegraph	13177
big	13178
dy	13179
dat	13180
foszt	13181
lent	13182
massa	13183
pát	13184
##mát	13185
##tető	13186
##hál	13187
##húz	13188
##ké	13189
##kény	13190
##puszt	13191
szesz	13192
szekt	13193
szelet	13194
szub	13195
elvis	13196
##ikás	13197
cső	13198
közérdek	13199
##ogatott	13200
lefoly	13201
##agép	13202
állom	13203
állunk	13204
válni	13205
legd	13206
advent	13207
helyette	13208
tartható	13209
anélkül	13210
##vald	13211
endő	13212
##ájt	13213
amelyről	13214
pri	13215
művei	13216
köröz	13217
követelte	13218
sorolta	13219
##várost	13220
amiatt	13221
##nyira	13222
kedés	13223
elnöknek	13224
harap	13225
ítették	13226
ították	13227
másodosztály	13228
négyen	13229
hangzik	13230
fizettek	13231
kevin	13232
##forma	13233
1200	13234
diadalmas	13235
melyeket	13236
tulajdonban	13237
emlékszem	13238
bűnöz	13239
bűnözés	13240
cikket	13241
mérkőzések	13242
társasági	13243
kórházak	13244
igényt	13245
szorult	13246
fogadni	13247
végrehajtó	13248
greg	13249
építése	13250
méteren	13251
tevékenysége	13252
mesterséges	13253
honlapon	13254
jellemzi	13255
többszörös	13256
utalvány	13257
##jesztő	13258
hirdetett	13259
yorkban	13260
tőkés	13261
ereje	13262
elbír	13263
kezdete	13264
megpróbálta	13265
saint	13266
vizes	13267
szerkesztő	13268
benzines	13269
birodalom	13270
tartalmát	13271
gergő	13272
szennyezett	13273
búcsú	13274
fájdalmas	13275
társaik	13276
elvesztette	13277
megőriz	13278
hódmező	13279
színpadon	13280
kinevezett	13281
miskolcon	13282
taxis	13283
nyolcvanas	13284
jogerősen	13285
budaházy	13286
wolfsburg	13287
zóna	13288
játéknapján	13289
fitch	13290
óvatosan	13291
esküvő	13292
befizetett	13293
praktikus	13294
siófok	13295
virgin	13296
gasztronóm	13297
lewis	13298
felelőtlen	13299
luxemburg	13300
hódmezővásár	13301
apr	13302
belt	13303
cucc	13304
dil	13305
fri	13306
fókusz	13307
hú	13308
jü	13309
kati	13310
lt	13311
mulat	13312
pc	13313
pomp	13314
vezett	13315
who	13316
óz	13317
##zottak	13318
##log	13319
##fők	13320
##edelem	13321
szerek	13322
alum	13323
alma	13324
váló	13325
emil	13326
oknál	13327
számokat	13328
##idejű	13329
annam	13330
érthetetlen	13331
illik	13332
##elten	13333
indian	13334
fico	13335
halaszt	13336
törés	13337
##hozam	13338
vonni	13339
találja	13340
tagját	13341
négyszer	13342
barlang	13343
bah	13344
hassanak	13345
közelébe	13346
személyében	13347
tisztel	13348
szállítani	13349
használati	13350
szavazatot	13351
rendelte	13352
függő	13353
fejlesztése	13354
kifizet	13355
problémája	13356
this	13357
őrök	13358
hívni	13359
közlekednek	13360
alkotmányellenes	13361
ükben	13362
ütemben	13363
tárgyalni	13364
abc	13365
elvi	13366
motorral	13367
bejelentést	13368
gyártott	13369
temetés	13370
##issan	13371
kampányban	13372
vágta	13373
450	13374
hercz	13375
költségvetésben	13376
edzőt	13377
börtönbe	13378
múzeumban	13379
hivatkozott	13380
profil	13381
kiállításon	13382
bevezetett	13383
fajt	13384
operatív	13385
boldogság	13386
skót	13387
kiválóan	13388
valóságos	13389
megrendelés	13390
bennük	13391
zsidók	13392
tegnapi	13393
holding	13394
recesszió	13395
előkészület	13396
születésű	13397
szavazókör	13398
dohányzás	13399
kattintva	13400
bűntette	13401
kidolgozás	13402
lisszab	13403
zsuzsanna	13404
gyűlölet	13405
hátterében	13406
titkosszolgálat	13407
muszáj	13408
tagországok	13409
dunaújváros	13410
hitelminősítő	13411
főhős	13412
direkt	13413
diz	13414
dort	13415
dög	13416
ecs	13417
kad	13418
lí	13419
lott	13420
lágy	13421
puc	13422
rassz	13423
sü	13424
sip	13425
tessék	13426
óval	13427
##rott	13428
##rim	13429
##lők	13430
##uez	13431
##olva	13432
##iny	13433
##edni	13434
szerelő	13435
kiáll	13436
behajt	13437
válassz	13438
érezni	13439
kerítés	13440
##ide	13441
másként	13442
##állást	13443
végeznek	13444
képpen	13445
keze	13446
kezeli	13447
alapul	13448
kiskereskedelmi	13449
folyók	13450
##közép	13451
csapás	13452
egz	13453
vezetőség	13454
félmillió	13455
vonta	13456
háztartás	13457
barb	13458
javít	13459
autóját	13460
terveket	13461
##efa	13462
anyuk	13463
alakú	13464
alakítja	13465
krém	13466
##esebben	13467
szállított	13468
rendőrségen	13469
irányított	13470
imp	13471
semmis	13472
hormon	13473
emlékszik	13474
kitüntetés	13475
ismertetett	13476
levált	13477
hívott	13478
mutatni	13479
északnyugati	13480
ülni	13481
kutatója	13482
partján	13483
válságot	13484
szorong	13485
mozgós	13486
érdemben	13487
kevesebben	13488
közvetítő	13489
keleten	13490
medence	13491
cikkben	13492
legtöbbször	13493
garancia	13494
érdeklődő	13495
carol	13496
sérülések	13497
zenész	13498
hollandia	13499
munkahelyek	13500
állatkert	13501
alakulását	13502
ruhát	13503
partnere	13504
használtak	13505
éltek	13506
szakszervezeti	13507
képzési	13508
##részben	13509
megrendezett	13510
károsult	13511
gumik	13512
rosberg	13513
##szerződés	13514
működtető	13515
regisztr	13516
előkészítés	13517
kamerák	13518
dinamo	13519
hetvenes	13520
kóst	13521
tréning	13522
ujj	13523
megrong	13524
borzasztó	13525
mészáros	13526
barátságos	13527
besorolás	13528
woods	13529
szállítmány	13530
hozzátartozó	13531
elsejétől	13532
vacsor	13533
##ínium	13534
kolontár	13535
leszámítva	13536
jéről	13537
lába	13538
ng	13539
nd	13540
rán	13541
uefa	13542
##top	13543
##gót	13544
##lista	13545
##fegyver	13546
##ennyit	13547
##erőt	13548
##atov	13549
##akép	13550
##olását	13551
köp	13552
kiür	13553
kiigaz	13554
oliv	13555
előfordult	13556
emfesz	13557
adódó	13558
miller	13559
műemlék	13560
mindenképp	13561
munkálat	13562
##találkoz	13563
kormányra	13564
ügyét	13565
maros	13566
választja	13567
vereked	13568
élvezet	13569
##eztünk	13570
egri	13571
járók	13572
valamikor	13573
termelők	13574
nevezet	13575
érdekli	13576
értékpapír	13577
budapestre	13578
##helyek	13579
bajnokin	13580
eleme	13581
szervezeti	13582
tűzi	13583
könyvében	13584
kitölt	13585
kitűnő	13586
keresztes	13587
gyakorlás	13588
novemberében	13589
##peres	13590
tilalom	13591
kezdőd	13592
garázs	13593
csúcstalálkoz	13594
galéria	13595
kezdeményezett	13596
kollekció	13597
szándékosan	13598
tartózkodik	13599
netán	13600
utazni	13601
fontosság	13602
megszerezni	13603
sztárok	13604
smith	13605
átvette	13606
szekrény	13607
stein	13608
letartóztatásba	13609
adózás	13610
meséli	13611
támogatottsága	13612
professzora	13613
sztál	13614
dunántúlon	13615
hajléktalanok	13616
bush	13617
elárulta	13618
strukturális	13619
összekötő	13620
szörnyű	13621
csokol	13622
oxig	13623
magánszemélyek	13624
közreműködés	13625
eljuttatott	13626
dizáj	13627
duzz	13628
eind	13629
fg	13630
fav	13631
kenn	13632
lább	13633
lomb	13634
maz	13635
móri	13636
ort	13637
roll	13638
sült	13639
sivat	13640
tán	13641
ura	13642
zág	13643
##wart	13644
##gyakor	13645
##atható	13646
száva	13647
##ake	13648
##ego	13649
##arov	13650
meglát	13651
##ékek	13652
szerelm	13653
kigy	13654
felfogás	13655
##ázd	13656
alany	13657
##age	13658
##ote	13659
váll	13660
legfi	13661
érzet	13662
eric	13663
##önd	13664
tudtunk	13665
fogalma	13666
ekről	13667
jelentettek	13668
##hozott	13669
steven	13670
harci	13671
életem	13672
etlen	13673
gazdaságpolitikai	13674
vonalak	13675
ítás	13676
ítják	13677
betilt	13678
##profit	13679
szabályai	13680
hosszan	13681
irányadó	13682
adócsökkentés	13683
könyvben	13684
hiányzott	13685
próbálták	13686
levente	13687
természetvédelmi	13688
taps	13689
normal	13690
tizennégy	13691
dobog	13692
fényes	13693
nyújtotta	13694
hangsúlyozza	13695
lelepl	13696
odafi	13697
##ütötte	13698
élőben	13699
akciót	13700
becslése	13701
megnyitás	13702
unióban	13703
parkban	13704
##strom	13705
mobile	13706
környéken	13707
stabilizál	13708
minősül	13709
államtitkárság	13710
teremteni	13711
domok	13712
tavaszán	13713
önmagát	13714
elvégzett	13715
##parti	13716
berendezések	13717
üldöz	13718
tolvajok	13719
jótékonysági	13720
összefoglaló	13721
chicago	13722
nonprofit	13723
hajlamos	13724
megszületett	13725
leminősítés	13726
avatar	13727
dkg	13728
##hoven	13729
incidens	13730
karambol	13731
alumínium	13732
sivatag	13733
szávay	13734
hoki	13735
jani	13736
kodás	13737
mom	13738
nol	13739
nba	13740
nissan	13741
síp	13742
áb	13743
##jaként	13744
##gyessy	13745
szőke	13746
##ána	13747
elf	13748
megérdem	13749
kiírás	13750
felhat	13751
felvételt	13752
##aza	13753
bead	13754
nyik	13755
minek	13756
előadást	13757
valenci	13758
utakat	13759
okostel	13760
lehetünk	13761
tartoz	13762
bizalmat	13763
végzik	13764
##onya	13765
hatalmat	13766
refer	13767
világszervezet	13768
ügyvezetője	13769
követelő	13770
hétre	13771
tankol	13772
olyannyira	13773
##atalabb	13774
járatot	13775
járőrök	13776
pontok	13777
címen	13778
##engő	13779
##ingham	13780
teljesítő	13781
mentés	13782
tetten	13783
##program	13784
játszották	13785
##ders	13786
amelyeknek	13787
plaszt	13788
apám	13789
emlékezett	13790
tanácsot	13791
hatások	13792
foglalkoznak	13793
javasol	13794
szerződésben	13795
megállapítani	13796
játékosai	13797
figyelmeztetett	13798
kirán	13799
februárjában	13800
töltő	13801
falat	13802
kívánnak	13803
fordulójának	13804
palkovics	13805
tagjait	13806
tapasztalata	13807
bajnokságon	13808
dokumentumokat	13809
bővítés	13810
svédek	13811
mennyiségben	13812
reformok	13813
szenvedő	13814
puszta	13815
állampolgárság	13816
##aktív	13817
befolyásol	13818
columb	13819
koncentr	13820
atomerőmű	13821
kőolaj	13822
szeksz	13823
fölötti	13824
mnv	13825
jeruzsál	13826
előzmény	13827
megújuló	13828
későbbiekben	13829
cels	13830
tokaj	13831
tokió	13832
belépő	13833
ajkai	13834
ukrajn	13835
cselekv	13836
##lövő	13837
szivárog	13838
kenyér	13839
garantált	13840
hülye	13841
zsákmány	13842
átlátható	13843
tudósítója	13844
nulla	13845
megismétel	13846
törvényhozás	13847
bicikli	13848
rájött	13849
fekü	13850
rmdsz	13851
sláger	13852
pásztor	13853
csapatkapitány	13854
evolúció	13855
legfiatalabb	13856
domokos	13857
okostelefon	13858
hr	13859
hok	13860
jus	13861
kukor	13862
nan	13863
ragy	13864
túra	13865
veg	13866
ázott	13867
ók	13868
##med	13869
##űlés	13870
##dos	13871
##éi	13872
##bon	13873
##böl	13874
elte	13875
##érkező	13876
##csolya	13877
felszabad	13878
##ények	13879
##entin	13880
bejárat	13881
előirány	13882
##költ	13883
##ciós	13884
amelyhez	13885
bizalmas	13886
belgrád	13887
pénzért	13888
általán	13889
##engedett	13890
ball	13891
méreg	13892
##tárgy	13893
karl	13894
szóltak	13895
lépő	13896
autója	13897
##ességét	13898
filmeket	13899
létes	13900
##efont	13901
szeretik	13902
bizonyára	13903
##ect	13904
gólja	13905
szerződéseket	13906
jelöltet	13907
ütötte	13908
márciusi	13909
véleményt	13910
feltételezés	13911
szerencsejáték	13912
okoztak	13913
kocsik	13914
kilencedik	13915
##ismeret	13916
eseményt	13917
fűszer	13918
tengerentúl	13919
előnyös	13920
módszerek	13921
kísérleti	13922
beszámol	13923
májusában	13924
hányad	13925
hallgatták	13926
pakisztán	13927
ügyvédi	13928
lakóház	13929
kapitánya	13930
kapitányság	13931
menedék	13932
tartományi	13933
huszonöt	13934
vác	13935
óránként	13936
kikapcs	13937
felbukkan	13938
fárad	13939
hallottam	13940
titokzatos	13941
nyíregyháza	13942
atlético	13943
eldőlt	13944
tudomásul	13945
hellip	13946
dzabi	13947
kesztyű	13948
##szülött	13949
ítélőtábla	13950
',	13951
did	13952
fh	13953
full	13954
hem	13955
kuk	13956
kút	13957
nedv	13958
pott	13959
rezs	13960
sat	13961
##iák	13962
##gá	13963
##ggyel	13964
##zmus	13965
##dí	13966
##uy	13967
##kir	13968
##szka	13969
szja	13970
##ánát	13971
elgond	13972
##arak	13973
éséhez	13974
hop	13975
megseg	13976
##ulátor	13977
##asszt	13978
álljon	13979
válás	13980
mielő	13981
##avezet	13982
vallotta	13983
érvelt	13984
adam	13985
erőlt	13986
októl	13987
többséget	13988
##ükre	13989
magzat	13990
semjén	13991
##esztője	13992
##urne	13993
szemle	13994
##ugró	13995
munkára	13996
munkagép	13997
fiát	13998
belvárosi	13999
követelt	14000
sorok	14001
igazolni	14002
tanítvány	14003
építettek	14004
látnak	14005
##ászok	14006
politológus	14007
nevez	14008
##ekedési	14009
kapcsolódik	14010
##tic	14011
maff	14012
ötször	14013
hangulatot	14014
terveznek	14015
költségei	14016
néhol	14017
családot	14018
kristó	14019
néhányan	14020
negyedéves	14021
folyamatot	14022
##nnyel	14023
torz	14024
szerződését	14025
megtér	14026
kirúg	14027
iskolát	14028
kénytelenek	14029
mozgó	14030
##döntős	14031
meddig	14032
osztályának	14033
folytatják	14034
eseményen	14035
##cze	14036
megbízatás	14037
1988	14038
szilágyi	14039
japánban	14040
mennyisége	14041
vidéken	14042
diplomata	14043
készítettek	14044
tartózkodott	14045
hátrányt	14046
hordozó	14047
kockázatos	14048
pozíciót	14049
kereszténység	14050
kereszténydemokrata	14051
udv	14052
polgárok	14053
indítványt	14054
hozzájárult	14055
szimb	14056
trans	14057
álmod	14058
atlanta	14059
felszerelés	14060
képtelenség	14061
vigyáz	14062
szűrő	14063
pekingi	14064
pozsonyi	14065
ultra	14066
székhelyű	14067
népszavazás	14068
hűtő	14069
hunvald	14070
erőteljes	14071
főszerkesztője	14072
gólpasszt	14073
sodró	14074
állásfoglalás	14075
depresszió	14076
továbbjutás	14077
zaklatás	14078
reprezent	14079
alapkamat	14080
elszenvedett	14081
cukr	14082
táplálék	14083
celsius	14084
rezsim	14085
fem	14086
gam	14087
pazar	14088
sur	14089
sukor	14090
té	14091
vk	14092
vén	14093
vod	14094
way	14095
xi	14096
zug	14097
zong	14098
ött	14099
##mez	14100
##eon	14101
##káni	14102
##fáj	14103
##pant	14104
##19	14105
##etl	14106
##eth	14107
szír	14108
széria	14109
##alizál	14110
##inform	14111
elrab	14112
##ésbé	14113
ésével	14114
##águl	14115
##áta	14116
##itest	14117
##csill	14118
közpénz	14119
közéleti	14120
##jax	14121
gyulladás	14122
##usen	14123
esőzés	14124
érnek	14125
helyezni	14126
számítottak	14127
kaphatnak	14128
benkő	14129
magn	14130
fogly	14131
##élytárs	14132
árnyal	14133
kisváros	14134
##kednek	14135
választják	14136
kedvelt	14137
járhat	14138
félelmet	14139
vonultak	14140
rendszerint	14141
tagozat	14142
##ipe	14143
teljesítette	14144
párosítás	14145
hassa	14146
kérdésekben	14147
városok	14148
befagy	14149
blu	14150
játszotta	14151
munkacsoport	14152
krízis	14153
impr	14154
csökkentek	14155
meghib	14156
januárjában	14157
szélén	14158
foglalkoztat	14159
piacán	14160
elfogató	14161
##lie	14162
elhúz	14163
megtéveszt	14164
történetet	14165
információink	14166
barátnője	14167
kívülről	14168
##chnikai	14169
válogatottban	14170
akadnak	14171
vetélytárs	14172
idejét	14173
vérnyomás	14174
varsó	14175
akciók	14176
terhelő	14177
megnyer	14178
debre	14179
szobában	14180
levelében	14181
kezelésére	14182
gera	14183
ténylegesen	14184
szenvedtek	14185
kodó	14186
operációs	14187
tiltakozó	14188
rákos	14189
követték	14190
résztvev	14191
general	14192
##indulat	14193
ígéretet	14194
maximális	14195
előzte	14196
digital	14197
építőipar	14198
vlad	14199
mandátumot	14200
nico	14201
##ezredes	14202
elődöntőben	14203
utóbbit	14204
őszinte	14205
venez	14206
bátran	14207
legkevésbé	14208
zsuzsa	14209
készenlét	14210
árverés	14211
főiskola	14212
édesapja	14213
megkönny	14214
csecsemő	14215
nokia	14216
meghibás	14217
ajax	14218
bód	14219
bolog	14220
bonc	14221
diós	14222
jug	14223
készt	14224
lib	14225
que	14226
##ient	14227
##má	14228
##ail	14229
##ye	14230
##cin	14231
##jek	14232
##sd	14233
##bél	14234
##onéz	14235
##inó	14236
##etter	14237
##cseri	14238
##nyeg	14239
deport	14240
évé	14241
ident	14242
orle	14243
##ősök	14244
arca	14245
anita	14246
kétséges	14247
##ájába	14248
fogalm	14249
hatállyal	14250
##élyesebb	14251
priv	14252
ekb	14253
ekből	14254
##ugor	14255
##legesen	14256
forintból	14257
alapítás	14258
stop	14259
továbbjutott	14260
pénze	14261
pénzét	14262
edit	14263
##zsa	14264
esetről	14265
életfogy	14266
vezetőinek	14267
paradicsom	14268
félt	14269
##tion	14270
macsk	14271
ötezer	14272
nyomtatott	14273
hassák	14274
ásvány	14275
késsel	14276
késések	14277
lapban	14278
forgalmazás	14279
beszélünk	14280
jólét	14281
semmik	14282
felhős	14283
merül	14284
##jaiban	14285
engedi	14286
engedte	14287
zárni	14288
magánélet	14289
telephely	14290
megállapítása	14291
ülnek	14292
üzemi	14293
elvtárs	14294
kívánta	14295
egyenleg	14296
##jegyzés	14297
tévedés	14298
értelmetlen	14299
bemutatni	14300
vetk	14301
elfogadni	14302
aranyat	14303
lőszer	14304
monitor	14305
vegye	14306
médiahatóság	14307
box	14308
igazságtalan	14309
évtizedben	14310
módszerrel	14311
ellenőrzési	14312
ftse	14313
devizah	14314
határozatot	14315
kulcsfontosságú	14316
1944	14317
levegőben	14318
szegénység	14319
humán	14320
vadászat	14321
szekeres	14322
szimból	14323
megújulás	14324
gyalogos	14325
tegye	14326
helyszínek	14327
##forgalom	14328
főigazgatóság	14329
pénzügyőrség	14330
tisztségviselő	14331
megváltoztatás	14332
julian	14333
devecseri	14334
végkielégítés	14335
kalózok	14336
művelődési	14337
táplálkozás	14338
társasház	14339
##örténet	14340
túlnyomó	14341
kopogtatóc	14342
zágr	14343
orleans	14344
életfogytig	14345
%)	14346
aer	14347
db	14348
döm	14349
fáb	14350
flam	14351
futt	14352
git	14353
jag	14354
m1	14355
nl	14356
réz	14357
rand	14358
zagy	14359
zeit	14360
ún	14361
##rek	14362
##dít	14363
##uber	14364
##íli	14365
##ónak	14366
##bál	14367
##bus	14368
##eneg	14369
##olis	14370
##ésőbb	14371
hová	14372
egyből	14373
megszak	14374
##itas	14375
##csenko	14376
kiment	14377
felmeleg	14378
amellett	14379
##izető	14380
rendezte	14381
legeredmény	14382
ellenben	14383
refl	14384
##ábl	14385
mindenben	14386
viet	14387
alapot	14388
főre	14389
követni	14390
mari	14391
alkalmi	14392
jogait	14393
jogkör	14394
nevéhez	14395
nevezhető	14396
kata	14397
kate	14398
érdekesség	14399
tehető	14400
közlöny	14401
védője	14402
autóba	14403
célú	14404
közelben	14405
ási	14406
említ	14407
klu	14408
klip	14409
gondolkoz	14410
távozik	14411
emelése	14412
nyugdíjkor	14413
irányít	14414
novák	14415
##vonalak	14416
támogatással	14417
##számú	14418
javaslatok	14419
hívtak	14420
##roid	14421
mérkőzését	14422
valószínűséggel	14423
csökkenő	14424
javaslata	14425
szerencse	14426
forrása	14427
listás	14428
megnyilván	14429
elképzelései	14430
utalnak	14431
##koalíció	14432
lezuh	14433
360	14434
afp	14435
harmadfokú	14436
módosítását	14437
vártak	14438
délelőtti	14439
legkésőbb	14440
kollégái	14441
sárkány	14442
nézőpont	14443
másodperccel	14444
háziorvos	14445
keltett	14446
nyilatkozatában	14447
előzőleg	14448
monteneg	14449
táncos	14450
elveszett	14451
ajtót	14452
mexikó	14453
növények	14454
felügyelőbizottság	14455
allerg	14456
újságíróknak	14457
megszorítás	14458
egyenlített	14459
tesco	14460
brian	14461
francis	14462
egyszerűsített	14463
gramm	14464
elküld	14465
ferguson	14466
misszió	14467
felmelegedés	14468
legeredményesebb	14469
montenegró	14470
baz	14471
cnn	14472
fur	14473
fedett	14474
hessen	14475
lion	14476
nt	14477
pors	14478
vetés	14479
##mod	14480
##mász	14481
##űzött	14482
##volt	14483
##sek	14484
##fú	14485
##fokon	14486
##erb	14487
##atart	14488
##ativ	14489
##egel	14490
elr	14491
elvon	14492
##sztár	14493
##ázi	14494
amióta	14495
##otikum	14496
gyül	14497
évhez	14498
##ondi	14499
kornél	14500
korcsoly	14501
forog	14502
##szered	14503
esből	14504
adórendszer	14505
hait	14506
##iller	14507
átigaz	14508
##eszüntetés	14509
illés	14510
fogta	14511
főúton	14512
árult	14513
visszhang	14514
tanszék	14515
steve	14516
csapott	14517
félnek	14518
veszített	14519
nálam	14520
képviselt	14521
ásában	14522
189	14523
örmény	14524
hónapot	14525
oldali	14526
irányban	14527
hívei	14528
figyelmen	14529
helyiek	14530
szíve	14531
elérheti	14532
gázolt	14533
válaszolni	14534
kialakítás	14535
kikötő	14536
közepette	14537
mezőgazdaság	14538
lakosságot	14539
megjelentek	14540
előnyben	14541
##szóró	14542
1986	14543
küzdelm	14544
áldozatai	14545
megjelenik	14546
csillagok	14547
bevezetését	14548
paks	14549
buff	14550
jellegzetes	14551
konkrétan	14552
eurol	14553
terrorizmus	14554
végrehajtott	14555
kiemelten	14556
soci	14557
facebookon	14558
nyugdíjpénztárak	14559
szovjetunió	14560
vasútvonal	14561
tünetek	14562
elkölt	14563
elrendelte	14564
rámutat	14565
struktúr	14566
iratokat	14567
káosz	14568
befogadó	14569
ideiglenesen	14570
pozsony	14571
produkált	14572
leonardo	14573
jutásért	14574
trükk	14575
elefántcsont	14576
kombináció	14577
csapattársa	14578
republikánus	14579
extrém	14580
diktatúra	14581
munkabeszüntetés	14582
sprint	14583
devizapiacon	14584
##értekezlet	14585
presztízs	14586
##hálóz	14587
udvari	14588
gom	14589
grat	14590
gvh	14591
mg	14592
mall	14593
paj	14594
plan	14595
pisz	14596
tesszük	14597
ót	14598
##mens	14599
##auz	14600
##tok	14601
##yá	14602
##sk	14603
##uay	14604
##péter	14605
##öpr	14606
##eter	14607
##ermek	14608
sze	14609
szágul	14610
##eki	14611
egyezt	14612
megalak	14613
##átlan	14614
##ométert	14615
##ulmán	14616
közte	14617
gyes	14618
##odást	14619
##avált	14620
előnnyel	14621
valót	14622
adjon	14623
orfk	14624
helyeztek	14625
hiper	14626
##eszék	14627
kapital	14628
tartan	14629
végét	14630
végzi	14631
##ajdon	14632
kezelik	14633
indította	14634
ügyintéz	14635
olyas	14636
láth	14637
stock	14638
választék	14639
peres	14640
auton	14641
brun	14642
egészet	14643
lennék	14644
megyeszék	14645
ötéves	14646
szólal	14647
kilométert	14648
képviseli	14649
késéssel	14650
gólos	14651
szabályozó	14652
szállítottak	14653
##földön	14654
nyugdíjreform	14655
irányítja	14656
régebbi	14657
percre	14658
2500	14659
vitatkoz	14660
piacokon	14661
központja	14662
eljáró	14663
zárul	14664
közlekedik	14665
történetek	14666
igenis	14667
tizennyolc	14668
igénylő	14669
próbálnak	14670
forrást	14671
utasokat	14672
utasította	14673
koval	14674
értesítette	14675
szigeten	14676
galéri	14677
galamb	14678
elképzelni	14679
kapusa	14680
működésének	14681
jelentkezik	14682
harcos	14683
módosította	14684
évtizede	14685
sérti	14686
népszerűség	14687
##kocsit	14688
áramlat	14689
estig	14690
számlák	14691
érzelm	14692
bűncselekményt	14693
folytatása	14694
cigányok	14695
elismerést	14696
##kötvény	14697
bizonyítékok	14698
sugárzás	14699
kíváncsiak	14700
megszorító	14701
süllyedt	14702
riporter	14703
óvoda	14704
bibli	14705
jakab	14706
mágnes	14707
sapa	14708
citro	14709
diszkrim	14710
moham	14711
brazília	14712
szociáldemokrata	14713
hullott	14714
sevilla	14715
sajtóreferense	14716
propag	14717
muzulmán	14718
elnézést	14719
örvend	14720
kristóf	14721
debrecz	14722
bp	14723
bre	14724
bőség	14725
ce	14726
cros	14727
cszka	14728
ivel	14729
meh	14730
not	14731
nadal	14732
pasi	14733
rés	14734
rai	14735
sert	14736
sós	14737
tas	14738
taj	14739
vc	14740
vasz	14741
ács	14742
ává	14743
##aik	14744
##gk	14745
##den	14746
##hír	14747
##oba	14748
##sky	14749
##ónia	14750
##úny	14751
##eland	14752
##szurd	14753
##árium	14754
##érdőjel	14755
ista	14756
felleg	14757
töl	14758
gyém	14759
##eller	14760
deák	14761
jeles	14762
rendeztek	14763
előtér	14764
##ötték	14765
mindazon	14766
arén	14767
kétoldalú	14768
végzés	14769
mindenkori	14770
munkái	14771
szaklap	14772
ügyeletese	14773
szabvány	14774
spar	14775
##fir	14776
##field	14777
stohl	14778
választói	14779
éllov	14780
fejező	14781
auto	14782
írnak	14783
brig	14784
magyarországról	14785
vonja	14786
itteni	14787
ezerre	14788
zsó	14789
törvényes	14790
védeni	14791
sportolók	14792
kamasz	14793
tervezte	14794
útnak	14795
laptop	14796
blue	14797
alakultak	14798
beszélő	14799
közösségek	14800
csökkentő	14801
csökkentésére	14802
szervezetet	14803
android	14804
horror	14805
formája	14806
formátum	14807
hiányos	14808
díjjal	14809
##telenség	14810
portré	14811
alkotmányt	14812
emelkedése	14813
veszélyezteti	14814
találtunk	14815
abszurd	14816
angliai	14817
röviddel	14818
fényében	14819
##ffe	14820
otthoni	14821
viktó	14822
vizsgálati	14823
értelmezés	14824
elkövetők	14825
elkövetkező	14826
építmény	14827
feladatai	14828
listája	14829
megkérdőjel	14830
húzó	14831
értesülése	14832
terheli	14833
témája	14834
comment	14835
csehországban	14836
magyarázatot	14837
1980	14838
clev	14839
projektek	14840
festék	14841
felmérések	14842
módosítani	14843
kísérletet	14844
heid	14845
##bourne	14846
pótlás	14847
illetékesek	14848
kockázata	14849
művelt	14850
rajongói	14851
fórumon	14852
üzenetet	14853
megnöv	14854
aira	14855
álláspontját	14856
jose	14857
scott	14858
tornát	14859
méltóság	14860
vásárlási	14861
kézilabd	14862
munkanélküliségi	14863
igazolvány	14864
bolond	14865
bezárt	14866
eskü	14867
tenné	14868
elfogadása	14869
türelm	14870
baranya	14871
objektív	14872
szankciók	14873
napjainkban	14874
csíkszered	14875
milánói	14876
victor	14877
toronto	14878
bevásárlóközpont	14879
galaxis	14880
előrelépés	14881
kompenz	14882
##estyén	14883
kramnyik	14884
venezuel	14885
éllovas	14886
cáp	14887
híz	14888
irt	14889
kkv	14890
kings	14891
miss	14892
sát	14893
tát	14894
urán	14895
##ászt	14896
##lani	14897
##henger	14898
##sav	14899
##kér	14900
##orni	14901
##inson	14902
##ériában	14903
megölt	14904
megtor	14905
##adják	14906
##ólás	14907
##ulajdon	14908
közszfér	14909
felére	14910
lejárat	14911
##ign	14912
deut	14913
hozhat	14914
tározó	14915
vezetnek	14916
vezethető	14917
kistér	14918
jónak	14919
##kedni	14920
váltani	14921
választottak	14922
bro	14923
brand	14924
kombi	14925
értékelése	14926
megyék	14927
nyomor	14928
nyomást	14929
törvénytervezet	14930
pályáról	14931
lettem	14932
fizeti	14933
városba	14934
segítenek	14935
határában	14936
hetünk	14937
területre	14938
alkotott	14939
csoportba	14940
chip	14941
használnak	14942
vízil	14943
nyilvánosan	14944
fiatalokat	14945
merítés	14946
formát	14947
függeszt	14948
tré	14949
veszélyeztetett	14950
szegmens	14951
tizenhárom	14952
igénybevétel	14953
szorosan	14954
ülések	14955
épülete	14956
cikke	14957
##áncél	14958
királyság	14959
addigra	14960
működni	14961
vegyék	14962
előnyét	14963
elképzelhetetlen	14964
forrásokat	14965
fizetést	14966
fojt	14967
csodálkoz	14968
fenyegeti	14969
megerősítették	14970
szándéka	14971
régiós	14972
##önyv	14973
felhívja	14974
pszichológiai	14975
reméli	14976
meggyilkol	14977
munkavállalói	14978
legenda	14979
bronzérmes	14980
értekezlet	14981
logikus	14982
##ihu	14983
felszólalás	14984
charles	14985
kubai	14986
philip	14987
tendenci	14988
élettárs	14989
hármat	14990
megkeresés	14991
pittsburg	14992
demonstráció	14993
##hátvéd	14994
megsebes	14995
##imenziós	14996
hivatásos	14997
terjesz	14998
leggyorsabb	14999
tímea	15000
olympique	15001
gyémánt	15002
##hengeres	15003
bat	15004
bür	15005
kárm	15006
pik	15007
publ	15008
win	15009
##res	15010
##rov	15011
##go	15012
##gen	15013
##yr	15014
##yn	15015
##zenek	15016
##don	15017
##ct	15018
##cy	15019
##uf	15020
##így	15021
##szünk	15022
szült	15023
##onás	15024
hod	15025
megírt	15026
##iscsuk	15027
lepl	15028
amennyit	15029
##agg	15030
##izálás	15031
beat	15032
##uter	15033
##hetők	15034
nyrt	15035
jelzett	15036
jelmez	15037
olás	15038
előkerült	15039
nagyrészt	15040
##önség	15041
hozó	15042
hozható	15043
##elmec	15044
tartozott	15045
fogság	15046
##alékos	15047
milli	15048
indonéz	15049
áruk	15050
fiút	15051
hann	15052
kiskorú	15053
igaza	15054
halált	15055
##közönség	15056
döntetl	15057
meneszt	15058
életük	15059
jobbra	15060
parag	15061
gazdaságot	15062
céggel	15063
mach	15064
##icc	15065
sikerét	15066
nála	15067
mentem	15068
erősít	15069
céllal	15070
hiszi	15071
ások	15072
kapcsolatokat	15073
helyzetek	15074
városház	15075
abbak	15076
jövője	15077
akarom	15078
hagyjuk	15079
diego	15080
alakulás	15081
teker	15082
vízum	15083
tárgyakat	15084
megszeg	15085
antibi	15086
médiában	15087
barátom	15088
fölös	15089
reggelre	15090
válaszul	15091
keretek	15092
temet	15093
rooney	15094
különösebb	15095
javaslatát	15096
kampányt	15097
építészet	15098
kicsik	15099
segítségét	15100
videót	15101
sebestyén	15102
húzni	15103
húzódó	15104
részvénypiac	15105
##pálya	15106
szereplője	15107
felvételen	15108
toler	15109
fizetése	15110
time	15111
szöveget	15112
tartózkodás	15113
##ezzen	15114
erejét	15115
űrhaj	15116
ízben	15117
állítólagos	15118
homoszex	15119
művészek	15120
eltérően	15121
meggyőz	15122
1960	15123
csúszás	15124
kilátások	15125
hittem	15126
mezőnyben	15127
táblázat	15128
jelentőségű	15129
szemlél	15130
kedvezményes	15131
próbálkozás	15132
bevallás	15133
megemlék	15134
##unizmus	15135
kazah	15136
szivár	15137
báty	15138
számításai	15139
betöltő	15140
nyíregyházi	15141
befizetések	15142
##jakin	15143
üteme	15144
börtönbüntetésre	15145
leghír	15146
legsiker	15147
bundesliga	15148
pszichiátriai	15149
műlesiklás	15150
éghajlat	15151
bűnözők	15152
dortmund	15153
lezuhant	15154
döntetlent	15155
antibiotikum	15156
legsikeresebb	15157
bug	15158
cart	15159
card	15160
cli	15161
ef	15162
hb	15163
höl	15164
mta	15165
pep	15166
rost	15167
reked	15168
sus	15169
ted	15170
vp	15171
zász	15172
ív	15173
##rébb	15174
##gát	15175
##lah	15176
##hm	15177
##hé	15178
##ká	15179
##erin	15180
##ekven	15181
##eml	15182
##érzet	15183
megszabad	15184
##edések	15185
##itim	15186
##csat	15187
szerettem	15188
leírt	15189
##jazás	15190
##rey	15191
##igában	15192
##izációs	15193
terhet	15194
okmány	15195
összej	15196
részei	15197
vezetését	15198
államkötvény	15199
belesz	15200
elsőre	15201
visszak	15202
maria	15203
halak	15204
járd	15205
##zser	15206
gondozás	15207
félid	15208
##uszok	15209
céljából	15210
vélt	15211
betör	15212
étrend	15213
juthat	15214
blok	15215
programokat	15216
önélet	15217
családban	15218
jóllehet	15219
borító	15220
##ofil	15221
lehetőségük	15222
izz	15223
tájékoztatási	15224
közlekedni	15225
magánpénztár	15226
fordultak	15227
240	15228
220	15229
mérkőzésre	15230
gázt	15231
abort	15232
üzletek	15233
rendezők	15234
motorok	15235
vesztes	15236
ikon	15237
sebes	15238
shak	15239
szezont	15240
húzza	15241
többséggel	15242
népszerűsége	15243
civilek	15244
asszonyt	15245
regénye	15246
hátránya	15247
várták	15248
közönséget	15249
védelmében	15250
akadályoz	15251
számolva	15252
látványosan	15253
érzelmi	15254
balatoni	15255
rohan	15256
elvégezni	15257
testvérek	15258
megsérültek	15259
hatvanas	15260
poén	15261
serie	15262
tájék	15263
vancouverben	15264
honvédség	15265
stadionban	15266
kárpót	15267
magánnyugdíjpénztári	15268
megelőzte	15269
bántalmaz	15270
elvárás	15271
megnézni	15272
elődje	15273
ábrázoló	15274
megsértése	15275
kiváltó	15276
folyóiratban	15277
sorrendben	15278
felhőzet	15279
##listán	15280
zaránd	15281
szorgalmaz	15282
akkum	15283
megnyugtató	15284
elmenekült	15285
pisztoly	15286
szponzor	15287
ljubl	15288
alátámaszt	15289
szolidaritás	15290
##észettudomány	15291
cristi	15292
etnikai	15293
csokoládé	15294
##díjazás	15295
">	15296
ax	15297
bj	15298
bom	15299
fd	15300
mv	15301
m7	15302
mab	15303
nab	15304
sag	15305
sang	15306
talm	15307
tum	15308
véb	15309
##rem	15310
##ruh	15311
##zavar	15312
##ville	15313
##lor	15314
##leh	15315
##lások	15316
##bó	15317
##ekelőtt	15318
house	15319
köly	15320
megengedett	15321
##eddig	15322
##isen	15323
csab	15324
##ulék	15325
közalk	15326
##igen	15327
bevált	15328
évében	15329
##szern	15330
miben	15331
mindjárt	15332
##attól	15333
##epop	15334
##estone	15335
##olgat	15336
tartása	15337
illő	15338
ilona	15339
##őről	15340
mindenekelőtt	15341
azonosítás	15342
indítani	15343
ügyeket	15344
marihu	15345
pénzbüntetés	15346
egér	15347
kezdik	15348
kezdeti	15349
kezdenek	15350
életmű	15351
konszern	15352
mérföld	15353
lencs	15354
beszállító	15355
találják	15356
##járulék	15357
biztosra	15358
hivatott	15359
kiláb	15360
tervezték	15361
léteznek	15362
##eff	15363
oroszországi	15364
nyugdíjjárulék	15365
legnehez	15366
##újtás	15367
későn	15368
elemeket	15369
középkorú	15370
vitéz	15371
tanácsok	15372
##iszem	15373
díjakat	15374
gyakorló	15375
eszébe	15376
antiszem	15377
thor	15378
fordítva	15379
szükségük	15380
derek	15381
expr	15382
##ffy	15383
karácsonyt	15384
tanulmányt	15385
elfogadja	15386
okoznak	15387
osztályú	15388
intézkedései	15389
kártalan	15390
kilométeren	15391
témák	15392
közepéig	15393
szeptemberében	15394
meghatározás	15395
fenntartott	15396
értékesítési	15397
minősége	15398
##nyugat	15399
újságírói	15400
kötöttek	15401
fennálló	15402
megvalósítani	15403
futamot	15404
létrehozni	15405
ültek	15406
kölcsönös	15407
kurzus	15408
megjegyzés	15409
végrehajtani	15410
töltötték	15411
human	15412
letartóztatásban	15413
tanácsadói	15414
lezárult	15415
ferrar	15416
ibrah	15417
ajta	15418
felszólította	15419
munkáltatók	15420
katasztrófavédelem	15421
##helyettes	15422
tender	15423
megtartani	15424
kilátásba	15425
kártérítés	15426
kártérítést	15427
##mouth	15428
mosolyog	15429
delegált	15430
##ccsal	15431
visszavágó	15432
szivattyútelep	15433
##gyógyász	15434
europe	15435
sampdoria	15436
eindhoven	15437
kennedy	15438
beadvány	15439
debreczeni	15440
közalkalmazott	15441
legnehezebb	15442
ibrahim	15443
);"	15444
:#	15445
but	15446
cac	15447
dax	15448
jék	15449
jéből	15450
kban	15451
kolta	15452
lor	15453
mong	15454
rav	15455
sah	15456
tomb	15457
vd	15458
zo	15459
öböl	15460
##rások	15461
##kapcs	15462
##);"	15463
##ety	15464
szö	15465
szan	15466
##alizmus	15467
##esk	15468
##ágás	15469
##apr	15470
##ozhat	15471
kiszabad	15472
felold	15473
lejt	15474
akárm	15475
korong	15476
kormánnyal	15477
adjuk	15478
haw	15479
ern	15480
##bach	15481
ellenállás	15482
százalékának	15483
szemében	15484
napját	15485
rafa	15486
vezetik	15487
fix	15488
emberre	15489
bels	15490
igazolta	15491
töreked	15492
##ikusok	15493
elme	15494
onmo	15495
menulin	15496
termő	15497
##uphid	15498
jövőt	15499
zsúf	15500
védők	15501
fizette	15502
##művel	15503
##ességet	15504
##rendező	15505
roman	15506
olvasót	15507
területeket	15508
sajátosság	15509
önbiz	15510
távozó	15511
távközlési	15512
jegyzet	15513
oldalra	15514
fordulnak	15515
border	15516
évekkel	15517
tanácsának	15518
tájékoztat	15519
ismertetése	15520
torl	15521
torin	15522
kötelezte	15523
leves	15524
összegek	15525
megtilt	15526
növekedését	15527
tapolc	15528
feladta	15529
motorja	15530
bírta	15531
helyszínelés	15532
feltételezett	15533
life	15534
hasznosítás	15535
tulajdonosi	15536
##ütköz	15537
palota	15538
angolul	15539
videók	15540
intézményt	15541
szempontok	15542
kialakított	15543
garázd	15544
futballist	15545
felhasználás	15546
módosított	15547
laur	15548
zavarja	15549
munkahelyi	15550
munkahelyet	15551
posztjáról	15552
harmadban	15553
harmadszor	15554
afrikában	15555
részesül	15556
davis	15557
panaszok	15558
szigorúbb	15559
##cionál	15560
elkezdett	15561
rontott	15562
tiszteletben	15563
kivitelező	15564
elhelyezett	15565
lelkiismeret	15566
##ográfia	15567
csúszt	15568
##useout	15569
wild	15570
christian	15571
elteltével	15572
csempész	15573
művelődéstörténet	15574
bulgári	15575
lövöldözés	15576
gyerty	15577
univerz	15578
visszamenőleges	15579
##energia	15580
herczeg	15581
sztálin	15582
oxigén	15583
viktória	15584
##epopuphid	15585
onmouseout	15586
menulinepopuphid	15587
menulinepopuphide	15588
');"	15589
?!	15590
comb	15591
dió	15592
ent	15593
fára	15594
fly	15595
gt	15596
iker	15597
król	15598
koh	15599
mutas	15600
mfb	15601
pass	15602
pörg	15603
sort	15604
söp	15605
venn	15606
yard	15607
##iából	15608
##rő	15609
##yl	15610
##hirdetés	15611
##pell	15612
##enntart	15613
##szász	15614
##szenz	15615
széri	15616
szpart	15617
##inált	15618
##eser	15619
megmarad	15620
##áth	15621
##szta	15622
lecser	15623
bejutott	15624
olják	15625
legolcs	15626
számott	15627
##eszköz	15628
##olgép	15629
tartjuk	15630
anikó	15631
banda	15632
bizak	15633
fogom	15634
telik	15635
princ	15636
tárolás	15637
##oper	15638
belát	15639
##kedhet	15640
sajó	15641
járadék	15642
rendőrfők	15643
férő	15644
címre	15645
neo	15646
természettudomány	15647
konszenz	15648
rendszervált	15649
tagadja	15650
játékkal	15651
tőlem	15652
javítása	15653
szerződt	15654
emelik	15655
azokon	15656
vízben	15657
borisz	15658
kalauz	15659
izál	15660
apát	15661
novell	15662
szövetkezet	15663
fokot	15664
szenátor	15665
gépen	15666
ismerték	15667
sérül	15668
lászlót	15669
bűnöző	15670
érintette	15671
gyűlés	15672
274	15673
állítható	15674
moderni	15675
találkoznak	15676
kisebbségek	15677
felelőssége	15678
##nemű	15679
schal	15680
mértékét	15681
mozgott	15682
valamiféle	15683
illesz	15684
gyűjtés	15685
vetél	15686
jönni	15687
hajtottak	15688
tetem	15689
vehető	15690
vadon	15691
csomagtartó	15692
telefonszám	15693
évtől	15694
labdarúgás	15695
sérülésekkel	15696
névjegy	15697
tolna	15698
##hamar	15699
bízom	15700
##rys	15701
zártak	15702
jövedéki	15703
posztot	15704
érvényesül	15705
hálózatot	15706
fizetniük	15707
régiók	15708
beszélget	15709
kiny	15710
megszerzett	15711
statisztikák	15712
terrorista	15713
szégy	15714
sávban	15715
tőzsdék	15716
##show	15717
rajzol	15718
érdeklődésére	15719
tanárok	15720
előrejelzése	15721
támogatói	15722
rajthoz	15723
tegyék	15724
keresték	15725
pokorni	15726
pokolgép	15727
képzelni	15728
főigazgatója	15729
szlovénia	15730
calg	15731
bácsi	15732
wilson	15733
játsszák	15734
tőzsdén	15735
tőzsdei	15736
házigazda	15737
kommunizmus	15738
kiválasztott	15739
élvonalbeli	15740
baktériumok	15741
vajda	15742
csapattárs	15743
licit	15744
oszkó	15745
gyomor	15746
hegedűs	15747
portfól	15748
sikkasztás	15749
morgan	15750
munkavégzés	15751
feltörekvő	15752
odafigyel	15753
zeitung	15754
gratul	15755
mallor	15756
cristiano	15757
lecserél	15758
legolcsóbb	15759
rendőrfőkapitány	15760
konszenzus	15761
bv	15762
bújt	15763
cur	15764
hüv	15765
jünk	15766
knek	15767
mecs	15768
nai	15769
nash	15770
polc	15771
vetni	15772
üv	15773
##ring	15774
##th	15775
##zburg	15776
##ness	15777
##con	15778
##sok	15779
##üs	15780
##úk	15781
##ators	15782
szűn	15783
szink	15784
##alg	15785
##eke	15786
##orozat	15787
##ikán	15788
egyharmad	15789
egyhang	15790
megmond	15791
megéri	15792
megtörtén	15793
##lenáris	15794
##szerelés	15795
rendellen	15796
érsek	15797
teremben	15798
##ovszkij	15799
arn	15800
újat	15801
press	15802
műkor	15803
országában	15804
államosítás	15805
jogokat	15806
férf	15807
nevezik	15808
vezetőt	15809
ítés	15810
értékeket	15811
házba	15812
105	15813
hírszerzés	15814
védi	15815
céljai	15816
célokra	15817
helyzetű	15818
jait	15819
szerződött	15820
költségeket	15821
népek	15822
örült	15823
családtag	15824
ismerjük	15825
teszem	15826
kereszteződés	15827
fejlesztésére	15828
súlya	15829
##méretű	15830
válogat	15831
miniszterelnököt	15832
kutatóintézet	15833
anglia	15834
kígy	15835
keretet	15836
részecs	15837
tevő	15838
ikus	15839
rendőröknek	15840
építész	15841
segítségére	15842
listára	15843
angolok	15844
molekul	15845
ítéltek	15846
színészek	15847
csillap	15848
növelése	15849
##ström	15850
küzdelmet	15851
szereplői	15852
club	15853
politikában	15854
többségét	15855
jogszabályt	15856
börtönre	15857
zenét	15858
kényszerült	15859
szavait	15860
kiállítást	15861
minősített	15862
##kocsik	15863
egyházak	15864
kamatemelés	15865
ereszt	15866
győzelemre	15867
sorsát	15868
megfék	15869
számolnak	15870
valóságban	15871
világháló	15872
eladások	15873
fejlődését	15874
magazinnak	15875
felfüggesztés	15876
fagyott	15877
ross	15878
radar	15879
tegyük	15880
építőipari	15881
felmerül	15882
klímavált	15883
bevallása	15884
rovat	15885
ciklusban	15886
bejegyzett	15887
pályafutását	15888
pattant	15889
mérgezés	15890
leányvállalat	15891
gazprom	15892
talpra	15893
özvegy	15894
versenyképes	15895
matematika	15896
megszólal	15897
törekvés	15898
bécsben	15899
szabálysértési	15900
##escu	15901
összeomlás	15902
elhalaszt	15903
adófizetők	15904
##barát	15905
rekonstrukció	15906
velencei	15907
jolie	15908
csúcstalálkozó	15909
kigyulladt	15910
leghíresebb	15911
zarándok	15912
sanghaj	15913
calgary	15914
hüvely	15915
[...]
