{
  "version": "1.0",
  "truncation": null,
  "padding": null,
  "added_tokens": [
    {
      "id": 0,
      "content": "[UNK]",
      "single_word": false,
      "lstrip": false,
      "rstrip": false,
      "normalized": false,
      "special": true
    },
    {
      "id": 1,
      "content": "[CLS]",
      "single_word": false,
      "lstrip": false,
      "rstrip": false,
      "normalized": false,
      "special": true
    },
    {
      "id": 2,
      "content": "[SEP]",
      "single_word": false,
      "lstrip": false,
      "rstrip": false,
      "normalized": false,
      "special": true
    },
    {
      "id": 3,
      "content": "[PAD]",
      "single_word": false,
      "lstrip": false,
      "rstrip": false,
      "normalized": false,
      "special": true
    },
    {
      "id": 4,
      "content": "[MASK]",
      "single_word": false,
      "lstrip": false,
      "rstrip": false,
      "normalized": false,
      "special": true
    }
  ],
  "normalizer": {
    "type": "Sequence",
    "normalizers": [
      {
        "type": "NFKC"
      },
      {
        "type": "Lowercase"
      }
    ]
  },
  "pre_tokenizer": {
    "type": "Whitespace"
  },
  "post_processor": null,
  "decoder": {
    "type": "WordPiece",
    "prefix": "##",
    "cleanup": true
  },
  "model": {
    "type": "WordPiece",
    "unk_token": "[UNK]",
    "continuing_subword_prefix": "##",
    "max_input_chars_per_word": 100,
    "vocab": {
      "[UNK]": 0,
      "[CLS]": 1,
      "[SEP]": 2,
      "[PAD]": 3,
      "[MASK]": 4,
      "!": 5,
      "\"": 6,
      "#": 7,
      "$": 8,
      "%": 9,
      "&": 10,
      "'": 11,
      "(": 12,
      ")": 13,
      "*": 14,
      "+": 15,
      ",": 16,
      "-": 17,
      ".": 18,
      "/": 19,
      "0": 20,
      "1": 21,
      "2": 22,
      "3": 23,
      "4": 24,
      "5": 25,
      "6": 26,
      "7": 27,
      "8": 28,
      "9": 29,
      ":": 30,
      ";": 31,
      "<": 32,
      "=": 33,
      ">": 34,
      "?": 35,
      "@": 36,
      "[": 37,
      "\\": 38,
      "]": 39,
      "^": 40,
      "_": 41,
      "`": 42,
      "a": 43,
      "b": 44,
      "c": 45,
      "d": 46,
      "e": 47,
      "f": 48,
      "g": 49,
      "h": 50,
      "i": 51,
      "j": 52,
      "k": 53,
      "l": 54,
      "m": 55,
      "n": 56,
      "o": 57,
      "p": 58,
      "q": 59,
      "r": 60,
      "s": 61,
      "t": 62,
      "u": 63,
      "v": 64,
      "w": 65,
      "x": 66,
      "y": 67,
      "z": 68,
      "~": 69,
      "": 70,
      "": 71,
      "": 72,
      "": 73,
      "£": 74,
      "§": 75,
      "©": 76,
      "¬": 77,
      "­": 78,
      "®": 79,
      "°": 80,
      "±": 81,
      "·": 82,
      "×": 83,
      "ß": 84,
      "à": 85,
      "á": 86,
      "â": 87,
      "ã": 88,
      "ä": 89,
      "å": 90,
      "æ": 91,
      "ç": 92,
      "è": 93,
      "é": 94,
      "ê": 95,
      "ë": 96,
      "ì": 97,
      "í": 98,
      "î": 99,
      "ï": 100,
      "ð": 101,
      "ñ": 102,
      "ò": 103,
      "ó": 104,
      "ô": 105,
      "õ": 106,
      "ö": 107,
      "ø": 108,
      "ú": 109,
      "û": 110,
      "ü": 111,
      "ý": 112,
      "ÿ": 113,
      "ă": 114,
      "ą": 115,
      "ć": 116,
      "č": 117,
      "đ": 118,
      "ę": 119,
      "ı": 120,
      "ł": 121,
      "ń": 122,
      "ň": 123,
      "ő": 124,
      "ř": 125,
      "ś": 126,
      "ş": 127,
      "š": 128,
      "ţ": 129,
      "ť": 130,
      "ů": 131,
      "ű": 132,
      "ż": 133,
      "ž": 134,
      "ș": 135,
      "̈": 136,
      "̋": 137,
      "λ": 138,
      "μ": 139,
      "ї": 140,
      "ה": 141,
      "ו": 142,
      "י": 143,
      "‒": 144,
      "†": 145,
      "•": 146,
      "‬": 147,
      "‭": 148,
      "′": 149,
      "⁄": 150,
      "€": 151,
      "−": 152,
      "∗": 153,
      "≤": 154,
      "": 155,
      "": 156,
      "##d": 157,
      "##n": 158,
      "##y": 159,
      "##i": 160,
      "##l": 161,
      "##t": 162,
      "##e": 163,
      "##1": 164,
      "##5": 165,
      "##s": 166,
      "##k": 167,
      "##a": 168,
      "##r": 169,
      "##g": 170,
      "##á": 171,
      "##z": 172,
      "##é": 173,
      "##v": 174,
      "##c": 175,
      "##u": 176,
      "##m": 177,
      "##f": 178,
      "##4": 179,
      "##o": 180,
      "##ú": 181,
      "##j": 182,
      "##w": 183,
      "##p": 184,
      "##h": 185,
      "##b": 186,
      "##ó": 187,
      "##2": 188,
      "##í": 189,
      "##x": 190,
      "##ő": 191,
      "##7": 192,
      "##ű": 193,
      "##8": 194,
      "##9": 195,
      "##ö": 196,
      "##ü": 197,
      "##q": 198,
      "##0": 199,
      "##à": 200,
      "##6": 201,
      "##3": 202,
      "##ò": 203,
      "##è": 204,
      "##š": 205,
      "##č": 206,
      "##ć": 207,
      "##æ": 208,
      "##?": 209,
      "##ä": 210,
      "##:": 211,
      "##;": 212,
      "##′": 213,
      "##ţ": 214,
      "##(": 215,
      "##õ": 216,
      "##ñ": 217,
      "##,": 218,
      "##ž": 219,
      "##î": 220,
      "##=": 221,
      "##/": 222,
      "##%": 223,
      "##)": 224,
      "##ă": 225,
      "##>": 226,
      "##ô": 227,
      "##ß": 228,
      "##ê": 229,
      "##ç": 230,
      "##û": 231,
      "##\\": 232,
      "##!": 233,
      "##ã": 234,
      "##ÿ": 235,
      "##ň": 236,
      "##-": 237,
      "##ï": 238,
      "##ø": 239,
      "##ť": 240,
      "##ý": 241,
      "##\"": 242,
      "##å": 243,
      "##ë": 244,
      "##.": 245,
      "##ș": 246,
      "##ż": 247,
      "##ð": 248,
      "##*": 249,
      "##ř": 250,
      "##đ": 251,
      "##ů": 252,
      "##~": 253,
      "##[": 254,
      "##]": 255,
      "##ה": 256,
      "##ו": 257,
      "##ì": 258,
      "##ї": 259,
      "##+": 260,
      "##gy": 261,
      "sz": 262,
      "##el": 263,
      "##en": 264,
      "##er": 265,
      "##et": 266,
      "##sz": 267,
      "az": 268,
      "##an": 269,
      "el": 270,
      "##tt": 271,
      "##al": 272,
      "##at": 273,
      "és": 274,
      "##ak": 275,
      "##eg": 276,
      "##or": 277,
      "##nt": 278,
      "##em": 279,
      "##ár": 280,
      "##ég": 281,
      "##ek": 282,
      "egy": 283,
      "is": 284,
      "kö": 285,
      "ny": 286,
      "ho": 287,
      "##ar": 288,
      "##ny": 289,
      "##ás": 290,
      "ál": 291,
      "ez": 292,
      "meg": 293,
      "##ol": 294,
      "mi": 295,
      "al": 296,
      "et": 297,
      "en": 298,
      "##ág": 299,
      "ké": 300,
      "ek": 301,
      "ki": 302,
      "szer": 303,
      "at": 304,
      "hogy": 305,
      "##ap": 306,
      "ok": 307,
      "ás": 308,
      "es": 309,
      "##bb": 310,
      "er": 311,
      "ol": 312,
      "##nd": 313,
      "nem": 314,
      "##ez": 315,
      "le": 316,
      "##és": 317,
      "cs": 318,
      "ér": 319,
      "##es": 320,
      "ak": 321,
      "##ed": 322,
      "ban": 323,
      "##ál": 324,
      "##án": 325,
      "##on": 326,
      "##ér": 327,
      "##ék": 328,
      "em": 329,
      "##ól": 330,
      "ik": 331,
      "##os": 332,
      "be": 333,
      "##ik": 334,
      "an": 335,
      "fel": 336,
      "ott": 337,
      "##át": 338,
      "ben": 339,
      "##él": 340,
      "gy": 341,
      "##ok": 342,
      "##ül": 343,
      "##ta": 344,
      "áll": 345,
      "tö": 346,
      "ett": 347,
      "int": 348,
      "am": 349,
      "ar": 350,
      "re": 351,
      "nak": 352,
      "ad": 353,
      "or": 354,
      "##nk": 355,
      "##ett": 356,
      "##in": 357,
      "on": 358,
      "##szt": 359,
      "##am": 360,
      "##ét": 361,
      "##ad": 362,
      "##aj": 363,
      "##om": 364,
      "##ely": 365,
      "##il": 366,
      "ár": 367,
      "##agy": 368,
      "##cs": 369,
      "##it": 370,
      "##az": 371,
      "##og": 372,
      "##ag": 373,
      "##ák": 374,
      "te": 375,
      "lt": 376,
      "ni": 377,
      "os": 378,
      "év": 379,
      "szá": 380,
      "nek": 381,
      "köz": 382,
      "jel": 383,
      "##ől": 384,
      "ja": 385,
      "hat": 386,
      "id": 387,
      "ra": 388,
      "de": 389,
      "át": 390,
      "##ban": 391,
      "##ség": 392,
      "kor": 393,
      "él": 394,
      "ság": 395,
      "##ni": 396,
      "##oz": 397,
      "##ben": 398,
      "agy": 399,
      "elő": 400,
      "ren": 401,
      "val": 402,
      "##het": 403,
      "ség": 404,
      "##ut": 405,
      "##len": 406,
      "leg": 407,
      "ig": 408,
      "##is": 409,
      "##ig": 410,
      "##ll": 411,
      "##ány": 412,
      "##ra": 413,
      "rend": 414,
      "tu": 415,
      "##iz": 416,
      "##as": 417,
      "vol": 418,
      "##ai": 419,
      "ut": 420,
      "##ell": 421,
      "##áb": 422,
      "##re": 423,
      "##art": 424,
      "##ott": 425,
      "ter": 426,
      "for": 427,
      "ind": 428,
      "ha": 429,
      "né": 430,
      "tett": 431,
      "##ít": 432,
      "ot": 433,
      "jelen": 434,
      "##ró": 435,
      "agyar": 436,
      "ker": 437,
      "##ész": 438,
      "már": 439,
      "##ja": 440,
      "ko": 441,
      "##ény": 442,
      "##lt": 443,
      "##ság": 444,
      "ne": 445,
      "tart": 446,
      "volt": 447,
      "nagy": 448,
      "án": 449,
      "in": 450,
      "hely": 451,
      "ét": 452,
      "ít": 453,
      "##én": 454,
      "oz": 455,
      "ös": 456,
      "##má": 457,
      "kez": 458,
      "ve": 459,
      "szt": 460,
      "##nek": 461,
      "emb": 462,
      "tel": 463,
      "##ci": 464,
      "tör": 465,
      "ta": 466,
      "kép": 467,
      "csak": 468,
      "as": 469,
      "tá": 470,
      "##ul": 471,
      "több": 472,
      "még": 473,
      "ért": 474,
      "##kor": 475,
      "azt": 476,
      "##ök": 477,
      "##ve": 478,
      "ember": 479,
      "eg": 480,
      "##sze": 481,
      "##us": 482,
      "vá": 483,
      "kap": 484,
      "új": 485,
      "ked": 486,
      "más": 487,
      "két": 488,
      "van": 489,
      "mint": 490,
      "rsz": 491,
      "rszág": 492,
      "fog": 493,
      "ügy": 494,
      "##ső": 495,
      "tud": 496,
      "száz": 497,
      "om": 498,
      "sem": 499,
      "szám": 500,
      "tár": 501,
      "vég": 502,
      "##ép": 503,
      "mag": 504,
      "kell": 505,
      "tal": 506,
      "ai": 507,
      "iz": 508,
      "ezet": 509,
      "##áz": 510,
      "##ív": 511,
      "lehet": 512,
      "ellen": 513,
      "ed": 514,
      "ját": 515,
      "##att": 516,
      "##ro": 517,
      "il": 518,
      "##ej": 519,
      "ált": 520,
      "la": 521,
      "##da": 522,
      "amely": 523,
      "zö": 524,
      "##ot": 525,
      "nt": 526,
      "össze": 527,
      "##na": 528,
      "##ért": 529,
      "jár": 530,
      "tt": 531,
      "##ont": 532,
      "##lli": 533,
      "ul": 534,
      "nap": 535,
      "##olg": 536,
      "##mi": 537,
      "oly": 538,
      "milli": 539,
      "vi": 540,
      "je": 541,
      "ük": 542,
      "ond": 543,
      "lék": 544,
      "aj": 545,
      "tés": 546,
      "száza": 547,
      "után": 548,
      "##ond": 549,
      "eu": 550,
      "ba": 551,
      "tak": 552,
      "##ov": 553,
      "vagy": 554,
      "őr": 555,
      "lát": 556,
      "##éd": 557,
      "ír": 558,
      "zt": 559,
      "##ia": 560,
      "##ne": 561,
      "ab": 562,
      "##le": 563,
      "szak": 564,
      "vil": 565,
      "rész": 566,
      "biz": 567,
      "ped": 568,
      "##ko": 569,
      "ci": 570,
      "bu": 571,
      "est": 572,
      "##vé": 573,
      "ap": 574,
      "abb": 575,
      "tan": 576,
      "##kö": 577,
      "ir": 578,
      "kül": 579,
      "##to": 580,
      "mu": 581,
      "ezt": 582,
      "##gyan": 583,
      "het": 584,
      "men": 585,
      "pedig": 586,
      "tette": 587,
      "forin": 588,
      "ill": 589,
      "##úl": 590,
      "##ős": 591,
      "han": 592,
      "rá": 593,
      "ként": 594,
      "első": 595,
      "##ch": 596,
      "ról": 597,
      "##ert": 598,
      "ebb": 599,
      "unk": 600,
      "vár": 601,
      "munk": 602,
      "##vő": 603,
      "bi": 604,
      "kér": 605,
      "##vet": 606,
      "ében": 607,
      "ondta": 608,
      "hi": 609,
      "eket": 610,
      "alap": 611,
      "##öl": 612,
      "ti": 613,
      "mű": 614,
      "pár": 615,
      "okat": 616,
      "gaz": 617,
      "sok": 618,
      "világ": 619,
      "ri": 620,
      "ül": 621,
      "##yen": 622,
      "kat": 623,
      "idő": 624,
      "úgy": 625,
      "ött": 626,
      "ból": 627,
      "kormá": 628,
      "it": 629,
      "lés": 630,
      "nél": 631,
      "ép": 632,
      "##obb": 633,
      "##sza": 634,
      "inden": 635,
      "ikai": 636,
      "##ció": 637,
      "fő": 638,
      "##té": 639,
      "hal": 640,
      "maj": 641,
      "mind": 642,
      "követ": 643,
      "nő": 644,
      "##nak": 645,
      "ám": 646,
      "miatt": 647,
      "kal": 648,
      "dö": 649,
      "akkor": 650,
      "ism": 651,
      "tek": 652,
      "pro": 653,
      "pont": 654,
      "majd": 655,
      "ugyan": 656,
      "kész": 657,
      "vál": 658,
      "vel": 659,
      "igaz": 660,
      "##ön": 661,
      "##mé": 662,
      "rt": 663,
      "így": 664,
      "ide": 665,
      "##ná": 666,
      "eln": 667,
      "való": 668,
      "ro": 669,
      "euró": 670,
      "##ály": 671,
      "bel": 672,
      "##uk": 673,
      "hoz": 674,
      "##íz": 675,
      "aki": 676,
      "##utat": 677,
      "##ab": 678,
      "##se": 679,
      "ják": 680,
      "kerü": 681,
      "állam": 682,
      "ló": 683,
      "nd": 684,
      "##kal": 685,
      "én": 686,
      "av": 687,
      "##ín": 688,
      "társ": 689,
      "törté": 690,
      "uk": 691,
      "ták": 692,
      "ll": 693,
      "sor": 694,
      "ján": 695,
      "##éz": 696,
      "ható": 697,
      "lő": 698,
      "dí": 699,
      "véd": 700,
      "laszt": 701,
      "ről": 702,
      "jó": 703,
      "ami": 704,
      "issza": 705,
      "fej": 706,
      "ei": 707,
      "sp": 708,
      "kezd": 709,
      "nk": 710,
      "st": 711,
      "##őz": 712,
      "##emé": 713,
      "lesz": 714,
      "eset": 715,
      "ezető": 716,
      "zött": 717,
      "old": 718,
      "og": 719,
      "dönt": 720,
      "elnök": 721,
      "áz": 722,
      "talál": 723,
      "ből": 724,
      "##no": 725,
      "me": 726,
      "von": 727,
      "pén": 728,
      "pénz": 729,
      "##ug": 730,
      "##val": 731,
      "bo": 732,
      "zó": 733,
      "fél": 734,
      "ör": 735,
      "mell": 736,
      "ünk": 737,
      "olyan": 738,
      "nál": 739,
      "##rá": 740,
      "mert": 741,
      "ep": 742,
      "tám": 743,
      "tól": 744,
      "előtt": 745,
      "ilyen": 746,
      "sít": 747,
      "keres": 748,
      "zet": 749,
      "sal": 750,
      "ly": 751,
      "##nyi": 752,
      "tás": 753,
      "alm": 754,
      "zs": 755,
      "##be": 756,
      "##ző": 757,
      "od": 758,
      "ában": 759,
      "jö": 760,
      "jog": 761,
      "##ír": 762,
      "ház": 763,
      "ismer": 764,
      "egyik": 765,
      "##szo": 766,
      "ék": 767,
      "saj": 768,
      "által": 769,
      "##hat": 770,
      "pol": 771,
      "di": 772,
      "mér": 773,
      "se": 774,
      "díj": 775,
      "elm": 776,
      "alak": 777,
      "let": 778,
      "##étel": 779,
      "vez": 780,
      "ozz": 781,
      "já": 782,
      "érd": 783,
      "adó": 784,
      "onban": 785,
      "hár": 786,
      "ah": 787,
      "tov": 788,
      "per": 789,
      "asz": 790,
      "ke": 791,
      "tat": 792,
      "hét": 793,
      "##tat": 794,
      "li": 795,
      "va": 796,
      "##je": 797,
      "##dá": 798,
      "lak": 799,
      "kk": 800,
      "##od": 801,
      "etlen": 802,
      "ály": 803,
      "mond": 804,
      "mény": 805,
      "továb": 806,
      "olt": 807,
      "aut": 808,
      "vet": 809,
      "##ély": 810,
      "##ort": 811,
      "ozzá": 812,
      "tér": 813,
      "nev": 814,
      "öt": 815,
      "autó": 816,
      "ani": 817,
      "től": 818,
      "##fi": 819,
      "polit": 820,
      "sen": 821,
      "ver": 822,
      "ent": 823,
      "ten": 824,
      "éves": 825,
      "mos": 826,
      "három": 827,
      "illet": 828,
      "##ló": 829,
      "ély": 830,
      "##est": 831,
      "kapcs": 832,
      "lis": 833,
      "##kez": 834,
      "munka": 835,
      "fér": 836,
      "zás": 837,
      "ének": 838,
      "##vel": 839,
      "gazda": 840,
      "külön": 841,
      "ku": 842,
      "ezer": 843,
      "##éter": 844,
      "áb": 845,
      "bizto": 846,
      "dolg": 847,
      "kon": 848,
      "ré": 849,
      "##elő": 850,
      "sik": 851,
      "sap": 852,
      "ikus": 853,
      "ag": 854,
      "állal": 855,
      "##szá": 856,
      "hez": 857,
      "emel": 858,
      "##tó": 859,
      "##ím": 860,
      "élet": 861,
      "##öve": 862,
      "ére": 863,
      "szín": 864,
      "##bá": 865,
      "##ony": 866,
      "kör": 867,
      "ása": 868,
      "##lan": 869,
      "város": 870,
      "ának": 871,
      "##nap": 872,
      "mikor": 873,
      "tott": 874,
      "sapat": 875,
      "ték": 876,
      "fiz": 877,
      "koz": 878,
      "lép": 879,
      "egész": 880,
      "kis": 881,
      "any": 882,
      "most": 883,
      "##jt": 884,
      "mutat": 885,
      "ont": 886,
      "##ze": 887,
      "ov": 888,
      "end": 889,
      "##áro": 890,
      "itt": 891,
      "nyil": 892,
      "im": 893,
      "##ód": 894,
      "zott": 895,
      "##op": 896,
      "koráb": 897,
      "tű": 898,
      "arra": 899,
      "cím": 900,
      "párt": 901,
      "orszá": 902,
      "ing": 903,
      "öl": 904,
      "gond": 905,
      "aszná": 906,
      "nyug": 907,
      "erős": 908,
      "ció": 909,
      "kérd": 910,
      "állí": 911,
      "föl": 912,
      "##ük": 913,
      "tet": 914,
      "ató": 915,
      "férfi": 916,
      "##ce": 917,
      "árd": 918,
      "szab": 919,
      "eb": 920,
      "cég": 921,
      "játék": 922,
      "##tö": 923,
      "##um": 924,
      "baj": 925,
      "oszt": 926,
      "ment": 927,
      "##ri": 928,
      "net": 929,
      "ered": 930,
      "ön": 931,
      "siker": 932,
      "lap": 933,
      "jut": 934,
      "##oly": 935,
      "gyer": 936,
      "##ör": 937,
      "ók": 938,
      "elem": 939,
      "hang": 940,
      "ma": 941,
      "társa": 942,
      "törvé": 943,
      "dolgo": 944,
      "par": 945,
      "len": 946,
      "lás": 947,
      "ód": 948,
      "##dig": 949,
      "fizet": 950,
      "ia": 951,
      "óta": 952,
      "##gyel": 953,
      "##sg": 954,
      "ára": 955,
      "érték": 956,
      "szerv": 957,
      "juk": 958,
      "adat": 959,
      "obb": 960,
      "kar": 961,
      "##nte": 962,
      "haj": 963,
      "hó": 964,
      "bl": 965,
      "európ": 966,
      "##tá": 967,
      "érdek": 968,
      "##va": 969,
      "ném": 970,
      "seg": 971,
      "kel": 972,
      "alatt": 973,
      "atlan": 974,
      "volna": 975,
      "kív": 976,
      "ők": 977,
      "vas": 978,
      "##asz": 979,
      "készü": 980,
      "mar": 981,
      "nyom": 982,
      "vezet": 983,
      "uta": 984,
      "csö": 985,
      "hu": 986,
      "gr": 987,
      "##int": 988,
      "tr": 989,
      "##he": 990,
      "ási": 991,
      "##ki": 992,
      "ezek": 993,
      "másod": 994,
      "otta": 995,
      "túl": 996,
      "szerű": 997,
      "##köd": 998,
      "##ge": 999,
      "zat": 1000,
      "jegy": 1001,
      "gondo": 1002,
      "tag": 1003,
      "elmi": 1004,
      "má": 1005,
      "négy": 1006,
      "kken": 1007,
      "valam": 1008,
      "alá": 1009,
      "oldal": 1010,
      "tam": 1011,
      "##vi": 1012,
      "té": 1013,
      "##la": 1014,
      "jav": 1015,
      "ltség": 1016,
      "út": 1017,
      "amer": 1018,
      "szó": 1019,
      "idesz": 1020,
      "súl": 1021,
      "súly": 1022,
      "terv": 1023,
      "fil": 1024,
      "ink": 1025,
      "bal": 1026,
      "vesz": 1027,
      "##ep": 1028,
      "bár": 1029,
      "mód": 1030,
      "eml": 1031,
      "tlen": 1032,
      "akik": 1033,
      "közel": 1034,
      "##atal": 1035,
      "vétel": 1036,
      "zár": 1037,
      "besz": 1038,
      "verse": 1039,
      "##uá": 1040,
      "##ká": 1041,
      "utó": 1042,
      "ennyi": 1043,
      "intéz": 1044,
      "atás": 1045,
      "éh": 1046,
      "##ról": 1047,
      "olat": 1048,
      "lni": 1049,
      "viszo": 1050,
      "cél": 1051,
      "tik": 1052,
      "mini": 1053,
      "öz": 1054,
      "ütt": 1055,
      "mány": 1056,
      "támog": 1057,
      "vált": 1058,
      "##ára": 1059,
      "and": 1060,
      "##lte": 1061,
      "si": 1062,
      "bar": 1063,
      "lét": 1064,
      "bud": 1065,
      "ford": 1066,
      "jobb": 1067,
      "ások": 1068,
      "nagyo": 1069,
      "szól": 1070,
      "méter": 1071,
      "film": 1072,
      "áltoz": 1073,
      "fü": 1074,
      "fr": 1075,
      "pél": 1076,
      "példá": 1077,
      "##ba": 1078,
      "ése": 1079,
      "us": 1080,
      "##kü": 1081,
      "budap": 1082,
      "nin": 1083,
      "##di": 1084,
      "ező": 1085,
      "szül": 1086,
      "sport": 1087,
      "nélkü": 1088,
      "bizo": 1089,
      "indul": 1090,
      "akar": 1091,
      "tiszt": 1092,
      "##00": 1093,
      "ész": 1094,
      "##köz": 1095,
      "német": 1096,
      "son": 1097,
      "víz": 1098,
      "pia": 1099,
      "pály": 1100,
      "szter": 1101,
      "rö": 1102,
      "marad": 1103,
      "beszé": 1104,
      "ip": 1105,
      "olyam": 1106,
      "forg": 1107,
      "hanem": 1108,
      "ell": 1109,
      "őd": 1110,
      "munká": 1111,
      "ző": 1112,
      "ord": 1113,
      "##zet": 1114,
      "gép": 1115,
      "pró": 1116,
      "sí": 1117,
      "szem": 1118,
      "nincs": 1119,
      "győz": 1120,
      "##vas": 1121,
      "kam": 1122,
      "lal": 1123,
      "szet": 1124,
      "##ác": 1125,
      "alom": 1126,
      "ügyi": 1127,
      "isz": 1128,
      "arm": 1129,
      "att": 1130,
      "kl": 1131,
      "##vat": 1132,
      "lé": 1133,
      "sk": 1134,
      "ően": 1135,
      "ével": 1136,
      "álat": 1137,
      "igazg": 1138,
      "##lat": 1139,
      "ották": 1140,
      "iselő": 1141,
      "ső": 1142,
      "igyel": 1143,
      "termé": 1144,
      "terül": 1145,
      "kt": 1146,
      "ch": 1147,
      "üz": 1148,
      "lett": 1149,
      "do": 1150,
      "zölte": 1151,
      "bajno": 1152,
      "erő": 1153,
      "ran": 1154,
      "ely": 1155,
      "nép": 1156,
      "adás": 1157,
      "ász": 1158,
      "fo": 1159,
      "jövő": 1160,
      "dol": 1161,
      "mí": 1162,
      "táv": 1163,
      "nyer": 1164,
      "lá": 1165,
      "tol": 1166,
      "fogad": 1167,
      "kr": 1168,
      "ükség": 1169,
      "ur": 1170,
      "azért": 1171,
      "játsz": 1172,
      "ken": 1173,
      "azok": 1174,
      "lj": 1175,
      "dal": 1176,
      "kev": 1177,
      "egyed": 1178,
      "tü": 1179,
      "##ád": 1180,
      "sági": 1181,
      "ng": 1182,
      "san": 1183,
      "eddig": 1184,
      "nyi": 1185,
      "hív": 1186,
      "orv": 1187,
      "eng": 1188,
      "előre": 1189,
      "míg": 1190,
      "lat": 1191,
      "##nyv": 1192,
      "perc": 1193,
      "##opo": 1194,
      "ontos": 1195,
      "csopo": 1196,
      "bí": 1197,
      "inte": 1198,
      "kó": 1199,
      "inf": 1200,
      "olvas": 1201,
      "fe": 1202,
      "elt": 1203,
      "tköz": 1204,
      "gram": 1205,
      "ang": 1206,
      "##lag": 1207,
      "test": 1208,
      "gyű": 1209,
      "tő": 1210,
      "ült": 1211,
      "anyag": 1212,
      "űköd": 1213,
      "foly": 1214,
      "avaz": 1215,
      "ési": 1216,
      "ahol": 1217,
      "polg": 1218,
      "polgá": 1219,
      "emély": 1220,
      "pl": 1221,
      "um": 1222,
      "armad": 1223,
      "számí": 1224,
      "ősz": 1225,
      "ezért": 1226,
      "don": 1227,
      "bb": 1228,
      "nevez": 1229,
      "gyen": 1230,
      "annak": 1231,
      "dél": 1232,
      "##né": 1233,
      "súlyo": 1234,
      "ánd": 1235,
      "ex": 1236,
      "képv": 1237,
      "ottak": 1238,
      "hír": 1239,
      "##fő": 1240,
      "telje": 1241,
      "fok": 1242,
      "néz": 1243,
      "##ható": 1244,
      "##ei": 1245,
      "bank": 1246,
      "gyak": 1247,
      "pé": 1248,
      "##pá": 1249,
      "hagy": 1250,
      "kár": 1251,
      "eit": 1252,
      "ennek": 1253,
      "szo": 1254,
      "##rás": 1255,
      "hónap": 1256,
      "részt": 1257,
      "mno": 1258,
      "##dés": 1259,
      "du": 1260,
      "szolg": 1261,
      "táj": 1262,
      "könyv": 1263,
      "bü": 1264,
      "saját": 1265,
      "salád": 1266,
      "ülés": 1267,
      "bíró": 1268,
      "telen": 1269,
      "ket": 1270,
      "füg": 1271,
      "haz": 1272,
      "uni": 1273,
      "iká": 1274,
      "ást": 1275,
      "##zel": 1276,
      "csü": 1277,
      "##and": 1278,
      "min": 1279,
      "őség": 1280,
      "ális": 1281,
      "iá": 1282,
      "##só": 1283,
      "irány": 1284,
      "tem": 1285,
      "har": 1286,
      "##ma": 1287,
      "őrség": 1288,
      "zen": 1289,
      "##lá": 1290,
      "rég": 1291,
      "arról": 1292,
      "ég": 1293,
      "ésé": 1294,
      "ber": 1295,
      "tős": 1296,
      "növe": 1297,
      "sér": 1298,
      "ant": 1299,
      "ekk": 1300,
      "jelöl": 1301,
      "megf": 1302,
      "sü": 1303,
      "kedés": 1304,
      "fi": 1305,
      "maga": 1306,
      "magas": 1307,
      "taval": 1308,
      "##any": 1309,
      "tartó": 1310,
      "iszen": 1311,
      "ac": 1312,
      "sel": 1313,
      "sajtó": 1314,
      "##há": 1315,
      "atáro": 1316,
      "olg": 1317,
      "tul": 1318,
      "gól": 1319,
      "képes": 1320,
      "jan": 1321,
      "viz": 1322,
      "kutat": 1323,
      "sony": 1324,
      "készí": 1325,
      "kívül": 1326,
      "rtök": 1327,
      "ss": 1328,
      "amit": 1329,
      "ával": 1330,
      "állít": 1331,
      "ris": 1332,
      "neh": 1333,
      "rm": 1334,
      "nyol": 1335,
      "ros": 1336,
      "abály": 1337,
      "lo": 1338,
      "zik": 1339,
      "ekkel": 1340,
      "tárgy": 1341,
      "adott": 1342,
      "alkal": 1343,
      "áj": 1344,
      "próbá": 1345,
      "tulaj": 1346,
      "lek": 1347,
      "ést": 1348,
      "ud": 1349,
      "hát": 1350,
      "endő": 1351,
      "másik": 1352,
      "emzet": 1353,
      "éhány": 1354,
      "ámára": 1355,
      "tség": 1356,
      "jól": 1357,
      "oztat": 1358,
      "tűn": 1359,
      "jú": 1360,
      "kedv": 1361,
      "akad": 1362,
      "##ors": 1363,
      "vett": 1364,
      "kedd": 1365,
      "au": 1366,
      "jé": 1367,
      "mú": 1368,
      "ná": 1369,
      "épí": 1370,
      "piac": 1371,
      "##kod": 1372,
      "na": 1373,
      "lékos": 1374,
      "inkáb": 1375,
      "##vá": 1376,
      "járás": 1377,
      "ök": 1378,
      "felé": 1379,
      "órá": 1380,
      "##ho": 1381,
      "esz": 1382,
      "nemze": 1383,
      "tájék": 1384,
      "ttság": 1385,
      "inter": 1386,
      "hivat": 1387,
      "vé": 1388,
      "nyilv": 1389,
      "szöve": 1390,
      "egyé": 1391,
      "za": 1392,
      "teni": 1393,
      "lhet": 1394,
      "épp": 1395,
      "eség": 1396,
      "thet": 1397,
      "alaku": 1398,
      "csütö": 1399,
      "hall": 1400,
      "izsg": 1401,
      "raj": 1402,
      "fordu": 1403,
      "című": 1404,
      "ait": 1405,
      "lm": 1406,
      "vis": 1407,
      "hit": 1408,
      "közül": 1409,
      "##hoz": 1410,
      "ezés": 1411,
      "késő": 1412,
      "izsgá": 1413,
      "iatal": 1414,
      "múlt": 1415,
      "akár": 1416,
      "része": 1417,
      "tiz": 1418,
      "br": 1419,
      "talan": 1420,
      "abad": 1421,
      "évek": 1422,
      "dollá": 1423,
      "számo": 1424,
      "okoz": 1425,
      "##itá": 1426,
      "tközi": 1427,
      "tanul": 1428,
      "eren": 1429,
      "tölt": 1430,
      "to": 1431,
      "örö": 1432,
      "lenne": 1433,
      "elj": 1434,
      "ru": 1435,
      "támad": 1436,
      "érkez": 1437,
      "lab": 1438,
      "elég": 1439,
      "bű": 1440,
      "ya": 1441,
      "köt": 1442,
      "ány": 1443,
      "gj": 1444,
      "gyors": 1445,
      "ztat": 1446,
      "ós": 1447,
      "bűn": 1448,
      "érz": 1449,
      "rom": 1450,
      "gjobb": 1451,
      "hatás": 1452,
      "közö": 1453,
      "moz": 1454,
      "állap": 1455,
      "tó": 1456,
      "tíz": 1457,
      "pályá": 1458,
      "##ha": 1459,
      "niszt": 1460,
      "álló": 1461,
      "ítél": 1462,
      "éd": 1463,
      "sérü": 1464,
      "mo": 1465,
      "gyobb": 1466,
      "szüle": 1467,
      "ty": 1468,
      "almaz": 1469,
      "ítás": 1470,
      "enged": 1471,
      "ou": 1472,
      "oló": 1473,
      "dec": 1474,
      "##mű": 1475,
      "januá": 1476,
      "kü": 1477,
      "szál": 1478,
      "mely": 1479,
      "oro": 1480,
      "azz": 1481,
      "nyú": 1482,
      "so": 1483,
      "emlék": 1484,
      "kí": 1485,
      "legna": 1486,
      "körül": 1487,
      "mez": 1488,
      "tv": 1489,
      "ic": 1490,
      "okkal": 1491,
      "belül": 1492,
      "gyár": 1493,
      "ásá": 1494,
      "##csi": 1495,
      "##anc": 1496,
      "atott": 1497,
      "ág": 1498,
      "atok": 1499,
      "állás": 1500,
      "zp": 1501,
      "nság": 1502,
      "mec": 1503,
      "leges": 1504,
      "tétel": 1505,
      "mai": 1506,
      "tesz": 1507,
      "ponto": 1508,
      "lalko": 1509,
      "gyere": 1510,
      "gyako": 1511,
      "ev": 1512,
      "esti": 1513,
      "során": 1514,
      "msz": 1515,
      "##ami": 1516,
      "eni": 1517,
      "ft": 1518,
      "ati": 1519,
      "bet": 1520,
      "iszt": 1521,
      "egyei": 1522,
      "jai": 1523,
      "##koz": 1524,
      "rossz": 1525,
      "árnap": 1526,
      "idej": 1527,
      "semmi": 1528,
      "hiány": 1529,
      "erd": 1530,
      "ista": 1531,
      "erenc": 1532,
      "zpont": 1533,
      "azzal": 1534,
      "red": 1535,
      "vetés": 1536,
      "ette": 1537,
      "részé": 1538,
      "rd": 1539,
      "alk": 1540,
      "nyolc": 1541,
      "emben": 1542,
      "rny": 1543,
      "pénzt": 1544,
      "indig": 1545,
      "író": 1546,
      "nyel": 1547,
      "ala": 1548,
      "tit": 1549,
      "bra": 1550,
      "ete": 1551,
      "egyéb": 1552,
      "bef": 1553,
      "beteg": 1554,
      "skol": 1555,
      "kom": 1556,
      "közép": 1557,
      "ződés": 1558,
      "ezzel": 1559,
      "megsz": 1560,
      "telep": 1561,
      "mot": 1562,
      "pr": 1563,
      "ard": 1564,
      "oltak": 1565,
      "kön": 1566,
      "gyan": 1567,
      "tolsó": 1568,
      "zl": 1569,
      "leked": 1570,
      "sztés": 1571,
      "száll": 1572,
      "kot": 1573,
      "tb": 1574,
      "zni": 1575,
      "orosz": 1576,
      "akció": 1577,
      "sebb": 1578,
      "későb": 1579,
      "éri": 1580,
      "ános": 1581,
      "éve": 1582,
      "lta": 1583,
      "szok": 1584,
      "ászló": 1585,
      "tarto": 1586,
      "föld": 1587,
      "érte": 1588,
      "ró": 1589,
      "orb": 1590,
      "utób": 1591,
      "atkoz": 1592,
      "visel": 1593,
      "bá": 1594,
      "mivel": 1595,
      "hí": 1596,
      "kod": 1597,
      "parla": 1598,
      "meccs": 1599,
      "##ele": 1600,
      "fen": 1601,
      "ossz": 1602,
      "aján": 1603,
      "vonat": 1604,
      "lépés": 1605,
      "maz": 1606,
      "mányz": 1607,
      "lévő": 1608,
      "eljes": 1609,
      "eszt": 1610,
      "##ti": 1611,
      "eh": 1612,
      "vizsg": 1613,
      "fejle": 1614,
      "til": 1615,
      "nyit": 1616,
      "idén": 1617,
      "kező": 1618,
      "iro": 1619,
      "ezett": 1620,
      "rható": 1621,
      "ák": 1622,
      "csat": 1623,
      "ajánl": 1624,
      "op": 1625,
      "végén": 1626,
      "újra": 1627,
      "színű": 1628,
      "sta": 1629,
      "bil": 1630,
      "enki": 1631,
      "keze": 1632,
      "##já": 1633,
      "un": 1634,
      "könny": 1635,
      "úja": 1636,
      "tetté": 1637,
      "újabb": 1638,
      "magán": 1639,
      "pénte": 1640,
      "mszp": 1641,
      "fejez": 1642,
      "##me": 1643,
      "rende": 1644,
      "10": 1645,
      "végz": 1646,
      "##let": 1647,
      "eti": 1648,
      "hazai": 1649,
      "gal": 1650,
      "élemé": 1651,
      "határ": 1652,
      "gyerm": 1653,
      "port": 1654,
      "gyanú": 1655,
      "rú": 1656,
      "kség": 1657,
      "rak": 1658,
      "##alm": 1659,
      "hitel": 1660,
      "elelő": 1661,
      "enek": 1662,
      "bor": 1663,
      "rel": 1664,
      "úsz": 1665,
      "##ális": 1666,
      "últ": 1667,
      "segít": 1668,
      "elkez": 1669,
      "méd": 1670,
      "orvos": 1671,
      "der": 1672,
      "utas": 1673,
      "veszt": 1674,
      "oda": 1675,
      "gyó": 1676,
      "helyi": 1677,
      "jának": 1678,
      "ein": 1679,
      "tekin": 1680,
      "hú": 1681,
      "mit": 1682,
      "pal": 1683,
      "ult": 1684,
      "bö": 1685,
      "kotmá": 1686,
      "orbán": 1687,
      "iai": 1688,
      "egyes": 1689,
      "almas": 1690,
      "ebben": 1691,
      "tanác": 1692,
      "vány": 1693,
      "abban": 1694,
      "hajt": 1695,
      "gen": 1696,
      "##ről": 1697,
      "tor": 1698,
      "bele": 1699,
      "infor": 1700,
      "vonal": 1701,
      "tűz": 1702,
      "gel": 1703,
      "segí": 1704,
      "kín": 1705,
      "ich": 1706,
      "íz": 1707,
      "csap": 1708,
      "tét": 1709,
      "olgál": 1710,
      "uszt": 1711,
      "eseté": 1712,
      "fut": 1713,
      "##te": 1714,
      "omb": 1715,
      "zta": 1716,
      "etem": 1717,
      "napi": 1718,
      "ká": 1719,
      "lja": 1720,
      "tani": 1721,
      "gos": 1722,
      "nov": 1723,
      "tú": 1724,
      "étfő": 1725,
      "őket": 1726,
      "oci": 1727,
      "önk": 1728,
      "idei": 1729,
      "dar": 1730,
      "orrás": 1731,
      "ábor": 1732,
      "jük": 1733,
      "óvi": 1734,
      "önkor": 1735,
      "erv": 1736,
      "alakí": 1737,
      "péter": 1738,
      "lytat": 1739,
      "ából": 1740,
      "vér": 1741,
      "szél": 1742,
      "ato": 1743,
      "##ván": 1744,
      "évben": 1745,
      "ka": 1746,
      "mal": 1747,
      "ését": 1748,
      "érint": 1749,
      "alább": 1750,
      "##ub": 1751,
      "rmest": 1752,
      "nyújt": 1753,
      "utc": 1754,
      "##ex": 1755,
      "dr": 1756,
      "osság": 1757,
      "hol": 1758,
      "válog": 1759,
      "fenn": 1760,
      "óvivő": 1761,
      "éb": 1762,
      "##im": 1763,
      "kil": 1764,
      "##tos": 1765,
      "##ka": 1766,
      "elej": 1767,
      "elet": 1768,
      "##ábor": 1769,
      "pil": 1770,
      "iztos": 1771,
      "lég": 1772,
      "motor": 1773,
      "gáz": 1774,
      "arc": 1775,
      "éli": 1776,
      "írás": 1777,
      "epel": 1778,
      "lány": 1779,
      "éppen": 1780,
      "áltat": 1781,
      "tot": 1782,
      "ős": 1783,
      "nik": 1784,
      "##gye": 1785,
      "okban": 1786,
      "erdán": 1787,
      "yaszt": 1788,
      "ain": 1789,
      "bír": 1790,
      "átlag": 1791,
      "intén": 1792,
      "mel": 1793,
      "##ják": 1794,
      "séges": 1795,
      "étfőn": 1796,
      "kór": 1797,
      "ersze": 1798,
      "kiv": 1799,
      "szom": 1800,
      "hető": 1801,
      "máció": 1802,
      "ester": 1803,
      "ekt": 1804,
      "af": 1805,
      "erre": 1806,
      "lov": 1807,
      "zék": 1808,
      "magá": 1809,
      "jegyz": 1810,
      "annyi": 1811,
      "telez": 1812,
      "ismét": 1813,
      "##gel": 1814,
      "álság": 1815,
      "üzem": 1816,
      "15": 1817,
      "bő": 1818,
      "zz": 1819,
      "terje": 1820,
      "zlemé": 1821,
      "tap": 1822,
      "etet": 1823,
      "sonló": 1824,
      "gyűjt": 1825,
      "ika": 1826,
      "magát": 1827,
      "óra": 1828,
      "sa": 1829,
      "stván": 1830,
      "éj": 1831,
      "halál": 1832,
      "ipar": 1833,
      "szint": 1834,
      "gyu": 1835,
      "itás": 1836,
      "etés": 1837,
      "fu": 1838,
      "nőtt": 1839,
      "zi": 1840,
      "írja": 1841,
      "kció": 1842,
      "aslat": 1843,
      "kíván": 1844,
      "neki": 1845,
      "jában": 1846,
      "cso": 1847,
      "lőd": 1848,
      "##ént": 1849,
      "ervez": 1850,
      "azon": 1851,
      "##gi": 1852,
      "ebr": 1853,
      "keves": 1854,
      "str": 1855,
      "las": 1856,
      "iut": 1857,
      "alami": 1858,
      "emény": 1859,
      "lag": 1860,
      "ogyan": 1861,
      "áció": 1862,
      "##ine": 1863,
      "po": 1864,
      "totta": 1865,
      "szóló": 1866,
      "áról": 1867,
      "atív": 1868,
      "iután": 1869,
      "kság": 1870,
      "őrök": 1871,
      "barát": 1872,
      "igen": 1873,
      "no": 1874,
      "kény": 1875,
      "atot": 1876,
      "szív": 1877,
      "bíz": 1878,
      "##sor": 1879,
      "jo": 1880,
      "szor": 1881,
      "éről": 1882,
      "elős": 1883,
      "##zs": 1884,
      "este": 1885,
      "árm": 1886,
      "régi": 1887,
      "álasz": 1888,
      "ozat": 1889,
      "formá": 1890,
      "ebruá": 1891,
      "km": 1892,
      "ese": 1893,
      "ezte": 1894,
      "tető": 1895,
      "man": 1896,
      "tele": 1897,
      "20": 1898,
      "etné": 1899,
      "land": 1900,
      "műsor": 1901,
      "nete": 1902,
      "ene": 1903,
      "ttal": 1904,
      "##adt": 1905,
      "lkod": 1906,
      "ény": 1907,
      "ata": 1908,
      "##vid": 1909,
      "kkal": 1910,
      "ogl": 1911,
      "kelet": 1912,
      "ől": 1913,
      "adság": 1914,
      "rög": 1915,
      "őször": 1916,
      "tehet": 1917,
      "assz": 1918,
      "##chn": 1919,
      "üzlet": 1920,
      "ib": 1921,
      "zben": 1922,
      "vid": 1923,
      "ost": 1924,
      "pi": 1925,
      "vatal": 1926,
      "rnyez": 1927,
      "jelz": 1928,
      "pá": 1929,
      "##öv": 1930,
      "lik": 1931,
      "ün": 1932,
      "csú": 1933,
      "igény": 1934,
      "kocsi": 1935,
      "zol": 1936,
      "ong": 1937,
      "bev": 1938,
      "tunk": 1939,
      "függe": 1940,
      "part": 1941,
      "aszt": 1942,
      "lg": 1943,
      "##nep": 1944,
      "##sér": 1945,
      "ener": 1946,
      "franc": 1947,
      "szí": 1948,
      "földi": 1949,
      "elv": 1950,
      "évvel": 1951,
      "kett": 1952,
      "rlat": 1953,
      "szerz": 1954,
      "bér": 1955,
      "rtökö": 1956,
      "##émá": 1957,
      "jött": 1958,
      "megh": 1959,
      "érium": 1960,
      "irat": 1961,
      "vél": 1962,
      "legf": 1963,
      "ordul": 1964,
      "gu": 1965,
      "kísér": 1966,
      "moly": 1967,
      "mti": 1968,
      "rek": 1969,
      "ggel": 1970,
      "kan": 1971,
      "íg": 1972,
      "gyárt": 1973,
      "szk": 1974,
      "felh": 1975,
      "kek": 1976,
      "halad": 1977,
      "blémá": 1978,
      "anak": 1979,
      "##elm": 1980,
      "csu": 1981,
      "ítés": 1982,
      "osszú": 1983,
      "12": 1984,
      "ria": 1985,
      "izm": 1986,
      "oglal": 1987,
      "tudom": 1988,
      "őrz": 1989,
      "ünnep": 1990,
      "pó": 1991,
      "miért": 1992,
      "enni": 1993,
      "vall": 1994,
      "épül": 1995,
      "egyre": 1996,
      "arány": 1997,
      "##tor": 1998,
      "techn": 1999,
      "tilt": 2000,
      "gábor": 2001,
      "keret": 2002,
      "erősí": 2003,
      "sért": 2004,
      "ín": 2005,
      "kiad": 2006,
      "ason": 2007,
      "hallg": 2008,
      "mö": 2009,
      "élő": 2010,
      "jon": 2011,
      "áld": 2012,
      "ottho": 2013,
      "töm": 2014,
      "##ssz": 2015,
      "esség": 2016,
      "küld": 2017,
      "epl": 2018,
      "##ház": 2019,
      "ásra": 2020,
      "yör": 2021,
      "értő": 2022,
      "eken": 2023,
      "ekre": 2024,
      "listá": 2025,
      "labda": 2026,
      "sség": 2027,
      "ark": 2028,
      "unió": 2029,
      "nehéz": 2030,
      "gyes": 2031,
      "képp": 2032,
      "da": 2033,
      "rövid": 2034,
      "hossz": 2035,
      "tetés": 2036,
      "alkot": 2037,
      "ették": 2038,
      "ltek": 2039,
      "ándor": 2040,
      "minő": 2041,
      "kilo": 2042,
      "fek": 2043,
      "kőz": 2044,
      "##ke": 2045,
      "##ába": 2046,
      "nyomo": 2047,
      "eplő": 2048,
      "omány": 2049,
      "végre": 2050,
      "ton": 2051,
      "env": 2052,
      "ását": 2053,
      "nal": 2054,
      "##pa": 2055,
      "ern": 2056,
      "terem": 2057,
      "elmet": 2058,
      "rúg": 2059,
      "elyen": 2060,
      "apitá": 2061,
      "lf": 2062,
      "dob": 2063,
      "##tób": 2064,
      "izony": 2065,
      "létre": 2066,
      "terme": 2067,
      "szete": 2068,
      "ff": 2069,
      "állt": 2070,
      "mozg": 2071,
      "óri": 2072,
      "ion": 2073,
      "kevés": 2074,
      "kórhá": 2075,
      "lnek": 2076,
      "egyez": 2077,
      "mer": 2078,
      "all": 2079,
      "média": 2080,
      "fed": 2081,
      "esély": 2082,
      "nf": 2083,
      "ezen": 2084,
      "kori": 2085,
      "aho": 2086,
      "lják": 2087,
      "tóság": 2088,
      "érdem": 2089,
      "gyógy": 2090,
      "ce": 2091,
      "módo": 2092,
      "ztal": 2093,
      "utaz": 2094,
      "pan": 2095,
      "ank": 2096,
      "jön": 2097,
      "egyen": 2098,
      "teszi": 2099,
      "lu": 2100,
      "özben": 2101,
      "tudja": 2102,
      "mente": 2103,
      "kéz": 2104,
      "gyeng": 2105,
      "enved": 2106,
      "olcs": 2107,
      "túr": 2108,
      "asonl": 2109,
      "rit": 2110,
      "óg": 2111,
      "ea": 2112,
      "ajo": 2113,
      "keny": 2114,
      "ner": 2115,
      "esett": 2116,
      "aradt": 2117,
      "húz": 2118,
      "akasz": 2119,
      "energ": 2120,
      "színe": 2121,
      "osan": 2122,
      "new": 2123,
      "##mu": 2124,
      "konce": 2125,
      "hibá": 2126,
      "brit": 2127,
      "őv": 2128,
      "sch": 2129,
      "etek": 2130,
      "##rt": 2131,
      "ehér": 2132,
      "yörgy": 2133,
      "ril": 2134,
      "teh": 2135,
      "endég": 2136,
      "óz": 2137,
      "rab": 2138,
      "sá": 2139,
      "legi": 2140,
      "végül": 2141,
      "eny": 2142,
      "rül": 2143,
      "tehát": 2144,
      "áp": 2145,
      "ásár": 2146,
      "usz": 2147,
      "vezér": 2148,
      "nyelv": 2149,
      "obbik": 2150,
      "pu": 2151,
      "ület": 2152,
      "tizen": 2153,
      "takar": 2154,
      "ázs": 2155,
      "nl": 2156,
      "irod": 2157,
      "előző": 2158,
      "sítmé": 2159,
      "ay": 2160,
      "többi": 2161,
      "nyság": 2162,
      "függ": 2163,
      "fele": 2164,
      "fegy": 2165,
      "mat": 2166,
      "ocial": 2167,
      "cik": 2168,
      "alu": 2169,
      "cius": 2170,
      "ciós": 2171,
      "klub": 2172,
      "elér": 2173,
      "zel": 2174,
      "úr": 2175,
      "ándék": 2176,
      "jármű": 2177,
      "mok": 2178,
      "buk": 2179,
      "féle": 2180,
      "ele": 2181,
      "tí": 2182,
      "ólag": 2183,
      "koc": 2184,
      "kőzés": 2185,
      "lovák": 2186,
      "ggy": 2187,
      "ígér": 2188,
      "fény": 2189,
      "jános": 2190,
      "cikk": 2191,
      "szép": 2192,
      "hete": 2193,
      "beli": 2194,
      "elme": 2195,
      "ehet": 2196,
      "darab": 2197,
      "art": 2198,
      "apot": 2199,
      "tvány": 2200,
      "donos": 2201,
      "lső": 2202,
      "mp": 2203,
      "ösen": 2204,
      "ssz": 2205,
      "októb": 2206,
      "benne": 2207,
      "ügyel": 2208,
      "ejt": 2209,
      "tapas": 2210,
      "szu": 2211,
      "eleg": 2212,
      "alos": 2213,
      "##csá": 2214,
      "utal": 2215,
      "ombat": 2216,
      "bünte": 2217,
      "izmus": 2218,
      "ásárl": 2219,
      "pa": 2220,
      "tuk": 2221,
      "omo": 2222,
      "get": 2223,
      "írta": 2224,
      "encs": 2225,
      "nként": 2226,
      "tamás": 2227,
      "##űl": 2228,
      "szü": 2229,
      "védő": 2230,
      "tatás": 2231,
      "ld": 2232,
      "tkez": 2233,
      "vevő": 2234,
      "őriz": 2235,
      "fa": 2236,
      "tést": 2237,
      "##ilk": 2238,
      "##var": 2239,
      "név": 2240,
      "vele": 2241,
      "lakás": 2242,
      "ová": 2243,
      "trány": 2244,
      "gi": 2245,
      "nök": 2246,
      "kul": 2247,
      "éko": 2248,
      "tük": 2249,
      "agyis": 2250,
      "ven": 2251,
      "odell": 2252,
      "őváro": 2253,
      "por": 2254,
      "wi": 2255,
      "oktat": 2256,
      "ggyűl": 2257,
      "évi": 2258,
      "oha": 2259,
      "erá": 2260,
      "ékony": 2261,
      "iség": 2262,
      "bőv": 2263,
      "tos": 2264,
      "zeti": 2265,
      "rilis": 2266,
      "óriá": 2267,
      "csele": 2268,
      "harc": 2269,
      "mégis": 2270,
      "tésé": 2271,
      "##zd": 2272,
      "nyert": 2273,
      "indí": 2274,
      "kocká": 2275,
      "ck": 2276,
      "oo": 2277,
      "emp": 2278,
      "adásu": 2279,
      "llam": 2280,
      "rs": 2281,
      "alás": 2282,
      "##ött": 2283,
      "spany": 2284,
      "##kol": 2285,
      "ésre": 2286,
      "éz": 2287,
      "ító": 2288,
      "zte": 2289,
      "ahogy": 2290,
      "újság": 2291,
      "küzd": 2292,
      "ötte": 2293,
      "kampá": 2294,
      "co": 2295,
      "ög": 2296,
      "elh": 2297,
      "elyez": 2298,
      "tőz": 2299,
      "ntr": 2300,
      "kettő": 2301,
      "lin": 2302,
      "sze": 2303,
      "olta": 2304,
      "gyilk": 2305,
      "csá": 2306,
      "ányos": 2307,
      "usztr": 2308,
      "kapu": 2309,
      "tja": 2310,
      "cser": 2311,
      "egle": 2312,
      "aná": 2313,
      "maguk": 2314,
      "alac": 2315,
      "csi": 2316,
      "ügymi": 2317,
      "ször": 2318,
      "nline": 2319,
      "rem": 2320,
      "som": 2321,
      "zá": 2322,
      "ályáz": 2323,
      "bk": 2324,
      "nyít": 2325,
      "erel": 2326,
      "alapí": 2327,
      "ug": 2328,
      "orban": 2329,
      "andó": 2330,
      "ására": 2331,
      "inc": 2332,
      "ába": 2333,
      "ird": 2334,
      "zrt": 2335,
      "avi": 2336,
      "oldás": 2337,
      "bocsá": 2338,
      "áldoz": 2339,
      "aton": 2340,
      "elyik": 2341,
      "lass": 2342,
      "atos": 2343,
      "pálya": 2344,
      "közös": 2345,
      "fin": 2346,
      "nsági": 2347,
      "eknek": 2348,
      "busz": 2349,
      "íció": 2350,
      "##co": 2351,
      "járó": 2352,
      "elé": 2353,
      "##iná": 2354,
      "znak": 2355,
      "gyesü": 2356,
      "ideg": 2357,
      "pül": 2358,
      "rg": 2359,
      "##ekt": 2360,
      "ler": 2361,
      "log": 2362,
      "sza": 2363,
      "eglep": 2364,
      "ánt": 2365,
      "alaki": 2366,
      "érvé": 2367,
      "##énye": 2368,
      "titká": 2369,
      "zoltá": 2370,
      "reg": 2371,
      "16": 2372,
      "esen": 2373,
      "távo": 2374,
      "közve": 2375,
      "valós": 2376,
      "30": 2377,
      "ih": 2378,
      "alig": 2379,
      "iktor": 2380,
      "lenc": 2381,
      "tin": 2382,
      "széd": 2383,
      "olim": 2384,
      "tevé": 2385,
      "mik": 2386,
      "karác": 2387,
      "irdet": 2388,
      "ist": 2389,
      "senki": 2390,
      "olimp": 2391,
      "szi": 2392,
      "végé": 2393,
      "zak": 2394,
      "iv": 2395,
      "csupá": 2396,
      "mög": 2397,
      "olasz": 2398,
      "fot": 2399,
      "össég": 2400,
      "üket": 2401,
      "folyt": 2402,
      "bkv": 2403,
      "gyűl": 2404,
      "rag": 2405,
      "vette": 2406,
      "11": 2407,
      "25": 2408,
      "ngyel": 2409,
      "vág": 2410,
      "##hon": 2411,
      "orvát": 2412,
      "gtö": 2413,
      "lem": 2414,
      "idéz": 2415,
      "előz": 2416,
      "gtöbb": 2417,
      "ue": 2418,
      "katon": 2419,
      "héten": 2420,
      "zer": 2421,
      "léka": 2422,
      "ív": 2423,
      "üt": 2424,
      "lkal": 2425,
      "lkalm": 2426,
      "zin": 2427,
      "talán": 2428,
      "ölcs": 2429,
      "fordí": 2430,
      "ád": 2431,
      "dió": 2432,
      "atója": 2433,
      "azott": 2434,
      "ort": 2435,
      "ológi": 2436,
      "écs": 2437,
      "éből": 2438,
      "zis": 2439,
      "tthon": 2440,
      "lef": 2441,
      "sőt": 2442,
      "fotó": 2443,
      "remé": 2444,
      "18": 2445,
      "erg": 2446,
      "működ": 2447,
      "hétfő": 2448,
      "tév": 2449,
      "##all": 2450,
      "kinek": 2451,
      "ainak": 2452,
      "árt": 2453,
      "hull": 2454,
      "áború": 2455,
      "indok": 2456,
      "vád": 2457,
      "gazdá": 2458,
      "okon": 2459,
      "ansz": 2460,
      "öbb": 2461,
      "embe": 2462,
      "ámos": 2463,
      "ktor": 2464,
      "elejé": 2465,
      "-,": 2466,
      "hő": 2467,
      "##szö": 2468,
      "ések": 2469,
      "járul": 2470,
      "terhe": 2471,
      "osz": 2472,
      "onn": 2473,
      "yő": 2474,
      "kkent": 2475,
      "anat": 2476,
      "ral": 2477,
      "neve": 2478,
      "emlí": 2479,
      "zent": 2480,
      "skolá": 2481,
      "eztet": 2482,
      "járat": 2483,
      "menet": 2484,
      "somag": 2485,
      "úz": 2486,
      "esemé": 2487,
      "léte": 2488,
      "ekkor": 2489,
      "élyes": 2490,
      "hál": 2491,
      "cse": 2492,
      "tése": 2493,
      "csal": 2494,
      "arg": 2495,
      "vita": 2496,
      "kkel": 2497,
      "mol": 2498,
      "nok": 2499,
      "##df": 2500,
      "atai": 2501,
      "vagyo": 2502,
      "ecs": 2503,
      "ens": 2504,
      "ndrás": 2505,
      "ogalm": 2506,
      "böző": 2507,
      "tra": 2508,
      "ari": 2509,
      "adék": 2510,
      "nehez": 2511,
      "kif": 2512,
      "zetes": 2513,
      "dt": 2514,
      "dok": 2515,
      "lott": 2516,
      "ml": 2517,
      "##ók": 2518,
      "zú": 2519,
      "plom": 2520,
      "del": 2521,
      "lán": 2522,
      "táb": 2523,
      "tény": 2524,
      "ju": 2525,
      "urg": 2526,
      "köszö": 2527,
      "aztán": 2528,
      "13": 2529,
      "bé": 2530,
      "elsős": 2531,
      "ack": 2532,
      "tball": 2533,
      "felül": 2534,
      "sítás": 2535,
      "dalom": 2536,
      "dá": 2537,
      "ármaz": 2538,
      "tömeg": 2539,
      "elf": 2540,
      "mező": 2541,
      "csiná": 2542,
      "nye": 2543,
      "ója": 2544,
      "ezon": 2545,
      "agyok": 2546,
      "ajó": 2547,
      "éhez": 2548,
      "fegyv": 2549,
      "ályo": 2550,
      "tes": 2551,
      "lev": 2552,
      "nter": 2553,
      "mély": 2554,
      "ezre": 2555,
      "ktív": 2556,
      "hhoz": 2557,
      "ers": 2558,
      "ozi": 2559,
      "uniós": 2560,
      "ej": 2561,
      "háló": 2562,
      "lták": 2563,
      "vény": 2564,
      "őt": 2565,
      "nyz": 2566,
      "érség": 2567,
      "kik": 2568,
      "szen": 2569,
      "indít": 2570,
      "tve": 2571,
      "enc": 2572,
      "távol": 2573,
      "ásáro": 2574,
      "enti": 2575,
      "14": 2576,
      "szel": 2577,
      "tenni": 2578,
      "angol": 2579,
      "kemé": 2580,
      "mon": 2581,
      "női": 2582,
      "romá": 2583,
      "##sef": 2584,
      "házi": 2585,
      "tized": 2586,
      "ics": 2587,
      "löv": 2588,
      "edző": 2589,
      "einek": 2590,
      "odás": 2591,
      "öld": 2592,
      "telm": 2593,
      "ept": 2594,
      "uró": 2595,
      "csúcs": 2596,
      "mdf": 2597,
      "kiz": 2598,
      "izál": 2599,
      "fokoz": 2600,
      "kid": 2601,
      "végez": 2602,
      "rium": 2603,
      "örös": 2604,
      "olaj": 2605,
      "pp": 2606,
      "lásá": 2607,
      "amar": 2608,
      "hh": 2609,
      "##sa": 2610,
      "ségé": 2611,
      "izá": 2612,
      "encsé": 2613,
      "esí": 2614,
      "árf": 2615,
      "tur": 2616,
      "zavar": 2617,
      "gö": 2618,
      "ztül": 2619,
      "befek": 2620,
      "urópa": 2621,
      "utat": 2622,
      "látás": 2623,
      "azaz": 2624,
      "kizár": 2625,
      "zötti": 2626,
      "kban": 2627,
      "örök": 2628,
      "hány": 2629,
      "ekben": 2630,
      "onl": 2631,
      "ménye": 2632,
      "ődött": 2633,
      "kínai": 2634,
      "ózsef": 2635,
      "tom": 2636,
      "szony": 2637,
      "nyben": 2638,
      "ettek": 2639,
      "onlap": 2640,
      "rű": 2641,
      "th": 2642,
      "megv": 2643,
      "olato": 2644,
      "17": 2645,
      "eged": 2646,
      "módon": 2647,
      "ához": 2648,
      "arl": 2649,
      "pülő": 2650,
      "lénye": 2651,
      "ser": 2652,
      "index": 2653,
      "knek": 2654,
      "skola": 2655,
      "szék": 2656,
      "elkö": 2657,
      "addig": 2658,
      "attil": 2659,
      "dokum": 2660,
      "adi": 2661,
      "látsz": 2662,
      "döntő": 2663,
      "zók": 2664,
      "folyó": 2665,
      "ikló": 2666,
      "sztő": 2667,
      "atta": 2668,
      "vonul": 2669,
      "cégek": 2670,
      "múl": 2671,
      "nan": 2672,
      "írt": 2673,
      "alma": 2674,
      "fedez": 2675,
      "dzs": 2676,
      "nyí": 2677,
      "kmény": 2678,
      "ivel": 2679,
      "hhez": 2680,
      "okra": 2681,
      "rz": 2682,
      "telmű": 2683,
      "apír": 2684,
      "ógus": 2685,
      "uális": 2686,
      "##jc": 2687,
      "reng": 2688,
      "ázás": 2689,
      "őle": 2690,
      "etét": 2691,
      "riss": 2692,
      "nekü": 2693,
      "yug": 2694,
      "mellé": 2695,
      "kozó": 2696,
      "kben": 2697,
      "adta": 2698,
      "eté": 2699,
      "ínész": 2700,
      "jét": 2701,
      "áig": 2702,
      "orít": 2703,
      "nie": 2704,
      "közé": 2705,
      "lakó": 2706,
      "tősen": 2707,
      "tön": 2708,
      "látog": 2709,
      "ura": 2710,
      "zkod": 2711,
      "entu": 2712,
      "ezni": 2713,
      "ondja": 2714,
      "nhet": 2715,
      "pontj": 2716,
      "ukat": 2717,
      "éké": 2718,
      "előny": 2719,
      "vájc": 2720,
      "esebb": 2721,
      "knak": 2722,
      "közep": 2723,
      "tyá": 2724,
      "cseré": 2725,
      "ow": 2726,
      "oknak": 2727,
      "cel": 2728,
      "idék": 2729,
      "átu": 2730,
      "ileg": 2731,
      "lhat": 2732,
      "fiú": 2733,
      "kri": 2734,
      "rülmé": 2735,
      "íroz": 2736,
      "költ": 2737,
      "incs": 2738,
      "hon": 2739,
      "vetel": 2740,
      "ph": 2741,
      "vége": 2742,
      "##uh": 2743,
      "láb": 2744,
      "sznek": 2745,
      "ront": 2746,
      "sága": 2747,
      "zsi": 2748,
      "eal": 2749,
      "gok": 2750,
      "ói": 2751,
      "esül": 2752,
      "lly": 2753,
      "cen": 2754,
      "sége": 2755,
      "gra": 2756,
      "szig": 2757,
      "ettes": 2758,
      "ódott": 2759,
      "ekről": 2760,
      "onnal": 2761,
      "mentő": 2762,
      "derül": 2763,
      "lan": 2764,
      "lcs": 2765,
      "##ból": 2766,
      "árak": 2767,
      "ajn": 2768,
      "mérés": 2769,
      "tagja": 2770,
      "kas": 2771,
      "mm": 2772,
      "sak": 2773,
      "egyér": 2774,
      "heti": 2775,
      "menti": 2776,
      "tar": 2777,
      "zett": 2778,
      "##bo": 2779,
      "szór": 2780,
      "űr": 2781,
      "form": 2782,
      "jogi": 2783,
      "essz": 2784,
      "ec": 2785,
      "endőr": 2786,
      "piaci": 2787,
      "gar": 2788,
      "sh": 2789,
      "rid": 2790,
      "zene": 2791,
      "pus": 2792,
      "nevű": 2793,
      "pót": 2794,
      "felsz": 2795,
      "ntet": 2796,
      "dik": 2797,
      "sztu": 2798,
      "ntető": 2799,
      "kata": 2800,
      "édelm": 2801,
      "haza": 2802,
      "had": 2803,
      "tte": 2804,
      "that": 2805,
      "zso": 2806,
      "tartá": 2807,
      "őleg": 2808,
      "rik": 2809,
      "pad": 2810,
      "nyár": 2811,
      "gyház": 2812,
      "ksz": 2813,
      "mért": 2814,
      "rák": 2815,
      "inten": 2816,
      "tudta": 2817,
      "alapo": 2818,
      "lig": 2819,
      "beruh": 2820,
      "level": 2821,
      "jen": 2822,
      "vide": 2823,
      "kisz": 2824,
      "he": 2825,
      "##sel": 2826,
      "idejé": 2827,
      "válto": 2828,
      "zza": 2829,
      "sar": 2830,
      "csit": 2831,
      "ezték": 2832,
      "ektr": 2833,
      "50": 2834,
      "ivat": 2835,
      "ork": 2836,
      "sebe": 2837,
      "onal": 2838,
      "titk": 2839,
      "szomb": 2840,
      "tán": 2841,
      "elett": 2842,
      "igá": 2843,
      "iget": 2844,
      "képze": 2845,
      "sd": 2846,
      "tm": 2847,
      "sokat": 2848,
      "lia": 2849,
      "zaj": 2850,
      "nu": 2851,
      "lnak": 2852,
      "emző": 2853,
      "nyos": 2854,
      "lk": 2855,
      "the": 2856,
      "éni": 2857,
      "ztak": 2858,
      "láto": 2859,
      "aság": 2860,
      "jele": 2861,
      "ann": 2862,
      "célj": 2863,
      "akt": 2864,
      "róf": 2865,
      "kol": 2866,
      "ulat": 2867,
      "##ck": 2868,
      "eső": 2869,
      "hatja": 2870,
      "eszkö": 2871,
      "ssze": 2872,
      "##vény": 2873,
      "megy": 2874,
      "örtö": 2875,
      "olás": 2876,
      "etes": 2877,
      "ságok": 2878,
      "nyal": 2879,
      "##ca": 2880,
      "arany": 2881,
      "jöv": 2882,
      "##nö": 2883,
      "fők": 2884,
      "öm": 2885,
      "felső": 2886,
      "tikus": 2887,
      "rang": 2888,
      "etett": 2889,
      "etben": 2890,
      "bert": 2891,
      "nni": 2892,
      "##jai": 2893,
      "almi": 2894,
      "lte": 2895,
      "úto": 2896,
      "öv": 2897,
      "agjai": 2898,
      "enye": 2899,
      "ako": 2900,
      "erősö": 2901,
      "adni": 2902,
      "előb": 2903,
      "ozás": 2904,
      "kék": 2905,
      "ltak": 2906,
      "léká": 2907,
      "zati": 2908,
      "lyás": 2909,
      "rej": 2910,
      "##öld": 2911,
      "lám": 2912,
      "lföld": 2913,
      "járt": 2914,
      "nch": 2915,
      "rális": 2916,
      "sil": 2917,
      "ázad": 2918,
      "kider": 2919,
      "zu": 2920,
      "##ato": 2921,
      "esés": 2922,
      "híre": 2923,
      "rog": 2924,
      "írek": 2925,
      "bre": 2926,
      "eget": 2927,
      "rban": 2928,
      "gazd": 2929,
      "portá": 2930,
      "jekt": 2931,
      "rém": 2932,
      "ogy": 2933,
      "rály": 2934,
      "éssel": 2935,
      "soro": 2936,
      "akit": 2937,
      "ügyé": 2938,
      "tlenü": 2939,
      "ns": 2940,
      "pill": 2941,
      "oka": 2942,
      "su": 2943,
      "zra": 2944,
      "vízi": 2945,
      "ltu": 2946,
      "asszo": 2947,
      "kré": 2948,
      "bol": 2949,
      "olni": 2950,
      "ellem": 2951,
      "zés": 2952,
      "19": 2953,
      "szoci": 2954,
      "jelle": 2955,
      "szség": 2956,
      "kra": 2957,
      "akat": 2958,
      "lel": 2959,
      "sé": 2960,
      "una": 2961,
      "##ber": 2962,
      "légi": 2963,
      "ash": 2964,
      "ellát": 2965,
      "cz": 2966,
      "erről": 2967,
      "spe": 2968,
      "dem": 2969,
      "ajnok": 2970,
      "entá": 2971,
      "gban": 2972,
      "kih": 2973,
      "kora": 2974,
      "enes": 2975,
      "agg": 2976,
      "up": 2977,
      "orma": 2978,
      "silla": 2979,
      "vitá": 2980,
      "yi": 2981,
      "ágy": 2982,
      "ól": 2983,
      "sö": 2984,
      "ekez": 2985,
      "dalmi": 2986,
      "tünte": 2987,
      "ry": 2988,
      "ert": 2989,
      "agyon": 2990,
      "lako": 2991,
      "ségű": 2992,
      "mél": 2993,
      "halt": 2994,
      "ámol": 2995,
      "ényle": 2996,
      "véle": 2997,
      "ge": 2998,
      "edés": 2999,
      "ajd": 3000,
      "seh": 3001,
      "zért": 3002,
      "elnö": 3003,
      "ölt": 3004,
      "elk": 3005,
      "rep": 3006,
      "emelt": 3007,
      "gár": 3008,
      "isza": 3009,
      "tása": 3010,
      "ii": 3011,
      "osí": 3012,
      "éles": 3013,
      "ncs": 3014,
      "szé": 3015,
      "zásá": 3016,
      "jával": 3017,
      "gá": 3018,
      "##esí": 3019,
      "ljesí": 3020,
      "ővé": 3021,
      "amb": 3022,
      "ium": 3023,
      "pe": 3024,
      "irán": 3025,
      "drá": 3026,
      "kezel": 3027,
      "isták": 3028,
      "lland": 3029,
      "imp": 3030,
      "obban": 3031,
      "éző": 3032,
      "gyö": 3033,
      "igye": 3034,
      "rná": 3035,
      "észak": 3036,
      "##sé": 3037,
      "utcá": 3038,
      "mokra": 3039,
      "100": 3040,
      "jég": 3041,
      "ügynö": 3042,
      "lla": 3043,
      "niká": 3044,
      "##ic": 3045,
      "ajtó": 3046,
      "lóg": 3047,
      "her": 3048,
      "fia": 3049,
      "ie": 3050,
      "zvény": 3051,
      "##omá": 3052,
      "ozott": 3053,
      "hisz": 3054,
      "40": 3055,
      "só": 3056,
      "##ében": 3057,
      "llé": 3058,
      "tünk": 3059,
      "olja": 3060,
      "nők": 3061,
      "dő": 3062,
      "ogat": 3063,
      "tít": 3064,
      "zre": 3065,
      "áju": 3066,
      "24": 3067,
      "ob": 3068,
      "sban": 3069,
      "vill": 3070,
      "##ült": 3071,
      "bárm": 3072,
      "roszo": 3073,
      "ail": 3074,
      "bség": 3075,
      "atko": 3076,
      "cc": 3077,
      "rat": 3078,
      "lték": 3079,
      "ió": 3080,
      "tték": 3081,
      "tiv": 3082,
      "ham": 3083,
      "eleme": 3084,
      "gény": 3085,
      "ón": 3086,
      "ór": 3087,
      "óv": 3088,
      "uto": 3089,
      "vári": 3090,
      "tásá": 3091,
      "jegye": 3092,
      "ao": 3093,
      "lus": 3094,
      "áros": 3095,
      "yom": 3096,
      "ím": 3097,
      "of": 3098,
      "izo": 3099,
      "lődés": 3100,
      "sere": 3101,
      "tus": 3102,
      "figy": 3103,
      "rdő": 3104,
      "ax": 3105,
      "nny": 3106,
      "zva": 3107,
      "ségét": 3108,
      "ente": 3109,
      "befo": 3110,
      "lad": 3111,
      "omá": 3112,
      "leszt": 3113,
      "ődik": 3114,
      "if": 3115,
      "erce": 3116,
      "akoz": 3117,
      "thető": 3118,
      "lop": 3119,
      "21": 3120,
      "zöl": 3121,
      "rie": 3122,
      "pat": 3123,
      "kos": 3124,
      "22": 3125,
      "űz": 3126,
      "tenge": 3127,
      "yugat": 3128,
      "ace": 3129,
      "err": 3130,
      "ötö": 3131,
      "kkor": 3132,
      "ogás": 3133,
      "ndex": 3134,
      "állat": 3135,
      "elköv": 3136,
      "ünt": 3137,
      "eke": 3138,
      "eret": 3139,
      "helye": 3140,
      "ttól": 3141,
      "szülő": 3142,
      "io": 3143,
      "zöve": 3144,
      "képz": 3145,
      "nder": 3146,
      "lom": 3147,
      "agyom": 3148,
      "őszer": 3149,
      "ruhá": 3150,
      "szét": 3151,
      "ené": 3152,
      "ezi": 3153,
      "olo": 3154,
      "becs": 3155,
      "kere": 3156,
      "nség": 3157,
      "var": 3158,
      "teszt": 3159,
      "anya": 3160,
      "ky": 3161,
      "vek": 3162,
      "étől": 3163,
      "dolo": 3164,
      "ezhet": 3165,
      "tenek": 3166,
      "fogy": 3167,
      "szava": 3168,
      "üntet": 3169,
      "nyek": 3170,
      "zzel": 3171,
      "épít": 3172,
      "zé": 3173,
      "szp": 3174,
      "ekint": 3175,
      "mod": 3176,
      "nó": 3177,
      "ona": 3178,
      "ajna": 3179,
      "ger": 3180,
      "elől": 3181,
      "pel": 3182,
      "itel": 3183,
      "nger": 3184,
      "szob": 3185,
      "fal": 3186,
      "tlan": 3187,
      "esk": 3188,
      "res": 3189,
      "sztal": 3190,
      "xi": 3191,
      "felv": 3192,
      "szaki": 3193,
      "kelt": 3194,
      "empon": 3195,
      "inn": 3196,
      "oma": 3197,
      "agad": 3198,
      "hetne": 3199,
      "rác": 3200,
      "tru": 3201,
      "ébe": 3202,
      "ésér": 3203,
      "ésére": 3204,
      "felel": 3205,
      "ettel": 3206,
      "adós": 3207,
      "ódik": 3208,
      "jék": 3209,
      "ass": 3210,
      "tatók": 3211,
      "poz": 3212,
      "wa": 3213,
      "mene": 3214,
      "nná": 3215,
      "sár": 3216,
      "vb": 3217,
      "üze": 3218,
      "érj": 3219,
      "kommu": 3220,
      "##dp": 3221,
      "egény": 3222,
      "ndon": 3223,
      "éken": 3224,
      "elte": 3225,
      "lmp": 3226,
      "őrzés": 3227,
      "fá": 3228,
      "jáb": 3229,
      "szeti": 3230,
      "jából": 3231,
      "ey": 3232,
      "mil": 3233,
      "has": 3234,
      "ate": 3235,
      "elemz": 3236,
      "nyomá": 3237,
      "egye": 3238,
      "eznek": 3239,
      "zták": 3240,
      "aló": 3241,
      "ama": 3242,
      "ons": 3243,
      "kapta": 3244,
      "orú": 3245,
      "ügye": 3246,
      "imo": 3247,
      "go": 3248,
      "elvet": 3249,
      "ásban": 3250,
      "buda": 3251,
      "até": 3252,
      "óan": 3253,
      "enné": 3254,
      "okból": 3255,
      "űv": 3256,
      "ttó": 3257,
      "anú": 3258,
      "org": 3259,
      "ót": 3260,
      "istá": 3261,
      "egő": 3262,
      "rob": 3263,
      "témá": 3264,
      "mé": 3265,
      "oros": 3266,
      "rist": 3267,
      "dv": 3268,
      "andr": 3269,
      "kem": 3270,
      "zal": 3271,
      "szl": 3272,
      "eteg": 3273,
      "ásos": 3274,
      "tök": 3275,
      "lib": 3276,
      "yen": 3277,
      "ítja": 3278,
      "össz": 3279,
      "psz": 3280,
      "ranci": 3281,
      "árul": 3282,
      "korr": 3283,
      "ulás": 3284,
      "napon": 3285,
      "téve": 3286,
      "mérté": 3287,
      "jk": 3288,
      "kő": 3289,
      "sten": 3290,
      "harm": 3291,
      "ef": 3292,
      "rkol": 3293,
      "arán": 3294,
      "ino": 3295,
      "edett": 3296,
      "műve": 3297,
      "zió": 3298,
      ".,": 3299,
      "ror": 3300,
      "tív": 3301,
      "igo": 3302,
      "lehe": 3303,
      "séget": 3304,
      "tanak": 3305,
      "##li": 3306,
      "olód": 3307,
      "nia": 3308,
      "osa": 3309,
      "ítő": 3310,
      "##dsz": 3311,
      "enő": 3312,
      "ént": 3313,
      "szon": 3314,
      "egá": 3315,
      "róla": 3316,
      "ötv": 3317,
      "esek": 3318,
      "izs": 3319,
      "yar": 3320,
      "alék": 3321,
      "őke": 3322,
      "lőtt": 3323,
      "gat": 3324,
      "mó": 3325,
      "niu": 3326,
      "mad": 3327,
      "élt": 3328,
      "ilag": 3329,
      "szaka": 3330,
      "##bl": 3331,
      "komm": 3332,
      "tél": 3333,
      "atja": 3334,
      "illa": 3335,
      "rakoz": 3336,
      "nor": 3337,
      "gyal": 3338,
      "ályok": 3339,
      "ach": 3340,
      "ancs": 3341,
      "bben": 3342,
      "vic": 3343,
      "aba": 3344,
      "éntek": 3345,
      "27": 3346,
      "des": 3347,
      "tni": 3348,
      "vén": 3349,
      "szal": 3350,
      "nna": 3351,
      "tják": 3352,
      "zam": 3353,
      "ere": 3354,
      "anu": 3355,
      "inak": 3356,
      "faj": 3357,
      "amp": 3358,
      "lefon": 3359,
      "yőr": 3360,
      "##ac": 3361,
      "leb": 3362,
      "lemző": 3363,
      "anc": 3364,
      "itány": 3365,
      "park": 3366,
      "ssé": 3367,
      "etbe": 3368,
      "nék": 3369,
      "sm": 3370,
      "lista": 3371,
      "zg": 3372,
      "orna": 3373,
      "##st": 3374,
      "napo": 3375,
      "vető": 3376,
      "éde": 3377,
      "anács": 3378,
      "23": 3379,
      "iába": 3380,
      "sc": 3381,
      "itte": 3382,
      "##szn": 3383,
      "haszn": 3384,
      "ibo": 3385,
      "osok": 3386,
      "uló": 3387,
      "dó": 3388,
      "elen": 3389,
      "elmé": 3390,
      "adá": 3391,
      "ári": 3392,
      "gó": 3393,
      "ks": 3394,
      "telef": 3395,
      "árv": 3396,
      "rád": 3397,
      "mezt": 3398,
      "jj": 3399,
      "tró": 3400,
      "nyh": 3401,
      "ozta": 3402,
      "eur": 3403,
      "enz": 3404,
      "epet": 3405,
      "ósság": 3406,
      "din": 3407,
      "elvé": 3408,
      "atni": 3409,
      "almat": 3410,
      "pir": 3411,
      "reme": 3412,
      "kd": 3413,
      "rad": 3414,
      "rre": 3415,
      "épü": 3416,
      "megye": 3417,
      "dor": 3418,
      "eri": 3419,
      "erék": 3420,
      "orn": 3421,
      "elkép": 3422,
      "ier": 3423,
      "liá": 3424,
      "szün": 3425,
      "tok": 3426,
      "labd": 3427,
      "ntik": 3428,
      "agál": 3429,
      "ael": 3430,
      "gdp": 3431,
      "etén": 3432,
      "vin": 3433,
      "ztrá": 3434,
      "javas": 3435,
      "jt": 3436,
      "vás": 3437,
      "elsz": 3438,
      "bir": 3439,
      "200": 3440,
      "ian": 3441,
      "ub": 3442,
      "##if": 3443,
      "gh": 3444,
      "sad": 3445,
      "vő": 3446,
      "kezet": 3447,
      "nnyit": 3448,
      "ács": 3449,
      "ésben": 3450,
      "körny": 3451,
      "észet": 3452,
      "ösz": 3453,
      "vala": 3454,
      "zéke": 3455,
      "tva": 3456,
      "zil": 3457,
      "omás": 3458,
      "lód": 3459,
      "dés": 3460,
      "sul": 3461,
      "mis": 3462,
      "ada": 3463,
      "étel": 3464,
      "##kőz": 3465,
      "űt": 3466,
      "oll": 3467,
      "érkőz": 3468,
      "oss": 3469,
      "ille": 3470,
      "kn": 3471,
      "rr": 3472,
      "veg": 3473,
      "erep": 3474,
      "ségi": 3475,
      "zm": 3476,
      "zí": 3477,
      "iskol": 3478,
      "áss": 3479,
      "##kó": 3480,
      "ságra": 3481,
      "nné": 3482,
      "zök": 3483,
      "ajta": 3484,
      "űk": 3485,
      "azá": 3486,
      "eli": 3487,
      "onos": 3488,
      "apa": 3489,
      "taná": 3490,
      "ékes": 3491,
      "rében": 3492,
      "atá": 3493,
      "amik": 3494,
      "eszi": 3495,
      "ges": 3496,
      "ron": 3497,
      "ráz": 3498,
      "rbe": 3499,
      "mc": 3500,
      "hn": 3501,
      "elfog": 3502,
      "udomá": 3503,
      "lda": 3504,
      "app": 3505,
      "áson": 3506,
      "gan": 3507,
      "obá": 3508,
      "cu": 3509,
      "ofi": 3510,
      "tsz": 3511,
      "orm": 3512,
      "tikai": 3513,
      "nyok": 3514,
      "dai": 3515,
      "lam": 3516,
      "rp": 3517,
      "elés": 3518,
      "utató": 3519,
      "tava": 3520,
      "probl": 3521,
      "égy": 3522,
      "##ur": 3523,
      "arr": 3524,
      "one": 3525,
      "demok": 3526,
      "űvész": 3527,
      "ess": 3528,
      "piaco": 3529,
      "éma": 3530,
      "ara": 3531,
      "áru": 3532,
      "újt": 3533,
      "iában": 3534,
      "bold": 3535,
      "hátr": 3536,
      "ékeny": 3537,
      "zük": 3538,
      "edz": 3539,
      "35": 3540,
      "rán": 3541,
      "sák": 3542,
      "áv": 3543,
      "ast": 3544,
      "ető": 3545,
      "##mun": 3546,
      "sáv": 3547,
      "inti": 3548,
      "mre": 3549,
      "teme": 3550,
      "ugá": 3551,
      "lor": 3552,
      "kb": 3553,
      "eten": 3554,
      "lése": 3555,
      "lógia": 3556,
      "yében": 3557,
      "napja": 3558,
      "őbb": 3559,
      "redmé": 3560,
      "ással": 3561,
      "adja": 3562,
      "éget": 3563,
      "gész": 3564,
      "enny": 3565,
      "árom": 3566,
      "ától": 3567,
      "tból": 3568,
      "60": 3569,
      "ozni": 3570,
      "kozás": 3571,
      "ius": 3572,
      "tse": 3573,
      "ale": 3574,
      "ekes": 3575,
      "ású": 3576,
      "táro": 3577,
      "avas": 3578,
      "alato": 3579,
      "szert": 3580,
      "kivál": 3581,
      "láz": 3582,
      "med": 3583,
      "pál": 3584,
      "##hér": 3585,
      "##ani": 3586,
      "##sék": 3587,
      "llye": 3588,
      "eve": 3589,
      "rra": 3590,
      "érhet": 3591,
      "érsék": 3592,
      "mérsé": 3593,
      "zárt": 3594,
      "sej": 3595,
      "kov": 3596,
      "fehér": 3597,
      "sztel": 3598,
      "gű": 3599,
      "gl": 3600,
      "kf": 3601,
      "tál": 3602,
      "tána": 3603,
      "eik": 3604,
      "ndi": 3605,
      "bú": 3606,
      "kál": 3607,
      "áf": 3608,
      "##np": 3609,
      "szdsz": 3610,
      "jap": 3611,
      "tését": 3612,
      "gál": 3613,
      "ht": 3614,
      "utóbb": 3615,
      "usa": 3616,
      "tad": 3617,
      "attal": 3618,
      "dul": 3619,
      "alko": 3620,
      "gyü": 3621,
      "kezé": 3622,
      "lko": 3623,
      "lhető": 3624,
      "nz": 3625,
      "nci": 3626,
      "##ron": 3627,
      "idős": 3628,
      "ttek": 3629,
      "hango": 3630,
      "merik": 3631,
      "japán": 3632,
      "pany": 3633,
      "uli": 3634,
      "unkat": 3635,
      "atár": 3636,
      "oru": 3637,
      "zté": 3638,
      "nket": 3639,
      "hús": 3640,
      "lit": 3641,
      "nel": 3642,
      "szön": 3643,
      "szerb": 3644,
      "élete": 3645,
      "26": 3646,
      "mb": 3647,
      "qu": 3648,
      "tro": 3649,
      "ihe": 3650,
      "övé": 3651,
      "hir": 3652,
      "ága": 3653,
      "fc": 3654,
      "krá": 3655,
      "érni": 3656,
      "ime": 3657,
      "nb": 3658,
      "tért": 3659,
      "##ga": 3660,
      "árol": 3661,
      "rod": 3662,
      "ókat": 3663,
      "illi": 3664,
      "ull": 3665,
      "elle": 3666,
      "apá": 3667,
      "lójá": 3668,
      "rn": 3669,
      "médi": 3670,
      "szköz": 3671,
      "ana": 3672,
      "letes": 3673,
      "zzák": 3674,
      "eres": 3675,
      "jogo": 3676,
      "##ff": 3677,
      "téri": 3678,
      "pest": 3679,
      "aks": 3680,
      "inek": 3681,
      "our": 3682,
      "aval": 3683,
      "landó": 3684,
      "kro": 3685,
      "uko": 3686,
      "emes": 3687,
      "lege": 3688,
      "ványo": 3689,
      "28": 3690,
      "zba": 3691,
      "süt": 3692,
      "dán": 3693,
      "yel": 3694,
      "almá": 3695,
      "okról": 3696,
      "közt": 3697,
      "prof": 3698,
      "kifej": 3699,
      "kdnp": 3700,
      "font": 3701,
      "lható": 3702,
      "eksz": 3703,
      "kedő": 3704,
      "jára": 3705,
      "imm": 3706,
      "árosi": 3707,
      "gle": 3708,
      "pk": 3709,
      "zák": 3710,
      "kulá": 3711,
      "rü": 3712,
      "ero": 3713,
      "élv": 3714,
      "ságá": 3715,
      "ságát": 3716,
      "otó": 3717,
      "lyen": 3718,
      "zása": 3719,
      "rca": 3720,
      "ndr": 3721,
      "örög": 3722,
      "ezik": 3723,
      "táma": 3724,
      "kárt": 3725,
      "sof": 3726,
      "ves": 3727,
      "ített": 3728,
      "iba": 3729,
      "##de": 3730,
      "niá": 3731,
      "végi": 3732,
      "rok": 3733,
      "umi": 3734,
      "őz": 3735,
      "##au": 3736,
      "ska": 3737,
      "eltet": 3738,
      "fű": 3739,
      "oko": 3740,
      "záró": 3741,
      "atást": 3742,
      ".:": 3743,
      "kab": 3744,
      "óc": 3745,
      "els": 3746,
      "oki": 3747,
      "élés": 3748,
      "ilv": 3749,
      "visz": 3750,
      "blo": 3751,
      "érzé": 3752,
      "ica": 3753,
      "panyo": 3754,
      "tj": 3755,
      "teg": 3756,
      "ltö": 3757,
      "ldö": 3758,
      "grá": 3759,
      "kre": 3760,
      "tható": 3761,
      "ína": 3762,
      "sír": 3763,
      "##aki": 3764,
      "vai": 3765,
      "##bi": 3766,
      "sztrá": 3767,
      "rzet": 3768,
      "érv": 3769,
      "háza": 3770,
      "500": 3771,
      "sto": 3772,
      "eá": 3773,
      "gát": 3774,
      "ányi": 3775,
      "telt": 3776,
      "zám": 3777,
      "kert": 3778,
      "ódos": 3779,
      "ova": 3780,
      "redet": 3781,
      "ted": 3782,
      "amos": 3783,
      "tatni": 3784,
      "öltö": 3785,
      "iss": 3786,
      "nisz": 3787,
      "iná": 3788,
      "gén": 3789,
      "lsó": 3790,
      "lke": 3791,
      "mán": 3792,
      "szik": 3793,
      "esé": 3794,
      "ikk": 3795,
      "dé": 3796,
      "élé": 3797,
      "bru": 3798,
      "átv": 3799,
      "lása": 3800,
      "tében": 3801,
      "uc": 3802,
      "ze": 3803,
      "ságot": 3804,
      "riá": 3805,
      "hajl": 3806,
      "eo": 3807,
      "evő": 3808,
      "ostan": 3809,
      "kán": 3810,
      "sy": 3811,
      "ódosí": 3812,
      "alán": 3813,
      "zerv": 3814,
      "űn": 3815,
      "akart": 3816,
      "term": 3817,
      "onta": 3818,
      "ezők": 3819,
      "ivál": 3820,
      "rét": 3821,
      "negy": 3822,
      "atát": 3823,
      "ga": 3824,
      "üs": 3825,
      "llá": 3826,
      "sod": 3827,
      "áci": 3828,
      "eto": 3829,
      "ámolt": 3830,
      "mn": 3831,
      "lve": 3832,
      "ota": 3833,
      "oks": 3834,
      "benn": 3835,
      "dev": 3836,
      "üg": 3837,
      "ebe": 3838,
      "etű": 3839,
      "ina": 3840,
      "ili": 3841,
      "letet": 3842,
      "iszti": 3843,
      "néh": 3844,
      "zelés": 3845,
      "dy": 3846,
      "kg": 3847,
      "neg": 3848,
      "nyt": 3849,
      "onz": 3850,
      "45": 3851,
      "ref": 3852,
      "illan": 3853,
      "chi": 3854,
      "rény": 3855,
      "zhat": 3856,
      "zsá": 3857,
      "latá": 3858,
      "nos": 3859,
      "aranc": 3860,
      "osít": 3861,
      "ommun": 3862,
      "fesz": 3863,
      "lv": 3864,
      "rben": 3865,
      "tim": 3866,
      "egyet": 3867,
      "ste": 3868,
      "rág": 3869,
      "vat": 3870,
      "zon": 3871,
      "ósít": 3872,
      "rsen": 3873,
      "uz": 3874,
      "ém": 3875,
      "itele": 3876,
      "lók": 3877,
      "ölé": 3878,
      "derü": 3879,
      "met": 3880,
      "ezmé": 3881,
      "32": 3882,
      "rin": 3883,
      "vg": 3884,
      "óbb": 3885,
      "atják": 3886,
      "ado": 3887,
      "ltó": 3888,
      "táp": 3889,
      "etei": 3890,
      "kicsi": 3891,
      "adal": 3892,
      "oni": 3893,
      "közbe": 3894,
      "sabb": 3895,
      "mt": 3896,
      "ermé": 3897,
      "oml": 3898,
      "iza": 3899,
      "laszo": 3900,
      "esége": 3901,
      "növ": 3902,
      "##tak": 3903,
      "##úr": 3904,
      "etne": 3905,
      "semm": 3906,
      "ntek": 3907,
      "lmény": 3908,
      "atalm": 3909,
      "felj": 3910,
      "ors": 3911,
      "ktu": 3912,
      "lál": 3913,
      "enne": 3914,
      "olták": 3915,
      "dag": 3916,
      "zív": 3917,
      "ác": 3918,
      "diá": 3919,
      "ive": 3920,
      "vad": 3921,
      "felm": 3922,
      "nének": 3923,
      "##fa": 3924,
      "oli": 3925,
      "29": 3926,
      "bó": 3927,
      "bán": 3928,
      "iel": 3929,
      "und": 3930,
      "eld": 3931,
      "dött": 3932,
      "zsa": 3933,
      "kok": 3934,
      "lük": 3935,
      "suk": 3936,
      "sse": 3937,
      "szán": 3938,
      "eked": 3939,
      "gyész": 3940,
      "orra": 3941,
      "indi": 3942,
      "ánál": 3943,
      "szto": 3944,
      "ster": 3945,
      "ölgy": 3946,
      "300": 3947,
      "oto": 3948,
      "ztály": 3949,
      "odott": 3950,
      "nat": 3951,
      "gn": 3952,
      "szén": 3953,
      "erte": 3954,
      "iga": 3955,
      "ntéz": 3956,
      "aik": 3957,
      "íná": 3958,
      "óm": 3959,
      "elik": 3960,
      "csk": 3961,
      "ván": 3962,
      "jába": 3963,
      "éven": 3964,
      "közv": 3965,
      "eztek": 3966,
      "vaz": 3967,
      "lél": 3968,
      "alo": 3969,
      "ono": 3970,
      "ts": 3971,
      "tság": 3972,
      "esse": 3973,
      "esté": 3974,
      "zetet": 3975,
      "imf": 3976,
      "ügyv": 3977,
      "eves": 3978,
      "król": 3979,
      "szár": 3980,
      "elni": 3981,
      "atol": 3982,
      "oká": 3983,
      "ikor": 3984,
      "áns": 3985,
      "pre": 3986,
      "rság": 3987,
      "szol": 3988,
      "árja": 3989,
      "ságos": 3990,
      "edé": 3991,
      "ülésé": 3992,
      "avaly": 3993,
      "31": 3994,
      "##eke": 3995,
      "olgár": 3996,
      "ung": 3997,
      "íti": 3998,
      "zaki": 3999,
      "émi": 4000,
      "edd": 4001,
      "opron": 4002,
      "80": 4003,
      "esél": 4004,
      "dü": 4005,
      "mor": 4006,
      "zom": 4007,
      "bak": 4008,
      "orí": 4009,
      "közi": 4010,
      "kezik": 4011,
      "trag": 4012,
      "ito": 4013,
      "##io": 4014,
      "etér": 4015,
      "atal": 4016,
      "tört": 4017,
      "letek": 4018,
      "lim": 4019,
      "bbc": 4020,
      "ádo": 4021,
      "ztán": 4022,
      "rk": 4023,
      "urá": 4024,
      "yú": 4025,
      "erí": 4026,
      "orr": 4027,
      "ew": 4028,
      "los": 4029,
      "##cat": 4030,
      "erült": 4031,
      "korá": 4032,
      "otp": 4033,
      "vazás": 4034,
      "iát": 4035,
      "##cz": 4036,
      "ltat": 4037,
      "ődés": 4038,
      "ssen": 4039,
      "fős": 4040,
      "rus": 4041,
      "les": 4042,
      "lánc": 4043,
      "70": 4044,
      "ováb": 4045,
      "ini": 4046,
      "ésen": 4047,
      "kim": 4048,
      "ondon": 4049,
      "éke": 4050,
      "isztá": 4051,
      "acs": 4052,
      "ij": 4053,
      "sb": 4054,
      "átor": 4055,
      "nőt": 4056,
      "dék": 4057,
      "nas": 4058,
      "erben": 4059,
      "ano": 4060,
      "rip": 4061,
      "sító": 4062,
      "máv": 4063,
      "atási": 4064,
      "iroda": 4065,
      "nfl": 4066,
      "rol": 4067,
      "tter": 4068,
      "api": 4069,
      "lést": 4070,
      "urcs": 4071,
      "zala": 4072,
      "óban": 4073,
      "gyed": 4074,
      "kop": 4075,
      "művé": 4076,
      "odá": 4077,
      "lmez": 4078,
      "ali": 4079,
      "ődő": 4080,
      "llen": 4081,
      "eles": 4082,
      "örül": 4083,
      "pla": 4084,
      "kv": 4085,
      "nyve": 4086,
      "sek": 4087,
      "ólt": 4088,
      "ormá": 4089,
      "ula": 4090,
      "aul": 4091,
      "erge": 4092,
      "tvé": 4093,
      "gye": 4094,
      "keve": 4095,
      "kezés": 4096,
      "apos": 4097,
      "lít": 4098,
      "sék": 4099,
      "vj": 4100,
      "énk": 4101,
      "ój": 4102,
      "##fk": 4103,
      "atban": 4104,
      "adalm": 4105,
      "idé": 4106,
      "vers": 4107,
      "őként": 4108,
      "rikai": 4109,
      "ony": 4110,
      "eme": 4111,
      "minős": 4112,
      "36": 4113,
      "con": 4114,
      "szeg": 4115,
      "mir": 4116,
      "lete": 4117,
      "alt": 4118,
      "ekv": 4119,
      "eré": 4120,
      "ici": 4121,
      "rí": 4122,
      "ülön": 4123,
      "top": 4124,
      "állom": 4125,
      "anta": 4126,
      "rig": 4127,
      "köd": 4128,
      "avar": 4129,
      "vásár": 4130,
      "che": 4131,
      "zor": 4132,
      "era": 4133,
      "ivá": 4134,
      "óber": 4135,
      "ans": 4136,
      "oso": 4137,
      "napjá": 4138,
      "ltam": 4139,
      "önt": 4140,
      "ars": 4141,
      "gom": 4142,
      "zy": 4143,
      "kés": 4144,
      "ilo": 4145,
      "tiku": 4146,
      "íj": 4147,
      "üd": 4148,
      "avid": 4149,
      "90": 4150,
      "sült": 4151,
      "téte": 4152,
      "argen": 4153,
      "cé": 4154,
      "car": 4155,
      "lub": 4156,
      "zab": 4157,
      "erek": 4158,
      "ape": 4159,
      "ogó": 4160,
      "ras": 4161,
      "ezeté": 4162,
      "kabin": 4163,
      "rl": 4164,
      "##zi": 4165,
      "riás": 4166,
      "iti": 4167,
      "melle": 4168,
      "tje": 4169,
      "zín": 4170,
      "##hl": 4171,
      "kerül": 4172,
      "tató": 4173,
      "kivá": 4174,
      "erz": 4175,
      "ladás": 4176,
      "hor": 4177,
      "óval": 4178,
      "adtak": 4179,
      "ulá": 4180,
      "lmo": 4181,
      "fonto": 4182,
      "tucat": 4183,
      "edig": 4184,
      "dic": 4185,
      "lakos": 4186,
      "000": 4187,
      "ca": 4188,
      "iban": 4189,
      "akor": 4190,
      "asi": 4191,
      "esked": 4192,
      "cá": 4193,
      "ee": 4194,
      "gul": 4195,
      "úcs": 4196,
      "ame": 4197,
      "tej": 4198,
      "böz": 4199,
      "ita": 4200,
      "lva": 4201,
      "nn": 4202,
      "nes": 4203,
      "ekor": 4204,
      "erül": 4205,
      "edv": 4206,
      "ázta": 4207,
      "ensz": 4208,
      "olva": 4209,
      "lid": 4210,
      "immár": 4211,
      "árá": 4212,
      "tere": 4213,
      "teti": 4214,
      "iek": 4215,
      "ktat": 4216,
      "ür": 4217,
      "##ip": 4218,
      "szö": 4219,
      "kit": 4220,
      "lep": 4221,
      "usok": 4222,
      "klu": 4223,
      "##ru": 4224,
      "mic": 4225,
      "okr": 4226,
      "etten": 4227,
      "ánc": 4228,
      "nde": 4229,
      "ázá": 4230,
      "400": 4231,
      "nár": 4232,
      "tiká": 4233,
      "észek": 4234,
      "tarta": 4235,
      "33": 4236,
      "##ft": 4237,
      "teles": 4238,
      "izet": 4239,
      "edi": 4240,
      "apo": 4241,
      "aga": 4242,
      "yene": 4243,
      "efekt": 4244,
      "ps": 4245,
      "yer": 4246,
      "##xi": 4247,
      "erk": 4248,
      "akí": 4249,
      "audi": 4250,
      "ddig": 4251,
      "giá": 4252,
      "bm": 4253,
      "eut": 4254,
      "lö": 4255,
      "elek": 4256,
      "edelm": 4257,
      "abo": 4258,
      "óján": 4259,
      "sztán": 4260,
      "abá": 4261,
      "rtok": 4262,
      "növek": 4263,
      "iért": 4264,
      "yőz": 4265,
      "adik": 4266,
      "éle": 4267,
      "tré": 4268,
      "üv": 4269,
      "oráb": 4270,
      "élte": 4271,
      "utol": 4272,
      "kozik": 4273,
      "nán": 4274,
      "nála": 4275,
      "zást": 4276,
      "tago": 4277,
      "etési": 4278,
      "graf": 4279,
      "mk": 4280,
      "##nök": 4281,
      "olv": 4282,
      "adásá": 4283,
      "lgár": 4284,
      "ragad": 4285,
      "eat": 4286,
      "fig": 4287,
      "laz": 4288,
      "vei": 4289,
      "ozza": 4290,
      "esnek": 4291,
      "rece": 4292,
      "ozhat": 4293,
      "oc": 4294,
      "tri": 4295,
      "zo": 4296,
      "alj": 4297,
      "teres": 4298,
      "pap": 4299,
      "we": 4300,
      "egyi": 4301,
      "repü": 4302,
      "##iá": 4303,
      "zölt": 4304,
      "atták": 4305,
      "ví": 4306,
      "vező": 4307,
      "ellá": 4308,
      "rják": 4309,
      "ótá": 4310,
      "alv": 4311,
      "ikl": 4312,
      "ítani": 4313,
      "ízi": 4314,
      "há": 4315,
      "zü": 4316,
      "etv": 4317,
      "aty": 4318,
      "lle": 4319,
      "mas": 4320,
      "pt": 4321,
      "szű": 4322,
      "ence": 4323,
      "lya": 4324,
      "téma": 4325,
      "kba": 4326,
      "rug": 4327,
      "utt": 4328,
      "enko": 4329,
      "évé": 4330,
      "assa": 4331,
      "dj": 4332,
      "megvá": 4333,
      "ránt": 4334,
      "##íma": 4335,
      "nc": 4336,
      "ranc": 4337,
      "artin": 4338,
      "ilá": 4339,
      "latot": 4340,
      "ntern": 4341,
      "dom": 4342,
      "megm": 4343,
      "gyá": 4344,
      "lli": 4345,
      "llít": 4346,
      "sso": 4347,
      "kad": 4348,
      "nü": 4349,
      "nom": 4350,
      "oh": 4351,
      "sság": 4352,
      "alól": 4353,
      "etre": 4354,
      "áraz": 4355,
      "lyan": 4356,
      "szült": 4357,
      "eho": 4358,
      "égül": 4359,
      "édi": 4360,
      "erző": 4361,
      "ley": 4362,
      "itá": 4363,
      "énz": 4364,
      "zatot": 4365,
      "mpl": 4366,
      "erződ": 4367,
      "zok": 4368,
      "erm": 4369,
      "erés": 4370,
      "áron": 4371,
      "árad": 4372,
      "nyzat": 4373,
      "rzés": 4374,
      "ech": 4375,
      "mul": 4376,
      "akk": 4377,
      "ins": 4378,
      "irály": 4379,
      "75": 4380,
      "ix": 4381,
      "nyét": 4382,
      "onál": 4383,
      "zút": 4384,
      "nák": 4385,
      "őse": 4386,
      "sszi": 4387,
      "vent": 4388,
      "ltató": 4389,
      "gia": 4390,
      "kes": 4391,
      "rő": 4392,
      "enci": 4393,
      "gon": 4394,
      "lná": 4395,
      "##ud": 4396,
      "integ": 4397,
      "igazo": 4398,
      "dönté": 4399,
      "ányá": 4400,
      "melés": 4401,
      "34": 4402,
      "nban": 4403,
      "enger": 4404,
      "koló": 4405,
      "építé": 4406,
      "non": 4407,
      "pc": 4408,
      "tta": 4409,
      "dig": 4410,
      "lér": 4411,
      "riz": 4412,
      "kém": 4413,
      "iről": 4414,
      "tün": 4415,
      "zban": 4416,
      "def": 4417,
      "agyi": 4418,
      "air": 4419,
      "nti": 4420,
      "adók": 4421,
      "37": 4422,
      "gne": 4423,
      "pő": 4424,
      "rnak": 4425,
      "tl": 4426,
      "nában": 4427,
      "ram": 4428,
      "lto": 4429,
      "tum": 4430,
      "ájuk": 4431,
      "aw": 4432,
      "amá": 4433,
      "mnb": 4434,
      "oy": 4435,
      "rés": 4436,
      "őj": 4437,
      "álni": 4438,
      "közl": 4439,
      "zato": 4440,
      "klíma": 4441,
      "toj": 4442,
      "nco": 4443,
      "raz": 4444,
      "etel": 4445,
      "nöke": 4446,
      "42": 4447,
      "dat": 4448,
      "uház": 4449,
      "iku": 4450,
      "atók": 4451,
      "kut": 4452,
      "zed": 4453,
      "alál": 4454,
      "felté": 4455,
      "sztás": 4456,
      "tip": 4457,
      "lóban": 4458,
      "nus": 4459,
      "bmw": 4460,
      "gyé": 4461,
      "szat": 4462,
      "ttség": 4463,
      "ülő": 4464,
      "lata": 4465,
      "rmes": 4466,
      "lga": 4467,
      "ean": 4468,
      "pet": 4469,
      "oln": 4470,
      "osta": 4471,
      "özép": 4472,
      "arlam": 4473,
      "yomoz": 4474,
      "nnek": 4475,
      "yot": 4476,
      "szük": 4477,
      "alon": 4478,
      "gynök": 4479,
      "ttá": 4480,
      "rivá": 4481,
      "fran": 4482,
      "nyire": 4483,
      "sör": 4484,
      "eter": 4485,
      "tött": 4486,
      "nkat": 4487,
      "ende": 4488,
      "ánya": 4489,
      "eszte": 4490,
      "gene": 4491,
      "sségé": 4492,
      "gét": 4493,
      "sko": 4494,
      "szan": 4495,
      "elhet": 4496,
      "soroz": 4497,
      "ításá": 4498,
      "bx": 4499,
      "káb": 4500,
      "rát": 4501,
      "nyá": 4502,
      "llami": 4503,
      "nálat": 4504,
      "zetbe": 4505,
      "odik": 4506,
      "bj": 4507,
      "gor": 4508,
      "ülte": 4509,
      "nya": 4510,
      "abi": 4511,
      "ései": 4512,
      "rika": 4513,
      "##sc": 4514,
      "szott": 4515,
      "átr": 4516,
      "ilm": 4517,
      "nm": 4518,
      "érté": 4519,
      "onto": 4520,
      "őké": 4521,
      "38": 4522,
      "iben": 4523,
      "nen": 4524,
      "öző": 4525,
      "együ": 4526,
      "ruh": 4527,
      "ügge": 4528,
      "oe": 4529,
      "elg": 4530,
      "nyen": 4531,
      "ogo": 4532,
      "ncse": 4533,
      "65": 4534,
      "lok": 4535,
      "mál": 4536,
      "mét": 4537,
      "sük": 4538,
      "nyak": 4539,
      "okba": 4540,
      "umb": 4541,
      "rajt": 4542,
      "imá": 4543,
      "kú": 4544,
      "lc": 4545,
      "elin": 4546,
      "enge": 4547,
      "enau": 4548,
      "apeh": 4549,
      "55": 4550,
      "fon": 4551,
      "vész": 4552,
      "azás": 4553,
      "árás": 4554,
      "ine": 4555,
      "ngs": 4556,
      "gp": 4557,
      "neke": 4558,
      "égi": 4559,
      "rga": 4560,
      "kh": 4561,
      "uka": 4562,
      "ssa": 4563,
      "kból": 4564,
      "uh": 4565,
      "yö": 4566,
      "felf": 4567,
      "ilág": 4568,
      "150": 4569,
      "lvár": 4570,
      "bom": 4571,
      "gő": 4572,
      "ldi": 4573,
      "vak": 4574,
      "yújt": 4575,
      "oj": 4576,
      "pot": 4577,
      "vó": 4578,
      "##ciu": 4579,
      "omp": 4580,
      "erepe": 4581,
      "digi": 4582,
      "szló": 4583,
      "aték": 4584,
      "##za": 4585,
      "olá": 4586,
      "érő": 4587,
      "onda": 4588,
      "ncia": 4589,
      "rén": 4590,
      "sök": 4591,
      "önyv": 4592,
      "olhat": 4593,
      "etese": 4594,
      "ien": 4595,
      "sté": 4596,
      "ús": 4597,
      "kin": 4598,
      "irt": 4599,
      "eszti": 4600,
      "ppen": 4601,
      "pon": 4602,
      "anna": 4603,
      "gyel": 4604,
      "nte": 4605,
      "bic": 4606,
      "rdo": 4607,
      "gyedi": 4608,
      "cer": 4609,
      "ított": 4610,
      "rany": 4611,
      "hábor": 4612,
      "sés": 4613,
      "sét": 4614,
      "ved": 4615,
      "övő": 4616,
      "##ót": 4617,
      "árciu": 4618,
      "tene": 4619,
      "nga": 4620,
      "enciá": 4621,
      "tojás": 4622,
      "ánk": 4623,
      "íre": 4624,
      "##ly": 4625,
      "ékos": 4626,
      "sül": 4627,
      "##mer": 4628,
      "áló": 4629,
      "íté": 4630,
      "képe": 4631,
      "poli": 4632,
      "bin": 4633,
      "nad": 4634,
      "űl": 4635,
      "ekek": 4636,
      "erj": 4637,
      "amu": 4638,
      "észle": 4639,
      "gett": 4640,
      "nsz": 4641,
      "pü": 4642,
      "rj": 4643,
      "vo": 4644,
      "láng": 4645,
      "pen": 4646,
      "éső": 4647,
      "rtl": 4648,
      "ies": 4649,
      "ekbe": 4650,
      "iko": 4651,
      "ndá": 4652,
      "ritka": 4653,
      "den": 4654,
      "nce": 4655,
      "ric": 4656,
      "kodás": 4657,
      "ola": 4658,
      "uty": 4659,
      "otor": 4660,
      "inál": 4661,
      "ily": 4662,
      "ajno": 4663,
      "tériu": 4664,
      "jal": 4665,
      "rjá": 4666,
      "sű": 4667,
      "##id": 4668,
      "adata": 4669,
      "mtv": 4670,
      "ársa": 4671,
      "kedve": 4672,
      "ktől": 4673,
      "ssan": 4674,
      "rv": 4675,
      "zig": 4676,
      "nysz": 4677,
      "tab": 4678,
      "nfor": 4679,
      "gé": 4680,
      "ias": 4681,
      "zul": 4682,
      "##ügy": 4683,
      "ezete": 4684,
      "abba": 4685,
      "áma": 4686,
      "tika": 4687,
      "lh": 4688,
      "tas": 4689,
      "ósz": 4690,
      "ejle": 4691,
      "bombá": 4692,
      "ds": 4693,
      "gre": 4694,
      "zk": 4695,
      "ásf": 4696,
      "ará": 4697,
      "rdeke": 4698,
      "szta": 4699,
      "aka": 4700,
      "tésre": 4701,
      "dén": 4702,
      "gez": 4703,
      "ned": 4704,
      "álta": 4705,
      "gz": 4706,
      "lmi": 4707,
      "tog": 4708,
      "okol": 4709,
      "olit": 4710,
      "sti": 4711,
      "atásá": 4712,
      "erzés": 4713,
      "llító": 4714,
      "fer": 4715,
      "isa": 4716,
      "kij": 4717,
      "arna": 4718,
      "áté": 4719,
      "lapí": 4720,
      "pás": 4721,
      "ségbe": 4722,
      "játs": 4723,
      "umo": 4724,
      "kszer": 4725,
      "ire": 4726,
      "nda": 4727,
      "ski": 4728,
      "mia": 4729,
      "ájá": 4730,
      "eljár": 4731,
      "tóbb": 4732,
      "iak": 4733,
      "nit": 4734,
      "##wn": 4735,
      "negye": 4736,
      "izto": 4737,
      "edt": 4738,
      "ital": 4739,
      "ósí": 4740,
      "mész": 4741,
      "rge": 4742,
      "áró": 4743,
      "nész": 4744,
      "dalm": 4745,
      "zerb": 4746,
      "imi": 4747,
      "tba": 4748,
      "erez": 4749,
      "rai": 4750,
      "ítják": 4751,
      "gazga": 4752,
      "stá": 4753,
      "aha": 4754,
      "giai": 4755,
      "mlék": 4756,
      "osabb": 4757,
      "mra": 4758,
      "rök": 4759,
      "áli": 4760,
      "kapac": 4761,
      "amint": 4762,
      "örny": 4763,
      "anuár": 4764,
      "eag": 4765,
      "ival": 4766,
      "mber": 4767,
      "pop": 4768,
      "rke": 4769,
      "zolg": 4770,
      "kéne": 4771,
      "gyar": 4772,
      "rich": 4773,
      "imn": 4774,
      "zata": 4775,
      "tmény": 4776,
      "kese": 4777,
      "fx": 4778,
      "ktá": 4779,
      "lába": 4780,
      "##up": 4781,
      "##ool": 4782,
      "aro": 4783,
      "keré": 4784,
      "rpool": 4785,
      "41": 4786,
      "vert": 4787,
      "##one": 4788,
      "győ": 4789,
      "bux": 4790,
      "élyi": 4791,
      "sában": 4792,
      "tóbbi": 4793,
      "dug": 4794,
      "ocs": 4795,
      "tp": 4796,
      "##ox": 4797,
      "köl": 4798,
      "átsz": 4799,
      "ségv": 4800,
      "színé": 4801,
      "zené": 4802,
      "git": 4803,
      "gében": 4804,
      "jeg": 4805,
      "lne": 4806,
      "vl": 4807,
      "##ner": 4808,
      "oná": 4809,
      "mást": 4810,
      "ukk": 4811,
      "észen": 4812,
      "dos": 4813,
      "rős": 4814,
      "ójá": 4815,
      "öd": 4816,
      "##emb": 4817,
      "atnak": 4818,
      "akban": 4819,
      "iket": 4820,
      "feles": 4821,
      "eon": 4822,
      "ls": 4823,
      "vét": 4824,
      "yil": 4825,
      "ésbe": 4826,
      "cial": 4827,
      "örü": 4828,
      "lene": 4829,
      "prób": 4830,
      "ektet": 4831,
      "iii": 4832,
      "jékoz": 4833,
      "tötte": 4834,
      "600": 4835,
      "aus": 4836,
      "rb": 4837,
      "ségek": 4838,
      "sztá": 4839,
      "któl": 4840,
      "brfk": 4841,
      "asztr": 4842,
      "kből": 4843,
      "ésőbb": 4844,
      "39": 4845,
      "48": 4846,
      "mr": 4847,
      "edik": 4848,
      "ogá": 4849,
      "ékez": 4850,
      "gb": 4851,
      "pri": 4852,
      "paki": 4853,
      "##fá": 4854,
      "arj": 4855,
      "aren": 4856,
      "zője": 4857,
      "hel": 4858,
      "nj": 4859,
      "pit": 4860,
      "íro": 4861,
      "omm": 4862,
      "örg": 4863,
      "250": 4864,
      "innen": 4865,
      "szlov": 4866,
      "nato": 4867,
      "szek": 4868,
      "asztó": 4869,
      "43": 4870,
      "bon": 4871,
      "dia": 4872,
      "gás": 4873,
      "ged": 4874,
      "iák": 4875,
      "ys": 4876,
      "yá": 4877,
      "##ns": 4878,
      "eta": 4879,
      "arab": 4880,
      "köze": 4881,
      "unka": 4882,
      "ékok": 4883,
      "latok": 4884,
      "sébe": 4885,
      "tszik": 4886,
      ".)": 4887,
      "ián": 4888,
      "kc": 4889,
      "mf": 4890,
      "zű": 4891,
      "##szk": 4892,
      "gyi": 4893,
      "tern": 4894,
      "ovb": 4895,
      "sütö": 4896,
      "ress": 4897,
      "rez": 4898,
      "rett": 4899,
      "sho": 4900,
      "##átor": 4901,
      "ege": 4902,
      "entes": 4903,
      "lév": 4904,
      "zabad": 4905,
      "det": 4906,
      "fé": 4907,
      "##po": 4908,
      "##ph": 4909,
      "atr": 4910,
      "arta": 4911,
      "nic": 4912,
      "talaj": 4913,
      "zete": 4914,
      "tran": 4915,
      "khoz": 4916,
      "vig": 4917,
      "##ry": 4918,
      "erke": 4919,
      "terel": 4920,
      "teli": 4921,
      "rnyé": 4922,
      "mpá": 4923,
      "ésén": 4924,
      "igi": 4925,
      "hav": 4926,
      "ozó": 4927,
      "ebes": 4928,
      "reke": 4929,
      "eál": 4930,
      "tre": 4931,
      "yan": 4932,
      "óba": 4933,
      "enb": 4934,
      "amo": 4935,
      "gm": 4936,
      "gek": 4937,
      "yű": 4938,
      "atik": 4939,
      "árto": 4940,
      "apja": 4941,
      "roda": 4942,
      "lógi": 4943,
      "laká": 4944,
      "híd": 4945,
      "gáb": 4946,
      "tg": 4947,
      "##zá": 4948,
      "ásuk": 4949,
      "olj": 4950,
      "onf": 4951,
      "étele": 4952,
      "eger": 4953,
      "ülö": 4954,
      "enté": 4955,
      "apple": 4956,
      "44": 4957,
      "álás": 4958,
      "ets": 4959,
      "ármi": 4960,
      "izen": 4961,
      "édia": 4962,
      "pesti": 4963,
      "edden": 4964,
      "hx": 4965,
      "kle": 4966,
      "lí": 4967,
      "##bó": 4968,
      "ziget": 4969,
      "aci": 4970,
      "pas": 4971,
      "tig": 4972,
      "óp": 4973,
      "##eni": 4974,
      "azda": 4975,
      "gyik": 4976,
      "ajz": 4977,
      "rték": 4978,
      "rand": 4979,
      "limp": 4980,
      "delm": 4981,
      "his": 4982,
      "igy": 4983,
      "mes": 4984,
      "okk": 4985,
      "ike": 4986,
      "dhet": 4987,
      "űnt": 4988,
      "rea": 4989,
      "ntött": 4990,
      "lésé": 4991,
      "sítés": 4992,
      "esztő": 4993,
      "lb": 4994,
      "lemé": 4995,
      "arvas": 4996,
      "rosz": 4997,
      "leti": 4998,
      "kur": 4999,
      "rult": 5000,
      "dri": 5001,
      "rány": 5002,
      "rov": 5003,
      "ww": 5004,
      "etr": 5005,
      "okan": 5006,
      "érle": 5007,
      "agya": 5008,
      "lav": 5009,
      "llo": 5010,
      "lic": 5011,
      "rral": 5012,
      "yőzte": 5013,
      "yo": 5014,
      "óf": 5015,
      "##ie": 5016,
      "megé": 5017,
      "ltal": 5018,
      "ider": 5019,
      "mára": 5020,
      "zti": 5021,
      "ndre": 5022,
      "gépe": 5023,
      "égé": 5024,
      "ssel": 5025,
      "zked": 5026,
      "pak": 5027,
      "uhá": 5028,
      "yle": 5029,
      "elez": 5030,
      "kös": 5031,
      "forr": 5032,
      "gazol": 5033,
      "ndo": 5034,
      "labor": 5035,
      "lez": 5036,
      "elté": 5037,
      "ásai": 5038,
      "ane": 5039,
      "máso": 5040,
      "tések": 5041,
      "ndor": 5042,
      "népsz": 5043,
      "46": 5044,
      "iem": 5045,
      "nnyi": 5046,
      "ua": 5047,
      "enf": 5048,
      "sztr": 5049,
      "riu": 5050,
      "ékot": 5051,
      "cd": 5052,
      "gas": 5053,
      "lén": 5054,
      "ela": 5055,
      "essé": 5056,
      "erc": 5057,
      "ártó": 5058,
      "##rac": 5059,
      "sokk": 5060,
      "klin": 5061,
      "tese": 5062,
      "mmel": 5063,
      "mcl": 5064,
      "erjed": 5065,
      "52": 5066,
      "yon": 5067,
      "tev": 5068,
      "íteni": 5069,
      "eis": 5070,
      "hr": 5071,
      "akó": 5072,
      "onc": 5073,
      "unká": 5074,
      "ndul": 5075,
      "óka": 5076,
      "nst": 5077,
      "gárda": 5078,
      "nzügy": 5079,
      "jén": 5080,
      "etn": 5081,
      "utá": 5082,
      "edél": 5083,
      "53": 5084,
      "márká": 5085,
      "ttem": 5086,
      "ftc": 5087,
      "fri": 5088,
      "vx": 5089,
      "##ii": 5090,
      "aláb": 5091,
      "olc": 5092,
      "amat": 5093,
      "omba": 5094,
      "műv": 5095,
      "halá": 5096,
      "feje": 5097,
      "seb": 5098,
      "hö": 5099,
      "##ós": 5100,
      "elad": 5101,
      "akos": 5102,
      "terá": 5103,
      "sztj": 5104,
      "tti": 5105,
      "lós": 5106,
      "rme": 5107,
      "utyin": 5108,
      "fol": 5109,
      "line": 5110,
      "rás": 5111,
      "utás": 5112,
      "lyet": 5113,
      "ngy": 5114,
      "ous": 5115,
      "orto": 5116,
      "éva": 5117,
      "előd": 5118,
      "telek": 5119,
      "mányo": 5120,
      "galé": 5121,
      "hen": 5122,
      "rról": 5123,
      "azug": 5124,
      "etik": 5125,
      "etni": 5126,
      "##aze": 5127,
      "##seb": 5128,
      "lők": 5129,
      "ztató": 5130,
      "tv2": 5131,
      "64": 5132,
      "dam": 5133,
      "gán": 5134,
      "hv": 5135,
      "zan": 5136,
      "elb": 5137,
      "kiseb": 5138,
      "emet": 5139,
      "anad": 5140,
      "ore": 5141,
      "hib": 5142,
      "lalt": 5143,
      "ülése": 5144,
      "ézi": 5145,
      "cal": 5146,
      "ccs": 5147,
      "rut": 5148,
      "sol": 5149,
      "zve": 5150,
      "záz": 5151,
      "##ya": 5152,
      "mitt": 5153,
      "##ina": 5154,
      "rtja": 5155,
      "udom": 5156,
      "ozata": 5157,
      "800": 5158,
      "eam": 5159,
      "ije": 5160,
      "őbe": 5161,
      "léke": 5162,
      "zód": 5163,
      "eltek": 5164,
      "ítása": 5165,
      "lsz": 5166,
      "lök": 5167,
      "nyék": 5168,
      "hatna": 5169,
      "entés": 5170,
      "ago": 5171,
      "neti": 5172,
      "trük": 5173,
      "ányok": 5174,
      "torn": 5175,
      "lked": 5176,
      "nciá": 5177,
      "49": 5178,
      "##pe": 5179,
      "álja": 5180,
      "alad": 5181,
      "edő": 5182,
      "##ley": 5183,
      "zsg": 5184,
      "alkat": 5185,
      "ejte": 5186,
      "nzé": 5187,
      "xvi": 5188,
      "azi": 5189,
      "aká": 5190,
      "sztó": 5191,
      "ajt": 5192,
      "éka": 5193,
      "komb": 5194,
      "artj": 5195,
      "szav": 5196,
      "madár": 5197,
      "madar": 5198,
      "54": 5199,
      "fm": 5200,
      "hd": 5201,
      "hé": 5202,
      "hc": 5203,
      "nne": 5204,
      "rc": 5205,
      "yáz": 5206,
      "zd": 5207,
      "íve": 5208,
      "ölte": 5209,
      "dei": 5210,
      "zték": 5211,
      "rsa": 5212,
      "dőben": 5213,
      "bál": 5214,
      "esze": 5215,
      "hf": 5216,
      "rék": 5217,
      "zép": 5218,
      "##hu": 5219,
      "elö": 5220,
      "alam": 5221,
      "erb": 5222,
      "éret": 5223,
      "ráció": 5224,
      "ázi": 5225,
      "ációs": 5226,
      "www": 5227,
      "kbe": 5228,
      "kvá": 5229,
      "mus": 5230,
      "rmé": 5231,
      "sú": 5232,
      "snak": 5233,
      "elo": 5234,
      "amin": 5235,
      "ida": 5236,
      "baba": 5237,
      "uss": 5238,
      "udit": 5239,
      "ákat": 5240,
      "sark": 5241,
      "sétál": 5242,
      "gró": 5243,
      "tnek": 5244,
      "ebbe": 5245,
      "leng": 5246,
      "lási": 5247,
      "sőbb": 5248,
      "latos": 5249,
      "lagos": 5250,
      "ejé": 5251,
      "och": 5252,
      "##do": 5253,
      "ales": 5254,
      "áshoz": 5255,
      "éldá": 5256,
      "egal": 5257,
      "apit": 5258,
      "ehát": 5259,
      "porto": 5260,
      "56": 5261,
      "85": 5262,
      "dni": 5263,
      "ira": 5264,
      "iszo": 5265,
      "rít": 5266,
      "uan": 5267,
      "yó": 5268,
      "##ago": 5269,
      "ruház": 5270,
      "nove": 5271,
      "fogya": 5272,
      "hvg": 5273,
      "47": 5274,
      "##per": 5275,
      "aros": 5276,
      "reszt": 5277,
      "oron": 5278,
      "őri": 5279,
      "iraki": 5280,
      "agr": 5281,
      "umok": 5282,
      "120": 5283,
      "cent": 5284,
      "lény": 5285,
      "elvá": 5286,
      "lye": 5287,
      "kei": 5288,
      "cége": 5289,
      "baja": 5290,
      "búj": 5291,
      "iók": 5292,
      "rdá": 5293,
      "arác": 5294,
      "árs": 5295,
      "lési": 5296,
      "nka": 5297,
      "kast": 5298,
      "57": 5299,
      "dd": 5300,
      "kla": 5301,
      "mén": 5302,
      "árok": 5303,
      "lau": 5304,
      "dtek": 5305,
      "kró": 5306,
      "kód": 5307,
      "alat": 5308,
      "enn": 5309,
      "ztel": 5310,
      "érdés": 5311,
      "tete": 5312,
      "bron": 5313,
      "ádár": 5314,
      "bít": 5315,
      "iad": 5316,
      "ock": 5317,
      "pszá": 5318,
      "yr": 5319,
      "yol": 5320,
      "yhá": 5321,
      "zül": 5322,
      "##un": 5323,
      "ésnek": 5324,
      "álog": 5325,
      "etü": 5326,
      "iker": 5327,
      "kért": 5328,
      "ust": 5329,
      "lálko": 5330,
      "pszáf": 5331,
      "51": 5332,
      "ms": 5333,
      "rf": 5334,
      "ezd": 5335,
      "ator": 5336,
      "jót": 5337,
      "elef": 5338,
      "ragas": 5339,
      "knál": 5340,
      "gyéb": 5341,
      "nát": 5342,
      "azud": 5343,
      "kib": 5344,
      "esi": 5345,
      "are": 5346,
      "ize": 5347,
      "arry": 5348,
      "onyi": 5349,
      "##tta": 5350,
      "ála": 5351,
      "álm": 5352,
      "add": 5353,
      "bizon": 5354,
      "minde": 5355,
      "ngé": 5356,
      "bus": 5357,
      "fú": 5358,
      "mban": 5359,
      "nnak": 5360,
      "radt": 5361,
      "tná": 5362,
      "érlet": 5363,
      "ori": 5364,
      "szti": 5365,
      "ila": 5366,
      "##ney": 5367,
      "abda": 5368,
      "lések": 5369,
      "lyi": 5370,
      "tván": 5371,
      "eresz": 5372,
      "ilye": 5373,
      "rvé": 5374,
      "tai": 5375,
      "arad": 5376,
      "olyó": 5377,
      "krit": 5378,
      "ényes": 5379,
      "lunk": 5380,
      "rutin": 5381,
      "98": 5382,
      "iu": 5383,
      "üst": 5384,
      "alg": 5385,
      "ety": 5386,
      "ath": 5387,
      "olas": 5388,
      "akma": 5389,
      "emok": 5390,
      "töl": 5391,
      "ovemb": 5392,
      "sszú": 5393,
      "gzet": 5394,
      "kanc": 5395,
      "egyv": 5396,
      "atl": 5397,
      "emt": 5398,
      "nior": 5399,
      "átra": 5400,
      "tatta": 5401,
      "spó": 5402,
      "lemz": 5403,
      "jak": 5404,
      "rká": 5405,
      "ssza": 5406,
      "áé": 5407,
      "szn": 5408,
      "eru": 5409,
      "ntá": 5410,
      "lyáz": 5411,
      "nasa": 5412,
      "razí": 5413,
      "gés": 5414,
      "rál": 5415,
      "sle": 5416,
      "óló": 5417,
      "##ib": 5418,
      "##ku": 5419,
      "emé": 5420,
      "kalap": 5421,
      "rown": 5422,
      "ázat": 5423,
      "tend": 5424,
      "zoci": 5425,
      "bronz": 5426,
      "700": 5427,
      "sas": 5428,
      "őh": 5429,
      "emél": 5430,
      "##aga": 5431,
      "ige": 5432,
      "taxi": 5433,
      "ezeti": 5434,
      "apt": 5435,
      "ágn": 5436,
      "zlov": 5437,
      "nika": 5438,
      "acso": 5439,
      "cl": 5440,
      "cm": 5441,
      "dély": 5442,
      "atv": 5443,
      "helyé": 5444,
      "bur": 5445,
      "riad": 5446,
      "éki": 5447,
      "tetej": 5448,
      "para": 5449,
      "lati": 5450,
      "dup": 5451,
      "aur": 5452,
      "erih": 5453,
      "yilv": 5454,
      "nba": 5455,
      "tány": 5456,
      "íp": 5457,
      "öny": 5458,
      "##si": 5459,
      "felha": 5460,
      "intet": 5461,
      "tex": 5462,
      "otá": 5463,
      "hala": 5464,
      "rtj": 5465,
      "diox": 5466,
      "lip": 5467,
      "lgat": 5468,
      "das": 5469,
      "sos": 5470,
      "ája": 5471,
      "##lo": 5472,
      "olna": 5473,
      "ouis": 5474,
      "ágá": 5475,
      "pülés": 5476,
      "űnik": 5477,
      "col": 5478,
      "gig": 5479,
      "lág": 5480,
      "nkor": 5481,
      "ise": 5482,
      "atu": 5483,
      "gyre": 5484,
      "itch": 5485,
      "avrac": 5486,
      "lapo": 5487,
      "eszé": 5488,
      "nerg": 5489,
      "mkb": 5490,
      "togat": 5491,
      "iva": 5492,
      "oszo": 5493,
      "ocsi": 5494,
      "##ako": 5495,
      "abál": 5496,
      "udo": 5497,
      "tone": 5498,
      "rot": 5499,
      "sv": 5500,
      "énte": 5501,
      "##pár": 5502,
      "egyh": 5503,
      "teke": 5504,
      "mac": 5505,
      "poh": 5506,
      "lanul": 5507,
      "liga": 5508,
      "##ah": 5509,
      "elöl": 5510,
      "kint": 5511,
      "emi": 5512,
      "reen": 5513,
      "ozg": 5514,
      "lői": 5515,
      "nká": 5516,
      "úti": 5517,
      "ződ": 5518,
      "fifa": 5519,
      "smer": 5520,
      "agrár": 5521,
      "62": 5522,
      "gin": 5523,
      "lől": 5524,
      "anci": 5525,
      "intel": 5526,
      "rth": 5527,
      "llomá": 5528,
      "spo": 5529,
      "táská": 5530,
      "ango": 5531,
      "tója": 5532,
      "bátor": 5533,
      "hin": 5534,
      "nta": 5535,
      "rró": 5536,
      "vf": 5537,
      "ake": 5538,
      "ady": 5539,
      "##ama": 5540,
      "íthat": 5541,
      "omat": 5542,
      "riv": 5543,
      "égben": 5544,
      "ítási": 5545,
      "imád": 5546,
      "bél": 5547,
      "tle": 5548,
      "yl": 5549,
      "íze": 5550,
      "##zu": 5551,
      "##pi": 5552,
      "##hi": 5553,
      "ötti": 5554,
      "ngol": 5555,
      "zomb": 5556,
      "imnáz": 5557,
      "bs": 5558,
      "bc": 5559,
      "kai": 5560,
      "rje": 5561,
      "éhe": 5562,
      "##bor": 5563,
      "ena": 5564,
      "cson": 5565,
      "ltet": 5566,
      "áty": 5567,
      "vegy": 5568,
      "apod": 5569,
      "rában": 5570,
      "elmez": 5571,
      "oszto": 5572,
      "óku": 5573,
      "ssá": 5574,
      "dvsc": 5575,
      "treet": 5576,
      "58": 5577,
      "pott": 5578,
      "rcs": 5579,
      "enh": 5580,
      "erem": 5581,
      "arko": 5582,
      "árat": 5583,
      "tax": 5584,
      "köré": 5585,
      "ever": 5586,
      "brav": 5587,
      "yolc": 5588,
      "95": 5589,
      "dns": 5590,
      "inté": 5591,
      "lmú": 5592,
      "ave": 5593,
      "oul": 5594,
      "yész": 5595,
      "##ari": 5596,
      "igé": 5597,
      "ile": 5598,
      "hozzá": 5599,
      "ndí": 5600,
      "relm": 5601,
      "pra": 5602,
      "plat": 5603,
      "vag": 5604,
      "##úd": 5605,
      "arát": 5606,
      "ora": 5607,
      "egf": 5608,
      "rám": 5609,
      "##uki": 5610,
      "élye": 5611,
      "##ric": 5612,
      "máj": 5613,
      "özel": 5614,
      "asztá": 5615,
      "dvd": 5616,
      "ae": 5617,
      "génye": 5618,
      "sl": 5619,
      "##nu": 5620,
      "emen": 5621,
      "rec": 5622,
      "orin": 5623,
      "tef": 5624,
      "omi": 5625,
      "ede": 5626,
      "tten": 5627,
      "ulti": 5628,
      "tars": 5629,
      "ksh": 5630,
      "kvó": 5631,
      "trükk": 5632,
      "61": 5633,
      "68": 5634,
      "iat": 5635,
      "tvá": 5636,
      "ui": 5637,
      "zség": 5638,
      "csé": 5639,
      "mában": 5640,
      "vissz": 5641,
      "mole": 5642,
      "mmal": 5643,
      "tranz": 5644,
      "cb": 5645,
      "kci": 5646,
      "mog": 5647,
      "éze": 5648,
      "##ui": 5649,
      "csa": 5650,
      "arto": 5651,
      "inan": 5652,
      "ilis": 5653,
      "kka": 5654,
      "iph": 5655,
      "kről": 5656,
      "kós": 5657,
      "zmus": 5658,
      "900": 5659,
      "pes": 5660,
      "pán": 5661,
      "rva": 5662,
      "xx": 5663,
      "zná": 5664,
      "éne": 5665,
      "beszá": 5666,
      "teret": 5667,
      "egte": 5668,
      "ukr": 5669,
      "zási": 5670,
      "usi": 5671,
      "lob": 5672,
      "ősi": 5673,
      "ógia": 5674,
      "domb": 5675,
      "iderü": 5676,
      "bban": 5677,
      "kás": 5678,
      "laj": 5679,
      "##end": 5680,
      "ezze": 5681,
      "ítást": 5682,
      "lovas": 5683,
      "zmény": 5684,
      "..": 5685,
      "mj": 5686,
      "uj": 5687,
      "##ct": 5688,
      "ásán": 5689,
      "lyá": 5690,
      "mász": 5691,
      "andy": 5692,
      "zlo": 5693,
      "ayer": 5694,
      "noki": 5695,
      "lang": 5696,
      "mcc": 5697,
      "gráf": 5698,
      "emokr": 5699,
      "bot": 5700,
      "dan": 5701,
      "któb": 5702,
      "ámá": 5703,
      "ézet": 5704,
      "##ús": 5705,
      "issz": 5706,
      "nyik": 5707,
      "éter": 5708,
      "edve": 5709,
      "tési": 5710,
      "ázo": 5711,
      "ipr": 5712,
      "manip": 5713,
      "allo": 5714,
      "ergej": 5715,
      "gyütt": 5716,
      "qui": 5717,
      "psv": 5718,
      "gyász": 5719,
      "63": 5720,
      "éta": 5721,
      "alif": 5722,
      "orá": 5723,
      "kocs": 5724,
      "lyo": 5725,
      "lent": 5726,
      "lmán": 5727,
      "iver": 5728,
      "bútor": 5729,
      "ráta": 5730,
      "ouse": 5731,
      "59": 5732,
      "69": 5733,
      "72": 5734,
      "dál": 5735,
      "gél": 5736,
      "##uc": 5737,
      "alan": 5738,
      "aland": 5739,
      "gyom": 5740,
      "árk": 5741,
      "hato": 5742,
      "lyé": 5743,
      "házá": 5744,
      "kegy": 5745,
      "ehéz": 5746,
      "toro": 5747,
      "mlsz": 5748,
      "74": 5749,
      "dit": 5750,
      "ice": 5751,
      "ább": 5752,
      "kia": 5753,
      "áspár": 5754,
      "anyja": 5755,
      "inga": 5756,
      "emlé": 5757,
      "umen": 5758,
      "brah": 5759,
      "delem": 5760,
      "övek": 5761,
      "obi": 5762,
      "kft": 5763,
      "ring": 5764,
      "rolt": 5765,
      "play": 5766,
      "rlás": 5767,
      "yerme": 5768,
      "kaj": 5769,
      "lon": 5770,
      "nh": 5771,
      "smi": 5772,
      "zai": 5773,
      "zuk": 5774,
      "ónak": 5775,
      "arv": 5776,
      "onat": 5777,
      "rij": 5778,
      "ékek": 5779,
      "link": 5780,
      "animá": 5781,
      "anyá": 5782,
      "sima": 5783,
      "skál": 5784,
      "ősége": 5785,
      "prog": 5786,
      "szkó": 5787,
      "uzuki": 5788,
      "...": 5789,
      "iprus": 5790,
      "ple": 5791,
      "sin": 5792,
      "ince": 5793,
      "apr": 5794,
      "ava": 5795,
      "esete": 5796,
      "tásai": 5797,
      "kavar": 5798,
      "ligá": 5799,
      "okau": 5800,
      "zámos": 5801,
      "rvos": 5802,
      "dk": 5803,
      "iás": 5804,
      "ái": 5805,
      "ásod": 5806,
      "##iká": 5807,
      "arri": 5808,
      "rav": 5809,
      "tun": 5810,
      "eir": 5811,
      "ston": 5812,
      "rde": 5813,
      "mpi": 5814,
      "130": 5815,
      "lamo": 5816,
      "66": 5817,
      "kart": 5818,
      "##ax": 5819,
      "csó": 5820,
      "emmi": 5821,
      "ondo": 5822,
      "nyuga": 5823,
      "siet": 5824,
      "röh": 5825,
      "tsége": 5826,
      "hite": 5827,
      "tlét": 5828,
      "kút": 5829,
      "rősö": 5830,
      "dek": 5831,
      "ead": 5832,
      "zeg": 5833,
      "zem": 5834,
      "óvá": 5835,
      "ergi": 5836,
      "anor": 5837,
      "étá": 5838,
      "elev": 5839,
      "140": 5840,
      "egalá": 5841,
      "cn": 5842,
      "gsz": 5843,
      "kló": 5844,
      "mut": 5845,
      "nben": 5846,
      "pte": 5847,
      "yár": 5848,
      "óna": 5849,
      "##ir": 5850,
      "szere": 5851,
      "ásho": 5852,
      "erdá": 5853,
      "csom": 5854,
      "aku": 5855,
      "ulm": 5856,
      "lapot": 5857,
      "ipad": 5858,
      "urc": 5859,
      "latin": 5860,
      "öbben": 5861,
      "teráp": 5862,
      "bén": 5863,
      "dm": 5864,
      "eil": 5865,
      "iami": 5866,
      "övid": 5867,
      "##wi": 5868,
      "ovi": 5869,
      "özé": 5870,
      "bd": 5871,
      "fb": 5872,
      "rvá": 5873,
      "öko": 5874,
      "##hy": 5875,
      "elje": 5876,
      "megb": 5877,
      "valif": 5878,
      "ome": 5879,
      "taní": 5880,
      "book": 5881,
      "odó": 5882,
      "naci": 5883,
      "ovább": 5884,
      "elébe": 5885,
      "üty": 5886,
      "##bou": 5887,
      "báb": 5888,
      "dől": 5889,
      "kak": 5890,
      "kád": 5891,
      "yd": 5892,
      "nyű": 5893,
      "álják": 5894,
      "alag": 5895,
      "atab": 5896,
      "edte": 5897,
      "ciu": 5898,
      "tana": 5899,
      "tisz": 5900,
      "ite": 5901,
      "ábrá": 5902,
      "lázad": 5903,
      "seket": 5904,
      "73": 5905,
      "gőz": 5906,
      "kát": 5907,
      "rdi": 5908,
      "zsz": 5909,
      "elep": 5910,
      "##ake": 5911,
      "nyeg": 5912,
      "how": 5913,
      "hoen": 5914,
      "akít": 5915,
      "tep": 5916,
      "llat": 5917,
      "vezé": 5918,
      "vete": 5919,
      "ültek": 5920,
      "evés": 5921,
      "ülete": 5922,
      "vend": 5923,
      "innov": 5924,
      "hy": 5925,
      "lil": 5926,
      "tha": 5927,
      "szki": 5928,
      "eth": 5929,
      "nick": 5930,
      "igén": 5931,
      "aida": 5932,
      "hid": 5933,
      "kum": 5934,
      "kuta": 5935,
      "ántó": 5936,
      "180": 5937,
      "ridge": 5938,
      "trón": 5939,
      "ossá": 5940,
      "tefan": 5941,
      "dít": 5942,
      "lar": 5943,
      "líz": 5944,
      "oone": 5945,
      "tc": 5946,
      "##yá": 5947,
      "nyé": 5948,
      "mega": 5949,
      "kése": 5950,
      "arse": 5951,
      "##ray": 5952,
      "talo": 5953,
      "ulhat": 5954,
      "itz": 5955,
      "kala": 5956,
      "avig": 5957,
      "lló": 5958,
      "stor": 5959,
      "alku": 5960,
      "smét": 5961,
      "knél": 5962,
      "ivé": 5963,
      "áko": 5964,
      "öb": 5965,
      "űle": 5966,
      "megte": 5967,
      "akin": 5968,
      "arok": 5969,
      "ltra": 5970,
      "ulha": 5971,
      "sták": 5972,
      "fize": 5973,
      "ontr": 5974,
      "atti": 5975,
      "popul": 5976,
      "gszer": 5977,
      "ooney": 5978,
      "ruk": 5979,
      "zit": 5980,
      "úly": 5981,
      "lei": 5982,
      "vác": 5983,
      "eder": 5984,
      "roup": 5985,
      "tások": 5986,
      "ezésé": 5987,
      "mith": 5988,
      "etésé": 5989,
      "őlő": 5990,
      "qua": 5991,
      "evi": 5992,
      "faze": 5993,
      "ibe": 5994,
      "mmun": 5995,
      "she": 5996,
      "##fe": 5997,
      "alga": 5998,
      "kiál": 5999,
      "étre": 6000,
      "ego": 6001,
      "rint": 6002,
      "##uká": 6003,
      "sajt": 6004,
      "röp": 6005,
      "sík": 6006,
      "evan": 6007,
      "67": 6008,
      "71": 6009,
      "bás": 6010,
      "iú": 6011,
      "jtá": 6012,
      "rni": 6013,
      "zél": 6014,
      "zna": 6015,
      "##ken": 6016,
      "ald": 6017,
      "menny": 6018,
      "rács": 6019,
      "eid": 6020,
      "stat": 6021,
      "örvé": 6022,
      "zások": 6023,
      "maff": 6024,
      "mara": 6025,
      "bbi": 6026,
      "ross": 6027,
      "arian": 6028,
      "pohár": 6029,
      "bf": 6030,
      "öve": 6031,
      "isko": 6032,
      "felad": 6033,
      "amm": 6034,
      "arap": 6035,
      "indu": 6036,
      "izz": 6037,
      "aját": 6038,
      "váro": 6039,
      "kesz": 6040,
      "kong": 6041,
      "trend": 6042,
      "160": 6043,
      "assá": 6044,
      "eha": 6045,
      "ior": 6046,
      "tf": 6047,
      "éc": 6048,
      "##ue": 6049,
      "mego": 6050,
      "kirá": 6051,
      "erh": 6052,
      "gym": 6053,
      "aris": 6054,
      "ortá": 6055,
      "lay": 6056,
      "ttes": 6057,
      "irst": 6058,
      "rian": 6059,
      "kalif": 6060,
      "start": 6061,
      "éká": 6062,
      "ontot": 6063,
      "inger": 6064,
      "önny": 6065,
      "ske": 6066,
      "rans": 6067,
      "exp": 6068,
      "onya": 6069,
      "88": 6070,
      "dás": 6071,
      "dani": 6072,
      "sra": 6073,
      "zér": 6074,
      "##ay": 6075,
      "isk": 6076,
      "##ing": 6077,
      "##age": 6078,
      "otus": 6079,
      "bab": 6080,
      "tand": 6081,
      "ódo": 6082,
      "zatér": 6083,
      "rdem": 6084,
      "záj": 6085,
      "elése": 6086,
      "tjuk": 6087,
      "aja": 6088,
      "gg": 6089,
      "mma": 6090,
      "rről": 6091,
      "svá": 6092,
      "áni": 6093,
      "űs": 6094,
      "nyago": 6095,
      "lasz": 6096,
      "rte": 6097,
      "elmér": 6098,
      "inká": 6099,
      "ítése": 6100,
      "panel": 6101,
      "ewis": 6102,
      "dent": 6103,
      "geket": 6104,
      "82": 6105,
      "ais": 6106,
      "bik": 6107,
      "dak": 6108,
      "iál": 6109,
      "mart": 6110,
      "nhl": 6111,
      "rne": 6112,
      "úl": 6113,
      "##vh": 6114,
      "alé": 6115,
      "enés": 6116,
      "##apí": 6117,
      "arén": 6118,
      "adj": 6119,
      "oznak": 6120,
      "tasz": 6121,
      "omoly": 6122,
      "llapí": 6123,
      "div": 6124,
      "lásd": 6125,
      "ódi": 6126,
      "obbi": 6127,
      "ági": 6128,
      "elete": 6129,
      "zinte": 6130,
      "rona": 6131,
      "euts": 6132,
      "ánkó": 6133,
      "iemel": 6134,
      "taxis": 6135,
      "nyűg": 6136,
      "nbe": 6137,
      "rvény": 6138,
      "tk": 6139,
      "vö": 6140,
      "yors": 6141,
      "alco": 6142,
      "ásba": 6143,
      "érfi": 6144,
      "kapas": 6145,
      "etést": 6146,
      "errel": 6147,
      "350": 6148,
      "gésze": 6149,
      "űlés": 6150,
      "db": 6151,
      "ddi": 6152,
      "gol": 6153,
      "gna": 6154,
      "ove": 6155,
      "yék": 6156,
      "ózs": 6157,
      "amok": 6158,
      "ney": 6159,
      "egés": 6160,
      "sir": 6161,
      "plán": 6162,
      "demo": 6163,
      "erie": 6164,
      "rseny": 6165,
      "mtk": 6166,
      "rbán": 6167,
      "úlyos": 6168,
      "81": 6169,
      "aa": 6170,
      "ifi": 6171,
      "ivi": 6172,
      "liz": 6173,
      "rle": 6174,
      "sig": 6175,
      "sug": 6176,
      "sla": 6177,
      "téz": 6178,
      "őtt": 6179,
      "##su": 6180,
      "##cht": 6181,
      "ülhet": 6182,
      "rof": 6183,
      "nds": 6184,
      "síf": 6185,
      "rült": 6186,
      "ldo": 6187,
      "gatás": 6188,
      "zgat": 6189,
      "dését": 6190,
      "etünk": 6191,
      "fúv": 6192,
      "gus": 6193,
      "lár": 6194,
      "mü": 6195,
      "##ou": 6196,
      "##ös": 6197,
      "szkö": 6198,
      "##erá": 6199,
      "etnek": 6200,
      "aran": 6201,
      "##ino": 6202,
      "tion": 6203,
      "##ízi": 6204,
      "zatá": 6205,
      "thé": 6206,
      "akku": 6207,
      "lív": 6208,
      "rmi": 6209,
      "trá": 6210,
      "yí": 6211,
      "észt": 6212,
      "űve": 6213,
      "##bu": 6214,
      "isé": 6215,
      "etsz": 6216,
      "ásnak": 6217,
      "áro": 6218,
      "nico": 6219,
      "ote": 6220,
      "ána": 6221,
      "ztes": 6222,
      "dös": 6223,
      "dir": 6224,
      "trén": 6225,
      "olgá": 6226,
      "ökken": 6227,
      "krém": 6228,
      "gárdá": 6229,
      "erev": 6230,
      "96": 6231,
      "dnek": 6232,
      "kasz": 6233,
      "őzet": 6234,
      "##nár": 6235,
      "##ate": 6236,
      "köve": 6237,
      "bandá": 6238,
      "osb": 6239,
      "die": 6240,
      "kard": 6241,
      "égis": 6242,
      "anadá": 6243,
      "sszab": 6244,
      "kósto": 6245,
      "ct": 6246,
      "fd": 6247,
      "kj": 6248,
      "obo": 6249,
      "pos": 6250,
      "vd": 6251,
      "##vor": 6252,
      "##her": 6253,
      "leve": 6254,
      "aria": 6255,
      "##azar": 6256,
      "kapit": 6257,
      "tté": 6258,
      "üli": 6259,
      "síe": 6260,
      "krízi": 6261,
      "nski": 6262,
      "ermel": 6263,
      "avigá": 6264,
      "pláne": 6265,
      "84": 6266,
      "83": 6267,
      "anyi": 6268,
      "bét": 6269,
      "dw": 6270,
      "dja": 6271,
      "my": 6272,
      "oa": 6273,
      "pom": 6274,
      "pasz": 6275,
      "vit": 6276,
      "yal": 6277,
      "znek": 6278,
      "zze": 6279,
      "íci": 6280,
      "##vár": 6281,
      "szja": 6282,
      "csol": 6283,
      "nej": 6284,
      "sztik": 6285,
      "aid": 6286,
      "rös": 6287,
      "ipp": 6288,
      "skót": 6289,
      "dolt": 6290,
      "allg": 6291,
      "uefa": 6292,
      "kolá": 6293,
      "lámpa": 6294,
      "vata": 6295,
      "béli": 6296,
      "lvas": 6297,
      "lvá": 6298,
      "yne": 6299,
      "zar": 6300,
      "##rc": 6301,
      "##gá": 6302,
      "isel": 6303,
      "enü": 6304,
      "kile": 6305,
      "erü": 6306,
      "ikr": 6307,
      "adar": 6308,
      "##csa": 6309,
      "ozik": 6310,
      "kezte": 6311,
      "izom": 6312,
      "ntra": 6313,
      "hetet": 6314,
      "lőre": 6315,
      "veté": 6316,
      "dkg": 6317,
      "kaz": 6318,
      "kúr": 6319,
      "mbo": 6320,
      "nai": 6321,
      "snek": 6322,
      "yén": 6323,
      "zb": 6324,
      "##vo": 6325,
      "megt": 6326,
      "alla": 6327,
      "eno": 6328,
      "okaj": 6329,
      "esco": 6330,
      "arag": 6331,
      "nig": 6332,
      "nita": 6333,
      "inno": 6334,
      "egh": 6335,
      "irál": 6336,
      "dög": 6337,
      "##vald": 6338,
      "epé": 6339,
      "agá": 6340,
      "rmdsz": 6341,
      "eszk": 6342,
      "sav": 6343,
      "lsős": 6344,
      "ladá": 6345,
      "cas": 6346,
      "dl": 6347,
      "dók": 6348,
      "ehe": 6349,
      "fg": 6350,
      "lkoz": 6351,
      "pek": 6352,
      "pazar": 6353,
      "sai": 6354,
      "vk": 6355,
      "zeke": 6356,
      "szag": 6357,
      "ásul": 6358,
      "orol": 6359,
      "ltot": 6360,
      "eggel": 6361,
      "talm": 6362,
      "álták": 6363,
      "rop": 6364,
      "áza": 6365,
      "oltá": 6366,
      "rébe": 6367,
      "imbó": 6368,
      "info": 6369,
      "iós": 6370,
      "hirde": 6371,
      "mnv": 6372,
      "trém": 6373,
      "úsít": 6374,
      "tléti": 6375,
      "bag": 6376,
      "hes": 6377,
      "nge": 6378,
      "nvald": 6379,
      "yg": 6380,
      "ún": 6381,
      "##leg": 6382,
      "arsó": 6383,
      "##aif": 6384,
      "egel": 6385,
      "abc": 6386,
      "muta": 6387,
      "bob": 6388,
      "éket": 6389,
      "tatja": 6390,
      "trad": 6391,
      "rgon": 6392,
      "110": 6393,
      "rali": 6394,
      "etők": 6395,
      "ear": 6396,
      "kác": 6397,
      "sat": 6398,
      "yik": 6399,
      "ősze": 6400,
      "##we": 6401,
      "szar": 6402,
      "nyban": 6403,
      "etve": 6404,
      "enleg": 6405,
      "érés": 6406,
      "hatá": 6407,
      "írá": 6408,
      "lyuk": 6409,
      "álya": 6410,
      "tékos": 6411,
      "auer": 6412,
      "eine": 6413,
      "szkár": 6414,
      "tánc": 6415,
      "öml": 6416,
      "órház": 6417,
      "őzés": 6418,
      "tipp": 6419,
      "átran": 6420,
      "spór": 6421,
      "ajax": 6422,
      "91": 6423,
      "mta": 6424,
      "nö": 6425,
      "ox": 6426,
      "rgi": 6427,
      "sco": 6428,
      "yako": 6429,
      "nyez": 6430,
      "eki": 6431,
      "ekb": 6432,
      "banda": 6433,
      "közöl": 6434,
      "egm": 6435,
      "sorba": 6436,
      "spa": 6437,
      "ovas": 6438,
      "usic": 6439,
      "ellé": 6440,
      "álisa": 6441,
      "atio": 6442,
      "iszte": 6443,
      "őss": 6444,
      "que": 6445,
      "750": 6446,
      "őjé": 6447,
      "úsí": 6448,
      "cí": 6449,
      "eva": 6450,
      "fh": 6451,
      "kák": 6452,
      "mát": 6453,
      "nás": 6454,
      "rul": 6455,
      "nyo": 6456,
      "lee": 6457,
      "akci": 6458,
      "ema": 6459,
      "gya": 6460,
      "tutt": 6461,
      "díja": 6462,
      "ander": 6463,
      "angel": 6464,
      "iáj": 6465,
      "leke": 6466,
      "iszté": 6467,
      "prom": 6468,
      "afp": 6469,
      "aye": 6470,
      "rzé": 6471,
      "elésé": 6472,
      "tador": 6473,
      "dül": 6474,
      "ln": 6475,
      "lú": 6476,
      "sf": 6477,
      "tág": 6478,
      "tép": 6479,
      "uch": 6480,
      "zek": 6481,
      "szb": 6482,
      "szöv": 6483,
      "eka": 6484,
      "olog": 6485,
      "apjá": 6486,
      "stan": 6487,
      "klip": 6488,
      "elye": 6489,
      "ariá": 6490,
      "esült": 6491,
      "öszön": 6492,
      "77": 6493,
      "gvh": 6494,
      "któ": 6495,
      "rta": 6496,
      "td": 6497,
      "tors": 6498,
      "áh": 6499,
      "##go": 6500,
      "##mo": 6501,
      "##óz": 6502,
      "álj": 6503,
      "etan": 6504,
      "legy": 6505,
      "akko": 6506,
      "orfk": 6507,
      "ajka": 6508,
      "abl": 6509,
      "hiv": 6510,
      "rtu": 6511,
      "rtjá": 6512,
      "ört": 6513,
      "zeté": 6514,
      "veze": 6515,
      "kuba": 6516,
      "ovák": 6517,
      "lenül": 6518,
      "atása": 6519,
      "toll": 6520,
      "antib": 6521,
      "kombi": 6522,
      "ainz": 6523,
      "guru": 6524,
      "zako": 6525,
      "radar": 6526,
      "désé": 6527,
      "rké": 6528,
      "gróf": 6529,
      "cnn": 6530,
      "ulmán": 6531,
      "bt": 6532,
      "gta": 6533,
      "hb": 6534,
      "sát": 6535,
      "ík": 6536,
      "##mp": 6537,
      "##ón": 6538,
      "élj": 6539,
      "előn": 6540,
      "sztes": 6541,
      "talp": 6542,
      "váll": 6543,
      "avis": 6544,
      "entő": 6545,
      "özl": 6546,
      "özöl": 6547,
      "szülé": 6548,
      "sky": 6549,
      "tohl": 6550,
      "ictor": 6551,
      "170": 6552,
      "ölté": 6553,
      "sárká": 6554,
      "egfel": 6555,
      "by": 6556,
      "csz": 6557,
      "com": 6558,
      "dús": 6559,
      "gú": 6560,
      "who": 6561,
      "yn": 6562,
      "yit": 6563,
      "zmé": 6564,
      "##sá": 6565,
      "##jk": 6566,
      "aza": 6567,
      "alas": 6568,
      "csel": 6569,
      "akab": 6570,
      "gynö": 6571,
      "arn": 6572,
      "aim": 6573,
      "kkv": 6574,
      "erede": 6575,
      "bőr": 6576,
      "regor": 6577,
      "own": 6578,
      "koll": 6579,
      "ife": 6580,
      "organ": 6581,
      "stop": 6582,
      "cszka": 6583,
      "bit": 6584,
      "jl": 6585,
      "kho": 6586,
      "mh": 6587,
      "ool": 6588,
      "sett": 6589,
      "vc": 6590,
      "ául": 6591,
      "##eu": 6592,
      "##zz": 6593,
      "éry": 6594,
      "anch": 6595,
      "felü": 6596,
      "gyor": 6597,
      "gyek": 6598,
      "rey": 6599,
      "korlá": 6600,
      "ntel": 6601,
      "özi": 6602,
      "auru": 6603,
      "galax": 6604,
      "taps": 6605,
      "125": 6606,
      "nnen": 6607,
      "vésze": 6608,
      "nform": 6609,
      "züle": 6610,
      "nkább": 6611,
      "78": 6612,
      "ante": 6613,
      "jü": 6614,
      "nv": 6615,
      "rló": 6616,
      "set": 6617,
      "##ec": 6618,
      "##vm": 6619,
      "enk": 6620,
      "atan": 6621,
      "arch": 6622,
      "dex": 6623,
      "agyo": 6624,
      "izon": 6625,
      "euge": 6626,
      "rook": 6627,
      "aszn": 6628,
      "grán": 6629,
      "table": 6630,
      "',": 6631,
      "bp": 6632,
      "bék": 6633,
      "bort": 6634,
      "iális": 6635,
      "pól": 6636,
      "réz": 6637,
      "vp": 6638,
      "áva": 6639,
      "##rs": 6640,
      "##out": 6641,
      "szka": 6642,
      "elha": 6643,
      "alta": 6644,
      "erná": 6645,
      "idro": 6646,
      "mária": 6647,
      "egr": 6648,
      "irr": 6649,
      "dör": 6650,
      "lót": 6651,
      "nkr": 6652,
      "örté": 6653,
      "kké": 6654,
      "agu": 6655,
      "agas": 6656,
      "pofá": 6657,
      "szenv": 6658,
      "ect": 6659,
      "aust": 6660,
      "kurz": 6661,
      "hév": 6662,
      "algó": 6663,
      "79": 6664,
      "76": 6665,
      "93": 6666,
      "echn": 6667,
      "nve": 6668,
      "roz": 6669,
      "tis": 6670,
      "uri": 6671,
      "vát": 6672,
      "yp": 6673,
      "ádi": 6674,
      "##wo": 6675,
      "##ane": 6676,
      "isco": 6677,
      "leck": 6678,
      "ardi": 6679,
      "elők": 6680,
      "néni": 6681,
      "járdá": 6682,
      "viv": 6683,
      "menul": 6684,
      "kalau": 6685,
      "stom": 6686,
      "seout": 6687,
      "monda": 6688,
      "ebel": 6689,
      "bajor": 6690,
      "özv": 6691,
      "ándo": 6692,
      "eitu": 6693,
      "mazo": 6694,
      "opo": 6695,
      "torz": 6696,
      "kában": 6697,
      "tapad": 6698,
      "poén": 6699,
      "arkó": 6700,
      "dax": 6701,
      "puph": 6702,
      "ivó": 6703,
      "söp": 6704,
      "táll": 6705,
      "nyaká": 6706,
      "dugó": 6707,
      "mfb": 6708,
      "rősöd": 6709,
      "87": 6710,
      "gai": 6711,
      "ret": 6712,
      "unt": 6713,
      "##th": 6714,
      "##ey": 6715,
      "szin": 6716,
      "mid": 6717,
      "ater": 6718,
      "esn": 6719,
      "erme": 6720,
      "érf": 6721,
      "gyez": 6722,
      "etter": 6723,
      "orlá": 6724,
      "ztá": 6725,
      "rim": 6726,
      "anyjá": 6727,
      "toler": 6728,
      "nikó": 6729,
      "parti": 6730,
      "arie": 6731,
      "tarif": 6732,
      "toke": 6733,
      "86": 6734,
      "bad": 6735,
      "cr": 6736,
      "gt": 6737,
      "uis": 6738,
      "úli": 6739,
      "##có": 6740,
      "##úz": 6741,
      "elve": 6742,
      "erin": 6743,
      "ammer": 6744,
      "adt": 6745,
      "lega": 6746,
      "szte": 6747,
      "ttat": 6748,
      "apu": 6749,
      "rtés": 6750,
      "zóná": 6751,
      "ahre": 6752,
      "ball": 6753,
      "elly": 6754,
      "nano": 6755,
      "elked": 6756,
      "anuel": 6757,
      "ornél": 6758,
      "ollár": 6759,
      "rlát": 6760,
      "nnal": 6761,
      "laza": 6762,
      "rovat": 6763,
      "rovar": 6764,
      "zázad": 6765,
      "fbi": 6766,
      "mák": 6767,
      "rap": 6768,
      "##ém": 6769,
      "##pó": 6770,
      "atric": 6771,
      "ettő": 6772,
      "ade": 6773,
      "##étá": 6774,
      "##ill": 6775,
      "tew": 6776,
      "edro": 6777,
      "##row": 6778,
      "részv": 6779,
      "ndj": 6780,
      "boc": 6781,
      "nált": 6782,
      "diff": 6783,
      "max": 6784,
      "lágy": 6785,
      "égbe": 6786,
      "udt": 6787,
      "erder": 6788,
      "káp": 6789,
      "riti": 6790,
      "arihu": 6791,
      "grav": 6792,
      "önyve": 6793,
      "cia": 6794,
      "fk": 6795,
      "latt": 6796,
      "mg": 6797,
      "tén": 6798,
      "tkoz": 6799,
      "üle": 6800,
      "##van": 6801,
      "kics": 6802,
      "led": 6803,
      "ilvá": 6804,
      "bay": 6805,
      "appa": 6806,
      "itan": 6807,
      "ámo": 6808,
      "sty": 6809,
      "stin": 6810,
      "lake": 6811,
      "grúz": 6812,
      "urray": 6813,
      "rmin": 6814,
      "vise": 6815,
      "édő": 6816,
      "ario": 6817,
      "szige": 6818,
      "xii": 6819,
      "450": 6820,
      "laudi": 6821,
      "lívi": 6822,
      "gráná": 6823,
      "bok": 6824,
      "dra": 6825,
      "gs": 6826,
      "kus": 6827,
      "kába": 6828,
      "paj": 6829,
      "rh": 6830,
      "rön": 6831,
      "rbá": 6832,
      "rka": 6833,
      "xxi": 6834,
      "ői": 6835,
      "##ía": 6836,
      "álma": 6837,
      "anne": 6838,
      "amor": 6839,
      "##ast": 6840,
      "haw": 6841,
      "oztak": 6842,
      "asa": 6843,
      "asc": 6844,
      "értes": 6845,
      "omló": 6846,
      "apcs": 6847,
      "ried": 6848,
      "rtet": 6849,
      "salá": 6850,
      "ahe": 6851,
      "very": 6852,
      "zotta": 6853,
      "bara": 6854,
      "klá": 6855,
      "ngat": 6856,
      "ájék": 6857,
      "eszté": 6858,
      "now": 6859,
      "zeri": 6860,
      "bónu": 6861,
      "kvótá": 6862,
      "golf": 6863,
      "89": 6864,
      "99": 6865,
      "cac": 6866,
      "gör": 6867,
      "mít": 6868,
      "nko": 6869,
      "pít": 6870,
      "rség": 6871,
      "ye": 6872,
      "zse": 6873,
      "##éta": 6874,
      "elü": 6875,
      "etté": 6876,
      "arro": 6877,
      "átha": 6878,
      "##uti": 6879,
      "kedet": 6880,
      "nke": 6881,
      "tová": 6882,
      "verto": 6883,
      "bales": 6884,
      "léc": 6885,
      "fox": 6886,
      "uma": 6887,
      "rótt": 6888,
      "ítésé": 6889,
      "logen": 6890,
      "mór": 6891,
      "düh": 6892,
      "topl": 6893,
      "sign": 6894,
      "fl": 6895,
      "gí": 6896,
      "##ee": 6897,
      "##cé": 6898,
      "##őr": 6899,
      "azio": 6900,
      "ezz": 6901,
      "szerk": 6902,
      "erei": 6903,
      "lex": 6904,
      "ary": 6905,
      "##uli": 6906,
      "egér": 6907,
      "omsz": 6908,
      "ukar": 6909,
      "tási": 6910,
      "zatok": 6911,
      "usch": 6912,
      "acq": 6913,
      "olgo": 6914,
      "ények": 6915,
      "ényez": 6916,
      "ldal": 6917,
      "zeret": 6918,
      "lana": 6919,
      "lomás": 6920,
      "tróf": 6921,
      "ávo": 6922,
      "mkp": 6923,
      "dete": 6924,
      "smink": 6925,
      "skálá": 6926,
      "bh": 6927,
      "cx": 6928,
      "dző": 6929,
      "eed": 6930,
      "gge": 6931,
      "hake": 6932,
      "ial": 6933,
      "lna": 6934,
      "lelő": 6935,
      "paga": 6936,
      "uszo": 6937,
      "vü": 6938,
      "xa": 6939,
      "zír": 6940,
      "nyu": 6941,
      "etor": 6942,
      "atar": 6943,
      "aron": 6944,
      "ortt": 6945,
      "árta": 6946,
      "átá": 6947,
      "ozók": 6948,
      "egg": 6949,
      "edély": 6950,
      "ajor": 6951,
      "őrö": 6952,
      "itim": 6953,
      "rtás": 6954,
      "road": 6955,
      "lőb": 6956,
      "liber": 6957,
      "andra": 6958,
      "antik": 6959,
      "aff": 6960,
      "arth": 6961,
      "pata": 6962,
      "270": 6963,
      "daság": 6964,
      "kaszi": 6965,
      "dve": 6966,
      "gér": 6967,
      "nol": 6968,
      "pd": 6969,
      "##nó": 6970,
      "##cc": 6971,
      "##ua": 6972,
      "akra": 6973,
      "emo": 6974,
      "ikö": 6975,
      "adam": 6976,
      "raft": 6977,
      "ságo": 6978,
      "##utá": 6979,
      "terh": 6980,
      "íto": 6981,
      "ráj": 6982,
      "lőz": 6983,
      "lakik": 6984,
      "ipos": 6985,
      "romb": 6986,
      "ftse": 6987,
      "gyana": 6988,
      "favor": 6989,
      "ádas": 6990,
      "tess": 6991,
      "gének": 6992,
      "ügg": 6993,
      "alált": 6994,
      "yógy": 6995,
      "örtén": 6996,
      "dz": 6997,
      "gben": 6998,
      "lmá": 6999,
      "ym": 7000,
      "yb": 7001,
      "yai": 7002,
      "##der": 7003,
      "##ev": 7004,
      "##ker": 7005,
      "alaj": 7006,
      "erl": 7007,
      "olla": 7008,
      "anul": 7009,
      "árl": 7010,
      "vanc": 7011,
      "áltak": 7012,
      "napok": 7013,
      "nkur": 7014,
      "szón": 7015,
      "tobo": 7016,
      "búvár": 7017,
      "atiku": 7018,
      "laude": 7019,
      "krón": 7020,
      "ütyü": 7021,
      "xavi": 7022,
      "fit": 7023,
      "gam": 7024,
      "hű": 7025,
      "isze": 7026,
      "nít": 7027,
      "rve": 7028,
      "ób": 7029,
      "##dó": 7030,
      "szlet": 7031,
      "egyel": 7032,
      "alti": 7033,
      "ossza": 7034,
      "idat": 7035,
      "renc": 7036,
      "kerg": 7037,
      "ntin": 7038,
      "jók": 7039,
      "ölel": 7040,
      "##riá": 7041,
      "léb": 7042,
      "risc": 7043,
      "tory": 7044,
      "túrá": 7045,
      "strom": 7046,
      "orthy": 7047,
      "etébe": 7048,
      "vese": 7049,
      "360": 7050,
      "trip": 7051,
      "bxc": 7052,
      "súg": 7053,
      "92": 7054,
      "bg": 7055,
      "djá": 7056,
      "hbo": 7057,
      "tné": 7058,
      "##fo": 7059,
      "szko": 7060,
      "##ent": 7061,
      "ezne": 7062,
      "atch": 7063,
      "band": 7064,
      "etto": 7065,
      "orok": 7066,
      "orrá": 7067,
      "##itz": 7068,
      "ozna": 7069,
      "ndu": 7070,
      "nku": 7071,
      "lift": 7072,
      "dox": 7073,
      "ökő": 7074,
      "ágban": 7075,
      "tömb": 7076,
      "zúz": 7077,
      "söd": 7078,
      "ilágo": 7079,
      "líbi": 7080,
      "ioren": 7081,
      "pompá": 7082,
      "aug": 7083,
      "mand": 7084,
      "tke": 7085,
      "vés": 7086,
      "zít": 7087,
      "##ng": 7088,
      "##ler": 7089,
      "##gyi": 7090,
      "isch": 7091,
      "nyag": 7092,
      "##are": 7093,
      "##ara": 7094,
      "kést": 7095,
      "anem": 7096,
      "anno": 7097,
      "töt": 7098,
      "árda": 7099,
      "neo": 7100,
      "abre": 7101,
      "tank": 7102,
      "épes": 7103,
      "sei": 7104,
      "sapká": 7105,
      "onti": 7106,
      "##oper": 7107,
      "elyi": 7108,
      "melé": 7109,
      "ántsz": 7110,
      "tomb": 7111,
      "gálá": 7112,
      "zámo": 7113,
      "léle": 7114,
      "conom": 7115,
      "petá": 7116,
      "xviii": 7117,
      "aal": 7118,
      "aab": 7119,
      "bog": 7120,
      "eol": 7121,
      "fák": 7122,
      "kná": 7123,
      "pör": 7124,
      "vv": 7125,
      "áta": 7126,
      "##uy": 7127,
      "##fb": 7128,
      "egyhá": 7129,
      "lej": 7130,
      "anka": 7131,
      "árban": 7132,
      "áruk": 7133,
      "terr": 7134,
      "iné": 7135,
      "lását": 7136,
      "mác": 7137,
      "ouch": 7138,
      "ágó": 7139,
      "joe": 7140,
      "tiné": 7141,
      "ppe": 7142,
      "obrá": 7143,
      "patká": 7144,
      "xiii": 7145,
      "nbc": 7146,
      "bénu": 7147,
      "lízin": 7148,
      "lot": 7149,
      "lma": 7150,
      "nés": 7151,
      "pum": 7152,
      "sag": 7153,
      "őző": 7154,
      "##lor": 7155,
      "##öm": 7156,
      "ella": 7157,
      "alb": 7158,
      "gyér": 7159,
      "gymá": 7160,
      "amel": 7161,
      "ador": 7162,
      "##ada": 7163,
      "nif": 7164,
      "öse": 7165,
      "egl": 7166,
      "vii": 7167,
      "avan": 7168,
      "lőn": 7169,
      "eib": 7170,
      "stone": 7171,
      "bojk": 7172,
      "leté": 7173,
      "senk": 7174,
      "agda": 7175,
      "lapjá": 7176,
      "tagj": 7177,
      "özbe": 7178,
      "filme": 7179,
      "sked": 7180,
      "urt": 7181,
      "éggel": 7182,
      "fix": 7183,
      "rome": 7184,
      "kább": 7185,
      "lash": 7186,
      "xix": 7187,
      "##lio": 7188,
      "ávol": 7189,
      "gála": 7190,
      "eréb": 7191,
      "cdu": 7192,
      "fmm": 7193,
      "spóro": 7194,
      "lila": 7195,
      "bát": 7196,
      "bró": 7197,
      "gért": 7198,
      "hm": 7199,
      "nr": 7200,
      "onk": 7201,
      "pcs": 7202,
      "war": 7203,
      "áho": 7204,
      "##cd": 7205,
      "egyén": 7206,
      "teva": 7207,
      "törés": 7208,
      "asm": 7209,
      "ulaj": 7210,
      "rimer": 7211,
      "épek": 7212,
      "lőbb": 7213,
      "tását": 7214,
      "ima": 7215,
      "skand": 7216,
      "égre": 7217,
      "nfo": 7218,
      "aylor": 7219,
      "remen": 7220,
      "adic": 7221,
      "edése": 7222,
      "órhá": 7223,
      "morzs": 7224,
      "atya": 7225,
      "oecd": 7226,
      "ompuy": 7227,
      "iesta": 7228,
      "átrai": 7229,
      "cat": 7230,
      "gla": 7231,
      "iány": 7232,
      "mama": 7233,
      "ois": 7234,
      "sín": 7235,
      "sátor": 7236,
      "vt": 7237,
      "yun": 7238,
      "őf": 7239,
      "őnek": 7240,
      "##yer": 7241,
      "##pán": 7242,
      "##íd": 7243,
      "elne": 7244,
      "egymá": 7245,
      "etra": 7246,
      "ats": 7247,
      "atin": 7248,
      "erra": 7249,
      "arom": 7250,
      "nice": 7251,
      "ray": 7252,
      "áték": 7253,
      "íte": 7254,
      "ase": 7255,
      "egít": 7256,
      "ntő": 7257,
      "bau": 7258,
      "apok": 7259,
      "avá": 7260,
      "llí": 7261,
      "eisz": 7262,
      "kezdő": 7263,
      "lyok": 7264,
      "tate": 7265,
      "kun": 7266,
      "ődö": 7267,
      "zacs": 7268,
      "tójá": 7269,
      "mob": 7270,
      "pred": 7271,
      "elvét": 7272,
      "zerző": 7273,
      "deme": 7274,
      "230": 7275,
      "lves": 7276,
      "orris": 7277,
      "lazí": 7278,
      "ermo": 7279,
      "ydney": 7280,
      "layb": 7281,
      "sugar": 7282,
      "bv": 7283,
      "bis": 7284,
      "jek": 7285,
      "lbá": 7286,
      "mny": 7287,
      "máz": 7288,
      "pír": 7289,
      "öki": 7290,
      "##tu": 7291,
      "##esz": 7292,
      "##ór": 7293,
      "elbou": 7294,
      "misz": 7295,
      "ekü": 7296,
      "esít": 7297,
      "tökö": 7298,
      "ute": 7299,
      "##rov": 7300,
      "olya": 7301,
      "abe": 7302,
      "buta": 7303,
      "lyn": 7304,
      "age": 7305,
      "endez": 7306,
      "karc": 7307,
      "kent": 7308,
      "oport": 7309,
      "ősség": 7310,
      "nob": 7311,
      "220": 7312,
      "dése": 7313,
      "táli": 7314,
      "alter": 7315,
      "gombá": 7316,
      "sétá": 7317,
      "théni": 7318,
      "lbász": 7319,
      "ece": 7320,
      "káz": 7321,
      "sn": 7322,
      "ütö": 7323,
      "##ye": 7324,
      "##osz": 7325,
      "szes": 7326,
      "etz": 7327,
      "enry": 7328,
      "##ika": 7329,
      "ottá": 7330,
      "álla": 7331,
      "intr": 7332,
      "amis": 7333,
      "##cse": 7334,
      "áthat": 7335,
      "igan": 7336,
      "oman": 7337,
      "abd": 7338,
      "buj": 7339,
      "estü": 7340,
      "biol": 7341,
      "rtő": 7342,
      "ályá": 7343,
      "entel": 7344,
      "lások": 7345,
      "klic": 7346,
      "ssi": 7347,
      "ágr": 7348,
      "porsó": 7349,
      "ling": 7350,
      "bébi": 7351,
      "shi": 7352,
      "lkész": 7353,
      "kola": 7354,
      "yerek": 7355,
      "ocus": 7356,
      "rizs": 7357,
      "amuel": 7358,
      "mberi": 7359,
      "kvóta": 7360,
      "vpop": 7361,
      "aar": 7362,
      "eus": 7363,
      "eszá": 7364,
      "iet": 7365,
      "lős": 7366,
      "tort": 7367,
      "zaz": 7368,
      "óh": 7369,
      "őb": 7370,
      "##bel": 7371,
      "szély": 7372,
      "azai": 7373,
      "alle": 7374,
      "ole": 7375,
      "akam": 7376,
      "gyúr": 7377,
      "tech": 7378,
      "tehe": 7379,
      "raf": 7380,
      "bubor": 7381,
      "tanf": 7382,
      "rix": 7383,
      "ülne": 7384,
      "propó": 7385,
      "rtek": 7386,
      "liu": 7387,
      "ályán": 7388,
      "síp": 7389,
      "lju": 7390,
      "duz": 7391,
      "ibé": 7392,
      "puská": 7393,
      "ncsé": 7394,
      "240": 7395,
      "lomb": 7396,
      "yeng": 7397,
      "lame": 7398,
      "astra": 7399,
      "öntő": 7400,
      "fxe": 7401,
      "ature": 7402,
      "kajak": 7403,
      "anyám": 7404,
      "aids": 7405,
      "naiv": 7406,
      "mnyp": 7407,
      "aszo": 7408,
      "dh": 7409,
      "kand": 7410,
      "sán": 7411,
      "uft": 7412,
      "##sk": 7413,
      "##ver": 7414,
      "orp": 7415,
      "utott": 7416,
      "áng": 7417,
      "tav": 7418,
      "egi": 7419,
      "hián": 7420,
      "itk": 7421,
      "főt": 7422,
      "lyos": 7423,
      "réb": 7424,
      "óká": 7425,
      "lenőr": 7426,
      "ényeg": 7427,
      "mati": 7428,
      "ehető": 7429,
      "fáj": 7430,
      "mcd": 7431,
      "zámít": 7432,
      "iáll": 7433,
      "94": 7434,
      "dúl": 7435,
      "oug": 7436,
      "pm": 7437,
      "pí": 7438,
      "sit": 7439,
      "vék": 7440,
      "völ": 7441,
      "##lin": 7442,
      "##ík": 7443,
      "nyv": 7444,
      "álna": 7445,
      "etős": 7446,
      "kir": 7447,
      "bec": 7448,
      "adr": 7449,
      "ségei": 7450,
      "oza": 7451,
      "ajvan": 7452,
      "apó": 7453,
      "rio": 7454,
      "agd": 7455,
      "onte": 7456,
      "önös": 7457,
      "özö": 7458,
      "usan": 7459,
      "krom": 7460,
      "acz": 7461,
      "lekt": 7462,
      "áldo": 7463,
      "ionel": 7464,
      "rület": 7465,
      "incze": 7466,
      "lefo": 7467,
      "repül": 7468,
      "kgfb": 7469,
      "pref": 7470,
      "űleg": 7471,
      "aiser": 7472,
      "ufth": 7473,
      "f1": 7474,
      "gít": 7475,
      "ié": 7476,
      "iq": 7477,
      "jim": 7478,
      "kaze": 7479,
      "map": 7480,
      "mcs": 7481,
      "pv": 7482,
      "tát": 7483,
      "ugy": 7484,
      "vw": 7485,
      "yés": 7486,
      "zug": 7487,
      "óva": 7488,
      "elíd": 7489,
      "okor": 7490,
      "erni": 7491,
      "iki": 7492,
      "áth": 7493,
      "asda": 7494,
      "eda": 7495,
      "ahn": 7496,
      "lice": 7497,
      "laki": 7498,
      "tűr": 7499,
      "osztá": 7500,
      "láss": 7501,
      "tője": 7502,
      "duó": 7503,
      "lou": 7504,
      "toc": 7505,
      "róbá": 7506,
      "bágy": 7507,
      "kóru": 7508,
      "piszt": 7509,
      "piszk": 7510,
      "porno": 7511,
      "lige": 7512,
      "zések": 7513,
      "ratif": 7514,
      "ierre": 7515,
      "tigl": 7516,
      "skála": 7517,
      "dakar": 7518,
      "postá": 7519,
      "austr": 7520,
      "midt": 7521,
      "völgy": 7522,
      "asdaq": 7523,
      "97": 7524,
      "dami": 7525,
      "eer": 7526,
      "fát": 7527,
      "gva": 7528,
      "ieg": 7529,
      "ied": 7530,
      "jp": 7531,
      "jto": 7532,
      "lai": 7533,
      "ook": 7534,
      "vest": 7535,
      "óni": 7536,
      "ödi": 7537,
      "##sh": 7538,
      "##uz": 7539,
      "szág": 7540,
      "eze": 7541,
      "alok": 7542,
      "eké": 7543,
      "erű": 7544,
      "erén": 7545,
      "ols": 7546,
      "állá": 7547,
      "amsu": 7548,
      "once": 7549,
      "dep": 7550,
      "áter": 7551,
      "kond": 7552,
      "inne": 7553,
      "ozs": 7554,
      "mási": 7555,
      "kéte": 7556,
      "edin": 7557,
      "őrs": 7558,
      "szakm": 7559,
      "ciál": 7560,
      "apj": 7561,
      "irkó": 7562,
      "roy": 7563,
      "ndé": 7564,
      "nkh": 7565,
      "box": 7566,
      "ahm": 7567,
      "ciój": 7568,
      "lenn": 7569,
      "lássa": 7570,
      "áraó": 7571,
      "eller": 7572,
      "orvai": 7573,
      "dur": 7574,
      "rud": 7575,
      "ickó": 7576,
      "evez": 7577,
      "komp": 7578,
      "kac": 7579,
      "lgá": 7580,
      "bukar": 7581,
      "stoba": 7582,
      "avari": 7583,
      "550": 7584,
      "gps": 7585,
      "##phy": 7586,
      "hf6": 7587,
      "aréná": 7588,
      "tortá": 7589,
      "aú": 7590,
      "bat": 7591,
      "bbe": 7592,
      "cru": 7593,
      "dot": 7594,
      "eig": 7595,
      "hg": 7596,
      "sam": 7597,
      "ucs": 7598,
      "vh": 7599,
      "wan": 7600,
      "észe": 7601,
      "##rin": 7602,
      "##űr": 7603,
      "azin": 7604,
      "ködés": 7605,
      "etw": 7606,
      "erik": 7607,
      "ernek": 7608,
      "erve": 7609,
      "olk": 7610,
      "arb": 7611,
      "oroz": 7612,
      "nij": 7613,
      "nich": 7614,
      "##ute": 7615,
      "telé": 7616,
      "kapar": 7617,
      "aiff": 7618,
      "laus": 7619,
      "bac": 7620,
      "bisz": 7621,
      "itat": 7622,
      "nálj": 7623,
      "dier": 7624,
      "anyát": 7625,
      "néma": 7626,
      "özül": 7627,
      "sim": 7628,
      "iper": 7629,
      "nyij": 7630,
      "lobe": 7631,
      "öké": 7632,
      "alka": 7633,
      "kaszá": 7634,
      "fekt": 7635,
      "lotta": 7636,
      "sós": 7637,
      "210": 7638,
      "nbh": 7639,
      "kabri": 7640,
      "gomi": 7641,
      "hxd": 7642,
      "ancia": 7643,
      "ascal": 7644,
      "akamu": 7645,
      "eop": 7646,
      "gem": 7647,
      "gki": 7648,
      "hán": 7649,
      "jer": 7650,
      "nja": 7651,
      "pin": 7652,
      "pis": 7653,
      "taz": 7654,
      "íván": 7655,
      "egysz": 7656,
      "alp": 7657,
      "aldo": 7658,
      "gyep": 7659,
      "gyelm": 7660,
      "intim": 7661,
      "arka": 7662,
      "onna": 7663,
      "uti": 7664,
      "edel": 7665,
      "irá": 7666,
      "rice": 7667,
      "tásba": 7668,
      "ékbe": 7669,
      "sep": 7670,
      "ciók": 7671,
      "lást": 7672,
      "említ": 7673,
      "kenu": 7674,
      "arco": 7675,
      "tapin": 7676,
      "ström": 7677,
      "ffy": 7678,
      "ihlet": 7679,
      "traf": 7680,
      "lámpá": 7681,
      "sárgá": 7682,
      "áfa": 7683,
      "yelv": 7684,
      "zord": 7685,
      "énztá": 7686,
      "mfesz": 7687,
      "limpi": 7688,
      "auren": 7689,
      "pajzs": 7690,
      "onka": 7691,
      "sánc": 7692,
      "bély": 7693,
      "evel": 7694,
      "iró": 7695,
      "lanc": 7696,
      "pú": 7697,
      "tnak": 7698,
      "éf": 7699,
      "##yd": 7700,
      "##win": 7701,
      "szít": 7702,
      "##ana": 7703,
      "nyuká": 7704,
      "##old": 7705,
      "alin": 7706,
      "oker": 7707,
      "rei": 7708,
      "rent": 7709,
      "ega": 7710,
      "babo": 7711,
      "cib": 7712,
      "józs": 7713,
      "odr": 7714,
      "ahl": 7715,
      "agán": 7716,
      "öldi": 7717,
      "ládá": 7718,
      "sang": 7719,
      "anti": 7720,
      "redit": 7721,
      "ultin": 7722,
      "ősé": 7723,
      "pór": 7724,
      "lfog": 7725,
      "purs": 7726,
      "linz": 7727,
      "monox": 7728,
      "sszef": 7729,
      "lavin": 7730,
      "cds": 7731,
      "lízis": 7732,
      "aréna": 7733,
      "kazah": 7734,
      "3d": 7735,
      "dog": 7736,
      "gott": 7737,
      "lr": 7738,
      "lba": 7739,
      "mak": 7740,
      "oi": 7741,
      "slat": 7742,
      "yt": 7743,
      "öp": 7744,
      "##des": 7745,
      "##kin": 7746,
      "##ram": 7747,
      "##bz": 7748,
      "álmá": 7749,
      "atas": 7750,
      "olin": 7751,
      "legye": 7752,
      "##ili": 7753,
      "ltic": 7754,
      "oms": 7755,
      "viii": 7756,
      "ajl": 7757,
      "odnár": 7758,
      "diétá": 7759,
      "marha": 7760,
      "zők": 7761,
      "arma": 7762,
      "kte": 7763,
      "aud": 7764,
      "zava": 7765,
      "ztatá": 7766,
      "tók": 7767,
      "ágon": 7768,
      "rúd": 7769,
      "totá": 7770,
      "ölts": 7771,
      "rati": 7772,
      "sáról": 7773,
      "efe": 7774,
      "öntö": 7775,
      "rátá": 7776,
      "##ucc": 7777,
      "(!": 7778,
      "dx": 7779,
      "haif": 7780,
      "iha": 7781,
      "khl": 7782,
      "méz": 7783,
      "pok": 7784,
      "uf": 7785,
      "witz": 7786,
      "zemb": 7787,
      "ücs": 7788,
      "##sd": 7789,
      "##zl": 7790,
      "##hh": 7791,
      "##ore": 7792,
      "köv": 7793,
      "enna": 7794,
      "eske": 7795,
      "ikó": 7796,
      "anny": 7797,
      "aden": 7798,
      "adha": 7799,
      "orba": 7800,
      "legal": 7801,
      "inde": 7802,
      "ilba": 7803,
      "abucc": 7804,
      "ciá": 7805,
      "alapj": 7806,
      "soka": 7807,
      "ity": 7808,
      "epül": 7809,
      "dij": 7810,
      "lisz": 7811,
      "ental": 7812,
      "gyűr": 7813,
      "evro": 7814,
      "tbl": 7815,
      "bili": 7816,
      "afe": 7817,
      "kmén": 7818,
      "efo": 7819,
      "yard": 7820,
      "vásá": 7821,
      "birkó": 7822,
      "rrel": 7823,
      "mbul": 7824,
      "ncy": 7825,
      "tumor": 7826,
      "oeb": 7827,
      "klah": 7828,
      "smind": 7829,
      "dása": 7830,
      "enoa": 7831,
      "(!)": 7832,
      "dúr": 7833,
      "gadt": 7834,
      "hős": 7835,
      "mék": 7836,
      "nhe": 7837,
      "piz": 7838,
      "pony": 7839,
      "ráb": 7840,
      "tlag": 7841,
      "xv": 7842,
      "yilk": 7843,
      "zv": 7844,
      "őre": 7845,
      "##ió": 7846,
      "##cu": 7847,
      "szú": 7848,
      "szad": 7849,
      "##ald": 7850,
      "alis": 7851,
      "alló": 7852,
      "ethet": 7853,
      "lecht": 7854,
      "ance": 7855,
      "gyo": 7856,
      "töz": 7857,
      "arti": 7858,
      "tea": 7859,
      "étsz": 7860,
      "szty": 7861,
      "egen": 7862,
      "iron": 7863,
      "ndö": 7864,
      "llal": 7865,
      "span": 7866,
      "anyák": 7867,
      "##uma": 7868,
      "utah": 7869,
      "##inté": 7870,
      "usb": 7871,
      "randi": 7872,
      "urphy": 7873,
      "ngo": 7874,
      "fides": 7875,
      "rosb": 7876,
      "evge": 7877,
      "rdan": 7878,
      "rdek": 7879,
      "ákk": 7880,
      "sach": 7881,
      "thén": 7882,
      "ecur": 7883,
      "sóz": 7884,
      "gomb": 7885,
      "razzi": 7886,
      "nmhh": 7887,
      "rezid": 7888,
      "roth": 7889,
      "playo": 7890,
      "cxd": 7891,
      "agdad": 7892,
      "epülő": 7893,
      "big": 7894,
      "eart": 7895,
      "jaj": 7896,
      "kp": 7897,
      "lkö": 7898,
      "lse": 7899,
      "lutá": 7900,
      "mba": 7901,
      "pell": 7902,
      "sáb": 7903,
      "sna": 7904,
      "tne": 7905,
      "uv": 7906,
      "vaj": 7907,
      "zinté": 7908,
      "##kí": 7909,
      "##ré": 7910,
      "##zo": 7911,
      "##fs": 7912,
      "##ímá": 7913,
      "atri": 7914,
      "érg": 7915,
      "aké": 7916,
      "##adi": 7917,
      "foga": 7918,
      "ttel": 7919,
      "abor": 7920,
      "rius": 7921,
      "llis": 7922,
      "ode": 7923,
      "letét": 7924,
      "letén": 7925,
      "vezés": 7926,
      "tetet": 7927,
      "álato": 7928,
      "latba": 7929,
      "dono": 7930,
      "hark": 7931,
      "auri": 7932,
      "icz": 7933,
      "ehez": 7934,
      "malá": 7935,
      "sao": 7936,
      "kocka": 7937,
      "nyeft": 7938,
      "thlet": 7939,
      "gálán": 7940,
      "eroin": 7941,
      "grád": 7942,
      "rassó": 7943,
      "atyá": 7944,
      "oyce": 7945,
      "lcd": 7946,
      "fxf": 7947,
      "ársas": 7948,
      "etyka": 7949,
      "kaka": 7950,
      "jüan": 7951,
      "torzí": 7952,
      "mória": 7953,
      "pumpá": 7954,
      "d5": 7955,
      "een": 7956,
      "kx": 7957,
      "oen": 7958,
      "oan": 7959,
      "ocz": 7960,
      "plen": 7961,
      "plan": 7962,
      "rmá": 7963,
      "tuti": 7964,
      "wen": 7965,
      "yor": 7966,
      "##dy": 7967,
      "##cze": 7968,
      "##uer": 7969,
      "##mm": 7970,
      "isney": 7971,
      "álá": 7972,
      "mix": 7973,
      "eski": 7974,
      "erki": 7975,
      "bea": 7976,
      "anni": 7977,
      "oren": 7978,
      "vecs": 7979,
      "tabe": 7980,
      "askó": 7981,
      "tári": 7982,
      "law": 7983,
      "itu": 7984,
      "épz": 7985,
      "row": 7986,
      "sorb": 7987,
      "nker": 7988,
      "list": 7989,
      "ábo": 7990,
      "ábry": 7991,
      "agát": 7992,
      "árdai": 7993,
      "ipod": 7994,
      "fide": 7995,
      "loyd": 7996,
      "eszer": 7997,
      "105": 7998,
      "torná": 7999,
      "túró": 8000,
      "kau": 8001,
      "kacsa": 8002,
      "mere": 8003,
      "pannó": 8004,
      "pav": 8005,
      "eléb": 8006,
      "regen": 8007,
      "ejel": 8008,
      "heo": 8009,
      "rnold": 8010,
      "immy": 8011,
      "ebesz": 8012,
      "rass": 8013,
      "bxd": 8014,
      "650": 8015,
      "ocsai": 8016,
      "hxg": 8017,
      "izzad": 8018,
      "zítés": 8019,
      "ponyá": 8020,
      "but": 8021,
      "bas": 8022,
      "bri": 8023,
      "dott": 8024,
      "kuk": 8025,
      "lnök": 8026,
      "nam": 8027,
      "ooper": 8028,
      "yü": 8029,
      "yak": 8030,
      "yim": 8031,
      "zot": 8032,
      "öcs": 8033,
      "##yn": 8034,
      "##pu": 8035,
      "##nyá": 8036,
      "##ese": 8037,
      "emin": 8038,
      "iké": 8039,
      "adhat": 8040,
      "teré": 8041,
      "kerá": 8042,
      "bicz": 8043,
      "ámog": 8044,
      "teket": 8045,
      "ndk": 8046,
      "llet": 8047,
      "meh": 8048,
      "odro": 8049,
      "ékó": 8050,
      "andro": 8051,
      "ktr": 8052,
      "acer": 8053,
      "aura": 8054,
      "ezése": 8055,
      "runo": 8056,
      "tói": 8057,
      "icag": 8058,
      "even": 8059,
      "opin": 8060,
      "unami": 8061,
      "lera": 8062,
      "ántor": 8063,
      "176": 8064,
      "adio": 8065,
      "owl": 8066,
      "ower": 8067,
      "asági": 8068,
      "áriá": 8069,
      "arah": 8070,
      "zeb": 8071,
      "orsen": 8072,
      "bxe": 8073,
      "##ctr": 8074,
      "gymás": 8075,
      "aúdi": 8076,
      "eople": 8077,
      "plená": 8078,
      "pavil": 8079,
      "aq": 8080,
      "aúd": 8081,
      "dsz": 8082,
      "déz": 8083,
      "evé": 8084,
      "hort": 8085,
      "mvm": 8086,
      "rba": 8087,
      "ónap": 8088,
      "ünte": 8089,
      "##uel": 8090,
      "##of": 8091,
      "##út": 8092,
      "##wa": 8093,
      "szír": 8094,
      "azs": 8095,
      "enit": 8096,
      "erbe": 8097,
      "ikt": 8098,
      "aru": 8099,
      "addi": 8100,
      "nix": 8101,
      "osh": 8102,
      "##iss": 8103,
      "nea": 8104,
      "áná": 8105,
      "omez": 8106,
      "izg": 8107,
      "##roc": 8108,
      "lac": 8109,
      "##miá": 8110,
      "aps": 8111,
      "iram": 8112,
      "ndez": 8113,
      "llás": 8114,
      "jánl": 8115,
      "zóna": 8116,
      "lij": 8117,
      "vere": 8118,
      "onty": 8119,
      "özös": 8120,
      "told": 8121,
      "auch": 8122,
      "múz": 8123,
      "ick": 8124,
      "ákó": 8125,
      "totí": 8126,
      "aft": 8127,
      "iblio": 8128,
      "rsá": 8129,
      "argo": 8130,
      "suv": 8131,
      "séf": 8132,
      "amaha": 8133,
      "immer": 8134,
      "kresz": 8135,
      "tréfá": 8136,
      "ohan": 8137,
      "ausch": 8138,
      "lark": 8139,
      "izzó": 8140,
      "trade": 8141,
      "píté": 8142,
      "atson": 8143,
      "dhat": 8144,
      "eor": 8145,
      "fdp": 8146,
      "pul": 8147,
      "vs": 8148,
      "vik": 8149,
      "vben": 8150,
      "zhet": 8151,
      "övet": 8152,
      "̋a": 8153,
      "##ij": 8154,
      "##eb": 8155,
      "elu": 8156,
      "hot": 8157,
      "##aru": 8158,
      "ezo": 8159,
      "etke": 8160,
      "kie": 8161,
      "tein": 8162,
      "nica": 8163,
      "utan": 8164,
      "inni": 8165,
      "inje": 8166,
      "asco": 8167,
      "tárcs": 8168,
      "uly": 8169,
      "able": 8170,
      "bugyi": 8171,
      "hane": 8172,
      "majom": 8173,
      "ogd": 8174,
      "mád": 8175,
      "aco": 8176,
      "vist": 8177,
      "evil": 8178,
      "befe": 8179,
      "opper": 8180,
      "ultik": 8181,
      "mali": 8182,
      "vélem": 8183,
      "kanál": 8184,
      "ldás": 8185,
      "ivo": 8186,
      "thaif": 8187,
      "tmz": 8188,
      "dina": 8189,
      "mcg": 8190,
      "260": 8191,
      "sodi": 8192,
      "meter": 8193,
      "rizi": 8194,
      "nitor": 8195,
      "paksi": 8196,
      "queen": 8197,
      "ernád": 8198,
      "iköz": 8199,
      "hart": 8200,
      "kw": 8201,
      "kna": 8202,
      "m1": 8203,
      "sns": 8204,
      "uál": 8205,
      "uid": 8206,
      "zes": 8207,
      "##rí": 8208,
      "elül": 8209,
      "erna": 8210,
      "##óle": 8211,
      "ange": 8212,
      "inta": 8213,
      "into": 8214,
      "arre": 8215,
      "árú": 8216,
      "lti": 8217,
      "ltá": 8218,
      "átiá": 8219,
      "nep": 8220,
      "taal": 8221,
      "asmi": 8222,
      "egé": 8223,
      "abu": 8224,
      "párto": 8225,
      "ritt": 8226,
      "itne": 8227,
      "döm": 8228,
      "llem": 8229,
      "nki": 8230,
      "örn": 8231,
      "mére": 8232,
      "aht": 8233,
      "tatá": 8234,
      "ontpe": 8235,
      "ájába": 8236,
      "erdin": 8237,
      "pres": 8238,
      "ardv": 8239,
      "túsz": 8240,
      "pof": 8241,
      "iber": 8242,
      "ületi": 8243,
      "tino": 8244,
      "tomp": 8245,
      "ther": 8246,
      "175": 8247,
      "hew": 8248,
      "lkép": 8249,
      "sun": 8250,
      "supán": 8251,
      "ifej": 8252,
      "móriá": 8253,
      "ache": 8254,
      "anuc": 8255,
      "tálal": 8256,
      "280": 8257,
      "stein": 8258,
      "unday": 8259,
      "rugó": 8260,
      "tléta": 8261,
      "sört": 8262,
      "vfl": 8263,
      "fkf": 8264,
      "iállí": 8265,
      "aúl": 8266,
      "bba": 8267,
      "cti": 8268,
      "e6": 8269,
      "fúr": 8270,
      "gatt": 8271,
      "gri": 8272,
      "pert": 8273,
      "zát": 8274,
      "zagy": 8275,
      "önte": 8276,
      "őm": 8277,
      "##ög": 8278,
      "szla": 8279,
      "köny": 8280,
      "hony": 8281,
      "miép": 8282,
      "alc": 8283,
      "ery": 8284,
      "leon": 8285,
      "lectr": 8286,
      "##ile": 8287,
      "teine": 8288,
      "jabb": 8289,
      "jahu": 8290,
      "rac": 8291,
      "éln": 8292,
      "agyt": 8293,
      "otal": 8294,
      "inzu": 8295,
      "étv": 8296,
      "taka": 8297,
      "dön": 8298,
      "hozz": 8299,
      "lőző": 8300,
      "pers": 8301,
      "iac": 8302,
      "baro": 8303,
      "ranz": 8304,
      "nged": 8305,
      "nyir": 8306,
      "ekke": 8307,
      "aced": 8308,
      "run": 8309,
      "ruce": 8310,
      "ehé": 8311,
      "einz": 8312,
      "afé": 8313,
      "ugló": 8314,
      "nyeck": 8315,
      "ppo": 8316,
      "ecc": 8317,
      "ivata": 8318,
      "ömeg": 8319,
      "zési": 8320,
      "séta": 8321,
      "ashto": 8322,
      "acht": 8323,
      "ubaru": 8324,
      "ácso": 8325,
      "ránc": 8326,
      "340": 8327,
      "pete": 8328,
      "fxd": 8329,
      "you": 8330,
      "ather": 8331,
      "prah": 8332,
      "ltrah": 8333,
      "boka": 8334,
      "bbb": 8335,
      "dg": 8336,
      "dad": 8337,
      "eet": 8338,
      "gbe": 8339,
      "hp": 8340,
      "ilt": 8341,
      "lje": 8342,
      "mv": 8343,
      "nag": 8344,
      "oor": 8345,
      "sg": 8346,
      "wrc": 8347,
      "yk": 8348,
      "zág": 8349,
      "ővel": 8350,
      "##kú": 8351,
      "##av": 8352,
      "##af": 8353,
      "##mén": 8354,
      "##wig": 8355,
      "##ble": 8356,
      "nyü": 8357,
      "ezh": 8358,
      "ezmén": 8359,
      "mics": 8360,
      "enja": 8361,
      "esp": 8362,
      "anal": 8363,
      "inth": 8364,
      "arner": 8365,
      "adn": 8366,
      "##omi": 8367,
      "árgy": 8368,
      "oswo": 8369,
      "szász": 8370,
      "rail": 8371,
      "kobo": 8372,
      "éte": 8373,
      "edez": 8374,
      "##oth": 8375,
      "nty": 8376,
      "ntum": 8377,
      "olyt": 8378,
      "pedi": 8379,
      "apóle": 8380,
      "bim": 8381,
      "rigye": 8382,
      "itán": 8383,
      "itute": 8384,
      "kalá": 8385,
      "lóri": 8386,
      "lőj": 8387,
      "spur": 8388,
      "ogra": 8389,
      "elmű": 8390,
      "ményt": 8391,
      "tottá": 8392,
      "szabá": 8393,
      "anda": 8394,
      "andal": 8395,
      "skó": 8396,
      "dow": 8397,
      "áján": 8398,
      "lmes": 8399,
      "tox": 8400,
      "alax": 8401,
      "rót": 8402,
      "bileu": 8403,
      "ború": 8404,
      "erner": 8405,
      "mería": 8406,
      "ádor": 8407,
      "delé": 8408,
      "lábas": 8409,
      "sarká": 8410,
      "lké": 8411,
      "rémü": 8412,
      "ryan": 8413,
      "erth": 8414,
      "pszer": 8415,
      "radic": 8416,
      "iang": 8417,
      "apper": 8418,
      "astro": 8419,
      "quin": 8420,
      "atyer": 8421,
      "gyám": 8422,
      "etafe": 8423,
      "licit": 8424,
      "ikerü": 8425,
      "adará": 8426,
      "pólu": 8427,
      "deg": 8428,
      "gro": 8429,
      "ivar": 8430,
      "iwi": 8431,
      "nnep": 8432,
      "out": 8433,
      "pep": 8434,
      "pand": 8435,
      "púr": 8436,
      "sre": 8437,
      "uer": 8438,
      "uzs": 8439,
      "ws": 8440,
      "íne": 8441,
      "öre": 8442,
      "##yk": 8443,
      "##rad": 8444,
      "##hr": 8445,
      "##óc": 8446,
      "##ets": 8447,
      "iseg": 8448,
      "banán": 8449,
      "##ong": 8450,
      "anác": 8451,
      "felet": 8452,
      "gyv": 8453,
      "amon": 8454,
      "adot": 8455,
      "orne": 8456,
      "##agó": 8457,
      "ltán": 8458,
      "rah": 8459,
      "raci": 8460,
      "átri": 8461,
      "valy": 8462,
      "##lle": 8463,
      "oth": 8464,
      "egsz": 8465,
      "omv": 8466,
      "izár": 8467,
      "nten": 8468,
      "abro": 8469,
      "ablo": 8470,
      "ráf": 8471,
      "bio": 8472,
      "éné": 8473,
      "avel": 8474,
      "eim": 8475,
      "spd": 8476,
      "epe": 8477,
      "##cea": 8478,
      "minó": 8479,
      "ssal": 8480,
      "édel": 8481,
      "ardy": 8482,
      "102": 8483,
      "galma": 8484,
      "kaot": 8485,
      "puska": 8486,
      "meder": 8487,
      "ltatá": 8488,
      "djia": 8489,
      "bxa": 8490,
      "ienna": 8491,
      "vfb": 8492,
      "lobal": 8493,
      "téne": 8494,
      "odrig": 8495,
      "pellá": 8496,
      "uido": 8497,
      "auk": 8498,
      "bsz": 8499,
      "far": 8500,
      "icsi": 8501,
      "mom": 8502,
      "nar": 8503,
      "nác": 8504,
      "oé": 8505,
      "piká": 8506,
      "yeg": 8507,
      "zh": 8508,
      "zemé": 8509,
      "zep": 8510,
      "öul": 8511,
      "üri": 8512,
      "őg": 8513,
      "ődi": 8514,
      "##gu": 8515,
      "szm": 8516,
      "szim": 8517,
      "##szi": 8518,
      "azo": 8519,
      "##emo": 8520,
      "hof": 8521,
      "álo": 8522,
      "álas": 8523,
      "enet": 8524,
      "okta": 8525,
      "essa": 8526,
      "lein": 8527,
      "csin": 8528,
      "emén": 8529,
      "ams": 8530,
      "arat": 8531,
      "oran": 8532,
      "rawn": 8533,
      "igany": 8534,
      "##rav": 8535,
      "neon": 8536,
      "asin": 8537,
      "asim": 8538,
      "eges": 8539,
      "egin": 8540,
      "ommer": 8541,
      "tali": 8542,
      "##ázs": 8543,
      "ntö": 8544,
      "##ova": 8545,
      "őrin": 8546,
      "hisze": 8547,
      "itd": 8548,
      "épás": 8549,
      "kalci": 8550,
      "meets": 8551,
      "entet": 8552,
      "maszk": 8553,
      "ning": 8554,
      "észk": 8555,
      "kamer": 8556,
      "atty": 8557,
      "klő": 8558,
      "chu": 8559,
      "engu": 8560,
      "pucé": 8561,
      "leme": 8562,
      "ueen": 8563,
      "anató": 8564,
      "zúd": 8565,
      "lábán": 8566,
      "sarki": 8567,
      "ogató": 8568,
      "lada": 8569,
      "ladb": 8570,
      "eyer": 8571,
      "mado": 8572,
      "búza": 8573,
      "mete": 8574,
      "320": 8575,
      "bako": 8576,
      "öntés": 8577,
      "lazma": 8578,
      "bxf": 8579,
      "lhas": 8580,
      "zűr": 8581,
      "hxe": 8582,
      "ccse": 8583,
      "hc6": 8584,
      "pohar": 8585,
      "ődöt": 8586,
      "aczkó": 8587,
      "ilbao": 8588,
      "kakaó": 8589,
      "iwiw": 8590,
      "),": 8591,
      "bago": 8592,
      "cig": 8593,
      "df": 8594,
      "dű": 8595,
      "eas": 8596,
      "eyen": 8597,
      "fül": 8598,
      "gfk": 8599,
      "hsc": 8600,
      "pam": 8601,
      "rda": 8602,
      "rze": 8603,
      "ród": 8604,
      "rley": 8605,
      "zál": 8606,
      "íc": 8607,
      "íme": 8608,
      "öszö": 8609,
      "##lon": 8610,
      "##bc": 8611,
      "szemé": 8612,
      "elá": 8613,
      "alina": 8614,
      "atba": 8615,
      "erri": 8616,
      "ereke": 8617,
      "akás": 8618,
      "akon": 8619,
      "akas": 8620,
      "anitá": 8621,
      "ree": 8622,
      "ormu": 8623,
      "idd": 8624,
      "idá": 8625,
      "terí": 8626,
      "otka": 8627,
      "omol": 8628,
      "tára": 8629,
      "edet": 8630,
      "nton": 8631,
      "ajká": 8632,
      "abs": 8633,
      "apat": 8634,
      "itál": 8635,
      "rty": 8636,
      "roh": 8637,
      "ogi": 8638,
      "ogad": 8639,
      "ognár": 8640,
      "lich": 8641,
      "lick": 8642,
      "lisa": 8643,
      "kult": 8644,
      "##ódé": 8645,
      "karus": 8646,
      "özve": 8647,
      "röm": 8648,
      "urto": 8649,
      "ngari": 8650,
      "lath": 8651,
      "udwig": 8652,
      "uncze": 8653,
      "rúzi": 8654,
      "ombi": 8655,
      "##kay": 8656,
      "lovag": 8657,
      "zzá": 8658,
      "pink": 8659,
      "pipá": 8660,
      "toná": 8661,
      "alli": 8662,
      "trav": 8663,
      "135": 8664,
      "utatá": 8665,
      "eccse": 8666,
      "ólom": 8667,
      "gárd": 8668,
      "ieber": 8669,
      "ievo": 8670,
      "obal": 8671,
      "axis": 8672,
      "ancy": 8673,
      "radio": 8674,
      "mcf": 8675,
      "arré": 8676,
      "bóv": 8677,
      "ijón": 8678,
      "alvó": 8679,
      "fxc": 8680,
      "vxc": 8681,
      "ársai": 8682,
      "atlé": 8683,
      "átyja": 8684,
      "elepü": 8685,
      "marty": 8686,
      "rooke": 8687,
      "sachs": 8688,
      "eorg": 8689,
      "leonó": 8690,
      "adnót": 8691,
      "bimbó": 8692,
      "c5": 8693,
      "cf": 8694,
      "ces": 8695,
      "dab": 8696,
      "eep": 8697,
      "gnek": 8698,
      "kagy": 8699,
      "lp": 8700,
      "lbe": 8701,
      "mek": 8702,
      "mág": 8703,
      "nába": 8704,
      "réd": 8705,
      "vénye": 8706,
      "zda": 8707,
      "ökö": 8708,
      "öuli": 8709,
      "őn": 8710,
      "##sv": 8711,
      "##ís": 8712,
      "azah": 8713,
      "álak": 8714,
      "álaga": 8715,
      "alf": 8716,
      "ekf": 8717,
      "atra": 8718,
      "okak": 8719,
      "erse": 8720,
      "gyet": 8721,
      "töp": 8722,
      "amy": 8723,
      "idak": 8724,
      "teria": 8725,
      "otond": 8726,
      "astor": 8727,
      "ajc": 8728,
      "iri": 8729,
      "risz": 8730,
      "itro": 8731,
      "ámad": 8732,
      "rtan": 8733,
      "liban": 8734,
      "licz": 8735,
      "enta": 8736,
      "kup": 8737,
      "##ódi": 8738,
      "macs": 8739,
      "grár": 8740,
      "trán": 8741,
      "siett": 8742,
      "cho": 8743,
      "urná": 8744,
      "udni": 8745,
      "nac": 8746,
      "rupo": 8747,
      "rubel": 8748,
      "komo": 8749,
      "ardin": 8750,
      "opal": 8751,
      "ankó": 8752,
      "mato": 8753,
      "pac": 8754,
      "zász": 8755,
      "165": 8756,
      "115": 8757,
      "béta": 8758,
      "heen": 8759,
      "upp": 8760,
      "gárdi": 8761,
      "patin": 8762,
      "xiv": 8763,
      "mily": 8764,
      "275": 8765,
      "mcq": 8766,
      "ráng": 8767,
      "bús": 8768,
      "stoc": 8769,
      "metál": 8770,
      "orres": 8771,
      "dene": 8772,
      "richt": 8773,
      "anadi": 8774,
      "etyká": 8775,
      "maced": 8776,
      "cbs": 8777,
      "kakas": 8778,
      "tript": 8779,
      "tompí": 8780,
      "zágrá": 8781,
      "ürich": 8782,
      "bóvli": 8783,
      "--": 8784,
      "bul": 8785,
      "dc": 8786,
      "dis": 8787,
      "dre": 8788,
      "eje": 8789,
      "fra": 8790,
      "gve": 8791,
      "ji": 8792,
      "jr": 8793,
      "jtó": 8794,
      "kz": 8795,
      "mab": 8796,
      "mest": 8797,
      "oep": 8798,
      "pö": 8799,
      "rép": 8800,
      "sben": 8801,
      "yu": 8802,
      "ászt": 8803,
      "ége": 8804,
      "öbl": 8805,
      "úg": 8806,
      "úri": 8807,
      "##nov": 8808,
      "##ger": 8809,
      "##mar": 8810,
      "elta": 8811,
      "ésü": 8812,
      "hog": 8813,
      "altat": 8814,
      "enov": 8815,
      "ekte": 8816,
      "ásta": 8817,
      "erta": 8818,
      "akkó": 8819,
      "otth": 8820,
      "gyin": 8821,
      "araj": 8822,
      "arki": 8823,
      "árdá": 8824,
      "idney": 8825,
      "átrá": 8826,
      "##utu": 8827,
      "##reb": 8828,
      "nec": 8829,
      "egál": 8830,
      "vann": 8831,
      "omán": 8832,
      "airó": 8833,
      "lah": 8834,
      "ttu": 8835,
      "ulz": 8836,
      "bund": 8837,
      "itka": 8838,
      "épv": 8839,
      "épzel": 8840,
      "rou": 8841,
      "ndent": 8842,
      "spor": 8843,
      "mei": 8844,
      "öré": 8845,
      "epa": 8846,
      "aszka": 8847,
      "agne": 8848,
      "itter": 8849,
      "tamk": 8850,
      "uso": 8851,
      "kamu": 8852,
      "ktő": 8853,
      "elyek": 8854,
      "krat": 8855,
      "urd": 8856,
      "urál": 8857,
      "harma": 8858,
      "##hoo": 8859,
      "zav": 8860,
      "róm": 8861,
      "boro": 8862,
      "geng": 8863,
      "arcus": 8864,
      "lovak": 8865,
      "panth": 8866,
      "porc": 8867,
      "rgen": 8868,
      "shop": 8869,
      "sarka": 8870,
      "repe": 8871,
      "gában": 8872,
      "llah": 8873,
      "lusta": 8874,
      "veke": 8875,
      "orga": 8876,
      "achi": 8877,
      "ácsik": 8878,
      "265": 8879,
      "mániá": 8880,
      "natko": 8881,
      "apid": 8882,
      "rizzl": 8883,
      "awai": 8884,
      "imázs": 8885,
      "akay": 8886,
      "yanús": 8887,
      "paktu": 8888,
      "dams": 8889,
      "xvii": 8890,
      "uanda": 8891,
      "króm": 8892,
      "ntag": 8893,
      "arvik": 8894,
      "eidu": 8895,
      "etano": 8896,
      "rozsd": 8897,
      "dxc": 8898,
      "zebrá": 8899,
      "evils": 8900,
      "ction": 8901,
      "eyeno": 8902,
      "ródy": 8903,
      "//": 8904,
      "eot": 8905,
      "fan": 8906,
      "iam": 8907,
      "nze": 8908,
      "oel": 8909,
      "pik": 8910,
      "pát": 8911,
      "ping": 8912,
      "tég": 8913,
      "tdi": 8914,
      "zr": 8915,
      "zén": 8916,
      "ője": 8917,
      "##ty": 8918,
      "##gor": 8919,
      "##ena": 8920,
      "##nta": 8921,
      "alik": 8922,
      "késel": 8923,
      "csán": 8924,
      "##edi": 8925,
      "ikva": 8926,
      "etta": 8927,
      "arle": 8928,
      "ads": 8929,
      "##ome": 8930,
      "idane": 8931,
      "raig": 8932,
      "átia": 8933,
      "##ise": 8934,
      "otel": 8935,
      "##cid": 8936,
      "asp": 8937,
      "ases": 8938,
      "asbou": 8939,
      "egek": 8940,
      "bah": 8941,
      "ztj": 8942,
      "buzz": 8943,
      "apí": 8944,
      "hetős": 8945,
      "itor": 8946,
      "itsu": 8947,
      "major": 8948,
      "kaló": 8949,
      "##seu": 8950,
      "ékben": 8951,
      "pole": 8952,
      "teng": 8953,
      "mosdó": 8954,
      "agos": 8955,
      "ontol": 8956,
      "karit": 8957,
      "andid": 8958,
      "rant": 8959,
      "égő": 8960,
      "aure": 8961,
      "yahoo": 8962,
      "ányo": 8963,
      "tore": 8964,
      "daru": 8965,
      "meló": 8966,
      "manu": 8967,
      "mpon": 8968,
      "rgan": 8969,
      "168": 8970,
      "arga": 8971,
      "ackó": 8972,
      "190": 8973,
      "geol": 8974,
      "tusk": 8975,
      "##lie": 8976,
      "aléka": 8977,
      "scak": 8978,
      "kabar": 8979,
      "nath": 8980,
      "insp": 8981,
      "ixel": 8982,
      "erjes": 8983,
      "iasat": 8984,
      "akaó": 8985,
      "hxc": 8986,
      "pako": 8987,
      "sarkv": 8988,
      "uana": 8989,
      "fúzi": 8990,
      "dekl": 8991,
      "bika": 8992,
      "dögl": 8993,
      "bagbo": 8994,
      "shire": 8995,
      "ahmúd": 8996,
      "ahtar": 8997,
      "awaii": 8998,
      "04": 8999,
      "a6": 9000,
      "bse": 9001,
      "bsc": 9002,
      "bódé": 9003,
      "dró": 9004,
      "déd": 9005,
      "gte": 9006,
      "jama": 9007,
      "ksze": 9008,
      "lügy": 9009,
      "not": 9010,
      "ocsá": 9011,
      "ohl": 9012,
      "py": 9013,
      "rri": 9014,
      "rma": 9015,
      "sr": 9016,
      "tfő": 9017,
      "uel": 9018,
      "vít": 9019,
      "wat": 9020,
      "zelő": 9021,
      "zhe": 9022,
      "áad": 9023,
      "éme": 9024,
      "##rg": 9025,
      "##jan": 9026,
      "##bé": 9027,
      "szv": 9028,
      "szc": 9029,
      "##ens": 9030,
      "aze": 9031,
      "nyin": 9032,
      "##ard": 9033,
      "ezé": 9034,
      "atroc": 9035,
      "okf": 9036,
      "esa": 9037,
      "eró": 9038,
      "erci": 9039,
      "otty": 9040,
      "etti": 9041,
      "etts": 9042,
      "arh": 9043,
      "arci": 9044,
      "arne": 9045,
      "arac": 9046,
      "rev": 9047,
      "recht": 9048,
      "adul": 9049,
      "oncz": 9050,
      "oste": 9051,
      "idal": 9052,
      "áto": 9053,
      "##niá": 9054,
      "ségü": 9055,
      "oty": 9056,
      "ild": 9057,
      "babá": 9058,
      "irg": 9059,
      "ponty": 9060,
      "ndék": 9061,
      "ndít": 9062,
      "lleg": 9063,
      "sorá": 9064,
      "döntö": 9065,
      "ázmá": 9066,
      "lyó": 9067,
      "táska": 9068,
      "odrá": 9069,
      "limi": 9070,
      "konom": 9071,
      "életé": 9072,
      "endv": 9073,
      "ingó": 9074,
      "obby": 9075,
      "karu": 9076,
      "cht": 9077,
      "chus": 9078,
      "szoc": 9079,
      "zeng": 9080,
      "égb": 9081,
      "rost": 9082,
      "rosa": 9083,
      "udj": 9084,
      "zlet": 9085,
      "orbes": 9086,
      "opez": 9087,
      "geno": 9088,
      "etése": 9089,
      "ibm": 9090,
      "ennis": 9091,
      "ápol": 9092,
      "fina": 9093,
      "owbo": 9094,
      "gese": 9095,
      "astin": 9096,
      "deflá": 9097,
      "ramo": 9098,
      "petes": 9099,
      "kúsz": 9100,
      "rvo": 9101,
      "dose": 9102,
      "fmh": 9103,
      "eruz": 9104,
      "texas": 9105,
      "átyi": 9106,
      "tlétá": 9107,
      "béna": 9108,
      "irror": 9109,
      "aguar": 9110,
      "rapid": 9111,
      "cruz": 9112,
      "záll": 9113,
      "áadás": 9114,
      "aig": 9115,
      "aast": 9116,
      "bato": 9117,
      "can": 9118,
      "cagó": 9119,
      "dú": 9120,
      "h6": 9121,
      "jaz": 9122,
      "kít": 9123,
      "lmé": 9124,
      "lhe": 9125,
      "lván": 9126,
      "oós": 9127,
      "rond": 9128,
      "ses": 9129,
      "yem": 9130,
      "zez": 9131,
      "##nik": 9132,
      "##jo": 9133,
      "sző": 9134,
      "azán": 9135,
      "##ora": 9136,
      "köp": 9137,
      "nyig": 9138,
      "megál": 9139,
      "mig": 9140,
      "onan": 9141,
      "raun": 9142,
      "máriá": 9143,
      "kony": 9144,
      "ilk": 9145,
      "zön": 9146,
      "abul": 9147,
      "cion": 9148,
      "buz": 9149,
      "rib": 9150,
      "rier": 9151,
      "##uka": 9152,
      "ndel": 9153,
      "vona": 9154,
      "örs": 9155,
      "life": 9156,
      "konf": 9157,
      "agó": 9158,
      "over": 9159,
      "mayer": 9160,
      "kele": 9161,
      "ordí": 9162,
      "klímá": 9163,
      "elyn": 9164,
      "eith": 9165,
      "dult": 9166,
      "logy": 9167,
      "tségé": 9168,
      "braz": 9169,
      "icc": 9170,
      "eteor": 9171,
      "áky": 9172,
      "tork": 9173,
      "torzu": 9174,
      "ősö": 9175,
      "ősen": 9176,
      "zzuk": 9177,
      "say": 9178,
      "izmo": 9179,
      "ions": 9180,
      "ritká": 9181,
      "rill": 9182,
      "linu": 9183,
      "tini": 9184,
      "111": 9185,
      "185": 9186,
      "argó": 9187,
      "trau": 9188,
      "arifá": 9189,
      "pecs": 9190,
      "erry": 9191,
      "eyn": 9192,
      "hason": 9193,
      "roni": 9194,
      "rnok": 9195,
      "sych": 9196,
      "zombi": 9197,
      "ürg": 9198,
      "atyja": 9199,
      "gyáva": 9200,
      "nyakk": 9201,
      "vxd": 9202,
      "ujza": 9203,
      "béka": 9204,
      "póli": 9205,
      "acqui": 9206,
      "ökőár": 9207,
      "maple": 9208,
      "kacag": 9209,
      "zezon": 9210,
      "a3": 9211,
      "aál": 9212,
      "baz": 9213,
      "dne": 9214,
      "eek": 9215,
      "gis": 9216,
      "hrow": 9217,
      "kto": 9218,
      "m2": 9219,
      "nős": 9220,
      "oon": 9221,
      "pele": 9222,
      "rrá": 9223,
      "sbe": 9224,
      "uny": 9225,
      "uiz": 9226,
      "vr": 9227,
      "vm": 9228,
      "wim": 9229,
      "zól": 9230,
      "zdá": 9231,
      "öle": 9232,
      "##vó": 9233,
      "##ps": 9234,
      "##pf": 9235,
      "##pp": 9236,
      "##szh": 9237,
      "##aná": 9238,
      "ezér": 9239,
      "enos": 9240,
      "enve": 9241,
      "enjá": 9242,
      "kén": 9243,
      "oke": 9244,
      "leas": 9245,
      "##ost": 9246,
      "anar": 9247,
      "gyf": 9248,
      "amv": 9249,
      "arin": 9250,
      "aras": 9251,
      "reak": 9252,
      "adil": 9253,
      "adna": 9254,
      "onrad": 9255,
      "teau": 9256,
      "lts": 9257,
      "##ist": 9258,
      "inő": 9259,
      "été": 9260,
      "##cio": 9261,
      "egí": 9262,
      "egna": 9263,
      "vább": 9264,
      "ajcs": 9265,
      "basz": 9266,
      "abuli": 9267,
      "ötty": 9268,
      "roos": 9269,
      "eich": 9270,
      "tásra": 9271,
      "zsu": 9272,
      "perto": 9273,
      "lier": 9274,
      "auti": 9275,
      "entai": 9276,
      "tenn": 9277,
      "tenst": 9278,
      "kuru": 9279,
      "ovo": 9280,
      "imb": 9281,
      "öncz": 9282,
      "óki": 9283,
      "iaco": 9284,
      "őkap": 9285,
      "grin": 9286,
      "trom": 9287,
      "andár": 9288,
      "ellu": 9289,
      "ordít": 9290,
      "tolv": 9291,
      "udán": 9292,
      "rund": 9293,
      "kötel": 9294,
      "ouatt": 9295,
      "arden": 9296,
      "orbás": 9297,
      "aine": 9298,
      "pool": 9299,
      "poszt": 9300,
      "manga": 9301,
      "124": 9302,
      "yörg": 9303,
      "arku": 9304,
      "ritz": 9305,
      "each": 9306,
      "eafs": 9307,
      "arty": 9308,
      "ejtet": 9309,
      "wich": 9310,
      "lemmá": 9311,
      "zere": 9312,
      "mmk": 9313,
      "diká": 9314,
      "sarc": 9315,
      "óliá": 9316,
      "225": 9317,
      "eddy": 9318,
      "rkel": 9319,
      "rigád": 9320,
      "arsh": 9321,
      "330": 9322,
      "zülő": 9323,
      "sugár": 9324,
      "fhb": 9325,
      "nowbo": 9326,
      "eiszd": 9327,
      "aukee": 9328,
      "oémi": 9329,
      "arréb": 9330,
      "drót": 9331,
      "brazí": 9332,
      "bek": 9333,
      "bont": 9334,
      "cop": 9335,
      "e5": 9336,
      "fy": 9337,
      "mri": 9338,
      "nett": 9339,
      "rum": 9340,
      "rrow": 9341,
      "rwin": 9342,
      "sély": 9343,
      "tjá": 9344,
      "wba": 9345,
      "wti": 9346,
      "wbo": 9347,
      "yán": 9348,
      "yte": 9349,
      "##ss": 9350,
      "##íg": 9351,
      "##qui": 9352,
      "szúr": 9353,
      "azany": 9354,
      "elz": 9355,
      "elke": 9356,
      "##ala": 9357,
      "##oro": 9358,
      "nyei": 9359,
      "hou": 9360,
      "etség": 9361,
      "enno": 9362,
      "ekó": 9363,
      "kiá": 9364,
      "kic": 9365,
      "esta": 9366,
      "esley": 9367,
      "olle": 9368,
      "ollá": 9369,
      "akul": 9370,
      "##ona": 9371,
      "anub": 9372,
      "aror": 9373,
      "arró": 9374,
      "arino": 9375,
      "nier": 9376,
      "niós": 9377,
      "jay": 9378,
      "ségve": 9379,
      "##arte": 9380,
      "inder": 9381,
      "neij": 9382,
      "inog": 9383,
      "##éna": 9384,
      "##éná": 9385,
      "ozin": 9386,
      "sztü": 9387,
      "asch": 9388,
      "omen": 9389,
      "talk": 9390,
      "ilé": 9391,
      "ulzu": 9392,
      "abri": 9393,
      "bury": 9394,
      "dömp": 9395,
      "ndok": 9396,
      "aver": 9397,
      "dísz": 9398,
      "stu": 9399,
      "stra": 9400,
      "disz": 9401,
      "agner": 9402,
      "anyó": 9403,
      "imén": 9404,
      "ölc": 9405,
      "##rió": 9406,
      "marhá": 9407,
      "grén": 9408,
      "grém": 9409,
      "andle": 9410,
      "attr": 9411,
      "klán": 9412,
      "légy": 9413,
      "lette": 9414,
      "láp": 9415,
      "latya": 9416,
      "bble": 9417,
      "tájé": 9418,
      "antó": 9419,
      "auro": 9420,
      "múmiá": 9421,
      "romba": 9422,
      "édiká": 9423,
      "ict": 9424,
      "torká": 9425,
      "pász": 9426,
      "ugar": 9427,
      "rgiz": 9428,
      "145": 9429,
      "ecz": 9430,
      "ogyó": 9431,
      "iójá": 9432,
      "resc": 9433,
      "móz": 9434,
      "etője": 9435,
      "débb": 9436,
      "osító": 9437,
      "zomba": 9438,
      "ncé": 9439,
      "king": 9440,
      "##lyá": 9441,
      "tast": 9442,
      "líra": 9443,
      "vxf": 9444,
      "850": 9445,
      "mogat": 9446,
      "káder": 9447,
      "teps": 9448,
      "gget": 9449,
      "lúg": 9450,
      "pdate": 9451,
      "cati": 9452,
      "ieder": 9453,
      "arbon": 9454,
      "jeru": 9455,
      "wsj": 9456,
      "neijd": 9457,
      ".;": 9458,
      "aban": 9459,
      "dság": 9460,
      "hill": 9461,
      "oét": 9462,
      "rgy": 9463,
      "rno": 9464,
      "sw": 9465,
      "uá": 9466,
      "vse": 9467,
      "wta": 9468,
      "zas": 9469,
      "óny": 9470,
      "##so": 9471,
      "##oy": 9472,
      "##ere": 9473,
      "ish": 9474,
      "nyál": 9475,
      "nyadi": 9476,
      "alab": 9477,
      "alic": 9478,
      "etri": 9479,
      "enke": 9480,
      "erhe": 9481,
      "olan": 9482,
      "cskay": 9483,
      "##éri": 9484,
      "ampá": 9485,
      "ambo": 9486,
      "aró": 9487,
      "aram": 9488,
      "reb": 9489,
      "adai": 9490,
      "oris": 9491,
      "árj": 9492,
      "árai": 9493,
      "idi": 9494,
      "idra": 9495,
      "dej": 9496,
      "kort": 9497,
      "kordá": 9498,
      "utch": 9499,
      "mártá": 9500,
      "##máz": 9501,
      "aich": 9502,
      "edrá": 9503,
      "##day": 9504,
      "olyá": 9505,
      "vip": 9506,
      "ajkó": 9507,
      "baszk": 9508,
      "zter": 9509,
      "buc": 9510,
      "rima": 9511,
      "döng": 9512,
      "aven": 9513,
      "llát": 9514,
      "lőr": 9515,
      "spal": 9516,
      "star": 9517,
      "zetés": 9518,
      "zsol": 9519,
      "odrav": 9520,
      "dire": 9521,
      "lind": 9522,
      "rév": 9523,
      "agan": 9524,
      "ovak": 9525,
      "ciót": 9526,
      "lássá": 9527,
      "karik": 9528,
      "barna": 9529,
      "ipót": 9530,
      "klemo": 9531,
      "ské": 9532,
      "tola": 9533,
      "ummer": 9534,
      "acc": 9535,
      "auf": 9536,
      "zauer": 9537,
      "mszdp": 9538,
      "mszmp": 9539,
      "rdé": 9540,
      "alkin": 9541,
      "unes": 9542,
      "borz": 9543,
      "tapa": 9544,
      "noch": 9545,
      "##zso": 9546,
      "206": 9547,
      "lfo": 9548,
      "panat": 9549,
      "luc": 9550,
      "puszt": 9551,
      "ayd": 9552,
      "ragh": 9553,
      "ejút": 9554,
      "ömb": 9555,
      "kréta": 9556,
      "impre": 9557,
      "obcat": 9558,
      "272": 9559,
      "vénu": 9560,
      "lázas": 9561,
      "zámí": 9562,
      "üss": 9563,
      "düb": 9564,
      "doma": 9565,
      "átrak": 9566,
      "áltai": 9567,
      "yila": 9568,
      "440": 9569,
      "530": 9570,
      "sola": 9571,
      "ádári": 9572,
      "ardio": 9573,
      "púri": 9574,
      "alcon": 9575,
      "bam": 9576,
      "bány": 9577,
      "fáb": 9578,
      "héz": 9579,
      "hím": 9580,
      "ibá": 9581,
      "ianc": 9582,
      "jug": 9583,
      "kól": 9584,
      "kott": 9585,
      "lü": 9586,
      "pódi": 9587,
      "rto": 9588,
      "sbou": 9589,
      "tz": 9590,
      "wbc": 9591,
      "zia": 9592,
      "övi": 9593,
      "úny": 9594,
      "##lé": 9595,
      "##kül": 9596,
      "##vb": 9597,
      "##ué": 9598,
      "##ow": 9599,
      "szök": 9600,
      "szuk": 9601,
      "ezey": 9602,
      "aly": 9603,
      "alja": 9604,
      "alcea": 9605,
      "etle": 9606,
      "enri": 9607,
      "atak": 9608,
      "ataki": 9609,
      "atwi": 9610,
      "ásy": 9611,
      "be8": 9612,
      "angy": 9613,
      "anja": 9614,
      "anuá": 9615,
      "anage": 9616,
      "ettye": 9617,
      "arha": 9618,
      "arcsi": 9619,
      "onom": 9620,
      "onas": 9621,
      "osch": 9622,
      "race": 9623,
      "élkül": 9624,
      "agyag": 9625,
      "nex": 9626,
      "tain": 9627,
      "##use": 9628,
      "aior": 9629,
      "ilic": 9630,
      "ntar": 9631,
      "apas": 9632,
      "irk": 9633,
      "irm": 9634,
      "##chu": 9635,
      "riff": 9636,
      "ámbó": 9637,
      "rtóz": 9638,
      "akij": 9639,
      "##sev": 9640,
      "lőt": 9641,
      "eier": 9642,
      "ötl": 9643,
      "baju": 9644,
      "mark": 9645,
      "gran": 9646,
      "greg": 9647,
      "tage": 9648,
      "mám": 9649,
      "##vic": 9650,
      "usd": 9651,
      "usta": 9652,
      "ippo": 9653,
      "ursa": 9654,
      "exc": 9655,
      "expo": 9656,
      "ásty": 9657,
      "acki": 9658,
      "acram": 9659,
      "rish": 9660,
      "udás": 9661,
      "akadá": 9662,
      "kürt": 9663,
      "prém": 9664,
      "tbc": 9665,
      "operá": 9666,
      "104": 9667,
      "afa": 9668,
      "afal": 9669,
      "nou": 9670,
      "szku": 9671,
      "day": 9672,
      "ally": 9673,
      "panda": 9674,
      "linc": 9675,
      "remi": 9676,
      "soma": 9677,
      "avier": 9678,
      "mikó": 9679,
      "zakó": 9680,
      "ivár": 9681,
      "112": 9682,
      "117": 9683,
      "dtak": 9684,
      "kasá": 9685,
      "geom": 9686,
      "scd": 9687,
      "astrá": 9688,
      "nzi": 9689,
      "quil": 9690,
      "quare": 9691,
      "syma": 9692,
      "dych": 9693,
      "kg7": 9694,
      "timf": 9695,
      "wein": 9696,
      "nyaka": 9697,
      "amui": 9698,
      "tabu": 9699,
      "ausen": 9700,
      "piter": 9701,
      "rezg": 9702,
      "pakol": 9703,
      "eambu": 9704,
      "zület": 9705,
      "slav": 9706,
      "tágab": 9707,
      "hbd": 9708,
      "bogar": 9709,
      "bishi": 9710,
      "orpor": 9711,
      "kirch": 9712,
      "zugló": 9713,
      "plant": 9714,
      "téglá": 9715,
      "mózes": 9716,
      "fábiá": 9717,
      "únyog": 9718,
      "07": 9719,
      "a1": 9720,
      "cet": 9721,
      "cine": 9722,
      "doz": 9723,
      "dva": 9724,
      "eco": 9725,
      "eese": 9726,
      "gx": 9727,
      "iab": 9728,
      "jat": 9729,
      "kse": 9730,
      "kma": 9731,
      "kűr": 9732,
      "rja": 9733,
      "rest": 9734,
      "váb": 9735,
      "vsc": 9736,
      "varte": 9737,
      "zán": 9738,
      "úga": 9739,
      "##nf": 9740,
      "##iu": 9741,
      "##ice": 9742,
      "##lik": 9743,
      "##zzi": 9744,
      "##wer": 9745,
      "##pal": 9746,
      "nybe": 9747,
      "##nye": 9748,
      "alány": 9749,
      "etkez": 9750,
      "atha": 9751,
      "atzi": 9752,
      "esc": 9753,
      "erne": 9754,
      "erzet": 9755,
      "érü": 9756,
      "bana": 9757,
      "amár": 9758,
      "amne": 9759,
      "arte": 9760,
      "arina": 9761,
      "orsa": 9762,
      "árc": 9763,
      "hatat": 9764,
      "rasz": 9765,
      "hao": 9766,
      "kerí": 9767,
      "ítván": 9768,
      "ozart": 9769,
      "asel": 9770,
      "értel": 9771,
      "vanna": 9772,
      "tárg": 9773,
      "mage": 9774,
      "ttan": 9775,
      "euta": 9776,
      "aber": 9777,
      "irch": 9778,
      "műc": 9779,
      "rival": 9780,
      "rime": 9781,
      "stm": 9782,
      "stand": 9783,
      "letbe": 9784,
      "aszal": 9785,
      "liv": 9786,
      "lias": 9787,
      "sikka": 9788,
      "sapka": 9789,
      "agreb": 9790,
      "##riv": 9791,
      "önc": 9792,
      "lenti": 9793,
      "blu": 9794,
      "hurt": 9795,
      "gren": 9796,
      "trand": 9797,
      "andi": 9798,
      "ippi": 9799,
      "lébe": 9800,
      "down": 9801,
      "kredi": 9802,
      "ngm": 9803,
      "fe7": 9804,
      "tők": 9805,
      "duzz": 9806,
      "antio": 9807,
      "brand": 9808,
      "romw": 9809,
      "reda": 9810,
      "rób": 9811,
      "ehm": 9812,
      "107": 9813,
      "dríg": 9814,
      "last": 9815,
      "lasg": 9816,
      "pofa": 9817,
      "nfm": 9818,
      "ceb": 9819,
      "bkk": 9820,
      "118": 9821,
      "119": 9822,
      "113": 9823,
      "oszk": 9824,
      "dtm": 9825,
      "178": 9826,
      "nani": 9827,
      "mmka": 9828,
      "ector": 9829,
      "yir": 9830,
      "sógor": 9831,
      "lady": 9832,
      "212": 9833,
      "nóta": 9834,
      "eskó": 9835,
      "ário": 9836,
      "gót": 9837,
      "ganz": 9838,
      "ssee": 9839,
      "szárm": 9840,
      "ewi": 9841,
      "lazu": 9842,
      "rugóz": 9843,
      "tumpf": 9844,
      "gzett": 9845,
      "ikea": 9846,
      "vxe": 9847,
      "algé": 9848,
      "algor": 9849,
      "auré": 9850,
      "kaja": 9851,
      "stons": 9852,
      "hys": 9853,
      "rácso": 9854,
      "babon": 9855,
      "dwin": 9856,
      "savin": 9857,
      "tágas": 9858,
      "avant": 9859,
      "orenz": 9860,
      "pyker": 9861,
      "teaua": 9862,
      "gregá": 9863,
      ">>": 9864,
      "a5": 9865,
      "acsi": 9866,
      "c6": 9867,
      "cem": 9868,
      "cta": 9869,
      "dát": 9870,
      "dil": 9871,
      "f5": 9872,
      "hs": 9873,
      "kuká": 9874,
      "léd": 9875,
      "mam": 9876,
      "mme": 9877,
      "obe": 9878,
      "pdf": 9879,
      "rse": 9880,
      "uil": 9881,
      "xl": 9882,
      "xp": 9883,
      "yna": 9884,
      "zét": 9885,
      "##nj": 9886,
      "##yi": 9887,
      "##my": 9888,
      "##hs": 9889,
      "##íp": 9890,
      "azé": 9891,
      "azság": 9892,
      "##aly": 9893,
      "isher": 9894,
      "nyod": 9895,
      "nyög": 9896,
      "hos": 9897,
      "álko": 9898,
      "alcz": 9899,
      "enis": 9900,
      "atag": 9901,
      "okz": 9902,
      "esne": 9903,
      "erít": 9904,
      "leh": 9905,
      "érez": 9906,
      "akta": 9907,
      "emat": 9908,
      "anom": 9909,
      "gyík": 9910,
      "arol": 9911,
      "adia": 9912,
      "áras": 9913,
      "idan": 9914,
      "ségén": 9915,
      "iguel": 9916,
      "rendi": 9917,
      "tuart": 9918,
      "util": 9919,
      "utre": 9920,
      "teréz": 9921,
      "inch": 9922,
      "éti": 9923,
      "edad": 9924,
      "##ots": 9925,
      "bae": 9926,
      "ztéri": 9927,
      "abh": 9928,
      "menn": 9929,
      "iter": 9930,
      "majmo": 9931,
      "rtes": 9932,
      "amid": 9933,
      "spray": 9934,
      "kezde": 9935,
      "lyt": 9936,
      "almo": 9937,
      "érdez": 9938,
      "pere": 9939,
      "veta": 9940,
      "rémá": 9941,
      "sika": 9942,
      "sapa": 9943,
      "itty": 9944,
      "##opá": 9945,
      "ingli": 9946,
      "ölk": 9947,
      "kérdé": 9948,
      "karó": 9949,
      "hur": 9950,
      "veszé": 9951,
      "uscs": 9952,
      "ordo": 9953,
      "kamrá": 9954,
      "kron": 9955,
      "plaz": 9956,
      "low": 9957,
      "naü": 9958,
      "abads": 9959,
      "erena": 9960,
      "rub": 9961,
      "tót": 9962,
      "éder": 9963,
      "alkó": 9964,
      "##tio": 9965,
      "stag": 9966,
      "ultim": 9967,
      "kacsá": 9968,
      "lovat": 9969,
      "ibir": 9970,
      "guile": 9971,
      "123": 9972,
      "nfü": 9973,
      "pana": 9974,
      "zelé": 9975,
      "arten": 9976,
      "mpo": 9977,
      "gier": 9978,
      "rgia": 9979,
      "raga": 9980,
      "dióta": 9981,
      "ártír": 9982,
      "134": 9983,
      "172": 9984,
      "mmár": 9985,
      "tarkí": 9986,
      "sur": 9987,
      "ofron": 9988,
      "asso": 9989,
      "achu": 9990,
      "iere": 9991,
      "zíne": 9992,
      "kf8": 9993,
      "eikki": 9994,
      "pkk": 9995,
      "onyo": 9996,
      "ürd": 9997,
      "okrat": 9998,
      "atyor": 9999
    }
  }
}