<unk>	0
<s>	0
</s>	0
▁a	-3.03149
,	-3.65185
▁,	-3.89788
i	-3.91421
t	-3.99521
.	-4.11328
▁az	-4.1842
▁.	-4.49692
▁	-4.52634
▁A	-4.55052
▁és	-4.66201
▁-	-4.69652
▁hogy	-4.94397
k	-4.9827
e	-4.99614
▁is	-5.06557
en	-5.22489
▁nem	-5.23579
s	-5.26217
-	-5.32631
a	-5.33753
▁meg	-5.35786
▁egy	-5.39739
ek	-5.51943
g	-5.61205
ok	-5.63807
ó	-5.70403
▁"	-5.71544
ban	-5.7159
n	-5.72244
ni	-5.75696
et	-5.75968
▁el	-5.7688
▁Az	-5.78604
ben	-5.81755
▁ki	-5.81994
an	-5.85217
es	-5.86326
nek	-5.91002
ra	-5.91085
▁(	-5.91306
▁t	-5.92039
:	-6.02099
re	-6.02658
ja	-6.03582
m	-6.03604
on	-6.06066
nak	-6.0906
▁szerint	-6.10785
▁be	-6.11493
ő	-6.11971
os	-6.14185
▁de	-6.18835
d	-6.21149
ás	-6.24955
▁volt	-6.25197
▁fel	-6.2962
ik	-6.30161
y	-6.32239
▁már	-6.33713
z	-6.37798
l	-6.40241
)	-6.40777
ot	-6.41903
▁:	-6.41968
▁k	-6.42345
át	-6.44054
▁s	-6.47529
▁ez	-6.486
▁csak	-6.49454
▁mint	-6.5239
ul	-6.52544
▁le	-6.53825
▁még	-6.54296
at	-6.54981
ott	-6.56676
ét	-6.57884
án	-6.59638
▁nak	-6.62083
▁ha	-6.62563
▁át	-6.63747
▁i	-6.64998
ű	-6.67073
ú	-6.68367
ak	-6.71265
h	-6.71363
▁van	-6.72959
▁azt	-6.74584
▁két	-6.74899
b	-6.75416
▁több	-6.7804
▁sem	-6.787
▁mi	-6.79198
▁amely	-6.81214
r	-6.81896
▁kell	-6.81898
▁vagy	-6.8202
p	-6.82589
és	-6.82942
sz	-6.8548
ba	-6.86098
▁S	-6.86697
▁pedi	-6.87956
▁magyar	-6.89853
ett	-6.90884
▁után	-6.91767
▁e	-6.92229
o	-6.94311
▁nek	-6.94639
ai	-6.94673
er	-6.95099
ta	-6.95195
▁első	-6.97019
ig	-6.97778
f	-6.98429
▁ra	-6.98528
▁K	-6.99229
▁majd	-7.00355
▁nagy	-7.03476
▁aki	-7.04051
c	-7.04409
ság	-7.05077
va	-7.0651
▁T	-7.06734
ve	-7.07663
is	-7.08092
▁re	-7.08227
▁miatt	-7.08309
▁ok	-7.09763
▁új	-7.10098
▁lehet	-7.10899
▁F	-7.11403
vel	-7.12613
j	-7.13109
▁B	-7.13164
cs	-7.1331
as	-7.14249
▁M	-7.16081
▁ami	-7.16739
én	-7.17285
▁így	-7.17289
▁mondta	-7.17321
eket	-7.18221
▁ban	-7.18242
é	-7.1829
▁lesz	-7.18377
ék	-7.19025
▁mert	-7.19218
▁ellen	-7.2077
ül	-7.20874
ség	-7.20957
el	-7.22122
te	-7.22148
▁olyan	-7.22466
ol	-7.22738
▁úgy	-7.2309
u	-7.24798
v	-7.25177
om	-7.25565
▁minden	-7.26159
ják	-7.27065
okat	-7.27368
▁között	-7.27734
▁akkor	-7.28641
▁Ez	-7.29886
▁leg	-7.30566
zonban	-7.31007
▁év	-7.31491
▁Ha	-7.32521
ért	-7.33039
▁C	-7.33055
▁m	-7.34569
ták	-7.34581
▁egyik	-7.34785
val	-7.34833
us	-7.3535
ként	-7.36387
in	-7.36979
em	-7.37104
▁jó	-7.3765
▁?	-7.38395
▁sz	-7.39039
unk	-7.39295
ák	-7.39436
▁)	-7.40412
tak	-7.40506
▁p	-7.42072
▁E	-7.425
ában	-7.42597
be	-7.43193
ár	-7.43604
5	-7.44066
▁hoz	-7.44593
je	-7.44967
▁ek	-7.45268
▁ról	-7.46025
ál	-7.46271
▁en	-7.46541
▁V	-7.48394
ték	-7.48552
▁kormány	-7.49017
▁millió	-7.49092
▁fog	-7.50603
▁arra	-7.51466
▁P	-7.52358
▁előtt	-7.52446
ről	-7.52454
ük	-7.52617
1	-7.53563
▁három	-7.53889
á	-7.53932
▁vissza	-7.54741
ében	-7.552
▁éves	-7.55914
▁G	-7.56216
0	-7.56396
▁forint	-7.5709
▁H	-7.57222
het	-7.57647
▁most	-7.58477
▁ért	-7.58814
mikor	-7.58947
uk	-7.59171
▁sok	-7.59174
▁más	-7.59363
▁rá	-7.59454
4	-7.60342
▁Egy	-7.60663
ünk	-7.6072
A	-7.60763
2	-7.60899
ri	-7.61806
ur	-7.63492
▁volna	-7.63737
ből	-7.63869
gy	-7.64001
▁ben	-7.64019
3	-7.64683
na	-7.65282
▁ugyan	-7.65616
▁ezer	-7.65694
▁Nem	-7.65717
▁et	-7.65981
or	-7.66205
▁milliárd	-7.66231
▁össze	-7.66597
▁mellett	-7.66947
hat	-7.67107
▁illetve	-7.67466
"	-7.67567
egy	-7.67701
▁d	-7.6801
ny	-7.68146
▁Sz	-7.68506
▁ból	-7.69611
▁ként	-7.69752
al	-7.69988
▁Mi	-7.70338
▁ezt	-7.71134
ar	-7.71675
▁való	-7.71738
ból	-7.72396
hol	-7.72766
bb	-7.72883
▁f	-7.72946
▁ember	-7.73063
▁által	-7.73275
▁akik	-7.74051
ének	-7.74202
leg	-7.74335
▁világ	-7.74442
▁alatt	-7.74577
▁N	-7.74628
ed	-7.75131
▁mind	-7.76995
kor	-7.77742
6	-7.77854
▁ba	-7.78374
▁cím	-7.7929
▁ő	-7.79461
▁tól	-7.80419
ának	-7.80682
tek	-7.80734
▁ország	-7.81076
zel	-7.81626
▁I	-7.81736
▁lett	-7.83005
▁b	-7.83342
▁párt	-7.83361
7	-7.84002
hez	-7.8411
ról	-7.84543
▁Magyar	-7.84594
▁fő	-7.85378
8	-7.85634
▁nagyon	-7.85748
▁csapat	-7.85768
▁L	-7.85977
li	-7.86498
M	-7.86694
▁on	-7.86901
▁cég	-7.87063
▁teljes	-7.87181
▁adó	-7.87553
ad	-7.87611
▁négy	-7.87871
▁férfi	-7.88555
▁tovább	-7.88577
▁elő	-7.88636
ro	-7.88714
kat	-7.88763
ér	-7.89091
▁ma	-7.89741
▁De	-7.89815
▁kis	-7.89885
▁amerikai	-7.90266
▁áll	-7.90317
▁ne	-7.90357
▁hozzá	-7.90636
▁ja	-7.91397
hanem	-7.91527
ére	-7.91999
x	-7.92065
▁ről	-7.92308
▁közölte	-7.92526
▁),	-7.92533
▁n	-7.9289
ez	-7.94068
▁példá	-7.94406
▁z	-7.94423
le	-7.95102
▁Fidesz	-7.9543
▁hisz	-7.95578
▁autó	-7.95956
▁hat	-7.95966
▁azért	-7.96054
tal	-7.96159
▁szám	-7.96481
ne	-7.96845
▁fél	-7.96923
um	-7.97539
▁nál	-7.97627
▁nincs	-7.97888
▁második	-7.98515
ha	-7.98621
S	-7.98673
▁viszont	-7.98815
hető	-7.98925
▁ilyen	-7.99018
ára	-7.99306
▁százalék	-8.00345
juk	-8.00805
▁öt	-8.00907
ök	-8.00933
▁h	-8.01047
ját	-8.01069
od	-8.0119
▁annak	-8.01285
▁túl	-8.01986
nd	-8.01992
▁ott	-8.02031
▁vég	-8.02338
▁köz	-8.02541
él	-8.03291
től	-8.03396
▁MNO	-8.03627
▁10	-8.03662
▁!	-8.037
▁g	-8.04172
hoz	-8.04226
ít	-8.04449
ka	-8.04897
nál	-8.05038
▁kor	-8.05481
▁százalékkal	-8.06307
▁élet	-8.06331
▁város	-8.06859
▁rendszer	-8.07328
▁arról	-8.07365
nél	-8.07418
▁ből	-8.07957
ható	-8.07961
▁valamin	-8.08888
▁R	-8.08955
▁D	-8.08959
▁O	-8.09736
▁3	-8.09795
▁óta	-8.10927
B	-8.11541
▁től	-8.12013
ése	-8.12255
▁ára	-8.12778
▁alapján	-8.13249
▁ának	-8.13264
▁hét	-8.13756
▁l	-8.13862
▁saját	-8.13963
da	-8.14036
C	-8.14081
▁szó	-8.14179
▁amelyek	-8.14556
▁tud	-8.14606
▁korábban	-8.14677
og	-8.14941
▁ot	-8.15182
▁rendőrség	-8.15296
▁másik	-8.15564
▁számára	-8.15642
▁törvény	-8.16351
T	-8.16751
▁itt	-8.16933
▁".	-8.17264
▁hez	-8.17337
▁amit	-8.17572
▁pénz	-8.17978
ével	-8.18243
▁20	-8.18772
la	-8.19188
9	-8.19243
il	-8.19293
mi	-8.19387
tól	-8.19431
▁jól	-8.19546
▁J	-8.20076
né	-8.20387
▁százalékos	-8.20419
am	-8.20631
▁elnök	-8.20696
▁nap	-8.20777
K	-8.21213
▁Európa	-8.21231
di	-8.21286
▁nélkül	-8.21299
P	-8.21403
▁közül	-8.21408
▁c	-8.21415
kal	-8.21559
▁ét	-8.21685
▁akár	-8.21887
▁idő	-8.22156
▁euró	-8.22267
▁ezek	-8.22277
ir	-8.23245
▁;	-8.23281
E	-8.23441
▁cs	-8.23959
▁lenne	-8.24033
▁közel	-8.24313
▁nő	-8.25701
▁jár	-8.2575
▁verseny	-8.25835
vi	-8.25837
▁vezető	-8.26433
▁okat	-8.26486
▁4	-8.26562
▁helyzet	-8.26951
kel	-8.27077
után	-8.27196
▁került	-8.27313
▁W	-8.27426
ával	-8.27542
eg	-8.27632
▁csoport	-8.27731
▁egész	-8.27861
I	-8.27922
▁legnagyobb	-8.28149
ch	-8.28254
ális	-8.28383
▁néhány	-8.28482
nyi	-8.28514
▁cél	-8.28767
▁én	-8.29229
▁állam	-8.29473
▁korábbi	-8.29493
▁német	-8.29592
▁út	-8.29897
▁Ma	-8.3052
▁során	-8.30782
▁igaz	-8.3108
▁alap	-8.31118
/	-8.31154
▁19	-8.31267
elmúlt	-8.31415
ör	-8.31578
ma	-8.31776
▁jelentős	-8.3196
ü	-8.32116
zet	-8.32156
▁szemben	-8.32205
▁eddig	-8.32467
ezért	-8.32822
▁Magyarország	-8.32959
D	-8.33002
▁pont	-8.33146
▁ér	-8.33327
▁nagyobb	-8.33735
hu	-8.33867
ös	-8.33875
▁tette	-8.3391
w	-8.34007
▁szervezet	-8.34174
▁Meg	-8.34371
▁5	-8.34657
▁hasonló	-8.34758
csak	-8.34813
▁azzal	-8.3492
ö	-8.34999
öl	-8.35266
▁2	-8.35766
▁...	-8.3589
▁elmondta	-8.36338
▁egyéb	-8.36354
▁él	-8.36463
▁gazdasági	-8.36618
▁Ki	-8.36659
▁ugyani	-8.367
▁mí	-8.36972
ic	-8.3698
▁pár	-8.37273
▁választás	-8.37861
▁perc	-8.37996
▁tavaly	-8.38086
za	-8.38204
▁El	-8.38253
▁tíz	-8.38396
ása	-8.38477
▁Nagy	-8.39314
▁munka	-8.39481
▁12	-8.39534
▁lap	-8.39608
ebb	-8.39667
▁adott	-8.39743
▁együtt	-8.40295
oz	-8.40428
▁vannak	-8.40452
▁László	-8.40533
▁legjobb	-8.40786
sel	-8.41043
▁idén	-8.41769
▁ház	-8.41897
szt	-8.421
▁ment	-8.42212
nem	-8.42351
▁ám	-8.42616
▁költségvetés	-8.42663
▁ával	-8.42727
▁elnöke	-8.42952
▁tart	-8.43137
▁utolsó	-8.43328
▁család	-8.43576
▁kap	-8.43626
▁sor	-8.43833
▁kerül	-8.44205
▁Le	-8.44319
▁uk	-8.44387
▁kapott	-8.44472
inkább	-8.44494
▁piac	-8.44764
▁őket	-8.44997
▁nél	-8.45022
▁ének	-8.45023
V	-8.45025
▁ön	-8.45056
ci	-8.45308
▁film	-8.45408
í	-8.45632
▁kérdés	-8.45655
▁jog	-8.45725
▁milyen	-8.45774
▁történt	-8.45847
fi	-8.45938
ing	-8.46082
▁január	-8.46101
▁jelent	-8.46159
szer	-8.4618
▁politikai	-8.46204
▁program	-8.46219
tel	-8.46524
▁víz	-8.46533
ön	-8.46539
▁La	-8.46669
▁ár	-8.47077
▁MSZP	-8.4716
▁december	-8.47169
▁r	-8.4718
▁szak	-8.47315
▁Orbán	-8.47411
abb	-8.4746
F	-8.47506
▁val	-8.47621
▁18	-8.47818
▁újra	-8.47849
▁Budapest	-8.47937
▁tett	-8.47941
▁fontos	-8.47962
zés	-8.48006
lag	-8.48188
▁várható	-8.48192
▁marad	-8.48586
▁voltak	-8.48689
▁6	-8.48755
▁ügy	-8.49041
▁15	-8.4921
▁nemzetközi	-8.49421
ött	-8.49536
▁jobb	-8.49877
▁Z	-8.49908
▁rész	-8.49909
▁akar	-8.50114
▁bár	-8.50366
zi	-8.5106
ná	-8.51364
ló	-8.51432
▁éve	-8.51485
▁csökkent	-8.51499
▁Péter	-8.51608
▁fej	-8.51787
▁része	-8.52595
▁emberek	-8.52598
▁következő	-8.52842
▁sikerült	-8.52883
ítás	-8.53201
▁kér	-8.53217
▁mely	-8.53567
▁további	-8.53686
▁megye	-8.54249
telen	-8.5438
▁hír	-8.54453
▁harmadik	-8.54675
▁körül	-8.54787
▁bank	-8.54801
▁állami	-8.55186
elt	-8.55481
▁megfelelő	-8.55647
▁30	-8.56099
▁kellet	-8.56101
▁ük	-8.56174
jük	-8.56194
▁Be	-8.56294
▁érték	-8.56344
▁1	-8.56572
▁unk	-8.56627
▁bele	-8.56631
áció	-8.56708
▁ó	-8.56764
▁valami	-8.56994
▁U	-8.5705
▁11	-8.57228
▁Cs	-8.57242
sal	-8.57336
▁éppen	-8.57352
▁biztos	-8.5748
ani	-8.57723
▁hazai	-8.58138
▁16	-8.58155
▁jövő	-8.58195
R	-8.585
▁magát	-8.5858
lás	-8.58624
▁ában	-8.58936
▁európai	-8.5897
ekkel	-8.58997
▁Al	-8.59001
▁tér	-8.5914
tor	-8.59167
▁orosz	-8.59176
▁kép	-8.59266
▁támogatás	-8.59509
ssz	-8.59579
▁bíróság	-8.59613
▁múlt	-8.59637
▁dollár	-8.59689
▁belül	-8.59753
▁elég	-8.59838
vé	-8.60216
▁parlament	-8.60276
▁István	-8.60372
ut	-8.6042
se	-8.60485
▁j	-8.60892
▁En	-8.60933
▁szól	-8.60994
ette	-8.61379
▁25	-8.61793
akkor	-8.61912
▁ás	-8.6228
▁szóló	-8.62336
▁este	-8.62456
▁erre	-8.62521
▁lévő	-8.62552
▁játék	-8.62736
▁hang	-8.62802
▁27	-8.62962
▁legalább	-8.62976
▁2010.	-8.63026
▁é	-8.63061
ény	-8.63097
▁később	-8.63121
▁könyv	-8.63138
▁Bo	-8.63379
▁közös	-8.63515
▁gyors	-8.63532
▁erős	-8.63597
▁sal	-8.63622
▁).	-8.63781
▁szinte	-8.63821
▁ünk	-8.63823
ket	-8.63892
▁jelenleg	-8.64219
ink	-8.64346
olt	-8.64365
▁írja	-8.64393
▁sajtó	-8.64576
ck	-8.64578
▁hely	-8.64699
▁szabad	-8.64762
jában	-8.64819
▁szükség	-8.64897
▁szerződés	-8.65003
ver	-8.65069
▁eket	-8.65122
▁vasárnap	-8.65142
▁helyen	-8.65203
00	-8.65212
▁szer	-8.65288
▁kívül	-8.65295
▁alá	-8.65472
▁helyi	-8.65615
▁képest	-8.65767
▁vált	-8.6579
▁utóbbi	-8.6579
H	-8.66218
▁végén	-8.66272
ír	-8.66299
▁vár	-8.66485
▁szerdán	-8.66576
ész	-8.66579
mal	-8.66589
▁forintot	-8.66628
ív	-8.66694
ov	-8.66815
▁egyes	-8.67036
▁újabb	-8.67085
tár	-8.6728
▁okkal	-8.67294
▁sokkal	-8.67483
▁határ	-8.67617
▁Re	-8.67667
▁évvel	-8.67928
elő	-8.68177
▁néz	-8.68394
ly	-8.68543
ált	-8.6859
▁semmi	-8.68597
▁ség	-8.68759
▁es	-8.68795
▁igen	-8.68821
▁ellenére	-8.68915
me	-8.69017
▁részt	-8.69023
▁hétfőn	-8.69042
▁ismét	-8.69341
▁hónap	-8.69414
▁17	-8.69742
▁önkormányzat	-8.69908
▁azok	-8.70105
▁abban	-8.70281
áz	-8.70361
▁miniszterelnök	-8.70375
▁Magyarországon	-8.70536
▁MTI	-8.70561
rá	-8.709
ap	-8.70931
íg	-8.70995
▁kedden	-8.71058
▁november	-8.71141
▁összeg	-8.71177
▁sport	-8.71272
▁Gábor	-8.71514
▁neki	-8.71673
▁óra	-8.71894
ány	-8.72104
▁évek	-8.72288
▁jelentette	-8.72314
adó	-8.72316
ell	-8.72535
nk	-8.72789
közben	-8.72833
▁képes	-8.72883
),	-8.73245
▁vele	-8.73347
▁társaság	-8.73717
▁kezd	-8.73876
▁hiány	-8.7388
▁magán	-8.73917
▁március	-8.74051
▁nyom	-8.7419
gel	-8.74228
▁egyetlen	-8.7425
▁álló	-8.74288
zó	-8.74594
▁egyelőre	-8.74599
let	-8.74614
G	-8.74636
▁nyolc	-8.74652
▁növekedés	-8.74818
▁évben	-8.74918
lő	-8.75377
N	-8.75738
▁vezetője	-8.75746
▁gazdaság	-8.75774
▁hitel	-8.75956
▁valószínű	-8.76329
▁in	-8.76593
▁per	-8.76664
▁tudja	-8.76867
▁kal	-8.77206
▁követően	-8.77211
▁csütörtökön	-8.77362
▁rövid	-8.77431
▁pénteken	-8.77437
▁ni	-8.77471
▁kör	-8.77577
▁mérkőzés	-8.7771
▁mindenki	-8.78163
▁hosszú	-8.78374
int	-8.78378
▁hagy	-8.78522
▁válság	-8.78554
▁ismert	-8.78741
▁képviselő	-8.78766
▁14	-8.78956
ám	-8.78965
▁24	-8.79039
▁egyre	-8.79086
sorban	-8.79097
▁os	-8.79138
okkal	-8.79382
▁50	-8.79418
▁13	-8.79843
▁felé	-8.80182
ző	-8.80322
ll	-8.80367
▁eljárás	-8.80422
rel	-8.80692
▁szem	-8.80813
▁oldal	-8.80999
▁maga	-8.81109
▁fejlesztés	-8.8111
▁politikus	-8.81175
lo	-8.81177
tó	-8.81215
▁gy	-8.81329
▁szövetség	-8.81402
ce	-8.81462
lat	-8.81554
▁válogatott	-8.81643
▁kíván	-8.81742
▁ít	-8.81765
ított	-8.81985
▁magas	-8.82025
un	-8.82197
▁Sport	-8.82209
▁ill	-8.82256
▁unió	-8.82261
▁előző	-8.82357
ász	-8.82413
▁gyerek	-8.82447
zás	-8.82563
▁először	-8.82589
sége	-8.82778
▁Er	-8.82794
▁ével	-8.8281
▁miniszter	-8.82885
▁helyett	-8.82938
▁tehát	-8.82975
▁írta	-8.82983
id	-8.83169
▁gól	-8.83239
▁kisebb	-8.83285
▁se	-8.8341
▁bizottság	-8.83566
féle	-8.83732
▁készült	-8.83735
ház	-8.83805
▁brit	-8.83815
▁nyert	-8.83863
op	-8.84132
▁bor	-8.84177
▁János	-8.8439
▁22	-8.84476
L	-8.84496
▁Mint	-8.84581
éz	-8.84936
ztán	-8.85023
országi	-8.85024
▁komoly	-8.85125
▁délután	-8.85249
▁követ	-8.85669
▁száz	-8.85848
son	-8.85869
▁György	-8.85909
usz	-8.85957
mel	-8.85973
talan	-8.86095
▁kevés	-8.86272
▁26	-8.86604
▁hó	-8.86605
▁benne	-8.86677
pa	-8.86887
▁üzlet	-8.86921
▁Jobbik	-8.87044
▁vizsgálat	-8.87148
▁szint	-8.87186
▁motor	-8.87284
▁nehéz	-8.87358
▁ír	-8.87417
▁szerepel	-8.87418
ud	-8.87479
vá	-8.87566
zik	-8.87865
▁föld	-8.87936
▁döntés	-8.88028
▁Br	-8.88045
▁Tamás	-8.88065
tam	-8.88216
▁külön	-8.8835
ozó	-8.88363
▁ig	-8.88461
▁kapcsolatban	-8.8859
▁munká	-8.88609
▁New	-8.887
sa	-8.88727
▁klub	-8.88816
▁legyen	-8.88865
▁fiatal	-8.88916
▁idei	-8.88972
▁forduló	-8.88976
atlan	-8.8898
▁száma	-8.88991
▁lakás	-8.89036
▁test	-8.89086
▁valaki	-8.89114
▁meccs	-8.89205
▁hív	-8.894
▁EU	-8.89495
ony	-8.89578
▁kicsi	-8.89614
▁jelenlegi	-8.89652
▁kellene	-8.89678
nap	-8.89745
▁40	-8.89764
ca	-8.89927
▁reggel	-8.89944
▁/	-8.89986
▁kat	-8.90303
▁otthon	-8.90553
▁Ferenc	-8.90615
▁mégis	-8.90629
▁csup	-8.90711
de	-8.9074
fel	-8.90747
áj	-8.908
▁hivatalos	-8.90803
▁rossz	-8.9099
▁ekkel	-8.91051
ítés	-8.91239
ján	-8.91283
▁gyermek	-8.9154
▁közben	-8.91643
th	-8.91645
▁vesz	-8.91646
▁nyelv	-8.91691
▁szükséges	-8.91852
gal	-8.91911
▁Nemzeti	-8.91932
▁évi	-8.91959
▁tartott	-8.92165
▁És	-8.92302
▁ebb	-8.92406
▁nyugdíj	-8.92513
▁rendőrök	-8.92535
▁ját	-8.92794
▁je	-8.92795
▁épület	-8.92877
▁ére	-8.92953
▁ság	-8.93211
▁eset	-8.93225
▁gép	-8.93455
mp	-8.93491
▁8	-8.93525
ikus	-8.93561
éről	-8.93566
▁lát	-8.93657
▁miért	-8.93825
▁Zrt	-8.9397
▁esetben	-8.94084
hely	-8.94345
▁Egyesül	-8.94556
▁persze	-8.94615
▁február	-8.94655
▁nemzeti	-8.94774
▁kevesebb	-8.94845
▁modell	-8.94956
▁Zoltán	-8.95079
▁Új	-8.9508
▁díj	-8.9519
▁21	-8.95242
▁tudta	-8.95271
▁forintos	-8.95284
▁tanulmány	-8.95364
▁internet	-8.95473
▁szív	-8.95483
no	-8.95504
ült	-8.95588
kol	-8.9561
ába	-8.95814
▁darab	-8.95831
▁játékos	-8.95837
▁tel	-8.95944
▁Ba	-8.95964
▁em	-8.96155
ler	-8.96288
▁francia	-8.96356
▁pénzügyi	-8.9641
▁senki	-8.96601
▁közép	-8.96632
öv	-8.96646
ze	-8.96686
▁jelen	-8.96706
ür	-8.96728
▁Bár	-8.96742
▁Li	-8.96926
▁szinté	-8.96934
▁ezen	-8.97032
lan	-8.97308
▁utal	-8.97566
O	-8.97642
▁v	-8.97805
▁siker	-8.97814
▁BKV	-8.9782
ru	-8.979
▁orvos	-8.9791
▁talán	-8.98091
▁vett	-8.9814
▁Viktor	-8.98205
▁április	-8.98301
▁személy	-8.98604
▁folyamatos	-8.98641
mer	-8.98707
▁23	-8.99066
▁történet	-8.99077
▁Gy	-8.99124
▁lépés	-8.9913
▁héten	-8.9918
▁St	-8.9919
von	-8.9928
öt	-8.99332
hetetlen	-8.9941
▁százaléka	-8.99494
▁lép	-8.99617
co	-8.99766
zett	-8.9978
▁te	-8.99783
őr	-8.9984
▁folytat	-8.99904
dik	-8.99932
szor	-8.99938
?	-9.00047
▁hibá	-9.00049
▁összesen	-9.00139
▁gáz	-9.00213
▁Bar	-9.00259
mény	-9.00326
etlen	-9.00385
▁szerda	-9.00492
▁jobban	-9.00528
vány	-9.00587
▁Pa	-9.00601
▁kar	-9.00731
ment	-9.00797
▁érdekében	-9.00961
▁egykor	-9.01028
ró	-9.01033
▁foglalkoz	-9.01045
▁rendőr	-9.01144
▁órá	-9.01209
▁kutatás	-9.01291
▁áról	-9.01309
▁összes	-9.01319
▁intézmény	-9.0139
▁táv	-9.01419
kép	-9.01438
▁vállal	-9.01556
▁ül	-9.01626
otta	-9.01737
ug	-9.01766
szk	-9.01911
▁kampány	-9.02028
▁állt	-9.02082
aj	-9.02086
▁indult	-9.02293
ító	-9.02499
▁mit	-9.02547
▁Fel	-9.02596
heti	-9.02635
▁közlekedés	-9.0279
▁hivatal	-9.03162
▁oda	-9.03549
▁műsor	-9.03586
bé	-9.03593
jának	-9.03677
▁közösség	-9.03916
▁osztály	-9.0413
ré	-9.04221
▁nép	-9.04314
▁100	-9.04321
▁kon	-9.04327
▁zár	-9.04364
▁bér	-9.04453
▁András	-9.04491
▁7	-9.04594
▁jutott	-9.04682
▁ezelőtt	-9.04729
▁természetes	-9.04774
áról	-9.04786
▁0	-9.04809
áig	-9.04902
jon	-9.04999
▁Világ	-9.05171
▁egyszer	-9.05317
▁kár	-9.05388
▁fi	-9.05493
▁élő	-9.05533
▁olasz	-9.05652
▁jut	-9.05791
▁eredmény	-9.05814
út	-9.05958
▁terület	-9.05976
beli	-9.06079
▁hatás	-9.06096
▁maradt	-9.0622
▁sőt	-9.06373
▁elején	-9.06379
▁He	-9.0639
▁javaslat	-9.06465
kó	-9.06493
ton	-9.065
▁Itthon	-9.06529
▁nők	-9.06622
bo	-9.06869
▁9	-9.06869
▁legtöbb	-9.06932
anak	-9.07164
▁ad	-9.07189
▁állás	-9.07412
tér	-9.0746
esz	-9.07592
▁információ	-9.07596
▁Vi	-9.07699
▁tulajdon	-9.07729
▁döntő	-9.07847
▁beszél	-9.07864
▁sorozat	-9.08073
▁Ugyan	-9.08107
▁Ro	-9.08121
▁Eb	-9.08137
▁gondol	-9.08141
▁méter	-9.08291
zott	-9.08302
▁indul	-9.08318
▁2.	-9.08373
▁kapcsolat	-9.08381
▁különös	-9.08383
▁adat	-9.08467
▁tanács	-9.08479
▁tartó	-9.08628
osz	-9.08751
▁ők	-9.08814
▁külföldi	-9.08853
▁cikk	-9.08877
▁közé	-9.08902
▁Á	-9.08911
▁ismer	-9.08918
▁spanyol	-9.08927
▁fény	-9.0902
▁Ne	-9.09031
▁Ca	-9.09042
▁Sándor	-9.09067
▁keresztül	-9.091
ebben	-9.09149
▁súlyos	-9.09214
különböző	-9.09297
ral	-9.09324
ág	-9.09385
▁jegy	-9.09571
ezer	-9.09651
▁MDF	-9.09713
▁jelölt	-9.09789
▁eredeti	-9.09823
der	-9.09901
▁József	-9.09929
esen	-9.10196
▁nőtt	-9.10451
ített	-9.10474
▁időszak	-9.10686
▁lehetett	-9.10706
▁om	-9.10875
▁módon	-9.10903
▁baleset	-9.11045
do	-9.11143
▁Index	-9.11235
▁al	-9.11406
▁talál	-9.11459
▁előre	-9.11525
az	-9.11708
▁Már	-9.11778
0-	-9.11887
▁Ka	-9.12021
▁Da	-9.12164
iszt	-9.12243
▁vagyok	-9.12247
▁sel	-9.12323
ából	-9.12541
ozás	-9.12542
▁szín	-9.12751
▁esetében	-9.12957
▁október	-9.1304
▁Íg	-9.13157
▁ében	-9.13281
▁di	-9.13632
▁készül	-9.1384
▁vér	-9.13977
man	-9.14024
▁látható	-9.1403
▁enged	-9.14063
▁név	-9.14063
ád	-9.14105
to	-9.14192
lé	-9.14438
SZ	-9.14476
▁helyszín	-9.1448
▁haza	-9.14539
▁tagja	-9.14567
▁érintett	-9.14593
ner	-9.14595
oló	-9.14662
▁vagyon	-9.14747
▁listá	-9.14808
▁fok	-9.1492
▁Több	-9.15032
▁ka	-9.15085
▁vi	-9.15229
ff	-9.15249
▁addig	-9.15261
▁budapesti	-9.15374
▁kezelés	-9.15391
ező	-9.15457
▁Mo	-9.1557
▁kapcsolatos	-9.15606
▁köt	-9.15612
▁szóvivője	-9.15631
▁kínai	-9.15634
ge	-9.15648
▁Na	-9.15733
zár	-9.15774
ébe	-9.15801
▁alig	-9.1589
▁keres	-9.15895
▁hát	-9.15918
öd	-9.15943
▁ünnep	-9.16026
▁központ	-9.16039
▁cégek	-9.16106
▁adatok	-9.16109
▁szél	-9.16166
▁angol	-9.1619
▁hogyan	-9.16246
▁bo	-9.16281
▁lakosság	-9.16437
ós	-9.16518
▁1-	-9.16692
▁nevű	-9.16755
cz	-9.16794
▁egyszerű	-9.16808
tem	-9.16823
▁eb	-9.16866
▁Ko	-9.16908
ogat	-9.16913
▁szolgál	-9.16913
▁években	-9.17044
▁Két	-9.17183
▁kockázat	-9.17245
▁környezet	-9.17286
▁átlag	-9.1762
per	-9.17691
▁Ho	-9.17702
▁forrás	-9.17792
ard	-9.1787
▁von	-9.1795
▁idején	-9.18031
▁egyértelmű	-9.18154
▁ahhoz	-9.18172
▁het	-9.18254
▁mondja	-9.18358
▁akció	-9.18359
▁közt	-9.18371
▁végzett	-9.18514
▁gond	-9.18591
▁ához	-9.18825
▁fizetés	-9.18851
▁országos	-9.18888
ger	-9.18905
▁Kft	-9.18995
▁vezet	-9.19033
ber	-9.19098
▁fogalmazott	-9.19166
▁Még	-9.19337
▁polgármester	-9.19358
▁lehetőség	-9.19418
▁érkezett	-9.19427
sza	-9.19528
▁Megye	-9.19714
▁vonatkozó	-9.1978
▁Köz	-9.19796
ció	-9.19845
▁lány	-9.19862
▁Ezek	-9.19887
▁beszélt	-9.19911
▁megoldás	-9.19938
▁szeret	-9.19952
▁olvasható	-9.19986
▁28	-9.20013
pal	-9.2005
▁olvas	-9.20061
▁sokat	-9.20124
▁Gazdaság	-9.20171
▁támadás	-9.20228
zat	-9.20377
▁fogad	-9.20463
▁szolgáltatás	-9.20541
ással	-9.20688
▁bal	-9.2075
▁4-	-9.21031
rész	-9.21066
▁bevétel	-9.21121
▁többször	-9.21172
▁tudott	-9.21188
▁pályázat	-9.21193
▁dél	-9.21266
▁esett	-9.2135
▁szerző	-9.21418
▁sí	-9.21549
bor	-9.21657
▁szombaton	-9.21896
▁ülés	-9.21899
▁közötti	-9.21989
ron	-9.22055
▁média	-9.22096
▁előzetes	-9.22229
▁mögött	-9.22351
▁1.	-9.22424
▁éről	-9.22459
▁született	-9.22491
éves	-9.2251
▁választ	-9.22628
▁2010-	-9.22696
▁hol	-9.22799
▁Ja	-9.22802
art	-9.22812
▁mutat	-9.22923
▁baj	-9.23053
▁Rendőr	-9.23064
▁próbál	-9.2311
▁lakó	-9.23177
▁va	-9.23227
▁ol	-9.23285
▁megy	-9.23475
▁2009-	-9.2351
főkapitány	-9.23555
▁megjelent	-9.2362
▁század	-9.23643
▁döntött	-9.23687
▁teszi	-9.23832
fa	-9.23859
▁ingatlan	-9.23962
▁Zsolt	-9.23971
▁jának	-9.24037
▁tölt	-9.24064
▁ából	-9.24207
▁egymás	-9.24312
▁kilométer	-9.24328
átor	-9.24527
▁húsz	-9.24552
▁írás	-9.24591
▁készített	-9.24775
▁azonnal	-9.24844
▁Di	-9.24862
▁rend	-9.24986
▁oz	-9.24986
▁tartja	-9.24995
▁ráadás	-9.24996
▁dolgozó	-9.25037
▁egészségügy	-9.25052
▁hatóságok	-9.25055
▁jött	-9.25122
▁Ra	-9.25359
▁számít	-9.254
pp	-9.25425
▁halad	-9.25641
▁tenni	-9.25641
▁3.	-9.25702
▁Lu	-9.25714
▁pénzt	-9.25726
▁Attila	-9.25968
▁In	-9.2609
▁jön	-9.26128
ej	-9.26186
▁60	-9.26186
▁fotó	-9.2619
▁2008-	-9.26203
▁hi	-9.26205
▁vette	-9.2632
pe	-9.26353
▁barát	-9.26367
▁ide	-9.26391
▁alkotmány	-9.26594
▁történ	-9.26613
▁világbajnok	-9.26655
!	-9.2677
▁anyag	-9.26835
▁lak	-9.26863
▁együttes	-9.26913
▁azokat	-9.26917
▁mai	-9.26962
▁ál	-9.26998
▁né	-9.27048
▁tekint	-9.27051
▁egyéni	-9.27074
ista	-9.27139
▁figyel	-9.27156
▁női	-9.27214
▁Csak	-9.27244
▁vállalat	-9.27278
'	-9.27323
ven	-9.27343
▁hatalmas	-9.27431
▁Mar	-9.27434
▁tévé	-9.27497
ítani	-9.2756
Országos	-9.27612
▁teljesítmény	-9.277
▁játszott	-9.27705
▁többi	-9.2771
▁tudni	-9.27728
▁sérülés	-9.27812
▁Ta	-9.27868
▁csúcs	-9.27878
▁zavar	-9.27891
ho	-9.27932
endő	-9.27997
▁vel	-9.28045
▁fa	-9.28067
▁erő	-9.28088
szám	-9.28107
▁keret	-9.28109
▁tör	-9.28125
▁arc	-9.2817
▁Minden	-9.28243
ep	-9.28344
▁gyerekek	-9.28357
▁elfogad	-9.28468
▁kormányzat	-9.28484
▁fal	-9.28617
▁er	-9.28639
▁kocsi	-9.28755
▁tűnik	-9.28846
▁felelős	-9.28894
▁tagjai	-9.28908
▁gyár	-9.29084
oly	-9.29122
▁szerzett	-9.29481
▁neve	-9.29516
ését	-9.29633
szerű	-9.29698
▁kilenc	-9.2971
▁veszély	-9.29717
▁szereplő	-9.29717
▁szakmai	-9.2974
▁eddigi	-9.29742
▁jelenti	-9.29745
▁régi	-9.29949
▁Sch	-9.29975
▁országban	-9.29994
▁azon	-9.30003
jen	-9.30086
▁projekt	-9.30116
▁kiderült	-9.30388
tag	-9.30426
▁szép	-9.30626
▁hal	-9.30626
▁változás	-9.30633
▁irány	-9.30642
▁elé	-9.308
land	-9.31018
ép	-9.31039
▁jelentés	-9.31081
▁napi	-9.31103
lá	-9.31255
▁li	-9.31257
▁éhez	-9.31321
ítő	-9.31384
▁szezon	-9.31387
hatatlan	-9.31427
▁kész	-9.31501
öm	-9.31508
▁ver	-9.3151
▁dob	-9.31605
▁pontos	-9.31638
▁használat	-9.31645
▁azóta	-9.31732
ssa	-9.31795
▁független	-9.31894
▁juk	-9.31905
▁mér	-9.3197
▁mindössze	-9.31991
éd	-9.32003
▁vásárol	-9.32063
▁esetén	-9.321
▁mű	-9.32106
tunk	-9.32119
millió	-9.32221
▁Miklós	-9.32257
ac	-9.32318
▁érte	-9.3234
dó	-9.3239
▁pillanat	-9.32392
▁tanul	-9.32464
ája	-9.32665
▁na	-9.32696
▁Nemzet	-9.32745
▁[	-9.3281
▁Most	-9.32993
▁BL	-9.33066
▁Lajos	-9.33072
▁tűz	-9.33105
for	-9.33226
▁ve	-9.33278
▁átlagos	-9.33362
▁férfit	-9.33376
▁Pál	-9.33408
▁őt	-9.33533
nal	-9.33722
▁terv	-9.33805
▁X	-9.33844
▁biztonsági	-9.33951
▁növel	-9.33996
▁45	-9.34229
▁nyilatkozta	-9.34235
▁igény	-9.34417
▁módszer	-9.34457
▁busz	-9.3448
▁York	-9.34582
▁azonos	-9.34603
▁ék	-9.34701
hatja	-9.34708
▁többek	-9.3471
▁alkalom	-9.34721
ves	-9.34831
ód	-9.34844
▁testület	-9.3486
ozott	-9.34931
▁vág	-9.3512
ow	-9.35135
▁2010	-9.35198
▁kora	-9.35326
▁Ku	-9.35348
▁forgalom	-9.35386
lal	-9.35419
ill	-9.35568
ög	-9.35634
▁végre	-9.35641
▁vet	-9.35726
▁tervez	-9.35749
▁főváros	-9.35767
▁mostani	-9.3585
nnyira	-9.35875
▁Hogy	-9.35895
ély	-9.35907
▁végig	-9.36077
▁nevez	-9.36218
▁halál	-9.36244
▁29	-9.36269
▁folyamat	-9.36275
zni	-9.36296
▁mond	-9.36355
▁tag	-9.36437
▁35	-9.36514
asz	-9.36537
▁többet	-9.36657
▁ügyben	-9.36693
részt	-9.36812
▁soha	-9.36822
▁od	-9.36898
dal	-9.37124
▁Budapesten	-9.37146
▁Me	-9.37157
1-	-9.37173
▁án	-9.37247
▁bizonyos	-9.37362
▁olimpia	-9.37389
tör	-9.3746
▁forinttal	-9.37465
▁időben	-9.37625
▁32	-9.37648
izmus	-9.37673
sen	-9.37723
ór	-9.37853
▁igazol	-9.37863
▁2009	-9.37864
▁ter	-9.37882
▁mindent	-9.37975
var	-9.3807
▁író	-9.38088
▁védő	-9.38102
▁részét	-9.38123
általán	-9.38148
▁Úgy	-9.38247
úgy	-9.38459
▁felmérés	-9.38535
védelm	-9.38541
▁típus	-9.38624
▁igazgató	-9.38627
jából	-9.38643
▁harc	-9.38685
áb	-9.38715
▁rendez	-9.38817
▁belső	-9.38838
óta	-9.38991
▁Dr	-9.39052
▁olvasó	-9.39081
mb	-9.39118
▁rendezvény	-9.39119
▁ik	-9.39132
▁kormányfő	-9.39144
ob	-9.39186
▁nyújt	-9.3921
▁vitá	-9.39255
▁Ga	-9.39409
▁negyedik	-9.39435
képpen	-9.3953
▁minőség	-9.39548
▁karácsony	-9.39577
▁ellenőrzés	-9.39582
har	-9.39681
▁tervezett	-9.39697
▁könny	-9.39845
▁előbb	-9.39898
▁utas	-9.39957
jegy	-9.39985
▁adatai	-9.40002
U	-9.40013
▁válasz	-9.40061
▁mennyiség	-9.40113
▁adta	-9.40212
▁jogi	-9.40245
▁fizet	-9.40271
▁polgár	-9.40424
▁mindkét	-9.40468
▁5-	-9.40571
▁kötött	-9.40575
▁200	-9.40686
ását	-9.40736
get	-9.40788
▁vagyunk	-9.40803
▁található	-9.40907
▁tesz	-9.41003
▁Ny	-9.41026
▁indít	-9.41056
▁kötelező	-9.4109
▁Egyetem	-9.41459
▁lenni	-9.41482
▁csökken	-9.4156
óz	-9.41719
íteni	-9.41733
▁utca	-9.41754
▁felelősség	-9.41907
ker	-9.42102
▁vé	-9.42136
éssel	-9.42244
▁Államok	-9.4235
▁Unió	-9.42356
▁járó	-9.42369
▁szét	-9.42403
▁energia	-9.42435
▁történelmi	-9.42437
▁embert	-9.42455
▁Online	-9.425
▁esemény	-9.42543
▁csinál	-9.4263
▁követel	-9.42771
▁+	-9.42848
▁megállapodás	-9.42981
▁figyelmet	-9.43062
▁sérült	-9.43101
▁The	-9.43154
▁Hi	-9.43158
▁tömeg	-9.43329
▁Kar	-9.43363
▁működés	-9.43374
▁31	-9.43435
▁felvétel	-9.43471
▁szocialista	-9.43554
▁járt	-9.43652
▁bíz	-9.43886
▁ed	-9.43955
▁előny	-9.44014
▁vendég	-9.44019
▁alakít	-9.44119
lés	-9.44124
▁Dél	-9.44136
mellett	-9.44195
▁Co	-9.44249
▁Gyurcsány	-9.44467
▁szakasz	-9.44522
▁kéz	-9.44544
▁nyilatkozat	-9.44578
▁kül	-9.44629
▁kelet	-9.44636
▁la	-9.44813
▁igazgatója	-9.44876
▁mély	-9.4498
▁államtitkár	-9.44998
felé	-9.45032
▁eső	-9.45042
▁tiszt	-9.45076
rend	-9.451
▁500	-9.45236
▁arany	-9.45312
▁ígér	-9.45315
ály	-9.45388
▁dolog	-9.45388
▁fővárosi	-9.45427
vas	-9.45647
▁2011-	-9.45671
▁Bu	-9.45832
▁célja	-9.45848
▁évre	-9.45906
▁po	-9.45914
▁tehet	-9.46002
▁szolgálat	-9.46033
▁hangsúlyozta	-9.46034
▁ítélet	-9.46099
▁épít	-9.46162
▁ekkor	-9.46203
▁kapu	-9.4621
ko	-9.46299
▁szöveg	-9.46317
▁80	-9.46324
▁általános	-9.46327
port	-9.46339
▁hozott	-9.46362
▁épp	-9.46425
▁többség	-9.46434
▁állat	-9.46496
▁érdemes	-9.46502
▁pu	-9.46516
▁erről	-9.46546
▁eszköz	-9.46585
▁különbség	-9.46634
▁tárgyal	-9.46736
▁tény	-9.46778
▁kutatók	-9.46818
▁nyer	-9.4683
▁annyi	-9.46879
▁egyedül	-9.46944
▁olaj	-9.46962
▁tan	-9.47023
▁kutató	-9.47023
▁általában	-9.47125
▁hatóság	-9.47222
▁alakul	-9.47251
▁legfontosabb	-9.47256
▁papír	-9.47263
▁iskola	-9.47279
bl	-9.47304
▁Zs	-9.47316
▁feladat	-9.47327
▁maguk	-9.47445
com	-9.47543
▁választások	-9.47656
árium	-9.4778
▁építés	-9.4783
aszt	-9.47898
cel	-9.47966
éből	-9.47993
▁termék	-9.48011
▁Car	-9.48075
▁fehér	-9.48128
▁jövőre	-9.48165
jel	-9.48207
▁ég	-9.48299
▁meleg	-9.48299
vezető	-9.48353
▁kiállítás	-9.48385
▁pontosan	-9.48388
álló	-9.48401
▁föl	-9.48416
▁akit	-9.48518
▁Szövetség	-9.4852
▁magasabb	-9.48563
▁fordul	-9.48618
▁országok	-9.48679
▁országgyűlés	-9.48689
lik	-9.4872
tuk	-9.48777
▁ruhá	-9.48846
▁Se	-9.48894
▁friss	-9.49
▁foglal	-9.49054
▁gyakorlat	-9.49104
▁román	-9.49107
▁vezetői	-9.49111
▁lehetne	-9.49189
▁svájci	-9.49252
▁tudják	-9.49266
▁asszony	-9.4934
hal	-9.49351
▁kórház	-9.49369
▁Azt	-9.49376
▁Ri	-9.49467
▁Kovács	-9.4948
▁háború	-9.49481
▁katona	-9.49497
tatás	-9.49556
▁írt	-9.496
▁emel	-9.49614
▁Lo	-9.49767
▁láb	-9.49769
▁beteg	-9.49786
▁fogyasztás	-9.49804
▁tavalyi	-9.49954
▁személyes	-9.49961
▁Bizottság	-9.49963
adott	-9.50015
ügyi	-9.50018
▁hit	-9.50025
▁beruházás	-9.50027
▁Van	-9.50062
▁vezetés	-9.50081
▁kért	-9.50143
ására	-9.5015
▁Bank	-9.50178
▁negyed	-9.50268
▁találtak	-9.50323
▁u	-9.5043
▁fideszes	-9.50482
▁bűn	-9.50575
▁témá	-9.50611
▁politiká	-9.50642
▁teszt	-9.50661
▁társadalom	-9.50773
▁május	-9.50773
▁Szerinte	-9.50775
mű	-9.50777
▁hétfő	-9.50792
▁Ő	-9.50804
▁tartalmaz	-9.50881
▁Ben	-9.50921
▁épül	-9.51084
▁Kr	-9.51087
▁lesznek	-9.5113
▁munkahely	-9.51139
lyen	-9.51262
▁közvetlen	-9.51266
▁Sza	-9.51288
▁á	-9.51406
▁társadalmi	-9.51457
▁fegyver	-9.51466
▁egyetem	-9.51508
▁folyó	-9.51535
▁jövőben	-9.51555
▁tenger	-9.51685
▁győztes	-9.51694
▁33	-9.51711
▁tulajdonos	-9.51722
▁Szabó	-9.51724
▁kel	-9.51766
▁Hu	-9.51888
▁költség	-9.51932
▁őr	-9.51979
▁eh	-9.5207
bu	-9.52297
▁egészen	-9.52307
▁36	-9.52336
▁hozta	-9.52426
edett	-9.52456
▁tárgyalás	-9.52605
▁70	-9.52722
adás	-9.52783
miatt	-9.52833
esebb	-9.5285
▁hideg	-9.52911
gat	-9.52943
uz	-9.52997
▁hangulat	-9.53078
ács	-9.53102
go	-9.53112
▁ennyi	-9.53293
bban	-9.53299
tál	-9.53299
▁sikeres	-9.53309
▁lo	-9.53331
▁úton	-9.53396
▁Sok	-9.53401
▁havi	-9.53419
kod	-9.53428
▁színész	-9.5343
úr	-9.53472
▁vége	-9.53491
▁számol	-9.53607
▁hajó	-9.53695
vő	-9.53708
▁gyakra	-9.53747
éhez	-9.53754
▁változat	-9.53759
▁bel	-9.53822
po	-9.53911
▁úgynevezet	-9.53914
▁blog	-9.53915
▁járat	-9.54041
▁Géza	-9.54082
▁ei	-9.541
mar	-9.54103
▁távol	-9.54119
▁Tr	-9.54209
▁település	-9.54407
▁adósság	-9.54421
▁állapot	-9.54436
elem	-9.54465
▁húz	-9.54472
▁2006-	-9.54547
▁Tanács	-9.54588
20	-9.54771
vár	-9.54788
jára	-9.54789
▁versenyző	-9.54813
▁király	-9.54919
▁biztosít	-9.55066
▁nappal	-9.55136
▁férfiak	-9.55137
▁rajta	-9.55153
▁kamat	-9.55191
▁indított	-9.55353
▁lengyel	-9.55384
▁videó	-9.55437
▁szeptember	-9.55479
▁kérte	-9.55556
▁lőtt	-9.55557
▁minisztérium	-9.55607
▁napokban	-9.55614
▁vita	-9.55631
rab	-9.55666
▁szabályozás	-9.55743
nő	-9.5577
▁társ	-9.55833
üket	-9.55863
ották	-9.55906
▁Fő	-9.55918
▁módosítás	-9.55962
▁profi	-9.56108
▁Mind	-9.56127
▁edző	-9.56257
▁segítségével	-9.56326
ésére	-9.56429
▁2008	-9.56451
ou	-9.56509
br	-9.56618
▁vezette	-9.56695
▁tudnak	-9.56717
▁LMP	-9.5681
▁attól	-9.56822
hogy	-9.56894
▁forgalma	-9.56933
▁emberi	-9.56981
▁ismeretlen	-9.57006
▁pályá	-9.57009
▁együttműködés	-9.5703
▁elnökség	-9.57047
enként	-9.57249
▁Bal	-9.57276
▁képvisel	-9.57284
▁arány	-9.57312
▁reform	-9.57331
▁portál	-9.57339
▁90	-9.57377
▁nekik	-9.57427
▁emlék	-9.57431
▁napon	-9.57449
ódott	-9.57469
▁tervek	-9.57506
▁Központ	-9.57513
▁fizetni	-9.57565
▁mar	-9.57576
▁bajnok	-9.57664
▁délelőtt	-9.57686
▁pro	-9.57722
▁végez	-9.57737
▁KA	-9.57815
▁telefon	-9.5802
her	-9.58032
▁széles	-9.58065
▁dal	-9.58178
▁okoz	-9.58218
▁kezdet	-9.58249
▁vál	-9.5828
▁labdarúgó	-9.58378
origo	-9.5838
▁visel	-9.58447
▁péntek	-9.58476
▁biztonság	-9.58538
▁körülmények	-9.58555
▁partner	-9.58564
▁Mol	-9.58592
▁csomag	-9.58644
▁kötet	-9.58747
▁oszt	-9.5887
▁vélemény	-9.59022
belül	-9.59065
izál	-9.59088
▁szakember	-9.59103
▁életét	-9.59202
▁ák	-9.59212
▁árfolyam	-9.59255
▁őrizetbe	-9.59271
▁Su	-9.59308
▁igazi	-9.5937
▁téli	-9.59416
▁Szent	-9.5952
▁családi	-9.59584
▁osztrák	-9.59601
▁7,	-9.59661
▁magyarok	-9.59699
▁rendező	-9.59706
▁jel	-9.59853
▁üzem	-9.5996
ev	-9.59974
▁köszönhetően	-9.59977
▁Gu	-9.59999
▁szavazat	-9.60057
▁találkozó	-9.60082
▁heti	-9.60172
▁tevékenység	-9.60285
▁szabály	-9.60354
▁keretében	-9.60401
▁csütörtök	-9.60431
▁közönség	-9.60477
jét	-9.60555
sék	-9.6056
▁tor	-9.60626
▁Sp	-9.6079
▁hallgat	-9.60865
▁Ve	-9.60903
▁előadás	-9.60911
▁érdekes	-9.60929
tikus	-9.60979
lin	-9.60981
▁hete	-9.61052
jával	-9.61091
▁fordít	-9.61125
▁Ber	-9.6119
zon	-9.61195
▁börtön	-9.61228
▁So	-9.61334
mány	-9.61367
▁visszatér	-9.61381
▁San	-9.61414
ekben	-9.61421
▁szinten	-9.61421
▁dolgoz	-9.61431
▁létre	-9.61444
▁csap	-9.61487
▁leginkább	-9.61629
▁kezel	-9.61661
▁jogszabály	-9.61713
▁küld	-9.6177
▁gyártó	-9.61801
▁rendel	-9.61918
▁származ	-9.61926
▁mérték	-9.61947
▁kölcsön	-9.61953
▁emelkedett	-9.61953
▁Vagy	-9.61955
▁gyógyszer	-9.61982
▁3-	-9.62019
▁találkoz	-9.6202
▁elv	-9.62028
▁véli	-9.62045
▁munkát	-9.62072
▁sincs	-9.62137
▁betegség	-9.62199
▁áram	-9.62217
▁hálózat	-9.62273
▁szerep	-9.62295
▁londoni	-9.62318
▁idéz	-9.62379
vény	-9.62408
▁bír	-9.62422
▁szombat	-9.62449
▁Jó	-9.62547
▁kulturál	-9.62683
min	-9.62782
▁34	-9.62918
▁Te	-9.62998
W	-9.63071
▁hosszabb	-9.63076
lu	-9.63121
iai	-9.63209
▁mutató	-9.63227
▁helyet	-9.63239
▁kettő	-9.63274
▁Kat	-9.63279
▁tartani	-9.63353
▁felnőtt	-9.6342
▁pályán	-9.63423
▁futam	-9.63442
▁tudom	-9.63529
ntikv	-9.63605
▁000	-9.63651
▁szlovák	-9.63719
ry	-9.63814
▁Győr	-9.63816
▁nehez	-9.63827
▁támad	-9.6383
▁bejelentés	-9.63862
▁egyház	-9.63873
▁mértékben	-9.63909
▁beszéd	-9.64108
▁nyerte	-9.64119
▁ellátás	-9.64133
▁ától	-9.6419
▁forintra	-9.64269
▁érvényes	-9.64337
▁Igaz	-9.64347
▁szociális	-9.64376
▁Kis	-9.64448
▁működő	-9.64505
▁alkalmaz	-9.64525
▁Föld	-9.64535
▁37	-9.64585
ügy	-9.64671
▁15-	-9.64783
▁értéke	-9.64896
▁véd	-9.64901
▁Oroszország	-9.64908
▁örök	-9.64916
▁ezre	-9.64943
▁ex	-9.65063
lel	-9.65068
▁Hozzátette	-9.65096
▁jég	-9.65096
▁Csaba	-9.65097
▁Főváros	-9.651
▁számlá	-9.65127
▁vád	-9.65154
▁töltött	-9.65275
anyag	-9.65295
▁kedv	-9.65311
▁százalékát	-9.65367
ster	-9.65389
▁Hivatal	-9.65472
▁csökkenés	-9.65495
▁por	-9.65512
▁lég	-9.65524
bont	-9.65528
▁fenyeget	-9.65556
▁vezér	-9.65648
▁Tibor	-9.65663
pont	-9.65664
▁ideje	-9.65748
▁éből	-9.65769
▁esély	-9.65839
▁kapcsán	-9.6585
▁jellemző	-9.65856
▁w	-9.65888
▁gyakorlati	-9.65942
▁régió	-9.6596
ina	-9.65986
▁működik	-9.65994
▁ko	-9.66014
▁kísérlet	-9.6608
▁tartják	-9.66086
▁ny	-9.66145
▁index	-9.66179
▁o	-9.66304
▁zene	-9.66332
helyettes	-9.6638
▁görög	-9.66431
jén	-9.66459
▁állította	-9.66533
cc	-9.66584
cia	-9.66599
▁Ol	-9.66671
▁rendelkezés	-9.66685
▁nyug	-9.6678
lkotmánybíróság	-9.668
▁regény	-9.66801
▁gólt	-9.66841
zák	-9.6693
érték	-9.66997
▁hajt	-9.6702
▁'	-9.67067
▁június	-9.67183
▁csillag	-9.67183
▁körében	-9.67248
▁bajnoki	-9.67257
▁csúsz	-9.6737
▁iránt	-9.67377
▁term	-9.67543
Z	-9.67595
▁lehetővé	-9.67769
tünk	-9.67769
▁remek	-9.67778
▁venni	-9.67792
▁viszony	-9.67852
▁ötlet	-9.67857
▁kedd	-9.67922
▁határozat	-9.67994
del	-9.68026
▁lépett	-9.68042
▁rendszeres	-9.68051
▁benzin	-9.68154
▁sztrájk	-9.68228
áló	-9.6829
▁kényszer	-9.68294
▁szándék	-9.68318
▁vb	-9.68398
▁engedély	-9.68403
▁Balázs	-9.68534
▁lehetőséget	-9.6854
▁Po	-9.6855
▁Kor	-9.68612
▁tudjuk	-9.6869
▁büntetés	-9.68694
▁fekete	-9.68735
▁Országgyűlés	-9.68924
▁talált	-9.68979
▁fiú	-9.69094
▁alacsony	-9.69097
▁nevezte	-9.6918
▁vették	-9.69228
▁300	-9.69245
alom	-9.69259
▁jármű	-9.69283
▁harmad	-9.69343
fer	-9.69346
▁bíró	-9.69422
▁mozgás	-9.69543
▁kínál	-9.69546
ülés	-9.69578
▁televízió	-9.69598
▁195	-9.6961
▁Vég	-9.69713
▁hajnal	-9.69715
▁múlva	-9.69728
▁akarta	-9.70029
▁Ni	-9.70062
▁kemény	-9.70113
▁É	-9.70134
ord	-9.70184
andó	-9.70191
▁nk	-9.70232
▁szakemberek	-9.70272
▁állítólag	-9.70302
▁felett	-9.70309
▁térség	-9.70323
▁érdek	-9.70325
▁Mari	-9.70461
▁Károly	-9.70497
▁ába	-9.706
ímkék	-9.70631
▁figyelmeztet	-9.70696
▁svéd	-9.70697
▁ho	-9.7074
▁főleg	-9.70776
▁Her	-9.70798
▁tartozó	-9.70852
vétel	-9.70945
▁mellé	-9.70993
▁biztosan	-9.70998
▁nyilvánosságra	-9.71017
▁Hol	-9.71038
▁civil	-9.71094
ezte	-9.7111
▁megyében	-9.71186
▁zárt	-9.71206
▁Vas	-9.71226
▁2-	-9.71338
▁esti	-9.71344
▁sziget	-9.714
▁hagyományos	-9.71439
▁harminc	-9.71518
▁szabadság	-9.71531
▁jét	-9.71533
▁alakult	-9.71644
▁kötelezettség	-9.71694
▁Imre	-9.71898
▁időjárás	-9.71904
▁születés	-9.71961
▁szerepelt	-9.71966
▁mennyi	-9.71977
rendszer	-9.72034
▁pártok	-9.72069
▁mikor	-9.72135
szerűen	-9.72137
▁nyitott	-9.72173
▁válaszol	-9.72239
▁futball	-9.72244
▁részén	-9.72253
▁probléma	-9.72297
▁érez	-9.72299
▁rádió	-9.723
▁feltétel	-9.72302
▁elemzés	-9.72318
dy	-9.72343
▁szenvedett	-9.72354
he	-9.72373
▁kísér	-9.72395
atív	-9.72418
▁kod	-9.72439
▁természet	-9.72466
▁Ju	-9.72476
▁kezdett	-9.72658
▁könnyű	-9.72675
▁valóság	-9.72749
wa	-9.7277
▁képzés	-9.72773
▁évtized	-9.72776
▁mo	-9.72789
▁melyek	-9.72818
▁ennél	-9.72832
▁annyit	-9.72857
▁Pécs	-9.72905
▁szűk	-9.72914
▁rendkívül	-9.72941
▁végrehajt	-9.73083
▁védelm	-9.73106
▁okozott	-9.73198
pol	-9.73278
▁levegő	-9.73311
av	-9.73354
▁Y	-9.73473
▁készít	-9.73487
▁kizárólag	-9.73516
▁ro	-9.73562
▁módosít	-9.73563
▁Fa	-9.73583
▁veszi	-9.73599
▁vonul	-9.73616
▁Szer	-9.73641
▁szerinte	-9.73645
alma	-9.73653
▁művészet	-9.73672
▁kapus	-9.73685
▁Man	-9.73717
▁idegen	-9.73718
ju	-9.73724
▁esetleg	-9.73726
▁Szeged	-9.73822
sta	-9.73891
▁Bíróság	-9.73925
▁derül	-9.73974
▁gyanúsított	-9.7406
▁támadó	-9.74088
▁alak	-9.74154
▁Real	-9.74264
ers	-9.74302
▁ellentét	-9.7436
▁Ru	-9.74439
▁területén	-9.74582
▁vállalkozás	-9.74604
▁helyre	-9.74652
▁számolt	-9.74662
▁4.	-9.74667
▁kommunikáció	-9.74681
▁eredménye	-9.74685
▁esz	-9.74705
▁nemrég	-9.74753
▁bemutat	-9.74853
sson	-9.75002
▁szakértők	-9.75007
új	-9.75059
▁poszt	-9.75148
▁Je	-9.75251
▁következt	-9.75349
▁befektetés	-9.75371
▁Persze	-9.75372
org	-9.75431
▁pontot	-9.75432
▁vizsgál	-9.75501
▁ezút	-9.75535
▁Du	-9.75539
törés	-9.75562
▁boldog	-9.75579
▁néző	-9.75669
▁észak	-9.75692
Az	-9.75758
▁augusztus	-9.75788
▁magam	-9.75835
▁zöld	-9.75907
▁vezetett	-9.75971
▁Debrecen	-9.75998
▁fiatalok	-9.76003
▁nyílt	-9.76043
▁bőr	-9.76076
▁7-	-9.76097
▁vásárlás	-9.76207
▁pozitív	-9.76207
▁centiméter	-9.76215
▁használt	-9.76226
lap	-9.76273
▁okozta	-9.76281
▁súly	-9.76344
▁szel	-9.76347
▁elemző	-9.76388
▁másodperc	-9.76417
▁tartózkod	-9.76418
▁Észak	-9.76418
▁veszteség	-9.76423
▁keddi	-9.76513
▁hegy	-9.7653
száz	-9.76532
sé	-9.76648
▁függ	-9.7668
▁tartozik	-9.76695
▁ukat	-9.76736
▁igazság	-9.7675
▁egészség	-9.76759
▁alkalmas	-9.76872
▁fejlődés	-9.7694
itás	-9.76981
ley	-9.77002
▁196	-9.77019
jelölt	-9.7702
▁intézkedések	-9.77158
▁amennyi	-9.77175
▁hírek	-9.7718
▁dokumentum	-9.77202
▁oldalon	-9.77238
szerint	-9.77252
jön	-9.77255
▁tényleg	-9.77256
elmi	-9.77258
▁Tóth	-9.77263
▁látszik	-9.77272
2-	-9.77274
▁területek	-9.7728
▁ügyészség	-9.77364
▁többsége	-9.77392
▁30-	-9.77402
▁külső	-9.77476
▁Gi	-9.77602
▁felső	-9.77628
▁GDP	-9.77687
▁belőle	-9.77688
▁elkövetet	-9.77792
▁Ed	-9.77864
yer	-9.77865
▁remény	-9.77869
▁Bor	-9.77893
▁lehetséges	-9.77907
▁agy	-9.77956
▁másfél	-9.78114
▁jük	-9.78135
▁y	-9.78151
▁Jo	-9.7816
▁finanszírozás	-9.78171
▁továbbá	-9.78254
▁művész	-9.783
tük	-9.78334
ezett	-9.78348
dor	-9.78431
▁pozíció	-9.78531
▁reklám	-9.78543
▁hány	-9.78598
▁ellenzéki	-9.78609
▁ős	-9.7861
▁világbajnokság	-9.78721
▁6-	-9.78725
▁Horvát	-9.78758
▁japán	-9.78759
▁alapvető	-9.78768
▁or	-9.78828
▁évente	-9.7883
▁adni	-9.78918
▁szerepet	-9.78932
▁38	-9.78972
▁illetékes	-9.79087
▁kapta	-9.79095
▁száll	-9.79103
▁konkrét	-9.79189
▁révén	-9.79189
zen	-9.79205
ros	-9.79265
▁vehet	-9.7928
ölt	-9.79282
▁falu	-9.79302
▁tol	-9.79398
▁bűncselekmény	-9.79435
▁közelében	-9.79438
▁ítél	-9.79447
zta	-9.79451
▁jával	-9.79473
olás	-9.796
▁örül	-9.79629
▁vidék	-9.79664
▁8-	-9.79671
tartás	-9.79711
▁Mon	-9.79728
két	-9.79759
▁11-	-9.79907
▁bu	-9.79995
szó	-9.80046
▁Népszabadság	-9.80058
▁infláció	-9.80058
▁Tovább	-9.80058
▁2007-	-9.80065
olta	-9.80145
▁Én	-9.80189
]	-9.80226
▁mell	-9.8024
▁július	-9.80276
▁köztü	-9.80287
▁körüli	-9.80294
▁of	-9.80485
▁rengeteg	-9.80495
▁öröm	-9.80495
tani	-9.80525
▁Leg	-9.80598
▁sokszor	-9.8061
esség	-9.80641
▁idős	-9.80692
▁stílus	-9.80714
▁vasút	-9.80721
▁szánt	-9.80786
▁Franciaország	-9.80934
▁szomszéd	-9.80934
▁elérhető	-9.80935
föld	-9.80984
▁mutatja	-9.81144
▁tárgy	-9.81205
junk	-9.81224
▁képesség	-9.8126
▁anyagi	-9.81313
▁Aki	-9.81336
▁élete	-9.81392
▁sors	-9.81395
▁percben	-9.81524
▁iskolá	-9.81621
uta	-9.81716
▁biztosítás	-9.81728
▁botrány	-9.81729
séggel	-9.81754
▁példa	-9.81818
▁dönt	-9.81847
▁százalékot	-9.81942
▁terror	-9.82041
▁hajlandó	-9.82042
▁menet	-9.82113
▁közlemény	-9.82168
▁rendelkező	-9.82188
▁tanár	-9.82208
▁éjszaka	-9.82263
▁vonal	-9.82267
▁napilap	-9.82273
▁nyilván	-9.82411
▁mentő	-9.82426
▁újság	-9.82462
▁sztár	-9.82477
▁42	-9.8253
▁terjed	-9.82592
▁kapitány	-9.82656
▁Micha	-9.8272
▁pénteki	-9.82793
▁felül	-9.82868
▁nyilatkoz	-9.82893
▁győzelem	-9.82925
▁politika	-9.82959
▁kiváló	-9.83159
▁Ge	-9.83202
▁hatalom	-9.83203
han	-9.83206
▁csapata	-9.83329
▁intézet	-9.83381
▁tökéletes	-9.83384
▁élelmiszer	-9.83384
▁vevő	-9.83397
▁sebesség	-9.83401
▁ked	-9.83408
keres	-9.8343
zetközi	-9.83455
▁ügyek	-9.83587
▁állítja	-9.83608
▁Varga	-9.8361
milyen	-9.8369
▁alkalmazott	-9.83691
▁szünet	-9.83732
gép	-9.83785
▁teremt	-9.83797
▁állandó	-9.83879
▁Ilyen	-9.83893
▁egyaránt	-9.84063
▁óriási	-9.84077
kö	-9.84136
lét	-9.84158
kar	-9.84176
▁érkező	-9.84198
▁szerkezet	-9.8429
▁hirdet	-9.84306
▁hivatkozva	-9.8434
▁közleményében	-9.84344
▁Nagyon	-9.84376
▁To	-9.84445
▁Ter	-9.84481
▁akart	-9.84501
▁műszaki	-9.84532
▁kerülhet	-9.84536
▁források	-9.84539
▁mondani	-9.84546
▁különleges	-9.84564
▁ipari	-9.847
▁bajnokság	-9.84711
▁űr	-9.84724
▁ná	-9.8473
▁kiderül	-9.84735
▁gazdag	-9.84743
▁szavazás	-9.84749
▁8,	-9.84796
▁műve	-9.84799
▁kaptak	-9.8482
▁képviselői	-9.84822
▁támogat	-9.8483
▁ősz	-9.84886
▁nyugati	-9.849
▁helyszínen	-9.84924
▁meglepetés	-9.84976
▁194	-9.84978
▁cseh	-9.8498
▁fordult	-9.84983
▁tétel	-9.85017
▁utaz	-9.85037
▁pályára	-9.85105
▁szerez	-9.85136
gő	-9.8517
▁eljárást	-9.85172
▁kezdte	-9.85188
díj	-9.85268
-1	-9.85318
▁TV	-9.85322
kedés	-9.85323
vári	-9.85375
▁szed	-9.85427
▁tűnt	-9.85476
irat	-9.85497
▁nekem	-9.85501
▁meghalad	-9.85569
▁du	-9.85631
▁eurót	-9.85634
ics	-9.85654
▁hozzátette	-9.85667
ex	-9.85668
előtt	-9.8575
▁negyedév	-9.858
▁kialakul	-9.8586
▁ismertet	-9.85893
▁időszakban	-9.85903
▁váltó	-9.85928
online	-9.85938
▁Nap	-9.85969
▁Duna	-9.86002
▁helyez	-9.86021
▁viz	-9.86031
▁segít	-9.86034
▁pálya	-9.86125
ká	-9.86127
▁Google	-9.86127
J	-9.86207
ah	-9.8621
▁hőmérséklet	-9.86359
▁honlapján	-9.86471
▁Ste	-9.86604
▁400	-9.86637
▁esélye	-9.86682
▁áldozat	-9.86771
▁döntetlen	-9.86838
▁története	-9.86891
▁szerezte	-9.87
▁Inter	-9.871
▁kórházba	-9.87117
▁megjelen	-9.87135
▁ismeret	-9.87144
▁Ami	-9.87194
▁üket	-9.87217
jék	-9.87252
▁szerb	-9.87261
▁képviselők	-9.87263
▁sikerül	-9.87274
elés	-9.87285
▁FC	-9.87285
▁ajándék	-9.87286
▁sáv	-9.87293
▁Pest	-9.87295
▁formá	-9.87319
▁eladás	-9.87328
▁Har	-9.87349
▁ötven	-9.87358
▁csütörtöki	-9.87365
▁fognak	-9.87376
▁kérdések	-9.87398
▁nemzet	-9.87471
ődés	-9.87478
ezés	-9.87506
ozni	-9.87513
kész	-9.87518
▁Itt	-9.87562
kinek	-9.87663
odott	-9.87674
▁említett	-9.87717
▁íz	-9.8774
▁számítógép	-9.87766
lassan	-9.87769
▁helyzetben	-9.878
ín	-9.87837
▁55	-9.87924
▁jelentkez	-9.87979
▁haj	-9.88
▁Akkor	-9.88059
cal	-9.88075
európai	-9.881
▁tőle	-9.88116
▁hétfői	-9.88229
sor	-9.88244
▁akarja	-9.88254
fu	-9.88258
▁szerződést	-9.88327
ozta	-9.88332
▁rég	-9.88336
nyugdíjpénztár	-9.88465
▁valamennyi	-9.88473
▁jegybank	-9.88477
▁kiemelt	-9.8848
sem	-9.88695
▁vettek	-9.88705
▁Madrid	-9.8871
gar	-9.88721
▁plusz	-9.88724
▁II	-9.88739
▁biztosító	-9.88744
▁piacon	-9.88744
▁élt	-9.88821
▁kkal	-9.88912
▁dolgozott	-9.88922
▁apró	-9.88995
sch	-9.8905
ich	-9.89093
▁PL	-9.891
▁semmit	-9.8913
▁hátrány	-9.89217
▁mire	-9.89255
▁Szabolcs	-9.89425
▁tőke	-9.89426
▁ajánlat	-9.895
▁Ön	-9.89526
lam	-9.8957
▁elmond	-9.89574
▁mások	-9.89603
▁nélküli	-9.89621
▁magukat	-9.89663
▁letartóztatás	-9.89665
que	-9.89686
▁km	-9.89701
▁ipar	-9.89775
▁bán	-9.89808
zük	-9.89817
▁számában	-9.8984
▁tudományos	-9.89862
osabb	-9.89895
▁remél	-9.89907
▁államfő	-9.89929
▁alkot	-9.89954
ához	-9.89991
▁abb	-9.89992
▁napja	-9.89997
nel	-9.89997
▁Do	-9.90112
ford	-9.90118
▁testvér	-9.90153
▁hiába	-9.90173
▁szabályok	-9.90174
▁Mark	-9.90228
▁kedvező	-9.90234
tika	-9.90264
▁lezár	-9.90272
▁kereszt	-9.90326
▁veszélyes	-9.9035
▁ügyében	-9.90364
▁vezetők	-9.90429
▁kétszer	-9.90488
osztás	-9.90496
▁fut	-9.9062
▁koncert	-9.9063
▁ötödik	-9.9063
▁értelmé	-9.90631
szeg	-9.90665
▁jában	-9.90672
hallgatás	-9.90673
▁had	-9.90675
ham	-9.90691
▁2007	-9.90694
▁öltöz	-9.90714
▁tették	-9.90722
▁érzés	-9.90754
vin	-9.9079
▁vádol	-9.90796
ukat	-9.90867
▁mondott	-9.90882
felje	-9.90967
▁értékel	-9.9105
zsa	-9.91161
▁mobil	-9.91256
bol	-9.91275
▁befolyásol	-9.9128
▁mód	-9.91287
▁használ	-9.91325
▁szóvivő	-9.91337
▁Minisztérium	-9.9136
▁legyőz	-9.9136
íz	-9.91371
▁Más	-9.91375
▁holland	-9.91379
▁Antal	-9.9139
▁ható	-9.91454
▁39	-9.91534
▁tapasztalat	-9.9155
▁cent	-9.91678
▁központi	-9.91696
▁kerültek	-9.91703
▁Ke	-9.91706
▁Tor	-9.91803
au	-9.91805
und	-9.91846
▁irodá	-9.91852
▁szempontból	-9.91879
▁ú	-9.92009
▁We	-9.92071
▁élvez	-9.92109
▁indítvány	-9.92116
▁dollárt	-9.92133
ellyel	-9.92134
hívás	-9.9219
▁pl	-9.92193
▁mindez	-9.92259
▁termelés	-9.92267
▁szeretnék	-9.92293
▁szervezetek	-9.92338
ították	-9.92368
▁Mag	-9.92394
▁For	-9.92433
író	-9.92448
zék	-9.92504
▁termékek	-9.92536
▁problémák	-9.92583
▁számított	-9.92599
▁véleménye	-9.92725
▁Obama	-9.92836
▁Forma	-9.92862
▁meglepő	-9.92867
koreai	-9.92945
▁emelés	-9.93003
▁ri	-9.93014
más	-9.93028
▁frank	-9.93084
▁Manchester	-9.93084
▁zsidó	-9.93084
▁negyven	-9.93085
▁szeretné	-9.9313
▁javasol	-9.93167
idő	-9.93245
▁érdeklődés	-9.93294
▁5.	-9.93338
▁gyártás	-9.93425
▁munkatársai	-9.9351
▁sofőr	-9.93584
▁tartanak	-9.9364
▁fogadta	-9.93646
▁követő	-9.93681
▁kulcs	-9.93688
▁játszik	-9.93737
+	-9.93752
▁ügyvéd	-9.93774
▁anya	-9.93787
▁hall	-9.93817
▁tájékoztatása	-9.93825
▁legutóbbi	-9.93828
▁Ö	-9.93909
▁fogalmaz	-9.9395
▁alkalmazás	-9.93956
▁befektetők	-9.9403
▁ci	-9.94034
▁folytatás	-9.94091
▁étől	-9.94112
▁csökkentés	-9.94202
up	-9.94218
▁48	-9.94261
▁elkerül	-9.94267
▁utazás	-9.94288
▁SZDSZ	-9.94293
▁hallgató	-9.943
ozza	-9.94319
▁ök	-9.94352
▁területen	-9.94382
▁korrupció	-9.94586
▁páros	-9.94625
▁tanácsadó	-9.94625
▁eredményei	-9.94627
▁41	-9.9463
▁közgyűlés	-9.94631
▁szállít	-9.94694
▁esetleges	-9.947
▁szent	-9.94839
▁izraeli	-9.94839
nce	-9.94848
▁Wi	-9.94855
dar	-9.94879
edik	-9.94934
▁lehetősége	-9.95003
▁büntető	-9.95026
▁újságíró	-9.95051
▁adás	-9.95067
▁Három	-9.95092
▁Mindez	-9.95147
▁táj	-9.95147
▁No	-9.95205
▁alacsonyabb	-9.95215
▁szeretne	-9.95218
▁jelezte	-9.95293
▁bankok	-9.95316
tató	-9.95325
▁állnak	-9.95335
▁fölött	-9.95379
▁adja	-9.95434
sebb	-9.95447
▁hord	-9.9547
▁elem	-9.95475
▁fest	-9.95488
▁küzd	-9.95583
▁for	-9.95662
▁tájékoztatás	-9.95965
▁der	-9.95998
▁tár	-9.96011
▁látja	-9.96013
▁rel	-9.96046
▁törvényt	-9.96061
▁hamarosan	-9.96111
▁44	-9.96133
▁nyáron	-9.96211
▁ágy	-9.96217
▁9,	-9.96217
▁mennyire	-9.96241
ányi	-9.96261
30	-9.9627
▁tető	-9.96304
▁Robert	-9.9637
▁lövés	-9.9637
zal	-9.96381
▁tárca	-9.96383
▁válik	-9.96408
▁eredmények	-9.9641
▁Anna	-9.96414
▁bemutató	-9.96524
▁megszűn	-9.96625
▁valamely	-9.96625
▁dolgozik	-9.96648
▁figyelembe	-9.96673
▁vá	-9.96722
▁tehetség	-9.96748
tlen	-9.96764
▁Val	-9.96776
ügyminisztérium	-9.96882
▁szocialisták	-9.96882
▁létszám	-9.96889
▁City	-9.96919
▁part	-9.96991
▁jára	-9.97102
▁Jan	-9.97113
▁Veszprém	-9.97141
▁verzió	-9.97141
▁modern	-9.97141
▁he	-9.9716
▁élmény	-9.97203
▁hónapok	-9.97207
▁nyújtott	-9.9721
▁szex	-9.97215
▁sejt	-9.9723
▁alkotás	-9.97239
▁bi	-9.97342
▁panasz	-9.97354
▁rendelet	-9.97373
▁emelkedés	-9.97392
▁20-	-9.97412
▁szegény	-9.97416
▁Bel	-9.97422
▁könnyebb	-9.97424
dzs	-9.97437
▁felel	-9.9747
▁működ	-9.97475
▁észre	-9.97494
ítette	-9.97575
▁esetek	-9.97589
▁Európában	-9.97596
▁kerületi	-9.97654
▁feltételez	-9.97678
oc	-9.97736
▁közepén	-9.97846
▁horvát	-9.9792
▁elérni	-9.97929
▁nyugat	-9.97958
▁dolgozók	-9.97983
▁PK	-9.97985
▁intézmények	-9.98032
▁aktív	-9.98035
▁érdem	-9.98068
▁környék	-9.98104
▁sötét	-9.98182
▁tanú	-9.98209
▁készültség	-9.98234
állítás	-9.98261
▁vall	-9.98335
avaly	-9.98467
▁házi	-9.98541
▁vereség	-9.98607
▁nyomás	-9.98607
jenek	-9.98628
▁bolt	-9.98639
▁Pro	-9.98642
▁autók	-9.98702
▁Mihály	-9.98705
▁kezdődött	-9.98713
▁hatalm	-9.98732
▁Pe	-9.98849
▁meghalt	-9.98922
▁gumi	-9.99013
▁megint	-9.9909
▁problémá	-9.99193
▁csatár	-9.99211
▁végéig	-9.99233
▁Balaton	-9.99233
▁kifejezett	-9.99262
járó	-9.99279
▁vétel	-9.99283
▁melyik	-9.99326
▁bizonyít	-9.99346
▁tudomány	-9.99357
▁kereset	-9.99369
▁tudták	-9.99385
▁Per	-9.99437
▁nyomán	-9.99445
▁2011	-9.9949
▁Nyugat	-9.99497
▁szuper	-9.99497
▁szab	-9.99499
▁sége	-9.99548
▁szoros	-9.99604
▁utcá	-9.99632
▁vágy	-9.99635
▁nyomozás	-9.99637
▁létrehoz	-9.99679
▁vadász	-9.99691
▁hiba	-9.99729
▁száj	-9.99734
▁múzeum	-9.99762
▁negatív	-9.99762
újabb	-9.99775
▁következménye	-9.99827
▁kérdez	-9.99829
ová	-9.9983
▁Kon	-9.99879
nyal	-9.99883
▁ugyanaz	-9.99908
▁Ver	-9.99927
▁híd	-10.0003
▁Kína	-10.0003
▁Gyula	-10.0003
▁ajánl	-10.0003
▁álláspont	-10.0004
▁indokol	-10.0006
▁azoknak	-10.0008
▁rajongó	-10.0009
▁órák	-10.0011
▁összefüggés	-10.0019
▁Sh	-10.0021
▁időt	-10.0022
▁tal	-10.0023
▁látta	-10.0024
▁szervez	-10.0028
▁szerv	-10.0028
▁eszközök	-10.0029
▁bizony	-10.003
▁gyilkosság	-10.0033
▁dr	-10.0034
sti	-10.0035
▁véget	-10.004
▁gondolat	-10.0044
▁rosszul	-10.0047
hajtás	-10.0052
▁segítség	-10.0054
▁kereskedelm	-10.0054
▁magazin	-10.0056
▁Za	-10.0063
▁Par	-10.0079
▁Állam	-10.0079
álás	-10.0084
▁színház	-10.0087
kormány	-10.0089
▁hétvégén	-10.009
▁kezdeményez	-10.0092
▁mentes	-10.0098
▁fele	-10.0101
▁sajn	-10.0104
▁Mesterházy	-10.011
▁védelem	-10.0111
▁jelenség	-10.0112
▁idők	-10.0118
ovic	-10.0119
▁valah	-10.0122
▁látni	-10.0124
q	-10.0133
▁látott	-10.0137
▁mester	-10.0137
▁háttér	-10.014
▁számíthat	-10.0147
▁felesége	-10.0149
▁velük	-10.0149
▁munkatársa	-10.0154
▁karácsonyi	-10.0158
▁állomás	-10.0163
▁munkás	-10.0163
▁cigány	-10.0164
▁ánál	-10.0172
▁rekord	-10.0174
nyel	-10.0176
▁díjat	-10.0181
▁szólt	-10.0182
▁szobá	-10.0192
▁erősít	-10.02
ódás	-10.0201
árd	-10.0201
▁telep	-10.0206
▁évet	-10.0207
▁déli	-10.0207
▁késő	-10.0207
fő	-10.0213
▁hasonlít	-10.0218
▁Bajnai	-10.0218
▁ügynök	-10.0218
▁Németország	-10.0218
▁belvíz	-10.0219
▁kapnak	-10.0221
▁Go	-10.0222
▁kérdésre	-10.0225
▁átalakítás	-10.0225
▁sír	-10.0231
▁fedez	-10.0244
▁Mil	-10.0245
▁United	-10.0245
▁hasznos	-10.0246
▁támogatást	-10.0251
▁szavazó	-10.0255
▁fagy	-10.0256
vo	-10.0257
▁rendszert	-10.0259
▁bejelentette	-10.026
▁rajt	-10.0266
▁januárban	-10.0267
▁társai	-10.0268
▁mer	-10.0268
É	-10.0274
hatóság	-10.0276
▁létez	-10.028
▁láthat	-10.0284
▁interjú	-10.0293
▁méret	-10.0302
▁hívta	-10.0312
▁Men	-10.0314
▁kapcsol	-10.0319
▁filmet	-10.0322
▁jobboldal	-10.0329
▁Ezen	-10.0344
▁eit	-10.0345
af	-10.0346
▁John	-10.0354
▁járulék	-10.0355
▁médiatörvény	-10.0356
▁napján	-10.0373
▁borít	-10.0376
ebek	-10.0378
▁Intézet	-10.0383
▁mért	-10.0385
▁autót	-10.0388
▁erőszak	-10.0389
▁pénztár	-10.0391
adni	-10.0396
of	-10.0397
▁történik	-10.0398
▁állít	-10.0403
▁hullám	-10.0411
▁Franc	-10.0412
▁abból	-10.0416
▁fenn	-10.0416
▁beszámoló	-10.0418
▁körzet	-10.0419
határ	-10.0424
▁csapatok	-10.0426
▁városban	-10.0427
▁komp	-10.0436
▁végére	-10.0438
▁köztársaság	-10.0439
▁ják	-10.044
▁kiadás	-10.044
▁induló	-10.0442
▁javul	-10.0442
▁olvashat	-10.0449
▁hónapban	-10.0454
▁gyűl	-10.0456
▁öl	-10.0457
▁egymást	-10.046
▁to	-10.0465
▁BBC	-10.0466
▁ismerős	-10.0468
▁diák	-10.0469
▁43	-10.047
▁Ger	-10.0471
▁46	-10.0477
▁tájékoztat	-10.0488
▁kettős	-10.0489
▁Gal	-10.0491
▁játszó	-10.0492
▁forgat	-10.0497
▁utat	-10.0498
▁lista	-10.0502
nünk	-10.0509
▁(3	-10.051
▁hétvég	-10.0514
▁65	-10.0517
▁tulajdonosa	-10.0522
▁OTP	-10.0522
▁Ráadás	-10.0523
▁közleked	-10.0529
pál	-10.053
▁mondhat	-10.0534
▁2006	-10.0538
▁asztal	-10.0541
▁tárgyalások	-10.0543
▁lop	-10.0543
▁feleség	-10.0549
▁éven	-10.0553
▁Tisza	-10.0554
▁oktatás	-10.0562
▁annál	-10.0564
víz	-10.0565
▁halálos	-10.0565
▁rendkívüli	-10.0574
▁esztendő	-10.0578
▁ered	-10.0589
▁kilátás	-10.059
▁megjelenés	-10.059
▁várja	-10.0591
▁hátra	-10.0593
▁49	-10.0595
▁tábor	-10.0603
▁tartalm	-10.0607
▁torná	-10.062
ényi	-10.0627
▁Facebook	-10.0635
▁alkohol	-10.0635
▁MÁV	-10.0635
▁gat	-10.0637
▁döntése	-10.0638
▁csatorná	-10.0638
bajnokság	-10.064
▁18.	-10.0641
▁bizonyíték	-10.0643
▁hatása	-10.0644
▁érzi	-10.0647
▁szokás	-10.0648
▁szakértő	-10.0649
▁északi	-10.0651
▁vas	-10.0652
adta	-10.0655
áns	-10.0662
▁vallás	-10.0666
▁ügyvezető	-10.0667
▁alapos	-10.0668
▁Cha	-10.0671
▁legfő	-10.0671
▁oldalán	-10.0677
▁vaj	-10.0687
▁templom	-10.0692
kin	-10.0694
▁fe	-10.0696
▁egyben	-10.0696
▁sportoló	-10.0696
▁játékosok	-10.0699
▁szenved	-10.0702
▁cserél	-10.0703
▁megtakarítás	-10.0705
almas	-10.0707
▁Times	-10.0709
▁ponttal	-10.0712
▁mellék	-10.0713
▁összeget	-10.0716
▁vádlott	-10.0717
nék	-10.0719
▁kisebbség	-10.072
▁megsérült	-10.072
▁derült	-10.0724
▁net	-10.0735
▁park	-10.0738
▁Ros	-10.0741
▁érintő	-10.0741
bér	-10.0743
közi	-10.0743
▁tűzoltók	-10.0744
▁légi	-10.0746
▁Dávid	-10.0749
▁havazás	-10.0749
pel	-10.075
▁meccsen	-10.0753
▁7.	-10.0765
abi	-10.0767
▁fórum	-10.0778
▁főpolgármester	-10.0778
▁legmagasabb	-10.0778
▁szoftver	-10.0778
▁szempontjából	-10.0778
▁mezőny	-10.0779
világ	-10.0783
▁Or	-10.0784
▁némi	-10.0786
▁változ	-10.0787
három	-10.0791
▁kezdeményezés	-10.0794
▁Mal	-10.0796
▁nyilatkozott	-10.0796
hor	-10.0797
▁tisztelet	-10.0799
▁találták	-10.0802
▁határozott	-10.0803
▁ján	-10.0805
▁iroda	-10.0806
▁segély	-10.0807
becsül	-10.0811
▁látogat	-10.0813
nyire	-10.0823
ock	-10.083
▁elődöntő	-10.0837
▁Cor	-10.0837
▁ájá	-10.0838
▁Euro	-10.0841
▁akkori	-10.0843
lévő	-10.0845
meg	-10.0847
▁tettek	-10.0856
▁játékosa	-10.086
▁tizen	-10.086
▁koncepció	-10.0864
▁tegnap	-10.0864
▁méltó	-10.0865
▁embereket	-10.087
▁vasárnapi	-10.0873
▁un	-10.0874
tetés	-10.0875
▁viszonylag	-10.0876
▁értékesítés	-10.0876
▁árul	-10.0876
▁tiltakoz	-10.0876
▁szerencsé	-10.088
▁Ü	-10.0891
▁információk	-10.0891
▁előrejelzés	-10.0894
▁küldött	-10.0897
▁Ker	-10.0898
▁mutatott	-10.0899
jében	-10.0899
▁Mercedes	-10.0903
pár	-10.0906
▁büntet	-10.0906
ung	-10.0909
▁képviselője	-10.0915
▁kollégá	-10.0917
szik	-10.0919
▁helyzetet	-10.0922
▁öreg	-10.0928
▁részlet	-10.0931
fr	-10.0936
▁hajtott	-10.0936
▁6.	-10.0939
▁vonat	-10.0944
▁Tud	-10.0949
▁hírügynökség	-10.0952
▁hús	-10.0956
▁kez	-10.0957
▁56	-10.0958
▁dísz	-10.0958
▁kerek	-10.0963
▁voltam	-10.0968
▁művel	-10.0972
köz	-10.0972
cu	-10.0974
építés	-10.0976
▁feladata	-10.0978
▁határidő	-10.0983
ítja	-10.0995
▁rak	-10.0998
▁szék	-10.1
▁készülék	-10.1001
▁alsó	-10.1011
▁mag	-10.1013
▁nevezet	-10.1015
▁kijelentette	-10.1017
▁hagyomány	-10.1019
ille	-10.1019
▁áz	-10.1021
▁font	-10.1024
▁Mert	-10.1027
ológus	-10.103
▁old	-10.1032
▁kezdő	-10.1036
▁faj	-10.1036
▁Görögország	-10.104
▁London	-10.104
▁félre	-10.1041
▁tervezet	-10.1044
orosz	-10.1052
▁sért	-10.1055
▁tartalék	-10.1061
▁Med	-10.1062
▁érv	-10.1068
vonal	-10.1091
▁adtak	-10.1096
▁teszik	-10.1098
▁koz	-10.1098
▁politikusok	-10.1099
▁Spanyolország	-10.1099
▁finom	-10.11
▁egymással	-10.1104
▁támogató	-10.1113
ván	-10.112
▁vad	-10.112
▁társa	-10.1125
▁fia	-10.1129
▁rivális	-10.1129
▁messze	-10.1129
▁záró	-10.1129
▁mozi	-10.1129
▁milliós	-10.113
ssé	-10.1132
▁segítséget	-10.1136
▁szembe	-10.1137
szel	-10.1139
▁közleményben	-10.1139
▁érint	-10.1143
▁rendelkezik	-10.1147
▁tájékoztatta	-10.1147
▁ir	-10.1149
ségében	-10.1151
▁úr	-10.1154
ánnyal	-10.1156
▁szerelm	-10.1159
▁villamos	-10.1159
▁ukrán	-10.116
▁színésznő	-10.116
▁csőd	-10.1161
▁épített	-10.1166
aná	-10.1167
▁helyettes	-10.1167
▁formában	-10.1171
▁étel	-10.1176
▁vállalkozó	-10.118
▁Vár	-10.1181
való	-10.1181
▁róla	-10.1187
▁üveg	-10.1189
▁David	-10.1189
▁bocsát	-10.1189
▁kelt	-10.1189
város	-10.1192
csoport	-10.12
▁gyermeke	-10.1205
▁támogatott	-10.1208
▁világos	-10.1211
▁intézkedés	-10.1216
▁kedvenc	-10.122
▁győz	-10.122
▁Los	-10.1221
odor	-10.123
szívesen	-10.1237
▁vetett	-10.125
▁1-0	-10.1251
▁nincsenek	-10.1253
évé	-10.1253
▁forgalm	-10.1256
▁Elő	-10.1256
▁Fotó	-10.1258
▁kés	-10.1262
▁tél	-10.1267
már	-10.1269
▁liter	-10.1281
▁47	-10.1281
;	-10.1291
▁irodalom	-10.1297
táv	-10.1297
▁Róbert	-10.131
▁Washington	-10.131
▁hátsó	-10.131
▁ápol	-10.1311
▁egyetért	-10.1312
▁nyereség	-10.1316
hit	-10.1317
▁megpróbál	-10.1317
▁teljesít	-10.1321
▁kiló	-10.1322
▁2009.	-10.1324
▁Párt	-10.1337
▁huszon	-10.134
▁látogató	-10.1345
▁személyi	-10.135
▁feltételek	-10.1354
▁állampolgár	-10.1359
▁tartás	-10.1367
▁programok	-10.1369
mor	-10.137
▁kedvezmény	-10.1371
▁levél	-10.1371
▁idény	-10.138
▁dolgok	-10.1384
tevő	-10.1397
▁titkos	-10.1405
ékeny	-10.1409
▁szigorú	-10.1409
▁képtelen	-10.141
▁Ér	-10.1413
▁vállalkozások	-10.1419
▁hetek	-10.142
▁15.	-10.1428
▁történelem	-10.1434
▁keresztény	-10.1435
▁Pol	-10.1443
▁fővárosban	-10.1443
▁mal	-10.1447
▁rúg	-10.1447
▁mégsem	-10.1452
▁ása	-10.1454
▁Red	-10.1461
▁Izrael	-10.1463
▁megtalál	-10.1464
▁káros	-10.1465
▁téren	-10.1476
▁brazil	-10.1477
jog	-10.1485
▁Pedi	-10.1489
nagy	-10.1491
▁szén	-10.1494
▁menni	-10.1496
▁szállítás	-10.1498
▁felügyelet	-10.1502
▁néha	-10.1502
onnan	-10.1503
illa	-10.1503
▁látványos	-10.1504
▁Hír	-10.1506
▁mondták	-10.1508
▁számítani	-10.1508
dá	-10.1511
▁egészséges	-10.1512
autó	-10.1512
▁Ház	-10.1516
▁nálunk	-10.1517
▁Con	-10.1518
▁Múzeum	-10.1524
▁ausztrál	-10.1524
▁tartós	-10.1529
▁jellegű	-10.153
▁bb	-10.1533
▁bar	-10.1537
kupa	-10.1538
▁kedves	-10.1543
▁verte	-10.1548
▁10.	-10.1551
▁kanadai	-10.1555
6-	-10.1558
▁félidő	-10.156
▁ütem	-10.1561
terv	-10.1564
▁számítás	-10.1564
15	-10.1567
▁8.	-10.1569
szerzés	-10.1569
test	-10.1573
▁ponton	-10.1576
▁aránya	-10.1584
▁Mu	-10.1584
▁történtek	-10.1585
▁divat	-10.1587
▁USA	-10.1589
▁edzés	-10.1591
▁Államokban	-10.1593
ris	-10.1602
▁tánc	-10.1612
▁foglalkoztatás	-10.1617
▁emelte	-10.1618
▁közvélemény	-10.1618
▁felújítás	-10.1618
▁önmagá	-10.1618
▁roma	-10.163
▁joga	-10.1635
amerikai	-10.1635
▁tárol	-10.1643
▁vendégek	-10.1645
▁ébe	-10.1645
zza	-10.1649
▁felhő	-10.165
▁decemberben	-10.1655
berg	-10.1655
▁vív	-10.1655
▁Talá	-10.1659
szín	-10.1661
pl	-10.1663
▁hős	-10.1664
▁tört	-10.1669
▁tele	-10.167
▁nyilvános	-10.1671
▁üzemanyag	-10.1682
szél	-10.1682
▁tényező	-10.1683
▁Bull	-10.1684
▁kaphat	-10.1686
▁ilyenkor	-10.1687
8-	-10.1689
▁halott	-10.1693
▁75	-10.1695
▁fejlőd	-10.17
▁Ám	-10.1706
▁ing	-10.171
▁szüksége	-10.171
▁gondolkod	-10.171
▁adatokat	-10.1712
▁növény	-10.1712
▁nyúl	-10.1712
állás	-10.1715
▁résztvevő	-10.1715
▁Eh	-10.1715
▁Th	-10.1716
▁környékén	-10.1721
▁nevé	-10.1722
▁események	-10.1735
▁buk	-10.1737
▁ul	-10.1738
▁részvény	-10.1738
▁terhel	-10.1743
▁éjjel	-10.1744
▁ellenzék	-10.1744
▁ülésén	-10.1745
ech	-10.1749
▁Pri	-10.1752
▁későbbi	-10.176
▁időn	-10.1765
▁csatlakoz	-10.1771
▁szülő	-10.1772
▁idejé	-10.1774
▁Miskolc	-10.1776
▁nekünk	-10.1779
▁1,3	-10.1779
▁mutatkoz	-10.178
▁52	-10.1784
▁győzelme	-10.1792
▁változott	-10.1792
emelés	-10.1807
fganisztán	-10.1807
▁immár	-10.1807
▁korszak	-10.1808
▁má	-10.1823
▁híres	-10.1824
▁ajtó	-10.1826
▁kezdődik	-10.1828
▁gyenge	-10.1839
▁Első	-10.184
csapat	-10.1841
▁visszaesés	-10.1851
▁körben	-10.1857
▁da	-10.1857
▁filmek	-10.1858
▁Sze	-10.1858
▁terhe	-10.1867
▁nőt	-10.1868
▁elől	-10.1872
kov	-10.1874
▁hir	-10.1874
▁vezérigazgató	-10.188
▁figyelem	-10.1881
▁150	-10.1882
kereskedelmi	-10.1882
▁elme	-10.1887
▁gal	-10.1889
alap	-10.1894
▁jelenet	-10.1896
▁áru	-10.1899
▁valamit	-10.1899
állt	-10.1903
▁gyakorol	-10.1904
▁függő	-10.1905
▁működtet	-10.1907
▁elégedett	-10.1907
▁szeretet	-10.1908
▁(4	-10.1909
▁török	-10.1912
▁Év	-10.1914
mond	-10.1915
▁ellenfele	-10.1916
kál	-10.1917
fér	-10.1919
▁tagok	-10.1919
▁Tom	-10.1921
láz	-10.1921
▁frakció	-10.1928
old	-10.1929
ain	-10.1931
▁Barcelona	-10.1936
▁euróövezet	-10.1936
▁Könyv	-10.1936
▁tanít	-10.1942
▁élén	-10.1948
▁alatti	-10.1949
inger	-10.196
▁nevét	-10.1963
▁megszüntet	-10.1963
▁állapotban	-10.1967
▁választókerület	-10.1968
▁csapadék	-10.1969
▁finanszíroz	-10.1976
▁elkövető	-10.198
▁stratégia	-10.1987
látó	-10.1992
▁mérkőzésen	-10.1997
▁fül	-10.2001
▁földrengés	-10.2001
▁eltérő	-10.2001
▁érdeklőd	-10.2006
▁helyezett	-10.2015
▁hatására	-10.2019
▁hadsereg	-10.2033
▁Múlt	-10.2033
▁Ár	-10.2034
▁ablak	-10.2035
▁veszélyeztet	-10.2035
▁visszaélés	-10.2035
▁teher	-10.2036
ston	-10.204
▁technikai	-10.2045
▁feletti	-10.2047
▁képzel	-10.2054
▁hozam	-10.2054
▁vezetőjé	-10.2057
▁gát	-10.2059
%	-10.2065
▁napok	-10.2066
▁vizsgálatok	-10.2067
▁megnyer	-10.207
▁berendezés	-10.2074
▁szolgáltató	-10.208
nder	-10.2081
▁pol	-10.2083
állított	-10.2092
▁Kiss	-10.2094
▁Lengyelország	-10.2099
▁ágazat	-10.2099
▁kormánypárt	-10.2099
▁képet	-10.2101
▁drog	-10.2103
▁itthon	-10.2103
▁jon	-10.2105
▁tüntet	-10.2108
▁tudás	-10.2111
▁pat	-10.2111
▁250	-10.2112
▁vörös	-10.2119
rov	-10.2123
▁Lehet	-10.2124
▁költ	-10.2127
▁tartotta	-10.2131
▁Olaszország	-10.2132
▁repülőtér	-10.2133
▁hatály	-10.2133
eb	-10.2151
▁17.	-10.2153
cska	-10.2154
▁Rá	-10.2154
▁látogatás	-10.2156
edés	-10.2158
▁Andr	-10.2158
▁rögtön	-10.2165
▁ENSZ	-10.2165
▁titok	-10.2166
▁olt	-10.2168
▁fáj	-10.2169
▁utak	-10.217
▁bárki	-10.2171
▁tervei	-10.2176
▁köszön	-10.2176
▁ká	-10.2178
▁Angeles	-10.2179
▁zené	-10.2183
milliárd	-10.2189
▁kivétel	-10.219
▁irányító	-10.2192
▁ideig	-10.2197
▁tartomány	-10.2198
▁szombati	-10.2198
▁Béla	-10.2198
▁fo	-10.2202
▁rendelkez	-10.2204
rány	-10.2213
▁tartottak	-10.2214
▁Rend	-10.2222
▁tekintet	-10.2222
▁Gar	-10.2224
▁polgármestere	-10.2225
▁mandátum	-10.2231
▁egyesület	-10.2231
50	-10.2234
▁szavaz	-10.2241
▁10-	-10.2243
▁16-	-10.2249
▁mon	-10.225
▁órán	-10.2258
▁konfliktus	-10.2264
▁pilóta	-10.2264
▁államháztartás	-10.2264
▁Korább	-10.2266
▁áért	-10.2268
▁időpont	-10.227
▁mindenképp	-10.2273
term	-10.2274
▁képek	-10.2276
▁irányítás	-10.2279
▁emlékeztet	-10.2284
▁hő	-10.2284
▁egyeztetés	-10.2288
▁fordulat	-10.2297
▁táplál	-10.2298
▁fekvő	-10.2298
mann	-10.2298
▁foci	-10.23
▁erősödött	-10.2301
▁Kö	-10.2302
▁közölt	-10.2303
▁magyarázta	-10.2307
▁állomány	-10.2308
esetre	-10.2312
ktív	-10.2315
-1-	-10.2319
▁pre	-10.2322
vette	-10.2323
biztonság	-10.2324
▁Jelenleg	-10.2331
▁Néhány	-10.2331
▁jövedelm	-10.2331
▁piros	-10.2332
▁szorul	-10.2332
▁fű	-10.2333
▁mikro	-10.2334
▁jelentőség	-10.2337
jött	-10.2339
▁sorol	-10.234
▁változtat	-10.2342
▁korlátozás	-10.2346
▁azután	-10.2348
▁érkezik	-10.235
ozzák	-10.2353
▁jének	-10.2354
▁ű	-10.2358
▁tartották	-10.2359
▁nyit	-10.2362
▁emlékez	-10.2363
▁kritikus	-10.2365
▁54	-10.2365
▁hatvan	-10.2366
mail	-10.2366
▁részéről	-10.2372
▁9-	-10.2374
ődött	-10.2379
▁folyik	-10.2383
▁höz	-10.2383
▁betegek	-10.2384
lem	-10.2387
▁távoz	-10.2389
fogás	-10.239
▁adhat	-10.2391
▁57	-10.2392
▁dolgozni	-10.2392
észeti	-10.2397
▁gyanú	-10.2399
▁közbeszerzés	-10.2399
▁meglehetős	-10.2399
▁kénytelen	-10.2399
▁hektár	-10.2399
▁fénykép	-10.2403
▁vezeti	-10.2405
▁termelő	-10.2408
▁játékok	-10.2415
▁2012-	-10.2416
olnár	-10.2417
▁Ó	-10.2422
▁árfolyama	-10.2423
▁szektor	-10.2424
▁20.	-10.2427
▁vizsgálatot	-10.243
▁meghatározó	-10.2433
▁erdő	-10.2433
▁népszerű	-10.2436
▁benyújt	-10.2436
▁elemzők	-10.2439
▁össz	-10.244
▁hagyta	-10.2459
▁elve	-10.2464
▁szexuális	-10.2469
▁ajánlott	-10.2469
▁kerület	-10.2469
▁részvények	-10.2475
▁Hírek	-10.2477
▁egyszerre	-10.2479
▁Simon	-10.248
▁lakos	-10.2482
ajtótájékoztatón	-10.2485
▁Paul	-10.2485
burg	-10.2489
▁53	-10.2489
▁akarnak	-10.2497
▁megítél	-10.2501
▁támogatja	-10.2502
▁gomb	-10.2503
nov	-10.2513
▁valós	-10.2516
ight	-10.2516
▁találta	-10.2516
▁szülők	-10.2525
▁végleges	-10.2535
▁export	-10.2536
▁kereslet	-10.254
ski	-10.2543
▁személyiség	-10.2547
▁helyek	-10.2548
tatni	-10.2556
▁okozhat	-10.2563
▁hozni	-10.2564
▁várják	-10.2569
▁elmélet	-10.257
▁Kelet	-10.2573
▁önálló	-10.2574
▁Németh	-10.2575
▁esté	-10.2577
▁tisztáz	-10.2581
gazdasági	-10.2583
mentes	-10.2589
▁1-1	-10.259
bri	-10.2597
▁tej	-10.2597
Á	-10.2599
▁robbant	-10.2604
írás	-10.2621
▁2005-	-10.263
▁javít	-10.2631
▁szakad	-10.2631
▁klasszikus	-10.2638
▁zuhan	-10.2638
▁Hagyó	-10.2639
▁világháború	-10.264
▁játsz	-10.2644
▁próbálkoz	-10.2645
▁16.	-10.2646
▁csend	-10.2648
▁oktatási	-10.2649
▁bevezet	-10.2656
tétel	-10.266
▁Col	-10.2662
▁Mor	-10.2665
szal	-10.2666
▁gyanúsít	-10.2667
venni	-10.2668
▁orvosok	-10.2672
▁Szak	-10.2672
▁professzor	-10.2673
pénzügyminiszter	-10.2673
▁téma	-10.2673
▁kétharmad	-10.2673
▁részvétel	-10.2674
▁vesztette	-10.2676
▁pap	-10.2677
▁Kapus	-10.2678
▁várt	-10.2679
▁különadó	-10.268
▁megkérdezett	-10.2682
▁beszélgetés	-10.2683
7-	-10.2686
mag	-10.2688
zött	-10.2697
▁biztosított	-10.2703
▁előfordul	-10.2703
vállalás	-10.2714
▁ült	-10.2719
▁kever	-10.2719
▁fős	-10.272
▁(5	-10.2738
piac	-10.274
▁kislány	-10.2743
▁Bajnok	-10.2743
▁Blikk	-10.2743
▁1,5	-10.2746
▁med	-10.2746
▁mondat	-10.2747
▁érkez	-10.2747
▁megismer	-10.2749
▁adták	-10.275
▁birtok	-10.2753
all	-10.2754
▁met	-10.2756
ésőbb	-10.2761
▁igazgatóság	-10.2764
Arra	-10.2773
▁elhunyt	-10.2778
▁Ádám	-10.2778
▁Négy	-10.2778
▁értékelés	-10.2782
▁példány	-10.2791
▁lő	-10.2791
▁hozza	-10.2791
▁ségét	-10.28
▁megvalósít	-10.2811
▁réteg	-10.2813
▁döntést	-10.2819
▁alól	-10.282
hogyan	-10.2834
▁meccset	-10.2839
▁erősebb	-10.284
▁színvonal	-10.285
▁szülés	-10.2855
▁esik	-10.2861
▁javaslatot	-10.2869
▁bármi	-10.2869
▁ellene	-10.287
▁időre	-10.2871
▁honlap	-10.2873
▁tak	-10.2876
vidék	-10.2883
▁koncentrál	-10.2884
▁hvg	-10.2884
▁9.	-10.2885
▁metró	-10.2885
pedi	-10.2886
▁tapasztalt	-10.2891
▁repülő	-10.2893
▁19.	-10.2895
ew	-10.2896
▁repülőgép	-10.2902
▁szorít	-10.2903
▁hallott	-10.2903
▁jelöltje	-10.2904
▁reagál	-10.2905
▁nyi	-10.2907
▁egyenes	-10.2908
▁12-	-10.2908
▁feldolgoz	-10.2918
▁megelőző	-10.292
▁Nincs	-10.292
▁közzé	-10.292
▁Pal	-10.292
▁megerősítette	-10.2921
▁csont	-10.2923
▁fed	-10.2935
▁piacok	-10.2936
▁találat	-10.2936
▁munkanélküliség	-10.2942
▁állatok	-10.2945
őrök	-10.2951
▁elektronikus	-10.2955
▁kabinet	-10.2955
▁kert	-10.2958
▁Bur	-10.2959
zsák	-10.296
▁sportág	-10.2961
]-	-10.2964
▁600	-10.2965
▁mindennap	-10.299
▁int	-10.2991
▁Színház	-10.2991
▁Természetes	-10.2991
▁2-0	-10.2993
▁helyezés	-10.2995
▁címvédő	-10.2995
▁befektető	-10.2999
ring	-10.3002
▁hamis	-10.3006
▁folyt	-10.3007
▁NB	-10.3008
▁dől	-10.3009
▁katonák	-10.301
▁rejt	-10.3013
▁Rad	-10.3016
ször	-10.3018
▁közleménye	-10.3022
▁bázis	-10.3027
▁(6	-10.3027
bil	-10.3028
▁novemberben	-10.303
▁ügyész	-10.3031
▁mondjuk	-10.3036
▁kérdést	-10.3038
NA	-10.3048
▁könyve	-10.3057
▁külügyminiszter	-10.3063
▁minket	-10.3064
▁0-0	-10.3064
▁kamerá	-10.3064
▁speciális	-10.3064
▁Alap	-10.3076
▁tartozás	-10.308
▁ütött	-10.3084
▁felület	-10.3086
▁sose	-10.3092
▁lényeg	-10.3093
▁váltás	-10.3096
▁visz	-10.3096
▁hölgy	-10.31
▁igyeksz	-10.31
▁konzervatív	-10.3102
▁18-	-10.3117
▁12.	-10.3123
▁2-1	-10.3124
▁októberben	-10.3124
ama	-10.3128
▁felhív	-10.3129
▁felirat	-10.3129
▁oly	-10.3135
▁produkció	-10.3136
▁Arsenal	-10.3136
▁házasság	-10.3136
▁kop	-10.3136
▁parkoló	-10.3137
▁csere	-10.3139
▁Pl	-10.3151
▁árak	-10.3156
▁komment	-10.3163
▁liberális	-10.3169
ovics	-10.317
▁generáció	-10.3172
▁főnök	-10.3172
▁lemez	-10.3173
állomás	-10.3174
▁áldozata	-10.3177
▁üzenet	-10.3178
▁rendezet	-10.3187
▁várakozás	-10.319
▁elkezd	-10.3198
▁ku	-10.3207
▁Chelsea	-10.3209
▁pilótá	-10.3209
▁Szabad	-10.3209
▁felmerül	-10.3209
▁éért	-10.321
▁nyilvántartás	-10.321
▁akadály	-10.3211
▁abba	-10.3212
▁pályáz	-10.3214
▁jegyzés	-10.3217
▁megállapítás	-10.322
▁hiteles	-10.322
▁igénybe	-10.3224
▁21.	-10.323
▁szerepe	-10.323
▁költségek	-10.3242
▁nyári	-10.3245
▁IMF	-10.3246
▁hazánk	-10.3246
▁udvar	-10.3246
▁Martin	-10.3246
▁gyűjtemény	-10.3246
▁Ott	-10.3247
▁Olyan	-10.3247
▁szakértői	-10.3248
▁változások	-10.3252
▁Buda	-10.3256
ékony	-10.3257
▁anti	-10.3261
▁95	-10.3262
▁szakszervezet	-10.3264
▁szal	-10.3264
▁Milan	-10.3267
▁eredményes	-10.3268
▁hangsúly	-10.3269
▁gondolom	-10.327
▁man	-10.3272
▁vállalatok	-10.3275
▁Pan	-10.3276
csap	-10.3282
▁Hétfő	-10.3283
▁érzékeny	-10.3283
▁átmeneti	-10.3283
▁vallomás	-10.3283
▁győzött	-10.3285
▁nevet	-10.3291
▁mindegyik	-10.3294
▁tavasz	-10.3297
▁szerű	-10.3298
▁szervező	-10.3301
▁ígérete	-10.3301
▁ral	-10.3303
ától	-10.3307
▁nyak	-10.331
gé	-10.3311
igazgató	-10.3318
▁elegendő	-10.332
▁védelmé	-10.3331
▁Amerika	-10.3337
▁zárta	-10.3339
▁11.	-10.3345
▁kapcsolódó	-10.3347
▁kerülnek	-10.3353
▁menedzser	-10.3353
▁Ferrari	-10.3357
▁színpad	-10.3357
▁emleget	-10.3357
ach	-10.3361
▁adnak	-10.3361
-10	-10.3366
▁lapnak	-10.3367
▁technológia	-10.3372
▁85	-10.3375
▁felhasználó	-10.3382
▁lét	-10.339
▁szempont	-10.3392
▁globális	-10.3394
▁önkéntes	-10.3394
▁ingyenes	-10.34
▁seb	-10.3403
▁lényeges	-10.3411
▁58	-10.3413
▁reggeli	-10.3413
▁terjeszt	-10.3414
▁védekez	-10.3418
▁kék	-10.3419
ánc	-10.3423
▁foly	-10.3427
▁par	-10.3429
▁kereső	-10.3429
▁bővül	-10.343
▁1:	-10.343
▁só	-10.3431
sszel	-10.3431
▁Gergely	-10.3432
▁közlése	-10.3432
▁menetrend	-10.3434
▁barátnő	-10.3434
por	-10.3435
▁izgalmas	-10.3447
▁merül	-10.3454
▁elképzelés	-10.3463
▁forma	-10.3465
▁merénylet	-10.3469
▁államadósság	-10.3469
▁Király	-10.3469
▁rokon	-10.347
▁üres	-10.3473
fajta	-10.3474
▁egységes	-10.3477
esett	-10.3479
olja	-10.348
▁védelme	-10.3481
ace	-10.3483
▁rájuk	-10.3484
▁Szint	-10.3497
▁szokásos	-10.3498
▁magának	-10.35
▁lehetnek	-10.35
vezetés	-10.3503
▁Bokros	-10.3507
SE	-10.3508
▁szereplés	-10.351
▁közigazgatás	-10.3511
▁újságírók	-10.3514
▁Németországban	-10.3515
▁közölték	-10.3519
▁mesél	-10.3524
▁fürdő	-10.3524
ney	-10.3524
▁51	-10.3526
▁olcsóbb	-10.3527
▁országot	-10.3527
jev	-10.3535
▁számot	-10.3536
▁gépjármű	-10.3545
▁vírus	-10.3545
▁Lázár	-10.3545
▁front	-10.3546
szabad	-10.3546
▁hatnak	-10.355
bal	-10.355
▁szülei	-10.3552
túr	-10.3552
▁vitte	-10.3556
▁anyagok	-10.356
▁25-	-10.3561
▁13.	-10.3564
▁kapcsolatot	-10.3566
▁törvények	-10.3569
▁Star	-10.357
▁enyh	-10.3579
▁bűncselekmények	-10.358
▁összecsapás	-10.3583
▁BMW	-10.3583
▁érzékel	-10.3584
▁zajl	-10.3587
▁einek	-10.3588
▁mos	-10.3592
▁kifizetés	-10.3593
▁sé	-10.36
▁szolgáltatások	-10.36
▁Marc	-10.3603
▁erők	-10.3604
▁töm	-10.3609
▁tiszta	-10.3609
▁üt	-10.3609
▁gyanúja	-10.361
▁halt	-10.3613
▁dolg	-10.3618
▁nal	-10.3619
▁brut	-10.3619
▁foglalkozik	-10.3621
▁ciklus	-10.3621
▁elismerés	-10.3621
▁illegális	-10.3621
▁virág	-10.3621
▁köteles	-10.3622
▁hárma	-10.3622
▁szállították	-10.3623
▁Kom	-10.3623
▁származás	-10.3623
▁nyugdíjrendszer	-10.3624
▁figyelm	-10.3624
▁fordított	-10.3628
▁gyorsabb	-10.3637
▁eredményt	-10.3637
▁megfelel	-10.3638
▁magyarázat	-10.3638
▁ölt	-10.3644
üs	-10.3656
▁ló	-10.366
▁korlátoz	-10.3663
▁Port	-10.3664
védő	-10.3674
▁reagált	-10.3675
▁csalás	-10.3682
▁lelkes	-10.3688
▁kínálat	-10.369
▁helyes	-10.3696
▁kommunist	-10.3698
▁elindul	-10.3698
▁megközelít	-10.3698
▁lendül	-10.3698
▁választotta	-10.3702
▁bérlet	-10.3704
▁rosszabb	-10.3707
▁várnak	-10.3708
▁éles	-10.3709
▁hirdetés	-10.3709
▁élni	-10.371
mennyibe	-10.3714
▁Park	-10.3718
▁februárban	-10.3719
▁Irán	-10.3722
▁tetsz	-10.3723
▁Egyesület	-10.3726
▁emelt	-10.3727
▁szül	-10.3729
▁ideg	-10.373
▁önkormányzatok	-10.3736
▁eltűnt	-10.3736
▁hajléktalan	-10.3736
▁automat	-10.3736
▁Közép	-10.3739
▁mezőgazdaság	-10.3743
▁fér	-10.3744
TE	-10.3753
laszt	-10.3756
▁onnan	-10.3757
▁háromszor	-10.3758
▁magyaráz	-10.3762
▁14.	-10.3762
▁menekül	-10.3763
▁másod	-10.377
▁eleve	-10.377
▁tilt	-10.3773
▁alelnöke	-10.3774
▁gazdá	-10.3775
▁bármely	-10.3775
▁fém	-10.3775
▁passz	-10.3776
▁rák	-10.3776
▁fizetett	-10.3776
▁kíváncsi	-10.3776
▁kereskedés	-10.3777
▁részletes	-10.3777
szerte	-10.3777
▁bírság	-10.3778
▁Vasas	-10.3785
▁Volt	-10.3796
hy	-10.3805
▁64	-10.3809
esztő	-10.3812
▁stabil	-10.3813
▁Somogy	-10.3814
▁munkáltató	-10.3814
▁utód	-10.3814
▁feltehető	-10.3814
▁fiatalember	-10.3815
▁kiadó	-10.3817
▁Balog	-10.3821
▁címet	-10.3823
▁torna	-10.3825
▁fenti	-10.3827
▁bizalm	-10.3834
▁fenntart	-10.3836
▁59	-10.3836
▁kezé	-10.3841
▁kevese	-10.3842
▁hivatkoz	-10.3845
▁mindenkinek	-10.3845
mutat	-10.385
▁hamar	-10.3851
tartó	-10.3853
▁utasok	-10.3853
▁portugál	-10.3853
▁törvényjavaslat	-10.3853
▁jöhet	-10.3853
▁végső	-10.3854
▁Liga	-10.3855
▁beszélni	-10.3855
▁Borsod	-10.3855
▁Honvéd	-10.3856
cél	-10.3857
osztály	-10.3859
▁demokratikus	-10.3863
▁dolgoznak	-10.3863
▁ítélte	-10.3867
▁120	-10.3869
▁indulás	-10.3885
▁atom	-10.3888
▁szellemi	-10.3891
▁funkció	-10.3892
▁Gordon	-10.3892
▁dízel	-10.3892
▁játszani	-10.3895
▁hatják	-10.39
▁&	-10.3901
▁lehetetlen	-10.3906
súly	-10.3909
szter	-10.391
▁álm	-10.391
▁98	-10.3911
▁Tar	-10.3918
▁csoda	-10.3923
▁ág	-10.3925
▁fogva	-10.3929
▁óriás	-10.3929
▁katolikus	-10.3932
▁radikális	-10.3932
▁Katalin	-10.3932
könyv	-10.3932
▁hulladék	-10.3932
▁közzétett	-10.3933
ológiai	-10.3934
▁háztartás	-10.3936
▁adják	-10.3942
▁Cser	-10.3945
▁kapcsolatok	-10.3946
zo	-10.395
▁kín	-10.3951
▁alul	-10.3952
▁norvég	-10.3952
▁jelöl	-10.3954
▁unkat	-10.3957
▁kibocsátás	-10.3958
▁napot	-10.3961
▁környezetvédel	-10.3961
▁rendezés	-10.3967
▁programot	-10.3967
▁robbanás	-10.3971
▁nyilvánvaló	-10.3972
▁kártyá	-10.3974
▁193	-10.3975
▁csodá	-10.3978
vonta	-10.3981
által	-10.3981
biztosítás	-10.3982
▁dollárra	-10.3983
▁alkotó	-10.3987
▁mérnök	-10.3988
▁katasztrófa	-10.399
▁ellenőriz	-10.3994
adék	-10.3995
▁Szeret	-10.3996
ember	-10.3997
▁többiek	-10.3998
▁ását	-10.3998
▁2002-	-10.4005
▁juttat	-10.4008
▁elektromos	-10.4011
▁megakadályoz	-10.4012
menő	-10.4014
▁háló	-10.4017
▁Fer	-10.4017
▁Audi	-10.4021
▁lelk	-10.4022
▁negyedévben	-10.4023
▁Öt	-10.4027
▁helyzetbe	-10.4029
kezelő	-10.403
▁aláír	-10.403
▁színes	-10.4033
▁naponta	-10.4035
▁fék	-10.4038
▁megfigyel	-10.4039
▁rom	-10.4039
▁választott	-10.4046
▁Pap	-10.405
▁Parlament	-10.4051
▁Ágnes	-10.4051
▁mínusz	-10.4051
▁láng	-10.4051
▁Peter	-10.4052
▁csinálni	-10.4057
▁édes	-10.4058
▁Qu	-10.4059
▁töröl	-10.407
▁problémát	-10.409
▁James	-10.4091
▁legutóbb	-10.4095
▁Szám	-10.4096
▁feljelentést	-10.4102
spanyol	-10.4103
▁legjobban	-10.4105
▁futó	-10.4105
▁nézni	-10.4115
▁többlet	-10.4116
áért	-10.4121
▁forinton	-10.4129
▁mérleg	-10.4129
▁elsődleges	-10.4131
▁fesztivál	-10.4131
▁kamion	-10.4131
▁alapítvány	-10.4132
▁szellem	-10.4133
▁állni	-10.4134
▁mutatta	-10.4136
▁akad	-10.4142
tatott	-10.415
üz	-10.415
▁tesztel	-10.4151
▁fogy	-10.4151
▁juttatás	-10.4155
▁tartalma	-10.4158
▁végző	-10.4159
▁tekintette	-10.4162
▁Nov	-10.4166
▁autós	-10.417
▁India	-10.4172
▁rajz	-10.4174
▁Un	-10.4178
▁Roma	-10.418
▁fölé	-10.4181
▁Com	-10.4182
tenger	-10.4188
▁rang	-10.4197
▁erej	-10.4205
▁biztonságos	-10.4206
▁táblá	-10.4211
▁far	-10.4212
▁klíma	-10.4212
▁kanyar	-10.4212
▁nyugodt	-10.4212
▁jegyezte	-10.4214
▁területi	-10.4216
kezés	-10.4219
tatta	-10.4219
mód	-10.4221
▁jutottak	-10.4221
ssák	-10.4221
off	-10.4223
▁védekezés	-10.4229
▁2008.	-10.4233
▁800	-10.4235
▁szok	-10.4243
szeres	-10.4243
X	-10.4246
kupá	-10.4248
▁okozó	-10.4249
Független	-10.4252
▁értesült	-10.4253
▁teljesített	-10.4254
▁oper	-10.4254
▁gyűjtött	-10.4255
▁árvíz	-10.4256
▁eljut	-10.4257
▁jelzés	-10.4259
▁programja	-10.4261
tter	-10.4265
▁véletlen	-10.4269
fej	-10.4271
alitás	-10.4272
▁vegyes	-10.4274
▁Kép	-10.4281
▁engedélyez	-10.4283
du	-10.4284
▁Éva	-10.4291
képp	-10.4291
▁számító	-10.4292
▁Isten	-10.4293
▁megújul	-10.4293
▁órás	-10.4296
▁68	-10.4297
▁említ	-10.4307
film	-10.4308
dom	-10.4308
▁férje	-10.4316
▁szál	-10.4316
▁jából	-10.432
▁emlékezet	-10.4328
▁kihasznál	-10.4335
▁tizenegy	-10.4341
▁érdekei	-10.4343
bizottság	-10.4343
▁csapatot	-10.4346
kocsi	-10.4349
▁Chi	-10.435
▁fokozatos	-10.4355
haj	-10.4364
▁Dan	-10.437
▁felkészülés	-10.4375
biz	-10.4375
tétlenül	-10.4375
▁hozzátéve	-10.4375
▁Kedd	-10.4376
▁műtét	-10.4376
▁frakcióvezető	-10.4376
▁lapok	-10.4378
▁Cl	-10.4378
▁zó	-10.4379
▁bűntett	-10.4381
▁értelme	-10.4381
▁megnéz	-10.4383
▁Mű	-10.4383
gyújt	-10.4384
▁sör	-10.4386
átus	-10.4387
▁stb	-10.4387
▁hozzájárul	-10.4393
▁31-	-10.4394
ánál	-10.4394
▁szereplők	-10.4395
első	-10.44
▁közvetít	-10.4401
ágy	-10.4402
▁tudomás	-10.4404
▁bur	-10.441
▁ainak	-10.441
▁találni	-10.4414
▁szűr	-10.4417
▁!"	-10.4427
▁énekes	-10.4428
▁Mad	-10.4429
törvény	-10.4434
tanács	-10.4435
▁szállító	-10.4438
▁futott	-10.4439
étől	-10.4446
▁felében	-10.445
▁hossza	-10.445
ismerte	-10.4452
▁kárt	-10.4457
ulvár	-10.4458
▁Klub	-10.4458
▁Japán	-10.4458
▁száraz	-10.4458
▁gépkocsi	-10.446
▁megegyez	-10.4462
▁vizsgálja	-10.4464
▁okból	-10.4465
▁kém	-10.4465
▁szeme	-10.4467
▁inter	-10.4467
▁terem	-10.447
▁lehető	-10.4475
▁csatá	-10.4478
▁szezonban	-10.4479
ább	-10.4479
▁keze	-10.4479
▁Petr	-10.4481
▁helye	-10.4484
▁változtatás	-10.4484
▁Áll	-10.4485
ává	-10.4485
▁orr	-10.4486
vitel	-10.4486
▁díjak	-10.4488
▁the	-10.4498
▁Mer	-10.45
▁Szombathely	-10.4501
▁hatodik	-10.4503
▁szerette	-10.4504
▁gyermekek	-10.4504
▁mu	-10.4506
▁17-	-10.4513
▁szór	-10.4517
▁foglalkoztat	-10.4521
sse	-10.4522
▁literes	-10.453
▁gyengült	-10.4532
▁helyét	-10.4538
▁átadás	-10.4541
▁MNB	-10.4542
▁segíteni	-10.4544
▁dokumentumok	-10.4553
▁munkáját	-10.4555
▁Bak	-10.4564
▁igyekez	-10.4566
▁vezetést	-10.4569
▁sága	-10.457
▁lóg	-10.4573
ellenes	-10.4577
▁helyén	-10.458
▁jelentett	-10.4582
▁indiai	-10.4584
▁füst	-10.4584
▁légitársaság	-10.4584
▁Párizs	-10.4584
bin	-10.4585
▁23-	-10.4585
▁gén	-10.4585
▁1,2	-10.4585
hetünk	-10.4586
▁Bol	-10.4591
▁Sim	-10.4591
▁énél	-10.4591
szervezet	-10.46
fehér	-10.4602
▁tanuló	-10.4603
▁kötelez	-10.4605
▁címmel	-10.4605
▁választók	-10.4618
▁ozás	-10.4623
▁kerülő	-10.4623
▁vörösiszap	-10.4626
▁elképzelhető	-10.4626
▁furcsa	-10.4626
▁Árpád	-10.4626
▁éjszaká	-10.4626
▁számukra	-10.4626
▁hónapos	-10.4627
▁kávé	-10.4629
mérő	-10.4629
▁szállás	-10.4633
▁napos	-10.4634
▁irat	-10.4635
hang	-10.4638
▁egyedi	-10.4643
▁személyek	-10.4644
▁szök	-10.4657
jába	-10.4658
▁nehezebb	-10.466
ä	-10.4668
▁cipő	-10.4668
▁négyzetméter	-10.4668
▁1,4	-10.4669
▁rendszerváltás	-10.4671
▁sajnál	-10.4678
▁Napi	-10.4684
höz	-10.4688
kedő	-10.4694
▁2000	-10.4694
▁hatékony	-10.4704
▁deviza	-10.4704
▁búcsú	-10.4711
▁garantál	-10.4711
▁megbízott	-10.4711
▁techniká	-10.4711
▁Békés	-10.4711
▁zenekar	-10.4712
▁áruház	-10.4713
▁Brüsszel	-10.4715
▁2,5	-10.4716
tető	-10.4728
▁diákok	-10.4733
▁Szó	-10.4733
▁gépek	-10.4736
▁óv	-10.4737
▁várni	-10.4738
▁házak	-10.4744
▁sértett	-10.4748
▁herceg	-10.4754
▁ügyelet	-10.4754
▁WA	-10.4756
▁rögzít	-10.4771
▁mor	-10.4774
KDNP	-10.4774
arch	-10.4777
▁felszín	-10.4779
▁költő	-10.4782
▁tárgyak	-10.4785
▁vezérigazgatója	-10.4786
állító	-10.4787
ásának	-10.4789
▁lányok	-10.4794
ütés	-10.4794
▁aktuális	-10.4796
▁forgatókönyv	-10.4796
▁pécsi	-10.4796
▁fizikai	-10.4796
▁ábrázol	-10.4797
▁kérelm	-10.4797
▁észlel	-10.4797
▁rablás	-10.4797
▁kötvény	-10.4799
▁vak	-10.4799
▁ására	-10.4802
▁sark	-10.4804
▁folytatódik	-10.4811
▁fr	-10.4816
cker	-10.4816
▁erősödés	-10.4818
vetett	-10.4829
▁Hát	-10.4834
▁Eddig	-10.484
▁dráma	-10.484
▁tojás	-10.484
uch	-10.484
▁államok	-10.484
▁aggód	-10.4841
▁kincs	-10.4843
▁alapított	-10.4846
1)	-10.4847
▁sá	-10.4848
▁Kam	-10.4851
▁mehet	-10.4851
▁élnek	-10.4855
▁esélyes	-10.4861
▁gazdálkodás	-10.4866
kerül	-10.4868
▁kormányzás	-10.487
▁fokozat	-10.4874
▁jutás	-10.4875
▁iskolák	-10.4876
▁kudarc	-10.4883
▁luxus	-10.4883
▁December	-10.4883
▁energiá	-10.4883
▁holttest	-10.4883
elnök	-10.489
▁nagyság	-10.4896
▁befejez	-10.4919
▁2004-	-10.4922
▁amelyik	-10.4925
▁kellő	-10.4925
▁karakter	-10.4926
▁ritka	-10.4926
▁kifejezés	-10.4927
▁tenisz	-10.4928
▁áldozatok	-10.4928
▁norm	-10.4929
▁nyerni	-10.4929
▁költségei	-10.4933
▁nagykövet	-10.4933
▁számítanak	-10.4933
▁2011.	-10.4935
▁bármily	-10.4937
▁fogyaszt	-10.4939
▁használni	-10.494
▁egyetemi	-10.4947
▁Idé	-10.4948
▁távolság	-10.4949
▁mutatják	-10.4951
hatás	-10.4957
asztal	-10.4959
▁Sopron	-10.4959
▁fejez	-10.4966
▁tudtam	-10.4966
▁Svédország	-10.497
▁erkölcs	-10.497
▁%-	-10.4971
▁Ferencváros	-10.4972
tájékoztatóján	-10.4973
▁pót	-10.4974
▁eleme	-10.4983
▁választó	-10.4988
▁megoldást	-10.4989
▁béke	-10.4989
terület	-10.499
▁ital	-10.4992
motor	-10.4994
kapitányság	-10.4995
▁készülő	-10.5001
▁kiemelte	-10.5004
▁szervezők	-10.5008
▁ünket	-10.5012
▁Velvet	-10.5014
▁Renault	-10.5014
▁munkavállaló	-10.5014
▁irányul	-10.5019
▁változatlan	-10.5019
▁hozták	-10.5022
▁ragad	-10.5025
ipari	-10.5026
▁hatja	-10.5027
▁elmarad	-10.503
omp	-10.5037
gyár	-10.504
▁húzód	-10.5043
▁létezik	-10.5046
▁isten	-10.5046
▁csoportok	-10.5048
▁véleményét	-10.5049
▁forintért	-10.505
▁járnak	-10.5053
▁települések	-10.5053
▁embernek	-10.5055
▁APEH	-10.5058
▁RTL	-10.5058
▁WikiLeaks	-10.5058
▁bölcs	-10.5058
▁felsőoktatás	-10.5058
▁Sajno	-10.5058
▁szegedi	-10.5058
▁elítél	-10.5058
▁énekesnő	-10.5059
▁szobr	-10.506
▁hetven	-10.5062
▁zseb	-10.5062
nettó	-10.5065
▁idősebb	-10.5067
gue	-10.5068
▁áron	-10.5069
▁olcsó	-10.5069
▁Juli	-10.5071
▁számát	-10.5076
hajtó	-10.5077
▁nyilvánosság	-10.5087
▁tüntetés	-10.5089
▁irányít	-10.5095
▁bő	-10.5096
▁tudná	-10.5099
ionális	-10.5102
▁kutya	-10.5102
▁körülményei	-10.5102
▁tőzsde	-10.5102
▁Bayern	-10.5102
▁legfris	-10.5102
▁csatorna	-10.5102
▁3,5	-10.5104
▁elsejé	-10.511
▁akadályoz	-10.511
▁Sam	-10.5111
▁rendszerben	-10.5112
▁ügyet	-10.5118
lav	-10.5122
határozott	-10.5129
négy	-10.5132
▁ütközött	-10.5133
csuk	-10.5134
▁(8	-10.5134
▁könyvet	-10.5145
▁befizetés	-10.5147
▁ellenfél	-10.5147
▁termel	-10.5147
▁ügyfelek	-10.5147
▁kategóriá	-10.5148
▁vastag	-10.5148
▁megold	-10.515
▁megvan	-10.5155
▁Mond	-10.5159
▁War	-10.5161
▁képez	-10.5162
▁ejt	-10.5168
▁részletek	-10.5168
▁tettes	-10.5168
hivatal	-10.5173
▁próbálta	-10.5173
▁érhet	-10.5175
▁Város	-10.5179
▁Való	-10.5181
▁hiszem	-10.5185
▁stadion	-10.5191
▁szovjet	-10.5191
▁700	-10.5192
▁ritká	-10.5192
▁korlát	-10.5192
▁összetett	-10.5195
▁Kecskemét	-10.5195
▁javítás	-10.5199
▁hess	-10.5201
olyan	-10.5203
▁használják	-10.5204
▁állítják	-10.5206
szint	-10.5207
▁66	-10.5211
nyugdíjpénztárak	-10.5217
állítani	-10.522
kötés	-10.5223
▁22-	-10.5233
▁segítő	-10.5234
▁kapcsolód	-10.5236
▁ügyfél	-10.5236
éllyel	-10.5236
▁indoklás	-10.5237
▁járművek	-10.5239
▁Andrea	-10.5239
▁Iroda	-10.5244
▁baloldali	-10.5252
▁kód	-10.5252
▁tudatos	-10.5253
▁közút	-10.5254
▁Bru	-10.5256
▁kórházban	-10.5257
▁kereskedelem	-10.5258
▁lopás	-10.5259
▁mentők	-10.526
▁szabályai	-10.5263
▁gondolkodás	-10.5264
▁szemét	-10.527
▁Kap	-10.5272
▁beszélget	-10.5274
▁megkap	-10.5278
▁szoci	-10.5279
▁tavasszal	-10.5281
▁sorozatban	-10.5287
▁kihívás	-10.529
▁szabályoz	-10.5294
váltás	-10.5298
▁igazságügy	-10.5302
▁vizet	-10.5311
▁szervezés	-10.5313
▁szeptemberben	-10.5315
▁felszámolás	-10.532
▁számok	-10.5321
▁köré	-10.5323
▁érinti	-10.5327
▁Nor	-10.5331
Y	-10.5336
▁követte	-10.5337
▁Cso	-10.534
▁nának	-10.5344
▁21-	-10.5344
▁életben	-10.535
haszn	-10.5363
▁bizonytalan	-10.5366
enko	-10.5368
▁vonatkoz	-10.5368
▁lep	-10.537
▁kritiká	-10.5372
▁tized	-10.5372
▁kombi	-10.5374
▁amerikaiak	-10.5374
▁váltott	-10.5377
▁százezer	-10.5378
▁67	-10.5379
▁napra	-10.5379
▁doboz	-10.5381
▁évtizedek	-10.5401
sorozat	-10.5401
▁ünnepség	-10.5402
magyar	-10.5402
II	-10.5404
▁interneten	-10.5408
▁ural	-10.5411
▁magunk	-10.5412
▁19-	-10.5413
▁süt	-10.5417
▁minimális	-10.5418
▁beavatkozás	-10.5418
▁bolygó	-10.5418
▁kiemelkedő	-10.5418
▁pályafutás	-10.5418
▁diplomácia	-10.5418
="	-10.5419
▁körbe	-10.542
▁Arany	-10.5423
▁váratlan	-10.5427
▁kultúrá	-10.5428
▁kifizet	-10.5441
▁jelzi	-10.545
▁szerkesztő	-10.5456
▁megerősít	-10.5458
▁lánc	-10.5459
▁lépések	-10.5461
▁MTV	-10.5463
▁Ekkor	-10.5464
▁stáb	-10.5465
▁hónapja	-10.5478
▁pontra	-10.5484
▁bajnokságban	-10.5485
▁Rog	-10.5486
▁választásokon	-10.5486
▁jogosult	-10.5494
▁súlyosan	-10.5496
▁Nyom	-10.5497
▁Dob	-10.5502
szerző	-10.5505
▁Hajdú	-10.5509
▁megbeszélés	-10.5509
▁elvárás	-10.551
▁harcol	-10.5511
FA	-10.5513
▁költöz	-10.5517
▁jellem	-10.5518
▁szán	-10.5531
▁takar	-10.5533
▁bio	-10.5534
▁KDNP	-10.5534
hatjuk	-10.5535
▁vizsgáló	-10.5545
▁látják	-10.5545
▁maradhat	-10.5547
▁tagad	-10.555
▁rendben	-10.555
▁végeredmény	-10.5556
▁Chris	-10.5556
▁Igazgató	-10.5556
▁elrendel	-10.5556
▁játssz	-10.5569
▁Európá	-10.5569
▁következik	-10.5571
Nem	-10.5579
▁Mc	-10.5582
gyelőre	-10.5583
▁rögzített	-10.5584
▁ünnepel	-10.5587
▁erősöd	-10.5587
▁márka	-10.5594
▁becslése	-10.5595
▁életbe	-10.5596
▁demokrácia	-10.5602
▁külföldön	-10.5602
▁megfogalmaz	-10.5602
völgy	-10.5603
▁nyolcvan	-10.5603
▁Vettel	-10.5603
▁érdekelt	-10.5604
▁részesül	-10.5604
▁interjúban	-10.5612
▁Sőt	-10.5619
▁világon	-10.5619
▁ugyanez	-10.5625
cher	-10.5632
▁kultúra	-10.5633
▁különböz	-10.5642
▁működését	-10.5647
▁hétköznap	-10.5649
▁kábítószer	-10.5649
▁Hungar	-10.5649
▁bizonyult	-10.5651
▁útvonal	-10.5653
▁keletkezett	-10.5659
▁ellenőrz	-10.5659
népszerűbb	-10.5664
▁sújtott	-10.5664
▁Mac	-10.5666
▁problémái	-10.5669
▁őriz	-10.567
viselő	-10.5673
▁otthonában	-10.5681
▁részleg	-10.5684
tatási	-10.5684
▁igényel	-10.5687
▁Pu	-10.5687
▁munkavállalók	-10.5696
▁forradalom	-10.5696
▁küszöb	-10.5696
▁tolvaj	-10.5696
▁feszültség	-10.5696
▁multi	-10.5697
▁lelki	-10.5697
▁napirend	-10.5699
▁magasság	-10.5699
▁séggel	-10.5702
▁lehetőségét	-10.5705
▁Tim	-10.5706
▁utcán	-10.5706
hirdetett	-10.5711
ble	-10.5713
▁bírál	-10.5713
▁szabadon	-10.5715
▁terén	-10.572
▁jogok	-10.5721
napos	-10.5723
▁jogos	-10.573
▁62	-10.5735
▁Fehér	-10.5741
▁Rák	-10.5741
▁gyakori	-10.5743
▁Január	-10.5743
Ha	-10.5745
▁jához	-10.5747
▁Ford	-10.5757
zer	-10.5757
▁csal	-10.576
▁jelentése	-10.5762
▁kormánynak	-10.5769
lay	-10.5776
rin	-10.5777
akács	-10.5781
▁világban	-10.5782
strukt	-10.5784
lagos	-10.5786
▁szervek	-10.5787
ügyészség	-10.5789
▁Hírügynökség	-10.5791
▁Csehország	-10.5791
▁római	-10.5791
▁Újpest	-10.5791
▁üldöz	-10.5791
▁belváros	-10.5792
ity	-10.5793
▁írták	-10.5798
▁segített	-10.5802
▁Villa	-10.5802
▁izál	-10.5806
íl	-10.5809
izs	-10.581
▁utazó	-10.5812
▁bevezetésé	-10.582
▁ront	-10.582
▁kényszerít	-10.5822
osztott	-10.5827
▁iratok	-10.5829
▁nék	-10.5829
▁cikke	-10.5832
▁jogerős	-10.5838
▁zsír	-10.5838
▁Rég	-10.5838
▁negyeddöntő	-10.5839
▁61	-10.5841
▁szeretnén	-10.5841
▁alapul	-10.5841
▁magára	-10.5844
▁illeti	-10.5845
▁normális	-10.5846
▁településen	-10.5848
▁döntöttek	-10.5851
▁köd	-10.5852
▁Tur	-10.5854
▁egyeztet	-10.5858
▁szerzője	-10.5861
▁pihen	-10.5864
▁alkotmányos	-10.5871
▁ev	-10.5874
▁könyvek	-10.5878
kodó	-10.5882
▁rendes	-10.5885
▁BUX	-10.5886
▁Utóbbi	-10.5886
▁deficit	-10.5886
▁intenzív	-10.5886
▁jegyezték	-10.5886
▁médiá	-10.5886
▁házban	-10.589
▁választáson	-10.5907
▁versenyen	-10.5915
hozatal	-10.5916
▁fegyveres	-10.5922
▁gazdaságpolitik	-10.5923
▁tesznek	-10.5928
▁forgatás	-10.5931
▁labdát	-10.5931
▁hazaiak	-10.5933
▁köbméter	-10.5934
▁bombá	-10.5934
▁fárad	-10.5934
▁illetően	-10.5936
▁para	-10.5938
▁jelöltek	-10.5939
▁13-	-10.5939
SC	-10.594
lla	-10.5941
ítják	-10.5941
▁állítás	-10.5945
▁Nép	-10.595
▁gondoskod	-10.595
▁mérés	-10.5954
▁74	-10.5958
▁állítása	-10.5959
▁88	-10.5962
▁vezeték	-10.5965
belga	-10.5971
▁folytatta	-10.5972
▁formál	-10.5976
▁nevel	-10.5977
▁jelentkező	-10.5979
telep	-10.598
▁használja	-10.5981
▁kártérítés	-10.5982
▁megbízás	-10.5982
▁Péntek	-10.5982
▁nunk	-10.5984
küld	-10.5984
▁idézte	-10.5987
▁Hel	-10.5988
▁Schmi	-10.5996
▁szenny	-10.5997
▁jelek	-10.5999
▁szeg	-10.6002
izsi	-10.6003
▁Pr	-10.6007
▁fejezte	-10.6009
▁helyezte	-10.6009
művész	-10.6017
▁26-	-10.602
&	-10.602
▁Farkas	-10.6031
▁Televízió	-10.6031
▁Kultúr	-10.6031
▁stabilitás	-10.6032
▁Ellen	-10.6032
▁kategóriában	-10.6037
▁24-	-10.6038
▁törzs	-10.6042
▁avat	-10.605
miért	-10.6053
▁sikere	-10.6053
▁beruházások	-10.606
elsőfokú	-10.6062
▁állítani	-10.607
▁felhasználók	-10.6076
▁Vörös	-10.608
▁szélsőséges	-10.608
▁óvatos	-10.608
▁fejlett	-10.608
▁mekkor	-10.608
▁hull	-10.6083
▁GP	-10.6088
▁méretű	-10.6091
▁ov	-10.6096
▁fejlesztő	-10.6098
▁?"	-10.6099
▁folytatja	-10.6102
▁közelebb	-10.6104
▁kétszáz	-10.6107
▁szépség	-10.6108
▁Cr	-10.611
▁téve	-10.6111
▁irányított	-10.6112
olták	-10.6114
▁vész	-10.6116
társa	-10.6121
▁aláírás	-10.6122
▁ságot	-10.6126
lőször	-10.6126
▁Krisztián	-10.6129
▁kapacitás	-10.6129
▁hatáskör	-10.6129
▁lélek	-10.613
▁másodfok	-10.613
▁talaj	-10.6132
▁statisztika	-10.6145
▁3-1	-10.6145
▁felhasználás	-10.6146
▁hiánya	-10.6148
▁középkor	-10.6151
▁barátai	-10.6151
▁betét	-10.6153
▁Ők	-10.6154
▁tavaszi	-10.6159
▁tervező	-10.6161
▁lóerős	-10.6164
▁pontja	-10.617
kéne	-10.6175
▁szeretnének	-10.6176
▁bőv	-10.6176
#	-10.6178
▁tempó	-10.6178
▁video	-10.6178
▁tartalom	-10.6184
▁gyűjt	-10.6196
▁lényegé	-10.6197
▁fontosabb	-10.6197
▁szerezni	-10.6198
▁Williams	-10.6203
▁hon	-10.6206
▁védett	-10.6206
▁vezetése	-10.6209
▁Ex	-10.6218
▁szög	-10.6221
▁trend	-10.6222
▁Svájc	-10.6227
▁Vasárnap	-10.6227
▁évforduló	-10.6227
▁egyensúly	-10.6228
▁jelenthet	-10.6228
▁sztori	-10.6229
▁kilométerre	-10.6229
▁tonna	-10.6229
▁demokrat	-10.6229
▁élők	-10.6232
▁minősített	-10.6232
▁utasítás	-10.6234
arázs	-10.6239
▁parti	-10.624
▁Zala	-10.6241
▁csoportos	-10.6255
▁szavai	-10.6256
▁technológiá	-10.6267
▁kiadások	-10.6274
▁Alapítvány	-10.6277
▁Biztos	-10.6277
▁pártelnök	-10.6282
szögezte	-10.6285
▁levele	-10.6289
▁anyagot	-10.6292
▁emlékeztetett	-10.6293
▁63	-10.6294
rí	-10.6294
▁fotók	-10.6297
▁szúr	-10.6298
▁téved	-10.6298
▁fogyasztók	-10.6299
▁bejelentett	-10.6324
▁Dar	-10.6325
▁mozog	-10.6327
▁kezdődő	-10.6328
▁szurkolók	-10.6329
▁1,6	-10.633
▁Ill	-10.633
▁blokk	-10.633
▁magával	-10.6332
▁Kolo	-10.6332
▁vásárló	-10.6333
▁bűnös	-10.6335
▁korszerű	-10.634
▁nyitva	-10.634
▁szerény	-10.6341
▁gondolja	-10.6342
▁biztosítani	-10.6342
▁cseré	-10.6345
▁céget	-10.6347
▁1-2	-10.6349
▁kifejtette	-10.6351
▁72	-10.6353
▁Össze	-10.6355
▁elmaradt	-10.636
jünk	-10.636
rendű	-10.6363
▁Jól	-10.6367
▁vám	-10.6372
▁beli	-10.6374
▁fokoz	-10.6374
▁NATO	-10.6377
▁készpénz	-10.6377
▁Erdély	-10.6377
▁szórakoz	-10.6378
▁Köztársaság	-10.6378
▁Ákos	-10.6378
▁hold	-10.638
▁forintba	-10.6382
▁tam	-10.6383
▁kaland	-10.6384
▁történész	-10.6384
▁bővítés	-10.6386
▁térkép	-10.6388
▁utcában	-10.639
▁elnevezés	-10.6392
▁Bla	-10.6398
▁késés	-10.6399
tiltás	-10.6401
▁intéz	-10.6402
▁69	-10.6402
▁vizsgálják	-10.6403
▁főút	-10.6404
▁korában	-10.6408
▁kutat	-10.6411
▁beszerzés	-10.6414
▁levelet	-10.6414
▁értékben	-10.6415
politikai	-10.6421
uck	-10.6423
▁Richard	-10.6428
▁kijelentés	-10.6428
▁képernyő	-10.6428
▁Film	-10.6428
▁gyereket	-10.6429
▁szabálytalan	-10.6432
▁elhagy	-10.6433
▁eredményeket	-10.6434
▁0-1	-10.6435
▁tűn	-10.6437
▁sajátos	-10.6439
▁lehessen	-10.6442
▁letölt	-10.645
▁térségben	-10.6454
hessen	-10.6456
▁célok	-10.6457
▁felismer	-10.6465
▁Post	-10.6465
választás	-10.647
Ö	-10.6472
ling	-10.6475
▁Kell	-10.6475
▁Kossuth	-10.6479
▁megbízható	-10.6479
▁főszereplő	-10.6479
▁kellemetlen	-10.6479
▁felügyelő	-10.648
▁szokatlan	-10.6481
▁oldala	-10.6481
▁figurá	-10.6485
▁sikerrel	-10.6487
▁fogalm	-10.6489
▁simá	-10.6492
▁szóba	-10.6493
▁járól	-10.6494
▁kérdésére	-10.6512
▁viselkedés	-10.6516
▁számon	-10.6517
▁ütköz	-10.6517
▁alapító	-10.6519
▁elsőként	-10.6527
▁Szombat	-10.6528
▁ázsiai	-10.653
▁érvényben	-10.653
▁küzdelem	-10.6531
ation	-10.6534
▁28-	-10.6538
áját	-10.6542
▁győzelmé	-10.6544
▁ásával	-10.6552
▁jével	-10.6552
▁mondják	-10.6556
▁tetszik	-10.6556
▁tapasztalatai	-10.6558
▁sérülések	-10.6561
▁vizsgá	-10.6561
▁Sal	-10.6564
▁sújt	-10.6566
▁kormányzó	-10.6569
▁tervezés	-10.6571
▁region	-10.6571
▁nyomozást	-10.6579
▁emelkedik	-10.6581
▁mosoly	-10.6582
▁innen	-10.6582
▁felfüggesztett	-10.6585
▁érkeztek	-10.6588
▁vitték	-10.6588
▁Tu	-10.6591
▁Fél	-10.6594
▁73	-10.6595
▁tényleges	-10.6597
▁Magyarországra	-10.6603
▁meghosszabbít	-10.6606
EK	-10.661
▁népszerűség	-10.6612
▁szavazók	-10.6613
▁gyógy	-10.6622
▁produkál	-10.6633
▁megsemmisít	-10.6633
▁import	-10.6633
▁Fehérvár	-10.6635
▁kézilabda	-10.6637
▁világszerte	-10.6638
▁helyszínre	-10.664
▁jönnek	-10.6641
▁nézők	-10.6642
▁üzemeltető	-10.6644
díjas	-10.665
▁tegye	-10.6653
▁állhat	-10.6656
▁részére	-10.6665
▁ítés	-10.6665
▁show	-10.6677
▁tekinthető	-10.6678
Korea	-10.6679
▁ittas	-10.668
kutató	-10.668
▁München	-10.6684
▁zsűri	-10.6684
▁1999	-10.6684
▁digit	-10.6685
▁Máté	-10.6685
óceán	-10.6686
▁Épp	-10.6687
▁közszolgálat	-10.6687
▁góllal	-10.669
▁lapunk	-10.6693
▁III	-10.6695
▁GB	-10.6699
▁bekerül	-10.6712
méteres	-10.6714
▁piacra	-10.6728
▁ingyen	-10.6729
▁Oscar	-10.6736
▁Dániel	-10.6737
▁zászló	-10.6737
▁reakció	-10.6737
▁részesedés	-10.6737
▁Vancouver	-10.6737
▁ezüst	-10.6737
▁folyóirat	-10.6738
▁Igen	-10.674
▁szépen	-10.674
▁megmutat	-10.6747
▁99	-10.6751
▁nyitás	-10.6751
▁maradtak	-10.6752
▁köszönhető	-10.6755
▁vélte	-10.6755
▁Összes	-10.676
oldalú	-10.6762
▁keletkez	-10.6771
▁illető	-10.6788
▁börtönbüntetés	-10.6789
▁1994	-10.6789
▁bronz	-10.6789
▁pápa	-10.6789
▁balesetet	-10.6789
▁Munka	-10.679
▁tizenöt	-10.6791
▁SZ	-10.6793
▁tagállam	-10.6793
▁viszonyok	-10.6795
ER	-10.6795
▁tartalmazza	-10.6797
▁váltak	-10.6798
▁Wal	-10.6802
▁állampolgárság	-10.6804
kezdés	-10.6817
▁helyére	-10.6817
▁felől	-10.6818
▁nyomtat	-10.6818
▁váz	-10.6823
▁közelmúlt	-10.6824
▁alkalm	-10.6827
▁családok	-10.6827
▁írni	-10.683
▁roml	-10.6833
▁másnap	-10.6834
kutatás	-10.6837
▁87	-10.6838
▁jövedelem	-10.684
német	-10.684
▁ideiglenes	-10.6841
▁Moszkva	-10.6841
▁Apple	-10.6842
▁Vissza	-10.6842
folyamán	-10.6842
▁sárga	-10.6842
▁létesítmény	-10.6842
▁filmje	-10.6843
▁főigazgató	-10.6847
▁megalapozott	-10.6848
▁színű	-10.6849
▁hiányzik	-10.6852
▁nyugdíjas	-10.6853
▁filmben	-10.6856
▁ól	-10.6857
▁gyanús	-10.6861
terem	-10.6861
▁kizárt	-10.6868
▁zajlik	-10.6869
▁jele	-10.6875
▁ellát	-10.6876
▁fejezet	-10.6881
▁96	-10.6888
▁vegye	-10.689
▁próbálja	-10.6892
▁utoljára	-10.6894
▁kontinens	-10.6894
▁Malév	-10.6894
▁imád	-10.6895
▁takarékos	-10.6895
▁Tizen	-10.6895
19	-10.6895
óczi	-10.69
▁beszámolt	-10.6905
▁választották	-10.6906
▁tulajdonosok	-10.6907
▁felfedez	-10.6914
▁indokolta	-10.6916
▁övezet	-10.6918
▁férj	-10.692
▁buli	-10.6922
▁teljesítménye	-10.6922
▁tagság	-10.6927
▁vezethet	-10.6928
▁használható	-10.693
▁Lad	-10.6934
▁finn	-10.6935
▁pótol	-10.6935
▁dohány	-10.6945
▁parlamentben	-10.6945
▁Twitter	-10.6948
▁argentin	-10.6948
▁producer	-10.6948
▁Hasonló	-10.6948
entúl	-10.6949
▁munkálatok	-10.6949
▁egyenlő	-10.6949
▁rangadó	-10.695
▁édesany	-10.695
▁láttam	-10.6951
);	-10.6951
▁vendége	-10.6952
▁Hold	-10.6956
▁Motor	-10.6957
▁nézve	-10.6958
▁Teh	-10.6966
▁Sar	-10.6971
▁véve	-10.6979
▁fenntartható	-10.6979
▁listán	-10.6981
szállás	-10.6987
▁résztvevők	-10.6996
▁sugár	-10.7
▁kór	-10.7
▁Szolnok	-10.7001
▁versenyez	-10.7001
▁Románia	-10.7001
▁megszokott	-10.7001
▁megmarad	-10.7002
▁lánya	-10.7005
rty	-10.7007
▁0,3	-10.7011
ngem	-10.7011
▁eiket	-10.7012
▁akadt	-10.7017
▁értelem	-10.7019
▁szavak	-10.7027
▁vonatok	-10.703
▁86	-10.7035
erry	-10.7037
▁Alonso	-10.7055
▁Matolcs	-10.7055
▁bonyolult	-10.7055
▁kiterjed	-10.7055
▁monetáris	-10.7055
▁tőzsdé	-10.7055
▁Török	-10.7055
▁fegyelm	-10.7055
▁Választás	-10.7055
cím	-10.7055
▁elárul	-10.7056
▁vesznek	-10.7057
omlott	-10.7058
▁fogyasztói	-10.7058
▁magatartás	-10.7059
▁sorrend	-10.7063
vesztés	-10.7063
▁Sor	-10.7068
▁fennáll	-10.7069
▁úsz	-10.7076
▁fajta	-10.7079
▁szakmá	-10.708
▁vállalta	-10.708
▁fizető	-10.7082
vető	-10.7084
sztó	-10.7093
▁látták	-10.7094
▁közlekedő	-10.7097
szav	-10.7105
▁kontroll	-10.7109
▁tönkre	-10.7109
▁évszázad	-10.7109
▁taxi	-10.7109
▁irodalm	-10.7109
▁Mária	-10.7114
▁párhuzamos	-10.7114
▁Barac	-10.7117
▁sokak	-10.712
▁műszer	-10.7126
▁mentén	-10.7131
▁Egészség	-10.7132
▁ajánlószelvény	-10.7133
▁indulhat	-10.7133
▁játékot	-10.7133
▁szakaszon	-10.7138
▁King	-10.7145
▁kiadása	-10.7145
▁aligha	-10.7148
▁hatott	-10.7149
▁javulás	-10.7155
▁szakaszán	-10.7158
Ú	-10.7161
▁jóváhagy	-10.7161
▁Liverpool	-10.7163
▁műfaj	-10.7163
▁0,2	-10.7164
Szatmár	-10.7164
kezdődött	-10.7165
▁jelző	-10.7168
▁hetedik	-10.717
▁évad	-10.7171
▁végeztek	-10.7171
▁dolgot	-10.7187
▁osztott	-10.7187
▁halála	-10.7189
díjat	-10.719
▁csapás	-10.7191
▁gyengébb	-10.7191
▁igazolás	-10.7198
▁vetít	-10.7198
▁készítés	-10.7203
▁Tele	-10.7203
busz	-10.7204
▁segíti	-10.7208
▁10-1	-10.7214
futás	-10.7214
▁levélben	-10.7217
▁informatika	-10.7218
▁büdzsé	-10.7218
▁Michel	-10.7218
▁Bécs	-10.7218
▁82	-10.7218
▁eldönt	-10.7219
▁iráni	-10.7219
▁részletei	-10.722
▁900	-10.7223
▁készítő	-10.7226
▁talp	-10.7226
-30	-10.7227
▁álltak	-10.7229
▁eltelt	-10.7229
▁kapja	-10.7236
▁kivált	-10.7241
▁körök	-10.7242
▁2004	-10.7243
▁ülésen	-10.7244
▁említette	-10.7247
▁Élet	-10.7257
▁tükröz	-10.7258
▁kimutat	-10.726
jének	-10.7268
▁arányban	-10.727
▁Toyota	-10.7273
▁Vélemény	-10.7273
▁recept	-10.7273
▁viadal	-10.7273
▁közepé	-10.7273
▁dicsér	-10.7273
vásárlás	-10.7275
▁Gól	-10.7276
▁tonná	-10.7277
▁Jack	-10.728
▁jába	-10.7281
▁sággal	-10.7282
▁búj	-10.7284
▁EP	-10.7292
▁mértéke	-10.7297
▁Fx	-10.7298
▁érthető	-10.7298
▁Kínában	-10.7299
▁motoros	-10.7301
▁egyikük	-10.7311
▁kísérlete	-10.7321
▁várakozások	-10.7326
▁optim	-10.7328
döbben	-10.7328
▁vélhető	-10.7328
▁Viszon	-10.7329
▁székhely	-10.7331
▁autóbusz	-10.7332
▁Ivan	-10.7333
▁tudósok	-10.7334
▁autósok	-10.7336
▁rendelte	-10.7337
▁kellemes	-10.7338
▁14-	-10.7339
▁csö	-10.7344
▁Érdekes	-10.7347
▁figyelmét	-10.7349
▁kereste	-10.7349
▁juthat	-10.7354
▁megkérdez	-10.736
▁kezdtek	-10.7364
DS	-10.7365
▁jelentene	-10.7365
cio	-10.7371
▁feladatok	-10.7378
▁Él	-10.7381
▁szurkoló	-10.7382
boly	-10.7382
▁legrosszabb	-10.7384
▁Romániá	-10.7384
▁tizenkét	-10.7385
▁műsorvezető	-10.7388
▁bevet	-10.7389
▁Székesfehérvár	-10.7389
örög	-10.739
▁összeállítás	-10.7394
▁web	-10.7394
▁Haiti	-10.7394
▁dolga	-10.7395
▁személyzet	-10.7399
▁jogszabályok	-10.7401
▁kiegészítő	-10.7405
▁akarták	-10.7406
▁kiesés	-10.7414
▁legyenek	-10.7418
▁selejtező	-10.7418
▁balesetben	-10.7425
▁Nyomoz	-10.7426
▁192	-10.7428
▁Sólyom	-10.7439
▁genetikai	-10.7439
▁kényelmes	-10.7439
▁elenged	-10.744
▁varázs	-10.7441
▁Fekete	-10.7441
▁Berlin	-10.7442
mondani	-10.7442
▁pénzintézet	-10.7442
▁fellépés	-10.7443
▁0,5	-10.7446
▁formájában	-10.7448
▁tudós	-10.7451
▁határoz	-10.7452
▁csökkentett	-10.7459
▁str	-10.746
▁Szerdá	-10.7463
▁tevékenysége	-10.7465
csics	-10.7473
▁állított	-10.7474
hall	-10.7475
alizmus	-10.748
▁feljelentés	-10.748
▁találkozott	-10.7484
▁maradnak	-10.7489
▁lába	-10.749
▁rajzol	-10.7492
▁szálló	-10.7495
▁Tudomány	-10.7496
▁közgazdász	-10.7496
▁mobiltelefon	-10.7496
▁püspök	-10.7496
▁lejárt	-10.7496
▁kezelő	-10.7497
▁szolgáltatók	-10.75
▁korosztály	-10.75
▁Horn	-10.7501
▁felhasznál	-10.7502
▁nagyszerű	-10.751
▁Jog	-10.7511
▁89	-10.7513
▁menekült	-10.7514
▁parancsnok	-10.7518
▁valósul	-10.7522
▁dug	-10.7522
▁nyomoz	-10.7524
oldal	-10.7528
▁Nagydíj	-10.7531
▁megállapít	-10.754
▁információkat	-10.7546
▁Bern	-10.755
▁180	-10.755
▁alternatív	-10.7552
▁koncentráció	-10.7552
▁mérséklőd	-10.7552
▁Írország	-10.7552
▁újdonság	-10.7552
>	-10.7552
▁Richter	-10.7552
▁katasztrófá	-10.7552
▁Jövő	-10.7552
▁bevallás	-10.7552
▁érzem	-10.7552
▁ugye	-10.7552
▁bekövetkez	-10.7554
▁elejé	-10.7556
csomag	-10.7558
▁országokban	-10.7559
▁Lát	-10.7562
▁durv	-10.7566
▁2-3	-10.7566
▁nyertes	-10.758
▁mentés	-10.7586
etlenül	-10.7587
▁kivitel	-10.7592
▁Kal	-10.7604
▁kutyá	-10.7605
▁kattint	-10.7608
▁végkielégítés	-10.7609
▁debreceni	-10.7609
▁gyönyörű	-10.7609
▁megvalósul	-10.7609
▁humor	-10.7609
▁weboldal	-10.7609
▁villá	-10.761
orvos	-10.7611
▁karrier	-10.7611
▁ujj	-10.7612
▁képviselőjelölt	-10.7613
kívül	-10.7614
▁küzdelme	-10.7614
▁felvételek	-10.7615
▁ifjúság	-10.7615
kapott	-10.7616
járás	-10.7631
▁elismerte	-10.764
▁ellátó	-10.7643
▁kerékpár	-10.7645
arlós	-10.7646
▁78	-10.7661
▁viszi	-10.7664
▁módosított	-10.7666
▁Fülöp	-10.7666
▁büntetőeljárás	-10.7666
▁kiszolgál	-10.7666
▁személygépkocsi	-10.7666
▁lámpá	-10.7666
▁Rádió	-10.7666
▁részleteket	-10.7666
intézet	-10.767
verseny	-10.7673
▁előfordulhat	-10.7674
▁bizonytalanság	-10.7677
▁tudtuk	-10.7678
▁elfogadta	-10.768
▁ítélték	-10.7681
vonulás	-10.7685
KN	-10.7685
▁előnye	-10.7692
▁fordulójában	-10.7695
drágább	-10.7695
▁(19	-10.7696
▁afrikai	-10.7697
pénztár	-10.7699
▁alapú	-10.7699
▁erejé	-10.7701
▁csatlakozás	-10.7706
▁franciák	-10.7709
omin	-10.7712
Ez	-10.7714
▁állapít	-10.7716
▁számolni	-10.772
▁nevében	-10.7721
▁pad	-10.7722
▁Vlagyimir	-10.7724
▁maximum	-10.7724
▁George	-10.7724
▁szörny	-10.7724
▁Fontos	-10.7724
▁fertőzés	-10.7725
Nagy	-10.7731
▁szabadul	-10.7733
▁romák	-10.7733
▁komolyabb	-10.7739
▁gyógyul	-10.774
▁edzője	-10.7743
▁ülő	-10.7745
▁Mindenki	-10.775
▁náluk	-10.7751
▁71	-10.7752
órás	-10.7753
vagy	-10.7756
▁kiegészít	-10.7759
▁lehetőségek	-10.7761
▁kevered	-10.7764
▁kérés	-10.7765
▁minősítés	-10.7765
fokú	-10.7771
▁kerületben	-10.7775
▁virradó	-10.7781
▁Haladás	-10.7781
▁kisfiú	-10.7782
▁pornó	-10.7782
▁Sziget	-10.7783
▁palesztin	-10.7783
▁üzletember	-10.7783
▁istálló	-10.7786
▁terep	-10.7786
▁76	-10.7789
tábor	-10.779
▁félév	-10.7792
▁kereskedők	-10.7799
▁Husz	-10.7803
▁betegségek	-10.7803
▁életében	-10.7804
▁vitt	-10.7805
▁nyíl	-10.7808
arányos	-10.782
▁vihar	-10.7822
▁írják	-10.7829
▁megnyerte	-10.7834
▁tisztá	-10.7836
▁tudat	-10.7839
▁Fejlesztés	-10.784
▁népszavazás	-10.784
▁fájdalma	-10.784
▁kerék	-10.784
▁kezdeni	-10.785
▁bál	-10.785
▁következett	-10.785
▁Sun	-10.7851
▁rohan	-10.7855
▁vásár	-10.7861
▁hatná	-10.7862
▁Fiat	-10.7862
▁betű	-10.7865
▁gr	-10.7873
Bereg	-10.7875
▁eredményez	-10.7882
▁Lev	-10.7887
▁keresni	-10.7888
▁küzdő	-10.789
játék	-10.7893
▁vásárlók	-10.7894
▁magánszemély	-10.7898
▁Ildikó	-10.7898
▁Közlekedés	-10.7898
▁Széchenyi	-10.7898
▁magabiztos	-10.7898
▁Bálint	-10.7898
▁Webber	-10.7898
▁csavar	-10.7898
▁valahogy	-10.7898
▁ellop	-10.7899
▁Valenci	-10.7899
▁vonalon	-10.7901
▁működött	-10.7903
▁mennek	-10.7903
szolgálat	-10.7906
▁olimpián	-10.7914
nter	-10.7914
▁csomagol	-10.792
növekedett	-10.7923
▁fejleszt	-10.7929
▁márká	-10.793
▁Hely	-10.7933
▁kapható	-10.7935
▁használta	-10.7935
▁kkel	-10.7939
▁vonzó	-10.7939
▁gyilkos	-10.7941
▁folytatód	-10.7942
▁Fu	-10.7947
▁jogot	-10.795
▁alakulat	-10.7956
▁Szalai	-10.7957
▁alábbi	-10.7958
▁hozzájuk	-10.7958
▁középpályás	-10.7958
▁étterem	-10.796
▁énekel	-10.7961
▁Rom	-10.7965
csökkent	-10.7967
▁top	-10.7969
cium	-10.7974
▁titko	-10.798
▁történetét	-10.7984
▁létrehozásá	-10.7988
▁elhelyez	-10.7991
véletlenül	-10.7991
▁tiltakozás	-10.7992
▁Iván	-10.7999
▁számla	-10.8006
▁találkozón	-10.8007
▁látvány	-10.801
utball	-10.8012
▁forgalomba	-10.8014
▁előkészítés	-10.8016
▁felesleges	-10.8016
▁statisztiká	-10.8016
▁abszol	-10.8016
▁drága	-10.8016
▁gárda	-10.8016
▁fogadja	-10.8016
lövő	-10.8017
▁emelet	-10.802
▁következ	-10.802
képző	-10.8026
▁érő	-10.8027
▁koalíció	-10.8029
▁járműve	-10.8034
▁ruha	-10.8034
▁ügylet	-10.8035
▁térségében	-10.8036
▁nom	-10.8036
▁mesé	-10.8042
▁Jean	-10.8042
▁Harr	-10.8042
▁dán	-10.8047
▁mondom	-10.8047
▁léphet	-10.8048
tóság	-10.805
▁oldalak	-10.8051
▁álom	-10.8051
▁segíthet	-10.8052
▁baloldal	-10.8055
▁dolgokat	-10.8057
noha	-10.8057
▁süllyed	-10.8062
▁nyár	-10.8074
▁Erzsébet	-10.8076
▁közreműköd	-10.8076
▁moszkvai	-10.8076
▁Benedek	-10.8076
ográf	-10.8076
▁titkosszolgálat	-10.8076
▁Atlant	-10.8077
▁náci	-10.8078
éldául	-10.8078
▁apja	-10.808
▁játszhat	-10.8082
▁tekintetében	-10.8085
▁mérsékelt	-10.8087
▁3-0	-10.8088
▁boksz	-10.8091
kisebb	-10.8091
▁jósol	-10.8094
▁munkanélküli	-10.8097
▁üzenete	-10.8098
▁West	-10.8103
▁jelez	-10.8111
▁felfedezés	-10.8113
lánc	-10.8115
▁tagjá	-10.8117
▁Veres	-10.812
▁régész	-10.8126
▁közepes	-10.8128
▁gazdálkod	-10.8134
▁munkaerő	-10.8135
•	-10.8135
▁szilveszter	-10.8135
▁sűrű	-10.8135
▁besorolás	-10.8135
▁fellebbez	-10.8135
▁tábla	-10.8135
▁szerencsétlen	-10.8136
▁rabló	-10.8136
▁szállodá	-10.8136
▁villany	-10.8139
▁nyitó	-10.8139
▁rém	-10.8139
▁fent	-10.8139
▁tőké	-10.8141
▁elérte	-10.8143
▁Eszter	-10.8143
▁növek	-10.8145
▁fizette	-10.8147
▁befogad	-10.8148
▁83	-10.815
▁lépni	-10.8155
▁telefonon	-10.8156
▁elkövet	-10.8161
▁kard	-10.8163
▁fokozott	-10.8163
odik	-10.8167
vételével	-10.8168
kötő	-10.8175
▁munkája	-10.8179
▁Max	-10.8181
▁kezelni	-10.8182
▁adomány	-10.8184
▁győzte	-10.8188
▁filmjé	-10.819
▁tájékoztató	-10.8194
getés	-10.8194
bajnok	-10.8195
▁törekvés	-10.8196
▁viszonyítva	-10.8196
▁mögé	-10.8196
▁Daily	-10.8196
hátvéd	-10.8197
▁felkészül	-10.8197
▁ajánlás	-10.8198
▁tekintély	-10.82
▁halálát	-10.8204
lépés	-10.8205
▁gyűjtő	-10.8207
▁Kós	-10.8208
▁jöttek	-10.821
▁megfigyelés	-10.8213
▁folyamatban	-10.8216
▁uralkodó	-10.8216
▁értesít	-10.8219
▁ígérte	-10.822
▁támogatta	-10.8223
▁sakk	-10.8228
▁81	-10.8229
▁Ide	-10.8234
▁fűz	-10.8239
igazgatás	-10.8247
▁magad	-10.8251
sztikus	-10.8251
▁Amerikában	-10.8252
▁kezében	-10.8253
▁drágul	-10.8256
▁mexikó	-10.8256
▁életveszélyes	-10.8256
▁nyomozók	-10.8257
▁Arról	-10.8259
▁személyautó	-10.8259
▁zárás	-10.826
▁szerelem	-10.8263
▁fenntartás	-10.8264
▁vicces	-10.8265
▁szület	-10.827
▁Pénzügy	-10.8276
▁vonatkozik	-10.8283
▁29-	-10.8285
▁2002	-10.8289
helyett	-10.831
▁részében	-10.8311
▁takarít	-10.8312
▁kétszeres	-10.8314
▁demokráciá	-10.8317
▁marketing	-10.8317
▁pedagógus	-10.8317
▁Thomas	-10.8317
▁felszólít	-10.8317
▁plakát	-10.8317
▁dobogó	-10.8317
▁Messi	-10.8317
▁voks	-10.8318
▁celeb	-10.8318
▁kasszá	-10.8319
szigetek	-10.8325
▁Gold	-10.8328
▁Ur	-10.8331
▁kifogás	-10.8334
▁válhat	-10.8334
▁könyvtár	-10.8335
▁szokott	-10.8341
töltött	-10.8349
▁használhat	-10.835
▁repülés	-10.835
▁szakszervezetek	-10.8351
ménnyel	-10.8355
▁várta	-10.8365
fejlesztett	-10.8366
▁értelmez	-10.8367
▁vesztett	-10.8376
▁epizód	-10.8379
▁stúdió	-10.8379
▁Racing	-10.8379
▁Lendva	-10.8379
▁Ligája	-10.8379
▁festmény	-10.8382
▁kilencven	-10.8383
▁Márton	-10.8388
▁79	-10.8396
▁eladó	-10.8396
▁használó	-10.8401
▁fák	-10.8405
▁elkészült	-10.8405
▁szerencsés	-10.8406
▁legendás	-10.8409
▁távozott	-10.841
▁Brit	-10.8413
▁Bors	-10.8414
▁nének	-10.8418
▁2003-	-10.8419
▁veresége	-10.8426
Britanniában	-10.844
▁Horvátország	-10.844
▁Schumacher	-10.844
▁Társaság	-10.844
▁büszke	-10.844
▁kilogramm	-10.844
▁legközelebb	-10.844
▁megjegyezte	-10.844
▁Telekom	-10.844
▁0,4	-10.8441
▁méltat	-10.8443
▁hosszabbítás	-10.8447
▁jutni	-10.8448
▁lyuk	-10.8448
▁helyezték	-10.8456
▁jukat	-10.8457
▁állították	-10.8458
▁építő	-10.8459
▁gondot	-10.8465
▁1500	-10.8466
▁3-2	-10.8484
▁elemek	-10.8493
▁Hisz	-10.8496
▁váltotta	-10.8496
▁hátrányos	-10.8496
▁tagállamok	-10.8497
▁tucat	-10.85
▁bűnügy	-10.8501
▁McLaren	-10.8502
▁Vilmos	-10.8502
▁minimum	-10.8502
▁bejegyzés	-10.8502
▁düh	-10.8503
▁bűnöző	-10.8503
▁autópályá	-10.8504
▁élvonal	-10.8507
ráz	-10.8509
▁Kupa	-10.8509
itz	-10.8511
hódít	-10.8513
▁sajtóügyeletese	-10.8515
▁értékesít	-10.8519
alkotás	-10.8519
▁2013-	-10.8521
▁túlzott	-10.8522
▁Jose	-10.8527
tölteni	-10.8527
lly	-10.8535
▁teljesítés	-10.854
▁190	-10.8542
eddig	-10.8555
▁Putyin	-10.8565
▁szlovén	-10.8565
▁vezetőedző	-10.8565
▁1989	-10.8565
▁hűtlen	-10.8565
▁zaklat	-10.8565
▁album	-10.8565
▁1997	-10.8565
▁Judit	-10.8565
songrád	-10.8565
▁óráig	-10.8565
▁viselked	-10.8568
▁eleget	-10.8568
▁választmány	-10.8569
▁labdá	-10.8569
▁nyara	-10.857
▁Der	-10.8571
▁területet	-10.8575
▁szemmel	-10.8576
▁felhívta	-10.8578
veszély	-10.8582
▁akarat	-10.8584
▁kihagy	-10.8584
▁rendezik	-10.8588
▁Tech	-10.8592
▁alakulásá	-10.8592
▁pop	-10.8592
▁Kör	-10.8601
▁agrár	-10.8603
szabás	-10.8612
ward	-10.8614
plén	-10.8614
▁tartoz	-10.8617
állapították	-10.8618
▁nyolcad	-10.8621
▁labda	-10.8628
▁Juventus	-10.8628
▁baktérium	-10.8628
▁lépcső	-10.8628
▁Albert	-10.8628
▁roham	-10.863
▁Pető	-10.8631
▁fedezet	-10.8633
▁keresés	-10.8638
külön	-10.8643
▁Tour	-10.8643
▁1,1	-10.8651
▁110	-10.8652
próbálják	-10.8652
▁sorsa	-10.8658
▁mutatták	-10.8662
▁műsorában	-10.8665
ndőrkapitányság	-10.8669
▁olimpiá	-10.8674
▁regisztrált	-10.8679
hamarabb	-10.8683
▁magánnyugdíj	-10.8685
▁vicc	-10.8687
▁Rob	-10.8689
▁Moszkvá	-10.8691
▁Média	-10.8691
▁átfogó	-10.8691
▁bennünket	-10.8691
▁próba	-10.8691
▁ellenkező	-10.8691
▁következtetés	-10.8692
▁vízszint	-10.8694
▁fellép	-10.8694
▁Fed	-10.8694
▁érvényesül	-10.8695
▁Vona	-10.8699
▁vélekedett	-10.87
tetni	-10.871
▁szakma	-10.871
▁Tíz	-10.8714
bbá	-10.8714
▁fiúk	-10.8718
▁befolyás	-10.8718
▁bizottságának	-10.8723
▁Eger	-10.8725
▁1990-	-10.8726
▁84	-10.8727
▁szalon	-10.8732
▁küldte	-10.8739
▁Q	-10.8739
▁reális	-10.8744
világítás	-10.8745
▁ságát	-10.8748
▁Juhász	-10.8755
▁Kereszt	-10.8755
▁hátteré	-10.8755
▁aratott	-10.8757
▁mondván	-10.8757
▁Win	-10.8758
▁számomra	-10.8759
▁ketten	-10.8761
pályás	-10.8764
zatos	-10.8766
▁hangsúlyoz	-10.8768
▁hatályba	-10.8768
▁tenné	-10.8771
▁bejelent	-10.8773
▁enyhít	-10.8773
▁gyalogos	-10.8776
▁Dunántúl	-10.8777
▁készülnek	-10.8783
▁részletesen	-10.8783
▁gu	-10.8784
▁adag	-10.8785
▁BRFK	-10.8787
határozza	-10.879
▁2005	-10.8796
▁kialakulásá	-10.8802
felsőbb	-10.8802
-40	-10.8803
ereskedelmi	-10.8804
▁130	-10.8805
▁Pir	-10.8809
▁levő	-10.8811
▁lemond	-10.8813
remier	-10.8814
gyullad	-10.8815
▁levelek	-10.8816
▁szankció	-10.8819
▁bántalmaz	-10.8819
▁lennének	-10.8819
▁utólag	-10.8819
▁kiadvány	-10.8819
▁Belföld	-10.882
▁műanyag	-10.8822
Abaúj	-10.8823
▁tárlat	-10.8823
▁fektet	-10.8823
▁US	-10.8826
enberg	-10.8829
▁százalékpont	-10.883
▁ideális	-10.8832
▁Magyarországot	-10.8838
záró	-10.8838
▁bukás	-10.884
▁Akár	-10.8842
gyógyász	-10.8852
▁előadó	-10.8853
▁Hx	-10.8855
▁hozzájárulás	-10.8855
▁verse	-10.8859
▁indította	-10.8859
▁Pár	-10.8867
▁festő	-10.8875
▁értesülés	-10.8883
▁tagország	-10.8883
▁pletyk	-10.8883
▁szerelvény	-10.8883
▁jégkorong	-10.8883
▁Ember	-10.8884
▁Volán	-10.8884
▁Blog	-10.8884
▁érdeklődők	-10.8884
▁XX	-10.8885
▁77	-10.8885
▁1,8	-10.8886
▁feladatot	-10.8887
▁dönteni	-10.8887
▁megszerezt	-10.8887
▁követelmény	-10.8889
▁bevezetése	-10.8889
▁hetjük	-10.8895
▁fúj	-10.8898
▁régen	-10.89
▁Dom	-10.89
hirdetés	-10.8905
▁szava	-10.8912
▁rangsor	-10.8915
▁iskolában	-10.8916
ítanak	-10.8927
▁közep	-10.8932
▁látom	-10.8934
▁pszich	-10.8938
▁hatunk	-10.8944
fejtette	-10.8945
▁művé	-10.8947
▁Olimpi	-10.8948
▁csempész	-10.8948
▁Költségvetés	-10.8948
▁elterjed	-10.8948
▁megvásárol	-10.8948
▁sajtószabadság	-10.8948
▁Ázsi	-10.8948
▁Fejér	-10.8948
▁Szerencsé	-10.8948
▁Majd	-10.8949
Kiskun	-10.8949
▁tetejé	-10.8949
ázás	-10.8953
▁Zá	-10.8954
jétől	-10.8957
ux	-10.896
▁kapták	-10.896
stein	-10.896
▁eltör	-10.897
övér	-10.8982
▁munkájá	-10.899
▁fogyasztó	-10.8992
▁Pénz	-10.8993
▁munkatárs	-10.8995
▁cserébe	-10.9
▁állapota	-10.9004
▁felejt	-10.9012
▁elhangzott	-10.9014
▁grafik	-10.9014
▁légkör	-10.9014
▁Idő	-10.9015
▁helyreállítás	-10.9015
▁magyarázza	-10.9018
▁híj	-10.9018
▁fűtés	-10.9024
▁erősítette	-10.9025
▁2000-	-10.9028
▁közeled	-10.9038
▁jelentkezett	-10.9043
▁ura	-10.9047
▁helyiség	-10.9049
▁Angel	-10.9054
▁gyalog	-10.9058
▁változik	-10.9059
▁diplomá	-10.9079
▁vonz	-10.9079
▁Karácsony	-10.908
▁Reuters	-10.908
PSZÁF	-10.908
▁OVB	-10.908
▁mindkettő	-10.908
▁titkár	-10.908
▁elvesztett	-10.908
▁akadémi	-10.908
▁összhang	-10.908
tetett	-10.9081
▁felülvizsgálat	-10.9084
▁rendszám	-10.9085
tározó	-10.9085
▁mese	-10.9087
▁hangzott	-10.9091
▁hoki	-10.9091
lapot	-10.9094
▁földön	-10.9096
▁Csap	-10.9099
▁válás	-10.91
▁Baj	-10.9102
▁Carlo	-10.9103
történet	-10.9106
▁kialakít	-10.9108
▁zajlott	-10.911
▁katasztrófavéd	-10.9111
▁bukott	-10.9111
▁teherautó	-10.9111
▁üzen	-10.9111
▁szabott	-10.9116
▁tulajdonság	-10.9134
▁Est	-10.9135
▁rontott	-10.9136
▁Lip	-10.9141
▁ellentmond	-10.9142
▁csel	-10.9145
▁tartományban	-10.9146
▁Szervezet	-10.9146
▁adatbázis	-10.9146
▁lassú	-10.9146
▁HVG	-10.9146
▁alkatrész	-10.9146
▁kedvéért	-10.9146
▁Cseh	-10.9147
▁iszap	-10.9148
▁Szlovákia	-10.9149
▁Jenő	-10.915
tartott	-10.9153
▁lázad	-10.9156
▁fiatalabb	-10.9158
▁0,1	-10.9159
sky	-10.9163
▁hátul	-10.9165
▁megváltoz	-10.9166
▁lényege	-10.9169
▁Ir	-10.9179
heim	-10.9179
▁fenyegetés	-10.9183
▁gyógyít	-10.9186
▁bizon	-10.9197
▁tudósít	-10.9197
▁erőszakos	-10.9198
ütő	-10.921
fertőz	-10.921
▁Hozzá	-10.9212
▁főszerkesztő	-10.9212
▁bicikli	-10.9212
▁hibrid	-10.9212
▁kongresszus	-10.9212
▁miskolci	-10.9212
▁riasztás	-10.9212
▁stressz	-10.9213
▁6:4	-10.9213
▁mez	-10.9213
▁Egyéb	-10.9213
▁bázispont	-10.9214
szabadságvesztés	-10.9215
▁rendszerbe	-10.9216
▁93	-10.9218
▁vártnál	-10.9219
▁állampolgárok	-10.9219
raki	-10.9223
▁sétál	-10.9224
▁megrendez	-10.9227
▁kérdezte	-10.9233
▁mindegy	-10.9235
▁tőlük	-10.9236
▁közvetítés	-10.9238
francia	-10.9238
▁keresnek	-10.9239
▁összefügg	-10.9239
ítsák	-10.9242
OSZ	-10.9243
▁gondoltam	-10.9245
200	-10.9247
▁közöl	-10.925
▁Dun	-10.9251
▁szóval	-10.9251
▁értem	-10.9262
választani	-10.9264
▁szigor	-10.9265
▁elvégz	-10.9269
▁2014-	-10.928
▁Hamilton	-10.928
▁cselekmény	-10.928
▁kormányszóvivő	-10.928
▁Frank	-10.928
érdésünkre	-10.9281
▁tucatnyi	-10.9282
▁megváltoztat	-10.9284
▁játékvezető	-10.9287
▁hajrá	-10.9288
szlovákiai	-10.9301
▁változata	-10.9305
▁visszatérés	-10.9307
▁listáján	-10.9307
▁csatlakozott	-10.931
▁140	-10.9311
▁Bács	-10.9314
▁döntését	-10.9317
▁csaj	-10.9318
▁kifogásol	-10.9322
▁influenz	-10.9334
▁nevelés	-10.9337
▁autóval	-10.9339
▁látás	-10.9339
▁Bab	-10.9342
▁szégyen	-10.9347
▁berlini	-10.9347
▁tüdő	-10.9347
▁Kanada	-10.9347
▁megszólal	-10.9347
▁Wood	-10.9347
▁Capital	-10.9347
▁Margit	-10.9347
▁Navra	-10.9347
▁megelőzés	-10.9347
▁finálé	-10.9347
▁szalag	-10.9348
▁címlap	-10.9349
▁4,5	-10.9349
▁százalékról	-10.9353
▁szokta	-10.9356
▁kinevezés	-10.9363
fűzte	-10.9364
▁ajánlato	-10.9366
▁vállalkozók	-10.9367
▁elutasít	-10.9367
▁növeked	-10.9367
▁temető	-10.9367
▁Ram	-10.9376
▁zöldség	-10.9377
▁ételek	-10.9383
gyűlés	-10.9393
▁kiszab	-10.9396
czy	-10.9396
▁válaszolta	-10.9398
▁nyomozó	-10.9399
▁szintre	-10.9402
▁ültet	-10.9403
▁kedvez	-10.9404
utóbb	-10.9406
▁szemlélet	-10.9412
▁Demszky	-10.9415
▁Szijjártó	-10.9415
▁Törökország	-10.9415
▁League	-10.9415
▁Külföld	-10.9415
▁rutin	-10.9415
▁!!!	-10.9416
▁Halál	-10.9416
▁csábít	-10.9416
▁vinni	-10.9417
▁José	-10.9417
▁mozgalom	-10.9419
▁készlet	-10.9425
vezér	-10.9426
▁siet	-10.9428
▁beszédében	-10.9435
▁próbá	-10.9445
sziget	-10.9462
énnyel	-10.9464
▁keresik	-10.9465
▁rejtett	-10.9468
▁mozdulat	-10.947
▁változtatni	-10.9482
*	-10.9484
értekezlet	-10.9484
▁agresszív	-10.9484
▁cigarett	-10.9484
▁Kaposvár	-10.9484
▁tréner	-10.9484
▁gyökere	-10.9484
▁szálloda	-10.9484
▁forgó	-10.9484
▁November	-10.9484
▁Endre	-10.9484
▁építkezés	-10.9485
▁vékony	-10.9486
▁jától	-10.9488
▁százmillió	-10.9491
▁csarnok	-10.9494
▁posztjá	-10.9494
▁nehézségek	-10.9494
▁stratégiá	-10.9496
▁buda	-10.9498
▁békés	-10.9506
▁betölt	-10.951
irodalom	-10.9513
ovszk	-10.9513
cég	-10.9515
lapon	-10.9519
CD	-10.9528
▁gondolta	-10.9532
▁birtokába	-10.9532
▁szerepét	-10.9537
▁Mező	-10.9539
Zem	-10.9543
▁Matt	-10.9544
▁kiesett	-10.9544
▁érdekel	-10.955
▁elnökének	-10.9552
▁Valutaalap	-10.9553
▁gyűrű	-10.9553
▁elképesztő	-10.9553
▁kritizál	-10.9553
▁hírportál	-10.9553
▁0,7	-10.9553
▁becsület	-10.9554
▁extra	-10.9554
▁szigorítás	-10.9555
▁szenvedély	-10.9555
▁hatékonyabb	-10.9557
▁alelnök	-10.9557
▁kutyák	-10.9558
▁Autó	-10.9559
▁premier	-10.9559
▁készíteni	-10.9561
▁közélet	-10.9564
▁heves	-10.9566
▁aukció	-10.9568
▁ahonn	-10.9573
▁ellensége	-10.9575
▁pontosabb	-10.9575
▁magunkat	-10.9576
▁kaptam	-10.9578
▁Domin	-10.9581
▁pénztárak	-10.9587
▁nevelő	-10.9593
▁ugrott	-10.9599
▁kötőd	-10.9607
▁értesített	-10.9607
▁barátja	-10.9614
▁nukleár	-10.9622
▁Akadémia	-10.9622
▁Mexikó	-10.9622
▁esedékes	-10.9622
▁jogállam	-10.9622
▁kitüntet	-10.9622
▁turbó	-10.9622
▁transz	-10.9622
▁átlátható	-10.9622
▁póló	-10.9622
▁megállapította	-10.9624
▁emberölés	-10.9624
▁költött	-10.9627
▁92	-10.9627
▁ékszer	-10.9634
▁repül	-10.9635
▁megkeresés	-10.9635
▁eszközöket	-10.9638
▁Tény	-10.9641
▁duplá	-10.9648
▁bírságo	-10.965
▁Vannak	-10.9653
gondol	-10.9654
▁időköz	-10.9654
▁távozás	-10.9656
ipar	-10.9662
▁Maga	-10.9669
▁megtámad	-10.9669
▁Kop	-10.9675
▁mesélte	-10.9678
▁előírás	-10.9679
▁nagykövetség	-10.9681
▁parancs	-10.9692
▁szabálysértés	-10.9692
▁árbevétel	-10.9692
▁Teljes	-10.9692
▁Valószínű	-10.9692
▁cukor	-10.9692
▁félelme	-10.9692
elmes	-10.9693
▁0,0	-10.9693
▁óvodá	-10.9693
▁megenged	-10.9694
▁1,7	-10.9694
▁haszon	-10.9694
▁Roland	-10.9698
▁Környezetvédel	-10.9703
▁jártak	-10.9706
▁gyűjtés	-10.9709
lföldi	-10.9714
▁éreztem	-10.9719
▁08	-10.972
afrikai	-10.9724
▁Kíná	-10.9734
égett	-10.974
▁kimond	-10.9741
▁350	-10.9746
▁jóvá	-10.9747
▁forradalm	-10.9751
▁Emlék	-10.9762
▁elbeszélés	-10.9762
▁helikopter	-10.9762
▁páciens	-10.9762
▁utánpótlás	-10.9762
▁érettségi	-10.9762
▁Brazíli	-10.9762
▁bizalom	-10.9762
▁árverés	-10.9762
▁konyha	-10.9762
▁kábel	-10.9763
▁Honda	-10.9763
▁matematik	-10.9763
▁3,8	-10.9764
▁célpont	-10.9772
▁szag	-10.9772
dőlt	-10.9772
▁álmod	-10.9773
▁régebb	-10.9777
▁09	-10.9782
▁munkaadó	-10.9784
▁érkezés	-10.9785
olasz	-10.9787
▁domb	-10.9788
rown	-10.9791
▁foglaltak	-10.9792
▁válogat	-10.9794
eszmé	-10.9795
▁vonás	-10.9796
vállalat	-10.9796
▁történetében	-10.9801
▁tömeges	-10.9802
▁eivel	-10.9807
▁gondolják	-10.9809
úszott	-10.9822
▁erőfeszítés	-10.9833
▁Nyilván	-10.9833
▁FTC	-10.9833
▁árnyék	-10.9833
▁reptér	-10.9833
▁nyolcaddöntő	-10.9833
▁1996	-10.9833
▁Gabriella	-10.9834
▁sereg	-10.9835
▁jelképe	-10.9836
▁létrejött	-10.9837
▁panaszkod	-10.9847
▁irányba	-10.9847
▁diploma	-10.9854
▁magába	-10.9855
▁velünk	-10.9863
einte	-10.9868
ütötte	-10.9868
▁foglalkoztatott	-10.9872
▁együttműköd	-10.9885
▁koroná	-10.9889
ődő	-10.9892
▁bővülés	-10.9894
▁bukkan	-10.9899
▁szeretném	-10.9902
−	-10.9905
▁Ukrajna	-10.9905
▁elfoglal	-10.9905
▁gólpassz	-10.9905
▁tájékozód	-10.9905
▁Louis	-10.9905
▁fennmarad	-10.9905
▁szobor	-10.9905
▁elhárít	-10.9905
▁alkalmából	-10.9906
▁Különös	-10.9907
▁halmoz	-10.9909
▁eltávolít	-10.9911
▁végzi	-10.9915
▁váll	-10.9919
▁járvány	-10.9924
ehéz	-10.9926
▁vizsgálta	-10.9934
▁támaszt	-10.9945
▁honlapja	-10.9953
▁útján	-10.9957
▁meteor	-10.9964
▁havas	-10.997
▁maximális	-10.9977
▁Kórház	-10.9977
▁integráció	-10.9977
▁kipróbál	-10.9977
▁ragaszkod	-10.9977
▁mozgat	-10.9977
▁Norbert	-10.9977
▁afgán	-10.9977
▁kispad	-10.9977
▁terhesség	-10.9977
▁köröz	-10.9979
▁Orosz	-10.998
▁forró	-10.998
▁felsorol	-10.9982
számítva	-10.9983
▁posta	-10.9987
▁bemutatkoz	-10.9988
▁Női	-10.999
ságosa	-10.9994
▁jogász	-10.9996
▁5,5	-11.0017
▁tapasztal	-11.0021
▁utazott	-11.0022
▁úszó	-11.0024
▁szakított	-11.0031
▁hiányában	-11.0034
▁republikánus	-11.0049
Britannia	-11.0049
▁Journal	-11.0049
▁elvégez	-11.0049
▁Moody	-11.0049
▁földgáz	-11.0049
▁mindannyi	-11.0049
▁robot	-11.005
▁homok	-11.005
idejű	-11.0051
▁hajl	-11.0052
▁népesség	-11.0054
▁kezdeményezte	-11.0055
egyszerűbb	-11.0055
▁műhely	-11.0056
▁hihetetlen	-11.0057
▁érezte	-11.0058
▁holnap	-11.0058
▁képeket	-11.0063
▁halász	-11.0063
▁ütközés	-11.0065
▁Zo	-11.0066
▁múlik	-11.0067
▁Jász	-11.0074
▁dolgoztak	-11.0075
▁ügyei	-11.008
▁elutasította	-11.0082
▁Hill	-11.0095
▁feladatokat	-11.0102
▁hordó	-11.0104
▁veszített	-11.0107
1000	-11.0108
▁vádak	-11.0114
védeni	-11.0115
▁függetlenség	-11.012
▁szavazni	-11.0121
dioxid	-11.0122
Totalcar	-11.0122
▁hitelminősítő	-11.0122
▁meggyilkol	-11.0122
▁www	-11.0122
▁megrendelés	-11.0122
▁Önkormányzat	-11.0122
▁bécsi	-11.0122
▁bosszú	-11.0122
▁győri	-11.0122
▁lemarad	-11.0123
▁szórakoztató	-11.0123
▁tilos	-11.0123
▁mélység	-11.0129
▁építőipar	-11.013
▁minősít	-11.0135
▁jelentették	-11.0136
▁felvett	-11.0136
▁lóerő	-11.0144
▁előírások	-11.0144
▁szárnya	-11.0152
érkezett	-11.0161
▁sorozatot	-11.0163
▁rendbe	-11.0164
utasította	-11.0174
▁kereskedő	-11.0175
▁Wall	-11.0182
▁megoszt	-11.0184
▁kosárlabda	-11.0196
▁tendenci	-11.0196
▁minősül	-11.0196
▁spórol	-11.0196
▁Jézus	-11.0196
▁turizmus	-11.0196
▁csomó	-11.0196
▁alvás	-11.0198
▁érdemel	-11.0198
▁napjaink	-11.0201
▁Jobb	-11.0201
▁eltérés	-11.0204
▁kultúr	-11.0204
▁olykor	-11.0205
▁Erős	-11.0208
▁Bence	-11.0209
ősök	-11.021
hagyott	-11.0214
öző	-11.0217
▁formáj	-11.0222
▁leírás	-11.023
▁1998-	-11.0232
▁Raj	-11.0236
▁jére	-11.0239
▁Neke	-11.0241
▁nyugdíjak	-11.0254
▁véleked	-11.0259
támadás	-11.0261
▁Kárpát	-11.0266
▁Külön	-11.0266
▁bármikor	-11.0268
▁számoltak	-11.0269
▁Ausztria	-11.027
▁kategória	-11.027
▁rájátszás	-11.027
▁1992	-11.027
▁külügy	-11.027
▁jobbikos	-11.027
▁ízlés	-11.0273
▁mindkette	-11.0274
▁érzék	-11.0274
▁pakol	-11.0275
▁raktár	-11.0275
▁jelleg	-11.0276
▁származik	-11.0276
▁Kedve	-11.0278
▁hetné	-11.0284
▁hatékonyság	-11.0285
▁áradás	-11.0286
▁temet	-11.029
▁jelenlét	-11.0291
▁zaj	-11.0296
▁híresség	-11.0297
épített	-11.0319
▁Szolgál	-11.032
▁katoná	-11.0323
▁tisztel	-11.0323
▁belföld	-11.0324
▁báb	-11.0324
▁Víz	-11.0326
▁Vid	-11.0326
▁tiltott	-11.0327
üzem	-11.0328
ismerő	-11.0328
▁csecsemő	-11.0344
▁elfogták	-11.0344
▁felszólal	-11.0344
▁kancellár	-11.0344
▁összefoglaló	-11.0344
▁1993	-11.0344
▁Dallas	-11.0344
▁gázolaj	-11.0344
▁Dzsudzs	-11.0344
▁érzelme	-11.0345
ncze	-11.0346
Esztergom	-11.0346
▁táská	-11.0347
▁találkozik	-11.0351
erősítették	-11.0353
▁szándékos	-11.0353
▁hotel	-11.0354
pres	-11.0356
▁lemondott	-11.0361
veszi	-11.0363
▁oktató	-11.037
▁romlott	-11.037
alapítás	-11.038
▁94	-11.0381
▁csaló	-11.0383
válogatott	-11.0387
felől	-11.0387
▁2003	-11.0395
▁vádat	-11.0406
törvénymódosítás	-11.0406
▁eléri	-11.0412
▁diktatúr	-11.042
▁Polgár	-11.042
▁Ismer	-11.042
▁megnyitó	-11.042
▁Jones	-11.0421
▁Flor	-11.0422
tesse	-11.0422
▁Cap	-11.0423
▁Johnson	-11.0424
▁megoldani	-11.0424
▁népszerűsít	-11.0426
▁megkapta	-11.0429
▁bizonyított	-11.0435
▁látsza	-11.0436
▁Vaj	-11.0443
▁terhelés	-11.0443
▁tűnő	-11.0446
▁tartoznak	-11.0447
▁kerékpáros	-11.0448
▁konferencián	-11.0448
fenntartó	-11.045
teremteni	-11.045
ítenek	-11.0451
▁építésé	-11.0454
zárták	-11.0456
▁2001-	-11.0471
▁Német	-11.0483
▁terel	-11.0489
látás	-11.0489
▁Assange	-11.0495
▁Fernando	-11.0495
▁aktivitás	-11.0495
▁lebonyolít	-11.0495
▁prémium	-11.0495
▁szomorú	-11.0495
▁sürgős	-11.0495
▁Szlovákiában	-11.0495
OP	-11.0496
▁utcára	-11.0497
▁szelvény	-11.0498
▁unoká	-11.0498
▁szakemberei	-11.0501
▁nánk	-11.0504
gólos	-11.0505
▁elképzelései	-11.0508
▁naptár	-11.0527
▁Eredmény	-11.0531
▁Vízügy	-11.0532
▁egyszerűsít	-11.0535
rányú	-11.0541
▁270	-11.0544
keleti	-11.0548
▁tisztességes	-11.0559
▁húzta	-11.0567
▁Szlovák	-11.0568
▁játszottak	-11.057
▁adminisztr	-11.0572
▁World	-11.0572
▁ilyesmi	-11.0572
▁tanácskozás	-11.0572
▁6:3	-11.0572
▁felvetés	-11.0572
▁listavezető	-11.0574
▁elmé	-11.0577
legszebb	-11.0581
▁bizonyítani	-11.0582
vitamin	-11.0584
▁dönthet	-11.0586
SZK	-11.0594
▁módjá	-11.0594
▁kérték	-11.0595
▁tünet	-11.0595
gyűjtés	-11.0598
▁irányába	-11.0602
ON	-11.0602
▁tisztán	-11.0608
juttatott	-11.0611
▁elősegít	-11.0613
inform	-11.0613
hozzá	-11.0616
OM	-11.0618
Í	-11.0618
▁rendezte	-11.0623
elnökség	-11.0631
▁tevékenységét	-11.0632
▁erőteljes	-11.0645
▁léptek	-11.0647
vatar	-11.0647
▁Mátyás	-11.0649
▁bolgár	-11.0649
▁böngész	-11.0649
▁előterjesztés	-11.0649
▁hülye	-11.0649
▁médium	-11.0649
▁tisztségviselő	-11.0649
▁turisták	-11.0649
▁Hamburg	-11.0649
▁szenátus	-11.0649
▁hazud	-11.0649
▁pillér	-11.0649
▁tüzet	-11.0649
▁kétségbe	-11.0649
▁állásfoglalás	-11.0649
▁növekszik	-11.0649
▁vesszük	-11.0649
▁oszlop	-11.065
▁Tűz	-11.065
▁újonc	-11.065
▁Hall	-11.065
▁Nico	-11.0654
▁tízmillió	-11.0662
▁Paks	-11.0664
▁szfér	-11.0664
▁mozdul	-11.0664
▁sikertelen	-11.0664
▁egymástól	-11.0666
▁fölény	-11.0666
▁bővít	-11.0668
▁Che	-11.0693
▁szárny	-11.0697
▁alpe	-11.0701
▁mező	-11.0704
▁Melinda	-11.0726
▁fantasztikus	-11.0726
▁turisztik	-11.0726
▁házaspár	-11.0726
▁DNS	-11.0726
▁Nyolc	-11.0726
▁madár	-11.0726
▁Street	-11.0727
▁jeges	-11.0727
▁devizá	-11.0728
▁potenciális	-11.0729
▁keser	-11.0729
IS	-11.073
▁Green	-11.0731
▁étkezés	-11.0732
hagyta	-11.0737
Körös	-11.0738
▁gyengülés	-11.0748
▁kitért	-11.0755
▁sértés	-11.0755
▁igyekezet	-11.0759
▁szavazott	-11.0761
szerv	-11.0764
▁szolgáltat	-11.0768
▁nemzetgazdaság	-11.0777
▁nyugdíjasok	-11.078
▁örökség	-11.0791
▁tapasztalhat	-11.0794
▁nyújtotta	-11.0797
demokraták	-11.0802
▁fedélzet	-11.0804
▁Detroit	-11.0804
▁Microsoft	-11.0804
▁Videoton	-11.0804
▁komplex	-11.0804
▁felhalmoz	-11.0804
▁1995	-11.0804
▁legkevesebb	-11.0804
▁császár	-11.0804
▁dátum	-11.0804
▁Pannon	-11.0804
▁retteg	-11.0804
▁Gólszerző	-11.0805
▁Katona	-11.0806
▁magzat	-11.0807
▁Ausztriában	-11.0818
▁kaptunk	-11.0818
▁kézzel	-11.0825
▁nagyváros	-11.0827
▁lehetőségeket	-11.0828
▁köve	-11.0829
▁jelölés	-11.0833
▁fakad	-11.0833
emlékezés	-11.084
▁történelm	-11.0841
fontosság	-11.0843
▁segítette	-11.0846
▁Eredmények	-11.0846
alacsonyabb	-11.0854
▁adózás	-11.0854
nélkül	-11.0855
▁javasolta	-11.0857
lépett	-11.0862
▁köszönhet	-11.0863
▁2001	-11.0863
▁szenvedő	-11.0865
oalíció	-11.0866
▁cáfol	-11.0873
▁speci	-11.0881
▁Alekszandr	-11.0883
▁Rudolf	-11.0883
▁Volkswagen	-11.0883
▁daganat	-11.0883
▁erdély	-11.0883
▁tragédiá	-11.0883
▁Rózsa	-11.0883
▁pincé	-11.0883
▁Zöld	-11.0883
▁tömegközlekedés	-11.0883
▁ártatlan	-11.0883
▁számunkra	-11.0883
▁nyomaték	-11.0883
▁Daniel	-11.0883
▁Lyon	-11.0884
▁Alexand	-11.0886
▁székház	-11.0887
▁elnökválasztás	-11.0887
▁elfelejt	-11.0889
▁Ernő	-11.089
▁giga	-11.0891
▁megtesz	-11.0893
▁képzett	-11.0899
▁üzemeltetés	-11.0905
▁parlamentbe	-11.0922
▁gyümölcs	-11.093
▁alkalmazottak	-11.0935
▁gyanúsítottak	-11.0938
▁Mór	-11.0943
▁érzet	-11.0944
▁végezte	-11.0945
▁tészt	-11.0948
▁Devecser	-11.0962
▁belügyminiszter	-11.0962
▁bravúr	-11.0962
▁egyiptomi	-11.0962
▁megismétel	-11.0962
▁belépő	-11.0962
▁kopogtat	-11.0962
▁segéd	-11.0962
▁szőlő	-11.0962
▁jogkör	-11.0963
▁futómű	-11.0964
▁dús	-11.0964
KSH	-11.0965
Claud	-11.0965
▁házkutatás	-11.0966
▁bukkantak	-11.0969
▁kortárs	-11.0977
▁Közel	-11.0979
▁tagadta	-11.0983
▁Szép	-11.0989
▁megválasztott	-11.099
▁kidolgozás	-11.1001
▁leáll	-11.1002
▁kikötő	-11.1003
matikus	-11.1003
▁választhat	-11.1005
▁négyszer	-11.101
▁tünetek	-11.1018
▁problémákat	-11.1024
▁szerver	-11.1032
▁Február	-11.1042
▁Kultur	-11.1042
▁kastély	-11.1042
▁képregény	-11.1042
▁tevékenyked	-11.1042
oszovó	-11.1042
▁Antoni	-11.1042
▁1991	-11.1043
▁padló	-11.1045
▁javított	-11.1046
▁rock	-11.1047
▁koránt	-11.1048
▁Alex	-11.1048
▁küzdött	-11.1049
Például	-11.1054
▁keltett	-11.1055
▁3000	-11.106
▁ellenállás	-11.1061
▁ellátott	-11.1064
▁vizsgálták	-11.1068
▁6,5	-11.1069
vették	-11.107
▁értékelte	-11.1071
▁számtalan	-11.1076
egasztár	-11.1093
▁utakon	-11.1099
alakított	-11.11
elvileg	-11.1101
▁"...	-11.1102
▁XII	-11.1106
rüsszel	-11.1115
▁indok	-11.112
▁ifjú	-11.1121
▁Philadelphi	-11.1123
▁továbbjutás	-11.1123
▁éjfél	-11.1123
▁aggodalm	-11.1123
szemüveg	-11.1123
▁Kádár	-11.1123
▁doktor	-11.1123
▁jegyzőkönyv	-11.1123
▁állapította	-11.1126
▁feltárás	-11.1132
▁összetétel	-11.1134
▁vezetésével	-11.1137
▁pihenő	-11.1161
▁jegyében	-11.1163
▁07	-11.1167
▁idézett	-11.117
▁erővel	-11.1174
program	-11.1178
▁Irak	-11.1179
▁alapoz	-11.1196
szerelés	-11.1199
sima	-11.12
▁Kérdés	-11.1202
couver	-11.1204
▁Kiderült	-11.1204
▁Sebasti	-11.1204
▁hazugság	-11.1204
▁hivatás	-11.1204
▁legerősebb	-11.1204
▁megbetegedés	-11.1204
▁megnyugtat	-11.1204
▁északnyugat	-11.1204
▁hozzátartozó	-11.1204
▁szponzor	-11.1204
▁szürke	-11.1204
▁lovag	-11.1204
▁esküvő	-11.1205
ggyel	-11.1205
▁Kezd	-11.1205
▁múl	-11.1206
▁szabályokat	-11.1206
▁szűn	-11.1208
▁2-2	-11.1209
▁brutális	-11.121
park	-11.1212
▁Eric	-11.1214
▁összesítés	-11.1219
▁vágta	-11.1221
állomány	-11.126
▁Gáz	-11.1264
változás	-11.1266
ellátás	-11.1269
▁szivattyú	-11.1286
▁Labdarúgó	-11.1286
▁Nógrád	-11.1286
▁ügyintéz	-11.1286
▁tengely	-11.1286
▁maradványai	-11.1286
▁milliméter	-11.1286
▁értelmiség	-11.1286
▁felidéz	-11.1286
▁színeiben	-11.1286
indows	-11.1286
▁kollekt	-11.1286
utomatikusan	-11.1286
▁tábornok	-11.1287
▁türelm	-11.1287
zsol	-11.1287
▁beszállító	-11.1287
▁0,6	-11.1287
▁Csütörtökön	-11.1287
▁stabilizál	-11.1288
▁elindít	-11.1288
▁Black	-11.1289
▁áfa	-11.1292
▁Frankfurt	-11.1292
▁romantik	-11.1299
▁Szóval	-11.13
▁sarok	-11.1307
▁mérlegel	-11.1316
▁viharos	-11.1317
▁Bill	-11.132
▁Lind	-11.1324
▁alapítója	-11.1325
▁Opera	-11.1343
▁sziv	-11.1361
▁tűzoltó	-11.1368
▁Berlusconi	-11.1369
▁Internazionale	-11.1369
▁rugalmas	-11.1369
▁visszavágó	-11.1369
▁zloty	-11.1369
▁könnyedén	-11.1369
▁Ibolya	-11.1369
▁Bibli	-11.1369
▁kamera	-11.1369
▁bomba	-11.1369
▁megsértés	-11.1369
▁6:2	-11.1369
▁pszichológus	-11.1369
mérgezés	-11.137
▁hangoztatta	-11.1374
▁győzelemmel	-11.1374
▁forgalmazó	-11.1377
▁többségé	-11.138
▁Előbb	-11.1381
▁XVI	-11.1382
▁tizenhat	-11.1383
▁Team	-11.1383
mennyire	-11.1387
▁3-4	-11.1393
▁teljesíteni	-11.1394
▁születik	-11.1396
▁korlátozott	-11.1406
▁diadal	-11.1411
▁használták	-11.1416
▁trükk	-11.1417
fizetett	-11.1418
▁vegyü	-11.1429
▁élére	-11.1429
váltó	-11.1433
tudat	-11.1444
▁Belgium	-11.1452
▁Legalább	-11.1452
▁Október	-11.1452
▁felzárkóz	-11.1452
▁garanciá	-11.1452
▁konferencia	-11.1452
▁manipul	-11.1452
▁párharc	-11.1452
▁szemtanú	-11.1452
▁csíp	-11.1452
▁összehangol	-11.1452
▁kártya	-11.1452
▁szélső	-11.1453
állyal	-11.1454
PSV	-11.1455
▁XI	-11.1456
▁vízállás	-11.1458
▁panel	-11.1459
▁értesülései	-11.1459
▁tudatta	-11.146
▁Heves	-11.146
▁borult	-11.146
ugró	-11.1464
▁maradjon	-11.1469
▁felszerelés	-11.1471
▁bírálat	-11.148
gazdaság	-11.1481
▁technika	-11.1505
▁Munká	-11.1516
▁politikájá	-11.152
társaság	-11.1523
▁sajtóreferens	-11.1536
▁Kálmán	-11.1536
▁időtartam	-11.1536
▁leminősítés	-11.1536
▁ugrás	-11.1536
▁washington	-11.1536
▁MKB	-11.1536
▁őszinte	-11.1536
▁Attilá	-11.1536
▁törvényhozás	-11.1536
▁Forrás	-11.1536
▁mesterséges	-11.1536
▁1,9	-11.1537
▁lejárat	-11.1538
▁erősítés	-11.1543
▁megtalálható	-11.1545
▁0-2	-11.1545
▁Opel	-11.1546
menet	-11.1546
▁gyász	-11.1553
▁bemutatás	-11.1561
patak	-11.157
▁összeköt	-11.1574
OL	-11.1576
auer	-11.1581
▁91	-11.1592
▁ösztönz	-11.1598
▁felfüggeszt	-11.1615
elszámolás	-11.1617
▁kétharmado	-11.162
▁bronzérme	-11.1621
▁fejlemény	-11.1621
▁palack	-11.1621
▁előzmény	-11.1621
▁stagnál	-11.1621
▁cseleked	-11.1621
▁ilyet	-11.1622
▁rombol	-11.1623
▁Blue	-11.1629
▁öngyilkosság	-11.1629
▁tűzoltóság	-11.163
▁alapanyag	-11.1632
▁Győz	-11.1637
▁elismert	-11.1639
▁teker	-11.1641
▁verték	-11.1658
▁öz	-11.1662
▁kiírt	-11.1665
▁telefonál	-11.1681
▁fűződ	-11.1702
▁International	-11.1706
▁kormányrendelet	-11.1706
▁szüntet	-11.1706
▁Március	-11.1706
▁Általános	-11.1706
▁sürget	-11.1706
tandard	-11.1707
▁Hoffman	-11.1707
▁Jackson	-11.1709
▁vélt	-11.1711
▁erőforrás	-11.1711
▁Pont	-11.1714
▁jegyző	-11.1719
▁gondjai	-11.1734
▁zenész	-11.1735
evic	-11.1737
▁visszavonul	-11.1747
kciós	-11.1749
▁tervezte	-11.1755
▁Gásp	-11.1758
Fidesz	-11.1771
kevés	-11.1771
emelked	-11.1787
▁üzemel	-11.179
▁főszerep	-11.1791
▁Értéktőzsd	-11.1793
▁demonstráció	-11.1793
▁dopping	-11.1793
▁drukker	-11.1793
▁konstrukció	-11.1793
▁állampapír	-11.1793
▁gerinc	-11.1793
▁megkezdt	-11.1793
▁vigyáz	-11.1793
▁krónik	-11.1793
▁srác	-11.1793
▁javára	-11.1793
▁repülőtere	-11.1793
▁szoba	-11.1793
▁publikált	-11.1794
▁priv	-11.1794
▁mélypont	-11.1796
▁kismam	-11.1797
▁tipp	-11.1798
▁Merkel	-11.1798
▁étterme	-11.1801
▁előállított	-11.1803
▁összefogás	-11.1805
▁hívei	-11.1807
▁gyártott	-11.1809
▁körút	-11.181
▁rendelkezésére	-11.1811
▁ügyvédje	-11.1813
▁megegyezés	-11.1813
▁lemondás	-11.1814
▁bővebb	-11.1817
GY	-11.1827
▁konferenciá	-11.1836
▁állíthat	-11.1847
▁Egészségügy	-11.1849
rádi	-11.185
Fotó	-11.1859
közép	-11.1861
▁díszít	-11.1863
▁gyerekei	-11.1865
▁kategóriába	-11.1867
▁felszerelt	-11.187
▁közelít	-11.1871
▁árokba	-11.1876
▁mechanizmus	-11.188
▁Gondol	-11.188
▁meghatározás	-11.188
▁konyhá	-11.188
▁egyezmény	-11.188
▁kiszámíthat	-11.188
▁párbaj	-11.188
▁Fradi	-11.188
▁megpróbálta	-11.188
▁0,8	-11.1881
▁döntenek	-11.1881
aléria	-11.1882
▁merev	-11.1882
nyarán	-11.1882
▁Vajda	-11.1883
▁Nicola	-11.1885
gonosz	-11.1886
▁merész	-11.1887
▁rakétá	-11.1887
▁elemez	-11.1888
▁újjá	-11.1889
▁állapotá	-11.1889
▁eleje	-11.189
OR	-11.1895
▁Felső	-11.1898
▁hányad	-11.1899
▁elfogadható	-11.1901
▁hárít	-11.1903
▁látjuk	-11.1912
▁gólját	-11.1915
onzor	-11.1917
sajtótájékoztató	-11.1934
▁élettárs	-11.1942
▁szentel	-11.1953
▁nyilvánított	-11.1959
▁Székely	-11.1962
▁Krisztina	-11.1967
▁Zsigmond	-11.1967
▁hűtő	-11.1967
▁zsarol	-11.1967
▁megőrzés	-11.1967
▁hiányosság	-11.1968
füred	-11.1968
▁Peking	-11.1968
szolgáltatás	-11.1968
▁kamatemelés	-11.1969
▁tárcá	-11.197
▁postá	-11.1972
▁Angliában	-11.1973
▁gőz	-11.1974
▁juss	-11.1978
▁napjá	-11.1981
▁pszichológia	-11.1981
▁fékez	-11.1984
▁rajtuk	-11.1984
▁összehasonlítás	-11.1985
▁nyílik	-11.1997
▁kísérte	-11.2005
▁emberiség	-11.2014
vitatott	-11.2028
▁hette	-11.203
▁kémia	-11.2037
▁értelmezés	-11.2048
▁öngyilkos	-11.2049
▁Katasztrófa	-11.2056
­	-11.2056
▁Népszava	-11.2056
▁Program	-11.2056
▁alpolgármester	-11.2056
▁kiszivárogtat	-11.2056
▁megfontol	-11.2056
▁drasztikus	-11.2056
▁tálib	-11.2056
▁műhold	-11.2056
▁korrekt	-11.2056
▁farag	-11.2057
▁futballistá	-11.2057
▁nagyságrend	-11.2057
▁Ric	-11.2057
OK	-11.2058
▁elektro	-11.2058
▁megáll	-11.2058
▁Ahhoz	-11.2059
▁McC	-11.2062
iffer	-11.2062
▁kerüljön	-11.2065
▁Trans	-11.2065
▁hallani	-11.2065
▁villa	-11.2066
díjazás	-11.2074
▁voksolás	-11.2076
Bihar	-11.2085
▁1990	-11.2096
▁lezárták	-11.2097
▁napló	-11.2098
▁liszt	-11.2101
▁kinevez	-11.2125
▁depresszió	-11.2145
▁elöntött	-11.2145
▁jogsértés	-11.2145
▁kuratórium	-11.2145
▁lövöldöz	-11.2145
▁regisztráció	-11.2145
▁roppan	-11.2145
▁elégedetlen	-11.2145
▁eurózóna	-11.2145
▁Cameron	-11.2145
▁pohár	-11.2145
▁fogyaték	-11.2145
▁adócsökkentés	-11.2145
▁csepp	-11.2145
▁Button	-11.2145
▁korrekció	-11.2145
▁0,9	-11.2146
▁rakéta	-11.2146
▁Ryan	-11.2146
▁Túl	-11.2146
centrum	-11.2147
▁Ír	-11.2147
dupla	-11.2147
▁meztelen	-11.2148
▁királynő	-11.2149
▁operáció	-11.2149
▁full	-11.2151
tatták	-11.2155
▁vádlotta	-11.2157
▁szerkesztőség	-11.216
▁törleszt	-11.2161
▁névtelen	-11.2161
állni	-11.2161
▁Kupá	-11.2162
rúgás	-11.2175
▁pasi	-11.218
kacs	-11.218
IN	-11.2183
▁eldől	-11.2185
▁köny	-11.2185
▁engedte	-11.22
▁voksol	-11.2216
nyomás	-11.2227
némileg	-11.2233
▁FIFA	-11.2235
▁Mourinho	-11.2235
▁alapkamat	-11.2235
▁elkötelezett	-11.2235
▁iPhone	-11.2235
▁tranzakció	-11.2235
▁veszprémi	-11.2235
▁mindenütt	-11.2235
▁csekély	-11.2235
▁bútor	-11.2235
▁haláleset	-11.2236
▁kedvezőtlen	-11.2237
▁Indiá	-11.2238
▁interjújában	-11.2241
▁javítani	-11.2242
▁teendő	-11.2246
▁Jim	-11.2249
▁tűr	-11.225
▁északkelet	-11.2253
▁válságadó	-11.2254
▁válogatás	-11.226
▁elnököt	-11.2262
▁anyja	-11.2276
terjesztett	-11.2291
▁társadalm	-11.2309
ecske	-11.231
idékfejlesztés	-11.2313
$	-11.2326
▁Egyiptom	-11.2326
▁Gyermek	-11.2326
▁gyilkol	-11.2326
▁háromnegyed	-11.2326
▁kormánybiztos	-11.2326
▁leggyorsabb	-11.2326
▁minimálbér	-11.2326
▁sajtószóvivője	-11.2326
▁virtuális	-11.2326
▁űrhajó	-11.2326
▁Hosszú	-11.2326
▁aranyérme	-11.2326
▁fertőzött	-11.2326
▁látszott	-11.2326
▁Figyel	-11.2327
▁mostanában	-11.2327
▁tüntetők	-11.2327
▁Út	-11.233
▁amatőr	-11.233
▁mulat	-11.2331
▁torony	-11.2334
▁vesztes	-11.2334
▁egyenlített	-11.2338
▁nénk	-11.2341
▁bírálta	-11.2346
▁illeték	-11.237
▁Hang	-11.2374
▁kialakításá	-11.2375
▁kiderít	-11.2376
▁alátámaszt	-11.2377
▁befejezés	-11.238
▁veretlen	-11.238
▁ismerked	-11.2386
▁követelte	-11.239
▁jellemzi	-11.24
törlesztés	-11.2403
tartani	-11.2406
▁nézte	-11.2408
▁4-1	-11.241
▁rámutat	-11.2415
▁pályaudvar	-11.2418
▁Ferihegy	-11.2418
▁Guardian	-11.2418
▁Rövid	-11.2418
▁energetika	-11.2418
▁lefoglalt	-11.2418
▁normál	-11.2421
▁sugárzás	-11.2421
▁játszanak	-11.2421
▁intézkedései	-11.2422
▁megvalósításá	-11.2424
▁ásához	-11.2426
▁tartály	-11.2431
▁750	-11.2435
▁tudósítás	-11.2435
szakadt	-11.2443
döntő	-11.2445
őrző	-11.2455
▁túrá	-11.2458
▁alany	-11.2461
▁Másod	-11.2467
▁Ameriká	-11.2478
mozgás	-11.2495
▁Angli	-11.2504
▁célkitűzés	-11.251
▁Hungária	-11.251
▁munkaviszony	-11.251
▁bélyeg	-11.251
▁megteremtés	-11.2511
▁húsvét	-11.2511
▁iPad	-11.2511
▁túlélő	-11.2511
▁kerítés	-11.2511
▁szembesül	-11.2511
▁Grand	-11.2511
▁Dénes	-11.2511
▁nélkülöz	-11.2511
▁bánya	-11.2511
▁3,9	-11.2512
RI	-11.2513
▁indokolatlan	-11.2515
▁Ronaldo	-11.2516
▁létesít	-11.2518
▁Play	-11.2523
▁csip	-11.2524
▁fordítani	-11.2524
▁zöm	-11.2537
IB	-11.2544
▁gyümölcsö	-11.2548
joggal	-11.2563
▁főügyész	-11.2582
▁visszalépés	-11.2584
szövetség	-11.259
▁árulta	-11.2597
▁ligá	-11.2599
unió	-11.2603
munká	-11.2603
▁Jersey	-11.2604
▁ezüstérme	-11.2604
▁narancs	-11.2604
▁Bizony	-11.2604
▁Elmondta	-11.2604
▁Szerbia	-11.2604
▁nyeremény	-11.2604
▁lassabb	-11.2604
▁folyosó	-11.2604
▁hím	-11.2604
▁unalmas	-11.2605
▁Hírlap	-11.2606
▁bátra	-11.2606
▁emelkedő	-11.2606
módosítás	-11.2607
▁költözött	-11.2608
lépte	-11.261
▁csata	-11.2611
▁túlsúly	-11.2612
fizetni	-11.2622
▁hamisít	-11.2623
▁!!	-11.2627
▁részesít	-11.2631
szorító	-11.264
IX	-11.2649
▁2012	-11.2649
▁segítségé	-11.2654
▁filozóf	-11.2677
csarnok	-11.2685
jövőben	-11.2685
▁egyenlít	-11.2693
gyűjteni	-11.2695
ollár	-11.2697
▁eskü	-11.2698
▁junior	-11.2698
▁választópolgár	-11.2698
▁Biztonság	-11.2698
▁DVD	-11.2698
▁Tottenham	-11.2698
▁laboratórium	-11.2698
▁tragédia	-11.2698
▁Clinton	-11.2698
▁Nyugdíj	-11.2698
▁Kocsis	-11.2698
▁Nobel	-11.2698
▁méltán	-11.2698
▁feszül	-11.2698
EN	-11.2699
▁golf	-11.2699
▁Tisztel	-11.2699
▁Szakszervezet	-11.2699
▁2,3	-11.2701
▁liga	-11.2701
▁életmód	-11.2706
▁örökös	-11.2711
▁megvizsgál	-11.2713
sáv	-11.2751
▁Auto	-11.2754
spekt	-11.2754
alakulás	-11.2755
▁várakoz	-11.2756
▁visszalép	-11.2757
▁sajt	-11.2762
evesebb	-11.2771
▁értékesített	-11.2783
kiegyensúlyozott	-11.2793
▁Financia	-11.2793
▁elkészítésé	-11.2793
▁menedzsment	-11.2793
▁Ismét	-11.2793
▁szabadláb	-11.2794
▁bevonásá	-11.2794
▁(27	-11.2794
▁ajándékoz	-11.2796
▁Faze	-11.2797
▁elfogadhatatlan	-11.28
▁cáfolta	-11.2806
▁hitelező	-11.2807
▁rámutatott	-11.2808
▁Gárd	-11.282
jogosultság	-11.2831
▁összehasonlít	-11.287
asszony	-11.2878
fogyott	-11.2881
_	-11.289
©	-11.289
▁Sarkozy	-11.289
▁ombudsman	-11.289
▁pakisztán	-11.289
▁pillant	-11.289
▁vígjáték	-11.289
▁ördög	-11.289
▁Politika	-11.289
▁Személy	-11.289
▁aggály	-11.289
▁kritika	-11.289
▁Fulham	-11.289
▁emelkedtek	-11.289
▁Angol	-11.289
▁hűség	-11.289
▁emészt	-11.289
iszlám	-11.289
▁szerviz	-11.2891
▁előrelépés	-11.2891
▁elkezdte	-11.2892
▁Boston	-11.2895
▁építmény	-11.2897
▁segítse	-11.2898
kezdett	-11.29
▁riporter	-11.2904
▁kommentár	-11.2905
▁táp	-11.2908
▁folyósít	-11.291
▁félelem	-11.291
▁adatvédel	-11.2919
▁érme	-11.2931
▁övé	-11.2938
▁győzelm	-11.295
▁különösebb	-11.2956
▁elkövetésé	-11.2956
mokratikus	-11.2966
angol	-11.2969
▁Alkotmány	-11.2984
▁Dunaújváros	-11.2987
▁alapszakasz	-11.2987
▁délnyugat	-11.2987
▁korrigál	-11.2987
▁lassul	-11.2987
▁nadrág	-11.2987
szövetkezet	-11.2987
▁kapaszkod	-11.2987
▁madarak	-11.2987
▁Magazin	-11.2987
▁Orvos	-11.2987
▁megjegyzés	-11.2987
▁katalán	-11.2987
▁pusztán	-11.2987
▁magánélet	-11.2987
▁kamara	-11.2987
▁roncs	-11.2988
▁tartóztatt	-11.2989
▁táblázat	-11.2989
▁megállapod	-11.299
▁Emil	-11.299
▁Kicsi	-11.2991
▁légiós	-11.2991
▁visszafogott	-11.2991
▁hozzáállás	-11.2998
▁rendészet	-11.2999
művek	-11.3006
▁szakértője	-11.3007
▁vándor	-11.3028
árkány	-11.303
▁másképp	-11.3033
ohl	-11.3035
▁ismertetés	-11.3036
▁alkalmazkod	-11.3043
▁fűszer	-11.3045
ecskemét	-11.3076
▁riport	-11.3077
▁felajánlott	-11.3078
▁informá	-11.3082
▁Portugália	-11.3085
▁fennakadás	-11.3085
▁ETO	-11.3085
▁napvilágot	-11.3085
▁csepel	-11.3085
▁megtanul	-11.3085
▁szólította	-11.3085
▁eredménnyel	-11.3085
▁2,9	-11.3086
▁magához	-11.3087
▁előírt	-11.3089
▁vegyé	-11.3096
▁Rafa	-11.3099
▁szavaztak	-11.3104
▁ásáról	-11.3104
indkét	-11.3106
▁kft	-11.3108
▁tisztít	-11.3109
▁Rock	-11.3114
▁Semmi	-11.3118
▁vetítés	-11.3121
▁babá	-11.3126
▁1998	-11.3135
vágás	-11.3137
▁megemlít	-11.314
haladta	-11.3141
vándorlás	-11.3142
▁szövet	-11.3151
▁uralkod	-11.3154
jelentőse	-11.3155
▁gázolt	-11.3166
gondozás	-11.3169
▁oroszlán	-11.3181
▁érdekli	-11.3182
▁DVSC	-11.3184
▁Barceloná	-11.3184
▁bocsánatot	-11.3184
▁felbukkan	-11.3184
▁holokauszt	-11.3184
▁kitűnő	-11.3184
▁pezsgő	-11.3184
▁platform	-11.3184
▁párbeszéd	-11.3184
▁túlnyomó	-11.3184
▁jellegzetes	-11.3184
▁szilárd	-11.3184
▁Csillag	-11.3184
▁tabell	-11.3184
▁pusztul	-11.3184
▁fázis	-11.3184
▁Pintér	-11.3184
▁portré	-11.3184
▁Táv	-11.3184
▁ultra	-11.3186
▁haiti	-11.3192
▁kommentált	-11.3193
▁jelezték	-11.3193
▁valószínűsít	-11.3203
▁Digi	-11.3203
▁rejl	-11.3216
▁érdekeltség	-11.323
▁elveszített	-11.3233
▁1,0	-11.3236
▁termékei	-11.3237
vereked	-11.3263
romániai	-11.3276
▁meggyőző	-11.3283
▁kielégít	-11.3284
▁MLSZ	-11.3284
▁kiegyenlít	-11.3284
▁privatizáció	-11.3284
▁vizsga	-11.3284
▁szórakozóhely	-11.3284
▁verekedés	-11.3284
▁Hitler	-11.3284
▁méh	-11.3284
▁Puská	-11.3285
czky	-11.3285
▁Saját	-11.3285
▁izom	-11.3285
▁parkolás	-11.3286
▁Andor	-11.3287
▁főorvos	-11.3291
ötvö	-11.3295
▁becslés	-11.3299
ongó	-11.3302
▁befoly	-11.3309
Húsz	-11.3335
▁oszl	-11.335
dolgozott	-11.3357
Hide	-11.3378
▁menedék	-11.3385
műlesikl	-11.3385
▁Phoenix	-11.3385
▁moratórium	-11.3385
▁honfitárs	-11.3385
▁spekul	-11.3385
▁fizess	-11.3385
▁kiindul	-11.3385
▁Könny	-11.3385
▁gramm	-11.3385
▁elolvas	-11.3385
▁üzemeltet	-11.3385
tolsó	-11.3386
▁makro	-11.3386
▁honvédel	-11.3386
▁korona	-11.3388
▁dohányzás	-11.3389
▁Marto	-11.3395
▁ebéd	-11.3395
▁kisváros	-11.3398
takarítás	-11.3399
▁barna	-11.3401
▁igényei	-11.3403
▁megszerzésé	-11.341
▁rendőrkapitány	-11.341
gyakorlás	-11.3432
▁emelkedn	-11.3433
▁Elég	-11.3455
▁házigazdá	-11.3464
▁temetés	-11.3467
zékesfehérvár	-11.3476
Medvegyev	-11.3487
▁Részlet	-11.3487
▁debütál	-11.3487
▁integrál	-11.3487
▁világhírű	-11.3487
▁elfogadásá	-11.3487
▁Sevill	-11.3488
▁kutatócsoport	-11.3489
▁józan	-11.349
▁Glob	-11.349
társával	-11.3491
▁részvényei	-11.3491
▁kocká	-11.3492
▁merít	-11.3492
▁feszít	-11.3492
▁nyerhet	-11.3493
▁tender	-11.3493
qua	-11.3494
▁nézzük	-11.3494
▁kavar	-11.3496
haltak	-11.35
▁üzletág	-11.3501
▁kering	-11.3502
▁bányász	-11.351
ködés	-11.3519
▁szervezte	-11.3535
▁gyanújá	-11.3566
terjesztő	-11.3574
▁kifejez	-11.3578
Európában	-11.3585
négyzetkilométer	-11.359
▁Bloomberg	-11.359
▁Marseille	-11.359
▁elszámoltatás	-11.359
▁politizál	-11.359
▁volumen	-11.359
▁árhullám	-11.359
▁madridi	-11.359
▁mozgalm	-11.359
▁strukturál	-11.359
▁pótlék	-11.359
▁Leonard	-11.359
▁kiabál	-11.359
▁lassít	-11.359
▁Erdei	-11.359
▁csodálatos	-11.3591
▁Lotus	-11.3591
▁lobbi	-11.3592
▁2,2	-11.3593
▁Johan	-11.3593
▁reményked	-11.3593
▁direkt	-11.3593
field	-11.3594
▁alkalmával	-11.3595
▁biológiai	-11.3596
▁gyulladás	-11.3596
▁Press	-11.3597
▁elérésé	-11.3598
▁emelkedéssel	-11.3599
▁karrierje	-11.3601
▁harag	-11.3601
▁tankol	-11.3605
takaró	-11.3608
▁felszámol	-11.3613
▁gyakorl	-11.3631
▁alku	-11.3637
gyűjtött	-11.3647
▁gálá	-11.3657
▁környez	-11.3663
▁erőmű	-11.3674
▁Egész	-11.3687
szerződés	-11.369
alapítvány	-11.3691
▁Szovjet	-11.3694
Docler	-11.3694
▁Dmitri	-11.3694
▁Norvégia	-11.3694
▁YouTube	-11.3694
▁belőlük	-11.3694
▁incidens	-11.3694
▁jelzálog	-11.3694
▁prognózis	-11.3694
▁Április	-11.3694
▁tipikus	-11.3694
▁felelőtlen	-11.3694
▁galériá	-11.3694
▁társasház	-11.3694
▁animáció	-11.3694
▁Érdem	-11.3694
▁fekszik	-11.3694
▁turista	-11.3694
▁csúny	-11.3694
▁csalódás	-11.3695
▁kosár	-11.3696
▁venné	-11.3698
▁biztat	-11.3699
▁ZTE	-11.37
szolgáltató	-11.37
▁jótékonyság	-11.3701
▁közterület	-11.3702
▁Dzs	-11.3703
Koreá	-11.3738
hamisítás	-11.3741
▁versenyképesség	-11.3742
▁Komoly	-11.3751
▁gazda	-11.3753
▁You	-11.3756
▁járőrö	-11.3759
unántúli	-11.3762
forgalm	-11.3772
▁károsult	-11.3773
lejátsz	-11.3775
▁legendá	-11.3776
rgen	-11.3781
űszaki	-11.3794
ukrán	-11.3798
▁Beckham	-11.3799
▁Rangers	-11.3799
▁Vatikán	-11.3799
▁aszfalt	-11.3799
▁homlok	-11.3799
▁röhög	-11.3799
▁Olympi	-11.3799
▁robbanó	-11.3799
▁elektronika	-11.3799
▁Pápa	-11.3799
▁elegáns	-11.3799
▁ébred	-11.3799
▁veterán	-11.3799
://	-11.3799
▁Gyors	-11.38
▁csík	-11.38
▁titka	-11.38
▁Legutóbb	-11.38
homály	-11.3801
▁meglep	-11.3802
▁fiók	-11.3802
▁Világkupa	-11.3803
▁magáról	-11.3804
▁kettes	-11.3805
▁őrült	-11.3809
▁jegyzi	-11.3814
▁Robin	-11.3814
▁árusít	-11.3823
▁futballoz	-11.3829
▁kiadásá	-11.384
▁szigetország	-11.3846
pótló	-11.3846
OS	-11.3863
▁Annyi	-11.3885
ológiá	-11.3885
▁bányá	-11.39
háború	-11.39
Európa	-11.3905
▁Súlyos	-11.3906
▁jogosítvány	-11.3906
▁kompromisszum	-11.3906
▁Baranya	-11.3906
▁Mónika	-11.3906
▁hollywood	-11.3906
▁munkavégzés	-11.3906
▁Dezső	-11.3906
▁bonyolít	-11.3906
▁napsütés	-11.3906
▁válaszadók	-11.3906
▁kivéve	-11.3906
▁Stefan	-11.3906
▁http	-11.3906
▁szerződtet	-11.3907
▁Világgazdaság	-11.3907
▁alkalmatlan	-11.3909
▁Show	-11.3909
▁segítene	-11.391
▁Miller	-11.3911
▁töreked	-11.3912
▁Lewi	-11.3916
▁tartaná	-11.3944
gazdagabb	-11.3945
▁henger	-11.3946
▁kérésé	-11.3983
szigorúbb	-11.4004
rminc	-11.4009
yíregyház	-11.4013
▁hormon	-11.4013
▁ritmus	-11.4013
▁támaszkod	-11.4013
▁vulkán	-11.4013
▁Ukrajná	-11.4013
▁fellendülés	-11.4013
▁főtitkára	-11.4013
▁megélhetés	-11.4013
▁nemzedék	-11.4013
▁szaporod	-11.4013
▁???	-11.4013
▁Bernadett	-11.4013
▁Mikulás	-11.4013
▁NHL	-11.4013
▁ösztönöz	-11.4013
▁nulla	-11.4013
▁America	-11.4013
▁hajlamos	-11.4013
▁balaton	-11.4014
▁folyadék	-11.4014
▁megtenni	-11.4015
▁pánik	-11.4015
▁nemzetbiztonság	-11.4015
▁magától	-11.4015
▁őszinté	-11.4018
▁futballista	-11.4018
▁Kemény	-11.402
▁születtek	-11.4022
▁Vác	-11.4023
▁részvételével	-11.4026
▁utál	-11.4026
▁hibázott	-11.4026
mous	-11.4093
▁férjé	-11.4097
sonyi	-11.4112
▁áldoz	-11.4113
▁intézked	-11.412
▁Demokrata	-11.4122
▁Remélem	-11.4122
▁küszköd	-11.4122
▁sikkasztás	-11.4122
▁szenzáció	-11.4122
▁terápiá	-11.4122
▁jöjj	-11.4122
▁széria	-11.4122
▁töredék	-11.4122
chilei	-11.4122
▁vidám	-11.4122
▁Velenc	-11.4122
▁ragaszt	-11.4122
▁szériá	-11.4122
▁drámá	-11.4123
▁Hatvan	-11.4123
Szolnok	-11.4123
▁vérnyomás	-11.4123
▁jövedelemadó	-11.4125
▁kialakítása	-11.4126
▁iparág	-11.4127
▁telephely	-11.4127
▁kitűz	-11.413
▁bevételei	-11.4147
ajtós	-11.4147
▁Valami	-11.4154
▁elkészül	-11.4184
▁hónapjá	-11.4212
▁enyhé	-11.422
▁Siker	-11.4221
rankfurt	-11.4225
▁Panoráma	-11.4232
▁beruházó	-11.4232
▁dinamikus	-11.4232
▁játéknapján	-11.4232
▁klinika	-11.4232
▁közérdek	-11.4232
▁szimpatizáns	-11.4232
▁Group	-11.4232
▁Válasz	-11.4232
▁kliniká	-11.4232
▁Smith	-11.4232
▁szorong	-11.4232
▁Fitch	-11.4232
▁kirobban	-11.4232
▁novell	-11.4232
▁golyó	-11.4232
▁Száva	-11.4232
▁Heged	-11.4232
▁megelőzt	-11.4232
▁másodosztály	-11.4233
▁ítették	-11.4233
▁szennyezett	-11.4233
▁rektor	-11.4233
▁gárdá	-11.4233
▁kegyetlen	-11.4234
kezdődhet	-11.4234
▁Gergő	-11.4234
▁Kevin	-11.4235
Kaida	-11.4235
▁Miami	-11.4235
▁harap	-11.4236
▁útjai	-11.4294
▁aktivistá	-11.4304
▁rekordo	-11.4306
▁helyezked	-11.4325
▁Másrész	-11.4328
▁tisza	-11.4336
ódmezővásárhely	-11.4343
▁előkészület	-11.4343
▁Zsuzsanna	-11.4343
▁fájdalom	-11.4343
▁megtörtént	-11.4343
▁recesszió	-11.4343
▁rászoruló	-11.4343
▁szituáció	-11.4343
isszabon	-11.4343
▁Pozsony	-11.4343
▁főhős	-11.4343
▁Komárom	-11.4343
▁cucc	-11.4343
▁2015-	-11.4343
▁fenyő	-11.4343
▁másolat	-11.4344
▁válassz	-11.4344
▁bennük	-11.4344
▁2,8	-11.4345
▁2,7	-11.4345
▁Wild	-11.4346
▁hetilap	-11.4347
▁fehérvári	-11.4347
közlési	-11.4348
▁szavazókör	-11.4348
▁Mester	-11.4348
▁Serie	-11.4349
ellip	-11.4354
született	-11.4362
▁filozófia	-11.4368
láthatatlan	-11.4377
lkotmányellenes	-11.4393
▁köztisztviselő	-11.4403
▁Ipar	-11.4404
▁levelé	-11.4415
▁Lass	-11.4415
kényes	-11.4419
gsúlyosa	-11.4419
érkező	-11.4432
▁megalapoz	-11.4446
olvadás	-11.4447
entőszolgálat	-11.4451
▁szorgalmaz	-11.4455
▁tréning	-11.4455
▁gyarapod	-11.4455
▁krízis	-11.4455
▁megrongál	-11.4455
▁érvénytelen	-11.4455
▁Mészár	-11.4455
▁kabát	-11.4456
▁középpontjába	-11.4456
▁billen	-11.4456
▁farkas	-11.4456
▁Dönt	-11.4457
▁Rosberg	-11.4457
▁5,7	-11.4458
▁taps	-11.4458
▁2,4	-11.4458
▁szánkó	-11.446
▁nővér	-11.446
▁pici	-11.4461
tűnik	-11.4461
▁partján	-11.4461
▁mozgósít	-11.4462
▁kitalál	-11.4462
▁paraszt	-11.4463
▁hitelezés	-11.4465
fogott	-11.4466
▁Senki	-11.4467
▁számlájá	-11.4473
▁emlékei	-11.4482
▁fordulójá	-11.4499
▁elveszít	-11.4513
éged	-11.4525
Line	-11.4559
▁Telegraph	-11.4569
▁csúcstalálkozó	-11.4569
▁kollekció	-11.4569
▁megszerezni	-11.4569
▁tragikus	-11.4569
▁életrajz	-11.4569
▁látszólag	-11.4569
▁megindul	-11.4569
▁tilalom	-11.4569
▁döntéshozó	-11.4569
▁Kanadá	-11.4569
▁Sajó	-11.4569
▁ingadoz	-11.4569
▁Bush	-11.457
▁kivitelezés	-11.457
▁Saint	-11.4571
medence	-11.4571
▁csalódott	-11.4571
Faktor	-11.4571
▁2,6	-11.4571
Q	-11.4575
miniszter	-11.4575
tigris	-11.4576
▁játszmá	-11.458
▁adományoz	-11.4591
▁áldozato	-11.4593
info	-11.46
▁rabolt	-11.4601
▁fontosságá	-11.4611
▁megkerest	-11.4636
▁levált	-11.4649
▁diplomatá	-11.465
VIII	-11.4667
▁Művészet	-11.4667
lumínium	-11.4684
onprofit	-11.4684
▁Chicago	-11.4684
▁Cristian	-11.4684
▁Energia	-11.4684
▁Minnesota	-11.4684
▁Szilágy	-11.4684
▁bejutott	-11.4684
▁csokoládé	-11.4684
▁elefánt	-11.4684
▁kalifornia	-11.4684
▁odafigyel	-11.4684
▁Budaházy	-11.4684
▁misszió	-11.4684
▁szarvas	-11.4684
▁érzelmi	-11.4684
▁Regény	-11.4684
▁delegáció	-11.4684
▁társulat	-11.4684
▁krém	-11.4684
▁(1-1	-11.4686
Nissan	-11.4686
▁szállítmány	-11.4687
▁hangsúlyozza	-11.469
fiatalabb	-11.4691
katasztrófa	-11.4691
▁gondolkoz	-11.4691
szlovák	-11.4691
▁felajánl	-11.4692
találták	-11.471
szeretettel	-11.4717
▁fajtá	-11.4721
húzó	-11.4728
▁szerencse	-11.4764
kapu	-11.4767
tomerőmű	-11.477
érdekesebb	-11.4795
▁Siófok	-11.48
▁kőolaj	-11.48
eruzsálem	-11.48
▁Jelentős	-11.48
▁csapatkapitány	-11.48
▁kenyér	-11.48
▁leleplez	-11.48
▁műemlék	-11.48
▁okostelefon	-11.48
▁praktikus	-11.48
▁presztízs	-11.48
▁vesztegetés	-11.48
▁immun	-11.48
▁zsákmány	-11.48
▁Elemző	-11.48
▁tilalma	-11.48
▁tudósítója	-11.48
▁Domokos	-11.48
▁kreatív	-11.48
▁Videó	-11.4801
Mobile	-11.4801
▁közoktatás	-11.4801
▁részvénypiac	-11.4801
▁krimi	-11.4802
MNV	-11.4802
▁vasútvonal	-11.4802
▁5,2	-11.4803
▁kattintson	-11.4803
▁felépül	-11.4805
▁Olvas	-11.4805
▁megállapítani	-11.4805
▁póker	-11.4806
következő	-11.4807
Ü	-11.4809
osztrák	-11.4809
▁olvad	-11.481
▁összeszed	-11.4819
konzol	-11.4824
▁Szerző	-11.483
▁jutalm	-11.4872
▁(10	-11.4881
▁harmadfok	-11.4896
zténydemokrat	-11.4914
▁kikapcsol	-11.4918
▁Atlético	-11.4918
▁feküd	-11.4918
▁karambol	-11.4918
▁oxigén	-11.4918
▁örvend	-11.4918
▁Tiszán	-11.4918
zekszárd	-11.4918
▁Levente	-11.4918
▁Reggel	-11.4918
▁óvoda	-11.4918
▁felkérés	-11.4918
▁(18	-11.4918
▁gyorsaság	-11.4919
▁túlélés	-11.4919
▁3,7	-11.4921
▁telepített	-11.4924
▁telepítés	-11.4924
szenvedett	-11.4928
nevelés	-11.4928
eszköz	-11.4933
▁szerdá	-11.4934
▁kifejt	-11.494
fejlesztés	-11.4946
▁szintjén	-11.4959
NBA	-11.496
▁versenyképes	-11.4984
tiltották	-11.4993
▁szövetségese	-11.4998
▁felhasználásá	-11.5029
▁Celsius	-11.5037
▁útszakasz	-11.5037
indhoven	-11.5037
▁Hollandia	-11.5037
▁Pakisztán	-11.5037
▁felháborodás	-11.5037
▁rezsim	-11.5037
▁szivárog	-11.5037
▁lámpa	-11.5037
▁reprezent	-11.5037
▁Izland	-11.5037
▁fuvar	-11.5037
▁zápor	-11.5037
olozsvár	-11.5037
söpr	-11.5037
▁mielőbb	-11.5037
▁köp	-11.5039
esszük	-11.5044
▁flott	-11.5049
liberális	-11.5049
▁tanúsít	-11.5049
csúcs	-11.505
ejteni	-11.5068
Palkovi	-11.512
szennyezés	-11.5121
▁kidolgoz	-11.5127
▁gömb	-11.5128
kimarad	-11.5129
▁Stone	-11.5155
▁General	-11.5157
▁class	-11.5157
▁gesztus	-11.5157
▁leányvállalat	-11.5157
▁mágnes	-11.5157
▁pszichiátri	-11.5157
▁vacsorá	-11.5157
▁vetélytárs	-11.5157
▁közpénz	-11.5157
▁barlang	-11.5157
▁sláger	-11.5157
▁MTK	-11.5157
▁gyengít	-11.5158
▁kiskorú	-11.5158
Donald	-11.5158
▁pláne	-11.5158
▁előzte	-11.5158
▁dokumentumfilm	-11.5159
ördül	-11.5159
▁kivitelező	-11.516
▁emlékszik	-11.516
▁állításá	-11.5163
▁javításá	-11.5177
▁tisztesség	-11.5192
emelték	-11.5193
▁gyengül	-11.5211
változott	-11.5242
▁Afriká	-11.5267
=	-11.5275
▁dizájn	-11.5279
▁kolléga	-11.5279
▁Hunvald	-11.5279
▁Információ	-11.5279
▁Jégkorong	-11.5279
▁Orleans	-11.5279
▁Wolfsburg	-11.5279
▁gimnázium	-11.5279
▁visszamenőleges	-11.5279
▁Ügynök	-11.5279
▁FTSE	-11.5279
▁generál	-11.5279
▁Dubaj	-11.5279
▁elnyert	-11.5279
▁izgat	-11.528
▁tömörít	-11.528
▁Dinam	-11.528
▁előkerült	-11.528
▁varr	-11.5289
gyilkos	-11.5292
élénkül	-11.5297
▁megszavaz	-11.5321
hús	-11.5322
▁csapód	-11.5341
▁Astr	-11.5382
tudomány	-11.5399
@	-11.5403
legeredményesebb	-11.5403
ontenegró	-11.5403
▁Ferguson	-11.5403
▁Kaliforni	-11.5403
▁Stuttgart	-11.5403
▁Zalaegerszeg	-11.5403
▁elbírálás	-11.5403
▁felmelegedés	-11.5403
▁kesztyű	-11.5403
▁konzultáció	-11.5403
▁nyugdíjkorhatár	-11.5403
▁sivatag	-11.5403
▁szimbólum	-11.5403
▁sugall	-11.5403
középiskola	-11.5403
▁vetkőz	-11.5403
▁Nokia	-11.5403
▁meggyőződés	-11.5403
▁(26	-11.5403
▁AFP	-11.5403
▁klip	-11.5404
▁háziorvos	-11.5404
haiföld	-11.5405
▁skót	-11.5407
▁káosz	-11.5407
▁rendezésé	-11.541
vállalkozások	-11.5419
teljes	-11.5434
parti	-11.5437
encsejáték	-11.5442
kariká	-11.545
Márped	-11.5463
▁felügyel	-11.5471
▁jelenlété	-11.55
EL	-11.5505
▁karrierjé	-11.5509
fogni	-11.5518
▁Elfog	-11.5518
munkabeszüntetés	-11.5528
▁devizapiacon	-11.5528
▁likviditás	-11.5528
▁motivál	-11.5528
▁politológus	-11.5528
▁visszhang	-11.5528
▁átigazolás	-11.5528
▁középiskolá	-11.5528
▁szőnyeg	-11.5528
▁gyöngy	-11.5528
▁medencé	-11.5528
▁Porsch	-11.5528
▁Hajnal	-11.5528
▁Csepel	-11.5528
▁2020-	-11.5528
▁felmondás	-11.5528
▁monitor	-11.5528
▁tagozat	-11.5528
▁riasztott	-11.5528
guay	-11.5528
▁(25	-11.5529
▁bácsi	-11.5529
ecskék	-11.553
▁sorsolás	-11.5531
▁erőltet	-11.5534
▁mondaná	-11.5542
▁kibocsát	-11.5544
show	-11.5546
termelés	-11.5548
nszki	-11.5548
helyezett	-11.5551
▁regisztrál	-11.5551
▁mozgó	-11.5564
▁átalakít	-11.5566
▁Fide	-11.5595
▁kezdene	-11.5607
játszott	-11.5607
▁Érdek	-11.5612
▁vagyonkezel	-11.563
▁jótékony	-11.5646
▁jövőjé	-11.5652
ORFK	-11.5654
▁Finnország	-11.5654
▁Kristóf	-11.5654
▁Lengyel	-11.5654
▁Portugáliá	-11.5654
▁Rengeteg	-11.5654
▁Virgin	-11.5654
▁csillog	-11.5654
▁elképzelni	-11.5654
▁megbízatás	-11.5654
▁megyeszékhely	-11.5654
atabánya	-11.5654
ebestyén	-11.5654
utonóm	-11.5654
▁Charles	-11.5654
▁kivizsgálás	-11.5654
▁anglia	-11.5654
▁világháló	-11.5654
▁pazar	-11.5654
▁sérelme	-11.5654
▁vitatkoz	-11.5654
▁Patric	-11.5655
▁lennék	-11.5655
▁fillér	-11.5655
▁puszta	-11.5655
color	-11.5655
▁legenda	-11.5656
▁középdöntő	-11.5656
Vasas	-11.5674
fogyasztás	-11.5674
4,7	-11.5702
formán	-11.5721
normal	-11.5755
látta	-11.5764
rendezés	-11.5769
Popu	-11.5774
▁büszké	-11.5782
▁vezényel	-11.5783
▁Ítélőtábl	-11.5783
bevásárlóközpont	-11.5783
▁Debreczen	-11.5783
▁Kramnyik	-11.5783
▁Számvevőszék	-11.5783
▁evolúció	-11.5783
▁identitás	-11.5783
▁koordinál	-11.5783
▁kézilabdá	-11.5783
▁megkérdőjelez	-11.5783
▁milánói	-11.5783
▁Toronto	-11.5783
▁CNN	-11.5783
▁kisgyerek	-11.5783
▁álláskereső	-11.5783
extrém	-11.5783
▁gróf	-11.5783
▁szélsőjobboldal	-11.5783
▁köszöntött	-11.5783
▁humán	-11.5783
▁Fox	-11.5783
▁laptop	-11.5783
▁Scott	-11.5784
▁aluljáró	-11.5784
▁plasztik	-11.5784
igéria	-11.5786
▁elvtárs	-11.5789
▁előtérbe	-11.5792
ügyelőbizottság	-11.5803
SZDSZ	-11.5804
nyolc	-11.5804
kötött	-11.5804
▁távközlés	-11.5842
▁elhelyezked	-11.5845
Moson	-11.5852
hengere	-11.5864
csatorn	-11.5897
örzs	-11.5912
▁diszkrimin	-11.5912
▁csodálkoz	-11.5912
▁feltűnő	-11.5912
▁szegmens	-11.5912
▁Ügyészség	-11.5912
elképzelhetetlen	-11.5912
▁Deutsch	-11.5912
▁Tímea	-11.5912
▁közszfér	-11.5912
▁soproni	-11.5912
▁style	-11.5912
▁legsiker	-11.5912
▁emlékszem	-11.5912
▁kóstol	-11.5912
▁szimulá	-11.5913
▁nedves	-11.5913
▁labdarúgás	-11.5913
▁Tesco	-11.5913
▁Tolna	-11.5913
▁megtéveszt	-11.5913
▁hozzáférés	-11.5913
▁munkaerőpiac	-11.5913
▁elkölt	-11.5914
▁értelmetlen	-11.5914
▁kurz	-11.5914
▁Változ	-11.5914
▁igénybevétel	-11.5915
▁csatol	-11.5916
tthon	-11.5917
nagyobb	-11.5929
▁késedel	-11.593
közönség	-11.5935
▁házigazd	-11.5941
▁ösztöndíj	-11.5951
özgyűlés	-11.5972
kubai	-11.5979
▁beszámol	-11.5984
ságszolgáltatás	-11.601
ozgalom	-11.6037
vétség	-11.6039
▁béké	-11.6043
▁Bundesliga	-11.6044
▁Dortmund	-11.6044
▁Philip	-11.6044
▁RMDSZ	-11.6044
▁Rooney	-11.6044
▁demonstrál	-11.6044
▁felhatalmazás	-11.6044
▁galaxis	-11.6044
▁kommunikál	-11.6044
▁külképviselet	-11.6044
▁sprint	-11.6044
▁homoszexu	-11.6044
▁Család	-11.6044
▁Nyíregyháza	-11.6044
▁Diego	-11.6044
▁szőke	-11.6044
▁jelmez	-11.6044
ström	-11.6044
▁kockáztat	-11.6044
▁formátum	-11.6044
▁tükör	-11.6045
▁Mindkett	-11.6045
▁öntött	-11.6045
▁ábrá	-11.6045
▁gitár	-11.6045
▁fojt	-11.6045
▁Cég	-11.6046
▁büntetőjog	-11.6046
▁csomagtartó	-11.6046
▁újév	-11.6049
▁elkülönít	-11.6052
▁tapad	-11.6055
indazon	-11.6056
▁menü	-11.6057
▁tengerpart	-11.6059
▁Genf	-11.6062
▁megszüntetésé	-11.6064
Szabó	-11.6069
jutalmaz	-11.6077
▁növelésé	-11.6077
almá	-11.6111
▁kilép	-11.6118
▁megkülönböztet	-11.612
fejeződött	-11.617
▁időpontjá	-11.6174
▁akkumulátor	-11.6177
▁cenzúr	-11.6177
▁megmozdulás	-11.6177
▁államkötvény	-11.6177
▁értékpapír	-11.6177
▁Hangsúlyozta	-11.6177
▁Universit	-11.6177
▁Wikileaks	-11.6177
▁önéletrajz	-11.6177
▁Civil	-11.6177
▁Óriás	-11.6177
▁comment	-11.6177
▁kamasz	-11.6178
▁Híd	-11.6178
▁megszabadul	-11.6178
▁elődje	-11.6178
▁Vásár	-11.6178
▁Carolin	-11.6178
▁%)	-11.6179
▁trón	-11.6179
▁Nyrt	-11.6179
▁nehezíti	-11.6179
▁körülötte	-11.6181
▁Pitt	-11.619
▁Ország	-11.6198
nehezebb	-11.6204
NBC	-11.621
▁tegyé	-11.6226
viselés	-11.6251
▁kormánny	-11.6252
lepte	-11.6269
▁világossá	-11.6277
dimenziós	-11.6279
választott	-11.6293
▁Ibrahim	-11.6312
▁Sampdoria	-11.6312
▁nyugdíjjárulék	-11.6312
▁Együttműködés	-11.6312
▁Kennedy	-11.6312
▁devecseri	-11.6312
▁hivatott	-11.6312
▁lelkiismeret	-11.6312
▁maffia	-11.6312
▁pénzbüntetés	-11.6312
▁abortusz	-11.6312
▁tenyész	-11.6312
▁Ilona	-11.6313
▁aggaszt	-11.6313
▁beadvány	-11.6313
▁bevált	-11.6313
▁szivattyútelep	-11.6313
▁Hercze	-11.6313
▁Kulcs	-11.6314
▁Innen	-11.6315
▁leplez	-11.6315
▁iszony	-11.6315
▁infrastruktúr	-11.6316
▁Pokorn	-11.6318
mellesleg	-11.632
FIA	-11.632
▁mozikba	-11.6322
▁tisztségé	-11.6323
▁Wils	-11.6324
kibocsátás	-11.6341
▁leszögez	-11.6373
kamará	-11.6379
▁fidesz	-11.6421
onosítás	-11.6424
állapodtak	-11.6426
kadnak	-11.6436
keményebb	-11.6443
▁hangfelvétel	-11.6449
▁Bulgáriá	-11.6449
▁DAX	-11.6449
▁Kiemelte	-11.6449
▁Kilenc	-11.6449
▁Viktória	-11.6449
▁megsebesült	-11.6449
▁muzulmán	-11.6449
▁paradicsom	-11.6449
▁száguld	-11.6449
▁terjeszked	-11.6449
söpör	-11.6449
űvelődéstörténet	-11.6449
▁adócsalás	-11.6449
▁Christian	-11.6449
▁felderítés	-11.6449
▁zongor	-11.6449
▁Jakab	-11.6449
▁Addig	-11.645
▁kilábal	-11.645
▁lézer	-11.645
▁MTA	-11.645
▁kétségtelen	-11.645
▁Club	-11.645
▁orbán	-11.645
▁elkészített	-11.645
▁felperes	-11.645
▁terepjáró	-11.6451
piegel	-11.6451
▁küldetés	-11.6452
▁messzir	-11.6454
▁teteme	-11.6463
▁meteorológia	-11.6473
olcsóbb	-11.648
csoda	-11.6481
árverez	-11.6508
érdem	-11.653
▁övez	-11.6573
hidrogén	-11.6588
ommunizmus	-11.6588
▁Zeitung	-11.6588
▁antibiotikum	-11.6588
▁csapatfőnök	-11.6588
▁mozgott	-11.6588
▁mulasztás	-11.6588
▁portfólió	-11.6588
▁rehabilitáció	-11.6588
▁zsúfol	-11.6588
▁HÉV	-11.6588
▁kalkulál	-11.6588
▁pisztoly	-11.6588
▁édesapja	-11.6588
Berettyó	-11.6588
▁karbantartás	-11.6588
▁Sajtó	-11.6588
▁kistérség	-11.6588
▁Közölte	-11.6588
▁hadjárat	-11.6588
▁kalauz	-11.6588
▁Virág	-11.6588
▁állatkert	-11.6588
▁Oszkó	-11.6589
▁rugó	-11.6589
▁hazájá	-11.6589
▁elvisel	-11.6589
▁olyannyira	-11.6589
▁Harmad	-11.6589
▁megtisztít	-11.6589
▁Internet	-11.6589
▁Napoli	-11.6589
▁Borisz	-11.659
▁villant	-11.6591
ough	-11.6598
▁landol	-11.6602
▁futtat	-11.6602
gtöbbször	-11.6606
▁tanyá	-11.662
méretű	-11.662
frakció	-11.662
▁elmenn	-11.6646
tatisztikai	-11.6683
▁angyal	-11.6724
▁borzasztó	-11.6729
▁Gazprom	-11.6729
▁Hollywood	-11.6729
▁Szlovénia	-11.6729
▁egyharmad	-11.6729
▁kereszteződés	-11.6729
▁konszenzus	-11.6729
▁leghíresebb	-11.6729
▁merénylő	-11.6729
▁navigáció	-11.6729
▁pálinka	-11.6729
▁rekonstrukció	-11.6729
▁továbbjutott	-11.6729
▁zarándok	-11.6729
▁megfékez	-11.6729
▁Űr	-11.6729
▁szerződött	-11.6729
algary	-11.6729
▁rendellenesség	-11.6729
▁államosítás	-11.6729
▁rekedt	-11.6729
▁egyhangú	-11.6729
lenáris	-11.6729
▁macská	-11.6729
▁Jolie	-11.6729
▁terminál	-11.673
▁Úr	-11.673
▁pénzügyőr	-11.673
▁ereszt	-11.673
▁rovat	-11.6731
anghaj	-11.6733
▁balhé	-11.6735
▁ifj	-11.6736
ermészettudomány	-11.6752
használat	-11.676
literes	-11.6763
százalékos	-11.6763
▁helytáll	-11.6781
▁rendjé	-11.6783
▁alapjá	-11.6846
▁fenntartásá	-11.6871
▁főosztályvezető	-11.6872
▁prioritás	-11.6872
▁Iskola	-11.6872
▁Miniszterelnök	-11.6872
▁Pittsburg	-11.6872
▁Szpartak	-11.6872
▁Talmácsi	-11.6872
▁Tudományegyetem	-11.6872
▁előfizetés	-11.6872
▁határátkelő	-11.6872
▁jogviszony	-11.6872
▁jövedéki	-11.6872
▁objektum	-11.6872
▁ELTE	-11.6872
▁Volvo	-11.6872
▁ellehetetlenít	-11.6872
▁Verseny	-11.6872
▁sertés	-11.6872
▁logikus	-11.6872
▁Férfi	-11.6872
▁elszánt	-11.6872
▁hunyt	-11.6872
hurcol	-11.6872
agykanizsa	-11.6872
▁megsértett	-11.6872
▁ezredes	-11.6873
▁Morgan	-11.6873
▁ügyfélszolgálat	-11.6873
▁újjáépítés	-11.6873
▁provoká	-11.6873
▁zárkóz	-11.6873
▁lottó	-11.6874
forgalom	-11.6879
▁sorakoz	-11.688
▁reped	-11.6886
▁(22	-11.6892
▁Pontosa	-11.6904
Sopron	-11.6908
szektor	-11.6909
▁törőd	-11.6923
▁Info	-11.6936
folyás	-11.6959
leépítés	-11.696
▁Peugeot	-11.7017
▁cukorbeteg	-11.7017
▁részvényindexe	-11.7017
▁(0-1)	-11.7017
▁Krisztus	-11.7017
▁horror	-11.7017
▁eltűnés	-11.7017
▁öngól	-11.7017
mszterdam	-11.7017
▁hajszál	-11.7017
▁illeszked	-11.7017
▁mutogat	-11.7017
▁fiatalkorú	-11.7017
▁megmenteni	-11.7017
▁Szíj	-11.7017
▁Emlékeztet	-11.7017
▁pattant	-11.7017
pusztító	-11.7017
▁kihűl	-11.7017
▁Léva	-11.7017
▁Szerbiá	-11.7017
▁Tokaj	-11.7017
▁ihlet	-11.7018
▁verseng	-11.7018
▁ABC	-11.7018
▁Díj	-11.7019
Utána	-11.702
grúz	-11.7021
ömbö	-11.7028
▁behatol	-11.7035
gyűjtő	-11.7055
index	-11.7056
▁Köszön	-11.706
őrizte	-11.7065
tisztviselők	-11.7086
nyújtás	-11.7131
ertész	-11.7139
jelentette	-11.7152
tartható	-11.7157
▁Csütörtök	-11.7162
▁EBEL	-11.7164
▁Ifjúsági	-11.7164
▁Megjegyezte	-11.7164
▁adókedvezmény	-11.7164
▁elhanyagol	-11.7164
▁fantáziá	-11.7164
▁férőhely	-11.7164
▁hozzáférhető	-11.7164
▁hüvely	-11.7164
▁kompenzál	-11.7164
▁nagymester	-11.7164
▁termesztés	-11.7164
▁Federer	-11.7164
▁legkorább	-11.7164
▁özvegy	-11.7164
▁beindul	-11.7164
▁Karrier	-11.7164
▁üggyel	-11.7164
▁hülyé	-11.7164
▁égitest	-11.7164
▁Cozma	-11.7164
▁meredek	-11.7164
▁aludni	-11.7164
▁szociáldemokrat	-11.7164
nnover	-11.7164
igazítás	-11.7165
▁Natur	-11.7166
▁nevük	-11.7167
▁Tőké	-11.7167
faktor	-11.7176
▁Segít	-11.7192
hálózat	-11.7205
▁Szolgáltat	-11.7212
▁terjedelm	-11.7218
▁Ausztrál	-11.7226
bizalmas	-11.7241
tekinteni	-11.7243
▁figur	-11.7296
magyarország	-11.7297
értesülések	-11.7303
kandináv	-11.7313
rchívum	-11.7313
tockholm	-11.7313
▁Annamária	-11.7313
▁Bordeaux	-11.7313
▁Körmend	-11.7313
▁előirányzat	-11.7313
▁frekvenc	-11.7313
▁müncheni	-11.7313
▁szlogen	-11.7313
▁életfogytig	-11.7313
▁Sauber	-11.7313
▁megdöbbentő	-11.7313
▁Alstom	-11.7313
▁kocsmá	-11.7313
hicagó	-11.7313
öböl	-11.7313
▁Példa	-11.7313
▁Kerület	-11.7313
▁jüan	-11.7313
▁módosul	-11.7313
▁feltöltés	-11.7313
▁felbontás	-11.7314
▁tizennyolc	-11.7314
▁rántott	-11.7314
▁következtetni	-11.7315
▁irányelv	-11.7315
▁átutal	-11.7319
▁Szerintü	-11.7323
▁devizahitel	-11.7337
▁vigasz	-11.7338
▁terjedésé	-11.7338
mérkőzés	-11.7356
▁nacionalist	-11.7389
ézőpont	-11.7404
▁rajong	-11.7432
▁elhúz	-11.745
szentmiklós	-11.7465
▁Guardiol	-11.7465
▁Schalke	-11.7465
▁Science	-11.7465
▁Selmeczi	-11.7465
▁dokumentáció	-11.7465
▁elfogatóparancs	-11.7465
▁illusztráció	-11.7465
▁innováció	-11.7465
▁intelligens	-11.7465
▁kaszinó	-11.7465
▁kvalifikáció	-11.7465
▁ostrom	-11.7465
▁érdekképviselet	-11.7465
▁újszülött	-11.7465
▁marihuán	-11.7465
▁bolond	-11.7465
▁kukoric	-11.7465
▁Oszkár	-11.7465
▁koszorú	-11.7465
▁nyersanyag	-11.7465
▁Dánia	-11.7465
▁FBI	-11.7465
▁7:6	-11.7465
▁ragyog	-11.7465
▁pofon	-11.7465
▁elhíz	-11.7465
▁Puszta	-11.7465
▁Kelemen	-11.7465
▁kokain	-11.7465
▁csoportkör	-11.7465
▁Nikola	-11.7466
▁beindít	-11.7466
ontreal	-11.7467
▁falvak	-11.7468
▁tüzel	-11.747
▁nullá	-11.747
▁Emma	-11.7481
▁apjá	-11.7528
▁magáé	-11.754
állítva	-11.7592
▁felfüggesztésé	-11.7616
▁konzerv	-11.7618
▁Általá	-11.7619
ORTT	-11.7619
▁Cleveland	-11.7619
▁Felügyelet	-11.7619
▁alvállalkozó	-11.7619
▁ciklon	-11.7619
▁filmrendező	-11.7619
▁földrajz	-11.7619
▁honvédség	-11.7619
▁kommandó	-11.7619
▁kígyó	-11.7619
▁propagand	-11.7619
▁trófe	-11.7619
▁eladósodott	-11.7619
▁fontolgat	-11.7619
▁izlandi	-11.7619
▁mesterhármas	-11.7619
▁üvölt	-11.7619
▁Stadion	-11.7619
▁törekszik	-11.7619
zseniális	-11.7619
▁élőlény	-11.7619
▁gyomor	-11.7619
▁Lakers	-11.7619
WHO	-11.7619
▁ugyanennyi	-11.7619
▁paprik	-11.762
isegrád	-11.762
ászberény	-11.7622
ontador	-11.7624
▁mindazok	-11.763
tológi	-11.7637
állapítható	-11.7652
Ó	-11.7666
tartalék	-11.7666
Ő	-11.7666
lengyel	-11.7666
árfolyam	-11.7666
▁anyjá	-11.7677
végzett	-11.7687
levelében	-11.7726
erősödik	-11.7768
▁kritérium	-11.7775
Fehéroroszország	-11.7775
▁Gregor	-11.7775
▁előfizető	-11.7775
▁feltűnt	-11.7775
▁gyémánt	-11.7775
▁mechanik	-11.7775
▁objektív	-11.7775
▁üdülő	-11.7775
▁motiváció	-11.7775
▁szinkron	-11.7775
▁Everton	-11.7775
▁eszembe	-11.7775
▁Hajdu	-11.7775
szétlövés	-11.7775
▁Reform	-11.7775
▁Lazio	-11.7775
▁CAC	-11.7775
▁díjazott	-11.7775
▁EKB	-11.7775
▁7:5	-11.7775
▁Amazon	-11.7775
▁hanyatl	-11.7775
▁advent	-11.7775
▁nevetséges	-11.7776
▁Ligában	-11.7776
szolnok	-11.7776
▁külsej	-11.7776
szerencsétlenség	-11.7777
▁mutass	-11.7777
▁előállításá	-11.7778
▁súlyosbít	-11.7779
▁összegyűjt	-11.778
▁legénység	-11.778
cserélték	-11.7787
modell	-11.7826
klub	-11.7828
tartozás	-11.784
Ausztrália	-11.7867
▁döntőjébe	-11.7872
zociális	-11.7918
▁publiká	-11.7931
sterházy	-11.7933
▁Christoph	-11.7934
▁Közlöny	-11.7934
▁Economi	-11.7934
▁Ligájában	-11.7934
▁Stabilitás	-11.7934
▁Vladim	-11.7934
▁kirándulás	-11.7934
▁leggyakoribb	-11.7934
▁Karjakin	-11.7934
▁buzdít	-11.7934
▁diktátor	-11.7934
▁hozzászólás	-11.7934
▁lezajl	-11.7934
▁palota	-11.7934
▁Boldog	-11.7934
▁bizakod	-11.7934
pattanó	-11.7934
▁Mihail	-11.7934
▁megrendelő	-11.7934
▁füzet	-11.7934
▁csukló	-11.7934
▁Ausztráliában	-11.7934
▁beleszól	-11.7934
▁Class	-11.7934
▁Center	-11.7934
▁komplett	-11.7934
ghosszabb	-11.7934
▁1987	-11.7934
olumbus	-11.7935
▁Timosenk	-11.7935
▁felmentés	-11.7937
▁mellőz	-11.7944
terdam	-11.7946
▁törvén	-11.795
félsziget	-11.7983
nyilatkoz	-11.7986
kommunikáció	-11.7986
▁délkelet	-11.7994
▁idegenforgal	-11.8011
eghalt	-11.8021
▁fogyasztóvédel	-11.8029
ejtették	-11.8046
▁megszület	-11.8073
▁Ljubljan	-11.8095
▁Valentin	-11.8095
▁Villarreal	-11.8095
▁Vállalkozás	-11.8095
▁cédulá	-11.8095
▁gabona	-11.8095
▁garázdaság	-11.8095
▁kecsegtet	-11.8095
▁kiterjesztés	-11.8095
▁kristály	-11.8095
▁lefolytat	-11.8095
▁világranglistá	-11.8095
▁átszervezés	-11.8095
▁összeesküvés	-11.8095
▁összpontos	-11.8095
▁üdvözölt	-11.8095
▁Eredeti	-11.8095
▁mindjárt	-11.8095
▁legitim	-11.8095
▁GVH	-11.8095
▁osztalék	-11.8095
▁racionális	-11.8095
▁Előzetes	-11.8095
▁páncél	-11.8095
▁1973	-11.8095
▁tripl	-11.8095
▁Xavi	-11.8095
▁röp	-11.8096
kenyai	-11.8097
▁felmentett	-11.81
awks	-11.8103
nstant	-11.8126
▁nyújtana	-11.8137
▁képviselőjé	-11.8148
ugrott	-11.815
MSZP	-11.815
vadász	-11.8152
▁Törvény	-11.8169
▁drágá	-11.8176
▁visszautasít	-11.8228
utasították	-11.8249
▁hangoztat	-11.8249
▁kiigazít	-11.8258
▁Alekszej	-11.8259
▁Stewart	-11.8259
▁Szilvás	-11.8259
▁bebizonyosod	-11.8259
▁cirkusz	-11.8259
▁illúzió	-11.8259
▁konszolidáció	-11.8259
▁pedofil	-11.8259
▁periódus	-11.8259
▁vízilabd	-11.8259
▁élmezőny	-11.8259
▁HBO	-11.8259
▁Néppárt	-11.8259
▁manőver	-11.8259
▁pálinká	-11.8259
▁Nándor	-11.8259
▁fizikus	-11.8259
▁MFB	-11.8259
▁feledkez	-11.8259
▁hamburg	-11.8259
▁toborz	-11.8259
▁ellensúlyoz	-11.8261
▁Ottaw	-11.8261
▁megelőzn	-11.8263
▁áfá	-11.8268
ovits	-11.8271
▁megtagad	-11.8272
▁focistá	-11.8275
▁Magnu	-11.8287
llítólag	-11.8301
bukta	-11.8311
ütközött	-11.8317
Magyarország	-11.8317
nyilvánítás	-11.8329
foglalás	-11.8342
szavazta	-11.8348
gondoskodás	-11.8371
▁2013	-11.8377
▁honlapjá	-11.839
▁éghajlat	-11.8412
▁Fesztivál	-11.8426
algótarján	-11.8426
ÁNTSZ	-11.8426
▁Horthy	-11.8426
▁Portsmouth	-11.8426
▁Richárd	-11.8426
▁Swift	-11.8426
▁Szilveszter	-11.8426
▁alezredes	-11.8426
▁citrom	-11.8426
▁civilizáció	-11.8426
▁cselekvés	-11.8426
▁fölösleges	-11.8426
▁korrupt	-11.8426
▁lövedék	-11.8426
▁sífutó	-11.8426
▁terápia	-11.8426
▁összegyűlt	-11.8426
▁őssejt	-11.8426
▁gyülekez	-11.8426
▁Borussi	-11.8426
▁törmelék	-11.8426
▁csirke	-11.8426
▁sebesült	-11.8426
▁sodród	-11.8426
▁Dolgoz	-11.8426
▁végződött	-11.8426
▁1984	-11.8426
▁százezre	-11.8426
▁Mainz	-11.8426
▁gurul	-11.8426
szláv	-11.8428
szabolcs	-11.8428
erőművek	-11.8436
▁terhé	-11.8446
▁skálá	-11.8453
kulcso	-11.853
veszélyeztetett	-11.8588
infarktus	-11.8595
mészárlás	-11.8595
▁Shakespeare	-11.8595
▁bevallotta	-11.8595
▁bónusz	-11.8595
▁kisgyermek	-11.8595
▁lízing	-11.8595
▁megtudtuk	-11.8595
▁processzor	-11.8595
▁Meglepő	-11.8595
▁hozzávetőleg	-11.8595
▁mérséklés	-11.8595
▁rakpart	-11.8595
▁összevetés	-11.8595
▁megérdemelt	-11.8595
▁rengés	-11.8595
▁Szarvas	-11.8595
▁kiadatás	-11.8595
▁határidej	-11.8595
▁lefúj	-11.8595
▁Pedro	-11.8595
▁következetes	-11.8596
▁kupé	-11.8597
▁Negyed	-11.8599
▁leszakad	-11.864
▁mérkőz	-11.8642
vörös	-11.8659
5-6	-11.8668
▁William	-11.8679
▁megváltoztatásá	-11.8748
▁céljá	-11.8748
▁állapod	-11.8758
szegényebb	-11.8763
▁logisztik	-11.8767
irmingham	-11.8767
▁Centrum	-11.8767
▁Griscsuk	-11.8767
▁Medgyessy	-11.8767
▁OLDAL	-11.8767
▁Századvég	-11.8767
▁Zaragoz	-11.8767
▁Zuschlag	-11.8767
▁aggodalom	-11.8767
▁autógyártó	-11.8767
▁bojkott	-11.8767
▁illusztrál	-11.8767
▁konkurenci	-11.8767
▁molekulá	-11.8767
▁tinédzser	-11.8767
▁zacskó	-11.8767
TÖR	-11.8767
▁Campbell	-11.8767
▁abroncs	-11.8767
▁National	-11.8767
▁kórokozó	-11.8767
▁markáns	-11.8767
▁tanúskod	-11.8767
▁patkány	-11.8767
▁ünnepélyes	-11.8767
▁Fegyver	-11.8768
▁emelkedhet	-11.8768
▁CIA	-11.8768
▁Colorad	-11.8768
▁Tapolc	-11.8768
▁tanítványa	-11.8768
zicíli	-11.8768
▁opció	-11.8768
▁Björ	-11.8768
▁tombol	-11.8768
▁búcsúztat	-11.8769
▁1981	-11.8769
Sztálin	-11.8771
közlekedés	-11.8833
selejtező	-11.8834
tekinthető	-11.8834
típus	-11.8834
alakult	-11.8839
Prince	-11.8848
▁belpolitika	-11.8882
fogyasztott	-11.8907
▁Ronald	-11.8933
▁Bukarest	-11.8943
▁Osasun	-11.8943
▁Rompuy	-11.8943
õ	-12.0265
ć	-12.0891
§	-12.133
à	-12.2522
×	-12.3875
è	-12.3875
č	-12.5786
	-12.6898
ô	-12.8149
š	-12.8604
‭	-12.958
ë	-13.0106
Š	-13.0106
ă	-13.1875
†	-13.4859
ç	-13.5768
<	-13.5768
~	-13.6768
°	-13.7879
û	-13.7879
[	-13.902
Ű	-13.9129
\	-13.9129
â	-13.9129
ß	-14.0558
ý	-14.0558
ń	-14.2224
`	-14.2224
ø	-14.2224
ł	-14.2224
	-14.2224
ş	-14.4224
⁄	-14.4224
ţ	-14.4224
	-14.6724
ž	-14.6724
¬	-15.0058
®	-15.0058
±	-15.0058
å	-15.0058
ò	-15.0058
ň	-15.0058
‒	-15.0058
Ä	-15.5058
^	-15.5058
	-15.5058
·	-15.5058
ã	-15.5058
ì	-15.5058
ï	-15.5058
ÿ	-15.5058
ť	-15.5058
′	-15.5058
€	-15.5058
≤	-15.5058
ה	-15.5058
Đ	-16.5048
̈	-16.5049
Ž	-16.505
È	-16.5051
	-16.5052
Č	-16.5053
£	-16.5054
ñ	-16.5055
‬	-16.5056
̋	-16.5057
Ś	-16.5057
ś	-16.5057
î	-16.5057
Ţ	-16.5057
æ	-16.5058
ê	-16.5058
ð	-16.5058
ą	-16.5058
Ć	-16.5058
đ	-16.5058
ę	-16.5058
ı	-16.5058
ř	-16.5058
Ť	-16.5058
ů	-16.5058
ż	-16.5058
ș	-16.5058
λ	-16.5058
μ	-16.5058
ї	-16.5058
ו	-16.5058
∗	-16.5058
	-16.5058
Å	-16.5058
(	-16.5058
י	-16.5058
