<unk>	0
<s>	0
</s>	0
▁a	-0
sz	-1
el	-2
et	-3
en	-4
▁m	-5
gy	-6
▁k	-7
er	-8
at	-9
an	-10
▁h	-11
al	-12
▁t	-13
▁v	-14
és	-15
ek	-16
▁sz	-17
or	-18
▁az	-19
ár	-20
in	-21
em	-22
on	-23
▁f	-24
ol	-25
ál	-26
▁n	-27
ak	-28
ás	-29
eg	-30
es	-31
▁A	-32
án	-33
ez	-34
is	-35
tt	-36
ér	-37
ok	-38
▁l	-39
ik	-40
én	-41
▁el	-42
ar	-43
▁b	-44
ég	-45
cs	-46
os	-47
egy	-48
▁p	-49
bb	-50
át	-51
▁és	-52
ül	-53
ett	-54
oz	-55
ít	-56
ág	-57
▁s	-58
él	-59
il	-60
ap	-61
▁j	-62
ét	-63
▁egy	-64
▁r	-65
▁kö	-66
▁meg	-67
ogy	-68
int	-69
ban	-70
ed	-71
ék	-72
ott	-73
▁is	-74
▁hogy	-75
ben	-76
▁M	-77
it	-78
agy	-79
▁d	-80
szt	-81
ad	-82
ut	-83
om	-84
▁-	-85
▁nem	-86
am	-87
as	-88
ól	-89
ség	-90
ig	-91
ul	-92
▁szer	-93
ni	-94
▁cs	-95
ja	-96
ra	-97
ta	-98
ák	-99
og	-100
ány	-101
▁S	-102
re	-103
áll	-104
ény	-105
ép	-106
aj	-107
áz	-108
ai	-109
▁köz	-110
▁fel	-111
az	-112
▁ki	-113
ely	-114
▁E	-115
év	-116
nak	-117
iz	-118
▁B	-119
ért	-120
▁K	-121
ot	-122
ent	-123
ész	-124
ag	-125
▁1	-126
ör	-127
ság	-128
id	-129
▁2	-130
▁le	-131
nk	-132
▁am	-133
ám	-134
het	-135
ny	-136
olt	-137
nek	-138
ől	-139
end	-140
▁al	-141
▁ak	-142
ci	-143
ell	-144
▁Az	-145
▁ez	-146
ind	-147
▁(	-148
ált	-149
ön	-150
▁H	-151
ök	-152
▁N	-153
us	-154
hat	-155
▁be	-156
ill	-157
▁T	-158
od	-159
▁F	-160
▁ny	-161
szer	-162
ír	-163
art	-164
▁ú	-165
öl	-166
▁P	-167
ond	-168
ont	-169
▁g	-170
ud	-171
len	-172
▁gy	-173
▁év	-174
▁áll	-175
ur	-176
ev	-177
uk	-178
ab	-179
ők	-180
unk	-181
▁G	-182
ber	-183
av	-184
oly	-185
▁szerint	-186
te	-187
ös	-188
ók	-189
▁V	-190
▁de	-191
ezet	-192
▁ut	-193
▁for	-194
ött	-195
▁volt	-196
▁L	-197
szág	-198
▁C	-199
agyar	-200
▁c	-201
vet	-202
ov	-203
▁kor	-204
att	-205
▁leg	-206
▁jel	-207
ában	-208
öbb	-209
00	-210
ország	-211
esz	-212
ep	-213
▁már	-214
▁"	-215
▁elő	-216
ej	-217
▁I	-218
▁R	-219
est	-220
▁rend	-221
▁D	-222
ős	-223
iv	-224
öz	-225
ir	-226
erül	-227
ább	-228
ük	-229
▁id	-230
kor	-231
▁Sz	-232
ert	-233
ént	-234
▁mind	-235
▁ér	-236
ba	-237
▁ad	-238
ember	-239
atás	-240
▁több	-241
úl	-242
▁hely	-243
▁val	-244
ében	-245
kal	-246
olg	-247
▁J	-248
ügy	-249
aszt	-250
▁nagy	-251
val	-252
zet	-253
ív	-254
▁még	-255
mány	-256
eket	-257
áj	-258
▁er	-259
▁mi	-260
elm	-261
éd	-262
ós	-263
asz	-264
▁azt	-265
ály	-266
árt	-267
▁szám	-268
ette	-269
um	-270
elő	-271
obb	-272
ára	-273
▁csak	-274
▁kell	-275
ia	-276
őr	-277
eszt	-278
ebb	-279
▁lehet	-280
kez	-281
▁száz	-282
koz	-283
▁kap	-284
okat	-285
éz	-286
ítás	-287
öv	-288
▁tud	-289
▁amely	-290
▁van	-291
▁mint	-292
▁tör	-293
össz	-294
isz	-295
iszt	-296
▁tart	-297
ót	-298
▁más	-299
▁vagy	-300
ése	-301
ort	-302
ból	-303
▁O	-304
▁es	-305
ony	-306
▁sem	-307
▁ter	-308
▁3	-309
▁két	-310
be	-311
▁mag	-312
illi	-313
ajd	-314
ód	-315
alm	-316
ső	-317
alék	-318
▁vég	-319
hoz	-320
▁vál	-321
im	-322
tet	-323
ély	-324
ch	-325
▁ar	-326
▁össz	-327
mény	-328
▁él	-329
▁ellen	-330
ának	-331
ve	-332
▁fog	-333
ín	-334
▁új	-335
▁mond	-336
ják	-337
ató	-338
▁biz	-339
▁százalék	-340
ém	-341
▁pr	-342
ést	-343
▁kép	-344
ző	-345
▁magyar	-346
ított	-347
eh	-348
nök	-349
ról	-350
ug	-351
▁át	-352
ult	-353
íz	-354
▁z	-355
op	-356
edig	-357
ei	-358
elt	-359
▁u	-360
ást	-361
na	-362
nál	-363
ére	-364
ór	-365
leg	-366
eres	-367
ható	-368
▁szem	-369
eny	-370
áros	-371
▁pedig	-372
je	-373
ikai	-374
▁ért	-375
▁milli	-376
ének	-377
▁jelent	-378
▁tel	-379
▁kül	-380
▁ha	-381
▁után	-382
▁ig	-383
ilág	-384
aság	-385
abb	-386
▁ol	-387
esen	-388
vény	-389
▁rész	-390
ési	-391
enn	-392
▁azon	-393
ünk	-394
▁forint	-395
▁200	-396
ása	-397
ost	-398
▁hat	-399
▁hoz	-400
ani	-401
▁mű	-402
tak	-403
▁20	-404
▁munk	-405
ád	-406
áci	-407
▁kör	-408
va	-409
▁nap	-410
ült	-411
▁kez	-412
ával	-413
▁minden	-414
gyan	-415
▁vis	-416
▁majd	-417
kö	-418
▁í	-419
▁e	-420
let	-421
árs	-422
ked	-423
ális	-424
ob	-425
lan	-426
emény	-427
uró	-428
▁kormány	-429
▁lesz	-430
vezet	-431
ások	-432
ján	-433
▁4	-434
őz	-435
őt	-436
▁ember	-437
nap	-438
azd	-439
jel	-440
▁ü	-441
önt	-442
▁em	-443
▁an	-444
ang	-445
▁első	-446
▁vezet	-447
▁alap	-448
ház	-449
ből	-450
énz	-451
▁miatt	-452
dés	-453
▁tal	-454
▁követ	-455
eng	-456
köz	-457
▁in	-458
ily	-459
▁Magyar	-460
▁szak	-461
hez	-462
▁Z	-463
▁Ez	-464
áb	-465
ről	-466
▁ill	-467
▁Egy	-468
olyan	-469
▁úgy	-470
etlen	-471
▁között	-472
▁ö	-473
ölt	-474
▁bel	-475
▁ország	-476
ikus	-477
fi	-478
▁vissz	-479
▁ugyan	-480
for	-481
mű	-482
▁hét	-483
▁aki	-484
▁5	-485
▁állam	-486
fel	-487
▁így	-488
▁19	-489
▁ok	-490
ló	-491
▁fi	-492
),	-493
▁elm	-494
▁tört	-495
▁mert	-496
erült	-497
▁ügy	-498
▁ját	-499
▁né	-500
▁kis	-501
any	-502
ilyen	-503
ers	-504
▁foly	-505
▁mondta	-506
▁olyan	-507
▁sok	-508
ések	-509
osan	-510
▁ind	-511
▁min	-512
ezett	-513
ic	-514
edd	-515
▁akkor	-516
ási	-517
▁világ	-518
ász	-519
atok	-520
ták	-521
étel	-522
öld	-523
atal	-524
▁ír	-525
őv	-526
ajt	-527
ovább	-528
▁sor	-529
által	-530
tat	-531
▁lát	-532
kel	-533
óz	-534
árom	-535
nyi	-536
▁int	-537
ként	-538
0-	-539
▁Nem	-540
eb	-541
eti	-542
▁ép	-543
ki	-544
íj	-545
ossz	-546
▁egyik	-547
ács	-548
▁W	-549
olit	-550
▁kész	-551
▁igaz	-552
mer	-553
▁azonban	-554
árd	-555
un	-556
osz	-557
▁kér	-558
▁An	-559
▁vált	-560
ajn	-561
tel	-562
▁választ	-563
▁ah	-564
▁tovább	-565
ével	-566
▁tám	-567
all	-568
st	-569
▁ár	-570
utó	-571
eni	-572
▁ami	-573
oszt	-574
▁bizt	-575
▁i	-576
▁mell	-577
▁jog	-578
▁szab	-579
szak	-580
▁valam	-581
azdaság	-582
pont	-583
▁201	-584
▁fér	-585
atkoz	-586
áv	-587
űn	-588
ület	-589
ikor	-590
ező	-591
▁kezd	-592
pr	-593
▁pénz	-594
▁tan	-595
▁hozz	-596
▁idő	-597
uróp	-598
hető	-599
lt	-600
állal	-601
▁eset	-602
▁érd	-603
▁most	-604
▁ir	-605
ün	-606
▁való	-607
▁6	-608
▁csap	-609
ran	-610
▁U	-611
ván	-612
old	-613
▁által	-614
..	-615
▁jó	-616
arad	-617
▁elnök	-618
▁illet	-619
ját	-620
izs	-621
ört	-622
▁telj	-623
fog	-624
ati	-625
esít	-626
izet	-627
jt	-628
jár	-629
▁vár	-630
egész	-631
lő	-632
eked	-633
ata	-634
▁három	-635
hely	-636
▁dönt	-637
csol	-638
▁nev	-639
▁Cs	-640
and	-641
▁fej	-642
ing	-643
▁ó	-644
▁rendőr	-645
▁hi	-646
▁külön	-647
incs	-648
▁jár	-649
▁Á	-650
elem	-651
▁arra	-652
ító	-653
árm	-654
▁É	-655
port	-656
▁korább	-657
fő	-658
véd	-659
▁ered	-660
enek	-661
juk	-662
▁visz	-663
elmi	-664
oll	-665
oló	-666
▁előtt	-667
vis	-668
▁pont	-669
▁élet	-670
▁sik	-671
tek	-672
up	-673
ri	-674
▁jelen	-675
atot	-676
SZ	-677
adás	-678
alom	-679
▁Or	-680
ését	-681
kép	-682
▁per	-683
zel	-684
kül	-685
▁nyil	-686
ög	-687
ter	-688
ivel	-689
▁ker	-690
▁cí	-691
ck	-692
▁egész	-693
▁szerep	-694
▁dolg	-695
olna	-696
tatás	-697
▁Gy	-698
▁polit	-699
▁millió	-700
▁szint	-701
éld	-702
izsg	-703
díj	-704
ozó	-705
últ	-706
le	-707
ozott	-708
▁besz	-709
▁cég	-710
▁éves	-711
utat	-712
▁7	-713
kod	-714
▁volna	-715
▁kapcsol	-716
eli	-717
ített	-718
ökk	-719
szerű	-720
éter	-721
▁gond	-722
arm	-723
sal	-724
omb	-725
lam	-726
ef	-727
üt	-728
ekt	-729
lal	-730
▁gyer	-731
atlan	-732
ilm	-733
▁történ	-734
rend	-735
úly	-736
▁ezt	-737
ába	-738
▁mér	-739
▁talál	-740
enc	-741
őség	-742
elet	-743
▁érdek	-744
1-	-745
▁kon	-746
▁fő	-747
▁illetve	-748
ozás	-749
▁alatt	-750
ajnok	-751
▁másod	-752
▁fél	-753
esség	-754
▁Al	-755
ári	-756
▁öt	-757
ője	-758
oh	-759
▁hal	-760
inek	-761
▁term	-762
író	-763
▁ezer	-764
kol	-765
▁lak	-766
ogat	-767
ció	-768
▁költ	-769
jelent	-770
▁péld	-771
▁mellett	-772
usz	-773
ütt	-774
ából	-775
gg	-776
▁tag	-777
▁akik	-778
adó	-779
asznál	-780
▁párt	-781
▁milliárd	-782
iai	-783
▁kom	-784
után	-785
▁8	-786
ram	-787
ezte	-788
idesz	-789
▁társ	-790
vas	-791
▁szó	-792
osság	-793
▁amikor	-794
of	-795
orv	-796
dul	-797
▁hó	-798
▁Magyarország	-799
▁vissza	-800
erikai	-801
▁seg	-802
▁nyug	-803
szín	-804
erseny	-805
▁játék	-806
vel	-807
▁jöv	-808
ip	-809
ors	-810
▁négy	-811
ant	-812
erület	-813
áció	-814
▁rendszer	-815
észt	-816
▁von	-817
▁érték	-818
enne	-819
▁en	-820
▁In	-821
ec	-822
form	-823
gel	-824
▁közl	-825
▁hang	-826
áról	-827
iszter	-828
zs	-829
▁men	-830
kot	-831
izsgál	-832
émet	-833
▁haz	-834
élkül	-835
▁nemzet	-836
uár	-837
▁szól	-838
▁ott	-839
udap	-840
udapest	-841
ex	-842
▁férfi	-843
▁gazdaság	-844
▁törvény	-845
▁mód	-846
sel	-847
anem	-848
▁ő	-849
▁tár	-850
íg	-851
ánt	-852
nél	-853
▁együtt	-854
ölte	-855
ink	-856
▁par	-857
omány	-858
ték	-859
aton	-860
ester	-861
▁biztos	-862
ub	-863
▁vállal	-864
▁alkal	-865
ülés	-866
anak	-867
almaz	-868
▁nő	-869
urópai	-870
ocs	-871
▁tav	-872
▁jav	-873
tal	-874
vez	-875
▁képvis	-876
ását	-877
▁üz	-878
ass	-879
▁kil	-880
zés	-881
▁lett	-882
▁következ	-883
séges	-884
▁nagyon	-885
▁amerikai	-886
▁nyom	-887
ábor	-888
▁Ha	-889
".	-890
▁marad	-891
avaz	-892
▁csökk	-893
tól	-894
▁túl	-895
▁nincs	-896
▁ház	-897
▁keres	-898
▁vesz	-899
▁jobb	-900
▁hanem	-901
ügyi	-902
▁bet	-903
▁csal	-904
ne	-905
lat	-906
▁pály	-907
tart	-908
gató	-909
ió	-910
üntet	-911
▁dél	-912
▁cél	-913
eken	-914
köd	-915
vány	-916
▁ilyen	-917
▁eredmény	-918
ób	-919
ogram	-920
oport	-921
ozat	-922
ekben	-923
▁MN	-924
aly	-925
▁hisz	-926
ették	-927
▁személy	-928
▁erős	-929
▁vél	-930
pen	-931
őket	-932
▁figy	-933
ton	-934
▁össze	-935
ason	-936
▁bef	-937
ája	-938
▁véd	-939
▁9	-940
▁hiv	-941
ügg	-942
▁megy	-943
▁azért	-944
▁közölte	-945
▁rá	-946
eddig	-947
ank	-948
ául	-949
▁kerül	-950
▁ór	-951
▁hír	-952
▁ism	-953
▁lép	-954
rit	-955
elés	-956
▁nek	-957
▁verseny	-958
▁szük	-959
ist	-960
▁autó	-961
▁kív	-962
▁helyzet	-963
hon	-964
éri	-965
ottság	-966
▁szín	-967
aját	-968
uszt	-969
ezés	-970
éb	-971
▁segít	-972
öm	-973
ekkel	-974
▁körül	-975
őd	-976
▁kev	-977
enni	-978
ítés	-979
ern	-980
szám	-981
só	-982
▁vas	-983
ítani	-984
▁szolg	-985
lát	-986
▁kar	-987
akor	-988
▁Fidesz	-989
úz	-990
erg	-991
▁itt	-992
▁második	-993
▁15	-994
▁növ	-995
armad	-996
▁ahol	-997
▁viszont	-998
▁kés	-999
0.	-1000
fél	-1001
dal	-1002
▁elv	-1003
▁akar	-1004
ontos	-1005
lék	-1006
▁szerző	-1007
▁eddig	-1008
▁ezért	-1009
▁csapat	-1010
ess	-1011
▁lét	-1012
okban	-1013
▁költség	-1014
esebb	-1015
▁annak	-1016
ista	-1017
▁ment	-1018
▁város	-1019
ha	-1020
övet	-1021
ékoz	-1022
▁nélkül	-1023
zett	-1024
▁kam	-1025
▁MNO	-1026
▁film	-1027
▁st	-1028
nyv	-1029
▁kapcsolat	-1030
▁kiv	-1031
▁felt	-1032
▁jövő	-1033
▁El	-1034
▁hónap	-1035
öt	-1036
▁Mi	-1037
▁hozzá	-1038
▁szeret	-1039
nagy	-1040
ően	-1041
▁foglal	-1042
▁bizony	-1043
▁közel	-1044
ettek	-1045
ször	-1046
észet	-1047
ord	-1048
▁százalékkal	-1049
út	-1050
ika	-1051
▁például	-1052
szab	-1053
ac	-1054
elnök	-1055
▁határ	-1056
föld	-1057
íróság	-1058
ította	-1059
▁jelenleg	-1060
▁saját	-1061
▁forg	-1062
▁arról	-1063
eit	-1064
▁vezető	-1065
▁te	-1066
▁alkalm	-1067
ájékoz	-1068
arc	-1069
▁sajt	-1070
▁ugyanis	-1071
ogatás	-1072
▁valamint	-1073
▁szerd	-1074
bbi	-1075
ségi	-1076
▁Nagy	-1077
hány	-1078
▁reg	-1079
▁tavaly	-1080
elked	-1081
▁miniszter	-1082
▁megh	-1083
▁intéz	-1084
éről	-1085
alak	-1086
▁amit	-1087
▁óta	-1088
cia	-1089
égi	-1090
2-	-1091
▁jut	-1092
▁Köz	-1093
érték	-1094
▁vizsgál	-1095
▁negy	-1096
▁olvas	-1097
örtök	-1098
ütörtök	-1099
ásár	-1100
▁elmond	-1101
▁szabad	-1102
▁család	-1103
0,	-1104
leszt	-1105
közi	-1106
oci	-1107
▁táv	-1108
▁került	-1109
▁alapján	-1110
ver	-1111
otta	-1112
ark	-1113
▁kérdés	-1114
ottak	-1115
ulajd	-1116
▁alak	-1117
).	-1118
▁pár	-1119
▁mely	-1120
tár	-1121
▁Er	-1122
▁any	-1123
▁tiszt	-1124
újt	-1125
▁ismer	-1126
▁játsz	-1127
ulajdon	-1128
sor	-1129
ozz	-1130
▁Budapest	-1131
▁korábban	-1132
▁bal	-1133
▁kit	-1134
ológ	-1135
▁közös	-1136
▁másik	-1137
itk	-1138
▁számára	-1139
séget	-1140
▁tér	-1141
▁hétfő	-1142
▁hiszen	-1143
iac	-1144
▁hason	-1145
▁megsz	-1146
▁beszél	-1147
ró	-1148
sége	-1149
okkal	-1150
lás	-1151
inak	-1152
▁kedd	-1153
jobb	-1154
űz	-1155
8-	-1156
essz	-1157
zal	-1158
ús	-1159
▁lap	-1160
ttal	-1161
olc	-1162
▁á	-1163
telen	-1164
itel	-1165
őváros	-1166
▁ked	-1167
▁győz	-1168
▁jól	-1169
▁ma	-1170
▁megv	-1171
▁pént	-1172
▁perc	-1173
▁út	-1174
mi	-1175
lag	-1176
▁Nemzet	-1177
▁terület	-1178
ari	-1179
▁csütörtök	-1180
▁című	-1181
▁szabály	-1182
▁hát	-1183
▁közül	-1184
▁euró	-1185
▁felh	-1186
▁program	-1187
▁néz	-1188
▁Meg	-1189
▁elt	-1190
gyű	-1191
▁szavaz	-1192
▁jegy	-1193
▁hossz	-1194
fej	-1195
▁gondol	-1196
▁működ	-1197
▁lehetőség	-1198
▁százalékos	-1199
hu	-1200
▁képviselő	-1201
től	-1202
▁ör	-1203
▁neh	-1204
▁oldal	-1205
nagyobb	-1206
▁hagy	-1207
▁irány	-1208
ánd	-1209
mér	-1210
▁doll	-1211
ib	-1212
▁lenne	-1213
vétel	-1214
ard	-1215
▁gól	-1216
▁használ	-1217
▁Ú	-1218
▁késő	-1219
▁or	-1220
assz	-1221
▁nyilatkoz	-1222
tor	-1223
▁azok	-1224
ítél	-1225
▁önk	-1226
ron	-1227
ához	-1228
új	-1229
▁Mind	-1230
▁fordul	-1231
▁tárgy	-1232
▁akár	-1233
▁folyam	-1234
▁jan	-1235
▁harmad	-1236
csak	-1237
▁ne	-1238
enged	-1239
súly	-1240
ekint	-1241
6-	-1242
ással	-1243
ay	-1244
ókat	-1245
előtt	-1246
zi	-1247
ull	-1248
▁12	-1249
▁legnagyobb	-1250
von	-1251
▁csökkent	-1252
igaz	-1253
▁kut	-1254
▁legjobb	-1255
...	-1256
jük	-1257
▁ön	-1258
tó	-1259
▁száll	-1260
▁fiatal	-1261
▁kl	-1262
▁történt	-1263
▁míg	-1264
lament	-1265
▁fizet	-1266
▁nyilván	-1267
ics	-1268
rás	-1269
▁néhány	-1270
ésre	-1271
▁kellett	-1272
▁dec	-1273
▁egym	-1274
▁utol	-1275
▁tulajdon	-1276
acs	-1277
▁bűn	-1278
▁érkez	-1279
nő	-1280
▁De	-1281
▁hivatal	-1282
▁során	-1283
▁Ny	-1284
ment	-1285
▁szemben	-1286
jabb	-1287
▁nyugdíj	-1288
▁december	-1289
▁oszt	-1290
▁elmúlt	-1291
áló	-1292
almas	-1293
▁magas	-1294
▁alkot	-1295
▁rendel	-1296
abd	-1297
▁csoport	-1298
▁megáll	-1299
▁aján	-1300
eztet	-1301
▁Szer	-1302
▁jelentős	-1303
árnap	-1304
▁német	-1305
▁18	-1306
▁test	-1307
▁rendőrség	-1308
ásra	-1309
▁tíz	-1310
▁megt	-1311
ly	-1312
▁aut	-1313
obl	-1314
▁amelyek	-1315
ején	-1316
▁nagyobb	-1317
▁gyerek	-1318
▁szervezet	-1319
sági	-1320
bán	-1321
▁legy	-1322
▁azzal	-1323
▁Ch	-1324
▁víz	-1325
ói	-1326
eset	-1327
erm	-1328
▁And	-1329
lik	-1330
-1	-1331
▁10	-1332
rel	-1333
▁foglalkoz	-1334
▁ebb	-1335
▁cím	-1336
▁moz	-1337
▁elem	-1338
ong	-1339
né	-1340
▁elég	-1341
zék	-1342
▁tett	-1343
▁egyéb	-1344
▁elmondta	-1345
▁korábbi	-1346
▁haj	-1347
▁nép	-1348
▁megk	-1349
▁megfel	-1350
ene	-1351
▁körny	-1352
▁közt	-1353
▁hatás	-1354
eget	-1355
ános	-1356
ítása	-1357
▁elfog	-1358
ah	-1359
lés	-1360
▁Ar	-1361
ászló	-1362
oblém	-1363
itány	-1364
bajnok	-1365
▁els	-1366
land	-1367
▁Fer	-1368
,5	-1369
▁mutat	-1370
▁negyed	-1371
alt	-1372
ormány	-1373
▁részt	-1374
▁hasonló	-1375
▁gyors	-1376
▁szél	-1377
▁ezzel	-1378
biz	-1379
öd	-1380
▁munka	-1381
▁fut	-1382
nem	-1383
▁fontos	-1384
▁gazdasági	-1385
eccs	-1386
etem	-1387
ür	-1388
▁ál	-1389
▁re	-1390
▁tesz	-1391
▁St	-1392
elte	-1393
▁sp	-1394
▁vannak	-1395
ezni	-1396
▁zs	-1397
ma	-1398
jában	-1399
▁változ	-1400
▁terv	-1401
▁bár	-1402
▁mivel	-1403
ítja	-1404
▁dolgoz	-1405
▁gyakor	-1406
iség	-1407
▁szoci	-1408
▁mindig	-1409
ormányz	-1410
okr	-1411
oda	-1412
▁január	-1413
▁hiány	-1414
▁idén	-1415
kőz	-1416
ven	-1417
▁rom	-1418
▁parlament	-1419
lin	-1420
nny	-1421
▁ám	-1422
▁tájékoz	-1423
ro	-1424
úr	-1425
▁támogatás	-1426
SZP	-1427
▁érint	-1428
talan	-1429
▁2009	-1430
▁En	-1431
▁abb	-1432
▁föld	-1433
ovember	-1434
▁költségvet	-1435
ssz	-1436
▁eljár	-1437
▁teh	-1438
esült	-1439
▁25	-1440
éssel	-1441
▁polg	-1442
▁kín	-1443
.,	-1444
▁ink	-1445
▁Ist	-1446
▁MT	-1447
▁sport	-1448
lov	-1449
esek	-1450
▁fran	-1451
▁alá	-1452
ákat	-1453
▁elnöke	-1454
▁bank	-1455
▁teljesít	-1456
▁problém	-1457
▁vasárnap	-1458
▁rossz	-1459
ock	-1460
▁hazai	-1461
▁László	-1462
▁adó	-1463
▁rep	-1464
▁11	-1465
▁ész	-1466
átt	-1467
▁tanul	-1468
▁kid	-1469
▁voltak	-1470
▁emlék	-1471
üz	-1472
▁javas	-1473
▁inform	-1474
▁gyan	-1475
▁szen	-1476
évő	-1477
▁ezek	-1478
▁teljes	-1479
áját	-1480
▁nyolc	-1481
▁adott	-1482
tam	-1483
▁Ál	-1484
▁sér	-1485
▁kapott	-1486
imp	-1487
▁tekint	-1488
ete	-1489
7-	-1490
▁közép	-1491
▁utolsó	-1492
▁rendelkez	-1493
ejt	-1494
▁MSZP	-1495
▁inkább	-1496
ali	-1497
▁vel	-1498
▁megb	-1499
ították	-1500
úsz	-1501
óbál	-1502
▁csat	-1503
arát	-1504
3-	-1505
viv	-1506
jának	-1507
li	-1508
▁lev	-1509
▁adat	-1510
▁különb	-1511
nia	-1512
óta	-1513
okon	-1514
▁felel	-1515
aki	-1516
▁legal	-1517
▁folytat	-1518
sze	-1519
ehér	-1520
▁kereszt	-1521
éj	-1522
son	-1523
színű	-1524
jai	-1525
▁további	-1526
▁Ö	-1527
leges	-1528
ítette	-1529
gyel	-1530
olta	-1531
min	-1532
▁főváros	-1533
ítő	-1534
▁őket	-1535
▁esz	-1536
▁14	-1537
követ	-1538
lap	-1539
▁vád	-1540
sér	-1541
▁tette	-1542
▁fogy	-1543
▁könny	-1544
▁nemzetközi	-1545
két	-1546
",	-1547
▁várható	-1548
▁Orbán	-1549
▁sikerült	-1550
▁szomb	-1551
▁gyerm	-1552
ogatott	-1553
▁köt	-1554
mel	-1555
▁16	-1556
érium	-1557
atos	-1558
▁199	-1559
▁önkormányz	-1560
ismer	-1561
▁magát	-1562
▁Am	-1563
▁piac	-1564
▁kötel	-1565
▁november	-1566
uh	-1567
▁újra	-1568
▁figyelm	-1569
oknak	-1570
éhez	-1571
mények	-1572
▁bajnok	-1573
ion	-1574
iss	-1575
▁súly	-1576
orvos	-1577
űr	-1578
ón	-1579
mal	-1580
ülő	-1581
▁Bal	-1582
lak	-1583
he	-1584
▁fr	-1585
▁ennek	-1586
▁tény	-1587
ens	-1588
▁kedv	-1589
▁harmadik	-1590
▁politikai	-1591
előre	-1592
▁magán	-1593
adt	-1594
▁kat	-1595
erc	-1596
▁elk	-1597
▁Péter	-1598
▁hall	-1599
▁találkoz	-1600
jegy	-1601
ációs	-1602
▁megfelelő	-1603
almi	-1604
▁milyen	-1605
▁vit	-1606
ságot	-1607
tató	-1608
▁orosz	-1609
▁sajtó	-1610
▁állami	-1611
▁készült	-1612
▁meccs	-1613
▁megállap	-1614
▁utó	-1615
▁felad	-1616
▁vez	-1617
▁elh	-1618
▁Ne	-1619
▁gép	-1620
▁éppen	-1621
itt	-1622
▁Zs	-1623
▁ber	-1624
▁ismert	-1625
ármester	-1626
▁alkalmaz	-1627
anyol	-1628
otor	-1629
ozta	-1630
▁átlag	-1631
▁méd	-1632
szik	-1633
▁zár	-1634
▁egyes	-1635
▁szolgált	-1636
ebr	-1637
jét	-1638
▁kisebb	-1639
▁mik	-1640
akkor	-1641
▁utc	-1642
ikl	-1643
vezető	-1644
▁következő	-1645
szolg	-1646
eség	-1647
▁hol	-1648
▁13	-1649
▁függ	-1650
▁enged	-1651
▁belül	-1652
▁állap	-1653
enz	-1654
▁szület	-1655
▁emberek	-1656
akat	-1657
▁kih	-1658
▁István	-1659
▁fok	-1660
áp	-1661
ukat	-1662
▁rendez	-1663
foly	-1664
▁talált	-1665
▁könyv	-1666
▁európai	-1667
fr	-1668
▁politikus	-1669
ka	-1670
utt	-1671
▁szükség	-1672
anyag	-1673
milli	-1674
ecs	-1675
olni	-1676
▁indul	-1677
elek	-1678
▁mintegy	-1679
▁emelked	-1680
▁játékos	-1681
elni	-1682
▁éve	-1683
osítás	-1684
ébe	-1685
chn	-1686
állítás	-1687
▁17	-1688
▁közleked	-1689
ait	-1690
▁dr	-1691
edett	-1692
ellem	-1693
úg	-1694
dő	-1695
mus	-1696
▁Európ	-1697
▁1,	-1698
atív	-1699
erős	-1700
szor	-1701
▁hon	-1702
gat	-1703
▁közlemény	-1704
orn	-1705
▁mérkőz	-1706
▁bíróság	-1707
ésére	-1708
ím	-1709
▁gyermek	-1710
cius	-1711
inál	-1712
ották	-1713
▁szóló	-1714
▁ítél	-1715
▁anyag	-1716
▁képest	-1717
erj	-1718
▁telep	-1719
▁legalább	-1720
nal	-1721
▁2010.	-1722
▁mod	-1723
▁nyert	-1724
▁erre	-1725
▁őr	-1726
ánk	-1727
ekre	-1728
ektet	-1729
4-	-1730
▁később	-1731
▁növeked	-1732
hatnak	-1733
heti	-1734
övid	-1735
▁forintot	-1736
▁tűn	-1737
▁veszély	-1738
nep	-1739
▁szerdán	-1740
órház	-1741
▁kívül	-1742
▁bizton	-1743
▁beteg	-1744
▁hív	-1745
▁megl	-1746
5-	-1747
▁miniszterelnök	-1748
gal	-1749
▁lévő	-1750
▁végén	-1751
ow	-1752
▁újabb	-1753
▁helyen	-1754
▁amelyet	-1755
▁ható	-1756
▁írja	-1757
▁helyi	-1758
▁helyett	-1759
▁hitel	-1760
rt	-1761
▁Ind	-1762
▁Azt	-1763
▁neki	-1764
▁megold	-1765
▁felelős	-1766
▁halál	-1767
▁évvel	-1768
▁tárgyal	-1769
▁múlt	-1770
lom	-1771
▁ellenére	-1772
isztérium	-1773
ih	-1774
emokr	-1775
mond	-1776
▁hétfőn	-1777
nev	-1778
uc	-1779
▁sokkal	-1780
▁számít	-1781
▁valószínű	-1782
▁tap	-1783
csi	-1784
▁Itt	-1785
nok	-1786
lott	-1787
pénz	-1788
▁én	-1789
▁elér	-1790
▁bír	-1791
nyit	-1792
védelmi	-1793
▁elleni	-1794
ógy	-1795
▁igazgató	-1796
▁Y	-1797
jon	-1798
csap	-1799
▁büntet	-1800
alap	-1801
▁MTI	-1802
▁föl	-1803
▁kedden	-1804
eknek	-1805
ezték	-1806
▁tiz	-1807
▁vásár	-1808
hetetlen	-1809
ezt	-1810
aszn	-1811
▁Állam	-1812
▁Ország	-1813
ennyi	-1814
uház	-1815
▁Le	-1816
kori	-1817
▁üt	-1818
▁fenn	-1819
▁egyre	-1820
▁dollár	-1821
apitány	-1822
öző	-1823
▁Magyarországon	-1824
oj	-1825
földi	-1826
▁form	-1827
polg	-1828
éből	-1829
▁Í	-1830
▁Szab	-1831
ese	-1832
álaszt	-1833
ikk	-1834
▁Br	-1835
▁válasz	-1836
▁természet	-1837
▁fejleszt	-1838
etes	-1839
▁ahogy	-1840
▁este	-1841
▁tűz	-1842
▁febr	-1843
hatja	-1844
▁összeg	-1845
▁üzlet	-1846
ettel	-1847
város	-1848
ich	-1849
fizet	-1850
▁egyelőre	-1851
▁egyetlen	-1852
gép	-1853
▁(1	-1854
sék	-1855
encs	-1856
▁Ferenc	-1857
ezer	-1858
ózs	-1859
▁üzem	-1860
▁időszak	-1861
▁évben	-1862
▁folyamat	-1863
nnep	-1864
▁utóbbi	-1865
őleg	-1866
orban	-1867
▁szóviv	-1868
▁bem	-1869
▁tanács	-1870
▁március	-1871
▁egyébként	-1872
▁műv	-1873
▁kény	-1874
tóber	-1875
▁Gábor	-1876
▁bejelent	-1877
ft	-1878
ide	-1879
▁igen	-1880
asztal	-1881
▁ismét	-1882
okra	-1883
▁válság	-1884
▁Európai	-1885
▁részlet	-1886
▁szintén	-1887
országban	-1888
▁iskol	-1889
ast	-1890
határ	-1891
▁Jobb	-1892
vári	-1893
▁intern	-1894
▁uni	-1895
úcs	-1896
▁követően	-1897
áig	-1898
▁létre	-1899
▁kíván	-1900
▁társad	-1901
ilis	-1902
▁igény	-1903
▁nehéz	-1904
▁csütörtökön	-1905
▁let	-1906
▁pénteken	-1907
inc	-1908
▁fogyaszt	-1909
eged	-1910
országi	-1911
▁ünnep	-1912
szön	-1913
ékeny	-1914
▁szív	-1915
pály	-1916
tag	-1917
▁rég	-1918
ázs	-1919
▁fogad	-1920
övetség	-1921
áni	-1922
▁vállalkoz	-1923
etet	-1924
örgy	-1925
ral	-1926
vár	-1927
▁kik	-1928
▁készül	-1929
▁helyszín	-1930
▁bizottság	-1931
▁27	-1932
dig	-1933
íteni	-1934
▁Tam	-1935
▁vet	-1936
▁1-	-1937
nyug	-1938
vált	-1939
▁erő	-1940
olás	-1941
▁ford	-1942
endég	-1943
▁szig	-1944
▁egyszer	-1945
műv	-1946
rány	-1947
▁ham	-1948
▁gáz	-1949
▁jelentette	-1950
▁kí	-1951
▁mérték	-1952
endő	-1953
▁tölt	-1954
▁nyer	-1955
▁végül	-1956
▁iz	-1957
▁rövid	-1958
▁fin	-1959
▁egyen	-1960
elv	-1961
▁annyi	-1962
▁díj	-1963
▁megyei	-1964
▁til	-1965
▁szinte	-1966
▁társaság	-1967
▁ver	-1968
▁abban	-1969
▁forduló	-1970
▁Pr	-1971
ítvány	-1972
la	-1973
▁di	-1974
ácsony	-1975
▁barát	-1976
1.	-1977
mag	-1978
▁hosszú	-1979
▁először	-1980
▁vonatkoz	-1981
▁tudja	-1982
▁raj	-1983
▁amelynek	-1984
arab	-1985
▁tév	-1986
▁tehát	-1987
▁kórház	-1988
ézet	-1989
▁ebben	-1990
▁esély	-1991
▁X	-1992
▁0,	-1993
özben	-1994
▁fogalmaz	-1995
▁egyszerű	-1996
▁bor	-1997
lovák	-1998
▁kett	-1999
izmus	-2000
▁évek	-2001
▁Ak	-2002
utató	-2003
ásban	-2004
▁hatóság	-2005
oni	-2006
jából	-2007
▁álló	-2008
▁ide	-2009
▁brit	-2010
ársaság	-2011
ői	-2012
bert	-2013
▁hib	-2014
▁végre	-2015
▁miután	-2016
▁viszony	-2017
hetnek	-2018
▁szakember	-2019
száz	-2020
▁nyújt	-2021
▁szerződés	-2022
űjt	-2023
hogy	-2024
▁szerv	-2025
▁Rend	-2026
ird	-2027
▁mit	-2028
▁Mint	-2029
▁február	-2030
▁kormányz	-2031
urg	-2032
rész	-2033
▁délután	-2034
pal	-2035
▁György	-2036
ere	-2037
▁ed	-2038
▁kir	-2039
▁nyit	-2040
▁Sport	-2041
▁fény	-2042
line	-2043
ulás	-2044
éseket	-2045
több	-2046
álni	-2047
▁ellenőr	-2048
▁vélemény	-2049
isták	-2050
ködés	-2051
▁alkotmány	-2052
▁október	-2053
▁veszt	-2054
álat	-2055
őben	-2056
▁Már	-2057
▁Sch	-2058
ann	-2059
▁maga	-2060
▁baleset	-2061
▁szép	-2062
féle	-2063
ilag	-2064
enk	-2065
▁felk	-2066
▁Vik	-2067
▁János	-2068
▁többi	-2069
▁Jobbik	-2070
üket	-2071
▁Világ	-2072
dönt	-2073
▁előző	-2074
▁feltétel	-2075
ésben	-2076
▁kért	-2077
▁vezetője	-2078
▁próbál	-2079
▁vendég	-2080
▁éj	-2081
mun	-2082
▁szakért	-2083
▁kifej	-2084
▁továbbra	-2085
▁orvos	-2086
kezd	-2087
upán	-2088
▁lány	-2089
▁hangsúly	-2090
za	-2091
▁kapcsolatban	-2092
etében	-2093
prilis	-2094
▁teljesen	-2095
▁kéz	-2096
pány	-2097
▁part	-2098
▁mégis	-2099
adásul	-2100
▁arány	-2101
▁idei	-2102
▁egészség	-2103
▁otthon	-2104
ama	-2105
▁töm	-2106
▁lem	-2107
▁elfogad	-2108
ept	-2109
ékony	-2110
hetően	-2111
▁műsor	-2112
▁világbajnok	-2113
▁része	-2114
▁legyen	-2115
olja	-2116
▁kevés	-2117
▁állít	-2118
ától	-2119
▁áld	-2120
▁befektet	-2121
ork	-2122
avar	-2123
▁kics	-2124
▁érdem	-2125
▁elkövet	-2126
▁New	-2127
szabad	-2128
éli	-2129
▁EU	-2130
igazgató	-2131
▁labd	-2132
▁konc	-2133
▁gyeng	-2134
▁jelenlegi	-2135
polit	-2136
▁port	-2137
▁reggel	-2138
ügymin	-2139
▁komoly	-2140
szk	-2141
▁vele	-2142
▁értelm	-2143
▁Nemzeti	-2144
▁szocial	-2145
▁kérd	-2146
erek	-2147
ásokat	-2148
af	-2149
dött	-2150
▁polgármester	-2151
érd	-2152
ilk	-2153
▁kult	-2154
▁szenv	-2155
▁szükséges	-2156
▁Fran	-2157
▁rendőrök	-2158
▁haszn	-2159
▁24	-2160
osabb	-2161
vonal	-2162
▁közben	-2163
▁kiem	-2164
▁kellene	-2165
uz	-2166
emp	-2167
▁Mar	-2168
▁Zrt	-2169
▁férf	-2170
▁kiad	-2171
hajt	-2172
▁energ	-2173
▁tartott	-2174
▁És	-2175
▁lel	-2176
▁ci	-2177
▁esetben	-2178
▁100	-2179
▁Val	-2180
ándor	-2181
gatás	-2182
▁utaz	-2183
▁motor	-2184
▁Zolt	-2185
▁miért	-2186
▁száma	-2187
▁ezen	-2188
▁semm	-2189
▁(2	-2190
acsony	-2191
▁szerepel	-2192
oc	-2193
efon	-2194
▁szok	-2195
▁kevesebb	-2196
▁persze	-2197
▁ül	-2198
▁Biz	-2199
nie	-2200
▁médi	-2201
▁forintos	-2202
▁30	-2203
enger	-2204
▁előre	-2205
▁BK	-2206
álló	-2207
▁benne	-2208
ősorban	-2209
▁keresked	-2210
▁Új	-2211
sága	-2212
▁het	-2213
▁tev	-2214
ségek	-2215
ására	-2216
▁pályáz	-2217
▁környezet	-2218
▁válogatott	-2219
▁Tamás	-2220
ga	-2221
▁2-	-2222
▁Ig	-2223
▁Egyesült	-2224
▁poz	-2225
▁Em	-2226
▁íg	-2227
ívül	-2228
▁érvény	-2229
tr	-2230
észség	-2231
▁jelölt	-2232
▁segítség	-2233
nék	-2234
urcs	-2235
▁támogat	-2236
ou	-2237
▁22	-2238
▁ing	-2239
attal	-2240
▁alig	-2241
▁semmi	-2242
▁ugyanakkor	-2243
ozni	-2244
▁rem	-2245
mai	-2246
rán	-2247
▁gazd	-2248
orvát	-2249
▁olimp	-2250
íti	-2251
örög	-2252
▁csupán	-2253
apitányság	-2254
ná	-2255
▁kialak	-2256
atták	-2257
▁közvet	-2258
▁köszön	-2259
iskol	-2260
rendszer	-2261
▁karácsony	-2262
▁százaléka	-2263
▁BKV	-2264
▁Ezt	-2265
ockáz	-2266
▁fegy	-2267
uló	-2268
▁tagja	-2269
ánc	-2270
▁akt	-2271
▁cikk	-2272
▁utas	-2273
▁eszköz	-2274
▁gyanús	-2275
▁újság	-2276
▁francia	-2277
▁tet	-2278
▁Német	-2279
▁kampány	-2280
▁április	-2281
fer	-2282
▁pénzügyi	-2283
▁mög	-2284
▁héten	-2285
▁összesen	-2286
▁rek	-2287
▁pl	-2288
▁tanulmány	-2289
▁vett	-2290
ileg	-2291
▁különös	-2292
ővel	-2293
▁bér	-2294
hatatlan	-2295
org	-2296
ball	-2297
▁hogyan	-2298
ian	-2299
ina	-2300
▁talán	-2301
▁Zoltán	-2302
▁lég	-2303
▁legtöbb	-2304
▁szempont	-2305
▁Ol	-2306
adék	-2307
omag	-2308
▁bőv	-2309
▁kezdőd	-2310
▁érdekében	-2311
elők	-2312
ésével	-2313
enki	-2314
▁-,	-2315
enci	-2316
▁gyógy	-2317
.)	-2318
se	-2319
▁dok	-2320
▁ell	-2321
szabály	-2322
▁jobban	-2323
▁intézmény	-2324
▁termék	-2325
▁Sp	-2326
▁épület	-2327
▁szül	-2328
men	-2329
▁csökken	-2330
atárs	-2331
eleg	-2332
élet	-2333
▁küz	-2334
anács	-2335
▁indult	-2336
▁mindenki	-2337
▁tizen	-2338
ona	-2339
▁név	-2340
gyűlés	-2341
DF	-2342
eje	-2343
elmű	-2344
▁kilom	-2345
onn	-2346
▁Viktor	-2347
▁forr	-2348
▁indok	-2349
▁Att	-2350
▁írta	-2351
zők	-2352
▁központ	-2353
▁techn	-2354
ódott	-2355
▁26	-2356
▁aztán	-2357
▁est	-2358
íp	-2359
óri	-2360
▁Kr	-2361
ármaz	-2362
▁tevékeny	-2363
meg	-2364
ozik	-2365
▁klub	-2366
▁pill	-2367
▁ezelőtt	-2368
örös	-2369
▁siker	-2370
álták	-2371
▁elkép	-2372
▁katon	-2373
▁Józs	-2374
▁meglep	-2375
▁döntött	-2376
gol	-2377
észeti	-2378
▁w	-2379
engyel	-2380
ítottak	-2381
beli	-2382
átette	-2383
átor	-2384
▁gyárt	-2385
▁Ki	-2386
▁uniós	-2387
▁modell	-2388
▁lény	-2389
ulat	-2390
róf	-2391
kívül	-2392
▁irod	-2393
ólag	-2394
▁bárm	-2395
akt	-2396
▁állás	-2397
▁intézked	-2398
▁elsősorban	-2399
9-	-2400
▁Itthon	-2401
get	-2402
▁fal	-2403
raj	-2404
▁állt	-2405
▁fot	-2406
▁Re	-2407
ument	-2408
▁elején	-2409
▁hav	-2410
▁mer	-2411
▁kiz	-2412
▁épít	-2413
szervezet	-2414
▁ex	-2415
▁im	-2416
oha	-2417
ségét	-2418
ományos	-2419
víz	-2420
ezon	-2421
irdet	-2422
van	-2423
▁sőt	-2424
▁maradt	-2425
▁olasz	-2426
▁vagyis	-2427
éni	-2428
▁látt	-2429
▁tulajdonos	-2430
gazdaság	-2431
▁21	-2432
ései	-2433
▁állapot	-2434
▁Hír	-2435
▁felf	-2436
▁Bár	-2437
▁közötti	-2438
▁történet	-2439
ódik	-2440
tatási	-2441
▁keresztül	-2442
ágy	-2443
▁vagyok	-2444
rál	-2445
▁származ	-2446
énk	-2447
ezik	-2448
▁évi	-2449
io	-2450
▁egyed	-2451
▁kísér	-2452
▁különböző	-2453
▁tapasztal	-2454
uális	-2455
örtén	-2456
▁vezér	-2457
▁péntek	-2458
▁esemény	-2459
▁Európa	-2460
▁József	-2461
▁számos	-2462
▁MDF	-2463
▁nemzeti	-2464
ansz	-2465
iről	-2466
▁külföldi	-2467
zetes	-2468
▁felé	-2469
▁lehetett	-2470
éteres	-2471
▁kockáz	-2472
▁Ugyan	-2473
ila	-2474
éves	-2475
▁mozg	-2476
ásával	-2477
▁András	-2478
ner	-2479
▁spanyol	-2480
▁módon	-2481
▁Index	-2482
▁Bar	-2483
ású	-2484
sért	-2485
▁akad	-2486
▁jutott	-2487
▁munkatárs	-2488
Sz	-2489
ítják	-2490
oldal	-2491
▁nemcsak	-2492
▁str	-2493
▁3-	-2494
óban	-2495
▁23	-2496
iaci	-2497
▁tervez	-2498
őként	-2499
▁honlap	-2500
ocsát	-2501
értelmű	-2502
szint	-2503
▁magyaráz	-2504
apír	-2505
álta	-2506
▁óra	-2507
▁közé	-2508
íl	-2509
log	-2510
usok	-2511
▁nőtt	-2512
örvény	-2513
▁bek	-2514
▁had	-2515
▁akart	-2516
▁ellát	-2517
▁esetében	-2518
ey	-2519
▁Rendőr	-2520
váj	-2521
andó	-2522
▁list	-2523
ésének	-2524
sem	-2525
▁ap	-2526
jára	-2527
▁Uni	-2528
▁azaz	-2529
▁alacsony	-2530
▁szolgáltatás	-2531
rec	-2532
▁eml	-2533
▁Ennek	-2534
fok	-2535
ereség	-2536
űt	-2537
emt	-2538
jelen	-2539
áson	-2540
ekkor	-2541
▁Nép	-2542
▁egykori	-2543
idék	-2544
▁Sándor	-2545
▁szakasz	-2546
ozza	-2547
világ	-2548
▁közep	-2549
▁súlyos	-2550
▁kutatás	-2551
zik	-2552
óg	-2553
vég	-2554
olták	-2555
udapesti	-2556
lőd	-2557
▁darab	-2558
▁bele	-2559
erő	-2560
▁valami	-2561
▁felhasznál	-2562
jut	-2563
▁Ma	-2564
▁pénzt	-2565
eptember	-2566
▁teljesítmény	-2567
II	-2568
akar	-2569
▁vill	-2570
▁kilenc	-2571
▁visszat	-2572
▁valaki	-2573
▁Van	-2574
▁dokument	-2575
▁budapesti	-2576
őle	-2577
▁ők	-2578
óval	-2579
▁mély	-2580
rom	-2581
▁terj	-2582
ente	-2583
jával	-2584
nyire	-2585
▁szor	-2586
▁demokr	-2587
▁Így	-2588
▁azokat	-2589
oy	-2590
atikus	-2591
▁lényeg	-2592
▁mérkőzés	-2593
▁szóvivője	-2594
ie	-2595
▁adatok	-2596
▁képes	-2597
▁Két	-2598
▁Min	-2599
▁Megy	-2600
▁független	-2601
par	-2602
▁tém	-2603
óknak	-2604
▁addig	-2605
▁egyetem	-2606
▁lakosság	-2607
ekv	-2608
rák	-2609
oltak	-2610
▁Több	-2611
▁régi	-2612
▁években	-2613
ham	-2614
sa	-2615
und	-2616
zó	-2617
▁eur	-2618
eteg	-2619
▁jött	-2620
▁megjelent	-2621
kör	-2622
elik	-2623
▁kínai	-2624
▁kezdemény	-2625
▁2.	-2626
▁okoz	-2627
fők	-2628
szem	-2629
ival	-2630
csoport	-2631
▁lass	-2632
bel	-2633
millió	-2634
▁jellem	-2635
▁cent	-2636
▁se	-2637
▁Kft	-2638
fordul	-2639
▁végzett	-2640
etek	-2641
▁dob	-2642
▁vér	-2643
eztek	-2644
▁színész	-2645
egény	-2646
▁ahhoz	-2647
▁egyértelmű	-2648
▁fell	-2649
▁fogalmazott	-2650
ler	-2651
ékes	-2652
▁kár	-2653
▁múl	-2654
▁2010-	-2655
akció	-2656
▁Vas	-2657
▁nők	-2658
▁szezon	-2659
atokat	-2660
▁Még	-2661
▁ideg	-2662
▁megm	-2663
▁nevű	-2664
▁beruház	-2665
evő	-2666
▁Rom	-2667
aként	-2668
iklós	-2669
▁Gazdaság	-2670
úra	-2671
▁kapcsolatos	-2672
8.	-2673
anszír	-2674
50	-2675
ivatal	-2676
ítése	-2677
össze	-2678
▁ülés	-2679
ung	-2680
▁szerencs	-2681
ója	-2682
elen	-2683
▁idején	-2684
▁osztály	-2685
▁tömeg	-2686
▁tudott	-2687
▁rendkívül	-2688
tiz	-2689
000	-2690
vállal	-2691
▁angol	-2692
▁nehez	-2693
▁többször	-2694
▁Fel	-2695
▁Ad	-2696
▁hajt	-2697
▁gyűjt	-2698
30	-2699
▁férfit	-2700
▁szombaton	-2701
▁vonatkozó	-2702
20	-2703
▁Ed	-2704
elték	-2705
keres	-2706
eik	-2707
nyal	-2708
atott	-2709
▁2009-	-2710
rid	-2711
▁Kar	-2712
éig	-2713
ocsi	-2714
zése	-2715
párt	-2716
einek	-2717
▁járt	-2718
▁támad	-2719
▁tartalmaz	-2720
eum	-2721
our	-2722
olog	-2723
▁érkezett	-2724
▁50	-2725
lési	-2726
▁sokat	-2727
▁részvény	-2728
▁választási	-2729
orm	-2730
ővé	-2731
▁valószínűleg	-2732
már	-2733
▁becs	-2734
ásának	-2735
▁mögött	-2736
jelölt	-2737
▁Mol	-2738
▁választások	-2739
erv	-2740
edik	-2741
ash	-2742
ideg	-2743
eltek	-2744
,8	-2745
▁nál	-2746
cselek	-2747
▁2008-	-2748
▁valóban	-2749
▁elképzel	-2750
era	-2751
obil	-2752
▁tr	-2753
▁mindent	-2754
sp	-2755
▁napon	-2756
▁kutat	-2757
ósság	-2758
▁jön	-2759
oss	-2760
▁rög	-2761
▁korlát	-2762
▁árfoly	-2763
▁gyakorlat	-2764
▁Ő	-2765
émi	-2766
▁Per	-2767
▁titk	-2768
▁született	-2769
irt	-2770
arúg	-2771
▁húsz	-2772
▁módos	-2773
asztróf	-2774
▁szeptember	-2775
▁esett	-2776
ust	-2777
▁döntés	-2778
▁látható	-2779
▁akit	-2780
enes	-2781
▁mai	-2782
▁felett	-2783
,7	-2784
ájuk	-2785
▁buk	-2786
▁Attila	-2787
▁megbíz	-2788
▁olvasható	-2789
▁század	-2790
▁meghatár	-2791
▁ingatlan	-2792
tunk	-2793
▁fed	-2794
ájában	-2795
▁országos	-2796
ack	-2797
urális	-2798
étt	-2799
▁forgalom	-2800
ánál	-2801
▁Országos	-2802
▁sorozat	-2803
,6	-2804
ce	-2805
ajos	-2806
▁oda	-2807
▁Megyei	-2808
fl	-2809
▁nyelv	-2810
▁élő	-2811
▁ellenzék	-2812
ológiai	-2813
▁lő	-2814
▁tudta	-2815
▁kárt	-2816
▁előny	-2817
▁senki	-2818
,2	-2819
▁női	-2820
▁utal	-2821
▁Zsolt	-2822
▁szerk	-2823
▁teszt	-2824
▁tudom	-2825
▁tartja	-2826
▁dokumentum	-2827
ölcs	-2828
▁őt	-2829
▁Csak	-2830
ff	-2831
▁Ant	-2832
részt	-2833
▁megny	-2834
▁teszi	-2835
▁ráadásul	-2836
▁hivatalos	-2837
kr	-2838
evíz	-2839
tatta	-2840
usban	-2841
▁csúcs	-2842
ca	-2843
▁For	-2844
qu	-2845
▁Kov	-2846
▁hatalmas	-2847
sd	-2848
úgy	-2849
íció	-2850
▁Kor	-2851
▁miközben	-2852
▁korr	-2853
▁Ber	-2854
ultak	-2855
▁kommun	-2856
▁kiderült	-2857
▁parlamenti	-2858
str	-2859
atát	-2860
▁kelet	-2861
ezi	-2862
jön	-2863
ódó	-2864
étől	-2865
▁küzd	-2866
▁megszer	-2867
▁szerzett	-2868
álja	-2869
▁jelentkez	-2870
esül	-2871
▁felv	-2872
▁Man	-2873
▁pan	-2874
▁krit	-2875
▁beszélt	-2876
▁futball	-2877
▁megállapod	-2878
▁198	-2879
almat	-2880
▁összes	-2881
gyek	-2882
▁bűncselek	-2883
osztály	-2884
zott	-2885
▁azóta	-2886
▁mondja	-2887
▁várhatóan	-2888
▁költségvetési	-2889
▁On	-2890
▁embert	-2891
▁országban	-2892
écs	-2893
olcs	-2894
▁idéz	-2895
▁kicsit	-2896
úttal	-2897
▁terh	-2898
ellett	-2899
▁tudni	-2900
áért	-2901
▁alk	-2902
▁vide	-2903
▁együttmű	-2904
▁megjelen	-2905
▁tűnik	-2906
örtön	-2907
▁esetén	-2908
ái	-2909
▁arany	-2910
▁tartó	-2911
,9	-2912
utatás	-2913
ier	-2914
burg	-2915
▁Miklós	-2916
▁pillan	-2917
▁eljárás	-2918
▁0	-2919
bil	-2920
lét	-2921
▁engedély	-2922
onal	-2923
▁feny	-2924
▁többek	-2925
▁többet	-2926
▁Igaz	-2927
▁telefon	-2928
▁folyamatosan	-2929
akoz	-2930
eszél	-2931
ítették	-2932
▁sajtót	-2933
jen	-2934
itás	-2935
▁ról	-2936
lődés	-2937
▁felső	-2938
▁forin	-2939
▁harc	-2940
▁koll	-2941
▁térség	-2942
gr	-2943
▁4-	-2944
▁40	-2945
▁BL	-2946
ancs	-2947
▁távol	-2948
nyugdíj	-2949
▁eddigi	-2950
▁tur	-2951
▁alkalom	-2952
titk	-2953
▁mindössze	-2954
aba	-2955
▁ab	-2956
▁Kár	-2957
▁Nap	-2958
▁megelő	-2959
▁jogszabály	-2960
▁tenni	-2961
▁befoly	-2962
óra	-2963
ítva	-2964
▁Most	-2965
▁ellent	-2966
úli	-2967
▁egyet	-2968
▁op	-2969
▁[	-2970
mód	-2971
▁Leg	-2972
▁méter	-2973
▁felmér	-2974
▁feleség	-2975
▁3.	-2976
▁br	-2977
film	-2978
▁fiz	-2979
jének	-2980
hetik	-2981
▁hamar	-2982
▁vizsgálat	-2983
ekről	-2984
áború	-2985
▁nyilvánosság	-2986
,4	-2987
ity	-2988
▁ének	-2989
▁elekt	-2990
,3	-2991
szel	-2992
▁vegy	-2993
▁ur	-2994
tized	-2995
▁legf	-2996
▁dolgozó	-2997
emet	-2998
úzeum	-2999
▁York	-3000
▁ég	-3001
apán	-3002
▁Mad	-3003
▁lez	-3004
janak	-3005
▁akinek	-3006
▁munkav	-3007
▁megerős	-3008
▁Budapesten	-3009
▁tájékoztatás	-3010
.:	-3011
edt	-3012
▁fenntart	-3013
ker	-3014
tuk	-3015
▁at	-3016
iában	-3017
,1	-3018
állam	-3019
elmet	-3020
nökség	-3021
vá	-3022
sen	-3023
▁mut	-3024
▁végig	-3025
▁Bel	-3026
▁Car	-3027
szolgált	-3028
▁szereplő	-3029
főkapitányság	-3030
una	-3031
eként	-3032
▁egyéni	-3033
ota	-3034
▁1.	-3035
▁jelenti	-3036
▁forinttal	-3037
ry	-3038
néz	-3039
▁Mag	-3040
▁elb	-3041
▁hivatkoz	-3042
pár	-3043
▁annyira	-3044
▁Pet	-3045
eznek	-3046
illag	-3047
▁Inter	-3048
általán	-3049
kék	-3050
ebben	-3051
vájci	-3052
▁Hogy	-3053
ttól	-3054
▁figyelem	-3055
▁kilométer	-3056
▁Úgy	-3057
játék	-3058
tabil	-3059
▁szöv	-3060
rag	-3061
▁Kín	-3062
▁Lig	-3063
▁észak	-3064
▁környék	-3065
▁előzetes	-3066
▁javaslat	-3067
éve	-3068
polgár	-3069
▁Lajos	-3070
ikat	-3071
▁kal	-3072
áltak	-3073
▁szerződ	-3074
▁amelyben	-3075
▁informáci	-3076
▁Im	-3077
▁menny	-3078
▁éjszak	-3079
▁módszer	-3080
▁Ér	-3081
▁ajánl	-3082
▁tudós	-3083
au	-3084
▁assz	-3085
▁szövet	-3086
▁szakmai	-3087
▁önkormányzat	-3088
izál	-3089
▁proj	-3090
▁román	-3091
urcsány	-3092
MP	-3093
álóz	-3094
▁seb	-3095
▁zaj	-3096
▁mostani	-3097
man	-3098
▁nyilatkozta	-3099
▁költségvetés	-3100
.),	-3101
hatják	-3102
▁cégek	-3103
▁fidesz	-3104
▁negyedik	-3105
▁idős	-3106
▁vette	-3107
▁meghal	-3108
iát	-3109
önyv	-3110
▁Hozz	-3111
▁egymás	-3112
ezz	-3113
inte	-3114
▁vagyon	-3115
ontosabb	-3116
▁igazság	-3117
▁vagyunk	-3118
▁biztonsági	-3119
0-1	-3120
anad	-3121
olják	-3122
▁szom	-3123
▁mindkét	-3124
ázis	-3125
▁óri	-3126
lenül	-3127
▁azonos	-3128
▁időben	-3129
▁finanszír	-3130
▁hatóságok	-3131
hetett	-3132
▁börtön	-3133
▁Egyetem	-3134
osok	-3135
▁lenni	-3136
hol	-3137
lám	-3138
▁baj	-3139
atban	-3140
▁belső	-3141
ián	-3142
▁2011-	-3143
▁évtized	-3144
▁beszám	-3145
orú	-3146
▁Ro	-3147
▁húz	-3148
▁felül	-3149
▁részét	-3150
▁sí	-3151
▁hit	-3152
▁cser	-3153
▁sokan	-3154
▁település	-3155
jog	-3156
raz	-3157
berg	-3158
▁fehér	-3159
elj	-3160
▁ígér	-3161
séggel	-3162
▁ügyben	-3163
▁érintett	-3164
▁különösen	-3165
ügyminiszter	-3166
▁munkahely	-3167
▁jég	-3168
▁örök	-3169
nevezett	-3170
▁visszav	-3171
égy	-3172
▁ős	-3173
▁kin	-3174
▁Mich	-3175
▁elad	-3176
ereg	-3177
▁máj	-3178
ípus	-3179
elleg	-3180
SA	-3181
▁hull	-3182
▁Minden	-3183
▁bevezet	-3184
▁eh	-3185
▁fővárosi	-3186
▁népszerű	-3187
▁Online	-3188
▁Ezek	-3189
▁szlovák	-3190
▁figyelmet	-3191
ötte	-3192
tette	-3193
tatott	-3194
▁hosszabb	-3195
▁biztonság	-3196
▁elé	-3197
▁legutó	-3198
▁szex	-3199
ándék	-3200
▁egyáltalán	-3201
▁szét	-3202
▁tervezett	-3203
oszk	-3204
▁mező	-3205
szerep	-3206
ítását	-3207
▁Orosz	-3208
▁Gyurcsány	-3209
if	-3210
▁legk	-3211
▁dolog	-3212
▁igyek	-3213
▁államtitk	-3214
▁információ	-3215
▁dí	-3216
▁rak	-3217
okból	-3218
▁internet	-3219
▁szervez	-3220
▁agy	-3221
szabadság	-3222
▁hí	-3223
▁évre	-3224
▁számító	-3225
▁kijelent	-3226
szó	-3227
▁Eg	-3228
enet	-3229
hang	-3230
▁lakás	-3231
▁történelmi	-3232
űk	-3233
hess	-3234
▁Pál	-3235
▁labdarúg	-3236
▁rendezvény	-3237
▁kateg	-3238
DP	-3239
ick	-3240
eltet	-3241
▁sért	-3242
▁bevétel	-3243
helyett	-3244
▁legfontosabb	-3245
▁Th	-3246
▁konz	-3247
▁zárt	-3248
▁jóval	-3249
▁minőség	-3250
▁kísérlet	-3251
▁hangsúlyozta	-3252
▁Ham	-3253
▁emberi	-3254
▁interj	-3255
▁általában	-3256
▁szocialista	-3257
▁őrizet	-3258
▁egyedül	-3259
▁pontosan	-3260
éért	-3261
▁agg	-3262
▁erről	-3263
▁jövőre	-3264
▁természetesen	-3265
▁óv	-3266
ciós	-3267
ekete	-3268
▁tavalyi	-3269
iplom	-3270
▁felvétel	-3271
▁testület	-3272
ox	-3273
▁Kap	-3274
▁gar	-3275
▁robb	-3276
▁lesznek	-3277
▁bizonyos	-3278
▁épp	-3279
etett	-3280
▁tehet	-3281
▁érdemes	-3282
▁magasabb	-3283
élt	-3284
adta	-3285
▁azonnal	-3286
nőtt	-3287
▁Tim	-3288
▁hideg	-3289
▁Ebb	-3290
▁The	-3291
▁kib	-3292
▁maguk	-3293
▁lehetne	-3294
ford	-3295
▁Kis	-3296
valós	-3297
▁folyó	-3298
▁kutató	-3299
▁kötelező	-3300
bizt	-3301
zési	-3302
▁rab	-3303
▁svájci	-3304
▁Bizottság	-3305
öny	-3306
▁király	-3307
▁pontos	-3308
▁található	-3309
fér	-3310
▁busz	-3311
▁küld	-3312
▁csinál	-3313
▁kényszer	-3314
▁Be	-3315
▁Dr	-3316
▁várt	-3317
felé	-3318
örök	-3319
▁ekkor	-3320
▁Horvát	-3321
▁csomag	-3322
▁tudják	-3323
▁összef	-3324
▁jövőben	-3325
ij	-3326
igo	-3327
▁Elő	-3328
inkább	-3329
▁egészen	-3330
▁sikeres	-3331
perc	-3332
▁Szent	-3333
gyűlési	-3334
▁tűzolt	-3335
▁sajtótájékoz	-3336
DSZ	-3337
▁tenger	-3338
áns	-3339
▁Géz	-3340
ainak	-3341
▁repül	-3342
▁sérült	-3343
▁csatlak	-3344
▁lit	-3345
▁kutatók	-3346
vil	-3347
üst	-3348
ozók	-3349
▁jogi	-3350
▁helyre	-3351
▁hozott	-3352
▁közölt	-3353
őzsd	-3354
▁bíz	-3355
▁Amer	-3356
▁jármű	-3357
▁Kovács	-3358
bé	-3359
ood	-3360
tes	-3361
▁Gr	-3362
ónak	-3363
▁nyí	-3364
▁hátt	-3365
foglal	-3366
hatott	-3367
▁találtak	-3368
ine	-3369
▁tor	-3370
veszt	-3371
ítási	-3372
▁megvalós	-3373
▁prod	-3374
▁nekik	-3375
bíróság	-3376
▁felügy	-3377
utas	-3378
▁Sok	-3379
▁edző	-3380
ítható	-3381
▁fogja	-3382
ételt	-3383
▁jöved	-3384
▁igazán	-3385
▁Sh	-3386
▁kormányfő	-3387
képpen	-3388
áris	-3389
▁dev	-3390
▁2010	-3391
álisan	-3392
▁készített	-3393
adik	-3394
ciót	-3395
egyen	-3396
▁piaci	-3397
Az	-3398
▁soha	-3399
tan	-3400
áron	-3401
▁bev	-3402
ákkal	-3403
▁kapcs	-3404
▁igazgatója	-3405
▁internetes	-3406
▁28	-3407
alma	-3408
▁arc	-3409
▁érz	-3410
▁Géza	-3411
▁szándék	-3412
▁Ü	-3413
ala	-3414
ula	-3415
▁adta	-3416
▁szór	-3417
harmad	-3418
szerző	-3419
▁friss	-3420
▁elismer	-3421
▁úgynevezett	-3422
ism	-3423
átum	-3424
▁Var	-3425
nének	-3426
szaki	-3427
▁kont	-3428
▁célja	-3429
▁Tanács	-3430
▁alakul	-3431
bev	-3432
onc	-3433
▁vág	-3434
▁zen	-3435
▁gyak	-3436
▁családi	-3437
▁mes	-3438
ajnos	-3439
▁menet	-3440
▁szenved	-3441
▁többség	-3442
▁negyedév	-3443
faj	-3444
▁fest	-3445
▁zöld	-3446
▁Szabó	-3447
▁minős	-3448
▁poszt	-3449
attak	-3450
▁Bank	-3451
▁idők	-3452
▁megvált	-3453
▁játszott	-3454
idő	-3455
ítást	-3456
▁infl	-3457
▁forrás	-3458
▁feladat	-3459
▁prof	-3460
▁áldoz	-3461
élemény	-3462
▁beszéd	-3463
▁meleg	-3464
▁tudnak	-3465
▁napokban	-3466
▁társadalmi	-3467
úk	-3468
ekvő	-3469
ilap	-3470
▁köny	-3471
▁igazi	-3472
▁elkész	-3473
▁szerinte	-3474
▁vad	-3475
▁döntő	-3476
▁érzék	-3477
▁társadalom	-3478
▁segítségével	-3479
▁egészségügyi	-3480
▁róla	-3481
hatunk	-3482
▁2006-	-3483
▁tartóz	-3484
odik	-3485
▁35	-3486
▁szav	-3487
▁mobil	-3488
▁szolgál	-3489
hi	-3490
eri	-3491
▁Joh	-3492
ájának	-3493
▁ehhez	-3494
▁kötött	-3495
▁lengyel	-3496
gazdasági	-3497
▁fideszes	-3498
▁magyarországi	-3499
ilt	-3500
▁Cl	-3501
▁hő	-3502
▁LMP	-3503
kezett	-3504
▁ebből	-3505
rab	-3506
ondoni	-3507
ulcs	-3508
vizsgál	-3509
▁délelőtt	-3510
▁29	-3511
▁pil	-3512
▁Ezzel	-3513
▁részben	-3514
usi	-3515
ásos	-3516
érte	-3517
▁Tib	-3518
BC	-3519
rá	-3520
atta	-3521
belül	-3522
▁diák	-3523
▁harm	-3524
usztrál	-3525
▁diplom	-3526
▁megtal	-3527
▁kétszer	-3528
var	-3529
ital	-3530
▁ára	-3531
oldali	-3532
társ	-3533
▁Mil	-3534
oldog	-3535
▁Központ	-3536
ore	-3537
úni	-3538
okról	-3539
kotmány	-3540
▁átalak	-3541
▁mennyiség	-3542
▁választók	-3543
ebrec	-3544
ozása	-3545
▁attól	-3546
kan	-3547
nyel	-3548
▁Mivel	-3549
▁jelentősen	-3550
▁KA	-3551
▁ri	-3552
itív	-3553
száll	-3554
▁feld	-3555
▁megf	-3556
▁ismeretlen	-3557
ach	-3558
▁minisztérium	-3559
ener	-3560
íték	-3561
▁Államok	-3562
▁Kül	-3563
▁Tud	-3564
▁köszönhetően	-3565
▁vége	-3566
▁remény	-3567
▁életét	-3568
▁visszatér	-3569
▁általános	-3570
ium	-3571
osszabb	-3572
▁erősöd	-3573
▁működés	-3574
▁létrehoz	-3575
haj	-3576
eleti	-3577
onnan	-3578
origo	-3579
▁időt	-3580
▁keretében	-3581
co	-3582
ael	-3583
forg	-3584
▁láb	-3585
ozást	-3586
▁Kl	-3587
hagy	-3588
▁szob	-3589
enként	-3590
ökkent	-3591
▁meggy	-3592
alk	-3593
▁Dél	-3594
olv	-3595
munk	-3596
zések	-3597
▁szék	-3598
▁Más	-3599
▁eny	-3600
ennél	-3601
▁elők	-3602
▁ezeket	-3603
▁osztrák	-3604
▁éd	-3605
vesz	-3606
abban	-3607
com	-3608
▁Il	-3609
▁Ir	-3610
odott	-3611
ünket	-3612
▁civil	-3613
ítan	-3614
nának	-3615
őknek	-3616
várium	-3617
▁leginkább	-3618
olf	-3619
nyom	-3620
▁téli	-3621
onttal	-3622
▁forintra	-3623
▁értékesít	-3624
▁megfelelően	-3625
házy	-3626
ádió	-3627
▁köl	-3628
▁mintha	-3629
▁stabil	-3630
▁eredeti	-3631
▁of	-3632
takar	-3633
▁köztük	-3634
▁hasonlóan	-3635
-,	-3636
▁Un	-3637
▁elkezd	-3638
▁alkalommal	-3639
▁állampolgár	-3640
oft	-3641
ror	-3642
atók	-3643
▁úton	-3644
▁csaknem	-3645
▁tényleg	-3646
2.	-3647
▁Antik	-3648
▁egyház	-3649
▁munkan	-3650
▁Föld	-3651
kodó	-3652
▁ölt	-3653
pénzt	-3654
▁prób	-3655
▁papír	-3656
ügynökség	-3657
ini	-3658
ivat	-3659
▁írt	-3660
▁vitt	-3661
ennyiben	-3662
fejleszt	-3663
▁felkész	-3664
:4	-3665
res	-3666
atait	-3667
▁reag	-3668
ságban	-3669
▁reform	-3670
▁At	-3671
artóz	-3672
hatók	-3673
▁napi	-3674
▁vizsg	-3675
▁Amikor	-3676
▁vereség	-3677
red	-3678
▁500	-3679
cz	-3680
esi	-3681
igy	-3682
upa	-3683
▁SZ	-3684
▁bot	-3685
▁Debrec	-3686
▁férfiak	-3687
▁országgyűlési	-3688
úti	-3689
▁bü	-3690
jebb	-3691
▁hétvég	-3692
▁százalékát	-3693
sé	-3694
ásai	-3695
arcel	-3696
▁jogos	-3697
▁sincs	-3698
▁londoni	-3699
bank	-3700
▁kim	-3701
ogató	-3702
▁gólt	-3703
▁közz	-3704
▁akció	-3705
ova	-3706
▁font	-3707
▁rang	-3708
▁megpr	-3709
▁hátrány	-3710
▁katasztróf	-3711
höz	-3712
écsi	-3713
▁cig	-3714
▁löv	-3715
elése	-3716
▁Vagy	-3717
▁minim	-3718
▁Főváros	-3719
▁mértékben	-3720
▁Ob	-3721
▁197	-3722
ektől	-3723
szich	-3724
▁Hozzátette	-3725
edv	-3726
ítik	-3727
▁haza	-3728
▁kemény	-3729
▁felnőtt	-3730
▁kezelés	-3731
▁Antikvárium	-3732
▁Id	-3733
issz	-3734
ásnak	-3735
▁tagjai	-3736
üv	-3737
▁szár	-3738
▁mikor	-3739
▁portál	-3740
▁szerda	-3741
▁szöveg	-3742
ilkosság	-3743
▁Hivatal	-3744
▁megrend	-3745
▁működik	-3746
▁szabadság	-3747
öp	-3748
▁tök	-3749
▁sztr	-3750
▁felhív	-3751
▁tiltak	-3752
▁védelm	-3753
▁kapcsán	-3754
▁összefügg	-3755
▁Ph	-3756
ered	-3757
ölgy	-3758
▁Győr	-3759
▁havi	-3760
▁Par	-3761
élyes	-3762
▁Csaba	-3763
▁gyógyszer	-3764
▁emelkedett	-3765
▁önkormányzati	-3766
.-	-3767
köt	-3768
fokú	-3769
krét	-3770
esztő	-3771
▁lőtt	-3772
ásában	-3773
▁esetleg	-3774
▁kommunik	-3775
ence	-3776
▁Cím	-3777
uguszt	-3778
▁rajta	-3779
▁hirdet	-3780
▁idegen	-3781
▁asszony	-3782
évén	-3783
▁közön	-3784
▁vörös	-3785
▁ütköz	-3786
▁gyakran	-3787
▁Alkotmány	-3788
úd	-3789
fehér	-3790
ákban	-3791
▁eltér	-3792
▁feljelent	-3793
▁benn	-3794
▁előbb	-3795
▁kötet	-3796
▁munkát	-3797
adók	-3798
közel	-3799
▁sérül	-3800
ítására	-3801
▁hozzát	-3802
▁együttes	-3803
jén	-3804
ecsk	-3805
énnyel	-3806
▁kamat	-3807
▁zavar	-3808
hatóság	-3809
▁jelleg	-3810
▁gyorsan	-3811
▁lehetővé	-3812
▁letartóz	-3813
▁szövetség	-3814
▁íz	-3815
▁eredet	-3816
▁megkérd	-3817
▁mindenk	-3818
▁projekt	-3819
per	-3820
ünet	-3821
külön	-3822
▁többen	-3823
▁országok	-3824
▁drág	-3825
▁győzelem	-3826
óth	-3827
zést	-3828
▁2008	-3829
▁blog	-3830
▁javasl	-3831
▁kifizet	-3832
▁szombat	-3833
ádi	-3834
▁5-	-3835
▁érte	-3836
▁remek	-3837
▁előtti	-3838
4.	-3839
hass	-3840
▁Alap	-3841
▁olaj	-3842
▁görög	-3843
▁típus	-3844
▁szinten	-3845
íts	-3846
▁Mű	-3847
▁on	-3848
▁Bor	-3849
▁benz	-3850
▁kedvez	-3851
jú	-3852
▁kuty	-3853
▁norm	-3854
aks	-3855
▁hajn	-3856
árólag	-3857
▁deviz	-3858
3.	-3859
otó	-3860
áján	-3861
▁Kat	-3862
▁tők	-3863
▁reng	-3864
▁temp	-3865
▁júni	-3866
▁múlva	-3867
▁biztosan	-3868
▁őrizetbe	-3869
▁vezérigazgató	-3870
"-	-3871
▁Fő	-3872
part	-3873
▁jutt	-3874
▁védek	-3875
▁kezdett	-3876
▁tartják	-3877
▁jellemző	-3878
▁árfolyam	-3879
:1	-3880
ara	-3881
▁amíg	-3882
▁rajt	-3883
▁takar	-3884
▁annyit	-3885
▁tudjuk	-3886
▁ügyvéd	-3887
▁állítólag	-3888
tem	-3889
vér	-3890
ányi	-3891
▁Károly	-3892
▁kategóri	-3893
▁vállalat	-3894
▁lehetőséget	-3895
lex	-3896
▁egymást	-3897
▁körülbelül	-3898
▁nyilvánosságra	-3899
▁Nyug	-3900
▁ideje	-3901
▁televíz	-3902
▁kulturális	-3903
da	-3904
▁eszt	-3905
▁magyarok	-3906
gazd	-3907
▁Hal	-3908
▁iránt	-3909
▁kapitány	-3910
kos	-3911
▁Ró	-3912
▁Jan	-3913
aszkod	-3914
▁Címkék	-3915
ológia	-3916
▁hatékony	-3917
pad	-3918
▁Mc	-3919
ényi	-3920
járás	-3921
▁megyében	-3922
▁Go	-3923
▁Imre	-3924
mérsék	-3925
verseny	-3926
▁büntető	-3927
ue	-3928
uzs	-3929
elyik	-3930
magas	-3931
▁kapu	-3932
ington	-3933
▁főleg	-3934
▁körében	-3935
▁végrehajt	-3936
▁Nemzetközi	-3937
cel	-3938
ödik	-3939
jenek	-3940
▁gyanú	-3941
▁erőszak	-3942
junk	-3943
védő	-3944
▁Sim	-3945
döntő	-3946
▁svéd	-3947
▁Tibor	-3948
▁ideig	-3949
▁választás	-3950
tér	-3951
▁195	-3952
▁Vég	-3953
▁hány	-3954
▁okozott	-3955
▁politik	-3956
▁gyerekek	-3957
▁szociális	-3958
▁bűncselekmény	-3959
űnt	-3960
▁Ab	-3961
▁Is	-3962
▁Ben	-3963
▁bék	-3964
▁sors	-3965
▁kölcs	-3966
▁helyet	-3967
:2	-3968
▁űr	-3969
niuk	-3970
▁mon	-3971
bizton	-3972
▁résztv	-3973
!!	-3974
NP	-3975
▁fáj	-3976
▁Unió	-3977
▁ennél	-3978
▁sérülés	-3979
▁olimpiai	-3980
▁kizárólag	-3981
▁60	-3982
öntet	-3983
▁venni	-3984
▁Bíróság	-3985
▁befolyás	-3986
▁kiállítás	-3987
▁szenvedett	-3988
▁lop	-3989
unkat	-3990
▁Francia	-3991
öket	-3992
ókkal	-3993
▁nemr	-3994
▁olcs	-3995
szerint	-3996
▁pályán	-3997
ukt	-3998
elly	-3999
▁járó	-4000
▁államtitkár	-4001
ugál	-4002
való	-4003
▁ruh	-4004
▁adósság	-4005
▁látvány	-4006
ébb	-4007
ológus	-4008
▁leveg	-4009
széd	-4010
kodás	-4011
övezet	-4012
▁világh	-4013
▁Országgyűlés	-4014
▁Te	-4015
fogy	-4016
árul	-4017
▁lelk	-4018
▁ajánd	-4019
választ	-4020
▁indított	-4021
▁Budapesti	-4022
▁munkavállal	-4023
ux	-4024
irat	-4025
▁300	-4026
▁eurót	-4027
▁sztráj	-4028
▁szerdai	-4029
mérséklet	-4030
▁Fővárosi	-4031
autó	-4032
jait	-4033
▁Ily	-4034
ekből	-4035
▁áram	-4036
▁futam	-4037
▁magam	-4038
kormány	-4039
▁legfel	-4040
érm	-4041
abda	-4042
▁ant	-4043
tatiszt	-4044
▁frakció	-4045
koló	-4046
ációt	-4047
▁akadály	-4048
▁vb	-4049
alon	-4050
szig	-4051
▁pal	-4052
▁hord	-4053
▁2007-	-4054
▁Balázs	-4055
▁Szeged	-4056
▁körüli	-4057
írt	-4058
▁lemond	-4059
▁auguszt	-4060
▁elkövetett	-4061
ori	-4062
▁45	-4063
▁ág	-4064
gond	-4065
▁pót	-4066
▁felsz	-4067
▁keddi	-4068
▁strat	-4069
politikai	-4070
dik	-4071
ita	-4072
piac	-4073
apcsol	-4074
▁index	-4075
▁centim	-4076
▁terjed	-4077
▁tartani	-4078
elnek	-4079
isztr	-4080
▁komp	-4081
▁sziget	-4082
▁növekedés	-4083
▁Port	-4084
▁ötlet	-4085
▁kormányzati	-4086
▁körülmények	-4087
▁Bl	-4088
ítanak	-4089
▁megkezd	-4090
▁szellem	-4091
▁fenyeget	-4092
▁emlékeztet	-4093
0)	-4094
▁GDP	-4095
álkoz	-4096
▁édes	-4097
▁média	-4098
▁száml	-4099
▁állat	-4100
▁lépett	-4101
keresked	-4102
▁továbbá	-4103
▁36	-4104
▁Dav	-4105
ezése	-4106
▁Persze	-4107
▁ezúttal	-4108
▁ellentét	-4109
▁tartozik	-4110
óbb	-4111
▁Kom	-4112
▁mérsék	-4113
▁egyszerűen	-4114
▁mél	-4115
aradt	-4116
tárak	-4117
ázott	-4118
▁derül	-4119
▁mester	-4120
▁változás	-4121
▁közösségi	-4122
erem	-4123
iket	-4124
esett	-4125
▁könnyű	-4126
▁tüntet	-4127
amos	-4128
▁met	-4129
▁aszt	-4130
▁minél	-4131
▁médiat	-4132
▁vezetett	-4133
7.	-4134
:3	-4135
amp	-4136
nes	-4137
nák	-4138
▁196	-4139
ültek	-4140
▁révén	-4141
▁vették	-4142
▁közelében	-4143
▁lehetséges	-4144
három	-4145
orosz	-4146
▁másfél	-4147
elmiszer	-4148
▁alapvet	-4149
▁bemutat	-4150
iak	-4151
▁tit	-4152
onyol	-4153
▁évig	-4154
▁házas	-4155
▁kevésbé	-4156
▁pozitív	-4157
▁használt	-4158
amb	-4159
hal	-4160
▁Rá	-4161
▁kr	-4162
▁Duna	-4163
▁csod	-4164
▁nevezte	-4165
▁He	-4166
ásba	-4167
▁kop	-4168
▁Tóth	-4169
▁Ezért	-4170
▁boldog	-4171
▁egyben	-4172
▁hatály	-4173
▁működő	-4174
▁látszik	-4175
▁tartozó	-4176
▁másodperc	-4177
▁kötelezett	-4178
ana	-4179
eai	-4180
▁bar	-4181
oznak	-4182
▁Rich	-4183
▁kollég	-4184
▁percben	-4185
▁repülőt	-4186
▁eljárást	-4187
lók	-4188
▁0-	-4189
alan	-4190
entr	-4191
▁11-	-4192
▁Int	-4193
▁Mik	-4194
▁kérte	-4195
▁szerepet	-4196
▁amelyeket	-4197
▁ellenzéki	-4198
▁módosítás	-4199
fg	-4200
őbb	-4201
edzs	-4202
okba	-4203
▁elind	-4204
▁akkori	-4205
▁hozzáj	-4206
▁komment	-4207
▁ellenfel	-4208
▁Di	-4209
▁Bud	-4210
▁Mester	-4211
▁konkrét	-4212
▁százalékot	-4213
iber	-4214
▁Hol	-4215
raeli	-4216
▁Real	-4217
▁megfi	-4218
▁nyílt	-4219
chester	-4220
▁adatai	-4221
▁számolt	-4222
▁versenyző	-4223
ódi	-4224
azin	-4225
▁hozta	-4226
▁kerület	-4227
▁sokszor	-4228
▁ló	-4229
kett	-4230
kező	-4231
▁Har	-4232
▁vir	-4233
▁ingy	-4234
▁ritk	-4235
▁japán	-4236
fa	-4237
DNP	-4238
őző	-4239
▁Tovább	-4240
▁összeh	-4241
▁egyeztet	-4242
▁Népszabadság	-4243
ook	-4244
▁oka	-4245
aránt	-4246
▁szent	-4247
▁regény	-4248
▁csillag	-4249
polgármester	-4250
eci	-4251
▁Iz	-4252
akad	-4253
enti	-4254
ihar	-4255
▁kab	-4256
▁oly	-4257
▁júli	-4258
▁Angel	-4259
▁nyerte	-4260
▁hajland	-4261
TE	-4262
vál	-4263
ovics	-4264
▁lakó	-4265
ésében	-4266
▁napja	-4267
▁korrup	-4268
▁alkalmas	-4269
▁szerepelt	-4270
▁területén	-4271
▁Tisz	-4272
▁harminc	-4273
▁labdarúgó	-4274
▁munkanélkül	-4275
kó	-4276
▁önmag	-4277
fal	-4278
▁Mal	-4279
ezést	-4280
▁valós	-4281
atlanul	-4282
▁teremt	-4283
▁alakult	-4284
▁oldalon	-4285
ons	-4286
▁32	-4287
ulék	-4288
▁apr	-4289
ozzák	-4290
▁keret	-4291
▁mutatja	-4292
▁napilap	-4293
▁támadás	-4294
bor	-4295
icc	-4296
ogle	-4297
álás	-4298
ettem	-4299
tatni	-4300
▁rögz	-4301
▁Fehér	-4302
▁pontot	-4303
▁évente	-4304
▁szomszéd	-4305
zár	-4306
órum	-4307
▁15-	-4308
lehet	-4309
ésekkel	-4310
▁Nagyon	-4311
▁belőle	-4312
▁nappal	-4313
▁(3	-4314
ofőr	-4315
ukor	-4316
▁Vesz	-4317
▁öröm	-4318
MF	-4319
nénk	-4320
▁Ste	-4321
ukció	-4322
európai	-4323
▁semmit	-4324
▁egyaránt	-4325
▁helyszínen	-4326
▁hivatkozva	-4327
▁kiváló	-4328
▁számol	-4329
csökkent	-4330
▁fegyver	-4331
▁történő	-4332
▁szakértők	-4333
▁közlekedési	-4334
▁km	-4335
járt	-4336
▁tavasz	-4337
▁dollárt	-4338
▁hallgat	-4339
ashington	-4340
▁következt	-4341
▁gyanúsított	-4342
▁elsz	-4343
hatjuk	-4344
▁level	-4345
▁reklám	-4346
▁Horváth	-4347
▁nélküli	-4348
lett	-4349
ésnek	-4350
▁külső	-4351
▁probléma	-4352
▁tevékenység	-4353
ábl	-4354
atai	-4355
▁Mart	-4356
▁Kriszt	-4357
▁gazdag	-4358
▁pártok	-4359
▁kiderül	-4360
erd	-4361
fut	-4362
uth	-4363
▁nekem	-4364
▁hozzátette	-4365
▁képviselők	-4366
▁élelmiszer	-4367
▁hom	-4368
encia	-4369
▁elemző	-4370
▁Szerinte	-4371
▁meglepet	-4372
▁Szövetség	-4373
▁Én	-4374
adja	-4375
▁kisz	-4376
▁kerék	-4377
▁hangulat	-4378
ren	-4379
▁kapta	-4380
▁kaptak	-4381
▁pénteki	-4382
▁átlagos	-4383
éket	-4384
leked	-4385
ságát	-4386
magyar	-4387
▁fognak	-4388
▁energia	-4389
▁nagyjából	-4390
▁szakemberek	-4391
ami	-4392
észek	-4393
ítést	-4394
iszony	-4395
▁autós	-4396
szerűen	-4397
▁Google	-4398
▁döntet	-4399
▁százalékra	-4400
ket	-4401
irály	-4402
▁Term	-4403
üggeszt	-4404
▁kereskedelmi	-4405
iros	-4406
lány	-4407
▁Fej	-4408
ukrán	-4409
▁idej	-4410
▁frank	-4411
▁pszich	-4412
▁hagyomány	-4413
▁közleményében	-4414
▁Ár	-4415
énél	-4416
eiben	-4417
ektor	-4418
vezetője	-4419
▁bajnoki	-4420
▁időszakban	-4421
▁194	-4422
▁Tav	-4423
▁John	-4424
▁fesz	-4425
▁tervek	-4426
▁vezette	-4427
▁állítja	-4428
▁Gu	-4429
örny	-4430
▁eleg	-4431
▁veszteség	-4432
őre	-4433
▁cseh	-4434
▁felm	-4435
▁ajándék	-4436
▁csütörtöki	-4437
▁szerződést	-4438
▁31	-4439
ötét	-4440
▁Hét	-4441
▁köv	-4442
▁tartomány	-4443
▁Ugyanakkor	-4444
nyt	-4445
▁Szak	-4446
ezhető	-4447
▁Varga	-4448
▁vidék	-4449
▁hétfői	-4450
▁rendező	-4451
▁állandó	-4452
▁4.	-4453
▁vall	-4454
▁Szomb	-4455
▁szélső	-4456
▁óriási	-4457
milliárd	-4458
▁sikerül	-4459
▁következtében	-4460
oks	-4461
▁Hat	-4462
▁esti	-4463
▁husz	-4464
▁légi	-4465
▁szűk	-4466
csapat	-4467
▁levél	-4468
ellenes	-4469
▁akarja	-4470
▁áldozat	-4471
▁kórházba	-4472
▁változat	-4473
dor	-4474
növ	-4475
ugr	-4476
▁Mih	-4477
elést	-4478
ipari	-4479
irtok	-4480
▁megjegy	-4481
▁pályára	-4482
▁kétharmad	-4483
▁izg	-4484
orvég	-4485
ábban	-4486
ásokkal	-4487
▁Madrid	-4488
▁üzleti	-4489
▁kiemelt	-4490
▁mindegy	-4491
bajnokság	-4492
igazgatás	-4493
ley	-4494
uni	-4495
vai	-4496
aceb	-4497
▁Mark	-4498
▁stíl	-4499
▁Ilyen	-4500
▁május	-4501
▁hatalom	-4502
▁magukat	-4503
omp	-4504
▁Pa	-4505
▁főt	-4506
essége	-4507
▁La	-4508
▁rejt	-4509
▁káros	-4510
▁szerb	-4511
erületi	-4512
▁fekete	-4513
▁műszaki	-4514
csal	-4515
terj	-4516
▁Vel	-4517
▁jelöl	-4518
program	-4519
▁megkap	-4520
▁ügyfel	-4521
▁kedvező	-4522
▁nyugati	-4523
▁magánnyugdíj	-4524
40	-4525
atra	-4526
▁átt	-4527
ozási	-4528
állás	-4529
▁mire	-4530
▁ügyében	-4531
▁központi	-4532
▁dolgozott	-4533
▁egyértelműen	-4534
▁szakszervezet	-4535
▁Ap	-4536
ésen	-4537
▁leb	-4538
▁árt	-4539
▁Bors	-4540
▁beny	-4541
▁elvég	-4542
▁Barcel	-4543
▁ügyészség	-4544
2,	-4545
etű	-4546
▁II	-4547
iatt	-4548
▁megem	-4549
▁mentő	-4550
▁szerepl	-4551
▁Minisztérium	-4552
lev	-4553
rium	-4554
▁bőr	-4555
▁kölcsön	-4556
▁többsége	-4557
▁véletlen	-4558
▁+	-4559
▁rag	-4560
▁autót	-4561
▁anyagi	-4562
pénztári	-4563
▁szóvivő	-4564
▁érdekes	-4565
▁Szabolcs	-4566
▁említett	-4567
▁Pest	-4568
éséhez	-4569
▁messz	-4570
▁hasonl	-4571
▁vettek	-4572
▁szeretnék	-4573
xim	-4574
onban	-4575
szerk	-4576
▁puszt	-4577
▁lassan	-4578
▁elkerül	-4579
▁majdnem	-4580
▁számában	-4581
6.	-4582
zás	-4583
▁tőle	-4584
▁menek	-4585
▁Észak	-4586
▁repülő	-4587
▁fizetni	-4588
▁folytatás	-4589
▁legutóbbi	-4590
hetünk	-4591
▁szövetségi	-4592
▁Oroszország	-4593
▁ist	-4594
áshoz	-4595
▁sújt	-4596
▁részén	-4597
▁indítvány	-4598
▁szempontból	-4599
▁ötven	-4600
aik	-4601
ein	-4602
opp	-4603
irány	-4604
razil	-4605
urkol	-4606
ítások	-4607
▁Obama	-4608
▁havaz	-4609
▁Michael	-4610
▁vezetői	-4611
▁betegség	-4612
▁elektron	-4613
▁hőmérséklet	-4614
▁eg	-4615
elég	-4616
▁évet	-4617
▁fellép	-4618
▁valamennyi	-4619
▁tájékoztatása	-4620
ars	-4621
ciók	-4622
esed	-4623
rist	-4624
▁kol	-4625
egnap	-4626
ettől	-4627
iszap	-4628
▁véli	-4629
▁befej	-4630
▁lista	-4631
▁emiatt	-4632
▁okozta	-4633
▁ötödik	-4634
▁könnyen	-4635
▁személyes	-4636
▁számítógép	-4637
szolgáltatás	-4638
▁letartóztatás	-4639
▁mot	-4640
ítését	-4641
ezetten	-4642
▁felfed	-4643
▁Szlovák	-4644
▁alkalmazott	-4645
ax	-4646
szerte	-4647
▁Egyes	-4648
▁kapus	-4649
vélemény	-4650
▁hajlandó	-4651
▁Nyom	-4652
▁zsid	-4653
▁legyőz	-4654
hív	-4655
▁PL	-4656
▁védő	-4657
▁Forma	-4658
ferenci	-4659
▁alelnök	-4660
▁holland	-4661
▁figyelmeztet	-4662
car	-4663
rad	-4664
term	-4665
fogás	-4666
intéz	-4667
▁botrány	-4668
ősen	-4669
▁eső	-4670
▁kelt	-4671
▁kocs	-4672
▁mellé	-4673
▁tőzsd	-4674
▁külföld	-4675
▁tartanak	-4676
▁honlapján	-4677
▁hagyományos	-4678
nár	-4679
ikában	-4680
▁SZDSZ	-4681
▁hálóz	-4682
▁énekes	-4683
▁győztes	-4684
▁rengeteg	-4685
ügyminisztérium	-4686
lob	-4687
▁számú	-4688
▁robban	-4689
▁katonai	-4690
▁statiszt	-4691
▁beszélget	-4692
▁gyakorlatilag	-4693
TP	-4694
cion	-4695
írás	-4696
▁Három	-4697
▁felúj	-4698
▁hiába	-4699
▁kiáll	-4700
▁egymilli	-4701
▁rendelkező	-4702
zió	-4703
onyi	-4704
adott	-4705
aival	-4706
▁Andre	-4707
kutatás	-4708
▁mutató	-4709
▁játszik	-4710
▁autópály	-4711
▁tudományos	-4712
9.	-4713
jével	-4714
értek	-4715
▁Össz	-4716
▁csapata	-4717
▁hamarosan	-4718
▁Ó	-4719
áit	-4720
eksz	-4721
▁Ott	-4722
▁nyáron	-4723
▁izraeli	-4724
▁mondott	-4725
▁szigorú	-4726
▁töltött	-4727
▁dolgozik	-4728
de	-4729
▁As	-4730
▁Fi	-4731
ukra	-4732
ásait	-4733
▁benzin	-4734
▁fogják	-4735
▁látogat	-4736
▁kerültek	-4737
▁szocialisták	-4738
ke	-4739
ebek	-4740
ezők	-4741
ikát	-4742
ivál	-4743
▁20-	-4744
könyv	-4745
▁bíró	-4746
▁kerületi	-4747
▁együttműködés	-4748
pl	-4749
ráz	-4750
prém	-4751
▁Mat	-4752
▁Mát	-4753
▁ősz	-4754
etben	-4755
▁neve	-4756
beszer	-4757
egatív	-4758
▁észre	-4759
▁rekord	-4760
▁felelősség	-4761
seg	-4762
üsz	-4763
gyűjt	-4764
▁City	-4765
▁Unit	-4766
▁megint	-4767
▁ugyanaz	-4768
▁főszerep	-4769
rav	-4770
▁Oly	-4771
▁mos	-4772
olvas	-4773
▁Szil	-4774
▁adni	-4775
▁plusz	-4776
▁online	-4777
▁mennyire	-4778
▁üzemeltet	-4779
▁PK	-4780
újabb	-4781
▁voks	-4782
▁Akkor	-4783
▁Ebben	-4784
▁energi	-4785
ezs	-4786
raf	-4787
uli	-4788
▁FC	-4789
edes	-4790
▁Lev	-4791
akban	-4792
sztön	-4793
ásokra	-4794
▁sofőr	-4795
▁klassz	-4796
▁nyomán	-4797
▁közepén	-4798
▁Q	-4799
alog	-4800
▁táp	-4801
méter	-4802
ődött	-4803
váltás	-4804
▁sztár	-4805
▁utáni	-4806
▁Mihály	-4807
▁hajnal	-4808
allgatás	-4809
▁előfordul	-4810
▁helyzetben	-4811
don	-4812
▁TV	-4813
▁Som	-4814
▁gum	-4815
▁kora	-4816
városi	-4817
▁terror	-4818
▁támogatást	-4819
▁felfüggeszt	-4820
▁szabályozás	-4821
ena	-4822
▁Pár	-4823
ertőz	-4824
▁Merc	-4825
▁aktív	-4826
▁birtok	-4827
▁kezdte	-4828
▁érkező	-4829
▁befizet	-4830
▁szegény	-4831
▁bizonytalan	-4832
--	-4833
lép	-4834
uper	-4835
járól	-4836
büntet	-4837
▁kulcs	-4838
intézet	-4839
ítettek	-4840
▁fölött	-4841
▁végéig	-4842
▁származó	-4843
▁érdeklőd	-4844
▁kezdődött	-4845
ain	-4846
pel	-4847
▁33	-4848
atni	-4849
üssz	-4850
▁jót	-4851
állom	-4852
▁kocsi	-4853
▁speci	-4854
▁megegy	-4855
▁megalap	-4856
ky	-4857
ti	-4858
óm	-4859
▁Jos	-4860
elési	-4861
▁kilát	-4862
▁összet	-4863
▁negatív	-4864
▁valóság	-4865
▁törvényt	-4866
arag	-4867
ugár	-4868
▁Tor	-4869
▁mar	-4870
ekhez	-4871
amerikai	-4872
▁állította	-4873
enő	-4874
lok	-4875
off	-4876
házi	-4877
▁30-	-4878
▁rám	-4879
▁látja	-4880
atórium	-4881
▁belvíz	-4882
▁januárban	-4883
▁területen	-4884
▁karácsonyi	-4885
▁alacsonyabb	-4886
fjú	-4887
zák	-4888
▁Os	-4889
anci	-4890
illa	-4891
▁káb	-4892
▁író	-4893
olikus	-4894
▁szeretne	-4895
▁Európában	-4896
ica	-4897
▁Gerg	-4898
▁éven	-4899
▁Jelen	-4900
szolgál	-4901
ítésére	-4902
▁gyakorl	-4903
▁kérdésre	-4904
▁Mesterházy	-4905
▁értelmében	-4906
TO	-4907
po	-4908
ros	-4909
vei	-4910
▁Érd	-4911
éséről	-4912
▁autom	-4913
▁ítélet	-4914
▁azoknak	-4915
▁időpont	-4916
▁létszám	-4917
▁hétvégén	-4918
▁sebesség	-4919
5.	-4920
üm	-4921
fin	-4922
les	-4923
▁MÁ	-4924
adni	-4925
ítók	-4926
helyi	-4927
▁kellem	-4928
▁Lengyel	-4929
▁jelezte	-4930
▁közönség	-4931
▁Manchester	-4932
▁bejelentette	-4933
akon	-4934
▁Tal	-4935
▁viz	-4936
ajnai	-4937
▁enyh	-4938
▁tűnt	-4939
▁Robert	-4940
▁fordult	-4941
▁álláspont	-4942
ze	-4943
▁80	-4944
▁fiú	-4945
ilván	-4946
▁adóz	-4947
▁örül	-4948
▁hírek	-4949
▁páros	-4950
▁kiadás	-4951
▁közeli	-4952
▁művész	-4953
▁fokozat	-4954
kl	-4955
edék	-4956
opron	-4957
▁velük	-4958
▁Tavaly	-4959
▁tudták	-4960
▁összek	-4961
▁megtart	-4962
▁dolláros	-4963
▁legfeljebb	-4964
rem	-4965
kodik	-4966
▁déli	-4967
▁hegy	-4968
▁kapnak	-4969
▁hónapban	-4970
▁viselked	-4971
▁körülmény	-4972
▁különleges	-4973
olaj	-4974
pari	-4975
▁400	-4976
▁Aki	-4977
elmes	-4978
gyárt	-4979
ritan	-4980
éseit	-4981
▁hamis	-4982
▁tábor	-4983
▁utána	-4984
▁válik	-4985
▁véget	-4986
▁megsér	-4987
ozg	-4988
pót	-4989
▁NA	-4990
▁önként	-4991
▁szeretné	-4992
▁demokráci	-4993
mán	-4994
besz	-4995
▁lef	-4996
jében	-4997
kocsi	-4998
ellyel	-4999
▁Moszk	-5000
▁készít	-5001
▁negyven	-5002
▁legújabb	-5003
▁semmilyen	-5004
▁keresztény	-5005
ris	-5006
éti	-5007
bban	-5008
▁Kol	-5009
▁Hung	-5010
▁régió	-5011
▁horvát	-5012
▁követő	-5013
▁akiknek	-5014
▁Veszprém	-5015
▁megtakar	-5016
▁történik	-5017
▁különbség	-5018
▁Munk	-5019
▁dísz	-5020
▁szánt	-5021
▁derült	-5022
▁északi	-5023
▁pozíció	-5024
▁elérhető	-5025
▁működtet	-5026
▁médiatörvény	-5027
asi	-5028
evők	-5029
▁lek	-5030
▁vádlott	-5031
ary	-5032
irod	-5033
szky	-5034
▁BBC	-5035
▁OTP	-5036
alkot	-5037
▁szén	-5038
▁mások	-5039
▁rajong	-5040
▁Intézet	-5041
▁államfő	-5042
▁visszaes	-5043
▁együttműköd	-5044
▁70	-5045
▁Erd	-5046
esszor	-5047
▁nemrég	-5048
▁visszaél	-5049
▁Pl	-5050
▁üv	-5051
eink	-5052
főbb	-5053
nunk	-5054
▁Eur	-5055
▁sim	-5056
hetjük	-5057
teremt	-5058
▁Olasz	-5059
▁bázis	-5060
▁elérni	-5061
▁kettős	-5062
▁sajnos	-5063
▁végére	-5064
▁megpróbál	-5065
▁vasárnapi	-5066
▁5.	-5067
ajon	-5068
▁Bay	-5069
atart	-5070
▁Pécs	-5071
▁Szám	-5072
▁abból	-5073
▁alatti	-5074
▁háttér	-5075
▁állnak	-5076
▁kivétel	-5077
▁sztrájk	-5078
▁Debrecen	-5079
▁döntetlen	-5080
▁kifejezetten	-5081
olyg	-5082
szol	-5083
▁fele	-5084
▁étel	-5085
▁Aztán	-5086
▁Görög	-5087
örténet	-5088
▁United	-5089
▁aminek	-5090
▁cigány	-5091
▁figyelembe	-5092
▁rendkívüli	-5093
▁̋	-5094
ans	-5095
▁Ág	-5096
ményt	-5097
▁autók	-5098
▁megfog	-5099
▁közösen	-5100
▁partner	-5101
▁Ráadásul	-5102
▁kijelentette	-5103
öb	-5104
▁ko	-5105
elep	-5106
▁Faceb	-5107
▁alkoh	-5108
▁annál	-5109
▁látsz	-5110
▁közzét	-5111
▁esetleges	-5112
▁nagykövet	-5113
▁valójában	-5114
▁bizonyíték	-5115
▁Dáv	-5116
▁hús	-5117
almát	-5118
ellen	-5119
▁Erre	-5120
▁Balaton	-5121
bizottság	-5122
▁fiatalok	-5123
▁köztársaság	-5124
kam	-5125
agóg	-5126
▁agr	-5127
▁átv	-5128
▁valah	-5129
▁körzet	-5130
▁rendelet	-5131
▁Németország	-5132
,0	-5133
ht	-5134
bér	-5135
ous	-5136
▁(4	-5137
▁ét	-5138
▁MÁV	-5139
▁fagy	-5140
▁ural	-5141
▁széles	-5142
▁előkész	-5143
▁járulék	-5144
▁legmagas	-5145
▁nyilatkozott	-5146
▁(5	-5147
reng	-5148
▁sáv	-5149
esnek	-5150
oztak	-5151
ublik	-5152
▁Szín	-5153
▁Times	-5154
bevétel	-5155
▁mellék	-5156
▁mérleg	-5157
▁Spanyol	-5158
▁rosszul	-5159
▁politika	-5160
▁közvetlen	-5161
▁szempontjából	-5162
10	-5163
ph	-5164
▁6-	-5165
▁Né	-5166
ozták	-5167
▁maxim	-5168
▁háború	-5169
▁előadás	-5170
▁ismerős	-5171
▁megoldás	-5172
ya	-5173
ivár	-5174
▁leh	-5175
asztó	-5176
ítési	-5177
▁házi	-5178
▁vita	-5179
▁csúsz	-5180
▁Bajnai	-5181
▁melyek	-5182
▁intézet	-5183
▁meghalt	-5184
▁megnyit	-5185
▁négyzet	-5186
▁valamit	-5187
más	-5188
▁ve	-5189
vagy	-5190
▁Wik	-5191
csomag	-5192
▁Antal	-5193
▁Gyula	-5194
▁sötét	-5195
▁voltam	-5196
▁előrejel	-5197
▁foglalkozó	-5198
▁Ge	-5199
▁kur	-5200
▁por	-5201
▁sár	-5202
októl	-5203
▁Kult	-5204
▁Pénz	-5205
▁apró	-5206
▁elől	-5207
▁előz	-5208
▁Dávid	-5209
▁forrad	-5210
▁június	-5211
▁megtud	-5212
▁városi	-5213
▁települ	-5214
▁embereket	-5215
▁rendszert	-5216
▁eredmények	-5217
▁érdeklődés	-5218
anc	-5219
ovic	-5220
pedig	-5221
▁Ezen	-5222
▁vágy	-5223
▁tegnap	-5224
▁későbbi	-5225
▁szívesen	-5226
udi	-5227
▁34	-5228
▁Ami	-5229
▁faj	-5230
▁pálya	-5231
használ	-5232
▁összeget	-5233
▁viszonylag	-5234
onz	-5235
ová	-5236
ella	-5237
oszl	-5238
rajz	-5239
rier	-5240
▁Bél	-5241
▁rák	-5242
▁Ered	-5243
▁olvasó	-5244
▁'	-5245
▁7-	-5246
gent	-5247
▁10.	-5248
anadai	-5249
isztán	-5250
▁elvesz	-5251
▁amelyen	-5252
rád	-5253
ezve	-5254
▁Dem	-5255
▁Med	-5256
frikai	-5257
elemben	-5258
▁kiterj	-5259
▁miként	-5260
▁órakor	-5261
iberális	-5262
▁interjú	-5263
▁ugyancsak	-5264
▁legmagasabb	-5265
:0	-5266
jába	-5267
ákon	-5268
ivális	-5269
▁megúj	-5270
▁egymással	-5271
mit	-5272
jött	-5273
▁gyű	-5274
akkal	-5275
eknél	-5276
▁Cseh	-5277
▁ipar	-5278
▁mennyi	-5279
▁támadó	-5280
biztosítás	-5281
▁rendelkezik	-5282
áf	-5283
▁37	-5284
▁un	-5285
állt	-5286
árok	-5287
kodott	-5288
▁lezár	-5289
▁verzió	-5290
▁halálos	-5291
▁mondani	-5292
▁irodalom	-5293
▁miszerint	-5294
▁szerkezet	-5295
▁segítséget	-5296
▁AP	-5297
ipar	-5298
ázni	-5299
▁mad	-5300
Britan	-5301
kezelő	-5302
▁belép	-5303
▁múzeum	-5304
▁ösztön	-5305
▁menedzs	-5306
▁határozott	-5307
kóz	-5308
▁Ker	-5309
▁Tel	-5310
udvar	-5311
▁Mert	-5312
▁konf	-5313
▁gener	-5314
helyzet	-5315
▁nyomozás	-5316
▁Természet	-5317
cél	-5318
ins	-5319
ésű	-5320
exik	-5321
iver	-5322
▁000	-5323
fajta	-5324
olnak	-5325
tatón	-5326
ásról	-5327
▁2009.	-5328
▁részvétel	-5329
▁képviselője	-5330
FK	-5331
▁bi	-5332
kész	-5333
ulni	-5334
▁ily	-5335
▁web	-5336
▁2011	-5337
ismert	-5338
▁azután	-5339
▁berend	-5340
▁megért	-5341
▁stílus	-5342
▁tudtak	-5343
▁felszám	-5344
▁rendszeresen	-5345
ura	-5346
vert	-5347
▁szoft	-5348
▁látott	-5349
esztivál	-5350
▁koncert	-5351
▁ponttal	-5352
▁csapatok	-5353
▁találták	-5354
▁veszélyeztet	-5355
:5	-5356
jet	-5357
▁(6	-5358
▁me	-5359
ektív	-5360
éppen	-5361
▁legr	-5362
ekszik	-5363
hessen	-5364
▁szólt	-5365
▁elhely	-5366
▁elutas	-5367
▁iskola	-5368
▁közösség	-5369
▁nincsenek	-5370
▁közleményben	-5371
▁főpolgármester	-5372
áng	-5373
ázó	-5374
elve	-5375
▁Vol	-5376
▁tük	-5377
▁Párt	-5378
▁trag	-5379
szavaz	-5380
▁merény	-5381
▁nehezen	-5382
▁valamilyen	-5383
her	-5384
aték	-5385
ille	-5386
szki	-5387
ezési	-5388
ecskem	-5389
▁fórum	-5390
▁rivális	-5391
▁eszközök	-5392
▁mutatott	-5393
jék	-5394
zat	-5395
szav	-5396
építés	-5397
▁segély	-5398
▁formában	-5399
▁személyi	-5400
▁városban	-5401
▁fővárosban	-5402
gáz	-5403
avéd	-5404
papír	-5405
▁Hagy	-5406
▁szil	-5407
▁Török	-5408
▁ukrán	-5409
▁várja	-5410
▁erősen	-5411
▁ezután	-5412
▁július	-5413
▁mégsem	-5414
▁benyújt	-5415
▁helyzetet	-5416
▁képviselői	-5417
osi	-5418
pest	-5419
ucat	-5420
▁Red	-5421
sereg	-5422
őkkel	-5423
▁adót	-5424
▁hitt	-5425
▁megye	-5426
szerűbb	-5427
▁győzelm	-5428
▁nyújtott	-5429
igazgatási	-5430
▁hivatalosan	-5431
tön	-5432
▁finom	-5433
▁mezőny	-5434
▁várakoz	-5435
helyettes	-5436
▁tagállam	-5437
▁gyilkosság	-5438
▁Államokban	-5439
▁világbajnokság	-5440
vg	-5441
ené	-5442
hát	-5443
iós	-5444
ozs	-5445
tud	-5446
inél	-5447
ulnak	-5448
▁záró	-5449
▁előír	-5450
▁látni	-5451
▁veszi	-5452
▁valódi	-5453
▁érintő	-5454
▁legfőbb	-5455
▁újságír	-5456
▁következmény	-5457
25	-5458
ác	-5459
ico	-5460
iga	-5461
▁90	-5462
aján	-5463
emben	-5464
▁beszer	-5465
▁melyik	-5466
▁fogadta	-5467
▁kiegész	-5468
pe	-5469
▁Mari	-5470
▁utat	-5471
▁adtak	-5472
▁idény	-5473
▁Múzeum	-5474
▁koncep	-5475
▁nálunk	-5476
▁felszól	-5477
▁kivitel	-5478
▁magazin	-5479
▁tájékoztatta	-5480
▁Fl	-5481
busz	-5482
mann	-5483
▁roh	-5484
ellát	-5485
eztem	-5486
ilkos	-5487
▁mand	-5488
asszal	-5489
koreai	-5490
▁halad	-5491
▁esélye	-5492
▁piacon	-5493
▁fejlődés	-5494
▁újságíró	-5495
▁hírügynökség	-5496
▁Eh	-5497
kocs	-5498
ronz	-5499
éria	-5500
▁tél	-5501
▁brazil	-5502
▁mindenn	-5503
▁nyitott	-5504
▁nyereség	-5505
▁szerkeszt	-5506
▁decemberben	-5507
ret	-5508
▁EN	-5509
▁od	-5510
▁Ám	-5511
▁üd	-5512
erny	-5513
olva	-5514
▁10-	-5515
▁Sem	-5516
okhoz	-5517
▁lenn	-5518
ésekre	-5519
▁tárca	-5520
▁ponton	-5521
▁ilyenkor	-5522
▁közvélemény	-5523
lása	-5524
▁Ház	-5525
▁sír	-5526
▁adja	-5527
▁felb	-5528
▁hiba	-5529
▁oper	-5530
ezettek	-5531
▁nekünk	-5532
-1-	-5533
upl	-5534
íni	-5535
önk	-5536
▁NB	-5537
▁pap	-5538
ükben	-5539
attint	-5540
egyűjt	-5541
▁tanácsadó	-5542
%-	-5543
si	-5544
00-	-5545
ezd	-5546
alép	-5547
azon	-5548
▁Mon	-5549
▁USA	-5550
▁nőt	-5551
▁alsó	-5552
▁David	-5553
▁rádió	-5554
▁filmet	-5555
▁tartós	-5556
▁feldolg	-5557
▁oldalán	-5558
▁problémák	-5559
▁amennyiben	-5560
▁Dom	-5561
▁Mit	-5562
▁cikl	-5563
▁futó	-5564
▁immár	-5565
háztart	-5566
▁Intern	-5567
▁akarta	-5568
▁sikert	-5569
▁megnyer	-5570
▁ausztrál	-5571
▁elnökség	-5572
▁augusztus	-5573
▁et	-5574
eaks	-5575
▁erd	-5576
▁fék	-5577
olnok	-5578
▁kettő	-5579
ekedett	-5580
▁legend	-5581
▁panasz	-5582
▁képesek	-5583
▁érvényes	-5584
▁számítani	-5585
▁szervezetek	-5586
fgan	-5587
▁Pedig	-5588
▁méltó	-5589
▁átmen	-5590
sorozat	-5591
sztikus	-5592
▁Mindez	-5593
▁kidolg	-5594
▁szabályok	-5595
▁változott	-5596
éteg	-5597
▁18.	-5598
ouver	-5599
ítója	-5600
ünkre	-5601
▁Kiss	-5602
▁csőd	-5603
▁néző	-5604
szóviv	-5605
▁főként	-5606
▁induló	-5607
▁meghív	-5608
▁szünet	-5609
▁kormánypárt	-5610
őlt	-5611
▁ró	-5612
▁áb	-5613
niük	-5614
▁Gól	-5615
▁Tar	-5616
▁Ter	-5617
▁net	-5618
▁élt	-5619
▁eurós	-5620
▁megér	-5621
ügyelet	-5622
▁teszik	-5623
▁kanadai	-5624
▁küldött	-5625
▁oktatás	-5626
▁források	-5627
▁földreng	-5628
▁környékén	-5629
▁elfogadott	-5630
▁legalábbis	-5631
iti	-5632
kap	-5633
ném	-5634
▁tü	-5635
▁étt	-5636
eivel	-5637
▁Kína	-5638
▁Külön	-5639
ervatív	-5640
▁amivel	-5641
▁mostan	-5642
▁tettek	-5643
▁adatokat	-5644
▁csapadék	-5645
▁kezdődik	-5646
▁meglehet	-5647
▁üzemanyag	-5648
SC	-5649
inam	-5650
ávol	-5651
▁15.	-5652
▁Jam	-5653
játsz	-5654
onstr	-5655
▁Ferr	-5656
▁Fotó	-5657
▁Auszt	-5658
▁ipari	-5659
eredmény	-5660
▁értesít	-5661
▁hatására	-5662
▁tisztelet	-5663
▁összecsap	-5664
jak	-5665
rog	-5666
nánk	-5667
étert	-5668
éttel	-5669
▁Bull	-5670
emelés	-5671
ásáról	-5672
▁elvár	-5673
▁kultúr	-5674
▁Központi	-5675
▁egyetért	-5676
▁megismer	-5677
▁regisztr	-5678
ho	-5679
ice	-5680
▁Ön	-5681
inős	-5682
likt	-5683
szék	-5684
átus	-5685
▁rát	-5686
ológi	-5687
ovjet	-5688
▁heti	-5689
▁jóvá	-5690
▁amúgy	-5691
▁néven	-5692
▁utcai	-5693
▁melynek	-5694
▁Mercedes	-5695
▁ellenőrzés	-5696
▁euróövezet	-5697
eve	-5698
édi	-5699
▁Ád	-5700
ászt	-5701
▁pih	-5702
álják	-5703
▁Múlt	-5704
▁atom	-5705
▁vicc	-5706
edagóg	-5707
étlenül	-5708
▁egyebek	-5709
▁rendezett	-5710
▁jelentőség	-5711
kat	-5712
enko	-5713
▁Col	-5714
▁Hon	-5715
▁hum	-5716
▁vers	-5717
▁öreg	-5718
▁távon	-5719
▁huszon	-5720
▁rögtön	-5721
▁döntést	-5722
▁megítél	-5723
▁természetes	-5724
FA	-5725
aut	-5726
▁für	-5727
hatta	-5728
▁hekt	-5729
▁ennyi	-5730
▁itthon	-5731
▁körben	-5732
▁nyugdíjas	-5733
▁BM	-5734
▁Tr	-5735
uári	-5736
▁bes	-5737
▁gát	-5738
▁vív	-5739
hunyt	-5740
ohány	-5741
álkod	-5742
ésről	-5743
▁Lond	-5744
asztás	-5745
▁Róbert	-5746
▁akiket	-5747
▁aránya	-5748
▁kétség	-5749
▁levegő	-5750
▁kérdést	-5751
▁illetékes	-5752
▁folytatott	-5753
▁információk	-5754
di	-5755
kun	-5756
uss	-5757
ámp	-5758
▁Jó	-5759
gyal	-5760
▁inn	-5761
▁ENSZ	-5762
▁tran	-5763
▁díjat	-5764
▁kinev	-5765
endszer	-5766
▁meccsen	-5767
▁egészséges	-5768
▁állapotban	-5769
▁államháztart	-5770
uck	-5771
örg	-5772
▁áp	-5773
▁(19	-5774
▁ban	-5775
▁ágy	-5776
étlen	-5777
▁Arra	-5778
couver	-5779
ezések	-5780
▁nevét	-5781
atokkal	-5782
▁Miskol	-5783
▁ellene	-5784
▁időjárás	-5785
▁megszüntet	-5786
200	-5787
uel	-5788
▁Ör	-5789
orna	-5790
▁Air	-5791
▁Pat	-5792
özött	-5793
▁disz	-5794
elvény	-5795
▁nevet	-5796
▁tétel	-5797
hivatal	-5798
▁modern	-5799
▁összev	-5800
▁jellegű	-5801
▁felmérés	-5802
▁konflikt	-5803
▁mandátum	-5804
▁tartalék	-5805
▁centiméter	-5806
▁intézmények	-5807
6,	-5808
▁/	-5809
app	-5810
likk	-5811
▁hős	-5812
▁hűt	-5813
eiről	-5814
▁Béla	-5815
▁gyár	-5816
elését	-5817
helyen	-5818
▁példa	-5819
▁remél	-5820
▁éjjel	-5821
ásoknak	-5822
▁bankok	-5823
▁gyalog	-5824
▁típusú	-5825
▁feletti	-5826
▁találkozó	-5827
▁nyilvántart	-5828
??	-5829
tim	-5830
korú	-5831
onald	-5832
▁Hajd	-5833
▁ront	-5834
▁napján	-5835
▁Angeles	-5836
▁elveszt	-5837
▁templom	-5838
▁dolgozók	-5839
▁részéről	-5840
▁egyszerre	-5841
▁helyezett	-5842
SE	-5843
mod	-5844
ofi	-5845
sch	-5846
▁Év	-5847
lást	-5848
őrök	-5849
▁dem	-5850
▁hir	-5851
adion	-5852
almak	-5853
javas	-5854
▁adós	-5855
▁némi	-5856
▁bronz	-5857
▁hátsó	-5858
▁kihív	-5859
▁elhagy	-5860
▁szüksége	-5861
▁közbeszer	-5862
▁Washington	-5863
▁milliárdos	-5864
3,	-5865
egr	-5866
assa	-5867
inet	-5868
▁lov	-5869
▁furcs	-5870
▁téren	-5871
▁török	-5872
eresked	-5873
▁hullám	-5874
▁megnéz	-5875
▁tették	-5876
▁akarnak	-5877
▁megelőz	-5878
biztonsági	-5879
▁Barcelona	-5880
▁számított	-5881
▁tartottak	-5882
▁átlagosan	-5883
uj	-5884
▁,	-5885
▁glob	-5886
▁küsz	-5887
▁Hírek	-5888
▁aktiv	-5889
▁élete	-5890
▁melyet	-5891
▁támogatja	-5892
]-	-5893
kér	-5894
▁8-	-5895
▁jö	-5896
ánia	-5897
▁Cap	-5898
▁Los	-5899
▁erőt	-5900
▁rajz	-5901
▁torn	-5902
módosítás	-5903
▁szombati	-5904
▁befektetők	-5905
▁folyamatos	-5906
▁munkatársa	-5907
ania	-5908
esse	-5909
képp	-5910
list	-5911
▁Tom	-5912
▁kos	-5913
▁var	-5914
éshez	-5915
▁Izra	-5916
▁bolt	-5917
▁büszk	-5918
▁állom	-5919
törvény	-5920
▁munkatársai	-5921
RFK	-5922
adi	-5923
ogó	-5924
▁38	-5925
▁Ép	-5926
▁(1-	-5927
▁fűt	-5928
eteor	-5929
ulása	-5930
ájára	-5931
▁nyar	-5932
▁2012-	-5933
▁Néhány	-5934
▁bonyol	-5935
▁felszer	-5936
▁mindennap	-5937
gól	-5938
seb	-5939
▁Eb	-5940
szeg	-5941
▁Pal	-5942
▁drog	-5943
▁megd	-5944
akadály	-5945
▁felvet	-5946
▁ülésén	-5947
▁kislány	-5948
▁stratég	-5949
▁határozat	-5950
▁próbálkoz	-5951
EH	-5952
rat	-5953
rón	-5954
aiban	-5955
szent	-5956
ttest	-5957
▁funk	-5958
▁tilt	-5959
demokr	-5960
▁aláír	-5961
▁fekvő	-5962
▁megőr	-5963
▁vétel	-5964
▁amiért	-5965
▁folyik	-5966
üggetlen	-5967
▁gondolt	-5968
szövetség	-5969
▁Jelenleg	-5970
▁lehetnek	-5971
▁veszélyes	-5972
1,	-5973
19	-5974
tom	-5975
▁vi	-5976
adót	-5977
lése	-5978
▁Mer	-5979
▁der	-5980
ésőbb	-5981
▁2007	-5982
▁falu	-5983
▁szal	-5984
▁tápl	-5985
▁liter	-5986
▁rokon	-5987
▁Miután	-5988
▁orvosi	-5989
▁elemzők	-5990
▁felesége	-5991
▁árfolyama	-5992
▁függetlenül	-5993
ean	-5994
how	-5995
▁Vl	-5996
▁rec	-5997
▁drám	-5998
▁ifjú	-5999
▁néha	-6000
tatták	-6001
▁2005-	-6002
▁ettől	-6003
▁Németh	-6004
▁ügyfél	-6005
▁milliós	-6006
me	-6007
csk	-6008
▁6.	-6009
édia	-6010
▁Vár	-6011
▁lux	-6012
▁pat	-6013
vásár	-6014
óként	-6015
▁utca	-6016
▁Ádám	-6017
szeres	-6018
▁kissé	-6019
ességét	-6020
▁mondták	-6021
▁bemutató	-6022
▁emellett	-6023
▁Görögország	-6024
cser	-6025
iban	-6026
▁20.	-6027
▁San	-6028
▁től	-6029
friss	-6030
▁alól	-6031
▁hete	-6032
sággal	-6033
▁amire	-6034
▁felte	-6035
▁Bajnok	-6036
▁érkezik	-6037
▁Egészség	-6038
▁oktatási	-6039
▁szakértő	-6040
kapitányság	-6041
ams	-6042
zen	-6043
ává	-6044
umot	-6045
úton	-6046
▁16-	-6047
▁ném	-6048
▁sos	-6049
eiket	-6050
▁leggy	-6051
▁temet	-6052
szolgálat	-6053
▁kibocsát	-6054
▁erősödött	-6055
▁szexuális	-6056
):	-6057
óc	-6058
▁7.	-6059
▁Láz	-6060
▁kif	-6061
arkas	-6062
különb	-6063
▁Könyv	-6064
▁ezüst	-6065
▁lejár	-6066
▁hajlék	-6067
▁ügyész	-6068
▁értesül	-6069
▁megkeres	-6070
▁megbeszél	-6071
▁javaslatot	-6072
fic	-6073
ünt	-6074
▁fű	-6075
▁tej	-6076
inált	-6077
hattak	-6078
sziget	-6079
▁illeg	-6080
▁kamer	-6081
ancsnok	-6082
ionális	-6083
▁Molnár	-6084
▁nyugat	-6085
▁sokáig	-6086
▁értékű	-6087
▁polgári	-6088
▁szoftver	-6089
▁tartotta	-6090
csat	-6091
▁man	-6092
jármű	-6093
álnak	-6094
▁alul	-6095
folyam	-6096
▁ablak	-6097
▁mindez	-6098
▁élmény	-6099
▁kialakult	-6100
▁közgyűlés	-6101
▁mérkőzésen	-6102
▁világbajnoki	-6103
▁polgármestere	-6104
löv	-6105
zük	-6106
olya	-6107
▁12-	-6108
▁Bul	-6109
▁Dun	-6110
▁fős	-6111
▁beav	-6112
▁üveg	-6113
ájával	-6114
▁Végül	-6115
▁piros	-6116
társaság	-6117
▁hadsereg	-6118
▁meglehetősen	-6119
sea	-6120
uta	-6121
▁Ok	-6122
ákra	-6123
▁ajt	-6124
▁bez	-6125
▁süt	-6126
olható	-6127
▁Ahogy	-6128
▁napig	-6129
▁meglepő	-6130
▁jegybank	-6131
▁megakadály	-6132
▁mindenképpen	-6133
▁megerősítette	-6134
lós	-6135
▁ep	-6136
ográ	-6137
ótól	-6138
▁Gab	-6139
▁hvg	-6140
adást	-6141
▁Szal	-6142
viselő	-6143
▁Ehhez	-6144
▁Lehet	-6145
▁képet	-6146
▁mindkett	-6147
▁megváltoz	-6148
▁története	-6149
▁eredetileg	-6150
▁meghatározó	-6151
▁novemberben	-6152
éh	-6153
ipp	-6154
yom	-6155
▁Tw	-6156
onta	-6157
egyed	-6158
▁erej	-6159
▁regg	-6160
▁Blikk	-6161
▁legsz	-6162
▁tucat	-6163
▁verte	-6164
▁Kapusok	-6165
▁Szombat	-6166
▁létesít	-6167
▁sportág	-6168
▁mutatkoz	-6169
▁tűzoltók	-6170
▁eredményt	-6171
▁októberben	-6172
cím	-6173
row	-6174
▁Sa	-6175
▁lep	-6176
▁sür	-6177
▁Ügy	-6178
anyar	-6179
díjat	-6180
olása	-6181
▁Négy	-6182
▁ágaz	-6183
ozatot	-6184
tekint	-6185
▁időre	-6186
▁látta	-6187
▁csatorn	-6188
▁pénztár	-6189
▁amellyel	-6190
▁biztosít	-6191
▁tervezet	-6192
▁bajnokság	-6193
▁kiemelked	-6194
▁megsérült	-6195
▁történelem	-6196
▁megállapodás	-6197
▁választókerület	-6198
uty	-6199
évé	-6200
▁Da	-6201
enny	-6202
▁deb	-6203
▁tol	-6204
▁zuh	-6205
emier	-6206
ermek	-6207
főnök	-6208
▁Nincs	-6209
▁önálló	-6210
▁szerezte	-6211
▁gondolkod	-6212
▁közleménye	-6213
▁magyarázta	-6214
▁elektronikus	-6215
usk	-6216
▁rúg	-6217
elsea	-6218
okros	-6219
▁bánt	-6220
elhető	-6221
▁radik	-6222
▁titkos	-6223
▁fénykép	-6224
▁havazás	-6225
▁példány	-6226
▁államad	-6227
ességében	-6228
▁elektrom	-6229
yás	-6230
ésük	-6231
őkép	-6232
▁Mel	-6233
▁Reg	-6234
ajnál	-6235
enisz	-6236
▁senk	-6237
áltató	-6238
▁Willi	-6239
▁magának	-6240
▁megközel	-6241
▁hajnalban	-6242
▁visszalép	-6243
kar	-6244
▁iP	-6245
odás	-6246
ünch	-6247
adása	-6248
annyi	-6249
oknál	-6250
vidék	-6251
▁kies	-6252
atosan	-6253
▁hívta	-6254
▁pilót	-6255
méteres	-6256
▁hazánk	-6257
▁messze	-6258
▁megszűn	-6259
▁megelőző	-6260
ola	-6261
oli	-6262
▁Ex	-6263
▁25-	-6264
▁dal	-6265
▁med	-6266
▁sejt	-6267
▁szed	-6268
▁Katal	-6269
▁keleti	-6270
▁minket	-6271
▁szervező	-6272
fur	-6273
▁17.	-6274
▁híd	-6275
▁legn	-6276
házban	-6277
jutott	-6278
ségben	-6279
▁híres	-6280
▁amiben	-6281
▁megszok	-6282
▁nevezett	-6283
ogh	-6284
rep	-6285
▁Na	-6286
etét	-6287
▁Gal	-6288
▁Kép	-6289
asonl	-6290
hetők	-6291
iségi	-6292
esetre	-6293
▁dohány	-6294
▁meccset	-6295
▁jelentés	-6296
▁beszámoló	-6297
▁klasszikus	-6298
▁tárgyalások	-6299
▁ev	-6300
szal	-6301
▁Való	-6302
▁értek	-6303
▁bocsát	-6304
▁várják	-6305
▁általa	-6306
▁Gergely	-6307
▁szerinti	-6308
▁villamos	-6309
▁köztársasági	-6310
2)	-6311
▁19.	-6312
▁old	-6313
airól	-6314
enzív	-6315
ezked	-6316
▁Jack	-6317
mentes	-6318
▁pilóta	-6319
pénztárak	-6320
▁Bajnokok	-6321
▁gondolom	-6322
▁repülőgép	-6323
cég	-6324
mis	-6325
onna	-6326
▁193	-6327
▁Ang	-6328
▁Sal	-6329
▁dik	-6330
ságok	-6331
öltség	-6332
▁lépés	-6333
▁győzött	-6334
▁színésznő	-6335
▁közlekedés	-6336
▁Hi	-6337
▁KN	-6338
émia	-6339
▁1,3	-6340
művek	-6341
▁búcs	-6342
▁szim	-6343
ilabda	-6344
▁teher	-6345
▁elmarad	-6346
▁hasznos	-6347
▁igénybe	-6348
▁korszak	-6349
▁olcsóbb	-6350
▁kereslet	-6351
▁repülőtér	-6352
▁foglalkozik	-6353
Nem	-6354
▁42	-6355
győz	-6356
inni	-6357
▁IMF	-6358
▁Víz	-6359
▁har	-6360
▁mat	-6361
▁órán	-6362
▁Talán	-6363
▁felép	-6364
▁Szabad	-6365
▁vallom	-6366
▁gyanúja	-6367
▁elegendő	-6368
▁közölték	-6369
▁országot	-6370
▁vesztette	-6371
▁konferenci	-6372
▁közvetlenül	-6373
▁politikusok	-6374
▁Ju	-6375
atty	-6376
előd	-6377
nünk	-6378
omra	-6379
onda	-6380
▁Árp	-6381
veres	-6382
▁Gord	-6383
▁2002-	-6384
▁emleg	-6385
▁túlél	-6386
▁szigor	-6387
▁hirtelen	-6388
▁koncentr	-6389
▁eredménye	-6390
▁jövedelem	-6391
▁látogatás	-6392
▁fiatalember	-6393
▁intézkedések	-6394
▁Franciaország	-6395
que	-6396
rand	-6397
▁lél	-6398
aknak	-6399
erceg	-6400
▁Carl	-6401
▁fájd	-6402
▁hatvan	-6403
▁elhunyt	-6404
▁hónappal	-6405
▁kormányt	-6406
▁mindegyik	-6407
▁tartották	-6408
▁nyugdíjrendszer	-6409
umb	-6410
▁Lu	-6411
mind	-6412
▁műt	-6413
szönt	-6414
▁kony	-6415
bizony	-6416
▁rájuk	-6417
▁közülük	-6418
▁művészet	-6419
▁kapcsolódó	-6420
hy	-6421
▁Es	-6422
essé	-6423
Európ	-6424
ációk	-6425
▁szán	-6426
▁szög	-6427
ációja	-6428
ümölcs	-6429
▁Lázár	-6430
▁végző	-6431
▁ajánlat	-6432
▁megszor	-6433
▁testvér	-6434
▁forinton	-6435
▁izgalmas	-6436
▁megvásár	-6437
▁Egyesület	-6438
▁egyesület	-6439
▁speciális	-6440
▁rendőrségi	-6441
▁kapcsolatot	-6442
▁törvényjavas	-6443
▁vállalkozások	-6444
vit	-6445
élyi	-6446
írus	-6447
ítve	-6448
▁köb	-6449
avart	-6450
napos	-6451
nként	-6452
áknak	-6453
▁kert	-6454
▁Hétfő	-6455
▁nyári	-6456
▁élvez	-6457
▁Király	-6458
▁egység	-6459
▁méteres	-6460
▁feladata	-6461
▁ellenőriz	-6462
▁mindenkinek	-6463
▁vizsgálatot	-6464
▁Németországban	-6465
ale	-6466
▁(8	-6467
árda	-6468
▁2006	-6469
▁Eszt	-6470
▁árul	-6471
▁Simon	-6472
▁beval	-6473
▁címet	-6474
ecember	-6475
▁nyugod	-6476
▁produk	-6477
▁tudunk	-6478
▁várnak	-6479
▁mondjuk	-6480
▁támogató	-6481
▁forgalmaz	-6482
▁februárban	-6483
▁ellentétben	-6484
test	-6485
ária	-6486
▁31-	-6487
▁BMW	-6488
▁Fin	-6489
techn	-6490
ínusz	-6491
öttek	-6492
▁tükr	-6493
▁Arsen	-6494
▁Olyan	-6495
▁fenti	-6496
▁hábor	-6497
spanyol	-6498
▁elrend	-6499
▁fertőz	-6500
▁kimond	-6501
▁kedvenc	-6502
ékesfehér	-6503
▁rosszabb	-6504
▁menetrend	-6505
▁önkormányzatok	-6506
15	-6507
őn	-6508
▁8.	-6509
osta	-6510
uttó	-6511
önny	-6512
▁Her	-6513
▁fil	-6514
▁táj	-6515
ástól	-6516
▁dics	-6517
▁esik	-6518
▁száj	-6519
Magyar	-6520
▁Milan	-6521
▁bevon	-6522
▁hozam	-6523
▁valak	-6524
ménnyel	-6525
▁gyenge	-6526
▁Chelsea	-6527
▁világos	-6528
▁kritikus	-6529
▁beavatkoz	-6530
▁legjobban	-6531
▁ügyvezető	-6532
▁tartalmazó	-6533
KB	-6534
yk	-6535
con	-6536
▁39	-6537
▁Ft	-6538
edző	-6539
▁fül	-6540
▁mor	-6541
ander	-6542
letek	-6543
▁elej	-6544
▁tanú	-6545
▁épül	-6546
▁csend	-6547
▁Érdek	-6548
telenül	-6549
▁Nyugat	-6550
felvétel	-6551
▁erősebb	-6552
▁szórakoz	-6553
▁konzervatív	-6554
ko	-6555
▁ch	-6556
eire	-6557
ásuk	-6558
▁150	-6559
▁Bék	-6560
▁adók	-6561
ítések	-6562
▁2008.	-6563
▁Hagyó	-6564
▁profi	-6565
▁Bokros	-6566
▁Izrael	-6567
▁ajánló	-6568
▁kezdve	-6569
▁felében	-6570
▁illeték	-6571
▁megsért	-6572
▁dolgoznak	-6573
tos	-6574
▁öv	-6575
olly	-6576
▁18-	-6577
▁hev	-6578
árták	-6579
▁bont	-6580
▁fotó	-6581
▁tegy	-6582
atikai	-6583
▁szeml	-6584
▁zsidó	-6585
talanul	-6586
▁Somogy	-6587
▁elnöki	-6588
▁vezeti	-6589
▁közlése	-6590
▁szokásos	-6591
▁problémát	-6592
▁színvonal	-6593
▁negyedévben	-6594
▁feljelentést	-6595
▁kommunikációs	-6596
han	-6597
kai	-6598
rak	-6599
ápa	-6600
▁Bo	-6601
aira	-6602
▁1,5	-6603
▁Műv	-6604
irend	-6605
obbant	-6606
▁folyt	-6607
▁lelki	-6608
▁várak	-6609
▁Borsod	-6610
▁fejlőd	-6611
▁gondos	-6612
▁Állami	-6613
▁feszült	-6614
▁éjszaka	-6615
▁szavazók	-6616
▁területi	-6617
▁katolikus	-6618
▁tulajdonosa	-6619
▁külügyminiszter	-6620
vi	-6621
ace	-6622
ger	-6623
óba	-6624
▁BU	-6625
▁Jon	-6626
▁erk	-6627
beteg	-6628
▁hárm	-6629
▁leír	-6630
▁kizár	-6631
▁légit	-6632
▁bejegy	-6633
▁export	-6634
▁igazol	-6635
▁norvég	-6636
szelvény	-6637
▁szállod	-6638
▁színpad	-6639
▁védelem	-6640
▁Természetesen	-6641
yn	-6642
hét	-6643
lel	-6644
▁Pan	-6645
▁log	-6646
inger	-6647
▁Paul	-6648
életes	-6649
▁adták	-6650
▁mesél	-6651
▁szülő	-6652
ításával	-6653
▁elemzés	-6654
▁beruházás	-6655
▁biztosító	-6656
▁liberális	-6657
▁valamelyik	-6658
▁meghosszabb	-6659
ík	-6660
▁55	-6661
ings	-6662
ársa	-6663
ória	-6664
▁érv	-6665
▁Bern	-6666
biztos	-6667
szakasz	-6668
▁elszám	-6669
▁globális	-6670
▁kerülnek	-6671
del	-6672
jan	-6673
ósa	-6674
▁48	-6675
▁Ut	-6676
tebb	-6677
▁halt	-6678
▁mért	-6679
▁távú	-6680
▁öngy	-6681
közben	-6682
▁bemut	-6683
▁elsőd	-6684
▁halott	-6685
▁héttel	-6686
▁amelyik	-6687
▁Korábban	-6688
▁kerülhet	-6689
▁pályázat	-6690
fia	-6691
akra	-6692
lási	-6693
lődő	-6694
ülly	-6695
ődik	-6696
▁Bur	-6697
▁Ger	-6698
▁Rad	-6699
lovén	-6700
▁lend	-6701
▁szimp	-6702
▁Christ	-6703
▁megvan	-6704
▁növény	-6705
▁kattint	-6706
▁megment	-6707
▁naponta	-6708
ügyészség	-6709
▁Emellett	-6710
▁hajléktalan	-6711
▁megfogalmaz	-6712
aim	-6713
▁16.	-6714
▁Nek	-6715
▁kup	-6716
hette	-6717
ászok	-6718
ezését	-6719
▁2004-	-6720
▁árvíz	-6721
▁képzel	-6722
▁kabinet	-6723
▁alelnöke	-6724
▁legutóbb	-6725
▁portugál	-6726
▁egymillió	-6727
▁korrupció	-6728
▁lakossági	-6729
▁szakértői	-6730
▁rendelkezésre	-6731
IA	-6732
ano	-6733
huz	-6734
rát	-6735
▁ök	-6736
▁Nor	-6737
▁Nov	-6738
▁ler	-6739
korong	-6740
▁Frank	-6741
▁sugár	-6742
▁ingyen	-6743
▁Szerint	-6744
▁dolgozni	-6745
▁infláció	-6746
▁bármilyen	-6747
▁koncepció	-6748
▁fordulóban	-6749
▁vállalatok	-6750
▁nyilvánvaló	-6751
Ez	-6752
ney	-6753
▁Öt	-6754
igur	-6755
▁Seb	-6756
▁díz	-6757
▁Éva	-6758
marad	-6759
olási	-6760
▁Alex	-6761
▁tánc	-6762
▁érzi	-6763
pályás	-6764
▁Azért	-6765
▁James	-6766
▁okozó	-6767
▁Gordon	-6768
▁kedves	-6769
▁akarják	-6770
▁értesült	-6771
▁Független	-6772
▁Parlament	-6773
▁hozzátéve	-6774
▁játékosok	-6775
▁szolgálat	-6776
▁véleménye	-6777
▁következtet	-6778
bi	-6779
met	-6780
▁Ek	-6781
ságú	-6782
iptom	-6783
sburg	-6784
▁Kedd	-6785
▁letölt	-6786
▁háztart	-6787
▁képesség	-6788
▁készülék	-6789
▁szerintem	-6790
fejlesztési	-6791
▁kormányzat	-6792
▁személyiség	-6793
1)	-6794
rek	-6795
▁RT	-6796
▁Uk	-6797
▁hű	-6798
KDNP	-6799
ettó	-6800
▁bul	-6801
▁fia	-6802
zését	-6803
öztet	-6804
▁sosem	-6805
▁vihar	-6806
▁Ágnes	-6807
▁bruttó	-6808
▁cselek	-6809
▁lapnak	-6810
▁Katalin	-6811
▁szervezett	-6812
▁demokratikus	-6813
kál	-6814
atja	-6815
idéz	-6816
odor	-6817
▁Lak	-6818
▁has	-6819
▁pad	-6820
▁Dáni	-6821
enault	-6822
▁Martin	-6823
▁asztal	-6824
▁csatár	-6825
▁cserél	-6826
▁kiadott	-6827
▁találta	-6828
▁beszélni	-6829
▁komolyan	-6830
▁vörösiszap	-6831
one	-6832
rág	-6833
üly	-6834
adal	-6835
chan	-6836
enie	-6837
kupa	-6838
▁MNB	-6839
▁Toy	-6840
egedi	-6841
állap	-6842
ásért	-6843
▁Mont	-6844
▁Park	-6845
▁nyel	-6846
evízió	-6847
▁helysz	-6848
▁polgár	-6849
▁reagált	-6850
▁pillanat	-6851
▁vendégek	-6852
szolgálati	-6853
▁megfigyel	-6854
▁megoldást	-6855
▁összehasonl	-6856
▁kezdeményezés	-6857
TC	-6858
ető	-6859
▁Co	-6860
entő	-6861
vent	-6862
▁végső	-6863
isztáni	-6864
▁vasúti	-6865
▁reggeli	-6866
▁munkáját	-6867
▁felkészül	-6868
▁vizsgálatok	-6869
90	-6870
jal	-6871
imir	-6872
rich	-6873
▁1-1	-6874
▁Kam	-6875
▁ugr	-6876
ártól	-6877
▁szót	-6878
pontos	-6879
▁Közép	-6880
▁előáll	-6881
▁kivált	-6882
▁számukra	-6883
▁kiválaszt	-6884
▁lehetetlen	-6885
▁vállalkozás	-6886
▁úr	-6887
afut	-6888
▁13.	-6889
▁Rog	-6890
▁bab	-6891
emlék	-6892
jaként	-6893
▁adnak	-6894
▁tetsz	-6895
▁Árpád	-6896
▁elítél	-6897
▁mínusz	-6898
▁szenny	-6899
▁ügynök	-6900
▁címvédő	-6901
▁fizetett	-6902
▁jelenség	-6903
▁légitársaság	-6904
▁43	-6905
▁44	-6906
▁46	-6907
▁75	-6908
zsák	-6909
▁21.	-6910
▁bán	-6911
▁cip	-6912
▁láz	-6913
letet	-6914
udarc	-6915
▁fölé	-6916
▁utód	-6917
semmis	-6918
éldául	-6919
politik	-6920
ítószer	-6921
▁megoszt	-6922
▁vezetők	-6923
▁háromszor	-6924
▁megválaszt	-6925
▁professzor	-6926
▁befektetési	-6927
▁világháború	-6928
▁elképzelhető	-6929
lem	-6930
▁(7	-6931
arch	-6932
edek	-6933
ttel	-6934
umok	-6935
▁bok	-6936
▁fém	-6937
▁fűz	-6938
▁kém	-6939
▁olt	-6940
arket	-6941
izált	-6942
német	-6943
egyház	-6944
▁videó	-6945
▁Arsenal	-6946
▁kiegyen	-6947
▁robbant	-6948
▁szurkol	-6949
eszi	-6950
hull	-6951
szob	-6952
▁jós	-6953
▁vak	-6954
▁tanár	-6955
terület	-6956
▁adomány	-6957
▁döntése	-6958
▁édesany	-6959
▁terjeszt	-6960
▁tudomány	-6961
▁választó	-6962
▁érdekelt	-6963
▁helyzetbe	-6964
▁földrengés	-6965
▁folytatódik	-6966
jei	-6967
csuk	-6968
olók	-6969
ségű	-6970
▁Hát	-6971
▁Ros	-6972
piaci	-6973
ányos	-6974
▁roma	-6975
beszéd	-6976
▁garant	-6977
▁állatok	-6978
▁aktuális	-6979
▁kíváncsi	-6980
▁versenyt	-6981
▁diplomáci	-6982
▁felügyelő	-6983
▁vizsgálja	-6984
▁alapítvány	-6985
▁részvények	-6986
sy	-6987
üh	-6988
▁kő	-6989
jogi	-6990
kárt	-6991
▁dig	-6992
▁kén	-6993
itter	-6994
érmes	-6995
▁Anna	-6996
▁2011.	-6997
▁csont	-6998
▁Brüssz	-6999
▁címmel	-7000
▁kamion	-7001
▁régóta	-7002
▁elégedett	-7003
▁visszavon	-7004
4,	-7005
▁WA	-7006
fesz	-7007
tünk	-7008
ínek	-7009
▁fen	-7010
ellel	-7011
▁Char	-7012
▁bány	-7013
▁rett	-7014
ettünk	-7015
▁Vasas	-7016
▁befog	-7017
▁bárki	-7018
▁félre	-7019
▁vajon	-7020
▁vonal	-7021
▁hagyta	-7022
▁ahogyan	-7023
▁karrier	-7024
▁alapvető	-7025
▁végleges	-7026
▁forintért	-7027
▁kihasznál	-7028
▁nyilvános	-7029
▁televízió	-7030
▁többnyire	-7031
▁elektromos	-7032
▁mennyiségű	-7033
dzs	-7034
env	-7035
hír	-7036
▁65	-7037
▁Ib	-7038
▁ob	-7039
ábbi	-7040
▁12.	-7041
▁Mor	-7042
▁stb	-7043
ászat	-7044
átlan	-7045
▁Wiki	-7046
▁kegy	-7047
▁mikr	-7048
▁trén	-7049
▁élén	-7050
ozását	-7051
tenger	-7052
▁Zsuzs	-7053
▁megte	-7054
▁passz	-7055
▁pécsi	-7056
▁élnek	-7057
▁dolgok	-7058
▁szuper	-7059
▁hatodik	-7060
▁orvosok	-7061
▁Facebook	-7062
▁vezérigazgatója	-7063
TA	-7064
VB	-7065
húz	-7066
orl	-7067
becs	-7068
▁les	-7069
▁mez	-7070
eddönt	-7071
eszked	-7072
▁Ukraj	-7073
▁kever	-7074
tatóján	-7075
▁eltérő	-7076
▁emelte	-7077
▁kétszáz	-7078
▁védelmi	-7079
▁December	-7080
▁módosító	-7081
▁használat	-7082
▁szezonban	-7083
▁jobboldali	-7084
▁számítanak	-7085
▁szállították	-7086
▁kötelezettség	-7087
▁Fr	-7088
▁Li	-7089
harc	-7090
iról	-7091
napi	-7092
otel	-7093
özés	-7094
▁Bak	-7095
Leaks	-7096
ezzük	-7097
osszú	-7098
▁láng	-7099
▁vevő	-7100
▁front	-7101
▁félid	-7102
▁nettó	-7103
▁onnan	-7104
▁szemb	-7105
személy	-7106
▁Párizs	-7107
▁kudarc	-7108
lekedési	-7109
▁felsőok	-7110
▁egyetemi	-7111
▁segíteni	-7112
▁feltétlenül	-7113
!"	-7114
ets	-7115
ski	-7116
űrű	-7117
otal	-7118
▁Míg	-7119
▁and	-7120
▁APEH	-7121
▁Élet	-7122
▁Georg	-7123
▁hozni	-7124
▁kerek	-7125
▁terep	-7126
▁vasút	-7127
▁Velvet	-7128
▁tiszta	-7129
▁értéke	-7130
▁idősebb	-7131
▁létezik	-7132
▁szerepe	-7133
▁sportoló	-7134
▁megsemmis	-7135
▁választott	-7136
dán	-7137
abiz	-7138
fogó	-7139
fran	-7140
roll	-7141
üzem	-7142
▁192	-7143
▁Kev	-7144
ettük	-7145
hálóz	-7146
indul	-7147
▁Vill	-7148
▁nyak	-7149
▁zene	-7150
allgat	-7151
mérkőz	-7152
ásához	-7153
▁Eddig	-7154
▁Japán	-7155
▁élett	-7156
veszély	-7157
▁esztend	-7158
▁készülő	-7159
▁forgatók	-7160
▁könnyebb	-7161
▁technikai	-7162
▁interneten	-7163
▁növekedést	-7164
imn	-7165
ino	-7166
pát	-7167
lyel	-7168
ösen	-7169
▁11.	-7170
▁600	-7171
▁Dzs	-7172
▁RTL	-7173
▁fár	-7174
▁ugy	-7175
▁önt	-7176
▁Audi	-7177
▁sziv	-7178
▁Miért	-7179
gatóság	-7180
▁szintű	-7181
▁tudtam	-7182
állomány	-7183
▁visszak	-7184
▁embernek	-7185
▁gyümölcs	-7186
▁termékek	-7187
▁tizenegy	-7188
ks	-7189
ww	-7190
öng	-7191
▁kg	-7192
mint	-7193
▁káv	-7194
aktor	-7195
tartó	-7196
▁Klub	-7197
adások	-7198
keleti	-7199
▁Arany	-7200
▁kínál	-7201
▁egyenl	-7202
▁párhuz	-7203
▁száraz	-7204
frissebb	-7205
▁tűzoltó	-7206
▁vezetés	-7207
▁ellenfél	-7208
▁hatással	-7209
▁jutottak	-7210
▁tekintve	-7211
▁használni	-7212
▁véleményét	-7213
ild	-7214
▁9.	-7215
▁App	-7216
▁Fed	-7217
▁isz	-7218
iller	-7219
kötel	-7220
meccs	-7221
tatja	-7222
▁tőke	-7223
itális	-7224
ázsiai	-7225
▁Város	-7226
▁adják	-7227
▁ábráz	-7228
▁mielőtt	-7229
▁parkoló	-7230
▁csapatot	-7231
▁délutáni	-7232
▁mutatják	-7233
▁alapvetően	-7234
▁elsődleges	-7235
▁legfrissebb	-7236
▁tekintettel	-7237
▁bűncselekmények	-7238
gar	-7239
its	-7240
vad	-7241
▁ik	-7242
ozva	-7243
▁21-	-7244
▁22-	-7245
▁Sar	-7246
önyör	-7247
▁Akad	-7248
▁Film	-7249
▁Mond	-7250
▁élni	-7251
▁szegedi	-7252
▁bírósági	-7253
▁érzékeny	-7254
▁ütközött	-7255
▁WikiLeaks	-7256
▁tavasszal	-7257
▁tökéletes	-7258
ora	-7259
aták	-7260
tlen	-7261
▁...	-7262
▁14.	-7263
▁Kér	-7264
▁Lad	-7265
▁tál	-7266
▁Nyír	-7267
▁nála	-7268
▁divat	-7269
▁kikap	-7270
▁zárta	-7271
▁óriás	-7272
▁betölt	-7273
▁gyártó	-7274
▁Renault	-7275
▁tisztáz	-7276
▁életben	-7277
▁hulladék	-7278
▁juttatás	-7279
▁kedvezmény	-7280
▁szeretnénk	-7281
▁nyilatkozat	-7282
▁szolgáltató	-7283
="	-7284
íd	-7285
láb	-7286
▁250	-7287
▁Utó	-7288
▁pak	-7289
▁amik	-7290
▁tábl	-7291
▁üzen	-7292
▁terve	-7293
▁építő	-7294
▁helyét	-7295
▁hetven	-7296
▁indiai	-7297
▁követi	-7298
▁szülők	-7299
▁tízezer	-7300
▁holttest	-7301
▁radikális	-7302
▁felügyelet	-7303
▁kormánynak	-7304
jav	-7305
kát	-7306
nom	-7307
Kore	-7308
ikán	-7309
végi	-7310
érdek	-7311
▁Svéd	-7312
▁klím	-7313
▁nyúl	-7314
▁végi	-7315
▁írás	-7316
esszük	-7317
niában	-7318
▁kisfi	-7319
▁optim	-7320
▁eldönt	-7321
▁világon	-7322
▁vezetést	-7323
▁jelentett	-7324
biztosítási	-7325
▁kilométeres	-7326
▁Spanyolország	-7327
▁szeptemberben	-7328
kit	-7329
med	-7330
▁Bu	-7331
abor	-7332
ehez	-7333
ózis	-7334
▁Kon	-7335
▁rug	-7336
akter	-7337
elések	-7338
etáris	-7339
unknak	-7340
▁Tisza	-7341
▁kihagy	-7342
▁napirend	-7343
▁tisztség	-7344
60	-7345
che	-7346
uma	-7347
éje	-7348
▁41	-7349
▁Cz	-7350
tett	-7351
▁MTV	-7352
▁cáf	-7353
▁elj	-7354
▁mak	-7355
▁tab	-7356
▁toj	-7357
▁ült	-7358
motor	-7359
olvaj	-7360
▁Marc	-7361
▁Vide	-7362
hettek	-7363
napján	-7364
regény	-7365
▁fogva	-7366
▁kosár	-7367
▁máris	-7368
okatlan	-7369
▁Szövet	-7370
▁egyike	-7371
▁kérdése	-7372
▁csinálni	-7373
▁súlyosan	-7374
▁következik	-7375
ájú	-7376
Nagy	-7377
even	-7378
▁sar	-7379
ezhet	-7380
gentin	-7381
▁metró	-7382
▁Sajnos	-7383
▁kontin	-7384
▁literes	-7385
vállalkoz	-7386
▁szabadon	-7387
▁külföldön	-7388
out	-7389
▁ee	-7390
tern	-7391
ódás	-7392
▁Ver	-7393
▁kék	-7394
▁kór	-7395
▁pre	-7396
▁the	-7397
▁éri	-7398
barát	-7399
ősebb	-7400
▁csep	-7401
forrás	-7402
▁Ekkor	-7403
▁Kanad	-7404
osabban	-7405
▁bírság	-7406
▁helyén	-7407
▁hiszem	-7408
▁járnak	-7409
ításának	-7410
▁játszani	-7411
▁kockázat	-7412
▁lehetősége	-7413
▁otthonában	-7414
▁lehetőségét	-7415
ero	-7416
sik	-7417
▁dur	-7418
arnok	-7419
ódnak	-7420
▁Idén	-7421
▁Napi	-7422
▁ütem	-7423
ossuth	-7424
ászati	-7425
ításra	-7426
▁napot	-7427
▁Bayern	-7428
▁pontra	-7429
▁veszik	-7430
▁tökélet	-7431
▁ügyelet	-7432
▁határidő	-7433
▁megteremt	-7434
▁keletkezett	-7435
▁államadósság	-7436
aw	-7437
▁DV	-7438
▁aj	-7439
négy	-7440
wood	-7441
▁esk	-7442
jától	-7443
unkra	-7444
ötték	-7445
▁Irán	-7446
▁Phil	-7447
▁Szem	-7448
▁komb	-7449
▁mult	-7450
▁tend	-7451
▁órás	-7452
▁Hajdú	-7453
▁eltűn	-7454
▁genet	-7455
▁lakos	-7456
▁luxus	-7457
▁zajló	-7458
▁Szerencs	-7459
▁felismer	-7460
▁kiemelte	-7461
▁olvashat	-7462
▁pályafut	-7463
▁illegális	-7464
▁használják	-7465
▁településen	-7466
▁választásokon	-7467
xd	-7468
bal	-7469
ibb	-7470
kil	-7471
anna	-7472
▁Fül	-7473
ukban	-7474
élked	-7475
ekkora	-7476
ettebb	-7477
▁emelt	-7478
▁kívüli	-7479
▁Kecskem	-7480
▁ezelőtti	-7481
▁másrészt	-7482
▁szolgáló	-7483
▁születés	-7484
▁döntöttek	-7485
▁kórházban	-7486
▁konfliktus	-7487
▁meghatározott	-7488
▁ajánlószelvény	-7489
odó	-7490
▁49	-7491
amin	-7492
hegy	-7493
nyolc	-7494
szerv	-7495
életi	-7496
ítsák	-7497
▁sürg	-7498
lemény	-7499
éllyel	-7500
özpont	-7501
▁amint	-7502
▁bölcs	-7503
▁ügyet	-7504
▁franci	-7505
▁hatása	-7506
▁életbe	-7507
▁őszint	-7508
▁jogerős	-7509
▁gyengült	-7510
▁kénytelen	-7511
▁működését	-7512
▁pártelnök	-7513
▁tisztesség	-7514
odr	-7515
vás	-7516
▁10,	-7517
▁BUX	-7518
▁Fut	-7519
▁Mot	-7520
▁Rák	-7521
▁Sőt	-7522
▁pot	-7523
▁rob	-7524
attól	-7525
▁KDNP	-7526
▁kéne	-7527
enekar	-7528
iverpo	-7529
ésekor	-7530
▁menni	-7531
▁Választ	-7532
▁megszól	-7533
▁perccel	-7534
▁Egyelőre	-7535
▁illetően	-7536
▁jelenlét	-7537
▁munkaerő	-7538
III	-7539
cal	-7540
nel	-7541
üsp	-7542
▁Ír	-7543
▁üld	-7544
▁elny	-7545
század	-7546
álatok	-7547
▁elért	-7548
▁hozza	-7549
▁hölgy	-7550
▁utalt	-7551
▁Ronald	-7552
▁herceg	-7553
▁kártér	-7554
▁legkev	-7555
▁magára	-7556
▁Színház	-7557
▁egységes	-7558
▁forgalma	-7559
▁megtalál	-7560
▁évfordul	-7561
▁megbízott	-7562
▁mérkőzést	-7563
kereskedelmi	-7564
mez	-7565
▁Jo	-7566
▁kv	-7567
mozg	-7568
▁Rem	-7569
telep	-7570
▁Pént	-7571
▁bomb	-7572
▁mást	-7573
▁téma	-7574
egyver	-7575
ozások	-7576
▁megcs	-7577
▁rakét	-7578
▁vonat	-7579
ességet	-7580
központ	-7581
▁Aleksz	-7582
▁Sopron	-7583
▁furcsa	-7584
▁hátter	-7585
▁kanyar	-7586
▁számát	-7587
▁vastag	-7588
▁megfigy	-7589
▁termelés	-7590
▁baloldali	-7591
▁összetett	-7592
);	-7593
NS	-7594
:00	-7595
arn	-7596
avi	-7597
áty	-7598
zséb	-7599
álva	-7600
ficit	-7601
kezés	-7602
labda	-7603
üspök	-7604
▁füst	-7605
▁hajó	-7606
▁Emlék	-7607
▁Peter	-7608
▁elnev	-7609
▁hétköz	-7610
▁lettek	-7611
▁sajnál	-7612
▁színes	-7613
terjeszt	-7614
▁Először	-7615
▁hónapja	-7616
▁ingyenes	-7617
▁jogosult	-7618
▁játékosa	-7619
▁folytatja	-7620
▁fontosabb	-7621
▁programot	-7622
12	-7623
ew	-7624
oki	-7625
vöz	-7626
zon	-7627
ight	-7628
omba	-7629
őnek	-7630
▁Dev	-7631
▁Dob	-7632
▁leáll	-7633
▁réteg	-7634
▁római	-7635
▁egyedi	-7636
▁üzenet	-7637
avédelmi	-7638
▁Ferrari	-7639
▁visszam	-7640
▁kábítószer	-7641
▁rendszerben	-7642
▁szeretnének	-7643
▁foglalkoztatás	-7644
35	-7645
80	-7646
-10	-7647
jaz	-7648
ítt	-7649
enné	-7650
ense	-7651
jünk	-7652
orok	-7653
ödés	-7654
ölni	-7655
▁Zala	-7656
▁anya	-7657
▁áron	-7658
▁észl	-7659
esztin	-7660
▁Szolg	-7661
▁trend	-7662
etlenül	-7663
védelem	-7664
▁előtte	-7665
▁hiánya	-7666
▁lóerős	-7667
▁amilyen	-7668
▁kívánja	-7669
▁gépjármű	-7670
▁történtek	-7671
▁áldozatok	-7672
▁negyeddönt	-7673
▁fejlesztési	-7674
ge	-7675
ive	-7676
jöv	-7677
okk	-7678
sej	-7679
őri	-7680
▁GP	-7681
gyár	-7682
ázta	-7683
▁Jud	-7684
▁blok	-7685
▁hüly	-7686
pressz	-7687
▁iroda	-7688
asszony	-7689
▁betegek	-7690
▁eltávol	-7691
▁hálózat	-7692
▁hónapos	-7693
▁szovjet	-7694
▁színház	-7695
▁Brüsszel	-7696
▁közelebb	-7697
▁mindenkit	-7698
▁nyomozást	-7699
▁fokozatosan	-7700
▁munkanélküliség	-7701
NA	-7702
für	-7703
git	-7704
lót	-7705
iság	-7706
▁End	-7707
▁Jel	-7708
▁eld	-7709
▁top	-7710
▁Telek	-7711
▁titok	-7712
asztott	-7713
▁Demokr	-7714
▁Farkas	-7715
▁hozták	-7716
▁munkás	-7717
cionális	-7718
isztikai	-7719
▁felaján	-7720
▁katonák	-7721
▁kötvény	-7722
▁Vasárnap	-7723
▁alaposan	-7724
▁igyekszik	-7725
▁különféle	-7726
▁védekezés	-7727
▁hozzájárul	-7728
▁származású	-7729
▁kétharmados	-7730
tál	-7731
ekbe	-7732
ouse	-7733
park	-7734
▁23-	-7735
▁Kör	-7736
ergia	-7737
gyógy	-7738
▁vigy	-7739
▁vont	-7740
izáció	-7741
▁Alons	-7742
▁Isten	-7743
▁Vörös	-7744
▁virág	-7745
ponttal	-7746
▁eléged	-7747
▁olimpia	-7748
▁Fejleszt	-7749
▁forintba	-7750
▁intenzív	-7751
válogatott	-7752
▁közzétett	-7753
▁Alapítvány	-7754
▁lényegében	-7755
▁kapcsolatok	-7756
▁emlékeztetett	-7757
▁közigazgatási	-7758
RT	-7759
ria	-7760
▁av	-7761
elme	-7762
forr	-7763
ikák	-7764
▁2,5	-7765
▁kód	-7766
eking	-7767
essék	-7768
▁Volt	-7769
▁Afgan	-7770
▁Münch	-7771
▁bolyg	-7772
▁nagym	-7773
▁utcán	-7774
▁kezdet	-7775
▁labdát	-7776
▁Holland	-7777
▁tesznek	-7778
▁szerezni	-7779
▁értékben	-7780
▁Amennyiben	-7781
▁demokrácia	-7782
▁katasztrófa	-7783
▁változtatás	-7784
▁rendszerváltás	-7785
ukk	-7786
▁Ko	-7787
anta	-7788
niai	-7789
▁19-	-7790
▁Mak	-7791
▁főz	-7792
▁férj	-7793
▁leny	-7794
ivárog	-7795
▁mozog	-7796
▁vizet	-7797
▁vírus	-7798
▁átlát	-7799
▁érzés	-7800
esebben	-7801
▁Balogh	-7802
▁Később	-7803
▁feltűn	-7804
▁áruház	-7805
▁alkohol	-7806
▁határid	-7807
▁nyolcvan	-7808
▁szellemi	-7809
▁összesít	-7810
▁fegyveres	-7811
▁programja	-7812
▁részletes	-7813
▁Ferencváros	-7814
▁Köztársaság	-7815
th	-7816
▁57	-7817
enyi	-7818
járó	-7819
szül	-7820
▁3,5	-7821
▁Kop	-7822
ezésű	-7823
jukat	-7824
ságos	-7825
▁Szig	-7826
alíció	-7827
ogramm	-7828
▁Ebből	-7829
▁tonna	-7830
▁hangoz	-7831
▁helyes	-7832
▁látják	-7833
▁érinti	-7834
▁bekövet	-7835
▁fizetés	-7836
▁határoz	-7837
▁könyvet	-7838
▁mértékű	-7839
▁tehetség	-7840
▁feltehetően	-7841
▁választáson	-7842
▁Magyarországra	-7843
erk	-7844
nam	-7845
táv	-7846
ömb	-7847
▁9-	-7848
mail	-7849
oton	-7850
rang	-7851
isebb	-7852
jához	-7853
kezet	-7854
▁Kelet	-7855
▁hátra	-7856
▁betart	-7857
▁eladás	-7858
▁hitelt	-7859
▁időjár	-7860
▁megköt	-7861
▁meteor	-7862
▁További	-7863
▁kifogás	-7864
▁úgyhogy	-7865
▁állomány	-7866
▁kérdésére	-7867
▁kifejtette	-7868
▁személyesen	-7869
▁kategóriában	-7870
▁Lengyelország	-7871
Ha	-7872
mát	-7873
tör	-7874
▁ös	-7875
eges	-7876
esti	-7877
izsi	-7878
ésbe	-7879
▁26-	-7880
▁Bla	-7881
▁Kál	-7882
▁Lap	-7883
▁Tur	-7884
▁csú	-7885
mában	-7886
▁Liga	-7887
▁NATO	-7888
▁lámp	-7889
▁vala	-7890
ünkben	-7891
▁céget	-7892
▁főnök	-7893
asztalt	-7894
ításban	-7895
▁illeti	-7896
▁játssz	-7897
▁gyönyör	-7898
▁magával	-7899
▁nehezebb	-7900
▁érvényben	-7901
▁helyszínre	-7902
▁sajtóügyelet	-7903
17	-7904
aza	-7905
▁52	-7906
▁FI	-7907
omin	-7908
utaz	-7909
őtől	-7910
elmek	-7911
közép	-7912
▁10-1	-7913
▁gomb	-7914
▁kicsi	-7915
▁korai	-7916
emelked	-7917
vezetők	-7918
▁előrel	-7919
▁feláll	-7920
▁küszöb	-7921
telenség	-7922
örnyezet	-7923
▁Richard	-7924
▁határon	-7925
▁rendben	-7926
▁ajánlott	-7927
▁gyereket	-7928
▁szokatlan	-7929
▁ellentmond	-7930
já	-7931
der	-7932
hit	-7933
▁XV	-7934
ábla	-7935
őről	-7936
▁17-	-7937
▁Fid	-7938
▁Jól	-7939
▁Tiz	-7940
▁gal	-7941
▁sét	-7942
ekció	-7943
vezér	-7944
eszköz	-7945
oldalú	-7946
▁tagok	-7947
▁érett	-7948
▁Vettel	-7949
▁eltűnt	-7950
▁kiszám	-7951
▁publik	-7952
▁szépen	-7953
▁könnyed	-7954
▁utcában	-7955
▁elsőként	-7956
▁világban	-7957
▁szervezők	-7958
▁interjúban	-7959
▁információi	-7960
▁világszerte	-7961
AC	-7962
ESZ	-7963
bolt	-7964
órás	-7965
▁Nic	-7966
olgár	-7967
▁kéri	-7968
▁üres	-7969
kutató	-7970
▁Total	-7971
▁feles	-7972
▁terén	-7973
▁váltó	-7974
▁tavaszi	-7975
▁Portugál	-7976
▁különadó	-7977
▁részesed	-7978
▁sikerrel	-7979
▁Televízió	-7980
▁törvények	-7981
▁forradalom	-7982
▁megszokott	-7983
▁igazgatóság	-7984
▁bajnokságban	-7985
lo	-7986
ré	-7987
óp	-7988
▁Kö	-7989
▁Mo	-7990
▁Sc	-7991
inho	-7992
uenz	-7993
ácsi	-7994
▁Gar	-7995
▁jók	-7996
index	-7997
jétől	-7998
ásból	-7999
▁órát	-8000
zsébet	-8001
▁Békés	-8002
▁Gabri	-8003
▁Újabb	-8004
fordult	-8005
telenek	-8006
udomány	-8007
▁Honvéd	-8008
▁közelm	-8009
▁megtám	-8010
▁vegyes	-8011
városban	-8012
▁Kossuth	-8013
▁elenged	-8014
▁hallott	-8015
▁részére	-8016
▁szerény	-8017
▁tetszik	-8018
▁irányító	-8019
▁jóváhagy	-8020
▁szerzője	-8021
▁valamivel	-8022
▁főigazgató	-8023
▁hónapokban	-8024
▁sorozatban	-8025
▁Afganisztán	-8026
▁Igazgatóság	-8027
▁települések	-8028
▁felülvizsgál	-8029
▁államháztartási	-8030
oba	-8031
▁47	-8032
ardo	-8033
ever	-8034
▁Bál	-8035
▁asz	-8036
kelet	-8037
ólyom	-8038
▁Webb	-8039
▁háló	-8040
▁szeg	-8041
▁szök	-8042
elikop	-8043
vándor	-8044
▁bűnös	-8045
▁indít	-8046
▁ritka	-8047
▁lehető	-8048
▁munkak	-8049
▁nyerni	-8050
▁strukt	-8051
veszélyes	-8052
▁beszámolt	-8053
▁bizonyult	-8054
▁térségben	-8055
▁készültség	-8056
▁összegyűjt	-8057
▁tartalmazza	-8058
▁börtönbüntet	-8059
▁parlamentben	-8060
?"	-8061
HL	-8062
aja	-8063
edő	-8064
ire	-8065
áma	-8066
▁Qu	-8067
▁na	-8068
etro	-8069
páros	-8070
számú	-8071
tőzsd	-8072
▁tönk	-8073
▁napos	-8074
▁szank	-8075
▁utóbb	-8076
▁kerülő	-8077
▁legnép	-8078
▁méretű	-8079
▁számon	-8080
▁zajlik	-8081
▁deficit	-8082
▁ennyire	-8083
▁felszín	-8084
▁rámutat	-8085
▁hiányzik	-8086
▁hozzáfér	-8087
▁párhuzam	-8088
▁százezer	-8089
▁Krisztián	-8090
▁közelmúlt	-8091
▁pillanatban	-8092
▁eredményeket	-8093
bl	-8094
bo	-8095
Egy	-8096
kur	-8097
usa	-8098
▁We	-8099
▁ás	-8100
ísér	-8101
▁24-	-8102
▁Sam	-8103
olcsy	-8104
▁Első	-8105
▁stáb	-8106
▁Ákos	-8107
▁Apple	-8108
▁Malév	-8109
▁banki	-8110
▁bővül	-8111
▁edzés	-8112
ational	-8113
▁eltilt	-8114
▁felvon	-8115
▁kaland	-8116
▁mozdul	-8117
▁megenged	-8118
▁éjszakai	-8119
▁Csütörtök	-8120
▁köszönhető	-8121
▁regionális	-8122
3)	-8123
xc	-8124
óf	-8125
alg	-8126
▁53	-8127
▁Op	-8128
aink	-8129
prom	-8130
▁Cor	-8131
▁gyűl	-8132
▁keny	-8133
iskola	-8134
▁deleg	-8135
▁végki	-8136
▁ügyek	-8137
pénztár	-8138
▁Január	-8139
▁Kedden	-8140
▁elhang	-8141
▁Újpest	-8142
forgalom	-8143
▁fejezte	-8144
▁hétvégi	-8145
▁elmaradt	-8146
▁forgatás	-8147
▁szavazás	-8148
▁stratégiai	-8149
▁versenykép	-8150
cht	-8151
nai	-8152
▁Ah	-8153
▁GB	-8154
▁Se	-8155
kert	-8156
▁Jul	-8157
ergom	-8158
igazd	-8159
▁Hold	-8160
▁porn	-8161
gondol	-8162
ánnyal	-8163
▁bevet	-8164
▁öltöz	-8165
vezetés	-8166
▁Andrea	-8167
▁ázsiai	-8168
politika	-8169
▁beszáll	-8170
▁folyamán	-8171
▁hallgató	-8172
▁ideiglen	-8173
▁lehessen	-8174
▁emelkedik	-8175
▁indokolta	-8176
▁minimális	-8177
▁szerintük	-8178
▁megalapozott	-8179
▁tájékoztatott	-8180
itz	-8181
nan	-8182
rov	-8183
vájc	-8184
▁Aut	-8185
▁Cam	-8186
▁ejt	-8187
▁eng	-8188
adták	-8189
korcs	-8190
lakát	-8191
▁csek	-8192
alifor	-8193
exikói	-8194
történ	-8195
▁Hason	-8196
▁felek	-8197
▁kivon	-8198
▁lemez	-8199
▁írták	-8200
▁Románi	-8201
▁feltár	-8202
▁riaszt	-8203
▁szemét	-8204
▁vadász	-8205
▁felület	-8206
▁látványos	-8207
▁amerikaiak	-8208
45	-8209
kul	-8210
tük	-8211
ltal	-8212
olid	-8213
omat	-8214
▁vám	-8215
akadt	-8216
▁Ford	-8217
▁bocs	-8218
▁kipr	-8219
ulását	-8220
▁Szoci	-8221
▁ittas	-8222
▁napra	-8223
▁szóba	-8224
▁Alonso	-8225
▁készen	-8226
▁mérnök	-8227
▁ítélte	-8228
▁párizsi	-8229
▁elbeszél	-8230
▁magatart	-8231
▁megmutat	-8232
▁stratégi	-8233
▁egyensúly	-8234
▁programok	-8235
▁tisztában	-8236
▁bejelentés	-8237
11	-8238
özi	-8239
▁Gi	-8240
▁ék	-8241
okol	-8242
vers	-8243
▁Ass	-8244
▁Kid	-8245
▁Teh	-8246
arvas	-8247
elejt	-8248
óbált	-8249
▁dupl	-8250
▁unió	-8251
művész	-8252
▁csoda	-8253
▁nézni	-8254
▁simán	-8255
▁integr	-8256
▁láttam	-8257
▁euróval	-8258
▁hazaiak	-8259
▁okozhat	-8260
▁szektor	-8261
▁többlet	-8262
művészeti	-8263
▁hozzájár	-8264
▁legyenek	-8265
▁mobiltel	-8266
▁kevesebbet	-8267
ate	-8268
hár	-8269
itu	-8270
▁ür	-8271
cher	-8272
heim	-8273
jére	-8274
lánc	-8275
ítsa	-8276
▁191	-8277
▁28-	-8278
▁Pol	-8279
▁Szó	-8280
erték	-8281
járat	-8282
▁Dani	-8283
lődött	-8284
▁Tiszt	-8285
▁Vissz	-8286
▁közzé	-8287
▁vélte	-8288
ennyire	-8289
▁Barack	-8290
▁Hétfőn	-8291
▁vidéki	-8292
▁Ausztri	-8293
▁köszönt	-8294
demokrata	-8295
▁argentin	-8296
▁gondolja	-8297
▁állítják	-8298
▁győzelmet	-8299
▁monetáris	-8300
▁meghaladja	-8301
▁tapasztalt	-8302
▁finanszírozás	-8303
nyugdíjpénztári	-8304
har	-8305
nám	-8306
éch	-8307
anda	-8308
apor	-8309
jelöl	-8310
ulhat	-8311
▁márk	-8312
jainak	-8313
▁kincs	-8314
▁idézte	-8315
▁mentők	-8316
▁riport	-8317
▁szoros	-8318
arketing	-8319
közelebb	-8320
▁agressz	-8321
▁fellebb	-8322
▁takarék	-8323
▁tartalm	-8324
▁tizenöt	-8325
▁Ausztrál	-8326
▁arányban	-8327
▁egyrészt	-8328
▁vezetése	-8329
▁személygép	-8330
▁véletlenül	-8331
Magyarország	-8332
▁foglalkoztat	-8333
áva	-8334
▁800	-8335
▁Fab	-8336
▁foc	-8337
▁vét	-8338
edves	-8339
ennel	-8340
▁csel	-8341
▁előd	-8342
▁gyök	-8343
▁szür	-8344
▁aggod	-8345
▁leány	-8346
▁dolgot	-8347
▁megism	-8348
▁nyelvű	-8349
▁állást	-8350
szerkezet	-8351
▁Matolcsy	-8352
▁hetekben	-8353
▁ugyanúgy	-8354
▁digitális	-8355
▁szereplők	-8356
▁eredményei	-8357
▁fogyasztói	-8358
▁munkáltató	-8359
gő	-8360
▁56	-8361
▁Sy	-8362
ange	-8363
rian	-8364
ódni	-8365
ósok	-8366
▁Jöv	-8367
▁Tak	-8368
ulást	-8369
▁Lend	-8370
▁Márt	-8371
▁mára	-8372
▁zsír	-8373
lottak	-8374
onnyal	-8375
▁büdzs	-8376
▁kitör	-8377
▁Érték	-8378
▁Dániel	-8379
▁Toyota	-8380
▁eltelt	-8381
▁jelkép	-8382
▁mentén	-8383
▁szakma	-8384
▁Moszkva	-8385
▁München	-8386
▁kezdték	-8387
▁többiek	-8388
▁voltunk	-8389
▁váltott	-8390
öltségvet	-8391
▁Vélemény	-8392
▁gyengébb	-8393
▁meggyőző	-8394
▁utoljára	-8395
▁évszázad	-8396
▁figyelmét	-8397
dí	-8398
els	-8399
ekul	-8400
inda	-8401
lini	-8402
remű	-8403
ülni	-8404
▁kip	-8405
▁pop	-8406
▁tün	-8407
hiány	-8408
ilton	-8409
szkij	-8410
▁Pann	-8411
▁park	-8412
▁tévé	-8413
▁besor	-8414
▁elhal	-8415
▁férje	-8416
▁sorban	-8417
▁ősszel	-8418
▁Kereszt	-8419
▁Kínában	-8420
▁kezdtek	-8421
▁korában	-8422
▁megmond	-8423
▁próbált	-8424
▁székhely	-8425
▁áldozata	-8426
▁érkeztek	-8427
▁használja	-8428
▁jegyezték	-8429
▁maradvány	-8430
▁novemberi	-8431
▁résztvevő	-8432
▁formájában	-8433
▁legrosszabb	-8434
▁törvényjavaslat	-8435
irk	-8436
osa	-8437
ubl	-8438
ötő	-8439
agan	-8440
ossá	-8441
udai	-8442
▁Ast	-8443
▁III	-8444
▁Jog	-8445
▁tax	-8446
ésből	-8447
▁Igen	-8448
▁évad	-8449
▁Guard	-8450
▁Oscar	-8451
▁elfel	-8452
▁kapac	-8453
▁képek	-8454
▁Sólyom	-8455
▁diákok	-8456
▁tenisz	-8457
▁térkép	-8458
jelöltje	-8459
▁Twitter	-8460
▁hetedik	-8461
▁januári	-8462
▁pedagóg	-8463
▁karakter	-8464
▁énekesnő	-8465
▁balesetet	-8466
▁folytatta	-8467
▁korosztály	-8468
▁vizsgálják	-8469
▁biztonságos	-8470
▁igazságügyi	-8471
▁kellemetlen	-8472
ida	-8473
ogn	-8474
rot	-8475
andr	-8476
ázat	-8477
▁rov	-8478
▁vol	-8479
▁zak	-8480
díjas	-8481
▁Mess	-8482
▁Széch	-8483
▁bőven	-8484
francia	-8485
kereszt	-8486
▁Elmond	-8487
▁alapon	-8488
▁fenyeg	-8489
▁halála	-8490
▁órával	-8491
ternatív	-8492
▁közremű	-8493
▁levelet	-8494
▁Amerikai	-8495
▁korszerű	-8496
▁legyőzte	-8497
▁átmeneti	-8498
helyettese	-8499
▁válaszolt	-8500
▁televíziós	-8501
▁országokban	-8502
▁közbeszerzési	-8503
aid	-8504
enék	-8505
údió	-8506
▁1,2	-8507
▁Rol	-8508
▁Sokan	-8509
▁Vlagy	-8510
▁beáll	-8511
▁ellop	-8512
▁iráni	-8513
▁nézet	-8514
▁sülly	-8515
▁érzem	-8516
ségének	-8517
▁bukkan	-8518
▁felsor	-8519
▁ülésen	-8520
▁Liverpo	-8521
▁akarták	-8522
▁bevásár	-8523
▁fizikai	-8524
▁képerny	-8525
▁jelöltje	-8526
▁melletti	-8527
▁Vancouver	-8528
▁autópálya	-8529
▁elismerte	-8530
▁említette	-8531
▁esetekben	-8532
▁gyermekek	-8533
▁várakozás	-8534
▁Választási	-8535
▁Olaszország	-8536
▁kilométerre	-8537
▁találkozott	-8538
▁mezőgazdasági	-8539
óv	-8540
eim	-8541
esk	-8542
▁120	-8543
▁Hun	-8544
▁Lov	-8545
▁Néz	-8546
atmár	-8547
álása	-8548
▁Hang	-8549
▁vonz	-8550
cional	-8551
pótlás	-8552
▁2003-	-8553
▁Fülöp	-8554
▁Mária	-8555
▁katal	-8556
▁tudok	-8557
▁aligha	-8558
▁debrec	-8559
▁játszó	-8560
▁megind	-8561
▁piacra	-8562
▁védett	-8563
▁filmben	-8564
▁sértett	-8565
▁tizenkét	-8566
▁önkéntes	-8567
▁büntetőel	-8568
▁gazdálkod	-8569
▁információt	-8570
▁összefoglal	-8571
▁fordulójában	-8572
▁legnépszerűbb	-8573
/2	-8574
xe	-8575
air	-8576
aná	-8577
edi	-8578
kom	-8579
▁Ők	-8580
sort	-8581
▁Gre	-8582
kezik	-8583
lések	-8584
▁tonn	-8585
▁élen	-8586
negyed	-8587
▁Ellen	-8588
▁cukor	-8589
▁félév	-8590
▁megél	-8591
▁náluk	-8592
▁partn	-8593
▁sztor	-8594
ítással	-8595
▁könyve	-8596
▁nyomás	-8597
▁szembe	-8598
▁évesen	-8599
▁Richter	-8600
▁egyikük	-8601
▁nevében	-8602
▁számítás	-8603
▁fesztivál	-8604
▁végkielég	-8605
▁előterjeszt	-8606
▁végeredmény	-8607
Cs	-8608
20-	-8609
aga	-8610
aty	-8611
ise	-8612
lén	-8613
ped	-8614
óst	-8615
▁Av	-8616
▁ek	-8617
....	-8618
eser	-8619
radó	-8620
özik	-8621
▁pál	-8622
bázis	-8623
▁Fern	-8624
hullám	-8625
▁újdon	-8626
osszolg	-8627
szervez	-8628
▁fejezet	-8629
▁igazolt	-8630
▁jelenik	-8631
▁magabiz	-8632
▁meglévő	-8633
▁hatáskör	-8634
▁jegyezte	-8635
▁kerületben	-8636
▁ugyanolyan	-8637
▁diplomáciai	-8638
▁szélsőséges	-8639
▁információkat	-8640
lit	-8641
▁EP	-8642
▁Pe	-8643
kalm	-8644
nyék	-8645
▁Del	-8646
▁Dub	-8647
▁Mur	-8648
▁Rob	-8649
▁hid	-8650
obban	-8651
▁Ivan	-8652
▁Thom	-8653
▁kiny	-8654
liában	-8655
zárkóz	-8656
▁felét	-8657
▁felől	-8658
▁kezdő	-8659
▁megír	-8660
▁várni	-8661
▁Által	-8662
▁Fekete	-8663
▁góllal	-8664
▁import	-8665
▁kitart	-8666
▁képzés	-8667
▁kívánt	-8668
▁perces	-8669
▁utasok	-8670
▁helyére	-8671
▁kezdődő	-8672
▁közgazd	-8673
▁mondják	-8674
▁találni	-8675
▁tervezi	-8676
▁virradó	-8677
▁ismertet	-8678
▁jótékony	-8679
▁normális	-8680
▁Környezet	-8681
▁debreceni	-8682
▁fordított	-8683
▁népszavaz	-8684
▁Székesfehér	-8685
▁választotta	-8686
▁közszolgálati	-8687
▁támogatottság	-8688
ER	-8689
SZÁ	-8690
icz	-8691
▁sk	-8692
oham	-8693
vevő	-8694
▁ger	-8695
▁sör	-8696
attan	-8697
éstől	-8698
▁2000	-8699
▁vész	-8700
ügyben	-8701
▁Schum	-8702
▁Svájc	-8703
▁ezren	-8704
▁inter	-8705
▁műtét	-8706
ezésére	-8707
közlési	-8708
▁Utóbbi	-8709
▁elárul	-8710
▁kerest	-8711
▁látták	-8712
▁nyitva	-8713
▁produc	-8714
▁szórak	-8715
▁maradék	-8716
▁vesznek	-8717
▁ítélték	-8718
▁Fehérvár	-8719
▁bebizony	-8720
▁büntetés	-8721
▁levélben	-8722
▁szivatty	-8723
▁végeztek	-8724
▁palesztin	-8725
▁szakaszán	-8726
▁alternatív	-8727
▁kommunista	-8728
▁tájékoztatást	-8729
▁összességében	-8730
jev	-8731
kán	-8732
mar	-8733
▁64	-8734
▁EB	-8735
anul	-8736
nali	-8737
terv	-8738
ékek	-8739
▁(0-	-8740
▁Vit	-8741
▁ref	-8742
ozdul	-8743
utyin	-8744
▁eszm	-8745
▁imád	-8746
▁szál	-8747
▁zsák	-8748
▁érez	-8749
▁eljut	-8750
▁jelzi	-8751
▁kisgy	-8752
▁moszk	-8753
▁árver	-8754
▁életet	-8755
▁milliót	-8756
▁Keresked	-8757
▁elődöntő	-8758
▁hozzájuk	-8759
▁házigazd	-8760
▁résztvev	-8761
▁valahogy	-8762
▁megszület	-8763
▁benyújtott	-8764
▁üzletember	-8765
▁automatikus	-8766
▁következett	-8767
▁magánszemély	-8768
▁szolgáltatások	-8769
▁tulajdonképpen	-8770
éc	-8771
üd	-8772
eld	-8773
űri	-8774
▁Ag	-8775
alit	-8776
erre	-8777
hozz	-8778
kány	-8779
mitt	-8780
riai	-8781
▁Jer	-8782
▁Kub	-8783
▁Mic	-8784
▁Rud	-8785
▁div	-8786
▁Hely	-8787
▁véve	-8788
▁zseb	-8789
olását	-8790
▁Ildik	-8791
▁Szint	-8792
▁nézve	-8793
▁szégy	-8794
▁épült	-8795
viselők	-8796
▁búcsúz	-8797
▁felejt	-8798
▁jönnek	-8799
▁listát	-8800
▁selejt	-8801
▁valaha	-8802
▁Nyomozó	-8803
▁iskolai	-8804
▁kultúra	-8805
▁potenci	-8806
▁azonnali	-8807
▁dolgokat	-8808
▁gyönyörű	-8809
▁megfizet	-8810
▁állítani	-8811
▁Vlagyimir	-8812
▁balesetben	-8813
▁térségében	-8814
▁biztosítani	-8815
▁részleteket	-8816
▁választották	-8817
▁teljesítménye	-8818
ish	-8819
iás	-8820
ehéz	-8821
emen	-8822
ling	-8823
▁13-	-8824
▁Fél	-8825
▁Rac	-8826
▁Vir	-8827
ságra	-8828
▁Bund	-8829
▁Máté	-8830
▁Wolf	-8831
▁Zsig	-8832
▁erők	-8833
▁hold	-8834
▁rász	-8835
tatása	-8836
▁Polit	-8837
▁jogok	-8838
▁Bálint	-8839
▁London	-8840
▁elterj	-8841
▁átadás	-8842
kapitány	-8843
ollywood	-8844
ításokat	-8845
▁kezelni	-8846
▁Széchenyi	-8847
▁fontosság	-8848
▁gyűjtemény	-8849
▁változások	-8850
▁Fejlesztési	-8851
▁titkosszolg	-8852
▁tekintetében	-8853
▁munkavállalók	-8854
sá	-8855
▁•	-8856
eth	-8857
rip	-8858
uha	-8859
▁Ly	-8860
----	-8861
eját	-8862
öngy	-8863
▁700	-8864
▁Luk	-8865
▁Nik	-8866
száml	-8867
uhász	-8868
ények	-8869
▁Jász	-8870
▁Leon	-8871
▁Rész	-8872
alista	-8873
▁eleve	-8874
▁helye	-8875
▁kiadó	-8876
▁átlép	-8877
▁Tarlós	-8878
▁Vagyis	-8879
▁elérte	-8880
▁főtitk	-8881
▁hektár	-8882
▁magunk	-8883
▁püspök	-8884
▁szárny	-8885
▁ünnepi	-8886
▁Hasonló	-8887
▁Szerdán	-8888
▁halálát	-8889
▁rendelt	-8890
▁tényező	-8891
▁államok	-8892
▁köbméter	-8893
▁moszkvai	-8894
▁olimpián	-8895
▁telefonon	-8896
▁főszereplő	-8897
▁lényegesen	-8898
▁területeken	-8899
▁szerencsétlen	-8900
8,	-8901
KA	-8902
áh	-8903
Lar	-8904
bur	-8905
rai	-8906
rei	-8907
sák	-8908
▁2,	-8909
arak	-8910
elle	-8911
ello	-8912
nője	-8913
▁30.	-8914
▁Afr	-8915
acher	-8916
front	-8917
hitel	-8918
jelző	-8919
pálya	-8920
ségre	-8921
utóbb	-8922
ászár	-8923
▁hasz	-8924
▁teng	-8925
ikusan	-8926
ikával	-8927
▁1990-	-8928
▁törzs	-8929
▁Közben	-8930
▁iránti	-8931
▁műszer	-8932
▁tudtuk	-8933
▁vitték	-8934
▁feltölt	-8935
▁jogsért	-8936
▁kezében	-8937
▁németek	-8938
▁vonatok	-8939
▁összesz	-8940
▁felhábor	-8941
▁életében	-8942
▁felmerült	-8943
▁legkisebb	-8944
▁merénylet	-8945
▁munkaügyi	-8946
▁területek	-8947
▁tekinthető	-8948
▁viszonyítva	-8949
▁Hírügynökség	-8950
SV	-8951
vé	-8952
hős	-8953
lad	-8954
izód	-8955
prof	-8956
▁(2-	-8957
▁14-	-8958
▁Gen	-8959
▁Kim	-8960
▁seh	-8961
▁tét	-8962
csics	-8963
kodni	-8964
rendű	-8965
▁graf	-8966
▁talp	-8967
▁Iroda	-8968
▁Szerb	-8969
▁jelek	-8970
▁testi	-8971
▁Moszkv	-8972
▁ismeri	-8973
▁konstr	-8974
▁nézett	-8975
▁órától	-8976
▁Futball	-8977
▁csinált	-8978
▁felment	-8979
▁mértéke	-8980
▁stadion	-8981
▁étterem	-8982
▁fokozott	-8983
▁maradtak	-8984
▁feladatok	-8985
▁folyamatban	-8986
▁forgatókönyv	-8987
4)	-8988
apt	-8989
ien	-8990
kín	-8991
sok	-8992
▁58	-8993
▁Át	-8994
▁2-1	-8995
▁Nav	-8996
▁alp	-8997
▁kre	-8998
olasz	-8999
osnak	-9000
▁Horn	-9001
▁Száz	-9002
▁foci	-9003
▁fedél	-9004
▁kalóz	-9005
nyugati	-9006
▁bérlet	-9007
▁kísért	-9008
▁profit	-9009
▁váltak	-9010
▁fejlett	-9011
▁munkája	-9012
▁autóbusz	-9013
▁elsőfokú	-9014
▁forgalmi	-9015
▁helyettes	-9016
▁kontinens	-9017
▁visszafog	-9018
▁kiemelkedő	-9019
▁képviselet	-9020
▁vonatkozik	-9021
▁pénzintézet	-9022
▁mindenesetre	-9023
BA	-9024
VG	-9025
uny	-9026
xid	-9027
▁54	-9028
▁Bus	-9029
▁Com	-9030
▁tür	-9031
esítő	-9032
odtak	-9033
puszt	-9034
ülése	-9035
▁Jean	-9036
▁Roma	-9037
▁ital	-9038
▁rádi	-9039
▁szur	-9040
▁árak	-9041
▁élők	-9042
ciókat	-9043
ekedés	-9044
entrál	-9045
hasson	-9046
kedett	-9047
portál	-9048
ámadás	-9049
▁2013-	-9050
▁Black	-9051
▁Rádió	-9052
▁doboz	-9053
▁idézi	-9054
▁torna	-9055
▁Berlin	-9056
▁Ligája	-9057
▁gondot	-9058
▁lépést	-9059
▁csapatt	-9060
▁megnyug	-9061
▁mekkora	-9062
▁villany	-9063
▁Williams	-9064
▁helyzete	-9065
▁lendület	-9066
▁törleszt	-9067
▁Szerintem	-9068
▁egészében	-9069
▁megnyerte	-9070
▁nagyszerű	-9071
▁produkció	-9072
▁pályázati	-9073
▁vélhetően	-9074
▁könnyebben	-9075
▁rendszeres	-9076
▁sérüléseket	-9077
▁megállapodást	-9078
/3	-9079
br	-9080
yt	-9081
lav	-9082
▁51	-9083
ukle	-9084
árak	-9085
óczi	-9086
ükre	-9087
▁1,4	-9088
▁dek	-9089
▁hig	-9090
▁hód	-9091
▁ret	-9092
▁álm	-9093
▁Autó	-9094
▁beép	-9095
▁hird	-9096
▁kism	-9097
▁2000-	-9098
▁Daily	-9099
▁kilép	-9100
▁kárty	-9101
▁napok	-9102
aktérium	-9103
▁Nagydíj	-9104
▁Telekom	-9105
▁követte	-9106
▁vásárol	-9107
▁Erzsébet	-9108
▁legendás	-9109
▁részében	-9110
▁szakaszon	-9111
▁vereséget	-9112
▁megbízható	-9113
▁legközelebb	-9114
▁megkérdezett	-9115
▁mobiltelefon	-9116
pi	-9117
dög	-9118
lus	-9119
oka	-9120
uch	-9121
astr	-9122
over	-9123
▁Lou	-9124
áinak	-9125
őtlen	-9126
▁1000	-9127
▁Bart	-9128
▁Iván	-9129
▁tárc	-9130
▁őszi	-9131
▁beind	-9132
▁engem	-9133
▁méret	-9134
▁udvar	-9135
afrikai	-9136
ezéssel	-9137
▁Thomas	-9138
▁meglát	-9139
▁mozgás	-9140
▁szörny	-9141
▁álltak	-9142
▁Benedek	-9143
▁adatait	-9144
▁anyagot	-9145
▁sorrend	-9146
▁szavazó	-9147
▁szintet	-9148
▁vállalt	-9149
▁élvonal	-9150
▁Társaság	-9151
▁működött	-9152
▁próbálja	-9153
▁dollárral	-9154
▁visszavág	-9155
▁Amerikában	-9156
▁bemutatkoz	-9157
▁feltételek	-9158
▁szerencsére	-9159
▁sajtóügyeletese	-9160
OP	-9161
ee	-9162
ago	-9163
rik	-9164
▁bő	-9165
▁uj	-9166
▁öl	-9167
oody	-9168
ésén	-9169
▁0-1	-9170
▁váz	-9171
hatna	-9172
ioxid	-9173
lanak	-9174
latot	-9175
▁mögé	-9176
▁nemi	-9177
▁noha	-9178
jeként	-9179
oszlop	-9180
▁egyez	-9181
▁figur	-9182
▁lánya	-9183
▁George	-9184
▁parkol	-9185
▁kínálat	-9186
elikopter	-9187
▁maradnak	-9188
▁működési	-9189
▁vásárolt	-9190
íthatatlan	-9191
▁bemutatott	-9192
▁kisebbségi	-9193
▁márciusban	-9194
▁törvényhoz	-9195
tra	-9196
▁85	-9197
arap	-9198
eret	-9199
ikum	-9200
▁27-	-9201
▁Dar	-9202
▁dán	-9203
▁gén	-9204
jártó	-9205
érdem	-9206
ókban	-9207
▁Visz	-9208
▁tele	-9209
astély	-9210
szolút	-9211
▁Arról	-9212
▁fokoz	-9213
▁sorsa	-9214
oltatás	-9215
szóvivő	-9216
ságosan	-9217
▁Ezután	-9218
▁eleget	-9219
▁eljutt	-9220
▁hűtlen	-9221
▁megvéd	-9222
▁percig	-9223
▁tettes	-9224
▁Miskolc	-9225
▁Szintén	-9226
▁rendezik	-9227
▁állítása	-9228
▁Kecskemét	-9229
▁elmondása	-9230
▁személyek	-9231
▁szilveszt	-9232
▁meglepetés	-9233
▁megjegyezte	-9234
▁választmány	-9235
▁megállapította	-9236
99	-9237
gé	-9238
lig	-9239
▁kb	-9240
▁éb	-9241
ceán	-9242
ikos	-9243
mező	-9244
▁cel	-9245
uters	-9246
▁Kupa	-9247
▁Tour	-9248
▁ugye	-9249
▁Judit	-9250
▁magad	-9251
▁Biztos	-9252
▁Fontos	-9253
▁Hogyan	-9254
▁Ildikó	-9255
▁Márton	-9256
▁Racing	-9257
▁előbbi	-9258
▁hitelm	-9259
▁leszög	-9260
irodalom	-9261
▁ismeret	-9262
▁órákban	-9263
▁továbbjut	-9264
▁részletesen	-9265
▁Székesfehérvár	-9266
DA	-9267
we	-9268
bem	-9269
fit	-9270
ure	-9271
őke	-9272
dolg	-9273
ózás	-9274
▁Hen	-9275
▁Sor	-9276
▁lök	-9277
▁sak	-9278
gyors	-9279
olást	-9280
prémi	-9281
▁BRFK	-9282
▁Vilm	-9283
▁felr	-9284
▁szűr	-9285
lettel	-9286
ántúli	-9287
▁Budai	-9288
▁alkat	-9289
▁közti	-9290
▁óráig	-9291
ikailag	-9292
szerzés	-9293
utaalap	-9294
▁közúti	-9295
▁Haladás	-9296
▁aratott	-9297
▁barátnő	-9298
▁középső	-9299
▁megmarad	-9300
▁bennünket	-9301
▁emlékezet	-9302
▁jelentése	-9303
▁koncentrál	-9304
▁történetét	-9305
▁vélekedett	-9306
Britanniában	-9307
▁informatikai	-9308
7,	-9309
cső	-9310
vét	-9311
▁62	-9312
baúj	-9313
első	-9314
ster	-9315
▁Ele	-9316
zavar	-9317
▁Gold	-9318
▁Szép	-9319
▁hírt	-9320
▁lánc	-9321
képvis	-9322
▁hazug	-9323
▁talaj	-9324
▁kizárt	-9325
▁törekv	-9326
▁műanyag	-9327
▁tudósok	-9328
▁baloldal	-9329
▁elfoglal	-9330
▁számomra	-9331
▁fogyasztó	-9332
▁fontosnak	-9333
▁hozzátart	-9334
▁készülnek	-9335
▁tartózkod	-9336
antasztikus	-9337
▁technológi	-9338
▁használható	-9339
70	-9340
OSZ	-9341
iek	-9342
▁98	-9343
cium	-9344
oson	-9345
▁Tíz	-9346
▁mel	-9347
▁pol	-9348
apság	-9349
iszen	-9350
▁Beck	-9351
▁Bécs	-9352
▁Pető	-9353
▁Szij	-9354
▁elit	-9355
▁fent	-9356
▁éles	-9357
elésre	-9358
hatták	-9359
▁bezár	-9360
▁ítélt	-9361
▁edzője	-9362
▁esetek	-9363
▁filozó	-9364
▁utólag	-9365
▁Románia	-9366
▁erőtelj	-9367
▁fogadja	-9368
▁mondván	-9369
szerződés	-9370
▁indoklás	-9371
▁lennének	-9372
▁tartalom	-9373
▁távozott	-9374
▁vizsgált	-9375
▁állított	-9376
▁támogatta	-9377
▁versenyen	-9378
▁önmagában	-9379
▁Költségvet	-9380
▁eredményes	-9381
▁szomszédos	-9382
▁biztosított	-9383
CD	-9384
agn	-9385
ane	-9386
vid	-9387
ála	-9388
▁FM	-9389
▁XX	-9390
▁fa	-9391
eron	-9392
▁klin	-9393
▁null	-9394
▁plet	-9395
▁reál	-9396
▁sark	-9397
▁telt	-9398
uártól	-9399
észett	-9400
▁Veres	-9401
▁bejut	-9402
▁olcsó	-9403
esztett	-9404
▁Juvent	-9405
▁Putyin	-9406
▁Webber	-9407
▁vallás	-9408
ításához	-9409
▁Belföld	-9410
▁játékot	-9411
▁nyertek	-9412
▁szemmel	-9413
▁zenekar	-9414
órendszer	-9415
▁kitüntet	-9416
▁szállító	-9417
▁kilencven	-9418
▁személyzet	-9419
▁vállalkozó	-9420
▁áprilisban	-9421
▁szabálytalan	-9422
▁Magyarországot	-9423
üs	-9424
lor	-9425
nyik	-9426
▁Köv	-9427
▁Ser	-9428
▁Wal	-9429
▁hab	-9430
antól	-9431
arett	-9432
kerék	-9433
műsor	-9434
usztr	-9435
▁Blog	-9436
▁apja	-9437
▁tért	-9438
▁túli	-9439
▁újjá	-9440
▁Csong	-9441
▁Tizen	-9442
▁belga	-9443
▁jogot	-9444
▁kassz	-9445
▁szert	-9446
▁vélik	-9447
▁Milyen	-9448
▁Vállal	-9449
▁embere	-9450
▁másnap	-9451
▁szerez	-9452
▁tolvaj	-9453
▁varázs	-9454
történet	-9455
ukleáris	-9456
▁Fernand	-9457
▁Schmitt	-9458
▁afrikai	-9459
▁elkötel	-9460
▁pénzügy	-9461
▁ugyanez	-9462
▁házasság	-9463
▁kontroll	-9464
▁vízszint	-9465
▁állapota	-9466
▁demokrata	-9467
▁kilogramm	-9468
▁megtekint	-9469
▁számíthat	-9470
▁parancsnok	-9471
▁találkozót	-9472
▁összefüggésben	-9473
TV	-9474
aló	-9475
kes	-9476
tél	-9477
áld	-9478
SZÁF	-9479
mérő	-9480
rong	-9481
óker	-9482
▁29-	-9483
▁Ism	-9484
▁OVB	-9485
▁Áll	-9486
▁fiúk	-9487
▁bármi	-9488
▁képző	-9489
▁vitte	-9490
hozatal	-9491
iskolci	-9492
▁Albert	-9493
▁Bundes	-9494
▁megeml	-9495
▁tehera	-9496
▁övezet	-9497
▁indokol	-9498
▁vásárló	-9499
▁csatorna	-9500
▁döntését	-9501
▁szembeni	-9502
▁fiatalabb	-9503
▁költségek	-9504
▁Svédország	-9505
▁találkozón	-9506
▁kommunikáció	-9507
▁szabadságveszt	-9508
öh	-9509
are	-9510
kup	-9511
▁(9	-9512
▁eb	-9513
▁si	-9514
aszk	-9515
ical	-9516
orit	-9517
tabb	-9518
utin	-9519
ánya	-9520
▁Bod	-9521
▁HVG	-9522
▁mág	-9523
▁pól	-9524
▁ráj	-9525
elmét	-9526
ülést	-9527
▁Ható	-9528
▁Szék	-9529
▁felp	-9530
▁köze	-9531
▁show	-9532
▁unok	-9533
képzés	-9534
▁Fejér	-9535
▁drága	-9536
▁hátul	-9537
▁iraki	-9538
▁régen	-9539
▁tőlük	-9540
győztes	-9541
▁Eszter	-9542
▁Juhász	-9543
▁címlap	-9544
▁ketten	-9545
▁rablás	-9546
▁Reuters	-9547
▁terjedő	-9548
▁termelő	-9549
▁túlzott	-9550
▁fizetési	-9551
▁kedvéért	-9552
▁minőségű	-9553
▁változik	-9554
▁összhang	-9555
▁Liverpool	-9556
▁bántalmaz	-9557
▁jégkorong	-9558
▁próbálják	-9559
▁vezetőedző	-9560
▁felhasználók	-9561
75	-9562
EK	-9563
ct	-9564
sh	-9565
űs	-9566
apa	-9567
omó	-9568
▁Tv	-9569
ague	-9570
etni	-9571
hont	-9572
ásán	-9573
▁22.	-9574
▁Haz	-9575
▁köd	-9576
▁érő	-9577
essen	-9578
ántúl	-9579
íciót	-9580
ódtak	-9581
▁Stre	-9582
▁erdő	-9583
▁komm	-9584
kezési	-9585
▁Anton	-9586
▁díját	-9587
▁hibát	-9588
▁koord	-9589
▁többé	-9590
abdarúg	-9591
▁Szalai	-9592
▁hoztak	-9593
▁kereső	-9594
▁kiszab	-9595
▁lányok	-9596
▁Azonban	-9597
▁Mindkét	-9598
▁Viszont	-9599
▁minimum	-9600
▁századi	-9601
▁elkövető	-9602
▁keresnek	-9603
▁szavazat	-9604
▁vállalta	-9605
▁visszaélés	-9606
▁Főügyészség	-9607
▁jelentkezett	-9608
8)	-9609
xf	-9610
Kis	-9611
oom	-9612
oty	-9613
éta	-9614
üld	-9615
▁59	-9616
▁ly	-9617
▁sm	-9618
anya	-9619
anyi	-9620
osak	-9621
ózsa	-9622
▁Tűz	-9623
▁bic	-9624
ation	-9625
gyull	-9626
ülnek	-9627
frastr	-9628
▁Egyéb	-9629
▁Ember	-9630
▁McLar	-9631
▁innen	-9632
▁jöhet	-9633
▁lassú	-9634
▁látom	-9635
▁nézők	-9636
▁tranz	-9637
▁Éppen	-9638
kapcsol	-9639
viszony	-9640
▁Vilmos	-9641
▁akkora	-9642
▁hibrid	-9643
▁mechan	-9644
▁felmond	-9645
▁nagyság	-9646
▁nyolcad	-9647
▁részleg	-9648
▁ellenáll	-9649
▁felhívta	-9650
▁franciák	-9651
▁kiadvány	-9652
▁követett	-9653
▁küzdelem	-9654
▁szerelem	-9655
▁félidőben	-9656
▁helyszíni	-9657
▁területet	-9658
▁forgalomba	-9659
▁százalékról	-9660
▁csatlakozott	-9661
▁&	-9662
emi	-9663
oth	-9664
ruh	-9665
yan	-9666
▁So	-9667
▁Bab	-9668
▁Kit	-9669
▁Kur	-9670
▁Lát	-9671
▁hor	-9672
▁ost	-9673
▁rág	-9674
felől	-9675
▁Majd	-9676
▁borz	-9677
ancell	-9678
opping	-9679
▁1998-	-9680
▁Kapos	-9681
▁Volán	-9682
▁dinam	-9683
▁Kérdés	-9684
▁alábbi	-9685
▁bocsán	-9686
▁ritkán	-9687
▁segíti	-9688
▁átfogó	-9689
rendelet	-9690
▁Capital	-9691
▁bűntett	-9692
▁kapható	-9693
▁nincsen	-9694
▁rendőri	-9695
▁vártnál	-9696
▁általuk	-9697
▁egyúttal	-9698
▁elbocsát	-9699
▁miskolci	-9700
▁robbanás	-9701
▁elfogadta	-9702
▁események	-9703
▁genetikai	-9704
▁intézkedés	-9705
▁szabálysért	-9706
▁tökéletesen	-9707
dok	-9708
esc	-9709
rah	-9710
vin	-9711
atér	-9712
idej	-9713
ilit	-9714
küld	-9715
ókra	-9716
▁Fal	-9717
▁düh	-9718
ájába	-9719
▁fant	-9720
▁műve	-9721
▁pinc	-9722
▁turb	-9723
hetővé	-9724
reform	-9725
ájáról	-9726
ítania	-9727
▁2014-	-9728
▁akadt	-9729
▁híján	-9730
▁ilyes	-9731
▁nyers	-9732
▁téved	-9733
Szatmár	-9734
▁League	-9735
fogyaszt	-9736
ításában	-9737
▁ideális	-9738
▁világot	-9739
▁védelme	-9740
▁összeom	-9741
▁jogállam	-9742
▁bizonnyal	-9743
▁komolyabb	-9744
▁dokumentumok	-9745
▁előfordulhat	-9746
))	-9747
5,	-9748
);"	-9749
ies	-9750
ste	-9751
sük	-9752
ucs	-9753
ána	-9754
eves	-9755
olas	-9756
orld	-9757
óján	-9758
ókon	-9759
▁Hit	-9760
▁gör	-9761
▁pet	-9762
▁pof	-9763
▁rém	-9764
csúcs	-9765
érzék	-9766
▁Csap	-9767
▁Hoff	-9768
▁nyár	-9769
▁óvod	-9770
▁Endre	-9771
▁Olimp	-9772
▁dízel	-9773
▁elsej	-9774
▁eltör	-9775
▁kital	-9776
esített	-9777
ublikán	-9778
▁előseg	-9779
▁házban	-9780
▁mentek	-9781
▁végleg	-9782
▁Lendvai	-9783
▁főszerk	-9784
▁megalak	-9785
▁mexikói	-9786
▁egyfajta	-9787
▁esztendő	-9788
▁Karácsony	-9789
▁feladatot	-9790
▁műsorában	-9791
▁közgazdász	-9792
▁intézkedéseket	-9793
ea	-9794
▁Ni	-9795
▁XI	-9796
elli	-9797
gium	-9798
hold	-9799
zött	-9800
▁Con	-9801
Bereg	-9802
őrség	-9803
▁mozi	-9804
bocsát	-9805
gyártó	-9806
▁2001-	-9807
▁gépek	-9808
▁hallg	-9809
▁Margit	-9810
▁epizód	-9811
▁katona	-9812
▁szóban	-9813
▁tervei	-9814
▁Demszky	-9815
▁elődönt	-9816
▁hajtott	-9817
▁keresni	-9818
▁valahol	-9819
frastrukt	-9820
▁November	-9821
▁amelyből	-9822
▁cigarett	-9823
▁jelöltek	-9824
▁követelm	-9825
▁elnökének	-9826
▁gondoltam	-9827
▁helyzetét	-9828
▁nyolcadik	-9829
▁tanácskoz	-9830
▁Valutaalap	-9831
▁bevezetése	-9832
▁támogatott	-9833
▁szerepelnek	-9834
▁elnökválaszt	-9835
▁statisztikai	-9836
▁Költségvetési	-9837
▁szolgáltatást	-9838
fo	-9839
pa	-9840
201	-9841
ado	-9842
rol	-9843
▁Bi	-9844
apja	-9845
hone	-9846
ikon	-9847
▁2-3	-9848
▁31.	-9849
▁Jak	-9850
▁Tra	-9851
Abaúj	-9852
allas	-9853
ezred	-9854
ilabd	-9855
rajzi	-9856
▁Sant	-9857
▁abba	-9858
▁utak	-9859
▁írni	-9860
gressz	-9861
inform	-9862
úszott	-9863
▁Azóta	-9864
▁csecs	-9865
▁fejét	-9866
▁kezdi	-9867
▁lapok	-9868
▁matem	-9869
▁sorra	-9870
▁zenei	-9871
▁állni	-9872
atokban	-9873
▁belüli	-9874
▁futott	-9875
▁pártja	-9876
▁szülés	-9877
▁ahonnan	-9878
▁berlini	-9879
▁jegyban	-9880
▁kiesett	-9881
▁szokott	-9882
▁Juventus	-9883
▁bevándor	-9884
▁mutatták	-9885
▁szerette	-9886
▁engedélyt	-9887
▁helyezték	-9888
▁fogyasztás	-9889
▁Kereskedelmi	-9890
jam	-9891
lán	-9892
rap	-9893
cska	-9894
ttől	-9895
uson	-9896
▁Bib	-9897
▁Els	-9898
▁orr	-9899
▁Önk	-9900
aiból	-9901
alább	-9902
ezlet	-9903
odást	-9904
▁Buda	-9905
▁ebbe	-9906
▁levő	-9907
▁post	-9908
▁trük	-9909
▁őriz	-9910
asztja	-9911
ájátsz	-9912
▁soros	-9913
▁velem	-9914
▁végez	-9915
▁írják	-9916
▁Michel	-9917
▁kapták	-9918
▁merült	-9919
▁piacok	-9920
▁plakát	-9921
▁érdemi	-9922
almasabb	-9923
ításáról	-9924
▁Premier	-9925
▁akartak	-9926
▁cserébe	-9927
▁emberöl	-9928
▁funkció	-9929
▁hagyott	-9930
▁gondolat	-9931
▁megtiszt	-9932
▁szerepét	-9933
▁sújtotta	-9934
▁Szervezet	-9935
▁Szijjártó	-9936
▁alapított	-9937
▁baktérium	-9938
▁panaszkod	-9939
▁párhuzamosan	-9940
▁összeállítás	-9941
:30	-9942
inz	-9943
ube	-9944
▁ug	-9945
agen	-9946
atőr	-9947
etty	-9948
odni	-9949
▁Kal	-9950
▁Met	-9951
▁Nat	-9952
▁alb	-9953
ekért	-9954
hozzá	-9955
▁Jenő	-9956
▁José	-9957
▁Mour	-9958
▁Papp	-9959
▁páci	-9960
▁szup	-9961
arancs	-9962
emplén	-9963
égiben	-9964
▁célra	-9965
▁humor	-9966
▁járat	-9967
▁műfaj	-9968
▁tudás	-9969
▁ígért	-9970
▁Kárpát	-9971
▁Roland	-9972
ességgel	-9973
minisztr	-9974
▁ismerte	-9975
▁keresik	-9976
▁érthető	-9977
▁Tudomány	-9978
▁ajánlatot	-9979
▁középpont	-9980
▁ragaszkod	-9981
▁gyakorlati	-9982
▁gyerekeket	-9983
▁hitelminős	-9984
▁túlságosan	-9985
▁bizottságának	-9986
▁eredményeként	-9987
16	-9988
SH	-9989
ty	-9990
hid	-9991
költ	-9992
lést	-9993
pali	-9994
utak	-9995
utal	-9996
▁Mac	-9997
▁orv	-9998
ancia	-9999
assák	-10000
hetne	-10001
igény	-10002
menet	-10003
tiszt	-10004
▁Brit	-10005
▁Gond	-10006
▁Jour	-10007
▁Pont	-10008
▁ball	-10009
▁kiép	-10010
íthető	-10011
▁jogát	-10012
▁tanús	-10013
▁Blogok	-10014
▁amiatt	-10015
▁hajlam	-10016
▁kaphat	-10017
▁listán	-10018
▁számot	-10019
ológusok	-10020
▁egyenlő	-10021
▁földgáz	-10022
▁hónapok	-10023
▁mindezt	-10024
▁mutatta	-10025
▁nyelven	-10026
▁szépség	-10027
▁válogat	-10028
▁épített	-10029
▁értelme	-10030
▁családok	-10031
▁hatályos	-10032
▁irányuló	-10033
▁készpénz	-10034
▁májusban	-10035
▁nyomozók	-10036
▁Gabriella	-10037
▁bonyolult	-10038
▁kézilabda	-10039
▁megjelenő	-10040
▁nukleáris	-10041
▁nyugdíjba	-10042
▁szeretném	-10043
▁vendéglát	-10044
szolgáltató	-10045
▁fejlesztés	-10046
▁felszerelt	-10047
▁kialakulás	-10048
▁növekedése	-10049
ald	-10050
iny	-10051
óan	-10052
▁Cr	-10053
eger	-10054
embe	-10055
fgán	-10056
fény	-10057
szór	-10058
telj	-10059
ázás	-10060
ítők	-10061
▁Dan	-10062
▁Gaz	-10063
csont	-10064
ikkal	-10065
lását	-10066
parti	-10067
▁Akár	-10068
▁Bács	-10069
▁Eger	-10070
▁Vona	-10071
▁prot	-10072
ebruár	-10073
álatos	-10074
ítenek	-10075
▁Annak	-10076
▁Atlan	-10077
▁Hiába	-10078
▁dolga	-10079
▁elönt	-10080
▁feket	-10081
▁gárda	-10082
▁kifog	-10083
▁konyh	-10084
▁tömör	-10085
▁vonzó	-10086
antikus	-10087
vezeték	-10088
▁Vannak	-10089
▁beoszt	-10090
▁hangul	-10091
▁megnöv	-10092
▁mondan	-10093
▁mondom	-10094
▁építés	-10095
tervezet	-10096
▁Hatóság	-10097
▁erőfesz	-10098
▁fedezet	-10099
▁szervek	-10100
▁Csongrád	-10101
▁Labdarúg	-10102
▁előrelép	-10103
▁gyűjtött	-10104
▁hatósági	-10105
▁indokolt	-10106
▁lebonyol	-10107
▁segített	-10108
hetetlenül	-10109
▁megkülönb	-10110
▁vezetőség	-10111
▁Schumacher	-10112
▁alkalmából	-10113
▁erősítette	-10114
▁mindenféle	-10115
▁résztvevők	-10116
▁támogatási	-10117
▁fenntartható	-10118
▁közelmúltban	-10119
DS	-10120
kelő	-10121
kult	-10122
megy	-10123
éses	-10124
▁Bog	-10125
▁Cel	-10126
▁dug	-10127
▁Braz	-10128
▁gólp	-10129
▁híre	-10130
▁időn	-10131
▁musz	-10132
kalmaz	-10133
▁Navra	-10134
▁Tehát	-10135
▁betör	-10136
▁szorg	-10137
▁tölti	-10138
egyetem	-10139
▁Kórház	-10140
▁jártak	-10141
▁kispad	-10142
▁mennek	-10143
▁szokás	-10144
▁zavart	-10145
forgalmi	-10146
▁alapító	-10147
▁barátja	-10148
▁lemarad	-10149
▁szintre	-10150
▁vonalon	-10151
▁dollárra	-10152
▁magunkat	-10153
▁Valószínű	-10154
▁hiányában	-10155
▁kormányzó	-10156
▁legtöbben	-10157
▁másodfokú	-10158
▁meghaladta	-10159
▁rendszerbe	-10160
▁választást	-10161
▁beruházások	-10162
▁felhasználó	-10163
▁rendezvényen	-10164
▁szolgáltatók	-10165
gát	-10166
ibi	-10167
ray	-10168
zál	-10169
▁Pi	-10170
adel	-10171
edni	-10172
felt	-10173
ifik	-10174
lent	-10175
▁Cas	-10176
▁Tat	-10177
adtak	-10178
ennek	-10179
ezent	-10180
érzet	-10181
▁Cent	-10182
▁Oszk	-10183
▁finn	-10184
▁zsar	-10185
▁Rogán	-10186
▁betét	-10187
▁célba	-10188
anyagot	-10189
állomás	-10190
▁cégnek	-10191
▁emelés	-10192
▁javult	-10193
▁megseb	-10194
▁ígéret	-10195
▁amelyre	-10196
▁felirat	-10197
▁mondhat	-10198
▁otthont	-10199
▁vallási	-10200
▁éreztem	-10201
▁Hamilton	-10202
▁abszolút	-10203
▁időnként	-10204
▁lefoglal	-10205
▁valamely	-10206
▁ügyfelek	-10207
▁agresszív	-10208
▁ellenfele	-10209
▁gyermeket	-10210
▁kongressz	-10211
▁tagország	-10212
▁Szövetsége	-10213
▁megvizsgál	-10214
▁republikán	-10215
▁visszatért	-10216
▁befolyásolja	-10217
▁tartományban	-10218
▁tulajdonában	-10219
ps	-10220
pul	-10221
óka	-10222
▁72	-10223
figy	-10224
icit	-10225
ésbé	-10226
▁0,5	-10227
▁0-0	-10228
▁6:4	-10229
▁Luc	-10230
▁obj	-10231
apiac	-10232
azion	-10233
ecser	-10234
entúl	-10235
szava	-10236
▁Foly	-10237
▁Wind	-10238
▁adag	-10239
▁joga	-10240
▁kiír	-10241
alizál	-10242
dioxid	-10243
gyakor	-10244
öngész	-10245
▁Katon	-10246
▁Moody	-10247
▁bécsi	-10248
▁győri	-10249
▁koron	-10250
▁tünet	-10251
▁értem	-10252
▁érvel	-10253
▁üdvöz	-10254
Zemplén	-10255
ásainak	-10256
▁Inform	-10257
▁gyűlöl	-10258
▁munkab	-10259
▁transz	-10260
▁velünk	-10261
▁Journal	-10262
▁Szolnok	-10263
▁anyagok	-10264
▁bizalom	-10265
▁háborús	-10266
▁istálló	-10267
▁kezdeni	-10268
▁újonnan	-10269
▁keresett	-10270
▁kikapott	-10271
▁stabilit	-10272
▁vásárlás	-10273
▁ítéletet	-10274
▁összeáll	-10275
▁decemberi	-10276
▁egyenesen	-10277
▁foglaltak	-10278
▁inflációs	-10279
▁kétszeres	-10280
▁marketing	-10281
▁művészeti	-10282
▁szurkolók	-10283
▁táplálkoz	-10284
▁hónapjában	-10285
▁Önkormányz	-10286
▁Közlekedési	-10287
▁egészségügy	-10288
▁meghallgatás	-10289
▁történetében	-10290
no	-10291
oke	-10292
pan	-10293
süt	-10294
▁Ba	-10295
emes	-10296
kedő	-10297
rown	-10298
sőbb	-10299
▁0,3	-10300
▁Tok	-10301
▁bed	-10302
ikája	-10303
nyira	-10304
szfér	-10305
tagok	-10306
étele	-10307
▁főút	-10308
edékes	-10309
földön	-10310
szenny	-10311
ájából	-10312
▁Bence	-10313
▁csill	-10314
▁kopog	-10315
▁levon	-10316
▁kaptam	-10317
▁kértek	-10318
▁társas	-10319
ferencia	-10320
százalék	-10321
▁anélkül	-10322
▁ezáltal	-10323
▁kényelm	-10324
▁szabott	-10325
▁szlovén	-10326
▁adófizet	-10327
▁bármikor	-10328
▁döntések	-10329
▁gyorsabb	-10330
▁kiadások	-10331
▁bármelyik	-10332
▁iskolában	-10333
▁meghaladó	-10334
▁származik	-10335
▁században	-10336
▁Navracsics	-10337
▁elutasította	-10338
/1	-10339
hő	-10340
uf	-10341
way	-10342
őtt	-10343
▁66	-10344
jain	-10345
ponz	-10346
szél	-10347
▁1-2	-10348
▁Baj	-10349
▁Női	-10350
▁dől	-10351
▁poh	-10352
erről	-10353
▁Husz	-10354
▁Irod	-10355
▁extr	-10356
▁megr	-10357
eződés	-10358
ítheti	-10359
▁Egyik	-10360
▁afgán	-10361
▁aznap	-10362
▁kalap	-10363
▁kivet	-10364
▁tilos	-10365
csillag	-10366
hetőleg	-10367
ozására	-10368
▁akivel	-10369
▁iratok	-10370
▁sikere	-10371
▁jelentő	-10372
▁játékok	-10373
▁rangsor	-10374
▁játékost	-10375
▁kerékpár	-10376
▁megfelel	-10377
▁megszűnt	-10378
▁októberi	-10379
▁szurkoló	-10380
▁büntetést	-10381
▁elkészült	-10382
▁változtat	-10383
▁nyilatkozó	-10384
▁százalékuk	-10385
▁találkozik	-10386
▁szövetséges	-10387
▁változtatni	-10388
▁teljesítményt	-10389
9,	-10390
űv	-10391
ath	-10392
kov	-10393
óni	-10394
▁Ec	-10395
▁ge	-10396
édul	-10397
ömeg	-10398
▁23.	-10399
▁Eng	-10400
▁Kun	-10401
▁Sil	-10402
▁lás	-10403
▁váll	-10404
zésére	-10405
▁Egyre	-10406
▁Honda	-10407
▁belől	-10408
▁forgó	-10409
▁iszap	-10410
▁kapja	-10411
▁költő	-10412
▁filmje	-10413
▁hiányt	-10414
▁mindaz	-10415
▁négyes	-10416
▁reális	-10417
▁zárult	-10418
irdetett	-10419
▁Ukrajna	-10420
▁felidéz	-10421
▁fellend	-10422
▁jelenet	-10423
▁leminős	-10424
▁lényege	-10425
▁oroszok	-10426
Britannia	-10427
▁Akadémia	-10428
▁Totalcar	-10429
▁elfogták	-10430
katasztróf	-10431
▁Szlovákia	-10432
▁időközben	-10433
▁lemondott	-10434
▁magyarázza	-10435
▁szerelvény	-10436
▁szlovákiai	-10437
▁százalékban	-10438
by	-10439
fáj	-10440
mos	-10441
Amer	-10442
ezze	-10443
terh	-10444
▁Jéz	-10445
▁Vis	-10446
▁úsz	-10447
dőjel	-10448
eiből	-10449
ement	-10450
kedik	-10451
szert	-10452
ázium	-10453
▁Kósa	-10454
▁Pitt	-10455
▁West	-10456
▁Wood	-10457
▁célt	-10458
▁álom	-10459
helyek	-10460
király	-10461
otikus	-10462
számot	-10463
▁Krist	-10464
▁finál	-10465
▁hibás	-10466
▁kitűn	-10467
▁küzdő	-10468
▁sárga	-10469
▁vádat	-10470
▁amiket	-10471
▁jöttek	-10472
▁nyomoz	-10473
▁utcára	-10474
tulajdon	-10475
üntették	-10476
▁bűnügyi	-10477
▁csecsem	-10478
▁elemzői	-10479
▁elmenek	-10480
▁foglalt	-10481
▁közepes	-10482
▁maximum	-10483
▁nappali	-10484
▁remekül	-10485
acsonyabb	-10486
▁Pénteken	-10487
▁kérdések	-10488
▁kérdéses	-10489
▁mellette	-10490
▁napjaink	-10491
▁népszerűs	-10492
▁újságírók	-10493
▁Nyíregyház	-10494
▁visszaesés	-10495
▁érvényesít	-10496
▁frakcióvezető	-10497
▁szakszervezetek	-10498
24	-10499
BI	-10500
Gy	-10501
izz	-10502
lia	-10503
ucc	-10504
viz	-10505
▁No	-10506
▁SE	-10507
atin	-10508
eton	-10509
óját	-10510
üveg	-10511
▁900	-10512
▁Pok	-10513
▁Rep	-10514
adják	-10515
atnak	-10516
jéről	-10517
ravúr	-10518
ségen	-10519
tárgy	-10520
▁Part	-10521
▁Telj	-10522
illant	-10523
tőzsde	-10524
▁Dzsud	-10525
▁havas	-10526
eztette	-10527
fegyver	-10528
ségeket	-10529
▁filmek	-10530
▁lejárt	-10531
▁vékony	-10532
imnázium	-10533
közleked	-10534
▁Assange	-10535
▁Például	-10536
▁célpont	-10537
▁felhalm	-10538
▁garanci	-10539
▁kancell	-10540
▁megtesz	-10541
▁nyomozó	-10542
▁növekvő	-10543
▁rájátsz	-10544
▁Miközben	-10545
▁demonstr	-10546
▁erősödés	-10547
▁influenz	-10548
▁képtelen	-10549
▁szeretet	-10550
▁Írország	-10551
▁Egyébként	-10552
▁bemutatás	-10553
▁esztendős	-10554
▁gondolják	-10555
▁vezetőjét	-10556
▁Eredmények	-10557
▁elnevezésű	-10558
▁folyamatok	-10559
▁használata	-10560
▁indítottak	-10561
▁növekedési	-10562
▁értelemben	-10563
▁csökkenteni	-10564
▁Horvátország	-10565
6)	-10566
NI	-10567
▁68	-10568
egyi	-10569
erni	-10570
esta	-10571
kedv	-10572
ádár	-10573
ília	-10574
▁Rég	-10575
▁War	-10576
▁gig	-10577
ament	-10578
lotta	-10579
érmet	-10580
▁Bulg	-10581
▁Cont	-10582
▁Matt	-10583
▁Oszt	-10584
▁diad	-10585
▁mélt	-10586
eteged	-10587
otrány	-10588
ozásra	-10589
ítésre	-10590
▁labor	-10591
▁múlik	-10592
▁telek	-10593
íthatja	-10594
▁győzte	-10595
▁mosoly	-10596
▁olykor	-10597
▁privat	-10598
▁szólva	-10599
▁zuhant	-10600
▁életre	-10601
▁Nyilván	-10602
▁autóval	-10603
▁mesélte	-10604
▁olyanok	-10605
▁utazott	-10606
▁visszaj	-10607
▁összege	-10608
finanszír	-10609
▁esedékes	-10610
▁hatályba	-10611
▁honlapja	-10612
▁kellemes	-10613
▁próbálta	-10614
▁weboldal	-10615
▁érdekeit	-10616
▁erőszakos	-10617
▁láthatóan	-10618
▁embereknek	-10619
▁természeti	-10620
▁támogatása	-10621
▁érintettek	-10622
▁bejelentett	-10623
Al	-10624
din	-10625
lon	-10626
▁74	-10627
erán	-10628
real	-10629
▁Fil	-10630
▁Jég	-10631
▁bál	-10632
▁tás	-10633
alatt	-10634
ilkol	-10635
inkat	-10636
kárty	-10637
▁kosz	-10638
etileg	-10639
▁enyhe	-10640
▁progn	-10641
▁útján	-10642
▁miatti	-10643
▁segítő	-10644
▁vetett	-10645
▁árnyék	-10646
▁Norbert	-10647
▁bekerül	-10648
▁könyvek	-10649
▁megtört	-10650
▁robbanó	-10651
▁szomorú	-10652
▁Fernando	-10653
▁hangzott	-10654
▁mutatnak	-10655
▁csoportos	-10656
▁csökkenti	-10657
▁mindannyi	-10658
▁mindenhol	-10659
▁növekszik	-10660
▁nemrégiben	-10661
▁szerencsés	-10662
▁versenyben	-10663
▁euróövezeti	-10664
▁létrehozott	-10665
▁változatlan	-10666
▁centiméteres	-10667
▁felsőoktatási	-10668
▁tevékenységét	-10669
▁megkülönböztet	-10670
▁−	-10671
jek	-10672
ksw	-10673
ozd	-10674
sza	-10675
uti	-10676
▁MO	-10677
▁FTC	-10678
▁Sár	-10679
▁fak	-10680
▁hok	-10681
abbak	-10682
aktív	-10683
darab	-10684
eller	-10685
ettet	-10686
lások	-10687
ukott	-10688
ölcsi	-10689
▁Kocs	-10690
▁kint	-10691
▁szel	-10692
Fidesz	-10693
ináció	-10694
▁pihen	-10695
ságának	-10696
▁Micros	-10697
▁ekkora	-10698
▁kering	-10699
▁Univers	-10700
▁gázolaj	-10701
▁kortárs	-10702
▁összegű	-10703
▁elindult	-10704
▁jegyzett	-10705
▁magabizt	-10706
▁napvilág	-10707
▁egymástól	-10708
▁készíteni	-10709
▁visszahív	-10710
▁kifejleszt	-10711
▁kivételével	-10712
▁tapasztalat	-10713
▁támogatását	-10714
▁állásfoglal	-10715
▁szórakoztató	-10716
18	-10717
eml	-10718
ken	-10719
ows	-10720
ump	-10721
fiai	-10722
függ	-10723
szög	-10724
álly	-10725
▁DNS	-10726
▁Kir	-10727
▁Vad	-10728
▁bol	-10729
▁mol	-10730
▁ősi	-10731
ezető	-10732
iszem	-10733
íthat	-10734
ükkel	-10735
▁kard	-10736
hozott	-10737
ossági	-10738
▁bűnöz	-10739
▁fürdő	-10740
▁geszt	-10741
▁lelet	-10742
erősebb	-10743
iratban	-10744
▁akarok	-10745
▁belesz	-10746
▁drámai	-10747
▁keresi	-10748
▁szóval	-10749
▁tanult	-10750
találkoz	-10751
▁véleked	-10752
▁csúszott	-10753
▁elfelejt	-10754
▁fedélzet	-10755
▁igencsak	-10756
▁kétségbe	-10757
▁legszebb	-10758
▁mégpedig	-10759
▁elfogadás	-10760
▁eljárások	-10761
▁felmérése	-10762
▁generáció	-10763
▁idegenben	-10764
▁megszavaz	-10765
▁játszottak	-10766
▁kiterjeszt	-10767
▁munkálatok	-10768
▁feladatokat	-10769
▁Szlovákiában	-10770
▁lehetőségeket	-10771
Or	-10772
ui	-10773
▁.	-10774
ike	-10775
ite	-10776
nik	-10777
rác	-10778
uki	-10779
uzz	-10780
éki	-10781
▁73	-10782
ősök	-10783
▁4,5	-10784
▁Kiv	-10785
▁fők	-10786
▁tem	-10787
eztük	-10788
ilenc	-10789
senek	-10790
▁emel	-10791
▁szek	-10792
▁térd	-10793
▁árát	-10794
ezésre	-10795
iptomi	-10796
tattak	-10797
▁Messi	-10798
▁hazud	-10799
▁kutya	-10800
▁zsűri	-10801
▁egykor	-10802
▁holott	-10803
kibocsát	-10804
▁Johnson	-10805
▁Melinda	-10806
▁böngész	-10807
▁gépkocs	-10808
▁szereti	-10809
▁tengeri	-10810
▁útvonal	-10811
▁elismert	-10812
▁helyiség	-10813
▁számolni	-10814
▁áprilisi	-10815
▁dolgoztak	-10816
▁közlekedő	-10817
▁számunkra	-10818
▁eszközöket	-10819
▁megbeteged	-10820
▁mindennapi	-10821
▁állították	-10822
▁parlamentbe	-10823
!)	-10824
▁3,	-10825
▁95	-10826
▁it	-10827
avas	-10828
hárm	-10829
zóna	-10830
▁All	-10831
▁Fre	-10832
▁Men	-10833
▁Rod	-10834
▁laz	-10835
abeli	-10836
atika	-10837
kedés	-10838
ukkal	-10839
ákból	-10840
▁Azok	-10841
▁Cser	-10842
▁Lesz	-10843
▁Tran	-10844
▁fűző	-10845
▁tető	-10846
▁virt	-10847
izálni	-10848
▁Halál	-10849
▁Nyolc	-10850
▁diagn	-10851
▁rutin	-10852
▁sereg	-10853
isztert	-10854
▁Ezeket	-10855
▁Volksw	-10856
▁járműv	-10857
▁kézzel	-10858
▁légkör	-10859
alkalmaz	-10860
▁Székely	-10861
▁irányba	-10862
▁kutatói	-10863
▁minimál	-10864
▁páciens	-10865
▁belföldi	-10866
▁nyomaték	-10867
▁tucatnyi	-10868
▁uralkodó	-10869
csökkentés	-10870
▁csoportok	-10871
▁lépéseket	-10872
▁történész	-10873
▁házkutatás	-10874
▁ismertette	-10875
▁Ausztriában	-10876
▁Internazion	-10877
▁infrastrukt	-10878
▁Szövetségének	-10879
▁polgármesteri	-10880
▁megkérdezettek	-10881
isk	-10882
iót	-10883
nőt	-10884
épp	-10885
▁EL	-10886
▁Ga	-10887
érem	-10888
▁3-1	-10889
▁Lip	-10890
▁Pro	-10891
▁Raf	-10892
völgy	-10893
ítaná	-10894
▁1500	-10895
▁Camp	-10896
▁alát	-10897
▁amin	-10898
▁mérg	-10899
szövet	-10900
ájukat	-10901
▁Attil	-10902
▁Brown	-10903
▁roham	-10904
▁színű	-10905
▁télen	-10906
▁Kanada	-10907
▁Takács	-10908
▁deviza	-10909
▁diktat	-10910
▁gazdál	-10911
▁stúdió	-10912
▁ígérte	-10913
ámogatás	-10914
▁jegyzők	-10915
▁számban	-10916
▁Érdekes	-10917
▁hasonlít	-10918
▁minőségi	-10919
▁szavazni	-10920
▁Fidesznek	-10921
▁egyszerűs	-10922
▁forintnyi	-10923
▁országnak	-10924
▁szavazott	-10925
▁tartoznak	-10926
▁csoportban	-10927
▁felesleges	-10928
▁gyorsabban	-10929
▁követelmény	-10930
▁turisztikai	-10931
▁kormányszóvivő	-10932
▁legalacsonyabb	-10933
▁négyzetméteres	-10934
▁képviselőjelölt	-10935
éf	-10936
ccs	-10937
ili	-10938
lők	-10939
por	-10940
tig	-10941
ődő	-10942
sson	-10943
vest	-10944
ítót	-10945
▁dra	-10946
ivárg	-10947
level	-10948
omban	-10949
refer	-10950
▁Erős	-10951
▁Pint	-10952
▁Vikt	-10953
▁brut	-10954
▁körű	-10955
korlát	-10956
▁Franc	-10957
▁India	-10958
▁World	-10959
▁egyén	-10960
▁jutni	-10961
▁robot	-10962
▁vonul	-10963
ilatkoz	-10964
▁Hiszen	-10965
▁brüssz	-10966
▁elkölt	-10967
▁koránt	-10968
▁nagyot	-10969
▁percet	-10970
▁retteg	-10971
▁senkit	-10972
▁utazás	-10973
▁Vízügyi	-10974
▁elvileg	-10975
▁megfont	-10976
▁mozgást	-10977
▁alakulat	-10978
▁fordulat	-10979
▁helyezte	-10980
▁jegyében	-10981
▁mentelmi	-10982
▁turisták	-10983
▁Dzsudzsák	-10984
▁becslések	-10985
▁felzárkóz	-10986
▁jobboldal	-10987
▁létrejött	-10988
▁megoldani	-10989
▁sikeresen	-10990
▁számtalan	-10991
▁betegségek	-10992
▁sikertelen	-10993
▁alkotmányos	-10994
▁beszámolója	-10995
▁megváltozott	-10996
Ar	-10997
to	-10998
▁y	-10999
LSZ	-11000
lep	-11001
ázi	-11002
▁Hy	-11003
▁US	-11004
▁iv	-11005
▁ók	-11006
adar	-11007
font	-11008
énes	-11009
▁25.	-11010
▁3,8	-11011
▁Hab	-11012
▁apa	-11013
▁ped	-11014
idens	-11015
lista	-11016
élyeg	-11017
▁Butt	-11018
▁Medv	-11019
▁elöl	-11020
▁halm	-11021
▁pert	-11022
▁pápa	-11023
▁takt	-11024
▁teli	-11025
▁tűnő	-11026
Kiskun	-11027
hatóan	-11028
jaiban	-11029
tetett	-11030
▁Jones	-11031
▁Mikor	-11032
▁kellő	-11033
▁éjfél	-11034
▁ütött	-11035
couveri	-11036
szlovák	-11037
▁Street	-11038
▁bukott	-11039
▁ciklus	-11040
▁esetet	-11041
▁idővel	-11042
▁jelzés	-11043
▁kitért	-11044
▁lefoly	-11045
▁színek	-11046
▁vicces	-11047
▁McLaren	-11048
▁elszenv	-11049
▁gyilkos	-11050
▁havonta	-11051
▁megdöbb	-11052
▁némileg	-11053
▁tisztán	-11054
▁Ausztria	-11055
▁Eredmény	-11056
▁jobbikos	-11057
▁kipróbál	-11058
▁kormánya	-11059
▁látogató	-11060
▁megkapta	-11061
▁mozgalom	-11062
▁régióban	-11063
▁rövidebb	-11064
▁támadást	-11065
▁visszasz	-11066
▁áttekint	-11067
▁Microsoft	-11068
▁brüsszeli	-11069
▁fennmarad	-11070
▁körzetben	-11071
▁Nyomtatási	-11072
▁adminisztr	-11073
▁kerékpáros	-11074
▁kormánypárti	-11075
▁öngyilkosság	-11076
▁finanszírozási	-11077
13	-11078
KK	-11079
30-	-11080
ecz	-11081
▁ox	-11082
▁ív	-11083
erőt	-11084
essy	-11085
futó	-11086
▁180	-11087
▁190	-11088
▁Gáz	-11089
▁Net	-11090
▁Pak	-11091
▁dar	-11092
▁rel	-11093
▁sej	-11094
▁tip	-11095
csere	-11096
ellig	-11097
gólos	-11098
hozni	-11099
iklás	-11100
ökken	-11101
▁alud	-11102
▁sűrű	-11103
▁téri	-11104
▁vacs	-11105
elyett	-11106
etroit	-11107
szolid	-11108
▁Remél	-11109
▁Mátyás	-11110
▁fogtak	-11111
▁Hamburg	-11112
▁elolvas	-11113
▁erdélyi	-11114
▁hajnali	-11115
▁szemtan	-11116
biztonság	-11117
▁Kiderült	-11118
▁bevételt	-11119
▁képvisel	-11120
▁vezettek	-11121
▁hátrányos	-11122
▁szolgálja	-11123
▁számoltak	-11124
▁színeiben	-11125
▁állampolg	-11126
▁bizottsági	-11127
▁vancouveri	-11128
▁vizsgálata	-11129
▁fantasztikus	-11130
▁költségvetést	-11131
7)	-11132
EL	-11133
NT	-11134
my	-11135
ugh	-11136
▁zl	-11137
ajtó	-11138
almú	-11139
erty	-11140
▁1,6	-11141
▁1-0	-11142
▁Dep	-11143
▁Nóg	-11144
▁Wil	-11145
atják	-11146
efánt	-11147
erőmű	-11148
kassz	-11149
oljuk	-11150
▁2-0-	-11151
▁Mozg	-11152
▁Prim	-11153
▁mani	-11154
▁repr	-11155
adelph	-11156
onként	-11157
ségnek	-11158
▁Pécsi	-11159
▁felhő	-11160
▁felir	-11161
▁gyújt	-11162
▁megép	-11163
▁vitát	-11164
▁élére	-11165
osodott	-11166
▁Berlus	-11167
▁Facebo	-11168
▁Rudolf	-11169
▁előzet	-11170
▁félidő	-11171
▁kalkul	-11172
▁rászor	-11173
almatlan	-11174
ítésével	-11175
▁Február	-11176
▁Szegedi	-11177
▁elmélet	-11178
▁határát	-11179
▁hitelek	-11180
▁hivatás	-11181
▁magában	-11182
ismertebb	-11183
▁Mindenki	-11184
▁becsület	-11185
▁családja	-11186
▁döntőben	-11187
▁fogadott	-11188
▁híresség	-11189
▁ifjúsági	-11190
▁interjút	-11191
▁kijelölt	-11192
▁kutatási	-11193
▁tizenhat	-11194
▁hangsúlyt	-11195
▁képregény	-11196
▁kérdésben	-11197
▁könnyedén	-11198
▁pénztárak	-11199
▁igyekeznek	-11200
▁mindketten	-11201
▁visszautas	-11202
▁Csütörtökön	-11203
▁egyedülálló	-11204
▁megszerezte	-11205
▁automatikusan	-11206
▁állampolgárok	-11207
▁életveszélyes	-11208
FC	-11209
inn	-11210
pat	-11211
▁69	-11212
▁BA	-11213
▁Hu	-11214
▁cm	-11215
▁th	-11216
fejt	-11217
itól	-11218
labd	-11219
▁24.	-11220
▁víg	-11221
▁Ázs	-11222
asson	-11223
haszn	-11224
onosz	-11225
ozata	-11226
émium	-11227
ódást	-11228
ütköz	-11229
▁Hort	-11230
▁Társ	-11231
▁domb	-11232
ikusok	-11233
állyal	-11234
▁bejár	-11235
▁földi	-11236
▁motiv	-11237
▁Ibolya	-11238
▁Sziget	-11239
▁Szóval	-11240
▁elment	-11241
▁feltör	-11242
▁kisfiú	-11243
▁konkur	-11244
▁növeli	-11245
▁rendre	-11246
▁viselő	-11247
▁Hungary	-11248
▁Október	-11249
▁bármely	-11250
▁hónapig	-11251
▁kimutat	-11252
▁kétezer	-11253
▁tárgyak	-11254
▁zajlott	-11255
▁érdekel	-11256
▁Legalább	-11257
▁februári	-11258
▁figyelni	-11259
▁kiegyenl	-11260
▁megemlék	-11261
▁tárgyalt	-11262
▁épületet	-11263
▁Labdarúgó	-11264
▁Ugyancsak	-11265
▁tárgyalás	-11266
▁összehang	-11267
▁befektetői	-11268
▁jellemzően	-11269
▁növekedett	-11270
▁gondolkodás	-11271
▁hangoztatta	-11272
▁jelentették	-11273
▁teljesített	-11274
▁vezetésével	-11275
An	-11276
bej	-11277
bír	-11278
▁gr	-11279
atiz	-11280
laud	-11281
olyi	-11282
▁140	-11283
▁Lot	-11284
▁Nob	-11285
▁Seg	-11286
▁bát	-11287
▁rej	-11288
▁ult	-11289
▁úti	-11290
ergej	-11291
nyelv	-11292
ollár	-11293
ottan	-11294
értve	-11295
őrend	-11296
▁(200	-11297
▁Elem	-11298
▁Pozs	-11299
▁Pusk	-11300
▁Tény	-11301
▁Vajd	-11302
▁Zöld	-11303
▁bors	-11304
hirdet	-11305
unkban	-11306
▁Kádár	-11307
▁Louis	-11308
▁eléri	-11309
▁feled	-11310
▁házak	-11311
▁romák	-11312
▁tüzet	-11313
▁épülő	-11314
▁becsül	-11315
▁hagyja	-11316
▁hívják	-11317
▁kérték	-11318
▁tartom	-11319
árfolyam	-11320
▁Belgium	-11321
▁akartam	-11322
▁egyenes	-11323
▁frissen	-11324
▁időtart	-11325
▁iskolák	-11326
▁képeket	-11327
▁előfizet	-11328
▁gondolta	-11329
▁népesség	-11330
▁senkinek	-11331
▁számának	-11332
▁Szombaton	-11333
▁csapatban	-11334
▁folytatni	-11335
▁júniusban	-11336
▁pszichiát	-11337
▁részletek	-11338
▁szereztek	-11339
▁Kulturális	-11340
▁beszédében	-11341
▁fogyasztók	-11342
▁helyenként	-11343
▁kiszivárog	-11344
▁sajtórefer	-11345
▁kérdésünkre	-11346
▁műsorvezető	-11347
▁személyautó	-11348
▁jogszabályok	-11349
▁alkalmazottak	-11350
▁tapasztalatai	-11351
22	-11352
kv	-11353
atú	-11354
lág	-11355
tai	-11356
▁Po	-11357
▁só	-11358
andi	-11359
háza	-11360
ohas	-11361
usch	-11362
áram	-11363
ázza	-11364
▁130	-11365
▁26.	-11366
▁Der	-11367
▁Lis	-11368
▁Mir	-11369
▁You	-11370
▁imp	-11371
▁kaz	-11372
▁tek	-11373
inton	-11374
párti	-11375
áspár	-11376
▁Post	-11377
▁Team	-11378
▁kiló	-11379
▁okok	-11380
▁stag	-11381
▁szúr	-11382
család	-11383
háború	-11384
oppant	-11385
▁Barát	-11386
▁Győri	-11387
▁PSZÁF	-11388
▁elhár	-11389
▁esküv	-11390
▁kinek	-11391
▁lakók	-11392
▁tészt	-11393
▁viszi	-11394
▁élénk	-11395
▁újból	-11396
▁Együtt	-11397
▁Sebast	-11398
▁akciót	-11399
▁alapja	-11400
▁fennak	-11401
▁figyel	-11402
▁hangot	-11403
▁olimpi	-11404
▁pálink	-11405
változás	-11406
▁alapuló	-11407
▁egyházi	-11408
▁ezeknek	-11409
▁hatását	-11410
▁ismerik	-11411
▁bírságot	-11412
▁depressz	-11413
▁irányába	-11414
▁váratlan	-11415
▁vásárlók	-11416
▁összefog	-11417
ashingtoni	-11418
▁készültek	-11419
▁nyugodtan	-11420
▁terhesség	-11421
▁árbevétel	-11422
▁szolgálati	-11423
▁szélsőjobb	-11424
▁bejelentése	-11425
▁figyelemmel	-11426
▁hatékonyabb	-11427
▁létesítmény	-11428
▁problémákat	-11429
▁technológia	-11430
▁határozottan	-11431
▁tárgyalásokat	-11432
9)	-11433
EM	-11434
uy	-11435
gin	-11436
kev	-11437
oma	-11438
tté	-11439
yle	-11440
▁4,	-11441
▁76	-11442
▁AC	-11443
hord	-11444
iano	-11445
itte	-11446
szál	-11447
▁Ath	-11448
▁Don	-11449
▁Vál	-11450
▁alv	-11451
▁pir	-11452
▁ron	-11453
aikat	-11454
andra	-11455
egyev	-11456
ernek	-11457
ukkan	-11458
őzött	-11459
▁2004	-11460
▁szől	-11461
andard	-11462
éseken	-11463
ügynök	-11464
▁csemp	-11465
▁elnéz	-11466
▁fokon	-11467
▁ilyet	-11468
▁körbe	-11469
▁széri	-11470
latform	-11471
▁Bulvár	-11472
▁előnye	-11473
▁emelet	-11474
▁esélyt	-11475
▁leszám	-11476
▁ottani	-11477
▁szolid	-11478
egerszeg	-11479
▁Szergej	-11480
▁beismer	-11481
▁esélyes	-11482
▁járvány	-11483
▁melyben	-11484
▁párharc	-11485
▁rangadó	-11486
▁Barcelon	-11487
▁Frankfur	-11488
▁hivatali	-11489
▁irodalmi	-11490
▁jelentek	-11491
▁manapság	-11492
▁rekonstr	-11493
▁váltotta	-11494
igazgatója	-11495
▁Londonban	-11496
▁csökkenés	-11497
▁fejlemény	-11498
▁főosztály	-11499
▁visszamen	-11500
▁igyekezett	-11501
▁jelentenek	-11502
▁negyeddöntő	-11503
▁szerződések	-11504
▁washingtoni	-11505
▁Valószínűleg	-11506
▁árvízvédelmi	-11507
85	-11508
KI	-11509
apr	-11510
baj	-11511
nya	-11512
űek	-11513
etti	-11514
gart	-11515
tető	-11516
vére	-11517
ágai	-11518
▁5,5	-11519
▁Dam	-11520
▁Jac	-11521
▁Orv	-11522
▁Tan	-11523
▁din	-11524
▁táb	-11525
Korea	-11526
avált	-11527
burgi	-11528
ésért	-11529
▁Bill	-11530
▁Chic	-11531
▁Wall	-11532
▁jutó	-11533
▁megp	-11534
osságú	-11535
ásából	-11536
épület	-11537
▁ezred	-11538
▁győzt	-11539
▁házat	-11540
▁kider	-11541
▁évről	-11542
▁ülést	-11543
milliós	-11544
▁Gáspár	-11545
▁bolgár	-11546
▁bolygó	-11547
▁bővült	-11548
▁fogott	-11549
▁javára	-11550
▁kettőt	-11551
▁mélyen	-11552
▁észrev	-11553
▁elhatár	-11554
▁ezekben	-11555
▁fejlődő	-11556
▁kerülni	-11557
▁konzult	-11558
▁képzett	-11559
▁építeni	-11560
▁nagysága	-11561
▁Összesen	-11562
▁bukkantak	-11563
▁hírportál	-11564
▁jelentést	-11565
▁részeként	-11566
▁tényleges	-11567
▁évtizedek	-11568
▁Csehország	-11569
▁amelyekben	-11570
▁kapcsolata	-11571
▁kosárlabda	-11572
▁legerősebb	-11573
▁mérkőzésén	-11574
▁utánpótlás	-11575
▁válaszolta	-11576
▁csökkentése	-11577
▁rendelkeznek	-11578
▁államtitkára	-11579
▁helyreállítás	-11580
▁Olaszországban	-11581
▁rendelkezésére	-11582
▁kormányrendelet	-11583
▁nyilvántartásba	-11584
xg	-11585
azz	-11586
rij	-11587
rop	-11588
zus	-11589
Fotó	-11590
ebbi	-11591
ezső	-11592
fenn	-11593
isza	-11594
liai	-11595
▁184	-11596
▁Haj	-11597
▁Kup	-11598
▁May	-11599
▁Sev	-11600
▁Sun	-11601
▁báb	-11602
▁off	-11603
▁tri	-11604
angol	-11605
esíti	-11606
gatni	-11607
oston	-11608
zanak	-11609
ítjuk	-11610
ódhat	-11611
▁Benk	-11612
▁Flor	-11613
▁Ross	-11614
▁Szél	-11615
▁Vall	-11616
▁holt	-11617
▁időz	-11618
ohasem	-11619
▁Jézus	-11620
▁Közel	-11621
▁elbír	-11622
▁kapni	-11623
▁tudat	-11624
▁zloty	-11625
alizmus	-11626
elésére	-11627
▁alapos	-11628
▁bravúr	-11629
▁felder	-11630
▁felkér	-11631
▁fogunk	-11632
▁gyarap	-11633
▁joggal	-11634
▁nyarán	-11635
▁pletyk	-11636
▁pártot	-11637
▁ékszer	-11638
vevőszék	-11639
▁elnökét	-11640
▁kaptunk	-11641
▁tagadta	-11642
▁ünnepek	-11643
▁döntenek	-11644
▁ellátott	-11645
▁idényben	-11646
▁interjúj	-11647
▁közeljöv	-11648
▁mondható	-11649
▁születik	-11650
▁tábornok	-11651
▁államnak	-11652
gyűjtemény	-11653
▁Vállalkoz	-11654
▁kollektív	-11655
▁konszolid	-11656
▁mégiscsak	-11657
▁tagjainak	-11658
▁tekintély	-11659
▁változata	-11660
▁értékelte	-11661
▁Alekszandr	-11662
▁Volkswagen	-11663
▁biztosítja	-11664
▁szenvedély	-11665
▁tagállamok	-11666
▁törvényben	-11667
▁állampapír	-11668
▁érvényesül	-11669
▁háromnegyed	-11670
▁várakozások	-11671
▁decemberében	-11672
▁belügyminiszter	-11673
TI	-11674
úf	-11675
col	-11676
epl	-11677
mat	-11678
▁Ty	-11679
anni	-11680
atar	-11681
ibás	-11682
okos	-11683
oney	-11684
ánik	-11685
ízis	-11686
▁6:3	-11687
▁Bán	-11688
▁mul	-11689
▁sug	-11690
esből	-11691
▁Felső	-11692
▁Mexik	-11693
▁dátum	-11694
▁elhúz	-11695
▁fogok	-11696
▁kiköt	-11697
▁órára	-11698
energia	-11699
▁Dallas	-11700
▁Jelent	-11701
▁hozzák	-11702
▁hátral	-11703
▁létező	-11704
▁rajtuk	-11705
▁szponz	-11706
▁Március	-11707
▁kastély	-11708
▁mondtam	-11709
▁romlott	-11710
szóvivője	-11711
▁Zsigmond	-11712
▁magyarul	-11713
▁szelvény	-11714
▁ugyanazt	-11715
százalékos	-11716
▁Krisztina	-11717
▁adatbázis	-11718
▁gyakorolt	-11719
▁javasolja	-11720
▁kategória	-11721
▁viszonyok	-11722
▁változást	-11723
▁városában	-11724
▁Katasztróf	-11725
▁kérdéseket	-11726
▁Brüsszelben	-11727
▁egymilliárd	-11728
▁lehetőségek	-11729
▁szabályokat	-11730
▁vonatkozóan	-11731
▁konferencián	-11732
▁Internazionale	-11733
ffi	-11734
▁63	-11735
Szab	-11736
klub	-11737
lass	-11738
▁0,4	-11739
▁27.	-11740
▁28.	-11741
▁Fog	-11742
▁Inn	-11743
▁MKB	-11744
▁Sik	-11745
▁del	-11746
▁dzs	-11747
elten	-11748
jaira	-11749
kilom	-11750
odnak	-11751
ozzon	-11752
▁2005	-11753
▁Frad	-11754
▁Tott	-11755
▁csáb	-11756
▁kiér	-11757
▁kérő	-11758
▁máig	-11759
▁ránk	-11760
▁útra	-11761
tatják	-11762
válság	-11763
őleges	-11764
▁Kövér	-11765
▁Nekem	-11766
▁celeb	-11767
▁labda	-11768
▁massz	-11769
▁nyitó	-11770
▁prakt	-11771
▁sokak	-11772
▁tálib	-11773
▁újonc	-11774
szabású	-11775
vonalak	-11776
▁Szeret	-11777
▁alkotó	-11778
▁amiből	-11779
▁ellátó	-11780
▁holnap	-11781
▁nevelő	-11782
▁recept	-11783
▁válhat	-11784
▁állhat	-11785
korcsoly	-11786
▁emeltek	-11787
▁halálra	-11788
▁komplex	-11789
▁nyertes	-11790
▁sajátos	-11791
▁stressz	-11792
▁fejtette	-11793
▁felvásár	-11794
▁fizetnie	-11795
▁fogyaték	-11796
▁lezárták	-11797
▁megérdem	-11798
▁ügyintéz	-11799
▁emberiség	-11800
▁forgalmat	-11801
▁kivizsgál	-11802
▁megszólal	-11803
▁tízmillió	-11804
▁vállalati	-11805
▁áldozatot	-11806
▁eredményét	-11807
▁helikopter	-11808
▁hiányosság	-11809
▁középiskol	-11810
▁kiegyensúly	-11811
▁csökkentette	-11812
▁elkötelezett	-11813
▁felelősséget	-11814
▁technológiai	-11815
sek	-11816
udv	-11817
harm	-11818
ucks	-11819
ítse	-11820
ükön	-11821
▁110	-11822
▁Kaz	-11823
▁Suz	-11824
▁cir	-11825
▁elr	-11826
hozam	-11827
letes	-11828
védők	-11829
▁NASA	-11830
▁News	-11831
▁kasz	-11832
▁srác	-11833
beszél	-11834
profit	-11835
összeg	-11836
▁Nehéz	-11837
▁Villa	-11838
▁békés	-11839
▁hírül	-11840
▁közok	-11841
▁okból	-11842
▁segéd	-11843
▁szeme	-11844
▁támog	-11845
eződött	-11846
ítéssel	-11847
▁Erdély	-11848
▁Kálmán	-11849
▁Peking	-11850
▁alátám	-11851
▁csalás	-11852
▁földön	-11853
▁fölény	-11854
▁lövöld	-11855
▁számok	-11856
▁Külföld	-11857
▁idejére	-11858
▁igényel	-11859
▁kevesen	-11860
▁kiadása	-11861
▁modellt	-11862
▁vezetni	-11863
Európában	-11864
▁Népszava	-11865
▁járművek	-11866
▁menekült	-11867
▁többségi	-11868
▁érkeznek	-11869
▁újdonság	-11870
alapítvány	-11871
▁Gólszerző	-11872
▁csapatnak	-11873
▁korántsem	-11874
▁semmiféle	-11875
▁szélesebb	-11876
▁tulajdonú	-11877
▁ellentétes	-11878
▁használták	-11879
▁korrupciós	-11880
▁készítette	-11881
▁programban	-11882
▁üzemeltető	-11883
▁Szerencsére	-11884
▁eredményeit	-11885
▁foglalkozni	-11886
▁születésnap	-11887
▁foglalkozott	-11888
▁kezdeményezte	-11889
95	-11890
St	-11891
VH	-11892
▁#	-11893
bár	-11894
fik	-11895
ija	-11896
éna	-11897
▁Ev	-11898
▁Lo	-11899
▁Me	-11900
▁áf	-11901
ater	-11902
egas	-11903
oper	-11904
téri	-11905
óból	-11906
▁Bot	-11907
▁Gál	-11908
▁Món	-11909
adrág	-11910
alapú	-11911
ersey	-11912
esleg	-11913
▁Alig	-11914
▁Hall	-11915
▁dikt	-11916
▁dőlt	-11917
▁hajr	-11918
▁krón	-11919
figyel	-11920
osztás	-11921
ászlót	-11922
▁Abban	-11923
▁Bloom	-11924
▁blokk	-11925
▁boksz	-11926
▁bátor	-11927
▁eleje	-11928
▁fotók	-11929
▁márka	-11930
▁vinni	-11931
aradics	-11932
mánnyal	-11933
▁Daniel	-11934
▁Pannon	-11935
▁Számos	-11936
▁Vagyon	-11937
▁erővel	-11938
▁euróra	-11939
▁iPhone	-11940
▁kérnek	-11941
▁mértek	-11942
▁pontja	-11943
▁utakon	-11944
▁vágott	-11945
▁Jackson	-11946
▁Program	-11947
▁dopping	-11948
▁energet	-11949
▁erkölcs	-11950
▁ezekkel	-11951
▁igazgat	-11952
▁megőriz	-11953
▁tudatta	-11954
▁végezni	-11955
▁méghozzá	-11956
▁mélypont	-11957
▁törvényi	-11958
▁haláleset	-11959
▁javasolta	-11960
▁jelenthet	-11961
▁lapunknak	-11962
▁selejtező	-11963
▁drasztikus	-11964
▁Szombathely	-11965
▁győzelemmel	-11966
▁készültséget	-11967
▁továbbiakban	-11968
▁International	-11969
▁sajtószabadság	-11970
14	-11971
ikt	-11972
izm	-11973
név	-11974
uds	-11975
így	-11976
öpr	-11977
▁po	-11978
agép	-11979
azek	-11980
esty	-11981
liga	-11982
olsó	-11983
orde	-11984
penz	-11985
▁Gul	-11986
▁Jim	-11987
▁McC	-11988
▁Raj	-11989
▁tág	-11990
▁veh	-11991
▁vul	-11992
forma	-11993
oltam	-11994
ostel	-11995
ökkel	-11996
▁FIFA	-11997
▁King	-11998
▁Lyon	-11999
▁díja	-12000
piacon	-12001
vidéki	-12002
▁Rózsa	-12003
▁adhat	-12004
▁csomó	-12005
▁dagan	-12006
▁szenz	-12007
▁tévés	-12008
▁vevők	-12009
asztron	-12010
exuális	-12011
hálózat	-12012
kezelés	-12013
▁behajt	-12014
▁eladós	-12015
▁futómű	-12016
▁haszon	-12017
▁hívták	-12018
▁kielég	-12019
▁lakást	-12020
▁leendő	-12021
▁lopott	-12022
▁tőzsde	-12023
hatalmaz	-12024
▁Kultúra	-12025
▁Windows	-12026
▁alapkam	-12027
▁autóban	-12028
▁idézett	-12029
▁kapacit	-12030
▁köthető	-12031
▁manipul	-12032
▁tervező	-12033
asztották	-12034
▁Mourinho	-12035
▁amellett	-12036
▁keletkez	-12037
▁leggyors	-12038
▁maradhat	-12039
▁részesül	-12040
▁veszélyt	-12041
▁ügyvédje	-12042
▁Szolgálat	-12043
▁alkatrész	-12044
▁egymásnak	-12045
▁januártól	-12046
▁mindenütt	-12047
▁egyszerűbb	-12048
▁kereskedők	-12049
▁mostanában	-12050
▁elégedetlen	-12051
▁rendőrséget	-12052
▁sajtószóvivője	-12053
26	-12054
94	-12055
abi	-12056
eff	-12057
erb	-12058
nim	-12059
uda	-12060
íli	-12061
▁AB	-12062
▁mp	-12063
Mind	-12064
alax	-12065
erét	-12066
fest	-12067
ózan	-12068
úrát	-12069
▁(27	-12070
▁6:2	-12071
▁Hom	-12072
▁Kab	-12073
▁Vic	-12074
▁fer	-12075
▁led	-12076
▁mem	-12077
egyes	-12078
ektek	-12079
előny	-12080
munik	-12081
ülhet	-12082
ültet	-12083
▁3000	-12084
▁Andr	-12085
▁Rang	-12086
▁beér	-12087
▁gárd	-12088
▁kval	-12089
azekas	-12090
ennyit	-12091
▁célzó	-12092
▁elvon	-12093
▁utast	-12094
elemmel	-12095
izációs	-12096
üntette	-12097
▁Hírlap	-12098
▁Merkel	-12099
▁Mindig	-12100
▁levált	-12101
▁normál	-12102
▁nyílik	-12103
▁Megaszt	-12104
▁akarunk	-12105
▁csekély	-12106
▁elkülön	-12107
▁kelljen	-12108
▁királyi	-12109
▁készítő	-12110
▁szállás	-12111
▁Devecser	-12112
▁Guardian	-12113
▁akárcsak	-12114
▁cikkében	-12115
▁erkölcsi	-12116
▁eurózóna	-12117
▁kézilabd	-12118
▁mutatója	-12119
▁vitatott	-12120
▁rögzített	-12121
▁szemlélet	-12122
▁megelőzően	-12123
▁összefüggő	-12124
▁jelentősége	-12125
▁kihallgatás	-12126
▁legkevesebb	-12127
▁szakemberei	-12128
▁összhangban	-12129
▁Oroszországban	-12130
BO	-12131
VA	-12132
yű	-12133
Vas	-12134
rum	-12135
tok	-12136
▁Ja	-12137
azar	-12138
enix	-12139
kelt	-12140
köny	-12141
▁Bra	-12142
▁Dig	-12143
▁Ful	-12144
▁cik	-12145
▁far	-12146
▁lik	-12147
inket	-12148
okért	-12149
ókusz	-12150
ünnep	-12151
▁Amit	-12152
▁Ernő	-12153
▁Play	-12154
▁Samp	-12155
▁Stef	-12156
▁hátr	-12157
▁iPad	-12158
▁rock	-12159
▁spór	-12160
▁Munka	-12161
▁Rövid	-12162
▁bízik	-12163
▁dobog	-12164
▁gyász	-12165
▁hívja	-12166
▁lélek	-12167
▁megal	-12168
▁teret	-12169
Szolnok	-12170
egyházi	-12171
▁Forrás	-12172
▁lelkes	-12173
▁műhold	-12174
▁állása	-12175
▁ötszáz	-12176
hassanak	-12177
szállító	-12178
vállalat	-12179
▁Cameron	-12180
▁Nemcsak	-12181
▁euróért	-12182
▁hallani	-12183
▁karossz	-12184
▁küzdött	-12185
▁tekinti	-12186
▁tudomás	-12187
▁változó	-12188
súlyosabb	-12189
▁Ilyenkor	-12190
▁gépkocsi	-12191
▁megtenni	-12192
▁tartozás	-12193
▁tervezik	-12194
▁világhír	-12195
▁ártatlan	-12196
▁rendeznek	-12197
▁vásárolni	-12198
▁elhangzott	-12199
▁kockázatot	-12200
▁megpróbált	-12201
▁pályázatot	-12202
▁rendőröket	-12203
▁Debrecenben	-12204
▁munkaviszony	-12205
▁németországi	-12206
világbajnokság	-12207
In	-12208
kg	-12209
mon	-12210
ote	-12211
▁Ka	-12212
▁Ru	-12213
arit	-12214
erte	-12215
itch	-12216
omor	-12217
szár	-12218
▁Max	-12219
▁hip	-12220
▁hur	-12221
▁omb	-12222
▁zöm	-12223
enham	-12224
hatás	-12225
váron	-12226
ályos	-12227
égett	-12228
▁(0-1	-12229
▁2-1-	-12230
▁Opel	-12231
▁okát	-12232
▁pezs	-12233
▁toll	-12234
Európa	-12235
gazdag	-12236
hették	-12237
jaival	-12238
▁Ahhoz	-12239
▁Erika	-12240
▁Ferih	-12241
▁neked	-12242
▁neves	-12243
▁pesti	-12244
▁tojás	-12245
csarnok	-12246
olására	-12247
éseinek	-12248
▁Petőfi	-12249
▁célkit	-12250
▁gyanúj	-12251
▁sürgős	-12252
▁tanuló	-12253
▁vonult	-12254
▁ágazat	-12255
acsoport	-12256
művészet	-12257
szigetek	-12258
testület	-12259
▁elefánt	-12260
▁külügyi	-12261
▁másikat	-12262
▁nyíltan	-12263
▁növelte	-12264
▁olvasni	-12265
▁pártnak	-12266
▁szerver	-12267
▁szólnak	-12268
▁életmód	-12269
szállítás	-12270
▁bekerült	-12271
▁cseleked	-12272
▁elemzése	-12273
▁fegyvert	-12274
▁jövedelm	-12275
▁különben	-12276
▁mutattak	-12277
▁összevet	-12278
▁Angliában	-12279
▁börtönben	-12280
▁helyreáll	-12281
▁kockázati	-12282
▁támadások	-12283
▁veszprémi	-12284
▁öngyilkos	-12285
▁tűzoltóság	-12286
▁korlátozott	-12287
▁regisztrált	-12288
▁teljesíteni	-12289
▁szerkesztőség	-12290
▁tapasztalható	-12291
▁nemzetgazdasági	-12292
ES	-12293
2),	-12294
ada	-12295
arr	-12296
aux	-12297
iro	-12298
isc	-12299
▁Ur	-12300
▁Vi	-12301
ezőt	-12302
iger	-12303
iába	-12304
▁50-	-12305
▁Boy	-12306
▁Kos	-12307
▁mil	-12308
▁ráv	-12309
einte	-12310
hanem	-12311
iként	-12312
▁Azon	-12313
▁Mész	-12314
▁Ryan	-12315
▁gumi	-12316
▁juni	-12317
▁tenn	-12318
cserél	-12319
olásra	-12320
ésétől	-12321
▁Egész	-12322
▁ahová	-12323
▁ezres	-12324
▁forró	-12325
▁helyt	-12326
csökken	-12327
ényszer	-12328
▁Jersey	-12329
▁amihez	-12330
▁fogjuk	-12331
▁határt	-12332
▁kocsit	-12333
▁látjuk	-12334
▁munkák	-12335
▁nyaral	-12336
▁reagál	-12337
▁rendes	-12338
▁szalag	-12339
▁szobor	-12340
▁érezte	-12341
▁Ronaldo	-12342
▁autósok	-12343
▁dönteni	-12344
▁kereste	-12345
▁megszak	-12346
▁túlsúly	-12347
▁vagyoni	-12348
▁értékes	-12349
▁Csakhogy	-12350
▁Elmondta	-12351
▁belváros	-12352
▁eséllyel	-12353
▁felmerül	-12354
▁köztiszt	-12355
▁nevezték	-12356
▁országba	-12357
▁töltötte	-12358
aliforniai	-12359
▁alapítója	-12360
▁bíróságon	-12361
▁csoportja	-12362
▁egyenként	-12363
▁szórakozó	-12364
▁virtuális	-12365
▁döntéseket	-12366
▁tehetséges	-12367
▁felkészülés	-12368
▁álláspontja	-12369
▁Egészségügyi	-12370
▁felelősségre	-12371
▁interjújában	-12372
▁Szakszervezet	-12373
▁belvízvédelmi	-12374
▁büntetőeljárás	-12375
-3	-12376
jó	-12377
ign	-12378
aidő	-12379
erer	-12380
kozy	-12381
mund	-12382
roup	-12383
ubai	-12384
▁160	-12385
▁Cit	-12386
▁Emi	-12387
▁PSV	-12388
▁Pap	-12389
▁Sci	-12390
▁Tím	-12391
▁akk	-12392
▁rit	-12393
landi	-12394
sztár	-12395
ületi	-12396
▁Kett	-12397
▁Mező	-12398
▁Sund	-12399
▁kock	-12400
▁náci	-12401
▁sikk	-12402
▁ügye	-12403
ancial	-12404
attart	-12405
főnöke	-12406
mezőny	-12407
tanács	-12408
éséért	-12409
▁1999-	-12410
▁Heves	-12411
▁Stars	-12412
▁gyári	-12413
▁kezét	-12414
▁kérni	-12415
▁érzik	-12416
▁Bizton	-12417
▁Kocsis	-12418
▁haladt	-12419
▁kezelő	-12420
▁megtér	-12421
▁műsort	-12422
▁távoli	-12423
▁eleinte	-12424
▁leszünk	-12425
▁növelni	-12426
▁szállít	-12427
▁állomás	-12428
▁értéket	-12429
▁Hungária	-12430
▁elöntött	-12431
▁házaspár	-12432
▁listáján	-12433
▁maguknak	-12434
▁használta	-12435
▁hazánkban	-12436
▁háromszáz	-12437
▁kedvezőbb	-12438
▁kutatások	-12439
▁külföldre	-12440
▁mindhárom	-12441
▁szabadláb	-12442
▁adóhatóság	-12443
▁birtokában	-12444
▁bizonyítja	-12445
▁ideiglenes	-12446
▁jelentkező	-12447
▁kuratórium	-12448
▁rámutatott	-12449
▁vélemények	-12450
▁előrejelzés	-12451
▁helyszínről	-12452
▁kategóriába	-12453
▁augusztusban	-12454
▁közeljövőben	-12455
▁meghirdetett	-12456
▁gyanúsítottak	-12457
▁©	-12458
acz	-12459
aji	-12460
akó	-12461
fot	-12462
hov	-12463
jas	-12464
ojt	-12465
ole	-12466
uez	-12467
urd	-12468
vös	-12469
áne	-12470
▁61	-12471
▁Sw	-12472
▁du	-12473
enzi	-12474
lang	-12475
obor	-12476
ramm	-12477
ágyi	-12478
árdi	-12479
özni	-12480
▁Bag	-12481
▁Elt	-12482
▁lig	-12483
▁vid	-12484
▁www	-12485
iával	-12486
kísér	-12487
olhat	-12488
ériai	-12489
▁Bert	-12490
▁Kezd	-12491
▁elcs	-12492
alitás	-12493
atokra	-12494
ennégy	-12495
eztünk	-12496
▁afgan	-12497
▁díjak	-12498
▁lányt	-12499
▁madár	-12500
▁megöl	-12501
▁sehol	-12502
asznált	-12503
esültek	-12504
frakció	-12505
▁Bizony	-12506
▁Nógrád	-12507
▁Történ	-12508
▁baráti	-12509
▁gólját	-12510
▁jegyző	-12511
▁lennie	-12512
▁motort	-12513
▁nyomon	-12514
▁hiteles	-12515
▁hónapra	-12516
▁követel	-12517
▁lépések	-12518
▁narancs	-12519
▁szociál	-12520
▁túlnyom	-12521
ecskeméti	-12522
▁Hoffmann	-12523
▁javítani	-12524
▁korabeli	-12525
▁megalkot	-12526
▁partnere	-12527
▁sérülést	-12528
▁csapattal	-12529
▁játszanak	-12530
▁legjelent	-12531
▁napközben	-12532
▁szeretett	-12533
katasztrófa	-12534
▁berendezés	-12535
▁elfogadható	-12536
▁jelentősebb	-12537
▁játékvezető	-12538
▁előrejelzések	-12539
▁tevékenységet	-12540
▁foglalkoztatási	-12541
MA	-12542
ift	-12543
las	-12544
▁Ho	-12545
▁MA	-12546
▁mm	-12547
▁ra	-12548
coni	-12549
este	-12550
ilei	-12551
itor	-12552
orth	-12553
ozma	-12554
raph	-12555
ónia	-12556
▁Kéz	-12557
▁lóg	-12558
▁szm	-12559
adnak	-12560
ikban	-12561
jüket	-12562
ítsék	-12563
▁Kics	-12564
▁Megh	-12565
▁Test	-12566
▁Vért	-12567
▁adás	-12568
▁címe	-12569
▁közm	-12570
abilit	-12571
gentín	-12572
vények	-12573
▁1997-	-12574
▁Iskol	-12575
▁belát	-12576
▁egybe	-12577
▁felem	-12578
▁jelző	-12579
▁lovas	-12580
▁merül	-12581
▁nőket	-12582
▁nőnek	-12583
▁téves	-12584
▁zárja	-12585
emelést	-12586
nyilván	-12587
rendező	-12588
ántúlon	-12589
▁Button	-12590
▁Emiatt	-12591
▁Városi	-12592
▁bennem	-12593
▁haltak	-12594
▁jutnak	-12595
▁ombuds	-12596
▁válnak	-12597
▁örökös	-12598
▁összej	-12599
▁Detroit	-12600
▁Igazság	-12601
▁azokkal	-12602
▁ezentúl	-12603
▁hozzász	-12604
▁katalán	-12605
▁komprom	-12606
▁motoros	-12607
▁sohasem	-12608
▁tengely	-12609
▁valakit	-12610
▁vezeték	-12611
▁viharos	-12612
▁keményen	-12613
▁kérésére	-12614
▁működnek	-12615
▁nehézség	-12616
▁személyt	-12617
▁Párizsban	-12618
▁beszélnek	-12619
▁egyiptomi	-12620
▁ellenében	-12621
▁forrásból	-12622
▁hétköznap	-12623
▁kétmillió	-12624
▁legtöbbet	-12625
▁eljárásban	-12626
▁emlegetett	-12627
▁valószínűs	-12628
▁állítottak	-12629
▁Törökország	-12630
▁potenciális	-12631
▁afganisztáni	-12632
▁fejlesztések	-12633
▁négyzetméter	-12634
▁történetének	-12635
▁Magyarországnak	-12636
▁elfogadhatatlan	-12637
▁személygépkocsi	-12638
!!!	-12639
edy	-12640
eki	-12641
ikó	-12642
top	-12643
önd	-12644
▁67	-12645
▁86	-12646
imit	-12647
ince	-12648
iter	-12649
ímél	-12650
ókép	-12651
öhög	-12652
▁Fri	-12653
▁Nos	-12654
▁Tár	-12655
▁Túl	-12656
▁Vat	-12657
▁ang	-12658
▁elf	-12659
▁vaj	-12660
adója	-12661
fokon	-12662
ménye	-12663
▁1-0-	-12664
▁2002	-12665
▁Barc	-12666
▁Brad	-12667
▁Herc	-12668
▁Kiem	-12669
▁Kész	-12670
▁Paks	-12671
▁csuk	-12672
▁fürd	-12673
▁legd	-12674
▁prov	-12675
ejáték	-12676
olgált	-12677
▁Dénes	-12678
▁Nobel	-12679
▁hétig	-12680
▁karri	-12681
▁közre	-12682
▁közöl	-12683
orvégia	-12684
ozással	-12685
például	-12686
▁Hosszú	-12687
▁eléggé	-12688
▁galéri	-12689
▁kapuba	-12690
▁kiment	-12691
▁lakott	-12692
▁leszek	-12693
▁pillér	-12694
▁reptér	-12695
adelphia	-12696
asztotta	-12697
elnökség	-12698
unántúli	-12699
▁Sarkozy	-12700
▁darabot	-12701
▁károkat	-12702
▁magához	-12703
▁meggyőz	-12704
▁premier	-12705
▁székház	-12706
▁utazási	-12707
▁Továbbra	-12708
▁bankközi	-12709
▁munkával	-12710
▁romániai	-12711
▁távolság	-12712
fontosságú	-12713
▁Financial	-12714
▁egymáshoz	-12715
▁felszólal	-12716
▁megtörtén	-12717
▁mindkettő	-12718
▁hétköznapi	-12719
▁napvilágot	-12720
▁vizsgálták	-12721
▁gyerekeknek	-12722
▁kapcsolatba	-12723
▁gyakorlatban	-12724
▁támogatására	-12725
-2	-12726
bar	-12727
dob	-12728
áth	-12729
▁88	-12730
▁CN	-12731
ator	-12732
cker	-12733
igan	-12734
konc	-12735
ködő	-12736
rény	-12737
ápor	-12738
ödöl	-12739
▁Erő	-12740
▁Pic	-12741
▁hím	-12742
▁pok	-12743
▁rán	-12744
▁tég	-12745
▁Comp	-12746
▁csíp	-12747
▁elle	-12748
▁mozd	-12749
▁trón	-12750
entrum	-12751
kozott	-12752
modell	-12753
értékű	-12754
▁Pesti	-12755
▁extra	-12756
▁kiírt	-12757
▁körök	-12758
▁lőtte	-12759
▁posta	-12760
▁tetej	-12761
szakért	-12762
▁Kedves	-12763
▁borult	-12764
▁cégnél	-12765
▁eladni	-12766
▁folyós	-12767
▁illető	-12768
▁karban	-12769
▁korrig	-12770
▁megseg	-12771
▁megtan	-12772
▁szapor	-12773
▁ugrott	-12774
▁utalva	-12775
▁villám	-12776
▁vándor	-12777
tudomány	-12778
udományi	-12779
▁Csillag	-12780
▁Fazekas	-12781
▁becsült	-12782
▁cáfolta	-12783
▁elnököt	-12784
▁függően	-12785
▁keveset	-12786
▁reakció	-12787
▁életkor	-12788
▁egyszeri	-12789
▁energiát	-12790
▁helyeken	-12791
▁maradjon	-12792
▁rugalmas	-12793
▁szögezte	-12794
▁tragédia	-12795
▁alapanyag	-12796
▁ellensúly	-12797
▁emberölés	-12798
▁határozza	-12799
▁veszélybe	-12800
▁Berlusconi	-12801
▁Tudományos	-12802
▁autópályán	-12803
▁előállítás	-12804
▁feszültség	-12805
▁leszögezte	-12806
▁miniszteri	-12807
▁bizonyítani	-12808
▁listavezető	-12809
▁megjelenése	-12810
▁környezetben	-12811
▁munkavállaló	-12812
▁választásokat	-12813
▁alpolgármester	-12814
▁választópolgár	-12815
▁letartóztatását	-12816
▁százalékponttal	-12817
El	-12818
Mi	-12819
had	-12820
lop	-12821
ric	-12822
üty	-12823
▁CD	-12824
▁Él	-12825
edés	-12826
elje	-12827
inát	-12828
rick	-12829
uvar	-12830
vend	-12831
íván	-12832
▁0,0	-12833
▁29.	-12834
▁350	-12835
▁DVD	-12836
▁Pav	-12837
▁all	-12838
▁com	-12839
▁dir	-12840
▁fek	-12841
▁kft	-12842
▁koz	-12843
▁röp	-12844
erman	-12845
furti	-12846
hajtó	-12847
munka	-12848
oráma	-12849
utsch	-12850
zésre	-12851
▁Amíg	-12852
▁MLSZ	-12853
▁Súly	-12854
▁anim	-12855
▁arab	-12856
▁bent	-12857
▁kézi	-12858
kanizs	-12859
rekord	-12860
ásakor	-12861
ásokon	-12862
▁Andor	-12863
▁Angol	-12864
▁Green	-12865
▁Vidék	-12866
▁innov	-12867
▁pohár	-12868
▁ruház	-12869
▁róluk	-12870
▁űrhaj	-12871
részben	-12872
vénnyel	-12873
▁Dunaúj	-12874
▁betilt	-12875
▁filmes	-12876
▁fizető	-12877
▁iszlám	-12878
▁likvid	-12879
▁Egyszer	-12880
▁korrekt	-12881
▁szemlél	-12882
▁tizedik	-12883
▁Hangsúly	-12884
▁Videoton	-12885
▁assziszt	-12886
▁jelezték	-12887
▁lakásban	-12888
▁rendesen	-12889
▁vádolják	-12890
▁Gazdasági	-12891
▁Különösen	-12892
▁Sebastian	-12893
▁ellenkező	-12894
▁legjobbja	-12895
▁megszűnik	-12896
▁párbeszéd	-12897
▁vádlottak	-12898
▁Általános	-12899
▁amelyekkel	-12900
▁devizapiac	-12901
▁gyanújával	-12902
▁megtörtént	-12903
▁pakisztáni	-12904
▁váratlanul	-12905
▁fogyasztási	-12906
▁megtalálták	-12907
▁történteket	-12908
▁állapította	-12909
▁körülményeit	-12910
▁legismertebb	-12911
▁támogatásával	-12912
▁legjelentősebb	-12913
RC	-12914
úv	-12915
ajó	-12916
boy	-12917
ety	-12918
oul	-12919
ájt	-12920
öly	-12921
▁84	-12922
▁FT	-12923
▁MI	-12924
amon	-12925
csik	-12926
eman	-12927
tánc	-12928
éjét	-12929
▁2-0	-12930
▁3-4	-12931
▁ETO	-12932
▁Lew	-12933
▁olv	-12934
▁páp	-12935
▁ülő	-12936
attam	-12937
efont	-12938
ezzék	-12939
zenek	-12940
ákról	-12941
▁Rock	-12942
▁Star	-12943
▁acél	-12944
▁hajd	-12945
▁legh	-12946
▁nyír	-12947
▁ráta	-12948
▁zakl	-12949
jegyző	-12950
pályán	-12951
ütötte	-12952
▁Harry	-12953
▁estek	-12954
▁fajta	-12955
▁fűzte	-12956
▁javul	-12957
▁társa	-12958
▁álmod	-12959
emberek	-12960
korszak	-12961
problém	-12962
▁Legfel	-12963
▁Pintér	-12964
▁alpesi	-12965
▁büszke	-12966
▁elküld	-12967
▁fontot	-12968
▁kamera	-12969
▁lelepl	-12970
▁madrid	-12971
▁megkér	-12972
▁okozza	-12973
▁támadt	-12974
▁zászló	-12975
▁érdeke	-12976
▁Fideszt	-12977
▁bírálta	-12978
▁fennáll	-12979
▁helyről	-12980
▁médiasz	-12981
▁pusztán	-12982
▁szerzői	-12983
▁szerzők	-12984
▁tudatos	-12985
▁világra	-12986
▁engedték	-12987
▁felvenni	-12988
▁játéknap	-12989
▁kerüljön	-12990
▁tartósan	-12991
▁védelmét	-12992
▁államban	-12993
▁bekapcsol	-12994
▁kifejezés	-12995
▁megmaradt	-12996
▁szavaztak	-12997
▁teherautó	-12998
▁vallomást	-12999
▁bocsánatot	-13000
▁kockázatos	-13001
▁korábbinál	-13002
▁tartózkodó	-13003
▁bevonásával	-13004
▁eredménnyel	-13005
▁középpályás	-13006
▁minősítette	-13007
▁rendelkezés	-13008
▁veszteséget	-13009
▁vezetőjének	-13010
▁vállalkozók	-13011
▁legsúlyosabb	-13012
▁frakcióvezetője	-13013
BB	-13014
MI	-13015
Pr	-13016
oln	-13017
ugy	-13018
▁öz	-13019
ardi	-13020
arkt	-13021
avig	-13022
eneg	-13023
ward	-13024
▁0,2	-13025
▁Den	-13026
▁Fér	-13027
▁Roy	-13028
▁gál	-13029
▁hár	-13030
▁inf	-13031
▁tüz	-13032
ville	-13033
álunk	-13034
▁Csal	-13035
▁Csep	-13036
▁Dmit	-13037
▁Ferg	-13038
▁Szek	-13039
▁Volv	-13040
▁Whit	-13041
▁baja	-13042
▁bosz	-13043
▁csip	-13044
▁cége	-13045
▁főbb	-13046
▁nyíl	-13047
hassák	-13048
kodnak	-13049
nyomás	-13050
seille	-13051
▁Kiadó	-13052
▁Saját	-13053
▁anyja	-13054
▁budai	-13055
▁debüt	-13056
▁elkap	-13057
▁hetek	-13058
▁kitűz	-13059
▁minap	-13060
▁szebb	-13061
▁szfér	-13062
csatorn	-13063
essenek	-13064
uttgart	-13065
ációját	-13066
▁Fulham	-13067
▁Jövőre	-13068
▁azokra	-13069
▁finálé	-13070
▁fogták	-13071
▁honfit	-13072
▁jogász	-13073
▁kapunk	-13074
▁legkor	-13075
▁láthat	-13076
▁lépése	-13077
▁árokba	-13078
▁csepeli	-13079
▁drágább	-13080
▁mennyit	-13081
▁okokból	-13082
▁szégyen	-13083
▁tragédi	-13084
▁Szegeden	-13085
▁igazából	-13086
▁jogalkot	-13087
▁kvalifik	-13088
▁megnyert	-13089
▁turizmus	-13090
▁életüket	-13091
▁beleértve	-13092
▁elnökségi	-13093
▁időjárási	-13094
▁ismerteti	-13095
▁csökkenése	-13096
▁feldolgozó	-13097
▁felrobbant	-13098
▁korlátozás	-13099
▁választani	-13100
▁érdeklődők	-13101
▁mechanizmus	-13102
▁tulajdonosok	-13103
▁bekövetkezett	-13104
▁kutatócsoport	-13105
▁megválasztott	-13106
▁nyilvánvalóan	-13107
//	-13108
38	-13109
FP	-13110
://	-13111
Afr	-13112
aur	-13113
kon	-13114
ohl	-13115
óna	-13116
▁77	-13117
▁ká	-13118
adat	-13119
ador	-13120
alát	-13121
etta	-13122
ugor	-13123
▁Lem	-13124
▁dup	-13125
▁inc	-13126
▁Ért	-13127
csend	-13128
eltem	-13129
errel	-13130
osztó	-13131
tábor	-13132
üknek	-13133
▁Elég	-13134
▁alag	-13135
▁köré	-13136
▁lyuk	-13137
▁proc	-13138
fiatal	-13139
rablás	-13140
▁Crist	-13141
▁heves	-13142
▁kiált	-13143
▁szakm	-13144
osságot	-13145
▁felelő	-13146
▁felfog	-13147
▁hangos	-13148
▁kritiz	-13149
▁megtév	-13150
▁pályát	-13151
▁társai	-13152
arnokban	-13153
▁Szerbia	-13154
▁helyben	-13155
▁maradni	-13156
fesztivál	-13157
kiállítás	-13158
▁beszélve	-13159
▁elgondol	-13160
▁gyermeke	-13161
▁kérdezte	-13162
▁sajtóban	-13163
▁terméket	-13164
▁veszélye	-13165
▁ügyekben	-13166
▁elnöksége	-13167
▁helyezked	-13168
▁kopogtató	-13169
▁kormányok	-13170
▁segítette	-13171
▁világhírű	-13172
▁virradóra	-13173
▁állandóan	-13174
▁Portugália	-13175
▁alkalmával	-13176
▁elképesztő	-13177
▁emelkedtek	-13178
▁milliárdot	-13179
▁minimálbér	-13180
▁bajnokságot	-13181
▁háromszoros	-13182
▁Mindenesetre	-13183
▁felsőoktatás	-13184
▁négyzetkilom	-13185
▁számíthatnak	-13186
▁számítógépes	-13187
▁foglalkoztató	-13188
▁hagyományosan	-13189
▁következménye	-13190
▁tapasztalatok	-13191
34	-13192
RA	-13193
Doc	-13194
Meg	-13195
eot	-13196
fil	-13197
főt	-13198
gen	-13199
kin	-13200
ttp	-13201
▁78	-13202
▁la	-13203
Tube	-13204
aida	-13205
ance	-13206
bány	-13207
esco	-13208
mith	-13209
ívum	-13210
▁Abu	-13211
▁Dab	-13212
▁Dow	-13213
▁Het	-13214
▁Jár	-13215
▁Tit	-13216
▁cuk	-13217
▁gőz	-13218
▁tin	-13219
allal	-13220
arány	-13221
ermék	-13222
ezzen	-13223
rogén	-13224
zatos	-13225
áztak	-13226
ödött	-13227
ölték	-13228
▁Atom	-13229
▁DVSC	-13230
▁Fiat	-13231
▁belt	-13232
▁lobb	-13233
▁mark	-13234
▁megn	-13235
attant	-13236
ezheti	-13237
listán	-13238
szoros	-13239
öltött	-13240
▁1989-	-13241
▁Könny	-13242
▁Teleg	-13243
▁agrár	-13244
▁agyon	-13245
▁bossz	-13246
▁csepp	-13247
▁jeges	-13248
▁kérik	-13249
▁nemes	-13250
▁utaló	-13251
▁zseni	-13252
▁írtak	-13253
▁ördög	-13254
járulék	-13255
osztrák	-13256
ségesen	-13257
▁bevált	-13258
▁emelni	-13259
▁ezeken	-13260
▁fektet	-13261
▁hatást	-13262
▁hoznak	-13263
▁jogkör	-13264
▁kezébe	-13265
▁lépnek	-13266
▁utazik	-13267
▁várost	-13268
egyeztet	-13269
ítésének	-13270
▁Megjegy	-13271
▁adócsal	-13272
▁begyűjt	-13273
▁hagyták	-13274
▁roppant	-13275
▁unalmas	-13276
▁értékét	-13277
ollywoodi	-13278
▁kívánják	-13279
▁modellek	-13280
▁mostanra	-13281
▁műsorban	-13282
▁részének	-13283
▁segíthet	-13284
▁vezetőit	-13285
▁életének	-13286
képviselet	-13287
▁Bloomberg	-13288
▁Medvegyev	-13289
▁Megasztár	-13290
▁Szabadság	-13291
▁Tottenham	-13292
▁megszabad	-13293
▁nagyváros	-13294
▁szivattyú	-13295
▁moratórium	-13296
▁szavazatok	-13297
▁álláskeres	-13298
▁adatvédelmi	-13299
▁jegyzőkönyv	-13300
▁októberében	-13301
▁pontosabban	-13302
▁sebességgel	-13303
▁laboratórium	-13304
▁megtalálható	-13305
▁kormánybiztos	-13306
▁változatlanul	-13307
▁gazdaságpolitik	-13308
RI	-13309
zy	-13310
rét	-13311
ves	-13312
vág	-13313
▁Do	-13314
▁tó	-13315
atov	-13316
endi	-13317
enst	-13318
▁0,7	-13319
▁Art	-13320
▁Hay	-13321
▁Ren	-13322
▁Top	-13323
▁Vám	-13324
adett	-13325
asszt	-13326
iffer	-13327
obile	-13328
ozhat	-13329
▁Andy	-13330
▁Mass	-13331
▁bead	-13332
▁cenz	-13333
▁csaj	-13334
▁rezs	-13335
▁tipp	-13336
▁Újra	-13337
▁érti	-13338
ogatni	-13339
▁Grand	-13340
▁Ismét	-13341
▁akárm	-13342
▁soron	-13343
menedzs	-13344
ásokról	-13345
▁Kultúr	-13346
▁amiről	-13347
▁folyos	-13348
▁jelzál	-13349
▁láttak	-13350
▁műhely	-13351
▁napsüt	-13352
▁nézzük	-13353
▁tervet	-13354
▁tornán	-13355
▁tárlat	-13356
▁vittek	-13357
hessenek	-13358
▁Beckham	-13359
▁YouTube	-13360
▁belőlük	-13361
▁egyesek	-13362
▁ellátás	-13363
▁kereset	-13364
▁lejátsz	-13365
▁magáról	-13366
▁munkába	-13367
▁rejtett	-13368
▁vereked	-13369
miniszter	-13370
▁Egyiptom	-13371
▁egymásra	-13372
▁fegyelmi	-13373
▁fogadták	-13374
▁intellig	-13375
▁környező	-13376
▁listáját	-13377
▁látszott	-13378
▁munkavég	-13379
▁nacional	-13380
parancsnok	-13381
▁balesetek	-13382
▁felszabad	-13383
▁hozzászól	-13384
▁háttérben	-13385
▁menedzser	-13386
▁mérsékelt	-13387
▁vizsgálta	-13388
▁átlátható	-13389
▁Romániában	-13390
▁biztosítási	-13391
▁kidolgozott	-13392
▁meglepetést	-13393
▁dokumentumot	-13394
▁megkezdődött	-13395
▁szombathelyi	-13396
▁nyilatkozatot	-13397
98	-13398
Am	-13399
ON	-13400
ké	-13401
unt	-13402
▁96	-13403
▁NO	-13404
▁Si	-13405
egye	-13406
etik	-13407
iana	-13408
jébe	-13409
zeni	-13410
ákba	-13411
▁1,7	-13412
▁Cat	-13413
▁Kra	-13414
eihez	-13415
entől	-13416
erdam	-13417
erson	-13418
hamar	-13419
illér	-13420
közön	-13421
sport	-13422
áliai	-13423
ándul	-13424
ásnál	-13425
▁Felt	-13426
▁Lind	-13427
ingham	-13428
kérdés	-13429
mester	-13430
orvosi	-13431
▁Atlét	-13432
▁Rossz	-13433
▁eladó	-13434
▁fázis	-13435
▁félig	-13436
▁főhős	-13437
▁szánk	-13438
▁trükk	-13439
▁tudna	-13440
▁utazó	-13441
▁áttör	-13442
▁úgyis	-13443
ellenőr	-13444
▁Mónika	-13445
▁Szinte	-13446
▁adatot	-13447
▁amatőr	-13448
▁dicsér	-13449
▁doktor	-13450
▁felmel	-13451
▁határa	-13452
▁holoka	-13453
▁kivéve	-13454
▁megver	-13455
▁merész	-13456
▁titkár	-13457
▁táplál	-13458
▁Clinton	-13459
▁Nicolas	-13460
▁William	-13461
▁elsején	-13462
▁eszközt	-13463
▁kiszáll	-13464
▁kórházi	-13465
▁pénzből	-13466
▁vesszük	-13467
▁Argentín	-13468
▁indulhat	-13469
▁járművet	-13470
▁közöttük	-13471
▁lényeges	-13472
▁megkönny	-13473
▁Világkupa	-13474
▁forintról	-13475
▁hátralévő	-13476
▁látogatók	-13477
▁nyeremény	-13478
▁rendszere	-13479
▁veszteget	-13480
▁épületben	-13481
▁alkalmazni	-13482
▁költségeit	-13483
▁környezeti	-13484
▁nyugdíjkor	-13485
▁szerződése	-13486
▁válaszolva	-13487
▁felhatalmaz	-13488
▁kilencvenes	-13489
▁kompromissz	-13490
▁nyilatkozva	-13491
▁szeptemberi	-13492
▁tájékoztató	-13493
▁többségében	-13494
▁értesülései	-13495
▁nyolcaddöntő	-13496
▁számíthatunk	-13497
▁elszámoltatás	-13498
▁együttműködést	-13499
▁megállapították	-13500
IV	-13501
ail	-13502
czy	-13503
ele	-13504
lői	-13505
sai	-13506
suk	-13507
uld	-13508
áli	-13509
őny	-13510
▁Lj	-13511
▁MK	-13512
cikk	-13513
egel	-13514
ikás	-13515
ofil	-13516
ohan	-13517
rejt	-13518
éval	-13519
▁0,6	-13520
▁NHL	-13521
▁bak	-13522
▁buz	-13523
Vasas	-13524
cédul	-13525
field	-13526
házak	-13527
idejű	-13528
sanak	-13529
sztíz	-13530
öltek	-13531
▁Akik	-13532
▁Csík	-13533
▁Kosz	-13534
▁Szív	-13535
▁félt	-13536
▁kiür	-13537
Docler	-13538
estert	-13539
▁Annam	-13540
▁Europ	-13541
▁Fórum	-13542
▁fotóz	-13543
▁haiti	-13544
▁lépni	-13545
▁portf	-13546
▁vehet	-13547
▁véres	-13548
▁ízlés	-13549
arányos	-13550
atainak	-13551
botrány	-13552
ellátás	-13553
esíteni	-13554
literes	-13555
növeked	-13556
▁Szerző	-13557
▁blogon	-13558
▁bulvár	-13559
▁hagyni	-13560
▁korban	-13561
▁léptek	-13562
▁megnev	-13563
▁máshol	-13564
▁nehogy	-13565
▁nőknél	-13566
▁perben	-13567
▁spekul	-13568
▁évekig	-13569
értékelő	-13570
▁Antonio	-13571
▁Szovjet	-13572
▁fekszik	-13573
▁felvett	-13574
▁megrong	-13575
▁olaszok	-13576
technikai	-13577
▁automata	-13578
▁vezethet	-13579
▁vállalja	-13580
▁összegét	-13581
▁dollárért	-13582
▁egyharmad	-13583
▁feleségét	-13584
▁kancellár	-13585
▁megismert	-13586
▁országból	-13587
▁előzetesen	-13588
▁honvédelmi	-13589
▁kereskedés	-13590
▁kiegészítő	-13591
▁kormányzás	-13592
▁támogatják	-13593
▁veszélyben	-13594
▁gyanúsítják	-13595
▁időszakában	-13596
▁repülőtéren	-13597
▁tekintetben	-13598
▁Értéktőzsde	-13599
▁emelkedéssel	-13600
▁folytatódott	-13601
▁részvételével	-13602
▁teljesítményét	-13603
EFA	-13604
ade	-13605
▁FA	-13606
▁VI	-13607
▁éh	-13608
bach	-13609
enez	-13610
ondi	-13611
szív	-13612
tani	-13613
tábl	-13614
▁125	-13615
▁270	-13616
▁Sen	-13617
▁Zal	-13618
▁fúj	-13619
▁káp	-13620
▁méh	-13621
káros	-13622
mezőv	-13623
uzsál	-13624
zedék	-13625
▁Hait	-13626
▁Péld	-13627
▁Vált	-13628
▁adób	-13629
▁ebéd	-13630
▁eről	-13631
▁okos	-13632
▁tüdő	-13633
edelem	-13634
imenzi	-13635
nesota	-13636
orcium	-13637
vételt	-13638
▁10-15	-13639
▁Ennél	-13640
▁Erről	-13641
▁Gyors	-13642
▁Marad	-13643
▁címét	-13644
▁díjaz	-13645
▁isten	-13646
▁kitér	-13647
▁korán	-13648
▁képen	-13649
▁készt	-13650
▁megad	-13651
▁módja	-13652
▁névre	-13653
▁szitu	-13654
▁video	-13655
▁várta	-13656
vonalon	-13657
▁Puskás	-13658
▁előnyt	-13659
▁léphet	-13660
▁sztori	-13661
▁árulta	-13662
▁ügylet	-13663
egészség	-13664
▁Műszaki	-13665
▁Rangers	-13666
▁fejében	-13667
▁felbont	-13668
▁forrása	-13669
▁lakások	-13670
▁nagyban	-13671
▁olvasók	-13672
▁szerviz	-13673
▁tartály	-13674
aradicsom	-13675
▁elemzője	-13676
▁emberrel	-13677
▁festmény	-13678
▁kihirdet	-13679
▁kiszabad	-13680
▁millióra	-13681
▁sérültek	-13682
fogyasztás	-13683
▁Véleménye	-13684
▁főtitkára	-13685
▁jegybanki	-13686
▁kisebbség	-13687
▁publikált	-13688
▁régészeti	-13689
▁szereplés	-13690
▁valakinek	-13691
▁világrang	-13692
▁Biztonsági	-13693
▁Moszkvában	-13694
▁jellemezte	-13695
▁megítélése	-13696
▁tiltakozás	-13697
▁eszközökkel	-13698
▁főszerkeszt	-13699
▁jogosítvány	-13700
▁kommentálta	-13701
▁közlekedést	-13702
▁mutatkozott	-13703
▁nagyszabású	-13704
▁tárgyaláson	-13705
▁magabiztosan	-13706
▁negyedévében	-13707
▁katasztrófavéd	-13708
▁hírügynökségnek	-13709
27	-13710
EN	-13711
3),	-13712
bef	-13713
ile	-13714
ima	-13715
mes	-13716
ázd	-13717
▁6:	-13718
mérg	-13719
énak	-13720
ódva	-13721
úszt	-13722
▁3,9	-13723
▁Gas	-13724
▁Pas	-13725
▁Sir	-13726
▁ZTE	-13727
▁bur	-13728
▁mal	-13729
▁méz	-13730
▁nov	-13731
▁szk	-13732
Kaida	-13733
ekven	-13734
fürdő	-13735
hamis	-13736
irkóz	-13737
nyújt	-13738
ovács	-13739
uhant	-13740
vitel	-13741
égium	-13742
▁Erik	-13743
▁Feli	-13744
▁Kram	-13745
▁rózs	-13746
▁szün	-13747
adását	-13748
esszió	-13749
ásztor	-13750
átorok	-13751
▁Dezső	-13752
▁Fitch	-13753
▁Heged	-13754
▁Hotel	-13755
▁alapú	-13756
▁célok	-13757
▁farag	-13758
▁fokos	-13759
▁parti	-13760
▁tudná	-13761
szülött	-13762
▁Meglep	-13763
▁Motors	-13764
▁becsap	-13765
▁bicikl	-13766
▁költöz	-13767
▁mozgós	-13768
▁nőttek	-13769
▁átigaz	-13770
▁Gyermek	-13771
▁Nyugdíj	-13772
▁Yorkban	-13773
▁erősíti	-13774
▁helyért	-13775
▁hozzánk	-13776
▁köteles	-13777
▁másképp	-13778
▁szakkép	-13779
▁Április	-13780
asztronóm	-13781
mezővásár	-13782
▁Mindezek	-13783
▁Schiffer	-13784
▁hamarabb	-13785
▁indultak	-13786
▁jellemzi	-13787
▁klasszis	-13788
▁rendezni	-13789
▁veretlen	-13790
▁vesztett	-13791
▁vígjáték	-13792
▁épületek	-13793
▁Miskolcon	-13794
▁családtag	-13795
▁diadalmas	-13796
▁döntéshoz	-13797
▁együttese	-13798
▁felbukkan	-13799
▁hirdetett	-13800
▁magyarság	-13801
▁rendezték	-13802
▁stratégia	-13803
▁szigorúan	-13804
▁hollywoodi	-13805
▁mutatkozik	-13806
▁programját	-13807
▁romantikus	-13808
▁versenyzők	-13809
▁összegeket	-13810
▁elhelyezked	-13811
▁tulajdonság	-13812
▁törvényeket	-13813
▁biztosította	-13814
▁feltételeket	-13815
▁másodosztály	-13816
96	-13817
GY	-13818
Ny	-13819
VM	-13820
mo	-13821
íb	-13822
7),	-13823
ect	-13824
ege	-13825
fős	-13826
▁KC	-13827
▁Kő	-13828
▁om	-13829
"...	-13830
MDSZ	-13831
elős	-13832
hell	-13833
sztr	-13834
vald	-13835
volt	-13836
▁(18	-13837
▁Arm	-13838
▁Bef	-13839
▁Civ	-13840
▁Mod	-13841
▁kok	-13842
▁nőv	-13843
▁rez	-13844
▁áru	-13845
atása	-13846
eljék	-13847
előbb	-13848
eszik	-13849
hassa	-13850
ográf	-13851
organ	-13852
ormon	-13853
teszt	-13854
íciós	-13855
▁Olym	-13856
▁Schw	-13857
▁Show	-13858
▁mocs	-13859
▁okot	-13860
akarék	-13861
egedés	-13862
osvári	-13863
repülő	-13864
usszal	-13865
ásától	-13866
éseire	-13867
▁Valam	-13868
▁erejű	-13869
▁festő	-13870
▁lovag	-13871
▁művel	-13872
▁olyat	-13873
▁prost	-13874
▁pártt	-13875
▁ókori	-13876
▁útját	-13877
holland	-13878
legesen	-13879
▁félelm	-13880
▁gerinc	-13881
▁gonosz	-13882
▁kapják	-13883
▁megmut	-13884
▁oldalt	-13885
▁vívott	-13886
▁étterm	-13887
▁órában	-13888
források	-13889
ossággal	-13890
▁döntőbe	-13891
▁ezerrel	-13892
▁gyakori	-13893
▁hetilap	-13894
▁hónapon	-13895
▁kompenz	-13896
▁nyugodt	-13897
▁országa	-13898
▁parancs	-13899
▁prémium	-13900
▁remélem	-13901
▁témában	-13902
▁Panoráma	-13903
▁Pénzügyi	-13904
▁Valencia	-13905
▁bővebben	-13906
▁csapatát	-13907
▁gondolni	-13908
▁helyette	-13909
▁hibázott	-13910
▁javasolt	-13911
▁koalíció	-13912
▁közelébe	-13913
▁működése	-13914
▁rekordot	-13915
▁találnak	-13916
▁válaszol	-13917
▁Zsuzsanna	-13918
▁elterjedt	-13919
▁gondolták	-13920
▁győzelmét	-13921
▁hallgatók	-13922
▁kényelmes	-13923
▁sorozatot	-13924
▁szimpatiz	-13925
▁születésű	-13926
▁társasági	-13927
▁hátterében	-13928
▁keveredett	-13929
▁kérdésekre	-13930
▁pályázatok	-13931
▁visszaszor	-13932
▁válaszadók	-13933
▁alkalmatlan	-13934
▁használatát	-13935
▁kedvezőtlen	-13936
▁közlekednek	-13937
▁mesterséges	-13938
▁személyében	-13939
▁szilveszter	-13940
▁átalakítása	-13941
▁megtakarítás	-13942
▁költségvetésben	-13943
ÉT	-13944
űg	-13945
eva	-13946
ffy	-13947
irm	-13948
rix	-13949
uka	-13950
▁5,	-13951
▁DA	-13952
▁GM	-13953
dést	-13954
ende	-13955
esés	-13956
igen	-13957
köre	-13958
olót	-13959
vani	-13960
▁KSH	-13961
▁Sió	-13962
▁bút	-13963
egóri	-13964
ezres	-13965
inamo	-13966
jánál	-13967
kincs	-13968
menny	-13969
▁Fico	-13970
▁béke	-13971
▁csin	-13972
▁csók	-13973
▁szar	-13974
esítés	-13975
▁1994-	-13976
▁Elfog	-13977
▁Fodor	-13978
▁Kevin	-13979
▁Vajon	-13980
▁album	-13981
▁atlét	-13982
▁barom	-13983
▁harag	-13984
▁kivég	-13985
▁károk	-13986
▁piszt	-13987
▁Össze	-13988
anyagok	-13989
istákat	-13990
olhatja	-13991
▁Kemény	-13992
▁Kolont	-13993
▁bennük	-13994
▁buszok	-13995
▁bármit	-13996
▁büdzsé	-13997
▁ezekre	-13998
▁iparág	-13999
▁kezelt	-14000
▁lefelé	-14001
▁szorul	-14002
▁teheti	-14003
▁érhető	-14004
mentesen	-14005
▁Dmitrij	-14006
▁elegáns	-14007
▁játssza	-14008
▁magasan	-14009
▁mögötte	-14010
▁stagnál	-14011
▁végezte	-14012
▁építési	-14013
▁ütemben	-14014
▁Márpedig	-14015
▁jelentik	-14016
▁kiterjed	-14017
▁kiválóan	-14018
▁megélhet	-14019
▁oldalról	-14020
▁tudósító	-14021
▁tüntetők	-14022
▁vállalni	-14023
▁árhullám	-14024
felhasznál	-14025
▁Demokrata	-14026
▁elsejétől	-14027
▁fehérvári	-14028
▁karrierje	-14029
▁kattintva	-14030
▁másodszor	-14031
▁negyedévi	-14032
▁ombudsman	-14033
▁prognózis	-14034
▁rendeltek	-14035
▁születtek	-14036
▁édesanyja	-14037
▁befizetett	-14038
▁felkészült	-14039
▁hihetetlen	-14040
▁kecskeméti	-14041
▁kevesebben	-14042
▁módosítása	-14043
▁szavazatot	-14044
▁szorgalmaz	-14045
▁társaságok	-14046
▁alapszakasz	-14047
▁energetikai	-14048
▁eseményeket	-14049
▁forgalomban	-14050
▁hivatkozott	-14051
▁ismertetett	-14052
▁megpróbálta	-14053
▁megszerezni	-14054
▁pályafutása	-14055
▁rendőrségen	-14056
▁ellehetetlen	-14057
▁megrendezett	-14058
▁hitelminősítő	-14059
▁Afganisztánban	-14060
▁felfüggesztett	-14061
DK	-14062
FB	-14063
:6,	-14064
bet	-14065
kéz	-14066
műt	-14067
üzd	-14068
űlt	-14069
▁SC	-14070
0.),	-14071
egor	-14072
erej	-14073
izáj	-14074
ávay	-14075
észe	-14076
▁Any	-14077
▁Bol	-14078
▁Can	-14079
▁Hur	-14080
▁Ink	-14081
▁Jol	-14082
▁Len	-14083
▁Nev	-14084
▁Nok	-14085
▁Tap	-14086
▁ben	-14087
▁cit	-14088
▁gab	-14089
▁maj	-14090
▁tar	-14091
▁usz	-14092
lemez	-14093
áival	-14094
ékben	-14095
ódása	-14096
▁Déli	-14097
▁Harm	-14098
▁Húsz	-14099
▁Vinc	-14100
▁golf	-14101
▁rong	-14102
▁sima	-14103
▁árus	-14104
▁úszó	-14105
einket	-14106
gatott	-14107
okolád	-14108
állást	-14109
▁2015-	-14110
▁Azzal	-14111
▁Chris	-14112
▁Group	-14113
▁emeli	-14114
▁fárad	-14115
▁gyull	-14116
▁gyűlt	-14117
▁homok	-14118
▁hotel	-14119
▁kirúg	-14120
▁navig	-14121
▁popul	-14122
▁teráp	-14123
▁éghaj	-14124
alommal	-14125
minőség	-14126
▁Carlos	-14127
▁alakja	-14128
▁csavar	-14129
▁gyerty	-14130
▁irányt	-14131
▁kezeli	-14132
▁kérelm	-14133
▁oszlop	-14134
▁pénzek	-14135
▁pótlék	-14136
▁szürke	-14137
▁terhes	-14138
▁árnyal	-14139
▁Komárom	-14140
▁Művelőd	-14141
▁ellenük	-14142
▁félelem	-14143
▁kezdete	-14144
▁minősül	-14145
▁másként	-14146
▁szerelm	-14147
▁tegnapi	-14148
▁tréning	-14149
▁amelyről	-14150
▁honlapon	-14151
▁melyeket	-14152
értekezlet	-14153
▁Telegraph	-14154
▁diagnoszt	-14155
▁emelkedés	-14156
▁kormányra	-14157
▁látszólag	-14158
▁projektek	-14159
▁színpadon	-14160
▁Budapestre	-14161
▁bevezetett	-14162
▁csapattárs	-14163
▁elbeszélés	-14164
▁ingatlanok	-14165
▁pályaudvar	-14166
▁rendszerek	-14167
▁szólította	-14168
▁visszatérő	-14169
▁eljuttatott	-14170
▁ellenőrzést	-14171
▁tartózkodik	-14172
▁visszafizet	-14173
▁támogatottsága	-14174
▁kiskereskedelmi	-14175
▁letartóztatásba	-14176
65	-14177
Be	-14178
ED	-14179
IG	-14180
4),	-14181
ext	-14182
kiv	-14183
net	-14184
úri	-14185
▁87	-14186
▁Ri	-14187
cent	-14188
egen	-14189
inen	-14190
irst	-14191
otti	-14192
roid	-14193
verz	-14194
▁170	-14195
▁Lar	-14196
▁Laz	-14197
▁Pho	-14198
▁Sol	-14199
▁dkg	-14200
▁dús	-14201
▁kak	-14202
▁muz	-14203
▁reh	-14204
istát	-14205
roncs	-14206
umíni	-14207
áskor	-14208
▁Hill	-14209
▁Jord	-14210
▁Polg	-14211
▁bort	-14212
▁kiab	-14213
▁romb	-14214
ahitel	-14215
ivatag	-14216
orozat	-14217
szalon	-14218
szentm	-14219
szerek	-14220
őtábla	-14221
▁Ettől	-14222
▁Gener	-14223
▁Haiti	-14224
▁Hercz	-14225
▁Közös	-14226
▁Massa	-14227
▁Mégis	-14228
▁hetet	-14229
▁józan	-14230
▁menti	-14231
▁merev	-14232
▁missz	-14233
▁növel	-14234
▁viták	-14235
▁ülése	-14236
engeres	-14237
állapot	-14238
▁Hungar	-14239
▁Regény	-14240
▁aukció	-14241
▁bíznak	-14242
▁chilei	-14243
▁felold	-14244
▁győzni	-14245
▁honnan	-14246
▁kiigaz	-14247
▁tartoz	-14248
▁tizenk	-14249
▁zsidók	-14250
▁zárták	-14251
esítette	-14252
onprofit	-14253
▁balaton	-14254
▁eredetű	-14255
▁főorvos	-14256
▁járatok	-14257
▁közpénz	-14258
▁tömeges	-14259
▁átvette	-14260
▁érdekli	-14261
▁értékek	-14262
▁összegy	-14263
▁fizetnek	-14264
▁fogadják	-14265
▁munkanap	-14266
▁nyújtani	-14267
▁névtelen	-14268
▁platform	-14269
▁presztíz	-14270
▁producer	-14271
▁tavaszán	-14272
▁többfelé	-14273
ellenesség	-14274
▁Bernadett	-14275
▁Marseille	-14276
▁elvégzett	-14277
▁környéken	-14278
▁tudatosan	-14279
▁támogatni	-14280
▁érdeklődő	-14281
▁frankfurti	-14282
▁kampányban	-14283
▁karbantart	-14284
▁kinevezett	-14285
▁megnyilván	-14286
▁nyolcvanas	-14287
▁problémája	-14288
▁bejelentést	-14289
▁elvesztette	-14290
▁irányította	-14291
▁kialakítása	-14292
▁konferencia	-14293
▁menedzsment	-14294
▁hozzátartozó	-14295
▁Világgazdaság	-14296
▁kezdeményezett	-14297
SI	-14298
fű	-14299
des	-14300
egő	-14301
lie	-14302
olú	-14303
rey	-14304
zuk	-14305
▁NF	-14306
eszk	-14307
ugró	-14308
vágy	-14309
zmus	-14310
ácia	-14311
ázik	-14312
ózus	-14313
▁1,8	-14314
▁2,3	-14315
▁Cél	-14316
▁lej	-14317
▁póz	-14318
encei	-14319
ggyel	-14320
jaink	-14321
odása	-14322
ongor	-14323
szenz	-14324
vizsg	-14325
váltó	-14326
őhely	-14327
▁Gyul	-14328
▁Lady	-14329
▁Lass	-14330
▁band	-14331
▁fajt	-14332
▁fejt	-14333
▁full	-14334
▁kart	-14335
▁kecs	-14336
▁kávé	-14337
▁lább	-14338
ességi	-14339
fertőz	-14340
méretű	-14341
órészt	-14342
▁Motor	-14343
▁Média	-14344
▁Saint	-14345
▁adódó	-14346
▁fotós	-14347
▁keszt	-14348
▁lakói	-14349
▁pánik	-14350
▁tetem	-14351
▁volum	-14352
▁ügyét	-14353
eléssel	-14354
eszteni	-14355
▁Katona	-14356
▁Miller	-14357
▁adóbev	-14358
▁bosszú	-14359
▁burkol	-14360
▁estére	-14361
▁fáradt	-14362
▁hatású	-14363
▁orvost	-14364
▁vacsor	-14365
▁viselt	-14366
▁összer	-14367
betegség	-14368
isztikus	-14369
ítéseket	-14370
▁Amerika	-14371
▁Rákóczi	-14372
▁akarjuk	-14373
▁amennyi	-14374
▁elpuszt	-14375
▁hetente	-14376
▁hosszas	-14377
▁magától	-14378
▁méteren	-14379
▁műemlék	-14380
▁okostel	-14381
▁tagjait	-14382
▁tudtunk	-14383
▁írásban	-14384
▁önmagát	-14385
▁Budaházy	-14386
▁bajnokin	-14387
▁bűnösnek	-14388
▁dolgozói	-14389
▁folyadék	-14390
▁használó	-14391
▁hazugság	-14392
▁illusztr	-14393
▁incidens	-14394
▁irányadó	-14395
▁könyvtár	-14396
▁lehetünk	-14397
▁rendezés	-14398
▁tényezők	-14399
▁védelmet	-14400
▁érdemben	-14401
▁Debreceni	-14402
▁bejegyzés	-14403
▁kaposvári	-14404
▁legfiatal	-14405
▁működtető	-14406
▁Elsősorban	-14407
▁csodálatos	-14408
▁használtak	-14409
▁közterület	-14410
▁megmondani	-14411
▁termékeket	-14412
▁alkalmazása	-14413
▁játéknapján	-14414
▁tulajdonban	-14415
▁Vagyonkezelő	-14416
▁foglalkoznak	-14417
▁hangsúlyozza	-14418
▁későbbiekben	-14419
▁novemberében	-14420
▁országszerte	-14421
▁tevékenysége	-14422
▁csapatkapitány	-14423
▁államháztartás	-14424
▁figyelmeztetett	-14425
IMF	-14426
erh	-14427
ife	-14428
iók	-14429
zem	-14430
ágr	-14431
ájk	-14432
úró	-14433
▁Iv	-14434
▁Őr	-14435
angy	-14436
bont	-14437
bord	-14438
ezár	-14439
jaik	-14440
sius	-14441
teti	-14442
ulin	-14443
ázók	-14444
örzs	-14445
▁Bas	-14446
▁Est	-14447
▁Hum	-14448
▁Wat	-14449
▁etn	-14450
▁spr	-14451
SZDSZ	-14452
ambol	-14453
kerek	-14454
levél	-14455
tatót	-14456
▁15-1	-14457
▁2003	-14458
▁Bush	-14459
▁Dieg	-14460
▁Tech	-14461
▁köre	-14462
▁lába	-14463
▁zsin	-14464
akciók	-14465
berend	-14466
hellip	-14467
hátvéd	-14468
lására	-14469
mozgás	-14470
mérnök	-14471
ánként	-14472
▁Miami	-14473
▁Olvas	-14474
▁fogly	-14475
▁hajtó	-14476
▁járni	-14477
▁miről	-14478
▁másol	-14479
▁nevén	-14480
▁rangú	-14481
▁roncs	-14482
▁szekt	-14483
▁szimb	-14484
asztani	-14485
beruház	-14486
ezették	-14487
ovszkij	-14488
umínium	-14489
▁elfogy	-14490
▁homlok	-14491
▁jegyet	-14492
▁korona	-14493
▁megtor	-14494
▁nevezi	-14495
▁semmis	-14496
▁szállt	-14497
▁tetten	-14498
▁várjuk	-14499
▁érzelm	-14500
alkovics	-14501
álatokat	-14502
▁Erdélyi	-14503
▁Remélem	-14504
▁Ugyanis	-14505
▁Vatikán	-14506
▁hangzik	-14507
▁építkez	-14508
▁örömmel	-14509
▁Egyrészt	-14510
▁Mészáros	-14511
▁Olimpiai	-14512
▁amelyhez	-14513
▁bizalmat	-14514
▁elnöknek	-14515
▁góljával	-14516
▁kívánnak	-14517
▁munkagép	-14518
▁márpedig	-14519
▁szeretik	-14520
▁végeznek	-14521
főkapitány	-14522
hatatlanul	-14523
▁Közgyűlés	-14524
▁félmillió	-14525
▁megmozdul	-14526
▁reményked	-14527
▁tárgyalni	-14528
▁amelyeknek	-14529
▁bizottsága	-14530
▁megismétel	-14531
▁biztosítása	-14532
▁feljelentés	-14533
▁futballista	-14534
▁kaliforniai	-14535
▁különbséget	-14536
▁nyilatkozni	-14537
▁átmenetileg	-14538
▁északnyugati	-14539
▁Magyarországi	-14540
500	-14541
age	-14542
föl	-14543
hib	-14544
jax	-14545
odi	-14546
▁AV	-14547
▁pi	-14548
allg	-14549
bour	-14550
erél	-14551
ivér	-14552
űlés	-14553
▁60-	-14554
▁750	-14555
▁Mah	-14556
▁Mus	-14557
▁Mór	-14558
▁Nas	-14559
▁Pir	-14560
▁Tag	-14561
lovas	-14562
nnyel	-14563
árium	-14564
öknek	-14565
▁Emil	-14566
▁Kisz	-14567
▁Ston	-14568
▁arch	-14569
▁oxig	-14570
▁vert	-14571
▁Ítél	-14572
filmek	-14573
indhov	-14574
maradt	-14575
nagyon	-14576
udvari	-14577
▁1996-	-14578
▁2006.	-14579
▁Erdei	-14580
▁Megsz	-14581
▁elrab	-14582
▁ezret	-14583
▁liszt	-14584
▁lopás	-14585
▁mehet	-14586
▁mulat	-14587
▁ragad	-14588
▁rassz	-14589
baleset	-14590
enkénti	-14591
▁Szávay	-14592
▁Toront	-14593
▁befagy	-14594
▁cikket	-14595
▁felhős	-14596
▁haladó	-14597
▁honvéd	-14598
▁igényt	-14599
▁peking	-14600
▁rendet	-14601
▁verték	-14602
▁állunk	-14603
szerencs	-14604
▁Celsius	-14605
▁Magazin	-14606
▁Phoenix	-14607
▁bérleti	-14608
▁cikkben	-14609
▁jegyzés	-14610
▁kijelző	-14611
▁megtilt	-14612
▁okoztak	-14613
▁sorolta	-14614
▁veterán	-14615
▁államot	-14616
▁Japánban	-14617
▁Legutóbb	-14618
▁Másrészt	-14619
▁Standard	-14620
▁alakítja	-14621
▁foglalja	-14622
▁indulnak	-14623
▁követelt	-14624
▁közérdek	-14625
▁magasság	-14626
▁megnehez	-14627
▁válságot	-14628
▁alighanem	-14629
▁gólpasszt	-14630
▁júliusban	-14631
▁kikapcsol	-14632
▁májusában	-14633
▁pedagógus	-14634
▁spanyolok	-14635
▁székhelyű	-14636
▁terveznek	-14637
▁támaszkod	-14638
▁válogatás	-14639
▁összekötő	-14640
▁bevásárlók	-14641
▁meghallgat	-14642
▁menedzsere	-14643
▁negyedéves	-14644
kereskedelem	-14645
▁hozzájárult	-14646
▁különbségek	-14647
▁szolgálatot	-14648
▁székesfehér	-14649
▁tanácsadója	-14650
▁februárjában	-14651
▁mennyiségben	-14652
▁tartózkodott	-14653
▁elengedhetetlen	-14654
ÉV	-14655
czi	-14656
idd	-14657
lim	-14658
szi	-14659
tíz	-14660
uly	-14661
váz	-14662
▁Ke	-14663
▁bl	-14664
▁ij	-14665
▁Út	-14666
emre	-14667
erin	-14668
etés	-14669
isen	-14670
itől	-14671
krim	-14672
show	-14673
ttör	-14674
ónál	-14675
őkre	-14676
őkés	-14677
▁6,5	-14678
Szabó	-14679
andós	-14680
asági	-14681
esben	-14682
eszék	-14683
iknak	-14684
issan	-14685
ormal	-14686
péter	-14687
ékkel	-14688
ítené	-14689
▁Euro	-14690
▁Figy	-14691
▁Finn	-14692
▁Hajn	-14693
▁Ifjú	-14694
▁Tart	-14695
▁elár	-14696
▁esőz	-14697
▁feje	-14698
▁órák	-14699
együtt	-14700
eltség	-14701
ileaks	-14702
ossága	-14703
▁Aston	-14704
▁Lewis	-14705
▁dupla	-14706
▁pláne	-14707
▁szmog	-14708
▁terem	-14709
almakat	-14710
ológiát	-14711
ációval	-14712
élytárs	-14713
▁Steven	-14714
▁cikkek	-14715
▁egyből	-14716
▁hangja	-14717
▁hatalm	-14718
▁koreai	-14719
▁köztud	-14720
▁magánt	-14721
▁meséli	-14722
▁muszáj	-14723
▁példát	-14724
▁semmik	-14725
▁tréner	-14726
▁vezény	-14727
▁végzik	-14728
▁érezni	-14729
▁érvelt	-14730
eszüntet	-14731
▁Császár	-14732
▁Levente	-14733
▁faluban	-14734
▁könyvel	-14735
▁állítás	-14736
▁adottság	-14737
▁beszédet	-14738
▁elfogató	-14739
▁elárulta	-14740
▁előadást	-14741
▁eseményt	-14742
▁hátrányt	-14743
▁iskolába	-14744
▁játszhat	-14745
▁károsult	-14746
▁közszfér	-14747
▁meghibás	-14748
▁márciusi	-14749
▁pozíciót	-14750
▁szenvedő	-14751
▁táplálék	-14752
▁bevételek	-14753
▁csodálkoz	-14754
▁ellenőrző	-14755
▁emlékszik	-14756
▁hiányzott	-14757
▁javaslata	-14758
▁kaphatnak	-14759
▁maximális	-14760
▁mérséklőd	-14761
▁veszített	-14762
▁csökkentek	-14763
▁egyeztetés	-14764
▁folytatják	-14765
▁kattintson	-14766
▁meggyilkol	-14767
▁szolgáltat	-14768
▁fejlesztése	-14769
▁fogyasztása	-14770
▁januárjában	-14771
▁kénytelenek	-14772
▁számítottak	-14773
▁ténylegesen	-14774
▁ügyvezetője	-14775
▁elszenvedett	-14776
▁legfiatalabb	-14777
▁meglepetésre	-14778
▁országgyűlés	-14779
▁tisztességes	-14780
▁élelmiszerek	-14781
▁megállapítani	-14782
▁bizonytalanság	-14783
▁székesfehérvári	-14784
Ch	-14785
Hf	-14786
oo	-14787
auz	-14788
bes	-14789
igh	-14790
▁81	-14791
▁Fe	-14792
▁Ku	-14793
ativ	-14794
ezem	-14795
falt	-14796
lant	-14797
orog	-14798
áink	-14799
ődés	-14800
▁3-0	-14801
▁Mam	-14802
▁Rat	-14803
▁búj	-14804
adási	-14805
amely	-14806
eddel	-14807
edtek	-14808
súlyú	-14809
átort	-14810
▁Edit	-14811
▁FTSE	-14812
▁Kenn	-14813
▁Mire	-14814
▁Oper	-14815
▁Orle	-14816
▁Vlad	-14817
▁betű	-14818
▁fert	-14819
▁izom	-14820
▁kisb	-14821
▁link	-14822
▁sakk	-14823
▁szez	-14824
▁újév	-14825
ecseri	-14826
indexe	-14827
tatlan	-14828
vadász	-14829
árgyal	-14830
ítanák	-14831
▁1992-	-14832
▁Anita	-14833
▁Lotus	-14834
▁ajkai	-14835
▁bajba	-14836
▁harci	-14837
▁hibák	-14838
▁hétre	-14839
▁kikép	-14840
▁zuhan	-14841
▁írtam	-14842
fogytig	-14843
ésekről	-14844
ítsanak	-14845
▁Afrika	-14846
▁Avatar	-14847
▁Csányi	-14848
▁Suzuki	-14849
▁aláírt	-14850
▁bélyeg	-14851
▁előadó	-14852
▁előtér	-14853
▁előírt	-14854
▁hárman	-14855
▁megfék	-14856
▁megtag	-14857
▁ritmus	-14858
▁szakad	-14859
▁szélén	-14860
ezettség	-14861
sebesség	-14862
▁emelték	-14863
▁felfelé	-14864
▁főiskol	-14865
▁papírok	-14866
▁szilárd	-14867
dunántúli	-14868
esítették	-14869
rendszert	-14870
▁bizalmas	-14871
▁brutális	-14872
▁előirány	-14873
▁félreért	-14874
▁kutatója	-14875
▁munkaadó	-14876
▁nemzedék	-14877
▁tetszett	-14878
▁őszintén	-14879
▁Jégkorong	-14880
▁előkerült	-14881
▁feltétele	-14882
▁fordítani	-14883
▁forintból	-14884
▁hatállyal	-14885
[...]
