<unk>	0
<s>	0
</s>	0
▁a	-3.14136
,	-3.74943
i	-3.75404
t	-3.80318
▁,	-4.02457
.	-4.18576
▁az	-4.29812
▁	-4.3306
▁.	-4.62459
▁A	-4.63892
k	-4.72964
e	-4.76658
▁és	-4.78824
▁-	-4.82227
s	-4.94967
▁hogy	-5.06732
en	-5.08017
a	-5.0886
▁is	-5.17608
-	-5.24926
ek	-5.32256
g	-5.33212
ok	-5.34003
▁meg	-5.35157
▁nem	-5.35741
ó	-5.4194
et	-5.43172
▁egy	-5.48841
es	-5.57454
n	-5.60775
ni	-5.61181
d	-5.65228
ban	-5.66228
m	-5.67609
ő	-5.71795
on	-5.73013
an	-5.73788
▁el	-5.74384
ben	-5.75592
▁ki	-5.76697
os	-5.79656
▁t	-5.79939
ra	-5.80579
▁"	-5.84075
ás	-5.86448
▁Az	-5.88889
nek	-5.90189
z	-5.92238
l	-5.92824
ja	-5.93444
▁(	-5.93687
re	-5.94673
▁k	-6.00595
nak	-6.02624
ik	-6.08057
y	-6.08872
:	-6.09848
▁be	-6.11089
▁fel	-6.17591
ot	-6.19472
▁szerint	-6.2053
ul	-6.2135
án	-6.25301
h	-6.27561
ott	-6.28031
és	-6.28537
▁de	-6.28828
p	-6.29164
b	-6.32519
sz	-6.328
▁s	-6.33498
▁volt	-6.35386
at	-6.35649
át	-6.35816
ak	-6.35939
r	-6.37511
er	-6.39174
ét	-6.41489
▁már	-6.43489
▁le	-6.45623
ta	-6.47871
)	-6.49242
ű	-6.49315
f	-6.49743
▁S	-6.5007
ú	-6.51448
el	-6.51922
▁:	-6.54727
o	-6.5541
ett	-6.55878
▁ez	-6.61234
▁csak	-6.61887
ol	-6.63194
c	-6.63497
▁ha	-6.64653
▁mint	-6.64776
▁még	-6.66643
▁i	-6.68484
ai	-6.69682
cs	-6.70252
▁át	-6.71202
ság	-6.74385
▁K	-6.74957
▁nak	-6.75315
om	-6.75459
v	-6.77984
▁F	-6.78382
é	-6.79511
ék	-6.79812
▁sz	-6.8017
ség	-6.80392
te	-6.80505
ba	-6.80889
j	-6.81938
ál	-6.81999
u	-6.82194
▁P	-6.82257
▁két	-6.83284
▁T	-6.83718
▁van	-6.85406
á	-6.85724
▁mi	-6.85774
▁több	-6.87471
én	-6.88028
▁kell	-6.88434
va	-6.88825
ár	-6.89251
em	-6.90454
▁M	-6.90732
▁m	-6.91127
▁magyar	-6.91133
▁azt	-6.91228
▁sem	-6.91264
▁amely	-6.91326
in	-6.93605
ve	-6.93937
▁B	-6.94028
▁vagy	-6.94138
al	-6.94368
ig	-6.94422
▁e	-6.94603
▁ra	-6.94771
ják	-6.97096
▁p	-6.97798
is	-6.97978
ed	-6.9964
▁pedi	-7.0035
as	-7.00649
▁C	-7.01487
1	-7.02103
ar	-7.03005
ták	-7.03069
ül	-7.03293
▁aki	-7.03639
▁nek	-7.03911
▁után	-7.04229
▁nagy	-7.05169
▁re	-7.05792
or	-7.05975
▁első	-7.06904
eket	-7.08364
▁G	-7.10884
▁f	-7.10924
tak	-7.11102
ért	-7.12432
0	-7.12445
▁majd	-7.12715
▁V	-7.12756
▁E	-7.12992
▁Sz	-7.13085
3	-7.13226
5	-7.14108
unk	-7.14509
ri	-7.14526
▁b	-7.15182
je	-7.1544
ában	-7.15821
gy	-7.16273
▁lehet	-7.16313
us	-7.17303
▁új	-7.18573
2	-7.1865
vel	-7.19162
▁ok	-7.19175
▁leg	-7.20318
▁miatt	-7.20689
ad	-7.21172
▁minden	-7.21519
▁ellen	-7.21623
uk	-7.23068
okat	-7.23092
be	-7.24374
4	-7.24409
ez	-7.24533
▁ami	-7.26607
ák	-7.27192
ében	-7.27804
▁lesz	-7.28816
ny	-7.29064
▁így	-7.29649
▁mondta	-7.29743
▁h	-7.30524
▁év	-7.30662
ur	-7.31274
▁H	-7.31421
▁mert	-7.31872
▁ban	-7.32578
▁Ha	-7.33316
hat	-7.33442
▁olyan	-7.33589
▁akkor	-7.35139
▁úgy	-7.35472
8	-7.36031
▁Ez	-7.36152
ünk	-7.36237
ér	-7.3634
ték	-7.36834
▁hoz	-7.3708
bb	-7.37185
ük	-7.37884
val	-7.37911
▁g	-7.38065
▁jó	-7.3869
▁között	-7.3979
zonban	-7.42588
het	-7.42756
7	-7.43455
▁fog	-7.43688
la	-7.44202
▁egyik	-7.44204
▁?	-7.4521
na	-7.45702
▁ember	-7.4576
ként	-7.45894
6	-7.46056
A	-7.4724
ch	-7.47315
tek	-7.47415
▁I	-7.47784
▁N	-7.48303
▁kormány	-7.4846
egy	-7.48741
él	-7.49786
▁ról	-7.51795
ít	-7.52089
▁rá	-7.522
am	-7.52581
▁)	-7.53105
▁más	-7.54403
▁forint	-7.54481
▁millió	-7.54533
▁elő	-7.56224
9	-7.56791
▁világ	-7.57419
▁vissza	-7.57456
▁össze	-7.57581
▁d	-7.5764
▁nap	-7.57851
▁6	-7.58008
mikor	-7.58404
le	-7.5847
▁ért	-7.588
leg	-7.60049
▁en	-7.60189
▁három	-7.60571
▁W	-7.61548
li	-7.61754
▁ek	-7.61939
▁5	-7.62192
▁n	-7.63024
"	-7.63572
▁arra	-7.63851
▁D	-7.64008
da	-7.64409
ök	-7.64514
kor	-7.64818
▁előtt	-7.64864
▁szám	-7.65274
▁l	-7.65279
ről	-7.66196
▁idő	-7.66257
▁köz	-7.6667
▁sok	-7.67197
eg	-7.67488
S	-7.68115
▁most	-7.68131
▁csapat	-7.68141
▁Egy	-7.6847
▁éves	-7.68732
▁áll	-7.6949
▁cs	-7.69499
ének	-7.69621
▁hat	-7.69632
▁autó	-7.69897
▁fő	-7.7039
ör	-7.70408
ü	-7.70534
tal	-7.7106
x	-7.71203
▁ugyan	-7.7143
▁L	-7.71576
ának	-7.71941
▁való	-7.7216
kat	-7.72567
▁8	-7.72804
▁mind	-7.73458
ése	-7.73852
▁cím	-7.74411
▁19	-7.7465
I	-7.74966
▁volna	-7.76097
ész	-7.76269
▁Nem	-7.76574
▁élet	-7.76674
nd	-7.76767
ro	-7.76932
▁kor	-7.76983
▁Mi	-7.76997
ap	-7.77145
oz	-7.77195
▁ben	-7.77332
ére	-7.77619
ját	-7.77786
ből	-7.77816
ö	-7.7816
▁ezer	-7.78394
▁jog	-7.78476
▁milliárd	-7.78608
▁alatt	-7.78669
zel	-7.78783
ci	-7.78988
▁mellett	-7.79365
ha	-7.79439
um	-7.79592
▁illetve	-7.79826
▁tud	-7.79998
▁z	-7.80295
ható	-7.80408
ból	-7.80496
hol	-7.80502
▁ma	-7.81217
og	-7.82106
▁ból	-7.8223
ma	-7.82287
▁ként	-7.82464
mi	-7.82521
ítás	-7.82798
áz	-7.83366
B	-7.83481
▁kis	-7.835
ka	-7.83596
▁lát	-7.83915
▁jár	-7.83946
elt	-7.84033
▁R	-7.84175
ebb	-7.84426
M	-7.84553
▁ezt	-7.84677
il	-7.84744
▁által	-7.85553
▁ország	-7.85618
hető	-7.8579
ött	-7.86526
od	-7.86604
▁hozzá	-7.86646
juk	-7.86759
▁et	-7.8689
▁akik	-7.87053
▁7	-7.87384
ne	-7.87395
▁adó	-7.87422
▁alap	-7.87647
▁vár	-7.87913
▁ba	-7.88044
▁20	-7.88778
▁O	-7.89231
▁10	-7.89427
ing	-7.8972
E	-7.89924
▁párt	-7.90007
nyi	-7.90183
ása	-7.90187
▁9	-7.90558
ról	-7.90576
▁ne	-7.90706
▁él	-7.91322
P	-7.91693
ális	-7.91872
▁vég	-7.92107
▁tól	-7.92954
▁cég	-7.932
▁rendszer	-7.93219
▁fél	-7.94046
▁nál	-7.94361
ön	-7.94409
szer	-7.94716
▁teljes	-7.94746
▁v	-7.95149
▁törvény	-7.95404
▁lett	-7.95656
▁amerikai	-7.95703
za	-7.95848
▁négy	-7.96248
▁Magyar	-7.96965
hez	-7.97225
int	-7.97994
▁tovább	-7.98246
▁nagyon	-7.98395
▁túl	-7.98712
▁De	-7.99221
▁Ma	-7.99636
ével	-7.99657
▁példá	-7.99973
▁ő	-8.00002
K	-8.00334
▁férfi	-8.00486
▁hisz	-8.00547
▁hely	-8.00653
T	-8.0112
▁százalék	-8.01908
ló	-8.01916
hanem	-8.02192
▁J	-8.02633
ir	-8.02663
í	-8.03637
di	-8.03666
▁től	-8.03667
▁kérdés	-8.03689
aj	-8.03852
▁!	-8.03912
▁Z	-8.03968
C	-8.04194
▁on	-8.04549
▁),	-8.04626
▁ja	-8.04698
tár	-8.04836
né	-8.04868
▁közölte	-8.04892
▁ről	-8.04953
nál	-8.05941
hoz	-8.05982
▁c	-8.06076
▁ér	-8.06251
ös	-8.06504
ette	-8.06624
▁város	-8.06698
▁film	-8.07078
ával	-8.07412
▁0	-8.07448
ára	-8.07519
▁szó	-8.07673
▁Fidesz	-8.07743
ény	-8.0794
vi	-8.07983
▁ház	-8.08416
öl	-8.08418
▁j	-8.08457
zés	-8.09005
▁azért	-8.0915
olt	-8.09461
▁kap	-8.1023
▁nincs	-8.10247
w	-8.10494
▁kép	-8.10645
ző	-8.10779
op	-8.10823
▁második	-8.10885
adó	-8.10899
▁viszont	-8.11176
▁3	-8.1118
▁ilyen	-8.11374
▁pont	-8.11903
▁öt	-8.11941
▁akar	-8.12237
▁nélkül	-8.12572
▁euró	-8.12645
▁4	-8.12794
szt	-8.13107
zet	-8.13376
▁annak	-8.13682
▁Cs	-8.13717
ut	-8.13866
nél	-8.14446
▁helyzet	-8.14554
től	-8.15156
V	-8.1533
N	-8.15334
se	-8.15691
▁lap	-8.15722
▁hónap	-8.15924
▁MNO	-8.15987
▁ára	-8.16536
▁12	-8.16589
vé	-8.16834
▁közel	-8.17183
esz	-8.17306
▁elnök	-8.17362
▁pénz	-8.17561
▁ott	-8.18085
rá	-8.1829
ck	-8.18379
▁saját	-8.18448
▁százalékkal	-8.18664
▁csoport	-8.19044
▁nő	-8.19084
▁út	-8.19375
ssz	-8.19454
▁ét	-8.19492
áció	-8.19499
otta	-8.19506
▁arról	-8.19729
▁2	-8.19794
▁program	-8.19857
▁ár	-8.20078
elő	-8.20417
▁kör	-8.2051
▁ből	-8.20596
▁tart	-8.2066
▁ment	-8.20879
▁család	-8.20892
▁igaz	-8.20929
vá	-8.20936
▁gy	-8.21152
▁vezető	-8.21258
▁verseny	-8.21258
▁valamin	-8.21319
un	-8.21437
ált	-8.21439
▁itt	-8.21511
ov	-8.21531
▁1	-8.21731
▁r	-8.21751
▁18	-8.21821
let	-8.22001
ír	-8.22676
▁ügy	-8.22849
▁".	-8.23225
▁óta	-8.23434
▁cél	-8.23517
▁kerül	-8.24194
▁marad	-8.24312
▁érték	-8.24413
▁állam	-8.24458
D	-8.24496
▁került	-8.24522
ic	-8.24635
▁kér	-8.24829
▁fej	-8.24833
oly	-8.24838
ám	-8.24903
F	-8.24992
▁alapján	-8.2562
ani	-8.25778
▁amelyek	-8.2596
után	-8.26176
▁hét	-8.26309
▁ának	-8.26435
jában	-8.2647
ány	-8.26831
ill	-8.26839
▁Ro	-8.27023
▁korábban	-8.27038
ített	-8.27251
▁rendőrség	-8.2773
▁számára	-8.28021
▁másik	-8.28114
▁szervezet	-8.28328
ított	-8.28346
▁képviselő	-8.28352
tor	-8.28443
▁tette	-8.28444
usz	-8.28624
▁használ	-8.28719
▁könyv	-8.28836
▁talál	-8.28838
tól	-8.28949
kel	-8.28968
▁Magyarország	-8.29017
▁rész	-8.29166
▁El	-8.29247
zi	-8.29683
me	-8.30017
▁hez	-8.30099
▁keres	-8.3039
ítés	-8.31134
▁amit	-8.3117
▁Le	-8.31459
mény	-8.31817
▁ot	-8.31939
▁jel	-8.32186
▁jól	-8.32356
abb	-8.32372
00	-8.3255
▁szer	-8.32713
▁U	-8.32795
▁százalékos	-8.32896
▁Meg	-8.32973
▁ezek	-8.33069
▁munká	-8.33306
▁pár	-8.33439
▁200	-8.33444
▁piac	-8.33528
▁Európa	-8.33599
▁közül	-8.33852
lag	-8.34029
/	-8.34274
▁akár	-8.34343
▁ön	-8.34745
elmúlt	-8.348
fi	-8.34953
▁játék	-8.35287
ró	-8.35292
ná	-8.35659
ver	-8.35668
▁;	-8.35784
▁vesz	-8.358
▁szak	-8.36025
▁dollár	-8.36162
▁választ	-8.3632
▁lenne	-8.36394
▁én	-8.36487
O	-8.36663
zó	-8.3672
▁körül	-8.3682
▁jelent	-8.37105
lő	-8.3718
▁munka	-8.37382
▁ének	-8.37415
jük	-8.37627
▁idén	-8.37688
ező	-8.37931
R	-8.38034
ug	-8.38211
▁16	-8.38358
telen	-8.38561
▁gól	-8.38621
ly	-8.38962
zás	-8.39099
▁január	-8.39462
▁egész	-8.40118
▁okat	-8.40201
hu	-8.40268
▁15	-8.40395
▁legjobb	-8.40459
osz	-8.40495
▁legnagyobb	-8.40507
▁választás	-8.40523
lat	-8.40693
▁néhány	-8.40842
▁néz	-8.40846
▁órá	-8.40847
▁Nagy	-8.41198
▁víz	-8.41231
ikus	-8.41451
▁korábbi	-8.41853
▁német	-8.41973
▁25	-8.42005
sza	-8.42055
nap	-8.4218
▁december	-8.4263
▁történt	-8.4275
ony	-8.42761
▁sor	-8.42812
▁tér	-8.42855
▁La	-8.43046
▁során	-8.43215
H	-8.43343
▁Ki	-8.43407
ell	-8.43503
▁személy	-8.43562
de	-8.43715
▁bank	-8.43917
lo	-8.43947
hely	-8.43987
▁tíz	-8.4421
▁jelentős	-8.44322
▁eddig	-8.44399
esen	-8.44477
▁döntés	-8.44776
▁szemben	-8.44792
ján	-8.45228
lás	-8.45236
ász	-8.45248
▁ás	-8.45317
ozó	-8.45321
▁szól	-8.45454
▁11	-8.45458
▁Al	-8.45485
▁é	-8.45758
▁kezd	-8.45958
kal	-8.45986
▁nagyobb	-8.46054
kép	-8.46313
zik	-8.46345
ezért	-8.46446
▁hiány	-8.46577
▁azzal	-8.46988
▁hasonló	-8.47118
az	-8.47479
vár	-8.47481
▁fontos	-8.4755
csak	-8.47596
▁szabad	-8.48019
sége	-8.48073
▁...	-8.48078
öv	-8.48203
▁ugyani	-8.48278
▁gondol	-8.4829
▁éve	-8.4853
▁elmondta	-8.48716
▁egyéb	-8.48716
▁17	-8.49
▁gazdasági	-8.49078
ág	-8.50106
▁tavaly	-8.50115
ós	-8.50326
▁perc	-8.50392
▁in	-8.50607
▁het	-8.509
▁tör	-8.5104
▁valami	-8.5118
▁hang	-8.51199
ív	-8.51233
▁Re	-8.5132
ozás	-8.51372
ven	-8.51491
ink	-8.51521
▁13	-8.51556
▁tett	-8.5161
▁szerződés	-8.51716
tam	-8.51962
▁adott	-8.52178
▁szem	-8.52242
mp	-8.52256
▁ség	-8.52355
▁ó	-8.52432
▁csökkent	-8.5244
▁együtt	-8.52454
▁mí	-8.5263
▁folytat	-8.52666
▁14	-8.52832
▁emberek	-8.52833
▁támogatás	-8.52852
gal	-8.52863
atlan	-8.52866
▁László	-8.52893
▁vannak	-8.52893
rend	-8.53023
▁ám	-8.53557
▁határ	-8.53608
▁parlament	-8.53816
▁semmi	-8.53823
ép	-8.53871
tel	-8.53899
▁jobb	-8.54471
L	-8.54958
▁rend	-8.54977
▁ro	-8.54991
▁költségvetés	-8.55023
▁ság	-8.55169
ce	-8.55267
pa	-8.55278
▁utolsó	-8.55688
▁elnöke	-8.55716
▁ával	-8.55948
▁később	-8.56131
▁unk	-8.56132
▁vasárnap	-8.56133
son	-8.56138
▁újra	-8.56217
▁hír	-8.56287
mel	-8.56295
ud	-8.56326
▁tiszt	-8.56356
ély	-8.56532
▁bár	-8.56688
ekkel	-8.56694
▁terület	-8.56804
inkább	-8.56842
▁kapott	-8.56884
SZ	-8.56901
▁indul	-8.57223
▁ill	-8.57231
▁szükség	-8.57293
▁meccs	-8.57369
▁Er	-8.5739
▁hitel	-8.57407
▁őket	-8.57427
iszt	-8.5762
▁történet	-8.57623
ron	-8.57643
nk	-8.57973
▁nél	-8.57982
▁vizsgálat	-8.58023
▁hazai	-8.58089
▁játékos	-8.58091
▁zár	-8.58092
▁milyen	-8.58179
▁irány	-8.58219
▁lehetőség	-8.58264
▁összeg	-8.58311
▁Pa	-8.58394
▁á	-8.58432
ket	-8.58517
▁politikai	-8.58742
▁vált	-8.58761
▁uk	-8.58871
▁hal	-8.5938
▁MSZP	-8.59482
nem	-8.59507
úr	-8.59718
▁Orbán	-8.59771
▁jut	-8.59802
ház	-8.60076
zott	-8.60085
▁es	-8.60152
▁Budapest	-8.60193
ment	-8.6021
▁része	-8.60288
▁nyom	-8.60485
▁várható	-8.60612
▁val	-8.60713
▁közép	-8.60719
ült	-8.61018
▁Mar	-8.61274
▁gyors	-8.61312
szerű	-8.61384
▁voltak	-8.61596
▁di	-8.61741
▁nemzetközi	-8.61782
▁anyag	-8.61902
▁tartott	-8.61984
ll	-8.62101
▁sajtó	-8.62148
tó	-8.6217
▁ír	-8.62171
▁gyermek	-8.62292
▁megye	-8.62405
▁magán	-8.62517
▁mér	-8.62549
adás	-8.62633
▁eljárás	-8.62648
cz	-8.62996
szor	-8.63141
▁mond	-8.6323
lá	-8.63401
▁ünk	-8.63617
▁al	-8.63649
▁te	-8.63699
▁erős	-8.63815
▁Péter	-8.63969
▁ny	-8.64099
dik	-8.64181
▁szerepel	-8.64346
▁elég	-8.64696
art	-8.64742
ev	-8.64795
ását	-8.64882
▁november	-8.64938
▁biztos	-8.65024
▁önkormányzat	-8.6506
▁orosz	-8.65223
▁sikerült	-8.65353
▁következő	-8.65387
▁jövő	-8.65518
éz	-8.65526
ály	-8.6602
elem	-8.66134
▁mely	-8.66185
▁bele	-8.66227
rel	-8.66465
▁tekint	-8.6647
▁27	-8.66758
▁további	-8.66797
▁En	-8.66884
▁harmadik	-8.67065
vány	-8.67128
▁fi	-8.67259
▁St	-8.6731
▁Be	-8.67509
talan	-8.67533
▁mű	-8.67557
ger	-8.67591
▁száz	-8.6776
pp	-8.67806
▁Bo	-8.67828
mal	-8.67874
▁alá	-8.67894
▁megfelelő	-8.68025
▁mérkőzés	-8.68348
▁siker	-8.68399
land	-8.6843
▁30	-8.68475
▁állami	-8.68545
mer	-8.68571
▁jelen	-8.68672
▁vezet	-8.68805
▁Ba	-8.69005
sel	-8.69155
öt	-8.69332
▁politikus	-8.69363
▁Br	-8.69365
ber	-8.6938
▁föld	-8.6942
kol	-8.6957
▁szint	-8.69712
▁éppen	-8.69746
ító	-8.698
ca	-8.70029
▁magát	-8.70044
▁21	-8.70104
▁ük	-8.70136
▁halál	-8.70191
▁maga	-8.70225
▁vi	-8.70385
ését	-8.70445
ep	-8.70468
▁ka	-8.70719
▁helyi	-8.70761
őr	-8.708
▁tervez	-8.70854
vétel	-8.70879
▁lép	-8.71024
▁európai	-8.71389
aszt	-8.71429
▁gyerek	-8.71577
ton	-8.71605
▁jegy	-8.71933
▁bíróság	-8.71984
etlen	-8.72136
▁mindenki	-8.72169
▁belül	-8.72243
▁múlt	-8.72257
tér	-8.7257
▁István	-8.72732
bo	-8.72802
zat	-8.729
ába	-8.73266
▁kon	-8.73406
▁hagy	-8.73558
▁va	-8.73707
▁eredmény	-8.73919
ré	-8.74144
▁ít	-8.74177
▁ában	-8.74245
1-	-8.74262
akkor	-8.74319
hetetlen	-8.74431
▁ol	-8.74623
ölt	-8.74657
gel	-8.7485
anak	-8.74914
▁erre	-8.7493
▁lévő	-8.74961
▁szóló	-8.74982
▁este	-8.75233
▁sal	-8.75299
▁2010.	-8.7533
▁legalább	-8.75336
▁nyolc	-8.75538
▁Li	-8.75611
▁).	-8.75775
▁közös	-8.75882
▁24	-8.76076
▁információ	-8.76082
ru	-8.76089
ard	-8.76159
okkal	-8.76225
co	-8.7624
▁jelenleg	-8.76263
▁kapcsolat	-8.76573
▁szín	-8.76741
íg	-8.76748
▁írja	-8.76875
▁mag	-8.77221
▁kár	-8.77252
▁feladat	-8.77319
▁hát	-8.77372
▁szinte	-8.77411
▁díj	-8.77434
G	-8.77479
▁kellet	-8.77512
▁Már	-8.77537
▁mutat	-8.77563
▁kívül	-8.77681
▁ül	-8.77892
öm	-8.77939
áj	-8.78125
▁utóbbi	-8.78168
▁üzlet	-8.78357
▁Á	-8.7847
▁képest	-8.78487
▁magas	-8.78723
▁végén	-8.78737
szk	-8.78741
▁Ka	-8.78834
▁miniszterelnök	-8.78855
▁szerdán	-8.78917
▁helyen	-8.79105
▁bel	-8.7915
▁forintot	-8.79216
▁válság	-8.79224
▁újabb	-8.79525
közben	-8.79831
▁kal	-8.79849
▁sokkal	-8.79883
),	-8.79895
jon	-8.79945
▁okkal	-8.80011
▁22	-8.80112
▁eket	-8.80267
▁évvel	-8.80311
út	-8.80341
▁követ	-8.80511
▁jelölt	-8.80691
▁vizsgál	-8.80821
ej	-8.8096
▁motor	-8.80986
▁reggel	-8.81042
▁valószínű	-8.81185
▁igen	-8.81265
▁ellenére	-8.8133
har	-8.81484
▁Ra	-8.81511
▁hétfőn	-8.81533
ügy	-8.81653
▁ismét	-8.8171
ezte	-8.81829
▁bor	-8.82037
▁kar	-8.82062
▁egyes	-8.82323
mond	-8.82366
▁idei	-8.82456
▁26	-8.82742
öd	-8.82754
oló	-8.82772
▁szeret	-8.828
▁MTI	-8.82921
▁ál	-8.83002
▁fordul	-8.83075
▁részt	-8.83089
▁Magyarországon	-8.8311
▁po	-8.83145
▁ide	-8.83218
▁szeretné	-8.83439
▁ünnep	-8.83506
▁formá	-8.83525
0-	-8.83638
▁kedden	-8.83668
▁sport	-8.83668
▁abban	-8.8373
▁bizottság	-8.83738
▁He	-8.83791
▁komoly	-8.83801
▁Gábor	-8.83874
th	-8.83979
pont	-8.84077
▁óra	-8.84431
▁ver	-8.84455
▁Ko	-8.8449
▁Gy	-8.84549
▁legyen	-8.84703
▁műsor	-8.84741
ór	-8.8478
▁jelentette	-8.85037
▁orvos	-8.85227
▁nyugdíj	-8.85227
von	-8.85286
do	-8.85302
▁képes	-8.85349
▁Egyesül	-8.85368
▁február	-8.85433
▁per	-8.85466
▁otthon	-8.8551
▁erő	-8.85552
▁tartó	-8.85577
▁évek	-8.85763
▁következ	-8.85956
▁haj	-8.86024
▁társaság	-8.86037
tem	-8.86144
▁gazdaság	-8.86274
ód	-8.86277
▁helyett	-8.8641
▁március	-8.86411
▁neki	-8.86461
köz	-8.86558
ker	-8.86603
▁egyetlen	-8.86739
▁gép	-8.86799
▁növekedés	-8.86942
▁egyelőre	-8.86961
▁vele	-8.87143
▁szövetség	-8.87151
▁tel	-8.87205
▁Bar	-8.8731
ista	-8.87395
ebben	-8.87504
▁évben	-8.87547
▁felé	-8.87582
▁álló	-8.87657
▁tag	-8.87768
▁X	-8.87822
▁nehéz	-8.87856
▁ját	-8.87959
▁li	-8.87961
▁vezetője	-8.88164
▁sorozat	-8.88227
kó	-8.88451
▁kat	-8.88496
áról	-8.88598
ására	-8.88601
sorban	-8.88604
ezés	-8.8868
▁Köz	-8.88758
▁készül	-8.88855
ow	-8.88865
▁egymás	-8.88873
szám	-8.89158
▁internet	-8.89168
▁oldal	-8.89326
lés	-8.89391
▁baleset	-8.89403
▁foglalkoz	-8.89536
▁tudja	-8.89573
▁követően	-8.89597
▁csütörtökön	-8.89741
▁támogat	-8.89743
▁rövid	-8.89791
▁központ	-8.89919
▁23	-8.89959
▁pénteken	-8.90051
vas	-8.9018
▁50	-8.90328
nő	-8.90515
no	-8.90702
▁hosszú	-8.90734
▁szabály	-8.90739
for	-8.90767
ff	-8.90928
▁ter	-8.91195
▁elfogad	-8.91288
▁se	-8.91292
▁hatás	-8.91496
▁egyszer	-8.91606
▁lány	-8.91624
féle	-8.9163
▁nyert	-8.91677
▁dél	-8.9173
▁próbál	-8.91849
▁számít	-8.91946
lan	-8.92007
▁rendez	-8.92052
sal	-8.92091
▁hív	-8.92136
▁ismert	-8.92162
ozott	-8.92233
▁egyre	-8.92353
▁hó	-8.92408
▁dolgoz	-8.92552
ották	-8.92599
fel	-8.92922
▁javaslat	-8.92968
▁É	-8.9297
ler	-8.92973
▁tudta	-8.92989
ács	-8.93199
országi	-8.93364
ció	-8.93473
éről	-8.935
ür	-8.93577
ésére	-8.93597
ob	-8.93671
▁segít	-8.9369
▁lépés	-8.93837
▁válogatott	-8.94052
▁fiatal	-8.94055
▁kíván	-8.94101
▁élő	-8.94102
▁fejlesztés	-8.94257
▁azok	-8.94285
▁unió	-8.94515
▁Sport	-8.94631
▁jutott	-8.94694
▁előző	-8.94805
▁listá	-8.94853
▁először	-8.94943
áb	-8.95097
ves	-8.95117
▁miniszter	-8.95159
▁ko	-8.95159
▁Ny	-8.95173
▁súlyos	-8.9523
?	-8.95286
▁tehát	-8.95336
ög	-8.95342
▁Mo	-8.95349
▁kisebb	-8.95427
▁beszél	-8.95546
ztán	-8.95585
ébe	-8.9565
▁3-	-8.95693
▁emel	-8.95715
lap	-8.95735
▁Vi	-8.95785
▁vállal	-8.96147
▁brit	-8.9618
▁In	-8.96199
▁hi	-8.96321
▁írta	-8.96386
▁vélemény	-8.96415
der	-8.965
man	-8.96517
▁gond	-8.9653
ral	-8.96536
▁gáz	-8.96545
ko	-8.96594
▁János	-8.96751
▁figyel	-8.96824
olás	-8.96848
föld	-8.97058
díj	-8.97091
▁ével	-8.9711
▁Mint	-8.97141
▁vet	-8.97168
zár	-8.97261
▁New	-8.97281
▁fizet	-8.97421
▁készült	-8.97498
▁szerző	-8.97507
▁délután	-8.97618
▁szép	-8.97762
▁utas	-8.97768
▁fut	-8.97947
asztal	-8.98031
▁arány	-8.98048
heti	-8.98069
▁os	-8.9811
▁György	-8.98269
▁fa	-8.98273
▁dolgozó	-8.98324
▁benne	-8.98351
zett	-8.98511
▁kevés	-8.98533
mű	-8.9858
▁október	-8.9861
▁állapot	-8.98781
▁je	-8.98797
▁annyi	-8.98804
▁szervez	-8.99218
vezető	-8.9922
bor	-8.99255
▁vál	-8.99274
▁Jobbik	-8.99381
▁nyer	-8.99629
▁Jo	-8.99665
▁rossz	-8.99722
▁vezetés	-8.99726
▁Világ	-8.99726
▁szükséges	-8.99759
nal	-8.99833
▁forduló	-8.99858
▁állít	-8.99908
ád	-8.99949
▁egyszerű	-8.9996
▁érdek	-9.00016
ezer	-9.00189
▁tulajdonos	-9.0019
▁Tamás	-9.0043
izmus	-9.00697
▁külön	-9.00819
▁táv	-9.0083
lin	-9.009
▁cikk	-9.00952
▁polgármester	-9.01116
▁klub	-9.01118
▁kapcsolatban	-9.01125
▁pu	-9.01193
▁neve	-9.01255
▁test	-9.01283
asz	-9.01292
▁Da	-9.01418
▁történ	-9.01459
▁valaki	-9.01476
▁eredménye	-9.01641
▁40	-9.01695
▁lakás	-9.01733
▁Na	-9.01774
állítás	-9.01852
▁EU	-9.0187
▁összes	-9.02021
▁kicsi	-9.02042
▁nyilván	-9.02075
▁kellene	-9.02075
▁barát	-9.02077
▁Ca	-9.022
▁hol	-9.02431
irat	-9.02452
▁jelenlegi	-9.02453
▁nép	-9.02615
▁száma	-9.02885
▁közé	-9.02901
▁/	-9.02944
▁Ferenc	-9.02963
▁Fel	-9.03016
▁csup	-9.03101
▁ni	-9.0314
▁mégis	-9.03176
▁És	-9.03192
ából	-9.03232
▁hivatalos	-9.03241
▁Te	-9.03275
ással	-9.03529
gat	-9.03624
▁hibá	-9.03712
per	-9.03855
▁ekkel	-9.03978
jának	-9.0401
éd	-9.04036
▁nyelv	-9.0406
ván	-9.04354
▁Nemzeti	-9.04383
▁helyez	-9.04456
▁tulajdon	-9.04572
▁méter	-9.04592
▁né	-9.04684
▁közben	-9.0487
alma	-9.04889
▁rendőrök	-9.04916
▁Di	-9.04997
fa	-9.0507
▁kéz	-9.05079
▁épület	-9.05314
▁em	-9.05343
▁ismer	-9.05367
▁mer	-9.0539
▁szolgáltatás	-9.05431
sen	-9.05756
▁ig	-9.05772
▁kampány	-9.06142
alom	-9.06168
▁miért	-9.0617
▁évi	-9.06215
izál	-9.06248
▁lak	-9.06258
▁Zrt	-9.06337
▁esetben	-9.06461
bé	-9.06506
jára	-9.06594
mar	-9.06797
▁helyszín	-9.06832
ham	-9.06954
▁persze	-9.06976
ssa	-9.07057
▁eset	-9.07156
▁kevesebb	-9.07186
▁modell	-9.07253
▁szív	-9.07277
▁Zoltán	-9.07439
▁Új	-9.0744
ze	-9.07449
▁megoldás	-9.07627
▁elv	-9.07729
▁tanulmány	-9.0773
▁nemzeti	-9.07758
▁tanács	-9.07805
▁foly	-9.07894
ügyi	-9.07899
lal	-9.07994
▁teszi	-9.08048
▁Szer	-9.08098
mány	-9.08119
▁rendőr	-9.08185
▁darab	-9.08189
▁forintos	-9.08193
ho	-9.08269
▁közlemény	-9.08307
ítani	-9.08492
éssel	-9.08662
▁francia	-9.08746
▁pénzügyi	-9.08782
▁karácsony	-9.08848
▁senki	-9.08945
▁von	-9.08957
2-	-9.09147
▁alig	-9.09227
▁ére	-9.09419
lé	-9.09424
▁1-	-9.09532
áig	-9.09542
▁főváros	-9.09647
zni	-9.09659
▁Bár	-9.09714
▁kedv	-9.09798
▁vállalat	-9.09907
▁utal	-9.09914
▁név	-9.10101
elnök	-9.10132
áló	-9.10148
▁BKV	-9.1018
▁szereplő	-9.10203
▁Bu	-9.10252
▁különös	-9.10312
▁ezen	-9.10358
mb	-9.10393
▁talán	-9.10394
▁Viktor	-9.10565
▁hétfő	-9.10581
▁április	-9.10661
▁állt	-9.1081
▁igény	-9.10917
▁vett	-9.10944
▁maradt	-9.1109
▁folyamatos	-9.11111
▁bo	-9.11204
▁28	-9.11405
tatás	-9.11435
▁2009	-9.11506
ry	-9.11536
▁település	-9.11536
▁Ne	-9.11543
ítő	-9.11672
edett	-9.11693
▁héten	-9.11738
kod	-9.11778
▁Sch	-9.11866
▁szakasz	-9.12235
▁százaléka	-9.12388
millió	-9.12395
▁tizen	-9.12409
▁áldozat	-9.12409
▁biztosít	-9.12472
▁változás	-9.12518
beli	-9.12568
▁péntek	-9.12574
▁összesen	-9.12707
bl	-9.12839
br	-9.12879
▁döntött	-9.12934
▁szerda	-9.12941
▁jobban	-9.12989
bban	-9.13087
▁bűn	-9.13267
új	-9.13338
▁érdekében	-9.13374
▁egykor	-9.13706
elés	-9.13751
▁előre	-9.13777
▁kutatás	-9.13901
▁fogad	-9.13947
▁döntő	-9.14046
▁intézmény	-9.1414
▁kilométer	-9.14189
▁áról	-9.14332
▁enged	-9.14587
▁kedd	-9.14592
tör	-9.14664
esség	-9.14707
itás	-9.14754
▁állás	-9.15012
▁lo	-9.15119
▁közlekedés	-9.15215
▁alkotmány	-9.15231
▁Államok	-9.15244
▁Ta	-9.15256
esebb	-9.15335
illa	-9.15381
▁Co	-9.1541
▁állat	-9.15423
▁többi	-9.15434
▁hivatal	-9.15481
▁szolgál	-9.1559
▁ülés	-9.15703
▁vé	-9.15734
tikus	-9.15784
▁fotó	-9.15812
▁ebb	-9.1585
▁csütörtök	-9.15965
▁adta	-9.16041
▁esemény	-9.16103
▁100	-9.16117
▁tesz	-9.16168
▁szezon	-9.16191
▁oda	-9.16225
ája	-9.16292
▁közösség	-9.16341
állás	-9.16437
tag	-9.16551
▁fény	-9.16634
▁igazgató	-9.16756
▁jön	-9.16808
▁tanul	-9.17004
▁osztály	-9.17006
▁András	-9.1702
▁ezelőtt	-9.17082
▁vér	-9.17218
▁Ku	-9.17366
▁Ho	-9.17394
átor	-9.17609
lét	-9.1763
▁sérülés	-9.17639
▁szerep	-9.17671
▁bér	-9.177
▁természetes	-9.17792
▁olasz	-9.17868
ához	-9.17977
▁indult	-9.18012
▁bal	-9.18025
▁dob	-9.18129
jegy	-9.18176
▁teljesítmény	-9.18278
▁ipar	-9.18638
▁elején	-9.18749
▁sőt	-9.1881
▁mit	-9.18812
▁jött	-9.18867
▁Itthon	-9.18886
jából	-9.18901
▁felül	-9.19232
▁Hi	-9.19313
▁vagyon	-9.19352
▁mo	-9.19392
▁készít	-9.19444
▁bír	-9.19588
▁nők	-9.19771
▁köt	-9.19798
▁származ	-9.19937
anyag	-9.20017
▁közt	-9.20167
▁kész	-9.202
▁Do	-9.20246
▁Minden	-9.20403
▁észak	-9.20436
hatatlan	-9.20451
▁Ugyan	-9.20467
íteni	-9.20488
▁adat	-9.206
▁tor	-9.20615
hatja	-9.2074
lu	-9.2076
▁4-	-9.21004
íz	-9.21026
▁jelentés	-9.21099
▁külföldi	-9.21213
endő	-9.2124
▁legtöbb	-9.21274
▁spanyol	-9.21343
▁épít	-9.21397
▁Sándor	-9.21427
▁keresztül	-9.21473
▁Ber	-9.21608
▁2.	-9.21621
▁ők	-9.21754
▁nőtt	-9.2178
vő	-9.21858
▁Eb	-9.21919
▁követel	-9.21961
ogat	-9.22054
▁MDF	-9.22073
▁eredeti	-9.22186
▁József	-9.22289
▁fordít	-9.22385
▁érkez	-9.22483
▁Lu	-9.22491
▁kilenc	-9.22614
▁utcá	-9.22723
▁beteg	-9.22785
▁szél	-9.22805
▁szállít	-9.22956
bol	-9.22984
▁időszak	-9.2303
▁csinál	-9.23054
különböző	-9.23149
var	-9.23179
▁bevétel	-9.23208
vény	-9.23248
▁módon	-9.23329
▁eb	-9.23459
▁lehetett	-9.23493
▁Index	-9.23595
▁harc	-9.23842
tató	-9.23881
ezett	-9.23901
han	-9.23956
▁üzem	-9.24579
dor	-9.24627
▁mély	-9.24683
▁szinté	-9.24702
▁vel	-9.24796
▁kül	-9.24883
▁kettő	-9.24932
port	-9.24936
▁pályá	-9.24955
▁rég	-9.25166
▁folyó	-9.25167
up	-9.25241
▁esetében	-9.25337
▁lényeg	-9.25364
▁kel	-9.25467
▁játszott	-9.25473
▁om	-9.25594
▁Íg	-9.25595
sék	-9.25605
▁ítél	-9.25646
▁vagyok	-9.25851
utóbb	-9.25892
▁term	-9.25913
!	-9.25982
ou	-9.26087
▁kockázat	-9.2626
▁környezet	-9.26345
▁forgalom	-9.26486
▁sí	-9.26532
▁juk	-9.26584
▁problémá	-9.266
▁látható	-9.26662
▁bu	-9.26694
▁31	-9.26704
▁küzd	-9.26713
▁független	-9.26726
▁egyetem	-9.26739
▁sel	-9.26758
▁tagja	-9.26795
▁média	-9.26822
▁haza	-9.26887
▁akció	-9.26996
▁társa	-9.27048
▁érintett	-9.27125
▁Kis	-9.27143
▁gyár	-9.2723
▁na	-9.27336
▁Több	-9.27393
álló	-9.27413
▁idéz	-9.27507
▁folyamat	-9.27544
▁addig	-9.27621
▁budapesti	-9.27734
mutat	-9.27777
▁29	-9.27893
▁kínai	-9.27963
▁költség	-9.27976
▁szóvivője	-9.28004
▁kapcsolatos	-9.28243
▁térség	-9.28302
ner	-9.28316
▁dönt	-9.28329
keres	-9.28352
▁angol	-9.28424
▁igazol	-9.28454
▁tevékenység	-9.28652
▁cégek	-9.28654
▁lakosság	-9.28768
▁vág	-9.28869
av	-9.28878
▁adatok	-9.28978
▁Ja	-9.28982
▁nevű	-9.29115
▁találkoz	-9.29196
hogy	-9.29202
▁er	-9.29301
tartás	-9.29366
▁években	-9.29393
▁árfolyam	-9.29463
▁működés	-9.29529
▁ében	-9.29852
▁választások	-9.29897
▁átlag	-9.29953
▁fokoz	-9.29964
▁lakó	-9.30021
hal	-9.30026
▁telefon	-9.30045
▁idején	-9.3028
▁forrás	-9.30289
▁nyit	-9.30376
▁Két	-9.30388
▁kezelés	-9.304
▁egyértelmű	-9.30514
▁nehez	-9.30541
▁ahhoz	-9.30542
▁hogyan	-9.30564
▁ég	-9.30655
▁szombat	-9.30661
▁35	-9.3067
▁Or	-9.3076
jel	-9.30771
▁végzett	-9.30804
▁Car	-9.3098
▁rendkívül	-9.30989
tlen	-9.31032
▁fér	-9.31039
▁mondja	-9.31041
▁végez	-9.31115
▁kerület	-9.31144
▁Kft	-9.31382
▁tan	-9.31415
▁fogalmazott	-9.31548
védelm	-9.31695
▁országos	-9.31699
▁Még	-9.31701
▁szül	-9.31709
▁érkezett	-9.31744
▁felvétel	-9.31841
▁Ezek	-9.31869
▁Megye	-9.31963
▁ához	-9.32163
▁derül	-9.322
▁vonatkozó	-9.32255
▁feltétel	-9.32268
▁iskolá	-9.3229
▁olvasható	-9.32403
▁kiadás	-9.32409
▁ajánl	-9.32445
▁vendég	-9.32469
▁Gazdaság	-9.32531
▁támadás	-9.32671
tetés	-9.32705
▁emlék	-9.3276
▁teszt	-9.32764
▁olvas	-9.32782
▁alakul	-9.32861
▁gyanú	-9.32867
▁javít	-9.3294
ódott	-9.32978
ster	-9.33045
▁arc	-9.33052
▁előny	-9.33067
▁sokat	-9.33129
▁beszélt	-9.33176
▁számol	-9.33177
▁zavar	-9.33253
▁Lo	-9.33293
▁2008	-9.33383
▁fizetés	-9.33387
nyel	-9.33423
▁többször	-9.33495
▁pontos	-9.33504
▁pályázat	-9.33514
óz	-9.33526
▁esett	-9.33548
rész	-9.33556
város	-9.33591
▁beruházás	-9.33736
▁távol	-9.3392
▁járó	-9.33977
▁mellé	-9.33987
▁fok	-9.3399
▁tudott	-9.34017
▁biztonság	-9.34081
▁ná	-9.34126
▁nyugat	-9.34225
főkapitány	-9.34347
▁ígér	-9.34362
▁pro	-9.34371
dal	-9.34374
▁csap	-9.34378
▁szerv	-9.34407
▁fű	-9.34409
▁szombaton	-9.34435
▁fegyver	-9.34467
▁Ő	-9.34568
▁előzetes	-9.3459
▁elé	-9.34608
▁megjelent	-9.34644
▁véd	-9.34648
min	-9.34704
▁mögött	-9.34711
▁született	-9.34712
▁fal	-9.3477
▁napon	-9.34799
▁ho	-9.34851
▁csomag	-9.34991
▁2010-	-9.35051
ktív	-9.35076
▁éről	-9.35311
▁tartalmaz	-9.35352
▁Me	-9.35428
▁segítség	-9.35502
▁baj	-9.35521
▁Ga	-9.35539
▁Val	-9.35617
▁könny	-9.35719
▁szeptember	-9.3582
go	-9.35878
▁halad	-9.35923
▁század	-9.36098
▁2009-	-9.36119
▁tömeg	-9.36316
▁ingatlan	-9.36318
vonal	-9.36319
▁Zsolt	-9.36348
▁Mon	-9.36358
▁vád	-9.36401
▁1.	-9.36408
▁védelm	-9.3644
▁növel	-9.36442
▁Kr	-9.36451
üz	-9.36486
kedés	-9.36521
▁országok	-9.36562
éves	-9.36606
▁közötti	-9.36639
▁tölt	-9.368
▁jának	-9.36892
▁többség	-9.36922
▁nevé	-9.36924
▁egészség	-9.36928
▁kezel	-9.36992
▁felett	-9.36993
▁húsz	-9.37011
▁ék	-9.3702
▁2-	-9.37042
her	-9.37128
▁függ	-9.37175
▁azonnal	-9.37198
jét	-9.372
▁értékel	-9.37201
▁ából	-9.37211
▁Je	-9.37272
▁ráadás	-9.37431
▁hatóságok	-9.37505
▁dokumentum	-9.37569
▁egészségügy	-9.37591
▁részvény	-9.37598
▁készített	-9.3761
▁tartja	-9.37673
lik	-9.37701
ord	-9.37757
▁jelentkez	-9.37917
▁Ö	-9.38021
▁tenni	-9.38043
▁utaz	-9.38054
Országos	-9.38074
▁azonos	-9.38107
részt	-9.382
pal	-9.38309
▁Attila	-9.38328
étől	-9.38341
▁tűz	-9.3836
▁3.	-9.38388
▁láb	-9.38484
▁csal	-9.3863
▁megy	-9.3866
▁Kar	-9.38752
▁2008-	-9.38755
▁foglal	-9.38899
▁világbajnok	-9.38985
▁hall	-9.38993
▁ellenzék	-9.39151
▁írás	-9.39158
▁küld	-9.39217
▁tudom	-9.39254
▁száll	-9.39267
▁ri	-9.39316
▁Rendőr	-9.3943
'	-9.39473
▁egyéni	-9.39488
▁mentő	-9.3953
▁társ	-9.39562
20	-9.3958
▁vette	-9.39584
▁vége	-9.39588
terem	-9.39601
árd	-9.39612
tika	-9.39697
▁tévé	-9.39736
▁együttes	-9.39754
kö	-9.39755
▁válasz	-9.39785
▁hatalmas	-9.3982
▁munkatársa	-9.39877
▁pénzt	-9.39929
▁Csak	-9.39997
▁azokat	-9.40092
▁találkozó	-9.40096
▁csúcs	-9.40122
▁Ben	-9.40197
▁60	-9.40309
▁keret	-9.40486
▁To	-9.40487
▁arany	-9.40491
▁kínál	-9.40511
▁elemző	-9.40512
jen	-9.40528
▁kormányzat	-9.40633
▁költ	-9.40731
▁örök	-9.40904
gép	-9.40921
▁tudni	-9.40947
▁oz	-9.41027
▁tűn	-9.4111
burg	-9.41111
ín	-9.41126
▁So	-9.41134
▁felelős	-9.41141
▁Hol	-9.41162
▁kocsi	-9.41191
▁tűnik	-9.41279
▁gyerekek	-9.41399
▁tagjai	-9.41655
▁szakmai	-9.41689
▁szerzett	-9.41859
bu	-9.41902
▁nyújt	-9.41916
▁női	-9.4195
▁veszély	-9.42032
ovic	-9.42296
szter	-9.42297
▁Ri	-9.42325
▁projekt	-9.42476
▁edző	-9.42508
szó	-9.42539
▁országban	-9.4256
▁Bor	-9.42586
▁Vas	-9.42633
cc	-9.42676
írás	-9.42779
biz	-9.42867
▁kiderült	-9.42971
ülés	-9.4299
▁eddigi	-9.43013
▁kórház	-9.43059
▁létre	-9.43106
▁Van	-9.43173
all	-9.43226
▁húz	-9.43233
▁kamat	-9.43284
▁érte	-9.43288
▁oszt	-9.43371
jén	-9.43529
száz	-9.43605
▁ex	-9.43642
▁régi	-9.43752
▁du	-9.43792
osabb	-9.43925
▁okoz	-9.43938
▁változat	-9.4394
▁éhez	-9.4401
▁azóta	-9.44035
▁mai	-9.44127
▁energia	-9.44212
helyettes	-9.44288
▁mindössze	-9.44346
▁vásárol	-9.44374
▁építés	-9.44405
▁őr	-9.44416
▁bemutat	-9.44443
▁használat	-9.44492
▁esetén	-9.44497
▁Jó	-9.44539
▁80	-9.44556
▁Miklós	-9.44617
▁45	-9.44655
▁or	-9.44673
▁jelenti	-9.44739
▁Zs	-9.4475
▁pillanat	-9.44752
▁kutató	-9.44858
]	-9.44887
▁indított	-9.44927
▁5-	-9.45123
▁[	-9.45172
▁terv	-9.45264
▁érez	-9.45278
▁Most	-9.45409
▁Lajos	-9.45433
▁BL	-9.45534
▁Nap	-9.45573
▁termék	-9.45587
▁szakértő	-9.45743
▁mérték	-9.45771
▁átlagos	-9.45788
▁viszony	-9.4583
▁jogszabály	-9.45841
▁megállapít	-9.45867
▁fenntart	-9.45992
▁od	-9.46293
▁kényszer	-9.46402
▁lelk	-9.46455
edik	-9.46543
▁föl	-9.46554
▁nyilatkozta	-9.4665
▁bűncselekmény	-9.46666
▁módszer	-9.46828
▁Hír	-9.46895
▁York	-9.46943
▁busz	-9.4697
▁alkalom	-9.47081
▁testület	-9.4722
▁fehér	-9.47228
onnan	-9.47311
▁férfit	-9.47354
▁biztonsági	-9.4739
▁őt	-9.47475
▁köszön	-9.47497
▁viz	-9.47559
▁betegség	-9.47616
▁2010	-9.4768
▁rendel	-9.47754
▁Hu	-9.47811
odott	-9.47827
▁óriás	-9.47917
▁mostani	-9.48275
▁Hogy	-9.48303
▁többek	-9.48317
▁évtized	-9.48336
▁végig	-9.48567
▁fest	-9.48608
U	-9.48799
cia	-9.48845
▁kísérlet	-9.48926
jával	-9.48943
▁Har	-9.49073
▁végre	-9.49119
▁soha	-9.49183
▁nevez	-9.49209
▁hosszabb	-9.49365
▁32	-9.49441
▁ügyben	-9.49463
cel	-9.49522
▁dolg	-9.4953
▁Mag	-9.49604
▁Par	-9.49644
▁Budapesten	-9.49711
▁olimpia	-9.49749
▁bizonyos	-9.4978
▁teljesít	-9.49795
▁király	-9.49894
▁meleg	-9.49903
zta	-9.49916
▁forinttal	-9.49949
▁visszatér	-9.49981
▁hete	-9.49994
fér	-9.50051
▁Pál	-9.50067
▁forgalma	-9.50157
▁szakember	-9.50228
▁esz	-9.50401
▁író	-9.50415
▁szét	-9.50423
általán	-9.50457
▁Mind	-9.50459
szolgálat	-9.50483
▁Úgy	-9.50608
éből	-9.50647
▁vita	-9.50708
▁részét	-9.50718
▁70	-9.50782
▁sért	-9.50792
▁védő	-9.50812
▁többet	-9.50847
▁típus	-9.50895
▁felmérés	-9.50895
▁érvényes	-9.50895
képpen	-9.50979
▁időben	-9.51034
▁figyelmet	-9.51168
▁Mer	-9.51169
▁vállalkozás	-9.51169
com	-9.51225
▁belső	-9.51228
séggel	-9.51273
▁tervezett	-9.51389
úgy	-9.51457
▁interjú	-9.51472
▁kormányfő	-9.51476
▁rendezvény	-9.5149
▁olvasó	-9.51569
▁elkövet	-9.51593
▁negyedév	-9.51597
óta	-9.51742
▁szlovák	-9.51762
autó	-9.51798
▁negyedik	-9.5184
▁csökken	-9.51855
▁minőség	-9.51909
▁tárgy	-9.5196
ozza	-9.52035
▁lehetne	-9.52099
▁sors	-9.52113
▁látogat	-9.52277
▁ellenőrzés	-9.52279
▁beszéd	-9.52346
▁tenger	-9.52378
▁adatai	-9.52399
▁part	-9.52447
▁szavaz	-9.52485
▁bőv	-9.52496
▁futball	-9.52508
▁előbb	-9.52519
▁mar	-9.52533
▁mennyiség	-9.52567
▁korlátoz	-9.52606
éhez	-9.52698
▁indít	-9.52701
▁polgár	-9.52784
▁mindkét	-9.52814
▁néző	-9.52815
▁kötött	-9.52841
▁kora	-9.5285
▁fenyeget	-9.52931
▁módosít	-9.52934
▁írt	-9.53116
hang	-9.53128
▁Su	-9.53188
▁repülő	-9.53209
▁található	-9.53368
▁vagyunk	-9.53391
nnyira	-9.53414
▁kötelező	-9.53488
▁kelet	-9.53509
▁változtat	-9.53552
▁jármű	-9.53578
▁fogyaszt	-9.53594
▁alakít	-9.53709
▁Nemzet	-9.53716
▁Egyetem	-9.53821
▁lenni	-9.53863
▁indokol	-9.53965
alap	-9.53977
▁vitá	-9.54043
▁utca	-9.54115
▁For	-9.54247
▁alkot	-9.54325
ju	-9.54335
▁történelmi	-9.54423
▁felelősség	-9.54557
▁játsz	-9.54628
▁állampolgár	-9.5471
▁Unió	-9.54717
▁Online	-9.5486
▁fiú	-9.54867
▁munkahely	-9.5493
uz	-9.54973
▁tényleg	-9.55059
▁Du	-9.55132
szerzés	-9.55171
▁The	-9.55216
▁+	-9.55335
▁titko	-9.55346
▁szerencsé	-9.55461
▁sérült	-9.55461
▁megállapodás	-9.5554
Z	-9.55576
▁szocialista	-9.55914
▁újságíró	-9.56066
▁kiemelt	-9.5622
▁bíz	-9.56342
▁Ol	-9.56351
▁Mil	-9.56439
▁zárt	-9.56591
▁hideg	-9.56675
▁Dél	-9.56745
▁Gyurcsány	-9.56827
pel	-9.5686
▁bajnokság	-9.56863
▁500	-9.56901
mellett	-9.56937
▁nyilatkozat	-9.56966
▁szék	-9.56992
ődés	-9.57172
▁for	-9.57174
jelölt	-9.5726
▁államtitkár	-9.57286
lam	-9.57303
▁esély	-9.57304
▁igazgatója	-9.57378
érték	-9.57451
▁Sp	-9.57466
ozta	-9.5758
▁szándék	-9.57594
▁alkalmaz	-9.57596
▁nemzet	-9.57643
▁dolog	-9.57748
▁szavazó	-9.57769
felé	-9.578
▁Dr	-9.57922
▁eső	-9.57989
▁ősz	-9.58199
▁takar	-9.58234
▁2011-	-9.58242
nyugdíjpénztár	-9.58348
ozni	-9.58359
▁Ver	-9.58375
▁hangsúlyozta	-9.5843
▁90	-9.58432
▁célja	-9.58462
▁Ju	-9.58468
▁oktatás	-9.58502
ex	-9.5859
▁ekkor	-9.58628
▁szerez	-9.58646
állomás	-9.58653
▁szöveg	-9.58677
▁általános	-9.58695
▁épp	-9.58738
▁évre	-9.58768
▁eszköz	-9.58801
▁tárgyal	-9.58874
▁ítélet	-9.58889
▁erről	-9.58912
▁tüntet	-9.58989
▁szenved	-9.58993
▁különbség	-9.59
▁érdemes	-9.59035
atív	-9.59071
elmi	-9.59088
▁buk	-9.59095
pár	-9.59202
▁fővárosi	-9.59296
▁válaszol	-9.59306
▁egyedül	-9.59307
▁olaj	-9.59391
▁nyerte	-9.59429
▁csatlakoz	-9.59458
▁hozott	-9.5951
▁bizonyít	-9.59524
▁kutatók	-9.59551
▁szolgálat	-9.59569
▁általában	-9.59592
árium	-9.59595
▁legfontosabb	-9.59616
▁papír	-9.5963
▁hatóság	-9.59652
▁iskola	-9.59655
határ	-9.59733
gazdaság	-9.59742
▁maguk	-9.59914
▁kapu	-9.59942
▁tény	-9.59979
▁tehet	-9.60081
▁Szent	-9.60108
álás	-9.60173
▁Németország	-9.60246
▁ős	-9.60251
üket	-9.60258
ember	-9.60281
▁helyre	-9.60299
ították	-9.60562
▁jövőre	-9.60612
▁össz	-9.60777
▁pontosan	-9.60835
▁telep	-9.60855
▁Szövetség	-9.6088
▁magasabb	-9.6094
ock	-9.60969
▁országgyűlés	-9.61053
▁gyakorlat	-9.61102
▁kiállítás	-9.61143
▁ruhá	-9.6121
▁erősít	-9.61233
▁zöld	-9.61359
▁friss	-9.6136
▁rendelkezés	-9.6143
▁népszerű	-9.61486
andó	-9.61511
▁svájci	-9.61519
▁asszony	-9.61523
▁ennyi	-9.61543
▁kérte	-9.61792
hívás	-9.61807
▁Kovács	-9.6184
▁háború	-9.61873
▁katona	-9.61874
▁román	-9.61917
▁tudják	-9.61937
fu	-9.61953
▁mell	-9.61966
▁számlá	-9.62066
▁Bizottság	-9.62323
▁Kat	-9.62384
▁Tr	-9.62414
▁San	-9.62483
▁találtak	-9.6249
▁szokás	-9.62526
▁33	-9.62537
▁Bank	-9.62584
▁politiká	-9.62682
oldal	-9.62757
lyen	-9.62788
▁fideszes	-9.62808
▁témá	-9.62973
nce	-9.63079
▁társadalom	-9.63133
▁május	-9.63133
▁Szerinte	-9.63141
rány	-9.63159
▁II	-9.63183
▁Fő	-9.63223
▁por	-9.63312
▁épül	-9.63316
▁tavalyi	-9.63361
▁negyed	-9.63392
▁gyanúsított	-9.6341
▁társadalmi	-9.63459
▁vonal	-9.63515
▁w	-9.6358
▁lesznek	-9.63583
▁közvetlen	-9.63623
▁zajl	-9.63796
▁győztes	-9.63798
jön	-9.63918
▁Szabó	-9.6395
▁jövőben	-9.64045
▁vezetői	-9.6408
▁2011	-9.64082
▁kísér	-9.64083
▁Mol	-9.64104
▁ed	-9.64152
▁fogyasztás	-9.64176
▁tapasztalat	-9.64279
▁sajn	-9.64384
almas	-9.64384
▁Leg	-9.64554
▁36	-9.64722
▁szülő	-9.64736
▁Ste	-9.64789
▁említett	-9.64837
▁Ü	-9.64957
▁egészen	-9.6496
adott	-9.64965
org	-9.65014
szeg	-9.65043
▁hit	-9.65102
miatt	-9.65118
▁tűzoltó	-9.65271
▁személyes	-9.6529
▁hangulat	-9.65439
▁létez	-9.65527
▁heti	-9.65541
▁eh	-9.65576
osztály	-9.65653
▁esélye	-9.65658
▁értelme	-9.6578
▁járat	-9.65827
ékony	-9.65847
▁színész	-9.65861
▁tárgyalás	-9.65907
▁Bel	-9.65912
▁havi	-9.65976
▁ezre	-9.66097
▁gyakra	-9.66109
▁harmad	-9.66186
▁úgynevezet	-9.66274
▁blog	-9.66277
berg	-9.66321
▁úton	-9.66346
pol	-9.66347
▁Géza	-9.66444
enként	-9.66444
▁szel	-9.665
izs	-9.66508
▁Más	-9.6652
mód	-9.66727
ológus	-9.6678
▁adósság	-9.66784
▁diák	-9.66826
▁2006-	-9.66926
▁hajó	-9.66929
▁Tanács	-9.66949
▁sikeres	-9.67067
szín	-9.67225
▁versenyző	-9.67251
▁rang	-9.67326
vitel	-9.67491
▁szabályozás	-9.67502
▁nappal	-9.6753
▁lengyel	-9.67626
▁hozta	-9.67761
▁videó	-9.67797
▁férfiak	-9.67804
▁napokban	-9.6781
▁lőtt	-9.67816
▁minisztérium	-9.67967
X	-9.68044
▁rajta	-9.68204
▁Y	-9.68396
▁tartalm	-9.68409
▁profi	-9.68497
▁tol	-9.6853
▁visel	-9.68547
▁bar	-9.68584
▁300	-9.68601
▁terjed	-9.68654
zék	-9.68658
▁segítségével	-9.687
fogás	-9.68805
▁bajnok	-9.68854
▁hátrány	-9.69014
▁hány	-9.69112
▁LMP	-9.6917
▁idegen	-9.69177
▁attól	-9.69226
bont	-9.69265
zsa	-9.69281
▁Bal	-9.69316
▁ismeretlen	-9.69378
▁tervek	-9.69404
▁együttműködés	-9.6949
▁képvisel	-9.69535
▁kezdte	-9.69551
▁távoz	-9.69622
▁lop	-9.69622
▁kétszer	-9.69626
▁reform	-9.69691
▁portál	-9.69696
▁tudnak	-9.69741
▁szab	-9.69817
▁Központ	-9.69896
▁elnökség	-9.69933
▁délelőtt	-9.70048
▁működ	-9.70066
▁kapta	-9.70095
▁fizetni	-9.70118
W	-9.70322
▁Gu	-9.70384
▁nyomozás	-9.70497
▁liter	-9.70573
▁KA	-9.70587
állított	-9.70595
▁érdekes	-9.70603
▁téli	-9.70637
▁labdarúgó	-9.70738
origo	-9.70744
▁széles	-9.70774
▁részlet	-9.70782
▁körülmények	-9.70916
▁partner	-9.7093
▁módosítás	-9.70935
▁nekik	-9.71095
▁kezdet	-9.71142
▁alkalmazott	-9.71186
belül	-9.7122
▁győzelem	-9.71283
nder	-9.71331
▁kötet	-9.71355
▁vezette	-9.71393
▁pót	-9.71419
▁forgat	-9.71459
▁dal	-9.71549
▁győz	-9.71594
▁remény	-9.71631
▁őrizetbe	-9.71637
▁ajánlat	-9.71722
▁hord	-9.71736
▁Her	-9.71789
▁méret	-9.7179
▁osztrák	-9.71798
▁norm	-9.71985
▁életét	-9.72087
▁pl	-9.72107
▁civil	-9.72153
▁köszönhetően	-9.72153
▁kérdez	-9.72197
járó	-9.72381
határozott	-9.72383
▁lég	-9.72466
▁ütköz	-9.72518
▁számolt	-9.72554
▁szavazat	-9.72578
▁rendező	-9.72583
világ	-9.72653
▁közönség	-9.72692
▁hallgat	-9.72748
▁keretében	-9.72784
▁érint	-9.72799
▁szava	-9.72996
▁Pol	-9.73091
fr	-9.73114
▁Vár	-9.73251
▁előadás	-9.73395
▁mester	-9.7341
▁börtön	-9.73588
▁Ed	-9.73607
term	-9.73766
▁kemény	-9.73779
▁íz	-9.73861
▁természet	-9.73939
▁leginkább	-9.74013
▁levele	-9.74091
▁15-	-9.74124
▁gyártó	-9.74178
▁kölcsön	-9.74313
▁emelkedett	-9.74315
▁Vagy	-9.7432
▁gyógyszer	-9.74348
▁űr	-9.74476
▁szinten	-9.74495
▁hálózat	-9.74495
▁sincs	-9.74499
▁véli	-9.74656
▁londoni	-9.74678
▁Föld	-9.7468
ától	-9.74716
▁kategóriá	-9.75044
▁kulturál	-9.75044
ros	-9.75062
▁vezérigazgató	-9.75232
▁napja	-9.75368
▁javul	-9.75413
▁34	-9.75426
▁vereség	-9.7553
▁közleked	-9.75553
▁szent	-9.75563
▁tartani	-9.75583
▁támad	-9.75683
▁reagál	-9.7578
▁felnőtt	-9.7578
▁vasút	-9.75781
▁had	-9.7587
▁futam	-9.75911
▁gyógy	-9.75964
ntikv	-9.75965
▁áram	-9.76016
▁000	-9.76123
▁pályán	-9.76145
▁Győr	-9.76199
▁igazság	-9.76294
▁mutató	-9.76336
▁nyug	-9.76395
▁mértékben	-9.76397
▁emlékez	-9.76398
▁helyet	-9.76425
▁gondolkod	-9.76476
▁egyház	-9.76552
▁ismertet	-9.76614
uta	-9.76649
▁Kor	-9.76677
▁Igaz	-9.76708
▁szociális	-9.76726
kerül	-9.7673
▁Elő	-9.76917
▁37	-9.7703
▁működő	-9.77058
▁Ter	-9.77162
▁forintra	-9.77262
▁Oroszország	-9.77268
dar	-9.77334
vo	-9.77336
▁ától	-9.774
▁állította	-9.7745
▁Hozzátette	-9.77456
▁jég	-9.77459
▁Csaba	-9.77459
▁Főváros	-9.77466
piac	-9.77486
▁bejelentés	-9.7749
▁amennyi	-9.77575
▁ajándék	-9.77644
höz	-9.77703
▁teremt	-9.77713
▁töltött	-9.77741
zük	-9.77745
fej	-9.77772
▁vezér	-9.77775
▁Hivatal	-9.77832
▁Kö	-9.77838
▁határozat	-9.77851
▁komp	-9.77893
▁százalékát	-9.77912
vin	-9.77948
▁lezár	-9.78013
▁javasol	-9.78022
▁Tibor	-9.78026
▁művészet	-9.78083
sson	-9.78209
▁kapcsán	-9.78211
▁csúsz	-9.78215
▁ideje	-9.78225
▁jellemző	-9.78229
▁fedez	-9.78231
▁30-	-9.78358
▁vonat	-9.78386
▁tájékoztat	-9.78397
▁index	-9.78399
▁ellátás	-9.78426
▁működik	-9.78479
▁éből	-9.78562
▁panasz	-9.78593
▁régió	-9.78648
▁tartják	-9.78669
▁gyakorlati	-9.78704
▁zene	-9.78728
▁görög	-9.78779
ung	-9.78819
▁kedvező	-9.78826
▁tartoz	-9.78993
▁tanú	-9.79116
wa	-9.79132
lkotmánybíróság	-9.7916
▁regény	-9.79163
▁dr	-9.79268
▁engedély	-9.79373
▁kórházba	-9.79468
▁június	-9.79543
▁csillag	-9.79543
▁megtalál	-9.79553
▁venni	-9.79575
É	-9.79576
▁sziget	-9.79583
;	-9.79598
▁alkalm	-9.79616
▁hegy	-9.79659
▁érdem	-9.79685
▁körében	-9.79694
▁iránt	-9.79735
▁'	-9.7974
▁kezdeményez	-9.79883
▁csökkenés	-9.79926
▁pozíció	-9.79927
▁lehetővé	-9.80122
▁remek	-9.80155
▁eszközök	-9.8018
▁szabadság	-9.8019
▁akad	-9.80207
▁ötlet	-9.80293
und	-9.80298
zák	-9.80307
▁mu	-9.80356
▁lépett	-9.80381
q	-9.80473
▁lehetőséget	-9.80489
▁sztrájk	-9.80506
▁benzin	-9.8052
ítja	-9.80538
▁195	-9.8055
▁ügyvéd	-9.80701
súly	-9.80755
▁Balázs	-9.80895
▁hatékony	-9.80953
▁bajnoki	-9.80954
▁fr	-9.81071
▁tiltakoz	-9.81095
▁fekete	-9.81107
▁védekez	-9.81127
▁tudjuk	-9.81182
▁No	-9.81225
▁Országgyűlés	-9.81284
▁változ	-9.81318
▁alacsony	-9.81453
▁vették	-9.81471
▁minősít	-9.81479
▁erőszak	-9.81484
▁vb	-9.81586
▁büntetés	-9.81608
▁mozgás	-9.81675
▁nevezte	-9.8168
▁levél	-9.81681
▁enyh	-9.81682
▁televízió	-9.81871
▁Vég	-9.8208
▁hajnal	-9.82103
▁Ger	-9.82113
▁múlva	-9.82121
▁bíró	-9.82182
▁meghalad	-9.8228
▁légi	-9.82404
▁nyújtott	-9.8251
▁állítólag	-9.8266
▁kifizet	-9.82776
zetközi	-9.82825
▁Károly	-9.82858
tartó	-9.82931
▁pénztár	-9.82994
▁szakemberek	-9.83015
▁résztvevő	-9.83055
▁figyelmeztet	-9.83056
▁szellem	-9.83057
▁svéd	-9.83059
ímkék	-9.83082
▁nyilvánosságra	-9.83254
▁főleg	-9.83286
TE	-9.83306
▁kereskedelm	-9.83464
▁hirdet	-9.8352
▁biztosan	-9.83535
▁megyében	-9.83578
▁tartozó	-9.8361
▁emlékeztet	-9.83688
▁esti	-9.83803
▁harminc	-9.83853
▁hagyományos	-9.8386
▁eredmények	-9.83899
▁Inter	-9.83936
▁kötelezettség	-9.84055
▁születés	-9.84062
▁Ér	-9.84069
▁akarta	-9.84151
▁mennyi	-9.84173
▁melyek	-9.84184
▁időjárás	-9.84254
▁Imre	-9.84264
rendszer	-9.84286
irodalom	-9.8447
▁szenvedett	-9.84653
▁probléma	-9.84657
▁John	-9.84659
▁rádió	-9.84661
▁elemzés	-9.84661
▁eleme	-9.84711
▁ába	-9.84767
▁könnyű	-9.85107
▁kapcsolód	-9.85111
tatott	-9.85136
▁jét	-9.85138
▁ennél	-9.85188
▁végrehajt	-9.85197
▁képzés	-9.85267
▁Pécs	-9.85267
▁szűk	-9.85294
▁pártok	-9.85444
▁valóság	-9.85448
▁kezdett	-9.85464
▁olcsó	-9.85469
▁részén	-9.8564
▁levegő	-9.85672
becsül	-9.85757
▁okozott	-9.85769
▁esetleg	-9.85864
▁kizárólag	-9.85876
▁kapus	-9.859
▁nyitott	-9.85917
▁vonul	-9.85948
▁alakult	-9.86051
▁Szeged	-9.86081
▁lista	-9.86219
▁Aki	-9.86279
▁Bíróság	-9.86285
▁ural	-9.86421
▁problémák	-9.86489
▁ellentét	-9.86498
▁támadó	-9.86569
▁pálya	-9.86705
▁kereszt	-9.86844
▁Real	-9.86856
ódás	-9.87039
▁kommunikáció	-9.87068
▁rajt	-9.87096
▁nemrég	-9.87116
gyilkos	-9.87314
▁szolgáltató	-9.87348
▁szal	-9.87355
▁teher	-9.87355
építés	-9.87399
▁poszt	-9.87497
▁emelkedés	-9.87512
▁vállalkozó	-9.87524
▁területén	-9.87666
▁befektetés	-9.87731
▁Persze	-9.87731
▁vehet	-9.87769
▁látta	-9.87816
▁bőr	-9.8787
▁boldog	-9.8794
▁pat	-9.87988
▁ezút	-9.88015
▁augusztus	-9.88148
▁komment	-9.8815
▁ukat	-9.88251
▁Év	-9.88279
▁szakértők	-9.883
▁érdeklőd	-9.88318
▁pontot	-9.8832
▁Debrecen	-9.88357
▁tábor	-9.88359
▁megnyer	-9.88368
▁rendszeres	-9.88462
▁centiméter	-9.88567
▁pozitív	-9.88567
▁köztü	-9.88571
▁mód	-9.88619
▁vásárlás	-9.88651
▁vezetett	-9.88652
▁juttat	-9.88736
▁fiatalok	-9.88753
▁másodperc	-9.88777
▁tartózkod	-9.88779
▁Észak	-9.8878
▁veszteség	-9.88799
▁magam	-9.88879
olta	-9.89083
▁nyílt	-9.89099
▁szánt	-9.89125
▁honlap	-9.89151
tatta	-9.89163
▁tavasz	-9.89199
▁tartozik	-9.89255
▁étel	-9.89275
▁alkalmas	-9.89305
▁súly	-9.89389
társa	-9.89413
Az	-9.89419
▁hírek	-9.89425
▁okozta	-9.89436
▁felhasználó	-9.89505
▁7-	-9.89591
▁Tóth	-9.89624
▁látszik	-9.89627
▁196	-9.89693
ley	-9.89757
▁ügyészség	-9.89759
▁fejlődés	-9.89809
▁külső	-9.89839
▁felső	-9.8986
▁büntető	-9.89863
▁oldalon	-9.89875
▁kezé	-9.89894
▁GDP	-9.90047
▁belőle	-9.90049
▁szembe	-9.90079
szerint	-9.90083
▁lehetséges	-9.90299
▁rejt	-9.90326
▁adni	-9.90384
▁Tor	-9.90391
▁másfél	-9.90475
▁különleges	-9.90475
▁intézkedések	-9.90609
▁szabályok	-9.90639
▁alak	-9.90714
▁műve	-9.90723
▁demokrat	-9.90772
▁szerepet	-9.90774
▁of	-9.90852
J	-9.90901
▁reklám	-9.90903
▁továbbá	-9.90983
▁11-	-9.91031
▁művész	-9.91063
▁Ker	-9.91094
▁Horvát	-9.91118
▁japán	-9.91121
▁évente	-9.91131
▁alapvető	-9.91139
▁világbajnokság	-9.91141
idő	-9.91214
ama	-9.91223
▁finanszírozás	-9.9133
▁illetékes	-9.91333
abi	-9.91377
▁Ru	-9.91394
▁38	-9.91519
jába	-9.91522
igazgató	-9.91542
▁többsége	-9.91542
▁konkrét	-9.91549
▁révén	-9.91549
▁kod	-9.91711
▁előfordul	-9.91766
▁vádlott	-9.91767
▁falu	-9.91842
▁Rá	-9.91932
▁közelében	-9.91949
▁Anna	-9.9196
&	-9.91983
▁örül	-9.92004
▁területek	-9.92108
▁hatály	-9.9216
▁ingyen	-9.92202
▁rekord	-9.92211
▁kever	-9.92212
emelked	-9.92318
▁Népszabadság	-9.92418
▁infláció	-9.92418
▁Tovább	-9.92418
▁2007-	-9.92455
▁szóvivő	-9.92557
▁jával	-9.9262
▁július	-9.92636
▁befolyásol	-9.92638
▁káros	-9.92744
▁némi	-9.92759
▁rengeteg	-9.92855
▁várakozás	-9.92855
▁dísz	-9.92856
▁terror	-9.92856
▁öröm	-9.92857
▁bevezet	-9.9302
▁sokszor	-9.93031
▁ered	-9.93065
▁stílus	-9.93074
▁park	-9.9309
▁nevel	-9.93128
dzs	-9.93144
▁Kom	-9.93191
▁Franciaország	-9.93294
▁szomszéd	-9.93294
▁elérhető	-9.93296
▁tetsz	-9.93388
▁megpróbál	-9.93432
▁tartomány	-9.93735
kodó	-9.93827
▁mutatja	-9.93924
▁botrány	-9.93957
▁percben	-9.93967
▁hús	-9.94074
▁képesség	-9.9414
▁gyengül	-9.94178
▁példa	-9.94179
▁menet	-9.94222
▁kapitány	-9.94251
▁anya	-9.94298
▁Én	-9.94314
▁visz	-9.94338
KDNP	-9.944
▁hajlandó	-9.94401
▁terhe	-9.94542
víz	-9.94585
▁éjszaka	-9.94623
▁rögzít	-9.94623
▁napilap	-9.94626
▁rendelkező	-9.9463
▁árul	-9.94638
▁fenn	-9.94688
▁tanár	-9.94692
▁százalékot	-9.9471
▁intézkedés	-9.94711
▁faj	-9.94712
▁vidék	-9.94766
▁nyilatkoz	-9.94925
▁politika	-9.94981
ford	-9.94995
▁mobil	-9.9508
▁Micha	-9.9509
törés	-9.95125
▁újság	-9.9538
▁42	-9.95417
▁sztár	-9.9545
szerte	-9.95488
▁kiváló	-9.9552
hessen	-9.95548
állt	-9.95549
▁hatalom	-9.95641
▁tökéletes	-9.95744
▁élelmiszer	-9.95744
▁vevő	-9.95748
▁felhív	-9.95749
▁sebesség	-9.95783
▁aláír	-9.95786
cu	-9.9581
▁elmond	-9.95828
▁nyomoz	-9.95923
laszt	-9.95944
▁Varga	-9.9597
▁szünet	-9.9597
▁ügyek	-9.96107
▁üzenet	-9.96196
▁állandó	-9.96261
▁Ilyen	-9.96278
▁munkavállaló	-9.96423
▁egyaránt	-9.96423
▁ellát	-9.96439
▁állítja	-9.96486
▁bírál	-9.96491
▁mondani	-9.96561
▁55	-9.96574
▁kerülhet	-9.96614
▁források	-9.96636
▁elkezd	-9.96645
▁szerkezet	-9.9665
▁hivatkozva	-9.9671
▁kiderül	-9.96713
▁intézet	-9.96739
▁terhel	-9.96779
▁közleményében	-9.96818
ssé	-9.96868
▁műszaki	-9.96878
▁érkező	-9.96883
▁honlapján	-9.96931
hatóság	-9.96976
jött	-9.96995
▁gazdag	-9.97031
▁kialakul	-9.97033
nov	-9.97183
▁Nagyon	-9.97271
▁meglepetés	-9.97335
▁cseh	-9.97352
kötő	-9.97465
▁szórakoz	-9.97565
▁menekül	-9.97566
▁elkövetet	-9.97606
▁pályára	-9.97728
▁helyszínen	-9.97733
▁194	-9.97768
▁Nép	-9.97803
▁szakszervezet	-9.97815
ológiai	-9.97862
▁kaptak	-9.97918
▁tétel	-9.9792
▁Duna	-9.97939
▁TV	-9.98001
▁hozzátette	-9.98031
hor	-9.98049
▁vegye	-9.98064
csoport	-9.98122
▁növek	-9.98132
kedő	-9.98268
milyen	-9.9828
▁400	-9.98291
▁biztosítás	-9.98292
▁időszakban	-9.98302
online	-9.98326
előtt	-9.98354
▁jelöl	-9.98364
▁téve	-9.98399
▁Google	-9.98487
▁para	-9.98608
ődött	-9.98646
▁nekem	-9.98672
jog	-9.98718
▁birtok	-9.98719
▁hőmérséklet	-9.98719
▁váltó	-9.9886
ston	-9.98931
▁sáv	-9.98981
emelés	-9.99156
junk	-9.992
▁döntetlen	-9.99218
▁szavazás	-9.99233
▁sikerül	-9.99399
▁feljelentés	-9.99418
▁bázis	-9.99419
▁utak	-9.99561
▁Pest	-9.9965
▁elmarad	-9.99657
▁hamis	-9.99676
szerző	-9.99737
▁csodá	-9.99743
▁ötven	-9.99791
▁technika	-9.99887
▁rajz	-9.99896
▁meglepő	-9.99915
fajta	-9.99918
▁FC	-9.99988
▁ismeret	-10.0004
▁számítógép	-10.0012
lassan	-10.0013
osztás	-10.0013
▁Jan	-10.0017
por	-10.0021
▁szerb	-10.0024
európai	-10.0025
▁Itt	-10.0028
ipar	-10.0032
▁75	-10.0033
▁tilt	-10.0033
▁híres	-10.0034
hit	-10.0037
ová	-10.0037
▁Akkor	-10.0045
▁üket	-10.005
▁helyzetben	-10.0051
▁fent	-10.0061
▁eladás	-10.0063
▁valamennyi	-10.0083
▁szerezte	-10.0083
▁jegybank	-10.0084
▁kaphat	-10.0087
észeti	-10.0088
▁dolgok	-10.0095
▁erej	-10.0098
▁Madrid	-10.0107
állomány	-10.011
▁plusz	-10.0111
▁megjelen	-10.0133
kezelő	-10.0138
▁akarja	-10.014
▁dolgozott	-10.0142
▁apró	-10.0153
kupa	-10.0159
▁kkal	-10.0164
▁biztosító	-10.0168
bil	-10.0169
nyal	-10.0175
▁szed	-10.0176
▁vettek	-10.0176
▁PL	-10.0178
▁Szabolcs	-10.0179
▁tőke	-10.0179
▁piacon	-10.0185
▁font	-10.0188
▁zené	-10.019
▁letartóztatás	-10.0203
▁megfigyel	-10.0203
que	-10.0207
▁magukat	-10.0207
▁államfő	-10.0227
▁remél	-10.0227
▁Ön	-10.0229
▁tudományos	-10.023
▁sejt	-10.0232
▁testvér	-10.0252
vetett	-10.0254
▁hiába	-10.0256
▁meghalt	-10.0261
▁számában	-10.0263
▁Szlovák	-10.0275
▁szegény	-10.0275
▁vádol	-10.0275
▁ügyében	-10.0293
▁veszélyes	-10.0298
▁koncert	-10.0299
▁öltöz	-10.0299
▁ötödik	-10.0299
▁értelmé	-10.0299
tétel	-10.0299
▁katoná	-10.0308
▁fejleszt	-10.0324
▁2007	-10.0327
▁érzés	-10.0329
▁tették	-10.0329
▁Ó	-10.0343
hallgatás	-10.0355
jék	-10.0359
▁Minisztérium	-10.0372
▁legyőz	-10.0372
▁mesél	-10.0373
▁termelés	-10.0375
▁Antal	-10.0377
▁holland	-10.0377
▁mondott	-10.0377
őrök	-10.0379
▁felkészül	-10.0397
▁sújt	-10.0398
▁keletkez	-10.0404
▁39	-10.0409
▁cent	-10.0412
▁irodá	-10.0421
▁oper	-10.0424
▁szempontból	-10.0424
▁részletes	-10.0425
állító	-10.043
felje	-10.0432
cal	-10.0432
orvos	-10.044
▁indítvány	-10.0448
▁élvez	-10.0449
▁gumi	-10.0451
ellyel	-10.0454
▁Fehér	-10.047
▁kétharmad	-10.047
ánnyal	-10.0481
▁mindez	-10.0494
▁termékek	-10.0495
▁mozi	-10.0504
hajtás	-10.0509
▁Obama	-10.052
▁Forma	-10.0527
▁Ros	-10.0532
állítani	-10.0537
koreai	-10.0543
▁Manchester	-10.0544
▁zsidó	-10.0544
▁negyven	-10.0544
▁frank	-10.0545
▁Mark	-10.0559
▁gyártás	-10.059
+	-10.059
▁sofőr	-10.0594
▁kulcs	-10.0596
▁tartanak	-10.0606
▁számított	-10.0619
nagy	-10.0625
▁fogalmaz	-10.0627
▁bizony	-10.0633
▁tájékoztatása	-10.0634
▁játszik	-10.0636
▁befektetők	-10.0642
▁SZDSZ	-10.0644
▁illető	-10.0645
▁követő	-10.0647
▁Ott	-10.0648
▁bővül	-10.0653
▁41	-10.0664
▁48	-10.0665
▁elképzelés	-10.0669
▁hozzájárul	-10.0669
▁hallgató	-10.0681
▁fogadta	-10.0683
▁elkerül	-10.0688
▁korrupció	-10.0695
▁közgyűlés	-10.0697
▁tanácsadó	-10.0703
▁esetek	-10.0705
▁izraeli	-10.072
jében	-10.0728
▁esetleges	-10.0735
▁Három	-10.0745
▁fagy	-10.0746
▁bizonytalan	-10.0747
▁Med	-10.0749
▁jelezte	-10.0754
▁Mindez	-10.0758
▁alacsonyabb	-10.0765
▁páros	-10.0768
három	-10.0769
▁adja	-10.077
▁Nov	-10.0773
művész	-10.0775
▁fölött	-10.0778
▁utazás	-10.0784
biztonság	-10.0794
▁megvalósít	-10.0796
▁fáj	-10.0802
▁ágy	-10.0809
▁tető	-10.0811
▁közvetít	-10.0822
▁szeretne	-10.083
▁mennyire	-10.083
▁hamarosan	-10.0847
▁nyáron	-10.0847
▁baloldal	-10.0849
▁Össze	-10.0864
▁Robert	-10.0873
▁tárca	-10.0873
▁44	-10.0874
▁lövés	-10.0874
▁alkalmazás	-10.0888
▁tájékoztatás	-10.0891
▁valamely	-10.0898
▁megszűn	-10.0898
▁figyelembe	-10.0904
▁tehetség	-10.092
szervezet	-10.0922
▁válik	-10.0922
ügyminisztérium	-10.0924
▁szocialisták	-10.0924
▁létszám	-10.0924
▁City	-10.0924
▁voks	-10.0927
▁Pro	-10.0928
▁bemutató	-10.0931
▁táj	-10.0937
▁intézmények	-10.0939
▁Veszprém	-10.095
▁verzió	-10.095
▁modern	-10.095
▁dolgozik	-10.0953
▁érdeklődés	-10.0956
▁szex	-10.097
▁élmény	-10.0972
▁vonatkoz	-10.0987
▁150	-10.0988
▁észre	-10.0994
▁Európában	-10.1002
▁megszüntet	-10.1002
▁brut	-10.1003
▁PK	-10.1013
tatni	-10.1017
▁könnyebb	-10.1018
▁rendelet	-10.1019
▁közepén	-10.1021
▁horvát	-10.1028
▁elérni	-10.103
lépés	-10.1032
▁környék	-10.1044
▁sötét	-10.1054
▁Gal	-10.1055
▁alkotás	-10.1057
esztő	-10.1062
▁készültség	-10.1073
▁érintő	-10.1076
▁deviza	-10.108
▁tudósít	-10.1081
avaly	-10.1088
▁Col	-10.1097
%	-10.1106
▁Mihály	-10.1107
arázs	-10.111
▁részvétel	-10.1117
▁kezdődött	-10.1118
▁temet	-10.112
viselő	-10.1128
▁szurkoló	-10.1133
▁tudomány	-10.1134
▁csatár	-10.114
váltás	-10.1145
▁elme	-10.1152
▁bolt	-10.1155
▁stabil	-10.1158
▁kifejezett	-10.1159
▁végéig	-10.1159
▁Balaton	-10.1159
▁vall	-10.1171
▁cserél	-10.1176
▁létrehoz	-10.1181
▁kollégá	-10.1186
▁Nyugat	-10.1186
▁felfüggeszt	-10.1186
▁szuper	-10.1186
▁vadász	-10.1186
▁érv	-10.1187
▁melyik	-10.119
újabb	-10.1197
▁vágy	-10.1212
▁múzeum	-10.1212
▁negatív	-10.1212
▁szoros	-10.1217
▁nyomán	-10.1221
▁jelentett	-10.1223
▁tudták	-10.1224
▁hiba	-10.1226
▁ugyanaz	-10.1237
▁rajongó	-10.1239
▁híd	-10.1239
▁Kína	-10.1239
▁Gyula	-10.1239
▁álláspont	-10.1243
▁száj	-10.1245
▁azoknak	-10.1253
kormány	-10.1259
▁összefüggés	-10.126
▁gyilkosság	-10.1266
▁hatalm	-10.1274
▁időpont	-10.1283
▁következménye	-10.1288
▁magazin	-10.1292
▁rosszul	-10.1301
▁láthat	-10.1311
▁eit	-10.1315
▁nagykövet	-10.1319
zsák	-10.1321
▁színház	-10.1326
▁hétvégén	-10.1329
▁valah	-10.1342
▁ánál	-10.1342
▁emelés	-10.1342
▁gondolat	-10.1345
▁Mesterházy	-10.1346
▁öreg	-10.1347
▁befejez	-10.1347
▁folytatás	-10.1347
▁feltételez	-10.1348
▁védelem	-10.135
▁csökkentés	-10.1357
▁munkájá	-10.1364
éldául	-10.1369
▁átalakítás	-10.1373
▁vásárló	-10.1374
▁bizalm	-10.1377
▁háttér	-10.138
▁kialakít	-10.1388
▁velük	-10.139
▁Állam	-10.1391
▁Chi	-10.1392
▁díjat	-10.1393
▁számíthat	-10.1395
▁mérleg	-10.1397
▁cigány	-10.14
▁foglalkoztat	-10.1408
nyomás	-10.1421
▁késő	-10.1425
▁szobá	-10.1432
▁felesége	-10.1433
▁jelenség	-10.1442
▁65	-10.145
▁Bajnai	-10.1454
▁labdá	-10.1454
▁hasonlít	-10.1454
▁ügynök	-10.1454
▁belvíz	-10.1456
▁bejelentette	-10.1457
választott	-10.1467
▁United	-10.1481
▁igyekez	-10.1481
▁hasznos	-10.1482
terv	-10.1493
nter	-10.15
▁működtet	-10.1508
ékeny	-10.1517
Ú	-10.1536
▁ismerős	-10.1538
▁43	-10.1544
▁2000	-10.1565
▁napján	-10.1567
▁jobboldal	-10.1567
▁olvashat	-10.1584
▁járulék	-10.1591
▁médiatörvény	-10.1592
▁kapcsol	-10.1593
▁magunk	-10.1597
▁élén	-10.1609
▁bejelent	-10.161
▁sír	-10.1614
▁Intézet	-10.1619
▁részletek	-10.1629
pedi	-10.1638
▁hívta	-10.1646
▁beszámoló	-10.1646
▁ront	-10.1648
▁hullám	-10.1648
▁Franc	-10.1648
▁NB	-10.1649
ebek	-10.1654
▁abból	-10.1655
▁tárgyalások	-10.1664
▁körzet	-10.1669
▁történik	-10.1669
▁köztársaság	-10.1674
▁foci	-10.1675
▁tanít	-10.1685
▁végére	-10.1688
rüsszel	-10.1702
▁BBC	-10.1702
▁gyűl	-10.1711
▁pszich	-10.1717
▁46	-10.172
▁Buda	-10.1722
▁feleség	-10.173
▁veszélyeztet	-10.173
▁utat	-10.1737
hirdetés	-10.1741
▁vendégek	-10.1744
▁hétvég	-10.1748
▁OTP	-10.1758
▁Ráadás	-10.176
odor	-10.1763
intézet	-10.177
▁megegyez	-10.1784
▁felfedez	-10.1786
▁Tisza	-10.1788
▁web	-10.179
▁2006	-10.1798
▁annál	-10.1803
▁tisztelet	-10.1804
▁Andr	-10.1811
▁esztendő	-10.1814
▁számítás	-10.1818
▁megkap	-10.182
▁kilátás	-10.1842
▁szenny	-10.1844
gyűjtött	-10.1851
▁cseré	-10.1852
▁váltott	-10.1852
bajnokság	-10.1856
fejtette	-10.1856
▁49	-10.1856
▁Facebook	-10.1871
▁MÁV	-10.1871
▁alkohol	-10.1871
▁csatorná	-10.1871
▁kiegészít	-10.1871
▁karrier	-10.1871
▁torná	-10.1872
▁kém	-10.1873
▁művel	-10.1885
▁bizonyíték	-10.1891
▁sorol	-10.1893
▁játszó	-10.1896
▁oldalán	-10.1898
▁Chris	-10.1899
▁tagállam	-10.1899
▁legfő	-10.19
első	-10.1908
▁ügyvezető	-10.1908
▁megjelenés	-10.1913
▁vallás	-10.1913
sziget	-10.1918
▁úsz	-10.1921
▁megtakarítás	-10.1928
▁templom	-10.1928
▁Times	-10.1928
▁áru	-10.1931
▁sportoló	-10.1934
Y	-10.1942
▁borít	-10.1948
▁másod	-10.1948
▁hajtott	-10.1952
▁megsérült	-10.1956
▁táblá	-10.1956
▁pap	-10.1964
▁ponttal	-10.1967
▁kisebbség	-10.197
▁igénybe	-10.1978
▁Dávid	-10.1985
▁havazás	-10.1985
▁főpolgármester	-10.2014
▁legmagasabb	-10.2014
▁szoftver	-10.2014
▁fórum	-10.2014
▁mezőny	-10.2014
▁szempontjából	-10.2015
▁Pénz	-10.2015
▁nyilatkozott	-10.2038
▁Euro	-10.2038
▁iroda	-10.204
▁segély	-10.2043
▁találták	-10.2046
▁büntet	-10.2049
▁viselked	-10.205
orosz	-10.2053
lévő	-10.2062
▁elődöntő	-10.2075
▁Mor	-10.208
szabad	-10.2088
▁kert	-10.2089
▁koncepció	-10.21
▁méltó	-10.21
▁tegnap	-10.2101
alapítvány	-10.2101
▁viszonylag	-10.2106
off	-10.2128
▁feldolgoz	-10.213
▁Mercedes	-10.213
▁előrejelzés	-10.213
▁Tud	-10.213
▁költöz	-10.213
▁érzi	-10.2135
▁küldött	-10.2138
▁gyűjt	-10.2161
▁képviselője	-10.2179
▁mutatott	-10.2182
▁rúg	-10.2182
▁hírügynökség	-10.2188
▁divat	-10.2189
▁értékesítés	-10.22
elszámolás	-10.22
▁56	-10.2207
▁kerek	-10.2215
▁határidő	-10.222
táv	-10.2224
▁fölé	-10.2228
rov	-10.2235
▁anti	-10.2245
ereskedelmi	-10.2245
▁hagyomány	-10.2246
▁kijelentette	-10.2247
▁lóerő	-10.2247
▁emelte	-10.2247
▁alsó	-10.2249
látó	-10.2259
▁készülék	-10.226
▁Görögország	-10.2276
▁London	-10.2276
▁tartalék	-10.2276
▁tagad	-10.2277
▁Mal	-10.2283
▁mondhat	-10.2311
▁kezdeményezés	-10.2313
▁szerelm	-10.2326
▁hős	-10.2327
▁Spanyolország	-10.2335
▁finom	-10.2336
▁egymással	-10.2341
katasztrófa	-10.2363
▁rivális	-10.2365
▁ukrán	-10.2365
▁messze	-10.2365
▁roml	-10.2373
▁rendelkezik	-10.2389
▁villamos	-10.2395
▁csőd	-10.2397
▁színésznő	-10.2398
▁tájékoztatta	-10.2417
▁üveg	-10.2425
▁győzelme	-10.2425
▁David	-10.2425
▁bocsát	-10.2425
▁épített	-10.244
▁pihen	-10.2455
▁kedvenc	-10.2457
▁Fotó	-10.2458
▁nevezet	-10.2488
▁forgalm	-10.2489
▁nincsenek	-10.249
▁Párt	-10.2492
▁támogatott	-10.2496
▁47	-10.2506
▁vaj	-10.2508
▁Róbert	-10.2546
▁Washington	-10.2546
▁szerkesztő	-10.2546
▁hátsó	-10.2547
▁egyetért	-10.255
▁ápol	-10.2552
▁nyereség	-10.2564
▁felhasznál	-10.2569
film	-10.257
ismerte	-10.257
▁olimpiá	-10.2576
▁huszon	-10.2576
▁1-0	-10.2584
▁csont	-10.2586
▁seb	-10.2589
▁szigorú	-10.2591
kibocsátás	-10.2607
▁kedvezmény	-10.2607
▁képtelen	-10.2657
terület	-10.2661
választás	-10.2662
▁jellem	-10.2665
▁látványos	-10.2668
vette	-10.2671
▁mégsem	-10.2671
▁történelem	-10.2674
▁keresztény	-10.2676
▁tárol	-10.2685
szívesen	-10.2697
▁Izrael	-10.2699
▁brazil	-10.2699
haszn	-10.2707
magyar	-10.2724
▁felügyelet	-10.2729
▁Kíná	-10.2736
▁menni	-10.2736
▁néha	-10.2745
bizottság	-10.2756
▁számítani	-10.2759
▁Múzeum	-10.276
▁ausztrál	-10.276
▁jellegű	-10.276
▁Pedi	-10.2763
▁vicc	-10.2766
▁segített	-10.2768
▁édes	-10.2773
▁mondták	-10.2776
ionális	-10.2778
▁ájá	-10.2787
▁kanadai	-10.2791
▁félidő	-10.2797
▁ütem	-10.2803
▁Ház	-10.2806
tevő	-10.2807
▁roma	-10.2811
▁állapít	-10.2811
íl	-10.2812
▁USA	-10.2823
▁kutyá	-10.2823
▁tánc	-10.2826
▁edzés	-10.2831
▁vonz	-10.2837
amerikai	-10.285
▁közvélemény	-10.2854
▁felújítás	-10.2854
▁önmagá	-10.2854
▁Külön	-10.2854
▁foglalkoztatás	-10.286
▁fejlőd	-10.2862
▁oldala	-10.2881
▁keze	-10.2888
▁felhő	-10.2889
ütés	-10.2891
▁süt	-10.2901
▁vív	-10.2905
kutatás	-10.2914
▁üzemanyag	-10.2919
▁tényező	-10.2921
▁Bull	-10.2925
▁nyugdíjas	-10.2926
▁ilyenkor	-10.2928
▁üt	-10.2928
▁alapító	-10.2936
▁rendelkez	-10.2943
▁verte	-10.2943
▁növény	-10.2948
afrikai	-10.2948
▁nyúl	-10.2949
▁vezetőjé	-10.2953
▁adatokat	-10.2958
▁környékén	-10.2961
▁éjjel	-10.298
▁Talá	-10.2997
▁ülésén	-10.3
▁Miskolc	-10.3012
▁1,3	-10.3013
▁ütött	-10.3016
▁ajtó	-10.3016
▁mutatkoz	-10.3023
csapat	-10.3042
fganisztán	-10.3043
▁immár	-10.3043
▁kezdődik	-10.3043
▁korszak	-10.3044
▁változott	-10.3046
▁idejé	-10.307
▁gyenge	-10.3075
▁finanszíroz	-10.3076
▁Első	-10.3077
felől	-10.3094
▁visszaesés	-10.3103
▁mikro	-10.3113
▁frakció	-10.3138
Á	-10.3138
▁figyelem	-10.3139
▁gyakorol	-10.314
▁elégedett	-10.3145
▁ellenfele	-10.3146
▁Pal	-10.3148
ellenes	-10.3157
▁török	-10.3169
▁tucat	-10.3172
▁Barcelona	-10.3172
▁euróövezet	-10.3172
▁stratégia	-10.3172
▁Könyv	-10.3172
▁értesít	-10.3175
▁Gól	-10.3176
▁választókerület	-10.3204
▁csapadék	-10.3204
▁gyalog	-10.3204
▁kereskedő	-10.3208
osztott	-10.3215
▁vélt	-10.3231
▁földrengés	-10.3237
▁kerékpár	-10.3237
▁eltérő	-10.3237
▁dől	-10.324
▁repül	-10.3249
▁helyezett	-10.3268
▁hadsereg	-10.3269
▁Múlt	-10.3269
▁berendezés	-10.3269
▁hatására	-10.3271
▁ablak	-10.3272
vállalás	-10.3273
▁visszaélés	-10.3275
▁rendezés	-10.3286
▁mindenképp	-10.3295
▁képzel	-10.3311
▁bárki	-10.3314
ozzák	-10.3331
▁adhat	-10.3331
▁Lengyelország	-10.3335
▁ágazat	-10.3335
▁vörös	-10.3335
▁kormánypárt	-10.3335
▁itthon	-10.3335
▁drog	-10.3342
-10	-10.3344
▁benyújt	-10.3368
▁Olaszország	-10.3368
▁repülőtér	-10.3372
▁termelő	-10.3387
▁Lehet	-10.339
▁irányítás	-10.3392
▁rögtön	-10.3401
▁ENSZ	-10.3401
▁Angeles	-10.3401
▁titok	-10.3403
történet	-10.3404
milliárd	-10.3404
▁irányító	-10.3411
▁tervei	-10.3417
▁Béla	-10.3435
▁közölt	-10.3449
▁gyanúsít	-10.3451
▁mandátum	-10.3467
=	-10.3467
▁egyesület	-10.3467
remier	-10.3468
▁rokon	-10.347
▁Rend	-10.3473
▁Áll	-10.3476
▁bármi	-10.3488
▁konfliktus	-10.35
▁államháztartás	-10.35
▁pilóta	-10.35
▁egyeztetés	-10.35
▁Korább	-10.3503
esetre	-10.3506
▁erősödött	-10.3534
▁táplál	-10.3534
▁fekvő	-10.3534
▁magyarázta	-10.3534
▁Jack	-10.3543
▁jének	-10.3548
▁Ár	-10.3564
▁Jelenleg	-10.3567
▁Néhány	-10.3567
▁jövedelm	-10.3567
▁piros	-10.3568
▁szorul	-10.3569
▁jelentőség	-10.3579
▁kritikus	-10.3601
▁hatvan	-10.3604
▁részéről	-10.3611
▁tartották	-10.3619
oalíció	-10.3635
▁2012-	-10.3635
▁közbeszerzés	-10.3635
▁meglehetős	-10.3635
▁kénytelen	-10.3635
▁sugár	-10.3635
▁hektár	-10.3635
▁szektor	-10.3635
▁fénykép	-10.3642
▁szorít	-10.3644
▁tisztáz	-10.366
▁meghatározó	-10.3669
▁értesülés	-10.3669
▁erdő	-10.3669
▁vitte	-10.3675
olnár	-10.3687
▁szigor	-10.3688
▁szexuális	-10.3703
▁vesztette	-10.3703
▁vihar	-10.3712
▁látogatás	-10.3731
ajtótájékoztatón	-10.3734
fizetett	-10.3734
▁búcsú	-10.3737
▁ügyfél	-10.3737
▁véleked	-10.3737
▁megítél	-10.3737
mail	-10.3743
▁személyiség	-10.3744
▁gomb	-10.3745
ight	-10.3771
▁végleges	-10.3771
▁export	-10.3774
▁megismer	-10.3795
▁kereslet	-10.3795
▁1-1	-10.3797
▁elmélet	-10.3805
▁Kelet	-10.3809
▁intéz	-10.3809
védő	-10.3811
▁önálló	-10.3813
▁Németh	-10.3814
▁okozhat	-10.3824
látás	-10.3826
▁konferenciá	-10.384
▁robbant	-10.384
▁2005-	-10.384
▁elhelyez	-10.3847
politikai	-10.385
▁nyíl	-10.3859
▁klasszikus	-10.3874
▁zuhan	-10.3874
▁Hagyó	-10.3875
▁világháború	-10.3876
könyv	-10.3885
▁próbálkoz	-10.3891
▁csend	-10.3898
▁szakad	-10.3905
pénzügyminiszter	-10.3909
▁professzor	-10.3909
▁Kapus	-10.3909
▁téma	-10.391
▁különadó	-10.3921
▁megkérdezett	-10.3923
▁dohány	-10.3944
▁beszélgetés	-10.3955
▁Bajnok	-10.3979
▁kislány	-10.3979
▁Blikk	-10.3979
▁1,5	-10.3981
ésőbb	-10.399
ssák	-10.4009
▁elhunyt	-10.4014
▁Ádám	-10.4014
▁Négy	-10.4014
▁esté	-10.4022
▁hangsúly	-10.4029
▁Szabad	-10.4049
▁réteg	-10.4049
csökkent	-10.4062
▁alól	-10.4066
▁színvonal	-10.4089
▁abba	-10.4091
vidék	-10.4098
▁erősebb	-10.41
telep	-10.4113
▁jövedelem	-10.412
▁koncentrál	-10.412
▁metró	-10.412
▁hvg	-10.4121
▁megelőző	-10.4156
▁Nincs	-10.4156
▁közzé	-10.4157
▁megerősítette	-10.4158
▁tekintette	-10.4161
▁elektronikus	-10.4191
▁kabinet	-10.4191
▁munkanélküliség	-10.4194
▁sportág	-10.4202
▁600	-10.4206
▁Színház	-10.4227
▁Természetes	-10.4227
Szolnok	-10.4228
▁egyenes	-10.4229
▁befektető	-10.4231
▁címvédő	-10.4232
zékesfehérvár	-10.4263
▁fellép	-10.4286
▁mondjuk	-10.4287
▁kidolgoz	-10.4299
▁külügyminiszter	-10.4299
▁speciális	-10.4299
▁minket	-10.43
▁kamerá	-10.4301
▁0-0	-10.4301
▁szoci	-10.4332
▁igyeksz	-10.4335
▁konzervatív	-10.4336
▁mozdul	-10.4336
▁hölgy	-10.4336
▁2-1	-10.4366
▁Arsenal	-10.4372
▁produkció	-10.4372
▁házasság	-10.4372
▁parkoló	-10.4374
▁csere	-10.4381
▁ejt	-10.4401
▁2-0	-10.4405
Q	-10.4408
▁generáció	-10.4408
▁menedzser	-10.4408
▁főnök	-10.4409
▁lemez	-10.4411
▁terjeszt	-10.442
hajtó	-10.4432
Arra	-10.4438
▁befoly	-10.4445
▁Chelsea	-10.4445
▁pilótá	-10.4445
▁felmerül	-10.4446
▁nyilvántartás	-10.4449
▁említ	-10.4478
▁IMF	-10.4482
▁gyűjtemény	-10.4482
▁hazánk	-10.4482
▁udvar	-10.4482
▁Martin	-10.4483
▁Olyan	-10.4484
▁akadály	-10.4515
▁átmeneti	-10.4519
▁Hétfő	-10.4519
▁érzékeny	-10.4519
utasította	-10.4519
▁mindegyik	-10.4519
▁vallomás	-10.4519
▁győzött	-10.4527
▁technológia	-10.4556
▁Amerika	-10.4556
▁elegendő	-10.4556
▁1990	-10.4557
▁sose	-10.4578
▁Ferrari	-10.4593
▁színpad	-10.4593
▁emleget	-10.4593
▁ígérete	-10.4595
▁értékesít	-10.4597
▁forma	-10.4624
▁globális	-10.463
▁önkéntes	-10.4631
▁szempont	-10.4635
▁izgalmas	-10.4668
▁Gergely	-10.4668
▁közlése	-10.4669
▁menetrend	-10.4672
▁barátnő	-10.4674
▁merénylet	-10.4705
▁államadósság	-10.4705
▁Király	-10.4705
▁bukkan	-10.4706
▁szárny	-10.471
▁üres	-10.4714
▁egységes	-10.4722
▁fürdő	-10.4743
▁érzékel	-10.4743
▁Bokros	-10.4743
ográf	-10.4743
▁közigazgatás	-10.4747
▁szereplés	-10.4752
▁közölték	-10.4756
▁múl	-10.4759
▁einek	-10.477
▁gépjármű	-10.4781
▁vírus	-10.4781
▁Lázár	-10.4781
▁front	-10.4785
▁szülei	-10.4811
▁összecsapás	-10.4819
▁BMW	-10.4819
NA	-10.4832
▁vetít	-10.4836
▁ciklus	-10.4857
▁illegális	-10.4857
▁elismerés	-10.4857
▁virág	-10.4857
▁magyarázat	-10.4857
▁kattint	-10.4857
▁köteles	-10.4859
▁nyugdíjrendszer	-10.486
▁hárma	-10.486
▁megfelel	-10.4863
▁szállították	-10.4864
▁gyorsabb	-10.488
▁Port	-10.4904
fertőz	-10.493
▁kommunist	-10.4934
▁elindul	-10.4934
▁megközelít	-10.4934
▁kinevez	-10.4934
▁lendül	-10.4934
▁rosszabb	-10.4945
▁bérlet	-10.4945
Ö	-10.4959
▁automat	-10.4972
▁hajléktalan	-10.4972
▁eltűnt	-10.4972
▁mezőgazdaság	-10.4972
▁Eredmény	-10.4972
▁Iroda	-10.4976
▁Közép	-10.4982
vezetés	-10.4989
▁legendá	-10.4998
▁gazdá	-10.5011
▁ellenőriz	-10.5011
▁bármely	-10.5011
mennyibe	-10.5012
▁fém	-10.5012
▁kíváncsi	-10.5013
▁passz	-10.5013
▁kereskedés	-10.5019
▁Somogy	-10.505
▁munkáltató	-10.505
▁utód	-10.505
▁feltehető	-10.505
▁fiatalember	-10.5053
▁Balog	-10.506
▁hivatkoz	-10.5079
▁kevese	-10.5084
▁portugál	-10.5089
▁törvényjavaslat	-10.5089
▁tünet	-10.5089
▁Borsod	-10.5089
▁jöhet	-10.5089
▁Liga	-10.5092
▁végső	-10.5092
▁Honvéd	-10.5095
hagyta	-10.5123
▁funkció	-10.5128
▁Gordon	-10.5128
▁dízel	-10.5129
▁csoda	-10.5129
▁játszani	-10.5138
▁norvég	-10.5168
▁hulladék	-10.5168
▁elkészül	-10.5168
▁katolikus	-10.5168
▁radikális	-10.5168
▁Katalin	-10.5168
▁adomány	-10.5168
▁Irán	-10.5169
▁közzétett	-10.5169
▁környezetvédel	-10.5177
▁háztartás	-10.5178
▁eleve	-10.5194
biztosítás	-10.52
▁robbanás	-10.5207
▁mérnök	-10.5207
▁nyilvánvaló	-10.5207
▁kártyá	-10.5208
gyullad	-10.5208
▁válogat	-10.5226
▁elektromos	-10.5247
▁megakadályoz	-10.5247
csarnok	-10.5247
▁bio	-10.525
▁Audi	-10.5265
ecske	-10.5272
▁Parlament	-10.5287
▁Ágnes	-10.5287
▁mínusz	-10.5287
▁Qu	-10.5287
▁láng	-10.5289
▁Peter	-10.529
spanyol	-10.5318
▁James	-10.5328
fokú	-10.533
mérő	-10.5331
▁elsődleges	-10.5367
▁fesztivál	-10.5367
▁kamion	-10.5367
parancsnok	-10.5374
▁Tudomány	-10.5407
döbben	-10.5407
tenger	-10.5409
▁India	-10.5409
▁klíma	-10.5448
▁kanyar	-10.5448
▁nyugodt	-10.5448
▁jegyezte	-10.5458
▁eljut	-10.546
Független	-10.5488
▁értesült	-10.5489
▁árvíz	-10.5494
▁akadályoz	-10.5496
▁terep	-10.5499
szolgáltatás	-10.55
▁őriz	-10.5506
▁véletlen	-10.5511
▁Isten	-10.5529
▁megújul	-10.553
▁Nico	-10.5537
vető	-10.5538
kocsi	-10.5566
▁kihasznál	-10.557
▁munkaerő	-10.5571
▁erősödés	-10.5571
inform	-10.5577
▁érdekei	-10.5597
Í	-10.5609
tétlenül	-10.5611
▁hozzátéve	-10.5611
▁becslése	-10.5611
▁Kedd	-10.5613
▁frakcióvezető	-10.5613
▁műtét	-10.5614
▁megnéz	-10.5623
▁bűntett	-10.5626
gyújt	-10.5631
törvény	-10.5652
tanács	-10.5652
▁szűr	-10.5655
▁fordulójá	-10.5668
▁hossza	-10.5687
▁Klub	-10.5694
▁Japán	-10.5694
▁száraz	-10.5695
▁gépkocsi	-10.5696
▁iratok	-10.5716
kupá	-10.5725
▁hatodik	-10.5736
▁szélső	-10.5737
▁Szombathely	-10.5738
▁lóg	-10.5757
▁csatá	-10.5767
▁MNB	-10.5778
▁segíteni	-10.5787
fehér	-10.5817
külön	-10.5818
▁légitársaság	-10.582
▁regisztrál	-10.582
▁füst	-10.582
▁Párizs	-10.582
▁indiai	-10.582
▁engedélyez	-10.5823
▁1,2	-10.5824
▁kötelez	-10.5831
selejtező	-10.5862
▁elképzelhető	-10.5862
▁furcsa	-10.5862
▁vörösiszap	-10.5862
▁Árpád	-10.5862
▁éjszaká	-10.5862
▁1998	-10.5862
▁kávé	-10.5862
▁számukra	-10.5862
▁Petr	-10.5877
▁négyzetméter	-10.5904
ä	-10.5904
▁kultúrá	-10.5904
▁labda	-10.5904
▁cipő	-10.5904
▁digit	-10.5906
▁1,4	-10.5906
▁rendszerváltás	-10.591
ndőrkapitányság	-10.5924
▁garantál	-10.5947
▁megbízott	-10.5947
▁techniká	-10.5947
▁zenekar	-10.5947
▁Békés	-10.5948
▁2,5	-10.5949
▁áruház	-10.595
▁gyümölcs	-10.599
▁herceg	-10.599
▁ügyelet	-10.5991
▁bármily	-10.6008
▁aktuális	-10.6032
▁forgatókönyv	-10.6032
▁ábrázol	-10.6032
▁fizikai	-10.6032
▁pécsi	-10.6032
▁észlel	-10.6033
▁kérelm	-10.6033
▁rablás	-10.6034
▁kötvény	-10.6037
▁sark	-10.6047
▁cáfol	-10.6076
▁kifejezés	-10.6076
▁tojás	-10.6076
▁Eddig	-10.6076
▁édesany	-10.6076
▁dráma	-10.6076
▁aggód	-10.6077
▁mehet	-10.6079
▁kincs	-10.6083
▁elismert	-10.61
nettó	-10.61
gazdálkodás	-10.6102
▁energiá	-10.6119
▁holttest	-10.6119
▁kudarc	-10.6119
▁luxus	-10.6119
▁December	-10.6119
▁optim	-10.6119
▁str	-10.6119
▁Arany	-10.6127
▁hangsúlyoz	-10.6131
▁ellenőrz	-10.6141
▁Hajdú	-10.6162
▁karakter	-10.6162
▁ritka	-10.6163
▁tenisz	-10.6167
▁költségei	-10.6175
▁Svédország	-10.6206
▁erkölcs	-10.6206
▁%-	-10.6207
▁Ferencváros	-10.621
motor	-10.6212
tájékoztatóján	-10.6232
▁diploma	-10.625
▁Renault	-10.625
▁Velvet	-10.625
▁különböz	-10.6253
▁változatlan	-10.6259
▁ragad	-10.6261
▁APEH	-10.6294
▁WikiLeaks	-10.6294
▁RTL	-10.6294
▁felsőoktatás	-10.6294
▁szegedi	-10.6294
▁énekesnő	-10.6294
▁bölcs	-10.6294
▁Sajno	-10.6294
▁elítél	-10.6294
▁zseb	-10.6296
▁szobr	-10.6299
▁húzód	-10.6321
▁Idé	-10.6331
▁Bayern	-10.6338
▁csatorna	-10.6338
▁kutya	-10.6338
▁körülményei	-10.6338
▁tőzsde	-10.6338
▁legfris	-10.6338
▁3,5	-10.6341
gyűjtés	-10.6341
▁járművek	-10.6342
vállalat	-10.6342
▁elsejé	-10.6343
CD	-10.6356
▁béke	-10.6377
▁befizetés	-10.6383
▁vastag	-10.6383
▁ellenfél	-10.6383
▁ügyfelek	-10.6384
hivatal	-10.6387
▁megvan	-10.6397
gyűlés	-10.6406
▁Kecskemét	-10.6427
▁stadion	-10.6427
▁szovjet	-10.6427
▁ritká	-10.643
▁összetett	-10.6435
fiatalabb	-10.6456
▁beszélget	-10.6462
▁indoklás	-10.6472
▁meghosszabbít	-10.6472
▁kereskedelem	-10.6472
éllyel	-10.6472
▁tudatos	-10.6473
▁Film	-10.6473
▁Andrea	-10.6476
yíregyház	-10.6517
▁tavasszal	-10.6517
▁Angli	-10.6517
lőször	-10.653
▁gazdálkod	-10.6535
▁védelmé	-10.6561
▁igazságügy	-10.6572
▁kritiká	-10.6608
▁kombi	-10.6609
▁tized	-10.6609
sorozat	-10.6616
▁korlát	-10.6619
▁jogosult	-10.664
▁beavatkozás	-10.6654
▁minimális	-10.6654
▁pályafutás	-10.6654
▁bolygó	-10.6654
▁kiemelkedő	-10.6654
▁diplomácia	-10.6654
szögezte	-10.6655
▁megerősít	-10.669
▁összehasonlít	-10.6699
▁MTV	-10.6699
▁Ekkor	-10.6701
▁stáb	-10.6702
▁kizárt	-10.6702
▁megbeszélés	-10.6745
▁elvárás	-10.6748
▁Igazgató	-10.6792
▁végeredmény	-10.6792
▁elrendel	-10.6794
▁egyenlít	-10.6797
▁Európá	-10.6803
vesztés	-10.6827
▁elhagy	-10.6833
▁megfogalmaz	-10.6838
▁demokrácia	-10.6838
▁külföldön	-10.6838
▁nyolcvan	-10.6839
völgy	-10.684
▁Vettel	-10.684
▁részesül	-10.6842
gyelőre	-10.687
▁hétköznap	-10.6885
▁kábítószer	-10.6885
▁Hungar	-10.6885
▁bizonyult	-10.6888
▁feszültség	-10.6932
▁forradalom	-10.6932
▁küszöb	-10.6932
▁tolvaj	-10.6932
rankfurt	-10.6932
▁multi	-10.6934
kötés	-10.6938
▁gyakori	-10.6979
▁Január	-10.6979
▁győzelmé	-10.6979
▁cukor	-10.6979
strukt	-10.6987
▁Hírügynökség	-10.7027
▁Csehország	-10.7027
▁Emlék	-10.7027
▁ajánlószelvény	-10.7027
▁Újpest	-10.7027
▁üldöz	-10.7027
▁római	-10.7027
vizsgálat	-10.704
döntő	-10.7043
népszerűbb	-10.7046
▁kivált	-10.7052
▁jogerős	-10.7074
▁zsír	-10.7075
▁negyeddöntő	-10.7075
▁Rég	-10.7075
▁villá	-10.7081
▁gondoskod	-10.7105
▁ruha	-10.7119
▁BUX	-10.7122
▁Utóbbi	-10.7122
▁deficit	-10.7122
▁intenzív	-10.7122
▁jegyezték	-10.7122
▁médiá	-10.7122
▁bevezetésé	-10.7165
▁gazdaságpolitik	-10.7168
▁köbméter	-10.717
▁statisztika	-10.717
▁technológiá	-10.717
▁bombá	-10.7171
▁fárad	-10.7171
hirdetett	-10.7183
hozatal	-10.7183
▁kártérítés	-10.7218
▁megbízás	-10.7218
▁Péntek	-10.7219
▁megváltoztat	-10.7219
▁főszereplő	-10.722
▁fogyasztók	-10.7225
vonulás	-10.7259
▁Farkas	-10.7267
▁Televízió	-10.7267
▁Kultúr	-10.7267
▁törzs	-10.7269
▁stabilitás	-10.7269
▁Ellen	-10.727
elsőfokú	-10.7286
belga	-10.7287
▁Vörös	-10.7316
▁óvatos	-10.7316
▁szélsőséges	-10.7316
▁fejlett	-10.7317
▁mekkor	-10.7317
▁hull	-10.7331
ügyészség	-10.7341
BRFK	-10.7365
▁Krisztián	-10.7365
▁kapacitás	-10.7365
▁hatáskör	-10.7365
▁talaj	-10.7366
▁lélek	-10.7367
▁felismer	-10.7385
#	-10.7414
▁tempó	-10.7414
▁video	-10.7415
lövő	-10.7417
▁másodfok	-10.7433
▁évforduló	-10.7463
▁Svájc	-10.7463
▁Szolgál	-10.7463
▁Vasárnap	-10.7464
▁egyensúly	-10.7464
▁sztori	-10.7467
▁tonna	-10.7467
▁Alapítvány	-10.7513
▁Biztos	-10.7513
▁kutat	-10.7529
▁kezdődő	-10.7563
▁figurá	-10.7563
▁mozog	-10.7563
▁1,6	-10.7565
▁blokk	-10.7568
igazgatás	-10.761
▁Köztársaság	-10.7613
▁NATO	-10.7613
▁elnevezés	-10.7613
▁készpénz	-10.7613
▁Erdély	-10.7614
▁elvégz	-10.7614
▁Ákos	-10.7615
vállalkozások	-10.7618
▁Richard	-10.7664
▁kijelentés	-10.7664
▁képernyő	-10.7664
▁0-1	-10.7667
▁vizsgá	-10.7678
▁stratégiá	-10.7715
▁Kossuth	-10.7715
▁megbízható	-10.7715
▁kellemetlen	-10.7715
▁szokatlan	-10.7715
▁ellentmond	-10.7716
▁simá	-10.775
▁Szombat	-10.7764
▁filozóf	-10.7766
▁szivattyú	-10.7766
▁ázsiai	-10.7766
▁érvényben	-10.7766
▁mosoly	-10.7818
▁emelkedik	-10.7818
▁vitték	-10.7818
▁innen	-10.782
▁megkérdez	-10.7848
▁region	-10.7861
▁megsemmisít	-10.7869
▁produkál	-10.7869
▁üzemeltető	-10.7869
▁import	-10.7869
▁közepé	-10.7889
kutató	-10.7896
▁zsűri	-10.792
▁München	-10.792
▁1999	-10.792
óceán	-10.7923
▁Máté	-10.793
Amerikában	-10.7954
▁Oscar	-10.7972
▁Vancouver	-10.7973
▁zászló	-10.7973
▁Dániel	-10.7973
▁ezüst	-10.7973
▁reakció	-10.7973
▁részesedés	-10.7973
▁bányá	-10.7986
tiltás	-10.8005
▁börtönbüntetés	-10.8025
▁1994	-10.8025
▁pápa	-10.8025
▁bronz	-10.8025
▁Munka	-10.8028
ggyel	-10.8028
rúgás	-10.8036
Korea	-10.8041
német	-10.8057
▁visszalép	-10.8059
▁Csütörtök	-10.8077
▁ideiglenes	-10.8077
▁Moszkva	-10.8077
▁létesítmény	-10.8077
▁sárga	-10.8078
▁Apple	-10.8078
▁Vissza	-10.8078
folyamán	-10.8082
▁kontinens	-10.813
▁utoljára	-10.813
▁felajánl	-10.813
▁Malév	-10.813
▁Tizen	-10.8131
▁övezet	-10.8131
▁imád	-10.8131
▁elveszít	-10.8131
▁Twitter	-10.8184
▁argentin	-10.8184
▁producer	-10.8184
drágább	-10.8184
▁Hasonló	-10.8184
entúl	-10.8186
▁munkálatok	-10.8187
▁Nyomoz	-10.8187
▁finn	-10.8214
▁Románia	-10.8237
▁duplá	-10.8237
▁megszokott	-10.8237
▁megmarad	-10.8239
▁nyomtat	-10.8262
cím	-10.8271
▁Alonso	-10.8291
▁Matolcs	-10.8291
▁Választás	-10.8291
▁bonyolult	-10.8291
▁kiterjed	-10.8291
▁monetáris	-10.8291
▁tőzsdé	-10.8291
▁Török	-10.8291
▁fegyelm	-10.8291
▁elutasít	-10.8293
▁szakmá	-10.8342
▁kontroll	-10.8345
▁párhuzamos	-10.8345
▁tönkre	-10.8345
▁évszázad	-10.8345
▁befogad	-10.8345
▁jóváhagy	-10.8345
▁irodalm	-10.8346
▁taxi	-10.8346
Kiskun	-10.8348
▁újjá	-10.835
▁fogalm	-10.8363
szabás	-10.8375
▁Liverpool	-10.8399
▁tükröz	-10.8399
▁bekövetkez	-10.8399
Szatmár	-10.8399
▁műfaj	-10.8399
▁fennáll	-10.8402
kezdődött	-10.8436
▁Ausztriá	-10.8454
▁informatika	-10.8454
▁büdzsé	-10.8454
▁Michel	-10.8454
▁Bécs	-10.8455
▁iráni	-10.8455
vásárlás	-10.849
▁Toyota	-10.8509
▁Vélemény	-10.8509
▁Érdekes	-10.8509
▁recept	-10.8509
▁viadal	-10.8509
▁dicsér	-10.851
heim	-10.8515
▁tonná	-10.8517
▁eldönt	-10.8554
▁meggyőző	-10.8564
▁vélhető	-10.8564
▁autóbusz	-10.8564
▁Viszon	-10.8567
gyűjtő	-10.8571
▁Ivan	-10.8573
▁Romániá	-10.862
▁legrosszabb	-10.862
▁tizenkét	-10.862
▁versenyképes	-10.8622
▁elejé	-10.8638
▁Sólyom	-10.8675
▁genetikai	-10.8675
▁kényelmes	-10.8675
▁autópályá	-10.8676
▁mozgó	-10.8676
▁elenged	-10.8676
kapitányság	-10.8686
növekedett	-10.8705
▁vásár	-10.8714
▁közgazdász	-10.8732
▁mobiltelefon	-10.8732
▁püspök	-10.8732
▁süllyed	-10.8732
▁lejárt	-10.8732
▁Horn	-10.8742
csomag	-10.8772
▁Szerdá	-10.878
▁alternatív	-10.8788
▁katasztrófá	-10.8788
▁koncentráció	-10.8788
▁mérséklőd	-10.8788
▁Írország	-10.8788
▁Richter	-10.8788
▁újdonság	-10.8788
>	-10.8788
▁eltávolít	-10.8788
▁ugye	-10.8788
▁Jövő	-10.8788
▁bevallás	-10.8788
▁érzem	-10.8789
▁durv	-10.8821
kívül	-10.8829
▁debreceni	-10.8845
▁gyönyörű	-10.8845
▁ifjúság	-10.8845
▁megvalósul	-10.8845
▁végkielégítés	-10.8845
_	-10.8845
▁humor	-10.8845
▁küzdelme	-10.8845
▁ujj	-10.8846
▁félév	-10.8849
verseny	-10.8888
arlós	-10.8889
pénztár	-10.8894
▁büntetőeljárás	-10.8902
▁házigazd	-10.8902
▁kiszolgál	-10.8902
▁személygépkocsi	-10.8902
▁Fülöp	-10.8902
▁Rádió	-10.8902
▁lámpá	-10.8902
Nagy	-10.8947
▁Vlagyimir	-10.896
▁maximum	-10.896
▁George	-10.896
▁szörny	-10.896
▁Fontos	-10.896
▁fertőzés	-10.8966
▁virradó	-10.9017
▁palesztin	-10.9017
▁kisfiú	-10.9018
▁Haladás	-10.9018
▁pornó	-10.9018
▁kihagy	-10.9037
▁Fejlesztés	-10.9076
▁népszavazás	-10.9076
▁fájdalma	-10.9076
kezdés	-10.9102
▁Ildikó	-10.9134
▁Közlekedés	-10.9134
▁Széchenyi	-10.9134
▁magabiztos	-10.9134
▁magánszemély	-10.9134
▁valahogy	-10.9134
▁Webber	-10.9134
▁Bálint	-10.9134
▁csavar	-10.9134
▁Valenci	-10.9137
fontosság	-10.9176
töltött	-10.9183
▁főszerep	-10.919
rőforrás	-10.9193
▁Szalai	-10.9193
véletlenül	-10.9219
utball	-10.9244
▁előkészítés	-10.9252
▁statisztiká	-10.9252
▁felesleges	-10.9252
▁drága	-10.9252
▁abszol	-10.9252
▁gárda	-10.9252
▁megváltoz	-10.9264
▁létrehozásá	-10.9281
Bereg	-10.9286
veszély	-10.9302
▁munkanélküli	-10.9307
▁Erzsébet	-10.9312
▁forradalm	-10.9312
▁moszkvai	-10.9312
▁közreműköd	-10.9312
▁Benedek	-10.9312
▁Atlant	-10.9314
•	-10.9371
▁besorolás	-10.9371
▁szilveszter	-10.9371
▁sűrű	-10.9371
▁villany	-10.9371
▁fellebbez	-10.9372
▁tábla	-10.9372
▁rabló	-10.9372
▁szállodá	-10.9373
▁tőké	-10.9379
▁megrendez	-10.9396
bajnok	-10.9406
▁törekvés	-10.9432
▁viszonyítva	-10.9432
▁mögé	-10.9432
▁Daily	-10.9432
hátvéd	-10.9436
szakadt	-10.9446
▁mexikó	-10.9492
▁drágul	-10.9492
▁életveszélyes	-10.9492
▁filmjé	-10.9535
▁marketing	-10.9553
▁Thomas	-10.9553
▁demokráciá	-10.9553
▁pedagógus	-10.9553
▁felszólít	-10.9553
▁plakát	-10.9553
▁dobogó	-10.9554
▁Messi	-10.9554
▁celeb	-10.9555
tölteni	-10.9557
▁kasszá	-10.9557
▁epizód	-10.9615
▁stúdió	-10.9615
▁Racing	-10.9615
▁Lendva	-10.9615
▁Ligája	-10.9615
Britanniában	-10.9676
▁Horvátország	-10.9676
▁Schumacher	-10.9676
▁Társaság	-10.9676
▁büszke	-10.9676
▁kilogramm	-10.9676
▁legközelebb	-10.9676
▁Telekom	-10.9676
▁megjegyezte	-10.9676
▁méltat	-10.9685
alkotás	-10.9735
▁McLaren	-10.9738
▁Vilmos	-10.9738
▁minimum	-10.9738
▁bűnöző	-10.9738
▁bejegyzés	-10.9738
▁transz	-10.9738
▁düh	-10.9739
hamarabb	-10.9739
szolgáltató	-10.9747
▁Putyin	-10.9801
songrád	-10.9801
▁szlovén	-10.9801
▁vezetőedző	-10.9801
▁hűtlen	-10.9801
▁1997	-10.9801
▁1989	-10.9801
▁támaszt	-10.9801
▁zaklat	-10.9801
▁album	-10.9801
▁Judit	-10.9801
▁baktérium	-10.9864
▁Juventus	-10.9864
▁lépcső	-10.9864
▁agrár	-10.9869
▁magánnyugdíj	-10.99
▁Moszkvá	-10.9927
▁bennünket	-10.9927
▁átfogó	-10.9927
▁Média	-10.9927
▁próba	-10.9927
▁kialakulásá	-10.9947
▁alakulásá	-10.995
▁Juhász	-10.9991
▁Kereszt	-10.9991
▁hátteré	-10.9992
fűzte	-11.0001
▁Dunántúl	-11.0021
▁bántalmaz	-11.0055
▁szankció	-11.0055
▁utólag	-11.0055
▁influenz	-11.0055
▁lennének	-11.0055
▁kiadvány	-11.0055
▁fektet	-11.0057
Abaúj	-11.0062
felsőbb	-11.0072
hódít	-11.0118
▁erőteljes	-11.0119
▁jégkorong	-11.0119
▁szemlélet	-11.0119
▁tagország	-11.0119
▁pletyk	-11.0119
▁szerelvény	-11.0119
▁Ember	-11.012
▁katasztrófavéd	-11.0123
▁megszerezt	-11.0134
▁csempész	-11.0184
▁megvásárol	-11.0184
▁Költségvetés	-11.0184
▁elterjed	-11.0184
▁sajtószabadság	-11.0184
▁Olimpi	-11.0184
▁Ázsi	-11.0184
▁Fejér	-11.0184
▁Szerencsé	-11.0184
▁tetejé	-11.0187
▁elhangzott	-11.025
▁grafik	-11.025
▁légkör	-11.025
▁kifogásol	-11.0252
▁híj	-11.0266
▁diplomá	-11.0315
▁Reuters	-11.0316
PSZÁF	-11.0316
▁Karácsony	-11.0316
▁elvesztett	-11.0316
▁mindkettő	-11.0316
▁titkár	-11.0316
▁akadémi	-11.0317
gyógyász	-11.037
▁adatbázis	-11.0382
▁lassú	-11.0382
▁HVG	-11.0382
▁Szervezet	-11.0382
▁alkatrész	-11.0382
▁kedvéért	-11.0382
▁lázad	-11.0389
változás	-11.0419
szabadságvesztés	-11.0444
▁bicikli	-11.0448
▁főszerkesztő	-11.0448
▁hibrid	-11.0448
▁kongresszus	-11.0448
▁miskolci	-11.0448
▁Hozzá	-11.0448
▁riasztás	-11.0448
▁stressz	-11.0449
francia	-11.0453
▁trükk	-11.0455
▁összefügg	-11.0462
állapították	-11.0466
▁2014-	-11.0516
▁Hamilton	-11.0516
▁cselekmény	-11.0516
▁kormányszóvivő	-11.0516
▁tagjá	-11.0543
érdésünkre	-11.0556
▁Kárpát	-11.0583
▁szégyen	-11.0583
▁Capital	-11.0583
▁berlini	-11.0583
▁megszólal	-11.0583
▁tüdő	-11.0583
▁Kanada	-11.0583
▁Wood	-11.0583
▁Margit	-11.0583
▁finálé	-11.0583
▁!!!	-11.0651
▁Demszky	-11.0651
▁League	-11.0651
▁Szijjártó	-11.0651
▁Törökország	-11.0651
▁mozgalom	-11.0651
▁Külföld	-11.0651
▁rutin	-11.0651
▁csábít	-11.0655
▁próbá	-11.0676
*	-11.072
▁Kaposvár	-11.072
▁agresszív	-11.072
▁cigarett	-11.072
értekezlet	-11.072
▁tréner	-11.072
▁építkezés	-11.072
▁szálloda	-11.072
▁gyökere	-11.072
▁megállapod	-11.0752
▁Valutaalap	-11.0789
▁kritizál	-11.0789
▁hírportál	-11.0789
▁elképesztő	-11.0789
▁Akadémia	-11.0858
▁Mexikó	-11.0858
▁esedékes	-11.0858
▁nukleár	-11.0858
▁kitüntet	-11.0858
▁jogállam	-11.0858
▁turbó	-11.0858
▁átlátható	-11.0858
▁megtámad	-11.0858
▁emberölés	-11.0864
gondol	-11.0869
▁posztjá	-11.0881
▁parancs	-11.0916
▁Környezetvédel	-11.0928
▁Valószínű	-11.0928
▁szabálysértés	-11.0928
▁árbevétel	-11.0928
▁óvodá	-11.0928
▁Teljes	-11.0928
▁félelme	-11.0929
▁megenged	-11.0932
▁Brazíli	-11.0998
▁elbeszélés	-11.0998
▁helikopter	-11.0998
▁páciens	-11.0998
▁utánpótlás	-11.0998
▁érettségi	-11.0998
▁matematik	-11.0998
▁bizalom	-11.0998
▁árverés	-11.0999
▁Nyilván	-11.1069
▁erőfeszítés	-11.1069
▁Gabriella	-11.1069
▁nyolcaddöntő	-11.1069
▁1996	-11.1069
▁FTC	-11.1069
▁árnyék	-11.1069
indkét	-11.1076
▁együttműköd	-11.108
▁tájékozód	-11.1141
▁elfoglal	-11.1141
−	-11.1141
▁Ukrajna	-11.1141
▁gólpassz	-11.1141
▁Louis	-11.1141
▁fennmarad	-11.1141
­	-11.3292
$	-11.3562
©	-11.4126
Ü	-11.6023
@	-11.6639
Ű	-11.689
Ó	-11.8881
Ő	-11.8881
ë	-12.0003
õ	-12.1501
ć	-12.2127
§	-12.2566
à	-12.3758
×	-12.5111
è	-12.5111
č	-12.7022
	-12.8134
ô	-12.9385
š	-12.984
‭	-13.0816
Š	-13.1342
ă	-13.3111
†	-13.6095
<	-13.7004
ç	-13.7004
~	-13.8004
û	-13.9115
°	-13.9115
[	-14.0235
\	-14.0365
â	-14.0365
ý	-14.1794
ß	-14.1794
`	-14.346
	-14.346
ø	-14.346
ł	-14.346
ń	-14.346
ţ	-14.546
⁄	-14.546
ş	-14.546
	-14.796
ž	-14.796
®	-15.1294
±	-15.1294
å	-15.1294
ò	-15.1294
ň	-15.1294
‒	-15.1294
¬	-15.1294
€	-15.6294
^	-15.6294
	-15.6294
·	-15.6294
Ä	-15.6294
ã	-15.6294
ì	-15.6294
ï	-15.6294
ÿ	-15.6294
ť	-15.6294
′	-15.6294
≤	-15.6294
ה	-15.6294
Đ	-16.6284
̈	-16.6285
Ž	-16.6286
È	-16.6287
	-16.6288
Č	-16.6289
£	-16.629
ñ	-16.6291
‬	-16.6292
̋	-16.6293
î	-16.6293
Å	-16.6294
æ	-16.6294
ê	-16.6294
ð	-16.6294
ą	-16.6294
Ć	-16.6294
đ	-16.6294
ę	-16.6294
ı	-16.6294
ř	-16.6294
Ś	-16.6294
ś	-16.6294
Ţ	-16.6294
Ť	-16.6294
ů	-16.6294
ș	-16.6294
λ	-16.6294
μ	-16.6294
ї	-16.6294
ו	-16.6294
∗	-16.6294
	-16.6294
ż	-16.6294
(	-16.6294
י	-16.6294
