<unk>	0
<s>	0
</s>	0
▁a	-3.22958
▁,	-3.45338
▁.	-3.95037
▁t	-4.11255
t	-4.41577
▁-	-4.43194
▁az	-4.47076
▁i	-4.47111
▁és	-4.71113
▁m	-4.74629
▁A	-4.84653
i	-4.91959
▁k	-4.9571
á	-4.96761
▁sz	-4.97561
▁s	-5.03043
o	-5.07991
▁h	-5.08568
▁egy	-5.15967
▁v	-5.16112
z	-5.17965
▁is	-5.19502
▁n	-5.20473
▁meg	-5.20791
▁e	-5.25621
▁hogy	-5.30447
▁szer	-5.32704
e	-5.33649
▁el	-5.36174
k	-5.37291
n	-5.37799
s	-5.45021
▁f	-5.45055
▁ó	-5.48475
l	-5.50481
▁0	-5.50639
▁nem	-5.50993
▁ki	-5.54139
▁1	-5.62124
g	-5.63912
▁ban	-5.64757
▁ek	-5.70341
▁et	-5.71349
▁ny	-5.71485
▁M	-5.73157
a	-5.74932
▁ok	-5.77134
▁l	-5.78639
▁2	-5.79747
▁ben	-5.80047
▁ő	-5.82263
▁be	-5.8294
▁"	-5.84618
▁en	-5.85949
▁:	-5.88705
▁o	-5.88725
▁nak	-5.88906
▁fel	-5.89006
é	-5.89242
▁re	-5.89613
▁kö	-5.90536
▁ás	-5.93201
▁S	-6.01361
▁ett	-6.0233
▁le	-6.0371
▁ott	-6.0546
▁on	-6.09129
▁es	-6.09965
▁K	-6.1203
▁Az	-6.1361
▁b	-6.16616
▁ra	-6.16987
▁(	-6.17197
▁nek	-6.18429
▁)	-6.19008
▁r	-6.19568
▁int	-6.21333
▁ja	-6.27638
▁ni	-6.30251
▁B	-6.30599
▁ik	-6.30855
v	-6.32505
▁F	-6.32931
▁rend	-6.3473
▁T	-6.35776
▁át	-6.3585
▁E	-6.36767
▁te	-6.38003
▁de	-6.45606
,	-6.45928
p	-6.49233
▁P	-6.50882
▁jelen	-6.5129
▁c	-6.51927
▁agyar	-6.5201
▁os	-6.5209
r	-6.524
▁H	-6.52905
▁ság	-6.53671
▁9	-6.54351
▁ség	-6.55394
▁ez	-6.55577
▁tart	-6.55749
▁csa	-6.57247
▁volt	-6.57791
▁leg	-6.58258
▁lt	-6.58438
▁3	-6.58452
▁ot	-6.59593
▁már	-6.59661
▁V	-6.60949
▁G	-6.61194
▁hely	-6.62363
▁er	-6.62604
.	-6.63047
▁5	-6.66375
▁é	-6.67954
▁L	-6.68056
▁N	-6.68103
▁an	-6.68703
▁g	-6.68942
▁at	-6.69897
▁több	-6.71663
▁z	-6.72631
▁nagy	-6.72796
▁ember	-6.73451
▁p	-6.73834
▁ha	-6.7403
▁új	-6.74533
▁á	-6.7556
▁4	-6.76029
▁I	-6.77396
▁még	-6.77526
ő	-6.78098
▁rszág	-6.8024
▁ét	-6.81679
d	-6.81882
▁R	-6.82629
▁hat	-6.83214
▁van	-6.83962
▁két	-6.84008
▁száz	-6.84419
▁kell	-6.87166
▁8	-6.87571
ű	-6.88825
▁lehet	-6.89215
▁mint	-6.896
▁6	-6.89741
▁ellen	-6.89882
▁ügy	-6.90503
▁kor	-6.90691
▁ak	-6.90894
▁ér	-6.90973
en	-6.92423
▁amely	-6.92834
sz	-6.93064
m	-6.93275
▁vá	-6.94812
ik	-6.96261
▁d	-6.96666
▁össze	-6.96682
▁C	-6.97594
▁ta	-6.981
▁7	-6.9844
▁köz	-6.99552
ó	-7.02657
▁azt	-7.02911
▁szám	-7.03156
▁ú	-7.03164
▁tud	-7.04109
▁év	-7.04245
▁D	-7.04476
▁J	-7.04917
▁után	-7.06682
▁sem	-7.07394
▁fog	-7.07635
▁ko	-7.07934
▁ű	-7.0859
▁más	-7.08599
▁vagy	-7.09005
f	-7.09886
▁u	-7.10061
kor	-7.12532
▁ba	-7.13159
▁kép	-7.13562
▁lék	-7.15317
▁kül	-7.17027
▁szak	-7.17108
▁elő	-7.17943
▁pedi	-7.18815
▁val	-7.1949
▁él	-7.19668
▁tette	-7.19774
▁án	-7.19919
▁O	-7.2046
▁tett	-7.20477
▁nap	-7.20753
▁áll	-7.21263
▁cs	-7.21317
▁tak	-7.21887
▁ként	-7.22258
▁fori	-7.22325
▁Sz	-7.22686
▁első	-7.22728
▁ai	-7.23997
gy	-7.24144
▁idő	-7.2434
▁ében	-7.25406
▁eket	-7.27275
▁alap	-7.27341
▁em	-7.27556
dta	-7.27863
vé	-7.28539
▁okat	-7.28811
▁lát	-7.28844
▁ról	-7.30063
▁ebb	-7.30405
▁ból	-7.3048
▁í	-7.31428
▁unk	-7.31712
▁ít	-7.31965
▁inden	-7.32329
▁kap	-7.32559
▁ve	-7.32606
▁ikai	-7.32632
y	-7.33213
▁követ	-7.33992
▁aki	-7.34807
▁miatt	-7.34823
▁tör	-7.34902
▁majd	-7.35984
▁fő	-7.36119
▁korm	-7.36287
▁ul	-7.36332
▁ig	-7.36492
▁rész	-7.36906
▁igaz	-7.3691
b	-7.37535
▁úgy	-7.38459
▁bi	-7.38478
om	-7.3852
▁kerü	-7.38725
u	-7.391
▁abb	-7.39298
▁való	-7.39346
▁lasz	-7.39357
▁lesz	-7.3972
▁kal	-7.40609
▁ezet	-7.40749
▁ják	-7.41044
▁hoz	-7.41384
▁állam	-7.41432
▁ol	-7.41451
▁lés	-7.43052
▁pro	-7.43115
▁sok	-7.43203
örté	-7.43781
▁állí	-7.44367
▁ták	-7.44603
▁világ	-7.45066
▁ható	-7.4524
▁én	-7.45279
▁ött	-7.45873
▁ről	-7.46431
▁mi	-7.46573
▁al	-7.46698
▁issza	-7.4679
▁ad	-7.4715
▁kezd	-7.47895
mer	-7.48278
▁ü	-7.48862
▁ezető	-7.49065
▁zött	-7.49142
▁eset	-7.49433
el	-7.4951
▁elnök	-7.49812
illi	-7.49848
▁ugya	-7.49864
▁ből	-7.50175
▁ért	-7.50224
▁álla	-7.5076
▁je	-7.50841
▁így	-7.51212
▁?	-7.51452
▁vég	-7.51691
▁ünk	-7.52474
▁y	-7.52474
▁olya	-7.52549
▁fél	-7.52956
▁kat	-7.53152
▁mind	-7.53996
▁ük	-7.54002
▁mert	-7.54266
▁vel	-7.54408
er	-7.54767
▁tól	-7.54961
▁előtt	-7.55087
alál	-7.55105
▁ilyen	-7.55111
▁jó	-7.55267
▁keres	-7.55686
▁ami	-7.55733
▁j	-7.56925
et	-7.57318
▁tés	-7.5771
▁ában	-7.57988
▁ei	-7.58293
mé	-7.58467
▁jog	-7.58781
▁ne	-7.59278
▁ön	-7.59698
j	-7.59944
▁által	-7.60292
▁rá	-7.61009
▁nál	-7.61765
▁díj	-7.62136
▁nt	-7.62812
▁ked	-7.62846
kez	-7.62928
▁onban	-7.64406
▁ille	-7.64733
▁dönt	-7.64754
▁véd	-7.64866
▁hár	-7.64976
ön	-7.65857
▁poli	-7.65999
▁tek	-7.66031
▁va	-7.67193
▁ár	-7.67333
▁vesz	-7.67708
▁mell	-7.67758
▁etlen	-7.67769
▁mond	-7.67814
▁tár	-7.68098
ováb	-7.68239
▁ház	-7.68317
▁pont	-7.68356
▁adó	-7.68664
▁érde	-7.6903
▁zó	-7.69108
▁ozzá	-7.6917
▁uk	-7.69433
▁mű	-7.69624
▁ia	-7.69843
▁autó	-7.70246
▁től	-7.7068
▁Nem	-7.71417
▁inté	-7.71717
í	-7.71774
▁ani	-7.7219
▁uta	-7.72462
▁éves	-7.72714
▁munka	-7.7392
▁ének	-7.7407
▁gazda	-7.74139
al	-7.74145
▁ját	-7.74491
▁ezer	-7.75045
▁bizt	-7.75399
▁dolg	-7.75521
▁sít	-7.76629
▁ikus	-7.76866
▁tér	-7.77208
▁om	-7.7753
▁ju	-7.77631
▁nő	-7.77702
h	-7.77797
▁Ez	-7.78175
▁W	-7.78236
▁Egy	-7.78273
▁ére	-7.78446
▁hez	-7.78666
▁szín	-7.79129
▁ása	-7.79143
▁élet	-7.79189
▁város	-7.81157
▁ának	-7.81473
ély	-7.81959
▁sapat	-7.82062
▁zás	-7.82209
▁egész	-7.82539
▁kapc	-7.82569
▁most	-7.82666
▁ték	-7.83126
▁mutat	-7.83363
▁ára	-7.84619
▁nyil	-7.85124
▁zott	-7.85141
▁arra	-7.85379
▁het	-7.85532
▁zet	-7.85594
▁öt	-7.85887
▁párt	-7.85925
▁cím	-7.85938
▁aszn	-7.86152
▁pénz	-7.86734
▁gond	-7.8683
▁mény	-7.86966
▁nyug	-7.87432
▁mér	-7.87494
▁ció	-7.87842
▁kérd	-7.87996
▁nyi	-7.88029
▁árd	-7.883
▁férfi	-7.88396
▁nél	-7.88518
▁játék	-7.89355
▁ered	-7.90057
▁siker	-7.90093
▁oszt	-7.90156
▁tás	-7.90342
▁vált	-7.90375
▁ló	-7.90495
▁gyer	-7.90993
▁hang	-7.91001
▁elem	-7.91281
▁Ha	-7.91828
▁as	-7.91976
▁társa	-7.92281
▁inte	-7.92308
▁fize	-7.92742
▁ing	-7.93199
▁emel	-7.9355
▁szt	-7.93605
▁nk	-7.9379
os	-7.94381
tö	-7.95275
▁óta	-7.95436
▁érték	-7.95525
▁!	-7.95576
▁kis	-7.95607
agy	-7.96
▁juk	-7.96148
re	-7.96534
▁haj	-7.96581
ikor	-7.96626
▁sen	-7.96854
▁ezt	-7.97186
▁jár	-7.97714
▁ély	-7.97714
▁lap	-7.98133
▁visz	-7.98253
▁veze	-7.9831
▁alatt	-7.98416
▁atlan	-7.98497
▁volna	-7.98591
▁ku	-7.98746
▁min	-7.99171
▁Á	-7.9922
▁ál	-7.99319
észü	-7.99611
▁nyom	-7.99627
▁bo	-8.00274
▁csö	-8.00427
on	-8.00468
▁for	-8.00618
▁mill	-8.01025
▁adat	-8.01331
▁ján	-8.01969
köd	-8.02095
▁est	-8.02405
▁ös	-8.02569
▁kér	-8.02572
▁jegy	-8.02579
▁négy	-8.03006
▁jel	-8.03029
▁oldal	-8.03411
▁jöv	-8.03435
▁túl	-8.03516
▁elmi	-8.03542
▁erős	-8.03732
▁otta	-8.0382
ta	-8.04134
▁ltség	-8.0448
nnyi	-8.04769
▁terv	-8.04903
▁súly	-8.04955
▁let	-8.05125
emé	-8.05297
▁tő	-8.05577
▁besz	-8.05585
▁idesz	-8.05721
▁sor	-8.06783
▁neve	-8.06842
▁közel	-8.07135
ra	-8.0715
▁ül	-8.07217
▁ási	-8.07294
▁lő	-8.07409
▁vétel	-8.07718
erül	-8.08012
▁akik	-8.08033
▁verse	-8.08177
▁út	-8.08367
alam	-8.08512
▁kon	-8.08808
uróp	-8.09009
▁lni	-8.09696
▁cél	-8.10148
▁mány	-8.10313
▁ütt	-8.1046
▁euró	-8.10632
▁támo	-8.10765
▁itt	-8.10921
▁olat	-8.11325
▁ide	-8.1157
▁Z	-8.11587
▁amer	-8.11703
▁szó	-8.1177
▁bizo	-8.12324
▁De	-8.12412
▁tele	-8.13213
▁ment	-8.13535
▁ások	-8.13631
▁máso	-8.13821
▁já	-8.13938
▁álto	-8.14119
▁pár	-8.1414
▁méter	-8.14396
▁film	-8.14401
▁ók	-8.14413
▁győ	-8.14573
▁péld	-8.14804
▁magá	-8.14882
▁akar	-8.15399
▁egye	-8.15455
▁hét	-8.15553
ü	-8.15624
▁ék	-8.15664
▁sal	-8.15733
▁koz	-8.15828
élkü	-8.1632
▁indul	-8.16521
▁jobb	-8.16589
▁tiszt	-8.16698
▁cég	-8.16945
▁lis	-8.17576
int	-8.17861
▁szter	-8.18001
▁marad	-8.18137
▁víz	-8.18191
▁föld	-8.18537
▁jav	-8.18644
▁son	-8.18756
▁rt	-8.18784
▁olyam	-8.18904
▁munk	-8.19239
an	-8.19649
▁tott	-8.20147
anem	-8.20221
▁or	-8.20309
▁saj	-8.20332
▁bel	-8.20547
▁gép	-8.20678
▁nincs	-8.20695
▁piac	-8.20729
▁szem	-8.2075
▁kez	-8.2086
▁/	-8.21417
▁Cs	-8.21815
▁alom	-8.21949
▁múl	-8.2227
ló	-8.22642
▁szab	-8.22721
▁term	-8.22789
▁álat	-8.22965
▁ével	-8.23192
▁fej	-8.23216
▁ották	-8.23449
▁iselő	-8.23454
▁atás	-8.23516
▁szet	-8.23615
▁ató	-8.2378
▁ően	-8.23815
▁	-8.23979
▁olva	-8.24348
▁igyel	-8.24569
▁zölte	-8.24859
▁alma	-8.25023
▁bajn	-8.25235
▁erő	-8.25643
▁elm	-8.25963
▁adás	-8.26105
▁lett	-8.26393
▁sí	-8.264
▁nyer	-8.26661
▁vas	-8.27083
▁ozta	-8.27595
▁eg	-8.27604
▁fogad	-8.27726
▁zta	-8.2776
ked	-8.27787
▁ükség	-8.27953
▁olt	-8.28001
▁tlen	-8.2824
▁azért	-8.28313
▁azok	-8.2849
▁atár	-8.28505
ény	-8.28543
▁ám	-8.28827
▁ro	-8.28974
▁egyed	-8.29208
▁ső	-8.29323
▁ező	-8.29492
▁tat	-8.29546
▁keze	-8.29603
rszá	-8.29655
▁eddig	-8.2982
▁ném	-8.30126
▁fu	-8.30144
▁hív	-8.30259
▁előre	-8.30278
▁ír	-8.30439
▁perc	-8.3084
▁tol	-8.3094
opo	-8.30988
ül	-8.30995
▁Kö	-8.31302
▁vár	-8.31304
▁ontos	-8.31305
▁di	-8.31781
▁tköz	-8.32306
▁növe	-8.32379
▁gram	-8.32413
íg	-8.32429
▁lép	-8.325
▁kken	-8.32601
▁hír	-8.32626
ze	-8.32702
▁anyag	-8.32932
▁test	-8.32974
▁tag	-8.33243
▁lak	-8.33356
▁Buda	-8.33357
▁É	-8.33392
hol	-8.33524
▁anna	-8.33562
▁őr	-8.33631
vaz	-8.33693
▁sági	-8.33849
▁polg	-8.34186
▁zs	-8.34287
▁od	-8.34474
▁armad	-8.34672
▁akko	-8.35421
▁net	-8.35424
ező	-8.35667
▁kar	-8.35775
▁áz	-8.35861
cs	-8.3595
▁gyen	-8.35971
▁zár	-8.36191
▁dél	-8.3625
▁ült	-8.36635
elje	-8.3725
▁ottak	-8.37263
▁ezér	-8.37386
▁bár	-8.37442
▁gyak	-8.37577
rány	-8.37594
▁ed	-8.37723
▁san	-8.37823
▁hóna	-8.38006
▁néz	-8.38117
▁ése	-8.38217
▁MNO	-8.3848
▁nev	-8.38607
▁bal	-8.38982
▁kár	-8.38993
▁men	-8.39108
▁könyv	-8.39157
▁salád	-8.39572
▁társ	-8.39639
▁bíró	-8.39697
▁ö	-8.39887
ér	-8.39983
▁szül	-8.40181
▁függ	-8.40252
▁telen	-8.40399
▁ci	-8.40541
▁haza	-8.40702
▁prób	-8.40799
▁;	-8.40825
▁ály	-8.40864
▁tam	-8.40939
▁csü	-8.40997
▁jé	-8.41042
▁ális	-8.41259
▁arró	-8.41294
▁őség	-8.41336
▁ket	-8.41363
▁részt	-8.41718
▁őrség	-8.41994
▁eit	-8.4222
▁jelöl	-8.43616
▁tős	-8.43764
▁per	-8.43864
▁maga	-8.44143
▁kedés	-8.44184
só	-8.44273
es	-8.44432
▁bank	-8.44941
▁magas	-8.44958
▁sajtó	-8.45169
▁tem	-8.45306
ad	-8.45572
olg	-8.45635
▁ülés	-8.45782
▁képes	-8.45887
▁lás	-8.45912
má	-8.45921
▁kutat	-8.46064
▁sony	-8.46112
▁öl	-8.46504
▁Al	-8.46539
▁si	-8.4654
▁bb	-8.46554
▁kívül	-8.4657
▁iká	-8.46583
▁ex	-8.46953
▁gól	-8.47111
▁sel	-8.47126
▁nisz	-8.47146
az	-8.47474
▁ával	-8.47543
▁oros	-8.48107
▁abály	-8.48331
▁ekkel	-8.48626
▁adott	-8.48776
▁tulaj	-8.49072
észí	-8.49241
▁zik	-8.4928
▁épí	-8.49641
▁emzet	-8.49699
lkal	-8.49929
hány	-8.50003
▁ámára	-8.50201
▁amit	-8.5042
▁jú	-8.50807
▁kedv	-8.50831
▁akad	-8.51128
▁kedd	-8.51355
▁tség	-8.51583
▁indi	-8.52337
ez	-8.52444
▁Mi	-8.52549
▁járás	-8.52611
▁tájé	-8.52672
aval	-8.52794
▁rtök	-8.53007
▁ésé	-8.53015
▁órá	-8.53118
ek	-8.5321
▁ly	-8.5321
nkáb	-8.53367
▁ttság	-8.53415
c	-8.53558
▁hiva	-8.53674
áb	-8.54027
▁etet	-8.54095
▁utób	-8.54178
▁ma	-8.54227
▁teni	-8.54549
▁játs	-8.55078
▁zat	-8.55466
át	-8.55487
laku	-8.5551
▁me	-8.55587
▁izsg	-8.55633
▁hall	-8.55649
▁ezés	-8.56086
▁közül	-8.56115
▁ást	-8.56124
▁gyor	-8.5623
▁iatal	-8.56307
▁hát	-8.56342
▁felé	-8.56509
kár	-8.56515
▁form	-8.56526
▁épp	-8.56649
▁közö	-8.56899
▁abad	-8.56985
▁talan	-8.5699
▁raj	-8.57141
ordu	-8.57307
▁doll	-8.57379
▁sü	-8.5746
▁évek	-8.57564
▁pály	-8.57711
kod	-8.57882
▁okoz	-8.57954
▁tanul	-8.58074
▁része	-8.58195
▁jól	-8.58424
▁ök	-8.58636
▁ásár	-8.58817
▁lenne	-8.58857
űn	-8.58874
▁vi	-8.58981
▁szól	-8.59378
▁emlé	-8.59642
▁örö	-8.59718
▁elég	-8.59804
▁vé	-8.59859
ámad	-8.59893
▁gjobb	-8.60082
▁alá	-8.60109
▁sérü	-8.60144
▁bűn	-8.60158
▁hatás	-8.60235
▁ri	-8.60396
▁ill	-8.60765
nuá	-8.60915
▁ítél	-8.61012
▁nép	-8.61038
▁álló	-8.61232
▁gyobb	-8.61389
▁moz	-8.61558
▁ítás	-8.61801
▁sport	-8.62112
éb	-8.62258
▁kör	-8.62404
or	-8.62479
olc	-8.6268
▁dec	-8.62724
▁ait	-8.62941
▁kí	-8.62946
▁érz	-8.63066
▁tel	-8.63081
▁körül	-8.63168
▁atko	-8.63291
▁okkal	-8.63437
koz	-8.63473
▁belül	-8.63517
▁gyár	-8.63548
ég	-8.63569
▁ör	-8.64031
▁állás	-8.64084
▁atok	-8.64373
▁am	-8.64403
▁ov	-8.64616
▁atott	-8.64686
▁Ch	-8.64752
00	-8.65014
abb	-8.65092
▁leges	-8.65103
▁tesz	-8.65152
▁obb	-8.65312
▁ési	-8.65358
ék	-8.65362
▁előz	-8.65519
alko	-8.657
nek	-8.65757
▁során	-8.65813
▁tíz	-8.66086
▁nság	-8.66201
▁lév	-8.66232
▁ásá	-8.66359
▁éve	-8.66425
▁ezze	-8.66565
▁mai	-8.66611
▁távo	-8.66779
▁ponto	-8.66905
▁kel	-8.66948
▁esti	-8.66982
öve	-8.67015
▁eb	-8.67057
▁rossz	-8.67068
▁iszt	-8.67239
▁árnap	-8.67492
▁idej	-8.67529
▁hiány	-8.67693
▁semmi	-8.67698
nny	-8.6783
zámí	-8.67846
▁ter	-8.68077
▁mag	-8.6813
▁zpont	-8.68142
▁erenc	-8.68146
▁öz	-8.6839
▁kam	-8.68439
▁vetés	-8.6852
▁ód	-8.68647
ö	-8.68699
szen	-8.69192
▁emben	-8.69205
▁ti	-8.69365
▁ista	-8.69561
▁li	-8.69691
▁tan	-8.697
▁ztat	-8.6971
zal	-8.69836
▁író	-8.69844
▁fo	-8.70183
▁U	-8.70189
▁beteg	-8.71416
▁kü	-8.7153
▁rom	-8.71628
▁ződés	-8.71831
ely	-8.72046
ged	-8.72059
▁du	-8.72081
tá	-8.72118
▁pénzt	-8.72197
▁csi	-8.72214
étel	-8.72402
ető	-8.72507
▁telep	-8.72517
▁épü	-8.72703
hez	-8.72846
▁foly	-8.72875
▁érte	-8.72909
▁oltak	-8.72998
▁ete	-8.73058
▁von	-8.73144
▁nyí	-8.73179
▁rmes	-8.73182
▁bra	-8.73183
▁sztés	-8.73276
▁ette	-8.73309
▁port	-8.73401
▁zni	-8.73528
▁izá	-8.73652
▁enny	-8.73768
▁akció	-8.73834
▁um	-8.73873
▁úl	-8.73891
▁sebb	-8.74081
újt	-8.74124
▁eség	-8.74211
▁álta	-8.74481
▁ános	-8.74652
▁szok	-8.74924
▁ászló	-8.7497
▁jai	-8.74973
▁lta	-8.75026
▁korá	-8.7516
▁telm	-8.75507
▁end	-8.75654
▁meccs	-8.75712
ésőb	-8.75734
▁ati	-8.75918
▁aján	-8.76094
▁feje	-8.76109
▁vonat	-8.76114
le	-8.76139
▁ard	-8.76179
▁lépés	-8.76209
▁eni	-8.76216
▁parl	-8.76275
▁us	-8.76416
is	-8.76461
izsg	-8.76631
▁na	-8.76886
▁lá	-8.77028
▁rható	-8.77075
▁idén	-8.77105
▁eszt	-8.77246
ranc	-8.77432
ivel	-8.77479
▁végén	-8.7757
▁til	-8.77596
▁enki	-8.77815
▁hite	-8.77836
ch	-8.77841
▁lhet	-8.78039
▁pént	-8.78186
▁köt	-8.78343
ív	-8.78416
▁MSZP	-8.78514
áll	-8.78656
▁alko	-8.78728
yanú	-8.78942
▁ord	-8.79606
▁ennek	-8.79769
zek	-8.79896
▁határ	-8.79902
▁vet	-8.80547
▁oz	-8.80631
▁elelő	-8.80829
▁fok	-8.80915
▁oda	-8.8101
ölt	-8.81142
▁orvos	-8.81171
▁kség	-8.81274
▁ris	-8.81557
id	-8.81561
▁Be	-8.81647
▁gyó	-8.8168
▁jának	-8.81709
áció	-8.81769
▁tal	-8.81963
▁maz	-8.82025
▁hu	-8.8207
▁ná	-8.82094
▁segít	-8.82223
▁enek	-8.82386
▁Orbán	-8.82611
▁lo	-8.82684
anác	-8.82708
otmá	-8.82722
▁bil	-8.83028
▁segí	-8.83077
▁vány	-8.83101
ás	-8.83199
▁ene	-8.83418
▁almas	-8.83434
▁vonal	-8.83778
▁pal	-8.83861
▁Ki	-8.84129
▁ar	-8.84255
▁El	-8.8432
▁lat	-8.84346
▁gel	-8.84396
▁fejl	-8.84399
▁olgál	-8.84657
ság	-8.84678
▁bele	-8.84743
bban	-8.84745
ális	-8.84851
▁gen	-8.84919
ekin	-8.84928
▁assz	-8.8499
▁nov	-8.85096
▁ken	-8.85142
ség	-8.85165
▁etem	-8.85321
nfor	-8.85439
▁thet	-8.85466
ben	-8.85493
▁gal	-8.85527
▁lja	-8.85596
▁ich	-8.85688
▁gos	-8.85708
▁oci	-8.85788
▁vége	-8.8598
ul	-8.8603
▁tani	-8.86076
▁po	-8.86078
▁orrás	-8.86177
▁őket	-8.86191
▁jük	-8.86274
▁erre	-8.86458
▁Péter	-8.8646
▁lj	-8.86518
▁oló	-8.86529
▁árm	-8.86531
▁minő	-8.86549
▁láto	-8.86554
▁tűz	-8.86586
▁lytat	-8.8659
▁né	-8.86632
▁ából	-8.86642
▁szél	-8.86834
lakí	-8.86899
▁bí	-8.87039
▁w	-8.87196
▁par	-8.87283
▁évben	-8.874
▁utc	-8.88131
▁vér	-8.88146
lább	-8.88308
▁csat	-8.88454
▁tév	-8.88552
▁osság	-8.88725
het	-8.88775
▁óvivő	-8.88781
▁in	-8.88828
▁fenn	-8.88841
▁Le	-8.89128
▁elej	-8.89215
▁kod	-8.89221
▁lég	-8.89314
▁ését	-8.89588
▁old	-8.89615
▁motor	-8.89656
▁iztos	-8.89707
▁ab	-8.89741
▁írás	-8.89762
▁epel	-8.89771
▁lány	-8.89844
mét	-8.8988
▁gáz	-8.90083
▁og	-8.90186
▁orsz	-8.9026
▁erdán	-8.90306
▁yaszt	-8.90339
▁okban	-8.90431
▁átlag	-8.90595
▁bír	-8.90609
▁rel	-8.90642
▁sta	-8.90702
▁hető	-8.9079
▁elet	-8.91017
▁étfőn	-8.91181
▁ersze	-8.91367
▁tot	-8.91556
▁séges	-8.91571
eg	-8.91578
ép	-8.91619
▁ato	-8.91642
▁közé	-8.91708
▁tí	-8.91971
▁válo	-8.92086
▁ester	-8.92107
▁egyes	-8.92255
▁zék	-8.92577
erje	-8.92621
▁cso	-8.92661
▁álság	-8.92852
▁üzem	-8.92855
▁hol	-8.9293
▁ria	-8.93098
▁gyűjt	-8.93463
▁endő	-8.93503
▁zle	-8.93794
▁se	-8.93799
▁stván	-8.9411
▁éli	-8.9424
▁ipar	-8.94574
▁str	-8.9472
▁lőd	-8.94733
▁itás	-8.94816
▁éj	-8.9492
mi	-8.95268
▁ák	-8.95364
▁etés	-8.95424
▁aslat	-8.95488
▁kció	-8.95495
▁nőtt	-8.95505
▁kíván	-8.95621
A	-8.95692
▁óra	-8.95773
▁zen	-8.95868
▁jában	-8.95876
▁eti	-8.96028
▁ervez	-8.96171
▁magát	-8.96323
▁mód	-8.96392
oly	-8.9645
▁felh	-8.96763
▁tü	-8.97011
▁arc	-8.97044
után	-8.97047
▁halál	-8.97048
▁alami	-8.97168
▁ogyan	-8.9717
▁don	-8.97191
▁áció	-8.97238
▁ika	-8.97241
▁emény	-8.97266
▁áról	-8.97416
▁barát	-8.97577
▁őrök	-8.97584
▁atív	-8.97635
▁eze	-8.97693
▁Ö	-8.97915
▁atot	-8.97924
▁totta	-8.98015
▁éről	-8.98165
▁igen	-8.98203
▁elv	-8.98262
▁kság	-8.98356
▁lag	-8.9842
▁ebru	-8.98576
▁land	-8.98623
▁ezte	-8.98776
▁álasz	-8.98941
▁ozat	-8.98957
▁szor	-8.99088
▁íz	-8.99213
▁mal	-8.99242
▁régi	-8.99332
▁etné	-8.9936
▁műsor	-8.99469
▁hal	-8.99618
▁este	-8.99846
▁ttal	-8.99876
▁bő	-9.00182
▁kkal	-9.00201
▁nete	-9.00433
▁legn	-9.0052
▁őször	-9.00572
▁adság	-9.00642
▁elős	-9.00695
▁ogl	-9.00706
▁rög	-9.00771
▁üzlet	-9.00849
▁ke	-9.00866
▁tehet	-9.00958
▁10	-9.01012
ár	-9.0112
▁zben	-9.01138
▁vatal	-9.01163
▁ró	-9.01371
▁írj	-9.01515
▁kocsi	-9.01688
▁igény	-9.01764
▁ég	-9.01851
▁mo	-9.01974
▁tunk	-9.02009
ött	-9.0203
▁Zs	-9.02036
▁rnye	-9.02084
▁Mind	-9.02106
▁tech	-9.0248
▁talá	-9.02512
▁tik	-9.02864
▁évvel	-9.02921
▁rlat	-9.02964
▁tét	-9.02966
▁ou	-9.02975
▁bü	-9.03001
sér	-9.03222
▁érium	-9.03319
▁ir	-9.03334
▁irat	-9.0354
▁bér	-9.03542
▁idé	-9.03574
leg	-9.0361
▁ordul	-9.03624
hát	-9.03715
▁mel	-9.03904
▁ggel	-9.04068
▁Bar	-9.04088
▁Ro	-9.04157
▁im	-9.04263
▁bá	-9.04358
▁MTI	-9.0441
▁llam	-9.04652
▁ult	-9.04659
ar	-9.04706
▁ent	-9.04823
▁ünnep	-9.04831
▁ítés	-9.04864
▁lik	-9.04943
▁miért	-9.05079
▁ehé	-9.05264
▁la	-9.0528
▁agyi	-9.05309
▁enni	-9.05481
sszú	-9.05514
▁Jo	-9.05881
▁kele	-9.06116
▁titk	-9.06143
▁Í	-9.06299
▁anak	-9.0637
▁Gábor	-9.06391
eny	-9.06419
▁közv	-9.06629
▁keret	-9.0692
▁ho	-9.07121
▁sért	-9.07161
▁vál	-9.07428
▁esség	-9.07694
ná	-9.07713
▁ata	-9.07719
▁part	-9.07767
▁érin	-9.07823
▁Y	-9.08044
▁vall	-9.08083
▁neki	-9.08084
uk	-9.08178
▁ásra	-9.08252
▁kek	-9.08257
▁do	-9.08281
▁mit	-9.08353
▁utó	-9.08374
▁őle	-9.08408
▁értő	-9.0848
▁labda	-9.08606
▁ong	-9.08668
▁nehéz	-9.08678
▁unió	-9.08684
▁röv	-9.08871
▁Ma	-9.08944
ossz	-9.09072
▁fele	-9.09119
▁tetés	-9.09142
▁nd	-9.09211
▁jon	-9.09215
▁ekre	-9.09284
▁ándor	-9.09301
▁gyes	-9.09471
▁sség	-9.0959
be	-9.09701
▁it	-9.09723
▁eplő	-9.09739
▁elme	-9.0978
▁képp	-9.09809
ünte	-9.09828
▁ltek	-9.09868
▁kan	-9.09888
▁őri	-9.09905
▁omány	-9.09906
▁Új	-9.09923
▁hó	-9.10038
▁végre	-9.10141
▁Me	-9.10196
▁terem	-9.10333
▁rúg	-9.10446
▁dob	-9.10549
alad	-9.1056
▁ink	-9.10573
▁fek	-9.10629
bb	-9.10678
▁böz	-9.10774
tób	-9.10826
▁vett	-9.10905
▁kevé	-9.1091
▁elyen	-9.10911
▁ős	-9.1097
▁létre	-9.11077
zony	-9.11078
▁da	-9.11117
▁eken	-9.11391
▁vid	-9.11522
▁elmet	-9.11609
▁ep	-9.117
órhá	-9.11702
▁ern	-9.11747
▁zte	-9.11915
ew	-9.12074
▁túr	-9.12179
ljes	-9.12366
▁média	-9.12396
▁terme	-9.12469
▁ását	-9.12476
▁eté	-9.12522
▁lnek	-9.12533
▁20	-9.12681
▁za	-9.12724
▁tóság	-9.12758
▁lják	-9.12827
▁gyű	-9.13097
▁nal	-9.13126
pitá	-9.13155
▁öv	-9.1317
▁módo	-9.13183
▁tapa	-9.13542
▁tudja	-9.13546
▁enved	-9.13624
▁iá	-9.13642
▁ajo	-9.13679
▁özbe	-9.13707
▁and	-9.13748
▁olcs	-9.13899
▁arány	-9.1396
▁kéz	-9.13975
▁'	-9.14019
▁ark	-9.14229
▁akasz	-9.14604
▁aradt	-9.14619
sonl	-9.14649
▁list	-9.14734
▁húz	-9.14739
isel	-9.14811
▁Uni	-9.15037
▁hete	-9.15057
▁brit	-9.1518
▁un	-9.15206
▁osan	-9.15434
▁usz	-9.15612
▁yörgy	-9.15627
▁jön	-9.1587
▁ran	-9.15929
▁konc	-9.16109
▁tor	-9.1628
▁Sport	-9.16351
▁színe	-9.16668
▁vezér	-9.16698
▁nyelv	-9.16783
▁ron	-9.16792
▁irod	-9.16887
▁obbik	-9.16952
▁etek	-9.16968
▁ion	-9.16981
▁takar	-9.17029
▁ést	-9.17129
▁őd	-9.17737
▁rab	-9.17821
▁elye	-9.17831
▁ázs	-9.1791
▁ud	-9.18058
▁aj	-9.18111
▁nyság	-9.18122
▁ank	-9.18219
▁klub	-9.18262
▁so	-9.18275
▁cius	-9.18288
▁ándék	-9.18411
izen	-9.18426
▁képz	-9.18484
▁jármű	-9.18491
▁fed	-9.18561
▁fr	-9.18603
▁ic	-9.18765
▁kőzés	-9.19032
▁lovák	-9.19078
▁ólag	-9.19126
▁ígér	-9.19161
▁János	-9.19243
▁cikk	-9.19253
▁buk	-9.19304
▁darab	-9.19496
▁ályá	-9.19566
▁szü	-9.19717
▁állt	-9.19742
▁óri	-9.19841
▁x	-9.19895
▁tvány	-9.19925
▁pr	-9.19929
▁ggy	-9.20049
▁donos	-9.20059
▁lső	-9.20098
▁fény	-9.2031
▁alu	-9.20343
▁oha	-9.20447
ilág	-9.2084
▁esett	-9.2085
▁benne	-9.20886
▁szép	-9.20916
▁hib	-9.2097
▁ív	-9.21028
▁ombat	-9.21111
▁alos	-9.21164
▁izmus	-9.21188
ráb	-9.21241
▁csel	-9.21289
▁áp	-9.21506
▁érsé	-9.21818
▁ff	-9.2194
▁nként	-9.21948
zab	-9.21969
▁tatás	-9.22007
▁föl	-9.22029
▁elt	-9.22033
▁írta	-9.22049
▁zin	-9.22172
evő	-9.2233
▁ker	-9.22353
▁védő	-9.22499
▁get	-9.22502
▁eleg	-9.22598
▁omo	-9.22598
▁lakás	-9.22671
▁elh	-9.22735
▁Tamás	-9.22911
▁ih	-9.23166
▁tuk	-9.23181
▁név	-9.23197
▁ővár	-9.23278
▁áldo	-9.23293
▁EU	-9.23338
▁odell	-9.23353
▁indí	-9.23491
▁lét	-9.23589
▁ehet	-9.23618
▁rül	-9.23687
▁áj	-9.23764
▁buda	-9.23795
▁blé	-9.23818
▁kamp	-9.23964
▁ékony	-9.2405
ocká	-9.24099
▁rilis	-9.24229
▁úr	-9.24319
űl	-9.2442
▁harc	-9.24431
:	-9.24481
▁tésé	-9.24626
yu	-9.24655
▁vele	-9.24857
▁szu	-9.24999
ük	-9.25076
▁Ném	-9.25213
▁kul	-9.25285
pany	-9.25573
zd	-9.25582
hogy	-9.25613
▁orba	-9.25704
▁ület	-9.2578
▁kettő	-9.2594
▁ányo	-9.26035
▁legi	-9.26056
▁gyil	-9.26203
▁alás	-9.26283
gyel	-9.26406
▁mez	-9.26418
▁inc	-9.26441
▁ntr	-9.26445
▁usztr	-9.26458
▁trány	-9.26463
▁ton	-9.26473
▁egle	-9.26711
▁ög	-9.26766
▁kapu	-9.26885
▁bocs	-9.26906
▁olta	-9.26934
▁iség	-9.26953
▁rég	-9.26954
▁otth	-9.27067
▁ába	-9.27137
▁ször	-9.27142
▁nline	-9.27173
▁cser	-9.27266
▁pá	-9.27494
▁alac	-9.2754
▁lal	-9.27626
▁nyert	-9.27796
▁ll	-9.2787
▁lass	-9.2792
▁oldás	-9.28019
▁csá	-9.28084
▁ird	-9.2816
óló	-9.28184
▁mat	-9.28261
ztán	-9.28357
▁tja	-9.28391
▁Bu	-9.28424
▁ására	-9.28494
▁ötte	-9.28495
▁ésre	-9.28505
▁andó	-9.28559
▁ng	-9.28604
▁íció	-9.28641
▁És	-9.28694
▁tést	-9.28714
▁pl	-9.2881
▁Zrt	-9.28825
▁inf	-9.28861
kol	-9.28868
▁kész	-9.28893
▁ell	-9.28894
▁pálya	-9.289
▁járó	-9.28955
▁Zol	-9.29026
▁baj	-9.29084
▁znak	-9.29108
▁eknek	-9.29169
▁éle	-9.29225
▁ele	-9.29307
▁lev	-9.29433
▁atos	-9.29523
▁aton	-9.29664
▁tos	-9.29822
▁ner	-9.29945
▁pa	-9.30061
▁ver	-9.30095
▁elte	-9.30134
▁ová	-9.30254
pot	-9.30336
▁ideg	-9.30353
▁kil	-9.30387
▁alaki	-9.30541
▁alig	-9.3067
▁iktor	-9.30719
▁Hu	-9.30792
▁lenc	-9.30794
▁man	-9.30863
delm	-9.30924
▁lény	-9.30924
▁széd	-9.31207
limp	-9.3132
▁emlí	-9.31556
▁busz	-9.31689
▁fin	-9.31711
▁aszt	-9.31759
6	-9.31941
▁olasz	-9.32008
▁ck	-9.3214
▁ty	-9.32199
▁áru	-9.32215
▁ea	-9.32248
▁megv	-9.32285
▁rek	-9.32435
▁orvát	-9.32493
▁üket	-9.3255
▁ológ	-9.32567
▁végé	-9.32628
több	-9.32672
▁BKV	-9.32675
▁dr	-9.32821
▁bu	-9.32871
▁vette	-9.33003
▁log	-9.33019
▁dí	-9.33036
▁esen	-9.33098
▁héten	-9.33099
▁terh	-9.33237
▁kó	-9.33374
▁ölcs	-9.33414
▁gazd	-9.33419
▁rak	-9.33457
▁15	-9.33503
kalm	-9.33524
▁atója	-9.3357
▁erá	-9.33693
▁bor	-9.33764
▁itel	-9.33819
▁kri	-9.33848
ull	-9.33867
▁köze	-9.33899
▁éből	-9.33951
▁keve	-9.33995
ddig	-9.34016
▁fotó	-9.34032
▁zis	-9.34077
▁pan	-9.34164
▁dió	-9.34367
étfő	-9.3442
▁indo	-9.34569
▁ellá	-9.34613
▁ainak	-9.34764
▁áború	-9.34906
▁pu	-9.34945
▁embe	-9.34986
ja	-9.35044
▁tth	-9.35376
▁au	-9.35451
▁ur	-9.35495
▁uto	-9.35531
▁kiv	-9.35543
▁ktor	-9.35543
▁léka	-9.35645
ordí	-9.35694
▁vád	-9.36361
▁somag	-9.36387
▁zak	-9.36394
▁tá	-9.36423
▁skol	-9.36556
▁okon	-9.36677
▁vág	-9.36811
▁soro	-9.36859
▁Ho	-9.3691
▁anat	-9.36921
▁élyes	-9.36925
▁járat	-9.36948
▁öbb	-9.36977
▁kkel	-9.37009
▁léte	-9.37132
▁ansz	-9.37135
supá	-9.37204
▁vita	-9.37224
udom	-9.37247
▁menet	-9.37256
galm	-9.37363
▁ndrás	-9.3739
▁gy	-9.3745
▁ká	-9.3755
▁öld	-9.3766
▁oo	-9.37696
▁adék	-9.37707
▁zetes	-9.37771
zár	-9.37774
▁tin	-9.37867
▁lott	-9.38023
▁plom	-9.38058
▁elé	-9.38179
▁ejt	-9.38242
▁eztet	-9.38277
▁nok	-9.38309
▁atai	-9.38428
▁táv	-9.38505
na	-9.38596
öszö	-9.38731
▁tball	-9.38798
▁lásá	-9.38833
hoz	-9.38866
▁ügye	-9.38935
▁bef	-9.39047
▁ág	-9.39058
▁dalom	-9.39159
▁tése	-9.39173
▁kkent	-9.39261
▁urg	-9.39295
▁okta	-9.39324
▁tömeg	-9.39417
▁vény	-9.39493
▁esí	-9.39528
▁ések	-9.3953
zott	-9.39541
▁lako	-9.396
▁ény	-9.39743
▁zú	-9.39751
▁30	-9.39801
▁osz	-9.399
▁ler	-9.40021
▁ond	-9.40062
▁enc	-9.40219
▁ója	-9.40233
▁éhez	-9.40252
▁ajó	-9.40255
▁agyok	-9.40276
▁ecs	-9.40285
▁ályo	-9.40292
▁ktív	-9.40356
▁encs	-9.40463
▁ack	-9.40565
▁háló	-9.40666
▁ort	-9.40737
▁csin	-9.40762
▁árt	-9.40776
▁ozi	-9.40791
▁ezon	-9.40799
▁lták	-9.40818
▁éke	-9.40895
▁+	-9.40899
▁enti	-9.40902
▁nter	-9.40949
▁gi	-9.41129
▁Vas	-9.4137
▁all	-9.41434
▁tenni	-9.41504
▁táb	-9.41556
2	-9.4158
▁angol	-9.41669
▁jö	-9.41702
▁áju	-9.4177
he	-9.41776
▁tized	-9.41797
▁edző	-9.41973
▁einek	-9.42076
ng	-9.42124
▁op	-9.42182
▁odás	-9.42216
nerg	-9.42272
▁úz	-9.42348
▁indít	-9.42488
▁dá	-9.42639
▁csúcs	-9.42661
▁ző	-9.4268
▁tve	-9.42684
▁MDF	-9.42756
▁rium	-9.42771
▁ant	-9.42845
▁agy	-9.42858
▁olaj	-9.42875
▁Ugy	-9.42918
▁hő	-9.43363
▁zavar	-9.4341
▁urópa	-9.43492
▁ztül	-9.43503
▁amar	-9.43553
▁tur	-9.43679
▁örös	-9.43731
▁gö	-9.43754
▁bé	-9.43862
▁nik	-9.43989
▁ász	-9.43998
▁tte	-9.44059
▁lin	-9.44077
▁csal	-9.44111
▁kínai	-9.44141
▁ődött	-9.44192
▁dalm	-9.44196
in	-9.44282
▁löv	-9.44322
▁kban	-9.44381
▁ózsef	-9.44457
▁hány	-9.4451
▁árf	-9.44606
▁Atti	-9.44683
▁ept	-9.44713
▁illa	-9.44738
▁ev	-9.44837
▁ségé	-9.44851
▁ekben	-9.44866
▁onlap	-9.44998
▁befe	-9.45347
▁doku	-9.45494
▁nyben	-9.45514
▁pülő	-9.45655
▁szony	-9.45661
▁Bal	-9.45681
▁Index	-9.45759
▁ához	-9.45809
▁atta	-9.45839
▁okra	-9.46097
▁reg	-9.46171
▁skola	-9.46215
▁szel	-9.46217
▁módon	-9.46232
▁folyó	-9.46268
▁ménye	-9.46446
▁vonul	-9.46447
▁cégek	-9.46584
▁eged	-9.46609
▁alm	-9.46642
▁ettek	-9.46776
▁sztő	-9.46833
▁dzs	-9.46887
szer	-9.46916
▁döntő	-9.46996
▁ue	-9.47035
▁ics	-9.47068
▁kmény	-9.47118
ög	-9.47282
▁ógus	-9.47305
▁apír	-9.47312
▁knek	-9.47432
▁ázás	-9.47607
▁ers	-9.47633
▁por	-9.47707
▁szék	-9.47775
nnek	-9.47785
▁rű	-9.47823
▁ivel	-9.47844
▁ínész	-9.48089
▁áig	-9.48231
▁éz	-9.48466
▁zók	-9.48629
▁ft	-9.48641
▁tyá	-9.48648
▁orít	-9.487
▁ezni	-9.48716
▁biz	-9.48719
▁han	-9.48734
▁entu	-9.48741
▁esebb	-9.48769
▁ura	-9.48794
▁előny	-9.48835
▁vájc	-9.48866
▁ranc	-9.48966
▁ukat	-9.49024
▁nök	-9.49142
▁ámo	-9.49142
▁oknak	-9.49182
▁lhat	-9.49188
▁rosz	-9.4927
▁knak	-9.49324
▁ang	-9.4933
▁etét	-9.49337
▁mellé	-9.494
▁fiú	-9.49665
od	-9.49819
▁idék	-9.49871
▁adi	-9.49928
▁íroz	-9.50013
▁foko	-9.50051
émá	-9.50162
▁vetel	-9.50286
▁zsi	-9.50438
▁üt	-9.505
▁szk	-9.50583
▁ódot	-9.50584
▁Gaz	-9.50585
▁cel	-9.50593
▁incs	-9.50834
▁12	-9.50887
▁írt	-9.50997
▁gok	-9.51107
▁ré	-9.51149
▁ac	-9.51175
▁Már	-9.51176
▁Ké	-9.51203
▁ekről	-9.51375
▁onnal	-9.51404
▁rit	-9.5152
▁költ	-9.51562
▁jét	-9.51735
▁mérés	-9.51872
▁tagja	-9.51893
▁mentő	-9.51939
▁ce	-9.51939
zen	-9.51966
▁lu	-9.52131
▁dal	-9.52148
▁szig	-9.52189
▁sznek	-9.52197
▁ens	-9.52607
▁ost	-9.52633
▁lcs	-9.52859
▁endőr	-9.52942
▁ettes	-9.53018
▁űr	-9.5308
ruh	-9.5311
▁Ú	-9.53228
zép	-9.53475
50	-9.53576
▁hon	-9.53708
ítás	-9.53809
▁zza	-9.5385
▁zene	-9.53856
▁sak	-9.53866
▁pót	-9.53937
▁Kr	-9.5404
▁orm	-9.54101
omb	-9.54189
▁ntető	-9.54196
▁árak	-9.54728
▁tra	-9.54743
▁that	-9.54746
▁eal	-9.54835
▁gyház	-9.54903
▁bl	-9.55001
▁ork	-9.55075
▁sztu	-9.55162
▁sa	-9.55163
▁kata	-9.55353
▁kas	-9.55431
▁nan	-9.55471
▁sö	-9.55546
▁nyár	-9.55648
▁hí	-9.55662
▁red	-9.55813
▁gar	-9.55978
▁pil	-9.55996
▁pad	-9.5603
▁heti	-9.56072
▁essz	-9.56158
▁ondj	-9.56284
▁ezték	-9.5631
▁tása	-9.56401
▁erg	-9.56524
▁eu	-9.56596
▁ivat	-9.56651
▁derü	-9.56889
▁ól	-9.56908
▁sága	-9.56917
▁zel	-9.57072
▁ós	-9.57141
▁Bo	-9.57161
▁zaj	-9.57368
▁zé	-9.57451
▁sége	-9.5751
▁emző	-9.5752
▁iget	-9.57566
ú	-9.5758
▁lnak	-9.57693
▁láb	-9.57778
▁lia	-9.57798
▁ruhá	-9.57907
▁cse	-9.58019
▁Ko	-9.5806
eves	-9.5815
▁ess	-9.5833
▁had	-9.58453
▁onal	-9.58455
▁tere	-9.58639
▁zett	-9.58645
▁ral	-9.58679
▁tön	-9.58708
▁ulat	-9.58741
▁hatja	-9.58894
▁ssze	-9.58899
szkö	-9.59103
▁rák	-9.59148
▁elett	-9.59212
8	-9.59232
▁ztak	-9.594
▁nyos	-9.59413
▁soka	-9.59422
▁kivá	-9.59604
▁olás	-9.5962
▁Mol	-9.5964
▁ságok	-9.59947
▁jele	-9.59966
▁ők	-9.6005
▁esül	-9.60207
▁jek	-9.60221
yik	-9.60302
▁arany	-9.60328
▁rém	-9.60606
▁ako	-9.6069
▁enye	-9.60716
▁jen	-9.60733
▁dol	-9.61098
▁lé	-9.61193
▁élé	-9.61265
▁dik	-9.61265
▁agjai	-9.61344
egyv	-9.61426
▁ozás	-9.61629
▁adni	-9.61668
▁etben	-9.62014
▁har	-9.62088
▁lföld	-9.62098
▁bert	-9.62127
▁ész	-9.62152
▁lyás	-9.62161
▁nyal	-9.6231
▁ánt	-9.6238
▁50	-9.62486
▁ázad	-9.62583
der	-9.62632
▁igá	-9.62726
▁szom	-9.62726
▁pus	-9.62802
▁eső	-9.62825
▁ltak	-9.62955
▁éni	-9.63055
▁írek	-9.63105
▁oly	-9.63108
▁nye	-9.63134
▁esés	-9.63163
▁rban	-9.63356
▁pill	-9.63376
▁zu	-9.63411
▁rály	-9.63554
▁éssel	-9.63558
▁szen	-9.63666
▁eget	-9.6371
▁irán	-9.63747
▁bre	-9.63761
▁nch	-9.63782
▁gu	-9.63851
▁ín	-9.63974
▁zati	-9.63983
▁yi	-9.64018
▁úto	-9.64108
▁véle	-9.64238
▁rej	-9.64263
▁zér	-9.64556
▁eke	-9.64565
▁lte	-9.64657
▁ala	-9.64704
▁olni	-9.64759
▁del	-9.64824
▁ely	-9.64978
▁megy	-9.65054
▁nie	-9.65066
lan	-9.65092
első	-9.65217
▁óv	-9.65267
▁una	-9.6527
▁Ant	-9.65357
▁ltu	-9.65418
▁kín	-9.65445
▁kra	-9.65449
▁Ve	-9.6547
▁akat	-9.65627
▁agg	-9.65737
L	-9.65738
▁id	-9.65799
illa	-9.65846
▁erről	-9.65966
▁spe	-9.66119
▁Rá	-9.66174
▁ajnok	-9.66175
▁mik	-9.66304
▁gban	-9.66344
▁rog	-9.66465
▁ente	-9.66469
▁mél	-9.66622
▁szség	-9.66671
▁[	-9.66704
oci	-9.66731
▁lla	-9.66758
▁ann	-9.66819
▁ese	-9.66957
▁zi	-9.6702
ká	-9.67105
▁őrz	-9.67222
▁oka	-9.67298
4	-9.67305
▁orma	-9.67351
▁alak	-9.67354
▁kék	-9.67435
te	-9.67467
▁ere	-9.67567
▁ogy	-9.67635
▁hisz	-9.67646
▁mer	-9.67657
▁ajd	-9.67941
▁agyo	-9.67985
▁nu	-9.68009
▁tet	-9.68314
▁]	-9.68334
▁aság	-9.68381
▁dt	-9.6839
▁avi	-9.68401
zak	-9.68425
▁seh	-9.68448
▁elnö	-9.6848
3	-9.68507
▁ámol	-9.68571
▁járt	-9.68638
▁BL	-9.68676
nö	-9.68704
▁osí	-9.68798
▁ké	-9.68826
▁ágy	-9.68844
▁rid	-9.69154
▁Ang	-9.69184
▁isza	-9.69221
▁jával	-9.69311
vény	-9.69314
▁sze	-9.69334
▁nna	-9.69612
▁pé	-9.69819
ődés	-9.69892
▁imp	-9.69973
▁ium	-9.69993
▁seb	-9.70075
esí	-9.70138
▁25	-9.70156
▁nni	-9.70185
▁ace	-9.70325
▁igye	-9.7037
▁nnyi	-9.70395
▁lland	-9.7041
▁isták	-9.70523
lenü	-9.70561
▁halt	-9.70716
▁zés	-9.70746
▁drá	-9.70804
▁éző	-9.70922
▁fü	-9.70926
▁izo	-9.711
▁rná	-9.71111
▁obban	-9.71305
lem	-9.71451
▁ajtó	-9.71561
▁zze	-9.71666
▁kora	-9.71957
▁tünk	-9.7214
▁ozott	-9.72199
vas	-9.72321
▁16	-9.72512
▁zí	-9.72554
aton	-9.72632
▁ogat	-9.72717
▁nyel	-9.72806
ny	-9.72976
▁ssz	-9.73105
▁arl	-9.73141
▁riá	-9.73204
▁jég	-9.73303
▁ősz	-9.7335
▁sban	-9.73365
▁zre	-9.7344
▁tava	-9.73451
▁dő	-9.73453
okra	-9.7351
▁vill	-9.73795
▁bség	-9.74045
▁cen	-9.74231
▁gény	-9.74359
▁lték	-9.74387
▁Bl	-9.7446
▁ow	-9.74484
▁ge	-9.74622
▁ünte	-9.74884
ott	-9.75032
▁udom	-9.75126
▁Van	-9.75235
▁tték	-9.75386
▁sere	-9.75547
▁rie	-9.75554
▁ím	-9.75576
▁szol	-9.75607
▁áros	-9.75633
▁ash	-9.75648
▁emelt	-9.7565
▁rdő	-9.75663
▁lus	-9.75743
▁zva	-9.75756
▁fér	-9.75783
▁olo	-9.75867
▁gr	-9.76002
▁kré	-9.76081
▁zöl	-9.7609
▁lel	-9.76103
▁kr	-9.76226
▁arg	-9.76298
▁edés	-9.76364
▁ap	-9.76457
▁ry	-9.76689
▁lib	-9.76721
▁ődik	-9.76751
▁erce	-9.76775
▁2.	-9.7685
▁vári	-9.76863
ikus	-9.77021
▁szo	-9.77063
▁lám	-9.77297
▁erül	-9.77329
▁ségét	-9.77427
▁yugat	-9.77506
▁ste	-9.77627
▁40	-9.777
▁olj	-9.77727
▁tásá	-9.77747
▁ötö	-9.77763
▁tes	-9.77766
▁ndex	-9.77956
▁ogás	-9.77978
▁sd	-9.78618
▁akt	-9.7865
▁Wi	-9.78808
▁lop	-9.78867
▁rra	-9.78962
rősö	-9.78987
▁kere	-9.79003
▁nők	-9.79018
▁ttól	-9.79087
▁zöve	-9.79224
▁anya	-9.7928
▁her	-9.7931
enge	-9.79316
▁szülő	-9.79322
▁pp	-9.79434
▁vil	-9.79507
▁tus	-9.79719
ác	-9.79753
▁kik	-9.79842
▁nder	-9.79997
▁ven	-9.80057
▁var	-9.80174
▁kem	-9.80225
▁étől	-9.80287
▁szét	-9.80453
▁öm	-9.80576
▁amb	-9.80716
▁ezhet	-9.80777
▁szava	-9.808
▁1,	-9.80839
▁lko	-9.80878
▁utat	-9.80899
▁zö	-9.80934
▁tenek	-9.81132
▁omá	-9.81198
▁eret	-9.8132
▁ajna	-9.81401
▁ham	-9.81521
▁nség	-9.81527
▁viz	-9.81536
at	-9.81581
▁szob	-9.8161
▁Ci	-9.8164
▁any	-9.81644
▁komm	-9.81742
▁ábor	-9.81834
▁Min	-9.81905
▁nger	-9.82017
▁ber	-9.8203
▁oma	-9.82082
▁ren	-9.82273
▁cc	-9.82397
▁ené	-9.82518
▁adta	-9.82539
▁sztal	-9.82604
▁vise	-9.82619
▁fogy	-9.82667
▁zü	-9.82824
▁nyek	-9.82854
▁hetne	-9.82937
▁ka	-9.82971
▁vala	-9.83003
▁agad	-9.83008
▁eme	-9.83222
▁ésére	-9.83222
▁ébe	-9.83226
▁dé	-9.83235
▁ino	-9.83273
▁osta	-9.8335
▁tru	-9.8338
▁ein	-9.83542
▁harm	-9.83552
▁fa	-9.83555
▁tatók	-9.8377
▁rác	-9.83783
▁ódik	-9.83896
▁teszt	-9.84004
▁ip	-9.84042
▁őrzés	-9.84179
▁fia	-9.84183
▁üze	-9.84225
lag	-9.84301
▁egény	-9.84303
▁jából	-9.84332
▁LMP	-9.84498
▁up	-9.84549
▁pel	-9.84626
▁vél	-9.84872
▁imo	-9.85001
▁Jó	-9.85093
▁zták	-9.8513
gyom	-9.85306
▁gyö	-9.85334
▁eznek	-9.85342
▁tom	-9.85421
▁orú	-9.855
▁11	-9.85503
▁zté	-9.85641
▁ásban	-9.85646
▁bünt	-9.85727
▁űz	-9.8581
▁kelt	-9.85819
▁emél	-9.85912
▁okból	-9.85953
▁ail	-9.86071
▁3.	-9.86085
▁ger	-9.86377
▁elve	-9.86403
▁18	-9.86476
▁pe	-9.86534
▁őt	-9.86556
▁fal	-9.86569
▁anú	-9.86637
▁reme	-9.8664
▁aba	-9.86786
▁sh	-9.86834
▁fi	-9.869
ni	-9.87043
lmi	-9.87088
▁ttó	-9.87162
▁Bor	-9.87163
▁demo	-9.87234
▁ettel	-9.87243
▁Er	-9.87327
▁egő	-9.87368
▁X	-9.87503
▁14	-9.87508
▁elől	-9.8755
▁gá	-9.8759
▁negy	-9.87624
mpon	-9.87756
▁össz	-9.87775
ében	-9.8781
▁töl	-9.87835
▁ya	-9.88088
▁lehe	-9.88154
ndr	-9.88206
hető	-9.8821
▁ulás	-9.8821
▁arán	-9.88273
▁mene	-9.88293
1	-9.88322
▁épít	-9.88356
▁rob	-9.88501
▁ama	-9.88549
tu	-9.88589
▁ej	-9.88597
▁edett	-9.88662
▁zió	-9.88721
▁műve	-9.88809
▁tök	-9.88819
▁istá	-9.8882
▁napon	-9.88872
▁No	-9.88983
ai	-9.88996
▁mod	-9.89063
▁gaz	-9.89123
▁tanak	-9.89126
▁rist	-9.89381
▁ásos	-9.89428
▁kos	-9.89436
▁yen	-9.89555
▁eteg	-9.89664
▁elle	-9.89713
▁atja	-9.89838
▁őke	-9.89861
▁izs	-9.90005
▁állat	-9.90021
tat	-9.90187
▁rre	-9.9026
▁helye	-9.90323
▁ror	-9.90328
▁érv	-9.90502
▁egá	-9.90544
▁ítő	-9.90577
▁lőtt	-9.90719
▁senk	-9.90856
▁Di	-9.90876
▁ky	-9.91381
▁elmé	-9.91497
▁ax	-9.91727
▁yar	-9.91729
▁ah	-9.91782
▁seg	-9.91845
▁vic	-9.91889
▁gyal	-9.91917
▁park	-9.91946
▁éde	-9.9199
▁zal	-9.92092
▁nó	-9.9221
▁ekt	-9.92224
▁jt	-9.9227
▁ona	-9.9227
▁séget	-9.92288
▁alék	-9.92318
ték	-9.92324
▁éntek	-9.92325
▁asz	-9.92421
▁ályok	-9.92467
▁zá	-9.9269
▁ssé	-9.92859
▁ancs	-9.92921
▁lefon	-9.92945
▁tél	-9.92973
▁cz	-9.93064
▁itány	-9.93249
▁Má	-9.93261
▁zam	-9.93283
▁faj	-9.93336
▁yőr	-9.93354
▁tják	-9.93369
fog	-9.93402
ír	-9.9342
ommu	-9.93505
▁gra	-9.93615
▁elvé	-9.93673
▁etbe	-9.93758
▁Ő	-9.93772
▁eres	-9.93846
▁róla	-9.93869
▁jk	-9.93892
▁inak	-9.93979
▁iába	-9.94035
▁orna	-9.94149
gál	-9.94301
▁anács	-9.94315
▁gat	-9.94369
▁Ü	-9.94419
▁lista	-9.9452
▁vek	-9.94575
▁tív	-9.947
▁lig	-9.94858
▁nor	-9.94875
ít	-9.94936
▁itte	-9.94948
▁sse	-9.95027
▁uszt	-9.95033
▁err	-9.95071
▁lom	-9.95101
▁árv	-9.95135
▁of	-9.95201
▁ibo	-9.95213
▁osok	-9.95219
▁éb	-9.95265
▁ib	-9.95469
▁lése	-9.95483
▁tni	-9.95557
▁Du	-9.95559
▁szaka	-9.95718
▁űn	-9.95739
)	-9.95879
▁igo	-9.95934
▁ált	-9.95973
▁psz	-9.96054
▁epet	-9.96116
▁has	-9.96132
▁pró	-9.96189
▁atni	-9.96239
▁szon	-9.96293
▁jj	-9.96326
▁amp	-9.96437
▁esz	-9.96464
▁rny	-9.96542
▁apa	-9.96599
▁labd	-9.96879
aszn	-9.96923
▁uló	-9.96992
▁KA	-9.97046
▁nék	-9.97056
▁megye	-9.97225
▁rád	-9.97372
és	-9.97442
▁erék	-9.97536
▁enő	-9.9762
▁atal	-9.97624
itká	-9.97642
▁mon	-9.97716
▁pir	-9.979
▁GDP	-9.97925
▁ped	-9.98139
▁Hi	-9.98282
▁ada	-9.98424
▁nyh	-9.98481
kép	-9.98713
▁17	-9.98732
▁até	-9.98787
▁13	-9.98823
▁leb	-9.98914
▁etes	-9.99025
▁áro	-9.99087
▁ass	-9.991
▁jell	-9.99185
▁nné	-9.99185
▁rd	-9.99191
▁észet	-9.99283
▁lg	-9.99312
▁vén	-9.9958
▁eve	-9.99683
▁fig	-9.99699
▁liá	-9.99701
▁rag	-9.99706
▁lód	-9.99746
kőz	-9.99784
▁dor	-9.998
▁200	-9.99808
▁ezi	-9.99971
▁sül	-9.99973
▁ert	-9.99973
▁tva	-10.0004
▁omás	-10.0007
▁art	-10.0008
▁Dr	-10.0022
▁nia	-10.0031
don	-10.0033
▁gye	-10.0039
▁étel	-10.0047
▁zil	-10.0059
▁mp	-10.0075
▁Fő	-10.0095
▁lda	-10.01
▁ksz	-10.0103
ójá	-10.0126
5	-10.0131
lato	-10.0139
▁taná	-10.0143
▁ói	-10.0149
▁rbe	-10.015
▁ajta	-10.0151
▁ári	-10.0155
▁Ku	-10.0157
▁szal	-10.0159
▁ió	-10.0169
▁rika	-10.0172
▁rében	-10.0181
▁rg	-10.0181
▁ságra	-10.0186
▁sul	-10.0188
▁onos	-10.0202
▁só	-10.0202
▁ésben	-10.021
▁sad	-10.0218
▁eszi	-10.026
enki	-10.0261
köv	-10.0273
▁almat	-10.0284
▁vb	-10.0286
▁ges	-10.0291
▁napo	-10.0301
▁24	-10.0321
▁kő	-10.0325
▁obá	-10.0328
▁II	-10.033
▁%	-10.0339
▁dó	-10.034
▁szp	-10.0355
örny	-10.0366
▁ossz	-10.0366
▁emp	-10.0388
▁vin	-10.0396
▁ebbe	-10.0403
▁nyok	-10.0407
▁gh	-10.0416
▁űvész	-10.0417
▁gó	-10.0422
▁pat	-10.0436
▁ofi	-10.0442
▁prob	-10.045
▁ons	-10.0456
▁enge	-10.0479
tr	-10.0483
sszo	-10.0499
▁ari	-10.0504
▁éma	-10.051
▁áson	-10.0511
▁sár	-10.0534
▁sáv	-10.0535
▁dai	-10.0544
▁iában	-10.0559
▁kif	-10.0578
▁té	-10.0583
▁sák	-10.0583
▁Mc	-10.0588
▁din	-10.0595
▁ndi	-10.0596
▁zer	-10.0606
▁sar	-10.0621
▁elje	-10.0624
▁ugá	-10.0624
▁veg	-10.0653
▁lógia	-10.0667
as	-10.0675
▁yében	-10.0681
▁aló	-10.0694
▁ással	-10.0697
▁nf	-10.0709
▁napja	-10.0712
▁ate	-10.0722
▁leve	-10.0724
▁elen	-10.0731
ozó	-10.0733
▁adja	-10.0736
▁tból	-10.0737
▁ától	-10.0737
▁éget	-10.074
▁ozni	-10.0759
▁lye	-10.0765
▁Ne	-10.0768
▁kozás	-10.0768
▁amik	-10.0776
▁af	-10.0784
emző	-10.0792
ért	-10.0799
▁tró	-10.0802
▁ica	-10.0803
▁edz	-10.0813
fej	-10.084
▁des	-10.0842
▁nyol	-10.0844
▁Ami	-10.0856
▁Eb	-10.0864
▁gész	-10.0873
▁ráz	-10.0878
▁orn	-10.0881
▁ld	-10.0884
▁ius	-10.0889
▁tse	-10.0901
▁lor	-10.0903
▁sik	-10.0911
▁gia	-10.0915
▁llye	-10.0917
▁tű	-10.0923
▁adá	-10.0924
▁élt	-10.0938
am	-10.0942
▁mok	-10.0945
dés	-10.095
▁dul	-10.0978
▁ey	-10.1
▁ón	-10.1
▁ska	-10.102
▁űk	-10.1026
▁sztel	-10.1027
▁omb	-10.1032
érsé	-10.1039
▁19	-10.1048
▁lya	-10.1056
▁erge	-10.1061
▁ács	-10.1068
▁edi	-10.1074
▁gyü	-10.1083
▁ztr	-10.1093
ehé	-10.1099
▁SZDSZ	-10.1106
▁kará	-10.1111
▁Co	-10.1116
▁ub	-10.1124
▁mis	-10.1138
▁táma	-10.1153
▁anc	-10.1186
▁llá	-10.1202
▁ch	-10.121
▁attal	-10.1229
▁ór	-10.1241
▁nyú	-10.1242
▁apá	-10.1254
▁hús	-10.1256
▁sej	-10.1258
▁pany	-10.1263
▁ug	-10.1267
▁tro	-10.1271
▁lhető	-10.1274
▁ető	-10.1289
▁bir	-10.129
▁nyz	-10.1291
▁unkat	-10.1295
▁mö	-10.1297
▁org	-10.1298
érté	-10.1305
▁kov	-10.1308
▁kezé	-10.131
▁kro	-10.1344
▁mre	-10.1359
▁gan	-10.1363
▁rán	-10.1363
▁szál	-10.1364
ol	-10.1369
▁lan	-10.1369
▁ága	-10.1373
▁tok	-10.1374
▁avas	-10.138
▁apo	-10.1387
▁tését	-10.1395
▁krá	-10.1398
▁ova	-10.14
▁érni	-10.1406
▁iba	-10.1416
▁ttek	-10.1416
té	-10.1432
▁médi	-10.144
ikai	-10.1441
▁oru	-10.1443
▁60	-10.1445
&	-10.1447
▁csú	-10.1451
▁ime	-10.1452
▁Ab	-10.1463
▁ókat	-10.1476
▁22	-10.1495
▁zzák	-10.1495
ber	-10.1496
▁rem	-10.1497
▁szköz	-10.1506
▁letes	-10.1544
▁kál	-10.1544
▁illi	-10.1556
▁pest	-10.1565
▁Am	-10.1568
▁rjá	-10.1571
▁yel	-10.1576
▁ösz	-10.1581
▁éd	-10.1587
▁zba	-10.1589
▁th	-10.1595
▁zárt	-10.1608
▁fiz	-10.162
dö	-10.1639
▁Itt	-10.1642
▁okról	-10.1646
▁japá	-10.1659
▁ölt	-10.1673
▁ndr	-10.1678
▁lható	-10.1684
us	-10.1685
▁KDNP	-10.1689
▁eten	-10.1703
▁med	-10.1714
▁ndo	-10.1718
▁font	-10.173
▁oll	-10.1773
▁almá	-10.1778
▁zák	-10.1781
▁co	-10.1781
▁kedő	-10.181
▁cu	-10.1816
▁gle	-10.1818
▁süt	-10.1819
▁tiku	-10.1821
iv	-10.1842
▁jára	-10.1848
sság	-10.1853
▁ener	-10.1867
▁ített	-10.1893
▁ína	-10.1899
▁mé	-10.1902
▁To	-10.1905
▁1.	-10.1909
▁lit	-10.193
▁ilv	-10.1936
▁ságát	-10.1952
▁urc	-10.1965
▁rca	-10.1995
▁2,	-10.2002
▁umi	-10.2013
▁záró	-10.2014
▁blo	-10.2015
▁ont	-10.2023
▁yő	-10.2026
▁Fr	-10.2031
▁tható	-10.2047
.:	-10.2051
▁Ju	-10.2053
▁ncs	-10.2064
▁ph	-10.207
▁TV	-10.2074
▁téte	-10.2082
▁ull	-10.209
▁otó	-10.2101
▁3,	-10.211
▁rzet	-10.2112
▁zása	-10.2136
▁lke	-10.2136
▁óc	-10.214
9	-10.2154
▁zg	-10.2168
▁szön	-10.2172
▁wi	-10.2176
▁rod	-10.218
▁500	-10.2183
▁onta	-10.2205
▁bru	-10.2218
▁ut	-10.2218
▁fegy	-10.222
▁redet	-10.2227
▁ováb	-10.2241
▁öse	-10.2241
▁Gu	-10.2242
▁ódos	-10.2242
▁tatni	-10.2245
▁sír	-10.2245
▁hit	-10.2246
▁ányi	-10.2252
▁Ben	-10.2257
▁our	-10.2262
▁ezik	-10.2283
▁edv	-10.2293
▁kol	-10.2296
▁rad	-10.2318
▁lf	-10.2332
▁ezmé	-10.2335
▁uko	-10.234
▁vit	-10.2348
▁Na	-10.2366
▁ságot	-10.2386
▁rz	-10.2391
▁nel	-10.24
▁rét	-10.2402
▁uli	-10.2411
ve	-10.2413
▁ian	-10.243
▁rok	-10.2438
▁evő	-10.2444
▁zerv	-10.245
▁alán	-10.2459
▁bol	-10.2463
▁amos	-10.2469
▁Én	-10.247
▁zelé	-10.2473
▁gát	-10.2475
▁jék	-10.2478
▁háza	-10.2495
▁kán	-10.2516
▁lása	-10.2519
▁kert	-10.2527
▁riv	-10.2528
▁ivál	-10.2535
▁km	-10.2538
7	-10.2542
▁mos	-10.2569
ána	-10.2571
▁eny	-10.2573
▁Ó	-10.259
▁Eur	-10.2599
▁áf	-10.2601
▁21	-10.2613
▁lve	-10.2619
▁elés	-10.2629
▁áb	-10.2636
▁ec	-10.2646
▁áci	-10.2658
Az	-10.2664
▁eksz	-10.267
▁elf	-10.2673
▁rü	-10.2677
▁aks	-10.268
▁késő	-10.2708
▁mm	-10.2709
▁néh	-10.2715
▁zol	-10.2735
▁bar	-10.2755
▁aval	-10.2757
▁yom	-10.2775
▁atát	-10.2775
▁ezők	-10.2809
▁zhat	-10.2821
▁letet	-10.2826
▁chi	-10.283
▁atást	-10.2835
▁sztr	-10.2837
▁raga	-10.2865
▁pó	-10.2869
▁esél	-10.2871
▁grá	-10.2878
▁fesz	-10.2884
ka	-10.2887
▁pi	-10.2887
▁ier	-10.2895
tató	-10.2898
▁ind	-10.2907
▁gén	-10.2909
▁eml	-10.2932
vel	-10.2939
▁iza	-10.2946
▁ép	-10.2949
ho	-10.2952
ök	-10.2954
▁iná	-10.2957
▁PL	-10.2961
▁ommu	-10.2981
▁adal	-10.2982
▁elkö	-10.2984
▁ósít	-10.2985
▁eik	-10.2994
▁lga	-10.2994
▁gár	-10.2996
▁tért	-10.3
▁atják	-10.3007
▁rben	-10.3018
▁akí	-10.3039
ilo	-10.304
▁vai	-10.3052
▁if	-10.3063
▁ili	-10.3078
ider	-10.3082
▁pre	-10.3084
▁FC	-10.309
▁etne	-10.3104
▁szöv	-10.3134
▁oro	-10.3145
▁ale	-10.3147
zon	-10.3148
▁mán	-10.3148
▁lmény	-10.3148
▁óbb	-10.3156
▁ác	-10.3161
▁23	-10.3162
▁átv	-10.3173
nter	-10.3176
▁éri	-10.3178
▁tu	-10.318
▁inn	-10.3188
▁enne	-10.3189
▁ölgy	-10.3195
▁ive	-10.32
▁lef	-10.3206
▁PK	-10.3219
▁nének	-10.3234
▁aná	-10.3251
▁kics	-10.3264
▁zsa	-10.3264
▁ztál	-10.3273
▁zsá	-10.3273
▁nti	-10.3276
▁nté	-10.3286
▁urá	-10.3296
▁der	-10.33
▁esége	-10.3301
▁semm	-10.3302
▁kl	-10.3302
▁gyész	-10.3308
▁ánál	-10.3316
▁dött	-10.3319
▁táp	-10.332
erik	-10.3323
▁sér	-10.3324
▁dy	-10.3324
▁odott	-10.3337
▁éc	-10.3345
▁zon	-10.3347
▁lly	-10.3347
▁Hí	-10.3348
▁orra	-10.3353
▁kre	-10.3354
▁hir	-10.3356
▁ster	-10.3366
▁ref	-10.3369
▁szán	-10.337
▁lö	-10.3371
▁Ph	-10.3385
▁bö	-10.3387
▁lük	-10.3397
▁sabb	-10.3397
▁iga	-10.3401
▁jába	-10.3419
▁erte	-10.3419
▁lege	-10.3421
ini	-10.3422
▁lán	-10.3427
▁etei	-10.3441
▁ana	-10.3444
▁lók	-10.3448
▁ém	-10.3452
▁onto	-10.3454
▁rág	-10.346
▁ád	-10.3465
▁osít	-10.3471
▁akart	-10.348
nak	-10.3486
itá	-10.3488
▁ula	-10.3495
▁szén	-10.3511
▁lk	-10.3516
▁oltá	-10.3555
▁suk	-10.3578
▁oml	-10.359
▁Vi	-10.36
▁enz	-10.3606
▁Bá	-10.361
▁dev	-10.3625
▁go	-10.3625
▁król	-10.3629
▁erí	-10.3635
▁ől	-10.3647
▁tad	-10.3651
▁zetet	-10.3671
▁ves	-10.3681
▁uc	-10.3683
▁elni	-10.3686
▁oss	-10.3689
▁árja	-10.3693
▁eves	-10.3702
▁etű	-10.3707
▁diá	-10.3711
▁eztek	-10.3712
▁gl	-10.3738
▁ina	-10.3746
▁opron	-10.376
▁orí	-10.3763
▁sod	-10.3763
▁fű	-10.3765
▁ru	-10.377
▁rság	-10.3773
▁edé	-10.3784
▁lme	-10.3794
▁neg	-10.3797
▁lam	-10.3805
▁émi	-10.3806
▁ádo	-10.3838
▁szto	-10.3843
▁atol	-10.3843
▁lánc	-10.3845
ne	-10.385
▁ito	-10.3853
ző	-10.3859
▁sé	-10.3867
ak	-10.3871
ok	-10.3879
▁nos	-10.3906
▁inti	-10.3916
▁lél	-10.3916
▁ted	-10.3921
▁kezik	-10.3926
▁esé	-10.3934
▁rú	-10.3938
▁vazás	-10.3952
▁letek	-10.3959
▁ebe	-10.3976
▁BBC	-10.3985
▁üs	-10.3993
▁OTP	-10.4008
old	-10.4021
▁ach	-10.4034
▁olgá	-10.4038
▁edd	-10.4053
▁ssen	-10.4059
▁lva	-10.4065
▁tál	-10.4067
▁len	-10.407
▁ung	-10.4089
▁nte	-10.4113
▁eng	-10.4113
gár	-10.4114
▁ota	-10.4129
▁MÁV	-10.4149
▁one	-10.4155
▁ítj	-10.4162
▁wa	-10.4169
▁sp	-10.4171
▁erek	-10.4191
▁erben	-10.4194
▁ülö	-10.4203
▁újt	-10.4206
▁35	-10.4212
▁ivá	-10.4224
▁iroda	-10.4229
▁óban	-10.4233
▁dag	-10.4238
▁rus	-10.4245
▁tört	-10.4257
▁4.	-10.4258
▁IMF	-10.4263
▁Aki	-10.4284
▁tter	-10.4289
▁oli	-10.4293
▁odá	-10.4297
▁mu	-10.43
▁örül	-10.4302
▁bán	-10.4302
▁ain	-10.4303
▁tság	-10.4306
▁ara	-10.432
▁anu	-10.4337
▁80	-10.4353
of	-10.4356
▁láz	-10.4361
▁llen	-10.4369
▁nyve	-10.4376
▁ány	-10.4388
▁csk	-10.4389
▁anta	-10.4406
▁0,	-10.4412
▁Re	-10.4415
▁szár	-10.4421
▁tim	-10.4437
▁ob	-10.4453
▁rtj	-10.446
▁szik	-10.447
▁vad	-10.4472
▁trag	-10.4473
▁zín	-10.4482
▁atban	-10.4484
▁kezés	-10.4502
▁nde	-10.4503
▁Li	-10.4519
nné	-10.4522
▁apos	-10.4542
▁áv	-10.4544
ként	-10.4547
▁egyé	-10.4548
▁ságá	-10.4549
▁tika	-10.4551
▁vers	-10.457
▁ech	-10.4575
▁lít	-10.4575
▁rep	-10.4581
▁Mű	-10.4601
val	-10.4608
ic	-10.4615
▁avid	-10.4616
▁táj	-10.4625
▁Ny	-10.4659
▁yá	-10.466
▁kop	-10.4665
▁ado	-10.4671
▁vásár	-10.4677
▁mir	-10.4679
▁ici	-10.468
▁rí	-10.4686
▁Pál	-10.469
▁dic	-10.4717
▁áns	-10.4721
"	-10.473
abin	-10.4735
▁70	-10.4746
▁teg	-10.4752
▁kés	-10.4753
▁ars	-10.4761
▁óm	-10.4768
▁nga	-10.4777
▁lato	-10.4785
▁rol	-10.4787
▁ze	-10.4794
▁USA	-10.4795
▁xi	-10.4809
▁che	-10.4813
C	-10.4821
ab	-10.4822
▁lli	-10.4835
▁zor	-10.4858
▁íj	-10.4893
▁ini	-10.4894
dalm	-10.49
▁kok	-10.491
▁elik	-10.4916
▁lle	-10.4917
▁osa	-10.4925
▁üd	-10.4926
▁ogó	-10.4932
▁lete	-10.4936
▁enn	-10.4941
▁redm	-10.4943
20	-10.495
▁Mon	-10.4965
▁ilo	-10.4983
▁ga	-10.4987
▁közt	-10.499
▁lub	-10.4997
▁ikk	-10.5
▁dö	-10.501
▁tje	-10.5012
▁szeg	-10.5023
▁Rend	-10.5041
▁oto	-10.5042
▁töm	-10.5049
▁ánc	-10.505
iká	-10.5051
▁ladás	-10.5056
ed	-10.506
▁lmo	-10.5062
▁Do	-10.5065
▁gyu	-10.5069
▁egyet	-10.5072
▁alo	-10.5073
▁eld	-10.5084
▁con	-10.5092
▁tató	-10.5093
▁api	-10.5107
▁ero	-10.5107
▁ván	-10.5114
▁ors	-10.5124
▁napj	-10.5125
▁atá	-10.5179
▁rs	-10.5191
▁zy	-10.521
▁elyi	-10.5215
▁zato	-10.5215
▁ügg	-10.524
▁adtak	-10.5245
▁aga	-10.526
▁gé	-10.5263
▁90	-10.5274
▁ará	-10.5275
▁ame	-10.5278
▁úcs	-10.5279
▁nke	-10.5287
mény	-10.529
ma	-10.5293
▁lid	-10.5306
▁rec	-10.5314
▁dar	-10.5324
▁rat	-10.5324
▁uso	-10.5336
▁ülte	-10.5345
▁su	-10.5357
▁efek	-10.5364
▁íti	-10.5366
▁iban	-10.5373
▁fil	-10.5383
▁rip	-10.5394
▁vis	-10.5417
ud	-10.542
▁égi	-10.5424
▁önyv	-10.5429
▁fe	-10.5432
▁000	-10.5432
▁iel	-10.544
▁tán	-10.5449
-	-10.5462
T	-10.5466
▁klu	-10.5475
▁szé	-10.5485
▁ztá	-10.5517
éma	-10.5527
▁iát	-10.5535
▁éko	-10.5557
trá	-10.5569
▁dés	-10.557
▁dv	-10.5574
▁ege	-10.5579
▁teti	-10.5584
▁gyi	-10.5587
lov	-10.5588
▁óján	-10.5615
▁rtok	-10.5624
▁nfl	-10.5624
▁rsen	-10.5627
▁izet	-10.5632
▁avar	-10.5639
▁Ám	-10.5647
▁ENSZ	-10.565
▁szö	-10.5658
▁rró	-10.5662
▁tej	-10.5668
▁arm	-10.5678
ten	-10.5698
▁graf	-10.57
tó	-10.573
▁Af	-10.5748
▁éken	-10.5748
▁=	-10.5749
▁vj	-10.5762
▁ársa	-10.5764
▁yőz	-10.5765
▁hor	-10.5769
▁kozik	-10.5792
▁élte	-10.5799
▁ende	-10.5803
▁Mic	-10.5807
▁abá	-10.5818
▁sb	-10.5825
▁nőt	-10.5825
▁̋	-10.5828
▁köd	-10.5841
▁csu	-10.5843
▁ozhat	-10.585
▁észek	-10.5854
▁lek	-10.5856
▁Car	-10.5861
▁27	-10.5867
▁repü	-10.5882
▁eri	-10.5887
▁gn	-10.5892
▁iti	-10.591
▁sztán	-10.5924
,7	-10.5934
▁ázá	-10.5943
▁atták	-10.5953
▁niá	-10.5955
▁édi	-10.5999
▁esnek	-10.6009
▁cé	-10.6016
▁sso	-10.6023
▁ítani	-10.6024
▁4,	-10.6032
▁rö	-10.6036
▁45	-10.6037
dá	-10.604
▁kba	-10.6047
▁arr	-10.6055
▁olv	-10.6056
alm	-10.6059
▁nár	-10.6062
▁assa	-10.6063
▁üv	-10.607
▁tuc	-10.6077
▁sy	-10.6082
▁nán	-10.6088
▁kom	-10.6095
ébe	-10.6106
▁kór	-10.6112
▁Ni	-10.6118
▁28	-10.6123
▁erep	-10.6153
▁ízi	-10.6157
▁enko	-10.6157
▁ast	-10.617
▁ótá	-10.6177
▁eut	-10.6204
▁Vá	-10.6206
▁nála	-10.6206
ce	-10.6214
ór	-10.6237
▁elek	-10.6247
▁zölt	-10.6253
▁zm	-10.6261
▁ence	-10.6263
▁alv	-10.6266
▁orr	-10.6266
▁artin	-10.627
▁gyel	-10.6272
▁gne	-10.6275
▁ilá	-10.6292
▁zt	-10.6301
ap	-10.6306
ál	-10.6314
▁mért	-10.6316
▁rig	-10.6363
▁ránt	-10.6364
▁latot	-10.6365
ződ	-10.6386
▁ányá	-10.6389
▁alól	-10.6392
▁nyzat	-10.6407
▁imm	-10.6409
▁Th	-10.6418
▁rzés	-10.6418
ják	-10.6429
tek	-10.6436
▁mpl	-10.6437
▁zok	-10.6437
▁irály	-10.6443
▁utt	-10.6464
▁erd	-10.6466
▁erés	-10.6479
▁zatot	-10.6509
▁nyét	-10.6521
▁onál	-10.6529
▁eho	-10.6531
▁rk	-10.6536
▁árá	-10.6556
▁abo	-10.6557
▁dü	-10.6569
40	-10.6579
▁edt	-10.658
▁las	-10.6586
▁iek	-10.6587
▁melés	-10.6598
▁áron	-10.6605
▁itá	-10.6613
▁era	-10.662
▁32	-10.6623
▁eat	-10.6651
▁asi	-10.6656
▁lep	-10.6659
▁enger	-10.668
▁nban	-10.6683
▁iről	-10.6694
zer	-10.6695
▁őse	-10.6696
▁ví	-10.672
▁etten	-10.6736
▁sszi	-10.6747
▁tün	-10.675
▁yomo	-10.675
▁nco	-10.6753
▁kém	-10.6758
▁lést	-10.677
▁gul	-10.677
▁Ti	-10.6781
▁nában	-10.6803
▁klím	-10.6805
▁vent	-10.6808
▁rnak	-10.6812
én	-10.6813
▁ulá	-10.6813
▁zban	-10.682
▁gon	-10.6838
▁onz	-10.684
▁enci	-10.6845
▁ekv	-10.6851
▁26	-10.6853
SZ	-10.6858
H	-10.6859
▁mas	-10.6873
▁sto	-10.6882
▁MNB	-10.6882
▁nes	-10.6887
▁lata	-10.689
▁árad	-10.6895
▁Ce	-10.6897
▁nák	-10.6921
▁pap	-10.693
▁Te	-10.6939
▁ritk	-10.695
▁KN	-10.6966
▁nat	-10.6967
▁ikor	-10.697
▁rga	-10.6978
▁gya	-10.6981
▁mul	-10.6993
▁nü	-10.7012
▁ssa	-10.702
▁rdek	-10.703
▁uház	-10.7031
MW	-10.7045
▁lér	-10.705
▁kf	-10.7056
▁zed	-10.7068
▁und	-10.7073
▁ekor	-10.7081
▁kad	-10.7088
▁Fe	-10.7088
▁sztás	-10.7093
▁rés	-10.7096
ebe	-10.7104
▁sko	-10.7112
▁nöke	-10.7114
▁vert	-10.7134
60	-10.7139
▁ánya	-10.714
▁rul	-10.7145
▁alj	-10.7181
▁mb	-10.7184
▁mot	-10.7208
▁yot	-10.7219
▁gynök	-10.7235
▁ozó	-10.7257
▁lába	-10.7277
▁kett	-10.7309
▁ine	-10.7322
▁ley	-10.7328
▁Ol	-10.7342
▁nkat	-10.7342
▁pő	-10.7358
ibá	-10.7373
▁őké	-10.7376
▁bic	-10.7395
▁benn	-10.7397
▁mil	-10.7411
D	-10.7416
▁sark	-10.7419
ha	-10.7424
▁rő	-10.7426
▁olg	-10.7448
▁árás	-10.7448
▁ruh	-10.7449
▁def	-10.7462
▁gét	-10.7464
▁nus	-10.7475
▁mó	-10.749
▁nálat	-10.7498
▁alál	-10.7505
▁olha	-10.7507
▁Audi	-10.7507
▁szat	-10.7516
▁emb	-10.752
▁évé	-10.7526
▁iku	-10.7528
▁alon	-10.7529
▁nne	-10.7534
▁rand	-10.7537
▁őj	-10.7544
,5	-10.7548
▁lyá	-10.7553
▁atók	-10.7555
▁mor	-10.7561
▁ilm	-10.7562
▁okba	-10.7563
▁káb	-10.7566
▁dig	-10.7572
▁tete	-10.7577
▁ncse	-10.7584
▁dán	-10.7592
ábor	-10.7616
▁enau	-10.7633
▁aul	-10.7634
▁elhet	-10.7639
▁rr	-10.764
▁Su	-10.7646
▁ogo	-10.765
▁mál	-10.7655
▁rp	-10.7677
▁eré	-10.7687
▁rén	-10.7691
▁adók	-10.7691
▁ür	-10.7693
▁ozz	-10.7694
tség	-10.7695
▁isz	-10.7703
▁ikl	-10.7703
▁nnek	-10.7725
rác	-10.7736
▁alka	-10.7738
▁29	-10.7744
▁gor	-10.7756
▁lóba	-10.7761
▁szük	-10.7762
ciu	-10.7765
▁app	-10.7771
▁kból	-10.778
▁nyak	-10.7783
▁lvár	-10.7793
lék	-10.7806
▁rdo	-10.7815
▁sc	-10.7837
▁ilág	-10.7842
P	-10.7851
▁bó	-10.7852
▁nom	-10.7865
▁dat	-10.7872
▁ldi	-10.7876
▁mét	-10.7877
da	-10.7881
▁oln	-10.7882
▁ngs	-10.7888
▁yil	-10.789
▁ros	-10.7905
▁erepe	-10.7917
▁erk	-10.7919
adar	-10.7922
▁ncia	-10.7933
▁APEH	-10.7943
▁uka	-10.7954
▁tene	-10.7981
▁elin	-10.8034
▁vat	-10.8034
▁vei	-10.8035
▁the	-10.8042
▁vész	-10.8047
ese	-10.8048
▁ondo	-10.8048
▁ca	-10.8052
▁oks	-10.8095
▁ans	-10.8101
▁gyedi	-10.8102
▁umb	-10.8124
▁sté	-10.8126
▁nci	-10.8128
▁etese	-10.813
▁non	-10.8135
▁lok	-10.8145
▁tj	-10.8148
▁onda	-10.8148
▁tojás	-10.8153
▁érté	-10.8173
▁bak	-10.8178
li	-10.8205
▁ésen	-10.8214
10	-10.8232
▁pla	-10.826
ány	-10.8269
▁5.	-10.8269
▁eter	-10.8282
▁szan	-10.829
▁okr	-10.8296
▁ean	-10.8308
▁ins	-10.8314
▁énye	-10.8321
▁ddi	-10.8335
▁ései	-10.8337
▁ij	-10.8341
▁gő	-10.8348
▁láng	-10.8348
▁iben	-10.8353
▁bomb	-10.8361
▁NB	-10.8371
▁oso	-10.8386
▁rge	-10.8405
▁MTV	-10.8417
▁abba	-10.8428
▁yö	-10.8433
▁sés	-10.8433
▁ájá	-10.8435
▁oko	-10.844
▁nce	-10.8449
▁érő	-10.8462
▁kodás	-10.8468
▁ajno	-10.8482
▁les	-10.8489
▁Mag	-10.8496
q	-10.8498
▁31	-10.8499
▁áló	-10.8506
jár	-10.8517
▁RTL	-10.8543
▁yug	-10.855
▁els	-10.8559
▁ekbe	-10.8567
▁lati	-10.8588
▁rin	-10.8598
▁gre	-10.8608
▁inál	-10.8623
▁5,	-10.8637
▁oni	-10.8639
▁ssan	-10.8646
▁ano	-10.8648
▁abi	-10.8674
dig	-10.8681
▁ita	-10.8681
▁átra	-10.8686
80	-10.871
?	-10.8719
▁sétá	-10.873
▁áma	-10.8732
▁azás	-10.8737
zle	-10.8743
vá	-10.8746
▁vol	-10.8756
▁ric	-10.8757
▁res	-10.8758
▁iro	-10.8763
▁top	-10.8771
▁7,	-10.8772
▁pás	-10.878
▁etv	-10.878
▁sti	-10.8783
▁arna	-10.8791
▁q	-10.8804
▁lem	-10.8804
▁ndá	-10.8822
▁ved	-10.8827
▁WA	-10.8827
▁ono	-10.8837
▁szló	-10.8872
▁íre	-10.8877
▁lemz	-10.8882
x	-10.8885
▁lapo	-10.8888
▁pot	-10.8896
akó	-10.8898
▁erzés	-10.8903
▁llító	-10.8907
▁tésre	-10.891
▁zul	-10.8911
▁ew	-10.8913
▁Lu	-10.8916
ériu	-10.892
▁kbe	-10.8925
▁nda	-10.8927
▁sek	-10.8935
▁gett	-10.8942
▁ekek	-10.8943
▁öd	-10.8984
▁ósí	-10.899
▁riu	-10.899
▁aha	-10.8997
▁esk	-10.9028
▁éh	-10.9029
csé	-10.9045
▁gazg	-10.9047
▁izto	-10.9047
róf	-10.9049
▁dén	-10.9052
▁éze	-10.906
▁rn	-10.9078
▁Szi	-10.9086
▁íté	-10.9099
▁ski	-10.9102
▁adata	-10.9103
▁kedve	-10.9109
▁lc	-10.9116
▁olit	-10.9124
▁36	-10.9131
▁mber	-10.914
▁áró	-10.918
▁lmi	-10.9185
▁műv	-10.9188
▁6,	-10.9192
▁gez	-10.9202
▁okol	-10.9202
▁Fu	-10.9235
▁rke	-10.9237
▁uh	-10.9237
▁anuár	-10.9237
▁tb	-10.924
▁aték	-10.9248
▁örny	-10.925
▁torn	-10.9264
▁nész	-10.9267
▁ttá	-10.9276
▁irt	-10.9281
▁zené	-10.9284
▁git	-10.9285
▁7.	-10.9288
▁tba	-10.9292
B	-10.9305
▁dj	-10.9316
▁rpool	-10.9323
▁lál	-10.9324
▁gál	-10.9331
▁fon	-10.9332
▁ila	-10.9334
▁tú	-10.9337
yer	-10.9347
▁rich	-10.9352
▁ulti	-10.9352
▁La	-10.9354
▁BUX	-10.9371
▁tóbbi	-10.9374
▁rik	-10.94
▁6.	-10.9401
rab	-10.9405
▁ola	-10.9412
▁Sp	-10.9413
▁vak	-10.9415
▁sában	-10.9416
ba	-10.9417
▁ford	-10.9417
▁umo	-10.9439
mel	-10.9457
▁ulha	-10.9458
▁ójá	-10.9461
▁ned	-10.947
▁anti	-10.9478
▁onc	-10.9489
70	-10.9493
▁ital	-10.9493
apac	-10.9501
▁lne	-10.952
co	-10.9524
▁kut	-10.9525
▁kim	-10.9542
▁örü	-10.9553
▁atnak	-10.9565
▁III	-10.9568
▁énz	-10.9568
▁Mar	-10.957
▁erez	-10.9571
▁tötte	-10.9578
▁Pr	-10.9582
▁tri	-10.9583
▁aro	-10.9584
▁cá	-10.9598
▁özé	-10.96
ből	-10.9604
▁szű	-10.9606
▁ival	-10.9606
▁ektet	-10.961
▁stá	-10.9611
▁nad	-10.9618
▁BRFK	-10.9622
▁któl	-10.963
▁zata	-10.9646
▁nhe	-10.9661
▁33	-10.9662
▁alk	-10.9666
▁ony	-10.9708
▁téri	-10.9709
▁omm	-10.9726
▁rj	-10.9726
E	-10.9729
▁pü	-10.9752
▁tó	-10.9757
les	-10.9772
▁bj	-10.9789
▁áld	-10.9801
▁áli	-10.9821
▁agya	-10.9825
▁mpá	-10.9832
ly	-10.9835
▁mec	-10.9835
rom	-10.984
▁ndu	-10.984
▁tum	-10.9841
▁ogá	-10.9846
▁NATO	-10.9863
▁tszik	-10.9872
dik	-10.9888
▁arla	-10.9895
▁lm	-10.9903
▁ásf	-10.9904
▁Dán	-10.9908
▁olá	-10.9913
▁edik	-10.996
▁OVB	-10.9965
kban	-10.9976
ját	-10.9983
▁ress	-10.9993
▁pri	-11.0001
▁nyen	-11.0004
▁ged	-11.002
▁talaj	-11.0022
▁ségek	-11.0024
▁gáb	-11.0049
▁37	-11.0065
▁arta	-11.0066
▁lóg	-11.0069
▁erke	-11.007
alif	-11.0085
éne	-11.0092
▁örg	-11.0094
▁sho	-11.0099
íz	-11.0105
tor	-11.0106
ügy	-11.0107
▁kij	-11.0115
▁8.	-11.0117
▁tar	-11.0118
▁arj	-11.0124
▁sör	-11.0129
▁ésbe	-11.0135
ökö	-11.0142
▁entes	-11.015
▁oh	-11.0154
▁ségv	-11.0161
log	-11.017
▁iket	-11.0174
▁szí	-11.0175
▁szoc	-11.0176
▁cer	-11.0178
▁gás	-11.018
▁óba	-11.0181
▁dam	-11.0207
▁10.	-11.0217
▁ebes	-11.0225
▁rett	-11.0228
től	-11.024
kó	-11.0242
▁lyo	-11.0244
▁képe	-11.0257
w	-11.026
▁Appl	-11.0261
▁lógi	-11.027
▁gom	-11.0275
▁ián	-11.028
▁ias	-11.0282
▁ppe	-11.0282
▁air	-11.0302
▁apja	-11.0302
▁ezete	-11.0307
▁llo	-11.0336
▁mma	-11.0342
▁zd	-11.0357
▁álás	-11.0373
▁ziget	-11.0381
▁San	-11.0388
▁iák	-11.0394
ay	-11.0394
▁tern	-11.0398
▁delm	-11.0401
yle	-11.0404
▁ser	-11.0406
▁ukk	-11.0408
▁étele	-11.041
▁jan	-11.041
▁dia	-11.0411
▁reke	-11.0416
▁zlo	-11.0427
▁édia	-11.0429
▁apit	-11.0439
▁khoz	-11.0447
▁árto	-11.0451
▁uz	-11.0463
szt	-11.0466
▁ásuk	-11.0468
▁limp	-11.047
NS	-11.0484
▁inne	-11.049
▁vó	-11.0494
jes	-11.0502
▁inno	-11.0527
▁zám	-11.053
▁GB	-11.0541
▁nas	-11.0541
▁amin	-11.0559
▁enté	-11.0571
▁sítés	-11.0571
▁zve	-11.0584
▁zőj	-11.0584
▁42	-11.0598
▁eon	-11.0609
▁zomb	-11.0612
im	-11.0628
▁vig	-11.0628
▁íro	-11.0644
zí	-11.0646
▁azda	-11.0653
▁ys	-11.0657
▁érle	-11.0662
▁GP	-11.0663
▁jeg	-11.0679
▁rde	-11.0695
▁1,5	-11.07
▁yle	-11.0706
▁szin	-11.0715
▁izm	-11.0725
▁fer	-11.0745
▁mar	-11.0749
▁gazol	-11.076
▁edél	-11.0769
▁jo	-11.0775
▁uhá	-11.0783
▁rány	-11.0785
▁mia	-11.0795
▁ndre	-11.0798
▁ejte	-11.0806
▁iak	-11.0807
▁ali	-11.0809
▁pc	-11.0823
▁teli	-11.0829
▁klin	-11.0847
▁pit	-11.085
emb	-11.0855
apí	-11.0855
▁ix	-11.0868
▁And	-11.0884
▁eag	-11.0905
▁lto	-11.0907
▁ndor	-11.0911
▁pon	-11.0916
abad	-11.0918
▁ésén	-11.092
▁erjed	-11.0925
▁ajz	-11.0926
▁34	-11.0929
▁ála	-11.0938
▁mra	-11.0943
▁kle	-11.0955
▁arva	-11.0983
▁imi	-11.0984
▁íteni	-11.0984
▁ártó	-11.0985
▁zete	-11.0995
I	-11.1
sztó	-11.1006
▁rme	-11.1009
▁izen	-11.1015
▁unka	-11.1026
▁Vil	-11.1027
▁essé	-11.1028
▁vét	-11.1043
▁oj	-11.1048
abor	-11.1051
▁38	-11.1057
▁ago	-11.1065
▁gárda	-11.1065
▁zom	-11.1068
▁aria	-11.1068
▁zű	-11.1071
▁lad	-11.1079
▁ékot	-11.1082
▁tta	-11.109
▁Bx	-11.1092
▁_	-11.1094
▁ram	-11.1113
▁75	-11.1125
▁amo	-11.1137
xc	-11.1148
▁tések	-11.1158
▁tev	-11.1171
▁rug	-11.1172
▁gyá	-11.1184
▁omba	-11.1199
▁aláb	-11.1209
▁FTC	-11.1212
▁szek	-11.1215
▁olc	-11.122
már	-11.1226
▁laká	-11.1231
ut	-11.1237
▁szta	-11.1241
▁nst	-11.1244
▁anyá	-11.1265
▁tig	-11.1268
▁áté	-11.1269
▁utyin	-11.1272
▁enb	-11.1288
▁his	-11.1299
▁utá	-11.1325
▁bin	-11.1339
▁ósz	-11.1358
▁yű	-11.1359
▁dri	-11.1365
▁tese	-11.1369
▁désé	-11.1374
▁utás	-11.1374
▁ire	-11.1388
▁row	-11.139
▁álm	-11.14
▁rsa	-11.1411
▁ocs	-11.1418
▁Ők	-11.1419
▁onf	-11.1428
▁gyé	-11.1434
▁szav	-11.1438
▁ua	-11.1439
▁azug	-11.146
▁Bi	-11.1492
▁artj	-11.1499
▁alat	-11.1501
ész	-11.1517
▁ús	-11.1522
▁kb	-11.1522
▁eren	-11.1523
▁15.	-11.1524
▁55	-11.153
▁ock	-11.1544
▁hav	-11.1569
▁hala	-11.1576
▁nc	-11.1576
▁ztató	-11.1577
F	-11.1578
▁roda	-11.1597
•	-11.1621
▁yon	-11.1627
▁gzet	-11.163
▁özö	-11.1633
la	-11.1643
▁kur	-11.1648
▁úsí	-11.1651
seb	-11.166
▁amat	-11.1662
▁orto	-11.1668
VG	-11.167
▁ije	-11.1682
▁fen	-11.1682
▁komb	-11.1694
▁lic	-11.1699
▁zámo	-11.1708
▁entés	-11.1741
0	-11.1743
▁omp	-11.1745
▁EP	-11.1756
▁fri	-11.1757
▁ajt	-11.1758
▁hatna	-11.1763
▁kvá	-11.1776
▁álja	-11.1787
▁halá	-11.1791
▁nzé	-11.1797
▁aren	-11.1805
▁ézi	-11.181
▁yés	-11.1815
▁hel	-11.1823
▁anad	-11.1825
▁őbe	-11.1827
▁kev	-11.1831
▁Tu	-11.1837
▁18.	-11.1852
▁65	-11.1881
▁Mik	-11.1912
▁rbá	-11.1916
eket	-11.1923
▁www	-11.1926
Ez	-11.1931
KB	-11.1944
rá	-11.1949
▁ida	-11.1958
▁Fa	-11.1973
ide	-11.1976
S	-11.198
▁jén	-11.1983
▁óka	-11.1991
aki	-11.1992
▁udit	-11.1994
▁ákat	-11.1998
▁ányok	-11.1999
▁9.	-11.2006
▁gas	-11.2027
▁Ön	-11.203
▁tip	-11.2047
sztr	-11.2053
▁esze	-11.2072
▁iszo	-11.2098
K	-11.212
▁dos	-11.2122
▁mad	-11.213
▁éldá	-11.2132
▁íg	-11.2143
▁riz	-11.2157
Ha	-11.2161
▁fol	-11.2164
▁terá	-11.2168
▁taxi	-11.2173
▁zan	-11.2195
▁pet	-11.2204
▁egal	-11.2207
▁érf	-11.2209
▁pas	-11.2217
▁ülése	-11.2223
▁snak	-11.223
ri	-11.2235
▁akó	-11.2235
▁dni	-11.2241
▁isko	-11.2241
▁búj	-11.2245
▁sztó	-11.2245
▁emet	-11.2266
▁éka	-11.228
▁Dal	-11.2289
▁kasz	-11.2291
▁sztá	-11.2292
▁mus	-11.2294
ban	-11.2294
SV	-11.2294
!	-11.2296
▁nj	-11.2307
▁tti	-11.2308
▁umok	-11.231
pár	-11.231
▁áshoz	-11.2318
▁Nő	-11.2325
▁aros	-11.2356
▁Ke	-11.2361
▁zsg	-11.2367
aj	-11.2376
▁lós	-11.2388
▁irak	-11.2395
▁alad	-11.2396
N	-11.2401
▁aci	-11.2413
▁enf	-11.2419
▁2,5	-11.242
▁ndí	-11.2421
▁mes	-11.2429
▁neh	-11.2431
▁yó	-11.2462
▁oron	-11.2464
jle	-11.2471
▁rít	-11.2473
▁elez	-11.2478
▁bon	-11.2489
▁bál	-11.249
▁gárd	-11.2491
▁alam	-11.2496
▁ádár	-11.2505
lták	-11.2518
▁Gy	-11.2534
▁gán	-11.2539
▁line	-11.2544
▁elö	-11.256
▁onyi	-11.256
▁iók	-11.2563
▁PSZÁF	-11.2565
▁lők	-11.2568
▁3,5	-11.2589
▁erc	-11.2599
▁cent	-11.261
▁ori	-11.2612
▁árok	-11.2614
▁lim	-11.2615
▁sap	-11.262
▁mitt	-11.2622
▁rmé	-11.2632
▁eszé	-11.2636
▁knál	-11.2648
▁yan	-11.2668
mbó	-11.2678
G	-11.2678
▁nya	-11.2679
▁Or	-11.268
▁nove	-11.268
▁lh	-11.2684
▁8,	-11.2685
▁lén	-11.2703
▁arry	-11.2714
▁szti	-11.2721
ázad	-11.2721
▁baba	-11.2721
▁ázi	-11.2727
álko	-11.2732
▁ava	-11.2761
▁amu	-11.2771
▁erb	-11.2774
▁oc	-11.2786
▁üst	-11.2804
▁ilye	-11.2809
▁nfor	-11.2818
▁usi	-11.2818
▁aho	-11.2835
▁vezé	-11.2841
▁ázat	-11.2851
▁Éva	-11.2855
▁Nic	-11.2857
▁48	-11.2867
▁tré	-11.2885
▁lunk	-11.2902
▁ágá	-11.2902
▁kód	-11.2907
▁tván	-11.2907
▁kanc	-11.2943
▁olyó	-11.2947
▁sszú	-11.2948
▁13.	-11.2949
▁eru	-11.2968
▁ngé	-11.2979
▁érlet	-11.2987
▁akma	-11.2997
▁olas	-11.3004
▁mban	-11.3005
▁cal	-11.3037
▁spór	-11.3039
▁39	-11.305
▁rmi	-11.3053
▁ngo	-11.3064
dor	-11.3065
▁ozna	-11.307
▁ngy	-11.3074
▁yer	-11.3098
▁NASA	-11.3108
riá	-11.3122
▁tend	-11.313
▁pen	-11.3137
▁akk	-11.3148
▁sch	-11.3149
▁tas	-11.3151
▁Hf	-11.3151
▁óf	-11.3153
▁arto	-11.3155
▁Au	-11.3162
▁uss	-11.3166
▁etr	-11.3171
▁kei	-11.3178
▁hö	-11.3179
▁bronz	-11.3181
▁gés	-11.3181
▁mén	-11.3199
ító	-11.3202
▁pak	-11.321
ában	-11.3216
▁ore	-11.3233
▁lási	-11.3236
▁acso	-11.3252
▁Tv	-11.3254
▁eur	-11.3286
▁rás	-11.3299
▁avra	-11.3303
va	-11.3307
▁cége	-11.3314
▁híd	-11.3316
▁ágn	-11.3322
▁usa	-11.3324
▁46	-11.3338
▁siet	-11.3359
▁űv	-11.3365
▁11.	-11.3377
▁eam	-11.3388
▁−	-11.339
▁*	-11.339
▁#	-11.3399
▁rvo	-11.3405
▁ouis	-11.3411
▁pülé	-11.3413
▁Ru	-11.3429
▁óna	-11.344
▁sol	-11.3462
▁2-3	-11.3465
▁sű	-11.3466
▁Fx	-11.3472
▁12.	-11.3473
▁rova	-11.3489
já	-11.3489
▁igi	-11.3493
▁gyan	-11.3501
▁ruti	-11.352
▁ssá	-11.3547
ski	-11.3552
▁énte	-11.3564
▁ánd	-11.3566
▁togat	-11.3567
▁itch	-11.3568
▁mí	-11.3572
▁iva	-11.3582
▁olna	-11.3583
▁43	-11.3605
▁41	-11.3609
▁pál	-11.3614
▁ocsi	-11.3615
mint	-11.3641
▁gin	-11.3645
ur	-11.3657
-5	-11.3658
ku	-11.3672
ós	-11.3678
▁0-0	-11.3681
▁udo	-11.3684
uch	-11.3687
▁önt	-11.3692
▁agá	-11.37
▁nka	-11.3703
▁laud	-11.3708
▁abál	-11.3729
▁ator	-11.3729
▁para	-11.3737
▁lent	-11.374
▁neke	-11.3756
▁ája	-11.3758
grár	-11.376
▁Vx	-11.3769
▁dély	-11.3773
▁nerg	-11.3784
▁add	-11.3789
▁felü	-11.3789
▁elöl	-11.3797
▁imná	-11.3803
▁tone	-11.3817
▁FIFA	-11.383
▁tója	-11.3832
▁imád	-11.3833
▁In	-11.3836
▁>	-11.3838
▁ződ	-11.3844
▁mára	-11.3859
▁lmú	-11.386
ley	-11.3867
▁ile	-11.3871
▁we	-11.3872
▁orin	-11.3875
▁íthat	-11.3908
avar	-11.3909
▁bátor	-11.3918
▁nyag	-11.3921
▁dan	-11.3933
▁yor	-11.3935
▁Q	-11.3935
▁égben	-11.3947
▁ies	-11.398
▁ezd	-11.4003
▁spo	-11.4009
▁bít	-11.4021
▁maj	-11.4028
▁mani	-11.4031
▁rgi	-11.4036
▁oy	-11.4038
▁lyi	-11.4041
▁rvé	-11.4049
rah	-11.4053
▁liga	-11.4056
▁44	-11.4061
▁elb	-11.407
▁treet	-11.407
▁lamo	-11.407
▁hin	-11.4075
▁Lin	-11.4084
▁rában	-11.409
▁lb	-11.4092
▁19.	-11.4106
▁20.	-11.411
▁pol	-11.4112
▁eh	-11.4113
▁jal	-11.4121
▁apt	-11.4121
▁rje	-11.4135
▁dom	-11.415
lás	-11.417
▁éhe	-11.4179
▁Per	-11.4187
▁erv	-11.4206
▁ango	-11.422
▁erem	-11.423
ron	-11.4247
▁óló	-11.4256
▁íp	-11.4263
▁yr	-11.4265
▁ever	-11.4267
▁lág	-11.4267
▁17.	-11.4267
▁obi	-11.4268
▁sle	-11.4276
▁lsz	-11.4279
ggel	-11.4282
▁bur	-11.429
▁1-2	-11.4296
▁őh	-11.4329
▁tnek	-11.4332
▁llom	-11.4335
▁64	-11.4336
▁arad	-11.4361
▁apj	-11.438
▁Dar	-11.439
▁ccs	-11.4394
▁madár	-11.4394
▁kala	-11.44
▁mole	-11.4405
ci	-11.4429
▁DVSC	-11.4448
▁KSH	-11.4448
▁nika	-11.4455
IA	-11.446
▁trükk	-11.446
▁98	-11.4466
▁pott	-11.447
▁pán	-11.4486
▁Pá	-11.4487
▁erme	-11.4497
▁lmán	-11.4514
▁domb	-11.4519
▁gomb	-11.4519
▁omat	-11.4533
▁ergi	-11.456
▁ring	-11.4566
iox	-11.4568
▁kése	-11.4579
tem	-11.4589
▁rám	-11.4606
▁kről	-11.4608
▁tars	-11.4609
úr	-11.4617
▁rál	-11.4624
30	-11.4642
▁rva	-11.4645
▁rcs	-11.465
▁ligá	-11.4653
▁ize	-11.4672
▁bél	-11.4676
▁zab	-11.4677
▁16.	-11.4684
▁plat	-11.4685
▁dug	-11.4686
▁Hx	-11.4689
▁zmus	-11.469
▁ógia	-11.4694
▁ds	-11.4703
▁kci	-11.4706
pod	-11.4709
▁génye	-11.4712
▁rf	-11.4713
▁inan	-11.4724
▁kka	-11.4734
ább	-11.4745
▁ilis	-11.4754
▁arko	-11.4758
▁lang	-11.476
▁alku	-11.477
▁49	-11.4779
▁lovas	-11.4808
derü	-11.4808
▁inga	-11.481
▁máj	-11.4813
▁Il	-11.482
III	-11.4835
▁lí	-11.4847
▁uzuk	-11.4856
▁Vl	-11.4861
▁cson	-11.4897
▁mara	-11.4922
▁1-0	-11.4937
▁kóst	-11.4944
▁ávo	-11.4959
ima	-11.4962
▁tap	-11.4966
▁allo	-11.4971
▁ősze	-11.4975
▁yo	-11.4979
▁ouse	-11.499
▁85	-11.4991
▁Ház	-11.4992
▁Ja	-11.5027
▁Ál	-11.5038
▁tvá	-11.504
▁teke	-11.5075
▁éki	-11.5075
▁alif	-11.5086
au	-11.5101
▁MLSZ	-11.5106
▁Exp	-11.5112
▁aland	-11.5122
▁iver	-11.5141
▁aka	-11.5143
▁rm	-11.5144
▁Kf	-11.5155
75	-11.5158
ner	-11.516
▁rc	-11.5163
anul	-11.5167
▁kocs	-11.5167
▁övek	-11.5172
yhá	-11.5173
erme	-11.5182
▁gyom	-11.519
▁nic	-11.5195
mun	-11.5195
▁tov	-11.5199
▁yú	-11.5207
ter	-11.5216
▁lov	-11.5222
▁átha	-11.5236
rih	-11.5249
▁enh	-11.5255
▁ráta	-11.5258
DS	-11.5262
▁aw	-11.527
▁rij	-11.5277
▁iprus	-11.5278
▁iPh	-11.528
▁skál	-11.5283
▁delem	-11.5286
▁nny	-11.5289
▁tun	-11.5292
bou	-11.5295
▁kai	-11.5303
▁baja	-11.5308
▁Öt	-11.5311
▁...	-11.5312
▁dú	-11.5315
▁fran	-11.5328
▁láss	-11.5339
▁kőz	-11.534
csi	-11.5341
▁lav	-11.5346
▁14.	-11.5348
▁egf	-11.5354
▁etik	-11.5354
▁47	-11.5358
M	-11.5362
▁ukr	-11.5363
▁gz	-11.5368
▁arri	-11.5371
▁1-1	-11.5372
lip	-11.5373
▁yak	-11.5379
▁ras	-11.538
▁űle	-11.539
▁Hc	-11.5402
▁erm	-11.5403
▁col	-11.5424
▁iad	-11.5427
▁édel	-11.5434
▁56	-11.5435
▁umen	-11.5447
▁ira	-11.5451
▁ZTE	-11.5454
▁ston	-11.5468
▁dál	-11.5469
úl	-11.5482
▁elj	-11.5485
▁Né	-11.5488
▁130	-11.5493
▁szkó	-11.5501
VD	-11.5519
▁tlét	-11.5539
▁ónak	-11.5547
▁ábrá	-11.5564
▁rősö	-11.5569
BC	-11.5573
▁leke	-11.5602
▁gek	-11.5605
▁9,	-11.5609
▁tha	-11.5618
▁Ár	-11.5623
▁Arge	-11.5631
▁Man	-11.5636
▁isze	-11.5651
▁atr	-11.5652
▁kút	-11.5657
▁toro	-11.5664
ger	-11.5667
▁pes	-11.5671
▁vag	-11.5679
útor	-11.57
▁2-1	-11.5727
▁Je	-11.5738
hár	-11.5744
▁zuk	-11.5746
▁irs	-11.5752
▁51	-11.576
▁ékek	-11.5773
▁bus	-11.5796
gna	-11.5805
▁ásho	-11.5815
ama	-11.5817
▁rvá	-11.5821
▁ince	-11.5833
▁Em	-11.5841
▁kard	-11.5841
mokr	-11.5841
juk	-11.5843
ah	-11.5847
▁yár	-11.5847
▁igé	-11.5858
▁Vf	-11.5867
▁anyja	-11.5868
ro	-11.5875
▁iami	-11.5887
▁gyed	-11.5888
▁nát	-11.5888
▁ust	-11.5901
▁erdá	-11.5901
▁$	-11.5903
▁­	-11.5903
▁iPad	-11.5904
▁naci	-11.5906
▁maff	-11.5915
▁mpi	-11.5928
▁romb	-11.5939
▁élye	-11.594
▁egyh	-11.5941
▁53	-11.5962
▁och	-11.5973
▁dd	-11.5979
▁SE	-11.5991
▁érd	-11.5993
▁ántó	-11.5999
▁gna	-11.6007
▁álják	-11.6009
▁éter	-11.6011
▁iker	-11.6015
▁lvá	-11.6039
▁onat	-11.6062
▁vend	-11.6074
▁apr	-11.6078
▁laj	-11.6085
▁zeg	-11.61
SE	-11.6121
▁ciu	-11.6124
▁kla	-11.6128
▁Sc	-11.6134
rend	-11.6134
▁átr	-11.614
▁eir	-11.614
▁AC	-11.6154
▁eid	-11.6175
R	-11.6175
▁tefan	-11.6184
▁ridge	-11.6185
▁52	-11.6198
▁anor	-11.6199
▁ige	-11.6202
▁ánkó	-11.6208
▁rdi	-11.6217
▁akku	-11.6225
▁taní	-11.6237
▁lab	-11.6244
▁igén	-11.6255
▁dől	-11.6267
▁knél	-11.6279
▁lízi	-11.6285
▁zai	-11.629
▁agda	-11.6296
▁alga	-11.6303
▁Mó	-11.6304
▁orá	-11.6306
▁kuta	-11.6312
▁tisz	-11.6319
▁link	-11.6323
▁kid	-11.6327
▁őlő	-11.6334
▁cm	-11.6344
▁kú	-11.6345
▁vás	-11.6348
▁sorb	-11.6357
©	-11.6375
▁ooney	-11.6376
▁csom	-11.6378
▁röh	-11.6381
▁árk	-11.6393
▁ede	-11.6416
▁kum	-11.6431
▁ske	-11.6433
▁mást	-11.6434
▁ossá	-11.644
▁ázo	-11.6446
▁evi	-11.646
;	-11.6468
▁atik	-11.6474
▁sták	-11.6475
▁arok	-11.6482
▁He	-11.6488
▁Pé	-11.6489
▁tások	-11.65
▁tab	-11.6521
▁mith	-11.6539
▁aida	-11.6544
▁roup	-11.6573
▁ETO	-11.6575
▁ple	-11.6579
▁eis	-11.658
de	-11.658
sch	-11.66
▁ülete	-11.6601
▁röp	-11.6614
▁öb	-11.6614
▁óp	-11.6617
▁reen	-11.6621
▁rne	-11.6624
NT	-11.6624
▁ason	-11.6626
▁rni	-11.6631
▁ajn	-11.6635
▁gőz	-11.6638
▁erh	-11.6641
▁rte	-11.6644
▁nben	-11.6661
▁54	-11.6667
▁csé	-11.6669
▁záz	-11.667
65	-11.6676
▁62	-11.668
▁kén	-11.6682
▁alco	-11.6688
▁EBE	-11.669
▁zna	-11.6693
▁tana	-11.6709
▁ross	-11.6725
▁ldo	-11.6736
▁indu	-11.6755
▁AP	-11.6771
▁zz	-11.6778
▁eha	-11.6803
KF	-11.6815
▁how	-11.6821
▁dent	-11.6827
▁vete	-11.6835
▁zar	-11.6845
▁arap	-11.6879
AC	-11.6903
▁éret	-11.6908
▁kesz	-11.6919
▁ruk	-11.6922
90	-11.6923
▁aris	-11.693
▁Gyö	-11.6932
▁züle	-11.6939
ec	-11.6945
▁57	-11.695
▁onya	-11.696
▁llat	-11.6975
▁NH	-11.7003
▁thén	-11.7008
▁nyeg	-11.7009
▁mut	-11.7019
▁ámá	-11.7024
▁ice	-11.7024
ESZ	-11.7025
▁skót	-11.7031
ranz	-11.7082
▁atti	-11.7085
▁ewis	-11.7095
ex	-11.7098
▁rács	-11.7106
ou	-11.7112
▁inger	-11.7113
▁özv	-11.7115
▁pte	-11.7118
▁gymá	-11.7128
▁hid	-11.7134
▁áko	-11.7135
▁rle	-11.7139
▁öve	-11.7147
▁rans	-11.7147
▁oul	-11.715
▁pisz	-11.7154
▁kh	-11.7163
▁XX	-11.7171
▁elése	-11.7176
▁2-0	-11.7179
▁Pár	-11.7189
▁nyűg	-11.7194
ran	-11.7207
J	-11.722
▁21.	-11.7237
IV	-11.7261
aga	-11.7269
▁dir	-11.7271
mán	-11.7272
▁avig	-11.7279
▁űlés	-11.7285
▁arge	-11.7291
▁uan	-11.7299
▁úlyo	-11.73
▁rof	-11.7305
▁gér	-11.7306
▁viv	-11.731
▁book	-11.7313
▁ásba	-11.7315
rről	-11.7315
▁plán	-11.732
opul	-11.7325
lic	-11.7339
▁ttes	-11.7348
▁lló	-11.7355
▁svá	-11.7359
▁ntá	-11.7369
▁egés	-11.7373
▁inká	-11.7385
▁ább	-11.7394
▁talo	-11.7397
▁emé	-11.7414
▁zeke	-11.7419
▁rseny	-11.742
▁95	-11.7422
me	-11.7426
▁öko	-11.7431
▁Bc	-11.7436
▁pasz	-11.7438
▁info	-11.7458
▁ivi	-11.746
▁ite	-11.7465
SZK	-11.7478
-6	-11.7478
▁zem	-11.7486
▁alta	-11.7493
▁etünk	-11.7499
▁zit	-11.7499
▁3-4	-11.7503
▁MTK	-11.751
▁ä	-11.7517
▁ózs	-11.7518
▁trá	-11.7526
▁tand	-11.7534
▁ódo	-11.7534
zza	-11.7539
▁ortá	-11.7554
▁ÁSZ	-11.7557
bi	-11.7558
▁ora	-11.7566
▁SZ	-11.7573
gor	-11.7577
▁rint	-11.7582
FP	-11.7592
▁amok	-11.7604
▁3-1	-11.7611
▁iú	-11.7626
▁ome	-11.7627
▁rős	-11.7628
▁kiál	-11.7631
▁adj	-11.7639
▁éne	-11.765
▁szkö	-11.7651
▁eszk	-11.7655
▁óva	-11.7668
emel	-11.7683
ix	-11.7694
▁omi	-11.7705
▁tle	-11.772
▁dás	-11.7723
▁div	-11.7732
▁4,5	-11.7751
▁tion	-11.7751
▁she	-11.7768
OSZ	-11.7785
▁trén	-11.7792
▁szag	-11.7806
upá	-11.7812
▁pia	-11.782
▁krém	-11.7824
▁obo	-11.7826
EFA	-11.783
▁Faz	-11.7844
rízi	-11.7851
FC	-11.7853
▁őzet	-11.7854
▁AB	-11.786
▁rona	-11.787
▁Év	-11.7871
SC	-11.7885
▁ásnak	-11.7885
▁gge	-11.7887
▁ney	-11.79
▁SC	-11.7906
▁sík	-11.7923
▁yí	-11.7926
azar	-11.7926
▁fúv	-11.7941
RFK	-11.7949
▁sos	-11.7969
alap	-11.797
▁ead	-11.7993
nem	-11.7993
▁prog	-11.7995
▁ifi	-11.8016
▁aye	-11.803
▁talp	-11.8031
▁arro	-11.8033
age	-11.8034
11	-11.8041
▁trém	-11.8047
▁nds	-11.8049
▁sco	-11.8052
▁óssá	-11.8055
12	-11.8062
DP	-11.8065
▁étfő	-11.8066
▁nbe	-11.8066
▁lámpa	-11.8072
▁íci	-11.8079
▁rgon	-11.8092
▁egh	-11.8092
▁növ	-11.8095
▁adar	-11.8107
▁kás	-11.8108
▁zvén	-11.8111
▁klá	-11.8116
▁stor	-11.8131
kin	-11.8148
▁dja	-11.8157
▁kong	-11.8162
▁laza	-11.8178
▁ütyü	-11.8191
▁anyj	-11.8193
▁yne	-11.8218
▁NBA	-11.8218
▁Szen	-11.8237
öm	-11.8265
▁IV	-11.8276
and	-11.8285
▁RMDSZ	-11.8285
▁MNV	-11.8285
▁rös	-11.8288
áj	-11.8293
▁gus	-11.8295
▁zere	-11.8301
irde	-11.8306
▁irál	-11.8307
▁ps	-11.8309
▁izom	-11.8313
▁yén	-11.8316
ozzá	-11.8316
▁tipp	-11.8317
▁pop	-11.8324
▁lőre	-11.8332
▁mog	-11.8344
▁znek	-11.8344
BI	-11.8347
▁esco	-11.8354
▁Ex	-11.8357
▁iás	-11.8365
um	-11.8366
▁kúr	-11.8373
rul	-11.8387
▁ánk	-11.8389
▁tex	-11.8393
▁ladá	-11.8397
ya	-11.8399
▁tö	-11.8399
▁0,5	-11.8408
▁vata	-11.8409
AL	-11.8411
▁Go	-11.8427
▁bbi	-11.8431
▁obbi	-11.8455
utt	-11.8458
▁anci	-11.8462
▁zga	-11.8462
▁esete	-11.8469
▁rébe	-11.847
▁eth	-11.847
▁muta	-11.8475
▁ams	-11.849
▁torz	-11.849
▁GM	-11.8495
▁bás	-11.8511
▁Ors	-11.8514
em	-11.8515
ff	-11.8522
▁nvald	-11.8522
▁ego	-11.8528
▁guru	-11.853
▁anyi	-11.8547
▁stin	-11.8557
▁lyuk	-11.8558
▁alla	-11.8563
▁58	-11.8572
▁72	-11.8574
35	-11.8578
Q	-11.8581
rkó	-11.8584
▁mbo	-11.8587
▁öml	-11.8588
▁etnek	-11.8595
ője	-11.861
úd	-11.8616
▁ódi	-11.8622
▁kes	-11.8624
▁vö	-11.8625
▁erü	-11.8636
▁kád	-11.8639
out	-11.8645
abda	-11.8669
▁aran	-11.867
▁ehe	-11.8673
▁órház	-11.8681
▁ainz	-11.8691
▁tánc	-11.8693
▁dók	-11.8695
▁adha	-11.8722
▁ibe	-11.8723
▁váro	-11.873
▁ady	-11.8738
▁zóná	-11.8749
▁nyban	-11.875
▁lgá	-11.8756
▁ove	-11.8756
▁Ajax	-11.8765
▁tobo	-11.878
▁veté	-11.8781
▁nku	-11.8794
▁EKB	-11.8799
▁kart	-11.8806
▁68	-11.8811
▁ltot	-11.8813
▁ntra	-11.8815
▁etve	-11.8822
▁Tö	-11.8825
▁zeté	-11.8828
▁szar	-11.8854
ther	-11.8855
▁auru	-11.8855
▁eine	-11.8857
▁áza	-11.8869
▁rült	-11.8873
▁banda	-11.888
@	-11.8888
▁3-0	-11.8888
▁golf	-11.889
ohl	-11.8899
▁akci	-11.89
▁Nico	-11.8901
▁Que	-11.8902
▁Bd	-11.8917
▁69	-11.8918
▁gyás	-11.8922
eme	-11.8928
▁ozik	-11.8929
▁KC	-11.894
▁gró	-11.8966
▁61	-11.9007
▁ardi	-11.9009
szab	-11.901
▁Un	-11.9015
nu	-11.9016
▁rzé	-11.9033
▁öszö	-11.9036
ow	-11.9049
▁rali	-11.9056
▁koll	-11.906
▁etyk	-11.9068
▁vác	-11.9073
▁taps	-11.9088
▁váll	-11.9089
▁nge	-11.9102
▁aká	-11.9103
▁rtu	-11.9116
▁sas	-11.9118
ax	-11.9118
▁66	-11.9129
▁olgo	-11.913
▁atur	-11.9139
▁spa	-11.9139
▁pofá	-11.9141
▁ario	-11.9142
▁GVH	-11.9145
▁dm	-11.9151
▁tep	-11.9166
▁alag	-11.9168
▁US	-11.9169
▁XII	-11.9169
▁Eva	-11.9172
▁osb	-11.9177
▁Pin	-11.9196
▁idro	-11.9199
▁móri	-11.9211
▁alé	-11.9212
▁pek	-11.9212
▁Ba	-11.9218
KI	-11.9224
▁gróf	-11.9226
▁auer	-11.9231
▁Mac	-11.9239
▁ntin	-11.9243
▁leté	-11.9253
▁ovas	-11.9261
NA	-11.9264
uba	-11.9266
ÉV	-11.9266
-8	-11.9266
▁CNN	-11.9268
▁Qui	-11.9282
▁egm	-11.9285
▁63	-11.9285
▁elep	-11.9288
▁őss	-11.9289
▁álj	-11.9295
▁MTA	-11.9299
▁kombi	-11.9301
▁áva	-11.9317
rse	-11.9327
▁ictor	-11.9327
▁Gál	-11.9332
▁ox	-11.9339
▁gynö	-11.936
▁itk	-11.9376
▁aure	-11.9376
▁play	-11.9389
▁nyir	-11.9389
▁éká	-11.9389
▁Pon	-11.9399
▁iem	-11.94
tric	-11.941
ast	-11.9421
▁tog	-11.9428
▁sign	-11.9428
▁59	-11.9432
▁któ	-11.9447
▁orb	-11.9448
▁Ah	-11.9449
▁sztes	-11.9451
▁ife	-11.9465
▁akab	-11.9474
▁nita	-11.95
▁Lé	-11.9535
W	-11.9543
▁köve	-11.9546
▁nform	-11.9549
▁néni	-11.9557
▁125	-11.9569
▁31.	-11.957
▁aúd	-11.9572
▁lova	-11.9594
▁ejl	-11.9595
▁lob	-11.9633
V	-11.9636
▁Kh	-11.9644
▁74	-11.9644
▁síe	-11.9668
▁AS	-11.9669
RC	-11.9671
red	-11.9674
▁euge	-11.9676
▁kaja	-11.9678
▁table	-11.9683
▁álya	-11.9685
arif	-11.9686
▁organ	-11.9702
lin	-11.9705
▁bőr	-11.9707
ED	-11.9721
▁dex	-11.9722
▁Hd	-11.9724
▁gyr	-11.9724
▁apó	-11.9736
▁zámí	-11.9738
▁áh	-11.9747
▁tté	-11.9752
▁stan	-11.9772
▁tran	-11.9772
rth	-11.9777
▁ABC	-11.9783
▁igan	-11.9789
24	-11.9792
▁Lo	-11.9793
▁stat	-11.9794
▁sett	-11.9802
▁ovák	-11.9802
▁algó	-11.9803
▁pusk	-11.9811
▁Qua	-11.982
▁Tom	-11.9821
▁leck	-11.9822
▁FIA	-11.9829
▁own	-11.9831
▁rugó	-11.9833
ry	-11.9834
▁észt	-11.9835
▁88	-11.9836
▁ahre	-11.9837
▁lár	-11.9839
▁ivó	-11.9846
per	-11.9851
▁Fide	-11.9863
▁avis	-11.9864
▁atio	-11.9879
IX	-11.9886
▁Nick	-11.9894
▁cí	-11.99
▁BA	-11.9901
▁anch	-11.993
▁XVI	-11.9935
▁DAX	-11.9935
▁yör	-11.9944
LTE	-11.9944
▁poén	-11.9945
▁ádi	-11.9945
▁MU	-11.9947
▁30.	-11.9975
▁mária	-11.9985
▁Szo	-11.9985
HO	-11.9996
▁arkó	-11.9998
▁agas	-12.0001
▁izon	-12.0012
▁kho	-12.0019
▁haw	-12.0021
▁topl	-12.0029
▁yal	-12.0035
▁ándo	-12.0044
▁aku	-12.0046
▁stom	-12.005
▁árda	-12.005
▁ON	-12.0059
▁renc	-12.0061
▁szja	-12.0062
▁ape	-12.0063
▁arag	-12.0071
▁ariá	-12.0075
▁3-2	-12.0078
▁pra	-12.0078
▁MFB	-12.0079
▁dör	-12.0082
▁PC	-12.0082
kos	-12.0109
▁emi	-12.011
▁zb	-12.0117
▁Sir	-12.012
▁zsz	-12.0121
▁cas	-12.0121
▁ovi	-12.0122
nne	-12.0127
▁ollá	-12.0127
▁kában	-12.013
▁itim	-12.0138
▁Úr	-12.0139
▁FTS	-12.015
▁mart	-12.0166
rsó	-12.0166
▁Fra	-12.0167
25	-12.0181
▁kacs	-12.0191
yan	-12.0196
▁marh	-12.0209
▁Ű	-12.0215
▁ornél	-12.0215
nov	-12.0216
▁rlát	-12.0218
▁lon	-12.0231
▁arv	-12.0237
▁ntel	-12.0252
▁nikó	-12.0257
▁nve	-12.0271
▁esült	-12.0278
▁edr	-12.0279
▁alas	-12.0279
▁zmé	-12.0287
▁üg	-12.0291
tej	-12.0293
▁egr	-12.0301
▁abl	-12.0312
▁Wa	-12.032
▁Bak	-12.0324
▁rop	-12.0335
▁73	-12.0336
▁égbe	-12.0355
▁appa	-12.0357
▁pomp	-12.0362
▁éket	-12.0365
▁diff	-12.0367
űr	-12.0377
▁gai	-12.0384
iszt	-12.0393
▁toke	-12.0394
▁ath	-12.04
TM	-12.0401
▁rve	-12.0407
▁stop	-12.0423
▁dit	-12.0447
▁atása	-12.0455
▁XI	-12.0465
▁sai	-12.048
▁sra	-12.0487
▁NL	-12.0505
▁űs	-12.051
▁toll	-12.0518
▁agu	-12.052
RI	-12.0526
18	-12.0527
▁tová	-12.0528
rúz	-12.0529
▁elly	-12.0531
▁léc	-12.0549
▁lőb	-12.0568
▁evan	-12.0569
▁rló	-12.0583
▁itan	-12.0586
▁kát	-12.0592
ney	-12.0601
▁sajt	-12.0604
▁rka	-12.0605
vés	-12.0605
▁épz	-12.0606
▁AI	-12.0608
▁üli	-12.0615
▁kvót	-12.0619
O	-12.0623
inc	-12.0635
▁ltra	-12.0637
▁prom	-12.0638
▁uch	-12.0646
▁FM	-12.0647
▁ily	-12.0652
PS	-12.0657
mmer	-12.0658
▁pata	-12.0663
▁XVII	-12.0684
▁zse	-12.0688
▁Vc	-12.069
ago	-12.0692
▁lágy	-12.0692
▁jü	-12.0694
/	-12.0704
ajor	-12.071
▁kába	-12.0733
▁rótt	-12.0734
▁kand	-12.074
▁álma	-12.0746
un	-12.0758
▁arie	-12.0771
▁ried	-12.0778
▁very	-12.0789
▁Fed	-12.0802
▁Bf	-12.0803
▁ilvá	-12.0804
alax	-12.0805
▁DJ	-12.0811
▁dugó	-12.0816
▁alan	-12.082
▁grán	-12.0821
▁gyér	-12.0822
▁We	-12.083
mink	-12.0837
▁trip	-12.0846
▁ball	-12.0849
▁KT	-12.0865
▁etan	-12.0867
▁Pro	-12.0868
▁CO	-12.087
▁riti	-12.0877
▁omló	-12.0901
ró	-12.0912
▁arih	-12.0912
▁ante	-12.0916
ac	-12.0922
ckó	-12.0926
ej	-12.0929
▁ool	-12.0931
any	-12.0931
▁szkár	-12.0944
▁ukar	-12.0957
▁káp	-12.0966
nder	-12.098
▁MKP	-12.0983
▁öny	-12.0996
▁ági	-12.1006
BA	-12.1037
▁dok	-12.1041
▁84	-12.1041
▁olla	-12.1043
avor	-12.1043
▁llít	-12.1057
▁XV	-12.1068
tif	-12.1072
▁Sze	-12.1075
var	-12.1078
▁hes	-12.1086
▁azza	-12.109
U	-12.111
▁ádas	-12.1112
▁rtet	-12.1112
▁bara	-12.1127
kay	-12.1149
▁ények	-12.1152
▁yl	-12.1157
▁Max	-12.1164
▁nyez	-12.1179
▁qui	-12.1184
DU	-12.1186
HH	-12.1199
▁67	-12.121
▁sty	-12.1212
▁kló	-12.1215
▁Vd	-12.1218
atja	-12.1225
▁Hb	-12.1231
lja	-12.1232
▁tasz	-12.1233
▁yg	-12.1235
▁MR	-12.1246
▁uri	-12.1251
▁bén	-12.1258
▁urra	-12.1269
▁őrö	-12.1292
▁mák	-12.1292
▁komp	-12.1307
▁ciá	-12.1312
▁öul	-12.1322
▁uis	-12.1323
▁patk	-12.1324
▁zek	-12.1324
▁Bay	-12.1327
▁ktő	-12.1333
átor	-12.1335
▁kést	-12.1345
▁írá	-12.1355
IM	-12.1358
▁gör	-12.1359
▁raft	-12.1362
▁ORT	-12.1369
▁ima	-12.1375
OP	-12.138
▁bón	-12.1385
▁kaza	-12.1395
▁orva	-12.1397
▁bort	-12.1407
▁díja	-12.1408
▁aff	-12.1415
▁Xav	-12.1421
▁erná	-12.1435
▁eed	-12.1445
▁dve	-12.1447
▁atan	-12.1452
15	-12.1459
▁risc	-12.1462
▁ipos	-12.147
-7	-12.147
Z	-12.1495
▁lana	-12.1497
▁liz	-12.153
76	-12.1531
▁abre	-12.1532
▁MI	-12.1544
ndra	-12.1546
▁mazo	-12.156
▁lma	-12.1562
▁nás	-12.157
▁zemb	-12.1571
▁boj	-12.1573
▁ajor	-12.1582
BH	-12.1582
▁alaj	-12.1588
▁0-1	-12.1595
cat	-12.1605
▁bbe	-12.1613
▁súg	-12.1618
▁post	-12.1655
har	-12.1657
▁lex	-12.1669
▁báb	-12.1678
▁CD	-12.1692
▁szlet	-12.1698
▁gí	-12.1698
TE	-12.1706
▁akra	-12.1708
xe	-12.1708
▁yere	-12.1723
▁ágó	-12.1728
DK	-12.1729
▁orv	-12.1732
▁96	-12.1734
▁gyú	-12.1736
▁rön	-12.174
▁6:4	-12.1744
▁gú	-12.1746
▁HBO	-12.1747
▁dox	-12.1759
▁vanc	-12.176
MM	-12.1761
pcs	-12.1772
▁etébe	-12.1774
▁ráj	-12.1775
vár	-12.1814
▁krón	-12.1817
▁erin	-12.1822
▁túsz	-12.1823
▁alti	-12.1831
▁71	-12.1831
▁KH	-12.1835
▁ezne	-12.1861
▁árta	-12.1866
őzés	-12.1878
▁tke	-12.1889
rin	-12.1891
▁gym	-12.1894
du	-12.1896
▁napok	-12.1908
▁FA	-12.1909
13	-12.1913
▁lift	-12.1915
▁eil	-12.192
▁azio	-12.1929
▁Euró	-12.1931
▁djá	-12.1933
pó	-12.194
tiku	-12.1942
▁terr	-12.1951
▁idat	-12.1952
45	-12.1962
▁atar	-12.197
▁iron	-12.1973
ble	-12.1973
28	-12.1975
▁buj	-12.1989
▁sú	-12.1995
dy	-12.2
▁arén	-12.2009
dic	-12.201
▁töt	-12.2029
▁lip	-12.2035
▁ece	-12.2038
▁orrá	-12.2044
orzs	-12.2051
OL	-12.2067
▁Lee	-12.2075
RÉS	-12.208
▁dw	-12.2086
▁los	-12.2086
▁orok	-12.2102
▁bágy	-12.2105
▁arn	-12.2109
▁gálá	-12.2113
▁árban	-12.2115
▁VI	-12.2118
ray	-12.213
▁RS	-12.2136
if	-12.2142
arti	-12.2152
▁ökő	-12.216
▁ibé	-12.2168
▁mít	-12.2173
▁Fd	-12.2183
▁kró	-12.2184
KH	-12.2189
▁81	-12.2197
▁das	-12.2209
▁VII	-12.221
▁árs	-12.2214
▁zp	-12.2215
▁ssza	-12.2219
▁egg	-12.2223
rad	-12.2236
▁LD	-12.2238
▁llí	-12.2239
▁radi	-12.2241
▁tory	-12.2243
▁db	-12.2244
▁egyhá	-12.2249
apká	-12.2251
▁TÖ	-12.2252
▁ágr	-12.2254
mpuy	-12.226
▁gyo	-12.2261
▁suga	-12.2269
▁lazí	-12.2269
▁lash	-12.2274
▁atch	-12.228
▁bot	-12.2286
▁lbás	-12.2288
▁Boc	-12.2295
▁ndé	-12.2298
▁opor	-12.2307
▁TE	-12.2322
▁EB	-12.2327
▁lavi	-12.2348
▁lna	-12.235
▁stone	-12.235
ox	-12.2351
▁düh	-12.2356
▁nö	-12.2359
▁deme	-12.2362
▁gála	-12.2371
▁yp	-12.2372
ru	-12.2375
▁audi	-12.2382
▁rizs	-12.2384
▁ermo	-12.2391
▁púr	-12.2397
pán	-12.2403
▁rim	-12.2409
▁2,7	-12.2414
skó	-12.2414
dem	-12.2426
▁IX	-12.2427
▁OECD	-12.2428
▁aylor	-12.2428
▁BÉT	-12.2431
TI	-12.2435
▁1-3	-12.2437
▁iesta	-12.2441
tán	-12.2445
ver	-12.2447
▁róbá	-12.2454
ös	-12.2463
▁tné	-12.2466
▁tagj	-12.2474
▁épek	-12.2476
▁órhá	-12.2477
oren	-12.2482
▁atya	-12.2483
CD	-12.2485
▁ékbe	-12.2498
uc	-12.2506
▁zr	-12.2516
16	-12.2536
▁22.	-12.2538
27	-12.2546
▁dög	-12.2551
ich	-12.2563
▁sát	-12.2566
kand	-12.2566
▁teré	-12.2567
nár	-12.2569
▁rb	-12.2577
▁szka	-12.2578
▁áho	-12.2584
tus	-12.2589
17	-12.259
▁TEVA	-12.2607
▁7:6	-12.2607
▁ydney	-12.261
ca	-12.2616
▁ahm	-12.2622
▁orris	-12.2625
▁iné	-12.2649
34	-12.2653
▁akin	-12.2663
▁zacs	-12.2666
▁lila	-12.2668
▁230	-12.2676
▁qua	-12.2678
▁uj	-12.2684
▁mác	-12.2689
▁egít	-12.2696
▁gla	-12.2698
▁lenő	-12.2707
▁fák	-12.2715
▁77	-12.2716
▁Ff	-12.2721
ömb	-12.2725
mar	-12.2738
▁apu	-12.2738
▁karc	-12.2739
14	-12.2739
▁lőz	-12.274
33	-12.2741
▁adic	-12.2743
▁bugy	-12.2748
▁alle	-12.2755
▁melé	-12.2756
▁izza	-12.2758
▁yb	-12.276
▁léb	-12.2777
▁25.	-12.2781
▁ahn	-12.2786
OB	-12.2796
▁iális	-12.2798
▁alter	-12.2817
▁onti	-12.2828
85	-12.2828
▁start	-12.2838
▁tám	-12.2848
▁lves	-12.2859
▁Bb	-12.2868
▁thai	-12.287
▁unda	-12.2879
▁23.	-12.2884
▁uma	-12.2902
▁24.	-12.2916
▁emin	-12.2931
▁Pand	-12.2944
▁ltat	-12.2948
dam	-12.2956
▁ágba	-12.2961
ych	-12.2973
▁ocus	-12.2975
▁imn	-12.2979
POP	-12.2987
▁lások	-12.3004
▁asca	-12.3004
▁kvóta	-12.3014
▁edése	-12.3015
▁enry	-12.3017
▁nba	-12.3028
▁anka	-12.3029
▁Pak	-12.3032
▁nfo	-12.3033
▁lmá	-12.3041
▁uft	-12.3041
▁27.	-12.3048
▁ipp	-12.3049
▁fix	-12.3051
▁dése	-12.3062
▁amuel	-12.3065
▁apok	-12.308
tur	-12.3085
axis	-12.3087
▁aldo	-12.3089
▁rh	-12.3096
▁latb	-12.3096
84	-12.3098
55	-12.3114
▁pör	-12.313
RA	-12.3147
▁rot	-12.3148
▁rix	-12.316
▁4-1	-12.3167
▁lkész	-12.3171
PO	-12.3174
▁dön	-12.3179
MA	-12.3181
▁sla	-12.3182
▁sárg	-12.3186
▁elne	-12.3194
▁anyám	-12.3196
▁mü	-12.3203
OS	-12.3204
▁nyik	-12.3204
▁HD	-12.3212
▁pcs	-12.3215
▁tul	-12.3216
▁29.	-12.3225
▁pí	-12.3229
▁üle	-12.323
▁26.	-12.3232
▁28.	-12.3237
ä	-12.326
▁elü	-12.3265
▁86	-12.3292
▁ajva	-12.3301
▁GT	-12.3306
▁túrá	-12.3313
▁tank	-12.3329
66	-12.3335
▁hián	-12.335
▁Bü	-12.3368
▁ogra	-12.3369
▁Fox	-12.3375
▁bró	-12.338
▁pól	-12.3389
▁tehe	-12.3394
iss	-12.3396
▁atin	-12.3409
▁őv	-12.3409
22	-12.3416
▁age	-12.3419
ubor	-12.3435
phy	-12.344
▁trad	-12.3449
▁orth	-12.3454
▁̋A	-12.3459
▁Fb	-12.3461
ada	-12.3463
▁XXI	-12.3465
▁övi	-12.3468
▁jto	-12.347
▁run	-12.348
▁ling	-12.3481
kken	-12.3483
▁Bud	-12.3499
▁76	-12.3521
iff	-12.3524
▁asda	-12.3542
▁lőn	-12.3548
▁avan	-12.3554
▁paj	-12.3577
21	-12.3584
▁Bab	-12.3596
SM	-12.3597
▁öntő	-12.3599
▁tein	-12.3603
▁ána	-12.3611
▁ugy	-12.3615
▁itat	-12.3617
▁lomb	-12.3623
aszk	-12.3635
rner	-12.3636
▁álna	-12.3636
▁Ul	-12.3636
cur	-12.3643
▁arin	-12.3669
▁89	-12.3669
▁szko	-12.368
▁Lip	-12.3685
▁lív	-12.3689
▁bec	-12.3704
▁mere	-12.3708
▁Lak	-12.3713
▁rome	-12.3719
▁búvá	-12.3752
egye	-12.3754
▁elíd	-12.3756
ölgy	-12.3758
▁auri	-12.3759
▁Astra	-12.3766
▁VW	-12.3771
▁Anc	-12.3779
▁repül	-12.3813
▁usan	-12.3814
72	-12.3816
▁iper	-12.3817
▁Fc	-12.3821
▁Ac	-12.3842
▁buta	-12.3856
▁oman	-12.3872
ill	-12.3889
▁erra	-12.3928
jó	-12.3938
▁obr	-12.3952
▁ë	-12.3956
grá	-12.3956
SI	-12.3972
▁0-2	-12.3973
▁ívá	-12.3973
▁sánc	-12.3984
▁Ajka	-12.3987
▁82	-12.3994
▁lapj	-12.4
▁new	-12.4003
▁lanc	-12.4006
▁béb	-12.401
▁yu	-12.4011
▁isch	-12.4014
▁lefo	-12.402
▁odro	-12.4021
▁tága	-12.4021
alau	-12.4023
ustr	-12.4024
▁ril	-12.4024
úsz	-12.4057
▁arre	-12.406
▁dúl	-12.4079
lio	-12.4081
lam	-12.4083
▁duó	-12.4094
▁eda	-12.4106
▁idan	-12.4109
%	-12.4119
▁onte	-12.4123
▁bud	-12.4134
▁war	-12.4137
▁etw	-12.4137
▁fáj	-12.414
▁eib	-12.4145
▁karu	-12.4155
▁owl	-12.4159
ayb	-12.416
abri	-12.4161
RT	-12.4165
▁span	-12.4169
▁87	-12.4169
▁lark	-12.417
riu	-12.417
▁Fü	-12.4174
▁múz	-12.4174
CC	-12.4175
▁UD	-12.4175
▁tását	-12.4176
▁NOB	-12.4178
oth	-12.4178
kamu	-12.4199
▁toc	-12.421
ard	-12.4211
▁egl	-12.4215
▁lici	-12.4215
▁arma	-12.4217
▁78	-12.4221
▁ancia	-12.4221
xb	-12.4227
▁edel	-12.4238
▁dh	-12.4242
▁szón	-12.4243
▁ordí	-12.4247
▁etü	-12.4254
▁edin	-12.4268
▁amor	-12.4273
TA	-12.4277
▁oza	-12.4278
▁nh	-12.4286
▁réb	-12.4306
▁PM	-12.4306
▁gít	-12.4309
▁alli	-12.432
▁Daka	-12.4323
▁erén	-12.4331
son	-12.4334
▁kná	-12.4341
EK	-12.4347
▁inj	-12.4373
ć	-12.4376
▁NIF	-12.4376
▁NFL	-12.4376
▁lenn	-12.4376
▁Pen	-12.4383
▁lice	-12.4387
▁alok	-12.4389
▁erve	-12.4404
▁Rio	-12.4406
▁nyij	-12.4412
▁ary	-12.4414
▁ois	-12.442
▁Pó	-12.443
▁MF	-12.4431
▁sky	-12.4434
▁síp	-12.4435
▁atyá	-12.4439
tic	-12.4461
apin	-12.4462
ER	-12.4476
▁mati	-12.448
▁eléb	-12.4488
▁vés	-12.449
▁kus	-12.4493
▁oeb	-12.4497
▁rass	-12.45
▁lay	-12.4503
▁pag	-12.4504
▁raw	-12.451
▁kenu	-12.4513
▁anda	-12.4516
▁eisz	-12.4519
▁tew	-12.4525
▁urn	-12.4525
▁ider	-12.453
▁hane	-12.454
▁lac	-12.4543
▁űl	-12.4548
▁gyep	-12.4551
rich	-12.4555
95	-12.4556
▁rice	-12.4557
▁Nm	-12.4561
lah	-12.4562
▁lámp	-12.4564
▁anno	-12.4565
hat	-12.4566
▁rigy	-12.4578
▁tréf	-12.4579
▁itz	-12.4581
▁dur	-12.4598
▁STAR	-12.46
▁cati	-12.4601
▁mete	-12.4606
▁HM	-12.4608
▁2-2	-12.4608
▁redit	-12.461
▁Pann	-12.462
▁porn	-12.4621
▁tomp	-12.4625
sség	-12.4625
▁zava	-12.4627
▁arka	-12.4628
HC	-12.4632
▁róm	-12.4633
▁Ide	-12.4638
▁eccs	-12.4654
▁yim	-12.4658
SA	-12.4664
▁latt	-12.4667
▁amel	-12.4669
▁réz	-12.467
▁thle	-12.4674
▁lech	-12.4687
▁efe	-12.4695
▁91	-12.4698
77	-12.4701
▁nyuk	-12.4705
▁efo	-12.4706
▁totá	-12.4709
▁épe	-12.4711
▁unt	-12.4716
▁cx	-12.4718
▁üz	-12.4719
ako	-12.4719
▁Art	-12.4726
▁rúd	-12.4729
▁píté	-12.4737
▁slat	-12.4741
▁tork	-12.4743
avin	-12.4748
▁birk	-12.4751
▁alin	-12.4755
▁erth	-12.4756
▁ella	-12.4758
▁tuti	-12.4763
▁salá	-12.4766
▁HR	-12.4771
gán	-12.4776
▁etra	-12.4776
hu	-12.4777
▁ear	-12.4785
▁dha	-12.4789
99	-12.4792
wi	-12.4798
39	-12.4799
▁Vb	-12.4803
win	-12.4805
▁Utah	-12.4818
▁purs	-12.4825
▁mbul	-12.4827
▁oug	-12.483
▁bri	-12.4836
kö	-12.4839
ice	-12.484
▁Nik	-12.4842
▁fit	-12.4851
▁diét	-12.4853
▁olin	-12.4859
ler	-12.4859
▁sei	-12.4864
▁eske	-12.4867
áról	-12.4874
36	-12.4875
▁atri	-12.4879
▁vü	-12.4886
auer	-12.4887
47	-12.4893
IP	-12.4901
▁tav	-12.4904
RM	-12.4907
▁Aur	-12.4915
min	-12.492
▁Ady	-12.493
▁ségei	-12.4942
▁ltic	-12.496
bucc	-12.497
MZ	-12.4984
▁heo	-12.4989
▁ipk	-12.4991
▁DS	-12.4994
▁Taxi	-12.4996
▁onna	-12.5001
▁Sö	-12.5007
▁sim	-12.501
▁83	-12.5014
OK	-12.5018
▁vest	-12.5032
UV	-12.504
▁(!)	-12.5043
▁ilba	-12.5046
▁witz	-12.505
▁tumor	-12.5052
mind	-12.5053
▁NNI	-12.5054
Én	-12.5056
▁arbo	-12.5061
▁sav	-12.5062
▁laus	-12.5066
▁79	-12.5078
▁kmén	-12.5085
▁NM	-12.5087
▁MOL	-12.5088
▁Pant	-12.5101
uti	-12.5129
▁iha	-12.5154
▁iac	-12.5166
▁Nu	-12.5177
▁gad	-12.5186
▁enoa	-12.5194
▁MSZ	-12.5202
vro	-12.5204
▁tók	-12.5215
SD	-12.5221
▁gri	-12.5236
dó	-12.5245
78	-12.5248
por	-12.5252
▁zzá	-12.5254
anc	-12.5264
nyi	-12.5273
▁kgfb	-12.5275
▁ajl	-12.5278
▁gott	-12.528
▁vásá	-12.5289
▁Arch	-12.529
pülő	-12.529
tty	-12.5305
▁Eu	-12.5314
▁oyc	-12.5316
▁pako	-12.5317
▁hán	-12.5318
▁akul	-12.5342
▁MS	-12.5343
▁rdan	-12.5355
eu	-12.5361
▁nice	-12.5366
▁AZ	-12.5371
▁sín	-12.5373
▁loy	-12.5382
▁grád	-12.5383
▁lej	-12.5407
▁ance	-12.541
▁Don	-12.541
▁ild	-12.5421
▁ücs	-12.5423
AN	-12.5427
▁öké	-12.543
▁bisz	-12.5436
▁posz	-12.544
▁OB	-12.5442
94	-12.5449
▁iP	-12.5449
▁ősé	-12.5455
▁PR	-12.5458
rov	-12.5464
wo	-12.547
▁OSZ	-12.5471
▁sag	-12.5481
▁pump	-12.5482
▁pete	-12.5488
'	-12.5509
ine	-12.5509
▁§	-12.5513
▁kocka	-12.5514
▁ÁKK	-12.5515
▁mnyp	-12.5516
▁6:2	-12.5517
▁CIB	-12.5519
▁rassó	-12.5535
sági	-12.5537
▁2-4	-12.5538
▁Pana	-12.5555
▁uál	-12.5558
▁oren	-12.5568
ES	-12.5569
▁gálán	-12.558
▁alax	-12.5582
▁mang	-12.5583
MV	-12.5584
▁eus	-12.559
US	-12.559
ack	-12.5593
obo	-12.5602
▁gem	-12.561
▁misz	-12.5612
▁agne	-12.5616
llé	-12.5619
37	-12.562
▁Ric	-12.5622
eter	-12.5626
▁áfa	-12.5647
▁enna	-12.5655
▁even	-12.566
TS	-12.5661
▁Cu	-12.5676
▁bab	-12.568
▁dra	-12.568
▁eje	-12.5686
57	-12.5689
Mi	-12.5695
brá	-12.5708
▁pony	-12.5714
▁zése	-12.5733
BS	-12.5742
IG	-12.5752
▁4-0	-12.5757
▁alis	-12.5758
row	-12.5758
▁rnold	-12.576
▁letét	-12.5764
▁box	-12.5767
▁105	-12.5773
▁addi	-12.5774
▁kau	-12.5782
▁ncy	-12.5792
▁cb	-12.5798
23	-12.5803
ásba	-12.5814
tum	-12.5822
▁anuc	-12.5823
▁NY	-12.583
▁sóz	-12.5832
▁wen	-12.5833
ach	-12.5833
▁lij	-12.5834
▁orre	-12.5838
86	-12.5839
▁Net	-12.5853
▁duz	-12.5855
▁evel	-12.5856
▁lba	-12.5856
▁lse	-12.5857
▁dem	-12.5864
▁lobe	-12.5868
▁arga	-12.5876
sh	-12.588
▁EL	-12.5889
▁razz	-12.5897
let	-12.591
X	-12.5916
▁amva	-12.5916
▁dij	-12.5929
árm	-12.5945
▁elke	-12.5947
▁nyef	-12.5951
ítés	-12.596
▁aim	-12.5962
gu	-12.5987
31	-12.5998
Ü	-12.6001
▁puc	-12.6002
mb	-12.6007
▁eople	-12.6007
▁lobo	-12.6009
▁arco	-12.6016
avil	-12.6016
HF	-12.6016
▁ooper	-12.6025
▁unami	-12.6034
vge	-12.6038
▁alb	-12.6043
▁asmi	-12.6044
rém	-12.6047
▁MVM	-12.6047
▁opin	-12.6049
▁ulzu	-12.6049
ath	-12.6055
▁Ali	-12.6059
▁alló	-12.606
raf	-12.6063
▁ahl	-12.607
NI	-12.6088
▁runo	-12.609
▁nko	-12.6093
▁afe	-12.6106
▁Kc	-12.6107
▁ocsa	-12.6108
▁kc	-12.6117
úzi	-12.6134
▁nja	-12.6141
▁zot	-12.6142
Y	-12.6152
▁zül	-12.6156
▁öki	-12.6159
▁ecc	-12.6163
▁ect	-12.6193
ndro	-12.6201
74	-12.6204
▁allu	-12.6214
ectr	-12.622
▁App	-12.6225
ÉP	-12.6238
▁ábo	-12.6238
bor	-12.6239
▁gyáv	-12.6248
▁paks	-12.6251
▁izzó	-12.6265
▁vecs	-12.6265
▁6:3	-12.6266
▁4-3	-12.6268
▁fúr	-12.6281
▁SV	-12.6287
▁lád	-12.6291
▁ásty	-12.6292
▁ITD	-12.6298
ózs	-12.6301
▁zebr	-12.6313
▁ruda	-12.6316
▁itut	-12.6339
▁erki	-12.6342
gat	-12.6343
81	-12.6352
▁iram	-12.6359
▁teng	-12.6367
rsh	-12.6369
▁ity	-12.6373
▁Őr	-12.6385
▁séf	-12.6388
▁láza	-12.6391
▁irá	-12.6396
▁rba	-12.6411
▁zóna	-12.6413
▁onty	-12.6415
▁ákó	-12.6424
▁pell	-12.6428
▁erni	-12.6434
▁kond	-12.644
▁öcs	-12.6448
ctor	-12.6456
▁rezi	-12.6485
AB	-12.6507
▁wan	-12.6507
▁előn	-12.6507
▁gbe	-12.6508
▁itne	-12.6513
▁Dü	-12.6518
▁énzt	-12.6531
69	-12.6532
▁Play	-12.6534
maha	-12.6535
▁amm	-12.6536
▁opper	-12.6543
38	-12.6545
▁seke	-12.6555
▁aura	-12.6559
EM	-12.6559
▁odri	-12.6563
▁Asht	-12.657
AS	-12.6572
▁rent	-12.6576
▁erci	-12.658
▁uga	-12.6605
▁Ül	-12.661
04	-12.6617
▁Rat	-12.6618
ván	-12.6622
07	-12.6623
▁nker	-12.6623
nzu	-12.6628
rav	-12.6637
▁áter	-12.6643
▁plen	-12.6657
bu	-12.667
tró	-12.6674
▁Ép	-12.6676
▁Nie	-12.6689
▁atha	-12.6695
▁etke	-12.6697
▁Bob	-12.6702
▁acq	-12.6709
ck	-12.6709
▁szty	-12.671
▁Őt	-12.6716
▁ym	-12.6725
▁omez	-12.6732
▁sodi	-12.6732
▁oper	-12.6733
▁urt	-12.6739
▁NA	-12.6757
▁arvi	-12.6773
pac	-12.6778
▁antr	-12.6778
▁lős	-12.6782
TV	-12.6784
KA	-12.6789
▁asin	-12.6795
▁KRESZ	-12.6797
▁ache	-12.6797
▁bagb	-12.6803
IS	-12.6807
▁LR	-12.6817
▁stein	-12.682
▁Baja	-12.682
▁jahu	-12.6822
▁asco	-12.6828
▁MT	-12.6839
▁sós	-12.6848
her	-12.6853
▁ktr	-12.6862
▁őrs	-12.6864
▁Ura	-12.6872
▁lha	-12.6878
▁ttel	-12.6881
sic	-12.6881
cle	-12.6883
▁asm	-12.6886
▁babo	-12.6892
▁tléta	-12.6897
▁árú	-12.6902
▁Ban	-12.6914
▁icz	-12.6922
▁MK	-12.6936
▁nyu	-12.6943
▁leme	-12.6949
▁aden	-12.6953
73	-12.6954
▁atu	-12.6975
▁rda	-12.6976
új	-12.6981
▁uid	-12.6986
▁méz	-12.6987
▁argo	-12.6994
▁egé	-12.7003
▁rsá	-12.7008
▁eroi	-12.701
EN	-12.702
▁urto	-12.7022
44	-12.7024
stro	-12.7025
VM	-12.7033
állí	-12.7039
▁izg	-12.7057
UTE	-12.7064
ska	-12.7065
▁nká	-12.7068
▁Mod	-12.7072
▁rib	-12.7074
▁múmi	-12.7075
▁õ	-12.7077
▁ubaru	-12.7077
adár	-12.7081
▁ruce	-12.7088
▁erbe	-12.7088
▁Arén	-12.709
▁nyeck	-12.7092
▁ulyk	-12.71
▁inni	-12.7103
▁thé	-12.711
▁ugló	-12.7117
erre	-12.7118
▁emok	-12.7121
▁roth	-12.7128
▁Ann	-12.7128
FA	-12.7133
AZ	-12.7134
▁Kx	-12.7137
udi	-12.7138
▁ráb	-12.7146
▁séta	-12.7153
▁sört	-12.7167
▁ixel	-12.7169
▁ultik	-12.7186
▁engu	-12.7215
rc	-12.7228
▁orne	-12.7254
EP	-12.726
▁plan	-12.7276
▁wal	-12.7278
▁ekke	-12.7281
▁JP	-12.7282
▁hort	-12.7283
▁nick	-12.7286
agó	-12.7293
32	-12.7306
▁lkép	-12.7307
▁laz	-12.7307
ala	-12.7309
▁lőj	-12.731
▁tála	-12.7319
▁trük	-12.7323
+	-12.7332
▁dina	-12.7338
▁önte	-12.7339
ker	-12.735
64	-12.7357
×	-12.7361
▁USB	-12.7361
▁pipá	-12.7362
▁spur	-12.7362
▁ácso	-12.7365
▁oczk	-12.7366
▁mería	-12.7368
▁4-2	-12.7368
▁etafe	-12.7371
▁hony	-12.7372
Ó	-12.7375
▁őb	-12.7381
▁1.)	-12.7387
▁eva	-12.7399
ente	-12.7407
BB	-12.7408
▁vist	-12.7409
raj	-12.7417
▁ald	-12.742
dney	-12.7425
nót	-12.7426
▁tino	-12.7435
▁kaca	-12.7437
PP	-12.745
▁adio	-12.7478
▁urd	-12.7483
▁abro	-12.7485
▁raci	-12.749
▁ther	-12.7493
-9	-12.7495
▁mosd	-12.7501
▁One	-12.7507
ortá	-12.7511
▁97	-12.7514
▁wei	-12.7523
▁lazm	-12.7524
▁tark	-12.7533
MH	-12.7535
▁erdi	-12.7535
▁telj	-12.7538
▁ablo	-12.7547
▁apper	-12.755
42	-12.7554
▁mand	-12.7557
29	-12.756
DA	-12.7565
▁kent	-12.7566
▁ajka	-12.7568
och	-12.7573
▁94	-12.7585
obz	-12.7598
▁rtó	-12.76
▁boro	-12.7602
▁rup	-12.7607
▁rook	-12.7622
▁máni	-12.7631
tés	-12.7633
EKE	-12.7634
▁lick	-12.7638
▁rube	-12.7643
▁ilk	-12.7648
92	-12.7651
97	-12.7657
▁rozs	-12.7677
▁áján	-12.7681
▁loud	-12.769
szka	-12.7691
▁einz	-12.7692
mu	-12.7693
▁aczk	-12.7694
erző	-12.77
▁raf	-12.7701
ola	-12.7703
▁guil	-12.7704
ric	-12.7707
▁BBB	-12.7711
▁hál	-12.7713
▁boka	-12.7717
▁omsz	-12.7726
▁SPD	-12.773
▁lazá	-12.773
ME	-12.7732
BM	-12.774
kur	-12.7742
▁ádor	-12.7754
98	-12.7754
▁erna	-12.7758
▁HC	-12.7761
▁lké	-12.7769
▁LE	-12.777
▁ardy	-12.7772
▁ranz	-12.7777
▁idá	-12.7783
▁daru	-12.7783
ph	-12.7787
ambu	-12.779
öz	-12.781
jan	-12.7818
▁Aren	-12.7821
▁osh	-12.7821
▁lmes	-12.7822
▁idd	-12.7826
▁köny	-12.7834
rand	-12.7837
▁dono	-12.7842
▁óvi	-12.7851
Á	-12.7855
▁orga	-12.7857
71	-12.7859
▁ltán	-12.7883
▁yü	-12.7907
▁sava	-12.7912
Ú	-12.7915
▁sep	-12.7916
▁öbl	-12.7921
▁ődöt	-12.7926
▁99	-12.7929
▁rizz	-12.7947
lina	-12.7947
▁Inde	-12.7959
▁bili	-12.796
▁OMSZ	-12.7962
▁uncz	-12.7962
▁kakaó	-12.7963
▁FB	-12.7968
▁ivar	-12.7968
▁0-3	-12.7975
pol	-12.7988
▁Roy	-12.7989
▁lot	-12.799
▁Dan	-12.7993
▁arac	-12.8
▁zhe	-12.8003
lia	-12.8006
▁iang	-12.801
▁itán	-12.8017
▁ntag	-12.803
▁ssal	-12.8031
▁vaj	-12.8034
stor	-12.8036
-4	-12.8038
▁Bra	-12.8044
evo	-12.8045
▁Abdu	-12.8046
▁Ede	-12.8053
uff	-12.8061
▁insp	-12.8075
▁erik	-12.8079
Ő	-12.8085
ida	-12.8086
▁hős	-12.8092
▁stob	-12.8097
▁Túr	-12.8102
▁epe	-12.8108
▁ellu	-12.8125
▁mpon	-12.8138
43	-12.8145
▁zep	-12.8146
▁IT	-12.8147
▁kajá	-12.815
▁uti	-12.8155
▁ccse	-12.8156
▁meet	-12.8171
SU	-12.8191
▁Exc	-12.8197
▁mba	-12.8199
▁lvi	-12.82
▁álas	-12.821
▁Bea	-12.8212
▁ijó	-12.8218
roc	-12.822
FR	-12.8228
▁emén	-12.8241
TK	-12.8249
▁zes	-12.8251
▁CBS	-12.8253
▁őf	-12.8255
▁rest	-12.8264
41	-12.8266
▁ueen	-12.8266
▁udwig	-12.827
kerü	-12.8272
ing	-12.8272
▁itsu	-12.8273
▁ognár	-12.8273
▁pofo	-12.8275
▁jász	-12.8278
▁LB	-12.8279
▁Ted	-12.828
▁ieber	-12.8281
▁Sachs	-12.8282
▁CIG	-12.8283
▁4.)	-12.8283
▁eorg	-12.8283
▁érge	-12.8285
▁átyja	-12.8286
▁lyn	-12.8289
▁itro	-12.8303
▁ange	-12.8308
▁övet	-12.8313
▁kerá	-12.832
▁rooke	-12.8322
▁pór	-12.8323
▁obal	-12.8328
▁yeg	-12.833
▁abor	-12.8335
▁AG	-12.8342
jába	-12.8344
▁ajc	-12.8347
HB	-12.8348
▁asim	-12.8348
▁Rad	-12.8351
▁Tar	-12.8354
▁aco	-12.8356
▁atba	-12.8372
▁arth	-12.8377
NP	-12.8384
▁rma	-12.8393
▁eyer	-12.8395
▁naut	-12.8404
▁arty	-12.8407
▁mace	-12.8408
▁93	-12.8414
▁fát	-12.8417
▁röm	-12.8421
▁abul	-12.8421
▁bóv	-12.8425
▁kW	-12.8436
▁erri	-12.8446
▁lich	-12.8463
51	-12.8466
▁eyen	-12.8482
▁stoc	-12.849
▁aví	-12.849
hor	-12.8493
▁Vh	-12.8496
▁mád	-12.85
ulá	-12.8503
▁mark	-12.8508
▁oran	-12.8508
26	-12.8508
▁kuká	-12.8523
nox	-12.853
▁vere	-12.853
48	-12.8537
▁átrá	-12.8539
▁idak	-12.8555
▁öme	-12.8559
▁kaná	-12.8564
▁nába	-12.8575
▁metál	-12.8595
▁otond	-12.8596
▁ye	-12.8596
▁awai	-12.8599
▁gré	-12.86
▁bika	-12.8606
▁CER	-12.8611
▁disz	-12.8612
KM	-12.8614
▁teria	-12.8615
▁dog	-12.8617
▁OR	-12.8617
67	-12.8634
▁acht	-12.8635
▁eyn	-12.8639
▁ETA	-12.8639
▁próz	-12.8641
abar	-12.8642
▁Apa	-12.8643
▁Blu	-12.8644
▁dne	-12.8645
▁súr	-12.8647
▁töp	-12.8652
▁aru	-12.8655
MI	-12.8661
▁achi	-12.8678
▁115	-12.8678
dro	-12.868
▁akas	-12.8689
▁bód	-12.8692
▁resc	-12.8695
▁kamu	-12.8699
▁heen	-12.871
▁SK	-12.8714
▁babá	-12.8715
▁ISS	-12.8716
▁bac	-12.8717
▁mily	-12.8718
▁shi	-12.8721
▁döm	-12.8726
▁trán	-12.8731
▁nyad	-12.8733
atko	-12.8745
▁porc	-12.8748
▁béta	-12.8749
▁nác	-12.8753
▁llah	-12.8754
▁ippi	-12.8757
cer	-12.8759
▁Sun	-12.8767
▁Arc	-12.8768
▁alce	-12.8769
▁rtan	-12.8774
▁poll	-12.8784
▁Uta	-12.8788
▁irr	-12.879
▁komo	-12.8797
▁ólom	-12.8798
96	-12.8819
▁Bp	-12.882
CS	-12.8822
▁omol	-12.8825
▁com	-12.8826
lav	-12.8852
52	-12.8861
82	-12.8865
▁iber	-12.8873
VH	-12.8876
▁tabu	-12.8877
▁malá	-12.8882
▁ráf	-12.8887
day	-12.8888
▁ode	-12.8896
▁92	-12.8903
xis	-12.8916
EC	-12.8919
▁hew	-12.8922
▁VV	-12.8923
▁ction	-12.8926
▁imázs	-12.8927
▁evils	-12.8927
▁Texa	-12.8927
bhúh	-12.8928
▁apid	-12.893
▁ipót	-12.8932
kva	-12.8932
▁króm	-12.8946
▁Út	-12.8947
▁bund	-12.8948
▁pusz	-12.8958
▁ége	-12.8963
köz	-12.8967
▁Pep	-12.8969
▁irk	-12.897
▁ndent	-12.897
▁adot	-12.897
▁zig	-12.8976
▁6:	-12.8979
BR	-12.898
▁aram	-12.8987
VB	-12.9001
▁tens	-12.9007
▁airó	-12.9012
TO	-12.9019
▁öncz	-12.902
▁TI	-12.9023
▁ogu	-12.9025
▁quin	-12.9028
▁grár	-12.903
▁Ján	-12.9031
▁laty	-12.9033
AK	-12.904
▁ning	-12.9047
bir	-12.9048
▁lovak	-12.9049
▁Uto	-12.9057
▁shop	-12.9057
szká	-12.906
ON	-12.9063
▁dad	-12.9095
▁nton	-12.9097
▁déz	-12.9099
▁izmo	-12.91
▁edet	-12.9106
▁meló	-12.9112
▁trau	-12.9124
cu	-12.9129
▁gatt	-12.9149
▁eep	-12.9149
▁tón	-12.9151
▁sáb	-12.9153
▁afa	-12.9163
▁SZK	-12.9175
▁tube	-12.9176
▁aty	-12.9183
wa	-12.9188
MP	-12.9189
▁örn	-12.9193
sak	-12.9213
AV	-12.9215
▁ombi	-12.9219
▁abri	-12.9235
▁öp	-12.9248
▁ucs	-12.9252
DF	-12.9254
▁lje	-12.9254
▁rinc	-12.9259
▁FT	-12.9264
VP	-12.9272
▁nowb	-12.9277
▁TDI	-12.9277
▁3-3	-12.9278
▁(1)	-12.9279
▁gro	-12.9285
OR	-12.9285
TP	-12.9286
eonó	-12.9288
pic	-12.929
▁óni	-12.9294
▁Buzz	-12.9298
▁scak	-12.93
Ne	-12.9302
▁2.)	-12.9303
bry	-12.9304
▁lúg	-12.9305
▁NEM	-12.9306
▁odrá	-12.9309
58	-12.931
▁tött	-12.9311
▁átyi	-12.9313
▁168	-12.9316
▁akaó	-12.9325
CF	-12.9332
▁BSC	-12.9332
cskó	-12.9337
AT	-12.9337
46	-12.9349
enna	-12.936
▁MAC	-12.9361
▁agan	-12.9363
▁arti	-12.9363
▁Trav	-12.9372
▁dögl	-12.9382
▁uana	-12.9395
▁ezh	-12.9401
▁190	-12.9401
toba	-12.941
mó	-12.9413
▁pod	-12.9429
▁atra	-12.9429
▁shir	-12.9453
ryl	-12.9457
▁Tus	-12.9463
▁szte	-12.9469
▁tiz	-12.947
enc	-12.9472
▁Tra	-12.9474
▁zh	-12.9478
csa	-12.949
▁Bh	-12.9493
▁ramo	-12.9495
▁raig	-12.9501
▁aft	-12.9508
IT	-12.951
▁apí	-12.9516
▁eck	-12.9519
▁rill	-12.9524
▁sna	-12.9529
▁upp	-12.9533
62	-12.9542
zag	-12.9545
ÉSZ	-12.9554
▁borz	-12.9567
rká	-12.9568
▁arcs	-12.9571
CO	-12.9574
▁pers	-12.9578
▁kna	-12.9592
▁mix	-12.9593
▁CR	-12.9609
▁pok	-12.9618
▁owbo	-12.9629
▁irror	-12.963
▁ritz	-12.9634
▁5-2	-12.9639
uma	-12.9646
▁4-6	-12.9669
stin	-12.9678
▁vék	-12.9682
▁auro	-12.9682
guar	-12.969
▁jaj	-12.9691
56	-12.9697
▁acqu	-12.9703
▁udj	-12.9703
▁Mado	-12.9704
▁opez	-12.9719
▁chu	-12.973
▁ője	-12.9739
▁déd	-12.9746
▁Bau	-12.9748
▁enov	-12.975
aktu	-12.9752
▁bba	-12.9752
adás	-12.9761
▁32.	-12.9764
▁spor	-12.9765
▁agos	-12.9775
▁rgan	-12.9776
aple	-12.9783
▁anyó	-12.9784
hy	-12.9789
▁bobo	-12.979
▁ilic	-12.9792
▁Bad	-12.9796
▁arif	-12.9805
TC	-12.9808
▁ases	-12.9829
▁obby	-12.9839
▁hart	-12.985
▁argó	-12.985
▁rty	-12.9853
▁lügy	-12.9855
▁rdí	-12.986
▁ajcs	-12.9869
▁uand	-12.989
▁cho	-12.9891
▁ocha	-12.9913
TT	-12.9916
epü	-12.9918
▁Ur	-12.9918
▁OV	-12.9925
▁dose	-12.9927
SG	-12.9941
▁égb	-12.9943
▁ürge	-12.9957
▁lein	-12.9965
cc	-12.997
▁HP	-12.9973
▁Yahoo	-12.9999
thy	-13.0001
▁ESP	-13.0003
79	-13.001
▁Rosa	-13.0013
▁atyja	-13.0016
▁CT	-13.0017
▁EPA	-13.0022
▁béka	-13.0023
▁Oua	-13.0025
▁adul	-13.0033
▁anar	-13.004
▁iró	-13.0044
ogat	-13.0055
▁SDK	-13.0056
▁rnok	-13.0058
▁KK	-13.0062
arty	-13.0063
▁íc	-13.0073
▁iggy	-13.0075
▁Trad	-13.008
▁IP	-13.0084
▁law	-13.0086
▁udu	-13.0087
rót	-13.0098
▁arha	-13.0105
87	-13.0119
▁gur	-13.012
▁attr	-13.0121
▁pole	-13.0121
▁Ec	-13.013
▁bago	-13.014
▁omán	-13.0143
▁TT	-13.0167
▁ksze	-13.0179
▁NAC	-13.0195
MG	-13.0204
KSZ	-13.0214
▁orbá	-13.0229
▁assi	-13.0235
▁Ló	-13.0243
NES	-13.0245
▁égő	-13.0254
▁észk	-13.0272
▁lank	-13.0295
IK	-13.0295
▁#1	-13.0306
▁Kia	-13.0323
▁Cruz	-13.0335
▁erse	-13.0346
▁13,	-13.0356
▁gte	-13.0362
▁sugá	-13.0372
PC	-13.038
▁mili	-13.038
	-13.0383
▁iWiW	-13.0383
▁7:5	-13.0383
▁ujza	-13.0384
▁rigád	-13.0384
ódi	-13.0385
▁éme	-13.0386
▁kac	-13.0387
▁MMK	-13.0393
▁lah	-13.0393
SS	-13.0396
▁udán	-13.0399
▁imb	-13.0399
▁jeru	-13.04
▁eafs	-13.0401
▁epsi	-13.0412
▁LG	-13.0416
▁ogi	-13.0418
▁rund	-13.0426
▁pool	-13.0432
▁Vén	-13.0439
▁láp	-13.0453
▁eith	-13.0456
▁ahar	-13.0457
▁zav	-13.0466
AF	-13.0467
▁nten	-13.0468
ánu	-13.0469
▁táska	-13.0473
ASZ	-13.0475
▁yörg	-13.0486
▁ábr	-13.049
▁tump	-13.0504
ana	-13.0505
▁ISZ	-13.0508
▁oncz	-13.0508
1,	-13.0512
▁rót	-13.0521
deb	-13.0536
▁rier	-13.0536
▁Eag	-13.0537
▁erne	-13.0541
▁each	-13.0544
▁Rak	-13.0549
▁rech	-13.0551
▁over	-13.0564
PA	-13.0566
▁ackó	-13.057
ster	-13.0581
▁ick	-13.0587
▁Yu	-13.0595
rq	-13.0604
▁ritt	-13.0618
▁mato	-13.0627
PT	-13.0647
▁eum	-13.0652
▁ingó	-13.0656
▁SP	-13.0662
▁agó	-13.0665
▁5)	-13.067
kü	-13.0674
▁ippo	-13.0688
leu	-13.0693
▁adna	-13.0699
▁loga	-13.0709
▁óká	-13.0711
88	-13.0713
EB	-13.0721
apid	-13.0727
▁géb	-13.0728
▁Par	-13.0734
89	-13.0735
NB	-13.0746
SJ	-13.0747
fel	-13.0748
▁race	-13.0759
FM	-13.0762
▁tén	-13.0764
▁tain	-13.0768
▁MP	-13.0773
▁enve	-13.0773
▁osw	-13.0775
▁ntar	-13.0776
▁ndel	-13.0781
▁Astr	-13.0784
▁WBO	-13.0785
▁oémi	-13.0788
▁búza	-13.0792
▁kred	-13.0805
▁eim	-13.0811
Jó	-13.0813
SF	-13.0814
nyá	-13.0814
▁ESA	-13.0816
▁rrow	-13.082
▁rish	-13.0827
▁idal	-13.0828
▁tenn	-13.0835
▁bury	-13.0844
▁iege	-13.0848
▁alja	-13.0855
▁egí	-13.086
▁ally	-13.0867
KK	-13.0868
▁logy	-13.0879
▁MJ	-13.0881
▁uni	-13.0881
▁145	-13.0884
▁FH	-13.0889
▁skó	-13.0891
▁icc	-13.0895
lac	-13.0903
54	-13.0905
▁eich	-13.0914
▁arino	-13.0919
arc	-13.0919
▁etője	-13.093
▁lú	-13.0938
▁IDE	-13.0943
▁stel	-13.0944
▁akon	-13.0951
ju	-13.0953
▁ölc	-13.0955
▁nzi	-13.096
▁nszk	-13.0965
▁EST	-13.0967
jd	-13.0979
▁arle	-13.0984
▁konf	-13.1002
llen	-13.1004
▁uzs	-13.1013
▁6)	-13.1019
▁nep	-13.1028
ddy	-13.1042
▁eci	-13.1045
▁ődi	-13.1048
▁bble	-13.1049
▁traf	-13.1049
▁7-	-13.1052
▁remi	-13.1058
ánc	-13.1063
▁aras	-13.1067
▁leas	-13.1084
ncy	-13.1085
ony	-13.1093
▁enke	-13.1093
▁oder	-13.1098
xi	-13.1099
61	-13.1107
▁bábu	-13.1116
▁lips	-13.1122
▁rse	-13.113
▁yte	-13.1131
▁bish	-13.1134
fal	-13.1143
▁cht	-13.117
▁oir	-13.1171
SO	-13.119
▁lake	-13.119
▁Uj	-13.1195
▁Klím	-13.12
▁OÉT	-13.1202
▁OVI	-13.1204
▁szla	-13.1204
▁endr	-13.1209
▁ajkó	-13.1213
▁Abu	-13.1216
GB	-13.1219
▁boga	-13.1219
▁MOM	-13.1221
jko	-13.1223
▁ónya	-13.1225
EF	-13.1231
▁rúz	-13.1234
▁dísz	-13.1235
▁barna	-13.1238
▁rkel	-13.1239
▁észe	-13.124
jút	-13.1242
▁Roda	-13.1244
UM	-13.1244
▁KEK	-13.1249
HA	-13.1251
own	-13.1252
▁mázs	-13.1258
▁andi	-13.1259
▁ogda	-13.1259
53	-13.1262
▁páti	-13.1266
▁rün	-13.1272
▁majm	-13.1278
ina	-13.1283
DSZ	-13.1285
öv	-13.1289
▁arne	-13.1291
▁scó	-13.1299
▁road	-13.1303
▁árj	-13.1308
▁Bod	-13.1308
▁ambi	-13.1309
▁dríg	-13.1312
▁zsor	-13.1314
▁imén	-13.1321
▁quil	-13.1321
▁ské	-13.1323
▁idra	-13.1323
▁aust	-13.1343
▁rrá	-13.1347
GA	-13.1367
▁achu	-13.137
▁ulm	-13.1373
▁laki	-13.1375
▁ömb	-13.1407
▁Lim	-13.1407
uzz	-13.141
▁arch	-13.141
▁kaló	-13.1422
rac	-13.1422
▁now	-13.1423
▁RC	-13.1424
AM	-13.143
llu	-13.1434
úró	-13.144
▁Utr	-13.1442
AP	-13.1454
▁lfo	-13.1458
gli	-13.1465
▁elyn	-13.1466
▁klő	-13.1475
▁lhe	-13.1475
▁nag	-13.1483
▁pele	-13.1484
ova	-13.1486
▁arci	-13.1487
▁duzz	-13.1488
▁egge	-13.1489
▁etri	-13.1491
▁üss	-13.1492
▁ród	-13.1514
Ö	-13.1517
▁tali	-13.1517
rix	-13.1518
▁aise	-13.1519
▁DE	-13.1522
▁rime	-13.153
▁árc	-13.1533
▁2-	-13.1537
▁kürt	-13.1537
▁utch	-13.154
▁Mad	-13.1542
▁hog	-13.1549
▁rno	-13.1553
▁ejc	-13.1557
▁oms	-13.1568
eine	-13.1568
cram	-13.157
▁bré	-13.1585
▁ségü	-13.1589
nye	-13.1606
GM	-13.1623
▁IS	-13.1636
▁pofa	-13.1639
prin	-13.1641
▁auf	-13.1642
▁élkül	-13.1642
▁alcz	-13.1643
ahi	-13.1644
▁prím	-13.1645
▁IKE	-13.1659
églá	-13.166
▁rja	-13.1669
▁dtak	-13.1676
▁Ági	-13.1681
▁líra	-13.1685
▁ausen	-13.1689
▁riff	-13.169
▁amui	-13.169
ica	-13.1696
▁adam	-13.1699
▁ummer	-13.1701
▁kony	-13.1705
▁Pü	-13.1709
-1	-13.1709
▁Buzá	-13.1713
ISZ	-13.1718
▁DC	-13.1718
ör	-13.1725
▁olle	-13.174
GE	-13.1744
▁uf	-13.1748
▁cine	-13.175
▁TB	-13.1755
▁orbe	-13.1756
SK	-13.1759
MS	-13.1766
▁ozar	-13.1778
▁Bán	-13.1785
▁irén	-13.1796
▁ődö	-13.1797
▁NE	-13.18
▁(1	-13.1802
▁shor	-13.182
▁rdé	-13.1828
▁BC	-13.1835
eth	-13.1836
▁orda	-13.1841
▁zzu	-13.1843
▁ewi	-13.1849
▁álko	-13.1856
obal	-13.186
▁rima	-13.1863
▁rub	-13.1864
▁AR	-13.1866
▁alim	-13.1868
tar	-13.1879
▁öre	-13.188
▁alik	-13.1908
▁aine	-13.1912
ord	-13.1913
▁ucz	-13.1919
▁uty	-13.1921
▁tox	-13.1937
-2	-13.1939
örg	-13.1954
FE	-13.1968
68	-13.1982
▁enri	-13.1987
▁góly	-13.1999
▁UV	-13.2
▁Dank	-13.2016
ileu	-13.202
▁lade	-13.2026
▁rien	-13.2032
das	-13.2061
▁greg	-13.2066
▁szku	-13.2067
qua	-13.2085
▁love	-13.2088
▁MMKA	-13.2091
▁sapka	-13.2093
▁gran	-13.2096
hon	-13.2098
▁amma	-13.21
▁teaua	-13.21
▁RO	-13.2101
▁NGM	-13.2103
▁kurt	-13.2105
▁adai	-13.2111
▁kabá	-13.2119
ISA	-13.2131
▁Bag	-13.2132
▁stand	-13.2136
▁119	-13.2136
rou	-13.214
▁ohl	-13.214
▁úga	-13.2143
▁ámb	-13.2148
▁54.	-13.2153
▁lady	-13.2158
▁Alu	-13.2159
▁oppá	-13.2166
▁nati	-13.2168
▁stm	-13.2171
mbo	-13.2173
Tu	-13.2175
▁liva	-13.2175
▁ump	-13.2177
De	-13.218
▁Prah	-13.2185
▁oste	-13.2191
▁skur	-13.2192
▁ehm	-13.2193
▁ectr	-13.2194
▁KSE	-13.2202
▁önc	-13.2203
▁ccan	-13.2204
▁EM	-13.2205
▁hurt	-13.2205
ury	-13.2205
▁Tag	-13.2215
▁irch	-13.2219
▁lébe	-13.2222
▁ürd	-13.2225
▁szú	-13.2227
han	-13.223
▁tuar	-13.2237
▁nyál	-13.2238
▁Up	-13.2239
▁low	-13.224
▁rond	-13.224
amma	-13.224
▁ekte	-13.2244
▁bány	-13.2248
▁ctor	-13.2251
▁líva	-13.2251
▁irg	-13.2253
▁reda	-13.2255
▁öder	-13.2262
▁uil	-13.2262
▁alkó	-13.2265
pas	-13.2284
▁yol	-13.229
▁limi	-13.2293
▁ödé	-13.2293
▁gx	-13.2295
▁Lan	-13.2299
man	-13.2303
fő	-13.2305
▁orgá	-13.2316
▁bob	-13.2319
▁ions	-13.2324
19	-13.2327
LC	-13.2333
▁you	-13.2337
▁Auri	-13.2348
▁BKK	-13.2358
ST	-13.2364
cská	-13.2366
▁bato	-13.2368
▁ause	-13.2376
▁trand	-13.2378
dar	-13.2384
▁bábá	-13.2386
▁vona	-13.2388
▁sip	-13.2392
▁Bac	-13.2392
▁ozsi	-13.24
SZH	-13.2403
irch	-13.2404
▁lind	-13.2409
AA	-13.2417
▁nij	-13.2424
▁bús	-13.2432
▁dva	-13.2438
▁ambo	-13.2457
▁izé	-13.2467
▁ienn	-13.2485
assa	-13.2495
▁yán	-13.2503
▁hím	-13.2504
▁pac	-13.2507
WF	-13.2511
▁MH	-13.2513
▁Lí	-13.2515
▁40.	-13.2517
avic	-13.2538
▁atyr	-13.2551
EL	-13.2565
▁NFÜ	-13.2565
▁Earth	-13.2566
▁iguel	-13.2567
▁ynch	-13.2568
▁ING	-13.2572
▁3-	-13.2575
▁ripl	-13.2588
▁text	-13.2588
akas	-13.2589
▁GH	-13.2597
▁ttan	-13.2597
▁tbc	-13.2599
▁icó	-13.2609
▁duc	-13.2618
▁róni	-13.2622
▁áth	-13.2644
PR	-13.265
réfá	-13.2651
▁41.	-13.2656
mor	-13.2662
▁GE	-13.2663
▁ramm	-13.2663
▁zakó	-13.2665
szku	-13.2681
▁atzi	-13.2691
▁MC	-13.27
pió	-13.2707
aw	-13.271
▁őssé	-13.2711
▁Gan	-13.2714
cli	-13.2716
▁epl	-13.2718
▁trac	-13.2719
óc	-13.2719
▁opp	-13.2724
▁yir	-13.2724
pucs	-13.2734
▁Pat	-13.2735
we	-13.2742
▁Amm	-13.2756
▁klón	-13.2762
▁uszk	-13.2774
▁stra	-13.278
zic	-13.2787
▁utyi	-13.2795
▁35.	-13.28
▁alic	-13.2815
acó	-13.2821
▁arca	-13.2824
▁rdu	-13.2833
▁ívó	-13.2839
ieb	-13.2849
▁PA	-13.285
gre	-13.2852
▁Abd	-13.2852
▁zön	-13.2859
▁Ajk	-13.2865
cska	-13.2866
▁alki	-13.2867
▁hof	-13.2869
▁star	-13.2882
otíp	-13.2888
▁lemm	-13.2896
▁mest	-13.2901
▁yna	-13.2902
▁arcí	-13.291
uth	-13.291
▁asse	-13.2912
azu	-13.2913
lgor	-13.2915
ovás	-13.2916
▁ökö	-13.2916
▁euf	-13.2916
opá	-13.2918
▁ulin	-13.2918
▁ozin	-13.2922
▁záh	-13.2924
yor	-13.2927
91	-13.2929
OM	-13.2931
▁AN	-13.2933
▁ldu	-13.2936
TH	-13.2939
MC	-13.2952
▁pizz	-13.2973
buli	-13.2978
▁lica	-13.2996
▁PV	-13.3001
▁ampu	-13.3004
▁odra	-13.3009
63	-13.3022
à	-13.3023
▁DF	-13.3027
▁emat	-13.3045
▁Czu	-13.305
oper	-13.3055
‭	-13.3065
▁BVSC	-13.3065
▁EBRD	-13.3065
▁(2)	-13.3066
▁kebl	-13.3066
▁rnest	-13.3069
▁bord	-13.3069
▁XP	-13.3072
▁shut	-13.3077
▁osch	-13.3079
sky	-13.3082
▁ódva	-13.3085
▁saf	-13.3085
▁odge	-13.3086
▁diká	-13.3087
▁PD	-13.3088
▁50.	-13.3091
▁kto	-13.3092
CA	-13.3094
▁rmani	-13.3103
▁oya	-13.3108
▁MÚ	-13.3108
EG	-13.3109
▁LTE	-13.3109
▁adách	-13.311
▁röhe	-13.3112
▁183	-13.3113
▁risz	-13.3123
▁itzer	-13.3123
▁uert	-13.3129
▁Alco	-13.3132
▁188	-13.3135
▁diéta	-13.314
▁util	-13.3141
▁obro	-13.3146
KC	-13.3151
▁sara	-13.3153
▁ouli	-13.3156
ród	-13.3156
ppu	-13.3176
▁65.	-13.3179
▁zzi	-13.3185
▁olli	-13.3188
▁38.	-13.319
▁ledon	-13.3198
▁guly	-13.3199
▁öle	-13.3203
▁reud	-13.3207
▁guan	-13.3209
anda	-13.3213
▁anni	-13.3214
▁agma	-13.3216
▁ATV	-13.3218
▁alf	-13.3223
▁gumi	-13.3228
vol	-13.3228
▁aich	-13.323
▁Móz	-13.3235
▁karó	-13.3236
▁usta	-13.3243
lemo	-13.3243
▁ocke	-13.3246
▁rost	-13.3249
yen	-13.3252
▁esne	-13.3253
▁erbá	-13.3255
▁GY	-13.3257
▁dvd	-13.3257
▁Mai	-13.3258
▁tjá	-13.3271
Ma	-13.3277
▁IC	-13.328
▁BT	-13.3293
▁ET	-13.3301
▁anom	-13.3307
▁kaka	-13.331
▁mlé	-13.332
▁örs	-13.3323
▁bont	-13.3334
yto	-13.3339
▁rou	-13.3342
▁wart	-13.3371
▁Pap	-13.3383
▁arat	-13.3386
▁ercu	-13.339
▁nyós	-13.339
▁öde	-13.3391
▁OS	-13.3391
▁utin	-13.3405
isse	-13.3409
▁nyü	-13.341
▁Rod	-13.342
▁CC	-13.342
▁Dak	-13.3428
taur	-13.3435
▁2)	-13.3442
lph	-13.3444
dat	-13.3455
▁TD	-13.3473
SZT	-13.348
▁tót	-13.3504
▁KÖ	-13.3506
▁zia	-13.3508
▁aver	-13.3517
▁Pop	-13.353
AR	-13.3538
▁Buc	-13.3541
▁aís	-13.3547
▁lari	-13.3555
▁dow	-13.3564
▁sika	-13.3566
▁Mád	-13.3571
AD	-13.3583
▁voln	-13.3584
▁aven	-13.3585
acc	-13.3586
▁iere	-13.3587
▁olan	-13.3588
▁‬	-13.3592
▁búzá	-13.3592
▁bahce	-13.3592
▁raham	-13.3592
▁BUDA	-13.3592
▁HUF	-13.3593
▁Lén	-13.3594
▁DSZSZ	-13.3594
▁zabál	-13.3596
▁ctav	-13.3601
ung	-13.3602
▁lufi	-13.3603
▁idge	-13.3604
▁rcin	-13.3604
▁laci	-13.3609
▁5.)	-13.3611
▁béná	-13.3612
úvó	-13.362
uru	-13.3628
CÖ	-13.3628
▁ábban	-13.3632
▁REA	-13.3633
▁ajká	-13.364
▁Bú	-13.3641
uck	-13.3645
▁akba	-13.3647
mon	-13.3648
ick	-13.3649
▁onas	-13.365
HS	-13.3654
▁gis	-13.3656
▁1-4	-13.3657
▁Nix	-13.3659
▁GS	-13.3666
▁Fh	-13.3666
▁Ya	-13.3669
▁aps	-13.3673
▁är	-13.3676
▁anoi	-13.3678
▁afar	-13.3681
▁yko	-13.3681
EZ	-13.3683
▁avies	-13.3691
▁luc	-13.3693
▁alfi	-13.3696
▁hiv	-13.37
imm	-13.3706
▁ojan	-13.3706
▁urki	-13.3725
▁eric	-13.3731
liá	-13.374
▁erga	-13.3743
▁VP	-13.3743
▁buny	-13.3744
▁rév	-13.3771
▁ercz	-13.3772
▁orp	-13.3775
▁lien	-13.3775
▁cukor	-13.3781
▁após	-13.3787
und	-13.3794
▁inch	-13.3801
▁ailer	-13.3815
▁eill	-13.3819
fron	-13.3825
▁rys	-13.3826
49	-13.3826
▁aglá	-13.3832
▁zug	-13.3835
▁lált	-13.3837
.)	-13.3845
CI	-13.3851
neu	-13.3862
▁raum	-13.3865
2,	-13.3866
▁üty	-13.3877
▁nsle	-13.389
▁andl	-13.3894
FF	-13.3895
ugló	-13.3895
▁zán	-13.3902
▁inve	-13.3907
SEV	-13.3908
▁ajak	-13.3909
szag	-13.3913
▁plaz	-13.3927
▁(3	-13.3937
utin	-13.3939
▁eart	-13.3946
RK	-13.3949
▁acki	-13.3953
É	-13.3955
▁stut	-13.3959
▁aug	-13.3961
▁ER	-13.3966
▁lias	-13.397
xel	-13.3975
▁audit	-13.3983
▁asso	-13.4002
api	-13.4006
▁Uma	-13.4017
▁asar	-13.4024
DR	-13.4042
▁umba	-13.4058
▁ilma	-13.4058
▁tkö	-13.4074
▁>>	-13.4087
▁sára	-13.4091
▁ERE	-13.4093
▁oco	-13.4094
▁rles	-13.4098
▁lema	-13.41
lit	-13.4108
spar	-13.4115
▁Ron	-13.412
▁Ír	-13.4123
FT	-13.4123
▁rogr	-13.4133
law	-13.4135
cker	-13.4148
▁púp	-13.4148
▁PLER	-13.4148
▁ecze	-13.415
▁urbo	-13.415
▁6:1	-13.4154
▁kult	-13.4155
▁life	-13.4155
▁HÖ	-13.4157
▁6.)	-13.4164
▁Law	-13.4164
▁MeH	-13.4165
RS	-13.4166
▁MSZM	-13.4167
▁4-4	-13.417
▁NKK	-13.4171
▁ákly	-13.4171
hin	-13.4172
▁árba	-13.4173
▁yeme	-13.418
▁arkiv	-13.4182
KE	-13.4184
▁luj	-13.4185
LK	-13.4185
▁unyi	-13.4187
▁ound	-13.4187
▁ssi	-13.4191
▁101	-13.4191
▁Nani	-13.4191
▁otyo	-13.4191
ámor	-13.4194
▁193	-13.4196
▁nyög	-13.42
bol	-13.4204
▁hur	-13.4206
▁orzs	-13.4209
eck	-13.4212
undo	-13.4215
▁Cruze	-13.4219
IN	-13.4221
pác	-13.4221
▁akup	-13.4222
▁Rohá	-13.4226
▁akut	-13.4255
▁Sax	-13.426
yűjt	-13.4267
▁lőr	-13.4269
▁úri	-13.4274
▁uszin	-13.4275
▁WE	-13.4285
▁kóc	-13.4292
▁Ian	-13.4301
3,	-13.4304
▁ekán	-13.4305
▁lics	-13.4314
▁bánj	-13.4318
bac	-13.4318
▁etro	-13.4344
▁ith	-13.4355
▁yler	-13.4362
▁car	-13.4364
aku	-13.4366
▁pül	-13.438
▁inné	-13.4382
uza	-13.44
▁rze	-13.4406
▁70.	-13.4408
▁pít	-13.4414
▁KE	-13.4426
▁Gf	-13.4426
▁obor	-13.4432
▁eiss	-13.4435
iq	-13.4435
▁ragu	-13.4447
IQ	-13.4453
ato	-13.4458
▁sikl	-13.4466
lop	-13.4475
▁SD	-13.4478
▁aldi	-13.4484
▁nybe	-13.4486
▁alda	-13.4494
▁torta	-13.4496
▁esc	-13.4498
▁igno	-13.4502
unc	-13.4506
▁ruge	-13.4511
▁60.	-13.4512
▁almo	-13.4513
▁arol	-13.4515
▁gót	-13.4521
lau	-13.454
▁omin	-13.4541
sper	-13.4546
lley	-13.4569
▁bou	-13.4573
▁moto	-13.4593
▁rac	-13.4607
▁okka	-13.4612
▁grad	-13.4623
▁márka	-13.4625
▁born	-13.4626
▁Vác	-13.4628
▁erde	-13.4631
▁ietz	-13.4636
tyj	-13.4644
▁tlé	-13.4676
IC	-13.4677
▁sikk	-13.468
▁apuk	-13.4694
cq	-13.4695
ige	-13.4696
▁répa	-13.4699
▁dős	-13.4712
que	-13.473
DB	-13.4734
▁ogdán	-13.4736
▁unde	-13.4736
▁mába	-13.4736
▁klim	-13.4736
▁ô	-13.4737
▁orcz	-13.4738
▁ipax	-13.4739
▁ölyk	-13.4741
▁SA	-13.4742
ÁK	-13.4743
▁kóbo	-13.4743
▁Somf	-13.4744
▁fóli	-13.4746
MSZ	-13.4747
▁asal	-13.4748
▁csúc	-13.4752
▁5-1	-13.4754
▁uong	-13.4755
▁macs	-13.4758
▁kuum	-13.4758
▁ádá	-13.4761
▁LEN	-13.4765
▁oszk	-13.4769
▁3.)	-13.477
cky	-13.4773
▁rtúr	-13.4774
▁PSA	-13.4778
▁iener	-13.4785
▁erpe	-13.4802
trac	-13.4808
qui	-13.4813
▁tobb	-13.4817
▁gard	-13.4821
▁orpo	-13.4824
▁acif	-13.4825
▁utio	-13.4826
SN	-13.4827
▁ejgl	-13.4836
▁XL	-13.4841
▁uska	-13.485
lay	-13.4851
▁Bus	-13.4852
dox	-13.4861
yth	-13.4866
▁morf	-13.4871
wea	-13.4872
▁döc	-13.4878
▁DK	-13.4879
▁oust	-13.4882
▁roni	-13.4885
▁szlav	-13.4894
▁ymb	-13.4899
▁egac	-13.49
▁sapa	-13.4915
▁ammu	-13.4915
▁way	-13.4918
▁ITA	-13.4923
óri	-13.4927
▁plak	-13.4937
▁immo	-13.4944
▁atrik	-13.4959
▁loui	-13.4973
▁inka	-13.4977
bur	-13.4978
RV	-13.4981
▁asít	-13.4983
▁alde	-13.4987
▁uter	-13.4994
▁kásá	-13.4998
▁Mec	-13.5001
ous	-13.5003
▁éleon	-13.5006
▁iaci	-13.5009
▁(2	-13.5014
▁KM	-13.5014
▁trik	-13.5017
▁átog	-13.5018
▁gio	-13.5019
▁ausz	-13.5023
▁ylan	-13.5025
▁umar	-13.5029
▁ays	-13.5045
▁gaty	-13.5047
▁dud	-13.5053
▁anyu	-13.5063
▁ande	-13.5071
▁imna	-13.5076
▁nex	-13.5081
▁Pan	-13.5082
aco	-13.5087
▁MIT	-13.509
▁sef	-13.5097
mány	-13.5101
▁Nea	-13.5102
▁oche	-13.5106
▁aske	-13.5107
▁Nir	-13.5114
▁döt	-13.5135
▁KP	-13.5144
▁ssio	-13.5153
▁oksá	-13.5156
▁skin	-13.5156
▁stag	-13.5162
lnök	-13.5166
▁elic	-13.5168
faj	-13.5169
ús	-13.5172
▁örge	-13.5172
▁olh	-13.5189
▁elké	-13.5201
▁SZTE	-13.5214
mbru	-13.5215
▁odel	-13.5218
▁quar	-13.5221
▁anád	-13.5237
▁OK	-13.5237
PN	-13.5245
NC	-13.5248
▁andh	-13.5249
FO	-13.5251
▁ynn	-13.5252
▁gam	-13.5256
▁Aus	-13.5265
agu	-13.5275
▁acto	-13.5282
DC	-13.5285
▁atag	-13.5286
▁rlem	-13.5298
▁arus	-13.5301
▁arcel	-13.5307
▁sci	-13.5313
éna	-13.5314
▁imbo	-13.5324
▁SI	-13.5343
▁ury	-13.5346
▁éger	-13.5359
▁átyj	-13.5361
▁inect	-13.5361
▁Š	-13.5361
▁VM	-13.5364
▁MEH	-13.5366
▁sic	-13.5366
▁IBF	-13.5371
▁avag	-13.5374
/3	-13.5375
▁VE	-13.5384
▁HTC	-13.5387
mír	-13.5389
▁1.6	-13.539
▁ález	-13.5393
ock	-13.5395
nok	-13.5395
▁CSA	-13.5395
▁CSI	-13.5395
TR	-13.5396
▁mbri	-13.5397
LM	-13.5398
▁agja	-13.5399
▁zob	-13.5399
rbá	-13.54
ORT	-13.5403
És	-13.5404
▁Avi	-13.5404
▁urk	-13.5406
VA	-13.541
▁plu	-13.5412
▁prés	-13.5414
▁04	-13.5415
▁ution	-13.5419
uss	-13.542
▁Dage	-13.542
▁yep	-13.5421
Pal	-13.5432
▁zde	-13.5439
▁angl	-13.5439
LA	-13.5449
wre	-13.5453
▁Utá	-13.5457
▁láda	-13.5457
nato	-13.546
▁arte	-13.5465
IB	-13.547
▁urka	-13.5476
▁goo	-13.5483
▁etőj	-13.5483
▁WC	-13.5486
oglá	-13.5487
roy	-13.5489
▁irta	-13.5496
▁RNS	-13.5497
▁voj	-13.5498
▁EMI	-13.551
▁ógi	-13.5511
▁mby	-13.5519
▁34.	-13.552
▁sóh	-13.5526
▁maci	-13.5526
▁Zum	-13.5533
▁spin	-13.554
▁ovod	-13.5541
▁undo	-13.5544
▁isto	-13.5546
▁36.	-13.5552
VT	-13.5555
was	-13.5556
KT	-13.5556
▁loja	-13.5562
▁gand	-13.5564
▁dwi	-13.5565
▁slau	-13.5573
▁ethe	-13.5573
▁bau	-13.5575
▁ipes	-13.5581
▁IE	-13.5583
▁udd	-13.5594
è	-13.5595
▁eutr	-13.5601
öl	-13.5602
mic	-13.5606
▁Pani	-13.561
▁asad	-13.5611
▁ilc	-13.5612
mos	-13.5622
▁auli	-13.5624
▁boká	-13.5636
▁NC	-13.564
▁Asi	-13.5643
▁Xi	-13.5646
▁icch	-13.5655
▁sil	-13.5665
OE	-13.5666
EX	-13.5668
▁toxi	-13.5674
DO	-13.5677
▁TC	-13.5681
mog	-13.5687
▁asri	-13.5693
mir	-13.5693
RD	-13.5695
▁mun	-13.5701
▁zúg	-13.5705
▁Bas	-13.5709
▁eij	-13.571
▁kuka	-13.5718
▁eppe	-13.572
▁ourg	-13.5726
▁emle	-13.5742
▁sper	-13.5742
uzi	-13.5754
▁pril	-13.5769
▁ünt	-13.5775
▁iena	-13.5792
pin	-13.5799
▁uruc	-13.5799
▁kke	-13.5805
▁arib	-13.5817
act	-13.5838
abo	-13.5844
▁Eti	-13.5859
ezon	-13.5861
yörg	-13.5863
▁07	-13.5869
fü	-13.5882
BE	-13.5886
▁evy	-13.5886
gne	-13.5889
uar	-13.5907
7,	-13.5912
▁ansa	-13.5914
▁ecti	-13.5916
ong	-13.5922
▁SZO	-13.5932
93	-13.5932
SL	-13.5935
NAS	-13.5938
dac	-13.594
83	-13.5943
▁bará	-13.5951
▁Klu	-13.5954
ico	-13.596
▁nty	-13.5981
▁CH	-13.5985
▁oprá	-13.599
szim	-13.5992
▁omor	-13.6016
▁ulj	-13.6018
GY	-13.6023
▁DVTK	-13.6027
▁RCZ	-13.6027
▁LA	-13.6028
▁hryn	-13.6029
AO	-13.6031
▁UNI	-13.6032
kaj	-13.6033
▁4-	-13.6034
▁PS	-13.6038
▁pöc	-13.6045
▁urku	-13.6046
rid	-13.6053
▁iots	-13.6057
ish	-13.6059
PV	-13.6059
▁imfo	-13.6059
▁à	-13.606
▁arley	-13.6061
▁eczk	-13.6067
▁PP	-13.6074
0%	-13.608
GC	-13.6081
▁ayde	-13.6083
▁AH	-13.609
▁sser	-13.6091
▁525	-13.6095
PI	-13.6098
alkó	-13.6104
▁tefá	-13.6109
▁163	-13.6109
▁arim	-13.6115
▁owa	-13.6117
▁SOS	-13.6117
▁pumpa	-13.612
▁AX	-13.612
▁RIA	-13.6127
▁soma	-13.6133
▁AMC	-13.6139
▁IF	-13.615
▁barn	-13.6157
▁pand	-13.6162
▁48.	-13.6168
ATE	-13.6169
▁prah	-13.617
▁AMG	-13.6174
▁ábra	-13.618
▁medr	-13.6187
▁Cli	-13.6187
5,	-13.6194
▁yag	-13.6195
▁team	-13.6196
▁lian	-13.6202
▁yöm	-13.6223
▁tini	-13.6225
▁röl	-13.6227
▁ictu	-13.6228
▁BP	-13.6229
DH	-13.6247
kád	-13.6248
▁Nin	-13.6252
▁tron	-13.6255
▁Guy	-13.6258
utu	-13.6271
▁kuru	-13.6277
▁ássa	-13.6284
▁eco	-13.6287
iper	-13.6292
▁hysi	-13.6298
▁arb	-13.6299
amó	-13.63
▁dpa	-13.6302
▁abel	-13.6305
▁uva	-13.632
▁uper	-13.632
bró	-13.6324
▁ktí	-13.6328
▁erva	-13.6337
▁trans	-13.6345
▁lain	-13.6348
rí	-13.6348
▁#2	-13.6354
▁site	-13.6357
▁ush	-13.636
▁ehr	-13.6361
▁ravi	-13.6362
▁ippa	-13.637
▁rava	-13.6373
▁diu	-13.6391
▁ntur	-13.64
▁NO	-13.6403
▁gém	-13.6407
▁buc	-13.6416
múl	-13.642
▁eriv	-13.6425
ren	-13.6426
▁Liz	-13.6428
▁kvar	-13.6439
▁kend	-13.6444
spi	-13.645
▁haus	-13.6451
rol	-13.6464
▁Anni	-13.6465
tázs	-13.6467
úcs	-13.6493
▁tepa	-13.6497
▁atic	-13.6499
▁lyag	-13.6505
▁rób	-13.652
▁armo	-13.6522
▁lör	-13.6523
▁boly	-13.653
nac	-13.6548
iva	-13.6557
▁Liv	-13.6557
icó	-13.656
▁sur	-13.6561
▁ajná	-13.6562
▁ubo	-13.6571
▁yli	-13.6608
▁Bin	-13.6613
▁thy	-13.6614
▁stic	-13.6618
DL	-13.6623
▁sca	-13.6627
alli	-13.6629
▁imil	-13.6641
ux	-13.6644
▁réd	-13.6646
▁artu	-13.6667
KO	-13.6672
-3	-13.6674
▁bion	-13.6694
▁bro	-13.6698
rás	-13.6706
▁Wiz	-13.6717
nic	-13.6726
▁alez	-13.6727
▁OH	-13.6736
ecz	-13.6737
õ	-13.6737
ura	-13.6739
▁ssim	-13.674
▁FOX	-13.6741
▁(?)	-13.6741
▁5-0	-13.6742
▁neuve	-13.6742
▁arbie	-13.6742
▁efner	-13.6742
▁Agca	-13.6743
▁OPEC	-13.6743
▁ecret	-13.6743
▁tuóz	-13.6743
▁irup	-13.6743
kú	-13.6743
▁Isaa	-13.6746
▁KEH	-13.6747
▁Kör	-13.6749
▁üllő	-13.6754
▁yrto	-13.6756
▁WTC	-13.6757
▁arwin	-13.6764
▁CX	-13.677
▁üch	-13.6771
▁FIN	-13.6772
▁vaca	-13.6773
▁avla	-13.6773
▁hear	-13.6773
▁abin	-13.6776
▁MV	-13.6776
▁eoli	-13.6781
▁ooke	-13.6781
▁RR	-13.6782
▁inór	-13.6782
▁ofle	-13.6783
▁BVK	-13.6783
▁apuka	-13.6784
▁Book	-13.679
▁unst	-13.6791
▁story	-13.6793
▁Lam	-13.6794
▁navi	-13.68
EAT	-13.6803
KSE	-13.6804
▁ttro	-13.6814
▁191	-13.6815
VV	-13.682
▁kür	-13.6825
vin	-13.6827
▁bunk	-13.683
▁BEA	-13.6839
▁dikál	-13.684
FH	-13.684
▁SR	-13.684
udá	-13.6846
▁inst	-13.6847
▁SAP	-13.6849
▁inut	-13.685
▁53.	-13.6853
▁alker	-13.6863
▁auna	-13.6864
▁64.	-13.6872
irá	-13.6879
▁Sym	-13.688
▁átyá	-13.6881
▁tépá	-13.6888
▁etle	-13.6889
▁pixe	-13.6891
▁ruga	-13.6898
▁gály	-13.6902
édi	-13.6905
▁buck	-13.691
▁Acc	-13.6912
▁kko	-13.6913
▁auná	-13.6921
▁owle	-13.6925
▁íny	-13.6929
▁SM	-13.6931
▁ucsi	-13.6932
▁BB	-13.6935
▁vica	-13.6937
▁urci	-13.6937
▁37.	-13.6942
▁Baj	-13.6945
▁back	-13.6946
▁afto	-13.6949
▁EI	-13.695
▁33.	-13.695
▁üles	-13.6957
▁cean	-13.6961
ary	-13.6973
▁olar	-13.6979
▁hack	-13.6982
▁6-	-13.6985
orc	-13.6985
lou	-13.6986
▁pajt	-13.6987
▁idny	-13.699
rrac	-13.7003
▁ratu	-13.7018
▁Ash	-13.7019
opp	-13.7024
▁ogan	-13.7026
▁avon	-13.7028
▁Xu	-13.7034
▁aime	-13.7039
▁ainer	-13.7041
▁ivás	-13.7049
▁aoul	-13.7073
▁SS	-13.7075
erős	-13.7075
▁ssie	-13.708
▁owe	-13.7086
▁arni	-13.7088
▁gány	-13.7097
▁rue	-13.7106
▁8-	-13.711
▁lowe	-13.7114
▁1-5	-13.7126
▁tarc	-13.7133
▁szim	-13.7134
▁rant	-13.7134
▁imid	-13.7137
▁zerek	-13.715
▁zne	-13.7151
▁karb	-13.7155
ADA	-13.7161
NF	-13.7163
aq	-13.7177
▁aska	-13.7178
▁altz	-13.7186
▁uppa	-13.7186
KR	-13.7196
▁orán	-13.7199
▁Lil	-13.7201
▁ompe	-13.7201
▁inar	-13.7207
CE	-13.721
▁lou	-13.7218
hara	-13.722
OC	-13.7221
▁BM	-13.7222
umm	-13.7236
▁erzs	-13.7252
akar	-13.7253
▁lley	-13.7259
▁alya	-13.7275
zsa	-13.7284
itc	-13.7288
▁atyj	-13.729
▁pong	-13.7298
▁ancz	-13.7302
pper	-13.7309
óká	-13.731
▁AJ	-13.7318
▁Qu	-13.7323
our	-13.733
▁(5	-13.7331
zin	-13.7341
▁imu	-13.735
rbor	-13.7361
ava	-13.7364
▁arno	-13.7366
▁(4	-13.7371
▁pite	-13.7405
▁scu	-13.7418
▁ajko	-13.7419
▁hoc	-13.7433
▁idor	-13.7438
▁yout	-13.7449
AE	-13.7453
ith	-13.7456
▁sót	-13.7459
▁rili	-13.7463
▁CSO	-13.7467
nyec	-13.7476
▁Arn	-13.7487
▁polá	-13.7492
▁ínés	-13.7497
▁manó	-13.7498
▁opro	-13.7503
▁idas	-13.7508
▁orst	-13.7511
▁avlo	-13.7514
▁è	-13.7516
▁6:0	-13.7518
▁Amur	-13.7519
Új	-13.752
csík	-13.7522
▁EG	-13.7523
VSK	-13.7527
▁peed	-13.753
▁andu	-13.7531
▁itika	-13.7531
▁7.)	-13.7533
aff	-13.7534
SX	-13.7535
▁ieszt	-13.7537
▁abona	-13.7538
ÉK	-13.7539
▁ÉS	-13.7542
▁orti	-13.7545
▁93.	-13.7546
▁RX	-13.7547
▁fons	-13.7549
▁CBR	-13.7552
▁báty	-13.7554
▁erome	-13.7559
anuf	-13.7559
róni	-13.756
▁ucin	-13.756
arx	-13.756
▁Rajk	-13.7563
lpin	-13.7568
bar	-13.7569
▁arq	-13.757
▁Arj	-13.7571
▁lita	-13.7572
rtó	-13.7574
/2	-13.7576
▁pinc	-13.7578
llah	-13.7579
FB	-13.758
▁rján	-13.7586
▁lock	-13.7587
▁rudi	-13.7588
▁dill	-13.7589
▁74.	-13.7594
▁rupp	-13.7595
▁61.	-13.7599
▁ónia	-13.7599
MD	-13.7602
RO	-13.7604
ová	-13.7607
▁andhi	-13.7608
▁skén	-13.761
▁IPM	-13.7613
▁ydro	-13.7614
VK	-13.7615
▁ous	-13.7615
tox	-13.7619
▁uszi	-13.7623
▁HS	-13.7625
▁stock	-13.7632
▁tonin	-13.7636
▁Nano	-13.7638
▁ccin	-13.7647
▁demi	-13.7649
▁138	-13.7656
SSZ	-13.7656
▁ansel	-13.7666
▁NN	-13.7669
▁irgi	-13.7671
▁39.	-13.7671
▁MKI	-13.7681
▁anca	-13.7687
▁ajan	-13.769
6,	-13.7693
▁ubar	-13.7698
▁alpa	-13.77
▁ejk	-13.7703
▁létr	-13.7707
▁harp	-13.7709
▁alil	-13.7711
▁MAN	-13.7717
▁sejk	-13.7721
▁rela	-13.7722
▁irri	-13.7722
▁rios	-13.7725
▁uhan	-13.773
▁win	-13.7731
▁ibra	-13.7735
▁ulli	-13.774
▁ruy	-13.7747
▁bók	-13.7748
▁firk	-13.7751
▁itzk	-13.7755
ÁR	-13.7757
▁uide	-13.7757
▁iosz	-13.7767
▁abou	-13.7768
▁atyi	-13.7769
▁0)	-13.7773
▁AMO	-13.7773
▁gánc	-13.7774
▁apso	-13.7778
▁dop	-13.7782
RSZ	-13.7786
MF	-13.7787
▁5-	-13.7791
▁ebr	-13.7794
▁iev	-13.7795
ctio	-13.7799
ÁN	-13.7806
▁aith	-13.7807
▁kuri	-13.7808
▁ude	-13.7815
BF	-13.7832
▁ieir	-13.7838
rdo	-13.7841
▁FK	-13.7848
▁riga	-13.785
▁lynn	-13.785
túr	-13.7853
NG	-13.7854
▁chim	-13.7858
▁SG	-13.7858
▁arai	-13.7866
abir	-13.7868
▁ipac	-13.7872
wei	-13.788
▁hrin	-13.788
cca	-13.789
▁amme	-13.7892
▁ospi	-13.79
▁roy	-13.7907
low	-13.7908
▁ripp	-13.7909
▁mszk	-13.7912
▁tamás	-13.7917
▁agra	-13.792
▁gass	-13.7923
▁azzi	-13.7925
iman	-13.7927
▁trei	-13.7932
▁lers	-13.7934
wer	-13.7935
▁XXII	-13.7936
▁dű	-13.7949
▁long	-13.7957
▁hene	-13.7965
▁arris	-13.7975
▁ánaá	-13.7975
▁Oak	-13.7985
▁koc	-13.7995
▁#3	-13.8007
▁mery	-13.8027
▁lobá	-13.8028
▁(9	-13.8042
▁ries	-13.8048
cci	-13.8057
ouse	-13.8063
▁CM	-13.8075
adw	-13.8087
▁öszk	-13.8094
irat	-13.8096
▁iess	-13.8102
▁lton	-13.811
▁ehi	-13.811
▁terét	-13.8121
▁rows	-13.8123
▁kava	-13.8138
▁ncu	-13.814
▁iore	-13.8142
▁boc	-13.8146
▁Apá	-13.8156
▁itar	-13.8159
▁aser	-13.8161
▁káli	-13.8171
XA	-13.8178
▁Néz	-13.8183
plan	-13.8199
▁alab	-13.8212
▁Com	-13.8215
▁ovan	-13.8227
▁erda	-13.8228
▁Lib	-13.8229
nyad	-13.8235
▁runn	-13.8237
▁rdés	-13.8239
▁Yan	-13.8242
▁nami	-13.8268
▁artb	-13.8274
▁szip	-13.8276
▁etrá	-13.8277
▁arit	-13.8278
▁CA	-13.828
▁Col	-13.8281
ÁS	-13.8289
▁undi	-13.829
▁nowl	-13.8291
▁lexi	-13.8291
▁iQ	-13.8297
▁arsi	-13.8311
▁barm	-13.8321
▁AV	-13.8322
▁anga	-13.8322
▁zoo	-13.8333
PÖ	-13.8343
▁š	-13.8344
▁†	-13.8344
▁ickup	-13.8344
▁SITA	-13.8344
▁lútó	-13.8345
▁power	-13.8346
▁Díj	-13.8346
▁game	-13.8346
▁DDD	-13.8347
VI	-13.8347
▁ytho	-13.8348
ZÁG	-13.835
▁Evra	-13.8354
▁okna	-13.8358
▁MAX	-13.8359
▁réfá	-13.8359
▁AGYA	-13.836
▁FPÖ	-13.8363
▁Earl	-13.8364
zsi	-13.8365
▁csík	-13.8366
▁LIF	-13.8366
▁McM	-13.8368
▁ooks	-13.837
▁NSO	-13.8371
/5	-13.8372
▁láva	-13.8373
KV	-13.8373
▁lka	-13.8374
▁drót	-13.8377
▁SNC	-13.8384
▁RBS	-13.8384
▁alcio	-13.8388
▁than	-13.8389
▁agr	-13.8391
▁1:	-13.8391
▁10%	-13.8396
1)	-13.8411
ATA	-13.8423
EU	-13.8428
▁SY	-13.843
▁web	-13.843
afa	-13.8432
▁MÁ	-13.8434
▁summ	-13.8438
▁uff	-13.8441
▁lebeg	-13.8441
▁ogas	-13.8442
▁Prad	-13.8443
▁arcsa	-13.8443
▁sápa	-13.8448
▁EZ	-13.8452
▁229	-13.8453
▁rédi	-13.8456
mbul	-13.8457
ría	-13.8463
▁ISA	-13.8464
▁öwe	-13.8464
czy	-13.8471
▁52.	-13.8473
▁nlac	-13.8473
▁KIT	-13.8476
▁ronc	-13.8477
wn	-13.8488
▁efer	-13.849
▁pizs	-13.849
fco	-13.8497
igi	-13.8497
▁liff	-13.8503
▁cali	-13.8506
▁217	-13.8511
▁UBS	-13.8511
▁9-	-13.8513
BO	-13.8521
▁siva	-13.8528
▁spre	-13.853
vir	-13.8531
▁ORF	-13.8534
▁ermu	-13.8535
EI	-13.8542
▁igná	-13.8543
▁kkad	-13.8546
▁ojk	-13.8547
EA	-13.8549
▁ömp	-13.8558
▁occe	-13.8562
▁skiz	-13.8565
▁42.	-13.8569
bby	-13.857
agra	-13.8587
LI	-13.8587
▁fáli	-13.8601
▁ucsa	-13.8602
▁muff	-13.8603
ufa	-13.8608
▁oone	-13.8613
mut	-13.8615
▁Yi	-13.8628
CB	-13.863
▁sian	-13.8639
wyer	-13.8641
▁TR	-13.8643
lie	-13.8643
bál	-13.8649
uta	-13.8652
▁atto	-13.8654
▁gúz	-13.8658
▁elps	-13.8668
▁ítan	-13.867
NY	-13.8671
▁AEK	-13.8679
▁zof	-13.8682
rhu	-13.8685
▁péd	-13.8688
▁phy	-13.869
▁amah	-13.8697
fic	-13.8697
▁EC	-13.8699
▁awk	-13.8716
▁yder	-13.8722
▁beto	-13.8726
▁gyuf	-13.873
▁ourd	-13.8734
LE	-13.8746
▁que	-13.8754
▁züll	-13.8756
▁EBI	-13.8759
ette	-13.8762
▁dtá	-13.8763
▁KB	-13.8764
▁80.	-13.8766
▁glu	-13.878
▁átyo	-13.8782
▁Say	-13.8785
▁gált	-13.8785
▁AK	-13.8787
▁Arti	-13.879
iosz	-13.8793
▁metz	-13.8794
adó	-13.8794
xx	-13.8795
▁ashi	-13.8813
lias	-13.8818
▁mari	-13.8828
ND	-13.8841
▁lajo	-13.8847
▁idom	-13.8864
▁agna	-13.8867
PM	-13.8869
4,	-13.8875
▁rics	-13.8877
▁wic	-13.8882
vang	-13.8894
▁ringe	-13.8894
▁aric	-13.8895
unt	-13.89
▁ssin	-13.8905
▁onyá	-13.891
▁alfa	-13.8914
▁simá	-13.8935
▁orri	-13.8943
▁imen	-13.8948
MET	-13.8959
▁böl	-13.8963
▁MIN	-13.897
▁tree	-13.8971
▁vinc	-13.8971
bus	-13.8971
▁jazz	-13.8985
▁dage	-13.8987
▁erzi	-13.8998
▁NK	-13.9026
▁opy	-13.9029
▁leig	-13.9032
scó	-13.9043
tage	-13.9068
now	-13.9081
▁ópe	-13.9083
▁COP	-13.9087
▁ADA	-13.9087
▁réme	-13.9102
▁Andi	-13.9112
mage	-13.9119
ves	-13.9136
yeh	-13.9138
▁angó	-13.9144
yF	-13.9146
▁Niki	-13.9153
9,	-13.9158
▁Lis	-13.916
BD	-13.9165
▁zít	-13.9171
▁inas	-13.9173
▁rím	-13.9182
▁usza	-13.9183
▁avro	-13.9184
▁néhá	-13.9187
cas	-13.9206
ace	-13.9211
▁iusz	-13.9228
▁pper	-13.9234
▁DD	-13.9234
5%	-13.9235
FI	-13.9245
<	-13.9253
▁MyS	-13.9253
▁(3)	-13.9254
▁utyus	-13.9254
▁nisc	-13.9255
▁ejmu	-13.9256
▁äubl	-13.9257
KÖ	-13.9258
▁Dóm	-13.9262
▁aván	-13.9262
▁urtis	-13.9263
▁EX	-13.9265
▁LPG	-13.9266
▁ólya	-13.9266
▁pulc	-13.9266
▁FIL	-13.9267
▁pöf	-13.9268
▁hedi	-13.9271
ázli	-13.9272
▁tyev	-13.9273
▁arfi	-13.9274
▁ipno	-13.9276
▁MAG	-13.9278
▁ágly	-13.9281
▁abóc	-13.9282
▁pezs	-13.9282
▁ancú	-13.9286
▁pipa	-13.9294
▁uine	-13.9298
▁MGY	-13.93
▁SZE	-13.9304
bin	-13.9305
▁sepr	-13.9309
▁NF	-13.9312
▁metr	-13.9313
▁10)	-13.9321
rost	-13.9327
▁evin	-13.9327
▁ircu	-13.933
iku	-13.9331
:1	-13.9331
▁átyl	-13.9336
:2	-13.9336
▁weet	-13.9337
▁ncze	-13.9339
▁Gru	-13.934
▁asab	-13.934
▁208	-13.934
▁149	-13.9341
▁pálc	-13.9353
iprá	-13.9362
▁Bús	-13.9367
▁rick	-13.9368
▁erli	-13.9369
▁+1	-13.9373
▁ouss	-13.9378
▁avri	-13.938
▁MX	-13.9381
▁57.	-13.9383
▁LV	-13.9386
▁6-5	-13.9391
▁Expe	-13.9391
▁lill	-13.9392
▁rade	-13.9406
▁fúj	-13.941
▁teff	-13.9413
▁áplá	-13.942
▁158	-13.9427
▁rüh	-13.9429
Ki	-13.9432
▁opul	-13.9439
▁lish	-13.9439
▁avu	-13.946
▁213	-13.9461
TER	-13.9473
▁üti	-13.9475
▁oju	-13.9476
dzs	-13.9477
won	-13.9478
▁55.	-13.9478
▁econ	-13.9483
▁rum	-13.9487
▁rézs	-13.9497
▁ngó	-13.9498
▁ladi	-13.9503
ARC	-13.9504
▁nnis	-13.9509
atch	-13.9509
▁poul	-13.951
▁resh	-13.9519
boa	-13.9529
▁lúd	-13.9541
▁ogne	-13.9545
▁uill	-13.9551
▁RB	-13.9553
lif	-13.9554
▁awke	-13.9556
▁Anim	-13.9564
▁Dro	-13.9569
MR	-13.9571
▁nnia	-13.9573
▁IAA	-13.9574
abas	-13.9575
BU	-13.9587
ravi	-13.9634
▁xxo	-13.9635
shi	-13.964
▁jaku	-13.9643
▁45.	-13.9646
▁ilki	-13.9646
▁+2	-13.9655
▁uth	-13.9661
▁heri	-13.9675
▁sche	-13.9679
▁okró	-13.9683
CT	-13.9688
▁acha	-13.9689
▁ozsó	-13.9693
▁ozso	-13.9694
FK	-13.9714
▁arká	-13.9723
▁tock	-13.9728
▁CE	-13.9741
▁klár	-13.9758
▁dobe	-13.9764
▁sba	-13.977
▁Riz	-13.9779
▁oun	-13.9789
▁biná	-13.9795
▁aczo	-13.9802
KS	-13.9803
▁Ára	-13.9807
úri	-13.9809
öc	-13.9817
muel	-13.9819
▁áljá	-13.9822
adou	-13.9825
nyh	-13.9826
▁amí	-13.983
▁árna	-13.9833
▁terü	-13.9835
▁akob	-13.9854
▁IPI	-13.9859
óva	-13.9868
MO	-13.9875
▁Bai	-13.9878
arka	-13.9884
▁ermi	-13.9896
plin	-13.9907
▁ojt	-13.9917
▁EF	-13.9931
▁mezí	-13.9933
VE	-13.9937
▁oyer	-13.9941
▁dre	-13.9947
▁inde	-13.9948
▁trow	-13.9955
▁ntim	-13.9964
▁örf	-13.9966
anya	-13.9975
ZE	-14.0001
▁eria	-14.0001
▁ijk	-14.0005
▁ropi	-14.0023
▁orty	-14.0023
▁lime	-14.0024
KG	-14.0027
▁urdo	-14.0041
▁ajdi	-14.007
ÉRT	-14.0073
KP	-14.0081
gina	-14.0087
▁odor	-14.0089
▁pacs	-14.0091
▁atró	-14.0093
▁EFS	-14.0095
▁ecz	-14.0098
LÓ	-14.01
PL	-14.0115
▁ánam	-14.0121
nóc	-14.0122
▁was	-14.0127
▁LEG	-14.0129
▁szop	-14.013
▁urgó	-14.0132
▁ipsz	-14.0135
▁enlo	-14.0139
▁rive	-14.0139
lec	-14.0142
▁zone	-14.0146
ppe	-14.0146
▁epom	-14.0153
▁ID	-14.0162
▁Avan	-14.0175
▁rösz	-14.0178
HK	-14.0233
▁eaf	-14.0235
DI	-14.0235
rics	-14.0237
EW	-14.0239
▁NÖ	-14.0241
NYP	-14.0248
IDE	-14.0249
~	-14.0253
▁PwC	-14.0253
▁häus	-14.0253
▁!!!	-14.0253
▁rman	-14.0256
▁NYI	-14.0257
▁ofré	-14.0257
▁dgar	-14.0258
▁#7	-14.0259
▁ümm	-14.026
▁ühr	-14.026
▁nibal	-14.0263
UI	-14.0264
▁kópi	-14.0266
▁hofer	-14.0267
▁ÉV	-14.0268
▁ippek	-14.0269
▁sible	-14.027
▁Asus	-14.0271
▁utba	-14.0271
▁Wim	-14.0272
▁5-3	-14.0273
▁FOR	-14.0279
▁HV	-14.0284
▁bumm	-14.0284
▁BMI	-14.0287
▁acco	-14.0288
▁FDI	-14.0289
▁Arde	-14.0291
▁kóty	-14.0291
▁VSK	-14.0293
▁ahri	-14.0294
/1	-14.03
▁dou	-14.0301
▁Dras	-14.0303
etw	-14.0304
č	-14.0305
▁NÜ	-14.0309
▁préd	-14.0309
▁ship	-14.0311
▁ierse	-14.0313
▁neft	-14.0318
▁Uli	-14.0319
▁Ultr	-14.0321
▁lopp	-14.0322
▁87.	-14.0323
▁zoom	-14.0325
quin	-14.0325
▁82.	-14.0325
▁sánt	-14.0326
▁Aust	-14.0334
▁81.	-14.0339
▁uche	-14.034
die	-14.0341
▁rmor	-14.0343
▁pukk	-14.0349
▁láné	-14.035
ÖK	-14.0351
▁názi	-14.0351
▁manc	-14.0358
▁odot	-14.0359
▁TER	-14.0363
▁SX	-14.0364
▁End	-14.0365
▁spam	-14.0365
▁utri	-14.0367
▁öhle	-14.0376
59	-14.0377
▁nszu	-14.0378
▁zofá	-14.0378
▁iqu	-14.0384
▁BJ	-14.0384
▁finx	-14.0384
▁burá	-14.0385
▁abah	-14.0387
GT	-14.0389
mpe	-14.0391
▁KO	-14.0391
GO	-14.0396
▁BK	-14.04
▁Map	-14.0402
▁ADO	-14.0416
suj	-14.0416
acif	-14.0419
▁OM	-14.045
CM	-14.045
▁aljó	-14.0453
▁buzi	-14.0455
▁NI	-14.0469
zió	-14.0477
lawi	-14.0486
jka	-14.0491
▁Radi	-14.0496
▁óton	-14.0497
▁ipek	-14.0497
MT	-14.0503
▁ógu	-14.051
▁VK	-14.0515
▁EGY	-14.0518
▁icu	-14.052
▁klie	-14.0531
▁ecco	-14.0533
sebb	-14.0533
▁guir	-14.0539
▁Who	-14.0545
▁uud	-14.0547
▁andin	-14.0554
▁erac	-14.0558
▁tojk	-14.057
▁punc	-14.0578
▁bron	-14.0579
▁buli	-14.0589
▁abol	-14.059
▁bx	-14.0594
▁epü	-14.0597
lőd	-14.0609
PB	-14.0611
▁irce	-14.0611
▁ieb	-14.0615
▁szká	-14.0617
▁spic	-14.0619
uzs	-14.0622
▁pult	-14.0627
▁LP	-14.0628
▁rody	-14.063
▁Ambr	-14.063
úza	-14.0631
▁Fav	-14.0633
lúzi	-14.0643
▁alah	-14.0645
▁eise	-14.0645
nyós	-14.0648
aba	-14.0652
▁lau	-14.0657
▁Pól	-14.0658
TB	-14.0659
▁teté	-14.0668
driv	-14.0669
▁lovan	-14.0677
▁aude	-14.0703
▁lima	-14.0715
álat	-14.0718
▁orvá	-14.0729
▁uzer	-14.075
GS	-14.0755
▁imic	-14.0761
▁affe	-14.0763
▁KG	-14.0764
▁nnie	-14.0772
▁góc	-14.0775
▁pur	-14.078
rím	-14.0781
▁SLS	-14.0782
▁qu	-14.0792
▁tarj	-14.0808
▁orus	-14.0814
▁dühr	-14.0824
▁7)	-14.0838
▁dós	-14.0851
▁erty	-14.086
▁EKK	-14.0864
▁orbo	-14.0866
▁táto	-14.0867
▁maja	-14.0881
rika	-14.089
▁adis	-14.0895
▁osic	-14.0914
csin	-14.0926
▁réc	-14.0926
▁KSZ	-14.0933
▁Alj	-14.0949
▁ürth	-14.0952
▁tabi	-14.0973
▁eft	-14.0977
▁EK	-14.0985
▁anx	-14.0988
▁pold	-14.0992
raft	-14.0993
pda	-14.1003
NL	-14.1006
▁puco	-14.1013
▁polc	-14.1015
ivá	-14.1017
bro	-14.1019
▁MKK	-14.1032
▁burk	-14.1043
jós	-14.1044
▁rvi	-14.1064
▁ustr	-14.1073
▁panc	-14.1079
▁off	-14.1081
▁opos	-14.1084
Ga	-14.1095
▁ffan	-14.1096
▁Emm	-14.1107
▁Vic	-14.1113
▁edge	-14.1122
▁roes	-14.113
▁ttac	-14.1133
IE	-14.1133
▁akál	-14.1134
▁dah	-14.1141
▁guin	-14.1149
▁MG	-14.1165
▁öc	-14.118
▁fasz	-14.1208
▁eddi	-14.1209
▁WI	-14.1209
hau	-14.1211
▁oop	-14.1215
LB	-14.1217
ntim	-14.1225
CK	-14.1243
ruzs	-14.1244
▁pred	-14.125
WB	-14.1251
▁lová	-14.1255
BER	-14.1284
lex	-14.1299
árvá	-14.132
▁ride	-14.1322
▁erku	-14.1322
▁rode	-14.1337
▁FIS	-14.1342
▁1/	-14.1352
▁uró	-14.1353
▁IFA	-14.1356
cch	-14.1358
ë	-14.136
▁udy	-14.1362
ID	-14.1362
£	-14.1364
û	-14.1364
▁ENŐ	-14.1364
▁mágus	-14.1364
▁swap	-14.1365
▁SZJ	-14.1365
▁PETA	-14.1365
▁shaw	-14.1366
▁Abde	-14.1366
SZB	-14.1368
▁ă	-14.1368
▁sáms	-14.1368
▁iers	-14.1369
▁tojó	-14.1371
▁díler	-14.1372
▁wyn	-14.1372
▁rouw	-14.1373
▁BAR	-14.1375
▁gamy	-14.1379
▁rahm	-14.138
▁masza	-14.138
▁ázli	-14.1381
▁Assa	-14.1382
▁ipog	-14.1387
▁Arbe	-14.1387
▁edb	-14.139
▁usq	-14.1391
:0	-14.1393
▁NHT	-14.1393
▁ophi	-14.1395
▁öpf	-14.1396
▁1.4	-14.1403
▁loop	-14.1404
▁kóla	-14.1404
▁skis	-14.1404
▁gulá	-14.1405
▁wyer	-14.1408
rrow	-14.1408
HP	-14.1409
banc	-14.1414
▁umme	-14.1414
▁92.	-14.1415
▁alca	-14.1423
▁Drak	-14.1424
▁názs	-14.1429
XI	-14.1429
phi	-14.1431
▁wick	-14.1433
▁329	-14.1435
▁wand	-14.1437
▁erbin	-14.1438
▁quo	-14.1439
▁LIG	-14.1446
▁5%	-14.1447
▁GTI	-14.1459
▁yah	-14.146
▁Sach	-14.1461
ÉR	-14.147
▁ürt	-14.1472
▁Abbi	-14.1473
▁wing	-14.1477
▁garde	-14.1477
HT	-14.1478
mour	-14.148
▁more	-14.1487
▁1)	-14.1495
▁Pia	-14.1495
▁rúzs	-14.1495
▁58.	-14.1504
▁őszö	-14.1508
▁Yue	-14.1512
ece	-14.1515
▁asmu	-14.1519
:3	-14.1526
etaf	-14.1528
▁OT	-14.153
mba	-14.1537
urá	-14.1537
▁rooks	-14.1545
IH	-14.1548
ohan	-14.1556
▁Tád	-14.1558
▁Arg	-14.1559
▁Pank	-14.1564
▁SW	-14.1577
▁Nii	-14.1589
▁ográ	-14.159
▁DH	-14.1592
▁pul	-14.1601
▁otro	-14.1604
▁davo	-14.1606
rib	-14.1608
▁MO	-14.1614
▁nden	-14.1616
▁ÁB	-14.1619
▁SPA	-14.1619
▁grü	-14.162
▁ébé	-14.1622
▁uji	-14.1623
▁shle	-14.1624
EMA	-14.1627
▁anje	-14.1631
▁edes	-14.1633
▁wij	-14.1642
hner	-14.1649
▁atyn	-14.1651
▁HK	-14.1652
BSZ	-14.1652
▁karm	-14.1663
▁mixe	-14.1664
▁atír	-14.1674
▁blam	-14.1677
RP	-14.1681
▁ardí	-14.1684
▁ayy	-14.1688
▁MNA	-14.169
▁opak	-14.1697
poch	-14.1699
▁litá	-14.1701
RE	-14.1702
▁235	-14.1706
▁itus	-14.1706
▁rpik	-14.1708
▁lax	-14.171
IL	-14.1711
▁poét	-14.1712
▁ourc	-14.1713
vign	-14.1715
▁Raj	-14.1725
▁toes	-14.1727
yeg	-14.173
oda	-14.1741
▁PB	-14.1744
cau	-14.175
▁VT	-14.1765
▁edor	-14.1775
▁rózs	-14.1776
CH	-14.1782
ceu	-14.1789
GI	-14.1808
▁spán	-14.1812
BT	-14.1813
▁fén	-14.1818
▁plas	-14.1824
▁earl	-14.1831
▁ody	-14.1835
rdí	-14.1839
▁avad	-14.1842
▁marc	-14.1845
▁nark	-14.1853
IR	-14.1863
▁itiv	-14.1866
▁oomi	-14.1866
▁lazs	-14.1873
▁löf	-14.1873
▁tanu	-14.1874
ria	-14.1889
▁rkan	-14.19
asc	-14.1908
▁Cle	-14.1911
ssio	-14.1926
ájz	-14.1946
hui	-14.1958
▁aby	-14.1966
▁awei	-14.1969
▁avli	-14.1974
YES	-14.1991
▁rezs	-14.1991
▁tlas	-14.1996
▁cako	-14.2001
▁Qi	-14.2005
▁loc	-14.2026
▁mble	-14.2034
▁ehl	-14.2076
▁Anda	-14.208
▁ürr	-14.2103
▁CI	-14.2111
▁ÁN	-14.2121
way	-14.2147
▁utu	-14.2159
ubu	-14.2169
cro	-14.2173
▁ikto	-14.2177
▁Ahl	-14.2188
▁dóze	-14.2205
öml	-14.2208
▁MGSZ	-14.2211
▁ővá	-14.2241
▁Tab	-14.2266
▁time	-14.2278
▁Rado	-14.2278
▁oev	-14.2293
▁CB	-14.2314
ocsk	-14.2324
▁CV	-14.2337
▁spol	-14.2365
▁3)	-14.2366
▁MTE	-14.2369
▁tml	-14.237
▁ohn	-14.2377
▁alci	-14.2389
ič	-14.2399
▁+3	-14.2405
▁eney	-14.2407
▁9)	-14.2414
▁urre	-14.2417
IVA	-14.2418
ame	-14.2419
UT	-14.2422
itro	-14.2422
USZ	-14.2424
▁urch	-14.2427
▁gir	-14.2439
gac	-14.2441
yro	-14.248
▁xxx	-14.2482
▁bout	-14.2504
rug	-14.2509
▁böf	-14.2524
▁SEC	-14.2537
▁TÁ	-14.2541
??	-14.2548
▁CP	-14.2554
ÉT	-14.2573
IU	-14.2573
ovie	-14.258
CAP	-14.2581
▁BV	-14.2608
▁SAS	-14.2609
NM	-14.2612
▁PET	-14.2613
▁iwiw	-14.2614
▁bűbá	-14.2615
▁QX	-14.2615
▁+4	-14.2616
▁ÁFSZ	-14.2616
▁NET	-14.2617
▁XY	-14.2617
ICE	-14.2619
▁Arun	-14.2622
▁JFK	-14.2626
EMO	-14.2628
▁bök	-14.2632
▁IBE	-14.2632
OLT	-14.2633
▁rzso	-14.2635
▁DMC	-14.2639
AGY	-14.2641
FRS	-14.2642
▁1/4	-14.2643
▁nech	-14.2644
▁ejdu	-14.2645
▁erzo	-14.2646
▁TDH	-14.2648
lub	-14.2651
▁faun	-14.2653
ycr	-14.2654
ugó	-14.2654
▁8.)	-14.2655
PE	-14.2655
▁ssip	-14.2656
▁(1.	-14.2658
▁kazá	-14.2659
▁póni	-14.2668
▁Naya	-14.2668
▁rrép	-14.267
dék	-14.2672
▁otázs	-14.2674
▁arvá	-14.2674
▁MNG	-14.2675
ardy	-14.2675
▁hein	-14.2676
▁peck	-14.2679
▁OTT	-14.2689
▁nnec	-14.2692
CNA	-14.2697
▁83.	-14.2698
jac	-14.2698
▁lund	-14.2698
átra	-14.2699
▁Soma	-14.27
▁Ush	-14.27
▁Rob	-14.2703
▁CW	-14.2704
▁árgá	-14.2706
▁erma	-14.2707
UA	-14.2708
▁ngli	-14.2712
▁ebab	-14.2713
▁ych	-14.2719
▁phin	-14.2721
▁grim	-14.2726
▁EME	-14.2732
▁urma	-14.2734
▁etaf	-14.2741
▁böjt	-14.2742
▁edák	-14.275
▁AMD	-14.2754
▁böj	-14.2763
▁66.	-14.2765
▁ussy	-14.2773
▁osice	-14.2778
▁badi	-14.2779
rob	-14.2785
▁stad	-14.2786
▁yron	-14.2787
▁KV	-14.2795
▁Lane	-14.2797
▁lúzi	-14.2798
▁246	-14.2804
▁311	-14.2804
▁imac	-14.2806
▁klor	-14.2811
ZS	-14.2818
▁kupl	-14.2821
▁ogun	-14.2826
AI	-14.2843
▁bája	-14.2847
▁heis	-14.2849
▁undu	-14.286
▁arcy	-14.2863
amb	-14.2866
dur	-14.2866
▁mizs	-14.287
▁Dana	-14.2874
▁43.	-14.2876
play	-14.2891
▁arun	-14.2893
gall	-14.2902
▁ruc	-14.2903
▁Bútor	-14.2906
▁Áru	-14.2918
▁popk	-14.2921
▁+5	-14.2924
▁lomh	-14.2939
▁pórá	-14.2942
▁teau	-14.2951
▁Ayg	-14.296
▁arou	-14.2963
PD	-14.2967
▁Pizz	-14.2973
mpu	-14.2983
▁JC	-14.2985
over	-14.2988
▁STO	-14.2989
riv	-14.2994
GP	-14.3004
jou	-14.3013
pro	-14.3018
▁moár	-14.3021
▁Ór	-14.3028
▁mac	-14.3028
pánk	-14.3031
▁gol	-14.3036
▁iksa	-14.3036
▁TF	-14.3041
▁Exi	-14.3044
▁urda	-14.3045
▁PO	-14.305
▁árkó	-14.305
▁TK	-14.3052
▁acie	-14.3053
dwa	-14.3061
CR	-14.3077
▁yoma	-14.3089
▁620	-14.3094
gui	-14.3098
▁etic	-14.3106
nyja	-14.3107
▁drag	-14.3113
▁merí	-14.3114
pus	-14.3119
MK	-14.3135
UD	-14.3157
▁kály	-14.3172
sda	-14.3173
maj	-14.3185
▁ynd	-14.3201
alac	-14.3213
▁KF	-14.3242
▁AU	-14.3244
▁pej	-14.3248
▁ompa	-14.3249
▁evad	-14.3251
▁pucs	-14.3253
▁EMF	-14.3258
▁itya	-14.3291
▁lare	-14.3308
▁oyá	-14.3329
▁eign	-14.3333
▁Mack	-14.3345
▁ICE	-14.3361
▁inov	-14.3363
▁ED	-14.3364
▁MOK	-14.3366
▁kaku	-14.337
ÁSZ	-14.3403
▁rna	-14.3404
▁Yon	-14.3406
ysse	-14.3431
▁topp	-14.3434
frá	-14.3438
▁athi	-14.3443
siná	-14.3445
▁RM	-14.3456
▁enec	-14.3468
▁yga	-14.3469
appá	-14.3473
▁abc	-14.3475
▁áthá	-14.3483
▁ARC	-14.3496
jaj	-14.3499
▁iens	-14.3504
hic	-14.3508
▁pác	-14.3513
▁azir	-14.355
ZA	-14.3558
▁oble	-14.3564
▁esda	-14.3567
▁óbi	-14.3568
▁alib	-14.3569
▁Pie	-14.3578
▁gám	-14.3583
▁OD	-14.3592
▁Ape	-14.3601
▁lous	-14.362
lui	-14.3629
alaj	-14.3646
▁oule	-14.3653
ML	-14.3658
▁pasi	-14.3675
aver	-14.3683
urr	-14.3709
OV	-14.371
▁stac	-14.3715
▁mpal	-14.3744
öty	-14.3765
▁IR	-14.3768
▁rkó	-14.3791
▁CAS	-14.3794
▁oys	-14.3798
aju	-14.3812
ÉG	-14.3839
▁ilib	-14.3844
▁Cop	-14.3859
▁ambu	-14.3866
▁irag	-14.3869
El	-14.3869
▁MB	-14.3886
▁anah	-14.3886
▁ébén	-14.389
NK	-14.3893
LD	-14.3893
▁pist	-14.3896
▁Ruz	-14.393
▁ectu	-14.3934
▁agin	-14.3937
▁yid	-14.3973
▁uic	-14.3976
▁UK	-14.3984
▁ief	-14.3984
▁itzi	-14.3992
ócsá	-14.4011
ÁL	-14.4029
roni	-14.4034
risz	-14.4034
GN	-14.4036
▁tóbb	-14.4038
ă	-14.4038
]	-14.4038
ß	-14.4043
ý	-14.4043
▁Fauzy	-14.4043
▁ILO	-14.4043
+2	-14.4043
▁eeeee	-14.4043
▁Róza	-14.4043
ammo	-14.4047
▁cápá	-14.4048
▁4:0	-14.4059
▁toya	-14.4062
▁meto	-14.4064
▁agdi	-14.4065
▁Udo	-14.4065
▁rump	-14.4069
▁ökle	-14.4072
▁ditá	-14.4072
océ	-14.4073
▁MLS	-14.4075
▁gour	-14.4077
▁pink	-14.408
▁NCA	-14.408
ERS	-14.4086
FS	-14.4087
▁ENK	-14.4089
▁iefs	-14.4092
▁äm	-14.4092
▁ivac	-14.4093
▁(+	-14.4094
▁ERS	-14.4094
▁ruzs	-14.4094
▁IM	-14.4097
▁9.)	-14.41
▁REM	-14.4103
▁Prada	-14.4104
▁ibut	-14.4104
▁19)	-14.4108
EGA	-14.4109
▁838	-14.4112
▁itzb	-14.4113
ydn	-14.4115
átyj	-14.4118
▁plin	-14.4122
▁GAZ	-14.4122
ZDS	-14.4124
▁RUS	-14.4125
achu	-14.4128
ACS	-14.4128
▁Isak	-14.413
▁Exu	-14.4131
ço	-14.414
▁OTE	-14.4145
▁78.	-14.4148
▁heus	-14.4149
ntw	-14.4149
▁lipó	-14.4149
▁FX	-14.4157
▁opho	-14.416
toll	-14.4162
▁ucc	-14.4164
▁77.	-14.4164
▁gnis	-14.4165
▁lyde	-14.4167
▁ssss	-14.4167
▁Sahi	-14.4181
▁RV	-14.4182
▁Prat	-14.4183
▁67.	-14.4184
▁ngle	-14.4189
▁PW	-14.4192
▁poc	-14.4197
▁Rast	-14.4202
▁AIB	-14.4204
▁CSE	-14.4211
▁Arnh	-14.4216
▁aglan	-14.4217
▁luka	-14.4219
▁icro	-14.4222
▁asq	-14.4232
SP	-14.4233
▁mázo	-14.424
ô	-14.5705
*	-14.5705
ń	-14.5709
`	-14.5709
	-14.5709
Č	-14.7709
ţ	-14.7709
⁄	-14.7709
ç	-15.0032
Í	-15.0124
­	-15.0205
	-15.0209
Ž	-15.0209
ž	-15.0209
Ű	-15.0609
Š	-15.3538
¬	-15.3543
®	-15.3543
±	-15.3543
å	-15.3543
ò	-15.3543
ň	-15.3543
‒	-15.3543
\	-15.8538
ť	-15.8543
^	-15.8543
	-15.8543
ã	-15.8543
ì	-15.8543
ï	-15.8543
ÿ	-15.8543
ה	-15.8543
′	-15.8543
€	-15.8543
≤	-15.8543
>	-16.6913
$	-16.8539
=	-16.8539
[	-16.8539
Đ	-16.8541
Ä	-16.8542
·	-16.8543
μ	-16.8543
Å	-16.8543
æ	-16.8543
ê	-16.8543
î	-16.8543
ð	-16.8543
ą	-16.8543
Ć	-16.8543
đ	-16.8543
ę	-16.8543
ı	-16.8543
ř	-16.8543
Ś	-16.8543
ś	-16.8543
Ţ	-16.8543
Ť	-16.8543
ů	-16.8543
ż	-16.8543
ș	-16.8543
λ	-16.8543
ї	-16.8543
ו	-16.8543
י	-16.8543
∗	-16.8543
̈	-16.8544
È	-16.8545
	-16.8546
ş	-16.8547
ł	-16.8548
ø	-16.8549
â	-16.855
°	-16.8551
ñ	-16.8552
†	-16.8553
‬	-16.8554
š	-16.8555
§	-16.8556
−	-16.8557
_	-16.8558
#	-16.8559
̋	-16.856
(	-16.8561
