[UNK]	0
[CLS]	1
[SEP]	2
[PAD]	3
[MASK]	4
!	5
"	6
#	7
$	8
%	9
&	10
'	11
(	12
)	13
*	14
+	15
,	16
-	17
.	18
/	19
0	20
1	21
2	22
3	23
4	24
5	25
6	26
7	27
8	28
9	29
:	30
;	31
<	32
=	33
>	34
?	35
@	36
[	37
\	38
]	39
^	40
_	41
`	42
a	43
b	44
c	45
d	46
e	47
f	48
g	49
h	50
i	51
j	52
k	53
l	54
m	55
n	56
o	57
p	58
q	59
r	60
s	61
t	62
u	63
v	64
w	65
x	66
y	67
z	68
~	69
	70
	71
	72
	73
£	74
§	75
©	76
¬	77
­	78
®	79
°	80
±	81
·	82
×	83
ß	84
à	85
á	86
â	87
ã	88
ä	89
å	90
æ	91
ç	92
è	93
é	94
ê	95
ë	96
ì	97
í	98
î	99
ï	100
ð	101
ñ	102
ò	103
ó	104
ô	105
õ	106
ö	107
ø	108
ú	109
û	110
ü	111
ý	112
ÿ	113
ă	114
ą	115
ć	116
č	117
đ	118
ę	119
ı	120
ł	121
ń	122
ň	123
ő	124
ř	125
ś	126
ş	127
š	128
ţ	129
ť	130
ů	131
ű	132
ż	133
ž	134
ș	135
̈	136
̋	137
λ	138
μ	139
ї	140
ה	141
ו	142
י	143
‒	144
†	145
•	146
‬	147
‭	148
′	149
⁄	150
€	151
−	152
∗	153
≤	154
	155
	156
##u	157
##ó	158
##z	159
##a	160
##8	161
##5	162
##k	163
##b	164
##r	165
##t	166
##ö	167
##j	168
##í	169
##o	170
##c	171
##e	172
##d	173
##n	174
##m	175
##g	176
##l	177
##ő	178
##p	179
##v	180
##s	181
##á	182
##i	183
##f	184
##h	185
##ú	186
##é	187
##2	188
##y	189
##1	190
##4	191
##x	192
##õ	193
##6	194
##q	195
##3	196
##w	197
##7	198
##0	199
##č	200
##ř	201
##9	202
##š	203
##ű	204
##!	205
##?	206
##ü	207
##ć	208
##ä	209
##ç	210
##ň	211
##ž	212
##/	213
##)	214
##%	215
##å	216
##ñ	217
##]	218
##,	219
##à	220
##;	221
##è	222
##ă	223
##ò	224
##ø	225
##ţ	226
##ї	227
##ï	228
##ů	229
##>	230
##î	231
##-	232
##"	233
##.	234
##ß	235
##\	236
##ý	237
##ê	238
##ÿ	239
##*	240
##ë	241
##ż	242
##ô	243
##đ	244
##′	245
##ã	246
##:	247
##ה	248
##ו	249
##=	250
##ì	251
##(	252
##ð	253
##û	254
##+	255
##æ	256
##[	257
##ť	258
##~	259
##ș	260
##gy	261
sz	262
##el	263
##en	264
##er	265
##et	266
##sz	267
az	268
##an	269
el	270
##tt	271
##al	272
##at	273
és	274
##ak	275
##eg	276
##or	277
##nt	278
##em	279
##ár	280
##ég	281
##ek	282
egy	283
is	284
kö	285
ny	286
ho	287
##ar	288
##ny	289
##ás	290
ál	291
ez	292
meg	293
##ol	294
mi	295
al	296
et	297
en	298
##ág	299
ké	300
ek	301
ki	302
szer	303
at	304
hogy	305
##ap	306
ok	307
ás	308
es	309
##bb	310
er	311
ol	312
##nd	313
nem	314
##ez	315
le	316
##és	317
cs	318
ér	319
##es	320
ak	321
##ed	322
ban	323
##ál	324
##án	325
##on	326
##ér	327
##ék	328
em	329
##ól	330
ik	331
##os	332
be	333
##ik	334
an	335
fel	336
ott	337
##át	338
ben	339
##él	340
gy	341
##ok	342
##ül	343
##ta	344
áll	345
tö	346
ett	347
int	348
am	349
ar	350
re	351
nak	352
ad	353
or	354
##nk	355
##ett	356
##in	357
on	358
##szt	359
##am	360
##ét	361
##ad	362
##aj	363
##om	364
##ely	365
##il	366
ár	367
##agy	368
##cs	369
##it	370
##az	371
##og	372
##ag	373
##ák	374
te	375
lt	376
ni	377
os	378
év	379
szá	380
nek	381
köz	382
jel	383
##ől	384
ja	385
hat	386
id	387
ra	388
de	389
át	390
##ban	391
##ség	392
kor	393
él	394
ság	395
##ni	396
##oz	397
##ben	398
agy	399
elő	400
ren	401
val	402
##het	403
ség	404
##ut	405
##len	406
leg	407
ig	408
##is	409
##ig	410
##ll	411
##ány	412
##ra	413
rend	414
tu	415
##iz	416
##as	417
vol	418
##ai	419
ut	420
##ell	421
##áb	422
##re	423
##art	424
##ott	425
ter	426
for	427
ind	428
ha	429
né	430
tett	431
##ít	432
ot	433
jelen	434
##ró	435
agyar	436
ker	437
##ész	438
már	439
##ja	440
ko	441
##ény	442
##lt	443
##ság	444
ne	445
tart	446
volt	447
nagy	448
án	449
in	450
hely	451
ét	452
ít	453
##én	454
oz	455
ös	456
##má	457
kez	458
ve	459
szt	460
##nek	461
emb	462
tel	463
##ci	464
tör	465
ta	466
kép	467
csak	468
as	469
tá	470
##ul	471
több	472
még	473
ért	474
##kor	475
azt	476
##ök	477
##ve	478
ember	479
eg	480
##sze	481
##us	482
vá	483
kap	484
új	485
ked	486
más	487
két	488
van	489
mint	490
rsz	491
rszág	492
fog	493
ügy	494
##ső	495
tud	496
száz	497
om	498
sem	499
szám	500
tár	501
vég	502
##ép	503
mag	504
kell	505
tal	506
ai	507
iz	508
ezet	509
##áz	510
##ív	511
lehet	512
ellen	513
ed	514
ját	515
##att	516
##ro	517
il	518
##ej	519
ált	520
la	521
##da	522
amely	523
zö	524
##ot	525
nt	526
össze	527
##na	528
##ért	529
jár	530
tt	531
##ont	532
##lli	533
ul	534
nap	535
##olg	536
##mi	537
oly	538
milli	539
vi	540
je	541
ük	542
ond	543
lék	544
aj	545
tés	546
száza	547
után	548
##ond	549
eu	550
ba	551
tak	552
##ov	553
vagy	554
őr	555
lát	556
##éd	557
ír	558
zt	559
##ia	560
##ne	561
ab	562
##le	563
szak	564
vil	565
rész	566
biz	567
ped	568
##ko	569
ci	570
bu	571
est	572
##vé	573
ap	574
abb	575
tan	576
##kö	577
ir	578
kül	579
##to	580
mu	581
ezt	582
##gyan	583
het	584
men	585
pedig	586
tette	587
forin	588
ill	589
##úl	590
##ős	591
han	592
rá	593
ként	594
első	595
##ch	596
ról	597
##ert	598
ebb	599
unk	600
vár	601
munk	602
##vő	603
bi	604
kér	605
##vet	606
ében	607
ondta	608
hi	609
eket	610
alap	611
##öl	612
ti	613
mű	614
pár	615
okat	616
gaz	617
sok	618
világ	619
ri	620
ül	621
##yen	622
kat	623
idő	624
úgy	625
ött	626
ból	627
kormá	628
it	629
lés	630
nél	631
ép	632
##obb	633
##sza	634
inden	635
ikai	636
##ció	637
fő	638
##té	639
hal	640
maj	641
mind	642
követ	643
nő	644
##nak	645
ám	646
miatt	647
kal	648
dö	649
akkor	650
ism	651
tek	652
pro	653
pont	654
majd	655
ugyan	656
kész	657
vál	658
vel	659
igaz	660
##ön	661
##mé	662
rt	663
így	664
ide	665
##ná	666
eln	667
való	668
ro	669
euró	670
##ály	671
bel	672
##uk	673
hoz	674
##íz	675
aki	676
##utat	677
##ab	678
##se	679
ják	680
kerü	681
állam	682
ló	683
nd	684
##kal	685
én	686
av	687
##ín	688
társ	689
törté	690
uk	691
ták	692
ll	693
sor	694
ján	695
##éz	696
ható	697
lő	698
dí	699
véd	700
laszt	701
ről	702
jó	703
ami	704
issza	705
fej	706
ei	707
sp	708
kezd	709
nk	710
st	711
##őz	712
##emé	713
lesz	714
eset	715
ezető	716
zött	717
old	718
og	719
dönt	720
elnök	721
áz	722
talál	723
ből	724
##no	725
me	726
von	727
pén	728
pénz	729
##ug	730
##val	731
bo	732
zó	733
fél	734
ör	735
mell	736
ünk	737
olyan	738
nál	739
##rá	740
mert	741
ep	742
tám	743
tól	744
előtt	745
ilyen	746
sít	747
keres	748
zet	749
sal	750
ly	751
##nyi	752
tás	753
alm	754
zs	755
##be	756
##ző	757
od	758
ában	759
jö	760
jog	761
##ír	762
ház	763
ismer	764
egyik	765
##szo	766
ék	767
saj	768
által	769
##hat	770
pol	771
di	772
mér	773
se	774
díj	775
elm	776
alak	777
let	778
##étel	779
vez	780
ozz	781
já	782
érd	783
adó	784
onban	785
hár	786
ah	787
tov	788
per	789
asz	790
ke	791
tat	792
hét	793
##tat	794
li	795
va	796
##je	797
##dá	798
lak	799
kk	800
##od	801
etlen	802
ály	803
mond	804
mény	805
továb	806
olt	807
aut	808
vet	809
##ély	810
##ort	811
ozzá	812
tér	813
nev	814
öt	815
autó	816
ani	817
től	818
##fi	819
polit	820
sen	821
ver	822
ent	823
ten	824
éves	825
mos	826
három	827
illet	828
##ló	829
ély	830
##est	831
kapcs	832
lis	833
##kez	834
munka	835
fér	836
zás	837
ének	838
##vel	839
gazda	840
külön	841
ku	842
ezer	843
##éter	844
áb	845
bizto	846
dolg	847
kon	848
ré	849
##elő	850
sik	851
sap	852
ikus	853
ag	854
állal	855
##szá	856
hez	857
emel	858
##tó	859
##ím	860
élet	861
##öve	862
ére	863
szín	864
##bá	865
##ony	866
kör	867
ása	868
##lan	869
város	870
ának	871
##nap	872
mikor	873
tott	874
sapat	875
ték	876
fiz	877
koz	878
lép	879
egész	880
kis	881
any	882
most	883
##jt	884
mutat	885
ont	886
##ze	887
ov	888
end	889
##áro	890
itt	891
nyil	892
im	893
##ód	894
zott	895
##op	896
koráb	897
tű	898
arra	899
cím	900
párt	901
orszá	902
ing	903
öl	904
gond	905
aszná	906
nyug	907
erős	908
ció	909
kérd	910
állí	911
föl	912
##ük	913
tet	914
ató	915
férfi	916
##ce	917
árd	918
szab	919
eb	920
cég	921
játék	922
##tö	923
##um	924
baj	925
oszt	926
ment	927
##ri	928
net	929
ered	930
ön	931
siker	932
lap	933
jut	934
##oly	935
gyer	936
##ör	937
ók	938
elem	939
hang	940
ma	941
társa	942
törvé	943
dolgo	944
par	945
len	946
lás	947
ód	948
##dig	949
fizet	950
ia	951
óta	952
##gyel	953
##sg	954
ára	955
érték	956
szerv	957
juk	958
adat	959
obb	960
kar	961
##nte	962
haj	963
hó	964
bl	965
európ	966
##tá	967
érdek	968
##va	969
ném	970
seg	971
kel	972
alatt	973
atlan	974
volna	975
kív	976
ők	977
vas	978
##asz	979
készü	980
mar	981
nyom	982
vezet	983
uta	984
csö	985
hu	986
gr	987
##int	988
tr	989
##he	990
ási	991
##ki	992
ezek	993
másod	994
otta	995
túl	996
szerű	997
##köd	998
##ge	999
zat	1000
jegy	1001
gondo	1002
tag	1003
elmi	1004
má	1005
négy	1006
kken	1007
valam	1008
alá	1009
oldal	1010
tam	1011
##vi	1012
té	1013
##la	1014
jav	1015
ltség	1016
út	1017
amer	1018
szó	1019
idesz	1020
súl	1021
súly	1022
terv	1023
fil	1024
ink	1025
bal	1026
vesz	1027
##ep	1028
bár	1029
mód	1030
eml	1031
tlen	1032
akik	1033
közel	1034
##atal	1035
vétel	1036
zár	1037
besz	1038
verse	1039
##uá	1040
##ká	1041
utó	1042
ennyi	1043
intéz	1044
atás	1045
éh	1046
##ról	1047
olat	1048
lni	1049
viszo	1050
cél	1051
tik	1052
mini	1053
öz	1054
ütt	1055
mány	1056
támog	1057
vált	1058
##ára	1059
and	1060
##lte	1061
si	1062
bar	1063
lét	1064
bud	1065
ford	1066
jobb	1067
ások	1068
nagyo	1069
szól	1070
méter	1071
film	1072
áltoz	1073
fü	1074
fr	1075
pél	1076
példá	1077
##ba	1078
ése	1079
us	1080
##kü	1081
budap	1082
nin	1083
##di	1084
ező	1085
szül	1086
sport	1087
nélkü	1088
bizo	1089
indul	1090
akar	1091
tiszt	1092
##00	1093
ész	1094
##köz	1095
német	1096
son	1097
víz	1098
pia	1099
pály	1100
szter	1101
rö	1102
marad	1103
beszé	1104
ip	1105
olyam	1106
forg	1107
hanem	1108
ell	1109
őd	1110
munká	1111
ző	1112
ord	1113
##zet	1114
gép	1115
pró	1116
sí	1117
szem	1118
nincs	1119
győz	1120
##vas	1121
kam	1122
lal	1123
szet	1124
##ác	1125
alom	1126
ügyi	1127
isz	1128
arm	1129
att	1130
kl	1131
##vat	1132
lé	1133
sk	1134
ően	1135
ével	1136
álat	1137
igazg	1138
##lat	1139
ották	1140
iselő	1141
ső	1142
igyel	1143
termé	1144
terül	1145
kt	1146
ch	1147
üz	1148
lett	1149
do	1150
zölte	1151
bajno	1152
erő	1153
ran	1154
ely	1155
nép	1156
adás	1157
ász	1158
fo	1159
jövő	1160
dol	1161
mí	1162
táv	1163
nyer	1164
lá	1165
tol	1166
fogad	1167
kr	1168
ükség	1169
ur	1170
azért	1171
játsz	1172
ken	1173
azok	1174
lj	1175
dal	1176
kev	1177
egyed	1178
tü	1179
##ád	1180
sági	1181
ng	1182
san	1183
eddig	1184
nyi	1185
hív	1186
orv	1187
eng	1188
előre	1189
míg	1190
lat	1191
##nyv	1192
perc	1193
##opo	1194
ontos	1195
csopo	1196
bí	1197
inte	1198
kó	1199
inf	1200
olvas	1201
fe	1202
elt	1203
tköz	1204
gram	1205
ang	1206
##lag	1207
test	1208
gyű	1209
tő	1210
ült	1211
anyag	1212
űköd	1213
foly	1214
avaz	1215
ési	1216
ahol	1217
polg	1218
polgá	1219
emély	1220
pl	1221
um	1222
armad	1223
számí	1224
ősz	1225
ezért	1226
don	1227
bb	1228
nevez	1229
gyen	1230
annak	1231
dél	1232
##né	1233
súlyo	1234
ánd	1235
ex	1236
képv	1237
ottak	1238
hír	1239
##fő	1240
telje	1241
fok	1242
néz	1243
##ható	1244
##ei	1245
bank	1246
gyak	1247
pé	1248
##pá	1249
hagy	1250
kár	1251
eit	1252
ennek	1253
szo	1254
##rás	1255
hónap	1256
részt	1257
mno	1258
##dés	1259
du	1260
szolg	1261
táj	1262
könyv	1263
bü	1264
saját	1265
salád	1266
ülés	1267
bíró	1268
telen	1269
ket	1270
füg	1271
haz	1272
uni	1273
iká	1274
ást	1275
##zel	1276
csü	1277
##and	1278
min	1279
őség	1280
ális	1281
iá	1282
##só	1283
irány	1284
tem	1285
har	1286
##ma	1287
őrség	1288
zen	1289
##lá	1290
rég	1291
arról	1292
ég	1293
ésé	1294
ber	1295
tős	1296
növe	1297
sér	1298
ant	1299
ekk	1300
jelöl	1301
megf	1302
sü	1303
kedés	1304
fi	1305
maga	1306
magas	1307
taval	1308
##any	1309
tartó	1310
iszen	1311
ac	1312
sel	1313
sajtó	1314
##há	1315
atáro	1316
olg	1317
tul	1318
gól	1319
képes	1320
jan	1321
viz	1322
kutat	1323
sony	1324
készí	1325
kívül	1326
rtök	1327
ss	1328
amit	1329
ával	1330
állít	1331
ris	1332
neh	1333
rm	1334
nyol	1335
ros	1336
abály	1337
lo	1338
zik	1339
ekkel	1340
tárgy	1341
adott	1342
alkal	1343
áj	1344
próbá	1345
tulaj	1346
lek	1347
ést	1348
ud	1349
hát	1350
endő	1351
másik	1352
emzet	1353
éhány	1354
ámára	1355
tség	1356
jól	1357
oztat	1358
tűn	1359
jú	1360
kedv	1361
akad	1362
##ors	1363
vett	1364
kedd	1365
au	1366
jé	1367
mú	1368
ná	1369
épí	1370
piac	1371
##kod	1372
na	1373
lékos	1374
inkáb	1375
##vá	1376
járás	1377
ök	1378
felé	1379
órá	1380
##ho	1381
esz	1382
nemze	1383
tájék	1384
ttság	1385
inter	1386
hivat	1387
vé	1388
nyilv	1389
szöve	1390
egyé	1391
za	1392
teni	1393
lhet	1394
épp	1395
eség	1396
thet	1397
alaku	1398
csütö	1399
hall	1400
izsg	1401
raj	1402
fordu	1403
című	1404
ait	1405
lm	1406
vis	1407
hit	1408
közül	1409
##hoz	1410
ezés	1411
késő	1412
izsgá	1413
iatal	1414
múlt	1415
akár	1416
része	1417
tiz	1418
br	1419
talan	1420
abad	1421
évek	1422
dollá	1423
számo	1424
okoz	1425
##itá	1426
tközi	1427
tanul	1428
eren	1429
tölt	1430
to	1431
örö	1432
lenne	1433
elj	1434
ru	1435
támad	1436
érkez	1437
lab	1438
elég	1439
bű	1440
ya	1441
köt	1442
ány	1443
gj	1444
gyors	1445
ztat	1446
ós	1447
bűn	1448
érz	1449
rom	1450
gjobb	1451
hatás	1452
közö	1453
moz	1454
állap	1455
tó	1456
tíz	1457
pályá	1458
##ha	1459
niszt	1460
álló	1461
ítél	1462
éd	1463
sérü	1464
mo	1465
gyobb	1466
szüle	1467
ty	1468
almaz	1469
ítás	1470
enged	1471
ou	1472
oló	1473
dec	1474
##mű	1475
januá	1476
kü	1477
szál	1478
mely	1479
oro	1480
azz	1481
nyú	1482
so	1483
emlék	1484
kí	1485
legna	1486
körül	1487
mez	1488
tv	1489
ic	1490
okkal	1491
belül	1492
gyár	1493
ásá	1494
##csi	1495
##anc	1496
atott	1497
ág	1498
atok	1499
állás	1500
zp	1501
nság	1502
mec	1503
leges	1504
tétel	1505
mai	1506
tesz	1507
ponto	1508
lalko	1509
gyere	1510
gyako	1511
ev	1512
esti	1513
során	1514
msz	1515
##ami	1516
eni	1517
ft	1518
ati	1519
bet	1520
iszt	1521
egyei	1522
jai	1523
##koz	1524
rossz	1525
árnap	1526
idej	1527
semmi	1528
hiány	1529
erd	1530
ista	1531
erenc	1532
zpont	1533
azzal	1534
red	1535
vetés	1536
ette	1537
részé	1538
rd	1539
alk	1540
nyolc	1541
emben	1542
rny	1543
pénzt	1544
indig	1545
író	1546
nyel	1547
ala	1548
tit	1549
bra	1550
ete	1551
egyéb	1552
bef	1553
beteg	1554
skol	1555
kom	1556
közép	1557
ződés	1558
ezzel	1559
megsz	1560
telep	1561
mot	1562
pr	1563
ard	1564
oltak	1565
kön	1566
gyan	1567
tolsó	1568
zl	1569
leked	1570
sztés	1571
száll	1572
kot	1573
tb	1574
zni	1575
orosz	1576
akció	1577
sebb	1578
későb	1579
éri	1580
ános	1581
éve	1582
lta	1583
szok	1584
ászló	1585
tarto	1586
föld	1587
érte	1588
ró	1589
orb	1590
utób	1591
atkoz	1592
visel	1593
bá	1594
mivel	1595
hí	1596
kod	1597
parla	1598
meccs	1599
##ele	1600
fen	1601
ossz	1602
aján	1603
vonat	1604
lépés	1605
maz	1606
mányz	1607
lévő	1608
eljes	1609
eszt	1610
##ti	1611
eh	1612
vizsg	1613
fejle	1614
til	1615
nyit	1616
idén	1617
kező	1618
iro	1619
ezett	1620
rható	1621
ák	1622
csat	1623
ajánl	1624
op	1625
végén	1626
újra	1627
színű	1628
sta	1629
bil	1630
enki	1631
keze	1632
##já	1633
un	1634
könny	1635
úja	1636
tetté	1637
újabb	1638
magán	1639
pénte	1640
mszp	1641
fejez	1642
##me	1643
rende	1644
10	1645
végz	1646
##let	1647
eti	1648
hazai	1649
gal	1650
élemé	1651
határ	1652
gyerm	1653
port	1654
gyanú	1655
rú	1656
kség	1657
rak	1658
##alm	1659
hitel	1660
elelő	1661
enek	1662
bor	1663
rel	1664
úsz	1665
##ális	1666
últ	1667
segít	1668
elkez	1669
méd	1670
orvos	1671
der	1672
utas	1673
veszt	1674
oda	1675
gyó	1676
helyi	1677
jának	1678
ein	1679
tekin	1680
hú	1681
mit	1682
pal	1683
ult	1684
bö	1685
kotmá	1686
orbán	1687
iai	1688
egyes	1689
almas	1690
ebben	1691
tanác	1692
vány	1693
abban	1694
hajt	1695
gen	1696
##ről	1697
tor	1698
bele	1699
infor	1700
vonal	1701
tűz	1702
gel	1703
segí	1704
kín	1705
ich	1706
íz	1707
csap	1708
tét	1709
olgál	1710
uszt	1711
eseté	1712
fut	1713
##te	1714
omb	1715
zta	1716
etem	1717
napi	1718
ká	1719
lja	1720
tani	1721
gos	1722
nov	1723
tú	1724
étfő	1725
őket	1726
oci	1727
önk	1728
idei	1729
dar	1730
orrás	1731
ábor	1732
jük	1733
óvi	1734
önkor	1735
erv	1736
alakí	1737
péter	1738
lytat	1739
ából	1740
vér	1741
szél	1742
ato	1743
##ván	1744
évben	1745
ka	1746
mal	1747
ését	1748
érint	1749
alább	1750
##ub	1751
rmest	1752
nyújt	1753
utc	1754
##ex	1755
dr	1756
osság	1757
hol	1758
válog	1759
fenn	1760
óvivő	1761
éb	1762
##im	1763
kil	1764
##tos	1765
##ka	1766
elej	1767
elet	1768
##ábor	1769
pil	1770
iztos	1771
lég	1772
motor	1773
gáz	1774
arc	1775
éli	1776
írás	1777
epel	1778
lány	1779
éppen	1780
áltat	1781
tot	1782
ős	1783
nik	1784
##gye	1785
okban	1786
erdán	1787
yaszt	1788
ain	1789
bír	1790
átlag	1791
intén	1792
mel	1793
##ják	1794
séges	1795
étfőn	1796
kór	1797
ersze	1798
kiv	1799
szom	1800
hető	1801
máció	1802
ester	1803
ekt	1804
af	1805
erre	1806
lov	1807
zék	1808
magá	1809
jegyz	1810
annyi	1811
telez	1812
ismét	1813
##gel	1814
álság	1815
üzem	1816
15	1817
bő	1818
zz	1819
terje	1820
zlemé	1821
tap	1822
etet	1823
sonló	1824
gyűjt	1825
ika	1826
magát	1827
óra	1828
sa	1829
stván	1830
éj	1831
halál	1832
ipar	1833
szint	1834
gyu	1835
itás	1836
etés	1837
fu	1838
nőtt	1839
zi	1840
írja	1841
kció	1842
aslat	1843
kíván	1844
neki	1845
jában	1846
cso	1847
lőd	1848
##ént	1849
ervez	1850
azon	1851
##gi	1852
ebr	1853
keves	1854
str	1855
las	1856
iut	1857
alami	1858
emény	1859
lag	1860
ogyan	1861
áció	1862
##ine	1863
po	1864
totta	1865
szóló	1866
áról	1867
atív	1868
iután	1869
kság	1870
őrök	1871
barát	1872
igen	1873
no	1874
kény	1875
atot	1876
szív	1877
bíz	1878
##sor	1879
jo	1880
szor	1881
éről	1882
elős	1883
##zs	1884
este	1885
árm	1886
régi	1887
álasz	1888
ozat	1889
formá	1890
ebruá	1891
km	1892
ese	1893
ezte	1894
tető	1895
man	1896
tele	1897
20	1898
etné	1899
land	1900
műsor	1901
nete	1902
ene	1903
ttal	1904
##adt	1905
lkod	1906
ény	1907
ata	1908
##vid	1909
kkal	1910
ogl	1911
kelet	1912
ől	1913
adság	1914
rög	1915
őször	1916
tehet	1917
assz	1918
##chn	1919
üzlet	1920
ib	1921
zben	1922
vid	1923
ost	1924
pi	1925
vatal	1926
rnyez	1927
jelz	1928
pá	1929
##öv	1930
lik	1931
ün	1932
csú	1933
igény	1934
kocsi	1935
zol	1936
ong	1937
bev	1938
tunk	1939
függe	1940
part	1941
aszt	1942
lg	1943
##nep	1944
##sér	1945
ener	1946
franc	1947
szí	1948
földi	1949
elv	1950
évvel	1951
kett	1952
rlat	1953
szerz	1954
bér	1955
rtökö	1956
##émá	1957
jött	1958
megh	1959
érium	1960
irat	1961
vél	1962
legf	1963
ordul	1964
gu	1965
kísér	1966
moly	1967
mti	1968
rek	1969
ggel	1970
kan	1971
íg	1972
gyárt	1973
szk	1974
felh	1975
kek	1976
halad	1977
blémá	1978
anak	1979
##elm	1980
csu	1981
ítés	1982
osszú	1983
12	1984
ria	1985
izm	1986
oglal	1987
tudom	1988
őrz	1989
ünnep	1990
pó	1991
miért	1992
enni	1993
vall	1994
épül	1995
egyre	1996
arány	1997
##tor	1998
techn	1999
tilt	2000
gábor	2001
keret	2002
erősí	2003
sért	2004
ín	2005
kiad	2006
ason	2007
hallg	2008
mö	2009
élő	2010
jon	2011
áld	2012
ottho	2013
töm	2014
##ssz	2015
esség	2016
küld	2017
epl	2018
##ház	2019
ásra	2020
yör	2021
értő	2022
eken	2023
ekre	2024
listá	2025
labda	2026
sség	2027
ark	2028
unió	2029
nehéz	2030
gyes	2031
képp	2032
da	2033
rövid	2034
hossz	2035
tetés	2036
alkot	2037
ették	2038
ltek	2039
ándor	2040
minő	2041
kilo	2042
fek	2043
kőz	2044
##ke	2045
##ába	2046
nyomo	2047
eplő	2048
omány	2049
végre	2050
ton	2051
env	2052
ását	2053
nal	2054
##pa	2055
ern	2056
terem	2057
elmet	2058
rúg	2059
elyen	2060
apitá	2061
lf	2062
dob	2063
##tób	2064
izony	2065
létre	2066
terme	2067
szete	2068
ff	2069
állt	2070
mozg	2071
óri	2072
ion	2073
kevés	2074
kórhá	2075
lnek	2076
egyez	2077
mer	2078
all	2079
média	2080
fed	2081
esély	2082
nf	2083
ezen	2084
kori	2085
aho	2086
lják	2087
tóság	2088
érdem	2089
gyógy	2090
ce	2091
módo	2092
ztal	2093
utaz	2094
pan	2095
ank	2096
jön	2097
egyen	2098
teszi	2099
lu	2100
özben	2101
tudja	2102
mente	2103
kéz	2104
gyeng	2105
enved	2106
olcs	2107
túr	2108
asonl	2109
rit	2110
óg	2111
ea	2112
ajo	2113
keny	2114
ner	2115
esett	2116
aradt	2117
húz	2118
akasz	2119
energ	2120
színe	2121
osan	2122
new	2123
##mu	2124
konce	2125
hibá	2126
brit	2127
őv	2128
sch	2129
etek	2130
##rt	2131
ehér	2132
yörgy	2133
ril	2134
teh	2135
endég	2136
óz	2137
rab	2138
sá	2139
legi	2140
végül	2141
eny	2142
rül	2143
tehát	2144
áp	2145
ásár	2146
usz	2147
vezér	2148
nyelv	2149
obbik	2150
pu	2151
ület	2152
tizen	2153
takar	2154
ázs	2155
nl	2156
irod	2157
előző	2158
sítmé	2159
ay	2160
többi	2161
nyság	2162
függ	2163
fele	2164
fegy	2165
mat	2166
ocial	2167
cik	2168
alu	2169
cius	2170
ciós	2171
klub	2172
elér	2173
zel	2174
úr	2175
ándék	2176
jármű	2177
mok	2178
buk	2179
féle	2180
ele	2181
tí	2182
ólag	2183
koc	2184
kőzés	2185
lovák	2186
ggy	2187
ígér	2188
fény	2189
jános	2190
cikk	2191
szép	2192
hete	2193
beli	2194
elme	2195
ehet	2196
darab	2197
art	2198
apot	2199
tvány	2200
donos	2201
lső	2202
mp	2203
ösen	2204
ssz	2205
októb	2206
benne	2207
ügyel	2208
ejt	2209
tapas	2210
szu	2211
eleg	2212
alos	2213
##csá	2214
utal	2215
ombat	2216
bünte	2217
izmus	2218
ásárl	2219
pa	2220
tuk	2221
omo	2222
get	2223
írta	2224
encs	2225
nként	2226
tamás	2227
##űl	2228
szü	2229
védő	2230
tatás	2231
ld	2232
tkez	2233
vevő	2234
őriz	2235
fa	2236
tést	2237
##ilk	2238
##var	2239
név	2240
vele	2241
lakás	2242
ová	2243
trány	2244
gi	2245
nök	2246
kul	2247
éko	2248
tük	2249
agyis	2250
ven	2251
odell	2252
őváro	2253
por	2254
wi	2255
oktat	2256
ggyűl	2257
évi	2258
oha	2259
erá	2260
ékony	2261
iség	2262
bőv	2263
tos	2264
zeti	2265
rilis	2266
óriá	2267
csele	2268
harc	2269
mégis	2270
tésé	2271
##zd	2272
nyert	2273
indí	2274
kocká	2275
ck	2276
oo	2277
emp	2278
adásu	2279
llam	2280
rs	2281
alás	2282
##ött	2283
spany	2284
##kol	2285
ésre	2286
éz	2287
ító	2288
zte	2289
ahogy	2290
újság	2291
küzd	2292
ötte	2293
kampá	2294
co	2295
ög	2296
elh	2297
elyez	2298
tőz	2299
ntr	2300
kettő	2301
lin	2302
sze	2303
olta	2304
gyilk	2305
csá	2306
ányos	2307
usztr	2308
kapu	2309
tja	2310
cser	2311
egle	2312
aná	2313
maguk	2314
alac	2315
csi	2316
ügymi	2317
ször	2318
nline	2319
rem	2320
som	2321
zá	2322
ályáz	2323
bk	2324
nyít	2325
erel	2326
alapí	2327
ug	2328
orban	2329
andó	2330
ására	2331
inc	2332
ába	2333
ird	2334
zrt	2335
avi	2336
oldás	2337
bocsá	2338
áldoz	2339
aton	2340
elyik	2341
lass	2342
atos	2343
pálya	2344
közös	2345
fin	2346
nsági	2347
eknek	2348
busz	2349
íció	2350
##co	2351
járó	2352
elé	2353
##iná	2354
znak	2355
gyesü	2356
ideg	2357
pül	2358
rg	2359
##ekt	2360
ler	2361
log	2362
sza	2363
eglep	2364
ánt	2365
alaki	2366
érvé	2367
##énye	2368
titká	2369
zoltá	2370
reg	2371
16	2372
esen	2373
távo	2374
közve	2375
valós	2376
30	2377
ih	2378
alig	2379
iktor	2380
lenc	2381
tin	2382
széd	2383
olim	2384
tevé	2385
mik	2386
karác	2387
irdet	2388
ist	2389
senki	2390
olimp	2391
szi	2392
végé	2393
zak	2394
iv	2395
csupá	2396
mög	2397
olasz	2398
fot	2399
össég	2400
üket	2401
folyt	2402
bkv	2403
gyűl	2404
rag	2405
vette	2406
11	2407
25	2408
ngyel	2409
vág	2410
##hon	2411
orvát	2412
gtö	2413
lem	2414
idéz	2415
előz	2416
gtöbb	2417
ue	2418
katon	2419
héten	2420
zer	2421
léka	2422
ív	2423
üt	2424
lkal	2425
lkalm	2426
zin	2427
talán	2428
ölcs	2429
fordí	2430
ád	2431
dió	2432
atója	2433
azott	2434
ort	2435
ológi	2436
écs	2437
éből	2438
zis	2439
tthon	2440
lef	2441
sőt	2442
fotó	2443
remé	2444
18	2445
erg	2446
működ	2447
hétfő	2448
tév	2449
##all	2450
kinek	2451
ainak	2452
árt	2453
hull	2454
áború	2455
indok	2456
vád	2457
gazdá	2458
okon	2459
ansz	2460
öbb	2461
embe	2462
ámos	2463
ktor	2464
elejé	2465
-,	2466
hő	2467
##szö	2468
ések	2469
járul	2470
terhe	2471
osz	2472
onn	2473
yő	2474
kkent	2475
anat	2476
ral	2477
neve	2478
emlí	2479
zent	2480
skolá	2481
eztet	2482
járat	2483
menet	2484
somag	2485
úz	2486
esemé	2487
léte	2488
ekkor	2489
élyes	2490
hál	2491
cse	2492
tése	2493
csal	2494
arg	2495
vita	2496
kkel	2497
mol	2498
nok	2499
##df	2500
atai	2501
vagyo	2502
ecs	2503
ens	2504
ndrás	2505
ogalm	2506
böző	2507
tra	2508
ari	2509
adék	2510
nehez	2511
kif	2512
zetes	2513
dt	2514
dok	2515
lott	2516
ml	2517
##ók	2518
zú	2519
plom	2520
del	2521
lán	2522
táb	2523
tény	2524
ju	2525
urg	2526
köszö	2527
aztán	2528
13	2529
bé	2530
elsős	2531
ack	2532
tball	2533
felül	2534
sítás	2535
dalom	2536
dá	2537
ármaz	2538
tömeg	2539
elf	2540
mező	2541
csiná	2542
nye	2543
ója	2544
ezon	2545
agyok	2546
ajó	2547
éhez	2548
fegyv	2549
ályo	2550
tes	2551
lev	2552
nter	2553
mély	2554
ezre	2555
ktív	2556
hhoz	2557
ers	2558
ozi	2559
uniós	2560
ej	2561
háló	2562
lták	2563
vény	2564
őt	2565
nyz	2566
érség	2567
kik	2568
szen	2569
indít	2570
tve	2571
enc	2572
távol	2573
ásáro	2574
enti	2575
14	2576
szel	2577
tenni	2578
angol	2579
kemé	2580
mon	2581
női	2582
romá	2583
##sef	2584
házi	2585
tized	2586
ics	2587
löv	2588
edző	2589
einek	2590
odás	2591
öld	2592
telm	2593
ept	2594
uró	2595
csúcs	2596
mdf	2597
kiz	2598
izál	2599
fokoz	2600
kid	2601
végez	2602
rium	2603
örös	2604
olaj	2605
pp	2606
lásá	2607
amar	2608
hh	2609
##sa	2610
ségé	2611
izá	2612
encsé	2613
esí	2614
árf	2615
tur	2616
zavar	2617
gö	2618
ztül	2619
befek	2620
urópa	2621
utat	2622
látás	2623
azaz	2624
kizár	2625
zötti	2626
kban	2627
örök	2628
hány	2629
ekben	2630
onl	2631
ménye	2632
ődött	2633
kínai	2634
ózsef	2635
tom	2636
szony	2637
nyben	2638
ettek	2639
onlap	2640
rű	2641
th	2642
megv	2643
olato	2644
17	2645
eged	2646
módon	2647
ához	2648
arl	2649
pülő	2650
lénye	2651
ser	2652
index	2653
knek	2654
skola	2655
szék	2656
elkö	2657
addig	2658
attil	2659
dokum	2660
adi	2661
látsz	2662
döntő	2663
zók	2664
folyó	2665
ikló	2666
sztő	2667
atta	2668
vonul	2669
cégek	2670
múl	2671
nan	2672
írt	2673
alma	2674
fedez	2675
dzs	2676
nyí	2677
kmény	2678
ivel	2679
hhez	2680
okra	2681
rz	2682
telmű	2683
apír	2684
ógus	2685
uális	2686
##jc	2687
reng	2688
ázás	2689
őle	2690
etét	2691
riss	2692
nekü	2693
yug	2694
mellé	2695
kozó	2696
kben	2697
adta	2698
eté	2699
ínész	2700
jét	2701
áig	2702
orít	2703
nie	2704
közé	2705
lakó	2706
tősen	2707
tön	2708
látog	2709
ura	2710
zkod	2711
entu	2712
ezni	2713
ondja	2714
nhet	2715
pontj	2716
ukat	2717
éké	2718
előny	2719
vájc	2720
esebb	2721
knak	2722
közep	2723
tyá	2724
cseré	2725
ow	2726
oknak	2727
cel	2728
idék	2729
átu	2730
ileg	2731
lhat	2732
fiú	2733
kri	2734
rülmé	2735
íroz	2736
költ	2737
incs	2738
hon	2739
vetel	2740
ph	2741
vége	2742
##uh	2743
láb	2744
sznek	2745
ront	2746
sága	2747
zsi	2748
eal	2749
gok	2750
ói	2751
esül	2752
lly	2753
cen	2754
sége	2755
gra	2756
szig	2757
ettes	2758
ódott	2759
ekről	2760
onnal	2761
mentő	2762
derül	2763
lan	2764
lcs	2765
##ból	2766
árak	2767
ajn	2768
mérés	2769
tagja	2770
kas	2771
mm	2772
sak	2773
egyér	2774
heti	2775
menti	2776
tar	2777
zett	2778
##bo	2779
szór	2780
űr	2781
form	2782
jogi	2783
essz	2784
ec	2785
endőr	2786
piaci	2787
gar	2788
sh	2789
rid	2790
zene	2791
pus	2792
nevű	2793
pót	2794
felsz	2795
ntet	2796
dik	2797
sztu	2798
ntető	2799
kata	2800
édelm	2801
haza	2802
had	2803
tte	2804
that	2805
zso	2806
tartá	2807
őleg	2808
rik	2809
pad	2810
nyár	2811
gyház	2812
ksz	2813
mért	2814
rák	2815
inten	2816
tudta	2817
alapo	2818
lig	2819
beruh	2820
level	2821
jen	2822
vide	2823
kisz	2824
he	2825
##sel	2826
idejé	2827
válto	2828
zza	2829
sar	2830
csit	2831
ezték	2832
ektr	2833
50	2834
ivat	2835
ork	2836
sebe	2837
onal	2838
titk	2839
szomb	2840
tán	2841
elett	2842
igá	2843
iget	2844
képze	2845
sd	2846
tm	2847
sokat	2848
lia	2849
zaj	2850
nu	2851
lnak	2852
emző	2853
nyos	2854
lk	2855
the	2856
éni	2857
ztak	2858
láto	2859
aság	2860
jele	2861
ann	2862
célj	2863
akt	2864
róf	2865
kol	2866
ulat	2867
##ck	2868
eső	2869
hatja	2870
eszkö	2871
ssze	2872
##vény	2873
megy	2874
örtö	2875
olás	2876
etes	2877
ságok	2878
nyal	2879
##ca	2880
arany	2881
jöv	2882
##nö	2883
fők	2884
öm	2885
felső	2886
tikus	2887
rang	2888
etett	2889
etben	2890
bert	2891
nni	2892
##jai	2893
almi	2894
lte	2895
úto	2896
öv	2897
agjai	2898
enye	2899
ako	2900
erősö	2901
adni	2902
előb	2903
ozás	2904
kék	2905
ltak	2906
léká	2907
zati	2908
lyás	2909
rej	2910
##öld	2911
lám	2912
lföld	2913
járt	2914
nch	2915
rális	2916
sil	2917
ázad	2918
kider	2919
zu	2920
##ato	2921
esés	2922
híre	2923
rog	2924
írek	2925
bre	2926
eget	2927
rban	2928
gazd	2929
portá	2930
jekt	2931
rém	2932
ogy	2933
rály	2934
éssel	2935
soro	2936
akit	2937
ügyé	2938
tlenü	2939
ns	2940
pill	2941
oka	2942
su	2943
zra	2944
vízi	2945
ltu	2946
asszo	2947
kré	2948
bol	2949
olni	2950
ellem	2951
zés	2952
19	2953
szoci	2954
jelle	2955
szség	2956
kra	2957
akat	2958
lel	2959
sé	2960
una	2961
##ber	2962
légi	2963
ash	2964
ellát	2965
cz	2966
erről	2967
spe	2968
dem	2969
ajnok	2970
entá	2971
gban	2972
kih	2973
kora	2974
enes	2975
agg	2976
up	2977
orma	2978
silla	2979
vitá	2980
yi	2981
ágy	2982
ól	2983
sö	2984
ekez	2985
dalmi	2986
tünte	2987
ry	2988
ert	2989
agyon	2990
lako	2991
ségű	2992
mél	2993
halt	2994
ámol	2995
ényle	2996
véle	2997
ge	2998
edés	2999
ajd	3000
seh	3001
zért	3002
elnö	3003
ölt	3004
elk	3005
rep	3006
emelt	3007
gár	3008
isza	3009
tása	3010
ii	3011
osí	3012
éles	3013
ncs	3014
szé	3015
zásá	3016
jával	3017
gá	3018
##esí	3019
ljesí	3020
ővé	3021
amb	3022
ium	3023
pe	3024
irán	3025
drá	3026
kezel	3027
isták	3028
lland	3029
imp	3030
obban	3031
éző	3032
gyö	3033
igye	3034
rná	3035
észak	3036
##sé	3037
utcá	3038
mokra	3039
100	3040
jég	3041
ügynö	3042
lla	3043
niká	3044
##ic	3045
ajtó	3046
lóg	3047
her	3048
fia	3049
ie	3050
zvény	3051
##omá	3052
ozott	3053
hisz	3054
40	3055
só	3056
##ében	3057
llé	3058
tünk	3059
olja	3060
nők	3061
dő	3062
ogat	3063
tít	3064
zre	3065
áju	3066
24	3067
ob	3068
sban	3069
vill	3070
##ült	3071
bárm	3072
roszo	3073
ail	3074
bség	3075
atko	3076
cc	3077
rat	3078
lték	3079
ió	3080
tték	3081
tiv	3082
ham	3083
eleme	3084
gény	3085
ón	3086
ór	3087
óv	3088
uto	3089
vári	3090
tásá	3091
jegye	3092
ao	3093
lus	3094
áros	3095
yom	3096
ím	3097
of	3098
izo	3099
lődés	3100
sere	3101
tus	3102
figy	3103
rdő	3104
ax	3105
nny	3106
zva	3107
ségét	3108
ente	3109
befo	3110
lad	3111
omá	3112
leszt	3113
ődik	3114
if	3115
erce	3116
akoz	3117
thető	3118
lop	3119
21	3120
zöl	3121
rie	3122
pat	3123
kos	3124
22	3125
űz	3126
tenge	3127
yugat	3128
ace	3129
err	3130
ötö	3131
kkor	3132
ogás	3133
ndex	3134
állat	3135
elköv	3136
ünt	3137
eke	3138
eret	3139
helye	3140
ttól	3141
szülő	3142
io	3143
zöve	3144
képz	3145
nder	3146
lom	3147
agyom	3148
őszer	3149
ruhá	3150
szét	3151
ené	3152
ezi	3153
olo	3154
becs	3155
kere	3156
nség	3157
var	3158
teszt	3159
anya	3160
ky	3161
vek	3162
étől	3163
dolo	3164
ezhet	3165
tenek	3166
fogy	3167
szava	3168
üntet	3169
nyek	3170
zzel	3171
épít	3172
zé	3173
szp	3174
ekint	3175
mod	3176
nó	3177
ona	3178
ajna	3179
ger	3180
elől	3181
pel	3182
itel	3183
nger	3184
szob	3185
fal	3186
tlan	3187
esk	3188
res	3189
sztal	3190
xi	3191
felv	3192
szaki	3193
kelt	3194
empon	3195
inn	3196
oma	3197
agad	3198
hetne	3199
rác	3200
tru	3201
ébe	3202
ésér	3203
ésére	3204
felel	3205
ettel	3206
adós	3207
ódik	3208
jék	3209
ass	3210
tatók	3211
poz	3212
wa	3213
mene	3214
nná	3215
sár	3216
vb	3217
üze	3218
érj	3219
kommu	3220
##dp	3221
egény	3222
ndon	3223
éken	3224
elte	3225
lmp	3226
őrzés	3227
fá	3228
jáb	3229
szeti	3230
jából	3231
ey	3232
mil	3233
has	3234
ate	3235
elemz	3236
nyomá	3237
egye	3238
eznek	3239
zták	3240
aló	3241
ama	3242
ons	3243
kapta	3244
orú	3245
ügye	3246
imo	3247
go	3248
elvet	3249
ásban	3250
buda	3251
até	3252
óan	3253
enné	3254
okból	3255
űv	3256
ttó	3257
anú	3258
org	3259
ót	3260
istá	3261
egő	3262
rob	3263
témá	3264
mé	3265
oros	3266
rist	3267
dv	3268
andr	3269
kem	3270
zal	3271
szl	3272
eteg	3273
ásos	3274
tök	3275
lib	3276
yen	3277
ítja	3278
össz	3279
psz	3280
ranci	3281
árul	3282
korr	3283
ulás	3284
napon	3285
téve	3286
mérté	3287
jk	3288
kő	3289
sten	3290
harm	3291
ef	3292
rkol	3293
arán	3294
ino	3295
edett	3296
műve	3297
zió	3298
.,	3299
ror	3300
tív	3301
igo	3302
lehe	3303
séget	3304
tanak	3305
##li	3306
olód	3307
nia	3308
osa	3309
ítő	3310
##dsz	3311
enő	3312
ént	3313
szon	3314
egá	3315
róla	3316
ötv	3317
esek	3318
izs	3319
yar	3320
alék	3321
őke	3322
lőtt	3323
gat	3324
mó	3325
niu	3326
mad	3327
élt	3328
ilag	3329
szaka	3330
##bl	3331
komm	3332
tél	3333
atja	3334
illa	3335
rakoz	3336
nor	3337
gyal	3338
ályok	3339
ach	3340
ancs	3341
bben	3342
vic	3343
aba	3344
éntek	3345
27	3346
des	3347
tni	3348
vén	3349
szal	3350
nna	3351
tják	3352
zam	3353
ere	3354
anu	3355
inak	3356
faj	3357
amp	3358
lefon	3359
yőr	3360
##ac	3361
leb	3362
lemző	3363
anc	3364
itány	3365
park	3366
ssé	3367
etbe	3368
nék	3369
sm	3370
lista	3371
zg	3372
orna	3373
##st	3374
napo	3375
vető	3376
éde	3377
anács	3378
23	3379
iába	3380
sc	3381
itte	3382
##szn	3383
haszn	3384
ibo	3385
osok	3386
uló	3387
dó	3388
elen	3389
elmé	3390
adá	3391
ári	3392
gó	3393
ks	3394
telef	3395
árv	3396
rád	3397
mezt	3398
jj	3399
tró	3400
nyh	3401
ozta	3402
eur	3403
enz	3404
epet	3405
ósság	3406
din	3407
elvé	3408
atni	3409
almat	3410
pir	3411
reme	3412
kd	3413
rad	3414
rre	3415
épü	3416
megye	3417
dor	3418
eri	3419
erék	3420
orn	3421
elkép	3422
ier	3423
liá	3424
szün	3425
tok	3426
labd	3427
ntik	3428
agál	3429
ael	3430
gdp	3431
etén	3432
vin	3433
ztrá	3434
javas	3435
jt	3436
vás	3437
elsz	3438
bir	3439
200	3440
ian	3441
ub	3442
##if	3443
gh	3444
sad	3445
vő	3446
kezet	3447
nnyit	3448
ács	3449
ésben	3450
körny	3451
észet	3452
ösz	3453
vala	3454
zéke	3455
tva	3456
zil	3457
omás	3458
lód	3459
dés	3460
sul	3461
mis	3462
ada	3463
étel	3464
##kőz	3465
űt	3466
oll	3467
érkőz	3468
oss	3469
ille	3470
kn	3471
rr	3472
veg	3473
erep	3474
ségi	3475
zí	3476
zm	3477
iskol	3478
áss	3479
##kó	3480
ságra	3481
nné	3482
zök	3483
ajta	3484
űk	3485
azá	3486
eli	3487
onos	3488
apa	3489
taná	3490
ékes	3491
rében	3492
atá	3493
amik	3494
eszi	3495
ges	3496
ron	3497
ráz	3498
rbe	3499
mc	3500
hn	3501
elfog	3502
udomá	3503
lda	3504
app	3505
áson	3506
gan	3507
obá	3508
cu	3509
ofi	3510
tsz	3511
orm	3512
tikai	3513
nyok	3514
dai	3515
lam	3516
rp	3517
elés	3518
utató	3519
tava	3520
probl	3521
égy	3522
##ur	3523
arr	3524
one	3525
demok	3526
űvész	3527
ess	3528
piaco	3529
éma	3530
ara	3531
áru	3532
újt	3533
iában	3534
bold	3535
hátr	3536
ékeny	3537
zük	3538
edz	3539
35	3540
rán	3541
sák	3542
áv	3543
ast	3544
ető	3545
##mun	3546
sáv	3547
inti	3548
mre	3549
teme	3550
ugá	3551
lor	3552
kb	3553
eten	3554
lése	3555
lógia	3556
yében	3557
napja	3558
őbb	3559
redmé	3560
ással	3561
adja	3562
éget	3563
gész	3564
enny	3565
árom	3566
ától	3567
tból	3568
60	3569
ozni	3570
kozás	3571
ius	3572
tse	3573
ale	3574
ekes	3575
ású	3576
táro	3577
avas	3578
alato	3579
szert	3580
kivál	3581
láz	3582
med	3583
pál	3584
##hér	3585
##ani	3586
##sék	3587
llye	3588
eve	3589
rra	3590
érhet	3591
érsék	3592
mérsé	3593
zárt	3594
sej	3595
kov	3596
fehér	3597
sztel	3598
gű	3599
gl	3600
kf	3601
tál	3602
tána	3603
eik	3604
ndi	3605
bú	3606
kál	3607
áf	3608
##np	3609
szdsz	3610
jap	3611
tését	3612
gál	3613
ht	3614
utóbb	3615
usa	3616
tad	3617
attal	3618
dul	3619
alko	3620
gyü	3621
kezé	3622
lko	3623
lhető	3624
nz	3625
nci	3626
##ron	3627
idős	3628
ttek	3629
hango	3630
merik	3631
japán	3632
pany	3633
uli	3634
unkat	3635
atár	3636
oru	3637
zté	3638
nket	3639
hús	3640
lit	3641
nel	3642
szön	3643
szerb	3644
élete	3645
26	3646
mb	3647
qu	3648
tro	3649
ihe	3650
övé	3651
hir	3652
ága	3653
fc	3654
krá	3655
érni	3656
ime	3657
nb	3658
tért	3659
##ga	3660
árol	3661
rod	3662
ókat	3663
illi	3664
ull	3665
elle	3666
apá	3667
lójá	3668
rn	3669
médi	3670
szköz	3671
ana	3672
letes	3673
zzák	3674
eres	3675
jogo	3676
##ff	3677
téri	3678
pest	3679
aks	3680
inek	3681
our	3682
aval	3683
landó	3684
kro	3685
uko	3686
emes	3687
lege	3688
ványo	3689
28	3690
zba	3691
süt	3692
dán	3693
yel	3694
almá	3695
okról	3696
közt	3697
prof	3698
kifej	3699
kdnp	3700
font	3701
lható	3702
eksz	3703
kedő	3704
jára	3705
imm	3706
árosi	3707
gle	3708
pk	3709
zák	3710
kulá	3711
rü	3712
ero	3713
élv	3714
ságá	3715
ságát	3716
otó	3717
lyen	3718
zása	3719
rca	3720
ndr	3721
örög	3722
ezik	3723
táma	3724
kárt	3725
sof	3726
ves	3727
ített	3728
iba	3729
##de	3730
niá	3731
végi	3732
rok	3733
umi	3734
őz	3735
##au	3736
ska	3737
eltet	3738
fű	3739
oko	3740
záró	3741
atást	3742
.:	3743
kab	3744
óc	3745
els	3746
oki	3747
élés	3748
ilv	3749
visz	3750
blo	3751
érzé	3752
ica	3753
panyo	3754
tj	3755
teg	3756
ltö	3757
ldö	3758
grá	3759
kre	3760
tható	3761
ína	3762
sír	3763
##aki	3764
vai	3765
##bi	3766
sztrá	3767
rzet	3768
érv	3769
háza	3770
500	3771
sto	3772
eá	3773
gát	3774
ányi	3775
telt	3776
zám	3777
kert	3778
ódos	3779
ova	3780
redet	3781
ted	3782
amos	3783
tatni	3784
öltö	3785
iss	3786
nisz	3787
iná	3788
gén	3789
lsó	3790
lke	3791
mán	3792
szik	3793
esé	3794
ikk	3795
dé	3796
élé	3797
bru	3798
átv	3799
lása	3800
tében	3801
uc	3802
ze	3803
ságot	3804
riá	3805
hajl	3806
eo	3807
evő	3808
ostan	3809
kán	3810
sy	3811
ódosí	3812
alán	3813
zerv	3814
űn	3815
akart	3816
term	3817
onta	3818
ezők	3819
ivál	3820
rét	3821
negy	3822
atát	3823
ga	3824
üs	3825
llá	3826
sod	3827
áci	3828
eto	3829
ámolt	3830
mn	3831
lve	3832
ota	3833
oks	3834
benn	3835
dev	3836
üg	3837
ebe	3838
etű	3839
ina	3840
ili	3841
letet	3842
iszti	3843
néh	3844
zelés	3845
dy	3846
kg	3847
neg	3848
nyt	3849
onz	3850
45	3851
ref	3852
illan	3853
chi	3854
rény	3855
zhat	3856
zsá	3857
latá	3858
nos	3859
aranc	3860
osít	3861
ommun	3862
fesz	3863
lv	3864
rben	3865
tim	3866
egyet	3867
ste	3868
rág	3869
vat	3870
zon	3871
ósít	3872
rsen	3873
uz	3874
ém	3875
itele	3876
lók	3877
ölé	3878
derü	3879
met	3880
ezmé	3881
32	3882
rin	3883
vg	3884
óbb	3885
atják	3886
ado	3887
ltó	3888
táp	3889
etei	3890
kicsi	3891
adal	3892
oni	3893
közbe	3894
sabb	3895
mt	3896
ermé	3897
oml	3898
iza	3899
laszo	3900
esége	3901
növ	3902
##tak	3903
##úr	3904
etne	3905
semm	3906
ntek	3907
lmény	3908
atalm	3909
felj	3910
ors	3911
ktu	3912
lál	3913
enne	3914
olták	3915
dag	3916
zív	3917
ác	3918
diá	3919
ive	3920
vad	3921
felm	3922
nének	3923
##fa	3924
oli	3925
29	3926
bó	3927
bán	3928
iel	3929
und	3930
eld	3931
dött	3932
zsa	3933
kok	3934
lük	3935
suk	3936
sse	3937
szán	3938
eked	3939
gyész	3940
orra	3941
indi	3942
ánál	3943
szto	3944
ster	3945
ölgy	3946
300	3947
oto	3948
ztály	3949
odott	3950
nat	3951
gn	3952
szén	3953
erte	3954
iga	3955
ntéz	3956
aik	3957
íná	3958
óm	3959
elik	3960
csk	3961
ván	3962
jába	3963
éven	3964
közv	3965
eztek	3966
vaz	3967
lél	3968
alo	3969
ono	3970
ts	3971
tság	3972
esse	3973
esté	3974
zetet	3975
imf	3976
ügyv	3977
eves	3978
król	3979
szár	3980
elni	3981
atol	3982
oká	3983
ikor	3984
áns	3985
pre	3986
rság	3987
szol	3988
árja	3989
ságos	3990
edé	3991
ülésé	3992
avaly	3993
31	3994
##eke	3995
olgár	3996
ung	3997
íti	3998
zaki	3999
émi	4000
edd	4001
opron	4002
80	4003
esél	4004
dü	4005
mor	4006
zom	4007
bak	4008
orí	4009
közi	4010
kezik	4011
trag	4012
ito	4013
##io	4014
etér	4015
atal	4016
tört	4017
letek	4018
lim	4019
bbc	4020
ádo	4021
ztán	4022
rk	4023
urá	4024
yú	4025
erí	4026
orr	4027
ew	4028
los	4029
##cat	4030
erült	4031
korá	4032
otp	4033
vazás	4034
iát	4035
##cz	4036
ltat	4037
ődés	4038
ssen	4039
fős	4040
rus	4041
les	4042
lánc	4043
70	4044
ováb	4045
ini	4046
ésen	4047
kim	4048
ondon	4049
éke	4050
isztá	4051
acs	4052
ij	4053
sb	4054
átor	4055
nőt	4056
dék	4057
nas	4058
erben	4059
ano	4060
rip	4061
sító	4062
máv	4063
atási	4064
iroda	4065
nfl	4066
rol	4067
tter	4068
api	4069
lést	4070
urcs	4071
zala	4072
óban	4073
gyed	4074
kop	4075
művé	4076
odá	4077
lmez	4078
ali	4079
ődő	4080
llen	4081
eles	4082
örül	4083
pla	4084
kv	4085
nyve	4086
sek	4087
ólt	4088
ormá	4089
ula	4090
aul	4091
erge	4092
tvé	4093
gye	4094
keve	4095
kezés	4096
apos	4097
lít	4098
sék	4099
vj	4100
énk	4101
ój	4102
##fk	4103
atban	4104
adalm	4105
idé	4106
vers	4107
őként	4108
rikai	4109
ony	4110
eme	4111
minős	4112
36	4113
con	4114
szeg	4115
mir	4116
lete	4117
alt	4118
ekv	4119
eré	4120
ici	4121
rí	4122
ülön	4123
top	4124
állom	4125
anta	4126
rig	4127
köd	4128
avar	4129
vásár	4130
che	4131
zor	4132
era	4133
ivá	4134
óber	4135
ans	4136
oso	4137
napjá	4138
ltam	4139
önt	4140
ars	4141
gom	4142
zy	4143
kés	4144
ilo	4145
tiku	4146
íj	4147
üd	4148
avid	4149
90	4150
sült	4151
téte	4152
argen	4153
cé	4154
car	4155
lub	4156
zab	4157
erek	4158
ape	4159
ogó	4160
ras	4161
ezeté	4162
kabin	4163
rl	4164
##zi	4165
riás	4166
iti	4167
melle	4168
tje	4169
zín	4170
##hl	4171
kerül	4172
tató	4173
kivá	4174
erz	4175
ladás	4176
hor	4177
óval	4178
adtak	4179
ulá	4180
lmo	4181
fonto	4182
tucat	4183
edig	4184
dic	4185
lakos	4186
000	4187
ca	4188
iban	4189
akor	4190
asi	4191
esked	4192
cá	4193
ee	4194
gul	4195
úcs	4196
ame	4197
tej	4198
böz	4199
ita	4200
lva	4201
nn	4202
nes	4203
ekor	4204
erül	4205
edv	4206
ázta	4207
ensz	4208
olva	4209
lid	4210
immár	4211
árá	4212
tere	4213
teti	4214
iek	4215
ktat	4216
ür	4217
##ip	4218
szö	4219
kit	4220
lep	4221
usok	4222
klu	4223
##ru	4224
mic	4225
okr	4226
etten	4227
ánc	4228
nde	4229
ázá	4230
400	4231
nár	4232
tiká	4233
észek	4234
tarta	4235
33	4236
##ft	4237
teles	4238
izet	4239
edi	4240
apo	4241
aga	4242
yene	4243
efekt	4244
ps	4245
yer	4246
##xi	4247
erk	4248
akí	4249
audi	4250
ddig	4251
giá	4252
bm	4253
eut	4254
lö	4255
elek	4256
edelm	4257
abo	4258
óján	4259
sztán	4260
abá	4261
rtok	4262
növek	4263
iért	4264
yőz	4265
adik	4266
éle	4267
tré	4268
üv	4269
oráb	4270
élte	4271
utol	4272
kozik	4273
nán	4274
nála	4275
zást	4276
tago	4277
etési	4278
graf	4279
mk	4280
##nök	4281
olv	4282
adásá	4283
lgár	4284
ragad	4285
eat	4286
fig	4287
laz	4288
vei	4289
ozza	4290
esnek	4291
rece	4292
ozhat	4293
oc	4294
tri	4295
zo	4296
alj	4297
teres	4298
pap	4299
we	4300
egyi	4301
repü	4302
##iá	4303
zölt	4304
atták	4305
ví	4306
vező	4307
ellá	4308
rják	4309
ótá	4310
alv	4311
ikl	4312
ítani	4313
ízi	4314
há	4315
zü	4316
etv	4317
aty	4318
lle	4319
mas	4320
pt	4321
szű	4322
ence	4323
lya	4324
téma	4325
kba	4326
rug	4327
utt	4328
enko	4329
évé	4330
assa	4331
dj	4332
megvá	4333
ránt	4334
##íma	4335
nc	4336
ranc	4337
artin	4338
ilá	4339
latot	4340
ntern	4341
dom	4342
megm	4343
gyá	4344
lli	4345
llít	4346
sso	4347
kad	4348
nü	4349
nom	4350
oh	4351
sság	4352
alól	4353
etre	4354
áraz	4355
lyan	4356
szült	4357
eho	4358
égül	4359
édi	4360
erző	4361
ley	4362
itá	4363
énz	4364
zatot	4365
mpl	4366
erződ	4367
zok	4368
erm	4369
erés	4370
áron	4371
árad	4372
nyzat	4373
rzés	4374
ech	4375
mul	4376
akk	4377
ins	4378
irály	4379
75	4380
ix	4381
nyét	4382
onál	4383
zút	4384
nák	4385
őse	4386
sszi	4387
vent	4388
ltató	4389
gia	4390
kes	4391
rő	4392
enci	4393
gon	4394
lná	4395
##ud	4396
integ	4397
igazo	4398
dönté	4399
ányá	4400
melés	4401
34	4402
nban	4403
enger	4404
koló	4405
építé	4406
non	4407
pc	4408
tta	4409
dig	4410
lér	4411
riz	4412
kém	4413
iről	4414
tün	4415
zban	4416
def	4417
agyi	4418
air	4419
nti	4420
adók	4421
37	4422
gne	4423
pő	4424
rnak	4425
tl	4426
nában	4427
ram	4428
lto	4429
tum	4430
ájuk	4431
aw	4432
amá	4433
mnb	4434
oy	4435
rés	4436
őj	4437
álni	4438
közl	4439
zato	4440
klíma	4441
toj	4442
nco	4443
raz	4444
etel	4445
nöke	4446
42	4447
dat	4448
uház	4449
iku	4450
atók	4451
kut	4452
zed	4453
alál	4454
felté	4455
sztás	4456
tip	4457
lóban	4458
nus	4459
bmw	4460
gyé	4461
szat	4462
ttség	4463
ülő	4464
lata	4465
rmes	4466
lga	4467
ean	4468
pet	4469
oln	4470
osta	4471
özép	4472
arlam	4473
yomoz	4474
nnek	4475
yot	4476
szük	4477
alon	4478
gynök	4479
ttá	4480
rivá	4481
fran	4482
nyire	4483
sör	4484
eter	4485
tött	4486
nkat	4487
ende	4488
ánya	4489
eszte	4490
gene	4491
sségé	4492
gét	4493
sko	4494
szan	4495
elhet	4496
soroz	4497
ításá	4498
bx	4499
káb	4500
rát	4501
nyá	4502
llami	4503
nálat	4504
zetbe	4505
odik	4506
bj	4507
gor	4508
ülte	4509
nya	4510
abi	4511
ései	4512
rika	4513
##sc	4514
szott	4515
átr	4516
ilm	4517
nm	4518
érté	4519
onto	4520
őké	4521
38	4522
iben	4523
nen	4524
öző	4525
együ	4526
ruh	4527
ügge	4528
oe	4529
elg	4530
nyen	4531
ogo	4532
ncse	4533
65	4534
lok	4535
mál	4536
mét	4537
sük	4538
nyak	4539
okba	4540
umb	4541
rajt	4542
imá	4543
kú	4544
lc	4545
elin	4546
enge	4547
enau	4548
apeh	4549
55	4550
fon	4551
vész	4552
azás	4553
árás	4554
ine	4555
ngs	4556
gp	4557
neke	4558
égi	4559
rga	4560
kh	4561
uka	4562
ssa	4563
kból	4564
uh	4565
yö	4566
felf	4567
ilág	4568
150	4569
lvár	4570
bom	4571
gő	4572
ldi	4573
vak	4574
yújt	4575
oj	4576
pot	4577
vó	4578
##ciu	4579
omp	4580
erepe	4581
digi	4582
szló	4583
aték	4584
##za	4585
olá	4586
érő	4587
onda	4588
ncia	4589
rén	4590
sök	4591
önyv	4592
olhat	4593
etese	4594
ien	4595
sté	4596
ús	4597
kin	4598
irt	4599
eszti	4600
ppen	4601
pon	4602
anna	4603
gyel	4604
nte	4605
bic	4606
rdo	4607
gyedi	4608
cer	4609
ított	4610
rany	4611
hábor	4612
sés	4613
sét	4614
ved	4615
övő	4616
##ót	4617
árciu	4618
tene	4619
nga	4620
enciá	4621
tojás	4622
ánk	4623
íre	4624
##ly	4625
ékos	4626
sül	4627
##mer	4628
áló	4629
íté	4630
képe	4631
poli	4632
bin	4633
nad	4634
űl	4635
ekek	4636
erj	4637
amu	4638
észle	4639
gett	4640
nsz	4641
pü	4642
rj	4643
vo	4644
láng	4645
pen	4646
éső	4647
rtl	4648
ies	4649
ekbe	4650
iko	4651
ndá	4652
ritka	4653
den	4654
nce	4655
ric	4656
kodás	4657
ola	4658
uty	4659
otor	4660
inál	4661
ily	4662
ajno	4663
tériu	4664
jal	4665
rjá	4666
sű	4667
##id	4668
adata	4669
mtv	4670
ársa	4671
kedve	4672
ktől	4673
ssan	4674
rv	4675
zig	4676
nysz	4677
tab	4678
nfor	4679
gé	4680
ias	4681
zul	4682
##ügy	4683
ezete	4684
abba	4685
áma	4686
tika	4687
lh	4688
tas	4689
ósz	4690
ejle	4691
bombá	4692
ds	4693
gre	4694
zk	4695
ásf	4696
ará	4697
rdeke	4698
szta	4699
aka	4700
tésre	4701
dén	4702
gez	4703
ned	4704
álta	4705
gz	4706
lmi	4707
tog	4708
okol	4709
olit	4710
sti	4711
atásá	4712
erzés	4713
llító	4714
fer	4715
isa	4716
kij	4717
arna	4718
áté	4719
lapí	4720
pás	4721
ségbe	4722
játs	4723
umo	4724
kszer	4725
ire	4726
nda	4727
ski	4728
mia	4729
ájá	4730
eljár	4731
tóbb	4732
iak	4733
nit	4734
##wn	4735
negye	4736
izto	4737
edt	4738
ital	4739
ósí	4740
mész	4741
rge	4742
áró	4743
nész	4744
dalm	4745
zerb	4746
imi	4747
tba	4748
erez	4749
rai	4750
ítják	4751
gazga	4752
stá	4753
aha	4754
giai	4755
mlék	4756
osabb	4757
mra	4758
rök	4759
áli	4760
kapac	4761
amint	4762
örny	4763
anuár	4764
eag	4765
ival	4766
mber	4767
pop	4768
rke	4769
zolg	4770
kéne	4771
gyar	4772
rich	4773
imn	4774
zata	4775
tmény	4776
kese	4777
fx	4778
ktá	4779
lába	4780
##up	4781
##ool	4782
aro	4783
keré	4784
rpool	4785
41	4786
vert	4787
##one	4788
győ	4789
bux	4790
élyi	4791
sában	4792
tóbbi	4793
dug	4794
ocs	4795
tp	4796
##ox	4797
köl	4798
átsz	4799
ségv	4800
színé	4801
zené	4802
git	4803
gében	4804
jeg	4805
lne	4806
vl	4807
##ner	4808
oná	4809
mást	4810
ukk	4811
észen	4812
dos	4813
rős	4814
ójá	4815
öd	4816
##emb	4817
atnak	4818
akban	4819
iket	4820
feles	4821
eon	4822
ls	4823
vét	4824
yil	4825
ésbe	4826
cial	4827
örü	4828
lene	4829
prób	4830
ektet	4831
iii	4832
jékoz	4833
tötte	4834
600	4835
aus	4836
rb	4837
ségek	4838
sztá	4839
któl	4840
brfk	4841
asztr	4842
kből	4843
ésőbb	4844
39	4845
48	4846
mr	4847
edik	4848
ogá	4849
ékez	4850
gb	4851
pri	4852
paki	4853
##fá	4854
arj	4855
aren	4856
zője	4857
hel	4858
nj	4859
pit	4860
íro	4861
omm	4862
örg	4863
250	4864
innen	4865
szlov	4866
nato	4867
szek	4868
asztó	4869
43	4870
bon	4871
dia	4872
gás	4873
ged	4874
iák	4875
ys	4876
yá	4877
##ns	4878
eta	4879
arab	4880
köze	4881
unka	4882
ékok	4883
latok	4884
sébe	4885
tszik	4886
.)	4887
ián	4888
kc	4889
mf	4890
zű	4891
##szk	4892
gyi	4893
tern	4894
ovb	4895
sütö	4896
ress	4897
rez	4898
rett	4899
sho	4900
##átor	4901
ege	4902
entes	4903
lév	4904
zabad	4905
det	4906
fé	4907
##po	4908
##ph	4909
atr	4910
arta	4911
nic	4912
talaj	4913
zete	4914
tran	4915
khoz	4916
vig	4917
##ry	4918
erke	4919
terel	4920
teli	4921
rnyé	4922
mpá	4923
ésén	4924
igi	4925
hav	4926
ozó	4927
ebes	4928
reke	4929
eál	4930
tre	4931
yan	4932
óba	4933
enb	4934
amo	4935
gm	4936
gek	4937
yű	4938
atik	4939
árto	4940
apja	4941
roda	4942
lógi	4943
laká	4944
híd	4945
gáb	4946
tg	4947
##zá	4948
ásuk	4949
olj	4950
onf	4951
étele	4952
eger	4953
ülö	4954
enté	4955
apple	4956
44	4957
álás	4958
ets	4959
ármi	4960
izen	4961
édia	4962
pesti	4963
edden	4964
hx	4965
kle	4966
lí	4967
##bó	4968
ziget	4969
aci	4970
pas	4971
tig	4972
óp	4973
##eni	4974
azda	4975
gyik	4976
ajz	4977
rték	4978
rand	4979
limp	4980
delm	4981
his	4982
igy	4983
mes	4984
okk	4985
ike	4986
dhet	4987
űnt	4988
rea	4989
ntött	4990
lésé	4991
sítés	4992
esztő	4993
lb	4994
lemé	4995
arvas	4996
rosz	4997
leti	4998
kur	4999
rult	5000
dri	5001
rány	5002
rov	5003
ww	5004
etr	5005
okan	5006
érle	5007
agya	5008
lav	5009
llo	5010
lic	5011
rral	5012
yőzte	5013
yo	5014
óf	5015
##ie	5016
megé	5017
ltal	5018
ider	5019
mára	5020
zti	5021
ndre	5022
gépe	5023
égé	5024
ssel	5025
zked	5026
pak	5027
uhá	5028
yle	5029
elez	5030
kös	5031
forr	5032
gazol	5033
ndo	5034
labor	5035
lez	5036
elté	5037
ásai	5038
ane	5039
máso	5040
tések	5041
ndor	5042
népsz	5043
46	5044
iem	5045
nnyi	5046
ua	5047
enf	5048
sztr	5049
riu	5050
ékot	5051
cd	5052
gas	5053
lén	5054
ela	5055
essé	5056
erc	5057
ártó	5058
##rac	5059
sokk	5060
klin	5061
tese	5062
mmel	5063
mcl	5064
erjed	5065
52	5066
yon	5067
tev	5068
íteni	5069
eis	5070
hr	5071
akó	5072
onc	5073
unká	5074
ndul	5075
óka	5076
nst	5077
gárda	5078
nzügy	5079
jén	5080
etn	5081
utá	5082
edél	5083
53	5084
márká	5085
ttem	5086
ftc	5087
fri	5088
vx	5089
##ii	5090
aláb	5091
olc	5092
amat	5093
omba	5094
műv	5095
halá	5096
feje	5097
seb	5098
hö	5099
##ós	5100
elad	5101
akos	5102
terá	5103
sztj	5104
tti	5105
lós	5106
rme	5107
utyin	5108
fol	5109
line	5110
rás	5111
utás	5112
lyet	5113
ngy	5114
ous	5115
orto	5116
éva	5117
előd	5118
telek	5119
mányo	5120
galé	5121
hen	5122
rról	5123
azug	5124
etik	5125
etni	5126
##aze	5127
##seb	5128
lők	5129
ztató	5130
tv2	5131
64	5132
dam	5133
gán	5134
hv	5135
zan	5136
elb	5137
kiseb	5138
emet	5139
anad	5140
ore	5141
hib	5142
lalt	5143
ülése	5144
ézi	5145
cal	5146
ccs	5147
rut	5148
sol	5149
zve	5150
záz	5151
##ya	5152
mitt	5153
##ina	5154
rtja	5155
udom	5156
ozata	5157
800	5158
eam	5159
ije	5160
őbe	5161
léke	5162
zód	5163
eltek	5164
ítása	5165
lsz	5166
lök	5167
nyék	5168
hatna	5169
entés	5170
ago	5171
neti	5172
trük	5173
ányok	5174
torn	5175
lked	5176
nciá	5177
49	5178
##pe	5179
álja	5180
alad	5181
edő	5182
##ley	5183
zsg	5184
alkat	5185
ejte	5186
nzé	5187
xvi	5188
azi	5189
aká	5190
sztó	5191
ajt	5192
éka	5193
komb	5194
artj	5195
szav	5196
madár	5197
madar	5198
54	5199
fm	5200
hc	5201
hd	5202
hé	5203
nne	5204
rc	5205
yáz	5206
zd	5207
íve	5208
ölte	5209
dei	5210
zték	5211
rsa	5212
dőben	5213
bál	5214
esze	5215
hf	5216
rék	5217
zép	5218
##hu	5219
elö	5220
alam	5221
erb	5222
éret	5223
ráció	5224
ázi	5225
ációs	5226
www	5227
kbe	5228
kvá	5229
mus	5230
rmé	5231
sú	5232
snak	5233
elo	5234
amin	5235
ida	5236
baba	5237
uss	5238
udit	5239
ákat	5240
sark	5241
sétál	5242
gró	5243
tnek	5244
ebbe	5245
leng	5246
lási	5247
sőbb	5248
latos	5249
lagos	5250
ejé	5251
och	5252
##do	5253
ales	5254
áshoz	5255
éldá	5256
egal	5257
apit	5258
ehát	5259
porto	5260
56	5261
85	5262
dni	5263
ira	5264
iszo	5265
rít	5266
uan	5267
yó	5268
##ago	5269
ruház	5270
nove	5271
fogya	5272
hvg	5273
47	5274
##per	5275
aros	5276
reszt	5277
oron	5278
őri	5279
iraki	5280
agr	5281
umok	5282
120	5283
cent	5284
lény	5285
elvá	5286
lye	5287
kei	5288
cége	5289
baja	5290
búj	5291
iók	5292
rdá	5293
arác	5294
árs	5295
lési	5296
nka	5297
kast	5298
57	5299
dd	5300
kla	5301
mén	5302
árok	5303
lau	5304
dtek	5305
kró	5306
kód	5307
alat	5308
enn	5309
ztel	5310
érdés	5311
tete	5312
bron	5313
ádár	5314
bít	5315
iad	5316
ock	5317
pszá	5318
yr	5319
yol	5320
yhá	5321
zül	5322
##un	5323
ésnek	5324
álog	5325
etü	5326
iker	5327
kért	5328
ust	5329
lálko	5330
pszáf	5331
51	5332
ms	5333
rf	5334
ezd	5335
ator	5336
jót	5337
elef	5338
ragas	5339
knál	5340
gyéb	5341
nát	5342
azud	5343
kib	5344
esi	5345
are	5346
ize	5347
arry	5348
onyi	5349
##tta	5350
ála	5351
álm	5352
add	5353
bizon	5354
minde	5355
ngé	5356
bus	5357
fú	5358
mban	5359
nnak	5360
radt	5361
tná	5362
érlet	5363
ori	5364
szti	5365
ila	5366
##ney	5367
abda	5368
lések	5369
lyi	5370
tván	5371
eresz	5372
ilye	5373
rvé	5374
tai	5375
arad	5376
olyó	5377
krit	5378
ényes	5379
lunk	5380
rutin	5381
98	5382
iu	5383
üst	5384
alg	5385
ety	5386
ath	5387
olas	5388
akma	5389
emok	5390
töl	5391
ovemb	5392
sszú	5393
gzet	5394
kanc	5395
egyv	5396
atl	5397
emt	5398
nior	5399
átra	5400
tatta	5401
spó	5402
lemz	5403
jak	5404
rká	5405
ssza	5406
áé	5407
szn	5408
eru	5409
ntá	5410
lyáz	5411
nasa	5412
razí	5413
gés	5414
rál	5415
sle	5416
óló	5417
##ku	5418
##ib	5419
emé	5420
kalap	5421
rown	5422
ázat	5423
tend	5424
zoci	5425
bronz	5426
700	5427
sas	5428
őh	5429
emél	5430
##aga	5431
ige	5432
taxi	5433
ezeti	5434
apt	5435
ágn	5436
zlov	5437
nika	5438
acso	5439
cm	5440
cl	5441
dély	5442
atv	5443
helyé	5444
bur	5445
riad	5446
éki	5447
tetej	5448
para	5449
lati	5450
dup	5451
aur	5452
erih	5453
yilv	5454
nba	5455
tány	5456
íp	5457
öny	5458
##si	5459
felha	5460
intet	5461
tex	5462
otá	5463
hala	5464
rtj	5465
diox	5466
lip	5467
lgat	5468
das	5469
sos	5470
ája	5471
##lo	5472
olna	5473
ouis	5474
ágá	5475
pülés	5476
űnik	5477
col	5478
gig	5479
lág	5480
nkor	5481
ise	5482
atu	5483
gyre	5484
itch	5485
avrac	5486
lapo	5487
eszé	5488
nerg	5489
mkb	5490
togat	5491
iva	5492
oszo	5493
ocsi	5494
##ako	5495
abál	5496
udo	5497
tone	5498
rot	5499
sv	5500
énte	5501
##pár	5502
egyh	5503
teke	5504
mac	5505
poh	5506
lanul	5507
liga	5508
##ah	5509
elöl	5510
kint	5511
emi	5512
reen	5513
ozg	5514
lői	5515
nká	5516
úti	5517
ződ	5518
fifa	5519
smer	5520
agrár	5521
62	5522
gin	5523
lől	5524
anci	5525
intel	5526
rth	5527
llomá	5528
spo	5529
táská	5530
ango	5531
tója	5532
bátor	5533
hin	5534
nta	5535
rró	5536
vf	5537
ake	5538
ady	5539
##ama	5540
íthat	5541
omat	5542
riv	5543
égben	5544
ítási	5545
imád	5546
bél	5547
tle	5548
yl	5549
íze	5550
##zu	5551
##pi	5552
##hi	5553
ötti	5554
ngol	5555
zomb	5556
imnáz	5557
bc	5558
bs	5559
kai	5560
rje	5561
éhe	5562
##bor	5563
ena	5564
cson	5565
ltet	5566
áty	5567
vegy	5568
apod	5569
rában	5570
elmez	5571
oszto	5572
óku	5573
ssá	5574
dvsc	5575
treet	5576
58	5577
pott	5578
rcs	5579
enh	5580
erem	5581
arko	5582
árat	5583
tax	5584
köré	5585
ever	5586
brav	5587
yolc	5588
95	5589
dns	5590
inté	5591
lmú	5592
ave	5593
oul	5594
yész	5595
##ari	5596
igé	5597
ile	5598
hozzá	5599
ndí	5600
relm	5601
pra	5602
plat	5603
vag	5604
##úd	5605
arát	5606
ora	5607
egf	5608
rám	5609
##uki	5610
élye	5611
##ric	5612
máj	5613
özel	5614
asztá	5615
dvd	5616
ae	5617
génye	5618
sl	5619
##nu	5620
emen	5621
rec	5622
orin	5623
tef	5624
omi	5625
ede	5626
tten	5627
ulti	5628
tars	5629
ksh	5630
kvó	5631
trükk	5632
68	5633
61	5634
iat	5635
tvá	5636
ui	5637
zség	5638
csé	5639
mában	5640
vissz	5641
mole	5642
mmal	5643
tranz	5644
cb	5645
kci	5646
mog	5647
éze	5648
##ui	5649
csa	5650
arto	5651
inan	5652
ilis	5653
kka	5654
iph	5655
kről	5656
kós	5657
zmus	5658
900	5659
pes	5660
pán	5661
rva	5662
xx	5663
zná	5664
éne	5665
beszá	5666
teret	5667
egte	5668
ukr	5669
zási	5670
usi	5671
lob	5672
ősi	5673
ógia	5674
domb	5675
iderü	5676
bban	5677
kás	5678
laj	5679
##end	5680
ezze	5681
ítást	5682
lovas	5683
zmény	5684
..	5685
mj	5686
uj	5687
##ct	5688
ásán	5689
lyá	5690
mász	5691
andy	5692
zlo	5693
ayer	5694
noki	5695
lang	5696
mcc	5697
gráf	5698
emokr	5699
bot	5700
dan	5701
któb	5702
ámá	5703
ézet	5704
##ús	5705
issz	5706
nyik	5707
éter	5708
edve	5709
tési	5710
ázo	5711
ipr	5712
manip	5713
allo	5714
ergej	5715
gyütt	5716
qui	5717
psv	5718
gyász	5719
63	5720
éta	5721
alif	5722
orá	5723
kocs	5724
lyo	5725
lent	5726
lmán	5727
iver	5728
bútor	5729
ráta	5730
ouse	5731
59	5732
69	5733
72	5734
dál	5735
gél	5736
##uc	5737
alan	5738
aland	5739
gyom	5740
árk	5741
hato	5742
lyé	5743
házá	5744
kegy	5745
ehéz	5746
toro	5747
mlsz	5748
74	5749
dit	5750
ice	5751
ább	5752
kia	5753
áspár	5754
anyja	5755
inga	5756
emlé	5757
umen	5758
brah	5759
delem	5760
övek	5761
obi	5762
kft	5763
ring	5764
rolt	5765
play	5766
rlás	5767
yerme	5768
kaj	5769
lon	5770
nh	5771
smi	5772
zai	5773
zuk	5774
ónak	5775
arv	5776
onat	5777
rij	5778
ékek	5779
link	5780
animá	5781
anyá	5782
sima	5783
skál	5784
ősége	5785
prog	5786
szkó	5787
uzuki	5788
...	5789
iprus	5790
ple	5791
sin	5792
ince	5793
apr	5794
ava	5795
esete	5796
tásai	5797
kavar	5798
ligá	5799
okau	5800
zámos	5801
rvos	5802
dk	5803
iás	5804
ái	5805
ásod	5806
##iká	5807
arri	5808
rav	5809
tun	5810
eir	5811
ston	5812
rde	5813
mpi	5814
130	5815
lamo	5816
66	5817
kart	5818
##ax	5819
csó	5820
emmi	5821
ondo	5822
nyuga	5823
siet	5824
röh	5825
tsége	5826
hite	5827
tlét	5828
kút	5829
rősö	5830
dek	5831
ead	5832
zeg	5833
zem	5834
óvá	5835
ergi	5836
anor	5837
étá	5838
elev	5839
140	5840
egalá	5841
cn	5842
gsz	5843
kló	5844
mut	5845
nben	5846
pte	5847
yár	5848
óna	5849
##ir	5850
szere	5851
ásho	5852
erdá	5853
csom	5854
aku	5855
ulm	5856
lapot	5857
ipad	5858
urc	5859
latin	5860
öbben	5861
teráp	5862
bén	5863
dm	5864
eil	5865
iami	5866
övid	5867
##wi	5868
ovi	5869
özé	5870
bd	5871
fb	5872
rvá	5873
öko	5874
##hy	5875
elje	5876
megb	5877
valif	5878
ome	5879
taní	5880
book	5881
odó	5882
naci	5883
ovább	5884
elébe	5885
üty	5886
##bou	5887
báb	5888
dől	5889
kak	5890
kád	5891
yd	5892
nyű	5893
álják	5894
alag	5895
atab	5896
edte	5897
ciu	5898
tana	5899
tisz	5900
ite	5901
ábrá	5902
lázad	5903
seket	5904
73	5905
gőz	5906
kát	5907
rdi	5908
zsz	5909
elep	5910
##ake	5911
nyeg	5912
how	5913
hoen	5914
akít	5915
tep	5916
llat	5917
vezé	5918
vete	5919
ültek	5920
evés	5921
ülete	5922
vend	5923
innov	5924
hy	5925
lil	5926
tha	5927
szki	5928
eth	5929
nick	5930
igén	5931
aida	5932
hid	5933
kum	5934
kuta	5935
ántó	5936
180	5937
ridge	5938
trón	5939
ossá	5940
tefan	5941
dít	5942
lar	5943
líz	5944
oone	5945
tc	5946
##yá	5947
nyé	5948
mega	5949
kése	5950
arse	5951
##ray	5952
talo	5953
ulhat	5954
itz	5955
kala	5956
avig	5957
lló	5958
stor	5959
alku	5960
smét	5961
knél	5962
ivé	5963
áko	5964
öb	5965
űle	5966
megte	5967
akin	5968
arok	5969
ltra	5970
ulha	5971
sták	5972
fize	5973
ontr	5974
atti	5975
popul	5976
gszer	5977
ooney	5978
ruk	5979
zit	5980
úly	5981
lei	5982
vác	5983
eder	5984
roup	5985
tások	5986
ezésé	5987
mith	5988
etésé	5989
őlő	5990
qua	5991
evi	5992
faze	5993
ibe	5994
mmun	5995
she	5996
##fe	5997
alga	5998
kiál	5999
étre	6000
ego	6001
rint	6002
##uká	6003
sajt	6004
röp	6005
sík	6006
evan	6007
67	6008
71	6009
bás	6010
iú	6011
jtá	6012
rni	6013
zél	6014
zna	6015
##ken	6016
ald	6017
menny	6018
rács	6019
eid	6020
stat	6021
örvé	6022
zások	6023
maff	6024
mara	6025
bbi	6026
ross	6027
arian	6028
pohár	6029
bf	6030
öve	6031
isko	6032
felad	6033
amm	6034
arap	6035
indu	6036
izz	6037
aját	6038
váro	6039
kesz	6040
kong	6041
trend	6042
160	6043
assá	6044
eha	6045
ior	6046
tf	6047
éc	6048
##ue	6049
mego	6050
kirá	6051
erh	6052
gym	6053
aris	6054
ortá	6055
lay	6056
ttes	6057
irst	6058
rian	6059
kalif	6060
start	6061
éká	6062
ontot	6063
inger	6064
önny	6065
ske	6066
rans	6067
exp	6068
onya	6069
88	6070
dás	6071
dani	6072
sra	6073
zér	6074
##ay	6075
isk	6076
##ing	6077
##age	6078
otus	6079
bab	6080
tand	6081
ódo	6082
zatér	6083
rdem	6084
záj	6085
elése	6086
tjuk	6087
aja	6088
gg	6089
mma	6090
rről	6091
svá	6092
áni	6093
űs	6094
nyago	6095
lasz	6096
rte	6097
elmér	6098
inká	6099
ítése	6100
panel	6101
ewis	6102
dent	6103
geket	6104
82	6105
ais	6106
bik	6107
dak	6108
iál	6109
mart	6110
nhl	6111
rne	6112
úl	6113
##vh	6114
alé	6115
enés	6116
##apí	6117
arén	6118
adj	6119
oznak	6120
tasz	6121
omoly	6122
llapí	6123
div	6124
lásd	6125
ódi	6126
obbi	6127
ági	6128
elete	6129
zinte	6130
rona	6131
euts	6132
ánkó	6133
iemel	6134
taxis	6135
nyűg	6136
nbe	6137
rvény	6138
tk	6139
vö	6140
yors	6141
alco	6142
ásba	6143
érfi	6144
kapas	6145
etést	6146
errel	6147
350	6148
gésze	6149
űlés	6150
db	6151
ddi	6152
gol	6153
gna	6154
ove	6155
yék	6156
ózs	6157
amok	6158
ney	6159
egés	6160
sir	6161
plán	6162
demo	6163
erie	6164
rseny	6165
mtk	6166
rbán	6167
úlyos	6168
81	6169
aa	6170
ifi	6171
ivi	6172
liz	6173
rle	6174
sig	6175
sug	6176
sla	6177
téz	6178
őtt	6179
##su	6180
##cht	6181
ülhet	6182
rof	6183
nds	6184
síf	6185
rült	6186
ldo	6187
gatás	6188
zgat	6189
dését	6190
etünk	6191
fúv	6192
gus	6193
lár	6194
mü	6195
##ös	6196
##ou	6197
szkö	6198
##erá	6199
etnek	6200
aran	6201
##ino	6202
tion	6203
##ízi	6204
zatá	6205
thé	6206
akku	6207
lív	6208
rmi	6209
trá	6210
yí	6211
észt	6212
űve	6213
##bu	6214
isé	6215
etsz	6216
ásnak	6217
áro	6218
nico	6219
ote	6220
ána	6221
ztes	6222
dös	6223
dir	6224
trén	6225
olgá	6226
ökken	6227
krém	6228
gárdá	6229
erev	6230
96	6231
dnek	6232
kasz	6233
őzet	6234
##nár	6235
##ate	6236
köve	6237
bandá	6238
osb	6239
die	6240
kard	6241
égis	6242
anadá	6243
sszab	6244
kósto	6245
ct	6246
fd	6247
kj	6248
obo	6249
pos	6250
vd	6251
##vor	6252
##her	6253
leve	6254
aria	6255
##azar	6256
kapit	6257
tté	6258
üli	6259
síe	6260
krízi	6261
nski	6262
ermel	6263
avigá	6264
pláne	6265
84	6266
83	6267
anyi	6268
bét	6269
dw	6270
dja	6271
my	6272
oa	6273
pom	6274
pasz	6275
vit	6276
yal	6277
znek	6278
zze	6279
íci	6280
##vár	6281
szja	6282
csol	6283
nej	6284
sztik	6285
aid	6286
rös	6287
ipp	6288
skót	6289
dolt	6290
allg	6291
uefa	6292
kolá	6293
lámpa	6294
vata	6295
béli	6296
lvas	6297
lvá	6298
yne	6299
zar	6300
##rc	6301
##gá	6302
isel	6303
enü	6304
kile	6305
erü	6306
ikr	6307
adar	6308
##csa	6309
ozik	6310
kezte	6311
izom	6312
ntra	6313
hetet	6314
lőre	6315
veté	6316
dkg	6317
kaz	6318
kúr	6319
mbo	6320
nai	6321
snek	6322
yén	6323
zb	6324
##vo	6325
megt	6326
alla	6327
eno	6328
okaj	6329
esco	6330
arag	6331
nig	6332
nita	6333
inno	6334
egh	6335
irál	6336
dög	6337
##vald	6338
epé	6339
agá	6340
rmdsz	6341
eszk	6342
sav	6343
lsős	6344
ladá	6345
cas	6346
dl	6347
dók	6348
ehe	6349
fg	6350
lkoz	6351
pek	6352
pazar	6353
sai	6354
vk	6355
zeke	6356
szag	6357
ásul	6358
orol	6359
ltot	6360
eggel	6361
talm	6362
álták	6363
rop	6364
áza	6365
oltá	6366
rébe	6367
imbó	6368
info	6369
iós	6370
hirde	6371
mnv	6372
trém	6373
úsít	6374
tléti	6375
bag	6376
hes	6377
nge	6378
nvald	6379
yg	6380
ún	6381
##leg	6382
arsó	6383
##aif	6384
egel	6385
abc	6386
muta	6387
bob	6388
éket	6389
tatja	6390
trad	6391
rgon	6392
110	6393
rali	6394
etők	6395
ear	6396
kác	6397
sat	6398
yik	6399
ősze	6400
##we	6401
szar	6402
nyban	6403
etve	6404
enleg	6405
érés	6406
hatá	6407
írá	6408
lyuk	6409
álya	6410
tékos	6411
auer	6412
eine	6413
szkár	6414
tánc	6415
öml	6416
órház	6417
őzés	6418
tipp	6419
átran	6420
spór	6421
ajax	6422
91	6423
mta	6424
nö	6425
ox	6426
rgi	6427
sco	6428
yako	6429
nyez	6430
ekb	6431
eki	6432
banda	6433
közöl	6434
egm	6435
sorba	6436
spa	6437
ovas	6438
usic	6439
ellé	6440
álisa	6441
atio	6442
iszte	6443
őss	6444
que	6445
750	6446
őjé	6447
úsí	6448
cí	6449
eva	6450
fh	6451
kák	6452
mát	6453
nás	6454
rul	6455
nyo	6456
lee	6457
akci	6458
ema	6459
gya	6460
tutt	6461
díja	6462
ander	6463
angel	6464
iáj	6465
leke	6466
iszté	6467
prom	6468
afp	6469
aye	6470
rzé	6471
elésé	6472
tador	6473
dül	6474
ln	6475
lú	6476
sf	6477
tág	6478
tép	6479
uch	6480
zek	6481
szb	6482
szöv	6483
eka	6484
olog	6485
apjá	6486
stan	6487
klip	6488
elye	6489
ariá	6490
esült	6491
öszön	6492
77	6493
gvh	6494
któ	6495
rta	6496
td	6497
tors	6498
áh	6499
##óz	6500
##mo	6501
##go	6502
álj	6503
etan	6504
legy	6505
akko	6506
orfk	6507
ajka	6508
abl	6509
hiv	6510
rtu	6511
rtjá	6512
ört	6513
zeté	6514
veze	6515
kuba	6516
ovák	6517
lenül	6518
atása	6519
toll	6520
antib	6521
kombi	6522
ainz	6523
guru	6524
zako	6525
radar	6526
désé	6527
rké	6528
gróf	6529
cnn	6530
ulmán	6531
bt	6532
gta	6533
hb	6534
sát	6535
ík	6536
##ón	6537
##mp	6538
élj	6539
előn	6540
sztes	6541
talp	6542
váll	6543
avis	6544
entő	6545
özl	6546
özöl	6547
szülé	6548
sky	6549
tohl	6550
ictor	6551
170	6552
ölté	6553
sárká	6554
egfel	6555
by	6556
csz	6557
com	6558
dús	6559
gú	6560
who	6561
yn	6562
yit	6563
zmé	6564
##jk	6565
##sá	6566
aza	6567
alas	6568
csel	6569
akab	6570
gynö	6571
arn	6572
aim	6573
kkv	6574
erede	6575
bőr	6576
regor	6577
own	6578
koll	6579
ife	6580
organ	6581
stop	6582
cszka	6583
bit	6584
jl	6585
kho	6586
mh	6587
ool	6588
sett	6589
vc	6590
ául	6591
##zz	6592
##eu	6593
éry	6594
anch	6595
felü	6596
gyor	6597
gyek	6598
rey	6599
korlá	6600
ntel	6601
özi	6602
auru	6603
galax	6604
taps	6605
125	6606
nnen	6607
vésze	6608
nform	6609
züle	6610
nkább	6611
78	6612
ante	6613
jü	6614
nv	6615
rló	6616
set	6617
##ec	6618
##vm	6619
enk	6620
atan	6621
arch	6622
dex	6623
agyo	6624
izon	6625
euge	6626
rook	6627
aszn	6628
grán	6629
table	6630
',	6631
bp	6632
bék	6633
bort	6634
iális	6635
pól	6636
réz	6637
vp	6638
áva	6639
##rs	6640
##out	6641
szka	6642
elha	6643
alta	6644
erná	6645
idro	6646
mária	6647
egr	6648
irr	6649
dör	6650
lót	6651
nkr	6652
örté	6653
kké	6654
agu	6655
agas	6656
pofá	6657
szenv	6658
ect	6659
aust	6660
kurz	6661
hév	6662
algó	6663
76	6664
79	6665
93	6666
echn	6667
nve	6668
roz	6669
tis	6670
uri	6671
vát	6672
yp	6673
ádi	6674
##wo	6675
##ane	6676
isco	6677
leck	6678
ardi	6679
elők	6680
néni	6681
járdá	6682
viv	6683
menul	6684
kalau	6685
stom	6686
seout	6687
monda	6688
ebel	6689
bajor	6690
özv	6691
ándo	6692
eitu	6693
mazo	6694
opo	6695
torz	6696
kában	6697
tapad	6698
poén	6699
arkó	6700
dax	6701
puph	6702
ivó	6703
söp	6704
táll	6705
nyaká	6706
dugó	6707
mfb	6708
rősöd	6709
87	6710
gai	6711
ret	6712
unt	6713
##th	6714
##ey	6715
szin	6716
mid	6717
ater	6718
esn	6719
erme	6720
érf	6721
gyez	6722
etter	6723
orlá	6724
ztá	6725
rim	6726
anyjá	6727
toler	6728
nikó	6729
parti	6730
arie	6731
tarif	6732
toke	6733
86	6734
bad	6735
cr	6736
gt	6737
uis	6738
úli	6739
##có	6740
##úz	6741
elve	6742
erin	6743
ammer	6744
adt	6745
lega	6746
szte	6747
ttat	6748
apu	6749
rtés	6750
zóná	6751
ahre	6752
ball	6753
elly	6754
nano	6755
elked	6756
anuel	6757
ornél	6758
ollár	6759
rlát	6760
nnal	6761
laza	6762
rovat	6763
rovar	6764
zázad	6765
fbi	6766
mák	6767
rap	6768
##pó	6769
##ém	6770
atric	6771
ettő	6772
ade	6773
##étá	6774
##ill	6775
tew	6776
edro	6777
##row	6778
részv	6779
ndj	6780
boc	6781
nált	6782
diff	6783
max	6784
lágy	6785
égbe	6786
udt	6787
erder	6788
káp	6789
riti	6790
arihu	6791
grav	6792
önyve	6793
cia	6794
fk	6795
latt	6796
mg	6797
tén	6798
tkoz	6799
üle	6800
##van	6801
kics	6802
led	6803
ilvá	6804
bay	6805
appa	6806
itan	6807
ámo	6808
sty	6809
stin	6810
lake	6811
grúz	6812
urray	6813
rmin	6814
vise	6815
édő	6816
ario	6817
szige	6818
xii	6819
450	6820
laudi	6821
lívi	6822
gráná	6823
bok	6824
dra	6825
gs	6826
kus	6827
kába	6828
paj	6829
rh	6830
rön	6831
rbá	6832
rka	6833
xxi	6834
ői	6835
##ía	6836
álma	6837
anne	6838
amor	6839
##ast	6840
haw	6841
oztak	6842
asa	6843
asc	6844
értes	6845
omló	6846
apcs	6847
ried	6848
rtet	6849
salá	6850
ahe	6851
very	6852
zotta	6853
bara	6854
klá	6855
ngat	6856
ájék	6857
eszté	6858
now	6859
zeri	6860
bónu	6861
kvótá	6862
golf	6863
89	6864
99	6865
cac	6866
gör	6867
mít	6868
nko	6869
pít	6870
rség	6871
ye	6872
zse	6873
##éta	6874
elü	6875
etté	6876
arro	6877
átha	6878
##uti	6879
kedet	6880
nke	6881
tová	6882
verto	6883
bales	6884
léc	6885
fox	6886
uma	6887
rótt	6888
ítésé	6889
logen	6890
mór	6891
düh	6892
topl	6893
sign	6894
fl	6895
gí	6896
##cé	6897
##ee	6898
##őr	6899
azio	6900
ezz	6901
szerk	6902
erei	6903
lex	6904
ary	6905
##uli	6906
egér	6907
omsz	6908
ukar	6909
tási	6910
zatok	6911
usch	6912
acq	6913
olgo	6914
ények	6915
ényez	6916
ldal	6917
zeret	6918
lana	6919
lomás	6920
tróf	6921
ávo	6922
mkp	6923
dete	6924
smink	6925
skálá	6926
bh	6927
cx	6928
dző	6929
eed	6930
gge	6931
hake	6932
ial	6933
lna	6934
lelő	6935
paga	6936
uszo	6937
vü	6938
xa	6939
zír	6940
nyu	6941
etor	6942
atar	6943
aron	6944
ortt	6945
árta	6946
átá	6947
ozók	6948
egg	6949
edély	6950
ajor	6951
őrö	6952
itim	6953
rtás	6954
road	6955
lőb	6956
liber	6957
andra	6958
antik	6959
aff	6960
arth	6961
pata	6962
270	6963
daság	6964
kaszi	6965
dve	6966
gér	6967
nol	6968
pd	6969
##ua	6970
##cc	6971
##nó	6972
akra	6973
emo	6974
ikö	6975
adam	6976
raft	6977
ságo	6978
##utá	6979
terh	6980
íto	6981
ráj	6982
lőz	6983
lakik	6984
ipos	6985
romb	6986
ftse	6987
gyana	6988
favor	6989
ádas	6990
tess	6991
gének	6992
ügg	6993
alált	6994
yógy	6995
örtén	6996
dz	6997
gben	6998
lmá	6999
yb	7000
ym	7001
yai	7002
##ker	7003
##ev	7004
##der	7005
alaj	7006
erl	7007
olla	7008
anul	7009
árl	7010
vanc	7011
áltak	7012
napok	7013
nkur	7014
szón	7015
tobo	7016
búvár	7017
atiku	7018
laude	7019
krón	7020
ütyü	7021
xavi	7022
fit	7023
gam	7024
hű	7025
isze	7026
nít	7027
rve	7028
ób	7029
##dó	7030
szlet	7031
egyel	7032
alti	7033
ossza	7034
idat	7035
renc	7036
kerg	7037
ntin	7038
jók	7039
ölel	7040
##riá	7041
léb	7042
risc	7043
tory	7044
túrá	7045
strom	7046
orthy	7047
etébe	7048
vese	7049
360	7050
trip	7051
bxc	7052
súg	7053
92	7054
bg	7055
djá	7056
hbo	7057
tné	7058
##fo	7059
szko	7060
##ent	7061
ezne	7062
atch	7063
band	7064
etto	7065
orok	7066
orrá	7067
##itz	7068
ozna	7069
ndu	7070
nku	7071
lift	7072
dox	7073
ökő	7074
ágban	7075
tömb	7076
zúz	7077
söd	7078
ilágo	7079
líbi	7080
ioren	7081
pompá	7082
aug	7083
mand	7084
tke	7085
vés	7086
zít	7087
##ng	7088
##ler	7089
##gyi	7090
isch	7091
nyag	7092
##ara	7093
##are	7094
kést	7095
anem	7096
anno	7097
töt	7098
árda	7099
neo	7100
abre	7101
tank	7102
épes	7103
sei	7104
sapká	7105
onti	7106
##oper	7107
elyi	7108
melé	7109
ántsz	7110
tomb	7111
gálá	7112
zámo	7113
léle	7114
conom	7115
petá	7116
xviii	7117
aal	7118
aab	7119
bog	7120
eol	7121
fák	7122
kná	7123
pör	7124
vv	7125
áta	7126
##uy	7127
##fb	7128
egyhá	7129
lej	7130
anka	7131
árban	7132
áruk	7133
terr	7134
iné	7135
lását	7136
mác	7137
ouch	7138
ágó	7139
joe	7140
tiné	7141
ppe	7142
obrá	7143
patká	7144
xiii	7145
nbc	7146
bénu	7147
lízin	7148
lot	7149
lma	7150
nés	7151
pum	7152
sag	7153
őző	7154
##öm	7155
##lor	7156
ella	7157
alb	7158
gyér	7159
gymá	7160
amel	7161
ador	7162
##ada	7163
nif	7164
öse	7165
egl	7166
vii	7167
avan	7168
lőn	7169
eib	7170
stone	7171
bojk	7172
leté	7173
senk	7174
agda	7175
lapjá	7176
tagj	7177
özbe	7178
filme	7179
sked	7180
urt	7181
éggel	7182
fix	7183
rome	7184
kább	7185
lash	7186
xix	7187
##lio	7188
ávol	7189
gála	7190
eréb	7191
cdu	7192
fmm	7193
spóro	7194
lila	7195
bát	7196
bró	7197
gért	7198
hm	7199
nr	7200
onk	7201
pcs	7202
war	7203
áho	7204
##cd	7205
egyén	7206
teva	7207
törés	7208
asm	7209
ulaj	7210
rimer	7211
épek	7212
lőbb	7213
tását	7214
ima	7215
skand	7216
égre	7217
nfo	7218
aylor	7219
remen	7220
adic	7221
edése	7222
órhá	7223
morzs	7224
atya	7225
oecd	7226
ompuy	7227
iesta	7228
átrai	7229
cat	7230
gla	7231
iány	7232
mama	7233
ois	7234
sín	7235
sátor	7236
vt	7237
yun	7238
őf	7239
őnek	7240
##íd	7241
##pán	7242
##yer	7243
elne	7244
egymá	7245
etra	7246
ats	7247
atin	7248
erra	7249
arom	7250
nice	7251
ray	7252
áték	7253
íte	7254
ase	7255
egít	7256
ntő	7257
bau	7258
apok	7259
avá	7260
llí	7261
eisz	7262
kezdő	7263
lyok	7264
tate	7265
kun	7266
ődö	7267
zacs	7268
tójá	7269
mob	7270
pred	7271
elvét	7272
zerző	7273
deme	7274
230	7275
lves	7276
orris	7277
lazí	7278
ermo	7279
ydney	7280
layb	7281
sugar	7282
bv	7283
bis	7284
jek	7285
lbá	7286
mny	7287
máz	7288
pír	7289
öki	7290
##ór	7291
##tu	7292
##esz	7293
elbou	7294
misz	7295
ekü	7296
esít	7297
tökö	7298
ute	7299
##rov	7300
olya	7301
abe	7302
buta	7303
lyn	7304
age	7305
endez	7306
karc	7307
kent	7308
oport	7309
ősség	7310
nob	7311
220	7312
dése	7313
táli	7314
alter	7315
gombá	7316
sétá	7317
théni	7318
lbász	7319
ece	7320
káz	7321
sn	7322
ütö	7323
##osz	7324
##ye	7325
szes	7326
etz	7327
enry	7328
##ika	7329
ottá	7330
álla	7331
intr	7332
amis	7333
##cse	7334
áthat	7335
igan	7336
oman	7337
abd	7338
buj	7339
estü	7340
biol	7341
rtő	7342
ályá	7343
entel	7344
lások	7345
klic	7346
ssi	7347
ágr	7348
porsó	7349
ling	7350
bébi	7351
shi	7352
lkész	7353
kola	7354
yerek	7355
ocus	7356
rizs	7357
amuel	7358
mberi	7359
kvóta	7360
vpop	7361
aar	7362
eus	7363
eszá	7364
iet	7365
lős	7366
tort	7367
zaz	7368
óh	7369
őb	7370
##bel	7371
szély	7372
azai	7373
alle	7374
ole	7375
akam	7376
gyúr	7377
tech	7378
tehe	7379
raf	7380
bubor	7381
tanf	7382
rix	7383
ülne	7384
propó	7385
rtek	7386
liu	7387
ályán	7388
síp	7389
lju	7390
duz	7391
ibé	7392
puská	7393
ncsé	7394
240	7395
lomb	7396
yeng	7397
lame	7398
astra	7399
öntő	7400
fxe	7401
ature	7402
kajak	7403
anyám	7404
aids	7405
naiv	7406
mnyp	7407
aszo	7408
dh	7409
kand	7410
sán	7411
uft	7412
##ver	7413
##sk	7414
orp	7415
utott	7416
áng	7417
tav	7418
egi	7419
hián	7420
itk	7421
főt	7422
lyos	7423
réb	7424
óká	7425
lenőr	7426
ényeg	7427
mati	7428
ehető	7429
fáj	7430
mcd	7431
zámít	7432
iáll	7433
94	7434
dúl	7435
oug	7436
pí	7437
pm	7438
sit	7439
vék	7440
völ	7441
##ík	7442
##lin	7443
nyv	7444
álna	7445
etős	7446
kir	7447
bec	7448
adr	7449
ségei	7450
oza	7451
ajvan	7452
apó	7453
rio	7454
agd	7455
onte	7456
önös	7457
özö	7458
usan	7459
krom	7460
acz	7461
lekt	7462
áldo	7463
ionel	7464
rület	7465
incze	7466
lefo	7467
repül	7468
kgfb	7469
pref	7470
űleg	7471
aiser	7472
ufth	7473
f1	7474
gít	7475
ié	7476
iq	7477
jim	7478
kaze	7479
map	7480
mcs	7481
pv	7482
tát	7483
ugy	7484
vw	7485
yés	7486
zug	7487
óva	7488
elíd	7489
okor	7490
erni	7491
iki	7492
áth	7493
asda	7494
eda	7495
ahn	7496
lice	7497
laki	7498
tűr	7499
osztá	7500
láss	7501
tője	7502
duó	7503
lou	7504
toc	7505
róbá	7506
bágy	7507
kóru	7508
piszt	7509
piszk	7510
porno	7511
lige	7512
zések	7513
ratif	7514
ierre	7515
tigl	7516
skála	7517
dakar	7518
postá	7519
austr	7520
midt	7521
völgy	7522
asdaq	7523
97	7524
dami	7525
eer	7526
fát	7527
gva	7528
ieg	7529
ied	7530
jp	7531
jto	7532
lai	7533
ook	7534
vest	7535
óni	7536
ödi	7537
##uz	7538
##sh	7539
szág	7540
eze	7541
alok	7542
eké	7543
erű	7544
erén	7545
ols	7546
állá	7547
amsu	7548
once	7549
dep	7550
áter	7551
kond	7552
inne	7553
ozs	7554
mási	7555
kéte	7556
edin	7557
őrs	7558
szakm	7559
ciál	7560
apj	7561
irkó	7562
roy	7563
ndé	7564
nkh	7565
box	7566
ahm	7567
ciój	7568
lenn	7569
lássa	7570
áraó	7571
eller	7572
orvai	7573
dur	7574
rud	7575
ickó	7576
evez	7577
komp	7578
kac	7579
lgá	7580
bukar	7581
stoba	7582
avari	7583
550	7584
gps	7585
##phy	7586
hf6	7587
aréná	7588
tortá	7589
aú	7590
bat	7591
bbe	7592
cru	7593
dot	7594
eig	7595
hg	7596
sam	7597
ucs	7598
vh	7599
wan	7600
észe	7601
##rin	7602
##űr	7603
azin	7604
ködés	7605
etw	7606
erik	7607
ernek	7608
erve	7609
olk	7610
arb	7611
oroz	7612
nij	7613
nich	7614
##ute	7615
telé	7616
kapar	7617
aiff	7618
laus	7619
bac	7620
bisz	7621
itat	7622
nálj	7623
dier	7624
anyát	7625
néma	7626
özül	7627
sim	7628
iper	7629
nyij	7630
lobe	7631
öké	7632
alka	7633
kaszá	7634
fekt	7635
lotta	7636
sós	7637
210	7638
nbh	7639
kabri	7640
gomi	7641
hxd	7642
ancia	7643
ascal	7644
akamu	7645
eop	7646
gem	7647
gki	7648
hán	7649
jer	7650
nja	7651
pin	7652
pis	7653
taz	7654
íván	7655
egysz	7656
alp	7657
aldo	7658
gyep	7659
gyelm	7660
intim	7661
arka	7662
onna	7663
uti	7664
edel	7665
irá	7666
rice	7667
tásba	7668
ékbe	7669
sep	7670
ciók	7671
lást	7672
említ	7673
kenu	7674
arco	7675
tapin	7676
ström	7677
ffy	7678
ihlet	7679
traf	7680
lámpá	7681
sárgá	7682
áfa	7683
yelv	7684
zord	7685
énztá	7686
mfesz	7687
limpi	7688
auren	7689
pajzs	7690
onka	7691
sánc	7692
bély	7693
evel	7694
iró	7695
lanc	7696
pú	7697
tnak	7698
éf	7699
##yd	7700
##win	7701
szít	7702
##ana	7703
nyuká	7704
##old	7705
alin	7706
oker	7707
rei	7708
rent	7709
ega	7710
babo	7711
cib	7712
józs	7713
odr	7714
ahl	7715
agán	7716
öldi	7717
ládá	7718
sang	7719
anti	7720
redit	7721
ultin	7722
ősé	7723
pór	7724
lfog	7725
purs	7726
linz	7727
monox	7728
sszef	7729
lavin	7730
cds	7731
lízis	7732
aréna	7733
kazah	7734
3d	7735
dog	7736
gott	7737
lr	7738
lba	7739
mak	7740
oi	7741
slat	7742
yt	7743
öp	7744
##kin	7745
##bz	7746
##ram	7747
##des	7748
álmá	7749
atas	7750
olin	7751
legye	7752
##ili	7753
ltic	7754
oms	7755
viii	7756
ajl	7757
odnár	7758
diétá	7759
marha	7760
zők	7761
arma	7762
kte	7763
aud	7764
zava	7765
ztatá	7766
tók	7767
ágon	7768
rúd	7769
totá	7770
ölts	7771
rati	7772
sáról	7773
efe	7774
öntö	7775
rátá	7776
##ucc	7777
(!	7778
dx	7779
haif	7780
iha	7781
khl	7782
méz	7783
pok	7784
uf	7785
witz	7786
zemb	7787
ücs	7788
##zl	7789
##sd	7790
##hh	7791
##ore	7792
köv	7793
enna	7794
eske	7795
ikó	7796
anny	7797
aden	7798
adha	7799
orba	7800
legal	7801
inde	7802
ilba	7803
abucc	7804
ciá	7805
alapj	7806
soka	7807
ity	7808
epül	7809
dij	7810
lisz	7811
ental	7812
gyűr	7813
evro	7814
tbl	7815
bili	7816
afe	7817
kmén	7818
efo	7819
yard	7820
vásá	7821
birkó	7822
rrel	7823
mbul	7824
ncy	7825
tumor	7826
oeb	7827
klah	7828
smind	7829
dása	7830
enoa	7831
(!)	7832
dúr	7833
gadt	7834
hős	7835
mék	7836
nhe	7837
piz	7838
pony	7839
ráb	7840
tlag	7841
xv	7842
yilk	7843
zv	7844
őre	7845
##cu	7846
##ió	7847
szú	7848
szad	7849
##ald	7850
alis	7851
alló	7852
ethet	7853
lecht	7854
ance	7855
gyo	7856
töz	7857
arti	7858
tea	7859
étsz	7860
szty	7861
egen	7862
iron	7863
ndö	7864
llal	7865
span	7866
anyák	7867
##uma	7868
utah	7869
##inté	7870
usb	7871
randi	7872
urphy	7873
ngo	7874
fides	7875
rosb	7876
evge	7877
rdan	7878
rdek	7879
ákk	7880
sach	7881
thén	7882
ecur	7883
sóz	7884
gomb	7885
razzi	7886
nmhh	7887
rezid	7888
roth	7889
playo	7890
cxd	7891
agdad	7892
epülő	7893
big	7894
eart	7895
jaj	7896
kp	7897
lkö	7898
lse	7899
lutá	7900
mba	7901
pell	7902
sáb	7903
sna	7904
tne	7905
uv	7906
vaj	7907
zinté	7908
##zo	7909
##kí	7910
##ré	7911
##ímá	7912
##fs	7913
atri	7914
érg	7915
aké	7916
##adi	7917
foga	7918
ttel	7919
abor	7920
rius	7921
llis	7922
ode	7923
letét	7924
letén	7925
vezés	7926
tetet	7927
álato	7928
latba	7929
dono	7930
hark	7931
auri	7932
icz	7933
ehez	7934
malá	7935
sao	7936
kocka	7937
nyeft	7938
thlet	7939
gálán	7940
eroin	7941
grád	7942
rassó	7943
atyá	7944
oyce	7945
lcd	7946
fxf	7947
ársas	7948
etyka	7949
kaka	7950
jüan	7951
torzí	7952
mória	7953
pumpá	7954
d5	7955
een	7956
kx	7957
oen	7958
oan	7959
ocz	7960
plen	7961
plan	7962
rmá	7963
tuti	7964
wen	7965
yor	7966
##uer	7967
##cze	7968
##dy	7969
##mm	7970
isney	7971
álá	7972
mix	7973
eski	7974
erki	7975
bea	7976
anni	7977
oren	7978
vecs	7979
tabe	7980
askó	7981
tári	7982
law	7983
itu	7984
épz	7985
row	7986
sorb	7987
nker	7988
list	7989
ábo	7990
ábry	7991
agát	7992
árdai	7993
ipod	7994
fide	7995
loyd	7996
eszer	7997
105	7998
torná	7999
túró	8000
kau	8001
kacsa	8002
mere	8003
pannó	8004
pav	8005
eléb	8006
regen	8007
ejel	8008
heo	8009
rnold	8010
immy	8011
ebesz	8012
rass	8013
bxd	8014
650	8015
ocsai	8016
hxg	8017
izzad	8018
zítés	8019
ponyá	8020
but	8021
bas	8022
bri	8023
dott	8024
kuk	8025
lnök	8026
nam	8027
ooper	8028
yü	8029
yak	8030
yim	8031
zot	8032
öcs	8033
##pu	8034
##yn	8035
##nyá	8036
##ese	8037
emin	8038
iké	8039
adhat	8040
teré	8041
kerá	8042
bicz	8043
ámog	8044
teket	8045
ndk	8046
llet	8047
meh	8048
odro	8049
ékó	8050
andro	8051
ktr	8052
acer	8053
aura	8054
ezése	8055
runo	8056
tói	8057
icag	8058
even	8059
opin	8060
unami	8061
lera	8062
ántor	8063
176	8064
adio	8065
owl	8066
ower	8067
asági	8068
áriá	8069
arah	8070
zeb	8071
orsen	8072
bxe	8073
##ctr	8074
gymás	8075
aúdi	8076
eople	8077
plená	8078
pavil	8079
aq	8080
aúd	8081
dsz	8082
déz	8083
evé	8084
hort	8085
mvm	8086
rba	8087
ónap	8088
ünte	8089
##uel	8090
##of	8091
##út	8092
##wa	8093
szír	8094
azs	8095
enit	8096
erbe	8097
ikt	8098
aru	8099
addi	8100
nix	8101
osh	8102
##iss	8103
nea	8104
áná	8105
omez	8106
izg	8107
##roc	8108
lac	8109
##miá	8110
aps	8111
iram	8112
ndez	8113
llás	8114
jánl	8115
zóna	8116
lij	8117
vere	8118
onty	8119
özös	8120
told	8121
auch	8122
múz	8123
ick	8124
ákó	8125
totí	8126
aft	8127
iblio	8128
rsá	8129
argo	8130
suv	8131
séf	8132
amaha	8133
immer	8134
kresz	8135
tréfá	8136
ohan	8137
ausch	8138
lark	8139
izzó	8140
trade	8141
píté	8142
atson	8143
dhat	8144
eor	8145
fdp	8146
pul	8147
vs	8148
vik	8149
vben	8150
zhet	8151
övet	8152
̋a	8153
##eb	8154
##ij	8155
elu	8156
hot	8157
##aru	8158
ezo	8159
etke	8160
kie	8161
tein	8162
nica	8163
utan	8164
inni	8165
inje	8166
asco	8167
tárcs	8168
uly	8169
able	8170
bugyi	8171
hane	8172
majom	8173
ogd	8174
mád	8175
aco	8176
vist	8177
evil	8178
befe	8179
opper	8180
ultik	8181
mali	8182
vélem	8183
kanál	8184
ldás	8185
ivo	8186
thaif	8187
tmz	8188
dina	8189
mcg	8190
260	8191
sodi	8192
meter	8193
rizi	8194
nitor	8195
paksi	8196
queen	8197
ernád	8198
iköz	8199
hart	8200
kw	8201
kna	8202
m1	8203
sns	8204
uál	8205
uid	8206
zes	8207
##rí	8208
elül	8209
erna	8210
##óle	8211
ange	8212
inta	8213
into	8214
arre	8215
árú	8216
ltá	8217
lti	8218
átiá	8219
nep	8220
taal	8221
asmi	8222
egé	8223
abu	8224
párto	8225
ritt	8226
itne	8227
döm	8228
llem	8229
nki	8230
örn	8231
mére	8232
aht	8233
tatá	8234
ontpe	8235
ájába	8236
erdin	8237
pres	8238
ardv	8239
túsz	8240
pof	8241
iber	8242
ületi	8243
tino	8244
tomp	8245
ther	8246
175	8247
hew	8248
lkép	8249
sun	8250
supán	8251
ifej	8252
móriá	8253
ache	8254
anuc	8255
tálal	8256
280	8257
stein	8258
unday	8259
rugó	8260
tléta	8261
sört	8262
vfl	8263
fkf	8264
iállí	8265
aúl	8266
bba	8267
cti	8268
e6	8269
fúr	8270
gatt	8271
gri	8272
pert	8273
zát	8274
zagy	8275
önte	8276
őm	8277
##ög	8278
szla	8279
köny	8280
hony	8281
miép	8282
alc	8283
ery	8284
leon	8285
lectr	8286
##ile	8287
teine	8288
jabb	8289
jahu	8290
rac	8291
éln	8292
agyt	8293
otal	8294
inzu	8295
étv	8296
taka	8297
dön	8298
hozz	8299
lőző	8300
pers	8301
iac	8302
baro	8303
ranz	8304
nged	8305
nyir	8306
ekke	8307
aced	8308
run	8309
ruce	8310
ehé	8311
einz	8312
afé	8313
ugló	8314
nyeck	8315
ppo	8316
ecc	8317
ivata	8318
ömeg	8319
zési	8320
séta	8321
ashto	8322
acht	8323
ubaru	8324
ácso	8325
ránc	8326
340	8327
pete	8328
fxd	8329
you	8330
ather	8331
prah	8332
ltrah	8333
boka	8334
bbb	8335
dg	8336
dad	8337
eet	8338
gbe	8339
hp	8340
ilt	8341
lje	8342
mv	8343
nag	8344
oor	8345
sg	8346
wrc	8347
yk	8348
zág	8349
ővel	8350
##av	8351
##af	8352
##kú	8353
##ble	8354
##mén	8355
##wig	8356
nyü	8357
ezh	8358
ezmén	8359
mics	8360
enja	8361
esp	8362
anal	8363
inth	8364
arner	8365
adn	8366
##omi	8367
árgy	8368
oswo	8369
szász	8370
rail	8371
kobo	8372
éte	8373
edez	8374
##oth	8375
nty	8376
ntum	8377
olyt	8378
pedi	8379
apóle	8380
bim	8381
rigye	8382
itán	8383
itute	8384
kalá	8385
lóri	8386
lőj	8387
spur	8388
ogra	8389
elmű	8390
ményt	8391
tottá	8392
szabá	8393
anda	8394
andal	8395
skó	8396
dow	8397
áján	8398
lmes	8399
tox	8400
alax	8401
rót	8402
bileu	8403
ború	8404
erner	8405
mería	8406
ádor	8407
delé	8408
lábas	8409
sarká	8410
lké	8411
rémü	8412
ryan	8413
erth	8414
pszer	8415
radic	8416
iang	8417
apper	8418
astro	8419
quin	8420
atyer	8421
gyám	8422
etafe	8423
licit	8424
ikerü	8425
adará	8426
pólu	8427
deg	8428
gro	8429
ivar	8430
iwi	8431
nnep	8432
out	8433
pep	8434
pand	8435
púr	8436
sre	8437
uer	8438
uzs	8439
ws	8440
íne	8441
öre	8442
##óc	8443
##rad	8444
##hr	8445
##yk	8446
##ets	8447
iseg	8448
banán	8449
##ong	8450
anác	8451
felet	8452
gyv	8453
amon	8454
adot	8455
orne	8456
##agó	8457
ltán	8458
rah	8459
raci	8460
átri	8461
valy	8462
##lle	8463
oth	8464
egsz	8465
omv	8466
izár	8467
nten	8468
abro	8469
ablo	8470
ráf	8471
bio	8472
éné	8473
avel	8474
eim	8475
spd	8476
epe	8477
##cea	8478
minó	8479
ssal	8480
édel	8481
ardy	8482
102	8483
galma	8484
kaot	8485
puska	8486
meder	8487
ltatá	8488
djia	8489
bxa	8490
ienna	8491
vfb	8492
lobal	8493
téne	8494
odrig	8495
pellá	8496
uido	8497
auk	8498
bsz	8499
far	8500
icsi	8501
mom	8502
nar	8503
nác	8504
oé	8505
piká	8506
yeg	8507
zh	8508
zemé	8509
zep	8510
öul	8511
üri	8512
őg	8513
ődi	8514
##gu	8515
szm	8516
szim	8517
##szi	8518
azo	8519
##emo	8520
hof	8521
álo	8522
álas	8523
enet	8524
okta	8525
essa	8526
lein	8527
csin	8528
emén	8529
ams	8530
arat	8531
oran	8532
rawn	8533
igany	8534
##rav	8535
neon	8536
asin	8537
asim	8538
eges	8539
egin	8540
ommer	8541
tali	8542
##ázs	8543
ntö	8544
##ova	8545
őrin	8546
hisze	8547
itd	8548
épás	8549
kalci	8550
meets	8551
entet	8552
maszk	8553
ning	8554
észk	8555
kamer	8556
atty	8557
klő	8558
chu	8559
engu	8560
pucé	8561
leme	8562
ueen	8563
anató	8564
zúd	8565
lábán	8566
sarki	8567
ogató	8568
lada	8569
ladb	8570
eyer	8571
mado	8572
búza	8573
mete	8574
320	8575
bako	8576
öntés	8577
lazma	8578
bxf	8579
lhas	8580
zűr	8581
hxe	8582
ccse	8583
hc6	8584
pohar	8585
ődöt	8586
aczkó	8587
ilbao	8588
kakaó	8589
iwiw	8590
),	8591
bago	8592
cig	8593
df	8594
dű	8595
eas	8596
eyen	8597
fül	8598
gfk	8599
hsc	8600
pam	8601
rda	8602
rze	8603
ród	8604
rley	8605
zál	8606
íc	8607
íme	8608
öszö	8609
##bc	8610
##lon	8611
szemé	8612
elá	8613
alina	8614
atba	8615
erri	8616
ereke	8617
akás	8618
akon	8619
akas	8620
anitá	8621
ree	8622
ormu	8623
idd	8624
idá	8625
terí	8626
otka	8627
omol	8628
tára	8629
edet	8630
nton	8631
ajká	8632
abs	8633
apat	8634
itál	8635
rty	8636
roh	8637
ogi	8638
ogad	8639
ognár	8640
lich	8641
lick	8642
lisa	8643
kult	8644
##ódé	8645
karus	8646
özve	8647
röm	8648
urto	8649
ngari	8650
lath	8651
udwig	8652
uncze	8653
rúzi	8654
ombi	8655
##kay	8656
lovag	8657
zzá	8658
pink	8659
pipá	8660
toná	8661
alli	8662
trav	8663
135	8664
utatá	8665
eccse	8666
ólom	8667
gárd	8668
ieber	8669
ievo	8670
obal	8671
axis	8672
ancy	8673
radio	8674
mcf	8675
arré	8676
bóv	8677
ijón	8678
alvó	8679
fxc	8680
vxc	8681
ársai	8682
atlé	8683
átyja	8684
elepü	8685
marty	8686
rooke	8687
sachs	8688
eorg	8689
leonó	8690
adnót	8691
bimbó	8692
c5	8693
cf	8694
ces	8695
dab	8696
eep	8697
gnek	8698
kagy	8699
lp	8700
lbe	8701
mek	8702
mág	8703
nába	8704
réd	8705
vénye	8706
zda	8707
ökö	8708
öuli	8709
őn	8710
##ís	8711
##sv	8712
azah	8713
álak	8714
álaga	8715
alf	8716
ekf	8717
atra	8718
okak	8719
erse	8720
gyet	8721
töp	8722
amy	8723
idak	8724
teria	8725
otond	8726
astor	8727
ajc	8728
iri	8729
risz	8730
itro	8731
ámad	8732
rtan	8733
liban	8734
licz	8735
enta	8736
kup	8737
##ódi	8738
macs	8739
grár	8740
trán	8741
siett	8742
cho	8743
urná	8744
udni	8745
nac	8746
rupo	8747
rubel	8748
komo	8749
ardin	8750
opal	8751
ankó	8752
mato	8753
pac	8754
zász	8755
165	8756
115	8757
béta	8758
heen	8759
upp	8760
gárdi	8761
patin	8762
xiv	8763
mily	8764
275	8765
mcq	8766
ráng	8767
bús	8768
stoc	8769
metál	8770
orres	8771
dene	8772
richt	8773
anadi	8774
etyká	8775
maced	8776
cbs	8777
kakas	8778
tript	8779
tompí	8780
zágrá	8781
ürich	8782
bóvli	8783
--	8784
bul	8785
dc	8786
dis	8787
dre	8788
eje	8789
fra	8790
gve	8791
jr	8792
ji	8793
jtó	8794
kz	8795
mab	8796
mest	8797
oep	8798
pö	8799
rép	8800
sben	8801
yu	8802
ászt	8803
ége	8804
öbl	8805
úg	8806
úri	8807
##nov	8808
##mar	8809
##ger	8810
elta	8811
ésü	8812
hog	8813
altat	8814
enov	8815
ekte	8816
ásta	8817
erta	8818
akkó	8819
otth	8820
gyin	8821
araj	8822
arki	8823
árdá	8824
idney	8825
átrá	8826
##utu	8827
##reb	8828
nec	8829
egál	8830
vann	8831
omán	8832
airó	8833
lah	8834
ttu	8835
ulz	8836
bund	8837
itka	8838
épv	8839
épzel	8840
rou	8841
ndent	8842
spor	8843
mei	8844
öré	8845
epa	8846
aszka	8847
agne	8848
itter	8849
tamk	8850
uso	8851
kamu	8852
ktő	8853
elyek	8854
krat	8855
urd	8856
urál	8857
harma	8858
##hoo	8859
zav	8860
róm	8861
boro	8862
geng	8863
arcus	8864
lovak	8865
panth	8866
porc	8867
rgen	8868
shop	8869
sarka	8870
repe	8871
gában	8872
llah	8873
lusta	8874
veke	8875
orga	8876
achi	8877
ácsik	8878
265	8879
mániá	8880
natko	8881
apid	8882
rizzl	8883
awai	8884
imázs	8885
akay	8886
yanús	8887
paktu	8888
dams	8889
xvii	8890
uanda	8891
króm	8892
ntag	8893
arvik	8894
eidu	8895
etano	8896
rozsd	8897
dxc	8898
zebrá	8899
evils	8900
ction	8901
eyeno	8902
ródy	8903
//	8904
eot	8905
fan	8906
iam	8907
nze	8908
oel	8909
pik	8910
pát	8911
ping	8912
tég	8913
tdi	8914
zr	8915
zén	8916
ője	8917
##ty	8918
##gor	8919
##ena	8920
##nta	8921
alik	8922
késel	8923
csán	8924
##edi	8925
ikva	8926
etta	8927
arle	8928
ads	8929
##ome	8930
idane	8931
raig	8932
átia	8933
##ise	8934
otel	8935
##cid	8936
asp	8937
ases	8938
asbou	8939
egek	8940
bah	8941
ztj	8942
buzz	8943
apí	8944
hetős	8945
itor	8946
itsu	8947
major	8948
kaló	8949
##seu	8950
ékben	8951
pole	8952
teng	8953
mosdó	8954
agos	8955
ontol	8956
karit	8957
andid	8958
rant	8959
égő	8960
aure	8961
yahoo	8962
ányo	8963
tore	8964
daru	8965
meló	8966
manu	8967
mpon	8968
rgan	8969
168	8970
arga	8971
ackó	8972
190	8973
geol	8974
tusk	8975
##lie	8976
aléka	8977
scak	8978
kabar	8979
nath	8980
insp	8981
ixel	8982
erjes	8983
iasat	8984
akaó	8985
hxc	8986
pako	8987
sarkv	8988
uana	8989
fúzi	8990
dekl	8991
bika	8992
dögl	8993
bagbo	8994
shire	8995
ahmúd	8996
ahtar	8997
awaii	8998
04	8999
a6	9000
bse	9001
bsc	9002
bódé	9003
dró	9004
déd	9005
gte	9006
jama	9007
ksze	9008
lügy	9009
not	9010
ocsá	9011
ohl	9012
py	9013
rri	9014
rma	9015
sr	9016
tfő	9017
uel	9018
vít	9019
wat	9020
zelő	9021
zhe	9022
áad	9023
éme	9024
##bé	9025
##rg	9026
##jan	9027
szc	9028
szv	9029
##ens	9030
aze	9031
nyin	9032
##ard	9033
ezé	9034
atroc	9035
okf	9036
esa	9037
eró	9038
erci	9039
otty	9040
etts	9041
etti	9042
arh	9043
arci	9044
arne	9045
arac	9046
rev	9047
recht	9048
adul	9049
oncz	9050
oste	9051
idal	9052
áto	9053
##niá	9054
ségü	9055
oty	9056
ild	9057
babá	9058
irg	9059
ponty	9060
ndék	9061
ndít	9062
lleg	9063
sorá	9064
döntö	9065
ázmá	9066
lyó	9067
táska	9068
odrá	9069
limi	9070
konom	9071
életé	9072
endv	9073
ingó	9074
obby	9075
karu	9076
cht	9077
chus	9078
szoc	9079
zeng	9080
égb	9081
rosa	9082
rost	9083
udj	9084
zlet	9085
orbes	9086
opez	9087
geno	9088
etése	9089
ibm	9090
ennis	9091
ápol	9092
fina	9093
owbo	9094
gese	9095
astin	9096
deflá	9097
ramo	9098
petes	9099
kúsz	9100
rvo	9101
dose	9102
fmh	9103
eruz	9104
texas	9105
átyi	9106
tlétá	9107
béna	9108
irror	9109
aguar	9110
rapid	9111
cruz	9112
záll	9113
áadás	9114
aig	9115
aast	9116
bato	9117
can	9118
cagó	9119
dú	9120
h6	9121
jaz	9122
kít	9123
lmé	9124
lhe	9125
lván	9126
oós	9127
rond	9128
ses	9129
yem	9130
zez	9131
##jo	9132
##nik	9133
sző	9134
azán	9135
##ora	9136
köp	9137
nyig	9138
megál	9139
mig	9140
onan	9141
raun	9142
máriá	9143
kony	9144
ilk	9145
zön	9146
abul	9147
cion	9148
buz	9149
rib	9150
rier	9151
##uka	9152
ndel	9153
vona	9154
örs	9155
life	9156
konf	9157
agó	9158
over	9159
mayer	9160
kele	9161
ordí	9162
klímá	9163
elyn	9164
eith	9165
dult	9166
logy	9167
tségé	9168
braz	9169
icc	9170
eteor	9171
áky	9172
tork	9173
torzu	9174
ősö	9175
ősen	9176
zzuk	9177
say	9178
izmo	9179
ions	9180
ritká	9181
rill	9182
linu	9183
tini	9184
111	9185
185	9186
argó	9187
trau	9188
arifá	9189
pecs	9190
erry	9191
eyn	9192
hason	9193
roni	9194
rnok	9195
sych	9196
zombi	9197
ürg	9198
atyja	9199
gyáva	9200
nyakk	9201
vxd	9202
ujza	9203
béka	9204
póli	9205
acqui	9206
ökőár	9207
maple	9208
kacag	9209
zezon	9210
a3	9211
aál	9212
baz	9213
dne	9214
eek	9215
gis	9216
hrow	9217
kto	9218
m2	9219
nős	9220
oon	9221
pele	9222
rrá	9223
sbe	9224
uny	9225
uiz	9226
vr	9227
vm	9228
wim	9229
zól	9230
zdá	9231
öle	9232
##pp	9233
##ps	9234
##pf	9235
##vó	9236
##szh	9237
##aná	9238
ezér	9239
enos	9240
enve	9241
enjá	9242
kén	9243
oke	9244
leas	9245
##ost	9246
anar	9247
gyf	9248
amv	9249
arin	9250
aras	9251
reak	9252
adil	9253
adna	9254
onrad	9255
teau	9256
lts	9257
##ist	9258
inő	9259
été	9260
##cio	9261
egí	9262
egna	9263
vább	9264
ajcs	9265
basz	9266
abuli	9267
ötty	9268
roos	9269
eich	9270
tásra	9271
zsu	9272
perto	9273
lier	9274
auti	9275
entai	9276
tenn	9277
tenst	9278
kuru	9279
ovo	9280
imb	9281
öncz	9282
óki	9283
iaco	9284
őkap	9285
grin	9286
trom	9287
andár	9288
ellu	9289
ordít	9290
tolv	9291
udán	9292
rund	9293
kötel	9294
ouatt	9295
arden	9296
orbás	9297
aine	9298
pool	9299
poszt	9300
manga	9301
124	9302
yörg	9303
arku	9304
ritz	9305
each	9306
eafs	9307
arty	9308
ejtet	9309
wich	9310
lemmá	9311
zere	9312
mmk	9313
diká	9314
sarc	9315
óliá	9316
225	9317
eddy	9318
rkel	9319
rigád	9320
arsh	9321
330	9322
zülő	9323
sugár	9324
fhb	9325
nowbo	9326
eiszd	9327
aukee	9328
oémi	9329
arréb	9330
drót	9331
brazí	9332
bek	9333
bont	9334
cop	9335
e5	9336
fy	9337
mri	9338
nett	9339
rum	9340
rrow	9341
rwin	9342
sély	9343
tjá	9344
wba	9345
wti	9346
wbo	9347
yán	9348
yte	9349
##íg	9350
##ss	9351
##qui	9352
szúr	9353
azany	9354
elz	9355
elke	9356
##ala	9357
##oro	9358
nyei	9359
hou	9360
etség	9361
enno	9362
ekó	9363
kic	9364
kiá	9365
esta	9366
esley	9367
olle	9368
ollá	9369
akul	9370
##ona	9371
anub	9372
aror	9373
arró	9374
arino	9375
nier	9376
niós	9377
jay	9378
ségve	9379
##arte	9380
inder	9381
neij	9382
inog	9383
##éna	9384
##éná	9385
ozin	9386
sztü	9387
asch	9388
omen	9389
talk	9390
ilé	9391
ulzu	9392
abri	9393
bury	9394
dömp	9395
ndok	9396
aver	9397
dísz	9398
stu	9399
stra	9400
disz	9401
agner	9402
anyó	9403
imén	9404
ölc	9405
##rió	9406
marhá	9407
grén	9408
grém	9409
andle	9410
attr	9411
klán	9412
légy	9413
lette	9414
láp	9415
latya	9416
bble	9417
tájé	9418
antó	9419
auro	9420
múmiá	9421
romba	9422
édiká	9423
ict	9424
torká	9425
pász	9426
ugar	9427
rgiz	9428
145	9429
ecz	9430
ogyó	9431
iójá	9432
resc	9433
móz	9434
etője	9435
débb	9436
osító	9437
zomba	9438
ncé	9439
king	9440
##lyá	9441
tast	9442
líra	9443
vxf	9444
850	9445
mogat	9446
káder	9447
teps	9448
gget	9449
lúg	9450
pdate	9451
cati	9452
ieder	9453
arbon	9454
jeru	9455
wsj	9456
neijd	9457
.;	9458
aban	9459
dság	9460
hill	9461
oét	9462
rgy	9463
rno	9464
sw	9465
uá	9466
vse	9467
wta	9468
zas	9469
óny	9470
##oy	9471
##so	9472
##ere	9473
ish	9474
nyál	9475
nyadi	9476
alab	9477
alic	9478
etri	9479
enke	9480
erhe	9481
olan	9482
cskay	9483
##éri	9484
ampá	9485
ambo	9486
aró	9487
aram	9488
reb	9489
adai	9490
oris	9491
árj	9492
árai	9493
idi	9494
idra	9495
dej	9496
kort	9497
kordá	9498
utch	9499
mártá	9500
##máz	9501
aich	9502
edrá	9503
##day	9504
olyá	9505
vip	9506
ajkó	9507
baszk	9508
zter	9509
buc	9510
rima	9511
döng	9512
aven	9513
llát	9514
lőr	9515
spal	9516
star	9517
zetés	9518
zsol	9519
odrav	9520
dire	9521
lind	9522
rév	9523
agan	9524
ovak	9525
ciót	9526
lássá	9527
karik	9528
barna	9529
ipót	9530
klemo	9531
ské	9532
tola	9533
ummer	9534
acc	9535
auf	9536
zauer	9537
mszdp	9538
mszmp	9539
rdé	9540
alkin	9541
unes	9542
borz	9543
tapa	9544
noch	9545
##zso	9546
206	9547
lfo	9548
panat	9549
luc	9550
puszt	9551
ayd	9552
ragh	9553
ejút	9554
ömb	9555
kréta	9556
impre	9557
obcat	9558
272	9559
vénu	9560
lázas	9561
zámí	9562
üss	9563
düb	9564
doma	9565
átrak	9566
áltai	9567
yila	9568
440	9569
530	9570
sola	9571
ádári	9572
ardio	9573
púri	9574
alcon	9575
bam	9576
bány	9577
fáb	9578
héz	9579
hím	9580
ibá	9581
ianc	9582
jug	9583
kól	9584
kott	9585
lü	9586
pódi	9587
rto	9588
sbou	9589
tz	9590
wbc	9591
zia	9592
övi	9593
úny	9594
##ué	9595
##kül	9596
##ow	9597
##lé	9598
##vb	9599
szök	9600
szuk	9601
ezey	9602
aly	9603
alja	9604
alcea	9605
etle	9606
enri	9607
atak	9608
ataki	9609
atwi	9610
ásy	9611
be8	9612
angy	9613
anja	9614
anuá	9615
anage	9616
ettye	9617
arha	9618
arcsi	9619
onom	9620
onas	9621
osch	9622
race	9623
élkül	9624
agyag	9625
nex	9626
tain	9627
##use	9628
aior	9629
ilic	9630
ntar	9631
apas	9632
irk	9633
irm	9634
##chu	9635
riff	9636
ámbó	9637
rtóz	9638
akij	9639
##sev	9640
lőt	9641
eier	9642
ötl	9643
baju	9644
mark	9645
gran	9646
greg	9647
tage	9648
mám	9649
##vic	9650
usd	9651
usta	9652
ippo	9653
ursa	9654
exc	9655
expo	9656
ásty	9657
acki	9658
acram	9659
rish	9660
udás	9661
akadá	9662
kürt	9663
prém	9664
tbc	9665
operá	9666
104	9667
afa	9668
afal	9669
nou	9670
szku	9671
day	9672
ally	9673
panda	9674
linc	9675
remi	9676
soma	9677
avier	9678
mikó	9679
zakó	9680
ivár	9681
112	9682
117	9683
dtak	9684
kasá	9685
geom	9686
scd	9687
astrá	9688
nzi	9689
quil	9690
quare	9691
syma	9692
dych	9693
kg7	9694
timf	9695
wein	9696
nyaka	9697
amui	9698
tabu	9699
ausen	9700
piter	9701
rezg	9702
pakol	9703
eambu	9704
zület	9705
slav	9706
tágab	9707
hbd	9708
bogar	9709
bishi	9710
orpor	9711
kirch	9712
zugló	9713
plant	9714
téglá	9715
mózes	9716
fábiá	9717
únyog	9718
07	9719
a1	9720
cet	9721
cine	9722
doz	9723
dva	9724
eco	9725
eese	9726
gx	9727
iab	9728
jat	9729
kse	9730
kma	9731
kűr	9732
rja	9733
rest	9734
váb	9735
vsc	9736
varte	9737
zán	9738
úga	9739
##zzi	9740
##nf	9741
##lik	9742
##pal	9743
##iu	9744
##ice	9745
##wer	9746
nybe	9747
##nye	9748
alány	9749
etkez	9750
atha	9751
atzi	9752
esc	9753
erne	9754
erzet	9755
érü	9756
bana	9757
amár	9758
amne	9759
arte	9760
arina	9761
orsa	9762
árc	9763
hatat	9764
rasz	9765
hao	9766
kerí	9767
ítván	9768
ozart	9769
asel	9770
értel	9771
vanna	9772
tárg	9773
mage	9774
ttan	9775
euta	9776
aber	9777
irch	9778
műc	9779
rival	9780
rime	9781
stm	9782
stand	9783
letbe	9784
aszal	9785
liv	9786
lias	9787
sikka	9788
sapka	9789
agreb	9790
##riv	9791
önc	9792
lenti	9793
blu	9794
hurt	9795
gren	9796
trand	9797
andi	9798
ippi	9799
lébe	9800
down	9801
kredi	9802
ngm	9803
fe7	9804
tők	9805
duzz	9806
antio	9807
brand	9808
romw	9809
reda	9810
rób	9811
ehm	9812
107	9813
dríg	9814
last	9815
lasg	9816
pofa	9817
nfm	9818
ceb	9819
bkk	9820
118	9821
113	9822
119	9823
oszk	9824
dtm	9825
178	9826
nani	9827
mmka	9828
ector	9829
yir	9830
sógor	9831
lady	9832
212	9833
nóta	9834
eskó	9835
ário	9836
gót	9837
ganz	9838
ssee	9839
szárm	9840
ewi	9841
lazu	9842
rugóz	9843
tumpf	9844
gzett	9845
ikea	9846
vxe	9847
algé	9848
algor	9849
auré	9850
kaja	9851
stons	9852
hys	9853
rácso	9854
babon	9855
dwin	9856
savin	9857
tágas	9858
avant	9859
orenz	9860
pyker	9861
teaua	9862
gregá	9863
>>	9864
a5	9865
acsi	9866
c6	9867
cem	9868
cta	9869
dát	9870
dil	9871
f5	9872
hs	9873
kuká	9874
léd	9875
mam	9876
mme	9877
obe	9878
pdf	9879
rse	9880
uil	9881
xl	9882
xp	9883
yna	9884
zét	9885
##íp	9886
##nj	9887
##my	9888
##hs	9889
##yi	9890
azé	9891
azság	9892
##aly	9893
isher	9894
nyod	9895
nyög	9896
hos	9897
álko	9898
alcz	9899
enis	9900
atag	9901
okz	9902
esne	9903
erít	9904
leh	9905
érez	9906
akta	9907
emat	9908
anom	9909
gyík	9910
arol	9911
adia	9912
áras	9913
idan	9914
ségén	9915
iguel	9916
rendi	9917
tuart	9918
util	9919
utre	9920
teréz	9921
inch	9922
éti	9923
edad	9924
##ots	9925
bae	9926
ztéri	9927
abh	9928
menn	9929
iter	9930
majmo	9931
rtes	9932
amid	9933
spray	9934
kezde	9935
lyt	9936
almo	9937
érdez	9938
pere	9939
veta	9940
rémá	9941
sika	9942
sapa	9943
itty	9944
##opá	9945
ingli	9946
ölk	9947
kérdé	9948
karó	9949
hur	9950
veszé	9951
uscs	9952
ordo	9953
kamrá	9954
kron	9955
plaz	9956
low	9957
naü	9958
abads	9959
erena	9960
rub	9961
tót	9962
éder	9963
alkó	9964
##tio	9965
stag	9966
ultim	9967
kacsá	9968
lovat	9969
ibir	9970
guile	9971
123	9972
nfü	9973
pana	9974
zelé	9975
arten	9976
mpo	9977
gier	9978
rgia	9979
raga	9980
dióta	9981
ártír	9982
134	9983
172	9984
mmár	9985
tarkí	9986
sur	9987
ofron	9988
asso	9989
achu	9990
iere	9991
zíne	9992
kf8	9993
eikki	9994
pkk	9995
onyo	9996
ürd	9997
okrat	9998
atyor	9999
nszk	10000
rovás	10001
léná	10002
iuzzi	10003
auris	10004
text	10005
yllen	10006
dankó	10007
ábban	10008
nhh	10009
gőzer	10010
líva	10011
ynch	10012
apucs	10013
adeb	10014
ledon	10015
earth	10016
ulyka	10017
eryl	10018
wimb	10019
alczó	10020
bák	10021
cv	10022
dős	10023
g6	10024
jar	10025
jdo	10026
mx	10027
mami	10028
pj	10029
pai	10030
pod	10031
rhe	10032
rcz	10033
tony	10034
vül	10035
wt	10036
wart	10037
öde	10038
##ter	10039
##gó	10040
##lu	10041
##fl	10042
szbe	10043
##ant	10044
##áry	10045
isto	10046
ezelő	10047
etal	10048
esm	10049
erno	10050
erbá	10051
olli	10052
##ndo	10053
éren	10054
##ike	10055
arek	10056
ared	10057
arká	10058
arxi	10059
arald	10060
reu	10061
orti	10062
ongy	10063
árká	10064
##csk	10065
lton	10066
osley	10067
átó	10068
áts	10069
##uto	10070
##izz	10071
voln	10072
ozo	10073
ozá	10074
asn	10075
asal	10076
asse	10077
##roe	10078
nté	10079
vivő	10080
ztár	10081
döt	10082
döf	10083
válla	10084
rtá	10085
avít	10086
stel	10087
ogány	10088
ogue	10089
meopá	10090
eprin	10091
diéta	10092
key	10093
kons	10094
réta	10095
siká	10096
ager	10097
ittle	10098
imitá	10099
ingat	10100
eby	10101
ódva	10102
huf	10103
grad	10104
sic	10105
latb	10106
angk	10107
tőt	10108
plus	10109
haro	10110
sérül	10111
antic	10112
rmani	10113
loud	10114
ájko	10115
rdon	10116
róma	10117
oppá	10118
staur	10119
109	10120
born	10121
kavic	10122
órah	10123
ebrd	10124
oster	10125
gurí	10126
nfc	10127
ritás	10128
eau	10129
gio	10130
rses	10131
avigy	10132
188	10133
183	10134
arion	10135
136	10136
ppp	10137
nanke	10138
eck	10139
sdkú	10140
ambia	10141
sót	10142
276	10143
277	10144
adách	10145
rnest	10146
kg8	10147
kgb	10148
lált	10149
dage	10150
vador	10151
290	10152
bánja	10153
unda	10154
nati	10155
ripen	10156
gulá	10157
nnov	10158
lazán	10159
ősebb	10160
420	10161
loká	10162
nyakl	10163
umbai	10164
kh8	10165
pong	10166
géb	10167
fém	10168
yűjt	10169
ópez	10170
pake	10171
vxg	10172
ochau	10173
akult	10174
itzer	10175
babé	10176
béte	10177
retus	10178
asabb	10179
eedom	10180
bvsc	10181
abdu	10182
iege	10183
ozsik	10184
rudak	10185
oczkó	10186
ogdan	10187
grot	10188
cfr	10189
zsolc	10190
ataky	10191
ewitt	10192
aen	10193
aag	10194
aomi	10195
aís	10196
ble	10197
bnp	10198
brov	10199
cy	10200
ctor	10201
duma	10202
iar	10203
ios	10204
ivas	10205
m3	10206
mge	10207
náz	10208
nád	10209
noper	10210
oin	10211
puk	10212
pino	10213
sál	10214
scs	10215
sis	10216
sci	10217
sára	10218
tkö	10219
uon	10220
vre	10221
yé	10222
yko	10223
zert	10224
zló	10225
zari	10226
áká	10227
üm	10228
űen	10229
űsor	10230
##ret	10231
##cá	10232
##lán	10233
##fel	10234
##úh	10235
szsz	10236
szlan	10237
elia	10238
isio	10239
kösz	10240
alez	10241
alfi	10242
etro	10243
eks	10244
ekán	10245
atur	10246
oku	10247
okka	10248
oklin	10249
erap	10250
ergel	10251
eric	10252
lec	10253
csik	10254
akup	10255
emek	10256
emle	10257
fell	10258
ettin	10259
amg	10260
arq	10261
arit	10262
reh	10263
adv	10264
orre	10265
orda	10266
##ins	10267
##ith	10268
nib	10269
valh	10270
terap	10271
##ród	10272
koch	10273
ánam	10274
inb	10275
inné	10276
étf	10277
ozt	10278
öss	10279
sztin	10280
telj	10281
talá	10282
izé	10283
edá	10284
járda	10285
vica	10286
takt	10287
bumm	10288
apta	10289
apuká	10290
muni	10291
hanh	10292
katy	10293
döc	10294
rooy	10295
lóver	10296
avr	10297
hatós	10298
zsiká	10299
odg	10300
odge	10301
elmúl	10302
ahar	10303
lian	10304
lics	10305
sikl	10306
ontag	10307
maf	10308
may	10309
kará	10310
kardo	10311
ipke	10312
próza	10313
skur	10314
láma	10315
kene	10316
bünt	10317
love	10318
áját	10319
múosz	10320
nay	10321
ökség	10322
lme	10323
tobz	10324
azza	10325
icó	10326
ico	10327
evo	10328
enio	10329
moto	10330
prt	10331
irond	10332
rela	10333
mitra	10334
pile	10335
manf	10336
énye	10337
ibaly	10338
ernet	10339
allup	10340
panor	10341
puch	10342
oltay	10343
záh	10344
uga	10345
avies	10346
logat	10347
istel	10348
zerk	10349
erga	10350
ergia	10351
139	10352
ejlon	10353
icskó	10354
turm	10355
seré	10356
short	10357
zése	10358
ryst	10359
ailer	10360
axel	10361
nnye	10362
gere	10363
fali	10364
orgen	10365
gate	10366
scó	10367
górc	10368
elix	10369
cukor	10370
lamok	10371
arren	10372
lází	10373
kf6	10374
oksá	10375
lvis	10376
steig	10377
rágcs	10378
ansas	10379
zabál	10380
rles	10381
gulyá	10382
ndeav	10383
audio	10384
ocke	10385
nonim	10386
tlé	10387
rése	10388
öderá	10389
trans	10390
wwf	10391
vxb	10392
rfo	10393
lipse	10394
rivo	10395
950	10396
ouli	10397
lobog	10398
alant	10399
zembe	10400
mgszh	10401
eeds	10402
audit	10403
pizza	10404
dszsz	10405
raham	10406
bahce	10407
gxf	10408
abhúh	10409
aas	10410
asza	10411
bos	10412
boz	10413
boly	10414
dár	10415
dro	10416
eel	10417
fsv	10418
gitá	10419
gúr	10420
kta	10421
lug	10422
mród	10423
ní	10424
nod	10425
pw	10426
pja	10427
tx	10428
ubo	10429
west	10430
yag	10431
ysev	10432
zny	10433
zvet	10434
íko	10435
üti	10436
ürt	10437
##zen	10438
##ké	10439
##ju	10440
##cli	10441
##mb	10442
##sy	10443
##yj	10444
szká	10445
##eno	10446
elic	10447
##atu	10448
nyes	10449
nyós	10450
ezs	10451
mine	10452
alley	10453
ethe	10454
ench	10455
enei	10456
atkó	10457
atrac	10458
okha	10459
esar	10460
erp	10461
olz	10462
olh	10463
leur	10464
##ánu	10465
emz	10466
otto	10467
gyr	10468
etty	10469
amc	10470
amil	10471
adac	10472
##nkó	10473
##oma	10474
árba	10475
##ite	10476
##agá	10477
nis	10478
évő	10479
idge	10480
igó	10481
iggye	10482
márka	10483
sztet	10484
asan	10485
izot	10486
ilma	10487
ondol	10488
bugy	10489
tanh	10490
irc	10491
mundo	10492
tir	10493
rico	10494
itó	10495
its	10496
rts	10497
rtol	10498
ndam	10499
amir	10500
eij	10501
eip	10502
eidi	10503
nkk	10504
stri	10505
ogram	10506
zór	10507
epsi	10508
odel	10509
sef	10510
leton	10511
érde	10512
lica	10513
itti	10514
ingle	10515
mao	10516
main	10517
ódot	10518
blin	10519
maró	10520
gru	10521
tron	10522
bará	10523
észül	10524
ipo	10525
ello	10526
iszku	10527
ktm	10528
urki	10529
urbo	10530
kót	10531
kóst	10532
tői	10533
pler	10534
ume	10535
foko	10536
duc	10537
antif	10538
udu	10539
ausz	10540
tota	10541
ányba	10542
tón	10543
oun	10544
ound	10545
kür	10546
fts	10547
oph	10548
101	10549
borsó	10550
torta	10551
arcía	10552
155	10553
sax	10554
posz	10555
204	10556
gumi	10557
128	10558
##pac	10559
luj	10560
eav	10561
enyá	10562
rülé	10563
uszin	10564
aypal	10565
fax	10566
alact	10567
rgánu	10568
lema	10569
ejci	10570
thai	10571
kolt	10572
rogr	10573
nslet	10574
193	10575
axb	10576
lade	10577
way	10578
vicz	10579
appy	10580
lamin	10581
medál	10582
kf7	10583
búvó	10584
264	10585
ourke	10586
immo	10587
##bie	10588
metó	10589
rince	10590
rlem	10591
lazáb	10592
ruge	10593
echt	10594
insta	10595
pcc	10596
oya	10597
nyenc	10598
kh7	10599
raian	10600
imnaz	10601
vertá	10602
480	10603
ommy	10604
bona	10605
vxa	10606
höok	10607
rcin	10608
súro	10609
yárt	10610
alder	10611
ariah	10612
bobos	10613
earl	10614
görg	10615
gamma	10616
catio	10617
egíts	10618
ángó	10619
fájás	10620
cruze	10621
pofoz	10622
átrix	10623
arkiv	10624
aspar	10625
ürgen	10626
mámor	10627
ctavi	10628
ánamó	10629
skurz	10630
3g	10631
dnak	10632
dop	10633
fól	10634
hl	10635
jes	10636
jam	10637
luk	10638
lvi	10639
nut	10640
oom	10641
sszo	10642
sum	10643
tobb	10644
uck	10645
wald	10646
wizz	10647
xg	10648
ylan	10649
zde	10650
zuma	10651
ívá	10652
ísér	10653
ógi	10654
üll	10655
##ky	10656
##tk	10657
##mg	10658
##lic	10659
##pt	10660
szaga	10661
##eta	10662
azare	10663
elan	10664
ésar	10665
##ári	10666
nyó	10667
ález	10668
##ola	10669
alim	10670
okas	10671
ástá	10672
esum	10673
erat	10674
lea	10675
akut	10676
akba	10677
##ono	10678
eminá	10679
gysz	10680
##tas	10681
amn	10682
amen	10683
arai	10684
arbo	10685
reat	10686
ream	10687
orcz	10688
##ade	10689
tee	10690
team	10691
ospi	10692
hatch	10693
átog	10694
agyá	10695
rencs	10696
##ize	10697
uter	10698
utio	10699
uther	10700
indle	10701
hab	10702
ots	10703
oter	10704
áner	10705
ánni	10706
iner	10707
ask	10708
aso	10709
asam	10710
asít	10711
asper	10712
rszag	10713
omin	10714
omic	10715
talap	10716
aico	10717
álto	10718
ajk	10719
eum	10720
euf	10721
##ová	10722
ztott	10723
aph	10724
apác	10725
hank	10726
váry	10727
bion	10728
hier	10729
rien	10730
rion	10731
rios	10732
ülé	10733
nőr	10734
kalác	10735
rtúr	10736
eira	10737
oldá	10738
ázel	10739
bod	10740
bodó	10741
zón	10742
örge	10743
lys	10744
jörg	10745
sec	10746
seat	10747
aszás	10748
ke7	10749
kevé	10750
livan	10751
liens	10752
kke	10753
ento	10754
anyj	10755
endri	10756
maci	10757
maxi	10758
marat	10759
tags	10760
ameru	10761
bárká	10762
andor	10763
andik	10764
uskin	10765
ips	10766
ipax	10767
ellin	10768
skin	10769
dobe	10770
ászká	10771
later	10772
latan	10773
angu	10774
ástyá	10775
éger	10776
égez	10777
antr	10778
antro	10779
nav	10780
nautá	10781
rue	10782
oud	10783
ológ	10784
ical	10785
atic	10786
reder	10787
rdu	10788
rdí	10789
prés	10790
kotró	10791
ehf	10792
ulth	10793
szélt	10794
##uble	10795
arcel	10796
lova	10797
mano	10798
mani	10799
csúc	10800
122	10801
121	10802
lufi	10803
ápió	10804
aya	10805
ays	10806
artás	10807
ldus	10808
ézag	10809
lers	10810
regg	10811
ády	10812
ádáz	10813
186	10814
argin	10815
track	10816
traff	10817
ariu	10818
zúg	10819
ejg	10820
mona	10821
adiá	10822
lane	10823
kasi	10824
here	10825
245	10826
off	10827
ious	10828
eriva	10829
búzá	10830
duló	10831
ouré	10832
uczi	10833
zef	10834
auli	10835
izeté	10836
éleon	10837
mkik	10838
lazac	10839
web	10840
domo	10841
awas	10842
awre	10843
bxb	10844
380	10845
iener	10846
pons	10847
lhc	10848
fxb	10849
atrik	10850
rányí	10851
lavia	10852
eiss	10853
aków	10854
átrab	10855
ginla	10856
taxit	10857
680	10858
aach	10859
savak	10860
bites	10861
dörg	10862
boká	10863
áthor	10864
kompr	10865
lobex	10866
dogan	10867
zvén	10868
kpmg	10869
aborc	10870
ogdán	10871
szlav	10872
uerto	10873
őrinc	10874
rohác	10875
eotíp	10876
otyog	10877
stutt	10878
plazm	10879
wartz	10880
!!	10881
a4	10882
bem	10883
bai	10884
c4	10885
cin	10886
cam	10887
dív	10888
f6	10889
fvb	10890
gop	10891
haki	10892
hry	10893
iár	10894
kog	10895
kko	10896
mont	10897
nami	10898
oak	10899
oek	10900
oba	10901
pb	10902
psa	10903
sab	10904
sha	10905
sme	10906
súr	10907
sner	10908
unyi	10909
vu	10910
wc	10911
wig	10912
yert	10913
yep	10914
zsef	10915
ödés	10916
öme	10917
##uve	10918
##zé	10919
##zer	10920
##rk	10921
##jal	10922
##cak	10923
##py	10924
##sp	10925
##iv	10926
##fü	10927
##hc	10928
##úsz	10929
##20	10930
##etá	10931
elügy	10932
nyl	10933
nyad	10934
##nyó	10935
álhat	10936
mege	10937
aldi	10938
alph	10939
alpár	10940
etis	10941
etrá	10942
enat	10943
enség	10944
okna	10945
ásd	10946
ásik	10947
ercz	10948
anád	10949
györ	10950
intu	10951
intá	10952
arcs	10953
arov	10954
artó	10955
reac	10956
adas	10957
orko	10958
orst	10959
árn	10960
árra	10961
nip	10962
nici	10963
rain	10964
raff	10965
átong	10966
ságba	10967
##llu	10968
tube	10969
tuber	10970
teriá	10971
haci	10972
otan	10973
other	10974
ánnyá	10975
inv	10976
sztan	10977
asar	10978
asad	10979
egó	10980
vans	10981
aime	10982
ulin	10983
ajak	10984
ajúd	10985
abel	10986
budá	10987
apáry	10988
mun	10989
ribu	10990
maja	10991
ámbé	10992
kalib	10993
avag	10994
díc	10995
spr	10996
lyag	10997
diu	10998
persz	10999
verly	11000
kuum	11001
kurt	11002
ábra	11003
konne	11004
agja	11005
anyád	11006
ovar	11007
endi	11008
imu	11009
parke	11010
iaci	11011
hun	11012
trat	11013
trik	11014
##lay	11015
inka	11016
zárm	11017
ütty	11018
andur	11019
sion	11020
elli	11021
iszká	11022
rande	11023
láda	11024
toli	11025
ury	11026
urci	11027
uruc	11028
kend	11029
late	11030
latol	11031
plake	11032
umari	11033
szosz	11034
tájak	11035
tems	11036
acto	11037
sser	11038
lojá	11039
ude	11040
udd	11041
tobor	11042
ányt	11043
rombi	11044
azzi	11045
erde	11046
prili	11047
ardco	11048
áklyá	11049
opol	11050
108	11051
borí	11052
ultip	11053
túri	11054
kaszt	11055
kacé	11056
afar	11057
zzi	11058
sah	11059
##zsi	11060
manó	11061
205	11062
ogly	11063
pix	11064
kanna	11065
126	11066
allu	11067
allin	11068
nfe	11069
ritkí	11070
uszk	11071
puff	11072
arton	11073
pack	11074
loga	11075
116	11076
184	11077
icská	11078
ecze	11079
shley	11080
nnita	11081
zést	11082
192	11083
ryllu	11084
ambru	11085
ccaná	11086
nnyad	11087
gerős	11088
orgá	11089
##lip	11090
gatyá	11091
278	11092
ancz	11093
dóm	11094
ierar	11095
ghy	11096
olly	11097
hnato	11098
arrog	11099
aray	11100
ráns	11101
etőj	11102
lorad	11103
htc	11104
mby	11105
quo	11106
ilip	11107
baka	11108
riplá	11109
alien	11110
líti	11111
késik	11112
zob	11113
zof	11114
ermó	11115
375	11116
eane	11117
bxg	11118
abid	11119
inect	11120
cern	11121
voj	11122
vosz	11123
acif	11124
ercu	11125
dama	11126
súcs	11127
ocht	11128
oche	11129
atura	11130
yler	11131
plató	11132
béná	11133
ammut	11134
diver	11135
alcoa	11136
liza	11137
arane	11138
rgio	11139
arche	11140
békí	11141
békü	11142
rimor	11143
boglá	11144
báta	11145
site	11146
ution	11147
aqua	11148
átriu	11149
meste	11150
lírai	11151
pkkb	11152
uongo	11153
orcza	11154
ejgli	11155
györg	11156
b5	11157
b6	11158
bvm	11159
dtá	11160
eak	11161
fp	11162
fat	11163
faz	11164
g5	11165
goz	11166
gum	11167
ić	11168
ibb	11169
iéna	11170
iots	11171
lör	11172
lami	11173
lka	11174
mca	11175
nab	11176
nétá	11177
oos	11178
ssó	11179
sca	11180
uda	11181
ulli	11182
usza	11183
vív	11184
was	11185
wto	11186
wada	11187
ylie	11188
zn	11189
íny	11190
óno	11191
üch	11192
##uf	11193
##usz	11194
##ren	11195
##rán	11196
##eo	11197
##ef	11198
##nok	11199
##man	11200
##lit	11201
##fé	11202
##han	11203
##év	11204
##ym	11205
##eth	11206
azia	11207
##ano	11208
##ang	11209
##aka	11210
##árd	11211
homp	11212
##aro	11213
álik	11214
ezg	11215
##oll	11216
mill	11217
alany	11218
alani	11219
etró	11220
enkó	11221
oklip	11222
ássa	11223
erzs	11224
akn	11225
akemb	11226
banc	11227
anis	11228
##oke	11229
arim	11230
aromá	11231
arley	11232
arbor	11233
rees	11234
adh	11235
adis	11236
adako	11237
orsz	11238
orzs	11239
onroe	11240
tec	11241
niro	11242
osp	11243
osá	11244
iden	11245
iggy	11246
nénj	11247
inal	11248
inve	11249
invá	11250
sztat	11251
asg	11252
aser	11253
asri	11254
kétá	11255
táriá	11256
##roy	11257
ntázs	11258
##mix	11259
ajté	11260
ajdi	11261
bach	11262
bumix	11263
apor	11264
irl	11265
muze	11266
illon	11267
hias	11268
rtó	11269
lóan	11270
eidf	11271
ogn	11272
boy	11273
odar	11274
odká	11275
ékk	11276
poll	11277
polar	11278
dics	11279
letch	11280
jász	11281
ahara	11282
lima	11283
kuná	11284
réme	11285
itta	11286
imil	11287
imány	11288
ingáz	11289
öli	11290
ölyk	11291
kars	11292
hót	11293
alám	11294
inke	11295
andl	11296
andh	11297
sip	11298
sita	11299
##dic	11300
song	11301
prózá	11302
kambo	11303
armo	11304
ktí	11305
urka	11306
urku	11307
engé	11308
lato	11309
kóku	11310
ummáz	11311
exf	11312
dudá	11313
fir	11314
act	11315
loom	11316
lojal	11317
udas	11318
aulle	11319
eszél	11320
rudi	11321
ágra	11322
evy	11323
alacs	11324
pris	11325
ardas	11326
róniá	11327
##tic	11328
oper	11329
103	11330
pale	11331
palkó	11332
ichy	11333
ízű	11334
arca	11335
152	11336
zzal	11337
saft	11338
aszto	11339
guy	11340
guer	11341
guant	11342
127	11343
129	11344
sáp	11345
uszi	11346
puc	11347
aywe	11348
mpán	11349
kulc	11350
porol	11351
somfa	11352
rgó	11353
rgalm	11354
163	11355
ivás	11356
255	11357
131	11358
133	11359
szent	11360
147	11361
thy	11362
173	11363
lant	11364
kassa	11365
mmy	11366
tara	11367
gard	11368
sarat	11369
nuel	11370
theq	11371
ambul	11372
heri	11373
dőr	11374
ratu	11375
ofler	11376
orgás	11377
dvtk	11378
kemb	11379
libé	11380
##lif	11381
274	11382
amper	11383
dinb	11384
kdb	11385
aster	11386
htm	11387
litu	11388
rns	11389
ndru	11390
adox	11391
ielb	11392
undo	11393
sztoj	11394
morf	11395
rust	11396
onym	11397
conet	11398
avarr	11399
késh	11400
psd	11401
yere	11402
ocö	11403
occ	11404
rugas	11405
nomád	11406
yöm	11407
ojan	11408
ompó	11409
irth	11410
rján	11411
430	11412
hxf	11413
kurta	11414
pakli	11415
iemi	11416
525	11417
etika	11418
etiká	11419
solt	11420
540	11421
hd5	11422
msn	11423
átras	11424
láger	11425
kásás	11426
630	11427
progr	11428
klór	11429
klón	11430
ütyük	11431
howt	11432
rukk	11433
bfc	11434
zéró	11435
ddie	11436
aaa	11437
kaza	11438
comp	11439
ynn	11440
vc7	11441
ectro	11442
aryl	11443
ajoro	11444
ymbi	11445
pumpa	11446
adren	11447
pisa	11448
ulyká	11449
túszu	11450
dado	11451
répa	11452
ulzus	11453
yeme	11454
nyigo	11455
rnoki	11456
ictur	11457
idrau	11458
erapi	11459
bozó	11460
aywea	11461
(?	11462
dér	11463
dök	11464
dpa	11465
east	11466
fis	11467
gány	11468
gály	11469
hed	11470
iol	11471
mír	11472
nitá	11473
oer	11474
oal	11475
ojt	11476
oco	11477
oir	11478
péd	11479
psg	11480
panc	11481
pato	11482
page	11483
pagá	11484
rx	11485
rél	11486
taj	11487
tiná	11488
uo	11489
useu	11490
yas	11491
zej	11492
zne	11493
áday	11494
ísz	11495
̋az	11496
##uta	11497
##by	11498
##ran	11499
##oj	11500
##cr	11501
##du	11502
##wen	11503
##gyó	11504
szed	11505
szog	11506
##ete	11507
eléd	11508
##ori	11509
iste	11510
ezza	11511
alek	11512
alil	11513
alto	11514
alca	11515
enu	11516
enus	11517
enda	11518
okm	11519
okam	11520
olar	11521
olha	11522
leop	11523
éres	11524
##esa	11525
emm	11526
emic	11527
##iko	11528
ansel	11529
anca	11530
gyap	11531
intó	11532
amak	11533
arni	11534
arwin	11535
arbie	11536
rex	11537
reud	11538
ader	11539
orán	11540
orri	11541
orva	11542
ordi	11543
##ini	11544
teen	11545
osq	11546
közpo	11547
idas	11548
idze	11549
renn	11550
tub	11551
utina	11552
utnok	11553
##elle	11554
##ree	11555
hack	11556
neuve	11557
íts	11558
ítan	11559
##éne	11560
veb	11561
vex	11562
asd	11563
asia	11564
##ula	11565
egge	11566
omé	11567
omfo	11568
izza	11569
##nay	11570
ttro	11571
napp	11572
##mia	11573
olym	11574
vir	11575
jevi	11576
ajko	11577
euma	11578
back	11579
zto	11580
ztet	11581
##neu	11582
abat	11583
aplan	11584
apuka	11585
tano	11586
irup	11587
irrac	11588
rive	11589
katar	11590
itku	11591
itate	11592
roc	11593
rogy	11594
lór	11595
ndit	11596
ndriv	11597
aví	11598
avda	11599
avrov	11600
lőny	11601
eice	11602
nkiss	11603
zsor	11604
oder	11605
oderá	11606
lita	11607
lici	11608
liff	11609
vetk	11610
agm	11611
agok	11612
agna	11613
aggi	11614
agca	11615
ontó	11616
endr	11617
imd	11618
imer	11619
teté	11620
oszty	11621
önn	11622
kara	11623
marx	11624
marsh	11625
##vir	11626
inku	11627
inkar	11628
zárká	11629
andzu	11630
andev	11631
létr	11632
usban	11633
észü	11634
ipó	11635
ordai	11636
kli	11637
lémá	11638
dale	11639
kóci	11640
kóbor	11641
fe6	11642
anga	11643
acek	11644
olgoz	11645
gólya	11646
labir	11647
tyin	11648
ices	11649
icchu	11650
ágh	11651
ágát	11652
enial	11653
alker	11654
komá	11655
prímá	11656
bánta	11657
ehi	11658
opec	11659
unst	11660
borm	11661
borka	11662
borou	11663
ultif	11664
totál	11665
ainer	11666
afc	11667
156	11668
157	11669
joó	11670
##zsa	11671
ibf	11672
kandá	11673
merev	11674
cef	11675
pank	11676
pandá	11677
riter	11678
óger	11679
sám	11680
kulis	11681
venn	11682
emper	11683
162	11684
114	11685
zerek	11686
181	11687
argar	11688
arija	11689
láne	11690
ejk	11691
vényt	11692
141	11693
146	11694
##say	11695
ealt	11696
lanka	11697
tarc	11698
eccs	11699
ecki	11700
ecret	11701
dikál	11702
kszim	11703
ulató	11704
ogyi	11705
suar	11706
195	11707
191	11708
197	11709
ashi	11710
demy	11711
sóh	11712
oboro	11713
yomo	11714
axn	11715
iosz	11716
ezid	11717
varo	11718
nótá	11719
resto	11720
mili	11721
goo	11722
efner	11723
gató	11724
273	11725
ereco	11726
ampus	11727
radiá	11728
ávh	11729
sejk	11730
tála	11731
gáll	11732
tade	11733
nzag	11734
266	11735
rodeu	11736
rünf	11737
géná	11738
rina	11739
bánu	11740
kvár	11741
altz	11742
tréf	11743
tréfa	11744
week	11745
lley	11746
rugós	11747
370	11748
kúp	11749
fons	11750
iena	11751
utyi	11752
isaf	11753
örnye	11754
ödé	11755
560	11756
470	11757
570	11758
athan	11759
macc	11760
xxx	11761
690	11762
deka	11763
anore	11764
eilly	11765
bd8	11766
kumen	11767
story	11768
expr	11769
sirat	11770
fd6	11771
mysp	11772
allah	11773
fg7	11774
rgona	11775
gúny	11776
aiman	11777
bitor	11778
unty	11779
fkc	11780
mkpk	11781
avang	11782
warz	11783
kunc	11784
bvk	11785
sitc	11786
orbac	11787
icky	11788
ntyj	11789
arhol	11790
ronda	11791
buzás	11792
bontó	11793
olleb	11794
ayden	11795
arhah	11796
leury	11797
üllő	11798
hryn	11799
(?)	11800
réler	11801
08	11802
aan	11803
aek	11804
böl	11805
bme	11806
cp	11807
c3	11808
cor	11809
ded	11810
dbe	11811
dill	11812
fj	11813
fék	11814
fvm	11815
gd	11816
gü	11817
gni	11818
got	11819
hk	11820
hgy	11821
heg	11822
hul	11823
huk	11824
iy	11825
iag	11826
ivő	11827
iei	11828
kvar	11829
lut	11830
litá	11831
malm	11832
mck	11833
mvh	11834
nú	11835
nla	11836
oah	11837
pez	11838
pmi	11839
röl	11840
rdés	11841
skö	11842
sba	11843
seke	11844
tut	11845
tont	11846
uw	11847
uva	11848
upá	11849
wal	11850
wam	11851
yát	11852
yst	11853
ásza	11854
émá	11855
ényi	11856
ócs	11857
öh	11858
öhl	11859
##umá	11860
##íá	11861
##oe	11862
##dü	11863
##pr	11864
##fu	11865
##har	11866
##enz	11867
azar	11868
isl	11869
isi	11870
ispán	11871
álká	11872
megke	11873
alki	11874
alya	11875
kéc	11876
kié	11877
atká	11878
okán	11879
ásu	11880
ásk	11881
erro	11882
erda	11883
erto	11884
erome	11885
nemű	11886
leé	11887
aker	11888
emma	11889
beac	11890
anj	11891
anit	11892
anmar	11893
gyok	11894
gyúl	11895
amr	11896
amvas	11897
amur	11898
arno	11899
arbe	11900
arun	11901
orf	11902
ory	11903
orni	11904
orté	11905
##oga	11906
jas	11907
idor	11908
idon	11909
idnyá	11910
raw	11911
áti	11912
élel	11913
agyát	11914
valit	11915
legk	11916
ign	11917
igaro	11918
terét	11919
inar	11920
inór	11921
ítsé	11922
##cif	11923
taf	11924
asak	11925
egan	11926
tudio	11927
omor	11928
magd	11929
izab	11930
lavi	11931
ttü	11932
ükk	11933
abona	11934
bunkó	11935
apé	11936
aper	11937
irq	11938
hant	11939
vára	11940
time	11941
tieb	11942
rigy	11943
üld	11944
ülű	11945
ith	11946
itar	11947
itika	11948
proj	11949
roch	11950
nden	11951
avos	11952
avlat	11953
sper	11954
##rád	11955
eps	11956
odáz	11957
polá	11958
vasz	11959
kurió	11960
aguk	11961
anyós	11962
ovan	11963
ovod	11964
inges	11965
árdi	11966
##rid	11967
blum	11968
tébo	11969
ando	11970
andhi	11971
barbá	11972
ush	11973
##die	11974
ipm	11975
ipes	11976
armen	11977
lém	11978
skiz	11979
skén	11980
chim	11981
rane	11982
ranze	11983
ászf	11984
uraj	11985
kómá	11986
exd	11987
dumá	11988
harp	11989
égane	11990
ésébe	11991
sele	11992
lowe	11993
visio	11994
brék	11995
toy	11996
ruy	11997
mozj	11998
tónu	11999
mosz	12000
ouar	12001
ftp	12002
atib	12003
beto	12004
alkán	12005
rók	12006
opp	12007
opro	12008
106	12009
túsze	12010
mala	12011
őssé	12012
niki	12013
afto	12014
sacc	12015
203	12016
gui	12017
guil	12018
ínés	12019
eplé	12020
arkad	12021
tonin	12022
mery	12023
nfh	12024
cean	12025
ózta	12026
pur	12027
tosu	12028
rsm	12029
ugen	12030
aviár	12031
lerá	12032
166	12033
lemen	12034
hőn	12035
arger	12036
argon	12037
mlé	12038
138	12039
132	12040
143	12041
174	12042
naná	12043
owa	12044
owe	12045
owen	12046
owle	12047
lábak	12048
kassz	12049
ride	12050
hear	12051
zajo	12052
##ckó	12053
nnia	12054
nnie	12055
nso	12056
194	12057
czuk	12058
upc	12059
peed	12060
ieszt	12061
óner	12062
eych	12063
271	12064
dót	12065
elená	12066
ksi	12067
rade	12068
doro	12069
iana	12070
ubara	12071
misi	12072
arris	12073
lkobz	12074
267	12075
284	12076
kabát	12077
stobá	12078
stock	12079
undq	12080
acsa	12081
domí	12082
rammy	12083
bxh	12084
rénsz	12085
peng	12086
isaac	12087
imid	12088
auser	12089
390	12090
yson	12091
kurd	12092
gasab	12093
ercy	12094
hene	12095
hd7	12096
bála	12097
yrto	12098
orien	12099
átyá	12100
uide	12101
lobod	12102
mjus	12103
fb7	12104
omeo	12105
layer	12106
dbr	12107
golff	12108
kji	12109
myth	12110
oach	12111
ippai	12112
casny	12113
bagat	12114
tist	12115
unto	12116
990	12117
roadw	12118
adame	12119
ökőkú	12120
eolib	12121
ellay	12122
etzla	12123
abdul	12124
ssion	12125
ieter	12126
becq	12127
pvsk	12128
ónia	12129
ónig	12130
alpin	12131
iróni	12132
dxe	12133
kxg	12134
szimm	12135
bundá	12136
páti	12137
manuf	12138
watch	12139
a38	12140
amvai	12141
eczki	12142
znyec	12143
oudin	12144
pixel	12145
rjánz	12146
agmat	12147
aer	12148
afi	12149
bn	12150
bába	12151
biná	12152
bama	12153
bate	12154
cez	12155
cze	12156
cba	12157
clio	12158
dn	12159
dha	12160
fál	12161
g20	12162
h5	12163
hä	12164
ija	12165
jc	12166
jio	12167
lum	12168
lúd	12169
naj	12170
nca	12171
oit	12172
oas	12173
oval	12174
pn	12175
qi	12176
qai	12177
rzs	12178
skal	12179
sémá	12180
tcs	12181
tábor	12182
uár	12183
uig	12184
uus	12185
uff	12186
uip	12187
uutu	12188
vsz	12189
win	12190
xt	12191
yc	12192
yoz	12193
yatt	12194
áak	12195
##zó	12196
##bol	12197
##ral	12198
##íra	12199
##eh	12200
##min	12201
##gm	12202
##ppu	12203
##vin	12204
##sm	12205
##fc	12206
##ys	12207
szop	12208
azsa	12209
elép	12210
##ega	12211
##ema	12212
egyve	12213
nyk	12214
nyatt	12215
hoc	12216
hop	12217
house	12218
álon	12219
álkoz	12220
##olá	12221
alper	12222
alcio	12223
enon	12224
ekát	12225
atp	12226
atró	12227
atűr	12228
okum	12229
ásni	12230
esic	12231
eslie	12232
olno	12233
##ezo	12234
leig	12235
lexi	12236
akc	12237
bang	12238
##ánk	12239
anko	12240
anomá	12241
otts	12242
gyon	12243
##oky	12244
ettkó	12245
amí	12246
amsz	12247
arp	12248
arf	12249
arce	12250
arcsa	12251
aría	12252
reib	12253
reiss	12254
adaga	12255
adcli	12256
##ette	12257
áram	12258
##csm	12259
teph	12260
nicz	12261
idu	12262
desz	12263
átriá	12264
előt	12265
igná	12266
haus	12267
otz	12268
kodá	12269
kobz	12270
insz	12271
inas	12272
ítmé	12273
vey	12274
ve7	12275
asó	12276
tász	12277
egvá	12278
egac	12279
egner	12280
##ust	12281
vano	12282
omer	12283
aidá	12284
edb	12285
edf	12286
ednár	12287
##rou	12288
ilkin	12289
ilppu	12290
##ote	12291
nteg	12292
tty	12293
##onta	12294
ajan	12295
euer	12296
eudá	12297
bug	12298
bucu	12299
tang	12300
tanár	12301
irs	12302
irol	12303
muff	12304
párká	12305
rics	12306
rick	12307
üly	12308
roszk	12309
avani	12310
avlo	12311
llett	12312
jáno	12313
eix	12314
spö	12315
spn	12316
ogan	12317
ogas	12318
##ugli	12319
boom	12320
bocs	12321
bogyó	12322
zót	12323
örf	12324
epp	12325
odka	12326
ékel	12327
jád	12328
perec	12329
kkad	12330
##fic	12331
verde	12332
lish	12333
kusza	12334
anyu	12335
imbor	12336
inge	12337
ebi	12338
öng	12339
lapka	12340
bala	12341
bárd	12342
sidi	12343
sipo	12344
barná	12345
nino	12346
észí	12347
röhe	12348
ipi	12349
ipac	12350
ellő	12351
síak	12352
síitá	12353
attá	12354
klim	12355
skatu	12356
chf	12357
ranq	12358
urk	12359
urco	12360
urns	12361
nyic	12362
angó	12363
angl	12364
hare	12365
anto	12366
actor	12367
lobá	12368
lock	12369
auna	12370
auder	12371
lmű	12372
tooth	12373
sou	12374
evak	12375
event	12376
rdas	12377
prost	12378
pretá	12379
ehr	12380
ope	12381
ops	12382
opy	12383
galli	12384
rút	12385
dark	12386
drom	12387
arcla	12388
nike	12389
afka	12390
fuj	12391
power	12392
noé	12393
mana	12394
mang	12395
mansz	12396
rögz	12397
lika	12398
kanté	12399
vallu	12400
ione	12401
allis	12402
allej	12403
pant	12404
pani	12405
ritku	12406
rili	12407
artu	12408
artb	12409
arts	12410
artín	12411
mper	12412
fau	12413
fav	12414
lina	12415
atosa	12416
regén	12417
305	12418
306	12419
tinen	12420
szip	12421
254	12422
zeres	12423
orten	12424
187	12425
ergo	12426
öbbi	12427
oszl	12428
144	12429
mono	12430
pper	12431
171	12432
arli	12433
landi	12434
tará	12435
ecil	12436
ecti	12437
shuto	12438
rider	12439
pado	12440
hey	12441
lkot	12442
nnis	12443
nsis	12444
nsch	12445
nska	12446
198	12447
demio	12448
ertu	12449
elké	12450
aoul	12451
lust	12452
211	12453
217	12454
patkó	12455
229	12456
nóva	12457
vb6	12458
fáy	12459
eyto	12460
ótány	12461
kőr	12462
efco	12463
télt	12464
acho	12465
lebeg	12466
ancu	12467
ancer	12468
ierra	12469
birka	12470
oney	12471
essi	12472
gált	12473
mbrió	12474
rnov	12475
285	12476
okou	12477
réti	12478
458	12479
uzic	12480
ringe	12481
299	12482
unde	12483
undi	12484
317	12485
anoiá	12486
alias	12487
arsi	12488
335	12489
abou	12490
ocká	12491
atyi	12492
ncis	12493
awel	12494
kuti	12495
alone	12496
ojko	12497
ndabo	12498
ocska	12499
rbs	12500
arjen	12501
bono	12502
rezon	12503
youtu	12504
hrin	12505
cali	12506
ddd	12507
uster	12508
ustra	12509
ustur	12510
adden	12511
busó	12512
cbr	12513
kóstá	12514
botox	12515
alifa	12516
590	12517
bábás	12518
yder	12519
itzki	12520
670	12521
taszí	12522
tkin	12523
slaw	12524
őzete	12525
dieu	12526
fd7	12527
eghal	12528
dler	12529
lútó	12530
uchs	12531
coma	12532
irren	12533
irrit	12534
torzó	12535
xxii	12536
pdk	12537
ádasd	12538
mázsa	12539
mázsá	12540
lynn	12541
snc	12542
kande	12543
louda	12544
innea	12545
ahlb	12546
érges	12547
oczka	12548
aqu	12549
ickup	12550
arrey	12551
racle	12552
eeth	12553
klőd	12554
pamut	12555
uppan	12556
répá	12557
bunda	12558
eynol	12559
oonen	12560
ónya	12561
ónyay	12562
maffi	12563
saxo	12564
fóliá	12565
fpö	12566
ibby	12567
kvark	12568
jiosz	12569
uigi	12570
egacy	12571
).	12572
03	12573
00	12574
4x	12575
a8	12576
aum	12577
bök	12578
bmi	12579
bók	12580
cw	12581
cak	12582
cre	12583
cle	12584
cma	12585
dum	12586
dele	12587
eeg	12588
eát	12589
evá	12590
fén	12591
fus	12592
gk	12593
gti	12594
hut	12595
hei	12596
ihat	12597
jet	12598
jte	12599
kno	12600
lká	12601
mgy	12602
manc	12603
nell	12604
ncz	12605
ood	12606
oop	12607
ooth	12608
patt	12609
pint	12610
pneu	12611
sj	12612
sop	12613
tn	12614
tw	12615
tgy	12616
tda	12617
uci	12618
use	12619
uba	12620
uine	12621
vsk	12622
wo	12623
with	12624
yin	12625
yama	12626
zad	12627
íb	12628
íta	12629
önd	12630
öll	12631
üan	12632
##uj	12633
##zak	12634
##kt	12635
##kas	12636
##tr	12637
##jz	12638
##cy	12639
##dí	12640
##lás	12641
##áá	12642
##úho	12643
##yr	12644
##yo	12645
##que	12646
szj	12647
szam	12648
##ans	12649
elps	12650
istó	12651
nyf	12652
##nya	12653
áljá	12654
megi	12655
alit	12656
alók	12657
alde	12658
enlo	12659
kéj	12660
eker	12661
atm	12662
atjan	12663
okar	12664
okró	12665
escó	12666
ersz	12667
erit	12668
eras	12669
ervé	12670
erti	12671
ermu	12672
eruh	12673
erli	12674
leo	12675
éró	12676
éra	12677
akai	12678
bane	12679
bandi	12680
emer	12681
emnt	12682
emcs	12683
iknik	12684
anje	12685
gyál	12686
amd	12687
amaz	12688
amiz	12689
amva	12690
arda	12691
arná	12692
orint	12693
##adó	12694
árb	12695
árr	12696
árna	12697
árku	12698
tei	12699
nisc	12700
osco	12701
jack	12702
raumá	12703
rene	12704
valj	12705
igu	12706
igner	12707
igadó	12708
##ige	12709
tera	12710
néhá	12711
konta	12712
ánj	12713
ozsó	12714
tavo	12715
asab	12716
aske	12717
tád	12718
egj	12719
egor	12720
rszá	12721
omar	12722
tale	12723
ilc	12724
lax	12725
lacid	12726
##oti	12727
ntur	12728
ntino	12729
ulik	12730
uljo	12731
ajam	12732
eue	12733
láth	12734
ztek	12735
burá	12736
bunyó	12737
estu	12738
estor	12739
abbey	12740
ired	12741
iréná	12742
irtas	12743
illik	12744
hanni	12745
##cha	12746
hiú	12747
tic	12748
tific	12749
riend	12750
üles	12751
ither	12752
épe	12753
ámuel	12754
válas	12755
roi	12756
roam	12757
##aba	12758
aván	12759
avuk	12760
llai	12761
jós	12762
stl	12763
stok	12764
bony	12765
boué	12766
epom	12767
epper	12768
almer	12769
zsora	12770
polc	12771
polip	12772
sev	12773
ahal	12774
aszi	12775
keble	12776
lio	12777
lius	12778
lime	12779
mosta	12780
sikí	12781
agra	12782
aglán	12783
endo	12784
ends	12785
endra	12786
iml	12787
imen	12788
imák	12789
önz	12790
pars	12791
leni	12792
kark	12793
grü	12794
grön	12795
trás	12796
mádi	12797
baltá	12798
andál	12799
andon	12800
andin	12801
andah	12802
simá	12803
siva	12804
uskas	12805
nina	12806
ipk	12807
kamp	12808
armis	12809
atter	12810
lámá	12811
láva	12812
kret	12813
ngine	12814
kóp	12815
bb8	12816
exch	12817
exper	12818
nézd	12819
bankó	12820
antrá	12821
gólyá	12822
risk	12823
aub	12824
auná	12825
aung	12826
múmia	12827
lmány	12828
bré	12829
tosz	12830
rup	12831
édli	12832
mezes	12833
mezít	12834
icá	12835
evra	12836
ftye	12837
redo	12838
rede	12839
redi	12840
redri	12841
rdet	12842
rdít	12843
rnye	12844
ardon	12845
fenol	12846
opl	12847
opul	12848
oprád	12849
borj	12850
einh	12851
palle	12852
ultz	12853
torny	12854
torre	12855
tétá	12856
arcin	12857
élix	12858
158	12859
zzát	12860
poul	12861
manh	12862
208	12863
207	12864
ogli	12865
oglár	12866
pip	12867
pier	12868
guyen	12869
kaná	12870
kanná	12871
szkaj	12872
eaf	12873
sche	12874
sánt	12875
pun	12876
úráz	12877
favar	12878
wii	12879
co2	12880
regná	12881
167	12882
ting	12883
rago	12884
ragua	12885
258	12886
257	12887
ívó	12888
ívós	12889
182	12890
vády	12891
oszi	12892
oszká	12893
arib	12894
aric	12895
mlí	12896
láné	12897
urgó	12898
erso	12899
ejan	12900
ejmu	12901
142	12902
149	12903
179	12904
láber	12905
lanet	12906
tari	12907
##boa	12908
ecco	12909
shie	12910
dikt	12911
sztur	12912
he7	12913
annu	12914
196	12915
lelet	12916
széf	12917
241	12918
obio	12919
váriá	12920
yoma	12921
axa	12922
218	12923
215	12924
213	12925
224	12926
falf	12927
assan	12928
assbe	12929
robl	12930
kemp	12931
fajo	12932
ancú	12933
sms	12934
dós	12935
trój	12936
rady	12937
iers	12938
vást	12939
ubs	12940
ghz	12941
zilá	12942
lódu	12943
ássá	12944
mcm	12945
gandá	12946
kbc	12947
media	12948
oruzs	12949
quer	12950
trow	12951
ourg	12952
ours	12953
gaard	12954
kg6	12955
chip	12956
zone	12957
298	12958
bánó	12959
aiku	12960
alou	12961
more	12962
baku	12963
ijk	12964
365	12965
riga	12966
nnét	12967
eutro	12968
löff	12969
massz	12970
gyáv	12971
ixer	12972
ttack	12973
rizg	12974
awn	12975
awyer	12976
oyer	12977
386	12978
khem	12979
poté	12980
ienná	12981
kinne	12982
poná	12983
nszki	12984
iesel	12985
utyus	12986
gém	12987
tasi	12988
nitz	12989
mr1	12990
bonc	12991
rezeg	12992
nicé	12993
gánc	12994
klau	12995
méne	12996
fúj	12997
algá	12998
macd	12999
spoon	13000
átyol	13001
ultiv	13002
lajo	13003
725	13004
long	13005
bábuk	13006
ydroc	13007
730	13008
lilu	13009
avign	13010
röpk	13011
aldon	13012
825	13013
ánaá	13014
oav	13015
yale	13016
cast	13017
911	13018
zeket	13019
amora	13020
nowle	13021
bhúho	13022
urtis	13023
bátyj	13024
nrk	13025
mázli	13026
snb	13027
ssien	13028
ssima	13029
aarhu	13030
iegó	13031
ooks	13032
pinc	13033
sepr	13034
ilbaó	13035
alist	13036
érget	13037
rows	13038
apsot	13039
mádl	13040
racy	13041
sgas	13042
##hrer	13043
dabas	13044
ökön	13045
macsó	13046
pacal	13047
rouch	13048
meier	13049
owboy	13050
dúró	13051
jazz	13052
zóleu	13053
abana	13054
lindá	13055
hysic	13056
otero	13057
díva	13058
spres	13059
kurtí	13060
ospic	13061
occer	13062
huke	13063
ieira	13064
wamp	13065
amíbi	13066
ftyeh	13067
05	13068
06	13069
??	13070
bro	13071
béz	13072
bük	13073
cai	13074
cron	13075
d6	13076
eci	13077
evid	13078
eór	13079
fda	13080
fót	13081
fcsm	13082
gq	13083
hz	13084
hem	13085
hell	13086
hűl	13087
ionta	13088
jok	13089
katt	13090
lany	13091
md	13092
mna	13093
mce	13094
mlá	13095
mába	13096
mpa	13097
pác	13098
pine	13099
pdsz	13100
pga	13101
rkez	13102
rvi	13103
ritá	13104
ríma	13105
sx	13106
síma	13107
size	13108
tell	13109
tine	13110
uin	13111
uín	13112
ucsi	13113
vago	13114
xy	13115
yber	13116
äuble	13117
óság	13118
óla	13119
öwen	13120
úm	13121
ümm	13122
őp	13123
őér	13124
ővá	13125
##ure	13126
##uch	13127
##ao	13128
##rom	13129
##mó	13130
##pl	13131
##vos	13132
##ski	13133
##fj	13134
##úzi	13135
##éh	13136
szeke	13137
azsó	13138
azic	13139
elas	13140
##ale	13141
##ati	13142
isnov	13143
isboa	13144
köly	13145
hom	13146
hoice	13147
álov	13148
ezár	13149
ezei	13150
mirá	13151
alem	13152
alog	13153
alda	13154
altó	13155
etí	13156
enan	13157
kéta	13158
atz	13159
atel	13160
atil	13161
atis	13162
eso	13163
esch	13164
eran	13165
ermi	13166
eria	13167
ertá	13168
erac	13169
##ezi	13170
leis	13171
akál	13172
akub	13173
akvar	13174
ikár	13175
ikto	13176
ikono	13177
anke	13178
bent	13179
gyért	13180
##oka	13181
ettá	13182
intol	13183
ares	13184
arami	13185
read	13186
revor	13187
adron	13188
orz	13189
orus	13190
orte	13191
orrow	13192
onúsz	13193
ármű	13194
teeg	13195
tepa	13196
nics	13197
osban	13198
osic	13199
osmo	13200
évb	13201
jah	13202
idl	13203
idom	13204
racs	13205
rava	13206
ravi	13207
rack	13208
átn	13209
korbá	13210
korsó	13211
agyj	13212
agyuk	13213
vali	13214
igno	13215
##izs	13216
utz	13217
fors	13218
otya	13219
neft	13220
inute	13221
tact	13222
asiná	13223
vász	13224
vania	13225
magro	13226
edor	13227
ilda	13228
lain	13229
laci	13230
##oto	13231
uliná	13232
##mir	13233
ondrá	13234
ajol	13235
ajná	13236
eusz	13237
őrt	13238
aby	13239
abit	13240
abwo	13241
##lec	13242
részl	13243
pedál	13244
buvá	13245
apda	13246
apac	13247
após	13248
tanu	13249
irenz	13250
rámiá	13251
##cho	13252
##chi	13253
tira	13254
párná	13255
rica	13256
itr	13257
kale	13258
roes	13259
lósz	13260
ndner	13261
uki	13262
llc	13263
lőni	13264
eita	13265
spá	13266
spam	13267
spage	13268
spino	13269
stal	13270
stine	13271
ogar	13272
ogrom	13273
epü	13274
odot	13275
odoky	13276
pollo	13277
diszk	13278
sea	13279
elma	13280
jászo	13281
ahr	13282
kebl	13283
kehi	13284
va5	13285
vacak	13286
mondj	13287
nevál	13288
lisb	13289
kuva	13290
agen	13291
aguá	13292
anye	13293
endel	13294
imzo	13295
ebu	13296
mentá	13297
önb	13298
masz	13299
masza	13300
maca	13301
lena	13302
lens	13303
iaaf	13304
karm	13305
kari	13306
trin	13307
traka	13308
túla	13309
szót	13310
bali	13311
báró	13312
sible	13313
##bac	13314
ussz	13315
ipsz	13316
ipek	13317
ellus	13318
lali	13319
arms	13320
atto	13321
klúzi	13322
dou	13323
ransz	13324
randa	13325
uran	13326
urul	13327
urdi	13328
urdo	13329
sand	13330
orvá	13331
anger	13332
umm	13333
umin	13334
bbik	13335
duba	13336
acco	13337
loc	13338
udy	13339
nauta	13340
rajk	13341
tock	13342
romo	13343
oua	13344
icle	13345
evin	13346
alah	13347
alawi	13348
prím	13349
prise	13350
bánt	13351
bágyi	13352
stad	13353
bordá	13354
gyón	13355
einer	13356
pali	13357
##tey	13358
kay	13359
kava	13360
malaj	13361
dren	13362
arcy	13363
lová	13364
lovan	13365
151	13366
153	13367
zzy	13368
zzog	13369
tapog	13370
fuzi	13371
zio	13372
podá	13373
joy	13374
201	13375
209	13376
enea	13377
eney	13378
atah	13379
pima	13380
pánt	13381
gur	13382
epler	13383
mera	13384
fedro	13385
nfgm	13386
panír	13387
ógu	13388
ózon	13389
enyer	13390
ápák	13391
pult	13392
ayo	13393
paok	13394
ldu	13395
fao	13396
gir	13397
wicz	13398
ugat	13399
finx	13400
rgas	13401
ánta	13402
169	13403
304	13404
ister	13405
szif	13406
251	13407
ívül	13408
ívis	13409
diótá	13410
ergé	13411
béu	13412
148	13413
than	13414
költs	13415
tarp	13416
tarka	13417
econ	13418
ecas	13419
ship	13420
shtey	13421
##cky	13422
ömp	13423
övp	13424
akob	13425
erty	13426
ertze	13427
ieb	13428
406	13429
obrov	13430
ccin	13431
ofe	13432
nnyé	13433
lopm	13434
path	13435
228	13436
222	13437
onacó	13438
resh	13439
assi	13440
óton	13441
inois	13442
madou	13443
acha	13444
acher	13445
nnaff	13446
232	13447
radó	13448
orner	13449
ierse	13450
vinc	13451
birk	13452
birká	13453
mcb	13454
mcn	13455
appl	13456
gang	13457
cup	13458
essna	13459
268	13460
rody	13461
ourde	13462
tege	13463
uzer	13464
metz	13465
324	13466
sztof	13467
acsin	13468
onyá	13469
gomba	13470
gombó	13471
cahi	13472
lazer	13473
zoom	13474
aljós	13475
weet	13476
zün	13477
atyro	13478
ncan	13479
345	13480
awk	13481
tiprá	13482
peta	13483
nyáj	13484
oew	13485
ojuz	13486
irts	13487
ánkód	13488
bina	13489
peno	13490
tasy	13491
dsl	13492
ds3	13493
ause	13494
pite	13495
örgl	13496
treep	13497
oljon	13498
hxa	13499
vxh	13500
oust	13501
fm1	13502
bálo	13503
ocha	13504
uant	13505
ockáz	13506
ustár	13507
iusz	13508
etyer	13509
580	13510
pottr	13511
xxon	13512
mjsz	13513
ument	13514
arvis	13515
ravo	13516
mpire	13517
eader	13518
zemol	13519
fb4	13520
ütyk	13521
bábu	13522
howd	13523
alkuv	13524
ltrai	13525
ammó	13526
arise	13527
820	13528
lárvá	13529
960	13530
830	13531
oaq	13532
ippel	13533
ippek	13534
izomz	13535
zbég	13536
fg4	13537
bagi	13538
oxer	13539
tépáz	13540
uche	13541
btk	13542
mhz	13543
rézs	13544
retin	13545
rimm	13546
mgm	13547
bauer	13548
ietzs	13549
apósa	13550
elídí	13551
simí	13552
púpo	13553
reich	13554
ytho	13555
mézze	13556
pizsa	13557
annie	13558
kukás	13559
arusz	13560
dgar	13561
toxin	13562
pandé	13563
othar	13564
hofer	13565
lpg	13566
aróti	13567
bányá	13568
lédi	13569
nibal	13570
rlesq	13571
pwc	13572
!!!	13573
nipes	13574
invaz	13575
hedir	13576
pankr	13577
ivője	13578
öhler	13579
häus	13580
favre	13581
lkád	13582
lanyh	13583
a2	13584
aak	13585
aad	13586
aiz	13587
bín	13588
cár	13589
cán	13590
cit	13591
cki	13592
cora	13593
eem	13594
ees	13595
eab	13596
eón	13597
f4	13598
fsz	13599
fak	13600
fás	13601
fla	13602
fany	13603
gf	13604
gló	13605
gama	13606
gric	13607
hü	13608
hree	13609
iw	13610
jom	13611
kvi	13612
löl	13613
léz	13614
mov	13615
mte	13616
nük	13617
nssz	13618
oed	13619
r8	13620
sás	13621
ská	13622
shoz	13623
ssef	13624
séne	13625
topo	13626
tlet	13627
tsa	13628
u2	13629
uol	13630
uval	13631
uud	13632
vda	13633
wand	13634
wing	13635
wyn	13636
yy	13637
yed	13638
yue	13639
zitá	13640
zdf	13641
zült	13642
ászo	13643
är	13644
öze	13645
üde	13646
őve	13647
űrt	13648
##ton	13649
##dl	13650
##not	13651
##mbo	13652
##psz	13653
##vik	13654
##ám	13655
##ić	13656
##isz	13657
##fy	13658
##fer	13659
##way	13660
##gya	13661
szele	13662
szezo	13663
##etz	13664
##eti	13665
azó	13666
azdá	13667
##anz	13668
elov	13669
elto	13670
elei	13671
##ord	13672
köh	13673
nyp	13674
nyder	13675
álam	13676
ezv	13677
ezbol	13678
miv	13679
mira	13680
mika	13681
alfá	13682
etp	13683
etas	13684
enad	13685
eku	13686
ekká	13687
kite	13688
atán	13689
atúr	13690
áso	13691
esd	13692
esor	13693
erva	13694
erné	13695
erka	13696
lear	13697
levá	13698
érc	13699
érna	13700
bej	13701
anx	13702
ania	13703
anze	13704
anru	13705
aneta	13706
amad	13707
amme	13708
amsay	13709
arus	13710
arfi	13711
arine	13712
arper	13713
arika	13714
orné	13715
onj	13716
onar	13717
##éto	13718
árg	13719
árh	13720
árq	13721
##cso	13722
tegy	13723
teper	13724
teore	13725
ltch	13726
nih	13727
nish	13728
oser	13729
osec	13730
átán	13731
korz	13732
reno	13733
igg	13734
igl	13735
igani	13736
tuóz	13737
uts	13738
utba	13739
terve	13740
fort	13741
indo	13742
hay	13743
néné	13744
otál	13745
oték	13746
otex	13747
kers	13748
nee	13749
áncs	13750
ánjá	13751
áncz	13752
inov	13753
inema	13754
étét	13755
telka	13756
tah	13757
taud	13758
asen	13759
asus	13760
asker	13761
eggy	13762
váz	13763
vang	13764
minta	13765
omul	13766
ompa	13767
aib	13768
edesa	13769
##rop	13770
ilia	13771
laas	13772
zös	13773
ntim	13774
tto	13775
ulj	13776
ulka	13777
napj	13778
vics	13779
vidi	13780
vivor	13781
ajm	13782
eun	13783
bacs	13784
látno	13785
írj	13786
írd	13787
ztál	13788
abal	13789
abar	13790
bucs	13791
buzs	13792
buzá	13793
tanya	13794
mentó	13795
bib	13796
bij	13797
bioma	13798
riva	13799
itani	13800
hali	13801
rowe	13802
avol	13803
díler	13804
eiper	13805
spy	13806
spol	13807
spán	13808
spic	13809
stell	13810
ogne	13811
ázzs	13812
mesz	13813
boda	13814
örcs	13815
epo	13816
lyog	13817
zsé	13818
odt	13819
ody	13820
odak	13821
éklá	13822
pold	13823
diol	13824
ahri	13825
ahmu	13826
ahler	13827
perá	13828
aszla	13829
aszká	13830
lix	13831
lint	13832
live	13833
lakk	13834
kkk	13835
kkr	13836
##odi	13837
ályog	13838
vety	13839
senkó	13840
verz	13841
lise	13842
kuna	13843
siku	13844
agló	13845
agina	13846
téko	13847
anyáz	13848
onter	13849
endy	13850
endás	13851
imon	13852
inget	13853
##ceu	13854
netw	13855
maele	13856
karbo	13857
hóna	13858
bles	13859
blam	13860
trott	13861
inkog	13862
andar	13863
andom	13864
barká	13865
fru	13866
from	13867
usq	13868
uskó	13869
észé	13870
sonic	13871
röszk	13872
ipog	13873
ipká	13874
iprás	13875
ells	13876
iszom	13877
atteo	13878
klie	13879
klári	13880
léta	13881
skar	13882
skis	13883
chl	13884
elyet	13885
ászy	13886
lász	13887
toló	13888
urb	13889
urn	13890
urs	13891
enga	13892
laty	13893
fei	13894
umpy	13895
őszö	13896
expe	13897
due	13898
ásti	13899
iász	13900
antan	13901
acch	13902
acau	13903
loa	13904
loop	13905
lobo	13906
udm	13907
auck	13908
auber	13909
nacó	13910
ökhe	13911
eszle	13912
erend	13913
toes	13914
ruit	13915
runi	13916
rune	13917
yah	13918
tóz	13919
ouill	13920
áglyá	13921
evol	13922
mszki	13923
alkuk	13924
komó	13925
koml	13926
prad	13927
ardo	13928
orbo	13929
ehol	13930
palá	13931
ulto	13932
ultra	13933
bög	13934
ízt	13935
ombo	13936
kám	13937
malac	13938
pilla	13939
arcz	13940
afax	13941
zzzz	13942
savas	13943
pofo	13944
kmop	13945
mangá	13946
ibral	13947
pice	13948
guine	13949
kanal	13950
ínai	13951
tona	13952
tonná	13953
ff6	13954
merá	13955
anks	13956
lud	13957
enyí	13958
ápo	13959
puszi	13960
ayy	13961
artz	13962
artre	13963
mp3	13964
paszt	13965
lde	13966
ldoz	13967
ovász	13968
venír	13969
wick	13970
tosan	13971
szef	13972
remeg	13973
ugin	13974
ántá	13975
308	13976
ihnov	13977
áder	13978
ádud	13979
ergon	13980
rald	13981
ralik	13982
noke	13983
tras	13984
ejd	13985
mone	13986
ppal	13987
toma	13988
177	13989
owan	13990
owli	13991
lanká	13992
tark	13993
ecb	13994
garde	13995
he4	13996
sdr	13997
tml	13998
199	13999
lelt	14000
czu	14001
upert	14002
ólia	14003
erthá	14004
imper	14005
són	14006
obin	14007
óvó	14008
ofa	14009
ofí	14010
iffel	14011
lopp	14012
216	14013
patá	14014
falaz	14015
orgó	14016
szlé	14017
madis	14018
ampu	14019
ampf	14020
235	14021
233	14022
góc	14023
kdh	14024
dést	14025
rrög	14026
elio	14027
ronc	14028
arron	14029
arraz	14030
aleja	14031
medré	14032
glu	14033
ndisz	14034
litz	14035
263	14036
mbert	14037
fcc	14038
rodo	14039
elley	14040
282	14041
289	14042
rüh	14043
##deb	14044
umif	14045
issio	14046
ucin	14047
metaf	14048
325	14049
322	14050
327	14051
329	14052
dagen	14053
295	14054
293	14055
bánná	14056
kokó	14057
ölgyi	14058
onosz	14059
tsi	14060
imfo	14061
atalo	14062
limb	14063
acsar	14064
ijad	14065
anoc	14066
rold	14067
avare	14068
erzif	14069
hore	14070
asid	14071
itage	14072
nner	14073
árász	14074
ürch	14075
ürkü	14076
336	14077
333	14078
337	14079
erku	14080
atyr	14081
ncut	14082
ohn	14083
alóli	14084
árado	14085
awei	14086
tojó	14087
tojka	14088
gora	14089
átrat	14090
uhan	14091
kinc	14092
iess	14093
deno	14094
ricu	14095
rvena	14096
nitúd	14097
imic	14098
410	14099
auss	14100
mrsz	14101
kc7	14102
rezs	14103
rezze	14104
treit	14105
amosz	14106
amour	14107
elező	14108
460	14109
mclar	14110
eise	14111
damu	14112
490	14113
azir	14114
erbin	14115
züll	14116
álmo	14117
etyeg	14118
bc8	14119
átyjá	14120
aveo	14121
orav	14122
sls	14123
tefán	14124
610	14125
playb	14126
nht	14127
plex	14128
röhej	14129
ütyül	14130
lill	14131
lilá	14132
larke	14133
itzge	14134
evich	14135
ammal	14136
ggal	14137
tkár	14138
slaut	14139
arang	14140
théq	14141
ctur	14142
post	14143
vd8	14144
enoá	14145
hb6	14146
rooks	14147
oposz	14148
badar	14149
adtán	14150
dühro	14151
alajá	14152
gamy	14153
vtk	14154
##sky	14155
aczol	14156
iqué	14157
louis	14158
bata	14159
eveld	14160
lanck	14161
púp	14162
base	14163
kuka	14164
zebra	14165
séfj	14166
farc	14167
eyers	14168
rtyom	14169
mágus	14170
rédé	14171
enová	14172
urdan	14173
irgiz	14174
swap	14175
aganó	14176
kóla	14177
angya	14178
reudi	14179
ioso	14180
nibál	14181
ipoch	14182
oldáv	14183
örgey	14184
erczo	14185
áliki	14186
sápad	14187
pucol	14188
orvay	14189
tutit	14190
uwon	14191
lavio	14192
fália	14193
oasis	14194
atróz	14195
ülyí	14196
aquin	14197
bóklá	14198
clea	14199
poulo	14200
spájz	14201
fszb	14202
özep	14203
ahmud	14204
(-	14205
(+	14206
2a	14207
aat	14208
aes	14209
b1	14210
bell	14211
biká	14212
chet	14213
cra	14214
d4	14215
daj	14216
dell	14217
dge	14218
drás	14219
domá	14220
dhl	14221
eiz	14222
evet	14223
eod	14224
eato	14225
fem	14226
fam	14227
fab	14228
fli	14229
fast	14230
fugli	14231
g4	14232
gnak	14233
gei	14234
giná	14235
hap	14236
hil	14237
hdi	14238
iü	14239
iaz	14240
ilen	14241
ixi	14242
jin	14243
jfk	14244
kny	14245
kag	14246
klen	14247
kály	14248
lco	14249
lone	14250
lari	14251
maki	14252
nszt	14253
nri	14254
oat	14255
osza	14256
oate	14257
oór	14258
oomi	14259
pés	14260
pta	14261
pely	14262
pej	14263
pko	14264
pöm	14265
qx	14266
rko	14267
rzso	14268
sog	14269
sáro	14270
tnay	14271
uy	14272
uai	14273
udi	14274
uate	14275
uala	14276
vák	14277
vvel	14278
wall	14279
wow	14280
xd	14281
ynd	14282
yok	14283
yron	14284
yga	14285
zim	14286
zomá	14287
óti	14288
óbi	14289
öne	14290
úd	14291
úra	14292
údy	14293
üh	14294
ünd	14295
ührer	14296
űvé	14297
##unt	14298
##uno	14299
##zin	14300
##bt	14301
##bar	14302
##bis	14303
##tc	14304
##tl	14305
##ob	14306
##net	14307
##gl	14308
##vk	14309
##sb	14310
##sf	14311
##sen	14312
##fp	14313
##yc	14314
##wd	14315
##ät	14316
sznt	14317
szák	14318
szőr	14319
azu	14320
elp	14321
elco	14322
##aks	14323
##ege	14324
##egi	14325
egyz	14326
egys	14327
nyák	14328
nyest	14329
hopp	14330
álff	14331
ezin	14332
ezai	14333
ezuc	14334
alsz	14335
alge	14336
alsh	14337
etit	14338
enj	14339
enéz	14340
enner	14341
kip	14342
athe	14343
atami	14344
atron	14345
okl	14346
oksz	14347
ásto	14348
esie	14349
erer	14350
erch	14351
ererá	14352
olub	14353
olee	14354
nemz	14355
neme	14356
cső	14357
csík	14358
érge	14359
akvá	14360
baná	14361
##oni	14362
emg	14363
eman	14364
emis	14365
emere	14366
##óli	14367
iksa	14368
ikini	14369
anó	14370
anam	14371
anco	14372
ottey	14373
##tay	14374
amal	14375
arak	14376
arté	14377
arvel	14378
arva	14379
arnu	14380
arzen	14381
areth	14382
reem	14383
adak	14384
adwa	14385
orsó	14386
oncs	14387
onák	14388
##aja	14389
ársz	14390
ármá	14391
ártá	14392
árkó	14393
árgá	14394
##csó	14395
##agu	14396
nid	14397
osice	14398
évbe	14399
évosz	14400
idr	14401
idm	14402
idic	14403
idst	14404
raum	14405
rahe	14406
raaf	14407
átony	14408
renák	14409
igna	14410
igmar	14411
tup	14412
volta	14413
uton	14414
utic	14415
##rea	14416
inda	14417
haun	14418
otm	14419
oti	14420
otis	14421
otro	14422
otim	14423
otázs	14424
volto	14425
ánz	14426
inj	14427
helyz	14428
ozd	14429
vej	14430
szté	14431
tay	14432
asf	14433
asq	14434
asor	14435
aste	14436
##ule	14437
egre	14438
vant	14439
ombá	14440
izott	14441
izolá	14442
edr	14443
edák	14444
edot	14445
iló	14446
iler	14447
ilkor	14448
áltá	14449
zörg	14450
nts	14451
ttony	14452
ule	14453
ulett	14454
ulko	14455
ulic	14456
ondra	14457
eumá	14458
baf	14459
ba4	14460
baon	14461
őry	14462
##nev	14463
abó	14464
abr	14465
abhe	14466
abine	14467
abric	14468
abare	14469
abver	14470
buja	14471
bunye	14472
apan	14473
apát	14474
abbi	14475
tanol	14476
ircea	14477
iréna	14478
mur	14479
mena	14480
menc	14481
mens	14482
illin	14483
him	14484
rió	14485
ries	14486
rivi	14487
itn	14488
itez	14489
főz	14490
majsz	14491
rtö	14492
roj	14493
roug	14494
akic	14495
avl	14496
avone	14497
uká	14498
llit	14499
fejl	14500
eiph	14501
nkse	14502
ogul	14503
ográ	14504
ázt	14505
örsi	14506
epan	14507
lyh	14508
lyud	14509
odore	14510
odena	14511
jörk	14512
ékla	14513
see	14514
vezt	14515
jámbo	14516
ahno	14517
tova	14518
perel	14519
aszu	14520
ke6	14521
keop	14522
kebel	14523
laket	14524
entil	14525
kubi	14526
kupac	14527
ábád	14528
agitá	14529
agall	14530
##báj	14531
kozi	14532
ontgo	14533
imbo	14534
imac	14535
öly	14536
ebab	14537
##riu	14538
önge	14539
marká	14540
hud	14541
##lav	14542
inkle	14543
andu	14544
ande	14545
sie	14546
siana	14547
uská	14548
usher	14549
észít	14550
röder	14551
ipnot	14552
szema	14553
kampó	14554
arme	14555
klm	14556
chron	14557
elym	14558
krik	14559
ngad	14560
ngrid	14561
engál	14562
angla	14563
umar	14564
umpu	14565
exit	14566
foka	14567
nézz	14568
zend	14569
zená	14570
anty	14571
antw	14572
antim	14573
fij	14574
fiol	14575
ssip	14576
sspi	14577
rmű	14578
rosj	14579
loui	14580
udek	14581
udov	14582
auda	14583
aude	14584
auble	14585
nah	14586
naív	14587
nauer	14588
eszká	14589
aith	14590
lmar	14591
ruzso	14592
rombó	14593
moár	14594
mount	14595
mezej	14596
icu	14597
icci	14598
mszh	14599
enior	14600
ation	14601
titi	14602
róp	14603
rózi	14604
róza	14605
báj	14606
ehl	14607
irou	14608
opi	14609
opak	14610
opánk	14611
stas	14612
unch	14613
gall	14614
gali	14615
gally	14616
rúzs	14617
borda	14618
oday	14619
ultur	14620
böj	14621
böp	14622
böjt	14623
torl	14624
torna	14625
icht	14626
ichl	14627
túszt	14628
drv	14629
drog	14630
drake	14631
ébé	14632
totó	14633
affe	14634
154	14635
savat	14636
joj	14637
manda	14638
eneca	14639
oglu	14640
ibó	14641
ibor	14642
pipa	14643
ongrá	14644
póni	14645
tömí	14646
dahl	14647
davos	14648
tonen	14649
ff8	14650
ffan	14651
mero	14652
meríá	14653
allé	14654
aller	14655
allon	14656
allas	14657
lue	14658
lund	14659
enya	14660
pucs	14661
mpp	14662
pore	14663
wijk	14664
emps	14665
rsai	14666
##ötty	14667
csij	14668
remer	14669
ugor	14670
ugra	14671
avide	14672
rgl	14673
161	14674
164	14675
256	14676
arget	14677
ariad	14678
tesó	14679
erst	14680
ejm	14681
ppke	14682
tomaj	14683
tary	14684
shut	14685
ligán	14686
hea	14687
he5	14688
heor	14689
heck	14690
sara	14691
sario	14692
orkás	14693
nur	14694
övig	14695
yid	14696
gám	14697
iumei	14698
llac	14699
dőny	14700
248	14701
244	14702
246	14703
249	14704
ailey	14705
órdo	14706
ofré	14707
tusá	14708
axof	14709
omáz	14710
iff	14711
ifrs	14712
214	14713
219	14714
pati	14715
patak	14716
226	14717
acea	14718
lomha	14719
mode	14720
fala	14721
assin	14722
milia	14723
amahá	14724
méh	14725
efmi	14726
##lij	14727
gyalá	14728
véná	14729
anufa	14730
238	14731
scue	14732
dóze	14733
kd7	14734
eriu	14735
rrép	14736
apace	14737
rons	14738
roncs	14739
ráni	14740
etői	14741
áfsz	14742
lity	14743
nelka	14744
rnott	14745
erese	14746
ourq	14747
281	14748
rün	14749
kabá	14750
uczak	14751
zew	14752
mng	14753
uzi	14754
émán	14755
metél	14756
ringa	14757
mtsz	14758
297	14759
ssey	14760
ikora	14761
311	14762
316	14763
unger	14764
ewle	14765
lesb	14766
ripe	14767
kvvm	14768
aule	14769
aulá	14770
késí	14771
itimá	14772
nnitá	14773
apoel	14774
psp	14775
bmc	14776
eutá	14777
lösz	14778
océn	14779
trich	14780
atyn	14781
atyjá	14782
assay	14783
ncze	14784
dome	14785
domé	14786
347	14787
ttasé	14788
ramm	14789
awker	14790
oyes	14791
422	14792
tipo	14793
abir	14794
382	14795
lokal	14796
nyakú	14797
bomba	14798
potá	14799
ompej	14800
réná	14801
ponz	14802
nszun	14803
tabuk	14804
tass	14805
fxa	14806
fxg	14807
yász	14808
kcm	14809
kcna	14810
rezig	14811
atran	14812
nicá	14813
445	14814
hxb	14815
acie	14816
randy	14817
drift	14818
lavan	14819
465	14820
gassi	14821
520	14822
hrek	14823
ókay	14824
494	14825
azita	14826
erbst	14827
uang	14828
kóder	14829
ustrá	14830
msk	14831
izeus	14832
clem	14833
burj	14834
burka	14835
lipsz	14836
##low	14837
ouise	14838
620	14839
vfr	14840
átyl	14841
cbf	14842
kóser	14843
dana	14844
ousec	14845
ringó	14846
kajál	14847
kaját	14848
nhs	14849
sinc	14850
lamou	14851
lara	14852
lardy	14853
őlőh	14854
kiáll	14855
718	14856
bfd	14857
arapó	14858
iord	14859
écel	14860
babot	14861
828	14862
daka	14863
dakt	14864
kazin	14865
kúráz	14866
nigu	14867
bagbó	14868
lúzi	14869
tdm	14870
tdh	14871
cran	14872
dras	14873
999	14874
görd	14875
pítés	14876
dühí	14877
cxb	14878
vvv	14879
asmír	14880
ooke	14881
ooker	14882
bati	14883
hg4	14884
oice	14885
öpfl	14886
olinó	14887
ufei	14888
ücsk	14889
pizzé	14890
abora	14891
kxd	14892
kxf	14893
pulcó	14894
perty	14895
runne	14896
rahm	14897
szmán	14898
arath	14899
füles	14900
irics	14901
ámadá	14902
pöck	14903
öblí	14904
rouwe	14905
sayid	14906
unyó	14907
abanc	14908
bambu	14909
hsbc	14910
surr	14911
cvt	14912
stela	14913
pukka	14914
sálat	14915
avril	14916
txako	14917
olzse	14918
kótya	14919
otsch	14920
shaw	14921
ónodi	14922
firká	14923
klima	14924
núri	14925
nlac	14926
islog	14927
inórv	14928
pnas	14929
rzsuj	14930
eppel	14931
creen	14932
heim	14933
szjós	14934
amizd	14935
sántí	14936
seprő	14937
???	14938
movie	14939
oeder	14940
sseff	14941
wynet	14942
vetyé	14943
nhtsa	14944
kagra	14945
nriq	14946
pöml	14947
sogin	14948
ündch	14949
enézy	14950
rózió	14951
./	14952
aol	14953
aed	14954
aaj	14955
aart	14956
b4	14957
bgy	14958
bég	14959
bed	14960
bia	14961
bör	14962
bád	14963
bpa	14964
baki	14965
bft	14966
bdo	14967
cut	14968
ckö	14969
cab	14970
cum	14971
cing	14972
cana	14973
clif	14974
dét	14975
dda	14976
dsg	14977
eq	14978
fag	14979
fész	14980
fasz	14981
fly	14982
fdic	14983
gil	14984
gug	14985
gina	14986
gaba	14987
hili	14988
iest	14989
iop	14990
jás	14991
jság	14992
kány	14993
kúl	14994
kátor	14995
m5	14996
m6	14997
mä	14998
many	14999
mako	15000
np	15001
nq	15002
nert	15003
názs	15004
nuble	15005
oq	15006
oint	15007
pig	15008
pub	15009
q5	15010
rar	15011
rna	15012
rco	15013
síz	15014
soly	15015
sbo	15016
tnt	15017
tész	15018
ual	15019
uná	15020
ube	15021
uzel	15022
uber	15023
ucsa	15024
ugyi	15025
vn	15026
wp	15027
wy	15028
wes	15029
wpt	15030
xu	15031
xe	15032
x6	15033
x3	15034
xue	15035
yme	15036
yűl	15037
yani	15038
z4	15039
zbe	15040
zele	15041
áek	15042
áhi	15043
äm	15044
ía	15045
íl	15046
óró	15047
öc	15048
##bh	15049
##bró	15050
##oi	15051
##cam	15052
##men	15053
##gc	15054
##gn	15055
##lár	15056
##pák	15057
##ánt	15058
##hn	15059
##éé	15060
##űd	15061
szart	15062
szvé	15063
szdp	15064
szfá	15065
##eró	15066
aziz	15067
azíz	15068
azard	15069
azíra	15070
azque	15071
##anó	15072
elga	15073
##ttá	15074
##tti	15075
ésel	15076
##akk	15077
##orc	15078
##ory	15079
##eme	15080
##áre	15081
##ége	15082
egyal	15083
isp	15084
isor	15085
köm	15086
áln	15087
álci	15088
álka	15089
álizs	15090
álbró	15091
ezit	15092
##ole	15093
miná	15094
alz	15095
alia	15096
alvé	15097
alho	15098
etko	15099
enár	15100
enil	15101
ekén	15102
ekko	15103
atna	15104
atka	15105
okó	15106
okság	15107
ásva	15108
esut	15109
esda	15110
esca	15111
ernd	15112
erko	15113
erma	15114
erpe	15115
olív	15116
olia	15117
olba	15118
leu	15119
lese	15120
lest	15121
csí	15122
csök	15123
érm	15124
akony	15125
emy	15126
emog	15127
emgo	15128
ikom	15129
##ose	15130
beck	15131
anfi	15132
anéta	15133
anári	15134
ottó	15135
beny	15136
amma	15137
amlet	15138
armi	15139
arval	15140
arge	15141
arand	15142
ariná	15143
arza	15144
reut	15145
adek	15146
adim	15147
oral	15148
orká	15149
##nke	15150
áry	15151
áris	15152
árhat	15153
árva	15154
##ogo	15155
teel	15156
teff	15157
nitt	15158
niit	15159
nibe	15160
osen	15161
osca	15162
osseu	15163
java	15164
idel	15165
rave	15166
rawi	15167
korm	15168
legri	15169
tuszk	15170
utu	15171
uth	15172
utál	15173
utin	15174
utri	15175
##rey	15176
hatt	15177
haba	15178
otron	15179
otnet	15180
koh	15181
inu	15182
inó	15183
inat	15184
ined	15185
inst	15186
étár	15187
ozak	15188
ve6	15189
sztor	15190
embo	15191
tao	15192
asu	15193
asol	15194
asil	15195
aska	15196
asmu	15197
assel	15198
asic	15199
asfel	15200
táz	15201
egas	15202
egul	15203
kapál	15204
omn	15205
ommu	15206
omoro	15207
tárat	15208
talis	15209
talpa	15210
talic	15211
izla	15212
edo	15213
edge	15214
eddi	15215
edger	15216
ilni	15217
ilsen	15218
lack	15219
ntúr	15220
ulp	15221
ullen	15222
ulse	15223
napek	15224
olyta	15225
via	15226
ükki	15227
onder	15228
lékó	15229
ajos	15230
ba2	15231
taks	15232
##ovo	15233
##over	15234
őreg	15235
##édi	15236
abai	15237
buci	15238
buzi	15239
apar	15240
apás	15241
tanc	15242
irra	15243
irnov	15244
muck	15245
menta	15246
illy	15247
hann	15248
hani	15249
ráp	15250
hij	15251
hic	15252
hion	15253
tier	15254
gazad	15255
rior	15256
riest	15257
itus	15258
itda	15259
itká	15260
halm	15261
áms	15262
ámf	15263
kalic	15264
kalip	15265
roó	15266
roco	15267
ropi	15268
lóba	15269
ndol	15270
ndika	15271
avéná	15272
ukan	15273
táko	15274
lőw	15275
eimer	15276
eihc	15277
spék	15278
spric	15279
nkara	15280
stó	15281
stb	15282
stic	15283
sthy	15284
ogel	15285
ogor	15286
ogaz	15287
oganc	15288
ázlij	15289
meist	15290
bout	15291
boch	15292
bobo	15293
félé	15294
örp	15295
alme	15296
zsin	15297
odi	15298
odiz	15299
odgor	15300
ékon	15301
poly	15302
diete	15303
ozzuk	15304
aher	15305
pera	15306
perr	15307
aszk	15308
ke4	15309
lide	15310
liof	15311
lieb	15312
laku	15313
ményi	15314
vetic	15315
##orth	15316
ötz	15317
entz	15318
teny	15319
ábr	15320
réfá	15321
agor	15322
agar	15323
agol	15324
agro	15325
aglan	15326
aglás	15327
anyin	15328
ontur	15329
ovu	15330
ittas	15331
imó	15332
imik	15333
ölg	15334
árdo	15335
ebri	15336
mavir	15337
lend	15338
ódes	15339
ódon	15340
iasz	15341
adato	15342
karak	15343
nému	15344
marck	15345
tren	15346
tral	15347
trap	15348
inkv	15349
inkel	15350
balla	15351
utóni	15352
andol	15353
andic	15354
sien	15355
sida	15356
barn	15357
barm	15358
létá	15359
für	15360
ipá	15361
ipnó	15362
iptay	15363
síb	15364
síc	15365
iszk	15366
armel	15367
armin	15368
attin	15369
attra	15370
klor	15371
klag	15372
klum	15373
kleró	15374
skanz	15375
fosz	15376
krug	15377
urak	15378
urch	15379
urma	15380
ljaj	15381
dalo	15382
dall	15383
ngler	15384
ngóli	15385
engal	15386
laton	15387
kósza	15388
angán	15389
angry	15390
tőr	15391
plé	15392
plur	15393
gyene	15394
exe	15395
exan	15396
eitz	15397
dub	15398
ming	15399
minst	15400
temb	15401
haran	15402
égz	15403
bera	15404
séri	15405
antu	15406
anter	15407
antin	15408
fiuk	15409
ssau	15410
lood	15411
uduc	15412
udnev	15413
aun	15414
nais	15415
ökl	15416
ökni	15417
ökle	15418
##hou	15419
toya	15420
touch	15421
ruda	15422
runs	15423
köte	15424
tócsá	15425
##hau	15426
oub	15427
oup	15428
áger	15429
mszk	15430
enih	15431
atip	15432
ativ	15433
erdí	15434
rder	15435
alkup	15436
alaxi	15437
kombá	15438
kombó	15439
pru	15440
prada	15441
pregi	15442
ardan	15443
ardín	15444
rósa	15445
rónu	15446
bája	15447
opc	15448
uns	15449
unáz	15450
etic	15451
portu	15452
derg	15453
böf	15454
bömb	15455
torm	15456
torá	15457
gels	15458
tété	15459
kasza	15460
mall	15461
drag	15462
ébén	15463
##imn	15464
arcá	15465
arcag	15466
arczi	15467
meli	15468
afaj	15469
affi	15470
bősz	15471
tapé	15472
fusz	15473
noa	15474
##zsá	15475
mant	15476
mandi	15477
202	15478
ényt	15479
ibró	15480
liká	15481
üng	15482
csúd	15483
pók	15484
dac	15485
nalit	15486
allus	15487
pang	15488
pante	15489
ankt	15490
luz	15491
lux	15492
túry	15493
ritzl	15494
neru	15495
sáf	15496
puis	15497
nlop	15498
aycr	15499
aluj	15500
artik	15501
artja	15502
mpos	15503
pacif	15504
fafa	15505
fauz	15506
gitt	15507
veny	15508
##zds	15509
empin	15510
rski	15511
ézdi	15512
ugos	15513
avic	15514
avice	15515
mikro	15516
zakma	15517
ragu	15518
ragac	15519
252	15520
ütz	15521
orty	15522
189	15523
ergl	15524
argre	15525
trac	15526
arip	15527
mls	15528
137	15529
thie	15530
adir	15531
adie	15532
urai	15533
uray	15534
honen	15535
phins	15536
lanz	15537
lanch	15538
mmf	15539
tarja	15540
ecet	15541
shore	15542
shdie	15543
riklo	15544
heat	15545
hein	15546
heele	15547
sari	15548
sdo	15549
akter	15550
zung	15551
bolt	15552
demic	15553
ups	15554
upka	15555
upic	15556
uppo	15557
yime	15558
ertz	15559
repka	15560
pee	15561
pecky	15562
ief	15563
iefs	15564
408	15565
242	15566
obd	15567
obro	15568
oble	15569
óréh	15570
ifa	15571
ifo	15572
pate	15573
223	15574
lome	15575
inner	15576
assim	15577
eyro	15578
eyne	15579
goal	15580
gour	15581
eft	15582
eferá	15583
gata	15584
madza	15585
nora	15586
achm	15587
279	15588
ding	15589
radis	15590
radír	15591
erivá	15592
iero	15593
jtot	15594
ubes	15595
öszke	15596
öszké	15597
ronne	15598
rpió	15599
355	15600
lore	15601
kb7	15602
láza	15603
káliá	15604
gálta	15605
lite	15606
262	15607
imeo	15608
rodzi	15609
rnóc	15610
ourer	15611
286	15612
immel	15613
eroe	15614
ndrő	15615
stow	15616
syst	15617
syfy	15618
steak	15619
uzz	15620
uzzi	15621
meto	15622
metal	15623
metez	15624
mth	15625
báná	15626
undin	15627
unduz	15628
natá	15629
natai	15630
vánc	15631
310	15632
moral	15633
rkő	15634
ewin	15635
lose	15636
lesk	15637
less	15638
nasc	15639
anout	15640
ript	15641
aulk	15642
363	15643
mirn	15644
tople	15645
rigó	15646
gombo	15647
késte	15648
zabe	15649
raser	15650
rly	15651
caf	15652
eeee	15653
itade	15654
ürr	15655
##ipe	15656
euth	15657
mksz	15658
mkkt	15659
ocka	15660
aljas	15661
papá	15662
weyn	15663
ptv	15664
ncap	15665
leyt	15666
árady	15667
ixele	15668
342	15669
rizli	15670
rame	15671
awb	15672
oyá	15673
oych	15674
429	15675
szaná	15676
384	15677
nyaku	15678
imám	15679
ienne	15680
süll	15681
fero	15682
ferdí	15683
nitro	15684
fxh	15685
411	15686
lski	15687
394	15688
mr2	15689
gbr	15690
gbí	15691
piti	15692
szeku	15693
##phi	15694
yang	15695
gmo	15696
gmbh	15697
446	15698
447	15699
driv	15700
licen	15701
cdc	15702
ercé	15703
ercle	15704
yonh	15705
ousto	15706
évay	15707
etike	15708
azió	15709
hc5	15710
rcos	15711
bújva	15712
575	15713
577	15714
kódo	15715
512	15716
athi	15717
átrav	15718
jakab	15719
burma	15720
aurel	15721
auror	15722
cole	15723
reene	15724
ntain	15725
bélrá	15726
átyj	15727
taxik	15728
oulev	15729
prav	15730
ujber	15731
nyika	15732
595	15733
720	15734
740	15735
kajá	15736
arvin	15737
sing	15738
ravis	15739
660	15740
ergie	15741
cnb	15742
dmc	15743
eill	15744
gőzöl	15745
tepan	15746
itzb	15747
iút	15748
bf8	15749
ammar	15750
izzí	15751
babrá	15752
ajac	15753
aisse	15754
gnac	15755
lizz	15756
signe	15757
vd6	15758
838	15759
bétá	15760
pomáz	15761
rösch	15762
tágan	15763
rtain	15764
comb	15765
gúzs	15766
sette	15767
opoul	15768
875	15769
badac	15770
gt3	15771
itans	15772
pajtá	15773
omlón	15774
894	15775
ezzo	15776
affér	15777
game	15778
albin	15779
oissy	15780
aroma	15781
arome	15782
ouge	15783
maps	15784
táto	15785
zuga	15786
áthé	15787
tocin	15788
kondr	15789
boxo	15790
batá	15791
oivo	15792
audí	15793
efoe	15794
wens	15795
butí	15796
buter	15797
öcsk	15798
puló	15799
perte	15800
runch	15801
mvd	15802
mvp	15803
ntyús	15804
skóta	15805
pamfl	15806
rzecz	15807
rédi	15808
dish	15809
pöff	15810
ertai	15811
piko	15812
pátia	15813
vmsz	15814
akula	15815
lápos	15816
swrc	15817
rebre	15818
ajkóz	15819
bucká	15820
aydn	15821
kólá	15822
róbál	15823
mammo	15824
wtc	15825
wtcc	15826
avrat	15827
eelie	15828
pwrc	15829
ürthy	15830
eiji	15831
eavy	15832
eaves	15833
summá	15834
askar	15835
zónás	15836
urcia	15837
fatá	15838
adhd	15839
jászs	15840
yömr	15841
alcao	15842
orrie	15843
gnis	15844
tcsík	15845
nykk	15846
fuser	15847
nczy	15848
ilcto	15849
ruppe	15850
ancún	15851
croni	15852
eciar	15853
uzern	15854
flau	15855
toeso	15856
ejduk	15857
craft	15858
flix	15859
lcoa	15860
úraú	15861
oklot	15862
bafta	15863
ssipp	15864
iffhs	15865
bgyh	15866
iestá	15867
ssaud	15868
fauzy	15869
thieu	15870
eeeee	15871
((	15872
-.	15873
01	15874
09	15875
7e	15876
aeg	15877
ayen	15878
aest	15879
bz	15880
bä	15881
btt	15882
bnd	15883
bett	15884
bész	15885
batt	15886
cce	15887
cgi	15888
cina	15889
cako	15890
dp	15891
dart	15892
dci	15893
dus	15894
ditá	15895
dst	15896
dfb	15897
eap	15898
eaz	15899
eben	15900
eia	15901
fó	15902
fn	15903
fúl	15904
fszh	15905
gart	15906
gej	15907
gád	15908
gha	15909
gub	15910
gdf	15911
gau	15912
gseu	15913
glif	15914
hak	15915
hág	15916
hko	15917
hep	15918
hsv	15919
hzds	15920
iele	15921
jol	15922
jál	15923
jag	15924
lész	15925
lobb	15926
lola	15927
m7	15928
mem	15929
mko	15930
mho	15931
mele	15932
mke	15933
morth	15934
nez	15935
nqui	15936
oet	15937
oén	15938
oca	15939
oxi	15940
oitz	15941
pér	15942
pni	15943
qr	15944
qe	15945
r1	15946
rsze	15947
rté	15948
rney	15949
sut	15950
swo	15951
srí	15952
uen	15953
ueg	15954
uwe	15955
uili	15956
uís	15957
vny	15958
vos	15959
wb	15960
wr	15961
wer	15962
weg	15963
won	15964
wyer	15965
xj	15966
x1	15967
xley	15968
xánt	15969
ynt	15970
yos	15971
yut	15972
yuk	15973
ysa	15974
yomá	15975
ying	15976
ycho	15977
ááre	15978
äck	15979
ço	15980
íd	15981
ódá	15982
ócsi	15983
öer	15984
üc	15985
ński	15986
őben	15987
##ksz	15988
##br	15989
##bok	15990
##rl	15991
##rik	15992
##öf	15993
##ján	15994
##íro	15995
##oa	15996
##oc	15997
##cca	15998
##ea	15999
##dal	16000
##nar	16001
##nit	16002
##gt	16003
##gd	16004
##gp	16005
##őő	16006
##vp	16007
##ven	16008
##hal	16009
##hai	16010
##úú	16011
##ée	16012
##yl	16013
##wei	16014
##är	16015
##än	16016
##gyu	16017
szcz	16018
szbu	16019
szada	16020
azul	16021
elat	16022
elor	16023
elit	16024
elis	16025
elus	16026
elló	16027
elphi	16028
##aló	16029
##oré	16030
iso	16031
isce	16032
iska	16033
issa	16034
isaks	16035
nyő	16036
nyx	16037
nyaki	16038
hob	16039
álsz	16040
álba	16041
álfü	16042
ezor	16043
ezdá	16044
##oli	16045
miu	16046
mina	16047
mino	16048
missz	16049
alák	16050
allen	16051
alci	16052
alul	16053
alce	16054
alba	16055
alei	16056
alte	16057
etil	16058
etus	16059
etzel	16060
etry	16061
etric	16062
enó	16063
enná	16064
enze	16065
enise	16066
ekg	16067
ekl	16068
eká	16069
ekam	16070
ekti	16071
kino	16072
atny	16073
atiz	16074
atum	16075
atiná	16076
atina	16077
okko	16078
okod	16079
okád	16080
ásás	16081
eram	16082
erban	16083
erot	16084
erje	16085
erdi	16086
ercsó	16087
oler	16088
olber	16089
éreg	16090
ércz	16091
akp	16092
aksa	16093
aksel	16094
##edy	16095
ems	16096
emmer	16097
emmy	16098
emsky	16099
ikar	16100
bee	16101
anz	16102
anel	16103
anná	16104
anone	16105
beni	16106
gyia	16107
álly	16108
aman	16109
arw	16110
rean	16111
nake	16112
adár	16113
orro	16114
orch	16115
orná	16116
onja	16117
onia	16118
##amb	16119
árti	16120
##its	16121
##azá	16122
tefá	16123
ltc	16124
ltin	16125
ltus	16126
nii	16127
niak	16128
nida	16129
osko	16130
ospo	16131
osib	16132
jacht	16133
ids	16134
iddy	16135
rax	16136
ratt	16137
átka	16138
kord	16139
korpa	16140
agys	16141
elősz	16142
igor	16143
igol	16144
igne	16145
##isc	16146
##rah	16147
tuza	16148
##ase	16149
utb	16150
terü	16151
terä	16152
indá	16153
ha5	16154
hawn	16155
otep	16156
otid	16157
##lto	16158
nech	16159
ánek	16160
ánna	16161
ánná	16162
inh	16163
inai	16164
inna	16165
inona	16166
étő	16167
étely	16168
ozn	16169
szten	16170
sztro	16171
sztot	16172
sztic	16173
tacs	16174
tabi	16175
asl	16176
asyj	16177
##vey	16178
egaz	16179
másy	16180
vandá	16181
vanti	16182
tudie	16183
omel	16184
omár	16185
omma	16186
omme	16187
omszk	16188
taljá	16189
aio	16190
aic	16191
aier	16192
aica	16193
izl	16194
edit	16195
edlik	16196
##rob	16197
##rot	16198
ilan	16199
iles	16200
ilner	16201
ildeb	16202
##otr	16203
ntis	16204
ntine	16205
##nau	16206
ulag	16207
bao	16208
bain	16209
##ovi	16210
abol	16211
abin	16212
abder	16213
pedo	16214
cio	16215
aplin	16216
tane	16217
irta	16218
irko	16219
irza	16220
irlo	16221
##top	16222
meno	16223
meni	16224
hanah	16225
unky	16226
bibi	16227
hick	16228
tics	16229
tiéd	16230
ticó	16231
rind	16232
rink	16233
ricz	16234
ülig	16235
ülike	16236
katic	16237
iten	16238
itos	16239
itko	16240
itya	16241
épé	16242
hale	16243
maják	16244
veleg	16245
rous	16246
rodi	16247
lóz	16248
ndy	16249
énit	16250
avn	16251
avad	16252
avára	16253
avina	16254
uku	16255
ukko	16256
llog	16257
llas	16258
eiu	16259
eint	16260
eide	16261
sps	16262
spi	16263
spé	16264
spnf	16265
splay	16266
nkth	16267
sts	16268
stü	16269
stig	16270
stul	16271
stif	16272
ogj	16273
ázda	16274
ázato	16275
támo	16276
sítúr	16277
almö	16278
almő	16279
oden	16280
odom	16281
odney	16282
ékü	16283
sex	16284
elmon	16285
ahda	16286
perká	16287
perzs	16288
ke8	16289
ke3	16290
kefe	16291
liot	16292
lipo	16293
lief	16294
vac	16295
vay	16296
lakul	16297
auth	16298
auter	16299
anie	16300
anier	16301
sent	16302
enter	16303
mosd	16304
lissa	16305
záso	16306
ábre	16307
ábri	16308
ábtl	16309
konc	16310
konsz	16311
agb	16312
agel	16313
agdi	16314
ovsze	16315
endl	16316
ender	16317
ittor	16318
imat	16319
imára	16320
imbi	16321
imeno	16322
ingá	16323
ingen	16324
ölgye	16325
ölner	16326
ebh	16327
ebar	16328
ebre	16329
##rie	16330
mav	16331
lásy	16332
vasi	16333
mard	16334
mari	16335
marta	16336
utay	16337
humá	16338
graz	16339
tébé	16340
tike	16341
ands	16342
sio	16343
sian	16344
sitt	16345
sich	16346
fry	16347
péld	16348
##bau	16349
usm	16350
usek	16351
uska	16352
uske	16353
ipak	16354
ipko	16355
kamra	16356
attai	16357
klk	16358
klik	16359
klse	16360
skadi	16361
sktop	16362
ktűr	16363
ché	16364
rani	16365
lánd	16366
tolj	16367
krím	16368
krist	16369
ural	16370
urge	16371
urkó	16372
kengu	16373
dalí	16374
ngc	16375
ngl	16376
kóv	16377
kópi	16378
fe5	16379
elti	16380
angle	16381
testá	16382
plast	16383
umme	16384
bbs	16385
bb2	16386
ándi	16387
extr	16388
szof	16389
duda	16390
bün	16391
ástra	16392
temp	16393
anth	16394
antas	16395
fie	16396
aca	16397
acem	16398
acre	16399
acke	16400
sson	16401
rmó	16402
rmany	16403
lous	16404
loch	16405
uden	16406
udar	16407
auró	16408
navar	16409
ökély	16410
eszel	16411
tocs	16412
toxi	16413
ruch	16414
ruber	16415
ruzi	16416
bűbáj	16417
óska	16418
tóri	16419
mocsk	16420
tyep	16421
tyev	16422
küvi	16423
tvr	16424
icro	16425
icker	16426
ágia	16427
evcs	16428
enii	16429
atir	16430
redig	16431
alkar	16432
alais	16433
alavi	16434
komló	16435
kompe	16436
prűd	16437
arde	16438
ardán	16439
tbv	16440
rósz	16441
róni	16442
ákh	16443
opó	16444
opt	16445
oppo	16446
opcli	16447
opárd	16448
stack	16449
stair	16450
unas	16451
ksége	16452
bord	16453
borá	16454
relax	16455
einst	16456
ultj	16457
torg	16458
ízing	16459
darg	16460
dari	16461
darf	16462
ervai	16463
kachu	16464
dry	16465
pilá	16466
arcon	16467
niko	16468
ainzi	16469
melo	16470
afon	16471
afoe	16472
saw	16473
gyufa	16474
gyufá	16475
zisz	16476
lago	16477
lagzi	16478
ibel	16479
pie	16480
pind	16481
ongó	16482
party	16483
kandi	16484
szkt	16485
epli	16486
tonok	16487
nalá	16488
dobog	16489
ffog	16490
nfa	16491
panik	16492
pandi	16493
pangi	16494
ankar	16495
luig	16496
rity	16497
ritus	16498
eaver	16499
ajou	16500
ápr	16501
ápv	16502
ápua	16503
áplán	16504
uszki	16505
nld	16506
aygo	16507
kocc	16508
mpb	16509
mps	16510
faul	16511
giq	16512
gica	16513
veni	16514
vencs	16515
porrá	16516
rsv	16517
cox	16518
lino	16519
rembo	16520
remio	16521
rgar	16522
rgne	16523
rgová	16524
303	16525
tinó	16526
259	16527
uevo	16528
erger	16529
ecsk	16530
arii	16531
dták	16532
doku	16533
jur	16534
jun	16535
urgen	16536
nyev	16537
ersá	16538
moni	16539
icsk	16540
icska	16541
ppel	16542
tompa	16543
thm	16544
thi	16545
thal	16546
adič	16547
nanó	16548
rzis	16549
lank	16550
mmer	16551
targ	16552
ecl	16553
ecel	16554
ecca	16555
ecker	16556
ectio	16557
gara	16558
shsm	16559
ráks	16560
ligo	16561
jenő	16562
heis	16563
sdku	16564
sdyk	16565
zaja	16566
nud	16567
theus	16568
annal	16569
rogra	16570
ogya	16571
nsx	16572
sue	16573
sura	16574
sumá	16575
krav	16576
asham	16577
upper	16578
yip	16579
ólya	16580
söt	16581
erts	16582
ambr	16583
ambi	16584
peh	16585
iea	16586
sóko	16587
243	16588
obu	16589
oby	16590
obri	16591
ccc	16592
ónoka	16593
oft	16594
ladet	16595
ifua	16596
221	16597
227	16598
űzi	16599
lomo	16600
modu	16601
innai	16602
agado	16603
asser	16604
vb8	16605
eye	16606
eym	16607
eys	16608
milio	16609
dvo	16610
zalék	16611
szlo	16612
szlai	16613
efr	16614
efsa	16615
abah	16616
anuta	16617
faja	16618
ampon	16619
231	16620
234	16621
scr	16622
scron	16623
áriu	16624
enzu	16625
piru	16626
kd6	16627
rada	16628
radi	16629
radiv	16630
erida	16631
erich	16632
eridi	16633
ubele	16634
zmat	16635
ronm	16636
rázu	16637
ganda	16638
tszer	16639
arret	16640
araf	16641
358	16642
352	16643
ávü	16644
ávada	16645
lord	16646
kbh	16647
alec	16648
lázba	16649
pálcá	16650
kf4	16651
tálat	16652
búr	16653
búg	16654
káli	16655
tadi	16656
nzo	16657
nzer	16658
orusz	16659
261	16660
mble	16661
mbrán	16662
quig	16663
quim	16664
rnazá	16665
anaet	16666
ourge	16667
őzt	16668
issi	16669
mánia	16670
ucci	16671
gain	16672
gaval	16673
üsti	16674
sodik	16675
ilib	16676
kg5	16677
451	16678
uzmin	16679
328	16680
rinc	16681
ácol	16682
bór	16683
bóta	16684
bánj	16685
bánc	16686
unds	16687
undee	16688
sseau	16689
nata	16690
igaw	16691
imfon	16692
805	16693
moraj	16694
baká	16695
limt	16696
limat	16697
acse	16698
ripp	16699
alime	16700
369	16701
coni	16702
topp	16703
rigo	16704
rigá	16705
chea	16706
késni	16707
üdv	16708
itive	16709
erzog	16710
horpe	16711
cápák	16712
nnar	16713
ieksa	16714
ürge	16715
szög	16716
332	16717
331	16718
334	16719
löw	16720
löty	16721
fige	16722
zool	16723
zofá	16724
aljak	16725
papi	16726
papir	16727
weig	16728
wehr	16729
víg	16730
hászk	16731
atyj	16732
ptiká	16733
utti	16734
uttog	16735
ncil	16736
domár	16737
lliot	16738
kade	16739
nomic	16740
ermál	16741
rizst	16742
374	16743
tlas	16744
ramin	16745
awes	16746
oyle	16747
oyod	16748
426	16749
427	16750
eanu	16751
gorle	16752
nyaf	16753
388	16754
383	16755
657	16756
kht	16757
potom	16758
ompi	16759
bicaj	16760
cera	16761
penz	16762
jale	16763
rvin	16764
lhva	16765
tasó	16766
akah	16767
nite	16768
mravi	16769
412	16770
413	16771
ocská	16772
tps	16773
vlbi	16774
rbc	16775
mrfk	16776
arená	16777
ommf	16778
438	16779
435	16780
434	16781
bonb	16782
kc6	16783
nicó	16784
acio	16785
past	16786
pass	16787
pasas	16788
kurku	16789
466	16790
léne	16791
elaw	16792
524	16793
eist	16794
jéna	16795
535	16796
ttice	16797
ousse	16798
640	16799
damp	16800
rutka	16801
491	16802
496	16803
##pec	16804
545	16805
hf5	16806
hfd	16807
ochus	16808
475	16809
agrad	16810
510	16811
msf	16812
addy	16813
busa	16814
fút	16815
orián	16816
980	16817
athó	16818
athal	16819
jakuz	16820
aurus	16821
lipót	16822
624	16823
ging	16824
ntact	16825
rrózi	16826
bc5	16827
bc2	16828
611	16829
613	16830
iata	16831
uitt	16832
uicid	16833
pánik	16834
lobin	16835
ujin	16836
danó	16837
748	16838
dith	16839
ringá	16840
lona	16841
apros	16842
666	16843
zege	16844
bábá	16845
kakuk	16846
nyűh	16847
lilla	16848
ethot	16849
larin	16850
básty	16851
aldé	16852
aldan	16853
aldív	16854
eiden	16855
eidli	16856
bf4	16857
iorel	16858
skey	16859
888	16860
881	16861
isky	16862
babil	16863
ewish	16864
aise	16865
aisie	16866
bike	16867
tkm	16868
ctg	16869
fd5	16870
840	16871
835	16872
pompa	16873
zbr	16874
tradi	16875
earch	16876
space	16877
sfo	16878
hb8	16879
come	16880
ynga	16881
azaar	16882
bitur	16883
nver	16884
ectra	16885
ectus	16886
roza	16887
rozé	16888
rozma	16889
retz	16890
uisse	16891
raph	16892
káprá	16893
fkgp	16894
drah	16895
gsm	16896
pajt	16897
yew	16898
pdl	16899
toryk	16900
súgó	16901
ndusz	16902
auge	16903
augui	16904
mande	16905
bátra	16906
pcso	16907
abdel	16908
euska	16909
ietz	16910
ieti	16911
allec	16912
dhrad	16913
pvv	16914
ozsov	16915
rudat	16916
eige	16917
eign	16918
ucson	16919
wank	16920
lause	16921
simog	16922
alpny	16923
onnay	16924
póráz	16925
dogál	16926
oire	16927
omsen	16928
ufni	16929
kpos	16930
iczó	16931
mixe	16932
bután	16933
basi	16934
kukac	16935
övete	16936
pofáz	16937
perti	16938
peps	16939
ntená	16940
farv	16941
nark	16942
abso	16943
mágiá	16944
ajcár	16945
bule	16946
shopp	16947
eotip	16948
pyder	16949
rrib	16950
ségüg	16951
aigon	16952
dúc	16953
jazan	16954
szőf	16955
nyige	16956
bazsa	16957
eekly	16958
amvad	16959
copa	16960
mrisz	16961
elzer	16962
elkey	16963
diszc	16964
idibe	16965
aufer	16966
next	16967
cetes	16968
atzir	16969
obey	16970
reund	16971
cyc	16972
názia	16973
orrei	16974
ahará	16975
nayar	16976
bose	16977
ircus	16978
ucker	16979
amene	16980
eufó	16981
navig	16982
trikó	16983
gumó	16984
lört	16985
tubus	16986
aggie	16987
ipóti	16988
iaggi	16989
pezsd	16990
walk	16991
isich	16992
guire	16993
skalp	16994
aumag	16995
sjár	16996
tgyin	16997
imlő	16998
aubry	16999
yomae	17000
mpact	17001
kölyk	17002
ankee	17003
itrát	17004
keblű	17005
ummel	17006
sáska	17007
átáni	17008
zzzzz	17009
gluon	17010
ohnse	17011
iessl	17012
swaps	17013
aesar	17014
knyf	17015
oats	17016
anamá	17017
rrépa	17018
mäki	17019
ämö	17020
uzzle	17021
ürrle	17022
bäck	17023
lobby	17024
mkosz	17025
oitzl	17026
xántu	17027
yutin	17028
ysace	17029
çois	17030
"-	17031
".	17032
-;	17033
-:	17034
02	17035
3x	17036
aam	17037
aele	17038
bott	17039
best	17040
có	17041
cap	17042
cil	17043
cus	17044
cla	17045
cli	17046
cfa	17047
céná	17048
díz	17049
dley	17050
dnye	17051
e3	17052
eü	17053
enyi	17054
eest	17055
eemo	17056
ecid	17057
fw	17058
fap	17059
fta	17060
fas	17061
frá	17062
fsi	17063
fako	17064
geg	17065
gell	17066
gím	17067
gfa	17068
gvár	17069
h3	17070
hw	17071
hik	17072
hus	17073
hge	17074
hrt	17075
iez	17076
iván	17077
iur	17078
iud	17079
irac	17080
jad	17081
jáz	17082
jov	17083
jing	17084
jese	17085
jote	17086
jord	17087
kől	17088
kaki	17089
lz	17090
lű	17091
lol	17092
lír	17093
lha	17094
lnö	17095
lxi	17096
luká	17097
lötty	17098
mő	17099
mszt	17100
matt	17101
mej	17102
mály	17103
mló	17104
mfa	17105
nart	17106
nuk	17107
nrc	17108
oes	17109
oam	17110
oad	17111
oil	17112
oell	17113
oot	17114
oard	17115
pf	17116
pbb	17117
pék	17118
pti	17119
phon	17120
q7	17121
qpr	17122
rw	17123
rä	17124
ragy	17125
rhet	17126
rch	17127
ríz	17128
rsó	17129
rhá	17130
rkó	17131
rfk	17132
rwe	17133
sq	17134
sed	17135
sri	17136
sma	17137
srt	17138
swe	17139
ttt	17140
tner	17141
uban	17142
ure	17143
uro	17144
usg	17145
uill	17146
ufo	17147
uette	17148
v8	17149
vű	17150
vok	17151
wu	17152
wap	17153
waz	17154
wei	17155
whl	17156
xf	17157
xh	17158
xin	17159
yz	17160
yes	17161
yja	17162
yele	17163
yth	17164
zoga	17165
zodi	17166
zlav	17167
zhou	17168
áel	17169
átt	17170
ábe	17171
ávi	17172
ácsi	17173
ááá	17174
ät	17175
äve	17176
ärs	17177
ée	17178
émé	17179
éjt	17180
íceu	17181
óbor	17182
óév	17183
öhr	17184
ölle	17185
öpec	17186
úni	17187
üe	17188
ülle	17189
űsz	17190
##uro	17191
##zb	17192
##zt	17193
##tv	17194
##jaj	17195
##jov	17196
##eva	17197
##mj	17198
##gő	17199
##lc	17200
##fál	17201
##hm	17202
##hin	17203
##úk	17204
##éda	17205
##yu	17206
##yam	17207
##yag	17208
##xe	17209
##60	17210
##qa	17211
##űn	17212
##ür	17213
##àg	17214
szr	17215
szér	17216
szát	17217
szől	17218
szci	17219
szdo	17220
szúd	17221
##ela	17222
##elt	17223
##enc	17224
##szm	17225
azat	17226
azit	17227
elon	17228
elén	17229
elro	17230
elka	17231
##alá	17232
##orp	17233
##orá	17234
##eky	17235
egya	17236
egyg	17237
isc	17238
isle	17239
istor	17240
nyor	17241
nycs	17242
nyog	17243
nyős	17244
nyuk	17245
nyír	17246
nyaze	17247
nying	17248
nyódi	17249
álf	17250
álad	17251
álvá	17252
álca	17253
ezmer	17254
mi5	17255
mi6	17256
mink	17257
mizs	17258
als	17259
alet	17260
alal	17261
alaz	17262
alök	17263
alch	17264
allan	17265
alop	17266
alká	17267
alfa	17268
alpán	17269
also	17270
etli	17271
etac	17272
etina	17273
enel	17274
enát	17275
enom	17276
enac	17277
kél	17278
ekr	17279
ekus	17280
kien	17281
kink	17282
kina	17283
kiló	17284
atn	17285
atus	17286
oké	17287
oky	17288
okle	17289
ásí	17290
esna	17291
ergy	17292
erut	17293
eris	17294
erép	17295
errá	17296
erco	17297
olm	17298
olko	17299
olina	17300
olley	17301
leen	17302
éru	17303
érus	17304
akb	17305
akuk	17306
akray	17307
##áno	17308
##onc	17309
emó	17310
emf	17311
emmá	17312
beit	17313
anet	17314
anik	17315
anká	17316
anza	17317
otti	17318
gyül	17319
##oki	17320
amuk	17321
amry	17322
amage	17323
ament	17324
amagu	17325
aral	17326
arja	17327
arló	17328
arvá	17329
aruh	17330
arber	17331
arate	17332
arvey	17333
reek	17334
reap	17335
adst	17336
adari	17337
adetz	17338
oró	17339
orw	17340
orve	17341
orka	17342
orza	17343
orent	17344
oritz	17345
onad	17346
onov	17347
onne	17348
onba	17349
##ado	17350
##ila	17351
árut	17352
árvá	17353
árgu	17354
##itu	17355
teq	17356
teyr	17357
ltoz	17358
osc	17359
ose	17360
osva	17361
idák	17362
idzs	17363
ravas	17364
rast	17365
korpi	17366
éll	17367
élgyu	17368
##nic	17369
rena	17370
rené	17371
valdi	17372
##uth	17373
igula	17374
tuó	17375
tusz	17376
tusa	17377
utak	17378
terű	17379
indro	17380
haan	17381
keru	17382
koto	17383
koszo	17384
nef	17385
ánuel	17386
inp	17387
inci	17388
inot	17389
inva	17390
inszi	17391
étál	17392
##énu	17393
ozamb	17394
vecz	17395
sztk	17396
sztró	17397
sztri	17398
sztie	17399
taine	17400
tahi	17401
asti	17402
asur	17403
egu	17404
egis	17405
egio	17406
vám	17407
kapor	17408
vani	17409
tudi	17410
tuden	17411
omon	17412
ommáz	17413
tárik	17414
mago	17415
tall	17416
talpá	17417
aif	17418
aidi	17419
aifa	17420
izas	17421
izma	17422
edl	17423
eddie	17424
edgya	17425
ilat	17426
ilit	17427
illen	17428
lach	17429
zör	17430
zöng	17431
ntát	17432
ntit	17433
ntig	17434
ttk	17435
ulf	17436
ulal	17437
ulcs	17438
ulvi	17439
ului	17440
ulík	17441
olyki	17442
viva	17443
ject	17444
ükóz	17445
ajti	17446
euwi	17447
ba5	17448
ba3	17449
baán	17450
baum	17451
taki	17452
taksá	17453
őré	17454
abra	17455
abab	17456
abóc	17457
abola	17458
##lef	17459
pedá	17460
cic	17461
cim	17462
cip	17463
buch	17464
esto	17465
apl	17466
apel	17467
apád	17468
apka	17469
aplo	17470
apole	17471
abbie	17472
tansz	17473
iran	17474
irul	17475
irtó	17476
irner	17477
irken	17478
irage	17479
irgá	17480
irgo	17481
menu	17482
mend	17483
hand	17484
haneu	17485
rább	17486
##chy	17487
bice	17488
bick	17489
hio	17490
hip	17491
hink	17492
tieg	17493
tied	17494
gazg	17495
riet	17496
riók	17497
ülhe	17498
katá	17499
ité	17500
iths	17501
főn	17502
ámí	17503
ámít	17504
isma	17505
prove	17506
velin	17507
rtv	17508
rtis	17509
rota	17510
rodá	17511
roho	17512
rock	17513
##sey	17514
lóni	17515
lódi	17516
éner	17517
énik	17518
avasz	17519
avvá	17520
avall	17521
avah	17522
avins	17523
ukli	17524
llár	17525
lles	17526
llán	17527
llin	17528
lője	17529
jóg	17530
eic	17531
spü	17532
spar	17533
sperá	17534
nkó	17535
nklá	17536
sted	17537
stál	17538
stro	17539
stim	17540
stlé	17541
oldo	17542
oguc	17543
ázó	17544
ázis	17545
##nod	17546
mex	17547
meyer	17548
boj	17549
bow	17550
örd	17551
epin	17552
eppe	17553
salf	17554
lyde	17555
zsó	17556
zsad	17557
odl	17558
odol	17559
odza	17560
ékí	17561
ékár	17562
polló	17563
polty	17564
did	17565
diq	17566
dico	17567
sease	17568
jászk	17569
jávor	17570
kec	17571
keh	17572
tata	17573
lie	17574
lien	17575
lija	17576
lakít	17577
kkő	17578
aute	17579
vetí	17580
ötcs	17581
öteb	17582
ötym	17583
anic	17584
anima	17585
seny	17586
entr	17587
entor	17588
entim	17589
tenor	17590
tenye	17591
kusz	17592
ábu	17593
réc	17594
réfál	17595
sike	17596
agú	17597
agma	17598
agara	17599
ontai	17600
ovie	17601
ovgo	17602
##opf	17603
ingis	17604
tetsz	17605
ebra	17606
ebély	17607
ebow	17608
netár	17609
mach	17610
maine	17611
mackó	17612
lendü	17613
ótaj	17614
áray	17615
karo	17616
karne	17617
blsz	17618
blom	17619
grand	17620
tram	17621
ásicó	17622
aláp	17623
amera	17624
szós	17625
inkó	17626
balt	17627
andel	17628
andan	17629
andri	17630
andió	17631
sij	17632
side	17633
barmo	17634
usná	17635
usie	17636
usfü	17637
nini	17638
akaró	17639
akari	17640
rönk	17641
ipeg	17642
ipro	17643
ellb	17644
ords	17645
ordos	17646
kama	17647
lala	17648
atte	17649
sku	17650
sken	17651
skog	17652
skas	17653
kti	17654
chin	17655
dohai	17656
ranm	17657
randá	17658
ászd	17659
lább	17660
krák	17661
urp	17662
urv	17663
uris	17664
urand	17665
urke	17666
urst	17667
urren	17668
kente	17669
dalle	17670
ngus	17671
nglik	17672
nyija	17673
lator	17674
latex	17675
kóbo	17676
plc	17677
plin	17678
plénu	17679
ums	17680
umrá	17681
umph	17682
bb6	17683
péc	17684
dud	17685
dux	17686
dual	17687
tema	17688
zenét	17689
égű	17690
égve	17691
beré	17692
antal	17693
anthr	17694
acen	17695
acog	17696
actio	17697
olga	17698
janic	17699
ssc	17700
ssss	17701
risto	17702
rman	17703
rmad	17704
rmgc	17705
rmory	17706
look	17707
udai	17708
udott	17709
udge	17710
aumá	17711
aurá	17712
auco	17713
auhau	17714
múzsá	17715
navi	17716
öke	17717
vée	17718
aithl	17719
lms	17720
lmer	17721
lmúl	17722
ruta	17723
ruxi	17724
rupp	17725
labla	17726
yaya	17727
óská	17728
óssá	17729
roma	17730
édí	17731
moho	17732
tyák	17733
tyeva	17734
tyúk	17735
ouq	17736
ouri	17737
oulto	17738
orow	17739
azzin	17740
mezzo	17741
tvg	17742
icer	17743
icki	17744
ictio	17745
ágí	17746
ágvár	17747
evás	17748
evét	17749
enic	17750
atiu	17751
alkon	17752
alkut	17753
bras	17754
etey	17755
komi	17756
komfo	17757
motio	17758
prít	17759
prezi	17760
préda	17761
ardó	17762
gyanu	17763
róger	17764
rózsa	17765
orbid	17766
fenc	17767
ákány	17768
ákay	17769
opr	17770
opf	17771
opus	17772
opriv	17773
opzen	17774
oprán	17775
gala	17776
gallé	17777
porti	17778
raki	17779
bora	17780
borg	17781
borzi	17782
relá	17783
eina	17784
eino	17785
ultán	17786
ultid	17787
böszm	17788
ízz	17789
noval	17790
túsza	17791
atosz	17792
drap	17793
ébény	17794
##imo	17795
arcal	17796
niku	17797
afo	17798
loven	17799
lover	17800
saf	17801
##gie	17802
lasco	17803
lagu	17804
poét	17805
poda	17806
posza	17807
poszi	17808
pocak	17809
pocso	17810
nowi	17811
nocé	17812
job	17813
mance	17814
manók	17815
manif	17816
landr	17817
ényő	17818
atay	17819
őlé	17820
ibi	17821
ibut	17822
ibrá	17823
ibri	17824
pisz	17825
pies	17826
likom	17827
guba	17828
kans	17829
kani	17830
ígu	17831
izmod	17832
pós	17833
póru	17834
arke	17835
allab	17836
cev	17837
pancs	17838
ankel	17839
lur	17840
lui	17841
ritk	17842
rito	17843
##rth	17844
ózd	17845
rabz	17846
rabus	17847
uszit	17848
puf	17849
ayr	17850
ayed	17851
aybac	17852
maté	17853
matsz	17854
cika	17855
arter	17856
mpó	17857
sszon	17858
pao	17859
pacs	17860
ldk	17861
gif	17862
giar	17863
porá	17864
porla	17865
ckx	17866
empo	17867
szeá	17868
bkik	17869
avior	17870
rgosz	17871
regu	17872
307	17873
ihf	17874
tinc	17875
ivák	17876
rage	17877
ádai	17878
left	17879
ergen	17880
hőt	17881
rale	17882
ralit	17883
argan	17884
moled	17885
ecsa	17886
ecse	17887
enst	17888
trach	17889
arisz	17890
arich	17891
aribo	17892
arica	17893
mlm	17894
juj	17895
ackel	17896
dáma	17897
nyec	17898
money	17899
öldr	17900
ppi	17901
amará	17902
amari	17903
##sav	17904
tury	17905
thr	17906
then	17907
thrie	17908
nana	17909
owie	17910
krim	17911
phron	17912
phys	17913
lábal	17914
lans	17915
kasso	17916
mmere	17917
saku	17918
tarj	17919
eczá	17920
shner	17921
shyam	17922
rikí	17923
padli	17924
hee	17925
he6	17926
heil	17927
505	17928
502	17929
504	17930
sdss	17931
éniu	17932
anns	17933
koli	17934
kéks	17935
réml	17936
nsu	17937
suu	17938
bolo	17939
demwi	17940
upra	17941
ólál	17942
ólyag	17943
ertin	17944
geek	17945
ajdo	17946
pew	17947
peak	17948
pect	17949
dráma	17950
drává	17951
hero	17952
obak	17953
obli	17954
objov	17955
ccan	17956
hame	17957
nnyög	17958
ift	17959
ifusz	17960
lopó	17961
lopa	17962
pater	17963
lomer	17964
lomtá	17965
modor	17966
ajnay	17967
gera	17968
fals	17969
resin	17970
asset	17971
wain	17972
sárgu	17973
mém	17974
andrk	17975
kemi	17976
szlár	17977
efer	17978
efle	17979
efty	17980
efsf	17981
izsny	17982
móto	17983
achin	17984
abaho	17985
szala	17986
szald	17987
erea	17988
lebel	17989
smart	17990
237	17991
239	17992
scu	17993
scri	17994
scót	17995
árió	17996
góniá	17997
enzo	17998
kdű	17999
rader	18000
radov	18001
ierce	18002
iani	18003
uby	18004
ubor	18005
ubik	18006
ubas	18007
ubur	18008
ácska	18009
oller	18010
ollow	18011
ráze	18012
mcp	18013
hnom	18014
appui	18015
rpik	18016
##uru	18017
arav	18018
ávó	18019
astel	18020
lázá	18021
lázq	18022
medr	18023
medy	18024
medre	18025
glia	18026
kf2	18027
kfki	18028
tálto	18029
tálká	18030
kála	18031
kálp	18032
nzz	18033
litar	18034
litka	18035
269	18036
qual	18037
fc5	18038
rodiz	18039
rnett	18040
rnót	18041
kroó	18042
288	18043
pkn	18044
pkár	18045
pkék	18046
erou	18047
eroi	18048
eroy	18049
ndrét	18050
grász	18051
ovace	18052
sziki	18053
déta	18054
zea	18055
eosz	18056
rétes	18057
mnm	18058
kg3	18059
kger	18060
kgst	18061
326	18062
adoa	18063
adoer	18064
ácán	18065
292	18066
294	18067
ielsa	18068
undáz	18069
gnan	18070
ómez	18071
cskál	18072
prev	18073
315	18074
314	18075
313	18076
803	18077
mory	18078
morph	18079
limf	18080
rkut	18081
rkans	18082
ewand	18083
##czi	18084
ssent	18085
ruscs	18086
inis	18087
kimó	18088
acsó	18089
ijaz	18090
nast	18091
nasi	18092
anoia	18093
anodá	18094
ripl	18095
rippo	18096
apien	18097
apier	18098
kopt	18099
alid	18100
ergey	18101
onyin	18102
onyít	18103
emea	18104
368	18105
362	18106
altn	18107
alth	18108
topm	18109
rigg	18110
avara	18111
zorai	18112
zabol	18113
rask	18114
itiv	18115
erzic	18116
asir	18117
eee	18118
ameo	18119
itas	18120
lepke	18121
psény	18122
bmsk	18123
aboul	18124
lazs	18125
ocko	18126
occo	18127
trick	18128
tripe	18129
zoo	18130
zoe	18131
papaj	18132
alvad	18133
atyád	18134
mash	18135
masír	18136
utter	18137
assau	18138
ohin	18139
ohém	18140
akkai	18141
akkuk	18142
758	18143
ixet	18144
ixar	18145
346	18146
digli	18147
372	18148
373	18149
rama	18150
ramp	18151
awri	18152
awke	18153
oyd	18154
oyg	18155
oys	18156
425	18157
tipu	18158
ilmer	18159
658	18160
gp2	18161
uhn	18162
uhanc	18163
ojo	18164
ojár	18165
ojvo	18166
iense	18167
nadol	18168
erjan	18169
amurá	18170
iesen	18171
rict	18172
utyiz	18173
tabil	18174
pást	18175
eagle	18176
pops	18177
popki	18178
popco	18179
popsi	18180
imnus	18181
419	18182
verti	18183
tpm	18184
ödr	18185
399	18186
481	18187
484	18188
mrsa	18189
priv	18190
arju	18191
njou	18192
pito	18193
436	18194
437	18195
bonu	18196
bonsz	18197
etafo	18198
show	18199
yana	18200
hxh	18201
acic	18202
pasi	18203
kurj	18204
lavon	18205
ndrey	18206
iemer	18207
iemon	18208
ercze	18209
ercur	18210
528	18211
521	18212
yong	18213
oncol	18214
fried	18215
olcov	18216
##ósi	18217
oussa	18218
648	18219
645	18220
damb	18221
emete	18222
544	18223
hc8	18224
hdz	18225
hdl	18226
hd4	18227
nnecy	18228
rctic	18229
bált	18230
##hui	18231
ussyc	18232
##dou	18233
568	18234
477	18235
arose	18236
bújó	18237
ddis	18238
lauzi	18239
zülé	18240
##ung	18241
arev	18242
clb	18243
cls	18244
aurit	18245
macko	18246
ntage	18247
vf5	18248
csonk	18249
583	18250
pratt	18251
oravi	18252
685	18253
cbsz	18254
xxl	18255
kásá	18256
ujó	18257
danes	18258
598	18259
ditor	18260
ábba	18261
kaján	18262
lonc	18263
smir	18264
aprán	18265
ravin	18266
eird	18267
cng	18268
klóno	18269
eili	18270
bábos	18271
bábák	18272
kádár	18273
738	18274
káta	18275
lili	18276
lare	18277
stora	18278
öbr	18279
roupo	18280
őlőf	18281
quaw	18282
shea	18283
evang	18284
715	18285
aldó	18286
aldez	18287
bf7	18288
écil	18289
dást	18290
babus	18291
bikar	18292
dbs	18293
815	18294
sugá	18295
slaur	18296
vd7	18297
vden	18298
834	18299
dwei	18300
oao	18301
pompe	18302
##váry	18303
aidu	18304
aiden	18305
aider	18306
ippl	18307
ippin	18308
zare	18309
zary	18310
dlik	18311
fgsz	18312
fh5	18313
fh6	18314
tágu	18315
tépi	18316
btm	18317
byd	18318
gúz	18319
stopp	18320
póló	18321
lótu	18322
aguj	18323
796	18324
934	18325
930	18326
roze	18327
rozi	18328
unti	18329
bado	18330
gt2	18331
itang	18332
styna	18333
gsx	18334
golfb	18335
997	18336
lexe	18337
bhd	18338
bhp	18339
iala	18340
ataro	18341
affl	18342
nolu	18343
alajú	18344
ütyüt	18345
ütyüj	18346
gamer	18347
rvey	18348
bogár	18349
pörg	18350
sagh	18351
lasht	18352
gálae	18353
báty	18354
bátyá	18355
oise	18356
rayl	18357
ocuse	18358
aard	18359
allee	18360
940	18361
elídg	18362
eers	18363
laide	18364
innev	18365
kompl	18366
aúf	18367
hgf	18368
wang	18369
arbin	18370
lausa	18371
bacon	18372
pinoz	18373
pisi	18374
alpas	18375
éfj	18376
reida	18377
egace	18378
cibál	18379
ufó	18380
ityi	18381
artic	18382
sacha	18383
érgé	18384
kxh	18385
mixer	18386
itual	18387
butik	18388
basu	18389
namó	18390
yüre	18391
eveny	18392
dézi	18393
apsik	18394
viko	18395
pofol	18396
lképz	18397
grim	18398
racer	18399
mvfc	18400
anale	18401
dega	18402
nary	18403
észkő	18404
dűné	18405
ease	18406
easy	18407
rday	18408
lickr	18409
mága	18410
rédit	18411
iriam	18412
kupol	18413
pacq	18414
bulik	18415
ejean	18416
frau	18417
yuri	18418
lahor	18419
rouin	18420
meida	18421
pike	18422
uelta	18423
iccol	18424
bazá	18425
amvaz	18426
tromf	18427
copd	18428
diszl	18429
iméne	18430
nyálá	18431
bányi	18432
juge	18433
quilá	18434
iaby	18435
bluu	18436
hysse	18437
aktaf	18438
rubri	18439
bleu	18440
názár	18441
zertá	18442
aszab	18443
bosi	18444
nílu	18445
ezsda	18446
erpen	18447
bugyo	18448
eijer	18449
strip	18450
ophie	18451
summa	18452
ajkak	18453
zónáz	18454
aache	18455
obava	18456
faza	18457
imilá	18458
firka	18459
html	18460
tajan	18461
amakh	18462
orvao	18463
irupo	18464
aggio	18465
sáms	18466
üllők	18467
gdor	18468
nlach	18469
yster	18470
öhm	18471
alkim	18472
ignor	18473
afira	18474
qian	18475
uiper	18476
iduu	18477
opsit	18478
fauná	18479
know	18480
tgyás	18481
üansz	18482
anjec	18483
punci	18484
bézo	18485
bézs	18486
joker	18487
tella	18488
ezeif	18489
akubu	18490
bínó	18491
lézer	18492
tahit	18493
udmil	18494
ludas	18495
wickl	18496
bellu	18497
dellí	18498
fame	18499
ixie	18500
uaio	18501
lyhos	18502
fészk	18503
solym	18504
instr	18505
ámfal	18506
ábráz	18507
barní	18508
noaa	18509
peech	18510
gourm	18511
bzö	18512
mkeh	18513
ueger	18514
voss	18515
ynthi	18516
aláka	18517
alceá	18518
aslui	18519
imbió	18520
pinde	18521
dízel	18522
ftac	18523
rsót	18524
vokád	18525
yjafj	18526
únió	18527
(%	18528
2f	18529
2x	18530
acsá	18531
aena	18532
b2	18533
b3	18534
bond	18535
bitá	18536
bric	18537
buti	18538
bwei	18539
c2	18540
cek	18541
cos	18542
cul	18543
cna	18544
céz	18545
clan	18546
cka	18547
cpi	18548
cöf	18549
cgt	18550
d3	18551
dág	18552
dze	18553
dűl	18554
dovo	18555
equi	18556
fz	18557
f3	18558
fez	18559
fán	18560
ful	18561
fdi	18562
fác	18563
fall	18564
fome	18565
flec	18566
gül	18567
gszt	18568
gad	18569
géz	18570
gest	18571
gony	18572
gdi	18573
gck	18574
gage	18575
gugli	18576
gover	18577
gimn	18578
h2	18579
h4	18580
hsz	18581
hai	18582
hre	18583
hej	18584
hno	18585
hce	18586
hum	18587
hho	18588
hpa	18589
hust	18590
hrou	18591
iè	18592
iny	18593
iér	18594
inyi	18595
iep	18596
iható	18597
icsá	18598
iage	18599
iagó	18600
iotr	18601
jz	18602
jm	18603
jg	18604
jő	18605
jy	18606
jos	18607
jit	18608
jéz	18609
jum	18610
jie	18611
jada	18612
jär	18613
kä	18614
kany	18615
lák	18616
lell	18617
lci	18618
lul	18619
lro	18620
lst	18621
lph	18622
m0	18623
mà	18624
mett	18625
mci	18626
mle	18627
mbe	18628
mors	18629
mzs	18630
mból	18631
msc	18632
nág	18633
naz	18634
nno	18635
nele	18636
nama	18637
nari	18638
npr	18639
oem	18640
oig	18641
oja	18642
oce	18643
oors	18644
oók	18645
oic	18646
oast	18647
oana	18648
put	18649
pim	18650
pika	18651
pgn	18652
rába	18653
rlay	18654
siz	18655
skor	18656
sda	18657
sot	18658
sov	18659
sce	18660
sról	18661
skü	18662
slag	18663
sub	18664
snp	18665
sová	18666
s60	18667
tko	18668
tch	18669
tod	18670
tély	18671
tód	18672
tma	18673
two	18674
uq	18675
uar	18676
ubb	18677
uit	18678
uot	18679
uno	18680
ulte	18681
uada	18682
uite	18683
udic	18684
uezi	18685
vz	18686
vgy	18687
vam	18688
wn	18689
wor	18690
wai	18691
wert	18692
wise	18693
wcha	18694
wfp	18695
xc	18696
xé	18697
xen	18698
xli	18699
xeno	18700
ygy	18701
yre	18702
yul	18703
yop	18704
yina	18705
yriu	18706
zap	18707
zum	18708
zany	18709
zka	18710
zova	18711
ádá	18712
ává	18713
äk	18714
än	18715
äs	18716
ärt	18717
ézs	18718
ézsi	18719
ééé	18720
éczi	18721
íra	18722
óle	18723
ócsa	18724
ögy	18725
öch	18726
úró	18727
üb	18728
üsz	18729
ühl	18730
őni	18731
őfo	18732
őcse	18733
šč	18734
ško	18735
űro	18736
−,	18737
##óze	18738
##zh	18739
##zic	18740
##ks	18741
##kle	18742
##bár	18743
##boz	18744
##bre	18745
##bur	18746
##tü	18747
##öc	18748
##js	18749
##ji	18750
##íc	18751
##íl	18752
##íná	18753
##cin	18754
##den	18755
##dar	18756
##mt	18757
##ms	18758
##met	18759
##mpe	18760
##pol	18761
##sák	18762
##áf	18763
##fán	18764
##hz	18765
##hk	18766
##hle	18767
##xd	18768
##õl	18769
##ün	18770
##ña	18771
##gyá	18772
szg	18773
szra	18774
szej	18775
szkal	18776
szno	18777
szód	18778
szbi	18779
szago	18780
szsák	18781
azer	18782
azad	18783
azus	18784
azitá	18785
##anj	18786
eler	18787
elam	18788
elai	18789
elva	18790
elge	18791
eledy	18792
ésm	18793
##akh	18794
##orn	18795
egyl	18796
egylá	18797
isen	18798
isny	18799
ispá	18800
isca	18801
iskó	18802
nyar	18803
nyis	18804
nyej	18805
nyód	18806
nyami	18807
nyóz	18808
nyedi	18809
hok	18810
holl	18811
hoot	18812
##nyő	18813
álel	18814
álán	18815
álaj	18816
álban	18817
ezel	18818
ezsi	18819
ezám	18820
mita	18821
miri	18822
midi	18823
miga	18824
alú	18825
aled	18826
alél	18827
alva	18828
alcsi	18829
alza	18830
etc	18831
etá	18832
etin	18833
etká	18834
etha	18835
etlit	18836
enor	18837
enar	18838
enez	18839
enka	18840
enju	18841
ekuk	18842
ekop	18843
kille	18844
atk	18845
atek	18846
atér	18847
atáb	18848
atse	18849
atper	18850
atzo	18851
okal	18852
oked	18853
okuk	18854
okla	18855
okyo	18856
esl	18857
esny	18858
esve	18859
esce	18860
esha	18861
esbo	18862
espo	18863
eshi	18864
esús	18865
##bba	18866
erté	18867
erze	18868
ertö	18869
ervi	18870
erla	18871
erba	18872
erho	18873
ergye	18874
erck	18875
erber	18876
erfa	18877
erud	18878
erót	18879
erly	18880
olák	18881
olló	18882
oljc	18883
##ndz	18884
##eze	18885
leó	18886
lech	18887
lepa	18888
css	18889
csár	18890
csák	18891
cskó	18892
érak	18893
akan	18894
akis	18895
akce	18896
akné	18897
akka	18898
akui	18899
aknó	18900
akrob	18901
##eda	18902
bano	18903
bani	18904
##onk	18905
##oná	18906
##éra	18907
emor	18908
emar	18909
emus	18910
emme	18911
##ólá	18912
iky	18913
ikán	18914
ikém	18915
ikűr	18916
beu	18917
begy	18918
bean	18919
##iku	18920
anha	18921
anjc	18922
anuka	18923
bens	18924
##éli	18925
##élé	18926
gyás	18927
gyad	18928
gyga	18929
##oká	18930
##oké	18931
##üll	18932
ettó	18933
ettü	18934
inty	18935
intik	18936
aml	18937
amet	18938
amam	18939
amcs	18940
amra	18941
amai	18942
amus	18943
amse	18944
amír	18945
amvá	18946
amine	18947
amru	18948
amako	18949
amón	18950
argy	18951
arla	18952
aruti	18953
arwa	18954
arege	18955
rein	18956
reis	18957
reval	18958
reest	18959
revi	18960
reco	18961
reff	18962
rewer	18963
adel	18964
adan	18965
adem	18966
adri	18967
adei	18968
adli	18969
orc	18970
orta	18971
orad	18972
oraze	18973
orcsa	18974
onó	18975
onely	18976
onus	18977
onch	18978
##ajk	18979
##omb	18980
árne	18981
árki	18982
árád	18983
árjá	18984
árpa	18985
##azo	18986
##oge	18987
teur	18988
ltd	18989
nir	18990
nival	18991
niva	18992
nist	18993
nisi	18994
nimb	18995
niqa	18996
oses	18997
osin	18998
osti	18999
osie	19000
évá	19001
számá	19002
jab	19003
jatt	19004
jacse	19005
jacu	19006
idó	19007
ido	19008
idov	19009
idtá	19010
idlic	19011
raq	19012
ravat	19013
raoré	19014
deen	19015
áthá	19016
korp	19017
élfl	19018
##nif	19019
renz	19020
renad	19021
vald	19022
lego	19023
legor	19024
igcs	19025
igth	19026
igrán	19027
##igá	19028
##lla	19029
##rau	19030
##ras	19031
rendl	19032
tuta	19033
utr	19034
utor	19035
utes	19036
utra	19037
utén	19038
utot	19039
utlet	19040
utka	19041
##otte	19042
terpe	19043
hayk	19044
otc	19045
otap	19046
oterá	19047
kerd	19048
máry	19049
kof	19050
kow	19051
kout	19052
inny	19053
inja	19054
inná	19055
inutu	19056
inéto	19057
éthy	19058
étova	19059
öster	19060
veco	19061
sztl	19062
sztol	19063
sztil	19064
sztra	19065
sztiá	19066
embrá	19067
tail	19068
tavi	19069
tacam	19070
asy	19071
asit	19072
asmá	19073
asná	19074
assó	19075
asma	19076
##uló	19077
##usa	19078
##uss	19079
kapo	19080
mássz	19081
vanh	19082
vange	19083
tude	19084
tárca	19085
magi	19086
aia	19087
aip	19088
aira	19089
izel	19090
izer	19091
edy	19092
edai	19093
edac	19094
edran	19095
ilek	19096
ilas	19097
ilho	19098
ilke	19099
ilroy	19100
iliko	19101
álter	19102
laban	19103
lais	19104
lawo	19105
##otá	19106
##oté	19107
ntét	19108
ntil	19109
ntki	19110
ntic	19111
nture	19112
ttar	19113
ulc	19114
uln	19115
ulya	19116
nappá	19117
virá	19118
vick	19119
virth	19120
üki	19121
ondj	19122
ondri	19123
ajsz	19124
ajas	19125
ajco	19126
ajako	19127
eua	19128
euv	19129
euch	19130
eufe	19131
eudal	19132
ba1	19133
ba7	19134
baut	19135
baud	19136
ztar	19137
##new	19138
abé	19139
abed	19140
abán	19141
abódé	19142
##lex	19143
biza	19144
cir	19145
cif	19146
buy	19147
bura	19148
buzo	19149
esty	19150
estis	19151
apál	19152
apad	19153
apaj	19154
apagy	19155
apén	19156
aport	19157
aplá	19158
aplet	19159
apde	19160
tant	19161
tanö	19162
tané	19163
ires	19164
irad	19165
irag	19166
iris	19167
irén	19168
irsa	19169
irip	19170
irszk	19171
irill	19172
irju	19173
musz	19174
muzs	19175
mená	19176
illó	19177
handl	19178
##che	19179
vária	19180
bip	19181
biben	19182
birá	19183
hida	19184
tius	19185
tich	19186
párd	19187
rif	19188
riel	19189
rimu	19190
ülj	19191
üllen	19192
ülest	19193
üleky	19194
katal	19195
úgyc	19196
itm	19197
itek	19198
iton	19199
itát	19200
itog	19201
itis	19202
itzi	19203
itray	19204
majo	19205
majsá	19206
ámde	19207
ámbok	19208
prov	19209
rtk	19210
rox	19211
roat	19212
room	19213
root	19214
roha	19215
roeh	19216
bela	19217
belé	19218
##see	19219
ndt	19220
ndar	19221
ndri	19222
ndiká	19223
avu	19224
avs	19225
avy	19226
avak	19227
avcs	19228
avri	19229
avlin	19230
avlik	19231
ukai	19232
uksi	19233
llik	19234
llroy	19235
llsb	19236
jánz	19237
eind	19238
eime	19239
eibo	19240
eiber	19241
spin	19242
spott	19243
spot	19244
spla	19245
split	19246
nkv	19247
nky	19248
nklin	19249
stv	19250
stit	19251
stus	19252
sther	19253
stova	19254
ogg	19255
ogén	19256
ogus	19257
ogda	19258
ogun	19259
ogreb	19260
oguno	19261
ázas	19262
ázia	19263
ázmin	19264
##uga	19265
bou	19266
bois	19267
zóto	19268
örz	19269
ören	19270
örch	19271
örbe	19272
örner	19273
melly	19274
##rám	19275
epr	19276
epi	19277
epes	19278
eped	19279
epas	19280
epsé	19281
zető	19282
lyká	19283
alman	19284
zsan	19285
zsit	19286
zsúr	19287
zsong	19288
##bee	19289
odcs	19290
odano	19291
odbre	19292
odajk	19293
ékoz	19294
dip	19295
digy	19296
diva	19297
dicat	19298
alakl	19299
letó	19300
letá	19301
letar	19302
ahó	19303
ahy	19304
ahan	19305
ahit	19306
ahra	19307
ahart	19308
ahli	19309
ahari	19310
perg	19311
perio	19312
aszó	19313
aszsz	19314
aszkó	19315
ke5	19316
tatü	19317
lió	19318
lif	19319
lion	19320
lida	19321
liszk	19322
liega	19323
vais	19324
vaci	19325
vaca	19326
laka	19327
lakt	19328
kkp	19329
##odin	19330
ályi	19331
vetan	19332
ötyi	19333
anim	19334
aniol	19335
##fid	19336
senza	19337
vera	19338
entd	19339
tent	19340
tens	19341
kull	19342
kuszá	19343
kuckó	19344
ábán	19345
réda	19346
sikk	19347
agus	19348
aginá	19349
agani	19350
agnu	19351
ague	19352
agárd	19353
érey	19354
kozme	19355
anyás	19356
ovát	19357
ovin	19358
ovou	19359
ovof	19360
ovren	19361
ovorc	19362
endu	19363
endit	19364
ittel	19365
itten	19366
ittan	19367
ims	19368
imak	19369
imaj	19370
image	19371
arrah	19372
ingo	19373
ingol	19374
ingov	19375
ölbe	19376
ölzl	19377
tetkó	19378
eba	19379
ebd	19380
ebrá	19381
bajó	19382
netta	19383
netká	19384
öncze	19385
mack	19386
lenő	19387
ódog	19388
iao	19389
karb	19390
karos	19391
karai	19392
karov	19393
kardi	19394
hón	19395
blét	19396
blot	19397
mary	19398
maria	19399
marle	19400
hutt	19401
grom	19402
griz	19403
gria	19404
try	19405
troke	19406
##kie	19407
tagló	19408
máért	19409
mádó	19410
tamp	19411
tamf	19412
tamol	19413
tégy	19414
filé	19415
inko	19416
inkon	19417
inkas	19418
zárda	19419
üttg	19420
andul	19421
andau	19422
andib	19423
sios	19424
sias	19425
sire	19426
sija	19427
simer	19428
sirám	19429
frakk	19430
usá	19431
usto	19432
usac	19433
usio	19434
uslic	19435
nine	19436
##diu	19437
sonka	19438
ipa	19439
ipor	19440
iperá	19441
ipcc	19442
ellár	19443
zőj	19444
ordó	19445
ordm	19446
ordon	19447
síko	19448
[...]
