<unk>	0
<s>	0
</s>	0
▁a	-2.94393
,	-3.56911
▁,	-3.80059
i	-4.02871
.	-4.03394
▁az	-4.09139
t	-4.21563
▁.	-4.39935
▁A	-4.49319
▁és	-4.56808
▁-	-4.6004
▁	-4.61002
▁hogy	-4.84813
▁is	-4.9688
▁nem	-5.1397
k	-5.16101
-	-5.26857
e	-5.32547
▁egy	-5.3313
en	-5.36303
▁meg	-5.39246
a	-5.49596
s	-5.4991
▁"	-5.61768
▁Az	-5.69821
ban	-5.80178
▁el	-5.81849
g	-5.83586
ben	-5.85076
▁ki	-5.85435
▁(	-5.88725
n	-5.91339
ó	-5.94051
nek	-5.94206
an	-5.95362
▁t	-5.9643
ek	-5.98132
ok	-5.99328
et	-6.00307
:	-6.00859
▁szerint	-6.01368
ra	-6.03835
re	-6.11823
▁be	-6.12196
▁de	-6.1238
es	-6.13164
nak	-6.16533
▁volt	-6.16723
ni	-6.18345
▁már	-6.24022
ja	-6.26691
on	-6.29303
▁:	-6.32408
os	-6.37883
ő	-6.38105
▁fel	-6.38109
)	-6.38872
▁csak	-6.39816
▁ez	-6.41893
▁mint	-6.4301
▁még	-6.44712
▁nak	-6.52044
m	-6.52922
▁s	-6.54876
▁át	-6.59233
▁azt	-6.60525
ik	-6.61035
y	-6.61717
▁le	-6.62272
▁ha	-6.62781
▁van	-6.63348
▁k	-6.68041
▁i	-6.68045
ott	-6.69102
▁sem	-6.69888
▁több	-6.70366
▁két	-6.70827
▁amely	-6.71973
▁vagy	-6.72581
▁kell	-6.73101
ul	-6.73683
at	-6.75015
án	-6.75222
▁mi	-6.75352
ű	-6.7773
▁pedi	-6.78747
át	-6.81029
▁után	-6.82138
▁magyar	-6.82574
ás	-6.82695
d	-6.82828
ot	-6.84829
▁nek	-6.86008
▁első	-6.87869
▁majd	-6.90745
ak	-6.93018
ú	-6.9351
▁ra	-6.94276
▁aki	-6.95422
z	-6.96986
▁e	-6.97738
▁nagy	-6.98575
▁miatt	-6.9869
▁lehet	-7.01316
ig	-7.01824
l	-7.0249
▁új	-7.03968
ét	-7.04718
vel	-7.05293
o	-7.05324
▁re	-7.07122
▁így	-7.07691
▁mert	-7.09581
▁mondta	-7.09594
▁ban	-7.09622
▁lesz	-7.11605
h	-7.11834
▁ami	-7.13321
▁úgy	-7.13457
ba	-7.14717
▁olyan	-7.14844
▁S	-7.17657
▁minden	-7.18171
▁akkor	-7.19232
▁között	-7.19992
ett	-7.20726
▁Ez	-7.20873
zonban	-7.21181
▁K	-7.25209
▁ellen	-7.26088
ák	-7.27166
val	-7.28646
▁egyik	-7.28755
▁leg	-7.2932
ják	-7.29632
▁év	-7.29965
▁jó	-7.30061
▁?	-7.30164
va	-7.3162
ként	-7.32033
▁M	-7.32933
▁)	-7.32943
▁ok	-7.33378
▁T	-7.34933
▁en	-7.3578
is	-7.37042
ve	-7.37117
p	-7.37602
ül	-7.38255
▁ról	-7.38336
▁hoz	-7.39674
ai	-7.4064
▁ek	-7.41456
▁arra	-7.4184
▁millió	-7.42427
▁B	-7.44669
okat	-7.44851
▁kormány	-7.45115
er	-7.45315
as	-7.45377
én	-7.45677
▁éves	-7.46046
r	-7.46595
▁három	-7.46944
▁előtt	-7.47169
▁Ha	-7.47425
sz	-7.4777
▁forint	-7.48276
▁E	-7.48434
eket	-7.48725
mikor	-7.49085
▁ben	-7.53914
▁volna	-7.54127
ről	-7.54407
▁most	-7.54996
▁sok	-7.55883
▁ezer	-7.55971
▁C	-7.56003
▁fog	-7.56299
ék	-7.56496
▁vissza	-7.56585
▁F	-7.56592
▁m	-7.56697
▁más	-7.56742
ért	-7.57314
▁Nem	-7.57346
▁et	-7.57676
▁illetve	-7.57857
ták	-7.57925
ből	-7.59299
▁ugyan	-7.59451
▁milliárd	-7.5947
ság	-7.5969
▁ból	-7.59824
▁ként	-7.59956
▁ezt	-7.60069
▁ért	-7.60178
▁mellett	-7.60434
b	-7.6152
▁által	-7.63672
▁való	-7.63814
▁akik	-7.63953
és	-7.6508
▁alatt	-7.65191
c	-7.667
5	-7.66702
"	-7.66991
▁ő	-7.67947
▁Egy	-7.6821
hol	-7.68433
ában	-7.68752
j	-7.69414
ta	-7.69578
om	-7.69747
unk	-7.69827
f	-7.70198
▁mind	-7.70466
ünk	-7.70504
▁tól	-7.70641
hez	-7.71754
ték	-7.72585
ból	-7.73432
▁rá	-7.73704
▁ember	-7.74915
▁Magyar	-7.74975
▁össze	-7.75383
▁nagyon	-7.76032
ük	-7.77158
ében	-7.77197
bb	-7.77535
▁on	-7.77762
us	-7.78352
▁tovább	-7.79212
▁férfi	-7.79357
be	-7.79824
▁világ	-7.80248
▁amerikai	-7.80674
zel	-7.81086
▁teljes	-7.81476
▁ba	-7.81491
▁cím	-7.81534
4	-7.81684
hanem	-7.81816
▁lett	-7.82088
▁ről	-7.82415
je	-7.82544
te	-7.82804
▁közölte	-7.82873
▁),	-7.83137
▁párt	-7.83995
2	-7.84172
▁négy	-7.8474
ének	-7.84771
uk	-7.85043
A	-7.8542
▁példá	-7.85646
▁azért	-7.85786
egy	-7.85913
▁ne	-7.86462
▁hisz	-7.8651
1	-7.86524
▁kis	-7.8678
▁Mi	-7.87695
▁nál	-7.87731
▁áll	-7.87935
cs	-7.8872
▁második	-7.88897
em	-7.88945
▁hozzá	-7.89081
▁ilyen	-7.89425
▁Fidesz	-7.89948
▁viszont	-7.90205
▁szám	-7.90795
el	-7.9091
leg	-7.91135
▁annak	-7.91642
▁ország	-7.91994
ának	-7.92029
ség	-7.92097
▁De	-7.92351
▁cég	-7.92771
▁százalék	-7.93088
▁nincs	-7.9322
▁ott	-7.93289
▁MNO	-7.94018
▁n	-7.9451
▁fő	-7.94895
ol	-7.95295
6	-7.95818
től	-7.96064
▁százalékkal	-7.96699
▁G	-7.96934
▁d	-7.9724
▁!	-7.97298
▁ma	-7.97387
▁arról	-7.9775
kor	-7.97971
▁ből	-7.9814
3	-7.98677
▁fél	-7.98865
▁valamin	-7.99233
▁elő	-7.99439
tal	-7.99695
▁túl	-8.00297
▁óta	-8.01223
▁H	-8.02286
▁ja	-8.02287
7	-8.03152
tak	-8.03152
▁ának	-8.03238
▁alapján	-8.03629
▁öt	-8.03676
▁ot	-8.03731
▁amelyek	-8.03756
▁p	-8.03855
v	-8.04043
▁től	-8.04191
hoz	-8.04295
▁saját	-8.04397
ról	-8.04403
▁V	-8.04604
▁P	-8.04856
▁korábban	-8.05067
▁számára	-8.06024
in	-8.06224
▁hat	-8.06358
▁hét	-8.06684
▁amit	-8.06696
▁itt	-8.07534
▁hez	-8.07601
▁10	-8.07605
u	-8.07815
▁csapat	-8.08308
kal	-8.09076
▁ára	-8.09185
▁".	-8.09433
é	-8.0951
á	-8.10003
▁másik	-8.10281
▁rendőrség	-8.10286
▁ezek	-8.10675
▁százalékos	-8.10745
nél	-8.1099
nál	-8.11036
het	-8.11042
▁Európa	-8.11617
▁közül	-8.1175
▁nélkül	-8.11894
ára	-8.1213
▁akár	-8.12232
▁jól	-8.12636
ár	-8.1284
▁20	-8.13572
▁;	-8.13659
▁autó	-8.13803
▁f	-8.14032
▁ét	-8.14083
▁lenne	-8.14422
▁okat	-8.15889
ezért	-8.16039
▁I	-8.16278
hat	-8.17023
0	-8.17067
▁került	-8.17122
után	-8.17443
▁város	-8.17593
ére	-8.17814
na	-8.17945
▁én	-8.18524
▁legnagyobb	-8.18539
▁néhány	-8.18871
ál	-8.19335
▁euró	-8.19444
8	-8.19521
▁közel	-8.19782
▁korábbi	-8.19882
▁során	-8.21127
▁L	-8.21169
▁szó	-8.21291
▁egész	-8.2178
▁N	-8.21941
juk	-8.22057
▁jelentős	-8.22492
▁kor	-8.22598
elmúlt	-8.22654
▁eddig	-8.23078
▁vezető	-8.23146
▁nap	-8.2321
▁tud	-8.23433
kel	-8.23467
▁nagyobb	-8.24121
▁szemben	-8.24606
▁idő	-8.24907
csak	-8.25047
▁hasonló	-8.25148
▁azzal	-8.25194
▁ugyani	-8.25277
ed	-8.25473
▁vég	-8.25977
▁törvény	-8.26362
▁rendszer	-8.26591
▁elmondta	-8.26706
▁elnök	-8.26723
▁egyéb	-8.26742
▁gazdasági	-8.26744
▁...	-8.27701
sel	-8.27783
▁tette	-8.28281
tól	-8.28509
▁z	-8.28568
▁igaz	-8.28648
▁tavaly	-8.28698
▁mí	-8.29058
▁német	-8.29739
▁pár	-8.30231
or	-8.30477
▁nő	-8.30668
▁vannak	-8.30751
▁László	-8.30922
▁3	-8.31256
▁idén	-8.32207
▁Nagy	-8.32231
▁ám	-8.32555
▁együtt	-8.32786
▁ával	-8.32823
▁Magyarország	-8.32948
▁elnöke	-8.33017
▁adott	-8.33257
kat	-8.33399
▁sz	-8.33407
▁tíz	-8.33618
ével	-8.33678
▁utolsó	-8.33746
ával	-8.34611
▁kapott	-8.34787
▁ének	-8.34934
▁nél	-8.35029
/	-8.35178
▁pont	-8.35277
ny	-8.35309
▁őket	-8.35333
inkább	-8.35589
hu	-8.35632
▁milyen	-8.3615
▁D	-8.36333
▁politikai	-8.36533
ne	-8.36951
ur	-8.37282
▁MSZP	-8.37547
▁Orbán	-8.37801
▁költségvetés	-8.3786
sal	-8.3803
▁újra	-8.38076
▁Meg	-8.3812
tek	-8.38522
▁várható	-8.38595
▁állam	-8.38714
▁voltak	-8.38843
▁választás	-8.38913
▁uk	-8.392
▁történt	-8.39237
▁15	-8.39363
▁nemzetközi	-8.39826
▁fontos	-8.40173
nem	-8.40274
▁perc	-8.40722
▁adó	-8.4146
▁Péter	-8.41997
al	-8.42187
▁lap	-8.42506
▁tett	-8.42657
ha	-8.42721
▁Sz	-8.42985
▁sikerült	-8.43174
▁következő	-8.43207
▁Budapest	-8.43461
▁bár	-8.43611
▁élet	-8.44039
▁éve	-8.44178
▁kellet	-8.44248
▁mely	-8.44346
▁megye	-8.44383
▁jobb	-8.44686
▁december	-8.4469
▁állami	-8.44914
▁pénz	-8.45007
▁harmadik	-8.45034
▁piac	-8.45546
▁unk	-8.45645
di	-8.4567
▁R	-8.45918
▁megfelelő	-8.46029
▁film	-8.46184
▁legjobb	-8.46256
▁val	-8.46652
tel	-8.46724
um	-8.46875
▁1	-8.47073
▁szervezet	-8.47155
mi	-8.47338
ri	-8.47527
ebb	-8.47664
▁éppen	-8.47692
▁helyzet	-8.47717
▁csoport	-8.47834
▁ában	-8.47989
▁biztos	-8.48202
▁hazai	-8.48274
abb	-8.48645
▁magát	-8.48951
▁dollár	-8.49271
▁európai	-8.49337
▁múlt	-8.50012
▁belül	-8.50094
ar	-8.50112
▁parlament	-8.50695
▁István	-8.50762
▁h	-8.50889
▁további	-8.50929
li	-8.51133
ható	-8.51549
▁b	-8.51721
ad	-8.51773
▁körül	-8.51866
ális	-8.52246
akkor	-8.52267
▁köz	-8.52402
nyi	-8.52487
▁szóló	-8.52548
▁18	-8.52689
▁emberek	-8.5286
▁lévő	-8.52883
▁este	-8.52906
▁erre	-8.52936
▁január	-8.53121
▁valami	-8.53151
▁eket	-8.53308
▁legalább	-8.53365
hető	-8.53377
▁víz	-8.53451
▁2010.	-8.53487
▁jövő	-8.53552
▁ünk	-8.53566
▁verseny	-8.53567
▁később	-8.53774
▁közös	-8.53871
P	-8.53979
▁ük	-8.54135
▁El	-8.54158
▁azok	-8.54471
▁).	-8.54504
▁Le	-8.54647
9	-8.54677
▁írja	-8.54713
B	-8.54737
▁jelenleg	-8.54826
▁helyen	-8.54848
▁jelent	-8.54852
▁bele	-8.5489
▁elég	-8.55084
M	-8.55503
▁kívül	-8.55635
▁vasárnap	-8.55677
▁12	-8.55724
▁alá	-8.55795
▁képest	-8.55802
▁család	-8.55808
▁4	-8.55857
▁munka	-8.56085
▁5	-8.56092
▁ó	-8.56388
▁végén	-8.56598
▁2	-8.56609
▁l	-8.56693
▁forintot	-8.56841
ját	-8.56942
▁szerdán	-8.56955
▁30	-8.57071
▁sal	-8.57102
C	-8.57193
▁okkal	-8.57379
▁újabb	-8.57448
▁bíróság	-8.57722
▁sokkal	-8.57836
▁évvel	-8.58315
am	-8.58319
▁akar	-8.58861
▁abban	-8.59012
▁O	-8.59095
▁ellenére	-8.59249
né	-8.594
▁hétfőn	-8.59406
▁részt	-8.5954
▁része	-8.59551
▁orosz	-8.59857
▁önkormányzat	-8.60404
▁ni	-8.6054
▁helyi	-8.60621
▁neki	-8.60642
▁Magyarországon	-8.6083
▁MTI	-8.60956
▁miniszterelnök	-8.61121
mal	-8.6136
▁kedden	-8.61421
▁november	-8.61541
▁g	-8.61551
▁évek	-8.61566
jük	-8.61612
▁utóbbi	-8.61816
▁Gábor	-8.61904
▁bank	-8.62036
▁óra	-8.62188
K	-8.62265
▁jelentette	-8.6248
▁kerül	-8.62492
▁igen	-8.62574
▁sor	-8.62795
▁szinte	-8.62817
▁program	-8.62933
▁él	-8.63101
ez	-8.63124
▁19	-8.63293
▁c	-8.63423
▁játék	-8.63721
▁16	-8.63838
T	-8.64056
▁képes	-8.64162
od	-8.64199
▁álló	-8.64252
▁erős	-8.64367
▁egyetlen	-8.64535
▁Ki	-8.64944
▁egyelőre	-8.64987
▁Ma	-8.64997
▁nyolc	-8.65066
gy	-8.65096
▁évben	-8.65168
▁sajtó	-8.65205
▁Z	-8.65512
▁vezetője	-8.66101
x	-8.66447
▁25	-8.66716
▁egyes	-8.66793
▁hónap	-8.66996
lag	-8.67028
▁tudja	-8.6716
▁követően	-8.67579
▁valószínű	-8.67631
▁csütörtökön	-8.67749
▁pénteken	-8.67795
▁6	-8.67871
▁alap	-8.67945
ka	-8.67959
ekkel	-8.68094
▁szükség	-8.68342
▁szabad	-8.68432
▁társaság	-8.68505
▁17	-8.68532
▁egyre	-8.68623
▁Be	-8.68642
▁hosszú	-8.68769
▁ház	-8.68824
▁könyv	-8.69165
),	-8.69366
▁március	-8.69828
▁50	-8.70373
▁os	-8.7115
▁rövid	-8.71241
íg	-8.71358
▁maga	-8.71745
▁gazdaság	-8.71805
▁szövetség	-8.71816
▁szak	-8.71886
le	-8.71931
▁ével	-8.72312
▁magas	-8.72333
▁gyors	-8.72409
▁é	-8.72451
▁unió	-8.72634
▁előző	-8.7272
ro	-8.72783
▁először	-8.72974
▁képviselő	-8.73192
▁En	-8.73242
▁se	-8.73256
▁semmi	-8.73257
▁miniszter	-8.73267
▁ár	-8.73354
▁tehát	-8.73365
közben	-8.73398
▁csökkent	-8.73442
▁kisebb	-8.73624
▁ön	-8.7373
▁bizottság	-8.73911
▁Sport	-8.74288
▁ment	-8.74301
▁vált	-8.74345
▁11	-8.74358
ma	-8.74424
ít	-8.74697
▁János	-8.74779
▁Mint	-8.74902
▁vele	-8.75041
D	-8.75109
ztán	-8.75178
▁ig	-8.75305
▁14	-8.7551
▁komoly	-8.75539
országi	-8.75913
▁érték	-8.76534
▁kevés	-8.76662
▁száz	-8.76726
▁felé	-8.76755
S	-8.76775
▁jog	-8.77215
▁Jobbik	-8.77443
▁út	-8.77651
▁politikus	-8.77761
▁ismét	-8.77798
▁rész	-8.78213
▁kérdés	-8.78289
▁Tamás	-8.7845
▁válogatott	-8.78727
▁külön	-8.78737
▁kapcsolatban	-8.78873
▁száma	-8.78975
▁idei	-8.79077
▁cél	-8.79093
E	-8.79108
ött	-8.79378
▁legyen	-8.79414
▁valaki	-8.79501
▁szinté	-8.79738
▁jelenlegi	-8.79754
▁helyett	-8.79868
▁EU	-8.79869
▁/	-8.80001
▁kellene	-8.80006
nk	-8.80086
▁György	-8.80105
▁brit	-8.80156
▁13	-8.8028
▁forduló	-8.80386
▁reggel	-8.80416
▁mégis	-8.80774
▁8	-8.8088
▁válság	-8.80975
▁csup	-8.81094
▁ekkel	-8.81115
▁hivatalos	-8.81125
▁nyert	-8.8129
▁közben	-8.81511
▁magán	-8.81675
▁40	-8.81805
▁évi	-8.81846
▁ját	-8.81936
▁kap	-8.82059
ök	-8.82146
▁je	-8.82148
▁Nemzeti	-8.82169
sorban	-8.82202
▁rossz	-8.82428
▁tartott	-8.82437
▁És	-8.82445
ös	-8.82849
▁fiatal	-8.83022
▁tudta	-8.83272
ic	-8.83278
▁mindenki	-8.83309
▁jár	-8.8333
ér	-8.8337
▁benne	-8.83667
▁nehéz	-8.838
▁készült	-8.83933
▁eljárás	-8.84057
▁miért	-8.8407
féle	-8.84241
ing	-8.84259
▁Zrt	-8.84362
▁esetben	-8.84426
ön	-8.84473
▁J	-8.8451
▁ság	-8.84658
▁gyerek	-8.8472
ése	-8.84914
▁persze	-8.85007
gel	-8.85089
▁Egyesül	-8.85131
▁kevesebb	-8.85226
▁Zoltán	-8.85469
▁forintos	-8.85485
▁szükséges	-8.85984
▁ére	-8.86001
▁Ferenc	-8.86221
▁ismert	-8.86256
▁ezen	-8.86366
▁sport	-8.86513
▁francia	-8.86735
▁pénzügyi	-8.86795
▁marad	-8.86854
gal	-8.86857
00	-8.86992
▁tart	-8.87709
▁vett	-8.87735
▁W	-8.87805
▁7	-8.87808
▁hó	-8.88086
▁BKV	-8.8821
ása	-8.88277
▁írta	-8.88408
▁talán	-8.88462
▁Viktor	-8.88594
ü	-8.88705
▁folyamatos	-8.88958
▁kat	-8.89079
▁hír	-8.89226
▁héten	-8.89374
▁összeg	-8.89428
▁24	-8.89553
▁mit	-8.89597
▁Bár	-8.89601
▁százaléka	-8.89674
jában	-8.89847
▁New	-8.89857
▁U	-8.89979
ló	-8.90359
▁összesen	-8.90437
▁állt	-8.90532
▁internet	-8.90671
▁ség	-8.90678
▁vizsgálat	-8.9069
▁szerda	-8.90836
▁jobban	-8.90852
og	-8.9092
▁összes	-8.90948
▁kicsi	-8.91063
▁egykor	-8.9108
V	-8.91144
▁játékos	-8.91268
▁üzlet	-8.91281
▁áról	-8.91329
▁érdekében	-8.91337
▁tér	-8.91487
▁döntés	-8.91576
▁kép	-8.9186
▁gyermek	-8.91897
▁lakás	-8.91969
▁kezd	-8.9222
▁es	-8.92544
szt	-8.92956
▁orvos	-8.93041
▁közlekedés	-8.93104
ci	-8.93569
▁klub	-8.93928
▁jelen	-8.94012
I	-8.94053
▁szól	-8.94073
?	-8.94149
okkal	-8.9418
ebben	-8.94212
▁21	-8.94284
da	-8.94321
▁történet	-8.94493
▁maradt	-8.9455
▁András	-8.94662
▁ás	-8.94751
▁támogatás	-8.94898
▁természetes	-8.94907
▁jutott	-8.9508
N	-8.95178
▁egyszer	-8.95245
▁szerződés	-8.95299
▁nyugdíj	-8.95395
▁oda	-8.95805
▁élő	-8.95907
▁ügy	-8.96042
▁nemzeti	-8.96089
▁délután	-8.96274
▁Világ	-8.96287
ov	-8.9633
ná	-8.96549
▁sőt	-8.96735
▁elején	-8.96784
▁eset	-8.96916
▁Itthon	-8.96918
▁szerepel	-8.97013
▁100	-8.97157
▁kal	-8.97263
▁r	-8.97405
különböző	-8.97497
fi	-8.97708
▁Eb	-8.98019
H	-8.98129
la	-8.9813
▁intézmény	-8.98166
vi	-8.98198
▁gép	-8.98226
▁sorozat	-8.9853
▁különös	-8.98545
▁tartó	-8.9856
▁ők	-8.98844
▁határ	-8.98894
▁súlyos	-8.99192
▁személy	-8.99268
▁ír	-8.99301
▁indult	-8.99456
▁Sándor	-8.99457
rel	-8.99467
▁keresztül	-8.99479
▁szív	-8.9964
▁otthon	-8.99713
▁2.	-8.99896
▁22	-9.00073
▁MDF	-9.00107
▁rendőrök	-9.00134
▁április	-9.00317
▁József	-9.00318
beli	-9.00496
▁lehetett	-9.00894
▁közé	-9.0105
▁módon	-9.01251
▁gól	-9.0131
R	-9.01374
ö	-9.01399
▁vagyok	-9.01547
▁Index	-9.01625
F	-9.01652
▁nyelv	-9.01815
▁ében	-9.0184
▁in	-9.02066
▁vár	-9.02101
G	-9.02259
▁motor	-9.0276
▁február	-9.02767
▁oldal	-9.0281
▁am	-9.03023
nd	-9.03037
▁cs	-9.03124
▁esetében	-9.03327
▁október	-9.0344
▁Íg	-9.0351
▁közösség	-9.03684
▁látható	-9.04323
▁hogyan	-9.04605
▁9	-9.04655
▁szem	-9.04738
▁tagja	-9.05082
▁Új	-9.05239
telen	-9.05255
▁cégek	-9.05378
▁eredeti	-9.05396
▁Több	-9.05422
▁adatok	-9.05566
▁addig	-9.0565
▁eb	-9.0568
▁hív	-9.05748
▁budapesti	-9.05764
▁kapcsolatos	-9.05866
ch	-9.0592
▁szóvivője	-9.06011
▁alig	-9.06097
▁hely	-9.06239
▁nyom	-9.06403
▁Ugyan	-9.06433
ler	-9.06482
ir	-9.06674
▁szint	-9.06682
▁tanács	-9.06844
▁tulajdon	-9.06945
▁sel	-9.07063
▁nevű	-9.07144
▁meccs	-9.07164
▁ér	-9.07224
▁években	-9.07398
tor	-9.07504
▁külföldi	-9.07749
él	-9.07911
bé	-9.08202
▁indul	-9.08392
▁kíván	-9.08473
▁idején	-9.08473
▁egyértelmű	-9.08544
▁ahhoz	-9.08556
▁mondja	-9.08668
▁Ezek	-9.08677
▁rendőr	-9.08707
▁gáz	-9.08737
▁országos	-9.08971
▁ához	-9.09083
▁olasz	-9.09099
▁Már	-9.0914
▁kampány	-9.09199
▁kutatás	-9.09292
▁Rendőr	-9.093
L	-9.09423
▁néz	-9.09521
▁Kft	-9.09586
▁fogalmazott	-9.09593
▁érkezett	-9.09794
▁előre	-9.09841
▁sokat	-9.09994
▁hagy	-9.101
▁Megye	-9.10112
▁polgármester	-9.1014
▁La	-9.1015
▁környezet	-9.10161
▁spanyol	-9.10195
mel	-9.10232
▁Két	-9.10272
▁ill	-9.10286
▁olvasható	-9.10303
▁senki	-9.10381
▁fej	-9.1041
▁Gazdaság	-9.10562
▁növekedés	-9.10599
▁közötti	-9.10624
▁föld	-9.10793
▁em	-9.10917
▁tanulmány	-9.10975
ani	-9.10982
▁esett	-9.11249
▁tudott	-9.11464
▁te	-9.11491
▁darab	-9.11662
▁nőtt	-9.11909
▁éről	-9.1223
▁szombaton	-9.12253
▁v	-9.12305
▁fejlesztés	-9.12487
▁azon	-9.12512
▁előzetes	-9.12618
▁hivatal	-9.12651
man	-9.12749
▁egyszerű	-9.12773
w	-9.1283
▁született	-9.12874
▁nép	-9.12921
son	-9.12985
▁1.	-9.13047
▁bor	-9.13091
ket	-9.13142
▁név	-9.13256
▁vagyon	-9.13278
ette	-9.13302
atlan	-9.13362
▁megjelent	-9.13569
jon	-9.13646
▁ad	-9.13661
főkapitány	-9.13751
▁pénzt	-9.13758
▁2010-	-9.13864
▁jának	-9.13865
vé	-9.13949
▁teszi	-9.13966
▁kínai	-9.1406
▁per	-9.14083
▁ából	-9.14248
▁Zsolt	-9.1435
▁döntött	-9.14581
▁mai	-9.14666
▁siker	-9.14722
eg	-9.14818
▁2009-	-9.14859
▁húsz	-9.1494
▁3.	-9.15007
▁tartja	-9.15094
▁azokat	-9.15184
▁hatóságok	-9.15218
▁jelölt	-9.15221
▁azonnal	-9.15231
▁többi	-9.15312
▁végzett	-9.15344
▁ráadás	-9.15361
▁egészségügy	-9.15464
ut	-9.15544
▁enged	-9.1556
▁om	-9.1558
olt	-9.15993
▁átlag	-9.16034
▁megy	-9.1611
▁beszélt	-9.1611
ner	-9.1616
il	-9.16189
▁vette	-9.16238
▁női	-9.16251
▁Attila	-9.16357
▁lakosság	-9.16391
▁számít	-9.16479
se	-9.16548
▁fény	-9.16608
▁2008-	-9.16614
▁hitel	-9.16663
▁folytat	-9.16712
ce	-9.16831
▁test	-9.16954
▁világbajnok	-9.17079
▁hát	-9.17102
Országos	-9.17194
▁23	-9.17225
▁táv	-9.17227
▁lehetőség	-9.1733
▁egyéni	-9.17429
▁vállalat	-9.17556
▁Csak	-9.17599
▁tudni	-9.17658
'	-9.17793
▁hatalmas	-9.17836
▁nők	-9.18302
▁va	-9.18384
▁ezelőtt	-9.18405
▁26	-9.18461
▁Minden	-9.18531
▁eredmény	-9.18557
▁kezelés	-9.18793
▁kormányzat	-9.18795
▁1-	-9.19039
▁tűnik	-9.19189
ába	-9.19277
▁hol	-9.19343
▁eddigi	-9.19533
oz	-9.1955
▁ebb	-9.19697
▁kar	-9.19784
▁vel	-9.19788
▁dél	-9.19897
▁szerzett	-9.19982
▁országban	-9.20077
▁szakmai	-9.20083
▁régi	-9.20226
▁al	-9.20393
▁időszak	-9.20447
▁kiderült	-9.20554
▁kör	-9.20736
▁fok	-9.20756
▁napi	-9.20823
▁juk	-9.20956
▁Még	-9.21026
▁haza	-9.21192
▁szereplő	-9.21223
▁éhez	-9.21282
▁akció	-9.21465
▁adat	-9.21621
▁szép	-9.21668
▁baleset	-9.21669
ezer	-9.21792
▁ék	-9.21819
▁pontos	-9.21881
▁azóta	-9.22067
▁őt	-9.22108
▁független	-9.22123
▁férfit	-9.22169
▁án	-9.22295
▁mindössze	-9.2238
▁esetén	-9.22451
lás	-9.22451
▁Miklós	-9.22646
▁jött	-9.22932
▁többek	-9.23032
▁többször	-9.23198
▁[	-9.23199
▁épület	-9.23207
▁BL	-9.23392
▁Most	-9.23394
▁Nemzet	-9.23411
▁Lajos	-9.23461
▁díj	-9.23509
▁átlagos	-9.23665
▁mérkőzés	-9.23678
▁hang	-9.2385
▁készül	-9.23877
▁biztonsági	-9.23944
ud	-9.23946
endő	-9.24074
▁lány	-9.24074
▁angol	-9.24329
ír	-9.2433
▁mögött	-9.244
▁nyilatkozta	-9.24439
▁vonatkozó	-9.24461
zi	-9.24516
▁méter	-9.24574
▁média	-9.24642
▁megoldás	-9.24655
▁felelős	-9.247
▁bal	-9.24704
der	-9.24929
▁Re	-9.24937
▁2010	-9.25044
▁alkalom	-9.2511
▁mindent	-9.25155
▁közép	-9.25187
nnyira	-9.2523
▁ül	-9.25268
▁testület	-9.25384
út	-9.25408
▁Azt	-9.25836
▁végre	-9.25881
▁vér	-9.25892
▁27	-9.25899
▁műsor	-9.26
▁többet	-9.26024
ver	-9.26118
▁Hogy	-9.26236
ából	-9.26267
▁ünnep	-9.26311
▁főváros	-9.26412
▁döntő	-9.26442
▁mostani	-9.26494
▁35	-9.26499
▁végig	-9.265
ral	-9.26658
▁követ	-9.26666
▁ügyben	-9.26872
▁forrás	-9.26943
za	-9.27064
▁Er	-9.27162
▁soha	-9.27212
ikus	-9.27294
▁Budapesten	-9.27307
▁legtöbb	-9.27323
▁kora	-9.27412
▁jelenti	-9.27492
éről	-9.27599
▁olimpia	-9.27779
▁Fel	-9.27816
▁forinttal	-9.27843
▁időben	-9.27874
ör	-9.28077
▁bizonyos	-9.28146
áról	-9.28217
▁részét	-9.28326
▁anyag	-9.28411
▁tenni	-9.28427
általán	-9.28533
▁2009	-9.28582
▁Úgy	-9.28698
▁jogi	-9.28731
▁típus	-9.29007
▁belső	-9.29218
▁60	-9.29221
▁szél	-9.29405
▁jut	-9.29426
▁alkotmány	-9.29428
ap	-9.29491
▁kormányfő	-9.29517
▁tervezett	-9.29707
▁negyedik	-9.29735
részt	-9.29795
▁kilenc	-9.29802
í	-9.29952
▁embert	-9.29985
▁elé	-9.30241
éves	-9.30553
▁munká	-9.30781
▁írás	-9.30815
▁vesz	-9.30857
▁mindkét	-9.30858
▁kötött	-9.30936
▁vagyunk	-9.30976
ám	-9.31039
▁együttes	-9.31075
öl	-9.3114
▁St	-9.31143
▁található	-9.31293
▁kötelező	-9.31443
▁lép	-9.31475
▁utca	-9.32145
etlen	-9.32471
▁történelmi	-9.32558
▁200	-9.32591
▁32	-9.32701
usz	-9.32771
▁Unió	-9.32787
▁j	-9.32831
me	-9.3286
▁Online	-9.3289
ész	-9.33037
▁érintett	-9.33133
▁osztály	-9.33207
jának	-9.33273
védelm	-9.33279
▁The	-9.33365
▁rend	-9.33428
de	-9.33441
▁projekt	-9.33486
▁állás	-9.33582
▁Sch	-9.33664
▁ál	-9.33708
▁modell	-9.33848
▁szocialista	-9.33944
▁tömeg	-9.33996
▁választ	-9.34185
▁figyelmet	-9.34312
▁kilométer	-9.3443
▁akit	-9.34458
▁Pál	-9.34459
mellett	-9.34494
▁szerző	-9.34504
▁jön	-9.34632
▁Gyurcsány	-9.34856
▁kelet	-9.34954
O	-9.35022
szer	-9.3503
▁hiány	-9.35119
▁igazgatója	-9.35182
▁tagjai	-9.35319
▁fa	-9.35523
▁fővárosi	-9.3556
▁ide	-9.35781
▁dolog	-9.35782
▁célja	-9.35801
▁45	-9.3581
▁szezon	-9.35859
▁X	-9.3596
▁évre	-9.36006
▁válasz	-9.36068
▁2011-	-9.36079
▁500	-9.36141
▁na	-9.36192
▁hangsúlyozta	-9.36405
tam	-9.36486
▁ekkor	-9.365
▁hozott	-9.36669
▁ingatlan	-9.367
öt	-9.36702
▁általános	-9.36712
▁érdemes	-9.36759
▁kutatók	-9.36785
▁kár	-9.36975
nap	-9.36984
▁erről	-9.3708
lő	-9.37103
▁próbál	-9.37155
▁lépés	-9.37179
▁egyedül	-9.37332
▁általában	-9.37434
▁olaj	-9.3747
▁Al	-9.37583
▁hatóság	-9.37614
▁országok	-9.3764
▁legfontosabb	-9.37646
▁szét	-9.3792
▁forgalom	-9.38004
▁York	-9.38129
árium	-9.38269
▁dolgozó	-9.38296
▁vezetői	-9.38459
▁jövőre	-9.38475
ca	-9.38482
úgy	-9.38578
▁Sok	-9.38582
▁adta	-9.3865
▁pontosan	-9.38744
▁annyi	-9.38786
▁hozta	-9.38884
▁magasabb	-9.38951
áig	-9.38995
▁országgyűlés	-9.39071
▁Dél	-9.39088
▁járt	-9.39192
óta	-9.39531
▁lehetne	-9.39557
▁tudják	-9.39605
▁svájci	-9.39635
▁tavalyi	-9.39655
▁+	-9.39678
▁asszony	-9.39717
▁háború	-9.39774
▁személyes	-9.39791
▁feladat	-9.39796
▁28	-9.39813
▁bér	-9.39814
▁Kovács	-9.39869
▁katona	-9.39878
vá	-9.40004
▁Na	-9.40063
▁járó	-9.40081
adott	-9.40347
▁Bizottság	-9.40352
millió	-9.40482
▁beteg	-9.40499
▁energia	-9.40501
▁beruházás	-9.40514
lo	-9.40535
▁találtak	-9.4058
un	-9.40598
▁Bank	-9.40623
▁tartalmaz	-9.40661
képpen	-9.4073
▁tűz	-9.40804
▁fideszes	-9.40864
▁kel	-9.40874
▁Van	-9.41115
ció	-9.41127
▁Szerinte	-9.41163
▁május	-9.41168
▁föl	-9.41339
▁lesznek	-9.41344
▁hétfő	-9.41362
▁eh	-9.41475
▁közvetlen	-9.41653
▁Államok	-9.41684
felé	-9.41722
▁társadalmi	-9.41814
!	-9.41857
▁jövőben	-9.41867
jából	-9.42086
▁Szabó	-9.42104
▁vége	-9.42174
lyen	-9.42342
▁történ	-9.42353
▁elfogad	-9.42376
▁egészen	-9.42394
ház	-9.42424
ze	-9.42436
th	-9.42503
▁33	-9.42503
▁sikeres	-9.42547
▁tulajdonos	-9.42582
▁Egyetem	-9.42662
▁javaslat	-9.43146
ügyi	-9.43175
▁keres	-9.43218
miatt	-9.43223
ív	-9.43288
▁közt	-9.43323
▁úton	-9.43333
ssz	-9.43353
▁kért	-9.43424
▁érte	-9.43424
▁havi	-9.43521
▁minőség	-9.43574
▁arany	-9.43674
▁írt	-9.43677
▁egymás	-9.43879
▁70	-9.44012
▁központ	-9.44274
▁úgynevezet	-9.44303
▁igazgató	-9.44461
▁Géza	-9.44472
▁tesz	-9.44481
▁választások	-9.44521
▁emberi	-9.44811
tem	-9.44854
▁tör	-9.449
▁2006-	-9.44953
▁Tanács	-9.44978
▁szín	-9.45021
▁készített	-9.45073
ment	-9.45081
▁település	-9.45082
▁rajta	-9.45166
▁Dr	-9.45186
▁indított	-9.45296
▁király	-9.45312
▁nappal	-9.45507
▁pillanat	-9.45627
▁szabályozás	-9.45739
▁keret	-9.45748
▁lengyel	-9.45765
▁Di	-9.45794
▁szolgáltatás	-9.45802
▁szeptember	-9.45879
▁napokban	-9.4599
▁minisztérium	-9.45997
ly	-9.46069
com	-9.46105
▁erő	-9.46224
▁beszél	-9.46412
▁zavar	-9.46577
▁ik	-9.466
▁2008	-9.46658
▁segítségével	-9.46715
▁sérülés	-9.46721
▁író	-9.46744
▁nekik	-9.46783
▁Ja	-9.46838
▁vezetés	-9.46845
▁tudnak	-9.46981
▁Köz	-9.47042
▁csökken	-9.47086
▁attól	-9.47112
▁ellenőrzés	-9.4722
▁LMP	-9.47274
▁ve	-9.47274
▁5-	-9.47276
▁együttműködés	-9.47328
▁ismeretlen	-9.47378
▁napon	-9.47619
▁Co	-9.47698
▁Központ	-9.47898
adó	-9.47947
▁épp	-9.47957
▁vág	-9.4801
▁délelőtt	-9.48075
▁od	-9.48121
▁családi	-9.48144
▁KA	-9.48154
▁magyarok	-9.4821
▁mű	-9.48259
▁lenni	-9.48293
▁Vi	-9.48341
▁igazi	-9.48424
▁létre	-9.48481
▁vezet	-9.48553
▁baj	-9.48641
▁gyár	-9.48688
▁kötet	-9.48696
▁eső	-9.48764
origo	-9.48769
mer	-9.48773
op	-9.4884
zó	-9.48926
▁péntek	-9.48994
▁szolgálat	-9.48998
ány	-9.49045
▁életét	-9.49191
▁téli	-9.49271
▁bajnok	-9.493
▁körülmények	-9.49337
▁Mol	-9.49532
belül	-9.4955
▁árfolyam	-9.49704
▁széles	-9.49715
▁szakember	-9.49782
▁Ne	-9.49874
▁80	-9.49875
▁osztrák	-9.4998
▁köszönhetően	-9.50343
▁terület	-9.50433
▁gyerekek	-9.50498
▁munkát	-9.50504
▁esemény	-9.50576
ell	-9.50672
▁román	-9.50754
▁keretében	-9.50762
▁őrizetbe	-9.50927
▁csütörtök	-9.50933
▁órá	-9.51199
▁szinten	-9.51213
▁hajó	-9.51267
▁mond	-9.5136
▁védő	-9.51404
▁né	-9.51465
▁Cs	-9.51628
▁társadalom	-9.51674
▁csúcs	-9.51727
ján	-9.51814
tó	-9.51882
▁leginkább	-9.52019
▁Br	-9.521
▁29	-9.52146
▁szakasz	-9.52147
▁jogszabály	-9.52214
▁Fő	-9.52263
▁emelkedett	-9.52343
▁sincs	-9.52525
pa	-9.52694
▁londoni	-9.52707
áz	-9.52799
▁pályázat	-9.52895
▁pályán	-9.52896
▁betegség	-9.52909
▁szombat	-9.53032
▁kulturál	-9.53074
▁könny	-9.53197
▁talál	-9.53274
ász	-9.5328
▁sérült	-9.53369
szor	-9.53378
▁játszott	-9.53405
▁busz	-9.53559
▁mutat	-9.53584
▁tartani	-9.53681
kó	-9.53794
▁többség	-9.53827
▁fal	-9.5395
▁kiállítás	-9.53953
▁lát	-9.5397
ntikv	-9.53996
▁fotó	-9.5408
▁helyet	-9.54113
▁000	-9.54139
▁szlovák	-9.54202
▁mértékben	-9.54236
ád	-9.54284
▁er	-9.54309
áció	-9.54328
▁forintra	-9.54386
▁ától	-9.54443
▁tudom	-9.54738
▁működő	-9.54765
▁szociális	-9.54766
▁Li	-9.54788
▁információ	-9.54799
▁Ko	-9.54839
rész	-9.54868
ált	-9.54904
▁veszi	-9.54925
▁államtitkár	-9.54962
▁kocsi	-9.55319
aj	-9.55349
bor	-9.5539
▁rendszeres	-9.55444
▁hideg	-9.55445
▁százalékát	-9.5548
▁Hozzátette	-9.55485
▁Főváros	-9.55488
▁különbség	-9.55533
▁fehér	-9.55537
cel	-9.55547
▁gólt	-9.5556
▁Csaba	-9.55578
heti	-9.55668
▁gyakorlati	-9.55714
▁éből	-9.55714
▁fogyasztás	-9.5579
▁gyakra	-9.55807
▁37	-9.55892
tunk	-9.55911
▁maguk	-9.55921
▁talált	-9.55928
▁4-	-9.55929
▁Tibor	-9.56054
▁He	-9.56056
▁kapcsolat	-9.56092
▁ideje	-9.561
▁hal	-9.5617
▁kapcsán	-9.56239
▁működik	-9.56264
▁jellemző	-9.56264
▁tartják	-9.56374
▁tény	-9.56802
▁változás	-9.56809
▁rendelkezés	-9.56854
▁állította	-9.56864
▁szerinte	-9.56881
nal	-9.56891
▁mély	-9.56968
▁foglalkoz	-9.57
▁adósság	-9.57084
esen	-9.5712
lkotmánybíróság	-9.57211
▁'	-9.57337
co	-9.57541
▁akarta	-9.57543
▁június	-9.57573
▁körében	-9.57584
▁okoz	-9.57605
▁36	-9.57731
▁iránt	-9.57765
▁meleg	-9.57859
▁venni	-9.57892
▁láb	-9.57985
▁gyakorlat	-9.58017
▁fegyver	-9.58041
▁lehetőséget	-9.58049
esz	-9.58144
▁lehetővé	-9.58155
sa	-9.58176
▁friss	-9.58194
▁örök	-9.58315
▁lépett	-9.58329
▁kedd	-9.58428
▁jármű	-9.58554
▁vb	-9.58614
▁alakult	-9.58624
▁használat	-9.58738
▁figyel	-9.58766
▁von	-9.58852
▁Balázs	-9.58924
cz	-9.58964
ber	-9.58991
▁tudjuk	-9.59028
▁nevezte	-9.5903
to	-9.59106
▁fekete	-9.59121
▁portál	-9.59143
▁kérte	-9.59232
▁győztes	-9.5924
▁felett	-9.59256
▁300	-9.59301
▁Országgyűlés	-9.59313
▁Ő	-9.59366
▁teljesítmény	-9.5943
▁alacsony	-9.59488
▁vették	-9.5949
▁Jó	-9.59623
▁dal	-9.59657
▁bíró	-9.59693
▁fiú	-9.59694
▁tervek	-9.59711
▁szerep	-9.59737
▁arc	-9.59831
do	-9.59855
▁Gy	-9.59855
▁állat	-9.59963
▁televízió	-9.59981
▁színész	-9.5999
▁folyó	-9.60108
▁múlva	-9.6011
▁ába	-9.60133
osz	-9.60177
▁rendező	-9.60193
▁szöveg	-9.60204
▁szerepelt	-9.60237
▁kínál	-9.60239
▁bajnoki	-9.60258
▁zárt	-9.6026
▁térség	-9.60315
▁ítélet	-9.60332
▁szakemberek	-9.60342
▁Á	-9.60498
▁ed	-9.60506
▁Vég	-9.6069
▁előbb	-9.60701
▁állítólag	-9.60709
▁kórház	-9.60798
▁labdarúgó	-9.60884
▁Károly	-9.60888
▁Me	-9.60904
▁tárgyalás	-9.60915
▁90	-9.60927
▁jét	-9.61015
int	-9.61037
▁főleg	-9.61081
▁tartozó	-9.61157
▁pártok	-9.6121
▁biztosan	-9.61296
▁nyilvánosságra	-9.61392
▁megyében	-9.61554
▁remek	-9.61616
zás	-9.61635
▁kezdett	-9.61701
▁mikor	-9.61708
ímkék	-9.61764
▁hagyományos	-9.61768
▁tevékenység	-9.61817
▁támadás	-9.61844
▁34	-9.62145
▁melyek	-9.62184
▁időjárás	-9.62289
▁nyitott	-9.62302
▁Imre	-9.62333
▁munkahely	-9.6234
hetetlen	-9.62587
▁mennyi	-9.62603
▁termék	-9.62609
▁cikk	-9.62648
ző	-9.62683
▁szenvedett	-9.62686
▁probléma	-9.62687
▁származ	-9.6271
▁köztü	-9.62726
▁annyit	-9.6273
▁rádió	-9.62778
▁Ra	-9.63006
▁számolt	-9.63009
▁könnyű	-9.63014
▁esti	-9.63102
▁részén	-9.63132
▁4.	-9.63132
▁ennél	-9.63205
▁képzés	-9.63275
anak	-9.63443
▁kemény	-9.63459
▁okozott	-9.63464
▁neve	-9.63476
▁edző	-9.63484
▁rendkívül	-9.63552
▁Szent	-9.63591
▁nk	-9.63605
▁31	-9.63619
▁természet	-9.63682
▁idegen	-9.63811
▁futball	-9.63823
jen	-9.63854
▁gyanúsított	-9.63861
▁tag	-9.63881
ító	-9.63892
▁fizetés	-9.63892
▁művészet	-9.63974
▁irány	-9.63975
▁Szövetség	-9.64033
ény	-9.64067
ült	-9.64151
▁nyújt	-9.64154
▁vendég	-9.64163
▁esetleg	-9.64227
▁hálózat	-9.64232
▁támadó	-9.6425
▁megállapodás	-9.64324
▁mennyiség	-9.64345
öm	-9.64485
két	-9.6453
▁Real	-9.64553
hogy	-9.64609
▁telefon	-9.64619
dal	-9.64665
▁területén	-9.6473
▁olvasó	-9.64882
▁előadás	-9.64992
▁távol	-9.6502
▁közönség	-9.65039
▁kommunikáció	-9.6506
▁teszt	-9.65078
▁vállalkozás	-9.65089
▁nemrég	-9.6514
▁Pa	-9.65208
▁szakértők	-9.65273
▁0	-9.65412
▁pontot	-9.65529
▁következt	-9.65558
▁tel	-9.65598
▁hangulat	-9.65679
▁eredménye	-9.65706
▁Persze	-9.65763
▁ezút	-9.65835
▁iskola	-9.65862
▁tévé	-9.6595
▁magam	-9.65958
▁érvényes	-9.65987
▁y	-9.66017
ton	-9.66041
▁nyílt	-9.66151
▁észak	-9.66256
▁adatai	-9.66277
▁vásárlás	-9.66371
▁Ka	-9.66372
▁vezetett	-9.66381
▁zöld	-9.6639
izmus	-9.66588
▁fogad	-9.66592
▁pozitív	-9.66597
▁ít	-9.66681
▁7-	-9.66685
▁keddi	-9.66697
▁ukat	-9.66721
▁többsége	-9.6673
▁gy	-9.66797
▁másodperc	-9.66807
▁Észak	-9.66807
jön	-9.66934
▁ellátás	-9.66964
▁intézkedések	-9.66973
ozó	-9.67015
▁Hivatal	-9.67057
▁elkövetet	-9.67061
▁derül	-9.6708
▁heti	-9.67089
▁tartozik	-9.67096
hatatlan	-9.67168
▁jük	-9.67208
zet	-9.67224
▁alkalmas	-9.67303
▁számol	-9.67366
▁oldalon	-9.67369
lan	-9.67426
▁Győr	-9.67429
▁kér	-9.67456
SZ	-9.67594
▁alakul	-9.67602
▁fordul	-9.67614
▁Tóth	-9.67652
▁látszik	-9.67655
▁ol	-9.6768
▁nyerte	-9.67698
▁egyház	-9.67748
▁ügyészség	-9.67751
▁amennyi	-9.67849
▁külső	-9.67864
▁tényleg	-9.67966
▁karácsony	-9.68044
▁belőle	-9.68077
lat	-9.68164
▁férfiak	-9.68166
▁GDP	-9.68241
▁adni	-9.68304
▁kon	-9.68305
▁lehetséges	-9.68311
▁jég	-9.68315
Az	-9.68349
ug	-9.68451
▁továbbá	-9.68492
▁3-	-9.685
▁másfél	-9.68509
dik	-9.68569
szerű	-9.68598
kinek	-9.68601
▁o	-9.68603
ll	-9.68639
▁ák	-9.68711
▁emlék	-9.6876
▁ellenzéki	-9.68848
szerint	-9.68925
éből	-9.6894
▁szerepet	-9.69066
del	-9.69123
▁Horvát	-9.69132
▁japán	-9.69148
▁alapvető	-9.69151
▁hány	-9.69173
▁fizet	-9.69205
▁évente	-9.69208
▁vezette	-9.6924
pal	-9.6933
▁jával	-9.69361
▁azonos	-9.69363
▁ülés	-9.69366
ür	-9.69416
▁kapta	-9.69475
▁körüli	-9.69513
▁pozíció	-9.69566
▁révén	-9.69579
▁11-	-9.69785
▁közelében	-9.69821
▁30-	-9.69891
▁15-	-9.69907
▁8-	-9.6997
▁érdekes	-9.70002
▁mellé	-9.701
▁terv	-9.70169
▁bűncselekmény	-9.70174
▁polgár	-9.70204
▁kísérlet	-9.70382
▁infláció	-9.70448
▁Népszabadság	-9.70448
▁Tovább	-9.70448
▁csökkenés	-9.70472
▁védelm	-9.70535
▁helyre	-9.70551
]	-9.70586
▁módosítás	-9.70636
▁július	-9.70666
▁használt	-9.70669
▁vita	-9.70679
ger	-9.70693
▁folyamat	-9.70719
szerűen	-9.70724
▁utas	-9.70741
ony	-9.7085
▁elnökség	-9.70857
▁rengeteg	-9.70885
milyen	-9.70923
▁sokszor	-9.70948
▁anyagi	-9.70989
▁görög	-9.71097
▁akart	-9.71102
▁mozgás	-9.71254
▁bevétel	-9.71268
ru	-9.7128
áj	-9.71297
▁szomszéd	-9.71324
▁2007-	-9.71328
▁Franciaország	-9.71329
▁mutatja	-9.71329
▁elérhető	-9.71336
▁fordult	-9.71364
per	-9.71399
▁42	-9.71447
▁papír	-9.71453
▁század	-9.71458
▁csapata	-9.71611
▁mérték	-9.71659
▁utal	-9.71697
▁of	-9.71723
▁percben	-9.71728
he	-9.71936
▁százalékot	-9.71958
▁Ri	-9.71985
▁jelentés	-9.71995
▁botrány	-9.72109
asz	-9.72129
▁rendelkező	-9.72475
▁halál	-9.72488
▁lak	-9.72526
▁felül	-9.72584
séggel	-9.72598
▁napilap	-9.72704
▁éjszaka	-9.72761
▁agy	-9.72796
ozás	-9.72896
▁Ba	-9.72972
▁kamat	-9.73065
▁terjed	-9.73101
▁pénteki	-9.7311
▁csomag	-9.73118
▁Micha	-9.73146
▁hosszabb	-9.73171
▁vé	-9.73181
▁győzelem	-9.73313
▁intézet	-9.73478
▁ex	-9.73478
▁bőr	-9.73521
▁Föld	-9.7353
zetközi	-9.73544
▁eszköz	-9.73559
▁hatalom	-9.73564
▁kiváló	-9.73566
▁politika	-9.7357
▁eurót	-9.73649
▁Én	-9.73653
▁6-	-9.7373
▁tökéletes	-9.73787
▁fiatalok	-9.73821
▁sebesség	-9.73847
▁állítja	-9.73886
▁hírek	-9.73893
▁Kis	-9.73924
▁eljárást	-9.74001
▁Varga	-9.74047
▁harminc	-9.74051
▁súly	-9.74076
▁dönt	-9.74124
▁ős	-9.7418
▁állandó	-9.74247
▁egészség	-9.74295
▁Ilyen	-9.74322
▁óriási	-9.7434
▁képviselői	-9.74362
▁egyaránt	-9.74452
ac	-9.74459
▁videó	-9.74513
▁érkező	-9.74527
▁38	-9.74533
▁kerülhet	-9.74615
▁rendez	-9.74626
▁ipari	-9.74639
▁Nagyon	-9.74668
▁hivatkozva	-9.74692
fel	-9.74717
▁közleményében	-9.7472
▁helyszínen	-9.74726
öv	-9.74752
▁működés	-9.74874
▁tűnt	-9.74882
▁kaptak	-9.74914
▁szánt	-9.75051
▁műszaki	-9.75058
▁nyugati	-9.75096
▁tenger	-9.75101
▁nyilatkozat	-9.75154
▁vélemény	-9.75167
▁2-	-9.75222
▁pályára	-9.75227
▁gyártó	-9.75284
▁Se	-9.75284
talan	-9.75303
▁meglepetés	-9.75365
▁nekem	-9.75379
▁kapu	-9.75396
▁bír	-9.75428
ág	-9.75435
▁cseh	-9.75455
▁km	-9.75532
▁felmérés	-9.7559
▁Igaz	-9.75638
▁váltó	-9.7572
▁blog	-9.75727
▁TV	-9.75733
▁különleges	-9.75769
▁esélye	-9.75769
előtt	-9.75858
mény	-9.75884
▁szerződést	-9.75886
▁reform	-9.75902
▁néző	-9.75926
▁hozzátette	-9.76055
ff	-9.76076
▁nemzet	-9.76077
▁időszakban	-9.76121
▁kiderül	-9.76171
▁biztosít	-9.76177
▁Pécs	-9.76206
▁határozat	-9.76243
▁Kr	-9.76277
go	-9.76316
▁ennyi	-9.76449
▁centiméter	-9.7645
▁üket	-9.76455
▁pálya	-9.76516
▁Google	-9.76517
elmi	-9.76571
▁felső	-9.76721
▁kettő	-9.76729
▁Duna	-9.76736
▁futam	-9.76789
iai	-9.76793
ódott	-9.76797
▁hőmérséklet	-9.76823
lés	-9.76847
1-	-9.76954
▁Ho	-9.7701
▁képviselők	-9.77025
▁kizárólag	-9.77045
▁honlapján	-9.77125
ou	-9.77165
▁döntetlen	-9.77224
▁szerb	-9.77262
▁fognak	-9.77265
▁Mo	-9.77321
▁arány	-9.77403
▁épül	-9.77413
online	-9.77488
▁kórházba	-9.77502
▁FC	-9.77553
▁csütörtöki	-9.77616
öd	-9.77647
▁semmit	-9.77662
ck	-9.77697
zik	-9.77711
▁Ami	-9.77711
atív	-9.77718
▁helyzetben	-9.77725
▁Itt	-9.77792
▁versenyző	-9.77853
▁Oroszország	-9.77885
▁Mar	-9.77936
▁sikerül	-9.77971
▁valóság	-9.78043
▁mások	-9.78109
▁öröm	-9.78135
▁területek	-9.78141
lassan	-9.78153
▁születés	-9.78194
▁Bo	-9.78229
▁civil	-9.78235
▁akarja	-9.78307
▁mutató	-9.78329
▁említett	-9.78372
▁hétfői	-9.78426
▁Akkor	-9.78428
▁Bíróság	-9.78447
▁vettek	-9.78459
európai	-9.78571
▁II	-9.7875
zott	-9.78805
▁nélküli	-9.78809
▁piacon	-9.78851
▁valamennyi	-9.78862
▁jegybank	-9.78863
▁Bal	-9.78873
▁mire	-9.78881
▁Madrid	-9.79099
▁plusz	-9.79105
▁egyetem	-9.79107
▁Mark	-9.7911
▁kkal	-9.79117
▁helyszín	-9.79181
▁index	-9.79189
▁dolgozott	-9.7922
▁400	-9.79231
▁módszer	-9.79275
▁szabályok	-9.79338
▁PL	-9.79403
▁negyed	-9.79438
▁di	-9.79567
▁jában	-9.79589
▁kiemelt	-9.79609
▁gondol	-9.79632
sége	-9.79637
▁kutató	-9.79735
▁Szabolcs	-9.79838
▁magukat	-9.79977
ítő	-9.80046
▁befektetés	-9.80104
▁2007	-9.80108
▁számában	-9.80118
▁kapus	-9.80123
▁ég	-9.80141
▁ipar	-9.80144
▁tudományos	-9.80209
▁veszélyes	-9.80264
éssel	-9.80269
▁államfő	-9.80305
▁hallgat	-9.80424
▁központi	-9.80437
▁közlemény	-9.80461
▁hiába	-9.80554
▁svéd	-9.80622
▁felnőtt	-9.80626
▁ügyében	-9.80634
▁kétszer	-9.80676
▁nyer	-9.80727
hatja	-9.80756
▁szervezetek	-9.80808
▁nehez	-9.80819
▁termékek	-9.80847
▁követel	-9.80972
▁ötödik	-9.81055
▁dollárt	-9.81116
▁mondott	-9.81189
▁kerültek	-9.81197
▁Bar	-9.81222
▁tették	-9.81236
őr	-9.81394
U	-9.81468
▁mobil	-9.81481
▁Mu	-9.81501
▁példa	-9.81502
ített	-9.81523
▁regény	-9.8153
id	-9.81634
▁stílus	-9.81652
▁sztrájk	-9.81733
▁Minisztérium	-9.8175
▁Ben	-9.81786
▁szóvivő	-9.81924
tünk	-9.81928
vezető	-9.8193
▁holland	-9.81947
felje	-9.81964
részben	-9.8201
▁befolyásol	-9.82021
▁5.	-9.8207
▁het	-9.82095
ébe	-9.82152
▁termelés	-9.82199
▁szempontból	-9.82256
jék	-9.82315
pp	-9.82415
▁fejlődés	-9.82488
▁szeretnék	-9.82566
▁problémák	-9.82709
▁vasút	-9.82734
▁áldozat	-9.82734
▁Ga	-9.82753
po	-9.82753
▁bejelentés	-9.82757
▁hi	-9.8276
▁értelmé	-9.82803
▁39	-9.8282
▁nyilván	-9.82846
▁politiká	-9.82873
▁finanszírozás	-9.82903
mp	-9.82947
▁kölcsön	-9.83012
ven	-9.8303
▁munkatársai	-9.83142
▁visszatér	-9.83148
▁Obama	-9.83226
▁abb	-9.83234
▁Forma	-9.8324
▁szeretné	-9.83348
lal	-9.83403
ho	-9.83409
ós	-9.8342
▁Manchester	-9.83474
▁negyven	-9.83479
▁okozta	-9.8348
▁Te	-9.83575
▁költség	-9.83659
▁foglal	-9.83687
szk	-9.83709
▁szeretne	-9.83763
▁követő	-9.83799
▁Vas	-9.83803
▁szabadság	-9.83824
▁véli	-9.83919
▁tájékoztatása	-9.83965
▁utazás	-9.83985
▁tartanak	-9.83992
▁játszik	-9.84022
vány	-9.84066
▁kulcs	-9.84072
▁források	-9.84079
▁legutóbbi	-9.8408
▁barát	-9.84113
▁tőle	-9.84178
▁ügyvéd	-9.84182
ep	-9.84196
▁területen	-9.84206
▁biztonság	-9.84218
▁befektetők	-9.84233
▁gond	-9.84251
▁41	-9.84355
ított	-9.84386
▁étől	-9.84414
lel	-9.84527
▁készít	-9.84533
▁kialakul	-9.84603
▁régió	-9.84614
▁SZDSZ	-9.84667
▁bankok	-9.84679
▁története	-9.84782
ron	-9.84813
▁48	-9.84877
▁esetleges	-9.84925
▁korrupció	-9.84982
▁közgyűlés	-9.85007
▁nyomás	-9.85079
▁meglepő	-9.8512
▁házi	-9.85148
▁szolgál	-9.85159
oly	-9.85255
▁jára	-9.85267
▁építés	-9.85269
▁izraeli	-9.85312
▁lég	-9.85352
▁segít	-9.85375
▁állapot	-9.85393
▁felvétel	-9.85423
▁állnak	-9.85475
▁Három	-9.85488
▁alacsonyabb	-9.85577
▁dokumentum	-9.85602
▁fele	-9.85617
▁jelezte	-9.85618
▁konkrét	-9.85727
▁fölött	-9.8576
▁esetek	-9.85765
▁hatás	-9.85834
▁mondani	-9.85848
álló	-9.85881
▁hit	-9.85894
▁bemutat	-9.85948
▁látja	-9.85997
▁eredmények	-9.86037
ód	-9.86052
▁adja	-9.86059
▁bo	-9.86076
▁újságíró	-9.86089
▁Szeged	-9.86145
▁üzem	-9.86177
▁igény	-9.86249
▁módosít	-9.86254
rend	-9.86262
▁találkozó	-9.86318
jával	-9.86376
▁44	-9.86397
▁hónapok	-9.86435
sem	-9.8649
▁Szer	-9.86508
▁hamarosan	-9.8652
▁válik	-9.86558
▁nyáron	-9.8658
▁mennyire	-9.86599
▁aktív	-9.86615
▁nevez	-9.86635
▁kezdte	-9.86666
▁dolgozók	-9.86726
▁Su	-9.86747
▁Robert	-9.86758
▁tárca	-9.86764
▁dolgozik	-9.86839
zés	-9.86851
▁nyújtott	-9.8695
▁sáv	-9.86961
▁Lo	-9.86969
▁változat	-9.87007
▁valamely	-9.87014
▁In	-9.87031
let	-9.87044
▁figyelembe	-9.87045
▁órák	-9.87205
úr	-9.87249
▁szocialisták	-9.87272
▁létszám	-9.87275
▁City	-9.87293
▁intézmények	-9.87307
▁művész	-9.87371
ező	-9.8738
▁Da	-9.87471
▁időt	-9.87485
ill	-9.87536
▁kerületi	-9.8755
▁szex	-9.87601
▁rendezvény	-9.8762
▁törvényt	-9.87623
▁szavazat	-9.87722
▁emelkedés	-9.87768
▁Inter	-9.8781
▁rendszert	-9.87857
▁55	-9.87886
▁könnyebb	-9.87917
elt	-9.87943
▁Európában	-9.87945
▁fogadta	-9.88012
ley	-9.8807
▁tiszt	-9.88163
ová	-9.8818
▁Aki	-9.88196
▁közepén	-9.88204
▁elérni	-9.88311
▁koncert	-9.88368
▁horvát	-9.88393
▁véget	-9.88396
▁tőke	-9.884
▁nyugat	-9.88439
▁oszt	-9.88506
▁jegy	-9.88545
▁sötét	-9.88571
▁Ber	-9.886
▁autót	-9.88605
▁ter	-9.88608
avaly	-9.8867
▁idős	-9.88714
▁küld	-9.8878
▁kezdődött	-9.88809
▁érdem	-9.88831
▁megint	-9.8894
▁Ke	-9.88943
▁menet	-9.88995
kereskedelmi	-9.89023
▁Mihály	-9.89095
J	-9.89142
▁támogatást	-9.8919
▁csatár	-9.89207
▁évet	-9.89249
▁töltött	-9.89395
▁melyik	-9.89473
▁frank	-9.89614
▁nyomán	-9.89623
▁végéig	-9.89628
▁tudták	-9.8963
▁kifejezett	-9.89636
▁2011	-9.89709
▁tudomány	-9.89748
ics	-9.898
▁lőtt	-9.89873
▁szavazás	-9.89883
▁Nyugat	-9.89886
land	-9.89898
▁Gu	-9.89936
lin	-9.89944
▁hiba	-9.89974
▁Lu	-9.90025
ró	-9.90087
ítés	-9.90101
▁társ	-9.90135
▁negatív	-9.90152
▁vidék	-9.90179
▁múzeum	-9.90183
▁ugyanaz	-9.90218
újabb	-9.90224
▁Ru	-9.90255
▁büntetés	-9.90311
▁nyomozás	-9.90339
▁hajlandó	-9.90368
▁azoknak	-9.90369
▁karácsonyi	-9.90374
ster	-9.9039
▁Kína	-9.90418
▁hajnal	-9.90511
▁tal	-9.90524
▁PK	-9.90547
▁megjelen	-9.90662
▁eszközök	-9.90712
▁rosszul	-9.90769
▁tehet	-9.90779
éz	-9.90898
▁sír	-9.90919
▁látni	-9.90987
▁rég	-9.91016
▁esély	-9.9102
▁csinál	-9.91054
▁augusztus	-9.91184
▁ötven	-9.91202
▁biztosítás	-9.91239
lu	-9.91259
▁hétvégén	-9.91288
kormány	-9.91309
▁Pro	-9.9134
▁jelenség	-9.91357
▁színház	-9.91378
▁látott	-9.91422
▁sajn	-9.91459
▁Mesterházy	-9.9149
▁ják	-9.91591
▁eit	-9.91648
▁védelem	-9.91703
▁bizony	-9.91732
▁Debrecen	-9.91739
bo	-9.91749
▁mester	-9.91759
▁déli	-9.91767
▁szerkezet	-9.91783
▁tanár	-9.91785
ista	-9.91826
▁ánál	-9.91842
▁velük	-9.91853
▁vezetők	-9.91887
▁negyedév	-9.91905
ebek	-9.91936
enként	-9.91972
▁harmad	-9.92033
▁telep	-9.92048
▁sziget	-9.92127
▁csapatok	-9.92132
▁viszony	-9.9216
▁kész	-9.92171
▁kérdésre	-9.92175
▁szeret	-9.92188
▁kapnak	-9.92189
▁levegő	-9.9224
▁zene	-9.92248
sebb	-9.92308
▁díjat	-9.92309
▁idők	-9.92351
▁it	-9.92352
▁késő	-9.92394
▁éven	-9.92539
▁Bajnai	-9.92571
▁Gyula	-9.92572
▁belvíz	-9.92574
vári	-9.92592
▁Németország	-9.92597
▁Ezen	-9.92645
▁januárban	-9.92703
ard	-9.92717
▁bejelentette	-9.92771
▁munkatársa	-9.92811
▁Ro	-9.92815
▁United	-9.92844
▁filmet	-9.93139
▁w	-9.93192
▁ver	-9.93196
▁Állam	-9.9325
▁ható	-9.93315
▁egymást	-9.93344
▁érzés	-9.93391
▁por	-9.93427
▁Leg	-9.93442
▁ajándék	-9.93458
▁tekint	-9.93542
▁Mind	-9.93613
▁jobboldal	-9.93672
▁vonal	-9.93811
▁börtön	-9.93887
▁érdeklődés	-9.93891
▁tárgyalások	-9.93905
▁John	-9.9393
▁vállal	-9.93947
▁médiatörvény	-9.93954
▁városban	-9.94111
▁segítség	-9.9414
▁számítógép	-9.94142
▁engedély	-9.94164
▁napján	-9.94182
▁történik	-9.94183
▁Intézet	-9.94217
▁Kar	-9.94227
▁bíz	-9.94239
ker	-9.9426
▁erőszak	-9.94325
▁abból	-9.94518
▁beszámoló	-9.94548
▁fagy	-9.94553
▁induló	-9.94563
sé	-9.94571
▁No	-9.94576
ré	-9.94623
▁végére	-9.94645
▁hónapban	-9.94745
▁43	-9.94768
▁szándék	-9.94805
▁köztársaság	-9.94844
▁mer	-9.94878
▁tulajdonosa	-9.94891
▁fizetni	-9.94958
▁veszteség	-9.95025
▁BBC	-9.95051
▁bemutató	-9.95111
▁akkori	-9.95121
▁65	-9.95127
▁verzió	-9.95153
▁egyben	-9.95183
▁zár	-9.95256
▁köt	-9.9526
ög	-9.95273
▁büntető	-9.95338
▁u	-9.95347
▁lista	-9.95349
▁utat	-9.95386
▁Hi	-9.9545
▁felel	-9.95465
szám	-9.9556
▁OTP	-9.9561
▁Ráadás	-9.95612
▁tájékoztat	-9.95666
▁jel	-9.95675
▁reklám	-9.95679
▁46	-9.95689
▁gyártás	-9.95698
aszt	-9.95728
▁2006	-9.95747
▁Hu	-9.9577
▁várja	-9.95815
av	-9.95819
▁rendkívüli	-9.95819
▁halálos	-9.95823
▁annál	-9.95999
▁szólt	-9.96001
▁ú	-9.96008
íteni	-9.96031
▁hete	-9.96046
que	-9.96058
▁lövés	-9.96083
▁oktatás	-9.96138
▁esztendő	-9.96173
▁boldog	-9.96198
▁18.	-9.96203
▁autók	-9.96207
▁tábor	-9.96208
▁légi	-9.96245
tár	-9.96338
ítani	-9.96373
▁kezdeményezés	-9.96468
ája	-9.96554
▁kérdések	-9.96593
▁északi	-9.96599
▁oldalán	-9.96611
▁ötlet	-9.96666
▁MÁV	-9.96738
esebb	-9.96782
▁kapitány	-9.9685
▁vereség	-9.96902
▁fi	-9.96933
▁derült	-9.96999
▁vá	-9.97012
▁rel	-9.97138
▁Antal	-9.97139
▁ellentét	-9.97235
ellyel	-9.97299
▁templom	-9.97307
▁elem	-9.97329
▁tettek	-9.97342
helyettes	-9.97371
▁szakértő	-9.97377
▁vád	-9.97388
ko	-9.97389
▁meccsen	-9.97395
▁Times	-9.97454
rendszer	-9.97464
közi	-9.97468
▁ponttal	-9.9748
▁folytatás	-9.97562
▁49	-9.97578
▁űr	-9.9758
▁összeget	-9.9758
▁száj	-9.976
▁érintő	-9.97698
▁Dávid	-9.9788
▁havazás	-9.9788
▁élmény	-9.97893
▁vádlott	-9.97917
ához	-9.97956
▁járat	-9.97982
▁6.	-9.98117
▁legmagasabb	-9.98167
▁főpolgármester	-9.98169
▁szempontjából	-9.98171
sza	-9.98259
▁határozott	-9.98266
W	-9.98283
▁nyilatkozott	-9.98289
▁kül	-9.98295
▁fenn	-9.98311
br	-9.98341
▁embereket	-9.98348
tér	-9.9835
▁információk	-9.98351
▁találták	-9.98357
zon	-9.98373
▁ul	-9.98392
▁iroda	-9.98454
▁mindez	-9.98471
▁vasárnapi	-9.98518
▁gyógyszer	-9.98628
▁értékesítés	-9.98744
oló	-9.98755
Z	-9.98774
nyal	-9.98777
▁7.	-9.98823
az	-9.98854
rá	-9.98928
▁némi	-9.99015
▁indít	-9.99029
▁koncepció	-9.99034
▁tegnap	-9.99076
▁viszonylag	-9.99096
▁Bor	-9.99112
▁hetek	-9.99168
▁For	-9.99214
▁mutatott	-9.99233
▁szerencsé	-9.99269
elő	-9.99321
▁tölt	-9.99332
▁szabály	-9.99413
▁Mercedes	-9.99415
▁meghalt	-9.99416
▁vonat	-9.99419
▁szűk	-9.99425
▁képviselője	-9.99466
▁helyzetet	-9.99521
dy	-9.99538
▁kettős	-9.99549
▁anya	-9.99604
▁szuper	-9.99618
▁voltam	-9.99635
▁vezér	-9.99655
ssé	-9.99671
lik	-9.99698
fer	-9.99795
három	-9.99795
cal	-9.99924
▁hús	-9.99933
▁Más	-9.99962
▁milliós	-10.0001
▁Mert	-10.0003
▁szer	-10.0004
▁Ön	-10.0007
▁határidő	-10.0021
▁számlá	-10.0029
▁Car	-10.0038
▁úr	-10.004
▁tan	-10.0044
▁politikusok	-10.0045
▁dr	-10.005
▁kijelentette	-10.0053
▁sors	-10.0053
▁függ	-10.0055
▁szed	-10.0058
▁halad	-10.006
▁56	-10.0065
▁kelt	-10.0073
▁Los	-10.0076
▁Görögország	-10.0079
▁adtak	-10.0081
▁Bu	-10.0087
ej	-10.0089
▁teszik	-10.0095
▁nyilatkoz	-10.0106
▁bűn	-10.0115
▁róla	-10.0133
▁bb	-10.0138
▁Zs	-10.0138
▁Spanyolország	-10.0138
▁egymással	-10.0143
ukat	-10.0143
érték	-10.0144
▁épített	-10.0144
▁Tr	-10.0145
▁záró	-10.0145
▁mozi	-10.0147
▁finom	-10.016
ségében	-10.0163
▁apró	-10.0163
▁hátra	-10.0164
▁segítséget	-10.0166
▁tájékoztatta	-10.0167
▁rivális	-10.0168
pont	-10.0169
▁rendelkezik	-10.0173
▁közleményben	-10.0174
▁biztosító	-10.0177
▁formában	-10.0181
nyugdíjpénztár	-10.0181
▁hátrány	-10.0196
▁ukrán	-10.0196
▁villamos	-10.0198
▁alkot	-10.0201
▁színésznő	-10.0203
▁gazdag	-10.0208
▁sí	-10.0211
▁David	-10.0228
▁rendelet	-10.0244
ec	-10.0251
dor	-10.0253
▁csillag	-10.0257
▁alkalmazás	-10.0257
▁alapos	-10.0261
▁felelősség	-10.0274
▁íz	-10.0275
▁dolgok	-10.0277
▁illetékes	-10.0277
▁gyermeke	-10.0282
▁személyi	-10.0284
▁kiló	-10.0289
lá	-10.0289
▁Fotó	-10.0293
éhez	-10.0294
▁vállalkozó	-10.0295
org	-10.0299
▁nincsenek	-10.0301
▁ígér	-10.0314
▁(3	-10.0316
;	-10.0321
▁Veszprém	-10.0322
▁intézkedés	-10.0327
▁szállítás	-10.0331
▁harc	-10.0331
▁falu	-10.0344
▁játékosok	-10.0347
▁Róbert	-10.0349
▁felesége	-10.035
-1	-10.035
▁nyereség	-10.0352
▁szoros	-10.0352
▁Párt	-10.0358
▁47	-10.037
▁huszon	-10.0379
▁világos	-10.0381
▁2009.	-10.0391
▁poszt	-10.0393
▁idény	-10.0393
▁újság	-10.0397
▁téren	-10.0403
▁állampolgár	-10.0411
▁Red	-10.0415
▁csap	-10.0429
▁egészséges	-10.0429
▁Tisza	-10.043
▁vet	-10.0432
▁vállalkozások	-10.0443
no	-10.0449
▁kereszt	-10.0449
▁legfő	-10.045
▁élt	-10.0451
▁napja	-10.0456
▁forgalm	-10.0459
▁tárgy	-10.0462
▁történelem	-10.0471
▁keresztény	-10.0474
▁fővárosban	-10.0475
▁or	-10.0483
▁alkohol	-10.049
▁mégsem	-10.0491
cc	-10.0497
fa	-10.0497
▁Izrael	-10.0501
▁10.	-10.0502
▁számított	-10.051
lé	-10.0511
▁látványos	-10.0511
▁Pedi	-10.0513
▁Po	-10.0515
▁brazil	-10.0515
▁É	-10.0516
iszt	-10.0519
tag	-10.0525
▁kedves	-10.0526
▁7,	-10.0529
▁tartós	-10.0531
▁adás	-10.0535
▁ny	-10.0535
▁9,	-10.0535
▁néha	-10.0536
▁Ház	-10.0538
▁számítani	-10.054
▁mondták	-10.0541
▁kényszer	-10.0541
tük	-10.0542
▁nálunk	-10.0543
▁felügyelet	-10.0543
pl	-10.0543
▁menni	-10.0548
▁tétel	-10.0557
▁vaj	-10.0564
▁vendégek	-10.0565
▁ausztrál	-10.0567
▁jellegű	-10.0568
▁ponton	-10.0572
▁élete	-10.0574
▁aránya	-10.0575
▁ruhá	-10.0576
▁Gi	-10.0588
ését	-10.0594
▁kanadai	-10.0594
▁félidő	-10.0596
▁verte	-10.0599
onnan	-10.06
▁filmek	-10.0605
▁Pest	-10.0606
▁To	-10.0615
▁roma	-10.062
▁állomás	-10.0624
▁Államokban	-10.0626
▁USA	-10.0627
▁bajnokság	-10.064
▁foglalkoztatás	-10.0641
▁körzet	-10.0654
▁közvélemény	-10.0657
▁Ve	-10.0663
▁modern	-10.0666
szel	-10.0666
hely	-10.0666
▁8.	-10.0668
▁decemberben	-10.0677
▁nőt	-10.0678
▁kaphat	-10.068
amerikai	-10.0682
ev	-10.0689
▁Ám	-10.0691
▁támogat	-10.0691
▁75	-10.0694
▁későbbi	-10.0694
▁áram	-10.0695
▁nyilvános	-10.0705
▁halott	-10.0711
▁valamit	-10.0712
koreai	-10.0714
▁Her	-10.0714
▁tudás	-10.0715
▁ilyenkor	-10.0718
▁üzemanyag	-10.072
tuk	-10.0723
▁alkalmazott	-10.0726
▁Mal	-10.0729
▁alatti	-10.0729
▁eladás	-10.0731
▁adatokat	-10.0736
▁tagok	-10.0737
▁ülésén	-10.0739
▁52	-10.074
▁ajánlat	-10.0742
tikus	-10.0742
▁rekord	-10.0751
▁környékén	-10.076
▁időn	-10.0765
▁világbajnokság	-10.0771
▁partner	-10.078
▁éjjel	-10.0783
▁páros	-10.0788
▁hir	-10.079
▁étel	-10.0791
ge	-10.0793
▁irodalom	-10.0793
▁San	-10.0797
▁ellenzék	-10.0801
▁nekünk	-10.0803
▁dob	-10.0809
▁Balaton	-10.0814
▁profi	-10.0816
▁ágy	-10.0817
▁változott	-10.0822
▁1,3	-10.0822
ers	-10.0826
ánnyal	-10.0827
▁szerezte	-10.083
▁Man	-10.0833
▁győzelme	-10.0835
ügyminisztérium	-10.0838
▁körben	-10.084
▁elől	-10.0842
▁immár	-10.0847
▁megtalál	-10.0847
▁sofőr	-10.085
▁beszéd	-10.086
▁kiadás	-10.086
▁szüksége	-10.0861
▁korszak	-10.0866
▁kezdődik	-10.0869
▁Fa	-10.087
▁messze	-10.0873
▁Első	-10.0879
up	-10.088
▁visszaesés	-10.0883
▁had	-10.0886
▁diák	-10.0887
▁nevét	-10.0891
▁mar	-10.0895
▁programok	-10.0896
▁Or	-10.0898
▁híd	-10.0908
▁hátsó	-10.0911
▁park	-10.0911
▁Eh	-10.0916
▁Hol	-10.092
▁vizsgálatok	-10.0924
▁mérkőzésen	-10.0925
▁Jan	-10.0927
▁őr	-10.0931
▁elemzés	-10.0934
▁vezeti	-10.0943
han	-10.0944
▁elégedett	-10.0944
▁napok	-10.0948
▁tető	-10.0949
▁mutatkoz	-10.095
▁kezdeményez	-10.0961
▁frakció	-10.0965
▁csúsz	-10.0971
▁euróövezet	-10.0975
▁Barcelona	-10.0978
▁kedvező	-10.0979
▁állapotban	-10.0985
▁jon	-10.0988
ezés	-10.0995
▁szigorú	-10.0997
▁egyet	-10.1004
▁választókerület	-10.1007
▁csapadék	-10.1007
sen	-10.1014
▁árul	-10.1014
▁stratégia	-10.1015
▁híres	-10.1019
▁Lehet	-10.1021
▁20-	-10.103
▁haj	-10.1035
▁földrengés	-10.104
▁eltérő	-10.1044
ina	-10.1045
▁hatására	-10.1046
▁feletti	-10.105
▁szünet	-10.105
▁ébe	-10.1069
▁tár	-10.1069
▁Múlt	-10.1072
▁hadsereg	-10.1073
var	-10.1077
▁du	-10.1081
▁ablak	-10.1087
▁hívta	-10.1087
▁tol	-10.1087
▁technikai	-10.1088
+	-10.1096
▁forgat	-10.1098
▁képek	-10.1101
%	-10.1104
jét	-10.1106
▁kereskedelm	-10.1109
▁képet	-10.1114
▁szén	-10.1115
▁nyúl	-10.112
▁olvashat	-10.113
▁fogalmaz	-10.1133
▁ágazat	-10.1138
▁Lengyelország	-10.1138
▁szolgáltató	-10.1141
▁itthon	-10.1142
▁gyilkosság	-10.1143
▁part	-10.1144
▁szerv	-10.1146
▁kapcsol	-10.1151
bl	-10.1151
▁polgármestere	-10.1155
▁kormánypárt	-10.1155
▁vörös	-10.1157
▁gondolat	-10.1166
▁tartotta	-10.1166
▁értékel	-10.1167
▁zsidó	-10.1174
▁ügyek	-10.1182
▁magazin	-10.1183
▁hagyta	-10.1184
csi	-10.1188
▁ro	-10.1196
▁ideig	-10.1202
▁ENSZ	-10.1204
▁rögtön	-10.1204
▁titok	-10.1204
mar	-10.121
▁szombati	-10.1211
▁tűzoltók	-10.1213
sta	-10.1221
▁kezdet	-10.1222
▁irányító	-10.1227
▁bárki	-10.1228
▁tartottak	-10.1232
▁Béla	-10.1237
▁hullám	-10.1238
▁tartomány	-10.1242
▁áért	-10.1245
▁szervez	-10.1246
▁pro	-10.1254
▁Kiss	-10.1257
▁érdek	-10.1268
esetre	-10.1272
▁egyesület	-10.1275
▁véleménye	-10.1284
▁tanácsadó	-10.1286
▁fe	-10.1286
▁játékok	-10.1298
▁lop	-10.1302
▁pilóta	-10.1303
▁államháztartás	-10.1303
▁Korább	-10.1304
▁nyi	-10.1306
▁időpont	-10.1309
▁vevő	-10.1312
díj	-10.1316
▁benzin	-10.1318
▁mentes	-10.1319
▁emlékeztet	-10.1324
▁fia	-10.1336
▁fekvő	-10.1338
▁150	-10.1339
▁ing	-10.1339
▁erősödött	-10.1339
▁közölt	-10.134
▁magyarázta	-10.1341
▁állomány	-10.1344
▁kés	-10.1344
▁mell	-10.1347
▁katasztrófa	-10.1354
▁jének	-10.1357
▁tervei	-10.1359
pel	-10.1359
▁betegek	-10.1361
▁vallás	-10.1363
▁álláspont	-10.1369
▁piros	-10.137
▁Néhány	-10.137
▁Jelenleg	-10.1372
Arra	-10.138
▁látta	-10.1382
▁érkezik	-10.1384
▁dolgozni	-10.1386
▁Jo	-10.1386
▁panasz	-10.1388
▁csőd	-10.1389
▁segély	-10.1392
▁elemzők	-10.1393
▁tartották	-10.1398
É	-10.1402
▁höz	-10.1402
▁alsó	-10.1403
▁kritikus	-10.1404
▁jai	-10.1405
▁Vagy	-10.1406
▁részéről	-10.1407
▁folyik	-10.141
▁ei	-10.1411
▁hozni	-10.142
▁9-	-10.1422
2-	-10.1433
▁nyit	-10.1436
▁kénytelen	-10.1438
▁hektár	-10.1438
▁közbeszerzés	-10.1438
▁meglehetős	-10.1438
▁Év	-10.144
▁vizsgálatot	-10.144
yer	-10.1441
▁árfolyama	-10.1449
▁szektor	-10.1451
otta	-10.1453
▁2012-	-10.1456
ély	-10.1457
ással	-10.1459
ow	-10.1459
▁ása	-10.1462
▁erdő	-10.1472
▁részvények	-10.1472
▁ök	-10.1473
▁meghatározó	-10.1475
▁Men	-10.1483
▁tartás	-10.1486
kov	-10.149
▁53	-10.149
▁Paul	-10.149
▁54	-10.1491
▁találta	-10.1491
üket	-10.1492
▁Hírek	-10.1492
▁azután	-10.1494
itás	-10.1496
▁Gar	-10.15
▁akarnak	-10.1504
▁szexuális	-10.1508
ajtótájékoztatón	-10.1509
▁egyszerre	-10.1511
▁mentő	-10.1512
▁hasznos	-10.1519
▁asztal	-10.1522
▁élelmiszer	-10.1525
▁támogatja	-10.1526
▁indítvány	-10.1527
▁szülők	-10.1531
▁kérdést	-10.1535
▁gomb	-10.1541
ink	-10.1546
▁ci	-10.1562
▁személyiség	-10.1565
▁fős	-10.1568
▁1-1	-10.1574
▁export	-10.1574
▁kereslet	-10.1575
▁rendezet	-10.1578
▁okozhat	-10.1582
▁15.	-10.1585
▁végleges	-10.1586
▁hajt	-10.1587
▁mindenképp	-10.1588
olta	-10.1589
▁57	-10.1591
▁várják	-10.1595
▁sége	-10.16
for	-10.1601
▁19.	-10.1601
▁öreg	-10.1602
ekben	-10.1607
▁üveg	-10.1608
▁önálló	-10.1611
▁figyelem	-10.1611
▁Németh	-10.1612
mann	-10.1613
▁Ab	-10.1619
▁16.	-10.162
▁kéz	-10.1622
tatás	-10.1628
▁Y	-10.1631
▁orvosok	-10.1633
▁szegény	-10.1637
▁döntést	-10.1637
▁vas	-10.164
▁nevezet	-10.1645
edett	-10.1645
▁vív	-10.1645
Á	-10.1646
▁szülő	-10.1647
▁tartalék	-10.1648
▁oktatási	-10.1658
zett	-10.166
▁Pe	-10.166
▁mal	-10.1666
▁mért	-10.1667
▁2005-	-10.1671
▁listá	-10.1673
▁vesztette	-10.1675
▁Hagyó	-10.1677
▁világháború	-10.1678
▁klasszikus	-10.1678
▁társai	-10.1679
▁valah	-10.168
▁alkalmaz	-10.168
sch	-10.1682
▁Nap	-10.1683
▁szék	-10.1683
▁net	-10.1684
▁beszélgetés	-10.1692
▁gyanú	-10.1695
nyire	-10.1703
▁megkérdezett	-10.1714
zni	-10.1714
▁Kapus	-10.1715
ván	-10.1715
▁különadó	-10.1715
▁tisztelet	-10.1721
▁száll	-10.1722
▁tervezet	-10.1724
▁állatok	-10.1735
▁sztár	-10.174
▁tapasztalat	-10.1744
odor	-10.1749
ép	-10.1753
pe	-10.1754
▁eredményei	-10.1756
▁Ros	-10.1762
▁hegy	-10.1768
und	-10.177
get	-10.1777
▁Simon	-10.178
▁mondat	-10.1781
▁Bajnok	-10.1782
▁Blikk	-10.1782
▁kislány	-10.1784
▁1,5	-10.1787
▁pl	-10.1791
▁ségét	-10.1805
▁példány	-10.1808
▁ellene	-10.1808
▁Négy	-10.1817
▁Ádám	-10.1817
▁elhunyt	-10.1818
▁igazgatóság	-10.1821
nel	-10.1822
▁adták	-10.1823
▁meccset	-10.1824
▁Pol	-10.1825
▁esik	-10.1842
▁váltás	-10.1842
olnár	-10.1844
▁Mindez	-10.1848
▁részvétel	-10.1851
▁alól	-10.1855
▁szembe	-10.1863
▁liter	-10.1866
▁bármi	-10.1867
hogyan	-10.1868
▁emelés	-10.1869
▁réteg	-10.1869
▁Ku	-10.1869
▁kisebbség	-10.187
▁javaslatot	-10.1875
szívesen	-10.1878
au	-10.1885
óz	-10.1887
▁hozza	-10.1889
▁faj	-10.189
▁Kor	-10.1893
▁erősebb	-10.1894
▁Per	-10.1894
▁titkos	-10.1907
▁egyenes	-10.1908
▁időre	-10.1913
▁változások	-10.1917
▁hvg	-10.1923
▁9.	-10.1926
▁tele	-10.1941
▁népszerű	-10.1945
▁érkez	-10.1951
rab	-10.1951
▁honlap	-10.1952
▁megelőző	-10.1959
▁munkanélküliség	-10.1965
▁megerősítette	-10.1965
▁szerez	-10.1967
▁Nincs	-10.1968
▁Th	-10.1974
▁12.	-10.1982
▁bel	-10.1984
▁történtek	-10.1985
-1-	-10.1988
▁közleménye	-10.1991
▁elektronikus	-10.1995
▁sportág	-10.1997
]-	-10.2007
▁katonák	-10.2014
▁adhat	-10.2018
▁Ju	-10.2019
▁veszély	-10.202
▁ján	-10.2023
▁tehetség	-10.2027
▁címvédő	-10.2032
▁gumi	-10.2043
▁Természetes	-10.2047
▁sose	-10.2047
▁Ver	-10.2057
▁for	-10.2058
▁novemberben	-10.2064
eb	-10.2064
▁ügyész	-10.2064
▁bázis	-10.2066
▁befektető	-10.2067
▁drog	-10.2068
sze	-10.2068
▁részvény	-10.2071
▁mondjuk	-10.2072
▁vezérigazgató	-10.2072
▁tartozás	-10.208
kod	-10.2097
▁ló	-10.2099
▁0-0	-10.2102
▁minket	-10.2102
▁speciális	-10.2103
▁elmond	-10.2105
min	-10.2106
▁gal	-10.211
▁felület	-10.211
▁reagál	-10.2113
▁vad	-10.2114
▁Ta	-10.2114
▁hajtott	-10.2122
▁külügyminiszter	-10.2122
rt	-10.2124
▁táj	-10.2138
▁igyeksz	-10.2138
▁konzervatív	-10.214
▁Wi	-10.2141
▁nevet	-10.2143
ényi	-10.2145
▁felirat	-10.2145
lévő	-10.2146
▁megsérült	-10.2149
ham	-10.2152
▁októberben	-10.216
▁szerű	-10.2164
▁Arsenal	-10.2175
▁produkció	-10.2175
▁házasság	-10.2176
▁török	-10.2177
▁halt	-10.2179
ányi	-10.218
kép	-10.2184
▁értéke	-10.2186
ku	-10.2191
▁szerepe	-10.2193
▁várt	-10.2196
▁liberális	-10.22
▁szoftver	-10.221
▁11.	-10.2211
▁lemez	-10.2212
▁összefüggés	-10.2214
kol	-10.2217
▁Washington	-10.2217
▁(5	-10.2219
▁szolgáltatások	-10.222
▁17.	-10.2228
anyag	-10.2229
▁Facebook	-10.2229
zék	-10.223
▁csere	-10.2233
▁vitá	-10.2235
▁16-	-10.2241
▁Chelsea	-10.2248
▁nyilvántartás	-10.225
▁felújítás	-10.2252
▁igénybe	-10.2254
▁mezőny	-10.2257
▁szakértői	-10.2257
ítás	-10.2257
▁kockázat	-10.2264
▁kert	-10.2265
▁alakít	-10.227
▁Milan	-10.2276
▁bu	-10.2279
▁nyári	-10.2281
▁éért	-10.2282
▁vállalatok	-10.2284
▁hazánk	-10.2285
▁Martin	-10.2285
▁gyűjtemény	-10.2285
▁met	-10.2285
▁Olyan	-10.2285
▁gondolom	-10.2292
▁évtized	-10.2296
▁kék	-10.2299
▁ná	-10.2306
▁vitte	-10.231
▁IMF	-10.2313
▁kapcsolatok	-10.2321
▁átmeneti	-10.2322
▁Hétfő	-10.2322
▁győzött	-10.2323
▁vehet	-10.2323
▁észre	-10.2325
▁szakszervezet	-10.2325
▁tavasz	-10.2333
állítás	-10.2333
▁fórum	-10.2341
▁li	-10.2347
▁helyek	-10.2355
▁elegendő	-10.2359
▁adnak	-10.2361
▁kerülnek	-10.2362
▁társa	-10.2364
▁Sze	-10.2368
▁lényeges	-10.2369
▁témá	-10.237
▁húz	-10.2372
▁kapcsolódó	-10.2373
▁Pal	-10.2374
▁Amerika	-10.2374
sszel	-10.2376
▁lapnak	-10.2376
▁korlátozás	-10.2376
ülés	-10.2388
víz	-10.2391
▁ait	-10.2393
▁készültség	-10.2394
▁technológia	-10.2396
▁emleget	-10.2396
zat	-10.2401
▁Ferrari	-10.2401
nő	-10.2405
▁kérdez	-10.2406
▁reggeli	-10.2418
▁58	-10.2421
▁fér	-10.2422
▁ingyenes	-10.2427
▁10-	-10.2429
▁globális	-10.2433
▁kereső	-10.2434
▁feltételek	-10.2436
▁eredményt	-10.2444
▁hő	-10.2445
▁használ	-10.2449
▁250	-10.2454
▁85	-10.2455
▁gyenge	-10.2455
▁újságírók	-10.2459
▁felhasználó	-10.2465
▁országot	-10.2467
▁Gergely	-10.2471
▁helyes	-10.248
▁izgalmas	-10.2484
▁lehetnek	-10.2488
▁51	-10.249
▁ri	-10.25
▁forma	-10.2502
▁bolt	-10.2503
▁rájuk	-10.2504
▁ügyvezető	-10.2506
orosz	-10.2506
▁divat	-10.251
▁üres	-10.251
▁bi	-10.2512
▁alkotás	-10.2514
▁fordított	-10.2516
▁magának	-10.2517
▁600	-10.2519
▁erők	-10.252
▁szokásos	-10.2521
▁fordít	-10.2521
ovic	-10.2522
fajta	-10.2522
▁menetrend	-10.2526
▁közlése	-10.2532
▁hatnak	-10.2534
▁olcsóbb	-10.2534
▁reagált	-10.2534
▁lényeg	-10.2537
▁Bokros	-10.2546
▁metró	-10.2546
▁Bull	-10.2547
▁szereplés	-10.2547
▁támad	-10.2547
▁közigazgatás	-10.2549
▁Németországban	-10.255
▁Múzeum	-10.2553
▁közölték	-10.2554
ob	-10.2555
▁mutatta	-10.2556
of	-10.2557
▁bűncselekmények	-10.2558
alma	-10.2558
ór	-10.2559
▁Szint	-10.256
pol	-10.2562
▁hall	-10.2566
▁kapcsolatot	-10.2567
▁egységes	-10.2573
▁hamis	-10.2576
▁to	-10.2579
pénzügyminiszter	-10.2582
▁foci	-10.2582
▁sportoló	-10.2583
▁18-	-10.2583
▁tek	-10.2583
▁Lázár	-10.2584
▁13.	-10.2584
ozott	-10.2587
jegy	-10.2589
▁ka	-10.2593
▁(4	-10.2594
▁einek	-10.2596
▁vírus	-10.2601
▁szülei	-10.2602
▁pap	-10.2604
▁nal	-10.2605
▁foglalkozik	-10.2613
▁élni	-10.2615
▁20.	-10.2621
▁Irán	-10.2622
▁BMW	-10.2622
▁összecsapás	-10.2624
ry	-10.2633
bal	-10.2633
▁Ol	-10.2638
jelölt	-10.264
▁származás	-10.2642
▁gyanúja	-10.2643
▁Park	-10.2644
▁éles	-10.2647
▁illegális	-10.266
▁brut	-10.2661
▁nyugdíjrendszer	-10.2662
▁szállították	-10.2663
ezte	-10.2666
▁gyorsabb	-10.2671
her	-10.2678
▁tor	-10.2679
▁megfelel	-10.2681
vény	-10.2688
▁fölé	-10.2694
▁várnak	-10.2695
▁edzés	-10.2696
zen	-10.2697
▁tárgyal	-10.2698
▁félre	-10.2699
▁küldött	-10.2702
▁vi	-10.2703
▁áru	-10.2706
▁forgalma	-10.2707
adás	-10.2717
▁önkormányzatok	-10.2718
▁Ni	-10.272
▁visz	-10.2722
▁választotta	-10.2725
,5	-10.2725
▁ezre	-10.2725
▁februárban	-10.2727
▁Col	-10.2738
▁véd	-10.2739
mennyibe	-10.2739
▁bérlet	-10.274
▁rosszabb	-10.2746
vette	-10.2748
▁könyve	-10.275
kin	-10.2751
ügy	-10.2753
▁ismer	-10.276
▁kiadó	-10.2763
junk	-10.2764
▁igazság	-10.2768
▁ű	-10.2768
har	-10.2769
▁ását	-10.277
▁Közép	-10.2776
pedi	-10.2781
▁mezőgazdaság	-10.2781
▁onnan	-10.2785
▁emel	-10.2787
af	-10.279
▁ismeret	-10.2791
▁címet	-10.2793
▁fizetett	-10.28
▁alelnöke	-10.2803
▁Du	-10.2805
▁alak	-10.2806
▁bármely	-10.2814
▁Vasas	-10.2815
▁kereskedés	-10.2816
▁14.	-10.2817
▁álm	-10.2821
▁tiszta	-10.2826
milliárd	-10.2828
▁beszélni	-10.2832
▁64	-10.2834
▁olvas	-10.284
▁tanú	-10.2841
▁irányítás	-10.2844
art	-10.2845
▁vásárol	-10.2847
▁öl	-10.2847
▁Somogy	-10.2853
▁munkáltató	-10.2853
▁feltehető	-10.2853
▁fiatalember	-10.2855
▁Balog	-10.2855
▁repülő	-10.2856
▁torna	-10.2856
ására	-10.2862
▁árak	-10.2862
▁mindenkinek	-10.2863
nyel	-10.2864
▁szent	-10.2865
▁hamar	-10.2866
▁25-	-10.2867
▁tak	-10.2871
▁dolgoznak	-10.2871
▁környék	-10.2878
▁kevese	-10.2881
▁események	-10.2883
▁Öt	-10.2888
▁Za	-10.289
▁területi	-10.2891
▁törvényjavaslat	-10.2892
▁jöhet	-10.2892
▁végső	-10.2893
▁Borsod	-10.2893
0-	-10.2895
vár	-10.2895
▁la	-10.2895
▁demokratikus	-10.2902
▁lehetetlen	-10.2903
▁portugál	-10.2904
▁játszó	-10.2905
▁szervező	-10.2908
▁szellemi	-10.2909
áb	-10.2911
▁Honvéd	-10.2912
▁fogva	-10.2916
▁hatják	-10.292
▁98	-10.2922
▁támogató	-10.2925
▁generáció	-10.2926
▁Val	-10.2928
▁Gordon	-10.2931
▁funkció	-10.2931
▁&	-10.2934
▁akadály	-10.2935
▁játszani	-10.2936
▁napot	-10.2937
▁nyug	-10.2939
▁többiek	-10.2946
▁programot	-10.2948
▁számítás	-10.2953
ember	-10.2953
▁lakó	-10.2955
▁érzi	-10.2956
által	-10.297
▁radikális	-10.2971
▁Katalin	-10.2971
▁háztartás	-10.2972
▁katolikus	-10.2973
▁unkat	-10.2975
▁Volt	-10.2979
▁közzétett	-10.2982
".	-10.2982
▁kibocsátás	-10.2986
▁óriás	-10.299
gé	-10.2991
▁állni	-10.2993
▁színes	-10.2996
▁problémát	-10.2996
▁adják	-10.2998
▁versenyt	-10.2998
▁tilt	-10.3008
▁nyilvánvaló	-10.3011
▁kabinet	-10.3013
▁alkotó	-10.3014
▁fénykép	-10.3018
▁hagyomány	-10.3019
▁robbanás	-10.3021
mor	-10.3029
biztosítás	-10.3029
▁fejlőd	-10.3034
▁mód	-10.3038
▁nézni	-10.3041
▁csinálni	-10.3041
vezetés	-10.3041
▁2002-	-10.3045
▁finanszíroz	-10.3047
▁helyzetbe	-10.3048
▁Pl	-10.3049
▁elektromos	-10.3051
▁sejt	-10.3052
▁negyedévben	-10.3052
▁59	-10.3054
▁Audi	-10.3056
▁naponta	-10.3061
▁Cser	-10.3074
▁rak	-10.3076
▁amik	-10.3076
▁rendezés	-10.3078
▁választott	-10.308
▁rajt	-10.308
▁forinton	-10.3082
▁fut	-10.3088
▁Parlament	-10.309
▁Ágnes	-10.309
▁mínusz	-10.309
▁Peter	-10.309
▁követi	-10.3094
▁legjobban	-10.3096
▁tervez	-10.3099
▁hírügynökség	-10.3103
▁működtet	-10.3103
▁tartalm	-10.3105
▁21.	-10.3106
▁többlet	-10.3111
▁feljelentést	-10.3114
ski	-10.3116
▁Sza	-10.3121
▁szerette	-10.3121
▁mo	-10.3128
▁James	-10.313
▁futó	-10.3132
▁ült	-10.3134
▁kárt	-10.3139
▁emlékez	-10.314
tlen	-10.3141
▁Anna	-10.3145
▁részlet	-10.3151
▁legutóbb	-10.3155
▁mag	-10.3164
▁méret	-10.3167
▁alapítvány	-10.3168
▁fesztivál	-10.317
▁elsődleges	-10.317
▁kamion	-10.317
▁helyezett	-10.3173
▁We	-10.3178
▁környezetvédel	-10.318
▁védekezés	-10.3188
vonal	-10.319
▁szellem	-10.3193
▁éri	-10.3193
nék	-10.32
▁oz	-10.3204
▁javít	-10.3204
szal	-10.3207
▁órás	-10.3208
▁idéz	-10.3212
we	-10.3222
▁problémá	-10.3223
▁létrehoz	-10.3225
▁csont	-10.3227
▁programja	-10.3233
▁tudomás	-10.3234
nder	-10.3237
▁okozó	-10.3238
▁ozás	-10.3238
▁válaszol	-10.324
▁lapok	-10.3244
▁remény	-10.325
▁jutottak	-10.325
▁téma	-10.3251
▁elkezd	-10.3251
gat	-10.3265
▁gyűjtött	-10.3266
▁csapatot	-10.327
más	-10.3271
▁Angeles	-10.3272
▁kereset	-10.3277
▁jegyezte	-10.3278
▁vegyes	-10.3279
▁emelte	-10.3283
▁fül	-10.3287
Független	-10.3291
▁pénztár	-10.3292
▁jelzés	-10.3292
▁árvíz	-10.3293
ves	-10.3295
▁ainak	-10.3296
bajnokság	-10.3298
▁jából	-10.3298
▁számító	-10.3302
▁2008.	-10.3305
▁800	-10.3307
▁nyugodt	-10.3308
▁Éva	-10.3309
▁68	-10.3312
▁orr	-10.3324
▁lét	-10.3328
▁értesült	-10.3329
▁ítélte	-10.3331
▁okok	-10.3332
▁sör	-10.3334
▁másod	-10.3334
▁Isten	-10.334
▁gyermekek	-10.3342
▁nyak	-10.3346
zta	-10.3348
▁tej	-10.3359
▁á	-10.336
▁irodá	-10.3361
▁felében	-10.3363
▁szereplők	-10.3364
andó	-10.3366
ex	-10.3366
▁cigány	-10.3371
▁kihasznál	-10.3374
▁helye	-10.3379
▁találni	-10.3379
▁elve	-10.338
▁felkészülés	-10.3384
▁autós	-10.3388
▁fokozatos	-10.3389
▁kez	-10.3398
▁31-	-10.34
▁hasonlít	-10.3402
▁dokumentumok	-10.3411
▁énekes	-10.3414
▁hozzátéve	-10.3414
▁műtét	-10.3415
▁frakcióvezető	-10.3415
▁képtelen	-10.3416
▁Kedd	-10.3417
▁stb	-10.3418
cia	-10.3425
▁ellenfele	-10.3426
lak	-10.3428
▁fék	-10.3428
méteres	-10.343
▁foglalkoztat	-10.3433
▁kedvenc	-10.3436
▁szállító	-10.3436
▁the	-10.3438
▁Ger	-10.3443
▁csoda	-10.3444
▁Ca	-10.3445
▁Hír	-10.3446
▁Ér	-10.345
▁méltó	-10.3451
mail	-10.3456
▁parkoló	-10.346
évé	-10.3463
▁!"	-10.3465
▁okból	-10.3466
▁vizsgálja	-10.3469
▁vallomás	-10.347
▁kötelezettség	-10.3471
▁Mit	-10.3471
▁terem	-10.3472
bu	-10.3475
▁előny	-10.3476
▁ismerős	-10.3487
ich	-10.3496
▁Klub	-10.3497
▁gépkocsi	-10.3498
▁szezonban	-10.3499
▁változtatás	-10.3508
aná	-10.352
▁személyek	-10.3524
▁helyét	-10.3525
▁gat	-10.3528
▁áz	-10.3528
X	-10.3529
▁Kon	-10.353
▁interjú	-10.353
▁levél	-10.353
már	-10.3533
▁lehető	-10.3536
old	-10.3537
▁hatodik	-10.354
▁gépek	-10.354
nov	-10.3541
▁Szombathely	-10.3543
▁Napi	-10.3549
▁gyengült	-10.355
▁épít	-10.3552
▁literes	-10.3553
▁utalt	-10.3561
▁bírság	-10.3565
▁sága	-10.3566
ották	-10.3568
▁munkáját	-10.3569
▁választók	-10.3571
▁érdekei	-10.3573
▁helyén	-10.3574
adni	-10.3579
▁segíteni	-10.3582
▁23-	-10.3584
▁kerülő	-10.3592
▁MNB	-10.3593
▁vadász	-10.3594
▁Ár	-10.3603
▁12-	-10.3604
▁napos	-10.3605
▁visszaélés	-10.3611
▁Ker	-10.3612
▁megszüntet	-10.3613
▁örül	-10.3617
▁teremt	-10.362
▁légitársaság	-10.3623
▁1,2	-10.3624
▁old	-10.3629
▁hónapos	-10.3632
▁növekedést	-10.3632
▁címmel	-10.3637
gar	-10.3638
▁indiai	-10.364
▁találat	-10.3642
tu	-10.3645
▁Buda	-10.3646
▁információi	-10.3647
▁énél	-10.3648
hatóság	-10.3648
▁ására	-10.3653
tartás	-10.3654
ították	-10.3656
▁NB	-10.3657
▁idejé	-10.3659
▁várni	-10.3661
▁furcsa	-10.3665
▁vörösiszap	-10.3665
▁Árpád	-10.3665
▁számukra	-10.3666
▁elképzelhető	-10.3667
▁ismertet	-10.3669
▁egyedi	-10.3674
▁Talá	-10.3675
sok	-10.3676
▁iskolá	-10.3677
den	-10.3678
▁államok	-10.368
▁önmagá	-10.3687
▁törvények	-10.3687
▁lányok	-10.3687
▁atom	-10.3691
▁lehetősége	-10.3691
zák	-10.3694
▁kedv	-10.3694
▁jelentett	-10.3696
▁nehezebb	-10.3699
▁látogatás	-10.3702
▁képesség	-10.3703
▁cipő	-10.3707
▁négyzetméter	-10.3707
▁1,4	-10.3708
▁diákok	-10.371
▁rendszerváltás	-10.371
▁szór	-10.3714
ju	-10.3715
▁2000	-10.3719
▁ajtó	-10.3731
▁akad	-10.3733
▁lépések	-10.374
▁cserél	-10.3744
▁hatékony	-10.3745
▁man	-10.3746
▁megbízott	-10.375
▁techniká	-10.375
▁amelyik	-10.3752
▁megpróbál	-10.3755
▁zenekar	-10.3758
▁sértett	-10.3761
▁kellő	-10.3761
▁dollárra	-10.3768
sson	-10.3771
▁tapasztalt	-10.3772
▁anti	-10.3773
▁2,5	-10.3777
▁utcá	-10.3781
miért	-10.3782
▁hatja	-10.3785
▁elv	-10.3789
▁figyelmeztet	-10.3791
▁nagyság	-10.3792
▁Har	-10.3794
ain	-10.3798
▁valós	-10.3799
gő	-10.3804
tétel	-10.3806
▁készülő	-10.3807
▁költő	-10.3807
▁kezdő	-10.3811
étől	-10.3811
zük	-10.3814
▁vezérigazgatója	-10.3815
▁élnek	-10.3817
KDNP	-10.3821
▁megoldást	-10.3821
▁résztvevő	-10.3833
▁konfliktus	-10.3834
▁esélyes	-10.3835
▁aktuális	-10.3835
▁pécsi	-10.3835
▁Bur	-10.3836
▁rablás	-10.3836
író	-10.3837
▁eredményes	-10.3839
szó	-10.3846
▁folytatódik	-10.3846
▁vonul	-10.3851
▁megszűn	-10.3857
▁sark	-10.3859
ától	-10.3861
▁hatása	-10.3865
▁tekintet	-10.3868
▁gazdálkodás	-10.3869
▁üzenet	-10.387
▁Mon	-10.3872
▁áldozatok	-10.3874
▁csoportok	-10.3875
▁Eddig	-10.3879
▁tojás	-10.3879
▁fizikai	-10.388
▁követte	-10.3888
bér	-10.3889
7-	-10.389
nettó	-10.389
▁kormányzás	-10.3891
▁(6	-10.3899
éd	-10.3911
▁nyerni	-10.3915
▁kifejezés	-10.3916
▁eleve	-10.3921
▁December	-10.3922
▁fokozat	-10.3927
▁csalás	-10.3927
tör	-10.3934
elnök	-10.3941
▁váltott	-10.3942
▁Idé	-10.3942
▁szervezett	-10.3942
kar	-10.3946
▁használni	-10.3946
▁Par	-10.3954
▁tudtam	-10.3956
▁járulék	-10.3957
▁csökkentés	-10.396
▁2004-	-10.3963
▁só	-10.3963
▁isten	-10.3965
▁karakter	-10.3965
▁szülés	-10.3969
▁számítanak	-10.397
ügyészség	-10.3971
▁dolgoz	-10.3974
▁távolság	-10.3976
▁sá	-10.398
▁mutatják	-10.3981
▁17-	-10.3985
tájékoztatóján	-10.3989
ölt	-10.3989
▁járnak	-10.3995
▁Sopron	-10.3996
▁2011.	-10.3997
ítja	-10.3997
▁120	-10.3997
▁ital	-10.3999
▁ütem	-10.3999
▁ünket	-10.4003
▁WA	-10.4008
▁%-	-10.401
▁Ferencváros	-10.401
jel	-10.4011
▁lopás	-10.4011
▁áron	-10.4021
▁hozták	-10.4026
tétlenül	-10.4028
▁Tom	-10.4029
▁szervezők	-10.403
▁embernek	-10.4032
▁irányul	-10.4035
▁települések	-10.4036
▁kiemelte	-10.4037
▁zárta	-10.404
▁érinti	-10.4047
▁számát	-10.405
▁rendszerben	-10.4051
▁Renault	-10.4053
▁Velvet	-10.4053
▁változatlan	-10.4055
▁könyvet	-10.4055
▁forintért	-10.406
▁létezik	-10.4065
▁véleményét	-10.4069
▁hord	-10.4072
▁költségek	-10.4072
zer	-10.4077
▁vezetést	-10.4079
▁vizsgáló	-10.4083
▁ügyet	-10.4094
▁WikiLeaks	-10.4097
▁RTL	-10.4097
▁Sajno	-10.4097
▁felsőoktatás	-10.4097
▁szegedi	-10.4097
▁énekesnő	-10.4097
▁da	-10.4098
▁zseb	-10.41
ács	-10.4102
hy	-10.4102
ezett	-10.4102
▁APEH	-10.4103
▁elemző	-10.4107
▁részletek	-10.4109
adta	-10.4109
▁helyezés	-10.4116
▁koncentrál	-10.412
zal	-10.4123
▁munkavállaló	-10.4124
▁nyilvánosság	-10.4124
▁kerület	-10.4127
▁csatorná	-10.4131
▁idősebb	-10.4131
▁ítás	-10.4138
▁káros	-10.4138
négy	-10.414
▁kutya	-10.4141
▁legfris	-10.4141
▁csatorna	-10.4141
▁front	-10.4141
▁olcsó	-10.4143
▁elsejé	-10.4145
▁3,5	-10.4148
▁Bayern	-10.4149
▁szervezés	-10.4149
▁mentők	-10.4162
▁fém	-10.4164
▁ütközött	-10.4169
▁évtizedek	-10.4169
▁hatvan	-10.418
▁Való	-10.4181
▁ellenfél	-10.4186
olyan	-10.4186
▁helyettes	-10.4189
▁megvan	-10.419
▁hiszem	-10.419
ock	-10.4202
▁emelt	-10.4204
▁bármily	-10.4205
▁ügyfelek	-10.4206
▁kínálat	-10.4209
▁feladata	-10.4209
▁pu	-10.4209
▁Miskolc	-10.4212
▁mos	-10.4212
▁dísz	-10.4215
▁közzé	-10.4219
▁jogok	-10.4225
▁szovjet	-10.423
▁összetett	-10.4232
▁elmarad	-10.4233
▁Kecskemét	-10.4233
kö	-10.4236
▁használják	-10.4238
▁állítják	-10.424
▁22-	-10.4241
▁életben	-10.4242
▁stadion	-10.4244
▁járművek	-10.4244
▁színvonal	-10.4244
▁össz	-10.4244
▁egyetemi	-10.4249
▁tudná	-10.4258
▁Mil	-10.4258
sék	-10.4259
▁kórházban	-10.4261
▁szemét	-10.4264
▁államadósság	-10.4265
▁becslése	-10.4267
▁utasok	-10.4268
▁élvez	-10.4273
ásának	-10.4273
▁próbálta	-10.4273
▁segítő	-10.4274
▁baloldali	-10.4274
▁ügyfél	-10.4275
▁indoklás	-10.4276
▁he	-10.4278
▁gondolkodás	-10.428
▁ral	-10.428
▁mandátum	-10.4281
▁felhív	-10.4281
▁közút	-10.4283
▁kihívás	-10.4283
▁hangsúly	-10.4284
▁szabályai	-10.4285
wa	-10.4287
▁vizet	-10.4294
▁kereskedelem	-10.4295
▁tört	-10.4297
▁tájékoztatás	-10.4304
átor	-10.4307
▁Hát	-10.4309
▁köré	-10.431
▁sorozatban	-10.4314
▁Király	-10.4315
▁igazságügy	-10.4318
ódás	-10.4319
▁hétvég	-10.4321
▁tavasszal	-10.4322
▁ajánlott	-10.4324
▁fedez	-10.4333
▁szeretet	-10.4334
▁London	-10.4335
▁hatály	-10.4342
nünk	-10.435
▁szeptemberben	-10.4351
▁66	-10.4353
▁Pap	-10.4354
▁tisztá	-10.4354
▁napra	-10.4357
▁szerelm	-10.4359
▁harcol	-10.4359
▁Andrea	-10.4363
▁növény	-10.4368
▁rendelt	-10.4369
▁klíma	-10.437
▁vetett	-10.4372
▁21-	-10.4373
▁ták	-10.4373
▁amerikaiak	-10.4376
nyugdíjpénztárak	-10.4378
▁délutáni	-10.4382
▁repülőgép	-10.4383
ká	-10.4384
▁játékosa	-10.4385
▁javítás	-10.4387
▁hulladék	-10.4389
ogat	-10.4394
hal	-10.4395
▁sérülések	-10.4395
csoport	-10.4399
▁interneten	-10.44
▁jelzi	-10.4404
▁részletes	-10.4412
▁feltételez	-10.4414
▁Alap	-10.4416
▁Mari	-10.4417
▁mindennap	-10.4418
▁tudatos	-10.442
▁doboz	-10.4422
▁nának	-10.4422
▁teher	-10.4426
ődött	-10.4426
▁Színház	-10.4426
▁zajl	-10.4427
▁bizonytalan	-10.4428
ési	-10.4429
▁fürdő	-10.443
▁700	-10.4434
▁bő	-10.4434
von	-10.444
▁érint	-10.4441
▁körbe	-10.4444
▁százezer	-10.4444
▁lánc	-10.4447
sorozat	-10.4448
olás	-10.4449
▁magunk	-10.4449
kai	-10.4452
▁hirdet	-10.4452
▁terror	-10.4455
▁beavatkozás	-10.4456
▁kiemelkedő	-10.4457
▁diplomácia	-10.4457
▁minimális	-10.4457
="	-10.4458
▁Arany	-10.4459
▁szavazó	-10.4461
▁váratlan	-10.4462
▁Dob	-10.4465
▁pontra	-10.4467
▁hónapja	-10.4477
▁öltöz	-10.4484
▁67	-10.4485
▁biztonságos	-10.4491
lőször	-10.4497
▁bajnokságban	-10.4501
▁Ekkor	-10.4503
▁mikro	-10.4504
jén	-10.4505
▁MTV	-10.4505
▁választásokon	-10.4507
▁problémái	-10.4514
▁Ge	-10.4515
▁megtakarítás	-10.4515
jött	-10.4515
▁márka	-10.4517
▁védekez	-10.452
gyelőre	-10.4521
▁súlyosan	-10.4523
▁má	-10.4524
▁Kö	-10.4527
▁utak	-10.453
▁értek	-10.4531
▁világon	-10.4532
▁Tud	-10.4534
▁lakos	-10.4537
ah	-10.4538
dó	-10.4539
▁udvar	-10.4548
▁sújtott	-10.4549
▁döntése	-10.455
▁változtat	-10.4558
▁rendben	-10.4561
▁teljesít	-10.4561
▁Am	-10.4563
▁maradhat	-10.4563
▁KDNP	-10.4564
▁ov	-10.4565
▁látják	-10.4565
▁munkás	-10.4567
▁fenntart	-10.4568
▁állítás	-10.4572
▁tényező	-10.4574
▁rögzített	-10.4574
KN	-10.4591
▁virág	-10.4591
▁állít	-10.4593
▁lelki	-10.4594
▁végeredmény	-10.4595
▁Igazgató	-10.4595
▁órán	-10.4596
▁üt	-10.4598
▁életbe	-10.4599
▁küzd	-10.4602
Nem	-10.4604
▁következik	-10.4605
▁érdekelt	-10.4607
▁komp	-10.4609
▁ellenőrz	-10.461
▁Város	-10.4611
▁195	-10.4613
állás	-10.4619
▁62	-10.4622
gazdasági	-10.4624
▁ugyanez	-10.4628
▁interjúban	-10.4628
▁mérkőzést	-10.4631
lam	-10.4633
▁önkéntes	-10.4639
▁érzékeny	-10.4641
▁demokrácia	-10.4641
▁Vettel	-10.4641
▁külföldön	-10.4642
▁Euro	-10.4642
▁termelő	-10.4646
▁Sőt	-10.4648
▁nék	-10.4651
▁adót	-10.4651
zza	-10.4651
▁szab	-10.4654
ékony	-10.4654
▁elkövető	-10.4655
határozott	-10.4656
dzs	-10.4658
▁igényel	-10.4658
▁munkavállalók	-10.4659
▁sikere	-10.4664
▁órát	-10.4669
▁ebbe	-10.4669
▁kultúra	-10.4669
▁Ft	-10.467
▁Ó	-10.4671
▁visel	-10.4678
▁Kelet	-10.4679
vas	-10.4685
▁8,	-10.4688
▁kábítószer	-10.4688
▁bizonyult	-10.4689
jenek	-10.4692
▁keletkezett	-10.4695
napos	-10.4697
dom	-10.4699
▁világban	-10.4699
▁Con	-10.47
népszerűbb	-10.47
▁19-	-10.47
▁rendes	-10.47
▁keze	-10.4701
▁helyezte	-10.4701
▁Fe	-10.4702
▁szel	-10.4704
▁szervek	-10.4704
▁szabadon	-10.4705
▁fotók	-10.4705
▁otthonában	-10.4708
▁séggel	-10.4718
▁terén	-10.4718
▁lehetőségét	-10.472
▁folytatta	-10.4727
▁magasság	-10.4729
▁hallgató	-10.4732
▁versenyen	-10.4733
▁utcán	-10.4734
▁forradalom	-10.4735
▁feszültség	-10.4736
▁Tur	-10.4739
▁kerek	-10.474
▁jelek	-10.4743
▁kormánynak	-10.4744
▁működését	-10.4744
▁számok	-10.475
▁beli	-10.4752
▁Ford	-10.4759
▁igazol	-10.4765
▁ko	-10.4769
▁képez	-10.4774
tus	-10.4774
▁font	-10.4774
▁oldala	-10.4777
▁Január	-10.4782
▁jelöltek	-10.4784
▁jához	-10.4784
▁Nyom	-10.4787
▁Szak	-10.4789
▁stabil	-10.4791
ston	-10.4794
▁po	-10.4795
Ha	-10.4797
▁bevezetésé	-10.48
▁gén	-10.4806
ály	-10.4807
▁alapul	-10.4808
▁lényegé	-10.481
▁ellenőriz	-10.4811
▁61	-10.4813
▁anyagok	-10.4819
▁képvisel	-10.4822
▁írták	-10.4825
▁római	-10.483
▁Hírügynökség	-10.483
▁házban	-10.4831
▁döntöttek	-10.4831
▁Újpest	-10.4836
▁196	-10.4837
▁véletlen	-10.4856
▁irányított	-10.4863
lét	-10.4865
▁Do	-10.4865
▁településen	-10.4867
▁feldolgoz	-10.487
▁célok	-10.487
▁egyeztetés	-10.4871
tenger	-10.4874
▁automat	-10.4876
▁Liga	-10.4878
▁jogerős	-10.4878
▁repülőtér	-10.488
▁magára	-10.4881
▁normális	-10.4881
▁választáson	-10.4885
edik	-10.4889
▁szerzője	-10.489
▁bizonyíték	-10.4891
▁háttér	-10.4894
▁alul	-10.4896
ssa	-10.4906
▁végi	-10.4909
izsi	-10.491
▁forgatás	-10.4912
▁hozam	-10.4915
▁háló	-10.4918
▁BUX	-10.4925
▁Utóbbi	-10.4925
▁deficit	-10.4925
▁médiá	-10.4925
helyi	-10.4925
▁kever	-10.4926
▁jegyezték	-10.4926
kas	-10.493
▁fegyveres	-10.4931
▁kultúrá	-10.4932
▁labdát	-10.4941
▁igazolás	-10.4951
▁tesznek	-10.4953
▁hazaiak	-10.4953
▁szeretnén	-10.4958
▁hölgy	-10.4958
▁tél	-10.4962
▁idézte	-10.4963
▁állítása	-10.4964
▁készülék	-10.4967
▁előfordul	-10.4967
▁illetően	-10.4968
▁88	-10.4968
▁26-	-10.4974
▁hős	-10.4976
▁tam	-10.4978
▁köbméter	-10.498
▁Ott	-10.4983
▁ket	-10.4983
▁magyarázat	-10.4987
▁merénylet	-10.4994
▁74	-10.4994
▁illeti	-10.4995
▁befejez	-10.4996
▁segített	-10.4997
▁használja	-10.4997
▁hiánya	-10.5006
▁vezeték	-10.5009
▁un	-10.5019
▁Pan	-10.5021
▁kártérítés	-10.5021
▁Péntek	-10.5021
ring	-10.5028
▁kedvezmény	-10.5032
kus	-10.5033
járó	-10.5037
▁24-	-10.5037
vin	-10.5039
▁felhasználók	-10.504
▁fejezte	-10.5049
▁indulás	-10.5057
▁egyike	-10.5058
▁Ők	-10.506
▁kategóriában	-10.506
mb	-10.5061
▁Lad	-10.5061
▁Sh	-10.5064
▁állítani	-10.5066
&	-10.5067
▁Hajdú	-10.507
▁Televízió	-10.507
▁Kultúr	-10.507
▁beruházások	-10.507
▁Farkas	-10.507
▁parti	-10.5072
▁törzs	-10.5074
▁mindegyik	-10.5075
▁kéri	-10.5076
▁nunk	-10.5077
▁Cor	-10.5087
▁kártyá	-10.5088
▁folytatja	-10.5094
ésőbb	-10.5097
▁szépség	-10.51
ológiai	-10.5114
▁jogosult	-10.5115
▁Fehér	-10.5117
hajtás	-10.5117
▁méretű	-10.5118
▁tőzsde	-10.5119
▁fejlett	-10.5119
▁szélsőséges	-10.5119
▁mekkor	-10.5119
▁végző	-10.5119
▁ságot	-10.5128
▁jelentkez	-10.5129
▁bőv	-10.5131
▁végez	-10.5134
▁?"	-10.5137
▁barátai	-10.5138
▁közelebb	-10.514
▁fejlesztő	-10.5141
▁eltűnt	-10.5142
politikai	-10.5144
▁lezár	-10.5145
té	-10.5146
▁Szó	-10.5147
▁lettek	-10.5151
szik	-10.5154
▁erősöd	-10.5154
bizottság	-10.5155
▁Ny	-10.5157
lap	-10.5161
▁Krisztián	-10.5168
▁kapacitás	-10.5168
▁tervező	-10.5168
▁vezetése	-10.5169
▁talaj	-10.517
▁élők	-10.5172
▁letartóztatás	-10.5178
▁deviza	-10.518
▁ink	-10.5181
▁költ	-10.5186
▁kiadások	-10.5195
▁lóerős	-10.5195
▁szerezni	-10.5197
▁szeretnének	-10.5197
▁jelenthet	-10.5198
▁tavaszi	-10.5201
▁ir	-10.5206
spanyol	-10.521
▁robbant	-10.5213
▁piacok	-10.5214
▁tempó	-10.5217
▁video	-10.5217
▁tized	-10.5217
▁mu	-10.5218
▁tartalom	-10.5218
▁trend	-10.5219
▁egység	-10.5222
kéne	-10.5228
▁4,	-10.5229
▁másodfok	-10.523
▁tanul	-10.5231
▁elmaradt	-10.5232
▁büntet	-10.5234
▁fontosabb	-10.5235
▁pe	-10.5243
▁Williams	-10.5249
▁jelenet	-10.525
ín	-10.525
▁minősített	-10.5251
▁ezelőtti	-10.5254
ay	-10.5263
▁Ed	-10.5264
rendű	-10.5265
▁Je	-10.5265
▁Vasárnap	-10.5266
▁egyensúly	-10.5266
▁sztori	-10.5267
▁tonna	-10.5267
való	-10.5268
csapat	-10.5269
▁fogyasztók	-10.5272
edés	-10.5272
▁meghalad	-10.5275
▁tervezés	-10.5275
▁esté	-10.5276
▁kommunist	-10.5276
▁okra	-10.5277
▁Bel	-10.5278
▁gát	-10.5281
kodó	-10.5281
▁lő	-10.5283
▁megegyez	-10.5285
ach	-10.529
▁gazdaságpolitik	-10.5298
▁inter	-10.5299
▁Cha	-10.53
▁anyagot	-10.5304
▁utasítás	-10.5304
▁Egyesület	-10.5305
▁gondolja	-10.5306
▁72	-10.5312
▁vezethet	-10.5315
▁Alapítvány	-10.5316
▁szurkolók	-10.5317
▁tó	-10.5318
▁céget	-10.5318
▁lelkes	-10.5319
▁pártelnök	-10.5321
▁professzor	-10.5325
▁63	-10.5327
▁emlékeztetett	-10.5328
▁bővítés	-10.5333
▁95	-10.534
▁levelet	-10.534
▁javul	-10.5341
▁kilométerre	-10.5344
▁vak	-10.5348
átus	-10.5356
▁Jól	-10.5366
▁mozog	-10.5366
▁szerény	-10.5367
▁hirdetés	-10.5368
▁1,6	-10.5368
▁magával	-10.5369
▁forintba	-10.5372
▁biztosítani	-10.5373
▁Vár	-10.5375
▁helyez	-10.5375
▁kezdődő	-10.5376
▁nyitva	-10.5376
▁éjszaká	-10.5378
▁listát	-10.5378
▁Kom	-10.5379
ását	-10.5381
▁1-2	-10.5382
▁szavazók	-10.5383
▁kifejtette	-10.5384
▁értékben	-10.5386
▁Pi	-10.5386
esség	-10.5388
▁férje	-10.5396
▁mellék	-10.5398
▁fáj	-10.5399
▁utcában	-10.5401
▁Roma	-10.5401
▁gyereket	-10.5406
▁gépjármű	-10.5408
▁szobá	-10.5412
▁korában	-10.5413
▁számot	-10.5413
▁Erdély	-10.5416
▁NATO	-10.5416
▁készpénz	-10.5417
▁Ákos	-10.5417
▁Köztársaság	-10.5417
▁történész	-10.5419
port	-10.5424
▁tüntet	-10.5424
▁elnevezés	-10.5426
▁beszerzés	-10.5427
▁térkép	-10.5431
▁vizsgálják	-10.5431
▁vétel	-10.5433
▁fenti	-10.5435
▁szóba	-10.5439
▁ked	-10.544
▁eredményeket	-10.5441
▁tesztel	-10.5443
▁ajánl	-10.5449
kál	-10.5454
▁vásárló	-10.546
meg	-10.5465
▁kutat	-10.5466
▁képernyő	-10.5467
3-	-10.5469
▁norvég	-10.5469
▁számon	-10.5472
▁lehessen	-10.5475
▁Dar	-10.5475
▁szorul	-10.5476
▁Sp	-10.5479
ánál	-10.5483
▁felhasználás	-10.549
▁térségben	-10.5491
▁várakozás	-10.5497
▁13-	-10.5506
ium	-10.5507
▁viselkedés	-10.5508
▁Pu	-10.551
▁fordulat	-10.5514
▁szokatlan	-10.5519
nagy	-10.552
▁sikerrel	-10.5523
▁simá	-10.5524
▁felügyelő	-10.5524
▁Kossuth	-10.5526
▁ítél	-10.5529
30	-10.5529
ozzák	-10.553
▁Ö	-10.553
▁28-	-10.5531
▁kérdésére	-10.5534
▁viszonyok	-10.5535
▁szenved	-10.554
▁látogató	-10.5543
tál	-10.5544
▁járól	-10.5545
▁nyomozást	-10.5545
▁region	-10.5551
▁berendezés	-10.5554
▁alapító	-10.5554
▁tényleges	-10.5555
▁rajz	-10.5558
▁ütköz	-10.5563
▁Szombat	-10.5564
▁küzdelem	-10.5569
▁kő	-10.5569
▁tetszik	-10.5576
▁elsőként	-10.5576
▁Hat	-10.5577
▁béke	-10.5577
▁ásával	-10.5582
▁érvényben	-10.5582
▁jelöltje	-10.5582
▁megismer	-10.5582
▁ázsiai	-10.5582
▁felfüggesztett	-10.5585
▁kormányzó	-10.5586
▁Magyarországra	-10.5586
▁mondják	-10.5588
▁bűntett	-10.5591
▁gyanús	-10.5592
▁nézők	-10.5596
▁sé	-10.5606
▁vállalt	-10.5607
▁átalakítás	-10.5608
▁vizsgá	-10.5609
höz	-10.5615
▁helyszínre	-10.5616
▁luxus	-10.562
▁dízel	-10.562
▁emelkedik	-10.562
▁multi	-10.562
▁innen	-10.5621
ight	-10.5628
▁jével	-10.5629
▁érkeztek	-10.5636
▁látogat	-10.564
19	-10.5641
▁vitték	-10.5642
alom	-10.5642
▁teljesítménye	-10.5648
▁rúg	-10.5648
▁hiteles	-10.5658
▁2,	-10.5661
▁állhat	-10.5662
inger	-10.5665
▁fogy	-10.5668
▁ág	-10.5669
▁családok	-10.567
▁jönnek	-10.5672
▁világszerte	-10.5674
▁kézilabda	-10.5675
kezelő	-10.5676
▁der	-10.5676
▁üzemeltető	-10.568
▁akadt	-10.5681
▁Fehérvár	-10.5682
rány	-10.5683
oc	-10.5687
▁részére	-10.5688
▁ittas	-10.5693
▁69	-10.5699
▁szabályoz	-10.5703
sor	-10.5705
▁73	-10.5706
▁szál	-10.5706
▁felszámolás	-10.5708
▁tekinthető	-10.5708
▁lapunk	-10.5711
▁show	-10.5713
▁piacra	-10.5715
▁demokrat	-10.5715
▁ügynök	-10.5718
dás	-10.5719
▁München	-10.5723
▁zsűri	-10.5723
▁digit	-10.5724
▁Kal	-10.5724
▁Épp	-10.5724
▁váz	-10.5724
▁közszolgálat	-10.5725
▁góllal	-10.5726
kutató	-10.5727
▁III	-10.5728
ítette	-10.5729
▁szokás	-10.573
▁bekerül	-10.5736
▁vélte	-10.5736
▁Összes	-10.5736
▁Hungar	-10.5741
▁maradtak	-10.5741
▁forgatókönyv	-10.5743
▁könyvek	-10.5745
▁komment	-10.5749
▁szépen	-10.5749
▁kudarc	-10.575
▁tizenegy	-10.5756
▁kod	-10.5764
▁ritka	-10.577
▁balesetet	-10.5771
▁(8	-10.5773
▁írni	-10.5774
▁sújt	-10.5775
▁Dániel	-10.5775
▁zászló	-10.5775
▁Oscar	-10.5776
▁folyóirat	-10.5776
▁reakció	-10.5777
hivatal	-10.5778
▁par	-10.5781
▁németek	-10.5782
▁ingyen	-10.5784
▁köszönhető	-10.5787
▁váltak	-10.5789
▁bocsát	-10.579
▁rák	-10.5795
▁nyitás	-10.5796
▁ciklus	-10.5797
▁tekintette	-10.5799
▁Teh	-10.5801
▁ól	-10.5802
▁Igen	-10.5804
ung	-10.5807
▁remél	-10.5809
kapitányság	-10.5812
por	-10.5813
▁Tu	-10.5821
▁listán	-10.5821
▁pa	-10.5822
▁kizárt	-10.5825
ama	-10.5826
▁börtönbüntetés	-10.5828
ros	-10.5828
▁pápa	-10.5828
▁Munka	-10.5828
▁tartalmazza	-10.5831
vidék	-10.5832
▁tizenöt	-10.5832
▁Qu	-10.5835
▁vásárolt	-10.5835
▁állampolgárság	-10.5836
▁Cl	-10.5841
▁helyére	-10.5841
▁illető	-10.5841
▁elképzelés	-10.5845
▁GB	-10.5847
▁felől	-10.5847
▁adós	-10.5848
▁hatalm	-10.5848
▁közelmúlt	-10.585
▁előtte	-10.585
▁Fél	-10.5851
▁keletkez	-10.5854
▁ká	-10.5855
▁buk	-10.5855
▁filmben	-10.5859
▁87	-10.586
▁filmje	-10.5861
▁színű	-10.5863
▁So	-10.5868
▁szót	-10.5869
▁Mag	-10.587
▁létez	-10.587
▁fejezet	-10.5877
ekintve	-10.5878
▁jövedelem	-10.588
▁Moszkva	-10.588
▁Apple	-10.588
▁ideiglenes	-10.5881
▁főigazgató	-10.5881
▁hiányzik	-10.5882
▁nyugdíjas	-10.5884
▁tagállam	-10.5885
▁megalapozott	-10.5886
▁műve	-10.5887
német	-10.5896
▁zajlik	-10.5898
20	-10.5899
▁elődöntő	-10.5902
tani	-10.5902
▁Csi	-10.5905
▁tulajdonosok	-10.5911
▁lánya	-10.5911
▁mérleg	-10.5911
▁próbálja	-10.592
▁kérés	-10.592
▁and	-10.5928
▁résztvevők	-10.5929
▁hon	-10.5931
ä	-10.5931
▁Malév	-10.5933
▁utoljára	-10.5933
▁tevékenysége	-10.5935
óczi	-10.5935
▁kontinens	-10.5943
elés	-10.5944
▁választották	-10.5944
▁193	-10.5946
▁tagság	-10.5946
▁buli	-10.5947
▁szeme	-10.5949
▁övezet	-10.5953
▁láttam	-10.5959
▁megold	-10.596
▁nézve	-10.5961
játék	-10.5963
▁finn	-10.5967
▁élén	-10.597
▁segíti	-10.5972
▁parlamentben	-10.5972
tatni	-10.5973
jev	-10.5973
▁használható	-10.5976
▁indokolta	-10.5976
▁kíváncsi	-10.5979
▁döntések	-10.5979
▁vállalta	-10.5984
sse	-10.5986
▁Hasonló	-10.5987
▁producer	-10.5987
▁munkálatok	-10.5987
▁hetet	-10.5988
tetés	-10.5991
▁sorban	-10.5997
▁argentin	-10.5998
▁véve	-10.6002
vétel	-10.6005
▁versenyez	-10.6006
jünk	-10.6007
▁szállít	-10.6007
our	-10.6008
);	-10.6019
▁csapás	-10.602
▁oly	-10.6028
▁vesznek	-10.6028
▁96	-10.6033
▁Szolnok	-10.6036
▁megmarad	-10.604
▁Románia	-10.6041
▁fajta	-10.6043
belga	-10.6043
▁Zala	-10.6045
▁értelem	-10.6045
▁tapasztalatai	-10.6046
▁0,3	-10.6047
▁csatá	-10.6047
▁vendége	-10.6048
6-	-10.6053
▁vonatok	-10.6054
▁várakozások	-10.6054
▁csoportos	-10.6055
▁ismerte	-10.6056
▁megszokott	-10.6059
▁mérnök	-10.606
▁eiket	-10.6061
▁stáb	-10.6061
▁99	-10.6063
▁sokak	-10.607
▁fennáll	-10.6079
▁fogyasztói	-10.6079
▁fizető	-10.6082
▁javulás	-10.6083
▁86	-10.6088
▁Alonso	-10.6094
▁Matolcs	-10.6094
▁kiterjed	-10.6094
▁Máté	-10.6094
▁Választás	-10.6094
▁bonyolult	-10.6094
▁monetáris	-10.6095
áns	-10.6096
▁magatartás	-10.6096
▁sorrend	-10.6097
fehér	-10.6102
vő	-10.6103
▁szakmá	-10.6105
ngem	-10.6108
▁hatott	-10.6108
▁elismerés	-10.6108
▁látták	-10.6109
gép	-10.6113
ris	-10.6114
fokú	-10.6114
▁játékot	-10.6117
▁munkák	-10.6119
▁Olaszország	-10.6122
ésére	-10.6125
▁láthat	-10.6126
▁átadás	-10.6127
▁mentén	-10.6131
▁kivált	-10.6138
▁halála	-10.6141
▁82	-10.6142
▁23.	-10.6142
▁módosított	-10.6143
▁herceg	-10.6147
▁évszázad	-10.6148
▁zsír	-10.6148
▁kontroll	-10.6148
▁irodalm	-10.6148
▁szakaszon	-10.6149
▁évad	-10.6149
▁Mária	-10.6151
ké	-10.6152
▁párhuzamos	-10.6152
▁szakaszán	-10.6154
▁autópálya	-10.6159
ord	-10.6159
ocs	-10.616
▁India	-10.6161
▁Mc	-10.6162
▁Egészség	-10.6164
▁indulhat	-10.6166
▁iskolák	-10.6169
▁22.	-10.6175
▁zás	-10.6177
sy	-10.6177
▁ülésen	-10.618
janak	-10.619
▁végeztek	-10.6191
▁megerősít	-10.6195
▁érhet	-10.6197
nunk	-10.6198
▁elért	-10.6199
▁hatta	-10.6199
▁álltak	-10.6201
▁száraz	-10.6202
Szatmár	-10.6202
▁műfaj	-10.6202
▁0,2	-10.6203
▁Liverpool	-10.6203
▁Sal	-10.6204
▁hetedik	-10.6204
▁csatlakoz	-10.6204
▁Air	-10.6205
▁épült	-10.6208
▁egyikük	-10.6208
▁dolgot	-10.6209
▁említette	-10.6215
▁ellenes	-10.622
▁aligha	-10.6224
folyamán	-10.6226
▁gyengébb	-10.6229
▁jelző	-10.6234
▁Ham	-10.6235
▁talp	-10.6239
hor	-10.6239
jal	-10.6239
▁levélben	-10.624
▁közepé	-10.6245
▁kísér	-10.6247
ellenes	-10.6248
▁szok	-10.6249
▁házak	-10.6249
▁idézi	-10.6251
▁Barac	-10.6254
▁1-0	-10.6255
▁Nyomoz	-10.6256
▁büdzsé	-10.6257
▁iráni	-10.6257
ew	-10.6258
▁eltelt	-10.6262
▁készítő	-10.6262
▁jelentene	-10.6262
▁jába	-10.6263
▁körök	-10.6263
▁megközelít	-10.6265
▁bán	-10.6271
város	-10.6273
▁mértéke	-10.6274
▁Élet	-10.6274
▁2004	-10.6275
fok	-10.6275
▁arányban	-10.6275
▁dolga	-10.6276
▁lep	-10.6277
▁menekült	-10.6278
▁lépése	-10.6281
▁SZ	-10.6284
▁motoros	-10.6286
▁900	-10.6289
▁kétszáz	-10.6294
▁érthető	-10.6298
▁kapja	-10.6298
▁informatika	-10.6304
▁Toyota	-10.6312
▁recept	-10.6312
▁dicsér	-10.6312
▁Gól	-10.6313
▁búj	-10.6313
▁tonná	-10.6314
▁Jog	-10.6314
▁enyh	-10.6315
▁megkap	-10.632
▁sággal	-10.632
du	-10.6325
▁feladatok	-10.6327
▁tölti	-10.6332
▁próbálkoz	-10.6335
▁Kínában	-10.6336
▁részletei	-10.6337
ssák	-10.6339
▁kezdtek	-10.634
bont	-10.6345
▁autósok	-10.6348
fu	-10.6352
▁helyzete	-10.6352
▁Össze	-10.6353
tató	-10.6353
▁fed	-10.6356
▁zni	-10.6357
▁tudósok	-10.6361
kész	-10.6361
▁legyenek	-10.6361
▁vélhető	-10.6367
▁székhely	-10.6368
▁autóbusz	-10.6369
▁nyomoz	-10.637
▁War	-10.6371
▁kellemes	-10.6371
▁mentés	-10.6372
▁fellépés	-10.6374
▁feleség	-10.6377
film	-10.6378
▁Érdekes	-10.6381
▁őszi	-10.6383
▁mehet	-10.6387
▁figyelmét	-10.6389
▁juthat	-10.6392
vállalás	-10.6396
▁ee	-10.6399
▁állított	-10.6399
▁fizetési	-10.64
cska	-10.6403
▁kiesés	-10.6404
▁jogszabályok	-10.6406
alizmus	-10.6407
▁számíthat	-10.6409
▁kém	-10.6417
▁legrosszabb	-10.6423
▁tartalma	-10.6423
▁kávé	-10.6423
▁tizenkét	-10.6423
▁szán	-10.6424
▁előbbi	-10.6424
▁akarták	-10.6425
▁személyzet	-10.6426
▁Székesfehérvár	-10.6427
▁balesetben	-10.6431
▁kezelő	-10.6434
▁Lát	-10.6438
▁jelentése	-10.6439
▁viszi	-10.6443
osabb	-10.6449
▁maradnak	-10.6455
▁nyertes	-10.6455
▁selejtező	-10.6456
▁koz	-10.6462
▁ch	-10.6465
▁oknak	-10.6466
▁szállás	-10.6467
díjas	-10.6477
▁fizette	-10.6477
▁hold	-10.6478
▁Sólyom	-10.6478
▁Fekete	-10.6479
▁Berlin	-10.648
▁pénzintézet	-10.648
▁formájában	-10.6481
▁említ	-10.6483
▁0,5	-10.6484
▁szurkoló	-10.6485
▁találkozott	-10.6486
▁kilátás	-10.6487
▁szolgáltatók	-10.6488
▁tettes	-10.6491
▁genetikai	-10.6495
▁im	-10.6496
▁Port	-10.6497
▁kevered	-10.6499
▁védelme	-10.6499
▁szálló	-10.65
▁indokolt	-10.6513
▁színpad	-10.6516
▁Mond	-10.652
sá	-10.6522
csics	-10.6525
▁ké	-10.6526
▁felszín	-10.6528
▁Szabad	-10.653
▁vastag	-10.653
▁mondhat	-10.653
cher	-10.6531
▁vizsgál	-10.6531
▁Tudomány	-10.6535
▁közgazdász	-10.6535
▁ezüst	-10.6536
▁korosztály	-10.6536
▁mentek	-10.6537
▁feltétel	-10.6539
▁elmélet	-10.6542
▁folyt	-10.6542
▁elenged	-10.6542
▁fűz	-10.6543
▁kényelmes	-10.6543
▁Dan	-10.6544
▁előnye	-10.6544
▁megállapodást	-10.6545
tá	-10.6547
szolgálat	-10.6547
sti	-10.6548
▁valósul	-10.6551
▁parancsnok	-10.6556
▁feljelentés	-10.6557
▁vágy	-10.6558
vételével	-10.656
▁információkat	-10.6567
▁mobiltelefon	-10.6567
▁nagyszerű	-10.6569
▁értelme	-10.6571
▁vitat	-10.6571
▁győz	-10.6575
pár	-10.6578
▁ritká	-10.658
▁ábrázol	-10.658
▁Nagydíj	-10.6582
▁ajánlószelvény	-10.6588
▁Rég	-10.6588
▁országokban	-10.6589
▁Richter	-10.6591
▁katasztrófá	-10.6591
▁koncentráció	-10.6591
▁Jövő	-10.6591
▁ugye	-10.6591
▁érzem	-10.6591
▁bevallás	-10.6591
▁újdonság	-10.6591
▁Írország	-10.6592
▁napirend	-10.6595
▁durv	-10.6595
▁2-3	-10.66
▁kézi	-10.6605
Ez	-10.6608
▁ellátó	-10.6611
▁Szi	-10.6613
▁lehetőségek	-10.6616
▁Fer	-10.6616
▁180	-10.6617
▁egyetért	-10.6622
zo	-10.6622
▁Rá	-10.6624
▁Va	-10.6625
▁bot	-10.663
ish	-10.6632
lapon	-10.6633
50	-10.6635
▁bölcs	-10.6641
zár	-10.6642
▁kattint	-10.6647
▁debreceni	-10.6648
▁humor	-10.6648
▁weboldal	-10.6648
▁2-1	-10.6648
▁gyönyörű	-10.665
▁elismerte	-10.665
dos	-10.6651
▁ifjúság	-10.6651
▁náci	-10.6653
művész	-10.6657
arlós	-10.6662
▁testvér	-10.6662
kapott	-10.6662
▁alapú	-10.6663
▁karrier	-10.6667
▁89	-10.6671
▁kivétel	-10.6679
▁folytatód	-10.6679
▁tudós	-10.6682
▁állást	-10.6683
▁rang	-10.6684
▁csatlakozás	-10.6688
▁kerékpár	-10.6688
▁részleteket	-10.669
illa	-10.6694
▁vonzó	-10.6695
▁egyeztet	-10.6696
esett	-10.6698
▁Török	-10.6703
▁elfogadta	-10.6704
▁számolni	-10.6705
▁Fülöp	-10.6705
▁személygépkocsi	-10.6705
▁All	-10.6705
▁büntetőeljárás	-10.6705
▁hitelek	-10.6706
▁előfordulhat	-10.6708
▁tudtuk	-10.671
▁bizonytalanság	-10.6711
▁tudat	-10.6712
▁Rádió	-10.6714
▁sárga	-10.6718
▁hető	-10.672
▁ülő	-10.6723
▁ítélték	-10.6726
üs	-10.6728
▁afrikai	-10.6729
▁fordulójában	-10.6732
▁nevében	-10.6732
▁szabadul	-10.6735
▁franciák	-10.6739
▁gyakorol	-10.674
▁kutyá	-10.6745
▁birtok	-10.6745
▁Rog	-10.6746
▁tüntetés	-10.6752
▁aláírás	-10.6754
▁1:	-10.6754
állítani	-10.6756
uta	-10.6757
▁kötvény	-10.6758
▁betegségek	-10.6761
▁Vlagyimir	-10.6763
▁maximum	-10.6763
▁Fontos	-10.6763
▁fertőzés	-10.6763
▁71	-10.6763
▁jelöl	-10.6766
▁romák	-10.6767
akács	-10.6768
szigetek	-10.6768
▁mindenkit	-10.6769
▁náluk	-10.677
▁voltunk	-10.6773
fő	-10.6773
▁elkerül	-10.6774
▁edzője	-10.6774
törvény	-10.6776
▁énekel	-10.6778
▁biztosított	-10.6779
▁ke	-10.6783
▁ítélt	-10.6783
▁választó	-10.6784
▁tárgyalt	-10.6787
▁komolyabb	-10.6788
▁tervezi	-10.6788
▁juttatás	-10.6789
▁minősítés	-10.6789
▁összeállítás	-10.6791
▁munkájá	-10.6792
▁14-	-10.6798
▁kerületben	-10.6801
-30	-10.6806
▁Go	-10.6806
véletlenül	-10.6808
▁78	-10.6808
▁életében	-10.6808
idő	-10.6811
▁bál	-10.6814
Bereg	-10.6817
mag	-10.6817
▁püspök	-10.682
▁Mindenki	-10.682
▁kisfiú	-10.682
▁Békés	-10.682
▁pornó	-10.6821
▁Haladás	-10.6821
▁palesztin	-10.6821
▁üzletember	-10.6822
▁istálló	-10.6823
▁kereskedők	-10.6824
üz	-10.6826
vagy	-10.6829
▁vásárlók	-10.683
lem	-10.683
▁terep	-10.6831
▁keresni	-10.6836
▁szerződések	-10.6836
alitás	-10.6842
▁EP	-10.6842
▁ront	-10.6842
hagyott	-10.6843
▁Iván	-10.6846
▁növel	-10.6849
▁term	-10.6851
▁dik	-10.6855
▁(19	-10.6857
▁szolgáltatást	-10.6857
▁írják	-10.6858
▁Sim	-10.6858
▁válaszolt	-10.6858
▁George	-10.6865
▁szeg	-10.6871
▁figyelm	-10.6872
▁belváros	-10.6874
örög	-10.6878
▁népszavazás	-10.6879
▁76	-10.6881
▁Fejlesztés	-10.6882
▁legyőzt	-10.6885
▁félév	-10.6885
▁jogot	-10.6892
szervezet	-10.6893
▁világot	-10.6894
▁betű	-10.6895
▁érő	-10.6897
▁vihar	-10.6897
▁küzdő	-10.69
▁lépést	-10.6902
▁mesél	-10.6903
▁kezdeni	-10.6905
▁kkel	-10.6914
▁megnyerte	-10.6918
▁vonalon	-10.6918
▁következett	-10.6921
▁27-	-10.6922
▁elejé	-10.6928
▁kamerá	-10.6934
▁dől	-10.6934
képp	-10.6935
▁Bálint	-10.6937
▁Ildikó	-10.6937
▁Közlekedés	-10.6937
▁Széchenyi	-10.6937
▁csavar	-10.6937
▁magánszemély	-10.6937
▁Webber	-10.6937
▁magabiztos	-10.6938
▁működött	-10.6938
▁cseré	-10.6938
▁valahogy	-10.6938
▁dán	-10.694
▁kapható	-10.6941
▁telt	-10.6942
▁próbált	-10.6943
1)	-10.6943
▁díjak	-10.6945
▁olimpián	-10.6946
▁abba	-10.6947
▁Tizen	-10.6952
▁ellop	-10.6952
▁Rad	-10.6953
világ	-10.6953
▁tiltakozás	-10.6956
▁mennek	-10.6959
▁okban	-10.6963
▁has	-10.6966
▁esz	-10.6967
▁tunk	-10.6967
váltás	-10.6971
▁bio	-10.6971
▁vásár	-10.6972
▁alakulat	-10.6972
▁oldalak	-10.6972
▁intenzív	-10.6972
▁gyilkos	-10.698
▁31.	-10.6981
▁ígérete	-10.6981
▁hozzájuk	-10.6981
cél	-10.6983
▁ünnepel	-10.6986
▁férj	-10.6986
▁pályá	-10.6987
▁stabilitás	-10.6987
▁történetét	-10.6987
▁modellek	-10.6993
▁fogadja	-10.6993
▁népszerűség	-10.6994
▁elemek	-10.6994
▁alábbi	-10.6996
▁étterem	-10.6998
▁kívánt	-10.7
▁találkozón	-10.7
▁középpályás	-10.7001
▁Sam	-10.7002
▁csi	-10.7009
▁web	-10.7009
▁Tar	-10.7013
▁hárma	-10.7014
▁bar	-10.7015
▁futott	-10.7016
▁élen	-10.7016
▁számla	-10.7017
▁Ser	-10.702
▁jele	-10.7022
▁Svédország	-10.7024
▁emelet	-10.7025
▁Jean	-10.7026
▁mon	-10.703
▁zárás	-10.7034
íl	-10.7038
▁ajánlato	-10.7042
▁táblá	-10.7043
▁ajánlás	-10.7044
▁információt	-10.7048
▁életet	-10.7049
utball	-10.7053
▁cent	-10.7055
▁drága	-10.7055
▁gárda	-10.7055
▁felesleges	-10.7055
▁Nép	-10.7058
▁ítés	-10.706
▁léphet	-10.7067
▁mondom	-10.707
▁térségében	-10.707
▁tájékoztatást	-10.7072
pályás	-10.7073
▁álom	-10.7073
▁segíthet	-10.7076
▁játszhat	-10.7077
15	-10.7078
▁gyűjt	-10.7079
▁lépni	-10.708
olták	-10.7081
▁Bak	-10.7082
▁apja	-10.7083
▁dolgokat	-10.7084
▁kötelez	-10.7084
▁kard	-10.7084
▁Szalai	-10.7086
burg	-10.7093
▁felfedezés	-10.7099
▁látvány	-10.7104
▁nyár	-10.7109
▁West	-10.7109
▁koalíció	-10.7109
▁fogás	-10.7114
▁Erzsébet	-10.7115
▁moszkvai	-10.7115
▁Benedek	-10.7115
▁titkosszolgálat	-10.7115
▁mesé	-10.7116
▁baloldal	-10.7116
▁ája	-10.7118
▁veresége	-10.7118
▁Kap	-10.7119
▁tekintetében	-10.712
▁Tor	-10.7121
vo	-10.7121
▁zené	-10.7122
▁5,	-10.7125
▁mérsékelt	-10.7125
▁folyamatok	-10.7125
▁győzte	-10.7128
▁kezelni	-10.7129
▁jósol	-10.7129
▁81	-10.713
▁munkája	-10.7131
q	-10.7133
mány	-10.7135
kisebb	-10.7137
▁abszol	-10.7142
▁Pri	-10.7145
szabás	-10.7147
▁másnap	-10.715
▁közepes	-10.7151
▁top	-10.7157
▁Ex	-10.7157
ney	-10.7158
▁27.	-10.7158
▁kétharmado	-10.7159
▁elit	-10.7162
▁Iroda	-10.7165
▁tisztáz	-10.7166
▁kérdése	-10.7166
▁jöttek	-10.7167
▁telefonon	-10.7168
▁főnök	-10.7169
▁gel	-10.717
▁Kós	-10.717
próbálják	-10.7173
▁munkaerő	-10.7174
•	-10.7174
▁szilveszter	-10.7174
▁tőké	-10.7178
▁Eszter	-10.7179
▁védett	-10.7182
▁köd	-10.7182
órás	-10.7183
▁tánc	-10.7184
▁fokozott	-10.7186
▁fent	-10.7187
▁nyitó	-10.7189
tatási	-10.7196
▁folyamatban	-10.7197
▁Sor	-10.7199
▁hatná	-10.7199
▁megfigyelés	-10.7203
▁magad	-10.7205
▁ismeri	-10.7215
▁bolygó	-10.7216
csik	-10.722
ech	-10.7222
elem	-10.7223
▁nagykövet	-10.723
▁tájékoztató	-10.723
▁elérte	-10.7232
▁gyűjtő	-10.7232
▁csal	-10.7233
hatjuk	-10.7234
▁Daily	-10.7235
▁viszonyítva	-10.7235
▁mögé	-10.7236
▁növek	-10.7237
▁vicces	-10.7238
▁képviselőjelölt	-10.7238
▁megbeszélés	-10.7239
▁Ter	-10.7239
▁keresés	-10.7241
venni	-10.7242
ling	-10.7242
▁ragad	-10.7243
▁támogatta	-10.7244
1000	-10.7246
bajnok	-10.7247
▁uralkodó	-10.7251
▁emlékezet	-10.7258
▁vitt	-10.7259
noha	-10.7261
▁lába	-10.7261
▁halálát	-10.7261
▁kg	-10.7262
▁értelmez	-10.7263
▁kezében	-10.7271
tető	-10.7273
▁házat	-10.7274
odott	-10.7284
▁29-	-10.7286
▁nyomozók	-10.7286
▁Amerikában	-10.7287
▁óvatos	-10.729
▁szület	-10.7292
,9	-10.7292
bár	-10.7292
▁83	-10.7295
▁mexikó	-10.7295
▁Arról	-10.7296
▁személyautó	-10.7297
▁szerelem	-10.7298
▁kaland	-10.7298
▁felmerült	-10.73
gá	-10.73
▁vonatkozik	-10.7302
szín	-10.7304
▁életveszélyes	-10.7305
▁Kell	-10.731
helyett	-10.731
▁2-0	-10.7312
▁Rob	-10.7313
▁kétszeres	-10.732
▁2002	-10.7321
▁részében	-10.7324
▁gazdá	-10.7327
▁hétköznap	-10.7331
▁árt	-10.7331
▁küldte	-10.7337
▁fenntartás	-10.7341
áló	-10.7349
▁szakszervezetek	-10.7352
▁kutatások	-10.7354
▁tanuló	-10.7356
▁demokráciá	-10.7356
▁Thomas	-10.7356
▁Messi	-10.7356
▁dobogó	-10.7357
ER	-10.7357
▁Mor	-10.7357
▁celeb	-10.7358
▁válhat	-10.7359
▁Is	-10.7359
▁könyvtár	-10.7361
▁kormányt	-10.7363
▁centi	-10.7365
▁oka	-10.7366
▁marketing	-10.7367
▁repülés	-10.7369
Y	-10.737
▁szokott	-10.7371
▁voks	-10.7371
▁ősz	-10.7374
▁alapok	-10.7375
▁avat	-10.7383
▁használhat	-10.7384
▁jogos	-10.7385
▁hibás	-10.7389
▁adomány	-10.7391
▁fák	-10.7392
▁jelez	-10.7393
▁használó	-10.7399
▁fejlesztések	-10.7404
izál	-10.7404
▁elkészült	-10.7405
▁válás	-10.7408
▁Tan	-10.7415
▁tönkre	-10.7418
▁Racing	-10.7418
▁epizód	-10.7418
▁Ligája	-10.7418
▁Lendva	-10.7418
▁Der	-10.7418
▁festmény	-10.7418
▁kilencven	-10.742
▁befolyás	-10.742
▁jutni	-10.7421
▁séget	-10.7422
▁Márton	-10.7422
▁távozott	-10.7426
▁Brit	-10.7428
▁szerencsés	-10.7429
▁stúdió	-10.7429
▁get	-10.7434
▁építő	-10.7438
▁kétharmad	-10.7439
▁ígért	-10.744
▁legendás	-10.7441
keres	-10.7443
▁gondot	-10.7444
zé	-10.7444
▁hatatlan	-10.7451
▁Sol	-10.7451
▁kezdi	-10.7452
▁járműve	-10.7457
▁szoci	-10.746
▁2003-	-10.7461
mond	-10.7465
▁nének	-10.7474
▁szerencsétlen	-10.7476
▁Baj	-10.7478
Britanniában	-10.7479
▁Schumacher	-10.7479
▁Társaság	-10.7479
▁kilogramm	-10.7479
▁megjegyezte	-10.7479
▁Telekom	-10.7479
▁jukat	-10.7479
▁legközelebb	-10.748
▁0,4	-10.748
▁kifogás	-10.748
▁25.	-10.7483
▁hosszabbítás	-10.7483
▁190	-10.7483
▁Horvátország	-10.7484
▁helyezték	-10.7485
▁tagállamok	-10.7491
▁állították	-10.7493
▁szert	-10.7496
▁bűnügy	-10.7497
ánc	-10.7499
▁támogatott	-10.7499
▁Bors	-10.75
▁do	-10.7501
▁századi	-10.7509
▁hátrányos	-10.7514
▁hajléktalan	-10.7517
▁feje	-10.7518
▁szal	-10.7519
▁mor	-10.752
▁aggód	-10.7522
▁érzékel	-10.7522
▁váltotta	-10.7528
▁vizsgált	-10.7529
▁hibát	-10.7537
▁csoportban	-10.7538
határozza	-10.7539
▁tucat	-10.7539
nának	-10.7539
▁McLaren	-10.7541
▁Vilmos	-10.7541
▁minimum	-10.7541
▁Kupa	-10.7543
▁nevé	-10.7544
▁élvonal	-10.7544
▁sajtóügyeletese	-10.755
▁túlzott	-10.755
▁fedezet	-10.7552
▁Hal	-10.7552
▁79	-10.7552
▁sűrű	-10.7552
▁bejegyzés	-10.7557
▁2013-	-10.7561
▁váró	-10.7568
▁30.	-10.7568
▁szavaz	-10.757
▁óráig	-10.7575
▁mel	-10.7576
▁apa	-10.7578
▁ügyes	-10.7578
▁rendezik	-10.758
eddig	-10.7583
▁jelentő	-10.7583
▁kifizet	-10.7584
dá	-10.7586
túr	-10.7587
▁előrejelzés	-10.7593
▁fiúk	-10.7593
▁testi	-10.7595
▁értékelés	-10.7597
▁felhívta	-10.7597
▁Mer	-10.7598
▁akarat	-10.76
▁adók	-10.76
▁kellemetlen	-10.76
▁Putyin	-10.7604
▁bronz	-10.7604
▁album	-10.7604
songrád	-10.7604
▁hűtlen	-10.7604
▁felhő	-10.7605
▁Judit	-10.7605
▁választmány	-10.7605
rd	-10.7606
▁adatait	-10.7607
▁területet	-10.7608
ovics	-10.7608
▁létrehozásá	-10.7609
▁szemmel	-10.761
ine	-10.7612
▁kb	-10.7612
vetett	-10.7613
▁betét	-10.7615
plén	-10.7617
▁Hisz	-10.7619
▁szlovén	-10.7622
▁viselked	-10.7625
▁iratok	-10.7632
▁nyolcad	-10.7634
rin	-10.7635
▁eleget	-10.7635
▁del	-10.7636
magyar	-10.7636
▁sorsa	-10.7636
▁ütött	-10.7638
▁Nov	-10.7643
tóság	-10.7643
▁labdá	-10.7645
▁nyertek	-10.7646
tatta	-10.7653
▁1500	-10.7654
dar	-10.7664
▁Veres	-10.7666
▁Vörös	-10.7667
▁Juventus	-10.7667
▁lépcső	-10.7667
▁Albert	-10.7667
▁roham	-10.7668
▁Pető	-10.7668
ismerte	-10.7668
▁utód	-10.7678
▁Tour	-10.768
▁Rák	-10.768
▁Cr	-10.7682
▁levelek	-10.7682
▁mutatták	-10.7685
▁műsorában	-10.7687
▁labda	-10.7688
▁beszélget	-10.7691
▁1,1	-10.7696
▁filmes	-10.7698
▁változ	-10.7699
első	-10.7703
▁vám	-10.7705
▁kategóriá	-10.7707
▁márká	-10.7707
▁érvényesül	-10.7709
bil	-10.7713
▁felek	-10.7714
▁12,	-10.7717
▁110	-10.7723
▁ígérte	-10.7724
▁statisztikai	-10.7729
▁GP	-10.7729
▁Média	-10.773
▁bennünket	-10.773
▁rangadó	-10.773
▁viz	-10.773
▁alapított	-10.7731
▁következtetés	-10.7731
▁hatályba	-10.7733
▁gyógy	-10.7734
▁vélekedett	-10.7735
hamarabb	-10.7735
▁Tíz	-10.7737
▁átfogó	-10.7738
enberg	-10.774
▁ságát	-10.7745
▁Eger	-10.7747
▁próba	-10.7748
▁bizalm	-10.7749
▁reális	-10.7753
▁zenei	-10.7753
szeres	-10.7755
▁szakma	-10.7755
▁Q	-10.7756
▁szalon	-10.7756
▁bizottságának	-10.7758
▁mást	-10.7758
▁84	-10.776
▁Japán	-10.7763
bol	-10.7765
▁fenyegetés	-10.7766
▁1990-	-10.7767
▁dolgozói	-10.7767
▁szög	-10.777
▁embere	-10.7771
▁javult	-10.7775
▁következ	-10.7776
▁januári	-10.7778
▁igyekez	-10.7778
▁hagyni	-10.7778
▁Vona	-10.7781
▁tárgyak	-10.7785
▁középs	-10.7789
▁készülnek	-10.7789
▁magánnyugdíj	-10.7789
▁Magyarországot	-10.779
▁Viszon	-10.7792
▁kialakulásá	-10.7792
tter	-10.7794
▁Juhász	-10.7794
▁indította	-10.7794
▁aratott	-10.7795
▁mondván	-10.7795
▁vesztett	-10.7796
▁Del	-10.7797
▁ketten	-10.7797
▁részletesen	-10.7798
▁számomra	-10.7798
▁legjobbja	-10.7798
mű	-10.7802
▁olt	-10.7802
▁korlát	-10.7805
▁gyalogos	-10.7809
▁birtokába	-10.7811
▁pénzek	-10.7814
szint	-10.7821
▁hozzájárulás	-10.7823
SE	-10.7823
▁BRFK	-10.7824
▁megszűnt	-10.7825
▁megjelenés	-10.7826
▁2005	-10.7826
▁iskolai	-10.7829
▁Pat	-10.783
▁vonás	-10.783
▁tenné	-10.7831
▁levő	-10.7833
▁húzód	-10.7835
-40	-10.7835
jétől	-10.7842
▁Kam	-10.7843
▁találkozót	-10.7843
árd	-10.7844
▁szerkesztő	-10.7848
▁viták	-10.785
ari	-10.7855
▁Schmi	-10.7857
remier	-10.7857
▁kiadvány	-10.7858
▁Belföld	-10.7858
Abaúj	-10.7859
▁tárlat	-10.7859
▁műanyag	-10.7859
▁fektet	-10.7862
▁lennének	-10.7863
▁százalékpont	-10.7866
▁ideális	-10.7866
▁Akár	-10.7867
▁Pár	-10.7867
▁Hét	-10.7868
uj	-10.787
▁festő	-10.787
▁előadó	-10.7871
vitel	-10.7873
▁nom	-10.7878
tatott	-10.7883
▁Európá	-10.7884
Ö	-10.7886
íz	-10.7893
köz	-10.7894
▁végzi	-10.7895
▁intéz	-10.7898
▁feladatot	-10.7901
▁para	-10.7904
díjat	-10.7904
▁régen	-10.7907
▁hatunk	-10.7913
▁vész	-10.7913
▁szokta	-10.7914
elsőfokú	-10.7915
▁Ste	-10.7917
▁iskolában	-10.792
▁megbízás	-10.7921
▁jégkorong	-10.7922
▁bevezetése	-10.7924
▁1,8	-10.7924
▁dönteni	-10.7925
▁fúj	-10.7925
ino	-10.7926
▁hetjük	-10.7928
▁Film	-10.7928
▁közvetítés	-10.7933
▁menekül	-10.7934
▁zuhant	-10.7939
▁imád	-10.7939
▁Fed	-10.7948
▁támadások	-10.7952
raki	-10.7957
▁Blog	-10.7959
▁állapota	-10.7961
▁26.	-10.7962
▁Egyes	-10.7963
jében	-10.7964
▁ünnepek	-10.7966
jába	-10.7975
▁megújul	-10.7976
▁művé	-10.7978
ation	-10.7978
▁okos	-10.798
▁ozott	-10.7981
▁kapták	-10.7986
▁Költségvetés	-10.7987
▁Majd	-10.7987
▁megvásárol	-10.7988
▁tetejé	-10.7988
▁sajtószabadság	-10.7988
▁Fejér	-10.7988
▁oroszok	-10.7991
by	-10.7992
▁sajátos	-10.7995
▁szakad	-10.8003
▁jutás	-10.8004
▁csempész	-10.8006
▁kapni	-10.8009
▁Pénz	-10.8012
▁jegyzés	-10.8012
▁ker	-10.8014
állomás	-10.8017
állapították	-10.802
▁77	-10.8023
▁ett	-10.8024
▁fogyasztó	-10.8028
▁kritiká	-10.8029
▁garantál	-10.8036
▁érdeklődők	-10.8037
▁ötlete	-10.8037
▁29.	-10.8039
boly	-10.804
▁visszatérés	-10.8045
▁cserébe	-10.8048
▁felejt	-10.8048
▁egyenlő	-10.8049
▁kre	-10.8051
▁elhangzott	-10.8053
▁menedzser	-10.8053
▁légkör	-10.8053
▁híj	-10.8053
▁magyarázza	-10.8053
▁helyiség	-10.8054
▁töltötte	-10.8054
▁munkatárs	-10.8057
bban	-10.8062
▁terhel	-10.8063
▁következményei	-10.8065
olja	-10.8067
▁változik	-10.8068
rc	-10.8068
▁2000-	-10.8069
▁2:	-10.8071
▁magába	-10.8074
▁teljesített	-10.8078
▁jelentkezett	-10.808
▁Tv	-10.8081
állított	-10.8083
▁Chi	-10.8084
▁lo	-10.809
▁közep	-10.8092
▁bánt	-10.8092
▁Mű	-10.8096
▁ájá	-10.8096
▁változata	-10.8103
▁agrár	-10.8105
▁kerülni	-10.8107
▁városok	-10.8109
▁sajnál	-10.8113
bbá	-10.8115
▁diplomá	-10.8118
▁Karácsony	-10.8118
▁Reuters	-10.8118
▁mindkettő	-10.8118
▁összhang	-10.8119
▁rendszám	-10.8121
▁hangzott	-10.8121
▁kérdezte	-10.8122
▁háromszor	-10.8122
▁mese	-10.8123
▁elvesztett	-10.8123
▁földön	-10.8126
zin	-10.8127
▁fűtés	-10.8129
▁ruha	-10.8132
▁bukott	-10.8134
▁szabott	-10.8136
bel	-10.8138
▁zajlott	-10.8139
▁rém	-10.8144
▁értem	-10.8144
▁teherautó	-10.8147
▁OVB	-10.8148
kupa	-10.8151
▁lel	-10.8152
▁rab	-10.8155
▁ülése	-10.8156
▁köze	-10.8157
övér	-10.8158
▁üzen	-10.816
▁sikert	-10.8163
▁hetven	-10.8164
▁képzel	-10.8168
▁lélek	-10.8173
▁Csap	-10.8173
▁erősítette	-10.8175
▁látás	-10.8177
ítják	-10.8178
▁tartományban	-10.8179
▁növeli	-10.818
lla	-10.8181
▁küszöb	-10.8184
▁HVG	-10.8185
▁Szervezet	-10.8185
▁adatbázis	-10.8185
▁lassú	-10.8185
▁kedvéért	-10.8185
▁Jenő	-10.8186
▁Szlovákia	-10.8186
all	-10.8187
▁Dun	-10.8187
▁fiatalabb	-10.8191
▁járatok	-10.8191
▁0,1	-10.8193
▁ünnepség	-10.8194
▁lóg	-10.8196
szabadságvesztés	-10.8204
▁vélik	-10.8207
▁bírságo	-10.8208
▁rendszerbe	-10.821
▁lényege	-10.8213
▁Kat	-10.8215
ször	-10.8216
▁mez	-10.8217
▁sorra	-10.822
▁értesülés	-10.8221
▁lehetőségei	-10.8221
▁szempont	-10.8223
▁keresnek	-10.8224
▁x	-10.8224
▁erőszakos	-10.8226
ity	-10.8226
ává	-10.8227
kezés	-10.8235
▁állampolgárok	-10.8237
ld	-10.8239
▁Szerencsé	-10.824
▁pályafutás	-10.8241
▁vállalkozók	-10.8244
▁ku	-10.8245
▁bizon	-10.8246
▁megbízható	-10.8246
▁bicikli	-10.8251
▁hibrid	-10.8251
▁kongresszus	-10.8251
▁miskolci	-10.8251
▁riasztás	-10.8251
▁stressz	-10.8251
▁Egyéb	-10.8251
▁6:4	-10.8251
▁bázispont	-10.8252
▁tőlük	-10.8254
▁kerék	-10.8255
▁gondolta	-10.8256
▁vártnál	-10.8257
▁forgalomba	-10.8257
▁mindegy	-10.8257
▁Wal	-10.8259
▁port	-10.8261
▁lakói	-10.8262
rs	-10.8263
8-	-10.8269
▁gondoltam	-10.827
▁me	-10.827
▁vezetőjét	-10.8271
ítsák	-10.8272
ereskedelmi	-10.8273
▁vezetőjé	-10.8273
▁24.	-10.8274
▁fo	-10.8278
▁szóval	-10.8279
▁Tal	-10.8279
▁rajzol	-10.828
▁négyes	-10.828
▁tekinti	-10.8282
mentes	-10.8285
francia	-10.8286
▁értékek	-10.8286
▁összefügg	-10.8287
che	-10.8288
▁óv	-10.8289
▁sétál	-10.8297
ux	-10.83
érdésünkre	-10.83
szlovákiai	-10.8301
▁Don	-10.8304
adták	-10.8306
▁93	-10.8306
▁döntését	-10.8308
▁keresett	-10.8311
▁nevelés	-10.8314
▁Vissza	-10.8317
hetünk	-10.8318
▁Hamilton	-10.8318
▁kormányszóvivő	-10.8318
▁Frank	-10.8319
▁tucatnyi	-10.8321
▁hajrá	-10.8321
▁Jack	-10.8321
▁játékvezető	-10.8323
▁közti	-10.8325
▁kedvez	-10.8326
▁Bács	-10.8328
▁bevételek	-10.8331
téri	-10.8331
▁csaj	-10.8332
▁2014-	-10.8332
▁csatlakozott	-10.8334
▁blokk	-10.8336
▁tért	-10.8337
▁jogát	-10.8337
-10	-10.8338
▁tét	-10.8338
▁igazolt	-10.8339
▁merült	-10.8342
▁pal	-10.8344
▁pályát	-10.835
ségi	-10.8351
kedés	-10.8351
▁autóval	-10.8353
▁függő	-10.8359
▁seb	-10.8361
▁többé	-10.8372
▁veszélyeztet	-10.8374
▁százalékról	-10.8377
▁szintre	-10.8381
nom	-10.8386
▁megszólal	-10.8386
▁berlini	-10.8386
▁Navra	-10.8386
▁finálé	-10.8386
▁ozni	-10.8388
▁megelőzés	-10.8395
▁Kanada	-10.8395
▁szégyen	-10.8396
▁temető	-10.8397
berg	-10.8397
Zem	-10.8397
▁4,5	-10.8397
Korea	-10.8399
▁erej	-10.8401
▁megváltoztat	-10.8401
zött	-10.8402
▁épületek	-10.8408
▁siet	-10.8413
▁szalag	-10.8414
▁zöldség	-10.8416
▁fejez	-10.842
terv	-10.842
kutatás	-10.842
▁rendszerek	-10.8425
▁rejtett	-10.8425
▁összege	-10.8426
▁szerelt	-10.8427
▁kijelentés	-10.8428
▁140	-10.843
▁kra	-10.8431
▁irat	-10.8432
▁ura	-10.8432
▁célra	-10.8434
▁érdeklőd	-10.8445
▁partnere	-10.8448
▁rendelte	-10.845
▁SE	-10.8452
▁Demszky	-10.8454
▁League	-10.8454
▁Szijjártó	-10.8454
▁Külföld	-10.8454
▁csábít	-10.8454
Kiskun	-10.8454
▁José	-10.8455
▁készlet	-10.8456
▁nyomozó	-10.8456
▁mozgalom	-10.8457
▁Törökország	-10.8457
▁Halál	-10.8459
▁28.	-10.846
▁hangos	-10.8462
▁tri	-10.8462
▁beszédében	-10.8463
▁időköz	-10.8467
▁úti	-10.8467
▁előkészítés	-10.8473
▁köteles	-10.8475
▁kutyák	-10.8475
▁us	-10.8478
▁eljárások	-10.848
▁válaszolta	-10.8481
▁szemlélet	-10.8483
EK	-10.8484
▁változtatni	-10.8485
▁Ur	-10.8487
▁vinni	-10.8488
▁próbá	-10.8488
▁mini	-10.8489
▁megrendez	-10.8492
▁ítani	-10.8496
▁keresik	-10.8496
▁csarnok	-10.8499
yn	-10.8499
▁Bla	-10.8504
▁formá	-10.8504
ero	-10.8509
▁ást	-10.8513
▁bizonyít	-10.8513
▁szintet	-10.8514
▁takarít	-10.8516
▁tréner	-10.8523
▁Kaposvár	-10.8523
▁szálloda	-10.8523
▁forgó	-10.8523
▁Endre	-10.8523
▁November	-10.8523
▁vékony	-10.8524
▁jától	-10.8524
▁építkezés	-10.8525
▁ahonn	-10.8525
▁elemzői	-10.8525
felsőbb	-10.8526
tika	-10.8526
▁nehézségek	-10.8527
ságosa	-10.8528
▁ozó	-10.8528
▁százmillió	-10.8529
▁kop	-10.853
▁költsége	-10.8535
▁0-1	-10.8538
▁kultúr	-10.854
off	-10.8542
▁rejt	-10.8543
▁helyzetét	-10.8543
▁irányba	-10.8544
▁értesített	-10.8544
▁mérés	-10.8544
biztonsági	-10.8544
▁pályáz	-10.8545
▁Kh	-10.8545
▁130	-10.8545
▁szavak	-10.8547
ozta	-10.8549
▁heves	-10.8549
▁ígéret	-10.855
▁gyűjtés	-10.8551
▁Mező	-10.8552
▁szerepét	-10.8553
▁buda	-10.8555
hajtó	-10.856
▁kiesett	-10.856
▁joga	-10.8562
▁nyomtat	-10.8565
▁visszatért	-10.8568
▁pártja	-10.8569
▁Juli	-10.8571
új	-10.8573
▁fizetnie	-10.8574
▁fejlesztésé	-10.8574
lföldi	-10.8575
▁elnökének	-10.8575
▁torná	-10.8575
▁barátja	-10.8575
▁jen	-10.8576
▁kaptam	-10.8576
▁Il	-10.8579
▁rendezvényen	-10.8579
▁92	-10.8582
▁váll	-10.8582
▁Ellen	-10.8583
▁létesítmény	-10.8589
▁Annak	-10.8589
▁Valutaalap	-10.8592
▁hírportál	-10.8592
▁szigorítás	-10.8592
▁extra	-10.8593
▁elképesztő	-10.8593
▁0,7	-10.8594
▁agresszív	-10.8594
▁növekedése	-10.8595
▁premier	-10.8595
▁közélet	-10.8595
▁készíteni	-10.8595
▁hatékonyabb	-10.8596
▁velem	-10.8597
▁stratégiá	-10.8599
▁szenvedély	-10.8602
▁gyűrű	-10.8602
▁pontosabb	-10.8607
ékeny	-10.8608
▁felét	-10.861
▁pénztárak	-10.861
▁magunkat	-10.8611
▁nyelven	-10.8611
▁becsület	-10.8613
▁Tény	-10.8613
▁alelnök	-10.8615
▁látom	-10.8616
▁kivitel	-10.8621
▁nel	-10.8626
▁ural	-10.8626
▁szúr	-10.8627
▁szerepelnek	-10.8628
▁megszerezt	-10.8633
▁érintettek	-10.8633
▁ugrott	-10.8634
▁3,	-10.8635
▁fejét	-10.8643
▁ápol	-10.8644
▁cikkek	-10.8653
▁junk	-10.8655
▁alapoz	-10.8656
▁rendel	-10.8657
▁üzenete	-10.8658
▁eszközöket	-10.8658
▁lat	-10.866
▁jártak	-10.8661
▁esedékes	-10.8661
▁nukleár	-10.8661
▁póló	-10.8661
▁emberölés	-10.8662
ix	-10.8662
▁megkeresés	-10.8663
▁ékszer	-10.8666
▁Akadémia	-10.8666
▁érdekel	-10.8676
▁ölt	-10.8677
▁forgalmat	-10.8678
leges	-10.868
ozni	-10.868
▁bővülés	-10.8682
▁megállapította	-10.8682
▁Vannak	-10.8683
▁nagykövetség	-10.8684
▁fenyeget	-10.8688
▁kérdései	-10.8689
▁olimpiá	-10.869
▁megtámad	-10.8692
▁lakók	-10.8692
▁terhe	-10.8697
▁jóvá	-10.8698
▁láng	-10.8698
▁mesélte	-10.8698
▁Fx	-10.8703
▁tömeges	-10.8707
▁Könyv	-10.8708
▁rajongó	-10.8709
▁vevők	-10.871
▁művek	-10.871
▁vállalni	-10.8713
▁Vid	-10.8714
▁hallott	-10.8714
▁útra	-10.8717
▁bővül	-10.873
▁Valószínű	-10.8731
▁árbevétel	-10.8731
▁szabálysértés	-10.8731
▁óvodá	-10.8731
▁0,0	-10.8731
▁Roland	-10.8732
▁1,7	-10.8733
▁gyerekeket	-10.8734
▁kanyar	-10.874
▁mozdulat	-10.8741
▁vezetni	-10.8744
▁éreztem	-10.8746
▁vál	-10.8747
▁Környezetvédel	-10.8751
▁Star	-10.8752
▁listáján	-10.8752
▁Can	-10.8756
vonta	-10.876
▁hetik	-10.876
▁játékosai	-10.8762
▁rendezte	-10.8764
▁kimond	-10.8766
▁Ch	-10.8767
csa	-10.8768
▁emeli	-10.8769
▁érezte	-10.8769
▁cukor	-10.877
afrikai	-10.8771
▁Kíná	-10.8773
nyújtott	-10.8773
▁fogott	-10.8774
▁mér	-10.8775
▁tizen	-10.879
olasz	-10.8793
▁cége	-10.8794
czy	-10.8796
▁Villa	-10.8797
▁csoportja	-10.88
▁Ember	-10.8801
▁elbeszélés	-10.8801
▁helikopter	-10.8801
▁páciens	-10.8801
▁utánpótlás	-10.8801
▁konyha	-10.8801
▁bizalom	-10.8801
▁érettségi	-10.8801
▁kábel	-10.8802
▁matematik	-10.8802
▁árverés	-10.8802
▁Honda	-10.8802
▁szag	-10.8804
▁célpont	-10.8805
▁3,8	-10.8805
úszott	-10.8808
▁munkaadó	-10.8809
▁andó	-10.881
▁hírt	-10.8811
▁ésére	-10.8816
▁maradni	-10.8817
▁Reg	-10.8818
▁gondolják	-10.8821
▁Hely	-10.8822
▁megfigyel	-10.8822
▁utaz	-10.8823
▁Len	-10.8827
▁eivel	-10.8827
▁történetében	-10.8831
▁előírások	-10.8834
▁alternatív	-10.8835
▁válogat	-10.8836
▁izál	-10.8837
▁):	-10.8837
szállás	-10.8837
rown	-10.8844
▁felvételek	-10.8847
▁útján	-10.8851
▁profit	-10.8852
▁ái	-10.8858
ipari	-10.8862
fej	-10.8862
▁bevezet	-10.8864
▁lag	-10.8865
▁fegyelm	-10.8872
▁árnyék	-10.8872
▁reptér	-10.8872
▁Biztos	-10.8872
▁Gabriella	-10.8873
▁beszámolt	-10.8873
▁sereg	-10.8873
▁létrejött	-10.8875
▁műsorvezető	-10.8875
▁alkotmányos	-10.888
▁foglalt	-10.8882
einte	-10.8885
▁Hill	-10.889
▁engedélyt	-10.8891
▁Harr	-10.8895
▁FTC	-10.8896
▁velünk	-10.8899
▁foglalkoztatott	-10.8899
▁juttat	-10.8902
rov	-10.8904
▁hatásai	-10.8909
▁büntetést	-10.891
▁gr	-10.8913
▁szeretném	-10.8914
▁bont	-10.8915
▁Rend	-10.8917
▁Horn	-10.8924
▁Ir	-10.8925
▁vizsgálta	-10.8926
számítva	-10.8927
▁kérő	-10.8929
▁kezdeményezte	-10.8933
▁szórakoz	-10.8934
▁barátnő	-10.894
▁főszereplő	-10.8941
▁bukkan	-10.8941
▁gólpassz	-10.8944
−	-10.8944
▁Ukrajna	-10.8944
▁tájékozód	-10.8944
▁szobor	-10.8944
▁alkalmából	-10.8945
▁Különös	-10.8945
sztikus	-10.8948
▁cégnek	-10.8955
▁téves	-10.8957
▁panaszkod	-10.8957
ménnyel	-10.8959
▁együttműköd	-10.8962
veszi	-10.8966
▁havas	-10.8966
▁Szövetsége	-10.8971
▁foglaltak	-10.8978
▁fennmarad	-10.8979
▁járvány	-10.8981
▁honlapja	-10.8982
▁kérdéses	-10.8984
▁Svájc	-10.8985
▁kértek	-10.8988
-20	-10.8988
▁eladó	-10.8997
▁észlel	-10.9004
▁célba	-10.9008
▁eg	-10.9011
▁350	-10.9011
zsa	-10.9013
▁kérni	-10.9015
▁Kórház	-10.9016
▁kipróbál	-10.9016
▁ragaszkod	-10.9016
▁Norbert	-10.9016
▁afgán	-10.9016
▁maximális	-10.9017
▁forró	-10.9017
▁mozgat	-10.9017
▁háza	-10.902
▁zó	-10.902
▁terhesség	-10.9025
▁hozzájárul	-10.9027
képes	-10.9028
▁utazott	-10.9028
▁Neke	-10.903
▁kötelezettsége	-10.9035
▁hab	-10.9035
▁forradalm	-10.9039
▁részesedés	-10.9039
▁úszó	-10.9041
▁képeket	-10.9042
▁hiányában	-10.9046
▁nünk	-10.905
▁nyolcvan	-10.905
ente	-10.905
▁jogász	-10.9055
▁tok	-10.9057
▁pre	-10.9057
hirdetett	-10.906
▁terel	-10.9061
▁kór	-10.9061
▁fejleszt	-10.9064
▁10-1	-10.9068
▁gyalog	-10.9071
▁sérülése	-10.9072
▁Marc	-10.9082
▁megváltoz	-10.9083
▁rajongók	-10.9083
▁Bab	-10.9083
▁jegyek	-10.9087
▁Journal	-10.9088
▁Moody	-10.9088
▁republikánus	-10.9088
▁mindannyi	-10.9088
▁robot	-10.9088
▁földgáz	-10.9089
▁népesség	-10.909
▁műhely	-10.909
▁adag	-10.909
▁hihetetlen	-10.909
Britannia	-10.9091
▁bemutatkoz	-10.9091
▁halász	-10.9092
▁holnap	-10.9093
▁Jász	-10.9094
▁pad	-10.9094
▁ütközés	-10.9096
▁rendszere	-10.9097
▁neves	-10.9098
▁használata	-10.9098
▁múlik	-10.9099
▁ezres	-10.9102
▁támaszt	-10.9106
▁med	-10.9106
▁hatáskör	-10.9109
▁kapcsolód	-10.911
▁elutasította	-10.911
▁ítéletet	-10.911
sky	-10.9111
▁szavazni	-10.9112
osztás	-10.9115
▁dolgoztak	-10.9116
▁felülvizsgálat	-10.9116
▁papírok	-10.9119
▁zárult	-10.9122
éldául	-10.913
▁Margit	-10.913
▁feladatokat	-10.9131
▁vizsgálata	-10.9134
▁Szerdá	-10.914
▁építeni	-10.9144
▁mélység	-10.9145
▁földi	-10.915
▁3-1	-10.9154
sük	-10.9157
▁Mac	-10.9157
▁Női	-10.9157
▁bosszú	-10.9161
▁hitelminősítő	-10.9161
▁Önkormányzat	-10.9161
Totalcar	-10.9161
▁bécsi	-10.9161
▁győri	-10.9161
▁tilos	-10.9161
▁sorozatot	-10.9162
dioxid	-10.9162
▁194	-10.9163
▁takar	-10.9165
ack	-10.9165
▁építőipar	-10.9167
ább	-10.9169
▁jelentették	-10.9171
▁engedélyez	-10.9173
▁balesetek	-10.9175
haj	-10.9177
▁Erős	-10.9182
▁nincsen	-10.9184
▁www	-10.9184
▁tem	-10.9184
▁felmérése	-10.9185
▁hitelt	-10.9187
▁teli	-10.9189
▁században	-10.9189
sztó	-10.9189
▁érdemel	-10.919
▁meghallgatás	-10.919
▁gyakorolt	-10.919
▁növeked	-10.9191
▁Wall	-10.9193
▁teljesítményt	-10.92
fin	-10.92
▁ekben	-10.9202
▁terjeszt	-10.9206
▁sorol	-10.9207
érkezett	-10.9208
▁drámai	-10.9212
▁lóerő	-10.9213
▁dőlt	-10.9213
▁bejelentése	-10.9213
▁Lev	-10.9214
▁5,5	-10.9217
▁minősít	-10.9224
▁tekintett	-10.9226
▁tekintély	-10.9227
▁Wer	-10.9228
▁pr	-10.9231
▁plakát	-10.9234
▁tiltakoz	-10.9234
▁Jézus	-10.9235
▁minősül	-10.9235
▁spórol	-10.9235
▁turizmus	-10.9235
▁kosárlabda	-10.9235
▁alvás	-10.9236
ps	-10.9238
táv	-10.9239
▁olykor	-10.924
▁Bence	-10.9245
verseny	-10.9246
▁termel	-10.9248
▁jére	-10.9249
▁tiltott	-10.9252
▁külügy	-10.9255
▁legtöbben	-10.9258
▁törés	-10.9259
▁húzta	-10.9261
▁eredményez	-10.9262
▁kereskedő	-10.9263
▁aláírt	-10.9266
▁no	-10.9266
▁kényszerít	-10.9266
▁Át	-10.927
▁leírás	-10.927
▁besorolás	-10.927
▁bizonyított	-10.9272
▁Cso	-10.9273
▁1998-	-10.9273
ola	-10.9275
▁Párizs	-10.928
tanács	-10.9283
▁számoltak	-10.9283
▁származik	-10.9288
▁Gál	-10.9289
▁módjá	-10.9294
urd	-10.9299
▁csökkentett	-10.9301
▁baba	-10.9302
mondani	-10.9305
▁embereknek	-10.9306
▁fogta	-10.9307
▁jelleg	-10.9307
▁jobbikos	-10.9309
fl	-10.9309
▁bármikor	-10.931
▁raktár	-10.931
▁rájátszás	-10.931
▁ízlés	-10.931
▁mindkette	-10.9311
▁pakol	-10.9311
▁Kedve	-10.9312
▁támogatása	-10.9315
tartó	-10.9316
▁Ausztria	-10.9316
▁szállt	-10.9317
▁hatékonyság	-10.9317
▁találkozik	-10.9319
▁kifizetés	-10.9321
▁kategória	-10.9322
ágy	-10.9323
▁tűnő	-10.9327
▁évtizede	-10.933
▁legyőz	-10.9332
zárták	-10.9334
▁bejelentett	-10.9335
▁utazó	-10.9337
▁janak	-10.9338
▁kereste	-10.9342
bri	-10.9344
▁br	-10.9345
▁ü	-10.9346
▁felfedez	-10.9348
▁eltérés	-10.9349
ődés	-10.9351
lépett	-10.9352
▁szándékos	-10.9354
▁Gal	-10.9357
kötés	-10.9357
▁270	-10.9358
rty	-10.936
▁zaj	-10.936
▁ügyei	-10.9364
▁ho	-10.9365
▁jegyzett	-10.9367
fér	-10.9368
▁csökkenten	-10.937
▁Szolgál	-10.9377
▁szavai	-10.9378
▁csecsemő	-10.9383
▁elfogták	-10.9383
▁kancellár	-10.9383
▁összefoglaló	-10.9383
▁Dzsudzs	-10.9383
▁áig	-10.9383
▁Dallas	-10.9384
▁gázolaj	-10.9384
▁érzék	-10.9385
▁csaló	-10.9386
▁hotel	-10.9386
zatos	-10.9386
▁szobr	-10.9387
▁irányába	-10.9391
▁oktató	-10.9392
▁lemondott	-10.9393
▁csend	-10.9394
▁csökkenti	-10.9395
▁részesül	-10.9401
▁áradás	-10.9404
▁eléri	-10.9406
▁vonta	-10.9407
▁Teljes	-10.9407
▁94	-10.9411
nyá	-10.9411
▁felvett	-10.9413
▁vádat	-10.9416
▁terhelés	-10.9418
▁Gold	-10.9418
▁mp	-10.9419
▁ekre	-10.9422
ndőrkapitányság	-10.9423
▁indokol	-10.9423
▁2003	-10.9424
▁teljesítés	-10.9426
▁katoná	-10.9426
▁Csehország	-10.9428
essék	-10.9429
▁bevon	-10.9432
uzs	-10.9433
▁romlott	-10.9433
felől	-10.9434
válogatott	-10.9434
▁hajnali	-10.9434
törvénymódosítás	-10.9439
▁Pr	-10.9445
▁Sar	-10.9445
▁ételek	-10.9446
▁mozdul	-10.9447
▁erősíti	-10.9451
száz	-10.9452
▁főz	-10.9452
utt	-10.9456
▁megkapta	-10.9457
mus	-10.9457
▁igyekezet	-10.9457
▁látogatók	-10.9459
▁megoldani	-10.9461
▁választást	-10.9461
▁Johnson	-10.9462
▁tünetek	-10.9462
▁Ismer	-10.9463
▁járás	-10.9466
fr	-10.947
term	-10.947
▁Jones	-10.9472
▁Kár	-10.9473
▁tartoznak	-10.9477
▁kerékpáros	-10.9481
▁konferencián	-10.9482
▁Polgár	-10.9484
▁ismerik	-10.9484
▁Jobb	-10.9488
▁körű	-10.9488
pan	-10.9493
▁hibá	-10.9494
▁csö	-10.9494
▁utcára	-10.95
▁töm	-10.95
▁eknek	-10.9502
ionális	-10.9506
atta	-10.9506
▁vélemények	-10.9507
▁2001-	-10.9511
arch	-10.9513
▁negyeddöntő	-10.9515
▁lemarad	-10.9518
▁belföld	-10.9518
▁Kép	-10.9523
▁Német	-10.9526
▁Fab	-10.9528
▁Louis	-10.953
szter	-10.9531
▁kérték	-10.9532
rák	-10.9532
▁veszélye	-10.9532
TE	-10.9533
▁Assange	-10.9534
▁Fernando	-10.9534
▁aktivitás	-10.9534
▁sürgős	-10.9534
▁turbó	-10.9534
▁szelvény	-10.9535
▁prémium	-10.9535
▁szomorú	-10.9537
▁szakemberei	-10.9538
▁nánk	-10.9539
▁választhat	-10.9541
▁naptár	-10.9542
▁tisztel	-10.9544
▁elhagy	-10.9545
▁mutatnak	-10.9545
▁tenisz	-10.9547
▁Szlovákiában	-10.9547
▁fejlesztett	-10.955
▁hívás	-10.955
nének	-10.9552
▁ellentétes	-10.9552
▁egyszerűsít	-10.9555
▁vall	-10.9557
▁tisztességes	-10.9557
▁közlekedő	-10.9561
▁árát	-10.9561
hagyta	-10.9562
▁ideg	-10.9563
▁dönthet	-10.9564
▁jelentkező	-10.9564
▁Vízügy	-10.9565
hozzá	-10.9574
▁hiányt	-10.9575
▁jelölés	-10.9576
▁csinált	-10.9576
enko	-10.9582
▁nák	-10.9583
▁Eredmény	-10.9585
nce	-10.9589
▁gólja	-10.9591
▁szolgálja	-10.9592
▁gyengülés	-10.9592
▁híre	-10.9593
▁megnéz	-10.9593
▁ca	-10.9596
▁vonult	-10.9599
▁áruház	-10.9601
▁tapasztalhat	-10.9604
▁buszok	-10.961
▁World	-10.9611
▁ilyesmi	-10.9611
▁tanácskozás	-10.9611
▁6:3	-10.9611
▁listavezető	-10.9612
▁segítette	-10.9614
▁tisztán	-10.9615
▁felvetés	-10.9615
legszebb	-10.9616
▁játszottak	-10.9617
▁számlák	-10.9618
▁életem	-10.9619
bin	-10.9621
▁olás	-10.9623
▁régióban	-10.9627
▁bizonyítani	-10.9629
▁költségei	-10.9632
▁elképzelései	-10.9633
▁döntőben	-10.9635
▁tevékenységét	-10.9644
▁ikat	-10.9646
▁életre	-10.9656
▁értékes	-10.9659
▁végrehajtás	-10.966
piac	-10.9661
▁erőteljes	-10.9661
ille	-10.9662
car	-10.9663
▁vádol	-10.9665
▁rendbe	-10.9666
▁kasszá	-10.9667
▁bevételt	-10.9667
▁BA	-10.9669
▁hangot	-10.967
elnökség	-10.967
▁érzet	-10.9671
▁léptek	-10.9672
ébb	-10.9678
▁milliót	-10.9678
épített	-10.9684
▁import	-10.9686
▁Chris	-10.9687
▁Mátyás	-10.9688
▁előterjesztés	-10.9688
▁tisztségviselő	-10.9688
▁tüzet	-10.9688
▁hazud	-10.9688
▁Hamburg	-10.9688
▁állásfoglalás	-10.9688
▁vesszük	-10.9688
tással	-10.9689
▁szenátus	-10.969
▁kollégái	-10.969
▁Paks	-10.9693
▁foglalkozni	-10.9695
▁sikertelen	-10.9695
▁fölény	-10.9696
SZK	-10.9696
▁újonc	-10.9696
▁középkor	-10.9697
▁határoz	-10.9697
▁tízmillió	-10.9699
▁egymástól	-10.9699
▁bolgár	-10.9703
▁növekszik	-10.9704
▁pillér	-10.9704
▁tarthat	-10.9706
▁hallgatók	-10.971
▁oszlop	-10.971
▁mező	-10.971
▁kezdete	-10.9711
▁Sun	-10.9711
▁vágta	-10.9712
▁tar	-10.9717
éért	-10.9718
▁Bod	-10.9723
▁kutatói	-10.9724
izált	-10.9729
▁Hel	-10.9733
▁végezte	-10.9734
▁útvonal	-10.9735
ace	-10.9739
ON	-10.974
▁pesti	-10.9742
II	-10.9744
▁úsz	-10.9746
▁lé	-10.9749
▁tehető	-10.9751
▁mondható	-10.9752
szerző	-10.9754
▁gondolni	-10.9755
▁keresi	-10.9758
▁tolvaj	-10.9759
▁ró	-10.976
kocsi	-10.9761
▁ással	-10.9762
▁városában	-10.9763
▁jében	-10.9763
▁Melinda	-10.9765
▁turisztik	-10.9765
▁madár	-10.9765
▁házaspár	-10.9765
▁Street	-10.9765
▁fantasztikus	-10.9766
▁megöl	-10.9766
▁DNS	-10.9766
▁potenciális	-10.9767
▁Autó	-10.9768
▁étkezés	-10.9769
jó	-10.9774
▁zés	-10.9774
▁nyújtotta	-10.9779
▁szök	-10.9782
▁turisták	-10.9788
ide	-10.9792
▁szavazott	-10.9793
▁nevezi	-10.9795
ítanak	-10.9798
▁sértés	-10.9801
▁nyugdíjasok	-10.9806
▁erkölcsi	-10.9807
▁Green	-10.9812
▁nemzetgazdaság	-10.9812
▁knak	-10.9812
▁jövedelm	-10.9814
▁javasolta	-10.9814
ick	-10.9817
▁pert	-10.9817
keleti	-10.9819
▁becsült	-10.982
▁Idő	-10.9824
▁üzemeltetés	-10.9824
▁telek	-10.9826
▁ur	-10.9827
▁tervezte	-10.9828
▁elindult	-10.983
▁Carlo	-10.9834
▁Tim	-10.9835
▁lehetőségeket	-10.9837
▁vitát	-10.9841
▁elvi	-10.9842
▁Csa	-10.9842
▁Detroit	-10.9843
▁Microsoft	-10.9843
▁dátum	-10.9843
▁Pannon	-10.9843
▁Gólszerző	-10.9843
▁legkevesebb	-10.9843
▁felhalmoz	-10.9843
▁Katona	-10.9844
▁magzat	-10.9844
▁tárgya	-10.9844
▁ev	-10.9846
▁teret	-10.9847
▁figyelni	-10.9847
▁ív	-10.9849
▁pat	-10.985
▁látó	-10.985
▁támogatását	-10.985
▁kaptunk	-10.985
▁elősegít	-10.9853
▁Videoton	-10.9853
▁Kim	-10.9854
ológus	-10.9854
▁örökség	-10.9855
▁Ausztriában	-10.9856
▁nagyváros	-10.9856
▁Zá	-10.9857
▁Lap	-10.9857
▁Ide	-10.9859
uf	-10.9861
▁id	-10.9863
▁grafik	-10.9866
▁Eredmények	-10.9869
▁okai	-10.9871
▁bombá	-10.9871
▁vizsgálni	-10.9872
▁jelentősége	-10.9873
▁feladatai	-10.9877
ble	-10.9881
▁négyszer	-10.9882
▁szenvedő	-10.9882
▁csodá	-10.9883
▁hette	-10.9886
▁Vagyon	-10.9887
▁hibák	-10.989
▁2001	-10.989
▁javasol	-10.9892
▁politikájá	-10.9894
orvos	-10.9895
▁tárol	-10.9896
▁készítette	-10.9897
alacsonyabb	-10.9901
nélkül	-10.9901
▁felnőttek	-10.9902
▁vezettek	-10.9908
▁adózás	-10.991
▁takarékos	-10.9911
▁Com	-10.9912
▁kitért	-10.9916
▁cáfol	-10.9917
▁Alekszandr	-10.9922
▁Rudolf	-10.9922
▁Volkswagen	-10.9922
▁daganat	-10.9922
▁erdély	-10.9922
▁tragédiá	-10.9922
▁Rózsa	-10.9922
▁Zöld	-10.9922
▁tömegközlekedés	-10.9922
▁Lyon	-10.9922
▁számunkra	-10.9924
▁székház	-10.9924
▁elnökválasztás	-10.9924
▁Daniel	-10.9924
▁Ernő	-10.9924
▁képzett	-10.9925
▁Alexand	-10.9925
▁megtesz	-10.9926
▁programban	-10.9927
▁körülményei	-10.9934
▁magyaráz	-10.9935
▁160	-10.9937
▁Petr	-10.9939
bó	-10.9941
▁tészt	-10.9942
▁Richard	-10.9942
▁nyomaték	-10.9943
▁parlamentbe	-10.9944
▁csatornák	-10.9946
▁művei	-10.9947
iába	-10.9948
▁alkalmazottak	-10.9951
▁tartom	-10.9954
▁mostan	-10.9956
fizetett	-10.9958
▁napjá	-10.996
▁olvasni	-10.9964
▁gyanúsítottak	-10.9966
▁olvasók	-10.9976
▁község	-10.9979
▁Vaj	-10.998
▁megvalósul	-10.9982
▁Közel	-10.9982
Például	-10.9982
▁nyíl	-10.9987
▁elrendelt	-10.9987
▁pontja	-10.999
▁hull	-10.9992
sima	-10.9993
▁192	-10.9996
▁Pin	-10.9996
ktív	-10.9997
▁készültek	-10.9998
uz	-10.9999
▁Devecser	-11.0001
▁egyiptomi	-11.0001
▁bravúr	-11.0001
▁szőlő	-11.0001
▁belügyminiszter	-11.0001
▁futómű	-11.0002
Claud	-11.0003
▁haszon	-11.0003
▁házkutatás	-11.0003
▁Szép	-11.0004
▁bukkantak	-11.0005
▁kortárs	-11.0006
▁Han	-11.0006
▁gyümölcs	-11.0009
▁belépő	-11.001
gáz	-11.0011
▁ügyfelei	-11.0013
▁támogatások	-11.0022
▁kikötő	-11.0026
▁gyanúsít	-11.0026
▁tagadta	-11.0027
má	-11.0028
▁megválasztott	-11.0028
▁szerver	-11.003
▁Fu	-11.0033
▁Vagyi	-11.0035
▁többségé	-11.0037
▁vásárolni	-11.0043
▁lejárt	-11.0044
▁bővít	-11.0044
▁rock	-11.0044
▁3000	-11.0045
▁problémákat	-11.0047
itz	-11.0047
▁helyreállítás	-11.0048
▁báb	-11.0052
▁Hall	-11.0056
énnyel	-11.0056
▁fr	-11.0056
gej	-11.0057
almas	-11.0063
adék	-11.0065
▁szereti	-11.0068
fűzte	-11.0071
▁Alex	-11.008
▁télen	-11.0081
▁Február	-11.0081
▁Kultur	-11.0081
▁kastély	-11.0081
▁képregény	-11.0081
▁küzdött	-11.0084
▁XII	-11.0086
▁ellátott	-11.0087
▁tevékenyked	-11.0087
▁vetít	-11.009
▁értékelte	-11.0093
▁elemzése	-11.0093
▁ellenállás	-11.0093
▁tapasztal	-11.0094
▁számtalan	-11.0094
▁alapja	-11.0096
gyár	-11.0096
▁vizsgálták	-11.0098
▁cselekmény	-11.0101
test	-11.0105
▁6,5	-11.011
▁békés	-11.0113
▁utakon	-11.0114
▁szerződése	-11.0117
▁esetet	-11.0118
▁interjút	-11.0122
▁versenyek	-11.0126
eink	-11.0136
▁gyógyszerek	-11.0136
KI	-11.0137
egasztár	-11.0138
alap	-11.0138
▁elindul	-11.0139
▁Antoni	-11.0139
cím	-11.0142
emelés	-11.0143
▁találja	-11.0144
▁mérő	-11.015
▁betölt	-11.015
▁megjelenése	-11.0151
▁"...	-11.0152
▁téri	-11.0152
lav	-11.0153
▁Vel	-11.0156
rüsszel	-11.0156
▁Hold	-11.0157
▁szol	-11.0157
▁összeköt	-11.0161
▁cm	-11.0161
ogó	-11.0162
▁továbbjutás	-11.0162
▁éjfél	-11.0162
▁Kádár	-11.0162
▁doktor	-11.0162
▁jegyzőkönyv	-11.0162
▁ifjú	-11.0162
▁ingatlanok	-11.0171
ázás	-11.0173
▁vezetésével	-11.0173
▁jegyében	-11.0175
▁pihenő	-11.0178
▁épületet	-11.018
▁07	-11.0181
▁keltett	-11.0182
▁indok	-11.0184
▁za	-11.0185
▁órára	-11.0189
▁támadást	-11.0191
▁utcák	-11.0191
▁nézett	-11.0191
ndy	-11.0193
▁nézte	-11.0198
▁est	-11.0199
▁pót	-11.0199
▁Philadelphi	-11.0199
▁szórakoztató	-11.0201
▁üzemel	-11.0202
▁Irak	-11.0205
▁ut	-11.0205
▁vegye	-11.0205
▁koránt	-11.0205
▁kollégá	-11.0209
▁far	-11.021
▁tanít	-11.0211
▁2-2	-11.0212
▁szerető	-11.0213
▁integráció	-11.0214
▁folytatni	-11.0214
▁növekedett	-11.0218
▁esés	-11.0218
▁szabályokat	-11.0221
intézet	-11.0221
▁drágább	-11.0222
▁eink	-11.0223
▁kijelölt	-11.0224
▁költöz	-11.0224
program	-11.0224
▁erővel	-11.0228
▁Net	-11.0232
nnyel	-11.0234
▁láz	-11.0235
▁eleme	-11.0238
▁Kérdés	-11.024
▁kiegészítő	-11.0241
▁dohány	-11.0242
▁sért	-11.0242
▁fenntartható	-11.0242
▁törekvés	-11.0242
couver	-11.0242
▁Kiderült	-11.0243
▁Sebasti	-11.0243
▁hivatás	-11.0243
▁legerősebb	-11.0243
▁szponzor	-11.0243
▁északnyugat	-11.0243
▁barátság	-11.0243
▁esküvő	-11.0243
▁szűn	-11.0244
▁idézett	-11.0245
▁villany	-11.0245
▁hazugság	-11.0245
gue	-11.0245
▁brutális	-11.0247
line	-11.0248
▁hozzátartozó	-11.0248
▁szürke	-11.0254
▁hetnek	-11.0257
▁viadal	-11.0258
▁Gáz	-11.0259
▁elnöksége	-11.026
▁lovag	-11.026
▁áját	-11.0262
▁mérkőzések	-11.0264
rí	-11.0266
▁ge	-11.027
változás	-11.0277
▁mérkőzésén	-11.0278
▁állapította	-11.028
▁Barát	-11.028
▁Bill	-11.0283
▁változó	-11.0283
▁gen	-11.0284
▁emelni	-11.0288
▁kint	-11.0292
▁tegye	-11.0292
▁következménye	-11.0294
▁Pen	-11.0298
▁megegyezés	-11.03
▁szárny	-11.0301
ggyel	-11.0303
▁családja	-11.0303
mennyire	-11.0306
állomány	-11.0307
▁készen	-11.0307
▁kérésé	-11.0313
▁szereztek	-11.0316
▁iszap	-11.0318
▁eik	-11.0324
▁US	-11.0324
▁Labdarúgó	-11.0325
▁Nógrád	-11.0325
indows	-11.0325
▁tábornok	-11.0325
▁beszállító	-11.0325
▁kollekt	-11.0325
▁0,6	-11.0326
▁színeiben	-11.0326
▁milliméter	-11.0326
▁Csütörtökön	-11.0326
▁áfa	-11.0326
▁java	-11.0327
▁maradványai	-11.0328
▁Frankfurt	-11.0329
▁Ivan	-11.0331
▁romantik	-11.0333
▁lovas	-11.0334
▁Szóval	-11.0337
▁inger	-11.034
▁pártot	-11.0341
▁bél	-11.0343
▁műszer	-11.0343
▁alapjai	-11.0348
▁viharos	-11.0349
▁tábla	-11.0354
▁hatását	-11.0355
▁alapítója	-11.0356
▁működésé	-11.0358
▁filmjé	-11.0367
▁Kf	-11.037
▁korszerű	-11.0376
▁mérlegel	-11.0383
▁maradék	-11.0384
▁Brüsszel	-11.0385
▁országnak	-11.0388
▁édes	-11.0391
▁Ric	-11.0392
▁fogalma	-11.0392
▁téve	-11.0393
▁bővült	-11.0397
▁darabot	-11.0398
döbben	-11.0407
▁Berlusconi	-11.0408
▁Internazionale	-11.0408
▁rugalmas	-11.0408
▁zloty	-11.0408
▁Ibolya	-11.0408
▁kamera	-11.0408
▁pszichológus	-11.0408
▁bomba	-11.0408
▁6:2	-11.0408
▁kockázati	-11.0408
▁posta	-11.0409
járat	-11.041
▁hangoztatta	-11.041
▁megállapítás	-11.0411
▁könnyedén	-11.0411
▁győzelemmel	-11.0412
▁Előbb	-11.0412
▁Volán	-11.0415
▁Team	-11.0415
▁tizenhat	-11.0417
▁visszavágó	-11.0417
▁korlátozott	-11.0419
▁aink	-11.0421
▁teljesíteni	-11.0421
zu	-11.0422
▁Elő	-11.0423
▁3-4	-11.0424
▁forgalmazó	-11.0427
▁születik	-11.0428
haladta	-11.0431
▁kérdésben	-11.0434
▁menedzsere	-11.0436
▁élére	-11.0439
▁nagyot	-11.0441
▁telefonál	-11.0442
▁Twitter	-11.0444
▁használták	-11.0446
▁ujj	-11.0447
▁Dom	-11.0447
▁Gre	-11.0448
hr	-11.0453
▁biztosította	-11.0453
vették	-11.0454
▁foglalkozás	-11.0455
▁Nas	-11.0458
▁Cseh	-11.0461
▁kísérlete	-11.0464
▁fotós	-11.0465
kozott	-11.0472
▁Haza	-11.0473
ütés	-11.0474
▁díját	-11.0475
▁mutatója	-11.0475
▁telen	-11.0477
▁jelentések	-11.0479
▁ejt	-11.0479
▁lendület	-11.0482
▁csapatnak	-11.0482
▁késés	-11.0483
▁ügyekben	-11.0485
cium	-11.0485
elvileg	-11.0485
▁témák	-11.0487
▁Október	-11.0491
▁konferencia	-11.0491
▁Legalább	-11.0491
▁összehangol	-11.0491
▁kártya	-11.0491
▁Belgium	-11.0491
▁párharc	-11.0492
PSV	-11.0492
▁Heves	-11.0493
▁csapatban	-11.0493
ugró	-11.0493
▁hozhat	-11.0493
▁borult	-11.0494
▁vízállás	-11.0495
▁játsz	-11.0495
▁emeltek	-11.0496
▁tapasztalatok	-11.0497
▁Kér	-11.0497
▁mondtam	-11.0499
▁emberei	-11.0501
▁maradjon	-11.0501
▁Hf	-11.0501
▁bírálat	-11.0502
▁Vo	-11.0506
állyal	-11.0511
▁szemtanú	-11.0512
▁nevelő	-11.0512
▁pihen	-11.0516
juttatott	-11.0516
szögezte	-11.0517
▁felhívás	-11.052
▁szélső	-11.0522
inform	-11.0526
▁teheti	-11.053
ekvő	-11.053
▁megáll	-11.0532
utomatikusan	-11.0534
▁fogyaszt	-11.0536
hit	-11.0537
▁ókor	-11.0538
▁zott	-11.054
▁jegyzése	-11.0545
▁őriz	-11.0546
▁vállalás	-11.0551
▁változást	-11.0553
▁kétmillió	-11.0555
▁mérete	-11.0557
▁köre	-11.0558
▁00	-11.0558
kívül	-11.0559
▁felszerelés	-11.0559
▁Mont	-11.056
▁rendelkez	-11.0561
▁országai	-11.0561
▁olyanok	-11.0561
▁búcsú	-11.0563
▁2-0-	-11.0564
hessen	-11.0564
▁technika	-11.0566
▁értesülései	-11.0566
▁merül	-11.0567
▁támadt	-11.057
gyullad	-11.0574
▁ugrás	-11.0575
▁washington	-11.0575
▁Kálmán	-11.0575
▁Attilá	-11.0575
▁Forrás	-11.0575
▁őszinte	-11.0575
▁törvényhozás	-11.0575
▁homok	-11.0575
▁mesterséges	-11.0576
▁vízszint	-11.0576
▁időtartam	-11.0576
▁91	-11.0579
▁mellette	-11.0579
▁megtalálható	-11.058
▁főút	-11.0581
▁Vf	-11.0581
▁leminősítés	-11.0582
▁Opel	-11.0583
tartott	-11.0589
▁1,9	-11.059
▁MKB	-11.0592
▁nyoma	-11.0592
▁lejárat	-11.0597
▁sérültek	-11.06
▁Jelen	-11.0601
▁Post	-11.0601
fal	-11.0601
▁PSZÁF	-11.0603
▁megvalósítás	-11.0603
▁regisztrált	-11.0604
▁decemberi	-11.0604
etlenül	-11.0605
▁pótol	-11.0605
▁Nos	-11.0606
▁vezetőség	-11.0612
▁rám	-11.0612
▁MA	-11.0612
▁jutnak	-11.0613
iss	-11.0614
▁Wa	-11.0619
▁Olaszországban	-11.0623
▁tudatta	-11.0623
▁indítás	-11.0624
▁pályázatot	-11.0625
▁alkalm	-11.063
▁Os	-11.0632
▁su	-11.0632
▁kedve	-11.0632
▁olaszok	-11.0638
fejtette	-11.0641
szerelés	-11.0642
▁Kárpát	-11.0658
▁gyakori	-11.0659
▁előzmény	-11.066
▁palack	-11.066
▁fokoz	-11.0661
▁Blue	-11.0664
▁öngyilkosság	-11.0665
▁tűzoltóság	-11.0665
ehéz	-11.0666
▁pol	-11.0669
▁Nyolc	-11.067
éllyel	-11.0674
mód	-11.0674
▁nyilatkozata	-11.0675
▁ilyet	-11.0675
▁kiírt	-11.0675
▁verték	-11.0678
▁Max	-11.0678
▁senkinek	-11.0678
▁teker	-11.0681
▁csökkentése	-11.0685
ulvár	-11.0685
zuki	-11.0686
▁köthet	-11.0687
▁Un	-11.069
▁ügynökség	-11.0692
▁Fidesznek	-11.0693
▁szíves	-11.0693
▁FM	-11.0696
▁elismert	-11.0697
▁Sziget	-11.0697
▁ismerteti	-11.0702
ázó	-11.0702
▁cikke	-11.0703
▁kórházak	-11.0706
▁használta	-11.0706
▁meghaladj	-11.0707
▁Kun	-11.0711
▁nevel	-11.0713
▁otthont	-11.0713
▁Vancouver	-11.0717
▁Londonban	-11.0717
▁alapanyag	-11.0719
▁hajtás	-11.0722
▁ügye	-11.0722
▁poz	-11.0722
▁kötni	-11.0722
▁segítségé	-11.0724
▁ellensége	-11.0728
▁pá	-11.0731
▁lőtte	-11.0732
▁Pont	-11.0735
döntő	-11.0735
▁hadi	-11.0738
uch	-11.0738
▁kétezer	-11.0739
▁mm	-11.0743
▁International	-11.0745
▁Március	-11.0745
▁kormányrendelet	-11.0745
▁Általános	-11.0745
▁Hoffman	-11.0745
▁sürget	-11.0746
▁nyilvánított	-11.0747
▁Jackson	-11.0747
▁öz	-11.0747
▁szolgáltat	-11.0747
▁jegyző	-11.0747
▁Egyszer	-11.0748
▁gondjai	-11.075
▁ré	-11.0753
▁éig	-11.0753
▁erősség	-11.0756
▁vers	-11.0757
▁állása	-11.0757
szék	-11.0757
▁son	-11.0758
▁tűzoltó	-11.0759
▁zenész	-11.076
▁Nor	-11.0764
▁News	-11.0764
▁Gásp	-11.0765
▁Afrika	-11.0769
▁engedte	-11.0769
▁sakk	-11.077
busz	-11.077
tandard	-11.0778
onc	-11.0779
▁képviselet	-11.078
▁becsül	-11.078
▁dni	-11.0784
▁végezni	-11.0784
erre	-11.0787
▁szerelmes	-11.0788
omp	-11.0788
▁alakja	-11.0791
▁3-0	-11.0791
▁növelt	-11.0793
▁érv	-11.08
▁haladt	-11.0803
▁eltör	-11.0807
▁amin	-11.0815
ford	-11.0817
Fidesz	-11.0818
▁bekövetkez	-11.0818
▁kodás	-11.0822
oldal	-11.0829
▁Em	-11.0831
▁állampapír	-11.0832
▁demonstráció	-11.0832
▁dopping	-11.0832
▁konstrukció	-11.0832
▁megkezdt	-11.0832
▁vigyáz	-11.0832
▁Értéktőzsd	-11.0832
▁krónik	-11.0832
▁srác	-11.0832
▁gerinc	-11.0832
▁repülőtere	-11.0832
▁szoba	-11.0832
▁foly	-11.0833
▁mélypont	-11.0834
▁Merkel	-11.0835
▁gyártott	-11.0836
▁zsák	-11.0836
▁kód	-11.0836
▁hívei	-11.0839
▁végrehajt	-11.0839
▁körút	-11.084
▁Fin	-11.084
▁javára	-11.0841
▁érdeke	-11.0842
▁rendelkezésére	-11.0845
▁ügyvédje	-11.0846
▁kitörés	-11.0846
▁pontok	-11.0846
▁államtitkára	-11.0852
ence	-11.0856
kevés	-11.0856
▁rendelkeznek	-11.0859
enu	-11.0864
▁szar	-11.0865
▁csomagot	-11.0873
▁árokba	-11.0876
▁kom	-11.0877
▁teljesítő	-11.0877
jo	-11.0882
cker	-11.0882
▁áldozata	-11.0883
▁erősödés	-11.0883
▁Fog	-11.0885
▁választani	-11.0885
▁ered	-11.0889
▁képe	-11.0894
▁Egészségügy	-11.0898
▁Mad	-11.0902
▁összefogás	-11.0902
▁kategóriába	-11.0902
áris	-11.0903
Fotó	-11.0906
közép	-11.0906
völgy	-11.0906
▁újból	-11.091
▁tornán	-11.091
▁töröl	-11.091
▁újjá	-11.0919
▁mechanizmus	-11.0919
▁konyhá	-11.0919
▁egyezmény	-11.0919
▁Fradi	-11.0919
▁0,8	-11.0919
▁döntenek	-11.092
▁Vajda	-11.092
▁Gondol	-11.092
gonosz	-11.092
törés	-11.0921
▁Nicola	-11.0921
jének	-11.0921
onzor	-11.0926
tesse	-11.0927
▁Bog	-11.0927
▁hányad	-11.0928
▁munkahelyek	-11.0928
▁rom	-11.0929
▁kézzel	-11.0929
▁elfogadható	-11.0929
▁látjuk	-11.0931
bál	-11.0933
▁jogai	-11.0937
kötő	-11.0938
▁javasolja	-11.094
▁kérnek	-11.094
▁kihallgatás	-11.094
▁boltok	-11.0941
▁visszavonul	-11.0942
▁kísérő	-11.0945
jka	-11.0949
▁Mars	-11.0951
▁ival	-11.0954
▁tagjainak	-11.0954
▁1994	-11.0954
▁elemez	-11.0955
▁előállított	-11.0957
▁eleje	-11.0958
▁kezel	-11.0959
▁bővebb	-11.0964
▁lelk	-11.0966
kciós	-11.0967
▁ránk	-11.0967
▁februári	-11.0968
▁eredményét	-11.0969
▁továbbiak	-11.0971
▁okról	-11.0976
▁készültséget	-11.0979
▁hangsúlyoz	-11.098
▁Haiti	-11.0981
▁címe	-11.0981
▁leány	-11.0985
▁poli	-11.0986
▁fogunk	-11.0987
▁rabló	-11.0987
▁vetette	-11.0988
határ	-11.0992
▁dolg	-11.0993
cég	-11.0993
▁ösztönz	-11.0994
▁fordítás	-11.0998
▁Cu	-11.0998
90	-11.0998
▁veszteséget	-11.0999
▁erejé	-11.1001
▁Michel	-11.1003
▁jeges	-11.1003
▁Zsigmond	-11.1006
▁Peking	-11.1006
▁hűtő	-11.1007
▁gőz	-11.1007
▁kamatemelés	-11.1007
▁áprilisi	-11.1007
▁tárcá	-11.1007
▁hiányosság	-11.101
▁képei	-11.101
▁Angliában	-11.1011
▁pszichológia	-11.1011
▁gólját	-11.1013
dolgozott	-11.1013
▁közeled	-11.1014
▁vállalja	-11.1014
▁tartózkodás	-11.1014
▁Jose	-11.1014
▁Krisztina	-11.1014
▁rajtuk	-11.1015
▁menő	-11.1016
▁összehasonlítás	-11.1016
▁különböz	-11.1016
▁postá	-11.1018
▁konferenciá	-11.1019
▁nyílik	-11.1022
▁értelmezés	-11.1028
▁emberiség	-11.1029
▁járni	-11.1032
▁benyújt	-11.1035
▁Brüsszelben	-11.1037
▁gyártók	-11.1043
▁okon	-11.1043
▁Husz	-11.1044
▁rokon	-11.1044
▁esélyt	-11.1044
ska	-11.1045
SC	-11.1048
▁meghatározás	-11.1049
▁módja	-11.1049
▁unoká	-11.1049
▁tartoz	-11.1051
▁her	-11.1053
▁kémia	-11.1054
▁kedés	-11.1057
▁Emlék	-11.1058
▁bíróságon	-11.1061
▁elnökét	-11.1061
▁eszközt	-11.1066
▁megpróbálta	-11.1067
▁évről	-11.1067
sajtótájékoztató	-11.1068
▁gyerekei	-11.1073
▁Külön	-11.1075
▁politikát	-11.1076
joggal	-11.1079
lány	-11.1079
▁védelmet	-11.1079
▁vádlotta	-11.1083
tábor	-11.1084
▁hátul	-11.1086
▁tál	-11.1086
▁regénye	-11.1086
▁kötőd	-11.1091
▁öngyilkos	-11.1091
▁Katasztrófa	-11.1095
▁Népszava	-11.1095
▁Program	-11.1095
▁alpolgármester	-11.1095
▁drasztikus	-11.1095
▁korrekt	-11.1095
▁veszélyt	-11.1095
▁farag	-11.1095
▁futballistá	-11.1096
iffer	-11.1096
▁Ahhoz	-11.1097
▁hallani	-11.1099
▁halálra	-11.1101
▁kerüljön	-11.1102
Bihar	-11.1102
▁voksolás	-11.1103
▁liszt	-11.1104
▁4-1	-11.1106
▁elméleti	-11.1107
▁pillanatok	-11.1109
▁Szo	-11.111
▁utó	-11.111
▁terméket	-11.1111
▁tartózkodó	-11.1113
▁szigor	-11.1113
▁méz	-11.1113
▁AC	-11.1113
▁szorít	-11.1115
▁működnek	-11.1116
yd	-11.1118
▁lezárták	-11.112
szorító	-11.1123
▁Che	-11.1124
▁Rod	-11.1124
tartani	-11.1125
▁jelentőség	-11.1125
ozza	-11.1129
▁publikált	-11.113
▁árad	-11.1133
▁1990	-11.1134
▁öv	-11.1138
▁nagyságrend	-11.114
▁bízik	-11.1141
némileg	-11.1142
▁letartóztatásba	-11.1146
▁irányít	-11.1149
▁heten	-11.115
▁ismertetés	-11.1151
▁Jár	-11.1154
▁figurá	-11.1155
▁magyarul	-11.1156
▁játssza	-11.1158
▁nemzetiség	-11.1158
▁előrejelzések	-11.1168
▁érni	-11.1168
▁olvasás	-11.117
▁közleked	-11.1171
IX	-11.1173
szár	-11.1174
▁vonatkozóan	-11.1175
lagos	-11.1178
▁kérelme	-11.1178
▁gyári	-11.1179
▁hozatal	-11.1182
▁Alig	-11.1182
▁depresszió	-11.1184
▁elöntött	-11.1184
▁eurózóna	-11.1184
▁kuratórium	-11.1184
▁regisztráció	-11.1184
▁Cameron	-11.1184
▁pohár	-11.1184
▁Button	-11.1184
▁korrekció	-11.1184
▁Túl	-11.1184
▁jogsértés	-11.1185
dupla	-11.1185
▁csepp	-11.1185
▁adócsökkentés	-11.1185
▁full	-11.1186
▁meztelen	-11.1186
▁királynő	-11.1186
▁omat	-11.1188
▁0,9	-11.1188
▁Kupá	-11.119
▁gyógyul	-11.119
▁szerkesztőség	-11.1192
▁magyarság	-11.1192
▁roppan	-11.1194
▁mennyisége	-11.1194
▁pasi	-11.1195
csuk	-11.1196
▁Tech	-11.1198
▁NASA	-11.121
ward	-11.1215
▁tiltakozó	-11.1216
uck	-11.1219
▁operáció	-11.1221
tették	-11.1222
▁rangsor	-11.1227
ET	-11.1229
▁szüntet	-11.123
▁válnak	-11.1233
▁csendes	-11.1236
▁Benk	-11.1241
▁ismerked	-11.1242
▁foglalkozott	-11.1244
▁0-2	-11.1244
▁csoportot	-11.1244
▁ütés	-11.1244
▁szül	-11.1249
asztal	-11.1251
▁hódít	-11.1253
▁életkor	-11.1257
▁autóban	-11.1261
▁sár	-11.1262
autó	-11.1265
▁felelősséget	-11.1265
▁egyszerűbb	-11.1266
▁ellenőrzése	-11.127
▁zik	-11.1272
▁Véleménye	-11.1273
▁Mourinho	-11.1274
▁alapkamat	-11.1274
▁tranzakció	-11.1274
▁veszprémi	-11.1274
▁csekély	-11.1274
▁haláleset	-11.1274
▁szállította	-11.1275
▁kedvezőtlen	-11.1275
▁érez	-11.1276
▁interjújában	-11.1277
áért	-11.1277
▁iPhone	-11.1277
▁javítani	-11.1278
▁mindenütt	-11.1278
▁tűr	-11.128
▁Fiat	-11.128
▁értéket	-11.128
hl	-11.1282
▁teendő	-11.1283
rich	-11.1283
száj	-11.1283
▁tanulság	-11.1283
▁állapít	-11.1284
▁rendeznek	-11.1287
▁tudósítás	-11.1288
helyettese	-11.1288
▁válogatás	-11.1288
▁elnököt	-11.1289
▁anyja	-11.129
töltött	-11.1291
▁fest	-11.1292
indkét	-11.1292
▁cikkében	-11.1293
▁kiadása	-11.1293
áját	-11.1294
▁Zo	-11.1294
ES	-11.1294
▁FIFA	-11.1295
pres	-11.1296
▁északkelet	-11.1296
▁Mindezek	-11.1298
▁Kg	-11.1298
▁kialakításá	-11.1303
▁kettőt	-11.1305
▁eredményeit	-11.1306
▁tároló	-11.1307
▁csomagol	-11.1309
▁Orosz	-11.1313
▁érzik	-11.1321
▁int	-11.1327
vad	-11.133
▁ráta	-11.133
▁gu	-11.1333
▁érve	-11.1335
▁célz	-11.134
▁őrök	-11.1341
fganisztán	-11.1344
▁süt	-11.1344
▁mértek	-11.1345
▁tehetséges	-11.1346
▁arányos	-11.1349
▁területe	-11.1349
IS	-11.135
▁Sár	-11.1352
▁kocsit	-11.1353
hé	-11.1353
▁nőnek	-11.1359
▁veretlen	-11.1359
▁megoldások	-11.1362
▁aláír	-11.1364
▁tanult	-11.1364
▁Tele	-11.1364
▁Egyiptom	-11.1365
▁Gyermek	-11.1365
▁Hosszú	-11.1365
▁leggyorsabb	-11.1365
▁virtuális	-11.1365
▁fertőzött	-11.1365
▁látszott	-11.1365
▁minimálbér	-11.1365
▁sajtószóvivője	-11.1366
▁Út	-11.1366
▁torony	-11.1367
▁háromnegyed	-11.1367
▁tök	-11.1367
▁amatőr	-11.1367
▁milliárdot	-11.1368
▁kormánybiztos	-11.1368
▁egyenlített	-11.1369
▁bírálta	-11.137
▁szebb	-11.1371
▁társadalm	-11.1372
▁Wat	-11.1373
▁aranyérme	-11.1374
OP	-11.1375
▁szett	-11.1375
▁jellemzi	-11.1378
▁mostanában	-11.1379
▁népszerűsít	-11.1381
▁részleg	-11.1381
▁borított	-11.1385
▁térd	-11.1388
▁füst	-11.1389
ációs	-11.1391
▁élelmiszerek	-11.1391
▁Él	-11.1391
▁Hx	-11.1393
▁kiszab	-11.1394
▁futás	-11.1394
▁einket	-11.1395
▁Másod	-11.1396
▁címlap	-11.1397
▁bevet	-11.1398
▁szavazatok	-11.1399
▁januártól	-11.1399
▁Pic	-11.1401
▁berendezések	-11.1407
▁szerel	-11.141
választás	-11.1412
alakulása	-11.1415
▁tervet	-11.1417
▁Stars	-11.1419
▁tüntetők	-11.1419
▁kínos	-11.1421
▁Bag	-11.1426
▁Dor	-11.1428
▁nénk	-11.1429
▁modellt	-11.1433
▁alátámaszt	-11.1436
▁170	-11.1436
▁fejlesztése	-11.1436
osztály	-11.1439
▁megnyitó	-11.1441
▁Afganisztán	-11.1448
csomag	-11.1448
▁rámutat	-11.1448
▁Im	-11.1448
▁árulta	-11.1449
▁kinevezés	-11.1452
▁listáját	-11.1453
▁normál	-11.1454
▁Guardian	-11.1457
▁Rövid	-11.1457
▁energetika	-11.1457
▁panel	-11.1458
▁Ferihegy	-11.1458
▁intézkedései	-11.1459
hard	-11.1461
▁ásához	-11.1461
▁szolgált	-11.1465
▁játszanak	-11.1467
▁pályaudvar	-11.1468
▁megálló	-11.1468
▁téved	-11.1468
▁Mini	-11.147
▁04	-11.1476
▁Carl	-11.1477
▁tartály	-11.1478
▁energiá	-11.1479
▁bizonyítja	-11.1482
▁nyolcaddöntő	-11.1483
▁túrá	-11.1486
▁ajándékoz	-11.1489
▁sugárzás	-11.149
Sz	-11.149
▁Kül	-11.1492
▁kérhet	-11.1494
▁íteni	-11.1497
lay	-11.1497
▁terhes	-11.1505
ennyire	-11.1509
▁megfigyelő	-11.1513
úd	-11.1515
▁akarunk	-11.1516
▁té	-11.1519
▁Ameriká	-11.1519
▁megállapítása	-11.152
▁Kur	-11.152
▁reformok	-11.1524
▁csapattal	-11.1531
▁feltétele	-11.1532
▁forrásai	-11.1533
▁önt	-11.1533
vágás	-11.1534
▁országba	-11.1535
▁kapuba	-11.1536
jára	-11.1538
▁felmerül	-11.1542
▁Angli	-11.1545
▁gondok	-11.1546
▁korú	-11.1548
erről	-11.1549
▁2-1-	-11.1549
▁Hungária	-11.1549
▁munkaviszony	-11.1549
▁bélyeg	-11.1549
▁iPad	-11.1549
▁húsvét	-11.1549
▁szembesül	-11.155
▁Dénes	-11.155
▁bánya	-11.155
▁kerítés	-11.155
▁indokolatlan	-11.1551
▁Szám	-11.1552
▁fordítani	-11.1554
▁Ronaldo	-11.1554
▁Play	-11.1554
▁3,9	-11.1559
▁zöm	-11.1562
▁Grand	-11.1562
▁szemet	-11.1562
▁rögzít	-11.1563
▁különbségek	-11.1567
▁Ok	-11.157
hang	-11.1572
▁Ill	-11.1574
▁követelte	-11.1574
▁börtönben	-11.1575
▁szor	-11.1576
▁Oroszországban	-11.1577
▁meccsek	-11.158
▁Olimpia	-11.1581
▁adatot	-11.1581
bar	-11.1583
▁750	-11.1583
▁szerek	-11.1588
▁kezét	-11.159
▁csip	-11.1591
▁atlan	-11.1591
▁visszalépés	-11.1591
emelték	-11.1593
▁tudhat	-11.1595
ítenek	-11.1595
▁élhet	-11.1598
su	-11.16
jogi	-11.1601
▁Erik	-11.1604
▁rendezvények	-11.1608
▁gyógyít	-11.1608
▁festett	-11.1614
▁Hó	-11.1615
▁figyelmeztetés	-11.1621
kerül	-11.1626
▁rendőrséget	-11.1627
ary	-11.1628
▁Ig	-11.163
▁ped	-11.163
▁kezdőd	-11.1631
▁villá	-11.1635
arányos	-11.1636
szövetség	-11.1637
-15	-11.1637
▁hasson	-11.1637
▁Maga	-11.1639
unió	-11.1641
▁segéd	-11.1641
▁győzelm	-11.1643
▁Elmondta	-11.1643
▁Szerbia	-11.1643
▁lassabb	-11.1643
▁Jersey	-11.1643
▁narancs	-11.1643
▁hím	-11.1643
▁folyosó	-11.1643
▁Bizony	-11.1643
▁unalmas	-11.1643
▁emelkedő	-11.1643
▁Hírlap	-11.1643
▁túlsúly	-11.1644
▁SC	-11.1645
▁költözött	-11.1645
▁érkezés	-11.1645
▁csata	-11.1646
▁talan	-11.1647
▁bátra	-11.1647
▁Debrecenben	-11.165
▁indexe	-11.1652
▁áldozatai	-11.1652
▁mérséklőd	-11.1653
200	-11.1653
▁Bern	-11.1653
tevő	-11.1654
▁nyeremény	-11.1656
▁külföldre	-11.1656
stein	-11.1657
▁ezüstérme	-11.1658
▁kijelző	-11.1658
jog	-11.1659
menő	-11.166
▁produkál	-11.1661
▁Rossz	-11.1661
▁!!	-11.1662
zsol	-11.1663
módosítás	-11.1664
▁díja	-11.1666
▁háromszoros	-11.1667
▁Valencia	-11.1668
TI	-11.1668
▁ték	-11.167
▁diktatúr	-11.1675
▁tervezik	-11.1677
▁pályázó	-11.1681
▁kinevez	-11.1682
▁elme	-11.1683
▁Erika	-11.1685
▁2012	-11.1685
▁King	-11.1686
▁Pil	-11.1687
gin	-11.1687
adja	-11.1688
▁érhető	-11.1688
▁károkat	-11.1688
▁célt	-11.1692
▁színek	-11.1694
▁kapcsolatai	-11.1695
nyarán	-11.1701
nár	-11.1708
▁nyilatkozni	-11.171
▁felelősségre	-11.1712
▁fogadás	-11.1712
auer	-11.1715
▁elment	-11.1718
▁tanulás	-11.1719
dés	-11.1724
▁ügylet	-11.1724
▁kérik	-11.1725
▁találkozta	-11.1726
way	-11.1731
▁dobta	-11.1732
▁euróra	-11.1734
▁jegyet	-11.1736
▁pincé	-11.1737
▁Biztonság	-11.1737
▁Clinton	-11.1737
▁DVD	-11.1737
▁Tottenham	-11.1737
▁császár	-11.1737
▁junior	-11.1737
▁laboratórium	-11.1737
▁tragédia	-11.1737
▁választópolgár	-11.1737
▁Kocsis	-11.1737
▁Nobel	-11.1738
▁Black	-11.1738
jövőben	-11.1739
▁olni	-11.1739
▁életmód	-11.174
▁katasztrófavéd	-11.1743
▁kamerák	-11.1743
▁örökös	-11.1744
▁szólnak	-11.1745
▁2,3	-11.1745
▁segítse	-11.1748
▁értékesít	-11.175
▁augusztusban	-11.175
▁befogadó	-11.175
▁autópályán	-11.1751
▁Dab	-11.1752
▁elkezdte	-11.1752
▁boldogság	-11.1754
▁Tisztel	-11.1757
▁Bob	-11.176
▁Bru	-11.1764
szav	-11.1766
▁kiírás	-11.1767
▁hatták	-11.1767
▁Faze	-11.177
▁megvizsgál	-11.1771
▁Ty	-11.1772
▁rendőröket	-11.1773
▁büszke	-11.1774
▁Bán	-11.1777
▁Ren	-11.1778
▁liga	-11.1778
▁javasolt	-11.1778
eck	-11.1781
▁gyerekeknek	-11.1784
▁érdeklődő	-11.1784
▁szeretett	-11.1785
▁Fic	-11.1785
▁szu	-11.1785
▁munkába	-11.1786
▁elterjedt	-11.1787
▁ber	-11.1789
getés	-11.179
▁pályázatok	-11.1791
▁helyzetek	-11.1792
▁értékesített	-11.1792
▁alkalmazni	-11.1795
zsák	-11.1796
▁ültet	-11.18
▁érme	-11.1802
▁tárgyaló	-11.1804
▁energiát	-11.1804
▁sajt	-11.1806
▁szankciók	-11.1814
▁hordó	-11.1815
▁vonz	-11.1816
▁veszélybe	-11.1816
▁merít	-11.1816
eséllyel	-11.1816
▁Szerd	-11.1817
▁utólag	-11.1817
▁szakadt	-11.1818
▁baja	-11.1825
gólos	-11.1828
futás	-11.1829
jével	-11.1831
▁Financia	-11.1832
▁menedzsment	-11.1832
▁Ismét	-11.1832
▁szabadláb	-11.1834
▁Ram	-11.1835
▁elkészítésé	-11.1835
▁hitelező	-11.1836
▁elfogadhatatlan	-11.1837
▁bevonásá	-11.1838
▁cáfolta	-11.1838
▁Gárd	-11.1839
▁ezett	-11.184
▁lan	-11.184
▁maguknak	-11.1844
▁felszerelt	-11.1844
▁neked	-11.1845
▁vonatkozás	-11.1845
▁rámutatott	-11.1846
▁influenza	-11.1846
▁link	-11.1848
▁érvelt	-11.1851
▁Marto	-11.1852
▁helyszínről	-11.1853
▁közöl	-11.1854
▁pilótá	-11.1854
RI	-11.1856
▁klasszis	-11.1861
▁lakások	-11.1866
▁szerzők	-11.187
▁kedvezőbb	-11.187
▁szesz	-11.187
▁fát	-11.1872
▁Fal	-11.1875
tetni	-11.1876
▁demokraták	-11.1876
▁kupa	-11.1882
▁táská	-11.1884
▁okát	-11.189
EM	-11.1892
▁győzni	-11.1897
▁Angel	-11.1898
▁zárja	-11.1898
▁leszünk	-11.1905
▁Rom	-11.1906
▁gyanújá	-11.1907
▁teremtett	-11.1908
▁hatást	-11.1909
▁kezelt	-11.1912
erin	-11.1913
▁másikat	-11.1917
▁összehasonlít	-11.1918
asszony	-11.1927
▁optim	-11.1928
_	-11.1929
©	-11.1929
▁Sarkozy	-11.1929
▁ombudsman	-11.1929
▁vígjáték	-11.1929
▁ördög	-11.1929
▁Fulham	-11.1929
▁emelkedtek	-11.1929
▁Angol	-11.1929
iszlám	-11.1929
▁emészt	-11.1929
▁kritika	-11.1929
▁szerviz	-11.1929
▁előrelépés	-11.1929
▁építmény	-11.193
▁Boston	-11.1931
▁Politika	-11.1934
▁kommentár	-11.1934
▁félelem	-11.1934
▁vendéglátó	-11.1937
OS	-11.1938
▁hova	-11.1939
▁Újra	-11.194
▁Száz	-11.194
▁pakisztán	-11.1941
▁okozza	-11.1941
▁97	-11.1942
▁elkövetésé	-11.1942
▁vir	-11.1945
▁jelentkezés	-11.1948
▁megnyer	-11.1949
▁hajl	-11.195
kiegyensúlyozott	-11.1951
uff	-11.1952
▁riporter	-11.1955
▁évé	-11.1955
▁napközben	-11.196
▁kivételes	-11.1964
▁közelít	-11.1965
▁hangja	-11.1965
▁erőt	-11.1965
▁játssz	-11.1966
▁felajánlott	-11.1968
▁gondos	-11.1978
▁Szeret	-11.1986
▁jelentést	-11.1987
irat	-11.199
▁rendészet	-11.199
zuk	-11.1994
▁lefoglalt	-11.1995
▁múl	-11.1999
▁törlesztés	-11.2001
▁mentett	-11.2003
▁Tri	-11.2003
NA	-11.2003
mokratikus	-11.2004
▁megsemmisít	-11.2011
▁vetítés	-11.2011
▁befizetések	-11.2012
fertőz	-11.2014
▁védelmét	-11.2015
▁maradás	-11.2019
▁Alkotmány	-11.202
▁nyerhet	-11.2021
mentő	-11.2023
▁lassul	-11.2026
▁Dunaújváros	-11.2026
▁délnyugat	-11.2026
▁korrigál	-11.2026
▁nadrág	-11.2026
▁megjegyzés	-11.2026
▁Orvos	-11.2026
▁katalán	-11.2026
▁magánélet	-11.2026
▁pusztán	-11.2026
▁kapaszkod	-11.2026
▁Magazin	-11.2026
entúl	-11.2026
▁roncs	-11.2026
▁alapszakasz	-11.2026
▁hetetlen	-11.2027
▁értékét	-11.2028
▁visszafogott	-11.2029
▁Emil	-11.203
▁szabálytalan	-11.203
▁Kicsi	-11.2033
▁teljesítette	-11.2033
ségének	-11.2033
▁hozzáállás	-11.2034
▁veszélyben	-11.2035
▁Székely	-11.2036
▁Kiadó	-11.2036
▁méltóság	-11.2038
▁Trans	-11.2039
▁tagad	-11.2039
▁szakértője	-11.2039
▁fűszer	-11.204
▁Brad	-11.2041
▁légiós	-11.2042
▁táblázat	-11.2043
gli	-11.2045
záró	-11.2046
▁nőket	-11.2046
▁nevén	-11.2049
▁próbálkozás	-11.2049
▁pop	-11.2051
▁Pre	-11.2051
▁(27	-11.2053
▁Dam	-11.2054
▁senkit	-11.2054
▁utalva	-11.2055
▁támogatására	-11.2055
▁Kris	-11.2059
▁szervezte	-11.206
▁leves	-11.2061
▁ütötte	-11.2063
▁hozzájárult	-11.2064
▁Párizsban	-11.2066
▁vándor	-11.2066
▁kamara	-11.2067
▁munkások	-11.2067
▁történhet	-11.2075
▁beszélnek	-11.2078
▁szándéka	-11.2079
égett	-11.2081
▁gyakorlatban	-11.2082
▁együttese	-11.2082
▁(1	-11.2087
▁Sir	-11.2089
▁3-2	-11.209
▁Raj	-11.2091
▁madarak	-11.2095
▁szerencse	-11.2096
▁eladni	-11.2096
▁másképp	-11.2098
▁leáll	-11.2099
angol	-11.2101
▁lennie	-11.2102
▁gondolkod	-11.2105
▁Die	-11.2105
írás	-11.2105
▁cégnél	-11.2106
▁Sas	-11.2107
▁lemond	-11.2114
▁riport	-11.2116
ecskemét	-11.2117
▁napvilágot	-11.2124
▁ETO	-11.2124
▁csepel	-11.2124
▁Portugália	-11.2124
▁eredménnyel	-11.2124
hamisítás	-11.2125
▁előírt	-11.2125
▁magához	-11.2125
▁hónapjá	-11.2126
világítás	-11.2126
gsúlyosa	-11.2128
▁vegyé	-11.2128
▁Til	-11.2128
▁szavaztak	-11.2129
▁rekordo	-11.213
▁kft	-11.213
▁2,9	-11.2131
:30	-11.2133
kezdett	-11.2133
▁ásáról	-11.2133
▁kapcsolatba	-11.2137
▁érezhető	-11.2139
▁cső	-11.214
▁egymáshoz	-11.2143
▁gázolt	-11.2143
▁készség	-11.2143
▁következmények	-11.2144
▁szerelő	-11.2144
▁indultak	-11.2146
▁visszalép	-11.2149
▁Szem	-11.2149
▁meghívás	-11.215
▁korán	-11.2153
▁vadászat	-11.2153
▁forgalomban	-11.2157
▁perben	-11.2157
▁bajnokságot	-11.2158
▁régészet	-11.2161
▁érdekli	-11.2161
▁osztott	-11.2162
▁összefüggésbe	-11.2163
▁Med	-11.2164
▁alpe	-11.2166
▁forgalmazás	-11.2169
zze	-11.2169
▁1998	-11.2171
▁tényezők	-11.2171
▁Gri	-11.2172
▁azonosít	-11.2174
▁12:	-11.2178
ncze	-11.2179
hova	-11.2179
▁pilóták	-11.218
▁kapunk	-11.2181
▁összegek	-11.2186
▁lányt	-11.2189
▁gumik	-11.2189
lapot	-11.2192
▁függően	-11.2193
▁adatvédel	-11.2194
▁különösebb	-11.2194
jelentőse	-11.2196
▁érdekeltség	-11.2197
▁szólította	-11.2199
▁tanítás	-11.2199
▁szövet	-11.2199
▁legtöbbet	-11.2204
▁Igazság	-11.2204
romániai	-11.2205
▁Magyarországnak	-11.2206
▁uralkod	-11.2206
▁izmus	-11.2209
▁ített	-11.2211
▁Cap	-11.2214
▁alakított	-11.2215
▁teljesül	-11.2217
▁elárul	-11.2219
▁ügyelet	-11.2219
▁függetlenség	-11.222
▁változása	-11.222
▁pusztul	-11.2223
▁felbukkan	-11.2223
▁jellegzetes	-11.2223
▁kitűnő	-11.2223
▁pezsgő	-11.2223
▁fázis	-11.2223
▁szilárd	-11.2223
▁platform	-11.2223
▁Pintér	-11.2223
▁túlnyomó	-11.2224
▁párbeszéd	-11.2224
mutat	-11.2224
▁padló	-11.2225
▁portré	-11.2225
▁bocsánatot	-11.2225
▁kommentált	-11.2225
▁hetné	-11.2226
▁sejtek	-11.2227
▁haiti	-11.2227
▁jogállam	-11.2228
▁jelezték	-11.223
▁elemzője	-11.2232
GY	-11.2233
▁önként	-11.2235
▁ító	-11.2235
▁találnak	-11.2237
▁valószínűsít	-11.2239
▁álmod	-11.2241
▁nőttek	-11.2241
▁jelentik	-11.2241
▁Kör	-11.2241
▁versenyzők	-11.2243
▁elveszített	-11.2243
▁illat	-11.2243
▁Vám	-11.2244
▁cikkünk	-11.2245
▁letartóztatását	-11.2245
▁levele	-11.2246
▁ellenében	-11.2246
▁DVSC	-11.2248
▁műsorban	-11.2248
ellátás	-11.2249
▁eltiltás	-11.2249
▁kockázatok	-11.225
▁Ind	-11.2251
▁fordulójá	-11.2253
▁világra	-11.2254
▁végrehajtó	-11.2255
▁védelmé	-11.2257
▁letölt	-11.2258
▁sérti	-11.2259
▁futballoz	-11.2264
age	-11.2268
▁csapatát	-11.2273
▁süllyed	-11.2275
▁helyben	-11.2275
viselő	-11.2276
▁bajba	-11.2277
▁bennem	-11.2279
▁rendőrt	-11.2279
▁klubok	-11.2281
énél	-11.2281
▁hű	-11.2282
▁fizeti	-11.2284
▁járőrö	-11.2287
▁követelés	-11.2289
▁feltör	-11.2289
▁trükk	-11.2289
ohl	-11.229
▁Bécs	-11.2294
▁kering	-11.2296
▁legjobbak	-11.2296
▁választásokat	-11.2296
társával	-11.2302
▁ított	-11.2302
▁lapot	-11.2302
▁Bol	-11.2304
▁várta	-11.2309
EN	-11.231
▁övé	-11.231
▁szorult	-11.2318
▁Abu	-11.2319
▁véleked	-11.2319
▁törvényes	-11.232
oldalú	-11.2322
▁privatizáció	-11.2323
▁szórakozóhely	-11.2323
▁vizsga	-11.2323
▁!!!	-11.2323
▁Hitler	-11.2323
▁méh	-11.2323
▁Puská	-11.2323
czky	-11.2323
▁izom	-11.2323
▁Saját	-11.2323
▁Andor	-11.2324
▁temetés	-11.2325
▁verekedés	-11.2326
▁főorvos	-11.2327
▁meggyőző	-11.2327
▁képen	-11.2328
▁parkolás	-11.2328
üzem	-11.2331
▁elfogadásá	-11.2331
▁(1-0)	-11.2331
▁vádolják	-11.2332
▁Bd	-11.2334
Húsz	-11.2336
▁völgy	-11.2337
▁vicc	-11.2338
▁MLSZ	-11.2341
▁munkájuk	-11.2342
küld	-11.2342
hatás	-11.2343
▁Rafa	-11.2343
▁kol	-11.2344
▁szállított	-11.2346
well	-11.2346
építése	-11.2347
▁1,0	-11.2352
▁lámpá	-11.2352
▁életüket	-11.2353
▁fil	-11.2354
▁1997-	-11.2354
▁jegyzi	-11.2356
ollár	-11.236
▁gépet	-11.2365
▁férjé	-11.2367
▁formál	-11.2368
▁feltételei	-11.2368
vonat	-11.2369
▁kockázato	-11.2371
▁beton	-11.2375
▁elmé	-11.2375
▁igazolta	-11.2385
▁Pénzügy	-11.2386
▁órában	-11.2392
▁vihet	-11.2401
▁feltételeket	-11.2403
▁bírál	-11.2407
Koreá	-11.2408
▁körülményeit	-11.2409
▁kocsik	-11.2409
▁Semmi	-11.241
▁zsidók	-11.2412
▁láttak	-11.2413
▁rendezni	-11.2414
▁ismertett	-11.2415
▁írtak	-11.2415
▁aukció	-11.2416
▁sík	-11.2417
vás	-11.2417
pál	-11.2418
▁zárul	-11.242
▁1-0-	-11.2421
utasította	-11.2421
▁Nyilván	-11.2423
▁Phoenix	-11.2424
▁moratórium	-11.2424
▁kiindul	-11.2424
▁menedék	-11.2424
▁Könny	-11.2424
▁fizess	-11.2424
▁makro	-11.2424
fontosság	-11.2424
▁dohányzás	-11.2425
▁töltés	-11.2425
▁(9	-11.2425
▁korona	-11.2425
cu	-11.2427
▁véres	-11.2427
szolgáltatás	-11.2428
▁viselt	-11.2428
▁elmenekült	-11.2429
▁barna	-11.2429
▁ebéd	-11.243
▁igényei	-11.243
▁kisváros	-11.2431
BS	-11.2432
▁módszerek	-11.2434
▁szőr	-11.2434
▁alkatrész	-11.244
▁közvetítő	-11.244
▁nyilatkozato	-11.2441
▁leszögezte	-11.2443
ütötte	-11.2443
▁gramm	-11.2445
elmes	-11.2449
60	-11.2449
▁programját	-11.245
▁hajtó	-11.245
helyezett	-11.2455
▁üzletek	-11.2457
box	-11.2457
szolgáltató	-11.246
▁beszélve	-11.2461
▁készítés	-11.2461
terem	-11.2466
▁költen	-11.2466
▁győzelmét	-11.2471
djon	-11.2472
▁termékei	-11.2473
halm	-11.2473
▁gondoskod	-11.2477
▁gyűlt	-11.2477
▁előnyt	-11.2478
▁megszorítások	-11.2479
▁helyszíne	-11.248
▁ülni	-11.2485
▁125	-11.2492
▁történteket	-11.2493
▁kifogásol	-11.2494
▁pedagógus	-11.2496
▁Pesti	-11.2499
▁nyújtó	-11.2505
▁hatású	-11.2506
▁pénzből	-11.2507
▁róluk	-11.2511
▁koroná	-11.2511
haladó	-11.2512
Ma	-11.2518
zékesfehérvár	-11.2518
▁informá	-11.2523
▁ülések	-11.2524
▁debütál	-11.2526
▁világhírű	-11.2526
Medvegyev	-11.2526
▁Sevill	-11.2526
▁kutatócsoport	-11.2527
▁kavar	-11.2527
▁józan	-11.2527
IB	-11.2528
óceán	-11.2528
▁Gro	-11.2528
▁kockázata	-11.2528
▁részvényei	-11.2528
gány	-11.2528
▁tender	-11.253
▁nézzük	-11.2531
▁kocká	-11.2531
▁üzletág	-11.2532
▁integrál	-11.2533
▁Felső	-11.2535
▁Bon	-11.2537
▁rombol	-11.2545
▁utazik	-11.2547
lövő	-11.2548
▁növekedésé	-11.2548
▁elemei	-11.2551
▁Medve	-11.2559
▁kötés	-11.2564
▁hajléktalanok	-11.2566
▁ükkel	-11.2567
▁kiderít	-11.2569
▁tanulni	-11.2569
▁hetes	-11.257
▁képző	-11.2572
▁üzemeltet	-11.258
▁ásra	-11.2581
lly	-11.2583
▁levon	-11.2588
▁veszített	-11.259
▁találkoz	-11.259
▁falak	-11.2593
járás	-11.2597
▁Luca	-11.2602
▁ideges	-11.2603
▁minap	-11.2604
▁Szu	-11.2609
▁járhat	-11.261
▁napló	-11.2614
▁Bot	-11.2617
▁testvére	-11.2618
ogatás	-11.2619
▁házigazdá	-11.262
▁tanulmányok	-11.2621
pénztár	-11.2623
▁megvalósításá	-11.2626
▁haladó	-11.2628
négyzetkilométer	-11.2629
▁Bloomberg	-11.2629
▁Marseille	-11.2629
▁madridi	-11.2629
▁volumen	-11.2629
▁pótlék	-11.2629
▁strukturál	-11.2629
▁lassít	-11.2629
▁Erdei	-11.2629
▁kiabál	-11.2629
▁árhullám	-11.2629
▁lobbi	-11.2629
▁csodálatos	-11.2629
▁elérésé	-11.263
▁reményked	-11.263
▁gyulladás	-11.263
▁Lotus	-11.263
vitatott	-11.263
▁direkt	-11.263
▁elszámoltatás	-11.2632
▁alkalmával	-11.2632
▁Leonard	-11.2632
▁biológiai	-11.2632
Európában	-11.2632
hozatal	-11.2633
szerzett	-11.2635
▁harag	-11.2636
▁karrierje	-11.2636
▁spanyolok	-11.2638
▁2,2	-11.2639
▁emelkedéssel	-11.2639
vető	-11.2646
győztes	-11.2647
▁államban	-11.2647
▁virradóra	-11.2648
▁szokásai	-11.265
▁tények	-11.2652
▁megmutat	-11.2653
▁Press	-11.2653
▁szemüveg	-11.2657
▁16:	-11.2657
▁áldozato	-11.266
▁munkanélküli	-11.2661
▁Karl	-11.2662
▁vezérl	-11.2664
▁számíthatnak	-11.2668
▁dobott	-11.267
▁dug	-11.2676
▁1999-	-11.2681
▁1999	-11.2681
▁Kir	-11.2683
-100	-11.2684
▁hirdette	-11.2688
▁tanácsadója	-11.2688
járól	-11.269
▁Bc	-11.2693
▁címét	-11.2693
▁Tél	-11.2693
▁tankol	-11.2695
TV	-11.2696
abi	-11.2698
▁rendszerét	-11.2698
gyűjtés	-11.2699
▁áraml	-11.2699
▁ülést	-11.2701
▁írtam	-11.2704
▁Csász	-11.2706
▁környez	-11.2708
▁Char	-11.2708
▁termés	-11.271
▁kezébe	-11.2711
▁blogon	-11.2713
▁kun	-11.2715
▁Szegeden	-11.2718
▁Lind	-11.2718
osodott	-11.2723
▁Uni	-11.2723
▁kezdés	-11.2724
▁erőmű	-11.2726
▁Egész	-11.2726
▁YouTube	-11.2733
Docler	-11.2733
▁Dmitri	-11.2733
▁Norvégia	-11.2733
▁Szovjet	-11.2733
▁belőlük	-11.2733
▁incidens	-11.2733
▁prognózis	-11.2733
▁tipikus	-11.2733
▁Április	-11.2733
▁Érdem	-11.2733
▁felelőtlen	-11.2733
▁társasház	-11.2733
▁fekszik	-11.2733
▁turista	-11.2733
▁animáció	-11.2733
▁csalódás	-11.2734
▁közterület	-11.2735
▁jótékonyság	-11.2737
ográf	-11.2737
alapítvány	-11.2738
▁venné	-11.274
▁részek	-11.274
▁Személy	-11.2744
jelöltje	-11.2744
▁győztese	-11.2745
▁jelöltet	-11.2746
▁összetétel	-11.2748
▁növények	-11.2749
▁kockázatos	-11.2753
▁gyűlölet	-11.2754
▁zárva	-11.2758
▁reméli	-11.276
▁színe	-11.2762
▁oldalról	-11.2764
▁zz	-11.2765
▁dráma	-11.2765
▁letöltés	-11.2765
váltó	-11.2765
álás	-11.2768
▁Ál	-11.2768
▁ZTE	-11.277
▁felkészült	-11.2772
▁megkezdődött	-11.2775
unántúli	-11.2776
▁Lé	-11.2778
szerzés	-11.2778
▁egymásra	-11.2779
▁ellenség	-11.2782
▁egyesek	-11.2783
▁sze	-11.2783
▁Komoly	-11.2785
▁osztotta	-11.2788
szerv	-11.2791
▁gazda	-11.2804
▁biztat	-11.2805
▁törvényeket	-11.2806
▁rendet	-11.2808
▁versenyképesség	-11.281
▁ob	-11.281
gyünk	-11.2815
tiltás	-11.2817
▁felszámol	-11.2818
fű	-11.2818
találták	-11.282
▁kört	-11.2824
▁témáj	-11.2826
▁hatások	-11.2827
forgalm	-11.2828
▁halmoz	-11.2828
gyújt	-11.2829
▁korlátoz	-11.283
▁hessen	-11.2831
vonulás	-11.2832
űszaki	-11.2833
▁Hor	-11.2836
▁óceán	-11.2836
▁Rangers	-11.2838
▁Vatikán	-11.2838
▁röhög	-11.2838
▁Olympi	-11.2838
▁Pápa	-11.2838
▁aszfalt	-11.2838
▁elegáns	-11.2838
▁veterán	-11.2838
▁Gyors	-11.2838
▁ébred	-11.2838
://	-11.2838
▁Beckham	-11.2838
▁elektronika	-11.2839
▁Legutóbb	-11.2839
▁titka	-11.2839
▁Világkupa	-11.284
▁őrült	-11.2841
▁értesít	-11.2841
▁magáról	-11.2841
▁kettes	-11.2841
▁elzár	-11.2842
▁döntőbe	-11.2842
társaság	-11.2843
ukrán	-11.2844
▁böngésző	-11.2845
▁festék	-11.2845
▁Robin	-11.2845
▁árusít	-11.2845
▁felvételi	-11.2846
▁remélem	-11.2846
▁barom	-11.2847
▁Szabadság	-11.2848
▁oló	-11.2848
▁Hotel	-11.2848
▁ajkai	-11.285
▁szegénység	-11.2854
vevő	-11.2855
▁felszólított	-11.2858
▁Som	-11.2858
▁országból	-11.286
▁útját	-11.2862
▁gondolt	-11.2862
▁nőknél	-11.2863
▁várjuk	-11.2864
▁Romániában	-11.2865
kör	-11.2866
▁modellje	-11.2866
▁édesany	-11.2867
▁sorok	-11.2868
▁sütő	-11.2868
▁beosztás	-11.287
▁építészet	-11.2871
▁lyuk	-11.2873
▁Afganisztánban	-11.2874
▁megítélése	-11.2875
▁VI	-11.2877
▁segítene	-11.2877
▁tettem	-11.2882
▁látogatott	-11.2883
▁Nő	-11.2884
▁teljesítményét	-11.2885
▁Vad	-11.2888
▁kedvelt	-11.2889
▁meccsén	-11.2891
▁szigetország	-11.2893
▁ötszáz	-11.2895
▁támadtak	-11.2895
rum	-11.2896
▁ukkal	-11.2896
▁bizonyítékok	-11.2897
▁rajongói	-11.2897
▁Sand	-11.2898
▁megtanul	-11.2905
▁rakéta	-11.2905
▁ottan	-11.2906
▁kalap	-11.2906
▁Ul	-11.291
▁borít	-11.2914
▁feltárás	-11.2921
▁háttérben	-11.2922
▁témában	-11.2923
▁költött	-11.2923
▁Csab	-11.2923
▁holttest	-11.2923
▁elkövetők	-11.2929
mir	-11.2929
▁csapatának	-11.2929
▁nyugdíjak	-11.293
kezdés	-11.2931
▁összegét	-11.2934
▁bányá	-11.2935
▁tárgyaláson	-11.2937
▁merész	-11.2939
▁meséli	-11.2941
▁bírta	-11.2942
▁költségeit	-11.2942
▁beszédet	-11.2943
▁repülőtéren	-11.2944
▁Annyi	-11.2945
▁Dezső	-11.2945
▁Mónika	-11.2945
▁Súlyos	-11.2945
▁bonyolít	-11.2945
▁hollywood	-11.2945
▁jogosítvány	-11.2945
▁munkavégzés	-11.2945
▁napsütés	-11.2945
▁válaszadók	-11.2945
▁Stefan	-11.2945
▁kivéve	-11.2945
műlesikl	-11.2945
▁Baranya	-11.2945
▁Ryan	-11.2945
▁méltat	-11.2945
▁http	-11.2945
▁Show	-11.2946
▁Világgazdaság	-11.2946
▁alkalmatlan	-11.2946
▁töreked	-11.2947
▁Miller	-11.2948
▁tudna	-11.2948
▁Lewi	-11.2948
▁szabálytalanság	-11.295
▁hegyi	-11.295
Európa	-11.2952
▁tetszett	-11.2953
▁táplálkozás	-11.2953
▁nyújtani	-11.2953
▁számíthatunk	-11.2953
▁ismerő	-11.2954
cer	-11.2957
változott	-11.2958
▁co	-11.2959
▁felfogás	-11.2959
▁rés	-11.296
▁győzelmé	-11.2961
▁károsult	-11.2961
▁babá	-11.2965
▁veszélyezteti	-11.2966
▁tartaná	-11.2966
▁hordozó	-11.2967
▁fizetnek	-11.2968
▁fogyasztása	-11.2969
▁ezret	-11.2972
cio	-11.2972
▁díszít	-11.2974
órum	-11.2976
▁kitér	-11.2977
▁Víz	-11.2982
▁gyerekkor	-11.2985
▁elutasít	-11.2988
▁félig	-11.2991
tlanul	-11.2992
▁legendá	-11.2994
▁szerződtet	-11.2995
▁dobál	-11.2998
▁követelt	-11.2999
▁türelm	-11.3005
▁hagyják	-11.3006
▁építése	-11.3006
▁szerelvény	-11.301
láthatatlan	-11.3011
▁bízta	-11.3019
▁építésé	-11.3019
▁feleségét	-11.302
▁Mexikó	-11.3022
▁tetsz	-11.3023
ította	-11.3023
kingi	-11.3025
▁megnyert	-11.3028
▁XX	-11.3029
▁kísérte	-11.3029
mous	-11.303
▁Nico	-11.3032
▁szűr	-11.3035
▁jellemezt	-11.3037
▁Win	-11.3038
született	-11.304
▁tévés	-11.3041
▁Akik	-11.3043
▁szava	-11.3044
▁enyhé	-11.3045
▁autókat	-11.305
▁tengely	-11.3052
▁támaszkod	-11.3052
▁Bernadett	-11.3052
▁Mikulás	-11.3052
▁Ukrajná	-11.3052
▁fellendülés	-11.3052
▁hormon	-11.3052
▁megélhetés	-11.3052
▁nemzedék	-11.3052
▁ritmus	-11.3052
▁vulkán	-11.3052
▁nulla	-11.3052
▁folyadék	-11.3052
▁pánik	-11.3053
szeg	-11.3053
▁magától	-11.3053
▁szaporod	-11.3054
▁merev	-11.3054
▁NHL	-11.3055
▁Kemény	-11.3055
▁futballista	-11.3055
▁születtek	-11.3057
▁kur	-11.3058
▁gyanúsítják	-11.3062
▁hibázott	-11.3062
▁részvételével	-11.3062
▁jánál	-11.3063
▁erősítés	-11.3063
▁végkielégítések	-11.3063
▁Lam	-11.3068
kacs	-11.3072
▁Moszkvában	-11.3074
▁utál	-11.3077
▁Vác	-11.3077
▁ismételt	-11.3077
▁túlzás	-11.3078
▁olyat	-11.3078
▁játszotta	-11.3079
▁oldalt	-11.308
▁1-3	-11.3081
▁felvenni	-11.3083
▁profil	-11.3083
▁gondolták	-11.3084
olvadás	-11.3086
▁üteme	-11.3087
▁megtenni	-11.3088
▁sora	-11.3089
▁tagjá	-11.3089
▁adózó	-11.3089
▁időszakában	-11.309
▁főtitkára	-11.309
▁fejében	-11.3091
▁őszinté	-11.3091
▁terve	-11.3092
▁tulajdonság	-11.3093
▁húzz	-11.3094
▁nemzetbiztonság	-11.3096
▁technológiá	-11.3097
35	-11.3097
▁für	-11.3099
▁szerezhet	-11.3102
▁műsort	-11.3109
▁harcos	-11.3113
▁felhasznál	-11.3114
▁alkalmazkod	-11.3114
láb	-11.3116
▁élvezet	-11.3118
▁Far	-11.312
▁hajlamos	-11.3121
ajtós	-11.3126
éig	-11.3126
▁hármas	-11.3128
▁honvédel	-11.3128
▁tük	-11.3128
▁Luc	-11.3129
▁csel	-11.3132
sey	-11.3135
▁vásárolta	-11.3135
▁alakulásá	-11.3136
▁járul	-11.3136
▁Azzal	-11.3138
▁kerülne	-11.3139
ítik	-11.314
▁átalakítása	-11.3141
CS	-11.3142
uter	-11.3146
▁áldoz	-11.315
▁Bad	-11.3151
▁iskolába	-11.3154
▁Neu	-11.3154
▁tagú	-11.3154
telep	-11.3155
▁kupá	-11.3155
▁retteg	-11.3156
OK	-11.3159
vállalat	-11.3161
▁Demokrata	-11.3161
▁küszköd	-11.3161
▁sikkasztás	-11.3161
▁szenzáció	-11.3161
▁terápiá	-11.3161
▁széria	-11.3161
▁vidám	-11.3161
▁jöjj	-11.3161
▁töredék	-11.3161
chilei	-11.3161
▁ragaszt	-11.3161
▁szériá	-11.3161
▁drámá	-11.3161
▁vérnyomás	-11.3161
▁faluban	-11.3162
▁kialakítása	-11.3162
▁Hatvan	-11.3162
▁450	-11.3163
▁Remélem	-11.3163
▁fogalmazta	-11.3163
▁szolidaritás	-11.3164
▁iparág	-11.3164
ájú	-11.3164
▁projektek	-11.3164
▁kitűz	-11.3165
▁macska	-11.3168
▁eredetű	-11.3169
▁követelmény	-11.3169
▁jövedelemadó	-11.317
Szolnok	-11.317
▁Eric	-11.317
▁bemutatás	-11.3171
▁találkozás	-11.3172
▁Hun	-11.3173
▁működése	-11.3174
▁alakulhat	-11.3176
▁lázadó	-11.3178
▁becslés	-11.3181
séges	-11.3181
▁Valami	-11.3181
▁onként	-11.3182
volt	-11.3184
▁vádak	-11.3187
▁intézked	-11.3188
▁hesse	-11.3188
▁határt	-11.3195
▁adná	-11.32
▁rendezésé	-11.3201
▁közöttük	-11.3204
▁tennie	-11.3204
▁ös	-11.3205
▁helyért	-11.321
PM	-11.321
▁életük	-11.3211
▁szervezete	-11.3211
▁Rap	-11.3212
▁járható	-11.3213
▁hozzánk	-11.3213
▁pénze	-11.3214
▁GM	-11.3217
▁mono	-11.3217
▁kilométeren	-11.3217
▁meglep	-11.3217
▁ogat	-11.3219
▁RS	-11.3221
▁használatát	-11.3223
▁vallotta	-11.3225
▁vízzel	-11.3227
▁lőttek	-11.3231
emjén	-11.3232
▁felhasználásá	-11.3233
▁erősít	-11.3233
▁hírügynökségnek	-11.3234
▁anyagokat	-11.3235
szerte	-11.3237
▁piacot	-11.3239
▁Kop	-11.324
▁jelenlété	-11.3241
ely	-11.3242
▁gyes	-11.3243
▁bíznak	-11.3244
▁máshol	-11.3249
omb	-11.325
▁sorolt	-11.325
▁Kál	-11.3252
▁Motor	-11.3253
▁működ	-11.3253
látás	-11.3256
▁Szű	-11.3257
vásárlás	-11.3258
▁Eng	-11.3259
▁szörny	-11.3259
▁ismerete	-11.3261
▁Gall	-11.3263
könyv	-11.3264
▁köröz	-11.3265
rankfurt	-11.3266
▁vezetőedző	-11.3267
▁eseményeket	-11.3268
▁komplex	-11.3269
▁mosoly	-11.3271
▁Válasz	-11.3271
▁Panoráma	-11.3271
▁beruházó	-11.3271
▁Fitch	-11.3271
▁Smith	-11.3271
▁szimpatizáns	-11.3271
▁kliniká	-11.3271
▁közérdek	-11.3271
▁megelőzt	-11.3271
▁Száva	-11.3271
▁golyó	-11.3271
▁Heged	-11.3271
▁Ipar	-11.3271
▁gárdá	-11.3271
▁másodosztály	-11.3271
▁Group	-11.3271
▁rektor	-11.3271
Kaida	-11.3271
▁KC	-11.3272
▁Gergő	-11.3272
▁kegyetlen	-11.3272
▁Kevin	-11.3272
▁Miami	-11.3272
▁Johan	-11.3272
▁játéknapján	-11.3272
vatar	-11.3273
▁hangzik	-11.3275
matikus	-11.3277
▁ítették	-11.3277
▁dinamikus	-11.3278
▁temet	-11.3281
kovics	-11.3283
▁meghosszabbít	-11.3285
▁klinika	-11.3288
▁listák	-11.3289
▁megújulás	-11.3289
▁többszörös	-11.329
▁Massa	-11.3293
történet	-11.3295
▁elkészül	-11.3295
▁Will	-11.3296
▁stabilizál	-11.3296
▁keretek	-11.3299
▁tünk	-11.33
▁tartalmát	-11.3301
▁napjai	-11.3302
▁terjesztés	-11.3302
letes	-11.3304
▁válni	-11.3304
▁Kata	-11.3306
▁színpadon	-11.3307
▁helyezked	-11.331
▁nyugdíjpénztár	-11.3312
▁1200	-11.3312
▁Miskolcon	-11.3317
▁adományoz	-11.3318
▁okot	-11.3319
▁fegyverek	-11.3319
▁elérheti	-11.3319
▁Cél	-11.332
▁csapattársa	-11.3321
testület	-11.3324
▁követni	-11.3324
▁kedvence	-11.3325
▁4-0	-11.3326
▁kincs	-11.3327
▁titkol	-11.3336
▁szelet	-11.3337
▁biztosítása	-11.334
▁épülete	-11.334
ator	-11.334
▁Capital	-11.3341
▁benzines	-11.3344
▁köszön	-11.3344
▁Sem	-11.3344
▁azonosított	-11.3348
▁ereje	-11.3351
▁lelet	-11.3354
▁növeln	-11.3355
óri	-11.3356
esztő	-11.3359
▁kérdésekre	-11.3359
▁szerte	-11.3363
▁sült	-11.3363
▁Bud	-11.3366
▁közelébe	-11.3367
▁hallgatta	-11.3368
éber	-11.337
▁ellentmondás	-11.3372
▁fényes	-11.3374
bolt	-11.3377
▁közvetít	-11.338
ESZ	-11.338
▁Komárom	-11.3382
▁Nyugdíj	-11.3382
▁Pozsony	-11.3382
▁előkészület	-11.3382
▁fájdalom	-11.3382
▁főhős	-11.3382
▁recesszió	-11.3382
▁szituáció	-11.3382
▁Zsuzsanna	-11.3382
▁cucc	-11.3382
▁2015-	-11.3382
▁megtörtént	-11.3382
▁válassz	-11.3382
▁másolat	-11.3382
▁bennük	-11.3382
▁Ban	-11.3383
▁hetilap	-11.3383
▁Wild	-11.3384
▁Glob	-11.3384
▁szavazókör	-11.3384
▁Másrész	-11.3384
▁Mester	-11.3385
▁fehérvári	-11.3385
▁negyede	-11.3386
▁2,8	-11.3389
▁2,7	-11.3391
▁kút	-11.3392
▁szállítani	-11.3392
▁motorral	-11.3392
▁hivatkozott	-11.3393
▁tükrözi	-11.3393
▁bontott	-11.3394
föld	-11.3396
zavar	-11.3397
▁kényszerült	-11.3397
▁11:	-11.3398
▁mögötte	-11.3399
▁filozófia	-11.3399
▁veszít	-11.3402
▁hassanak	-11.3402
▁hátterében	-11.3405
▁fenyő	-11.3406
▁emet	-11.3411
▁tévedés	-11.3411
ÉS	-11.3412
▁bevételei	-11.3414
▁közlekednek	-11.3415
▁állunk	-11.3415
▁Serie	-11.3416
lkotmányellenes	-11.3417
▁panaszok	-11.3418
▁bors	-11.3421
▁szintje	-11.3421
▁265	-11.3422
nter	-11.3426
▁személyében	-11.3426
▁aktivistá	-11.343
omlott	-11.3432
▁problémája	-11.3435
▁felzárkóz	-11.3436
▁terheli	-11.3441
▁Mégis	-11.3442
▁tárgyalni	-11.3443
▁egyeztetések	-11.3444
▁hirdetett	-11.3444
▁színészek	-11.3448
▁passz	-11.3449
özgyűlés	-11.3452
▁Egyik	-11.3457
▁ölel	-11.3458
▁utalás	-11.3459
▁tartva	-11.3461
sonyi	-11.3463
▁szárnya	-11.3466
▁Lass	-11.347
▁videók	-11.347
▁távoz	-11.3471
▁levelé	-11.3476
ellip	-11.3482
▁fenyegeti	-11.3483
▁megalapoz	-11.3483
▁Yorkban	-11.3486
▁Rem	-11.3486
izs	-11.3488
▁bejelent	-11.3488
▁verse	-11.3489
▁düh	-11.3493
HL	-11.3493
▁oroszlán	-11.3494
▁tréning	-11.3494
▁gyarapod	-11.3494
▁krízis	-11.3494
▁szorgalmaz	-11.3494
▁kabát	-11.3494
▁Mészár	-11.3494
▁megrongál	-11.3494
▁középpontjába	-11.3494
▁kiállításon	-11.3494
▁farkas	-11.3495
▁Rosberg	-11.3495
▁Hd	-11.3495
▁taps	-11.3495
▁érvénytelen	-11.3495
▁pici	-11.3496
▁szánkó	-11.3496
▁partján	-11.3497
▁kitalál	-11.3497
▁képviseli	-11.3498
▁mozgósít	-11.3498
▁összesítés	-11.3498
▁paraszt	-11.3498
▁Kolontár	-11.3498
▁svédek	-11.3498
▁hitelezés	-11.3498
▁valuta	-11.3499
▁Soha	-11.3499
▁nővér	-11.3499
▁társaik	-11.3501
▁Hegy	-11.3502
▁bizalmat	-11.3502
▁kívánta	-11.3502
▁Senki	-11.3503
▁elbocsátás	-11.3504
▁garanciá	-11.3504
▁vonni	-11.3505
▁2,4	-11.3505
▁sértő	-11.3506
▁játéknap	-11.3507
tűnik	-11.3508
▁Bara	-11.3508
▁bizonyítás	-11.3513
▁Bart	-11.3514
▁édesanyja	-11.3514
IG	-11.3515
▁viszonya	-11.3516
▁Art	-11.3519
▁Számo	-11.3524
anya	-11.3524
BA	-11.3533
▁KSH	-11.3536
▁termet	-11.354
▁autóját	-11.3541
▁köszönt	-11.3545
▁hoki	-11.3546
▁csapód	-11.3546
▁menjen	-11.3546
▁változatos	-11.3548
lehet	-11.355
▁szemlél	-11.3552
▁alakítja	-11.3553
▁főügyész	-11.3554
▁végeznek	-11.3556
▁oknál	-11.3557
▁küzdelme	-11.3573
▁alapítás	-11.3573
▁bur	-11.3575
▁motorja	-11.3576
▁fizetése	-11.3576
▁oper	-11.3577
▁közli	-11.3578
▁fájdalma	-11.358
▁Gol	-11.3583
▁elveszít	-11.3584
▁kutatója	-11.3585
vezér	-11.3588
▁hívni	-11.3589
▁bűnözők	-11.359
▁földre	-11.359
▁kitüntetés	-11.3591
▁számokat	-11.3592
▁kitör	-11.3594
▁oltás	-11.3594
DS	-11.3595
▁hátvéd	-11.3596
▁Kati	-11.3599
▁fellép	-11.36
▁megszerzésé	-11.3601
nkább	-11.3601
▁művelet	-11.3606
▁Telegraph	-11.3608
▁csúcstalálkozó	-11.3608
▁kollekció	-11.3608
▁tragikus	-11.3608
▁tilalom	-11.3608
▁cikket	-11.3608
▁döntéshozó	-11.3608
▁ingadoz	-11.3608
▁Bush	-11.3608
▁Saint	-11.3608
Faktor	-11.3609
▁kivitelezés	-11.3609
▁életrajz	-11.3609
▁csalódott	-11.3609
▁elöl	-11.361
▁játszmá	-11.3611
▁megújít	-11.3612
▁igénylő	-11.3612
▁legális	-11.3612
▁közreműködés	-11.3612
▁károk	-11.3613
sziget	-11.3615
▁jéről	-11.3615
▁adódó	-11.3616
▁2,6	-11.3617
▁tevő	-11.3618
▁félelme	-11.3618
▁Ír	-11.3618
▁felrobbant	-11.3618
▁megszerezni	-11.3619
medence	-11.362
▁látszólag	-11.362
▁tartózkodik	-11.3621
miniszter	-11.3622
▁fúr	-11.3623
▁mutatni	-11.3624
▁óval	-11.3625
▁lépő	-11.3625
▁irányt	-11.3625
▁kont	-11.3626
sztár	-11.3626
▁közösségek	-11.3627
▁bűnözés	-11.3628
▁szekrény	-11.3631
▁válságot	-11.3631
▁megkerest	-11.3632
▁illik	-11.3633
landi	-11.3634
▁használtak	-11.3634
▁fenyegető	-11.3634
▁Woods	-11.3636
▁rendszerrel	-11.3636
▁érvény	-11.3637
▁táncos	-11.364
▁utazni	-11.3642
▁kiegészít	-11.3645
▁támogatottsága	-11.3648
▁gyász	-11.3648
▁minősége	-11.3649
▁1989-	-11.3651
▁méteren	-11.3651
▁élénk	-11.3651
zanak	-11.3654
▁emlékei	-11.3657
▁cikkben	-11.3658
▁helyezi	-11.3665
▁megszerzés	-11.3665
▁statisztiká	-11.3665
▁rohan	-11.3666
▁rendőrkapitány	-11.3669
▁gyakorlás	-11.3669
hozott	-11.367
▁Vág	-11.3671
▁kampányban	-11.3673
▁kezeli	-11.3674
▁terveket	-11.3675
▁éltek	-11.3677
▁Mór	-11.3677
▁Bos	-11.3683
▁taxi	-11.3683
▁jutalm	-11.3685
▁védi	-11.3688
érdekesebb	-11.369
▁Pas	-11.3691
▁ruhák	-11.3691
▁létesít	-11.3695
▁produkált	-11.3701
hagy	-11.3702
▁híresség	-11.3703
▁professzora	-11.3704
▁ügyét	-11.3704
nyé	-11.3708
▁kapos	-11.371
▁Művészet	-11.3711
ville	-11.3712
▁absz	-11.3716
▁kapcsolata	-11.3717
▁szfér	-11.3722
▁Lip	-11.3722
▁csomó	-11.3723
lumínium	-11.3723
▁Budaházy	-11.3723
▁Chicago	-11.3723
▁Cristian	-11.3723
▁Minnesota	-11.3723
▁csokoládé	-11.3723
▁elefánt	-11.3723
▁kalifornia	-11.3723
▁misszió	-11.3723
▁odafigyel	-11.3723
▁???	-11.3723
▁érzelmi	-11.3723
▁delegáció	-11.3723
▁társulat	-11.3723
▁Szilágy	-11.3723
▁cigarett	-11.3723
▁Energia	-11.3723
▁szarvas	-11.3723
▁szállítmány	-11.3723
▁Regény	-11.3724
Nissan	-11.3724
▁hangsúlyozza	-11.3724
▁találkozhat	-11.3726
▁országszerte	-11.3727
onprofit	-11.3729
▁levált	-11.3731
▁rabolt	-11.3732
▁bejutott	-11.3733
▁fogadni	-11.3737
fiatalabb	-11.3738
szlovák	-11.3738
▁rontott	-11.3739
arázs	-11.3744
▁kapit	-11.3748
▁Steven	-11.3749
▁értékelése	-11.375
▁semleges	-11.375
▁Mir	-11.375
▁elvégz	-11.3753
▁!)	-11.3754
▁sportolók	-11.3754
▁választja	-11.3755
kezdődött	-11.3759
▁hosszas	-11.3761
▁vizes	-11.3763
▁hagyományok	-11.3763
koalíció	-11.3767
▁szempontok	-11.3767
▁vonalak	-11.3769
▁jogosultság	-11.377
▁végleg	-11.3771
fogó	-11.3773
▁terjesztett	-11.3776
▁erkölcs	-11.3781
▁előírás	-11.3782
▁teremteni	-11.3782
▁védeni	-11.3789
▁szerk	-11.379
▁vehető	-11.3791
aktív	-11.3791
▁robbantás	-11.3792
▁belépés	-11.3794
mondó	-11.3795
▁60-	-11.3796
▁befejezés	-11.3801
▁Matt	-11.3801
Line	-11.3809
kád	-11.3811
▁fiók	-11.3816
▁körülmény	-11.3821
tomerőmű	-11.3822
▁fonto	-11.3827
▁biztosítók	-11.3832
▁folyók	-11.3833
tölteni	-11.3836
▁élve	-11.3836
▁Gera	-11.3837
▁ártatlan	-11.3837
▁mindenkor	-11.3837
▁galériá	-11.3837
lop	-11.3838
▁tüdő	-11.3839
▁immun	-11.3839
▁Elemző	-11.3839
▁Jelentős	-11.3839
▁Siófok	-11.3839
▁csapatkapitány	-11.3839
▁kenyér	-11.3839
▁műemlék	-11.3839
▁presztízs	-11.3839
▁Domokos	-11.3839
▁praktikus	-11.3839
▁Videó	-11.3839
▁kőolaj	-11.3839
▁krimi	-11.3839
▁zsákmány	-11.3839
▁közoktatás	-11.3839
▁Tűz	-11.384
▁részvénypiac	-11.384
MNV	-11.384
▁Olvas	-11.384
▁kreatív	-11.384
▁megállapítani	-11.3841
▁felépül	-11.3841
▁ötöd	-11.3841
▁kattintson	-11.3842
▁kísérletek	-11.3842
▁póker	-11.3842
▁visszahívás	-11.3843
▁kétségbe	-11.3843
▁összeszed	-11.3845
▁gondolkoz	-11.3846
ozva	-11.3848
▁5,2	-11.3848
hid	-11.3849
▁ügyvezetője	-11.3852
▁szavazói	-11.3852
▁hassa	-11.3852
▁elnöknek	-11.3852
▁vesztegetés	-11.3853
érkező	-11.3854
▁tudósítója	-11.3854
osztrák	-11.3856
tározó	-11.3856
▁vasútvonal	-11.3859
▁okostelefon	-11.3861
▁figyelmeztetett	-11.3861
▁környéken	-11.3861
▁koreai	-11.3863
▁bűnösnek	-11.3864
▁gazdálkodó	-11.3864
▁megfogalmaz	-11.3869
▁ellenük	-11.3869
ance	-11.3871
▁utakat	-11.3871
▁Ya	-11.3873
▁nyerő	-11.3874
▁bontás	-11.3875
▁váló	-11.3879
szky	-11.3884
▁Zsuzsa	-11.3884
▁jönni	-11.3885
szeretettel	-11.389
▁etnik	-11.389
▁rali	-11.3891
végzett	-11.3892
▁helyette	-11.3894
▁igényt	-11.3899
▁kiegészítés	-11.3901
▁Kara	-11.3903
▁jogkör	-11.3903
▁elvárás	-11.3905
▁sokféle	-11.3907
▁töltő	-11.3907
▁megsértés	-11.3909
▁útjai	-11.3913
▁01	-11.3915
ardo	-11.3915
▁megosztott	-11.3915
▁felismer	-11.3917
▁felismerés	-11.3917
emelked	-11.3918
▁Ali	-11.3918
▁ította	-11.3923
▁kedvezményes	-11.3931
▁dupláz	-11.3935
▁államot	-11.3936
▁Hon	-11.3937
▁határok	-11.3946
▁Egyed	-11.3946
▁megoszt	-11.3947
▁bejárat	-11.3952
▁Bf	-11.3953
▁költségvetésben	-11.3954
▁Atlético	-11.3957
▁diadal	-11.3957
▁feküd	-11.3957
▁oxigén	-11.3957
▁golf	-11.3957
▁óvoda	-11.3957
▁túlélés	-11.3957
▁gyorsaság	-11.3957
▁Levente	-11.3957
▁tengerentúl	-11.3957
▁telepítés	-11.3959
▁lakóház	-11.3959
▁Reggel	-11.3959
▁Super	-11.396
eller	-11.396
▁telepített	-11.396
▁halálozás	-11.396
▁(18	-11.396
▁jelöltjei	-11.3961
▁előnyös	-11.3961
▁máj	-11.3961
bajnokságon	-11.3963
▁elárulta	-11.3963
▁poszto	-11.3963
▁túra	-11.3964
▁termelők	-11.3964
▁felkérés	-11.3964
▁3,7	-11.3964
▁360	-11.3967
▁Edit	-11.3968
▁foglalkoznak	-11.3969
vér	-11.3969
▁hallottam	-11.397
▁lény	-11.3971
▁óránként	-11.3974
▁szerzés	-11.3974
képzés	-11.3975
szenvedett	-11.3975
eszköz	-11.3976
▁képviselte	-11.3979
▁Kolo	-11.398
▁Romániá	-11.3982
▁05	-11.3985
▁1992-	-11.3987
▁érezni	-11.3989
▁kifejt	-11.399
barát	-11.3991
hallgatás	-11.3991
közlési	-11.3993
▁versenyképes	-11.3994
▁ázott	-11.3994
NBA	-11.3994
▁fajtá	-11.3996
▁közlés	-11.3999
IM	-11.4001
▁harmadfok	-11.4002
▁szövetségese	-11.4002
▁játszották	-11.4003
▁hatalmat	-11.4003
▁lépjen	-11.4003
▁Cam	-11.4004
▁jövedelme	-11.4005
▁mennyiségben	-11.4005
▁jelképe	-11.4008
▁kín	-11.4008
▁bezár	-11.4011
▁kidolgozás	-11.4012
▁érdekek	-11.4013
▁alakította	-11.4017
▁kétség	-11.4019
▁ekről	-11.402
▁Kate	-11.4022
▁döntései	-11.4023
▁képessége	-11.4024
▁Budapestre	-11.4031
▁Atlant	-11.4034
▁ruhát	-11.4036
▁vallott	-11.4038
▁szóltak	-11.4038
▁delegált	-11.4039
ugar	-11.4042
▁támogatottság	-11.4044
▁bukás	-11.4046
MM	-11.4051
▁pályák	-11.4054
▁nyers	-11.4055
▁pénzért	-11.4055
▁húzó	-11.4057
▁filozóf	-11.4057
▁agyon	-11.4072
▁kombi	-11.4073
▁Lesz	-11.4074
▁Celsius	-11.4076
indhoven	-11.4076
▁Pakisztán	-11.4076
▁felháborodás	-11.4076
▁rezsim	-11.4076
▁zápor	-11.4076
söpr	-11.4076
▁fuvar	-11.4076
▁mielőbb	-11.4076
▁szerződéseket	-11.4076
▁balaton	-11.4076
▁Hollandia	-11.4076
▁Izland	-11.4076
▁kosár	-11.4076
▁útszakasz	-11.4077
▁lámpa	-11.4077
▁str	-11.4077
▁halak	-11.4078
▁garázs	-11.4078
▁diplomata	-11.4079
▁főszerkesztője	-11.4079
▁tanúsít	-11.408
▁reprezent	-11.408
▁munkagép	-11.408
▁hiányzott	-11.408
▁táplálék	-11.4081
ságszolgáltatás	-11.4082
▁gömb	-11.4083
▁ismerhet	-11.4085
▁tolvajok	-11.4085
▁képtelenség	-11.4086
▁tartózkodott	-11.4087
▁villa	-11.4095
▁hazatér	-11.4095
▁sajnálat	-11.4099
▁kapcsolódik	-11.41
▁felhős	-11.4107
▁szeretik	-11.4107
▁írók	-11.4109
▁néni	-11.4109
▁10:	-11.4114
▁Atlanta	-11.4118
▁Ká	-11.4118
▁ösztönöz	-11.4118
▁közbiztonság	-11.412
▁családtag	-11.4122
▁fiát	-11.4124
▁igazolni	-11.4129
▁kapitánya	-11.4132
▁vágya	-11.4132
▁Japánban	-11.4133
▁folyamatot	-11.4134
▁önmagát	-11.4134
▁Stone	-11.4136
▁sportos	-11.4139
▁Pir	-11.4143
ítva	-11.4148
▁meghal	-11.4148
▁formák	-11.4149
▁taxis	-11.4151
▁könyvben	-11.4153
▁ún	-11.4155
▁terveznek	-11.4156
▁4-2	-11.4156
▁kirobban	-11.4162
▁falat	-11.4163
▁szólalt	-11.4169
cho	-11.4172
kerek	-11.4174
▁arca	-11.4177
▁szerződését	-11.4177
▁kalózok	-11.4178
▁égés	-11.4179
ügyben	-11.4179
▁akadémi	-11.4183
▁végkielégítés	-11.4184
▁börtönbe	-11.4187
▁zaklatás	-11.4191
llo	-11.4192
▁csinálta	-11.4192
▁ellenkező	-11.4193
▁XI	-11.4194
▁KT	-11.4194
▁class	-11.4196
▁barlang	-11.4196
▁gesztus	-11.4196
▁vacsorá	-11.4196
▁vetélytárs	-11.4196
▁gyengít	-11.4196
▁mágnes	-11.4196
▁előzte	-11.4196
▁leányvállalat	-11.4196
▁kiskorú	-11.4197
▁pláne	-11.4197
▁General	-11.4197
▁közpénz	-11.4197
▁kivitelező	-11.4197
▁dokumentumfilm	-11.4197
▁pszichiátri	-11.4197
▁Sap	-11.4198
▁emlékszik	-11.4198
viselés	-11.4198
djuk	-11.42
▁percek	-11.42
▁Nadal	-11.4201
▁MTK	-11.4202
▁szenvedtek	-11.4203
▁barátnője	-11.4203
▁sláger	-11.4203
▁eszközei	-11.4205
▁Lin	-11.4206
▁átalakításá	-11.4208
▁szörnyű	-11.4209
▁szezonális	-11.4212
▁látnak	-11.4214
▁Opera	-11.4214
▁enyhítés	-11.4215
▁szűrő	-11.4215
och	-11.4218
▁fű	-11.422
igazgatóság	-11.422
▁részeg	-11.4222
▁akadályoz	-11.4223
▁kapitányság	-11.4224
▁újítás	-11.4225
kanál	-11.4226
▁elindít	-11.4227
▁gyökere	-11.4231
▁októl	-11.4232
▁nézettség	-11.4235
▁fogly	-11.4235
▁kezelésére	-11.4235
▁csúszás	-11.4236
▁számítottak	-11.4237
▁elej	-11.424
▁szélén	-11.4245
▁helyezni	-11.4248
▁történetek	-11.4249
OR	-11.4249
▁Elég	-11.4251
▁sugár	-11.4252
▁küldöttség	-11.4253
▁csuk	-11.4255
kupá	-11.4256
▁okoztak	-11.4257
▁családot	-11.4261
látta	-11.4265
▁sztárok	-11.4272
▁illet	-11.4277
▁elődöntőben	-11.4278
▁kezdene	-11.428
kariká	-11.4282
▁szobában	-11.4284
▁Szala	-11.4285
▁piacán	-11.4285
▁tisztesség	-11.4287
▁valaho	-11.4289
▁Posta	-11.4293
▁darabok	-11.4295
llyal	-11.4297
Márped	-11.4303
▁megindul	-11.4303
▁jén	-11.4305
▁kiállított	-11.4305
ecske	-11.4306
▁vizek	-11.4308
hirdetés	-11.4311
így	-11.4313
▁hőse	-11.4313
▁olvad	-11.4314
▁Tag	-11.4314
▁megjelenésé	-11.4317
▁késések	-11.4318
▁támogatói	-11.4318
▁Dubaj	-11.4318
▁Jégkorong	-11.4318
▁Orleans	-11.4318
▁Wolfsburg	-11.4318
▁dizájn	-11.4318
▁gimnázium	-11.4318
▁Ügynök	-11.4318
▁Hunvald	-11.4318
▁generál	-11.4318
▁elnyert	-11.4318
▁Dinam	-11.4318
▁előkerült	-11.4318
▁Információ	-11.4319
▁Tiszt	-11.4321
▁varr	-11.4321
▁utalvány	-11.4321
▁berg	-11.4321
▁párosítás	-11.4322
▁McC	-11.4322
▁Guly	-11.4323
▁korlátozz	-11.4324
▁Neki	-11.4324
▁Uta	-11.4324
▁módszerrel	-11.4325
▁1944	-11.4325
▁egyenleg	-11.4326
▁hiányos	-11.4326
▁(0-0)	-11.4326
▁Anita	-11.4329
▁ejtett	-11.4332
▁visszamenőleges	-11.4333
▁poén	-11.4334
készítés	-11.4335
▁résztvevői	-11.4337
gyilkos	-11.434
irányú	-11.434
CD	-11.4344
lepte	-11.4346
gtöbbször	-11.4347
▁készítettek	-11.4347
▁olvasóink	-11.4348
▁felfüggesztés	-11.4348
▁garantált	-11.435
▁beszélünk	-11.435
▁henger	-11.4353
▁alma	-11.4354
▁alku	-11.4355
▁érezhet	-11.4356
▁Sip	-11.4357
▁erősíten	-11.4361
adják	-11.4363
▁fájdalmas	-11.4364
▁Julian	-11.4365
OM	-11.4366
▁passzol	-11.4366
▁rutin	-11.4367
szent	-11.437
▁elszámolás	-11.437
▁értékei	-11.4374
▁Hc	-11.4375
▁határozatot	-11.4376
▁polgárok	-11.4377
▁vonulás	-11.438
▁statisztikák	-11.438
▁közre	-11.4381
▁elkövet	-11.4381
▁Szív	-11.4382
▁hatályo	-11.4385
▁illetékesek	-11.4388
▁Mire	-11.439
▁14:	-11.4392
▁képp	-11.4393
this	-11.4394
rét	-11.4398
▁nyomor	-11.4398
tiltották	-11.4398
▁megrendelés	-11.4401
tudomány	-11.4402
▁részlete	-11.4403
▁nézhet	-11.4403
Mobile	-11.4405
▁Bay	-11.4405
▁elhárítás	-11.4405
rányú	-11.4407
▁javított	-11.4409
tált	-11.4409
iter	-11.441
▁zárni	-11.4411
▁részesült	-11.4412
▁varázs	-11.4414
▁évtizedben	-11.4415
▁főtitkár	-11.442
▁bemutatni	-11.442
▁lal	-11.4421
▁elítélt	-11.4422
▁harci	-11.4422
▁vert	-11.4427
IN	-11.443
▁baktérium	-11.443
▁eskü	-11.4441
ódó	-11.4441
▁tendenci	-11.4442
@	-11.4442
▁Ferguson	-11.4442
▁Stuttgart	-11.4442
▁Zalaegerszeg	-11.4442
▁elbírálás	-11.4442
▁kesztyű	-11.4442
▁konzultáció	-11.4442
▁nyugdíjkorhatár	-11.4442
▁sivatag	-11.4442
▁szimbólum	-11.4442
▁csík	-11.4442
▁sugall	-11.4442
▁vetkőz	-11.4442
▁Nokia	-11.4442
▁Sajó	-11.4442
▁AFP	-11.4442
▁holokauszt	-11.4442
▁(26	-11.4442
▁meggyőződés	-11.4442
esszük	-11.4442
▁háziorvos	-11.4443
▁Lovas	-11.4443
▁káosz	-11.4443
▁skót	-11.4443
▁világgazdaság	-11.4444
▁felmelegedés	-11.4444
▁bén	-11.4447
▁pletykák	-11.4448
▁bérlő	-11.4448
észeti	-11.445
szegi	-11.4451
▁felépítés	-11.4451
▁klip	-11.4452
▁idejük	-11.4457
▁karácsonykor	-11.4462
▁levegőben	-11.4464
▁építész	-11.4466
▁nád	-11.4466
vállalkozások	-11.4466
▁védője	-11.447
ózis	-11.4471
▁enyhít	-11.4472
▁érthetetlen	-11.4473
▁kiadásai	-11.4476
▁végtelen	-11.4476
▁elfogadni	-11.4476
▁érnek	-11.4479
▁borító	-11.4479
később	-11.4488
▁hosszan	-11.4488
▁gyűlés	-11.4489
▁ismeretek	-11.4489
▁pénzét	-11.449
eau	-11.4491
▁tagját	-11.4492
▁éséhez	-11.4497
ning	-11.4498
▁írásai	-11.4499
▁alkalmazz	-11.45
szél	-11.4502
▁egyetértés	-11.4504
mind	-11.4505
▁valamikor	-11.4506
▁kincse	-11.4506
▁módosítását	-11.4506
▁állításá	-11.4508
▁műsorok	-11.4508
▁Vér	-11.4509
gató	-11.4509
▁gazdálkod	-11.4509
▁megírt	-11.4511
▁etlen	-11.4513
▁karrierjé	-11.4516
▁mérkőzését	-11.4521
▁bombáz	-11.4522
▁felügyel	-11.4523
fogás	-11.4523
▁FA	-11.4524
▁Hir	-11.4525
▁fárad	-11.4526
▁szakított	-11.4528
renz	-11.4529
legeredményesebb	-11.453
▁tömörít	-11.4531
▁ger	-11.4532
▁szigorúbb	-11.4532
tetett	-11.4533
▁életünk	-11.4534
▁tarts	-11.4534
▁akciók	-11.4539
▁hivatkoz	-11.4541
▁bűnös	-11.4543
▁illeték	-11.4543
▁fontosságá	-11.4546
▁tagország	-11.4548
▁eldőlt	-11.4548
▁Steve	-11.4552
tudat	-11.4559
▁utalnak	-11.4561
▁közreműköd	-11.4562
munkabeszüntetés	-11.4567
▁gyöngy	-11.4567
▁középiskolá	-11.4567
▁likviditás	-11.4567
▁politológus	-11.4567
▁átigazolás	-11.4567
▁medencé	-11.4567
▁szőnyeg	-11.4567
▁Csepel	-11.4567
▁felmondás	-11.4567
▁monitor	-11.4567
▁riasztott	-11.4567
▁visszhang	-11.4567
▁1986	-11.4567
▁motivál	-11.4567
▁tagozat	-11.4567
▁bácsi	-11.4567
▁Porsch	-11.4567
▁(25	-11.4567
▁(10	-11.4567
▁Hajnal	-11.4567
▁Könyvtár	-11.4568
▁sorsolás	-11.4568
▁2020-	-11.4569
▁ülnek	-11.457
munká	-11.457
▁erőltet	-11.4571
▁művel	-11.4573
▁Illés	-11.4574
▁Dzs	-11.4575
▁sms	-11.4575
▁devizapiacon	-11.4575
▁adórendszer	-11.4577
▁jutásért	-11.4577
▁Csillag	-11.4577
▁mondaná	-11.4577
OL	-11.4578
▁Kornél	-11.4578
▁dió	-11.4578
▁rájött	-11.4579
▁háromszáz	-11.4579
▁bankadó	-11.458
▁Pier	-11.4582
▁tanárok	-11.4583
▁Szeretné	-11.4584
▁Hang	-11.4586
▁vártak	-11.4586
▁motorok	-11.4588
▁kombináció	-11.4589
▁válthat	-11.4591
▁lőszer	-11.4592
▁csökkentek	-11.4593
show	-11.4593
▁hess	-11.4593
▁főúton	-11.4595
lovas	-11.4595
▁fedett	-11.4595
▁előkészít	-11.4598
▁kerülés	-11.46
▁MU	-11.4601
▁szivattyú	-11.4602
▁iratokat	-11.4603
parti	-11.4604
karok	-11.4606
▁indítványt	-11.4607
▁Mail	-11.4611
▁hitte	-11.4615
▁áramlás	-11.4616
▁Jon	-11.4617
▁csapott	-11.4619
▁mérg	-11.4619
▁emelése	-11.4619
▁gyengül	-11.462
▁kibocsát	-11.462
▁Dunántúl	-11.4623
▁erőforrás	-11.4623
tthon	-11.4624
▁Bas	-11.4625
laszt	-11.4626
▁lezárás	-11.4628
▁válogatottban	-11.4628
▁ásában	-11.4628
▁15:	-11.4628
▁autóba	-11.463
▁Facebookon	-11.4631
▁válaszolni	-11.4632
▁Fide	-11.4634
▁idejét	-11.4634
dol	-11.4635
▁lik	-11.4636
▁szintjén	-11.464
▁művészek	-11.4641
▁beszéde	-11.4645
▁3:	-11.4645
▁hatalma	-11.4648
▁voksol	-11.4649
▁előnyben	-11.4655
formán	-11.4656
▁kiszolgál	-11.4661
▁jogait	-11.4661
▁Érdek	-11.4662
▁főnöke	-11.4669
kovic	-11.4669
▁egységek	-11.4671
▁lakosságot	-11.4673
erős	-11.4676
▁futamo	-11.4677
▁tölteni	-11.468
dáig	-11.4683
▁bérek	-11.4686
▁jótékony	-11.4689
▁készülékek	-11.4689
▁Lengyel	-11.4691
▁Hozzá	-11.4693
ebestyén	-11.4693
▁Kristóf	-11.4693
▁Rengeteg	-11.4693
▁megbízatás	-11.4693
▁megyeszékhely	-11.4693
▁Virgin	-11.4693
ORFK	-11.4693
▁Finnország	-11.4693
▁pazar	-11.4693
▁világháló	-11.4693
▁sérelme	-11.4693
▁Charles	-11.4693
▁anglia	-11.4693
▁párbaj	-11.4693
color	-11.4693
▁puszta	-11.4693
▁lennék	-11.4693
▁fillér	-11.4694
▁fedezte	-11.4694
▁titko	-11.4695
▁legenda	-11.4695
▁középdöntő	-11.4695
▁ügyintézés	-11.4696
▁összegyűjtött	-11.4696
▁féle	-11.4696
▁latin	-11.47
▁elképzelni	-11.4702
▁Portugáliá	-11.4703
normal	-11.4709
Moson	-11.4709
▁garancia	-11.4712
▁Manu	-11.4713
▁közlekedik	-11.4714
▁hullott	-11.4715
▁Fd	-11.4715
▁ein	-11.4715
▁Patric	-11.4717
▁sajtóreferense	-11.4718
dox	-11.4719
Vasas	-11.4721
fogyasztás	-11.4721
▁irányítja	-11.4722
▁foko	-11.4725
▁átvétel	-11.4726
▁dús	-11.4729
▁vitatkoz	-11.4731
▁Lis	-11.4731
▁Kings	-11.4736
▁centrum	-11.4736
PS	-11.4738
▁vagyonkezel	-11.4739
▁hónapot	-11.4741
▁piacokon	-11.4743
▁Franc	-11.4744
▁bátor	-11.4749
▁Auto	-11.4749
▁perel	-11.475
▁Kab	-11.4755
▁helyük	-11.4758
▁őrzi	-11.4758
▁pontjai	-11.4759
▁nevezhet	-11.4761
▁utasokat	-11.4763
▁sztárja	-11.4764
nagyon	-11.4768
▁megismerés	-11.4769
▁Terv	-11.4769
▁emlékezetes	-11.4771
▁választék	-11.4775
rop	-11.4775
boy	-11.4775
idejű	-11.4775
▁gyakorl	-11.4777
▁kezelik	-11.478
▁ly	-11.4781
▁mélyebb	-11.4787
▁13:	-11.4795
érc	-11.4797
sport	-11.48
▁hegyek	-11.4805
▁alkalmazásá	-11.4805
▁mandátumo	-11.4805
▁látszó	-11.481
erry	-11.4811
▁giga	-11.4811
▁szil	-11.4814
▁felidéz	-11.4817
xel	-11.4819
▁4-3	-11.4819
▁egyetemen	-11.482
▁örvend	-11.4821
▁koordinál	-11.4822
extrém	-11.4822
▁Debreczen	-11.4822
▁Kramnyik	-11.4822
▁Számvevőszék	-11.4822
▁Toronto	-11.4822
▁evolúció	-11.4822
▁identitás	-11.4822
▁milánói	-11.4822
▁vezényel	-11.4822
▁Ítélőtábl	-11.4822
▁álláskereső	-11.4822
▁CNN	-11.4822
▁gróf	-11.4822
▁krém	-11.4822
▁Fox	-11.4822
▁szélsőjobboldal	-11.4822
▁laptop	-11.4822
▁Scott	-11.4822
▁aluljáró	-11.4822
lépés	-11.4822
▁elvtárs	-11.4822
▁plasztik	-11.4822
▁kisgyerek	-11.4823
▁igazolvány	-11.4823
▁ruházat	-11.4823
▁pótlás	-11.4824
▁köszöntött	-11.4824
▁bulvár	-11.4824
▁előtérbe	-11.4825
bevásárlóközpont	-11.4825
▁régebbi	-11.4825
▁szaklap	-11.4826
▁örülök	-11.4826
▁álláspontját	-11.4829
▁módosítani	-11.483
▁vonatkoz	-11.4832
▁nélkülöz	-11.4833
▁elfogadása	-11.4833
▁házigazd	-11.4833
▁baktériumok	-11.4833
roll	-11.4834
▁igazságos	-11.4839
▁szeretem	-11.484
▁Mel	-11.484
▁megismételt	-11.4842
utóbb	-11.4843
▁kilátások	-11.4843
▁forgalmaz	-11.4844
ügyelőbizottság	-11.4845
▁önök	-11.4845
▁hatásos	-11.4846
▁táblák	-11.4847
▁előfordult	-11.4849
SZDSZ	-11.4851
hátvéd	-11.4851
kötött	-11.4851
▁kontra	-11.4852
ktus	-11.4853
▁Maria	-11.4854
▁tartalmak	-11.4854
▁ügyeletese	-11.4856
motor	-11.4859
▁ennyit	-11.4862
evés	-11.4865
▁jellem	-11.4865
pat	-11.4866
kozik	-11.4868
▁gyorsul	-11.487
▁csinálja	-11.4871
▁jövőjé	-11.4872
▁Koval	-11.4872
▁végrehajtan	-11.4872
▁Csehországban	-11.4874
▁távközlés	-11.4875
▁ajtót	-11.4877
▁cser	-11.488
▁tisztít	-11.4881
▁értette	-11.4884
▁utóbbiak	-11.4885
▁törölte	-11.4885
▁csapta	-11.4886
▁fórumon	-11.4886
ősök	-11.4886
▁tartózkod	-11.4887
▁Deme	-11.4889
▁sci	-11.489
MV	-11.489
▁listája	-11.4893
hengere	-11.4893
▁képességei	-11.4893
▁formája	-11.4894
▁ágyú	-11.4895
▁vitamin	-11.4895
▁végzés	-11.4896
▁Ü	-11.4896
▁Magyarországról	-11.4898
▁végét	-11.4899
▁1993	-11.4899
row	-11.4901
▁civilek	-11.4906
termelés	-11.4907
▁idősek	-11.4908
▁struktúrá	-11.4909
▁megszüntetésé	-11.4914
▁dás	-11.4915
bizalmas	-11.4919
▁kapusa	-11.4922
▁süllyedt	-11.4924
▁tisztviselő	-11.4925
▁látszat	-11.493
▁irodák	-11.493
▁termelt	-11.4932
▁megközelítés	-11.4933
gazdaság	-11.4934
szki	-11.4934
▁240	-11.4934
▁repül	-11.4936
Popu	-11.4936
▁megtakarítások	-11.4937
▁Vit	-11.4939
▁lakosok	-11.4941
dez	-11.4942
▁érett	-11.4943
▁Mennyi	-11.4944
▁tegyen	-11.4945
▁szolgálato	-11.4946
▁követelése	-11.495
▁utazók	-11.495
▁lapban	-11.4951
▁kérelm	-11.4951
▁style	-11.4951
▁legsiker	-11.4951
▁Deutsch	-11.4951
▁Rész	-11.4951
▁Tímea	-11.4951
▁közszfér	-11.4951
▁soproni	-11.4951
▁szegmens	-11.4951
▁Ügyészség	-11.4951
▁emlékszem	-11.4951
▁kóstol	-11.4951
▁szimulá	-11.4951
▁nedves	-11.4951
▁Tolna	-11.4951
▁Tesco	-11.4951
▁Bir	-11.4952
▁labdarúgás	-11.4952
▁Változ	-11.4952
▁munkaerőpiac	-11.4952
▁elkölt	-11.4952
▁igénybevétel	-11.4952
▁mozgó	-11.4952
▁feltűnő	-11.4952
▁csatol	-11.4952
▁törvénytervezet	-11.4953
▁értelmetlen	-11.4953
▁hiánycél	-11.4953
▁irányzat	-11.4954
▁ÁSZ	-11.4956
jutó	-11.4956
▁küldeni	-11.4956
▁osztályvezető	-11.4956
▁zaklat	-11.4957
▁oszl	-11.4958
▁bocsátott	-11.4958
▁Önök	-11.4958
▁pályáról	-11.4958
▁eseményei	-11.496
▁Rock	-11.496
▁szakács	-11.4962
▁fenntartó	-11.4962
▁figyelmeztette	-11.4962
▁gaz	-11.4963
▁Lion	-11.4965
▁kurz	-11.4965
hívott	-11.4966
▁csodálkoz	-11.4967
▁dac	-11.4968
▁terhelt	-11.4968
▁őrizet	-11.4971
▁2500	-11.4972
▁bronzérmes	-11.4973
nagyobb	-11.4975
szerűtlen	-11.4976
kubai	-11.4976
▁működni	-11.4976
feld	-11.4977
▁váltani	-11.4978
▁művelt	-11.4978
▁Áll	-11.4979
terület	-11.4979
▁előnyét	-11.4979
elképzelhetetlen	-11.498
közönség	-11.4982
▁mentális	-11.4983
IMF	-11.4984
▁Dunántúlon	-11.4985
▁igyekezte	-11.4986
▁megerősítették	-11.4986
▁tudósít	-11.4988
▁tekinthet	-11.4989
Hide	-11.499
▁füstöl	-11.4994
▁barátok	-11.4994
▁késztet	-11.4994
▁ösztöndíj	-11.4997
▁domb	-11.4998
hozni	-11.4998
▁ápoló	-11.5001
lánc	-11.5001
holland	-11.5005
▁határában	-11.5007
cha	-11.5008
▁megtéveszt	-11.5009
fogni	-11.501
▁névsor	-11.5011
▁cselekedet	-11.5012
▁iskolát	-11.5014
▁Miss	-11.5015
▁vásárolhat	-11.5015
öző	-11.5016
nick	-11.5017
▁nyolcvana	-11.5021
▁helyiek	-11.5021
▁bezárt	-11.5022
▁használnak	-11.5024
▁Esztergom	-11.5027
▁kétséges	-11.5028
▁1994-	-11.5029
▁gólos	-11.503
▁elképzelések	-11.5038
▁hasonlított	-11.5041
NBC	-11.5042
▁béké	-11.5043
▁jú	-11.5043
▁köti	-11.5044
▁vélt	-11.5046
▁határai	-11.5048
▁táplál	-11.5049
▁elismerést	-11.5049
▁harap	-11.5049
ago	-11.5057
▁3-1-	-11.5058
▁központban	-11.5058
▁virradó	-11.5059
▁Keleti	-11.5061
▁adóz	-11.5065
▁02	-11.5065
SI	-11.5066
rill	-11.5067
▁felmérések	-11.5069
olog	-11.5069
▁forrásokat	-11.5072
▁jelentkezők	-11.5076
▁hülye	-11.5079
▁Rol	-11.5081
▁írnak	-11.5082
▁Mike	-11.5083
▁galaxis	-11.5083
▁Család	-11.5083
▁Dortmund	-11.5083
▁RMDSZ	-11.5083
▁demonstrál	-11.5083
▁felhatalmazás	-11.5083
ström	-11.5083
▁kommunikál	-11.5083
▁szőke	-11.5083
▁jelmez	-11.5083
▁Bundesliga	-11.5083
▁kockáztat	-11.5083
▁gitár	-11.5083
▁Mindkett	-11.5083
▁Cég	-11.5083
▁Rooney	-11.5084
▁sprint	-11.5084
▁Diego	-11.5084
▁újév	-11.5084
▁csomagtartó	-11.5084
▁tükör	-11.5084
▁pénztártag	-11.5084
▁szabvány	-11.5084
▁Bakony	-11.5085
▁jelzett	-11.5085
▁elkülönít	-11.5085
▁formátum	-11.5085
▁öntött	-11.5086
▁csoportba	-11.5086
▁évforduló	-11.5086
▁Genf	-11.5089
▁hiányzó	-11.509
▁hívtak	-11.509
▁menü	-11.5091
▁céllal	-11.5091
kupában	-11.5092
▁elhelyezés	-11.5094
▁zóná	-11.5095
▁Mér	-11.5096
▁tengerpart	-11.5096
▁tornát	-11.5096
▁hozzáférés	-11.51
▁May	-11.51
▁Nyíregyháza	-11.51
▁hittem	-11.5103
▁lettem	-11.5104
▁lángok	-11.5106
▁tartozott	-11.5107
▁fiatalokat	-11.5108
▁NL	-11.5113
▁Szlovák	-11.5113
▁tapad	-11.5115
▁területre	-11.5116
Szabó	-11.5116
▁disznó	-11.5116
▁hetvenes	-11.5127
▁tárgyakat	-11.5133
▁szerveződ	-11.5137
▁városba	-11.5144
▁mentem	-11.5144
▁útnak	-11.5147
▁Vis	-11.5147
▁kritizál	-11.5147
▁vezetnek	-11.5149
▁tanulók	-11.5155
▁növelésé	-11.5156
▁húzni	-11.5158
▁bab	-11.5162
▁jövője	-11.5162
fejeződött	-11.5164
kadnak	-11.5166
▁ajánlotta	-11.5167
▁akarom	-11.5168
▁megaláz	-11.5168
▁javaslatát	-11.5172
▁elfoglalt	-11.5173
▁ások	-11.5173
▁sikerét	-11.5175
▁gazdák	-11.5176
▁szivárog	-11.5177
▁lámpák	-11.5177
▁Est	-11.5181
▁tegyé	-11.5182
▁juttatások	-11.5182
RT	-11.5186
▁világossá	-11.5187
▁fenyegette	-11.5187
▁mezőnyben	-11.5188
▁mentette	-11.5189
▁Szil	-11.519
▁állapotá	-11.5195
menet	-11.5202
▁időpontjá	-11.5205
ozgalom	-11.5206
▁kicsik	-11.5208
▁külföldiek	-11.5209
▁akadályozz	-11.521
▁tanulmányoz	-11.5213
▁Stra	-11.5214
lko	-11.5215
▁formát	-11.5215
▁önéletrajz	-11.5216
▁Civil	-11.5216
▁Wikileaks	-11.5216
▁akkumulátor	-11.5216
▁cenzúr	-11.5216
▁megmozdulás	-11.5216
▁államkötvény	-11.5216
▁Óriás	-11.5216
▁Híd	-11.5216
▁comment	-11.5216
▁megszabadul	-11.5216
▁Vásár	-11.5216
▁Carolin	-11.5216
▁elődje	-11.5216
▁értékpapír	-11.5217
▁Universit	-11.5217
▁trón	-11.5217
▁kamasz	-11.5217
▁Hangsúlyozta	-11.5217
▁%)	-11.5218
▁Nyrt	-11.5218
▁felhőzet	-11.5218
▁szabályzat	-11.5218
▁terrorizmus	-11.5218
▁magánpénztár	-11.5218
▁Nyír	-11.5219
▁küzdeni	-11.5219
▁körülötte	-11.5219
▁Adam	-11.5221
▁laza	-11.5221
▁adómentes	-11.5221
▁keresztelt	-11.5221
▁forog	-11.5221
▁könnyed	-11.523
▁Tudom	-11.523
▁elvégezni	-11.5231
▁Spe	-11.5231
▁céljából	-11.5233
▁megnyugtató	-11.5233
▁alapjá	-11.5235
egri	-11.5236
▁eladások	-11.5236
▁leírt	-11.5237
▁posztjá	-11.5241
▁csekk	-11.5241
▁adminisztráció	-11.5241
▁Pitt	-11.5242
▁tagországok	-11.5243
▁számításai	-11.5244
▁Heid	-11.5245
▁többségük	-11.5245
▁érzelmek	-11.5245
cskán	-11.5246
▁kezdetén	-11.5246
▁nehezíti	-11.5246
▁megfogalmazás	-11.5247
▁hozható	-11.5247
▁törvénytelen	-11.5247
▁közlekedni	-11.5248
▁Joe	-11.5248
▁hiányoz	-11.525
nehezebb	-11.5251
GDP	-11.5252
▁megnézni	-11.5253
▁Egyház	-11.5254
▁szöveget	-11.5256
▁hitelesség	-11.5258
▁gazdaságot	-11.5259
▁Vancouverben	-11.5262
park	-11.5262
▁gondozás	-11.5263
leépítés	-11.5264
veszélyeztetett	-11.5268
▁haladás	-11.5269
dimenziós	-11.5271
▁gyűl	-11.5273
▁Nick	-11.5273
▁viseli	-11.5273
▁éttermek	-11.5278
▁járult	-11.5282
▁védelmében	-11.5282
▁kormánny	-11.5289
▁abbak	-11.5295
▁vitel	-11.5296
▁feltételezés	-11.5298
▁Maka	-11.5298
▁útja	-11.53
▁Andre	-11.5301
folyás	-11.5301
▁várták	-11.5307
▁javaslatai	-11.5307
RA	-11.531
▁megsérültek	-11.5311
▁Szal	-11.5313
4,7	-11.5314
▁elrendel	-11.5319
omin	-11.5323
▁gyűlöl	-11.5328
▁rendelés	-11.5331
▁megkérdőjelez	-11.5333
▁felvételen	-11.5334
▁szik	-11.534
választott	-11.5341
▁érem	-11.5342
▁megteremtés	-11.5343
▁pletyk	-11.5344
▁boksz	-11.5345
▁szünetel	-11.5347
▁Las	-11.5347
▁rajtol	-11.5348
▁mozikba	-11.5349
▁elvár	-11.535
▁XVI	-11.5351
▁lelkiismeret	-11.5351
▁pénzbüntetés	-11.5351
▁Együttműködés	-11.5351
▁Ibrahim	-11.5351
▁Kennedy	-11.5351
▁Sampdoria	-11.5351
▁devecseri	-11.5351
▁hivatott	-11.5351
▁maffia	-11.5351
▁nyugdíjjárulék	-11.5351
▁abortusz	-11.5351
▁beadvány	-11.5351
▁bevált	-11.5351
▁szivattyútelep	-11.5352
▁Hercze	-11.5352
▁Ilona	-11.5352
▁Kulcs	-11.5352
szern	-11.5352
field	-11.5352
▁Innen	-11.5352
▁megvalósítani	-11.5353
">	-11.5353
▁leplez	-11.5353
▁mosolyog	-11.5353
▁Pokorn	-11.5353
FIA	-11.5353
ráz	-11.5353
▁igazságtalan	-11.5354
▁Wils	-11.5354
▁médiahatóság	-11.5355
mellesleg	-11.5355
▁kollégium	-11.5355
▁szoftverek	-11.5355
▁készülhet	-11.5356
▁ellentmond	-11.5357
eout	-11.5357
▁megengedett	-11.5359
▁veszte	-11.536
▁kölcsönös	-11.536
▁Ennyi	-11.536
▁vagyonadó	-11.536
▁felszólalás	-11.536
▁Véd	-11.5362
▁vébé	-11.5362
▁Haj	-11.5364
▁megállapított	-11.5364
▁Brazília	-11.5365
▁tervezték	-11.5367
▁Novák	-11.5367
▁étrend	-11.5367
qua	-11.5368
▁Szász	-11.5368
sáv	-11.5369
▁távozik	-11.5369
▁középkorú	-11.5369
▁szállodák	-11.537
▁autóipar	-11.5371
▁eltér	-11.5372
▁maszk	-11.5372
▁programokat	-11.5375
▁fordítva	-11.5376
▁képviseleté	-11.5376
▁manipulál	-11.5377
▁hajlandóság	-11.5377
evesebb	-11.5378
nyolc	-11.5384
▁apjá	-11.5385
▁közönséget	-11.5385
lügyminisztérium	-11.5388
kibocsátás	-11.5388
▁indítani	-11.5389
▁Marcel	-11.5389
▁Tel	-11.539
▁kezdhet	-11.539
▁büntetőjog	-11.539
▁torz	-11.5395
▁telephely	-11.5396
▁tesztek	-11.5401
▁hirdető	-11.5402
▁fenntartásá	-11.5402
▁követés	-11.5402
zmus	-11.5405
olaj	-11.5406
▁rendjé	-11.5407
▁Rét	-11.5408
▁5,7	-11.5419
▁világbajnokságo	-11.5421
▁futtat	-11.5422
ssy	-11.5422
▁létrehozni	-11.5423
ném	-11.5423
gető	-11.5424
▁futotta	-11.5425
patak	-11.5425
▁szükségük	-11.5426
▁pál	-11.5431
▁dokumentumo	-11.5432
rendezés	-11.5434
▁osztályú	-11.544
▁vetés	-11.5441
▁feltár	-11.5443
▁vétele	-11.5444
70	-11.5444
▁vágyó	-11.545
▁beszámol	-11.5451
▁Info	-11.5451
▁helyszínek	-11.5456
▁Rác	-11.5459
amb	-11.546
▁vidéken	-11.546
▁90-	-11.5462
▁kihagy	-11.5462
▁odás	-11.5465
▁ígéretek	-11.5465
▁fidesz	-11.5467
lim	-11.5467
▁szorított	-11.5469
▁vágó	-11.5469
▁ápolás	-11.5472
▁belg	-11.5472
▁#	-11.5475
építés	-11.5479
▁átvett	-11.5481
Ú	-11.5485
▁kismam	-11.5486
▁érintette	-11.5486
▁kilép	-11.5487
▁tipp	-11.5487
idékfejlesztés	-11.5488
rong	-11.5488
▁paradicsom	-11.5488
söpör	-11.5488
▁Bulgáriá	-11.5488
▁DAX	-11.5488
▁Kilenc	-11.5488
▁Viktória	-11.5488
▁megsebesült	-11.5488
▁muzulmán	-11.5488
▁száguld	-11.5488
▁Christian	-11.5488
▁Jakab	-11.5488
▁Addig	-11.5488
▁zongor	-11.5488
▁kilábal	-11.5488
▁Club	-11.5488
▁adócsalás	-11.5488
▁orbán	-11.5489
▁elkészített	-11.5489
▁mérföld	-11.5489
▁felperes	-11.5489
▁ném	-11.5489
folyó	-11.5489
▁lézer	-11.5489
▁hangfelvétel	-11.5489
▁terepjáró	-11.5489
▁küldetés	-11.5489
▁átlátható	-11.549
▁kétségtelen	-11.549
▁hasznosítás	-11.549
▁Beszél	-11.549
▁start	-11.549
▁birodalom	-11.549
▁chip	-11.5491
▁Falco	-11.5491
▁Ajax	-11.5492
▁posztjáról	-11.5492
▁hátránya	-11.5492
▁lemondás	-11.5493
▁látogatása	-11.5493
▁mostantól	-11.5493
▁jéből	-11.5494
:#	-11.5494
▁teteme	-11.5494
▁meteorológia	-11.5495
▁Davis	-11.5496
▁sportol	-11.5496
▁Nyár	-11.5497
piegel	-11.5497
▁jólét	-11.5499
▁Kiemelte	-11.55
▁Bell	-11.5501
igazítás	-11.5501
▁Állat	-11.5503
▁fordulhat	-11.5507
▁foglalta	-11.5508
védelem	-11.551
▁bűnöző	-11.5511
▁elvesztés	-11.5512
▁egyetértett	-11.5512
▁veti	-11.5514
▁barátom	-11.5514
▁Rendszer	-11.5514
▁Vol	-11.5516
szabad	-11.5518
▁lejár	-11.5518
▁tank	-11.5519
▁Kolta	-11.5519
▁189	-11.552
▁osztályának	-11.5522
▁megemlékezés	-11.5523
gard	-11.5524
fejlesztés	-11.5525
árverez	-11.5526
olcsóbb	-11.5527
csoda	-11.5527
▁távozó	-11.5527
▁Laur	-11.5527
▁javaslatok	-11.5533
▁kezé	-11.5535
▁szökés	-11.5538
evic	-11.5538
▁méterre	-11.5538
▁hordoz	-11.5538
DP	-11.5539
▁megszeg	-11.554
▁befoly	-11.554
▁tartása	-11.5542
▁vízbe	-11.5542
nyitás	-11.5543
▁szervezetet	-11.5544
▁alkalma	-11.5544
ájának	-11.5547
▁illő	-11.5549
▁hibái	-11.5549
▁észt	-11.5552
építeni	-11.5555
▁Plat	-11.5556
▁Cal	-11.5561
▁felderítés	-11.5562
▁09	-11.5562
▁Hein	-11.5565
▁3-3	-11.5565
▁arcát	-11.5568
figyelő	-11.5569
▁várakozása	-11.557
▁tűn	-11.5573
▁léptet	-11.5575
▁1989	-11.5575
▁Sin	-11.5579
▁távozás	-11.5583
▁nyaral	-11.5584
űvelődéstörténet	-11.5587
▁érvelés	-11.5589
szavazta	-11.5592
▁Sha	-11.5594
▁csillagok	-11.5604
rgen	-11.5604
▁áruk	-11.5606
▁angolul	-11.5609
▁enyhül	-11.5612
fic	-11.5615
ertész	-11.5616
▁megéri	-11.5619
▁80-	-11.5622
▁08	-11.5622
▁jegyzet	-11.5623
osítás	-11.5624
▁fékez	-11.5625
▁HÉV	-11.5627
▁Sajtó	-11.5627
▁Zeitung	-11.5627
▁antibiotikum	-11.5627
▁csapatfőnök	-11.5627
▁kalkulál	-11.5627
▁mozgott	-11.5627
▁mulasztás	-11.5627
▁portfólió	-11.5627
Berettyó	-11.5627
▁Közölte	-11.5627
▁karbantartás	-11.5627
▁Virág	-11.5627
▁kalauz	-11.5627
▁kistérség	-11.5627
▁állatkert	-11.5627
▁megtisztít	-11.5627
▁Harmad	-11.5627
▁rehabilitáció	-11.5627
▁Napoli	-11.5628
▁pisztoly	-11.5628
▁olyannyira	-11.5628
▁Borisz	-11.5628
▁Internet	-11.5628
▁Oszkó	-11.5628
▁villant	-11.5628
▁Europe	-11.5629
▁eszébe	-11.5629
▁kérelem	-11.5629
▁levéltár	-11.5629
▁korong	-11.5629
▁Anikó	-11.563
▁járadék	-11.563
▁hazájá	-11.5631
▁telefonszám	-11.5631
világbajnokságon	-11.5631
▁járulékok	-11.5632
▁elvisel	-11.5632
▁landol	-11.5633
▁ásvány	-11.5635
tenni	-11.5636
▁jelenlét	-11.5636
ouch	-11.5638
▁csodál	-11.5638
▁édesapja	-11.564
kamará	-11.564
▁tőzsdén	-11.5642
▁zavarja	-11.5642
▁tanyá	-11.5642
▁keverék	-11.5643
▁hatvanas	-11.5646
▁részük	-11.5647
▁szennyezett	-11.5647
▁fizetniük	-11.5649
▁UEFA	-11.5649
▁Ugyanez	-11.565
▁fűt	-11.5654
▁állítható	-11.5655
▁tagadja	-11.5656
▁Hb	-11.5656
▁tőzsdék	-11.5657
értesülések	-11.5657
▁kihirdetés	-11.5661
▁helyettese	-11.5661
rick	-11.5663
▁találkoznak	-11.5663
irodalom	-11.5665
▁Előre	-11.5666
▁hadjárat	-11.5666
▁hajtottak	-11.5667
▁tartjuk	-11.5667
méretű	-11.5667
frakció	-11.5667
▁szülész	-11.5668
jegyzett	-11.5669
▁lendülete	-11.5671
▁vízum	-11.5671
▁képzelni	-11.5672
▁olják	-11.5674
▁mértékét	-11.5677
▁részesít	-11.5677
▁1996-	-11.5677
▁előrejelzése	-11.5678
▁Lég	-11.5682
▁felkért	-11.5682
▁népek	-11.5683
érdem	-11.5684
▁?!	-11.5686
▁területeket	-11.5686
▁elvárások	-11.5688
FC	-11.5688
▁titkár	-11.5691
▁mozgalma	-11.5694
▁formáj	-11.5694
▁France	-11.5701
▁Jel	-11.5706
▁Mariann	-11.5706
▁alakítás	-11.5707
▁szült	-11.5708
▁felelőssége	-11.5708
▁Vd	-11.571
▁megkülönböztet	-11.5715
cellá	-11.5718
▁IV	-11.5719
▁kifizetések	-11.572
▁újságok	-11.572
▁ismerték	-11.5722
▁gondolatai	-11.5723
▁percre	-11.5729
▁Richards	-11.5732
▁szerz	-11.5737
▁előadások	-11.574
kedő	-11.5741
▁világít	-11.5743
▁banda	-11.5745
talanul	-11.5746
▁ültek	-11.5747
▁megtett	-11.5752
▁tározó	-11.5752
▁halaszt	-11.5755
állat	-11.5756
▁stagnál	-11.5757
▁élte	-11.576
▁kövek	-11.5763
▁ifj	-11.5765
▁cin	-11.5765
▁angyal	-11.5767
▁kereszteződés	-11.5768
▁Gazprom	-11.5768
▁Hollywood	-11.5768
▁Szlovénia	-11.5768
▁konszenzus	-11.5768
▁leghíresebb	-11.5768
▁merénylő	-11.5768
▁zarándok	-11.5768
▁rekedt	-11.5768
▁Jolie	-11.5768
▁egyhangú	-11.5768
▁rendellenesség	-11.5768
▁Úr	-11.5768
▁terminál	-11.5768
▁navigáció	-11.5768
▁borzasztó	-11.5769
▁rovat	-11.5769
▁vádirat	-11.5769
algary	-11.577
anghaj	-11.577
▁szerződött	-11.577
▁hírszerzés	-11.577
▁Vélemény	-11.577
▁ütő	-11.577
▁lök	-11.577
▁továbbjutott	-11.577
▁államosítás	-11.577
▁macská	-11.5771
▁kkv	-11.5771
▁balhé	-11.5772
▁ereszt	-11.5772
▁átláthatóság	-11.5773
▁Koszovó	-11.5774
▁Spi	-11.5774
▁összeomlás	-11.5777
▁Roman	-11.5778
▁4,6	-11.578
▁szenát	-11.5783
▁Felip	-11.5784
▁adófizetők	-11.5784
▁mérések	-11.5786
▁Tart	-11.5788
▁ítéli	-11.5791
▁08:	-11.5793
▁burkolat	-11.5795
▁helytáll	-11.5795
▁világítás	-11.5799
▁Mur	-11.58
▁teszem	-11.58
▁üldözés	-11.5801
heim	-11.5805
▁felújított	-11.5805
fogott	-11.5805
▁növelése	-11.5806
log	-11.5806
▁Bécsben	-11.5809
forgalom	-11.581
ommunizmus	-11.581
▁Jens	-11.581
literes	-11.581
százalékos	-11.5811
▁Adrian	-11.5812
▁RC	-11.5812
▁Stein	-11.5813
▁mondás	-11.5813
▁sorsát	-11.5814
▁Gab	-11.5816
teljes	-11.5817
▁Von	-11.5819
alatt	-11.582
▁fejlődését	-11.582
▁kalóz	-11.582
tekinteni	-11.5821
▁csúny	-11.5823
▁Brem	-11.5828
▁­	-11.5828
▁kollégák	-11.5829
dj	-11.5835
▁PC	-11.5835
▁törőd	-11.5837
▁egyházak	-11.5837
▁várom	-11.5837
▁részese	-11.5839
ermészettudomány	-11.5841
▁munkanélküliek	-11.5841
▁utóbb	-11.5843
▁lakta	-11.5847
▁telik	-11.5849
▁ciklusban	-11.5851
íthető	-11.5851
▁Stat	-11.5855
▁magazinnak	-11.586
▁Nyer	-11.5861
▁reményei	-11.5865
▁vetni	-11.5869
▁Mic	-11.587
▁menetel	-11.5872
haltak	-11.5872
▁magáé	-11.5876
▁ellenfelek	-11.5877
▁évtől	-11.588
▁politikusai	-11.588
▁vádolt	-11.5881
▁házba	-11.5883
▁erejét	-11.5884
▁szakasza	-11.5884
▁Cast	-11.5885
▁költségeket	-11.5886
▁koruk	-11.5887
▁tagdíj	-11.589
▁keser	-11.5901
▁zártak	-11.5905
▁fedélzet	-11.5906
▁testvérek	-11.5907
▁jelöli	-11.5907
▁kidolgoz	-11.5907
▁Francia	-11.5908
▁járja	-11.5911
árius	-11.5911
▁jelzálog	-11.5911
▁objektum	-11.5911
▁Iskola	-11.5911
▁Miniszterelnök	-11.5911
▁Pittsburg	-11.5911
▁Szpartak	-11.5911
▁Talmácsi	-11.5911
▁ellehetetlenít	-11.5911
▁jogviszony	-11.5911
▁jövedéki	-11.5911
▁prioritás	-11.5911
▁Férfi	-11.5911
▁logikus	-11.5911
▁sertés	-11.5911
▁elszánt	-11.5911
▁Verseny	-11.5911
▁zárkóz	-11.5911
▁ELTE	-11.5911
▁Tudományegyetem	-11.5911
▁megsértett	-11.5911
▁ezredes	-11.5911
▁Volvo	-11.5911
▁Morgan	-11.5911
▁főosztályvezető	-11.5911
▁számolnak	-11.5912
▁hunyt	-11.5912
▁ügyfélszolgálat	-11.5912
▁lottó	-11.5912
▁Lapozó	-11.5912
▁előfizetés	-11.5912
▁Potter	-11.5912
▁ivó	-11.5912
▁rovar	-11.5913
▁jává	-11.5913
▁újjáépítés	-11.5913
▁mérséklődött	-11.5913
▁fejjel	-11.5915
▁lágy	-11.5915
▁szabadidő	-11.5915
▁értesítés	-11.5918
▁boríték	-11.5918
▁névtelen	-11.5918
▁(22	-11.592
▁ismerősei	-11.592
▁görögök	-11.5921
▁célszerű	-11.5921
NG	-11.5922
▁reped	-11.5922
[...]
