<unk>	0
<s>	0
</s>	0
▁a	-0
sz	-1
el	-2
▁k	-3
▁m	-4
et	-5
en	-6
gy	-7
er	-8
▁t	-9
▁h	-10
at	-11
an	-12
▁v	-13
al	-14
▁n	-15
és	-16
▁,	-17
ek	-18
▁sz	-19
▁f	-20
▁e	-21
▁az	-22
or	-23
ár	-24
in	-25
on	-26
ol	-27
ál	-28
ak	-29
ás	-30
em	-31
▁A	-32
eg	-33
▁b	-34
▁i	-35
án	-36
es	-37
▁l	-38
tt	-39
ér	-40
ok	-41
▁el	-42
én	-43
▁.	-44
ar	-45
ik	-46
ég	-47
ez	-48
cs	-49
▁r	-50
os	-51
▁p	-52
▁s	-53
▁j	-54
bb	-55
▁és	-56
át	-57
▁-	-58
ül	-59
▁ho	-60
ett	-61
ít	-62
ág	-63
él	-64
▁kö	-65
ap	-66
▁egy	-67
▁meg	-68
ét	-69
int	-70
ék	-71
ott	-72
oz	-73
▁is	-74
▁hogy	-75
▁d	-76
▁M	-77
il	-78
ed	-79
ban	-80
is	-81
agy	-82
ben	-83
szt	-84
it	-85
ut	-86
ad	-87
om	-88
▁nem	-89
ól	-90
as	-91
▁cs	-92
am	-93
▁szer	-94
ul	-95
ség	-96
▁S	-97
ni	-98
ák	-99
og	-100
ta	-101
ány	-102
ai	-103
▁ki	-104
ény	-105
áll	-106
ép	-107
aj	-108
▁fel	-109
▁köz	-110
▁1	-111
áz	-112
ja	-113
▁B	-114
▁E	-115
ely	-116
▁le	-117
▁K	-118
▁2	-119
év	-120
az	-121
ig	-122
ag	-123
re	-124
ért	-125
ész	-126
ot	-127
ent	-128
iz	-129
ra	-130
ör	-131
nk	-132
▁am	-133
▁ak	-134
▁"	-135
ság	-136
ám	-137
▁al	-138
olt	-139
▁be	-140
ől	-141
het	-142
▁ez	-143
ny	-144
end	-145
ci	-146
▁Az	-147
ell	-148
ind	-149
▁H	-150
▁(	-151
▁N	-152
nak	-153
▁g	-154
ön	-155
ált	-156
▁ny	-157
ök	-158
▁T	-159
us	-160
▁F	-161
od	-162
▁ú	-163
▁gy	-164
ató	-165
▁év	-166
▁P	-167
ír	-168
art	-169
▁áll	-170
nek	-171
ond	-172
öl	-173
ont	-174
len	-175
ud	-176
szer	-177
ur	-178
▁G	-179
▁V	-180
▁de	-181
uk	-182
egy	-183
unk	-184
▁for	-185
ab	-186
oly	-187
▁c	-188
▁szerint	-189
ber	-190
te	-191
ös	-192
▁ut	-193
▁kor	-194
av	-195
▁ü	-196
▁L	-197
▁C	-198
ezet	-199
▁volt	-200
ött	-201
▁ér	-202
▁jel	-203
szág	-204
ev	-205
ők	-206
agyar	-207
▁rend	-208
▁leg	-209
vet	-210
ov	-211
▁elő	-212
att	-213
ában	-214
▁20	-215
öbb	-216
▁már	-217
▁D	-218
ill	-219
▁I	-220
▁R	-221
ország	-222
▁id	-223
▁ad	-224
▁em	-225
▁val	-226
ep	-227
▁ter	-228
ább	-229
▁Sz	-230
ej	-231
ős	-232
▁mi	-233
▁ok	-234
▁mind	-235
▁hely	-236
▁ker	-237
ént	-238
id	-239
öz	-240
▁át	-241
▁er	-242
kor	-243
est	-244
atás	-245
▁több	-246
áb	-247
ült	-248
▁J	-249
ert	-250
úl	-251
▁szám	-252
ében	-253
▁:	-254
▁nagy	-255
esz	-256
olg	-257
▁es	-258
zet	-259
▁3	-260
▁még	-261
ük	-262
ív	-263
aszt	-264
alm	-265
mány	-266
▁z	-267
ók	-268
éd	-269
▁azt	-270
▁kap	-271
ály	-272
eket	-273
áv	-274
elm	-275
▁tör	-276
ette	-277
let	-278
um	-279
▁csak	-280
iv	-281
▁ha	-282
▁tart	-283
árt	-284
▁kell	-285
▁száz	-286
ia	-287
obb	-288
▁lehet	-289
áj	-290
▁tud	-291
▁mint	-292
▁hoz	-293
ei	-294
őr	-295
ós	-296
▁né	-297
ára	-298
elő	-299
▁van	-300
▁amely	-301
öv	-302
eszt	-303
koz	-304
ítás	-305
▁O	-306
▁vagy	-307
kez	-308
▁más	-309
össz	-310
▁ért	-311
▁vál	-312
iszt	-313
▁nak	-314
▁sem	-315
▁két	-316
▁mag	-317
▁él	-318
ony	-319
ort	-320
▁fog	-321
▁nek	-322
▁vég	-323
▁kép	-324
▁pr	-325
▁ar	-326
isz	-327
illi	-328
▁ellen	-329
ső	-330
ajd	-331
hat	-332
▁mond	-333
▁össz	-334
alék	-335
▁biz	-336
ély	-337
ző	-338
mény	-339
▁új	-340
▁hat	-341
▁il	-342
ch	-343
ín	-344
kal	-345
▁en	-346
tet	-347
▁százalék	-348
▁ig	-349
ának	-350
▁u	-351
▁magyar	-352
▁ol	-353
▁)	-354
ve	-355
ód	-356
ják	-357
ület	-358
▁tel	-359
okat	-360
ebb	-361
nök	-362
ított	-363
ése	-364
íz	-365
ult	-366
edig	-367
▁4	-368
▁ó	-369
▁milli	-370
ir	-371
op	-372
éz	-373
ció	-374
▁szem	-375
ug	-376
▁jelent	-377
leg	-378
ható	-379
▁kül	-380
eh	-381
▁ban	-382
dés	-383
na	-384
▁an	-385
▁mű	-386
ba	-387
▁pedig	-388
▁rész	-389
im	-390
áros	-391
ikai	-392
asz	-393
▁után	-394
be	-395
ilág	-396
▁kez	-397
elt	-398
ének	-399
▁200	-400
▁nap	-401
▁kör	-402
▁5	-403
aság	-404
▁munk	-405
▁in	-406
vény	-407
▁vezet	-408
▁azon	-409
ani	-410
▁ját	-411
▁forint	-412
▁minden	-413
ót	-414
esen	-415
gyan	-416
▁tár	-417
je	-418
eny	-419
▁re	-420
▁vis	-421
▁tal	-422
ád	-423
ére	-424
ost	-425
▁í	-426
▁majd	-427
00	-428
zés	-429
▁ember	-430
▁kormány	-431
ával	-432
uró	-433
ális	-434
▁szak	-435
abb	-436
emény	-437
▁alap	-438
▁lesz	-439
ob	-440
lan	-441
▁ár	-442
▁ek	-443
▁ra	-444
azd	-445
ém	-446
ján	-447
▁első	-448
▁ö	-449
tak	-450
va	-451
▁követ	-452
ást	-453
önt	-454
▁han	-455
enn	-456
▁Magyar	-457
▁miatt	-458
nap	-459
ügy	-460
▁Z	-461
énz	-462
kö	-463
ember	-464
▁19	-465
▁Ez	-466
ked	-467
yen	-468
▁Egy	-469
▁bel	-470
▁ügy	-471
▁ország	-472
▁tört	-473
▁úgy	-474
▁fi	-475
olyan	-476
▁vissz	-477
▁hét	-478
▁fő	-479
▁ír	-480
▁között	-481
ri	-482
etlen	-483
▁sor	-484
▁világ	-485
vel	-486
▁ind	-487
ló	-488
▁ugyan	-489
▁állam	-490
▁aki	-491
ikus	-492
nál	-493
fi	-494
ház	-495
▁így	-496
▁ép	-497
hoz	-498
▁lát	-499
vezet	-500
▁sok	-501
▁foly	-502
▁min	-503
▁6	-504
▁vált	-505
ési	-506
ést	-507
▁mert	-508
ünk	-509
ölt	-510
▁mondta	-511
▁int	-512
ások	-513
▁kis	-514
▁olyan	-515
jel	-516
köz	-517
▁idő	-518
▁elm	-519
▁akkor	-520
▁kész	-521
étel	-522
öld	-523
▁hal	-524
atal	-525
ers	-526
▁igaz	-527
ász	-528
ovább	-529
által	-530
▁kér	-531
▁választ	-532
▁saj	-533
árom	-534
ezett	-535
osan	-536
▁W	-537
ím	-538
▁tan	-539
▁Nem	-540
▁tám	-541
mer	-542
íj	-543
nyi	-544
▁szab	-545
▁bizt	-546
ező	-547
ták	-548
utó	-549
▁egyik	-550
ossz	-551
▁alk	-552
árm	-553
▁csap	-554
ács	-555
olit	-556
eb	-557
▁jog	-558
atok	-559
▁azonban	-560
▁?	-561
any	-562
▁An	-563
árd	-564
ic	-565
▁tovább	-566
nok	-567
▁ir	-568
▁kezd	-569
osz	-570
▁mell	-571
▁ami	-572
▁ked	-573
óz	-574
▁pénz	-575
adás	-576
ról	-577
tel	-578
un	-579
▁201	-580
▁fej	-581
lt	-582
▁fér	-583
kel	-584
oszt	-585
eni	-586
▁valam	-587
▁7	-588
for	-589
azdaság	-590
▁hozz	-591
űn	-592
ikor	-593
▁ról	-594
ási	-595
▁való	-596
▁érd	-597
atkoz	-598
▁eset	-599
▁illet	-600
▁U	-601
ran	-602
tat	-603
tó	-604
▁jó	-605
▁most	-606
▁vár	-607
▁elnök	-608
fel	-609
hető	-610
uróp	-611
ki	-612
▁telj	-613
lő	-614
állal	-615
▁8	-616
▁nev	-617
▁hi	-618
0-	-619
almaz	-620
éter	-621
▁által	-622
▁dönt	-623
zel	-624
▁kapcs	-625
izet	-626
ün	-627
pont	-628
▁é	-629
gész	-630
izs	-631
ván	-632
eng	-633
st	-634
▁három	-635
ító	-636
▁ő	-637
▁pont	-638
ozás	-639
▁külön	-640
▁Cs	-641
▁polit	-642
szak	-643
ati	-644
val	-645
▁ed	-646
ített	-647
▁vissza	-648
▁Á	-649
▁rendőr	-650
▁per	-651
eti	-652
▁ben	-653
arad	-654
fő	-655
▁nél	-656
▁É	-657
jt	-658
old	-659
▁élet	-660
eked	-661
▁ered	-662
incs	-663
▁arra	-664
▁visz	-665
▁korább	-666
▁jelen	-667
ülés	-668
▁vezető	-669
▁előtt	-670
▁sik	-671
▁szó	-672
port	-673
ozat	-674
áció	-675
▁szint	-676
▁össze	-677
tár	-678
oló	-679
ítés	-680
ről	-681
elmi	-682
hez	-683
▁mér	-684
▁szerep	-685
▁nyil	-686
▁Or	-687
▁men	-688
ozó	-689
▁millió	-690
▁dolg	-691
lat	-692
▁cím	-693
▁term	-694
ört	-695
oll	-696
up	-697
▁egész	-698
▁ott	-699
▁jár	-700
ből	-701
▁ah	-702
▁gond	-703
ck	-704
▁kon	-705
and	-706
alom	-707
ing	-708
ög	-709
▁cég	-710
▁kapcsol	-711
SZ	-712
▁történ	-713
▁társ	-714
▁nő	-715
▁vol	-716
vis	-717
▁besz	-718
dig	-719
▁9	-720
▁éves	-721
tek	-722
▁á	-723
▁Gy	-724
pr	-725
últ	-726
▁har	-727
▁rendszer	-728
▁öt	-729
izsg	-730
ével	-731
éld	-732
▁kom	-733
▁talál	-734
▁von	-735
ozott	-736
fog	-737
tatás	-738
▁költ	-739
▁on	-740
▁gyer	-741
ogy	-742
▁fél	-743
őz	-744
kül	-745
véd	-746
▁volna	-747
▁Al	-748
▁játék	-749
▁tag	-750
▁lak	-751
ökk	-752
lam	-753
lal	-754
▁ezt	-755
▁ezer	-756
▁siker	-757
▁párt	-758
jár	-759
▁érdek	-760
▁milliárd	-761
▁et	-762
▁alatt	-763
▁érték	-764
ból	-765
▁or	-766
díj	-767
ilm	-768
ezés	-769
▁másod	-770
úly	-771
▁illetve	-772
enc	-773
ába	-774
▁teljes	-775
ter	-776
▁ként	-777
ajnok	-778
▁ból	-779
▁csapat	-780
▁nyug	-781
▁ház	-782
▁hasz	-783
▁mellett	-784
▁haj	-785
▁seg	-786
▁péld	-787
hely	-788
▁ford	-789
oh	-790
▁hó	-791
▁Magyarország	-792
író	-793
ex	-794
▁kat	-795
eli	-796
őség	-797
▁keres	-798
ezte	-799
▁akik	-800
usz	-801
ütt	-802
gg	-803
adó	-804
uár	-805
gató	-806
▁vers	-807
ása	-808
üt	-809
▁amikor	-810
kol	-811
▁jöv	-812
omb	-813
idesz	-814
▁hang	-815
erikai	-816
▁vállal	-817
▁négy	-818
ként	-819
után	-820
ram	-821
elés	-822
juk	-823
ából	-824
elet	-825
atott	-826
iai	-827
▁törvény	-828
elem	-829
szerű	-830
▁par	-831
▁pály	-832
▁In	-833
▁támog	-834
▁szól	-835
enek	-836
▁közl	-837
▁rá	-838
▁férfi	-839
▁biztos	-840
▁mód	-841
▁Ha	-842
of	-843
▁üz	-844
vas	-845
enne	-846
tr	-847
iszter	-848
▁gazdaság	-849
▁nyom	-850
▁vizsg	-851
kép	-852
▁lép	-853
▁véd	-854
ór	-855
▁csökk	-856
▁jav	-857
▁vesz	-858
ors	-859
séges	-860
▁nemzet	-861
▁haz	-862
▁marad	-863
▁tól	-864
kod	-865
jelent	-866
le	-867
város	-868
▁nál	-869
▁együtt	-870
▁ment	-871
udap	-872
udapest	-873
▁csal	-874
atlan	-875
ium	-876
szín	-877
▁mut	-878
▁verseny	-879
ió	-880
▁lett	-881
zs	-882
gel	-883
ester	-884
▁képvis	-885
▁autó	-886
▁amerikai	-887
ölte	-888
▁tav	-889
omány	-890
osság	-891
▁következ	-892
ocs	-893
tal	-894
ub	-895
▁szolg	-896
urópai	-897
íg	-898
▁túl	-899
▁ít	-900
észt	-901
▁terv	-902
▁erős	-903
1-	-904
▁cél	-905
▁kil	-906
▁nagyon	-907
ték	-908
▁kut	-909
form	-910
▁jobb	-911
ábor	-912
▁szín	-913
ip	-914
álat	-915
áci	-916
▁!	-917
őt	-918
▁te	-919
avaz	-920
▁nincs	-921
eres	-922
ját	-923
ant	-924
ass	-925
▁hanem	-926
▁kapcsolat	-927
▁),	-928
▁eredmény	-929
uló	-930
▁helyzet	-931
▁dél	-932
esség	-933
▁ilyen	-934
▁személy	-935
▁figy	-936
▁film	-937
üntet	-938
▁út	-939
▁megy	-940
▁at	-941
▁hisz	-942
▁től	-943
▁növ	-944
▁bet	-945
oport	-946
▁ism	-947
all	-948
▁vél	-949
ügyi	-950
ogram	-951
▁kar	-952
vány	-953
▁ről	-954
ánt	-955
ec	-956
ilyen	-957
▁hiv	-958
▁15	-959
▁MN	-960
▁hír	-961
aly	-962
▁ét	-963
inek	-964
ang	-965
dő	-966
▁kev	-967
▁azért	-968
pen	-969
▁szerző	-970
ések	-971
▁város	-972
▁közölte	-973
ügg	-974
ason	-975
lás	-976
▁szük	-977
▁segít	-978
▁kív	-979
▁kérdés	-980
▁10	-981
▁vas	-982
▁bef	-983
▁körül	-984
ául	-985
▁".	-986
ef	-987
▁hozzá	-988
▁kam	-989
▁het	-990
mad	-991
▁költség	-992
anak	-993
só	-994
▁műkö	-995
ób	-996
rend	-997
▁tett	-998
▁0	-999
rit	-1000
▁lét	-1001
▁itt	-1002
dal	-1003
zett	-1004
hon	-1005
▁eml	-1006
▁határ	-1007
▁második	-1008
▁tér	-1009
▁Fidesz	-1010
▁ahol	-1011
▁akar	-1012
erg	-1013
uszt	-1014
éntek	-1015
ítani	-1016
▁kés	-1017
▁viszont	-1018
ern	-1019
▁jövő	-1020
öm	-1021
tor	-1022
▁nélkül	-1023
▁eddig	-1024
▁Mi	-1025
ontos	-1026
▁jut	-1027
▁ba	-1028
▁foglal	-1029
vár	-1030
ásár	-1031
▁kerül	-1032
ne	-1033
▁abb	-1034
▁ezért	-1035
▁annak	-1036
▁any	-1037
▁ők	-1038
nyv	-1039
ink	-1040
enni	-1041
úz	-1042
▁szeret	-1043
▁terület	-1044
tart	-1045
▁lap	-1046
▁bizony	-1047
▁El	-1048
▁12	-1049
▁alak	-1050
▁pia	-1051
▁közel	-1052
▁olvas	-1053
ista	-1054
▁hónap	-1055
▁MNO	-1056
éb	-1057
ékoz	-1058
▁ném	-1059
▁forg	-1060
▁ebb	-1061
vétel	-1062
▁ismer	-1063
▁uk	-1064
▁intéz	-1065
lát	-1066
övet	-1067
észet	-1068
bbi	-1069
▁szabad	-1070
▁saját	-1071
▁ne	-1072
▁ből	-1073
▁százalékkal	-1074
▁reg	-1075
▁negy	-1076
ször	-1077
▁például	-1078
▁jelenleg	-1079
ha	-1080
▁miniszter	-1081
ess	-1082
akor	-1083
íróság	-1084
▁száll	-1085
▁arról	-1086
▁játsz	-1087
▁program	-1088
ája	-1089
▁tiszt	-1090
▁csoport	-1091
▁bal	-1092
▁pár	-1093
dik	-1094
▁Nagy	-1095
ord	-1096
▁táv	-1097
▁család	-1098
▁beszél	-1099
▁jegy	-1100
▁ma	-1101
fél	-1102
▁került	-1103
ist	-1104
▁vel	-1105
▁valamint	-1106
▁ugyanis	-1107
cia	-1108
ájékoz	-1109
▁szerd	-1110
▁18	-1111
▁amit	-1112
▁fizet	-1113
▁tavaly	-1114
▁Köz	-1115
ika	-1116
ottság	-1117
sal	-1118
▁óta	-1119
▁mely	-1120
rás	-1121
esebb	-1122
égi	-1123
▁hagy	-1124
leszt	-1125
nagy	-1126
oci	-1127
föld	-1128
▁ja	-1129
▁ának	-1130
▁szabály	-1131
hány	-1132
▁ön	-1133
almas	-1134
▁ál	-1135
▁ének	-1136
▁ot	-1137
örtök	-1138
ütörtök	-1139
ően	-1140
▁emel	-1141
▁közös	-1142
ver	-1143
ekben	-1144
▁ás	-1145
▁oldal	-1146
▁alapján	-1147
ac	-1148
▁hétfő	-1149
közi	-1150
▁gondol	-1151
onság	-1152
▁Budapest	-1153
út	-1154
..	-1155
elnök	-1156
▁munka	-1157
ulajd	-1158
itel	-1159
▁használ	-1160
itk	-1161
ró	-1162
▁hason	-1163
▁oszt	-1164
▁korábban	-1165
dött	-1166
▁hiszen	-1167
▁rendőrség	-1168
▁másik	-1169
▁elmond	-1170
▁számára	-1171
ették	-1172
▁hez	-1173
▁tek	-1174
▁hát	-1175
ozz	-1176
▁ör	-1177
▁irány	-1178
sel	-1179
▁én	-1180
▁Er	-1181
▁perc	-1182
▁kedd	-1183
▁szavaz	-1184
lott	-1185
▁ség	-1186
▁felt	-1187
olc	-1188
▁hossz	-1189
▁jól	-1190
▁péntek	-1191
▁tulajd	-1192
▁azok	-1193
ark	-1194
▁euró	-1195
▁tárgy	-1196
▁kl	-1197
jobb	-1198
▁Nemzet	-1199
zi	-1200
zal	-1201
▁gól	-1202
essz	-1203
▁lehetőség	-1204
ította	-1205
mű	-1206
ús	-1207
▁csütörtök	-1208
▁című	-1209
▁Meg	-1210
telen	-1211
▁neh	-1212
▁százalékos	-1213
ari	-1214
ánd	-1215
▁csökkent	-1216
lag	-1217
ata	-1218
▁közül	-1219
▁képviselő	-1220
lés	-1221
nél	-1222
▁ór	-1223
ológ	-1224
mi	-1225
▁test	-1226
▁érkez	-1227
▁;	-1228
▁okat	-1229
▁harmad	-1230
▁negyed	-1231
▁De	-1232
tató	-1233
anuár	-1234
áló	-1235
ttal	-1236
▁2010	-1237
▁Ú	-1238
▁doll	-1239
▁folyam	-1240
▁elem	-1241
ője	-1242
szab	-1243
▁kedv	-1244
▁Mind	-1245
újt	-1246
▁moz	-1247
▁lenne	-1248
▁nyilatkoz	-1249
nagyobb	-1250
▁felh	-1251
öt	-1252
hu	-1253
▁késő	-1254
▁nyilván	-1255
▁akár	-1256
oda	-1257
▁amelyek	-1258
▁szerv	-1259
▁alkot	-1260
alak	-1261
▁aján	-1262
orv	-1263
ulás	-1264
▁16	-1265
▁megh	-1266
▁elv	-1267
▁tulajdon	-1268
▁nyugdíj	-1269
▁1,	-1270
▁hivatal	-1271
▁szervezet	-1272
ay	-1273
űz	-1274
▁önk	-1275
▁gyerek	-1276
▁bűn	-1277
▁fiatal	-1278
▁legjobb	-1279
új	-1280
▁legnagyobb	-1281
ven	-1282
▁Ny	-1283
▁néhány	-1284
▁víz	-1285
▁adó	-1286
lament	-1287
sége	-1288
▁fut	-1289
▁dec	-1290
▁míg	-1291
▁kellett	-1292
min	-1293
ségi	-1294
▁utol	-1295
▁ára	-1296
▁magas	-1297
▁német	-1298
▁25	-1299
▁ük	-1300
ítő	-1301
▁zs	-1302
▁Szer	-1303
▁december	-1304
érték	-1305
▁Ch	-1306
▁rendel	-1307
▁során	-1308
árs	-1309
▁hatás	-1310
atot	-1311
▁elmúlt	-1312
súly	-1313
▁tesz	-1314
ard	-1315
▁szemben	-1316
jabb	-1317
abd	-1318
▁jelentős	-1319
▁bar	-1320
▁tíz	-1321
▁tartott	-1322
▁ezek	-1323
▁január	-1324
▁st	-1325
ését	-1326
▁ink	-1327
árnap	-1328
ull	-1329
gyű	-1330
ong	-1331
ma	-1332
sor	-1333
▁megsz	-1334
▁11	-1335
okban	-1336
aton	-1337
▁nagyobb	-1338
előtt	-1339
őzés	-1340
nal	-1341
ején	-1342
▁sport	-1343
▁foglalkoz	-1344
ivel	-1345
▁hiány	-1346
assz	-1347
▁egym	-1348
ülő	-1349
▁...	-1350
▁azzal	-1351
ro	-1352
▁nép	-1353
▁győz	-1354
▁elég	-1355
▁raj	-1356
▁gyors	-1357
▁sp	-1358
eztet	-1359
▁ság	-1360
obl	-1361
▁eng	-1362
▁And	-1363
▁megáll	-1364
▁elt	-1365
csak	-1366
▁korábbi	-1367
lik	-1368
▁piac	-1369
▁szél	-1370
▁körny	-1371
ene	-1372
bán	-1373
▁csat	-1374
von	-1375
▁részt	-1376
▁köt	-1377
▁egyéb	-1378
▁17	-1379
▁Ar	-1380
▁aut	-1381
▁dolgoz	-1382
▁támogatás	-1383
ib	-1384
▁legy	-1385
▁rom	-1386
ói	-1387
zat	-1388
▁gazdasági	-1389
▁Fer	-1390
▁fogy	-1391
▁elmondta	-1392
ejt	-1393
élet	-1394
▁hasonló	-1395
▁szoci	-1396
▁bár	-1397
▁rep	-1398
▁kit	-1399
ászló	-1400
szám	-1401
▁föld	-1402
▁tekint	-1403
ettek	-1404
▁kín	-1405
▁bank	-1406
▁gyakor	-1407
sze	-1408
▁emlék	-1409
ános	-1410
▁fontos	-1411
▁megfel	-1412
oblém	-1413
▁ezzel	-1414
nő	-1415
▁unk	-1416
▁ható	-1417
itány	-1418
ics	-1419
▁13	-1420
.)	-1421
▁ám	-1422
▁vannak	-1423
eit	-1424
der	-1425
▁szen	-1426
ormány	-1427
▁problém	-1428
zék	-1429
▁mivel	-1430
▁szolgált	-1431
▁elfog	-1432
jai	-1433
▁14	-1434
eccs	-1435
▁kif	-1436
▁tette	-1437
áról	-1438
▁kal	-1439
▁sér	-1440
▁néz	-1441
séget	-1442
nny	-1443
ezni	-1444
▁könyv	-1445
▁mindig	-1446
▁2009	-1447
▁alá	-1448
▁gép	-1449
▁ával	-1450
▁tájékoz	-1451
▁parlament	-1452
▁nyolc	-1453
▁polg	-1454
▁egyes	-1455
land	-1456
▁idén	-1457
eset	-1458
▁prób	-1459
▁érint	-1460
▁En	-1461
eget	-1462
▁fok	-1463
▁ész	-1464
▁teh	-1465
▁esz	-1466
▁fran	-1467
▁MSZ	-1468
▁költségvet	-1469
mek	-1470
▁gyan	-1471
▁adott	-1472
▁inform	-1473
▁adat	-1474
ítette	-1475
▁történt	-1476
etem	-1477
ür	-1478
▁eljár	-1479
▁MT	-1480
okr	-1481
▁els	-1482
▁rossz	-1483
ekt	-1484
▁kereszt	-1485
▁vasárnap	-1486
▁erő	-1487
▁elnöke	-1488
ovember	-1489
▁kapott	-1490
▁különb	-1491
li	-1492
▁javas	-1493
▁felel	-1494
▁Ist	-1495
▁hazai	-1496
▁közép	-1497
alt	-1498
ock	-1499
▁őket	-1500
▁szerződés	-1501
▁meccs	-1502
▁utolsó	-1503
▁László	-1504
▁voltak	-1505
lin	-1506
▁milyen	-1507
bajnok	-1508
▁enged	-1509
▁fr	-1510
leges	-1511
▁bajnok	-1512
acs	-1513
▁Ál	-1514
évő	-1515
▁újra	-1516
▁zár	-1517
úr	-1518
▁vásár	-1519
mér	-1520
▁inkább	-1521
▁ünk	-1522
▁Ö	-1523
▁gyű	-1524
▁kötel	-1525
▁MSZP	-1526
▁199	-1527
ítja	-1528
lov	-1529
▁vez	-1530
▁rendelkez	-1531
né	-1532
▁vit	-1533
átt	-1534
▁sajtó	-1535
ssz	-1536
▁politikai	-1537
▁várható	-1538
talan	-1539
mények	-1540
almazott	-1541
▁fejleszt	-1542
olás	-1543
▁St	-1544
óta	-1545
▁anyag	-1546
▁1-	-1547
▁legal	-1548
▁hív	-1549
▁súly	-1550
▁iz	-1551
iség	-1552
viv	-1553
▁főváros	-1554
▁könny	-1555
ehér	-1556
▁további	-1557
▁függ	-1558
▁vád	-1559
▁Orbán	-1560
2-	-1561
▁Ne	-1562
▁szomb	-1563
almi	-1564
▁kiv	-1565
▁őr	-1566
esült	-1567
igaz	-1568
▁folyamat	-1569
▁telep	-1570
▁nemzetközi	-1571
▁ismert	-1572
▁emberek	-1573
▁ber	-1574
ens	-1575
éről	-1576
▁mot	-1577
▁mérk	-1578
ították	-1579
▁játékos	-1580
8-	-1581
▁sikerült	-1582
▁állap	-1583
▁magán	-1584
▁orosz	-1585
▁november	-1586
▁önkormány	-1587
▁tanul	-1588
▁magát	-1589
▁Bal	-1590
▁találkoz	-1591
úsz	-1592
▁dr	-1593
▁igazgató	-1594
,5	-1595
▁tény	-1596
▁ennek	-1597
színű	-1598
érium	-1599
sér	-1600
▁Bar	-1601
▁megállap	-1602
▁emelked	-1603
aki	-1604
▁díj	-1605
▁utó	-1606
▁figyelm	-1607
▁27	-1608
▁készült	-1609
▁műv	-1610
▁harmadik	-1611
▁történet	-1612
▁Br	-1613
ment	-1614
imp	-1615
▁Le	-1616
iss	-1617
▁ában	-1618
▁mod	-1619
▁méd	-1620
▁állami	-1621
▁üt	-1622
▁utc	-1623
▁megfelelő	-1624
jük	-1625
oni	-1626
▁átlag	-1627
ion	-1628
gyel	-1629
ozta	-1630
▁hol	-1631
adt	-1632
▁Péter	-1633
▁beteg	-1634
▁rendez	-1635
itás	-1636
▁mutat	-1637
▁megv	-1638
▁szület	-1639
▁mik	-1640
▁növeked	-1641
emel	-1642
uh	-1643
▁felad	-1644
ármester	-1645
▁politikus	-1646
tam	-1647
▁talált	-1648
▁éppen	-1649
▁következő	-1650
rel	-1651
anyol	-1652
▁Zs	-1653
ah	-1654
▁vet	-1655
▁kisebb	-1656
▁vi	-1657
▁hitel	-1658
▁cik	-1659
▁).	-1660
▁Európ	-1661
ka	-1662
előre	-1663
▁biztonság	-1664
ekkel	-1665
▁európai	-1666
áját	-1667
▁gyermek	-1668
ebr	-1669
pl	-1670
ogatott	-1671
▁közleked	-1672
▁eket	-1673
▁belül	-1674
▁mérkőzés	-1675
követ	-1676
▁veszély	-1677
▁tűn	-1678
szik	-1679
▁bíróság	-1680
▁30	-1681
▁kór	-1682
két	-1683
mel	-1684
edett	-1685
▁form	-1686
▁István	-1687
osítás	-1688
▁lev	-1689
jában	-1690
▁fin	-1691
▁közlemény	-1692
ly	-1693
har	-1694
son	-1695
▁sal	-1696
▁hon	-1697
▁éve	-1698
▁szóló	-1699
▁mintegy	-1700
üz	-1701
▁fogyaszt	-1702
▁tap	-1703
▁nyert	-1704
▁2010.	-1705
ását	-1706
utt	-1707
▁erre	-1708
orn	-1709
eség	-1710
akkor	-1711
▁helyett	-1712
▁legalább	-1713
▁tárgyal	-1714
▁iskol	-1715
▁neki	-1716
▁változ	-1717
nn	-1718
úg	-1719
▁bír	-1720
▁ver	-1721
▁24	-1722
rt	-1723
atív	-1724
▁múlt	-1725
▁tanács	-1726
lap	-1727
▁helyen	-1728
erc	-1729
▁megk	-1730
▁szövet	-1731
ellem	-1732
▁elér	-1733
cius	-1734
▁képest	-1735
▁írja	-1736
chn	-1737
▁halál	-1738
▁ni	-1739
▁szükség	-1740
▁helyi	-1741
mus	-1742
ári	-1743
▁ül	-1744
▁Ind	-1745
íteni	-1746
állítás	-1747
▁megb	-1748
▁később	-1749
őv	-1750
▁kívül	-1751
nem	-1752
▁föl	-1753
ektet	-1754
▁büntet	-1755
öző	-1756
ebruár	-1757
6-	-1758
▁felelős	-1759
▁hatóság	-1760
▁forintot	-1761
övid	-1762
▁okkal	-1763
▁tiz	-1764
▁megt	-1765
▁lévő	-1766
▁miniszterelnök	-1767
▁bor	-1768
▁amelyet	-1769
▁szerdán	-1770
▁br	-1771
▁újabb	-1772
▁megold	-1773
ulat	-1774
▁közt	-1775
▁végén	-1776
▁válság	-1777
álni	-1778
▁sokkal	-1779
▁évvel	-1780
▁üzlet	-1781
he	-1782
▁abban	-1783
▁Y	-1784
▁számít	-1785
▁Azt	-1786
▁vid	-1787
▁fenn	-1788
ow	-1789
▁Am	-1790
▁bele	-1791
▁kí	-1792
nnep	-1793
ációs	-1794
▁ellenére	-1795
▁valószínű	-1796
▁tölt	-1797
▁hétfőn	-1798
▁barát	-1799
isztérium	-1800
csi	-1801
emokr	-1802
elek	-1803
▁igény	-1804
▁kény	-1805
ókat	-1806
▁Itt	-1807
▁dollár	-1808
▁elleni	-1809
ezték	-1810
lak	-1811
▁hall	-1812
ottak	-1813
▁kutató	-1814
▁di	-1815
▁összeg	-1816
▁szív	-1817
▁válasz	-1818
▁Magyarországon	-1819
űr	-1820
mal	-1821
▁2-	-1822
ismer	-1823
▁természet	-1824
la	-1825
▁MTI	-1826
▁orv	-1827
▁Í	-1828
▁kedden	-1829
▁Mar	-1830
▁bizottság	-1831
▁Állam	-1832
▁ünnep	-1833
▁Ország	-1834
olni	-1835
ákat	-1836
▁nyer	-1837
▁keresked	-1838
kori	-1839
▁mer	-1840
▁Szab	-1841
▁0,	-1842
▁ebben	-1843
uc	-1844
biz	-1845
etés	-1846
től	-1847
▁Ki	-1848
▁időszak	-1849
▁szig	-1850
▁egyre	-1851
▁vállalkoz	-1852
ógy	-1853
▁vizsgálat	-1854
▁til	-1855
fr	-1856
oj	-1857
▁21	-1858
otta	-1859
▁ing	-1860
haj	-1861
uház	-1862
▁részlet	-1863
ali	-1864
inak	-1865
▁társad	-1866
▁este	-1867
▁készül	-1868
▁gáz	-1869
▁Ferenc	-1870
▁szóviv	-1871
▁",	-1872
▁utóbbi	-1873
erj	-1874
▁társaság	-1875
▁ismét	-1876
▁évben	-1877
▁egyetlen	-1878
▁március	-1879
▁ham	-1880
földi	-1881
apitány	-1882
▁egyen	-1883
▁veszt	-1884
▁egyelőre	-1885
endő	-1886
olta	-1887
▁február	-1888
▁teljesít	-1889
▁egyébként	-1890
▁X	-1891
ese	-1892
encs	-1893
▁évek	-1894
ennyi	-1895
ernet	-1896
▁szintén	-1897
▁kíván	-1898
ánk	-1899
▁szor	-1900
▁nehéz	-1901
▁álló	-1902
▁elh	-1903
▁uni	-1904
▁igen	-1905
szor	-1906
▁Gábor	-1907
▁kider	-1908
ft	-1909
▁Jobb	-1910
émet	-1911
▁elk	-1912
tóber	-1913
▁létre	-1914
▁ci	-1915
▁kösz	-1916
▁Európai	-1917
▁w	-1918
ona	-1919
ózs	-1920
polg	-1921
▁keret	-1922
▁forduló	-1923
esek	-1924
▁tév	-1925
ecs	-1926
▁tűz	-1927
ékeny	-1928
▁ide	-1929
sék	-1930
foly	-1931
▁követően	-1932
▁pénteken	-1933
őleg	-1934
▁internet	-1935
▁helyszín	-1936
▁csütörtökön	-1937
▁23	-1938
▁fogad	-1939
▁rövid	-1940
ich	-1941
úcs	-1942
▁fény	-1943
),	-1944
ón	-1945
▁der	-1946
▁rég	-1947
▁kórház	-1948
heti	-1949
▁mérték	-1950
▁folytat	-1951
▁kért	-1952
▁jelentette	-1953
▁kezdő	-1954
▁egyszer	-1955
ázs	-1956
▁töm	-1957
▁motor	-1958
▁ellenőr	-1959
▁vezetője	-1960
▁bejelent	-1961
▁központ	-1962
▁hib	-1963
országban	-1964
jegy	-1965
▁állít	-1966
▁kih	-1967
▁lány	-1968
örgy	-1969
▁megl	-1970
ázat	-1971
▁Tam	-1972
▁kett	-1973
▁jelölt	-1974
▁gyárt	-1975
▁gazd	-1976
▁esély	-1977
védelmi	-1978
▁Már	-1979
▁annyi	-1980
▁szinte	-1981
éssel	-1982
▁világbajnok	-1983
▁tet	-1984
▁konc	-1985
▁hosszú	-1986
▁ével	-1987
vezető	-1988
országi	-1989
▁vizsgál	-1990
▁part	-1991
▁viszony	-1992
ti	-1993
erős	-1994
▁műsor	-1995
▁egyszerű	-1996
za	-1997
endég	-1998
eged	-1999
ással	-2000
▁megyei	-2001
▁baleset	-2002
▁szakért	-2003
▁végül	-2004
▁rek	-2005
▁orvos	-2006
emut	-2007
hetetlen	-2008
▁kult	-2009
▁válogatott	-2010
▁sorozat	-2011
▁os	-2012
ilis	-2013
▁mit	-2014
asztal	-2015
▁vonatkoz	-2016
▁3-	-2017
rány	-2018
▁Mik	-2019
▁tudja	-2020
akat	-2021
ésre	-2022
szolg	-2023
▁amelynek	-2024
▁tr	-2025
▁utas	-2026
asznál	-2027
▁először	-2028
ítvány	-2029
ácsony	-2030
▁maga	-2031
elni	-2032
▁tehát	-2033
▁próbál	-2034
ézet	-2035
elv	-2036
ármű	-2037
▁techn	-2038
▁arány	-2039
▁végre	-2040
▁otthon	-2041
▁Sport	-2042
▁szakember	-2043
gal	-2044
▁22	-2045
▁port	-2046
▁kir	-2047
▁Rend	-2048
anyag	-2049
▁brit	-2050
▁vélemény	-2051
áni	-2052
lovák	-2053
▁befektet	-2054
▁szok	-2055
▁Mint	-2056
▁vendég	-2057
▁miután	-2058
▁feltétel	-2059
ezt	-2060
▁Sch	-2061
gr	-2062
özben	-2063
▁New	-2064
▁áld	-2065
▁im	-2066
▁éj	-2067
▁szép	-2068
ait	-2069
elte	-2070
▁utaz	-2071
▁délután	-2072
▁alkotmány	-2073
▁kéz	-2074
▁egészség	-2075
tól	-2076
▁fal	-2077
bert	-2078
▁György	-2079
▁szükséges	-2080
▁labd	-2081
▁án	-2082
▁gyeng	-2083
▁október	-2084
▁Pr	-2085
▁nyújt	-2086
ird	-2087
mun	-2088
▁Ak	-2089
ához	-2090
▁bér	-2091
▁többi	-2092
íti	-2093
▁26	-2094
▁Jobbik	-2095
nyit	-2096
▁dar	-2097
▁Val	-2098
▁János	-2099
▁eszköz	-2100
ői	-2101
▁hangsúly	-2102
urg	-2103
line	-2104
▁Világ	-2105
▁értelm	-2106
pénz	-2107
ébe	-2108
▁előző	-2109
▁teljesen	-2110
▁Vik	-2111
▁ik	-2112
dönt	-2113
▁része	-2114
▁előre	-2115
▁/	-2116
▁tem	-2117
▁haszn	-2118
áp	-2119
erm	-2120
▁Fran	-2121
▁kapcsolatban	-2122
▁nyit	-2123
▁szenv	-2124
▁100	-2125
▁továbbra	-2126
ná	-2127
▁bemut	-2128
▁energ	-2129
ezer	-2130
▁idei	-2131
▁lel	-2132
▁kevés	-2133
határ	-2134
▁mozg	-2135
upán	-2136
ékony	-2137
▁legyen	-2138
nev	-2139
▁EU	-2140
orban	-2141
▁ekkel	-2142
▁vett	-2143
eken	-2144
▁tev	-2145
▁gyógy	-2146
▁mégis	-2147
▁közben	-2148
▁szocial	-2149
pány	-2150
▁tulajdonos	-2151
enet	-2152
adásul	-2153
ner	-2154
féle	-2155
▁dob	-2156
ettel	-2157
▁termék	-2158
▁javaslat	-2159
▁ezen	-2160
ept	-2161
zati	-2162
éli	-2163
avar	-2164
ándor	-2165
▁kock	-2166
▁jelenlegi	-2167
.,	-2168
▁fegy	-2169
▁komoly	-2170
▁Nemzeti	-2171
▁poz	-2172
▁tizen	-2173
ozni	-2174
▁vele	-2175
▁újság	-2176
enger	-2177
▁állás	-2178
áig	-2179
▁pl	-2180
▁csökken	-2181
▁sen	-2182
▁gyűjt	-2183
▁reggel	-2184
gép	-2185
▁ülés	-2186
▁50	-2187
isták	-2188
▁kísér	-2189
ork	-2190
▁környezet	-2191
▁polgármester	-2192
ford	-2193
prilis	-2194
▁elkövet	-2195
▁rendőrök	-2196
ukat	-2197
▁cikk	-2198
▁választás	-2199
▁íg	-2200
▁indul	-2201
▁száma	-2202
▁szolgáltatás	-2203
▁közvet	-2204
fer	-2205
lós	-2206
ton	-2207
atták	-2208
▁miért	-2209
▁Új	-2210
▁fot	-2211
▁let	-2212
▁szerepel	-2213
▁gyanús	-2214
▁épület	-2215
▁És	-2216
▁akt	-2217
▁lem	-2218
társ	-2219
▁semmi	-2220
ank	-2221
▁Ig	-2222
ségek	-2223
▁dok	-2224
▁esetben	-2225
▁kampány	-2226
▁kellene	-2227
ítása	-2228
ilk	-2229
▁Zrt	-2230
▁ill	-2231
hetően	-2232
▁forintos	-2233
ügymin	-2234
▁persze	-2235
omás	-2236
▁Biz	-2237
▁klub	-2238
▁kevesebb	-2239
▁cser	-2240
▁modell	-2241
izmus	-2242
zó	-2243
▁Zolt	-2244
ou	-2245
több	-2246
▁tanulmány	-2247
nyug	-2248
▁Tamás	-2249
▁tak	-2250
▁köszön	-2251
kot	-2252
▁BK	-2253
▁sel	-2254
acsony	-2255
▁benne	-2256
▁érvény	-2257
szk	-2258
atta	-2259
▁forr	-2260
▁list	-2261
▁intézmény	-2262
▁ére	-2263
▁olimp	-2264
▁küz	-2265
ama	-2266
▁francia	-2267
▁Egyesült	-2268
ősorban	-2269
apitányság	-2270
mai	-2271
tag	-2272
efon	-2273
▁alig	-2274
▁segítség	-2275
▁karácsony	-2276
▁név	-2277
ga	-2278
ann	-2279
▁Fő	-2280
▁Német	-2281
▁indult	-2282
ométer	-2283
▁csupán	-2284
▁Ezt	-2285
▁ex	-2286
▁állt	-2287
▁érdem	-2288
▁ugyanakkor	-2289
▁döntés	-2290
pal	-2291
ották	-2292
▁Ol	-2293
orvát	-2294
▁méter	-2295
örög	-2296
▁terj	-2297
▁BKV	-2298
▁rem	-2299
▁pénzügyi	-2300
▁héten	-2301
▁különös	-2302
▁épít	-2303
▁hogyan	-2304
ságot	-2305
uz	-2306
urcs	-2307
okkal	-2308
▁százaléka	-2309
cel	-2310
ánc	-2311
▁mög	-2312
▁alkalmaz	-2313
gyűlés	-2314
▁talán	-2315
7-	-2316
▁str	-2317
▁kics	-2318
▁Em	-2319
jét	-2320
ívül	-2321
▁pill	-2322
▁semm	-2323
▁írta	-2324
▁40	-2325
▁om	-2326
jon	-2327
▁akad	-2328
ce	-2329
▁Kr	-2330
ái	-2331
▁összesen	-2332
ésére	-2333
▁elfogad	-2334
▁szempont	-2335
▁Zoltán	-2336
▁szül	-2337
▁jobban	-2338
▁tevékeny	-2339
hatja	-2340
▁áról	-2341
▁mindenki	-2342
▁oda	-2343
▁döntött	-2344
▁legtöbb	-2345
íp	-2346
olja	-2347
▁állapot	-2348
▁április	-2349
rán	-2350
ilag	-2351
álló	-2352
▁vezér	-2353
▁kutatás	-2354
▁érdekében	-2355
odás	-2356
omag	-2357
▁tagja	-2358
▁ap	-2359
eleg	-2360
▁irod	-2361
▁lég	-2362
▁ellát	-2363
kívül	-2364
▁intézked	-2365
se	-2366
▁Il	-2367
▁Re	-2368
▁Sp	-2369
mond	-2370
▁idej	-2371
▁darab	-2372
átor	-2373
adék	-2374
▁indok	-2375
oc	-2376
▁súlyos	-2377
gol	-2378
▁2,	-2379
▁hav	-2380
▁se	-2381
▁nők	-2382
▁óra	-2383
jának	-2384
vonal	-2385
▁Viktor	-2386
mag	-2387
▁Be	-2388
▁kialak	-2389
jából	-2390
▁felé	-2391
▁szez	-2392
▁pap	-2393
DF	-2394
függ	-2395
▁szeretn	-2396
elők	-2397
▁ip	-2398
elmű	-2399
▁jön	-2400
▁Att	-2401
▁vill	-2402
▁aztán	-2403
▁esemény	-2404
fit	-2405
▁osztály	-2406
okon	-2407
ozik	-2408
▁lény	-2409
-1	-2410
engyel	-2411
▁Ma	-2412
▁csin	-2413
▁maradt	-2414
▁évi	-2415
ezik	-2416
▁húz	-2417
ármaz	-2418
igazgató	-2419
őben	-2420
▁elkép	-2421
▁jutott	-2422
▁ezelőtt	-2423
ball	-2424
gatás	-2425
▁meglep	-2426
ezi	-2427
▁elsősorban	-2428
▁nemzeti	-2429
▁Józs	-2430
milli	-2431
▁szakasz	-2432
▁Bár	-2433
átette	-2434
▁olasz	-2435
örös	-2436
▁uniós	-2437
▁összes	-2438
▁látt	-2439
▁jött	-2440
▁hajt	-2441
íció	-2442
▁ell	-2443
▁sőt	-2444
ományos	-2445
▁elején	-2446
oha	-2447
▁ék	-2448
▁had	-2449
▁Itthon	-2450
▁tapasztal	-2451
▁bárm	-2452
zetes	-2453
róf	-2454
▁képes	-2455
szabad	-2456
ral	-2457
éni	-2458
ólag	-2459
▁Európa	-2460
lus	-2461
▁ében	-2462
▁számos	-2463
▁származ	-2464
▁különböző	-2465
kr	-2466
ileg	-2467
▁eljárás	-2468
▁teljesítmény	-2469
▁egyed	-2470
▁vagyis	-2471
▁Fel	-2472
▁kár	-2473
atni	-2474
hatnak	-2475
▁2.	-2476
▁András	-2477
▁spanyol	-2478
▁Hír	-2479
atárs	-2480
ument	-2481
▁vagyok	-2482
enci	-2483
▁külföldi	-2484
▁közötti	-2485
▁demokr	-2486
▁keresztül	-2487
etett	-2488
▁nőtt	-2489
▁cent	-2490
▁Ugyan	-2491
▁gyakorlat	-2492
io	-2493
▁látog	-2494
▁változat	-2495
▁MDF	-2496
▁kiz	-2497
▁szerk	-2498
▁József	-2499
▁lehetett	-2500
▁munkatárs	-2501
▁település	-2502
zők	-2503
álás	-2504
▁kilométer	-2505
▁bl	-2506
▁kilenc	-2507
ocsi	-2508
▁buk	-2509
észeti	-2510
▁vér	-2511
▁beruház	-2512
▁(1	-2513
uális	-2514
▁üzem	-2515
▁lakás	-2516
▁módon	-2517
▁nemcsak	-2518
5-	-2519
▁Van	-2520
▁kárt	-2521
▁Attil	-2522
▁Index	-2523
▁honlap	-2524
▁szezon	-2525
▁valami	-2526
▁közé	-2527
lom	-2528
▁Uni	-2529
▁alacsony	-2530
▁dokument	-2531
ina	-2532
ansz	-2533
▁akart	-2534
▁járt	-2535
▁mély	-2536
▁kik	-2537
▁tém	-2538
▁lő	-2539
ocsát	-2540
tatási	-2541
▁jármű	-2542
▁korlát	-2543
▁fed	-2544
▁Ennek	-2545
értelmű	-2546
▁Rendőr	-2547
▁valaki	-2548
ozza	-2549
▁régi	-2550
▁Sándor	-2551
▁esetében	-2552
rál	-2553
▁3,	-2554
van	-2555
▁Nép	-2556
▁adatok	-2557
titk	-2558
attal	-2559
ereség	-2560
▁színész	-2561
▁baj	-2562
▁egykori	-2563
száz	-2564
váj	-2565
énk	-2566
eztek	-2567
▁közep	-2568
▁tömeg	-2569
▁működ	-2570
▁forgalom	-2571
óg	-2572
zás	-2573
akció	-2574
▁tartó	-2575
▁egyetem	-2576
▁független	-2577
▁felhasznál	-2578
000	-2579
▁Kar	-2580
▁kel	-2581
udapesti	-2582
▁Min	-2583
nyire	-2584
▁érdeklő	-2585
osabb	-2586
▁Több	-2587
▁látható	-2588
▁addig	-2589
▁lényeg	-2590
ca	-2591
▁29	-2592
▁Így	-2593
▁lass	-2594
eptember	-2595
▁budapesti	-2596
3-	-2597
▁terh	-2598
▁kínai	-2599
▁teszt	-2600
▁szóvivője	-2601
▁felk	-2602
▁titk	-2603
ie	-2604
▁4-	-2605
hhez	-2606
▁Két	-2607
▁azokat	-2608
▁Minden	-2609
rec	-2610
óri	-2611
iskol	-2612
▁ideg	-2613
▁hid	-2614
▁kiad	-2615
▁lakosság	-2616
▁szerencs	-2617
ekv	-2618
▁években	-2619
▁vág	-2620
▁nevű	-2621
álaszt	-2622
▁ur	-2623
▁részvény	-2624
ékes	-2625
▁Rom	-2626
▁Vas	-2627
▁angol	-2628
▁csúcs	-2629
▁árfoly	-2630
▁Megy	-2631
▁becs	-2632
▁ítél	-2633
ente	-2634
▁magyaráz	-2635
▁kerület	-2636
▁kezdemény	-2637
▁pénzt	-2638
▁nyelv	-2639
emt	-2640
▁For	-2641
▁jellem	-2642
ler	-2643
▁rak	-2644
▁sajt	-2645
▁nehez	-2646
oy	-2647
fok	-2648
anat	-2649
▁okoz	-2650
▁ahhoz	-2651
▁katon	-2652
▁egyértelmű	-2653
éri	-2654
ektr	-2655
▁ához	-2656
▁sokat	-2657
▁választási	-2658
▁végzett	-2659
ron	-2660
▁eur	-2661
ósság	-2662
▁rendkívül	-2663
zik	-2664
▁Ed	-2665
▁Kft	-2666
▁információ	-2667
▁tor	-2668
▁élő	-2669
▁fogalmazott	-2670
pály	-2671
▁kommun	-2672
▁érkezett	-2673
▁Még	-2674
II	-2675
rész	-2676
▁költségvetés	-2677
erő	-2678
▁od	-2679
▁olvasható	-2680
ágy	-2681
▁Per	-2682
álták	-2683
▁támad	-2684
hatatlan	-2685
fők	-2686
sért	-2687
városi	-2688
▁Gazdaság	-2689
▁ég	-2690
▁előny	-2691
▁kapcsolatos	-2692
▁28	-2693
▁krit	-2694
▁megjelent	-2695
▁napon	-2696
anács	-2697
víz	-2698
▁múl	-2699
anszír	-2700
▁tudott	-2701
▁éről	-2702
szabály	-2703
ítették	-2704
▁vonatkozó	-2705
rák	-2706
érd	-2707
▁Kor	-2708
▁Mol	-2709
▁tur	-2710
▁idején	-2711
▁többször	-2712
4-	-2713
▁esett	-2714
ete	-2715
▁2008	-2716
▁assz	-2717
fl	-2718
ian	-2719
▁35	-2720
▁op	-2721
▁mai	-2722
▁szombaton	-2723
▁választások	-2724
ásra	-2725
éhez	-2726
ítottak	-2727
gazdaság	-2728
▁Ő	-2729
▁utal	-2730
▁2010-	-2731
pénztár	-2732
▁felett	-2733
szervezet	-2734
▁valószínűleg	-2735
▁nyí	-2736
▁csomag	-2737
▁mögött	-2738
lék	-2739
▁női	-2740
▁rög	-2741
ítése	-2742
▁jának	-2743
obil	-2744
af	-2745
ung	-2746
▁je	-2747
▁cégek	-2748
▁teszi	-2749
▁ából	-2750
our	-2751
éves	-2752
oknak	-2753
▁2009-	-2754
itt	-2755
atikus	-2756
▁pan	-2757
▁megjel	-2758
▁szeptember	-2759
ódott	-2760
▁mindent	-2761
▁valóban	-2762
űt	-2763
enz	-2764
▁feladat	-2765
▁3.	-2766
▁akit	-2767
▁ingatlan	-2768
evő	-2769
▁született	-2770
▁korr	-2771
nie	-2772
elen	-2773
▁húsz	-2774
▁kérd	-2775
▁mondja	-2776
▁tartja	-2777
műkö	-2778
▁tehet	-2779
▁elképzel	-2780
▁őt	-2781
olog	-2782
olták	-2783
▁azonnal	-2784
▁1.	-2785
eum	-2786
össze	-2787
▁kelet	-2788
▁dokumentum	-2789
▁Ant	-2790
▁vide	-2791
▁senki	-2792
ham	-2793
sem	-2794
▁menny	-2795
▁országos	-2796
▁jelentkez	-2797
rid	-2798
▁Man	-2799
▁feny	-2800
▁fejlő	-2801
▁hivatalos	-2802
észség	-2803
▁század	-2804
▁telefon	-2805
org	-2806
▁2008-	-2807
▁tenni	-2808
asztróf	-2809
▁férfit	-2810
▁Országos	-2811
▁Ad	-2812
arúg	-2813
lési	-2814
▁hird	-2815
éseket	-2816
▁tudta	-2817
▁Attila	-2818
▁Kov	-2819
▁működés	-2820
era	-2821
▁(2	-2822
beli	-2823
nyal	-2824
▁megbíz	-2825
▁önkormányzat	-2826
bizt	-2827
éből	-2828
▁Ber	-2829
▁meghatár	-2830
▁küzd	-2831
cselek	-2832
▁Zsolt	-2833
▁beszélt	-2834
sa	-2835
andó	-2836
▁tudni	-2837
▁ellenzék	-2838
▁erősö	-2839
▁Csak	-2840
▁vegy	-2841
▁ab	-2842
▁bőv	-2843
▁koll	-2844
▁Megyei	-2845
tatta	-2846
▁kifej	-2847
▁média	-2848
szerzés	-2849
▁áldozat	-2850
▁hatalmas	-2851
▁finanszír	-2852
▁tartalmaz	-2853
▁Laj	-2854
▁szereplő	-2855
tiz	-2856
alap	-2857
ue	-2858
urális	-2859
▁ráadásul	-2860
eznek	-2861
▁juk	-2862
▁arany	-2863
▁távol	-2864
ash	-2865
▁198	-2866
▁Car	-2867
▁seb	-2868
▁futball	-2869
evíz	-2870
egény	-2871
▁miközben	-2872
▁országban	-2873
▁harc	-2874
▁tűnik	-2875
aba	-2876
▁megny	-2877
rak	-2878
almat	-2879
ack	-2880
álja	-2881
▁fiz	-2882
▁idéz	-2883
▁felső	-2884
▁kiderült	-2885
▁parlamenti	-2886
álta	-2887
részt	-2888
▁engedély	-2889
▁szerzett	-2890
inte	-2891
usok	-2892
▁proj	-2893
▁bűncselek	-2894
ey	-2895
▁ve	-2896
▁szöv	-2897
áború	-2898
▁sérülés	-2899
ajn	-2900
ancs	-2901
▁azóta	-2902
vég	-2903
atja	-2904
örtön	-2905
▁többek	-2906
úra	-2907
▁Igaz	-2908
ivatal	-2909
▁térség	-2910
str	-2911
▁elektr	-2912
▁vagyon	-2913
▁várhatóan	-2914
▁költségvetési	-2915
irt	-2916
▁bevétel	-2917
▁att	-2918
▁kicsit	-2919
▁0-	-2920
▁Nap	-2921
▁felmér	-2922
▁dolgozó	-2923
▁visszat	-2924
zése	-2925
▁felvétel	-2926
bil	-2927
csap	-2928
ítják	-2929
▁éhez	-2930
▁On	-2931
▁esetén	-2932
▁level	-2933
sd	-2934
▁Elő	-2935
▁Kár	-2936
▁szob	-2937
▁Miklós	-2938
gyek	-2939
▁zaj	-2940
▁többet	-2941
▁politik	-2942
▁biztonsági	-2943
▁hamar	-2944
▁tudós	-2945
zott	-2946
▁fell	-2947
▁[	-2948
▁BL	-2949
▁Most	-2950
hetnek	-2951
▁eddigi	-2952
▁embert	-2953
▁értékes	-2954
▁folyamatosan	-2955
ódó	-2956
nökség	-2957
▁pályáz	-2958
▁fenntart	-2959
ier	-2960
▁mindössze	-2961
olcs	-2962
kalom	-2963
úttal	-2964
▁egyet	-2965
▁forin	-2966
▁befoly	-2967
▁többség	-2968
▁jogszabály	-2969
ájuk	-2970
▁megelő	-2971
nan	-2972
▁fordul	-2973
▁nyilvánosság	-2974
őd	-2975
iat	-2976
▁küld	-2977
oldal	-2978
▁feleség	-2979
▁jelenti	-2980
▁Leg	-2981
▁Ezek	-2982
▁Inter	-2983
tized	-2984
▁örök	-2985
▁fehér	-2986
▁forrás	-2987
▁módszer	-2988
jen	-2989
elmet	-2990
▁York	-2991
▁akció	-2992
erv	-2993
écs	-2994
▁alkalom	-2995
▁megjelen	-2996
una	-2997
▁testület	-2998
▁5-	-2999
apán	-3000
▁Mag	-3001
▁robb	-3002
attak	-3003
▁legf	-3004
▁kateg	-3005
▁tájékoztatás	-3006
őket	-3007
▁Mad	-3008
▁óri	-3009
elték	-3010
▁együttműkö	-3011
▁mező	-3012
▁Kín	-3013
▁felv	-3014
▁módos	-3015
▁egyéni	-3016
úli	-3017
▁Pet	-3018
▁végig	-3019
▁akinek	-3020
▁szakmai	-3021
▁4,	-3022
edik	-3023
▁fest	-3024
▁Budapesten	-3025
▁ügyben	-3026
úzeum	-3027
ff	-3028
und	-3029
▁vad	-3030
▁munkav	-3031
▁ős	-3032
élés	-3033
▁rab	-3034
▁sért	-3035
▁annyira	-3036
onal	-3037
ölcs	-3038
▁vette	-3039
főkapitányság	-3040
bel	-3041
▁időben	-3042
▁éjszak	-3043
burg	-3044
oltak	-3045
▁hull	-3046
▁szom	-3047
▁román	-3048
▁kezelés	-3049
▁Bel	-3050
▁igazság	-3051
▁hosszabb	-3052
1.	-3053
▁dí	-3054
atos	-3055
▁máj	-3056
▁csill	-3057
ológiai	-3058
▁részét	-3059
▁sajtót	-3060
▁évtized	-3061
millió	-3062
▁észak	-3063
▁pontos	-3064
▁előzetes	-3065
▁forinttal	-3066
▁haza	-3067
▁szét	-3068
ípus	-3069
ekete	-3070
▁király	-3071
▁Ér	-3072
etek	-3073
▁felül	-3074
▁figyelem	-3075
▁hatóságok	-3076
elik	-3077
polgár	-3078
▁környék	-3079
▁Im	-3080
vári	-3081
vájci	-3082
▁börtön	-3083
sp	-3084
szó	-3085
általán	-3086
▁sí	-3087
eteg	-3088
▁Úgy	-3089
ity	-3090
tuk	-3091
▁Lajos	-3092
▁azonos	-3093
▁mostani	-3094
▁hivatkoz	-3095
▁Né	-3096
▁Ro	-3097
▁Lig	-3098
tabil	-3099
▁idős	-3100
▁kísérlet	-3101
ih	-3102
sen	-3103
▁ígér	-3104
▁amelyben	-3105
▁tervezett	-3106
úgy	-3107
▁belső	-3108
edt	-3109
▁hí	-3110
hajt	-3111
iában	-3112
▁konz	-3113
oss	-3114
▁egymás	-3115
▁interj	-3116
▁rendezvény	-3117
ügyminiszter	-3118
▁fidesz	-3119
▁negyedik	-3120
▁nyilatkozta	-3121
▁piaci	-3122
▁ellent	-3123
▁szlovák	-3124
irat	-3125
▁jég	-3126
▁busz	-3127
▁edző	-3128
▁minőség	-3129
▁hál	-3130
éig	-3131
▁Gr	-3132
üket	-3133
kodás	-3134
▁beszéd	-3135
▁vagyunk	-3136
orm	-3137
gyen	-3138
▁szigor	-3139
▁kényszer	-3140
▁Hozz	-3141
urcsány	-3142
▁Dr	-3143
ellett	-3144
▁kötött	-3145
▁mindkét	-3146
kó	-3147
▁szex	-3148
▁különösen	-3149
▁prod	-3150
cz	-3151
▁45	-3152
▁felügy	-3153
▁található	-3154
▁ölt	-3155
▁Mich	-3156
örvény	-3157
▁tenger	-3158
▁kötelező	-3159
ián	-3160
▁jogi	-3161
▁menet	-3162
▁kormányfő	-3163
ker	-3164
▁60	-3165
▁ri	-3166
állás	-3167
▁lenni	-3168
▁Egyetem	-3169
MP	-3170
eltek	-3171
ontosabb	-3172
▁gar	-3173
▁Orosz	-3174
▁számító	-3175
▁zavar	-3176
nyugdíj	-3177
▁változás	-3178
▁+	-3179
ota	-3180
▁32	-3181
ultak	-3182
▁döntő	-3183
▁sokan	-3184
anad	-3185
▁folyó	-3186
▁érzék	-3187
kezd	-3188
▁Online	-3189
▁munkahely	-3190
alma	-3191
vált	-3192
▁lez	-3193
ájában	-3194
ya	-3195
éve	-3196
▁hő	-3197
▁zárt	-3198
▁sérült	-3199
őként	-3200
▁fővárosi	-3201
ázis	-3202
dolg	-3203
▁agy	-3204
titkár	-3205
▁népszerű	-3206
▁szocialista	-3207
▁hit	-3208
▁lit	-3209
▁bíz	-3210
▁évre	-3211
▁érintett	-3212
▁figyelmet	-3213
▁szövetség	-3214
ere	-3215
▁meghal	-3216
▁történelmi	-3217
arúgó	-3218
lenül	-3219
au	-3220
ry	-3221
jut	-3222
▁elé	-3223
elleg	-3224
▁óv	-3225
▁bot	-3226
▁Gyurcsány	-3227
▁mennyiség	-3228
man	-3229
▁energia	-3230
ke	-3231
▁Pál	-3232
▁szánd	-3233
▁bizonyos	-3234
▁egyáltalán	-3235
▁jöved	-3236
30	-3237
▁Szövet	-3238
▁emberi	-3239
▁hozott	-3240
▁legutó	-3241
prób	-3242
▁2011-	-3243
▁dolog	-3244
▁minős	-3245
▁beszám	-3246
▁gyerekek	-3247
ox	-3248
ésben	-3249
▁takar	-3250
▁kutatók	-3251
kék	-3252
döntő	-3253
▁típus	-3254
nevezett	-3255
▁hangsúlyozta	-3256
ereg	-3257
▁The	-3258
▁fogja	-3259
▁Kis	-3260
▁igyek	-3261
▁Kap	-3262
▁prof	-3263
▁erről	-3264
▁természetesen	-3265
ású	-3266
▁helyre	-3267
▁megerős	-3268
▁tudom	-3269
▁általában	-3270
▁igazgatója	-3271
▁épp	-3272
▁Amer	-3273
▁olaj	-3274
▁jóval	-3275
▁értes	-3276
▁egyedül	-3277
▁hideg	-3278
▁csatlak	-3279
ko	-3280
lét	-3281
▁löv	-3282
▁várt	-3283
▁meleg	-3284
▁papír	-3285
▁legfontosabb	-3286
▁na	-3287
▁Ebb	-3288
▁agg	-3289
▁szék	-3290
▁ekkor	-3291
▁Szent	-3292
▁maguk	-3293
▁jövőre	-3294
▁repülő	-3295
▁őrizet	-3296
▁tavalyi	-3297
▁Th	-3298
▁ítélet	-3299
ast	-3300
ésével	-3301
DP	-3302
ezők	-3303
▁legk	-3304
▁vitt	-3305
▁kiadás	-3306
rendszer	-3307
▁érdemes	-3308
▁pontosan	-3309
vá	-3310
▁y	-3311
lám	-3312
▁kiállítás	-3313
járás	-3314
▁kont	-3315
▁bevezet	-3316
▁lesznek	-3317
▁Ste	-3318
▁magasabb	-3319
ájékoztató	-3320
▁Tim	-3321
méter	-3322
▁szenved	-3323
már	-3324
ekre	-3325
▁győzt	-3326
▁Horvát	-3327
co	-3328
▁SZ	-3329
atók	-3330
▁Ham	-3331
▁adta	-3332
▁zöld	-3333
▁friss	-3334
▁tudják	-3335
▁egészségügyi	-3336
bé	-3337
▁Bl	-3338
▁láb	-3339
▁köny	-3340
▁svájci	-3341
▁asszony	-3342
▁500	-3343
▁szav	-3344
▁poszt	-3345
áns	-3346
berg	-3347
▁Mil	-3348
▁arc	-3349
▁mes	-3350
▁zen	-3351
▁Kovács	-3352
▁lehetne	-3353
adta	-3354
szel	-3355
▁gyilk	-3356
iát	-3357
▁mél	-3358
▁találtak	-3359
hol	-3360
▁Ben	-3361
▁köl	-3362
helyett	-3363
▁Bizottság	-3364
jön	-3365
▁faj	-3366
▁napi	-3367
társaság	-3368
SA	-3369
▁infl	-3370
▁mobil	-3371
fér	-3372
▁Har	-3373
zelem	-3374
▁egészen	-3375
▁írt	-3376
▁jövőben	-3377
▁Sok	-3378
▁pal	-3379
▁május	-3380
▁szándék	-3381
szabadság	-3382
▁társadalom	-3383
▁5,	-3384
▁ősz	-3385
írás	-3386
ünet	-3387
▁pil	-3388
▁tűzolt	-3389
műv	-3390
▁Géz	-3391
▁dip	-3392
▁játszott	-3393
▁készített	-3394
igo	-3395
▁Szabó	-3396
gyűlési	-3397
▁vállalat	-3398
akt	-3399
▁kr	-3400
nőtt	-3401
▁Bank	-3402
▁hátt	-3403
▁szár	-3404
vil	-3405
őzsd	-3406
▁közölt	-3407
▁szabadság	-3408
DSZ	-3409
üst	-3410
ekvő	-3411
▁Var	-3412
▁Ü	-3413
onz	-3414
▁oz	-3415
sági	-3416
ötte	-3417
állam	-3418
▁igazi	-3419
▁tartóz	-3420
da	-3421
▁Cl	-3422
▁bek	-3423
▁mar	-3424
▁soha	-3425
▁úton	-3426
▁igazán	-3427
▁érvényes	-3428
▁módosítás	-3429
ezz	-3430
▁ebből	-3431
▁társadalmi	-3432
▁Unió	-3433
viz	-3434
▁nekik	-3435
▁tevékenység	-3436
űk	-3437
▁megoldás	-3438
▁ezr	-3439
▁győ	-3440
▁családi	-3441
▁ellenőrzés	-3442
▁magyarországi	-3443
tartás	-3444
tatott	-3445
▁eredeti	-3446
▁gyak	-3447
▁Államok	-3448
▁internetes	-3449
ítva	-3450
▁fiú	-3451
▁blog	-3452
ood	-3453
var	-3454
szaki	-3455
▁Géza	-3456
.:	-3457
▁Joh	-3458
▁Tud	-3459
▁diák	-3460
▁2006-	-3461
▁úgynevezett	-3462
nia	-3463
▁36	-3464
minc	-3465
ódik	-3466
osztály	-3467
▁Tanács	-3468
▁diplom	-3469
▁kamat	-3470
▁rang	-3471
▁nk	-3472
▁va	-3473
adik	-3474
▁havi	-3475
▁vége	-3476
inkább	-3477
▁ehhez	-3478
▁lengyel	-3479
▁met	-3480
emelt	-3481
élkül	-3482
▁lőtt	-3483
jelölt	-3484
▁napokban	-3485
▁ruh	-3486
▁írás	-3487
▁várak	-3488
▁részben	-3489
▁minisztérium	-3490
pár	-3491
ádió	-3492
▁stabil	-3493
▁tudnak	-3494
átum	-3495
▁állat	-3496
▁jú	-3497
▁eny	-3498
esztő	-3499
▁negyedév	-3500
▁szerinte	-3501
▁Sh	-3502
▁Ezzel	-3503
▁kötet	-3504
▁országok	-3505
▁választók	-3506
▁katasztróf	-3507
▁segítségével	-3508
▁hány	-3509
▁járó	-3510
▁attól	-3511
▁hallg	-3512
▁fideszes	-3513
ozók	-3514
▁lop	-3515
valós	-3516
▁célja	-3517
▁hátrány	-3518
▁kétszer	-3519
▁kijelent	-3520
ciós	-3521
oszk	-3522
▁Kül	-3523
▁LMP	-3524
▁aszt	-3525
oldali	-3526
▁munkát	-3527
▁pillanat	-3528
▁Mivel	-3529
▁belől	-3530
▁elismer	-3531
▁ismeretlen	-3532
▁KA	-3533
ulcs	-3534
olják	-3535
edv	-3536
polit	-3537
▁of	-3538
▁idők	-3539
ondoni	-3540
▁Központ	-3541
upa	-3542
ilap	-3543
▁tagjai	-3544
▁délelőtt	-3545
▁általános	-3546
mut	-3547
▁Más	-3548
▁ett	-3549
▁jutt	-3550
▁ág	-3551
▁tők	-3552
ror	-3553
▁Deb	-3554
▁Tib	-3555
▁sztr	-3556
mód	-3557
▁ák	-3558
▁projekt	-3559
▁alkalmazott	-3560
BC	-3561
áris	-3562
oldog	-3563
usztus	-3564
usztrál	-3565
▁ezeket	-3566
▁életét	-3567
▁használt	-3568
▁megvalós	-3569
▁Kl	-3570
▁reform	-3571
▁pót	-3572
▁remény	-3573
▁szöveg	-3574
▁győzelem	-3575
▁jelentősen	-3576
▁állampolgár	-3577
▁Par	-3578
▁alakul	-3579
▁növekedés	-3580
ij	-3581
izál	-3582
tunk	-3583
▁Dél	-3584
odott	-3585
▁hord	-3586
▁téli	-3587
▁sziget	-3588
▁osztrák	-3589
▁szinten	-3590
▁kategóri	-3591
ine	-3592
itív	-3593
jára	-3594
nius	-3595
▁szal	-3596
▁közön	-3597
▁száml	-3598
▁árfolyam	-3599
▁ló	-3600
▁éd	-3601
▁íz	-3602
ener	-3603
ivat	-3604
▁fáj	-3605
▁civil	-3606
▁kiemel	-3607
▁köszönhetően	-3608
rá	-3609
▁Ph	-3610
▁it	-3611
iket	-3612
▁támadás	-3613
▁kommunik	-3614
belül	-3615
▁ütköz	-3616
▁mintha	-3617
vér	-3618
▁Un	-3619
erül	-3620
▁keretében	-3621
com	-3622
edes	-3623
íték	-3624
▁197	-3625
▁kib	-3626
vállal	-3627
▁bajnokság	-3628
▁eredmények	-3629
▁33	-3630
felé	-3631
párt	-3632
▁tök	-3633
▁jogos	-3634
ula	-3635
▁Kö	-3636
▁Debrec	-3637
▁áram	-3638
kör	-3639
▁jét	-3640
origo	-3641
képpen	-3642
ítható	-3643
▁szent	-3644
ala	-3645
▁kölcs	-3646
▁kemény	-3647
▁portál	-3648
▁büntető	-3649
▁leginkább	-3650
▁park	-3651
▁átalak	-3652
▁bü	-3653
▁táb	-3654
örtén	-3655
▁partner	-3656
▁együttes	-3657
olf	-3658
▁cig	-3659
▁Vagy	-3660
várium	-3661
élemény	-3662
▁főszer	-3663
▁idegen	-3664
▁jelleg	-3665
▁tényleg	-3666
▁gyógyszer	-3667
▁emelkedett	-3668
▁80	-3669
▁At	-3670
kodó	-3671
▁Hogy	-3672
▁hálóz	-3673
▁házas	-3674
▁sincs	-3675
▁adósság	-3676
▁forintra	-3677
▁visszatér	-3678
▁megfelelően	-3679
▁Föld	-3680
onttal	-3681
▁strat	-3682
▁londoni	-3683
▁hasonlóan	-3684
oft	-3685
kotmány	-3686
▁köztük	-3687
▁létrehoz	-3688
▁együttműködés	-3689
▁leh	-3690
▁gólt	-3691
▁megf	-3692
▁csaknem	-3693
▁alkalommal	-3694
érte	-3695
▁egyház	-3696
▁védelm	-3697
▁vezérigazgató	-3698
▁reag	-3699
▁kollég	-3700
▁mester	-3701
▁vereség	-3702
kan	-3703
énny	-3704
▁befolyás	-3705
▁elb	-3706
▁mon	-3707
▁kapu	-3708
álisan	-3709
▁vörös	-3710
bíróság	-3711
▁felnőtt	-3712
▁li	-3713
▁bék	-3714
▁nyár	-3715
▁ától	-3716
▁Antik	-3717
▁minim	-3718
▁hétvég	-3719
ennyiben	-3720
ügynökség	-3721
▁mértékben	-3722
▁országgyűlési	-3723
▁He	-3724
házy	-3725
▁tol	-3726
▁Győr	-3727
▁sors	-3728
▁Amikor	-3729
▁pályán	-3730
▁tüntet	-3731
▁frakció	-3732
ick	-3733
▁34	-3734
▁mikor	-3735
perc	-3736
▁férfiak	-3737
ővé	-3738
▁30-	-3739
▁éből	-3740
▁futam	-3741
▁pálya	-3742
▁vonal	-3743
ore	-3744
jebb	-3745
▁font	-3746
▁helyet	-3747
▁százalékát	-3748
öd	-3749
▁70	-3750
écsi	-3751
▁Hal	-3752
▁közz	-3753
▁labdarúgó	-3754
úd	-3755
▁Ob	-3756
▁drág	-3757
▁szerda	-3758
ától	-3759
▁lakó	-3760
▁Csaba	-3761
▁rajta	-3762
▁szombat	-3763
▁tartani	-3764
▁Hozzátette	-3765
50	-3766
▁reng	-3767
▁ajánd	-3768
▁előtti	-3769
▁'	-3770
ence	-3771
odik	-3772
szich	-3773
ítási	-3774
▁érte	-3775
▁Hivatal	-3776
▁kezdett	-3777
abda	-3778
erek	-3779
▁Antikvárium	-3780
▁önkormányzati	-3781
▁37	-3782
artóz	-3783
▁esetleg	-3784
▁kapcsán	-3785
▁működik	-3786
▁tartják	-3787
▁magyarok	-3788
ael	-3789
prém	-3790
esztés	-3791
kezett	-3792
▁index	-3793
▁informáci	-3794
▁tiltak	-3795
▁gyakran	-3796
úti	-3797
fokú	-3798
okra	-3799
▁görög	-3800
▁kedvező	-3801
▁Alkotmány	-3802
▁kötelezett	-3803
▁hegy	-3804
▁Francia	-3805
▁beszélg	-3806
▁összefügg	-3807
▁lehetőséget	-3808
▁Mc	-3809
▁ei	-3810
utas	-3811
▁Cím	-3812
▁jelöl	-3813
▁regény	-3814
▁000	-3815
▁Bor	-3816
▁benn	-3817
▁körében	-3818
▁6,	-3819
▁6:	-3820
▁300	-3821
▁szek	-3822
▁ideje	-3823
▁venni	-3824
▁június	-3825
▁kockáz	-3826
▁megtal	-3827
▁csillag	-3828
ini	-3829
krét	-3830
évén	-3831
▁író	-3832
▁iránt	-3833
▁gyorsan	-3834
▁kapitány	-3835
if	-3836
ach	-3837
▁Mű	-3838
szem	-3839
▁benz	-3840
▁eszt	-3841
▁lépett	-3842
▁terjed	-3843
ugusztus	-3844
gazdasági	-3845
▁szociális	-3846
▁kulturális	-3847
azin	-3848
ölgy	-3849
örök	-3850
ítását	-3851
▁deviz	-3852
▁remek	-3853
▁elkész	-3854
▁eszközök	-3855
▁lehetővé	-3856
ust	-3857
▁31	-3858
▁kop	-3859
ológus	-3860
▁többen	-3861
▁vb	-3862
amos	-3863
▁előbb	-3864
▁sztráj	-3865
▁akadály	-3866
▁megszer	-3867
▁hangulat	-3868
▁körülbelül	-3869
jén	-3870
▁vir	-3871
▁teremt	-3872
▁ügyvéd	-3873
▁államtitkár	-3874
▁est	-3875
▁ába	-3876
▁munkan	-3877
▁tudjuk	-3878
▁hatékony	-3879
csó	-3880
ései	-3881
▁bev	-3882
▁Nyug	-3883
▁védek	-3884
▁vették	-3885
▁jellemző	-3886
erület	-3887
▁Go	-3888
▁bő	-3889
óban	-3890
▁erőszak	-3891
▁letartóz	-3892
óth	-3893
▁Sim	-3894
ukció	-3895
▁levél	-3896
▁mindenk	-3897
▁Ró	-3898
▁Te	-3899
▁10-	-3900
▁ült	-3901
énnyel	-3902
▁mened	-3903
▁televíz	-3904
sé	-3905
▁Tel	-3906
▁amíg	-3907
▁norm	-3908
árólag	-3909
▁múlva	-3910
▁hajnal	-3911
▁fegyver	-3912
▁őrizetbe	-3913
ara	-3914
▁Is	-3915
▁megvált	-3916
men	-3917
űnt	-3918
▁Id	-3919
▁űr	-3920
élyes	-3921
▁biztosan	-3922
▁Nemzetközi	-3923
▁Vég	-3924
▁védő	-3925
▁eltér	-3926
▁gyanú	-3927
▁állítólag	-3928
▁Duna	-3929
▁főleg	-3930
▁Károly	-3931
▁annyit	-3932
▁felhív	-3933
▁körülmények	-3934
▁rag	-3935
▁svéd	-3936
▁résztv	-3937
▁egymást	-3938
▁szellem	-3939
harmad	-3940
▁részes	-3941
▁szokás	-3942
szolgált	-3943
▁rendező	-3944
▁nyilvánosságra	-3945
idő	-3946
▁ök	-3947
▁Port	-3948
▁fenyeget	-3949
▁megyében	-3950
rab	-3951
▁Kat	-3952
▁vidék	-3953
aks	-3954
faj	-3955
▁Rá	-3956
ányi	-3957
▁dal	-3958
▁elők	-3959
▁fesz	-3960
▁harminc	-3961
▁kab	-3962
osszabb	-3963
▁Címkék	-3964
▁fekete	-3965
qu	-3966
▁Imre	-3967
▁hozta	-3968
hatóság	-3969
▁üzemel	-3970
nyugdíjpénztár	-3971
jú	-3972
eri	-3973
▁ideig	-3974
▁szenvedett	-3975
kedés	-3976
0)	-3977
9-	-3978
egő	-3979
▁7,	-3980
▁édes	-3981
foglal	-3982
▁ennél	-3983
▁puszt	-3984
▁művész	-3985
▁kifizet	-3986
▁indított	-3987
▁ipar	-3988
▁Tibor	-3989
▁ötlet	-3990
▁90	-3991
ílus	-3992
▁eredet	-3993
▁látvány	-3994
▁okozott	-3995
▁számolt	-3996
▁olimpiai	-3997
▁Országgyűlés	-3998
uzs	-3999
séklet	-4000
ödik	-4001
▁kölcsön	-4002
kedő	-4003
▁kin	-4004
fogás	-4005
▁körüli	-4006
▁kizárólag	-4007
▁kereskedelmi	-4008
övezet	-4009
▁lista	-4010
▁valós	-4011
▁Szeged	-4012
▁készít	-4013
▁működő	-4014
jával	-4015
▁Bíróság	-4016
NP	-4017
▁eg	-4018
issz	-4019
úlius	-4020
▁Real	-4021
▁közösségi	-4022
▁tárgyalás	-4023
kos	-4024
ugál	-4025
ebben	-4026
erült	-4027
▁visel	-4028
▁számol	-4029
▁versenyző	-4030
▁munkavállal	-4031
tér	-4032
öny	-4033
▁mos	-4034
öntet	-4035
▁heti	-4036
▁Balázs	-4037
▁képzés	-4038
üv	-4039
otó	-4040
▁15-	-4041
▁Mal	-4042
▁lelk	-4043
▁nemr	-4044
▁kérte	-4045
▁mentő	-4046
▁pontot	-4047
▁pénztár	-4048
▁Budapesti	-4049
▁Hol	-4050
▁izg	-4051
▁Alap	-4052
▁tervek	-4053
▁megprób	-4054
▁szerdai	-4055
mérséklet	-4056
▁probléma	-4057
▁feljelent	-4058
▁Di	-4059
▁Dav	-4060
▁néző	-4061
▁ukat	-4062
▁magam	-4063
▁megkérd	-4064
Az	-4065
▁4.	-4066
▁méret	-4067
▁napja	-4068
▁Persze	-4069
▁könnyű	-4070
▁Fővárosi	-4071
▁politika	-4072
▁határozat	-4073
ival	-4074
▁ist	-4075
▁kerék	-4076
▁minél	-4077
▁boldog	-4078
▁195	-4079
▁keddi	-4080
▁panasz	-4081
▁komment	-4082
▁egyeztet	-4083
▁vezetett	-4084
▁augusztus	-4085
esi	-4086
élt	-4087
▁11-	-4088
▁érz	-4089
▁derül	-4090
tatiszt	-4091
▁ajánlat	-4092
▁kormányzati	-4093
elly	-4094
▁oly	-4095
einek	-4096
ésének	-4097
▁nyílt	-4098
▁centim	-4099
▁mutató	-4100
▁pozitív	-4101
▁szabályozás	-4102
ux	-4103
ttel	-4104
ényi	-4105
▁pozíció	-4106
▁ellentét	-4107
▁másodperc	-4108
▁veszteség	-4109
▁elkövetett	-4110
▁képviselők	-4111
ráció	-4112
▁eurót	-4113
▁gazdag	-4114
▁legfel	-4115
▁oldalon	-4116
▁tartozik	-4117
▁egyszerűen	-4118
▁felelősség	-4119
ukt	-4120
széd	-4121
▁196	-4122
ológia	-4123
▁adatai	-4124
▁alapvet	-4125
▁nevezte	-4126
ető	-4127
▁köv	-4128
▁betegség	-4129
▁emlékeztet	-4130
eje	-4131
írt	-4132
▁La	-4133
áján	-4134
▁Kom	-4135
▁Tóth	-4136
▁ritk	-4137
▁elemző	-4138
▁pszich	-4139
▁látszik	-4140
▁ellenzéki	-4141
▁bűncselekmény	-4142
ébb	-4143
▁Tisz	-4144
▁mérsék	-4145
▁ezúttal	-4146
▁tartozó	-4147
▁szerepet	-4148
▁GDP	-4149
▁győztes	-4150
▁kevésbé	-4151
kut	-4152
ook	-4153
egyen	-4154
takar	-4155
▁felf	-4156
hetett	-4157
▁továbbá	-4158
▁lehetséges	-4159
▁szakemberek	-4160
▁jával	-4161
▁másfél	-4162
▁7-	-4163
▁Bud	-4164
▁repül	-4165
▁képesség	-4166
▁Ezért	-4167
▁reklám	-4168
▁világh	-4169
▁folytató	-4170
▁gyanúsított	-4171
pró	-4172
ódi	-4173
▁38	-4174
▁eső	-4175
▁japán	-4176
▁évente	-4177
▁szolgálat	-4178
ilt	-4179
▁adni	-4180
▁légi	-4181
▁évig	-4182
▁Fehér	-4183
▁valóság	-4184
▁szakértők	-4185
nos	-4186
uper	-4187
▁ton	-4188
elyik	-4189
▁kelt	-4190
▁menek	-4191
▁révén	-4192
▁egyben	-4193
▁alakult	-4194
▁konkrét	-4195
▁közelében	-4196
fg	-4197
eai	-4198
nes	-4199
▁Ab	-4200
▁Iz	-4201
onyol	-4202
▁Vesz	-4203
▁káros	-4204
▁Mester	-4205
elmiszer	-4206
▁ajándék	-4207
▁előford	-4208
▁nélküli	-4209
▁vádlott	-4210
▁Fr	-4211
ételt	-4212
▁Rich	-4213
▁2007-	-4214
▁kapta	-4215
▁hatály	-4216
▁felkész	-4217
étől	-4218
▁rögz	-4219
ezmény	-4220
▁ingyen	-4221
▁rekord	-4222
▁visszav	-4223
▁területén	-4224
polgármester	-4225
▁Tovább	-4226
▁akkori	-4227
▁nyerte	-4228
▁koncent	-4229
▁eljárást	-4230
▁Népszabadság	-4231
bank	-4232
fehér	-4233
közel	-4234
ársaság	-4235
▁július	-4236
▁megrend	-4237
▁percben	-4238
▁amelyeket	-4239
arc	-4240
ukor	-4241
▁öröm	-4242
▁kocsi	-4243
▁korrup	-4244
▁pártok	-4245
▁sokszor	-4246
20	-4247
fa	-4248
amb	-4249
▁6-	-4250
▁csúsz	-4251
▁stílus	-4252
▁mutatja	-4253
▁Ir	-4254
adni	-4255
ogyan	-4256
raeli	-4257
▁Mart	-4258
▁szur	-4259
▁Angel	-4260
▁szomszéd	-4261
▁százalékot	-4262
▁bőr	-4263
▁tit	-4264
enként	-4265
vai	-4266
▁felsz	-4267
▁alkalmas	-4268
▁kockázat	-4269
▁tartomány	-4270
ázó	-4271
▁med	-4272
▁lemond	-4273
▁botrány	-4274
▁szerepelt	-4275
DNP	-4276
essen	-4277
▁rejt	-4278
▁szűk	-4279
edmény	-4280
▁járul	-4281
szerint	-4282
▁vállalkozás	-4283
.),	-4284
ására	-4285
ashing	-4286
chester	-4287
▁hozzát	-4288
▁hajland	-4289
▁vezette	-4290
néz	-4291
▁km	-4292
azil	-4293
▁Int	-4294
▁hom	-4295
▁tük	-4296
▁gyár	-4297
▁ipari	-4298
▁napilap	-4299
▁szerződést	-4300
ádi	-4301
magas	-4302
▁nappal	-4303
▁munkanélkül	-4304
pad	-4305
▁biztosít	-4306
öp	-4307
uli	-4308
jének	-4309
ozást	-4310
▁husz	-4311
▁kies	-4312
▁tábor	-4313
▁ellenfel	-4314
▁Gu	-4315
ogle	-4316
hetik	-4317
▁kiváló	-4318
▁Horváth	-4319
▁hatalom	-4320
▁nyugati	-4321
▁tökélet	-4322
▁közlekedési	-4323
per	-4324
kett	-4325
aránt	-4326
▁autós	-4327
▁Nagyon	-4328
▁tavasz	-4329
▁csapata	-4330
▁vezetői	-4331
▁állítja	-4332
▁élelmiszer	-4333
▁Pa	-4334
▁Én	-4335
▁20-	-4336
▁pir	-4337
▁átv	-4338
▁külső	-4339
▁belőle	-4340
▁hozzáj	-4341
▁szolgál	-4342
ita	-4343
védő	-4344
órum	-4345
▁Hat	-4346
▁Vid	-4347
▁Ilyen	-4348
▁számú	-4349
▁kaptak	-4350
▁rajong	-4351
▁bajnoki	-4352
▁helyszínen	-4353
▁me	-4354
ofőr	-4355
▁jük	-4356
aradt	-4357
encia	-4358
▁robban	-4359
▁szóvivő	-4360
▁egyaránt	-4361
▁beruházás	-4362
MF	-4363
inc	-4364
▁frank	-4365
▁nekem	-4366
▁jelentés	-4367
▁hivatkozva	-4368
▁közleményében	-4369
hogy	-4370
▁dik	-4371
irtok	-4372
▁John	-4373
▁mire	-4374
▁üket	-4375
ítését	-4376
▁médiat	-4377
▁szélső	-4378
▁interjú	-4379
▁pénteki	-4380
▁történő	-4381
▁különbség	-4382
▁8-	-4383
▁gal	-4384
ozzák	-4385
▁olcsó	-4386
▁pályára	-4387
▁átlagos	-4388
▁nagyjából	-4389
▁megállapodás	-4390
▁TV	-4391
adók	-4392
ezése	-4393
▁cseh	-4394
▁házi	-4395
▁Kriszt	-4396
▁fognak	-4397
▁szünet	-4398
▁Ár	-4399
▁Fej	-4400
▁Szomb	-4401
▁mellé	-4402
▁sztár	-4403
▁semmit	-4404
▁szórak	-4405
▁hagyomány	-4406
▁használat	-4407
▁időszakban	-4408
ons	-4409
▁dísz	-4410
▁dollárt	-4411
▁Szerinte	-4412
▁Szövetség	-4413
▁szakszervezet	-4414
▁194	-4415
▁meggy	-4416
▁olvasó	-4417
▁sebesség	-4418
▁következt	-4419
▁hozzátette	-4420
ism	-4421
tem	-4422
érm	-4423
▁Tav	-4424
▁viz	-4425
▁Mark	-4426
▁fokozat	-4427
▁fejlődés	-4428
▁személyes	-4429
ana	-4430
jog	-4431
▁eleg	-4432
ezhető	-4433
▁kapus	-4434
▁Google	-4435
▁sikeres	-4436
▁centiméter	-4437
▁helyzetben	-4438
eci	-4439
uth	-4440
edés	-4441
▁Mih	-4442
▁Szak	-4443
▁vettek	-4444
▁óriási	-4445
▁üzenet	-4446
▁fizetni	-4447
▁hőmérséklet	-4448
enti	-4449
ítik	-4450
▁sáv	-4451
ázott	-4452
▁bíró	-4453
▁jában	-4454
▁hasonl	-4455
▁kiderül	-4456
▁állandó	-4457
▁FC	-4458
▁Hét	-4459
▁Vol	-4460
▁Varga	-4461
▁szerb	-4462
▁döntet	-4463
▁érdekes	-4464
▁elektron	-4465
▁szerkezet	-4466
▁százalékra	-4467
▁isz	-4468
▁kol	-4469
▁rel	-4470
▁sug	-4471
áltak	-4472
▁Barcel	-4473
▁konfer	-4474
▁műszaki	-4475
TE	-4476
raj	-4477
kező	-4478
▁Vel	-4479
▁időt	-4480
▁vita	-4481
▁hamis	-4482
▁ötven	-4483
▁akarja	-4484
▁kórházba	-4485
amp	-4486
▁ür	-4487
▁vall	-4488
▁iskola	-4489
▁ügyészség	-4490
ecsk	-4491
▁Tor	-4492
▁árt	-4493
▁felúj	-4494
▁önmag	-4495
▁hétfői	-4496
▁közeli	-4497
▁piacon	-4498
▁elérhető	-4499
▁csütörtöki	-4500
▁számítógép	-4501
▁Oroszország	-4502
oks	-4503
▁II	-4504
▁por	-4505
▁esti	-4506
▁kkal	-4507
▁kocs	-4508
▁anyagi	-4509
tan	-4510
▁ják	-4511
adott	-4512
▁Term	-4513
▁részén	-4514
▁üzleti	-4515
▁kiemelt	-4516
▁folytatás	-4517
▁Ugyanakkor	-4518
ötét	-4519
▁mindegy	-4520
▁közönség	-4521
▁dolgozott	-4522
▁valamennyi	-4523
hang	-4524
örny	-4525
janak	-4526
keres	-4527
ovics	-4528
avazás	-4529
ítások	-4530
▁Madrid	-4531
▁birtok	-4532
▁következtében	-4533
onc	-4534
▁PL	-4535
orvég	-4536
▁Pest	-4537
▁sikerül	-4538
▁8,	-4539
tatni	-4540
európai	-4541
icc	-4542
őző	-4543
etet	-4544
▁tőzsd	-4545
ítására	-4546
▁magukat	-4547
▁töltött	-4548
▁Szabolcs	-4549
▁kerültek	-4550
▁számában	-4551
▁Bors	-4552
▁évet	-4553
▁ajánl	-4554
▁megfi	-4555
▁messz	-4556
▁központi	-4557
dor	-4558
alan	-4559
▁kora	-4560
▁rajz	-4561
▁majdnem	-4562
▁államfő	-4563
▁említett	-4564
▁üzemeltet	-4565
aceb	-4566
osok	-4567
ásával	-4568
▁autót	-4569
▁klassz	-4570
▁ügyében	-4571
▁törvényt	-4572
▁nyilatkozat	-4573
ogat	-4574
óval	-4575
ajnai	-4576
▁tették	-4577
▁énekes	-4578
▁Michael	-4579
▁Szlovák	-4580
▁szegény	-4581
▁rendszert	-4582
▁egyértelműen	-4583
óra	-4584
▁Egyes	-4585
▁bázis	-4586
csoport	-4587
▁háború	-4588
▁ötödik	-4589
▁ügyfel	-4590
▁mondott	-4591
▁Ó	-4592
▁42	-4593
▁sztrájk	-4594
▁véletlen	-4595
zió	-4596
▁gum	-4597
óknak	-4598
▁2007	-4599
▁menedzs	-4600
ilv	-4601
▁39	-4602
▁sziv	-4603
▁Antal	-4604
▁fordult	-4605
▁holland	-4606
▁Minisztérium	-4607
▁Q	-4608
raf	-4609
ellen	-4610
▁lassan	-4611
▁többsége	-4612
▁szeretnék	-4613
esse	-4614
való	-4615
abban	-4616
▁fert	-4617
▁Észak	-4618
▁alkalm	-4619
▁benzin	-4620
▁széles	-4621
▁tudományos	-4622
▁szempontból	-4623
▁5.	-4624
iatt	-4625
átus	-4626
▁fogják	-4627
▁indítvány	-4628
▁problémák	-4629
sák	-4630
▁neve	-4631
szerző	-4632
▁online	-4633
▁terror	-4634
▁források	-4635
▁kétharmad	-4636
▁végrehajt	-4637
▁szövetségi	-4638
▁Chr	-4639
▁Ott	-4640
▁man	-4641
oznak	-4642
▁tőle	-4643
▁étel	-4644
▁előadás	-4645
▁könnyen	-4646
▁legutóbbi	-4647
adja	-4648
▁400	-4649
ültek	-4650
▁szel	-4651
▁zsid	-4652
ájának	-4653
▁Forma	-4654
▁Obama	-4655
▁hagyományos	-4656
▁világbajnokság	-4657
ket	-4658
▁ko	-4659
▁hass	-4660
▁kisz	-4661
hatják	-4662
▁hírek	-4663
▁alelnök	-4664
▁koncert	-4665
▁negyven	-4666
igazgatás	-4667
▁visszaes	-4668
▁területen	-4669
▁Manchester	-4670
ley	-4671
áért	-4672
▁fele	-4673
▁étől	-4674
▁emiatt	-4675
▁katonai	-4676
▁tájékoztatása	-4677
▁aj	-4678
inál	-4679
▁Kir	-4680
▁kulcs	-4681
▁páros	-4682
▁sofőr	-4683
▁okozta	-4684
▁állnak	-4685
▁játszik	-4686
▁tartanak	-4687
▁érdeklődés	-4688
▁figyelmeztet	-4689
▁üv	-4690
rium	-4691
ódás	-4692
▁apró	-4693
▁tétel	-4694
esztett	-4695
▁érkező	-4696
▁hajlandó	-4697
▁statiszt	-4698
▁Fi	-4699
egnap	-4700
▁véli	-4701
▁SZDSZ	-4702
▁hiába	-4703
▁gazdál	-4704
▁fogalmaz	-4705
▁rengeteg	-4706
▁letartóztatás	-4707
ph	-4708
▁aktív	-4709
▁hozzájár	-4710
xim	-4711
▁káb	-4712
orosz	-4713
▁Akkor	-4714
▁összeh	-4715
▁állította	-4716
▁ű	-4717
▁and	-4718
▁kod	-4719
▁net	-4720
lehet	-4721
tette	-4722
▁fagy	-4723
▁Egész	-4724
▁melyek	-4725
▁izraeli	-4726
▁gyakorlatilag	-4727
ky	-4728
uni	-4729
part	-4730
ánál	-4731
▁Oly	-4732
▁sár	-4733
váltás	-4734
▁Három	-4735
▁Jelen	-4736
▁honlapján	-4737
▁támogatást	-4738
▁bizonytalan	-4739
nár	-4740
ebek	-4741
járt	-4742
▁hús	-4743
▁ágy	-4744
elmes	-4745
▁Ezen	-4746
▁Andre	-4747
▁látja	-4748
▁plusz	-4749
ozása	-4750
ítást	-4751
▁mennyire	-4752
car	-4753
pel	-4754
▁if	-4755
▁un	-4756
▁sim	-4757
▁jára	-4758
▁vétel	-4759
▁gyártó	-4760
▁rendelkező	-4761
nyt	-4762
asztó	-4763
kocsi	-4764
▁Ebben	-4765
▁válik	-4766
▁nyáron	-4767
▁tartalm	-4768
▁hallgató	-4769
▁kerületi	-4770
▁hamarosan	-4771
gó	-4772
üm	-4773
▁Mát	-4774
▁Nyom	-4775
▁Robert	-4776
▁nyitott	-4777
▁szigorú	-4778
▁dolgozik	-4779
▁o	-4780
osi	-4781
▁Cr	-4782
▁Pár	-4783
három	-4784
▁kever	-4785
▁speci	-4786
▁különleges	-4787
▁PK	-4788
▁eit	-4789
▁neg	-4790
▁City	-4791
▁voks	-4792
berális	-4793
▁fölött	-4794
▁kezdte	-4795
▁létszám	-4796
▁pályázat	-4797
▁	-4798
e	-4799
a	-4800
t	-4801
l	-4802
s	-4803
n	-4804
k	-4805
r	-4806
i	-4807
z	-4808
o	-4809
á	-4810
é	-4811
g	-4812
m	-4813
y	-4814
b	-4815
d	-4816
v	-4817
,	-4818
h	-4819
j	-4820
p	-4821
ó	-4822
ö	-4823
u	-4824
ő	-4825
.	-4826
f	-4827
c	-4828
í	-4829
-	-4830
ü	-4831
A	-4832
ú	-4833
0	-4834
M	-4835
1	-4836
S	-4837
2	-4838
ű	-4839
B	-4840
K	-4841
E	-4842
:	-4843
"	-4844
N	-4845
T	-4846
P	-4847
F	-4848
H	-4849
3	-4850
)	-4851
5	-4852
(	-4853
V	-4854
I	-4855
C	-4856
L	-4857
D	-4858
G	-4859
4	-4860
9	-4861
R	-4862
6	-4863
8	-4864
O	-4865
7	-4866
J	-4867
Z	-4868
x	-4869
w	-4870
U	-4871
?	-4872
W	-4873
Á	-4874
É	-4875
!	-4876
/	-4877
;	-4878
Ú	-4879
X	-4880
Ö	-4881
Y	-4882
Í	-4883
'	-4884
+	-4885
q	-4886
Ő	-4887
[	-4888
]	-4889
Ü	-4890
%	-4891
Q	-4892
Ó	-4893
&	-4894
̋	-4895
=	-4896
ä	-4897
#	-4898
>	-4899
_	-4900
•	-4901
*	-4902
−	-4903
­	-4904
$	-4905
©	-4906
@	-4907
Ű	-4908
ë	-4909
õ	-4910
ć	-4911
§	-4912
à	-4913
×	-4914
è	-4915
č	-4916
	-4917
ô	-4918
š	-4919
‭	-4920
Š	-4921
‬	-4922
ă	-4923
†	-4924
<	-4925
ç	-4926
~	-4927
ñ	-4928
£	-4929
°	-4930
û	-4931
\	-4932
â	-4933
ß	-4934
ý	-4935
`	-4936
ø	-4937
ł	-4938
ń	-4939
	-4940
Č	-4941
ş	-4942
ţ	-4943
⁄	-4944
	-4945
	-4946
È	-4947
Ž	-4948
ž	-4949
¬	-4950
®	-4951
±	-4952
å	-4953
ò	-4954
ň	-4955
̈	-4956
‒	-4957
^	-4958
	-4959
·	-4960
Ä	-4961
ã	-4962
ì	-4963
ï	-4964
ÿ	-4965
Đ	-4966
ť	-4967
ה	-4968
′	-4969
€	-4970
≤	-4971
Å	-4972
æ	-4973
ê	-4974
î	-4975
ð	-4976
ą	-4977
Ć	-4978
đ	-4979
ę	-4980
ı	-4981
ř	-4982
Ś	-4983
ś	-4984
Ţ	-4985
Ť	-4986
ů	-4987
ż	-4988
ș	-4989
λ	-4990
μ	-4991
ї	-4992
ו	-4993
י	-4994
∗	-4995
	-4996
