<unk>	0
<s>	0
</s>	0
,	-2.87717
▁a	-2.97228
.	-3.39969
▁az	-4.01242
t	-4.45038
▁A	-4.45331
▁és	-4.49737
i	-4.65373
-	-4.67697
▁hogy	-4.77874
▁is	-4.88393
▁-	-4.94518
▁nem	-5.07029
▁	-5.23117
▁egy	-5.30927
:	-5.33939
a	-5.48618
e	-5.57966
▁meg	-5.5902
k	-5.59963
▁Az	-5.61646
nak	-5.73432
▁(	-5.78302
ra	-5.80631
ban	-5.83021
nek	-5.92965
▁szerint	-5.93506
ben	-5.94927
▁el	-5.99368
ek	-5.99768
▁ki	-6.00516
re	-6.01703
s	-6.03504
▁de	-6.04799
▁"	-6.05113
)	-6.06205
ok	-6.06233
en	-6.06543
▁volt	-6.07425
"	-6.16548
▁már	-6.16738
et	-6.19728
es	-6.26413
▁csak	-6.35901
▁még	-6.36814
ni	-6.40461
ja	-6.46214
▁be	-6.47901
▁azt	-6.48157
on	-6.4858
n	-6.48743
át	-6.49401
▁fel	-6.51218
▁van	-6.55199
▁mint	-6.57177
▁sem	-6.62955
▁ha	-6.63982
ot	-6.65538
▁két	-6.66787
▁pedig	-6.68348
▁kell	-6.6956
▁több	-6.73257
os	-6.74196
ét	-6.74242
▁ez	-6.74824
▁vagy	-6.75386
ba	-6.79188
▁le	-6.79905
▁után	-6.80923
an	-6.82036
▁magyar	-6.82297
d	-6.82728
ak	-6.85619
m	-6.86059
ó	-6.86708
▁majd	-6.87095
▁miatt	-6.89115
▁aki	-6.92645
ik	-6.92652
▁első	-6.92887
▁lehet	-6.92938
▁így	-6.97776
▁s	-6.98339
▁mert	-6.99968
▁új	-7.00007
ból	-7.00512
▁mondta	-7.00873
▁amely	-7.00919
at	-7.01531
?	-7.02269
okat	-7.0283
hoz	-7.03176
▁lesz	-7.03929
▁nagy	-7.0439
ról	-7.04693
▁olyan	-7.05255
▁úgy	-7.09637
▁között	-7.10728
▁azonban	-7.12665
▁akkor	-7.12765
be	-7.12767
▁egyik	-7.18186
ről	-7.18806
án	-7.19107
eket	-7.19341
▁minden	-7.20083
ként	-7.23239
),	-7.23755
tól	-7.25658
én	-7.27142
▁át	-7.28093
ő	-7.29965
ig	-7.30092
ből	-7.31122
ának	-7.31563
▁év	-7.31826
▁arra	-7.32077
▁ami	-7.32666
val	-7.33629
y	-7.35606
től	-7.36701
nál	-7.3721
ért	-7.40196
va	-7.42499
hez	-7.43148
▁éves	-7.43168
l	-7.43323
▁millió	-7.43589
▁volna	-7.44009
▁három	-7.45203
▁jó	-7.46378
▁most	-7.46458
ének	-7.47193
▁illetve	-7.48297
▁forint	-7.4882
as	-7.48828
▁ellen	-7.49211
▁ezt	-7.49998
ta	-7.50176
z	-7.50466
sz	-7.51087
vel	-7.51344
▁Ha	-7.51793
▁mi	-7.52326
▁S	-7.52563
▁kormány	-7.5276
nél	-7.52966
ve	-7.52979
▁előtt	-7.53208
▁amikor	-7.54143
▁ezer	-7.54243
▁mellett	-7.55571
▁alatt	-7.56313
ott	-7.57816
unk	-7.59155
▁Ez	-7.5954
om	-7.60096
▁Nem	-7.61849
▁más	-7.61888
▁által	-7.63164
uk	-7.64034
ünk	-7.64931
▁nagyon	-7.65821
ában	-7.65838
▁Egy	-7.65843
▁milliárd	-7.65916
▁Magyar	-7.6611
ás	-7.66815
ú	-7.67195
▁vissza	-7.67409
!	-7.67522
▁hanem	-7.67667
b	-7.6981
je	-7.70208
▁akik	-7.70488
▁férfi	-7.71555
ára	-7.71566
h	-7.7185
▁amerikai	-7.72584
ját	-7.72615
▁M	-7.72688
▁közölte	-7.72761
o	-7.7283
▁lett	-7.74276
▁tovább	-7.74939
A	-7.75056
ul	-7.75239
▁rá	-7.75546
em	-7.76012
é	-7.76353
▁ember	-7.76354
▁azért	-7.76869
ával	-7.7712
▁B	-7.797
▁E	-7.79723
▁viszont	-7.79727
▁második	-7.79806
▁össze	-7.79864
▁ilyen	-7.80053
▁Fidesz	-7.80163
▁ahol	-7.80446
g	-7.8118
▁ezért	-7.81857
▁sok	-7.81861
▁annak	-7.82259
▁ő	-7.82422
ják	-7.82671
▁nincs	-7.83406
".	-7.8341
▁MNO	-7.83749
kor	-7.84404
ük	-7.84867
▁négy	-7.85706
▁K	-7.86168
ék	-7.86235
▁százalékkal	-7.8649
ére	-7.86649
▁például	-7.86924
ű	-7.87054
▁ország	-7.87957
kat	-7.88041
sal	-7.8814
▁arról	-7.88339
okkal	-7.88869
▁áll	-7.89193
▁ugyanis	-7.8941
▁valamint	-7.89479
▁párt	-7.89796
ák	-7.89959
;	-7.90045
na	-7.90399
▁kis	-7.90448
▁óta	-7.91172
/	-7.91526
c	-7.91557
ével	-7.91601
▁cég	-7.92287
▁hozzá	-7.92464
▁alapján	-7.93214
▁De	-7.94507
▁világ	-7.94535
▁ne	-7.95382
▁saját	-7.95409
▁korábban	-7.9543
▁számára	-7.95902
ai	-7.9592
▁hiszen	-7.96219
5	-7.9633
▁amit	-7.96382
el	-7.97224
ták	-7.97492
er	-7.98065
és	-7.98246
ében	-7.98332
ekkel	-7.98579
▁T	-7.98792
4	-7.99529
f	-7.9959
▁másik	-8.00395
▁című	-8.00914
3	-8.016
te	-8.01796
▁itt	-8.02451
▁Európa	-8.02682
▁százalékos	-8.02824
▁fél	-8.02909
6	-8.03177
▁jól	-8.03832
▁ma	-8.03942
▁lenne	-8.04521
▁akár	-8.04836
1	-8.05233
▁nélkül	-8.05406
tak	-8.06513
2	-8.07535
▁amelyek	-8.08048
▁legnagyobb	-8.08604
ed	-8.08877
sel	-8.08893
▁kellett	-8.09473
▁míg	-8.09631
ett	-8.10366
▁csapat	-8.1039
▁került	-8.10569
▁F	-8.11016
▁során	-8.11161
ság	-8.11618
▁elmúlt	-8.11637
p	-8.11662
▁Mi	-8.12679
▁néhány	-8.13212
▁közül	-8.13837
ne	-8.13894
▁való	-8.14286
▁eddig	-8.14814
▁nagyobb	-8.14852
▁korábbi	-8.14867
juk	-8.14883
▁túl	-8.15052
ség	-8.15195
▁fog	-8.15469
▁azzal	-8.15511
▁10	-8.16158
▁elmondta	-8.16382
ol	-8.16506
▁elő	-8.17249
▁ott	-8.18055
it	-8.18165
ül	-8.1879
▁ezzel	-8.19718
▁leg	-8.19955
▁László	-8.20762
tal	-8.20786
▁gazdasági	-8.20904
▁tavaly	-8.20959
▁G	-8.21049
M	-8.21121
▁rendőrség	-8.21403
▁autó	-8.21545
▁öt	-8.21624
▁mivel	-8.21724
▁szemben	-8.21902
▁mindig	-8.22064
▁nap	-8.22195
▁idén	-8.22335
▁C	-8.2236
▁vannak	-8.22692
▁egész	-8.22917
▁fő	-8.23065
j	-8.2333
▁elnöke	-8.23672
hu	-8.23677
▁20	-8.24029
▁teljes	-8.24172
hat	-8.2462
r	-8.2484
egy	-8.2489
▁adott	-8.24975
▁ám	-8.25911
▁Nagy	-8.25936
▁utolsó	-8.26102
▁I	-8.26149
▁V	-8.26347
tek	-8.2702
▁kapott	-8.27066
▁Magyarország	-8.27661
7	-8.27855
▁MSZP	-8.28078
▁inkább	-8.28122
cs	-8.28302
▁német	-8.28395
).	-8.28459
▁együtt	-8.28467
▁szó	-8.28622
▁történt	-8.28629
in	-8.28726
▁P	-8.28751
▁hét	-8.28971
▁3	-8.29298
▁voltak	-8.29555
▁e	-8.29758
▁nemzetközi	-8.29817
▁Orbán	-8.29948
S	-8.30702
▁idő	-8.30762
v	-8.31125
▁őket	-8.3127
ása	-8.31442
▁tette	-8.32009
▁százalék	-8.33096
▁Péter	-8.33189
▁sikerült	-8.33194
8	-8.33218
▁következő	-8.33379
ei	-8.335
▁ugyan	-8.34514
né	-8.3457
▁vezető	-8.34648
▁állami	-8.34979
...	-8.35334
▁ennek	-8.35872
▁legjobb	-8.35909
▁harmadik	-8.36125
▁politikai	-8.36331
▁milyen	-8.367
K	-8.36852
tel	-8.37017
od	-8.37051
▁hazai	-8.37543
▁éppen	-8.37911
P	-8.38594
▁további	-8.3887
▁magát	-8.39198
▁H	-8.39583
▁15	-8.39625
▁tett	-8.39644
▁éve	-8.39818
▁L	-8.399
▁újra	-8.39977
▁hat	-8.40073
▁István	-8.40493
▁törvény	-8.40944
B	-8.41101
▁európai	-8.41184
jának	-8.41383
▁fontos	-8.41778
▁elnök	-8.42064
▁rendszer	-8.42204
▁neki	-8.42375
▁mintegy	-8.42389
bb	-8.42431
▁múlt	-8.42441
▁nő	-8.42616
▁pár	-8.42784
le	-8.42826
▁szóló	-8.43177
▁lévő	-8.43408
▁p	-8.43566
▁pont	-8.4361
▁december	-8.43873
kal	-8.43947
▁Meg	-8.44128
▁tíz	-8.44429
us	-8.44641
▁jobb	-8.44668
▁később	-8.44821
▁képest	-8.44916
▁erre	-8.44976
▁ezek	-8.454
▁bár	-8.45407
▁film	-8.45768
▁jelenleg	-8.4581
▁helyzet	-8.46265
▁írja	-8.46562
▁végén	-8.46594
▁forintot	-8.4667
▁szerdán	-8.46677
▁biztos	-8.4669
▁vasárnap	-8.47208
▁emberek	-8.47356
▁2	-8.47617
▁jövő	-8.47668
▁újabb	-8.47816
▁állam	-8.47937
▁2010.	-8.48483
▁város	-8.48489
or	-8.48546
▁amelyet	-8.4857
▁évvel	-8.48764
ték	-8.48967
▁ellenére	-8.49051
T	-8.49159
▁hétfőn	-8.4922
▁D	-8.49641
▁sokkal	-8.4981
▁január	-8.49883
▁közel	-8.50208
am	-8.50508
ket	-8.50577
▁én	-8.50739
▁hasonló	-8.50916
D	-8.50941
▁szervezet	-8.50995
▁MTI	-8.51124
▁kedden	-8.51201
áról	-8.51298
▁alá	-8.51524
▁Gábor	-8.51709
▁lap	-8.51876
▁este	-8.51913
▁utóbbi	-8.51954
jük	-8.51983
▁12	-8.52097
▁pénz	-8.52168
gy	-8.52389
▁részt	-8.52427
▁helyi	-8.52434
▁belül	-8.5277
▁elleni	-8.52966
▁euró	-8.53003
▁Magyarországon	-8.53113
▁mind	-8.53249
▁jelentős	-8.53528
ur	-8.53582
▁tud	-8.53629
ka	-8.53836
het	-8.54155
▁elég	-8.54484
▁egyelőre	-8.54855
▁egyetlen	-8.54929
ál	-8.55417
éről	-8.55594
ható	-8.55711
▁miniszterelnök	-8.55893
▁egyébként	-8.55964
▁helyen	-8.56264
▁évben	-8.56366
ha	-8.56628
▁szintén	-8.56713
▁mely	-8.56913
▁követően	-8.57311
▁jelent	-8.57384
▁1	-8.57577
▁csütörtökön	-8.57636
▁tudja	-8.57925
ez	-8.57955
▁pénteken	-8.5805
u	-8.58167
▁orosz	-8.58174
▁szinte	-8.58234
al	-8.58317
▁bele	-8.58324
H	-8.58394
ából	-8.5856
▁igen	-8.58633
▁egyre	-8.58847
▁kerül	-8.5913
ök	-8.59277
▁képviselő	-8.59452
ad	-8.59608
▁R	-8.59634
▁Ki	-8.59891
▁El	-8.60057
▁sz	-8.60442
▁jelentette	-8.607
▁álló	-8.60817
abb	-8.60905
ter	-8.61484
▁egyes	-8.61601
▁végül	-8.61706
▁szükség	-8.6215
F	-8.62176
▁megyei	-8.6241
▁abban	-8.62705
csak	-8.62799
▁először	-8.63099
▁hosszú	-8.6311
▁tehát	-8.63512
▁maga	-8.63678
▁ebben	-8.63797
▁ismét	-8.6389
di	-8.64062
ése	-8.64077
▁4	-8.64101
▁5	-8.64128
▁kisebb	-8.64182
▁Sz	-8.64197
kel	-8.64389
▁adó	-8.64747
▁János	-8.64763
▁amelynek	-8.64789
▁azok	-8.64842
li	-8.64894
ki	-8.65013
▁nyolc	-8.65052
▁miután	-8.65281
▁vele	-8.6546
▁szabad	-8.65685
▁vezetője	-8.65714
az	-8.6578
E	-8.65946
▁Mint	-8.65979
is	-8.66383
leg	-8.66488
▁Le	-8.67018
▁évek	-8.67032
▁30	-8.67395
nyi	-8.67594
▁Ma	-8.67932
▁csoport	-8.67972
▁előző	-8.68095
▁m	-8.68218
▁Tamás	-8.68269
▁kívül	-8.68395
▁legalább	-8.68432
▁vált	-8.68629
▁élet	-8.68815
▁idei	-8.68851
ri	-8.68896
▁16	-8.69073
▁része	-8.69117
▁Sport	-8.69149
▁kapcsolatban	-8.69712
▁magas	-8.69725
▁teljesen	-8.70037
▁mégis	-8.70045
▁György	-8.701
▁kellene	-8.7016
▁f	-8.70174
nk	-8.70248
▁brit	-8.70249
▁legyen	-8.70315
▁Ferenc	-8.70801
▁helyett	-8.7084
▁közös	-8.70843
ö	-8.70851
▁száma	-8.70948
▁igaz	-8.713
▁gazdaság	-8.71702
gal	-8.71733
▁bíróság	-8.71959
ös	-8.72005
▁Nemzeti	-8.72068
ár	-8.72133
▁program	-8.72522
▁sajtó	-8.72845
▁14	-8.72862
V	-8.72885
▁jelenlegi	-8.72908
▁És	-8.73143
hető	-8.73233
▁ért	-8.73283
▁család	-8.73302
▁fiatal	-8.73666
▁benne	-8.73936
▁november	-8.73974
▁ezen	-8.74043
▁Zrt	-8.74091
▁mit	-8.74107
▁készült	-8.74602
▁víz	-8.74614
▁válság	-8.74675
R	-8.74841
▁esetben	-8.74895
▁mindenki	-8.74968
▁tartott	-8.74987
▁25	-8.75012
▁Egyesül	-8.75103
▁Zoltán	-8.75294
▁Jobbik	-8.75356
▁N	-8.75502
▁politikus	-8.75541
▁nyert	-8.75546
▁miért	-8.75637
▁közben	-8.7568
▁persze	-8.75681
▁Budapest	-8.75719
▁ahogy	-8.76138
▁EU	-8.76156
▁forintos	-8.76275
▁rossz	-8.7642
ebb	-8.76421
ait	-8.7665
▁semmi	-8.77277
▁ugyanakkor	-8.7737
▁b	-8.77747
▁felé	-8.77822
▁csupán	-8.77846
▁pénzügyi	-8.78139
ít	-8.78413
▁BKV	-8.78615
▁Viktor	-8.78711
L	-8.78769
▁megfelelő	-8.78782
▁százaléka	-8.78943
▁reggel	-8.7907
▁francia	-8.79191
ló	-8.79204
▁alap	-8.79861
▁talán	-8.79884
▁összesen	-8.79887
▁csökkent	-8.79992
▁héten	-8.80069
▁szükséges	-8.80704
▁tart	-8.80719
▁út	-8.80955
▁magán	-8.81028
▁érdekében	-8.81065
▁miniszter	-8.81212
▁marad	-8.81285
▁jár	-8.81485
▁jobban	-8.8161
eit	-8.81775
jét	-8.81865
▁verseny	-8.82025
ma	-8.82211
▁március	-8.82242
▁13	-8.82283
▁munka	-8.82312
▁Ezt	-8.82469
▁írta	-8.82686
G	-8.83138
ához	-8.83401
ing	-8.84054
szer	-8.84306
▁nemzeti	-8.84604
▁50	-8.84698
ába	-8.84834
▁erős	-8.85033
▁aztán	-8.85295
▁Bár	-8.85628
▁uniós	-8.85876
▁se	-8.86028
▁19	-8.86072
▁elején	-8.86441
▁New	-8.86497
▁elsősorban	-8.86546
▁körül	-8.86565
▁hogyan	-8.86645
▁Itthon	-8.86648
▁18	-8.86741
▁él	-8.86804
éhez	-8.86864
ny	-8.87014
▁válogatott	-8.87017
N	-8.87115
ná	-8.87274
szt	-8.87305
▁nehéz	-8.87396
▁valaki	-8.87454
▁játék	-8.87513
ar	-8.87622
▁könyv	-8.8765
▁állt	-8.87669
▁száz	-8.87709
éből	-8.87999
▁különböző	-8.88127
▁maradt	-8.88232
▁Be	-8.88257
▁sőt	-8.88446
▁ár	-8.88458
tam	-8.8853
▁vagyis	-8.88734
▁komoly	-8.88749
▁eljárás	-8.88871
0	-8.88941
C	-8.89018
ér	-8.89029
▁keresztül	-8.89194
rel	-8.89289
▁Sándor	-8.89511
▁számos	-8.89618
▁András	-8.89633
▁sor	-8.89941
▁évi	-8.89992
ján	-8.9011
kkal	-8.90122
▁MDF	-8.9017
jában	-8.90325
▁óra	-8.90383
▁ismert	-8.90437
▁közé	-8.90604
▁lehetett	-8.90766
▁képes	-8.90928
▁11	-8.91099
▁vagyok	-8.91192
▁jog	-8.91279
▁módon	-8.91296
▁Index	-8.91357
▁szerepel	-8.91498
▁bank	-8.91637
▁társaság	-8.91976
se	-8.92172
jon	-8.92315
▁délután	-8.92392
vá	-8.92395
▁cél	-8.92453
▁kérdés	-8.92628
▁nemcsak	-8.92642
▁dollár	-8.92785
▁Rendőr	-8.92815
▁várható	-8.93006
▁esetében	-8.93039
▁vett	-8.93098
rész	-8.93113
'	-8.93159
▁17	-8.93222
okra	-8.93263
▁kap	-8.93464
▁indult	-8.93496
ók	-8.93535
▁rövid	-8.93563
▁többi	-8.93589
▁Ennek	-8.93632
▁rendőrök	-8.94217
▁J	-8.94272
ci	-8.9436
▁egykori	-8.94393
▁8	-8.94613
▁ház	-8.94723
▁közötti	-8.94873
▁vizsgálat	-8.9494
▁oda	-8.95112
▁József	-8.95177
▁budapesti	-8.95496
▁gyerek	-8.95555
▁döntés	-8.95661
▁jutott	-8.95737
▁c	-8.95854
▁azaz	-8.95949
▁6	-8.95953
▁sport	-8.96035
▁szóvivője	-8.96206
um	-8.96408
▁Így	-8.96414
▁jelen	-8.96425
▁24	-8.96672
▁40	-8.96777
▁február	-8.97054
▁ill	-8.9707
zi	-8.972
zs	-8.97242
▁külföldi	-8.97309
▁akar	-8.97456
▁ők	-8.97472
▁O	-8.97489
▁játékos	-8.97629
▁években	-8.97753
▁100	-8.97906
9	-8.98215
▁ment	-8.98285
da	-8.98563
▁ügy	-8.98802
▁idején	-8.98915
de	-8.99192
▁Kft	-8.99214
▁klub	-8.99247
▁tér	-8.99312
▁ahhoz	-8.99354
▁fogalmazott	-8.99593
▁hó	-8.99639
tem	-8.99756
ukat	-8.99787
▁nevű	-8.99957
▁forduló	-9.00007
▁Két	-9.00287
▁hír	-9.00374
▁kapcsolatos	-9.00607
▁2.	-9.00782
▁2010-	-9.00917
ön	-9.00971
▁tudott	-9.01462
▁senki	-9.01667
▁h	-9.01729
▁súlyos	-9.01797
▁szól	-9.02035
▁gyermek	-9.02045
▁valami	-9.02106
▁szombaton	-9.02188
▁intézmény	-9.02286
x	-9.02306
▁érkezett	-9.02502
▁Világ	-9.02689
▁olvasható	-9.02826
vé	-9.02915
▁perc	-9.0292
▁ír	-9.0296
▁g	-9.03211
▁született	-9.03236
▁tanulmány	-9.03248
üket	-9.03317
hatja	-9.03319
▁bizottság	-9.03422
▁valószínűleg	-9.03464
▁választási	-9.03706
fel	-9.03772
▁nőtt	-9.03876
▁Megye	-9.03958
▁egyszer	-9.0398
son	-9.04122
▁sokat	-9.04356
▁addig	-9.04659
▁mondja	-9.04665
▁összes	-9.04727
▁kevesebb	-9.04761
▁tagja	-9.04878
▁valóban	-9.04927
▁2009-	-9.05003
▁kínai	-9.05051
▁mai	-9.05185
ral	-9.05325
▁költségvetés	-9.05465
nal	-9.05479
▁alig	-9.0575
ü	-9.05859
▁kor	-9.05885
okban	-9.05913
▁gáz	-9.06007
▁női	-9.06188
▁Attila	-9.06216
▁2008-	-9.06226
▁köz	-9.06272
▁7	-9.06282
▁olasz	-9.06314
▁tudta	-9.06355
▁országos	-9.06362
▁k	-9.06365
▁pénzt	-9.06577
▁Országos	-9.06607
00	-9.06957
eg	-9.07012
▁kép	-9.07134
▁azon	-9.07165
sa	-9.0732
▁számít	-9.07454
▁hivatalos	-9.07472
▁gól	-9.0778
▁Több	-9.07987
▁Azt	-9.07996
▁esett	-9.08023
▁spanyol	-9.08027
▁élő	-9.08064
▁szerződés	-9.08092
▁külön	-9.08159
▁tartja	-9.08348
▁ráadásul	-9.08531
▁Ezek	-9.08762
▁teszi	-9.08825
ty	-9.08904
▁ezelőtt	-9.09079
▁hatalmas	-9.09088
man	-9.0912
▁tartó	-9.09181
nem	-9.09183
főkapitányság	-9.09245
▁adatok	-9.094
▁előre	-9.09423
▁ön	-9.09576
▁azokat	-9.09658
▁megjelent	-9.09697
▁tudni	-9.09793
▁férfit	-9.10081
▁Zsolt	-9.10243
▁kiderült	-9.10253
▁parlament	-9.10371
▁szerzett	-9.10373
öl	-9.10398
▁parlamenti	-9.10424
▁otthon	-9.10699
▁régi	-9.10946
fi	-9.11051
▁vár	-9.11099
▁9	-9.11261
mer	-9.1135
▁személy	-9.11352
▁várhatóan	-9.11567
▁te	-9.11607
▁önkormányzat	-9.1176
ly	-9.11889
st	-9.11892
▁21	-9.11892
▁azóta	-9.11999
▁tűnik	-9.12108
▁kicsit	-9.12185
▁hely	-9.12292
▁esetén	-9.12305
▁költségvetési	-9.1231
▁őt	-9.12446
▁La	-9.12453
ir	-9.12455
▁szép	-9.12457
▁országban	-9.12606
▁Miklós	-9.12649
▁mindössze	-9.12654
ír	-9.12846
▁egyéni	-9.12871
▁Még	-9.13085
▁folyamatosan	-9.13104
▁motor	-9.13323
▁Lajos	-9.13329
▁többször	-9.13331
mal	-9.13569
▁1.	-9.13599
▁ér	-9.13757
O	-9.13801
▁BL	-9.13823
▁mindent	-9.13849
▁végzett	-9.13915
ani	-9.14008
▁Z	-9.14062
▁22	-9.14077
▁többek	-9.14125
▁adat	-9.14229
▁nyilatkozta	-9.14511
▁döntött	-9.14543
védelmi	-9.14548
▁baleset	-9.14634
▁U	-9.1465
▁előzetes	-9.1475
ov	-9.1485
jával	-9.14885
ment	-9.14969
▁vonatkozó	-9.15149
▁többet	-9.15229
▁mögött	-9.1531
▁beszélt	-9.15349
▁Gazdaság	-9.15349
▁polgármester	-9.15369
öt	-9.15425
1-	-9.15479
▁eddigi	-9.15713
▁3.	-9.15782
▁mostani	-9.15889
▁felelős	-9.16227
adó	-9.16335
▁húsz	-9.16441
▁lehetőség	-9.16498
za	-9.16646
▁Budapesten	-9.16728
▁április	-9.16794
ic	-9.1747
▁[	-9.17528
▁érték	-9.17651
▁forinttal	-9.17659
I	-9.17756
▁kampány	-9.1804
▁annyira	-9.18144
▁szakmai	-9.18258
la	-9.18337
▁W	-9.18549
▁legtöbb	-9.18622
▁készül	-9.18646
okon	-9.18756
ekben	-9.18898
▁jelenti	-9.189
▁végre	-9.18927
▁akinek	-9.18938
▁hatóságok	-9.19103
▁bizonyos	-9.19369
▁Már	-9.19514
▁cégek	-9.19672
olt	-9.19904
▁eredmény	-9.20032
ző	-9.2019
▁embert	-9.20294
▁kormányfő	-9.20422
hatnak	-9.20427
▁vette	-9.20574
▁jött	-9.20673
▁meccs	-9.20687
▁ára	-9.20862
▁negyedik	-9.20886
tor	-9.21073
ner	-9.21152
heti	-9.21156
▁elé	-9.21282
zás	-9.21416
▁mindkét	-9.21449
▁belső	-9.21458
ekre	-9.21503
▁látható	-9.21735
▁biztonsági	-9.21771
▁vagyunk	-9.21876
hogy	-9.22031
▁megy	-9.22171
▁időben	-9.22227
▁akit	-9.2225
ébe	-9.22445
▁nők	-9.22462
▁nép	-9.22466
ch	-9.22475
▁dél	-9.22602
▁részét	-9.2261
▁nyugdíj	-9.22633
▁angol	-9.22651
nék	-9.22668
▁érintett	-9.22906
rendszer	-9.22937
mi	-9.22971
ult	-9.23027
▁2011-	-9.2307
▁végig	-9.23093
▁2009	-9.23142
og	-9.23168
▁különösen	-9.23171
▁sokan	-9.23221
ítás	-9.23323
▁figyelmet	-9.23354
▁eset	-9.23441
▁kevés	-9.23492
▁ügyben	-9.2351
▁gép	-9.23606
▁Eb	-9.23615
él	-9.23795
▁testület	-9.23798
ását	-9.23965
▁október	-9.24045
oknak	-9.24073
▁indul	-9.24116
▁fővárosi	-9.24667
▁Online	-9.24752
▁történelmi	-9.24775
▁Most	-9.24799
ör	-9.24806
nő	-9.24823
▁pontos	-9.24876
▁23	-9.25159
▁Nemzet	-9.252
▁piac	-9.25291
ától	-9.25433
▁szám	-9.2547
meg	-9.25478
▁lakás	-9.25517
▁Fel	-9.25532
▁fény	-9.25577
▁egyáltalán	-9.25664
▁föld	-9.25716
▁Úgy	-9.25846
▁Új	-9.25915
lag	-9.25938
▁Gyurcsány	-9.2598
si	-9.25995
▁The	-9.26074
▁hónap	-9.26119
▁dolog	-9.26128
▁szív	-9.2626
▁gyors	-9.26276
del	-9.26431
▁2010	-9.2645
▁kilenc	-9.26472
▁tervezett	-9.26522
▁érdemes	-9.26565
▁növekedés	-9.26797
▁lány	-9.26862
▁per	-9.26958
▁tavalyi	-9.26959
usz	-9.26994
▁kötelező	-9.27064
▁darab	-9.27122
▁tanács	-9.27135
▁miközbe	-9.27245
einek	-9.27358
▁v	-9.27511
▁legfontosabb	-9.27534
▁hangsúlyozta	-9.27547
▁közép	-9.27631
▁fej	-9.27708
▁d	-9.27734
▁média	-9.27943
▁jóval	-9.28095
▁kar	-9.28177
▁szocialista	-9.28179
▁York	-9.28187
szám	-9.28239
▁általában	-9.28253
▁Minden	-9.28351
lás	-9.28386
▁pontosan	-9.28451
▁évre	-9.28477
▁azonnal	-9.28505
ga	-9.28577
▁erről	-9.28615
beli	-9.28654
▁természetesen	-9.28781
▁eredeti	-9.28939
▁jövőre	-9.29032
vi	-9.29269
▁Csak	-9.29291
kkel	-9.29316
▁tenni	-9.29327
▁60	-9.29656
▁lehetne	-9.29727
▁kutatók	-9.29799
▁svájci	-9.29811
▁magasabb	-9.29845
▁szem	-9.29887
▁található	-9.30056
▁Bizottság	-9.30084
▁rendőr	-9.30205
▁érte	-9.30209
míg	-9.30215
▁határ	-9.30271
ást	-9.30335
▁emberi	-9.30402
▁döntő	-9.30459
▁megoldás	-9.30524
▁modell	-9.30825
ke	-9.30836
tunk	-9.30848
▁tudják	-9.3098
▁Bank	-9.31063
▁róla	-9.31158
rá	-9.31188
▁vállalat	-9.31202
elő	-9.31211
▁hiány	-9.31262
▁vagyon	-9.31297
▁egyéb	-9.31412
▁jövőben	-9.315
▁200	-9.31516
▁lesznek	-9.31687
▁fideszes	-9.31744
▁egészen	-9.3191
▁hozott	-9.31991
▁általános	-9.32041
▁dolgozó	-9.32127
▁Kovács	-9.32232
ész	-9.32245
▁test	-9.32317
▁igazgatója	-9.32423
pa	-9.32447
▁találtak	-9.32613
▁szereplő	-9.32651
▁fogja	-9.32738
▁vége	-9.32768
▁Unió	-9.32806
gel	-9.32887
▁Egyetem	-9.32967
▁történet	-9.33004
▁igazán	-9.33261
▁szak	-9.33263
▁Szabó	-9.33329
▁jogi	-9.33397
▁oldal	-9.33399
▁hitel	-9.3349
dal	-9.33548
ro	-9.33612
ia	-9.33659
á	-9.33712
kép	-9.3373
▁adta	-9.33825
▁mérkőzés	-9.33974
jára	-9.34021
▁soha	-9.3403
▁piaci	-9.34048
▁jelölt	-9.34129
ce	-9.34141
▁nekik	-9.34144
▁műsor	-9.34182
▁sorozat	-9.34426
atlan	-9.34434
▁vesz	-9.34454
▁társadalmi	-9.34463
▁internetes	-9.34485
▁Géza	-9.3454
▁úgynevezett	-9.34713
két	-9.34735
▁Van	-9.34874
▁kör	-9.35265
zó	-9.35317
ését	-9.35328
zni	-9.3539
telen	-9.35492
▁országok	-9.35708
▁összeg	-9.35726
▁Na	-9.35856
▁választások	-9.35932
▁Államok	-9.3607
Az	-9.36164
▁napokban	-9.36203
▁családi	-9.36228
▁igazi	-9.36238
▁segítségével	-9.36427
▁ingatlan	-9.36431
▁cs	-9.36492
▁egészségügyi	-9.36517
▁járt	-9.36594
▁hát	-9.36644
▁szövetség	-9.3672
▁tudnak	-9.36872
▁haza	-9.36973
▁jut	-9.37087
oz	-9.37179
▁2006-	-9.37207
▁település	-9.37241
▁ehhez	-9.37292
com	-9.37369
▁magyarországi	-9.3738
▁ebből	-9.37486
▁LMP	-9.37494
▁főváros	-9.3774
▁Re	-9.37927
kó	-9.37949
otta	-9.37955
▁rész	-9.37981
▁tagjai	-9.38001
▁Ezzel	-9.38019
▁Ne	-9.38044
▁hang	-9.38182
▁részben	-9.38235
J	-9.38489
origo	-9.385
▁időszak	-9.38579
▁Bo	-9.38946
▁téli	-9.38971
ette	-9.39096
▁ide	-9.39191
▁vér	-9.39198
▁péntek	-9.39237
▁orvos	-9.3929
▁szél	-9.39362
▁Dr	-9.394
▁hivatal	-9.39472
▁tudom	-9.39496
ító	-9.39514
▁attól	-9.39535
mennyiben	-9.39712
▁jelentősen	-9.39756
▁l	-9.39979
▁kutatás	-9.40064
eknek	-9.401
▁KA	-9.40108
▁35	-9.40137
▁köszönhetően	-9.40172
▁szakember	-9.40208
étől	-9.40247
▁havi	-9.40302
il	-9.40341
▁épp	-9.40399
▁föl	-9.40406
▁Pál	-9.4044
▁életét	-9.405
lő	-9.40636
sége	-9.40656
▁keretében	-9.40658
un	-9.40702
▁néz	-9.4082
zik	-9.40879
ót	-9.40946
der	-9.40955
tünk	-9.41136
▁hol	-9.41149
▁választás	-9.41176
ós	-9.41228
▁csütörtök	-9.41285
▁napi	-9.41505
▁baj	-9.41735
▁ad	-9.41897
séggel	-9.4195
▁épület	-9.41985
▁leginkább	-9.42076
▁napon	-9.42079
▁tömeg	-9.42149
▁írt	-9.42308
▁Mol	-9.42388
▁2008	-9.42439
lik	-9.42458
▁projekt	-9.42468
▁célja	-9.42517
ött	-9.42538
▁köztük	-9.42669
▁megfelelően	-9.42696
▁mintha	-9.42775
▁alkalommal	-9.42808
ája	-9.42893
▁hasonlóan	-9.42895
esen	-9.42949
▁anyag	-9.42956
19	-9.43036
szerű	-9.43047
ton	-9.43124
▁ezeket	-9.43163
▁csaknem	-9.43235
▁úton	-9.43413
▁bor	-9.43513
▁román	-9.4358
w	-9.43638
lo	-9.43692
▁1-	-9.43717
▁támogatás	-9.4376
▁alkotmány	-9.43924
▁Hogy	-9.44018
mel	-9.44047
▁méter	-9.44066
▁Amikor	-9.44151
▁országgyűlési	-9.44251
im	-9.44296
▁siker	-9.44333
▁forintra	-9.44369
▁létre	-9.44446
lan	-9.44448
▁sérült	-9.44591
▁lenni	-9.4462
elt	-9.44649
csoport	-9.44681
eken	-9.44733
▁sincs	-9.44842
▁londoni	-9.44855
sé	-9.44938
per	-9.4497
▁százalékát	-9.45097
▁mikor	-9.45118
▁jön	-9.45282
▁szerda	-9.4539
▁járó	-9.45543
▁mértékben	-9.45567
▁Hozzátette	-9.45594
▁Csaba	-9.45613
▁Antikvárium	-9.45782
▁Tibor	-9.45788
▁lép	-9.45962
▁32	-9.4599
▁kapcsán	-9.4616
▁működik	-9.4616
▁munkát	-9.46206
ozás	-9.46213
▁Ka	-9.46249
▁szerző	-9.46337
akat	-9.46376
▁együttes	-9.46467
▁rajta	-9.46497
▁terület	-9.46499
▁tűz	-9.46533
▁gólt	-9.46688
▁ismeretlen	-9.4671
▁emelkedett	-9.46734
sen	-9.46737
▁szabályozás	-9.46798
ozó	-9.46839
Z	-9.46847
lkotmánybíróság	-9.47012
ására	-9.47023
▁kért	-9.4703
▁játszott	-9.47038
▁eső	-9.47072
ított	-9.47072
▁gyerekek	-9.47288
▁gyakran	-9.47304
▁neve	-9.47468
▁önkormányzati	-9.47505
nia	-9.47531
zott	-9.47585
▁társadalom	-9.47619
▁szerinte	-9.47787
▁Cs	-9.47798
▁lehetővé	-9.48079
nie	-9.48099
▁gyorsan	-9.4821
▁hétfő	-9.48236
▁bal	-9.48259
ikus	-9.48269
▁üzlet	-9.48302
rend	-9.48511
30	-9.48575
▁készített	-9.48576
▁iránt	-9.48657
len	-9.48717
▁szín	-9.48719
jének	-9.48742
▁javaslat	-9.48754
▁akció	-9.4898
bi	-9.49116
▁közt	-9.49142
▁Tanács	-9.49163
ált	-9.49166
olás	-9.49253
▁tartani	-9.49271
▁Hivatal	-9.49339
▁szinten	-9.49411
zel	-9.49481
▁ideje	-9.49487
ám	-9.49608
▁Balázs	-9.49632
áz	-9.49796
▁nyelv	-9.49845
▁szociális	-9.49859
▁őrizetbe	-9.49895
ezés	-9.49922
▁meleg	-9.4998
▁fa	-9.49982
▁lakosság	-9.50087
kon	-9.50095
csi	-9.50172
▁tulajdonos	-9.50227
▁múlva	-9.50234
▁egyszerű	-9.50275
▁jármű	-9.50277
▁28	-9.50278
ésére	-9.5033
vezető	-9.5039
▁beteg	-9.50466
▁tartják	-9.505
▁biztosan	-9.50531
▁lengyel	-9.50566
▁igazgató	-9.50579
▁tudjuk	-9.50695
ut	-9.50811
▁díj	-9.50857
▁minisztérium	-9.50895
bor	-9.5096
▁körülbelül	-9.51017
▁kötött	-9.5102
ler	-9.5105
▁bajnok	-9.51051
W	-9.51124
▁felett	-9.51134
▁nyilvánosságra	-9.51143
hetnek	-9.5115
to	-9.51208
▁kulturális	-9.51234
▁szét	-9.51594
▁Címké	-9.51614
▁osztrák	-9.5164
▁lehetőséget	-9.5166
▁magyarok	-9.51675
▁annyit	-9.51712
▁ekkor	-9.51812
▁Al	-9.51921
▁fotó	-9.52028
▁délelőtt	-9.5209
▁többen	-9.52159
▁nevezte	-9.52194
▁Nemzetközi	-9.52234
▁Imre	-9.52249
▁megyében	-9.52264
áció	-9.52281
▁tartozó	-9.52314
▁helyet	-9.52319
▁tesz	-9.52336
▁előbb	-9.52343
ház	-9.52538
okról	-9.5255
ca	-9.52596
▁főleg	-9.52684
séget	-9.52733
▁szakemberek	-9.52738
▁körében	-9.52749
▁fekete	-9.52874
▁arany	-9.52922
ális	-9.52954
▁portál	-9.52977
ag	-9.52982
co	-9.52995
▁26	-9.53069
▁okozott	-9.53275
▁alacsony	-9.53294
▁bér	-9.53346
▁energia	-9.5336
▁pályán	-9.53381
ással	-9.53389
▁forgalom	-9.53539
▁szezon	-9.53618
▁szenvedett	-9.53649
lel	-9.53708
▁kezdett	-9.53817
▁ennél	-9.53851
▁venni	-9.53939
▁kár	-9.54
▁cikk	-9.54034
▁térség	-9.54184
▁olimpiai	-9.54241
ságot	-9.54243
15	-9.5436
▁Szent	-9.54405
hely	-9.54407
▁könnyű	-9.54466
▁45	-9.54517
▁tervek	-9.54583
tér	-9.54727
▁al	-9.54988
osz	-9.55043
▁indított	-9.55056
▁együttműködés	-9.55064
▁probléma	-9.55091
höz	-9.55099
▁állat	-9.5515
▁előtti	-9.55183
▁színész	-9.5521
hatják	-9.55237
▁körülmények	-9.55247
▁Jó	-9.55487
▁jogszabály	-9.55545
▁működő	-9.55602
▁Fővárosi	-9.55744
▁kezelés	-9.55808
▁kérte	-9.55873
▁esetleg	-9.55883
kormány	-9.55966
▁választ	-9.56004
világ	-9.56111
▁szerdai	-9.56139
▁annyi	-9.56226
▁keddi	-9.56483
▁vb	-9.56689
▁elkövetett	-9.56753
▁fok	-9.56848
▁feladat	-9.56913
int	-9.57041
▁rendkívül	-9.57094
▁átlag	-9.57123
▁hozta	-9.57155
▁pártok	-9.57191
▁Mo	-9.57296
▁azonos	-9.57344
▁derül	-9.57344
ainak	-9.57391
ekről	-9.57477
▁ügyészség	-9.575
▁szlovák	-9.57561
▁Budapesti	-9.57577
▁körüli	-9.57653
▁melyek	-9.57708
eszt	-9.57739
▁belőle	-9.57809
▁területén	-9.57825
▁továbbá	-9.57889
▁kormányzati	-9.57983
▁kötet	-9.57986
▁magam	-9.58062
▁GDP	-9.58111
▁keret	-9.5815
endő	-9.58155
▁hosszabb	-9.58173
▁lépett	-9.58201
▁Persze	-9.58252
▁tartozik	-9.58261
▁ezúttal	-9.58267
▁közösségi	-9.58376
ült	-9.58439
▁szolgáltatás	-9.58472
▁edző	-9.58478
▁oka	-9.58539
▁másfél	-9.58579
▁állás	-9.58583
▁Országgyűlés	-9.58616
▁2007-	-9.58645
▁500	-9.58835
▁ellenzéki	-9.58879
▁lehetséges	-9.58907
▁kocsi	-9.58948
▁emlék	-9.59008
ény	-9.59032
▁egyszerűen	-9.59046
▁vezetett	-9.59122
▁Real	-9.5917
pi	-9.59229
▁keres	-9.59266
▁külső	-9.59311
▁révén	-9.59315
▁tényleg	-9.59343
▁kedd	-9.59359
▁közelében	-9.59442
▁olaj	-9.5947
▁zárt	-9.59544
▁vették	-9.59578
▁észak	-9.59722
hatatlan	-9.59723
go	-9.59758
sor	-9.59778
▁kevésbé	-9.59796
▁eurót	-9.59797
▁férfiak	-9.59855
▁termék	-9.59859
▁szakértők	-9.59901
▁kapcsolat	-9.59988
▁folyó	-9.60035
▁sikeres	-9.60113
lap	-9.60168
▁látszik	-9.60183
▁számolt	-9.6037
▁évig	-9.60492
▁X	-9.60501
▁labdarúgó	-9.6053
▁asszony	-9.60541
▁adatai	-9.60571
▁nyerte	-9.60598
▁Népszabadság	-9.60617
▁Ezért	-9.60637
▁árfolyam	-9.60646
▁percben	-9.60863
vet	-9.60896
európai	-9.60957
▁300	-9.61075
▁hideg	-9.61269
▁tiszt	-9.61308
▁mutat	-9.61377
▁szerepet	-9.61391
ügy	-9.61395
▁százalékot	-9.6152
▁érdekes	-9.61594
▁beszél	-9.61715
szel	-9.61724
▁író	-9.61744
▁használt	-9.6189
▁Vi	-9.61896
▁Dél	-9.61897
▁teljesítmény	-9.61953
50	-9.62114
▁zöld	-9.62114
hi	-9.62116
▁államtitkár	-9.62207
▁nappal	-9.6222
▁közönség	-9.62222
▁környezet	-9.62222
▁ítélet	-9.62247
▁beruházás	-9.62251
ítani	-9.6237
▁mellé	-9.6239
▁amelyeket	-9.62597
▁lépés	-9.62631
ág	-9.6268
▁talált	-9.62717
▁független	-9.62889
▁szerepelt	-9.62895
▁bajnoki	-9.62898
▁eljárást	-9.62999
▁erő	-9.63184
20	-9.63237
▁Se	-9.6337
▁Szerinte	-9.63399
▁utas	-9.63461
▁Tóth	-9.6351
▁oldalon	-9.63529
▁futball	-9.6353
▁napilap	-9.63549
ge	-9.63578
▁Sch	-9.63586
jai	-9.63595
▁győztes	-9.63652
▁mutatja	-9.63665
▁egymás	-9.63671
ug	-9.63689
▁görög	-9.63776
▁évente	-9.63817
▁nyom	-9.63858
ber	-9.63867
▁11-	-9.639
▁pontot	-9.64037
▁alakult	-9.64089
tó	-9.64204
▁15-	-9.64223
éssel	-9.64247
▁Li	-9.64311
▁Én	-9.64341
▁kiderül	-9.64386
▁egyaránt	-9.64412
▁hivatkozva	-9.64423
▁Károly	-9.64493
▁század	-9.64531
▁vezette	-9.64607
▁Nagyon	-9.64637
▁történő	-9.64639
▁helyszínen	-9.64651
▁hozzátette	-9.64693
▁4.	-9.64746
▁megállapodás	-9.64783
▁terv	-9.64824
▁33	-9.64939
U	-9.64957
▁vita	-9.64982
▁fehér	-9.64991
ánál	-9.65053
▁km	-9.65085
▁Horváth	-9.65108
▁közlekedési	-9.65144
▁óriási	-9.65149
▁80	-9.65258
▁of	-9.65274
▁kapta	-9.65296
sorozat	-9.65326
▁vezetés	-9.65343
▁támadás	-9.65418
▁akart	-9.65433
lat	-9.65444
nák	-9.65511
▁Varga	-9.65562
▁vállalkozás	-9.65612
▁pénteki	-9.65693
▁nekem	-9.65797
▁szóvivő	-9.65806
ze	-9.65856
▁0	-9.65948
sága	-9.66014
ór	-9.66033
lal	-9.66035
▁Di	-9.66103
▁ellátás	-9.66129
▁műszaki	-9.66145
]	-9.66242
▁érvényes	-9.66264
▁védő	-9.66307
▁n	-9.66379
tük	-9.66443
▁tevékenység	-9.6645
▁kizárólag	-9.66471
▁Google	-9.66481
▁állítólag	-9.66486
▁szombat	-9.66522
▁kereskedelmi	-9.66566
▁t	-9.66595
▁szolgálat	-9.66708
▁semmit	-9.66753
▁nagyjából	-9.66798
ők	-9.66822
▁busz	-9.66844
▁kaptak	-9.66922
▁70	-9.66923
ink	-9.66942
▁tény	-9.671
oló	-9.67153
▁Ra	-9.6719
jön	-9.67205
fa	-9.67219
▁közleményében	-9.67445
tan	-9.67481
▁világbajnok	-9.67546
ck	-9.67587
▁mond	-9.67703
▁egyedül	-9.67741
í	-9.67791
hetik	-9.67797
▁cím	-9.67944
▁dollárt	-9.6795
▁állítja	-9.67984
▁akarja	-9.68008
▁nélküli	-9.68032
▁időszakban	-9.68042
▁százalékra	-9.68104
▁érkező	-9.68186
▁fognak	-9.68192
do	-9.68197
▁csütörtöki	-9.68199
csapat	-9.6821
▁Bíróság	-9.68231
▁nyújt	-9.68247
2-	-9.68286
ász	-9.68308
▁hétfői	-9.68334
▁tag	-9.68354
▁Franciaország	-9.68397
▁Itt	-9.68453
ven	-9.68549
▁Ugyanakkor	-9.68594
▁harminc	-9.68617
▁sikerül	-9.68699
ko	-9.68762
cz	-9.68871
▁civil	-9.6888
▁mű	-9.6891
▁esti	-9.68979
▁He	-9.69001
▁hatóság	-9.69007
▁Te	-9.69048
▁Aki	-9.69062
▁következtében	-9.69069
ker	-9.6914
ülés	-9.69146
▁különleges	-9.692
▁kórházba	-9.69246
▁27	-9.69363
▁háború	-9.69415
▁Igaz	-9.69588
▁pályára	-9.69619
▁in	-9.69673
▁központi	-9.69679
▁adni	-9.69689
öm	-9.69727
▁Madrid	-9.69787
▁anyagi	-9.69821
▁folyamat	-9.6989
▁Ba	-9.69918
▁tőle	-9.69972
▁üzleti	-9.69998
▁magukat	-9.70125
▁Pécs	-9.70262
▁Szabolcs	-9.70284
▁29	-9.70291
let	-9.70356
▁rendező	-9.70358
jából	-9.70414
▁részén	-9.70414
po	-9.70421
▁támadó	-9.70474
▁bíró	-9.70478
▁államfő	-9.70524
▁nyugati	-9.70529
▁Kis	-9.70554
▁hírek	-9.70556
▁vezetői	-9.70564
▁valamennyi	-9.70756
▁sokszor	-9.70783
▁többsége	-9.70837
▁tévé	-9.70875
vár	-9.70919
pont	-9.71
▁személyes	-9.71026
▁dolgozott	-9.71048
▁ügyében	-9.71064
▁osztály	-9.71152
▁egyértelműen	-9.712
▁arc	-9.71326
junk	-9.71406
▁felnőtt	-9.71415
▁ülés	-9.71427
▁Minisztérium	-9.71482
▁képviselők	-9.71584
▁fiú	-9.7163
▁II	-9.71673
▁szeptember	-9.7168
▁Észak	-9.71758
nel	-9.71885
▁változás	-9.71922
▁kétszer	-9.71925
nának	-9.71936
úr	-9.72047
▁svéd	-9.72171
▁japán	-9.72192
▁hiába	-9.72226
au	-9.72226
▁lassan	-9.72241
▁maguk	-9.72267
▁említett	-9.72277
▁re	-9.723
▁halál	-9.72356
ségét	-9.72401
féle	-9.72429
▁Oroszország	-9.72464
▁mire	-9.72473
▁hajó	-9.72505
▁hőmérséklet	-9.72514
▁számában	-9.72539
▁szeretnék	-9.72575
▁kettő	-9.72604
▁szöveg	-9.7263
8-	-9.72658
▁majdnem	-9.72662
ev	-9.72704
▁Michael	-9.7271
▁versenyző	-9.72738
▁tudományos	-9.72908
ítés	-9.72955
▁Forma	-9.72973
▁jellemző	-9.72974
▁válasz	-9.73026
▁szeretne	-9.73081
hetetlen	-9.73108
▁szerződést	-9.73158
▁kora	-9.73197
▁szempontból	-9.73248
▁legutóbbi	-9.73291
▁vettek	-9.73291
▁kíván	-9.73293
őr	-9.73296
▁helyszín	-9.73301
ill	-9.73318
3-	-9.73338
▁Föld	-9.73436
▁okozta	-9.7344
ver	-9.73571
▁időjárás	-9.73645
etlen	-9.73663
▁tájékoztatása	-9.73677
zés	-9.73691
▁Obama	-9.73704
tár	-9.73717
ista	-9.73813
▁mondott	-9.73845
▁kezd	-9.73936
▁véli	-9.73979
▁munkatársai	-9.74096
▁gyakorlat	-9.74144
▁emiatt	-9.74205
▁ötödik	-9.74224
▁alkalmas	-9.74243
ll	-9.74259
▁hagyományos	-9.74259
▁könnyen	-9.74266
helyettes	-9.74273
ozott	-9.7431
▁36	-9.74325
▁szövetségi	-9.74334
osan	-9.74399
▁ó	-9.74416
mp	-9.7458
alma	-9.74658
▁felső	-9.74668
▁vet	-9.74678
▁34	-9.74874
ang	-9.74932
▁csúcs	-9.74945
▁véget	-9.74952
▁helyre	-9.74984
▁képviselői	-9.75034
▁Co	-9.75082
anyag	-9.75156
▁csökken	-9.75289
▁PL	-9.75329
me	-9.75342
▁rendelkező	-9.75361
▁nyitott	-9.75385
mat	-9.7539
út	-9.75405
▁honlapján	-9.75621
▁37	-9.75714
▁kér	-9.75725
▁tartanak	-9.75734
▁alacsonyabb	-9.75758
▁katonai	-9.75766
▁rengeteg	-9.75778
▁Ő	-9.75871
▁iskola	-9.75979
ített	-9.76079
szor	-9.76093
▁SZDSZ	-9.76094
▁mások	-9.7612
▁bűncselekmény	-9.76124
▁meglepő	-9.76128
▁számú	-9.76192
feljebb	-9.76202
▁jelezte	-9.76229
▁Ri	-9.76233
▁gyakorlatilag	-9.76238
▁veszélyes	-9.76242
th	-9.76368
jék	-9.76454
▁szeretné	-9.76463
▁Három	-9.76489
▁friss	-9.76549
▁követő	-9.76604
▁csapata	-9.76721
▁teszt	-9.76732
▁rend	-9.76751
▁közgyűlés	-9.76756
▁elérhető	-9.76763
talan	-9.76778
▁játszik	-9.76785
verseny	-9.76788
▁Gy	-9.76873
▁jelentés	-9.76911
ger	-9.76979
▁hamarosan	-9.77007
▁izraeli	-9.7706
kar	-9.77089
▁közlemény	-9.77131
ud	-9.77179
ásával	-9.77198
▁széles	-9.77284
▁dolgozik	-9.77309
▁nyáron	-9.77327
sá	-9.77339
▁hangulat	-9.77346
gó	-9.77373
▁vezet	-9.77389
▁gond	-9.77437
mar	-9.77477
▁számol	-9.77499
▁szocialisták	-9.77522
op	-9.77618
▁dönt	-9.77691
nének	-9.77693
▁fogják	-9.77722
lin	-9.7774
▁hete	-9.77742
▁Ho	-9.77776
▁Ti	-9.77966
▁átlagos	-9.78014
bo	-9.78059
▁elérni	-9.78214
▁esélye	-9.78249
▁City	-9.78316
▁kerületi	-9.78323
▁fiatalok	-9.7836
▁online	-9.78372
▁forrás	-9.78383
▁közepén	-9.78395
▁telefon	-9.78458
▁május	-9.78488
▁Akkor	-9.78592
▁katasztrófa	-9.78674
ron	-9.78696
▁találkozó	-9.78728
▁határozat	-9.78734
okból	-9.78805
▁90	-9.78831
▁kerültek	-9.78848
▁vendég	-9.7887
áért	-9.78894
▁fejlesztés	-9.78896
▁mennyire	-9.78931
▁kezdte	-9.78976
asz	-9.78986
▁betegség	-9.79009
fog	-9.79075
▁nyomán	-9.79174
▁hal	-9.7921
▁állította	-9.79295
▁Ami	-9.79302
▁Mihály	-9.79354
▁megint	-9.79584
▁időt	-9.79593
▁származó	-9.79634
▁FC	-9.79991
ítő	-9.80076
íteni	-9.80078
▁TV	-9.80119
ások	-9.80137
▁végéig	-9.80151
▁kezdődött	-9.80153
7-	-9.80158
járól	-9.80193
kör	-9.80261
nunk	-9.8029
▁pálya	-9.80313
▁rádió	-9.80337
zet	-9.80359
▁karácsonyi	-9.80445
▁helyzetben	-9.80516
5-	-9.80534
▁évet	-9.80544
▁plusz	-9.80661
év	-9.80672
▁negatív	-9.80684
▁Gyula	-9.80687
▁éven	-9.80774
▁kapus	-9.8078
▁területen	-9.80819
▁lát	-9.80852
▁fogadta	-9.80875
ést	-9.80891
▁utána	-9.81067
▁vélemény	-9.81114
▁támogatást	-9.81265
▁5-	-9.81298
▁PK	-9.81324
▁látja	-9.81377
▁szervezetek	-9.81408
▁bejelentette	-9.81441
▁egyben	-9.81519
men	-9.81564
▁2007	-9.81572
▁Európában	-9.81724
▁értelmében	-9.8176
▁Mesterházy	-9.8176
no	-9.8179
▁áldozat	-9.81791
▁St	-9.81848
▁déli	-9.81894
▁000	-9.81936
▁szabályok	-9.82005
▁egymást	-9.82063
▁hétvégén	-9.82064
▁Manchester	-9.82081
▁tűnt	-9.82105
▁csomag	-9.82105
tuk	-9.8217
▁Ja	-9.82242
▁nyomozás	-9.82242
▁pályázat	-9.82302
▁Sok	-9.82304
▁januárban	-9.82318
▁kérdésre	-9.82354
▁regény	-9.82411
▁+	-9.82413
ezer	-9.82473
▁eszköz	-9.82476
▁király	-9.825
▁felmérés	-9.82554
▁mondani	-9.82587
▁karácsony	-9.82694
▁Sa	-9.82743
tette	-9.82759
▁bőr	-9.82764
▁pozitív	-9.8288
▁néző	-9.82911
▁rendezvény	-9.82968
▁Ko	-9.8301
▁közlekedés	-9.83047
▁Tavaly	-9.83123
▁United	-9.83123
▁velük	-9.83125
▁tudták	-9.83248
"-	-9.83266
▁közösség	-9.8337
▁adja	-9.83405
▁dolláros	-9.83413
▁egyértelmű	-9.83518
▁bankok	-9.83569
▁természet	-9.83584
▁példa	-9.836
amerikai	-9.83687
jába	-9.8376
▁válik	-9.83766
id	-9.83894
▁hónapban	-9.8392
jelölt	-9.83934
▁ellenőrzés	-9.83977
▁kiemelt	-9.84023
▁Szövetség	-9.84026
ics	-9.84026
▁legújabb	-9.84226
▁kapnak	-9.84242
▁semmilyen	-9.84248
▁verzió	-9.84266
▁fordult	-9.84367
▁fele	-9.84394
▁levegő	-9.84439
▁történik	-9.84504
▁Kína	-9.84535
▁horvát	-9.84588
dás	-9.84593
▁próbál	-9.84618
ív	-9.84619
▁különbség	-9.84683
▁idős	-9.84753
szó	-9.84943
▁arány	-9.84966
▁közeli	-9.8501
▁kísérlet	-9.85012
iz	-9.85078
már	-9.85139
más	-9.85174
▁látott	-9.85241
díj	-9.85268
▁mozgás	-9.85299
▁OTP	-9.85342
▁BBC	-9.85347
▁megye	-9.85375
11	-9.85397
▁korrupció	-9.85585
▁nemrég	-9.85621
▁ég	-9.85623
▁Bajnai	-9.85641
▁munkatársa	-9.8569
ög	-9.85695
▁viszony	-9.85722
▁esetleges	-9.8573
ették	-9.85745
▁kamat	-9.85832
▁index	-9.85862
pp	-9.85866
olta	-9.85866
▁nyílt	-9.85893
tartó	-9.85897
▁sajnos	-9.85905
▁végére	-9.85927
▁eredmények	-9.85999
▁kelet	-9.86004
▁északi	-9.86009
▁remek	-9.86141
ac	-9.86175
▁kifejezetten	-9.86202
▁kettős	-9.8622
▁abból	-9.86227
▁nemzet	-9.86231
▁törvényt	-9.86248
▁foglalkozó	-9.86289
▁ötlet	-9.86356
andó	-9.86402
▁400	-9.86425
▁autót	-9.86445
áig	-9.86457
▁fizetni	-9.86479
▁intézet	-9.8648
▁42	-9.86487
▁figyelembe	-9.86492
▁azoknak	-9.86578
▁rendkívüli	-9.8661
▁derült	-9.86619
▁halálos	-9.86653
▁Aztán	-9.86702
▁internet	-9.86712
▁mutató	-9.86719
könyv	-9.86742
▁Ráadásul	-9.86754
▁kijelentette	-9.86754
▁Duna	-9.86811
▁Németország	-9.86815
▁5.	-9.86861
▁kiváló	-9.8693
▁Ro	-9.86936
ozni	-9.86984
▁gy	-9.87035
▁Mar	-9.87042
▁alakul	-9.87055
▁szánt	-9.87115
▁valójában	-9.87116
▁annál	-9.87141
-1	-9.87144
▁kemény	-9.87163
jegy	-9.87182
ró	-9.87248
zon	-9.87292
▁7-	-9.87382
▁jég	-9.874
▁utca	-9.87455
▁Erre	-9.87455
▁közösen	-9.87499
ásra	-9.87595
▁havazás	-9.87613
▁érintő	-9.87656
▁poszt	-9.87667
SZ	-9.87768
vány	-9.87802
▁kész	-9.87868
▁legmagasabb	-9.87899
sem	-9.87903
▁főpolgármester	-9.87906
▁nyilatkozott	-9.87909
jen	-9.87946
▁Times	-9.87989
▁rosszul	-9.88027
▁2011	-9.88027
ember	-9.8812
▁engedély	-9.88135
▁közvetlen	-9.88159
▁szempontjából	-9.8819
▁Antal	-9.88218
▁negyven	-9.88248
▁r	-9.88338
▁vasárnapi	-9.88366
▁mobil	-9.8839
▁hálózat	-9.88417
öv	-9.88432
▁31	-9.88462
▁állnak	-9.88528
▁nyújtott	-9.88561
adás	-9.88578
dik	-9.88623
▁Győr	-9.88677
közben	-9.88685
▁38	-9.88691
▁Dávid	-9.88766
fajta	-9.8883
▁cseh	-9.8887
▁egészség	-9.88924
ezett	-9.88967
▁hoz	-9.89077
öd	-9.89111
▁tőke	-9.89146
▁meghalt	-9.89192
mény	-9.89209
nt	-9.89258
jén	-9.89309
jenek	-9.89331
br	-9.89373
janak	-9.89477
▁reform	-9.89489
▁Ezen	-9.89648
▁mély	-9.89651
▁szívesen	-9.89659
▁gazdag	-9.89845
mo	-9.89862
▁állandó	-9.89863
▁MÁV	-9.89934
12	-9.8994
▁határidő	-9.89942
▁viszonylag	-9.89944
▁voltam	-9.89989
▁aminek	-9.90006
▁melyik	-9.90122
▁Fi	-9.90123
▁okoz	-9.90164
▁látni	-9.9018
▁szex	-9.90243
ry	-9.90295
▁Br	-9.90303
▁ennyi	-9.90315
olni	-9.90366
▁alatti	-9.90394
▁büntető	-9.9046
orosz	-9.90506
hatott	-9.90528
▁menet	-9.90534
éért	-9.90627
gép	-9.90631
film	-9.90755
▁összeget	-9.90806
▁nyer	-9.90815
▁órakor	-9.90927
▁kórház	-9.90934
▁győzelem	-9.90938
▁képviselője	-9.90988
▁embereket	-9.9099
▁fal	-9.91034
ana	-9.91035
hetett	-9.91047
90	-9.91067
▁június	-9.91094
▁egymással	-9.91167
▁Mercedes	-9.91176
gu	-9.91187
▁Ta	-9.91198
Sz	-9.91272
▁távol	-9.91303
17	-9.91315
▁személyi	-9.91332
▁rendelkezik	-9.91442
▁tájékoztatta	-9.91465
▁Me	-9.91491
▁valódi	-9.91524
▁utal	-9.9153
ekből	-9.91532
magyar	-9.91535
▁holland	-9.91558
▁szakasz	-9.91594
▁hiba	-9.91595
▁miként	-9.91612
▁ter	-9.91619
▁talál	-9.91637
von	-9.91656
ap	-9.91705
▁miszerint	-9.91737
▁szerb	-9.9177
▁irodalom	-9.91818
▁segítséget	-9.91839
▁ügyvéd	-9.91907
▁dolgok	-9.91915
▁dolgozók	-9.9193
ng	-9.91935
▁'	-9.91959
▁kapitány	-9.92068
▁Mark	-9.92073
szem	-9.92106
▁ötven	-9.92113
▁sztrájk	-9.92121
▁befektetők	-9.92211
pr	-9.92224
▁természetes	-9.92287
▁egyetem	-9.92321
▁állampolgár	-9.92504
nap	-9.92557
▁láb	-9.92623
▁fejlődés	-9.92711
▁érdeklődés	-9.92729
80	-9.92758
X	-9.92769
▁nyilván	-9.9281
ká	-9.9282
▁ok	-9.9283
▁induló	-9.92862
ho	-9.92864
▁szólt	-9.92864
▁Mert	-9.92871
▁segít	-9.92881
6-	-9.92953
he	-9.92965
▁várja	-9.92986
▁Lu	-9.92987
que	-9.93014
ay	-9.93047
▁sziget	-9.93047
▁rendszeresen	-9.93087
▁Fotó	-9.9311
▁városi	-9.93118
▁Róbert	-9.93218
▁találták	-9.93303
▁ponttal	-9.9334
▁politika	-9.93419
elés	-9.93436
Ha	-9.9352
▁bevétel	-9.9359
▁valamit	-9.93638
▁nincsenek	-9.93681
-1-	-9.93686
szk	-9.93747
▁egyet	-9.93748
0-	-9.93774
▁valamilyen	-9.93827
▁nehezen	-9.93828
millió	-9.93828
▁közleményben	-9.93829
▁információ	-9.93866
▁akkori	-9.93872
▁mutatott	-9.93912
▁felül	-9.93913
▁tudtak	-9.93925
▁felesége	-9.93934
▁kiállítás	-9.93982
▁ukrán	-9.93995
▁tárca	-9.94047
▁igazság	-9.94165
▁Gu	-9.94224
▁színésznő	-9.94253
▁videó	-9.94335
▁azután	-9.94466
▁bemutató	-9.94543
aj	-9.94557
10	-9.94561
▁esemény	-9.94579
▁formában	-9.94606
enek	-9.94678
▁Intézet	-9.94689
▁oldalán	-9.94777
nünk	-9.94794
▁ezután	-9.94848
▁mégsem	-9.94938
▁fővárosban	-9.94986
▁rendszert	-9.94997
▁hátsó	-9.95061
▁előadás	-9.95087
játék	-9.95093
▁Vas	-9.95198
▁Ilyen	-9.95326
▁hivatalosan	-9.95328
koreai	-9.95446
▁erősen	-9.95458
ell	-9.95483
szolgáltatás	-9.95561
pl	-9.95595
ina	-9.9563
▁legfőbb	-9.95676
▁elfogadott	-9.95694
▁David	-9.95701
tag	-9.95754
▁Veszprém	-9.95755
szerűen	-9.95787
való	-9.9579
▁Los	-9.9584
▁városban	-9.95857
▁Államokban	-9.95929
▁konkrét	-9.95947
▁adósság	-9.95978
kban	-9.95993
tikus	-9.96027
▁brazil	-9.96067
▁biztosít	-9.96123
▁valószínű	-9.96146
▁kezdeményezés	-9.96167
▁utat	-9.962
▁néha	-9.963
▁nálunk	-9.96303
▁helyzetet	-9.96321
▁újságíró	-9.9639
▁hatalom	-9.96391
▁Ben	-9.96526
▁médiatörvény	-9.96545
program	-9.96572
▁július	-9.96584
▁gyár	-9.96589
▁elől	-9.96703
jével	-9.96759
októl	-9.96834
▁Ám	-9.96851
▁veszi	-9.96852
▁munkahely	-9.96868
ező	-9.96953
▁Spanyolország	-9.96959
▁ilyenkor	-9.96975
▁akarta	-9.97003
▁írás	-9.9708
▁piacon	-9.97082
▁adtak	-9.97089
énél	-9.97106
ügyminisztérium	-9.97148
▁aktív	-9.97235
▁közvélemény	-9.97244
ika	-9.97292
ellenes	-9.97295
▁Ház	-9.97387
unkat	-9.97406
íti	-9.97426
▁környékén	-9.97471
▁problémák	-9.97512
hal	-9.97566
▁nekünk	-9.97576
autó	-9.97637
▁régió	-9.97639
▁döntetlen	-9.97696
▁hátra	-9.97702
▁érzés	-9.97815
felé	-9.97831
ru	-9.97868
▁Izrael	-9.97893
▁ponton	-9.97952
&	-9.97974
ein	-9.98006
met	-9.98056
▁decemberben	-9.98141
▁mennyi	-9.98142
4-	-9.98163
▁blog	-9.98176
▁USA	-9.98216
▁Red	-9.98244
▁számítani	-9.98244
▁koncepció	-9.9825
▁bejelentés	-9.98281
ard	-9.98337
▁politikusok	-9.98401
▁aránya	-9.98474
▁immár	-9.98517
▁alkalmazott	-9.98631
▁csapatok	-9.98653
közi	-9.98671
▁újság	-9.98696
▁futam	-9.98727
▁ünnep	-9.98728
▁nyugat	-9.98829
▁filmet	-9.98834
▁éjjel	-9.98838
▁fegyver	-9.98846
▁művészet	-9.98879
var	-9.98901
▁boldog	-9.9895
▁Bu	-9.99037
%-	-9.99058
▁modern	-9.99141
▁Pedig	-9.99157
▁változott	-9.99179
▁ellenzék	-9.9921
▁oktatás	-9.99229
▁agy	-9.99246
▁2009.	-9.9925
alap	-9.99268
▁híres	-9.99301
▁vendégek	-9.99303
▁szüksége	-9.99318
mivel	-9.9938
▁szint	-9.99399
ep	-9.99427
▁Bar	-9.99438
▁Inter	-9.99452
▁euróövezet	-9.99481
▁rendezett	-9.99504
▁kedvező	-9.99506
▁története	-9.99525
▁képesek	-9.9958
▁termelés	-9.99581
▁Pest	-9.99604
▁utáni	-9.99637
▁Pa	-9.99639
▁Bal	-9.99765
lu	-9.99793
▁apró	-9.99796
▁egyebek	-9.99803
ási	-9.99806
zett	-9.99851
▁legalábbis	-9.99875
▁főként	-9.99903
hatunk	-9.99984
sok	-10.0005
▁földrengés	-10.0013
▁választókerület	-10.0013
▁kezdődik	-10.0013
▁függ	-10.002
▁39	-10.0021
vezetés	-10.0021
▁gyártó	-10.0023
▁kilométer	-10.0025
▁Har	-10.0026
ünket	-10.0034
▁frank	-10.0036
▁alkohol	-10.0041
▁vádlott	-10.0042
ákat	-10.0047
45	-10.0048
▁10-	-10.0048
▁fölött	-10.0049
▁hatására	-10.0053
▁adatokat	-10.0058
▁büntetés	-10.0067
▁por	-10.0074
▁roma	-10.0075
▁partner	-10.0076
▁élete	-10.008
▁világbajnokság	-10.008
▁eurós	-10.0087
szak	-10.0088
▁teszik	-10.009
▁reklám	-10.009
▁Ru	-10.009
▁̋	-10.0096
▁készít	-10.0097
▁Kiss	-10.0101
▁heti	-10.0102
▁igény	-10.0104
▁ideig	-10.0105
izmus	-10.0112
ou	-10.0115
▁papír	-10.0115
▁negyed	-10.0116
▁autók	-10.0121
▁sötét	-10.0122
▁napján	-10.0122
▁napja	-10.0122
▁ülésén	-10.0123
▁ipari	-10.0131
▁Központi	-10.0133
▁néven	-10.0134
ésével	-10.0138
▁41	-10.0143
▁Múlt	-10.0144
▁bárki	-10.0147
▁Más	-10.0151
▁elnökség	-10.0157
▁profi	-10.0162
okhoz	-10.0163
▁lőtt	-10.0169
sza	-10.0171
▁Jo	-10.0173
fal	-10.0175
▁rögtön	-10.0177
▁itthon	-10.0178
▁távon	-10.0186
▁polgármestere	-10.019
▁meccsen	-10.019
▁tűzoltók	-10.0191
elem	-10.0195
▁utcai	-10.0195
▁szakértő	-10.0196
▁szerv	-10.0197
▁hagy	-10.021
▁amúgy	-10.021
idő	-10.0213
áj	-10.0215
▁melynek	-10.0224
▁milliárdos	-10.0225
▁másodperc	-10.0226
▁dal	-10.0227
álló	-10.0232
▁Kar	-10.0236
▁fordul	-10.0236
▁gyenge	-10.0243
szi	-10.0244
▁30-	-10.0245
▁folytatott	-10.0248
▁Béla	-10.0249
zen	-10.0251
író	-10.0261
▁folyamatos	-10.0264
▁központ	-10.0268
ide	-10.0272
▁ENSZ	-10.0276
▁hány	-10.0277
▁zsidó	-10.0278
▁nevét	-10.0279
▁erőszak	-10.0288
est	-10.029
oknál	-10.0292
▁di	-10.0294
központ	-10.0296
▁szavazás	-10.0298
ották	-10.0298
ré	-10.0299
ya	-10.03
▁állapot	-10.0301
▁csatár	-10.0302
▁gondolat	-10.0305
▁Arra	-10.0307
▁állapotban	-10.0308
▁4-	-10.031
▁biztosító	-10.0314
▁gyógyszer	-10.0315
▁számított	-10.0316
▁fizet	-10.0317
van	-10.0318
törvény	-10.032
▁sír	-10.0328
▁módszer	-10.0333
▁típusú	-10.0347
▁jellegű	-10.0349
▁közölt	-10.036
niuk	-10.0364
▁tettek	-10.0365
▁intézmények	-10.037
▁Car	-10.0372
▁díjat	-10.0376
▁név	-10.0377
ip	-10.0378
esebb	-10.038
▁hús	-10.0384
▁6.	-10.0384
▁körben	-10.0387
▁Ke	-10.0392
▁18.	-10.0392
sch	-10.0397
knak	-10.0397
▁kül	-10.04
▁némi	-10.0402
▁verte	-10.0403
▁7.	-10.0403
zat	-10.0403
ley	-10.0409
őd	-10.041
▁gyanúsított	-10.0411
▁intézkedés	-10.0412
kra	-10.0413
▁részéről	-10.0415
▁haj	-10.0419
▁lég	-10.0421
▁ti	-10.0425
ajtótájékoztatón	-10.0428
▁indítvány	-10.043
fej	-10.0437
elte	-10.0438
▁ex	-10.0442
hhez	-10.0444
▁Barcelona	-10.0449
ssz	-10.0463
▁intézkedések	-10.0464
▁játékosok	-10.0466
▁látta	-10.0469
▁fogyasztás	-10.047
▁véleménye	-10.0472
▁messze	-10.0477
▁egyszerre	-10.0478
▁akiket	-10.0478
▁fekvő	-10.0479
▁közbeszerzés	-10.0479
▁feletti	-10.0479
▁to	-10.048
▁öröm	-10.0482
▁nőt	-10.0483
▁Hírek	-10.0483
▁múzeum	-10.0494
▁elemzők	-10.0494
▁átlagosan	-10.0494
▁információk	-10.05
▁ellene	-10.0501
▁Párt	-10.0503
▁késő	-10.0507
▁botrány	-10.0508
▁hadsereg	-10.0513
▁váltó	-10.0514
▁észre	-10.0516
▁Nyugat	-10.052
▁támogatja	-10.0521
▁kon	-10.0521
▁szerezte	-10.0525
▁olvashat	-10.0533
▁többség	-10.0535
▁48	-10.0535
▁tették	-10.0541
▁mód	-10.0542
▁John	-10.0548
▁Lengyelország	-10.055
▁különadó	-10.055
▁vállalkozások	-10.0551
elnök	-10.0552
▁történelem	-10.0555
▁téren	-10.0556
▁élt	-10.0562
▁Ugyan	-10.0563
▁egészséges	-10.0568
▁illetékes	-10.0568
▁tartottak	-10.057
▁ajánlat	-10.0575
▁akarnak	-10.0576
▁szülő	-10.058
▁fia	-10.058
▁döntést	-10.0583
▁élelmiszer	-10.0587
dob	-10.059
▁55	-10.059
▁szombati	-10.0593
▁halt	-10.0594
▁házi	-10.0599
▁indít	-10.0604
oly	-10.0604
▁rendelet	-10.0612
▁Néhány	-10.0618
▁jegybank	-10.0624
▁tartotta	-10.0632
nom	-10.0633
ami	-10.0638
mond	-10.0639
▁Ar	-10.0646
▁meglehetős	-10.0651
▁világháború	-10.0652
▁Németh	-10.0656
▁folytat	-10.0659
▁2012-	-10.0661
18	-10.0661
▁6-	-10.0661
land	-10.0664
▁hisz	-10.0666
fő	-10.0668
▁Ge	-10.0682
14	-10.0686
]-	-10.0686
▁folyik	-10.0687
▁Jelenleg	-10.0688
▁Ca	-10.0693
▁kedves	-10.0694
▁kérdést	-10.0695
ügyi	-10.07
▁150	-10.07
▁idők	-10.07
▁kerülhet	-10.0701
▁árfolyama	-10.0708
▁Miután	-10.0723
▁ausztrál	-10.0724
▁függetlenül	-10.0725
▁szerep	-10.0725
▁Görögország	-10.0726
▁alsó	-10.0727
▁eredménye	-10.0729
▁Simon	-10.0732
for	-10.0735
▁jegy	-10.0745
▁ettől	-10.0757
▁sí	-10.076
▁anya	-10.0762
űr	-10.0763
▁tökéletes	-10.0769
érték	-10.0769
▁szabadság	-10.077
▁gondol	-10.077
▁kormányzat	-10.0771
▁kapu	-10.0786
▁titkos	-10.0786
terv	-10.0786
mű	-10.0786
▁orvosi	-10.0788
▁vonat	-10.0789
▁elhunyt	-10.079
▁Ádám	-10.079
▁falu	-10.0791
▁üzem	-10.0791
mint	-10.0793
▁emellett	-10.0795
▁beszéd	-10.0795
▁kissé	-10.0797
▁mondták	-10.0802
zék	-10.0811
▁mester	-10.0817
▁diák	-10.082
▁von	-10.0823
▁sofőr	-10.0825
▁érkezik	-10.0828
▁alól	-10.0829
eiket	-10.083
▁pilóta	-10.0832
▁/	-10.0836
▁hívta	-10.0837
nyá	-10.0838
köz	-10.0847
É	-10.0849
▁dokumentum	-10.0849
▁végleges	-10.0855
▁részvétel	-10.0859
▁szülők	-10.086
mag	-10.086
▁Molnár	-10.0861
▁erősödött	-10.0861
▁szexuális	-10.0862
gat	-10.0864
tör	-10.0865
▁43	-10.0872
politikai	-10.0887
▁termékek	-10.0888
ítette	-10.0893
▁Hagyó	-10.0896
▁San	-10.0899
▁kialakult	-10.0899
▁vörös	-10.0906
▁magyarázta	-10.0906
▁polgári	-10.0908
▁2005-	-10.0915
▁kutató	-10.0916
▁oktatási	-10.0917
▁javaslatot	-10.092
16	-10.092
szint	-10.092
▁8-	-10.0922
szövetség	-10.0925
átor	-10.0932
▁sokáig	-10.0937
▁piros	-10.0937
▁iroda	-10.0948
▁mérkőzésen	-10.0951
▁46	-10.0954
▁használat	-10.0955
▁világos	-10.0956
▁Hu	-10.0956
▁egyház	-10.0957
▁értékű	-10.0958
után	-10.096
▁Man	-10.0964
▁Pi	-10.0965
▁tanár	-10.0967
har	-10.0969
▁Ön	-10.0972
end	-10.0975
▁meghatározó	-10.0976
▁drog	-10.0977
vétel	-10.0977
▁megerősítette	-10.0978
▁közleménye	-10.0978
▁szándék	-10.0984
▁stílus	-10.0984
ési	-10.0986
eivel	-10.0989
▁vád	-10.099
elni	-10.0992
▁sors	-10.0993
osok	-10.0995
▁Végül	-10.1005
▁munkanélküliség	-10.1016
▁gumi	-10.1018
▁Po	-10.1019
▁fenn	-10.103
esek	-10.1032
ster	-10.1033
▁benzin	-10.1037
▁hajlandó	-10.104
▁Robert	-10.1043
▁ka	-10.1046
▁mindenképpen	-10.1052
▁44	-10.1053
▁kanadai	-10.1055
választás	-10.1068
▁hvg	-10.1076
▁Kapuso	-10.1076
▁eredetileg	-10.1079
szik	-10.1081
rt	-10.1085
▁dolgozni	-10.1086
ította	-10.1091
▁napig	-10.1092
▁liter	-10.1092
▁vesztette	-10.1095
ásának	-10.1098
▁légi	-10.1098
▁évtized	-10.1103
hol	-10.1106
▁milliós	-10.1106
▁erősebb	-10.1108
▁To	-10.1111
▁amellye	-10.1112
▁világbajnoki	-10.1114
tá	-10.1115
▁egyesület	-10.1119
▁hasznos	-10.112
sze	-10.1127
▁sérülés	-10.1129
▁megsérült	-10.1135
▁elemzés	-10.1138
▁súly	-10.1142
▁tele	-10.1146
▁speciális	-10.1149
▁2-	-10.115
▁dr	-10.1159
▁ügyész	-10.1167
▁októberben	-10.1174
▁novemberben	-10.1179
▁képet	-10.1179
▁szén	-10.1181
▁részvények	-10.1183
▁hit	-10.1184
▁elektronikus	-10.1185
bajnokság	-10.1187
▁köt	-10.1195
▁Ve	-10.1199
ür	-10.1203
pénzügyminiszter	-10.1207
▁Kr	-10.1216
▁Per	-10.1216
▁igénybe	-10.1217
köt	-10.1217
ítja	-10.122
▁amire	-10.122
▁lak	-10.1235
ép	-10.1237
ain	-10.1242
▁időre	-10.1244
▁változat	-10.1251
▁vevő	-10.126
▁20-	-10.1264
▁hajnalban	-10.1269
▁záró	-10.127
ex	-10.1273
▁irány	-10.1276
▁várt	-10.1278
▁2006	-10.1278
▁Or	-10.1279
zár	-10.1279
▁fős	-10.1285
▁bajnokság	-10.1286
▁Négy	-10.1295
▁külügyminiszter	-10.1298
esz	-10.1299
▁nevezett	-10.1303
▁vásárlás	-10.1307
▁gyanú	-10.1307
▁augusztus	-10.1308
▁Milan	-10.1311
dy	-10.1312
hetjük	-10.1313
ké	-10.1315
▁Facebook	-10.1317
▁eredményei	-10.1318
▁tábor	-10.1321
▁Zs	-10.1321
▁tör	-10.1323
▁harc	-10.1331
▁elegendő	-10.1332
▁minket	-10.1332
▁Tisza	-10.1336
jt	-10.1337
▁10.	-10.1338
▁(19	-10.1347
osabb	-10.1353
▁mért	-10.1357
váltás	-10.1359
▁8.	-10.1366
▁forgalma	-10.1366
▁enged	-10.1375
▁kereslet	-10.138
▁töltött	-10.1383
▁tárgyalás	-10.1385
▁ver	-10.1386
▁szomszéd	-10.1397
jel	-10.1405
▁idegen	-10.1405
nyugdíjpénztár	-10.1407
▁keresztény	-10.141
▁klasszikus	-10.1411
▁vonal	-10.1415
▁mezőny	-10.1418
▁művész	-10.1421
▁magazin	-10.1422
ős	-10.1422
▁lehetnek	-10.1424
▁hatás	-10.1426
▁népszerű	-10.1436
▁eredményt	-10.1436
▁orvosok	-10.1439
▁magának	-10.1439
▁Gergely	-10.1444
▁címvédő	-10.1445
▁általa	-10.1445
tus	-10.1446
▁köztársasági	-10.1449
▁sztár	-10.1449
▁keleti	-10.1452
▁várják	-10.1455
▁üveg	-10.1458
ku	-10.146
▁meccset	-10.146
▁Központ	-10.1461
▁felel	-10.1461
▁képzés	-10.1464
▁vezérigazgató	-10.1467
▁vásárol	-10.1468
▁hamis	-10.1471
▁rekord	-10.1476
▁egymillió	-10.1478
hang	-10.1479
▁belvíz	-10.1481
▁Bajnokok	-10.1483
▁gondolom	-10.1487
▁Debrecen	-10.1487
ff	-10.1488
▁jel	-10.1493
▁szakszervezet	-10.1495
und	-10.1495
mentes	-10.1498
▁házasság	-10.1503
tart	-10.1506
Á	-10.1512
▁kölcsön	-10.1515
▁csinál	-10.1516
▁globális	-10.1519
▁győzött	-10.1519
mann	-10.1523
▁felvétel	-10.1527
▁centiméter	-10.1535
▁költség	-10.1535
abban	-10.1535
▁panasz	-10.1535
hatjuk	-10.1537
▁utazás	-10.1542
isz	-10.1548
▁menetrend	-10.1558
▁Bull	-10.1559
▁Nap	-10.156
▁élmény	-10.156
▁foglalkozik	-10.1563
▁vállal	-10.1563
▁tudás	-10.1565
▁szakértői	-10.1566
▁Ferrari	-10.157
den	-10.158
▁korszak	-10.1581
▁nyári	-10.1588
▁Ga	-10.1596
▁Talán	-10.1597
▁úr	-10.1597
▁közvetlenül	-10.1599
▁fogalmaz	-10.16
▁közölték	-10.16
▁16-	-10.1602
▁KN	-10.1604
▁Bor	-10.1608
▁gyanúja	-10.1611
▁IMF	-10.1612
▁export	-10.1614
tartás	-10.1624
fe	-10.1625
▁hirtelen	-10.1633
▁ügyvezető	-10.1633
pal	-10.1634
új	-10.1636
▁Martin	-10.1636
▁nyugdíjrendszer	-10.1639
▁Múzeum	-10.1642
▁Lehet	-10.1642
ésre	-10.1644
▁közlése	-10.1647
▁sportoló	-10.1647
vonal	-10.1649
▁halott	-10.1652
▁értéke	-10.1655
▁reggeli	-10.1663
▁Pro	-10.167
▁hónappal	-10.1673
ították	-10.1674
▁öreg	-10.1681
▁2002-	-10.1684
▁száj	-10.1685
▁Alap	-10.1686
▁tartották	-10.1689
lad	-10.1689
gi	-10.1698
▁televízió	-10.1698
▁típus	-10.1699
miért	-10.1701
▁Lázár	-10.171
ers	-10.1711
▁kapcsolódó	-10.1713
▁tulajdonosa	-10.1714
▁Balaton	-10.1714
▁Szeged	-10.172
25	-10.1722
▁országot	-10.1722
▁tenger	-10.1732
ec	-10.1733
▁érdek	-10.1733
▁fi	-10.1739
▁közülük	-10.174
▁rájuk	-10.1743
víz	-10.1746
▁metró	-10.1749
▁törvényjavaslat	-10.1749
állás	-10.1754
▁aligha	-10.1756
▁segély	-10.1756
▁rivális	-10.1758
▁ko	-10.1763
▁kelt	-10.1765
éz	-10.1766
▁kapcsolatot	-10.1771
mor	-10.1781
▁olvasó	-10.1788
▁3-	-10.1789
dr	-10.179
▁gyilkosság	-10.1794
▁okozhat	-10.1803
▁meglepetés	-10.1803
▁vizsgálatot	-10.1805
bal	-10.1814
▁amiben	-10.1816
nd	-10.1816
álás	-10.1818
▁területi	-10.1825
▁Ku	-10.1825
▁65	-10.1827
▁Németországban	-10.1828
▁ellentétben	-10.1831
▁mondjuk	-10.1831
▁csillag	-10.1836
▁Paul	-10.1838
▁tartalmazó	-10.1839
ón	-10.1846
▁infláció	-10.1848
▁tartalmaz	-10.1848
▁méteres	-10.185
kodás	-10.1851
jukat	-10.1852
▁tudunk	-10.1853
▁alelnöke	-10.1857
vég	-10.1858
ekhez	-10.1865
▁BMW	-10.1865
▁onnan	-10.1865
▁Bokros	-10.1865
▁Olyan	-10.1868
▁készültség	-10.1869
▁Chelsea	-10.1869
▁Arsenal	-10.1869
▁fizetés	-10.1875
knek	-10.1879
▁hi	-10.1885
▁szoftver	-10.1894
▁No	-10.1897
▁tegnap	-10.1897
▁mindenkinek	-10.1899
üt	-10.19
▁szűk	-10.1913
▁esik	-10.1913
▁címet	-10.192
▁szolgáltató	-10.192
▁várnak	-10.1921
▁Irán	-10.1924
▁templom	-10.1925
▁februárban	-10.1926
sági	-10.1928
▁biztonság	-10.1931
▁vezetők	-10.1931
építés	-10.1932
iai	-10.1935
▁Mit	-10.1937
▁ajándék	-10.1944
Nem	-10.1949
▁konzervatív	-10.1951
▁Tr	-10.1966
▁nevet	-10.1972
▁legjobban	-10.1973
▁forinton	-10.1974
aival	-10.1975
▁Állami	-10.1979
▁Gordon	-10.1983
▁végső	-10.1984
▁Katalin	-10.1984
▁szerepe	-10.1987
▁12-	-10.1987
▁kezdve	-10.1992
▁önkormányzatok	-10.1992
kin	-10.1996
▁felelősség	-10.1998
▁éjszaka	-10.2005
▁dolgoznak	-10.2007
▁olvas	-10.2009
▁esély	-10.201
▁menni	-10.2011
piac	-10.2016
▁197	-10.2023
▁rak	-10.2033
▁31-	-10.2036
▁közzétett	-10.2038
▁Washington	-10.2038
▁negyedévben	-10.204
▁ős	-10.2045
▁zár	-10.2049
▁kommunikációs	-10.2053
▁koncert	-10.2057
▁tagok	-10.2058
!"	-10.2063
▁katolikus	-10.2063
▁Ágnes	-10.2063
▁szabály	-10.2064
▁tartalék	-10.2064
▁75	-10.2068
▁villamos	-10.2069
dő	-10.2075
▁hírügynökség	-10.2076
csap	-10.2077
ass	-10.2085
▁szavazat	-10.2087
▁tár	-10.2088
vagy	-10.2088
▁problémát	-10.2091
▁Természetesen	-10.2103
ium	-10.2104
▁Audi	-10.2106
tu	-10.211
▁hozza	-10.2117
▁unió	-10.212
▁zene	-10.2122
sy	-10.2123
ódott	-10.2124
▁ellenfele	-10.2124
▁1,5	-10.2125
▁űr	-10.2125
▁fölé	-10.2129
▁frakció	-10.213
▁vezeti	-10.2133
▁250	-10.2133
mon	-10.2134
▁létszám	-10.2139
▁pl	-10.2141
▁híd	-10.2142
▁bűncselekmények	-10.2142
▁Za	-10.2143
▁James	-10.2143
német	-10.2145
▁vág	-10.2145
▁valamelyik	-10.2146
▁feljelentést	-10.2147
▁hozni	-10.215
▁lista	-10.2155
▁szellemi	-10.2162
ván	-10.2162
▁különös	-10.2163
▁49	-10.2167
rány	-10.2168
lát	-10.2171
▁elv	-10.2173
írás	-10.2176
▁számítógép	-10.218
▁adták	-10.2182
eknél	-10.2184
bu	-10.219
▁portugál	-10.2192
▁Ni	-10.2193
▁beszélni	-10.2193
▁áram	-10.2194
▁teremt	-10.2196
▁z	-10.2196
▁épül	-10.2198
▁források	-10.2199
Ez	-10.2201
▁tisztelet	-10.2207
▁legutóbb	-10.2211
▁amelyik	-10.2217
▁Korábban	-10.2224
▁elsődleges	-10.2224
▁Borsod	-10.2225
▁távú	-10.2227
▁felében	-10.223
▁Nincs	-10.223
▁héttel	-10.224
vény	-10.2242
▁tervezet	-10.2247
▁bi	-10.2248
▁tétel	-10.2248
▁védekezés	-10.2253
min	-10.2255
▁asztal	-10.2259
▁okozó	-10.226
ong	-10.226
▁Emellett	-10.2265
▁radikális	-10.2265
▁elektromos	-10.2265
▁47	-10.2267
▁betegek	-10.2272
elme	-10.2272
▁Anna	-10.2276
élet	-10.2277
▁naponta	-10.2278
▁visszaesés	-10.2281
▁Angeles	-10.2289
▁du	-10.2296
ion	-10.2299
▁nyúl	-10.2299
▁ipar	-10.2299
▁Du	-10.2301
▁programok	-10.2301
▁szuper	-10.2302
ruhá	-10.2307
▁Da	-10.2308
lak	-10.2312
▁jelenség	-10.2313
▁tárgy	-10.2314
▁600	-10.2314
60	-10.2315
▁Év	-10.2316
csa	-10.2317
▁magánnyugdíj	-10.2317
▁technikai	-10.2319
tiszt	-10.2324
▁rendelkezésre	-10.2325
zavar	-10.2326
gen	-10.2331
▁kerülnek	-10.2332
▁számító	-10.2334
▁nyilvános	-10.2336
▁későbbi	-10.234
▁sáv	-10.2344
▁bármilyen	-10.2347
▁helyezett	-10.2348
▁mínusz	-10.2349
ány	-10.235
▁Isten	-10.2351
▁52	-10.2354
▁érzi	-10.2354
▁hagyta	-10.2356
lm	-10.2357
▁15.	-10.2358
▁Jan	-10.236
kov	-10.2367
han	-10.2369
▁Su	-10.237
tál	-10.2375
védelem	-10.2376
▁Éva	-10.2379
▁kamion	-10.2388
▁Független	-10.2388
▁bűn	-10.2388
▁0-0	-10.2388
▁hozzátéve	-10.2389
▁végző	-10.2391
▁pillanat	-10.2393
▁akarják	-10.2402
dor	-10.2402
▁Blikk	-10.2402
áll	-10.2402
▁2004-	-10.2407
lé	-10.2408
▁zavar	-10.2409
rk	-10.2409
▁rendőrségi	-10.241
KDNP	-10.2416
▁Ahogy	-10.2417
▁hallgat	-10.2418
▁Kor	-10.2425
válogatott	-10.2433
▁értesült	-10.2434
oldal	-10.2437
▁vállalatok	-10.244
▁Vasas	-10.244
▁vírus	-10.2444
ow	-10.2447
▁fordulóban	-10.2448
▁tárgyalások	-10.2448
▁ismer	-10.2454
▁ágy	-10.2456
get	-10.2469
cc	-10.247
▁bruttó	-10.247
▁sosem	-10.2472
éves	-10.2475
▁lakó	-10.2479
▁demokratikus	-10.248
tető	-10.2487
▁tulajdon	-10.2489
▁alapvető	-10.2489
▁lényeg	-10.2491
▁örök	-10.2499
határ	-10.2502
ságát	-10.2503
▁reagált	-10.2504
▁lakossági	-10.2504
ens	-10.2505
▁találta	-10.2505
▁tervez	-10.251
▁vörösiszap	-10.2512
▁választók	-10.2516
▁produkció	-10.252
▁csoda	-10.252
▁kiadott	-10.2522
▁tan	-10.2523
▁Men	-10.2524
kedés	-10.2539
▁56	-10.2546
vásárlás	-10.2553
▁komolyan	-10.2555
telep	-10.2558
▁MNB	-10.256
▁Napi	-10.2562
tív	-10.2562
fizetés	-10.2565
▁módosító	-10.2567
▁mell	-10.2568
sék	-10.2573
▁hamar	-10.2579
▁többiek	-10.2579
▁Vagy	-10.258
▁fordított	-10.2581
▁hő	-10.2583
▁11.	-10.2585
ipari	-10.2586
zal	-10.2589
▁sör	-10.2591
jében	-10.2591
▁bírság	-10.2594
▁ál	-10.2596
▁elnöki	-10.2597
▁gazdaságpolitik	-10.2602
▁jobboldali	-10.2603
▁fizetett	-10.2607
▁konfliktus	-10.2608
▁kislány	-10.261
▁elégedett	-10.2615
óval	-10.2623
▁lehetősége	-10.2629
▁lövés	-10.263
▁17.	-10.263
▁felkészülés	-10.2631
▁számukra	-10.2639
▁előny	-10.2639
lapvetően	-10.2639
▁vasúti	-10.264
▁valós	-10.2647
pe	-10.2654
▁kedvenc	-10.2654
▁ügyek	-10.2655
▁lapnak	-10.2655
▁ágazat	-10.2656
don	-10.2656
▁közzé	-10.2665
ezte	-10.2665
▁park	-10.267
három	-10.267
▁19.	-10.267
▁Ft	-10.2674
▁eszközök	-10.2675
▁53	-10.2679
▁Árpád	-10.268
▁elképzelhető	-10.2683
▁rendszerváltás	-10.2683
▁Hi	-10.2688
▁társ	-10.2691
▁13.	-10.2705
▁csap	-10.2718
▁ül	-10.2723
▁munkáját	-10.2725
▁kiadó	-10.2728
ád	-10.2729
▁módosítás	-10.2731
▁török	-10.2732
9-	-10.2732
szék	-10.2736
▁2008.	-10.2738
olja	-10.2739
▁sportág	-10.274
▁veszély	-10.2745
▁csapadék	-10.2755
▁1-1	-10.2756
hetünk	-10.2759
ács	-10.2759
nyom	-10.276
gyár	-10.2762
▁követte	-10.2765
▁nettó	-10.2766
▁étel	-10.2769
les	-10.277
tani	-10.2771
▁szerintem	-10.2771
▁nála	-10.2775
▁In	-10.2777
▁nyomás	-10.2785
▁méltó	-10.2786
▁befektetési	-10.2787
▁egyetemi	-10.2794
▁egyedi	-10.2794
▁vizsgálatok	-10.2797
▁edzés	-10.2797
cím	-10.28
kiknek	-10.2802
▁folytatódik	-10.2812
▁irányító	-10.2816
▁Gar	-10.2818
▁adnak	-10.2822
álni	-10.2826
▁eltérő	-10.2831
▁mozi	-10.2832
▁élni	-10.2833
▁izgalmas	-10.2833
▁Szi	-10.2837
▁épít	-10.2841
▁helyzetbe	-10.2843
▁összecsapás	-10.2848
▁part	-10.2849
▁hatalm	-10.2849
▁aktuális	-10.2852
▁pécsi	-10.2852
▁furcsa	-10.2852
▁megoldást	-10.2853
döntő	-10.2853
▁tol	-10.2855
▁alapítvány	-10.2856
▁vizsgálja	-10.2859
▁befolyás	-10.2861
▁emelte	-10.2862
▁ugyanaz	-10.2864
ony	-10.2868
▁szolgáltatások	-10.2874
▁Fa	-10.2879
▁minőség	-10.2881
▁tiszta	-10.2883
erő	-10.2888
▁Ab	-10.2889
ier	-10.289
▁régóta	-10.2895
▁segíteni	-10.2895
▁címmel	-10.2896
▁hatodik	-10.2897
▁vas	-10.2898
▁játszani	-10.2904
▁kabinet	-10.2905
ris	-10.2906
▁utalt	-10.2911
▁9.	-10.2915
▁vezérigazgatója	-10.2924
áját	-10.2927
▁gyengült	-10.293
cég	-10.2932
▁többnyire	-10.2939
▁szembe	-10.2939
▁mennyiségű	-10.2941
pár	-10.2942
▁állatok	-10.2942
▁Közép	-10.2943
▁vajon	-10.2946
▁fénykép	-10.2952
lt	-10.2955
▁tapasztalt	-10.2959
▁visszatér	-10.2962
▁hektár	-10.297
lés	-10.2973
▁Á	-10.2974
▁stb	-10.2984
▁történtek	-10.2987
▁érinti	-10.2994
ind	-10.2995
▁Mal	-10.3001
▁kínál	-10.3001
eink	-10.3002
▁használni	-10.3008
▁kereset	-10.3016
tájékoztatóján	-10.3021
▁színház	-10.3022
▁December	-10.3026
▁Velvet	-10.3026
▁fagy	-10.3027
▁18-	-10.3028
▁számítanak	-10.3028
▁pi	-10.3031
▁védelem	-10.3034
▁NB	-10.3034
sággal	-10.3035
▁Azért	-10.3035
▁szállították	-10.3036
▁forintért	-10.3041
▁küldött	-10.3041
▁felügyelet	-10.3045
▁gomb	-10.3047
▁harmad	-10.3061
hálózat	-10.3061
▁kicsi	-10.3064
▁tört	-10.3066
▁véletlen	-10.3067
▁szerkezet	-10.3068
▁feltétlenül	-10.307
▁igazgatóság	-10.3071
▁Peter	-10.3077
▁alkalmaz	-10.3078
▁szezonban	-10.3089
▁vereség	-10.309
form	-10.3093
▁költő	-10.3093
▁diákok	-10.3094
▁élnek	-10.3094
70	-10.3094
▁kiló	-10.3096
▁szent	-10.3098
▁védelmi	-10.3102
▁csinálni	-10.3103
▁sértett	-10.3108
▁ingyenes	-10.3112
▁ahogyan	-10.3112
▁feladata	-10.3114
▁WikiLeaks	-10.3114
▁létezik	-10.3114
▁Míg	-10.3116
▁APEH	-10.3118
▁Wi	-10.312
▁54	-10.3123
▁katonák	-10.3124
▁barát	-10.3126
vári	-10.3126
▁12.	-10.313
▁idősebb	-10.3132
▁51	-10.3132
▁divat	-10.3142
▁könnyebb	-10.3142
spanyol	-10.3145
▁színes	-10.3149
▁WA	-10.3156
▁Eddig	-10.3159
▁kiadás	-10.3161
ály	-10.3169
▁járulék	-10.3171
jához	-10.3175
▁bír	-10.3176
▁szintű	-10.3182
▁194	-10.319
▁j	-10.3194
▁interneten	-10.3195
▁börtön	-10.3197
▁kényszer	-10.3198
▁egységes	-10.3198
▁téma	-10.3203
▁RTL	-10.3203
▁fogva	-10.3211
tató	-10.3215
képpen	-10.3217
tett	-10.3219
▁átalakítás	-10.3219
▁méret	-10.322
40	-10.3221
▁ablak	-10.3225
▁tartós	-10.323
▁államadósság	-10.3236
▁végi	-10.3238
sh	-10.3241
óta	-10.3243
történet	-10.3249
▁tudtam	-10.3249
jünk	-10.325
▁valóság	-10.3251
▁szegedi	-10.3252
▁ellenfél	-10.3253
cal	-10.3255
▁tekintve	-10.3257
▁kereskedés	-10.3257
▁hatással	-10.3258
▁Miért	-10.326
ey	-10.326
▁képvisel	-10.3263
▁véleményét	-10.3264
her	-10.3268
áló	-10.3268
odott	-10.3268
▁zárta	-10.3278
▁jelenet	-10.3281
▁fül	-10.3282
áb	-10.3282
▁fórum	-10.3282
tették	-10.3287
▁énekes	-10.3287
▁jelentett	-10.3291
▁Mind	-10.3292
▁legfrissebb	-10.3293
▁kék	-10.3295
▁mielőtt	-10.3296
▁tekintettel	-10.3296
▁fogad	-10.3296
▁használ	-10.3297
chi	-10.3299
▁biztonságos	-10.33
▁kihívás	-10.3301
▁mutatják	-10.3301
▁the	-10.3306
pó	-10.3307
▁vad	-10.3307
▁jutottak	-10.3315
▁Her	-10.332
▁Fő	-10.3321
▁Ö	-10.3325
▁szab	-10.3327
▁készülő	-10.333
▁fut	-10.3336
▁adják	-10.3337
▁tavasszal	-10.3339
▁ütközött	-10.3346
edett	-10.3346
▁funkció	-10.3347
dzs	-10.3347
bl	-10.3353
▁sebesség	-10.3353
ves	-10.3353
▁20.	-10.3355
▁vezér	-10.3355
gondol	-10.3357
▁örül	-10.3359
barát	-10.3363
ín	-10.3363
▁ajánlott	-10.3363
▁személyiség	-10.3363
sport	-10.3372
▁információi	-10.3372
▁fék	-10.3373
▁hónapja	-10.3376
▁Ger	-10.3376
pel	-10.338
lét	-10.3385
▁követi	-10.3386
▁cigány	-10.3387
▁szeretnénk	-10.3387
▁Renault	-10.3388
▁16.	-10.339
▁felújítás	-10.3395
▁tető	-10.3396
▁terjed	-10.3397
ros	-10.3401
▁kárt	-10.3402
▁programja	-10.3402
▁Színház	-10.3404
díjat	-10.3405
▁21.	-10.3413
▁csapatot	-10.3413
▁2011.	-10.3414
▁57	-10.3416
okba	-10.3418
▁Andrea	-10.3418
▁Kon	-10.3424
▁félre	-10.3425
▁tölt	-10.3427
politik	-10.3427
ju	-10.3431
▁koncentrál	-10.3431
▁helyén	-10.3433
▁tízezer	-10.3433
▁várakozás	-10.3435
="	-10.3438
▁szülés	-10.3441
▁halad	-10.3442
av	-10.3443
▁indiai	-10.3444
▁emlékeztet	-10.3446
▁mondat	-10.3448
▁részvény	-10.3449
▁állomás	-10.3449
▁kormányzás	-10.345
▁ügyfelek	-10.3451
▁szervez	-10.3451
fok	-10.3456
lem	-10.3458
elmi	-10.3458
▁helyét	-10.346
▁hatása	-10.3464
nagy	-10.3464
▁rosszabb	-10.3464
▁járat	-10.3465
pol	-10.3466
▁délutáni	-10.347
aink	-10.3473
▁környezetvédelm	-10.3474
▁szovjet	-10.3476
▁ügyfél	-10.3476
▁Hát	-10.3478
▁részletes	-10.3478
▁órás	-10.3478
edés	-10.3483
▁vállalkozó	-10.3484
▁Ju	-10.3484
▁énekesnő	-10.3485
▁mentők	-10.3487
▁foci	-10.349
▁szokásos	-10.349
▁...	-10.3495
ken	-10.3496
▁szünet	-10.3497
országi	-10.3497
▁szereplők	-10.3498
▁gát	-10.3499
ődött	-10.3502
▁baloldali	-10.3502
▁kilométeres	-10.3503
▁25-	-10.3504
▁9-	-10.3504
▁sejt	-10.3507
▁ta	-10.3508
gr	-10.3508
▁képek	-10.3508
▁tudomány	-10.3514
▁minimális	-10.3522
▁Ekkor	-10.3522
niük	-10.3522
▁szeptemberben	-10.3525
▁kockázat	-10.3528
▁hiszem	-10.3529
▁1,3	-10.3529
▁életben	-10.3536
▁önkéntes	-10.3538
▁nyerni	-10.3538
▁kerület	-10.3541
▁réteg	-10.3543
mos	-10.3546
▁életbe	-10.3549
▁embernek	-10.3552
párt	-10.3559
ezni	-10.3562
▁határozott	-10.3562
koz	-10.3565
▁mentő	-10.3567
▁MTV	-10.3571
▁óriás	-10.3571
▁szervezett	-10.3572
▁következik	-10.3573
▁Ér	-10.3578
ej	-10.358
▁bázis	-10.3588
▁áldozatok	-10.3593
▁tartozás	-10.3595
):	-10.3601
▁szigorú	-10.3601
▁beavatkozás	-10.3605
▁folytatta	-10.361
▁súlyosan	-10.361
▁Park	-10.3611
▁Hír	-10.3614
▁külföldön	-10.3615
▁feltételek	-10.3615
▁Sajnos	-10.3617
▁szegény	-10.3617
▁elkövető	-10.3623
▁magunk	-10.3628
▁személyek	-10.3632
▁szervezők	-10.3638
▁kiemelte	-10.3639
ski	-10.3642
▁szektor	-10.3643
▁világon	-10.3645
osztály	-10.365
▁Honvéd	-10.3651
▁literes	-10.3652
▁Király	-10.3653
kori	-10.3655
▁törvények	-10.3656
▁mindez	-10.3657
▁választott	-10.3658
▁letartóztatás	-10.3664
▁kiemelkedő	-10.3665
▁mo	-10.3668
milliárd	-10.3668
▁kezdő	-10.3671
▁szolgáló	-10.3671
▁küzd	-10.3678
▁otthonában	-10.368
all	-10.3681
▁Ó	-10.3682
▁gyermekek	-10.3683
▁Bayern	-10.369
▁lehetőségét	-10.3691
▁gépkocsi	-10.3691
▁robbanás	-10.3695
▁máris	-10.3698
▁szabadon	-10.3699
zz	-10.37
▁árul	-10.37
▁példá	-10.3702
▁órán	-10.3704
▁Öt	-10.3704
▁keletkezett	-10.3708
▁Idén	-10.3708
▁Vettel	-10.3708
▁kifejezés	-10.3709
vin	-10.3712
uc	-10.3717
ényi	-10.3718
▁növekedést	-10.372
▁er	-10.3729
sák	-10.3732
▁lemez	-10.3732
▁beszélgetés	-10.374
▁folytatás	-10.3744
▁illegális	-10.3744
▁bizonyult	-10.3752
▁zajló	-10.3756
▁elmarad	-10.3757
▁autós	-10.3757
▁futó	-10.3758
▁használják	-10.3759
ég	-10.3766
▁hagyomány	-10.3773
▁London	-10.3773
pad	-10.3776
▁településen	-10.3776
we	-10.3777
▁ügyet	-10.3786
wa	-10.3786
▁honlap	-10.3788
tetés	-10.3789
▁üres	-10.379
▁íz	-10.379
▁nyilvánosság	-10.3793
▁bírósági	-10.3798
ipar	-10.38
▁választásokon	-10.38
▁Igazgatóság	-10.3803
▁karakter	-10.3803
dó	-10.3804
▁hónapos	-10.3805
▁meghatározott	-10.3805
anak	-10.3807
▁másrészt	-10.3807
▁veszik	-10.3809
▁megbízott	-10.3811
atos	-10.3813
▁(3	-10.3814
má	-10.3815
hát	-10.3815
éig	-10.3821
▁kéne	-10.3822
▁események	-10.3822
ottak	-10.3824
▁kénytelen	-10.3825
▁járnak	-10.3826
▁napot	-10.383
▁versenyt	-10.3835
▁Ott	-10.3836
ung	-10.384
▁értek	-10.384
▁repülőgép	-10.3841
▁Tom	-10.3843
▁játszó	-10.3846
▁ezelőtti	-10.3846
▁száll	-10.3846
▁működését	-10.3849
▁Klub	-10.385
▁Liga	-10.3852
▁120	-10.3857
▁1:	-10.3858
▁egyike	-10.3864
▁17-	-10.3866
▁Ford	-10.3868
▁nézni	-10.3868
▁Ferencváros	-10.3868
▁Köz	-10.387
▁remény	-10.3871
▁akad	-10.3872
▁bizonytalan	-10.3872
park	-10.3877
íz	-10.3877
▁tehet	-10.3878
▁kínálat	-10.3879
szent	-10.3879
▁kórházban	-10.388
▁látványos	-10.3887
▁döntöttek	-10.3888
▁liberális	-10.389
▁kulcs	-10.3891
föld	-10.3892
▁emelt	-10.3893
▁üzenet	-10.3894
rd	-10.3896
▁hatvan	-10.3897
▁BUX	-10.3898
▁Egyelőre	-10.3898
▁Si	-10.3899
▁perccel	-10.3899
▁Sőt	-10.39
▁pártelnök	-10.39
▁amilyen	-10.3904
▁Cor	-10.3908
▁1,2	-10.3911
▁tényező	-10.3916
▁isten	-10.3916
tro	-10.3916
vas	-10.3917
▁illetően	-10.3917
▁pontra	-10.3919
▁Volt	-10.392
tatta	-10.3922
▁21-	-10.3924
város	-10.3925
▁önálló	-10.3925
▁játékosa	-10.3932
▁éri	-10.3932
nya	-10.3932
▁Miskolc	-10.3936
mérkőzés	-10.3941
▁utasok	-10.3943
▁22-	-10.3943
▁Fehér	-10.3943
▁össz	-10.3944
kodó	-10.3944
▁római	-10.3946
fér	-10.3947
éd	-10.3948
▁magára	-10.395
▁megfelel	-10.3952
biztosítási	-10.3956
▁tr	-10.3959
▁KDNP	-10.3961
▁számát	-10.3966
▁196	-10.3969
ségi	-10.3974
▁tartomány	-10.3976
▁64	-10.3976
▁hasonlít	-10.3977
rom	-10.3977
▁kormánynak	-10.3984
▁ee	-10.3988
▁hiteles	-10.399
ól	-10.3993
▁gépjármű	-10.3994
▁pozíció	-10.3994
▁Utóbbi	-10.3995
▁illeti	-10.3997
▁kritikus	-10.3999
▁döntése	-10.4008
▁fém	-10.4008
▁vi	-10.4009
▁tapasztalat	-10.4009
jei	-10.4013
olták	-10.4017
▁működés	-10.4021
▁telep	-10.4024
▁vehet	-10.4027
▁utcán	-10.4028
pénz	-10.4036
jától	-10.4037
▁állít	-10.4042
▁Televízió	-10.4043
▁demokrácia	-10.4043
▁Először	-10.4043
▁ro	-10.4045
▁olimpia	-10.4045
▁várni	-10.4047
▁foglal	-10.405
▁műtét	-10.4055
▁torna	-10.4056
▁erdő	-10.406
▁repülő	-10.4062
▁folytatja	-10.4065
gar	-10.4071
▁2000	-10.4073
▁Pan	-10.4075
▁bizony	-10.4075
jére	-10.4075
ama	-10.4078
hiány	-10.4088
▁eredményes	-10.409
▁államok	-10.4091
▁bő	-10.4094
▁amerikaiak	-10.4096
▁Mindez	-10.4096
▁kutya	-10.4099
ésének	-10.4104
zza	-10.4108
▁visszaélés	-10.4113
▁véd	-10.4118
▁tej	-10.412
▁fordulat	-10.4122
▁fér	-10.4122
▁páros	-10.4123
▁kereszt	-10.4124
ert	-10.4125
▁programot	-10.4126
▁nyilatkozat	-10.4129
té	-10.4135
▁vezetést	-10.4139
▁Hajdú	-10.4141
▁Farkas	-10.4141
▁szeretnének	-10.4143
▁deficit	-10.4144
▁trend	-10.4145
▁elmaradt	-10.4146
▁hazaiak	-10.4146
▁hiánya	-10.4148
▁Ver	-10.4148
▁fe	-10.415
nov	-10.4152
▁zseb	-10.4152
▁lóerős	-10.4154
▁mindegyik	-10.4157
▁háttér	-10.4159
▁Leg	-10.4166
▁repülőtér	-10.4168
▁kívánja	-10.4171
▁nyak	-10.4175
▁fiatalember	-10.4179
▁veszteség	-10.418
▁teher	-10.4181
▁Ol	-10.4185
emet	-10.4188
▁Krisztián	-10.419
▁Y	-10.4191
▁különféle	-10.4192
▁fokozatosan	-10.4193
▁foglalkoztatás	-10.4195
▁férje	-10.4199
▁közelebb	-10.4201
tatni	-10.4207
enként	-10.4211
▁finom	-10.4212
▁Parlament	-10.4213
▁kert	-10.4216
▁lehetetlen	-10.4224
▁közigazgatási	-10.4226
▁mer	-10.4226
▁elemző	-10.4227
?"	-10.4228
▁körbe	-10.4229
lá	-10.423
▁áron	-10.4235
▁káros	-10.4235
▁fenti	-10.424
▁Később	-10.424
▁Vasárnap	-10.424
▁igyekszik	-10.424
▁származású	-10.4241
fehér	-10.4241
▁Sp	-10.4242
▁köbméter	-10.4245
▁kétharmados	-10.4246
▁hozták	-10.4247
vo	-10.4248
▁alaposan	-10.425
▁fontosabb	-10.4254
old	-10.4258
▁megvan	-10.4264
35	-10.4264
▁Williams	-10.4266
▁kibocsátás	-10.4269
igaz	-10.4272
▁egyeztetés	-10.4272
▁ny	-10.4272
kutatás	-10.4273
edik	-10.4282
▁pro	-10.4288
▁Alapítvány	-10.4289
▁emlékeztetett	-10.4293
▁rendszerben	-10.4294
▁1,4	-10.4296
▁kaphat	-10.4296
▁Hol	-10.4296
▁hölgy	-10.4296
▁kívüli	-10.4297
▁800	-10.4299
▁csalás	-10.4299
▁u	-10.4301
óra	-10.4305
▁kifejtette	-10.4305
▁Ker	-10.4306
▁virág	-10.4309
▁vég	-10.4311
ula	-10.4311
▁alul	-10.4312
▁kereső	-10.4314
▁bolt	-10.4315
▁találni	-10.4315
▁Lo	-10.4319
ország	-10.4324
▁58	-10.4324
▁példány	-10.4325
▁kedv	-10.4328
▁olcsóbb	-10.433
▁14.	-10.4332
▁helye	-10.4333
▁eltűnt	-10.4334
▁esetek	-10.4336
▁nyilvánvaló	-10.4339
▁tonna	-10.4339
▁katona	-10.4341
▁lettek	-10.4343
▁mar	-10.4351
jött	-10.4352
▁Ár	-10.4354
▁fejlesztési	-10.4354
▁jelzés	-10.4356
aikat	-10.4357
kát	-10.4372
▁szemét	-10.4374
▁faj	-10.4375
por	-10.4381
▁tanácsadó	-10.4382
▁mérkőzést	-10.4383
▁had	-10.4383
▁változások	-10.4385
▁forintba	-10.4386
▁szeret	-10.4389
▁mozog	-10.439
▁Köztársaság	-10.439
▁Balogh	-10.4391
kap	-10.4394
▁mértékű	-10.4394
▁2,5	-10.44
▁élők	-10.4403
▁23-	-10.4404
▁tesznek	-10.4406
lek	-10.4408
▁labdát	-10.4408
▁elképzelés	-10.441
▁Ők	-10.4411
oc	-10.4415
▁küld	-10.4415
▁felhasználó	-10.4416
▁vizet	-10.4417
and	-10.4417
gő	-10.4418
▁szerezni	-10.4418
▁Kelet	-10.4419
▁fegyveres	-10.4422
fű	-10.443
▁értékben	-10.4431
Ö	-10.4436
▁talaj	-10.444
▁Ákos	-10.444
▁Dob	-10.4442
▁normális	-10.4446
▁látják	-10.4448
▁kapcsolatok	-10.4448
▁feltehetően	-10.4448
tétel	-10.4449
▁terén	-10.4449
▁nyomozást	-10.4452
▁tavaszi	-10.4453
▁felület	-10.4454
▁elkezd	-10.4455
haj	-10.4455
▁követ	-10.4455
▁benyújtott	-10.4458
▁kerülő	-10.4462
▁3,5	-10.4462
▁megtakarítás	-10.4463
▁Ebből	-10.4463
▁interjú	-10.4468
▁Gi	-10.4468
▁követel	-10.4469
▁helyes	-10.4481
▁választáson	-10.4483
zta	-10.4484
▁munkáltató	-10.4484
táv	-10.4485
társ	-10.4495
▁norvég	-10.4498
▁19-	-10.4499
▁többlet	-10.45
▁ígéret	-10.4502
24	-10.4502
▁szerzője	-10.4503
▁idény	-10.4508
▁kérdésére	-10.4509
▁rablás	-10.4509
▁kategóriában	-10.4511
nánk	-10.4513
▁nehezebb	-10.4518
▁úgyhogy	-10.4519
▁elért	-10.4519
ston	-10.452
akkal	-10.452
▁légitársaság	-10.4522
csomag	-10.4522
erős	-10.4523
ányi	-10.4524
▁korai	-10.4524
▁További	-10.4531
▁tárgyal	-10.4532
▁problémái	-10.4533
▁Pe	-10.4533
las	-10.4534
kész	-10.4536
▁Bel	-10.4537
▁hív	-10.454
▁NATO	-10.4542
▁személyesen	-10.4543
▁érvényben	-10.4543
▁magával	-10.4545
▁Újpest	-10.455
▁bu	-10.4563
▁előtte	-10.4576
ine	-10.4577
változás	-10.4577
▁lányok	-10.458
▁Ny	-10.4584
▁felirat	-10.4586
szal	-10.4588
honnan	-10.4591
▁határon	-10.4591
▁helyszínre	-10.4592
▁lehessen	-10.4594
▁szokatlan	-10.4596
▁biztosítani	-10.4601
órás	-10.4602
▁fedez	-10.4605
▁felhasználók	-10.4605
▁fejezte	-10.4607
▁En	-10.4607
▁zenekar	-10.4607
jú	-10.4608
▁idézte	-10.461
▁szokás	-10.4614
bár	-10.4614
▁fesztivál	-10.4616
▁társai	-10.4625
ések	-10.4629
▁Roma	-10.4631
▁segítség	-10.4633
▁könyvet	-10.4635
▁kultúr	-10.4642
up	-10.4643
▁levél	-10.4643
▁kellő	-10.4644
▁kezdődő	-10.4645
▁világszerte	-10.4646
▁amint	-10.4647
▁hátrány	-10.4648
▁rendben	-10.4653
itás	-10.4656
óban	-10.4656
▁nyereség	-10.4658
▁állítás	-10.466
29	-10.4662
▁utcában	-10.4666
▁dob	-10.4669
helyzet	-10.4669
▁csökkenés	-10.4671
▁interjúban	-10.4675
▁jelek	-10.4676
▁szervek	-10.4677
▁vegyes	-10.4682
▁részlet	-10.4683
▁erők	-10.4688
▁hall	-10.4691
▁akadály	-10.4693
▁13-	-10.4694
▁München	-10.4697
▁párizsi	-10.4697
▁megszokott	-10.4697
▁innen	-10.4697
▁dísz	-10.47
▁sikerrel	-10.4702
ova	-10.4702
▁őr	-10.4702
▁Kossuth	-10.4702
▁forradalom	-10.4702
▁figyel	-10.4705
▁Magyarországra	-10.4708
ebben	-10.4708
▁költ	-10.4708
▁1-2	-10.4717
▁rendelkezés	-10.4717
hette	-10.4721
▁gyereket	-10.4729
▁só	-10.473
▁szállítás	-10.4732
▁szépen	-10.4734
▁Első	-10.4737
▁Dániel	-10.4749
▁tetszik	-10.4749
▁órát	-10.4749
▁államháztartási	-10.475
▁bajnokságban	-10.4752
▁részére	-10.476
▁vélte	-10.4765
▁valamivel	-10.4772
▁áru	-10.4774
▁szerez	-10.4774
▁hónapokban	-10.4776
lényegében	-10.4776
mail	-10.4778
jétől	-10.4778
▁köszönhető	-10.4781
▁ritka	-10.4787
▁Újabb	-10.4789
▁napos	-10.4791
▁tanul	-10.4797
▁kés	-10.4801
▁regionális	-10.4801
▁Oscar	-10.4801
▁tartalmazza	-10.4803
négy	-10.4803
gg	-10.4803
Mi	-10.4804
▁ural	-10.4805
tin	-10.4811
▁élvez	-10.4815
ítették	-10.4818
▁üzemanyag	-10.4819
▁átadás	-10.482
kre	-10.482
▁formá	-10.4829
bel	-10.4831
▁sorozatban	-10.484
▁Tud	-10.4843
▁táj	-10.4845
▁Hat	-10.4845
▁kg	-10.4848
▁kétszáz	-10.4849
▁kéri	-10.4853
▁Apple	-10.4854
▁lelki	-10.4854
▁zajlik	-10.4854
▁tehetség	-10.4855
▁hiányzik	-10.4856
▁nyitva	-10.4857
▁méretű	-10.4858
▁stratégiai	-10.4862
▁térségben	-10.4869
23	-10.4869
▁udvar	-10.4872
kocsi	-10.4875
▁céget	-10.4875
lis	-10.4875
▁bar	-10.4877
▁gondolja	-10.4883
▁százezer	-10.4886
▁pillanatban	-10.4891
ovics	-10.4896
▁elsőként	-10.4897
▁ennyire	-10.4897
mé	-10.4903
▁hétvégi	-10.4907
▁Malév	-10.4907
▁pap	-10.4909
ser	-10.491
▁India	-10.4912
▁szék	-10.4913
ich	-10.4913
▁parlamentben	-10.4915
▁számon	-10.4915
▁Tovább	-10.4917
▁ismerős	-10.4917
▁tapasztalatai	-10.4919
▁adhat	-10.492
▁eredményeket	-10.4923
▁listá	-10.4926
▁orr	-10.4929
▁éjszakai	-10.4931
▁hullám	-10.4932
▁indokolta	-10.4932
▁árak	-10.4933
▁élén	-10.4934
▁körzet	-10.4935
▁rák	-10.4942
▁hős	-10.4944
aik	-10.4945
▁készülék	-10.4946
▁pénztár	-10.4947
▁lehető	-10.4948
▁tüntetés	-10.4949
▁szoros	-10.4949
▁mérték	-10.4956
▁62	-10.4957
▁26-	-10.4959
▁tervei	-10.4959
▁Moszkva	-10.4961
▁vonul	-10.4962
▁világban	-10.4962
▁Kedden	-10.4966
▁ázsiai	-10.497
▁ítélte	-10.497
▁tekinthető	-10.4971
gyel	-10.4973
26	-10.4981
jait	-10.4981
▁táv	-10.4982
▁Er	-10.4984
▁kíváncsi	-10.499
▁látogatás	-10.4992
adta	-10.4994
▁Fél	-10.4996
ozik	-10.4997
▁generáció	-10.4997
▁jöhet	-10.4999
▁kudarc	-10.5
din	-10.5002
▁rendszeres	-10.5007
▁and	-10.5008
▁megalapozott	-10.5013
▁folyamán	-10.5013
▁24-	-10.5014
▁tájékoztatott	-10.5014
▁emelkedik	-10.5015
▁argentin	-10.502
13	-10.5023
▁keze	-10.5024
▁adás	-10.5032
▁GB	-10.5035
▁számlá	-10.5037
▁szempont	-10.5037
▁ingyen	-10.5041
bizottság	-10.5042
nénk	-10.5045
▁napok	-10.5045
▁jogok	-10.5047
ükben	-10.505
▁dokumentumok	-10.5051
▁hulladék	-10.5064
pálya	-10.5065
▁monetáris	-10.5067
▁Választás	-10.5067
▁simán	-10.5067
eiben	-10.5068
▁Arany	-10.5071
▁munkás	-10.5073
▁nézők	-10.5077
▁Rá	-10.508
fer	-10.5084
▁munkavállalók	-10.5086
▁stadion	-10.5087
▁98	-10.509
▁említette	-10.509
▁forma	-10.509
▁használja	-10.5092
▁mértéke	-10.5092
▁fogyasztói	-10.5094
▁szeretet	-10.5094
▁hatáskör	-10.5097
▁kormányt	-10.5101
▁szóba	-10.5103
▁halála	-10.5104
▁írták	-10.5104
▁feljelentés	-10.5104
▁kéz	-10.5105
▁költségek	-10.5106
▁szakaszán	-10.511
▁Alonso	-10.5121
▁digitális	-10.5121
▁gén	-10.5123
▁magatartás	-10.5124
▁autópálya	-10.5124
▁Cser	-10.5124
▁hozam	-10.5126
▁résztvevők	-10.5127
ológiai	-10.5129
▁tojás	-10.513
nyugdíjpénztárak	-10.5132
▁tisztában	-10.5133
▁váltott	-10.5141
ellátás	-10.5143
jár	-10.5146
napos	-10.5146
köd	-10.5147
▁vezetése	-10.5152
▁tesztel	-10.5153
▁tavasz	-10.5154
▁atom	-10.5155
▁segítő	-10.5159
▁egység	-10.5161
▁idézi	-10.5161
▁elem	-10.5162
org	-10.5165
osztott	-10.5167
▁növény	-10.5167
oli	-10.5169
▁választotta	-10.5169
▁szavazók	-10.517
▁helyettes	-10.5172
▁átmeneti	-10.5174
▁or	-10.5174
▁dolga	-10.5175
Szatmár	-10.5176
▁nyugdíjas	-10.5177
▁Mária	-10.518
▁Hétfőn	-10.5183
airól	-10.5186
kapitányság	-10.5187
aiban	-10.5189
▁tanú	-10.519
▁láttam	-10.5195
▁Bi	-10.5196
▁meglévő	-10.5198
▁Vár	-10.5213
▁1000	-10.5223
▁euróval	-10.5223
▁85	-10.5225
▁használható	-10.5227
▁luxus	-10.523
▁Barack	-10.5231
▁védelme	-10.5233
▁meghaladja	-10.5234
▁na	-10.524
▁éles	-10.5243
▁gyártás	-10.5247
▁állítják	-10.5249
▁nyelvű	-10.5251
gáz	-10.5252
▁biztosítás	-10.5254
▁érint	-10.5254
▁németek	-10.5254
▁napra	-10.5256
▁piacok	-10.5257
▁forgatás	-10.526
▁gyűjtött	-10.5261
du	-10.5261
burg	-10.5264
fél	-10.5265
▁kevesebbet	-10.5267
▁he	-10.527
▁Egészség	-10.5271
▁vidéki	-10.5277
▁kötelezettség	-10.5279
▁rendelt	-10.5282
▁kábítószer	-10.5284
▁banki	-10.5288
▁egyrészt	-10.5288
▁véletlenül	-10.5288
gyártó	-10.5292
▁Fehérvár	-10.5296
rin	-10.5302
▁győzelmet	-10.5303
díjas	-10.5308
▁elismerte	-10.5317
fejlesztés	-10.5321
▁dolgoz	-10.5324
kér	-10.5324
▁700	-10.5328
▁legyenek	-10.5329
▁előbbi	-10.5329
▁értékesítés	-10.5332
38	-10.5332
▁alkalmazás	-10.5334
▁Matolcsy	-10.534
▁dolgot	-10.534
▁mobiltelefon	-10.534
▁ugyanúgy	-10.5341
forgalom	-10.5342
▁arányban	-10.5345
▁vastag	-10.5349
▁hegy	-10.5351
▁abba	-10.5354
▁tor	-10.5354
▁szót	-10.5358
▁teljesítménye	-10.536
▁hetekben	-10.5362
▁(1	-10.5363
▁ígér	-10.5363
%	-10.5367
▁tettes	-10.5368
cia	-10.5369
ah	-10.5375
eiről	-10.5377
esse	-10.5377
pu	-10.5381
▁lapok	-10.5382
▁helyzete	-10.5384
▁épült	-10.5385
emelés	-10.5393
▁szerintük	-10.5395
▁Toyota	-10.5396
▁büdzsé	-10.5396
▁utoljára	-10.5396
▁gyengébb	-10.5397
▁figyelmét	-10.5399
▁hajt	-10.5399
▁Gól	-10.5399
▁Igen	-10.54
▁kezdték	-10.54
▁mentén	-10.5403
sük	-10.5404
▁adót	-10.5404
▁Zala	-10.5406
55	-10.5407
pénztári	-10.5408
▁szolgál	-10.541
▁utak	-10.541
▁Somogy	-10.5412
▁távolság	-10.5419
hét	-10.542
▁lopás	-10.5422
▁Mari	-10.5423
▁fürdő	-10.5424
▁14-	-10.5431
terem	-10.5431
ist	-10.5435
▁anyagok	-10.5436
darab	-10.5444
▁jegyezte	-10.5445
ítják	-10.5448
▁legrosszabb	-10.5452
szervezet	-10.5452
▁műfaj	-10.5452
▁területek	-10.5453
▁ősszel	-10.5453
▁érkeztek	-10.5453
szolgálat	-10.5454
▁sza	-10.5455
▁formájában	-10.5456
kutató	-10.5459
▁jegyezték	-10.5462
▁törzs	-10.5466
▁fejezet	-10.5468
▁említ	-10.5469
▁korában	-10.5473
▁Kínában	-10.5476
járó	-10.5476
▁elismerés	-10.5479
▁alkotás	-10.5482
▁So	-10.5484
▁családok	-10.5486
io	-10.5486
piaci	-10.5488
zsa	-10.5489
▁Jog	-10.5491
inak	-10.5496
49	-10.5498
▁Sza	-10.5499
▁Nép	-10.55
▁III	-10.5502
▁csőd	-10.5503
▁próbálja	-10.5505
▁Sólyom	-10.5508
▁iráni	-10.5508
▁mikro	-10.5509
▁hetedik	-10.5509
▁korosztály	-10.5509
képzés	-10.551
▁jelenthet	-10.551
francia	-10.551
▁legyőzte	-10.5512
▁kézilabda	-10.5513
▁vizsgálják	-10.5514
▁vadász	-10.5515
▁filmek	-10.552
lk	-10.5524
▁kommunikáció	-10.5525
mu	-10.5528
jog	-10.5528
28	-10.553
▁csatorna	-10.553
▁igazságügyi	-10.5532
▁kezdtek	-10.5537
▁Olaszország	-10.5541
meccs	-10.5544
ust	-10.5548
▁utód	-10.5548
▁da	-10.5552
▁Amerikai	-10.5554
▁térkép	-10.5556
gál	-10.5556
▁gépek	-10.5557
▁összetett	-10.5559
▁évad	-10.556
kai	-10.5562
▁Richter	-10.5564
▁közszolgálati	-10.5564
▁órával	-10.5564
▁kívánt	-10.5565
▁1-0	-10.5565
▁bőven	-10.5565
▁felszín	-10.5566
▁Euro	-10.5566
▁válaszolt	-10.5566
győztes	-10.5567
▁iskolá	-10.5568
▁férj	-10.5575
▁érthető	-10.5576
port	-10.5577
▁kivétel	-10.5577
bri	-10.5577
▁üzemeltető	-10.5583
▁helyez	-10.5584
▁egyikük	-10.5585
▁tél	-10.5589
▁balesetet	-10.5593
▁televíziós	-10.5599
▁levelet	-10.5599
szár	-10.5601
▁sorban	-10.5605
▁mezőgazdasági	-10.5613
▁Sopron	-10.5616
▁emelés	-10.5616
aná	-10.5619
▁egyensúly	-10.5621
▁tulajdonképpen	-10.5622
▁érzem	-10.5622
zer	-10.5623
▁találkozott	-10.5623
▁Liverpool	-10.5623
ovic	-10.5626
▁alkotó	-10.5628
▁cipő	-10.5639
▁fizikai	-10.5641
▁Sokan	-10.5645
▁diplomáciai	-10.5645
▁akarták	-10.5648
tud	-10.5649
olva	-10.565
▁esetekben	-10.5655
▁alapon	-10.5656
▁félidő	-10.5658
▁kilométerre	-10.5658
ham	-10.5662
ukban	-10.5676
▁Fülöp	-10.5678
▁Jövő	-10.5678
▁legnépszerűbb	-10.5678
▁személygépkocsi	-10.5678
▁tizenkét	-10.5678
▁Rádió	-10.5678
▁büntetőeljárás	-10.5678
▁reakció	-10.5679
▁érdekelt	-10.5681
▁országokban	-10.5681
álta	-10.5681
▁kellemes	-10.5682
▁ülésen	-10.5683
▁nagyszerű	-10.5683
▁28-	-10.5686
▁sark	-10.5687
▁kapacitás	-10.5688
jó	-10.5691
▁megnyerte	-10.5692
▁mindenkit	-10.5696
▁professzor	-10.5699
▁fordulójában	-10.57
száz	-10.5706
▁felől	-10.5708
öket	-10.5709
▁stáb	-10.5712
▁buli	-10.5719
▁Pal	-10.572
▁részletek	-10.5723
▁beszámoló	-10.5724
▁Cha	-10.5729
▁őszi	-10.5731
▁debreceni	-10.5736
▁ugye	-10.5736
▁nevében	-10.5736
▁náluk	-10.5736
▁Fekete	-10.5736
▁előfordulhat	-10.5737
▁kisfiú	-10.5738
▁2003-	-10.5739
par	-10.5741
▁novemberi	-10.5744
▁kapcsol	-10.575
▁la	-10.5752
▁zs	-10.5752
▁2-3	-10.5755
bér	-10.5756
▁hatékony	-10.5757
▁kerek	-10.576
berg	-10.5762
▁Mil	-10.5765
▁változtat	-10.578
▁állítani	-10.5782
▁dízel	-10.5788
▁61	-10.579
▁piacra	-10.5791
▁palesztin	-10.5794
▁újdonság	-10.5794
▁ugyanolyan	-10.5794
abbak	-10.5797
▁kommunista	-10.58
▁Románia	-10.5801
▁vonatok	-10.5802
hatta	-10.5803
▁márka	-10.5803
▁sztori	-10.5803
eik	-10.5804
▁59	-10.5804
▁amik	-10.5807
▁időpont	-10.5807
▁elődöntő	-10.5809
▁váltak	-10.5811
ob	-10.5813
▁információkat	-10.5817
kő	-10.582
zük	-10.5823
▁száraz	-10.5824
▁kerületben	-10.5827
▁voltunk	-10.5835
▁Pr	-10.5836
▁herceg	-10.5841
▁jelöltek	-10.5844
▁ló	-10.585
▁Fejlesztés	-10.5852
▁maximum	-10.5852
▁franciák	-10.5852
▁értelme	-10.5854
▁elsőfokú	-10.5856
▁perces	-10.5856
▁tudok	-10.5856
▁zászló	-10.5858
▁Székesfehérvár	-10.5859
szab	-10.5861
▁mondják	-10.5862
▁kutat	-10.5862
▁góllal	-10.5862
▁szerette	-10.5864
▁élen	-10.5864
▁Mag	-10.5865
▁ült	-10.5865
▁játékok	-10.5866
▁helyére	-10.5868
ford	-10.5869
▁elérte	-10.5871
09	-10.5874
▁illető	-10.5875
▁küzdő	-10.5879
▁genetikai	-10.5887
▁tervezi	-10.5888
▁filmben	-10.5896
ektől	-10.5899
ásáról	-10.59
▁vállalta	-10.5903
vette	-10.5905
▁elfogadta	-10.5905
▁bel	-10.5908
▁összességében	-10.591
▁résztvevő	-10.591
▁összeállítás	-10.5914
▁ítélték	-10.5915
▁72	-10.5917
▁cserél	-10.5917
▁látták	-10.5918
kupa	-10.5918
tri	-10.5919
▁alkot	-10.5921
▁kultúra	-10.5924
▁ezren	-10.5932
▁jelzi	-10.5934
▁vállalt	-10.5935
▁Mu	-10.5935
▁végeztek	-10.5939
▁levélben	-10.594
oszt	-10.5941
▁vizsgáló	-10.5944
▁szavazó	-10.5944
▁berendezés	-10.5955
▁információt	-10.5955
zo	-10.5961
csó	-10.5961
ezték	-10.5962
▁parti	-10.5965
▁számíthat	-10.5968
▁Bálint	-10.5969
▁Széchenyi	-10.5969
▁Vlagyimir	-10.5969
▁Nyomozó	-10.5969
▁valaha	-10.597
▁valahogy	-10.597
▁következett	-10.5971
▁közgazdász	-10.5971
▁jövedelem	-10.5976
▁olcsó	-10.5977
▁szurkolók	-10.5978
▁emelkedés	-10.5979
▁olimpián	-10.5979
▁Go	-10.5982
▁szállító	-10.5984
▁alábbi	-10.599
▁üzletember	-10.5992
▁látvány	-10.5995
uta	-10.5997
vér	-10.6
▁mást	-10.6
▁látogat	-10.6003
▁biztosított	-10.6003
▁vesznek	-10.6003
▁tájékoztatást	-10.6006
▁ciklus	-10.6009
só	-10.601
▁hozzájuk	-10.6011
▁68	-10.6015
▁lánya	-10.6021
▁Jól	-10.6023
▁George	-10.6025
▁Ildikó	-10.6028
▁Békés	-10.6028
▁véve	-10.6028
▁fenntartás	-10.603
▁gyönyörű	-10.6031
▁Török	-10.6032
▁producer	-10.6034
▁választották	-10.6034
▁oly	-10.6035
▁térségében	-10.6038
▁vak	-10.6039
sta	-10.6041
▁tudósok	-10.6046
so	-10.6047
▁dolgokat	-10.6047
▁nézve	-10.6054
▁részleteket	-10.6058
▁fogyasztók	-10.6062
▁püspök	-10.6062
odik	-10.607
bá	-10.6071
▁januári	-10.6074
▁jelentése	-10.6076
▁Ber	-10.6078
alom	-10.608
csere	-10.608
▁szépség	-10.608
▁Szint	-10.6083
▁É	-10.6085
szok	-10.6085
▁moszkvai	-10.6088
▁létesítmény	-10.6088
▁Webber	-10.6088
súly	-10.6088
▁tekintetében	-10.6089
terület	-10.6089
▁éjszaká	-10.609
▁szerencsés	-10.6091
▁komolyabb	-10.6093
▁tizenöt	-10.6093
▁font	-10.6094
▁indoklás	-10.6096
▁beruházások	-10.6096
▁szed	-10.6098
▁sárga	-10.61
▁kezelni	-10.6105
▁bo	-10.6106
▁doboz	-10.611
biztonsági	-10.6116
▁ital	-10.6119
sson	-10.612
▁figyelm	-10.612
▁jönnek	-10.6121
▁gyűjtemény	-10.6122
▁látogató	-10.6123
▁lét	-10.6123
osztó	-10.6127
▁felfedezés	-10.6129
▁kapható	-10.6131
▁ünnepi	-10.6132
▁eleve	-10.6133
▁stabil	-10.6136
gá	-10.6136
▁1990-	-10.6137
▁bizonytalanság	-10.6139
▁balesetben	-10.6141
lett	-10.6142
•	-10.6148
▁Erzsébet	-10.6148
▁Tarlós	-10.6148
▁felesleges	-10.6148
▁Szerdán	-10.6148
▁Vagyis	-10.615
hasson	-10.6152
▁szeme	-10.6152
▁listát	-10.6155
▁Jean	-10.6155
▁tizenegy	-10.6157
▁szülei	-10.6159
▁érez	-10.6163
▁lényegesen	-10.6164
▁fáj	-10.6164
▁halálát	-10.617
szon	-10.617
▁gyanús	-10.6172
▁intenzív	-10.6173
▁vásárló	-10.6174
▁területeken	-10.6176
▁kő	-10.6176
lam	-10.6179
▁telefonon	-10.6183
▁Kal	-10.6188
▁hazánk	-10.6191
SE	-10.6198
▁Tar	-10.6198
jan	-10.6202
▁alternatív	-10.6203
oztak	-10.6205
▁Cl	-10.6206
▁Iroda	-10.6208
▁legkisebb	-10.6208
▁drága	-10.6208
▁Benedek	-10.6208
▁viszonyítva	-10.6208
▁tárgyalt	-10.6211
▁idéz	-10.6212
▁jogszabályok	-10.6213
▁tudtuk	-10.6213
állomás	-10.6213
ágy	-10.6215
▁kezében	-10.6219
▁Fe	-10.622
dni	-10.6221
▁Fontos	-10.6222
▁terep	-10.6224
▁életet	-10.6225
▁vágy	-10.6226
▁po	-10.6228
▁robbant	-10.6229
szín	-10.623
▁vitték	-10.6231
▁életében	-10.6235
▁Ham	-10.6237
▁romák	-10.6238
▁Közben	-10.6241
▁munkaerő	-10.6243
ack	-10.6244
ozza	-10.6245
▁Tur	-10.625
védő	-10.6255
tás	-10.6264
▁Futball	-10.6268
▁engem	-10.6268
▁munkája	-10.6268
▁uralkodó	-10.6269
▁órától	-10.6269
▁forgalmi	-10.6272
▁recept	-10.6274
▁For	-10.6276
▁Film	-10.6276
▁ku	-10.6279
▁felmerült	-10.6282
szigetek	-10.6284
▁végez	-10.6285
▁közepes	-10.6288
olasz	-10.6291
lány	-10.6293
▁karrier	-10.6293
▁munkaügy	-10.6295
▁Fu	-10.6298
▁felhívta	-10.6299
tanács	-10.63
▁épített	-10.6303
▁2-1	-10.6304
▁vicces	-10.6305
▁2013-	-10.6307
ino	-10.6307
▁képviselőjelölt	-10.6309
▁ismeri	-10.631
ásához	-10.6317
▁évesen	-10.6318
▁gondolkodás	-10.6321
▁nyár	-10.6328
▁bevon	-10.6329
▁megszűnt	-10.6329
▁mindenesetre	-10.6329
▁mögé	-10.6329
▁vonatkozik	-10.6329
▁győzte	-10.6329
▁titkosszolgálat	-10.633
▁személyautó	-10.6332
▁Szalai	-10.6336
▁megfigyelés	-10.6341
▁folyamatban	-10.6343
▁22.	-10.6343
▁parkoló	-10.6347
hatóság	-10.6353
omat	-10.6354
▁hirdet	-10.6354
▁Mindenki	-10.6356
▁elkészült	-10.6357
Bereg	-10.6359
▁nevez	-10.6364
csökkentés	-10.6367
▁maradtak	-10.637
▁végeredmény	-10.6371
▁baloldal	-10.6372
bolt	-10.6373
szív	-10.6374
▁testi	-10.6374
▁megelőző	-10.6376
▁támogatta	-10.638
▁EP	-10.6383
▁csoportok	-10.6387
▁azonnali	-10.6389
▁27-	-10.639
▁Thomas	-10.6391
▁vélhetően	-10.6391
ává	-10.6395
▁ősz	-10.6395
▁Márton	-10.6395
kezelés	-10.6396
▁Ligája	-10.6396
▁mekkora	-10.6398
▁rajt	-10.6399
▁övezet	-10.64
▁megpróbál	-10.6401
▁személyzet	-10.6406
▁egészségügy	-10.6406
▁legendás	-10.6409
▁telt	-10.6414
▁sérüléseket	-10.6414
27	-10.6417
▁hon	-10.6418
adni	-10.6419
▁Szerintem	-10.642
▁köze	-10.642
▁megjelenés	-10.6421
▁gondot	-10.6421
▁könnyebben	-10.6423
▁szenved	-10.6426
▁egészében	-10.6429
▁eladás	-10.643
▁2-0	-10.6431
ái	-10.644
▁járművek	-10.6444
hor	-10.6445
törés	-10.6447
▁Daily	-10.6452
▁Telekom	-10.6453
▁66	-10.6453
▁noha	-10.6454
▁találat	-10.6455
▁bemutatott	-10.6457
▁Írország	-10.6457
▁megjegyezte	-10.6458
99	-10.6459
Britanniában	-10.646
afrikai	-10.646
isták	-10.6463
hattak	-10.6464
▁részében	-10.6465
our	-10.6465
aira	-10.6466
▁deviza	-10.6471
▁hallott	-10.6473
▁esélyes	-10.6473
ria	-10.6477
Egy	-10.6477
▁megállapította	-10.6478
▁Tor	-10.6483
kod	-10.6483
aként	-10.6484
▁ajtó	-10.6484
▁hatályba	-10.6485
▁bolygó	-10.6486
▁szakaszon	-10.6487
▁emel	-10.6488
▁kétszeres	-10.6492
cel	-10.6501
▁eladó	-10.6503
▁barátai	-10.6503
▁búcsú	-10.6514
▁működött	-10.6515
▁Társaság	-10.6515
▁Bors	-10.6515
▁szerencsére	-10.6516
▁vereséget	-10.6516
▁Messi	-10.6516
▁istálló	-10.6516
Belföld	-10.6519
▁segíthet	-10.652
▁sajtóügyeletese	-10.6521
dá	-10.6522
▁szavaz	-10.6523
▁tagállam	-10.6525
▁dollárral	-10.6526
▁edzője	-10.6528
art	-10.6531
net	-10.6531
▁kormányzó	-10.6532
▁Egyesület	-10.6533
▁Kupa	-10.6534
▁mérleg	-10.6535
▁állítása	-10.6537
▁selejtező	-10.654
ségek	-10.6541
▁iskolai	-10.6542
▁fogadja	-10.6545
bon	-10.6545
kedő	-10.6547
▁Amerikában	-10.6549
társai	-10.6552
▁tanuló	-10.6554
▁másnap	-10.6559
▁szélsőséges	-10.6559
+	-10.656
▁klíma	-10.6567
▁büntet	-10.6571
ozzák	-10.6572
▁74	-10.6572
▁okos	-10.6573
ice	-10.6574
▁Putyin	-10.6577
▁hűtlen	-10.6577
▁bármi	-10.6577
▁dán	-10.6578
▁Judit	-10.6578
▁elmondása	-10.6579
▁anyagot	-10.658
▁Haladás	-10.6583
▁visel	-10.6586
szol	-10.6587
▁Brit	-10.6589
▁kérés	-10.6594
200	-10.6595
▁életveszélyes	-10.6599
▁Th	-10.6601
▁bővítés	-10.6606
szav	-10.6606
mit	-10.6606
▁pályázati	-10.6608
jelöltje	-10.661
▁Der	-10.6613
▁korlátozás	-10.6614
▁kérdez	-10.6615
▁befektetés	-10.662
▁ismerte	-10.6622
gatás	-10.6624
▁stabilitás	-10.6625
▁merénylet	-10.6625
▁elit	-10.6626
▁negyedév	-10.6626
08	-10.6628
▁Budai	-10.6629
úd	-10.6629
06	-10.6633
▁kiadások	-10.6637
▁csinált	-10.6638
motor	-10.6638
▁feladatok	-10.6639
▁választmány	-10.6641
▁írni	-10.6642
▁Horvátország	-10.6642
▁álltak	-10.6642
▁építés	-10.6644
▁Tour	-10.6648
▁igényel	-10.6648
▁megkérdezett	-10.665
▁193	-10.6652
▁kisebbségi	-10.6653
szeres	-10.6656
▁Arról	-10.6657
▁Val	-10.666
▁eleget	-10.6664
▁rendezik	-10.6664
▁könyve	-10.6672
▁percig	-10.6675
▁hord	-10.6686
▁2000-	-10.6686
mány	-10.6693
rö	-10.6693
mentő	-10.6695
▁értékel	-10.6696
▁működési	-10.6698
▁előfordul	-10.6701
hitel	-10.6703
▁Racing	-10.6703
pé	-10.6705
hivatal	-10.6706
▁Eszter	-10.6707
▁lépést	-10.6709
▁századi	-10.671
test	-10.6717
▁sorsa	-10.672
▁támogatott	-10.6725
▁órákban	-10.6727
hajó	-10.6732
▁Szabad	-10.6734
▁részletesen	-10.6737
▁vitte	-10.6739
asszony	-10.6739
▁kb	-10.6739
▁aláírás	-10.674
▁0,3	-10.674
▁visz	-10.6741
▁Hogyan	-10.6741
56	-10.6743
rajz	-10.6755
▁időn	-10.6758
▁rendezés	-10.6762
▁márciusban	-10.6763
▁bronz	-10.6767
▁Schumacher	-10.6767
▁Vilmos	-10.6767
▁vélekedett	-10.6767
▁óráig	-10.6767
▁középső	-10.6767
▁aratott	-10.6767
▁informatikai	-10.6768
37	-10.6769
▁javult	-10.677
75	-10.6771
▁bennünket	-10.6772
▁nyug	-10.6773
növekedés	-10.6777
▁Veres	-10.6779
▁gyakori	-10.678
olják	-10.678
▁Pár	-10.6781
▁Szer	-10.6783
▁BRFK	-10.6783
▁adós	-10.6784
▁betét	-10.6785
▁Es	-10.6785
uz	-10.6786
▁közúti	-10.6787
ün	-10.6791
▁évtizedek	-10.6792
mód	-10.6793
▁támogató	-10.6793
▁maradnak	-10.6794
▁ítélt	-10.6794
▁alakulat	-10.6795
▁nyomozók	-10.6796
▁rendez	-10.6796
▁fent	-10.6798
ä	-10.68
ológus	-10.6801
▁ünnepel	-10.6802
▁figyelmeztet	-10.6806
▁közti	-10.681
05	-10.681
▁kézi	-10.6812
▁történetét	-10.6812
▁fellépés	-10.6813
évé	-10.6814
▁kaland	-10.6818
vezetők	-10.6826
▁hitelek	-10.6826
hessen	-10.6827
2)	-10.6828
▁megállapodást	-10.6829
▁kijelentés	-10.683
▁demokráciá	-10.6831
▁minimum	-10.6831
▁számomra	-10.6834
orvos	-10.6834
▁kilencven	-10.6834
▁vihar	-10.6834
Abaúj	-10.6834
▁gyalogos	-10.6835
formá	-10.6839
▁szán	-10.6839
▁műanyag	-10.684
▁keresni	-10.6842
▁szlovén	-10.6842
▁statisztikai	-10.6843
▁adatait	-10.6856
31	-10.6859
tudományi	-10.6867
párti	-10.6868
▁kiesés	-10.6868
▁seb	-10.6871
32	-10.6871
▁old	-10.6872
aknak	-10.6873
kért	-10.6875
▁rab	-10.6876
▁folyt	-10.6882
che	-10.6882
▁2004	-10.6883
▁73	-10.6886
▁afrikai	-10.6887
▁érő	-10.6888
kert	-10.6889
▁nagykövet	-10.689
▁felügyelő	-10.689
ová	-10.6891
▁lennének	-10.6896
▁mondván	-10.6897
▁távozott	-10.6898
▁esztendő	-10.6899
rát	-10.6899
▁feszültség	-10.6899
król	-10.6901
▁terror	-10.6902
vonat	-10.6903
-10	-10.6903
ozta	-10.6903
▁irodá	-10.6905
▁munkatárs	-10.6906
típus	-10.6907
▁kellemetlen	-10.6908
▁magad	-10.6909
▁nyitó	-10.6909
szerint	-10.6909
▁árt	-10.691
▁önmagában	-10.6911
▁alapító	-10.6913
▁problémá	-10.6916
▁szomszédos	-10.6916
▁előrejelzés	-10.6916
▁szellem	-10.6917
▁háló	-10.6918
▁kérdése	-10.6919
▁úti	-10.6919
▁GP	-10.6925
dom	-10.6925
▁lába	-10.6925
▁Gra	-10.6932
▁demokrata	-10.6933
nyer	-10.6937
▁pr	-10.6939
▁ugyanez	-10.6941
▁találkozón	-10.6943
▁okok	-10.6944
▁elkerül	-10.6947
▁2005	-10.6948
▁készülnek	-10.6951
▁fedezet	-10.6953
▁tudós	-10.6954
34	-10.6956
▁23.	-10.6958
▁tucat	-10.6959
▁Juventus	-10.6961
▁Lendvai	-10.6961
nyúl	-10.6961
▁válhat	-10.6962
▁31.	-10.6963
▁reális	-10.6964
▁szemmel	-10.6965
▁szert	-10.6966
irat	-10.697
▁versenyen	-10.697
modell	-10.6971
▁hirdetés	-10.6975
▁Vona	-10.6975
▁szerelem	-10.6975
▁kiegészítő	-10.6982
fotó	-10.6983
ival	-10.6984
▁települések	-10.6985
pá	-10.6988
szállítás	-10.6992
▁indokolt	-10.7001
▁alak	-10.7003
▁szakszervezetek	-10.7003
▁zsűri	-10.7007
▁Ros	-10.7012
ld	-10.7012
yer	-10.7013
neve	-10.7016
ft	-10.7016
▁fogyasztó	-10.7019
▁West	-10.7023
ukleáris	-10.7026
▁Schmitt	-10.7026
▁sajtószabadság	-10.7027
alak	-10.7027
▁(4	-10.7027
▁Milyen	-10.7027
ció	-10.7029
▁átfogó	-10.703
leges	-10.7031
hib	-10.7031
▁minőségű	-10.7032
▁terjedő	-10.7036
▁hátrányos	-10.7037
▁67	-10.7038
▁iskolák	-10.704
▁játékot	-10.7041
▁Blog	-10.7042
elték	-10.7043
▁régen	-10.7044
munka	-10.7045
▁betegségek	-10.7046
▁autósok	-10.7046
▁belga	-10.7046
▁stratégiá	-10.7048
▁tagállamok	-10.7053
of	-10.7054
▁összefüggésben	-10.7054
▁szerződések	-10.7056
▁apja	-10.7058
▁kérdések	-10.7059
ER	-10.706
▁mag	-10.7064
▁Tu	-10.707
▁Svédország	-10.707
▁Tv	-10.7072
▁várakozások	-10.7073
▁ünnepek	-10.7075
▁juttatás	-10.708
bán	-10.7081
állam	-10.7082
tatott	-10.7083
▁Ed	-10.7091
▁Juhász	-10.7092
▁iraki	-10.7092
▁teherautó	-10.7092
▁Dan	-10.7093
▁celeb	-10.7093
▁hibát	-10.7093
▁hangzott	-10.7095
▁Fejér	-10.7096
lép	-10.7097
▁áprilisban	-10.7097
hr	-10.71
mér	-10.71
▁aggód	-10.7101
▁megbízás	-10.7102
▁jogot	-10.7103
▁ígért	-10.7103
busz	-10.7104
zu	-10.7105
▁Magyarországot	-10.7107
▁OVB	-10.7108
vonás	-10.7112
szerzés	-10.7113
▁1,6	-10.7114
▁embere	-10.7117
▁fizetési	-10.7121
▁Rad	-10.7126
▁vélik	-10.7127
▁testvér	-10.7133
▁állapota	-10.7136
▁forgatókönyv	-10.7136
▁fiatalabb	-10.714
Korea	-10.7141
▁bevezetése	-10.7141
▁fontosnak	-10.7149
▁mesé	-10.7152
dé	-10.7154
▁HVG	-10.7158
▁Reuters	-10.7158
▁ketten	-10.7158
▁agrár	-10.7158
▁Hatóság	-10.7158
▁Szervezet	-10.7158
▁tőlük	-10.7158
▁kedvéért	-10.7159
▁lényege	-10.7159
▁légkör	-10.7159
▁esté	-10.7159
ím	-10.716
▁változik	-10.716
▁növeli	-10.716
tenger	-10.7162
▁ittas	-10.7165
▁for	-10.7167
▁béke	-10.7167
▁vizsgált	-10.7167
▁próbálják	-10.7167
száll	-10.7167
felvétel	-10.717
testület	-10.7171
▁1500	-10.7174
bombá	-10.7175
▁show	-10.7176
▁Do	-10.718
▁számok	-10.7182
33	-10.7183
▁játékvezető	-10.7183
▁Elő	-10.7186
▁alapított	-10.7194
▁felek	-10.7194
etett	-10.7203
▁hónapok	-10.7206
▁szolgáltatók	-10.7213
▁zárás	-10.7213
▁feltétel	-10.7214
▁csapás	-10.7219
▁betű	-10.7221
▁Autó	-10.7222
▁játszhat	-10.7222
▁Pat	-10.7223
▁Főügyészség	-10.7225
▁lassú	-10.7225
▁Viszont	-10.7225
▁jelentkezett	-10.7225
▁nyitás	-10.7225
▁Jenő	-10.7225
▁Mindkét	-10.7226
éséhez	-10.7227
nye	-10.7228
▁Tíz	-10.7229
▁követett	-10.7231
▁Azonban	-10.7233
költség	-10.7237
▁levő	-10.724
▁Vég	-10.7242
▁180	-10.7244
ükre	-10.7245
▁állított	-10.7246
▁kezdeni	-10.7247
▁oszt	-10.7249
▁nyertek	-10.7253
▁ajánlás	-10.7254
▁játsz	-10.7256
▁Élet	-10.7257
▁állást	-10.7262
▁küzdelem	-10.7266
ller	-10.7267
▁29-	-10.7268
▁jót	-10.7273
lasz	-10.7277
kár	-10.7279
nkat	-10.7279
járat	-10.7283
▁felét	-10.7285
▁munkavállaló	-10.7287
▁cserébe	-10.7288
▁hibrid	-10.7292
▁miskolci	-10.7292
▁ritkán	-10.7292
▁kiadvány	-10.7292
▁bizonyíték	-10.7292
▁kormányszóvivő	-10.7294
▁szer	-10.7295
▁következményei	-10.7295
▁McLaren	-10.7296
▁csatlakozott	-10.7296
▁mexikói	-10.7297
▁Éppen	-10.7298
fo	-10.7299
▁sikert	-10.7303
▁keresnek	-10.7307
atás	-10.7308
▁Sal	-10.7308
▁lehetőségek	-10.731
bar	-10.731
▁teljesített	-10.7311
politika	-10.7313
▁forgalomba	-10.7314
▁0,2	-10.7316
▁találkozót	-10.7316
▁félidőben	-10.7323
▁Mor	-10.7325
▁megbízható	-10.7327
ach	-10.7328
▁futott	-10.7329
▁Mer	-10.7332
▁erőszakos	-10.7334
▁63	-10.7339
▁vers	-10.735
▁hoztak	-10.7351
ója	-10.7353
▁vallás	-10.7355
▁humor	-10.7359
▁stressz	-10.7359
▁foglalkoz	-10.736
▁Munka	-10.736
▁tagság	-10.7369
▁vétel	-10.7369
ica	-10.737
▁védett	-10.737
▁vártnál	-10.7371
▁finn	-10.7375
▁százalékról	-10.7388
▁egyúttal	-10.7401
▁Japán	-10.7404
▁tökéletesen	-10.7404
▁ajánl	-10.7406
gor	-10.7406
▁akarat	-10.7407
ezik	-10.7412
▁viselkedés	-10.7415
▁visszatért	-10.7416
▁visszatérés	-10.7419
▁megmarad	-10.7421
▁sokak	-10.7422
▁kamerá	-10.7422
terme	-10.7425
▁League	-10.7427
▁területet	-10.7427
▁Hamilton	-10.7427
▁bizonnyal	-10.7427
▁híján	-10.7427
Zemplén	-10.7427
▁Máté	-10.7428
▁nyolcadik	-10.7428
▁tárlat	-10.7428
▁többé	-10.7429
▁José	-10.743
▁ideális	-10.743
▁értékelés	-10.7431
▁Bács	-10.7434
állítás	-10.7437
▁gárda	-10.7438
▁vásárolt	-10.7438
▁mindegy	-10.744
bajnok	-10.7454
mes	-10.7456
▁weboldal	-10.7457
▁2014-	-10.7461
▁érdekel	-10.7461
▁kizárt	-10.7461
▁oroszok	-10.7462
▁anti	-10.7463
▁indulás	-10.7464
▁bán	-10.7466
▁erősítette	-10.7466
▁tét	-10.7467
lépés	-10.7467
▁Kíná	-10.7468
▁állni	-10.7468
▁kávé	-10.7472
▁listán	-10.7473
▁&	-10.7475
hy	-10.7475
▁jelentő	-10.7479
▁hajléktalan	-10.7479
gon	-10.748
helyettese	-10.7488
▁változtatni	-10.749
▁állampolgárok	-10.7491
▁Con	-10.7492
▁ezüst	-10.7495
▁Endre	-10.7496
▁Karácsony	-10.7498
EK	-10.7503
▁vetett	-10.7507
kezelő	-10.7508
▁láng	-10.7511
üzem	-10.7512
dar	-10.7512
▁szál	-10.7512
vették	-10.7513
▁bonyolult	-10.7514
▁műsorában	-10.7515
▁Kö	-10.7516
▁kiesett	-10.7521
▁álom	-10.7523
adja	-10.7528
Ba	-10.7529
▁társa	-10.753
klub	-10.7534
▁üzen	-10.7536
▁segíti	-10.7537
▁évszázad	-10.7537
▁feladatot	-10.7538
▁hetek	-10.7541
▁195	-10.7542
illa	-10.7544
▁kérdéses	-10.7544
▁lakói	-10.7546
▁intézkedéseket	-10.7553
▁hetven	-10.7555
figurá	-10.7555
▁téves	-10.7559
▁kerékpár	-10.7559
▁beszámolt	-10.7563
▁Premier	-10.7565
▁Szijjártó	-10.7565
▁berlini	-10.7565
▁Demszky	-10.7565
▁valahol	-10.7565
▁November	-10.7565
▁hírportál	-10.7565
▁tekint	-10.7566
▁forgat	-10.7567
▁Költségvetési	-10.757
▁könyvek	-10.7575
▁mutatta	-10.7579
▁gondoltam	-10.7579
lov	-10.759
szállító	-10.7592
▁emelet	-10.7592
▁hallgató	-10.7593
▁akadt	-10.7596
▁top	-10.7599
01	-10.7599
▁iratok	-10.76
▁sújtotta	-10.7602
▁es	-10.7605
cu	-10.7607
00-	-10.7609
einket	-10.7609
álja	-10.7611
▁támogat	-10.7613
hó	-10.7618
▁elnökének	-10.7624
▁döntését	-10.7627
▁Fer	-10.7628
ói	-10.7633
kozott	-10.7633
▁Kereskedelmi	-10.7634
▁szokott	-10.7634
▁6:4	-10.7634
▁másodfokú	-10.7635
Magyarország	-10.7636
▁Del	-10.7637
▁ebbe	-10.7638
▁helyezték	-10.7638
▁viszonyok	-10.7638
▁foglalt	-10.7638
▁elnökválasztás	-10.7638
▁hajtott	-10.7639
▁érdemi	-10.764
▁világot	-10.7641
ékony	-10.7642
▁szerencsétlen	-10.7644
▁bejegyzés	-10.7644
▁mutatták	-10.7645
▁mentek	-10.7645
jk	-10.7647
▁2001-	-10.7647
41	-10.7647
▁indulhat	-10.765
▁gondolta	-10.7653
esett	-10.7655
▁melletti	-10.7655
▁sorra	-10.7656
yi	-10.7656
vezér	-10.7657
forrás	-10.7658
▁front	-10.7659
jelentés	-10.7665
▁válaszolta	-10.7666
úton	-10.7667
▁helyzetét	-10.767
▁következménye	-10.7671
▁ajánlatot	-10.7672
▁keresett	-10.7675
▁mentés	-10.7675
▁Hírügynökség	-10.7677
▁tért	-10.7678
▁fejét	-10.7682
▁pártja	-10.7683
▁szereplés	-10.7684
36	-10.7684
▁egyetért	-10.7684
▁0,5	-10.7685
▁hírt	-10.7686
▁kr	-10.7687
▁látom	-10.7689
▁Azóta	-10.7693
▁maradhat	-10.7697
▁lelkes	-10.7699
▁helyezés	-10.7699
22	-10.7701
▁Pénz	-10.7702
▁Akadémia	-10.7704
▁Csongrád	-10.7704
▁esedékes	-10.7704
▁gyökere	-10.7704
Kiskun	-10.7704
▁emberölés	-10.7705
▁mindkettő	-10.7705
▁elemzői	-10.7706
vizsgálat	-10.7707
▁párhuzamosan	-10.7707
iv	-10.7708
▁Szlovákia	-10.771
▁hozzájárulás	-10.771
▁hatályos	-10.771
▁mese	-10.7713
▁házban	-10.7715
▁köré	-10.7716
▁állomány	-10.7716
csúcs	-10.7717
▁nagykövetség	-10.7719
▁stúdió	-10.7719
adat	-10.7719
állomány	-10.7719
▁Il	-10.7723
▁kapták	-10.7726
▁írják	-10.7727
▁szerepét	-10.7728
vált	-10.7728
▁labda	-10.7729
▁készpénz	-10.773
▁építkezés	-10.7731
▁kontroll	-10.7732
▁szerepelnek	-10.7734
mm	-10.7743
▁Január	-10.7745
▁hagyott	-10.7746
▁Külföld	-10.7746
képes	-10.7754
▁komp	-10.7754
ix	-10.7755
▁kanyar	-10.7756
záró	-10.7757
▁édes	-10.7757
▁rendőri	-10.7757
Be	-10.776
▁számla	-10.7761
▁nincsen	-10.7766
▁Iván	-10.7768
▁gyümölcs	-10.7768
▁utcá	-10.7769
getés	-10.7773
▁egyenlő	-10.7774
▁abszolút	-10.7775
▁megjelenő	-10.7775
▁túlságosan	-10.7775
▁Roland	-10.7776
▁jogosult	-10.7777
nai	-10.7777
▁jelöltje	-10.7777
▁gyilkos	-10.7777
▁Papp	-10.7779
▁900	-10.7781
▁soros	-10.7781
▁Ellen	-10.7782
▁Egyes	-10.7782
▁mellék	-10.7782
▁összege	-10.7785
mester	-10.7788
veszély	-10.7789
bert	-10.779
▁eredményeként	-10.7791
▁gyűjt	-10.7793
lánc	-10.7795
▁mindenféle	-10.7796
▁velem	-10.7796
dat	-10.7799
eként	-10.7799
▁állampolgárság	-10.7801
car	-10.7802
▁kik	-10.7804
▁barátja	-10.7804
▁nyugdíjba	-10.7807
cseré	-10.7811
48	-10.7812
▁túli	-10.7813
▁kö	-10.7814
▁javul	-10.7815
▁fenyegetés	-10.7821
▁motoros	-10.7821
▁Don	-10.7821
▁célra	-10.7825
▁pa	-10.7825
▁bizottságának	-10.7826
ux	-10.7827
▁1998-	-10.7835
▁27.	-10.7835
▁alkalom	-10.7835
▁mandátum	-10.7836
cső	-10.7837
▁polgár	-10.7838
▁Ste	-10.7839
▁keresik	-10.784
▁akartak	-10.784
▁energiá	-10.7841
▁autóbusz	-10.7841
ókat	-10.7844
▁elképesztő	-10.7845
▁69	-10.7846
▁Gabriella	-10.7846
▁fejlett	-10.7846
▁tájékoztatás	-10.7846
▁létrejött	-10.7847
▁földgáz	-10.7847
▁házak	-10.7847
▁Hiába	-10.7848
▁zenei	-10.7849
▁amiatt	-10.7849
▁kezdeményezte	-10.7849
▁130	-10.7851
▁irányuló	-10.7851
ném	-10.7853
▁kard	-10.7858
▁kezdi	-10.7863
onként	-10.7864
▁tempó	-10.7873
▁apa	-10.7874
▁szeretném	-10.7875
viz	-10.7876
tulajdonos	-10.7877
▁Tan	-10.7885
fogás	-10.7885
21	-10.7886
ségének	-10.7887
▁külügy	-10.789
▁zuhant	-10.789
▁tiltakozás	-10.7891
30-	-10.7897
cher	-10.7899
▁gyerekeket	-10.79
▁lánc	-10.79
▁munkák	-10.7907
47	-10.7913
▁nyomozó	-10.7914
▁merült	-10.7916
▁Szak	-10.7917
▁alkalmából	-10.7917
▁engedélyt	-10.7918
▁kutatások	-10.7919
dott	-10.7921
▁Va	-10.7923
▁Kanada	-10.7925
▁májusban	-10.7926
▁nyilatkozó	-10.7927
▁közelmúltban	-10.7928
▁felismer	-10.7928
▁nyelven	-10.793
▁mondom	-10.7932
elnökség	-10.7932
44	-10.7935
vissza	-10.7935
▁számot	-10.7936
▁jogát	-10.7936
▁könyvtár	-10.7939
▁szolgáltatást	-10.7941
▁szóban	-10.7942
▁szobá	-10.7953
▁Szövetsége	-10.7954
▁88	-10.7956
▁joga	-10.7957
szeg	-10.7959
▁segített	-10.7961
▁hatékonyabb	-10.7965
▁Margit	-10.7967
hajtás	-10.7967
▁szintre	-10.7971
▁csere	-10.7979
▁mehet	-10.798
gazdasági	-10.7981
atív	-10.7982
arc	-10.7984
▁főszereplő	-10.7986
cél	-10.7987
▁neves	-10.7988
▁Rogán	-10.7989
▁Kórház	-10.7989
▁tréner	-10.7989
▁elbeszélés	-10.7989
▁Norbert	-10.7989
▁érettségi	-10.7989
▁befolyásolja	-10.7989
▁Tehát	-10.799
▁forgó	-10.799
▁meghaladta	-10.7991
▁követelés	-10.7992
▁jutni	-10.7994
szerv	-10.7995
▁Wa	-10.7999
▁w	-10.7999
▁foglalkoztat	-10.8004
▁magunkat	-10.8004
▁alelnök	-10.8005
▁korlát	-10.8008
▁hiányában	-10.801
▁érintettek	-10.8013
▁válaszol	-10.8014
▁Annak	-10.8014
▁növekedése	-10.8016
▁szálloda	-10.8018
▁börtönbüntetés	-10.8019
▁mindezt	-10.8023
▁állhat	-10.8026
▁tölti	-10.8027
kból	-10.803
lit	-10.8031
társa	-10.8032
▁192	-10.8036
▁vonalon	-10.8038
▁gyakorlati	-10.8042
▁gazdálkodás	-10.8042
▁hatósági	-10.8042
▁vallási	-10.8044
ph	-10.8044
zsák	-10.8046
▁vív	-10.8046
▁mennek	-10.8048
▁szorít	-10.805
▁rendezvényen	-10.805
▁elindult	-10.8051
▁honlapja	-10.8054
bevétel	-10.8055
▁óv	-10.8055
▁Vannak	-10.8056
▁jártak	-10.8058
▁rendszerbe	-10.8061
▁afgán	-10.8061
▁dönteni	-10.8063
▁fűtés	-10.8063
Britannia	-10.8065
▁magyarázza	-10.8066
▁Villa	-10.8066
▁rom	-10.8068
▁időnként	-10.8071
▁szolgált	-10.8071
▁tulajdonában	-10.8073
▁éreztem	-10.8073
bol	-10.8073
▁elutasította	-10.8076
▁szabott	-10.8076
▁kedvezmény	-10.8079
beszél	-10.8079
▁műsorvezető	-10.808
▁ülő	-10.8082
▁76	-10.8085
▁célba	-10.8086
▁újságírók	-10.8088
▁Női	-10.8088
▁Szolnok	-10.8089
▁Fo	-10.809
▁ügynök	-10.809
▁mérsékelt	-10.8091
rop	-10.8098
▁Ter	-10.8098
támadás	-10.81
pát	-10.8102
hány	-10.8104
érzet	-10.8105
▁váll	-10.8105
▁tartományban	-10.8106
▁legtöbben	-10.8106
▁zöldség	-10.811
▁rendőrkapitány	-10.8111
zd	-10.8117
▁teli	-10.812
▁buk	-10.812
▁Dar	-10.8121
▁140	-10.8123
▁intéz	-10.8127
▁számolni	-10.8131
▁Journal	-10.8134
▁Moody	-10.8134
▁újonnan	-10.8134
▁bécsi	-10.8134
▁győri	-10.8134
▁Önkormányzat	-10.8134
▁maximális	-10.8135
▁velünk	-10.8135
lon	-10.8135
zanak	-10.8136
▁csökkenteni	-10.8137
▁tenné	-10.8139
▁hónapjában	-10.8141
ációs	-10.8145
utas	-10.8146
▁szerény	-10.8148
▁kikapott	-10.8149
▁történetében	-10.8149
▁marketing	-10.8152
▁megtanul	-10.8153
kérdés	-10.8154
eire	-10.8155
▁havas	-10.8156
▁egyenesen	-10.8156
▁Közlekedési	-10.8158
▁Szó	-10.8162
osztás	-10.8169
hetné	-10.8169
▁megállapítás	-10.8174
▁agresszív	-10.8174
▁esztendős	-10.8174
jev	-10.8175
képp	-10.8175
árd	-10.8176
▁inflációs	-10.8179
▁Mc	-10.8181
▁dollárra	-10.8181
▁kapni	-10.8184
rs	-10.8185
pán	-10.8185
▁hangos	-10.8186
▁270	-10.8187
▁mesélte	-10.8188
▁zárult	-10.819
▁léphet	-10.8193
▁megnyer	-10.8198
ódik	-10.8202
▁ítéletet	-10.8203
▁kapja	-10.8205
▁im	-10.8205
inger	-10.8206
▁Cu	-10.8207
▁háborús	-10.8208
▁Navracsics	-10.8208
▁Totalcar	-10.8208
▁minősül	-10.8208
▁növekvő	-10.8208
▁anélkül	-10.8208
▁tilos	-10.8208
▁Jobb	-10.8208
örök	-10.8212
▁meghaladó	-10.8212
▁származik	-10.8212
▁szigorítás	-10.8212
▁Jász	-10.8212
▁bármikor	-10.8212
▁Bence	-10.8214
hár	-10.8214
▁ezáltal	-10.8215
össze	-10.8215
▁bármelyik	-10.8218
▁holnap	-10.8221
▁hajnali	-10.8221
by	-10.8223
miniszter	-10.8228
tábor	-10.8229
▁81	-10.8232
▁Mac	-10.8235
▁kormánya	-10.8236
▁lakos	-10.8237
▁üt	-10.8239
▁Vissza	-10.824
▁aznap	-10.824
▁értem	-10.8241
▁befektető	-10.8243
▁(27	-10.8244
▁86	-10.8244
▁vész	-10.8245
▁26.	-10.8246
log	-10.8248
▁Át	-10.8249
sziget	-10.8249
▁műve	-10.825
▁kaptam	-10.8251
▁százalékuk	-10.8254
suk	-10.8257
▁alkotmányos	-10.8259
▁iskolában	-10.826
▁terhesség	-10.8262
ero	-10.8263
▁tar	-10.8267
▁észlel	-10.8274
▁támogatási	-10.8274
▁előadó	-10.8275
▁bejelentése	-10.8278
▁kollégái	-10.8282
▁kosárlabda	-10.8282
▁jobbikos	-10.8282
▁gyermeket	-10.8282
▁népesség	-10.8283
▁Való	-10.8283
▁szakma	-10.8284
▁találkozik	-10.8285
▁főnök	-10.829
▁Baj	-10.8291
▁album	-10.8292
ilag	-10.8294
▁részesedés	-10.8295
▁támogatása	-10.8296
▁zsír	-10.8296
szerkezet	-10.8302
finanszírozás	-10.8302
▁bűnügyi	-10.8302
af	-10.8304
▁században	-10.8304
▁szembeni	-10.8304
sanak	-10.8309
▁megkapta	-10.8313
▁kártérítés	-10.8315
kciós	-10.8317
▁kérdezte	-10.8318
▁váró	-10.8321
▁Mond	-10.8322
▁Cso	-10.8324
▁képzel	-10.8325
tervezet	-10.8328
túr	-10.8335
▁pápa	-10.8335
▁Par	-10.8338
▁felmérése	-10.8339
▁működtet	-10.8342
▁útján	-10.8345
▁munkálatok	-10.8347
▁magasság	-10.835
▁Biztos	-10.8356
▁Ukrajna	-10.8356
▁elfogták	-10.8357
▁gázolaj	-10.8357
▁Honda	-10.8357
▁helikopter	-10.836
▁2002	-10.836
cht	-10.8361
▁lemondott	-10.8361
▁rejtett	-10.8362
▁Kaposvár	-10.8364
▁Érdekes	-10.8365
▁mennyiség	-10.8366
▁szlovákiai	-10.8366
▁használata	-10.8367
vezet	-10.8368
▁megnéz	-10.8368
▁időközben	-10.8372
több	-10.8374
TV	-10.8375
vevő	-10.8381
▁Star	-10.8381
látás	-10.8386
képesség	-10.8386
▁művészeti	-10.8387
▁vonzó	-10.8391
▁felhasználás	-10.8395
▁fokozat	-10.8399
hű	-10.8401
▁megítélés	-10.8403
▁Wal	-10.8405
▁Ci	-10.8406
rov	-10.8406
▁Svájc	-10.8407
▁belváros	-10.8408
▁mérnök	-10.841
▁hibás	-10.8415
▁vezethet	-10.8416
▁Horn	-10.8423
▁kutatói	-10.8428
kán	-10.843
▁Jézus	-10.8432
▁bizalom	-10.8432
▁szavai	-10.8432
▁alvás	-10.8432
▁Frank	-10.8432
▁sajnál	-10.8433
▁megoldani	-10.8433
▁Johnson	-10.8434
▁remekül	-10.8439
▁tó	-10.8441
▁Kósa	-10.8441
▁Pénteken	-10.8445
▁kértek	-10.8445
42	-10.8446
▁gyorsabb	-10.8446
menet	-10.8449
▁ív	-10.8449
▁festmény	-10.8449
▁előnye	-10.8449
95	-10.8451
faj	-10.8452
▁vádat	-10.8452
▁ellentétes	-10.8452
▁alapok	-10.8453
gés	-10.8455
zünk	-10.8458
▁amiket	-10.8458
TE	-10.8459
▁irányába	-10.846
▁utcára	-10.8464
▁veszített	-10.8465
▁meghallgatás	-10.8467
▁esz	-10.8472
▁vezetőjét	-10.8472
▁dohány	-10.8479
ish	-10.848
▁mér	-10.8485
▁jogerős	-10.8486
▁bot	-10.8487
▁közlekedő	-10.8488
Környezetvédelmi	-10.849
lla	-10.8491
▁drámai	-10.8492
ődik	-10.8493
▁Német	-10.8494
▁SZ	-10.8496
any	-10.8497
▁négyes	-10.85
▁ri	-10.8502
▁jöttek	-10.8502
▁foglalkoztatott	-10.8503
▁jegyzés	-10.8503
▁választást	-10.8505
fogyasztás	-10.8506
▁jóvá	-10.8506
▁Assange	-10.8507
▁bosszú	-10.8507
▁enyhe	-10.8507
▁értelemben	-10.8507
▁konyha	-10.8507
szter	-10.8508
▁beszélget	-10.8508
▁Például	-10.8508
▁Egyébként	-10.8508
▁elnevezésű	-10.8509
▁ütött	-10.8509
▁értékes	-10.8511
gyi	-10.8512
▁olykor	-10.8513
lav	-10.8515
▁kur	-10.8515
▁gondolják	-10.8517
▁elvi	-10.8518
▁bejelentett	-10.852
tol	-10.852
há	-10.8521
▁vállalkozók	-10.8521
nok	-10.8525
▁próbálta	-10.8529
▁profit	-10.853
▁Vízügy	-10.8536
▁do	-10.8537
ánnyal	-10.8537
▁tánc	-10.8538
teljes	-10.854
▁próbált	-10.8544
bó	-10.8544
cská	-10.8545
▁cégnek	-10.8548
▁szavazni	-10.855
▁büntetést	-10.8553
▁tisztességes	-10.8557
▁fordít	-10.856
▁belüli	-10.8561
▁októberi	-10.8562
▁Wall	-10.8562
▁szór	-10.8563
▁indítottak	-10.8566
▁vidék	-10.8567
hegy	-10.8569
▁eljut	-10.857
▁bio	-10.8575
▁képernyő	-10.8578
▁reagál	-10.8579
ew	-10.8582
▁Dzsudzsák	-10.8584
▁ilyesmi	-10.8584
▁póló	-10.8584
▁6:3	-10.8584
▁érvényesül	-10.8585
▁hihetetlen	-10.8585
▁nappali	-10.8585
▁kihasznál	-10.8586
▁Eredmények	-10.8587
▁utazott	-10.8589
▁múlik	-10.8591
▁foglaltak	-10.8592
▁eltérés	-10.8593
éséről	-10.8594
▁jelentősége	-10.8597
▁címe	-10.8598
sztó	-10.8599
▁Össze	-10.86
kos	-10.86
▁Kár	-10.86
▁igazolt	-10.8601
/3	-10.8602
▁fiúk	-10.8602
▁epizód	-10.8606
iss	-10.8614
▁utasítás	-10.8615
Y	-10.8618
▁szorul	-10.8619
▁kivitel	-10.8619
▁szólva	-10.8621
ost	-10.8627
▁Párizs	-10.8631
▁blokk	-10.8634
▁forintnyi	-10.8634
▁vásárlók	-10.8637
▁összefüggés	-10.8638
▁alapos	-10.8639
▁tűzoltó	-10.864
▁láthatóan	-10.864
85	-10.8642
▁tőzsde	-10.8643
▁ütem	-10.8644
fejlesztési	-10.8648
▁foglalkozni	-10.8648
ügyben	-10.8649
ari	-10.8654
▁változatlan	-10.8658
▁adatbázis	-10.8659
▁Szolgálat	-10.8661
▁növekszik	-10.8661
▁rájátszás	-10.8661
▁szenátus	-10.8661
▁legszebb	-10.8661
▁megnyitó	-10.8661
▁romlott	-10.8661
▁nemrégiben	-10.8661
▁ízlés	-10.8661
▁Fernando	-10.8662
▁háromszor	-10.8662
jainak	-10.8664
▁Zi	-10.8666
▁létrehozott	-10.8666
▁utánpótlás	-10.867
▁Fed	-10.8673
▁pornó	-10.8674
▁web	-10.8674
▁has	-10.8676
▁autóval	-10.8676
▁mindenhol	-10.8677
ling	-10.8682
▁amennyi	-10.8682
Fidesz	-10.8684
▁Jones	-10.8687
▁listavezető	-10.8688
▁érzékel	-10.8689
tz	-10.869
▁megbeszélés	-10.8691
▁hitelt	-10.8695
▁eléri	-10.8697
▁egybe	-10.8698
▁zené	-10.8698
▁homok	-10.8699
▁centiméteres	-10.87
▁Nagydíj	-10.8702
▁vezeték	-10.8702
▁Sze	-10.8703
▁1,1	-10.8707
▁folyamatok	-10.8707
▁médiá	-10.8709
▁szemlélet	-10.8711
▁vevők	-10.8713
séges	-10.872
▁gyakorolt	-10.8721
▁százalékban	-10.8722
▁szakemberei	-10.8724
▁regisztrált	-10.8725
▁megkérdezettek	-10.8726
▁nyertes	-10.8727
▁Kim	-10.8728
▁képtelen	-10.873
▁tárgyak	-10.8732
▁felsőoktatási	-10.8733
▁rep	-10.8733
kot	-10.8736
▁belföldi	-10.8738
▁Gólszerző	-10.8738
▁robot	-10.8739
▁készíteni	-10.8741
ítva	-10.8743
▁−	-10.8743
▁kivételével	-10.8743
▁24.	-10.8745
abbá	-10.8745
▁ítél	-10.8747
▁fektet	-10.8748
▁190	-10.8749
▁érdekeit	-10.8752
II	-10.8753
▁ismertette	-10.8755
▁frakcióvezető	-10.8755
▁összegű	-10.8756
▁FTC	-10.8759
▁igazolás	-10.876
▁takar	-10.8761
nyolc	-10.8762
▁lyuk	-10.8763
▁egymástól	-10.8764
▁decemberi	-10.8768
▁középpályás	-10.8768
94	-10.877
▁természeti	-10.8773
▁mutatnak	-10.8775
futás	-10.8775
▁helyezte	-10.8776
▁tízmillió	-10.8777
angol	-10.8778
▁tűnő	-10.8779
▁teljesítményt	-10.8784
hatás	-10.8786
▁étterem	-10.879
▁támogatását	-10.8791
▁vál	-10.8791
▁mindennapi	-10.8792
▁kijelölt	-10.8796
▁tengeri	-10.8799
▁életre	-10.88
▁válás	-10.88
▁Gál	-10.88
ukkal	-10.8803
▁Hasonló	-10.8805
▁változata	-10.8807
tetni	-10.8808
tatták	-10.881
▁lépni	-10.8814
▁Polgár	-10.8816
▁Brown	-10.8816
▁Street	-10.8817
▁DNS	-10.8817
▁imád	-10.8817
▁egyedülálló	-10.8818
▁árvíz	-10.8818
cska	-10.8825
▁tucatnyi	-10.8827
▁kötelez	-10.8828
▁szakmá	-10.8829
▁kormánypárti	-10.8833
▁Szlovákiában	-10.8833
▁mégpedig	-10.8833
▁tartalom	-10.8836
▁megválasztott	-10.8836
szerződés	-10.8837
▁kever	-10.884
▁71	-10.8841
▁cukor	-10.8842
▁kincs	-10.8843
változat	-10.8845
fin	-10.8846
▁kém	-10.8846
▁kitért	-10.8847
▁csúszott	-10.8848
▁bukott	-10.8849
▁tevékenységét	-10.8849
▁nyomoz	-10.8853
▁utaz	-10.8854
ity	-10.8858
▁ősi	-10.8861
▁feladatokat	-10.8861
▁versenyben	-10.8864
▁elnöksége	-10.8865
atlanul	-10.8868
▁idegenben	-10.8872
▁viz	-10.8873
fr	-10.8876
▁listáján	-10.8877
▁színű	-10.8877
▁játszottak	-10.8883
▁lehetőségeket	-10.8887
▁szórakoztató	-10.8889
▁minősítés	-10.8889
eny	-10.889
▁tervezés	-10.8892
▁érezte	-10.8892
▁bölcs	-10.8893
▁Melinda	-10.8895
▁Microsoft	-10.8895
▁legkevesebb	-10.8895
▁számunkra	-10.8895
▁Lyon	-10.8895
▁hazud	-10.8895
▁extra	-10.8896
▁Ernő	-10.8897
▁magzat	-10.8897
▁támadások	-10.8898
▁embereknek	-10.8899
▁ekkora	-10.89
▁fenyegető	-10.8901
▁javasolta	-10.8901
zák	-10.8904
▁újonc	-10.8904
MI	-10.8906
▁30.	-10.8906
pedig	-10.8907
ológia	-10.8909
keleti	-10.8911
ükkel	-10.8912
▁roham	-10.8912
▁akkora	-10.8913
▁jelez	-10.8913
▁dolgoztak	-10.8914
▁sért	-10.8915
▁holott	-10.8918
főnök	-10.8919
▁29.	-10.8919
▁szomorú	-10.892
szakértő	-10.8921
▁82	-10.8922
▁szolgálja	-10.8922
▁Bur	-10.8922
▁használó	-10.8922
▁Erős	-10.8923
▁becslések	-10.8924
▁leírás	-10.8924
▁szóval	-10.8925
▁Hét	-10.8926
▁ura	-10.8928
▁rám	-10.8928
▁parlamentbe	-10.8928
▁állították	-10.893
▁110	-10.893
hajtó	-10.893
▁eszközöket	-10.8935
ítése	-10.8935
▁olyanok	-10.8942
▁Akár	-10.8944
▁lo	-10.8949
▁épületek	-10.8957
▁em	-10.8958
▁men	-10.8962
társaság	-10.8963
éri	-10.8965
▁4,5	-10.8966
▁indok	-10.8968
gyártás	-10.8968
▁fokozott	-10.8969
▁csont	-10.897
láz	-10.897
▁Eredmény	-10.8971
gás	-10.8973
yn	-10.8973
▁ünnepség	-10.8973
▁növekedési	-10.8974
igazgató	-10.8974
▁Nyolc	-10.8974
▁Volkswagen	-10.8974
▁legalacsonyabb	-10.8974
▁turisztikai	-10.8975
▁Katona	-10.8975
▁tömegközlekedés	-10.8975
▁előterjesztés	-10.8976
▁akarok	-10.8977
▁alakít	-10.8977
lépett	-10.8978
▁fogyaszt	-10.8979
▁Paks	-10.8979
fut	-10.8981
▁irányba	-10.8984
ekbe	-10.8985
▁Ausztriában	-10.8988
▁négyzetméteres	-10.8988
▁jegyzett	-10.8989
▁minőségi	-10.8989
▁Szövetségének	-10.8991
▁lejárt	-10.8991
▁96	-10.8998
▁árát	-10.9001
cse	-10.9001
▁órák	-10.9003
▁szeg	-10.9003
▁ideg	-10.9003
▁szereti	-10.9005
▁Q	-10.9007
▁egyenes	-10.9007
▁ígérte	-10.9011
uf	-10.9013
▁tapasztal	-10.9016
57	-10.9018
▁eljárások	-10.9022
▁lépéseket	-10.9023
eli	-10.9025
▁hagyja	-10.9026
▁Cas	-10.9026
▁feleség	-10.9026
erről	-10.9027
▁játékosai	-10.9027
▁javulás	-10.9028
ij	-10.9028
▁kontinens	-10.9031
▁kezdeményez	-10.9033
▁Könyv	-10.9034
▁Bak	-10.9034
▁tisztán	-10.9034
▁döntések	-10.9035
▁örökség	-10.9036
▁Kép	-10.9038
▁Richard	-10.9039
vez	-10.904
▁főigazgató	-10.9041
02	-10.9043
▁Louis	-10.9043
▁milliót	-10.9045
▁tartalma	-10.9046
▁füst	-10.9046
nám	-10.9049
▁jelöl	-10.905
▁hiányt	-10.9051
▁Takács	-10.9055
▁Kárpát	-10.9055
▁Rózsa	-10.9055
▁Hamburg	-10.9055
▁potenciális	-10.9055
▁változtatás	-10.9058
▁szervező	-10.9059
▁szavazott	-10.9062
hatók	-10.9062
▁bolgár	-10.9065
▁import	-10.9065
▁évtizede	-10.9067
▁gyorsabban	-10.9068
▁integráció	-10.9069
▁rúg	-10.907
vállalat	-10.907
hettek	-10.9072
▁0,4	-10.9074
▁kortárs	-10.9074
▁jelző	-10.9078
▁jelentkező	-10.9078
▁tartoznak	-10.9079
jelen	-10.9081
▁Közel	-10.9085
▁modellek	-10.9086
▁télen	-10.9088
▁tenisz	-10.9092
▁rendel	-10.9094
68	-10.9098
04	-10.9104
43	-10.9105
▁0,1	-10.9107
▁fejlesztések	-10.9107
▁Berlin	-10.911
▁Ir	-10.911
ola	-10.9113
módosítás	-10.9113
cker	-10.9115
▁mélység	-10.9115
ano	-10.9116
▁pénztárak	-10.9119
▁kérő	-10.9119
▁tájékoztató	-10.912
ggy	-10.9122
▁folytatni	-10.9123
ska	-10.9124
▁ajánlószelvény	-10.9125
▁FM	-10.9126
árak	-10.9126
▁keresi	-10.9127
zte	-10.913
▁3,8	-10.9131
▁pe	-10.9131
▁kifogás	-10.9132
▁Valutaalap	-10.9135
▁Nyomtatás	-10.9135
▁World	-10.9135
▁brüsszeli	-10.9135
▁tragédiá	-10.9135
▁belügyminiszter	-10.9135
▁megváltozott	-10.9135
▁drágább	-10.9137
▁elvileg	-10.9138
▁számtalan	-10.9138
tűz	-10.9139
▁vizsgálata	-10.9139
▁kategória	-10.9141
▁Hiszen	-10.9141
▁jegyében	-10.9143
▁Ausztria	-10.9144
úttal	-10.9146
▁garantál	-10.9147
▁viselő	-10.9148
▁vitát	-10.915
▁jogász	-10.9154
▁csavar	-10.9156
▁vállalni	-10.9157
▁beszámolója	-10.9157
▁körű	-10.9159
▁megjelenése	-10.916
Európa	-10.9162
▁mára	-10.9166
▁no	-10.9167
nyal	-10.9168
▁főút	-10.9174
▁úszó	-10.9174
▁negyeddöntő	-10.9178
hova	-10.9183
▁balesetek	-10.9183
bál	-10.9186
▁nevel	-10.9188
▁pénzintézet	-10.9197
▁3-1	-10.9204
▁vitt	-10.9205
akar	-10.9208
▁díjak	-10.9209
▁Mátyás	-10.921
▁számban	-10.9214
▁havonta	-10.9216
▁mellette	-10.9217
itt	-10.9219
▁kábel	-10.922
▁jegyzőkönyv	-10.922
zunk	-10.922
▁némileg	-10.9221
▁megszerezte	-10.9225
▁hozhat	-10.9226
▁sikeresen	-10.9227
▁mozgalom	-10.9227
▁alkatrész	-10.9229
▁koránt	-10.9231
▁kereskedők	-10.9232
▁Lát	-10.9234
▁ellenállás	-10.9236
▁fenntartható	-10.924
▁rövidebb	-10.9242
▁95	-10.9244
járás	-10.9244
▁kisebbség	-10.9247
▁vásár	-10.9247
▁SE	-10.925
▁továbbjutás	-10.925
▁kérni	-10.925
▁magyarázat	-10.9254
▁kétezer	-10.9255
▁becsült	-10.9256
▁körzetben	-10.9257
▁kerülni	-10.9259
▁elindul	-10.926
▁plakát	-10.9263
▁int	-10.9269
▁utazó	-10.927
▁kerékpáros	-10.927
▁sikere	-10.9272
▁családja	-10.9272
▁megöl	-10.9274
▁percet	-10.9274
utat	-10.9275
▁repülés	-10.928
▁Mikor	-10.9282
▁sűrű	-10.9283
▁földi	-10.9288
▁idővel	-10.9292
▁erkölcsi	-10.9292
▁régióban	-10.9294
▁csatorná	-10.9298
▁Kérdés	-10.9298
▁Alekszandr	-10.9298
▁Labdarúgó	-10.9298
▁Rudolf	-10.9298
▁erdélyi	-10.9298
▁vancouveri	-10.9298
▁aktivitás	-10.9298
▁legerősebb	-10.9298
▁hotel	-10.9298
▁színeiben	-10.93
▁bizonyítani	-10.9301
▁Daniel	-10.9301
▁fantasztikus	-10.9302
vesztés	-10.9302
▁érzékeny	-10.9304
akció	-10.9305
▁ke	-10.9306
▁finanszírozási	-10.9308
▁Kiderült	-10.9309
▁Ezeket	-10.9311
▁fotók	-10.9311
▁próba	-10.9312
lop	-10.9313
kás	-10.9315
zek	-10.9315
▁temető	-10.9316
▁Hold	-10.932
▁28.	-10.9321
▁nyilvántartás	-10.9322
▁vizsgá	-10.9324
kérdez	-10.9324
▁vélemények	-10.9324
▁nyugdíjasok	-10.9327
vis	-10.9329
2010	-10.9329
▁kutyák	-10.9329
FC	-10.9333
▁rögzített	-10.9335
▁napirend	-10.9336
▁csoportban	-10.9339
▁technológia	-10.934
89	-10.9346
▁alapjai	-10.9346
▁számoltak	-10.935
▁csodá	-10.9354
▁turisták	-10.9354
▁lemond	-10.9354
▁áprilisi	-10.9355
kodott	-10.9355
▁költségei	-10.9359
oznak	-10.9362
tenni	-10.9365
▁történész	-10.9365
▁erősödés	-10.9366
con	-10.9367
▁fogtak	-10.9369
okért	-10.9372
▁képez	-10.9375
▁esetet	-10.9376
▁bővült	-10.9379
▁megvalósításá	-10.938
▁Berlusconi	-10.9381
▁tizenhat	-10.9381
▁zloty	-10.9381
▁Ibolya	-10.9381
▁Kádár	-10.9381
▁Csütörtökön	-10.9382
▁képregény	-10.9382
▁házaspár	-10.9382
▁Nógrád	-10.9383
63	-10.9383
▁Szép	-10.9385
▁könnyedén	-10.9385
▁hangoztatta	-10.9385
▁automatikusan	-10.9385
▁vám	-10.9386
▁Teljes	-10.9386
▁mindketten	-10.9387
▁fogadott	-10.9393
▁magában	-10.9394
-2	-10.9394
▁csal	-10.9395
▁198	-10.9395
▁igyekeznek	-10.9395
▁kereste	-10.9395
▁csökkenti	-10.9398
▁191	-10.9398
▁menekült	-10.9398
játékos	-10.9399
▁szállás	-10.9401
▁rangsor	-10.9406
▁viharos	-10.9407
▁környék	-10.9409
támogatás	-10.941
▁menedzser	-10.941
▁élére	-10.9412
▁belépő	-10.9412
▁befektetői	-10.9413
▁bocsát	-10.9414
▁Marc	-10.9414
▁Gal	-10.9418
▁77	-10.9419
▁labdá	-10.942
▁ifjúsági	-10.9423
▁kerék	-10.9424
ázó	-10.9424
ásakor	-10.9426
▁ragad	-10.9432
▁adózás	-10.9434
sáv	-10.9434
teszt	-10.9435
-100	-10.9438
san	-10.9438
▁hangsúlyt	-10.9439
▁mini	-10.9441
▁vezettek	-10.9442
▁lélek	-10.9443
▁3000	-10.9452
▁dőlt	-10.9453
▁történelm	-10.9453
▁zajlott	-10.9453
▁győz	-10.9455
▁bármely	-10.9455
rg	-10.946
▁náci	-10.9463
erek	-10.9464
▁Október	-10.9464
▁0-1	-10.9465
▁6:2	-10.9465
▁forró	-10.9465
▁tüzet	-10.9465
▁nyomaték	-10.9465
▁növekedett	-10.9466
▁Hungary	-10.9467
▁vízállás	-10.9468
▁fejlődő	-10.9469
▁változó	-10.9472
▁ellátott	-10.9473
-30	-10.9473
▁nyit	-10.9474
▁Szóval	-10.9475
▁25.	-10.9477
NI	-10.9477
▁bérlet	-10.9478
▁vezetésével	-10.9479
jogi	-10.948
▁jelentették	-10.948
46	-10.9481
▁Com	-10.9482
▁szül	-10.9482
▁pesti	-10.9483
▁ismerteti	-10.9491
▁felnőttek	-10.9494
▁gyógy	-10.95
▁feje	-10.9501
▁hónapig	-10.9501
▁elemzése	-10.9502
▁Szegedi	-10.9504
▁hívja	-10.9506
▁keltett	-10.9507
▁3-4	-10.9507
▁2-0-	-10.9509
▁békés	-10.9514
▁Ser	-10.9515
▁közvetítés	-10.9517
▁nagyot	-10.9518
hatná	-10.9523
▁fogy	-10.9524
SA	-10.9524
▁Twitter	-10.9525
▁bővülés	-10.9526
▁döntőben	-10.9528
▁filmes	-10.953
▁Alex	-10.9531
lég	-10.9533
▁me	-10.9537
▁hibák	-10.9539
▁polgármesteri	-10.954
▁veszélye	-10.954
▁gyanúsítottak	-10.9542
▁cm	-10.9542
ence	-10.9543
▁jellemzően	-10.9543
▁rendre	-10.9544
▁tervező	-10.9544
ánk	-10.9545
▁váltotta	-10.9545
▁Bra	-10.9545
▁lépések	-10.9546
▁viták	-10.9546
▁Kulturális	-10.9548
▁Értéktőzsd	-10.9548
▁Zöld	-10.9548
▁törvényhozás	-10.9549
▁Petőfi	-10.9549
▁kérdésünkre	-10.955
▁tábornok	-10.955
▁lep	-10.955
▁Jack	-10.9551
▁Volán	-10.9552
▁feltárás	-10.9556
▁Team	-10.9556
▁megtalálható	-10.9557
▁nyilvántartásba	-10.9559
▁kormánypárt	-10.9559
▁Szombaton	-10.9559
▁irodalmi	-10.9561
▁alapuló	-10.9561
▁Eger	-10.9562
jéről	-10.9562
▁épülő	-10.9563
▁zaj	-10.9563
▁jogos	-10.9567
ney	-10.9567
▁létrehoz	-10.9568
▁feladatai	-10.9569
▁beszédében	-10.9569
▁állapította	-10.9571
mutató	-10.9571
▁interjút	-10.9571
▁350	-10.9572
marad	-10.9574
▁képesség	-10.9574
▁hívják	-10.9575
▁kérték	-10.9576
▁földön	-10.9576
▁kérdésben	-10.9577
▁jobboldal	-10.9577
műsor	-10.9579
oltak	-10.9581
▁83	-10.9583
▁sajátos	-10.9583
▁vinni	-10.9584
▁számának	-10.9585
▁Barát	-10.9588
1)	-10.9589
▁tartom	-10.9591
Ma	-10.9593
▁akartam	-10.9595
▁78	-10.9602
▁végezte	-10.9602
etek	-10.9602
mán	-10.9604
▁Bill	-10.9604
▁hazugság	-10.9607
▁Ide	-10.9609
▁figyelni	-10.9613
▁rajz	-10.9615
▁hatását	-10.9615
ütötte	-10.9615
▁okai	-10.962
age	-10.9622
▁februári	-10.9625
▁frissen	-10.9625
▁támadást	-10.963
▁helyenként	-10.963
▁ellenkező	-10.9631
▁júniusban	-10.9632
▁Szergej	-10.9633
▁esküvő	-10.9633
▁Bulvár	-10.9633
▁Kálmán	-10.9633
▁Forrás	-10.9633
▁étkezés	-10.9633
▁mesterséges	-10.9634
▁figyelemmel	-10.9634
▁váratlan	-10.9634
▁Heves	-10.9634
▁kormányrendelet	-10.9635
▁Pol	-10.9635
▁adóhatóság	-10.9636
▁képeket	-10.9638
vad	-10.9638
▁háromnegyed	-10.9639
▁egyiptomi	-10.9639
▁Dallas	-10.964
▁Opel	-10.9641
▁épületet	-10.9643
▁nyugodtan	-10.9644
▁szereztek	-10.9645
▁feltételez	-10.9648
▁PSZÁF	-10.9649
▁csoportos	-10.9652
▁szintet	-10.9653
▁határozottan	-10.9653
történeti	-10.9656
▁bővül	-10.9658
▁tagadta	-10.9659
▁bírságot	-10.9661
közép	-10.9663
kereskedelem	-10.9664
500	-10.9664
▁problémákat	-10.9664
▁vezetni	-10.9665
▁79	-10.9665
▁csaj	-10.9666
▁maradék	-10.9667
▁elképzelései	-10.9667
▁értékelte	-10.9667
szögezte	-10.9668
▁fejlesztett	-10.9668
▁Fidesznek	-10.9668
▁vicc	-10.9668
mennyire	-10.9669
▁tárgyalásokat	-10.9673
ütő	-10.9674
▁tűzoltóság	-10.9676
▁kifizet	-10.9677
▁termel	-10.9678
▁kétmillió	-10.9681
▁otthont	-10.9683
▁Post	-10.9687
▁díja	-10.9688
▁besorolás	-10.9689
▁bezár	-10.969
▁dönthet	-10.9691
▁Brüsszel	-10.9692
▁javítás	-10.9692
▁hangot	-10.9696
▁finanszírozás	-10.9697
beszéd	-10.9699
adták	-10.9702
írni	-10.9702
▁ismerik	-10.9706
▁Os	-10.9708
▁jutó	-10.971
▁tisztel	-10.971
ely	-10.9713
▁százmillió	-10.9714
▁rejt	-10.9716
▁tanult	-10.9718
▁washingtoni	-10.9719
▁Frankfurt	-10.9719
dioxid	-10.9719
▁áfa	-10.9719
▁tü	-10.9719
▁gyakorol	-10.9719
▁Valószínűleg	-10.9719
▁manapság	-10.9719
▁létező	-10.9719
▁árvízvédelmi	-10.972
▁párharc	-10.972
▁igyekezett	-10.972
▁nyugodt	-10.972
▁túlzott	-10.9721
▁mérkőzésén	-10.9722
▁visszalépés	-10.9722
▁ifjú	-10.9722
▁viszi	-10.9725
odó	-10.9726
▁ilyet	-10.973
▁Un	-10.9731
▁prémium	-10.9731
▁köd	-10.9732
▁Hely	-10.9733
▁címlap	-10.9734
▁kint	-10.9735
▁senkinek	-10.9736
pontos	-10.9738
▁bevezet	-10.9738
▁ottani	-10.974
▁mondható	-10.974
hon	-10.974
▁országnak	-10.9743
▁Haza	-10.9745
▁járvány	-10.9747
▁jelentenek	-10.9747
▁állásfoglalás	-10.9748
Fotó	-10.9751
ation	-10.9751
▁naptár	-10.9753
▁oldala	-10.9755
▁fúj	-10.9755
▁töltötte	-10.9757
▁rém	-10.9762
▁2-2	-10.9765
atta	-10.9765
yl	-10.9765
▁160	-10.9765
▁vallomás	-10.9766
▁csoportja	-10.9767
ES	-10.9768
▁87	-10.9769
▁elmond	-10.9772
▁Londonban	-10.9772
▁tudatta	-10.9772
▁egykor	-10.9773
▁helyiség	-10.9774
▁népszavazás	-10.9775
lly	-10.9778
ítása	-10.9781
▁művei	-10.9783
vágás	-10.9784
▁Csehország	-10.9785
▁tulajdonosok	-10.9787
▁kezdet	-10.979
off	-10.9791
▁emleget	-10.9791
▁fokon	-10.9793
52	-10.9797
▁par	-10.9797
▁csökkentése	-10.9797
▁Kecskemét	-10.9801
▁villany	-10.9804
▁Gáspár	-10.9805
▁Windows	-10.9805
▁Általános	-10.9805
▁Összesen	-10.9806
▁Merkel	-10.9807
▁államtitkára	-10.9807
alapú	-10.981
▁rendelkezésére	-10.9812
▁bukkantak	-10.9812
▁fejtette	-10.9813
▁érdem	-10.9813
▁megpróbálta	-10.9814
ock	-10.9814
▁születik	-10.9815
▁javára	-10.9816
▁felülvizsgálat	-10.9816
▁kutatási	-10.9818
ülő	-10.9822
ssa	-10.9825
vidék	-10.9826
▁rendelkeznek	-10.9827
▁elismert	-10.9828
oda	-10.9829
szabály	-10.9829
lista	-10.983
▁Nor	-10.9831
vidéki	-10.9831
▁készültek	-10.9833
▁építeni	-10.9833
98	-10.9834
▁1,7	-10.9834
rák	-10.9835
▁megjegyzés	-10.9836
▁nagysága	-10.9838
▁igazol	-10.9838
▁tudná	-10.9841
művész	-10.9843
izált	-10.9843
▁betart	-10.9846
▁ütközés	-10.9846
▁reményked	-10.9849
▁Olaszországban	-10.985
▁su	-10.9852
▁vizsgál	-10.9853
▁elér	-10.9856
▁tényleges	-10.9859
▁oktató	-10.9861
ztak	-10.9863
gaz	-10.9864
▁csökkentette	-10.9866
▁ugrott	-10.9866
▁Egészségügy	-10.987
▁1,8	-10.9871
▁mélyen	-10.9874
▁téri	-10.9875
▁készen	-10.9876
▁részeként	-10.9878
▁Kap	-10.9879
▁győzelme	-10.9883
használat	-10.9884
▁Fr	-10.989
▁jelentek	-10.989
▁kollektív	-10.9892
▁értesülései	-10.9892
▁nyolcvan	-10.9892
▁lovas	-10.9892
lg	-10.9893
▁döntenek	-10.9894
▁kötvény	-10.9895
▁nyarán	-10.9895
▁bravúr	-10.9897
▁leminősítés	-10.9897
▁kaptunk	-10.9899
▁teljesíteni	-10.9901
▁köthető	-10.9902
▁Pont	-10.9903
gazdaság	-10.9904
▁joggal	-10.9905
▁lakók	-10.9908
▁javasolja	-10.9909
▁ügyvédje	-10.9909
▁pillér	-10.9909
▁egyházi	-10.9909
▁un	-10.991
▁házat	-10.991
▁lő	-10.9911
▁Népszava	-10.9914
▁fogott	-10.9914
▁Győri	-10.9916
91	-10.9917
negyed	-10.992
▁Szeret	-10.9923
őrök	-10.9923
▁Mel	-10.9932
▁visszavágó	-10.9934
51	-10.9936
▁decemberében	-10.9936
▁idényben	-10.9937
▁születés	-10.9937
▁ellátó	-10.9938
▁hallgatók	-10.9939
▁biztosítja	-10.994
▁5,5	-10.9943
iro	-10.9944
▁konferencián	-10.9946
▁rendes	-10.9946
▁bizottsági	-10.9948
verés	-10.9951
▁folyóirat	-10.9951
▁technológiai	-10.9952
▁jégkorong	-10.9953
▁maradni	-10.9959
▁Kur	-10.9959
ásában	-10.996
ON	-10.9961
▁készítette	-10.9964
kötő	-10.9966
▁tiltott	-10.9969
▁esélyt	-10.9971
pótlás	-10.9972
hl	-10.9973
▁javasol	-10.9975
▁szület	-10.9976
▁vízszint	-10.9977
▁fogunk	-10.9979
▁Krisztina	-10.9979
▁Március	-10.9979
▁Zsigmond	-10.9979
▁szelvény	-10.9979
▁órára	-10.998
▁dátum	-10.998
▁Kövér	-10.998
▁Jackson	-10.9981
▁Internazionale	-10.9983
▁megold	-10.9984
▁eleje	-10.9985
▁pihenő	-10.9985
▁dől	-10.9986
▁rajtuk	-10.9986
▁bírálat	-10.9987
▁szőlő	-10.9987
▁elfogadható	-10.9988
▁szponzor	-10.9988
▁jeges	-10.9992
biztos	-10.9995
▁kastély	-10.9996
ázott	-10.9998
▁kasszá	-10.9998
▁befejez	-10.9998
uló	-10.9999
ps	-10.9999
▁kop	-11
▁szélesebb	-11.0005
▁Brüsszelben	-11.0006
▁bevételek	-11.0007
▁dobogó	-11.0007
▁fogalma	-11.001
qui	-11.001
▁felhívás	-11.001
59	-11.0012
▁Haiti	-11.0012
termelés	-11.0014
▁rokon	-11.0015
seg	-11.002
kedett	-11.0022
▁térd	-11.0024
nyomás	-11.0025
▁filmje	-11.0027
▁ezeknek	-11.003
▁elnökét	-11.003
▁szabályokat	-11.003
▁ingatlanok	-11.0035
▁városában	-11.0038
▁gyújt	-11.0042
állt	-11.0043
fu	-11.0043
▁heves	-11.0045
▁cáfol	-11.0046
▁vonatkozóan	-11.0049
▁buszok	-11.006
▁tagjainak	-11.006
▁premier	-11.0065
▁Pin	-11.0065
▁alkalmazottak	-11.0066
­	-11.0068
▁Katasztrófa	-11.0068
▁Nekem	-11.0068
▁Fradi	-11.0068
▁alpolgármester	-11.0068
▁madár	-11.0068
▁csapatban	-11.0069
▁kézzel	-11.0069
▁kérdéseket	-11.007
ukra	-11.007
▁adócsökkentés	-11.0071
élt	-11.0071
list	-11.0073
énnyel	-11.0074
▁lezárták	-11.0077
▁elöntött	-11.0077
biztosítás	-11.0078
▁máig	-11.0079
▁MKB	-11.0081
▁hátul	-11.0082
állítani	-11.0086
mad	-11.0086
▁eleme	-11.0087
▁nehézségek	-11.0089
▁Erdély	-11.0089
▁hab	-11.0092
!!!	-11.0095
▁kétharmad	-11.0096
eiből	-11.0097
▁Mont	-11.0098
▁Nos	-11.01
▁(200	-11.0102
▁tartózkodó	-11.0102
▁öngyilkos	-11.0104
Európában	-11.0104
▁bál	-11.0105
▁évről	-11.0105
váltó	-11.0105
39	-11.0106
ítanak	-11.0106
▁rég	-11.0107
lay	-11.011
▁áldozatot	-11.011
▁ezres	-11.0111
▁eredményét	-11.0114
▁ránk	-11.0115
korszak	-11.0115
▁gyermeke	-11.0115
▁cége	-11.0117
▁84	-11.0121
ször	-11.0123
▁felszerelt	-11.0123
▁elkészítés	-11.0124
cikk	-11.0124
▁újból	-11.0124
▁tartás	-11.0125
áris	-11.0125
▁elárul	-11.0129
▁teljesít	-11.013
▁kártyá	-11.013
bin	-11.013
▁bevételt	-11.0135
▁felvételek	-11.0141
▁érdeke	-11.0147
▁érdeklődők	-11.0155
RC	-11.0156
▁International	-11.0157
▁kevesen	-11.0157
▁Nehéz	-11.0157
▁Cameron	-11.0157
▁Program	-11.0157
álták	-11.0158
▁idejére	-11.0159
▁Szerencsére	-11.016
▁magánélet	-11.0161
▁tapasztalható	-11.0162
szakasz	-11.0163
▁foglalkozott	-11.0165
▁kel	-11.0165
szerző	-11.0166
▁torná	-11.0166
ight	-11.0166
▁Gre	-11.0166
▁tulajdonú	-11.0167
▁Számos	-11.017
▁Videoton	-11.0171
▁NASA	-11.0173
▁érkeznek	-11.0175
▁ruha	-11.0175
ogó	-11.0175
88	-11.0175
▁kifogásol	-11.0175
▁küszöb	-11.0177
▁halálra	-11.0178
▁hírül	-11.0178
▁használták	-11.0179
▁mez	-11.0181
▁megáll	-11.0182
▁pártot	-11.0182
sin	-11.0182
▁juttat	-11.0183
▁munkahelyek	-11.0183
▁hivatali	-11.0186
▁fizetnie	-11.0188
tartalm	-11.0189
kék	-11.0191
▁szerelmes	-11.0191
▁életkor	-11.0191
▁emeltek	-11.0195
▁We	-11.02
▁felelősséget	-11.0203
▁fenyeget	-11.0207
▁publikált	-11.0209
▁kettőt	-11.021
▁dolgozói	-11.0212
▁Ur	-11.0212
▁ezekben	-11.0215
ésekor	-11.0216
▁következ	-11.0216
▁voksolás	-11.0217
▁előkészítés	-11.0218
▁ugyanazt	-11.0218
▁alapja	-11.0218
▁News	-11.022
▁Kol	-11.0221
▁Szombathely	-11.0222
▁ideiglenes	-11.0224
▁tiltakozó	-11.0225
▁hívei	-11.0227
▁nevelés	-11.0229
▁0,7	-11.023
▁kezdete	-11.0234
▁mos	-11.0236
lár	-11.0237
▁ir	-11.0239
▁Cr	-11.0239
▁(18	-11.0242
▁törvényben	-11.0243
ox	-11.0244
▁költségvetést	-11.0245
▁körülményei	-11.0247
▁Mourinho	-11.0247
▁brutális	-11.0247
▁iPhone	-11.0247
▁méghozzá	-11.0248
▁jogsértés	-11.0248
▁továbbiakban	-11.0248
▁Majd	-11.0248
▁haladt	-11.0248
▁kamatemelés	-11.0248
▁eurózóna	-11.0248
▁győzelemmel	-11.025
fény	-11.0251
ring	-11.0251
▁Külön	-11.0253
▁útra	-11.0253
▁mérés	-11.0254
▁ered	-11.0254
▁3-0	-11.0255
▁olaszok	-11.0256
▁idézett	-11.0257
▁kamera	-11.0258
▁BA	-11.0259
▁magyarul	-11.0264
▁kórházak	-11.0265
▁tb	-11.0268
▁lapunknak	-11.0268
▁erővel	-11.027
▁utakon	-11.0272
▁Kun	-11.0274
▁összehasonlítás	-11.0274
▁élénk	-11.0276
▁mélypont	-11.0277
▁vigyáz	-11.0277
▁bemutat	-11.0278
▁csatlakozás	-11.0282
ságok	-11.0283
Szolnok	-11.0284
▁kilogramm	-11.0287
▁vágott	-11.0288
▁híre	-11.0291
▁Nov	-11.0297
▁pillanatok	-11.0298
pot	-11.0298
▁államnak	-11.0299
omb	-11.0303
▁készültséget	-11.0303
▁vasút	-11.0305
▁adomány	-11.0306
▁termelő	-11.0308
utak	-11.0309
▁láz	-11.0311
▁mértek	-11.0312
▁korszerű	-11.0316
▁összefogás	-11.0317
▁báb	-11.0318
▁telek	-11.032
86	-11.032
▁Abban	-11.032
▁fest	-11.0322
▁bekerül	-11.0322
▁figyelem	-11.0323
▁Szu	-11.0323
▁(2	-11.0325
▁végezni	-11.0327
▁tönkre	-11.033
▁89	-11.0333
▁Pannon	-11.0335
észeti	-11.0338
▁regisztráció	-11.0338
▁sajtószóvivője	-11.0338
▁amellett	-11.0338
▁mostanában	-11.0338
▁alapkamat	-11.0339
▁siet	-11.0341
▁amiből	-11.0341
▁kockázati	-11.0341
▁kérnek	-11.0342
▁mindenütt	-11.0342
▁lopott	-11.0342
▁kormánybiztos	-11.0344
▁összefüggő	-11.0344
▁célzó	-11.0345
▁Természet	-11.0347
▁eltelt	-11.0347
▁ügye	-11.0347
▁Detroit	-11.0347
▁Jose	-11.0348
▁FIFA	-11.035
▁keresés	-11.0356
lni	-11.0357
▁szobor	-11.0359
▁vall	-11.0359
▁elment	-11.0361
▁amatőr	-11.0362
58	-11.0362
▁jelentősebb	-11.0363
▁forgalmat	-11.0363
64	-11.0365
▁jellemzi	-11.0367
▁áruház	-11.037
▁hívták	-11.0371
▁egyszerűbb	-11.0373
▁Nico	-11.0374
▁Kultúra	-11.0374
▁használta	-11.0375
regény	-11.0375
▁okból	-11.0376
▁Sam	-11.0379
kibocsátás	-11.0381
▁mennyisége	-11.0382
▁Vel	-11.0382
▁fogok	-11.0383
bé	-11.0384
▁leendő	-11.0386
▁tapasztalatok	-11.0387
▁kényszerít	-11.0388
enny	-11.0388
▁Mad	-11.0388
▁kiírt	-11.0391
minden	-11.0397
▁Afganisztán	-11.04
▁változást	-11.0403
▁irányítás	-11.0406
▁sorol	-11.0406
▁trükk	-11.0407
▁elhangzott	-11.0407
▁biztosította	-11.0408
▁témá	-11.0409
szán	-11.0409
ettek	-11.0414
▁Ze	-11.0422
▁pert	-11.0422
▁Albert	-11.0427
▁veretlen	-11.0428
▁januártól	-11.0428
▁alapanyag	-11.0429
pt	-11.0429
▁normál	-11.043
▁Vörös	-11.043
▁tranzakció	-11.043
▁Guardian	-11.043
▁Elmondta	-11.043
▁minimálbér	-11.043
lévő	-11.043
▁vitatott	-11.0431
▁Hírlap	-11.0431
▁hallani	-11.0432
tánc	-11.0433
▁kombi	-11.0433
▁többségi	-11.0434
któl	-11.0434
▁németországi	-11.0435
▁támad	-11.0436
▁Ty	-11.0437
▁választani	-11.0438
▁Die	-11.0439
▁nyílik	-11.0439
▁összhangban	-11.0441
▁nevén	-11.0442
▁Mindig	-11.0444
▁cikkében	-11.0445
▁2001	-11.0446
▁álláspont	-11.0448
▁kihallgatás	-11.0451
▁Cseh	-11.0451
▁programban	-11.0452
▁Sar	-11.0452
▁Stars	-11.0454
▁Szem	-11.0454
▁nemzetgazdasági	-11.0455
ednek	-11.0459
hassanak	-11.0462
edtek	-11.0463
▁megkap	-11.0465
▁megelőzően	-11.0465
▁büszke	-11.0468
▁minősít	-11.047
jüket	-11.047
ségben	-11.047
▁kelljen	-11.047
▁egymásnak	-11.0471
▁akarunk	-11.0471
▁község	-11.0474
▁pol	-11.0475
▁célok	-11.0476
etlenül	-11.0477
▁munkájá	-11.0478
▁rock	-11.0479
elet	-11.048
▁szar	-11.0481
▁mutatója	-11.0482
mas	-11.0483
▁Mindezek	-11.0485
▁Ü	-11.0485
▁áldozata	-11.0487
óka	-11.0492
▁megmaradt	-11.0495
96	-11.0496
adják	-11.05
▁Rend	-11.0501
▁alakja	-11.0502
▁finanszírozásá	-11.0504
▁becslése	-11.0505
zött	-11.0509
▁Bán	-11.0515
keret	-11.0515
▁ezekkel	-11.0519
▁államháztartás	-11.0521
▁kancellár	-11.0521
▁Pri	-11.0522
▁Média	-11.0522
▁Megasztár	-11.0523
▁iPad	-11.0523
▁veszprémi	-11.0523
▁Rövid	-11.0523
▁növelte	-11.0523
▁műhold	-11.0523
▁dupla	-11.0523
▁baráti	-11.0523
▁munkaviszony	-11.0523
???	-11.0523
▁meghirdetett	-11.0524
▁előrelépés	-11.0524
▁vesztes	-11.0526
rol	-11.0527
▁gerinc	-11.0529
▁bízik	-11.053
zták	-11.0532
beteg	-11.0533
színű	-11.0533
▁Kh	-11.0534
▁költsége	-11.0534
▁egymilliárd	-11.0534
▁Ilyenkor	-11.0534
▁War	-11.0536
▁szálló	-11.0536
▁táská	-11.0536
▁Kül	-11.0537
▁megszüntet	-11.0538
rik	-11.054
54	-11.054
▁Oroszországban	-11.0541
▁emberiség	-11.0542
▁Gondol	-11.0543
▁kockázatot	-11.0548
▁rangadó	-11.055
▁eredményeit	-11.0552
;"	-11.0554
▁sérültek	-11.0554
▁értékek	-11.0556
▁vásárolni	-11.0557
▁Fiat	-11.0558
▁4-1	-11.0558
▁euróért	-11.0559
▁borult	-11.0559
▁rendeznek	-11.0562
óceán	-11.0562
▁kan	-11.0565
ákkal	-11.0565
▁megtenni	-11.0565
▁nevelő	-11.0566
▁megelőzés	-11.0566
▁pályázatot	-11.0567
▁veszélyt	-11.0571
▁tanulság	-11.0574
▁mondtam	-11.0574
▁Bru	-11.0575
▁kilátás	-11.0575
rekord	-11.0576
frakció	-11.0577
▁Kör	-11.0578
▁fű	-11.058
pla	-11.0582
▁támogatások	-11.0582
▁gondjai	-11.0584
▁árokba	-11.0585
lőd	-11.0586
▁lóerő	-11.0587
▁Debrecenben	-11.0588
▁olvasók	-11.0591
▁Petr	-11.0592
▁szerződése	-11.0594
▁vállalati	-11.0595
pál	-11.0599
▁felvett	-11.0601
hatták	-11.0601
▁vékony	-11.0603
ille	-11.0604
▁tervezik	-11.0605
▁Véleménye	-11.0607
▁végrehajt	-11.0608
mondó	-11.0608
▁Je	-11.0609
lövő	-11.0609
▁kezelő	-11.0609
menni	-11.061
siker	-11.061
Ú	-11.0612
▁tekinti	-11.0614
▁könny	-11.0615
▁Chris	-11.0615
▁Hosszú	-11.0616
▁Button	-11.0616
▁korrekt	-11.0616
▁Dénes	-11.0616
▁pohár	-11.0616
▁életmód	-11.0619
▁Ahhoz	-11.0619
▁neked	-11.0619
▁szembesül	-11.0619
▁társaságok	-11.062
▁euróra	-11.0621
▁91	-11.0622
▁állapít	-11.0622
▁Sha	-11.0623
▁Chi	-11.0626
▁Angliában	-11.0627
▁megszerzésé	-11.0629
mut	-11.063
mát	-11.0633
▁korlátozott	-11.0634
▁baja	-11.0638
szél	-11.0639
▁alapítója	-11.0642
rr	-11.0645
▁Erika	-11.0645
▁távoli	-11.0646
ütött	-11.0649
etlenség	-11.065
▁nyíltan	-11.0653
ári	-11.0654
▁szerelt	-11.0654
▁mp	-11.0654
kéz	-11.0656
demokrata	-11.0656
lövés	-11.0656
▁ábrázol	-11.0657
▁kétség	-11.0658
▁királyi	-11.0661
ozták	-11.0663
▁tájékozód	-11.0663
evő	-11.0664
▁Max	-11.0664
▁műhely	-11.0667
▁okát	-11.0669
edni	-11.0674
OP	-11.0678
▁teret	-11.0678
!!	-11.068
▁mutattak	-11.068
▁börtönben	-11.0683
▁Vancouver	-11.0689
védők	-11.069
uti	-11.0691
▁gyengülés	-11.0695
▁kapuba	-11.0697
znak	-11.0697
▁rendőröket	-11.0698
▁rendőrséget	-11.0698
▁előrejelzések	-11.0699
szag	-11.0702
▁csodál	-11.0706
▁szakad	-11.0707
tar	-11.0709
▁jegyző	-11.0709
gyűjtő	-11.071
▁virtuális	-11.071
▁Kocsis	-11.071
▁választópolgár	-11.071
▁Jersey	-11.071
▁eséllyel	-11.0711
▁Szakszervezet	-11.0711
▁politikájá	-11.0711
▁ahová	-11.0711
▁Ronaldo	-11.0711
nu	-11.0712
▁interjújában	-11.0713
▁belvízvédelmi	-11.0713
▁nevezték	-11.0714
▁Ex	-11.0715
ick	-11.0715
▁működtetés	-11.0716
▁Csakhogy	-11.0716
▁szerkesztőség	-11.0717
▁látjuk	-11.0721
házi	-11.0721
▁egyeztet	-11.0722
csik	-11.0724
▁kód	-11.0725
▁King	-11.0725
▁álláspontja	-11.0727
▁kol	-11.073
▁hold	-11.0735
▁szalon	-11.0735
▁bírálta	-11.0737
▁kezel	-11.0742
▁eredményez	-11.0742
▁tudatos	-11.0746
▁kínos	-11.0749
▁tüntetők	-11.0749
▁elterjedt	-11.075
▁árulta	-11.075
nar	-11.075
gyűjtemény	-11.075
sérülés	-11.0751
család	-11.0752
▁papírok	-11.0754
▁adag	-11.0755
▁kom	-11.0756
▁Col	-11.0756
▁Orosz	-11.0758
▁állása	-11.076
▁fák	-11.0763
▁fogjuk	-11.0764
▁olvasni	-11.0769
▁csapatnak	-11.077
▁felelősségre	-11.077
▁megelőz	-11.0771
▁2-1-	-11.0771
▁nyugdíjpénztár	-11.0772
▁cikkek	-11.0772
▁holttest	-11.0773
cha	-11.0776
▁Massa	-11.0776
▁nyilatkozni	-11.0779
hassa	-11.0779
▁szárny	-11.0782
▁Bab	-11.0784
▁feldolgozás	-11.0785
▁Pla	-11.0788
▁kiírás	-11.0789
ünkre	-11.0789
▁inter	-11.0791
▁érdeklődő	-11.0791
rid	-11.0791
▁foglalkoztató	-11.0794
▁bent	-11.0794
▁kedvezőtlen	-11.0798
eztek	-11.0799
92	-11.08
▁döntéseket	-11.0802
▁kezét	-11.0802
▁diplomá	-11.0804
▁Biztonság	-11.0806
▁Egyiptom	-11.0806
▁Hungária	-11.0806
▁Kedves	-11.0806
▁Suzuki	-11.0806
▁konferencia	-11.0806
▁kuratórium	-11.0806
▁közeljövőben	-11.0806
▁külföldre	-11.0806
▁eleinte	-11.0806
▁növelni	-11.0806
▁javítani	-11.0807
▁PSV	-11.0807
▁különben	-11.0808
▁kategóriába	-11.0809
▁foglalkozás	-11.081
▁egyenként	-11.081
▁rámutatott	-11.081
▁mindhárom	-11.081
százezer	-11.081
zene	-11.081
▁szürke	-11.0812
▁modellt	-11.0812
pin	-11.0813
▁kedvezőbb	-11.0814
▁bizonyítja	-11.082
▁birtokában	-11.082
ónak	-11.0822
▁pasi	-11.0822
▁utólag	-11.0823
▁másikat	-11.0823
▁2003	-11.0825
boly	-11.0826
▁tehetséges	-11.0827
atok	-11.0828
▁tartózkodás	-11.0828
városi	-11.0829
▁élelmiszerek	-11.0829
hel	-11.083
▁terhes	-11.0831
▁Hall	-11.0831
▁háromszoros	-11.0832
▁zenész	-11.0833
▁kényelmes	-11.0833
▁szövetséges	-11.0834
▁helyszínről	-11.0835
omban	-11.0837
pat	-11.0838
▁Grand	-11.0844
▁senkit	-11.0846
ább	-11.0848
▁1997-	-11.0849
▁autóban	-11.0852
▁fűzte	-11.0852
▁hazánkban	-11.0852
▁Rom	-11.0853
▁bekerült	-11.0855
▁pontja	-11.0855
well	-11.0856
▁alkalmazni	-11.0857
jaként	-11.086
▁érvelt	-11.0862
▁félmillió	-11.0868
▁szólnak	-11.0869
▁vaj	-11.0872
▁bíróságon	-11.0872
▁Törökország	-11.0873
gyűjtés	-11.0874
rúg	-11.0875
▁1999-	-11.0876
▁sakk	-11.0877
▁megváltoztat	-11.0877
▁búj	-11.0879
▁vállalja	-11.0884
▁hozzájárul	-11.0889
su	-11.0889
világbajnokság	-11.089
mérő	-11.0895
vill	-11.0896
▁előírt	-11.0897
▁Újra	-11.0898
▁érzik	-11.0898
jek	-11.0898
▁másképp	-11.0898
▁Gyermek	-11.0898
knál	-11.0899
▁jogállam	-11.0901
▁tolvaj	-11.0901
_	-11.0902
©	-11.0902
▁Financia	-11.0902
▁spórol	-11.0902
▁megtörtént	-11.0902
▁sétál	-11.0902
▁játszanak	-11.0902
▁Nobel	-11.0902
▁közelít	-11.0903
▁kísér	-11.0903
▁határozza	-11.0905
▁korabeli	-11.0905
▁sehol	-11.0906
▁katasztrófá	-11.0907
▁napközben	-11.0911
▁kezelt	-11.0912
ura	-11.0912
▁fajta	-11.0914
▁Hoffmann	-11.0916
ükön	-11.0916
▁okozza	-11.0916
szim	-11.0916
▁látás	-11.0916
▁teheti	-11.0918
▁mesél	-11.0926
▁lőtte	-11.0926
▁opera	-11.0927
▁legyőz	-11.0928
▁maguknak	-11.0933
▁tudat	-11.0934
▁szerzői	-11.0934
▁gólját	-11.0935
▁elkezdte	-11.0937
▁gyári	-11.0938
▁lényeges	-11.0941
▁eladni	-11.0941
▁augusztusban	-11.0942
▁kutyá	-11.0943
▁www	-11.0945
kereszt	-11.0947
▁festő	-11.0948
szob	-11.0948
kiállítás	-11.0949
▁mor	-11.0949
számlá	-11.0949
▁szavazatok	-11.0951
ázás	-11.0953
ace	-11.0954
▁lépcső	-11.0954
▁részesül	-11.0955
▁baba	-11.0955
▁versenyez	-11.0957
▁0-2	-11.0958
▁szenvedély	-11.0959
▁vesztett	-11.0959
folyam	-11.096
▁bánt	-11.0961
gas	-11.0963
édi	-11.0964
▁másod	-11.0964
▁nyomon	-11.0965
▁károk	-11.0965
ölte	-11.0966
essen	-11.0971
▁válogat	-11.0972
▁országba	-11.0972
▁Kir	-11.0973
▁konferenciá	-11.0976
▁reptér	-11.0976
▁talp	-11.0977
Le	-11.0978
▁koalíció	-11.0981
▁multi	-11.0982
szóró	-11.0986
▁módosít	-11.0989
▁elveszít	-11.0989
▁módja	-11.099
▁ékszer	-11.0994
▁meghívás	-11.0995
▁közöl	-11.0995
▁autópályán	-11.0998
▁célt	-11.0998
▁Emiatt	-11.0999
▁afganisztáni	-11.0999
▁fegyelmi	-11.0999
▁játssza	-11.0999
▁legsúlyosabb	-11.0999
▁ombudsman	-11.0999
▁tragédia	-11.0999
▁posta	-11.1
▁ezentúl	-11.1
▁visszafogott	-11.1001
▁legközelebb	-11.1001
▁Can	-11.1001
▁légiós	-11.1001
▁sohasem	-11.1002
▁merész	-11.1002
▁emlegetett	-11.1003
▁kinevezés	-11.1003
▁Egyszer	-11.1003
▁működnek	-11.1003
szoros	-11.1004
▁Idő	-11.1005
▁demonstráció	-11.1005
▁elfogadhatatlan	-11.1007
▁kérésére	-11.1008
-40	-11.1009
78	-11.101
▁unalmas	-11.1011
▁konstrukció	-11.1011
▁Pl	-11.1012
tatja	-11.1012
▁törvényi	-11.1021
vezetője	-11.1021
▁figyelmeztetés	-11.1022
▁cáfolta	-11.1023
▁áldozatai	-11.1023
▁Rossz	-11.1025
20-	-11.1028
▁üzemeltet	-11.1028
▁jen	-11.1033
▁történetének	-11.1033
▁forrásból	-11.1033
méteres	-11.1035
kártyá	-11.1035
▁Air	-11.1035
enko	-11.1036
▁Párizsban	-11.1036
▁zárja	-11.1037
▁Angel	-11.1037
▁szebb	-11.1038
▁Kas	-11.1038
▁postá	-11.104
▁merül	-11.1041
ukrán	-11.1043
például	-11.1043
ever	-11.1044
▁Hor	-11.1045
▁hétköznapi	-11.1046
▁vendége	-11.1047
kiegyensúlyozott	-11.1047
▁szeretett	-11.1048
▁ügyei	-11.1048
parti	-11.1052
▁válnak	-11.1053
▁Szabadság	-11.1057
▁letartóztatásba	-11.1058
▁csatlakoz	-11.1058
növel	-11.1058
Al	-11.1059
ern	-11.1062
fogta	-11.1063
▁érhető	-11.1064
▁elkészül	-11.1064
▁megér	-11.1066
tum	-11.1068
hír	-11.1069
▁szállt	-11.1071
▁pénzek	-11.1074
sztár	-11.1076
hamisítás	-11.1076
▁keményen	-11.1079
▁Pet	-11.108
▁leszünk	-11.1081
▁kisváros	-11.1082
▁Maga	-11.1083
▁kifizetés	-11.1085
▁Városi	-11.1087
▁tevékenységet	-11.1087
▁foglalkoztatási	-11.1092
▁rendszere	-11.1092
▁hónapra	-11.1092
túl	-11.1094
▁Sarkozy	-11.1097
▁napvilágot	-11.1097
▁munkával	-11.1097
▁látszott	-11.1097
▁lennie	-11.1097
▁próbálkozás	-11.1097
▁Ok	-11.1098
▁hím	-11.1099
▁közterület	-11.1099
▁eléggé	-11.1099
▁magához	-11.1099
▁romániai	-11.1099
▁Sebastian	-11.1099
betegség	-11.11
▁alapul	-11.1102
▁Andor	-11.1105
▁Raj	-11.1106
▁vizsgálták	-11.1106
▁Tudományos	-11.1109
▁egyenlített	-11.1109
▁Sor	-11.1109
ájában	-11.111
▁Kiadó	-11.111
▁lakott	-11.1111
▁bennem	-11.1116
▁beszélnek	-11.1117
▁Bud	-11.1118
▁támogatására	-11.1122
▁ellenében	-11.1126
ebbek	-11.1126
▁érdeklőd	-11.1126
▁régészet	-11.1127
▁értékesített	-11.1128
▁Sim	-11.1128
▁csekély	-11.1129
▁hozzáállás	-11.1129
▁szolgáltat	-11.1132
▁kapcsolatba	-11.1132
▁toll	-11.1135
▁egymáshoz	-11.1136
▁tekintett	-11.1136
álják	-11.1136
biz	-11.1137
▁legtöbbet	-11.1141
botrány	-11.1142
▁ütköz	-11.1145
▁jelentést	-11.1146
gé	-11.1146
miféle	-11.1149
▁károkat	-11.1149
▁boldogság	-11.1152
▁ellát	-11.1152
▁csapattal	-11.1153
kom	-11.1153
▁(10	-11.1153
ünkben	-11.1154
▁állítottak	-11.1156
▁árbevétel	-11.116
állni	-11.1162
▁125	-11.1162
7)	-11.1163
▁bak	-11.1163
▁adatot	-11.1164
▁Tech	-11.1167
▁nőket	-11.1168
MA	-11.1169
szu	-11.1172
▁megerősít	-11.1174
▁jutás	-11.1174
▁aláír	-11.1178
essék	-11.1178
▁darabot	-11.1178
▁kiadása	-11.118
▁184	-11.1181
ef	-11.1181
▁jutnak	-11.1184
▁feltétele	-11.1187
papír	-11.1189
▁Tri	-11.1192
▁csendes	-11.1193
▁Clinton	-11.1196
▁Fazekas	-11.1196
▁császár	-11.1196
▁keveset	-11.1196
▁legjelentősebb	-11.1196
▁százalékponttal	-11.1196
▁Ismét	-11.1196
▁Magazin	-11.1196
▁pályaudvar	-11.1196
hesse	-11.1197
▁felépül	-11.1198
▁10-15	-11.1198
▁veszélybe	-11.1199
▁irat	-11.1201
▁szakított	-11.1203
▁tárgya	-11.1203
▁Angol	-11.1203
▁Emil	-11.1205
▁Port	-11.1205
▁Száz	-11.1205
▁Személy	-11.1205
▁minősítette	-11.1206
lsősorban	-11.1207
▁hagyni	-11.1208
▁Vám	-11.1209
▁maradjon	-11.1209
▁függően	-11.1211
▁leszögezte	-11.1211
▁elnököt	-11.1212
▁hétig	-11.1213
▁gyakorlatban	-11.1213
▁helyek	-11.1214
▁sérülést	-11.1214
▁utalva	-11.1216
▁lezár	-11.1217
▁Rod	-11.1219
▁riasztás	-11.1219
▁helyeken	-11.1226
▁felszerelés	-11.1226
▁kocsit	-11.1227
▁letartóztatását	-11.1228
▁visszatérő	-11.123
csökkenés	-11.1232
▁AC	-11.1232
áli	-11.1232
▁jósol	-11.1237
▁birtok	-11.1239
▁Olimpia	-11.1243
▁gyerekeknek	-11.1244
▁értéket	-11.1247
▁utazási	-11.1248
techniká	-11.1253
▁pat	-11.1254
kapcsolat	-11.1256
▁kitörés	-11.1257
törő	-11.1257
▁alpesi	-11.1258
▁gyártott	-11.1259
róf	-11.1259
▁(26	-11.1263
▁1-0-	-11.1264
▁ráta	-11.1264
gin	-11.1266
forduló	-11.1266
▁raktár	-11.1268
eznek	-11.127
▁eljárásban	-11.1271
anda	-11.1272
OR	-11.1272
07	-11.1274
▁érdekli	-11.1275
szervező	-11.1283
▁Hal	-11.1286
BA	-11.1288
▁szabályai	-11.1289
encia	-11.1289
▁rabló	-11.1292
▁pályá	-11.1293
számú	-11.1293
▁Sta	-11.1294
▁DVD	-11.1296
▁eltiltás	-11.1296
▁iszlám	-11.1296
▁konyhá	-11.1296
▁legismertebb	-11.1297
▁Pintér	-11.1297
▁róluk	-11.1297
▁alapszakasz	-11.1298
-20	-11.1298
its	-11.1298
▁Túl	-11.1298
▁kft	-11.1298
▁párbeszéd	-11.1298
▁gyanújával	-11.1299
▁jelezték	-11.1299
▁vádolják	-11.1299
▁haiti	-11.1299
▁kisgyerek	-11.13
▁kínált	-11.1301
▁megtalálták	-11.1301
▁végrehajtásá	-11.1301
▁választásokat	-11.1302
▁műv	-11.1302
▁tizedik	-11.1302
▁Székely	-11.1302
▁váratlanul	-11.1302
▁Vid	-11.1303
▁Különösen	-11.1304
▁pakisztáni	-11.1304
▁MLSZ	-11.1305
mir	-11.1306
▁félelem	-11.1307
▁lóg	-11.1307
▁Juli	-11.1308
▁gyűjtő	-11.1308
▁kitűnő	-11.1309
▁korán	-11.131
előtt	-11.131
▁megszűnik	-11.1311
ecse	-11.1312
▁környezetben	-11.1314
▁Amit	-11.1314
▁nyolcaddöntő	-11.1315
▁Jelen	-11.1316
▁(1-0)	-11.1317
▁arab	-11.1317
▁mozgat	-11.1319
▁támogatásával	-11.132
▁kijelző	-11.132
▁mm	-11.132
▁leány	-11.1324
helyek	-11.1325
▁rendesen	-11.1326
hajtott	-11.1327
▁cégnél	-11.1329
▁eszközt	-11.133
emelt	-11.1334
kivel	-11.1335
unkban	-11.1338
▁fejlesztő	-11.1346
▁megállapítása	-11.1346
▁Green	-11.1347
▁kérhet	-11.135
▁készítő	-11.1351
arányos	-11.1351
íg	-11.1351
▁energiát	-11.1352
rn	-11.1355
▁rendszerek	-11.1358
▁értékesít	-11.1359
▁jogai	-11.136
asztal	-11.1365
▁kivált	-11.1375
▁2012	-11.1378
▁Sár	-11.138
mini	-11.1381
▁Abu	-11.1382
▁bekövetkez	-11.1385
▁titok	-11.1387
▁Che	-11.1389
▁különbségek	-11.139
▁Pesti	-11.1392
▁nőnek	-11.1395
▁őriz	-11.1395
▁Puskás	-11.1397
▁eredménnyel	-11.1397
▁legfelső	-11.1397
▁pezsgő	-11.1397
▁ETO	-11.1397
▁pusztán	-11.1397
▁Szerbia	-11.1398
▁bevonásával	-11.1398
▁Harry	-11.1398
▁bocsánatot	-11.1399
▁érezhető	-11.1401
lia	-11.1403
▁frakcióvezetője	-11.1403
▁belépés	-11.1406
▁védelmét	-11.1407
65	-11.1408
hn	-11.1409
▁vezetőjének	-11.1409
▁veszélyezteti	-11.141
▁felvenni	-11.141
▁Sh	-11.1412
▁csip	-11.1412
▁szavaztak	-11.1412
▁bomba	-11.1414
69	-11.1415
▁pártnak	-11.1416
▁acél	-11.1417
▁fertőzés	-11.1417
▁demokraták	-11.1418
▁kerüljön	-11.1419
▁fontot	-11.1419
▁tartósan	-11.1423
▁Cap	-11.1423
cho	-11.1424
▁kísérő	-11.1426
▁támadt	-11.1429
▁terem	-11.1431
▁engedték	-11.1432
▁elmenekült	-11.1433
uj	-11.1436
▁Mű	-11.144
▁veszteséget	-11.144
▁taxi	-11.1446
▁Ken	-11.1447
▁esés	-11.1449
▁meghosszabbítás	-11.1452
előny	-11.1453
▁helyről	-11.1454
▁hajnal	-11.1454
dia	-11.1457
vető	-11.1458
dőlt	-11.1458
▁Mini	-11.1459
▁győzni	-11.146
!)	-11.146
kg	-11.1461
▁megtesz	-11.1462
ác	-11.1463
tikai	-11.1465
▁ügyes	-11.1465
▁játékost	-11.1468
▁felrobbant	-11.147
▁megvásárol	-11.1474
▁történteket	-11.1474
▁árverés	-11.1477
ellen	-11.1478
▁kapunk	-11.1483
▁Hon	-11.1484
▁má	-11.1489
▁vonás	-11.1491
▁szerver	-11.1492
▁nyíl	-11.1496
▁lakásban	-11.1497
▁segítette	-11.1498
▁Fulham	-11.1499
▁Mindenesetre	-11.1499
▁csepeli	-11.1499
▁beleértve	-11.1499
esből	-11.15
▁kamara	-11.1502
▁bekövetkezett	-11.1502
hassák	-11.1503
▁kutatócsoport	-11.1505
▁növelésé	-11.1505
▁munkaadó	-11.1506
▁felsőoktatás	-11.1507
▁anyja	-11.1507
▁menedzsere	-11.1507
▁kommentár	-11.1508
▁mechanizmus	-11.1508
ságra	-11.1509
▁felhő	-11.151
▁rugalmas	-11.1511
▁meghallgat	-11.1511
▁Halál	-11.1512
▁követelte	-11.1512
▁szivattyú	-11.1512
nci	-11.1512
▁viadal	-11.1513
▁Ram	-11.1513
▁Mes	-11.1513
művek	-11.1514
"...	-11.1515
▁pszichológus	-11.1515
▁elmélet	-11.1516
▁okokból	-11.1516
▁munkanélküli	-11.1517
▁erkölcs	-11.152
▁Saját	-11.1521
▁turizmus	-11.1521
▁terméket	-11.1524
▁korábbinál	-11.1524
▁jogkör	-11.1524
▁Afrika	-11.1524
▁fr	-11.1525
▁gyermekei	-11.1525
▁érv	-11.1527
▁csatornák	-11.1529
▁budai	-11.1531
▁életüket	-11.1532
▁látogatók	-11.1534
sky	-11.1535
▁cser	-11.1541
▁csökkenése	-11.1542
uck	-11.1547
▁para	-11.1547
gyerek	-11.1548
▁fogyasztási	-11.1549
▁kapcsolatai	-11.1551
nyíl	-11.1552
▁véres	-11.1553
bil	-11.1553
▁1989-	-11.1553
hatna	-11.1557
▁színpad	-11.1558
▁Magyarországnak	-11.1559
AC	-11.1561
szerep	-11.1561
▁Szegeden	-11.1561
ala	-11.1562
rendezés	-11.1564
▁végrehajtó	-11.1565
▁ültet	-11.1566
▁megőrz	-11.1566
▁Far	-11.1567
▁fogták	-11.1568
▁fotós	-11.1569
▁szög	-11.1574
▁Bécs	-11.1575
▁hozzák	-11.1577
nyelv	-11.1577
mokratikus	-11.1578
▁vádlottak	-11.1581
zem	-11.1582
hessenek	-11.1583
kerék	-11.1587
▁szemet	-11.1588
mérgezés	-11.1593
▁minap	-11.1599
▁rakéta	-11.16
▁170	-11.16
Docler	-11.1602
▁madridi	-11.1602
▁világhírű	-11.1602
▁Bloomberg	-11.1602
▁gonosz	-11.1602
▁Portugália	-11.1602
▁roppant	-11.1602
▁Erdei	-11.1602
▁Antonio	-11.1602
://	-11.1603
▁méh	-11.1603
kop	-11.1603
▁emelkedtek	-11.1603
▁fázis	-11.1603
▁árhullám	-11.1603
▁alkalmával	-11.1604
▁parkolás	-11.1604
▁Felső	-11.1605
▁emelkedő	-11.1605
▁árnyék	-11.161
▁Elég	-11.1611
▁vízi	-11.1612
▁Pá	-11.1615
▁pilótá	-11.1616
▁szólította	-11.1618
▁Semmi	-11.1618
▁kormányok	-11.1621
▁mentes	-11.1623
▁influenza	-11.1624
▁felfüggesztett	-11.1625
▁hányad	-11.1626
▁virradóra	-11.1626
gatni	-11.1627
▁dohányzás	-11.1627
▁beszélve	-11.1627
▁Kicsi	-11.1628
képző	-11.163
▁felbukkan	-11.163
▁mérkőzések	-11.1631
▁lányt	-11.1633
aiból	-11.1635
);	-11.1637
▁állandóan	-11.1641
▁vizsgálta	-11.1641
▁viselt	-11.1642
▁bajnokságot	-11.1643
▁övé	-11.1645
▁Csa	-11.1647
▁rendelkez	-11.1648
▁hagyományosan	-11.1649
▁utaló	-11.1649
hullám	-11.1651
▁számítógépes	-11.1651
állapot	-11.1652
osztrák	-11.1653
▁képviselet	-11.1659
ther	-11.1662
▁megvalósul	-11.1663
▁téved	-11.1663
och	-11.1664
▁kikerül	-11.1665
▁számíthatnak	-11.1668
▁beindul	-11.1669
▁irányított	-11.1671
mert	-11.1674
▁ügyekben	-11.1677
eszköz	-11.1683
▁gyerekei	-11.1683
▁formál	-11.1683
▁környez	-11.1685
▁szerzők	-11.1686
▁munkába	-11.1691
▁csábít	-11.1692
▁kezébe	-11.1692
▁kez	-11.1693
▁részleg	-11.1695
▁amin	-11.17
▁Sir	-11.17
▁Sand	-11.1705
▁Bol	-11.1705
▁Hó	-11.1705
▁Nyilván	-11.1706
▁moratórium	-11.1706
▁Medvegyev	-11.1706
▁automata	-11.1706
▁incidens	-11.1706
▁verekedés	-11.1706
▁ördög	-11.1706
▁Hitler	-11.1707
▁mostanra	-11.1708
▁csata	-11.1708
▁beton	-11.1708
▁sebességgel	-11.1708
72	-11.1709
▁Tottenham	-11.1712
▁laboratórium	-11.1712
▁változatlanul	-11.1712
▁irányította	-11.1713
▁pontosabban	-11.1713
▁kamerák	-11.1715
An	-11.1717
▁utazik	-11.1719
sd	-11.172
▁kívánják	-11.1723
▁DVSC	-11.1723
▁Dun	-11.1724
▁doktor	-11.1727
▁körülményeit	-11.1728
▁fejleszt	-11.1728
▁októberében	-11.173
▁üteme	-11.173
▁sértés	-11.1731
▁világra	-11.1732
▁feltételei	-11.1733
▁der	-11.1733
▁intézkedései	-11.1734
bány	-11.1735
▁pályát	-11.1735
ítsa	-11.1736
▁járatok	-11.1738
▁hagyták	-11.1741
követ	-11.1741
▁Ali	-11.1746
roll	-11.1751
▁gyűrű	-11.1752
▁érdekei	-11.1753
EN	-11.1756
▁Pu	-11.1756
▁sérti	-11.1757
cégek	-11.1758
▁tornán	-11.1758
▁bejárat	-11.1759
lus	-11.1764
▁Ká	-11.1765
▁múl	-11.1765
fogni	-11.1765
blog	-11.1766
telenül	-11.1766
▁komplex	-11.1769
▁Kultúr	-11.177
▁negyedévi	-11.1771
▁életének	-11.1775
▁engedte	-11.1777
▁legjobbja	-11.1778
▁elnökségi	-11.1778
▁cselekmény	-11.178
lásd	-11.178
▁csapattársa	-11.1781
jelző	-11.1781
▁emelni	-11.1782
▁vonult	-11.1782
▁függetlenség	-11.1782
OS	-11.1785
dos	-11.1785
▁együttese	-11.1786
menő	-11.1787
▁rajzol	-11.1788
▁tényezők	-11.1788
▁értékét	-11.1789
▁gondolni	-11.1789
▁népszerűsít	-11.179
ájának	-11.1792
▁szégyen	-11.1793
▁adók	-11.1794
▁meggyőző	-11.1796
▁magyarság	-11.1796
piacon	-11.1797
▁Alkotmány	-11.1797
fizet	-11.1798
He	-11.1801
▁szabadul	-11.1802
▁célpont	-11.1803
▁estek	-11.1803
▁vallomást	-11.1804
jegyzés	-11.1805
ségük	-11.1805
▁zsidók	-11.1806
▁építő	-11.181
▁ölt	-11.1811
dunántúli	-11.1811
▁belőlük	-11.1811
▁dopping	-11.1811
▁YouTube	-11.1811
csatorn	-11.1812
▁Beckham	-11.1812
▁Legutóbb	-11.1812
▁józan	-11.1812
▁Nicolas	-11.1812
▁csodálatos	-11.1812
▁megkezdődött	-11.1812
▁szombathelyi	-11.1812
▁korona	-11.1812
▁nézzük	-11.1813
▁tárcá	-11.1813
▁fed	-11.1813
▁magáról	-11.1815
▁útvonal	-11.1816
▁Romániában	-11.1817
▁Andy	-11.1817
▁Kom	-11.1817
▁folyosó	-11.1818
▁750	-11.182
▁listáját	-11.182
ET	-11.182
▁bajba	-11.1821
▁kérik	-11.1821
▁kidolgozott	-11.1822
▁bukás	-11.1823
▁egyezmény	-11.1823
▁fogadták	-11.1823
jo	-11.1824
▁link	-11.1824
▁államban	-11.1826
▁szigetország	-11.1828
csal	-11.183
▁Szinte	-11.1832
part	-11.1832
csuk	-11.1833
▁feleségét	-11.1833
nyu	-11.1833
▁kártya	-11.1835
▁Fog	-11.1838
pro	-11.1839
▁nyilatkozatot	-11.184
▁időjárási	-11.184
▁jótékonyság	-11.184
▁vonta	-11.184
gól	-11.1842
▁játéknap	-11.1845
▁eltér	-11.1846
▁részének	-11.1849
▁dokumentumot	-11.185
▁hoznak	-11.1851
▁gazdá	-11.1851
adott	-11.1851
vadász	-11.1854
▁Város	-11.1854
▁lépnek	-11.1856
kodik	-11.1864
▁személyt	-11.1864
▁Kos	-11.1869
▁pad	-11.187
▁lépése	-11.1871
▁produkál	-11.1876
lemez	-11.1878
▁háttérben	-11.1878
▁soron	-11.1878
▁tulajdonság	-11.1882
▁megszület	-11.1883
▁0,6	-11.1884
▁pilóták	-11.1884
▁egyszeri	-11.1885
ásban	-11.1886
cio	-11.1886
▁műsorban	-11.1891
▁csecsemő	-11.1893
zom	-11.1895
▁pályázatok	-11.1897
▁zsák	-11.1898
talanul	-11.1898
▁pop	-11.1899
▁váltás	-11.19
kány	-11.1901
▁művek	-11.1902
▁vittek	-11.1906
▁Kris	-11.191
▁mennyit	-11.1911
row	-11.1917
▁ügyfelei	-11.1918
▁Vatikán	-11.1918
▁kompromisszum	-11.1918
▁palack	-11.1918
▁Mónika	-11.1918
nyel	-11.1918
▁válaszadók	-11.1918
▁Ryan	-11.1918
▁kivéve	-11.1918
▁elszámoltatás	-11.1918
▁napsütés	-11.1918
▁főhős	-11.1919
▁csempész	-11.192
▁Világkupa	-11.192
▁elsején	-11.192
▁húzta	-11.192
▁Ál	-11.1921
▁Lotus	-11.1921
▁nagyváros	-11.1922
▁járművet	-11.1922
Kaida	-11.1922
▁nyilatkozva	-11.1922
▁elfogad	-11.1922
összeg	-11.1923
▁klasszis	-11.1924
▁építmény	-11.1924
▁gyalog	-11.1925
▁spanyolok	-11.1926
▁fennáll	-11.1927
▁kedvez	-11.1928
▁Hotel	-11.1928
▁válaszolva	-11.1928
kiadás	-11.1928
▁többségében	-11.1929
▁áradás	-11.193
▁számíthatunk	-11.1931
▁szeptemberi	-11.1931
▁Sas	-11.1932
▁nyeremény	-11.1933
▁stratégia	-11.1934
▁jelentkezés	-11.1934
▁Dab	-11.1934
▁tudna	-11.1935
▁tök	-11.1935
53	-11.1936
▁vesszük	-11.1938
alizmus	-11.1939
▁hajléktalanok	-11.1939
▁rendbe	-11.194
▁láttak	-11.194
ance	-11.1941
▁sajtóban	-11.1942
▁megállapították	-11.1946
▁kritiká	-11.1947
▁igényei	-11.1947
▁3-2	-11.1949
onc	-11.195
▁emberei	-11.195
▁egymásra	-11.1956
▁junior	-11.1956
▁oroszlán	-11.1957
▁megítélése	-11.1959
▁kongresszus	-11.1959
▁Gazdasági	-11.1961
▁haladó	-11.1962
dél	-11.1964
▁támogatni	-11.1964
uch	-11.1966
fürdő	-11.1971
Vasas	-11.1971
mérnök	-11.1972
▁bicikli	-11.1974
csont	-11.1976
▁koroná	-11.1978
▁93	-11.1978
▁ing	-11.1981
▁sár	-11.1982
▁téve	-11.1985
▁méltóság	-11.1985
▁szabálytalan	-11.1991
▁aláírt	-11.1991
acs	-11.1992
ségre	-11.1995
nemű	-11.1995
ékeny	-11.1996
▁Annyi	-11.1997
.000	-11.1998
▁bízta	-11.2001
▁felkészült	-11.2003
▁tömeges	-11.2006
▁tervet	-11.2006
ítve	-11.2007
▁Bon	-11.201
▁úsz	-11.2011
▁parancsnok	-11.2012
▁járul	-11.2012
▁pénzből	-11.2015
▁ötszáz	-11.2019
övet	-11.2019
▁avat	-11.202
orog	-11.202
▁roncs	-11.2023
▁(25	-11.2024
oper	-11.2024
▁Bernadett	-11.2025
▁Fórum	-11.2025
▁Közgyűlés	-11.2025
▁Műszaki	-11.2025
▁Rákóczi	-11.2025
▁fellendülés	-11.2025
▁munkavégzés	-11.2025
▁fekszik	-11.2025
palota	-11.2026
hard	-11.2026
▁gyanúsítják	-11.2026
▁NHL	-11.2026
▁sima	-11.2027
▁honvédelmi	-11.2027
szál	-11.2028
▁gramm	-11.2028
jal	-11.2029
win	-11.2029
▁cikke	-11.2029
▁főorvos	-11.203
▁folytatódott	-11.2031
▁versenyképesség	-11.2031
▁támogatják	-11.2032
▁Miller	-11.2032
▁emelkedéssel	-11.2032
gott	-11.2032
wi	-11.2032
▁úgyis	-11.2035
▁kommentálta	-11.2036
▁részvételével	-11.2037
▁gondolkod	-11.2037
▁Világgazdaság	-11.2039
▁máshol	-11.204
▁milliárdot	-11.2041
▁megrendez	-11.2042
sse	-11.2042
Bihar	-11.2044
▁hatást	-11.2046
▁tekintetben	-11.2046
▁barátság	-11.2046
▁népszerűség	-11.2048
▁fertőzött	-11.2048
▁végleg	-11.2049
▁gondoskod	-11.2052
▁telefonál	-11.2053
mász	-11.2053
▁öl	-11.2053
▁teljesítményét	-11.2054
▁időszakában	-11.2055
▁elvesztette	-11.2055
▁ezeken	-11.2058
▁félig	-11.2059
▁főtitkára	-11.2061
▁szesz	-11.2064
▁nőknél	-11.2065
▁kihirdet	-11.2067
▁viselked	-11.2068
▁nyugdíjak	-11.2068
▁mérlegel	-11.2071
▁épületben	-11.2072
▁jelölés	-11.2075
gyógy	-11.2076
▁meghal	-11.2076
▁költségeit	-11.2076
▁repülőtéren	-11.2077
▁blogon	-11.2077
rém	-11.2078
ünnep	-11.208
baleset	-11.2081
▁távozás	-11.2082
▁teljesítette	-11.2085
▁dollárért	-11.2085
ásuk	-11.2086
TI	-11.2086
▁Em	-11.2087
▁követelt	-11.2087
▁bővít	-11.2088
▁nézet	-11.2092
87	-11.2092
jánál	-11.2094
itz	-11.2095
▁erősítés	-11.2095
▁javasolt	-11.2098
▁összegét	-11.2098
▁háztartás	-11.2098
▁kerítés	-11.2099
▁átlép	-11.2099
▁mérete	-11.21
▁vizsgálni	-11.21
▁ru	-11.2104
▁körök	-11.2105
▁tévés	-11.2107
▁veszélyben	-11.2108
▁hatékonyság	-11.2109
érdek	-11.2109
▁panel	-11.2111
79	-11.2112
▁bevált	-11.2112
▁fokos	-11.2112
▁évekig	-11.2113
▁tőké	-11.2118
ÉS	-11.2118
▁nemzetbiztonság	-11.2118
▁fűszer	-11.2118
▁összefoglaló	-11.212
▁biztosítási	-11.2121
▁igazolta	-11.2122
▁köteles	-11.2127
▁végkielégítések	-11.2128
▁elkövetők	-11.213
▁meglepetést	-11.2131
▁versenyzők	-11.2131
▁megálló	-11.2134
▁Dmitrij	-11.2134
▁Rangers	-11.2134
▁Súlyos	-11.2134
▁hollywoodi	-11.2134
▁prognózis	-11.2134
▁romantikus	-11.2134
▁ébred	-11.2134
▁Schiffer	-11.2134
▁erejű	-11.2134
▁Dezső	-11.2134
▁jogosítvány	-11.2134
▁ebéd	-11.2134
▁szabálytalanság	-11.2135
▁mutatkozott	-11.2135
▁vérnyomás	-11.2135
▁ajkai	-11.2136
▁hűtő	-11.2136
▁jövedelemadó	-11.2136
▁ókori	-11.2136
▁jellemezte	-11.2136
▁sikertelen	-11.2136
▁Moszkvában	-11.2137
▁szerviz	-11.2137
▁temetés	-11.2137
▁nagyszabású	-11.2137
▁eszközökkel	-11.2139
▁előállítás	-11.214
▁negyedévében	-11.214
▁nyújtani	-11.214
tti	-11.2142
▁intézked	-11.2142
▁magabiztosan	-11.2144
▁szereplői	-11.2144
▁elemzője	-11.2144
▁Ennél	-11.2146
▁rajongói	-11.2146
▁port	-11.2146
tális	-11.2147
▁böngésző	-11.2148
▁Erről	-11.215
▁megnyitás	-11.215
▁tanácskozás	-11.215
61	-11.2151
▁közöttük	-11.2153
▁Pen	-11.2154
▁hitelminősítő	-11.2156
▁fejében	-11.2158
▁kórházi	-11.2159
▁miniszteri	-11.2161
▁jele	-11.2163
▁futómű	-11.2164
▁járhat	-11.2164
▁99	-11.2165
▁XX	-11.2165
▁rajongók	-11.2166
▁liszt	-11.2166
▁ételek	-11.2169
▁lépte	-11.2171
▁riporter	-11.2172
zenek	-11.2172
▁gyerekkor	-11.2174
▁címét	-11.2176
gyors	-11.2178
▁felszámolás	-11.2179
▁tárgyaláson	-11.2179
▁amiről	-11.218
▁emberrel	-11.2182
▁kialakítása	-11.2183
▁megismert	-11.2184
▁gólja	-11.2184
eim	-11.2185
hús	-11.2186
kívül	-11.2188
▁0,0	-11.2188
▁képen	-11.219
▁Egész	-11.219
tömeg	-11.2191
holland	-11.2191
▁kockázata	-11.2192
▁ismeret	-11.2195
▁várta	-11.2199
▁hírügynökségnek	-11.2208
▁perben	-11.2209
▁előzetesen	-11.2209
pályás	-11.2209
▁kiválasztás	-11.2209
▁táplálkozás	-11.2211
kocká	-11.2212
▁névre	-11.2214
▁Pre	-11.2216
▁önként	-11.2218
▁részvényei	-11.2218
edző	-11.2219
▁Lau	-11.2221
mus	-11.2227
▁munkanap	-11.2227
vol	-11.2228
▁Is	-11.223
fokozatú	-11.2232
▁Vo	-11.2233
▁létrehozásá	-11.2233
▁kering	-11.2234
▁92	-11.2237
▁éjfél	-11.2237
▁módosítása	-11.2238
▁fűz	-11.2238
▁sorrend	-11.2242
▁versenyképes	-11.2243
▁ügyelet	-11.2243
▁alkalmazása	-11.2244
▁Mikulás	-11.2244
▁turista	-11.2244
▁Április	-11.2244
▁mutatkozik	-11.2244
▁veterán	-11.2244
▁aszfalt	-11.2244
▁rektor	-11.2244
▁Fitch	-11.2244
▁Húsz	-11.2244
▁korrekció	-11.2244
▁Valencia	-11.2244
▁elengedhetetlen	-11.2244
▁Marseille	-11.2245
▁Gergő	-11.2245
végrehajtás	-11.2245
▁díját	-11.2245
▁Mars	-11.2246
▁fordítani	-11.2246
▁Vad	-11.2248
▁rendezték	-11.2249
▁bizonyított	-11.2249
▁hamarabb	-11.2249
▁léptek	-11.2249
▁átalakítása	-11.2249
▁méz	-11.225
▁hirdetett	-11.225
ezve	-11.2252
▁vígjáték	-11.2253
▁ügylet	-11.2254
▁pakol	-11.2255
▁energetikai	-11.2257
▁sújt	-11.2259
tiz	-11.2261
▁háza	-11.2262
▁ZTE	-11.2268
▁szigorúan	-11.227
fon	-11.2271
▁ismerő	-11.2271
▁Cal	-11.2272
▁lakások	-11.2272
apa	-11.2279
▁Miskolcon	-11.2279
10-	-11.2279
▁hónapon	-11.228
▁bűntette	-11.228
▁korban	-11.228
▁forintról	-11.2281
▁bizonyít	-11.2281
▁írtak	-11.2281
▁országból	-11.2281
▁gyógyszerek	-11.2282
futott	-11.2285
szállás	-11.2285
▁Víz	-11.2286
▁erősíti	-11.2288
odtak	-11.2289
▁hangja	-11.2291
▁Ul	-11.2292
▁hozzánk	-11.2292
▁helyért	-11.2294
▁rekordot	-11.2295
▁hivatkoz	-11.2296
utóbb	-11.2298
▁programját	-11.2298
▁háztartások	-11.2298
fegyver	-11.23
▁Komoly	-11.2301
szlovák	-11.2301
Ő	-11.2301
repülő	-11.2301
ugrott	-11.2301
▁Press	-11.2302
▁elérheti	-11.2305
▁feltételeket	-11.2309
▁összegeket	-11.231
▁áttekint	-11.2315
▁rendezni	-11.2315
▁tanulás	-11.2316
▁értelmezés	-11.2318
▁pénze	-11.2318
igény	-11.2319
hetők	-11.2321
▁félév	-11.2322
Bo	-11.2322
▁képzett	-11.2322
▁Szám	-11.2323
▁tisztség	-11.2323
▁vállalás	-11.2323
82	-11.2324
▁használatát	-11.2324
▁ideges	-11.2324
▁készítés	-11.2325
▁Capital	-11.2326
▁Lé	-11.233
▁meséli	-11.233
▁bizalmat	-11.2332
▁1994-	-11.2333
▁költött	-11.2333
▁működése	-11.2334
▁riport	-11.2335
▁kiszáll	-11.2336
▁iszap	-11.2336
▁Ric	-11.2336
▁járni	-11.2336
▁adózó	-11.2338
▁időpontja	-11.2339
bot	-11.2341
▁golf	-11.2343
puszt	-11.2345
▁1-3	-11.2346
▁fenyegeti	-11.2346
▁döntőbe	-11.2347
▁Eric	-11.2347
▁kikötő	-11.2349
▁képviseli	-11.2353
▁Válasz	-11.2354
OK	-11.2354
▁Panoráma	-11.2355
▁elegáns	-11.2355
▁frankfurti	-11.2355
▁nulla	-11.2355
▁recesszió	-11.2355
▁Zsuzsanna	-11.2355
▁tetszett	-11.2355
▁órában	-11.2355
▁közelébe	-11.2355
mind	-11.2355
▁Show	-11.2355
kapu	-11.2356
▁Fodor	-11.2356
▁Baranya	-11.2356
▁Pénzügyi	-11.2356
abi	-11.2356
▁alkalmatlan	-11.2356
▁Energia	-11.2356
▁útszakasz	-11.2357
▁hetilap	-11.2357
▁keveredett	-11.2358
▁szándéka	-11.2359
▁remélem	-11.2359
▁hibázott	-11.236
▁születésű	-11.236
▁privatizáció	-11.2361
▁lobbi	-11.2362
▁bővebben	-11.2362
▁befizetett	-11.2362
▁vívott	-11.2363
▁letöltés	-11.2364
▁hátterében	-11.2364
▁minősége	-11.2365
▁Pápa	-11.2366
▁bevezetett	-11.2366
▁tagad	-11.2366
▁telephely	-11.2366
▁zárul	-11.2367
▁alapú	-11.2368
▁tartoz	-11.2371
▁gondolták	-11.2371
▁többszörös	-11.2373
▁közlekednek	-11.2373
▁olyat	-11.2373
▁indultak	-11.2375
▁Serie	-11.2375
▁nézett	-11.2378
gyal	-11.2378
RA	-11.2379
áron	-11.2382
▁Carlos	-11.2383
pör	-11.2383
világbajnokságon	-11.2383
▁személyében	-11.2384
▁ellenőrzése	-11.2384
▁1,9	-11.2385
▁környezeti	-11.2385
▁Kata	-11.2386
▁témában	-11.239
jává	-11.2391
▁süt	-11.2394
▁kapják	-11.2395
▁KC	-11.2396
▁juthat	-11.24
▁szokásai	-11.2401
▁hajtó	-11.2403
folyás	-11.2403
▁szavazatot	-11.2404
▁útját	-11.2406
▁kérdésekre	-11.2408
▁szalag	-11.2409
▁öngyilkosság	-11.241
ítottak	-11.241
dán	-11.241
▁bejutott	-11.241
▁győzelmét	-11.2412
▁jelképe	-11.2413
Ó	-11.2413
▁alany	-11.2414
bázis	-11.2414
▁valakinek	-11.2415
▁okot	-11.2417
vert	-11.2419
▁tanácsadója	-11.242
▁törvényeket	-11.242
zm	-11.2421
▁átvette	-11.2424
▁Bat	-11.2426
▁ezerrel	-11.2426
▁mögötte	-11.2426
▁megújulás	-11.2428
▁előnyt	-11.2429
▁érni	-11.243
▁megszólal	-11.2433
▁találkozás	-11.2435
▁mozdul	-11.2435
▁ötlete	-11.2437
▁játéknapján	-11.2437
▁jegybanki	-11.244
▁üzletek	-11.2442
▁video	-11.2444
▁követni	-11.2444
▁3,9	-11.2444
▁Rem	-11.2444
esítés	-11.2445
cer	-11.2447
▁ken	-11.245
▁Yorkban	-11.2452
▁valakit	-11.2453
▁Var	-11.2458
▁jövedelme	-11.2459
▁illat	-11.2463
▁megtalál	-11.2464
74	-11.2466
▁dinamikus	-11.2467
▁szorgalmaz	-11.2467
▁Demokrata	-11.2467
▁kecskeméti	-11.2467
▁pályafutása	-11.2467
▁édesanyja	-11.2467
▁érvénytelen	-11.2467
▁direkt	-11.2467
▁kegyetlen	-11.2468
▁Rosberg	-11.2468
▁másodszor	-11.2468
▁Kevin	-11.2469
▁elsejétől	-11.2469
▁Márpedig	-11.2469
▁fehérvári	-11.2469
▁Kemény	-11.2469
▁iparág	-11.2469
▁Boston	-11.2469
▁bennük	-11.247
▁Vajon	-11.247
▁Fico	-11.2471
▁ismertetett	-11.2471
▁megrendezett	-11.2471
▁sorozatot	-11.2471
▁eredetű	-11.2471
▁születtek	-11.2471
▁kattintva	-11.2472
▁hivatkozott	-11.2473
▁ellenség	-11.2474
▁találnak	-11.2475
technikai	-11.2475
▁finanszíroz	-11.2476
▁kinevezett	-11.2477
▁körülmény	-11.2478
▁nőttek	-11.2478
▁táblázat	-11.2478
▁működtető	-11.2478
OSZ	-11.248
▁karrierje	-11.248
▁bútor	-11.2481
cell	-11.2482
▁bélyeg	-11.2482
czy	-11.2483
gatta	-11.2485
termék	-11.249
▁KSH	-11.249
▁Cél	-11.2491
▁céljai	-11.2492
▁mozdulat	-11.2493
tis	-11.2495
▁nyújtó	-11.2501
jéből	-11.2501
nus	-11.2503
▁ütemben	-11.2506
▁eredet	-11.2506
▁lefelé	-11.2507
▁Afganisztánban	-11.2507
emlék	-11.251
▁remél	-11.251
▁kiválóan	-11.2511
Nagy	-11.2512
▁változatos	-11.2513
▁megszerezni	-11.2515
▁bírta	-11.2515
▁páciens	-11.2518
▁foglalja	-11.2519
▁beszámol	-11.2522
nként	-11.2527
▁oldalról	-11.2527
▁kritizál	-11.2527
▁szavazói	-11.2528
▁reformok	-11.2529
67	-11.2529
▁együttműködést	-11.2529
▁kereskedő	-11.253
▁követelmény	-11.253
▁Tiszt	-11.253
tört	-11.2531
halál	-11.2532
jelentkez	-11.2536
▁álmod	-11.2542
tudat	-11.2542
▁Art	-11.2543
▁tévedés	-11.2543
tiltották	-11.2544
▁eseményeket	-11.2545
▁elbocsátás	-11.2547
kön	-11.2548
▁egyesek	-11.255
▁Február	-11.2551
▁gázolt	-11.2553
▁csatá	-11.2553
▁rendeltek	-11.2554
▁menő	-11.2555
szög	-11.2556
lim	-11.2556
▁0,8	-11.2557
▁Mexikó	-11.2559
▁benzines	-11.2561
bajnokságon	-11.2562
▁Motor	-11.2562
ságú	-11.2564
▁borított	-11.2567
3)	-11.2567
▁megrendelés	-11.2569
▁módszerek	-11.2571
▁Nyugdíj	-11.2572
▁oldalak	-11.2574
dön	-11.2574
jutott	-11.2576
▁Komárom	-11.2581
▁Pozsony	-11.2581
▁Telegraph	-11.2581
▁chilei	-11.2581
▁megélhetés	-11.2581
▁menedék	-11.2581
▁tipikus	-11.2581
▁tréning	-11.2581
▁pótlék	-11.2581
▁vidám	-11.2581
▁Vagyonkezelő	-11.2581
▁2015-	-11.2581
▁Group	-11.2581
▁Zsuzsa	-11.2581
▁eljuttatott	-11.2581
Faktor	-11.2582
▁rámutat	-11.2582
▁látszólag	-11.2582
▁Bush	-11.2582
IT	-11.2583
▁Út	-11.2583
▁szánkó	-11.2584
▁kiskereskedelmi	-11.2584
enti	-11.2585
▁kivitelezés	-11.2585
▁Olympi	-11.2587
▁szoci	-11.2588
▁költségvetésben	-11.2588
▁tartózkodik	-11.2588
▁terjeszt	-11.2589
▁Ch	-11.259
medence	-11.259
▁teremtett	-11.259
▁Egyik	-11.2592
▁kritika	-11.2595
▁tanítás	-11.2596
▁legális	-11.2597
pattan	-11.2598
▁színpadon	-11.2598
mennyiség	-11.2598
▁szervezés	-11.2598
▁országgyűlés	-11.2601
▁elvárás	-11.2604
El	-11.2605
▁lovag	-11.2606
▁támogatottsága	-11.2608
építő	-11.2609
▁Nas	-11.2611
▁magasan	-11.2611
ítható	-11.2612
▁oszlop	-11.2615
tagok	-11.2616
▁rohan	-11.2618
▁honlapon	-11.2618
▁nagyban	-11.2618
▁450	-11.2626
enye	-11.2627
▁bíz	-11.2627
házban	-11.2628
atott	-11.2628
gond	-11.2629
ville	-11.2634
Q	-11.2636
▁94	-11.2637
▁Matt	-11.2638
▁leszek	-11.2641
tartalék	-11.2642
intézmény	-11.2642
kényszer	-11.2643
▁Woods	-11.2648
futam	-11.2649
kozás	-11.2655
▁Hel	-11.2657
▁forgalomban	-11.2658
▁tárgyalni	-11.266
▁centi	-11.266
Mar	-11.2663
▁kezeli	-11.2664
▁Dor	-11.2664
▁4-0	-11.2665
▁igaza	-11.2668
▁tankol	-11.2669
▁statisztiká	-11.2669
készlet	-11.2672
▁húz	-11.2674
▁méteren	-11.2678
▁tanulni	-11.2678
▁építési	-11.2678
▁kevesebben	-11.268
▁Azzal	-11.2682
▁bármit	-11.2682
▁értelmez	-11.2682
EM	-11.2683
▁csapatát	-11.2685
▁őszinte	-11.2688
▁belép	-11.2689
színház	-11.269
▁fejlesztése	-11.2691
▁szegénység	-11.2691
titkár	-11.2693
▁megegyezés	-11.2693
▁szituáció	-11.2696
▁Császár	-11.2696
▁munkái	-11.2696
▁szolidaritás	-11.2696
▁Lewis	-11.2696
mondás	-11.2696
▁kőolaj	-11.2696
▁Regény	-11.2697
▁teremteni	-11.2697
▁padló	-11.2698
▁Opera	-11.2699
▁futballista	-11.2699
▁ujj	-11.2699
▁elvégzett	-11.2699
▁irányadó	-11.2699
▁Saint	-11.2699
▁legjobbak	-11.27
▁Mester	-11.27
▁kezdeményezett	-11.2701
▁Mennyi	-11.2701
▁sikkasztás	-11.2701
▁honnan	-11.2702
▁nyolcvanas	-11.2704
▁platform	-11.2705
▁http	-11.2706
▁vallotta	-11.2708
▁fogadják	-11.271
▁tudatosan	-11.271
▁művelet	-11.271
▁vizsga	-11.2711
▁tavaszán	-11.2712
▁Mégis	-11.2713
▁emeli	-11.2714
▁csalódott	-11.2716
▁tegnapi	-11.2717
stein	-11.2718
▁megoszt	-11.2719
zuk	-11.2721
ella	-11.2722
▁1990	-11.2722
▁problémája	-11.2724
▁Leon	-11.2724
▁kényszerült	-11.2725
▁Emlék	-11.2726
▁bíznak	-11.2726
▁művel	-11.2727
▁indokol	-11.2728
▁ülése	-11.2729
▁Vis	-11.2733
▁környéken	-11.2737
▁többfelé	-11.2739
czky	-11.2739
line	-11.274
értékű	-11.2743
▁SC	-11.2745
▁Amerika	-11.2746
ander	-11.275
▁részesít	-11.275
▁zárták	-11.2751
▁ellenük	-11.2752
▁Kell	-11.2752
▁tevékenysége	-11.2752
▁megszorítások	-11.2755
▁sorolta	-11.2757
csempész	-11.2758
levél	-11.2758
réteg	-11.276
▁Haj	-11.2761
▁helyette	-11.2762
▁kötni	-11.2765
▁jegyzése	-11.2765
▁levelek	-11.2765
▁túlzás	-11.2765
▁szenvedő	-11.2769
lesz	-11.2769
bemutató	-11.2769
▁agyon	-11.2771
hatatlanul	-11.2771
▁hű	-11.2772
korú	-11.2773
▁jelentések	-11.2774
▁gyűlt	-11.2775
kus	-11.2775
ozva	-11.2778
▁Tim	-11.2779
▁legendá	-11.2779
▁megsemmisít	-11.278
AS	-11.2781
▁valóságos	-11.2782
▁magánszemélyek	-11.2785
▁GM	-11.2786
▁fizetnek	-11.2788
▁klubok	-11.2789
▁fordulójá	-11.279
▁hossz	-11.2792
ülhet	-11.2795
▁szerkesztő	-11.2797
▁elöl	-11.2797
NA	-11.28
onprofit	-11.28
▁életük	-11.28
▁Bod	-11.2805
▁Wild	-11.2806
▁mosoly	-11.2811
ped	-11.2812
▁narancs	-11.2812
▁Szávay	-11.2812
▁kaposvári	-11.2812
▁legfiatalabb	-11.2812
▁megmondani	-11.2812
▁hetente	-11.2812
▁Budaházy	-11.2812
▁Videó	-11.2813
▁pánik	-11.2813
▁Tűz	-11.2813
▁műemlék	-11.2813
▁hangsúlyozza	-11.2813
▁biológiai	-11.2813
▁védeni	-11.2813
▁csapatkapitány	-11.2813
▁megállapítani	-11.2813
kereskedő	-11.2814
gát	-11.2815
▁Hatvan	-11.2815
▁szerződtet	-11.2815
▁közli	-11.2815
▁országszerte	-11.2816
▁későbbiekben	-11.2816
▁Lady	-11.2816
▁figyelmeztetett	-11.2818
▁felelőtlen	-11.2818
szalag	-11.2819
▁biztosítása	-11.2819
▁magától	-11.282
▁folyadék	-11.2821
▁rájött	-11.2822
▁összekötő	-11.2823
▁bab	-11.2825
▁tudtunk	-11.2827
▁bűnösnek	-11.2828
▁hazatér	-11.283
▁bors	-11.283
▁sokféle	-11.2832
lkotmányellenes	-11.2832
▁Déli	-11.2834
▁győztese	-11.2836
▁közlekedést	-11.2836
▁fárad	-11.2837
▁váló	-11.2838
▁1994	-11.2838
▁kupa	-11.284
▁összefog	-11.2842
▁akarjuk	-11.2842
ázta	-11.2845
▁hatású	-11.2847
▁érdemben	-11.2847
rand	-11.2848
Va	-11.2851
▁gondolkoz	-11.2852
wan	-11.2855
hin	-11.2855
▁novemberében	-11.2856
▁estére	-11.2859
▁Alig	-11.2859
▁másként	-11.2862
▁fogalmazta	-11.2863
▁FA	-11.2864
▁használtak	-11.2865
▁svédek	-11.2866
▁foglalkoznak	-11.2868
▁mondhat	-11.2869
kció	-11.2869
▁hosszas	-11.2871
ásnak	-11.2872
▁hívás	-11.2873
sunk	-11.2874
szünet	-11.2875
vir	-11.2875
felület	-11.2876
SZDSZ	-11.2876
hallgat	-11.2876
ismeret	-11.2877
korlátozás	-11.2877
IMF	-11.2878
6)	-11.2878
▁óceán	-11.288
▁körút	-11.2883
tartozás	-11.2883
▁Budapestre	-11.2884
▁Fl	-11.2885
ESZ	-11.2887
▁Lap	-11.2889
cent	-11.289
vezeték	-11.289
▁tegye	-11.2893
▁védelm	-11.2893
edet	-11.2894
▁tulajdonban	-11.2895
det	-11.2898
▁híresség	-11.2898
▁Kate	-11.2899
▁megoldások	-11.2901
▁bajnokin	-11.2902
▁önmagát	-11.2905
▁kór	-11.2907
kupában	-11.2911
▁jelentik	-11.2913
▁sajt	-11.2913
▁gondolt	-11.2913
uss	-11.2918
▁támogatói	-11.2919
ébb	-11.292
▁termékeket	-11.2923
▁írásban	-11.2924
▁kiáll	-11.2924
▁220	-11.2925
▁Irak	-11.2926
▁hiányosság	-11.2926
▁segéd	-11.2927
▁kicsik	-11.2928
▁rendezvények	-11.2928
▁Mészáros	-11.293
▁Remélem	-11.293
▁bonyolít	-11.293
▁presztízs	-11.293
▁tragikus	-11.293
▁érzelmi	-11.293
▁nemzedék	-11.293
▁ügyét	-11.293
▁hármas	-11.293
Palkovics	-11.293
▁összegyűjtött	-11.293
▁Egyrészt	-11.2931
▁öv	-11.2931
▁kifizetni	-11.2931
izálás	-11.2931
berendezés	-11.2931
nic	-11.2933
▁örömmel	-11.2933
▁átmenetileg	-11.2934
▁Lan	-11.2934
▁teendő	-11.2934
▁ellenőrző	-11.2934
▁fordítás	-11.2935
▁kaliforniai	-11.2935
▁macska	-11.2935
▁pici	-11.2935
▁hangzik	-11.2936
▁kampányban	-11.2936
▁Ugyanis	-11.2937
▁kilép	-11.2937
▁nővér	-11.2938
▁félelme	-11.2938
▁góljával	-11.294
▁Miami	-11.294
▁Edit	-11.2941
▁rangú	-11.2942
▁irányt	-11.2942
▁jelöltjei	-11.2944
▁Steven	-11.2946
▁megértés	-11.2946
▁szakértője	-11.2946
▁érti	-11.2947
▁1998	-11.295
▁sütő	-11.2951
▁fogadni	-11.2952
▁táblá	-11.2953
▁követelő	-11.2953
▁tudósítója	-11.2955
AT	-11.2955
▁várjuk	-11.2956
▁vágta	-11.2956
▁Csap	-11.2956
▁Sun	-11.2957
▁berendezések	-11.2957
▁rendőrségen	-11.2962
▁reg	-11.2963
▁nevezi	-11.2963
▁szúr	-11.2963
▁Debreceni	-11.2963
▁2,3	-11.2964
fős	-11.2964
▁gyárt	-11.2966
pak	-11.2966
ődtek	-11.2967
▁északnyugati	-11.2967
venni	-11.2967
▁elárulta	-11.2968
▁bizottsága	-11.2968
▁királynő	-11.2969
alitás	-11.2969
▁középiskolá	-11.2971
csarnok	-11.2973
▁ezekre	-11.2974
▁pót	-11.2975
▁liga	-11.2976
▁Uni	-11.2977
▁produkált	-11.2977
mai	-11.2981
▁végeznek	-11.2982
ettük	-11.2988
▁tulajdonosai	-11.299
▁gondok	-11.2991
▁bizonyítás	-11.2991
zöld	-11.2992
▁Kla	-11.2993
▁elkap	-11.2994
Szabó	-11.2995
vásár	-11.2995
▁rendet	-11.2995
cá	-11.2996
▁Kl	-11.2996
árfolyam	-11.2997
jobb	-11.2998
bur	-11.2998
▁bemutatni	-11.3
▁célkitűzés	-11.3002
str	-11.3006
▁szeretik	-11.3009
▁vetette	-11.3011
▁kedvence	-11.3012
▁kedvelt	-11.3013
▁265	-11.3014
▁Op	-11.3017
73	-11.3018
▁műsort	-11.3018
▁különbséget	-11.3019
▁Erdélyi	-11.302
▁Devecser	-11.3023
elnek	-11.3024
enberg	-11.3026
▁üzemel	-11.3026
bul	-11.3026
éket	-11.3027
▁felvetés	-11.3028
▁jegyet	-11.303
▁fokoz	-11.3031
▁Hétfő	-11.3033
agan	-11.3034
nagyon	-11.3035
▁törekvés	-11.3035
▁(15	-11.3035
▁Ameriká	-11.3035
ádi	-11.3035
▁hosszabbítás	-11.3037
méret	-11.304
▁hetes	-11.3042
▁épülete	-11.3042
▁szíve	-11.3043
▁terheli	-11.3044
▁ugrás	-11.3044
▁önmagá	-11.3046
▁US	-11.3046
rendszert	-11.3048
▁Celsius	-11.3049
▁Cristian	-11.3049
▁Levente	-11.3049
▁Standard	-11.3049
▁krízis	-11.3049
▁mielőbb	-11.3049
▁oxigén	-11.3049
▁pekingi	-11.3049
▁elszenvedett	-11.3049
▁durva	-11.3049
▁Másrészt	-11.3049
▁muszáj	-11.3049
sivatag	-11.3049
▁megnehezít	-11.3049
▁szériá	-11.3049
filmek	-11.3049
▁Avatar	-11.305
▁székhelyű	-11.3051
▁kavar	-11.3051
▁Csányi	-11.3051
futó	-11.3051
▁igénylő	-11.3052
▁tartózkodott	-11.3053
▁témák	-11.3053
▁Super	-11.3054
▁megtett	-11.3055
▁megtudhat	-11.3056
▁kalap	-11.3056
alakul	-11.3057
név	-11.3057
▁Phoenix	-11.3058
▁főügyészség	-11.3061
zin	-11.3061
▁februárjában	-11.3063
fele	-11.3064
▁ügyvezetője	-11.3065
▁Él	-11.3066
▁bérleti	-11.3066
▁ellenőrzést	-11.3069
▁májusában	-11.3071
▁alakítja	-11.3073
▁pedagógus	-11.3074
▁elvet	-11.3074
▁ezret	-11.3077
%)	-11.3077
közel	-11.3078
▁magánszemély	-11.3078
Ne	-11.308
84	-11.3081
▁egyeztetések	-11.3082
▁védelmet	-11.3082
▁elemei	-11.3084
▁kívánnak	-11.3084
▁válni	-11.3086
▁képei	-11.3086
▁negyedéves	-11.3087
▁sugárzás	-11.3088
▁Akik	-11.3089
által	-11.309
▁mennyiségben	-11.3092
▁tanulmányok	-11.3092
tesz	-11.3096
▁túlélés	-11.3097
▁1996-	-11.3098
Line	-11.3098
küldött	-11.3098
▁szoba	-11.3101
▁Japánban	-11.3101
▁verték	-11.3101
▁Bart	-11.3103
kis	-11.3104
▁elvégz	-11.3104
csillag	-11.3104
▁köre	-11.3108
háború	-11.3111
fesztivál	-11.3113
▁rali	-11.3114
gólos	-11.3115
▁szolgálatot	-11.3116
százalékos	-11.3118
▁kutatója	-11.3118
▁erőt	-11.3118
▁villá	-11.3119
▁kívánta	-11.3119
olható	-11.312
zá	-11.3121
▁szemtanú	-11.3122
▁bejelentést	-11.3123
cy	-11.3124
otthon	-11.3125
▁sík	-11.3125
▁gólpasszt	-11.3125
▁terveznek	-11.3126
▁befizetés	-11.3127
▁tükrözi	-11.3127
▁amelyről	-11.3128
5)	-11.3129
amely	-11.3129
zál	-11.3131
▁nyerő	-11.3131
▁szurkolói	-11.3132
▁lakóház	-11.3136
77	-11.314
▁szorult	-11.3142
▁Orvos	-11.3145
▁milliméter	-11.3145
▁hajrá	-11.3148
▁résztvevői	-11.3149
▁visszahívás	-11.315
Meg	-11.3151
▁vádak	-11.3152
▁kapitánya	-11.3152
▁engedélyez	-11.3153
MK	-11.3153
▁keretek	-11.3158
▁mindenképp	-11.3159
ancs	-11.3159
▁jelöltet	-11.316
▁partján	-11.316
▁forgalmazás	-11.3161
nagyobb	-11.3161
▁júliusban	-11.3162
▁árad	-11.3164
▁életem	-11.3166
▁köztársaság	-11.3167
omlott	-11.3168
▁konzorcium	-11.3169
▁székesfehérvári	-11.3169
▁Smith	-11.317
▁gesztus	-11.317
▁beruházó	-11.317
▁póker	-11.317
▁őszintén	-11.317
▁titkol	-11.317
▁pláne	-11.317
▁javít	-11.317
▁Senki	-11.317
▁izom	-11.317
▁Reggel	-11.317
▁kattintson	-11.3171
▁paraszt	-11.3171
▁portré	-11.3172
▁emlékszik	-11.3172
ellip	-11.3172
▁átigazolás	-11.3173
▁táplálék	-11.3173
▁Simor	-11.3173
mell	-11.3174
▁Soha	-11.3174
hagyott	-11.3175
NY	-11.3175
▁Zo	-11.3175
▁hiányzott	-11.3175
emberek	-11.3176
csel	-11.3177
▁iskolába	-11.3178
▁képviseleté	-11.318
▁ritmus	-11.318
▁hoki	-11.318
▁ügynökség	-11.3182
zzák	-11.3183
▁folytatják	-11.3183
▁válogatás	-11.3186
▁ütötte	-11.3186
▁szerető	-11.3189
▁gyűlölet	-11.319
▁érme	-11.319
▁tartható	-11.3191
lev	-11.3192
▁januárjában	-11.3192
ásokat	-11.3193
aim	-11.3193
sabb	-11.3196
▁(22	-11.3196
▁Ember	-11.3197
▁megtartott	-11.3199
▁teljesítő	-11.3199
▁bűnözők	-11.3201
művészeti	-11.3201
▁cikkben	-11.3203
▁állunk	-11.3204
▁hozzájárult	-11.3206
▁ténylegesen	-11.3207
▁fogyasztása	-11.3208
▁károsult	-11.3208
▁Stone	-11.3211
▁számítás	-11.3211
▁előírás	-11.3211
egység	-11.3212
▁végzik	-11.3212
▁ág	-11.3212
▁számítottak	-11.3212
kötött	-11.3216
Moson	-11.3217
▁válságot	-11.3219
▁lehetünk	-11.322
gén	-11.3231
▁kalózok	-11.3232
▁érezni	-11.3232
▁kénytelenek	-11.3233
iskola	-11.3234
▁szemlél	-11.3235
▁mono	-11.3236
▁szervezete	-11.3237
elmélet	-11.3237
▁mindenkor	-11.3237
történész	-11.3237
▁Vill	-11.3238
▁vezetőedző	-11.3239
szezon	-11.3239
▁harci	-11.324
▁gyártók	-11.3242
▁okoztak	-11.3243
oj	-11.3244
▁szélén	-11.3245
▁meglepetésre	-11.3246
▁1200	-11.3247
gh	-11.3248
▁lop	-11.3249
▁főz	-11.3251
▁madarak	-11.3252
▁menti	-11.3252
▁Posta	-11.3255
▁Ya	-11.3259
▁kaphatnak	-11.326
▁meccsén	-11.3262
gli	-11.3262
▁hetet	-11.3263
out	-11.3269
▁államot	-11.327
▁bevallás	-11.327
=	-11.327
▁med	-11.327
▁faluban	-11.3272
▁várost	-11.3274
▁közbiztonság	-11.3276
vitel	-11.3282
▁ülést	-11.3284
Hf	-11.3289
▁meztelen	-11.329
▁Főigazgatóság	-11.3291
▁General	-11.3291
▁Jégkorong	-11.3291
▁Orleans	-11.3291
▁Szekeres	-11.3291
▁bűnözés	-11.3291
▁strukturális	-11.3291
▁Izland	-11.3291
▁tudomásul	-11.3291
▁Alföldi	-11.3291
▁csúcstalálkozó	-11.3292
▁Semjén	-11.3292
▁hatállyal	-11.3292
▁megfékez	-11.3292
▁hárman	-11.3292
▁Benkő	-11.3293
övek	-11.3293
▁széria	-11.3293
▁Jelentős	-11.3293
▁főszerkesztője	-11.3294
▁bizalmas	-11.3295
nevelés	-11.3296
▁módszerrel	-11.3297
▁őrült	-11.3297
▁Nadal	-11.3298
▁részesült	-11.3298
▁börtönbe	-11.3299
▁végkielégítés	-11.3299
▁Anita	-11.3301
▁cikket	-11.3303
this	-11.3304
▁sürget	-11.3304
ölni	-11.3304
▁Norvégia	-11.3305
▁járőrök	-11.3306
▁(0-0)	-11.3306
▁dokumentumfilm	-11.3306
▁kiválasztott	-11.3307
▁munkacsoport	-11.3307
▁ún	-11.3307
▁Lesz	-11.3309
▁felmondás	-11.3309
épület	-11.3309
▁merítés	-11.3309
▁szenvedtek	-11.331
▁zárva	-11.331
▁indulnak	-11.331
▁akciót	-11.3312
▁pihen	-11.3313
▁mandátumot	-11.3314
▁kezelésére	-11.3315
▁6,5	-11.3316
▁Julian	-11.3317
▁beszédet	-11.3317
▁ártatlan	-11.3317
▁regénye	-11.3317
▁tartaná	-11.3319
▁színészek	-11.3321
ejtő	-11.3324
▁örökös	-11.3325
▁Attilá	-11.3328
▁Ven	-11.3328
▁felhős	-11.3328
▁Mire	-11.333
külön	-11.333
▁emelték	-11.3331
▁könyvében	-11.3331
▁tükröz	-11.3334
szaporod	-11.3336
▁újév	-11.3336
▁festett	-11.3338
▁poli	-11.3338
gomb	-11.3338
▁elfogadásá	-11.3338
▁kísérleti	-11.3342
▁elfogadni	-11.3343
▁dokumentumokat	-11.3344
▁zaklatás	-11.3345
▁1992-	-11.3346
▁Rob	-11.3346
▁felfelé	-11.3348
▁kalóz	-11.3351
▁profil	-11.3352
▁társasági	-11.3358
terjesztés	-11.3358
dur	-11.336
▁Boc	-11.336
teljesítmény	-11.3361
román	-11.3362
hozott	-11.3363
▁les	-11.3366
▁készlet	-11.3366
▁felidéz	-11.3366
▁vezetőség	-11.3367
▁vonz	-11.337
▁élvezet	-11.3371
▁felügyel	-11.3374
▁háromszáz	-11.3375
▁felvételi	-11.3379
▁vezetőit	-11.338
▁évtizedben	-11.338
▁közpénz	-11.338
4)	-11.338
▁olt	-11.338
▁képe	-11.3381
fiú	-11.3382
▁koreai	-11.3383
▁partnere	-11.3383
▁tudhat	-11.3386
▁Bay	-11.3386
▁előkerült	-11.3389
▁Vf	-11.339
▁négyzetméter	-11.3392
kórház	-11.3396
▁feltételezés	-11.3396
▁ragaszkod	-11.3399
▁hétvégé	-11.34
▁eldőlt	-11.3401
▁Neu	-11.3403
▁szintjén	-11.3406
▁magabiztos	-11.3406
▁megfontol	-11.3407
assa	-11.3408
▁elnöknek	-11.3413
▁class	-11.3415
műlesiklás	-11.3415
▁Elemzők	-11.3415
▁Pakisztán	-11.3415
▁Szilágyi	-11.3415
▁kulcsfontosságú	-11.3415
▁nyugdíjkorhatár	-11.3415
@	-11.3415
▁Hunvald	-11.3415
▁Domokos	-11.3415
▁konzultáció	-11.3415
▁sugall	-11.3415
▁gyakorlás	-11.3415
▁AFP	-11.3415
▁levegőben	-11.3416
▁kivitelező	-11.3416
▁lassít	-11.3416
▁szemüveg	-11.3416
▁háziorvos	-11.3416
▁bánya	-11.3416
▁legkevésbé	-11.3416
▁2020-	-11.3418
▁szezonális	-11.3419
▁nevezhető	-11.342
▁fiók	-11.342
▁munkaidő	-11.342
▁beszáll	-11.3421
kapott	-11.3421
▁operációs	-11.3423
▁óvatosan	-11.3424
▁lelet	-11.3424
▁utál	-11.3425
▁szigorúbb	-11.3425
▁festék	-11.3426
▁Gera	-11.3426
Ve	-11.3428
▁végzés	-11.3429
▁tekintély	-11.3429
▁rendszerint	-11.343
▁Philadelphia	-11.343
▁oldalt	-11.3431
▁hatásai	-11.3431
▁számlák	-11.3432
▁kialakítás	-11.3432
▁karácsonykor	-11.3433
▁küldte	-11.3434
▁mezőgazdaság	-11.3434
eltek	-11.3434
▁megnyert	-11.3436
▁országa	-11.3436
▁teljesül	-11.3438
▁világgazdaság	-11.3438
▁hátrányt	-11.3439
▁ró	-11.344
▁legtöbbször	-11.3441
▁visszamenőleges	-11.3441
▁beszélünk	-11.3442
▁tanít	-11.3442
▁elektro	-11.3442
▁haszon	-11.3443
▁biztosítók	-11.3446
▁látogatott	-11.3447
▁érhet	-11.3447
▁példaként	-11.3448
▁csökkenő	-11.3448
▁vetítés	-11.3449
▁jók	-11.3451
▁írtam	-11.3451
csor	-11.3455
▁gyes	-11.3456
▁fizettek	-11.3459
falu	-11.346
▁módosítását	-11.346
▁irányít	-11.3461
▁igényt	-11.3462
▁olvasóink	-11.3463
▁rendszám	-11.3465
SI	-11.3465
▁példát	-11.3466
▁Hang	-11.3468
▁újságíróknak	-11.3473
▁Karl	-11.3474
kedik	-11.3477
▁építése	-11.3477
▁Ren	-11.3477
művészet	-11.3478
▁zuhan	-11.3484
▁sürgős	-11.3484
menedzser	-11.3486
gyűrű	-11.3486
▁valamikor	-11.3488
égett	-11.349
▁tüntet	-11.3491
▁her	-11.3493
▁csökkentek	-11.3495
▁vetít	-11.3496
▁nagyrész	-11.3496
▁emlékezet	-11.3498
▁(12	-11.35
▁mutatni	-11.3501
▁bevezetését	-11.3501
tudomány	-11.3504
▁voksol	-11.3505
▁felszámol	-11.3506
ezres	-11.3507
rád	-11.3507
zé	-11.3508
▁létesít	-11.3509
eck	-11.351
▁termékei	-11.3512
▁RS	-11.3513
vb	-11.3514
▁pénzért	-11.3519
▁tagját	-11.3521
▁elősegít	-11.3521
▁jegyzi	-11.3522
▁előfordult	-11.3523
▁kidolgozásá	-11.3524
▁illik	-11.3524
▁alátámaszt	-11.3524
Dunántúl	-11.3525
▁kategóriá	-11.3529
▁költöz	-11.3532
▁adományoz	-11.3537
▁Csillag	-11.3538
▁Ferguson	-11.354
▁bátran	-11.354
▁felmelegedés	-11.354
▁garázs	-11.354
▁praktikus	-11.354
▁röhög	-11.354
hellyel	-11.354
▁Siófok	-11.354
▁hátvéd	-11.354
▁közepette	-11.354
▁megjelenik	-11.354
▁likviditás	-11.354
color	-11.354
▁kistérség	-11.354
▁fájdalmas	-11.354
▁Nokia	-11.354
galériá	-11.354
▁másolat	-11.354
▁elbírálás	-11.3541
▁szerelmi	-11.3541
▁hiánycél	-11.3541
▁szörnyű	-11.3543
▁középdöntő	-11.3543
▁barátnője	-11.3545
▁előnyös	-11.3545
▁földre	-11.3545
▁követték	-11.3546
ságban	-11.3546
▁szilveszter	-11.3546
▁bevet	-11.3547
▁megújuló	-11.3547
▁devizapiacon	-11.3547
▁kedvezményes	-11.3548
▁ötéves	-11.3548
palotá	-11.3549
▁testvére	-11.355
press	-11.3552
▁millióra	-11.3552
▁Gáz	-11.3554
▁Bea	-11.3555
▁folyók	-11.3555
szakadt	-11.3555
▁Kornél	-11.3556
Br	-11.3557
▁sportos	-11.3558
▁07	-11.3559
▁futás	-11.3562
▁Hun	-11.3562
▁éltek	-11.3564
számot	-11.3566
▁visszalép	-11.3567
▁főúton	-11.3568
harc	-11.3569
▁adórendszer	-11.3571
▁találja	-11.3572
▁mélyebb	-11.3574
▁polgárok	-11.3579
▁mozgó	-11.3581
▁támadtak	-11.3583
▁alapoz	-11.3584
Mobile	-11.3586
8)	-11.3587
▁szerezhet	-11.3589
▁elhelyezés	-11.359
▁hadi	-11.359
▁családot	-11.3592
▁Facebookon	-11.3592
▁építettek	-11.3592
▁gazdálkodó	-11.3594
far	-11.3595
▁bevételei	-11.3595
▁eljáró	-11.3596
▁erőteljes	-11.3599
▁Som	-11.36
▁hosszan	-11.3605
▁változásokat	-11.361
netes	-11.3611
▁befogadó	-11.3611
index	-11.3612
képviselő	-11.3612
▁pénzét	-11.3615
▁enyhítés	-11.3616
▁oldalas	-11.3619
▁szóltak	-11.3619
IN	-11.362
▁összehasonlít	-11.362
New	-11.3622
▁anyagokat	-11.3623
▁időtartam	-11.3625
▁előadást	-11.3629
▁készítettek	-11.3629
mmal	-11.3629
▁eseményt	-11.363
▁Kál	-11.3631
ax	-11.3631
▁piacán	-11.3633
lep	-11.3635
▁csomagot	-11.3636
▁vendéglátó	-11.3641
▁autópályá	-11.3641
▁meglát	-11.3642
▁szerk	-11.3642
▁szerelvény	-11.3644
▁döntései	-11.3644
▁láthat	-11.3645
▁rutin	-11.3645
▁kilós	-11.3646
▁harcol	-11.3648
▁megenged	-11.3649
kelet	-11.365
versenyen	-11.3652
▁tagjait	-11.3652
isten	-11.3653
▁újjá	-11.3654
kifejez	-11.3655
nyh	-11.3655
▁kockázatos	-11.3656
▁fogás	-11.3656
▁szerződéseket	-11.3657
▁olvasói	-11.3657
▁Steve	-11.3661
▁késések	-11.3663
▁köszönt	-11.3664
▁Kristóf	-11.3666
▁Legfelső	-11.3666
▁Szovjetunió	-11.3666
▁Zalaegerszeg	-11.3666
▁elefánt	-11.3666
▁mindannyian	-11.3666
▁kenyér	-11.3666
▁kreatív	-11.3666
▁tilalom	-11.3666
▁cucc	-11.3666
▁régebbi	-11.3666
▁elkövetkező	-11.3667
▁drámá	-11.3667
▁kettes	-11.3667
▁óvoda	-11.3667
▁értesítette	-11.3667
▁másodperccel	-11.3667
▁Könyvtár	-11.3669
▁kilencedik	-11.3669
Cs	-11.367
ográfia	-11.3672
hessék	-11.3672
▁Lovas	-11.3673
▁közlekedik	-11.3674
▁ejtett	-11.3674
ozása	-11.3675
közlési	-11.3675
▁végrehajtott	-11.3676
▁szándékosan	-11.3676
▁Ugyanez	-11.3676
▁vízzel	-11.3677
▁elképzelni	-11.3678
▁mindazok	-11.3679
mely	-11.3679
még	-11.368
▁(20	-11.3681
tech	-11.3682
▁irányítja	-11.3683
▁végzi	-11.3683
▁kapcsolata	-11.3684
▁üzletág	-11.3684
▁farkas	-11.3685
▁pótol	-11.3685
▁sajtóreferense	-11.3685
▁barátságos	-11.3687
▁megérkezett	-11.3688
▁Dzs	-11.3688
szennyezés	-11.3688
▁próbálták	-11.3688
▁Kér	-11.369
▁színházi	-11.369
▁Egyetlen	-11.369
▁határt	-11.3691
▁címen	-11.3691
▁fenntart	-11.3692
▁megjelentek	-11.3692
▁delegált	-11.3693
elhárítás	-11.3695
▁tetten	-11.3696
▁Nyom	-11.3697
▁motort	-11.3698
▁használhat	-11.3698
▁igenis	-11.3698
húzó	-11.37
▁Kati	-11.3701
ültek	-11.3702
▁Terv	-11.3704
▁próbá	-11.3704
▁Kings	-11.3709
▁tagország	-11.3711
ódtak	-11.3712
▁pontokat	-11.3712
▁lejárat	-11.3715
▁indítványt	-11.3715
▁gépet	-11.3715
geti	-11.3718
ésében	-11.3719
▁kapcsolód	-11.3723
▁forintból	-11.3726
▁bizonyítékok	-11.3727
▁hitt	-11.3728
▁(16	-11.3728
▁helyszíne	-11.373
▁esetről	-11.3731
zók	-11.3731
▁2,9	-11.3731
▁érdekeltség	-11.3731
66	-11.3732
ezzük	-11.3733
disz	-11.3734
▁(11	-11.3734
óknak	-11.3735
▁önt	-11.3735
▁tág	-11.3735
műve	-11.3737
rum	-11.3739
Sopron	-11.374
interjú	-11.3741
▁utasokat	-11.3742
▁fokú	-11.3742
▁Szal	-11.3743
▁dicsér	-11.3744
mély	-11.3744
Kelet	-11.3745
gazdálkodási	-11.3745
▁katoná	-11.3746
volt	-11.3746
▁millióval	-11.3748
▁lakosságot	-11.3752
▁részvénypiac	-11.3752
áltak	-11.3753
Ka	-11.3754
▁hova	-11.3755
▁tere	-11.3757
▁harcos	-11.3758
▁rendszerét	-11.3763
katasztrófa	-11.3763
▁eseményen	-11.3763
▁lapot	-11.3764
▁részei	-11.3765
▁Belgium	-11.3765
élés	-11.3766
▁egyetemen	-11.3766
▁információs	-11.3766
▁elemek	-11.3772
▁barátnő	-11.3773
sco	-11.3773
▁hónapot	-11.3774
▁átlátható	-11.3774
▁Kat	-11.3776
▁jelenlét	-11.3776
▁törvényes	-11.3777
személy	-11.3777
▁tünetek	-11.3779
▁szempontok	-11.3779
gató	-11.3781
71	-11.3784
▁területe	-11.3785
▁fenntartott	-11.3787
▁ügyeletese	-11.3787
fogó	-11.379
▁módosította	-11.3791
▁Legalább	-11.3793
▁vettem	-11.3794
ítsák	-11.3794
▁Számvevőszék	-11.3795
▁Wolfsburg	-11.3795
▁milánói	-11.3795
▁vacsorá	-11.3795
▁politológus	-11.3795
▁Leonardo	-11.3795
▁delegáció	-11.3795
▁fillér	-11.3795
▁csokoládé	-11.3795
▁autókat	-11.3795
▁tüdő	-11.3795
▁megbízatás	-11.3795
túra	-11.3796
▁Hajnal	-11.3796
▁skót	-11.3796
▁módosítani	-11.3796
▁sms	-11.3797
▁szerződésben	-11.3797
▁igénybevétel	-11.3797
▁néni	-11.3797
▁névsor	-11.3798
▁életrajz	-11.3798
▁Valami	-11.3799
▁késéssel	-11.3799
rossz	-11.3799
▁leszámítva	-11.3799
▁előtérbe	-11.3801
▁terhelő	-11.3802
▁modellje	-11.3802
▁itteni	-11.3803
▁jutásért	-11.3803
▁kín	-11.3803
▁pletykák	-11.3805
▁kapcsolódik	-11.3805
▁utalnak	-11.3806
▁kerülne	-11.3807
▁meccsek	-11.381
▁járható	-11.381
▁megszorító	-11.3811
▁kevered	-11.3812
▁nyerhet	-11.3812
▁hétre	-11.3813
▁azokra	-11.3814
▁Illés	-11.3814
▁véleményt	-11.3814
▁haláleset	-11.3817
▁elfogadása	-11.3818
alapítás	-11.3819
ommal	-11.3819
xi	-11.3819
▁termés	-11.3819
▁Tény	-11.3821
▁tender	-11.3822
▁lendület	-11.3823
▁fényében	-11.3823
▁estig	-11.3823
▁fiát	-11.3823
▁Jon	-11.3825
▁barna	-11.3825
▁főre	-11.3827
olnak	-11.3829
▁3-1-	-11.3829
▁rendeztek	-11.3831
▁jogait	-11.3834
▁jellem	-11.3834
▁jogerősen	-11.3835
qua	-11.3836
▁pozíciót	-11.3837
▁tennie	-11.3838
GY	-11.3839
ságának	-11.3842
ztatás	-11.3844
umot	-11.3845
rét	-11.3846
▁emlékezetes	-11.3847
▁üzenete	-11.3848
▁megtehet	-11.385
▁Sajó	-11.385
▁kezelik	-11.3852
▁240	-11.3853
beruházás	-11.3854
▁ígéretet	-11.3855
▁aranyat	-11.3856
▁értesít	-11.3857
▁kérdésekben	-11.3859
▁igazolni	-11.3861
▁következtetés	-11.3867
intézet	-11.3867
▁nyújtotta	-11.3868
látó	-11.3869
▁Ivan	-11.3869
▁egyedüli	-11.3871
▁Mun	-11.3873
▁hibáz	-11.3874
▁üzemeltetés	-11.3874
▁előnyben	-11.3875
▁megvéd	-11.3875
első	-11.3876
▁vesztegetés	-11.3876
▁szavak	-11.3879
▁Érdek	-11.3879
▁baktérium	-11.388
hajtású	-11.388
▁Vajda	-11.3881
szerűtlen	-11.3883
▁szurkoló	-11.3888
Popu	-11.389
▁Mail	-11.3891
▁vártak	-11.3891
Hide	-11.3892
▁választja	-11.3894
▁motorja	-11.3895
▁Nyugati	-11.3896
▁ugyanezt	-11.3897
▁Lion	-11.3897
▁szigor	-11.3901
meccsen	-11.3901
▁városa	-11.3901
teti	-11.3902
▁sérülések	-11.3903
ódó	-11.3905
12-	-11.3908
▁ennyit	-11.3911
▁daganat	-11.3913
patak	-11.3913
▁szerződését	-11.3913
▁zárni	-11.3913
▁leggyorsabb	-11.3913
▁csomó	-11.3916
▁indexe	-11.3918
▁vonni	-11.3919
értékelés	-11.392
▁mu	-11.3921
▁hatásos	-11.3922
▁tartományi	-11.3922
errel	-11.3922
csillagos	-11.3923
▁Lengyel	-11.3924
▁fényes	-11.3924
▁Med	-11.3924
▁politikát	-11.3924
▁CNN	-11.3925
▁Gulyás	-11.3925
▁Kramnyik	-11.3925
▁Tímea	-11.3925
▁vulkán	-11.3925
▁Ügynökség	-11.3925
▁Ügyészség	-11.3925
▁látszat	-11.3925
▁rezsim	-11.3925
▁álláspontját	-11.3925
termesztés	-11.3925
▁lennék	-11.3925
▁étrend	-11.3925
▁legkésőbb	-11.3925
▁kormányra	-11.3926
▁gróf	-11.3926
▁megerősítették	-11.3927
▁emlékszem	-11.3928
▁Állam	-11.3928
▁MTK	-11.3928
▁törvénytervezet	-11.3928
▁Atlético	-11.393
▁veszélyeztetett	-11.3932
ítenek	-11.3932
szky	-11.3932
IM	-11.3932
▁vagyonadó	-11.3933
▁360	-11.3935
▁bankadó	-11.3935
ológ	-11.3935
rv	-11.3935
▁szeretem	-11.3935
▁motorral	-11.3936
▁folytatód	-11.3936
▁alakulhat	-11.3936
dús	-11.3936
szabad	-11.3937
▁Tör	-11.3937
stop	-11.3938
▁csökkentésére	-11.3938
▁poén	-11.394
▁terhelés	-11.394
▁akkoriban	-11.3941
▁lőttek	-11.3942
ajtó	-11.3942
▁magyarázatot	-11.3945
▁gőz	-11.3946
▁kiemelten	-11.3947
▁kört	-11.3948
▁illetékesek	-11.395
▁EB	-11.395
▁látnak	-11.3953
▁Tol	-11.3955
▁Vác	-11.3955
▁szállítottak	-11.3955
olo	-11.3956
▁Kf	-11.3958
keresés	-11.3958
sim	-11.3961
▁Zsu	-11.3962
▁nyilvánosan	-11.3962
▁határában	-11.3963
▁együttműköd	-11.3963
▁felismerés	-11.3965
kód	-11.3968
▁megvolt	-11.3968
▁fórumon	-11.3969
▁Mindezt	-11.3972
▁bűntett	-11.3973
▁est	-11.3973
▁bevezetés	-11.3974
hették	-11.3974
vinni	-11.3975
▁lakosok	-11.3976
▁kétséges	-11.3976
▁enyhít	-11.3978
▁munkaerőpiac	-11.3983
▁ob	-11.3985
elképzelhetetlen	-11.3985
▁kezdetén	-11.3989
▁újítás	-11.3989
▁témája	-11.399
▁jellegzetes	-11.3991
dj	-11.3992
▁Magyarországról	-11.3992
▁szállított	-11.3992
▁hatások	-11.3999
▁terve	-11.4
▁termelt	-11.4001
▁szag	-11.4001
▁Bad	-11.4001
selejtező	-11.4002
projekt	-11.4002
testvér	-11.4003
▁komment	-11.4003
▁valósul	-11.4004
▁törlesztés	-11.4004
▁fedezte	-11.4007
▁délelőtti	-11.4009
csöv	-11.401
szintű	-11.4016
▁játszotta	-11.4017
▁autóját	-11.402
▁depresszió	-11.4021
▁Michel	-11.4023
▁virradó	-11.4026
▁Mike	-11.4026
▁kiprób	-11.4027
▁tudósít	-11.4029
▁Peking	-11.403
▁nézettség	-11.4034
▁sora	-11.4036
▁percek	-11.4036
▁évforduló	-11.4038
ülni	-11.4038
BS	-11.4039
▁jegyek	-11.4039
▁kívülről	-11.404
▁Bara	-11.4042
munkás	-11.4042
kérés	-11.4044
▁Han	-11.4045
▁megszüntetésé	-11.4048
mező	-11.4048
▁emlékezett	-11.405
▁többséget	-11.4051
▁Buda	-11.4052
vagyon	-11.4053
▁megemlít	-11.4054
▁képességei	-11.4054
▁túlnyomó	-11.4055
▁fellép	-11.4055
▁diadal	-11.4056
▁demonstrál	-11.4056
▁kopogtatócédulá	-11.4056
▁Mozgalom	-11.4056
▁Nissan	-11.4056
▁Sebestyén	-11.4056
▁Stohl	-11.4056
▁evolúció	-11.4056
▁külképviselet	-11.4056
▁legsikeresebb	-11.4056
▁motivál	-11.4056
▁soproni	-11.4056
▁előnnyel	-11.4056
▁működni	-11.4056
▁Csepel	-11.4056
▁kétoldalú	-11.4056
▁néhol	-11.4056
▁sérelme	-11.4056
▁labdarúgás	-11.4056
▁laptop	-11.4056
▁szélsőjobboldal	-11.4057
▁aluljáró	-11.4057
▁Tesco	-11.4057
▁megfogalmazás	-11.4057
▁egyenleg	-11.4058
▁angli	-11.4059
lja	-11.4059
kór	-11.406
sejtek	-11.406
▁felfüggesztés	-11.406
▁Ennyi	-11.4061
▁örülök	-11.4062
▁nyomtatott	-11.4062
▁Tolna	-11.4063
▁utasította	-11.4063
▁RMDSZ	-11.4063
▁ellop	-11.4063
▁harag	-11.4064
▁Fox	-11.4064
▁Brad	-11.4065
▁feltűnő	-11.4066
ME	-11.4067
netán	-11.4067
▁felhívja	-11.4067
▁teker	-11.4069
▁nyilatkozatában	-11.4069
▁alakú	-11.4069
▁kockázatok	-11.407
▁egyetértés	-11.407
▁továbbjutott	-11.4073
▁4-2	-11.4074
▁jelentettek	-11.4074
▁megszületett	-11.4075
▁előzte	-11.4075
▁szilárd	-11.4076
5+	-11.4076
▁vezetőinek	-11.4076
▁próbálnak	-11.4077
láb	-11.4077
▁tengerpart	-11.4077
tettek	-11.4077
ánc	-11.4077
▁költözött	-11.4079
tél	-11.4079
▁gazdálkod	-11.4081
▁helyiek	-11.4081
ségével	-11.4081
▁illeték	-11.4083
▁támogatással	-11.4085
▁Carl	-11.4086
▁statisztikák	-11.4087
▁árusít	-11.4088
▁közvetítő	-11.4089
▁segítségét	-11.4089
▁ideiglenesen	-11.409
▁gyengül	-11.4091
▁fogadás	-11.4091
▁bezárt	-11.4092
▁sérülése	-11.4093
▁építőipar	-11.4094
▁Dem	-11.4095
▁cselekedet	-11.4095
▁ellentmondás	-11.4095
▁1999	-11.4095
fül	-11.4096
▁választhat	-11.4096
▁hetvenes	-11.4097
▁AP	-11.4097
▁(13	-11.4098
▁fiatalokat	-11.41
▁forrásai	-11.41
lí	-11.4101
▁(24	-11.4101
függő	-11.4101
▁megnézni	-11.4101
▁2,2	-11.4105
vid	-11.4105
▁ezekből	-11.4105
▁szórakoz	-11.4111
ől	-11.4111
▁technika	-11.4113
fejlesztő	-11.4114
▁lakást	-11.4114
▁akarom	-11.4115
▁Hegy	-11.4117
▁rögzít	-11.4118
▁kút	-11.412
▁folt	-11.412
▁Sokkal	-11.412
▁hangulatot	-11.4123
▁ep	-11.4123
In	-11.4124
▁garantált	-11.4125
▁folyamatot	-11.4127
▁eltérően	-11.4128
▁szélső	-11.4128
osodás	-11.4129
▁far	-11.4129
▁előírások	-11.413
▁határoz	-11.4131
▁munkások	-11.4131
szereplő	-11.4134
▁táncos	-11.4135
üzenet	-11.4136
vendég	-11.4136
rövid	-11.4136
GDP	-11.4136
MSZP	-11.4137
▁szakvezető	-11.4139
eső	-11.414
▁Sin	-11.4141
oy	-11.4142
▁jövője	-11.4142
▁lelke	-11.4145
▁évhez	-11.4147
▁szerelme	-11.4154
▁kiváltó	-11.4155
ado	-11.4156
reform	-11.4157
▁egészet	-11.4159
▁márciusi	-11.416
▁államtitkárság	-11.4161
▁tudósító	-11.4162
szerűség	-11.4163
IC	-11.4163
szervezés	-11.4164
▁Gab	-11.4166
emmel	-11.4166
torná	-11.4167
osztani	-11.417
▁Szombat	-11.4171
fil	-11.4171
▁elkészített	-11.4174
▁vihet	-11.4174
▁Keleti	-11.4175
▁különböz	-11.4175
▁szállodá	-11.4175
▁Deák	-11.4177
▁figyelmeztette	-11.4177
▁gyűjtés	-11.4178
▁valamely	-11.4178
▁mérséklőd	-11.4178
▁fölötti	-11.4179
▁viseli	-11.4179
elég	-11.4179
▁küzdött	-11.4181
▁elképzelések	-11.4182
elli	-11.4182
kapcsol	-11.4182
▁Szín	-11.4183
▁robbantás	-11.4189
▁identitás	-11.4189
▁önéletrajz	-11.4189
▁Rooney	-11.4189
▁Sevilla	-11.4189
▁diktatúra	-11.4189
▁éllovas	-11.4189
▁érzelmek	-11.4189
▁megközelítés	-11.419
▁nevéhez	-11.419
▁comment	-11.419
▁szőke	-11.419
▁megsértése	-11.419
▁káosz	-11.419
▁Charles	-11.419
▁hármat	-11.419
▁Nyrt	-11.4191
▁pénzbüntetés	-11.4191
▁körülötte	-11.4191
▁Hangsúlyozta	-11.4191
▁laza	-11.4193
▁élőben	-11.4193
▁Stuttgart	-11.4193
▁varázs	-11.4194
▁elismerést	-11.4195
FA	-11.4195
▁elhal	-11.4195
▁Mir	-11.4196
▁Rock	-11.4196
▁céljából	-11.4197
▁Tart	-11.4198
vállalás	-11.4198
helyi	-11.4199
▁elérés	-11.42
▁folyósít	-11.42
▁segítenek	-11.4202
▁projektek	-11.4204
▁Tele	-11.4204
▁hagyják	-11.4205
▁tények	-11.4206
▁ábrázoló	-11.4207
">	-11.4207
▁megelőzte	-11.4208
▁felmérések	-11.4209
▁szava	-11.4209
▁kialakított	-11.421
▁2006.	-11.4211
▁NL	-11.4211
napi	-11.4212
ovszky	-11.4212
US	-11.4215
▁passz	-11.4215
▁vállalkozói	-11.4215
▁védője	-11.4216
▁számításai	-11.4218
▁felfogás	-11.422
▁ereje	-11.422
▁iratokat	-11.422
▁közösségek	-11.4221
▁négyszer	-11.4221
▁látványosan	-11.4222
▁Adó	-11.4222
ning	-11.4223
▁beállítás	-11.4223
▁betöltő	-11.4224
▁lettem	-11.4225
76	-11.4227
▁Vancouverben	-11.4227
▁területre	-11.4227
▁hiányzó	-11.4228
▁aukció	-11.4228
kovic	-11.4229
kínai	-11.4232
rendező	-11.4233
▁Pitt	-11.4234
▁folyóiratban	-11.4235
▁Csehországban	-11.4236
▁Szo	-11.4236
ogatás	-11.4237
▁beszállító	-11.4237
▁közlekedni	-11.4238
▁értékpapír	-11.4239
áshoz	-11.424
gárdá	-11.424
csapás	-11.424
▁médiában	-11.4241
fesz	-11.4242
▁megemlékezés	-11.4244
▁dráma	-11.4246
csökkentő	-11.4247
▁elvtárs	-11.4248
De	-11.425
▁határozatot	-11.4256
▁üldöz	-11.4257
ítaná	-11.426
▁kapusa	-11.4261
▁tárgyaló	-11.4261
zást	-11.4263
▁elvégezni	-11.4263
▁kilométert	-11.4263
▁énekel	-11.4268
eredmény	-11.427
kísérlet	-11.4271
egészségügyi	-11.4271
▁tartva	-11.4272
▁finálé	-11.4272
▁enni	-11.4274
▁Fü	-11.4275
▁utazni	-11.4275
▁kialakul	-11.4275
átvétel	-11.4276
▁Wo	-11.4276
▁megvált	-11.4276
▁takarít	-11.4277
▁Str	-11.4278
▁elfoglalt	-11.4279
hit	-11.4281
▁felejt	-11.4281
▁megsérültek	-11.4282
▁szennyezett	-11.4282
▁csekk	-11.4283
▁mezőnyben	-11.4284
▁erőforrás	-11.4285
▁számokat	-11.4287
beszélgetés	-11.4291
▁érkez	-11.4292
▁Las	-11.4294
▁rés	-11.4299
▁főtitkár	-11.43
jéhez	-11.4301
▁Péntek	-11.4301
▁ingadoz	-11.4302
evés	-11.4303
utazás	-11.4305
▁kilátásba	-11.4305
▁4-3	-11.4306
▁becs	-11.4306
▁félnek	-11.4309
olvasó	-11.4309
ránt	-11.4312
▁megtalálni	-11.4312
▁elméleti	-11.4313
▁drasztikus	-11.4314
esített	-11.4314
▁Reg	-11.4314
▁ront	-11.4315
▁tűr	-11.4315
▁jogosultság	-11.4317
▁kattint	-11.4318
▁vélt	-11.4318
▁oltás	-11.4319
▁Hf	-11.4319
▁kísérte	-11.432
▁állítólagos	-11.4322
▁irányban	-11.4323
▁könnyed	-11.4323
can	-11.4324
▁sportolók	-11.4324
▁holokauszt	-11.4325
▁Bundesliga	-11.4325
▁Rengeteg	-11.4325
▁Virgin	-11.4325
▁Wikileaks	-11.4325
▁abortusz	-11.4325
▁beadvány	-11.4325
▁devecseri	-11.4325
▁extrém	-11.4325
▁generál	-11.4325
▁legnehezebb	-11.4325
▁pozsonyi	-11.4325
▁sláger	-11.4325
▁titokzatos	-11.4325
▁Érdemes	-11.4325
▁megtartani	-11.4325
▁style	-11.4325
▁hibái	-11.4325
▁kommunikál	-11.4325
▁Kiemelte	-11.4325
▁jelentkezik	-11.4325
▁főosztályvezető	-11.4325
▁Család	-11.4325
▁Ilona	-11.4325
▁pazar	-11.4325
▁harmadfokú	-11.4325
▁nyugdíjjárulék	-11.4325
▁lelkiismeret	-11.4325
▁emlékei	-11.4325
▁lépő	-11.4326
▁Diego	-11.4326
▁középkorú	-11.4326
▁felszólította	-11.4326
▁hangfelvétel	-11.4326
▁médiahatóság	-11.4327
▁végrehajtani	-11.4328
▁für	-11.4328
▁védelmében	-11.4329
▁Scott	-11.4329
▁érzék	-11.4329
csatorna	-11.4329
▁hallottam	-11.4329
▁szállítani	-11.4331
▁távozik	-11.4331
▁közepéig	-11.4331
▁emelkedése	-11.4331
▁társulat	-11.4332
bocs	-11.4333
▁Szerbiá	-11.4333
▁fedett	-11.4334
▁Chicago	-11.4334
került	-11.4334
▁Hollandia	-11.4336
onmou	-11.4337
▁módosított	-11.4337
nod	-11.4338
▁ötezer	-11.4338
▁Noha	-11.4338
▁szakadt	-11.4339
▁elítélt	-11.4339
▁fennálló	-11.4339
▁működésének	-11.434
▁megengedett	-11.4341
▁csakúgy	-11.4342
nyó	-11.4343
border	-11.4344
▁Eközben	-11.4344
▁hittem	-11.4344
▁tárol	-11.4346
▁menedzsment	-11.4346
szakadás	-11.4347
▁elfogadja	-11.4347
▁misszió	-11.4347
▁foglalta	-11.4347
▁takarékos	-11.4349
▁látszó	-11.4352
▁játszották	-11.4352
▁élve	-11.4352
▁Novák	-11.4355
▁hatalmat	-11.4355
▁végét	-11.4357
▁későn	-11.436
▁helyezni	-11.4362
▁lehetőségük	-11.4363
▁útnak	-11.4364
sünk	-11.4366
▁növények	-11.4367
robbant	-11.4367
▁hormon	-11.4368
▁ellentmond	-11.4372
készítés	-11.4373
▁alkalmi	-11.438
▁töltés	-11.438
▁fokozód	-11.4383
▁közepé	-11.4383
▁megmozdulás	-11.4384
idékfejlesztési	-11.4386
▁hiszi	-11.4388
▁öngól	-11.4388
▁szükségük	-11.439
▁bűncselekményt	-11.4393
▁elődöntőben	-11.4395
▁felelőssége	-11.4398
▁helyeztek	-11.4398
▁ízben	-11.44
▁2,7	-11.4401
▁reméli	-11.4401
fagy	-11.4402
ffer	-11.4403
▁elolvas	-11.4404
▁ösztöndíj	-11.4405
cser	-11.4406
▁210	-11.4407
nyilatkozat	-11.4407
kampány	-11.4407
koncert	-11.4408
lehetőség	-11.4408
▁városok	-11.4408
videó	-11.4409
mmel	-11.4411
döntés	-11.4414
▁tű	-11.4415
▁kilométeren	-11.4415
▁Önök	-11.4417
▁idejét	-11.4421
▁ölel	-11.4421
válasz	-11.4425
▁felmerül	-11.4426
▁választói	-11.4426
▁létrehozni	-11.443
▁erősít	-11.4431
▁mon	-11.4432
azon	-11.4434
gatott	-11.444
fogy	-11.4441
pus	-11.4442
▁elfelejt	-11.4442
▁főszerep	-11.4443
assák	-11.4444
▁megakadályoz	-11.4444
▁vegye	-11.4444
▁KT	-11.4445
▁Tat	-11.4446
▁járás	-11.4447
▁helyben	-11.4451
▁autóba	-11.4454
▁Erik	-11.4456
▁járult	-11.4458
▁töreked	-11.446
▁törőd	-11.446
▁percre	-11.4461
▁manipulál	-11.4462
▁hivatott	-11.4462
▁megsebesült	-11.4462
▁muzulmán	-11.4462
▁szimbólum	-11.4462
▁tizennégy	-11.4462
▁DAX	-11.4462
▁Jakab	-11.4462
▁licit	-11.4462
▁Híd	-11.4462
▁Civil	-11.4462
▁Innen	-11.4462
▁jelentőségű	-11.4462
▁mostantól	-11.4462
▁szivattyútelep	-11.4462
▁felperes	-11.4462
▁felhőzet	-11.4462
▁latin	-11.4462
▁megvalósítani	-11.4462
▁irányzat	-11.4463
▁elhelyezett	-11.4464
▁merev	-11.4464
▁arca	-11.4464
▁posztjáról	-11.4464
▁helyszínelés	-11.4465
strukt	-11.4465
▁diplomata	-11.4465
▁forog	-11.4466
állal	-11.4466
▁elteltével	-11.4467
▁gimnázium	-11.4468
▁feltételezett	-11.4469
▁elindít	-11.4469
▁méterre	-11.4469
▁céllal	-11.4469
▁0,9	-11.447
▁elkezdett	-11.4471
▁érthetetlen	-11.4471
▁Állat	-11.4474
▁sztárja	-11.4475
▁ezüstérmes	-11.4475
▁tartozott	-11.4476
▁küldöttség	-11.4477
▁késsel	-11.4478
▁okoznak	-11.4478
▁lemondás	-11.4479
▁elfoglal	-11.4479
▁lehetőségei	-11.448
▁Román	-11.448
▁Vélemény	-11.4481
kereső	-11.4482
▁megerősítés	-11.4483
▁kihagy	-11.4484
ross	-11.4485
▁ÁSZ	-11.4485
▁többségük	-11.4485
▁vallott	-11.4486
▁szorosan	-11.449
▁távozó	-11.4492
▁passzol	-11.4494
▁kötöttek	-11.4496
▁szemében	-11.4496
▁Kg	-11.4497
▁formája	-11.4502
vágó	-11.4505
▁nehezíti	-11.4506
termelő	-11.4506
Ke	-11.4509
▁Maria	-11.4511
üknek	-11.4514
▁srác	-11.4515
▁188	-11.4517
▁egyetértett	-11.4519
lengyel	-11.4521
▁telefonszám	-11.4521
▁folytatása	-11.4526
▁béké	-11.4528
▁AB	-11.4529
▁megcsinál	-11.4531
▁Wei	-11.4532
▁korlátoz	-11.4534
ásáért	-11.4534
▁közlés	-11.4536
úgy	-11.4538
▁kártérítést	-11.4538
uff	-11.4538
edd	-11.454
▁2500	-11.454
▁vizes	-11.4543
▁lámpá	-11.4543
közösség	-11.4546
jav	-11.4546
együttes	-11.4547
szkij	-11.4547
virág	-11.4547
▁rendelte	-11.4548
▁tehető	-11.4551
Fe	-11.4552
díjjal	-11.4553
szolgáltató	-11.4553
▁munkahelyet	-11.4553
▁vádolt	-11.4553
▁Tel	-11.4554
▁fenyegette	-11.4555
▁érve	-11.4556
▁látó	-11.4556
▁hitelezés	-11.4557
▁Somogyi	-11.456
▁mérkőzését	-11.456
▁használnak	-11.4562
▁ápol	-11.4564
▁Rendszer	-11.4564
▁gr	-11.4566
risz	-11.4567
▁France	-11.4568
kedni	-11.4569
▁Gaz	-11.4569
városban	-11.4569
▁javaslatát	-11.457
enu	-11.457
▁becsület	-11.457
▁Lin	-11.457
[...]
