{
  "version": "1.0",
  "truncation": null,
  "padding": null,
  "added_tokens": [
    {
      "id": 0,
      "content": "[UNK]",
      "single_word": false,
      "lstrip": false,
      "rstrip": false,
      "normalized": false,
      "special": true
    },
    {
      "id": 1,
      "content": "[CLS]",
      "single_word": false,
      "lstrip": false,
      "rstrip": false,
      "normalized": false,
      "special": true
    },
    {
      "id": 2,
      "content": "[SEP]",
      "single_word": false,
      "lstrip": false,
      "rstrip": false,
      "normalized": false,
      "special": true
    },
    {
      "id": 3,
      "content": "[PAD]",
      "single_word": false,
      "lstrip": false,
      "rstrip": false,
      "normalized": false,
      "special": true
    },
    {
      "id": 4,
      "content": "[MASK]",
      "single_word": false,
      "lstrip": false,
      "rstrip": false,
      "normalized": false,
      "special": true
    }
  ],
  "normalizer": {
    "type": "Sequence",
    "normalizers": [
      {
        "type": "NFKC"
      },
      {
        "type": "Lowercase"
      }
    ]
  },
  "pre_tokenizer": {
    "type": "Whitespace"
  },
  "post_processor": null,
  "decoder": {
    "type": "WordPiece",
    "prefix": "##",
    "cleanup": true
  },
  "model": {
    "type": "WordPiece",
    "unk_token": "[UNK]",
    "continuing_subword_prefix": "##",
    "max_input_chars_per_word": 100,
    "vocab": {
      "[UNK]": 0,
      "[CLS]": 1,
      "[SEP]": 2,
      "[PAD]": 3,
      "[MASK]": 4,
      "!": 5,
      "\"": 6,
      "#": 7,
      "$": 8,
      "%": 9,
      "&": 10,
      "'": 11,
      "(": 12,
      ")": 13,
      "*": 14,
      "+": 15,
      ",": 16,
      "-": 17,
      ".": 18,
      "/": 19,
      "0": 20,
      "1": 21,
      "2": 22,
      "3": 23,
      "4": 24,
      "5": 25,
      "6": 26,
      "7": 27,
      "8": 28,
      "9": 29,
      ":": 30,
      ";": 31,
      "<": 32,
      "=": 33,
      ">": 34,
      "?": 35,
      "@": 36,
      "[": 37,
      "\\": 38,
      "]": 39,
      "^": 40,
      "_": 41,
      "`": 42,
      "a": 43,
      "b": 44,
      "c": 45,
      "d": 46,
      "e": 47,
      "f": 48,
      "g": 49,
      "h": 50,
      "i": 51,
      "j": 52,
      "k": 53,
      "l": 54,
      "m": 55,
      "n": 56,
      "o": 57,
      "p": 58,
      "q": 59,
      "r": 60,
      "s": 61,
      "t": 62,
      "u": 63,
      "v": 64,
      "w": 65,
      "x": 66,
      "y": 67,
      "z": 68,
      "~": 69,
      "": 70,
      "": 71,
      "": 72,
      "": 73,
      "£": 74,
      "§": 75,
      "©": 76,
      "¬": 77,
      "­": 78,
      "®": 79,
      "°": 80,
      "±": 81,
      "·": 82,
      "×": 83,
      "ß": 84,
      "à": 85,
      "á": 86,
      "â": 87,
      "ã": 88,
      "ä": 89,
      "å": 90,
      "æ": 91,
      "ç": 92,
      "è": 93,
      "é": 94,
      "ê": 95,
      "ë": 96,
      "ì": 97,
      "í": 98,
      "î": 99,
      "ï": 100,
      "ð": 101,
      "ñ": 102,
      "ò": 103,
      "ó": 104,
      "ô": 105,
      "õ": 106,
      "ö": 107,
      "ø": 108,
      "ú": 109,
      "û": 110,
      "ü": 111,
      "ý": 112,
      "ÿ": 113,
      "ă": 114,
      "ą": 115,
      "ć": 116,
      "č": 117,
      "đ": 118,
      "ę": 119,
      "ı": 120,
      "ł": 121,
      "ń": 122,
      "ň": 123,
      "ő": 124,
      "ř": 125,
      "ś": 126,
      "ş": 127,
      "š": 128,
      "ţ": 129,
      "ť": 130,
      "ů": 131,
      "ű": 132,
      "ż": 133,
      "ž": 134,
      "ș": 135,
      "̈": 136,
      "̋": 137,
      "λ": 138,
      "μ": 139,
      "ї": 140,
      "ה": 141,
      "ו": 142,
      "י": 143,
      "‒": 144,
      "†": 145,
      "•": 146,
      "‬": 147,
      "‭": 148,
      "′": 149,
      "⁄": 150,
      "€": 151,
      "−": 152,
      "∗": 153,
      "≤": 154,
      "": 155,
      "": 156,
      "##l": 157,
      "##v": 158,
      "##a": 159,
      "##s": 160,
      "##h": 161,
      "##o": 162,
      "##r": 163,
      "##e": 164,
      "##g": 165,
      "##d": 166,
      "##j": 167,
      "##á": 168,
      "##t": 169,
      "##k": 170,
      "##z": 171,
      "##u": 172,
      "##n": 173,
      "##m": 174,
      "##b": 175,
      "##i": 176,
      "##y": 177,
      "##ü": 178,
      "##ó": 179,
      "##é": 180,
      "##ö": 181,
      "##6": 182,
      "##f": 183,
      "##p": 184,
      "##ú": 185,
      "##í": 186,
      "##ő": 187,
      "##c": 188,
      "##q": 189,
      "##ű": 190,
      "##ñ": 191,
      "##x": 192,
      "##9": 193,
      "##8": 194,
      "##0": 195,
      "##w": 196,
      "##1": 197,
      "##7": 198,
      "##4": 199,
      "##à": 200,
      "##2": 201,
      "###": 202,
      "##ä": 203,
      "##3": 204,
      "##5": 205,
      "##)": 206,
      "##ł": 207,
      "##_": 208,
      "##!": 209,
      "##ń": 210,
      "##ç": 211,
      "##\\": 212,
      "##è": 213,
      "##ô": 214,
      "##ř": 215,
      "##.": 216,
      "##:": 217,
      "##ž": 218,
      "##,": 219,
      "##š": 220,
      "##õ": 221,
      "##ø": 222,
      "##]": 223,
      "##ý": 224,
      "##ë": 225,
      "##?": 226,
      "##~": 227,
      "##ê": 228,
      "##/": 229,
      "##ć": 230,
      "##\"": 231,
      "##č": 232,
      "##-": 233,
      "##>": 234,
      "##ţ": 235,
      "##*": 236,
      "##î": 237,
      "##[": 238,
      "##$": 239,
      "##@": 240,
      "##ă": 241,
      "##ș": 242,
      "##ð": 243,
      "##æ": 244,
      "##ą": 245,
      "##ť": 246,
      "##+": 247,
      "##å": 248,
      "##ś": 249,
      "##ę": 250,
      "##ň": 251,
      "##&": 252,
      "##‭": 253,
      "##ї": 254,
      "##û": 255,
      "##'": 256,
      "##ò": 257,
      "##ï": 258,
      "##â": 259,
      "##†": 260,
      "##ş": 261,
      "##ů": 262,
      "##ß": 263,
      "##;": 264,
      "##ה": 265,
      "##ו": 266,
      "##ì": 267,
      "##đ": 268,
      "##′": 269,
      "##=": 270,
      "##ż": 271,
      "##ÿ": 272,
      "##(": 273,
      "##et": 274,
      "##en": 275,
      "##el": 276,
      "##gy": 277,
      "##sz": 278,
      "##er": 279,
      "##at": 280,
      "##an": 281,
      "sz": 282,
      "az": 283,
      "##al": 284,
      "##ek": 285,
      "##or": 286,
      "##on": 287,
      "##ár": 288,
      "##ak": 289,
      "##em": 290,
      "##ás": 291,
      "##eg": 292,
      "##ol": 293,
      "##in": 294,
      "##án": 295,
      "##ál": 296,
      "##es": 297,
      "##tt": 298,
      "el": 299,
      "##és": 300,
      "##ar": 301,
      "##ik": 302,
      "##ez": 303,
      "##ég": 304,
      "##én": 305,
      "##os": 306,
      "##ok": 307,
      "és": 308,
      "##bb": 309,
      "ho": 310,
      "##ér": 311,
      "egy": 312,
      "kö": 313,
      "##ett": 314,
      "##ül": 315,
      "##ág": 316,
      "meg": 317,
      "##ít": 318,
      "##ap": 319,
      "is": 320,
      "##ét": 321,
      "##át": 322,
      "hogy": 323,
      "##ék": 324,
      "##il": 325,
      "##oz": 326,
      "##él": 327,
      "##int": 328,
      "##ed": 329,
      "##ott": 330,
      "nem": 331,
      "##is": 332,
      "##agy": 333,
      "##ban": 334,
      "##szt": 335,
      "##it": 336,
      "cs": 337,
      "##ad": 338,
      "##ben": 339,
      "##om": 340,
      "##ta": 341,
      "##cs": 342,
      "szer": 343,
      "##ól": 344,
      "##ul": 345,
      "##ség": 346,
      "##as": 347,
      "##am": 348,
      "ki": 349,
      "##ni": 350,
      "köz": 351,
      "##og": 352,
      "##ák": 353,
      "fel": 354,
      "##ány": 355,
      "##ai": 356,
      "##ény": 357,
      "##aj": 358,
      "le": 359,
      "##ja": 360,
      "##áz": 361,
      "ez": 362,
      "##ely": 363,
      "##re": 364,
      "##ra": 365,
      "am": 366,
      "##ig": 367,
      "al": 368,
      "##ag": 369,
      "##ent": 370,
      "##nk": 371,
      "##iz": 372,
      "##az": 373,
      "tö": 374,
      "ak": 375,
      "##ép": 376,
      "##ész": 377,
      "ál": 378,
      "##ot": 379,
      "be": 380,
      "##ság": 381,
      "##ut": 382,
      "##rt": 383,
      "##ny": 384,
      "##ől": 385,
      "##het": 386,
      "##olt": 387,
      "##ám": 388,
      "##end": 389,
      "gy": 390,
      "ny": 391,
      "##nak": 392,
      "##ell": 393,
      "##ci": 394,
      "min": 395,
      "##us": 396,
      "##nt": 397,
      "áll": 398,
      "de": 399,
      "##nek": 400,
      "##ök": 401,
      "év": 402,
      "vál": 403,
      "##ató": 404,
      "##ért": 405,
      "##art": 406,
      "##ond": 407,
      "##lt": 408,
      "##len": 409,
      "##ont": 410,
      "kor": 411,
      "##od": 412,
      "##ud": 413,
      "for": 414,
      "##szer": 415,
      "szerint": 416,
      "##ró": 417,
      "mi": 418,
      "##ab": 419,
      "es": 420,
      "##ber": 421,
      "##egy": 422,
      "jel": 423,
      "##av": 424,
      "rend": 425,
      "ol": 426,
      "##ezet": 427,
      "már": 428,
      "elő": 429,
      "volt": 430,
      "##ött": 431,
      "leg": 432,
      "##szág": 433,
      "mind": 434,
      "##unk": 435,
      "##vet": 436,
      "em": 437,
      "##agyar": 438,
      "val": 439,
      "##let": 440,
      "ér": 441,
      "magyar": 442,
      "ad": 443,
      "20": 444,
      "ut": 445,
      "id": 446,
      "##uk": 447,
      "##ev": 448,
      "ter": 449,
      "nagy": 450,
      "##att": 451,
      "ha": 452,
      "er": 453,
      "##ov": 454,
      "##ill": 455,
      "or": 456,
      "##ert": 457,
      "##ep": 458,
      "ok": 459,
      "##ább": 460,
      "hely": 461,
      "##kö": 462,
      "ker": 463,
      "né": 464,
      "több": 465,
      "in": 466,
      "##ént": 467,
      "##ában": 468,
      "##ej": 469,
      "át": 470,
      "##ős": 471,
      "##est": 472,
      "hi": 473,
      "még": 474,
      "azt": 475,
      "##atás": 476,
      "szám": 477,
      "##ön": 478,
      "##ssz": 479,
      "##ők": 480,
      "##esz": 481,
      "##ült": 482,
      "##olg": 483,
      "##vel": 484,
      "##zet": 485,
      "##id": 486,
      "kap": 487,
      "csak": 488,
      "mint": 489,
      "##aszt": 490,
      "##mány": 491,
      "##alm": 492,
      "##ük": 493,
      "##kor": 494,
      "##ív": 495,
      "hoz": 496,
      "tud": 497,
      "##ében": 498,
      "ar": 499,
      "##te": 500,
      "van": 501,
      "##ály": 502,
      "##ált": 503,
      "##elm": 504,
      "lehet": 505,
      "kell": 506,
      "##ette": 507,
      "tart": 508,
      "száz": 509,
      "##ia": 510,
      "##ba": 511,
      "##um": 512,
      "an": 513,
      "##oly": 514,
      "##val": 515,
      "két": 516,
      "##éd": 517,
      "##obb": 518,
      "vagy": 519,
      "más": 520,
      "nek": 521,
      "ben": 522,
      "##ve": 523,
      "##ció": 524,
      "##ző": 525,
      "ig": 526,
      "nak": 527,
      "en": 528,
      "mag": 529,
      "ért": 530,
      "ban": 531,
      "##áll": 532,
      "##áj": 533,
      "amely": 534,
      "biz": 535,
      "##árt": 536,
      "##ei": 537,
      "##koz": 538,
      "##kez": 539,
      "##elő": 540,
      "új": 541,
      "sem": 542,
      "vég": 543,
      "il": 544,
      "##ítás": 545,
      "##iszt": 546,
      "kép": 547,
      "##eket": 548,
      "össz": 549,
      "fog": 550,
      "##ony": 551,
      "ellen": 552,
      "##ió": 553,
      "hat": 554,
      "mond": 555,
      "##ort": 556,
      "##ső": 557,
      "##ajd": 558,
      "##eszt": 559,
      "##alék": 560,
      "##hat": 561,
      "##ély": 562,
      "##öl": 563,
      "tel": 564,
      "pr": 565,
      "##mény": 566,
      "re": 567,
      "##ch": 568,
      "##ur": 569,
      "##ók": 570,
      "##ír": 571,
      "##ín": 572,
      "##öv": 573,
      "##őr": 574,
      "##kal": 575,
      "százalék": 576,
      "##ára": 577,
      "##ör": 578,
      "##úl": 579,
      "##ebb": 580,
      "##ják": 581,
      "##ület": 582,
      "##nök": 583,
      "##okat": 584,
      "##ország": 585,
      "##ése": 586,
      "eu": 587,
      "ped": 588,
      "kül": 589,
      "mill": 590,
      "##ított": 591,
      "mű": 592,
      "##ód": 593,
      "szem": 594,
      "##áb": 595,
      "rész": 596,
      "ek": 597,
      "nap": 598,
      "##ult": 599,
      "##éz": 600,
      "minden": 601,
      "jelent": 602,
      "pedig": 603,
      "##ug": 604,
      "##íz": 605,
      "##eh": 606,
      "##leg": 607,
      "##ható": 608,
      "vár": 609,
      "##dés": 610,
      "kör": 611,
      "##na": 612,
      "ra": 613,
      "##ós": 614,
      "munk": 615,
      "##ikai": 616,
      "után": 617,
      "##im": 618,
      "kez": 619,
      "##asz": 620,
      "##elt": 621,
      "tár": 622,
      "azon": 623,
      "200": 624,
      "##be": 625,
      "##op": 626,
      "##ilág": 627,
      "vi": 628,
      "##ján": 629,
      "vezet": 630,
      "euró": 631,
      "ját": 632,
      "##ani": 633,
      "##tal": 634,
      "vis": 635,
      "##aság": 636,
      "##vény": 637,
      "tal": 638,
      "ország": 639,
      "##zés": 640,
      "ind": 641,
      "forint": 642,
      "##esen": 643,
      "##je": 644,
      "állam": 645,
      "kormány": 646,
      "szak": 647,
      "alap": 648,
      "##lal": 649,
      "világ": 650,
      "##gyan": 651,
      "fő": 652,
      "majd": 653,
      "ár": 654,
      "##ost": 655,
      "fi": 656,
      "##ére": 657,
      "ember": 658,
      "##ád": 659,
      "bel": 660,
      "han": 661,
      "##eny": 662,
      "int": 663,
      "ugyan": 664,
      "lesz": 665,
      "első": 666,
      "úgy": 667,
      "##ális": 668,
      "##emény": 669,
      "##abb": 670,
      "##önt": 671,
      "kis": 672,
      "így": 673,
      "ügy": 674,
      "##va": 675,
      "szab": 676,
      "##lan": 677,
      "##ölt": 678,
      "##ob": 679,
      "##azd": 680,
      "19": 681,
      "sok": 682,
      "követ": 683,
      "aki": 684,
      "jó": 685,
      "hét": 686,
      "##tak": 687,
      "oly": 688,
      "miatt": 689,
      "##etlen": 690,
      "##énz": 691,
      "tört": 692,
      "##nap": 693,
      "##ember": 694,
      "sor": 695,
      "vissz": 696,
      "##ló": 697,
      "##ked": 698,
      "##ást": 699,
      "sp": 700,
      "##ügy": 701,
      "##yen": 702,
      "igaz": 703,
      "mar": 704,
      "tan": 705,
      "ép": 706,
      "##nál": 707,
      "mert": 708,
      "hal": 709,
      "között": 710,
      "##vezet": 711,
      "##vár": 712,
      "##áció": 713,
      "lát": 714,
      "akkor": 715,
      "##ri": 716,
      "##etés": 717,
      "foly": 718,
      "tör": 719,
      "idő": 720,
      "olyan": 721,
      "##fi": 722,
      "##ikus": 723,
      "saj": 724,
      "##ának": 725,
      "##ne": 726,
      "##ös": 727,
      "##ház": 728,
      "mondta": 729,
      "##ót": 730,
      "elm": 731,
      "##hoz": 732,
      "##00": 733,
      "##ünk": 734,
      "st": 735,
      "alk": 736,
      "##köz": 737,
      "kész": 738,
      "##év": 739,
      "ir": 740,
      "vált": 741,
      "kér": 742,
      "választ": 743,
      "ver": 744,
      "ami": 745,
      "##iv": 746,
      "él": 747,
      "bizt": 748,
      "##ások": 749,
      "ism": 750,
      "##nyi": 751,
      "##jel": 752,
      "##öld": 753,
      "tov": 754,
      "##atal": 755,
      "tovább": 756,
      "hár": 757,
      "##ász": 758,
      "hozz": 759,
      "tám": 760,
      "##szak": 761,
      "##ezett": 762,
      "most": 763,
      "##ém": 764,
      "##osan": 765,
      "##ím": 766,
      "pénz": 767,
      "fej": 768,
      "ked": 769,
      "##ének": 770,
      "nemzet": 771,
      "egyik": 772,
      "##ezt": 773,
      "csap": 774,
      "##ező": 775,
      "##íj": 776,
      "jog": 777,
      "gazd": 778,
      "per": 779,
      "azonban": 780,
      "aut": 781,
      "##étel": 782,
      "##eni": 783,
      "##ával": 784,
      "##ési": 785,
      "##olit": 786,
      "fr": 787,
      "eg": 788,
      "ed": 789,
      "jár": 790,
      "kezd": 791,
      "##ossz": 792,
      "##atok": 793,
      "érd": 794,
      "##ács": 795,
      "dönt": 796,
      "való": 797,
      "##zs": 798,
      "mell": 799,
      "##ést": 800,
      "rendőr": 801,
      "##ir": 802,
      "##any": 803,
      "##nok": 804,
      "fér": 805,
      "valam": 806,
      "##ták": 807,
      "201": 808,
      "##áv": 809,
      "##adás": 810,
      "három": 811,
      "elnök": 812,
      "##árd": 813,
      "##ról": 814,
      "##for": 815,
      "##tel": 816,
      "##osz": 817,
      "ról": 818,
      "eset": 819,
      "telj": 820,
      "##ikor": 821,
      "illet": 822,
      "##kel": 823,
      "ír": 824,
      "##atkoz": 825,
      "által": 826,
      "##ási": 827,
      "külön": 828,
      "ezt": 829,
      "##ekt": 830,
      "##un": 831,
      "##eti": 832,
      "##ck": 833,
      "európ": 834,
      "##hető": 835,
      "millió": 836,
      "##jt": 837,
      "vol": 838,
      "pont": 839,
      "cím": 840,
      "##almaz": 841,
      "nél": 842,
      "kapcs": 843,
      "##éter": 844,
      "jelen": 845,
      "polit": 846,
      "##zel": 847,
      "on": 848,
      "har": 849,
      "ered": 850,
      "##eb": 851,
      "men": 852,
      "ne": 853,
      "##fel": 854,
      "##eng": 855,
      "##ván": 856,
      "arra": 857,
      "szó": 858,
      "##izs": 859,
      "##tö": 860,
      "vissza": 861,
      "term": 862,
      "élet": 863,
      "korább": 864,
      "##pont": 865,
      "##ati": 866,
      "br": 867,
      "ott": 868,
      "nev": 869,
      "szint": 870,
      "össze": 871,
      "visz": 872,
      "egész": 873,
      "én": 874,
      "##ból": 875,
      "##ító": 876,
      "kon": 877,
      "et": 878,
      "sik": 879,
      "##atott": 880,
      "ah": 881,
      "nyil": 882,
      "##fő": 883,
      "kom": 884,
      "bal": 885,
      "vezető": 886,
      "jobb": 887,
      "társ": 888,
      "##ozás": 889,
      "par": 890,
      "mér": 891,
      "len": 892,
      "##incs": 893,
      "##eked": 894,
      "##ki": 895,
      "kat": 896,
      "##old": 897,
      "előtt": 898,
      "nyug": 899,
      "##oló": 900,
      "##tó": 901,
      "##ített": 902,
      "magyarország": 903,
      "##ozat": 904,
      "gond": 905,
      "nő": 906,
      "fél": 907,
      "dolg": 908,
      "szerep": 909,
      "##and": 910,
      "##elmi": 911,
      "),": 912,
      "##ről": 913,
      "történ": 914,
      "gazdaság": 915,
      "amer": 916,
      "##lő": 917,
      "besz": 918,
      "cég": 919,
      "von": 920,
      "##up": 921,
      "itt": 922,
      "##ítés": 923,
      "kapcsol": 924,
      "##oll": 925,
      "##árm": 926,
      "párt": 927,
      "##alom": 928,
      "##ti": 929,
      "##ög": 930,
      "##tár": 931,
      "##iárd": 932,
      "gyer": 933,
      "##ozó": 934,
      "##ing": 935,
      "lak": 936,
      "##lat": 937,
      "ma": 938,
      "költ": 939,
      "##hez": 940,
      "##últ": 941,
      "rendszer": 942,
      "amikor": 943,
      "éves": 944,
      "talál": 945,
      "##dig": 946,
      "érdek": 947,
      "##író": 948,
      "##vis": 949,
      "##ből": 950,
      "ít": 951,
      "tag": 952,
      "##met": 953,
      "érték": 954,
      "##izsg": 955,
      "##ic": 956,
      "ház": 957,
      "##ével": 958,
      "##éld": 959,
      "kar": 960,
      "rá": 961,
      "péld": 962,
      "##fog": 963,
      "##tatás": 964,
      "bud": 965,
      "játék": 966,
      "siker": 967,
      "volna": 968,
      "##véd": 969,
      "haj": 970,
      "##kül": 971,
      "##dul": 972,
      "ezer": 973,
      "másod": 974,
      "##ökk": 975,
      "négy": 976,
      "vas": 977,
      "megy": 978,
      "##ip": 979,
      "vesz": 980,
      "milliárd": 981,
      "baj": 982,
      "##jár": 983,
      "hó": 984,
      "öt": 985,
      "te": 986,
      "##ozott": 987,
      "alatt": 988,
      "teljes": 989,
      "illetve": 990,
      "nyom": 991,
      "seg": 992,
      "fid": 993,
      "##ezés": 994,
      "##úly": 995,
      "##adó": 996,
      "fil": 997,
      "##űn": 998,
      "ból": 999,
      "közl": 1000,
      "ként": 1001,
      "csapat": 1002,
      "vers": 1003,
      "hang": 1004,
      "hasz": 1005,
      "dél": 1006,
      "jöv": 1007,
      "nagyon": 1008,
      "10": 1009,
      "bar": 1010,
      "keres": 1011,
      "akik": 1012,
      "at": 1013,
      "tól": 1014,
      "zs": 1015,
      "amerikai": 1016,
      "vállal": 1017,
      "től": 1018,
      "mellett": 1019,
      "miniszt": 1020,
      "tav": 1021,
      "hír": 1022,
      "##oh": 1023,
      "##őség": 1024,
      "vel": 1025,
      "biztos": 1026,
      "##óz": 1027,
      "ba": 1028,
      "##ezte": 1029,
      "##usz": 1030,
      "##ütt": 1031,
      "##gató": 1032,
      "##uár": 1033,
      "nál": 1034,
      "##gg": 1035,
      "férfi": 1036,
      "fidesz": 1037,
      "##enc": 1038,
      "közölt": 1039,
      "hiv": 1040,
      "törvény": 1041,
      "##juk": 1042,
      "haz": 1043,
      "pály": 1044,
      "##kol": 1045,
      "##gel": 1046,
      "jav": 1047,
      "##után": 1048,
      "##elet": 1049,
      "támog": 1050,
      "ilyen": 1051,
      "üz": 1052,
      "##iai": 1053,
      "mód": 1054,
      "szól": 1055,
      "##díj": 1056,
      "véd": 1057,
      "vizsg": 1058,
      "##szerű": 1059,
      "##ető": 1060,
      "csökk": 1061,
      "##ram": 1062,
      "##omb": 1063,
      "##tam": 1064,
      "##ünt": 1065,
      "nincs": 1066,
      "##lés": 1067,
      "##enek": 1068,
      "kut": 1069,
      "szín": 1070,
      "marad": 1071,
      "együtt": 1072,
      "szolg": 1073,
      "ment": 1074,
      "##ogy": 1075,
      "##ex": 1076,
      "lép": 1077,
      "csal": 1078,
      "##vas": 1079,
      "##ként": 1080,
      "##elés": 1081,
      "##séges": 1082,
      "15": 1083,
      "##atlan": 1084,
      "##öz": 1085,
      "verseny": 1086,
      "##kép": 1087,
      "##ors": 1088,
      "##jelent": 1089,
      "eredmény": 1090,
      "##elem": 1091,
      "autó": 1092,
      "##kod": 1093,
      "##ása": 1094,
      "erős": 1095,
      "pár": 1096,
      "lett": 1097,
      "túl": 1098,
      "##apest": 1099,
      "budapest": 1100,
      "kil": 1101,
      "fiz": 1102,
      "képvis": 1103,
      "##hely": 1104,
      "has": 1105,
      "egyes": 1106,
      "##ülés": 1107,
      "##ket": 1108,
      "##ern": 1109,
      "cél": 1110,
      "##ium": 1111,
      "##tat": 1112,
      "következ": 1113,
      "##ját": 1114,
      "ebb": 1115,
      "##omány": 1116,
      "német": 1117,
      "vél": 1118,
      "##város": 1119,
      "mut": 1120,
      "##osság": 1121,
      "##ub": 1122,
      "##íg": 1123,
      "kev": 1124,
      "##da": 1125,
      "közel": 1126,
      "##ába": 1127,
      "##szín": 1128,
      "##ester": 1129,
      "európai": 1130,
      "##észt": 1131,
      "ről": 1132,
      "##őz": 1133,
      "azért": 1134,
      "bet": 1135,
      "##ocs": 1136,
      "hisz": 1137,
      "\".": 1138,
      "##le": 1139,
      "ezért": 1140,
      "##form": 1141,
      "figy": 1142,
      "személy": 1143,
      "ás": 1144,
      "##ábor": 1145,
      "##ór": 1146,
      "sport": 1147,
      "##álat": 1148,
      "kam": 1149,
      "##őt": 1150,
      "##avaz": 1151,
      "kapcsolat": 1152,
      "hanem": 1153,
      "##mű": 1154,
      "terv": 1155,
      "helyzet": 1156,
      "fran": 1157,
      "##esség": 1158,
      "##no": 1159,
      "##ant": 1160,
      "kérdés": 1161,
      "ja": 1162,
      "##ver": 1163,
      "##oport": 1164,
      "kés": 1165,
      "város": 1166,
      "szerző": 1167,
      "eml": 1168,
      "ot": 1169,
      "##ogram": 1170,
      "##ügyi": 1171,
      "kl": 1172,
      "##vány": 1173,
      "##óbb": 1174,
      "út": 1175,
      "ét": 1176,
      "##ilyen": 1177,
      "2010": 1178,
      "uk": 1179,
      "költség": 1180,
      "közölte": 1181,
      "bef": 1182,
      "##st": 1183,
      "eddig": 1184,
      "segít": 1185,
      "harm": 1186,
      "##aly": 1187,
      "kív": 1188,
      "##inek": 1189,
      "##tört": 1190,
      "##dő": 1191,
      "szük": 1192,
      "ezek": 1193,
      "reg": 1194,
      "hozzá": 1195,
      "körül": 1196,
      "##dal": 1197,
      "film": 1198,
      "##lás": 1199,
      "bár": 1200,
      "abb": 1201,
      "##pen": 1202,
      "jövő": 1203,
      "##ügg": 1204,
      "akar": 1205,
      "viszont": 1206,
      "szabad": 1207,
      "határ": 1208,
      "##ául": 1209,
      "jelenleg": 1210,
      "lét": 1211,
      "lap": 1212,
      "12": 1213,
      "jut": 1214,
      "##ef": 1215,
      "tett": 1216,
      "annak": 1217,
      "tavaly": 1218,
      "##rend": 1219,
      "##anak": 1220,
      "műkö": 1221,
      "második": 1222,
      "tér": 1223,
      "bl": 1224,
      "##ánt": 1225,
      "ahol": 1226,
      "nép": 1227,
      "het": 1228,
      "##ang": 1229,
      "néh": 1230,
      "##zett": 1231,
      "##cia": 1232,
      "rom": 1233,
      "any": 1234,
      "ber": 1235,
      "##hon": 1236,
      "például": 1237,
      "##só": 1238,
      "szeret": 1239,
      "köny": 1240,
      "mik": 1241,
      "hagy": 1242,
      "##tek": 1243,
      "bizony": 1244,
      "foglal": 1245,
      "nélkül": 1246,
      "##uszt": 1247,
      "##ítani": 1248,
      "pia": 1249,
      "tiszt": 1250,
      "olvas": 1251,
      "##pr": 1252,
      "##éntek": 1253,
      "##ából": 1254,
      "arról": 1255,
      "ből": 1256,
      "kerül": 1257,
      "terület": 1258,
      "jan": 1259,
      "negy": 1260,
      "##ontos": 1261,
      "forg": 1262,
      "##úz": 1263,
      "18": 1264,
      "##eli": 1265,
      "##ec": 1266,
      "saját": 1267,
      "di": 1268,
      "ör": 1269,
      "hétfő": 1270,
      "##ásár": 1271,
      "program": 1272,
      "hónap": 1273,
      "gondol": 1274,
      "miniszter": 1275,
      "alak": 1276,
      "alkot": 1277,
      "szo": 1278,
      "mno": 1279,
      "ön": 1280,
      "##ista": 1281,
      "kín": 1282,
      "##dik": 1283,
      "##vétel": 1284,
      "##ékoz": 1285,
      "##éb": 1286,
      "##lát": 1287,
      "intéz": 1288,
      "táv": 1289,
      "korábban": 1290,
      "csoport": 1291,
      "hivatal": 1292,
      "hát": 1293,
      "amit": 1294,
      "11": 1295,
      "##észet": 1296,
      "beszél": 1297,
      "##all": 1298,
      "##oszt": 1299,
      "család": 1300,
      "oszt": 1301,
      "##ven": 1302,
      "##ess": 1303,
      "ugyanis": 1304,
      "százalékkal": 1305,
      "bíró": 1306,
      "ch": 1307,
      "hason": 1308,
      "játsz": 1309,
      "gyak": 1310,
      "kedd": 1311,
      "gól": 1312,
      "hez": 1313,
      "##övet": 1314,
      "munka": 1315,
      "orosz": 1316,
      "##ink": 1317,
      "##ája": 1318,
      "kr": 1319,
      "került": 1320,
      "##esebb": 1321,
      "jegy": 1322,
      "uta": 1323,
      "mely": 1324,
      "##sal": 1325,
      "ór": 1326,
      "##ször": 1327,
      "os": 1328,
      "valamint": 1329,
      "közös": 1330,
      "##rób": 1331,
      "30": 1332,
      "##etett": 1333,
      "oldal": 1334,
      "elmond": 1335,
      "ennek": 1336,
      "##ájékoz": 1337,
      "##lam": 1338,
      "ismer": 1339,
      "hiszen": 1340,
      "bank": 1341,
      "jól": 1342,
      "csü": 1343,
      "emel": 1344,
      "óta": 1345,
      "##ika": 1346,
      "##ter": 1347,
      "##almas": 1348,
      "ének": 1349,
      "szabály": 1350,
      "##leszt": 1351,
      "##közi": 1352,
      "azok": 1353,
      "száll": 1354,
      "##ottság": 1355,
      "hossz": 1356,
      "péntek": 1357,
      "ának": 1358,
      "ezzel": 1359,
      "##föld": 1360,
      "használ": 1361,
      "bajnok": 1362,
      "##törtök": 1363,
      "csütörtök": 1364,
      "nyugdíj": 1365,
      "legn": 1366,
      "köt": 1367,
      "föld": 1368,
      "##itk": 1369,
      "mivel": 1370,
      "##ően": 1371,
      "test": 1372,
      "hit": 1373,
      "moz": 1374,
      "alapján": 1375,
      "tek": 1376,
      "##der": 1377,
      "##onság": 1378,
      "neh": 1379,
      "##újt": 1380,
      "tul": 1381,
      "rendőrség": 1382,
      "másik": 1383,
      "irány": 1384,
      "##erg": 1385,
      "felt": 1386,
      "##dött": 1387,
      "rég": 1388,
      "ség": 1389,
      "késő": 1390,
      "néhány": 1391,
      "##ették": 1392,
      "szavaz": 1393,
      "számára": 1394,
      "##eség": 1395,
      "##..": 1396,
      "perc": 1397,
      "víz": 1398,
      "##ass": 1399,
      "##ist": 1400,
      "dec": 1401,
      "##lott": 1402,
      "##fél": 1403,
      "tulajd": 1404,
      "egyet": 1405,
      "növ": 1406,
      "fordul": 1407,
      "im": 1408,
      "tárgy": 1409,
      "akár": 1410,
      "elem": 1411,
      "bor": 1412,
      "##olc": 1413,
      "míg": 1414,
      "##of": 1415,
      "csökkent": 1416,
      "25": 1417,
      "nyilván": 1418,
      "évek": 1419,
      "semm": 1420,
      "képviselő": 1421,
      "közül": 1422,
      "##sel": 1423,
      "lehetőség": 1424,
      "16": 1425,
      "##adik": 1426,
      "december": 1427,
      "##jobb": 1428,
      "ist": 1429,
      "amelyek": 1430,
      "##essz": 1431,
      "negyed": 1432,
      "önk": 1433,
      "szervezet": 1434,
      "című": 1435,
      "##zal": 1436,
      "százalékos": 1437,
      "dr": 1438,
      "as": 1439,
      "adó": 1440,
      "doll": 1441,
      "pl": 1442,
      "uni": 1443,
      "folyam": 1444,
      "##lag": 1445,
      "##ús": 1446,
      "and": 1447,
      "##áló": 1448,
      "felh": 1449,
      "megh": 1450,
      "hor": 1451,
      "kal": 1452,
      "##rás": 1453,
      "érkez": 1454,
      "##ológ": 1455,
      "##ította": 1456,
      "okat": 1457,
      "##szab": 1458,
      "ám": 1459,
      "január": 1460,
      "##ttal": 1461,
      "aján": 1462,
      "##ker": 1463,
      "iz": 1464,
      "kedv": 1465,
      "nyilatkoz": 1466,
      "tíz": 1467,
      "##elnök": 1468,
      "ap": 1469,
      "nov": 1470,
      "ára": 1471,
      "lenne": 1472,
      "##zi": 1473,
      "szerd": 1474,
      "tulajdon": 1475,
      "adat": 1476,
      "##tató": 1477,
      "##za": 1478,
      "##ések": 1479,
      "tű": 1480,
      "nemzetközi": 1481,
      "szövet": 1482,
      "gyerek": 1483,
      "hol": 1484,
      "kár": 1485,
      "fiatal": 1486,
      "szerv": 1487,
      "utol": 1488,
      "legjobb": 1489,
      "főváros": 1490,
      "##ha": 1491,
      "magas": 1492,
      "##ánd": 1493,
      "fut": 1494,
      "##ője": 1495,
      "legnagy": 1496,
      "csat": 1497,
      "körny": 1498,
      "legnagyobb": 1499,
      "hasonló": 1500,
      "mer": 1501,
      "raj": 1502,
      "emlék": 1503,
      "fer": 1504,
      "szomb": 1505,
      "nemzeti": 1506,
      "##alak": 1507,
      "form": 1508,
      "jelentős": 1509,
      "ink": 1510,
      "dolgoz": 1511,
      "szoci": 1512,
      "közép": 1513,
      "##tor": 1514,
      "eng": 1515,
      "könyv": 1516,
      "győz": 1517,
      "parlam": 1518,
      "parlament": 1519,
      "kellett": 1520,
      "##sége": 1521,
      "egyéb": 1522,
      "##ségi": 1523,
      "kit": 1524,
      "vit": 1525,
      "nagyobb": 1526,
      "##sa": 1527,
      "szél": 1528,
      "elég": 1529,
      "17": 1530,
      "fontos": 1531,
      "tanács": 1532,
      "rep": 1533,
      "##nny": 1534,
      "gyors": 1535,
      "##ac": 1536,
      "azzal": 1537,
      "##ítő": 1538,
      "megsz": 1539,
      "##von": 1540,
      "13": 1541,
      "hatás": 1542,
      "során": 1543,
      "idén": 1544,
      "ható": 1545,
      "tesz": 1546,
      "gazdasági": 1547,
      "14": 1548,
      "elmúlt": 1549,
      "teh": 1550,
      "##ászló": 1551,
      "##súly": 1552,
      "szemben": 1553,
      "elt": 1554,
      "vannak": 1555,
      "##jabb": 1556,
      "tartott": 1557,
      "bíróság": 1558,
      "elmondta": 1559,
      "##érték": 1560,
      "megyei": 1561,
      "hiány": 1562,
      "nyolc": 1563,
      "##isz": 1564,
      "rendel": 1565,
      "...": 1566,
      "ham": 1567,
      "legy": 1568,
      "egym": 1569,
      "##árnap": 1570,
      "vasárnap": 1571,
      "bizottság": 1572,
      "foglalkoz": 1573,
      "később": 1574,
      "korábbi": 1575,
      "án": 1576,
      "##okban": 1577,
      "##ull": 1578,
      "##előtt": 1579,
      "díj": 1580,
      "##gyű": 1581,
      "néz": 1582,
      "kereszt": 1583,
      "##adt": 1584,
      "fogy": 1585,
      "ság": 1586,
      "##szp": 1587,
      "##ején": 1588,
      "nyert": 1589,
      "tanul": 1590,
      "költségvet": 1591,
      "mindig": 1592,
      "gyakor": 1593,
      "mot": 1594,
      "polg": 1595,
      "hon": 1596,
      "piac": 1597,
      "függ": 1598,
      "##óbbi": 1599,
      "##iség": 1600,
      "##őzés": 1601,
      "##obl": 1602,
      "inform": 1603,
      "fejleszt": 1604,
      "részt": 1605,
      "##nal": 1606,
      "tekint": 1607,
      "##atot": 1608,
      "elfog": 1609,
      "szolgált": 1610,
      "##bán": 1611,
      "##áról": 1612,
      "##ib": 1613,
      "fok": 1614,
      "##assz": 1615,
      "##rat": 1616,
      "##ene": 1617,
      "milyen": 1618,
      "szen": 1619,
      "megáll": 1620,
      "támogatás": 1621,
      "vid": 1622,
      "kif": 1623,
      "##sor": 1624,
      "##út": 1625,
      "megfel": 1626,
      "esz": 1627,
      "tájékoz": 1628,
      "erő": 1629,
      "##né": 1630,
      "probl": 1631,
      "rossz": 1632,
      "##élet": 1633,
      "##ános": 1634,
      "##szám": 1635,
      "##ását": 1636,
      "gép": 1637,
      "##nél": 1638,
      "##ói": 1639,
      "további": 1640,
      "problém": 1641,
      "unk": 1642,
      "ismert": 1643,
      "prób": 1644,
      "##ejt": 1645,
      "sér": 1646,
      "##eset": 1647,
      "vez": 1648,
      "##mer": 1649,
      "##itány": 1650,
      "ant": 1651,
      "##ong": 1652,
      "tr": 1653,
      "újra": 1654,
      "##nő": 1655,
      "##csak": 1656,
      "ni": 1657,
      "ko": 1658,
      "alá": 1659,
      "tette": 1660,
      "##öt": 1661,
      "lászló": 1662,
      "gyan": 1663,
      "##zék": 1664,
      "helyett": 1665,
      "vásár": 1666,
      "##ard": 1667,
      "##jai": 1668,
      "igazgató": 1669,
      "hu": 1670,
      "##eccs": 1671,
      "állami": 1672,
      ".)": 1673,
      "##aton": 1674,
      "##séget": 1675,
      "2009": 1676,
      "bűn": 1677,
      "els": 1678,
      "##ezni": 1679,
      ").": 1680,
      "##talan": 1681,
      "##ettek": 1682,
      "erre": 1683,
      "##eit": 1684,
      "központ": 1685,
      "fin": 1686,
      "##új": 1687,
      "##mek": 1688,
      "ával": 1689,
      "##li": 1690,
      "sal": 1691,
      "##son": 1692,
      "hazai": 1693,
      "történt": 1694,
      "érint": 1695,
      "javas": 1696,
      "legal": 1697,
      "utolsó": 1698,
      "mszp": 1699,
      "inkább": 1700,
      "eljár": 1701,
      "adott": 1702,
      "sajtó": 1703,
      "tor": 1704,
      "felel": 1705,
      "##telen": 1706,
      "szerződés": 1707,
      "különb": 1708,
      "dem": 1709,
      "múlt": 1710,
      "voltak": 1711,
      "##ítette": 1712,
      "őket": 1713,
      "politikai": 1714,
      "th": 1715,
      "meccs": 1716,
      "gyű": 1717,
      "súly": 1718,
      "elnöke": 1719,
      "##enni": 1720,
      "kapott": 1721,
      "enged": 1722,
      "##mányz": 1723,
      "##vég": 1724,
      "dollár": 1725,
      "november": 1726,
      "zár": 1727,
      "könny": 1728,
      "várható": 1729,
      "tény": 1730,
      "önkor": 1731,
      "27": 1732,
      "önkormányz": 1733,
      "állít": 1734,
      "##ését": 1735,
      "kötel": 1736,
      "lev": 1737,
      "##ari": 1738,
      "méd": 1739,
      "##ka": 1740,
      "##leges": 1741,
      "##évő": 1742,
      "orbán": 1743,
      "##land": 1744,
      "199": 1745,
      "##lin": 1746,
      "fen": 1747,
      "ebben": 1748,
      "##vos": 1749,
      "att": 1750,
      "szig": 1751,
      "őr": 1752,
      "##alt": 1753,
      "port": 1754,
      "ünk": 1755,
      "összeg": 1756,
      "brit": 1757,
      "anyag": 1758,
      "francia": 1759,
      "indul": 1760,
      "rendelkez": 1761,
      "természet": 1762,
      "##lov": 1763,
      "éppen": 1764,
      "##átt": 1765,
      "folyamat": 1766,
      "hív": 1767,
      "vád": 1768,
      "##almazott": 1769,
      "##mér": 1770,
      "közleked": 1771,
      "alkotmány": 1772,
      "##ték": 1773,
      "##per": 1774,
      "emberek": 1775,
      "##ft": 1776,
      "mod": 1777,
      "##sze": 1778,
      "##viv": 1779,
      "kiv": 1780,
      "kór": 1781,
      "elh": 1782,
      "magán": 1783,
      "##ehér": 1784,
      "##ür": 1785,
      "##csi": 1786,
      "telep": 1787,
      "##ülő": 1788,
      "sikerült": 1789,
      "21": 1790,
      "##almi": 1791,
      "mérk": 1792,
      "gyermek": 1793,
      "magát": 1794,
      "találkoz": 1795,
      "biztonság": 1796,
      "beteg": 1797,
      "harmadik": 1798,
      "megállap": 1799,
      "tiz": 1800,
      "játékos": 1801,
      "emelked": 1802,
      "megt": 1803,
      "##lik": 1804,
      "##óta": 1805,
      "##éről": 1806,
      "állap": 1807,
      "jelölt": 1808,
      "##igaz": 1809,
      "oz": 1810,
      "szület": 1811,
      "##úsz": 1812,
      "történet": 1813,
      "##acs": 1814,
      "##mények": 1815,
      "##érium": 1816,
      "átlag": 1817,
      "##színű": 1818,
      "##olás": 1819,
      "intern": 1820,
      "hitel": 1821,
      "ford": 1822,
      "készült": 1823,
      "növeked": 1824,
      "figyelm": 1825,
      "kisebb": 1826,
      "utc": 1827,
      "##jük": 1828,
      "2008": 1829,
      "halál": 1830,
      "újabb": 1831,
      "##imp": 1832,
      "megfelelő": 1833,
      "válog": 1834,
      "##sér": 1835,
      "irod": 1836,
      "péter": 1837,
      "kir": 1838,
      "mutat": 1839,
      "legalább": 1840,
      "24": 1841,
      "##se": 1842,
      "ában": 1843,
      "mintegy": 1844,
      "tap": 1845,
      "szerdán": 1846,
      "##oni": 1847,
      "##ment": 1848,
      "##etni": 1849,
      "##ozta": 1850,
      "politikus": 1851,
      "hatóság": 1852,
      "megv": 1853,
      "ip": 1854,
      "kult": 1855,
      "országos": 1856,
      "következő": 1857,
      "hétfőn": 1858,
      "cik": 1859,
      "##osítás": 1860,
      "iskol": 1861,
      "22": 1862,
      "bünt": 1863,
      "ük": 1864,
      "felad": 1865,
      "lab": 1866,
      "mit": 1867,
      "fot": 1868,
      "üt": 1869,
      "veszély": 1870,
      "##uh": 1871,
      "persze": 1872,
      "##ármester": 1873,
      "##jában": 1874,
      "##anyol": 1875,
      "igen": 1876,
      "egyetem": 1877,
      "##ro": 1878,
      "mérkőzés": 1879,
      "##ebr": 1880,
      "##kv": 1881,
      "kedden": 1882,
      "##ították": 1883,
      "belül": 1884,
      "lég": 1885,
      "##nn": 1886,
      "információ": 1887,
      "##rel": 1888,
      "észak": 1889,
      "##úr": 1890,
      "utóbbi": 1891,
      "valószínű": 1892,
      "fogyaszt": 1893,
      "##kész": 1894,
      "egyelő": 1895,
      "##itás": 1896,
      "egyelőre": 1897,
      "szeg": 1898,
      "eket": 1899,
      "##követ": 1900,
      "keresked": 1901,
      "neki": 1902,
      "istván": 1903,
      "##har": 1904,
      "##szik": 1905,
      "abban": 1906,
      "közlemény": 1907,
      "##ion": 1908,
      "##edett": 1909,
      "spanyol": 1910,
      "barát": 1911,
      "végül": 1912,
      "talált": 1913,
      "ezen": 1914,
      "műv": 1915,
      "ül": 1916,
      "##gyel": 1917,
      "kü": 1918,
      "##min": 1919,
      "26": 1920,
      "sokkal": 1921,
      "##ait": 1922,
      "tárgyal": 1923,
      "miniszterelnök": 1924,
      "éve": 1925,
      "társaság": 1926,
      "\",": 1927,
      "szóló": 1928,
      "##baj": 1929,
      "##utt": 1930,
      "helyi": 1931,
      "hall": 1932,
      "##áp": 1933,
      "egyre": 1934,
      "szükség": 1935,
      "szlov": 1936,
      "##ekkel": 1937,
      "miután": 1938,
      "olasz": 1939,
      "##ezték": 1940,
      "##akkor": 1941,
      "helyen": 1942,
      "változ": 1943,
      "tam": 1944,
      "##úg": 1945,
      "külföld": 1946,
      "ugyanakkor": 1947,
      "föl": 1948,
      "szintén": 1949,
      "egészség": 1950,
      "kutató": 1951,
      "megb": 1952,
      "felelős": 1953,
      "part": 1954,
      "febr": 1955,
      "szív": 1956,
      "elér": 1957,
      "##cius": 1958,
      "vállalkoz": 1959,
      "gáz": 1960,
      "képest": 1961,
      "ab": 1962,
      "jell": 1963,
      "írja": 1964,
      "hozzát": 1965,
      "kívül": 1966,
      "##lap": 1967,
      "##chn": 1968,
      "komoly": 1969,
      "reggel": 1970,
      "##mus": 1971,
      "ing": 1972,
      "index": 1973,
      "der": 1974,
      "##íteni": 1975,
      "50": 1976,
      "til": 1977,
      "bele": 1978,
      "üzem": 1979,
      "##állítás": 1980,
      "egyébként": 1981,
      "válasz": 1982,
      "tűz": 1983,
      "március": 1984,
      "részlet": 1985,
      "ismét": 1986,
      "február": 1987,
      "válság": 1988,
      "megold": 1989,
      "üzlet": 1990,
      "ang": 1991,
      "kider": 1992,
      "forintot": 1993,
      "##övid": 1994,
      "##őv": 1995,
      "##ulás": 1996,
      "okkal": 1997,
      "lévő": 1998,
      "nyer": 1999,
      "##öző": 2000,
      "számít": 2001,
      "##lom": 2002,
      "amelyet": 2003,
      "nor": 2004,
      "először": 2005,
      "végén": 2006,
      "nehéz": 2007,
      "rendez": 2008,
      "kí": 2009,
      "##álni": 2010,
      "##áját": 2011,
      "kény": 2012,
      "pénteken": 2013,
      "tölt": 2014,
      "dar": 2015,
      "##ári": 2016,
      "kórház": 2017,
      "##nnep": 2018,
      "##mel": 2019,
      "évvel": 2020,
      "##atív": 2021,
      "egyetlen": 2022,
      "tizen": 2023,
      "kösz": 2024,
      "##ah": 2025,
      "##elte": 2026,
      "rövid": 2027,
      "se": 2028,
      "annyi": 2029,
      "csütörtökön": 2030,
      "ünnep": 2031,
      "##otta": 2032,
      "elv": 2033,
      "este": 2034,
      "ellenére": 2035,
      "igény": 2036,
      "magyarországon": 2037,
      "##ral": 2038,
      "##ázat": 2039,
      "##ord": 2040,
      "elleni": 2041,
      "bi": 2042,
      "mti": 2043,
      "társad": 2044,
      "vélemény": 2045,
      "ferenc": 2046,
      "motor": 2047,
      "egyszer": 2048,
      "ide": 2049,
      "23": 2050,
      "fal": 2051,
      "tehát": 2052,
      "pro": 2053,
      "kett": 2054,
      "vizsgálat": 2055,
      "budapesti": 2056,
      "ex": 2057,
      "##öm": 2058,
      "szor": 2059,
      "##ow": 2060,
      "man": 2061,
      "##olni": 2062,
      "hosszú": 2063,
      "fehér": 2064,
      "készül": 2065,
      "vett": 2066,
      "veszt": 2067,
      "##biz": 2068,
      "kíván": 2069,
      "internet": 2070,
      "vill": 2071,
      "##uc": 2072,
      "##ón": 2073,
      "egyen": 2074,
      "##ens": 2075,
      "időszak": 2076,
      "sorozat": 2077,
      "##mal": 2078,
      "dob": 2079,
      "##ógy": 2080,
      "szinte": 2081,
      "válogatott": 2082,
      "szép": 2083,
      "##bajnok": 2084,
      "megl": 2085,
      "##uház": 2086,
      "orvos": 2087,
      "##nem": 2088,
      "aztán": 2089,
      "miért": 2090,
      "##ma": 2091,
      "##inak": 2092,
      "szóviv": 2093,
      "sch": 2094,
      "##fr": 2095,
      "##ottak": 2096,
      "töm": 2097,
      "jobbik": 2098,
      "##esek": 2099,
      "inter": 2100,
      "40": 2101,
      "évben": 2102,
      "tak": 2103,
      "teljesít": 2104,
      "pan": 2105,
      "##kori": 2106,
      "fény": 2107,
      "##ff": 2108,
      "##ese": 2109,
      "om": 2110,
      "közt": 2111,
      "bír": 2112,
      "egyszerű": 2113,
      "ri": 2114,
      "létre": 2115,
      "sen": 2116,
      "talán": 2117,
      "##olta": 2118,
      "álló": 2119,
      "klub": 2120,
      "##inc": 2121,
      "próbál": 2122,
      "##apitány": 2123,
      "gábor": 2124,
      "pap": 2125,
      "világbajnok": 2126,
      "arány": 2127,
      "##ün": 2128,
      "közben": 2129,
      "fogad": 2130,
      "ellenőr": 2131,
      "októ": 2132,
      "hib": 2133,
      "október": 2134,
      "végre": 2135,
      "100": 2136,
      "cser": 2137,
      "keret": 2138,
      "##szor": 2139,
      "##őleg": 2140,
      "kezdő": 2141,
      "##ákat": 2142,
      "kéz": 2143,
      "lány": 2144,
      "##tart": 2145,
      "szakért": 2146,
      "##sék": 2147,
      "##haj": 2148,
      "maga": 2149,
      "poz": 2150,
      "követően": 2151,
      "##ációs": 2152,
      "konc": 2153,
      "##foly": 2154,
      "forduló": 2155,
      "környezet": 2156,
      "bem": 2157,
      "kért": 2158,
      "##úcs": 2159,
      "bejelent": 2160,
      "otthon": 2161,
      "##ékeny": 2162,
      "esély": 2163,
      "##szk": 2164,
      "mérték": 2165,
      "##zás": 2166,
      "rem": 2167,
      "##heti": 2168,
      "viszony": 2169,
      "##oldal": 2170,
      "##polg": 2171,
      "##ítja": 2172,
      "jelentette": 2173,
      "vezetője": 2174,
      "kih": 2175,
      "gyárt": 2176,
      "nyújt": 2177,
      "techn": 2178,
      "mozg": 2179,
      "baleset": 2180,
      "tem": 2181,
      "##ner": 2182,
      "##miniszt": 2183,
      "2011": 2184,
      "##ánk": 2185,
      "itthon": 2186,
      "kevés": 2187,
      "##jegy": 2188,
      "##aki": 2189,
      "energ": 2190,
      "##országban": 2191,
      "érdem": 2192,
      "éj": 2193,
      "##örgy": 2194,
      "##vezető": 2195,
      "műsor": 2196,
      "##ron": 2197,
      "hangsúly": 2198,
      "##ennyi": 2199,
      "akad": 2200,
      "##védelmi": 2201,
      "ével": 2202,
      "##ört": 2203,
      "továbbra": 2204,
      "##elek": 2205,
      "befekt": 2206,
      "délután": 2207,
      "helyszín": 2208,
      "##erős": 2209,
      "##ind": 2210,
      "tudja": 2211,
      "new": 2212,
      "##endég": 2213,
      "előre": 2214,
      "##asztal": 2215,
      "szok": 2216,
      "teljesen": 2217,
      "ro": 2218,
      "nyit": 2219,
      "##zó": 2220,
      "##ekben": 2221,
      "##iss": 2222,
      "##ilis": 2223,
      "##endő": 2224,
      "gyeng": 2225,
      "mégis": 2226,
      "része": 2227,
      "vonatkoz": 2228,
      "feltétel": 2229,
      "rek": 2230,
      "tev": 2231,
      "tév": 2232,
      "##ná": 2233,
      "olimp": 2234,
      "##hetetlen": 2235,
      "amelynek": 2236,
      "##ással": 2237,
      "szakember": 2238,
      "karács": 2239,
      "##gal": 2240,
      "##ítvány": 2241,
      "fők": 2242,
      "vik": 2243,
      "##izet": 2244,
      "karácsony": 2245,
      "lel": 2246,
      "vendég": 2247,
      "vizsgál": 2248,
      "mindk": 2249,
      "semmi": 2250,
      "##szolg": 2251,
      "hogyan": 2252,
      "gör": 2253,
      "##ézet": 2254,
      "##ona": 2255,
      "mel": 2256,
      "##orban": 2257,
      "##ay": 2258,
      "##uz": 2259,
      "##bert": 2260,
      "##enger": 2261,
      "román": 2262,
      "bér": 2263,
      "##ics": 2264,
      "áld": 2265,
      "gyógy": 2266,
      "##asznál": 2267,
      "##encs": 2268,
      "szent": 2269,
      "nyel": 2270,
      "legyen": 2271,
      "györgy": 2272,
      "fegy": 2273,
      "##pal": 2274,
      "szocial": 2275,
      "##lak": 2276,
      "különös": 2277,
      "alig": 2278,
      "szükséges": 2279,
      "mindenki": 2280,
      "##rány": 2281,
      "eszköz": 2282,
      "##akat": 2283,
      "lem": 2284,
      "##gr": 2285,
      "állás": 2286,
      "jános": 2287,
      "sőt": 2288,
      "előző": 2289,
      "értelm": 2290,
      "##nyit": 2291,
      "ik": 2292,
      "újság": 2293,
      "##anyag": 2294,
      "csup": 2295,
      "##man": 2296,
      "szövetség": 2297,
      "választás": 2298,
      "többi": 2299,
      "labd": 2300,
      "##íti": 2301,
      "li": 2302,
      "##ához": 2303,
      "##urg": 2304,
      "##állal": 2305,
      "összesen": 2306,
      "szlovák": 2307,
      "##mun": 2308,
      "valami": 2309,
      "##ébe": 2310,
      "szenv": 2311,
      "csökken": 2312,
      "kamp": 2313,
      "##line": 2314,
      "bemut": 2315,
      "idei": 2316,
      "ráadás": 2317,
      "dok": 2318,
      "független": 2319,
      "vagyis": 2320,
      "haszn": 2321,
      "kutatás": 2322,
      "kapcsolatban": 2323,
      "ill": 2324,
      "sel": 2325,
      "kock": 2326,
      "ró": 2327,
      "fed": 2328,
      "##gazd": 2329,
      "fővárosi": 2330,
      "##ton": 2331,
      "demok": 2332,
      "gyűjt": 2333,
      "cent": 2334,
      "ápr": 2335,
      "##ezer": 2336,
      "országgyű": 2337,
      "ők": 2338,
      "##ották": 2339,
      "kevesebb": 2340,
      "javaslat": 2341,
      "##határ": 2342,
      "egyesült": 2343,
      "köszön": 2344,
      "termék": 2345,
      "vele": 2346,
      "döntés": 2347,
      "let": 2348,
      "ekkel": 2349,
      "jelenlegi": 2350,
      "pénzügyi": 2351,
      "tulajdonos": 2352,
      "kiem": 2353,
      "gr": 2354,
      "vezér": 2355,
      "kel": 2356,
      "##dönt": 2357,
      "ráadásul": 2358,
      "szerepel": 2359,
      "##la": 2360,
      "gyanús": 2361,
      "akt": 2362,
      "rendőrök": 2363,
      "##co": 2364,
      "##árs": 2365,
      "##ept": 2366,
      "íg": 2367,
      "##ga": 2368,
      "közvet": 2369,
      "hav": 2370,
      "##enet": 2371,
      "kísér": 2372,
      ".,": 2373,
      "##ándor": 2374,
      "zrt": 2375,
      "polgármester": 2376,
      "szolgáltatás": 2377,
      "szék": 2378,
      "tanulmány": 2379,
      "28": 2380,
      "vet": 2381,
      "ülés": 2382,
      "##gép": 2383,
      "##vát": 2384,
      "##isták": 2385,
      "##íció": 2386,
      "elkövet": 2387,
      "kampány": 2388,
      "április": 2389,
      "mad": 2390,
      "##tr": 2391,
      "száma": 2392,
      "kelet": 2393,
      "##lós": 2394,
      "épület": 2395,
      "##áig": 2396,
      "##atták": 2397,
      "je": 2398,
      "tűn": 2399,
      "szerencs": 2400,
      "##eken": 2401,
      "épít": 2402,
      "csupán": 2403,
      "oda": 2404,
      "kellene": 2405,
      "esetben": 2406,
      "met": 2407,
      "##ukat": 2408,
      "modell": 2409,
      "kics": 2410,
      "forr": 2411,
      "feladat": 2412,
      "##avar": 2413,
      "##hetően": 2414,
      "benne": 2415,
      "forintos": 2416,
      "segítség": 2417,
      "##ilk": 2418,
      "##ügyminiszt": 2419,
      "zolt": 2420,
      "súlyos": 2421,
      "list": 2422,
      "online": 2423,
      "##nev": 2424,
      "megk": 2425,
      "érvény": 2426,
      "##jának": 2427,
      "elsős": 2428,
      "ére": 2429,
      "##izmus": 2430,
      "##több": 2431,
      "tamás": 2432,
      "elfogad": 2433,
      "med": 2434,
      "##fa": 2435,
      "##pénz": 2436,
      "utas": 2437,
      "##üt": 2438,
      "szeretn": 2439,
      "pill": 2440,
      "##uta": 2441,
      "##atta": 2442,
      "küz": 2443,
      "##acsony": 2444,
      "##jét": 2445,
      "##társ": 2446,
      "óra": 2447,
      "##port": 2448,
      "számos": 2449,
      "##elni": 2450,
      "cikk": 2451,
      "mög": 2452,
      "meglep": 2453,
      "##apitányság": 2454,
      "elsősorban": 2455,
      "##mai": 2456,
      "##efon": 2457,
      "##ségek": 2458,
      "had": 2459,
      "pal": 2460,
      "##jed": 2461,
      "##ométer": 2462,
      "állt": 2463,
      "bkv": 2464,
      "méter": 2465,
      "##ái": 2466,
      "##zik": 2467,
      "angol": 2468,
      "elkép": 2469,
      "ell": 2470,
      "okoz": 2471,
      "jobban": 2472,
      "horvát": 2473,
      "tudomány": 2474,
      "vide": 2475,
      "héten": 2476,
      "szül": 2477,
      "európa": 2478,
      "##ságot": 2479,
      "indok": 2480,
      "##jon": 2481,
      "##urcs": 2482,
      "százaléka": 2483,
      "legtöbb": 2484,
      "indult": 2485,
      "látog": 2486,
      "alkalmaz": 2487,
      "##ce": 2488,
      "##cel": 2489,
      "lény": 2490,
      "nők": 2491,
      "sv": 2492,
      "tur": 2493,
      "lengyel": 2494,
      "##ulat": 2495,
      "írta": 2496,
      "intézmény": 2497,
      "egyed": 2498,
      "##folyam": 2499,
      "tevékeny": 2500,
      "választási": 2501,
      "tagja": 2502,
      "mol": 2503,
      "to": 2504,
      "##ázs": 2505,
      "döntött": 2506,
      "osztály": 2507,
      "zoltán": 2508,
      "nemcsak": 2509,
      "nyí": 2510,
      "szempont": 2511,
      "jön": 2512,
      "##jából": 2513,
      "##kív": 2514,
      "arany": 2515,
      "##ers": 2516,
      "##ánc": 2517,
      "csom": 2518,
      "viktor": 2519,
      "kocs": 2520,
      "##illió": 2521,
      "##hatja": 2522,
      "##ítása": 2523,
      "áról": 2524,
      "ellát": 2525,
      "##adék": 2526,
      "szerinte": 2527,
      "##áni": 2528,
      "seb": 2529,
      "##ecs": 2530,
      "na": 2531,
      "tél": 2532,
      "##éssel": 2533,
      "##olja": 2534,
      "állapot": 2535,
      "##íp": 2536,
      "##ilag": 2537,
      "idej": 2538,
      "bárm": 2539,
      "csin": 2540,
      "érdekében": 2541,
      "##rá": 2542,
      "intézked": 2543,
      "darab": 2544,
      "mester": 2545,
      "##ly": 2546,
      "##kívül": 2547,
      "vér": 2548,
      "##df": 2549,
      "minisztérium": 2550,
      "##átor": 2551,
      "##akció": 2552,
      "évi": 2553,
      "hajt": 2554,
      "buk": 2555,
      "hí": 2556,
      "sh": 2557,
      "szez": 2558,
      "##álló": 2559,
      "lig": 2560,
      "##mi": 2561,
      "##szi": 2562,
      "folytat": 2563,
      "##ark": 2564,
      "kialak": 2565,
      "kilenc": 2566,
      "##vonal": 2567,
      "tapasztal": 2568,
      "látt": 2569,
      "felé": 2570,
      "kan": 2571,
      "maradt": 2572,
      "uniós": 2573,
      "##ansz": 2574,
      "írt": 2575,
      "##ismer": 2576,
      "##elmű": 2577,
      "józs": 2578,
      "esemény": 2579,
      "kínai": 2580,
      "húz": 2581,
      "jött": 2582,
      "ék": 2583,
      "élő": 2584,
      "fű": 2585,
      "ítél": 2586,
      "un": 2587,
      "##jú": 2588,
      "##tatott": 2589,
      "##tag": 2590,
      "35": 2591,
      "gar": 2592,
      "jutott": 2593,
      "eh": 2594,
      "##zott": 2595,
      "##ezik": 2596,
      "##okon": 2597,
      "tet": 2598,
      "összes": 2599,
      "##ármaz": 2600,
      "##gatás": 2601,
      "ezelőtt": 2602,
      "##ball": 2603,
      "##ezi": 2604,
      "szakasz": 2605,
      "képes": 2606,
      "kárt": 2607,
      "##odás": 2608,
      "##függ": 2609,
      "##ólag": 2610,
      "##igazgató": 2611,
      "31": 2612,
      "kiz": 2613,
      "különböző": 2614,
      "király": 2615,
      "##mag": 2616,
      "29": 2617,
      "lass": 2618,
      "##ork": 2619,
      "hozzátette": 2620,
      "tömeg": 2621,
      "ahhoz": 2622,
      "##eztek": 2623,
      "var": 2624,
      "##elők": 2625,
      "2006": 2626,
      "##oha": 2627,
      "eljárás": 2628,
      "pi": 2629,
      "elején": 2630,
      "kik": 2631,
      "##ca": 2632,
      "gyakorlat": 2633,
      "##jekt": 2634,
      "##uló": 2635,
      "akció": 2636,
      "női": 2637,
      "##özben": 2638,
      "változat": 2639,
      "##féle": 2640,
      "külföldi": 2641,
      "teljesítmény": 2642,
      "du": 2643,
      "##atos": 2644,
      "##asági": 2645,
      "nőtt": 2646,
      "származ": 2647,
      "kft": 2648,
      "addig": 2649,
      "##által": 2650,
      "lényeg": 2651,
      "##éni": 2652,
      "##zetes": 2653,
      "vág": 2654,
      "ében": 2655,
      "##omás": 2656,
      "##veszt": 2657,
      "mdf": 2658,
      "##ileg": 2659,
      "##ókat": 2660,
      "lakás": 2661,
      "andrás": 2662,
      "##fer": 2663,
      "szombaton": 2664,
      "józsef": 2665,
      "kov": 2666,
      "szerk": 2667,
      "valaki": 2668,
      "mély": 2669,
      "hid": 2670,
      "lő": 2671,
      "##hatnak": 2672,
      "valószínűleg": 2673,
      "45": 2674,
      "##atni": 2675,
      "hir": 2676,
      "##ument": 2677,
      "vagyok": 2678,
      "##enci": 2679,
      "munkat": 2680,
      "##okkal": 2681,
      "közötti": 2682,
      "futball": 2683,
      "sim": 2684,
      "lehetett": 2685,
      "keresztül": 2686,
      "mal": 2687,
      "##evő": 2688,
      "beruház": 2689,
      "kilométer": 2690,
      "alacsony": 2691,
      "##szabad": 2692,
      "##lus": 2693,
      "becs": 2694,
      "ideg": 2695,
      "kerület": 2696,
      "értes": 2697,
      "the": 2698,
      "település": 2699,
      "##ésére": 2700,
      "##fl": 2701,
      "##ozni": 2702,
      "##észeti": 2703,
      "honlap": 2704,
      "dokument": 2705,
      "sokat": 2706,
      "##álás": 2707,
      "##ékony": 2708,
      "módon": 2709,
      "auszt": 2710,
      "kup": 2711,
      "mon": 2712,
      "ég": 2713,
      "terh": 2714,
      "sziget": 2715,
      "szezon": 2716,
      "mai": 2717,
      "##fit": 2718,
      "közé": 2719,
      "korlát": 2720,
      "attil": 2721,
      "görög": 2722,
      "szal": 2723,
      "##nyire": 2724,
      "##ésre": 2725,
      "jármű": 2726,
      "húsz": 2727,
      "tém": 2728,
      "színész": 2729,
      "titk": 2730,
      "##ozik": 2731,
      "ág": 2732,
      "##ina": 2733,
      "szű": 2734,
      "teszt": 2735,
      "egykori": 2736,
      "rendkívül": 2737,
      "látható": 2738,
      "sándor": 2739,
      "egyért": 2740,
      "##tatási": 2741,
      "##ocsát": 2742,
      "esetében": 2743,
      "azóta": 2744,
      "her": 2745,
      "miközben": 2746,
      "nyelv": 2747,
      "##rál": 2748,
      "##iában": 2749,
      "részvény": 2750,
      "közep": 2751,
      "természetesen": 2752,
      "rak": 2753,
      "##víz": 2754,
      "katon": 2755,
      "egyértelmű": 2756,
      "##erte": 2757,
      "nehez": 2758,
      "költségvetési": 2759,
      "csúcs": 2760,
      "adatok": 2761,
      "érdeklő": 2762,
      "##attal": 2763,
      "forgalom": 2764,
      "##titk": 2765,
      "##uális": 2766,
      "##cz": 2767,
      "sváj": 2768,
      "lond": 2769,
      "ve": 2770,
      "##száz": 2771,
      "megny": 2772,
      "tartó": 2773,
      "működ": 2774,
      "kiderült": 2775,
      "pontos": 2776,
      "mező": 2777,
      "felhasznál": 2778,
      "##óg": 2779,
      "tenger": 2780,
      "jellem": 2781,
      "senki": 2782,
      "ák": 2783,
      "##össz": 2784,
      "felső": 2785,
      "gal": 2786,
      "od": 2787,
      "vegy": 2788,
      "kiad": 2789,
      "kezdemény": 2790,
      "krit": 2791,
      "com": 2792,
      "szept": 2793,
      "mindent": 2794,
      "média": 2795,
      "szóvivője": 2796,
      "szeptember": 2797,
      "lakosság": 2798,
      "valóban": 2799,
      "önkormányzat": 2800,
      "60": 2801,
      "2007": 2802,
      "árfolyam": 2803,
      "döntő": 2804,
      "ehhez": 2805,
      "nö": 2806,
      "azokat": 2807,
      "kommun": 2808,
      "##ettel": 2809,
      "##iskol": 2810,
      "bra": 2811,
      "##eteg": 2812,
      "vagyon": 2813,
      "többször": 2814,
      "hagyomány": 2815,
      "években": 2816,
      "##énk": 2817,
      "csill": 2818,
      "nevű": 2819,
      "bék": 2820,
      "##van": 2821,
      "ka": 2822,
      "##ekv": 2823,
      "ob": 2824,
      "##ente": 2825,
      "deb": 2826,
      "pál": 2827,
      "ekkor": 2828,
      "koll": 2829,
      "##ásra": 2830,
      "sokan": 2831,
      "megjelent": 2832,
      "##örös": 2833,
      "ához": 2834,
      "végzett": 2835,
      "##ler": 2836,
      "előny": 2837,
      "támad": 2838,
      "költségvetés": 2839,
      "elképzel": 2840,
      "##mond": 2841,
      "napon": 2842,
      "##ósság": 2843,
      "érkezett": 2844,
      "napi": 2845,
      "vad": 2846,
      "##ntart": 2847,
      "fogalmazott": 2848,
      "hatalmas": 2849,
      "rög": 2850,
      "bo": 2851,
      "bb": 2852,
      "eszt": 2853,
      "őt": 2854,
      "sajt": 2855,
      "csomag": 2856,
      "forrás": 2857,
      "azonnal": 2858,
      "##pály": 2859,
      "század": 2860,
      "pénzt": 2861,
      "cseh": 2862,
      "unió": 2863,
      "feny": 2864,
      "##üntetés": 2865,
      "olvasható": 2866,
      "szombat": 2867,
      "##ágy": 2868,
      "##óri": 2869,
      "utal": 2870,
      "testület": 2871,
      "##sért": 2872,
      "##jeszt": 2873,
      "##hatatlan": 2874,
      "biztonsági": 2875,
      "kapcsolatos": 2876,
      "született": 2877,
      "mögött": 2878,
      "esett": 2879,
      "választások": 2880,
      "mindkét": 2881,
      "assz": 2882,
      "car": 2883,
      "##emt": 2884,
      "##ízió": 2885,
      "ingatlan": 2886,
      "hird": 2887,
      "tudott": 2888,
      "##anszír": 2889,
      "járt": 2890,
      "éről": 2891,
      "##szabály": 2892,
      "vonatkozó": 2893,
      "jég": 2894,
      "##erő": 2895,
      "korr": 2896,
      "idején": 2897,
      "bot": 2898,
      "##űnt": 2899,
      "kormányz": 2900,
      "hivatalos": 2901,
      "kicsit": 2902,
      "erősö": 2903,
      "##éhez": 2904,
      "##ata": 2905,
      "államok": 2906,
      "bajnokság": 2907,
      "növel": 2908,
      "felett": 2909,
      "akit": 2910,
      "##szervezet": 2911,
      "igazság": 2912,
      "##kör": 2913,
      "ügyész": 2914,
      "##ung": 2915,
      "teszi": 2916,
      "elekt": 2917,
      "kérd": 2918,
      "cégek": 2919,
      "jának": 2920,
      "mob": 2921,
      "##szó": 2922,
      "##ítése": 2923,
      "##álták": 2924,
      "hamar": 2925,
      "##rák": 2926,
      "##elen": 2927,
      "##ism": 2928,
      "telefon": 2929,
      "várhatóan": 2930,
      "ából": 2931,
      "feket": 2932,
      "megjel": 2933,
      "mondja": 2934,
      "tehet": 2935,
      "kifej": 2936,
      "robb": 2937,
      "##utó": 2938,
      "fu": 2939,
      "előbb": 2940,
      "erről": 2941,
      "fejlő": 2942,
      "távol": 2943,
      "többek": 2944,
      "kapus": 2945,
      "tudni": 2946,
      "tartja": 2947,
      "fizetés": 2948,
      "régi": 2949,
      "juk": 2950,
      "laj": 2951,
      "sí": 2952,
      "sta": 2953,
      "ebből": 2954,
      "beszélt": 2955,
      "dokumentum": 2956,
      "magyaráz": 2957,
      "örök": 2958,
      "megbíz": 2959,
      "évt": 2960,
      "##éves": 2961,
      "kataszt": 2962,
      "##andó": 2963,
      "óri": 2964,
      "##enz": 2965,
      "működés": 2966,
      "32": 2967,
      "bőv": 2968,
      "múl": 2969,
      "##olog": 2970,
      "jelentkez": 2971,
      "harc": 2972,
      "##műkö": 2973,
      "tenni": 2974,
      "##rán": 2975,
      "##eum": 2976,
      "##zők": 2977,
      "szob": 2978,
      "mindössz": 2979,
      "park": 2980,
      "fotó": 2981,
      "##ran": 2982,
      "szom": 2983,
      "##ítottak": 2984,
      "visszat": 2985,
      "##str": 2986,
      "kol": 2987,
      "tudta": 2988,
      "198": 2989,
      "mil": 2990,
      "##sem": 2991,
      "együttműkö": 2992,
      "legut": 2993,
      "ellenzék": 2994,
      "zsolt": 2995,
      "pet": 2996,
      "##elked": 2997,
      "##arúg": 2998,
      "férfit": 2999,
      "labdarúg": 3000,
      "attila": 3001,
      "zöld": 3002,
      "##lési": 3003,
      "##ux": 3004,
      "##fok": 3005,
      "meghatár": 3006,
      "##rec": 3007,
      "küzd": 3008,
      "akart": 3009,
      "ügyben": 3010,
      "##éből": 3011,
      "##nyal": 3012,
      "mindössze": 3013,
      "svéd": 3014,
      "tartalmaz": 3015,
      "pálya": 3016,
      "gen": 3017,
      "##érd": 3018,
      "##cselek": 3019,
      "engedély": 3020,
      "különösen": 3021,
      "##anat": 3022,
      "felügy": 3023,
      "áldozat": 3024,
      "finanszír": 3025,
      "##ue": 3026,
      "##orn": 3027,
      "parlamenti": 3028,
      "##szerzés": 3029,
      "fegyver": 3030,
      "##kat": 3031,
      "##iter": 3032,
      "szereplő": 3033,
      "##urális": 3034,
      "##eznek": 3035,
      "fenntart": 3036,
      "##mp": 3037,
      "##nie": 3038,
      "idéz": 3039,
      "tájékoztatás": 3040,
      "bört": 3041,
      "vörös": 3042,
      "##millió": 3043,
      "frank": 3044,
      "sérülés": 3045,
      "szeged": 3046,
      "hull": 3047,
      "##zése": 3048,
      "szöv": 3049,
      "térség": 3050,
      "pé": 3051,
      "rád": 3052,
      "ész": 3053,
      "##döntő": 3054,
      "##zák": 3055,
      "##evízió": 3056,
      "országban": 3057,
      "folyamatosan": 3058,
      "##éve": 3059,
      "akinek": 3060,
      "tűnik": 3061,
      "rab": 3062,
      "##aba": 3063,
      "előzetes": 3064,
      "név": 3065,
      "##rid": 3066,
      "##ash": 3067,
      "ígér": 3068,
      "cl": 3069,
      "zaj": 3070,
      "haza": 3071,
      "főkapitányság": 3072,
      "##beli": 3073,
      "katasztró": 3074,
      "##alap": 3075,
      "##tatta": 3076,
      "író": 3077,
      "##részt": 3078,
      "szerzett": 3079,
      "level": 3080,
      "legf": 3081,
      "tudós": 3082,
      "##álta": 3083,
      "bűncselek": 3084,
      "máj": 3085,
      "##di": 3086,
      "##atja": 3087,
      "kore": 3088,
      "##bizt": 3089,
      "##olták": 3090,
      "##almat": 3091,
      "blog": 3092,
      "izra": 3093,
      "ei": 3094,
      "ett": 3095,
      "többet": 3096,
      "##sen": 3097,
      "##álja": 3098,
      "embert": 3099,
      "##áború": 3100,
      "projekt": 3101,
      "dolgozó": 3102,
      "hatóságok": 3103,
      "szét": 3104,
      "feleség": 3105,
      "edző": 3106,
      "fest": 3107,
      "##ípus": 3108,
      "mor": 3109,
      "politik": 3110,
      "##pár": 3111,
      "szil": 3112,
      "intézet": 3113,
      "eddigi": 3114,
      "fell": 3115,
      "annyira": 3116,
      "##nan": 3117,
      "bevétel": 3118,
      "##tól": 3119,
      "konz": 3120,
      "éjszak": 3121,
      "##des": 3122,
      "felmér": 3123,
      "menny": 3124,
      "dí": 3125,
      "kop": 3126,
      "##úra": 3127,
      "##ítják": 3128,
      "felvétel": 3129,
      "mobil": 3130,
      "tol": 3131,
      "éhez": 3132,
      "értékes": 3133,
      "miklós": 3134,
      "mat": 3135,
      "##lcs": 3136,
      "hétvég": 3137,
      "piaci": 3138,
      "többség": 3139,
      "esetén": 3140,
      "magyarországi": 3141,
      "módos": 3142,
      "figyelem": 3143,
      "szakmai": 3144,
      "energia": 3145,
      "hál": 3146,
      "it": 3147,
      "##bil": 3148,
      "##ius": 3149,
      "végig": 3150,
      "belső": 3151,
      "##ko": 3152,
      "##gyek": 3153,
      "lez": 3154,
      "##kó": 3155,
      "##ian": 3156,
      "##iát": 3157,
      "##ítették": 3158,
      "demokrat": 3159,
      "egyéni": 3160,
      "befoly": 3161,
      "ii": 3162,
      "##hetnek": 3163,
      "pályáz": 3164,
      "##ői": 3165,
      "##csap": 3166,
      "jövőre": 3167,
      "##pénztár": 3168,
      "jap": 3169,
      "megelő": 3170,
      "##ized": 3171,
      "##nökség": 3172,
      "egészségügyi": 3173,
      "busz": 3174,
      "##úttal": 3175,
      "##élés": 3176,
      "forin": 3177,
      "##kalom": 3178,
      "jogszabály": 3179,
      "évtized": 3180,
      "##vá": 3181,
      "módszer": 3182,
      "hosszabb": 3183,
      "nyilvánosság": 3184,
      "meleg": 3185,
      "##ie": 3186,
      "kateg": 3187,
      "jelenti": 3188,
      "fo": 3189,
      "##jen": 3190,
      "központi": 3191,
      "##olcs": 3192,
      "börtön": 3193,
      "munkav": 3194,
      "egymás": 3195,
      "ölt": 3196,
      "##ham": 3197,
      "##őd": 3198,
      "##elmet": 3199,
      "80": 3200,
      "alkalom": 3201,
      "##ünet": 3202,
      "megjelen": 3203,
      "##cc": 3204,
      "##ke": 3205,
      "szex": 3206,
      "hangsúlyozta": 3207,
      "japán": 3208,
      "york": 3209,
      "idős": 3210,
      "##attak": 3211,
      "bíz": 3212,
      "##ozza": 3213,
      "##őket": 3214,
      "la": 3215,
      "sért": 3216,
      "menet": 3217,
      "beszéd": 3218,
      "televízió": 3219,
      "fizet": 3220,
      "##bel": 3221,
      "##ancs": 3222,
      "##ama": 3223,
      "budapesten": 3224,
      "felül": 3225,
      "időben": 3226,
      "hírek": 3227,
      "szabadság": 3228,
      "##úzeum": 3229,
      "óv": 3230,
      "jogi": 3231,
      "negyedik": 3232,
      "győzt": 3233,
      "ellent": 3234,
      "rang": 3235,
      "vette": 3236,
      "##burg": 3237,
      "csod": 3238,
      "azonos": 3239,
      "##vált": 3240,
      "győr": 3241,
      "szigor": 3242,
      "##vér": 3243,
      "##ián": 3244,
      "kezelés": 3245,
      "mostani": 3246,
      "zen": 3247,
      "tudom": 3248,
      "emberi": 3249,
      "rendezvény": 3250,
      "érdemes": 3251,
      "ger": 3252,
      "##ya": 3253,
      "##emi": 3254,
      "részét": 3255,
      "általában": 3256,
      "##ológiai": 3257,
      "kísérlet": 3258,
      "sajtót": 3259,
      "osztrák": 3260,
      "szocialista": 3261,
      "forinttal": 3262,
      "mos": 3263,
      "##onal": 3264,
      "holland": 3265,
      "##osabb": 3266,
      "egyedül": 3267,
      "kovács": 3268,
      "fekete": 3269,
      "múzeum": 3270,
      "minőség": 3271,
      "szabó": 3272,
      "eredmények": 3273,
      "##ry": 3274,
      "ezeket": 3275,
      "##nyug": 3276,
      "##ájuk": 3277,
      "prod": 3278,
      "tervezett": 3279,
      "környék": 3280,
      "zavar": 3281,
      "küld": 3282,
      "##vári": 3283,
      "történelmi": 3284,
      "svájci": 3285,
      "lajos": 3286,
      "egyáltal": 3287,
      "takar": 3288,
      "egyáltalán": 3289,
      "500": 3290,
      "kont": 3291,
      "op": 3292,
      "bizonyos": 3293,
      "újságíró": 3294,
      "##ódó": 3295,
      "hivatkoz": 3296,
      "kényszer": 3297,
      "típus": 3298,
      "amelyben": 3299,
      "vir": 3300,
      "pat": 3301,
      "##úgy": 3302,
      "folyó": 3303,
      "kötelező": 3304,
      "fenyeg": 3305,
      "##raj": 3306,
      "##ügyminiszter": 3307,
      "gyurcs": 3308,
      "nyilatkozta": 3309,
      "mich": 3310,
      "kötött": 3311,
      "tv": 3312,
      "##edik": 3313,
      "prof": 3314,
      "##fordul": 3315,
      "következt": 3316,
      "hő": 3317,
      "munkahely": 3318,
      "##polgár": 3319,
      "mennyiség": 3320,
      "36": 3321,
      "változás": 3322,
      "##kodás": 3323,
      "hideg": 3324,
      "vagyunk": 3325,
      "##irat": 3326,
      "soha": 3327,
      "##mar": 3328,
      "##elik": 3329,
      "##oknak": 3330,
      "real": 3331,
      "pontosan": 3332,
      "33": 3333,
      "népszerű": 3334,
      "gyurcsány": 3335,
      "agy": 3336,
      "pil": 3337,
      "szerb": 3338,
      "évre": 3339,
      "##idő": 3340,
      "épp": 3341,
      "tim": 3342,
      "számító": 3343,
      "ös": 3344,
      "amennyi": 3345,
      "található": 3346,
      "##pl": 3347,
      "olaj": 3348,
      "##írt": 3349,
      "érzék": 3350,
      "##üket": 3351,
      "kormányfő": 3352,
      "tűzolt": 3353,
      "szav": 3354,
      "általános": 3355,
      "##ódott": 3356,
      "fenn": 3357,
      "##br": 3358,
      "zárt": 3359,
      "##nos": 3360,
      "győ": 3361,
      "török": 3362,
      "rádió": 3363,
      "300": 3364,
      "agg": 3365,
      "tra": 3366,
      "##élt": 3367,
      "##lenül": 3368,
      "##ity": 3369,
      "gyilk": 3370,
      "##állás": 3371,
      "##ultak": 3372,
      "sérült": 3373,
      "##ota": 3374,
      "egészen": 3375,
      "őrizet": 3376,
      "mes": 3377,
      "mikor": 3378,
      "##gyen": 3379,
      "##ésben": 3380,
      "##alma": 3381,
      "va": 3382,
      "##ukció": 3383,
      "beszám": 3384,
      "szánd": 3385,
      "löv": 3386,
      "##elték": 3387,
      "90": 3388,
      "hegy": 3389,
      "##ellett": 3390,
      "debrec": 3391,
      "##edés": 3392,
      "##ázis": 3393,
      "igazi": 3394,
      "meghal": 3395,
      "stabil": 3396,
      "igyek": 3397,
      "##dolg": 3398,
      "##titkár": 3399,
      "##éig": 3400,
      "csatlak": 3401,
      "##rét": 3402,
      "konk": 3403,
      "érintett": 3404,
      "figyelmet": 3405,
      "május": 3406,
      "af": 3407,
      "civ": 3408,
      "##jut": 3409,
      "jét": 3410,
      "##ros": 3411,
      "kiállítás": 3412,
      "##sági": 3413,
      "állat": 3414,
      "labdarúgó": 3415,
      "elé": 3416,
      "erd": 3417,
      "jóval": 3418,
      "jöved": 3419,
      "alakul": 3420,
      "gyerekek": 3421,
      "büntető": 3422,
      "kutatók": 3423,
      "tők": 3424,
      "minős": 3425,
      "go": 3426,
      "ph": 3427,
      "##rak": 3428,
      "ítélet": 3429,
      "színház": 3430,
      "kos": 3431,
      "##eltek": 3432,
      "szöveg": 3433,
      "##vi": 3434,
      "megerős": 3435,
      "hozott": 3436,
      "friss": 3437,
      "vidék": 3438,
      "dolog": 3439,
      "##prób": 3440,
      "helyre": 3441,
      "##ontosabb": 3442,
      "legfontosabb": 3443,
      "kemény": 3444,
      "pénztár": 3445,
      "##tter": 3446,
      "csillag": 3447,
      "70": 3448,
      "##izetés": 3449,
      "maguk": 3450,
      "igazgatója": 3451,
      "##nevezett": 3452,
      "láb": 3453,
      "fogja": 3454,
      "lesznek": 3455,
      "bevezet": 3456,
      "##ású": 3457,
      "dip": 3458,
      "nekik": 3459,
      "reform": 3460,
      "magasabb": 3461,
      "##hajt": 3462,
      "civil": 3463,
      "cig": 3464,
      "poszt": 3465,
      "vitt": 3466,
      "attól": 3467,
      "kulturális": 3468,
      "társadalom": 3469,
      "bek": 3470,
      "papír": 3471,
      "tudják": 3472,
      "##lét": 3473,
      "##de": 3474,
      "##éri": 3475,
      "##oltak": 3476,
      "vállalat": 3477,
      "kereskedelmi": 3478,
      "kab": 3479,
      "lop": 3480,
      "tavalyi": 3481,
      "érvényes": 3482,
      "szár": 3483,
      "faj": 3484,
      "he": 3485,
      "##dsz": 3486,
      "kiadás": 3487,
      "lehetne": 3488,
      "##lám": 3489,
      "asszony": 3490,
      "sztr": 3491,
      "téli": 3492,
      "34": 3493,
      "hű": 3494,
      "frakció": 3495,
      "társadalmi": 3496,
      "diplom": 3497,
      "##viz": 3498,
      "##kocs": 3499,
      "##dp": 3500,
      "##őzs": 3501,
      "##ast": 3502,
      "repül": 3503,
      "##utas": 3504,
      "jú": 3505,
      "adta": 3506,
      "mintha": 3507,
      "igazán": 3508,
      "családi": 3509,
      "szándék": 3510,
      "növekedés": 3511,
      "lmp": 3512,
      "mo": 3513,
      "##bo": 3514,
      "infl": 3515,
      "##eztet": 3516,
      "##ájékoztató": 3517,
      "ló": 3518,
      "me": 3519,
      "##kék": 3520,
      "leh": 3521,
      "##berg": 3522,
      "##rendszer": 3523,
      "diák": 3524,
      "médi": 3525,
      "ellenőrzés": 3526,
      "##ekre": 3527,
      "áram": 3528,
      "írás": 3529,
      "aszt": 3530,
      "részben": 3531,
      "nappal": 3532,
      "eredeti": 3533,
      "találtak": 3534,
      "együttműködés": 3535,
      "bul": 3536,
      "géz": 3537,
      "##vét": 3538,
      "egyház": 3539,
      "##ack": 3540,
      "##jön": 3541,
      "##áns": 3542,
      "tényleg": 3543,
      "vb": 3544,
      "##akor": 3545,
      "##kezd": 3546,
      "harmad": 3547,
      "##tuk": 3548,
      "##zelem": 3549,
      "játszott": 3550,
      "hány": 3551,
      "ruh": 3552,
      "kib": 3553,
      "készített": 3554,
      "módosítás": 3555,
      "jövőben": 3556,
      "arc": 3557,
      "kamat": 3558,
      "##szabadság": 3559,
      "kijelent": 3560,
      "kiss": 3561,
      "##igo": 3562,
      "str": 3563,
      "##járás": 3564,
      "fiú": 3565,
      "sajtótájékoztató": 3566,
      "reng": 3567,
      "regény": 3568,
      "internetes": 3569,
      "##bé": 3570,
      "##írás": 3571,
      "hátt": 3572,
      "tib": 3573,
      "amíg": 3574,
      "tartóz": 3575,
      "kétszer": 3576,
      "vége": 3577,
      "##nőtt": 3578,
      "szell": 3579,
      "megoldás": 3580,
      "net": 3581,
      "##rég": 3582,
      "##fér": 3583,
      "ezr": 3584,
      "úton": 3585,
      "eleg": 3586,
      "havi": 3587,
      "##ekvő": 3588,
      "eny": 3589,
      "gl": 3590,
      "szerda": 3591,
      "##ájában": 3592,
      "hasonlóan": 3593,
      "joh": 3594,
      "est": 3595,
      "antik": 3596,
      "bok": 3597,
      "##ezz": 3598,
      "##adta": 3599,
      "##országi": 3600,
      "fideszes": 3601,
      "vezérigazgató": 3602,
      "afr": 3603,
      "hátrány": 3604,
      "pillanat": 3605,
      "bő": 3606,
      "kul": 3607,
      "##ezők": 3608,
      "##örvény": 3609,
      "ismeretlen": 3610,
      "tevékenység": 3611,
      "##állam": 3612,
      "célja": 3613,
      "szociális": 3614,
      "szenved": 3615,
      "##nyel": 3616,
      "szolgálat": 3617,
      "hallg": 3618,
      "partner": 3619,
      "37": 3620,
      "##lék": 3621,
      "utaz": 3622,
      "##ratég": 3623,
      "eb": 3624,
      "remény": 3625,
      "##nia": 3626,
      "temp": 3627,
      "duna": 3628,
      "géza": 3629,
      "pak": 3630,
      "##si": 3631,
      "kölcs": 3632,
      "##ítva": 3633,
      "00": 3634,
      "csaknem": 3635,
      "stat": 3636,
      "jelentősen": 3637,
      "várt": 3638,
      "várak": 3639,
      "úgynevezett": 3640,
      "járó": 3641,
      "ft": 3642,
      "husz": 3643,
      "##var": 3644,
      "nyár": 3645,
      "benz": 3646,
      "nyugat": 3647,
      "##ológus": 3648,
      "del": 3649,
      "nk": 3650,
      "##ötte": 3651,
      "délelőtt": 3652,
      "##osztály": 3653,
      "sar": 3654,
      "tü": 3655,
      "##bíró": 3656,
      "##keres": 3657,
      "##éseket": 3658,
      "országok": 3659,
      "bü": 3660,
      "pót": 3661,
      "ennél": 3662,
      "részes": 3663,
      "sajnos": 3664,
      "hajnal": 3665,
      "fáj": 3666,
      "mosz": 3667,
      "##már": 3668,
      "##állt": 3669,
      "legink": 3670,
      "leginkább": 3671,
      "##álaszt": 3672,
      "napokban": 3673,
      "lőtt": 3674,
      "ere": 3675,
      "mindez": 3676,
      "co": 3677,
      "origo": 3678,
      "tudnak": 3679,
      "idegen": 3680,
      "pir": 3681,
      "legk": 3682,
      "harminc": 3683,
      "kötet": 3684,
      "visszatér": 3685,
      "magyarok": 3686,
      "köztük": 3687,
      "puszt": 3688,
      "##erv": 3689,
      "terjed": 3690,
      "közlekedési": 3691,
      "segítségével": 3692,
      "tagjai": 3693,
      "##műv": 3694,
      "##ror": 3695,
      "##valós": 3696,
      "belől": 3697,
      "országgyűlés": 3698,
      "hálóz": 3699,
      "bold": 3700,
      "munkát": 3701,
      "stratég": 3702,
      "életét": 3703,
      "##oldali": 3704,
      "győzelem": 3705,
      "jutt": 3706,
      "##szint": 3707,
      "fizetni": 3708,
      "olimpiai": 3709,
      "kanad": 3710,
      "kollég": 3711,
      "űr": 3712,
      "##mad": 3713,
      "többen": 3714,
      "alkalmazott": 3715,
      "levél": 3716,
      "bu": 3717,
      "##jára": 3718,
      "##itel": 3719,
      "érdekes": 3720,
      "negyedév": 3721,
      "íz": 3722,
      "##áci": 3723,
      "##io": 3724,
      "adósság": 3725,
      "gyógyszer": 3726,
      "londoni": 3727,
      "braz": 3728,
      "sztráj": 3729,
      "##ere": 3730,
      "##ilap": 3731,
      "legfel": 3732,
      ".:": 3733,
      "aug": 3734,
      "jon": 3735,
      "sár": 3736,
      "##dék": 3737,
      "##ésével": 3738,
      "állampolgár": 3739,
      "illeték": 3740,
      "helyettes": 3741,
      "##szem": 3742,
      "##átum": 3743,
      "közön": 3744,
      "##nai": 3745,
      "szol": 3746,
      "megvalós": 3747,
      "##izál": 3748,
      "kod": 3749,
      "tisz": 3750,
      "támadás": 3751,
      "jogos": 3752,
      "lenni": 3753,
      "régió": 3754,
      "kategóri": 3755,
      "##usztus": 3756,
      "pest": 3757,
      "##ax": 3758,
      "műszak": 3759,
      "önkormányzati": 3760,
      "állítólag": 3761,
      "száml": 3762,
      "méret": 3763,
      "ipar": 3764,
      "munkatárs": 3765,
      "kommunik": 3766,
      "##sák": 3767,
      "##áris": 3768,
      "197": 3769,
      "köszönhetően": 3770,
      "ep": 3771,
      "##tunk": 3772,
      "ev": 3773,
      "##élkül": 3774,
      "ügyvéd": 3775,
      "időt": 3776,
      "szinten": 3777,
      "max": 3778,
      "férfiak": 3779,
      "egyesület": 3780,
      "##itív": 3781,
      "##ula": 3782,
      "##nius": 3783,
      "kapu": 3784,
      "esetleg": 3785,
      "jelleg": 3786,
      "liter": 3787,
      "##mut": 3788,
      "minim": 3789,
      "nekem": 3790,
      "reag": 3791,
      "eredet": 3792,
      "hord": 3793,
      "font": 3794,
      "átalak": 3795,
      "sors": 3796,
      "együttes": 3797,
      "mentő": 3798,
      "országgyűlési": 3799,
      "házas": 3800,
      "júl": 3801,
      "láz": 3802,
      "##akt": 3803,
      "köztárs": 3804,
      "tök": 3805,
      "keretében": 3806,
      "##párt": 3807,
      "##olják": 3808,
      "##íték": 3809,
      "##edes": 3810,
      "felnőtt": 3811,
      "##felé": 3812,
      "körülbel": 3813,
      "gyakran": 3814,
      "drág": 3815,
      "körülbelül": 3816,
      "pa": 3817,
      "##ársa": 3818,
      "vereség": 3819,
      "lakó": 3820,
      "portál": 3821,
      "táb": 3822,
      "##vállal": 3823,
      "##nes": 3824,
      "##mód": 3825,
      "tudjuk": 3826,
      "emelkedett": 3827,
      "##tartás": 3828,
      "győztes": 3829,
      "főleg": 3830,
      "##iket": 3831,
      "##ítható": 3832,
      "##iméter": 3833,
      "##képpen": 3834,
      "használt": 3835,
      "futam": 3836,
      "rév": 3837,
      "hírügy": 3838,
      "alkotmánybíró": 3839,
      "június": 3840,
      "ötö": 3841,
      "gólt": 3842,
      "gyorsan": 3843,
      "szolgáltató": 3844,
      "kockázat": 3845,
      "édes": 3846,
      "##olf": 3847,
      "##ozók": 3848,
      "tit": 3849,
      "főszer": 3850,
      "##várium": 3851,
      "oper": 3852,
      "sincs": 3853,
      "elkész": 3854,
      "megf": 3855,
      "forintra": 3856,
      "##uper": 3857,
      "##kodó": 3858,
      "rajta": 3859,
      "megfelelően": 3860,
      "boldog": 3861,
      "##ey": 3862,
      "##ped": 3863,
      "##onttal": 3864,
      "mutató": 3865,
      "létrehoz": 3866,
      "remek": 3867,
      "befolyás": 3868,
      "000": 3869,
      "##ódik": 3870,
      "forma": 3871,
      "heti": 3872,
      "kd": 3873,
      "##öny": 3874,
      "##ivat": 3875,
      "védelm": 3876,
      "alkalommal": 3877,
      "bors": 3878,
      "ge": 3879,
      "gdp": 3880,
      "élt": 3881,
      "elb": 3882,
      "hom": 3883,
      "ától": 3884,
      "pályán": 3885,
      "##rom": 3886,
      "ezúttal": 3887,
      "gu": 3888,
      "lov": 3889,
      "##üst": 3890,
      "hiába": 3891,
      "őrizetbe": 3892,
      "dal": 3893,
      "##kan": 3894,
      "megtal": 3895,
      "beszélg": 3896,
      "felhív": 3897,
      "##érte": 3898,
      "szakszervezet": 3899,
      "mértékben": 3900,
      "jellemző": 3901,
      "##etők": 3902,
      "##elvény": 3903,
      "##abban": 3904,
      "##házy": 3905,
      "kezdett": 3906,
      "politika": 3907,
      "##ővé": 3908,
      "kin": 3909,
      "##tan": 3910,
      "helyet": 3911,
      "##onz": 3912,
      "kapitány": 3913,
      "annyit": 3914,
      "vonal": 3915,
      "éből": 3916,
      "közz": 3917,
      "##artóz": 3918,
      "##ris": 3919,
      "##jebb": 3920,
      "nemrég": 3921,
      "néző": 3922,
      "százalékát": 3923,
      "művész": 3924,
      "norm": 3925,
      "amennyiben": 3926,
      "rengeteg": 3927,
      "érte": 3928,
      "működik": 3929,
      "kedvező": 3930,
      "tiltak": 3931,
      "antikvárium": 3932,
      "rag": 3933,
      "csaba": 3934,
      "emellett": 3935,
      "tartani": 3936,
      "választók": 3937,
      "mened": 3938,
      "előtti": 3939,
      "sk": 3940,
      "ideje": 3941,
      "##szich": 3942,
      "75": 3943,
      "##polit": 3944,
      "##era": 3945,
      "##abda": 3946,
      "##ültek": 3947,
      "biztosan": 3948,
      "##prém": 3949,
      "ausztrál": 3950,
      "sztrájk": 3951,
      "##jával": 3952,
      "##eri": 3953,
      "minél": 3954,
      "tartják": 3955,
      "##ölcs": 3956,
      "kapcsán": 3957,
      "rendező": 3958,
      "deviz": 3959,
      "összefügg": 3960,
      "##úti": 3961,
      "kerék": 3962,
      "nyugati": 3963,
      "kötelezett": 3964,
      "##fokú": 3965,
      "enyh": 3966,
      "pszich": 3967,
      "##álisan": 3968,
      "hangulat": 3969,
      "védő": 3970,
      "lehetőséget": 3971,
      "letartóz": 3972,
      "fül": 3973,
      "erőszak": 3974,
      "##perc": 3975,
      "egyszerűen": 3976,
      "if": 3977,
      "##okra": 3978,
      "##amos": 3979,
      "mindenk": 3980,
      "körében": 3981,
      "195": 3982,
      "műszaki": 3983,
      "venni": 3984,
      "##enn": 3985,
      "mire": 3986,
      "olcs": 3987,
      "emi": 3988,
      "lehetővé": 3989,
      "államtitkár": 3990,
      "pozíció": 3991,
      "madrid": 3992,
      "teremt": 3993,
      "55": 3994,
      "##kezett": 3995,
      "hatékony": 3996,
      "munkan": 3997,
      "lépett": 3998,
      "könnyű": 3999,
      "eszközök": 4000,
      "augusztus": 4001,
      "gra": 4002,
      "isz": 4003,
      "rák": 4004,
      "vették": 4005,
      "befektetés": 4006,
      "##veg": 4007,
      "megszer": 4008,
      "másfél": 4009,
      "továbbá": 4010,
      "##fogás": 4011,
      "veszprém": 4012,
      "védek": 4013,
      "akadály": 4014,
      "##ereg": 4015,
      "##ítási": 4016,
      "eltér": 4017,
      "av": 4018,
      "of": 4019,
      "ába": 4020,
      "repülő": 4021,
      "kevésbé": 4022,
      "kormányzati": 4023,
      "ült": 4024,
      "szokás": 4025,
      "tudományos": 4026,
      "fa": 4027,
      "##től": 4028,
      "közgyű": 4029,
      "ov": 4030,
      "##ítását": 4031,
      "hírügynökség": 4032,
      "##énnyel": 4033,
      "sokszor": 4034,
      "kocsi": 4035,
      "##faj": 4036,
      "##árólag": 4037,
      "gyanú": 4038,
      "ideig": 4039,
      "múlva": 4040,
      "fesz": 4041,
      "ritk": 4042,
      "##egő": 4043,
      "felv": 4044,
      "számol": 4045,
      "károly": 4046,
      "megvált": 4047,
      "remél": 4048,
      "##ini": 4049,
      "köv": 4050,
      "napja": 4051,
      "látvány": 4052,
      "kezdet": 4053,
      "büntetés": 4054,
      "##méter": 4055,
      "magam": 4056,
      "alapvet": 4057,
      "kölcsön": 4058,
      "emiatt": 4059,
      "42": 4060,
      "##tlen": 4061,
      "címkék": 4062,
      "körülmények": 4063,
      "##ij": 4064,
      "eső": 4065,
      "egymást": 4066,
      "résztv": 4067,
      "##köny": 4068,
      "hozta": 4069,
      "imre": 4070,
      "vállalkozás": 4071,
      "ügyészség": 4072,
      "nyilvánosságra": 4073,
      "mart": 4074,
      "megyében": 4075,
      "közösségi": 4076,
      "izg": 4077,
      "lemond": 4078,
      "kizárólag": 4079,
      "készít": 4080,
      "pozitív": 4081,
      "##gazdasági": 4082,
      "dom": 4083,
      "ötlet": 4084,
      "##ine": 4085,
      "##ától": 4086,
      "valós": 4087,
      "hamis": 4088,
      "konkrét": 4089,
      "km": 4090,
      "évente": 4091,
      "##hatóság": 4092,
      "##óth": 4093,
      "óriási": 4094,
      "szakértők": 4095,
      "##szolgált": 4096,
      "szenvedett": 4097,
      "botrány": 4098,
      "col": 4099,
      "ton": 4100,
      "felelősség": 4101,
      "tibor": 4102,
      "eur": 4103,
      "##zat": 4104,
      "##űr": 4105,
      "##org": 4106,
      "##esi": 4107,
      "##odott": 4108,
      "indított": 4109,
      "##foglal": 4110,
      "folytató": 4111,
      "médiat": 4112,
      "dav": 4113,
      "##ílus": 4114,
      "érz": 4115,
      "okozott": 4116,
      "lehetséges": 4117,
      "bajnoki": 4118,
      "panasz": 4119,
      "##einek": 4120,
      "##ására": 4121,
      "megprób": 4122,
      "feljelent": 4123,
      "barcel": 4124,
      "portug": 4125,
      "##séklet": 4126,
      "38": 4127,
      "pontot": 4128,
      "működő": 4129,
      "probléma": 4130,
      "nyílt": 4131,
      "lista": 4132,
      "meggy": 4133,
      "##takar": 4134,
      "városi": 4135,
      "körüli": 4136,
      "megkérd": 4137,
      "por": 4138,
      "##wi": 4139,
      "gazdag": 4140,
      "komment": 4141,
      "ellentét": 4142,
      "tar": 4143,
      "gyár": 4144,
      "balázs": 4145,
      "kérte": 4146,
      "munkavállal": 4147,
      "fc": 4148,
      "ur": 4149,
      "képzés": 4150,
      "díjat": 4151,
      "tárgyalás": 4152,
      "július": 4153,
      "akkori": 4154,
      "balaton": 4155,
      "vezetői": 4156,
      "versenyző": 4157,
      "iskola": 4158,
      "veszteség": 4159,
      "portugál": 4160,
      "kur": 4161,
      "szdsz": 4162,
      "##ányi": 4163,
      "##ust": 4164,
      "nagyjából": 4165,
      "kiváló": 4166,
      "##harmad": 4167,
      "##uzs": 4168,
      "##ttel": 4169,
      "ezután": 4170,
      "keddi": 4171,
      "spe": 4172,
      "európában": 4173,
      "tervek": 4174,
      "szerdai": 4175,
      "##mérséklet": 4176,
      "reklám": 4177,
      "vaj": 4178,
      "látszik": 4179,
      "képviselők": 4180,
      "ukat": 4181,
      "fejlesztési": 4182,
      "alkotmánybíróság": 4183,
      "mindegy": 4184,
      "ingyen": 4185,
      "##ebben": 4186,
      "határozat": 4187,
      "szakemberek": 4188,
      "sa": 4189,
      "##np": 4190,
      "196": 4191,
      "kulcs": 4192,
      "számolt": 4193,
      "vezetett": 4194,
      "mérsék": 4195,
      "##ael": 4196,
      "napilap": 4197,
      "alkalmas": 4198,
      "menek": 4199,
      "tavasz": 4200,
      "betegség": 4201,
      "derül": 4202,
      "ellenzéki": 4203,
      "statiszt": 4204,
      "egyben": 4205,
      "felf": 4206,
      "magaz": 4207,
      "szerepelt": 4208,
      "roma": 4209,
      "szabályozás": 4210,
      "adatai": 4211,
      "400": 4212,
      "ly": 4213,
      "##ráció": 4214,
      "másodperc": 4215,
      "elemző": 4216,
      "ipari": 4217,
      "elkövetett": 4218,
      "repülőt": 4219,
      "lo": 4220,
      "tartozik": 4221,
      "eurót": 4222,
      "oldalon": 4223,
      "korrup": 4224,
      "fl": 4225,
      "##széd": 4226,
      "##ektor": 4227,
      "nevezte": 4228,
      "##ológia": 4229,
      "ajánlat": 4230,
      "gyanúsított": 4231,
      "tóth": 4232,
      "##ukt": 4233,
      "jelentés": 4234,
      "szerepet": 4235,
      "rich": 4236,
      "valóság": 4237,
      "házi": 4238,
      "ötven": 4239,
      "déli": 4240,
      "rekord": 4241,
      "bűncselekmény": 4242,
      "miskol": 4243,
      "##áf": 4244,
      "##ébb": 4245,
      "terror": 4246,
      "tartozó": 4247,
      "olvasó": 4248,
      "interjú": 4249,
      "szomszéd": 4250,
      "far": 4251,
      "lend": 4252,
      "rejt": 4253,
      "##jének": 4254,
      "szur": 4255,
      "ren": 4256,
      "##ényi": 4257,
      "ajándék": 4258,
      "jával": 4259,
      "tábor": 4260,
      "visszav": 4261,
      "tökélet": 4262,
      "bél": 4263,
      "képesség": 4264,
      "##osszabb": 4265,
      "elnökség": 4266,
      "##zió": 4267,
      "szé": 4268,
      "##bank": 4269,
      "felkész": 4270,
      "##rab": 4271,
      "hatály": 4272,
      "##élyes": 4273,
      "világh": 4274,
      "elmar": 4275,
      "keresztény": 4276,
      "rögz": 4277,
      "bur": 4278,
      "kelt": 4279,
      "##rész": 4280,
      "keleti": 4281,
      "híd": 4282,
      "elektron": 4283,
      "ür": 4284,
      "##alk": 4285,
      "évig": 4286,
      "adni": 4287,
      "tartomány": 4288,
      "élelmi": 4289,
      "igazgatóság": 4290,
      "vádlott": 4291,
      "gener": 4292,
      "##ódi": 4293,
      "stílus": 4294,
      "mennyi": 4295,
      "közelében": 4296,
      "népszabadság": 4297,
      "alakult": 4298,
      "révén": 4299,
      "viz": 4300,
      "megjegy": 4301,
      "##onyol": 4302,
      "nélküli": 4303,
      "élelmiszer": 4304,
      "kecs": 4305,
      "rel": 4306,
      "##hetett": 4307,
      "kapta": 4308,
      "norvég": 4309,
      "koncent": 4310,
      "robban": 4311,
      "afg": 4312,
      "megrend": 4313,
      "kies": 4314,
      "ellenfel": 4315,
      "ugyancsak": 4316,
      "konfer": 4317,
      "területén": 4318,
      "vezette": 4319,
      "##polgármester": 4320,
      "din": 4321,
      "##ölgy": 4322,
      "járul": 4323,
      "valamennyi": 4324,
      "nyerte": 4325,
      "eljárást": 4326,
      "mutatja": 4327,
      "világbajnokság": 4328,
      "39": 4329,
      "hv": 4330,
      "angel": 4331,
      "amelyeket": 4332,
      "2005": 4333,
      "##eztetés": 4334,
      "biztosít": 4335,
      "percben": 4336,
      "szövetségi": 4337,
      "##kocsi": 4338,
      "fór": 4339,
      "##ezmény": 4340,
      "csúsz": 4341,
      "állandó": 4342,
      "##ukor": 4343,
      "##áján": 4344,
      "autós": 4345,
      "pártok": 4346,
      "szerződést": 4347,
      "fert": 4348,
      "sug": 4349,
      "##étől": 4350,
      "felsz": 4351,
      "végrehajt": 4352,
      "lassan": 4353,
      "koreai": 4354,
      "sáv": 4355,
      "benn": 4356,
      "százalékot": 4357,
      "művel": 4358,
      "halad": 4359,
      "széles": 4360,
      "wash": 4361,
      "hatalom": 4362,
      "majdnem": 4363,
      "iroda": 4364,
      "kultúr": 4365,
      "kerületi": 4366,
      "izraeli": 4367,
      "san": 4368,
      "##ons": 4369,
      "##való": 4370,
      "külső": 4371,
      "negyven": 4372,
      "semmit": 4373,
      "munkanélkül": 4374,
      "fac": 4375,
      "tünt": 4376,
      "esti": 4377,
      "állítja": 4378,
      "goog": 4379,
      "kdnp": 4380,
      "##úd": 4381,
      "elad": 4382,
      "alapítvány": 4383,
      "klassz": 4384,
      "öröm": 4385,
      "##essen": 4386,
      "katal": 4387,
      "mél": 4388,
      "sztár": 4389,
      "##chester": 4390,
      "sikeres": 4391,
      "hajland": 4392,
      ".),": 4393,
      "kórházba": 4394,
      "washing": 4395,
      "41": 4396,
      "mak": 4397,
      "##szerint": 4398,
      "##eztetett": 4399,
      "atom": 4400,
      "személyes": 4401,
      "vita": 4402,
      "szélső": 4403,
      "táp": 4404,
      "tőzs": 4405,
      "##öp": 4406,
      "szolgál": 4407,
      "könnyen": 4408,
      "hamarosan": 4409,
      "fejlődés": 4410,
      "tájékoztatása": 4411,
      "sm": 4412,
      "##pad": 4413,
      "csapata": 4414,
      "bolt": 4415,
      "mc": 4416,
      "som": 4417,
      "##ilm": 4418,
      "##ozást": 4419,
      "hozzáj": 4420,
      "ajánl": 4421,
      "káros": 4422,
      "átlagos": 4423,
      "közleményében": 4424,
      "horváth": 4425,
      "videó": 4426,
      "##nyugdíj": 4427,
      "ju": 4428,
      "szünet": 4429,
      "##ásával": 4430,
      "##hetik": 4431,
      "számú": 4432,
      "kriszt": 4433,
      "hvg": 4434,
      "google": 4435,
      "44": 4436,
      "dik": 4437,
      "##aránt": 4438,
      "egyaránt": 4439,
      "##ilt": 4440,
      "194": 4441,
      "##közel": 4442,
      "##közben": 4443,
      "üzleti": 4444,
      "manchester": 4445,
      "##bi": 4446,
      "##enként": 4447,
      "##und": 4448,
      "rajong": 4449,
      "szóvivő": 4450,
      "belőle": 4451,
      "mát": 4452,
      "árt": 4453,
      "szuper": 4454,
      "##ara": 4455,
      "kora": 4456,
      "mih": 4457,
      "kaptak": 4458,
      "szórak": 4459,
      "megállapodás": 4460,
      "birt": 4461,
      "helyszínen": 4462,
      "meglepetés": 4463,
      "fórum": 4464,
      "48": 4465,
      "jo": 4466,
      "jük": 4467,
      "##encia": 4468,
      "##ana": 4469,
      "építés": 4470,
      "ukrán": 4471,
      "önmag": 4472,
      "oroszország": 4473,
      "tűnt": 4474,
      "levegő": 4475,
      "##magas": 4476,
      "beruházás": 4477,
      "katonai": 4478,
      "januárban": 4479,
      "kockáz": 4480,
      "kiemelt": 4481,
      "hivatkozva": 4482,
      "john": 4483,
      "magazin": 4484,
      "bőr": 4485,
      "üket": 4486,
      "##hogy": 4487,
      "mellé": 4488,
      "történő": 4489,
      "pénteki": 4490,
      "fokozat": 4491,
      "különbség": 4492,
      "katasztróf": 4493,
      "ják": 4494,
      "##oks": 4495,
      "pályára": 4496,
      "lelk": 4497,
      "65": 4498,
      "fent": 4499,
      "gum": 4500,
      "messz": 4501,
      "##qu": 4502,
      "##ikk": 4503,
      "##ezése": 4504,
      "fognak": 4505,
      "szabolcs": 4506,
      "örül": 4507,
      "szegény": 4508,
      "kiderül": 4509,
      "dun": 4510,
      "ján": 4511,
      "olt": 4512,
      "##ésének": 4513,
      "megfi": 4514,
      "használat": 4515,
      "időszakban": 4516,
      "liber": 4517,
      "szerkeszt": 4518,
      "egyértelműen": 4519,
      "kő": 4520,
      "##vei": 4521,
      "autom": 4522,
      "énekes": 4523,
      "dollárt": 4524,
      "dísz": 4525,
      "roh": 4526,
      "##erület": 4527,
      "megint": 4528,
      "##uth": 4529,
      "különleges": 4530,
      "##védő": 4531,
      "üzenet": 4532,
      "hétfői": 4533,
      "nyilatkozat": 4534,
      "szeretnék": 4535,
      "sebesség": 4536,
      "pol": 4537,
      "vettek": 4538,
      "##ita": 4539,
      "##sszel": 4540,
      "közeli": 4541,
      "üzemelt": 4542,
      "szerkezet": 4543,
      "számítógép": 4544,
      "##ezhető": 4545,
      "mark": 4546,
      "párizs": 4547,
      "helyzetben": 4548,
      "azoknak": 4549,
      "centiméter": 4550,
      "folytatás": 4551,
      "anyagi": 4552,
      "varga": 4553,
      "hőmérséklet": 4554,
      "jában": 4555,
      "rét": 4556,
      "##ítik": 4557,
      "fele": 4558,
      "neve": 4559,
      "ilyenkor": 4560,
      "apró": 4561,
      "északi": 4562,
      "megn": 4563,
      "százalékra": 4564,
      "közönség": 4565,
      "háború": 4566,
      "zal": 4567,
      "##jog": 4568,
      "##ebo": 4569,
      "véletlen": 4570,
      "szervezetek": 4571,
      "##jén": 4572,
      "##tér": 4573,
      "##csoport": 4574,
      "inn": 4575,
      "akarja": 4576,
      "ud": 4577,
      "##sh": 4578,
      "##sp": 4579,
      "##zött": 4580,
      "jelöl": 4581,
      "plusz": 4582,
      "magánnyugdíj": 4583,
      "##dor": 4584,
      "felúj": 4585,
      "mennyire": 4586,
      "zsid": 4587,
      "csütörtöki": 4588,
      "piacon": 4589,
      "elérhető": 4590,
      "ötödik": 4591,
      "menedzs": 4592,
      "birtok": 4593,
      "kkal": 4594,
      "##atikus": 4595,
      "##ései": 4596,
      "##edék": 4597,
      "##men": 4598,
      "részén": 4599,
      "##ázó": 4600,
      "##elly": 4601,
      "2004": 4602,
      "2002": 4603,
      "dolgozott": 4604,
      "karri": 4605,
      "polgár": 4606,
      "##ötét": 4607,
      "43": 4608,
      "##janak": 4609,
      "##elyik": 4610,
      "##ítások": 4611,
      "rajz": 4612,
      "következtében": 4613,
      "cigány": 4614,
      "ti": 4615,
      "évet": 4616,
      "ügyében": 4617,
      "sikerül": 4618,
      "gyakorlatilag": 4619,
      "hagyományos": 4620,
      "benzin": 4621,
      "##esse": 4622,
      "kettő": 4623,
      "nyáron": 4624,
      "rob": 4625,
      "##amp": 4626,
      "számában": 4627,
      "magukat": 4628,
      "tőle": 4629,
      "kerültek": 4630,
      "isten": 4631,
      "töltött": 4632,
      "karácsonyi": 4633,
      "aktív": 4634,
      "bázis": 4635,
      "hum": 4636,
      "kert": 4637,
      "sof": 4638,
      "##tem": 4639,
      "##odik": 4640,
      "forrad": 4641,
      "ai": 4642,
      "da": 4643,
      "havaz": 4644,
      "hung": 4645,
      "sop": 4646,
      "szerintem": 4647,
      "mások": 4648,
      "államfő": 4649,
      "##tatni": 4650,
      "említett": 4651,
      "szűk": 4652,
      "legutóbbi": 4653,
      "speci": 4654,
      "káb": 4655,
      "##egész": 4656,
      "felfügg": 4657,
      "autót": 4658,
      "törvényt": 4659,
      "korrupció": 4660,
      "felfüggeszt": 4661,
      "cip": 4662,
      "hús": 4663,
      "kétharmad": 4664,
      "##kező": 4665,
      "összeh": 4666,
      "rendszert": 4667,
      "tették": 4668,
      "michael": 4669,
      "ágy": 4670,
      "előadás": 4671,
      "mondott": 4672,
      "ügyfel": 4673,
      "öreg": 4674,
      "49": 4675,
      "teg": 4676,
      "##nék": 4677,
      "##áltak": 4678,
      "indítvány": 4679,
      "merc": 4680,
      "koncert": 4681,
      "étel": 4682,
      "##átus": 4683,
      "##amb": 4684,
      "gyártó": 4685,
      "bán": 4686,
      "für": 4687,
      "neg": 4688,
      "##hang": 4689,
      "átv": 4690,
      "mondani": 4691,
      "vezetők": 4692,
      "hasonl": 4693,
      "fagy": 4694,
      "ros": 4695,
      "sújt": 4696,
      "##áért": 4697,
      "szed": 4698,
      "##egyen": 4699,
      "többsége": 4700,
      "ral": 4701,
      "so": 4702,
      "kettős": 4703,
      "szempontból": 4704,
      "szén": 4705,
      "közbe": 4706,
      "valah": 4707,
      "kellem": 4708,
      "fogják": 4709,
      "##ivál": 4710,
      "meghalt": 4711,
      "problémák": 4712,
      "nyitott": 4713,
      "szigorú": 4714,
      "tétel": 4715,
      "##tus": 4716,
      "##urt": 4717,
      "elker": 4718,
      "##adi": 4719,
      "irodalom": 4720,
      "források": 4721,
      "obama": 4722,
      "vadász": 4723,
      "máv": 4724,
      "##oznak": 4725,
      "szerű": 4726,
      "vall": 4727,
      "2000": 4728,
      "bizonytalan": 4729,
      "city": 4730,
      "szek": 4731,
      "##adók": 4732,
      "melyek": 4733,
      "andre": 4734,
      "brazil": 4735,
      "ste": 4736,
      "##af": 4737,
      "alelnök": 4738,
      "előfordul": 4739,
      "##hatják": 4740,
      "visszaes": 4741,
      "pályázat": 4742,
      "területen": 4743,
      "játszik": 4744,
      "##igazgatás": 4745,
      "demokrá": 4746,
      "##indul": 4747,
      "##nyt": 4748,
      "gazdál": 4749,
      "2012": 4750,
      "##ley": 4751,
      "kérdésre": 4752,
      "étől": 4753,
      "hallgató": 4754,
      "bemutató": 4755,
      "pk": 4756,
      "##orvos": 4757,
      "állnak": 4758,
      "okozta": 4759,
      "tartanak": 4760,
      "érdeklődés": 4761,
      "ígéret": 4762,
      "hozzájár": 4763,
      "hajd": 4764,
      "##car": 4765,
      "##szerző": 4766,
      "látja": 4767,
      "##rium": 4768,
      "érkező": 4769,
      "tilt": 4770,
      "hajlandó": 4771,
      "riv": 4772,
      "fogalmaz": 4773,
      "alkalm": 4774,
      "véli": 4775,
      "ismeret": 4776,
      "fordult": 4777,
      "álláspont": 4778,
      "észre": 4779,
      "letartóztatás": 4780,
      "közgyűlés": 4781,
      "tegnap": 4782,
      "46": 4783,
      "kg": 4784,
      "##járt": 4785,
      "##po": 4786,
      "##osok": 4787,
      "vezetés": 4788,
      "valójában": 4789,
      "gárd": 4790,
      "red": 4791,
      "voks": 4792,
      "állította": 4793,
      "jelezte": 4794,
      "közösség": 4795,
      "képviselői": 4796,
      "hold": 4797,
      "elismer": 4798,
      "##őlt": 4799,
      "adóz": 4800,
      "##lehet": 4801,
      "szocialisták": 4802,
      "bab": 4803,
      "megtakar": 4804,
      "ennyi": 4805,
      "##ence": 4806,
      "támogatást": 4807,
      "honlapján": 4808,
      "##váltás": 4809,
      "47": 4810,
      "sötét": 4811,
      "##hol": 4812,
      "##nár": 4813,
      "##elmes": 4814,
      "##ozása": 4815,
      "maxim": 4816,
      "agr": 4817,
      "mand": 4818,
      "##gó": 4819,
      "##erek": 4820,
      "##inál": 4821,
      "##ile": 4822,
      "jára": 4823,
      "ul": 4824,
      "vétel": 4825,
      "ázs": 4826,
      "öszt": 4827,
      "##fut": 4828,
      "##onc": 4829,
      "##nként": 4830,
      "##ítására": 4831,
      "verzió": 4832,
      "##jelölt": 4833,
      "brü": 4834,
      "futó": 4835,
      "rendelkező": 4836,
      "unit": 4837,
      "rendkívüli": 4838,
      "gyilkosság": 4839,
      "hálózat": 4840,
      "##könyv": 4841,
      "facebo": 4842,
      "bir": 4843,
      "közv": 4844,
      "válik": 4845,
      "tartalm": 4846,
      "létszám": 4847,
      "melyik": 4848,
      "dolgozik": 4849,
      "debrecen": 4850,
      "kibocsát": 4851,
      "56": 4852,
      "##ho": 4853,
      "##üm": 4854,
      "robert": 4855,
      "huszon": 4856,
      "eit": 4857,
      "ős": 4858,
      "old": 4859,
      "befej": 4860,
      "dolgozók": 4861,
      "veszélyes": 4862,
      "legfeljebb": 4863,
      "vágy": 4864,
      "leb": 4865,
      "hiba": 4866,
      "kezdte": 4867,
      "védelmi": 4868,
      "németország": 4869,
      "fölött": 4870,
      "##ügyminisztérium": 4871,
      "kifejezett": 4872,
      "ural": 4873,
      "##köt": 4874,
      "annál": 4875,
      "időjárás": 4876,
      "elemzés": 4877,
      "kezdődött": 4878,
      "hős": 4879,
      "elvég": 4880,
      "##sága": 4881,
      "velük": 4882,
      "kiter": 4883,
      "hétvégén": 4884,
      "felfed": 4885,
      "air": 4886,
      "rám": 4887,
      "##ered": 4888,
      "mellék": 4889,
      "mérleg": 4890,
      "abból": 4891,
      "önként": 4892,
      "rosszul": 4893,
      "tévé": 4894,
      "közepén": 4895,
      "koz": 4896,
      "web": 4897,
      "üd": 4898,
      "##han": 4899,
      "gyal": 4900,
      "ifjú": 4901,
      "mihály": 4902,
      "negatív": 4903,
      "ait": 4904,
      "mn": 4905,
      "##óban": 4906,
      "szel": 4907,
      "tudták": 4908,
      "látni": 4909,
      "időpont": 4910,
      "irán": 4911,
      "autók": 4912,
      "##ford": 4913,
      "találkozó": 4914,
      "ettől": 4915,
      "jos": 4916,
      "##árom": 4917,
      "kiegész": 4918,
      "véget": 4919,
      "##ebek": 4920,
      "bay": 4921,
      "testvér": 4922,
      "tanácsadó": 4923,
      "asztal": 4924,
      "dzs": 4925,
      "hev": 4926,
      "nat": 4927,
      "##jenek": 4928,
      "##enő": 4929,
      "##onyi": 4930,
      "utáni": 4931,
      "világos": 4932,
      "alatti": 4933,
      "autópály": 4934,
      "elemzők": 4935,
      "bejelentette": 4936,
      "pécs": 4937,
      "figyelembe": 4938,
      "gab": 4939,
      "si": 4940,
      "tető": 4941,
      "ugyanaz": 4942,
      "nyomán": 4943,
      "##kodik": 4944,
      "ismerős": 4945,
      "drog": 4946,
      "alacsonyabb": 4947,
      "##bev": 4948,
      "##ital": 4949,
      "végéig": 4950,
      "nálunk": 4951,
      "fiatalok": 4952,
      "származó": 4953,
      "mt": 4954,
      "##uver": 4955,
      "nyugdíjpénztár": 4956,
      "záró": 4957,
      "véleménye": 4958,
      "vasárnapi": 4959,
      "halálos": 4960,
      "főszerep": 4961,
      "fék": 4962,
      "jer": 4963,
      "tük": 4964,
      "##mán": 4965,
      "##özés": 4966,
      "##cion": 4967,
      "rendelet": 4968,
      "parancs": 4969,
      "védelem": 4970,
      "városban": 4971,
      "drám": 4972,
      "mindkett": 4973,
      "felmérés": 4974,
      "ösztön": 4975,
      "##aná": 4976,
      "##arc": 4977,
      "kivétel": 4978,
      "tanár": 4979,
      "döntetlen": 4980,
      "akiknek": 4981,
      "kilát": 4982,
      "szeretne": 4983,
      "csinál": 4984,
      "hullám": 4985,
      "lezár": 4986,
      "##edt": 4987,
      "éven": 4988,
      "körülmény": 4989,
      "győzelm": 4990,
      "közlekedés": 4991,
      "működt": 4992,
      "kijelentette": 4993,
      "karrier": 4994,
      "mercedes": 4995,
      "mért": 4996,
      "rúg": 4997,
      "tom": 4998,
      "ánál": 4999
    }
  }
}