<unk>	0
<s>	0
</s>	0
,	-2.92917
▁a	-3.02246
.	-3.4511
▁az	-4.06223
t	-4.2734
▁A	-4.48807
i	-4.4956
▁és	-4.55147
-	-4.72129
▁hogy	-4.83236
▁is	-4.93796
▁-	-4.99971
▁	-5.12396
▁nem	-5.12406
a	-5.32005
▁egy	-5.35232
e	-5.36876
k	-5.37717
:	-5.38009
▁meg	-5.55739
▁Az	-5.66527
ban	-5.71975
nak	-5.73185
ra	-5.75737
ek	-5.77833
▁(	-5.80654
s	-5.84731
ok	-5.8714
ben	-5.87651
en	-5.89516
re	-5.9175
nek	-5.91964
▁ki	-5.93093
▁el	-5.94392
▁szerint	-5.98788
)	-6.06061
et	-6.07851
es	-6.08097
▁de	-6.09919
▁"	-6.10552
▁volt	-6.12782
ni	-6.13232
▁már	-6.2089
"	-6.22381
ja	-6.27829
n	-6.32665
on	-6.32684
át	-6.35369
ot	-6.40923
▁csak	-6.41298
▁még	-6.42191
▁be	-6.44509
▁fel	-6.44582
os	-6.48231
d	-6.51275
ét	-6.53212
▁azt	-6.56559
ó	-6.59543
▁van	-6.60497
an	-6.6051
▁mint	-6.61975
ik	-6.66058
ba	-6.66609
▁ha	-6.66873
▁sem	-6.68365
m	-6.68919
▁két	-6.69724
▁le	-6.70527
ak	-6.71757
▁pedig	-6.73738
▁kell	-6.74657
▁több	-6.77669
▁ez	-6.78665
▁vagy	-6.80236
at	-6.82449
▁magyar	-6.86006
▁után	-6.86019
okat	-6.87554
▁majd	-6.91799
ő	-6.93156
▁miatt	-6.94504
▁s	-6.96226
▁aki	-6.97867
▁lehet	-6.98269
▁első	-6.98291
y	-7.00684
be	-7.01557
ból	-7.01581
eket	-7.0182
hoz	-7.02665
▁új	-7.0309
▁így	-7.03167
z	-7.03396
án	-7.0456
▁amely	-7.04621
▁nagy	-7.05149
▁mert	-7.05382
ról	-7.05706
▁mondta	-7.06246
?	-7.06485
▁lesz	-7.06576
▁olyan	-7.10581
l	-7.13389
▁úgy	-7.14451
▁között	-7.15948
én	-7.16433
ről	-7.16646
▁akkor	-7.17898
▁azonban	-7.18059
▁át	-7.20254
va	-7.2351
ta	-7.23552
),	-7.23667
▁egyik	-7.23728
▁minden	-7.24808
sz	-7.25328
ának	-7.2595
tól	-7.2607
ként	-7.26714
ig	-7.26944
val	-7.27114
b	-7.27586
ből	-7.28242
ás	-7.30742
▁év	-7.31366
nál	-7.32259
ú	-7.35586
ott	-7.36259
unk	-7.36296
ában	-7.37014
▁ami	-7.37057
▁arra	-7.37468
ért	-7.37675
ének	-7.37761
ve	-7.38684
től	-7.40387
▁millió	-7.40538
▁S	-7.40621
om	-7.40862
as	-7.41652
g	-7.42571
o	-7.42986
vel	-7.44379
▁jó	-7.44699
ünk	-7.46993
hez	-7.48031
▁éves	-7.48632
▁ellen	-7.48791
▁forint	-7.49132
▁három	-7.49319
▁volna	-7.49397
c	-7.4973
▁kormány	-7.49908
▁B	-7.50279
f	-7.50429
ék	-7.5046
▁most	-7.50676
ára	-7.50761
h	-7.51136
▁Ha	-7.5131
em	-7.51406
▁mi	-7.51837
▁M	-7.52992
▁illetve	-7.53685
ul	-7.5459
ját	-7.55801
▁ezt	-7.55942
ű	-7.56228
▁előtt	-7.56558
▁ezer	-7.57869
é	-7.58319
ják	-7.58368
nél	-7.58416
je	-7.59532
▁amikor	-7.59536
uk	-7.59648
el	-7.60699
▁mellett	-7.60711
▁alatt	-7.61555
▁Ez	-7.64501
▁más	-7.64869
▁vissza	-7.64894
▁Nem	-7.65351
A	-7.65359
▁által	-7.66696
és	-7.67169
ával	-7.6785
te	-7.67931
▁Egy	-7.68252
▁milliárd	-7.69846
!	-7.70825
▁össze	-7.7126
▁nagyon	-7.71275
ett	-7.71431
▁Magyar	-7.71496
p	-7.7177
ai	-7.71959
er	-7.72049
▁rá	-7.7266
▁K	-7.7287
▁hanem	-7.7306
na	-7.73413
cs	-7.73926
ták	-7.74167
▁férfi	-7.74412
ére	-7.74696
▁ember	-7.75234
▁akik	-7.75538
ol	-7.75801
kat	-7.76176
ák	-7.76554
▁E	-7.76593
▁amerikai	-7.77145
▁tovább	-7.77378
kor	-7.77647
▁közölte	-7.78165
ük	-7.78447
▁lett	-7.79626
ság	-7.80069
tak	-7.80176
ség	-7.80186
ében	-7.80329
▁világ	-7.80383
j	-7.81324
▁azért	-7.82337
▁viszont	-7.84415
▁sok	-7.8494
▁második	-7.85193
▁ilyen	-7.8544
▁Fidesz	-7.8555
▁T	-7.85689
▁párt	-7.85696
▁ahol	-7.85892
5	-7.85956
ed	-7.86248
▁ország	-7.86535
▁hozzá	-7.86911
▁ezért	-7.87253
▁négy	-7.87416
▁annak	-7.87661
▁áll	-7.87721
K	-7.87761
".	-7.87779
▁ő	-7.87972
ével	-7.88636
▁nincs	-7.8875
▁MNO	-7.89137
sal	-7.89581
▁kis	-7.89616
B	-7.90248
okkal	-7.90874
juk	-7.90946
▁százalékkal	-7.9188
/	-7.91884
ül	-7.92239
▁például	-7.92318
▁cég	-7.92773
4	-7.92954
;	-7.92979
▁arról	-7.93728
▁C	-7.93842
6	-7.94184
▁ugyanis	-7.94807
▁valamint	-7.94869
3	-7.95249
▁ne	-7.95832
▁De	-7.95897
▁óta	-7.96578
2	-7.96648
it	-7.96683
ekkel	-7.96959
▁F	-7.97999
▁alapján	-7.98613
▁H	-7.99454
S	-7.99575
▁G	-7.99894
tek	-8.00459
r	-8.00719
▁saját	-8.00746
▁korábban	-8.00815
us	-8.01075
▁leg	-8.01111
▁számára	-8.01295
▁hiszen	-8.01631
sel	-8.01643
▁csapat	-8.01732
hat	-8.02036
▁amit	-8.02381
▁ma	-8.02636
1	-8.03168
▁fél	-8.03278
v	-8.03336
▁V	-8.03761
ne	-8.03897
P	-8.04177
ték	-8.04521
tal	-8.05172
M	-8.0525
▁másik	-8.05818
▁című	-8.06309
in	-8.0658
▁fő	-8.07144
or	-8.07311
egy	-8.07312
▁itt	-8.0781
▁Európa	-8.08073
▁százalékos	-8.08269
V	-8.0865
▁jól	-8.09274
▁Mi	-8.09317
▁I	-8.09577
▁10	-8.09621
▁lenne	-8.09909
ur	-8.10034
▁akár	-8.10214
▁nélkül	-8.10621
▁fog	-8.10821
ei	-8.11691
▁P	-8.12538
u	-8.12545
od	-8.12591
8	-8.12831
▁elő	-8.13226
le	-8.13363
▁autó	-8.13431
▁amelyek	-8.13944
▁legnagyobb	-8.13993
▁kellett	-8.14925
▁míg	-8.15037
▁néhány	-8.15245
D	-8.1552
▁került	-8.16097
▁túl	-8.16135
ása	-8.16287
ár	-8.16384
is	-8.16403
▁során	-8.16575
▁elmúlt	-8.17017
gy	-8.17036
▁p	-8.17079
al	-8.17344
▁rendőrség	-8.17652
▁sz	-8.17916
▁való	-8.18474
ad	-8.18539
bb	-8.18737
▁közül	-8.19238
7	-8.1998
▁eddig	-8.20038
F	-8.20047
▁öt	-8.201
▁nagyobb	-8.20249
▁korábbi	-8.20253
▁L	-8.20905
▁azzal	-8.20939
C	-8.21343
▁százalék	-8.21426
▁nap	-8.21529
▁elmondta	-8.21781
▁20	-8.22034
▁egész	-8.22387
▁e	-8.22854
▁hét	-8.23089
H	-8.23486
T	-8.23606
x	-8.23778
▁ott	-8.24059
né	-8.24078
ez	-8.24655
▁gazdasági	-8.24728
▁tavaly	-8.2474
hu	-8.24862
▁ezzel	-8.25108
het	-8.25647
▁László	-8.26151
ha	-8.26395
ál	-8.27131
▁mivel	-8.27135
▁szemben	-8.2716
ter	-8.27247
ka	-8.27425
▁mindig	-8.27456
ök	-8.27475
▁együtt	-8.27535
▁idén	-8.27697
▁N	-8.27928
▁vannak	-8.28091
▁teljes	-8.2865
▁adott	-8.29016
▁elnöke	-8.29206
▁szó	-8.29338
▁3	-8.30222
▁R	-8.30259
li	-8.30429
).	-8.30486
▁D	-8.30506
▁ám	-8.31334
▁Nagy	-8.31384
▁utolsó	-8.31491
ny	-8.31564
tel	-8.31929
▁Meg	-8.32373
▁tette	-8.32465
▁kapott	-8.32469
▁történt	-8.32902
▁b	-8.32957
▁Magyarország	-8.3298
am	-8.33174
▁MSZP	-8.33469
▁inkább	-8.33501
▁német	-8.33655
▁elnök	-8.33688
▁ugyan	-8.34335
▁város	-8.34413
▁pénz	-8.34545
▁idő	-8.34743
ít	-8.34796
▁voltak	-8.35091
▁nemzetközi	-8.35205
▁Orbán	-8.35338
▁törvény	-8.35433
jának	-8.3574
▁vezető	-8.35949
▁pont	-8.36385
ható	-8.36601
▁őket	-8.36675
ö	-8.37058
abb	-8.37113
▁hat	-8.37229
▁Péter	-8.37239
...	-8.37449
▁rendszer	-8.37785
▁szervezet	-8.37862
▁Sz	-8.38604
hető	-8.38607
▁sikerült	-8.38651
▁következő	-8.38776
▁f	-8.39225
▁jobb	-8.39382
E	-8.39477
▁politikai	-8.39535
▁tett	-8.39555
ös	-8.40342
▁legjobb	-8.40376
▁állami	-8.40664
jük	-8.40697
▁közel	-8.40713
nyi	-8.40731
éről	-8.40857
ri	-8.41096
▁helyzet	-8.41135
▁ennek	-8.41267
▁harmadik	-8.41527
áról	-8.42048
▁milyen	-8.4209
▁film	-8.42287
▁fontos	-8.42327
▁pár	-8.42829
▁hazai	-8.4305
ése	-8.43164
▁éppen	-8.43315
▁nő	-8.43687
▁éve	-8.43985
▁újra	-8.44055
▁15	-8.44069
ki	-8.44186
▁magát	-8.44592
▁további	-8.44643
ket	-8.44765
▁lap	-8.44769
ló	-8.45765
▁István	-8.45882
▁állam	-8.45892
▁biztos	-8.46481
▁európai	-8.4659
▁neki	-8.46813
di	-8.46994
▁El	-8.47508
▁adó	-8.47765
▁mintegy	-8.47811
▁múlt	-8.47865
kel	-8.47903
▁jövő	-8.48028
▁tíz	-8.48078
kal	-8.48154
▁bár	-8.48248
▁élet	-8.48418
▁Ma	-8.48565
▁szóló	-8.48615
▁lévő	-8.48805
▁december	-8.49078
▁12	-8.4946
▁Ki	-8.49807
▁később	-8.50037
▁köz	-8.5038
▁erre	-8.50381
▁képest	-8.50468
leg	-8.50784
szt	-8.50842
ebb	-8.51005
▁jelenleg	-8.51022
▁2	-8.51087
▁Le	-8.51163
▁ezek	-8.51455
▁alap	-8.51623
R	-8.51635
▁írja	-8.51993
▁végén	-8.52008
▁szerdán	-8.52066
▁forintot	-8.52177
▁utóbbi	-8.52201
▁emberek	-8.52259
▁2010.	-8.52303
▁vasárnap	-8.52508
▁helyi	-8.526
▁tud	-8.52714
ma	-8.52823
▁újabb	-8.53215
ar	-8.53308
▁hasonló	-8.53413
▁ért	-8.53884
▁verseny	-8.54019
▁amelyet	-8.54101
▁víz	-8.54104
▁évvel	-8.54176
▁belül	-8.54377
▁ellenére	-8.5446
▁hétfőn	-8.54631
▁alá	-8.54754
▁mind	-8.55043
▁január	-8.55085
▁sokkal	-8.55208
▁miniszterelnök	-8.5539
da	-8.55564
▁cél	-8.55874
az	-8.55896
▁euró	-8.55912
ér	-8.56108
▁1	-8.56358
▁én	-8.56434
▁MTI	-8.56514
▁kedden	-8.56614
▁m	-8.56933
▁este	-8.57075
▁Gábor	-8.57097
▁csoport	-8.57155
▁jelent	-8.57395
▁bele	-8.57557
▁5	-8.57676
▁család	-8.57692
▁részt	-8.58201
▁elég	-8.58348
szer	-8.58353
ából	-8.58393
▁Magyarországon	-8.58538
eit	-8.58594
▁jelentős	-8.58841
▁elleni	-8.59014
00	-8.59482
gal	-8.59483
▁k	-8.59919
▁szükség	-8.60089
▁csökkent	-8.60161
▁egyelőre	-8.60244
▁egyetlen	-8.60407
▁jelentette	-8.60816
▁egyébként	-8.61346
um	-8.61707
▁helyen	-8.61719
L	-8.61794
▁kerül	-8.61802
▁szinte	-8.61837
▁évben	-8.61882
öl	-8.61939
▁mely	-8.61978
▁szintén	-8.62106
▁igaz	-8.62142
tam	-8.62167
ján	-8.62305
▁követően	-8.62713
▁O	-8.62864
ait	-8.63014
▁csütörtökön	-8.63027
▁orosz	-8.6303
0	-8.63178
▁tudja	-8.63367
▁pénteken	-8.63459
▁30	-8.63537
▁ismét	-8.63551
▁vált	-8.63575
ók	-8.6367
▁16	-8.63796
▁4	-8.6387
▁nyolc	-8.63942
▁igen	-8.64012
eg	-8.64113
G	-8.64329
▁11	-8.64768
▁egyre	-8.65001
▁képviselő	-8.65069
ing	-8.65228
▁út	-8.65305
▁egyes	-8.65525
▁program	-8.65546
▁hosszú	-8.65722
▁álló	-8.66404
▁része	-8.66432
▁végül	-8.67101
▁sor	-8.67112
zs	-8.67395
ába	-8.67396
▁megyei	-8.67852
N	-8.67975
▁abban	-8.68174
csak	-8.684
▁először	-8.68489
▁tehát	-8.68902
▁maga	-8.69011
▁évek	-8.69107
▁ebben	-8.69219
▁helyett	-8.69373
▁marad	-8.69395
▁kisebb	-8.69559
▁Sport	-8.69579
▁jár	-8.69809
▁25	-8.70003
▁János	-8.70151
▁brit	-8.70154
▁amelynek	-8.70219
▁szabad	-8.70471
ci	-8.70472
▁gazdaság	-8.70574
▁miután	-8.70669
▁J	-8.70784
▁vele	-8.70835
▁vezetője	-8.71129
ön	-8.7118
nk	-8.71367
▁Mint	-8.71395
vá	-8.7141
▁György	-8.71674
ü	-8.72324
▁18	-8.72333
fel	-8.72617
ch	-8.72769
▁könyv	-8.73067
▁sajtó	-8.73164
▁miniszter	-8.73283
▁bíróság	-8.73336
▁előző	-8.73508
zi	-8.73537
▁Jobbik	-8.73603
▁kívül	-8.73629
▁Tamás	-8.73659
9	-8.73779
▁legalább	-8.73809
▁ház	-8.74174
jét	-8.74294
▁idei	-8.74302
▁ment	-8.74473
▁él	-8.74498
okra	-8.74562
▁jelenlegi	-8.74631
▁válság	-8.7505
▁c	-8.75098
▁politikus	-8.75157
▁kapcsolatban	-8.75157
▁azok	-8.75307
▁magas	-8.75339
▁teljesen	-8.75498
▁jog	-8.75507
▁kellene	-8.75552
▁mégis	-8.75556
▁Budapest	-8.75583
▁legyen	-8.7563
tem	-8.75866
él	-8.75941
de	-8.75963
tor	-8.75984
▁semmi	-8.76146
▁reggel	-8.76151
▁Ferenc	-8.76197
▁közös	-8.76197
▁szükséges	-8.76412
▁száma	-8.76455
▁tart	-8.76761
▁ár	-8.76777
O	-8.76801
zás	-8.76832
ic	-8.77069
▁nyert	-8.77074
▁EU	-8.77347
▁Nemzeti	-8.77505
▁válogatott	-8.77527
▁Be	-8.77805
▁h	-8.77972
▁14	-8.78155
▁játék	-8.78195
▁rossz	-8.78314
▁fiatal	-8.78567
ná	-8.78658
▁És	-8.78667
▁13	-8.78943
▁november	-8.79175
▁benne	-8.79355
▁17	-8.79381
▁bank	-8.79451
▁Zrt	-8.7948
▁mit	-8.7977
▁ezen	-8.79795
▁közben	-8.79805
ani	-8.79938
I	-8.80019
▁mindenki	-8.80078
▁készült	-8.80116
ír	-8.80145
▁tartott	-8.80299
▁március	-8.80301
▁esetben	-8.80338
▁Egyesül	-8.80474
olt	-8.80486
▁munka	-8.80645
▁Zoltán	-8.80682
szám	-8.80684
ty	-8.80723
▁magán	-8.80843
ly	-8.80915
▁miért	-8.81055
▁persze	-8.81061
ítás	-8.813
vé	-8.81328
▁ahogy	-8.81547
▁felé	-8.8166
▁gyerek	-8.81748
▁forintos	-8.81819
▁kérdés	-8.81988
▁nehéz	-8.81992
rész	-8.82152
ia	-8.82251
▁szól	-8.82327
▁kap	-8.82334
kkal	-8.8239
▁8	-8.8247
▁ismert	-8.82567
▁ugyanakkor	-8.82757
▁társaság	-8.83156
▁U	-8.83214
▁csupán	-8.83234
▁kor	-8.83486
▁pénzügyi	-8.8353
ov	-8.83823
▁valaki	-8.83836
▁BKV	-8.84003
▁perc	-8.84097
▁Viktor	-8.841
▁megfelelő	-8.84138
jában	-8.84271
se	-8.84332
éhez	-8.84519
▁francia	-8.84589
▁százaléka	-8.84609
▁hely	-8.85094
▁g	-8.85105
rel	-8.85138
▁talán	-8.85275
▁összesen	-8.85319
og	-8.85399
▁kép	-8.85446
▁héten	-8.85585
vi	-8.85663
▁nemzeti	-8.85675
▁erős	-8.85949
▁W	-8.86013
▁Al	-8.86041
▁száz	-8.86076
éből	-8.86338
ir	-8.86345
▁érdekében	-8.86457
▁sport	-8.8647
elő	-8.86653
▁oldal	-8.86658
▁hír	-8.86714
▁6	-8.86715
la	-8.86893
▁jobban	-8.8706
mer	-8.87233
▁te	-8.87362
▁játékos	-8.87561
lő	-8.87633
öt	-8.87639
▁ér	-8.87675
▁szerepel	-8.87922
ához	-8.87943
okban	-8.87993
▁írta	-8.88005
▁körül	-8.88198
▁19	-8.88198
▁24	-8.88282
ult	-8.88579
▁dollár	-8.88667
▁Ezt	-8.88702
▁élő	-8.88723
▁rövid	-8.88738
▁Bár	-8.88761
▁szak	-8.88828
son	-8.89049
jon	-8.89134
▁d	-8.8919
▁rendőrök	-8.89249
▁eljárás	-8.89371
▁v	-8.89385
▁gyermek	-8.89419
st	-8.89495
▁személy	-8.89563
▁ír	-8.89787
▁gól	-8.89855
ment	-8.89888
▁50	-8.90049
ör	-8.90142
▁aztán	-8.90823
mi	-8.90875
'	-8.91022
man	-8.91029
hatja	-8.912
▁ön	-8.91244
▁nyom	-8.9127
▁uniós	-8.91277
▁határ	-8.91411
▁hó	-8.91606
▁várható	-8.91637
▁New	-8.91816
▁elején	-8.9183
▁elsősorban	-8.91934
▁se	-8.92027
▁Itthon	-8.92036
▁délután	-8.92069
ását	-8.92389
▁intézmény	-8.92586
hely	-8.93283
▁akar	-8.93381
okon	-8.93469
▁klub	-8.93475
▁különböző	-8.93519
▁La	-8.93597
▁hogyan	-8.93699
▁sőt	-8.93839
▁komoly	-8.94141
▁vagyis	-8.94201
▁állt	-8.94236
▁maradt	-8.94317
▁keresztül	-8.94587
▁vett	-8.94653
▁képes	-8.94813
▁Sándor	-8.94899
▁külföldi	-8.94899
▁András	-8.9504
▁számos	-8.95049
▁senki	-8.95062
ver	-8.95073
oknak	-8.95271
▁József	-8.95442
za	-8.95489
▁MDF	-8.95547
ző	-8.95548
▁közé	-8.95715
▁vár	-8.95792
▁óra	-8.95818
▁tanulmány	-8.95951
▁lehetett	-8.9627
üket	-8.96287
▁vizsgálat	-8.96363
▁bizottság	-8.96427
▁évi	-8.96492
▁döntés	-8.96643
▁módon	-8.96698
▁Index	-8.96745
▁jutott	-8.96785
▁vagyok	-8.97036
▁jelen	-8.97281
▁ill	-8.97558
▁Z	-8.97576
nem	-8.97947
▁nemcsak	-8.97986
▁Rendőr	-8.98211
▁otthon	-8.98231
telen	-8.98273
ást	-8.98285
▁egyszer	-8.9835
▁kör	-8.98379
▁fej	-8.98398
▁motor	-8.98411
▁esetében	-8.9844
fi	-8.98841
▁tér	-8.98853
▁Ennek	-8.99033
▁indult	-8.99195
pa	-8.99648
oz	-8.99701
lás	-8.99709
▁egykori	-8.99823
ukat	-8.99915
ro	-8.9998
▁Ka	-8.99988
▁cs	-9.00242
ke	-9.00269
▁többi	-9.00297
á	-9.00581
▁oda	-9.00624
adó	-9.00709
▁budapesti	-9.00884
il	-9.01114
▁közötti	-9.01323
elt	-9.01365
▁kapcsolatos	-9.01404
▁valami	-9.01436
▁nép	-9.01497
▁szóvivője	-9.01597
▁azaz	-9.01629
▁Így	-9.01802
▁2.	-9.021
ális	-9.02237
▁február	-9.02277
ébe	-9.02363
▁40	-9.02377
▁addig	-9.02496
▁lakás	-9.0256
▁önkormányzat	-9.02675
▁100	-9.02942
▁kínai	-9.03139
ral	-9.03141
▁Cs	-9.03177
▁években	-9.03196
▁ők	-9.03416
ag	-9.03423
ekre	-9.03453
▁költségvetés	-9.03606
rendszer	-9.03815
int	-9.03915
▁ügy	-9.03961
ner	-9.04048
▁súlyos	-9.04164
▁Világ	-9.04221
▁idején	-9.04297
mal	-9.04396
▁meccs	-9.04476
sa	-9.04502
▁Kft	-9.04617
usz	-9.04698
ezés	-9.04729
▁ahhoz	-9.04747
▁forduló	-9.04751
▁fogalmazott	-9.04987
▁l	-9.05001
▁Megye	-9.053
▁bor	-9.05312
▁nevű	-9.05348
zó	-9.05446
▁rész	-9.05508
▁darab	-9.05672
▁országos	-9.05692
▁összeg	-9.05699
▁Gazdaság	-9.058
▁Két	-9.05906
nő	-9.05969
ekben	-9.05975
hatnak	-9.06095
lag	-9.06149
nal	-9.06306
▁2010-	-9.06311
si	-9.06332
▁7	-9.06481
len	-9.06691
▁hivatal	-9.06702
ga	-9.06737
▁tudott	-9.06878
tár	-9.0709
▁eset	-9.07121
▁Több	-9.07126
▁tanács	-9.07364
▁adat	-9.07422
▁szív	-9.07508
▁szombaton	-9.0759
▁számít	-9.07703
kép	-9.07895
▁eredmény	-9.07919
▁érkezett	-9.07926
ut	-9.08202
▁szín	-9.08212
▁olvasható	-9.08233
▁szerződés	-9.0841
▁hitel	-9.08478
kó	-9.08515
▁gáz	-9.08576
▁Már	-9.08587
▁2009-	-9.08628
▁külön	-9.08631
▁született	-9.08632
▁per	-9.08743
ött	-9.08839
▁valószínűleg	-9.08854
▁siker	-9.0887
esen	-9.08898
▁előre	-9.08935
ág	-9.09
rá	-9.0913
beli	-9.09176
▁nőtt	-9.09296
▁választási	-9.09317
ők	-9.09352
▁beszélt	-9.09417
zés	-9.09427
▁dél	-9.09492
áz	-9.09598
▁hang	-9.09666
▁Zsolt	-9.09721
▁szem	-9.09732
▁összes	-9.09778
jával	-9.09784
▁adatok	-9.09902
ész	-9.09915
▁tagja	-9.09974
▁sokat	-9.10015
▁kevesebb	-9.10077
▁mondja	-9.10096
ette	-9.10099
im	-9.10175
▁2008-	-9.10246
▁valóban	-9.10412
un	-9.10435
ését	-9.10477
▁műsor	-9.10549
ító	-9.10632
heti	-9.10676
▁végzett	-9.10849
tér	-9.10958
▁időszak	-9.11047
▁alig	-9.11158
▁esett	-9.112
vet	-9.11203
▁21	-9.11238
▁mai	-9.11294
▁föld	-9.11402
▁olasz	-9.11553
ós	-9.11553
▁Attila	-9.11604
▁tudta	-9.11673
▁vesz	-9.1173
ény	-9.11873
otta	-9.11882
▁Országos	-9.11997
▁cégek	-9.12106
ház	-9.12332
▁női	-9.12333
▁9	-9.12382
▁gép	-9.12458
▁érték	-9.1264
hi	-9.12663
▁kampány	-9.12704
▁pénzt	-9.12863
▁hivatalos	-9.1291
▁egyéni	-9.12927
í	-9.13016
▁22	-9.13047
bor	-9.13171
▁lány	-9.13185
▁spanyol	-9.13325
1-	-9.13487
▁akció	-9.13512
atlan	-9.13514
meg	-9.13586
▁tartja	-9.13803
einek	-9.13912
▁ráadásul	-9.1392
gó	-9.14125
▁hatóságok	-9.14171
mény	-9.14172
rend	-9.14202
▁Vi	-9.1429
▁ezelőtt	-9.14351
▁ad	-9.14373
▁teszi	-9.14396
▁hatalmas	-9.14481
főkapitányság	-9.14549
▁átlag	-9.14625
▁döntött	-9.14795
▁tartó	-9.14814
▁Ezek	-9.14828
▁vagyon	-9.1486
védelmi	-9.15001
▁megjelent	-9.15028
w	-9.15153
▁tudni	-9.15165
▁április	-9.15416
tunk	-9.155
▁ára	-9.15512
sége	-9.15524
▁parlament	-9.15585
eken	-9.15684
▁Re	-9.15726
▁szerzett	-9.15765
ikus	-9.15779
▁kiderült	-9.15783
▁parlamenti	-9.15957
gel	-9.15961
▁gyors	-9.16013
lat	-9.16015
ált	-9.16128
▁készül	-9.16175
▁közép	-9.16273
▁kar	-9.16327
▁régi	-9.1633
▁Ra	-9.16347
▁férfit	-9.16592
▁hát	-9.16691
▁test	-9.16721
▁Még	-9.16728
akat	-9.16782
eszt	-9.16811
▁várhatóan	-9.16999
▁hiány	-9.17026
kon	-9.17192
▁rendőr	-9.17213
▁húsz	-9.17274
▁bér	-9.17388
▁azóta	-9.17456
▁tűnik	-9.17496
ozó	-9.17508
▁baleset	-9.1752
▁angol	-9.17549
▁azon	-9.17638
▁esetén	-9.17717
csoport	-9.17732
▁kicsit	-9.17791
▁azokat	-9.17895
▁költségvetési	-9.17967
vár	-9.17971
▁látható	-9.17973
▁Miklós	-9.18037
▁mindössze	-9.18042
jára	-9.18051
▁érintett	-9.18066
▁országban	-9.182
ca	-9.18425
▁szép	-9.18465
▁Fel	-9.18502
▁folyamatosan	-9.18505
nia	-9.1856
ított	-9.1866
▁Lajos	-9.18717
▁többször	-9.18723
▁őt	-9.18749
nék	-9.18776
▁javaslat	-9.19067
▁1.	-9.19171
▁BL	-9.19255
▁történet	-9.19273
▁Bo	-9.19614
▁indul	-9.19622
▁tenni	-9.19642
▁nyilatkozta	-9.1995
▁nők	-9.20051
▁előzetes	-9.20092
▁kér	-9.2013
ton	-9.20161
▁jött	-9.20283
ással	-9.20365
▁többek	-9.20369
▁[	-9.20388
▁fény	-9.20427
áció	-9.20437
▁Eb	-9.20445
▁polgármester	-9.20469
▁vonatkozó	-9.2051
▁nyugdíj	-9.20533
▁néz	-9.20603
öm	-9.20617
▁mögött	-9.20627
▁mindent	-9.20755
▁többet	-9.20967
▁megoldás	-9.2105
zott	-9.21059
▁3.	-9.21188
▁szám	-9.21191
per	-9.21301
▁mostani	-9.21306
ce	-9.21337
▁eddigi	-9.21563
hogy	-9.2157
▁lehetőség	-9.2163
aj	-9.21673
▁felelős	-9.21676
ására	-9.22081
▁Azt	-9.22121
▁Budapesten	-9.22206
▁nyelv	-9.22439
ót	-9.22806
▁sorozat	-9.23001
▁szereplő	-9.23027
▁forinttal	-9.23083
lo	-9.23299
▁pontos	-9.2336
eknek	-9.23373
▁annyira	-9.23587
▁elé	-9.23645
▁bal	-9.2365
▁szakmai	-9.23675
▁Ne	-9.23772
▁megy	-9.23821
▁Új	-9.23887
▁kevés	-9.23901
▁legtöbb	-9.23966
zet	-9.23967
bi	-9.24085
▁Di	-9.24106
ától	-9.24179
▁hónap	-9.24237
▁orvos	-9.24263
▁főváros	-9.24342
▁akinek	-9.24375
lan	-9.24404
ker	-9.24408
osz	-9.24411
▁média	-9.24415
▁haza	-9.24435
▁végre	-9.2446
J	-9.24463
▁jelenti	-9.24608
lik	-9.24616
▁bizonyos	-9.24839
ozás	-9.25221
dal	-9.25504
del	-9.25682
▁piac	-9.25684
30	-9.25705
▁kormányfő	-9.25825
der	-9.25884
▁vette	-9.2611
▁döntő	-9.2617
▁negyedik	-9.26312
csapat	-9.26458
vezető	-9.26786
▁belső	-9.26826
▁mindkét	-9.26837
▁található	-9.26884
▁érte	-9.26923
szerű	-9.27113
▁embert	-9.27136
▁Egyetem	-9.27265
▁2009	-9.27351
▁Államok	-9.274
▁vagyunk	-9.27419
▁mérkőzés	-9.27534
▁csúcs	-9.27569
▁kötelező	-9.27584
▁biztonsági	-9.27598
▁időben	-9.27677
ája	-9.27684
ász	-9.27694
▁alkotmány	-9.27947
▁Unió	-9.28095
▁kezelés	-9.28123
mel	-9.28163
▁részét	-9.28188
▁figyelmet	-9.2839
▁2011-	-9.28461
ler	-9.28541
▁különösen	-9.28564
ült	-9.28577
jön	-9.28665
séget	-9.28714
▁sokan	-9.28736
▁környezet	-9.28786
▁terület	-9.28834
▁Csak	-9.28901
▁jelölt	-9.28911
▁végig	-9.28939
▁ügyben	-9.28949
▁Nemzet	-9.29049
▁testület	-9.292
▁október	-9.29255
▁The	-9.29326
etlen	-9.29506
▁23	-9.29541
ng	-9.29639
nie	-9.2984
ud	-9.29874
▁választás	-9.29941
▁Minden	-9.301
▁Online	-9.30129
▁akit	-9.30166
▁Most	-9.30169
▁történelmi	-9.30181
▁Na	-9.30271
▁fővárosi	-9.30406
▁miközbe	-9.30438
▁támogatás	-9.30519
nap	-9.30554
séggel	-9.30693
▁tagjai	-9.30832
▁egyáltalán	-9.31052
▁60	-9.31166
▁Úgy	-9.31238
zik	-9.31258
ór	-9.31317
▁Gyurcsány	-9.31361
őr	-9.31481
▁emlék	-9.31509
▁dolog	-9.31517
éssel	-9.31721
▁modell	-9.31816
▁kilenc	-9.31863
▁érdemes	-9.32004
ésére	-9.32015
▁2010	-9.32041
olás	-9.32048
▁növekedés	-9.32052
▁tervezett	-9.32086
ülés	-9.32269
▁feladat	-9.3244
▁Mar	-9.32518
▁tavalyi	-9.32805
▁legfontosabb	-9.32922
▁hangsúlyozta	-9.32952
▁általános	-9.33241
ró	-9.33348
hatatlan	-9.33364
▁adta	-9.33436
com	-9.33493
▁York	-9.3354
▁jóval	-9.33542
▁szocialista	-9.33581
▁ingatlan	-9.33629
▁azonnal	-9.33726
▁általában	-9.3373
▁igény	-9.33787
▁pontosan	-9.33886
▁vér	-9.33948
▁erről	-9.34028
nt	-9.34126
▁Li	-9.34157
▁évre	-9.34162
▁kutatás	-9.34166
▁természetesen	-9.34184
▁együttes	-9.34208
▁eredeti	-9.3433
▁jövőre	-9.34509
▁célja	-9.34618
▁jön	-9.34718
▁lehetne	-9.35056
hetnek	-9.3511
▁dolgozó	-9.35146
▁magasabb	-9.35199
▁svájci	-9.35205
tünk	-9.35242
▁kutatók	-9.35285
▁jogi	-9.35326
▁200	-9.35426
▁Bizottság	-9.35472
míg	-9.35561
kkel	-9.35595
▁állat	-9.35598
▁mű	-9.35921
ekről	-9.36084
▁Dr	-9.36149
zni	-9.36168
▁Bank	-9.36316
ették	-9.36328
▁szél	-9.36376
▁vállalat	-9.36381
▁tudják	-9.364
W	-9.36467
▁róla	-9.36564
▁egyéb	-9.36786
th	-9.36874
▁emberi	-9.3689
nd	-9.3694
▁jövőben	-9.36969
▁állás	-9.36982
ségét	-9.37
▁cím	-9.37012
pont	-9.37035
▁fideszes	-9.37137
▁re	-9.37138
▁lesznek	-9.37184
▁fa	-9.37354
▁méter	-9.37393
▁hozott	-9.37454
▁egészen	-9.37478
▁szezon	-9.37497
▁járt	-9.3753
két	-9.37572
▁hétfő	-9.37573
▁projekt	-9.37593
▁Kovács	-9.37623
sen	-9.37679
ger	-9.37762
ber	-9.37789
tó	-9.37833
▁igazgatója	-9.37881
▁hol	-9.37958
▁Gy	-9.38016
▁találtak	-9.38087
▁in	-9.38145
▁Ba	-9.38177
▁Pál	-9.38254
▁fogja	-9.38301
▁román	-9.38426
▁vége	-9.38553
go	-9.38575
▁igazán	-9.387
▁Szabó	-9.38724
▁szét	-9.38749
okról	-9.38777
▁ka	-9.38779
▁épület	-9.38879
▁játszott	-9.38914
von	-9.39214
▁energia	-9.39235
▁jut	-9.39392
▁kapcsolat	-9.39395
▁soha	-9.39418
ck	-9.39629
▁meleg	-9.39718
▁piaci	-9.39731
▁nekik	-9.39788
▁internetes	-9.39918
▁Géza	-9.39929
▁Co	-9.39968
▁társadalmi	-9.40043
▁úgynevezett	-9.40098
étől	-9.40275
tuk	-9.4036
▁Van	-9.40498
ainak	-9.40562
mp	-9.40721
▁26	-9.4076
csi	-9.40812
▁rajta	-9.40875
▁tiszt	-9.40942
▁Mo	-9.41043
▁beteg	-9.41077
▁hideg	-9.41131
ád	-9.41269
▁tévé	-9.41291
lal	-9.41319
ép	-9.41335
ill	-9.41479
▁tesz	-9.4156
▁napokban	-9.41612
▁választások	-9.41626
ll	-9.41727
▁észak	-9.41748
▁település	-9.41785
▁utas	-9.41789
▁segítségével	-9.41821
▁társadalom	-9.41836
adás	-9.41838
▁anyag	-9.41848
▁járó	-9.41915
▁egészségügyi	-9.41935
▁létre	-9.41984
osan	-9.42044
to	-9.42049
▁szövetség	-9.42061
▁országok	-9.4213
▁író	-9.42247
▁n	-9.42251
▁igazi	-9.42296
▁tudnak	-9.42327
▁írt	-9.42338
2-	-9.42338
sor	-9.42375
▁beszél	-9.42386
Az	-9.42425
▁tudom	-9.42452
▁35	-9.42456
▁családi	-9.42458
jének	-9.42473
▁Mol	-9.42541
▁Tanács	-9.42667
▁ehhez	-9.42681
▁2006-	-9.42717
▁indított	-9.42773
▁magyarországi	-9.4279
▁osztály	-9.42797
▁ebből	-9.4284
▁LMP	-9.42887
ap	-9.42894
▁tömeg	-9.42987
pi	-9.43001
▁kísérlet	-9.43069
po	-9.43084
▁délelőtt	-9.43193
▁beruházás	-9.43231
▁annyi	-9.4328
▁Ezzel	-9.43409
▁1-	-9.43451
U	-9.43593
▁neve	-9.43628
tük	-9.43672
ug	-9.43677
sé	-9.43737
▁együttműködés	-9.43764
▁ismeretlen	-9.4377
▁részben	-9.43775
▁lenni	-9.43806
origo	-9.43889
op	-9.4391
bo	-9.4393
▁eső	-9.43932
▁olaj	-9.44031
▁harc	-9.44225
▁erő	-9.44235
▁üzlet	-9.44296
ám	-9.44312
▁válasz	-9.4435
▁vet	-9.44406
▁ide	-9.44407
▁téli	-9.44425
▁Dél	-9.44462
▁kocsi	-9.44527
▁Ri	-9.44738
▁péntek	-9.44761
do	-9.44856
szel	-9.44957
ür	-9.44991
▁attól	-9.45026
▁tűz	-9.45049
▁minisztérium	-9.45157
talan	-9.45174
▁jogszabály	-9.45178
lap	-9.45221
▁al	-9.4525
▁jelentősen	-9.4525
oló	-9.45276
co	-9.45315
mennyiben	-9.45388
▁szakember	-9.45415
▁köszönhetően	-9.45575
▁KA	-9.45575
▁épp	-9.45741
▁havi	-9.45788
pp	-9.45794
▁terv	-9.45834
▁lengyel	-9.45848
▁életét	-9.46048
▁keretében	-9.46058
▁lépés	-9.46165
▁föl	-9.46217
19	-9.46239
▁forrás	-9.46368
▁ülés	-9.46466
▁csütörtök	-9.46742
▁igazgató	-9.46749
cz	-9.46751
▁őrizetbe	-9.46768
▁lép	-9.4679
▁kamat	-9.46793
jegy	-9.46841
▁osztrák	-9.47023
▁kár	-9.47069
id	-9.47169
▁szerző	-9.47185
▁keret	-9.47228
▁baj	-9.4731
▁portál	-9.47403
▁leginkább	-9.47464
▁32	-9.47529
▁napon	-9.47536
▁Szent	-9.47679
▁díj	-9.47743
ven	-9.47772
▁napi	-9.47831
ink	-9.47886
▁Ti	-9.47967
50	-9.47993
SZ	-9.48063
▁köztük	-9.48074
endő	-9.48095
▁Ja	-9.4815
ze	-9.48166
▁megfelelően	-9.48168
▁alkalommal	-9.48197
ru	-9.48211
▁mintha	-9.4828
asz	-9.48304
zel	-9.48316
ságot	-9.4832
▁hasonlóan	-9.48362
▁forgalom	-9.48492
hetetlen	-9.48531
▁fok	-9.48545
▁csaknem	-9.48653
▁lakosság	-9.48743
alma	-9.48823
▁cikk	-9.48826
▁Pa	-9.48871
▁ezeket	-9.48873
▁úton	-9.48971
ést	-9.49004
▁videó	-9.4901
Z	-9.49034
világ	-9.49051
fog	-9.49143
sága	-9.49161
▁kötött	-9.49273
▁Hogy	-9.4937
ssz	-9.49393
sorozat	-9.49447
jai	-9.49513
▁Amikor	-9.49544
▁közt	-9.49639
▁országgyűlési	-9.49666
anyag	-9.49784
▁sérült	-9.49784
▁arc	-9.49899
▁forintra	-9.49975
▁2008	-9.50035
no	-9.50067
▁körülmények	-9.50078
▁Sa	-9.50101
tan	-9.50221
▁londoni	-9.50231
▁sincs	-9.50231
8-	-9.50253
▁mikor	-9.50544
▁szerda	-9.5062
▁százalékát	-9.50661
let	-9.50807
▁Hozzátette	-9.50983
▁mértékben	-9.51
▁Csaba	-9.51015
▁futball	-9.51096
▁fotó	-9.51113
▁X	-9.51147
▁Antikvárium	-9.5117
▁Tibor	-9.51182
▁keres	-9.51189
ítő	-9.51296
ge	-9.51302
▁ellenőrzés	-9.51322
▁állapot	-9.51324
▁gyerekek	-9.5133
▁szöveg	-9.51386
▁500	-9.51407
úr	-9.51456
▁vezetői	-9.51504
▁működik	-9.51549
▁kapcsán	-9.51549
▁munkát	-9.51619
▁szakasz	-9.51693
▁magyarok	-9.51734
ánál	-9.51816
▁helyszín	-9.51824
ügy	-9.51829
lel	-9.51849
20	-9.51866
ották	-9.51906
▁He	-9.5211
▁emelkedett	-9.5213
fa	-9.52145
lkotmánybíróság	-9.52336
ozott	-9.52357
▁gy	-9.52457
▁mond	-9.52524
▁szabályozás	-9.52546
▁asszony	-9.52691
▁gyakran	-9.52693
jen	-9.52721
ics	-9.52778
▁választ	-9.5285
▁tény	-9.52927
▁gólt	-9.52964
▁arany	-9.53021
3-	-9.53302
hatják	-9.53362
▁önkormányzati	-9.53379
▁szlovák	-9.53391
▁kötet	-9.53411
▁lehetővé	-9.53468
ika	-9.53526
▁Ta	-9.53574
▁gyorsan	-9.53661
▁készített	-9.53773
men	-9.53788
▁busz	-9.53808
▁z	-9.53847
öd	-9.53898
ko	-9.53957
ány	-9.53961
▁iránt	-9.54046
▁kért	-9.54079
ell	-9.541
ron	-9.54157
kormány	-9.54252
vány	-9.54264
▁rendező	-9.54336
▁Országgyűlés	-9.54434
▁csökken	-9.54451
▁Hivatal	-9.5448
▁termék	-9.54495
br	-9.54541
▁tartani	-9.54677
▁kedd	-9.54701
ya	-9.54718
út	-9.54723
▁egyszerű	-9.54731
▁vélemény	-9.54805
gu	-9.5486
▁szinten	-9.54879
▁ideje	-9.54881
▁Balázs	-9.55021
▁közlekedés	-9.55134
▁Te	-9.55207
▁80	-9.55234
▁szociális	-9.55253
▁tulajdonos	-9.55351
▁üzem	-9.55382
▁gondol	-9.5546
▁azonos	-9.55479
▁központ	-9.55529
ítani	-9.55597
▁múlva	-9.55625
▁28	-9.55641
▁Bar	-9.55683
▁r	-9.55776
▁Sch	-9.55814
▁árfolyam	-9.55822
▁jármű	-9.55873
▁tartják	-9.55922
tikus	-9.5598
▁biztosan	-9.56018
▁tudjuk	-9.5611
▁fegyver	-9.56184
▁Károly	-9.56207
▁írás	-9.56231
▁bajnok	-9.56338
▁Ro	-9.56351
▁szerinte	-9.56354
▁egyedül	-9.56399
▁körülbelül	-9.56406
▁adatai	-9.56485
▁nyilvánosságra	-9.56538
▁tevékenység	-9.56552
▁kulturális	-9.56624
könyv	-9.56758
me	-9.56769
▁vendég	-9.56811
▁alacsony	-9.56868
▁Se	-9.56991
▁Címké	-9.57003
▁felett	-9.57053
▁folyó	-9.5706
▁helyet	-9.57075
▁ekkor	-9.57127
éz	-9.57158
▁lehetőséget	-9.57205
mar	-9.57527
▁előbb	-9.57582
▁labdarúgó	-9.57596
▁annyit	-9.57598
▁Nemzetközi	-9.57612
▁enged	-9.5765
▁Imre	-9.57662
▁megyében	-9.57665
▁zárt	-9.57671
▁hangulat	-9.57701
▁nevezte	-9.57709
▁támadás	-9.57719
▁tartozó	-9.57723
▁jég	-9.57763
szor	-9.57801
15	-9.57915
▁szerepelt	-9.57962
mos	-9.5797
▁főleg	-9.58101
▁karácsony	-9.5816
ítés	-9.58185
▁körében	-9.582
▁Ar	-9.58206
áj	-9.58206
▁férfiak	-9.58225
▁század	-9.58241
▁hal	-9.58257
▁szakemberek	-9.58258
▁fekete	-9.5827
▁többen	-9.58315
▁teljesítmény	-9.58334
▁arány	-9.58354
▁hisz	-9.58581
▁kínál	-9.58612
▁civil	-9.58616
pr	-9.58632
ho	-9.58636
kör	-9.58642
▁In	-9.58659
▁vita	-9.58677
▁okozott	-9.58695
▁kezd	-9.58711
▁70	-9.58863
ög	-9.58936
▁szenvedett	-9.59045
▁köt	-9.59076
▁pályán	-9.59223
▁ennél	-9.59242
▁bevétel	-9.59289
zett	-9.59309
▁mutat	-9.59315
▁45	-9.59414
zen	-9.59416
▁próbál	-9.59463
▁hajó	-9.59475
év	-9.59498
▁venni	-9.59507
junk	-9.59672
▁térség	-9.59684
▁olimpiai	-9.597
díj	-9.59707
▁vezetés	-9.5971
▁kezdett	-9.59808
▁könnyű	-9.59859
éves	-9.59871
▁fizet	-9.59929
dás	-9.59974
▁felső	-9.60055
mond	-9.60245
ások	-9.60253
▁érdekes	-9.60287
▁egymás	-9.60332
▁tervek	-9.6034
▁fehér	-9.60368
ard	-9.60394
▁színész	-9.60438
▁probléma	-9.60481
▁hi	-9.60512
▁gyakorlat	-9.60536
oly	-9.60548
▁változás	-9.60554
elme	-9.60645
▁esetleg	-9.60846
már	-9.60869
öv	-9.609
hetik	-9.60906
▁ítélet	-9.60959
verseny	-9.61052
▁működő	-9.61063
▁Fővárosi	-9.61091
▁fiú	-9.61112
▁sikeres	-9.61172
▁hosszabb	-9.6135
he	-9.61385
elem	-9.61404
höz	-9.6141
▁oka	-9.61417
▁okoz	-9.61512
▁Jó	-9.61518
▁mellé	-9.61518
▁Kr	-9.61594
▁kérte	-9.61646
▁sí	-9.61646
▁szerdai	-9.61713
ásával	-9.61756
▁rádió	-9.61799
▁biztonság	-9.61888
▁kon	-9.61954
ember	-9.61989
▁előtti	-9.62004
▁keddi	-9.62016
▁Bu	-9.62076
▁elkövetett	-9.62138
▁vb	-9.62169
land	-9.6218
mat	-9.62194
▁rendkívül	-9.62292
ív	-9.6232
▁derül	-9.62487
▁Ő	-9.62507
▁hozta	-9.62511
▁többsége	-9.62642
▁kiállítás	-9.62697
olta	-9.62781
ang	-9.62839
▁világbajnok	-9.62862
▁ügyészség	-9.62898
▁Észak	-9.62989
▁alakul	-9.63013
▁2007-	-9.63034
ista	-9.63052
▁halál	-9.63158
7-	-9.63172
▁telefon	-9.63173
▁belőle	-9.63197
▁Br	-9.63214
nának	-9.63221
lát	-9.63242
▁továbbá	-9.63246
▁területén	-9.63347
▁szolgálat	-9.63358
▁betegség	-9.63391
4-	-9.63396
féle	-9.63412
▁alkalmas	-9.63422
▁szolgáltatás	-9.6345
▁körüli	-9.63468
▁Budapesti	-9.63472
▁kormányzati	-9.63479
▁magam	-9.63481
▁GDP	-9.63505
▁bűncselekmény	-9.63529
▁pártok	-9.6358
▁Persze	-9.63627
ac	-9.63642
▁ezúttal	-9.63654
▁tartozik	-9.6366
▁teszt	-9.63669
▁lépett	-9.63705
▁támadó	-9.63707
▁rend	-9.63737
▁nyújt	-9.63813
▁közösségi	-9.63865
▁hete	-9.63868
nák	-9.63873
▁melyek	-9.63904
▁edző	-9.63913
▁tag	-9.63961
▁másfél	-9.63962
▁előadás	-9.64029
▁Da	-9.64116
ített	-9.64129
▁védő	-9.64172
mo	-9.64211
izmus	-9.64217
▁300	-9.64261
▁lehetséges	-9.64302
▁ellenzéki	-9.64378
▁egyszerűen	-9.64484
▁vezetett	-9.64528
▁Real	-9.64587
▁tényleg	-9.64696
▁révén	-9.64699
▁külső	-9.64699
▁hív	-9.64863
▁közelében	-9.64876
▁Hi	-9.64987
ká	-9.64999
▁lát	-9.65031
fő	-9.65093
▁vették	-9.65093
▁kevésbé	-9.65192
▁szakértők	-9.65232
▁bíró	-9.65453
▁vállalkozás	-9.65458
▁Ru	-9.65556
▁Tóth	-9.65568
▁látszik	-9.65573
▁dolgoz	-9.65787
▁Igaz	-9.65799
▁esemény	-9.65807
▁nyerte	-9.65813
más	-9.6583
okból	-9.65879
ev	-9.65903
tette	-9.65912
▁eurót	-9.65949
▁évig	-9.65984
▁Népszabadság	-9.66005
▁Ezért	-9.66039
▁ter	-9.66069
▁fejlesztés	-9.66235
▁érvényes	-9.66272
európai	-9.66288
▁talált	-9.66314
szó	-9.66362
szem	-9.66403
▁viszony	-9.66422
▁percben	-9.66423
▁japán	-9.66444
▁számolt	-9.66498
▁láb	-9.66542
lin	-9.6659
▁különleges	-9.6667
▁maguk	-9.66698
▁számol	-9.66718
fej	-9.66733
und	-9.6674
▁folyamat	-9.66789
▁Én	-9.66971
▁szerepet	-9.66995
ley	-9.67013
▁Föld	-9.67087
▁0	-9.67121
▁százalékot	-9.6715
▁független	-9.67159
▁fizetés	-9.67177
ásra	-9.67229
▁sokszor	-9.67392
▁nappal	-9.67432
▁tan	-9.67445
▁államtitkár	-9.67482
▁Jo	-9.67514
▁zöld	-9.67529
]	-9.67548
▁rengeteg	-9.6755
12	-9.67579
▁közönség	-9.67615
▁rendelkező	-9.67643
köz	-9.67652
▁kíván	-9.67663
▁információ	-9.67776
▁használt	-9.67821
program	-9.67847
játék	-9.68024
▁Tr	-9.6808
▁33	-9.68191
▁lég	-9.68191
szk	-9.68254
▁von	-9.68273
▁15-	-9.68304
▁amelyeket	-9.68348
gép	-9.68364
átor	-9.68367
▁bajnoki	-9.68383
▁Kis	-9.68454
feljebb	-9.68456
▁90	-9.68678
▁Szerinte	-9.68769
▁szerep	-9.68802
▁olvasó	-9.6885
▁győztes	-9.68916
kar	-9.68933
▁napilap	-9.68943
▁eljárást	-9.69037
▁oldalon	-9.69075
▁mutatja	-9.69101
▁görög	-9.69148
▁Ko	-9.69163
▁évente	-9.69223
▁poszt	-9.6941
▁ég	-9.69471
▁hírek	-9.69516
▁kiderül	-9.69532
▁pontot	-9.69553
▁esély	-9.69659
▁vezet	-9.69699
millió	-9.69715
ezte	-9.6976
szak	-9.69781
▁egyaránt	-9.698
▁hivatkozva	-9.69828
▁közlemény	-9.69837
for	-9.69854
▁11-	-9.69855
▁sztrájk	-9.69894
▁képviselői	-9.69896
▁vezette	-9.69941
▁megállapodás	-9.69952
ésével	-9.69984
▁történő	-9.70028
▁alakult	-9.70033
ry	-9.70071
▁hozzátette	-9.70085
▁Nagyon	-9.70139
▁helyszínen	-9.70165
▁4.	-9.70172
▁sziget	-9.70233
olni	-9.7024
▁Me	-9.70253
esebb	-9.70257
tartó	-9.70401
film	-9.70419
Sz	-9.70452
var	-9.70454
▁Horváth	-9.70485
▁óriási	-9.7062
▁kapta	-9.7064
▁km	-9.7069
5-	-9.70707
▁egészség	-9.70713
▁of	-9.70736
▁nemzet	-9.7074
mű	-9.70757
▁pénteki	-9.70816
▁honlapján	-9.70843
zat	-9.70887
▁hatóság	-9.7091
andó	-9.70928
▁zavar	-9.70933
▁gazdag	-9.70944
▁Varga	-9.70952
jék	-9.70999
▁kötelezettség	-9.71006
▁közlekedési	-9.71041
▁változat	-9.71062
▁átlagos	-9.71077
▁nekem	-9.71191
▁szóvivő	-9.71196
▁friss	-9.71285
▁hoz	-9.71393
▁műszaki	-9.71406
ony	-9.7142
elte	-9.71719
▁Kar	-9.71733
▁kizárólag	-9.71772
▁állítólag	-9.71828
▁Google	-9.71869
▁szombat	-9.71902
▁27	-9.71912
hatott	-9.71935
való	-9.71953
▁kereskedelmi	-9.71962
▁akart	-9.72038
ező	-9.72048
▁nagyjából	-9.72187
▁ellátás	-9.72276
▁szánt	-9.7243
▁kaptak	-9.72443
▁tárgyalás	-9.72452
▁Ga	-9.72491
▁király	-9.72522
▁dönt	-9.72559
űr	-9.72591
▁negyed	-9.72604
▁fiatalok	-9.72721
0-	-9.72732
▁néző	-9.7278
▁közleményében	-9.72845
▁ver	-9.72903
▁kezdte	-9.72934
▁Po	-9.72942
▁semmit	-9.72999
▁pályázat	-9.73213
met	-9.73258
▁figyel	-9.73307
▁iskola	-9.73322
ku	-9.73374
▁állítja	-9.73422
▁csütörtöki	-9.73481
zon	-9.73499
tart	-9.73502
▁akarja	-9.73508
íteni	-9.73517
▁találkozó	-9.73541
▁sikerül	-9.73566
▁cseh	-9.73583
▁Bíróság	-9.73591
▁érkező	-9.73608
▁Ben	-9.73611
iz	-9.73628
▁időszakban	-9.7365
▁fognak	-9.73749
▁százalékra	-9.73777
▁Franciaország	-9.7379
rány	-9.73822
▁Itt	-9.73847
enek	-9.73891
▁gond	-9.73978
▁Ugyanakkor	-9.73982
▁34	-9.73999
▁harminc	-9.7401
ezett	-9.74022
▁hétfői	-9.74025
▁dollárt	-9.74146
▁kora	-9.74153
▁esti	-9.74172
jából	-9.74176
▁ünnep	-9.74205
▁munkahely	-9.74266
▁tűnt	-9.74271
▁nélküli	-9.74275
álló	-9.74294
▁Lu	-9.74318
▁határozat	-9.74406
lés	-9.74414
▁gyógyszer	-9.74437
▁következtében	-9.74458
▁jelentés	-9.74586
au	-9.74588
▁kórházba	-9.74632
▁Ho	-9.74715
▁háború	-9.74804
▁rendezvény	-9.74855
ezer	-9.74861
edett	-9.74952
gi	-9.7508
▁pályára	-9.75136
▁ennyi	-9.75154
▁Madrid	-9.75176
▁gyanúsított	-9.75181
▁plusz	-9.75184
▁tőle	-9.75347
▁hatalom	-9.75505
új	-9.75511
ep	-9.75528
▁anyagi	-9.75543
▁magukat	-9.75547
▁felvétel	-9.75585
vonal	-9.75588
▁Pécs	-9.75609
▁Szabolcs	-9.75656
ana	-9.75706
▁Aki	-9.7571
▁üzleti	-9.75733
sem	-9.75763
▁29	-9.75824
▁részén	-9.75843
▁államfő	-9.75922
▁központi	-9.75964
tag	-9.76006
est	-9.76056
lt	-9.76081
sok	-9.76127
▁valamennyi	-9.76144
▁adni	-9.76171
jén	-9.76173
ay	-9.7618
▁nyugati	-9.7618
dik	-9.7619
nel	-9.76229
▁pozíció	-9.76255
▁St	-9.76283
edés	-9.76371
▁áram	-9.76394
▁felnőtt	-9.76442
▁talál	-9.76463
▁stílus	-9.76464
▁ügyében	-9.76468
▁ti	-9.76511
▁dolgozott	-9.7652
▁egyértelműen	-9.76627
▁személyes	-9.76637
▁ötven	-9.76665
▁ó	-9.76677
osabb	-9.76746
▁Minisztérium	-9.7687
▁bűn	-9.76893
▁módszer	-9.76933
▁szeptember	-9.76949
▁súly	-9.76952
▁képviselők	-9.77004
▁kül	-9.77048
▁II	-9.77135
▁segít	-9.7715
▁felmérés	-9.77204
min	-9.77265
▁svéd	-9.77328
▁kétszer	-9.77351
▁formá	-9.77399
tör	-9.77401
▁Akkor	-9.77417
▁internet	-9.77435
▁kiadás	-9.77441
ították	-9.77448
▁említett	-9.77497
vény	-9.7754
▁lassan	-9.77605
▁+	-9.77611
▁fal	-9.77623
▁hiába	-9.77626
▁tör	-9.77656
▁kettő	-9.77684
▁intézet	-9.7777
▁Oroszország	-9.77822
ou	-9.77915
▁hőmérséklet	-9.77935
▁számában	-9.77964
▁kelet	-9.78011
▁csomag	-9.78041
tál	-9.78055
▁versenyző	-9.78055
▁szeretnék	-9.78057
▁majdnem	-9.78075
▁Michael	-9.78098
▁pillanat	-9.78112
▁szándék	-9.78169
lá	-9.78228
▁mire	-9.78252
▁tudományos	-9.78278
▁jellemző	-9.78319
▁adósság	-9.78334
▁Forma	-9.78368
üt	-9.78464
ju	-9.78465
▁ül	-9.78508
▁ajándék	-9.78562
elés	-9.78584
koz	-9.78588
▁indítvány	-9.78601
▁szempontból	-9.78636
▁szabadság	-9.78638
ítja	-9.78685
▁nyer	-9.7869
sá	-9.78702
▁legutóbbi	-9.78782
▁okozta	-9.788
▁levegő	-9.78809
lét	-9.78836
▁időjárás	-9.78858
▁újság	-9.7895
▁vettek	-9.79041
áért	-9.79087
▁Obama	-9.79092
▁felül	-9.79107
▁bőr	-9.79134
▁vállal	-9.79163
▁szerződést	-9.79166
▁Har	-9.79166
▁partner	-9.79193
ekből	-9.79197
▁szeretne	-9.79203
jt	-9.79205
▁tájékoztatása	-9.79241
▁36	-9.7928
▁mondott	-9.79285
▁esélye	-9.79364
▁véli	-9.79386
▁munkatársai	-9.79489
sch	-9.79497
lak	-9.79544
▁emiatt	-9.79593
▁ötödik	-9.79593
őd	-9.79668
jenek	-9.79675
▁könnyen	-9.79677
▁hagyományos	-9.79689
▁szerv	-9.79738
knak	-9.7974
helyettes	-9.79747
▁bejelentés	-9.79756
▁kilométer	-9.79811
ong	-9.79814
▁szövetségi	-9.79965
▁Inter	-9.80015
áig	-9.80055
▁37	-9.80057
állás	-9.8008
▁frank	-9.80151
▁tőke	-9.80184
ec	-9.80279
▁5-	-9.80282
▁természet	-9.8031
▁futam	-9.80349
▁újságíró	-9.80377
szint	-9.8039
40	-9.80494
▁meglepő	-9.80514
▁mozgás	-9.80639
▁PL	-9.807
▁holland	-9.8075
▁követel	-9.80781
6-	-9.80818
▁Car	-9.80861
▁kölcsön	-9.80873
▁mobil	-9.80917
▁mély	-9.80917
▁esetleges	-9.80947
▁véget	-9.80966
▁pozitív	-9.80973
▁alacsonyabb	-9.81028
▁botrány	-9.81029
▁tartanak	-9.8113
van	-9.81132
▁nyitott	-9.81143
▁katonai	-9.81252
bl	-9.81275
▁helyre	-9.8131
janak	-9.81427
jével	-9.81485
▁SZDSZ	-9.81495
▁gyakorlatilag	-9.81629
▁agy	-9.81631
▁számú	-9.81685
▁jelezte	-9.81691
iai	-9.81808
▁ügyvéd	-9.81816
sze	-9.81822
▁veszélyes	-9.81825
▁szeretné	-9.81862
▁Három	-9.81878
▁használat	-9.81935
av	-9.81966
▁követő	-9.81969
▁társ	-9.82023
▁közgyűlés	-9.82134
▁elérhető	-9.82144
▁játszik	-9.822
▁hálózat	-9.82228
ügyminisztérium	-9.82234
▁távol	-9.8225
szi	-9.82313
fér	-9.82326
▁története	-9.82388
▁hamarosan	-9.82397
▁izraeli	-9.82455
gat	-9.82566
▁haj	-9.82629
▁hit	-9.82639
▁döntetlen	-9.82655
▁művész	-9.82698
▁nyáron	-9.82727
ré	-9.82746
▁dolgozik	-9.82805
ozni	-9.82827
▁többség	-9.82843
▁szocialisták	-9.8291
ellenes	-9.82931
▁széles	-9.82951
▁mások	-9.82975
▁index	-9.83012
▁vi	-9.83085
▁fogják	-9.83195
▁pálya	-9.83212
tus	-9.83232
nének	-9.83262
▁csapata	-9.83287
dy	-9.8329
▁Gu	-9.83339
ákat	-9.83347
Á	-9.83356
▁ál	-9.8339
▁di	-9.83392
idő	-9.83482
ina	-9.83608
▁beszéd	-9.83637
énél	-9.83678
▁online	-9.83691
▁City	-9.83706
11	-9.83758
▁elérni	-9.83769
járól	-9.83787
▁kerületi	-9.83807
jába	-9.83815
▁közepén	-9.8382
▁május	-9.83827
▁szerb	-9.83907
▁fölött	-9.8397
ón	-9.8397
elni	-9.83984
▁hajlandó	-9.84028
▁197	-9.84059
▁katasztrófa	-9.84078
▁napja	-9.84094
kban	-9.84111
▁fi	-9.8414
▁remek	-9.8418
októl	-9.84187
▁hány	-9.84331
▁kapus	-9.84336
▁reklám	-9.84346
ási	-9.84351
▁befektetők	-9.84356
jú	-9.84362
▁mennyire	-9.84388
építés	-9.84398
ég	-9.84457
anak	-9.84526
▁másodperc	-9.84551
form	-9.84571
▁kerültek	-9.84614
niuk	-9.8462
▁állította	-9.84629
▁Hu	-9.84641
▁fordul	-9.84675
ódott	-9.84679
▁nyomán	-9.847
▁folytat	-9.84727
▁Mihály	-9.84742
szolgáltatás	-9.84775
tu	-9.84782
csa	-9.84891
▁FC	-9.84946
▁származó	-9.8503
▁Veszprém	-9.85036
ács	-9.85112
mu	-9.85199
amerikai	-9.85208
▁Ami	-9.85294
▁megint	-9.85375
▁tulajdon	-9.85428
▁reform	-9.85454
▁TV	-9.85483
▁kórház	-9.85535
▁végéig	-9.85542
▁kezdődött	-9.85543
▁időt	-9.85604
víz	-9.85605
▁ötlet	-9.85709
ff	-9.85752
▁igazság	-9.85862
▁alkalmazott	-9.85938
▁rosszul	-9.8596
▁helyzetben	-9.86043
ály	-9.86054
▁negatív	-9.86072
▁Gyula	-9.86078
▁Bi	-9.86124
▁kerülhet	-9.86156
▁fogadta	-9.86228
magyar	-9.8627
▁halad	-9.86338
▁területen	-9.8636
▁karácsonyi	-9.86362
▁eladás	-9.86393
▁Duna	-9.86475
nunk	-9.86533
▁31	-9.86534
▁idős	-9.86637
▁negyven	-9.86676
"-	-9.86757
▁áldozat	-9.86778
▁Er	-9.86812
▁augusztus	-9.86819
▁PK	-9.86826
▁látja	-9.86845
▁bejelentette	-9.86873
▁kiemelt	-9.8689
▁indít	-9.86905
hal	-9.87044
▁bankok	-9.87071
▁Mesterházy	-9.87149
▁Nyugat	-9.87149
▁értelmében	-9.87149
ési	-9.87157
▁Európában	-9.87197
▁000	-9.87208
▁4-	-9.87258
dő	-9.87283
▁Sok	-9.87339
▁Fi	-9.87385
▁eszköz	-9.87387
▁nyomozás	-9.87402
ította	-9.87422
▁támogatást	-9.87432
▁hétvégén	-9.87469
▁Manchester	-9.87474
▁tr	-9.875
▁évet	-9.87511
▁éven	-9.87523
mint	-9.87528
▁Or	-9.87548
▁fejlődés	-9.87629
▁regény	-9.87632
▁csinál	-9.87694
▁déli	-9.87803
ass	-9.87834
▁januárban	-9.87841
▁egymást	-9.87894
▁kérdésre	-9.87923
▁mondani	-9.87986
▁világbajnokság	-9.8807
10	-9.88164
▁szabályok	-9.88179
▁július	-9.88181
▁2007	-9.88238
É	-9.8826
isz	-9.88273
felé	-9.88299
▁nyilván	-9.88387
▁közösség	-9.88402
tív	-9.88435
▁szervezetek	-9.88435
▁Tavaly	-9.88511
▁United	-9.88511
▁velük	-9.88514
▁követ	-9.88569
jelölt	-9.88581
que	-9.88634
▁Bal	-9.88638
▁tudták	-9.88682
ein	-9.88726
▁anya	-9.88831
▁egyértelmű	-9.88857
ünket	-9.88877
▁dolláros	-9.88928
▁utána	-9.88958
▁rendelet	-9.88972
▁példa	-9.88991
▁egyben	-9.89014
▁válik	-9.89113
▁büntető	-9.89139
▁sötét	-9.89142
▁adja	-9.89254
▁Szövetség	-9.89336
▁Intézet	-9.89337
kra	-9.8936
▁észre	-9.8939
▁hónapban	-9.89415
esek	-9.89431
▁név	-9.89445
ip	-9.89472
▁fenn	-9.89492
▁nyugat	-9.89492
▁dob	-9.89535
áb	-9.8959
íti	-9.89595
▁Fa	-9.89596
▁legújabb	-9.89614
▁ok	-9.89618
▁semmilyen	-9.89635
▁verzió	-9.89659
▁bír	-9.89726
▁kapnak	-9.89734
áll	-9.89833
▁nyilatkozat	-9.89875
▁du	-9.8989
▁történik	-9.89892
▁Kína	-9.89893
▁különbség	-9.89912
▁mennyi	-9.89922
18	-9.89983
▁horvát	-9.89985
▁készít	-9.90067
▁médiatörvény	-9.9018
ügyi	-9.90213
▁6-	-9.90261
alap	-9.90272
érték	-9.90325
▁fordult	-9.90378
tani	-9.90378
okhoz	-9.90428
közben	-9.9045
ford	-9.90459
▁dolgozók	-9.90569
▁boldog	-9.90574
▁ismer	-9.90611
▁szervez	-9.9065
▁to	-9.90667
▁megye	-9.90689
▁látott	-9.9072
▁OTP	-9.9073
▁BBC	-9.9073
▁függ	-9.90774
▁ajánlat	-9.9079
X	-9.90938
▁vád	-9.90958
▁nemrég	-9.91009
▁Bajnai	-9.91012
▁Más	-9.9103
▁tartalmaz	-9.91079
▁198	-9.91094
tétel	-9.911
▁munkatársa	-9.91181
▁korrupció	-9.91222
▁400	-9.91266
▁sajnos	-9.91293
▁végére	-9.91336
▁nyílt	-9.91485
▁10-	-9.91503
író	-9.91538
45	-9.91559
▁utcá	-9.91567
▁kifejezetten	-9.91575
mon	-9.91583
▁értékel	-9.91606
▁fele	-9.91617
▁abból	-9.91637
bal	-9.91648
▁intézmények	-9.91657
io	-9.91661
▁kettős	-9.91667
álás	-9.91684
▁foglalkozó	-9.91696
▁közeli	-9.91733
▁had	-9.9175
közi	-9.91892
▁figyelembe	-9.91899
hetett	-9.91929
▁fizetni	-9.91933
▁élmény	-9.91982
▁északi	-9.92003
ésre	-9.92096
▁Aztán	-9.92123
▁Ráadásul	-9.92143
▁kijelentette	-9.92143
▁42	-9.92154
▁Németország	-9.92176
▁halálos	-9.9219
▁rendkívüli	-9.92222
pl	-9.9225
14	-9.9226
▁listá	-9.92266
▁San	-9.92284
▁kiváló	-9.92291
▁élt	-9.92294
▁derült	-9.92354
▁mutató	-9.92396
▁vég	-9.92414
lu	-9.92464
▁eredmények	-9.92476
tá	-9.92483
▁valójában	-9.9251
▁Man	-9.92532
▁kemény	-9.9254
▁annál	-9.92556
90	-9.92585
▁utca	-9.92674
▁szűk	-9.92699
ej	-9.92801
oknál	-9.92801
▁házi	-9.9283
▁Bor	-9.92836
▁7-	-9.92887
▁5.	-9.92983
▁Erre	-9.93
▁havazás	-9.93
▁menet	-9.93001
▁közösen	-9.93028
▁örök	-9.93029
▁érintő	-9.9308
▁sérülés	-9.93087
ster	-9.93099
politikai	-9.93178
▁azoknak	-9.93199
▁szint	-9.93206
▁MÁV	-9.93287
▁főpolgármester	-9.93287
▁legmagasabb	-9.93287
▁törvényt	-9.93299
▁nyilatkozott	-9.93308
emelés	-9.93314
▁járulék	-9.93341
vezetés	-9.93342
▁valószínű	-9.93343
▁gumi	-9.93362
▁Times	-9.9341
▁Gi	-9.9342
dzs	-9.93467
▁érzés	-9.93477
ain	-9.93533
▁kapu	-9.93534
▁közvetlen	-9.93539
nünk	-9.93559
▁2006	-9.93578
▁szempontjából	-9.93579
▁2011	-9.93596
orosz	-9.93597
milliárd	-9.93611
▁Antal	-9.93617
▁tűzoltók	-9.9368
zz	-9.93686
▁Győr	-9.93709
▁Ke	-9.93808
▁biztosít	-9.93809
▁csatár	-9.9383
▁38	-9.93862
▁engedély	-9.94012
ítette	-9.94079
▁állnak	-9.94103
gő	-9.94108
▁vasárnapi	-9.94124
▁autót	-9.94135
▁Dávid	-9.94154
fajta	-9.94175
-1	-9.94248
▁nyújtott	-9.9431
▁Ugyan	-9.94385
▁lőtt	-9.94405
▁blog	-9.94483
80	-9.94559
▁koncert	-9.94572
tiszt	-9.9458
mentes	-9.94622
▁meghalt	-9.94648
▁kész	-9.94678
▁me	-9.94744
központ	-9.94767
fe	-9.94774
25	-9.94882
▁elv	-9.94915
▁Mark	-9.94978
▁mo	-9.95042
▁szívesen	-9.95057
▁Ge	-9.951
ekhez	-9.95153
oldal	-9.95227
▁állandó	-9.95234
▁Pro	-9.95272
▁számlá	-9.95285
▁határidő	-9.95338
▁viszonylag	-9.95339
sék	-9.95403
▁büntetés	-9.95421
▁aminek	-9.9543
▁szavazás	-9.95496
▁látni	-9.95516
▁Ezen	-9.95518
lis	-9.9555
▁melyik	-9.95573
▁voltam	-9.95578
▁szerkezet	-9.95578
lad	-9.95609
▁hívta	-9.95609
▁szex	-9.95645
▁vezér	-9.95676
▁To	-9.95689
▁szabály	-9.95722
ium	-9.95733
▁iroda	-9.9579
▁oszt	-9.95807
bu	-9.9584
jog	-9.95895
vas	-9.95928
nyom	-9.96052
hatunk	-9.96054
▁elnökség	-9.96081
▁utal	-9.96095
17	-9.96116
ens	-9.96191
sza	-9.96203
dr	-9.96287
▁győzelem	-9.96306
▁órakor	-9.96323
▁példá	-9.96362
▁194	-9.96381
▁képviselője	-9.96395
▁június	-9.96407
▁remény	-9.96498
▁erőszak	-9.96506
▁egymással	-9.96559
-1-	-9.9657
▁Mercedes	-9.96571
▁összeget	-9.96586
hang	-9.96629
▁száj	-9.96739
marad	-9.96764
▁sportoló	-9.96828
▁embereket	-9.96838
▁rendelkezik	-9.96849
▁vonat	-9.96876
ide	-9.96897
▁valódi	-9.96937
▁hiba	-9.97
▁miként	-9.97022
▁tájékoztatta	-9.97059
tető	-9.97095
▁Ol	-9.97097
▁Görögország	-9.971
▁miszerint	-9.97125
▁Ku	-9.97161
éért	-9.9718
mag	-9.97186
▁egyetem	-9.97229
▁196	-9.97233
▁dolgok	-9.97283
▁segítséget	-9.97305
▁létszám	-9.9731
▁illetékes	-9.97343
▁apró	-9.97361
pár	-9.97381
▁irodalom	-9.97392
köt	-9.97408
csap	-9.9741
▁kapitány	-9.97427
▁alatti	-9.97488
▁múzeum	-9.97497
jár	-9.97522
szerűen	-9.97553
▁'	-9.97622
▁Ön	-9.97679
törvény	-9.9768
▁természetes	-9.97697
▁személyi	-9.97697
▁jelenség	-9.97705
fal	-9.97735
jel	-9.9783
▁költség	-9.97847
pol	-9.97892
▁állampolgár	-9.97932
dob	-9.98026
kov	-9.98045
zék	-9.98059
gen	-9.98119
▁politika	-9.98133
gr	-9.98168
▁Ber	-9.98175
zár	-9.98234
▁benzin	-9.9831
lé	-9.98339
dor	-9.98392
han	-9.98402
▁induló	-9.98418
▁Mert	-9.98474
▁képzés	-9.98485
▁rendszeresen	-9.98521
▁Fotó	-9.98525
60	-9.98534
▁várja	-9.98555
▁érdeklődés	-9.98583
szik	-9.98606
▁Róbert	-9.98606
▁találták	-9.9872
▁híd	-9.98726
esz	-9.98756
▁Párt	-9.98759
▁ponttal	-9.98771
▁dokumentum	-9.98794
ruhá	-9.98888
▁szeret	-9.98949
▁felel	-9.99066
▁fia	-9.99099
▁nincsenek	-9.99109
▁témá	-9.99111
▁Nap	-9.99154
osztály	-9.99209
▁valamilyen	-9.99215
▁nehezen	-9.99216
abban	-9.99219
▁bi	-9.99264
▁Köz	-9.99278
▁közleményben	-9.99287
▁öröm	-9.99291
terv	-9.99316
▁mutatott	-9.99329
ey	-9.99395
▁egyház	-9.99396
▁ukrán	-9.99401
ásának	-9.99405
▁Vas	-9.99411
▁tárca	-9.99442
▁messze	-9.99521
▁tudtak	-9.99592
▁tétel	-9.99629
▁színésznő	-9.99629
ségi	-9.99656
cél	-9.99683
▁azután	-9.99775
▁ígér	-9.99823
▁valamit	-9.99859
szal	-9.99883
▁felesége	-9.99934
end	-10
kodás	-10.0003
▁Fő	-10.0005
▁Hol	-10.0009
évé	-10.001
▁alkalmaz	-10.0017
▁ko	-10.0017
▁hagy	-10.0019
▁hátra	-10.0021
▁tehet	-10.0023
▁ezután	-10.0023
▁bemutató	-10.0024
▁formában	-10.0024
föld	-10.0031
▁mégsem	-10.0035
▁városi	-10.0036
▁szólt	-10.0038
▁Pi	-10.0038
nom	-10.0043
▁hátsó	-10.0045
▁Red	-10.0046
tató	-10.0049
▁fővárosban	-10.0054
bajnokság	-10.0054
▁televízió	-10.0056
sh	-10.0061
9-	-10.0069
▁Ilyen	-10.0071
koreai	-10.0078
▁hivatalosan	-10.0079
ín	-10.008
▁ex	-10.0081
vétel	-10.0086
eivel	-10.0087
vásárlás	-10.0094
▁erősen	-10.0102
▁legfőbb	-10.0106
▁David	-10.0107
▁oldalán	-10.0109
▁elfogadott	-10.0109
▁kezdeményezés	-10.012
▁gyár	-10.012
▁konkrét	-10.0126
▁mód	-10.0127
ex	-10.013
▁nyomás	-10.0133
▁tanár	-10.014
▁sofőr	-10.0142
▁Balaton	-10.0143
unkat	-10.0144
▁fut	-10.0144
▁por	-10.0144
▁Államokban	-10.0145
▁elől	-10.0146
▁brazil	-10.0146
jött	-10.0147
▁NB	-10.015
rt	-10.0157
▁Su	-10.0162
▁utat	-10.0163
▁harmad	-10.0164
hol	-10.0166
▁Los	-10.0168
pal	-10.0169
▁Múzeum	-10.0169
▁néha	-10.0169
▁nálunk	-10.0169
eiket	-10.017
▁városban	-10.0171
▁zár	-10.0179
jében	-10.0181
▁hajt	-10.0186
▁lövés	-10.0189
knek	-10.019
Ha	-10.0192
▁gyilkosság	-10.0196
▁üzenet	-10.0202
▁helyzetet	-10.0207
▁akkori	-10.021
▁rendszert	-10.0212
▁örül	-10.0212
gar	-10.0223
▁Ju	-10.0226
▁Robert	-10.0226
▁asztal	-10.0229
▁szoftver	-10.023
▁Spanyolország	-10.0232
▁akarta	-10.0235
▁Ám	-10.0237
▁ilyenkor	-10.0239
▁intézkedés	-10.0242
▁Pest	-10.0248
▁tört	-10.025
▁aktív	-10.0252
▁piacon	-10.0258
▁élete	-10.0259
kedés	-10.026
▁bel	-10.0263
▁közvélemény	-10.0263
▁egyet	-10.0268
▁adtak	-10.0278
▁egészséges	-10.028
▁dr	-10.028
▁terjed	-10.0285
sági	-10.0286
▁tenger	-10.0289
▁Ház	-10.029
▁roma	-10.0291
▁őr	-10.0293
▁nekünk	-10.0297
kin	-10.0297
▁infláció	-10.0298
autó	-10.0301
▁vereség	-10.0303
▁környékén	-10.0304
ham	-10.0305
▁régió	-10.0313
▁18.	-10.0321
▁veszi	-10.0322
▁problémák	-10.0324
ion	-10.0324
▁Izrael	-10.0327
▁épít	-10.0328
&	-10.0331
három	-10.0332
▁titkos	-10.0358
▁ponton	-10.0358
▁kanadai	-10.0358
▁Ni	-10.0361
▁segély	-10.0361
▁USA	-10.0362
▁decemberben	-10.0363
▁ro	-10.0364
▁koncepció	-10.0364
▁számítani	-10.0365
▁használ	-10.0381
▁népszerű	-10.0386
▁immár	-10.0391
terület	-10.0392
vég	-10.0394
▁ausztrál	-10.0395
áló	-10.04
▁hátrány	-10.0406
ős	-10.0406
▁záró	-10.0414
%-	-10.0419
▁éjjel	-10.0422
ország	-10.0424
▁művészet	-10.0429
elnök	-10.0434
▁2009.	-10.0434
▁keresztény	-10.0436
har	-10.0436
▁sors	-10.0438
▁ellenzék	-10.0444
▁modern	-10.0446
▁filmet	-10.0446
▁oktatás	-10.0451
nya	-10.0451
▁véleménye	-10.0453
▁Pedig	-10.0455
▁Á	-10.0457
▁változott	-10.0458
▁idéz	-10.0459
ezni	-10.0459
▁aránya	-10.0462
▁módosítás	-10.0463
▁visszaesés	-10.0463
▁politikusok	-10.0466
▁ellenfele	-10.0478
▁információk	-10.0481
▁visszatér	-10.0482
▁működés	-10.0485
▁euróövezet	-10.0487
ind	-10.0488
▁híres	-10.0489
▁rendezett	-10.0492
▁kedvező	-10.0495
▁mozi	-10.0497
▁esz	-10.0503
▁kényszer	-10.0504
▁Szi	-10.0513
▁képesek	-10.0518
▁termelés	-10.0518
▁39	-10.0518
▁diák	-10.0518
▁szuper	-10.0519
▁egyebek	-10.0519
▁vállalkozások	-10.0521
▁halt	-10.0522
ves	-10.0525
▁árul	-10.053
▁legalábbis	-10.0531
iv	-10.0536
▁főként	-10.0538
mor	-10.054
eknél	-10.0545
▁41	-10.0547
get	-10.055
▁választókerület	-10.0552
▁csapadék	-10.0552
▁földrengés	-10.0552
▁kezdődik	-10.0553
▁légi	-10.0555
▁Washington	-10.0556
▁csapatok	-10.0561
▁gyártó	-10.0562
▁szüksége	-10.0562
▁üzemanyag	-10.0566
▁8-	-10.0566
▁Zs	-10.057
▁vádlott	-10.0571
▁színház	-10.0576
▁alkohol	-10.0579
tartás	-10.0589
▁hatására	-10.0595
országi	-10.0597
▁edzés	-10.0598
▁világos	-10.0598
eink	-10.0602
▁Kiss	-10.0603
▁adatokat	-10.061
▁mer	-10.0611
▁Mal	-10.0613
▁sáv	-10.0616
▁pl	-10.0616
ván	-10.0617
ipari	-10.0621
▁30-	-10.0623
▁szünet	-10.0623
niük	-10.0627
▁öreg	-10.0629
▁vendégek	-10.0629
▁gondolat	-10.0634
▁szén	-10.0636
▁intézkedések	-10.0636
den	-10.0637
▁szer	-10.0638
▁2-	-10.0639
▁papír	-10.0644
ságát	-10.0648
▁eurós	-10.0651
▁ideig	-10.0652
▁É	-10.0653
▁vásárol	-10.0654
▁Ker	-10.0654
don	-10.0655
▁játékosok	-10.0658
▁Du	-10.0661
▁teszik	-10.0661
írás	-10.0662
nyá	-10.0666
▁véd	-10.0667
▁járat	-10.0668
▁napján	-10.0671
▁ismeret	-10.0675
mivel	-10.0677
▁heti	-10.0679
▁Múlt	-10.0683
▁néven	-10.0683
▁Központi	-10.0687
▁bárki	-10.0687
adni	-10.069
▁ülésén	-10.0692
▁jegy	-10.0696
▁ipari	-10.0701
cc	-10.0705
▁rögtön	-10.0716
▁itthon	-10.0717
▁Gar	-10.0717
▁(19	-10.0723
▁szakértő	-10.0723
▁Tisza	-10.0727
▁távon	-10.0729
▁számítógép	-10.0731
▁amúgy	-10.0743
▁divat	-10.0749
▁lakó	-10.0752
▁utcai	-10.0753
▁Angeles	-10.0757
▁polgármestere	-10.0757
▁kicsi	-10.076
▁hús	-10.0762
▁hasonlít	-10.0763
▁meccsen	-10.0765
▁melynek	-10.0765
▁hamis	-10.0769
▁autók	-10.0771
▁élvez	-10.0772
▁Gra	-10.0775
▁gyenge	-10.0782
▁Béla	-10.0782
▁milliárdos	-10.0788
védelem	-10.0789
▁folytatott	-10.079
aival	-10.0796
város	-10.0803
▁195	-10.0805
▁sír	-10.0808
▁folyamatos	-10.0809
▁visszaélés	-10.081
tett	-10.0812
▁ENSZ	-10.0815
ológus	-10.0816
törés	-10.0818
▁centiméter	-10.0824
helyzet	-10.0826
▁érdek	-10.0826
▁zsidó	-10.0827
▁dal	-10.0828
▁sebesség	-10.083
▁számított	-10.083
▁küld	-10.0834
▁nevét	-10.0834
hetünk	-10.0842
▁3-	-10.0844
▁Za	-10.0846
▁szülő	-10.0852
▁biztosító	-10.0857
óval	-10.0859
▁Arra	-10.087
cia	-10.0871
▁állapotban	-10.0873
all	-10.0874
▁vonal	-10.0875
politik	-10.0881
▁konfliktus	-10.0882
▁ígéret	-10.0882
▁elégedett	-10.0885
▁típusú	-10.0888
sággal	-10.0888
▁jellegű	-10.0889
ün	-10.0894
▁verte	-10.0894
▁tapasztalat	-10.0898
▁tartalék	-10.0903
pel	-10.0908
▁j	-10.0909
történet	-10.091
▁profi	-10.091
▁körben	-10.0912
▁villamos	-10.0916
▁csökkenés	-10.0917
▁közölt	-10.0921
nov	-10.0926
▁templom	-10.0927
▁utáni	-10.0928
▁bizony	-10.0933
íz	-10.0935
▁némi	-10.0941
▁rekord	-10.095
vonás	-10.0952
▁Kor	-10.0953
▁díjat	-10.0953
▁részéről	-10.0956
hhez	-10.0963
▁7.	-10.0964
ajtótájékoztatón	-10.0972
▁töltött	-10.0973
▁Barcelona	-10.0989
▁vállalkozó	-10.099
▁látta	-10.0993
tatni	-10.1
▁források	-10.1003
▁Fr	-10.1006
▁tettek	-10.1011
▁kutató	-10.1015
▁mester	-10.1016
▁fekvő	-10.1018
▁közbeszerzés	-10.1018
▁pi	-10.1021
▁török	-10.1022
tetés	-10.1026
▁Hírek	-10.1028
▁részvény	-10.1029
▁egyszerre	-10.1032
▁44	-10.1033
▁48	-10.1034
▁elemzők	-10.1037
▁6.	-10.1037
▁hullám	-10.1037
▁fogyasztás	-10.104
▁átlagosan	-10.104
▁feletti	-10.104
▁szembe	-10.1045
▁évtized	-10.1049
▁késő	-10.105
▁hadsereg	-10.1052
▁akiket	-10.1054
▁étel	-10.1056
16	-10.106
▁támogatja	-10.1061
▁olvashat	-10.1062
élet	-10.1063
olja	-10.1063
▁szerezte	-10.1063
▁tárgy	-10.1065
atos	-10.1069
zal	-10.108
▁John	-10.1082
▁Lengyelország	-10.1089
▁különadó	-10.1089
▁55	-10.1091
▁Col	-10.1092
vagy	-10.1093
▁történelem	-10.1095
▁tölt	-10.1096
ődött	-10.1098
▁élelmiszer	-10.11
▁tették	-10.11
▁eredménye	-10.1101
▁téren	-10.1103
osok	-10.1106
ottak	-10.1106
▁hős	-10.112
▁tartottak	-10.1125
▁akarnak	-10.1125
▁szombati	-10.113
mann	-10.1135
▁váltó	-10.1138
▁Wi	-10.1139
rk	-10.1139
▁jegybank	-10.1147
▁nőt	-10.115
▁Néhány	-10.1155
▁teher	-10.1156
▁idők	-10.1156
▁szegény	-10.1161
▁iskolá	-10.1161
▁vág	-10.1161
cal	-10.1168
hetjük	-10.1172
▁tár	-10.1176
▁készülék	-10.1181
▁meglehetős	-10.1189
▁világháború	-10.1191
yer	-10.1192
▁kislány	-10.1192
▁tartotta	-10.1192
▁Németh	-10.1196
▁2012-	-10.1199
▁drog	-10.12
▁ellene	-10.1202
erő	-10.1206
▁szomszéd	-10.1212
▁alkalmazás	-10.1214
▁döntést	-10.1215
▁kéz	-10.1218
álni	-10.1224
▁folyik	-10.1224
pénzügyminiszter	-10.1224
]-	-10.1224
▁panasz	-10.1224
▁Jelenleg	-10.1225
▁Év	-10.1231
▁vehet	-10.1238
▁150	-10.1239
ami	-10.124
▁Alap	-10.1241
▁időpont	-10.1246
▁gyártás	-10.1247
▁vezeti	-10.1248
▁áru	-10.1249
▁Her	-10.1253
▁kormányzat	-10.1257
sák	-10.126
▁Miután	-10.1262
▁függetlenül	-10.1265
▁kedves	-10.1265
▁okozhat	-10.1267
▁lak	-10.1268
szövetség	-10.1269
▁várakozás	-10.1273
▁árfolyama	-10.1275
▁alsó	-10.1279
▁Simon	-10.1279
▁gyanú	-10.128
▁fagy	-10.1291
döntő	-10.1293
▁Blikk	-10.1294
▁önálló	-10.1296
▁ettől	-10.1297
▁tökéletes	-10.1301
ozik	-10.1302
▁fordulat	-10.1302
▁fordít	-10.1304
▁ajánl	-10.1304
▁helyez	-10.1308
oda	-10.131
▁össz	-10.131
▁mér	-10.1311
▁lényeg	-10.1312
▁Paul	-10.132
▁elhunyt	-10.1329
▁Ádám	-10.1329
▁emellett	-10.1334
▁kissé	-10.1337
▁mondták	-10.1337
köd	-10.134
▁tartomány	-10.1343
▁állomás	-10.1345
▁hozam	-10.1346
▁Lehet	-10.1348
éig	-10.1351
▁2005-	-10.1352
▁hagyta	-10.1353
port	-10.1362
▁szavaz	-10.1365
▁tol	-10.1367
▁falu	-10.1367
▁vezetők	-10.1367
▁érkezik	-10.1369
▁értékesítés	-10.137
▁alól	-10.137
▁pilóta	-10.1372
▁végleges	-10.1375
▁tanú	-10.1381
▁fe	-10.1381
▁szülők	-10.1384
▁zs	-10.1385
▁Mindez	-10.1388
▁kérdést	-10.1389
▁páros	-10.1389
▁szab	-10.1392
hatjuk	-10.1392
old	-10.1393
▁részvétel	-10.1397
▁Molnár	-10.14
▁erősödött	-10.14
▁szexuális	-10.1401
▁kísér	-10.1408
nagy	-10.1408
elmi	-10.1418
▁orvosi	-10.1419
les	-10.142
her	-10.1424
▁befolyás	-10.1431
▁ta	-10.1433
▁Hagyó	-10.1435
▁vas	-10.1436
▁tervei	-10.1437
▁magyarázta	-10.144
vizsgálat	-10.1446
▁vörös	-10.1447
▁úr	-10.1448
▁/	-10.1453
▁46	-10.1453
▁barát	-10.1456
▁43	-10.1462
▁eredményes	-10.1465
választás	-10.1469
áját	-10.147
▁hektár	-10.1471
▁piros	-10.1471
▁polgári	-10.1471
▁oktatási	-10.1472
▁sokáig	-10.1476
▁javaslatot	-10.1478
edik	-10.1484
▁börtön	-10.1487
▁irány	-10.149
▁termékek	-10.1491
▁megtalál	-10.1495
▁bíz	-10.1497
▁15.	-10.1501
▁megerősítette	-10.1507
▁értékű	-10.1507
▁tető	-10.1507
ségek	-10.1508
▁mérkőzésen	-10.1509
▁bo	-10.1509
▁20-	-10.1513
▁kés	-10.1513
▁meghatározó	-10.1516
pe	-10.1517
▁cigány	-10.1519
▁szavazat	-10.1521
▁kialakult	-10.1538
▁tervezet	-10.1539
után	-10.1543
▁Végül	-10.1545
▁Színház	-10.1545
▁munkanélküliség	-10.1556
▁közleménye	-10.1557
assa	-10.1569
lm	-10.1571
▁értéke	-10.1572
▁hő	-10.1574
▁tej	-10.1575
▁Négy	-10.1578
bizottság	-10.1589
and	-10.159
▁mindenképpen	-10.1593
▁kultúr	-10.1603
▁szent	-10.1604
▁Vagy	-10.1613
▁nyereség	-10.1614
▁hvg	-10.1614
▁bu	-10.1615
▁Men	-10.1615
▁Kapuso	-10.1616
▁eredetileg	-10.1619
▁ajtó	-10.1619
▁ablak	-10.162
▁kö	-10.1623
▁személyiség	-10.1623
▁olvas	-10.1627
▁liter	-10.1628
odott	-10.1628
ros	-10.1628
du	-10.1628
▁Ros	-10.1631
ké	-10.1635
▁űr	-10.1635
▁vesztette	-10.1639
▁napig	-10.1639
▁alkotás	-10.1646
▁hasznos	-10.1647
▁metró	-10.1651
▁amellye	-10.1651
▁1,3	-10.1653
▁erősebb	-10.1655
▁egyesület	-10.1659
▁megsérült	-10.1661
▁jel	-10.1664
tud	-10.1666
▁mell	-10.1678
▁pr	-10.1685
org	-10.1686
▁Kon	-10.1687
▁speciális	-10.1687
ers	-10.1688
▁sportág	-10.169
▁emelés	-10.1691
▁irányító	-10.1693
▁idegen	-10.1693
▁ágazat	-10.1695
▁elemzés	-10.1696
▁világbajnoki	-10.1696
▁képet	-10.1703
▁dolgozni	-10.1703
▁ügyész	-10.1705
▁felügyelet	-10.1708
▁Ca	-10.1708
▁októberben	-10.1718
▁elektronikus	-10.1723
▁koncentrál	-10.1723
▁novemberben	-10.1726
▁Nincs	-10.173
▁1-1	-10.1737
▁milliós	-10.1742
▁Kelet	-10.1744
▁mindez	-10.1744
váltás	-10.175
▁tele	-10.1752
▁segítség	-10.1752
▁forgalma	-10.1754
▁Bel	-10.1759
ozta	-10.176
zák	-10.1763
▁felelősség	-10.1766
▁találta	-10.1766
▁tárgyalások	-10.1767
▁példány	-10.1771
▁igénybe	-10.1773
▁Per	-10.1781
▁várt	-10.1782
sta	-10.1783
▁időre	-10.1785
▁Ve	-10.1786
itás	-10.1787
ston	-10.1792
mány	-10.1795
▁vevő	-10.1802
▁amire	-10.1808
▁hajnalban	-10.1808
▁részvények	-10.1809
gor	-10.1822
▁kulcs	-10.1823
▁No	-10.1831
▁külügyminiszter	-10.1834
▁bajnokság	-10.1835
▁nevezett	-10.184
▁Par	-10.1851
▁Facebook	-10.1853
▁Milan	-10.1855
▁Tom	-10.1857
▁fogalmaz	-10.1859
▁problémá	-10.1861
▁tapasztalt	-10.1862
olták	-10.1865
piac	-10.1867
▁vásárlás	-10.1869
▁elegendő	-10.1871
▁Olyan	-10.1871
▁minket	-10.1871
▁tábor	-10.1873
ust	-10.1874
▁szülés	-10.1877
nyugdíjpénztár	-10.1883
▁lista	-10.1884
ob	-10.1885
fer	-10.1888
las	-10.1895
▁ugyanaz	-10.1898
▁eredményei	-10.1905
▁találat	-10.1906
▁fős	-10.191
▁egymillió	-10.1911
▁kereslet	-10.1922
▁pályá	-10.1928
din	-10.1929
▁tanácsadó	-10.1931
éd	-10.1937
35	-10.1948
uta	-10.1949
▁klasszikus	-10.195
▁jelenet	-10.1955
▁mezőny	-10.1955
▁Go	-10.1956
▁magazin	-10.1962
▁zené	-10.1962
▁ural	-10.1964
▁minőség	-10.1965
álta	-10.1968
▁or	-10.1973
▁reagált	-10.1974
▁Központ	-10.198
▁magának	-10.1981
ológiai	-10.1982
▁Gergely	-10.1983
▁címvédő	-10.1984
képpen	-10.1985
fizetés	-10.1987
▁sztár	-10.1987
▁köztársasági	-10.199
▁vezérigazgató	-10.1994
▁hatás	-10.1994
▁üveg	-10.1998
▁17.	-10.1999
▁várják	-10.2
▁lehetnek	-10.2004
▁önkéntes	-10.2006
▁Debrecen	-10.2012
▁betegek	-10.2014
▁veszély	-10.2015
▁19.	-10.2016
▁belvíz	-10.202
▁Bajnokok	-10.202
▁meccset	-10.202
▁államadósság	-10.2021
▁repülőgép	-10.2021
▁házasság	-10.2021
24	-10.2021
▁szakszervezet	-10.203
▁gondolom	-10.2032
jukat	-10.2032
▁izgalmas	-10.2033
▁bizonyíték	-10.2034
fehér	-10.2036
▁part	-10.2038
▁rendez	-10.2044
▁finom	-10.2045
ken	-10.2046
mód	-10.2047
tin	-10.2047
▁16-	-10.2052
▁keleti	-10.2052
▁általa	-10.2053
70	-10.2056
▁globális	-10.2058
▁győzött	-10.2059
ebben	-10.2067
▁bírság	-10.2068
▁er	-10.2068
▁felújítás	-10.2068
▁10.	-10.207
▁8.	-10.2072
▁veszteség	-10.2072
spanyol	-10.2074
▁Ö	-10.2076
▁utazás	-10.2077
▁ny	-10.2079
▁ingyenes	-10.2082
▁figyelm	-10.2083
enként	-10.2085
▁mért	-10.2087
▁nyári	-10.2093
▁Mit	-10.2093
▁eredményt	-10.2095
▁parkoló	-10.2097
uc	-10.2097
gg	-10.2097
▁menetrend	-10.2098
▁Bull	-10.2099
Nem	-10.21
▁Ferrari	-10.21
▁mellék	-10.2101
gál	-10.2101
▁foglalkozik	-10.2103
▁követi	-10.2105
▁orvosok	-10.2106
▁hallgat	-10.2108
atás	-10.2111
▁befejez	-10.2114
▁igazgatóság	-10.212
▁szokásos	-10.212
▁korszak	-10.2124
▁szakértői	-10.213
esse	-10.2134
▁Talán	-10.2138
▁közvetlenül	-10.2139
▁közölték	-10.2142
▁export	-10.2146
▁KN	-10.215
▁IMF	-10.2153
▁gyanúja	-10.2154
▁kereszt	-10.2156
▁szektor	-10.2157
szok	-10.2161
▁megfelel	-10.2164
▁só	-10.2164
▁tisztelet	-10.2167
▁ügyvezető	-10.2172
▁hirtelen	-10.2172
▁Martin	-10.2173
▁összecsapás	-10.2173
▁nyugdíjrendszer	-10.2175
▁fiatalember	-10.2177
▁Jan	-10.2178
követ	-10.2179
sy	-10.218
▁zárta	-10.2182
▁halott	-10.2186
▁akad	-10.2189
▁közlése	-10.219
jelen	-10.2193
▁lezár	-10.2198
szín	-10.2203
▁Mind	-10.2206
▁illegális	-10.221
▁hónappal	-10.2212
▁akadály	-10.2214
09	-10.2214
▁mentő	-10.2217
▁2002-	-10.2221
▁kárt	-10.2227
▁tartották	-10.2231
▁Y	-10.2235
▁Szeged	-10.2238
▁típus	-10.2239
▁védelem	-10.2241
▁Sp	-10.2242
▁Lázár	-10.2249
kutatás	-10.2252
▁egységes	-10.2252
▁kifizetés	-10.2254
▁kapcsolódó	-10.2254
▁felirat	-10.2261
gyár	-10.2261
▁tulajdonosa	-10.2263
▁kelt	-10.2274
▁reggeli	-10.2275
▁közülük	-10.2281
▁tudás	-10.2287
zer	-10.2287
▁vad	-10.2287
▁törvényjavaslat	-10.2288
zavar	-10.2288
gondol	-10.229
haj	-10.229
▁ágy	-10.2292
▁rájuk	-10.2294
▁táj	-10.2294
▁aligha	-10.2297
mér	-10.2305
▁alkot	-10.2305
óta	-10.2307
▁országot	-10.2308
▁rivális	-10.2309
▁csillag	-10.2312
▁Egyesület	-10.2313
▁meglepetés	-10.2315
kán	-10.2316
▁irodá	-10.2317
▁mondat	-10.2318
ier	-10.2321
▁férj	-10.2322
por	-10.2323
▁korlát	-10.2324
kozott	-10.2324
▁kapcsolatot	-10.2325
▁Király	-10.2326
▁Leg	-10.2327
▁üres	-10.2328
▁fül	-10.2337
emet	-10.2338
▁hegy	-10.2345
▁vizsgálatot	-10.2352
▁Ed	-10.2352
ektől	-10.2353
▁hagyomány	-10.2353
▁közzé	-10.2355
▁nyit	-10.2358
▁állít	-10.2361
▁rak	-10.2361
▁Németországban	-10.2371
▁mondjuk	-10.2373
▁ellentétben	-10.2374
vállalat	-10.2375
▁felhasználó	-10.2376
▁Ny	-10.2381
▁65	-10.2382
miért	-10.2385
tenger	-10.2385
▁Ér	-10.2388
▁tartalmazó	-10.2389
▁amiben	-10.2397
olva	-10.2397
▁előz	-10.24
▁tudunk	-10.24
▁alelnöke	-10.2401
▁BMW	-10.2404
▁merénylet	-10.2404
▁onnan	-10.2404
▁Bokros	-10.2404
▁Mari	-10.2405
▁méteres	-10.2407
▁Chelsea	-10.2408
▁Arsenal	-10.2408
▁helyes	-10.2414
▁Ár	-10.242
▁készültség	-10.2421
▁Con	-10.2422
határ	-10.2425
▁tegnap	-10.2428
kori	-10.243
▁ke	-10.2434
vári	-10.2434
▁mindenkinek	-10.244
▁kockázat	-10.2442
▁munkáltató	-10.2443
zza	-10.2444
vette	-10.2448
▁esik	-10.2449
▁területi	-10.2457
▁nevez	-10.2457
▁kritikus	-10.2457
▁erdő	-10.2461
▁12-	-10.2465
▁rosszabb	-10.2467
▁testvér	-10.2467
▁fenti	-10.2474
pó	-10.2474
29	-10.2476
▁februárban	-10.2476
▁sejt	-10.2479
▁szolgáltató	-10.2483
▁várnak	-10.2483
csomag	-10.2485
▁eltűnt	-10.2486
▁címet	-10.249
▁konzervatív	-10.2491
szervezet	-10.2503
cég	-10.2505
▁(3	-10.2508
▁kedv	-10.2508
▁viz	-10.2513
eik	-10.2514
▁teremt	-10.2517
▁Gordon	-10.2522
▁végső	-10.2522
▁Katalin	-10.2522
pu	-10.2524
▁nyak	-10.2525
▁elismerés	-10.2526
▁szobá	-10.2527
társ	-10.2528
▁éjszaka	-10.2528
▁legjobban	-10.253
▁ős	-10.2532
▁kezdve	-10.2534
mé	-10.2538
▁Állami	-10.2538
▁31-	-10.2544
▁zene	-10.2545
!"	-10.2546
▁tárgyal	-10.2548
▁75	-10.2548
▁programok	-10.2551
▁faj	-10.2556
▁Somogy	-10.2562
▁csap	-10.2567
▁forinton	-10.2567
lon	-10.2571
▁közzétett	-10.2572
▁menni	-10.2577
▁negyedévben	-10.258
▁dolgoznak	-10.258
▁Park	-10.2581
▁tiszta	-10.2583
▁nevet	-10.2583
motor	-10.2585
▁katonák	-10.2588
▁folytatás	-10.259
▁tervez	-10.2593
▁kommunikációs	-10.2599
▁katolikus	-10.2602
▁Ágnes	-10.2602
telep	-10.2603
▁Borsod	-10.2604
öket	-10.2605
▁frakció	-10.2605
▁alakít	-10.2606
▁történtek	-10.2608
▁Irán	-10.2613
▁Cser	-10.2613
▁norvég	-10.2614
▁hírügynökség	-10.2615
Ö	-10.2622
▁fórum	-10.2624
▁Lo	-10.2629
szent	-10.2638
táv	-10.264
▁Parlament	-10.2642
▁Természetesen	-10.2642
▁átalakítás	-10.2645
▁Audi	-10.2647
neve	-10.2648
▁előny	-10.265
eiben	-10.265
▁különös	-10.2651
▁unió	-10.2654
▁fölé	-10.2655
▁liberális	-10.2659
▁49	-10.266
▁hozza	-10.2662
▁250	-10.2663
▁hall	-10.2664
▁1,5	-10.2664
▁elmarad	-10.2666
▁beszélgetés	-10.2667
▁épül	-10.2668
ésének	-10.2673
▁visel	-10.2679
vin	-10.2681
▁kérdez	-10.2681
▁képek	-10.2682
▁James	-10.2683
német	-10.2683
▁valamelyik	-10.2686
▁53	-10.2689
kod	-10.2689
száz	-10.269
▁szokás	-10.2691
▁emelkedés	-10.2692
igaz	-10.2692
▁irányítás	-10.2692
▁tagok	-10.2694
▁Pan	-10.2699
bel	-10.2702
▁bázis	-10.2704
▁feljelentést	-10.2705
▁fogva	-10.2705
▁20.	-10.2709
aiban	-10.271
▁problémát	-10.2711
jait	-10.2714
ükben	-10.2716
▁önkormányzatok	-10.2718
▁biztonságos	-10.2726
▁hozni	-10.2729
▁portugál	-10.2732
▁legutóbb	-10.2733
▁szerepe	-10.274
▁szellemi	-10.2742
▁adták	-10.2745
képzés	-10.2747
Ez	-10.2757
▁beszélni	-10.276
▁amelyik	-10.2762
▁47	-10.2762
▁Korábban	-10.2763
▁elsődleges	-10.2763
▁távú	-10.2769
vitel	-10.2771
▁kerek	-10.2773
wa	-10.2775
zta	-10.2779
▁elem	-10.2779
▁1:	-10.278
▁héttel	-10.2782
▁la	-10.2786
▁kabinet	-10.2786
▁Emellett	-10.2803
▁radikális	-10.2803
▁elektromos	-10.2804
▁környék	-10.2804
tették	-10.2808
▁naponta	-10.2821
▁okozó	-10.2821
▁bűncselekmények	-10.2824
▁Anna	-10.2828
▁felében	-10.283
▁ipar	-10.2831
▁visz	-10.2832
21	-10.2834
tatta	-10.2835
vo	-10.2836
szék	-10.284
ések	-10.284
▁mérték	-10.284
▁nyúl	-10.2842
▁ölt	-10.2842
▁Öt	-10.285
▁generáció	-10.2851
okba	-10.2857
▁állatok	-10.2863
▁megvan	-10.2867
▁rendelkezésre	-10.2869
▁technikai	-10.2873
▁kerülnek	-10.2879
▁nyilvános	-10.2883
▁mínusz	-10.2885
▁Isten	-10.2886
▁bármilyen	-10.2886
▁érzi	-10.2887
▁számító	-10.2888
▁éjszaká	-10.2889
aink	-10.289
járat	-10.2896
kodó	-10.2903
ser	-10.2905
kai	-10.2906
▁Mu	-10.2907
▁2004-	-10.2907
▁rák	-10.2908
adta	-10.2908
▁finanszíroz	-10.2908
▁alapvető	-10.2916
▁honlap	-10.2918
▁helyezett	-10.2918
ist	-10.2919
▁600	-10.292
▁Független	-10.2926
▁kamion	-10.2926
▁0-0	-10.2927
▁Tud	-10.2927
▁Ahogy	-10.2928
▁hozzátéve	-10.2929
▁16.	-10.2935
▁fogad	-10.2941
kap	-10.2942
▁vizsgálatok	-10.2942
▁Éva	-10.2944
kész	-10.2945
▁akarják	-10.2947
KDNP	-10.2949
▁52	-10.2952
ula	-10.2952
ow	-10.2955
ris	-10.2955
ékony	-10.2956
ovics	-10.2956
▁védekezés	-10.2957
▁végző	-10.2958
hatóság	-10.2959
jához	-10.2963
▁Kö	-10.2964
▁So	-10.2965
▁színes	-10.2968
válogatott	-10.2968
▁lehetetlen	-10.2973
▁Vasas	-10.2975
▁értesült	-10.2977
▁későbbi	-10.298
▁vírus	-10.2984
▁elődöntő	-10.2984
▁emlékeztet	-10.2987
▁pap	-10.2989
állomás	-10.2991
szeg	-10.2995
▁fordulóban	-10.3
zük	-10.3003
▁bruttó	-10.3009
illa	-10.301
▁sosem	-10.3011
▁demokratikus	-10.3018
nánk	-10.3019
▁Tar	-10.3023
díjat	-10.3028
▁vállalatok	-10.3031
▁társai	-10.3031
mail	-10.3038
park	-10.3038
▁Pol	-10.3043
▁vörösiszap	-10.3051
▁csoda	-10.3052
▁21.	-10.3057
zsa	-10.3058
▁Volt	-10.3058
▁látványos	-10.3061
▁Peter	-10.3062
▁választók	-10.3065
fok	-10.3066
▁produkció	-10.3066
▁gazdaságpolitik	-10.3068
▁képesség	-10.3071
▁56	-10.3072
▁kiadott	-10.3073
óban	-10.308
up	-10.308
▁készülő	-10.3084
▁elkezd	-10.3086
▁tanul	-10.3086
párt	-10.3087
▁káros	-10.3089
▁foci	-10.3092
osztás	-10.3092
▁pro	-10.3095
▁lakossági	-10.3095
ásához	-10.3099
ányi	-10.3099
▁vétel	-10.31
▁MNB	-10.31
▁fénykép	-10.3104
▁komolyan	-10.3104
▁íz	-10.3105
▁módosító	-10.3109
▁megjelenés	-10.3109
▁Ver	-10.311
▁hamar	-10.3116
▁kezdő	-10.3125
▁kém	-10.3127
▁lehetősége	-10.3127
▁sör	-10.314
▁fizetett	-10.3147
▁kiló	-10.3148
▁jobboldali	-10.3149
▁Napi	-10.3152
▁rendőrségi	-10.3155
▁kedvenc	-10.3159
▁valóság	-10.316
aná	-10.3165
▁nehezebb	-10.3177
▁számukra	-10.3177
▁Közép	-10.3184
▁kialakul	-10.3186
▁vasúti	-10.3186
▁szülei	-10.3187
▁vegyes	-10.3195
▁felkészülés	-10.3195
▁órán	-10.3197
▁költ	-10.3199
▁korlátozás	-10.3202
▁park	-10.3203
▁eszközök	-10.3213
▁kapcsol	-10.3214
▁autós	-10.3216
kocsi	-10.3216
▁Árpád	-10.3219
▁tizenegy	-10.3219
▁Klub	-10.3219
▁légitársaság	-10.322
▁lapnak	-10.322
22	-10.322
hegy	-10.3221
▁elképzelhető	-10.3222
▁rendszerváltás	-10.3222
▁2008.	-10.3223
▁küldött	-10.3225
▁többiek	-10.3236
▁fordított	-10.3238
▁kezdet	-10.3239
osztott	-10.3241
▁információi	-10.3243
▁telep	-10.3247
ánnyal	-10.325
ozzák	-10.3251
hor	-10.3252
▁gazdá	-10.3262
▁gépkocsi	-10.3263
▁lét	-10.3267
▁hatalm	-10.3268
lapvetően	-10.3274
▁ügyek	-10.3274
sük	-10.3284
▁valós	-10.3289
napos	-10.3289
▁kiadó	-10.3295
előtt	-10.3298
▁szed	-10.33
▁nettó	-10.3305
ődik	-10.3308
▁po	-10.3308
▁Pu	-10.3308
▁Sza	-10.3309
▁nála	-10.331
▁13.	-10.3315
▁18-	-10.3315
▁fér	-10.332
▁események	-10.332
▁csalás	-10.3323
▁támogató	-10.3326
▁méltó	-10.3328
bér	-10.3328
▁jelentő	-10.3328
▁munkáját	-10.3332
sport	-10.3333
cím	-10.3335
▁egyedi	-10.3336
▁elnöki	-10.334
vezet	-10.3343
▁nyug	-10.335
▁egyetemi	-10.3351
▁folytatódik	-10.3354
▁sza	-10.3356
▁En	-10.3359
ellátás	-10.3361
▁atom	-10.3362
dó	-10.3362
má	-10.3363
▁befektetési	-10.3363
sson	-10.3365
▁eltérő	-10.3367
▁foglal	-10.3373
berg	-10.3374
kő	-10.3378
▁képvisel	-10.3381
állítás	-10.3383
jünk	-10.3386
▁játszó	-10.3388
▁Ger	-10.339
ama	-10.339
▁aktuális	-10.3391
▁furcsa	-10.3391
▁pécsi	-10.3391
▁helyzetbe	-10.3392
bár	-10.3392
▁1-0	-10.3393
▁alapítvány	-10.3395
▁(1	-10.3397
▁adnak	-10.3398
ezték	-10.3399
▁felszín	-10.3399
▁vizsgálja	-10.3403
▁emelte	-10.3404
28	-10.3408
▁szerintem	-10.3411
▁ugyanez	-10.3412
▁Marc	-10.3414
lam	-10.3421
oc	-10.3425
▁forgat	-10.3426
pá	-10.3427
▁mar	-10.3429
▁régóta	-10.3434
▁segíteni	-10.3435
▁élni	-10.3435
▁hatodik	-10.3436
▁címmel	-10.3436
ényi	-10.344
▁fék	-10.3444
▁játszani	-10.3444
so	-10.3448
▁szolgál	-10.3457
▁vezérigazgatója	-10.3458
▁ismerős	-10.3459
▁Hát	-10.3462
kutató	-10.3462
▁szolgáltatások	-10.3467
kát	-10.3468
ülő	-10.3469
▁érint	-10.3473
▁Es	-10.3475
▁jelentett	-10.3477
▁többnyire	-10.3478
▁9.	-10.348
▁Rá	-10.3481
rd	-10.3481
▁mennyiségű	-10.3481
▁gyengült	-10.3485
▁vajon	-10.3486
▁követte	-10.3486
▁51	-10.3488
ert	-10.3493
ációs	-10.3502
▁Vár	-10.3511
▁repülő	-10.3513
▁munkavállaló	-10.3514
▁megoldást	-10.3518
▁kudarc	-10.3521
▁stb	-10.3524
▁11.	-10.3528
ább	-10.3532
hát	-10.3532
▁Cor	-10.3533
▁utalt	-10.3539
óra	-10.354
▁körzet	-10.3541
▁magánnyugdíj	-10.3554
lek	-10.3556
ozza	-10.3557
▁mérleg	-10.3563
▁December	-10.3565
▁Hír	-10.3565
▁Velvet	-10.3566
▁használni	-10.3566
▁számítanak	-10.3568
▁szállították	-10.3569
▁elkerül	-10.3571
mut	-10.3572
tájékoztatóján	-10.3573
akkal	-10.3574
▁Th	-10.3578
fél	-10.3578
▁tüntet	-10.358
▁kereset	-10.3587
▁forintért	-10.3588
▁gomb	-10.3591
hálózat	-10.3593
▁Azért	-10.3594
▁rendezés	-10.3605
▁véletlen	-10.3606
ipar	-10.3607
▁Ter	-10.3607
▁tor	-10.3607
▁éri	-10.3607
23	-10.3609
▁feltétlenül	-10.3609
járó	-10.3611
esett	-10.3613
▁Való	-10.3613
▁megpróbál	-10.3613
▁félre	-10.3614
uz	-10.3616
ld	-10.362
▁gyermekek	-10.3621
▁táv	-10.3624
27	-10.3626
▁Ó	-10.3632
▁kezdeményez	-10.3633
▁vásárolt	-10.3637
▁54	-10.3637
▁keze	-10.3638
▁beszámoló	-10.3648
▁költő	-10.3648
▁szezonban	-10.3653
▁APEH	-10.3653
▁WikiLeaks	-10.3653
▁létezik	-10.3653
▁érinti	-10.3655
▁Míg	-10.3657
▁élnek	-10.3657
▁Szombathely	-10.3657
▁fenntartás	-10.3658
▁láthat	-10.3661
▁w	-10.3663
▁dísz	-10.3664
▁jöhet	-10.3665
fo	-10.3665
▁csinálni	-10.3665
ezik	-10.367
▁idősebb	-10.3672
oli	-10.3676
▁könnyebb	-10.3678
▁ahogyan	-10.3678
beszél	-10.3688
▁gát	-10.3688
▁védelmi	-10.3693
▁diákok	-10.3695
dé	-10.3696
▁Eddig	-10.3698
▁sértett	-10.3702
művész	-10.3713
▁feladata	-10.3716
▁WA	-10.3716
▁szintű	-10.3726
hatta	-10.3731
busz	-10.3734
▁átadás	-10.3736
▁Első	-10.3737
▁Ft	-10.3737
elték	-10.3738
▁téma	-10.3741
▁forgatókönyv	-10.3742
▁RTL	-10.3742
▁tartós	-10.3744
▁14.	-10.3744
ásáról	-10.3744
▁interneten	-10.3748
▁kanyar	-10.3751
▁javít	-10.3757
hib	-10.3775
▁rendelkezés	-10.378
ick	-10.378
▁12.	-10.3783
▁szegedi	-10.3787
▁ritka	-10.3787
▁gyűjtött	-10.3788
▁tekintve	-10.3793
▁ellenfél	-10.3793
▁vers	-10.3793
ítják	-10.3794
▁kereskedés	-10.3797
▁tudtam	-10.3798
▁hatással	-10.38
▁jegyezte	-10.3801
arc	-10.3801
burg	-10.3803
▁Miért	-10.3805
▁szellem	-10.3811
orvos	-10.3813
szerződés	-10.3818
chi	-10.3821
▁véleményét	-10.3821
▁gyógy	-10.3821
ski	-10.3821
▁méret	-10.3824
▁kék	-10.3825
▁the	-10.3827
▁kg	-10.3827
▁énekes	-10.3828
▁legfrissebb	-10.3832
▁mikro	-10.3833
▁indoklás	-10.3833
▁Pal	-10.3835
▁tekintettel	-10.3836
▁mielőtt	-10.3838
▁mutatják	-10.3843
▁kihívás	-10.3846
első	-10.3848
▁font	-10.3848
▁összetett	-10.3851
alom	-10.3855
▁tettes	-10.3858
▁alul	-10.3862
mérkőzés	-10.3863
▁végi	-10.3864
venni	-10.3865
▁jutottak	-10.3865
cu	-10.387
▁tavasszal	-10.3877
▁57	-10.3883
▁funkció	-10.3886
▁termelő	-10.3889
▁Fl	-10.389
▁adják	-10.3891
▁ütközött	-10.3896
▁változtat	-10.3898
▁Sopron	-10.3899
▁érzékeny	-10.3901
▁Ab	-10.3904
▁Pe	-10.3908
barát	-10.3908
▁2011.	-10.3924
▁25-	-10.3925
▁szeretnénk	-10.3926
▁Renault	-10.3928
▁hulladék	-10.3932
▁hónapja	-10.3937
▁szereplés	-10.3938
▁alak	-10.394
▁sark	-10.3941
▁fém	-10.3942
we	-10.3944
▁Andrea	-10.3944
kiknek	-10.3946
▁vonul	-10.3948
any	-10.3951
▁kormányzás	-10.3955
▁hatása	-10.3956
▁orr	-10.3956
▁Si	-10.3956
▁programja	-10.3956
ich	-10.3962
▁tízezer	-10.3973
="	-10.3976
▁Dan	-10.3978
zu	-10.3979
▁193	-10.3982
ight	-10.3983
jától	-10.3984
▁kert	-10.3985
▁ügyfelek	-10.3985
▁indiai	-10.3985
▁egység	-10.3987
pad	-10.3995
lasz	-10.3997
▁Pri	-10.3998
▁pénztár	-10.3998
▁esélyes	-10.3999
▁helyén	-10.4004
bon	-10.4005
▁ajánlott	-10.4007
▁csapatot	-10.401
szol	-10.4011
▁olcsó	-10.4012
▁szovjet	-10.4014
▁karakter	-10.4014
▁részletes	-10.4015
▁ügyfél	-10.4015
ova	-10.4016
biztosítási	-10.4019
bin	-10.4021
▁órás	-10.4022
▁énekesnő	-10.4023
ung	-10.4024
viz	-10.4026
lány	-10.4027
▁folyt	-10.4029
fű	-10.403
▁alkotó	-10.4032
▁támad	-10.4036
▁helyét	-10.4037
nyer	-10.4042
gott	-10.4042
▁délutáni	-10.4047
ítették	-10.4048
▁9-	-10.405
▁baloldali	-10.4053
etlenül	-10.4054
▁kilométeres	-10.4057
▁kerület	-10.4059
▁minimális	-10.406
▁Ekkor	-10.4061
▁mentők	-10.4064
▁stabil	-10.4066
rin	-10.4066
▁szeptemberben	-10.4067
▁védekez	-10.4068
▁környezetvédelm	-10.4068
▁megáll	-10.4072
▁jelzi	-10.4072
▁tudomány	-10.4073
terem	-10.4074
▁csatá	-10.4074
▁hiszem	-10.4074
▁szereplők	-10.408
lem	-10.4085
eiről	-10.4087
▁mandátum	-10.409
▁réteg	-10.4092
▁óriás	-10.4095
▁nyerni	-10.4099
▁...	-10.4101
▁határozott	-10.4101
▁életbe	-10.4105
▁Hajdú	-10.4107
▁végeredmény	-10.4107
▁MTV	-10.4111
▁gén	-10.4117
▁következik	-10.4117
▁szépség	-10.4119
▁szállítás	-10.4121
▁embernek	-10.4121
▁Honvéd	-10.4124
gá	-10.4128
▁életben	-10.4133
ria	-10.4136
▁szigorú	-10.4139
▁interjú	-10.4141
▁tartozás	-10.4142
leges	-10.4144
▁magunk	-10.4147
ítva	-10.4149
▁beavatkozás	-10.4151
▁Sajnos	-10.4153
▁kábítószer	-10.4153
▁külföldön	-10.4153
▁futó	-10.4156
bolt	-10.4157
▁elkövető	-10.4157
lény	-10.4158
▁súlyosan	-10.4162
aikat	-10.4162
▁Dem	-10.4165
▁lakos	-10.4167
▁áldozatok	-10.417
▁küzd	-10.4174
▁feltételek	-10.4183
%	-10.4188
▁kiemelte	-10.4193
tri	-10.4194
▁töröl	-10.4195
▁Val	-10.4196
▁literes	-10.4197
▁Fe	-10.4198
▁csőd	-10.42
▁szervezők	-10.4202
▁kiemelkedő	-10.4203
▁választott	-10.4206
▁Szer	-10.421
):	-10.4212
hét	-10.4212
ence	-10.4213
▁Do	-10.4215
▁szolgáló	-10.4216
▁bizonyult	-10.4218
jére	-10.4219
▁Bayern	-10.4225
▁otthonában	-10.4227
▁alapított	-10.4228
kedő	-10.4229
kérdez	-10.423
▁kihasznál	-10.4231
▁folytatta	-10.4231
▁letartóztatás	-10.4233
▁robbanás	-10.4239
▁Dob	-10.424
mas	-10.4241
ója	-10.4243
▁keletkezett	-10.4247
▁Idén	-10.4247
▁Vettel	-10.4247
▁megbeszélés	-10.4247
▁em	-10.4248
▁kifejezés	-10.4248
aik	-10.4249
▁hajtott	-10.4249
▁lehetőségét	-10.4249
▁vágy	-10.4251
▁szabadon	-10.4253
▁technológiá	-10.4257
▁világon	-10.4258
négy	-10.426
▁sorol	-10.4265
▁nagykövet	-10.4265
▁távolság	-10.4265
log	-10.4268
változás	-10.4271
▁bő	-10.4277
▁17-	-10.4279
▁lemez	-10.4287
▁22-	-10.4291
▁területek	-10.4292
▁stáb	-10.4294
▁21-	-10.4295
▁hatáskör	-10.4295
▁zajló	-10.4295
▁béke	-10.4298
▁használják	-10.4302
▁ital	-10.4302
etett	-10.4307
▁London	-10.4308
▁torna	-10.4312
▁növény	-10.4315
ókat	-10.4315
▁Bur	-10.4316
▁kol	-10.4317
lov	-10.4317
▁felszámolás	-10.4318
hette	-10.4319
▁máris	-10.432
▁nyilvánosság	-10.4323
▁játékok	-10.4326
éri	-10.4327
▁településen	-10.4329
vez	-10.433
▁szabályai	-10.4332
▁befektetés	-10.4333
▁Szak	-10.4338
▁vív	-10.4338
▁növekedést	-10.4339
▁Igazgatóság	-10.4342
▁helyezés	-10.4343
▁meghatározott	-10.4345
▁előfordul	-10.4345
▁büntet	-10.4346
▁törvények	-10.4346
▁választásokon	-10.4348
▁Kecskemét	-10.4349
13	-10.435
tro	-10.435
▁száll	-10.4352
▁megbízott	-10.4354
▁anti	-10.4358
▁kénytelen	-10.4358
▁ügyet	-10.4359
▁hónapos	-10.436
▁megkap	-10.4363
▁kéne	-10.4366
▁szül	-10.4366
uss	-10.4367
száll	-10.4369
hallgat	-10.4369
▁másrészt	-10.4373
ól	-10.4377
▁Ott	-10.4383
nok	-10.4386
▁veszik	-10.4387
▁rögzített	-10.4389
▁Liga	-10.4393
▁u	-10.4393
▁Svédország	-10.4396
▁járnak	-10.4398
▁szemét	-10.4398
▁120	-10.4398
▁napot	-10.4399
▁ítél	-10.4399
rom	-10.4399
ller	-10.4401
dar	-10.4405
▁belváros	-10.4408
▁Ferencváros	-10.4409
▁működését	-10.441
▁Ford	-10.4412
utak	-10.4415
airól	-10.4419
▁félév	-10.4423
nénk	-10.4424
ségének	-10.4425
▁bizonytalan	-10.4428
▁amilyen	-10.4432
▁pártelnök	-10.4432
▁ezelőtti	-10.4435
▁kórházban	-10.4436
▁hatvan	-10.4437
▁BUX	-10.4437
▁Egyelőre	-10.4437
▁kínálat	-10.4438
▁perccel	-10.4438
▁Sőt	-10.444
▁szervezett	-10.4441
par	-10.4447
teljes	-10.4449
▁bírósági	-10.4451
darab	-10.4451
▁döntöttek	-10.4455
▁1,2	-10.4455
of	-10.4462
▁illetően	-10.4462
odik	-10.4466
▁emelt	-10.4466
▁teljesít	-10.4468
▁tényező	-10.447
ica	-10.4471
▁Miskolc	-10.4473
jó	-10.4476
cse	-10.4477
▁Fu	-10.4479
▁rokon	-10.448
▁fokozat	-10.4481
▁nézni	-10.4482
▁Fehér	-10.4482
▁római	-10.4485
énnyel	-10.4488
▁magára	-10.449
▁Arany	-10.4491
ovic	-10.4496
▁vastag	-10.4497
▁pontra	-10.45
jev	-10.4501
▁KDNP	-10.4506
▁érdekelt	-10.4508
cső	-10.4515
▁isten	-10.4515
▁személyek	-10.4517
▁értek	-10.4517
▁Tovább	-10.4517
▁bar	-10.4519
▁tartalma	-10.4519
éséhez	-10.4524
▁számát	-10.4528
▁játékosa	-10.4529
▁gépjármű	-10.4533
▁Utóbbi	-10.4533
▁kártérítés	-10.4533
▁illeti	-10.4536
▁járművek	-10.4537
▁munkavállalók	-10.4541
▁For	-10.4544
▁64	-10.4548
▁hirdet	-10.455
▁23-	-10.4557
té	-10.4565
pénz	-10.4567
▁olimpia	-10.4568
bajnok	-10.4573
▁kormánynak	-10.4578
▁megnéz	-10.458
▁Televízió	-10.4582
▁demokrácia	-10.4582
▁Először	-10.4582
▁lelki	-10.4582
▁döntése	-10.4583
▁cserél	-10.4592
gáz	-10.4593
▁műtét	-10.4595
26	-10.4595
▁erősödés	-10.4597
▁Szó	-10.4597
▁születés	-10.4609
▁folytatja	-10.4617
helyettese	-10.4618
szerzés	-10.4619
▁utasok	-10.4621
hiány	-10.4623
▁egyike	-10.463
▁kutya	-10.4631
▁da	-10.4632
▁2000	-10.4633
lk	-10.4638
▁részletek	-10.4639
▁háttér	-10.4647
erős	-10.4648
mérő	-10.4651
lép	-10.4656
▁hirdetés	-10.4659
állítani	-10.466
rö	-10.4663
▁utcán	-10.4667
▁ee	-10.467
test	-10.4674
▁deficit	-10.468
▁Farkas	-10.468
▁programot	-10.4683
▁idény	-10.4683
▁szeretnének	-10.4683
▁trend	-10.4684
▁segítő	-10.4686
▁helyettes	-10.4687
▁rajt	-10.4689
▁hiteles	-10.4689
▁zseb	-10.469
▁tojás	-10.4691
▁amerikaiak	-10.4692
inger	-10.4693
▁mindegyik	-10.4693
szeres	-10.4693
▁kő	-10.4697
▁települések	-10.4698
▁lóerős	-10.4699
▁órák	-10.47
▁repülőtér	-10.4703
▁várni	-10.4703
bán	-10.4704
▁hazaiak	-10.4712
piaci	-10.4718
▁tájékoztatás	-10.4719
ack	-10.4719
dá	-10.4721
▁kívánja	-10.4721
▁he	-10.4723
▁Krisztián	-10.4729
▁fokozatosan	-10.473
▁feszültség	-10.4731
▁különféle	-10.4732
▁Vég	-10.4732
▁reagál	-10.4734
▁árak	-10.4736
▁esztendő	-10.4739
?"	-10.474
▁Mag	-10.4742
▁elemző	-10.4744
▁közelebb	-10.4745
▁foglalkoztatás	-10.4747
ilag	-10.4751
▁hiánya	-10.4752
só	-10.4754
▁államok	-10.4761
szolgálat	-10.4763
▁19-	-10.4766
▁kilométerre	-10.4768
▁vezetést	-10.477
▁közigazgatási	-10.4771
▁versenyt	-10.4772
bri	-10.4773
▁szavai	-10.4774
▁Később	-10.4778
▁Vasárnap	-10.4778
▁igyekszik	-10.4778
▁fontosabb	-10.478
▁származású	-10.478
▁levél	-10.4784
▁köbméter	-10.4784
▁köré	-10.479
árd	-10.479
▁kétharmados	-10.479
▁hozták	-10.479
▁elmaradt	-10.4794
kér	-10.4795
▁alaposan	-10.4795
▁szakad	-10.4803
▁értékelés	-10.4804
▁Williams	-10.4806
▁hölgy	-10.4807
▁áron	-10.4807
00-	-10.4809
▁kibocsátás	-10.4811
▁egyeztetés	-10.4819
▁részlet	-10.482
▁bolt	-10.4821
▁58	-10.4822
▁Fo	-10.4822
▁Alapítvány	-10.4828
▁intenzív	-10.4828
▁kifejtette	-10.4829
che	-10.4833
▁említ	-10.4834
▁emlékeztetett	-10.4834
▁1,4	-10.4836
▁tehetség	-10.4838
ukban	-10.4839
▁szavazó	-10.4843
mm	-10.4845
▁virág	-10.485
▁kaphat	-10.4853
▁szervező	-10.4856
▁körbe	-10.4858
▁katona	-10.4862
nyugdíjpénztárak	-10.4862
▁Villa	-10.4863
▁800	-10.4863
▁olcsóbb	-10.4868
▁rendszerben	-10.4873
▁nyilvánvaló	-10.4878
▁tonna	-10.4878
adott	-10.4891
55	-10.4891
▁elképzelés	-10.4895
▁bán	-10.4895
▁jelzés	-10.4895
bol	-10.4897
őrök	-10.4898
▁fellépés	-10.4905
▁férje	-10.4907
▁helye	-10.4908
▁találni	-10.4911
▁felhasznál	-10.4923
▁tavaszi	-10.4926
▁kereső	-10.4926
▁tőzsde	-10.4928
▁mozog	-10.4928
▁bolygó	-10.4928
▁Köztársaság	-10.4929
▁készpénz	-10.4929
▁Balogh	-10.493
▁mértékű	-10.4936
▁kívüli	-10.4936
▁2,5	-10.4939
cher	-10.4943
ER	-10.4947
▁érez	-10.4948
▁megér	-10.495
▁szerez	-10.4954
▁változtatás	-10.4955
▁tesznek	-10.4958
▁elmond	-10.496
▁vizet	-10.4961
▁elhagy	-10.4967
▁labdát	-10.4968
kezelő	-10.4969
▁fejlesztési	-10.4972
▁megtakarítás	-10.4975
▁szerezni	-10.4976
▁forintba	-10.4977
▁Ákos	-10.4979
▁talaj	-10.4979
▁fejlett	-10.498
▁Euro	-10.4981
bá	-10.4981
▁lettek	-10.4981
▁igényel	-10.4984
▁normális	-10.4986
▁feltehetően	-10.4988
▁értékben	-10.4989
▁látják	-10.4991
fény	-10.4993
▁munkájá	-10.4997
tárgy	-10.4998
▁mondhat	-10.5004
▁Ebből	-10.5004
▁felület	-10.5004
jétől	-10.5008
szerző	-10.5008
▁3,5	-10.5011
kapitányság	-10.5013
▁terén	-10.5013
▁kerülő	-10.5013
▁benyújtott	-10.5014
▁Ők	-10.5017
szabály	-10.5017
▁megmutat	-10.5018
pálya	-10.5019
▁fegyveres	-10.5023
▁szélsőséges	-10.503
▁háló	-10.5032
▁nyomozást	-10.5036
▁választáson	-10.5039
pál	-10.5042
▁mérkőzést	-10.5043
▁szerzője	-10.5044
▁kérdésére	-10.5053
ció	-10.5053
ph	-10.5054
▁úgyhogy	-10.5058
▁iskolák	-10.5059
▁kategóriában	-10.506
▁rúg	-10.506
▁változások	-10.506
▁13-	-10.5064
kezelés	-10.5071
▁rablás	-10.5073
▁próbálta	-10.5077
▁NATO	-10.5081
▁érvényben	-10.5081
▁többlet	-10.5083
▁élők	-10.5083
▁magával	-10.5085
▁állomány	-10.5086
▁85	-10.5091
▁Újpest	-10.5091
▁szót	-10.5093
▁személyesen	-10.5094
▁gyanús	-10.5094
▁kizárt	-10.5096
▁További	-10.5096
jei	-10.5102
▁teli	-10.5105
▁fedez	-10.5111
▁kommunikáció	-10.5115
használat	-10.5115
08	-10.5117
▁emel	-10.512
▁lehessen	-10.5123
honnan	-10.5124
▁korai	-10.5125
SE	-10.513
ä	-10.5132
völgy	-10.5132
aira	-10.5132
állt	-10.5134
▁szokatlan	-10.5137
▁esetek	-10.5138
▁Mil	-10.5139
▁biztosítani	-10.5141
▁zenekar	-10.5148
▁hallgató	-10.5154
▁helyszínre	-10.5154
▁Roma	-10.5154
▁épített	-10.5155
▁harcol	-10.5156
▁fesztivál	-10.5158
▁kapcsolatok	-10.5167
▁ült	-10.5167
▁fejezte	-10.5168
▁hon	-10.517
▁határon	-10.5171
▁tekint	-10.5172
▁bizonyít	-10.5174
▁Tur	-10.5175
zo	-10.5175
▁ku	-10.5184
▁lelkes	-10.5184
▁kezdődő	-10.5184
▁világszerte	-10.5186
▁elért	-10.5188
gyel	-10.5195
▁váltott	-10.5198
▁idézte	-10.5205
33	-10.5205
▁jogok	-10.5207
tatott	-10.521
▁rendben	-10.5212
hatás	-10.5216
mit	-10.5217
▁kormányzó	-10.5218
ine	-10.5219
▁interjúban	-10.522
órás	-10.5227
200	-10.5232
▁márka	-10.5232
rov	-10.5233
▁München	-10.5235
▁párizsi	-10.5235
▁megszokott	-10.5236
▁innen	-10.5236
▁viselkedés	-10.5236
▁vadász	-10.5239
▁sikerrel	-10.5242
▁Kossuth	-10.5242
▁utcában	-10.5244
▁forradalom	-10.5246
észeti	-10.5247
▁felhasználók	-10.5248
▁Jól	-10.5255
aként	-10.5255
▁könyvet	-10.5256
pé	-10.5258
▁Magyarországra	-10.526
▁abba	-10.5261
2)	-10.5262
▁vall	-10.5262
▁gyereket	-10.5262
▁rep	-10.5263
30-	-10.5266
▁tét	-10.5269
▁ismerte	-10.5278
▁problémái	-10.528
▁szenved	-10.528
▁játsz	-10.5281
▁bajnokságban	-10.5282
▁kellő	-10.5283
▁1-2	-10.5283
▁Dániel	-10.5287
▁tetszik	-10.5288
▁órát	-10.5288
▁szépen	-10.5289
▁tudná	-10.5289
▁napra	-10.5293
▁állítás	-10.5294
▁barátai	-10.5298
▁tagállam	-10.5298
▁jelöl	-10.5301
▁24-	-10.5301
▁jelek	-10.5303
meccs	-10.5305
▁államháztartási	-10.5305
▁részére	-10.5307
▁előtte	-10.5311
▁valamivel	-10.5314
▁köszönhető	-10.5317
gaz	-10.5319
cska	-10.5319
▁hónapokban	-10.5324
terme	-10.5325
▁erők	-10.5325
▁Újabb	-10.533
▁bemutat	-10.5332
▁amint	-10.5336
▁lányok	-10.5336
▁regionális	-10.534
▁börtönbüntetés	-10.534
▁Oscar	-10.534
▁könyve	-10.534
▁stabilitás	-10.534
▁küzdelem	-10.5341
▁tartalmazza	-10.5343
▁vélte	-10.5349
állam	-10.535
szállás	-10.5353
tar	-10.5354
mát	-10.5356
▁vádol	-10.5358
díjas	-10.5365
▁for	-10.5381
▁huszon	-10.5381
dni	-10.5388
▁luxus	-10.5392
▁Apple	-10.5393
▁zajlik	-10.5393
omat	-10.5395
▁forma	-10.5395
▁kellemetlen	-10.5395
▁hiányzik	-10.5396
▁megszüntet	-10.5397
▁lendület	-10.5397
▁méretű	-10.5399
bé	-10.5399
▁26-	-10.5402
▁elér	-10.5402
▁nyitva	-10.5402
▁Cl	-10.5403
▁illető	-10.5404
▁napos	-10.5405
▁sorozatban	-10.5409
▁cipő	-10.541
▁stratégiai	-10.5412
▁térségben	-10.5413
gon	-10.5413
▁udvar	-10.5419
▁tapasztalatai	-10.5424
▁elsőként	-10.5427
▁szervek	-10.5428
▁százezer	-10.5429
▁filmek	-10.5429
▁gépek	-10.5435
line	-10.5435
38	-10.5435
▁kétszáz	-10.5436
forgalom	-10.5439
irat	-10.5439
csökkentés	-10.5441
▁95	-10.5441
▁hétvégi	-10.5445
▁Malév	-10.5447
▁kaland	-10.5448
▁Mont	-10.5451
▁ennyire	-10.5452
▁gondolja	-10.5453
▁húz	-10.5463
▁pillanatban	-10.5463
▁parlamentben	-10.5464
abbak	-10.5469
▁számon	-10.5472
▁Cas	-10.5475
▁eredményeket	-10.5479
▁céget	-10.548
olják	-10.5481
▁élén	-10.5483
▁fáj	-10.5486
▁szék	-10.5486
▁Kol	-10.5489
▁hallott	-10.549
▁éjszakai	-10.5491
oper	-10.5494
▁indokolta	-10.5495
▁Könyv	-10.5496
▁Nép	-10.5497
ew	-10.5497
▁tempó	-10.5499
▁Moszkva	-10.5502
art	-10.5503
▁Kedden	-10.5507
▁szoros	-10.5509
▁ázsiai	-10.551
▁India	-10.5512
▁tekinthető	-10.5515
cseré	-10.5517
▁ítélte	-10.5517
▁ajánlószelvény	-10.5517
▁ingyen	-10.5517
▁lő	-10.552
▁álláspont	-10.5525
▁kíváncsi	-10.5526
list	-10.5528
▁gyűjt	-10.5533
▁Fél	-10.5537
▁végez	-10.5538
keleti	-10.5542
▁rendel	-10.555
▁szempont	-10.5552
▁megalapozott	-10.5552
▁folyamán	-10.5552
▁tüntetés	-10.5553
▁elfogadta	-10.5555
▁Szeret	-10.5557
iss	-10.5557
▁tájékoztatott	-10.5558
▁látogatás	-10.5559
szár	-10.5559
▁argentin	-10.5559
▁emelkedik	-10.556
lényegében	-10.5562
hány	-10.5579
▁rendszeres	-10.5585
lépett	-10.559
▁Rad	-10.5598
állomány	-10.56
▁GB	-10.56
▁ütköz	-10.56
▁csont	-10.5605
▁Mű	-10.5606
▁pápa	-10.5606
▁kontinens	-10.5606
▁monetáris	-10.5606
▁részesedés	-10.5606
▁Választás	-10.5606
▁simán	-10.5606
▁62	-10.5611
▁ri	-10.5613
▁kéri	-10.5616
▁munkás	-10.5618
▁98	-10.5619
af	-10.5621
▁stadion	-10.5628
▁szeretet	-10.563
▁szavazók	-10.563
▁lehető	-10.5632
lett	-10.5633
▁Hat	-10.5633
▁világban	-10.5639
▁vizsgáló	-10.5641
▁írták	-10.5643
▁leáll	-10.5643
▁Pet	-10.5644
▁fogyasztói	-10.5645
▁használja	-10.5646
▁érzékel	-10.5647
▁War	-10.5649
▁résztvevők	-10.5652
▁rom	-10.5652
érzet	-10.5655
▁adhat	-10.5658
▁szóba	-10.5659
▁Sal	-10.5659
▁tönkre	-10.566
▁Alonso	-10.566
▁ezüst	-10.566
▁egyensúly	-10.566
▁digitális	-10.566
▁magatartás	-10.5663
gatás	-10.5663
▁autópálya	-10.5663
▁med	-10.5667
▁nézők	-10.5668
▁Fehérvár	-10.5671
▁lep	-10.5675
▁dokumentumok	-10.5675
▁halála	-10.5678
há	-10.5678
▁említette	-10.5678
▁finn	-10.5679
▁tisztában	-10.568
▁kötvény	-10.5681
▁választotta	-10.5682
▁polgár	-10.5684
záró	-10.5686
▁Cha	-10.5687
oszt	-10.5691
ah	-10.5693
▁közlekedő	-10.5695
▁nyugdíjas	-10.5695
▁Vel	-10.5696
▁feljelentés	-10.5697
▁segített	-10.5698
▁mértéke	-10.5699
▁egyeztet	-10.5703
ái	-10.5704
veszély	-10.5708
zsák	-10.5709
tábor	-10.5711
▁átmeneti	-10.5712
▁dízel	-10.5714
▁zsűri	-10.5714
▁dolga	-10.5714
Szatmár	-10.5715
▁14-	-10.5715
▁autóbusz	-10.5718
oztak	-10.5722
▁Hétfőn	-10.5723
▁Mária	-10.5723
▁Pla	-10.5724
ológia	-10.5726
szab	-10.5727
▁szerencsétlen	-10.5729
▁1000	-10.5731
▁ittas	-10.5734
▁gondolkod	-10.5735
▁napok	-10.5735
hattak	-10.5735
▁láttam	-10.5739
▁meglévő	-10.5739
▁költségek	-10.574
▁vezetése	-10.5747
▁Pat	-10.5747
▁Ste	-10.5748
ször	-10.5755
▁szál	-10.5757
▁figyelmeztet	-10.5759
▁Sze	-10.5762
atlanul	-10.5762
▁tavasz	-10.5763
▁pa	-10.5764
▁euróval	-10.5767
▁alkalom	-10.5768
▁parti	-10.5768
▁Barack	-10.577
▁éles	-10.5772
omb	-10.5773
▁meghaladja	-10.5774
▁Iroda	-10.5776
▁tesztel	-10.5777
pát	-10.5784
▁nyelvű	-10.5789
▁használható	-10.579
▁állítják	-10.5791
▁kever	-10.5794
munka	-10.5794
hó	-10.5798
úd	-10.58
▁rab	-10.58
▁feleség	-10.5802
▁Egészség	-10.5804
hel	-10.5809
▁szakaszán	-10.5811
csó	-10.5816
dom	-10.5818
▁kevesebbet	-10.5818
▁Tim	-10.5818
gyártó	-10.582
▁tizenöt	-10.5824
▁egyrészt	-10.5828
▁véletlenül	-10.5828
04	-10.5829
▁vidéki	-10.5837
▁védett	-10.5838
hár	-10.5843
fejlesztés	-10.5843
▁Ham	-10.5848
vált	-10.585
Mi	-10.585
▁képtelen	-10.585
▁nevel	-10.5851
eztek	-10.5854
▁győzelmet	-10.5857
▁hónapok	-10.5858
▁kincs	-10.5858
bar	-10.5869
▁elismerte	-10.5869
49	-10.5869
▁Mad	-10.5869
rajz	-10.5876
▁Matolcsy	-10.5879
▁bonyolult	-10.5879
▁dolgot	-10.5879
▁mobiltelefon	-10.5879
▁ugyanúgy	-10.588
▁Pr	-10.5881
lg	-10.5888
▁gyakorol	-10.5889
ino	-10.5892
75	-10.5893
▁Kép	-10.5894
pénztári	-10.5897
▁vak	-10.5901
▁hetekben	-10.5902
▁állni	-10.5905
▁legyenek	-10.5907
isták	-10.5909
▁leány	-10.5914
▁piacok	-10.5914
▁arányban	-10.5916
▁előbbi	-10.5919
▁birtok	-10.592
▁németek	-10.5922
▁Tan	-10.5925
▁adás	-10.5929
▁aggód	-10.5929
▁évszázad	-10.5935
▁Toyota	-10.5935
▁büdzsé	-10.5935
▁utoljára	-10.5935
▁im	-10.5935
▁kom	-10.5937
▁gyengébb	-10.5937
▁na	-10.5938
▁forgatás	-10.5938
▁Gól	-10.5939
▁Török	-10.594
▁Igen	-10.594
▁kezdték	-10.5944
ettek	-10.5946
▁védelme	-10.5946
hajó	-10.5947
▁deviza	-10.5948
▁stratégiá	-10.595
▁Zala	-10.595
▁látogató	-10.5953
▁figyelmét	-10.5956
05	-10.5956
hajtás	-10.5959
▁mentén	-10.596
34	-10.5961
▁javítás	-10.5964
▁kivétel	-10.5964
▁épült	-10.5964
▁szerintük	-10.5965
▁700	-10.5966
▁jelenthet	-10.5967
▁csatlakoz	-10.5968
▁fürdő	-10.5978
védő	-10.598
fogás	-10.5984
▁Film	-10.5985
▁teljesítménye	-10.5985
▁utak	-10.5986
klub	-10.5987
▁legrosszabb	-10.599
OP	-10.5991
▁munkák	-10.5991
▁ősszel	-10.5992
▁jegyezték	-10.5992
▁műfaj	-10.5993
▁érkeztek	-10.5993
▁formájában	-10.5994
▁törzs	-10.5995
▁192	-10.5996
▁biztosítás	-10.5997
▁idézi	-10.6007
társaság	-10.6016
▁Kínában	-10.6017
TE	-10.602
▁intéz	-10.6022
▁fejezet	-10.6022
szív	-10.6026
▁banki	-10.6027
▁korában	-10.6028
▁rendelt	-10.6029
▁irat	-10.6036
▁társa	-10.6038
▁III	-10.604
▁látogat	-10.604
csúcs	-10.6043
francia	-10.6043
▁segíti	-10.6045
▁egyikük	-10.6047
▁Sólyom	-10.6047
▁iráni	-10.6047
▁kézilabda	-10.6047
▁hetedik	-10.6048
▁korosztály	-10.6049
▁vizsgálják	-10.6051
▁Mond	-10.6053
▁műsorvezető	-10.6053
▁versenyez	-10.6054
tetni	-10.6056
▁legyőzte	-10.6056
boly	-10.6061
▁utasítás	-10.6064
kedett	-10.6066
▁térkép	-10.6067
▁Jog	-10.6068
▁ir	-10.607
▁próbálja	-10.6074
▁igazságügyi	-10.6075
rák	-10.6075
gés	-10.6076
▁Olaszország	-10.6077
▁csatorna	-10.6079
▁tél	-10.6079
▁anyagok	-10.6085
vér	-10.6085
▁utód	-10.6089
▁takar	-10.6091
▁legyőz	-10.6095
győztes	-10.61
król	-10.6101
▁Amerikai	-10.6101
▁sajnál	-10.6103
ágy	-10.6103
▁Richter	-10.6103
▁közszolgálati	-10.6103
▁órával	-10.6103
▁bőven	-10.6104
▁lopás	-10.6109
▁kezdtek	-10.6112
▁pol	-10.6112
zd	-10.6113
ach	-10.6114
▁remél	-10.6115
kelet	-10.6115
▁kézi	-10.6119
pán	-10.612
▁helyzete	-10.6123
▁érthető	-10.6123
▁üzemeltető	-10.6124
▁vállalt	-10.6127
támadás	-10.613
▁évad	-10.6131
ekbe	-10.6136
▁vásárló	-10.6136
bó	-10.6137
Ba	-10.6141
▁kutyá	-10.6141
▁balesetet	-10.6146
gazdasági	-10.6149
▁kez	-10.6149
bur	-10.6152
▁kezelt	-10.6152
▁televíziós	-10.6155
modell	-10.6157
▁árt	-10.6158
▁fizikai	-10.6159
▁mezőgazdasági	-10.616
▁Liverpool	-10.616
▁diplomáciai	-10.616
▁tulajdonképpen	-10.6161
▁érzem	-10.6161
ásában	-10.6161
▁lapok	-10.6162
▁találkozott	-10.6163
bul	-10.6166
▁and	-10.6167
▁28-	-10.6167
▁képernyő	-10.6168
▁weboldal	-10.6171
szav	-10.6176
▁Nagydíj	-10.6179
▁levelet	-10.618
▁elkövetés	-10.6182
▁válaszolt	-10.6183
▁nagyszerű	-10.6187
kereső	-10.6188
▁Sokan	-10.619
▁akarták	-10.6195
▁gyümölcs	-10.6195
▁félidő	-10.6196
▁esetekben	-10.6197
▁magyarázat	-10.6201
nci	-10.6201
szim	-10.6202
járás	-10.6206
szerv	-10.6216
▁Fülöp	-10.6217
▁Jövő	-10.6217
▁büntetőeljárás	-10.6217
▁legnépszerűbb	-10.6217
▁személygépkocsi	-10.6217
▁tizenkét	-10.6217
▁Rádió	-10.6217
▁reakció	-10.6218
▁professzor	-10.6218
56	-10.6219
▁zsír	-10.622
▁sorban	-10.622
▁ló	-10.6223
▁kellemes	-10.6223
▁őszi	-10.6226
▁másnap	-10.6226
▁kapacitás	-10.6228
▁javulás	-10.6234
▁országokban	-10.6236
▁import	-10.6238
▁fordulójában	-10.6239
▁csodá	-10.624
▁59	-10.6243
▁Zi	-10.6243
igazgató	-10.6246
▁negyeddöntő	-10.6248
▁szeme	-10.6252
▁alapon	-10.6253
▁Mc	-10.6254
▁ülésen	-10.6259
eként	-10.6265
32	-10.6268
lit	-10.627
▁felől	-10.6271
▁megnyerte	-10.6273
▁debreceni	-10.6275
▁ugye	-10.6275
▁nevében	-10.6275
lég	-10.6275
▁buli	-10.6275
üzem	-10.6275
▁náluk	-10.6275
▁Fekete	-10.6276
▁2003-	-10.6276
▁kisfiú	-10.6277
▁megvizsgál	-10.6279
▁beruházások	-10.6289
lépés	-10.6294
▁2-3	-10.6294
▁indulás	-10.6295
▁kívánt	-10.6296
vették	-10.6299
▁előfordulhat	-10.6301
suk	-10.6303
▁csere	-10.6307
álja	-10.6307
▁61	-10.6309
▁fogy	-10.6309
ux	-10.6313
01	-10.632
▁old	-10.6329
eire	-10.6329
tanács	-10.6331
▁palesztin	-10.6332
▁tonná	-10.6333
▁újdonság	-10.6333
▁ugyanolyan	-10.6334
▁mu	-10.6334
▁családok	-10.6336
▁kommunista	-10.6339
▁üt	-10.634
▁adót	-10.6341
▁figyelem	-10.6342
▁piacra	-10.6342
▁Románia	-10.6343
▁magasság	-10.6344
▁sztori	-10.6345
▁létrehozásá	-10.6345
▁száraz	-10.6345
▁bevezetés	-10.6346
fotó	-10.635
fogyasztás	-10.6351
▁kérdések	-10.6351
▁Lát	-10.6357
▁állítani	-10.6358
+	-10.6362
▁információkat	-10.6365
▁hatékony	-10.6367
▁kerületben	-10.6368
képp	-10.6369
▁indokolt	-10.637
▁Mer	-10.6374
▁váltak	-10.6374
Bereg	-10.6375
▁hivatkoz	-10.6377
▁novemberi	-10.6377
▁herceg	-10.6377
vis	-10.6379
▁elérte	-10.6379
▁kormányt	-10.6381
szter	-10.6386
▁mag	-10.6386
▁kávé	-10.6387
úl	-10.6389
▁meglát	-10.6389
▁Fejlesztés	-10.6391
▁maximum	-10.6391
▁zászló	-10.6391
▁népszavazás	-10.6391
▁mindenkit	-10.6391
▁Berlin	-10.6392
▁góllal	-10.6395
▁elsőfokú	-10.6396
▁franciák	-10.6398
▁Székesfehérvár	-10.6398
cel	-10.6399
▁mehet	-10.64
▁mondják	-10.6406
▁értelme	-10.6412
▁kutat	-10.6414
▁helyére	-10.6417
▁kiadások	-10.6419
bert	-10.6421
▁vonatok	-10.6422
▁észlel	-10.6423
▁küzdő	-10.6429
▁72	-10.643
▁kapja	-10.6432
▁genetikai	-10.6433
▁számítás	-10.6434
súly	-10.6443
▁komp	-10.6445
▁kiáll	-10.6445
▁résztvevő	-10.6446
▁perces	-10.6447
▁tudok	-10.6449
▁alternatív	-10.6449
▁kényelmes	-10.6449
▁kontroll	-10.6449
▁összességében	-10.6449
▁humor	-10.6449
▁költöz	-10.6449
▁tervezi	-10.645
kupa	-10.6454
▁tar	-10.6455
▁összeállítás	-10.6455
▁seb	-10.6456
▁berendezés	-10.6457
▁ítélték	-10.6458
▁élen	-10.6458
ítása	-10.6461
▁látták	-10.6461
társai	-10.6463
hy	-10.6466
menet	-10.6466
seg	-10.6468
▁EP	-10.647
▁kerékpár	-10.6472
▁ezren	-10.6474
▁filmben	-10.6474
▁amik	-10.648
▁levélben	-10.6482
▁végeztek	-10.6486
ává	-10.6487
▁lejárt	-10.6487
▁bármi	-10.6488
▁voltunk	-10.6489
▁számíthat	-10.6491
▁kedvezmény	-10.6493
ítése	-10.6495
túr	-10.6497
▁kultúra	-10.6501
▁Széchenyi	-10.6508
▁Vlagyimir	-10.6508
▁közgazdász	-10.6508
▁Bálint	-10.6508
▁jelöltek	-10.6508
▁alábbi	-10.6508
▁Nyomozó	-10.6508
▁valaha	-10.6509
▁valahogy	-10.6509
közép	-10.651
Ma	-10.651
▁következett	-10.6513
▁szorít	-10.6515
▁jövedelem	-10.6516
▁un	-10.6518
zte	-10.6519
▁autósok	-10.652
ném	-10.652
▁szurkolók	-10.652
evő	-10.6523
▁felügyelő	-10.6529
lav	-10.6533
▁látvány	-10.6534
▁üzletember	-10.6536
ero	-10.654
▁vállalta	-10.6545
▁ciklus	-10.6546
adták	-10.655
▁szállító	-10.655
▁lemond	-10.6551
▁következ	-10.6551
▁3-0	-10.6555
▁nyertes	-10.6557
gatni	-10.6561
▁szerette	-10.6563
▁Békés	-10.6567
▁Ildikó	-10.6567
▁püspök	-10.6567
▁véve	-10.6567
▁hozzájuk	-10.6568
▁megvásárol	-10.6568
▁gyönyörű	-10.6568
▁George	-10.6573
▁lánya	-10.6574
▁producer	-10.6574
▁vesznek	-10.6574
▁választották	-10.6575
▁képviselőjelölt	-10.6579
▁térségében	-10.6579
ano	-10.6582
▁Hely	-10.6583
▁dolgokat	-10.659
▁tudósok	-10.6592
▁akadt	-10.6594
▁nézve	-10.6594
tiz	-10.6596
▁olimpián	-10.6598
▁68	-10.6598
rik	-10.66
csere	-10.6604
▁Szolnok	-10.6606
▁Baj	-10.6606
▁részleteket	-10.6607
SA	-10.6607
▁mennyiség	-10.661
▁komolyabb	-10.6615
EK	-10.6616
▁fogyasztók	-10.6616
▁tájékoztatást	-10.6618
▁Szint	-10.6622
▁tölti	-10.6622
oltak	-10.6622
▁vezeték	-10.6623
▁Pénz	-10.6626
▁moszkvai	-10.6627
▁létesítmény	-10.6627
▁Webber	-10.6627
▁tekintetében	-10.6628
▁sárga	-10.6636
▁erejé	-10.6636
aknak	-10.6636
▁szerencsés	-10.6638
vezetők	-10.6638
▁információt	-10.6641
▁oly	-10.6648
▁kezelni	-10.6652
▁történész	-10.6656
▁doboz	-10.6659
▁bizonytalanság	-10.6662
biztonsági	-10.6663
▁Élet	-10.6664
▁tiltakozás	-10.6667
▁jönnek	-10.6668
▁0-1	-10.6669
▁eleve	-10.6671
▁gyűjtemény	-10.6672
▁jelentése	-10.6672
▁Tor	-10.6674
▁1990-	-10.6674
▁kapható	-10.6683
▁kr	-10.6683
▁biztosított	-10.6684
•	-10.6686
▁Erzsébet	-10.6686
net	-10.6686
▁Tarlós	-10.6686
▁felesleges	-10.6686
▁Szerdán	-10.6687
▁szakmá	-10.6687
▁középpályás	-10.6687
▁viselked	-10.6688
▁Eszter	-10.6691
▁Vagyis	-10.6692
▁balesetben	-10.6692
ánk	-10.6696
▁Jean	-10.6698
▁beszélget	-10.6699
06	-10.6701
▁hold	-10.6702
hasson	-10.6703
▁Rob	-10.6705
▁Fer	-10.6706
▁lényegesen	-10.6706
▁Szabad	-10.671
▁láng	-10.6719
olasz	-10.6721
▁hazánk	-10.6723
▁halálát	-10.6723
▁területeken	-10.6726
▁Kal	-10.6737
▁telefonon	-10.6737
▁januári	-10.6738
▁csinált	-10.6739
nai	-10.6744
ation	-10.6745
▁legkisebb	-10.6747
▁drága	-10.6747
▁Fontos	-10.6747
▁Benedek	-10.6747
▁étterem	-10.6747
▁viszonyítva	-10.6747
▁terep	-10.6749
▁kereste	-10.6754
▁tudtuk	-10.6755
oga	-10.6756
társa	-10.6757
▁robbant	-10.6757
▁kezében	-10.6761
tudományi	-10.6765
▁ígért	-10.6766
▁ünnepi	-10.6767
úton	-10.6769
▁Át	-10.677
▁voks	-10.677
▁ügynök	-10.6772
▁vitték	-10.6773
mes	-10.6775
váltó	-10.6777
▁megállapítás	-10.6777
▁életében	-10.6784
▁igazol	-10.6784
módosítás	-10.6784
▁munkaerő	-10.6786
▁tájékoztat	-10.6787
▁hord	-10.6792
forrás	-10.6797
▁Port	-10.6802
▁Közben	-10.6802
▁elítél	-10.6803
▁Futball	-10.6807
▁recept	-10.6807
▁engem	-10.6807
▁munkája	-10.6807
▁órától	-10.6808
▁uralkodó	-10.6808
▁27-	-10.6808
dán	-10.6809
▁fokozott	-10.6814
▁vegye	-10.6815
▁felfedezés	-10.6826
/3	-10.6827
▁közepes	-10.6827
▁torná	-10.6829
▁bevon	-10.6834
▁forgalmi	-10.6837
asszony	-10.6841
41	-10.6842
▁romák	-10.6842
▁2013-	-10.6846
▁szán	-10.6847
▁másod	-10.6849
▁felhívta	-10.6852
▁náci	-10.6853
▁2-1	-10.6854
▁maradhat	-10.6856
▁vicces	-10.6857
▁listát	-10.6858
ári	-10.6858
#	-10.686
ice	-10.686
▁munkaügy	-10.6862
rát	-10.6863
▁megszűnt	-10.6868
▁mindenesetre	-10.6868
▁mögé	-10.6868
▁vonatkozik	-10.6868
▁titkosszolgálat	-10.6869
irodalom	-10.687
▁személyautó	-10.6871
▁felmerült	-10.6874
▁Szalai	-10.6876
85	-10.6877
▁karrier	-10.6877
termelés	-10.6882
▁életet	-10.6885
▁baloldal	-10.6888
futás	-10.6894
oznak	-10.6894
▁Mindenki	-10.6894
▁győzte	-10.6897
▁folyamatban	-10.6898
▁Nor	-10.6899
31	-10.69
képesség	-10.6908
▁megelőző	-10.691
▁22.	-10.6911
gyártás	-10.6912
ely	-10.6919
▁Dar	-10.6919
faj	-10.692
▁elkészült	-10.692
▁nyár	-10.6922
▁gondolkodás	-10.6923
▁tü	-10.6924
▁támogatta	-10.6925
▁Mor	-10.6929
▁értesülés	-10.6929
▁vélhetően	-10.693
▁Thomas	-10.693
▁dicsér	-10.693
▁várakozások	-10.693
uf	-10.6931
▁övezet	-10.6931
▁esté	-10.6931
▁maradtak	-10.6931
osztó	-10.6931
▁villany	-10.6931
miniszter	-10.6932
nyal	-10.6933
37	-10.6934
▁jogszabályok	-10.6934
▁eljut	-10.6936
▁Márton	-10.6936
▁személyzet	-10.6936
▁Ligája	-10.6936
▁mekkora	-10.6937
▁rangadó	-10.694
ola	-10.6941
▁egészségügy	-10.6944
▁legendás	-10.6945
▁egyenlő	-10.6948
▁ismeri	-10.6948
sáv	-10.6955
▁telt	-10.6957
kért	-10.6957
▁Veres	-10.6958
▁mérsékelt	-10.6959
▁sérüléseket	-10.696
▁vonzó	-10.6961
▁Szerintem	-10.6964
▁ütött	-10.6965
▁2-0	-10.6967
▁kivitel	-10.6968
▁könnyebben	-10.6968
▁szorul	-10.697
séges	-10.6972
▁gondot	-10.6973
▁Kom	-10.6977
getés	-10.6977
▁egészében	-10.6978
▁megfigyelés	-10.6979
▁évesen	-10.698
iro	-10.6987
szigetek	-10.6987
▁finanszírozás	-10.6988
▁legközelebb	-10.6991
▁megjegyezte	-10.6991
▁Daily	-10.6991
▁Telekom	-10.6991
▁Írország	-10.6992
▁dobogó	-10.6992
▁azonnali	-10.6993
bál	-10.6993
afrikai	-10.6994
▁noha	-10.6994
zanak	-10.6994
ska	-10.6994
▁tervező	-10.6994
▁elindul	-10.6996
▁Com	-10.6999
Britanniában	-10.7
▁bemutatott	-10.7002
▁ősz	-10.7012
▁részében	-10.7013
▁74	-10.7015
▁der	-10.7016
▁feje	-10.7016
▁megállapította	-10.7019
▁elit	-10.702
Egy	-10.7023
off	-10.7023
▁követelés	-10.7025
▁jogos	-10.7025
került	-10.7026
éséről	-10.7027
wi	-10.703
uló	-10.7033
▁menekült	-10.7035
kifejez	-10.7037
▁vereséget	-10.7038
ázott	-10.7038
▁érvényesül	-10.7038
téve	-10.7039
ságok	-10.7041
túra	-10.7046
jan	-10.7048
▁kétszeres	-10.7051
▁búcsú	-10.7052
▁jelenlét	-10.7053
99	-10.7053
▁működött	-10.7053
▁Társaság	-10.7054
▁agrár	-10.7054
lövő	-10.7054
▁Messi	-10.7055
▁szakaszon	-10.7055
▁istálló	-10.7056
▁szerencsére	-10.7057
▁sajtóügyeletese	-10.7062
rop	-10.7062
▁dollárral	-10.7068
▁edzője	-10.7068
▁66	-10.707
jk	-10.7072
▁testi	-10.7075
▁eladó	-10.7078
▁alakított	-10.7078
36	-10.7081
▁selejtező	-10.7082
▁Tu	-10.7087
▁énekel	-10.7088
▁Amerikában	-10.7092
▁fogadja	-10.7092
▁Ser	-10.7094
▁Kupa	-10.7097
edtek	-10.7098
tudomány	-10.71
▁segíthet	-10.7102
▁igazolás	-10.7105
▁értesít	-10.7106
▁tanuló	-10.7107
▁sokak	-10.7108
▁klíma	-10.7109
élt	-10.711
Belföld	-10.7115
▁Putyin	-10.7116
▁kilogramm	-10.7116
▁hűtlen	-10.7116
▁Judit	-10.7116
▁Haladás	-10.7117
▁Sár	-10.7118
▁Bors	-10.7119
▁elmondása	-10.712
pla	-10.7122
▁Wa	-10.7123
▁hatályba	-10.7129
▁negyedév	-10.7131
▁mást	-10.7132
▁Brit	-10.7133
▁191	-10.7133
▁iskolai	-10.7138
▁tekintély	-10.714
▁tárgyalt	-10.714
▁életveszélyes	-10.7142
pro	-10.7142
▁anyagot	-10.7142
szon	-10.7152
▁napirend	-10.7155
városi	-10.7161
fogy	-10.7163
▁feltételei	-10.7164
▁állapít	-10.7166
▁centi	-10.7166
kból	-10.7167
▁házak	-10.7171
▁dán	-10.7173
▁filmje	-10.7175
▁Budai	-10.7176
▁Horvátország	-10.7179
▁szilveszter	-10.7179
▁megkérdezett	-10.718
▁eleget	-10.718
▁választmány	-10.718
mester	-10.7182
▁valósul	-10.7184
▁2000-	-10.7189
▁Tour	-10.719
világítás	-10.7192
▁állítása	-10.7192
▁Der	-10.7193
▁csoportok	-10.7195
▁álltak	-10.7199
▁rendezik	-10.7202
árak	-10.7203
▁kisebbségi	-10.7206
▁Arról	-10.7207
▁front	-10.7207
▁vizsgált	-10.7214
▁fed	-10.7217
▁lo	-10.7218
▁okos	-10.722
AC	-10.722
▁percig	-10.7225
▁pályázati	-10.7226
izált	-10.723
hitel	-10.7232
▁lánc	-10.7233
hivatal	-10.7238
▁időn	-10.724
▁Racing	-10.7242
jelöltje	-10.7246
▁fejez	-10.7249
▁köze	-10.7251
▁vallomás	-10.7251
▁élénk	-10.7253
▁vizsgá	-10.7255
▁elvárás	-10.7255
▁juttat	-10.7258
gazda	-10.7261
alak	-10.7263
szolgáltató	-10.7265
TV	-10.7268
ogatás	-10.7271
ari	-10.7271
▁lába	-10.7273
bevétel	-10.7274
▁0,3	-10.7277
szállítás	-10.7277
▁írni	-10.7278
▁részletesen	-10.7282
▁órákban	-10.7285
▁vitte	-10.7286
formá	-10.7286
▁sorsa	-10.7286
▁tájékoztató	-10.7286
▁építés	-10.7288
▁Hogyan	-10.7289
▁felfüggesztett	-10.7289
▁sikere	-10.729
▁garantál	-10.7291
mentő	-10.7292
▁összefüggés	-10.7292
ef	-10.7298
▁jelez	-10.7301
▁kétség	-10.7305
▁bronz	-10.7306
▁Schumacher	-10.7306
▁Vilmos	-10.7306
▁informatikai	-10.7306
▁vélekedett	-10.7306
▁óráig	-10.7306
▁közúti	-10.7306
▁középső	-10.7306
▁bennünket	-10.7306
▁aratott	-10.7307
ázó	-10.7307
▁bővítés	-10.7309
növekedés	-10.731
cht	-10.7311
▁ideg	-10.7313
▁Pár	-10.7314
nye	-10.7318
▁kb	-10.7322
▁viták	-10.7323
▁BRFK	-10.7324
▁fent	-10.7326
▁újságírók	-10.733
▁gyakori	-10.733
▁csatlakozás	-10.7334
▁működési	-10.7335
▁rendőrkapitány	-10.7339
▁századi	-10.734
▁márciusban	-10.7341
▁alakulat	-10.7342
▁fogyaszt	-10.7343
▁nyomozók	-10.7344
▁betét	-10.7344
mán	-10.7345
▁támogatott	-10.7346
▁Win	-10.7351
▁Elő	-10.7353
fin	-10.7355
dat	-10.7356
▁kijelentés	-10.7357
▁évtizedek	-10.7358
▁ünnepel	-10.736
▁Ide	-10.7362
▁maradnak	-10.7364
▁feltétel	-10.7364
▁kard	-10.7364
▁javult	-10.7364
▁emleget	-10.7365
hessen	-10.7367
▁demokráciá	-10.737
▁minimum	-10.737
kapcsol	-10.7371
▁felek	-10.7372
▁számomra	-10.7372
▁kilencven	-10.7373
▁Autó	-10.7374
▁történetét	-10.7375
▁vízszint	-10.7375
Abaúj	-10.7375
▁műanyag	-10.7376
▁Gold	-10.7377
▁munkatárs	-10.7378
▁kór	-10.738
kereszt	-10.738
jainak	-10.738
▁csoportos	-10.738
yn	-10.7381
nyúl	-10.7381
▁vihar	-10.7381
▁szlovén	-10.7383
ükre	-10.7385
▁gyalogos	-10.7393
▁statisztikai	-10.7395
ségben	-10.7403
▁előkészítés	-10.7404
▁csatorná	-10.7409
MK	-10.7409
▁mini	-10.7411
vonat	-10.7411
▁ellát	-10.7414
▁ítélt	-10.7419
jo	-10.7419
▁Szo	-10.742
▁lépést	-10.7422
▁megold	-10.7422
▁előrejelzés	-10.7424
▁180	-10.743
▁keresni	-10.7431
▁afrikai	-10.7432
▁sűrű	-10.7434
▁lennének	-10.7434
▁kiesés	-10.7435
▁erőteljes	-10.7435
▁multi	-10.7436
▁mondván	-10.7436
▁megállapodást	-10.7437
típus	-10.744
▁távozott	-10.744
▁terror	-10.7441
▁Tíz	-10.7442
szakadt	-10.7444
▁alapító	-10.7445
our	-10.7446
▁top	-10.7447
▁összege	-10.7451
▁aláírás	-10.7452
▁előadó	-10.7452
▁önmagában	-10.7452
▁3-2	-10.7454
▁mesél	-10.7455
▁alapos	-10.7457
▁67	-10.7458
▁tartalom	-10.7458
▁23.	-10.746
politika	-10.7461
párti	-10.7462
▁szomszédos	-10.7463
▁olimpiá	-10.7466
▁adós	-10.7468
▁nyitó	-10.7469
▁érő	-10.7472
▁73	-10.7472
▁magad	-10.7473
▁feladatok	-10.7474
▁demokrata	-10.7475
ím	-10.748
ille	-10.7483
szerint	-10.7483
▁2004	-10.7487
▁tudós	-10.7489
jéről	-10.7489
▁találkozón	-10.7489
▁GP	-10.7492
▁tucat	-10.7497
mutató	-10.7499
▁Juventus	-10.7499
▁Lendvai	-10.7499
▁készülnek	-10.7501
▁szemmel	-10.7506
▁reális	-10.7507
▁adatait	-10.7509
▁közti	-10.751
ogó	-10.7514
▁31.	-10.7515
▁Vona	-10.7517
fon	-10.752
▁válhat	-10.752
▁szerelem	-10.7522
hű	-10.7523
▁megnyer	-10.7528
▁fedezet	-10.753
▁elvi	-10.7531
▁könyvek	-10.7532
▁szület	-10.7543
▁kiegészítő	-10.7544
▁szakszervezetek	-10.7551
▁háztartás	-10.7551
gh	-10.7555
▁viszi	-10.7556
csuk	-10.7559
▁vásárlók	-10.7564
ukleáris	-10.7565
▁elhangzott	-10.7565
▁Schmitt	-10.7565
▁fogyasztó	-10.7565
▁sajtószabadság	-10.7565
▁Milyen	-10.7566
▁We	-10.7567
▁átfogó	-10.7568
▁pusztít	-10.7571
▁Blog	-10.7573
▁minőségű	-10.7574
▁vásár	-10.7574
▁csúsz	-10.7576
▁Bak	-10.7577
▁West	-10.7582
▁vizsgál	-10.7583
▁apja	-10.7584
▁kifizet	-10.7585
adat	-10.7585
▁terjedő	-10.7585
▁értelmez	-10.7586
▁belga	-10.7589
▁szór	-10.7589
▁régen	-10.7591
▁felvett	-10.7598
▁édes	-10.76
▁Hét	-10.76
▁Hal	-10.76
▁összefüggésben	-10.7601
▁FM	-10.7607
ákkal	-10.761
-10	-10.7612
tatták	-10.7615
▁játékot	-10.7619
▁pontja	-10.7619
▁do	-10.7621
gás	-10.7627
▁jégkorong	-10.763
▁Juhász	-10.7631
▁besorolás	-10.7631
▁iraki	-10.7631
▁kérdése	-10.7631
▁versenyen	-10.7631
▁teherautó	-10.7631
▁celeb	-10.7632
▁hibát	-10.7634
▁viszonyok	-10.7635
▁Fejér	-10.7635
▁hangzott	-10.7636
▁kötelez	-10.7636
▁áruház	-10.7637
▁képez	-10.7639
▁díja	-10.7642
láz	-10.7642
▁túlzott	-10.7644
SC	-10.7645
kert	-10.7645
▁előnye	-10.7648
▁okok	-10.7648
▁OVB	-10.7648
▁1,6	-10.7652
▁web	-10.7653
▁29-	-10.7658
▁áprilisban	-10.7663
▁dolgozói	-10.7666
▁fiatalabb	-10.767
▁juttatás	-10.7673
▁Ur	-10.7673
44	-10.7675
▁2005	-10.7675
▁érdeklődők	-10.7675
▁szerény	-10.7676
▁tagállamok	-10.7684
▁hátrányos	-10.7685
▁Magyarországot	-10.7687
▁jogot	-10.7688
Korea	-10.7694
▁vélik	-10.7695
kodott	-10.7696
▁Reuters	-10.7697
▁HVG	-10.7697
▁zajlott	-10.7697
▁ketten	-10.7697
▁Hatóság	-10.7697
▁Szervezet	-10.7697
▁tőlük	-10.7697
▁kedvéért	-10.7698
▁Ember	-10.7698
!)	-10.7699
▁légkör	-10.7699
▁címlap	-10.77
▁változik	-10.77
▁növeli	-10.7701
törő	-10.7702
▁parancsnok	-10.7703
testület	-10.7704
felvétel	-10.7704
▁fontosnak	-10.7705
▁hangsúlyoz	-10.7706
▁megöl	-10.7708
▁katasztrófá	-10.7711
▁szert	-10.7712
ódik	-10.7712
▁próbálják	-10.7713
▁terjeszt	-10.7715
▁Tv	-10.7716
▁show	-10.7717
gát	-10.7719
▁bio	-10.772
▁jósol	-10.7722
▁hátul	-10.7723
▁szerződések	-10.7727
▁játékvezető	-10.773
▁bevezetése	-10.7731
▁Il	-10.7731
örök	-10.7732
▁csal	-10.7733
▁megbízás	-10.7733
gazdaság	-10.7733
fizet	-10.7735
▁ígérte	-10.7736
közel	-10.7738
égett	-10.7739
▁mesé	-10.774
utas	-10.7744
bombá	-10.7747
▁foglalkoz	-10.7747
folyam	-10.775
▁1500	-10.775
str	-10.7752
▁kifogás	-10.7755
▁zárás	-10.7757
▁tisztség	-10.7757
▁lényege	-10.7759
▁szolgáltatók	-10.7761
▁Főügyészség	-10.7763
▁lassú	-10.7763
▁Viszont	-10.7763
▁jelentkezett	-10.7763
▁ragaszkod	-10.7764
▁Jenő	-10.7765
▁Mindkét	-10.7765
▁levő	-10.7765
▁hitelek	-10.7766
▁elfoglal	-10.7767
dön	-10.777
költség	-10.7771
felől	-10.7771
▁állapota	-10.7773
▁lop	-10.7773
▁Azonban	-10.7774
menni	-10.7777
yl	-10.7778
▁ünnepek	-10.7778
▁követett	-10.7779
▁kérés	-10.7782
▁állított	-10.7785
▁kezdeni	-10.7789
rs	-10.779
▁tárol	-10.779
▁betű	-10.7795
▁készítő	-10.7795
▁úti	-10.7795
▁csapás	-10.7796
ock	-10.7799
▁következtetés	-10.78
▁érdekel	-10.7801
▁adomány	-10.7802
ságú	-10.7803
▁ellátó	-10.7806
▁Akár	-10.7815
onként	-10.7819
▁kihagy	-10.7824
▁ápol	-10.7826
ity	-10.7827
akar	-10.783
▁téves	-10.783
▁forradalm	-10.7831
▁hibrid	-10.7831
▁miskolci	-10.7831
▁ritkán	-10.7831
▁kiadvány	-10.7831
▁plakát	-10.7831
▁betegségek	-10.7831
▁rangsor	-10.7831
▁kormányszóvivő	-10.7832
▁Dom	-10.7833
▁cserébe	-10.7834
▁Del	-10.7834
▁McLaren	-10.7835
▁teljesített	-10.7836
▁mexikói	-10.7836
▁fizetési	-10.7837
▁Éppen	-10.7838
▁kétharmad	-10.7839
▁játszhat	-10.7841
▁csatlakozott	-10.7841
lár	-10.7843
▁Gal	-10.7845
Y	-10.7845
ps	-10.7846
▁következményei	-10.7848
▁embere	-10.7851
vezér	-10.7851
▁szoci	-10.7852
adja	-10.7853
▁elérés	-10.7854
▁kialakítás	-10.7857
▁forgalomba	-10.786
▁keresnek	-10.786
▁félidőben	-10.7864
▁0,2	-10.7865
▁titok	-10.7869
▁Kár	-10.7869
essen	-10.7875
▁nyertek	-10.7879
▁számok	-10.7882
▁megbízható	-10.7887
név	-10.7887
▁kiterjed	-10.7889
▁váltotta	-10.7895
▁stressz	-10.7898
▁heves	-10.7899
▁füst	-10.79
▁Munka	-10.79
▁erőszakos	-10.7902
▁futott	-10.7905
király	-10.7907
▁Idő	-10.7907
▁vallás	-10.791
▁vártnál	-10.7911
▁riasztás	-10.7911
▁köd	-10.7913
▁kamerá	-10.7921
csal	-10.7922
▁nyitás	-10.7922
▁hoztak	-10.7926
einket	-10.7934
▁Japán	-10.7934
▁tagság	-10.7936
▁területet	-10.7936
▁egyúttal	-10.7939
65	-10.7939
▁betart	-10.7939
▁támogat	-10.7942
▁százalékról	-10.7944
▁átlép	-10.7946
fenntartó	-10.7948
▁műv	-10.7949
ped	-10.7951
▁tökéletesen	-10.7952
47	-10.7953
▁találkozót	-10.7955
▁1998-	-10.7964
▁Kl	-10.7965
▁Hamilton	-10.7966
▁League	-10.7966
▁bizonnyal	-10.7966
▁híján	-10.7966
▁nyolcadik	-10.7966
Zemplén	-10.7966
▁2014-	-10.7966
▁Külön	-10.7967
▁Máté	-10.7967
▁energiá	-10.7967
▁tárlat	-10.7968
▁megmarad	-10.7969
▁sért	-10.7969
▁José	-10.797
látó	-10.7971
▁ideális	-10.7971
több	-10.7973
szerkezet	-10.7975
▁akarat	-10.7975
▁gárda	-10.7978
▁pihen	-10.7979
▁tiltakoz	-10.798
▁Bács	-10.7981
▁mindegy	-10.7982
▁színvonal	-10.7986
▁rabló	-10.7987
▁tekinti	-10.7987
▁buk	-10.7988
sztár	-10.7993
▁zenei	-10.7993
▁viadal	-10.7997
össze	-10.8002
▁hajléktalan	-10.8003
▁felejt	-10.8003
▁Kíná	-10.8004
lőd	-10.8006
ggy	-10.8008
▁erősítette	-10.8009
▁lehetőségek	-10.8009
ala	-10.8011
növel	-10.8014
▁Wal	-10.8015
hr	-10.8015
▁rém	-10.8017
▁megerősít	-10.8019
▁Ex	-10.802
▁bővül	-10.802
telenül	-10.8022
▁állást	-10.8022
▁Fed	-10.8022
▁&	-10.8026
▁többé	-10.8026
▁Karácsony	-10.8035
▁süllyed	-10.8035
▁Endre	-10.8035
▁Petr	-10.8035
▁Frank	-10.8035
▁Törökország	-10.8035
1)	-10.8036
▁Jack	-10.8039
▁epizód	-10.8042
ozták	-10.8042
▁ajánlás	-10.8046
sanak	-10.8046
39	-10.8047
▁álom	-10.8056
nám	-10.8056
▁63	-10.8057
▁változtatni	-10.8059
▁Pl	-10.8059
gólos	-10.806
▁vetett	-10.806
kár	-10.8063
ásakor	-10.8065
▁felfedez	-10.8066
íg	-10.8067
beszéd	-10.8068
▁130	-10.8068
lesz	-10.8068
▁műsorában	-10.8069
ölte	-10.8069
▁állampolgárok	-10.807
alitás	-10.8073
▁Can	-10.8075
▁listán	-10.8076
▁kivált	-10.8077
▁kiesett	-10.8077
▁üzen	-10.8078
▁hetven	-10.8078
ác	-10.8079
▁emelet	-10.808
▁felismer	-10.8082
▁érdeklőd	-10.8087
▁győz	-10.8091
figurá	-10.8094
▁far	-10.8095
▁Vissza	-10.8103
▁lélek	-10.8104
▁Premier	-10.8104
▁Szijjártó	-10.8104
▁Valutaalap	-10.8104
▁berlini	-10.8104
▁valahol	-10.8104
▁Demszky	-10.8104
▁November	-10.8104
▁intézkedéseket	-10.8104
▁hírportál	-10.8104
▁oroszok	-10.8105
▁felsorol	-10.8106
▁feladatot	-10.8107
gyógy	-10.8108
▁gyilkos	-10.8109
▁Költségvetési	-10.811
cker	-10.8111
lni	-10.8112
▁su	-10.8114
▁Sar	-10.8116
▁koncentráció	-10.8117
▁nehézségek	-10.8119
▁gondolta	-10.812
89	-10.812
▁gondoltam	-10.8123
▁beszámolt	-10.8127
▁mutatta	-10.8129
▁Halál	-10.8131
▁módosít	-10.8132
▁ellenőriz	-10.8135
by	-10.8138
▁bukás	-10.8139
▁kérdéses	-10.8142
▁rögzít	-10.8144
▁sújtotta	-10.8144
▁visszatért	-10.8147
▁közöl	-10.8149
ssa	-10.8149
▁bizalm	-10.815
▁egyetért	-10.8152
▁par	-10.8154
▁ebbe	-10.8159
cha	-10.8159
▁hetek	-10.8166
▁aláír	-10.8167
Magyarország	-10.8167
tört	-10.8168
szállító	-10.8171
álták	-10.8173
▁érdem	-10.8173
▁Kereskedelmi	-10.8173
▁másodfokú	-10.8173
▁6:4	-10.8173
▁szokott	-10.8173
▁lakói	-10.8174
külön	-10.8175
▁Nico	-10.8177
▁elnökválasztás	-10.8178
▁elnökének	-10.8179
papír	-10.8181
▁helyezték	-10.8182
▁2001-	-10.8183
▁vám	-10.8185
▁Kap	-10.8185
enye	-10.8185
▁sikert	-10.8186
▁bejegyzés	-10.8187
▁mutatták	-10.8188
jelentés	-10.8197
ij	-10.8199
▁döntését	-10.82
▁kritiká	-10.8207
▁válaszolta	-10.821
▁érdemi	-10.8215
olvad	-10.8216
▁Hírügynökség	-10.8216
▁0,5	-10.822
▁jelző	-10.822
▁fejlesztő	-10.822
▁keresett	-10.822
▁elősegít	-10.8221
▁eltávolít	-10.8221
mus	-10.8223
▁joga	-10.8226
▁ajánlatot	-10.8229
▁sorra	-10.823
▁visszatérés	-10.823
▁elutasít	-10.8235
▁Szu	-10.8237
▁indulhat	-10.8238
▁pártja	-10.8239
▁Azóta	-10.8239
▁Akadémia	-10.8243
▁Csongrád	-10.8243
▁esedékes	-10.8243
▁gyökere	-10.8243
▁avat	-10.8243
▁párhuzamosan	-10.8243
Kiskun	-10.8243
▁mindkettő	-10.8244
▁emberölés	-10.8244
▁Szlovákia	-10.8245
ügyben	-10.8248
▁kilátás	-10.825
▁má	-10.8255
▁hatályos	-10.8255
▁Ellen	-10.8256
▁jelöltje	-10.8257
▁Star	-10.8258
▁mese	-10.8258
▁pályáz	-10.8258
kozás	-10.8259
▁stúdió	-10.8259
▁rajz	-10.8263
▁helyzetét	-10.8266
▁elkészítés	-10.8267
▁elemzői	-10.8269
▁fejét	-10.8269
▁hozzájárul	-10.8272
▁építkezés	-10.8275
▁kapták	-10.8276
képes	-10.8278
▁írják	-10.8278
▁Január	-10.828
▁labda	-10.8281
sztó	-10.8282
▁mentek	-10.8286
▁állampolgárság	-10.8288
▁szerepét	-10.8289
▁hagyott	-10.829
▁szerepelnek	-10.8292
▁Külföld	-10.8296
▁legjobbja	-10.8297
▁feltételez	-10.8297
▁számla	-10.8299
▁bot	-10.83
▁világot	-10.8301
▁nagykövetség	-10.8303
▁látom	-10.8303
▁foglalt	-10.8307
▁bocsát	-10.8312
▁megtesz	-10.8313
▁abszolút	-10.8313
▁túlságosan	-10.8313
▁megjelenő	-10.8313
▁Kárpát	-10.8314
▁óvodá	-10.8314
biztos	-10.8314
▁hírt	-10.8315
▁árbevétel	-10.8315
▁Roland	-10.8316
negyed	-10.8319
▁Tech	-10.8319
főnök	-10.832
▁munkába	-10.8321
;"	-10.8322
▁pedagógus	-10.8323
▁Papp	-10.8323
▁vonta	-10.8323
fegyver	-10.8324
▁Bab	-10.8326
▁eredményeként	-10.833
▁jogosult	-10.833
▁iratok	-10.833
▁oldalak	-10.8332
▁tünetek	-10.8332
▁támadt	-10.8333
▁amennyi	-10.8336
▁mindenféle	-10.8337
▁hozzájárulás	-10.8342
▁házban	-10.8344
▁trükk	-10.8346
▁javul	-10.8347
atív	-10.8348
▁ujj	-10.8348
02	-10.835
▁kód	-10.835
▁mon	-10.8351
vető	-10.8352
▁27.	-10.8352
con	-10.8353
▁69	-10.8354
▁nyugdíjba	-10.8358
▁barátja	-10.8359
▁bizottságának	-10.8359
▁Q	-10.836
▁felét	-10.8361
bil	-10.8362
lánc	-10.8364
▁velem	-10.8364
ová	-10.837
▁900	-10.8372
▁Hel	-10.8375
rand	-10.8375
▁mentés	-10.8376
▁soros	-10.8376
▁motoros	-10.838
tulajdonos	-10.8382
▁vál	-10.8382
▁nincsen	-10.8382
▁elképesztő	-10.8384
▁Gabriella	-10.8385
▁video	-10.8385
▁tőké	-10.8385
▁földgáz	-10.8386
▁reptér	-10.8386
▁létrejött	-10.8386
▁bál	-10.8386
▁has	-10.8389
▁amiatt	-10.839
▁Nov	-10.839
▁Hiába	-10.839
▁irányuló	-10.8392
▁munkaadó	-10.8394
csarnok	-10.8394
ogató	-10.8395
lemez	-10.8398
▁roham	-10.8402
▁következménye	-10.8402
▁Je	-10.8404
▁keresik	-10.8404
válasz	-10.8407
szél	-10.8412
▁akartak	-10.8414
▁fárad	-10.8417
▁szeretném	-10.842
▁Egyes	-10.842
dott	-10.8426
ítható	-10.8429
▁bevet	-10.8432
▁hatékonyabb	-10.8434
pen	-10.8434
▁terem	-10.8435
hetné	-10.8435
rg	-10.8436
48	-10.8441
▁fenyegetés	-10.8447
▁nyomozó	-10.8447
▁folyamatok	-10.8451
▁tájékozód	-10.8456
▁rendőri	-10.8456
▁szálloda	-10.8456
▁adatbázis	-10.8456
▁alkalmából	-10.8457
abbá	-10.846
nkat	-10.8461
▁foglalkoztat	-10.8461
▁kitalál	-10.8462
▁men	-10.8463
▁Kanada	-10.8465
▁közelmúltban	-10.8468
nyolc	-10.8468
vissza	-10.8469
▁gyerekeket	-10.8471
▁májusban	-10.8474
▁nyilatkozó	-10.8476
▁próba	-10.8476
▁könyvtár	-10.8479
atott	-10.8479
▁mondom	-10.8479
▁célra	-10.8479
▁siet	-10.848
▁tért	-10.848
▁fejlesztések	-10.8482
▁megelőz	-10.8483
▁merült	-10.8486
▁Bra	-10.8492
kciós	-10.8496
▁visszalép	-10.8497
vidék	-10.85
cent	-10.8502
ésekor	-10.8504
▁pót	-10.8505
helyek	-10.8505
elnökség	-10.8507
▁Ken	-10.8508
▁Juli	-10.8509
▁Szövetsége	-10.8512
▁engedélyt	-10.8514
▁kezdeményezte	-10.8515
▁kezdi	-10.8517
▁számot	-10.8518
▁főút	-10.8518
▁jogát	-10.852
▁szintre	-10.8524
▁gyengé	-10.8524
▁nyelven	-10.8525
▁frakcióvezető	-10.8526
etlenség	-10.8526
▁főszereplő	-10.8526
▁Kur	-10.8527
▁Mexikó	-10.8528
▁Kórház	-10.8528
▁Rogán	-10.8528
▁tréner	-10.8528
▁elbeszélés	-10.8528
▁érettségi	-10.8528
▁Norbert	-10.8528
▁befolyásolja	-10.8529
▁Tehát	-10.8529
▁forgó	-10.8529
▁meghaladta	-10.8531
▁válaszol	-10.8531
▁költött	-10.8531
▁kispad	-10.8534
▁alelnök	-10.8537
▁88	-10.8538
95	-10.854
▁ügylet	-10.8541
▁szemlélet	-10.8543
történeti	-10.8543
emlék	-10.8545
▁szenvedély	-10.8546
▁magunkat	-10.8546
▁próbált	-10.8546
▁megváltoztat	-10.8548
▁Margit	-10.8549
▁szóban	-10.855
▁Ü	-10.8553
OR	-10.8554
kocká	-10.8555
hatók	-10.8555
▁térd	-10.8555
-20	-10.8556
▁neves	-10.8556
▁zuhant	-10.8556
▁kul	-10.8557
▁Ch	-10.8562
▁hiányában	-10.8562
kás	-10.8563
▁Mac	-10.8563
▁állhat	-10.8565
▁bizonyított	-10.8565
▁vonalon	-10.8567
▁kerék	-10.8568
▁szolgáltatást	-10.8569
▁mennek	-10.8571
▁kop	-10.8572
2010	-10.8574
czy	-10.8575
▁Annak	-10.858
nézet	-10.858
▁jutni	-10.8591
▁Don	-10.8593
▁Vannak	-10.8595
▁gazdálkodás	-10.8597
▁léphet	-10.8599
▁afgán	-10.86
zött	-10.86
▁növekedése	-10.8601
▁lépcső	-10.8601
▁elutasította	-10.8602
áris	-10.8603
▁dönteni	-10.8603
▁fűtés	-10.8604
Britannia	-10.8604
▁magyarázza	-10.8604
▁modellek	-10.8605
▁vallási	-10.8605
▁kongresszus	-10.8605
▁hajnali	-10.8609
▁81	-10.8609
▁óv	-10.861
▁időnként	-10.8611
▁76	-10.8611
▁rendezvényen	-10.8612
▁éreztem	-10.8614
lus	-10.8614
▁honlapja	-10.8617
▁tulajdonában	-10.8617
rablás	-10.8618
▁rendszerbe	-10.8618
▁kutatások	-10.8618
▁jártak	-10.862
cio	-10.8621
▁szabott	-10.8624
▁aukció	-10.8625
▁melletti	-10.863
▁hossz	-10.8633
▁Sta	-10.8633
▁ruha	-10.8633
▁őriz	-10.8634
▁fertőzés	-10.8634
▁Kell	-10.8635
▁fenyeget	-10.8636
▁hagyni	-10.8638
hettek	-10.8638
▁zöldség	-10.8644
▁külügy	-10.8644
zene	-10.865
▁hatósági	-10.8652
▁rég	-10.8653
▁túli	-10.8655
zünk	-10.8659
▁mesélte	-10.8659
▁mindezt	-10.8659
övet	-10.8659
▁tömeges	-10.8663
▁érintettek	-10.8663
▁Női	-10.8667
▁Sc	-10.8668
▁legtöbben	-10.8668
▁tartományban	-10.8668
▁befektető	-10.8669
▁tapasztal	-10.867
ring	-10.8672
▁Journal	-10.8673
▁Moody	-10.8673
▁bizalom	-10.8673
▁hitelminősítő	-10.8673
▁Önkormányzat	-10.8673
▁újonnan	-10.8673
▁bécsi	-10.8673
▁győri	-10.8673
▁maximális	-10.8674
dioxid	-10.8674
▁velünk	-10.8674
▁tenné	-10.8678
▁csökkenteni	-10.8679
lista	-10.8679
▁hónapjában	-10.868
▁tűzoltó	-10.8681
▁Iván	-10.8683
kereskedő	-10.8687
kérdés	-10.8687
▁kikapott	-10.8688
▁140	-10.869
▁marketing	-10.8693
▁célba	-10.8694
▁történetében	-10.8695
gin	-10.8697
▁megtanul	-10.8697
▁aznap	-10.8698
▁egyenesen	-10.8699
▁Közlekedési	-10.8701
▁gyakorlati	-10.8701
▁adag	-10.8707
▁havas	-10.8707
▁agresszív	-10.8707
▁ábrázol	-10.8712
42	-10.8712
▁megakadályoz	-10.8712
ültek	-10.8713
óka	-10.8718
ázás	-10.8718
vonulás	-10.8723
▁(27	-10.8728
▁Tele	-10.8728
▁esztendős	-10.8732
keret	-10.8734
▁szövetséges	-10.8737
▁inflációs	-10.874
▁szúr	-10.8744
▁elmélet	-10.8744
▁barátnő	-10.8745
▁Navracsics	-10.8747
▁Totalcar	-10.8747
▁minősül	-10.8747
▁növekvő	-10.8747
▁anélkül	-10.8747
▁tilos	-10.8747
▁ülő	-10.8748
▁dollárra	-10.8749
▁holnap	-10.8751
Be	-10.8751
▁Jobb	-10.8751
▁bármikor	-10.8752
▁zárult	-10.8752
▁meghaladó	-10.8752
▁származik	-10.8753
▁ezáltal	-10.8754
▁felfüggesztés	-10.8755
▁Jász	-10.8755
▁szigorítás	-10.8755
▁ítéletet	-10.8757
▁bármelyik	-10.8759
▁Bence	-10.8759
▁építőipar	-10.8759
▁jövedelme	-10.8759
kártyá	-10.876
▁háborús	-10.8762
▁Cso	-10.8763
▁becsület	-10.8765
okért	-10.8768
▁nagyváros	-10.8768
rid	-10.8769
asztal	-10.877
▁jele	-10.8774
▁képzel	-10.8777
▁Román	-10.8785
umb	-10.8789
▁számolni	-10.8791
▁vész	-10.8795
sziget	-10.8796
▁kaptam	-10.8801
▁váll	-10.8803
▁százalékuk	-10.8806
▁értem	-10.8806
▁bejelent	-10.8806
▁terhesség	-10.8808
▁megszerez	-10.8814
▁szakma	-10.8817
▁cselekmény	-10.8821
▁kollégái	-10.8821
▁kosárlabda	-10.8821
▁jobbikos	-10.8821
▁népesség	-10.8822
▁bűnügyi	-10.8822
▁találkozik	-10.8826
▁bicikli	-10.8827
▁kombi	-10.8828
▁iskolában	-10.8828
▁fű	-10.8829
▁főnök	-10.883
▁album	-10.8832
▁csökkenti	-10.8832
kereskedelem	-10.8835
finanszírozás	-10.8836
▁részesül	-10.8842
▁elindult	-10.8845
▁(4	-10.8847
▁működtet	-10.8856
▁86	-10.8857
▁kapni	-10.8864
▁meteor	-10.8865
▁században	-10.8867
▁műve	-10.8869
▁alkotmányos	-10.8873
▁munkálatok	-10.8884
▁gyermeket	-10.8886
▁táblá	-10.8888
▁négyes	-10.889
▁Biztos	-10.8894
▁Ukrajna	-10.8895
▁helikopter	-10.8895
▁elfogták	-10.8895
▁Raj	-10.8896
▁igazolt	-10.8897
▁Honda	-10.8897
▁szlovákiai	-10.8898
▁ékszer	-10.8898
▁gázolaj	-10.89
ítanak	-10.89
tervezet	-10.8901
▁lemondott	-10.8904
▁Kaposvár	-10.8904
▁2002	-10.8906
▁pat	-10.8906
▁Érdekes	-10.8906
▁töltötte	-10.8911
▁Kup	-10.8911
▁időközben	-10.8912
▁szálló	-10.8914
▁útján	-10.8916
utat	-10.8918
▁rohan	-10.8919
▁megtámad	-10.892
vevő	-10.892
43	-10.8922
▁Csa	-10.8926
atta	-10.8927
értéke	-10.8928
▁megítélés	-10.8928
ever	-10.8931
▁felhasználás	-10.8932
▁támogatása	-10.8934
személy	-10.8934
▁megkapta	-10.8936
▁Svájc	-10.8937
▁lóerő	-10.8942
▁felmérése	-10.8944
▁jegyzés	-10.8945
▁kényszerít	-10.8945
▁rejtett	-10.8946
▁vezethet	-10.8947
▁váró	-10.8952
▁hibás	-10.8952
▁mérnök	-10.8955
ebbek	-10.896
▁felszerelt	-10.896
hús	-10.8961
szakasz	-10.8961
▁használata	-10.8965
▁minősít	-10.8967
▁Cseh	-10.8971
▁Jézus	-10.8971
▁Kósa	-10.8971
▁alvás	-10.8971
▁finálé	-10.8971
▁szabálysértés	-10.8971
▁szolgált	-10.8972
▁gyorsabb	-10.8972
▁megoldani	-10.8973
▁célpont	-10.8973
▁Johnson	-10.8974
RC	-10.8975
▁támogatási	-10.8978
▁remekül	-10.8981
▁művészeti	-10.8981
▁270	-10.8983
gyűjtő	-10.8986
▁Pénteken	-10.8986
▁festmény	-10.899
▁rejt	-10.8993
▁kutatói	-10.8993
▁blokk	-10.8994
car	-10.8994
▁pe	-10.8994
▁köteles	-10.8995
ztatás	-10.8997
▁növeked	-10.8997
tartalm	-10.8999
ace	-10.9002
▁vádat	-10.9002
▁komment	-10.9003
▁amiket	-10.9008
▁jóvá	-10.9012
▁ellentétes	-10.9013
▁26.	-10.9015
▁Horn	-10.9017
68	-10.9017
▁hangos	-10.9019
▁jogerős	-10.9021
▁bejelentése	-10.9027
tánc	-10.903
Környezetvédelmi	-10.903
▁Német	-10.9032
▁dohány	-10.9034
▁profit	-10.9037
▁drámai	-10.904
▁Assange	-10.9046
▁Egyébként	-10.9046
▁bosszú	-10.9046
▁csecsemő	-10.9046
▁Black	-10.9046
▁enyhe	-10.9046
▁konyha	-10.9046
▁értelemben	-10.9046
▁távozás	-10.9047
▁Például	-10.9047
▁izg	-10.9047
▁árverés	-10.9048
▁bejelentett	-10.9049
▁vékony	-10.9049
▁elnevezésű	-10.9049
▁meghallgatás	-10.905
lab	-10.9051
▁olykor	-10.9052
▁kértek	-10.9053
▁kiegészít	-10.9053
▁szórakoztató	-10.9054
▁Ram	-10.9055
▁tó	-10.9055
▁utcára	-10.9056
▁veszített	-10.9058
▁Pont	-10.9061
folyó	-10.9063
▁vezetőjét	-10.9064
▁kérdezte	-10.9064
▁gondolják	-10.9067
▁foglalkoztatott	-10.9071
▁irányába	-10.9072
▁Franc	-10.9072
hl	-10.9073
▁ív	-10.9074
▁kur	-10.9076
▁nyíl	-10.9077
▁juthat	-10.9079
számú	-10.9079
▁tánc	-10.908
ecse	-10.9082
▁Víz	-10.9087
▁festő	-10.9089
▁jöttek	-10.9089
▁Vízügy	-10.9089
▁földön	-10.9094
▁szembeni	-10.9099
▁vidék	-10.9101
ajtó	-10.9101
▁indítottak	-10.9102
▁Cr	-10.9102
▁tisztességes	-10.9103
vidéki	-10.9106
▁no	-10.9114
▁mos	-10.9117
▁Wall	-10.9118
▁érv	-10.9118
52	-10.9121
▁cégnek	-10.9121
▁ragad	-10.9122
▁Dzsudzsák	-10.9123
▁Teljes	-10.9123
▁Nyilván	-10.9123
▁kancellár	-10.9123
▁ilyesmi	-10.9123
▁póló	-10.9123
▁6:3	-10.9123
▁bevezet	-10.9126
▁ütem	-10.9126
▁hihetetlen	-10.9126
▁SZ	-10.9126
▁vonz	-10.9127
▁utazott	-10.9129
heim	-10.913
▁Eredmények	-10.913
▁múlik	-10.9132
erek	-10.9135
ney	-10.9136
▁szerencs	-10.9137
▁szavazni	-10.9138
▁foglaltak	-10.9139
sérülés	-10.9139
▁jelentősége	-10.9145
akadt	-10.9147
▁megelőzés	-10.915
nként	-10.915
pör	-10.9153
▁konferenciá	-10.9156
▁lehetőségei	-10.9157
világbajnokság	-10.916
▁érhet	-10.9161
EM	-10.9165
▁kormánya	-10.9165
ükkel	-10.9165
▁Párizs	-10.9167
hin	-10.9168
▁eltérés	-10.9169
▁októberi	-10.917
▁befizetés	-10.9172
roll	-10.9172
▁szállít	-10.9172
ish	-10.9175
gól	-10.9177
▁előírások	-10.9178
▁Erős	-10.9178
művek	-10.9179
ling	-10.918
▁szólva	-10.9181
alkotás	-10.9184
▁szigor	-10.9184
▁nappali	-10.9188
összeg	-10.9191
▁forintnyi	-10.9192
▁Va	-10.9194
▁változatlan	-10.9198
▁Szolgálat	-10.92
▁növekszik	-10.92
▁szenátus	-10.92
▁rájátszás	-10.92
▁legszebb	-10.92
▁megnyitó	-10.92
▁romlott	-10.92
▁láthatóan	-10.92
▁háromszor	-10.92
▁nemrégiben	-10.92
▁Fernando	-10.9201
▁ízlés	-10.9201
▁homok	-10.9201
▁foglalkozni	-10.9202
vad	-10.9203
▁fiúk	-10.9205
jek	-10.9206
▁létrehozott	-10.9207
▁híresség	-10.9208
fejlesztési	-10.9208
▁utánpótlás	-10.9209
ukkal	-10.9209
▁árnyék	-10.921
▁javasol	-10.921
▁Össze	-10.9211
▁Tal	-10.9212
▁pornó	-10.9214
▁Jones	-10.9214
fürdő	-10.9217
▁mindenhol	-10.9217
Fidesz	-10.9217
▁útvonal	-10.9219
▁1,1	-10.9222
fr	-10.9223
▁részleg	-10.9226
kiállítás	-10.9227
ardo	-10.9229
87	-10.923
▁71	-10.9231
hn	-10.9232
épület	-10.9235
▁autóval	-10.9236
lay	-10.9237
▁mentes	-10.9239
▁listavezető	-10.9239
színű	-10.9241
▁vállalkozók	-10.9243
▁médiá	-10.9244
▁vevők	-10.9252
▁centiméteres	-10.9253
▁büntetést	-10.9258
▁fejlőd	-10.9258
▁Sam	-10.9258
erről	-10.9262
▁választást	-10.9262
techniká	-10.9262
▁regisztrált	-10.9264
váz	-10.9268
húzó	-10.9271
▁megkérdezettek	-10.9276
gatta	-10.9277
▁Mátyás	-10.9277
▁tisztségviselő	-10.9277
▁belföldi	-10.9277
▁Gólszerző	-10.9277
▁állásfoglalás	-10.9277
▁kering	-10.9278
▁robot	-10.9278
20-	-10.9279
▁készíteni	-10.9281
▁lemarad	-10.9281
angol	-10.9282
▁−	-10.9282
▁kivételével	-10.9282
▁értékes	-10.9283
édi	-10.9283
▁devizá	-10.9284
▁felsőoktatási	-10.9284
▁tízmillió	-10.9284
▁tárgyak	-10.9285
▁int	-10.9288
▁takarít	-10.9289
▁lyuk	-10.929
▁fektet	-10.9292
▁labdá	-10.9294
▁szakemberei	-10.9294
működés	-10.9299
▁FTC	-10.93
▁ismertette	-10.9301
II	-10.9304
▁köv	-10.9305
▁egymástól	-10.9305
▁Pin	-10.9308
▁érdekeit	-10.9309
▁összegű	-10.9311
helyett	-10.9312
rr	-10.9314
▁Em	-10.9317
▁belüli	-10.9318
▁Cu	-10.9318
jüket	-10.9319
▁aláírt	-10.9323
▁mutatnak	-10.9323
▁110	-10.933
▁tűnő	-10.933
eiből	-10.9333
▁helyezte	-10.9334
▁hatásai	-10.9334
▁190	-10.9335
zunk	-10.9335
▁pénztárak	-10.9336
▁Hasonló	-10.9341
jaként	-10.9343
▁Vo	-10.9345
lám	-10.9345
▁Kim	-10.9346
▁viselt	-10.9347
▁mindennapi	-10.935
essék	-10.9354
▁DNS	-10.9355
▁Brown	-10.9355
▁Polgár	-10.9355
▁Street	-10.9355
▁imád	-10.9356
▁összefoglaló	-10.9357
ülni	-10.9357
ligában	-10.9357
▁egyedülálló	-10.9358
▁támogatását	-10.9358
▁árvíz	-10.9359
▁sújt	-10.936
▁utaz	-10.9363
▁tucatnyi	-10.9368
elet	-10.9368
olo	-10.9369
▁kijelölt	-10.9369
▁tartás	-10.9369
▁mégpedig	-10.9371
▁Szlovákiában	-10.9372
▁szabadul	-10.9372
gyűjtemény	-10.9374
műsor	-10.9375
▁becslések	-10.9377
▁diplomá	-10.9379
▁korszerű	-10.938
változat	-10.938
▁szenvedő	-10.9383
▁cukor	-10.9383
▁Sun	-10.9383
▁megválasztott	-10.9384
▁százalékban	-10.9385
▁kormánypárti	-10.9388
▁természeti	-10.939
▁támaszt	-10.9392
▁bánt	-10.9392
▁Un	-10.9395
▁tengeri	-10.9398
cská	-10.9401
▁szerkesztő	-10.9402
▁indok	-10.9403
▁29.	-10.9405
ünkre	-10.9407
▁megvalósításá	-10.9411
▁tevékenységét	-10.9413
▁játszottak	-10.9414
▁csúszott	-10.9415
▁idegenben	-10.9416
ern	-10.9417
▁Kér	-10.9418
▁születésnap	-10.9418
ájának	-10.9421
▁feladatokat	-10.9422
▁termel	-10.9425
▁lépni	-10.9426
biztosítás	-10.9426
▁ősi	-10.9428
▁válás	-10.9429
▁kezel	-10.943
▁bukott	-10.9431
▁bölcs	-10.9432
▁Melinda	-10.9434
▁Microsoft	-10.9434
▁legkevesebb	-10.9434
▁életre	-10.9434
▁számunkra	-10.9434
▁Pannon	-10.9434
▁veszélyeztet	-10.9434
▁Lyon	-10.9434
▁hazud	-10.9434
▁magzat	-10.9435
▁extra	-10.9435
▁Ismer	-10.9436
▁áradás	-10.9436
▁újonc	-10.9437
▁Annyi	-10.9437
▁Ernő	-10.9437
▁lehetőségeket	-10.9438
▁szomorú	-10.9441
▁Gál	-10.9443
▁kitért	-10.9444
▁fenyegető	-10.9444
pedig	-10.9444
▁bekerül	-10.9448
▁dolgoztak	-10.9449
▁embereknek	-10.9449
▁színű	-10.9449
▁ellenség	-10.9451
kívül	-10.9452
szakértő	-10.9454
▁eléri	-10.9454
ztak	-10.9455
▁teljesítményt	-10.9456
▁kint	-10.9458
▁para	-10.9459
63	-10.9459
nyíl	-10.9461
▁szóval	-10.9461
▁minősítés	-10.9462
▁érezte	-10.9463
▁350	-10.9465
qui	-10.9465
▁holott	-10.9466
ox	-10.9466
▁tervezés	-10.9469
▁ekkora	-10.947
▁parlamentbe	-10.947
▁leírás	-10.9474
▁szolgálja	-10.9474
▁indokol	-10.9475
ezve	-10.9476
hajtó	-10.9477
▁eszközöket	-10.9479
▁javasolta	-10.948
beteg	-10.9482
nyelv	-10.9485
▁4,5	-10.9485
69	-10.9487
▁decemberi	-10.9488
▁körök	-10.949
fekt	-10.9495
▁állították	-10.9496
házi	-10.9498
57	-10.9498
tűz	-10.9501
▁elnöksége	-10.9501
▁kártyá	-10.9504
▁Eredmény	-10.9505
▁versenyben	-10.9509
hatná	-10.9509
mir	-10.9512
▁Volkswagen	-10.9513
▁legalacsonyabb	-10.9513
▁Devecser	-10.9513
▁Nyolc	-10.9513
▁turisztikai	-10.9513
▁Katona	-10.9513
▁nyomaték	-10.9513
▁tömegközlekedés	-10.9514
úttal	-10.9514
▁kézzel	-10.9515
▁előterjesztés	-10.9516
▁szeg	-10.9517
▁házkutatás	-10.9517
▁ura	-10.9517
robbant	-10.9518
tartalmú	-10.952
▁Paks	-10.9522
▁ügyfelei	-10.9522
ügyek	-10.9523
▁irányba	-10.9524
rúg	-10.9526
érdek	-10.9526
▁premier	-10.9527
▁Ausztriában	-10.9528
▁jegyzett	-10.9531
▁Szövetségének	-10.9532
tatja	-10.9532
▁négyzetméteres	-10.9534
család	-10.9535
fut	-10.9535
ázni	-10.9537
▁katoná	-10.9542
och	-10.9544
ékeny	-10.9545
▁egyenes	-10.9546
▁megindul	-10.9552
sky	-10.9553
▁bővít	-10.9555
▁ellop	-10.9559
▁US	-10.9565
▁hitelt	-10.957
mad	-10.957
▁akarok	-10.9571
▁használó	-10.9573
▁rám	-10.9573
▁süt	-10.9575
88	-10.9576
▁lépéseket	-10.9578
▁főigazgató	-10.9579
▁hagyja	-10.9579
▁Louis	-10.958
▁Lap	-10.9581
▁96	-10.9581
▁Richard	-10.9581
▁mozdulat	-10.9583
▁árát	-10.9585
ance	-10.9585
hit	-10.9591
▁kín	-10.9592
▁tisztán	-10.9592
▁minőségi	-10.9592
▁partnere	-10.9593
▁Rózsa	-10.9593
▁Takács	-10.9593
▁megegyezés	-10.9593
▁Hamburg	-10.9594
▁potenciális	-10.9594
▁tanult	-10.9595
ájában	-10.96
▁0,4	-10.9602
éria	-10.9603
vezetője	-10.9605
▁bolgár	-10.9605
▁növekedési	-10.9607
▁szavazott	-10.9609
▁gyorsabban	-10.9611
▁integráció	-10.9612
▁változata	-10.9618
tartozás	-10.9618
hova	-10.9618
▁tartoznak	-10.962
ánc	-10.962
láb	-10.962
▁jelentkező	-10.9623
▁elrendel	-10.9625
▁0,1	-10.9625
▁gyakorolt	-10.9625
▁kortárs	-10.9628
▁Európá	-10.9628
▁közepé	-10.9629
jegyzés	-10.9629
▁télen	-10.9633
▁Közel	-10.9633
-100	-10.9635
▁elme	-10.9635
játékos	-10.9636
▁hatékonyság	-10.9637
▁Szám	-10.9637
▁ünnepség	-10.9639
▁baba	-10.9644
▁építész	-10.9648
▁Ze	-10.9653
hozott	-10.9655
▁bezár	-10.9655
▁támadások	-10.9656
szán	-10.9663
▁létrehoz	-10.9664
▁függetlenség	-10.9665
▁3,8	-10.9666
▁beáll	-10.9669
▁bukkan	-10.967
▁tenisz	-10.9673
▁Nyomtatás	-10.9674
▁World	-10.9674
▁brüsszeli	-10.9674
▁kategória	-10.9674
▁tragédiá	-10.9674
▁megfontol	-10.9674
▁Attilá	-10.9674
▁belügyminiszter	-10.9674
▁retteg	-10.9674
▁Hiszen	-10.9674
▁megváltozott	-10.9675
▁drágább	-10.9677
▁elvileg	-10.9677
▁számtalan	-10.9679
▁szereti	-10.9682
▁Pá	-10.9682
▁jogász	-10.9683
▁Ausztria	-10.9684
▁jegyében	-10.9684
▁jeges	-10.9686
▁listáján	-10.9687
látás	-10.9692
▁életem	-10.9692
▁címe	-10.9694
▁épületek	-10.9695
Európa	-10.9696
▁csavar	-10.9697
assák	-10.9698
▁formál	-10.9699
▁vizsgálata	-10.97
zá	-10.97
▁viselő	-10.9703
▁folytatni	-10.9704
▁SE	-10.9707
▁82	-10.9707
▁vitát	-10.9707
▁mélység	-10.9708
▁beszámolója	-10.9709
▁eljárások	-10.9709
▁körű	-10.9712
▁pénzintézet	-10.9712
▁játékosai	-10.9715
▁úszó	-10.9722
ella	-10.9723
▁vitt	-10.9727
▁Os	-10.9728
odó	-10.9731
▁erősíti	-10.9733
▁Tri	-10.9735
miféle	-10.9735
▁kihirdet	-10.9735
▁kereskedők	-10.9739
▁Hun	-10.9741
igény	-10.9743
▁kérő	-10.9744
umot	-10.9745
jogi	-10.975
46	-10.9752
▁Rend	-10.9752
▁örökség	-10.9752
▁Chris	-10.9754
alko	-10.9754
▁Vörös	-10.9755
▁Február	-10.9755
▁hozzátartozó	-10.9755
▁éjfél	-10.9755
▁továbbjutás	-10.9755
▁kábel	-10.9755
▁havonta	-10.9755
▁jegyzőkönyv	-10.9756
▁főszerep	-10.9756
▁tanácskozás	-10.9757
gé	-10.9757
állat	-10.9758
▁Fü	-10.9759
▁felvetés	-10.976
▁némileg	-10.976
▁3-1	-10.9762
▁megszólal	-10.9763
▁mozgalom	-10.9767
▁kisebbség	-10.9768
▁alkatrész	-10.9769
▁megszerezte	-10.9778
vesztés	-10.9781
cell	-10.9782
▁keresi	-10.9783
rém	-10.9783
▁védelm	-10.9786
▁számban	-10.9786
▁rövidebb	-10.9787
▁koránt	-10.9787
▁tekintett	-10.9788
▁koroná	-10.979
▁sikeresen	-10.9791
bocs	-10.9792
OL	-10.9794
▁28.	-10.9795
▁utazó	-10.9797
▁fenntartható	-10.9798
▁kétezer	-10.9798
▁olyanok	-10.98
▁ellenállás	-10.9802
verés	-10.9802
blog	-10.9803
▁nyomoz	-10.9804
▁válogat	-10.9805
▁zuhan	-10.9805
▁kategóriá	-10.9806
▁körzetben	-10.9808
▁megjelenése	-10.981
lly	-10.9811
▁akkora	-10.9812
▁kerékpáros	-10.9813
▁döntések	-10.9813
ázta	-10.9819
lla	-10.982
▁mez	-10.9821
öntött	-10.9825
98	-10.9827
▁hű	-10.9831
▁függő	-10.9832
▁Mikor	-10.9833
▁évtizede	-10.9834
▁Kérdés	-10.9837
▁idővel	-10.9837
▁Alekszandr	-10.9837
▁Kiderült	-10.9837
▁Labdarúgó	-10.9837
▁Rudolf	-10.9837
▁erdélyi	-10.9837
▁fantasztikus	-10.9837
▁vancouveri	-10.9837
▁legerősebb	-10.9837
▁aktivitás	-10.9837
▁Daniel	-10.9837
▁hotel	-10.9837
NI	-10.9838
▁temető	-10.9839
▁színeiben	-10.984
▁élettárs	-10.9841
ségű	-10.9841
sin	-10.9842
▁bizonyítani	-10.9842
▁régióban	-10.9843
ütő	-10.9845
▁erkölcsi	-10.9845
odtak	-10.9848
▁Szép	-10.9848
▁rendbe	-10.9851
▁Is	-10.9855
▁hiányt	-10.9856
▁szerelt	-10.9858
▁Irak	-10.9859
▁adózás	-10.9859
ON	-10.9865
▁díjak	-10.9865
▁technológia	-10.9868
▁kerülni	-10.987
▁nyilvántartás	-10.9871
▁vizsgálta	-10.9873
▁percet	-10.9874
MI	-10.9875
▁repülés	-10.988
▁turisták	-10.9881
▁vállalni	-10.9883
FI	-10.9884
▁balesetek	-10.9886
▁hozhat	-10.9887
▁160	-10.9887
▁ellentmondás	-10.9892
▁Hor	-10.9894
kéz	-10.9896
▁elment	-10.9897
▁alapok	-10.99
emberek	-10.99
▁terhel	-10.9901
▁számoltak	-10.9901
94	-10.9903
▁nyugdíjasok	-10.9904
enny	-10.9906
win	-10.9906
▁finanszírozási	-10.9906
ásuk	-10.9908
▁Ezeket	-10.9912
▁menedzser	-10.9913
▁báb	-10.9913
▁fogtak	-10.9914
▁esetet	-10.9915
▁könny	-10.9917
su	-10.9919
▁Berlusconi	-10.992
▁Nógrád	-10.992
▁mindketten	-10.992
▁tizenhat	-10.992
▁zloty	-10.992
▁Ibolya	-10.992
▁Kádár	-10.992
▁rugalmas	-10.992
▁értelmiség	-10.992
▁házaspár	-10.992
▁ötlete	-10.992
▁maradványai	-10.992
akció	-10.992
▁Csütörtökön	-10.9921
▁képregény	-10.9921
▁könnyedén	-10.9925
▁automatikusan	-10.9925
MA	-10.9926
▁hangoztatta	-10.9928
FC	-10.9929
▁szerver	-10.993
▁előállítás	-10.993
isztikus	-10.993
▁mérlegel	-10.9931
▁igyekeznek	-10.9934
uck	-10.9936
▁magában	-10.9937
▁fogadott	-10.9938
▁állapította	-10.9943
támogatás	-10.9943
▁77	-10.9945
levél	-10.9947
nevelés	-10.9947
mérgezés	-10.9948
▁viharos	-10.9952
▁feltételezés	-10.9954
tenni	-10.9955
▁családja	-10.9956
▁belépő	-10.9956
▁alapjai	-10.9956
▁köszönt	-10.9957
hívó	-10.9959
▁élére	-10.9961
▁kétmillió	-10.9965
▁csoportban	-10.9968
▁szállodá	-10.9969
▁ifjúsági	-10.997
▁összesítés	-10.9971
▁öngyilkosság	-10.9971
▁gyalog	-10.9973
▁történelm	-10.9975
▁Ok	-10.9976
ukra	-10.998
falu	-10.998
▁inter	-10.9981
▁rendelkez	-10.9982
▁kérni	-10.9983
▁eredményez	-10.9983
▁befektetői	-10.9986
▁elolvas	-10.9987
lévő	-10.9988
▁mellette	-10.9989
▁bővült	-10.9989
▁hangsúlyt	-10.999
▁Hold	-10.9991
▁bármely	-10.9991
▁reg	-10.9992
▁3000	-10.9993
▁részletei	-10.9994
▁elemzése	-10.9998
▁Október	-11.0003
▁szemtanú	-11.0003
▁szállás	-11.0003
▁6:2	-11.0004
▁tüzet	-11.0005
▁forró	-11.0005
▁növekedett	-11.0008
▁Hungary	-11.0009
▁vízállás	-11.001
▁áprilisi	-11.0011
▁elfogad	-11.0011
▁Város	-11.0011
▁változó	-11.0014
övek	-11.0016
▁fejlődő	-11.0016
▁fr	-11.0019
▁3-4	-11.0019
▁ellátott	-11.0019
▁vezettek	-11.002
zták	-11.0021
▁vezetésével	-11.0021
▁Szóval	-11.0021
▁Lip	-11.0022
▁Zo	-11.0024
szál	-11.0026
▁jelentették	-11.0026
▁dőlt	-11.0026
hívás	-11.0028
▁költsége	-11.003
▁pesti	-11.0042
▁ismerteti	-11.0042
▁2-0-	-11.0042
izáció	-11.0044
▁földi	-11.0044
▁hónapig	-11.0044
▁futballistá	-11.0046
far	-11.0047
gli	-11.0054
▁békés	-11.0054
▁együttműköd	-11.0059
▁Twitter	-11.0059
▁fotók	-11.0063
enko	-11.0064
▁felülvizsgálat	-11.0066
▁keltett	-11.0066
▁becsült	-11.007
▁kormánypárt	-11.0071
▁bérlet	-11.0072
▁tanít	-11.0072
▁futómű	-11.0073
▁Bru	-11.0075
▁jobboldal	-11.0075
▁hibák	-11.0077
▁ideges	-11.0078
▁Szegedi	-11.0079
▁csaló	-11.0079
▁Belgium	-11.0087
▁Kulturális	-11.0087
▁Petőfi	-11.0087
▁Értéktőzsd	-11.0087
▁időtartam	-11.0087
▁Zöld	-11.0087
▁Alex	-11.0088
▁törvényhozás	-11.0088
▁költségei	-11.0089
▁kérdésünkre	-11.0089
▁tábornok	-11.0089
▁nyilvántartásba	-11.009
▁Előbb	-11.0091
▁Volán	-11.0093
▁döntőben	-11.0094
▁hívja	-11.0097
▁búj	-11.0097
▁jellemzően	-11.0097
vágás	-11.0098
▁nyugdíjak	-11.0098
▁Team	-11.0098
▁törekvés	-11.01
▁Szombaton	-11.01
▁beszédében	-11.0101
eim	-11.0101
edet	-11.0101
▁feltárás	-11.0102
▁irodalmi	-11.0102
▁alapuló	-11.0104
▁ru	-11.0105
▁épülő	-11.0108
▁Eger	-11.0109
▁rendre	-11.0111
▁megtalálható	-11.0112
Q	-11.0112
▁művel	-11.0112
▁kiírt	-11.0118
▁népszerűség	-11.0118
műve	-11.0122
▁látogatók	-11.0123
▁cm	-11.0125
▁vinni	-11.0127
▁hívják	-11.0127
játszott	-11.0128
▁számának	-11.013
teszt	-11.0132
▁lejárat	-11.0132
előny	-11.0133
▁Ir	-11.0135
GY	-11.0136
▁tartom	-11.0136
▁kérték	-11.0138
▁vélemények	-11.0138
ütötte	-11.0139
▁megállapít	-11.0141
▁összehasonlít	-11.0144
▁szög	-11.0145
▁akartam	-11.0145
▁hazugság	-11.0147
86	-11.0147
ológ	-11.0152
▁cikkek	-11.0152
96	-11.0153
▁79	-11.0154
▁felnőttek	-11.0158
szög	-11.0158
▁filmes	-11.0162
▁Barát	-11.0163
91	-11.0165
▁helyenként	-11.0168
hetők	-11.0168
▁hatását	-11.0169
▁78	-11.017
▁ellenkező	-11.017
▁kérdésben	-11.017
▁Székely	-11.0172
▁esküvő	-11.0172
▁garanciá	-11.0172
▁étkezés	-11.0172
▁Szergej	-11.0172
▁Forrás	-11.0172
▁Bulvár	-11.0172
▁interjút	-11.0172
▁Dallas	-11.0172
▁Kálmán	-11.0172
▁Együtt	-11.0172
▁végezte	-11.0173
▁mesterséges	-11.0173
vándor	-11.0173
▁kormányrendelet	-11.0174
▁figyelemmel	-11.0174
▁polgármesteri	-11.0174
▁Heves	-11.0174
▁sikertelen	-11.0175
▁váratlan	-11.0175
▁adóhatóság	-11.0177
teti	-11.0178
▁háromnegyed	-11.0179
▁egyiptomi	-11.0179
▁képzett	-11.0181
▁júniusban	-11.0181
▁megpróbálta	-11.0183
▁Opel	-11.0183
▁nyugodtan	-11.0186
▁gondoskod	-11.0187
▁Ivan	-11.0188
ítottak	-11.0188
▁frissen	-11.0189
▁vicc	-11.0189
▁PSZÁF	-11.0189
omban	-11.019
▁beszállító	-11.0192
▁százmillió	-11.0195
▁határozottan	-11.0197
▁oldala	-11.0198
tömeg	-11.0199
▁Sha	-11.0204
▁vezetőség	-11.0206
vezeték	-11.0208
▁bejárat	-11.0209
▁szereztek	-11.0209
▁tagadta	-11.021
▁Bill	-11.021
▁szintet	-11.021
▁bírságot	-11.0212
▁problémákat	-11.0213
▁Fidesznek	-11.0216
▁képeket	-11.0216
IT	-11.0217
▁tűzoltóság	-11.0217
▁bővülés	-11.0219
patak	-11.0219
▁épületet	-11.0221
▁Post	-11.0224
▁gyanúsítottak	-11.0227
▁Vid	-11.0228
▁maradék	-11.0228
▁Brüsszel	-11.0229
500	-11.0231
fogta	-11.0234
▁dönthet	-11.0236
TI	-11.0236
▁fejlesztett	-11.0236
▁tárgyalásokat	-11.0237
▁érzék	-11.024
sse	-11.024
ünkben	-11.0244
lop	-11.0245
▁vezetni	-11.0245
▁értékelte	-11.0245
▁irányít	-11.0246
szögezte	-11.0251
FA	-11.0253
51	-11.0254
▁Valószínűleg	-11.0257
▁washingtoni	-11.0257
▁Frankfurt	-11.0257
▁milliméter	-11.0258
▁áfa	-11.0258
▁manapság	-11.0258
▁nyugodt	-11.0258
▁árvízvédelmi	-11.0259
▁létező	-11.0259
▁elképzelései	-11.0259
▁párharc	-11.0259
▁sajátos	-11.0259
▁februári	-11.026
▁igyekezett	-11.026
▁Eric	-11.0261
▁Blue	-11.0263
Al	-11.0267
orog	-11.0268
▁ifjú	-11.0268
▁mérkőzésén	-11.0268
▁jutó	-11.027
▁ilyet	-11.027
▁prémium	-11.0271
▁Haza	-11.0271
mis	-11.0273
műv	-11.0274
▁háza	-11.0275
▁sugár	-11.0276
▁nagyot	-11.0277
ugor	-11.0277
▁ismerik	-11.0278
▁87	-11.028
Fotó	-11.0284
▁csökkentése	-11.0285
▁hangot	-11.0286
▁lépése	-11.0287
▁ottani	-11.0288
▁naptár	-11.0293
▁csaj	-11.0293
▁jelentenek	-11.0294
▁Glo	-11.0297
▁járvány	-11.03
▁senkinek	-11.0301
▁okai	-11.0301
▁tudatta	-11.0303
▁mondható	-11.0304
▁közvetítés	-11.0304
hatna	-11.0305
▁fúj	-11.0309
59	-11.031
ednek	-11.031
alizmus	-11.0312
aiból	-11.0315
▁Londonban	-11.0317
64	-11.032
▁Csehország	-11.0321
-40	-11.0322
▁feladatai	-11.0323
▁levelek	-11.0325
▁veszélye	-11.0332
▁helyiség	-11.0335
azon	-11.0335
▁támadást	-11.0337
▁országnak	-11.0339
terjesztés	-11.034
ES	-11.034
▁Fog	-11.0341
ugró	-11.0342
▁Che	-11.0342
▁Gre	-11.0343
▁szélső	-11.0344
▁Windows	-11.0344
▁Gáspár	-11.0344
▁Általános	-11.0344
▁türelm	-11.0344
▁zaj	-11.0345
▁Összesen	-11.0345
▁Merkel	-11.0347
▁bukkantak	-11.0348
▁1,7	-11.0349
▁repülőtere	-11.0352
▁fejtette	-11.0353
▁rendelkezésére	-11.0353
▁fellép	-11.0355
▁javára	-11.0355
alapú	-11.0356
edni	-11.0357
uti	-11.0357
▁figyelni	-11.0357
▁Haj	-11.0358
▁bejut	-11.036
▁fokon	-11.0361
▁születik	-11.0361
▁2-2	-11.0362
▁haszon	-11.0364
▁egykor	-11.0364
▁csökkentette	-11.0367
▁töm	-11.0368
▁rendelkeznek	-11.0372
▁csoportja	-11.0372
▁kutyák	-11.0373
▁(200	-11.0375
mennyire	-11.0384
▁83	-11.0385
▁megjegyzés	-11.0385
▁nagysága	-11.0385
íl	-11.0386
▁államtitkára	-11.0387
OK	-11.0388
▁1,8	-11.039
torná	-11.0392
ítsa	-11.0393
▁építeni	-11.0393
▁Olaszországban	-11.0394
zem	-11.04
▁szállított	-11.04
▁oktató	-11.0401
▁megvalósít	-11.0402
▁port	-11.0402
▁győzelme	-11.0402
▁Med	-11.0402
▁Csap	-11.0407
▁tagad	-11.0409
kedik	-11.0409
▁tényleges	-11.041
▁Egészségügy	-11.041
▁kiderít	-11.0411
▁lépések	-11.0412
gas	-11.0415
▁tulajdonosok	-11.0418
▁visszalépés	-11.0419
▁részeként	-11.0421
▁művei	-11.0425
▁elvégz	-11.0428
▁készen	-11.0428
▁Természet	-11.043
▁megfigyel	-11.043
▁mosoly	-11.043
▁Olimpia	-11.0431
▁bravúr	-11.0431
▁kollektív	-11.0431
▁pincé	-11.0431
▁sürget	-11.0431
írni	-11.0431
▁lovas	-11.0432
▁nyolcvan	-11.0432
▁döntenek	-11.0434
▁nyarán	-11.0435
▁felhő	-11.0435
▁leminősítés	-11.0437
hon	-11.0438
▁ugrott	-11.0439
▁mélyen	-11.0439
▁Ric	-11.0439
▁kaptunk	-11.0441
▁teljesíteni	-11.0441
puszt	-11.0442
▁készültek	-11.0443
▁Sziget	-11.0443
▁fák	-11.0444
▁összetétel	-11.0445
▁értesülései	-11.0445
▁Népszava	-11.0445
▁köthető	-11.0447
▁joggal	-11.0449
▁pillér	-11.045
▁bírál	-11.045
▁ügyvédje	-11.0452
▁ütközés	-11.0452
▁javasolja	-11.0454
pontos	-11.0454
emelkedés	-11.0457
▁tisztel	-11.0461
▁Jelen	-11.0461
▁dől	-11.0463
▁főz	-11.0468
▁fogott	-11.0468
▁segítette	-11.0471
▁bak	-11.0473
▁5,5	-11.0475
▁reményked	-11.0477
▁idényben	-11.0481
▁visszavágó	-11.0483
gető	-11.0483
▁decemberében	-11.0484
▁folyóirat	-11.0486
álják	-11.0489
tünet	-11.0493
▁sakk	-11.0495
▁konferencián	-11.0495
▁biztosítja	-11.0495
minden	-11.0496
▁régész	-11.0496
hossz	-11.0498
élyes	-11.0499
▁tb	-11.0501
▁Győri	-11.0507
abi	-11.0507
▁tiltott	-11.0508
▁kutatási	-11.0509
enti	-11.0515
▁technológiai	-11.0515
▁házat	-11.0515
▁Krisztina	-11.0518
▁Március	-11.0518
▁Zsigmond	-11.0518
▁szelvény	-11.0518
▁szőlő	-11.0518
▁őszinte	-11.0518
▁órára	-11.0519
▁dátum	-11.0519
nyomás	-11.0519
▁Kövér	-11.0519
palota	-11.0519
▁Jackson	-11.052
▁Internazionale	-11.0522
▁eleje	-11.0527
▁rajtuk	-11.0527
▁szponzor	-11.0528
▁lemondás	-11.0529
▁elfogadható	-11.053
▁bírálat	-11.0531
▁rajongó	-11.0531
▁újjá	-11.0531
67	-11.0534
▁jelentek	-11.0534
▁pihenő	-11.0534
ESZ	-11.0536
▁kastély	-11.0537
szoros	-11.0542
▁takarékos	-11.0544
▁rendes	-11.0544
▁egyházi	-11.0545
fogalmaz	-11.0546
▁gyújt	-11.0547
▁szélesebb	-11.0547
▁Brüsszelben	-11.0547
botrány	-11.0548
réteg	-11.0549
▁kasszá	-11.055
rol	-11.0551
▁fogunk	-11.0551
▁öngyilkos	-11.0554
-30	-11.0557
▁készítette	-11.0557
pot	-11.0562
▁otthont	-11.0562
zm	-11.0565
▁kan	-11.0565
jav	-11.0567
▁Nos	-11.0567
▁felszámol	-11.0568
meleg	-11.0569
▁Haiti	-11.0569
▁négyszer	-11.057
▁elismert	-11.0574
▁vetít	-11.0579
▁Pap	-11.0582
▁cáfol	-11.0583
▁ezeknek	-11.0585
▁téri	-11.0586
szervező	-11.0586
ettük	-11.0587
▁szabályokat	-11.0587
▁Kál	-11.059
▁hab	-11.0595
▁áttekint	-11.0597
pótlás	-11.06
▁lakók	-11.0604
▁vonatkozóan	-11.0605
túl	-11.0605
▁Katasztrófa	-11.0607
▁alpolgármester	-11.0607
▁szürke	-11.0607
▁turbó	-11.0607
­	-11.0607
▁srác	-11.0607
▁Orvos	-11.0607
▁MKB	-11.0607
▁84	-11.0607
▁Nekem	-11.0607
▁Fradi	-11.0607
▁madár	-11.0608
▁hiányosság	-11.0608
▁posta	-11.0609
▁adócsökkentés	-11.061
ésében	-11.0611
▁gyász	-11.0611
cikk	-11.0611
▁ing	-11.0613
▁városában	-11.0614
▁Erdély	-11.0618
▁hallgatók	-11.062
készítés	-11.062
▁tagjainak	-11.0621
▁transz	-11.0622
▁máig	-11.0623
▁lezárták	-11.0625
menő	-11.0626
▁felhívás	-11.0626
mely	-11.0626
▁szo	-11.0627
▁sétál	-11.0627
▁Kir	-11.0634
!!!	-11.0635
▁elöntött	-11.0635
Európában	-11.0636
▁kérdéseket	-11.0643
bány	-11.0649
▁elnökét	-11.0652
korszak	-11.0654
▁ezres	-11.0656
▁ránk	-11.0657
▁áldozatot	-11.0662
bukott	-11.0663
▁tartózkodó	-11.0663
számot	-11.0664
▁egymilliárd	-11.0665
▁elárul	-11.0665
▁évről	-11.0669
▁újból	-11.067
▁közleked	-11.0674
zuk	-11.0678
edző	-11.0678
▁találja	-11.0678
▁Bart	-11.0681
Bihar	-11.0683
▁rámutat	-11.0683
▁repül	-11.0693
▁International	-11.0696
▁Nehéz	-11.0696
▁kevesen	-11.0696
▁Cameron	-11.0696
▁Peking	-11.0696
▁haláleset	-11.0696
▁Program	-11.0696
▁Ryan	-11.0697
▁panel	-11.0697
▁idejére	-11.0698
▁megszavaz	-11.0698
▁Szerencsére	-11.0699
▁magánélet	-11.07
▁menekül	-11.07
tikai	-11.07
▁tapasztalható	-11.0701
▁nyilatkoz	-11.0704
▁foglalkozott	-11.0706
▁emelked	-11.0706
▁jelképe	-11.0707
centrum	-11.0707
▁sár	-11.0708
▁idézett	-11.071
▁maradni	-11.0711
▁Videoton	-11.0711
▁eredményét	-11.0712
▁ugr	-11.0713
▁NASA	-11.0713
talanul	-11.0714
házban	-11.0715
▁bizottsági	-11.0716
▁sarok	-11.0716
▁tulajdonú	-11.0718
▁Számos	-11.0719
▁érkeznek	-11.0722
háború	-11.0722
▁küszöb	-11.0725
▁használták	-11.0726
▁gyermeke	-11.0726
▁ingatlanok	-11.0726
szlovák	-11.0726
▁Mel	-11.0726
▁hírül	-11.0729
▁szervezés	-11.073
▁szerelmes	-11.073
▁felvételek	-11.0732
▁érdeke	-11.0733
▁fölény	-11.0734
▁próbá	-11.0734
▁életkor	-11.0735
▁halász	-11.0739
▁halálra	-11.074
élés	-11.074
▁kifogásol	-11.0741
▁alkalmazottak	-11.0745
ítsák	-11.0746
ET	-11.0748
▁(18	-11.075
▁csend	-11.075
▁Kla	-11.0751
▁bocsátott	-11.0758
▁fizetnie	-11.0758
▁ideiglenes	-11.0758
ítve	-11.0759
▁0,7	-11.0762
53	-11.0765
▁csapatban	-11.0765
▁felelősséget	-11.0768
▁Mini	-11.0768
▁emeltek	-11.0768
▁esélyt	-11.0774
▁tehető	-11.0778
▁ered	-11.078
54	-11.0781
▁körülményei	-11.0781
▁Albert	-11.0783
titkár	-11.0783
▁telek	-11.0783
▁Majd	-11.0785
teszi	-11.0785
▁Mourinho	-11.0786
▁brutális	-11.0786
▁depresszió	-11.0786
▁drasztikus	-11.0786
▁Vajda	-11.0786
▁méghozzá	-11.0786
▁kamera	-11.0786
▁iPhone	-11.0786
▁továbbiakban	-11.0787
▁eurózóna	-11.0787
▁jogsértés	-11.0788
▁padló	-11.0788
▁kamatemelés	-11.0789
▁győzelemmel	-11.0789
▁voksolás	-11.0792
bot	-11.0792
▁ezekben	-11.0792
▁fest	-11.0793
▁távoz	-11.0798
védők	-11.0798
▁Lin	-11.0799
▁publikált	-11.0799
▁kedvez	-11.08
▁mélypont	-11.0801
méret	-11.0804
szob	-11.0806
▁lapunknak	-11.0808
▁Tol	-11.0815
rendezés	-11.0815
▁utakon	-11.0815
▁erővel	-11.0817
kedve	-11.0817
Szolnok	-11.0817
szorul	-11.0817
szünet	-11.0817
▁News	-11.0821
▁kérdései	-11.0823
▁tág	-11.0823
▁BA	-11.0825
▁vigyáz	-11.0828
▁Állam	-11.083
bemutató	-11.083
▁buszok	-11.0831
kop	-11.0836
▁vágott	-11.0837
▁pártot	-11.0841
▁kórházak	-11.0842
▁Barc	-11.0842
▁Matt	-11.0843
▁tárgyaló	-11.0846
▁kettőt	-11.0846
part	-11.0847
BA	-11.0848
▁Gri	-11.0849
▁készültséget	-11.0851
kibocsátás	-11.0852
▁ügye	-11.0854
▁ugyanazt	-11.0854
▁törvényben	-11.0855
▁becslése	-11.0856
▁Alig	-11.0857
▁alapja	-11.0858
▁összehasonlítás	-11.0858
dia	-11.0868
▁cége	-11.087
▁mértek	-11.0871
▁89	-11.0873
▁Abban	-11.0873
▁tiltakozó	-11.0873
▁államnak	-11.0873
▁meggyilkol	-11.0874
▁útra	-11.0875
▁magyarul	-11.0875
becslés	-11.0876
▁FIFA	-11.0877
▁daganat	-11.0877
▁felháborod	-11.0877
▁regisztráció	-11.0877
▁sajtószóvivője	-11.0877
▁leggyorsabb	-11.0877
▁alátámaszt	-11.0877
▁amellett	-11.0877
▁mostanában	-11.0877
▁mindenütt	-11.0877
▁alapkamat	-11.0878
▁láz	-11.0879
▁erőforrás	-11.088
▁Mars	-11.0881
▁elküld	-11.0882
▁nevelés	-11.0882
▁kormánybiztos	-11.0884
▁összefüggő	-11.0886
▁lopott	-11.0886
▁Detroit	-11.0887
▁ró	-11.0889
adják	-11.089
▁amiből	-11.0891
▁eltelt	-11.0892
jutott	-11.0892
▁Jose	-11.0892
▁célzó	-11.0892
szky	-11.0894
▁egyszerűbb	-11.0894
▁végezni	-11.0895
▁vasút	-11.0898
82	-11.0898
▁kupa	-11.0898
▁Kun	-11.0899
▁szobor	-11.09
lia	-11.0901
▁jellemzi	-11.0902
hard	-11.0902
▁Var	-11.0903
58	-11.0904
függő	-11.0904
regény	-11.0908
▁Hon	-11.0908
▁amatőr	-11.0909
▁olaszok	-11.091
csúszott	-11.0911
▁jelentősebb	-11.0912
▁hívei	-11.0913
Le	-11.0914
művészeti	-11.0915
NA	-11.0915
age	-11.0916
fur	-11.0917
▁Kultúra	-11.092
▁voksol	-11.0929
▁hull	-11.093
▁biztosította	-11.0932
▁Afganisztán	-11.0936
▁leendő	-11.0939
▁hívták	-11.0942
▁bur	-11.0947
▁bevételt	-11.0951
▁Hó	-11.0953
▁alapanyag	-11.0953
termelő	-11.0954
▁kockázati	-11.0954
▁közreműköd	-11.0959
siker	-11.0959
▁folytatód	-11.0959
▁helyreállítás	-11.0963
▁kérnek	-11.0965
▁Michel	-11.0966
▁januártól	-11.0967
▁normál	-11.0968
▁Guardian	-11.0969
▁minimálbér	-11.0969
▁tranzakció	-11.0969
▁Elmondta	-11.0969
▁csekély	-11.0969
▁nemzetgazdasági	-11.097
▁vitatott	-11.097
▁Hírlap	-11.097
▁hallani	-11.0973
▁németországi	-11.0976
▁teendő	-11.0976
ágyú	-11.0976
▁forgalmat	-11.0976
hír	-11.0976
▁SC	-11.0977
▁91	-11.0979
▁nevén	-11.0979
mező	-11.098
▁megrendez	-11.098
ozva	-11.0981
▁összhangban	-11.0982
▁választani	-11.0982
▁okból	-11.0983
▁eleme	-11.0984
▁nyílik	-11.0985
▁Mindig	-11.0986
▁cikkében	-11.0989
▁2001	-11.099
▁fogalma	-11.099
▁részesít	-11.0992
lev	-11.0993
lip	-11.0996
▁Stars	-11.0999
▁öv	-11.1001
ünnep	-11.1001
hassanak	-11.1001
▁büszke	-11.1002
hatták	-11.1004
▁összefogás	-11.1004
▁Air	-11.1004
kötő	-11.1009
▁kezdete	-11.1009
▁megelőzően	-11.1011
▁kihallgatás	-11.1012
▁rock	-11.1016
▁használta	-11.1016
▁gondjai	-11.1018
készítő	-11.1019
▁egymásnak	-11.1023
▁bevételek	-11.1025
▁akarunk	-11.1026
▁kelljen	-11.1027
▁államháztartás	-11.103
▁mutatója	-11.1032
ado	-11.1033
▁áldozata	-11.1033
▁rang	-11.1036
▁költségvetést	-11.1039
▁Bol	-11.104
ségre	-11.1043
▁Nas	-11.1046
▁Bán	-11.1048
eltek	-11.1054
▁felmerül	-11.1055
▁célok	-11.1061
▁Média	-11.1061
▁iPad	-11.1061
▁munkaviszony	-11.1061
▁Rövid	-11.1061
▁gerinc	-11.1061
▁műhold	-11.1061
▁veszprémi	-11.1061
▁Megasztár	-11.1061
▁táská	-11.1061
▁növelte	-11.1062
???	-11.1062
▁dupla	-11.1062
▁Gyermek	-11.1062
▁meghirdetett	-11.1063
▁előrelépés	-11.1063
▁vesztes	-11.1067
▁figyelt	-11.1068
▁fogok	-11.107
▁nyugdíjpénztár	-11.1071
jelző	-11.1072
▁ezekkel	-11.1072
▁programban	-11.1072
▁akadályoz	-11.1073
▁hivatali	-11.1073
▁mennyisége	-11.1073
▁Ilyenkor	-11.1074
▁küzdött	-11.1074
▁kapujá	-11.1077
▁Ty	-11.1078
▁Gondol	-11.108
▁megmaradt	-11.1088
IP	-11.1088
bíró	-11.109
▁Oroszországban	-11.1093
közlekedés	-11.1094
▁Max	-11.1094
óceán	-11.1095
▁bízik	-11.1095
78	-11.1096
▁műszer	-11.1097
▁Kül	-11.1098
▁euróért	-11.1098
▁kockázatot	-11.1101
▁emberiség	-11.1102
forduló	-11.1102
▁Fiat	-11.1102
▁munkahelyek	-11.1105
▁megtenni	-11.1106
▁érdeklődő	-11.1106
lövés	-11.1107
frakció	-11.1107
rekord	-11.1111
▁pénzek	-11.1117
stein	-11.1117
▁változást	-11.1122
▁borult	-11.1124
▁többségi	-11.1125
▁pályázatot	-11.1127
▁rendeznek	-11.1129
▁nevelő	-11.113
▁Debrecenben	-11.1131
▁törvényes	-11.1137
▁olvasni	-11.1138
▁vásárolni	-11.1142
izálás	-11.1143
▁Bog	-11.1147
Ú	-11.115
▁mérséklőd	-11.1154
▁4-1	-11.1154
▁Emlék	-11.1155
Dunántúl	-11.1155
▁Hosszú	-11.1155
▁felbukkan	-11.1155
▁célkitűzés	-11.1155
▁Button	-11.1155
▁korrekt	-11.1155
medencé	-11.1155
▁Dénes	-11.1155
▁pohár	-11.1156
▁szembesül	-11.1156
▁korlátozott	-11.1157
▁Ferihegy	-11.1158
▁tüntetők	-11.1158
▁hűtő	-11.1158
▁Ahhoz	-11.1159
▁neked	-11.116
▁életmód	-11.116
▁fajta	-11.1161
▁eredményeit	-11.1161
▁Szem	-11.1161
!!	-11.1163
▁befogad	-11.1167
▁Angliában	-11.1167
▁Kör	-11.1167
▁tervezik	-11.1168
▁teret	-11.117
enberg	-11.117
▁közelít	-11.117
▁létesít	-11.1172
▁Massa	-11.1172
▁Száz	-11.1172
▁megszerzésé	-11.1173
▁különösebb	-11.118
10-	-11.118
▁tanulság	-11.1184
▁baráti	-11.1185
▁alapítója	-11.1186
▁ken	-11.1188
▁Véleménye	-11.1189
▁euróra	-11.1189
méteres	-11.1189
mérnök	-11.1189
demokrata	-11.1189
▁Kész	-11.1189
▁kel	-11.1191
▁Erika	-11.1191
▁keresés	-11.1192
▁Mindezek	-11.1192
▁híre	-11.1194
▁kezelő	-11.1196
zenek	-11.1196
képtelen	-11.1198
képző	-11.1199
esítés	-11.1199
▁kilép	-11.12
▁Kh	-11.12
▁nyíltan	-11.1202
húzódó	-11.1203
▁sérültek	-11.1205
▁árokba	-11.1205
▁veszélyt	-11.1209
pattan	-11.121
ismerő	-11.121
▁árulta	-11.1213
▁várta	-11.1218
▁elveszít	-11.122
▁mérés	-11.122
▁megőriz	-11.1221
▁haladt	-11.1222
sztik	-11.1225
▁műhely	-11.1227
▁mondtam	-11.1227
▁Vancouver	-11.1227
▁okát	-11.1229
▁járatok	-11.123
vállalás	-11.1233
▁vállalati	-11.1237
▁mutattak	-11.1238
▁község	-11.1238
▁elhal	-11.1243
▁börtönben	-11.1243
nu	-11.1244
▁veretlen	-11.1247
pin	-11.1247
▁virtuális	-11.1249
▁Kocsis	-11.1249
▁eséllyel	-11.1249
▁választópolgár	-11.1249
▁Jersey	-11.1249
▁politikájá	-11.125
▁Szakszervezet	-11.125
▁ahová	-11.125
▁szalon	-11.1251
▁belvízvédelmi	-11.1252
▁interjújában	-11.1252
▁jegyző	-11.1252
▁Ronaldo	-11.1253
▁Csakhogy	-11.1256
▁Túl	-11.1256
▁nevezték	-11.1257
▁Chi	-11.1258
▁baja	-11.1258
▁meghallgat	-11.126
▁Él	-11.1263
▁alakja	-11.1265
▁látjuk	-11.1266
▁varázs	-11.1266
▁ülése	-11.127
press	-11.127
▁előrejelzések	-11.1272
▁tudatos	-11.1272
▁érkez	-11.1273
▁üzemeltet	-11.1274
▁elfogadásá	-11.1279
vadász	-11.128
vol	-11.128
▁működtetés	-11.1281
▁távoli	-11.1281
▁King	-11.1283
▁álláspontja	-11.1283
▁rendőröket	-11.1284
▁szárny	-11.1285
tartalék	-11.1285
▁Orosz	-11.1289
▁üzemeltetés	-11.1295
▁kapuba	-11.1295
▁elterjedt	-11.1295
▁szalag	-11.1299
fu	-11.13
▁szerződése	-11.13
▁szar	-11.1302
▁2-1-	-11.1304
▁megérkez	-11.1304
▁papírok	-11.1305
▁csodál	-11.1305
▁holttest	-11.1306
ütött	-11.1307
áltak	-11.1308
▁szerkesztőség	-11.1309
84	-11.1309
tartott	-11.1311
4)	-11.1311
▁szabályoz	-11.1314
▁bírálta	-11.1314
kön	-11.1315
▁gyengülés	-11.1317
gatott	-11.1317
▁lóg	-11.1319
▁négyzetméter	-11.132
hop	-11.132
▁felelősségre	-11.132
▁kedvezőtlen	-11.1324
▁királyi	-11.1324
uj	-11.1325
▁fogjuk	-11.1325
▁kinevezés	-11.1326
▁bűnös	-11.1326
▁iszap	-11.1328
▁rendőrséget	-11.1329
olható	-11.1333
ségéről	-11.1333
hassa	-11.1335
▁Char	-11.1336
csatorn	-11.1336
szag	-11.1337
▁foglalkoztató	-11.1343
▁Biztonság	-11.1344
▁Egyiptom	-11.1344
▁Hungária	-11.1344
▁konferencia	-11.1344
▁kuratórium	-11.1344
▁közeljövőben	-11.1344
▁külföldre	-11.1344
▁narancs	-11.1344
▁Kedves	-11.1344
▁Suzuki	-11.1344
▁PSV	-11.1344
▁eleinte	-11.1345
▁húsvét	-11.1345
ükön	-11.1345
▁növelni	-11.1345
▁előírt	-11.1347
▁értékek	-11.1347
▁pert	-11.1347
▁javítani	-11.1348
▁foglalkozás	-11.1349
▁módosított	-11.135
▁mindhárom	-11.135
▁rámutatott	-11.1352
▁Grand	-11.1352
▁utólag	-11.1352
▁kategóriába	-11.1353
▁kedvezőbb	-11.1355
▁kiírás	-11.1355
▁mp	-11.1355
▁félmillió	-11.1358
▁tapasztalatok	-11.1359
százezer	-11.136
ságra	-11.136
▁döntéseket	-11.136
▁terhes	-11.1361
gyűjtés	-11.1362
emelt	-11.1364
mind	-11.1366
▁birtokában	-11.1367
▁2003	-11.1367
kodik	-11.1368
▁elkölt	-11.1368
▁kezét	-11.1369
▁pasi	-11.137
cer	-11.1372
csik	-11.1372
▁különben	-11.1372
▁boksz	-11.1373
▁egyenként	-11.1374
▁kitör	-11.1376
▁háromszoros	-11.1376
szereplő	-11.1379
▁bizonyítja	-11.1381
▁nyilatkozni	-11.1381
▁helyszínről	-11.1384
▁zenész	-11.1385
▁kínos	-11.1386
▁1997-	-11.1386
▁társadalm	-11.1386
▁gyógyszerek	-11.1389
▁meztelen	-11.1392
▁benn	-11.1393
▁fűzte	-11.1395
▁hazánkban	-11.1397
▁nyomor	-11.1397
vill	-11.1398
értékű	-11.1398
filmek	-11.1399
▁tehetséges	-11.1399
▁pillanatok	-11.1403
▁teljesítő	-11.1404
▁másikat	-11.1408
war	-11.1409
▁cser	-11.1409
▁hordoz	-11.1409
▁Rod	-11.141
▁felkészült	-11.1411
▁csapatnak	-11.1412
▁1999-	-11.1412
▁társaságok	-11.1416
cho	-11.142
zók	-11.142
eznek	-11.1425
▁tegye	-11.1428
▁Egyszer	-11.143
▁érvelt	-11.1431
▁másképp	-11.1434
netes	-11.1436
▁tolvaj	-11.1436
▁javasolt	-11.1436
▁befizet	-11.1438
▁megemlít	-11.1439
▁élelmiszerek	-11.1439
_	-11.1441
©	-11.1441
▁Financia	-11.1441
▁Hoffmann	-11.1441
▁Bizony	-11.1441
▁spórol	-11.1441
▁jogállam	-11.1441
▁megtörtént	-11.1441
▁Nobel	-11.1442
▁játszanak	-11.1442
▁Im	-11.1444
▁alkalmazkod	-11.1444
▁sehol	-11.1445
▁korabeli	-11.1445
▁állása	-11.1446
▁tartózkodás	-11.1446
▁határozza	-11.1447
▁bíróságon	-11.1447
betegség	-11.1448
▁választhat	-11.1448
▁mor	-11.1448
▁örökös	-11.1448
▁napközben	-11.145
▁bent	-11.145
rum	-11.1453
▁Kos	-11.1453
▁mozgat	-11.1456
▁Újra	-11.1461
▁érzik	-11.1462
encia	-11.1462
▁okozza	-11.1463
biz	-11.1466
▁gyárt	-11.1467
▁0-2	-11.147
vid	-11.1473
maszk	-11.1475
nagyobb	-11.1475
92	-11.1476
▁bekerült	-11.1477
baleset	-11.1478
▁elemez	-11.1479
▁cent	-11.148
▁str	-11.148
▁támogatások	-11.148
▁követelte	-11.148
▁vállalja	-11.1481
▁szólnak	-11.1482
▁opera	-11.1482
▁vesztett	-11.1483
mondó	-11.1483
▁pop	-11.1485
Koreá	-11.1485
▁maguknak	-11.1487
kereset	-11.1488
▁www	-11.1488
▁gólját	-11.149
▁alkalmazni	-11.1491
bél	-11.1493
▁Hall	-11.1494
▁kikerül	-11.1496
hatatlanul	-11.1496
ítaná	-11.1499
▁Ann	-11.1503
vágó	-11.1504
▁184	-11.1505
▁Pre	-11.1506
▁augusztusban	-11.1513
▁szolgáltat	-11.1514
▁illeték	-11.1514
▁talp	-11.1515
▁eladni	-11.152
▁hétvégé	-11.1521
▁fogalm	-11.1524
▁végrehajt	-11.1525
▁autóban	-11.1528
▁ront	-11.1529
▁letartóztatásba	-11.153
▁koalíció	-11.1531
▁modellt	-11.1534
▁tudat	-11.1538
▁Emiatt	-11.1538
▁afganisztáni	-11.1538
▁fegyelmi	-11.1538
▁játssza	-11.1538
▁legsúlyosabb	-11.1538
▁ombudsman	-11.1538
▁tragédia	-11.1538
▁katalán	-11.1538
▁működnek	-11.1538
▁visszafogott	-11.1538
▁tüdő	-11.1539
▁vendéglátó	-11.1539
fil	-11.1539
▁ezentúl	-11.1539
▁tipp	-11.1541
▁sohasem	-11.1541
▁lényeges	-11.1541
▁légiós	-11.1541
vadászat	-11.1543
▁ügyei	-11.1544
▁emlegetett	-11.1545
▁demonstráció	-11.1545
lah	-11.1546
▁merész	-11.1546
▁elfogadhatatlan	-11.1548
▁meggyőz	-11.1548
▁autópályán	-11.1548
▁mozdul	-11.155
▁kérésére	-11.155
▁konstrukció	-11.1551
▁megkülönböztet	-11.1554
▁unalmas	-11.1556
▁gyári	-11.156
▁cáfolta	-11.1564
▁elkészül	-11.1565
▁Motor	-11.1565
▁olvasók	-11.1566
▁Angel	-11.1567
zál	-11.1567
▁szavazatok	-11.1568
▁pályázó	-11.1569
▁országba	-11.157
▁lőtte	-11.1571
▁Die	-11.1571
anda	-11.1575
kényszer	-11.1576
például	-11.1576
ukrán	-11.1576
szektor	-11.1576
index	-11.1578
▁Párizsban	-11.158
▁történetének	-11.1583
▁vaj	-11.1584
ander	-11.1585
▁felépítés	-11.1586
szerte	-11.1586
▁Rossz	-11.1587
▁forrásból	-11.1587
▁szerzői	-11.1589
▁feltétele	-11.1589
▁módja	-11.1591
bíróság	-11.1591
▁postá	-11.1592
▁megvált	-11.1594
▁hétköznapi	-11.1595
kapu	-11.1595
▁zárja	-11.1597
▁Szabadság	-11.1598
07	-11.16
well	-11.1601
▁válnak	-11.1601
piacon	-11.1602
▁She	-11.1603
izáló	-11.1603
▁látás	-11.1604
▁nyomon	-11.1609
▁üzemel	-11.1609
BS	-11.1609
▁áldozatai	-11.161
kiegyensúlyozott	-11.1619
▁Las	-11.1623
▁károk	-11.1623
▁segítse	-11.1624
▁tervezte	-11.1624
▁Ind	-11.1626
▁merül	-11.1627
▁felkészül	-11.1631
rv	-11.1631
szóró	-11.1631
parti	-11.1632
▁keményen	-11.1633
▁Jel	-11.1635
▁Sarkozy	-11.1636
▁fennakadás	-11.1636
▁napvilágot	-11.1636
▁munkával	-11.1636
▁látszott	-11.1636
▁Politika	-11.1636
jelentkez	-11.1637
▁próbálkozás	-11.1637
▁Andor	-11.1637
▁kisváros	-11.1638
▁eléggé	-11.1638
▁magához	-11.1638
▁hím	-11.1638
▁Sebastian	-11.1638
▁megoszt	-11.1639
▁szeretett	-11.1639
▁romániai	-11.1639
▁közterület	-11.1642
▁értékesít	-11.1646
▁vizsgálták	-11.1649
▁Tudományos	-11.1651
▁hozzáállás	-11.1652
▁érhető	-11.1652
állal	-11.1652
▁köszön	-11.1654
▁Kiadó	-11.1654
▁lakott	-11.1655
gömb	-11.1655
▁hónapra	-11.1656
.000	-11.1656
munkás	-11.1657
▁figyelmeztetés	-11.1658
▁hozzájárult	-11.166
számlá	-11.166
▁Nyom	-11.1661
▁foglalkoztatási	-11.1663
▁Városi	-11.1669
▁támogatására	-11.1673
▁egyenlített	-11.1674
repülő	-11.1675
▁felajánlott	-11.1675
▁enyhít	-11.1678
▁egymáshoz	-11.1679
▁bennem	-11.1679
veszi	-11.1679
▁Cap	-11.168
▁úsz	-11.1682
töltő	-11.1682
▁tevékenységet	-11.1682
já	-11.1683
▁értékesített	-11.1684
▁elkezdte	-11.1685
▁leszünk	-11.1685
▁meghívás	-11.1685
döntés	-11.1685
errel	-11.1689
▁beszélnek	-11.1691
▁régészet	-11.1692
▁Sh	-11.1692
▁kapcsolatba	-11.1693
▁ráta	-11.1696
▁tám	-11.1696
▁benyújt	-11.1699
▁legtöbbet	-11.17
ezze	-11.17
▁ellenében	-11.17
▁lennie	-11.1701
▁(26	-11.1703
▁feldolgozás	-11.1703
pat	-11.1704
▁károkat	-11.1704
▁esés	-11.171
▁csapattal	-11.1712
erg	-11.1712
▁boldogság	-11.1718
▁irodájá	-11.1722
sim	-11.1723
ítenek	-11.1724
▁szabálytalan	-11.1726
kovic	-11.1729
▁125	-11.1729
▁túlélő	-11.1729
▁jutnak	-11.1729
▁jen	-11.1731
▁0,0	-11.1733
▁alapul	-11.1734
▁jutás	-11.1734
▁állítottak	-11.1734
▁Clinton	-11.1735
▁Fazekas	-11.1735
▁alpesi	-11.1735
▁császár	-11.1735
▁keveset	-11.1735
▁korrigál	-11.1735
▁legjelentősebb	-11.1735
▁százalékponttal	-11.1735
▁Ismét	-11.1735
▁Magazin	-11.1735
▁pályaudvar	-11.1735
▁délnyugat	-11.1735
▁Angol	-11.1736
szaporod	-11.1736
▁10-15	-11.1737
▁Sim	-11.1737
▁felépül	-11.1738
▁pótol	-11.1739
▁tudósítás	-11.1741
▁veszélybe	-11.1741
▁nőket	-11.1742
▁Há	-11.1742
lsősorban	-11.1744
ődtek	-11.1744
▁Emil	-11.1747
▁Személy	-11.1747
▁Brad	-11.1747
▁Gera	-11.1747
hamisítás	-11.175
▁maradjon	-11.1751
▁leszögezte	-11.1752
omlott	-11.1752
hesse	-11.1753
▁Vám	-11.1754
▁Rom	-11.1755
▁szállt	-11.1759
▁elnököt	-11.1759
▁utalva	-11.1759
ságának	-11.1762
▁megbíz	-11.1762
▁politikát	-11.1765
▁közvetít	-11.1765
csökkenés	-11.1765
▁szebb	-11.1769
▁függően	-11.1769
áramlás	-11.177
▁hétig	-11.177
▁felszerelés	-11.1772
▁letartóztatását	-11.1772
hajtott	-11.1773
▁darabot	-11.1773
czky	-11.1774
▁helyeken	-11.1774
különbség	-11.1776
tároló	-11.1778
▁adatot	-11.1781
▁kapcsolód	-11.1781
▁minősítette	-11.1781
EN	-11.1782
▁Sor	-11.1782
róf	-11.1783
▁javított	-11.1785
▁Bud	-11.1788
▁gyerekeknek	-11.1789
▁tudósító	-11.179
▁gyakorlatban	-11.1794
▁felajánl	-11.1795
▁autópályá	-11.1795
▁raktár	-11.1799
▁visszatérő	-11.1799
kapcsolat	-11.1799
kció	-11.1801
kincs	-11.1801
▁kiadása	-11.1806
színház	-11.1806
▁jogkör	-11.1807
▁Gaz	-11.1812
▁károsult	-11.1816
ík	-11.1818
▁(10	-11.1819
▁érdekli	-11.1826
OSZ	-11.1827
▁téve	-11.1829
▁vélt	-11.1829
▁elveszt	-11.1831
▁utazási	-11.1831
▁jelentést	-11.1832
▁nyolcaddöntő	-11.1833
▁Dunaújváros	-11.1835
▁eltiltás	-11.1835
▁jellegzetes	-11.1835
▁legismertebb	-11.1835
▁munkájuk	-11.1835
▁pakisztáni	-11.1835
▁túlnyomó	-11.1835
▁DVD	-11.1835
▁Különösen	-11.1835
▁MLSZ	-11.1835
▁iszlám	-11.1835
▁konyhá	-11.1835
▁kft	-11.1836
▁Pintér	-11.1836
▁róluk	-11.1837
▁alapszakasz	-11.1838
▁párbeszéd	-11.1838
▁gyanújával	-11.1838
▁Dzs	-11.1838
▁kisgyerek	-11.1838
▁közpénz	-11.1839
▁hitelező	-11.184
▁haiti	-11.184
▁elmenekült	-11.1841
▁jelezték	-11.1841
▁váratlanul	-11.1843
▁1-0-	-11.1844
▁vádolják	-11.1845
▁tizedik	-11.1847
▁megtalálták	-11.1847
▁arab	-11.1848
óknak	-11.1849
▁megszűnik	-11.185
skó	-11.1851
▁félelem	-11.1852
ködés	-11.1854
▁kitűnő	-11.1855
▁Dor	-11.1855
▁(1-0)	-11.1856
▁eljárásban	-11.1859
▁kijelző	-11.1864
▁támogatásával	-11.1866
▁cégnél	-11.1867
arányos	-11.1868
▁végrehajtásá	-11.1868
▁választásokat	-11.1871
▁rendesen	-11.1872
takaró	-11.1872
▁megvéd	-11.1876
▁összefog	-11.1878
▁mm	-11.1881
▁Maga	-11.1884
▁csendes	-11.1884
pak	-11.1885
▁elméleti	-11.1888
gond	-11.1889
▁befejezés	-11.189
▁gyártott	-11.1891
▁Green	-11.1899
uff	-11.1901
▁teheti	-11.1907
dél	-11.1912
▁értéket	-11.1912
▁sérülést	-11.1915
▁gyűjtő	-11.1919
▁2012	-11.192
▁bekövetkez	-11.1922
▁környezetben	-11.1922
tagok	-11.1923
▁vendége	-11.1923
▁együttese	-11.1925
▁felzárkóz	-11.1933
értekezlet	-11.1934
▁energiát	-11.1934
▁tárgya	-11.1935
▁panaszkod	-11.1935
▁legfelső	-11.1936
▁eredménnyel	-11.1936
▁leleplez	-11.1936
▁matematika	-11.1936
▁menedék	-11.1936
▁pezsgő	-11.1936
▁Puskás	-11.1936
▁szórakozóhely	-11.1936
▁ETO	-11.1936
▁Szerbia	-11.1936
▁pusztán	-11.1936
kodni	-11.1936
▁XVI	-11.1936
ségük	-11.1936
▁bevonásával	-11.1937
▁Harry	-11.1938
▁bocsánatot	-11.1939
Afriká	-11.1939
▁érezhető	-11.1941
▁nyara	-11.1943
▁frakcióvezetője	-11.1943
▁szakított	-11.1944
fiú	-11.1948
▁kerüljön	-11.1948
▁fokoz	-11.1948
▁szavaztak	-11.1948
▁csip	-11.1948
▁vezetőjének	-11.195
▁elkészít	-11.195
▁védelmét	-11.1954
▁toll	-11.1955
▁felrobbant	-11.1956
▁nőnek	-11.1958
▁demokraták	-11.1961
tölteni	-11.1963
▁kivételes	-11.1964
nar	-11.1965
▁bomba	-11.1966
▁tartósan	-11.1967
▁kapcsolatai	-11.1968
sértés	-11.1968
NY	-11.1969
▁felvenni	-11.1972
▁taxi	-11.1973
▁fontot	-11.1973
▁kitörés	-11.1975
mozgás	-11.1976
US	-11.1976
Ü	-11.1978
▁kilométeren	-11.198
szin	-11.1982
▁engedték	-11.1984
"...	-11.1986
▁korán	-11.1986
▁belépés	-11.1987
▁megfigyelő	-11.199
▁Pesti	-11.1991
szerűtlen	-11.1994
▁Bag	-11.1994
zzák	-11.1995
▁eszközt	-11.1998
▁bántalmaz	-11.2
▁veszteséget	-11.2
▁különbségek	-11.2
▁Amit	-11.2005
▁rendszere	-11.2005
EC	-11.2009
ádi	-11.2013
kötele	-11.2014
▁Abu	-11.2015
▁helyről	-11.2017
▁kísérő	-11.202
▁győzni	-11.2023
▁képviselet	-11.2026
alapítás	-11.2027
▁kocsit	-11.2027
▁felsőoktatás	-11.2029
apa	-11.2031
▁munkanélküli	-11.2032
▁megszület	-11.2033
▁népszerűsít	-11.2035
▁becsül	-11.2035
▁székhely	-11.2038
*	-11.2038
▁Mindenesetre	-11.2038
▁csepeli	-11.2038
▁mechanizmus	-11.2038
▁Fulham	-11.2038
▁lassul	-11.2038
▁beleértve	-11.2038
▁budai	-11.2038
▁csepp	-11.2039
▁növelésé	-11.2041
tély	-11.2042
▁bekövetkezett	-11.2043
▁erkölcs	-11.2043
▁rakétá	-11.2043
▁kapunk	-11.2044
▁drágul	-11.2044
▁kutatócsoport	-11.2044
hassák	-11.2047
▁alapoz	-11.2047
83	-11.2048
▁szivattyú	-11.2053
▁történteket	-11.2054
▁pszichológus	-11.2054
▁anyja	-11.2054
▁kommentár	-11.2055
▁okokból	-11.2055
▁kamara	-11.2055
termék	-11.2057
▁hajtó	-11.2057
▁veszít	-11.2061
▁turizmus	-11.2062
▁ügyes	-11.2065
▁Afrika	-11.2066
irányú	-11.2067
▁Saját	-11.2068
üss	-11.2068
▁korábbinál	-11.2069
▁megállapítása	-11.2069
▁összehangol	-11.2071
HL	-11.2071
▁meglep	-11.2072
▁szólította	-11.2074
▁minap	-11.2075
▁életüket	-11.2078
7)	-11.2082
gyerek	-11.2085
61	-11.2087
▁1989-	-11.2091
▁színpad	-11.2094
mini	-11.2094
▁menedzsere	-11.2095
▁fejleszt	-11.2098
▁ellenőrzése	-11.2098
▁adók	-11.2099
szerep	-11.2102
▁Magyarországnak	-11.2104
▁évforduló	-11.2105
tech	-11.2106
▁végrehajtó	-11.2107
ozd	-11.2109
▁terméket	-11.2112
▁Szegeden	-11.2112
▁Bécs	-11.2113
▁érkezés	-11.2114
▁megvalósul	-11.2116
▁megsemmisít	-11.2117
mokratikus	-11.2119
▁reformok	-11.2119
▁meggyőző	-11.212
dőlt	-11.2123
▁Stra	-11.2123
csol	-11.2124
▁lakásban	-11.2125
▁fogyasztási	-11.2126
▁érdemel	-11.2127
geszt	-11.2128
kerék	-11.2129
jaival	-11.2129
▁visszavonul	-11.2131
▁fogták	-11.2136
▁pilótá	-11.2138
▁megőrz	-11.2139
▁Bloomberg	-11.2141
▁Portugália	-11.2141
▁debütál	-11.2141
▁madridi	-11.2141
▁világhírű	-11.2141
Docler	-11.2141
négyzetkilométer	-11.2141
▁fázis	-11.2141
▁gonosz	-11.2141
▁roppant	-11.2141
▁társasház	-11.2141
▁Antonio	-11.2141
://	-11.2141
▁Erdei	-11.2141
▁Részlet	-11.2142
▁méh	-11.2142
▁árhullám	-11.2142
▁parkolás	-11.2143
▁dohányzás	-11.2143
egyház	-11.2145
▁vádlottak	-11.2145
▁alkalmával	-11.2145
▁emelkedtek	-11.2145
▁Semmi	-11.2147
▁Felső	-11.2149
hessenek	-11.2152
An	-11.2152
▁kitüntetés	-11.2153
▁emelkedő	-11.2153
▁rakéta	-11.2154
▁magyarság	-11.2155
▁hányad	-11.2155
▁Elég	-11.2157
▁véres	-11.2157
▁fotós	-11.2158
▁beindul	-11.2159
figyelő	-11.2162
▁rez	-11.2162
▁előírás	-11.2165
▁influenza	-11.2166
▁virradóra	-11.2166
▁csökkenése	-11.2167
▁Kicsi	-11.2169
▁beszélve	-11.2178
▁Far	-11.2179
ülhet	-11.2183
hullám	-11.2184
lim	-11.2185
korlátozás	-11.2185
állapot	-11.2186
osztrák	-11.2186
▁rajzol	-11.2186
▁állandóan	-11.2189
▁gyerekei	-11.2191
▁bajnokságot	-11.2192
▁csempész	-11.2194
▁csatornák	-11.2195
▁meghosszabbítás	-11.2195
▁csábít	-11.2197
▁témák	-11.2199
▁hagyományosan	-11.22
▁utaló	-11.2201
▁téved	-11.2202
▁hajnal	-11.2205
▁múl	-11.2205
▁számíthatnak	-11.2209
eszköz	-11.221
RI	-11.2211
▁számítógépes	-11.2214
▁ügyekben	-11.2221
▁környez	-11.2222
▁kezébe	-11.2229
törlés	-11.2234
▁feszül	-11.2242
állító	-11.2242
▁irányította	-11.2244
▁Medvegyev	-11.2245
▁Tottenham	-11.2245
▁automata	-11.2245
▁incidens	-11.2245
▁laboratórium	-11.2245
▁moratórium	-11.2245
▁ördög	-11.2245
▁verekedés	-11.2245
▁Hitler	-11.2245
▁roncs	-11.2246
▁Vala	-11.2246
▁mostanra	-11.2247
▁finanszírozásá	-11.2247
▁csata	-11.2248
▁sebességgel	-11.2248
▁pontosabban	-11.2249
▁rendszerek	-11.2249
végrehajtás	-11.225
húzott	-11.2251
▁változatlanul	-11.2252
▁töreked	-11.2253
ecske	-11.2254
palotá	-11.2261
▁utazik	-11.2263
▁DVSC	-11.2264
termékek	-11.2268
▁doktor	-11.2268
▁kívánják	-11.2269
▁szemet	-11.2273
▁komplex	-11.2273
▁októberében	-11.2274
▁Sir	-11.2278
▁szégyen	-11.2279
▁tényezők	-11.2281
ásáért	-11.2281
▁produkál	-11.2281
▁hagyták	-11.2282
▁Kris	-11.2282
▁ültet	-11.2283
▁szerzők	-11.2286
polgár	-11.2287
▁játéknap	-11.2288
▁üldöz	-11.2288
fokú	-11.2292
▁beton	-11.2294
▁gyűrű	-11.2295
itz	-11.2297
ellen	-11.2297
ther	-11.2299
▁Kultúr	-11.2301
▁körülményeit	-11.2304
▁igazolta	-11.2307
▁tornán	-11.2307
▁érdekeltség	-11.231
▁zsidók	-11.2312
▁reméli	-11.2313
▁kamerák	-11.2317
▁jogai	-11.2317
▁Dow	-11.232
▁lezárás	-11.232
zom	-11.2322
▁járhat	-11.2326
jánál	-11.2326
▁Sand	-11.2327
szu	-11.2327
▁hova	-11.2327
jéből	-11.2328
▁Alkotmány	-11.233
▁testvére	-11.2337
▁negyedévi	-11.234
▁Lan	-11.2344
▁életének	-11.2344
ebbé	-11.2344
▁csapattársa	-11.2345
▁szentel	-11.2348
csatorna	-11.2349
dunántúli	-11.235
▁YouTube	-11.235
▁belőlük	-11.235
▁dopping	-11.235
▁folyosó	-11.235
▁Beckham	-11.235
▁szombathelyi	-11.235
▁Romániában	-11.235
▁egyezmény	-11.235
▁sértés	-11.2351
▁Legutóbb	-11.2351
▁megkezdődött	-11.2351
▁Nicolas	-11.2351
▁csodálatos	-11.2351
▁józan	-11.2351
▁bajba	-11.2352
▁Andy	-11.2352
▁korona	-11.2352
▁nézzük	-11.2353
▁tárcá	-11.2353
▁merev	-11.2353
▁üteme	-11.2354
▁magáról	-11.2354
ózis	-11.2355
▁emelni	-11.2356
▁veszélyezteti	-11.2356
▁Fal	-11.2356
dog	-11.2357
▁Szív	-11.2362
▁Hozzá	-11.2365
▁felkérés	-11.2365
rendű	-11.2365
▁értékét	-11.2366
▁intézkedései	-11.2367
▁fogadták	-11.2367
▁link	-11.2367
▁listáját	-11.237
row	-11.237
▁kidolgozott	-11.2372
▁(25	-11.2374
▁erőfeszítés	-11.2374
▁szigetország	-11.2375
▁tetejé	-11.2376
▁tartoz	-11.2377
▁övé	-11.2379
▁túlél	-11.2379
ultak	-11.238
▁Szinte	-11.2385
▁Tör	-11.2385
▁építő	-11.2387
▁jótékonyság	-11.2387
zin	-11.2388
lásd	-11.2389
OS	-11.239
sey	-11.2394
▁750	-11.2394
▁lépnek	-11.2404
▁kártya	-11.2406
▁dokumentumot	-11.2408
▁elnökségi	-11.2408
zé	-11.2409
▁hoznak	-11.241
▁szűr	-11.2413
▁nyilatkozatot	-11.2414
72	-11.2414
részvény	-11.2415
▁estek	-11.2416
cégek	-11.2416
▁Som	-11.2417
▁fenntart	-11.2419
▁0,6	-11.2419
kiadás	-11.242
▁170	-11.2421
▁Luca	-11.2422
építeni	-11.2423
▁háttérben	-11.2424
▁szabályos	-11.2426
▁teljesül	-11.2426
▁árad	-11.2434
▁pilóták	-11.2436
▁pad	-11.2437
▁részének	-11.2437
▁kérik	-11.2437
nép	-11.244
áron	-11.244
▁gyermekei	-11.2441
▁szavazókör	-11.2442
▁eltér	-11.2443
▁határoz	-11.2444
▁vallomást	-11.2445
▁Ren	-11.2445
▁irányított	-11.2451
▁Mes	-11.2453
▁stratégia	-11.2455
▁időjárási	-11.2455
▁fogyaték	-11.2457
▁napsütés	-11.2457
▁Mónika	-11.2457
▁Vatikán	-11.2457
▁klasszis	-11.2457
▁kompromisszum	-11.2457
▁palack	-11.2457
▁válaszadók	-11.2457
▁kivéve	-11.2457
▁elszámoltatás	-11.2458
▁államban	-11.2458
▁szett	-11.2458
Kaida	-11.2458
▁csalódás	-11.2458
▁Világkupa	-11.2459
▁fennáll	-11.2459
▁főhős	-11.2459
▁alapelv	-11.2459
▁építmény	-11.246
▁teljesítés	-11.2461
gyilkos	-11.2462
▁Lotus	-11.2463
▁utó	-11.2463
▁járművet	-11.2463
strukt	-11.2463
▁elsején	-11.2465
▁nyilatkozva	-11.2465
▁jelentkezés	-11.2468
▁szerető	-11.2468
▁Hotel	-11.2468
▁sérti	-11.2469
▁vittek	-11.2469
▁játszmá	-11.2469
▁elvégez	-11.2469
▁válaszolva	-11.247
▁számíthatunk	-11.2472
▁tök	-11.2473
▁többségében	-11.2474
▁nyeremény	-11.2474
▁tudna	-11.2478
▁vesszük	-11.2479
76	-11.2479
▁vél	-11.2482
▁zsák	-11.2483
▁megállapították	-11.2487
▁vonult	-11.2487
eck	-11.2488
▁Dun	-11.2488
▁gondolni	-11.2495
▁tervet	-11.2496
biztonság	-11.2497
ölni	-11.2497
▁hajléktalanok	-11.2498
úszás	-11.2498
iskola	-11.2501
Vasas	-11.2505
▁junior	-11.2505
▁méltóság	-11.2506
▁ötszáz	-11.2508
maj	-11.2508
▁járul	-11.2508
▁soron	-11.2508
▁szeptemberi	-11.2512
▁megnyert	-11.2513
csont	-11.2515
▁támogatni	-11.2515
▁egymásra	-11.2515
▁megítélése	-11.2517
▁láttak	-11.2517
▁mérkőzések	-11.2519
▁átvizsgál	-11.2521
▁műsorban	-11.2524
▁érdekei	-11.2525
mász	-11.2529
napján	-11.253
csöv	-11.2533
▁Tü	-11.2533
▁sajtóban	-11.2544
▁pályát	-11.2551
folyás	-11.2555
hirdetés	-11.2555
kány	-11.2556
jává	-11.2557
olaj	-11.2557
uch	-11.2562
▁fellendülés	-11.2564
▁Közgyűlés	-11.2564
▁Rákóczi	-11.2564
▁munkavégzés	-11.2564
▁Műszaki	-11.2564
▁Fórum	-11.2564
▁fekszik	-11.2564
▁Bernadett	-11.2564
▁Régi	-11.2564
▁ösztönöz	-11.2564
▁helyek	-11.2564
▁szüntet	-11.2565
▁gyanúsítják	-11.2565
▁honvédelmi	-11.2566
▁gramm	-11.2567
▁sima	-11.2567
▁NHL	-11.2567
▁váltás	-11.2569
fic	-11.2569
▁92	-11.257
▁hordó	-11.2571
▁főorvos	-11.2572
▁támogatják	-11.2572
nemű	-11.2574
▁Miller	-11.2574
▁folytatódott	-11.2574
▁emelkedéssel	-11.2574
▁részvételével	-11.2576
▁Robin	-11.2578
▁spanyolok	-11.2578
▁szök	-11.2578
▁Világgazdaság	-11.2579
alista	-11.258
▁máshol	-11.2581
▁Stan	-11.2582
▁pénzből	-11.2583
▁kommentálta	-11.2584
▁helyezked	-11.2587
▁feleségét	-11.2587
▁mérete	-11.2588
▁tekintetben	-11.2589
▁hajlamos	-11.2589
▁fertőzött	-11.259
▁kockázatos	-11.2591
▁levele	-11.2592
▁99	-11.2593
▁barátság	-11.2594
▁egyharmad	-11.2597
▁tulajdonság	-11.2598
▁meghal	-11.2598
▁fűszer	-11.2599
▁mennyit	-11.26
▁gondok	-11.26
▁cikke	-11.2601
▁versenyképesség	-11.2601
▁ep	-11.2602
▁nőknél	-11.2605
ffy	-11.2607
▁főtitkára	-11.2607
jébe	-11.2608
▁túlzás	-11.261
szony	-11.2615
▁félig	-11.2615
▁haladó	-11.2615
▁Vis	-11.2616
▁látó	-11.2616
▁időszakában	-11.2618
▁repülőtéren	-11.2625
▁körülmény	-11.2627
▁vonás	-11.2627
evés	-11.2631
▁blogon	-11.2631
▁dollárért	-11.2632
▁Pil	-11.2638
▁épületben	-11.2639
▁teljesítményét	-11.2641
▁Chil	-11.2644
▁úgyis	-11.2648
▁végleg	-11.265
▁költségeit	-11.265
▁teljesítette	-11.265
▁Lor	-11.2651
fogni	-11.2652
▁93	-11.2653
▁elvesztette	-11.2654
szabad	-11.2655
▁nemzetbiztonság	-11.2656
Mar	-11.2657
▁évekig	-11.2659
▁húzta	-11.2661
▁kitér	-11.2662
▁elkövetők	-11.2663
▁hatást	-11.2665
▁veszélyben	-11.2666
▁bevált	-11.267
▁vezetőedző	-11.2671
▁szabálytalanság	-11.2672
▁Dmitrij	-11.2673
▁Rangers	-11.2673
▁Súlyos	-11.2673
▁hollywoodi	-11.2673
▁jogosítvány	-11.2673
▁küszköd	-11.2673
▁megszűnés	-11.2673
▁prognózis	-11.2673
▁Moszkvában	-11.2673
▁Schiffer	-11.2673
▁erejű	-11.2673
▁romantikus	-11.2673
▁ébred	-11.2673
▁Dezső	-11.2673
▁Gyors	-11.2673
▁ebéd	-11.2673
▁támaszkod	-11.2673
▁Stefan	-11.2673
ning	-11.2674
▁vérnyomás	-11.2674
▁temetés	-11.2674
▁tevékenysége	-11.2674
▁kerítés	-11.2675
▁mutatkozott	-11.2675
▁Kati	-11.2675
▁ajkai	-11.2675
▁jövedelemadó	-11.2675
▁ókori	-11.2675
▁titka	-11.2676
▁jellemezte	-11.2676
▁nagyszabású	-11.2676
▁megnyitás	-11.2677
dús	-11.2678
Meg	-11.2678
▁szerviz	-11.2678
▁eszközökkel	-11.2679
kedni	-11.268
▁negyedévében	-11.268
▁vizsgálni	-11.2681
▁nyújtani	-11.2683
▁fokos	-11.2684
▁elemzője	-11.2684
▁hár	-11.2685
▁magabiztosan	-11.2685
▁Kop	-11.2685
▁odafigyel	-11.2686
▁Ennél	-11.2686
▁versenyzők	-11.269
▁álma	-11.269
▁ezeken	-11.2691
▁böngésző	-11.2692
▁Ál	-11.2695
▁összegét	-11.2698
▁végkielégítések	-11.2699
▁lefoglalt	-11.27
▁telefonál	-11.2701
▁villa	-11.2701
▁pályázatok	-11.2704
▁Erről	-11.2704
▁Dab	-11.2706
állították	-11.2707
▁biztosítási	-11.2709
▁közöttük	-11.271
▁liszt	-11.2711
▁váz	-11.2712
▁hűség	-11.2712
▁milliárdot	-11.2713
▁elérheti	-11.2714
▁emberei	-11.2714
▁riporter	-11.2714
▁Ipar	-11.2715
▁fejében	-11.2715
▁valószínűség	-11.272
bajnokságon	-11.2721
▁Adó	-11.2721
bázis	-11.2722
▁emberrel	-11.2723
forgalmi	-11.2723
holland	-11.2725
▁munkanap	-11.2726
cy	-11.2732
▁amiről	-11.2732
▁intézked	-11.2734
▁szesz	-11.2735
▁nézet	-11.2735
őrző	-11.2736
▁gólja	-11.2737
mmal	-11.2737
▁Egész	-11.2738
▁meglepetést	-11.2738
mell	-11.2739
▁gyerekkor	-11.2744
its	-11.2745
▁Koz	-11.2745
hengeres	-11.2746
▁Kab	-11.2747
▁hírügynökségnek	-11.2747
ancs	-11.2749
wan	-11.2752
▁versenyképes	-11.2752
OM	-11.2754
▁kiválasztás	-11.2756
▁boltok	-11.2756
▁tárgyaláson	-11.2757
▁jegyek	-11.2758
▁önként	-11.2759
▁Ká	-11.276
▁fűz	-11.2761
▁Uni	-11.2765
▁Bon	-11.2765
▁kialakítása	-11.2767
▁sorrend	-11.2769
▁címét	-11.2771
fül	-11.2771
▁megismert	-11.2772
▁táplálkozás	-11.2773
▁engedélyez	-11.2775
▁lelke	-11.2776
▁díját	-11.2778
▁ügyelet	-11.2779
▁Kata	-11.2779
▁névre	-11.2781
▁Marseille	-11.2783
▁energetikai	-11.2783
▁turista	-11.2783
▁vígjáték	-11.2783
▁Április	-11.2783
▁Mikulás	-11.2783
▁mutatkozik	-11.2783
▁aszfalt	-11.2783
▁veterán	-11.2783
▁tévés	-11.2783
▁rektor	-11.2783
▁Fitch	-11.2783
▁korrekció	-11.2783
▁Húsz	-11.2783
▁Valencia	-11.2783
▁előzetesen	-11.2783
▁megtéveszt	-11.2783
▁elengedhetetlen	-11.2783
▁Gergő	-11.2784
▁léptek	-11.2787
▁Lind	-11.2788
▁fordítani	-11.2789
▁hamarabb	-11.2789
▁farag	-11.279
elég	-11.2791
▁hirdetett	-11.2794
özte	-11.2794
▁rendezték	-11.2794
▁XX	-11.2795
▁méz	-11.2795
▁rajongói	-11.2797
▁pakol	-11.2799
▁XI	-11.2802
▁Ven	-11.2803
▁kórházi	-11.2805
▁képen	-11.2807
kivel	-11.2808
▁ZTE	-11.2809
▁Spi	-11.2813
▁lépte	-11.2815
futott	-11.2815
▁szigorúan	-11.2815
▁Vad	-11.2815
▁perben	-11.2816
szerelés	-11.2817
▁Komoly	-11.2818
usszal	-11.2818
pus	-11.282
▁Miskolcon	-11.2824
▁átalakítása	-11.2825
utóbb	-11.283
▁erősítés	-11.2831
▁forintról	-11.2834
Ő	-11.2834
ugrott	-11.2834
▁kedve	-11.2834
▁országból	-11.2836
▁hozzánk	-11.2836
vásárló	-11.2836
▁rendszám	-11.2837
labda	-11.2837
nikus	-11.2838
hallgatás	-11.284
▁alkalmazása	-11.2842
gárdá	-11.2844
▁kockázata	-11.2844
dur	-11.2845
csel	-11.2846
▁ételek	-11.2847
▁előkészít	-11.2848
73	-11.2848
▁ismerő	-11.2849
▁Press	-11.285
▁hónapon	-11.2851
▁megálló	-11.2851
▁rekordot	-11.2852
IG	-11.2852
ódtak	-11.2852
▁erősít	-11.2854
▁helyért	-11.2854
▁egyenlít	-11.2854
▁programját	-11.2856
▁1-3	-11.2857
▁feltételeket	-11.2858
▁Capital	-11.286
gomb	-11.2861
▁kérhet	-11.2863
▁megírt	-11.2864
74	-11.2865
▁Sas	-11.2868
▁1994-	-11.2868
▁minősített	-11.2869
▁összegeket	-11.2871
▁kikötő	-11.2871
▁Boc	-11.2872
▁riport	-11.2872
sco	-11.2875
▁hip	-11.2878
▁Ul	-11.2878
▁művek	-11.2882
▁elhelyez	-11.2882
▁golf	-11.2882
▁engedte	-11.2883
▁jelölés	-11.2884
▁1,9	-11.2888
▁módosítása	-11.2889
▁Válasz	-11.2893
▁döntőbe	-11.2893
▁Panoráma	-11.2894
▁elegáns	-11.2894
▁frankfurti	-11.2894
▁privatizáció	-11.2894
▁recesszió	-11.2894
▁vulkán	-11.2894
▁Zsuzsanna	-11.2894
▁nulla	-11.2894
▁tetszett	-11.2894
▁Baranya	-11.2894
▁lovag	-11.2894
▁órában	-11.2894
▁Show	-11.2894
▁Pénzügyi	-11.2895
▁alkalmatlan	-11.2895
▁Fodor	-11.2895
▁Energia	-11.2895
▁lázadó	-11.2896
▁Pápa	-11.2896
fenyő	-11.2896
▁útszakasz	-11.2897
▁hetilap	-11.2897
▁közelébe	-11.2898
▁keveredett	-11.2899
▁telephely	-11.2899
▁hibázott	-11.29
tudat	-11.29
▁befizetett	-11.2901
▁lobbi	-11.2901
▁Kas	-11.2902
▁bővebben	-11.2902
▁letöltés	-11.2903
▁kiszáll	-11.2903
▁tankol	-11.2903
▁remélem	-11.2905
▁születésű	-11.2906
▁zárul	-11.2908
gyal	-11.2908
▁bevezetett	-11.2909
▁tartózkod	-11.291
▁vívott	-11.291
▁nézett	-11.2912
▁tű	-11.2912
▁megoldások	-11.2912
▁többszörös	-11.2913
▁köztisztviselő	-11.2913
▁hátterében	-11.2916
▁átvette	-11.2916
▁olyat	-11.2916
▁használatát	-11.2916
▁belép	-11.2919
▁adózó	-11.292
▁bűntette	-11.292
▁gondolták	-11.2921
▁beszámol	-11.2923
▁rendezni	-11.2925
▁Serie	-11.2925
▁leírt	-11.2927
▁Carlos	-11.2927
▁közlekednek	-11.2928
▁személyében	-11.2939
▁alany	-11.294
▁ob	-11.294
▁indultak	-11.2941
getni	-11.2941
▁hangja	-11.2945
Ó	-11.2947
mennyiség	-11.2948
minőség	-11.2948
▁korban	-11.2948
érzés	-11.2953
79	-11.2953
▁kapják	-11.2954
▁időpontja	-11.2955
▁írtak	-11.2957
▁szavazatot	-11.296
▁kérdésekre	-11.2962
pályás	-11.2963
kassz	-11.2963
házas	-11.2963
▁alapú	-11.2964
technikai	-11.2965
▁részvényei	-11.2965
▁ezerrel	-11.2967
▁útját	-11.2968
▁bűntett	-11.297
lova	-11.297
lkotmányellenes	-11.2972
MSZ	-11.2973
▁játéknapján	-11.2974
csík	-11.2974
▁működése	-11.2976
▁3,9	-11.2976
▁megenged	-11.2978
▁győzelmét	-11.298
▁okot	-11.2985
▁találkozás	-11.2985
▁valakinek	-11.2985
olyan	-11.2986
▁követelmény	-11.2988
▁KC	-11.2991
▁minősége	-11.2992
▁bejutott	-11.2992
▁befogadó	-11.2995
▁tanácsadója	-11.2999
▁készítés	-11.3001
▁rajongók	-11.3003
▁tanulás	-11.3003
tettek	-11.3003
▁Demokrata	-11.3006
▁Kolontár	-11.3006
▁dinamikus	-11.3006
▁elbocsátás	-11.3006
▁előkészület	-11.3006
▁kecskeméti	-11.3006
▁szorgalmaz	-11.3006
▁édesanyja	-11.3006
▁érvénytelen	-11.3006
▁pályafutása	-11.3006
▁bútor	-11.3006
▁direkt	-11.3006
▁Ír	-11.3007
▁kegyetlen	-11.3007
▁Rosberg	-11.3007
▁másodszor	-11.3008
▁illat	-11.3008
▁Kevin	-11.3008
▁közoktatás	-11.3008
▁Márpedig	-11.3008
▁fehérvári	-11.3008
▁Vajon	-11.3009
▁Rem	-11.3009
▁elsejétől	-11.3009
▁iparág	-11.3009
▁Boston	-11.301
AT	-11.301
▁törvényeket	-11.301
▁(1-1	-11.301
▁Fico	-11.301
▁kinevezett	-11.301
▁Kemény	-11.3011
▁ismertetett	-11.3011
▁bennük	-11.3011
▁eredetű	-11.3012
▁megrendezett	-11.3012
▁kattintva	-11.3012
▁mozgósít	-11.3013
▁harag	-11.3013
▁élvonal	-11.3013
▁születtek	-11.3013
▁témában	-11.3014
▁karrierje	-11.3016
▁Yorkban	-11.3016
▁menedzsment	-11.3018
▁hivatkozott	-11.3019
▁megszorítások	-11.302
▁működtető	-11.3021
▁mögötte	-11.3023
▁sorozatot	-11.3025
▁táblázat	-11.3028
▁bélyeg	-11.303
▁KSH	-11.3031
▁eredet	-11.3032
▁jegybanki	-11.3033
▁háztartások	-11.3035
▁páciens	-11.3036
▁járni	-11.3036
▁képviseli	-11.3037
▁hatály	-11.3039
Nagy	-11.3042
post	-11.3044
▁találnak	-11.3045
▁Afganisztánban	-11.3047
vir	-11.3047
▁kifejt	-11.3048
hírek	-11.3048
volt	-11.3048
▁ütemben	-11.3048
▁számlák	-11.3053
▁előnyt	-11.3054
▁lefelé	-11.3058
▁Cél	-11.3058
▁fenyegeti	-11.3059
▁meséli	-11.306
▁kiválóan	-11.3061
▁kritizál	-11.3061
▁követni	-11.3068
rád	-11.307
gyors	-11.3072
▁nyújtó	-11.3073
▁foglalja	-11.3076
▁nőttek	-11.3078
▁megrendelés	-11.3081
▁Cal	-11.3084
fokozatú	-11.3087
▁Tiszt	-11.3087
▁tévedés	-11.3087
alja	-11.3088
▁Gru	-11.3089
▁0,8	-11.3089
▁Karl	-11.309
▁GM	-11.3093
művészet	-11.3094
gató	-11.3104
▁oldalról	-11.3105
▁oroszlán	-11.3106
▁tized	-11.3106
építő	-11.311
▁bírta	-11.3111
▁benzines	-11.3116
▁rendeltek	-11.3116
▁eseményeket	-11.3116
▁Olympi	-11.312
▁Pozsony	-11.312
▁Telegraph	-11.312
▁Vagyonkezelő	-11.312
▁chilei	-11.312
▁tipikus	-11.312
▁Komárom	-11.312
▁megélhetés	-11.312
▁tréning	-11.312
▁vidám	-11.312
▁pótlék	-11.312
▁2015-	-11.312
▁Group	-11.312
▁Zsuzsa	-11.312
▁eljuttatott	-11.312
▁látszólag	-11.3121
Faktor	-11.3121
▁megújulás	-11.3122
▁Út	-11.3122
▁kivitelezés	-11.3122
▁döntéshozó	-11.3122
▁Bush	-11.3123
▁kiskereskedelmi	-11.3123
▁országgyűlés	-11.3123
▁kereskedő	-11.3123
dorf	-11.3123
▁szánkó	-11.3124
▁elvet	-11.3124
▁megszerezni	-11.3126
▁menő	-11.313
▁beszáll	-11.3133
▁tartózkodik	-11.3134
▁kalap	-11.3134
tiltották	-11.3136
▁kritika	-11.3137
▁szavazói	-11.314
▁színpadon	-11.314
▁szokásai	-11.3147
kém	-11.3147
Bo	-11.3147
▁bizalmat	-11.3148
disz	-11.3148
medence	-11.3152
▁Gall	-11.3152
▁legális	-11.3153
ikum	-11.3157
▁álmod	-11.3157
halál	-11.3158
▁Woods	-11.3159
▁értelmezés	-11.3162
▁beosztás	-11.3164
▁támogatottsága	-11.3165
▁költségvetésben	-11.3165
▁rejtély	-11.3167
▁oszlop	-11.3169
▁honlapon	-11.317
▁megtett	-11.3174
intézmény	-11.3175
▁gázolt	-11.3178
futam	-11.3183
▁magasan	-11.3183
AP	-11.3188
▁szándéka	-11.3188
ezzük	-11.3192
▁teremtett	-11.3193
ébb	-11.3195
cá	-11.3195
▁statisztiká	-11.3205
▁szankciók	-11.3207
▁építési	-11.3212
▁nyilatkozata	-11.3212
héj	-11.3217
készlet	-11.3219
▁Művészet	-11.3223
▁változatos	-11.3224
▁Figyel	-11.3225
ville	-11.3225
▁450	-11.3225
▁elkap	-11.3226
▁alkalm	-11.3227
RA	-11.3229
rn	-11.323
▁parancs	-11.3233
▁eskü	-11.3235
onprofit	-11.3235
▁Császár	-11.3235
▁cigarettá	-11.3235
▁munkái	-11.3235
▁platform	-11.3235
▁sikkasztás	-11.3235
▁szituáció	-11.3235
▁szolidaritás	-11.3235
▁volumen	-11.3235
▁kímél	-11.3235
▁Lewis	-11.3235
▁lecserél	-11.3235
▁kiabál	-11.3235
▁kőolaj	-11.3236
▁http	-11.3236
▁Regény	-11.3236
▁csalódott	-11.3236
meccsen	-11.3236
▁teremteni	-11.3236
▁Op	-11.3237
▁Wild	-11.3237
▁Neu	-11.3238
▁Azzal	-11.3239
▁irányadó	-11.3239
▁futballista	-11.3239
▁feljelent	-11.324
▁Mester	-11.3241
▁elvégzett	-11.3241
▁érni	-11.3241
out	-11.3242
▁forgalomban	-11.3242
▁Mennyi	-11.3243
▁kezeli	-11.3243
▁tárgyalni	-11.3243
▁nyolcvanas	-11.3243
▁Saint	-11.3243
▁lakások	-11.3243
▁vallotta	-11.3244
▁You	-11.3245
▁Lau	-11.3246
▁kezdeményezett	-11.3247
▁vizsga	-11.3251
▁tudatosan	-11.3253
▁Opera	-11.3253
▁fogadják	-11.3253
▁tavaszán	-11.3253
▁honnan	-11.3254
▁tanítás	-11.3257
▁4-0	-11.3257
nyel	-11.3257
▁indexe	-11.326
▁kevesebben	-11.326
▁Mégis	-11.3262
▁1990	-11.3265
▁kerülés	-11.3265
ségére	-11.3265
▁szerel	-11.3269
▁üzletek	-11.3271
▁Áll	-11.3272
▁Amerika	-11.3272
▁szegénység	-11.3275
▁Egyik	-11.3276
fagy	-11.328
▁tegnapi	-11.3281
csor	-11.3282
▁bármit	-11.3283
ross	-11.3284
▁többfelé	-11.3284
alatt	-11.3285
ccsal	-11.3288
▁Will	-11.329
▁méteren	-11.329
csempész	-11.3291
érzékeny	-11.3292
áján	-11.3293
▁problémája	-11.3294
▁Luc	-11.3295
szegény	-11.3295
IN	-11.3296
▁Nyugdíj	-11.3297
értékelés	-11.3298
▁országai	-11.3302
ájuk	-11.3302
▁auto	-11.3304
jű	-11.3306
▁tanulni	-11.3306
▁egyesek	-11.3306
▁Lé	-11.3307
62	-11.3308
▁kényszerült	-11.3308
mondás	-11.3312
▁környéken	-11.3314
▁ismerked	-11.3314
▁ellenük	-11.3315
▁bors	-11.3317
uh	-11.3318
yr	-11.332
vonatkoz	-11.3321
▁érve	-11.3323
▁legendá	-11.3324
▁emeli	-11.3324
▁zárták	-11.3325
▁94	-11.3326
▁fejlesztése	-11.3328
fagyott	-11.3333
amely	-11.3335
▁gyűlt	-11.3335
ejteni	-11.3336
▁bíznak	-11.3338
geti	-11.334
▁valóságos	-11.334
▁(22	-11.3345
▁sorolta	-11.3345
gur	-11.3348
▁legjobbak	-11.3348
isztán	-11.3348
▁csapatát	-11.3349
Í	-11.3349
▁felállít	-11.3349
▁vállalás	-11.335
▁magánszemélyek	-11.3351
▁legfiatalabb	-11.3351
▁Budaházy	-11.3351
▁Portugáliá	-11.3351
▁Szávay	-11.3351
▁felelőtlen	-11.3351
▁kaposvári	-11.3351
▁megmondani	-11.3351
▁hetente	-11.3351
▁okostelefon	-11.3351
▁Videó	-11.3352
▁pánik	-11.3352
▁Tűz	-11.3352
pénztár	-11.3353
▁műemlék	-11.3353
vállalkozások	-11.3353
▁biológiai	-11.3353
fizika	-11.3353
▁védeni	-11.3353
▁csapatkapitány	-11.3353
▁megszüntetésé	-11.3353
▁hangsúlyozza	-11.3354
▁megállapítani	-11.3354
▁Hatvan	-11.3354
▁szerződtet	-11.3355
▁későbbiekben	-11.3355
agan	-11.3355
▁országszerte	-11.3356
▁Lady	-11.3357
▁magától	-11.3359
▁adódó	-11.3359
▁művelet	-11.3361
▁folyadék	-11.3361
▁full	-11.3361
▁hosszas	-11.3361
▁figyelmeztetett	-11.3361
▁für	-11.3364
▁összekötő	-11.3365
▁tudhat	-11.3368
▁rájött	-11.3368
▁tudtunk	-11.337
▁hatású	-11.3371
▁sokféle	-11.3373
▁hacker	-11.3373
▁hazatér	-11.3375
▁biztosítása	-11.3377
CS	-11.3378
▁1994	-11.338
▁életük	-11.3383
▁bűnösnek	-11.3384
▁részvénypiac	-11.3385
▁fizetnek	-11.3387
▁elektro	-11.3387
▁FA	-11.339
▁váló	-11.3391
törvénymódosítás	-11.3391
▁akarjuk	-11.3393
▁másként	-11.3398
▁érdemben	-11.3399
▁borított	-11.3401
▁védi	-11.3401
▁osztotta	-11.3402
▁estére	-11.3403
▁gr	-11.3404
▁novemberében	-11.3404
ódó	-11.3405
▁gondolkoz	-11.3408
▁foglalkoznak	-11.3409
SZDSZ	-11.3409
felület	-11.3409
ismeret	-11.3411
IMF	-11.3412
hették	-11.3413
AS	-11.3414
nyu	-11.3417
berendezés	-11.3421
▁óceán	-11.3426
▁220	-11.3426
lex	-11.3427
▁kiprób	-11.343
▁használtak	-11.3431
▁Kate	-11.3431
info	-11.3432
El	-11.3433
▁sajt	-11.3433
77	-11.3436
▁forrásai	-11.3436
▁bizonyítékok	-11.3439
▁(20	-11.3449
dobta	-11.3451
ösztön	-11.3453
ÉS	-11.3454
▁fogalmazta	-11.3455
Br	-11.3456
▁bajnokin	-11.3457
▁győztese	-11.3458
▁Mór	-11.346
▁segéd	-11.3465
▁önmagát	-11.3468
adminisztráció	-11.3469
▁Mészáros	-11.3469
▁Remélem	-11.3469
▁bonyolít	-11.3469
▁kaliforniai	-11.3469
▁nemzedék	-11.3469
▁presztízs	-11.3469
▁tragikus	-11.3469
▁érzelmi	-11.3469
▁hármas	-11.3469
Palkovics	-11.3469
▁Egyrészt	-11.347
▁összegyűjtött	-11.347
▁Sajó	-11.3472
▁Olvas	-11.3472
▁örömmel	-11.3472
▁átmenetileg	-11.3473
▁kivonul	-11.3473
▁középiskolá	-11.3474
▁elnyert	-11.3475
▁ellenőrző	-11.3475
▁Budapestre	-11.3475
▁macska	-11.3476
▁munkagép	-11.3477
▁rangú	-11.3477
▁pici	-11.3477
▁hangzik	-11.3478
▁nővér	-11.3478
▁Miami	-11.3481
▁Ugyanis	-11.3482
▁góljával	-11.3482
▁jegyzése	-11.3483
▁termékeket	-11.3484
▁madarak	-11.3485
▁félelme	-11.3486
▁kötni	-11.3486
▁szakértője	-11.3487
▁Steven	-11.3488
▁kétségbe	-11.3489
jármű	-11.3489
fesz	-11.349
▁Edit	-11.3492
kupában	-11.3495
▁tulajdonban	-11.3497
▁2,3	-11.3497
▁ügyét	-11.3499
▁sütő	-11.35
▁jelentések	-11.35
▁királynő	-11.3503
emmel	-11.3504
▁tudósítója	-11.3509
▁várjuk	-11.3509
▁elárulta	-11.3511
▁északnyugati	-11.3512
▁elöl	-11.3514
▁klubok	-11.3515
▁bab	-11.3516
▁Jer	-11.3519
▁napló	-11.3519
▁svédek	-11.3519
▁kockázatok	-11.3524
▁liga	-11.3524
zöld	-11.3526
▁Vol	-11.3528
kártya	-11.3528
beruházás	-11.3528
Szabó	-11.3528
vásár	-11.3528
korú	-11.3529
lehetőség	-11.353
▁végeznek	-11.353
menetel	-11.3531
▁kifizetni	-11.3532
▁berendezések	-11.3534
udvar	-11.3534
árfolyam	-11.3535
▁követelő	-11.3536
▁kampányban	-11.3537
jobb	-11.3537
média	-11.3538
▁fogadni	-11.3539
▁körút	-11.3539
▁megértés	-11.3542
▁Debreceni	-11.3542
lőtte	-11.3544
▁írásban	-11.3547
▁(15	-11.355
lött	-11.3552
▁jegyet	-11.3555
fúj	-11.3555
▁önmagá	-11.3557
▁szemlél	-11.3564
▁helyszíne	-11.3564
▁hosszabbítás	-11.3567
versenyen	-11.3567
▁Hétfő	-11.357
mmel	-11.357
▁különbséget	-11.3571
▁Ameriká	-11.3572
▁Erdélyi	-11.3572
ségével	-11.3573
▁kedvelt	-11.3574
▁irányt	-11.3576
100	-11.3577
▁tulajdonosai	-11.3578
▁ezekre	-11.3578
lep	-11.3583
tanul	-11.3585
▁Celsius	-11.3588
▁Cristian	-11.3588
▁Standard	-11.3588
▁krízis	-11.3588
▁oxigén	-11.3588
▁pekingi	-11.3588
▁Levente	-11.3588
▁elszenvedett	-11.3588
▁fájdalom	-11.3588
▁mielőbb	-11.3588
▁Másrészt	-11.3588
▁durva	-11.3588
▁sodor	-11.3588
▁megszabadul	-11.3588
▁muszáj	-11.3588
sivatag	-11.3588
▁megnehezít	-11.3588
▁jelentik	-11.3589
▁Avatar	-11.3589
nagyon	-11.3589
▁szériá	-11.3589
▁szeretik	-11.3589
fős	-11.3589
▁vetette	-11.359
▁magánszemély	-11.359
▁Csányi	-11.3591
▁Super	-11.3592
▁kavar	-11.3593
▁székhelyű	-11.3594
▁1998	-11.3594
▁tartózkodott	-11.3595
ográfia	-11.3596
futó	-11.3596
▁megtudhat	-11.3598
▁Phoenix	-11.3598
▁rendet	-11.3599
▁igénylő	-11.3599
▁jelöltjei	-11.3601
▁Leon	-11.3601
▁főügyészség	-11.3601
▁hetes	-11.3602
▁februárjában	-11.3603
▁Fej	-11.3603
alakul	-11.3604
▁ügyvezetője	-11.3606
▁Vill	-11.3609
▁találkozhat	-11.361
▁bemutatni	-11.3613
hívták	-11.3614
kód	-11.3616
▁májusában	-11.3617
▁sugárzás	-11.3623
▁ezret	-11.3625
▁tábla	-11.3627
▁bérleti	-11.3628
%)	-11.363
▁her	-11.3631
▁1996-	-11.3635
csillag	-11.3635
▁különböz	-11.3635
▁negyedéves	-11.3636
listák	-11.3637
hall	-11.3638
▁adományoz	-11.3639
▁kedvence	-11.364
▁kívánnak	-11.3644
▁nevezi	-11.3645
▁kicsik	-11.3645
▁mennyiségben	-11.3646
▁Japánban	-11.3646
▁alakítja	-11.3646
fesztivál	-11.3646
▁Mir	-11.3649
kockázat	-11.365
százalékos	-11.3652
▁agyon	-11.3652
▁szoba	-11.3652
▁lakóház	-11.3652
▁verték	-11.3656
▁kidolgoz	-11.3657
szalag	-11.3659
otthon	-11.3659
▁végzés	-11.3661
▁produkált	-11.3667
▁Akik	-11.3668
▁jelöltet	-11.3668
▁óvatos	-11.3669
▁bizottsága	-11.367
▁terveznek	-11.3671
▁tények	-11.3671
▁villá	-11.3671
▁behajt	-11.3672
▁hirdette	-11.3673
PD	-11.3675
▁rali	-11.3675
▁mindennap	-11.3675
▁kutatója	-11.3675
▁válni	-11.3679
▁gólpasszt	-11.3681
▁szolgálatot	-11.3682
▁védelmet	-11.3683
▁hajrá	-11.3687
▁kitart	-11.3687
▁támogatói	-11.3688
66	-11.3688
által	-11.3688
▁köztársaság	-11.3689
▁vágta	-11.3693
bérlet	-11.3694
▁elszámol	-11.3695
▁mindenképp	-11.3696
lar	-11.3696
▁visszahívás	-11.3696
▁valószínűsít	-11.3697
▁nyerő	-11.3697
ellip	-11.3697
▁tűr	-11.37
▁RS	-11.37
▁egyeztetések	-11.3701
▁módszerek	-11.3701
▁partján	-11.3703
▁ugrás	-11.3706
▁klinika	-11.3708
▁konzorcium	-11.3708
▁székesfehérvári	-11.3708
▁ritmus	-11.3708
▁Smith	-11.3708
▁megérdemel	-11.3708
▁gesztus	-11.3708
▁beruházó	-11.3708
▁őszintén	-11.3708
▁póker	-11.3708
▁titkol	-11.3708
▁pláne	-11.3708
▁Senki	-11.3709
▁portré	-11.3709
▁Reggel	-11.3709
▁izom	-11.3709
▁kattintson	-11.371
▁kívánta	-11.371
▁paraszt	-11.3712
▁átigazolás	-11.3712
▁emlékszik	-11.3712
▁(12	-11.3713
▁táplálék	-11.3713
▁Simor	-11.3714
▁Soha	-11.3716
▁tanúsít	-11.3717
▁hiányzott	-11.3717
tulaj	-11.3718
▁épülete	-11.3718
▁hoki	-11.3722
küldött	-11.3725
▁közli	-11.3725
▁bűnözők	-11.3725
▁résztvevői	-11.3726
▁kapitánya	-11.373
szabályozás	-11.3731
▁folytatják	-11.3732
▁gyűlölet	-11.3732
▁januárjában	-11.3733
▁júliusban	-11.3733
eihez	-11.3734
▁kommentál	-11.3735
▁szurkolói	-11.3735
▁iskolába	-11.3735
▁képei	-11.3737
▁gyógyul	-11.3737
▁tükrözi	-11.3738
▁elemei	-11.374
SI	-11.3743
▁Cz	-11.3744
▁válogatás	-11.375
▁nyers	-11.3753
▁ténylegesen	-11.3754
vész	-11.3755
nyomta	-11.3756
▁számítottak	-11.3759
▁ügynökség	-11.3761
prof	-11.3761
gyógyászat	-11.3763
▁végzik	-11.3764
▁megtartott	-11.3766
▁Stone	-11.3766
▁feldolgoz	-11.3768
▁rendezvények	-11.3769
rajongó	-11.377
történész	-11.377
elmélet	-11.377
üzlet	-11.3771
▁sík	-11.3772
▁265	-11.3773
▁cikkben	-11.3773
szezon	-11.3774
71	-11.3775
▁erőmű	-11.3776
▁túlélés	-11.3778
▁fogyasztása	-11.3778
▁kalózok	-11.3786
▁kénytelenek	-11.3788
szűrő	-11.3788
▁szélén	-11.3791
ommal	-11.3793
▁meglepetésre	-11.3793
▁állunk	-11.3797
▁gyártók	-11.38
▁tükröz	-11.38
▁érezni	-11.3801
▁végkielégítés	-11.3801
▁kaphatnak	-11.3803
PS	-11.3803
Line	-11.3804
▁Néz	-11.3804
▁Posta	-11.3808
▁megismétel	-11.3809
▁Hang	-11.381
=	-11.381
▁tartható	-11.3811
▁Lesz	-11.3813
▁mindenkor	-11.3813
▁háromszáz	-11.3815
▁válságot	-11.3817
▁beszédet	-11.382
▁faluban	-11.3823
▁szörny	-11.3825
▁bevallás	-11.3826
▁Moszk	-11.3829
▁Főigazgatóság	-11.383
▁General	-11.383
▁Jégkorong	-11.383
▁Orleans	-11.383
▁bűnözés	-11.383
▁gyarapod	-11.383
▁hormon	-11.383
▁strukturális	-11.383
▁örvend	-11.383
▁Szekeres	-11.383
▁Izland	-11.383
▁megfékez	-11.383
▁tudomásul	-11.383
▁Alföldi	-11.383
kötött	-11.3831
▁devizahitel	-11.3831
▁Semjén	-11.3831
▁csúcstalálkozó	-11.3831
▁ellenőrzi	-11.3831
▁hatállyal	-11.3831
▁Dubaj	-11.3832
▁hárman	-11.3832
▁Benkő	-11.3832
▁Jelentős	-11.3833
▁főszerkesztője	-11.3833
▁merítés	-11.3833
▁mono	-11.3833
▁meccsén	-11.3835
▁széria	-11.3835
▁megtagad	-11.3836
▁borít	-11.3837
▁ellentét	-11.3837
▁módszerrel	-11.3838
▁1200	-11.3838
▁Nadal	-11.3838
▁kiigazít	-11.3838
▁szenvedtek	-11.3839
▁okoztak	-11.384
nus	-11.384
▁bizalmas	-11.3841
▁őrült	-11.3843
▁börtönbe	-11.3844
▁(0-0)	-11.3845
▁Norvégia	-11.3845
▁dokumentumfilm	-11.3847
▁Anita	-11.3847
▁kiválasztott	-11.3848
▁járőrök	-11.3848
szolgáltatók	-11.3848
▁munkacsoport	-11.385
▁lehetünk	-11.385
román	-11.385
▁felmondás	-11.3851
▁szilárd	-11.3852
▁emelték	-11.3853
▁Julian	-11.3854
▁közbiztonság	-11.3854
▁kapitányság	-11.3857
-13	-11.3857
▁6,5	-11.3858
▁ún	-11.3859
▁vádak	-11.3859
▁zárva	-11.3859
this	-11.386
▁forgalmazó	-11.3861
▁kezelésére	-11.3868
▁tartaná	-11.387
▁Ya	-11.3872
▁mandátumot	-11.3874
▁kalóz	-11.3875
▁indulnak	-11.3876
▁forgalmazás	-11.3877
▁profil	-11.3882
hetne	-11.3882
▁1992-	-11.3882
▁felhős	-11.3886
▁újév	-11.3889
▁könyvében	-11.3889
▁államot	-11.3894
teljesítmény	-11.3894
▁tanulmányok	-11.3894
kórház	-11.3895
▁érme	-11.3897
▁ártatlan	-11.3897
vonták	-11.3897
Hf	-11.3898
▁dokumentumokat	-11.3899
▁bizonyítás	-11.3901
▁felidéz	-11.3901
▁cikket	-11.3902
▁felügyel	-11.3902
▁felfelé	-11.3903
▁használhat	-11.3906
Hc	-11.3907
▁elfogadni	-11.3909
ello	-11.3909
▁készlet	-11.3913
▁festett	-11.3917
▁képviseleté	-11.3919
tetsz	-11.3921
▁szintjén	-11.3923
▁ütötte	-11.3925
▁zaklatás	-11.3931
▁évtizedben	-11.3932
▁szerk	-11.3935
▁regénye	-11.3939
▁bízta	-11.3942
▁lelet	-11.3943
▁magabiztos	-11.3943
érő	-11.3944
EL	-11.3944
▁koreai	-11.3945
földön	-11.3949
▁hívás	-11.3953
@	-11.3954
műlesiklás	-11.3954
▁Elemzők	-11.3954
▁Philadelphia	-11.3954
▁Szilágyi	-11.3954
▁karambol	-11.3954
▁kulcsfontosságú	-11.3954
▁nyugdíjkorhatár	-11.3954
▁Pakisztán	-11.3954
▁Hunvald	-11.3954
▁tilalma	-11.3954
legeredményesebb	-11.3954
▁class	-11.3954
▁konzultáció	-11.3954
▁sugall	-11.3954
▁Domokos	-11.3954
▁mezőgazdaság	-11.3954
▁pusztul	-11.3954
▁gyakorlás	-11.3955
▁meggyőződés	-11.3955
▁AFP	-11.3955
▁lassít	-11.3955
▁szemüveg	-11.3955
▁taps	-11.3955
▁kivitelező	-11.3955
▁élvezet	-11.3955
▁háziorvos	-11.3955
▁legkevésbé	-11.3956
▁legtöbbször	-11.3956
érkezett	-11.3956
▁eldőlt	-11.3956
▁szorult	-11.3957
▁bánya	-11.3957
▁2020-	-11.3958
▁Szal	-11.3959
▁előkerült	-11.3959
▁Motors	-11.396
▁munkaidő	-11.3961
▁olvasóink	-11.3962
▁festék	-11.3962
osodás	-11.3963
▁szezonális	-11.3963
▁operációs	-11.3963
▁nevezhető	-11.3964
▁fiók	-11.3965
▁szigorúbb	-11.3967
pontja	-11.3967
nyó	-11.3967
▁óvatosan	-11.3968
▁utál	-11.3968
▁fordítás	-11.3969
▁színészek	-11.3969
ökkel	-11.397
▁levegőben	-11.397
▁Trans	-11.3972
IM	-11.3974
▁Ág	-11.3976
▁látogatott	-11.3977
▁karácsonykor	-11.398
▁rendszerint	-11.398
▁Bay	-11.3983
▁Ügy	-11.3983
▁terheli	-11.3984
▁visszamenőleges	-11.3985
▁példaként	-11.3985
szerűség	-11.3987
▁Vf	-11.3988
▁tisza	-11.3991
katasztrófa	-11.3994
▁beszélünk	-11.3995
visz	-11.3999
▁emlékezet	-11.4003
▁biztosítók	-11.4011
▁keretek	-11.4014
▁sürgős	-11.4015
▁csökkenő	-11.4016
▁fizettek	-11.4017
menedzser	-11.4019
szenved	-11.4019
gyűrű	-11.4019
▁kiszolgál	-11.402
▁újságíróknak	-11.4021
RT	-11.4023
▁módosítását	-11.4025
utazás	-11.4025
▁írtam	-11.4025
▁Auto	-11.4028
egység	-11.4029
zárás	-11.403
▁valamikor	-11.4034
▁fordulójá	-11.4045
10)	-11.4046
▁jegyzi	-11.4049
▁részesült	-11.4049
▁küldte	-11.4052
▁nagyrész	-11.4056
▁Zu	-11.4062
▁építése	-11.4065
▁babá	-11.4068
▁Csillag	-11.4073
▁világgazdaság	-11.4074
▁párhuzam	-11.4078
▁garázs	-11.4079
munkabeszüntetés	-11.4079
▁Ferguson	-11.4079
▁bátran	-11.4079
▁felmelegedés	-11.4079
▁likviditás	-11.4079
▁praktikus	-11.4079
▁röhög	-11.4079
▁vetélytárs	-11.4079
▁Siófok	-11.4079
hellyel	-11.4079
▁hátvéd	-11.4079
▁közepette	-11.4079
▁megjelenik	-11.4079
▁fájdalmas	-11.4079
▁kistérség	-11.4079
▁megcsinál	-11.4079
color	-11.4079
▁zsákmány	-11.4079
▁Nokia	-11.4079
galériá	-11.4079
▁másolat	-11.4079
▁elbírálás	-11.408
▁szerelmi	-11.4082
▁középdöntő	-11.4083
▁hiánycél	-11.4083
▁szörnyű	-11.4084
▁előnyös	-11.4086
▁tagját	-11.4086
ezres	-11.4087
▁devizapiacon	-11.4088
▁barátnője	-11.4088
▁pénzért	-11.4088
Moson	-11.4088
▁vetítés	-11.4093
▁követték	-11.4095
▁ötéves	-11.4096
▁Állat	-11.4096
hál	-11.4097
▁Kornél	-11.4098
▁adórendszer	-11.4101
▁megújuló	-11.4102
▁hosszan	-11.4103
portál	-11.4103
▁illik	-11.4105
AN	-11.4107
▁Gáz	-11.4108
▁bevezetését	-11.4111
▁támadtak	-11.4112
tanítvány	-11.4116
▁07	-11.4116
múlt	-11.4116
▁főúton	-11.4117
▁Terv	-11.4117
▁Nő	-11.4119
nyh	-11.4122
▁mutatni	-11.4124
ejtő	-11.4126
iroda	-11.4129
▁szerezhet	-11.413
sejtek	-11.4132
hida	-11.4133
▁Neki	-11.4133
▁földre	-11.4133
qua	-11.4134
▁Facebookon	-11.414
▁vigy	-11.414
harc	-11.4141
Cs	-11.4143
▁kedvezményes	-11.4143
▁vasútvonal	-11.4143
▁gazdálkodó	-11.4144
képviselő	-11.4146
▁éltek	-11.4147
▁mélyebb	-11.4149
▁késések	-11.415
betét	-11.415
New	-11.415
q	-11.4152
▁eljáró	-11.4155
kony	-11.4155
▁építettek	-11.4156
▁rutin	-11.4157
▁tekintet	-11.4159
▁mozgó	-11.416
lí	-11.4165
▁szerelvény	-11.4169
▁változásokat	-11.4171
ítené	-11.4174
sign	-11.4175
▁karrierjé	-11.4176
▁gyes	-11.4177
▁piacán	-11.4179
közlési	-11.4182
▁anyagokat	-11.4182
▁kidolgozásá	-11.4184
kozni	-11.4186
▁fogás	-11.4186
▁alku	-11.4187
▁szóltak	-11.4187
▁kilós	-11.419
▁oldalas	-11.4201
▁Steve	-11.4201
▁követhet	-11.4202
normal	-11.4204
▁Legfelső	-11.4205
▁Keresztény	-11.4205
▁Kristóf	-11.4205
▁Szovjetunió	-11.4205
▁Zalaegerszeg	-11.4205
▁elefánt	-11.4205
▁megyeszékhely	-11.4205
▁mindannyian	-11.4205
▁kreatív	-11.4205
▁kenyér	-11.4205
▁tilalom	-11.4205
▁cucc	-11.4205
▁elkövetkező	-11.4205
▁régebbi	-11.4205
▁világháló	-11.4205
▁drámá	-11.4206
tesszük	-11.4206
dupláz	-11.4206
▁kettes	-11.4206
▁óvoda	-11.4206
▁másodperccel	-11.4206
▁Lovas	-11.4207
ström	-11.4207
▁értesítette	-11.4208
▁szennyezett	-11.4208
▁csomagot	-11.4208
▁kilencedik	-11.4209
▁szándékosan	-11.421
▁kiskorú	-11.421
éber	-11.421
▁Könyvtár	-11.4211
▁farkas	-11.4212
pályán	-11.4212
▁üzletág	-11.4214
hessék	-11.4215
▁Ugyanez	-11.4218
▁vízzel	-11.4219
▁elképzelni	-11.422
▁mindazok	-11.422
▁szerződéseket	-11.4221
▁2,9	-11.4222
Mobile	-11.4223
▁készítettek	-11.4224
▁közlekedik	-11.4224
▁sajtóreferense	-11.4229
▁szokta	-11.423
▁Pir	-11.4231
▁tagország	-11.4233
graf	-11.4234
▁végzi	-11.4235
▁családot	-11.4235
szennyezés	-11.4236
▁irányítja	-11.4236
▁próbálták	-11.424
▁folyók	-11.4241
▁barátságos	-11.4241
▁Mező	-11.4243
kapott	-11.4244
▁urán	-11.4244
▁Egyetlen	-11.4244
▁végrehajtott	-11.4249
▁enni	-11.4251
▁Siker	-11.4251
▁megérkezett	-11.4252
▁Kings	-11.4252
▁ejtett	-11.4255
▁delegált	-11.4255
▁igenis	-11.4256
özött	-11.426
szervezés	-11.4263
▁pénzét	-11.4269
▁futás	-11.427
még	-11.4273
interjú	-11.4274
Sopron	-11.4274
▁gálá	-11.4274
hordozó	-11.4275
▁angyal	-11.4275
▁sportos	-11.4276
elhárítás	-11.4278
Kelet	-11.428
vb	-11.4281
▁Atlant	-11.4284
vihar	-11.4284
▁esetről	-11.4287
▁irányul	-11.429
▁termékei	-11.4291
szülött	-11.4294
▁ellenáll	-11.4294
▁pontokat	-11.43
▁bevételei	-11.4301
▁párosítás	-11.4302
▁(11	-11.4302
▁csel	-11.4305
▁megjelentek	-11.4306
▁polgárok	-11.4306
átvétel	-11.431
NBA	-11.4312
▁utasokat	-11.4313
mély	-11.4314
▁gépet	-11.4316
▁Sem	-11.4318
▁fát	-11.4318
▁átlátható	-11.432
▁címen	-11.4322
▁lakosságot	-11.4323
▁fokú	-11.4323
▁egyetemen	-11.4324
gazdálkodási	-11.4326
▁visszafizet	-11.4327
▁Legalább	-11.433
▁ügyeletese	-11.4331
▁pletykák	-11.4331
▁közbe	-11.4332
▁milánói	-11.4334
▁Számvevőszék	-11.4334
▁Wolfsburg	-11.4334
▁csokoládé	-11.4334
▁koordinál	-11.4334
▁vesztegetés	-11.4334
▁leszámítva	-11.4334
▁politológus	-11.4334
▁megszorító	-11.4334
▁vacsorá	-11.4334
▁elektronika	-11.4334
bevásárlóközpont	-11.4334
▁delegáció	-11.4334
▁Leonardo	-11.4334
spirál	-11.4334
▁fillér	-11.4334
▁megbízatás	-11.4335
▁tömör	-11.4335
▁krimi	-11.4335
▁Hajnal	-11.4335
▁skót	-11.4337
▁sms	-11.4337
▁módosítani	-11.4337
▁igénybevétel	-11.4337
▁névsor	-11.4337
▁néni	-11.4338
▁életrajz	-11.4338
▁késéssel	-11.434
▁jutásért	-11.4342
▁kerülne	-11.4343
▁lőszer	-11.4343
▁előtérbe	-11.4343
▁szaklap	-11.4344
▁itteni	-11.4345
▁modellje	-11.4346
▁utalnak	-11.4347
hajtású	-11.4349
▁Valami	-11.435
▁szempontok	-11.4351
▁kapcsolódik	-11.4351
▁hónapot	-11.4353
▁terhelő	-11.4355
▁álláspontját	-11.436
▁szurkoló	-11.436
▁3-1-	-11.4362
▁Illés	-11.4362
▁Rész	-11.4363
▁tender	-11.4363
▁vettem	-11.4364
▁elfogadása	-11.4364
▁estig	-11.4366
▁(16	-11.4367
▁eseményen	-11.4368
▁ajándékoz	-11.4369
▁autókat	-11.4369
▁fogadás	-11.4369
rendező	-11.437
▁barna	-11.4371
▁információs	-11.4372
▁szerződésben	-11.4372
▁fényében	-11.4372
▁torz	-11.4373
▁támogatottság	-11.4373
▁tudósít	-11.4374
▁járható	-11.4376
▁módosította	-11.4376
▁Tény	-11.438
esített	-11.438
▁termés	-11.4381
▁jogerősen	-11.4381
▁rés	-11.4382
▁előfordult	-11.4385
▁rendeztek	-11.4385
▁rendszerét	-11.4389
▁emlékezetes	-11.4394
rossz	-11.4394
▁fenntartott	-11.4396
intézet	-11.44
sebesség	-11.4403
▁lapot	-11.4405
▁jogait	-11.4405
városban	-11.4406
▁megtehet	-11.4406
isten	-11.4407
▁enyhítés	-11.4409
▁baktérium	-11.4409
▁kezelik	-11.441
▁fiát	-11.4411
▁Érdek	-11.4411
▁szalad	-11.4412
▁aranyat	-11.4412
liga	-11.4412
▁poli	-11.4413
▁kérdésekben	-11.4414
▁jótékony	-11.4418
▁döntései	-11.442
▁előnyben	-11.4425
▁szavak	-11.4431
▁nyújtotta	-11.4433
▁Wo	-11.4436
▁megújul	-11.4439
Hide	-11.444
▁ígéretet	-11.444
arany	-11.4446
▁igazolni	-11.4448
társak	-11.4456
▁(24	-11.4457
▁Mail	-11.4457
▁csomó	-11.446
▁mező	-11.4462
▁Lengyel	-11.4463
▁Ügynökség	-11.4463
▁Atlético	-11.4463
▁Deutsch	-11.4463
▁Kramnyik	-11.4463
▁Tímea	-11.4463
▁legkésőbb	-11.4463
▁államkötvény	-11.4463
▁CNN	-11.4463
▁Gulyás	-11.4463
▁nedves	-11.4463
▁Ügyészség	-11.4463
▁látszat	-11.4464
▁rezsim	-11.4464
▁lennék	-11.4464
termesztés	-11.4464
field	-11.4464
▁szarvas	-11.4464
▁választja	-11.4464
▁étrend	-11.4464
▁gőz	-11.4465
▁megerősítették	-11.4465
▁Qui	-11.4465
▁gróf	-11.4465
▁240	-11.4467
▁törvénytervezet	-11.4468
▁MTK	-11.4469
▁emlékszem	-11.4469
▁Vác	-11.447
▁kísérte	-11.4473
jéhez	-11.4475
▁vagyonadó	-11.4476
▁360	-11.4476
anyagot	-11.4477
szakadás	-11.4478
▁motorral	-11.4478
[...]
