{
  "version": "1.0",
  "truncation": null,
  "padding": null,
  "added_tokens": [
    {
      "id": 0,
      "content": "[UNK]",
      "single_word": false,
      "lstrip": false,
      "rstrip": false,
      "normalized": false,
      "special": true
    },
    {
      "id": 1,
      "content": "[CLS]",
      "single_word": false,
      "lstrip": false,
      "rstrip": false,
      "normalized": false,
      "special": true
    },
    {
      "id": 2,
      "content": "[SEP]",
      "single_word": false,
      "lstrip": false,
      "rstrip": false,
      "normalized": false,
      "special": true
    },
    {
      "id": 3,
      "content": "[PAD]",
      "single_word": false,
      "lstrip": false,
      "rstrip": false,
      "normalized": false,
      "special": true
    },
    {
      "id": 4,
      "content": "[MASK]",
      "single_word": false,
      "lstrip": false,
      "rstrip": false,
      "normalized": false,
      "special": true
    }
  ],
  "normalizer": {
    "type": "Sequence",
    "normalizers": [
      {
        "type": "NFKC"
      },
      {
        "type": "Lowercase"
      }
    ]
  },
  "pre_tokenizer": {
    "type": "Whitespace"
  },
  "post_processor": null,
  "decoder": {
    "type": "WordPiece",
    "prefix": "##",
    "cleanup": true
  },
  "model": {
    "type": "WordPiece",
    "unk_token": "[UNK]",
    "continuing_subword_prefix": "##",
    "max_input_chars_per_word": 100,
    "vocab": {
      "[UNK]": 0,
      "[CLS]": 1,
      "[SEP]": 2,
      "[PAD]": 3,
      "[MASK]": 4,
      "!": 5,
      "\"": 6,
      "#": 7,
      "$": 8,
      "%": 9,
      "&": 10,
      "'": 11,
      "(": 12,
      ")": 13,
      "*": 14,
      "+": 15,
      ",": 16,
      "-": 17,
      ".": 18,
      "/": 19,
      "0": 20,
      "1": 21,
      "2": 22,
      "3": 23,
      "4": 24,
      "5": 25,
      "6": 26,
      "7": 27,
      "8": 28,
      "9": 29,
      ":": 30,
      ";": 31,
      "<": 32,
      "=": 33,
      ">": 34,
      "?": 35,
      "@": 36,
      "[": 37,
      "\\": 38,
      "]": 39,
      "^": 40,
      "_": 41,
      "`": 42,
      "a": 43,
      "b": 44,
      "c": 45,
      "d": 46,
      "e": 47,
      "f": 48,
      "g": 49,
      "h": 50,
      "i": 51,
      "j": 52,
      "k": 53,
      "l": 54,
      "m": 55,
      "n": 56,
      "o": 57,
      "p": 58,
      "q": 59,
      "r": 60,
      "s": 61,
      "t": 62,
      "u": 63,
      "v": 64,
      "w": 65,
      "x": 66,
      "y": 67,
      "z": 68,
      "~": 69,
      "": 70,
      "": 71,
      "": 72,
      "": 73,
      "£": 74,
      "§": 75,
      "©": 76,
      "¬": 77,
      "­": 78,
      "®": 79,
      "°": 80,
      "±": 81,
      "·": 82,
      "×": 83,
      "ß": 84,
      "à": 85,
      "á": 86,
      "â": 87,
      "ã": 88,
      "ä": 89,
      "å": 90,
      "æ": 91,
      "ç": 92,
      "è": 93,
      "é": 94,
      "ê": 95,
      "ë": 96,
      "ì": 97,
      "í": 98,
      "î": 99,
      "ï": 100,
      "ð": 101,
      "ñ": 102,
      "ò": 103,
      "ó": 104,
      "ô": 105,
      "õ": 106,
      "ö": 107,
      "ø": 108,
      "ú": 109,
      "û": 110,
      "ü": 111,
      "ý": 112,
      "ÿ": 113,
      "ă": 114,
      "ą": 115,
      "ć": 116,
      "č": 117,
      "đ": 118,
      "ę": 119,
      "ı": 120,
      "ł": 121,
      "ń": 122,
      "ň": 123,
      "ő": 124,
      "ř": 125,
      "ś": 126,
      "ş": 127,
      "š": 128,
      "ţ": 129,
      "ť": 130,
      "ů": 131,
      "ű": 132,
      "ż": 133,
      "ž": 134,
      "ș": 135,
      "̈": 136,
      "̋": 137,
      "λ": 138,
      "μ": 139,
      "ї": 140,
      "ה": 141,
      "ו": 142,
      "י": 143,
      "‒": 144,
      "†": 145,
      "•": 146,
      "‬": 147,
      "‭": 148,
      "′": 149,
      "⁄": 150,
      "€": 151,
      "−": 152,
      "∗": 153,
      "≤": 154,
      "": 155,
      "": 156,
      "##i": 157,
      "##m": 158,
      "##u": 159,
      "##l": 160,
      "##k": 161,
      "##s": 162,
      "##p": 163,
      "##t": 164,
      "##a": 165,
      "##c": 166,
      "##e": 167,
      "##d": 168,
      "##o": 169,
      "##g": 170,
      "##b": 171,
      "##z": 172,
      "##h": 173,
      "##ó": 174,
      "##r": 175,
      "##f": 176,
      "##y": 177,
      "##á": 178,
      "##ö": 179,
      "##ü": 180,
      "##n": 181,
      "##j": 182,
      "##é": 183,
      "##x": 184,
      "##v": 185,
      "##7": 186,
      "##9": 187,
      "##ő": 188,
      "##w": 189,
      "##2": 190,
      "##ú": 191,
      "##1": 192,
      "##0": 193,
      "##5": 194,
      "##ű": 195,
      "##q": 196,
      "##8": 197,
      "##3": 198,
      "##4": 199,
      "##í": 200,
      "##6": 201,
      "##è": 202,
      "##à": 203,
      "##ä": 204,
      "##õ": 205,
      "##)": 206,
      "##ă": 207,
      "##š": 208,
      "##č": 209,
      "##\"": 210,
      "##ç": 211,
      "##?": 212,
      "##ô": 213,
      "##>": 214,
      "##ţ": 215,
      "##û": 216,
      "##;": 217,
      "##,": 218,
      "##ň": 219,
      "##ý": 220,
      "##ć": 221,
      "##.": 222,
      "##-": 223,
      "##ї": 224,
      "##!": 225,
      "##ò": 226,
      "##ø": 227,
      "##/": 228,
      "##(": 229,
      "##+": 230,
      "##ë": 231,
      "##ť": 232,
      "##ה": 233,
      "##ו": 234,
      "##ñ": 235,
      "##ð": 236,
      "##ž": 237,
      "##~": 238,
      "##ã": 239,
      "##:": 240,
      "##=": 241,
      "##ß": 242,
      "##]": 243,
      "##ș": 244,
      "##ř": 245,
      "##%": 246,
      "##′": 247,
      "##ï": 248,
      "##ů": 249,
      "##ê": 250,
      "##î": 251,
      "##ÿ": 252,
      "##ż": 253,
      "##đ": 254,
      "##æ": 255,
      "##[": 256,
      "##*": 257,
      "##ì": 258,
      "##\\": 259,
      "##å": 260,
      "##gy": 261,
      "sz": 262,
      "##el": 263,
      "##en": 264,
      "##er": 265,
      "##et": 266,
      "##sz": 267,
      "az": 268,
      "##an": 269,
      "el": 270,
      "##tt": 271,
      "##al": 272,
      "##at": 273,
      "és": 274,
      "##ak": 275,
      "##eg": 276,
      "##or": 277,
      "##nt": 278,
      "##em": 279,
      "##ár": 280,
      "##ég": 281,
      "##ek": 282,
      "egy": 283,
      "is": 284,
      "kö": 285,
      "ny": 286,
      "ho": 287,
      "##ar": 288,
      "##ny": 289,
      "##ás": 290,
      "ál": 291,
      "ez": 292,
      "meg": 293,
      "##ol": 294,
      "mi": 295,
      "al": 296,
      "et": 297,
      "en": 298,
      "##ág": 299,
      "ké": 300,
      "ek": 301,
      "ki": 302,
      "szer": 303,
      "at": 304,
      "hogy": 305,
      "##ap": 306,
      "ok": 307,
      "ás": 308,
      "es": 309,
      "##bb": 310,
      "er": 311,
      "ol": 312,
      "##nd": 313,
      "nem": 314,
      "##ez": 315,
      "le": 316,
      "##és": 317,
      "cs": 318,
      "ér": 319,
      "##es": 320,
      "ak": 321,
      "##ed": 322,
      "ban": 323,
      "##ál": 324,
      "##án": 325,
      "##on": 326,
      "##ér": 327,
      "##ék": 328,
      "em": 329,
      "##ól": 330,
      "ik": 331,
      "##os": 332,
      "be": 333,
      "##ik": 334,
      "an": 335,
      "fel": 336,
      "ott": 337,
      "##át": 338,
      "ben": 339,
      "##él": 340,
      "gy": 341,
      "##ok": 342,
      "##ül": 343,
      "##ta": 344,
      "áll": 345,
      "tö": 346,
      "ett": 347,
      "int": 348,
      "am": 349,
      "ar": 350,
      "re": 351,
      "nak": 352,
      "ad": 353,
      "or": 354,
      "##nk": 355,
      "##ett": 356,
      "##in": 357,
      "on": 358,
      "##szt": 359,
      "##am": 360,
      "##ét": 361,
      "##ad": 362,
      "##aj": 363,
      "##om": 364,
      "##ely": 365,
      "##il": 366,
      "ár": 367,
      "##agy": 368,
      "##cs": 369,
      "##it": 370,
      "##az": 371,
      "##og": 372,
      "##ag": 373,
      "##ák": 374,
      "te": 375,
      "lt": 376,
      "ni": 377,
      "os": 378,
      "év": 379,
      "szá": 380,
      "nek": 381,
      "köz": 382,
      "jel": 383,
      "##ől": 384,
      "ja": 385,
      "hat": 386,
      "id": 387,
      "ra": 388,
      "de": 389,
      "át": 390,
      "##ban": 391,
      "##ség": 392,
      "kor": 393,
      "él": 394,
      "ság": 395,
      "##ni": 396,
      "##oz": 397,
      "##ben": 398,
      "agy": 399,
      "elő": 400,
      "ren": 401,
      "val": 402,
      "##het": 403,
      "ség": 404,
      "##ut": 405,
      "##len": 406,
      "leg": 407,
      "ig": 408,
      "##is": 409,
      "##ig": 410,
      "##ll": 411,
      "##ány": 412,
      "##ra": 413,
      "rend": 414,
      "tu": 415,
      "##iz": 416,
      "##as": 417,
      "vol": 418,
      "##ai": 419,
      "ut": 420,
      "##ell": 421,
      "##áb": 422,
      "##re": 423,
      "##art": 424,
      "##ott": 425,
      "ter": 426,
      "for": 427,
      "ind": 428,
      "ha": 429,
      "né": 430,
      "tett": 431,
      "##ít": 432,
      "ot": 433,
      "jelen": 434,
      "##ró": 435,
      "agyar": 436,
      "ker": 437,
      "##ész": 438,
      "már": 439,
      "##ja": 440,
      "ko": 441,
      "##ény": 442,
      "##lt": 443,
      "##ság": 444,
      "ne": 445,
      "tart": 446,
      "volt": 447,
      "nagy": 448,
      "án": 449,
      "in": 450,
      "hely": 451,
      "ét": 452,
      "ít": 453,
      "##én": 454,
      "oz": 455,
      "ös": 456,
      "##má": 457,
      "kez": 458,
      "ve": 459,
      "szt": 460,
      "##nek": 461,
      "emb": 462,
      "tel": 463,
      "##ci": 464,
      "tör": 465,
      "ta": 466,
      "kép": 467,
      "csak": 468,
      "as": 469,
      "tá": 470,
      "##ul": 471,
      "több": 472,
      "még": 473,
      "ért": 474,
      "##kor": 475,
      "azt": 476,
      "##ök": 477,
      "##ve": 478,
      "ember": 479,
      "eg": 480,
      "##sze": 481,
      "##us": 482,
      "vá": 483,
      "kap": 484,
      "új": 485,
      "ked": 486,
      "más": 487,
      "két": 488,
      "van": 489,
      "mint": 490,
      "rsz": 491,
      "rszág": 492,
      "fog": 493,
      "ügy": 494,
      "##ső": 495,
      "tud": 496,
      "száz": 497,
      "om": 498,
      "sem": 499,
      "szám": 500,
      "tár": 501,
      "vég": 502,
      "##ép": 503,
      "mag": 504,
      "kell": 505,
      "tal": 506,
      "ai": 507,
      "iz": 508,
      "ezet": 509,
      "##áz": 510,
      "##ív": 511,
      "lehet": 512,
      "ellen": 513,
      "ed": 514,
      "ját": 515,
      "##att": 516,
      "##ro": 517,
      "il": 518,
      "##ej": 519,
      "ált": 520,
      "la": 521,
      "##da": 522,
      "amely": 523,
      "zö": 524,
      "##ot": 525,
      "nt": 526,
      "össze": 527,
      "##na": 528,
      "##ért": 529,
      "jár": 530,
      "tt": 531,
      "##ont": 532,
      "##lli": 533,
      "ul": 534,
      "nap": 535,
      "##olg": 536,
      "##mi": 537,
      "oly": 538,
      "milli": 539,
      "vi": 540,
      "je": 541,
      "ük": 542,
      "ond": 543,
      "lék": 544,
      "aj": 545,
      "tés": 546,
      "száza": 547,
      "után": 548,
      "##ond": 549,
      "eu": 550,
      "ba": 551,
      "tak": 552,
      "##ov": 553,
      "vagy": 554,
      "őr": 555,
      "lát": 556,
      "##éd": 557,
      "ír": 558,
      "zt": 559,
      "##ia": 560,
      "##ne": 561,
      "ab": 562,
      "##le": 563,
      "szak": 564,
      "vil": 565,
      "rész": 566,
      "biz": 567,
      "ped": 568,
      "##ko": 569,
      "ci": 570,
      "bu": 571,
      "est": 572,
      "##vé": 573,
      "ap": 574,
      "abb": 575,
      "tan": 576,
      "##kö": 577,
      "ir": 578,
      "kül": 579,
      "##to": 580,
      "mu": 581,
      "ezt": 582,
      "##gyan": 583,
      "het": 584,
      "men": 585,
      "pedig": 586,
      "tette": 587,
      "forin": 588,
      "ill": 589,
      "##úl": 590,
      "##ős": 591,
      "han": 592,
      "rá": 593,
      "ként": 594,
      "első": 595,
      "##ch": 596,
      "ról": 597,
      "##ert": 598,
      "ebb": 599,
      "unk": 600,
      "vár": 601,
      "munk": 602,
      "##vő": 603,
      "bi": 604,
      "kér": 605,
      "##vet": 606,
      "ében": 607,
      "ondta": 608,
      "hi": 609,
      "eket": 610,
      "alap": 611,
      "##öl": 612,
      "ti": 613,
      "mű": 614,
      "pár": 615,
      "okat": 616,
      "gaz": 617,
      "sok": 618,
      "világ": 619,
      "ri": 620,
      "ül": 621,
      "##yen": 622,
      "kat": 623,
      "idő": 624,
      "úgy": 625,
      "ött": 626,
      "ból": 627,
      "kormá": 628,
      "it": 629,
      "lés": 630,
      "nél": 631,
      "ép": 632,
      "##obb": 633,
      "##sza": 634,
      "inden": 635,
      "ikai": 636,
      "##ció": 637,
      "fő": 638,
      "##té": 639,
      "hal": 640,
      "maj": 641,
      "mind": 642,
      "követ": 643,
      "nő": 644,
      "##nak": 645,
      "ám": 646,
      "miatt": 647,
      "kal": 648,
      "dö": 649,
      "akkor": 650,
      "ism": 651,
      "tek": 652,
      "pro": 653,
      "pont": 654,
      "majd": 655,
      "ugyan": 656,
      "kész": 657,
      "vál": 658,
      "vel": 659,
      "igaz": 660,
      "##ön": 661,
      "##mé": 662,
      "rt": 663,
      "így": 664,
      "ide": 665,
      "##ná": 666,
      "eln": 667,
      "való": 668,
      "ro": 669,
      "euró": 670,
      "##ály": 671,
      "bel": 672,
      "##uk": 673,
      "hoz": 674,
      "##íz": 675,
      "aki": 676,
      "##utat": 677,
      "##ab": 678,
      "##se": 679,
      "ják": 680,
      "kerü": 681,
      "állam": 682,
      "ló": 683,
      "nd": 684,
      "##kal": 685,
      "én": 686,
      "av": 687,
      "##ín": 688,
      "társ": 689,
      "törté": 690,
      "uk": 691,
      "ták": 692,
      "ll": 693,
      "sor": 694,
      "ján": 695,
      "##éz": 696,
      "ható": 697,
      "lő": 698,
      "dí": 699,
      "véd": 700,
      "laszt": 701,
      "ről": 702,
      "jó": 703,
      "ami": 704,
      "issza": 705,
      "fej": 706,
      "ei": 707,
      "sp": 708,
      "kezd": 709,
      "nk": 710,
      "st": 711,
      "##őz": 712,
      "##emé": 713,
      "lesz": 714,
      "eset": 715,
      "ezető": 716,
      "zött": 717,
      "old": 718,
      "og": 719,
      "dönt": 720,
      "elnök": 721,
      "áz": 722,
      "talál": 723,
      "ből": 724,
      "##no": 725,
      "me": 726,
      "von": 727,
      "pén": 728,
      "pénz": 729,
      "##ug": 730,
      "##val": 731,
      "bo": 732,
      "zó": 733,
      "fél": 734,
      "ör": 735,
      "mell": 736,
      "ünk": 737,
      "olyan": 738,
      "nál": 739,
      "##rá": 740,
      "mert": 741,
      "ep": 742,
      "tám": 743,
      "tól": 744,
      "előtt": 745,
      "ilyen": 746,
      "sít": 747,
      "keres": 748,
      "zet": 749,
      "sal": 750,
      "ly": 751,
      "##nyi": 752,
      "tás": 753,
      "alm": 754,
      "zs": 755,
      "##be": 756,
      "##ző": 757,
      "od": 758,
      "ában": 759,
      "jö": 760,
      "jog": 761,
      "##ír": 762,
      "ház": 763,
      "ismer": 764,
      "egyik": 765,
      "##szo": 766,
      "ék": 767,
      "saj": 768,
      "által": 769,
      "##hat": 770,
      "pol": 771,
      "di": 772,
      "mér": 773,
      "se": 774,
      "díj": 775,
      "elm": 776,
      "alak": 777,
      "let": 778,
      "##étel": 779,
      "vez": 780,
      "ozz": 781,
      "já": 782,
      "érd": 783,
      "adó": 784,
      "onban": 785,
      "hár": 786,
      "ah": 787,
      "tov": 788,
      "per": 789,
      "asz": 790,
      "ke": 791,
      "tat": 792,
      "hét": 793,
      "##tat": 794,
      "li": 795,
      "va": 796,
      "##je": 797,
      "##dá": 798,
      "lak": 799,
      "kk": 800,
      "##od": 801,
      "etlen": 802,
      "ály": 803,
      "mond": 804,
      "mény": 805,
      "továb": 806,
      "olt": 807,
      "aut": 808,
      "vet": 809,
      "##ély": 810,
      "##ort": 811,
      "ozzá": 812,
      "tér": 813,
      "nev": 814,
      "öt": 815,
      "autó": 816,
      "ani": 817,
      "től": 818,
      "##fi": 819,
      "polit": 820,
      "sen": 821,
      "ver": 822,
      "ent": 823,
      "ten": 824,
      "éves": 825,
      "mos": 826,
      "három": 827,
      "illet": 828,
      "##ló": 829,
      "ély": 830,
      "##est": 831,
      "kapcs": 832,
      "lis": 833,
      "##kez": 834,
      "munka": 835,
      "fér": 836,
      "zás": 837,
      "ének": 838,
      "##vel": 839,
      "gazda": 840,
      "külön": 841,
      "ku": 842,
      "ezer": 843,
      "##éter": 844,
      "áb": 845,
      "bizto": 846,
      "dolg": 847,
      "kon": 848,
      "ré": 849,
      "##elő": 850,
      "sik": 851,
      "sap": 852,
      "ikus": 853,
      "ag": 854,
      "állal": 855,
      "##szá": 856,
      "hez": 857,
      "emel": 858,
      "##tó": 859,
      "##ím": 860,
      "élet": 861,
      "##öve": 862,
      "ére": 863,
      "szín": 864,
      "##bá": 865,
      "##ony": 866,
      "kör": 867,
      "ása": 868,
      "##lan": 869,
      "város": 870,
      "ának": 871,
      "##nap": 872,
      "mikor": 873,
      "tott": 874,
      "sapat": 875,
      "ték": 876,
      "fiz": 877,
      "koz": 878,
      "lép": 879,
      "egész": 880,
      "kis": 881,
      "any": 882,
      "most": 883,
      "##jt": 884,
      "mutat": 885,
      "ont": 886,
      "##ze": 887,
      "ov": 888,
      "end": 889,
      "##áro": 890,
      "itt": 891,
      "nyil": 892,
      "im": 893,
      "##ód": 894,
      "zott": 895,
      "##op": 896,
      "koráb": 897,
      "tű": 898,
      "arra": 899,
      "cím": 900,
      "párt": 901,
      "orszá": 902,
      "ing": 903,
      "öl": 904,
      "gond": 905,
      "aszná": 906,
      "nyug": 907,
      "erős": 908,
      "ció": 909,
      "kérd": 910,
      "állí": 911,
      "föl": 912,
      "##ük": 913,
      "tet": 914,
      "ató": 915,
      "férfi": 916,
      "##ce": 917,
      "árd": 918,
      "szab": 919,
      "eb": 920,
      "cég": 921,
      "játék": 922,
      "##tö": 923,
      "##um": 924,
      "baj": 925,
      "oszt": 926,
      "ment": 927,
      "##ri": 928,
      "net": 929,
      "ered": 930,
      "ön": 931,
      "siker": 932,
      "lap": 933,
      "jut": 934,
      "##oly": 935,
      "gyer": 936,
      "##ör": 937,
      "ók": 938,
      "elem": 939,
      "hang": 940,
      "ma": 941,
      "társa": 942,
      "törvé": 943,
      "dolgo": 944,
      "par": 945,
      "len": 946,
      "lás": 947,
      "ód": 948,
      "##dig": 949,
      "fizet": 950,
      "ia": 951,
      "óta": 952,
      "##gyel": 953,
      "##sg": 954,
      "ára": 955,
      "érték": 956,
      "szerv": 957,
      "juk": 958,
      "adat": 959,
      "obb": 960,
      "kar": 961,
      "##nte": 962,
      "haj": 963,
      "hó": 964,
      "bl": 965,
      "európ": 966,
      "##tá": 967,
      "érdek": 968,
      "##va": 969,
      "ném": 970,
      "seg": 971,
      "kel": 972,
      "alatt": 973,
      "atlan": 974,
      "volna": 975,
      "kív": 976,
      "ők": 977,
      "vas": 978,
      "##asz": 979,
      "készü": 980,
      "mar": 981,
      "nyom": 982,
      "vezet": 983,
      "uta": 984,
      "csö": 985,
      "hu": 986,
      "gr": 987,
      "##int": 988,
      "tr": 989,
      "##he": 990,
      "ási": 991,
      "##ki": 992,
      "ezek": 993,
      "másod": 994,
      "otta": 995,
      "túl": 996,
      "szerű": 997,
      "##köd": 998,
      "##ge": 999,
      "zat": 1000,
      "jegy": 1001,
      "gondo": 1002,
      "tag": 1003,
      "elmi": 1004,
      "má": 1005,
      "négy": 1006,
      "kken": 1007,
      "valam": 1008,
      "alá": 1009,
      "oldal": 1010,
      "tam": 1011,
      "##vi": 1012,
      "té": 1013,
      "##la": 1014,
      "jav": 1015,
      "ltség": 1016,
      "út": 1017,
      "amer": 1018,
      "szó": 1019,
      "idesz": 1020,
      "súl": 1021,
      "súly": 1022,
      "terv": 1023,
      "fil": 1024,
      "ink": 1025,
      "bal": 1026,
      "vesz": 1027,
      "##ep": 1028,
      "bár": 1029,
      "mód": 1030,
      "eml": 1031,
      "tlen": 1032,
      "akik": 1033,
      "közel": 1034,
      "##atal": 1035,
      "vétel": 1036,
      "zár": 1037,
      "besz": 1038,
      "verse": 1039,
      "##uá": 1040,
      "##ká": 1041,
      "utó": 1042,
      "ennyi": 1043,
      "intéz": 1044,
      "atás": 1045,
      "éh": 1046,
      "##ról": 1047,
      "olat": 1048,
      "lni": 1049,
      "viszo": 1050,
      "cél": 1051,
      "tik": 1052,
      "mini": 1053,
      "öz": 1054,
      "ütt": 1055,
      "mány": 1056,
      "támog": 1057,
      "vált": 1058,
      "##ára": 1059,
      "and": 1060,
      "##lte": 1061,
      "si": 1062,
      "bar": 1063,
      "lét": 1064,
      "bud": 1065,
      "ford": 1066,
      "jobb": 1067,
      "ások": 1068,
      "nagyo": 1069,
      "szól": 1070,
      "méter": 1071,
      "film": 1072,
      "áltoz": 1073,
      "fü": 1074,
      "fr": 1075,
      "pél": 1076,
      "példá": 1077,
      "##ba": 1078,
      "ése": 1079,
      "us": 1080,
      "##kü": 1081,
      "budap": 1082,
      "nin": 1083,
      "##di": 1084,
      "ező": 1085,
      "szül": 1086,
      "sport": 1087,
      "nélkü": 1088,
      "bizo": 1089,
      "indul": 1090,
      "akar": 1091,
      "tiszt": 1092,
      "##00": 1093,
      "ész": 1094,
      "##köz": 1095,
      "német": 1096,
      "son": 1097,
      "víz": 1098,
      "pia": 1099,
      "pály": 1100,
      "szter": 1101,
      "rö": 1102,
      "marad": 1103,
      "beszé": 1104,
      "ip": 1105,
      "olyam": 1106,
      "forg": 1107,
      "hanem": 1108,
      "ell": 1109,
      "őd": 1110,
      "munká": 1111,
      "ző": 1112,
      "ord": 1113,
      "##zet": 1114,
      "gép": 1115,
      "pró": 1116,
      "sí": 1117,
      "szem": 1118,
      "nincs": 1119,
      "győz": 1120,
      "##vas": 1121,
      "kam": 1122,
      "lal": 1123,
      "szet": 1124,
      "##ác": 1125,
      "alom": 1126,
      "ügyi": 1127,
      "isz": 1128,
      "arm": 1129,
      "att": 1130,
      "kl": 1131,
      "##vat": 1132,
      "lé": 1133,
      "sk": 1134,
      "ően": 1135,
      "ével": 1136,
      "álat": 1137,
      "igazg": 1138,
      "##lat": 1139,
      "ották": 1140,
      "iselő": 1141,
      "ső": 1142,
      "igyel": 1143,
      "termé": 1144,
      "terül": 1145,
      "kt": 1146,
      "ch": 1147,
      "üz": 1148,
      "lett": 1149,
      "do": 1150,
      "zölte": 1151,
      "bajno": 1152,
      "erő": 1153,
      "ran": 1154,
      "ely": 1155,
      "nép": 1156,
      "adás": 1157,
      "ász": 1158,
      "fo": 1159,
      "jövő": 1160,
      "dol": 1161,
      "mí": 1162,
      "táv": 1163,
      "nyer": 1164,
      "lá": 1165,
      "tol": 1166,
      "fogad": 1167,
      "kr": 1168,
      "ükség": 1169,
      "ur": 1170,
      "azért": 1171,
      "játsz": 1172,
      "ken": 1173,
      "azok": 1174,
      "lj": 1175,
      "dal": 1176,
      "kev": 1177,
      "egyed": 1178,
      "tü": 1179,
      "##ád": 1180,
      "sági": 1181,
      "ng": 1182,
      "san": 1183,
      "eddig": 1184,
      "nyi": 1185,
      "hív": 1186,
      "orv": 1187,
      "eng": 1188,
      "előre": 1189,
      "míg": 1190,
      "lat": 1191,
      "##nyv": 1192,
      "perc": 1193,
      "##opo": 1194,
      "ontos": 1195,
      "csopo": 1196,
      "bí": 1197,
      "inte": 1198,
      "kó": 1199,
      "inf": 1200,
      "olvas": 1201,
      "fe": 1202,
      "elt": 1203,
      "tköz": 1204,
      "gram": 1205,
      "ang": 1206,
      "##lag": 1207,
      "test": 1208,
      "gyű": 1209,
      "tő": 1210,
      "ült": 1211,
      "anyag": 1212,
      "űköd": 1213,
      "foly": 1214,
      "avaz": 1215,
      "ési": 1216,
      "ahol": 1217,
      "polg": 1218,
      "polgá": 1219,
      "emély": 1220,
      "pl": 1221,
      "um": 1222,
      "armad": 1223,
      "számí": 1224,
      "ősz": 1225,
      "ezért": 1226,
      "don": 1227,
      "bb": 1228,
      "nevez": 1229,
      "gyen": 1230,
      "annak": 1231,
      "dél": 1232,
      "##né": 1233,
      "súlyo": 1234,
      "ánd": 1235,
      "ex": 1236,
      "képv": 1237,
      "ottak": 1238,
      "hír": 1239,
      "##fő": 1240,
      "telje": 1241,
      "fok": 1242,
      "néz": 1243,
      "##ható": 1244,
      "##ei": 1245,
      "bank": 1246,
      "gyak": 1247,
      "pé": 1248,
      "##pá": 1249,
      "hagy": 1250,
      "kár": 1251,
      "eit": 1252,
      "ennek": 1253,
      "szo": 1254,
      "##rás": 1255,
      "hónap": 1256,
      "részt": 1257,
      "mno": 1258,
      "##dés": 1259,
      "du": 1260,
      "szolg": 1261,
      "táj": 1262,
      "könyv": 1263,
      "bü": 1264,
      "saját": 1265,
      "salád": 1266,
      "ülés": 1267,
      "bíró": 1268,
      "telen": 1269,
      "ket": 1270,
      "füg": 1271,
      "haz": 1272,
      "uni": 1273,
      "iká": 1274,
      "ást": 1275,
      "##zel": 1276,
      "csü": 1277,
      "##and": 1278,
      "min": 1279,
      "őség": 1280,
      "ális": 1281,
      "iá": 1282,
      "##só": 1283,
      "irány": 1284,
      "tem": 1285,
      "har": 1286,
      "##ma": 1287,
      "őrség": 1288,
      "zen": 1289,
      "##lá": 1290,
      "rég": 1291,
      "arról": 1292,
      "ég": 1293,
      "ésé": 1294,
      "ber": 1295,
      "tős": 1296,
      "növe": 1297,
      "sér": 1298,
      "ant": 1299,
      "ekk": 1300,
      "jelöl": 1301,
      "megf": 1302,
      "sü": 1303,
      "kedés": 1304,
      "fi": 1305,
      "maga": 1306,
      "magas": 1307,
      "taval": 1308,
      "##any": 1309,
      "tartó": 1310,
      "iszen": 1311,
      "ac": 1312,
      "sel": 1313,
      "sajtó": 1314,
      "##há": 1315,
      "atáro": 1316,
      "olg": 1317,
      "tul": 1318,
      "gól": 1319,
      "képes": 1320,
      "jan": 1321,
      "viz": 1322,
      "kutat": 1323,
      "sony": 1324,
      "készí": 1325,
      "kívül": 1326,
      "rtök": 1327,
      "ss": 1328,
      "amit": 1329,
      "ával": 1330,
      "állít": 1331,
      "ris": 1332,
      "neh": 1333,
      "rm": 1334,
      "nyol": 1335,
      "ros": 1336,
      "abály": 1337,
      "lo": 1338,
      "zik": 1339,
      "ekkel": 1340,
      "tárgy": 1341,
      "adott": 1342,
      "alkal": 1343,
      "áj": 1344,
      "próbá": 1345,
      "tulaj": 1346,
      "lek": 1347,
      "ést": 1348,
      "ud": 1349,
      "hát": 1350,
      "endő": 1351,
      "másik": 1352,
      "emzet": 1353,
      "éhány": 1354,
      "ámára": 1355,
      "tség": 1356,
      "jól": 1357,
      "oztat": 1358,
      "tűn": 1359,
      "jú": 1360,
      "kedv": 1361,
      "akad": 1362,
      "##ors": 1363,
      "vett": 1364,
      "kedd": 1365,
      "au": 1366,
      "jé": 1367,
      "mú": 1368,
      "ná": 1369,
      "épí": 1370,
      "piac": 1371,
      "##kod": 1372,
      "na": 1373,
      "lékos": 1374,
      "inkáb": 1375,
      "##vá": 1376,
      "járás": 1377,
      "ök": 1378,
      "felé": 1379,
      "órá": 1380,
      "##ho": 1381,
      "esz": 1382,
      "nemze": 1383,
      "tájék": 1384,
      "ttság": 1385,
      "inter": 1386,
      "hivat": 1387,
      "vé": 1388,
      "nyilv": 1389,
      "szöve": 1390,
      "egyé": 1391,
      "za": 1392,
      "teni": 1393,
      "lhet": 1394,
      "épp": 1395,
      "eség": 1396,
      "thet": 1397,
      "alaku": 1398,
      "csütö": 1399,
      "hall": 1400,
      "izsg": 1401,
      "raj": 1402,
      "fordu": 1403,
      "című": 1404,
      "ait": 1405,
      "lm": 1406,
      "vis": 1407,
      "hit": 1408,
      "közül": 1409,
      "##hoz": 1410,
      "ezés": 1411,
      "késő": 1412,
      "izsgá": 1413,
      "iatal": 1414,
      "múlt": 1415,
      "akár": 1416,
      "része": 1417,
      "tiz": 1418,
      "br": 1419,
      "talan": 1420,
      "abad": 1421,
      "évek": 1422,
      "dollá": 1423,
      "számo": 1424,
      "okoz": 1425,
      "##itá": 1426,
      "tközi": 1427,
      "tanul": 1428,
      "eren": 1429,
      "tölt": 1430,
      "to": 1431,
      "örö": 1432,
      "lenne": 1433,
      "elj": 1434,
      "ru": 1435,
      "támad": 1436,
      "érkez": 1437,
      "lab": 1438,
      "elég": 1439,
      "bű": 1440,
      "ya": 1441,
      "köt": 1442,
      "ány": 1443,
      "gj": 1444,
      "gyors": 1445,
      "ztat": 1446,
      "ós": 1447,
      "bűn": 1448,
      "érz": 1449,
      "rom": 1450,
      "gjobb": 1451,
      "hatás": 1452,
      "közö": 1453,
      "moz": 1454,
      "állap": 1455,
      "tó": 1456,
      "tíz": 1457,
      "pályá": 1458,
      "##ha": 1459,
      "niszt": 1460,
      "álló": 1461,
      "ítél": 1462,
      "éd": 1463,
      "sérü": 1464,
      "mo": 1465,
      "gyobb": 1466,
      "szüle": 1467,
      "ty": 1468,
      "almaz": 1469,
      "ítás": 1470,
      "enged": 1471,
      "ou": 1472,
      "oló": 1473,
      "dec": 1474,
      "##mű": 1475,
      "januá": 1476,
      "kü": 1477,
      "szál": 1478,
      "mely": 1479,
      "oro": 1480,
      "azz": 1481,
      "nyú": 1482,
      "so": 1483,
      "emlék": 1484,
      "kí": 1485,
      "legna": 1486,
      "körül": 1487,
      "mez": 1488,
      "tv": 1489,
      "ic": 1490,
      "okkal": 1491,
      "belül": 1492,
      "gyár": 1493,
      "ásá": 1494,
      "##csi": 1495,
      "##anc": 1496,
      "atott": 1497,
      "ág": 1498,
      "atok": 1499,
      "állás": 1500,
      "zp": 1501,
      "nság": 1502,
      "mec": 1503,
      "leges": 1504,
      "tétel": 1505,
      "mai": 1506,
      "tesz": 1507,
      "ponto": 1508,
      "lalko": 1509,
      "gyere": 1510,
      "gyako": 1511,
      "ev": 1512,
      "esti": 1513,
      "során": 1514,
      "msz": 1515,
      "##ami": 1516,
      "eni": 1517,
      "ft": 1518,
      "ati": 1519,
      "bet": 1520,
      "iszt": 1521,
      "egyei": 1522,
      "jai": 1523,
      "##koz": 1524,
      "rossz": 1525,
      "árnap": 1526,
      "idej": 1527,
      "semmi": 1528,
      "hiány": 1529,
      "erd": 1530,
      "ista": 1531,
      "erenc": 1532,
      "zpont": 1533,
      "azzal": 1534,
      "red": 1535,
      "vetés": 1536,
      "ette": 1537,
      "részé": 1538,
      "rd": 1539,
      "alk": 1540,
      "nyolc": 1541,
      "emben": 1542,
      "rny": 1543,
      "pénzt": 1544,
      "indig": 1545,
      "író": 1546,
      "nyel": 1547,
      "ala": 1548,
      "tit": 1549,
      "bra": 1550,
      "ete": 1551,
      "egyéb": 1552,
      "bef": 1553,
      "beteg": 1554,
      "skol": 1555,
      "kom": 1556,
      "közép": 1557,
      "ződés": 1558,
      "ezzel": 1559,
      "megsz": 1560,
      "telep": 1561,
      "mot": 1562,
      "pr": 1563,
      "ard": 1564,
      "oltak": 1565,
      "kön": 1566,
      "gyan": 1567,
      "tolsó": 1568,
      "zl": 1569,
      "leked": 1570,
      "sztés": 1571,
      "száll": 1572,
      "kot": 1573,
      "tb": 1574,
      "zni": 1575,
      "orosz": 1576,
      "akció": 1577,
      "sebb": 1578,
      "későb": 1579,
      "éri": 1580,
      "ános": 1581,
      "éve": 1582,
      "lta": 1583,
      "szok": 1584,
      "ászló": 1585,
      "tarto": 1586,
      "föld": 1587,
      "érte": 1588,
      "ró": 1589,
      "orb": 1590,
      "utób": 1591,
      "atkoz": 1592,
      "visel": 1593,
      "bá": 1594,
      "mivel": 1595,
      "hí": 1596,
      "kod": 1597,
      "parla": 1598,
      "meccs": 1599,
      "##ele": 1600,
      "fen": 1601,
      "ossz": 1602,
      "aján": 1603,
      "vonat": 1604,
      "lépés": 1605,
      "maz": 1606,
      "mányz": 1607,
      "lévő": 1608,
      "eljes": 1609,
      "eszt": 1610,
      "##ti": 1611,
      "eh": 1612,
      "vizsg": 1613,
      "fejle": 1614,
      "til": 1615,
      "nyit": 1616,
      "idén": 1617,
      "kező": 1618,
      "iro": 1619,
      "ezett": 1620,
      "rható": 1621,
      "ák": 1622,
      "csat": 1623,
      "ajánl": 1624,
      "op": 1625,
      "végén": 1626,
      "újra": 1627,
      "színű": 1628,
      "sta": 1629,
      "bil": 1630,
      "enki": 1631,
      "keze": 1632,
      "##já": 1633,
      "un": 1634,
      "könny": 1635,
      "úja": 1636,
      "tetté": 1637,
      "újabb": 1638,
      "magán": 1639,
      "pénte": 1640,
      "mszp": 1641,
      "fejez": 1642,
      "##me": 1643,
      "rende": 1644,
      "10": 1645,
      "végz": 1646,
      "##let": 1647,
      "eti": 1648,
      "hazai": 1649,
      "gal": 1650,
      "élemé": 1651,
      "határ": 1652,
      "gyerm": 1653,
      "port": 1654,
      "gyanú": 1655,
      "rú": 1656,
      "kség": 1657,
      "rak": 1658,
      "##alm": 1659,
      "hitel": 1660,
      "elelő": 1661,
      "enek": 1662,
      "bor": 1663,
      "rel": 1664,
      "úsz": 1665,
      "##ális": 1666,
      "últ": 1667,
      "segít": 1668,
      "elkez": 1669,
      "méd": 1670,
      "orvos": 1671,
      "der": 1672,
      "utas": 1673,
      "veszt": 1674,
      "oda": 1675,
      "gyó": 1676,
      "helyi": 1677,
      "jának": 1678,
      "ein": 1679,
      "tekin": 1680,
      "hú": 1681,
      "mit": 1682,
      "pal": 1683,
      "ult": 1684,
      "bö": 1685,
      "kotmá": 1686,
      "orbán": 1687,
      "iai": 1688,
      "egyes": 1689,
      "almas": 1690,
      "ebben": 1691,
      "tanác": 1692,
      "vány": 1693,
      "abban": 1694,
      "hajt": 1695,
      "gen": 1696,
      "##ről": 1697,
      "tor": 1698,
      "bele": 1699,
      "infor": 1700,
      "vonal": 1701,
      "tűz": 1702,
      "gel": 1703,
      "segí": 1704,
      "kín": 1705,
      "ich": 1706,
      "íz": 1707,
      "csap": 1708,
      "tét": 1709,
      "olgál": 1710,
      "uszt": 1711,
      "eseté": 1712,
      "fut": 1713,
      "##te": 1714,
      "omb": 1715,
      "zta": 1716,
      "etem": 1717,
      "napi": 1718,
      "ká": 1719,
      "lja": 1720,
      "tani": 1721,
      "gos": 1722,
      "nov": 1723,
      "tú": 1724,
      "étfő": 1725,
      "őket": 1726,
      "oci": 1727,
      "önk": 1728,
      "idei": 1729,
      "dar": 1730,
      "orrás": 1731,
      "ábor": 1732,
      "jük": 1733,
      "óvi": 1734,
      "önkor": 1735,
      "erv": 1736,
      "alakí": 1737,
      "péter": 1738,
      "lytat": 1739,
      "ából": 1740,
      "vér": 1741,
      "szél": 1742,
      "ato": 1743,
      "##ván": 1744,
      "évben": 1745,
      "ka": 1746,
      "mal": 1747,
      "ését": 1748,
      "érint": 1749,
      "alább": 1750,
      "##ub": 1751,
      "rmest": 1752,
      "nyújt": 1753,
      "utc": 1754,
      "##ex": 1755,
      "dr": 1756,
      "osság": 1757,
      "hol": 1758,
      "válog": 1759,
      "fenn": 1760,
      "óvivő": 1761,
      "éb": 1762,
      "##im": 1763,
      "kil": 1764,
      "##tos": 1765,
      "##ka": 1766,
      "elej": 1767,
      "elet": 1768,
      "##ábor": 1769,
      "pil": 1770,
      "iztos": 1771,
      "lég": 1772,
      "motor": 1773,
      "gáz": 1774,
      "arc": 1775,
      "éli": 1776,
      "írás": 1777,
      "epel": 1778,
      "lány": 1779,
      "éppen": 1780,
      "áltat": 1781,
      "tot": 1782,
      "ős": 1783,
      "nik": 1784,
      "##gye": 1785,
      "okban": 1786,
      "erdán": 1787,
      "yaszt": 1788,
      "ain": 1789,
      "bír": 1790,
      "átlag": 1791,
      "intén": 1792,
      "mel": 1793,
      "##ják": 1794,
      "séges": 1795,
      "étfőn": 1796,
      "kór": 1797,
      "ersze": 1798,
      "kiv": 1799,
      "szom": 1800,
      "hető": 1801,
      "máció": 1802,
      "ester": 1803,
      "ekt": 1804,
      "af": 1805,
      "erre": 1806,
      "lov": 1807,
      "zék": 1808,
      "magá": 1809,
      "jegyz": 1810,
      "annyi": 1811,
      "telez": 1812,
      "ismét": 1813,
      "##gel": 1814,
      "álság": 1815,
      "üzem": 1816,
      "15": 1817,
      "bő": 1818,
      "zz": 1819,
      "terje": 1820,
      "zlemé": 1821,
      "tap": 1822,
      "etet": 1823,
      "sonló": 1824,
      "gyűjt": 1825,
      "ika": 1826,
      "magát": 1827,
      "óra": 1828,
      "sa": 1829,
      "stván": 1830,
      "éj": 1831,
      "halál": 1832,
      "ipar": 1833,
      "szint": 1834,
      "gyu": 1835,
      "itás": 1836,
      "etés": 1837,
      "fu": 1838,
      "nőtt": 1839,
      "zi": 1840,
      "írja": 1841,
      "kció": 1842,
      "aslat": 1843,
      "kíván": 1844,
      "neki": 1845,
      "jában": 1846,
      "cso": 1847,
      "lőd": 1848,
      "##ént": 1849,
      "ervez": 1850,
      "azon": 1851,
      "##gi": 1852,
      "ebr": 1853,
      "keves": 1854,
      "str": 1855,
      "las": 1856,
      "iut": 1857,
      "alami": 1858,
      "emény": 1859,
      "lag": 1860,
      "ogyan": 1861,
      "áció": 1862,
      "##ine": 1863,
      "po": 1864,
      "totta": 1865,
      "szóló": 1866,
      "áról": 1867,
      "atív": 1868,
      "iután": 1869,
      "kság": 1870,
      "őrök": 1871,
      "barát": 1872,
      "igen": 1873,
      "no": 1874,
      "kény": 1875,
      "atot": 1876,
      "szív": 1877,
      "bíz": 1878,
      "##sor": 1879,
      "jo": 1880,
      "szor": 1881,
      "éről": 1882,
      "elős": 1883,
      "##zs": 1884,
      "este": 1885,
      "árm": 1886,
      "régi": 1887,
      "álasz": 1888,
      "ozat": 1889,
      "formá": 1890,
      "ebruá": 1891,
      "km": 1892,
      "ese": 1893,
      "ezte": 1894,
      "tető": 1895,
      "man": 1896,
      "tele": 1897,
      "20": 1898,
      "etné": 1899,
      "land": 1900,
      "műsor": 1901,
      "nete": 1902,
      "ene": 1903,
      "ttal": 1904,
      "##adt": 1905,
      "lkod": 1906,
      "ény": 1907,
      "ata": 1908,
      "##vid": 1909,
      "kkal": 1910,
      "ogl": 1911,
      "kelet": 1912,
      "ől": 1913,
      "adság": 1914,
      "rög": 1915,
      "őször": 1916,
      "tehet": 1917,
      "assz": 1918,
      "##chn": 1919,
      "üzlet": 1920,
      "ib": 1921,
      "zben": 1922,
      "vid": 1923,
      "ost": 1924,
      "pi": 1925,
      "vatal": 1926,
      "rnyez": 1927,
      "jelz": 1928,
      "pá": 1929,
      "##öv": 1930,
      "lik": 1931,
      "ün": 1932,
      "csú": 1933,
      "igény": 1934,
      "kocsi": 1935,
      "zol": 1936,
      "ong": 1937,
      "bev": 1938,
      "tunk": 1939,
      "függe": 1940,
      "part": 1941,
      "aszt": 1942,
      "lg": 1943,
      "##nep": 1944,
      "##sér": 1945,
      "ener": 1946,
      "franc": 1947,
      "szí": 1948,
      "földi": 1949,
      "elv": 1950,
      "évvel": 1951,
      "kett": 1952,
      "rlat": 1953,
      "szerz": 1954,
      "bér": 1955,
      "rtökö": 1956,
      "##émá": 1957,
      "jött": 1958,
      "megh": 1959,
      "érium": 1960,
      "irat": 1961,
      "vél": 1962,
      "legf": 1963,
      "ordul": 1964,
      "gu": 1965,
      "kísér": 1966,
      "moly": 1967,
      "mti": 1968,
      "rek": 1969,
      "ggel": 1970,
      "kan": 1971,
      "íg": 1972,
      "gyárt": 1973,
      "szk": 1974,
      "felh": 1975,
      "kek": 1976,
      "halad": 1977,
      "blémá": 1978,
      "anak": 1979,
      "##elm": 1980,
      "csu": 1981,
      "ítés": 1982,
      "osszú": 1983,
      "12": 1984,
      "ria": 1985,
      "izm": 1986,
      "oglal": 1987,
      "tudom": 1988,
      "őrz": 1989,
      "ünnep": 1990,
      "pó": 1991,
      "miért": 1992,
      "enni": 1993,
      "vall": 1994,
      "épül": 1995,
      "egyre": 1996,
      "arány": 1997,
      "##tor": 1998,
      "techn": 1999,
      "tilt": 2000,
      "gábor": 2001,
      "keret": 2002,
      "erősí": 2003,
      "sért": 2004,
      "ín": 2005,
      "kiad": 2006,
      "ason": 2007,
      "hallg": 2008,
      "mö": 2009,
      "élő": 2010,
      "jon": 2011,
      "áld": 2012,
      "ottho": 2013,
      "töm": 2014,
      "##ssz": 2015,
      "esség": 2016,
      "küld": 2017,
      "epl": 2018,
      "##ház": 2019,
      "ásra": 2020,
      "yör": 2021,
      "értő": 2022,
      "eken": 2023,
      "ekre": 2024,
      "listá": 2025,
      "labda": 2026,
      "sség": 2027,
      "ark": 2028,
      "unió": 2029,
      "nehéz": 2030,
      "gyes": 2031,
      "képp": 2032,
      "da": 2033,
      "rövid": 2034,
      "hossz": 2035,
      "tetés": 2036,
      "alkot": 2037,
      "ették": 2038,
      "ltek": 2039,
      "ándor": 2040,
      "minő": 2041,
      "kilo": 2042,
      "fek": 2043,
      "kőz": 2044,
      "##ke": 2045,
      "##ába": 2046,
      "nyomo": 2047,
      "eplő": 2048,
      "omány": 2049,
      "végre": 2050,
      "ton": 2051,
      "env": 2052,
      "ását": 2053,
      "nal": 2054,
      "##pa": 2055,
      "ern": 2056,
      "terem": 2057,
      "elmet": 2058,
      "rúg": 2059,
      "elyen": 2060,
      "apitá": 2061,
      "lf": 2062,
      "dob": 2063,
      "##tób": 2064,
      "izony": 2065,
      "létre": 2066,
      "terme": 2067,
      "szete": 2068,
      "ff": 2069,
      "állt": 2070,
      "mozg": 2071,
      "óri": 2072,
      "ion": 2073,
      "kevés": 2074,
      "kórhá": 2075,
      "lnek": 2076,
      "egyez": 2077,
      "mer": 2078,
      "all": 2079,
      "média": 2080,
      "fed": 2081,
      "esély": 2082,
      "nf": 2083,
      "ezen": 2084,
      "kori": 2085,
      "aho": 2086,
      "lják": 2087,
      "tóság": 2088,
      "érdem": 2089,
      "gyógy": 2090,
      "ce": 2091,
      "módo": 2092,
      "ztal": 2093,
      "utaz": 2094,
      "pan": 2095,
      "ank": 2096,
      "jön": 2097,
      "egyen": 2098,
      "teszi": 2099,
      "lu": 2100,
      "özben": 2101,
      "tudja": 2102,
      "mente": 2103,
      "kéz": 2104,
      "gyeng": 2105,
      "enved": 2106,
      "olcs": 2107,
      "túr": 2108,
      "asonl": 2109,
      "rit": 2110,
      "óg": 2111,
      "ea": 2112,
      "ajo": 2113,
      "keny": 2114,
      "ner": 2115,
      "esett": 2116,
      "aradt": 2117,
      "húz": 2118,
      "akasz": 2119,
      "energ": 2120,
      "színe": 2121,
      "osan": 2122,
      "new": 2123,
      "##mu": 2124,
      "konce": 2125,
      "hibá": 2126,
      "brit": 2127,
      "őv": 2128,
      "sch": 2129,
      "etek": 2130,
      "##rt": 2131,
      "ehér": 2132,
      "yörgy": 2133,
      "ril": 2134,
      "teh": 2135,
      "endég": 2136,
      "óz": 2137,
      "rab": 2138,
      "sá": 2139,
      "legi": 2140,
      "végül": 2141,
      "eny": 2142,
      "rül": 2143,
      "tehát": 2144,
      "áp": 2145,
      "ásár": 2146,
      "usz": 2147,
      "vezér": 2148,
      "nyelv": 2149,
      "obbik": 2150,
      "pu": 2151,
      "ület": 2152,
      "tizen": 2153,
      "takar": 2154,
      "ázs": 2155,
      "nl": 2156,
      "irod": 2157,
      "előző": 2158,
      "sítmé": 2159,
      "ay": 2160,
      "többi": 2161,
      "nyság": 2162,
      "függ": 2163,
      "fele": 2164,
      "fegy": 2165,
      "mat": 2166,
      "ocial": 2167,
      "cik": 2168,
      "alu": 2169,
      "cius": 2170,
      "ciós": 2171,
      "klub": 2172,
      "elér": 2173,
      "zel": 2174,
      "úr": 2175,
      "ándék": 2176,
      "jármű": 2177,
      "mok": 2178,
      "buk": 2179,
      "féle": 2180,
      "ele": 2181,
      "tí": 2182,
      "ólag": 2183,
      "koc": 2184,
      "kőzés": 2185,
      "lovák": 2186,
      "ggy": 2187,
      "ígér": 2188,
      "fény": 2189,
      "jános": 2190,
      "cikk": 2191,
      "szép": 2192,
      "hete": 2193,
      "beli": 2194,
      "elme": 2195,
      "ehet": 2196,
      "darab": 2197,
      "art": 2198,
      "apot": 2199,
      "tvány": 2200,
      "donos": 2201,
      "lső": 2202,
      "mp": 2203,
      "ösen": 2204,
      "ssz": 2205,
      "októb": 2206,
      "benne": 2207,
      "ügyel": 2208,
      "ejt": 2209,
      "tapas": 2210,
      "szu": 2211,
      "eleg": 2212,
      "alos": 2213,
      "##csá": 2214,
      "utal": 2215,
      "ombat": 2216,
      "bünte": 2217,
      "izmus": 2218,
      "ásárl": 2219,
      "pa": 2220,
      "tuk": 2221,
      "omo": 2222,
      "get": 2223,
      "írta": 2224,
      "encs": 2225,
      "nként": 2226,
      "tamás": 2227,
      "##űl": 2228,
      "szü": 2229,
      "védő": 2230,
      "tatás": 2231,
      "ld": 2232,
      "tkez": 2233,
      "vevő": 2234,
      "őriz": 2235,
      "fa": 2236,
      "tést": 2237,
      "##ilk": 2238,
      "##var": 2239,
      "név": 2240,
      "vele": 2241,
      "lakás": 2242,
      "ová": 2243,
      "trány": 2244,
      "gi": 2245,
      "nök": 2246,
      "kul": 2247,
      "éko": 2248,
      "tük": 2249,
      "agyis": 2250,
      "ven": 2251,
      "odell": 2252,
      "őváro": 2253,
      "por": 2254,
      "wi": 2255,
      "oktat": 2256,
      "ggyűl": 2257,
      "évi": 2258,
      "oha": 2259,
      "erá": 2260,
      "ékony": 2261,
      "iség": 2262,
      "bőv": 2263,
      "tos": 2264,
      "zeti": 2265,
      "rilis": 2266,
      "óriá": 2267,
      "csele": 2268,
      "harc": 2269,
      "mégis": 2270,
      "tésé": 2271,
      "##zd": 2272,
      "nyert": 2273,
      "indí": 2274,
      "kocká": 2275,
      "ck": 2276,
      "oo": 2277,
      "emp": 2278,
      "adásu": 2279,
      "llam": 2280,
      "rs": 2281,
      "alás": 2282,
      "##ött": 2283,
      "spany": 2284,
      "##kol": 2285,
      "ésre": 2286,
      "éz": 2287,
      "ító": 2288,
      "zte": 2289,
      "ahogy": 2290,
      "újság": 2291,
      "küzd": 2292,
      "ötte": 2293,
      "kampá": 2294,
      "co": 2295,
      "ög": 2296,
      "elh": 2297,
      "elyez": 2298,
      "tőz": 2299,
      "ntr": 2300,
      "kettő": 2301,
      "lin": 2302,
      "sze": 2303,
      "olta": 2304,
      "gyilk": 2305,
      "csá": 2306,
      "ányos": 2307,
      "usztr": 2308,
      "kapu": 2309,
      "tja": 2310,
      "cser": 2311,
      "egle": 2312,
      "aná": 2313,
      "maguk": 2314,
      "alac": 2315,
      "csi": 2316,
      "ügymi": 2317,
      "ször": 2318,
      "nline": 2319,
      "rem": 2320,
      "som": 2321,
      "zá": 2322,
      "ályáz": 2323,
      "bk": 2324,
      "nyít": 2325,
      "erel": 2326,
      "alapí": 2327,
      "ug": 2328,
      "orban": 2329,
      "andó": 2330,
      "ására": 2331,
      "inc": 2332,
      "ába": 2333,
      "ird": 2334,
      "zrt": 2335,
      "avi": 2336,
      "oldás": 2337,
      "bocsá": 2338,
      "áldoz": 2339,
      "aton": 2340,
      "elyik": 2341,
      "lass": 2342,
      "atos": 2343,
      "pálya": 2344,
      "közös": 2345,
      "fin": 2346,
      "nsági": 2347,
      "eknek": 2348,
      "busz": 2349,
      "íció": 2350,
      "##co": 2351,
      "járó": 2352,
      "elé": 2353,
      "##iná": 2354,
      "znak": 2355,
      "gyesü": 2356,
      "ideg": 2357,
      "pül": 2358,
      "rg": 2359,
      "##ekt": 2360,
      "ler": 2361,
      "log": 2362,
      "sza": 2363,
      "eglep": 2364,
      "ánt": 2365,
      "alaki": 2366,
      "érvé": 2367,
      "##énye": 2368,
      "titká": 2369,
      "zoltá": 2370,
      "reg": 2371,
      "16": 2372,
      "esen": 2373,
      "távo": 2374,
      "közve": 2375,
      "valós": 2376,
      "30": 2377,
      "ih": 2378,
      "alig": 2379,
      "iktor": 2380,
      "lenc": 2381,
      "tin": 2382,
      "széd": 2383,
      "olim": 2384,
      "tevé": 2385,
      "mik": 2386,
      "karác": 2387,
      "irdet": 2388,
      "ist": 2389,
      "senki": 2390,
      "olimp": 2391,
      "szi": 2392,
      "végé": 2393,
      "zak": 2394,
      "iv": 2395,
      "csupá": 2396,
      "mög": 2397,
      "olasz": 2398,
      "fot": 2399,
      "össég": 2400,
      "üket": 2401,
      "folyt": 2402,
      "bkv": 2403,
      "gyűl": 2404,
      "rag": 2405,
      "vette": 2406,
      "11": 2407,
      "25": 2408,
      "ngyel": 2409,
      "vág": 2410,
      "##hon": 2411,
      "orvát": 2412,
      "gtö": 2413,
      "lem": 2414,
      "idéz": 2415,
      "előz": 2416,
      "gtöbb": 2417,
      "ue": 2418,
      "katon": 2419,
      "héten": 2420,
      "zer": 2421,
      "léka": 2422,
      "ív": 2423,
      "üt": 2424,
      "lkal": 2425,
      "lkalm": 2426,
      "zin": 2427,
      "talán": 2428,
      "ölcs": 2429,
      "fordí": 2430,
      "ád": 2431,
      "dió": 2432,
      "atója": 2433,
      "azott": 2434,
      "ort": 2435,
      "ológi": 2436,
      "écs": 2437,
      "éből": 2438,
      "zis": 2439,
      "tthon": 2440,
      "lef": 2441,
      "sőt": 2442,
      "fotó": 2443,
      "remé": 2444,
      "18": 2445,
      "erg": 2446,
      "működ": 2447,
      "hétfő": 2448,
      "tév": 2449,
      "##all": 2450,
      "kinek": 2451,
      "ainak": 2452,
      "árt": 2453,
      "hull": 2454,
      "áború": 2455,
      "indok": 2456,
      "vád": 2457,
      "gazdá": 2458,
      "okon": 2459,
      "ansz": 2460,
      "öbb": 2461,
      "embe": 2462,
      "ámos": 2463,
      "ktor": 2464,
      "elejé": 2465,
      "-,": 2466,
      "hő": 2467,
      "##szö": 2468,
      "ések": 2469,
      "járul": 2470,
      "terhe": 2471,
      "osz": 2472,
      "onn": 2473,
      "yő": 2474,
      "kkent": 2475,
      "anat": 2476,
      "ral": 2477,
      "neve": 2478,
      "emlí": 2479,
      "zent": 2480,
      "skolá": 2481,
      "eztet": 2482,
      "járat": 2483,
      "menet": 2484,
      "somag": 2485,
      "úz": 2486,
      "esemé": 2487,
      "léte": 2488,
      "ekkor": 2489,
      "élyes": 2490,
      "hál": 2491,
      "cse": 2492,
      "tése": 2493,
      "csal": 2494,
      "arg": 2495,
      "vita": 2496,
      "kkel": 2497,
      "mol": 2498,
      "nok": 2499,
      "##df": 2500,
      "atai": 2501,
      "vagyo": 2502,
      "ecs": 2503,
      "ens": 2504,
      "ndrás": 2505,
      "ogalm": 2506,
      "böző": 2507,
      "tra": 2508,
      "ari": 2509,
      "adék": 2510,
      "nehez": 2511,
      "kif": 2512,
      "zetes": 2513,
      "dt": 2514,
      "dok": 2515,
      "lott": 2516,
      "ml": 2517,
      "##ók": 2518,
      "zú": 2519,
      "plom": 2520,
      "del": 2521,
      "lán": 2522,
      "táb": 2523,
      "tény": 2524,
      "ju": 2525,
      "urg": 2526,
      "köszö": 2527,
      "aztán": 2528,
      "13": 2529,
      "bé": 2530,
      "elsős": 2531,
      "ack": 2532,
      "tball": 2533,
      "felül": 2534,
      "sítás": 2535,
      "dalom": 2536,
      "dá": 2537,
      "ármaz": 2538,
      "tömeg": 2539,
      "elf": 2540,
      "mező": 2541,
      "csiná": 2542,
      "nye": 2543,
      "ója": 2544,
      "ezon": 2545,
      "agyok": 2546,
      "ajó": 2547,
      "éhez": 2548,
      "fegyv": 2549,
      "ályo": 2550,
      "tes": 2551,
      "lev": 2552,
      "nter": 2553,
      "mély": 2554,
      "ezre": 2555,
      "ktív": 2556,
      "hhoz": 2557,
      "ers": 2558,
      "ozi": 2559,
      "uniós": 2560,
      "ej": 2561,
      "háló": 2562,
      "lták": 2563,
      "vény": 2564,
      "őt": 2565,
      "nyz": 2566,
      "érség": 2567,
      "kik": 2568,
      "szen": 2569,
      "indít": 2570,
      "tve": 2571,
      "enc": 2572,
      "távol": 2573,
      "ásáro": 2574,
      "enti": 2575,
      "14": 2576,
      "szel": 2577,
      "tenni": 2578,
      "angol": 2579,
      "kemé": 2580,
      "mon": 2581,
      "női": 2582,
      "romá": 2583,
      "##sef": 2584,
      "házi": 2585,
      "tized": 2586,
      "ics": 2587,
      "löv": 2588,
      "edző": 2589,
      "einek": 2590,
      "odás": 2591,
      "öld": 2592,
      "telm": 2593,
      "ept": 2594,
      "uró": 2595,
      "csúcs": 2596,
      "mdf": 2597,
      "kiz": 2598,
      "izál": 2599,
      "fokoz": 2600,
      "kid": 2601,
      "végez": 2602,
      "rium": 2603,
      "örös": 2604,
      "olaj": 2605,
      "pp": 2606,
      "lásá": 2607,
      "amar": 2608,
      "hh": 2609,
      "##sa": 2610,
      "ségé": 2611,
      "izá": 2612,
      "encsé": 2613,
      "esí": 2614,
      "árf": 2615,
      "tur": 2616,
      "zavar": 2617,
      "gö": 2618,
      "ztül": 2619,
      "befek": 2620,
      "urópa": 2621,
      "utat": 2622,
      "látás": 2623,
      "azaz": 2624,
      "kizár": 2625,
      "zötti": 2626,
      "kban": 2627,
      "örök": 2628,
      "hány": 2629,
      "ekben": 2630,
      "onl": 2631,
      "ménye": 2632,
      "ődött": 2633,
      "kínai": 2634,
      "ózsef": 2635,
      "tom": 2636,
      "szony": 2637,
      "nyben": 2638,
      "ettek": 2639,
      "onlap": 2640,
      "rű": 2641,
      "th": 2642,
      "megv": 2643,
      "olato": 2644,
      "17": 2645,
      "eged": 2646,
      "módon": 2647,
      "ához": 2648,
      "arl": 2649,
      "pülő": 2650,
      "lénye": 2651,
      "ser": 2652,
      "index": 2653,
      "knek": 2654,
      "skola": 2655,
      "szék": 2656,
      "elkö": 2657,
      "addig": 2658,
      "attil": 2659,
      "dokum": 2660,
      "adi": 2661,
      "látsz": 2662,
      "döntő": 2663,
      "zók": 2664,
      "folyó": 2665,
      "ikló": 2666,
      "sztő": 2667,
      "atta": 2668,
      "vonul": 2669,
      "cégek": 2670,
      "múl": 2671,
      "nan": 2672,
      "írt": 2673,
      "alma": 2674,
      "fedez": 2675,
      "dzs": 2676,
      "nyí": 2677,
      "kmény": 2678,
      "ivel": 2679,
      "hhez": 2680,
      "okra": 2681,
      "rz": 2682,
      "telmű": 2683,
      "apír": 2684,
      "ógus": 2685,
      "uális": 2686,
      "##jc": 2687,
      "reng": 2688,
      "ázás": 2689,
      "őle": 2690,
      "etét": 2691,
      "riss": 2692,
      "nekü": 2693,
      "yug": 2694,
      "mellé": 2695,
      "kozó": 2696,
      "kben": 2697,
      "adta": 2698,
      "eté": 2699,
      "ínész": 2700,
      "jét": 2701,
      "áig": 2702,
      "orít": 2703,
      "nie": 2704,
      "közé": 2705,
      "lakó": 2706,
      "tősen": 2707,
      "tön": 2708,
      "látog": 2709,
      "ura": 2710,
      "zkod": 2711,
      "entu": 2712,
      "ezni": 2713,
      "ondja": 2714,
      "nhet": 2715,
      "pontj": 2716,
      "ukat": 2717,
      "éké": 2718,
      "előny": 2719,
      "vájc": 2720,
      "esebb": 2721,
      "knak": 2722,
      "közep": 2723,
      "tyá": 2724,
      "cseré": 2725,
      "ow": 2726,
      "oknak": 2727,
      "cel": 2728,
      "idék": 2729,
      "átu": 2730,
      "ileg": 2731,
      "lhat": 2732,
      "fiú": 2733,
      "kri": 2734,
      "rülmé": 2735,
      "íroz": 2736,
      "költ": 2737,
      "incs": 2738,
      "hon": 2739,
      "vetel": 2740,
      "ph": 2741,
      "vége": 2742,
      "##uh": 2743,
      "láb": 2744,
      "sznek": 2745,
      "ront": 2746,
      "sága": 2747,
      "zsi": 2748,
      "eal": 2749,
      "gok": 2750,
      "ói": 2751,
      "esül": 2752,
      "lly": 2753,
      "cen": 2754,
      "sége": 2755,
      "gra": 2756,
      "szig": 2757,
      "ettes": 2758,
      "ódott": 2759,
      "ekről": 2760,
      "onnal": 2761,
      "mentő": 2762,
      "derül": 2763,
      "lan": 2764,
      "lcs": 2765,
      "##ból": 2766,
      "árak": 2767,
      "ajn": 2768,
      "mérés": 2769,
      "tagja": 2770,
      "kas": 2771,
      "mm": 2772,
      "sak": 2773,
      "egyér": 2774,
      "heti": 2775,
      "menti": 2776,
      "tar": 2777,
      "zett": 2778,
      "##bo": 2779,
      "szór": 2780,
      "űr": 2781,
      "form": 2782,
      "jogi": 2783,
      "essz": 2784,
      "ec": 2785,
      "endőr": 2786,
      "piaci": 2787,
      "gar": 2788,
      "sh": 2789,
      "rid": 2790,
      "zene": 2791,
      "pus": 2792,
      "nevű": 2793,
      "pót": 2794,
      "felsz": 2795,
      "ntet": 2796,
      "dik": 2797,
      "sztu": 2798,
      "ntető": 2799,
      "kata": 2800,
      "édelm": 2801,
      "haza": 2802,
      "had": 2803,
      "tte": 2804,
      "that": 2805,
      "zso": 2806,
      "tartá": 2807,
      "őleg": 2808,
      "rik": 2809,
      "pad": 2810,
      "nyár": 2811,
      "gyház": 2812,
      "ksz": 2813,
      "mért": 2814,
      "rák": 2815,
      "inten": 2816,
      "tudta": 2817,
      "alapo": 2818,
      "lig": 2819,
      "beruh": 2820,
      "level": 2821,
      "jen": 2822,
      "vide": 2823,
      "kisz": 2824,
      "he": 2825,
      "##sel": 2826,
      "idejé": 2827,
      "válto": 2828,
      "zza": 2829,
      "sar": 2830,
      "csit": 2831,
      "ezték": 2832,
      "ektr": 2833,
      "50": 2834,
      "ivat": 2835,
      "ork": 2836,
      "sebe": 2837,
      "onal": 2838,
      "titk": 2839,
      "szomb": 2840,
      "tán": 2841,
      "elett": 2842,
      "igá": 2843,
      "iget": 2844,
      "képze": 2845,
      "sd": 2846,
      "tm": 2847,
      "sokat": 2848,
      "lia": 2849,
      "zaj": 2850,
      "nu": 2851,
      "lnak": 2852,
      "emző": 2853,
      "nyos": 2854,
      "lk": 2855,
      "the": 2856,
      "éni": 2857,
      "ztak": 2858,
      "láto": 2859,
      "aság": 2860,
      "jele": 2861,
      "ann": 2862,
      "célj": 2863,
      "akt": 2864,
      "róf": 2865,
      "kol": 2866,
      "ulat": 2867,
      "##ck": 2868,
      "eső": 2869,
      "hatja": 2870,
      "eszkö": 2871,
      "ssze": 2872,
      "##vény": 2873,
      "megy": 2874,
      "örtö": 2875,
      "olás": 2876,
      "etes": 2877,
      "ságok": 2878,
      "nyal": 2879,
      "##ca": 2880,
      "arany": 2881,
      "jöv": 2882,
      "##nö": 2883,
      "fők": 2884,
      "öm": 2885,
      "felső": 2886,
      "tikus": 2887,
      "rang": 2888,
      "etett": 2889,
      "etben": 2890,
      "bert": 2891,
      "nni": 2892,
      "##jai": 2893,
      "almi": 2894,
      "lte": 2895,
      "úto": 2896,
      "öv": 2897,
      "agjai": 2898,
      "enye": 2899,
      "ako": 2900,
      "erősö": 2901,
      "adni": 2902,
      "előb": 2903,
      "ozás": 2904,
      "kék": 2905,
      "ltak": 2906,
      "léká": 2907,
      "zati": 2908,
      "lyás": 2909,
      "rej": 2910,
      "##öld": 2911,
      "lám": 2912,
      "lföld": 2913,
      "járt": 2914,
      "nch": 2915,
      "rális": 2916,
      "sil": 2917,
      "ázad": 2918,
      "kider": 2919,
      "zu": 2920,
      "##ato": 2921,
      "esés": 2922,
      "híre": 2923,
      "rog": 2924,
      "írek": 2925,
      "bre": 2926,
      "eget": 2927,
      "rban": 2928,
      "gazd": 2929,
      "portá": 2930,
      "jekt": 2931,
      "rém": 2932,
      "ogy": 2933,
      "rály": 2934,
      "éssel": 2935,
      "soro": 2936,
      "akit": 2937,
      "ügyé": 2938,
      "tlenü": 2939,
      "ns": 2940,
      "pill": 2941,
      "oka": 2942,
      "su": 2943,
      "zra": 2944,
      "vízi": 2945,
      "ltu": 2946,
      "asszo": 2947,
      "kré": 2948,
      "bol": 2949,
      "olni": 2950,
      "ellem": 2951,
      "zés": 2952,
      "19": 2953,
      "szoci": 2954,
      "jelle": 2955,
      "szség": 2956,
      "kra": 2957,
      "akat": 2958,
      "lel": 2959,
      "sé": 2960,
      "una": 2961,
      "##ber": 2962,
      "légi": 2963,
      "ash": 2964,
      "ellát": 2965,
      "cz": 2966,
      "erről": 2967,
      "spe": 2968,
      "dem": 2969,
      "ajnok": 2970,
      "entá": 2971,
      "gban": 2972,
      "kih": 2973,
      "kora": 2974,
      "enes": 2975,
      "agg": 2976,
      "up": 2977,
      "orma": 2978,
      "silla": 2979,
      "vitá": 2980,
      "yi": 2981,
      "ágy": 2982,
      "ól": 2983,
      "sö": 2984,
      "ekez": 2985,
      "dalmi": 2986,
      "tünte": 2987,
      "ry": 2988,
      "ert": 2989,
      "agyon": 2990,
      "lako": 2991,
      "ségű": 2992,
      "mél": 2993,
      "halt": 2994,
      "ámol": 2995,
      "ényle": 2996,
      "véle": 2997,
      "ge": 2998,
      "edés": 2999,
      "ajd": 3000,
      "seh": 3001,
      "zért": 3002,
      "elnö": 3003,
      "ölt": 3004,
      "elk": 3005,
      "rep": 3006,
      "emelt": 3007,
      "gár": 3008,
      "isza": 3009,
      "tása": 3010,
      "ii": 3011,
      "osí": 3012,
      "éles": 3013,
      "ncs": 3014,
      "szé": 3015,
      "zásá": 3016,
      "jával": 3017,
      "gá": 3018,
      "##esí": 3019,
      "ljesí": 3020,
      "ővé": 3021,
      "amb": 3022,
      "ium": 3023,
      "pe": 3024,
      "irán": 3025,
      "drá": 3026,
      "kezel": 3027,
      "isták": 3028,
      "lland": 3029,
      "imp": 3030,
      "obban": 3031,
      "éző": 3032,
      "gyö": 3033,
      "igye": 3034,
      "rná": 3035,
      "észak": 3036,
      "##sé": 3037,
      "utcá": 3038,
      "mokra": 3039,
      "100": 3040,
      "jég": 3041,
      "ügynö": 3042,
      "lla": 3043,
      "niká": 3044,
      "##ic": 3045,
      "ajtó": 3046,
      "lóg": 3047,
      "her": 3048,
      "fia": 3049,
      "ie": 3050,
      "zvény": 3051,
      "##omá": 3052,
      "ozott": 3053,
      "hisz": 3054,
      "40": 3055,
      "só": 3056,
      "##ében": 3057,
      "llé": 3058,
      "tünk": 3059,
      "olja": 3060,
      "nők": 3061,
      "dő": 3062,
      "ogat": 3063,
      "tít": 3064,
      "zre": 3065,
      "áju": 3066,
      "24": 3067,
      "ob": 3068,
      "sban": 3069,
      "vill": 3070,
      "##ült": 3071,
      "bárm": 3072,
      "roszo": 3073,
      "ail": 3074,
      "bség": 3075,
      "atko": 3076,
      "cc": 3077,
      "rat": 3078,
      "lték": 3079,
      "ió": 3080,
      "tték": 3081,
      "tiv": 3082,
      "ham": 3083,
      "eleme": 3084,
      "gény": 3085,
      "ón": 3086,
      "ór": 3087,
      "óv": 3088,
      "uto": 3089,
      "vári": 3090,
      "tásá": 3091,
      "jegye": 3092,
      "ao": 3093,
      "lus": 3094,
      "áros": 3095,
      "yom": 3096,
      "ím": 3097,
      "of": 3098,
      "izo": 3099,
      "lődés": 3100,
      "sere": 3101,
      "tus": 3102,
      "figy": 3103,
      "rdő": 3104,
      "ax": 3105,
      "nny": 3106,
      "zva": 3107,
      "ségét": 3108,
      "ente": 3109,
      "befo": 3110,
      "lad": 3111,
      "omá": 3112,
      "leszt": 3113,
      "ődik": 3114,
      "if": 3115,
      "erce": 3116,
      "akoz": 3117,
      "thető": 3118,
      "lop": 3119,
      "21": 3120,
      "zöl": 3121,
      "rie": 3122,
      "pat": 3123,
      "kos": 3124,
      "22": 3125,
      "űz": 3126,
      "tenge": 3127,
      "yugat": 3128,
      "ace": 3129,
      "err": 3130,
      "ötö": 3131,
      "kkor": 3132,
      "ogás": 3133,
      "ndex": 3134,
      "állat": 3135,
      "elköv": 3136,
      "ünt": 3137,
      "eke": 3138,
      "eret": 3139,
      "helye": 3140,
      "ttól": 3141,
      "szülő": 3142,
      "io": 3143,
      "zöve": 3144,
      "képz": 3145,
      "nder": 3146,
      "lom": 3147,
      "agyom": 3148,
      "őszer": 3149,
      "ruhá": 3150,
      "szét": 3151,
      "ené": 3152,
      "ezi": 3153,
      "olo": 3154,
      "becs": 3155,
      "kere": 3156,
      "nség": 3157,
      "var": 3158,
      "teszt": 3159,
      "anya": 3160,
      "ky": 3161,
      "vek": 3162,
      "étől": 3163,
      "dolo": 3164,
      "ezhet": 3165,
      "tenek": 3166,
      "fogy": 3167,
      "szava": 3168,
      "üntet": 3169,
      "nyek": 3170,
      "zzel": 3171,
      "épít": 3172,
      "zé": 3173,
      "szp": 3174,
      "ekint": 3175,
      "mod": 3176,
      "nó": 3177,
      "ona": 3178,
      "ajna": 3179,
      "ger": 3180,
      "elől": 3181,
      "pel": 3182,
      "itel": 3183,
      "nger": 3184,
      "szob": 3185,
      "fal": 3186,
      "tlan": 3187,
      "esk": 3188,
      "res": 3189,
      "sztal": 3190,
      "xi": 3191,
      "felv": 3192,
      "szaki": 3193,
      "kelt": 3194,
      "empon": 3195,
      "inn": 3196,
      "oma": 3197,
      "agad": 3198,
      "hetne": 3199,
      "rác": 3200,
      "tru": 3201,
      "ébe": 3202,
      "ésér": 3203,
      "ésére": 3204,
      "felel": 3205,
      "ettel": 3206,
      "adós": 3207,
      "ódik": 3208,
      "jék": 3209,
      "ass": 3210,
      "tatók": 3211,
      "poz": 3212,
      "wa": 3213,
      "mene": 3214,
      "nná": 3215,
      "sár": 3216,
      "vb": 3217,
      "üze": 3218,
      "érj": 3219,
      "kommu": 3220,
      "##dp": 3221,
      "egény": 3222,
      "ndon": 3223,
      "éken": 3224,
      "elte": 3225,
      "lmp": 3226,
      "őrzés": 3227,
      "fá": 3228,
      "jáb": 3229,
      "szeti": 3230,
      "jából": 3231,
      "ey": 3232,
      "mil": 3233,
      "has": 3234,
      "ate": 3235,
      "elemz": 3236,
      "nyomá": 3237,
      "egye": 3238,
      "eznek": 3239,
      "zták": 3240,
      "aló": 3241,
      "ama": 3242,
      "ons": 3243,
      "kapta": 3244,
      "orú": 3245,
      "ügye": 3246,
      "imo": 3247,
      "go": 3248,
      "elvet": 3249,
      "ásban": 3250,
      "buda": 3251,
      "até": 3252,
      "óan": 3253,
      "enné": 3254,
      "okból": 3255,
      "űv": 3256,
      "ttó": 3257,
      "anú": 3258,
      "org": 3259,
      "ót": 3260,
      "istá": 3261,
      "egő": 3262,
      "rob": 3263,
      "témá": 3264,
      "mé": 3265,
      "oros": 3266,
      "rist": 3267,
      "dv": 3268,
      "andr": 3269,
      "kem": 3270,
      "zal": 3271,
      "szl": 3272,
      "eteg": 3273,
      "ásos": 3274,
      "tök": 3275,
      "lib": 3276,
      "yen": 3277,
      "ítja": 3278,
      "össz": 3279,
      "psz": 3280,
      "ranci": 3281,
      "árul": 3282,
      "korr": 3283,
      "ulás": 3284,
      "napon": 3285,
      "téve": 3286,
      "mérté": 3287,
      "jk": 3288,
      "kő": 3289,
      "sten": 3290,
      "harm": 3291,
      "ef": 3292,
      "rkol": 3293,
      "arán": 3294,
      "ino": 3295,
      "edett": 3296,
      "műve": 3297,
      "zió": 3298,
      ".,": 3299,
      "ror": 3300,
      "tív": 3301,
      "igo": 3302,
      "lehe": 3303,
      "séget": 3304,
      "tanak": 3305,
      "##li": 3306,
      "olód": 3307,
      "nia": 3308,
      "osa": 3309,
      "ítő": 3310,
      "##dsz": 3311,
      "enő": 3312,
      "ént": 3313,
      "szon": 3314,
      "egá": 3315,
      "róla": 3316,
      "ötv": 3317,
      "esek": 3318,
      "izs": 3319,
      "yar": 3320,
      "alék": 3321,
      "őke": 3322,
      "lőtt": 3323,
      "gat": 3324,
      "mó": 3325,
      "niu": 3326,
      "mad": 3327,
      "élt": 3328,
      "ilag": 3329,
      "szaka": 3330,
      "##bl": 3331,
      "komm": 3332,
      "tél": 3333,
      "atja": 3334,
      "illa": 3335,
      "rakoz": 3336,
      "nor": 3337,
      "gyal": 3338,
      "ályok": 3339,
      "ach": 3340,
      "ancs": 3341,
      "bben": 3342,
      "vic": 3343,
      "aba": 3344,
      "éntek": 3345,
      "27": 3346,
      "des": 3347,
      "tni": 3348,
      "vén": 3349,
      "szal": 3350,
      "nna": 3351,
      "tják": 3352,
      "zam": 3353,
      "ere": 3354,
      "anu": 3355,
      "inak": 3356,
      "faj": 3357,
      "amp": 3358,
      "lefon": 3359,
      "yőr": 3360,
      "##ac": 3361,
      "leb": 3362,
      "lemző": 3363,
      "anc": 3364,
      "itány": 3365,
      "park": 3366,
      "ssé": 3367,
      "etbe": 3368,
      "nék": 3369,
      "sm": 3370,
      "lista": 3371,
      "zg": 3372,
      "orna": 3373,
      "##st": 3374,
      "napo": 3375,
      "vető": 3376,
      "éde": 3377,
      "anács": 3378,
      "23": 3379,
      "iába": 3380,
      "sc": 3381,
      "itte": 3382,
      "##szn": 3383,
      "haszn": 3384,
      "ibo": 3385,
      "osok": 3386,
      "uló": 3387,
      "dó": 3388,
      "elen": 3389,
      "elmé": 3390,
      "adá": 3391,
      "ári": 3392,
      "gó": 3393,
      "ks": 3394,
      "telef": 3395,
      "árv": 3396,
      "rád": 3397,
      "mezt": 3398,
      "jj": 3399,
      "tró": 3400,
      "nyh": 3401,
      "ozta": 3402,
      "eur": 3403,
      "enz": 3404,
      "epet": 3405,
      "ósság": 3406,
      "din": 3407,
      "elvé": 3408,
      "atni": 3409,
      "almat": 3410,
      "pir": 3411,
      "reme": 3412,
      "kd": 3413,
      "rad": 3414,
      "rre": 3415,
      "épü": 3416,
      "megye": 3417,
      "dor": 3418,
      "eri": 3419,
      "erék": 3420,
      "orn": 3421,
      "elkép": 3422,
      "ier": 3423,
      "liá": 3424,
      "szün": 3425,
      "tok": 3426,
      "labd": 3427,
      "ntik": 3428,
      "agál": 3429,
      "ael": 3430,
      "gdp": 3431,
      "etén": 3432,
      "vin": 3433,
      "ztrá": 3434,
      "javas": 3435,
      "jt": 3436,
      "vás": 3437,
      "elsz": 3438,
      "bir": 3439,
      "200": 3440,
      "ian": 3441,
      "ub": 3442,
      "##if": 3443,
      "gh": 3444,
      "sad": 3445,
      "vő": 3446,
      "kezet": 3447,
      "nnyit": 3448,
      "ács": 3449,
      "ésben": 3450,
      "körny": 3451,
      "észet": 3452,
      "ösz": 3453,
      "vala": 3454,
      "zéke": 3455,
      "tva": 3456,
      "zil": 3457,
      "omás": 3458,
      "lód": 3459,
      "dés": 3460,
      "sul": 3461,
      "mis": 3462,
      "ada": 3463,
      "étel": 3464,
      "##kőz": 3465,
      "űt": 3466,
      "oll": 3467,
      "érkőz": 3468,
      "oss": 3469,
      "ille": 3470,
      "kn": 3471,
      "rr": 3472,
      "veg": 3473,
      "erep": 3474,
      "ségi": 3475,
      "zm": 3476,
      "zí": 3477,
      "iskol": 3478,
      "áss": 3479,
      "##kó": 3480,
      "ságra": 3481,
      "nné": 3482,
      "zök": 3483,
      "ajta": 3484,
      "űk": 3485,
      "azá": 3486,
      "eli": 3487,
      "onos": 3488,
      "apa": 3489,
      "taná": 3490,
      "ékes": 3491,
      "rében": 3492,
      "atá": 3493,
      "amik": 3494,
      "eszi": 3495,
      "ges": 3496,
      "ron": 3497,
      "ráz": 3498,
      "rbe": 3499,
      "mc": 3500,
      "hn": 3501,
      "elfog": 3502,
      "udomá": 3503,
      "lda": 3504,
      "app": 3505,
      "áson": 3506,
      "gan": 3507,
      "obá": 3508,
      "cu": 3509,
      "ofi": 3510,
      "tsz": 3511,
      "orm": 3512,
      "tikai": 3513,
      "nyok": 3514,
      "dai": 3515,
      "lam": 3516,
      "rp": 3517,
      "elés": 3518,
      "utató": 3519,
      "tava": 3520,
      "probl": 3521,
      "égy": 3522,
      "##ur": 3523,
      "arr": 3524,
      "one": 3525,
      "demok": 3526,
      "űvész": 3527,
      "ess": 3528,
      "piaco": 3529,
      "éma": 3530,
      "ara": 3531,
      "áru": 3532,
      "újt": 3533,
      "iában": 3534,
      "bold": 3535,
      "hátr": 3536,
      "ékeny": 3537,
      "zük": 3538,
      "edz": 3539,
      "35": 3540,
      "rán": 3541,
      "sák": 3542,
      "áv": 3543,
      "ast": 3544,
      "ető": 3545,
      "##mun": 3546,
      "sáv": 3547,
      "inti": 3548,
      "mre": 3549,
      "teme": 3550,
      "ugá": 3551,
      "lor": 3552,
      "kb": 3553,
      "eten": 3554,
      "lése": 3555,
      "lógia": 3556,
      "yében": 3557,
      "napja": 3558,
      "őbb": 3559,
      "redmé": 3560,
      "ással": 3561,
      "adja": 3562,
      "éget": 3563,
      "gész": 3564,
      "enny": 3565,
      "árom": 3566,
      "ától": 3567,
      "tból": 3568,
      "60": 3569,
      "ozni": 3570,
      "kozás": 3571,
      "ius": 3572,
      "tse": 3573,
      "ale": 3574,
      "ekes": 3575,
      "ású": 3576,
      "táro": 3577,
      "avas": 3578,
      "alato": 3579,
      "szert": 3580,
      "kivál": 3581,
      "láz": 3582,
      "med": 3583,
      "pál": 3584,
      "##hér": 3585,
      "##ani": 3586,
      "##sék": 3587,
      "llye": 3588,
      "eve": 3589,
      "rra": 3590,
      "érhet": 3591,
      "érsék": 3592,
      "mérsé": 3593,
      "zárt": 3594,
      "sej": 3595,
      "kov": 3596,
      "fehér": 3597,
      "sztel": 3598,
      "gű": 3599,
      "gl": 3600,
      "kf": 3601,
      "tál": 3602,
      "tána": 3603,
      "eik": 3604,
      "ndi": 3605,
      "bú": 3606,
      "kál": 3607,
      "áf": 3608,
      "##np": 3609,
      "szdsz": 3610,
      "jap": 3611,
      "tését": 3612,
      "gál": 3613,
      "ht": 3614,
      "utóbb": 3615,
      "usa": 3616,
      "tad": 3617,
      "attal": 3618,
      "dul": 3619,
      "alko": 3620,
      "gyü": 3621,
      "kezé": 3622,
      "lko": 3623,
      "lhető": 3624,
      "nz": 3625,
      "nci": 3626,
      "##ron": 3627,
      "idős": 3628,
      "ttek": 3629,
      "hango": 3630,
      "merik": 3631,
      "japán": 3632,
      "pany": 3633,
      "uli": 3634,
      "unkat": 3635,
      "atár": 3636,
      "oru": 3637,
      "zté": 3638,
      "nket": 3639,
      "hús": 3640,
      "lit": 3641,
      "nel": 3642,
      "szön": 3643,
      "szerb": 3644,
      "élete": 3645,
      "26": 3646,
      "mb": 3647,
      "qu": 3648,
      "tro": 3649,
      "ihe": 3650,
      "övé": 3651,
      "hir": 3652,
      "ága": 3653,
      "fc": 3654,
      "krá": 3655,
      "érni": 3656,
      "ime": 3657,
      "nb": 3658,
      "tért": 3659,
      "##ga": 3660,
      "árol": 3661,
      "rod": 3662,
      "ókat": 3663,
      "illi": 3664,
      "ull": 3665,
      "elle": 3666,
      "apá": 3667,
      "lójá": 3668,
      "rn": 3669,
      "médi": 3670,
      "szköz": 3671,
      "ana": 3672,
      "letes": 3673,
      "zzák": 3674,
      "eres": 3675,
      "jogo": 3676,
      "##ff": 3677,
      "téri": 3678,
      "pest": 3679,
      "aks": 3680,
      "inek": 3681,
      "our": 3682,
      "aval": 3683,
      "landó": 3684,
      "kro": 3685,
      "uko": 3686,
      "emes": 3687,
      "lege": 3688,
      "ványo": 3689,
      "28": 3690,
      "zba": 3691,
      "süt": 3692,
      "dán": 3693,
      "yel": 3694,
      "almá": 3695,
      "okról": 3696,
      "közt": 3697,
      "prof": 3698,
      "kifej": 3699,
      "kdnp": 3700,
      "font": 3701,
      "lható": 3702,
      "eksz": 3703,
      "kedő": 3704,
      "jára": 3705,
      "imm": 3706,
      "árosi": 3707,
      "gle": 3708,
      "pk": 3709,
      "zák": 3710,
      "kulá": 3711,
      "rü": 3712,
      "ero": 3713,
      "élv": 3714,
      "ságá": 3715,
      "ságát": 3716,
      "otó": 3717,
      "lyen": 3718,
      "zása": 3719,
      "rca": 3720,
      "ndr": 3721,
      "örög": 3722,
      "ezik": 3723,
      "táma": 3724,
      "kárt": 3725,
      "sof": 3726,
      "ves": 3727,
      "ített": 3728,
      "iba": 3729,
      "##de": 3730,
      "niá": 3731,
      "végi": 3732,
      "rok": 3733,
      "umi": 3734,
      "őz": 3735,
      "##au": 3736,
      "ska": 3737,
      "eltet": 3738,
      "fű": 3739,
      "oko": 3740,
      "záró": 3741,
      "atást": 3742,
      ".:": 3743,
      "kab": 3744,
      "óc": 3745,
      "els": 3746,
      "oki": 3747,
      "élés": 3748,
      "ilv": 3749,
      "visz": 3750,
      "blo": 3751,
      "érzé": 3752,
      "ica": 3753,
      "panyo": 3754,
      "tj": 3755,
      "teg": 3756,
      "ltö": 3757,
      "ldö": 3758,
      "grá": 3759,
      "kre": 3760,
      "tható": 3761,
      "ína": 3762,
      "sír": 3763,
      "##aki": 3764,
      "vai": 3765,
      "##bi": 3766,
      "sztrá": 3767,
      "rzet": 3768,
      "érv": 3769,
      "háza": 3770,
      "500": 3771,
      "sto": 3772,
      "eá": 3773,
      "gát": 3774,
      "ányi": 3775,
      "telt": 3776,
      "zám": 3777,
      "kert": 3778,
      "ódos": 3779,
      "ova": 3780,
      "redet": 3781,
      "ted": 3782,
      "amos": 3783,
      "tatni": 3784,
      "öltö": 3785,
      "iss": 3786,
      "nisz": 3787,
      "iná": 3788,
      "gén": 3789,
      "lsó": 3790,
      "lke": 3791,
      "mán": 3792,
      "szik": 3793,
      "esé": 3794,
      "ikk": 3795,
      "dé": 3796,
      "élé": 3797,
      "bru": 3798,
      "átv": 3799,
      "lása": 3800,
      "tében": 3801,
      "uc": 3802,
      "ze": 3803,
      "ságot": 3804,
      "riá": 3805,
      "hajl": 3806,
      "eo": 3807,
      "evő": 3808,
      "ostan": 3809,
      "kán": 3810,
      "sy": 3811,
      "ódosí": 3812,
      "alán": 3813,
      "zerv": 3814,
      "űn": 3815,
      "akart": 3816,
      "term": 3817,
      "onta": 3818,
      "ezők": 3819,
      "ivál": 3820,
      "rét": 3821,
      "negy": 3822,
      "atát": 3823,
      "ga": 3824,
      "üs": 3825,
      "llá": 3826,
      "sod": 3827,
      "áci": 3828,
      "eto": 3829,
      "ámolt": 3830,
      "mn": 3831,
      "lve": 3832,
      "ota": 3833,
      "oks": 3834,
      "benn": 3835,
      "dev": 3836,
      "üg": 3837,
      "ebe": 3838,
      "etű": 3839,
      "ina": 3840,
      "ili": 3841,
      "letet": 3842,
      "iszti": 3843,
      "néh": 3844,
      "zelés": 3845,
      "dy": 3846,
      "kg": 3847,
      "neg": 3848,
      "nyt": 3849,
      "onz": 3850,
      "45": 3851,
      "ref": 3852,
      "illan": 3853,
      "chi": 3854,
      "rény": 3855,
      "zhat": 3856,
      "zsá": 3857,
      "latá": 3858,
      "nos": 3859,
      "aranc": 3860,
      "osít": 3861,
      "ommun": 3862,
      "fesz": 3863,
      "lv": 3864,
      "rben": 3865,
      "tim": 3866,
      "egyet": 3867,
      "ste": 3868,
      "rág": 3869,
      "vat": 3870,
      "zon": 3871,
      "ósít": 3872,
      "rsen": 3873,
      "uz": 3874,
      "ém": 3875,
      "itele": 3876,
      "lók": 3877,
      "ölé": 3878,
      "derü": 3879,
      "met": 3880,
      "ezmé": 3881,
      "32": 3882,
      "rin": 3883,
      "vg": 3884,
      "óbb": 3885,
      "atják": 3886,
      "ado": 3887,
      "ltó": 3888,
      "táp": 3889,
      "etei": 3890,
      "kicsi": 3891,
      "adal": 3892,
      "oni": 3893,
      "közbe": 3894,
      "sabb": 3895,
      "mt": 3896,
      "ermé": 3897,
      "oml": 3898,
      "iza": 3899,
      "laszo": 3900,
      "esége": 3901,
      "növ": 3902,
      "##tak": 3903,
      "##úr": 3904,
      "etne": 3905,
      "semm": 3906,
      "ntek": 3907,
      "lmény": 3908,
      "atalm": 3909,
      "felj": 3910,
      "ors": 3911,
      "ktu": 3912,
      "lál": 3913,
      "enne": 3914,
      "olták": 3915,
      "dag": 3916,
      "zív": 3917,
      "ác": 3918,
      "diá": 3919,
      "ive": 3920,
      "vad": 3921,
      "felm": 3922,
      "nének": 3923,
      "##fa": 3924,
      "oli": 3925,
      "29": 3926,
      "bó": 3927,
      "bán": 3928,
      "iel": 3929,
      "und": 3930,
      "eld": 3931,
      "dött": 3932,
      "zsa": 3933,
      "kok": 3934,
      "lük": 3935,
      "suk": 3936,
      "sse": 3937,
      "szán": 3938,
      "eked": 3939,
      "gyész": 3940,
      "orra": 3941,
      "indi": 3942,
      "ánál": 3943,
      "szto": 3944,
      "ster": 3945,
      "ölgy": 3946,
      "300": 3947,
      "oto": 3948,
      "ztály": 3949,
      "odott": 3950,
      "nat": 3951,
      "gn": 3952,
      "szén": 3953,
      "erte": 3954,
      "iga": 3955,
      "ntéz": 3956,
      "aik": 3957,
      "íná": 3958,
      "óm": 3959,
      "elik": 3960,
      "csk": 3961,
      "ván": 3962,
      "jába": 3963,
      "éven": 3964,
      "közv": 3965,
      "eztek": 3966,
      "vaz": 3967,
      "lél": 3968,
      "alo": 3969,
      "ono": 3970,
      "ts": 3971,
      "tság": 3972,
      "esse": 3973,
      "esté": 3974,
      "zetet": 3975,
      "imf": 3976,
      "ügyv": 3977,
      "eves": 3978,
      "król": 3979,
      "szár": 3980,
      "elni": 3981,
      "atol": 3982,
      "oká": 3983,
      "ikor": 3984,
      "áns": 3985,
      "pre": 3986,
      "rság": 3987,
      "szol": 3988,
      "árja": 3989,
      "ságos": 3990,
      "edé": 3991,
      "ülésé": 3992,
      "avaly": 3993,
      "31": 3994,
      "##eke": 3995,
      "olgár": 3996,
      "ung": 3997,
      "íti": 3998,
      "zaki": 3999,
      "émi": 4000,
      "edd": 4001,
      "opron": 4002,
      "80": 4003,
      "esél": 4004,
      "dü": 4005,
      "mor": 4006,
      "zom": 4007,
      "bak": 4008,
      "orí": 4009,
      "közi": 4010,
      "kezik": 4011,
      "trag": 4012,
      "ito": 4013,
      "##io": 4014,
      "etér": 4015,
      "atal": 4016,
      "tört": 4017,
      "letek": 4018,
      "lim": 4019,
      "bbc": 4020,
      "ádo": 4021,
      "ztán": 4022,
      "rk": 4023,
      "urá": 4024,
      "yú": 4025,
      "erí": 4026,
      "orr": 4027,
      "ew": 4028,
      "los": 4029,
      "##cat": 4030,
      "erült": 4031,
      "korá": 4032,
      "otp": 4033,
      "vazás": 4034,
      "iát": 4035,
      "##cz": 4036,
      "ltat": 4037,
      "ődés": 4038,
      "ssen": 4039,
      "fős": 4040,
      "rus": 4041,
      "les": 4042,
      "lánc": 4043,
      "70": 4044,
      "ováb": 4045,
      "ini": 4046,
      "ésen": 4047,
      "kim": 4048,
      "ondon": 4049,
      "éke": 4050,
      "isztá": 4051,
      "acs": 4052,
      "ij": 4053,
      "sb": 4054,
      "átor": 4055,
      "nőt": 4056,
      "dék": 4057,
      "nas": 4058,
      "erben": 4059,
      "ano": 4060,
      "rip": 4061,
      "sító": 4062,
      "máv": 4063,
      "atási": 4064,
      "iroda": 4065,
      "nfl": 4066,
      "rol": 4067,
      "tter": 4068,
      "api": 4069,
      "lést": 4070,
      "urcs": 4071,
      "zala": 4072,
      "óban": 4073,
      "gyed": 4074,
      "kop": 4075,
      "művé": 4076,
      "odá": 4077,
      "lmez": 4078,
      "ali": 4079,
      "ődő": 4080,
      "llen": 4081,
      "eles": 4082,
      "örül": 4083,
      "pla": 4084,
      "kv": 4085,
      "nyve": 4086,
      "sek": 4087,
      "ólt": 4088,
      "ormá": 4089,
      "ula": 4090,
      "aul": 4091,
      "erge": 4092,
      "tvé": 4093,
      "gye": 4094,
      "keve": 4095,
      "kezés": 4096,
      "apos": 4097,
      "lít": 4098,
      "sék": 4099,
      "vj": 4100,
      "énk": 4101,
      "ój": 4102,
      "##fk": 4103,
      "atban": 4104,
      "adalm": 4105,
      "idé": 4106,
      "vers": 4107,
      "őként": 4108,
      "rikai": 4109,
      "ony": 4110,
      "eme": 4111,
      "minős": 4112,
      "36": 4113,
      "con": 4114,
      "szeg": 4115,
      "mir": 4116,
      "lete": 4117,
      "alt": 4118,
      "ekv": 4119,
      "eré": 4120,
      "ici": 4121,
      "rí": 4122,
      "ülön": 4123,
      "top": 4124,
      "állom": 4125,
      "anta": 4126,
      "rig": 4127,
      "köd": 4128,
      "avar": 4129,
      "vásár": 4130,
      "che": 4131,
      "zor": 4132,
      "era": 4133,
      "ivá": 4134,
      "óber": 4135,
      "ans": 4136,
      "oso": 4137,
      "napjá": 4138,
      "ltam": 4139,
      "önt": 4140,
      "ars": 4141,
      "gom": 4142,
      "zy": 4143,
      "kés": 4144,
      "ilo": 4145,
      "tiku": 4146,
      "íj": 4147,
      "üd": 4148,
      "avid": 4149,
      "90": 4150,
      "sült": 4151,
      "téte": 4152,
      "argen": 4153,
      "cé": 4154,
      "car": 4155,
      "lub": 4156,
      "zab": 4157,
      "erek": 4158,
      "ape": 4159,
      "ogó": 4160,
      "ras": 4161,
      "ezeté": 4162,
      "kabin": 4163,
      "rl": 4164,
      "##zi": 4165,
      "riás": 4166,
      "iti": 4167,
      "melle": 4168,
      "tje": 4169,
      "zín": 4170,
      "##hl": 4171,
      "kerül": 4172,
      "tató": 4173,
      "kivá": 4174,
      "erz": 4175,
      "ladás": 4176,
      "hor": 4177,
      "óval": 4178,
      "adtak": 4179,
      "ulá": 4180,
      "lmo": 4181,
      "fonto": 4182,
      "tucat": 4183,
      "edig": 4184,
      "dic": 4185,
      "lakos": 4186,
      "000": 4187,
      "ca": 4188,
      "iban": 4189,
      "akor": 4190,
      "asi": 4191,
      "esked": 4192,
      "cá": 4193,
      "ee": 4194,
      "gul": 4195,
      "úcs": 4196,
      "ame": 4197,
      "tej": 4198,
      "böz": 4199,
      "ita": 4200,
      "lva": 4201,
      "nn": 4202,
      "nes": 4203,
      "ekor": 4204,
      "erül": 4205,
      "edv": 4206,
      "ázta": 4207,
      "ensz": 4208,
      "olva": 4209,
      "lid": 4210,
      "immár": 4211,
      "árá": 4212,
      "tere": 4213,
      "teti": 4214,
      "iek": 4215,
      "ktat": 4216,
      "ür": 4217,
      "##ip": 4218,
      "szö": 4219,
      "kit": 4220,
      "lep": 4221,
      "usok": 4222,
      "klu": 4223,
      "##ru": 4224,
      "mic": 4225,
      "okr": 4226,
      "etten": 4227,
      "ánc": 4228,
      "nde": 4229,
      "ázá": 4230,
      "400": 4231,
      "nár": 4232,
      "tiká": 4233,
      "észek": 4234,
      "tarta": 4235,
      "33": 4236,
      "##ft": 4237,
      "teles": 4238,
      "izet": 4239,
      "edi": 4240,
      "apo": 4241,
      "aga": 4242,
      "yene": 4243,
      "efekt": 4244,
      "ps": 4245,
      "yer": 4246,
      "##xi": 4247,
      "erk": 4248,
      "akí": 4249,
      "audi": 4250,
      "ddig": 4251,
      "giá": 4252,
      "bm": 4253,
      "eut": 4254,
      "lö": 4255,
      "elek": 4256,
      "edelm": 4257,
      "abo": 4258,
      "óján": 4259,
      "sztán": 4260,
      "abá": 4261,
      "rtok": 4262,
      "növek": 4263,
      "iért": 4264,
      "yőz": 4265,
      "adik": 4266,
      "éle": 4267,
      "tré": 4268,
      "üv": 4269,
      "oráb": 4270,
      "élte": 4271,
      "utol": 4272,
      "kozik": 4273,
      "nán": 4274,
      "nála": 4275,
      "zást": 4276,
      "tago": 4277,
      "etési": 4278,
      "graf": 4279,
      "mk": 4280,
      "##nök": 4281,
      "olv": 4282,
      "adásá": 4283,
      "lgár": 4284,
      "ragad": 4285,
      "eat": 4286,
      "fig": 4287,
      "laz": 4288,
      "vei": 4289,
      "ozza": 4290,
      "esnek": 4291,
      "rece": 4292,
      "ozhat": 4293,
      "oc": 4294,
      "tri": 4295,
      "zo": 4296,
      "alj": 4297,
      "teres": 4298,
      "pap": 4299,
      "we": 4300,
      "egyi": 4301,
      "repü": 4302,
      "##iá": 4303,
      "zölt": 4304,
      "atták": 4305,
      "ví": 4306,
      "vező": 4307,
      "ellá": 4308,
      "rják": 4309,
      "ótá": 4310,
      "alv": 4311,
      "ikl": 4312,
      "ítani": 4313,
      "ízi": 4314,
      "há": 4315,
      "zü": 4316,
      "etv": 4317,
      "aty": 4318,
      "lle": 4319,
      "mas": 4320,
      "pt": 4321,
      "szű": 4322,
      "ence": 4323,
      "lya": 4324,
      "téma": 4325,
      "kba": 4326,
      "rug": 4327,
      "utt": 4328,
      "enko": 4329,
      "évé": 4330,
      "assa": 4331,
      "dj": 4332,
      "megvá": 4333,
      "ránt": 4334,
      "##íma": 4335,
      "nc": 4336,
      "ranc": 4337,
      "artin": 4338,
      "ilá": 4339,
      "latot": 4340,
      "ntern": 4341,
      "dom": 4342,
      "megm": 4343,
      "gyá": 4344,
      "lli": 4345,
      "llít": 4346,
      "sso": 4347,
      "kad": 4348,
      "nü": 4349,
      "nom": 4350,
      "oh": 4351,
      "sság": 4352,
      "alól": 4353,
      "etre": 4354,
      "áraz": 4355,
      "lyan": 4356,
      "szült": 4357,
      "eho": 4358,
      "égül": 4359,
      "édi": 4360,
      "erző": 4361,
      "ley": 4362,
      "itá": 4363,
      "énz": 4364,
      "zatot": 4365,
      "mpl": 4366,
      "erződ": 4367,
      "zok": 4368,
      "erm": 4369,
      "erés": 4370,
      "áron": 4371,
      "árad": 4372,
      "nyzat": 4373,
      "rzés": 4374,
      "ech": 4375,
      "mul": 4376,
      "akk": 4377,
      "ins": 4378,
      "irály": 4379,
      "75": 4380,
      "ix": 4381,
      "nyét": 4382,
      "onál": 4383,
      "zút": 4384,
      "nák": 4385,
      "őse": 4386,
      "sszi": 4387,
      "vent": 4388,
      "ltató": 4389,
      "gia": 4390,
      "kes": 4391,
      "rő": 4392,
      "enci": 4393,
      "gon": 4394,
      "lná": 4395,
      "##ud": 4396,
      "integ": 4397,
      "igazo": 4398,
      "dönté": 4399,
      "ányá": 4400,
      "melés": 4401,
      "34": 4402,
      "nban": 4403,
      "enger": 4404,
      "koló": 4405,
      "építé": 4406,
      "non": 4407,
      "pc": 4408,
      "tta": 4409,
      "dig": 4410,
      "lér": 4411,
      "riz": 4412,
      "kém": 4413,
      "iről": 4414,
      "tün": 4415,
      "zban": 4416,
      "def": 4417,
      "agyi": 4418,
      "air": 4419,
      "nti": 4420,
      "adók": 4421,
      "37": 4422,
      "gne": 4423,
      "pő": 4424,
      "rnak": 4425,
      "tl": 4426,
      "nában": 4427,
      "ram": 4428,
      "lto": 4429,
      "tum": 4430,
      "ájuk": 4431,
      "aw": 4432,
      "amá": 4433,
      "mnb": 4434,
      "oy": 4435,
      "rés": 4436,
      "őj": 4437,
      "álni": 4438,
      "közl": 4439,
      "zato": 4440,
      "klíma": 4441,
      "toj": 4442,
      "nco": 4443,
      "raz": 4444,
      "etel": 4445,
      "nöke": 4446,
      "42": 4447,
      "dat": 4448,
      "uház": 4449,
      "iku": 4450,
      "atók": 4451,
      "kut": 4452,
      "zed": 4453,
      "alál": 4454,
      "felté": 4455,
      "sztás": 4456,
      "tip": 4457,
      "lóban": 4458,
      "nus": 4459,
      "bmw": 4460,
      "gyé": 4461,
      "szat": 4462,
      "ttség": 4463,
      "ülő": 4464,
      "lata": 4465,
      "rmes": 4466,
      "lga": 4467,
      "ean": 4468,
      "pet": 4469,
      "oln": 4470,
      "osta": 4471,
      "özép": 4472,
      "arlam": 4473,
      "yomoz": 4474,
      "nnek": 4475,
      "yot": 4476,
      "szük": 4477,
      "alon": 4478,
      "gynök": 4479,
      "ttá": 4480,
      "rivá": 4481,
      "fran": 4482,
      "nyire": 4483,
      "sör": 4484,
      "eter": 4485,
      "tött": 4486,
      "nkat": 4487,
      "ende": 4488,
      "ánya": 4489,
      "eszte": 4490,
      "gene": 4491,
      "sségé": 4492,
      "gét": 4493,
      "sko": 4494,
      "szan": 4495,
      "elhet": 4496,
      "soroz": 4497,
      "ításá": 4498,
      "bx": 4499,
      "káb": 4500,
      "rát": 4501,
      "nyá": 4502,
      "llami": 4503,
      "nálat": 4504,
      "zetbe": 4505,
      "odik": 4506,
      "bj": 4507,
      "gor": 4508,
      "ülte": 4509,
      "nya": 4510,
      "abi": 4511,
      "ései": 4512,
      "rika": 4513,
      "##sc": 4514,
      "szott": 4515,
      "átr": 4516,
      "ilm": 4517,
      "nm": 4518,
      "érté": 4519,
      "onto": 4520,
      "őké": 4521,
      "38": 4522,
      "iben": 4523,
      "nen": 4524,
      "öző": 4525,
      "együ": 4526,
      "ruh": 4527,
      "ügge": 4528,
      "oe": 4529,
      "elg": 4530,
      "nyen": 4531,
      "ogo": 4532,
      "ncse": 4533,
      "65": 4534,
      "lok": 4535,
      "mál": 4536,
      "mét": 4537,
      "sük": 4538,
      "nyak": 4539,
      "okba": 4540,
      "umb": 4541,
      "rajt": 4542,
      "imá": 4543,
      "kú": 4544,
      "lc": 4545,
      "elin": 4546,
      "enge": 4547,
      "enau": 4548,
      "apeh": 4549,
      "55": 4550,
      "fon": 4551,
      "vész": 4552,
      "azás": 4553,
      "árás": 4554,
      "ine": 4555,
      "ngs": 4556,
      "gp": 4557,
      "neke": 4558,
      "égi": 4559,
      "rga": 4560,
      "kh": 4561,
      "uka": 4562,
      "ssa": 4563,
      "kból": 4564,
      "uh": 4565,
      "yö": 4566,
      "felf": 4567,
      "ilág": 4568,
      "150": 4569,
      "lvár": 4570,
      "bom": 4571,
      "gő": 4572,
      "ldi": 4573,
      "vak": 4574,
      "yújt": 4575,
      "oj": 4576,
      "pot": 4577,
      "vó": 4578,
      "##ciu": 4579,
      "omp": 4580,
      "erepe": 4581,
      "digi": 4582,
      "szló": 4583,
      "aték": 4584,
      "##za": 4585,
      "olá": 4586,
      "érő": 4587,
      "onda": 4588,
      "ncia": 4589,
      "rén": 4590,
      "sök": 4591,
      "önyv": 4592,
      "olhat": 4593,
      "etese": 4594,
      "ien": 4595,
      "sté": 4596,
      "ús": 4597,
      "kin": 4598,
      "irt": 4599,
      "eszti": 4600,
      "ppen": 4601,
      "pon": 4602,
      "anna": 4603,
      "gyel": 4604,
      "nte": 4605,
      "bic": 4606,
      "rdo": 4607,
      "gyedi": 4608,
      "cer": 4609,
      "ított": 4610,
      "rany": 4611,
      "hábor": 4612,
      "sés": 4613,
      "sét": 4614,
      "ved": 4615,
      "övő": 4616,
      "##ót": 4617,
      "árciu": 4618,
      "tene": 4619,
      "nga": 4620,
      "enciá": 4621,
      "tojás": 4622,
      "ánk": 4623,
      "íre": 4624,
      "##ly": 4625,
      "ékos": 4626,
      "sül": 4627,
      "##mer": 4628,
      "áló": 4629,
      "íté": 4630,
      "képe": 4631,
      "poli": 4632,
      "bin": 4633,
      "nad": 4634,
      "űl": 4635,
      "ekek": 4636,
      "erj": 4637,
      "amu": 4638,
      "észle": 4639,
      "gett": 4640,
      "nsz": 4641,
      "pü": 4642,
      "rj": 4643,
      "vo": 4644,
      "láng": 4645,
      "pen": 4646,
      "éső": 4647,
      "rtl": 4648,
      "ies": 4649,
      "ekbe": 4650,
      "iko": 4651,
      "ndá": 4652,
      "ritka": 4653,
      "den": 4654,
      "nce": 4655,
      "ric": 4656,
      "kodás": 4657,
      "ola": 4658,
      "uty": 4659,
      "otor": 4660,
      "inál": 4661,
      "ily": 4662,
      "ajno": 4663,
      "tériu": 4664,
      "jal": 4665,
      "rjá": 4666,
      "sű": 4667,
      "##id": 4668,
      "adata": 4669,
      "mtv": 4670,
      "ársa": 4671,
      "kedve": 4672,
      "ktől": 4673,
      "ssan": 4674,
      "rv": 4675,
      "zig": 4676,
      "nysz": 4677,
      "tab": 4678,
      "nfor": 4679,
      "gé": 4680,
      "ias": 4681,
      "zul": 4682,
      "##ügy": 4683,
      "ezete": 4684,
      "abba": 4685,
      "áma": 4686,
      "tika": 4687,
      "lh": 4688,
      "tas": 4689,
      "ósz": 4690,
      "ejle": 4691,
      "bombá": 4692,
      "ds": 4693,
      "gre": 4694,
      "zk": 4695,
      "ásf": 4696,
      "ará": 4697,
      "rdeke": 4698,
      "szta": 4699,
      "aka": 4700,
      "tésre": 4701,
      "dén": 4702,
      "gez": 4703,
      "ned": 4704,
      "álta": 4705,
      "gz": 4706,
      "lmi": 4707,
      "tog": 4708,
      "okol": 4709,
      "olit": 4710,
      "sti": 4711,
      "atásá": 4712,
      "erzés": 4713,
      "llító": 4714,
      "fer": 4715,
      "isa": 4716,
      "kij": 4717,
      "arna": 4718,
      "áté": 4719,
      "lapí": 4720,
      "pás": 4721,
      "ségbe": 4722,
      "játs": 4723,
      "umo": 4724,
      "kszer": 4725,
      "ire": 4726,
      "nda": 4727,
      "ski": 4728,
      "mia": 4729,
      "ájá": 4730,
      "eljár": 4731,
      "tóbb": 4732,
      "iak": 4733,
      "nit": 4734,
      "##wn": 4735,
      "negye": 4736,
      "izto": 4737,
      "edt": 4738,
      "ital": 4739,
      "ósí": 4740,
      "mész": 4741,
      "rge": 4742,
      "áró": 4743,
      "nész": 4744,
      "dalm": 4745,
      "zerb": 4746,
      "imi": 4747,
      "tba": 4748,
      "erez": 4749,
      "rai": 4750,
      "ítják": 4751,
      "gazga": 4752,
      "stá": 4753,
      "aha": 4754,
      "giai": 4755,
      "mlék": 4756,
      "osabb": 4757,
      "mra": 4758,
      "rök": 4759,
      "áli": 4760,
      "kapac": 4761,
      "amint": 4762,
      "örny": 4763,
      "anuár": 4764,
      "eag": 4765,
      "ival": 4766,
      "mber": 4767,
      "pop": 4768,
      "rke": 4769,
      "zolg": 4770,
      "kéne": 4771,
      "gyar": 4772,
      "rich": 4773,
      "imn": 4774,
      "zata": 4775,
      "tmény": 4776,
      "kese": 4777,
      "fx": 4778,
      "ktá": 4779,
      "lába": 4780,
      "##up": 4781,
      "##ool": 4782,
      "aro": 4783,
      "keré": 4784,
      "rpool": 4785,
      "41": 4786,
      "vert": 4787,
      "##one": 4788,
      "győ": 4789,
      "bux": 4790,
      "élyi": 4791,
      "sában": 4792,
      "tóbbi": 4793,
      "dug": 4794,
      "ocs": 4795,
      "tp": 4796,
      "##ox": 4797,
      "köl": 4798,
      "átsz": 4799,
      "ségv": 4800,
      "színé": 4801,
      "zené": 4802,
      "git": 4803,
      "gében": 4804,
      "jeg": 4805,
      "lne": 4806,
      "vl": 4807,
      "##ner": 4808,
      "oná": 4809,
      "mást": 4810,
      "ukk": 4811,
      "észen": 4812,
      "dos": 4813,
      "rős": 4814,
      "ójá": 4815,
      "öd": 4816,
      "##emb": 4817,
      "atnak": 4818,
      "akban": 4819,
      "iket": 4820,
      "feles": 4821,
      "eon": 4822,
      "ls": 4823,
      "vét": 4824,
      "yil": 4825,
      "ésbe": 4826,
      "cial": 4827,
      "örü": 4828,
      "lene": 4829,
      "prób": 4830,
      "ektet": 4831,
      "iii": 4832,
      "jékoz": 4833,
      "tötte": 4834,
      "600": 4835,
      "aus": 4836,
      "rb": 4837,
      "ségek": 4838,
      "sztá": 4839,
      "któl": 4840,
      "brfk": 4841,
      "asztr": 4842,
      "kből": 4843,
      "ésőbb": 4844,
      "39": 4845,
      "48": 4846,
      "mr": 4847,
      "edik": 4848,
      "ogá": 4849,
      "ékez": 4850,
      "gb": 4851,
      "pri": 4852,
      "paki": 4853,
      "##fá": 4854,
      "arj": 4855,
      "aren": 4856,
      "zője": 4857,
      "hel": 4858,
      "nj": 4859,
      "pit": 4860,
      "íro": 4861,
      "omm": 4862,
      "örg": 4863,
      "250": 4864,
      "innen": 4865,
      "szlov": 4866,
      "nato": 4867,
      "szek": 4868,
      "asztó": 4869,
      "43": 4870,
      "bon": 4871,
      "dia": 4872,
      "gás": 4873,
      "ged": 4874,
      "iák": 4875,
      "ys": 4876,
      "yá": 4877,
      "##ns": 4878,
      "eta": 4879,
      "arab": 4880,
      "köze": 4881,
      "unka": 4882,
      "ékok": 4883,
      "latok": 4884,
      "sébe": 4885,
      "tszik": 4886,
      ".)": 4887,
      "ián": 4888,
      "kc": 4889,
      "mf": 4890,
      "zű": 4891,
      "##szk": 4892,
      "gyi": 4893,
      "tern": 4894,
      "ovb": 4895,
      "sütö": 4896,
      "ress": 4897,
      "rez": 4898,
      "rett": 4899,
      "sho": 4900,
      "##átor": 4901,
      "ege": 4902,
      "entes": 4903,
      "lév": 4904,
      "zabad": 4905,
      "det": 4906,
      "fé": 4907,
      "##po": 4908,
      "##ph": 4909,
      "atr": 4910,
      "arta": 4911,
      "nic": 4912,
      "talaj": 4913,
      "zete": 4914,
      "tran": 4915,
      "khoz": 4916,
      "vig": 4917,
      "##ry": 4918,
      "erke": 4919,
      "terel": 4920,
      "teli": 4921,
      "rnyé": 4922,
      "mpá": 4923,
      "ésén": 4924,
      "igi": 4925,
      "hav": 4926,
      "ozó": 4927,
      "ebes": 4928,
      "reke": 4929,
      "eál": 4930,
      "tre": 4931,
      "yan": 4932,
      "óba": 4933,
      "enb": 4934,
      "amo": 4935,
      "gm": 4936,
      "gek": 4937,
      "yű": 4938,
      "atik": 4939,
      "árto": 4940,
      "apja": 4941,
      "roda": 4942,
      "lógi": 4943,
      "laká": 4944,
      "híd": 4945,
      "gáb": 4946,
      "tg": 4947,
      "##zá": 4948,
      "ásuk": 4949,
      "olj": 4950,
      "onf": 4951,
      "étele": 4952,
      "eger": 4953,
      "ülö": 4954,
      "enté": 4955,
      "apple": 4956,
      "44": 4957,
      "álás": 4958,
      "ets": 4959,
      "ármi": 4960,
      "izen": 4961,
      "édia": 4962,
      "pesti": 4963,
      "edden": 4964,
      "hx": 4965,
      "kle": 4966,
      "lí": 4967,
      "##bó": 4968,
      "ziget": 4969,
      "aci": 4970,
      "pas": 4971,
      "tig": 4972,
      "óp": 4973,
      "##eni": 4974,
      "azda": 4975,
      "gyik": 4976,
      "ajz": 4977,
      "rték": 4978,
      "rand": 4979,
      "limp": 4980,
      "delm": 4981,
      "his": 4982,
      "igy": 4983,
      "mes": 4984,
      "okk": 4985,
      "ike": 4986,
      "dhet": 4987,
      "űnt": 4988,
      "rea": 4989,
      "ntött": 4990,
      "lésé": 4991,
      "sítés": 4992,
      "esztő": 4993,
      "lb": 4994,
      "lemé": 4995,
      "arvas": 4996,
      "rosz": 4997,
      "leti": 4998,
      "kur": 4999
    }
  }
}