[UNK]	0
[CLS]	1
[SEP]	2
[PAD]	3
[MASK]	4
!	5
"	6
#	7
$	8
%	9
&	10
'	11
(	12
)	13
*	14
+	15
,	16
-	17
.	18
/	19
0	20
1	21
2	22
3	23
4	24
5	25
6	26
7	27
8	28
9	29
:	30
;	31
<	32
=	33
>	34
?	35
@	36
[	37
\	38
]	39
^	40
_	41
`	42
a	43
b	44
c	45
d	46
e	47
f	48
g	49
h	50
i	51
j	52
k	53
l	54
m	55
n	56
o	57
p	58
q	59
r	60
s	61
t	62
u	63
v	64
w	65
x	66
y	67
z	68
~	69
	70
	71
	72
	73
£	74
§	75
©	76
¬	77
­	78
®	79
°	80
±	81
·	82
×	83
ß	84
à	85
á	86
â	87
ã	88
ä	89
å	90
æ	91
ç	92
è	93
é	94
ê	95
ë	96
ì	97
í	98
î	99
ï	100
ð	101
ñ	102
ò	103
ó	104
ô	105
õ	106
ö	107
ø	108
ú	109
û	110
ü	111
ý	112
ÿ	113
ă	114
ą	115
ć	116
č	117
đ	118
ę	119
ı	120
ł	121
ń	122
ň	123
ő	124
ř	125
ś	126
ş	127
š	128
ţ	129
ť	130
ů	131
ű	132
ż	133
ž	134
ș	135
̈	136
̋	137
λ	138
μ	139
ї	140
ה	141
ו	142
י	143
‒	144
†	145
•	146
‬	147
‭	148
′	149
⁄	150
€	151
−	152
∗	153
≤	154
	155
	156
##a	157
##r	158
##k	159
##e	160
##t	161
##i	162
##n	163
##g	164
##d	165
##s	166
##o	167
##l	168
##j	169
##í	170
##m	171
##é	172
##y	173
##ű	174
##v	175
##z	176
##f	177
##c	178
##b	179
##ü	180
##á	181
##p	182
##ő	183
##u	184
##ó	185
##ö	186
##h	187
##ú	188
##7	189
##8	190
##0	191
##x	192
##4	193
##1	194
##w	195
##š	196
##9	197
##3	198
##ć	199
##q	200
##5	201
##6	202
##2	203
###	204
##;	205
##.	206
##)	207
##ä	208
##_	209
##!	210
##,	211
##õ	212
##à	213
##ô	214
##-	215
##*	216
##ă	217
##/	218
##+	219
##ê	220
##è	221
##?	222
##û	223
##:	224
##[	225
##"	226
##ł	227
##ň	228
##­	229
##ò	230
##]	231
##−	232
##&	233
##'	234
##â	235
##ß	236
##ž	237
##ţ	238
##å	239
##ť	240
##ã	241
##č	242
##ї	243
##ș	244
##ה	245
##ו	246
##ů	247
##=	248
##>	249
##đ	250
##ì	251
##ë	252
##ñ	253
##ş	254
##ð	255
##‭	256
##(	257
##ą	258
##®	259
##ý	260
##<	261
##ç	262
##@	263
##§	264
##ø	265
##ś	266
##ę	267
##%	268
##î	269
##æ	270
##$	271
##′	272
##ï	273
##ÿ	274
##ż	275
##ń	276
##†	277
##ř	278
##\	279
##~	280
##ı	281
##et	282
##en	283
##el	284
##sz	285
##gy	286
##er	287
##at	288
##an	289
##al	290
az	291
sz	292
##ek	293
##on	294
##ár	295
##or	296
##ak	297
##em	298
##ás	299
##in	300
##ol	301
##eg	302
##án	303
##ál	304
##es	305
##tt	306
el	307
##és	308
##ik	309
##ar	310
##ok	311
##ez	312
##én	313
##ég	314
##os	315
##ér	316
##bb	317
és	318
##ett	319
egy	320
##oz	321
##ül	322
##ág	323
kö	324
##ít	325
meg	326
##át	327
##ap	328
##ét	329
##ogy	330
##ék	331
is	332
##ban	333
hogy	334
##il	335
##él	336
##ed	337
##int	338
##ott	339
##is	340
##it	341
nem	342
##agy	343
##szt	344
##ben	345
##ad	346
##cs	347
##om	348
##ta	349
cs	350
##ól	351
##ra	352
##ség	353
szer	354
##ul	355
##as	356
##ni	357
##ja	358
##ák	359
##og	360
köz	361
##ány	362
ki	363
##ény	364
fel	365
##re	366
##am	367
##aj	368
##ai	369
##áz	370
le	371
##ely	372
##ig	373
ez	374
am	375
##az	376
##nak	377
##ent	378
##ag	379
##ot	380
##iz	381
##nk	382
##ép	383
al	384
##ság	385
##ész	386
tö	387
##ut	388
##het	389
##ll	390
ak	391
##ny	392
##ől	393
##nek	394
##ám	395
##end	396
##olt	397
##rt	398
##ell	399
##ci	400
##lt	401
be	402
gy	403
ny	404
##ért	405
min	406
##us	407
##hat	408
##nt	409
##ök	410
de	411
##od	412
##szer	413
áll	414
##art	415
##ond	416
##ont	417
év	418
##len	419
##ud	420
vál	421
szerint	422
kor	423
##ab	424
##ró	425
##egy	426
##unk	427
for	428
##av	429
##ber	430
##uk	431
mi	432
##ev	433
##ezet	434
##ött	435
már	436
volt	437
jel	438
##kö	439
##szág	440
leg	441
es	442
elő	443
mind	444
##agyar	445
rend	446
##vet	447
##ov	448
magyar	449
##ók	450
20	451
##ert	452
##att	453
##ában	454
ol	455
nagy	456
##ill	457
ut	458
id	459
##ep	460
##ők	461
em	462
##erül	463
ad	464
or	465
##vel	466
##ább	467
ér	468
val	469
ha	470
er	471
##ej	472
##ük	473
##id	474
##est	475
több	476
##ős	477
##ént	478
##ba	479
##tat	480
hely	481
##esz	482
még	483
né	484
azt	485
##val	486
##koz	487
##kor	488
##ön	489
##ében	490
##olg	491
##áll	492
##ssz	493
##kal	494
in	495
##zet	496
##aszt	497
csak	498
##mány	499
##eket	500
##ív	501
##áj	502
szám	503
hi	504
##te	505
mint	506
##elm	507
kap	508
##ály	509
##ve	510
van	511
##ia	512
##um	513
ar	514
##ette	515
kell	516
lehet	517
##oly	518
##obb	519
##ós	520
tud	521
##éd	522
száz	523
két	524
más	525
vagy	526
ter	527
##kez	528
##okat	529
##ző	530
##árt	531
hat	532
##let	533
##elő	534
##ítás	535
amely	536
##ára	537
mag	538
##ei	539
tart	540
sem	541
##iszt	542
új	543
vég	544
biz	545
##ort	546
an	547
##ony	548
##ból	549
össz	550
##ált	551
##illi	552
##ső	553
##ajd	554
##ót	555
##alm	556
ellen	557
##alék	558
##be	559
##eszt	560
##ch	561
##ély	562
##ír	563
ig	564
##ód	565
##hoz	566
##öl	567
##ör	568
##mény	569
mond	570
##ást	571
##őr	572
fog	573
##ur	574
##ának	575
##ebb	576
##ése	577
kép	578
##öv	579
##ják	580
##ín	581
százalék	582
##ést	583
pr	584
át	585
##ország	586
##nök	587
##ított	588
##ról	589
##ása	590
##úl	591
tel	592
##éz	593
eu	594
ped	595
kül	596
##asz	597
##eh	598
##ult	599
##elt	600
##ug	601
ért	602
szem	603
minden	604
pedig	605
##im	606
##na	607
##íz	608
rész	609
hoz	610
##ére	611
##op	612
##ható	613
jelent	614
##nál	615
##leg	616
nap	617
milli	618
##áros	619
##ikai	620
mű	621
##je	622
ben	623
##eres	624
után	625
en	626
200	627
##ások	628
azon	629
##ilág	630
##aság	631
##abb	632
munk	633
kör	634
euró	635
##esen	636
##vény	637
##ési	638
##ási	639
vis	640
##utat	641
forint	642
##ünk	643
##ani	644
ország	645
vi	646
kez	647
kormány	648
állam	649
##áci	650
##ád	651
majd	652
ugy	653
##ének	654
##ost	655
##tak	656
##ölt	657
ind	658
alap	659
##eny	660
##va	661
##ával	662
##lal	663
##ült	664
tár	665
lesz	666
fő	667
bel	668
##ális	669
fi	670
ugyan	671
##ked	672
##vezet	673
##ről	674
##önt	675
han	676
tal	677
##emény	678
szak	679
világ	680
kis	681
első	682
úgy	683
##lan	684
##gat	685
ember	686
##nap	687
##ob	688
##ján	689
így	690
##ügy	691
vezet	692
##ember	693
int	694
##azd	695
19	696
aki	697
##köz	698
##etlen	699
##dés	700
oly	701
##ogat	702
##őz	703
ill	704
követ	705
hét	706
##ház	707
##énz	708
miatt	709
sok	710
##iv	711
vissz	712
ügy	713
szab	714
##év	715
##ből	716
##yen	717
##ne	718
##jel	719
##ri	720
mert	721
##fi	722
között	723
elm	724
jó	725
##hez	726
##ikus	727
akkor	728
sp	729
tört	730
##00	731
##ös	732
##áb	733
##ló	734
olyan	735
##for	736
##mű	737
igaz	738
saj	739
ját	740
foly	741
sor	742
##szak	743
mondta	744
mar	745
ami	746
##erült	747
##ezt	748
tan	749
hal	750
##eti	751
##ers	752
idő	753
lát	754
##ések	755
ah	756
##osan	757
##nyi	758
##ezett	759
ép	760
##ász	761
tör	762
##fel	763
##atok	764
##atal	765
##öld	766
##any	767
##ém	768
##ovább	769
tovább	770
##árom	771
most	772
hozz	773
##ként	774
kér	775
egyik	776
ir	777
nemzet	778
választ	779
##kel	780
##ir	781
kész	782
##eni	783
##ező	784
bizt	785
##íj	786
azonban	787
##ták	788
ism	789
pénz	790
##étel	791
##olit	792
##ekt	793
##ács	794
##ossz	795
##áv	796
él	797
tám	798
jog	799
##árd	800
ban	801
##osz	802
##nok	803
vált	804
fr	805
érd	806
201	807
valam	808
##utó	809
mell	810
eg	811
gazd	812
##ével	813
rendőr	814
fér	815
való	816
kezd	817
st	818
ár	819
három	820
per	821
dönt	822
elnök	823
),	824
##tel	825
##ület	826
csap	827
##ikor	828
##hető	829
##ck	830
vár	831
fej	832
ált	833
##un	834
által	835
##pont	836
##eng	837
ked	838
##eb	839
##tö	840
eset	841
európ	842
vol	843
telj	844
##zs	845
külön	846
ezt	847
##ki	848
##ván	849
illet	850
##jt	851
cí	852
##ati	853
ed	854
ker	855
##izs	856
##old	857
re	858
arra	859
ered	860
korább	861
nev	862
jelen	863
##esít	864
##ját	865
##őt	866
##izet	867
jár	868
har	869
##jár	870
##atkoz	871
##eked	872
##ata	873
ír	874
##csol	875
élet	876
egész	877
pont	878
##fog	879
br	880
##and	881
##olgál	882
visz	883
##met	884
szó	885
ok	886
sik	887
##incs	888
##ását	889
jobb	890
##ító	891
##fő	892
len	893
nyil	894
##oló	895
##ing	896
##tár	897
magyarország	898
##elem	899
kom	900
##árm	901
szint	902
előtt	903
bal	904
##véd	905
polit	906
##elmi	907
##juk	908
nyug	909
##enek	910
##up	911
amer	912
il	913
par	914
##atot	915
##zel	916
kon	917
##alom	918
##oll	919
##ését	920
dolg	921
nek	922
##író	923
##vis	924
##tó	925
szerep	926
fél	927
##ic	928
##hely	929
##adás	930
itt	931
term	932
##őd	933
besz	934
##últ	935
gazdaság	936
##ög	937
##ram	938
##ip	939
amikor	940
##dig	941
##kül	942
##dul	943
cég	944
gond	945
##óz	946
millió	947
gyer	948
##éld	949
##izsg	950
érdek	951
mér	952
##kép	953
##ti	954
éves	955
péld	956
kapcsol	957
lak	958
##öz	959
bud	960
történ	961
párt	962
##kod	963
volna	964
társ	965
##ített	966
talál	967
##ökk	968
##tam	969
##éter	970
vezető	971
ne	972
##szerű	973
másod	974
##sal	975
ma	976
költ	977
kar	978
tag	979
négy	980
men	981
illetve	982
##rend	983
##ozó	984
fid	985
##úly	986
##ába	987
vas	988
megy	989
alatt	990
##űn	991
##ajnok	992
ott	993
nagyon	994
ezer	995
dél	996
##esség	997
##oh	998
akik	999
##őség	1000
##gel	1001
##adó	1002
én	1003
közl	1004
össze	1005
##inek	1006
hó	1007
amerikai	1008
tav	1009
von	1010
jöv	1011
##ció	1012
seg	1013
érték	1014
mellett	1015
##oztat	1016
##kol	1017
##jelent	1018
10	1019
##ex	1020
##usz	1021
##gg	1022
##ütt	1023
##díj	1024
##ából	1025
miniszt	1026
vissza	1027
##st	1028
rendszer	1029
játék	1030
milliárd	1031
##uár	1032
öt	1033
nő	1034
##iai	1035
fidesz	1036
vesz	1037
hír	1038
közölt	1039
##után	1040
nyom	1041
##ezte	1042
##nél	1043
##osság	1044
##enc	1045
haz	1046
hang	1047
##város	1048
##omb	1049
megt	1050
zs	1051
##vas	1052
##elet	1053
hiv	1054
##ozott	1055
bar	1056
##erseny	1057
ilyen	1058
ház	1059
hasz	1060
haj	1061
biztos	1062
##ünt	1063
##ozás	1064
nincs	1065
férfi	1066
##erület	1067
##áció	1068
##ilm	1069
vállal	1070
törvény	1071
##szín	1072
együtt	1073
15	1074
##form	1075
##ozat	1076
##ern	1077
##ors	1078
mód	1079
rá	1080
##eli	1081
kil	1082
jav	1083
##észt	1084
##izsgál	1085
szól	1086
kat	1087
##kot	1088
##zés	1089
bet	1090
##le	1091
üz	1092
##lat	1093
budap	1094
budapest	1095
##ant	1096
eredmény	1097
##élkül	1098
támogat	1099
##áról	1100
képvis	1101
##gató	1102
alkal	1103
##ium	1104
##ór	1105
keres	1106
##pr	1107
csal	1108
##íg	1109
csökk	1110
lett	1111
##ub	1112
##anak	1113
##omány	1114
német	1115
".	1116
##almaz	1117
##ink	1118
vél	1119
következ	1120
##ester	1121
##ocs	1122
európai	1123
egyes	1124
marad	1125
azért	1126
pály	1127
##sel	1128
##séges	1129
##ezés	1130
ezért	1131
hisz	1132
hanem	1133
cél	1134
##ábor	1135
autó	1136
erős	1137
te	1138
szín	1139
##avaz	1140
##oszt	1141
túl	1142
kev	1143
##ügyi	1144
személy	1145
##etés	1146
##tört	1147
fran	1148
figy	1149
bef	1150
véd	1151
##köd	1152
##eken	1153
##vány	1154
##ang	1155
##ió	1156
kés	1157
mn	1158
verseny	1159
##ef	1160
##ogram	1161
##ekben	1162
##oport	1163
##ilyen	1164
kam	1165
közölte	1166
##aly	1167
##ették	1168
kerül	1169
##all	1170
2010	1171
##da	1172
##ánt	1173
eddig	1174
##vár	1175
sport	1176
##pen	1177
##of	1178
##ája	1179
##ason	1180
kív	1181
város	1182
szük	1183
##ügg	1184
##ául	1185
viszont	1186
szolgál	1187
segít	1188
lép	1189
##mad	1190
eml	1191
körül	1192
##dal	1193
jelenleg	1194
reg	1195
jövő	1196
helyzet	1197
akar	1198
költség	1199
ment	1200
tavaly	1201
szerző	1202
bár	1203
##tek	1204
annak	1205
kl	1206
##ottság	1207
szeret	1208
második	1209
ahol	1210
##zett	1211
##uszt	1212
##hon	1213
pár	1214
##ekkel	1215
##ítés	1216
##elés	1217
terv	1218
12	1219
néh	1220
nép	1221
például	1222
##lát	1223
út	1224
##ítani	1225
csapat	1226
mik	1227
##só	1228
##akor	1229
lét	1230
##ec	1231
##úz	1232
bl	1233
szabad	1234
##ass	1235
közel	1236
kiv	1237
rom	1238
ők	1239
##lés	1240
##szám	1241
bizony	1242
vel	1243
##ess	1244
arról	1245
ber	1246
##esebb	1247
##ista	1248
nélkül	1249
fejl	1250
jan	1251
##ontos	1252
hozzá	1253
##tól	1254
##éb	1255
saját	1256
kapcsolat	1257
mno	1258
határ	1259
elt	1260
foglal	1261
kérdés	1262
film	1263
hónap	1264
##ven	1265
18	1266
felt	1267
megh	1268
##ője	1269
##övet	1270
tiszt	1271
korábban	1272
##ően	1273
##ással	1274
amit	1275
elmond	1276
##isz	1277
11	1278
hétfő	1279
ugyanis	1280
negy	1281
miniszter	1282
##észet	1283
##nyv	1284
megsz	1285
##ájék	1286
százalékkal	1287
##ettek	1288
##..	1289
##ülés	1290
##okban	1291
##rób	1292
ebb	1293
kedd	1294
##ika	1295
olvas	1296
kín	1297
hivatal	1298
alkalm	1299
vizsgál	1300
##íróság	1301
##ította	1302
##bbi	1303
alkot	1304
kutat	1305
##ször	1306
kit	1307
hason	1308
##föld	1309
tér	1310
ör	1311
##ist	1312
mutat	1313
##atlan	1314
család	1315
##erg	1316
táv	1317
orosz	1318
valamint	1319
##lam	1320
any	1321
hát	1322
hagy	1323
lap	1324
intéz	1325
győz	1326
##ségi	1327
ezek	1328
##fél	1329
hiszen	1330
ennek	1331
##eit	1332
##ver	1333
##elked	1334
mely	1335
##éről	1336
##közi	1337
jut	1338
jól	1339
csü	1340
óta	1341
gól	1342
pént	1343
##cia	1344
##ac	1345
közös	1346
gondol	1347
##ető	1348
legn	1349
azok	1350
##ásár	1351
ezzel	1352
beszél	1353
##törtök	1354
csütörtök	1355
##alak	1356
##oci	1357
ch	1358
alak	1359
került	1360
##onság	1361
##szab	1362
##ásra	1363
##itk	1364
alapján	1365
30	1366
mivel	1367
##otta	1368
kr	1369
program	1370
##ottak	1371
játsz	1372
##ulajd	1373
##érték	1374
másik	1375
hossz	1376
##újt	1377
pia	1378
neh	1379
késő	1380
nyugdíj	1381
uta	1382
számára	1383
##ológ	1384
néhány	1385
bank	1386
rég	1387
ór	1388
##sége	1389
föld	1390
##séget	1391
dec	1392
bajnok	1393
felh	1394
##inak	1395
##min	1396
megv	1397
##sa	1398
##essz	1399
oldal	1400
semm	1401
egyet	1402
hit	1403
##út	1404
cím	1405
##ttal	1406
önk	1407
##ájékoztat	1408
míg	1409
##orv	1410
ismer	1411
##olc	1412
perc	1413
szabály	1414
##zi	1415
##ord	1416
##jobb	1417
közül	1418
oszt	1419
##gyű	1420
##zal	1421
december	1422
szavaz	1423
##ói	1424
akár	1425
terület	1426
##elnök	1427
képviselő	1428
##ekint	1429
di	1430
##ús	1431
##alan	1432
##ter	1433
jegy	1434
című	1435
irány	1436
test	1437
használ	1438
25	1439
16	1440
##lag	1441
nyilván	1442
as	1443
víz	1444
##sor	1445
##ulajdon	1446
).	1447
ön	1448
##von	1449
doll	1450
működ	1451
uni	1452
##ha	1453
lehetőség	1454
ist	1455
harmad	1456
főváros	1457
##za	1458
moz	1459
##nal	1460
##ism	1461
and	1462
százalékos	1463
##öt	1464
csoport	1465
im	1466
##vétel	1467
január	1468
okoz	1469
folytat	1470
tíz	1471
szerd	1472
fordul	1473
negyed	1474
folyam	1475
kif	1476
csökkent	1477
nyilatkoz	1478
lenne	1479
##ánd	1480
tárgy	1481
növ	1482
##ib	1483
.)	1484
nemzetközi	1485
##űz	1486
nov	1487
legjobb	1488
fiatal	1489
pl	1490
egym	1491
utol	1492
ap	1493
ám	1494
dr	1495
##agyobb	1496
köt	1497
##ához	1498
szervezet	1499
##etett	1500
legnagyobb	1501
##lő	1502
fizet	1503
hol	1504
##lás	1505
##né	1506
munka	1507
kedv	1508
körny	1509
jelentős	1510
##assz	1511
##iség	1512
##előtt	1513
történt	1514
##súly	1515
aut	1516
##jük	1517
##ull	1518
magas	1519
fer	1520
elv	1521
szomb	1522
elem	1523
parlam	1524
##okkal	1525
egyéb	1526
aján	1527
kellett	1528
közép	1529
nemzeti	1530
parlament	1531
nagyobb	1532
##mér	1533
érkez	1534
##nny	1535
azzal	1536
hasonló	1537
elég	1538
##nő	1539
fontos	1540
idén	1541
legy	1542
szoci	1543
száll	1544
szemben	1545
##aton	1546
során	1547
##új	1548
megáll	1549
elmúlt	1550
gyerek	1551
##rás	1552
13	1553
##jabb	1554
##ókat	1555
forg	1556
adó	1557
elmondta	1558
##almas	1559
szél	1560
rendőrség	1561
emlék	1562
##árnap	1563
14	1564
teh	1565
megyei	1566
abb	1567
vannak	1568
...	1569
17	1570
gazdasági	1571
##ejt	1572
##adt	1573
amelyek	1574
dolgoz	1575
##ment	1576
##ong	1577
vasárnap	1578
##szp	1579
rendel	1580
elh	1581
tulajdon	1582
gyors	1583
korábbi	1584
foglalkoz	1585
##obl	1586
##csak	1587
##ezni	1588
els	1589
tett	1590
mindig	1591
##ón	1592
##ején	1593
ál	1594
bíróság	1595
ham	1596
##bán	1597
költségvet	1598
nyolc	1599
##tor	1600
kid	1601
##ajt	1602
megfel	1603
nyert	1604
##óság	1605
tanács	1606
polg	1607
rep	1608
##eset	1609
##ma	1610
szövet	1611
##élet	1612
elfog	1613
##ard	1614
bizottság	1615
gyakor	1616
##igaz	1617
##rel	1618
##ános	1619
inform	1620
##ítása	1621
##zék	1622
részt	1623
vit	1624
##ászló	1625
ink	1626
.,	1627
szerv	1628
##oblém	1629
további	1630
ant	1631
##jai	1632
rossz	1633
##enni	1634
##itány	1635
kereszt	1636
utó	1637
##kész	1638
hiány	1639
megk	1640
##ene	1641
eng	1642
tesz	1643
tanul	1644
hon	1645
csat	1646
##alt	1647
##eccs	1648
##ására	1649
2009	1650
##land	1651
teljes	1652
##nn	1653
##jában	1654
legal	1655
állami	1656
##ítja	1657
##róbál	1658
mot	1659
##telen	1660
hazai	1661
vid	1662
mszp	1663
##okr	1664
eljár	1665
##kőz	1666
##mek	1667
erre	1668
függ	1669
bor	1670
helyett	1671
##ock	1672
alá	1673
szen	1674
könyv	1675
hu	1676
lev	1677
gyan	1678
érint	1679
inkább	1680
##mányz	1681
javas	1682
##ari	1683
voltak	1684
problém	1685
bűn	1686
dem	1687
megb	1688
teljesít	1689
##ay	1690
##lin	1691
önkor	1692
tekint	1693
felel	1694
november	1695
##acs	1696
utolsó	1697
elnöke	1698
##biz	1699
sér	1700
ismert	1701
lászló	1702
##ákat	1703
th	1704
önkormányz	1705
##ah	1706
199	1707
könny	1708
##erj	1709
tény	1710
adott	1711
##son	1712
múlt	1713
##átt	1714
kapott	1715
27	1716
##évő	1717
##talan	1718
orbán	1719
vez	1720
újra	1721
iz	1722
##li	1723
##áját	1724
fok	1725
fogy	1726
milyen	1727
adat	1728
esz	1729
sajtó	1730
különb	1731
francia	1732
méd	1733
##ür	1734
brit	1735
fin	1736
rendelkez	1737
tr	1738
##óta	1739
súly	1740
het	1741
fen	1742
##ow	1743
várható	1744
##nia	1745
éppen	1746
##ics	1747
##ították	1748
alkotmány	1749
##úsz	1750
mer	1751
őket	1752
##sér	1753
##ka	1754
##viv	1755
természet	1756
politikai	1757
##ítő	1758
erő	1759
##leges	1760
vád	1761
##jának	1762
##tatás	1763
##ehér	1764
##sze	1765
##színű	1766
##üz	1767
##lov	1768
néz	1769
díj	1770
kötel	1771
##ítette	1772
sikerült	1773
##har	1774
összeg	1775
közleked	1776
tette	1777
szig	1778
port	1779
##olta	1780
##elte	1781
piac	1782
att	1783
tájékoztat	1784
##követ	1785
magát	1786
meccs	1787
később	1788
harmadik	1789
##lott	1790
folyamat	1791
21	1792
megállap	1793
##lik	1794
ahogy	1795
##áló	1796
magán	1797
gép	1798
##érium	1799
##imp	1800
##mel	1801
figyelm	1802
##lap	1803
##per	1804
intern	1805
találkoz	1806
##edett	1807
újabb	1808
##ral	1809
kisebb	1810
2008	1811
##oni	1812
",	1813
kir	1814
igazgató	1815
megfelelő	1816
kór	1817
fejleszt	1818
##nem	1819
##ikk	1820
ebben	1821
tiz	1822
átlag	1823
##gyel	1824
##uh	1825
##meg	1826
legalább	1827
mintegy	1828
szerdán	1829
fut	1830
mod	1831
péter	1832
##kv	1833
##esek	1834
alkalmaz	1835
zár	1836
központ	1837
felad	1838
##úr	1839
kár	1840
készült	1841
##mal	1842
szület	1843
gyermek	1844
##éssel	1845
##ációs	1846
##almi	1847
hétfőn	1848
ít	1849
országos	1850
24	1851
persze	1852
##jegy	1853
utc	1854
##ezték	1855
22	1856
##ebr	1857
##ték	1858
-,	1859
##ülő	1860
igen	1861
##ens	1862
halál	1863
##anyol	1864
##ármester	1865
kedden	1866
indul	1867
biztonság	1868
##éhez	1869
##ind	1870
##ion	1871
mérkőz	1872
##ésre	1873
emberek	1874
következő	1875
##szik	1876
belül	1877
##előre	1878
hozzát	1879
észak	1880
mit	1881
egyetem	1882
őr	1883
##őv	1884
##ört	1885
szükség	1886
emelked	1887
valószínű	1888
enged	1889
tor	1890
egyelőre	1891
politikus	1892
##eség	1893
kih	1894
állap	1895
##tart	1896
at	1897
##akat	1898
lég	1899
##áp	1900
##vezető	1901
istván	1902
##jét	1903
megl	1904
játékos	1905
utóbbi	1906
##oknak	1907
végül	1908
beteg	1909
##ukat	1910
növeked	1911
spanyol	1912
elér	1913
##utt	1914
bünt	1915
##elek	1916
közt	1917
##állal	1918
anyag	1919
tap	1920
jelölt	1921
lab	1922
ezen	1923
miniszterelnök	1924
közlemény	1925
hatóság	1926
##olni	1927
##akkor	1928
telep	1929
##ébe	1930
egyre	1931
éve	1932
##ogatott	1933
irod	1934
miután	1935
ab	1936
veszély	1937
szlov	1938
##úg	1939
olasz	1940
sokkal	1941
##chn	1942
kult	1943
##mények	1944
külföld	1945
on	1946
##mus	1947
##állítás	1948
ugyanakkor	1949
26	1950
##atív	1951
történet	1952
##okon	1953
febr	1954
szóló	1955
##osítás	1956
##cius	1957
talált	1958
##erős	1959
képest	1960
szintén	1961
##től	1962
vásár	1963
##lom	1964
##milli	1965
##foly	1966
##szolgál	1967
##csi	1968
komoly	1969
fot	1970
hív	1971
felelős	1972
##ellem	1973
helyi	1974
##ári	1975
##oldal	1976
neki	1977
egyébként	1978
##árs	1979
március	1980
kívül	1981
##bajnok	1982
raj	1983
##anyag	1984
##öm	1985
##hatnak	1986
február	1987
##ekre	1988
##heti	1989
ang	1990
egészség	1991
##övid	1992
##asznál	1993
forintot	1994
szeg	1995
##ánk	1996
től	1997
ford	1998
megold	1999
helyen	2000
amelyet	2001
reggel	2002
tárgyal	2003
##öző	2004
lévő	2005
írja	2006
##szor	2007
először	2008
végén	2009
##ásban	2010
index	2011
##nnep	2012
iskol	2013
nehéz	2014
egyetlen	2015
##ották	2016
ismét	2017
pénteken	2018
orv	2019
válasz	2020
részlet	2021
##ságot	2022
##gal	2023
évvel	2024
csütörtökön	2025
##kori	2026
dollár	2027
bem	2028
gyű	2029
számít	2030
ellenére	2031
tizen	2032
form	2033
magyarországon	2034
föl	2035
társaság	2036
mti	2037
gáz	2038
##lak	2039
tűz	2040
##uc	2041
ferenc	2042
vállalkoz	2043
este	2044
elleni	2045
annyi	2046
##jon	2047
##nyit	2048
tehát	2049
##ógy	2050
##inál	2051
##védelmi	2052
##oj	2053
üzem	2054
kí	2055
##üt	2056
##gazd	2057
barát	2058
szív	2059
rövid	2060
üzlet	2061
##elni	2062
part	2063
kösz	2064
budapesti	2065
kórház	2066
egyszer	2067
társad	2068
##ft	2069
23	2070
kik	2071
vélemény	2072
##uház	2073
fogyaszt	2074
internet	2075
üt	2076
let	2077
##hetetlen	2078
50	2079
kény	2080
abban	2081
aztán	2082
##éből	2083
##ésére	2084
##miniszt	2085
jobbik	2086
kíván	2087
hitel	2088
rendez	2089
til	2090
##űnt	2091
szép	2092
hall	2093
hosszú	2094
szinte	2095
##ásokat	2096
##nev	2097
##fr	2098
miért	2099
fehér	2100
##őket	2101
szóviv	2102
kett	2103
##kr	2104
##apitány	2105
##csap	2106
bejelent	2107
##eknek	2108
##hatja	2109
kal	2110
##ese	2111
##őleg	2112
ünnep	2113
válság	2114
##sék	2115
##atos	2116
ip	2117
ver	2118
##dő	2119
##dönt	2120
talán	2121
időszak	2122
##ezer	2123
évben	2124
##ich	2125
##polg	2126
##ron	2127
igény	2128
##ennyi	2129
gábor	2130
októ	2131
október	2132
##asztal	2133
létre	2134
rem	2135
##gép	2136
##aki	2137
##dött	2138
##orban	2139
ide	2140
##se	2141
##ün	2142
egyszerű	2143
##országban	2144
végre	2145
dar	2146
tam	2147
##ait	2148
##pal	2149
##úcs	2150
##ékeny	2151
ex	2152
fogad	2153
követően	2154
készül	2155
egyen	2156
##óri	2157
keresked	2158
100	2159
##ilis	2160
##határ	2161
pan	2162
világbajnok	2163
##endő	2164
##uz	2165
os	2166
##ettel	2167
40	2168
sch	2169
2011	2170
közben	2171
##uta	2172
##áig	2173
itthon	2174
##örgy	2175
műv	2176
##port	2177
##ark	2178
sen	2179
vill	2180
próbál	2181
##áni	2182
##enet	2183
nyit	2184
orvos	2185
##íteni	2186
tölt	2187
kéz	2188
lem	2189
##tató	2190
továbbra	2191
##pénz	2192
poz	2193
fők	2194
kormányz	2195
szerződés	2196
mérték	2197
##af	2198
##iss	2199
tudja	2200
##endég	2201
évek	2202
esély	2203
hangsúly	2204
környezet	2205
##ozta	2206
forduló	2207
gr	2208
arány	2209
ellenőr	2210
jelentette	2211
délután	2212
bír	2213
fény	2214
hib	2215
keret	2216
##ner	2217
szakért	2218
viszony	2219
teljesen	2220
maga	2221
baj	2222
éj	2223
mégis	2224
siker	2225
##pály	2226
bi	2227
amelynek	2228
new	2229
##rány	2230
##nék	2231
válogatott	2232
kevés	2233
vik	2234
##ítvány	2235
klub	2236
ek	2237
##ásával	2238
érdem	2239
mindk	2240
##ácsony	2241
vonatkoz	2242
se	2243
##okra	2244
energ	2245
elfogad	2246
veszt	2247
helyszín	2248
kiem	2249
##bert	2250
olimp	2251
fogalmaz	2252
szakember	2253
án	2254
##encs	2255
##ézet	2256
otthon	2257
karácsony	2258
man	2259
##izmus	2260
álló	2261
baleset	2262
tév	2263
pap	2264
##jából	2265
befekt	2266
állít	2267
hogyan	2268
semmi	2269
motor	2270
nyújt	2271
##mond	2272
##hetnek	2273
feltétel	2274
lel	2275
##nie	2276
györgy	2277
különös	2278
lány	2279
##ecs	2280
kics	2281
legyen	2282
alig	2283
mindenki	2284
konc	2285
##urg	2286
csup	2287
gyeng	2288
gör	2289
sőt	2290
vendég	2291
előző	2292
jános	2293
##száz	2294
##oc	2295
##man	2296
##line	2297
vezetője	2298
##isták	2299
##ködés	2300
előre	2301
##műv	2302
többi	2303
összesen	2304
szocial	2305
##ismer	2306
kért	2307
tev	2308
műsor	2309
##ilag	2310
##vált	2311
ráadás	2312
szlovák	2313
##elv	2314
akad	2315
##gr	2316
vagyis	2317
nál	2318
fal	2319
##mag	2320
kiad	2321
##társ	2322
labd	2323
ápr	2324
idei	2325
##ásának	2326
országgyű	2327
valami	2328
fővárosi	2329
##üket	2330
kevesebb	2331
egyesült	2332
##ékony	2333
katon	2334
##ton	2335
kapcsolatban	2336
áld	2337
független	2338
##ozik	2339
##mun	2340
április	2341
##ou	2342
pénzügyi	2343
jelenlegi	2344
##olja	2345
##kezd	2346
rek	2347
##pány	2348
##ept	2349
ráadásul	2350
##hetően	2351
értelm	2352
utaz	2353
vele	2354
fegy	2355
##szk	2356
köszön	2357
##fer	2358
##tag	2359
##őben	2360
##alap	2361
elkövet	2362
##lós	2363
zrt	2364
##ce	2365
szok	2366
rendőrök	2367
szor	2368
része	2369
vet	2370
ell	2371
##osabb	2372
polgármester	2373
##ga	2374
##ója	2375
szenv	2376
demokr	2377
hav	2378
##ügyminiszt	2379
##rendszer	2380
28	2381
szükséges	2382
szent	2383
újság	2384
##függ	2385
##kör	2386
##veszt	2387
##enger	2388
pályáz	2389
##vonal	2390
haszn	2391
str	2392
##több	2393
cikk	2394
dok	2395
gyógy	2396
csupán	2397
elsős	2398
kellene	2399
##itt	2400
közvet	2401
hí	2402
##álni	2403
##ilk	2404
bemutat	2405
##ségek	2406
tartott	2407
techn	2408
##ná	2409
ra	2410
akt	2411
##folyam	2412
tanulmány	2413
bér	2414
íg	2415
##dik	2416
esetben	2417
zolt	2418
benne	2419
##ától	2420
##avar	2421
segítség	2422
száma	2423
ró	2424
##ándor	2425
vezér	2426
##acsony	2427
dob	2428
kelet	2429
gyanús	2430
##emp	2431
kampány	2432
meglep	2433
cent	2434
##ezik	2435
forintos	2436
csökken	2437
mel	2438
érvény	2439
kock	2440
szerencs	2441
mad	2442
mozg	2443
tamás	2444
elkép	2445
eszköz	2446
elsősorban	2447
kialak	2448
##str	2449
forr	2450
vett	2451
##igazgató	2452
##ású	2453
bkv	2454
##urcs	2455
fed	2456
##apitányság	2457
mög	2458
##attal	2459
szerepel	2460
online	2461
##mai	2462
##eget	2463
##orvát	2464
##kív	2465
legtöbb	2466
bárm	2467
számos	2468
európa	2469
##efon	2470
horvát	2471
##atták	2472
##fit	2473
##ca	2474
százaléka	2475
jobban	2476
##áson	2477
##eztek	2478
##orn	2479
kérd	2480
angol	2481
##éli	2482
termék	2483
##cel	2484
nemcsak	2485
szék	2486
##íti	2487
héten	2488
kezdőd	2489
lengyel	2490
tagja	2491
##erő	2492
egyed	2493
##ileg	2494
had	2495
##iskol	2496
##kívül	2497
lény	2498
döntés	2499
intézmény	2500
sv	2501
##ker	2502
zoltán	2503
##hatatlan	2504
##df	2505
##álaszt	2506
szempont	2507
vide	2508
szül	2509
##ánc	2510
gyárt	2511
##bizt	2512
szerinte	2513
##róf	2514
viktor	2515
pill	2516
##enci	2517
##ina	2518
tűn	2519
arany	2520
indok	2521
épület	2522
##érd	2523
##adék	2524
érdekében	2525
31	2526
küz	2527
##tr	2528
##ly	2529
épít	2530
##omag	2531
mol	2532
##ozni	2533
##szabály	2534
##polit	2535
kísér	2536
tet	2537
kilom	2538
##ansz	2539
##ésben	2540
##ezi	2541
inf	2542
##ork	2543
kiz	2544
modell	2545
##össz	2546
választási	2547
péntek	2548
##vég	2549
írta	2550
##elmű	2551
##ack	2552
##ázs	2553
##asági	2554
józs	2555
uniós	2556
szövetség	2557
ül	2558
indult	2559
##álló	2560
cser	2561
tulajdonos	2562
tevékeny	2563
med	2564
román	2565
eh	2566
##féle	2567
állás	2568
minisztérium	2569
azaz	2570
##ólag	2571
döntött	2572
##szabad	2573
munkat	2574
kínai	2575
##álták	2576
##íp	2577
##ball	2578
##uló	2579
ezelőtt	2580
##ármaz	2581
nyí	2582
látt	2583
##cz	2584
35	2585
óra	2586
##tatási	2587
intézked	2588
mérkőzés	2589
##átor	2590
##észeti	2591
##ítottak	2592
##ői	2593
súlyos	2594
hozzátette	2595
##özben	2596
különböző	2597
tapasztal	2598
met	2599
##által	2600
##elők	2601
2006	2602
kilenc	2603
et	2604
ahhoz	2605
utas	2606
##ségét	2607
##beli	2608
állt	2609
bek	2610
gar	2611
évi	2612
maradt	2613
kan	2614
##ro	2615
elején	2616
##ument	2617
##la	2618
régi	2619
kft	2620
##iában	2621
visszat	2622
##oha	2623
külföldi	2624
li	2625
##eteg	2626
mdf	2627
addig	2628
29	2629
vér	2630
ellát	2631
megny	2632
pal	2633
idej	2634
sorozat	2635
##ományos	2636
józsef	2637
##ezon	2638
állapot	2639
kockáz	2640
szombaton	2641
lass	2642
tur	2643
származ	2644
seb	2645
valószínűleg	2646
##rál	2647
keresztül	2648
##elen	2649
##atokat	2650
közötti	2651
##ocsi	2652
mester	2653
vagyok	2654
##ágy	2655
esemény	2656
un	2657
##élt	2658
ro	2659
##víz	2660
lehetett	2661
tak	2662
lig	2663
##uális	2664
##énk	2665
lényeg	2666
45	2667
##sért	2668
andrás	2669
bra	2670
nak	2671
nor	2672
nőtt	2673
##erte	2674
valaki	2675
auszt	2676
felé	2677
##szervezet	2678
magyaráz	2679
##zetes	2680
##eztet	2681
##éteres	2682
női	2683
honlap	2684
alacsony	2685
##ódik	2686
módon	2687
mély	2688
jutott	2689
attil	2690
var	2691
változ	2692
.),	2693
görög	2694
##lus	2695
bele	2696
##ítják	2697
írt	2698
##éni	2699
darab	2700
húsz	2701
sh	2702
egykori	2703
közé	2704
tömeg	2705
##nyire	2706
##sága	2707
ideg	2708
##értelmű	2709
rendkívül	2710
##éves	2711
##ocsát	2712
felhasznál	2713
##zik	2714
esetében	2715
hid	2716
sim	2717
azóta	2718
##ódott	2719
szakasz	2720
király	2721
##olás	2722
##ésével	2723
miközben	2724
dokument	2725
##titk	2726
##raj	2727
közep	2728
természetesen	2729
##van	2730
##üntet	2731
teljesítmény	2732
mon	2733
sándor	2734
##jára	2735
azokat	2736
egyértelmű	2737
költségvetési	2738
##ereség	2739
list	2740
becs	2741
sajt	2742
kifej	2743
##űt	2744
osztály	2745
sváj	2746
##ulat	2747
lond	2748
nők	2749
mai	2750
##ih	2751
kiderült	2752
##usok	2753
képes	2754
mindent	2755
futball	2756
terj	2757
sokat	2758
##álta	2759
megjelent	2760
##olták	2761
the	2762
jellem	2763
megjel	2764
beruház	2765
##einek	2766
##zó	2767
részvény	2768
##gatlan	2769
##űr	2770
szept	2771
kezdemény	2772
buk	2773
jött	2774
oda	2775
tém	2776
##jut	2777
szeptember	2778
##erv	2779
valóban	2780
megm	2781
adatok	2782
lakosság	2783
2007	2784
senki	2785
megf	2786
ról	2787
##ulás	2788
##ntart	2789
színész	2790
felső	2791
szóvivője	2792
ehhez	2793
##jával	2794
gyűjt	2795
##atikus	2796
fell	2797
deb	2798
##ente	2799
nehez	2800
##eik	2801
##iát	2802
##ff	2803
##éseket	2804
sziget	2805
többször	2806
com	2807
kov	2808
##sem	2809
##eznek	2810
##szint	2811
években	2812
század	2813
elképzel	2814
##ái	2815
##andó	2816
szezon	2817
##ekv	2818
kup	2819
sokan	2820
##örös	2821
du	2822
tenger	2823
kárt	2824
tudom	2825
##övel	2826
elk	2827
##szó	2828
vagyon	2829
ülés	2830
##ler	2831
végzett	2832
titk	2833
##erm	2834
támad	2835
fogalmazott	2836
##zők	2837
csúcs	2838
pénzt	2839
teszt	2840
azonnal	2841
##emt	2842
kim	2843
##leszt	2844
jön	2845
cseh	2846
hatalmas	2847
gyakorlat	2848
bék	2849
##rák	2850
##étől	2851
élő	2852
##millió	2853
ekkor	2854
##fordul	2855
nevű	2856
mindkét	2857
##úra	2858
##aként	2859
##ian	2860
hir	2861
##fok	2862
kapcsolatos	2863
##anszír	2864
vegy	2865
##sd	2866
##ung	2867
unió	2868
##ran	2869
##csoport	2870
##rec	2871
##evő	2872
her	2873
tudott	2874
mező	2875
rög	2876
##hajt	2877
##ítése	2878
##uty	2879
idején	2880
pál	2881
##akció	2882
##észség	2883
szolgáltat	2884
mögött	2885
eszt	2886
ob	2887
választások	2888
született	2889
kicsit	2890
együttmű	2891
nyelv	2892
szombat	2893
koll	2894
őt	2895
napon	2896
vonatkozó	2897
tartalmaz	2898
látható	2899
férfit	2900
hivatalos	2901
ingatlan	2902
car	2903
##részt	2904
##lőd	2905
krit	2906
érkezett	2907
198	2908
##oltak	2909
módos	2910
árfolyam	2911
ág	2912
##zák	2913
várhatóan	2914
akit	2915
##nyal	2916
adós	2917
megbíz	2918
befektet	2919
##elik	2920
jég	2921
lő	2922
múl	2923
sí	2924
##olog	2925
##lési	2926
60	2927
korlát	2928
##össze	2929
feket	2930
##tet	2931
##obil	2932
##eum	2933
igazság	2934
##ésének	2935
meghatár	2936
##cselek	2937
szerk	2938
ka	2939
korr	2940
##atát	2941
alk	2942
erről	2943
kommun	2944
##mp	2945
felv	2946
esett	2947
##szem	2948
elekt	2949
hamar	2950
médi	2951
32	2952
##ey	2953
többek	2954
##zése	2955
##akt	2956
felett	2957
utal	2958
forgalom	2959
dokumentum	2960
előny	2961
feny	2962
##arúg	2963
##asztróf	2964
terh	2965
ellenzék	2966
ég	2967
##zott	2968
ebből	2969
lez	2970
##ánál	2971
látogat	2972
##und	2973
laj	2974
olvasható	2975
megállapod	2976
attila	2977
##ona	2978
mondja	2979
biztonsági	2980
pet	2981
##ux	2982
##ájuk	2983
svéd	2984
##edik	2985
mindössze	2986
mil	2987
##bel	2988
##ájában	2989
zsolt	2990
különösen	2991
##eri	2992
##urális	2993
##nének	2994
##mi	2995
##éve	2996
akart	2997
labdarúg	2998
##oss	2999
kol	3000
tartja	3001
##keres	3002
parlamenti	3003
legf	3004
napi	3005
hajt	3006
##éig	3007
tudta	3008
##tiz	3009
##örvény	3010
##ológiai	3011
beszélt	3012
##br	3013
##ham	3014
szom	3015
ének	3016
teszi	3017
##párt	3018
##enz	3019
##evíz	3020
##pénztár	3021
fiz	3022
óri	3023
tudni	3024
távol	3025
##ere	3026
fenntart	3027
folyamatosan	3028
engedély	3029
szeged	3030
akinek	3031
államok	3032
##írt	3033
##óknak	3034
##íció	3035
megszer	3036
küzd	3037
bört	3038
##ozza	3039
jelentkez	3040
rád	3041
##hogy	3042
##eltek	3043
##elték	3044
bűncselek	3045
zöld	3046
##ius	3047
##eként	3048
##ultak	3049
önkormányzat	3050
pé	3051
##nyug	3052
telefon	3053
pillan	3054
bajnokság	3055
megjelen	3056
kore	3057
összes	3058
izra	3059
##haj	3060
szerzett	3061
főkapitányság	3062
vörös	3063
többet	3064
ügyben	3065
cl	3066
sta	3067
csill	3068
feleség	3069
##izál	3070
##tized	3071
fil	3072
##vállal	3073
##éri	3074
növel	3075
előzetes	3076
##ier	3077
##jön	3078
##ue	3079
##elmet	3080
örök	3081
ellent	3082
##almat	3083
országban	3084
vizsgálat	3085
eljárás	3086
##jének	3087
##ash	3088
##ojekt	3089
bot	3090
##our	3091
hétvég	3092
##áért	3093
tartó	3094
felmér	3095
legutó	3096
##ódó	3097
eddigi	3098
térség	3099
járt	3100
##úttal	3101
##gyek	3102
annyira	3103
##itás	3104
figyelem	3105
miklós	3106
tűnik	3107
##olcs	3108
esetén	3109
sajtót	3110
bőv	3111
##jen	3112
##cc	3113
##úgy	3114
##ekről	3115
megelő	3116
magyarországi	3117
kin	3118
##burg	3119
testület	3120
##bil	3121
##ama	3122
ítél	3123
##uttat	3124
ára	3125
##oy	3126
megerős	3127
végig	3128
munkav	3129
erősö	3130
##vári	3131
##kó	3132
katasztróf	3133
gen	3134
##lcs	3135
##sági	3136
##aba	3137
##ítették	3138
hird	3139
.:	3140
jap	3141
##fej	3142
csod	3143
évtized	3144
éjszak	3145
robb	3146
##óg	3147
forin	3148
jogszabály	3149
befoly	3150
fu	3151
##org	3152
alkalom	3153
jövőre	3154
##edt	3155
##ust	3156
tenni	3157
vad	3158
##ezz	3159
ész	3160
##di	3161
belső	3162
##osztály	3163
lit	3164
##lét	3165
##ásos	3166
embert	3167
dolgozó	3168
máj	3169
elb	3170
nyilvánosság	3171
hull	3172
méter	3173
##sen	3174
egyéni	3175
##ítva	3176
##onal	3177
kib	3178
központi	3179
##arad	3180
mal	3181
zaj	3182
szil	3183
##ellett	3184
harc	3185
##hetik	3186
szakmai	3187
információ	3188
##áború	3189
szal	3190
amennyi	3191
tudós	3192
budapesten	3193
##ünet	3194
ii	3195
##rak	3196
##atban	3197
név	3198
fotó	3199
projekt	3200
felügy	3201
##úzeum	3202
assz	3203
mobil	3204
##áltak	3205
egymás	3206
##janak	3207
szöv	3208
leh	3209
javaslat	3210
york	3211
televíz	3212
hangsúlyozta	3213
japán	3214
##lék	3215
visszav	3216
idéz	3217
hivatkoz	3218
##rid	3219
intézet	3220
módszer	3221
##ota	3222
idős	3223
##nökség	3224
##tunk	3225
elad	3226
jelenti	3227
általában	3228
konz	3229
negyedik	3230
##ándék	3231
##ry	3232
##vá	3233
szét	3234
osztrák	3235
börtön	3236
forinttal	3237
rak	3238
##enes	3239
egyedül	3240
kilométer	3241
##rész	3242
győr	3243
##berg	3244
egészségügyi	3245
érdemes	3246
megp	3247
egyáltal	3248
holland	3249
tra	3250
szex	3251
blog	3252
költségvetés	3253
##utas	3254
egyáltalán	3255
ajánl	3256
svájci	3257
lajos	3258
##ast	3259
mostani	3260
##vér	3261
szerződ	3262
környék	3263
##nos	3264
amelyben	3265
azonos	3266
kop	3267
frank	3268
felül	3269
ezeket	3270
gyurcs	3271
informáci	3272
emberi	3273
óv	3274
##nyiség	3275
változat	3276
beszám	3277
történelmi	3278
dí	3279
##ián	3280
mich	3281
meghal	3282
finanszír	3283
##ikat	3284
cégek	3285
ígér	3286
33	3287
munkahely	3288
kötelező	3289
##co	3290
##osok	3291
##ity	3292
forrás	3293
##ancs	3294
edző	3295
kijelent	3296
pontosan	3297
hosszabb	3298
nyilatkozta	3299
gyurcsány	3300
mat	3301
##álóz	3302
zen	3303
időben	3304
##polgár	3305
szocialista	3306
vág	3307
vette	3308
##állt	3309
köny	3310
szerb	3311
többség	3312
kovács	3313
soha	3314
##hatják	3315
szabó	3316
média	3317
újságíró	3318
rab	3319
##viz	3320
vagyunk	3321
népszerű	3322
tűzolt	3323
nyer	3324
interj	3325
győzt	3326
szigor	3327
húz	3328
##itel	3329
erd	3330
bevezet	3331
hatóságok	3332
agy	3333
tim	3334
##ázis	3335
##ox	3336
##ásai	3337
##olják	3338
település	3339
rad	3340
##óban	3341
##ezők	3342
36	3343
agg	3344
kont	3345
bizonyos	3346
részét	3347
török	3348
egészen	3349
80	3350
bíz	3351
ös	3352
##mód	3353
épp	3354
általános	3355
hírek	3356
kateg	3357
busz	3358
meggy	3359
##lám	3360
##eleti	3361
csinál	3362
real	3363
érintett	3364
őrizet	3365
500	3366
##hetett	3367
évre	3368
##állam	3369
debrec	3370
igyek	3371
mikor	3372
múzeum	3373
csomag	3374
##ípus	3375
szob	3376
civ	3377
##pár	3378
##ársa	3379
##nevezett	3380
pat	3381
piaci	3382
pil	3383
rang	3384
figyelmet	3385
rendezvény	3386
meleg	3387
május	3388
af	3389
##era	3390
bevétel	3391
##lenül	3392
prof	3393
hideg	3394
##kék	3395
szereplő	3396
tol	3397
minőség	3398
jóval	3399
folyó	3400
kísérlet	3401
mes	3402
op	3403
##fa	3404
államtitk	3405
döntő	3406
tervezett	3407
psz	3408
író	3409
##már	3410
##pia	3411
sérült	3412
szándék	3413
számító	3414
300	3415
elé	3416
sért	3417
lakás	3418
csatlak	3419
level	3420
igazi	3421
##ontosabb	3422
dolog	3423
legfontosabb	3424
ba	3425
ph	3426
bev	3427
jogi	3428
34	3429
##ítását	3430
felvétel	3431
nekik	3432
ri	3433
zárt	3434
park	3435
fenn	3436
##esül	3437
sikeres	3438
##erek	3439
lesznek	3440
##szabadság	3441
tavalyi	3442
##dsz	3443
tehet	3444
fest	3445
##áns	3446
##ozása	3447
##ötte	3448
prod	3449
pontos	3450
cig	3451
##fér	3452
##játék	3453
magasabb	3454
kemény	3455
legk	3456
szabadság	3457
kényszer	3458
civil	3459
maguk	3460
vir	3461
##ie	3462
##jog	3463
##világ	3464
szav	3465
tv	3466
gal	3467
lehetne	3468
menet	3469
##éért	3470
##óra	3471
tudják	3472
attól	3473
##ko	3474
##men	3475
##iplom	3476
stabil	3477
##dp	3478
##zési	3479
##ciós	3480
gyak	3481
mintha	3482
repül	3483
kulturális	3484
afr	3485
beszéd	3486
alakul	3487
társadalmi	3488
##áf	3489
##ítási	3490
kormányfő	3491
lmp	3492
éd	3493
egyház	3494
helyre	3495
igazán	3496
##ket	3497
##tan	3498
##óval	3499
friss	3500
fekete	3501
##néz	3502
##bev	3503
családi	3504
ot	3505
##rég	3506
megval	3507
##nőtt	3508
ítélet	3509
géz	3510
##ij	3511
jármű	3512
##esült	3513
reform	3514
található	3515
##rom	3516
##országi	3517
av	3518
bul	3519
kiss	3520
megvált	3521
társadalom	3522
téli	3523
olaj	3524
jövőben	3525
sajtótájékoztat	3526
hátt	3527
elkész	3528
feld	3529
##felé	3530
antik	3531
##tuk	3532
##edék	3533
##adta	3534
nappal	3535
kutatók	3536
tényleg	3537
##ke	3538
##bé	3539
kisz	3540
##igo	3541
##könyv	3542
részben	3543
##élés	3544
amíg	3545
tib	3546
vb	3547
hozott	3548
diák	3549
megvalós	3550
##szerep	3551
igazgatója	3552
70	3553
90	3554
##ood	3555
kab	3556
poszt	3557
##ozást	3558
találtak	3559
internetes	3560
érzék	3561
##őzsd	3562
visszatér	3563
##hatott	3564
kétszer	3565
fogja	3566
mennyiség	3567
hasonlóan	3568
gl	3569
hő	3570
joh	3571
##elleg	3572
érz	3573
##bíróság	3574
sztr	3575
##onn	3576
##inkább	3577
célja	3578
tisz	3579
##ítható	3580
készített	3581
##álisan	3582
megtal	3583
szenved	3584
infl	3585
##foglal	3586
##képpen	3587
fideszes	3588
##atég	3589
##okból	3590
szerda	3591
minős	3592
##alma	3593
##ásában	3594
mindez	3595
##döntő	3596
géza	3597
diplom	3598
##faj	3599
##ula	3600
##ciót	3601
kapcs	3602
úgynevezett	3603
##onz	3604
eredet	3605
##allgat	3606
jelentősen	3607
remény	3608
csaknem	3609
stat	3610
##if	3611
##fizet	3612
##ozók	3613
##ebben	3614
##ásnak	3615
##séggel	3616
adta	3617
átalak	3618
benz	3619
délelőtt	3620
színház	3621
ismeretlen	3622
áldoz	3623
róla	3624
reng	3625
tők	3626
##átum	3627
játszott	3628
feladat	3629
##úk	3630
##áris	3631
tartóz	3632
bő	3633
eb	3634
sajnos	3635
##áron	3636
##ákkal	3637
leginkább	3638
tudnak	3639
##ped	3640
##ttel	3641
##ítást	3642
hajnal	3643
mosz	3644
##attak	3645
pénztár	3646
negyedév	3647
vidék	3648
husz	3649
origo	3650
ölt	3651
napokban	3652
ennél	3653
frakció	3654
várak	3655
kötött	3656
##ilap	3657
legfel	3658
küld	3659
belől	3660
köztük	3661
segítségével	3662
##ekvő	3663
##vi	3664
előbb	3665
197	3666
##perc	3667
csillag	3668
bü	3669
hom	3670
vége	3671
nyugat	3672
várt	3673
##hatunk	3674
##ford	3675
eredeti	3676
kanad	3677
kul	3678
láb	3679
##ájának	3680
változtat	3681
felhív	3682
közlekedési	3683
kereskedelmi	3684
##nai	3685
többen	3686
harmin	3687
haza	3688
.-	3689
aug	3690
eny	3691
##indul	3692
olimpiai	3693
rák	3694
felsz	3695
vezérigazgató	3696
##ax	3697
##bc	3698
gyilk	3699
braz	3700
londoni	3701
00	3702
##kan	3703
##idő	3704
##pl	3705
labdarúgó	3706
37	3707
ko	3708
illeték	3709
jú	3710
elkezd	3711
működés	3712
életét	3713
sar	3714
##oldog	3715
értékesít	3716
##usztus	3717
##ővé	3718
ft	3719
##álja	3720
műszak	3721
lenni	3722
##oldali	3723
létrehoz	3724
állítólag	3725
##get	3726
##érte	3727
inter	3728
esetleg	3729
országgyűlés	3730
idegen	3731
duna	3732
##nyel	3733
##harmad	3734
papír	3735
köszönhetően	3736
##var	3737
##itív	3738
biztosít	3739
takar	3740
he	3741
mos	3742
minim	3743
##kezett	3744
önkormányzati	3745
energia	3746
löv	3747
##nius	3748
magyarok	3749
kollég	3750
##belül	3751
pest	3752
##nának	3753
##rab	3754
nekem	3755
férfiak	3756
szociális	3757
la	3758
##50	3759
júl	3760
net	3761
##nes	3762
szár	3763
##ilt	3764
felkész	3765
reag	3766
felk	3767
##artóz	3768
tagjai	3769
keretében	3770
országgyűlési	3771
munkatárs	3772
tit	3773
##kit	3774
akció	3775
körülbelül	3776
hátrány	3777
gyakran	3778
font	3779
felf	3780
felnőtt	3781
sérülés	3782
gyógyszer	3783
vereség	3784
##ana	3785
kölcs	3786
##szerző	3787
arc	3788
hírügy	3789
lop	3790
temp	3791
regény	3792
##zések	3793
munkan	3794
győzelem	3795
főleg	3796
vitt	3797
ügyvéd	3798
##kodó	3799
##ügyminiszter	3800
június	3801
hegy	3802
áram	3803
szol	3804
állampolgár	3805
##hang	3806
##ünket	3807
időt	3808
##ror	3809
##onttal	3810
jogos	3811
érdekes	3812
##várium	3813
megfelelően	3814
norm	3815
##esi	3816
köztárs	3817
forintra	3818
max	3819
úton	3820
gyorsan	3821
ep	3822
##elvény	3823
szű	3824
##házy	3825
havi	3826
rév	3827
zavar	3828
##olf	3829
tudjuk	3830
##ivat	3831
##odott	3832
büntető	3833
alkalommal	3834
sztráj	3835
gdp	3836
##üst	3837
##hi	3838
##si	3839
##ím	3840
ezúttal	3841
kezelés	3842
##oft	3843
büntet	3844
kd	3845
kuty	3846
elsz	3847
##abban	3848
##ris	3849
##jenek	3850
vizsg	3851
##ael	3852
##enként	3853
est	3854
gólt	3855
remek	3856
kiállítás	3857
feljelent	3858
##ölcs	3859
országok	3860
##atait	3861
##prém	3862
következt	3863
drág	3864
megkérd	3865
##gazdasági	3866
##ine	3867
nemrég	3868
##hatók	3869
állat	3870
választás	3871
rajta	3872
tiltak	3873
jellemző	3874
szöveg	3875
őrizetbe	3876
bors	3877
mor	3878
közz	3879
annyit	3880
sincs	3881
##úti	3882
hiába	3883
együttes	3884
go	3885
##jebb	3886
százalékát	3887
vállalat	3888
eltér	3889
amennyiben	3890
közön	3891
kommunik	3892
boldog	3893
láz	3894
##res	3895
megrend	3896
##őként	3897
##ektől	3898
jöved	3899
letartóz	3900
antikvárium	3901
tök	3902
emellett	3903
##takar	3904
összefügg	3905
védelm	3906
működik	3907
asszony	3908
bíró	3909
##ételt	3910
##csó	3911
kamat	3912
mértékben	3913
na	3914
típus	3915
íz	3916
##bank	3917
##forg	3918
portál	3919
emelkedett	3920
##ítik	3921
csaba	3922
biztosan	3923
ausztrál	3924
hány	3925
kedvező	3926
lemond	3927
kategóri	3928
jelleg	3929
ötö	3930
stratég	3931
kapcsán	3932
ruh	3933
kötet	3934
lőtt	3935
médiat	3936
harminc	3937
##ezése	3938
##ova	3939
szakszervezet	3940
hallgat	3941
édes	3942
fáj	3943
űr	3944
munkál	3945
munkát	3946
##jelölt	3947
##fokú	3948
##hagy	3949
##őknek	3950
egyesület	3951
kifizet	3952
alkotmánybíróság	3953
##krét	3954
egyszerűen	3955
##üv	3956
deviz	3957
lehetővé	3958
madrid	3959
futam	3960
##con	3961
kapitány	3962
sors	3963
házas	3964
emi	3965
javasl	3966
partner	3967
42	3968
##vesz	3969
##zést	3970
##edés	3971
##ítására	3972
győztes	3973
augusztus	3974
aszt	3975
##inc	3976
##énnyel	3977
##edes	3978
##ányi	3979
minél	3980
##hatóság	3981
továbbá	3982
politik	3983
veszprém	3984
##üntetés	3985
műszaki	3986
bu	3987
##dék	3988
##höz	3989
megjegy	3990
érte	3991
szinten	3992
érdeklőd	3993
pak	3994
pir	3995
megkezd	3996
##nyom	3997
választók	3998
##osszabb	3999
kezdett	4000
ló	4001
kapu	4002
nyugati	4003
adósság	4004
enyh	4005
del	4006
gu	4007
it	4008
##ákban	4009
##köt	4010
előtti	4011
##film	4012
##hass	4013
közgyű	4014
##abda	4015
másfél	4016
kormányzati	4017
ideje	4018
##enn	4019
##ereg	4020
##unkat	4021
védek	4022
if	4023
sokszor	4024
kevésbé	4025
pót	4026
##onc	4027
##árólag	4028
ideig	4029
tem	4030
##kos	4031
##atott	4032
alapvet	4033
egymást	4034
oper	4035
##oznak	4036
##adók	4037
néző	4038
időjár	4039
résztv	4040
károly	4041
múlva	4042
nyilvánosságra	4043
##io	4044
##áján	4045
hatékony	4046
tartják	4047
lehetőséget	4048
erőszak	4049
emiatt	4050
sk	4051
szellem	4052
##ini	4053
látvány	4054
címkék	4055
gyerekek	4056
magam	4057
méret	4058
ge	4059
##való	4060
196	4061
járó	4062
mél	4063
kizárólag	4064
sár	4065
##íték	4066
##odik	4067
mentő	4068
leveg	4069
"-	4070
38	4071
of	4072
prób	4073
##iós	4074
##okról	4075
##eivel	4076
##óth	4077
puszt	4078
élt	4079
##sp	4080
ajándék	4081
pozitív	4082
bűncselekmény	4083
##ainak	4084
##vizsgál	4085
##aszkod	4086
megyében	4087
##ológia	4088
imre	4089
gyanú	4090
000	4091
fl	4092
mire	4093
tudományos	4094
eredmények	4095
pályán	4096
kutató	4097
helyet	4098
ev	4099
megfi	4100
##egyen	4101
körében	4102
konkrét	4103
befolyás	4104
tibor	4105
##közel	4106
kezdet	4107
óriási	4108
államtitkár	4109
dav	4110
hord	4111
isz	4112
km	4113
##ílus	4114
##ényi	4115
ritk	4116
##pad	4117
okozott	4118
portug	4119
növekedés	4120
##ook	4121
##jú	4122
lehetséges	4123
világh	4124
barcel	4125
módosítás	4126
kínál	4127
gra	4128
##ásba	4129
##niuk	4130
rendező	4131
##ológus	4132
##mérsék	4133
levél	4134
venni	4135
##junk	4136
##árul	4137
vall	4138
napja	4139
könnyű	4140
szenvedett	4141
munkavállal	4142
pa	4143
##jén	4144
pszich	4145
##uzs	4146
szé	4147
akkori	4148
július	4149
szdsz	4150
nagyjából	4151
lakó	4152
szerdai	4153
hírügynökség	4154
##tér	4155
ezután	4156
száml	4157
##ásait	4158
ügyészség	4159
balázs	4160
##védő	4161
##magas	4162
rádió	4163
##np	4164
##sh	4165
##ébb	4166
európában	4167
közösségi	4168
portugál	4169
col	4170
ur	4171
indított	4172
szerepelt	4173
mérsék	4174
keddi	4175
ellentét	4176
##ukt	4177
ingy	4178
##irat	4179
bajnoki	4180
akadály	4181
kocs	4182
ét	4183
forma	4184
kerék	4185
ötlet	4186
##essen	4187
szakértők	4188
##mérséklet	4189
##iak	4190
##nák	4191
##ezést	4192
mindegy	4193
nyílt	4194
repülőt	4195
dom	4196
lov	4197
##öny	4198
##széd	4199
##erem	4200
##ara	4201
évente	4202
összeh	4203
eur	4204
fül	4205
mart	4206
##öd	4207
egyben	4208
##csökk	4209
##ókkal	4210
ellenfel	4211
##élyes	4212
##ációt	4213
körüli	4214
rajt	4215
##sák	4216
##ezmény	4217
##szerint	4218
##esztő	4219
elkövetett	4220
##nénk	4221
##vé	4222
##öket	4223
eurót	4224
194	4225
##közben	4226
tavasz	4227
##ered	4228
leb	4229
tartani	4230
##kodás	4231
centim	4232
tóth	4233
napilap	4234
##ásokkal	4235
önmag	4236
##ecsk	4237
korrup	4238
statiszt	4239
sm	4240
spe	4241
balaton	4242
##nyugdíj	4243
ger	4244
miskol	4245
látszik	4246
komment	4247
körülmények	4248
55	4249
változás	4250
lépett	4251
végrehajt	4252
41	4253
vették	4254
##elnek	4255
##ita	4256
hozzáj	4257
vaj	4258
##ekből	4259
tartozik	4260
derül	4261
hálóz	4262
##állás	4263
déli	4264
kötelezett	4265
ellenzéki	4266
##jait	4267
##ölgy	4268
szerepl	4269
művész	4270
##munk	4271
##qu	4272
##atai	4273
köv	4274
hatály	4275
vezetett	4276
fegyver	4277
##esett	4278
##ezhető	4279
hasonl	4280
botrány	4281
##fejleszt	4282
##gond	4283
##öp	4284
##ázott	4285
közelében	4286
##igazgat	4287
ütköz	4288
révén	4289
tökélet	4290
juttat	4291
me	4292
norv	4293
##apcsol	4294
##elmiszer	4295
másodperc	4296
terjed	4297
szomszéd	4298
afg	4299
rengeteg	4300
rich	4301
##autó	4302
##fal	4303
##ónak	4304
##ttől	4305
évig	4306
##onyol	4307
valóság	4308
semmit	4309
működő	4310
kérte	4311
##biztonság	4312
kulcs	4313
ve	4314
##kutat	4315
amelyeket	4316
ugyancsak	4317
nevezte	4318
szerepet	4319
kiváló	4320
eljárást	4321
norvég	4322
hv	4323
##óján	4324
##aradt	4325
felm	4326
számol	4327
##eiben	4328
tartozó	4329
angel	4330
2005	4331
195	4332
versenyző	4333
keleti	4334
wash	4335
szup	4336
##amos	4337
##eztetett	4338
élelmiszer	4339
percben	4340
reklám	4341
kur	4342
kerület	4343
##kinek	4344
##20	4345
támogatás	4346
népszabadság	4347
szövetségi	4348
ren	4349
##edzs	4350
pontot	4351
ötven	4352
adatai	4353
koreai	4354
##azin	4355
százalékot	4356
hozta	4357
##ektor	4358
munkanélkül	4359
mak	4360
##chester	4361
majdnem	4362
gazdag	4363
oka	4364
lassan	4365
sa	4366
benn	4367
járul	4368
alkalmas	4369
keresztény	4370
rögz	4371
izraeli	4372
400	4373
fc	4374
valós	4375
városi	4376
rekord	4377
kdnp	4378
goog	4379
##ódi	4380
vezetői	4381
washing	4382
44	4383
ju	4384
tar	4385
##ovics	4386
hajland	4387
képviselők	4388
kerületi	4389
gyanúsított	4390
##elése	4391
##atta	4392
külső	4393
támadás	4394
##ismert	4395
nyerte	4396
##polgármester	4397
elektron	4398
39	4399
##iket	4400
##ozási	4401
##enti	4402
oldalon	4403
területén	4404
hamarosan	4405
dun	4406
ere	4407
katal	4408
esti	4409
teremt	4410
hatás	4411
mutatja	4412
kiderül	4413
tájékoztatása	4414
horváth	4415
fac	4416
##dor	4417
##bi	4418
##bor	4419
olcsó	4420
##enged	4421
##aránt	4422
számolt	4423
##ásokra	4424
valamennyi	4425
alakult	4426
elemző	4427
hvg	4428
rejt	4429
##ác	4430
##ania	4431
egyaránt	4432
##sszel	4433
kriszt	4434
autós	4435
probléma	4436
könnyen	4437
szerződést	4438
eleg	4439
állandó	4440
##ukor	4441
mih	4442
oroszország	4443
hagyomány	4444
szakemberek	4445
tevékenység	4446
rag	4447
som	4448
##úd	4449
szur	4450
##ons	4451
##okba	4452
megem	4453
##eiről	4454
tartomány	4455
##órum	4456
átlagos	4457
kórházba	4458
manchester	4459
használt	4460
belőle	4461
kölcsön	4462
google	4463
ukr	4464
##vei	4465
##ésekkel	4466
hangulat	4467
hivatkozva	4468
##ukció	4469
januárban	4470
hamis	4471
sérül	4472
világbajnokság	4473
helyszínen	4474
##ala	4475
terror	4476
alapítvány	4477
történő	4478
pártok	4479
nélküli	4480
dollárt	4481
szélső	4482
vezette	4483
john	4484
fesz	4485
##őző	4486
##akad	4487
##kező	4488
öröm	4489
üzleti	4490
remél	4491
árt	4492
##zár	4493
##arc	4494
##hatjuk	4495
szórak	4496
izg	4497
ukrán	4498
##kocsi	4499
##ítanak	4500
##amp	4501
##ird	4502
kiemelt	4503
egyértelműen	4504
káros	4505
kocsi	4506
ősz	4507
##zás	4508
##álás	4509
megint	4510
##uth	4511
##napi	4512
##ábl	4513
veszteség	4514
mát	4515
messz	4516
##járt	4517
inn	4518
kétharmad	4519
stílus	4520
szeretnék	4521
repülő	4522
pénteki	4523
43	4524
der	4525
tól	4526
##elyik	4527
állítja	4528
kaptak	4529
##ley	4530
negyven	4531
egymilli	4532
magánnyugdíj	4533
közleményében	4534
katonai	4535
tü	4536
eső	4537
kapta	4538
kapus	4539
fognak	4540
párizs	4541
lelk	4542
##adja	4543
védő	4544
örül	4545
lend	4546
##encia	4547
##elly	4548
fejlőd	4549
hétfői	4550
gener	4551
##ítést	4552
lef	4553
hatalom	4554
százalékra	4555
szabolcs	4556
apró	4557
koncent	4558
híd	4559
varga	4560
48	4561
fórum	4562
táp	4563
ilyenkor	4564
véletlen	4565
klassz	4566
díjat	4567
áldozat	4568
megpróbál	4569
##ődés	4570
##akban	4571
##énél	4572
##külön	4573
tervek	4574
csütörtöki	4575
##ferenci	4576
sztrájk	4577
##besz	4578
felfügg	4579
beny	4580
befej	4581
elvég	4582
megkap	4583
merc	4584
időszakban	4585
##eim	4586
elnökség	4587
zsid	4588
elérhető	4589
utána	4590
2002	4591
autom	4592
televízió	4593
mc	4594
tűnt	4595
2004	4596
azoknak	4597
szóvivő	4598
birt	4599
##tem	4600
##verseny	4601
ügyfel	4602
sikerül	4603
akarja	4604
##ötét	4605
menek	4606
##áshoz	4607
ezr	4608
énekes	4609
robban	4610
vok	4611
##lehet	4612
pályára	4613
gyakorlatilag	4614
##keresked	4615
következtében	4616
##ettem	4617
##nyt	4618
nyáron	4619
autót	4620
bur	4621
##fogy	4622
##hol	4623
magukat	4624
ugyanaz	4625
ügyében	4626
dolgozott	4627
felfüggeszt	4628
din	4629
far	4630
##ein	4631
különleges	4632
mennyire	4633
betegség	4634
cigány	4635
speci	4636
##etek	4637
##egr	4638
##tatott	4639
mennyi	4640
személyes	4641
plusz	4642
legutóbbi	4643
felfed	4644
ötödik	4645
havaz	4646
por	4647
##cser	4648
szerintem	4649
##ültek	4650
##vezetője	4651
anyagi	4652
karácsonyi	4653
75	4654
hung	4655
kos	4656
sop	4657
átt	4658
roma	4659
##milliárd	4660
tőle	4661
##lány	4662
elismer	4663
alkalmazott	4664
atom	4665
felelősség	4666
üzemelt	4667
liber	4668
elkerül	4669
együttműködés	4670
bél	4671
gum	4672
hum	4673
lista	4674
felúj	4675
indítvány	4676
fellép	4677
san	4678
előfordul	4679
művel	4680
karri	4681
hagyományos	4682
legyőz	4683
helyettes	4684
##politikai	4685
együttműköd	4686
számítógép	4687
vettek	4688
##etet	4689
többsége	4690
autópály	4691
említett	4692
michael	4693
sal	4694
##jék	4695
##part	4696
##ozzák	4697
forgat	4698
46	4699
rám	4700
##ach	4701
##vél	4702
##ezési	4703
magazin	4704
csapata	4705
meghalt	4706
szegény	4707
teg	4708
tőzsd	4709
##jében	4710
##elést	4711
##álkoz	4712
alelnök	4713
valah	4714
számában	4715
összet	4716
politika	4717
fizetni	4718
északi	4719
kettős	4720
ipar	4721
obama	4722
szigorú	4723
49	4724
agr	4725
máv	4726
neg	4727
##jével	4728
sztár	4729
##gyűjt	4730
hőmérséklet	4731
sújt	4732
##egész	4733
##hetünk	4734
évet	4735
##eje	4736
részén	4737
2012	4738
aktív	4739
szempontból	4740
##zió	4741
kellem	4742
irán	4743
andre	4744
hajd	4745
##hal	4746
##ile	4747
mások	4748
2000	4749
olvasó	4750
kutatás	4751
##lődés	4752
fenyeg	4753
kelt	4754
viz	4755
üv	4756
##ítások	4757
benzin	4758
cik	4759
fert	4760
mut	4761
vonal	4762
kérdésre	4763
jót	4764
riv	4765
kora	4766
készít	4767
##ipari	4768
véli	4769
okozta	4770
igazgatóság	4771
sebesség	4772
észre	4773
brazil	4774
maxim	4775
kg	4776
tábor	4777
##ezetten	4778
fejlesztési	4779
rajong	4780
##ciók	4781
honlapján	4782
##ital	4783
kip	4784
##amb	4785
mellé	4786
valójában	4787
neve	4788
üzenet	4789
##történ	4790
számú	4791
##vélemény	4792
city	4793
mand	4794
rob	4795
##car	4796
##átus	4797
tartanak	4798
##földi	4799
öreg	4800
szocialisták	4801
káb	4802
pk	4803
sug	4804
##nár	4805
##óm	4806
jelezte	4807
56	4808
bab	4809
##cion	4810
főszerep	4811
mark	4812
##fogás	4813
játszik	4814
irodalom	4815
demokráci	4816
##ügyminisztérium	4817
álláspont	4818
szén	4819
##eksz	4820
##opp	4821
törvényt	4822
##orvos	4823
széles	4824
faceb	4825
bőr	4826
red	4827
ud	4828
##szeg	4829
szünet	4830
##oztak	4831
dolgozik	4832
rendelkező	4833
##csapat	4834
töltött	4835
unit	4836
kijelentette	4837
voks	4838
közeli	4839
adóz	4840
##onyi	4841
legfeljebb	4842
##csökkent	4843
##ikában	4844
megegy	4845
németország	4846
rendkívüli	4847
##eink	4848
##áit	4849
##ásról	4850
##ítését	4851
mondott	4852
bizonytalan	4853
##ukra	4854
fogják	4855
jelentés	4856
ennyi	4857
##ivál	4858
kerültek	4859
régió	4860
##mer	4861
##po	4862
megtakar	4863
##szerk	4864
mondani	4865
mellék	4866
##ebek	4867
brü	4868
kilát	4869
debrecen	4870
ázs	4871
alsó	4872
##szerv	4873
támogatást	4874
befizet	4875
forrad	4876
szűk	4877
negatív	4878
bán	4879
##értek	4880
annál	4881
##ofőr	4882
birtok	4883
sötét	4884
##üsz	4885
megalap	4886
##ogr	4887
előkész	4888
adni	4889
tudomány	4890
véget	4891
##városi	4892
velük	4893
önként	4894
képviselői	4895
##bizottság	4896
pécs	4897
hétvégén	4898
mihály	4899
üd	4900
##adott	4901
közbe	4902
időpont	4903
házi	4904
szolgáltatás	4905
bejelentette	4906
##váltás	4907
65	4908
ste	4909
##enő	4910
##sztön	4911
államfő	4912
nyomán	4913
abból	4914
##órium	4915
kezdődött	4916
közepén	4917
##bevétel	4918
ac	4919
bay	4920
nat	4921
om	4922
sáv	4923
idők	4924
utáni	4925
fiú	4926
helyzetben	4927
alacsonyabb	4928
huszon	4929
jos	4930
roh	4931
web	4932
##méter	4933
##ázó	4934
látja	4935
érkező	4936
51	4937
52	4938
hev	4939
lek	4940
mt	4941
##atra	4942
belvíz	4943
kezdte	4944
nyugdíjpénztár	4945
mindkett	4946
nálunk	4947
47	4948
páros	4949
##ítél	4950
végéig	4951
##írás	4952
pro	4953
gyakorl	4954
rosszul	4955
fölött	4956
előrejel	4957
származó	4958
közönség	4959
közgyűlés	4960
faj	4961
##lev	4962
fele	4963
állította	4964
nagykövet	4965
összek	4966
szeretne	4967
kivétel	4968
kettő	4969
robert	4970
ettől	4971
gab	4972
gerg	4973
##han	4974
##újabb	4975
##elég	4976
##alkot	4977
##ikát	4978
##irod	4979
##ítettek	4980
megtart	4981
területen	4982
fokozat	4983
iroda	4984
kultúr	4985
munkatársa	4986
53	4987
##urt	4988
##aival	4989
legújabb	4990
előz	4991
döntetlen	4992
##járól	4993
akiknek	4994
létszám	4995
halálos	4996
ly	4997
##választ	4998
##atórium	4999
##éket	5000
ily	5001
##ődött	5002
iskola	5003
mesterházy	5004
figyelembe	5005
pol	5006
##ho	5007
##szí	5008
##anci	5009
megsér	5010
##intézet	5011
##központ	5012
nekünk	5013
##ence	5014
semmilyen	5015
vasárnapi	5016
interjú	5017
ifjú	5018
hold	5019
vers	5020
wik	5021
##szol	5022
##ekhez	5023
##olikus	5024
éven	5025
##állom	5026
##szerűen	5027
regiszt	5028
##ítésére	5029
ismerős	5030
értelmében	5031
cr	5032
tom	5033
##seg	5034
##--	5035
##olaj	5036
tudták	5037
rendőrk	5038
##ársaság	5039
viszonylag	5040
kibocsát	5041
médiatörvény	5042
elkö	5043
aminek	5044
viselked	5045
megtud	5046
elemzők	5047
halad	5048
látsz	5049
szívesen	5050
dzs	5051
##üm	5052
##ellenes	5053
mérleg	5054
körülmény	5055
##örtén	5056
united	5057
cip	5058
heti	5059
rát	5060
tél	5061
ural	5062
##mán	5063
##alog	5064
##áng	5065
##ozások	5066
dolláros	5067
drog	5068
szervezetek	5069
glob	5070
bolt	5071
derült	5072
tw	5073
##elési	5074
##ore	5075
megúj	5076
##csal	5077
kiegész	5078
##őlt	5079
kapnak	5080
##kodik	5081
menedzs	5082
szeretné	5083
hónapban	5084
britan	5085
fordult	5086
kifejezetten	5087
fagy	5088
kecsk	5089
megfog	5090
##ságát	5091
válik	5092
##éseit	5093
járulék	5094
bázis	5095
bbc	5096
háború	5097
##éti	5098
##észek	5099
##elmes	5100
visszaes	5101
melyik	5102
különbség	5103
hús	5104
páp	5105
amúgy	5106
követő	5107
miként	5108
bizonyíték	5109
isten	5110
elvesz	5111
pozíció	5112
háttér	5113
##ellyel	5114
kn	5115
##adós	5116
történik	5117
rendszert	5118
nincsenek	5119
közösség	5120
szabályozás	5121
vádlott	5122
alkoh	5123
otp	5124
ült	5125
##vid	5126
mégsem	5127
##essége	5128
##esszor	5129
decemberben	5130
autók	5131
vita	5132
valamit	5133
esetleges	5134
##helyi	5135
tagállam	5136
##off	5137
##esse	5138
kedves	5139
legalábbis	5140
bajnai	5141
nehezen	5142
gárd	5143
étel	5144
megnyit	5145
rendelet	5146
államokban	5147
személyi	5148
fiatalok	5149
koncert	5150
##szky	5151
trag	5152
times	5153
lux	5154
##ii	5155
##akon	5156
pálya	5157
melyek	5158
polgár	5159
elérni	5160
közvetlen	5161
békés	5162
pécsi	5163
dal	5164
dáv	5165
##ya	5166
##gyilk	5167
##akkal	5168
##hetjük	5169
legfő	5170
végére	5171
alatti	5172
közösen	5173
felmérés	5174
legfőbb	5175
bé	5176
##adi	5177
állnak	5178
körzet	5179
hivatalosan	5180
természetes	5181
közzét	5182
piros	5183
dig	5184
##nunk	5185
##ásáról	5186
##olyg	5187
kétség	5188
##irány	5189
ferr	5190
dísz	5191
gyilkosság	5192
tri	5193
vágy	5194
ösztön	5195
##del	5196
##vásár	5197
megért	5198
belép	5199
##eztem	5200
tanácsadó	5201
##bl	5202
szán	5203
jelöl	5204
legmagas	5205
tran	5206
környezetvédelmi	5207
lezár	5208
bak	5209
hős	5210
kő	5211
pi	5212
##ezve	5213
gyula	5214
##almát	5215
mostan	5216
határozott	5217
imf	5218
ipari	5219
fegyv	5220
dávid	5221
nél	5222
azután	5223
kiáll	5224
##agóg	5225
##erületi	5226
segély	5227
nyilatkozott	5228
szegedi	5229
##szövet	5230
##ozták	5231
##issz	5232
csúsz	5233
érdeklődés	5234
négyzet	5235
finom	5236
szempontjából	5237
bes	5238
od	5239
##zon	5240
##pót	5241
embereket	5242
konf	5243
rendszeresen	5244
##ublik	5245
##gazdaság	5246
szerkezet	5247
57	5248
sos	5249
##ovic	5250
főpolgármester	5251
élmény	5252
lépés	5253
győzelm	5254
későbbi	5255
közbeszer	5256
##pap	5257
##ht	5258
elutas	5259
##intéz	5260
felszám	5261
##ősen	5262
##ivár	5263
foglalkozó	5264
moszkv	5265
##fk	5266
##atart	5267
megr	5268
gyár	5269
##szerte	5270
arg	5271
voltam	5272
szólt	5273
mont	5274
##jába	5275
##ins	5276
elől	5277
##ázni	5278
150	5279
kiterj	5280
megoldás	5281
verzió	5282
##les	5283
##lása	5284
##emet	5285
##udi	5286
##eire	5287
néha	5288
szállod	5289
települ	5290
mercedes	5291
da	5292
futó	5293
sc	5294
##ném	5295
##par	5296
szoft	5297
##ezs	5298
meglehet	5299
előadás	5300
rec	5301
berend	5302
polgári	5303
összeget	5304
legmagasabb	5305
los	5306
adót	5307
hatvan	5308
amelyen	5309
iránt	5310
támadó	5311
erősen	5312
képviselője	5313
záró	5314
főként	5315
##mann	5316
opt	5317
szolnok	5318
ib	5319
vám	5320
##jött	5321
##onstr	5322
##asi	5323
##ella	5324
átv	5325
##ipar	5326
##program	5327
segítséget	5328
veszélyes	5329
energi	5330
feldolg	5331
furcs	5332
felb	5333
legend	5334
csapatok	5335
órakor	5336
antal	5337
torn	5338
nyitott	5339
kanadai	5340
54	5341
für	5342
sofőr	5343
##aik	5344
miszerint	5345
valódi	5346
##elemben	5347
oldalán	5348
egymással	5349
konzerv	5350
afrikai	5351
levegő	5352
##fehér	5353
##gyárt	5354
##olvas	5355
##érm	5356
telek	5357
részvétel	5358
rendelkezik	5359
modern	5360
david	5361
benyújt	5362
##kóz	5363
##erd	5364
##otor	5365
##isztán	5366
ponton	5367
##kodott	5368
megye	5369
##exik	5370
nyomozás	5371
határozat	5372
immár	5373
véleménye	5374
kert	5375
lu	5376
##reng	5377
##jet	5378
##ítési	5379
ing	5380
tartós	5381
valamilyen	5382
drám	5383
merény	5384
demokratikus	5385
rivális	5386
##két	5387
##szki	5388
megér	5389
kiadás	5390
látott	5391
városban	5392
dolgozók	5393
videó	5394
##eredmény	5395
hé	5396
jam	5397
usa	5398
szim	5399
tudtak	5400
látni	5401
népsz	5402
##fajta	5403
felszól	5404
bál	5405
doh	5406
tej	5407
uk	5408
##olnak	5409
elhely	5410
egyebek	5411
##ektív	5412
fejlődés	5413
egyetért	5414
közleményben	5415
eszközök	5416
##rajz	5417
ponttal	5418
sír	5419
ős	5420
hitt	5421
##esztivál	5422
közlekedés	5423
találták	5424
érvényes	5425
méltó	5426
hor	5427
ád	5428
##ekszik	5429
##aks	5430
##emű	5431
csőd	5432
élv	5433
##helyzet	5434
tisztelet	5435
piacon	5436
koncep	5437
mezőny	5438
legutóbb	5439
kém	5440
##ous	5441
megd	5442
##ová	5443
kisk	5444
kína	5445
születés	5446
kecskem	5447
fark	5448
##her	5449
##aték	5450
##okk	5451
##éppen	5452
hiba	5453
várja	5454
oktatási	5455
mutatott	5456
meccsen	5457
formában	5458
orvosi	5459
templom	5460
fa	5461
##lást	5462
szov	5463
##eknél	5464
##éséhez	5465
##csk	5466
##ákon	5467
nyereség	5468
adja	5469
fővárosban	5470
novemberben	5471
erdély	5472
argent	5473
##ank	5474
##ami	5475
korszak	5476
##őkkel	5477
##övezet	5478
vasas	5479
következmény	5480
helyzetet	5481
kivitel	5482
elhu	5483
##ucat	5484
ellenőrzés	5485
nyújtott	5486
róbert	5487
meglepő	5488
filmet	5489
##pedig	5490
hajlandó	5491
58	5492
fia	5493
katt	5494
##cou	5495
##szék	5496
##emben	5497
##ezések	5498
##adni	5499
csep	5500
##rag	5501
##asztó	5502
tekintet	5503
fogadta	5504
asztal	5505
vajon	5506
##igazgatási	5507
cel	5508
##tus	5509
##tön	5510
##sereg	5511
##bban	5512
adtak	5513
veszi	5514
berlin	5515
utcai	5516
rögtön	5517
büszk	5518
liberális	5519
gát	5520
log	5521
csend	5522
idény	5523
értesít	5524
sikert	5525
##ica	5526
érintő	5527
üzemanyag	5528
barcelona	5529
disz	5530
fék	5531
mexik	5532
étt	5533
##októl	5534
közvélemény	5535
vicc	5536
nyolcad	5537
panasz	5538
szerkeszt	5539
eredetileg	5540
rt	5541
rét	5542
ágy	5543
##ille	5544
utat	5545
némi	5546
kapusok	5547
szabályok	5548
##asszal	5549
tájékoztatta	5550
üveg	5551
megnéz	5552
##adal	5553
##iszony	5554
##atlanul	5555
ismeret	5556
nyilvántart	5557
átlagosan	5558
kezdődik	5559
##zat	5560
elvár	5561
elveszt	5562
tárca	5563
jóvá	5564
meghív	5565
kézil	5566
bull	5567
kék	5568
pih	5569
##tlen	5570
##nel	5571
##ura	5572
ügyfél	5573
nyugdíjas	5574
földreng	5575
problémák	5576
kabin	5577
afgan	5578
bm	5579
nőt	5580
sejt	5581
tot	5582
top	5583
##reg	5584
##bar	5585
szánt	5586
##olva	5587
##arnok	5588
##éria	5589
gyalog	5590
vancou	5591
##kezelő	5592
mondjuk	5593
##ezettek	5594
kissé	5595
washington	5596
hűt	5597
##lók	5598
##ésnek	5599
##sztikus	5600
##építés	5601
##avéd	5602
##ükben	5603
küldött	5604
amivel	5605
csapadék	5606
bronz	5607
##piac	5608
%-	5609
##niük	5610
kormánypárt	5611
egészséges	5612
##ipp	5613
##szerűbb	5614
egyszerre	5615
##biztosítás	5616
jö	5617
vl	5618
##elep	5619
elind	5620
##ary	5621
tartalék	5622
változott	5623
komp	5624
akarta	5625
induló	5626
esélye	5627
wikile	5628
úr	5629
##gáz	5630
##inél	5631
##csomag	5632
alul	5633
##evők	5634
előír	5635
számítani	5636
képesek	5637
kidolg	5638
teszik	5639
adatokat	5640
éjjel	5641
fűt	5642
vív	5643
beszer	5644
##usi	5645
eurós	5646
##háztart	5647
összecsap	5648
források	5649
székes	5650
64	5651
áp	5652
##kam	5653
##jak	5654
##pest	5655
felte	5656
helyszí	5657
összev	5658
képesség	5659
##ünkre	5660
sokáig	5661
gazdál	5662
##ítója	5663
álm	5664
elfogadott	5665
meglepetés	5666
kupa	5667
hullám	5668
vancouver	5669
tettek	5670
##ros	5671
##bér	5672
##ászt	5673
##hy	5674
##iti	5675
##ekedett	5676
hazánk	5677
kamer	5678
közülük	5679
testvér	5680
októberben	5681
szakértő	5682
akadém	5683
kinev	5684
környékén	5685
típusú	5686
cap	5687
dup	5688
je	5689
tétel	5690
hatására	5691
ellene	5692
igazol	5693
tanár	5694
##ésekre	5695
erősödött	5696
##nánk	5697
##ítan	5698
##eszél	5699
árul	5700
##ántúl	5701
melynek	5702
elhagy	5703
illetékes	5704
tegnap	5705
fű	5706
hárm	5707
##ené	5708
##étert	5709
lep	5710
rendezett	5711
mindenképpen	5712
euróövezet	5713
élete	5714
parancs	5715
példa	5716
katolikus	5717
szolgálat	5718
szombati	5719
tápl	5720
mandátum	5721
bonyol	5722
##ano	5723
közszolgál	5724
néven	5725
tervezet	5726
jelentőség	5727
körben	5728
döntést	5729
akiket	5730
##ológi	5731
air	5732
bűnt	5733
hekt	5734
##fl	5735
##alép	5736
##one	5737
##ori	5738
##étlenül	5739
állom	5740
nevét	5741
##játsz	5742
##képp	5743
bankok	5744
kifejt	5745
honvéd	5746
aj	5747
funk	5748
hot	5749
jack	5750
##dem	5751
ezüst	5752
##egyű	5753
ensz	5754
vihar	5755
főügy	5756
vezetés	5757
amire	5758
távon	5759
kihív	5760
vállalkozások	5761
hadsereg	5762
mérkőzésen	5763
szuper	5764
elektronikus	5765
regisztr	5766
wikileaks	5767
##akar	5768
##inős	5769
nyar	5770
##hatta	5771
nyomozó	5772
hátsó	5773
melyet	5774
kérdést	5775
titkos	5776
felesége	5777
információk	5778
angeles	5779
konflik	5780
szovjet	5781
küsz	5782
ront	5783
##etni	5784
szülő	5785
felvet	5786
##ádi	5787
stad	5788
folytatott	5789
tilt	5790
művészet	5791
aránya	5792
állapotban	5793
feletti	5794
jellegű	5795
ag	5796
bo	5797
##nünk	5798
##rtelen	5799
napján	5800
államháztart	5801
##napos	5802
##iver	5803
milliárdos	5804
légi	5805
aktiv	5806
szexuális	5807
köztársasági	5808
bok	5809
##étlen	5810
193	5811
biztosító	5812
folyamatos	5813
villamos	5814
béla	5815
elhunyt	5816
##elve	5817
##orna	5818
##ttest	5819
2003	5820
##atokkal	5821
intézmények	5822
gondolom	5823
rajz	5824
februárban	5825
próbálkoz	5826
london	5827
elektrom	5828
időjárás	5829
centiméter	5830
meglehetősen	5831
bez	5832
##löv	5833
megőr	5834
kies	5835
##uss	5836
old	5837
helyezett	5838
számított	5839
másrészt	5840
támogatja	5841
szüksége	5842
csatár	5843
megelőz	5844
tisza	5845
klasszikus	5846
fertőz	5847
59	5848
has	5849
nic	5850
tették	5851
##ns	5852
száj	5853
##azon	5854
részéről	5855
##eiket	5856
##onald	5857
felügyelet	5858
sajtótájékoztatón	5859
vétel	5860
##de	5861
##busz	5862
szed	5863
##korú	5864
##almak	5865
kislány	5866
##helyen	5867
személyiség	5868
téren	5869
teher	5870
##szóviv	5871
iv	5872
ros	5873
tab	5874
##sch	5875
felszer	5876
nyak	5877
tartottak	5878
##őrök	5879
milliós	5880
államadós	5881
illeg	5882
választó	5883
akarnak	5884
foglalkoztat	5885
falu	5886
függetlenül	5887
molnár	5888
liter	5889
munkatársai	5890
somogy	5891
600	5892
lél	5893
##out	5894
##ily	5895
beval	5896
##eztetés	5897
nyilvánvaló	5898
befektetők	5899
borsod	5900
]-	5901
bokr	5902
pok	5903
sür	5904
##eor	5905
##szal	5906
##gyal	5907
töm	5908
mondták	5909
csatorn	5910
kultúra	5911
vállalkozás	5912
metró	5913
##onnan	5914
mindegyik	5915
dv	5916
fak	5917
hez	5918
hül	5919
hab	5920
tegy	5921
##kat	5922
##enko	5923
##emelés	5924
indiai	5925
folyik	5926
amiért	5927
közlése	5928
bajnokok	5929
ajt	5930
mk	5931
##ezr	5932
##ellát	5933
leggy	5934
##ájára	5935
mindenkinek	5936
ügyész	5937
árp	5938
##járat	5939
történelem	5940
árfolyama	5941
messze	5942
rendőrkapitányság	5943
tájék	5944
##kai	5945
##tom	5946
##uel	5947
nyári	5948
lehetnek	5949
németh	5950
franciaország	5951
görögország	5952
ülésén	5953
szoftver	5954
konzervatív	5955
ádám	5956
kattint	5957
fekvő	5958
onn	5959
tánc	5960
tüntet	5961
ábr	5962
##uni	5963
szat	5964
##okhoz	5965
megismer	5966
megakad	5967
megerősítette	5968
85	5969
fan	5970
willi	5971
##ky	5972
alv	5973
beav	5974
##udomány	5975
prem	5976
világos	5977
kerek	5978
##özött	5979
érkezik	5980
utca	5981
kiemelked	5982
tévé	5983
visszavon	5984
radik	5985
##tatták	5986
##seb	5987
##erny	5988
megközel	5989
##aján	5990
amint	5991
legsz	5992
##asztás	5993
hirtelen	5994
értek	5995
időre	5996
blikk	5997
beszélg	5998
250	5999
jelöltje	6000
hajnalban	6001
munkanélküliség	6002
tucat	6003
zuh	6004
##ezked	6005
tartotta	6006
##ástól	6007
megvan	6008
kedvenc	6009
hete	6010
kiemelte	6011
liga	6012
megállapodás	6013
mün	6014
##osi	6015
alól	6016
legr	6017
kerest	6018
##helyett	6019
sportág	6020
gondolkod	6021
ablak	6022
##sea	6023
világbajnoki	6024
kialakult	6025
meghatározó	6026
javaslatot	6027
dohány	6028
vír	6029
##ria	6030
##que	6031
##esed	6032
##aiban	6033
##eve	6034
##ükr	6035
##ává	6036
értékű	6037
hajlék	6038
chel	6039
szervező	6040
fénykép	6041
ágaz	6042
befektetési	6043
vadász	6044
havazás	6045
megsérült	6046
dik	6047
laz	6048
pad	6049
si	6050
##bo	6051
##hív	6052
##hiv	6053
##tas	6054
##javas	6055
nevet	6056
konferenci	6057
##úton	6058
tűzoltók	6059
fős	6060
nb	6061
vin	6062
##ea	6063
##vál	6064
##cég	6065
##edv	6066
##hattak	6067
##kora	6068
##állító	6069
##lanul	6070
visszalép	6071
##fic	6072
nyugod	6073
szavazó	6074
##ionális	6075
polgármestere	6076
szerencsére	6077
pilóta	6078
##három	6079
egység	6080
összegyű	6081
képet	6082
eltűnt	6083
##ismerte	6084
látta	6085
színésznő	6086
herc	6087
kritikus	6088
rúg	6089
süt	6090
##czi	6091
##oli	6092
##éséről	6093
##adót	6094
##usk	6095
##olya	6096
napig	6097
létesít	6098
##essék	6099
jegybank	6100
utóbb	6101
lelki	6102
profi	6103
székesfehér	6104
megakadály	6105
búcs	6106
co	6107
sel	6108
verte	6109
##ain	6110
##szent	6111
##ezését	6112
##uli	6113
##ogó	6114
minket	6115
##örg	6116
amiben	6117
##anyar	6118
hirdet	6119
virág	6120
ukraj	6121
dur	6122
kb	6123
les	6124
##moz	6125
##mis	6126
##onna	6127
##álják	6128
##ései	6129
##ákra	6130
híres	6131
eredményt	6132
közleménye	6133
##friss	6134
fájd	6135
választókerület	6136
mín	6137
##sc	6138
amellyel	6139
##rón	6140
utód	6141
##ájával	6142
munkás	6143
főigazgató	6144
elnöki	6145
##jármű	6146
mutatkoz	6147
szlovén	6148
bírság	6149
elképzelhető	6150
megelőző	6151
katasztrófa	6152
gál	6153
kony	6154
##yom	6155
##öbb	6156
szerezte	6157
##nként	6158
vallom	6159
arsen	6160
szolgáltató	6161
vizsgálatot	6162
forgalmaz	6163
hasznos	6164
magyarázta	6165
speciális	6166
stadion	6167
##hivatal	6168
98	6169
dub	6170
##rog	6171
##ze	6172
##fin	6173
##öb	6174
szek	6175
##ozatot	6176
márk	6177
magának	6178
képzel	6179
győzött	6180
kedvezmény	6181
ajánlat	6182
ahogyan	6183
##papír	6184
kabinet	6185
nav	6186
##yás	6187
##fesz	6188
##használ	6189
szí	6190
##ásuk	6191
##ítók	6192
##ellen	6193
##eszi	6194
példány	6195
kapcsolódó	6196
##ességében	6197
meccset	6198
hívta	6199
tárgyalások	6200
##jutott	6201
izgalmas	6202
repülőgép	6203
sosem	6204
chelsea	6205
):	6206
pop	6207
post	6208
ás	6209
szög	6210
kormányt	6211
nevezett	6212
##ice	6213
kereslet	6214
politikusok	6215
gyenge	6216
közvetlenül	6217
beszámoló	6218
##biztonsági	6219
magánnyugdíjpénztár	6220
bokros	6221
william	6222
95	6223
hű	6224
önt	6225
##lép	6226
##aknak	6227
##ars	6228
kimond	6229
mielőtt	6230
szeml	6231
közölték	6232
megszok	6233
char	6234
növény	6235
részvények	6236
győri	6237
pilót	6238
repülőtér	6239
##különb	6240
sugár	6241
68	6242
##ks	6243
##kér	6244
##méteres	6245
##fut	6246
kiadó	6247
2001	6248
címet	6249
önkormányzatok	6250
1990	6251
története	6252
egymillió	6253
farkas	6254
münch	6255
ler	6256
lám	6257
ov	6258
pre	6259
szar	6260
##ásához	6261
alt	6262
##kön	6263
##évé	6264
halott	6265
várják	6266
hagyó	6267
reggeli	6268
carl	6269
elegendő	6270
gergely	6271
dán	6272
gord	6273
##kl	6274
egyrészt	6275
##ulása	6276
##ogh	6277
##hetők	6278
mindeneset	6279
országot	6280
ügynök	6281
##ávol	6282
megter	6283
mnb	6284
##harc	6285
tizenegy	6286
kíváncsi	6287
éjszaka	6288
ingyen	6289
koncentr	6290
bocsát	6291
láng	6292
rájuk	6293
##ozását	6294
szerinti	6295
általa	6296
megszor	6297
egyetemi	6298
ellentétben	6299
hábor	6300
ni	6301
elrend	6302
##omra	6303
felép	6304
budai	6305
németországban	6306
órás	6307
elemzés	6308
foglalkozik	6309
igénybe	6310
##enzív	6311
mindenesetre	6312
kre	6313
területi	6314
##vad	6315
##annyi	6316
elszám	6317
csont	6318
##ulnak	6319
ném	6320
műt	6321
vastag	6322
nyugdíjrendszer	6323
dics	6324
rosszabb	6325
találkozó	6326
bármilyen	6327
simon	6328
izrael	6329
vezérigazgatója	6330
szurkol	6331
facebook	6332
62	6333
fenti	6334
ugr	6335
##jan	6336
##mar	6337
##atában	6338
##olható	6339
megment	6340
##enisz	6341
front	6342
meghosszabb	6343
aláír	6344
show	6345
jövedelem	6346
ten	6347
##lia	6348
##elhető	6349
##esnek	6350
emleg	6351
kapcsolatot	6352
vizsgálatok	6353
órán	6354
komolyan	6355
ellenőriz	6356
vesztette	6357
tulajdonosa	6358
naponta	6359
debreceni	6360
lázár	6361
gyanúja	6362
megfigyel	6363
fig	6364
fém	6365
##list	6366
szimp	6367
##olása	6368
gyüm	6369
##atty	6370
sajnál	6371
törvényjavas	6372
erősebb	6373
##asonl	6374
megvásár	6375
fiatalember	6376
intézkedések	6377
fenyeget	6378
katasztrófavéd	6379
menetrend	6380
korrupció	6381
dunántúl	6382
bmw	6383
##demokr	6384
67	6385
##ale	6386
##ségben	6387
kapos	6388
tartották	6389
hozam	6390
tanú	6391
rendőrségi	6392
eredménye	6393
hónappal	6394
problémát	6395
szakértői	6396
feljelentést	6397
globális	6398
arsenal	6399
bány	6400
f1	6401
pot	6402
##hid	6403
##ásán	6404
bevon	6405
tudunk	6406
kétszáz	6407
##ációk	6408
árvíz	6409
##iszap	6410
feladata	6411
##művek	6412
ígéret	6413
tv2	6414
összehasonl	6415
jós	6416
méteres	6417
olt	6418
ru	6419
tükr	6420
##gól	6421
végző	6422
forinton	6423
##ációja	6424
védelmi	6425
##essé	6426
export	6427
szokásos	6428
kizár	6429
##módosítás	6430
produk	6431
kommunikációs	6432
bont	6433
div	6434
jon	6435
kegy	6436
##iban	6437
##zük	6438
##orú	6439
##ítve	6440
##aim	6441
##oda	6442
esik	6443
##főnök	6444
védelem	6445
legjobban	6446
hetven	6447
meteor	6448
felügyelő	6449
feszült	6450
72	6451
rokon	6452
őszint	6453
##zen	6454
##hát	6455
ször	6456
##oknál	6457
megsért	6458
##áknak	6459
bejegy	6460
##avart	6461
##ótól	6462
ügyvezető	6463
épül	6464
várnak	6465
vasúti	6466
színpad	6467
megszűn	6468
öngyilk	6469
milan	6470
paul	6471
beavatkoz	6472
!"	6473
bx	6474
kub	6475
##növ	6476
##lop	6477
##mező	6478
elej	6479
##adást	6480
színvonal	6481
ajánló	6482
pályázat	6483
hajléktalan	6484
mínusz	6485
800	6486
tál	6487
##ménnyel	6488
##!!	6489
##elését	6490
##ária	6491
##rep	6492
amelyik	6493
építő	6494
áron	6495
gondos	6496
regionális	6497
120	6498
régóta	6499
dolgoznak	6500
##uttó	6501
beruházás	6502
tartalmazó	6503
elektromos	6504
sürg	6505
61	6506
63	6507
cam	6508
po	6509
vak	6510
##sé	6511
##ans	6512
##onda	6513
forgató	6514
lehetetlen	6515
vezeti	6516
##házi	6517
kezdve	6518
szóval	6519
tiszta	6520
##mentes	6521
készülék	6522
tetsz	6523
lakossági	6524
kontr	6525
professzor	6526
mesél	6527
gyümölcs	6528
bern	6529
ről	6530
zene	6531
##kul	6532
##hette	6533
##ésében	6534
##edek	6535
közigazgatási	6536
kicsi	6537
felében	6538
válogat	6539
elsőd	6540
halt	6541
háromszor	6542
##zsák	6543
bárki	6544
folytatódik	6545
kormányzat	6546
jégkor	6547
letartóztatás	6548
karrier	6549
bánt	6550
kv	6551
lat	6552
##atikai	6553
mikr	6554
mutató	6555
légit	6556
negyedévben	6557
édesany	6558
zsidó	6559
rett	6560
wal	6561
##ault	6562
##ola	6563
##osta	6564
##ulni	6565
alex	6566
##tatta	6567
számukra	6568
##árták	6569
végső	6570
bruttó	6571
##term	6572
önálló	6573
##talanul	6574
játékosok	6575
martin	6576
kosár	6577
hajdú	6578
megfogalmaz	6579
mért	6580
előter	6581
adták	6582
újpest	6583
##közl	6584
élett	6585
szervezett	6586
tekintettel	6587
hozzátéve	6588
demokrata	6589
gyártó	6590
infláció	6591
merénylet	6592
73	6593
audi	6594
díz	6595
##furt	6596
##atosan	6597
##odás	6598
érvel	6599
valamelyik	6600
félre	6601
vállalatok	6602
szeretnénk	6603
címvédő	6604
apeh	6605
##bizony	6606
egyenl	6607
szeptemberben	6608
vörösiszap	6609
phil	6610
köztársaság	6611
alapvető	6612
koncepció	6613
árpád	6614
premier	6615
ik	6616
kaz	6617
##rád	6618
##yal	6619
##szelvény	6620
##ítések	6621
##adása	6622
##ításával	6623
##inger	6624
kerülhet	6625
kerülnek	6626
elégedett	6627
finn	6628
kezdeményezés	6629
##ezzük	6630
újságírók	6631
bölcs	6632
qu	6633
zala	6634
##ettó	6635
csin	6636
kiegyen	6637
előd	6638
úgyhogy	6639
##ney	6640
##telj	6641
##járó	6642
háztart	6643
##venni	6644
távú	6645
dolgozni	6646
robbant	6647
alapvetően	6648
furcsa	6649
héttel	6650
gordon	6651
tünet	6652
##koló	6653
##lése	6654
##pa	6655
##ülly	6656
cselek	6657
éva	6658
##öttek	6659
##óként	6660
valak	6661
##umot	6662
vezetők	6663
##ings	6664
megválaszt	6665
emlékeztetett	6666
rendelkezésre	6667
megoldást	6668
kórházban	6669
fordulóban	6670
felkészül	6671
dinam	6672
onnan	6673
herceg	6674
can	6675
hig	6676
kud	6677
##kocs	6678
##lási	6679
##mon	6680
##íts	6681
##airól	6682
nyel	6683
érzi	6684
többnyire	6685
végleges	6686
191	6687
beszélni	6688
büntetés	6689
letölt	6690
alelnöke	6691
tragéd	6692
det	6693
lad	6694
sy	6695
##sburg	6696
##vit	6697
##akra	6698
all	6699
##odor	6700
hatodik	6701
##chan	6702
értesült	6703
##forr	6704
##irend	6705
##fogó	6706
vasút	6707
kamion	6708
szenny	6709
orvosok	6710
##pályás	6711
igazságügyi	6712
sopron	6713
james	6714
hód	6715
mult	6716
rog	6717
##huz	6718
egyip	6719
egyeztet	6720
megoszt	6721
szerintük	6722
stb	6723
jelenség	6724
##ességét	6725
versenyt	6726
akarják	6727
kiválaszt	6728
fizetett	6729
##szolgálat	6730
katalin	6731
66	6732
jók	6733
szót	6734
##olási	6735
##izt	6736
vigy	6737
##ítószer	6738
létezik	6739
kivált	6740
1998	6741
vendégek	6742
cserél	6743
ausztri	6744
földrengés	6745
69	6746
bocs	6747
dáni	6748
##sy	6749
##vai	6750
##zését	6751
##bud	6752
##hl	6753
##anács	6754
szel	6755
##álnak	6756
##aira	6757
erkö	6758
end	6759
elmarad	6760
##ekedés	6761
##özés	6762
tavasszal	6763
lapnak	6764
kiadott	6765
katona	6766
ágnes	6767
tökéletes	6768
optim	6769
74	6770
fár	6771
gomb	6772
keny	6773
nas	6774
toy	6775
##beteg	6776
##pe	6777
##szen	6778
##orl	6779
##edző	6780
adomány	6781
munkáját	6782
kormánynak	6783
írás	6784
találta	6785
nyilvános	6786
parlamentben	6787
könnyebb	6788
aktuális	6789
mezőgazdasági	6790
hálózat	6791
noha	6792
passz	6793
sam	6794
##rik	6795
##ali	6796
##rei	6797
##költ	6798
tudtam	6799
képek	6800
visszak	6801
##felvétel	6802
##enie	6803
kever	6804
holttest	6805
növekedést	6806
rózs	6807
római	6808
garant	6809
terjeszt	6810
óriás	6811
diplomáci	6812
renault	6813
ciklus	6814
divat	6815
rov	6816
##aut	6817
##yk	6818
##ásért	6819
##omp	6820
##isztáni	6821
összességében	6822
##ásoknak	6823
##szakasz	6824
jobboldali	6825
érdekelt	6826
mail	6827
értéke	6828
##eletese	6829
sportoló	6830
vizsgálja	6831
működt	6832
reagált	6833
kötelezettség	6834
art	6835
bomb	6836
##ságú	6837
befog	6838
terep	6839
##ártól	6840
##imir	6841
##rendű	6842
betölt	6843
##ace	6844
súlyosan	6845
kihasznál	6846
kikap	6847
graf	6848
ferrari	6849
kós	6850
ven	6851
##jaként	6852
##me	6853
##pát	6854
##uck	6855
egységes	6856
##ségű	6857
adnak	6858
baloldali	6859
fölé	6860
##afut	6861
világháború	6862
ázsiai	6863
légitársaság	6864
foc	6865
kén	6866
##dzs	6867
##jünk	6868
##regy	6869
##abd	6870
##őkép	6871
marg	6872
túlél	6873
megkeres	6874
technikai	6875
felsőok	6876
vidéki	6877
eltérő	6878
káv	6879
tax	6880
##cell	6881
szt	6882
##csat	6883
állatok	6884
2013	6885
oktatás	6886
lakos	6887
helyzetbe	6888
app	6889
fizetés	6890
##strukt	6891
monet	6892
##semmis	6893
peter	6894
érzékeny	6895
georg	6896
fegyveres	6897
kifejtette	6898
jégkorong	6899
egyiptom	6900
kál	6901
lás	6902
rug	6903
tat	6904
tábl	6905
##jal	6906
##arab	6907
##öng	6908
anna	6909
szemb	6910
##pontos	6911
trén	6912
spanyolország	6913
interneten	6914
idősebb	6915
legkev	6916
megváltoztat	6917
nyugdíjpénztári	6918
selejt	6919
jer	6920
##törvény	6921
##non	6922
##hit	6923
##iga	6924
adók	6925
élén	6926
élnek	6927
párhuz	6928
címmel	6929
jegyző	6930
használat	6931
##osabban	6932
megmutat	6933
észl	6934
száraz	6935
rtl	6936
vírus	6937
bát	6938
holl	6939
kosz	6940
so	6941
vevő	6942
##olók	6943
megsemmis	6944
##csuk	6945
utalt	6946
##che	6947
##ander	6948
félid	6949
hagyta	6950
tízezer	6951
##itter	6952
nyíregy	6953
parkoló	6954
##érmes	6955
államadósság	6956
bus	6957
leny	6958
nettó	6959
##jére	6960
##vaj	6961
##he	6962
##ezhet	6963
köb	6964
##izált	6965
##oltat	6966
##állított	6967
##obbant	6968
forintért	6969
szintű	6970
előtte	6971
zsuzs	6972
segíteni	6973
tisztáz	6974
külföldön	6975
szoros	6976
hulladék	6977
mennyiségű	6978
főügyészség	6979
radikális	6980
tok	6981
ék	6982
##ozva	6983
##illa	6984
emelte	6985
##tatni	6986
fejt	6987
dolgok	6988
pályafut	6989
szeretet	6990
feltétlenül	6991
meghallgat	6992
szezonban	6993
vegyes	6994
pillanat	6995
takarék	6996
elsődleges	6997
76	6998
bol	6999
jász	7000
mek	7001
üres	7002
##hull	7003
##umb	7004
napot	7005
világszerte	7006
szerepe	7007
szállították	7008
gépjármű	7009
számítanak	7010
gyengült	7011
módosító	7012
bűncselekmények	7013
bajnokságban	7014
tőke	7015
##beszéd	7016
mtv	7017
alkohol	7018
88	7019
83	7020
fx	7021
fesztivál	7022
genet	7023
jo	7024
ti	7025
toj	7026
wa	7027
##nam	7028
##ge	7029
##ellel	7030
mára	7031
esk	7032
nagym	7033
másnap	7034
pedagóg	7035
választott	7036
készülő	7037
tekintve	7038
nála	7039
termékek	7040
##politik	7041
megjegyezte	7042
91	7043
koz	7044
##rág	7045
##kil	7046
##ík	7047
elf	7048
leír	7049
##örés	7050
hozni	7051
jogerős	7052
csapatot	7053
velvet	7054
elsőként	7055
bírósági	7056
kihagy	7057
hibát	7058
hírt	7059
szülők	7060
##jogi	7061
ábráz	7062
zenek	7063
##élly	7064
csász	7065
##iget	7066
mindezt	7067
hatással	7068
újd	7069
embernek	7070
pénzügy	7071
élni	7072
életvesz	7073
színes	7074
nyolcvan	7075
kontin	7076
kiskun	7077
total	7078
feltehetően	7079
87	7080
bord	7081
cáf	7082
dü	7083
fűz	7084
sl	7085
##rum	7086
##ino	7087
amik	7088
máris	7089
##olyan	7090
##kezés	7091
magunk	7092
ellenfél	7093
napirend	7094
##kedő	7095
hétköz	7096
ügyet	7097
döntése	7098
##szolgáltat	7099
véleményét	7100
lényegében	7101
##személy	7102
bayern	7103
britanni	7104
89	7105
ast	7106
bács	7107
hölgy	7108
pe	7109
ret	7110
tenisz	7111
eld	7112
állomány	7113
legfriss	7114
adják	7115
##ükre	7116
hatása	7117
határidő	7118
jutottak	7119
használni	7120
délutáni	7121
befektető	7122
bulvár	7123
pesti	7124
##éllyel	7125
legfrissebb	7126
09	7127
tend	7128
##lar	7129
##eljár	7130
##ánnyal	7131
elj	7132
##itális	7133
jelentett	7134
kisfi	7135
##rich	7136
választáson	7137
pénzügyminiszter	7138
életben	7139
tisztesség	7140
mutatják	7141
munkaerő	7142
schm	7143
bemutató	7144
##önyör	7145
##örténet	7146
86	7147
gb	7148
rip	7149
tó	7150
##vent	7151
##ásból	7152
amilyen	7153
##odó	7154
##abizt	7155
előbbi	7156
##iller	7157
valuta	7158
végi	7159
##ászok	7160
áruház	7161
hiszem	7162
ferencváros	7163
hallgató	7164
olimpia	7165
szilveszt	7166
megfigy	7167
ütközött	7168
konfliktus	7169
illegális	7170
78	7171
700	7172
81	7173
ee	7174
koss	7175
rock	7176
##ger	7177
##der	7178
##elések	7179
##aták	7180
alp	7181
érzés	7182
helyét	7183
végeredmény	7184
követi	7185
##háza	7186
##irk	7187
következik	7188
tisztség	7189
anya	7190
okozó	7191
zárta	7192
megtalál	7193
luxus	7194
="	7195
jeg	7196
kód	7197
##jei	7198
##ora	7199
##its	7200
##sággal	7201
gyönyör	7202
éri	7203
##becs	7204
vezetést	7205
integr	7206
amerikában	7207
termelés	7208
vonat	7209
szabadon	7210
lapunk	7211
programot	7212
emlékeztet	7213
##ows	7214
fejlesztés	7215
otthonában	7216
kockázat	7217
hozzájárul	7218
közbeszerzési	7219
96	7220
trend	7221
##menet	7222
##hír	7223
##hettek	7224
eldönt	7225
megcs	7226
emelt	7227
főnök	7228
világon	7229
egyike	7230
hajó	7231
##esszük	7232
tizenöt	7233
kilométeres	7234
sorozatban	7235
választásokon	7236
rámutat	7237
kábítószer	7238
hüly	7239
?"	7240
cz	7241
##nom	7242
##láb	7243
##ekbe	7244
##arch	7245
##ettünk	7246
kifogás	7247
##egyed	7248
többlet	7249
belga	7250
karak	7251
megszól	7252
beszélget	7253
játszani	7254
szervezők	7255
mérkőzést	7256
demokrácia	7257
71	7258
##éje	7259
##büntetés	7260
##edő	7261
##ázta	7262
fogva	7263
mindenkit	7264
ugyanez	7265
192	7266
kéri	7267
kedvel	7268
járnak	7269
rendszerben	7270
veszik	7271
franci	7272
kénytelen	7273
üld	7274
##vállalkoz	7275
literes	7276
csinálni	7277
titok	7278
szellemi	7279
tavaszi	7280
##fejlesztési	7281
monetáris	7282
nik	7283
##lon	7284
##húz	7285
szokat	7286
sziv	7287
aleksz	7288
##ukban	7289
helyén	7290
##ájú	7291
összetett	7292
visszam	7293
tagok	7294
részletes	7295
iii	7296
##oxid	7297
pápa	7298
argentin	7299
kanyar	7300
pu	7301
wil	7302
öv	7303
##eszélés	7304
mást	7305
külügyminiszter	7306
intenzív	7307
##eztető	7308
hallott	7309
##ődik	7310
pártelnök	7311
lehetőségét	7312
fontosabb	7313
##own	7314
keletkezett	7315
döntöttek	7316
kártér	7317
meghatározott	7318
rakét	7319
parancsnok	7320
jud	7321
lis	7322
sét	7323
táj	7324
##rát	7325
##ettük	7326
megkö	7327
alább	7328
##ettebb	7329
##ításának	7330
magára	7331
alaposan	7332
pontra	7333
használják	7334
zajló	7335
statisztikai	7336
kézilabda	7337
kossuth	7338
08	7339
dag	7340
kincs	7341
##wood	7342
##álva	7343
elért	7344
##entő	7345
##ságban	7346
##even	7347
##ötték	7348
##ításra	7349
átmen	7350
##jától	7351
életbe	7352
##ezésű	7353
közelebb	7354
olvashat	7355
lehetősége	7356
ajánlott	7357
kívüli	7358
egyedi	7359
ezelőtti	7360
paleszt	7361
frankfurt	7362
településen	7363
koal	7364
ingyenes	7365
##szövetség	7366
ajánlószelvény	7367
82	7368
bux	7369
no	7370
rö	7371
##adások	7372
##omba	7373
szerény	7374
##szeres	7375
helyes	7376
átlát	7377
##etlenül	7378
haladás	7379
egyikük	7380
váltó	7381
féle	7382
menni	7383
szolgáló	7384
irányító	7385
téma	7386
olcsóbb	7387
kétharmados	7388
digitális	7389
kes	7390
liver	7391
ronald	7392
##jeszt	7393
##onta	7394
##életi	7395
##itz	7396
##jav	7397
évfordul	7398
újj	7399
jelenlét	7400
##ózis	7401
kapcsolatok	7402
bűnös	7403
##század	7404
##biztos	7405
működését	7406
telekom	7407
erdélyi	7408
kéne	7409
asz	7410
vizet	7411
##ret	7412
##bal	7413
##etése	7414
szök	7415
elny	7416
csú	7417
##ódás	7418
értesül	7419
illetően	7420
##tian	7421
eltávol	7422
hátra	7423
perccel	7424
kötvény	7425
lengyelország	7426
megbízott	7427
jogosult	7428
liverpo	7429
bib	7430
bund	7431
##aha	7432
##üsp	7433
megism	7434
rendben	7435
ennyire	7436
soros	7437
hozza	7438
forgalma	7439
betegek	7440
tizenkét	7441
kaland	7442
katonák	7443
díja	7444
tehetség	7445
forradalom	7446
fokozatosan	7447
gp	7448
óce	7449
##ibb	7450
felaján	7451
##attól	7452
##idéz	7453
számát	7454
##ódnak	7455
különféle	7456
mac	7457
##ességet	7458
hónapja	7459
munkaügyi	7460
elhang	7461
torna	7462
játékosa	7463
szépen	7464
meggyőző	7465
sajtótájékoztatóján	7466
hátter	7467
áldozatok	7468
védekezés	7469
brüsszel	7470
84	7471
##kán	7472
##kát	7473
##lem	7474
elnev	7475
nyúl	7476
rendelt	7477
készen	7478
##zséb	7479
nyomozást	7480
##pressz	7481
lettek	7482
feltűn	7483
elmondása	7484
folytatja	7485
##négy	7486
eléged	7487
hiánya	7488
iskolai	7489
köszönt	7490
ellentmond	7491
réteg	7492
##biztosítási	7493
##ficit	7494
összegyűjt	7495
##üspök	7496
kasz	7497
mo	7498
##tünk	7499
##mos	7500
csek	7501
csok	7502
alons	7503
deve	7504
##techn	7505
összesít	7506
##viselő	7507
szeretnének	7508
imád	7509
utoljára	7510
történtek	7511
kívánja	7512
bérlet	7513
esztend	7514
könyvet	7515
ritka	7516
bolyg	7517
##nan	7518
##lót	7519
##für	7520
##őn	7521
##erni	7522
nagydíj	7523
##enyi	7524
játssz	7525
brfk	7526
kali	7527
gyűjtemény	7528
szolgáltatások	7529
eszterg	7530
igyekszik	7531
lóerős	7532
heves	7533
jóváhagy	7534
cor	7535
füst	7536
plat	7537
##bet	7538
szank	7539
##iság	7540
feles	7541
hozták	7542
indít	7543
készpénz	7544
férj	7545
jelenet	7546
értékben	7547
##városban	7548
személyesen	7549
hónapos	7550
programja	7551
órát	7552
sajtóügy	7553
mozgalom	7554
nehezebb	7555
##kereskedelmi	7556
twitter	7557
palesztin	7558
dall	7559
tonna	7560
vész	7561
vont	7562
##ítt	7563
##ph	7564
##oton	7565
előrel	7566
##isztikai	7567
balogh	7568
mérnök	7569
javul	7570
bereg	7571
hiányzik	7572
könnyed	7573
##ense	7574
fehérvár	7575
labdát	7576
valamivel	7577
származású	7578
stratégiai	7579
ideiglen	7580
innen	7581
##cionális	7582
üdv	7583
közzétett	7584
##barát	7585
küszöb	7586
tájékoz	7587
cit	7588
gaz	7589
osz	7590
sör	7591
##kelő	7592
##iben	7593
##mit	7594
##izáció	7595
képtelen	7596
forintba	7597
##ászati	7598
edzés	7599
határon	7600
hitelt	7601
##telenül	7602
1000	7603
sikerrel	7604
##hajtó	7605
miskolci	7606
interjúban	7607
megteremt	7608
05	7609
domb	7610
jul	7611
juh	7612
pek	7613
rod	7614
zak	7615
##jához	7616
##vegy	7617
##ponttal	7618
##ezd	7619
szerezni	7620
##ságok	7621
érett	7622
munkak	7623
banki	7624
##vándor	7625
magyarországra	7626
rendszerváltás	7627
tisztában	7628
mozog	7629
tesznek	7630
borz	7631
utcán	7632
strukt	7633
bekövet	7634
simán	7635
éjszakai	7636
párizsi	7637
afganisztán	7638
ből	7639
fab	7640
uj	7641
##iek	7642
##zanak	7643
##hét	7644
szál	7645
kiszám	7646
felvon	7647
korai	7648
##asztott	7649
százezer	7650
##kedett	7651
látják	7652
##ésekor	7653
ittas	7654
céget	7655
gyereket	7656
amerikaiak	7657
betart	7658
hozzáfér	7659
##asszony	7660
ütem	7661
csoda	7662
beszámolt	7663
kategóriában	7664
látványos	7665
szórakoztat	7666
nato	7667
##ivárog	7668
kudarc	7669
77	7670
vettel	7671
webb	7672
##cél	7673
##etik	7674
##orok	7675
leány	7676
##erték	7677
##állomány	7678
terve	7679
magával	7680
##forrás	7681
##telep	7682
klím	7683
kérdésére	7684
chris	7685
érinti	7686
mértékű	7687
felülvizsgál	7688
ital	7689
valahogy	7690
##regény	7691
ovb	7692
peking	7693
99	7694
bed	7695
nar	7696
porn	7697
su	7698
##ré	7699
sztor	7700
##ikum	7701
##ősebb	7702
számomra	7703
ugyanúgy	7704
világban	7705
visszaél	7706
megtám	7707
##ange	7708
kivon	7709
##esebben	7710
térkép	7711
könyvtár	7712
atlét	7713
lemez	7714
érvényben	7715
kommunista	7716
információi	7717
minimális	7718
richard	7719
##mozg	7720
bil	7721
bossz	7722
ősszel	7723
##au	7724
##nagy	7725
##gyár	7726
##ikák	7727
##ításban	7728
##ünkben	7729
illeti	7730
ügyek	7731
##ászat	7732
jogok	7733
##jukat	7734
törvények	7735
ass	7736
bejelentés	7737
pozs	7738
helyszínre	7739
tetszik	7740
tartalmazza	7741
filozó	7742
bővül	7743
véletlenül	7744
riport	7745
heg	7746
kád	7747
kun	7748
publik	7749
##wi	7750
##gyógy	7751
szür	7752
megmond	7753
csel	7754
##entúl	7755
##elmek	7756
folyt	7757
eger	7758
eltilt	7759
vízügyi	7760
atlan	7761
##oldalú	7762
gyűl	7763
fizikai	7764
normális	7765
résztvevő	7766
közszolgálati	7767
04	7768
háló	7769
tür	7770
##táv	7771
##terület	7772
##jöv	7773
##más	7774
##bur	7775
##ilván	7776
alb	7777
bevet	7778
##unkra	7779
lehető	7780
##cht	7781
napos	7782
##kedés	7783
##kedik	7784
##vezetés	7785
##vezetők	7786
szakma	7787
##ábla	7788
különadó	7789
barack	7790
szerzője	7791
play	7792
1999	7793
tényező	7794
utcában	7795
székely	7796
láttam	7797
térségben	7798
zajlik	7799
méretű	7800
szégy	7801
megszokott	7802
ml	7803
mur	7804
mass	7805
rud	7806
##sik	7807
##őbb	7808
##ítsák	7809
##ségének	7810
feltár	7811
tönk	7812
deficit	7813
számítás	7814
terén	7815
képző	7816
##aszn	7817
szemét	7818
napra	7819
elmaradt	7820
férje	7821
eredményeket	7822
##essenek	7823
hónapokban	7824
engem	7825
figyelmeztet	7826
készültség	7827
##érdek	7828
finanszírozás	7829
nyerni	7830
kellemetlen	7831
gabri	7832
települések	7833
79	7834
püspök	7835
rol	7836
sak	7837
sűr	7838
##kezet	7839
meglát	7840
közelm	7841
végki	7842
##cher	7843
részére	7844
ugye	7845
versenykép	7846
kerülő	7847
határid	7848
győzelmet	7849
legnép	7850
##ötő	7851
elhal	7852
olaszország	7853
##szolgáltatás	7854
köszönhető	7855
kérdése	7856
kárty	7857
malév	7858
agressz	7859
gárda	7860
államháztartási	7861
párhuzam	7862
átmeneti	7863
##zsébet	7864
##iás	7865
##vét	7866
szektor	7867
##inho	7868
elismerte	7869
megítél	7870
##ólyom	7871
felek	7872
leáll	7873
gyök	7874
állítása	7875
elődöntő	7876
számon	7877
magatart	7878
##örök	7879
elmélet	7880
stáb	7881
##védelem	7882
bizonyult	7883
megszüntet	7884
programok	7885
mozdul	7886
fogyasztó	7887
##elikop	7888
hétvégi	7889
matolcs	7890
moszk	7891
deleg	7892
önkéntes	7893
dupl	7894
közelmúlt	7895
dan	7896
ejt	7897
gre	7898
##dí	7899
##viszony	7900
elfel	7901
felismer	7902
nagyszerű	7903
##házban	7904
volán	7905
szóba	7906
vélhetően	7907
1994	7908
hetedik	7909
emelkedik	7910
aligha	7911
ellop	7912
pillanatban	7913
##gondol	7914
krisztián	7915
autópálya	7916
megalapozott	7917
ifjúsági	7918
újdonság	7919
cas	7920
hx	7921
moh	7922
tes	7923
ákos	7924
##tőzsd	7925
##emen	7926
felr	7927
felület	7928
##nyék	7929
gyar	7930
##ava	7931
##eszköz	7932
tervei	7933
főiskol	7934
iráni	7935
2014	7936
ebbe	7937
tulajdonképpen	7938
##ardo	7939
demonstr	7940
novemberi	7941
abszol	7942
kialakul	7943
mobiltel	7944
aggod	7945
produc	7946
apple	7947
matolcsy	7948
bill	7949
con	7950
dani	7951
##gő	7952
##dy	7953
##oba	7954
##liai	7955
##jev	7956
##páros	7957
##szül	7958
##emlék	7959
##apor	7960
felszín	7961
##air	7962
fejezte	7963
##ational	7964
gyerm	7965
##számú	7966
órával	7967
##sorozat	7968
hamburg	7969
nézni	7970
tájékoztatott	7971
fogyasztói	7972
írták	7973
fellebb	7974
riaszt	7975
flor	7976
gyönyörű	7977
alonso	7978
cukor	7979
ja	7980
posta	7981
##kar	7982
##mában	7983
##elj	7984
elenged	7985
évad	7986
korszerű	7987
haiti	7988
##utató	7989
főtitk	7990
belföld	7991
játéknap	7992
hangoztat	7993
házban	7994
##ezésére	7995
románi	7996
gondolja	7997
folyamán	7998
legyenek	7999
művészeti	8000
kevesebbet	8001
bármi	8002
indokolta	8003
lehessen	8004
profit	8005
szereplők	8006
felmerült	8007
remélem	8008
andrea	8009
altern	8010
bod	8011
lév	8012
wolf	8013
##rét	8014
##áva	8015
##őrt	8016
##ate	8017
##anul	8018
##emi	8019
évszázad	8020
##korcs	8021
##elme	8022
tartalm	8023
kompl	8024
##icik	8025
eredményei	8026
eltelt	8027
emlékezet	8028
márciusban	8029
náluk	8030
doboz	8031
bevásár	8032
besor	8033
mexikói	8034
karakter	8035
fe	8036
##kap	8037
##kárt	8038
##sá	8039
##lottak	8040
##motor	8041
##űs	8042
##bázis	8043
##pel	8044
##aná	8045
szik	8046
közr	8047
váltott	8048
##őtől	8049
zseb	8050
klin	8051
kínában	8052
hazaiak	8053
halála	8054
egyensúly	8055
ítélte	8056
idézte	8057
meghaladja	8058
##fordult	8059
münchen	8060
esztergom	8061
dek	8062
hur	8063
sülly	8064
sólyom	8065
vét	8066
ww	8067
##sej	8068
##fia	8069
##bolt	8070
##ets	8071
elárul	8072
##avi	8073
nézet	8074
euróval	8075
pártja	8076
összefoglal	8077
##prom	8078
maradvány	8079
személygép	8080
mentők	8081
használja	8082
okozhat	8083
fokozott	8084
biztonságos	8085
állítják	8086
nyelvű	8087
érzem	8088
közzé	8089
fülöp	8090
legyőzte	8091
hotel	8092
törvényjavaslat	8093
kosárl	8094
moszkva	8095
alternatív	8096
gi	8097
luk	8098
mess	8099
tét	8100
##kup	8101
##etést	8102
##atik	8103
eladás	8104
egyúttal	8105
##isebb	8106
voltunk	8107
jelkép	8108
erdő	8109
képzés	8110
##telenek	8111
zsák	8112
támogató	8113
vélte	8114
szavazás	8115
folytatta	8116
informatikai	8117
gyengébb	8118
##politika	8119
svájc	8120
kiny	8121
televíziós	8122
könyve	8123
##piaci	8124
bőven	8125
legrosszabb	8126
94	8127
bog	8128
cd	8129
maj	8130
rac	8131
##kert	8132
##kur	8133
##lett	8134
##zött	8135
##onnyal	8136
##itu	8137
##csill	8138
állást	8139
erzsébet	8140
magabizt	8141
##ölni	8142
##őről	8143
ugyanolyan	8144
vezetése	8145
árver	8146
dolgot	8147
nyomás	8148
mentén	8149
vizsgálják	8150
hetekben	8151
találkozott	8152
ünnepi	8153
oscar	8154
arányban	8155
##művészeti	8156
székhely	8157
visszavág	8158
##hiány	8159
jótékony	8160
##ouse	8161
székesfehérvár	8162
szörny	8163
buz	8164
mág	8165
sci	8166
seh	8167
to	8168
##nám	8169
##ss	8170
sző	8171
##ítsa	8172
##omat	8173
##niai	8174
korában	8175
korosztály	8176
legközel	8177
orr	8178
kapac	8179
sorban	8180
market	8181
komm	8182
##özik	8183
##kodni	8184
említette	8185
megszület	8186
import	8187
gyermekek	8188
##tetni	8189
##forgalom	8190
levélben	8191
szélsőséges	8192
énekesnő	8193
vlagy	8194
dániel	8195
92	8196
gig	8197
##mát	8198
##hálóz	8199
##szob	8200
##edi	8201
közgazd	8202
felsor	8203
##egyver	8204
mária	8205
márpedig	8206
előáll	8207
hihetetlen	8208
##uma	8209
kezdtek	8210
kezdték	8211
stre	8212
baloldal	8213
filmben	8214
régen	8215
képviselőjelölt	8216
érkeztek	8217
piacra	8218
figyelmét	8219
balesetet	8220
többiek	8221
azonnali	8222
levelet	8223
diákok	8224
áldozata	8225
büdzs	8226
szárny	8227
guard	8228
hozzájár	8229
beszélgetés	8230
toyota	8231
legközelebb	8232
ivan	8233
lou	8234
mész	8235
rap	8236
##yt	8237
##úrt	8238
##??	8239
##inda	8240
elindul	8241
megköt	8242
##jainak	8243
##igazd	8244
bebizony	8245
tudok	8246
tudtuk	8247
##ódni	8248
országokban	8249
##andr	8250
kard	8251
értéktőzsd	8252
zsig	8253
##ezéssel	8254
védett	8255
black	8256
kitért	8257
góllal	8258
játszó	8259
jegyezték	8260
vásárol	8261
formájában	8262
szerencsétlen	8263
jönnek	8264
matem	8265
legfelső	8266
ftc	8267
##szkij	8268
közremű	8269
3d	8270
ken	8271
##ix	8272
##éj	8273
##vers	8274
##ement	8275
megvéd	8276
##asztalt	8277
mondják	8278
képerny	8279
szembe	8280
napok	8281
alapon	8282
leszög	8283
talaj	8284
##ogató	8285
törzs	8286
parkol	8287
hátul	8288
felhábor	8289
januári	8290
részleteket	8291
##művész	8292
megnyug	8293
bukkan	8294
ülésen	8295
pálink	8296
sértett	8297
büntetőeljár	8298
széch	8299
cal	8300
foci	8301
halm	8302
mez	8303
tonn	8304
##rang	8305
##kány	8306
##ülni	8307
megél	8308
##ogn	8309
utólag	8310
kezdő	8311
fejezet	8312
barany	8313
elterj	8314
megszűnt	8315
kitart	8316
plak	8317
eszm	8318
egészségügy	8319
schum	8320
tengeri	8321
tolvaj	8322
várakozás	8323
##údió	8324
megeml	8325
udvar	8326
mindketten	8327
williams	8328
##demokrata	8329
előterjeszt	8330
diplomáciai	8331
zenekar	8332
kalifor	8333
legnépszerűbb	8334
900	8335
##álása	8336
felől	8337
erők	8338
esetekben	8339
melletti	8340
kilép	8341
kárpát	8342
akarták	8343
kilométerre	8344
felhívta	8345
őszi	8346
népszavaz	8347
kiemelkedő	8348
mekkora	8349
##hullám	8350
végkielég	8351
07	8352
ron	8353
sap	8354
élen	8355
##rist	8356
ele	8357
elérte	8358
##apia	8359
##ish	8360
felment	8361
##ságos	8362
##cional	8363
##udvar	8364
valaha	8365
helyére	8366
összesz	8367
éles	8368
nevében	8369
életet	8370
zsír	8371
házigazd	8372
maradék	8373
csatorna	8374
magánszemély	8375
meglévő	8376
ext	8377
nyitva	8378
fordulójában	8379
utasok	8380
változások	8381
##üntetést	8382
telefonon	8383
információt	8384
koord	8385
moszkvai	8386
műtét	8387
köbméter	8388
aba	8389
den	8390
des	8391
fern	8392
tünt	8393
tető	8394
vx	8395
##sv	8396
##ísér	8397
##10	8398
##ann	8399
eleve	8400
##artam	8401
szerelem	8402
##ázat	8403
levon	8404
évesen	8405
váltak	8406
mic	8407
érez	8408
##ítással	8409
kisgy	8410
elsőfokú	8411
iraki	8412
következett	8413
autóbusz	8414
versenyen	8415
szavazók	8416
jegyezte	8417
fontosnak	8418
thom	8419
ath	8420
kalóz	8421
látták	8422
titkossz	8423
svédország	8424
virr	8425
résztvev	8426
richter	8427
kerületben	8428
automatikus	8429
##szerkezet	8430
szatmár	8431
potenci	8432
császár	8433
újjá	8434
ból	8435
matt	8436
##kov	8437
##gar	8438
##lések	8439
##ling	8440
##éh	8441
##hár	8442
##enék	8443
##eld	8444
##ekul	8445
##ilton	8446
##cső	8447
felejt	8448
##aga	8449
törleszt	8450
hozzájuk	8451
választotta	8452
jelenik	8453
termelő	8454
vonz	8455
biztosítani	8456
támogatottság	8457
##ubl	8458
kisebbségi	8459
##ömb	8460
fordított	8461
infra	8462
erősöd	8463
információkat	8464
étterem	8465
búcsúz	8466
selejtező	8467
szivatty	8468
vlagyimir	8469
war	8470
ür	8471
##lán	8472
##we	8473
##ermek	8474
elit	8475
csom	8476
felét	8477
nézett	8478
hatást	8479
végeztek	8480
tele	8481
csapatt	8482
várni	8483
találni	8484
vesznek	8485
tervezi	8486
feltölt	8487
megszünt	8488
perces	8489
##liában	8490
halálát	8491
üzletember	8492
ketten	8493
kezdődő	8494
kilencven	8495
listát	8496
megfizet	8497
megbízható	8498
önmagában	8499
##zárkóz	8500
máté	8501
lendület	8502
ezren	8503
bálint	8504
virradó	8505
bart	8506
bir	8507
gim	8508
ke	8509
rel	8510
veres	8511
##lánc	8512
##öll	8513
##rai	8514
##agen	8515
jelzi	8516
prim	8517
átad	8518
##ehez	8519
belg	8520
##közlési	8521
##műsor	8522
stand	8523
reál	8524
ildik	8525
vezetőedző	8526
apja	8527
bíróságon	8528
megbeszél	8529
tájékoztatást	8530
kísért	8531
villany	8532
bemutatkoz	8533
intézkedés	8534
lényegesen	8535
szakaszán	8536
teljesítménye	8537
##utyin	8538
ítélték	8539
mclar	8540
benyújtott	8541
kecskemét	8542
forgatókönyv	8543
fm	8544
gon	8545
gén	8546
rász	8547
sil	8548
tű	8549
teng	8550
##kő	8551
##olását	8552
##ise	8553
csong	8554
leon	8555
##szerzés	8556
állítani	8557
jelek	8558
mindannyi	8559
##attan	8560
milliót	8561
férf	8562
könnyebben	8563
díját	8564
labor	8565
olimpián	8566
balesetben	8567
áprilisban	8568
mozgás	8569
##kereszt	8570
románia	8571
turb	8572
kimutat	8573
megállapodást	8574
brazí	8575
munkavállalók	8576
bécs	8577
gazdálkod	8578
akadémia	8579
holt	8580
led	8581
musz	8582
nob	8583
véve	8584
we	8585
west	8586
##aink	8587
##lén	8588
##etű	8589
##inz	8590
eljut	8591
nyár	8592
##hatna	8593
##ításokat	8594
átlép	8595
kezelni	8596
talp	8597
épült	8598
nemzetgazdasági	8599
választották	8600
dolgokat	8601
rendszeres	8602
hazug	8603
maradtak	8604
szeretném	8605
ismeri	8606
forgalmi	8607
bizottságának	8608
nézve	8609
megnyerte	8610
ligája	8611
térségében	8612
legkisebb	8613
fontosság	8614
édesap	8615
barcelon	8616
hatáskör	8617
hűtlen	8618
holly	8619
széchenyi	8620
titkosszolgál	8621
hen	8622
váz	8623
##rop	8624
##negyed	8625
##sort	8626
##emelked	8627
##éshez	8628
##ozata	8629
beép	8630
jogsért	8631
árak	8632
életében	8633
félév	8634
vonatok	8635
képviselet	8636
##ória	8637
kívánt	8638
lépést	8639
eltűn	8640
távozott	8641
területeken	8642
testi	8643
részletek	8644
fedél	8645
esztendő	8646
sárga	8647
tekintetében	8648
kontroll	8649
kontinens	8650
liverpool	8651
06	8652
mm	8653
tulajd	8654
##ero	8655
##oki	8656
nemes	8657
kijel	8658
##köny	8659
elődönt	8660
helye	8661
##kezik	8662
érthető	8663
műszer	8664
kezében	8665
választmány	8666
kongr	8667
visszafog	8668
németek	8669
óráig	8670
folyamatban	8671
feladatok	8672
tapasztalt	8673
részletesen	8674
havas	8675
pályázati	8676
indokol	8677
szakaszon	8678
##ossá	8679
vitték	8680
lemondott	8681
tarlós	8682
előfordulhat	8683
hektár	8684
arab	8685
gold	8686
hd	8687
lök	8688
lánc	8689
nig	8690
nuk	8691
pól	8692
##fb	8693
##park	8694
##ekció	8695
##osa	8696
##ozs	8697
közúti	8698
##öngy	8699
tartalom	8700
munkája	8701
kism	8702
sorrend	8703
1500	8704
fejlett	8705
180	8706
területek	8707
130	8708
tekinthető	8709
franciaországban	8710
viszonyítva	8711
technológi	8712
tudósok	8713
produkció	8714
öltöz	8715
iránti	8716
##----	8717
bag	8718
dra	8719
null	8720
ox	8721
ráj	8722
ty	8723
xx	8724
öl	8725
##rán	8726
##nője	8727
##áh	8728
elítél	8729
##arak	8730
##izód	8731
##elle	8732
##olgár	8733
##elmény	8734
külügyminisztérium	8735
fiúk	8736
igazgat	8737
látom	8738
egészében	8739
gondot	8740
vonul	8741
tervez	8742
órától	8743
szövetsége	8744
##index	8745
tilos	8746
mértéke	8747
lánya	8748
idézi	8749
házasság	8750
daily	8751
jean	8752
figur	8753
mobiltelefon	8754
hollywood	8755
01	8756
93	8757
bri	8758
fent	8759
iván	8760
rém	8761
ug	8762
vért	8763
nemi	8764
##csics	8765
vallás	8766
prot	8767
pénzintézet	8768
élők	8769
szintet	8770
visszaélés	8771
törvényhoz	8772
figyel	8773
középső	8774
próbálja	8775
hibrid	8776
vonatkozik	8777
indoklás	8778
kizárt	8779
lassú	8780
szombathelyi	8781
drága	8782
ritkán	8783
miskolc	8784
fanta	8785
##udományi	8786
katasztrófavédelmi	8787
racing	8788
pók	8789
tip	8790
##csarnok	8791
felgy	8792
##utak	8793
##ciókat	8794
nyers	8795
álltak	8796
emelés	8797
adatait	8798
telt	8799
szemmel	8800
műanyag	8801
benedek	8802
tárc	8803
##ikusan	8804
vállalt	8805
helyzete	8806
álom	8807
megállapította	8808
válaszolt	8809
dollárral	8810
##front	8811
csodál	8812
sérüléseket	8813
megkérdezett	8814
##hasson	8815
bécsi	8816
óceán	8817
üdvöz	8818
thomas	8819
geszt	8820
kassz	8821
sun	8822
##lit	8823
##üd	8824
##áinak	8825
##óczi	8826
elef	8827
##ésen	8828
felp	8829
##amin	8830
##odtak	8831
##ókra	8832
##letek	8833
részében	8834
##ásokról	8835
időközben	8836
élvonal	8837
komb	8838
maradnak	8839
működési	8840
abba	8841
tettes	8842
trük	8843
jelöltek	8844
mögé	8845
1989	8846
alkat	8847
##aktérium	8848
tartózkod	8849
minimum	8850
vereséget	8851
letartóztat	8852
mérséklőd	8853
követte	8854
robbanás	8855
humor	8856
legendás	8857
bezár	8858
george	8859
britanniában	8860
www	8861
schumach	8862
hc	8863
jak	8864
pető	8865
tú	8866
vilm	8867
xvi	8868
##aw	8869
##pul	8870
##ure	8871
##száll	8872
##ülése	8873
##aid	8874
##állap	8875
magad	8876
mondhat	8877
##lanak	8878
190	8879
buda	8880
tagország	8881
személyek	8882
személyzet	8883
chic	8884
működött	8885
díjas	8886
találkozón	8887
ítélt	8888
anyagot	8889
vásárló	8890
barátnő	8891
##portál	8892
feltételek	8893
blogok	8894
edzője	8895
szakszervezetek	8896
mechan	8897
koncentrál	8898
##ográf	8899
düh	8900
sajtóügyeletese	8901
juhász	8902
02	8903
göd	8904
jen	8905
mr	8906
mp	8907
mu	8908
pas	8909
##náz	8910
##jeként	8911
##éző	8912
##vin	8913
##atni	8914
szij	8915
eleget	8916
##íthatatlan	8917
megtört	8918
##ago	8919
albert	8920
mondván	8921
##éstől	8922
sorsa	8923
törekv	8924
magyarországot	8925
kilogram	8926
ezeknek	8927
gondoltam	8928
hitelm	8929
szabálytalan	8930
fizetési	8931
1997	8932
erőtelj	8933
szlovákiai	8934
bemutatott	8935
##oody	8936
hírügynökségnek	8937
bennünket	8938
juvent	8939
##jártó	8940
##vidék	8941
##pótlás	8942
schmitt	8943
webber	8944
##elikopter	8945
ildikó	8946
báb	8947
fre	8948
hf	8949
hun	8950
luc	8951
pof	8952
pusk	8953
tour	8954
unok	8955
övezet	8956
##gé	8957
##szel	8958
##osnak	8959
##cska	8960
##ságosan	8961
beck	8962
##ölte	8963
vezeték	8964
továbbjut	8965
amerika	8966
összeom	8967
kutatások	8968
percig	8969
szállító	8970
tehera	8971
nyertek	8972
könyvek	8973
hozzátart	8974
vállalkozó	8975
rendezik	8976
szépség	8977
szalai	8978
##astély	8979
lovas	8980
valahol	8981
jöhet	8982
bocsán	8983
abszolút	8984
kongressz	8985
ec	8986
ku	8987
kok	8988
lo	8989
plet	8990
pic	8991
##vevő	8992
##zuk	8993
##hős	8994
szolg	8995
##árak	8996
##orosz	8997
##akadt	8998
##esc	8999
megalak	9000
csecs	9001
ezáltal	9002
##uters	9003
márton	9004
##ábban	9005
részesed	9006
jelentése	9007
időnként	9008
változik	9009
##esítő	9010
nincsen	9011
eredményes	9012
vélekedett	9013
túlzott	9014
órákban	9015
földgáz	9016
találkozót	9017
irodalmi	9018
fogyasztás	9019
ideális	9020
elfogadta	9021
##grád	9022
varázs	9023
avat	9024
tömör	9025
judit	9026
nukle	9027
putyin	9028
rut	9029
víg	9030
##latot	9031
##cím	9032
##por	9033
##őre	9034
##olást	9035
##bben	9036
szert	9037
közti	9038
kiszolgál	9039
##odni	9040
aratott	9041
átfogó	9042
építés	9043
esetek	9044
oktat	9045
támogatta	9046
címlap	9047
fiatalabb	9048
elfogták	9049
történetét	9050
komolyabb	9051
készülnek	9052
lányok	9053
cserébe	9054
dokumentumok	9055
tranz	9056
bántalmaz	9057
valutaalap	9058
tulajdonság	9059
dj	9060
don	9061
pinc	9062
rág	9063
##dög	9064
##lettel	9065
##zy	9066
##puszt	9067
##ane	9068
##ésről	9069
##ozdul	9070
kiesett	9071
##cium	9072
állított	9073
##ókban	9074
ellenáll	9075
kormányszóviv	9076
alapító	9077
emberöl	9078
akkora	9079
jogállam	9080
start	9081
##cks	9082
fejér	9083
játékot	9084
##ikailag	9085
kitör	9086
földön	9087
elfoglal	9088
vádat	9089
epizód	9090
kommunikáció	9091
abaúj	9092
fernand	9093
elefánt	9094
bolgár	9095
dug	9096
fit	9097
kh	9098
##rov	9099
##tal	9100
##pan	9101
egyeztetés	9102
meghoz	9103
##apság	9104
##nyik	9105
bejut	9106
nagyság	9107
csakhogy	9108
mondom	9109
sorra	9110
jogot	9111
lennének	9112
játékok	9113
megtiszt	9114
biztosított	9115
költségek	9116
szabálysért	9117
használható	9118
kihallgat	9119
állapota	9120
iskolában	9121
számíthat	9122
fogadja	9123
manapság	9124
ellátó	9125
eszter	9126
dunaúj	9127
vitte	9128
szomszédos	9129
##kutató	9130
ilyes	9131
szokatlan	9132
bundes	9133
fantasztikus	9134
non	9135
sark	9136
tért	9137
##uártól	9138
##anna	9139
szm	9140
szu	9141
##esülés	9142
##ezlet	9143
egyfajta	9144
megind	9145
##itást	9146
##tabb	9147
szerez	9148
ezekben	9149
koron	9150
többé	9151
##ításához	9152
##eiből	9153
##ásainak	9154
részleg	9155
körös	9156
főszerk	9157
##vezeték	9158
világot	9159
embere	9160
döntését	9161
összeállítás	9162
megtekint	9163
hajr	9164
##antól	9165
kereső	9166
túli	9167
filmek	9168
vízszint	9169
##mérő	9170
##meleg	9171
felhasználók	9172
szolgáltatást	9173
óvod	9174
tűzoltó	9175
szobr	9176
májusban	9177
minőségű	9178
tökéletesen	9179
##irodalom	9180
elkötel	9181
kecskeméti	9182
helyszíni	9183
genetikai	9184
marketing	9185
lip	9186
pitt	9187
rez	9188
önök	9189
##rek	9190
##ire	9191
##lását	9192
##arett	9193
köze	9194
felmond	9195
akadt	9196
bevándor	9197
##hatták	9198
összhang	9199
ügynökség	9200
reuters	9201
járat	9202
##viselők	9203
mérg	9204
vélik	9205
kital	9206
lapok	9207
földi	9208
nyilatkozat	9209
tőlük	9210
extr	9211
próbálják	9212
bírál	9213
elkövető	9214
eto	9215
pszáf	9216
elkészült	9217
frakcióvezető	9218
összefüggésben	9219
napjaink	9220
erej	9221
##történet	9222
szurkolók	9223
margit	9224
plakát	9225
vilmos	9226
nukleáris	9227
03	9228
hy	9229
hoff	9230
kastély	9231
ser	9232
zal	9233
##zavar	9234
##way	9235
##arag	9236
szerette	9237
tudás	9238
hoztak	9239
##émium	9240
vezetőjét	9241
túlságosan	9242
##usztr	9243
hónapok	9244
meghird	9245
kutatási	9246
szembeni	9247
270	9248
fokoz	9249
gépkocsi	9250
növekedési	9251
vendéglát	9252
kiadvány	9253
##ferencia	9254
listán	9255
szomorú	9256
jelentkezett	9257
zenei	9258
szabadságveszt	9259
gyakorlati	9260
kosárlabda	9261
bosz	9262
sr	9263
##hegy	9264
##energ	9265
szülés	9266
elkül	9267
##ikával	9268
köd	9269
kiszab	9270
##őke	9271
végleg	9272
##kelet	9273
rendőri	9274
stúdió	9275
rendszerbe	9276
vállalta	9277
##etésre	9278
mentek	9279
##száml	9280
110	9281
oldalt	9282
kedvéért	9283
elvileg	9284
140	9285
bűnügyi	9286
egyetemen	9287
##kerék	9288
brav	9289
obj	9290
küzdelem	9291
elbocsát	9292
várakozások	9293
vizsgált	9294
##üveg	9295
terjedő	9296
brüssz	9297
nyolcadik	9298
táplálkoz	9299
félidőben	9300
kinek	9301
krón	9302
mus	9303
ult	9304
velem	9305
##iót	9306
##íciót	9307
##óni	9308
##ena	9309
szp	9310
megal	9311
##edni	9312
##csere	9313
felidéz	9314
##agn	9315
##ague	9316
##ságra	9317
emel	9318
érő	9319
##obban	9320
##kezési	9321
##ményt	9322
mindenféle	9323
műfaj	9324
követett	9325
##atokban	9326
##ation	9327
másodfokú	9328
javult	9329
keresnek	9330
célt	9331
kérdésünkre	9332
christ	9333
szavazat	9334
holott	9335
republik	9336
izland	9337
vásárolt	9338
parti	9339
századi	9340
megprób	9341
csatlakozott	9342
világbajnokságon	9343
kellemes	9344
születésnap	9345
franciák	9346
oszk	9347
vajd	9348
##iával	9349
##mat	9350
##hont	9351
##env	9352
##eret	9353
##erre	9354
##ála	9355
##adik	9356
előseg	9357
százalékról	9358
##rigy	9359
##ical	9360
gondolt	9361
##képvis	9362
területet	9363
tanácskoz	9364
repr	9365
nézők	9366
forgalomba	9367
fenntartható	9368
tartományban	9369
dízel	9370
alábbi	9371
közgazdász	9372
juventus	9373
cm	9374
cont	9375
fekt	9376
pav	9377
raf	9378
wind	9379
##yer	9380
##yan	9381
##óv	9382
szűr	9383
##ikon	9384
##ámadás	9385
beoszt	9386
beind	9387
##usa	9388
##ród	9389
##ájáról	9390
kapható	9391
##ósok	9392
bizonnyal	9393
követelmény	9394
általuk	9395
brut	9396
szóban	9397
betét	9398
segíti	9399
chil	9400
hitelek	9401
apa	9402
kalap	9403
érdemi	9404
szorg	9405
visszatért	9406
események	9407
cigarett	9408
vártnál	9409
kanada	9410
üzemeltető	9411
művelőd	9412
capital	9413
bonyolult	9414
bűntett	9415
detro	9416
kikapott	9417
horn	9418
jenő	9419
kc	9420
kint	9421
mélt	9422
sir	9423
zemp	9424
##mod	9425
##meccs	9426
##enza	9427
kövér	9428
megn	9429
##éta	9430
##inte	9431
##ulin	9432
##ánya	9433
league	9434
##ello	9435
utak	9436
##ájába	9437
##ításában	9438
amelyből	9439
szemtan	9440
műve	9441
igazából	9442
##felől	9443
költő	9444
##osságot	9445
hangul	9446
célpont	9447
szociál	9448
elsej	9449
demszky	9450
finál	9451
gépek	9452
feladatot	9453
fotók	9454
kényelm	9455
pannon	9456
villa	9457
papp	9458
híján	9459
rablás	9460
védelme	9461
próbált	9462
lendvai	9463
##opping	9464
funkció	9465
boksz	9466
konyh	9467
agresszív	9468
mclaren	9469
szijjártó	9470
faz	9471
fant	9472
kra	9473
mocs	9474
##ivel	9475
##n1	9476
##lad	9477
##zá	9478
##;"	9479
##olas	9480
##ségre	9481
##oty	9482
##nyolc	9483
előfizet	9484
##idej	9485
marc	9486
ahonnan	9487
választást	9488
valamely	9489
elnökének	9490
elnökválaszt	9491
írni	9492
példát	9493
mennek	9494
vona	9495
támogatott	9496
keresni	9497
helyzetét	9498
gondolat	9499
középpont	9500
futott	9501
barátja	9502
fehérorosz	9503
műsorában	9504
szlovákia	9505
szokott	9506
szerencsés	9507
szerepelnek	9508
##kerek	9509
intézkedéseket	9510
ausztria	9511
királyi	9512
hajtott	9513
szilárd	9514
color	9515
endre	9516
##orld	9517
eljuttat	9518
republikán	9519
eközben	9520
fü	9521
poh	9522
ráját	9523
szk	9524
##üld	9525
##íthető	9526
állni	9527
mindaz	9528
számot	9529
átadás	9530
kezelő	9531
olykor	9532
##eztelen	9533
árnyék	9534
írják	9535
vonzó	9536
segített	9537
##ossági	9538
##eletes	9539
hajlam	9540
keresik	9541
franc	9542
nyugdíjba	9543
megvizsgál	9544
##ulladt	9545
erőfesz	9546
leminős	9547
olimpi	9548
fedezet	9549
legtöbben	9550
közepes	9551
korea	9552
class	9553
bevezetése	9554
mindezek	9555
ragaszkod	9556
szurkoló	9557
maximum	9558
elutasította	9559
##parancs	9560
megdöbb	9561
berlini	9562
szilveszter	9563
zaklat	9564
belgium	9565
off	9566
páci	9567
tig	9568
zavart	9569
##kir	9570
##űri	9571
##vére	9572
aznap	9573
megkülönb	9574
felirat	9575
esedék	9576
##eját	9577
helyezték	9578
kapták	9579
privat	9580
virt	9581
##ácsi	9582
kezdi	9583
fejét	9584
##özt	9585
##díjat	9586
kereset	9587
##hone	9588
jegyban	9589
parlamentbe	9590
honvédelmi	9591
levő	9592
megbeteg	9593
##úszott	9594
piacok	9595
belüli	9596
őriz	9597
##tartó	9598
hatósági	9599
októberi	9600
panaszkod	9601
hibás	9602
szokás	9603
szövetségének	9604
felhasználó	9605
##rajzi	9606
akartak	9607
engedélyt	9608
ellenfele	9609
juni	9610
lelkes	9611
gumi	9612
sújtotta	9613
mutatták	9614
nasa	9615
előrelép	9616
párhuzamosan	9617
infrastrukt	9618
schumacher	9619
hitelminős	9620
bost	9621
baktérium	9622
ga	9623
jour	9624
merült	9625
vékony	9626
##rat	9627
##lav	9628
##fil	9629
##uer	9630
##szav	9631
##embe	9632
##áld	9633
##ikkal	9634
##ülnek	9635
##csik	9636
amiket	9637
nagyot	9638
mégpedig	9639
##ításáról	9640
végez	9641
anélkül	9642
értem	9643
alapított	9644
visszaj	9645
amiatt	9646
szerepét	9647
hazud	9648
zsar	9649
eredményeként	9650
##ezésre	9651
kérdéses	9652
családok	9653
hagyott	9654
##mérkőz	9655
gyerekeket	9656
gyorsabb	9657
ismerte	9658
kihird	9659
dollárra	9660
##pálya	9661
indokolt	9662
láthatóan	9663
milán	9664
##nyugati	9665
ajánlatot	9666
bulg	9667
remekül	9668
stratégi	9669
iszap	9670
mindkettő	9671
elindult	9672
diktat	9673
lámp	9674
roland	9675
rájátsz	9676
..	9677
bicik	9678
mour	9679
##sson	9680
##űk	9681
##hessen	9682
##eron	9683
##ancia	9684
elönt	9685
kiép	9686
ezeken	9687
##épp	9688
érv	9689
kaphat	9690
épített	9691
##esített	9692
dolga	9693
##képzés	9694
##rendelet	9695
otthont	9696
nyomozók	9697
célra	9698
célba	9699
erősítette	9700
velünk	9701
ördög	9702
mutatta	9703
gólp	9704
csoportos	9705
középiskol	9706
##almasabb	9707
1996	9708
rendelkezés	9709
##minisztr	9710
utazás	9711
ígért	9712
##érdem	9713
megmarad	9714
michel	9715
kétszeres	9716
idegenben	9717
nemrégiben	9718
kerékpár	9719
kerékpáros	9720
hatályos	9721
vonalon	9722
josé	9723
fürdő	9724
felszerelt	9725
rogán	9726
zemplén	9727
dis	9728
golf	9729
lim	9730
##))	9731
##itása	9732
kifog	9733
##egyet	9734
éreztem	9735
##ükkel	9736
##asztja	9737
számunkra	9738
bizalom	9739
##őrség	9740
munkab	9741
intell	9742
igazolt	9743
##eztük	9744
tanús	9745
jogát	9746
reális	9747
írország	9748
négyes	9749
hivat	9750
támogatási	9751
##elésre	9752
megszavaz	9753
vizsgáló	9754
kitűn	9755
##ológusok	9756
irányuló	9757
istálló	9758
ferih	9759
hamilton	9760
szervek	9761
1992	9762
növekedése	9763
értelme	9764
turisztikai	9765
lényege	9766
becslések	9767
beruházások	9768
megjelenő	9769
kopog	9770
ítéletet	9771
influ	9772
vallási	9773
afgán	9774
ügyfelek	9775
télen	9776
ukrajna	9777
navra	9778
háborús	9779
nyelven	9780
gabriella	9781
##díja	9782
csongrád	9783
h1	9784
honda	9785
us	9786
##ruh	9787
##kin	9788
##irt	9789
##ube	9790
##ösz	9791
##sziget	9792
##itását	9793
feláll	9794
##ázás	9795
lefoglal	9796
##elli	9797
##este	9798
kaptam	9799
műhely	9800
világkup	9801
szintre	9802
társas	9803
##ességgel	9804
nyomoz	9805
házkutat	9806
##antikus	9807
alkalmából	9808
decemberi	9809
forgó	9810
foglalkoztatás	9811
halálra	9812
anyagok	9813
hallg	9814
egyenesen	9815
egyenlő	9816
éjfél	9817
híre	9818
jöttek	9819
gyűjtött	9820
ekkora	9821
erősödés	9822
##ezze	9823
rendezvényen	9824
gyilkos	9825
szolid	9826
befolyásolja	9827
lebonyol	9828
roham	9829
recept	9830
totalcar	9831
megszólal	9832
narancs	9833
közelmúltban	9834
gyermeket	9835
böng	9836
doc	9837
gh	9838
jéz	9839
kf	9840
pert	9841
##sük	9842
##ste	9843
##megy	9844
##éveszt	9845
##zan	9846
##zál	9847
megseb	9848
##áty	9849
##ado	9850
##reform	9851
##aiból	9852
##hetne	9853
##szert	9854
kortárs	9855
magyarul	9856
adag	9857
adminisztr	9858
számtalan	9859
kétezer	9860
amelyre	9861
magunkat	9862
újonnan	9863
főt	9864
kispad	9865
időn	9866
különben	9867
##ico	9868
cégnek	9869
ötszáz	9870
keresett	9871
segítő	9872
kérdések	9873
univers	9874
növekvő	9875
megfelel	9876
szövetséges	9877
hiányában	9878
történetében	9879
gyűr	9880
##ucc	9881
rövidebb	9882
tölti	9883
bármikor	9884
vagyonkezelő	9885
jártak	9886
meghaladta	9887
munkáltató	9888
drámai	9889
szarvas	9890
életveszélyes	9891
jeges	9892
street	9893
eleinte	9894
journal	9895
dz	9896
fis	9897
gul	9898
moody	9899
sev	9900
ősi	9901
##mint	9902
##hold	9903
##atőr	9904
##ezent	9905
##adel	9906
##ségeket	9907
szerelvény	9908
beáll	9909
##elmét	9910
mindenhol	9911
viadal	9912
akivel	9913
iratok	9914
joga	9915
járvány	9916
visszahív	9917
játékost	9918
törvénymódosítás	9919
tulajdonában	9920
1993	9921
miniszterelnöki	9922
##anyagot	9923
horvátország	9924
becsület	9925
fellend	9926
században	9927
könyvel	9928
inflációs	9929
mosoly	9930
munkáltat	9931
résztvevők	9932
erőszakos	9933
pszichiát	9934
britannia	9935
vicces	9936
mkb	9937
felsőoktatási	9938
bent	9939
cla	9940
camp	9941
sereg	9942
tek	9943
wood	9944
##íni	9945
##30	9946
##arend	9947
##itól	9948
##omban	9949
amin	9950
adri	9951
##ájából	9952
arch	9953
fifa	9954
olyanok	9955
idővel	9956
kezdeni	9957
életre	9958
természeti	9959
eltör	9960
foglaltak	9961
hónapjában	9962
negyeddöntő	9963
adófizet	9964
helyettese	9965
tizenhat	9966
magyarázza	9967
kolont	9968
változatlan	9969
##ifik	9970
##forgalmi	9971
##állomás	9972
kósa	9973
louis	9974
csecsem	9975
navracsics	9976
h1n1	9977
bátor	9978
dől	9979
mas	9980
tás	9981
vetett	9982
vacs	9983
ász	9984
##kapcsol	9985
##kovics	9986
##jek	9987
##vert	9988
##felt	9989
##árok	9990
##eger	9991
##ítenek	9992
##apt	9993
kivet	9994
lejárt	9995
##odást	9996
jelzés	9997
##óka	9998
jelentő	9999
