<unk>	0
<s>	0
</s>	0
▁a	-3.23667
▁,	-3.46663
▁.	-3.96362
▁t	-4.11244
t	-4.3318
▁-	-4.44521
▁i	-4.46138
▁az	-4.4808
▁és	-4.71105
▁m	-4.71549
▁A	-4.84316
i	-4.86948
á	-4.87238
▁k	-4.97056
▁sz	-4.97609
o	-4.99596
▁s	-5.03962
▁h	-5.0915
z	-5.12376
▁v	-5.16432
▁egy	-5.17072
e	-5.1771
▁n	-5.19948
▁is	-5.21133
▁meg	-5.22153
▁e	-5.23904
k	-5.29767
n	-5.31217
▁hogy	-5.31772
▁szer	-5.34061
▁el	-5.3608
s	-5.36538
l	-5.43007
▁f	-5.45009
▁ó	-5.49218
▁0	-5.51757
▁nem	-5.52321
g	-5.53565
▁ki	-5.54515
a	-5.59639
▁1	-5.63579
▁ban	-5.66057
▁ek	-5.70025
▁et	-5.71512
▁ny	-5.71683
▁M	-5.75105
▁l	-5.77734
▁ok	-5.77962
é	-5.80219
▁2	-5.80991
▁ben	-5.81372
▁ő	-5.82514
▁be	-5.84236
▁"	-5.85944
▁en	-5.85983
▁fel	-5.89765
▁re	-5.89965
▁:	-5.90031
▁nak	-5.90226
▁o	-5.92849
▁kö	-5.9402
▁ás	-5.94132
▁S	-6.01771
▁ett	-6.03355
▁le	-6.05408
▁on	-6.06968
▁ott	-6.07753
▁K	-6.09982
▁es	-6.12379
▁ra	-6.14971
▁Az	-6.15115
▁b	-6.16689
▁(	-6.177
▁r	-6.18411
▁nek	-6.19092
▁int	-6.20268
▁)	-6.20334
▁B	-6.243
p	-6.25187
v	-6.26621
▁ja	-6.28161
▁F	-6.30252
▁ni	-6.30514
▁ik	-6.31556
▁T	-6.3213
▁E	-6.32764
▁rend	-6.36058
▁át	-6.36563
▁te	-6.38716
,	-6.45844
▁de	-6.46652
▁P	-6.47225
▁H	-6.49049
▁c	-6.50454
▁os	-6.52079
▁jelen	-6.52621
▁9	-6.53264
▁agyar	-6.53337
▁ság	-6.54786
▁ség	-6.56486
▁ez	-6.56793
▁tart	-6.57058
▁V	-6.57489
▁csa	-6.5771
.	-6.57988
▁lt	-6.58546
▁leg	-6.58724
▁er	-6.58789
▁volt	-6.59121
▁3	-6.5986
▁G	-6.59945
▁már	-6.60089
▁ot	-6.60253
▁hely	-6.63626
▁N	-6.64979
▁L	-6.65337
▁g	-6.67055
▁5	-6.67258
▁é	-6.68499
▁ak	-6.68512
▁z	-6.69038
d	-6.69367
▁an	-6.71027
▁p	-6.71644
en	-6.72491
▁at	-6.7251
▁több	-6.72987
▁I	-6.73269
ő	-6.73455
▁nagy	-6.74129
m	-6.74197
▁ember	-6.74776
ó	-6.74884
▁á	-6.7558
▁ha	-6.75617
▁új	-6.75701
▁4	-6.77265
▁még	-6.78859
▁R	-6.79451
r	-6.80545
▁rszág	-6.81566
▁ét	-6.83042
▁kor	-6.83968
▁hat	-6.84601
▁van	-6.84938
▁két	-6.85344
▁száz	-6.8575
▁8	-6.87095
sz	-6.87416
kor	-6.87875
ű	-6.88106
▁kell	-6.88495
▁6	-6.90419
▁lehet	-6.9055
ik	-6.90935
▁mint	-6.9101
▁ellen	-6.91211
▁ér	-6.91762
▁ügy	-6.92058
▁d	-6.92623
f	-6.93421
▁C	-6.9403
▁amely	-6.94162
▁vá	-6.96348
▁össze	-6.98013
▁7	-6.98305
▁ta	-6.98953
▁köz	-6.99998
▁D	-7.01333
u	-7.0149
▁ú	-7.0237
▁J	-7.03004
▁szám	-7.04241
illi	-7.04356
▁év	-7.05416
▁tud	-7.05753
▁más	-7.06104
▁azt	-7.06122
▁u	-7.06721
▁után	-7.08005
▁ű	-7.08647
▁sem	-7.08698
▁ko	-7.08851
▁fog	-7.09013
▁vagy	-7.1034
▁ba	-7.1199
y	-7.13933
▁kép	-7.14859
er	-7.15806
▁lék	-7.16539
▁O	-7.17302
▁szak	-7.18276
▁kül	-7.18369
▁Sz	-7.18549
▁án	-7.19417
▁él	-7.19993
gy	-7.20059
▁pedi	-7.20098
▁val	-7.20545
▁elő	-7.20669
▁tette	-7.21187
▁tett	-7.21679
▁nap	-7.22147
▁em	-7.23031
dta	-7.23104
▁tak	-7.23166
▁cs	-7.23266
▁ként	-7.23566
▁első	-7.2405
▁fori	-7.24233
▁áll	-7.24265
▁ebb	-7.25488
▁idő	-7.2567
▁ében	-7.26735
▁ai	-7.26795
▁eket	-7.2861
▁alap	-7.2866
h	-7.29846
vé	-7.30073
▁okat	-7.30162
▁lát	-7.30176
b	-7.30796
▁ról	-7.31364
▁ból	-7.31815
▁í	-7.32629
j	-7.3287
▁unk	-7.32991
▁kap	-7.33081
▁ít	-7.33578
▁inden	-7.33656
▁ig	-7.33664
▁ve	-7.33834
▁ikai	-7.33948
▁követ	-7.35307
om	-7.35581
▁aki	-7.35979
▁miatt	-7.36149
▁ul	-7.3627
▁tör	-7.36346
▁korm	-7.36584
▁majd	-7.37311
▁fő	-7.37503
▁y	-7.3759
▁rész	-7.38011
▁bi	-7.38191
▁igaz	-7.38242
▁úgy	-7.39791
▁kerü	-7.39954
▁al	-7.40355
▁abb	-7.40398
▁lasz	-7.40655
▁való	-7.40663
▁lesz	-7.40998
▁kal	-7.41053
▁ol	-7.4128
▁ezet	-7.41703
▁pro	-7.42335
▁ják	-7.42385
▁hoz	-7.42581
▁állam	-7.42781
el	-7.44256
▁sok	-7.44583
örté	-7.44874
▁lés	-7.44977
▁ad	-7.44989
▁mi	-7.4514
▁állí	-7.45651
▁ták	-7.45875
▁világ	-7.46392
▁ü	-7.46481
▁ható	-7.46617
▁ött	-7.47191
▁ről	-7.47759
▁én	-7.47911
▁issza	-7.48117
mer	-7.48406
▁kezd	-7.49228
▁eset	-7.49329
▁álla	-7.49565
▁ezető	-7.50398
▁zött	-7.50468
▁ugya	-7.51125
▁elnök	-7.51141
▁ből	-7.51508
▁ért	-7.51653
▁je	-7.5171
▁így	-7.52541
▁?	-7.52776
▁vég	-7.53386
▁kat	-7.53596
▁olya	-7.5378
▁ünk	-7.53801
▁fél	-7.54283
▁ük	-7.55307
▁mind	-7.55338
í	-7.55381
▁mert	-7.55624
▁vel	-7.55723
▁ei	-7.56106
▁tól	-7.56296
▁előtt	-7.56417
▁ilyen	-7.56437
▁jó	-7.56589
alál	-7.5665
▁keres	-7.57018
▁ami	-7.57074
▁j	-7.58506
▁rá	-7.58672
▁tés	-7.5878
et	-7.59047
▁ön	-7.59166
▁ában	-7.59318
▁ne	-7.59988
▁jog	-7.6011
mé	-7.60619
▁ár	-7.61601
▁által	-7.6163
▁nt	-7.62273
▁díj	-7.62377
▁nál	-7.6302
kez	-7.63728
▁ked	-7.64141
▁tek	-7.6422
▁ia	-7.65647
▁onban	-7.65722
ön	-7.65739
▁ille	-7.65797
▁dönt	-7.66052
▁véd	-7.66192
▁hár	-7.66232
▁va	-7.66427
▁poli	-7.67331
▁vesz	-7.68965
▁mell	-7.68988
▁etlen	-7.69095
▁mond	-7.69145
▁tár	-7.69509
ováb	-7.69579
▁ház	-7.69593
▁pont	-7.69634
▁zó	-7.6979
▁adó	-7.69922
▁érde	-7.70005
▁ozzá	-7.70511
▁uk	-7.70722
▁om	-7.71169
▁mű	-7.71217
▁autó	-7.71572
al	-7.71693
ra	-7.71981
▁től	-7.72031
▁inté	-7.72375
▁Nem	-7.72744
▁ani	-7.73473
▁éves	-7.74062
▁W	-7.74862
▁munka	-7.75286
▁sít	-7.75286
▁ének	-7.75364
▁uta	-7.75364
▁gazda	-7.75478
▁ezer	-7.76371
▁bizt	-7.7675
▁dolg	-7.76854
ély	-7.77076
▁ját	-7.77956
▁ére	-7.78126
▁ikus	-7.78213
on	-7.78229
▁tér	-7.78372
▁ju	-7.78757
▁nő	-7.78962
▁Egy	-7.79627
▁hez	-7.79936
▁szín	-7.80348
▁élet	-7.80494
▁ása	-7.80689
▁város	-7.82478
▁ának	-7.82773
▁sapat	-7.83384
▁zás	-7.83495
▁egész	-7.83866
▁most	-7.84014
▁kapc	-7.84074
▁ték	-7.84484
▁mutat	-7.84692
▁zet	-7.84923
▁ára	-7.86071
▁zott	-7.86448
▁nyil	-7.865
▁nyi	-7.8651
▁arra	-7.86724
▁het	-7.86728
▁Ez	-7.86882
re	-7.86887
▁as	-7.86934
▁öt	-7.87138
▁cím	-7.87262
▁párt	-7.8735
▁aszn	-7.87521
▁pénz	-7.87927
▁árd	-7.8808
▁gond	-7.88157
▁mény	-7.88227
▁nyug	-7.88757
▁ció	-7.89143
▁mér	-7.89289
▁kérd	-7.89333
▁férfi	-7.89722
▁nél	-7.89896
os	-7.90325
▁játék	-7.90681
▁tás	-7.90765
an	-7.90829
▁ered	-7.91395
▁siker	-7.91423
▁oszt	-7.91504
▁vált	-7.91729
▁min	-7.92068
▁elem	-7.9226
▁gyer	-7.92337
▁hang	-7.92345
▁ló	-7.92616
▁ös	-7.92675
▁nk	-7.93201
▁Ha	-7.93536
▁társa	-7.93646
▁ing	-7.93873
▁fize	-7.94001
▁bo	-7.94621
ü	-7.94665
▁emel	-7.94763
▁szt	-7.95114
▁ély	-7.96376
▁!	-7.96515
▁óta	-7.96596
▁ku	-7.96847
▁érték	-7.96853
agy	-7.97185
▁jár	-7.9738
▁kis	-7.97383
▁juk	-7.97522
tö	-7.97562
▁haj	-7.97981
▁ál	-7.9806
▁lap	-7.98082
▁Á	-7.98183
▁sen	-7.98602
▁inte	-7.98646
▁ezt	-7.98945
▁visz	-7.996
▁veze	-7.99634
▁alatt	-7.9975
▁atlan	-7.99828
▁volna	-7.99916
▁lő	-8.00813
▁nyom	-8.00983
észü	-8.01321
▁for	-8.01495
▁csö	-8.01761
▁adat	-8.02613
▁est	-8.03288
▁ján	-8.03334
köd	-8.03448
zek	-8.03588
▁kér	-8.03759
ikor	-8.03776
▁jegy	-8.03879
▁koz	-8.03894
▁ül	-8.04243
▁négy	-8.04334
▁erős	-8.04344
▁oldal	-8.04737
▁jöv	-8.0477
▁túl	-8.04854
▁elmi	-8.04941
emé	-8.05384
▁otta	-8.05449
▁kon	-8.05478
▁ltség	-8.05807
▁terv	-8.06233
▁súly	-8.06282
▁jel	-8.06726
▁besz	-8.06947
▁idesz	-8.07053
▁tő	-8.07261
▁let	-8.07396
▁neve	-8.07711
▁sor	-8.07765
▁ék	-8.07849
▁közel	-8.08476
▁rt	-8.08601
▁or	-8.0877
▁ási	-8.08952
▁vétel	-8.09044
▁euró	-8.09239
▁verse	-8.09512
▁akik	-8.09579
erül	-8.09709
c	-8.10005
▁út	-8.10098
alam	-8.10647
▁lni	-8.11033
áb	-8.11216
▁cél	-8.11477
▁itt	-8.11575
▁mány	-8.1166
uróp	-8.11758
▁ütt	-8.11828
▁támo	-8.12057
▁Z	-8.12145
▁olat	-8.12384
▁ide	-8.12765
ló	-8.13118
▁amer	-8.13203
▁kar	-8.13394
nnyi	-8.13612
▁bizo	-8.13613
▁ment	-8.13649
▁tele	-8.14023
▁eg	-8.14462
▁De	-8.14462
▁ások	-8.1493
▁egye	-8.14946
▁pár	-8.15345
▁álto	-8.15457
▁ók	-8.1563
▁méter	-8.15724
▁film	-8.15729
▁sal	-8.15733
▁já	-8.15894
▁győ	-8.15905
▁péld	-8.1613
▁magá	-8.16132
▁akar	-8.16635
▁hét	-8.16904
élkü	-8.17468
▁saj	-8.1767
▁indul	-8.1784
▁jobb	-8.17915
▁tiszt	-8.17957
▁cég	-8.18209
▁szó	-8.18387
▁jav	-8.18885
cs	-8.19297
▁szter	-8.19338
▁lis	-8.19371
▁marad	-8.19466
▁víz	-8.19483
▁sí	-8.19791
▁föld	-8.19868
▁ro	-8.20207
▁son	-8.20229
▁olyam	-8.20267
anem	-8.20419
▁munk	-8.20498
int	-8.20702
▁bel	-8.20706
▁tott	-8.2143
▁kez	-8.21456
▁term	-8.21656
▁nincs	-8.22021
▁gép	-8.22022
▁szem	-8.22048
▁piac	-8.22058
▁atás	-8.22495
▁/	-8.22743
ad	-8.22746
ta	-8.22831
▁alom	-8.23301
▁Cs	-8.23364
▁múl	-8.23605
▁máso	-8.23764
▁szab	-8.24101
▁álat	-8.2431
▁ével	-8.24525
▁szet	-8.24673
▁iselő	-8.2478
▁ották	-8.24781
▁ató	-8.2481
▁di	-8.25024
▁ően	-8.2538
▁olva	-8.25632
ze	-8.2578
▁igyel	-8.25916
▁lak	-8.26003
▁alma	-8.2618
▁zölte	-8.26192
▁ám	-8.26249
▁bajn	-8.26577
▁fej	-8.26667
▁od	-8.26686
▁elm	-8.26799
▁erő	-8.26991
▁adás	-8.27448
ül	-8.27793
▁lett	-8.2787
▁nyer	-8.28168
▁vas	-8.28576
▁zta	-8.28788
▁ozta	-8.28873
▁anna	-8.28939
▁fogad	-8.29071
▁tlen	-8.29157
▁ükség	-8.2928
▁olt	-8.29503
ked	-8.29525
▁azért	-8.29552
ény	-8.29578
▁azok	-8.29675
▁vár	-8.29847
▁tol	-8.29888
▁atár	-8.29929
es	-8.29955
▁ír	-8.30135
▁fu	-8.3031
▁áz	-8.30326
▁egyed	-8.30578
▁ező	-8.30706
▁keze	-8.30738
▁ső	-8.30853
íg	-8.31072
▁eddig	-8.31118
▁zs	-8.31271
▁tat	-8.31365
▁ném	-8.31422
▁hív	-8.31609
▁előre	-8.31612
▁Kö	-8.32006
▁tag	-8.3209
▁É	-8.32117
▁perc	-8.32175
▁ontos	-8.32638
opo	-8.32842
▁őr	-8.33124
▁tköz	-8.33613
▁növe	-8.33732
▁gram	-8.33745
▁kken	-8.33795
▁lép	-8.33864
▁hír	-8.33991
▁anyag	-8.34268
▁test	-8.34338
▁Buda	-8.3464
hol	-8.34993
▁ed	-8.35191
vaz	-8.35293
▁sági	-8.35427
▁polg	-8.35518
ér	-8.35755
▁armad	-8.35997
▁net	-8.36904
▁zár	-8.37346
▁gyen	-8.37371
ező	-8.37377
▁ezér	-8.37439
▁dél	-8.3759
or	-8.37616
▁bár	-8.37826
▁bal	-8.37889
elje	-8.38029
ö	-8.3819
▁bb	-8.38297
▁ottak	-8.38594
▁gyak	-8.38884
rány	-8.39129
▁ály	-8.39205
▁ci	-8.39223
▁hóna	-8.3933
▁ült	-8.39367
▁san	-8.39459
▁néz	-8.39474
▁MNO	-8.39806
ch	-8.40013
▁kár	-8.40443
▁könyv	-8.40481
▁nev	-8.40602
▁salád	-8.40897
▁társ	-8.4099
▁bíró	-8.41042
▁szül	-8.41168
▁függ	-8.41578
▁men	-8.41793
▁telen	-8.41805
▁tam	-8.41955
▁haza	-8.42011
▁prób	-8.42127
▁;	-8.4215
▁jé	-8.42236
▁ö	-8.42287
▁csü	-8.42343
▁ket	-8.42539
▁ális	-8.42577
▁arró	-8.42625
▁őség	-8.42662
▁eit	-8.42912
▁si	-8.43137
szen	-8.43303
▁őrség	-8.4332
▁ése	-8.43334
▁részt	-8.43429
▁Al	-8.4359
▁tem	-8.44192
▁per	-8.44215
▁nisz	-8.44889
▁jelöl	-8.44942
▁tős	-8.45155
▁maga	-8.45487
▁kedés	-8.45514
▁Me	-8.45604
▁öl	-8.46108
só	-8.46155
▁magas	-8.46329
▁U	-8.46435
▁sajtó	-8.4649
▁ök	-8.46795
▁bank	-8.46914
▁ülés	-8.4702
▁lás	-8.47108
▁képes	-8.47227
▁kutat	-8.47396
az	-8.47407
▁sony	-8.47441
▁gól	-8.47558
▁kívül	-8.47896
▁ex	-8.48146
▁sel	-8.48533
▁iká	-8.48832
▁ával	-8.48871
▁orsz	-8.49021
▁abály	-8.49658
▁oros	-8.49663
▁ekkel	-8.49947
▁adott	-8.50086
▁tulaj	-8.50398
át	-8.50488
olg	-8.505
▁zik	-8.50717
▁ri	-8.50967
▁emzet	-8.51026
észí	-8.51182
lkal	-8.51394
hány	-8.51401
▁ámára	-8.51527
▁ly	-8.51569
ar	-8.51595
▁épí	-8.51612
▁játs	-8.51984
▁am	-8.52086
▁kedv	-8.52094
▁amit	-8.521
▁jú	-8.52147
▁akad	-8.52525
▁kedd	-8.52713
▁tség	-8.52933
▁indi	-8.53184
▁járás	-8.53943
▁tájé	-8.54019
▁Mi	-8.54139
aval	-8.54198
▁órá	-8.54521
nek	-8.54543
▁ttság	-8.54743
éb	-8.54988
▁hiva	-8.54991
nkáb	-8.55164
▁etet	-8.55508
▁szól	-8.55539
▁utób	-8.55629
▁ma	-8.55832
▁ésé	-8.55875
▁teni	-8.55902
kár	-8.56297
▁ov	-8.56532
▁ar	-8.56826
▁zat	-8.56852
▁form	-8.56885
▁izsg	-8.56949
▁hall	-8.57002
laku	-8.57101
▁ezés	-8.57418
▁közül	-8.57445
▁ást	-8.57451
▁gyor	-8.57555
▁közé	-8.57572
▁iatal	-8.57634
ék	-8.57745
▁közö	-8.57965
▁épp	-8.57994
▁me	-8.58018
▁hát	-8.5809
▁felé	-8.58319
▁abad	-8.58324
▁talan	-8.58331
▁raj	-8.58642
▁doll	-8.58685
▁sü	-8.5876
▁évek	-8.58815
is	-8.58856
A	-8.58919
▁pály	-8.58977
ordu	-8.58986
▁előz	-8.59152
▁okoz	-8.59199
▁tanul	-8.59396
▁vé	-8.59713
űn	-8.59729
▁része	-8.59829
▁jól	-8.59844
▁li	-8.60076
má	-8.60133
▁lenne	-8.60167
▁ásár	-8.60307
▁rtök	-8.60323
kod	-8.60446
▁örö	-8.60658
▁enny	-8.6073
ár	-8.60733
▁ód	-8.61021
▁emlé	-8.61035
▁elég	-8.61138
▁obb	-8.61313
▁gjobb	-8.61408
▁sérü	-8.61471
▁bűn	-8.6149
▁hatás	-8.61578
▁atko	-8.61587
ámad	-8.61736
öve	-8.61792
▁ör	-8.61792
▁alá	-8.61909
ez	-8.62135
nuá	-8.62242
▁vi	-8.62267
▁ítél	-8.62342
▁	-8.62365
▁ill	-8.62391
▁nép	-8.62459
▁álló	-8.62677
▁gyobb	-8.62715
▁moz	-8.62908
▁kör	-8.6308
▁ítás	-8.63128
▁sport	-8.63423
▁du	-8.63985
le	-8.6413
▁dec	-8.64139
olc	-8.64249
▁tel	-8.64366
▁ait	-8.64411
▁kí	-8.64455
▁körül	-8.64495
▁érz	-8.64614
▁okkal	-8.64761
▁belül	-8.64846
▁gyár	-8.64874
ég	-8.64971
rszá	-8.65361
▁állás	-8.6542
ás	-8.65609
▁atok	-8.65696
▁ab	-8.65983
▁atott	-8.66097
▁nság	-8.66123
▁Ch	-8.66179
▁tesz	-8.66416
▁leges	-8.66459
abb	-8.66552
id	-8.66556
00	-8.66578
▁eb	-8.66671
ul	-8.66867
▁ter	-8.67024
in	-8.67088
alko	-8.67127
▁során	-8.67141
▁tíz	-8.67297
▁lév	-8.67562
▁mai	-8.67744
▁ezze	-8.67907
ely	-8.67922
▁kam	-8.67993
▁tan	-8.68099
▁távo	-8.68152
▁iszt	-8.68159
▁um	-8.68305
▁ponto	-8.68395
▁rossz	-8.684
▁esti	-8.68408
▁éve	-8.68469
▁ásá	-8.6873
▁árnap	-8.68817
▁lo	-8.68838
zal	-8.68843
nny	-8.68862
▁idej	-8.68882
▁hiány	-8.6902
▁semmi	-8.69043
▁öz	-8.69096
koz	-8.692
▁mag	-8.69224
▁kel	-8.69265
ged	-8.69337
▁zpont	-8.69469
▁erenc	-8.69472
▁ési	-8.69548
▁ati	-8.69599
▁rom	-8.69774
▁vetés	-8.69828
▁lá	-8.70231
▁ista	-8.70406
zámí	-8.70466
▁emben	-8.70562
▁ard	-8.7084
▁kü	-8.71182
▁ztat	-8.7119
▁író	-8.71216
▁us	-8.72305
▁beteg	-8.72739
▁ződés	-8.73145
▁csi	-8.73501
▁von	-8.73627
▁nyí	-8.73649
▁fo	-8.73779
▁pénzt	-8.73837
hez	-8.73847
▁telep	-8.73924
ív	-8.74081
▁foly	-8.74176
étel	-8.7418
▁épü	-8.74296
▁oltak	-8.74339
▁bra	-8.74348
▁titk	-8.7439
ető	-8.74464
▁érte	-8.74494
▁rmes	-8.74513
▁sztés	-8.74593
▁port	-8.74615
▁zni	-8.74863
▁na	-8.74904
▁po	-8.74908
▁izá	-8.74989
▁oz	-8.75043
▁lta	-8.75109
▁akció	-8.75161
▁úl	-8.7541
▁sebb	-8.75416
▁eség	-8.75467
újt	-8.75473
▁ete	-8.75555
▁álta	-8.75557
▁feje	-8.75799
▁ános	-8.7599
▁ette	-8.76027
▁szok	-8.76122
▁end	-8.76262
▁ászló	-8.76298
na	-8.76324
▁ir	-8.76404
▁tal	-8.76597
▁vet	-8.76754
▁telm	-8.76857
▁jai	-8.76871
ivel	-8.76939
▁meccs	-8.77039
ésőb	-8.77373
▁ord	-8.77393
▁aján	-8.7742
▁vonat	-8.77429
▁lépés	-8.77536
áll	-8.77656
▁lat	-8.77945
izsg	-8.78005
▁parl	-8.78109
▁rható	-8.78401
▁eszt	-8.78433
▁idén	-8.78463
▁ná	-8.78486
▁eni	-8.78543
▁hite	-8.78861
▁végén	-8.78911
ranc	-8.78972
▁til	-8.78974
mi	-8.79113
▁enki	-8.79137
▁og	-8.79137
▁sta	-8.79184
isel	-8.79306
▁lhet	-8.79372
▁pént	-8.79509
▁ti	-8.79525
▁ris	-8.79662
▁MSZP	-8.7984
▁maz	-8.79968
▁alko	-8.8003
het	-8.8012
yanú	-8.80581
ép	-8.80796
▁ennek	-8.81149
▁határ	-8.81265
▁köt	-8.81639
▁fok	-8.82132
▁elelő	-8.82155
ális	-8.82383
▁in	-8.82384
▁orvos	-8.82496
ben	-8.82543
▁ken	-8.82602
▁kség	-8.82609
▁bil	-8.82684
▁oda	-8.82692
tá	-8.82842
▁jának	-8.83017
▁gyó	-8.83032
áció	-8.83126
▁enek	-8.83395
▁fejl	-8.83585
▁segít	-8.8368
▁hu	-8.83746
▁bí	-8.83891
▁Orbán	-8.83937
otmá	-8.84045
▁assz	-8.84249
▁segí	-8.84274
be	-8.84384
▁vány	-8.84449
ség	-8.84503
▁ró	-8.8461
ölt	-8.84621
▁w	-8.84742
▁almas	-8.84838
▁vonal	-8.851
▁pal	-8.85239
anác	-8.85453
▁gel	-8.85775
▁vége	-8.85862
▁lj	-8.8594
▁Ki	-8.85964
▁olgál	-8.85969
ság	-8.85994
▁ene	-8.86023
▁El	-8.86074
▁bele	-8.86238
▁gal	-8.86246
nfor	-8.86325
▁nov	-8.86326
▁thet	-8.8641
▁gen	-8.86516
▁etem	-8.86652
▁arc	-8.86693
bban	-8.86981
▁lja	-8.86992
▁gos	-8.87075
▁oci	-8.87153
▁orrás	-8.8749
▁tani	-8.87495
▁őket	-8.87562
▁jük	-8.8758
▁ich	-8.87634
▁ák	-8.87753
▁Péter	-8.87786
▁Le	-8.87809
▁par	-8.87862
▁erre	-8.87885
▁tűz	-8.87904
▁lytat	-8.87915
▁minő	-8.87919
▁ából	-8.87968
▁oló	-8.87981
ekin	-8.88028
▁szél	-8.88174
▁láto	-8.88174
▁árm	-8.88184
▁utc	-8.88239
lakí	-8.88314
▁évben	-8.88728
▁Be	-8.88863
▁né	-8.8889
▁vér	-8.89467
▁tév	-8.89732
lább	-8.8975
▁osság	-8.90065
▁tot	-8.90105
▁óvivő	-8.90107
▁fenn	-8.90176
▁Ö	-8.9042
▁elej	-8.90537
▁lég	-8.90634
▁la	-8.90687
▁kod	-8.90815
▁motor	-8.90984
▁old	-8.91011
▁iztos	-8.91039
▁tí	-8.91057
▁írás	-8.91076
▁epel	-8.91097
▁ését	-8.91114
▁lány	-8.91186
▁csat	-8.91407
▁gáz	-8.91434
mét	-8.91538
▁erdán	-8.91636
▁yaszt	-8.91664
▁okban	-8.91714
▁se	-8.91847
▁bír	-8.9192
▁átlag	-8.91928
▁rel	-8.91943
ná	-8.92013
▁hető	-8.92118
▁elet	-8.92235
▁étfőn	-8.9251
▁ersze	-8.92697
▁séges	-8.92962
▁válo	-8.93395
▁ester	-8.93431
erje	-8.93467
▁ato	-8.93487
▁cso	-8.93566
▁egyes	-8.93861
▁zék	-8.93955
he	-8.94078
▁álság	-8.94179
▁üzem	-8.94189
▁hol	-8.94303
▁bá	-8.94417
▁gyűjt	-8.94788
▁endő	-8.94882
▁str	-8.94947
▁ria	-8.95098
▁lőd	-8.95425
▁stván	-8.95437
▁zle	-8.9572
▁éli	-8.95871
▁ipar	-8.9591
▁ég	-8.96035
▁ou	-8.96124
▁itás	-8.96154
▁éj	-8.96397
▁don	-8.9644
▁eti	-8.96455
▁aslat	-8.96815
▁kció	-8.96824
▁etés	-8.96825
▁nőtt	-8.9686
▁Ro	-8.96889
▁kíván	-8.96947
oly	-8.9705
▁im	-8.97051
▁jában	-8.97208
▁nd	-8.97278
▁10	-8.97293
▁zen	-8.97324
▁tü	-8.97469
▁ervez	-8.97481
▁óra	-8.97528
▁mal	-8.97571
▁mód	-8.97654
▁magát	-8.97953
▁and	-8.97954
▁tik	-8.98128
▁halál	-8.98386
után	-8.98396
▁ogyan	-8.985
▁alami	-8.98504
▁áció	-8.98533
▁emény	-8.98605
▁áról	-8.98747
▁barát	-8.98895
▁őrök	-8.98905
▁atív	-8.9897
▁ata	-8.99073
▁felh	-8.99174
▁atot	-8.99269
▁totta	-8.99462
▁éről	-8.99497
▁igen	-8.99632
▁kság	-8.99678
▁lag	-8.99768
▁hal	-8.9982
▁elv	-8.99886
▁ebru	-8.99904
▁land	-8.99942
▁ezte	-9.00099
▁ika	-9.0013
▁ozat	-9.00195
▁álasz	-9.00259
▁kil	-9.00373
▁tor	-9.00383
▁do	-9.00604
▁íz	-9.0063
▁szor	-9.00668
▁régi	-9.00689
▁etné	-9.00694
▁műsor	-9.00791
uk	-9.00988
▁írj	-9.00994
▁ttal	-9.01235
▁este	-9.01355
▁ős	-9.01506
▁kkal	-9.01534
ú	-9.01576
▁bő	-9.01651
▁őször	-9.01897
▁Y	-9.01898
▁nete	-9.01906
▁ur	-9.01912
eny	-9.0195
▁adság	-9.01971
▁rög	-9.02147
▁ogl	-9.02173
▁üzlet	-9.02175
▁elős	-9.02213
▁tehet	-9.02261
▁zben	-9.02468
▁vatal	-9.02491
2	-9.02896
▁talá	-9.02974
▁kocsi	-9.03009
▁rnye	-9.03056
▁igény	-9.03096
▁ern	-9.03275
▁ink	-9.0331
▁ep	-9.03331
▁tunk	-9.03339
▁vid	-9.03392
▁Mind	-9.03448
▁Zs	-9.03473
▁hib	-9.03748
▁tét	-9.03806
▁legn	-9.03813
▁tech	-9.03913
▁évvel	-9.04219
▁rlat	-9.04291
▁bü	-9.04447
▁ult	-9.04475
▁ent	-9.04574
▁érium	-9.04646
sér	-9.04705
▁irat	-9.0479
▁bér	-9.04867
▁idé	-9.04886
▁ordul	-9.04955
hát	-9.05187
▁da	-9.05204
▁ggel	-9.05395
▁Ma	-9.05468
▁Bar	-9.0555
▁érin	-9.0558
▁ke	-9.0558
▁MTI	-9.0574
ác	-9.05858
▁Í	-9.0594
▁kele	-9.0598
ew	-9.06011
▁kan	-9.06026
▁llam	-9.06032
▁anak	-9.06051
bb	-9.06066
▁aj	-9.06095
▁vál	-9.0612
▁ünnep	-9.06157
▁ítés	-9.06198
▁miért	-9.06396
▁ic	-9.06436
▁enni	-9.06633
▁lik	-9.06642
▁őle	-9.06659
▁agyi	-9.06713
6	-9.06804
▁ran	-9.06894
▁ho	-9.06962
ött	-9.07147
▁otth	-9.07568
sszú	-9.07708
▁Gábor	-9.07718
▁közv	-9.07786
▁Jo	-9.07876
leg	-9.07883
▁öv	-9.07886
▁un	-9.07955
▁kek	-9.08156
▁keret	-9.0831
▁eté	-9.08357
▁sért	-9.08419
▁ehé	-9.08525
▁ark	-9.0892
▁esség	-9.09003
▁túr	-9.09066
▁mel	-9.09128
▁ud	-9.09166
▁part	-9.09245
▁utó	-9.095
▁vall	-9.09619
▁értő	-9.09841
▁ásra	-9.09921
▁labda	-9.09932
▁unió	-9.10004
▁nehéz	-9.10004
T	-9.10167
▁röv	-9.10215
▁neki	-9.10225
▁mit	-9.10375
▁tetés	-9.10462
ossz	-9.10471
▁jon	-9.10582
▁ándor	-9.10627
▁ekre	-9.10728
▁gyes	-9.1084
▁sség	-9.10944
▁fek	-9.10944
▁ltek	-9.10958
▁elme	-9.10973
▁ong	-9.11027
▁ajo	-9.1105
▁eplő	-9.11064
▁dob	-9.11107
▁omány	-9.1123
▁Új	-9.1126
▁böz	-9.1133
▁képp	-9.11443
▁végre	-9.11482
▁őri	-9.11515
▁mo	-9.11648
▁terem	-9.11674
▁fele	-9.1172
▁rúg	-9.11798
▁usz	-9.11963
zony	-9.12041
▁kevé	-9.12042
▁za	-9.12153
tób	-9.1218
▁elyen	-9.12301
▁létre	-9.12402
▁vett	-9.12419
od	-9.12692
▁pr	-9.12828
der	-9.1288
▁bu	-9.13037
▁20	-9.13061
órhá	-9.13063
▁elmet	-9.1307
▁zte	-9.13176
▁hó	-9.13195
alad	-9.13209
▁eken	-9.13399
ljes	-9.13407
▁óri	-9.13504
▁média	-9.13744
▁lnek	-9.13935
▁list	-9.14056
▁ását	-9.14066
▁tóság	-9.14085
▁terme	-9.14087
▁lják	-9.1415
▁ron	-9.14216
▁gyű	-9.14418
▁módo	-9.14539
▁tapa	-9.14545
▁nal	-9.14555
▁özbe	-9.14667
pitá	-9.14812
▁tudja	-9.14861
:	-9.14892
yu	-9.14913
▁enved	-9.14948
▁arány	-9.15235
▁olcs	-9.15251
▁kéz	-9.15332
▁'	-9.15345
▁akasz	-9.15912
▁aradt	-9.1596
▁húz	-9.16067
sonl	-9.16099
▁ív	-9.1617
▁Uni	-9.16323
▁brit	-9.16466
▁hete	-9.16582
▁ank	-9.16838
▁osan	-9.16894
▁őd	-9.16928
▁op	-9.16947
▁yörgy	-9.16954
▁jön	-9.17273
▁ion	-9.17393
émá	-9.17594
▁etek	-9.17667
▁Sport	-9.17678
▁fr	-9.17965
▁vezér	-9.18019
▁nyelv	-9.18116
▁irod	-9.18165
▁rül	-9.18188
▁obbik	-9.18269
izen	-9.18291
▁színe	-9.18351
▁takar	-9.1839
L	-9.18659
▁konc	-9.18831
▁x	-9.18888
▁elye	-9.18891
▁rab	-9.1909
▁Bu	-9.19113
▁képz	-9.19116
▁ázs	-9.19402
▁nyság	-9.19448
▁klub	-9.19585
▁cius	-9.1963
▁ándék	-9.19736
▁jármű	-9.19817
▁fed	-9.19851
ká	-9.19934
▁ell	-9.20077
▁bor	-9.20247
▁kőzés	-9.20318
▁lovák	-9.20401
3	-9.20431
▁ólag	-9.20474
ünte	-9.2048
▁ígér	-9.20488
▁áp	-9.20525
▁János	-9.20568
▁cikk	-9.20581
▁buk	-9.20791
▁darab	-9.20823
▁iá	-9.20856
▁érsé	-9.20961
▁bl	-9.21116
▁ályá	-9.21125
▁so	-9.21152
▁omo	-9.21242
▁tvány	-9.21252
▁donos	-9.21377
▁lső	-9.21427
▁ggy	-9.2143
ka	-9.21624
▁fény	-9.21642
▁állt	-9.21728
▁oha	-9.21816
▁szép	-9.21884
▁csel	-9.21933
▁alu	-9.21957
ráb	-9.22185
▁ker	-9.22241
ilág	-9.22253
▁benne	-9.223
▁szü	-9.22303
▁ág	-9.22414
▁ombat	-9.22457
▁izmus	-9.22516
▁alos	-9.22558
▁inf	-9.22636
▁esett	-9.23048
▁ng	-9.23179
▁ff	-9.23272
▁nként	-9.23274
▁eleg	-9.23283
▁gy	-9.2332
▁föl	-9.23338
▁tatás	-9.23341
▁mat	-9.23358
▁írta	-9.23385
▁úr	-9.23644
evő	-9.23717
▁get	-9.23808
▁lét	-9.23811
▁védő	-9.23859
▁ll	-9.23977
▁lakás	-9.24014
▁kul	-9.24051
▁Tamás	-9.24237
▁áj	-9.24308
▁encs	-9.2432
▁név	-9.24542
▁ővár	-9.24587
▁EU	-9.24636
▁áldo	-9.24639
▁odell	-9.24674
▁indí	-9.24688
▁man	-9.24723
delm	-9.24756
▁tuk	-9.24769
▁ová	-9.24877
▁ehet	-9.24881
▁zin	-9.24884
▁ele	-9.24908
▁buda	-9.25032
zab	-9.25046
ng	-9.25061
▁kamp	-9.25364
▁ékony	-9.25376
▁rilis	-9.2555
▁harc	-9.25783
▁ény	-9.25787
ocká	-9.25798
▁elh	-9.25872
▁all	-9.25922
▁tésé	-9.26004
▁mez	-9.26063
▁orba	-9.26078
űl	-9.26219
▁pa	-9.2625
▁elt	-9.2632
▁pl	-9.26345
gyel	-9.26505
▁Ném	-9.26528
pany	-9.26539
M	-9.2655
P	-9.26556
▁vele	-9.26596
▁inc	-9.26658
zd	-9.26709
▁ület	-9.26963
hogy	-9.26993
▁ih	-9.27074
▁ányo	-9.27202
▁kettő	-9.27268
▁ton	-9.27344
▁gyil	-9.27537
▁dr	-9.27551
▁alás	-9.27726
ük	-9.27728
▁ög	-9.27767
▁usztr	-9.2777
▁trány	-9.27791
▁ntr	-9.27794
▁legi	-9.27981
▁egle	-9.28022
▁pá	-9.28129
▁kész	-9.28134
▁ea	-9.28199
▁bocs	-9.28246
▁szu	-9.28271
▁iség	-9.28323
▁rég	-9.28324
▁kapu	-9.28402
▁olta	-9.28402
▁ször	-9.28443
▁senk	-9.28466
▁nline	-9.285
▁ába	-9.2852
kol	-9.28721
▁cser	-9.28735
tr	-9.28814
▁alac	-9.28842
▁lal	-9.28945
▁ese	-9.29052
▁lass	-9.29261
▁oldás	-9.29349
▁nyert	-9.29495
▁tja	-9.29514
▁ev	-9.29546
▁ird	-9.29597
▁megv	-9.2993
▁andó	-9.2994
▁íció	-9.2997
▁ására	-9.29975
▁csá	-9.30002
▁oo	-9.30004
▁pu	-9.30018
▁baj	-9.30098
▁Zrt	-9.3015
▁És	-9.30158
▁kó	-9.30167
▁ésre	-9.30198
▁pálya	-9.30351
▁ötte	-9.30354
▁Zol	-9.30358
▁znak	-9.30377
▁járó	-9.30404
▁ver	-9.30482
▁eknek	-9.30585
▁tést	-9.30807
▁atos	-9.30937
▁log	-9.3095
▁au	-9.31034
▁15	-9.31047
▁elte	-9.31077
▁aton	-9.3116
▁dí	-9.31189
▁tos	-9.3156
▁ty	-9.31673
▁ideg	-9.31806
▁alaki	-9.31895
▁ort	-9.31902
▁alig	-9.32051
▁iktor	-9.32072
▁lenc	-9.32121
▁lény	-9.3223
▁fin	-9.32462
▁széd	-9.32539
▁aszt	-9.32545
8	-9.32551
▁ner	-9.32584
limp	-9.32701
▁Hu	-9.32702
supá	-9.32718
B	-9.3281
▁lev	-9.32818
▁emlí	-9.32884
E	-9.32962
us	-9.33029
▁busz	-9.33049
▁ant	-9.33296
▁olasz	-9.33342
▁éle	-9.33358
▁jö	-9.33444
▁ká	-9.33453
▁pan	-9.33611
▁ck	-9.33751
▁orvát	-9.33808
▁üket	-9.33869
ja	-9.33932
▁áru	-9.33934
▁ológ	-9.33959
▁BKV	-9.33999
több	-9.34027
▁végé	-9.34091
▁rek	-9.34344
▁vette	-9.34424
▁héten	-9.34489
▁ozi	-9.34594
zott	-9.34667
▁ölcs	-9.34739
▁gazd	-9.34753
kalm	-9.34825
▁atója	-9.34892
▁ac	-9.34956
▁itel	-9.35063
▁esen	-9.3508
I	-9.35139
▁tin	-9.35148
▁zak	-9.35203
▁tth	-9.35224
as	-9.35276
pot	-9.35277
▁éből	-9.35278
▁fotó	-9.35353
ull	-9.35469
▁terh	-9.35478
▁okta	-9.35482
▁kri	-9.35517
▁zis	-9.35547
▁indo	-9.3562
étfő	-9.35685
▁rak	-9.35807
▁dió	-9.3581
▁ainak	-9.36034
▁köze	-9.36149
▁nik	-9.36184
▁áború	-9.36235
▁ellá	-9.36297
▁embe	-9.36372
yik	-9.36773
ordí	-9.36785
▁tte	-9.36803
)	-9.36898
▁erá	-9.36971
▁ktor	-9.36976
▁uto	-9.37153
▁+	-9.37312
▁ügye	-9.37503
▁éke	-9.37521
▁léka	-9.37542
▁somag	-9.37709
▁ré	-9.37751
▁vád	-9.37768
▁skol	-9.37863
▁rit	-9.37885
ztán	-9.37991
▁kiv	-9.38007
▁keve	-9.38092
▁okon	-9.38151
▁gi	-9.38157
▁élyes	-9.3822
▁anat	-9.3829
▁lin	-9.38316
▁öbb	-9.38327
▁kkel	-9.38332
▁járat	-9.38334
▁ések	-9.38406
▁soro	-9.38419
▁ansz	-9.38547
▁léte	-9.38563
▁vág	-9.38631
▁árt	-9.38646
▁menet	-9.38654
▁vita	-9.38667
▁ndrás	-9.38718
galm	-9.38761
▁adék	-9.38962
▁öld	-9.39024
▁ack	-9.39055
▁zetes	-9.3912
▁lott	-9.39257
▁adi	-9.39324
S	-9.39355
▁plom	-9.3939
▁nok	-9.39438
zár	-9.3951
1	-9.39523
▁bé	-9.39528
▁táv	-9.39536
▁Ho	-9.39783
▁eztet	-9.3979
▁urg	-9.39805
▁atai	-9.39824
▁zú	-9.39835
▁ejt	-9.39864
▁ler	-9.39868
▁osz	-9.39897
hoz	-9.39946
öszö	-9.40112
▁tball	-9.40125
▁por	-9.40208
▁lásá	-9.40368
▁dalom	-9.40488
▁tömeg	-9.40738
▁vény	-9.40809
▁esí	-9.40893
▁kkent	-9.40976
▁30	-9.41007
▁tése	-9.41027
udom	-9.4119
óló	-9.41324
C	-9.41339
▁befe	-9.41395
▁lako	-9.41428
▁ajó	-9.41455
▁ója	-9.41493
▁éhez	-9.41582
▁agyok	-9.41636
▁enc	-9.41668
▁ecs	-9.41675
▁ktív	-9.41682
▁tra	-9.41737
▁ályo	-9.418
▁hő	-9.41939
▁háló	-9.41993
▁ezon	-9.42039
▁csin	-9.42109
▁lták	-9.42151
▁nter	-9.42359
▁enti	-9.42383
▁Vas	-9.42775
▁tenni	-9.42813
▁seb	-9.42876
▁angol	-9.42877
▁áju	-9.43069
▁tized	-9.43124
▁sa	-9.43232
▁edző	-9.43292
▁einek	-9.43367
ddig	-9.43394
▁odás	-9.4357
▁ip	-9.43661
▁szk	-9.43759
▁ang	-9.43954
▁indít	-9.43974
▁csúcs	-9.43981
4	-9.44056
▁MDF	-9.44073
▁rium	-9.44105
▁ző	-9.44142
▁tve	-9.44196
▁olaj	-9.44216
▁Ugy	-9.44272
▁úz	-9.44275
▁ics	-9.44416
▁amar	-9.44669
▁ue	-9.44686
▁alm	-9.44722
▁zavar	-9.44736
▁urópa	-9.44818
▁ztül	-9.4483
▁örös	-9.45155
▁táb	-9.45201
▁gö	-9.45229
ír	-9.45435
▁lu	-9.45436
▁id	-9.4545
▁kínai	-9.45463
▁ődött	-9.45476
▁kban	-9.45522
▁agy	-9.45643
▁dalm	-9.45657
▁löv	-9.45667
▁dá	-9.45711
▁tur	-9.45717
▁ózsef	-9.45783
▁hány	-9.45808
▁sö	-9.45845
▁Atti	-9.46012
▁árf	-9.46073
▁csal	-9.4616
▁ekben	-9.46221
▁bef	-9.46235
▁ász	-9.46289
▁onlap	-9.46324
▁ségé	-9.464
▁ept	-9.46461
▁elé	-9.46653
▁doku	-9.46777
▁atta	-9.46811
▁nyben	-9.46845
▁illa	-9.46917
▁szony	-9.46974
▁pülő	-9.46978
▁Bal	-9.4705
▁Index	-9.47086
▁ához	-9.47101
▁ers	-9.47278
▁ettek	-9.47484
▁skola	-9.47609
▁módon	-9.47629
▁folyó	-9.47659
ög	-9.4766
▁szel	-9.47661
▁vonul	-9.4778
▁cégek	-9.47829
▁ste	-9.47839
▁han	-9.47844
▁okra	-9.4802
▁eged	-9.48091
▁sztő	-9.48212
▁ménye	-9.48219
▁dzs	-9.4822
oci	-9.4828
▁döntő	-9.48366
▁kmény	-9.4844
▁ivel	-9.48539
▁ógus	-9.48629
▁apír	-9.48634
K	-9.48688
szer	-9.48823
▁éz	-9.48868
▁reg	-9.48876
▁ámo	-9.48905
▁knek	-9.48955
▁ázás	-9.48958
▁rű	-9.49238
▁szék	-9.49307
▁üt	-9.49319
nnek	-9.49338
▁ínész	-9.49408
▁áig	-9.49565
omb	-9.49699
▁Ú	-9.49965
▁ezni	-9.50048
▁orít	-9.50081
▁nök	-9.50088
▁esebb	-9.50095
▁tyá	-9.50127
▁foko	-9.50148
▁előny	-9.50156
▁entu	-9.50177
▁vájc	-9.50192
▁knak	-9.50199
▁zók	-9.5021
▁biz	-9.50232
▁oknak	-9.50308
▁ukat	-9.50389
▁lhat	-9.50418
▁ranc	-9.50547
▁ura	-9.50572
▁ondj	-9.5063
▁eu	-9.5067
▁rosz	-9.50673
▁ow	-9.50787
da	-9.50858
▁mellé	-9.50916
▁fiú	-9.50998
▁ely	-9.51008
▁etét	-9.51021
▁12	-9.51049
▁zsi	-9.51053
ny	-9.51162
▁idék	-9.51233
▁zi	-9.5128
▁íroz	-9.51348
▁gu	-9.51491
▁ódot	-9.51556
▁vetel	-9.51626
▁arg	-9.5193
▁cel	-9.51964
▁Gaz	-9.51976
▁ral	-9.52018
▁pus	-9.52047
▁lla	-9.52167
▁incs	-9.52231
▁hon	-9.52263
▁gok	-9.52411
▁ól	-9.52503
▁ala	-9.52562
▁Már	-9.52662
▁ekről	-9.52702
▁onnal	-9.52711
▁ari	-9.52712
▁írt	-9.52749
▁költ	-9.52907
▁ce	-9.52961
▁esül	-9.53017
nerg	-9.53068
▁Kr	-9.53105
▁ost	-9.53175
▁tagja	-9.53195
▁mérés	-9.53202
▁mentő	-9.53301
▁dal	-9.53317
▁szig	-9.53337
▁jét	-9.5346
ic	-9.53509
▁Ké	-9.53599
▁sznek	-9.53739
▁űr	-9.53918
▁Bo	-9.53969
▁endőr	-9.5419
lan	-9.543
▁lcs	-9.54349
D	-9.54362
▁gar	-9.54375
▁kas	-9.54488
ruh	-9.54501
▁orm	-9.54525
▁ettes	-9.5453
H	-9.5469
▁sak	-9.54817
▁sége	-9.54956
w	-9.5507
50	-9.55089
▁óv	-9.5509
▁zza	-9.55123
▁hí	-9.55173
▁zene	-9.55349
▁pót	-9.55489
▁ntető	-9.55523
▁ens	-9.55747
▁lia	-9.55861
▁ész	-9.55944
▁that	-9.56042
eves	-9.56147
▁árak	-9.56228
▁gyház	-9.56229
▁eal	-9.56375
▁erg	-9.5663
▁ork	-9.56645
▁sztu	-9.56772
▁derü	-9.57084
▁avi	-9.57135
▁nyár	-9.57223
▁pil	-9.57355
V	-9.57388
▁kata	-9.57482
▁tása	-9.57486
▁pad	-9.57494
▁ezték	-9.57615
▁heti	-9.5764
▁essz	-9.57649
▁nan	-9.57652
▁ősz	-9.57819
▁zé	-9.57822
▁ivat	-9.57972
▁har	-9.58
ítás	-9.58425
▁zel	-9.58508
▁zaj	-9.58731
▁tere	-9.58746
▁iget	-9.58751
▁lnak	-9.58779
▁emző	-9.58793
▁dik	-9.58989
9	-9.59032
▁ft	-9.59192
▁ruhá	-9.5926
▁yi	-9.59306
F	-9.5946
▁láb	-9.59481
▁sága	-9.59556
▁zu	-9.596
▁red	-9.59684
▁nye	-9.59691
▁ós	-9.59693
▁onal	-9.59921
at	-9.59971
▁soka	-9.60046
▁ulat	-9.60093
▁tön	-9.60153
▁hatja	-9.60205
▁ako	-9.60233
▁kivá	-9.6031
▁had	-9.6036
▁ssze	-9.60367
szkö	-9.60491
▁25	-9.60511
▁ess	-9.60593
▁rém	-9.60666
▁elett	-9.60815
▁blé	-9.60832
▁nyos	-9.60843
▁ssz	-9.6086
▁zett	-9.60873
▁ztak	-9.60876
▁rák	-9.60894
▁olás	-9.60979
ne	-9.61034
▁Mol	-9.61038
▁ann	-9.61098
▁gr	-9.61163
▁cse	-9.61194
▁ságok	-9.61208
▁50	-9.61226
vény	-9.61348
▁jele	-9.61536
▁arany	-9.61658
▁una	-9.6166
▁jek	-9.61686
▁nna	-9.61899
▁zér	-9.61927
▁korá	-9.61983
▁enye	-9.62281
egyv	-9.625
▁dol	-9.62502
▁jen	-9.62564
▁16	-9.62651
▁agjai	-9.62656
▁leve	-9.62816
▁mer	-9.62915
▁ozás	-9.62966
▁adni	-9.63007
▁élé	-9.63007
▁ín	-9.63086
▁lé	-9.63138
▁oly	-9.63282
▁etben	-9.63389
▁lföld	-9.63424
▁lyás	-9.63508
▁nyal	-9.63582
▁bert	-9.63586
▁izo	-9.63598
▁any	-9.63914
▁ázad	-9.6392
▁ltak	-9.64298
▁írek	-9.64352
▁eső	-9.64368
▁esés	-9.64526
▁ők	-9.64552
▁rban	-9.6459
▁irán	-9.64676
▁pill	-9.64719
▁éni	-9.64746
▁olj	-9.64766
▁rály	-9.64878
▁éssel	-9.64889
▁eget	-9.65123
▁szom	-9.6516
▁bre	-9.65205
▁igá	-9.65281
▁oka	-9.65282
▁zati	-9.65427
▁Ant	-9.65515
▁véle	-9.65563
▁ánt	-9.65722
▁rog	-9.65727
▁nch	-9.65733
▁úto	-9.65749
▁ej	-9.6586
▁ec	-9.65958
▁szol	-9.66012
▁spe	-9.66053
▁olni	-9.66104
▁szen	-9.66189
▁rej	-9.66197
nö	-9.66258
▁del	-9.66492
▁zés	-9.66546
▁megy	-9.66715
▁ere	-9.66845
▁akat	-9.66898
▁kín	-9.669
▁Min	-9.6692
▁lte	-9.66962
▁agg	-9.67257
illa	-9.67269
▁erről	-9.67288
▁nni	-9.67333
első	-9.6736
tu	-9.67367
▁ajnok	-9.67512
▁ltu	-9.67535
▁ente	-9.6755
▁gban	-9.67628
▁ajd	-9.67781
▁alak	-9.67782
▁aság	-9.67833
▁kra	-9.67944
▁szség	-9.68025
▁[	-9.6803
▁mél	-9.68137
lem	-9.68166
zak	-9.68175
ni	-9.68282
▁vit	-9.68454
▁rid	-9.68663
▁zö	-9.68672
▁őrz	-9.68734
▁eke	-9.68758
▁orma	-9.68786
▁ogy	-9.68947
▁hisz	-9.68987
▁kék	-9.69027
▁Ko	-9.69029
▁agyo	-9.69094
▁nie	-9.69213
▁Ve	-9.69242
▁Rá	-9.69489
▁pé	-9.69519
▁bünt	-9.69616
▁]	-9.6966
▁BL	-9.69707
▁mik	-9.69782
▁elnö	-9.69795
▁seh	-9.69846
▁ámol	-9.69965
▁edés	-9.70235
▁ágy	-9.70244
▁osí	-9.70269
▁ké	-9.70304
▁isza	-9.70482
▁ge	-9.70637
▁jával	-9.70638
▁kr	-9.70738
▁Ang	-9.70747
▁járt	-9.70867
▁utat	-9.70942
▁zze	-9.70985
esí	-9.71092
SZ	-9.71196
am	-9.71304
▁imp	-9.71352
▁nnyi	-9.71554
▁ein	-9.71576
▁ium	-9.71587
▁igye	-9.71695
▁lland	-9.71739
▁nu	-9.71859
▁isták	-9.71882
▁lám	-9.72049
▁ry	-9.72138
▁öm	-9.72163
▁éző	-9.72179
▁amb	-9.72208
▁halt	-9.72363
▁drá	-9.72371
▁arl	-9.72393
▁sh	-9.7242
▁dő	-9.72524
▁rná	-9.72602
▁obban	-9.72618
▁fü	-9.72785
▁ajtó	-9.72889
ba	-9.73104
▁rie	-9.73113
R	-9.73138
▁Bl	-9.73168
▁tásá	-9.73226
▁ace	-9.73386
▁tet	-9.7346
▁tünk	-9.73481
▁ozott	-9.73555
lenü	-9.73664
▁ogat	-9.74028
▁nyel	-9.74277
▁2.	-9.74285
▁tava	-9.74447
▁sban	-9.74449
ol	-9.7464
▁jég	-9.74774
▁zre	-9.74821
▁kora	-9.75089
▁40	-9.75216
▁vill	-9.75236
▁zí	-9.75237
▁ash	-9.75257
▁dé	-9.75295
▁bség	-9.75382
lag	-9.75391
▁gény	-9.75608
▁lték	-9.75697
▁riá	-9.75746
és	-9.75907
okra	-9.75998
▁ünte	-9.76052
▁cen	-9.76087
▁up	-9.76226
▁tték	-9.76272
▁udom	-9.76286
▁ka	-9.76512
▁ib	-9.76608
▁18	-9.76618
▁pel	-9.76739
▁Van	-9.76802
▁lib	-9.76917
▁sere	-9.76941
▁ím	-9.76942
▁rdő	-9.7702
▁áros	-9.77048
▁zva	-9.77148
▁rd	-9.77166
▁fér	-9.77204
▁lel	-9.77337
▁zöl	-9.77386
▁kré	-9.77437
▁lus	-9.77448
▁Wi	-9.77486
vas	-9.77658
▁olo	-9.77716
▁emelt	-9.77822
ce	-9.77973
▁ődik	-9.77981
ur	-9.78062
▁zü	-9.78082
-	-9.78173
▁lko	-9.78184
▁erce	-9.78249
▁ah	-9.78251
▁vári	-9.7847
▁erül	-9.78503
▁komm	-9.7883
▁yugat	-9.78832
▁lop	-9.78844
▁cc	-9.78916
▁ségét	-9.78946
enge	-9.78984
▁ötö	-9.79116
▁omá	-9.79214
▁dt	-9.79232
▁ndex	-9.79285
▁ogás	-9.79326
▁oma	-9.79438
▁edi	-9.79834
5	-9.80082
ndr	-9.80105
▁pp	-9.80289
▁kere	-9.80368
▁ttól	-9.80446
▁14	-9.80501
▁elje	-9.80516
▁ya	-9.80556
▁zöve	-9.80603
▁nők	-9.80632
▁anya	-9.8067
▁szülő	-9.80671
▁kem	-9.8083
▁tom	-9.80843
▁sd	-9.80843
▁vil	-9.80919
▁tes	-9.80934
▁rra	-9.80954
ít	-9.80966
▁11	-9.81399
ikus	-9.81423
ma	-9.81475
▁szo	-9.81515
aton	-9.81519
▁var	-9.81561
▁étől	-9.8162
ri	-9.81699
▁her	-9.81732
▁fi	-9.81742
ott	-9.81819
▁nder	-9.81843
▁szét	-9.81869
▁tus	-9.81906
▁art	-9.81919
▁ber	-9.82007
▁ut	-9.82114
▁ezhet	-9.82125
▁1,	-9.82126
▁szava	-9.8213
G	-9.82222
▁Ő	-9.82308
▁tenek	-9.82541
▁X	-9.82698
▁ajna	-9.82767
▁nyek	-9.82835
▁nség	-9.82888
▁viz	-9.82929
▁sze	-9.82939
▁eret	-9.82941
▁szob	-9.82944
▁vala	-9.83075
▁ábor	-9.83133
▁töl	-9.83155
▁fogy	-9.83201
▁nger	-9.83291
ac	-9.83305
▁jt	-9.83309
▁ham	-9.83346
▁ven	-9.83469
▁ren	-9.83554
▁fa	-9.83586
ab	-9.83802
▁sztal	-9.83964
▁pat	-9.84078
▁ino	-9.84225
▁hetne	-9.84287
▁Ci	-9.84354
▁agad	-9.84369
▁ésére	-9.84566
▁ébe	-9.84688
rősö	-9.84779
▁3.	-9.84834
▁pe	-9.84861
▁harm	-9.84948
▁ódik	-9.85066
▁tatók	-9.85116
▁jell	-9.85155
▁ail	-9.85168
▁tru	-9.85213
▁negy	-9.85341
▁zté	-9.85385
▁osta	-9.85408
▁rác	-9.85423
▁kik	-9.85479
▁őrzés	-9.85506
▁üze	-9.8554
▁fia	-9.85643
▁egény	-9.85645
▁jából	-9.85658
▁teszt	-9.85705
▁ené	-9.85745
▁LMP	-9.85819
▁elve	-9.85904
▁zá	-9.85982
▁ger	-9.86089
▁vél	-9.86305
dés	-9.86508
▁imo	-9.866
▁érv	-9.86632
▁zták	-9.8666
▁gyö	-9.8667
▁eznek	-9.86677
▁orú	-9.86861
▁ásban	-9.86867
▁oll	-9.86909
▁Jó	-9.87021
▁épít	-9.87158
▁okból	-9.87278
▁eme	-9.87396
gyom	-9.87426
▁kelt	-9.87431
▁ama	-9.8755
▁ttó	-9.87654
▁gá	-9.87675
▁Ü	-9.8777
▁űz	-9.87783
▁ass	-9.87827
▁fal	-9.87904
▁gat	-9.88017
▁Er	-9.88061
▁lése	-9.88086
▁anú	-9.88102
ében	-9.88133
▁reme	-9.88142
▁só	-9.88346
▁demo	-9.88453
▁aba	-9.8852
mpon	-9.88529
▁Bor	-9.88673
▁ettel	-9.88726
▁24	-9.88737
▁egő	-9.8882
▁éde	-9.88843
▁tök	-9.89088
ődés	-9.89103
▁össz	-9.89118
▁of	-9.89168
▁elől	-9.89245
▁lehe	-9.89563
▁ulás	-9.89589
▁err	-9.8962
▁arán	-9.89629
▁gra	-9.89683
▁sztr	-9.89727
▁akt	-9.89777
▁rob	-9.89814
▁mene	-9.89871
▁edett	-9.89932
▁istá	-9.89952
iv	-9.89959
▁zió	-9.90118
▁eteg	-9.90143
ve	-9.90156
▁műve	-9.90184
▁asz	-9.90208
▁eve	-9.90289
▁tanak	-9.90352
x	-9.90353
▁napon	-9.90374
▁gaz	-9.9041
▁ax	-9.90631
▁ásos	-9.90856
N	-9.91017
▁mod	-9.91113
▁atja	-9.91142
▁őke	-9.91195
▁rist	-9.91245
▁vic	-9.91246
▁yen	-9.91289
▁izs	-9.9139
▁seg	-9.9139
▁gye	-9.91435
hető	-9.91451
▁ror	-9.91705
lmi	-9.91771
▁kos	-9.91878
▁rre	-9.91901
▁ítő	-9.92011
▁No	-9.92028
▁lőtt	-9.92075
▁ru	-9.92117
▁pró	-9.92151
▁13	-9.92226
▁elle	-9.92319
▁atal	-9.92431
▁zal	-9.92518
▁egá	-9.92808
▁yar	-9.92864
▁ky	-9.93143
▁af	-9.93253
▁gyal	-9.9326
▁lan	-9.93306
▁park	-9.93392
kép	-9.93449
▁éb	-9.93559
▁vek	-9.93593
▁állat	-9.93604
▁alék	-9.93647
▁Di	-9.93663
▁éntek	-9.93673
▁sár	-9.93834
▁séget	-9.93838
▁ályok	-9.93841
▁tél	-9.9396
▁helye	-9.94066
▁17	-9.94102
▁amp	-9.94121
▁ey	-9.94127
▁ssé	-9.9418
▁inak	-9.94214
▁lefon	-9.94242
▁napo	-9.94245
▁lom	-9.94246
▁sse	-9.94276
▁lg	-9.94317
▁apo	-9.94407
▁ancs	-9.9442
▁elmé	-9.94448
fog	-9.94492
▁Dr	-9.94527
▁itány	-9.94569
▁tják	-9.94625
tat	-9.94626
▁yőr	-9.94646
▁zam	-9.94677
▁faj	-9.94746
▁elvé	-9.95027
▁etbe	-9.95261
▁mon	-9.95292
ro	-9.95326
▁iába	-9.95346
▁ksz	-9.95355
▁ép	-9.95357
▁nó	-9.95369
▁jk	-9.95482
▁Du	-9.95563
▁ona	-9.9559
▁orna	-9.9561
▁anács	-9.95646
gál	-9.95648
▁eres	-9.95655
▁apa	-9.95785
7	-9.9581
ór	-9.95812
▁lista	-9.95933
▁cz	-9.96048
▁róla	-9.96074
▁adta	-9.96133
▁lig	-9.96189
▁tív	-9.96388
▁ibo	-9.96394
▁osok	-9.96451
▁ch	-9.9656
don	-9.96577
▁árv	-9.96653
▁Má	-9.96724
▁nor	-9.96794
▁uszt	-9.96816
▁até	-9.9699
▁KA	-9.97013
▁psz	-9.97108
▁tni	-9.97165
▁epet	-9.97388
▁ada	-9.9741
▁itte	-9.97514
▁atni	-9.97599
▁has	-9.9773
▁ált	-9.97756
▁jj	-9.97787
▁űn	-9.97808
▁19	-9.97969
▁szaka	-9.98067
▁pir	-9.98104
▁őt	-9.98141
▁labd	-9.98151
▁anc	-9.98224
▁szon	-9.98226
▁ug	-9.9844
▁igo	-9.98579
▁megye	-9.98595
aszn	-9.9861
▁nék	-9.98767
▁rny	-9.98773
▁rag	-9.98776
▁rád	-9.98786
▁uló	-9.98833
▁erék	-9.99005
▁leb	-9.99146
nné	-9.99208
▁GDP	-9.99252
▁Ne	-9.99424
▁ped	-9.99484
▁enő	-9.99513
ójá	-9.99679
▁áro	-9.99813
ommu	-9.99847
▁tok	-9.99992
▁ztr	-10.0001
▁nf	-10.0027
▁esz	-10.0039
▁nné	-10.0054
▁ert	-10.0054
▁észet	-10.0057
▁sik	-10.0064
▁etes	-10.0064
▁vén	-10.0079
▁dó	-10.0092
▁lód	-10.0097
ber	-10.0111
▁200	-10.0112
kőz	-10.0115
▁rika	-10.012
▁dor	-10.0121
▁nyh	-10.0144
▁omás	-10.0151
▁sül	-10.0153
▁Ku	-10.0167
▁étel	-10.017
▁grá	-10.0172
▁liá	-10.0176
▁fig	-10.0189
▁gó	-10.019
▁zil	-10.0209
▁Hi	-10.0222
▁mp	-10.0225
▁ezi	-10.0236
▁din	-10.0237
▁tva	-10.0245
▁Am	-10.025
▁Fő	-10.0275
▁lda	-10.028
▁ajta	-10.0283
▁rbe	-10.029
▁taná	-10.0292
▁ossz	-10.0294
▁szal	-10.0302
▁ári	-10.0308
▁rében	-10.0314
sság	-10.0316
▁orn	-10.0333
▁22	-10.0337
▁ésben	-10.0351
▁onos	-10.0354
▁ságra	-10.0366
▁ener	-10.0373
▁org	-10.0376
▁sul	-10.0378
▁eszi	-10.0395
▁nia	-10.041
▁vb	-10.0415
▁ács	-10.0428
rá	-10.0429
▁sad	-10.0435
▁emp	-10.0436
▁ges	-10.044
▁ate	-10.0445
▁tró	-10.0452
▁II	-10.0459
▁%	-10.0472
▁sar	-10.0473
▁obá	-10.0476
örny	-10.0486
▁almat	-10.0498
▁nyok	-10.0517
▁ld	-10.0517
lato	-10.0534
▁lya	-10.0536
▁ub	-10.0542
▁omb	-10.0549
▁űvész	-10.055
▁ió	-10.0553
la	-10.0558
▁Mc	-10.0565
▁rg	-10.0567
▁gh	-10.0575
▁vin	-10.0584
▁prob	-10.0584
▁ofi	-10.0587
▁kő	-10.059
▁veg	-10.0635
O	-10.0646
▁ilv	-10.0651
▁éma	-10.0656
▁pó	-10.0661
▁bar	-10.067
▁sáv	-10.0672
▁ór	-10.0683
▁bir	-10.0684
▁áson	-10.0686
▁dai	-10.0691
▁szál	-10.0691
▁iában	-10.0699
▁1.	-10.0707
▁ndi	-10.0712
▁ska	-10.0716
▁nyol	-10.0719
▁sák	-10.0727
▁lye	-10.0747
▁ói	-10.0748
▁ugá	-10.0778
▁th	-10.0795
▁lógia	-10.0802
köv	-10.0807
ha	-10.0814
▁yében	-10.0815
▁Ab	-10.0817
▁ással	-10.0829
▁napja	-10.0848
▁mok	-10.0852
▁éget	-10.0866
▁tból	-10.0868
▁adja	-10.0868
▁ától	-10.087
va	-10.0873
▁kif	-10.0886
▁ozni	-10.0892
▁rad	-10.0896
▁kozás	-10.0904
▁ón	-10.0913
▁pi	-10.0925
dö	-10.0934
▁adá	-10.0945
▁ius	-10.0951
fej	-10.0963
kó	-10.0966
▁amik	-10.0972
▁ont	-10.0976
▁edz	-10.098
▁ons	-10.0999
▁gia	-10.1001
▁gész	-10.1006
▁Eb	-10.1013
▁ica	-10.103
▁Ami	-10.1039
▁Co	-10.1042
▁wi	-10.1049
▁ád	-10.105
▁llye	-10.1057
▁tse	-10.106
▁aló	-10.1079
▁lor	-10.1084
▁ráz	-10.1085
érté	-10.1088
▁elen	-10.1109
▁sej	-10.112
▁mis	-10.1121
▁dul	-10.1138
emző	-10.1138
▁des	-10.1145
▁szp	-10.1146
▁ető	-10.1147
▁sztel	-10.1159
▁erge	-10.1168
▁apá	-10.1188
▁rem	-10.1189
▁ara	-10.1195
érsé	-10.1195
▁táma	-10.1196
▁gan	-10.1197
▁60	-10.1197
▁áb	-10.1203
▁ölt	-10.121
▁gyü	-10.1218
▁rjá	-10.1229
▁kál	-10.1236
▁SZDSZ	-10.1239
▁csú	-10.1243
▁lö	-10.1243
▁űk	-10.1245
ehé	-10.126
▁oru	-10.1272
▁tro	-10.1282
▁tű	-10.1288
ed	-10.1313
▁zer	-10.1314
▁rán	-10.1319
▁mö	-10.1327
gár	-10.1333
tek	-10.1349
▁attal	-10.1369
▁élt	-10.1382
▁ova	-10.1384
▁hús	-10.1387
sszo	-10.1392
▁pany	-10.1392
▁lhető	-10.1408
▁nyú	-10.1412
▁llá	-10.1422
▁unkat	-10.1433
ud	-10.1452
▁ime	-10.1454
▁kro	-10.1456
▁kezé	-10.1462
▁tu	-10.1471
▁kov	-10.1477
▁ndr	-10.1507
▁lve	-10.151
▁Na	-10.153
▁ága	-10.1537
▁érni	-10.1541
▁éc	-10.1543
▁avas	-10.1547
▁our	-10.1559
▁tését	-10.156
▁médi	-10.1565
&	-10.158
▁med	-10.1584
▁krá	-10.1592
▁ösz	-10.1597
dá	-10.1606
▁mre	-10.1609
▁ttek	-10.161
▁ókat	-10.1614
▁zzák	-10.1624
▁ncs	-10.1633
▁tiku	-10.1635
▁szköz	-10.1636
ay	-10.1648
▁cu	-10.1658
▁kl	-10.1662
▁iba	-10.1666
▁illi	-10.1681
▁letes	-10.1681
▁ph	-10.169
▁ach	-10.169
▁pest	-10.1701
▁23	-10.1717
▁lit	-10.1718
▁yel	-10.1723
▁zba	-10.1725
▁len	-10.1726
▁bol	-10.1749
▁okról	-10.1778
▁Itt	-10.1787
▁éd	-10.1802
▁áf	-10.181
▁nte	-10.1817
▁KDNP	-10.1822
▁lható	-10.1823
▁zárt	-10.1824
▁nyz	-10.1832
▁fiz	-10.1833
▁oro	-10.1837
▁kics	-10.1844
im	-10.1856
▁font	-10.1873
▁rod	-10.1909
▁süt	-10.1915
▁uc	-10.1922
▁zák	-10.1926
▁almá	-10.1927
▁wa	-10.1939
▁Li	-10.1943
▁ull	-10.1951
▁kedő	-10.1951
▁ítj	-10.1954
▁mos	-10.1958
▁gle	-10.1964
▁TV	-10.1981
▁eten	-10.1992
▁sp	-10.2009
▁ített	-10.2025
▁Fr	-10.2027
▁rü	-10.2028
▁ier	-10.203
▁urc	-10.204
▁jára	-10.2042
▁ztá	-10.2049
▁ína	-10.2051
▁ndo	-10.2053
▁téte	-10.2066
▁Gu	-10.2088
▁ságát	-10.2102
▁2,	-10.2107
▁lf	-10.2123
▁co	-10.2129
▁rca	-10.2142
▁záró	-10.2166
▁lk	-10.217
▁tható	-10.2184
▁umi	-10.2195
▁inn	-10.2195
.:	-10.2195
▁yő	-10.22
▁blo	-10.2217
▁3,	-10.2237
▁rzet	-10.224
ikai	-10.2246
▁Ju	-10.2249
▁lef	-10.227
▁lke	-10.2274
ly	-10.2275
▁onta	-10.2275
▁kol	-10.2287
▁riv	-10.2294
▁uli	-10.2297
▁500	-10.2315
▁szön	-10.2315
▁ian	-10.2318
▁ond	-10.2326
▁japá	-10.2326
▁otó	-10.2333
▁zása	-10.2336
▁enge	-10.2338
▁redet	-10.2359
▁bru	-10.236
▁óc	-10.2365
▁rö	-10.2367
▁ódos	-10.2368
▁21	-10.2375
▁tatni	-10.2378
▁ányi	-10.2387
q	-10.2392
▁fegy	-10.2401
▁mé	-10.2401
▁gl	-10.2402
▁sír	-10.2414
▁ováb	-10.243
ték	-10.2431
▁ze	-10.2433
▁edv	-10.2437
▁ga	-10.2437
▁Eur	-10.2438
▁To	-10.2444
▁ezik	-10.245
▁ezmé	-10.2453
▁mán	-10.2471
▁vis	-10.2486
▁rz	-10.2496
▁zg	-10.2509
▁ale	-10.2516
▁ságot	-10.2525
▁imm	-10.253
▁Ó	-10.2537
▁hit	-10.2537
▁Ben	-10.2541
▁uko	-10.2556
▁rét	-10.2566
▁evő	-10.2576
▁nel	-10.2582
▁zerv	-10.2583
▁amos	-10.2587
▁néh	-10.259
▁jék	-10.2598
▁PL	-10.2605
▁elkö	-10.2608
▁zelé	-10.2611
▁rok	-10.2616
▁alán	-10.2626
▁gát	-10.2634
▁Én	-10.264
▁eny	-10.2647
tató	-10.2647
▁kán	-10.2663
▁bö	-10.2665
▁ivál	-10.2673
▁lása	-10.2689
▁chi	-10.269
▁háza	-10.2708
▁kert	-10.2713
▁ili	-10.272
▁zol	-10.2726
▁ves	-10.2729
▁yom	-10.273
▁elés	-10.2764
▁dö	-10.2764
▁ind	-10.2796
▁áci	-10.2801
▁etne	-10.282
▁késő	-10.2834
▁ém	-10.2845
▁eksz	-10.2866
▁tál	-10.2877
▁iga	-10.2896
Az	-10.2918
▁eml	-10.2934
▁atát	-10.2935
▁zhat	-10.2951
▁aval	-10.2956
▁letet	-10.2967
▁ob	-10.2968
▁ezők	-10.2969
▁sod	-10.2987
▁FC	-10.2988
▁fesz	-10.3011
ána	-10.3018
▁rú	-10.3022
▁km	-10.3023
▁mm	-10.3025
▁lme	-10.303
▁lga	-10.3038
▁esél	-10.3049
▁elf	-10.305
▁sé	-10.3059
▁pre	-10.3075
▁adal	-10.3079
▁kés	-10.3084
▁iza	-10.3091
co	-10.3093
▁ommu	-10.3094
▁atást	-10.3099
▁ósít	-10.3125
▁gár	-10.313
▁atják	-10.3139
▁go	-10.3151
▁rben	-10.3158
ért	-10.3161
▁vai	-10.3165
▁raga	-10.3188
▁dy	-10.3209
of	-10.3218
▁gál	-10.3219
▁iná	-10.3222
▁oltá	-10.3227
▁tért	-10.323
▁osít	-10.3243
▁zon	-10.3246
▁enne	-10.3249
▁akí	-10.325
▁dv	-10.3257
▁lmény	-10.3281
▁kre	-10.3287
▁der	-10.3297
▁óbb	-10.3299
▁35	-10.332
▁ác	-10.3328
▁ölgy	-10.3329
▁orr	-10.3341
▁lán	-10.3343
▁PK	-10.3364
▁ive	-10.3367
▁nének	-10.3367
▁átv	-10.3389
▁nté	-10.3397
▁aks	-10.3406
▁oml	-10.3413
▁eik	-10.3415
▁bó	-10.3423
▁éri	-10.3432
▁táp	-10.3432
▁gyész	-10.3441
▁ánál	-10.3444
▁Ni	-10.3445
▁dött	-10.3447
▁sér	-10.3449
▁hir	-10.3453
▁odott	-10.3467
▁ádo	-10.3471
▁láz	-10.3471
▁aná	-10.3472
▁zsa	-10.3474
▁esége	-10.3478
▁semm	-10.3478
▁ster	-10.3484
▁lly	-10.3488
▁nti	-10.3495
▁zsá	-10.3498
▁orra	-10.3516
▁szán	-10.3518
▁sabb	-10.3526
▁urá	-10.3527
▁lük	-10.3528
▁4.	-10.3536
▁erte	-10.3543
▁jába	-10.355
▁üs	-10.3568
▁szén	-10.3586
▁ivá	-10.3591
▁etei	-10.3601
▁27	-10.3602
▁lók	-10.3616
▁onto	-10.3616
▁ina	-10.3617
▁26	-10.3618
▁Ph	-10.3628
▁su	-10.3667
▁eng	-10.3669
▁rág	-10.368
▁nde	-10.3681
▁ref	-10.3684
▁nke	-10.3684
▁oli	-10.3684
▁edd	-10.3697
erik	-10.3712
▁ddi	-10.3716
▁und	-10.3723
▁bán	-10.3725
▁akart	-10.3738
▁neg	-10.3745
▁ztál	-10.3745
▁suk	-10.3747
▁król	-10.3765
ébe	-10.3768
▁alo	-10.3784
▁erí	-10.3789
val	-10.38
▁zetet	-10.3809
▁anu	-10.3815
tor	-10.3821
▁rs	-10.3821
▁árja	-10.3823
▁dev	-10.3823
▁lam	-10.3832
▁28	-10.3835
▁elni	-10.3836
▁eztek	-10.3838
▁eves	-10.3844
▁ito	-10.3852
▁etű	-10.3864
▁Vi	-10.3887
▁opron	-10.3891
▁orí	-10.3892
▁rság	-10.3904
▁gén	-10.3918
▁fű	-10.3926
▁edé	-10.3938
▁lege	-10.3946
▁ula	-10.3947
▁mu	-10.3953
▁émi	-10.3959
▁diá	-10.3961
▁if	-10.3971
▁lánc	-10.3977
▁gé	-10.3981
▁tika	-10.3987
▁atol	-10.399
▁ana	-10.4001
▁csk	-10.4017
▁redm	-10.402
▁lél	-10.4022
▁oss	-10.4031
▁arm	-10.4041
▁nos	-10.406
▁kezik	-10.4066
▁letek	-10.4078
▁vazás	-10.4084
▁dés	-10.4095
▁dag	-10.4098
▁szto	-10.4099
▁BBC	-10.4118
▁ado	-10.4123
▁enz	-10.4137
▁OTP	-10.414
▁80	-10.4144
▁tad	-10.4173
▁ülö	-10.4177
▁ted	-10.4181
▁ebe	-10.4196
▁lva	-10.4201
▁ssen	-10.4204
▁eri	-10.4222
▁erek	-10.4236
▁ung	-10.4239
▁teg	-10.4248
▁MÁV	-10.4281
▁api	-10.4282
▁esé	-10.4291
▁ars	-10.4294
▁erben	-10.4329
▁ota	-10.433
▁óban	-10.4337
,7	-10.4346
▁rtj	-10.435
▁70	-10.4355
▁szár	-10.4356
▁ől	-10.4365
▁tter	-10.4373
▁iroda	-10.4384
▁IMF	-10.4396
▁örül	-10.4437
▁Aki	-10.4442
▁tság	-10.4443
▁rus	-10.4449
▁tim	-10.445
▁rí	-10.4507
▁nyve	-10.4519
▁llen	-10.4522
▁anta	-10.4523
de	-10.4539
▁rip	-10.4539
▁dar	-10.4542
▁0,	-10.4544
▁repü	-10.4549
▁aga	-10.4551
▁tört	-10.4554
▁ány	-10.4555
▁ero	-10.4565
▁yá	-10.4573
▁odá	-10.4577
▁atban	-10.4599
▁inti	-10.4607
▁zín	-10.4627
▁trag	-10.4634
▁kezés	-10.4641
▁lato	-10.4648
▁ülte	-10.4672
▁ain	-10.4674
▁hor	-10.4683
ci	-10.4684
▁apos	-10.4686
▁vers	-10.4707
ként	-10.4709
▁táj	-10.4712
▁lít	-10.472
▁napj	-10.4729
▁Mű	-10.473
▁lic	-10.4748
▁vad	-10.4751
▁mir	-10.4753
▁avid	-10.4755
▁áv	-10.4765
▁Ny	-10.4782
▁szeg	-10.4792
▁Pál	-10.4795
▁nga	-10.4805
▁vásár	-10.4808
▁szik	-10.4818
▁nat	-10.4823
▁erd	-10.4849
▁ech	-10.4859
▁dic	-10.4861
abin	-10.4861
▁gyu	-10.4863
"	-10.4865
▁lli	-10.4873
▁ors	-10.4876
20	-10.4878
▁lle	-10.4889
ökö	-10.4891
▁zor	-10.4917
▁arr	-10.492
▁USA	-10.4929
▁kop	-10.4933
▁ici	-10.4933
▁xi	-10.4938
▁rol	-10.4984
▁áns	-10.4988
▁che	-10.5006
▁Do	-10.5008
▁újt	-10.5024
▁rep	-10.5026
U	-10.5038
▁Re	-10.5039
▁éko	-10.5049
▁íj	-10.5054
▁ini	-10.5064
▁tete	-10.5074
▁tán	-10.5076
▁uso	-10.5078
▁üd	-10.508
dalm	-10.508
▁ogó	-10.5088
▁lete	-10.509
▁rig	-10.5093
▁29	-10.5095
▁atá	-10.5116
▁ilo	-10.5119
▁lub	-10.5131
▁kok	-10.5133
▁iti	-10.5133
▁ságá	-10.5144
▁óm	-10.5144
▁itá	-10.5154
▁mar	-10.5166
▁tje	-10.517
▁Mon	-10.5172
▁Rend	-10.5174
▁ame	-10.5179
▁mb	-10.5187
▁ladás	-10.5187
▁ozz	-10.5197
old	-10.5201
▁lmo	-10.5204
▁szöv	-10.5206
▁ánc	-10.5214
▁töm	-10.5216
▁elik	-10.5238
▁tató	-10.5238
▁asi	-10.525
▁ván	-10.5265
▁zato	-10.5267
▁kom	-10.5269
▁con	-10.5273
▁90	-10.528
▁ida	-10.529
▁ast	-10.5341
úr	-10.5344
▁szö	-10.5364
▁ügg	-10.5365
▁one	-10.5377
▁adtak	-10.5378
▁zy	-10.5383
▁iban	-10.5385
▁sy	-10.5388
mény	-10.5391
▁osa	-10.5397
▁abo	-10.5408
▁egyet	-10.5411
▁ür	-10.5416
▁ikk	-10.5418
▁La	-10.5418
▁úcs	-10.5423
▁lid	-10.543
▁eld	-10.5445
▁iel	-10.5462
▁énye	-10.5465
▁45	-10.5493
▁emél	-10.5495
▁efek	-10.5498
▁sc	-10.551
▁fil	-10.5529
aj	-10.5545
▁önyv	-10.5554
▁000	-10.5562
▁tuc	-10.5586
▁klu	-10.5603
▁iek	-10.5614
▁íti	-10.5619
▁32	-10.5625
▁ondo	-10.5639
▁közt	-10.5642
▁égi	-10.5649
▁eut	-10.5659
éma	-10.5668
▁izet	-10.5715
▁sb	-10.5715
▁teti	-10.5726
▁mil	-10.5729
▁ali	-10.5735
▁óján	-10.575
▁rtok	-10.5754
▁rsen	-10.5761
lov	-10.5769
▁nfl	-10.5771
▁ENSZ	-10.5782
▁rró	-10.5795
▁Ám	-10.5807
▁oto	-10.5829
▁graf	-10.5835
▁ará	-10.5839
▁iát	-10.5857
▁avar	-10.586
▁tej	-10.586
▁édi	-10.5862
▁̋	-10.5865
▁rk	-10.5881
▁=	-10.5882
▁ársa	-10.5888
▁rr	-10.589
▁yőz	-10.5903
ox	-10.5926
▁élte	-10.5926
▁ende	-10.5947
▁kozik	-10.5951
▁elek	-10.5958
▁lek	-10.5964
▁gn	-10.5979
▁ozhat	-10.5983
▁egyé	-10.5986
▁sztán	-10.6001
▁Mic	-10.6002
▁gyi	-10.6005
▁gul	-10.6006
▁ege	-10.6016
▁csu	-10.6022
▁Car	-10.6026
ff	-10.6027
▁köd	-10.6041
▁nár	-10.6065
▁atták	-10.6085
▁pla	-10.6097
▁ssa	-10.6101
▁abá	-10.6134
▁sso	-10.614
▁assa	-10.6145
▁olv	-10.6147
▁ítani	-10.6154
▁esnek	-10.6157
▁4,	-10.6161
▁zm	-10.6163
▁nőt	-10.6184
▁ázá	-10.62
▁nán	-10.6207
▁eré	-10.6212
▁üv	-10.6225
ca	-10.6236
▁vj	-10.625
▁res	-10.6252
▁kba	-10.6273
▁app	-10.6279
▁mért	-10.6281
▁ízi	-10.6285
▁rga	-10.6285
▁alj	-10.6286
▁sto	-10.6288
▁erep	-10.6293
▁enko	-10.6296
▁ótá	-10.6324
▁ita	-10.6342
▁kór	-10.6362
▁cé	-10.638
▁lem	-10.6389
▁artin	-10.6401
▁edt	-10.6403
▁zölt	-10.6411
▁gyel	-10.6413
ry	-10.6422
ány	-10.6425
▁alv	-10.6437
▁gne	-10.6441
▁nála	-10.6452
▁ilá	-10.6456
▁ence	-10.6466
▁Af	-10.6476
ződ	-10.6504
▁ric	-10.6509
▁ránt	-10.6524
▁latot	-10.6525
▁ányá	-10.6531
▁alól	-10.6533
▁las	-10.6534
▁nyzat	-10.654
▁rzés	-10.6552
▁zok	-10.6555
▁ca	-10.6573
▁irály	-10.6576
▁eho	-10.6577
▁mpl	-10.6584
▁őse	-10.6593
▁erés	-10.6628
▁ins	-10.6633
▁szé	-10.6637
▁onál	-10.6643
▁zatot	-10.6659
▁nyét	-10.6665
▁utt	-10.6706
▁melés	-10.6721
▁mor	-10.6726
▁olgá	-10.6728
▁észek	-10.673
▁erk	-10.6733
▁dü	-10.6733
▁mot	-10.6741
40	-10.6748
▁nban	-10.6755
▁áron	-10.6775
▁enger	-10.6786
ix	-10.6803
▁akko	-10.6814
▁iről	-10.6827
▁eat	-10.6831
▁őj	-10.6832
▁Su	-10.6832
▁gon	-10.684
▁niá	-10.6855
▁ájá	-10.6857
▁era	-10.689
▁yomo	-10.6894
▁kém	-10.6899
▁rnak	-10.6901
▁lóba	-10.6918
yer	-10.6918
▁sszi	-10.6922
▁tün	-10.6925
▁pap	-10.693
▁nában	-10.6932
▁klím	-10.6938
▁ví	-10.6943
▁zban	-10.6947
▁nco	-10.695
▁árá	-10.6958
▁vent	-10.6982
▁ilm	-10.7
▁dj	-10.701
▁MNB	-10.7012
▁enci	-10.7017
▁árad	-10.7029
▁mas	-10.7029
▁Vá	-10.7031
▁KN	-10.7048
▁etten	-10.7059
éne	-10.7063
▁özé	-10.7069
▁ine	-10.708
ják	-10.7099
▁lata	-10.7103
▁nák	-10.7107
X	-10.7116
ku	-10.7141
▁rn	-10.7143
▁lep	-10.7158
▁uház	-10.7166
▁rdek	-10.7167
▁rec	-10.7167
▁olg	-10.7172
ese	-10.7182
▁lér	-10.7187
MW	-10.7198
▁nes	-10.7199
▁zed	-10.7214
▁ekv	-10.7214
▁ulá	-10.7215
▁ritk	-10.7227
▁sztás	-10.7234
▁ij	-10.7255
▁sko	-10.7257
▁ros	-10.726
J	-10.7266
▁rés	-10.7269
▁lést	-10.7271
▁ánya	-10.7277
▁nöke	-10.7277
W	-10.7279
▁mul	-10.7287
▁okr	-10.7295
▁yot	-10.7307
60	-10.7311
▁vert	-10.7315
▁nü	-10.7317
▁rul	-10.735
▁öd	-10.7353
▁ans	-10.7365
▁gynök	-10.7369
▁kad	-10.7375
▁ley	-10.7401
mel	-10.7405
▁ozó	-10.741
Z	-10.7415
▁Te	-10.7432
▁lába	-10.7443
▁nne	-10.7446
▁Ce	-10.7461
▁őké	-10.748
▁emb	-10.7481
▁nkat	-10.7484
▁sark	-10.7513
▁olha	-10.7523
▁esk	-10.7526
▁rp	-10.7542
▁pő	-10.7553
▁Ol	-10.757
▁ruh	-10.7574
▁bic	-10.7582
▁alál	-10.7583
▁kett	-10.7586
?	-10.7587
▁árás	-10.7592
▁umb	-10.7622
▁Audi	-10.763
▁gét	-10.7642
▁nálat	-10.7645
▁rő	-10.7649
▁5.	-10.766
▁q	-10.7671
▁ikl	-10.7673
▁dig	-10.7677
▁szat	-10.7688
▁zt	-10.7689
▁aul	-10.7692
▁sek	-10.7692
lék	-10.7696
▁nyak	-10.7697
▁rand	-10.7703
▁mál	-10.7713
▁alon	-10.7716
▁pak	-10.7727
▁36	-10.773
▁kf	-10.7732
,5	-10.7733
▁atók	-10.7734
▁def	-10.7734
▁ncse	-10.7736
▁dán	-10.7737
▁nus	-10.7737
▁okba	-10.7745
▁enau	-10.7754
ábor	-10.7762
▁rin	-10.7774
▁lyá	-10.7778
▁évé	-10.779
▁elhet	-10.7799
▁ski	-10.7808
▁rén	-10.7818
▁alka	-10.7821
▁riz	-10.7867
ru	-10.7872
▁gor	-10.7891
▁gre	-10.7899
▁szük	-10.79
▁the	-10.7902
▁adók	-10.7906
ciu	-10.7908
▁kból	-10.7911
▁nnek	-10.7915
▁Ti	-10.7916
▁lvár	-10.7917
▁ogo	-10.792
▁sho	-10.7933
tség	-10.7944
▁iku	-10.795
▁éken	-10.7953
alm	-10.7966
▁ilág	-10.7966
▁alk	-10.7973
▁onz	-10.7994
▁tó	-10.7994
um	-10.7996
▁tb	-10.8006
▁ldi	-10.8014
▁mét	-10.8016
▁rdo	-10.8021
▁ew	-10.8024
▁ekor	-10.8038
adar	-10.8044
▁tar	-10.8053
▁NB	-10.8055
▁ngs	-10.8059
▁erepe	-10.8061
▁yil	-10.8062
▁ncia	-10.8072
▁APEH	-10.8076
▁nom	-10.8083
▁vol	-10.8086
▁uz	-10.8087
▁yö	-10.8091
▁onda	-10.811
▁káb	-10.8113
▁dat	-10.8116
▁sté	-10.8126
▁énz	-10.8134
▁ano	-10.8142
▁oln	-10.8144
▁vész	-10.815
▁lto	-10.8151
▁tene	-10.8155
▁oks	-10.82
▁iro	-10.8209
▁gyedi	-10.8237
▁31	-10.8244
▁uka	-10.8244
▁benn	-10.8264
▁WA	-10.8269
▁tojás	-10.8286
▁etese	-10.8287
▁tta	-10.8301
▁vei	-10.8317
▁nci	-10.8331
▁lok	-10.8342
▁elin	-10.835
▁érté	-10.8362
▁bak	-10.8373
10	-10.8374
▁nc	-10.8404
▁lm	-10.8415
▁átra	-10.844
▁lemz	-10.8442
jár	-10.8444
▁uh	-10.8457
▁amu	-10.8462
▁non	-10.8466
▁tj	-10.8471
▁ram	-10.8488
▁láng	-10.8492
▁bomb	-10.8497
▁iben	-10.8503
▁ései	-10.8524
▁rke	-10.8526
▁sti	-10.8526
▁abi	-10.8544
▁sör	-10.8548
▁vat	-10.855
▁MTV	-10.8552
▁lad	-10.8553
ron	-10.8569
▁top	-10.857
▁rge	-10.8587
▁arla	-10.8594
▁sés	-10.8601
▁lál	-10.8602
▁kodás	-10.8603
▁kbe	-10.8609
▁ajno	-10.8618
▁abba	-10.8627
▁érő	-10.8629
▁ikor	-10.863
▁gő	-10.8646
▁Mag	-10.8667
▁ekek	-10.8669
▁RTL	-10.8676
▁yug	-10.8676
▁aha	-10.8685
▁nce	-10.8692
▁ocs	-10.8695
▁ean	-10.871
▁áló	-10.8714
▁oh	-10.8729
▁szan	-10.873
▁air	-10.8733
től	-10.8742
▁6.	-10.8743
▁5,	-10.8744
▁ekbe	-10.8751
▁eter	-10.8756
▁inál	-10.8759
zle	-10.8763
0	-10.8776
▁ssan	-10.8792
▁Pr	-10.8804
▁33	-10.8815
▁onc	-10.8853
▁sétá	-10.8861
▁7.	-10.8862
▁ford	-10.8867
▁önt	-10.8867
▁áma	-10.887
▁aw	-10.8879
▁tum	-10.8884
80	-10.8887
▁7,	-10.889
É	-10.8896
▁gya	-10.8902
ügy	-10.8922
▁ix	-10.8937
▁pás	-10.8952
▁ulti	-10.8952
▁arna	-10.8953
▁műv	-10.8962
▁we	-10.897
▁rde	-10.9012
▁tri	-10.9018
▁fon	-10.9027
▁llító	-10.9035
▁erzés	-10.9036
▁azás	-10.9043
▁ved	-10.9043
▁tésre	-10.9051
▁irt	-10.9057
▁zul	-10.9093
▁les	-10.9094
▁szló	-10.9098
▁ndá	-10.9098
▁aték	-10.9099
▁oj	-10.911
▁pot	-10.9112
▁ósí	-10.9113
bi	-10.9113
▁éze	-10.9115
▁Lu	-10.912
▁oso	-10.9122
▁nda	-10.9128
▁Mar	-10.9132
▁lati	-10.9138
▁íre	-10.9145
▁gett	-10.9148
▁lapo	-10.915
▁etv	-10.9157
▁izto	-10.9177
▁37	-10.918
▁ésen	-10.9184
zí	-10.9185
▁gazg	-10.9191
▁dén	-10.9199
▁erc	-10.9209
▁kur	-10.9226
ériu	-10.9227
▁eh	-10.9238
▁mó	-10.9239
▁aro	-10.9243
▁ava	-10.9261
▁éh	-10.9272
▁38	-10.9274
▁ttá	-10.9283
ow	-10.9288
▁olit	-10.9298
▁6,	-10.9308
▁okol	-10.9318
▁mber	-10.932
▁git	-10.9326
and	-10.9334
▁íté	-10.9338
▁gez	-10.934
AC	-10.9343
▁kedve	-10.9343
▁adata	-10.9345
▁riu	-10.935
▁lmi	-10.9352
▁ony	-10.9366
▁anuár	-10.9369
▁izm	-10.937
▁Fu	-10.9371
▁örny	-10.9373
▁ola	-10.9383
▁áró	-10.9404
▁nész	-10.9404
▁pon	-10.9412
▁34	-10.9426
▁zené	-10.9438
▁vak	-10.9447
▁rpool	-10.9456
▁pri	-10.9465
NS	-10.9472
▁lc	-10.9474
▁örg	-10.9475
▁anti	-10.9491
▁rich	-10.9493
▁ila	-10.9498
▁BUX	-10.9504
▁tóbbi	-10.9504
▁rug	-10.9509
▁imi	-10.9514
▁ulha	-10.952
▁ójá	-10.9535
▁torn	-10.954
▁Szi	-10.9549
▁sában	-10.9551
▁ála	-10.9559
▁SZ	-10.9607
▁ital	-10.9617
▁stá	-10.9627
kban	-10.9632
▁amo	-10.9642
▁kut	-10.9647
▁atnak	-10.965
▁etr	-10.9653
70	-10.9666
▁rj	-10.9668
▁umo	-10.9672
▁ned	-10.9675
▁örü	-10.9691
▁III	-10.97
▁tötte	-10.9704
▁lne	-10.9708
▁ektet	-10.9713
rab	-10.9714
▁erez	-10.9715
ből	-10.9741
▁ival	-10.9749
▁pü	-10.9755
▁BRFK	-10.9755
▁téri	-10.9756
▁któl	-10.9764
▁szű	-10.9766
▁pet	-10.9772
▁tba	-10.9778
▁#	-10.9796
▁rik	-10.9804
▁amin	-10.983
▁zata	-10.9838
▁gyá	-10.9867
▁8.	-10.9898
jle	-10.9898
▁42	-10.9902
▁omm	-10.9916
alif	-10.9926
▁áld	-10.9936
▁nyen	-10.9944
▁nad	-10.9949
▁pol	-10.9964
▁tú	-10.9971
▁ségek	-10.9981
▁yle	-10.9988
▁NATO	-10.9995
▁mec	-10.9997
▁agya	-10.9997
▁tszik	-11.0006
▁ndu	-11.0008
▁atr	-11.0017
▁kim	-11.0019
▁áli	-11.0036
▁Dán	-11.0048
▁ago	-11.0056
▁OVB	-11.0097
▁GP	-11.0098
▁bj	-11.0107
▁edik	-11.0112
▁Sp	-11.0114
ah	-11.0116
▁ged	-11.0144
▁talaj	-11.0151
▁ress	-11.0151
▁mpá	-11.0161
▁lyo	-11.0162
▁gáb	-11.0201
▁arta	-11.0224
▁ogá	-11.0224
xc	-11.0226
▁erke	-11.0239
eket	-11.026
▁sap	-11.0262
▁pit	-11.0273
▁lóg	-11.0275
▁arj	-11.0283
▁row	-11.0287
▁iket	-11.0297
▁entes	-11.0303
▁Appl	-11.0303
▁ppe	-11.031
▁ásf	-11.032
▁apit	-11.0331
▁cá	-11.034
▁dam	-11.0346
▁gás	-11.0353
▁ock	-11.0358
▁10.	-11.0359
úd	-11.0365
▁ségv	-11.0369
▁ebes	-11.0369
▁erb	-11.0374
▁olá	-11.0387
▁rett	-11.0396
▁lógi	-11.0401
▁óba	-11.0402
▁ésbe	-11.043
▁apja	-11.0436
▁zlo	-11.0463
▁gom	-11.0464
▁zd	-11.0469
▁jo	-11.0471
▁ián	-11.0496
▁pc	-11.0506
▁ziget	-11.0512
▁álás	-11.0513
ec	-11.0518
▁delm	-11.0532
▁izen	-11.0533
▁cer	-11.0537
▁mma	-11.054
▁tov	-11.0551
▁yű	-11.0556
▁tern	-11.0558
▁szta	-11.0563
▁étele	-11.0568
▁San	-11.0572
▁édia	-11.0573
ley	-11.0577
▁iák	-11.0577
▁khoz	-11.0582
▁limp	-11.0595
▁reke	-11.0608
▁55	-11.0614
TE	-11.0615
▁ásuk	-11.0619
▁ono	-11.0619
▁kij	-11.062
▁árto	-11.0632
▁And	-11.0639
▁ukk	-11.0652
▁enté	-11.0657
▁65	-11.0673
log	-11.0675
emb	-11.0681
▁omp	-11.0684
rác	-11.0692
▁GB	-11.0693
▁dia	-11.0699
▁zám	-11.0704
uc	-11.0707
▁llo	-11.0707
▁sítés	-11.0707
▁zve	-11.0724
▁iak	-11.0749
▁dos	-11.0754
▁ys	-11.0754
▁inno	-11.0761
▁zomb	-11.0763
▁oy	-11.0771
▁érle	-11.0775
▁lim	-11.0777
▁ezete	-11.0778
▁nas	-11.0786
▁vig	-11.0802
▁1,5	-11.0832
▁képe	-11.0838
▁75	-11.0866
▁EP	-11.0877
▁jan	-11.088
▁rány	-11.0887
!	-11.0889
▁gazol	-11.0894
▁íro	-11.0897
▁zű	-11.0903
▁jeg	-11.0915
▁ias	-11.0919
▁uhá	-11.0932
▁edél	-11.0937
▁ésén	-11.0941
▁ejte	-11.0948
▁tev	-11.0957
▁ndre	-11.0964
▁zőj	-11.0972
▁teli	-11.0982
SE	-11.0984
▁eon	-11.0992
Á	-11.0999
ima	-11.1015
les	-11.1021
▁klin	-11.1022
▁eag	-11.1047
▁ndor	-11.105
▁erjed	-11.1057
▁Q	-11.1058
30	-11.1075
▁Bx	-11.1086
▁szek	-11.1096
cc	-11.1101
▁íteni	-11.1118
rih	-11.1127
▁ártó	-11.1128
▁Vil	-11.1132
▁rme	-11.1145
dor	-11.1161
▁inne	-11.1161
▁arva	-11.1164
/	-11.1168
apí	-11.117
▁ajz	-11.1171
abor	-11.1173
▁essé	-11.1175
▁fer	-11.1177
▁lh	-11.1192
▁add	-11.1198
▁gárda	-11.1204
▁azda	-11.1211
▁kle	-11.1212
▁_	-11.1227
▁tések	-11.1229
▁mia	-11.1234
▁zom	-11.1236
▁aho	-11.124
▁mes	-11.1259
▁kb	-11.1261
▁ékot	-11.1265
▁bin	-11.1275
▁tha	-11.1277
rin	-11.1299
▁Fa	-11.1327
▁FTC	-11.1347
▁álm	-11.1365
▁zete	-11.1365
▁omba	-11.137
▁ser	-11.1381
▁olc	-11.1383
▁gas	-11.1387
▁vét	-11.139
▁átr	-11.1393
▁kvá	-11.1395
▁utyin	-11.1399
▁tig	-11.1403
▁aláb	-11.1409
▁nst	-11.1417
ine	-11.1424
▁unka	-11.1427
▁pas	-11.1439
▁bon	-11.1454
▁anyá	-11.1482
▁dri	-11.1503
▁alat	-11.1507
▁utás	-11.1514
▁enb	-11.1521
▁désé	-11.1521
▁aci	-11.1551
▁his	-11.1554
▁utá	-11.1558
sztr	-11.1565
▁tese	-11.1567
▁szav	-11.1572
▁ósz	-11.1575
▁tip	-11.1577
▁rsa	-11.1578
▁ston	-11.1579
▁Ők	-11.1588
▁48	-11.1592
▁oc	-11.1599
▁azug	-11.1603
sztó	-11.1607
▁hala	-11.1629
▁laká	-11.163
▁artj	-11.1637
ész	-11.1659
▁15.	-11.1663
▁gán	-11.1674
▁ua	-11.1686
abad	-11.1694
▁Tu	-11.1707
▁özö	-11.172
▁hav	-11.1741
▁ztató	-11.1745
▁usa	-11.1748
▁39	-11.1751
•	-11.1753
▁gzet	-11.176
▁úsí	-11.1761
lin	-11.1761
▁roda	-11.1768
▁yon	-11.1775
▁bur	-11.1797
▁zámo	-11.1797
▁9.	-11.1808
▁komb	-11.1812
▁áté	-11.1825
seb	-11.1836
▁lob	-11.1845
▁taxi	-11.1846
ax	-11.1847
▁ije	-11.1854
▁41	-11.1858
▁vó	-11.1859
▁amat	-11.1872
▁entés	-11.1874
VG	-11.1886
▁orto	-11.1887
▁maj	-11.1911
▁álja	-11.1916
▁onf	-11.192
▁kev	-11.1936
▁hatna	-11.1942
▁nzé	-11.1942
▁eren	-11.1951
▁aren	-11.1957
▁ézi	-11.1971
▁18.	-11.1993
▁hel	-11.1999
▁halá	-11.2009
▁nic	-11.2012
▁őbe	-11.2014
▁rbá	-11.2014
▁anad	-11.2028
▁yés	-11.2032
▁erv	-11.204
▁mad	-11.2041
▁fen	-11.2051
▁fri	-11.2055
▁www	-11.2058
▁ire	-11.2063
▁íg	-11.2065
KB	-11.2066
▁ajt	-11.2066
▁gyé	-11.2069
▁iszo	-11.208
rah	-11.2086
▁mra	-11.2086
SV	-11.2093
Ö	-11.21
-5	-11.2116
rth	-11.2119
▁snak	-11.2124
▁udit	-11.2129
▁ákat	-11.2134
▁aria	-11.2139
▁ányok	-11.2157
▁jén	-11.22
apac	-11.2239
▁Ön	-11.2244
rkó	-11.2253
▁éldá	-11.2273
▁esze	-11.2294
▁ccs	-11.2311
▁sztó	-11.2323
▁fol	-11.2328
▁alam	-11.2331
▁óka	-11.2332
▁cal	-11.2344
▁egal	-11.2354
▁búj	-11.2373
▁dni	-11.2383
Ez	-11.2387
▁ozna	-11.2394
▁tti	-11.2406
▁nyag	-11.241
▁terá	-11.241
▁nj	-11.2417
▁irak	-11.2433
▁Dal	-11.2434
▁umok	-11.2443
Ha	-11.2444
▁kasz	-11.2447
▁emet	-11.2448
▁áshoz	-11.2454
▁érf	-11.2466
▁Mik	-11.2471
▁zan	-11.2483
▁yr	-11.2488
▁ülése	-11.25
▁Or	-11.2504
▁spo	-11.2514
▁aros	-11.2516
▁Nic	-11.2524
▁sztá	-11.2531
pár	-11.2537
▁elez	-11.2542
▁2,5	-11.2552
▁zab	-11.2553
▁ndí	-11.2557
▁alad	-11.2557
▁46	-11.2566
▁lós	-11.2581
▁Nő	-11.2585
▁tas	-11.2596
▁zsg	-11.2609
alap	-11.2613
▁rít	-11.2637
▁gárd	-11.2637
álko	-11.2638
▁ádár	-11.2638
▁oron	-11.2666
mbó	-11.2672
▁PSZÁF	-11.2697
▁>	-11.2698
▁onyi	-11.2701
▁bál	-11.2704
▁3,5	-11.2722
▁iók	-11.2722
▁éka	-11.2724
▁rmi	-11.2731
▁uan	-11.2736
bu	-11.2748
▁rmé	-11.2748
ában	-11.2751
▁árok	-11.2759
▁64	-11.2765
▁knál	-11.2768
▁eszé	-11.2783
▁mus	-11.2789
▁cent	-11.2789
▁line	-11.2792
▁lén	-11.2811
▁yó	-11.2811
▁ile	-11.2817
▁8,	-11.2824
▁eis	-11.2832
▁tlét	-11.2836
▁uss	-11.2838
▁Ru	-11.285
▁arry	-11.2852
▁lí	-11.2855
ázad	-11.2861
▁baba	-11.2869
▁isko	-11.2869
▁elö	-11.287
▁mitt	-11.288
▁och	-11.288
IA	-11.2883
▁lők	-11.2889
▁ä	-11.2898
▁nfor	-11.2916
▁yan	-11.2917
▁ilye	-11.2917
▁ázat	-11.2921
▁nove	-11.2921
▁ngo	-11.2932
▁sch	-11.2946
▁enf	-11.2969
▁43	-11.2977
▁mban	-11.2977
▁vezé	-11.298
▁rm	-11.298
▁ori	-11.298
▁pál	-11.2981
▁ies	-11.2987
▁üst	-11.2992
▁Éva	-11.2997
▁lov	-11.2998
▁tré	-11.2999
▁tván	-11.2999
▁ruti	-11.3002
▁avra	-11.3003
▁lunk	-11.3035
▁ázi	-11.3041
▁sszú	-11.3065
TA	-11.3071
▁kód	-11.3083
▁13.	-11.3089
▁olyó	-11.3096
▁dú	-11.3096
▁kanc	-11.3123
▁érlet	-11.3134
SA	-11.3146
rom	-11.3155
▁olas	-11.3162
▁szti	-11.3162
▁ngé	-11.3165
▁akma	-11.3168
▁spór	-11.3172
▁ore	-11.3191
▁sol	-11.3196
▁mén	-11.3197
▁ágá	-11.3197
▁usi	-11.3221
▁arn	-11.3233
▁NASA	-11.324
▁gyan	-11.3249
▁kla	-11.3264
▁tend	-11.327
▁neh	-11.3271
▁ust	-11.3283
▁bronz	-11.331
▁kei	-11.3323
▁apt	-11.3333
▁lb	-11.3342
▁űv	-11.3348
▁gés	-11.3352
rad	-11.3366
▁ssá	-11.3368
▁iva	-11.3375
ER	-11.3377
▁acso	-11.3398
▁vás	-11.342
▁Fx	-11.3424
▁arto	-11.3436
▁lási	-11.345
▁híd	-11.3458
ggel	-11.3465
▁ágn	-11.3468
▁óna	-11.349
▁siet	-11.3495
▁pen	-11.3512
▁11.	-11.3516
▁49	-11.3521
▁hö	-11.3522
▁−	-11.3523
▁*	-11.3523
▁pülé	-11.3528
▁eru	-11.3529
▁akó	-11.354
▁rvo	-11.3541
▁ouis	-11.3548
▁Hf	-11.3556
▁ede	-11.3561
▁eur	-11.359
age	-11.3592
▁2-3	-11.3595
▁eam	-11.3602
▁12.	-11.3611
▁cége	-11.3658
▁orb	-11.3661
▁énte	-11.3665
▁togat	-11.3667
▁ánd	-11.3674
▁itch	-11.3696
▁Tv	-11.3697
▁rás	-11.3697
▁44	-11.3731
▁ocsi	-11.3763
▁olna	-11.3772
▁lág	-11.3804
ski	-11.3811
▁0-0	-11.3814
▁laud	-11.3819
grár	-11.382
▁abál	-11.3833
▁ring	-11.3836
▁nny	-11.3837
▁Vx	-11.3856
▁gin	-11.389
▁óf	-11.3908
▁imná	-11.391
▁öb	-11.391
avar	-11.3927
▁elöl	-11.3928
▁nerg	-11.3931
▁ája	-11.3937
úl	-11.3957
lic	-11.3957
▁FIFA	-11.3962
▁para	-11.3962
▁tója	-11.3965
▁imád	-11.3966
▁lmú	-11.3967
▁dély	-11.3972
▁ződ	-11.398
▁udo	-11.4004
▁yer	-11.4005
ját	-11.401
▁rc	-11.4015
▁agá	-11.4032
▁igi	-11.4038
▁íthat	-11.4038
▁bátor	-11.4042
▁orin	-11.4043
lás	-11.4049
▁tone	-11.4057
▁lent	-11.4058
▁égben	-11.4081
▁yor	-11.4095
▁rgi	-11.4095
▁dom	-11.41
▁elb	-11.4131
▁98	-11.4139
▁ator	-11.4169
▁lamo	-11.418
▁54	-11.4184
▁anci	-11.4187
▁treet	-11.4193
▁rvé	-11.4197
▁rában	-11.4214
▁liga	-11.4218
▁mani	-11.424
▁dan	-11.4243
▁rova	-11.4248
▁19.	-11.4249
▁20.	-11.425
▁nka	-11.4251
▁tap	-11.4266
▁lyi	-11.4268
lták	-11.427
▁rje	-11.4286
aga	-11.4292
▁leté	-11.4294
ább	-11.4305
▁ezd	-11.4305
▁sle	-11.4306
▁run	-11.4318
DS	-11.4325
▁lmán	-11.4326
▁llom	-11.4331
▁apj	-11.4352
▁Exp	-11.4361
▁ple	-11.437
▁erem	-11.4374
▁éhe	-11.4376
▁ever	-11.4393
▁tab	-11.4396
▁17.	-11.4406
▁bít	-11.4419
▁1-2	-11.4422
▁Lin	-11.4426
▁ango	-11.4446
▁obi	-11.4453
▁erme	-11.4463
▁óló	-11.4476
Y	-11.4484
▁SE	-11.4494
▁madár	-11.4504
▁spa	-11.4504
▁lsz	-11.4508
▁56	-11.4525
▁mole	-11.4536
▁dug	-11.4547
90	-11.4552
▁Hx	-11.4554
▁53	-11.4565
▁DVSC	-11.458
▁KSH	-11.458
▁trükk	-11.458
▁Dar	-11.4595
uch	-11.4603
▁arri	-11.4605
ill	-11.4613
bou	-11.4624
▁hin	-11.4629
▁rám	-11.4653
▁domb	-11.4659
▁gomb	-11.466
▁íp	-11.4661
▁bél	-11.4662
▁kú	-11.4666
▁pán	-11.4667
▁pott	-11.4684
▁Per	-11.4697
▁kka	-11.4699
▁85	-11.4725
▁ergi	-11.4732
▁kről	-11.4741
SC	-11.4756
ble	-11.4768
▁tars	-11.4773
▁omat	-11.4774
▁arad	-11.4785
var	-11.4786
▁egf	-11.4788
▁nika	-11.479
▁Em	-11.4809
ranz	-11.481
▁ógia	-11.4823
▁plat	-11.4823
▁kése	-11.4824
▁zmus	-11.4824
▁trá	-11.4828
▁16.	-11.483
▁ligá	-11.483
▁rva	-11.4837
▁tvá	-11.4839
▁rcs	-11.4867
▁emé	-11.4868
derü	-11.487
▁máj	-11.4872
▁röh	-11.4894
▁génye	-11.4896
▁inan	-11.4899
▁kvót	-11.4905
▁ilis	-11.4909
-6	-11.4909
▁eid	-11.4921
▁ávo	-11.4932
▁kci	-11.494
▁lang	-11.4946
▁lovas	-11.496
▁alku	-11.4961
kin	-11.4968
▁uzuk	-11.499
mokr	-11.4991
▁lav	-11.4998
pán	-11.5
▁arko	-11.5008
NA	-11.5008
▁llí	-11.5022
▁lab	-11.5022
▁kai	-11.5044
▁Ár	-11.5058
▁átha	-11.5063
▁1-0	-11.507
▁kóst	-11.5077
▁laj	-11.5079
▁ouse	-11.5085
▁52	-11.5096
▁oul	-11.5097
erme	-11.5109
▁cson	-11.5122
▁Ház	-11.5139
ack	-11.5144
▁őh	-11.5153
pod	-11.5154
▁inga	-11.5157
útor	-11.5157
▁aku	-11.5157
▁mara	-11.5178
▁alif	-11.5188
▁47	-11.5195
▁iver	-11.521
▁allo	-11.5211
▁rf	-11.5215
▁NH	-11.5227
-4	-11.5227
ex	-11.5233
▁MLSZ	-11.5239
▁qui	-11.524
▁aland	-11.5256
▁öve	-11.5258
▁fran	-11.5263
▁yak	-11.5274
mint	-11.528
▁rne	-11.5282
▁övek	-11.5293
mun	-11.5295
aki	-11.5305
▁Ál	-11.5311
▁gyom	-11.5312
▁ukr	-11.532
▁ráta	-11.5322
▁kocs	-11.5325
▁űle	-11.534
tem	-11.5359
▁tun	-11.5384
▁iprus	-11.5411
▁iPh	-11.5411
▁skál	-11.5419
▁delem	-11.5426
75	-11.5439
▁rij	-11.5442
▁...	-11.5448
▁yú	-11.5471
▁apr	-11.5474
▁leke	-11.5477
▁kőz	-11.5478
▁ónak	-11.5481
▁14.	-11.549
▁baja	-11.549
▁1-1	-11.5497
ője	-11.5543
anc	-11.5554
▁láss	-11.5562
▁lova	-11.5568
▁57	-11.5571
▁col	-11.5575
▁dál	-11.5582
▁Gyö	-11.5585
▁ZTE	-11.559
▁Arge	-11.5594
gor	-11.56
lip	-11.561
▁lvá	-11.5621
▁umen	-11.5627
▁AC	-11.5628
▁130	-11.5642
▁51	-11.5661
Q	-11.5672
VD	-11.5673
▁Man	-11.5675
▁ábrá	-11.5676
▁mog	-11.5677
▁rősö	-11.5686
▁ite	-11.5726
▁ajn	-11.5727
öm	-11.5742
▁gna	-11.5761
▁Hc	-11.5783
▁gek	-11.5787
out	-11.5792
▁ásho	-11.5806
▁szkó	-11.5826
▁kút	-11.5834
▁evi	-11.5837
▁pes	-11.5849
▁Ex	-11.5853
▁2-1	-11.5853
▁Fra	-11.5867
▁ékek	-11.5868
OL	-11.5881
KI	-11.5894
▁rvá	-11.59
NT	-11.5909
BC	-11.5952
▁zuk	-11.5952
▁BA	-11.5955
uti	-11.5956
▁anyja	-11.5981
hár	-11.5983
▁rle	-11.6003
▁yár	-11.6016
▁toro	-11.6017
▁gyed	-11.6031
▁$	-11.6036
▁­	-11.6036
▁iPad	-11.6036
▁iami	-11.6041
▁maff	-11.6042
▁EBE	-11.6044
▁naci	-11.6044
▁ince	-11.6061
▁kard	-11.6069
▁AP	-11.6073
juk	-11.6073
▁zeg	-11.6091
▁irs	-11.6106
▁erdá	-11.6109
▁mpi	-11.6111
▁bus	-11.6119
▁eir	-11.6123
ney	-11.6129
▁ántó	-11.6132
▁álják	-11.6137
▁XI	-11.6194
▁vend	-11.6217
▁XII	-11.6219
OSZ	-11.622
▁apu	-11.626
▁58	-11.6266
rend	-11.6285
any	-11.629
▁onat	-11.6291
anul	-11.6314
▁tefan	-11.6317
▁ridge	-11.6318
▁igén	-11.632
▁ciu	-11.6323
▁romb	-11.6343
▁dd	-11.6349
▁ánkó	-11.6353
▁kuta	-11.6381
▁taní	-11.6387
▁anor	-11.6393
▁zai	-11.6411
▁knél	-11.6412
▁tex	-11.6413
▁lízi	-11.6416
▁éter	-11.6416
dic	-11.6422
▁Sc	-11.6426
▁dől	-11.643
▁tisz	-11.6443
▁alga	-11.6445
▁agda	-11.6445
▁akku	-11.646
▁őlő	-11.6469
▁rdi	-11.6501
©	-11.6507
▁obo	-11.6509
▁ooney	-11.6509
▁ason	-11.6522
▁zere	-11.6527
ama	-11.6531
▁link	-11.6535
▁csom	-11.6553
▁gőz	-11.6564
▁pisz	-11.6572
;	-11.6603
▁ossá	-11.6605
▁nyeg	-11.6611
▁74	-11.6614
▁sták	-11.6617
▁tások	-11.6619
▁aida	-11.6626
▁ske	-11.6628
▁arok	-11.6634
▁rim	-11.6645
▁kum	-11.6667
▁mith	-11.6698
▁ETO	-11.6703
▁roup	-11.6703
▁záz	-11.6705
KF	-11.6714
▁gér	-11.6721
▁62	-11.6752
utt	-11.6774
▁röp	-11.6785
ES	-11.6804
▁rni	-11.6808
▁95	-11.6831
▁ülete	-11.6833
▁alco	-11.684
▁mut	-11.6869
DA	-11.6872
▁ross	-11.6876
▁indu	-11.6895
▁zna	-11.6935
▁ldo	-11.6954
NI	-11.6969
▁dent	-11.6969
▁stor	-11.698
65	-11.7012
▁vete	-11.7013
▁kesz	-11.7013
▁tana	-11.7019
▁yör	-11.7024
▁züle	-11.7025
▁itz	-11.7032
▁arap	-11.7035
▁how	-11.7053
▁eha	-11.7071
▁onya	-11.7093
▁thén	-11.7107
▁skót	-11.7111
inc	-11.7127
▁gymá	-11.713
▁agu	-11.7134
nov	-11.7156
▁XX	-11.7162
▁pte	-11.7169
▁zar	-11.718
BS	-11.7185
▁ruk	-11.7209
▁ewis	-11.7213
BI	-11.7223
▁özv	-11.725
▁aris	-11.7272
▁atti	-11.7273
▁rács	-11.7276
▁dir	-11.7288
▁gí	-11.7302
▁pop	-11.7309
▁2-0	-11.7312
▁avig	-11.7316
▁svá	-11.7325
▁nyűg	-11.7329
▁inger	-11.7343
▁elése	-11.7349
▁alta	-11.7353
▁Pár	-11.7356
▁edr	-11.7361
▁21.	-11.7375
▁apó	-11.738
▁klá	-11.7391
11	-11.7406
▁61	-11.7416
▁űlés	-11.7418
▁book	-11.7433
▁úlyo	-11.7434
▁US	-11.7457
▁plán	-11.7462
▁egés	-11.7492
▁zeke	-11.7505
▁GM	-11.7514
▁ább	-11.7518
▁66	-11.7529
▁rof	-11.7538
▁rseny	-11.7556
▁68	-11.7557
▁ásba	-11.7563
▁ttes	-11.7573
▁pasz	-11.758
▁viv	-11.7581
▁zem	-11.7603
▁eszk	-11.7604
▁59	-11.7608
FP	-11.7628
▁MTK	-11.7631
▁etünk	-11.7631
▁div	-11.7643
▁ivi	-11.7647
▁kiál	-11.7648
▁3-4	-11.7649
▁szag	-11.7657
▁ÁSZ	-11.7658
▁SC	-11.7661
15	-11.767
▁ózs	-11.7672
KA	-11.7675
RC	-11.7679
▁bén	-11.7689
OP	-11.7722
▁szkö	-11.7729
▁rös	-11.7731
▁3-1	-11.774
▁amok	-11.7754
IG	-11.7757
▁rint	-11.7765
▁rős	-11.7772
opul	-11.7784
▁ice	-11.7793
EM	-11.7794
DP	-11.7826
35	-11.7828
▁Bc	-11.7835
emel	-11.785
▁ásnak	-11.7853
▁gyr	-11.7861
▁alla	-11.7869
▁4,5	-11.7883
▁sorb	-11.7887
▁tand	-11.7894
▁tion	-11.7903
SZK	-11.7908
▁adj	-11.7909
▁gyás	-11.792
▁trén	-11.7931
▁dás	-11.7935
▁lip	-11.7937
EFA	-11.7942
RFK	-11.7944
▁IV	-11.7958
FC	-11.7966
▁krém	-11.7975
cu	-11.7979
▁zga	-11.7983
▁őzet	-11.7988
▁72	-11.7997
▁gge	-11.8025
rízi	-11.8027
▁Év	-11.8047
▁fúv	-11.8075
red	-11.8077
▁ney	-11.8077
▁pia	-11.8085
▁kró	-11.8086
▁Faz	-11.8126
azar	-11.8143
▁aye	-11.8144
DK	-11.8151
▁rona	-11.8158
▁étfő	-11.816
▁ifi	-11.8169
▁yí	-11.8169
IV	-11.8184
▁lámpa	-11.8187
▁trém	-11.8196
rről	-11.8201
▁íci	-11.8203
▁KC	-11.8206
▁anyj	-11.821
▁rgon	-11.8223
▁álj	-11.8227
ESZ	-11.8228
▁arro	-11.8235
ther	-11.8243
▁növ	-11.8249
▁Mac	-11.8251
▁XVII	-11.8259
▁laza	-11.8262
har	-11.8267
▁talp	-11.8281
▁69	-11.8282
KK	-11.8287
▁adar	-11.829
ä	-11.83
▁ütyü	-11.8303
tyj	-11.8316
▁kád	-11.8321
▁dja	-11.8321
12	-11.8332
▁yne	-11.8339
▁NBA	-11.8342
EK	-11.8344
▁egh	-11.8374
ach	-11.8378
▁RMDSZ	-11.8418
▁MNV	-11.8418
▁irál	-11.8421
▁yén	-11.8431
▁vata	-11.8457
▁tipp	-11.8458
25	-11.8468
▁izom	-11.8483
▁lőre	-11.8484
▁Ors	-11.8488
▁znek	-11.852
▁sco	-11.8523
▁esco	-11.8527
▁0,5	-11.8539
▁itk	-11.8568
▁muta	-11.8584
▁kúr	-11.8598
▁rébe	-11.8598
▁ladá	-11.8598
▁dög	-11.8599
▁aran	-11.8617
▁gus	-11.8626
irde	-11.8627
ckó	-11.8637
▁nvald	-11.8655
▁guru	-11.8657
▁adha	-11.8695
▁lyuk	-11.8695
▁Bak	-11.8713
▁stin	-11.8733
▁nyban	-11.8778
▁mbo	-11.8778
▁öml	-11.8778
▁tánc	-11.8787
▁öszö	-11.8805
▁órház	-11.8817
▁88	-11.8866
▁dók	-11.8867
▁ainz	-11.8883
▁Ajax	-11.8897
▁zóná	-11.8899
▁auru	-11.8909
▁tobo	-11.8914
45	-11.8928
▁EKB	-11.8933
▁FTS	-11.8948
▁pek	-11.8967
▁Pin	-11.8971
▁etve	-11.9
ohl	-11.9014
@	-11.9021
▁3-0	-11.9021
▁Que	-11.9021
▁golf	-11.9023
BA	-11.9027
▁Nico	-11.9063
▁akci	-11.9076
row	-11.9095
RI	-11.9112
▁gró	-11.9131
▁63	-11.9149
▁ntra	-11.9164
▁rzé	-11.9189
▁ox	-11.9192
Ú	-11.9929
Ő	-12.0633
%	-12.0667
Ü	-12.2211
Ó	-12.2559
+	-12.2737
ć	-12.4509
'	-12.5644
à	-12.614
×	-12.7493
è	-12.7493
č	-12.9404
	-13.0516
>	-13.0914
ô	-13.1767
‭	-13.3198
Š	-13.3724
ă	-13.5493
õ	-13.6872
Í	-13.9384
<	-13.9386
ç	-13.9386
~	-14.0386
ë	-14.1495
£	-14.1497
û	-14.1497
Ű	-14.2745
\	-14.2747
]	-14.4174
ß	-14.4175
ý	-14.4175
*	-14.584
`	-14.5842
	-14.5842
ń	-14.5842
Č	-14.7842
ţ	-14.7842
⁄	-14.7842
­	-15.034
	-15.0342
Ž	-15.0342
ž	-15.0342
¬	-15.3675
®	-15.3675
±	-15.3675
å	-15.3675
ò	-15.3675
ň	-15.3675
‒	-15.3675
^	-15.8675
	-15.8675
ã	-15.8675
ì	-15.8675
ï	-15.8675
ÿ	-15.8675
ť	-15.8675
ה	-15.8675
′	-15.8675
€	-15.8675
≤	-15.8675
Đ	-16.8655
Ä	-16.8656
·	-16.8657
̈	-16.8658
È	-16.8659
	-16.866
ş	-16.8661
ł	-16.8662
ø	-16.8663
â	-16.8664
°	-16.8665
ñ	-16.8666
†	-16.8667
‬	-16.8668
š	-16.8669
§	-16.867
−	-16.8671
_	-16.8672
#	-16.8673
$	-16.8674
=	-16.8674
[	-16.8674
̋	-16.8674
æ	-16.8675
ê	-16.8675
î	-16.8675
ð	-16.8675
Ć	-16.8675
đ	-16.8675
ę	-16.8675
ı	-16.8675
ř	-16.8675
Ś	-16.8675
ś	-16.8675
Ţ	-16.8675
Ť	-16.8675
ů	-16.8675
ż	-16.8675
ș	-16.8675
λ	-16.8675
μ	-16.8675
ї	-16.8675
ו	-16.8675
י	-16.8675
∗	-16.8675
(	-16.8675
Å	-16.8675
ą	-16.8675
