<unk>	0
<s>	0
</s>	0
▁a	-0
▁e	-1
▁t	-2
▁s	-3
▁k	-4
▁i	-5
▁n	-6
▁m	-7
▁,	-8
▁o	-9
▁l	-10
▁é	-11
gy	-12
▁h	-13
▁v	-14
▁á	-15
▁b	-16
▁r	-17
▁sz	-18
▁.	-19
el	-20
en	-21
er	-22
▁f	-23
et	-24
sz	-25
▁j	-26
an	-27
▁az	-28
▁el	-29
tt	-30
▁-	-31
al	-32
at	-33
▁A	-34
▁z	-35
▁p	-36
▁és	-37
ak	-38
eg	-39
or	-40
nt	-41
em	-42
▁d	-43
ár	-44
▁u	-45
▁c	-46
ég	-47
ek	-48
▁ó	-49
▁is	-50
▁egy	-51
▁ny	-52
▁kö	-53
ar	-54
ny	-55
▁ho	-56
▁g	-57
ás	-58
▁ál	-59
ol	-60
▁meg	-61
▁ő	-62
▁et	-63
▁en	-64
ág	-65
▁al	-66
▁ö	-67
▁ez	-68
▁mi	-69
▁ek	-70
▁ü	-71
▁M	-72
▁ké	-73
▁at	-74
▁hogy	-75
ap	-76
▁ok	-77
▁szer	-78
▁ki	-79
▁ás	-80
▁es	-81
bb	-82
▁1	-83
▁er	-84
nd	-85
ez	-86
▁ol	-87
▁í	-88
és	-89
▁le	-90
▁0	-91
▁nem	-92
▁cs	-93
▁ér	-94
es	-95
▁ak	-96
ed	-97
▁ban	-98
ál	-99
▁2	-100
án	-101
on	-102
ér	-103
ék	-104
▁em	-105
ól	-106
▁ik	-107
▁S	-108
os	-109
▁ú	-110
ik	-111
▁be	-112
▁an	-113
▁ott	-114
▁fel	-115
át	-116
él	-117
▁ben	-118
▁B	-119
▁E	-120
▁gy	-121
ok	-122
ül	-123
▁K	-124
ta	-125
▁áll	-126
▁tö	-127
▁"	-128
▁ett	-129
▁int	-130
▁:	-131
▁nak	-132
▁re	-133
▁ad	-134
▁am	-135
in	-136
▁ar	-137
nk	-138
ett	-139
ét	-140
▁on	-141
szt	-142
am	-143
ad	-144
aj	-145
om	-146
ely	-147
il	-148
az	-149
it	-150
agy	-151
▁ár	-152
cs	-153
▁or	-154
og	-155
ag	-156
ák	-157
▁lt	-158
▁te	-159
▁os	-160
▁év	-161
▁Az	-162
▁ni	-163
▁szá	-164
▁nek	-165
▁N	-166
▁H	-167
▁jel	-168
ől	-169
▁(	-170
▁ja	-171
▁hat	-172
▁id	-173
▁F	-174
▁T	-175
▁ra	-176
▁köz	-177
▁)	-178
▁át	-179
ban	-180
ség	-181
▁él	-182
▁ság	-183
▁kor	-184
ni	-185
▁P	-186
oz	-187
ben	-188
▁agy	-189
▁elő	-190
is	-191
▁ren	-192
het	-193
▁val	-194
▁ség	-195
ut	-196
len	-197
▁leg	-198
▁ig	-199
ig	-200
ll	-201
▁3	-202
ra	-203
ány	-204
iz	-205
▁de	-206
▁tu	-207
▁vol	-208
▁rend	-209
as	-210
▁y	-211
▁G	-212
▁V	-213
ai	-214
ell	-215
▁ut	-216
áb	-217
re	-218
▁L	-219
art	-220
▁C	-221
ott	-222
▁ter	-223
▁for	-224
▁9	-225
▁5	-226
▁tett	-227
ít	-228
▁jelen	-229
ró	-230
ész	-231
▁agyar	-232
▁ker	-233
▁ind	-234
▁ot	-235
ja	-236
▁D	-237
ény	-238
lt	-239
▁I	-240
▁4	-241
▁R	-242
ság	-243
én	-244
▁tart	-245
▁volt	-246
▁án	-247
▁már	-248
▁hely	-249
▁ko	-250
▁ét	-251
▁ít	-252
▁oz	-253
▁in	-254
▁ös	-255
má	-256
▁kez	-257
▁szt	-258
▁emb	-259
ép	-260
▁tel	-261
nek	-262
ci	-263
▁tör	-264
▁ne	-265
▁ve	-266
▁kép	-267
▁ta	-268
▁csak	-269
▁tá	-270
ul	-271
▁több	-272
▁ért	-273
▁J	-274
kor	-275
▁nagy	-276
▁as	-277
ök	-278
▁6	-279
▁ember	-280
ve	-281
sze	-282
▁eg	-283
us	-284
▁kap	-285
za	-286
▁ked	-287
▁ha	-288
▁8	-289
▁még	-290
▁vá	-291
▁ű	-292
▁más	-293
▁rsz	-294
▁rszág	-295
▁azt	-296
▁fog	-297
▁ügy	-298
▁né	-299
ső	-300
▁van	-301
▁tud	-302
▁két	-303
▁7	-304
▁szám	-305
▁új	-306
▁tár	-307
▁sem	-308
▁om	-309
▁vég	-310
▁kell	-311
▁O	-312
▁tal	-313
▁ezet	-314
ív	-315
▁mint	-316
▁mag	-317
▁ai	-318
▁lehet	-319
▁ellen	-320
▁ját	-321
att	-322
▁ed	-323
ro	-324
ej	-325
▁ált	-326
▁iz	-327
áz	-328
ly	-329
da	-330
▁amely	-331
▁zö	-332
ot	-333
▁la	-334
▁nt	-335
▁össze	-336
na	-337
mi	-338
▁jár	-339
ért	-340
ont	-341
lli	-342
▁tt	-343
olg	-344
▁nap	-345
▁ul	-346
▁oly	-347
▁milli	-348
▁ük	-349
▁ond	-350
▁lék	-351
▁je	-352
▁tés	-353
▁száza	-354
▁aj	-355
▁után	-356
ond	-357
▁tak	-358
ov	-359
▁vagy	-360
le	-361
ne	-362
▁lát	-363
éd	-364
▁őr	-365
▁ír	-366
▁vi	-367
▁szak	-368
▁zt	-369
▁ba	-370
▁rész	-371
ia	-372
▁biz	-373
▁ped	-374
ko	-375
vé	-376
▁est	-377
▁Sz	-378
▁tan	-379
▁abb	-380
kö	-381
▁ir	-382
▁kül	-383
to	-384
gyan	-385
▁mu	-386
▁het	-387
▁pedig	-388
▁tette	-389
▁ab	-390
▁men	-391
▁forin	-392
▁ill	-393
ős	-394
▁han	-395
▁ként	-396
▁ci	-397
▁első	-398
▁ról	-399
ch	-400
▁ap	-401
ert	-402
▁ebb	-403
▁unk	-404
▁vár	-405
uk	-406
▁munk	-407
vő	-408
▁kér	-409
▁ében	-410
vet	-411
▁ondta	-412
▁vil	-413
▁alap	-414
▁eket	-415
öl	-416
▁okat	-417
▁bi	-418
▁pár	-419
▁ül	-420
▁idő	-421
▁ött	-422
▁ezt	-423
▁ból	-424
▁kormá	-425
▁kat	-426
▁ri	-427
▁lés	-428
▁nél	-429
obb	-430
▁sok	-431
sza	-432
▁inden	-433
▁rá	-434
▁ikai	-435
▁ép	-436
ció	-437
té	-438
▁mű	-439
▁it	-440
▁hal	-441
▁maj	-442
▁ti	-443
▁követ	-444
nak	-445
▁miatt	-446
▁kal	-447
▁akkor	-448
▁ism	-449
▁tek	-450
▁dö	-451
▁majd	-452
▁hi	-453
▁nő	-454
▁pro	-455
▁vál	-456
▁kész	-457
▁pont	-458
▁vel	-459
▁igaz	-460
ön	-461
mé	-462
▁úgy	-463
ná	-464
▁eln	-465
▁ám	-466
▁Z	-467
▁való	-468
uró	-469
▁ide	-470
ály	-471
▁bel	-472
▁hoz	-473
íz	-474
▁fő	-475
utat	-476
▁gaz	-477
▁ják	-478
▁kerü	-479
se	-480
▁állam	-481
▁ló	-482
kal	-483
▁nd	-484
▁rt	-485
ín	-486
▁társ	-487
▁törté	-488
▁ták	-489
val	-490
▁uk	-491
éz	-492
▁sor	-493
▁világ	-494
▁ható	-495
▁aki	-496
▁dí	-497
▁lő	-498
▁véd	-499
▁laszt	-500
▁ről	-501
▁issza	-502
▁fej	-503
▁kezd	-504
▁ei	-505
őz	-506
emé	-507
▁eset	-508
▁ezető	-509
▁lesz	-510
▁zött	-511
▁nk	-512
▁ly	-513
▁old	-514
▁og	-515
▁dönt	-516
▁elnök	-517
▁én	-518
▁ugyan	-519
▁talál	-520
ug	-521
▁ből	-522
▁így	-523
▁av	-524
▁áz	-525
énz	-526
▁pénz	-527
▁?	-528
▁von	-529
▁ily	-530
▁zó	-531
▁ör	-532
▁ünk	-533
▁mell	-534
▁olyan	-535
▁st	-536
▁nál	-537
▁fél	-538
rá	-539
▁mind	-540
▁mert	-541
▁tám	-542
▁ami	-543
▁tól	-544
▁előtt	-545
▁ilyen	-546
▁sít	-547
▁jó	-548
▁keres	-549
▁zet	-550
▁sal	-551
nyi	-552
▁tás	-553
▁alm	-554
▁W	-555
ző	-556
▁od	-557
▁ában	-558
be	-559
od	-560
▁ep	-561
▁jö	-562
ír	-563
▁ll	-564
▁jog	-565
▁ismer	-566
▁egyik	-567
szo	-568
▁ék	-569
▁saj	-570
▁által	-571
▁me	-572
ab	-573
hat	-574
▁pol	-575
▁mér	-576
▁elm	-577
▁díj	-578
▁alak	-579
▁let	-580
étel	-581
▁vez	-582
▁érd	-583
▁adó	-584
▁Ez	-585
▁onban	-586
▁hár	-587
▁ján	-588
▁tov	-589
zá	-590
▁já	-591
▁asz	-592
▁tat	-593
tat	-594
▁se	-595
je	-596
▁ah	-597
dá	-598
▁hét	-599
▁tú	-600
▁etlen	-601
▁per	-602
▁mond	-603
▁ály	-604
▁mény	-605
▁va	-606
▁továb	-607
▁kk	-608
▁olt	-609
▁vet	-610
▁lak	-611
▁aut	-612
▁ház	-613
ély	-614
ort	-615
▁ozzá	-616
▁nev	-617
▁tér	-618
▁bo	-619
▁autó	-620
▁től	-621
▁ani	-622
▁polit	-623
fi	-624
▁ke	-625
▁sen	-626
▁ver	-627
▁Nem	-628
▁ent	-629
▁U	-630
int	-631
▁ro	-632
▁éves	-633
▁öt	-634
▁ten	-635
▁mos	-636
ló	-637
▁három	-638
▁illet	-639
▁ély	-640
est	-641
▁kapcs	-642
kez	-643
▁munka	-644
▁fér	-645
▁lis	-646
▁zás	-647
▁ének	-648
vel	-649
▁gazda	-650
▁külön	-651
▁di	-652
▁euró	-653
éter	-654
▁ezer	-655
▁áb	-656
▁bizto	-657
▁sp	-658
▁dolg	-659
▁kon	-660
▁ré	-661
elő	-662
▁sik	-663
▁ikus	-664
▁sap	-665
▁il	-666
▁Egy	-667
▁állal	-668
▁hez	-669
▁emel	-670
tó	-671
ím	-672
▁élet	-673
öve	-674
▁ére	-675
▁szín	-676
bá	-677
▁ag	-678
ony	-679
▁li	-680
lan	-681
▁ása	-682
▁kör	-683
▁város	-684
szá	-685
▁ának	-686
▁Á	-687
▁mikor	-688
nap	-689
▁tott	-690
▁sapat	-691
▁ték	-692
▁fiz	-693
▁koz	-694
▁lép	-695
▁egész	-696
▁most	-697
▁any	-698
jt	-699
▁mutat	-700
▁É	-701
▁zs	-702
▁ont	-703
ze	-704
áro	-705
▁end	-706
▁nyil	-707
ód	-708
▁zott	-709
▁koráb	-710
űn	-711
va	-712
▁arra	-713
▁ku	-714
▁párt	-715
▁cím	-716
▁gond	-717
▁ing	-718
▁öl	-719
▁aszná	-720
▁nyug	-721
▁erős	-722
▁ció	-723
▁kérd	-724
▁állí	-725
op	-726
▁föl	-727
▁tet	-728
▁ató	-729
▁férfi	-730
▁árd	-731
ud	-732
ük	-733
um	-734
▁játék	-735
▁cég	-736
ce	-737
tö	-738
▁ment	-739
▁oszt	-740
▁ely	-741
▁ered	-742
▁siker	-743
ör	-744
▁lap	-745
▁jut	-746
oly	-747
▁gyer	-748
▁ók	-749
▁elem	-750
▁hang	-751
ri	-752
▁net	-753
▁baj	-754
▁társa	-755
▁törvé	-756
▁dolgo	-757
▁lás	-758
▁im	-759
▁ön	-760
▁len	-761
▁par	-762
▁ód	-763
ki	-764
▁Ha	-765
▁fizet	-766
dig	-767
▁óta	-768
gyel	-769
▁itt	-770
▁!	-771
▁ára	-772
▁ia	-773
SZ	-774
▁érték	-775
▁szerv	-776
▁juk	-777
▁adat	-778
sg	-779
▁obb	-780
▁haj	-781
tá	-782
▁érdek	-783
▁hó	-784
▁seg	-785
▁kis	-786
▁kel	-787
asz	-788
▁alatt	-789
nte	-790
▁atlan	-791
▁volna	-792
▁kív	-793
▁készü	-794
▁nyom	-795
▁ov	-796
▁vezet	-797
▁sú	-798
▁csö	-799
▁ási	-800
▁gr	-801
▁uta	-802
he	-803
▁másod	-804
▁otta	-805
köd	-806
▁szerű	-807
▁zat	-808
▁jegy	-809
▁gondo	-810
▁elmi	-811
▁négy	-812
▁kken	-813
▁valam	-814
la	-815
▁alá	-816
▁oldal	-817
▁tag	-818
▁ők	-819
▁túl	-820
▁té	-821
▁Mi	-822
no	-823
▁jav	-824
▁ltség	-825
▁amer	-826
ge	-827
▁mar	-828
▁súly	-829
▁tr	-830
▁terv	-831
▁ink	-832
▁fil	-833
▁idesz	-834
▁út	-835
▁vesz	-836
▁eb	-837
▁eml	-838
▁mód	-839
▁tlen	-840
▁akik	-841
▁közel	-842
atal	-843
ep	-844
▁szó	-845
▁vétel	-846
vi	-847
▁zár	-848
▁besz	-849
▁verse	-850
uá	-851
ká	-852
▁utó	-853
▁ennyi	-854
▁intéz	-855
▁atás	-856
▁éh	-857
ról	-858
▁olat	-859
▁lni	-860
▁viszo	-861
▁kar	-862
▁mini	-863
▁cél	-864
▁ütt	-865
▁tik	-866
▁öz	-867
▁mány	-868
▁támog	-869
ára	-870
▁vált	-871
lte	-872
▁lét	-873
▁ford	-874
▁De	-875
▁ások	-876
▁nagyo	-877
▁szól	-878
▁film	-879
▁méter	-880
▁áltoz	-881
▁pél	-882
▁példá	-883
▁ése	-884
kü	-885
▁ező	-886
▁szül	-887
udap	-888
▁fü	-889
▁nélkü	-890
▁bizo	-891
▁indul	-892
▁akar	-893
▁jobb	-894
▁tiszt	-895
▁nin	-896
00	-897
met	-898
▁ész	-899
köz	-900
▁Or	-901
▁son	-902
▁pály	-903
▁szter	-904
▁rö	-905
▁pia	-906
▁víz	-907
▁beszé	-908
▁marad	-909
▁őd	-910
▁föld	-911
▁olyam	-912
▁si	-913
▁forg	-914
▁hanem	-915
ác	-916
▁mú	-917
▁munká	-918
▁ord	-919
ba	-920
▁ző	-921
zet	-922
▁gép	-923
▁pró	-924
▁nincs	-925
▁győz	-926
vas	-927
▁szem	-928
▁sí	-929
▁orszá	-930
▁/	-931
▁ell	-932
▁kam	-933
▁szet	-934
▁alom	-935
▁ügyi	-936
▁lal	-937
▁arm	-938
▁szab	-939
vat	-940
▁ően	-941
▁isz	-942
▁ével	-943
▁w	-944
▁álat	-945
▁igazg	-946
lat	-947
▁ották	-948
▁iselő	-949
▁igyel	-950
▁termé	-951
▁terül	-952
▁sk	-953
▁MN	-954
▁üz	-955
▁lett	-956
▁zölte	-957
▁bajno	-958
▁erő	-959
▁lé	-960
▁adás	-961
▁ran	-962
▁Cs	-963
▁ső	-964
▁vas	-965
ád	-966
▁jövő	-967
▁táv	-968
▁dol	-969
▁nyer	-970
▁tol	-971
▁fogad	-972
▁ükség	-973
▁kt	-974
▁azért	-975
▁játsz	-976
▁azok	-977
▁kl	-978
▁lá	-979
▁lj	-980
▁ken	-981
▁kev	-982
íg	-983
▁egyed	-984
▁tü	-985
▁ász	-986
▁sági	-987
▁ip	-988
▁eddig	-989
▁ur	-990
▁nyi	-991
▁hív	-992
▁orv	-993
▁eng	-994
▁előre	-995
▁Al	-996
nyv	-997
▁lat	-998
▁perc	-999
opo	-1000
▁ezek	-1001
▁Kö	-1002
▁ng	-1003
▁ontos	-1004
▁csopo	-1005
▁us	-1006
▁bí	-1007
▁inte	-1008
▁olvas	-1009
▁inf	-1010
▁kó	-1011
▁tköz	-1012
▁gram	-1013
lag	-1014
▁test	-1015
▁gyű	-1016
▁tő	-1017
▁ült	-1018
▁anyag	-1019
▁űköd	-1020
▁foly	-1021
▁avaz	-1022
▁hu	-1023
▁ési	-1024
▁ahol	-1025
▁bu	-1026
▁fr	-1027
▁polg	-1028
▁bal	-1029
▁polgá	-1030
▁dal	-1031
▁emély	-1032
▁armad	-1033
▁elt	-1034
▁számí	-1035
▁fo	-1036
▁ezért	-1037
▁ősz	-1038
▁nevez	-1039
▁um	-1040
▁gyen	-1041
▁annak	-1042
▁súlyo	-1043
▁and	-1044
▁ánd	-1045
▁dél	-1046
▁képv	-1047
▁bár	-1048
né	-1049
▁ottak	-1050
fő	-1051
▁san	-1052
▁telje	-1053
ei	-1054
▁fok	-1055
ható	-1056
▁don	-1057
▁bank	-1058
▁gyak	-1059
▁néz	-1060
pá	-1061
and	-1062
▁hagy	-1063
▁míg	-1064
▁eit	-1065
rás	-1066
▁hónap	-1067
▁részt	-1068
dés	-1069
▁MNO	-1070
▁kár	-1071
▁do	-1072
▁táj	-1073
▁szolg	-1074
▁könyv	-1075
▁saját	-1076
▁salád	-1077
▁tam	-1078
▁bíró	-1079
▁ülés	-1080
▁telen	-1081
▁ket	-1082
▁füg	-1083
▁iká	-1084
▁haz	-1085
zel	-1086
▁ást	-1087
▁ma	-1088
▁;	-1089
ma	-1090
▁csü	-1091
▁őség	-1092
▁iá	-1093
▁ális	-1094
só	-1095
▁má	-1096
▁bü	-1097
▁fe	-1098
▁irány	-1099
▁tem	-1100
▁har	-1101
lá	-1102
▁őrség	-1103
▁zen	-1104
▁arról	-1105
▁rég	-1106
▁ég	-1107
▁ésé	-1108
▁tős	-1109
▁növe	-1110
▁sér	-1111
▁pé	-1112
▁szo	-1113
▁jelöl	-1114
▁ekk	-1115
▁megf	-1116
▁bl	-1117
▁kedés	-1118
▁sü	-1119
▁maga	-1120
▁magas	-1121
any	-1122
▁taval	-1123
▁tartó	-1124
▁iszen	-1125
▁sel	-1126
▁sajtó	-1127
há	-1128
▁olg	-1129
▁atáro	-1130
▁tul	-1131
▁képes	-1132
▁viz	-1133
▁sony	-1134
▁kutat	-1135
▁gól	-1136
▁készí	-1137
▁kívül	-1138
▁ex	-1139
▁Budap	-1140
▁rtök	-1141
▁amit	-1142
▁száz	-1143
▁ával	-1144
▁állít	-1145
▁neh	-1146
▁nyol	-1147
▁ris	-1148
▁abály	-1149
▁min	-1150
▁ss	-1151
▁zik	-1152
▁ekkel	-1153
▁tárgy	-1154
▁adott	-1155
▁jan	-1156
▁éd	-1157
▁áj	-1158
▁alkal	-1159
▁próbá	-1160
▁tulaj	-1161
▁lek	-1162
▁ést	-1163
▁ros	-1164
▁endő	-1165
▁másik	-1166
▁emzet	-1167
▁éhány	-1168
▁ámára	-1169
▁tség	-1170
▁oztat	-1171
▁tűn	-1172
▁jú	-1173
▁kedv	-1174
▁akad	-1175
ors	-1176
▁kedd	-1177
▁vett	-1178
▁ud	-1179
▁jé	-1180
▁épí	-1181
▁ná	-1182
kod	-1183
▁piac	-1184
▁rm	-1185
▁lékos	-1186
▁inkáb	-1187
vá	-1188
▁járás	-1189
▁felé	-1190
▁ök	-1191
▁órá	-1192
▁bb	-1193
▁tájék	-1194
▁esz	-1195
▁ttság	-1196
▁ac	-1197
▁inter	-1198
▁hivat	-1199
▁lo	-1200
▁nyilv	-1201
▁egyé	-1202
▁szöve	-1203
▁pl	-1204
▁za	-1205
▁teni	-1206
▁lhet	-1207
ho	-1208
▁Ú	-1209
▁eség	-1210
▁thet	-1211
▁alaku	-1212
▁csütö	-1213
▁hát	-1214
▁hall	-1215
▁izsg	-1216
▁fordu	-1217
▁című	-1218
▁vé	-1219
▁ait	-1220
▁közül	-1221
hoz	-1222
▁vis	-1223
▁ezés	-1224
▁késő	-1225
▁izsgá	-1226
▁múlt	-1227
▁iatal	-1228
▁hit	-1229
▁raj	-1230
▁épp	-1231
▁része	-1232
▁akár	-1233
▁Nagy	-1234
▁német	-1235
▁abad	-1236
▁talan	-1237
▁tiz	-1238
▁évek	-1239
▁att	-1240
▁dollá	-1241
▁jól	-1242
▁számo	-1243
▁okoz	-1244
ha	-1245
itá	-1246
▁tközi	-1247
▁tanul	-1248
▁tölt	-1249
▁eren	-1250
▁örö	-1251
▁lenne	-1252
▁elj	-1253
▁támad	-1254
▁érkez	-1255
▁elég	-1256
▁köt	-1257
▁lab	-1258
▁ány	-1259
▁gj	-1260
▁gyors	-1261
▁ztat	-1262
▁Meg	-1263
▁ós	-1264
▁bűn	-1265
▁érz	-1266
▁gjobb	-1267
▁hatás	-1268
▁rom	-1269
▁közö	-1270
▁állap	-1271
▁nép	-1272
▁pályá	-1273
▁tó	-1274
▁niszt	-1275
▁álló	-1276
▁ítél	-1277
▁moz	-1278
▁tű	-1279
▁sérü	-1280
▁gyobb	-1281
▁szüle	-1282
▁fi	-1283
mű	-1284
▁ya	-1285
▁almaz	-1286
▁enged	-1287
▁oló	-1288
▁ítás	-1289
▁Euró	-1290
▁januá	-1291
▁szál	-1292
▁mely	-1293
▁sport	-1294
▁ty	-1295
▁ang	-1296
▁oro	-1297
▁Európ	-1298
▁dec	-1299
▁nyú	-1300
▁emlék	-1301
▁kí	-1302
▁legna	-1303
▁körül	-1304
▁mez	-1305
▁du	-1306
▁azz	-1307
▁hír	-1308
▁okkal	-1309
▁kr	-1310
▁belül	-1311
▁gyár	-1312
▁rd	-1313
▁ásá	-1314
anc	-1315
▁atott	-1316
csi	-1317
▁atok	-1318
▁állás	-1319
▁zp	-1320
▁nság	-1321
▁leges	-1322
▁Ch	-1323
▁ic	-1324
▁bar	-1325
▁tétel	-1326
▁ou	-1327
▁tesz	-1328
▁lalko	-1329
▁ponto	-1330
▁gyako	-1331
▁gyere	-1332
▁mec	-1333
▁tíz	-1334
▁ág	-1335
▁esti	-1336
▁során	-1337
ami	-1338
▁ati	-1339
▁bet	-1340
▁na	-1341
▁eni	-1342
▁iszt	-1343
▁mai	-1344
▁egyei	-1345
▁jai	-1346
koz	-1347
▁rossz	-1348
▁idej	-1349
▁erd	-1350
▁semmi	-1351
▁árnap	-1352
▁hiány	-1353
▁ista	-1354
▁erenc	-1355
▁zpont	-1356
▁azzal	-1357
▁vetés	-1358
▁ette	-1359
▁részé	-1360
▁br	-1361
▁kü	-1362
▁nyolc	-1363
▁emben	-1364
▁rny	-1365
▁alk	-1366
▁európ	-1367
▁pénzt	-1368
▁indig	-1369
▁író	-1370
▁ard	-1371
▁ru	-1372
▁nyel	-1373
▁tit	-1374
▁ete	-1375
▁egyéb	-1376
▁bef	-1377
▁ev	-1378
▁beteg	-1379
▁skol	-1380
▁ala	-1381
▁közép	-1382
▁ződés	-1383
▁kom	-1384
▁ezzel	-1385
▁megsz	-1386
▁telep	-1387
▁mot	-1388
▁oltak	-1389
▁kön	-1390
▁gyan	-1391
▁tolsó	-1392
▁mo	-1393
▁bra	-1394
▁leked	-1395
▁sztés	-1396
▁száll	-1397
▁zl	-1398
▁kot	-1399
▁zni	-1400
▁orosz	-1401
▁akció	-1402
▁sebb	-1403
▁későb	-1404
▁so	-1405
▁éri	-1406
▁MSZ	-1407
▁lta	-1408
▁szok	-1409
▁ános	-1410
▁éve	-1411
▁tarto	-1412
▁ászló	-1413
▁érte	-1414
▁utób	-1415
▁atkoz	-1416
▁tb	-1417
▁visel	-1418
▁mivel	-1419
▁kod	-1420
▁parla	-1421
▁meccs	-1422
ele	-1423
▁MT	-1424
▁fen	-1425
▁ossz	-1426
▁aján	-1427
▁vonat	-1428
▁lépés	-1429
▁ró	-1430
▁lévő	-1431
▁eljes	-1432
▁mányz	-1433
▁maz	-1434
▁eszt	-1435
▁vizsg	-1436
▁fejle	-1437
▁til	-1438
▁nyit	-1439
▁idén	-1440
▁kező	-1441
▁ezett	-1442
▁iro	-1443
▁rható	-1444
bán	-1445
▁ajánl	-1446
▁csat	-1447
▁végén	-1448
▁újra	-1449
▁színű	-1450
▁bil	-1451
▁enki	-1452
▁keze	-1453
já	-1454
▁könny	-1455
▁eh	-1456
▁nemze	-1457
▁úja	-1458
▁tetté	-1459
▁újabb	-1460
▁magán	-1461
▁pénte	-1462
▁fejez	-1463
▁MSZP	-1464
ván	-1465
▁rende	-1466
▁végz	-1467
▁ant	-1468
let	-1469
▁ennek	-1470
me	-1471
▁El	-1472
▁op	-1473
▁hazai	-1474
▁Ö	-1475
▁ák	-1476
▁élemé	-1477
▁gyerm	-1478
▁határ	-1479
▁gyanú	-1480
▁eti	-1481
im	-1482
▁kség	-1483
▁hí	-1484
alm	-1485
▁rú	-1486
▁hitel	-1487
▁enek	-1488
▁elelő	-1489
▁port	-1490
▁gal	-1491
▁Ne	-1492
ális	-1493
▁rel	-1494
▁últ	-1495
▁segít	-1496
▁elkez	-1497
▁méd	-1498
▁orvos	-1499
▁úsz	-1500
▁utas	-1501
▁veszt	-1502
▁gyó	-1503
▁helyi	-1504
▁jának	-1505
▁tekin	-1506
▁10	-1507
▁ein	-1508
▁oda	-1509
▁rak	-1510
▁hú	-1511
▁kotmá	-1512
▁Le	-1513
▁Orbán	-1514
▁iai	-1515
▁ult	-1516
▁almas	-1517
▁ebben	-1518
▁tanác	-1519
▁vány	-1520
▁abban	-1521
▁hajt	-1522
ről	-1523
▁pal	-1524
▁red	-1525
▁bö	-1526
▁bele	-1527
▁infor	-1528
▁gen	-1529
▁vonal	-1530
▁tor	-1531
▁gel	-1532
▁au	-1533
▁segí	-1534
▁kín	-1535
▁ich	-1536
▁csap	-1537
▁tét	-1538
▁olgál	-1539
▁íz	-1540
▁uszt	-1541
▁eseté	-1542
▁un	-1543
▁fut	-1544
▁omb	-1545
▁zta	-1546
▁etem	-1547
▁napi	-1548
▁tani	-1549
▁gos	-1550
▁der	-1551
▁lja	-1552
▁nov	-1553
▁étfő	-1554
▁őket	-1555
▁oci	-1556
▁önk	-1557
ex	-1558
▁idei	-1559
▁orrás	-1560
▁jük	-1561
▁óvi	-1562
▁ábor	-1563
▁önkor	-1564
▁tűz	-1565
▁erv	-1566
▁alakí	-1567
ub	-1568
▁Péter	-1569
▁lytat	-1570
▁ából	-1571
te	-1572
▁szél	-1573
▁vér	-1574
▁to	-1575
▁ato	-1576
▁évben	-1577
▁ését	-1578
▁alább	-1579
▁érint	-1580
gel	-1581
▁Be	-1582
▁rmest	-1583
▁nyújt	-1584
mény	-1585
▁utc	-1586
▁sta	-1587
▁osság	-1588
▁válog	-1589
▁fenn	-1590
▁óvivő	-1591
▁kil	-1592
tos	-1593
▁éb	-1594
▁elej	-1595
▁elet	-1596
ábor	-1597
▁iztos	-1598
▁motor	-1599
▁lég	-1600
▁epel	-1601
▁írás	-1602
▁lány	-1603
▁gáz	-1604
▁éppen	-1605
▁éli	-1606
▁áltat	-1607
▁pil	-1608
▁tot	-1609
gye	-1610
▁ős	-1611
▁ain	-1612
▁erdán	-1613
▁okban	-1614
▁egyes	-1615
▁yaszt	-1616
▁bír	-1617
▁átlag	-1618
▁intén	-1619
ják	-1620
▁séges	-1621
▁étfőn	-1622
▁bá	-1623
▁ersze	-1624
▁kiv	-1625
▁kór	-1626
▁ekt	-1627
▁hető	-1628
▁szom	-1629
▁máció	-1630
▁ester	-1631
▁erre	-1632
▁arc	-1633
▁lov	-1634
▁magá	-1635
▁jegyz	-1636
▁annyi	-1637
▁zék	-1638
▁mel	-1639
▁ismét	-1640
▁telez	-1641
▁mal	-1642
▁hol	-1643
▁üzem	-1644
▁álság	-1645
▁terje	-1646
▁zlemé	-1647
▁etet	-1648
▁tap	-1649
▁gyűjt	-1650
▁sonló	-1651
▁x	-1652
▁ber	-1653
▁ika	-1654
▁magát	-1655
▁bő	-1656
▁Ma	-1657
▁dar	-1658
▁Bu	-1659
▁stván	-1660
▁óra	-1661
▁halál	-1662
▁ká	-1663
▁éj	-1664
▁ipar	-1665
▁nik	-1666
▁itás	-1667
▁szint	-1668
▁15	-1669
▁etés	-1670
gi	-1671
▁nőtt	-1672
▁pr	-1673
▁írja	-1674
▁kció	-1675
▁aslat	-1676
▁kíván	-1677
▁Ro	-1678
▁neki	-1679
▁jában	-1680
▁lőd	-1681
ént	-1682
▁ervez	-1683
▁azon	-1684
▁keves	-1685
▁mit	-1686
▁Szer	-1687
▁str	-1688
▁cso	-1689
ine	-1690
▁emény	-1691
után	-1692
▁alami	-1693
▁áció	-1694
▁ogyan	-1695
ka	-1696
▁szóló	-1697
▁totta	-1698
▁áról	-1699
▁atív	-1700
▁iután	-1701
▁kság	-1702
▁őrök	-1703
▁barát	-1704
▁igen	-1705
▁Sp	-1706
▁ebr	-1707
▁atot	-1708
▁kény	-1709
▁szív	-1710
▁bíz	-1711
sor	-1712
▁lag	-1713
▁szor	-1714
▁éről	-1715
▁elős	-1716
▁ft	-1717
▁este	-1718
▁land	-1719
▁Y	-1720
▁árm	-1721
▁régi	-1722
▁ozat	-1723
▁ebruá	-1724
▁formá	-1725
▁álasz	-1726
zs	-1727
▁ezte	-1728
▁tető	-1729
▁ese	-1730
▁tele	-1731
▁etné	-1732
▁nete	-1733
▁műsor	-1734
nne	-1735
▁ttal	-1736
▁ene	-1737
lő	-1738
adt	-1739
▁lkod	-1740
vid	-1741
▁kkal	-1742
▁kelet	-1743
▁ata	-1744
▁las	-1745
▁vid	-1746
▁ény	-1747
▁rög	-1748
▁adság	-1749
▁őször	-1750
▁20	-1751
▁tehet	-1752
chn	-1753
▁üzlet	-1754
▁assz	-1755
▁Zs	-1756
▁zben	-1757
▁ost	-1758
▁rnyez	-1759
▁vatal	-1760
▁jelz	-1761
öv	-1762
▁ogl	-1763
▁csú	-1764
▁igény	-1765
▁kocsi	-1766
▁lik	-1767
▁ong	-1768
▁bev	-1769
▁tunk	-1770
▁függe	-1771
▁Mind	-1772
▁aszt	-1773
▁zi	-1774
▁franc	-1775
sér	-1776
▁ener	-1777
▁szí	-1778
▁földi	-1779
▁évvel	-1780
▁kett	-1781
▁rlat	-1782
▁szerz	-1783
▁bér	-1784
▁elv	-1785
▁rtökö	-1786
émá	-1787
▁jött	-1788
▁megh	-1789
▁érium	-1790
▁irat	-1791
▁vél	-1792
▁legf	-1793
▁ordul	-1794
▁kísér	-1795
▁Bar	-1796
▁moly	-1797
▁rek	-1798
▁ggel	-1799
▁lg	-1800
▁íg	-1801
▁gyárt	-1802
▁felh	-1803
▁MTI	-1804
▁blémá	-1805
▁halad	-1806
▁anak	-1807
▁Í	-1808
elm	-1809
▁osszú	-1810
▁sa	-1811
▁kan	-1812
▁ítés	-1813
▁oglal	-1814
nnep	-1815
▁izm	-1816
▁őrz	-1817
▁ünnep	-1818
ur	-1819
▁tudom	-1820
▁enni	-1821
▁miért	-1822
▁Ki	-1823
▁vall	-1824
▁ib	-1825
▁épül	-1826
▁szk	-1827
▁arány	-1828
▁egyre	-1829
▁po	-1830
tor	-1831
▁uni	-1832
▁techn	-1833
▁kek	-1834
▁tilt	-1835
▁Gy	-1836
▁part	-1837
▁keret	-1838
▁Gábor	-1839
▁12	-1840
▁erősí	-1841
▁ín	-1842
▁kiad	-1843
▁sért	-1844
▁ason	-1845
▁csu	-1846
▁hallg	-1847
▁ria	-1848
▁áld	-1849
▁töm	-1850
▁ottho	-1851
▁Vil	-1852
▁mö	-1853
▁hos	-1854
▁küld	-1855
▁esség	-1856
ház	-1857
▁ásra	-1858
▁ől	-1859
▁yör	-1860
▁értő	-1861
▁eken	-1862
▁élő	-1863
▁ekre	-1864
▁listá	-1865
▁labda	-1866
▁sség	-1867
▁unió	-1868
▁nehéz	-1869
▁képp	-1870
▁Orszá	-1871
▁ld	-1872
rt	-1873
▁jon	-1874
▁rövid	-1875
▁hossz	-1876
▁tv	-1877
▁alkot	-1878
▁tetés	-1879
▁kilo	-1880
▁ltek	-1881
▁minő	-1882
▁ették	-1883
▁gyes	-1884
▁ándor	-1885
▁ark	-1886
▁fek	-1887
▁kőz	-1888
ába	-1889
▁nyomo	-1890
▁eplő	-1891
▁Új	-1892
▁man	-1893
▁omány	-1894
▁env	-1895
▁ását	-1896
▁végre	-1897
▁ern	-1898
▁nal	-1899
▁elmet	-1900
▁terem	-1901
▁rúg	-1902
▁ton	-1903
▁elyen	-1904
▁apitá	-1905
ke	-1906
▁pó	-1907
tób	-1908
▁dob	-1909
▁izony	-1910
▁létre	-1911
▁lf	-1912
▁terme	-1913
▁szete	-1914
▁mozg	-1915
▁állt	-1916
pa	-1917
▁óri	-1918
▁X	-1919
▁kevés	-1920
▁kórhá	-1921
▁fu	-1922
▁lnek	-1923
▁egyez	-1924
▁ion	-1925
▁Jo	-1926
▁mer	-1927
▁média	-1928
▁esély	-1929
▁aho	-1930
▁ezen	-1931
▁kori	-1932
▁lják	-1933
▁tóság	-1934
▁gyógy	-1935
▁érdem	-1936
▁módo	-1937
▁ztal	-1938
▁utaz	-1939
▁egyen	-1940
▁teszi	-1941
▁özben	-1942
zab	-1943
▁ank	-1944
▁mente	-1945
▁tudja	-1946
▁kéz	-1947
▁enved	-1948
▁gyeng	-1949
▁olcs	-1950
ic	-1951
▁asonl	-1952
▁rit	-1953
▁'	-1954
▁óg	-1955
▁ajo	-1956
▁keny	-1957
▁aradt	-1958
▁esett	-1959
▁Szab	-1960
▁akasz	-1961
▁energ	-1962
▁húz	-1963
▁színe	-1964
▁osan	-1965
▁Uni	-1966
▁ner	-1967
▁konce	-1968
▁ea	-1969
▁brit	-1970
▁hibá	-1971
mu	-1972
▁őv	-1973
▁jön	-1974
▁túr	-1975
▁etek	-1976
▁ehér	-1977
▁teh	-1978
▁endég	-1979
▁yörgy	-1980
▁ril	-1981
▁végül	-1982
▁legi	-1983
▁eny	-1984
▁sá	-1985
▁rül	-1986
▁tehát	-1987
▁ásár	-1988
▁Sport	-1989
▁óz	-1990
▁rab	-1991
▁usz	-1992
▁nyelv	-1993
▁vezér	-1994
▁Ján	-1995
▁obbik	-1996
▁ület	-1997
▁tizen	-1998
▁takar	-1999
▁áp	-2000
▁ázs	-2001
▁all	-2002
▁irod	-2003
▁pi	-2004
▁ff	-2005
▁előző	-2006
▁sítmé	-2007
▁többi	-2008
▁nyság	-2009
▁függ	-2010
▁ay	-2011
▁fegy	-2012
▁fele	-2013
▁ocial	-2014
▁cik	-2015
▁cius	-2016
▁ciós	-2017
▁klub	-2018
▁fed	-2019
▁elér	-2020
▁zel	-2021
▁ándék	-2022
▁mat	-2023
▁jármű	-2024
▁buk	-2025
▁lm	-2026
▁féle	-2027
▁tí	-2028
▁ele	-2029
▁koc	-2030
▁ólag	-2031
▁kőzés	-2032
▁lovák	-2033
▁ggy	-2034
▁ígér	-2035
▁cikk	-2036
▁fény	-2037
▁János	-2038
▁Gyu	-2039
▁mok	-2040
▁beli	-2041
▁elme	-2042
▁hete	-2043
▁szép	-2044
▁darab	-2045
▁pá	-2046
▁da	-2047
▁New	-2048
▁ehet	-2049
▁apot	-2050
▁tvány	-2051
▁donos	-2052
▁lső	-2053
▁Mint	-2054
▁ösen	-2055
var	-2056
▁alu	-2057
▁benne	-2058
▁októb	-2059
▁ügyel	-2060
▁ssz	-2061
▁Né	-2062
▁ejt	-2063
▁tapas	-2064
▁alos	-2065
▁eleg	-2066
csá	-2067
▁ombat	-2068
▁bünte	-2069
▁Világ	-2070
▁izmus	-2071
▁ásárl	-2072
▁An	-2073
▁tuk	-2074
▁omo	-2075
▁szu	-2076
▁írta	-2077
űl	-2078
▁encs	-2079
▁nként	-2080
▁szü	-2081
▁védő	-2082
▁tatás	-2083
▁tkez	-2084
▁vevő	-2085
▁őriz	-2086
▁get	-2087
▁tést	-2088
ilk	-2089
▁vele	-2090
▁lakás	-2091
▁trány	-2092
amás	-2093
▁ová	-2094
▁kul	-2095
▁éko	-2096
▁név	-2097
▁tük	-2098
▁Tamás	-2099
▁nök	-2100
▁agyis	-2101
▁EU	-2102
▁odell	-2103
▁nl	-2104
▁art	-2105
▁őváro	-2106
▁utal	-2107
▁ven	-2108
▁ggyűl	-2109
▁oktat	-2110
zd	-2111
▁erá	-2112
▁bor	-2113
▁oha	-2114
▁ékony	-2115
▁úr	-2116
▁bőv	-2117
▁iség	-2118
▁rilis	-2119
▁gi	-2120
▁tos	-2121
▁zeti	-2122
▁óriá	-2123
▁harc	-2124
▁csele	-2125
▁tésé	-2126
▁mégis	-2127
▁mp	-2128
▁nyert	-2129
▁indí	-2130
▁kocká	-2131
▁adásu	-2132
▁nf	-2133
▁llam	-2134
▁pu	-2135
▁por	-2136
▁alás	-2137
ött	-2138
▁oo	-2139
▁spany	-2140
kol	-2141
▁ésre	-2142
▁ító	-2143
▁emp	-2144
▁ahogy	-2145
▁küzd	-2146
▁újság	-2147
▁ck	-2148
▁ötte	-2149
▁kampá	-2150
▁elh	-2151
▁évi	-2152
▁elyez	-2153
▁ög	-2154
▁tőz	-2155
▁ntr	-2156
▁kettő	-2157
▁pa	-2158
▁éz	-2159
▁olta	-2160
▁gyilk	-2161
▁csá	-2162
▁usztr	-2163
▁ányos	-2164
▁kapu	-2165
▁tja	-2166
▁ád	-2167
▁cser	-2168
▁egle	-2169
▁aná	-2170
▁maguk	-2171
▁ügymi	-2172
▁ször	-2173
▁Azt	-2174
▁nline	-2175
▁ályáz	-2176
▁erel	-2177
▁nyít	-2178
▁alapí	-2179
▁És	-2180
▁orban	-2181
▁inc	-2182
▁ába	-2183
▁ására	-2184
▁zá	-2185
▁ird	-2186
▁bocsá	-2187
▁oldás	-2188
▁áldoz	-2189
iná	-2190
▁af	-2191
▁rem	-2192
▁lass	-2193
▁elyik	-2194
▁lin	-2195
▁aton	-2196
▁pálya	-2197
▁közös	-2198
▁csi	-2199
▁andó	-2200
▁nsági	-2201
▁atos	-2202
▁eknek	-2203
▁ug	-2204
▁járó	-2205
▁íció	-2206
▁Zrt	-2207
▁alac	-2208
▁BK	-2209
▁elé	-2210
▁Zol	-2211
▁znak	-2212
▁gyesü	-2213
▁ideg	-2214
▁pül	-2215
ekt	-2216
▁rg	-2217
▁ler	-2218
▁Német	-2219
▁log	-2220
▁eglep	-2221
▁Sch	-2222
▁fin	-2223
énye	-2224
▁avi	-2225
▁sza	-2226
▁érvé	-2227
▁Zoltá	-2228
▁titká	-2229
▁reg	-2230
▁alaki	-2231
▁dr	-2232
▁esen	-2233
▁távo	-2234
▁Hu	-2235
sa	-2236
▁ka	-2237
▁som	-2238
▁közve	-2239
▁valós	-2240
▁alig	-2241
▁iktor	-2242
▁tin	-2243
▁lenc	-2244
▁ist	-2245
▁olim	-2246
▁széd	-2247
▁tevé	-2248
▁irdet	-2249
▁karác	-2250
▁olimp	-2251
▁senki	-2252
▁végé	-2253
▁busz	-2254
▁üt	-2255
▁16	-2256
▁csupá	-2257
▁30	-2258
▁Ezt	-2259
▁mög	-2260
▁ort	-2261
▁olasz	-2262
▁ih	-2263
▁sze	-2264
▁Ho	-2265
▁fot	-2266
▁üket	-2267
▁folyt	-2268
▁össég	-2269
▁gyűl	-2270
hon	-2271
▁vette	-2272
▁zak	-2273
▁ngyel	-2274
▁orvát	-2275
több	-2276
▁BKV	-2277
▁pan	-2278
▁idéz	-2279
▁gtöbb	-2280
▁vág	-2281
▁előz	-2282
▁héten	-2283
▁katon	-2284
▁léka	-2285
▁ív	-2286
▁zer	-2287
kalm	-2288
▁lem	-2289
▁rag	-2290
▁lkalm	-2291
▁zin	-2292
▁talán	-2293
▁ölcs	-2294
▁fordí	-2295
▁Bo	-2296
▁25	-2297
▁atója	-2298
▁azott	-2299
▁ológi	-2300
▁écs	-2301
▁zis	-2302
▁éből	-2303
▁tthon	-2304
▁lef	-2305
▁fotó	-2306
▁Köz	-2307
▁remé	-2308
all	-2309
▁dió	-2310
▁működ	-2311
▁tév	-2312
▁hétfő	-2313
▁erg	-2314
▁11	-2315
▁kinek	-2316
▁ainak	-2317
▁hull	-2318
▁áború	-2319
▁vád	-2320
▁gazdá	-2321
▁indok	-2322
▁lu	-2323
▁okon	-2324
▁ansz	-2325
▁Ber	-2326
▁Fel	-2327
▁embe	-2328
▁ktor	-2329
▁ámos	-2330
▁elejé	-2331
szö	-2332
▁ések	-2333
▁hő	-2334
▁ánt	-2335
▁járul	-2336
▁árt	-2337
▁terhe	-2338
▁onn	-2339
▁kkent	-2340
▁+	-2341
▁18	-2342
▁yő	-2343
▁zte	-2344
▁emlí	-2345
▁neve	-2346
▁-,	-2347
▁anat	-2348
▁zent	-2349
▁skolá	-2350
▁eztet	-2351
▁járat	-2352
▁menet	-2353
▁somag	-2354
▁úz	-2355
▁esemé	-2356
▁léte	-2357
▁ekkor	-2358
▁hál	-2359
▁öbb	-2360
▁tése	-2361
▁élyes	-2362
▁ral	-2363
▁csal	-2364
▁kkel	-2365
▁vita	-2366
▁atai	-2367
▁vagyo	-2368
ók	-2369
▁öld	-2370
▁böző	-2371
▁ndrás	-2372
▁ogalm	-2373
▁adék	-2374
▁nehez	-2375
▁ens	-2376
▁zetes	-2377
▁lott	-2378
▁zú	-2379
▁kif	-2380
▁dok	-2381
▁nok	-2382
▁plom	-2383
▁táb	-2384
▁ecs	-2385
▁lán	-2386
▁tény	-2387
▁urg	-2388
▁aztán	-2389
▁köszö	-2390
▁elsős	-2391
▁tball	-2392
▁ack	-2393
▁felül	-2394
▁sítás	-2395
▁dalom	-2396
▁bé	-2397
▁Ezek	-2398
▁dá	-2399
▁tömeg	-2400
▁ármaz	-2401
▁mező	-2402
▁csiná	-2403
DF	-2404
co	-2405
▁ajó	-2406
▁elf	-2407
▁ója	-2408
▁ezon	-2409
▁éhez	-2410
▁agyok	-2411
▁fegyv	-2412
▁ályo	-2413
▁nye	-2414
▁mély	-2415
▁tes	-2416
▁ezre	-2417
▁ktív	-2418
▁1,	-2419
▁ozi	-2420
▁hhoz	-2421
▁nter	-2422
▁uniós	-2423
▁dt	-2424
▁háló	-2425
▁lev	-2426
▁osz	-2427
▁lták	-2428
▁13	-2429
▁nyz	-2430
▁vény	-2431
▁érség	-2432
▁ari	-2433
▁ej	-2434
▁indít	-2435
▁Bár	-2436
▁távol	-2437
▁Vas	-2438
▁enc	-2439
▁enti	-2440
▁ásáro	-2441
▁angol	-2442
▁tenni	-2443
▁ers	-2444
▁sőt	-2445
▁kemé	-2446
▁szel	-2447
▁tve	-2448
▁romá	-2449
sef	-2450
▁ue	-2451
▁házi	-2452
▁tized	-2453
▁edző	-2454
▁einek	-2455
▁ch	-2456
▁odás	-2457
▁Ind	-2458
▁telm	-2459
▁ics	-2460
▁del	-2461
▁uró	-2462
▁kiz	-2463
▁izál	-2464
▁csúcs	-2465
▁fokoz	-2466
▁MDF	-2467
▁rium	-2468
▁örös	-2469
▁végez	-2470
▁olaj	-2471
▁lásá	-2472
▁Ugyan	-2473
▁ept	-2474
▁amar	-2475
▁izá	-2476
▁ségé	-2477
▁encsé	-2478
▁esí	-2479
▁kik	-2480
▁tur	-2481
▁zavar	-2482
▁14	-2483
▁ztül	-2484
▁befek	-2485
▁urópa	-2486
▁gö	-2487
▁utat	-2488
▁látás	-2489
▁azaz	-2490
▁kizár	-2491
▁zötti	-2492
▁kban	-2493
▁örök	-2494
▁Att	-2495
▁kid	-2496
▁árf	-2497
▁ekben	-2498
▁kínai	-2499
▁ménye	-2500
▁ődött	-2501
▁löv	-2502
▁hány	-2503
▁ózsef	-2504
▁Bal	-2505
lap	-2506
▁szony	-2507
▁iv	-2508
▁tra	-2509
▁ettek	-2510
▁nyben	-2511
▁onlap	-2512
▁ce	-2513
▁rű	-2514
▁megv	-2515
▁olato	-2516
▁eged	-2517
▁módon	-2518
▁pülő	-2519
▁ához	-2520
▁hh	-2521
▁arl	-2522
▁Index	-2523
▁lénye	-2524
▁knek	-2525
▁skola	-2526
▁őt	-2527
▁ser	-2528
▁elkö	-2529
▁szék	-2530
▁addig	-2531
▁dokum	-2532
▁zók	-2533
▁Attil	-2534
▁folyó	-2535
▁látsz	-2536
▁ikló	-2537
▁sztő	-2538
▁döntő	-2539
▁atta	-2540
▁cégek	-2541
▁vonul	-2542
▁En	-2543
▁múl	-2544
▁alma	-2545
▁fedez	-2546
▁dzs	-2547
▁nyí	-2548
▁kmény	-2549
▁hhez	-2550
▁ivel	-2551
▁17	-2552
▁okra	-2553
▁eu	-2554
▁apír	-2555
▁ógus	-2556
▁Ennek	-2557
▁telmű	-2558
▁írt	-2559
▁reng	-2560
▁ázás	-2561
▁uális	-2562
▁őle	-2563
▁etét	-2564
▁riss	-2565
▁rz	-2566
▁nekü	-2567
jc	-2568
▁kozó	-2569
▁mellé	-2570
▁adta	-2571
▁kben	-2572
▁Nép	-2573
▁eté	-2574
▁ínész	-2575
▁jét	-2576
▁yug	-2577
▁áig	-2578
▁közé	-2579
▁orít	-2580
▁tősen	-2581
▁tön	-2582
▁látog	-2583
▁zkod	-2584
▁entu	-2585
▁ezni	-2586
▁ondja	-2587
▁éké	-2588
▁nhet	-2589
▁ukat	-2590
▁pontj	-2591
▁Kr	-2592
▁budap	-2593
▁előny	-2594
▁esebb	-2595
▁tyá	-2596
▁knak	-2597
▁lakó	-2598
▁vájc	-2599
▁cseré	-2600
▁közep	-2601
▁oknak	-2602
▁ow	-2603
▁cel	-2604
▁átu	-2605
▁idék	-2606
▁ileg	-2607
▁lhat	-2608
▁fiú	-2609
▁rülmé	-2610
▁Gaz	-2611
▁Két	-2612
▁íroz	-2613
▁kri	-2614
▁költ	-2615
uh	-2616
▁vetel	-2617
▁hon	-2618
▁incs	-2619
▁vége	-2620
▁pp	-2621
▁arg	-2622
▁Már	-2623
▁sznek	-2624
▁zsi	-2625
▁ront	-2626
▁sága	-2627
▁rs	-2628
▁ói	-2629
▁gok	-2630
▁esül	-2631
▁eal	-2632
▁lly	-2633
▁láb	-2634
▁sége	-2635
▁gra	-2636
▁ettes	-2637
▁ódott	-2638
▁ura	-2639
▁ekről	-2640
▁onnal	-2641
▁derül	-2642
▁mentő	-2643
▁lcs	-2644
▁szig	-2645
ból	-2646
▁ajn	-2647
▁cen	-2648
▁mérés	-2649
▁tagja	-2650
▁szen	-2651
▁egyér	-2652
▁menti	-2653
▁fa	-2654
▁nan	-2655
▁heti	-2656
▁szór	-2657
▁zett	-2658
▁árak	-2659
▁űr	-2660
▁form	-2661
▁jogi	-2662
▁kas	-2663
▁essz	-2664
▁nie	-2665
▁endőr	-2666
▁th	-2667
▁adi	-2668
▁sak	-2669
▁piaci	-2670
▁rid	-2671
▁zene	-2672
▁gar	-2673
▁Így	-2674
▁ml	-2675
▁nevű	-2676
st	-2677
▁mik	-2678
▁pus	-2679
▁pót	-2680
▁ntet	-2681
▁felsz	-2682
▁dik	-2683
▁ntető	-2684
▁édelm	-2685
▁haza	-2686
▁kata	-2687
▁gu	-2688
▁tte	-2689
▁Zso	-2690
▁had	-2691
▁that	-2692
▁tom	-2693
▁őleg	-2694
▁tartá	-2695
▁rik	-2696
▁gyház	-2697
▁mért	-2698
▁nyár	-2699
▁alapo	-2700
▁inten	-2701
▁tudta	-2702
▁beruh	-2703
▁level	-2704
▁sztu	-2705
▁vide	-2706
▁pad	-2707
▁rák	-2708
sel	-2709
▁idejé	-2710
▁zza	-2711
▁válto	-2712
▁csit	-2713
▁ektr	-2714
▁ezték	-2715
▁Rá	-2716
▁ksz	-2717
▁jen	-2718
▁lig	-2719
▁ivat	-2720
▁sebe	-2721
▁Ve	-2722
▁ork	-2723
▁titk	-2724
▁szomb	-2725
▁kisz	-2726
▁onal	-2727
▁Ko	-2728
▁igá	-2729
▁női	-2730
▁iget	-2731
▁elett	-2732
▁képze	-2733
▁sokat	-2734
▁zaj	-2735
▁tar	-2736
▁tán	-2737
▁emző	-2738
▁lnak	-2739
▁Ő	-2740
▁nyos	-2741
▁éni	-2742
▁ztak	-2743
▁láto	-2744
▁lia	-2745
▁aság	-2746
▁jele	-2747
▁sh	-2748
▁cse	-2749
▁lan	-2750
▁célj	-2751
▁lk	-2752
▁akt	-2753
▁róf	-2754
▁sar	-2755
▁ulat	-2756
▁hatja	-2757
▁Bl	-2758
▁kol	-2759
▁eszkö	-2760
▁eső	-2761
▁ssze	-2762
▁50	-2763
vény	-2764
▁megy	-2765
▁örtö	-2766
▁Mol	-2767
▁olás	-2768
▁ec	-2769
▁ságok	-2770
▁nyal	-2771
▁etes	-2772
▁jöv	-2773
▁arany	-2774
nö	-2775
▁fők	-2776
▁felső	-2777
▁rang	-2778
▁tikus	-2779
▁mm	-2780
▁etben	-2781
▁etett	-2782
jai	-2783
▁ann	-2784
▁almi	-2785
▁bert	-2786
▁úto	-2787
▁Még	-2788
▁enye	-2789
▁agjai	-2790
▁ako	-2791
▁erősö	-2792
▁adni	-2793
▁előb	-2794
▁ozás	-2795
▁öm	-2796
▁ltak	-2797
▁léká	-2798
▁zati	-2799
▁lyás	-2800
öld	-2801
▁rej	-2802
▁lföld	-2803
▁lám	-2804
▁szi	-2805
▁járt	-2806
▁nch	-2807
▁ázad	-2808
▁kider	-2809
▁rális	-2810
▁sil	-2811
▁esés	-2812
▁híre	-2813
▁írek	-2814
▁bre	-2815
▁rog	-2816
▁eget	-2817
▁öv	-2818
▁portá	-2819
▁jekt	-2820
▁rban	-2821
▁rém	-2822
▁rály	-2823
▁soro	-2824
▁éssel	-2825
▁lte	-2826
▁akit	-2827
▁ügyé	-2828
▁tlenü	-2829
▁pill	-2830
▁oka	-2831
▁zra	-2832
▁vízi	-2833
▁Ant	-2834
▁kré	-2835
▁ogy	-2836
▁asszo	-2837
▁zu	-2838
▁ltu	-2839
▁olni	-2840
▁ellem	-2841
▁zés	-2842
▁And	-2843
▁szoci	-2844
▁jelle	-2845
▁szség	-2846
▁2.	-2847
▁kék	-2848
▁Gazd	-2849
▁akat	-2850
▁19	-2851
▁sd	-2852
▁légi	-2853
▁lel	-2854
▁una	-2855
▁ellát	-2856
▁sé	-2857
▁bol	-2858
▁erről	-2859
▁ajnok	-2860
▁ert	-2861
▁entá	-2862
▁kih	-2863
▁spe	-2864
▁gban	-2865
▁ajd	-2866
▁dem	-2867
▁kra	-2868
bo	-2869
▁kora	-2870
▁[	-2871
▁enes	-2872
▁nu	-2873
▁agg	-2874
▁nni	-2875
ber	-2876
▁Má	-2877
▁no	-2878
,5	-2879
▁orma	-2880
▁silla	-2881
▁ágy	-2882
▁ekez	-2883
▁dalmi	-2884
▁tünte	-2885
▁vitá	-2886
▁agyon	-2887
▁ségű	-2888
▁BL	-2889
▁ry	-2890
▁mél	-2891
▁lako	-2892
▁véle	-2893
▁ámol	-2894
▁edés	-2895
▁halt	-2896
▁]	-2897
▁seh	-2898
▁ényle	-2899
▁elnö	-2900
▁rep	-2901
▁zért	-2902
▁emelt	-2903
▁elk	-2904
▁gár	-2905
▁ölt	-2906
▁isza	-2907
▁tása	-2908
▁osí	-2909
▁éles	-2910
II	-2911
▁ncs	-2912
▁zásá	-2913
▁ól	-2914
▁jával	-2915
esí	-2916
▁gá	-2917
▁ljesí	-2918
▁ővé	-2919
▁ium	-2920
▁Ci	-2921
▁irán	-2922
▁isták	-2923
▁kezel	-2924
▁há	-2925
▁imp	-2926
▁lland	-2927
▁obban	-2928
▁yi	-2929
▁éző	-2930
▁drá	-2931
▁rná	-2932
▁igye	-2933
▁észak	-2934
sé	-2935
▁utcá	-2936
▁mokra	-2937
▁100	-2938
▁lla	-2939
▁niká	-2940
▁ügynö	-2941
▁ge	-2942
▁lóg	-2943
▁ajtó	-2944
▁her	-2945
omá	-2946
▁jég	-2947
▁ozott	-2948
▁zvény	-2949
▁SZ	-2950
ében	-2951
▁llé	-2952
▁hisz	-2953
▁tünk	-2954
▁sö	-2955
▁olja	-2956
▁dő	-2957
ca	-2958
▁ogat	-2959
▁tít	-2960
▁zre	-2961
▁áju	-2962
▁sban	-2963
ült	-2964
▁bárm	-2965
▁40	-2966
▁ash	-2967
▁roszo	-2968
ck	-2969
▁atko	-2970
▁bség	-2971
▁só	-2972
▁ail	-2973
▁lték	-2974
▁vill	-2975
▁tiv	-2976
▁tték	-2977
▁Ar	-2978
▁ió	-2979
▁up	-2980
▁zz	-2981
▁eleme	-2982
▁ón	-2983
▁gény	-2984
▁amb	-2985
▁vári	-2986
▁24	-2987
▁Van	-2988
▁uto	-2989
▁tásá	-2990
▁óv	-2991
▁jegye	-2992
▁Wi	-2993
▁ie	-2994
▁ór	-2995
▁lus	-2996
▁áros	-2997
▁ím	-2998
▁izo	-2999
▁yom	-3000
▁sere	-3001
▁lődés	-3002
▁nők	-3003
▁rdő	-3004
▁figy	-3005
▁nny	-3006
▁zva	-3007
▁befo	-3008
▁ente	-3009
▁ségét	-3010
▁ao	-3011
▁omá	-3012
▁leszt	-3013
▁ődik	-3014
MP	-3015
▁akoz	-3016
▁erce	-3017
▁thető	-3018
▁lop	-3019
▁rie	-3020
▁zöl	-3021
▁pe	-3022
▁No	-3023
▁cz	-3024
▁űz	-3025
▁tenge	-3026
▁yugat	-3027
▁ötö	-3028
▁ogás	-3029
▁err	-3030
▁ndex	-3031
▁kos	-3032
▁kkor	-3033
▁elköv	-3034
▁állat	-3035
▁ünt	-3036
▁eke	-3037
▁eret	-3038
▁helye	-3039
▁cc	-3040
▁ttól	-3041
▁22	-3042
▁szülő	-3043
▁ham	-3044
▁rat	-3045
▁zöve	-3046
▁3.	-3047
▁Ang	-3048
▁ace	-3049
▁képz	-3050
▁nder	-3051
▁ruhá	-3052
▁agyom	-3053
▁őszer	-3054
▁21	-3055
▁Hi	-3056
▁ené	-3057
▁szét	-3058
▁olo	-3059
▁becs	-3060
▁kere	-3061
▁ezi	-3062
▁lad	-3063
▁lom	-3064
▁var	-3065
▁anya	-3066
▁nség	-3067
▁teszt	-3068
▁Di	-3069
▁dolo	-3070
▁étől	-3071
▁fogy	-3072
▁ezhet	-3073
▁tenek	-3074
▁ey	-3075
▁pat	-3076
▁tus	-3077
▁üntet	-3078
▁nyek	-3079
▁szava	-3080
▁Er	-3081
▁zzel	-3082
▁épít	-3083
▁he	-3084
▁ekint	-3085
SA	-3086
▁io	-3087
▁ky	-3088
▁ob	-3089
▁szp	-3090
▁ona	-3091
▁ajna	-3092
▁alat	-3093
▁Kis	-3094
▁elől	-3095
▁zé	-3096
▁itel	-3097
▁nger	-3098
▁szob	-3099
▁nó	-3100
▁Hír	-3101
▁tlan	-3102
▁of	-3103
▁ném	-3104
▁sztal	-3105
DP	-3106
▁felv	-3107
▁kelt	-3108
▁szaki	-3109
▁Am	-3110
▁empon	-3111
▁ger	-3112
▁ax	-3113
▁esk	-3114
▁fal	-3115
▁inn	-3116
▁oma	-3117
▁agad	-3118
▁hetne	-3119
ére	-3120
▁ébe	-3121
▁ésére	-3122
▁ettel	-3123
▁felel	-3124
▁adós	-3125
▁ódik	-3126
▁jék	-3127
▁tru	-3128
▁Úgy	-3129
▁tatók	-3130
li	-3131
▁fia	-3132
▁nná	-3133
▁rác	-3134
▁pel	-3135
▁érj	-3136
▁üze	-3137
▁kommu	-3138
▁ndon	-3139
▁éken	-3140
▁egény	-3141
▁őrzés	-3142
ából	-3143
▁poz	-3144
▁jából	-3145
▁szeti	-3146
▁LMP	-3147
▁ate	-3148
▁has	-3149
▁elemz	-3150
▁nyomá	-3151
▁egye	-3152
▁eznek	-3153
▁zták	-3154
▁kapta	-3155
▁aló	-3156
▁ass	-3157
▁imo	-3158
▁ons	-3159
▁vek	-3160
▁ügye	-3161
▁ót	-3162
▁gyö	-3163
▁orú	-3164
▁elvet	-3165
▁ásban	-3166
▁res	-3167
▁if	-3168
▁até	-3169
▁óan	-3170
▁enné	-3171
▁okból	-3172
▁űv	-3173
▁Bor	-3174
▁ama	-3175
▁ttó	-3176
▁Ü	-3177
▁anú	-3178
▁sm	-3179
▁istá	-3180
▁témá	-3181
▁fá	-3182
▁egő	-3183
▁mon	-3184
▁org	-3185
▁sár	-3186
▁oros	-3187
▁rist	-3188
▁mod	-3189
▁mene	-3190
▁zal	-3191
▁eteg	-3192
▁ásos	-3193
▁kem	-3194
▁ítja	-3195
▁össz	-3196
▁ranci	-3197
▁mé	-3198
▁korr	-3199
▁téve	-3200
▁ulás	-3201
▁árul	-3202
▁mérté	-3203
▁napon	-3204
▁rob	-3205
▁tök	-3206
▁yen	-3207
▁harm	-3208
▁sten	-3209
▁kő	-3210
▁ino	-3211
▁szl	-3212
▁zió	-3213
▁arán	-3214
▁műve	-3215
▁rkol	-3216
▁edett	-3217
▁psz	-3218
▁ror	-3219
▁jk	-3220
▁igo	-3221
▁lehe	-3222
▁séget	-3223
▁tanak	-3224
▁nia	-3225
▁tív	-3226
▁ítő	-3227
▁olód	-3228
▁Andr	-3229
▁Ab	-3230
▁egá	-3231
▁ötv	-3232
▁róla	-3233
▁lib	-3234
▁ént	-3235
▁esek	-3236
▁Fr	-3237
▁szon	-3238
DSZ	-3239
▁Kor	-3240
▁izs	-3241
▁őke	-3242
▁alék	-3243
▁niu	-3244
▁lőtt	-3245
▁osa	-3246
▁élt	-3247
▁ilag	-3248
▁szaka	-3249
▁enő	-3250
▁komm	-3251
▁yar	-3252
▁atja	-3253
▁illa	-3254
▁rakoz	-3255
▁gat	-3256
▁gyal	-3257
▁ályok	-3258
▁ancs	-3259
▁bben	-3260
▁tél	-3261
▁éntek	-3262
▁tni	-3263
▁szal	-3264
bl	-3265
▁nna	-3266
▁inak	-3267
▁tják	-3268
▁nor	-3269
▁zam	-3270
▁lefon	-3271
▁faj	-3272
▁lemző	-3273
▁anu	-3274
▁leb	-3275
▁ssé	-3276
▁yőr	-3277
▁itány	-3278
▁1.	-3279
▁KA	-3280
▁vic	-3281
▁etbe	-3282
▁park	-3283
▁aba	-3284
▁des	-3285
▁nék	-3286
▁lista	-3287
▁tm	-3288
▁Du	-3289
▁zg	-3290
▁orna	-3291
▁vető	-3292
▁ef	-3293
▁The	-3294
▁napo	-3295
▁éde	-3296
▁anács	-3297
▁itte	-3298
▁iába	-3299
szn	-3300
▁haszn	-3301
▁vb	-3302
▁ach	-3303
▁osok	-3304
▁adá	-3305
▁ere	-3306
▁ári	-3307
▁elmé	-3308
▁27	-3309
▁telef	-3310
▁amp	-3311
▁uló	-3312
if	-3313
▁ns	-3314
▁árv	-3315
▁elen	-3316
▁mezt	-3317
▁nyh	-3318
▁tró	-3319
▁ozta	-3320
▁23	-3321
▁gó	-3322
▁jj	-3323
▁ibo	-3324
▁epet	-3325
▁ósság	-3326
▁enz	-3327
▁rád	-3328
▁atni	-3329
▁elvé	-3330
▁reme	-3331
▁almat	-3332
▁din	-3333
▁rre	-3334
▁épü	-3335
▁elte	-3336
▁megye	-3337
▁Fő	-3338
▁orn	-3339
▁pir	-3340
▁2,	-3341
▁erék	-3342
▁elkép	-3343
BC	-3344
▁ju	-3345
▁liá	-3346
▁szün	-3347
▁ier	-3348
▁vén	-3349
▁labd	-3350
▁dó	-3351
▁tok	-3352
▁agál	-3353
▁ntik	-3354
▁Dr	-3355
▁Ku	-3356
▁ael	-3357
▁etén	-3358
▁GDP	-3359
▁ztrá	-3360
▁javas	-3361
ani	-3362
▁bir	-3363
▁vás	-3364
▁elsz	-3365
▁Me	-3366
▁jt	-3367
▁200	-3368
▁lód	-3369
▁vin	-3370
▁vő	-3371
▁dor	-3372
▁eri	-3373
▁sad	-3374
▁kezet	-3375
▁nnyit	-3376
▁körny	-3377
▁ésben	-3378
▁észet	-3379
▁To	-3380
▁Kar	-3381
▁ösz	-3382
▁vala	-3383
▁zéke	-3384
▁ada	-3385
▁tva	-3386
▁omás	-3387
▁co	-3388
▁sul	-3389
▁étel	-3390
kőz	-3391
▁űt	-3392
▁dés	-3393
▁zil	-3394
▁ille	-3395
▁érkőz	-3396
▁oss	-3397
▁erep	-3398
▁ségi	-3399
▁km	-3400
▁zí	-3401
▁veg	-3402
▁áss	-3403
kó	-3404
▁Co	-3405
▁iskol	-3406
▁ságra	-3407
▁nné	-3408
▁zök	-3409
▁űk	-3410
▁azá	-3411
▁ajta	-3412
▁onos	-3413
▁taná	-3414
▁ékes	-3415
▁rében	-3416
▁atá	-3417
▁amik	-3418
▁eszi	-3419
▁Mc	-3420
▁ges	-3421
▁mis	-3422
▁rbe	-3423
▁ráz	-3424
▁elfog	-3425
▁udomá	-3426
▁ub	-3427
▁lda	-3428
▁II	-3429
▁áson	-3430
▁rr	-3431
▁Li	-3432
▁anc	-3433
▁obá	-3434
▁%	-3435
▁oll	-3436
▁ács	-3437
▁tikai	-3438
▁gh	-3439
▁nyok	-3440
▁hn	-3441
▁ara	-3442
▁dai	-3443
▁tsz	-3444
▁elés	-3445
▁utató	-3446
▁ian	-3447
▁ofi	-3448
▁tava	-3449
▁probl	-3450
▁égy	-3451
▁Nemze	-3452
▁demok	-3453
▁űvész	-3454
▁rp	-3455
▁eli	-3456
▁piaco	-3457
▁arr	-3458
▁ess	-3459
▁éma	-3460
▁újt	-3461
▁bold	-3462
▁iában	-3463
▁orm	-3464
▁szé	-3465
▁hátr	-3466
▁ékeny	-3467
▁lam	-3468
▁zük	-3469
▁edz	-3470
▁sák	-3471
▁3,	-3472
▁ető	-3473
▁rán	-3474
▁sáv	-3475
mun	-3476
▁Jó	-3477
▁apa	-3478
▁áru	-3479
▁inti	-3480
▁Eb	-3481
▁ugá	-3482
▁teme	-3483
▁mre	-3484
de	-3485
▁2-	-3486
▁eten	-3487
▁lor	-3488
▁lése	-3489
▁lógia	-3490
.,	-3491
▁Ami	-3492
▁napja	-3493
▁yében	-3494
▁őbb	-3495
▁redmé	-3496
▁ással	-3497
▁adja	-3498
▁éget	-3499
▁35	-3500
▁enny	-3501
▁tból	-3502
▁árom	-3503
▁ától	-3504
▁ozni	-3505
▁kozás	-3506
▁ású	-3507
▁ekes	-3508
▁gész	-3509
▁táro	-3510
▁ius	-3511
▁tse	-3512
▁ron	-3513
▁alato	-3514
▁kivál	-3515
▁szert	-3516
hér	-3517
sék	-3518
▁llye	-3519
NP	-3520
▁rra	-3521
▁avas	-3522
▁zárt	-3523
▁mérsé	-3524
▁érhet	-3525
▁érsék	-3526
▁kov	-3527
▁med	-3528
▁fehér	-3529
▁sej	-3530
▁sztel	-3531
▁60	-3532
▁KD	-3533
▁gű	-3534
▁gan	-3535
▁tál	-3536
▁tána	-3537
io	-3538
▁láz	-3539
▁ndi	-3540
▁áv	-3541
▁eik	-3542
▁eve	-3543
▁jap	-3544
▁kál	-3545
▁rad	-3546
▁SZDSZ	-3547
▁tését	-3548
ron	-3549
▁utóbb	-3550
▁tad	-3551
▁attal	-3552
▁ale	-3553
▁dul	-3554
▁gyü	-3555
▁one	-3556
▁kezé	-3557
▁Vi	-3558
▁lko	-3559
▁lhető	-3560
▁1-	-3561
▁nci	-3562
▁idős	-3563
▁ttek	-3564
▁hango	-3565
▁japán	-3566
▁merik	-3567
▁pany	-3568
▁unkat	-3569
au	-3570
▁oru	-3571
▁zté	-3572
▁atár	-3573
▁nket	-3574
▁0,	-3575
▁hús	-3576
▁nel	-3577
▁szön	-3578
▁szerb	-3579
▁élete	-3580
di	-3581
▁alko	-3582
▁lit	-3583
▁tro	-3584
▁ága	-3585
▁nz	-3586
▁ihe	-3587
▁áf	-3588
▁ime	-3589
▁krá	-3590
▁övé	-3591
▁érni	-3592
▁Ni	-3593
▁ph	-3594
▁hir	-3595
▁tért	-3596
▁árol	-3597
▁ókat	-3598
▁26	-3599
▁apá	-3600
▁uli	-3601
▁illi	-3602
▁lójá	-3603
▁ull	-3604
▁médi	-3605
▁zzák	-3606
▁letes	-3607
▁szköz	-3608
▁cu	-3609
▁elle	-3610
▁jogo	-3611
▁téri	-3612
▁aks	-3613
▁mad	-3614
▁eres	-3615
▁pest	-3616
▁Ben	-3617
▁inek	-3618
▁landó	-3619
▁Itt	-3620
▁our	-3621
▁rod	-3622
▁uko	-3623
▁emes	-3624
▁ványo	-3625
▁zba	-3626
▁lege	-3627
▁süt	-3628
▁yel	-3629
▁almá	-3630
▁közt	-3631
▁prof	-3632
▁kifej	-3633
▁okról	-3634
ff	-3635
aki	-3636
end	-3637
▁imm	-3638
▁font	-3639
▁jára	-3640
▁kedő	-3641
▁lható	-3642
▁árosi	-3643
ének	-3644
▁KDNP	-3645
pp	-3646
▁TV	-3647
▁gle	-3648
▁kro	-3649
▁zák	-3650
▁kulá	-3651
▁ht	-3652
▁ero	-3653
▁élv	-3654
▁eksz	-3655
▁mb	-3656
▁rü	-3657
▁otó	-3658
▁ságá	-3659
▁ságát	-3660
▁lyen	-3661
▁ana	-3662
▁zása	-3663
▁örög	-3664
ga	-3665
▁Gu	-3666
▁ndr	-3667
▁ezik	-3668
▁kárt	-3669
▁táma	-3670
▁q	-3671
▁28	-3672
▁go	-3673
▁ített	-3674
▁niá	-3675
▁sof	-3676
▁végi	-3677
▁rn	-3678
▁iba	-3679
▁ska	-3680
▁umi	-3681
▁eltet	-3682
▁3-	-3683
▁gl	-3684
▁oko	-3685
▁záró	-3686
▁atást	-3687
▁óc	-3688
▁blo	-3689
▁ilv	-3690
▁kab	-3691
▁ves	-3692
▁élés	-3693
▁érzé	-3694
▁panyo	-3695
▁ldö	-3696
▁ltö	-3697
▁oki	-3698
▁teg	-3699
▁őz	-3700
▁grá	-3701
▁rca	-3702
▁ína	-3703
▁tható	-3704
▁NA	-3705
▁els	-3706
▁visz	-3707
▁bú	-3708
▁rok	-3709
▁sír	-3710
▁vai	-3711
▁sztrá	-3712
▁ica	-3713
▁háza	-3714
▁rzet	-3715
▁500	-3716
▁érv	-3717
Az	-3718
▁wi	-3719
▁Én	-3720
▁zám	-3721
▁telt	-3722
▁gát	-3723
▁kert	-3724
▁ányi	-3725
▁Ju	-3726
▁eá	-3727
▁ova	-3728
▁ódos	-3729
▁redet	-3730
▁aval	-3731
▁öltö	-3732
▁tatni	-3733
▁iná	-3734
▁nisz	-3735
▁tj	-3736
▁esé	-3737
▁lke	-3738
▁lsó	-3739
▁sto	-3740
▁bru	-3741
▁ikk	-3742
▁élé	-3743
▁mó	-3744
▁ast	-3745
▁mán	-3746
▁átv	-3747
▁lása	-3748
▁tében	-3749
▁dé	-3750
▁riá	-3751
▁hajl	-3752
▁ságot	-3753
▁Ó	-3754
▁evő	-3755
▁amos	-3756
▁szik	-3757
▁ostan	-3758
▁PL	-3759
▁kb	-3760
▁kán	-3761
▁ódosí	-3762
.:	-3763
▁fű	-3764
▁zerv	-3765
▁űn	-3766
▁alán	-3767
▁ezők	-3768
▁onta	-3769
▁akart	-3770
▁rét	-3771
▁ivál	-3772
▁negy	-3773
▁term	-3774
ac	-3775
▁eo	-3776
▁ks	-3777
▁atát	-3778
▁llá	-3779
▁Q	-3780
▁ámolt	-3781
▁Eur	-3782
▁sod	-3783
▁áci	-3784
▁benn	-3785
▁FC	-3786
▁üg	-3787
▁lve	-3788
▁etű	-3789
▁oks	-3790
▁iszti	-3791
▁letet	-3792
▁üs	-3793
▁néh	-3794
▁zelés	-3795
▁ota	-3796
▁uc	-3797
▁ili	-3798
ft	-3799
▁ref	-3800
▁illan	-3801
▁zm	-3802
▁dev	-3803
▁nyt	-3804
▁onz	-3805
▁zsá	-3806
▁latá	-3807
▁rény	-3808
▁zhat	-3809
▁dy	-3810
▁osít	-3811
▁aranc	-3812
▁ze	-3813
▁rin	-3814
▁fesz	-3815
▁rben	-3816
▁ommun	-3817
▁ste	-3818
▁egyet	-3819
▁su	-3820
▁chi	-3821
▁kre	-3822
▁rág	-3823
▁rsen	-3824
▁ósít	-3825
úr	-3826
▁lók	-3827
▁vat	-3828
▁ölé	-3829
▁derü	-3830
▁itele	-3831
udi	-3832
▁neg	-3833
▁ezmé	-3834
▁Do	-3835
▁OT	-3836
▁iss	-3837
▁zon	-3838
▁atják	-3839
▁45	-3840
▁ltó	-3841
▁óbb	-3842
▁ém	-3843
▁oni	-3844
▁etei	-3845
▁sabb	-3846
▁kicsi	-3847
▁közbe	-3848
tak	-3849
▁PK	-3850
▁iza	-3851
▁ermé	-3852
▁esége	-3853
▁laszo	-3854
▁növ	-3855
▁adal	-3856
▁32	-3857
▁lv	-3858
▁oml	-3859
▁ted	-3860
▁etne	-3861
▁ntek	-3862
▁semm	-3863
▁lmény	-3864
▁ktu	-3865
▁felj	-3866
▁atalm	-3867
▁Vá	-3868
▁lál	-3869
▁olták	-3870
▁diá	-3871
▁zív	-3872
▁enne	-3873
▁Ph	-3874
▁ác	-3875
▁táp	-3876
▁felm	-3877
▁nének	-3878
▁ado	-3879
▁alt	-3880
▁ive	-3881
▁eld	-3882
▁gál	-3883
▁iel	-3884
▁zsa	-3885
▁dött	-3886
▁Ti	-3887
▁lük	-3888
▁suk	-3889
▁eked	-3890
▁indi	-3891
▁orra	-3892
▁ster	-3893
▁szto	-3894
▁szán	-3895
▁ánál	-3896
▁ölgy	-3897
▁gyész	-3898
▁uz	-3899
▁300	-3900
▁oli	-3901
▁oto	-3902
▁sse	-3903
▁odott	-3904
▁ztály	-3905
▁nos	-3906
MF	-3907
▁iga	-3908
▁kok	-3909
▁erte	-3910
▁ntéz	-3911
▁szén	-3912
▁bó	-3913
▁óm	-3914
▁csk	-3915
▁met	-3916
▁íná	-3917
▁und	-3918
▁elik	-3919
▁sy	-3920
▁ván	-3921
▁jába	-3922
▁közv	-3923
▁éven	-3924
▁29	-3925
▁eztek	-3926
TE	-3927
▁4.	-3928
▁Mű	-3929
▁gn	-3930
▁MÁ	-3931
▁esse	-3932
▁esté	-3933
▁tság	-3934
▁zetet	-3935
▁Af	-3936
▁ügyv	-3937
▁aik	-3938
▁alo	-3939
▁oká	-3940
▁ono	-3941
▁vad	-3942
▁atol	-3943
▁elni	-3944
▁eves	-3945
▁ikor	-3946
▁król	-3947
▁szár	-3948
▁nat	-3949
▁áns	-3950
▁edé	-3951
▁lél	-3952
▁rság	-3953
▁árja	-3954
▁avaly	-3955
▁ülésé	-3956
▁AP	-3957
▁olgár	-3958
eke	-3959
▁ebe	-3960
▁íti	-3961
▁szol	-3962
▁ságos	-3963
▁émi	-3964
▁zaki	-3965
▁opron	-3966
▁NB	-3967
▁dag	-3968
▁pre	-3969
▁esél	-3970
bi	-3971
▁edd	-3972
▁vaz	-3973
▁orí	-3974
▁zom	-3975
▁közi	-3976
▁kezik	-3977
▁31	-3978
▁80	-3979
▁ito	-3980
▁ádo	-3981
▁etér	-3982
▁tört	-3983
▁letek	-3984
▁Buda	-3985
▁atal	-3986
▁ztán	-3987
cat	-3988
▁erí	-3989
▁gén	-3990
▁mor	-3991
▁yú	-3992
▁ung	-3993
▁urá	-3994
▁korá	-3995
▁erült	-3996
▁vazás	-3997
▁BBC	-3998
▁iát	-3999
▁ltat	-4000
▁ssen	-4001
▁ődés	-4002
ay	-4003
▁OTP	-4004
▁fős	-4005
▁orr	-4006
▁lánc	-4007
▁ováb	-4008
▁éke	-4009
▁ésen	-4010
▁isztá	-4011
▁ondon	-4012
▁ij	-4013
▁ini	-4014
▁átor	-4015
▁Te	-4016
▁dék	-4017
▁sító	-4018
▁atási	-4019
▁erben	-4020
▁iroda	-4021
▁̋	-4022
▁70	-4023
▁MÁV	-4024
▁acs	-4025
▁nőt	-4026
▁lést	-4027
▁tter	-4028
▁urcs	-4029
▁zala	-4030
TO	-4031
▁odá	-4032
▁lmez	-4033
▁művé	-4034
▁óban	-4035
▁ew	-4036
▁rk	-4037
▁bán	-4038
▁kop	-4039
▁rol	-4040
▁ődő	-4041
▁ga	-4042
▁sc	-4043
▁ts	-4044
▁api	-4045
▁tim	-4046
▁IMF	-4047
▁rus	-4048
▁örül	-4049
▁Ny	-4050
▁lim	-4051
▁gyed	-4052
▁llen	-4053
▁ina	-4054
▁nyve	-4055
▁Aki	-4056
▁ólt	-4057
▁eles	-4058
▁ormá	-4059
▁ano	-4060
▁sek	-4061
▁erge	-4062
▁trag	-4063
▁4,	-4064
▁EN	-4065
▁gye	-4066
▁les	-4067
▁tvé	-4068
▁ula	-4069
▁keve	-4070
▁sb	-4071
▁kezés	-4072
▁dv	-4073
▁ój	-4074
▁idé	-4075
▁lít	-4076
▁sék	-4077
▁énk	-4078
▁apos	-4079
▁vers	-4080
▁adalm	-4081
▁atban	-4082
▁rikai	-4083
▁őként	-4084
▁minős	-4085
▁Mon	-4086
▁zol	-4087
▁lete	-4088
▁szeg	-4089
▁ekv	-4090
▁eré	-4091
▁ony	-4092
▁ülön	-4093
zi	-4094
▁xi	-4095
▁anta	-4096
▁állom	-4097
▁Pál	-4098
▁ici	-4099
▁rip	-4100
▁rí	-4101
▁aul	-4102
▁köd	-4103
▁vásár	-4104
▁vj	-4105
▁gyu	-4106
▁zor	-4107
▁oso	-4108
▁ltam	-4109
▁óber	-4110
▁napjá	-4111
▁ivá	-4112
▁36	-4113
▁USA	-4114
▁ars	-4115
▁mir	-4116
▁tiku	-4117
▁Pr	-4118
▁kv	-4119
▁íj	-4120
▁gom	-4121
▁kés	-4122
▁rig	-4123
▁avid	-4124
▁era	-4125
▁sült	-4126
▁téte	-4127
▁vg	-4128
▁wa	-4129
▁zy	-4130
▁con	-4131
▁eme	-4132
▁ogó	-4133
▁cé	-4134
▁che	-4135
▁erek	-4136
▁&	-4137
▁ezeté	-4138
▁kabin	-4139
▁üd	-4140
▁iti	-4141
▁lub	-4142
▁riás	-4143
▁melle	-4144
▁dü	-4145
▁ilo	-4146
▁tje	-4147
▁zín	-4148
▁kerül	-4149
▁Rend	-4150
▁kivá	-4151
▁tató	-4152
▁ladás	-4153
▁90	-4154
▁BM	-4155
▁hor	-4156
▁lmo	-4157
▁óval	-4158
▁adtak	-4159
▁fonto	-4160
▁ans	-4161
▁erz	-4162
▁ánc	-4163
▁edig	-4164
▁lakos	-4165
▁000	-4166
▁ulá	-4167
▁akor	-4168
▁iban	-4169
▁oc	-4170
▁esked	-4171
FK	-4172
▁cá	-4173
▁rl	-4174
▁ame	-4175
▁böz	-4176
▁úcs	-4177
▁edv	-4178
▁lva	-4179
▁zab	-4180
▁ekor	-4181
▁erül	-4182
▁ázta	-4183
▁tej	-4184
▁önt	-4185
▁olva	-4186
▁immár	-4187
▁lid	-4188
▁árá	-4189
▁tere	-4190
▁teti	-4191
ip	-4192
▁ee	-4193
▁dic	-4194
▁iek	-4195
▁szö	-4196
▁ktat	-4197
▁Ce	-4198
▁lep	-4199
▁okr	-4200
▁ras	-4201
▁ázá	-4202
▁usok	-4203
▁etten	-4204
▁tucat	-4205
▁400	-4206
▁tiká	-4207
▁észek	-4208
▁klu	-4209
▁nde	-4210
▁nes	-4211
▁nár	-4212
▁tarta	-4213
▁edi	-4214
▁yene	-4215
▁efekt	-4216
▁teles	-4217
▁Ám	-4218
▁ür	-4219
▁akí	-4220
▁erk	-4221
▁pla	-4222
▁avar	-4223
▁giá	-4224
▁nfl	-4225
▁yer	-4226
▁izet	-4227
▁gul	-4228
▁ddig	-4229
▁elek	-4230
▁óján	-4231
▁edelm	-4232
▁abá	-4233
▁aga	-4234
▁top	-4235
▁rtok	-4236
▁növek	-4237
▁sztán	-4238
id	-4239
ir	-4240
▁eut	-4241
▁tré	-4242
▁éle	-4243
▁ENSZ	-4244
▁iért	-4245
▁nn	-4246
▁ors	-4247
▁yőz	-4248
▁adik	-4249
▁oráb	-4250
▁élte	-4251
▁kozik	-4252
▁üv	-4253
▁nán	-4254
▁graf	-4255
▁nála	-4256
▁tago	-4257
▁zást	-4258
▁etési	-4259
▁=	-4260
nök	-4261
▁olv	-4262
▁lgár	-4263
▁adásá	-4264
▁Mic	-4265
iá	-4266
▁0-	-4267
▁lö	-4268
▁Car	-4269
▁ita	-4270
▁ozza	-4271
▁ragad	-4272
▁4-	-4273
▁apo	-4274
▁rece	-4275
▁esnek	-4276
▁ozhat	-4277
▁33	-4278
▁fig	-4279
▁kit	-4280
▁laz	-4281
▁vei	-4282
▁teres	-4283
▁eat	-4284
▁repü	-4285
▁egyi	-4286
▁zölt	-4287
▁atták	-4288
▁Su	-4289
▁abo	-4290
▁ellá	-4291
▁vező	-4292
▁alv	-4293
▁ikl	-4294
▁ízi	-4295
▁ótá	-4296
▁rják	-4297
▁ítani	-4298
▁zü	-4299
▁etv	-4300
▁tri	-4301
▁FT	-4302
▁lle	-4303
▁lya	-4304
▁ence	-4305
▁téma	-4306
RFK	-4307
▁MK	-4308
▁kba	-4309
▁évé	-4310
▁enko	-4311
íma	-4312
▁app	-4313
▁asi	-4314
▁mil	-4315
▁szű	-4316
▁ránt	-4317
▁megvá	-4318
▁ví	-4319
▁aty	-4320
▁utt	-4321
▁ranc	-4322
▁pt	-4323
▁ilá	-4324
▁latot	-4325
▁ntern	-4326
▁gyá	-4327
▁lli	-4328
▁rug	-4329
▁sso	-4330
▁llít	-4331
▁megm	-4332
▁artin	-4333
FA	-4334
ui	-4335
▁kad	-4336
▁nom	-4337
▁alól	-4338
▁assa	-4339
▁etre	-4340
▁lyan	-4341
▁sság	-4342
▁áraz	-4343
▁szült	-4344
▁nü	-4345
▁Nic	-4346
▁égül	-4347
ződ	-4348
▁oh	-4349
▁itá	-4350
▁mpl	-4351
▁erződ	-4352
▁zatot	-4353
▁bak	-4354
▁mas	-4355
▁zok	-4356
▁erés	-4357
▁rzés	-4358
▁nyzat	-4359
EH	-4360
▁alj	-4361
▁eho	-4362
▁ley	-4363
▁mul	-4364
▁énz	-4365
▁áron	-4366
▁irály	-4367
▁zút	-4368
▁nyét	-4369
▁onál	-4370
▁vent	-4371
▁édi	-4372
▁ltató	-4373
▁rő	-4374
▁kes	-4375
▁nák	-4376
▁őse	-4377
▁enci	-4378
▁Ol	-4379
▁gia	-4380
▁gon	-4381
▁lná	-4382
▁ányá	-4383
▁dönté	-4384
▁igazo	-4385
▁integ	-4386
▁melés	-4387
▁FI	-4388
▁Ke	-4389
▁akk	-4390
▁koló	-4391
▁nban	-4392
▁sszi	-4393
▁árad	-4394
▁enger	-4395
▁építé	-4396
▁KN	-4397
▁iP	-4398
▁Los	-4399
▁Mil	-4400
▁ech	-4401
▁utol	-4402
▁Szi	-4403
▁ali	-4404
▁lér	-4405
▁pap	-4406
▁tta	-4407
▁tün	-4408
▁iről	-4409
SC	-4410
▁75	-4411
▁nc	-4412
▁adók	-4413
▁zban	-4414
▁pő	-4415
▁gne	-4416
▁ins	-4417
▁kém	-4418
▁agyi	-4419
▁rnak	-4420
▁nában	-4421
▁5,	-4422
▁Ft	-4423
▁erm	-4424
▁lto	-4425
▁nti	-4426
▁ájuk	-4427
▁34	-4428
▁Red	-4429
▁tum	-4430
▁tl	-4431
▁MNB	-4432
▁dom	-4433
▁Bá	-4434
▁őj	-4435
▁def	-4436
▁toj	-4437
▁közl	-4438
▁álni	-4439
▁zo	-4440
▁amá	-4441
▁nco	-4442
▁rés	-4443
▁etel	-4444
▁nöke	-4445
▁BU	-4446
▁iku	-4447
▁ram	-4448
▁atók	-4449
▁uház	-4450
▁ca	-4451
▁zed	-4452
▁alál	-4453
▁zato	-4454
▁felté	-4455
▁lóban	-4456
▁sztás	-4457
ox	-4458
▁37	-4459
▁Ex	-4460
▁dig	-4461
▁kut	-4462
▁oy	-4463
▁BMW	-4464
▁riz	-4465
▁gyé	-4466
▁non	-4467
▁lata	-4468
▁rmes	-4469
▁ttség	-4470
▁kn	-4471
▁Sok	-4472
▁dat	-4473
▁lga	-4474
▁oln	-4475
▁raz	-4476
▁osta	-4477
▁szat	-4478
▁özép	-4479
▁arlam	-4480
▁yomoz	-4481
▁ttá	-4482
▁yot	-4483
▁nnek	-4484
▁rivá	-4485
▁szük	-4486
▁gynök	-4487
▁nyire	-4488
▁DV	-4489
▁nus	-4490
▁ülő	-4491
▁eter	-4492
▁gene	-4493
▁nkat	-4494
▁tött	-4495
▁ánya	-4496
▁eszte	-4497
▁sségé	-4498
ót	-4499
▁ean	-4500
▁gét	-4501
▁sko	-4502
▁ende	-4503
▁szan	-4504
▁elhet	-4505
▁soroz	-4506
▁ításá	-4507
▁42	-4508
▁káb	-4509
▁nyá	-4510
▁alon	-4511
▁llami	-4512
▁nálat	-4513
▁zetbe	-4514
▁5.	-4515
▁eto	-4516
▁rát	-4517
▁odik	-4518
▁rika	-4519
▁ései	-4520
▁ülte	-4521
▁aw	-4522
▁dán	-4523
▁ilm	-4524
▁kim	-4525
▁átr	-4526
▁szott	-4527
▁7,	-4528
▁OV	-4529
▁őké	-4530
▁buda	-4531
▁onto	-4532
▁érté	-4533
▁kú	-4534
▁nya	-4535
▁ruh	-4536
▁öző	-4537
▁Audi	-4538
▁együ	-4539
▁iben	-4540
▁ügge	-4541
▁38	-4542
▁Fe	-4543
▁Re	-4544
▁gor	-4545
▁ogo	-4546
▁ncse	-4547
▁nyen	-4548
▁mál	-4549
▁mét	-4550
▁ssa	-4551
▁sük	-4552
▁okba	-4553
▁rajt	-4554
SE	-4555
▁enau	-4556
▁enge	-4557
▁elg	-4558
▁lok	-4559
▁ngs	-4560
▁umb	-4561
▁árás	-4562
▁kg	-4563
▁bic	-4564
▁nen	-4565
▁rga	-4566
▁azás	-4567
▁neke	-4568
▁nyak	-4569
▁klíma	-4570
▁RT	-4571
▁fon	-4572
▁the	-4573
▁uka	-4574
▁elin	-4575
▁6,	-4576
▁yö	-4577
▁150	-4578
▁felf	-4579
▁ilág	-4580
▁kból	-4581
▁lvár	-4582
▁gő	-4583
▁ine	-4584
▁égi	-4585
▁yújt	-4586
ciu	-4587
▁oj	-4588
▁vó	-4589
▁vész	-4590
▁erepe	-4591
▁Bi	-4592
▁WA	-4593
▁bom	-4594
▁ldi	-4595
▁omp	-4596
▁aték	-4597
▁szló	-4598
▁GP	-4599
▁olá	-4600
▁érő	-4601
▁APEH	-4602
▁ncia	-4603
▁pot	-4604
▁rén	-4605
▁sök	-4606
▁vak	-4607
▁onda	-4608
▁önyv	-4609
▁etese	-4610
▁olhat	-4611
▁55	-4612
▁65	-4613
▁ús	-4614
▁ien	-4615
▁sté	-4616
▁ppen	-4617
▁eszti	-4618
▁imá	-4619
▁irt	-4620
▁rdo	-4621
▁digi	-4622
▁gyel	-4623
▁gyedi	-4624
▁Pá	-4625
▁uh	-4626
▁nte	-4627
▁anna	-4628
▁ított	-4629
▁Na	-4630
▁Mag	-4631
▁sés	-4632
▁sét	-4633
▁övő	-4634
▁rany	-4635
▁tene	-4636
▁enciá	-4637
▁hábor	-4638
▁tojás	-4639
▁árciu	-4640
▁ánk	-4641
▁íre	-4642
▁ékos	-4643
mer	-4644
▁nga	-4645
▁ved	-4646
▁áló	-4647
▁íté	-4648
▁képe	-4649
▁poli	-4650
▁űl	-4651
▁erj	-4652
▁sül	-4653
▁észle	-4654
▁Fu	-4655
▁ekek	-4656
▁gett	-4657
▁láng	-4658
▁La	-4659
▁App	-4660
▁sör	-4661
▁éső	-4662
ru	-4663
▁rj	-4664
▁MTV	-4665
▁ndá	-4666
▁ekbe	-4667
▁ritka	-4668
▁ies	-4669
▁kodás	-4670
▁ix	-4671
▁nce	-4672
▁uty	-4673
▁ajno	-4674
▁tériu	-4675
▁Lu	-4676
▁kf	-4677
▁RTL	-4678
▁kin	-4679
▁rjá	-4680
▁inál	-4681
▁otor	-4682
▁adata	-4683
▁Mar	-4684
▁ktől	-4685
▁ssan	-4686
▁ársa	-4687
▁kedve	-4688
▁jal	-4689
▁áma	-4690
▁nfor	-4691
▁nysz	-4692
ügy	-4693
▁zul	-4694
▁abba	-4695
▁tika	-4696
▁ezete	-4697
▁gé	-4698
▁abi	-4699
▁nad	-4700
▁ásf	-4701
▁ósz	-4702
▁ejle	-4703
▁bombá	-4704
▁Míg	-4705
▁gre	-4706
▁ola	-4707
▁zig	-4708
▁rdeke	-4709
▁zk	-4710
▁pet	-4711
▁tésre	-4712
▁6.	-4713
▁ará	-4714
▁gez	-4715
▁ias	-4716
▁iko	-4717
▁nsz	-4718
▁gz	-4719
▁dén	-4720
▁lmi	-4721
▁tax	-4722
▁tog	-4723
▁okol	-4724
▁olit	-4725
▁álta	-4726
▁atásá	-4727
▁erzés	-4728
▁llító	-4729
bbi	-4730
▁rv	-4731
▁kij	-4732
▁arna	-4733
▁lapí	-4734
one	-4735
▁Fa	-4736
▁sű	-4737
▁Szé	-4738
▁umo	-4739
▁áté	-4740
▁játs	-4741
▁kszer	-4742
▁ségbe	-4743
up	-4744
wn	-4745
▁dj	-4746
▁bin	-4747
▁fer	-4748
▁ire	-4749
▁nda	-4750
▁ned	-4751
▁pás	-4752
▁tab	-4753
▁ájá	-4754
▁szta	-4755
▁argen	-4756
▁eljár	-4757
▁Bx	-4758
▁edt	-4759
▁iak	-4760
▁ósí	-4761
▁izto	-4762
▁negye	-4763
▁EB	-4764
▁So	-4765
▁Mik	-4766
▁Mit	-4767
▁rge	-4768
▁áró	-4769
▁dalm	-4770
▁nész	-4771
▁zerb	-4772
▁bj	-4773
▁ski	-4774
▁tba	-4775
▁erez	-4776
▁giai	-4777
▁mlék	-4778
▁mész	-4779
▁gazga	-4780
▁osabb	-4781
▁lc	-4782
▁aha	-4783
▁den	-4784
▁imi	-4785
▁lic	-4786
▁rök	-4787
▁tas	-4788
▁áli	-4789
▁örny	-4790
▁amint	-4791
▁anuár	-4792
▁kapac	-4793
▁ítják	-4794
▁EP	-4795
▁imn	-4796
▁rke	-4797
▁gyar	-4798
▁kese	-4799
▁kéne	-4800
▁zata	-4801
▁zolg	-4802
▁tmény	-4803
ool	-4804
▁vo	-4805
▁ktá	-4806
▁rai	-4807
▁keré	-4808
▁lába	-4809
▁rich	-4810
▁rpool	-4811
▁BUX	-4812
▁győ	-4813
▁sti	-4814
▁stá	-4815
▁ival	-4816
▁mber	-4817
▁vert	-4818
▁élyi	-4819
▁sában	-4820
▁tóbbi	-4821
▁aro	-4822
▁ocs	-4823
▁ital	-4824
▁ségv	-4825
▁zené	-4826
▁színé	-4827
▁jeg	-4828
▁köl	-4829
▁lne	-4830
▁oná	-4831
▁ukk	-4832
▁mást	-4833
▁átsz	-4834
▁gében	-4835
▁észen	-4836
NS	-4837
emb	-4838
ner	-4839
▁41	-4840
▁XV	-4841
▁mra	-4842
▁rős	-4843
▁ójá	-4844
▁iket	-4845
▁akban	-4846
▁atnak	-4847
▁feles	-4848
ako	-4849
▁7.	-4850
▁öd	-4851
▁III	-4852
▁cer	-4853
▁onc	-4854
▁vét	-4855
▁örü	-4856
▁cial	-4857
▁lene	-4858
▁prób	-4859
▁ésbe	-4860
▁ektet	-4861
▁jékoz	-4862
▁tötte	-4863
▁6:	-4864
▁As	-4865
▁pü	-4866
▁600	-4867
▁air	-4868
▁eon	-4869
▁git	-4870
▁nit	-4871
▁BRFK	-4872
▁kből	-4873
▁któl	-4874
▁sztá	-4875
▁asztr	-4876
▁ségek	-4877
▁ésőbb	-4878
fá	-4879
▁#	-4880
▁mia	-4881
▁ogá	-4882
▁yil	-4883
▁edik	-4884
▁ékez	-4885
▁lh	-4886
▁amu	-4887
▁dug	-4888
▁zője	-4889
TA	-4890
▁250	-4891
▁Pan	-4892
▁pon	-4893
▁íro	-4894
▁örg	-4895
▁innen	-4896
▁szlov	-4897
ry	-4898
▁ls	-4899
▁pit	-4900
▁ric	-4901
▁szek	-4902
▁asztó	-4903
RT	-4904
▁yá	-4905
▁San	-4906
▁hel	-4907
▁iák	-4908
▁nas	-4909
▁NATO	-4910
▁köze	-4911
▁sébe	-4912
▁unka	-4913
▁ékok	-4914
▁latok	-4915
▁tszik	-4916
ós	-4917
▁48	-4918
▁Dán	-4919
▁ged	-4920
▁gás	-4921
▁ián	-4922
▁ress	-4923
▁sütö	-4924
▁tern	-4925
▁Au	-4926
▁St	-4927
▁zű	-4928
átor	-4929
▁OVB	-4930
▁gyi	-4931
▁lév	-4932
▁nne	-4933
▁sho	-4934
▁rett	-4935
▁entes	-4936
▁zabad	-4937
▁39	-4938
▁nj	-4939
▁ys	-4940
▁atr	-4941
▁dos	-4942
▁ege	-4943
▁arta	-4944
▁zete	-4945
▁talaj	-4946
▁43	-4947
▁Más	-4948
▁erc	-4949
▁rez	-4950
▁erke	-4951
▁khoz	-4952
▁rnyé	-4953
▁teli	-4954
▁terel	-4955
ie	-4956
▁jo	-4957
▁10.	-4958
▁det	-4959
▁hav	-4960
▁igi	-4961
▁mpá	-4962
▁ozó	-4963
▁pri	-4964
▁vig	-4965
▁ebes	-4966
▁reke	-4967
▁ésén	-4968
po	-4969
ESZ	-4970
▁Fi	-4971
▁GB	-4972
▁enb	-4973
▁eál	-4974
▁óba	-4975
▁8,	-4976
▁fé	-4977
▁yű	-4978
▁dia	-4979
▁gek	-4980
▁atik	-4981
▁laká	-4982
▁lógi	-4983
▁rosz	-4984
▁tran	-4985
▁árto	-4986
▁oe	-4987
▁gáb	-4988
▁olj	-4989
▁omm	-4990
▁onf	-4991
▁ülö	-4992
▁apja	-4993
▁eger	-4994
▁enté	-4995
▁ásuk	-4996
▁étele	-4997
HL	-4998
eni	-4999
▁In	-5000
▁tp	-5001
▁aka	-5002
▁pop	-5003
▁izen	-5004
▁álás	-5005
▁ármi	-5006
▁Apple	-5007
▁pesti	-5008
bó	-5009
▁we	-5010
▁arj	-5011
▁kle	-5012
▁édia	-5013
▁edden	-5014
▁ziget	-5015
ax	-5016
▁óp	-5017
▁aci	-5018
▁gyik	-5019
▁limp	-5020
▁rték	-5021
▁ajz	-5022
▁isa	-5023
▁okk	-5024
▁azda	-5025
▁delm	-5026
ue	-5027
▁5-	-5028
▁Cse	-5029
▁mes	-5030
▁tig	-5031
▁yan	-5032
▁űnt	-5033
▁dhet	-5034
▁lésé	-5035
▁esztő	-5036
▁ntött	-5037
▁sítés	-5038
AC	-5039
ina	-5040
▁tg	-5041
▁eag	-5042
▁his	-5043
▁kur	-5044
▁lemé	-5045
▁leti	-5046
▁rult	-5047
▁arvas	-5048
rac	-5049
▁Vl	-5050
▁1,5	-5051
▁etr	-5052
▁llo	-5053
▁okan	-5054
▁rral	-5055
▁rány	-5056
▁érle	-5057
▁yőzte	-5058
úl	-5059
▁44	-5060
▁ets	-5061
▁lav	-5062
▁rov	-5063
▁zti	-5064
▁égé	-5065
▁gépe	-5066
▁ider	-5067
▁ltal	-5068
▁megé	-5069
▁mára	-5070
▁ndre	-5071
▁ssel	-5072
▁zked	-5073
▁8.	-5074
▁He	-5075
▁pc	-5076
▁kös	-5077
▁ndo	-5078
▁tre	-5079
▁uhá	-5080
▁yle	-5081
▁elez	-5082
▁forr	-5083
▁gazol	-5084
▁labor	-5085
▁óf	-5086
▁ane	-5087
▁enf	-5088
▁igy	-5089
▁rea	-5090
▁agya	-5091
▁máso	-5092
▁ndor	-5093
▁ásai	-5094
▁népsz	-5095
▁tések	-5096
▁CD	-5097
▁Fx	-5098
▁Sta	-5099
▁amo	-5100
▁riu	-5101
▁klin	-5102
▁nnyi	-5103
▁rand	-5104
▁sztr	-5105
▁ékot	-5106
▁46	-5107
▁iem	-5108
▁elté	-5109
▁essé	-5110
▁mmel	-5111
▁sokk	-5112
▁tese	-5113
▁ártó	-5114
▁erjed	-5115
▁Tv	-5116
▁pas	-5117
▁íteni	-5118
▁dri	-5119
▁lez	-5120
▁ndul	-5121
▁unká	-5122
▁gárda	-5123
▁nzügy	-5124
▁_	-5125
▁Min	-5126
▁akó	-5127
▁etn	-5128
▁nst	-5129
▁utá	-5130
▁edél	-5131
▁Tu	-5132
▁ua	-5133
▁gas	-5134
▁jén	-5135
▁olc	-5136
▁ttem	-5137
▁márká	-5138
▁FTC	-5139
▁fri	-5140
▁műv	-5141
▁aláb	-5142
▁amat	-5143
▁feje	-5144
▁halá	-5145
vo	-5146
ór	-5147
▁PS	-5148
▁Vx	-5149
▁Ők	-5150
▁bon	-5151
▁rme	-5152
▁seb	-5153
▁akos	-5154
▁elad	-5155
▁omba	-5156
▁sztj	-5157
▁terá	-5158
▁utyin	-5159
▁52	-5160
▁Mo	-5161
▁Nő	-5162
▁fol	-5163
▁lós	-5164
▁rás	-5165
▁tev	-5166
▁tti	-5167
▁lyet	-5168
▁utás	-5169
▁Fo	-5170
▁Go	-5171
▁Il	-5172
▁ela	-5173
▁ngy	-5174
▁előd	-5175
▁galé	-5176
▁orto	-5177
▁mányo	-5178
▁telek	-5179
III	-5180
aze	-5181
▁15.	-5182
▁McL	-5183
▁yon	-5184
▁azug	-5185
▁etni	-5186
▁rról	-5187
▁ztató	-5188
ah	-5189
seb	-5190
▁53	-5191
▁eis	-5192
▁elb	-5193
▁eta	-5194
▁gán	-5195
▁hib	-5196
▁lők	-5197
▁msz	-5198
▁ézi	-5199
▁óka	-5200
▁anad	-5201
▁emet	-5202
▁etik	-5203
▁lalt	-5204
▁kiseb	-5205
▁ülése	-5206
un	-5207
▁HV	-5208
▁ajt	-5209
▁hen	-5210
▁ous	-5211
▁rut	-5212
▁tip	-5213
▁zve	-5214
▁záz	-5215
▁aren	-5216
▁mitt	-5217
▁roda	-5218
▁rtja	-5219
▁udom	-5220
▁ozata	-5221
▁•	-5222
▁64	-5223
▁800	-5224
▁eam	-5225
▁ore	-5226
▁zód	-5227
▁őbe	-5228
▁léke	-5229
▁eltek	-5230
ley	-5231
per	-5232
▁ccs	-5233
▁lsz	-5234
▁sch	-5235
▁lked	-5236
▁nciá	-5237
▁nyék	-5238
▁torn	-5239
▁entés	-5240
▁hatna	-5241
▁ányok	-5242
▁ítása	-5243
▁ds	-5244
▁ago	-5245
▁edő	-5246
▁ije	-5247
▁nzé	-5248
▁zan	-5249
▁zsg	-5250
▁ejte	-5251
▁neti	-5252
▁álja	-5253
hy	-5254
▁49	-5255
▁ww	-5256
▁18.	-5257
▁aká	-5258
▁cal	-5259
▁lök	-5260
▁éka	-5261
▁szav	-5262
▁sztó	-5263
▁alkat	-5264
Ez	-5265
ago	-5266
▁qu	-5267
▁zd	-5268
▁dei	-5269
▁yáz	-5270
▁íve	-5271
▁artj	-5272
▁zték	-5273
▁ölte	-5274
▁dőben	-5275
ake	-5276
▁9.	-5277
▁XX	-5278
▁yo	-5279
▁elö	-5280
▁erb	-5281
▁rsa	-5282
▁rék	-5283
▁www	-5284
▁zép	-5285
▁ázi	-5286
▁esze	-5287
▁éret	-5288
▁ráció	-5289
▁ációs	-5290
▁54	-5291
▁lí	-5292
▁Dal	-5293
▁elo	-5294
▁ike	-5295
▁kbe	-5296
▁kvá	-5297
▁rmé	-5298
▁sark	-5299
▁snak	-5300
▁trük	-5301
▁udit	-5302
▁ákat	-5303
▁sétál	-5304
▁bál	-5305
▁ejé	-5306
▁gró	-5307
▁ebbe	-5308
▁komb	-5309
▁leng	-5310
▁lási	-5311
▁sőbb	-5312
▁tnek	-5313
▁lagos	-5314
▁latos	-5315
Ha	-5316
▁(1	-5317
▁mus	-5318
▁sol	-5319
▁alam	-5320
▁apit	-5321
▁egal	-5322
▁ehát	-5323
▁éldá	-5324
▁porto	-5325
▁áshoz	-5326
▁Pi	-5327
▁yó	-5328
▁PSZ	-5329
▁dni	-5330
▁lén	-5331
▁och	-5332
▁rít	-5333
▁uan	-5334
▁alad	-5335
▁iszo	-5336
▁nove	-5337
▁fogya	-5338
▁ruház	-5339
pe	-5340
ti	-5341
▁Hf	-5342
▁Hx	-5343
▁120	-5344
▁HVG	-5345
▁agr	-5346
▁pen	-5347
▁aros	-5348
▁cent	-5349
▁line	-5350
▁oron	-5351
▁umok	-5352
▁iraki	-5353
▁reszt	-5354
IA	-5355
▁EK	-5356
▁FM	-5357
▁MO	-5358
▁kei	-5359
▁lye	-5360
▁cége	-5361
▁elvá	-5362
▁lény	-5363
▁85	-5364
▁Je	-5365
▁hö	-5366
▁2,5	-5367
▁Jól	-5368
▁búj	-5369
▁dam	-5370
▁iók	-5371
▁rdá	-5372
▁uss	-5373
▁árs	-5374
▁őri	-5375
▁amin	-5376
▁arác	-5377
▁kast	-5378
▁lési	-5379
hu	-5380
▁Kl	-5381
▁mol	-5382
▁dtek	-5383
▁árok	-5384
do	-5385
onz	-5386
▁47	-5387
▁9,	-5388
▁azi	-5389
▁ida	-5390
▁pál	-5391
▁tete	-5392
▁ztel	-5393
▁ádár	-5394
▁érdés	-5395
ib	-5396
ÁF	-5397
▁>	-5398
▁XI	-5399
▁lb	-5400
▁yr	-5401
▁3,5	-5402
▁bít	-5403
▁enn	-5404
▁etü	-5405
▁kla	-5406
▁kód	-5407
▁mén	-5408
▁ock	-5409
▁yhá	-5410
▁yol	-5411
▁zül	-5412
▁üst	-5413
▁iker	-5414
▁kért	-5415
▁álog	-5416
▁PSZÁF	-5417
▁lálko	-5418
▁ésnek	-5419
▁56	-5420
▁Ön	-5421
▁ezd	-5422
▁iad	-5423
▁ust	-5424
▁ales	-5425
▁ator	-5426
▁knál	-5427
▁ragas	-5428
KA	-5429
▁US	-5430
▁ize	-5431
▁kró	-5432
▁nát	-5433
▁arry	-5434
▁azud	-5435
▁baba	-5436
▁elef	-5437
▁gyéb	-5438
▁ä	-5439
tta	-5440
▁Ká	-5441
▁ety	-5442
▁ira	-5443
▁kib	-5444
▁ngé	-5445
▁ála	-5446
▁onyi	-5447
▁ázat	-5448
▁bizon	-5449
ku	-5450
ney	-5451
szk	-5452
▁ath	-5453
▁esi	-5454
▁lyi	-5455
▁tná	-5456
▁Éva	-5457
▁ilye	-5458
▁mban	-5459
▁nnak	-5460
▁radt	-5461
▁tván	-5462
▁eresz	-5463
▁lések	-5464
▁érlet	-5465
▁Pé	-5466
▁Ru	-5467
▁13.	-5468
▁ori	-5469
▁rvé	-5470
▁álm	-5471
▁Fran	-5472
▁krit	-5473
▁lunk	-5474
▁olyó	-5475
▁rutin	-5476
▁ényes	-5477
▁57	-5478
▁98	-5479
▁ML	-5480
▁ps	-5481
▁add	-5482
▁ila	-5483
▁töl	-5484
▁usa	-5485
▁abda	-5486
▁akma	-5487
▁emok	-5488
▁olas	-5489
▁sszú	-5490
▁ovemb	-5491
▁SE	-5492
▁TE	-5493
▁nm	-5494
▁atl	-5495
▁emt	-5496
▁egyv	-5497
▁gzet	-5498
▁kanc	-5499
▁lemz	-5500
▁nior	-5501
▁szti	-5502
▁tatta	-5503
▁51	-5504
▁fú	-5505
▁áé	-5506
▁alg	-5507
▁are	-5508
▁ntá	-5509
▁rká	-5510
▁szn	-5511
▁NASA	-5512
▁arab	-5513
▁lyáz	-5514
▁razí	-5515
▁ssza	-5516
▁Em	-5517
▁emé	-5518
▁gés	-5519
▁nka	-5520
▁rál	-5521
▁sle	-5522
▁tai	-5523
▁óló	-5524
▁rown	-5525
▁tend	-5526
▁zoci	-5527
▁átra	-5528
▁bronz	-5529
▁kalap	-5530
▁rf	-5531
▁őh	-5532
▁700	-5533
▁eru	-5534
▁eur	-5535
▁híd	-5536
▁jak	-5537
▁ágn	-5538
▁acso	-5539
▁emél	-5540
▁zlov	-5541
▁ezeti	-5542
ari	-5543
▁11.	-5544
▁ige	-5545
▁jót	-5546
▁éki	-5547
▁dély	-5548
▁erih	-5549
▁lati	-5550
▁riad	-5551
▁yilv	-5552
▁helyé	-5553
▁tetej	-5554
OP	-5555
▁*	-5556
▁−	-5557
ama	-5558
▁KS	-5559
▁Kü	-5560
▁Mó	-5561
▁NF	-5562
▁íp	-5563
▁12.	-5564
▁Kat	-5565
▁apt	-5566
▁dup	-5567
▁otá	-5568
▁rtj	-5569
▁öny	-5570
▁diox	-5571
▁hala	-5572
▁lgat	-5573
▁para	-5574
▁felha	-5575
▁intet	-5576
DA	-5577
lo	-5578
aga	-5579
gen	-5580
▁kh	-5581
▁rc	-5582
▁2-3	-5583
▁Ott	-5584
▁Per	-5585
▁ágá	-5586
▁ája	-5587
▁olna	-5588
▁ouis	-5589
▁űnik	-5590
▁pülés	-5591
zu	-5592
▁MKB	-5593
▁gig	-5594
▁hin	-5595
▁lág	-5596
▁eszé	-5597
▁gyre	-5598
▁itch	-5599
▁lapo	-5600
▁nerg	-5601
▁nkor	-5602
▁tány	-5603
▁zint	-5604
▁avrac	-5605
▁togat	-5606
hl	-5607
ya	-5608
▁EL	-5609
▁Hát	-5610
▁bur	-5611
▁iva	-5612
▁abál	-5613
▁ocsi	-5614
▁oszo	-5615
▁tone	-5616
▁madar	-5617
pár	-5618
▁BA	-5619
▁iu	-5620
▁0-0	-5621
▁ise	-5622
▁udo	-5623
▁egyh	-5624
▁teke	-5625
▁énte	-5626
▁lanul	-5627
ou	-5628
▁atu	-5629
▁gin	-5630
▁lői	-5631
▁nká	-5632
▁ozg	-5633
▁ződ	-5634
▁elöl	-5635
▁kint	-5636
▁reen	-5637
▁smer	-5638
▁agrár	-5639
si	-5640
bor	-5641
▁Női	-5642
▁lől	-5643
▁poh	-5644
▁rth	-5645
▁FIFA	-5646
▁anci	-5647
▁ango	-5648
▁tója	-5649
▁intel	-5650
▁llomá	-5651
▁62	-5652
▁Öt	-5653
▁Lin	-5654
▁ake	-5655
▁rró	-5656
▁imád	-5657
▁omat	-5658
▁bátor	-5659
▁táská	-5660
▁égben	-5661
▁íthat	-5662
▁ítási	-5663
ús	-5664
▁20.	-5665
▁nta	-5666
▁liga	-5667
▁zomb	-5668
▁ötti	-5669
▁imnáz	-5670
▁Ba	-5671
▁19.	-5672
▁rje	-5673
▁spo	-5674
▁ssá	-5675
▁áty	-5676
▁éhe	-5677
▁íze	-5678
▁óku	-5679
▁apod	-5680
▁cson	-5681
▁ltet	-5682
▁ngol	-5683
▁vegy	-5684
▁elmez	-5685
▁oszto	-5686
▁rában	-5687
▁treet	-5688
fa	-5689
nu	-5690
▁bél	-5691
▁ena	-5692
▁enh	-5693
▁arko	-5694
▁brav	-5695
▁erem	-5696
▁ever	-5697
▁köré	-5698
▁nika	-5699
▁pott	-5700
▁yolc	-5701
▁árat	-5702
▁Kg	-5703
▁dd	-5704
▁yl	-5705
▁17.	-5706
▁DNS	-5707
▁das	-5708
▁lmú	-5709
▁rcs	-5710
▁tle	-5711
▁arad	-5712
▁inté	-5713
▁58	-5714
▁1-2	-5715
▁igé	-5716
▁ndí	-5717
▁oul	-5718
▁relm	-5719
▁yész	-5720
▁hozzá	-5721
úd	-5722
▁Kf	-5723
▁egf	-5724
▁kai	-5725
▁arát	-5726
▁plat	-5727
▁élye	-5728
▁özel	-5729
▁asztá	-5730
▁madár	-5731
EC	-5732
▁AC	-5733
▁KSH	-5734
▁ile	-5735
▁kvó	-5736
▁omi	-5737
▁tef	-5738
▁DVSC	-5739
▁orin	-5740
▁tten	-5741
▁Egyes	-5742
▁génye	-5743
▁trükk	-5744
uki	-5745
▁95	-5746
▁csé	-5747
▁rec	-5748
▁rot	-5749
▁rám	-5750
▁tvá	-5751
▁vag	-5752
▁emen	-5753
▁mmal	-5754
▁mole	-5755
▁tars	-5756
▁zség	-5757
▁mában	-5758
▁tranz	-5759
▁vissz	-5760
ct	-5761
rus	-5762
▁16.	-5763
▁Mad	-5764
▁Szo	-5765
▁kci	-5766
▁kka	-5767
▁sos	-5768
▁éze	-5769
▁ilis	-5770
▁inan	-5771
▁kről	-5772
▁ulti	-5773
NA	-5774
ric	-5775
van	-5776
▁61	-5777
▁Ah	-5778
▁Ja	-5779
▁ae	-5780
▁900	-5781
▁Dar	-5782
▁bus	-5783
▁lob	-5784
▁máj	-5785
▁pán	-5786
▁ukr	-5787
▁usi	-5788
▁zná	-5789
▁éne	-5790
▁domb	-5791
▁egte	-5792
▁zmus	-5793
▁zási	-5794
▁ógia	-5795
▁beszá	-5796
▁iderü	-5797
▁teret	-5798
▁68	-5799
▁AB	-5800
▁MF	-5801
▁Vf	-5802
▁cm	-5803
▁nb	-5804
▁Man	-5805
▁kás	-5806
▁laj	-5807
▁rva	-5808
▁arto	-5809
▁bban	-5810
▁ezze	-5811
▁lovas	-5812
▁zmény	-5813
▁ítást	-5814
uc	-5815
▁bs	-5816
▁1,2	-5817
▁atv	-5818
▁lyá	-5819
▁mog	-5820
▁zlo	-5821
▁ayer	-5822
▁gráf	-5823
▁lang	-5824
▁noki	-5825
▁ásán	-5826
▁emokr	-5827
age	-5828
▁..	-5829
▁6-	-5830
▁ui	-5831
▁1-0	-5832
▁Ház	-5833
▁PSV	-5834
▁ámá	-5835
▁ázo	-5836
▁baja	-5837
▁edve	-5838
▁któb	-5839
▁tési	-5840
▁ézet	-5841
▁ergej	-5842
▁gyász	-5843
▁gyütt	-5844
▁manip	-5845
▁LE	-5846
▁Tr	-5847
▁McC	-5848
▁bot	-5849
▁iat	-5850
▁lyo	-5851
▁orá	-5852
▁éta	-5853
▁ősi	-5854
▁alif	-5855
▁issz	-5856
▁iver	-5857
▁kocs	-5858
▁lent	-5859
▁lmán	-5860
▁ouse	-5861
▁ráta	-5862
cz	-5863
▁Ad	-5864
▁hr	-5865
▁col	-5866
▁dál	-5867
▁gél	-5868
▁lyé	-5869
▁pes	-5870
▁MLSZ	-5871
▁ehéz	-5872
▁gyom	-5873
▁hato	-5874
▁házá	-5875
▁kegy	-5876
▁paki	-5877
▁toro	-5878
▁aland	-5879
ER	-5880
▁59	-5881
▁SC	-5882
▁dit	-5883
▁emi	-5884
▁ább	-5885
▁brah	-5886
▁emlé	-5887
▁onat	-5888
▁ring	-5889
▁rlás	-5890
▁rolt	-5891
▁övek	-5892
▁delem	-5893
▁yerme	-5894
▁áspár	-5895
▁72	-5896
▁74	-5897
▁MI	-5898
▁...	-5899
▁14.	-5900
▁ave	-5901
▁eid	-5902
▁iPh	-5903
▁pak	-5904
▁rij	-5905
▁tep	-5906
▁zai	-5907
▁zuk	-5908
▁allo	-5909
▁anyá	-5910
▁inga	-5911
▁sima	-5912
▁skál	-5913
▁szkó	-5914
▁umen	-5915
▁ékek	-5916
▁ónak	-5917
▁iprus	-5918
▁uzuki	-5919
▁ősége	-5920
ua	-5921
iká	-5922
▁Hc	-5923
▁1-1	-5924
▁csa	-5925
▁kaj	-5926
▁ple	-5927
▁mász	-5928
▁okau	-5929
▁rvos	-5930
▁éter	-5931
▁esete	-5932
▁kavar	-5933
▁tásai	-5934
▁zámos	-5935
EK	-5936
hi	-5937
▁63	-5938
▁Lo	-5939
▁ái	-5940
▁130	-5941
▁ZTE	-5942
▁iás	-5943
▁orb	-5944
▁rde	-5945
▁riv	-5946
▁tun	-5947
▁ligá	-5948
▁ston	-5949
▁ásod	-5950
▁MA	-5951
▁NO	-5952
▁csó	-5953
▁mpi	-5954
▁obi	-5955
▁úti	-5956
▁Jobb	-5957
▁arri	-5958
▁hite	-5959
▁ince	-5960
▁kart	-5961
▁ondo	-5962
▁prog	-5963
▁rősö	-5964
▁tlét	-5965
▁nyuga	-5966
▁tsége	-5967
éná	-5968
▁140	-5969
▁ava	-5970
▁kós	-5971
▁kút	-5972
▁röh	-5973
▁étá	-5974
▁óvá	-5975
▁anor	-5976
▁elev	-5977
▁ergi	-5978
▁fran	-5979
▁nyik	-5980
▁siet	-5981
▁Argen	-5982
▁egalá	-5983
bou	-5984
▁(2	-5985
▁SP	-5986
▁Ut	-5987
▁2-1	-5988
▁apr	-5989
▁eir	-5990
▁gsz	-5991
▁gur	-5992
▁ora	-5993
▁yár	-5994
▁zem	-5995
▁óna	-5996
▁csom	-5997
▁emmi	-5998
▁erdá	-5999
▁nben	-6000
▁ásho	-6001
▁bútor	-6002
▁lapot	-6003
▁latin	-6004
▁szere	-6005
▁teráp	-6006
▁öbben	-6007
NT	-6008
pi	-6009
▁66	-6010
▁aus	-6011
▁dek	-6012
▁eil	-6013
▁kló	-6014
▁lon	-6015
▁urc	-6016
▁zeg	-6017
▁árk	-6018
▁özé	-6019
▁iami	-6020
▁anyja	-6021
VH	-6022
▁$	-6023
▁­	-6024
ink	-6025
▁Ár	-6026
▁arv	-6027
▁ead	-6028
▁odó	-6029
▁ome	-6030
▁rvá	-6031
▁ulm	-6032
▁üty	-6033
▁elje	-6034
▁iPad	-6035
▁naci	-6036
▁övid	-6037
▁animá	-6038
▁elébe	-6039
▁ovább	-6040
▁valif	-6041
▁69	-6042
▁yd	-6043
▁ciu	-6044
▁dől	-6045
▁ite	-6046
▁kak	-6047
▁kád	-6048
▁nyű	-6049
▁tex	-6050
▁atab	-6051
▁edte	-6052
▁megb	-6053
▁tana	-6054
▁ábrá	-6055
▁lázad	-6056
▁seket	-6057
▁álják	-6058
ray	-6059
▁öb	-6060
▁báb	-6061
▁kát	-6062
▁akít	-6063
▁elep	-6064
▁evés	-6065
▁hoen	-6066
▁link	-6067
▁llat	-6068
▁nyeg	-6069
▁tisz	-6070
▁vend	-6071
▁vete	-6072
▁vezé	-6073
▁innov	-6074
▁ülete	-6075
▁ültek	-6076
íd	-6077
▁Já	-6078
▁Lé	-6079
▁180	-6080
▁DVD	-6081
▁Hat	-6082
▁hid	-6083
▁kum	-6084
▁mut	-6085
▁sin	-6086
▁igén	-6087
▁kuta	-6088
▁lamo	-6089
▁ossá	-6090
▁szki	-6091
▁taní	-6092
▁trón	-6093
▁ántó	-6094
▁ridge	-6095
▁tefan	-6096
▁AF	-6097
▁FA	-6098
▁FB	-6099
▁Po	-6100
oney	-6101
▁dít	-6102
▁eth	-6103
▁gőz	-6104
▁itz	-6105
▁lló	-6106
▁líz	-6107
▁nyé	-6108
▁öko	-6109
▁alag	-6110
▁arse	-6111
▁kala	-6112
▁knél	-6113
▁kése	-6114
▁mega	-6115
▁smét	-6116
▁stor	-6117
▁talo	-6118
▁ulhat	-6119
yá	-6120
▁©	-6121
▁hy	-6122
▁sl	-6123
▁aku	-6124
▁tha	-6125
▁áko	-6126
▁űle	-6127
▁aida	-6128
▁arok	-6129
▁fize	-6130
▁ltra	-6131
▁ontr	-6132
▁sták	-6133
▁ulha	-6134
▁gszer	-6135
▁megte	-6136
▁ooney	-6137
▁popul	-6138
BO	-6139
▁73	-6140
▁Bd	-6141
▁Sa	-6142
▁éc	-6143
▁Tíz	-6144
▁ivé	-6145
▁lar	-6146
▁ruk	-6147
▁zit	-6148
▁úly	-6149
▁őlő	-6150
▁eder	-6151
▁mith	-6152
▁taxi	-6153
▁etésé	-6154
▁ezésé	-6155
▁tások	-6156
ino	-6157
uká	-6158
▁RM	-6159
▁ETO	-6160
▁kft	-6161
▁lei	-6162
▁rdi	-6163
▁zsz	-6164
▁alga	-6165
▁kiál	-6166
▁mmun	-6167
▁rint	-6168
▁roup	-6169
▁sajt	-6170
▁étre	-6171
ane	-6172
ken	-6173
▁71	-6174
▁CN	-6175
▁GM	-6176
▁Sc	-6177
▁iú	-6178
▁bbi	-6179
▁ego	-6180
▁jtá	-6181
▁rni	-6182
▁röp	-6183
▁zél	-6184
▁Faze	-6185
▁mara	-6186
▁ross	-6187
▁rács	-6188
▁arian	-6189
▁menny	-6190
▁pohár	-6191
▁zások	-6192
▁MR	-6193
▁160	-6194
▁evi	-6195
▁how	-6196
▁izz	-6197
▁sík	-6198
▁öve	-6199
▁aját	-6200
▁arap	-6201
▁assá	-6202
▁indu	-6203
▁isko	-6204
▁kesz	-6205
▁kong	-6206
▁stat	-6207
▁váro	-6208
▁örvé	-6209
▁felad	-6210
▁trend	-6211
OSZ	-6212
éna	-6213
▁67	-6214
▁Cl	-6215
▁DA	-6216
▁Is	-6217
▁Pár	-6218
▁ald	-6219
▁bás	-6220
▁eha	-6221
▁erh	-6222
▁ior	-6223
▁ske	-6224
▁éká	-6225
▁alku	-6226
▁aris	-6227
▁irst	-6228
▁kirá	-6229
▁mego	-6230
▁onya	-6231
▁ortá	-6232
▁rans	-6233
▁rian	-6234
▁ttes	-6235
▁önny	-6236
▁inger	-6237
▁kalif	-6238
▁ontot	-6239
ing	-6240
▁AI	-6241
▁Bc	-6242
▁VI	-6243
▁Gyö	-6244
▁gym	-6245
▁lay	-6246
▁pte	-6247
▁zna	-6248
▁záj	-6249
▁zér	-6250
▁ódo	-6251
▁otus	-6252
▁rdem	-6253
▁tand	-6254
▁tjuk	-6255
▁elése	-6256
▁zatér	-6257
ES	-6258
igá	-6259
▁AS	-6260
▁gg	-6261
▁mí	-6262
▁űs	-6263
▁dás	-6264
▁isk	-6265
▁svá	-6266
▁áni	-6267
▁Szen	-6268
▁dani	-6269
▁dent	-6270
▁ewis	-6271
▁inká	-6272
▁lasz	-6273
▁maff	-6274
▁rről	-6275
▁elmér	-6276
▁geket	-6277
▁nyago	-6278
▁panel	-6279
▁ítése	-6280
EL	-6281
apí	-6282
uge	-6283
▁88	-6284
▁PC	-6285
▁Se	-6286
▁2-0	-6287
▁21.	-6288
▁NHL	-6289
▁div	-6290
▁iál	-6291
▁pra	-6292
▁rne	-6293
▁she	-6294
▁Andy	-6295
▁akin	-6296
▁enés	-6297
▁euts	-6298
▁lásd	-6299
▁mart	-6300
▁nyűg	-6301
▁obbi	-6302
▁ánkó	-6303
▁elete	-6304
▁iemel	-6305
▁llapí	-6306
▁omoly	-6307
▁oznak	-6308
▁zinte	-6309
RC	-6310
ika	-6311
▁uj	-6312
▁úl	-6313
▁350	-6314
▁adj	-6315
▁ais	-6316
▁alé	-6317
▁ibe	-6318
▁ice	-6319
▁nbe	-6320
▁rof	-6321
▁ódi	-6322
▁book	-6323
▁yors	-6324
▁ásba	-6325
▁érfi	-6326
▁űlés	-6327
▁errel	-6328
▁etést	-6329
▁gésze	-6330
▁kapas	-6331
▁rvény	-6332
NI	-6333
▁Et	-6334
▁vö	-6335
▁3,8	-6336
▁gna	-6337
▁mma	-6338
▁ney	-6339
▁yék	-6340
▁ózs	-6341
▁egés	-6342
▁plán	-6343
▁rbán	-6344
▁rseny	-6345
▁úlyos	-6346
cht	-6347
ren	-6348
▁Hd	-6349
▁dm	-6350
▁1,4	-6351
▁3-4	-6352
▁Exp	-6353
▁MTK	-6354
▁ede	-6355
▁ivi	-6356
▁ldo	-6357
▁nds	-6358
▁rle	-6359
▁rte	-6360
▁sla	-6361
▁sug	-6362
▁téz	-6363
▁ÁSZ	-6364
▁őtt	-6365
▁amok	-6366
▁erie	-6367
▁rona	-6368
▁rült	-6369
▁zgat	-6370
▁dését	-6371
▁etünk	-6372
▁ülhet	-6373
ös	-6374
erá	-6375
ízi	-6376
▁81	-6377
▁82	-6378
▁IV	-6379
▁sv	-6380
▁3-1	-6381
▁gol	-6382
▁lár	-6383
▁ove	-6384
▁sig	-6385
▁thé	-6386
▁demo	-6387
▁szkö	-6388
▁tion	-6389
▁zatá	-6390
▁etnek	-6391
▁gatás	-6392
su	-6393
öm	-6394
vor	-6395
▁(3	-6396
▁Iz	-6397
▁KT	-6398
▁NK	-6399
▁OM	-6400
▁UE	-6401
▁yí	-6402
▁4,5	-6403
▁dir	-6404
▁dös	-6405
▁ifi	-6406
▁isé	-6407
▁trá	-6408
▁ána	-6409
▁űve	-6410
▁akku	-6411
▁atti	-6412
▁erev	-6413
▁etsz	-6414
▁krém	-6415
▁olgá	-6416
▁trén	-6417
▁ztes	-6418
▁észt	-6419
▁gárdá	-6420
▁ásnak	-6421
▁ökken	-6422
bu	-6423
eu	-6424
ast	-6425
ati	-6426
her	-6427
nár	-6428
▁KC	-6429
▁dk	-6430
▁tf	-6431
azar	-6432
▁Ast	-6433
▁bab	-6434
▁ddi	-6435
▁lip	-6436
▁osb	-6437
▁sra	-6438
▁síf	-6439
▁dnek	-6440
▁kard	-6441
▁köve	-6442
▁égis	-6443
▁őzet	-6444
▁anadá	-6445
▁bandá	-6446
▁kósto	-6447
▁sszab	-6448
▁taxis	-6449
ÉT	-6450
énu	-6451
▁Aj	-6452
▁IT	-6453
▁RS	-6454
▁Art	-6455
▁Gál	-6456
▁gus	-6457
▁lil	-6458
▁obo	-6459
▁rmi	-6460
▁síe	-6461
▁tté	-6462
▁üli	-6463
▁kasz	-6464
▁leve	-6465
▁nski	-6466
▁avigá	-6467
▁ermel	-6468
▁kapit	-6469
▁krízi	-6470
▁pláne	-6471
DK	-6472
EM	-6473
▁83	-6474
▁hé	-6475
▁1,3	-6476
▁ady	-6477
▁dja	-6478
▁fúv	-6479
▁rös	-6480
▁zze	-6481
▁íci	-6482
▁UEFA	-6483
▁allg	-6484
▁aria	-6485
▁béli	-6486
▁csol	-6487
▁dolt	-6488
▁kolá	-6489
▁skót	-6490
▁vata	-6491
▁znek	-6492
▁lámpa	-6493
VA	-6494
gá	-6495
vár	-6496
▁CI	-6497
▁oa	-6498
▁Aus	-6499
▁NBA	-6500
▁Tom	-6501
▁dkg	-6502
▁enü	-6503
▁erü	-6504
▁ipp	-6505
▁lvá	-6506
▁rav	-6507
▁yne	-6508
▁zar	-6509
▁adar	-6510
▁isel	-6511
▁izom	-6512
▁kile	-6513
▁lvas	-6514
▁lőre	-6515
▁ntra	-6516
▁ozik	-6517
▁pasz	-6518
▁veté	-6519
▁hetet	-6520
▁kezte	-6521
▁sztik	-6522
csa	-6523
▁-1	-6524
▁7:	-6525
▁Kh	-6526
▁We	-6527
▁dw	-6528
vald	-6529
▁0,5	-6530
▁agá	-6531
▁egh	-6532
▁eno	-6533
▁epé	-6534
▁kaz	-6535
▁sas	-6536
▁yén	-6537
▁áro	-6538
▁áza	-6539
▁alla	-6540
▁esco	-6541
▁inno	-6542
▁irál	-6543
▁ladá	-6544
▁lsős	-6545
▁megt	-6546
▁nita	-6547
▁okaj	-6548
▁snek	-6549
▁tipp	-6550
▁RMDSZ	-6551
ana	-6552
▁MNV	-6553
▁dók	-6554
▁ehe	-6555
▁iós	-6556
▁kúr	-6557
▁ote	-6558
▁pek	-6559
▁sav	-6560
▁vác	-6561
▁eszk	-6562
▁imbó	-6563
▁info	-6564
▁lkoz	-6565
▁ltot	-6566
▁oltá	-6567
▁orol	-6568
▁rébe	-6569
▁szag	-6570
▁talm	-6571
▁trém	-6572
▁zeke	-6573
▁ásul	-6574
▁úsít	-6575
▁eggel	-6576
▁hirde	-6577
▁tléti	-6578
▁álták	-6579
DS	-6580
fe	-6581
jax	-6582
leg	-6583
ler	-6584
▁Ek	-6585
▁Tö	-6586
▁mj	-6587
▁ún	-6588
▁110	-6589
▁5,5	-6590
▁Kim	-6591
▁Mac	-6592
▁Szó	-6593
▁dög	-6594
▁hes	-6595
▁mbo	-6596
▁nej	-6597
▁nge	-6598
▁Paki	-6599
▁arsó	-6600
▁egel	-6601
▁etők	-6602
▁muta	-6603
▁rgon	-6604
▁éket	-6605
▁nvald	-6606
▁tatja	-6607
BA	-6608
őt	-6609
aif	-6610
ude	-6611
▁84	-6612
▁96	-6613
▁Bf	-6614
▁ms	-6615
▁1,6	-6616
▁Ors	-6617
▁kác	-6618
▁sai	-6619
▁sat	-6620
▁vit	-6621
▁yik	-6622
▁írá	-6623
▁öml	-6624
▁anyi	-6625
▁etve	-6626
▁hatá	-6627
▁spór	-6628
▁szar	-6629
▁tánc	-6630
▁álya	-6631
▁érés	-6632
▁ősze	-6633
▁őzés	-6634
▁enleg	-6635
▁nyban	-6636
▁tékos	-6637
▁átran	-6638
▁órház	-6639
go	-6640
▁Fd	-6641
▁Un	-6642
▁Vd	-6643
▁mü	-6644
▁ox	-6645
▁yg	-6646
▁750	-6647
▁EKB	-6648
▁egm	-6649
▁kia	-6650
▁pos	-6651
▁rgi	-6652
▁úsí	-6653
▁őjé	-6654
▁őss	-6655
▁Ajax	-6656
▁atio	-6657
▁eine	-6658
▁ellé	-6659
▁lyuk	-6660
▁ovas	-6661
▁usic	-6662
▁yako	-6663
▁banda	-6664
▁iszte	-6665
▁közöl	-6666
▁sorba	-6667
▁szkár	-6668
▁álisa	-6669
▁@	-6670
▁MM	-6671
▁cí	-6672
▁tc	-6673
▁3-0	-6674
▁AFP	-6675
▁gya	-6676
▁iáj	-6677
▁kák	-6678
▁los	-6679
▁nás	-6680
▁rul	-6681
▁rzé	-6682
▁sco	-6683
▁Nico	-6684
▁akci	-6685
▁díja	-6686
▁tutt	-6687
▁ander	-6688
▁elésé	-6689
▁iszté	-6690
▁pazar	-6691
▁tador	-6692
mo	-6693
úz	-6694
ano	-6695
áná	-6696
▁áh	-6697
▁Que	-6698
▁aye	-6699
▁dül	-6700
▁ikr	-6701
▁mát	-6702
▁nyo	-6703
▁rop	-6704
▁tép	-6705
▁uch	-6706
▁zek	-6707
▁apjá	-6708
▁ariá	-6709
▁elye	-6710
▁klip	-6711
▁leke	-6712
▁olog	-6713
▁stan	-6714
▁szja	-6715
▁szöv	-6716
▁esült	-6717
▁öszön	-6718
cé	-6719
wi	-6720
▁zb	-6721
▁GVH	-6722
▁Hét	-6723
▁amm	-6724
▁eka	-6725
▁któ	-6726
▁nai	-6727
▁rké	-6728
▁rtu	-6729
▁álj	-6730
▁ört	-6731
▁ORFK	-6732
▁ainz	-6733
▁akko	-6734
▁alan	-6735
▁auer	-6736
▁désé	-6737
▁gróf	-6738
▁guru	-6739
▁kuba	-6740
▁legy	-6741
▁nyez	-6742
▁ovák	-6743
▁rtjá	-6744
▁toll	-6745
▁tors	-6746
▁veze	-6747
▁zeté	-6748
▁antib	-6749
▁atása	-6750
▁kombi	-6751
▁lenül	-6752
▁ulmán	-6753
ÉV	-6754
óz	-6755
▁ON	-6756
▁ln	-6757
▁ík	-6758
▁170	-6759
▁CNN	-6760
▁MTA	-6761
▁ema	-6762
▁lív	-6763
▁ovi	-6764
▁pom	-6765
▁rta	-6766
▁sát	-6767
▁özl	-6768
▁előn	-6769
▁entő	-6770
▁play	-6771
▁prom	-6772
▁talp	-6773
▁tasz	-6774
▁tohl	-6775
▁váll	-6776
▁ölté	-6777
▁özöl	-6778
▁egfel	-6779
▁ictor	-6780
▁sztes	-6781
▁szülé	-6782
ee	-6783
jk	-6784
sá	-6785
rav	-6786
▁77	-6787
▁91	-6788
▁Fg	-6789
▁Pl	-6790
▁tk	-6791
SZKA	-6792
▁bőr	-6793
▁ife	-6794
▁szb	-6795
▁yal	-6796
▁yit	-6797
▁zmé	-6798
▁akab	-6799
▁alco	-6800
▁arkó	-6801
▁avis	-6802
▁csel	-6803
▁gynö	-6804
▁koll	-6805
▁rali	-6806
▁zako	-6807
▁CSZKA	-6808
▁erede	-6809
▁regor	-6810
KI	-6811
VM	-6812
étá	-6813
▁Ac	-6814
▁ES	-6815
▁Hb	-6816
▁Ri	-6817
▁rb	-6818
▁125	-6819
▁31.	-6820
▁ape	-6821
▁dús	-6822
▁ect	-6823
▁gta	-6824
▁kho	-6825
▁lex	-6826
▁liz	-6827
▁ool	-6828
▁own	-6829
▁ául	-6830
▁özi	-6831
▁anch	-6832
▁auru	-6833
▁felü	-6834
▁gyek	-6835
▁gyor	-6836
▁nnen	-6837
▁ntel	-6838
▁sett	-6839
▁taps	-6840
▁züle	-6841
▁Angel	-6842
▁galax	-6843
▁korlá	-6844
▁nform	-6845
▁nkább	-6846
▁vésze	-6847
ada	-6848
ate	-6849
▁CO	-6850
▁MU	-6851
▁NL	-6852
▁Wa	-6853
▁kj	-6854
▁lú	-6855
▁mf	-6856
▁nh	-6857
▁yn	-6858
▁ABC	-6859
▁Sőt	-6860
▁aza	-6861
▁bit	-6862
▁dex	-6863
▁duz	-6864
▁kkv	-6865
▁rló	-6866
▁tág	-6867
▁élj	-6868
▁éry	-6869
▁agyo	-6870
▁aszn	-6871
▁izon	-6872
▁rook	-6873
▁minde	-6874
▁organ	-6875
▁table	-6876
HO	-6877
we	-6878
wo	-6879
ém	-6880
out	-6881
▁',	-6882
▁78	-6883
▁Ap	-6884
▁GT	-6885
▁HD	-6886
▁NI	-6887
▁jl	-6888
▁30.	-6889
▁Dak	-6890
▁FIA	-6891
▁bék	-6892
▁egr	-6893
▁kké	-6894
▁nkr	-6895
▁rey	-6896
▁áva	-6897
▁agas	-6898
▁algó	-6899
▁aran	-6900
▁bort	-6901
▁elha	-6902
▁erná	-6903
▁idro	-6904
▁kurz	-6905
▁örté	-6906
▁Minde	-6907
▁iális	-6908
▁szenv	-6909
BS	-6910
pH	-6911
uL	-6912
ato	-6913
uti	-6914
▁79	-6915
▁CS	-6916
▁VP	-6917
▁Év	-6918
▁0,3	-6919
▁Ara	-6920
▁DAX	-6921
▁XVI	-6922
▁abl	-6923
▁agu	-6924
▁dör	-6925
▁lót	-6926
▁nve	-6927
▁söp	-6928
▁özv	-6929
▁echn	-6930
▁eitu	-6931
▁elők	-6932
▁euge	-6933
▁isco	-6934
▁leck	-6935
▁mazo	-6936
▁néni	-6937
▁poén	-6938
▁pupH	-6939
▁stom	-6940
▁torz	-6941
▁táll	-6942
▁ándo	-6943
▁járdá	-6944
▁kalau	-6945
▁kában	-6946
▁menuL	-6947
▁monda	-6948
▁mária	-6949
▁rősöd	-6950
▁seout	-6951
▁tapad	-6952
RA	-6953
ey	-6954
ón	-6955
ara	-6956
▁(5	-6957
▁87	-6958
▁93	-6959
▁AM	-6960
▁Ff	-6961
▁MS	-6962
▁1,7	-6963
▁3-2	-6964
▁HÉV	-6965
▁Jan	-6966
▁MFB	-6967
▁Sir	-6968
▁aim	-6969
▁eki	-6970
▁esn	-6971
▁gai	-6972
▁tis	-6973
▁viv	-6974
▁ztá	-6975
▁ági	-6976
▁érf	-6977
▁ELTE	-6978
▁Nick	-6979
▁ater	-6980
▁erme	-6981
▁gyez	-6982
▁nikó	-6983
▁orlá	-6984
▁szin	-6985
▁toke	-6986
▁etter	-6987
▁nyaká	-6988
▁tarif	-6989
▁toler	-6990
ky	-6991
▁Ű	-6992
▁Vc	-6993
▁sf	-6994
▁1,1	-6995
▁Baj	-6996
▁Nap	-6997
▁apu	-6998
▁ivó	-6999
▁uis	-7000
▁úli	-7001
▁ahre	-7002
▁alta	-7003
▁arag	-7004
▁ball	-7005
▁elly	-7006
▁elve	-7007
▁laza	-7008
▁lega	-7009
▁nnal	-7010
▁pofá	-7011
▁rlát	-7012
▁rtés	-7013
▁ttat	-7014
▁ammer	-7015
▁anuel	-7016
▁anyjá	-7017
▁elked	-7018
▁ollár	-7019
▁ornél	-7020
▁rovat	-7021
▁zázad	-7022
có	-7023
ill	-7024
row	-7025
▁76	-7026
▁86	-7027
▁dl	-7028
▁nö	-7029
▁Ál	-7030
▁Der	-7031
▁FBI	-7032
▁adt	-7033
▁káp	-7034
▁mid	-7035
▁ndj	-7036
▁opo	-7037
▁rap	-7038
▁set	-7039
▁tew	-7040
▁udt	-7041
▁unt	-7042
▁vát	-7043
▁ádi	-7044
▁alas	-7045
▁diff	-7046
▁edro	-7047
▁evan	-7048
▁grav	-7049
▁lágy	-7050
▁nált	-7051
▁riti	-7052
▁égbe	-7053
▁arihu	-7054
▁atric	-7055
▁erder	-7056
▁rovar	-7057
▁részv	-7058
▁önyve	-7059
pó	-7060
tr	-7061
ía	-7062
lay	-7063
▁Bb	-7064
▁EM	-7065
▁HI	-7066
▁gú	-7067
▁jü	-7068
▁450	-7069
▁CIA	-7070
▁Rad	-7071
▁XII	-7072
▁enk	-7073
▁ret	-7074
▁rim	-7075
▁édő	-7076
▁üle	-7077
▁appa	-7078
▁ario	-7079
▁atan	-7080
▁ettő	-7081
▁grúz	-7082
▁ilvá	-7083
▁kics	-7084
▁rmin	-7085
▁stin	-7086
▁tkoz	-7087
▁vise	-7088
▁gráná	-7089
▁laudi	-7090
▁szige	-7091
▁urray	-7092
KF	-7093
nó	-7094
▁Cz	-7095
▁Si	-7096
▁Va	-7097
▁yp	-7098
▁ői	-7099
▁1,9	-7100
▁Fed	-7101
▁ahe	-7102
▁aud	-7103
▁ear	-7104
▁klá	-7105
▁kus	-7106
▁rbá	-7107
▁rka	-7108
▁rön	-7109
▁uri	-7110
▁ámo	-7111
▁EBEL	-7112
▁ante	-7113
▁apcs	-7114
▁arie	-7115
▁bara	-7116
▁golf	-7117
▁kába	-7118
▁latt	-7119
▁ngat	-7120
▁omló	-7121
▁ried	-7122
▁rtet	-7123
▁salá	-7124
▁sign	-7125
▁very	-7126
▁zeri	-7127
▁ájék	-7128
▁álma	-7129
▁eszté	-7130
▁kvótá	-7131
▁oztak	-7132
▁zotta	-7133
▁értes	-7134
OS	-7135
fo	-7136
uli	-7137
éta	-7138
▁99	-7139
▁DJ	-7140
▁PP	-7141
▁Úr	-7142
▁Lee	-7143
▁Pen	-7144
▁düh	-7145
▁elü	-7146
▁gör	-7147
▁haw	-7148
▁léc	-7149
▁mák	-7150
▁mít	-7151
▁nko	-7152
▁paj	-7153
▁tén	-7154
▁arro	-7155
▁dugó	-7156
▁etté	-7157
▁rség	-7158
▁rótt	-7159
▁topl	-7160
▁tová	-7161
▁átha	-7162
▁bales	-7163
▁kedet	-7164
▁logen	-7165
▁verto	-7166
▁ítésé	-7167
BB	-7168
GY	-7169
ng	-7170
őr	-7171
▁7-	-7172
▁89	-7173
▁Ag	-7174
▁Ak	-7175
▁DS	-7176
▁Fb	-7177
▁gí	-7178
▁nv	-7179
▁Air	-7180
▁Die	-7181
▁MKP	-7182
▁ORT	-7183
▁acq	-7184
▁ezz	-7185
▁ial	-7186
▁nke	-7187
▁pít	-7188
▁zse	-7189
▁azio	-7190
▁dete	-7191
▁erei	-7192
▁itan	-7193
▁olgo	-7194
▁tróf	-7195
▁tási	-7196
▁ukar	-7197
▁usch	-7198
▁zóná	-7199
▁lomás	-7200
▁skálá	-7201
▁smink	-7202
▁szerk	-7203
▁zatok	-7204
▁zeret	-7205
▁ények	-7206
▁ényez	-7207
HH	-7208
IM	-7209
ev	-7210
avi	-7211
▁ER	-7212
▁TD	-7213
▁gm	-7214
▁mr	-7215
▁ym	-7216
▁0,2	-7217
▁270	-7218
▁CAC	-7219
▁Max	-7220
▁Qui	-7221
▁WHO	-7222
▁bok	-7223
▁cas	-7224
▁dző	-7225
▁eed	-7226
▁gge	-7227
▁lőb	-7228
▁spa	-7229
▁sty	-7230
▁zír	-7231
▁Áll	-7232
▁átá	-7233
▁ORTT	-7234
▁ajor	-7235
▁atar	-7236
▁egér	-7237
▁etor	-7238
▁hake	-7239
▁itim	-7240
▁lelő	-7241
▁ozók	-7242
▁paga	-7243
▁rtás	-7244
▁stop	-7245
▁uszo	-7246
▁árta	-7247
▁andra	-7248
▁antik	-7249
▁daság	-7250
▁edély	-7251
▁kaszi	-7252
▁liber	-7253
▁radar	-7254
th	-7255
lio	-7256
utá	-7257
▁IS	-7258
▁vü	-7259
▁1,8	-7260
▁Bay	-7261
▁Mal	-7262
▁aff	-7263
▁bik	-7264
▁dve	-7265
▁emo	-7266
▁gér	-7267
▁ikö	-7268
▁lőz	-7269
▁nic	-7270
▁nyu	-7271
▁pól	-7272
▁ráj	-7273
▁réz	-7274
▁ávo	-7275
▁íto	-7276
▁ügg	-7277
▁őrö	-7278
▁FTSE	-7279
▁raft	-7280
▁romb	-7281
▁ságo	-7282
▁terh	-7283
▁tess	-7284
▁yógy	-7285
▁ádas	-7286
▁alált	-7287
▁gyana	-7288
▁gének	-7289
▁lakik	-7290
▁örtén	-7291
KK	-7292
xc	-7293
ÉS	-7294
▁(4	-7295
▁PM	-7296
▁db	-7297
▁Ali	-7298
▁Net	-7299
▁ary	-7300
▁asa	-7301
▁bag	-7302
▁egg	-7303
▁erl	-7304
▁lmá	-7305
▁yai	-7306
▁árl	-7307
▁akra	-7308
▁alaj	-7309
▁anul	-7310
▁bónu	-7311
▁gben	-7312
▁ipos	-7313
▁nkur	-7314
▁olla	-7315
▁szón	-7316
▁tobo	-7317
▁vanc	-7318
▁ütyü	-7319
▁atiku	-7320
▁favor	-7321
▁laude	-7322
▁napok	-7323
▁áltak	-7324
cal	-7325
ker	-7326
riá	-7327
▁CE	-7328
▁by	-7329
▁yb	-7330
▁ób	-7331
▁0-1	-7332
▁2,3	-7333
▁360	-7334
▁Pro	-7335
▁irr	-7336
▁nít	-7337
▁rve	-7338
▁spó	-7339
▁súg	-7340
▁Xavi	-7341
▁idat	-7342
▁kerg	-7343
▁lana	-7344
▁ntin	-7345
▁renc	-7346
▁risc	-7347
▁ölel	-7348
▁egyel	-7349
▁etébe	-7350
▁orthy	-7351
▁ossza	-7352
▁strom	-7353
▁szlet	-7354
uy	-7355
ent	-7356
gyi	-7357
itz	-7358
▁Bp	-7359
▁Nm	-7360
▁OR	-7361
▁Vg	-7362
▁rh	-7363
▁6:4	-7364
▁Aur	-7365
▁HBO	-7366
▁Hol	-7367
▁alp	-7368
▁djá	-7369
▁dox	-7370
▁gam	-7371
▁jók	-7372
▁lna	-7373
▁léb	-7374
▁ndu	-7375
▁now	-7376
▁söd	-7377
▁tné	-7378
▁zúz	-7379
▁ökő	-7380
▁atch	-7381
▁etto	-7382
▁ezne	-7383
▁isze	-7384
▁orok	-7385
▁orrá	-7386
▁ozna	-7387
▁pata	-7388
▁trip	-7389
▁tömb	-7390
▁ilágo	-7391
▁ioren	-7392
▁sárká	-7393
are	-7394
▁SA	-7395
▁Ul	-7396
NTSZ	-7397
oper	-7398
▁Nik	-7399
▁tke	-7400
▁töt	-7401
▁vés	-7402
▁zít	-7403
▁abre	-7404
▁anem	-7405
▁elyi	-7406
▁gálá	-7407
▁isch	-7408
▁krón	-7409
▁kést	-7410
▁lift	-7411
▁melé	-7412
▁nyag	-7413
▁petá	-7414
▁tank	-7415
▁tomb	-7416
▁vese	-7417
▁zámo	-7418
▁árda	-7419
▁épes	-7420
▁XVIII	-7421
▁conom	-7422
▁sapká	-7423
▁ÁNTSZ	-7424
▁ágban	-7425
ec	-7426
▁IP	-7427
▁RC	-7428
▁TÖ	-7429
▁kc	-7430
arti	-7431
▁4-5	-7432
▁Abd	-7433
▁Joe	-7434
▁NBC	-7435
▁arn	-7436
▁eol	-7437
▁iné	-7438
▁kná	-7439
▁mác	-7440
▁nku	-7441
▁pör	-7442
▁ssi	-7443
▁ágó	-7444
▁áta	-7445
▁XIII	-7446
▁bénu	-7447
▁nano	-7448
▁obrá	-7449
▁onti	-7450
▁ouch	-7451
▁terr	-7452
▁tiné	-7453
▁tory	-7454
▁túrá	-7455
▁Parti	-7456
▁egyhá	-7457
▁lását	-7458
▁lízin	-7459
▁patká	-7460
▁árban	-7461
tu	-7462
yd	-7463
DAL	-7464
RÉS	-7465
lor	-7466
oma	-7467
▁Bü	-7468
▁IB	-7469
▁IX	-7470
▁Pó	-7471
▁2,7	-7472
▁CDU	-7473
▁Dan	-7474
▁FMM	-7475
▁Men	-7476
▁VII	-7477
▁XIX	-7478
▁bog	-7479
▁lma	-7480
▁lot	-7481
▁lőn	-7482
▁nés	-7483
▁sei	-7484
▁uma	-7485
▁öse	-7486
▁őző	-7487
▁adic	-7488
▁agda	-7489
▁alti	-7490
▁bojk	-7491
▁erin	-7492
▁eréb	-7493
▁gymá	-7494
▁gyér	-7495
▁gála	-7496
▁kább	-7497
▁lash	-7498
▁leté	-7499
▁rome	-7500
▁senk	-7501
▁sked	-7502
▁szka	-7503
▁szko	-7504
▁tagj	-7505
▁ávol	-7506
▁özbe	-7507
▁filme	-7508
▁lapjá	-7509
▁spóro	-7510
▁stone	-7511
▁éggel	-7512
TI	-7513
ECD	-7514
uma	-7515
▁92	-7516
▁Ga	-7517
▁Kd	-7518
▁pk	-7519
▁1-3	-7520
▁2,4	-7521
▁22.	-7522
▁Boc	-7523
▁BÉT	-7524
▁HIV	-7525
▁Qua	-7526
▁aab	-7527
▁bró	-7528
▁fák	-7529
▁lej	-7530
▁nfo	-7531
▁pcs	-7532
▁ppe	-7533
▁pum	-7534
▁roz	-7535
▁urt	-7536
▁áho	-7537
▁LDAL	-7538
▁OECD	-7539
▁gért	-7540
▁kand	-7541
▁lőbb	-7542
▁ulaj	-7543
▁égre	-7544
▁épek	-7545
▁órhá	-7546
▁TÖRÉS	-7547
▁aylor	-7548
▁edése	-7549
▁egyén	-7550
▁iesta	-7551
▁morzs	-7552
▁ompuy	-7553
▁pompá	-7554
▁remen	-7555
▁rimer	-7556
▁skand	-7557
▁tását	-7558
▁átrai	-7559
EA	-7560
xd	-7561
ye	-7562
ade	-7563
yer	-7564
▁(6	-7565
▁Bg	-7566
▁Rt	-7567
▁Vb	-7568
▁aa	-7569
▁hű	-7570
▁őf	-7571
▁0,1	-7572
▁0,4	-7573
▁230	-7574
▁25.	-7575
▁5-6	-7576
▁7:6	-7577
▁Ash	-7578
▁Bab	-7579
▁INA	-7580
▁ahm	-7581
▁avá	-7582
▁gla	-7583
▁llí	-7584
▁new	-7585
▁ntő	-7586
▁ois	-7587
▁onk	-7588
▁pur	-7589
▁sín	-7590
▁ődö	-7591
▁TEVA	-7592
▁amel	-7593
▁anka	-7594
▁apok	-7595
▁atin	-7596
▁deme	-7597
▁egít	-7598
▁eisz	-7599
▁elne	-7600
▁ermo	-7601
▁etra	-7602
▁iány	-7603
▁layb	-7604
▁lazí	-7605
▁lves	-7606
▁lyok	-7607
▁lívi	-7608
▁mama	-7609
▁szte	-7610
▁tate	-7611
▁tójá	-7612
▁zacs	-7613
▁őnek	-7614
▁egymá	-7615
▁elvét	-7616
▁kezdő	-7617
▁orris	-7618
▁sugar	-7619
▁sátor	-7620
▁ydney	-7621
▁zerző	-7622
zo	-7623
bel	-7624
ora	-7625
rov	-7626
ver	-7627
▁dz	-7628
▁fl	-7629
bász	-7630
▁220	-7631
▁23.	-7632
▁24.	-7633
▁7,5	-7634
▁Eto	-7635
▁ase	-7636
▁asm	-7637
▁ats	-7638
▁ekü	-7639
▁fit	-7640
▁ima	-7641
▁jek	-7642
▁máz	-7643
▁pír	-7644
▁íte	-7645
▁öki	-7646
▁Arab	-7647
▁dése	-7648
▁esít	-7649
▁karc	-7650
▁kent	-7651
▁lila	-7652
▁léle	-7653
▁olya	-7654
▁sétá	-7655
▁táli	-7656
▁áruk	-7657
▁alter	-7658
▁bajor	-7659
▁elbou	-7660
▁endez	-7661
▁gombá	-7662
▁lbász	-7663
▁oport	-7664
▁start	-7665
▁théni	-7666
▁ősség	-7667
RI	-7668
amu	-7669
ute	-7670
zkó	-7671
▁8-	-7672
▁Fc	-7673
▁Fü	-7674
▁MC	-7675
▁ye	-7676
▁27.	-7677
▁OSZ	-7678
▁buj	-7679
▁ece	-7680
▁egl	-7681
▁fix	-7682
▁káz	-7683
▁nba	-7684
▁nig	-7685
▁orp	-7686
▁qui	-7687
▁rix	-7688
▁rtő	-7689
▁uft	-7690
▁ágr	-7691
▁ütö	-7692
▁Klic	-7693
▁VPOP	-7694
▁atya	-7695
▁biol	-7696
▁bébi	-7697
▁enry	-7698
▁estü	-7699
▁intr	-7700
▁kola	-7701
▁ling	-7702
▁ocus	-7703
▁oman	-7704
▁ottá	-7705
▁szes	-7706
▁tökö	-7707
▁álla	-7708
▁ályá	-7709
▁amuel	-7710
▁entel	-7711
▁kvóta	-7712
▁lások	-7713
▁mberi	-7714
▁porsó	-7715
▁áthat	-7716
GA	-7717
ík	-7718
adi	-7719
eno	-7720
▁LI	-7721
▁MP	-7722
▁NY	-7723
▁OB	-7724
▁cb	-7725
▁óh	-7726
▁őb	-7727
▁240	-7728
▁26.	-7729
▁28.	-7730
▁29.	-7731
▁4-1	-7732
▁Túl	-7733
▁XXI	-7734
▁aal	-7735
▁age	-7736
▁etz	-7737
▁ibé	-7738
▁lju	-7739
▁lős	-7740
▁shi	-7741
▁yun	-7742
▁AIDS	-7743
▁Anne	-7744
▁azai	-7745
▁erra	-7746
▁eszá	-7747
▁gyúr	-7748
▁igan	-7749
▁lame	-7750
▁ncsé	-7751
▁rtek	-7752
▁tanf	-7753
▁tehe	-7754
▁tort	-7755
▁yeng	-7756
▁áték	-7757
▁anyám	-7758
▁ature	-7759
▁bubor	-7760
▁kajak	-7761
▁lkész	-7762
▁propó	-7763
▁szély	-7764
▁yerek	-7765
▁ályán	-7766
mp	-7767
kin	-7768
lin	-7769
pán	-7770
uer	-7771
ánc	-7772
▁FH	-7773
▁Mr	-7774
▁0,7	-7775
▁Fox	-7776
▁Sze	-7777
▁Tax	-7778
▁egi	-7779
▁főt	-7780
▁iet	-7781
▁itk	-7782
▁kir	-7783
▁lyn	-7784
▁réb	-7785
▁síp	-7786
▁áng	-7787
▁óká	-7788
▁amis	-7789
▁aszo	-7790
▁hián	-7791
▁iáll	-7792
▁komp	-7793
▁lyos	-7794
▁misz	-7795
▁tech	-7796
▁ülne	-7797
▁lenőr	-7798
▁puská	-7799
▁utott	-7800
▁zámít	-7801
▁ényeg	-7802
ET	-7803
FC	-7804
TC	-7805
TM	-7806
▁Eu	-7807
▁Nu	-7808
▁Vk	-7809
▁pí	-7810
▁MOB	-7811
▁McD	-7812
▁agd	-7813
▁apó	-7814
▁nyv	-7815
▁vék	-7816
▁völ	-7817
▁özö	-7818
▁anno	-7819
▁lefo	-7820
▁lekt	-7821
▁lomb	-7822
▁mati	-7823
▁onte	-7824
▁pref	-7825
▁rizs	-7826
▁ufth	-7827
▁áldo	-7828
▁álna	-7829
▁öntő	-7830
▁önös	-7831
▁űleg	-7832
▁aiser	-7833
▁ajvan	-7834
▁ehető	-7835
▁incze	-7836
▁ionel	-7837
▁repül	-7838
▁rület	-7839
▁ségei	-7840
TK	-7841
sh	-7842
zz	-7843
űr	-7844
ant	-7845
cse	-7846
daq	-7847
▁Ev	-7848
▁IN	-7849
▁VW	-7850
▁ié	-7851
▁0,6	-7852
▁12,	-7853
▁6,5	-7854
▁Fél	-7855
▁Híd	-7856
▁Las	-7857
▁UTE	-7858
▁abe	-7859
▁duó	-7860
▁eda	-7861
▁iki	-7862
▁oza	-7863
▁raf	-7864
▁rud	-7865
▁smi	-7866
▁toc	-7867
▁yés	-7868
▁áth	-7869
▁Aron	-7870
▁Pont	-7871
▁buta	-7872
▁bágy	-7873
▁elíd	-7874
▁erni	-7875
▁etős	-7876
▁kaze	-7877
▁krom	-7878
▁lige	-7879
▁láss	-7880
▁midt	-7881
▁okor	-7882
▁róbá	-7883
▁tigl	-7884
▁tője	-7885
▁usan	-7886
▁Astra	-7887
▁asdaq	-7888
▁ierre	-7889
▁osztá	-7890
▁piszt	-7891
▁postá	-7892
▁ratif	-7893
▁skála	-7894
▁völgy	-7895
▁zések	-7896
xe	-7897
▁ë	-7898
ria	-7899
rin	-7900
▁HR	-7901
▁IK	-7902
▁NM	-7903
▁SU	-7904
▁dh	-7905
▁0,8	-7906
▁0-2	-7907
▁2,2	-7908
▁2,6	-7909
▁3,7	-7910
▁550	-7911
▁GPS	-7912
▁Jim	-7913
▁Liu	-7914
▁NKH	-7915
▁STA	-7916
▁Tim	-7917
▁ade	-7918
▁alb	-7919
▁apj	-7920
▁bec	-7921
▁bud	-7922
▁com	-7923
▁dan	-7924
▁dep	-7925
▁dur	-7926
▁eké	-7927
▁erű	-7928
▁etw	-7929
▁eze	-7930
▁fáj	-7931
▁gít	-7932
▁ieg	-7933
▁jto	-7934
▁lai	-7935
▁lgá	-7936
▁ndé	-7937
▁ols	-7938
▁ook	-7939
▁ozs	-7940
▁tav	-7941
▁tát	-7942
▁tűr	-7943
▁óni	-7944
▁ödi	-7945
▁őrs	-7946
▁Ajka	-7947
▁alok	-7948
▁amsu	-7949
▁arom	-7950
▁ciál	-7951
▁ciój	-7952
▁edin	-7953
▁erén	-7954
▁evez	-7955
▁ickó	-7956
▁inne	-7957
▁irkó	-7958
▁kond	-7959
▁kéte	-7960
▁lenn	-7961
▁mási	-7962
▁once	-7963
▁állá	-7964
▁áraó	-7965
▁áter	-7966
▁Austr	-7967
▁avari	-7968
▁bukar	-7969
▁búvár	-7970
▁eller	-7971
▁lássa	-7972
▁orvai	-7973
▁stoba	-7974
▁szakm	-7975
▁tortá	-7976
av	-7977
▁94	-7978
▁HM	-7979
▁PR	-7980
▁Th	-7981
▁UD	-7982
▁aú	-7983
▁210	-7984
▁3,9	-7985
▁Anc	-7986
▁Eva	-7987
▁Hxd	-7988
▁NBH	-7989
▁NOB	-7990
▁Ném	-7991
▁ahn	-7992
▁dra	-7993
▁dúl	-7994
▁eer	-7995
▁eig	-7996
▁gva	-7997
▁ied	-7998
▁sit	-7999
▁ucs	-8000
▁ugy	-8001
▁urp	-8002
▁öké	-8003
▁aiff	-8004
▁alle	-8005
▁azin	-8006
▁bisz	-8007
▁dier	-8008
▁erik	-8009
▁erve	-8010
▁etan	-8011
▁fekt	-8012
▁gomi	-8013
▁itat	-8014
▁kóru	-8015
▁lobe	-8016
▁naiv	-8017
▁nyij	-8018
▁nálj	-8019
▁néma	-8020
▁oroz	-8021
▁telé	-8022
▁vest	-8023
▁észe	-8024
▁özül	-8025
▁Dakar	-8026
▁akamu	-8027
▁ancia	-8028
▁anyát	-8029
▁ascal	-8030
▁ernek	-8031
▁kabri	-8032
▁kapar	-8033
▁kaszá	-8034
▁ködés	-8035
▁lotta	-8036
▁piszk	-8037
▁porno	-8038
HC	-8039
US	-8040
jó	-8041
xg	-8042
▁97	-8043
▁AR	-8044
▁FO	-8045
▁KI	-8046
▁MG	-8047
▁my	-8048
▁2,9	-8049
▁Bak	-8050
▁GKI	-8051
▁Lip	-8052
▁NFL	-8053
▁NIF	-8054
▁bbe	-8055
▁bát	-8056
▁eib	-8057
▁eop	-8058
▁ffy	-8059
▁irá	-8060
▁olk	-8061
▁rúd	-8062
▁sag	-8063
▁sky	-8064
▁taz	-8065
▁uti	-8066
▁war	-8067
▁zaz	-8068
▁ador	-8069
▁aldo	-8070
▁arco	-8071
▁ardi	-8072
▁ciók	-8073
▁dami	-8074
▁edel	-8075
▁gyep	-8076
▁iper	-8077
▁kenu	-8078
▁lást	-8079
▁onka	-8080
▁onna	-8081
▁rice	-8082
▁sánc	-8083
▁yelv	-8084
▁zord	-8085
▁ékbe	-8086
▁íván	-8087
▁MFESZ	-8088
▁auren	-8089
▁egysz	-8090
▁említ	-8091
▁gyelm	-8092
▁ihlet	-8093
▁intim	-8094
▁limpi	-8095
▁lámpá	-8096
▁pajzs	-8097
▁ström	-8098
▁sárgá	-8099
▁tapin	-8100
▁tásba	-8101
▁énztá	-8102
TV	-8103
cc	-8104
fb	-8105
ram	-8106
tah	-8107
ucc	-8108
win	-8109
▁AZ	-8110
▁éf	-8111
▁2,8	-8112
▁2-2	-8113
▁CDS	-8114
▁Ide	-8115
▁ega	-8116
▁eus	-8117
▁fát	-8118
▁iró	-8119
▁jer	-8120
▁nja	-8121
▁rei	-8122
▁wan	-8123
▁óva	-8124
▁ősé	-8125
▁Józs	-8126
▁Pred	-8127
▁agán	-8128
▁alka	-8129
▁anti	-8130
▁arka	-8131
▁bély	-8132
▁evel	-8133
▁lanc	-8134
▁lfog	-8135
▁ládá	-8136
▁oker	-8137
▁rent	-8138
▁sang	-8139
▁szít	-8140
▁tnak	-8141
▁öldi	-8142
▁kazah	-8143
▁lízis	-8144
▁monox	-8145
▁nyuká	-8146
▁redit	-8147
▁sszef	-8148
▁ultin	-8149
AS	-8150
bz	-8151
ré	-8152
▁§	-8153
ili	-8154
old	-8155
ong	-8156
oth	-8157
▁Kc	-8158
▁TM	-8159
▁pú	-8160
▁Ady	-8161
▁Don	-8162
▁ajl	-8163
▁arb	-8164
▁bob	-8165
▁dot	-8166
▁hán	-8167
▁odr	-8168
▁oms	-8169
▁tók	-8170
▁zug	-8171
▁zők	-8172
▁VIII	-8173
▁arma	-8174
▁atas	-8175
▁ella	-8176
▁ltic	-8177
▁olin	-8178
▁rátá	-8179
▁slat	-8180
▁totá	-8181
▁zava	-8182
▁ágon	-8183
▁álmá	-8184
▁ölts	-8185
▁öntö	-8186
▁diétá	-8187
▁lavin	-8188
▁legye	-8189
▁marha	-8190
▁odnár	-8191
▁sáról	-8192
▁ztatá	-8193
!)	-8194
EN	-8195
zl	-8196
Én	-8197
ore	-8198
▁-2	-8199
▁BV	-8200
▁IC	-8201
▁ID	-8202
▁JP	-8203
▁SV	-8204
▁Tű	-8205
▁mh	-8206
▁oi	-8207
▁yt	-8208
▁Őt	-8209
▁(!)	-8210
▁10,	-8211
▁Cru	-8212
▁MOL	-8213
▁NNI	-8214
▁Rio	-8215
▁Tel	-8216
▁bis	-8217
▁ciá	-8218
▁iha	-8219
▁ikó	-8220
▁ity	-8221
▁köv	-8222
▁mny	-8223
▁ncy	-8224
▁oeb	-8225
▁ole	-8226
▁pok	-8227
▁sep	-8228
▁tbl	-8229
▁ücs	-8230
▁Linz	-8231
▁aden	-8232
▁adha	-8233
▁anny	-8234
▁bili	-8235
▁dása	-8236
▁enna	-8237
▁enoa	-8238
▁epül	-8239
▁eske	-8240
▁evro	-8241
▁gott	-8242
▁gyűr	-8243
▁haif	-8244
▁ilba	-8245
▁klah	-8246
▁kmén	-8247
▁laus	-8248
▁lice	-8249
▁mbul	-8250
▁nice	-8251
▁orba	-8252
▁purs	-8253
▁rrel	-8254
▁soka	-8255
▁vásá	-8256
▁witz	-8257
▁yard	-8258
▁zemb	-8259
▁START	-8260
▁abucc	-8261
▁alapj	-8262
▁birkó	-8263
▁ental	-8264
▁legal	-8265
▁smind	-8266
▁tumor	-8267
Mi	-8268
OK	-8269
ió	-8270
kí	-8271
uz	-8272
ald	-8273
▁Hg	-8274
▁Kb	-8275
▁LR	-8276
▁Pe	-8277
▁TI	-8278
▁Vé	-8279
ides	-8280
▁3,3	-8281
▁KHL	-8282
▁Ric	-8283
▁cxd	-8284
▁dij	-8285
▁dúr	-8286
▁efe	-8287
▁efo	-8288
▁gem	-8289
▁gyo	-8290
▁kac	-8291
▁lba	-8292
▁mék	-8293
▁ndö	-8294
▁oug	-8295
▁ráb	-8296
▁sóz	-8297
▁töz	-8298
▁őre	-8299
▁Arch	-8300
▁NMHH	-8301
▁Utah	-8302
▁alin	-8303
▁alis	-8304
▁alló	-8305
▁ecur	-8306
▁egen	-8307
▁evge	-8308
▁gadt	-8309
▁gomb	-8310
▁iron	-8311
▁kgfb	-8312
▁llal	-8313
▁rdan	-8314
▁rdek	-8315
▁rosb	-8316
▁span	-8317
▁szad	-8318
▁szty	-8319
▁thén	-8320
▁tlag	-8321
▁yilk	-8322
▁étsz	-8323
▁Fides	-8324
▁agdad	-8325
▁anyák	-8326
▁epülő	-8327
▁ethet	-8328
▁lecht	-8329
▁playo	-8330
▁randi	-8331
▁rezid	-8332
▁urphy	-8333
dó	-8334
den	-8335
ímá	-8336
▁AN	-8337
▁KK	-8338
▁PV	-8339
▁Ur	-8340
▁2-4	-8341
▁3,6	-8342
▁4,2	-8343
▁6:2	-8344
▁All	-8345
▁Fxf	-8346
▁Sao	-8347
▁Tűz	-8348
▁afe	-8349
▁aké	-8350
▁box	-8351
▁dog	-8352
▁icz	-8353
▁lkö	-8354
▁mac	-8355
▁méz	-8356
▁nhe	-8357
▁sáb	-8358
▁tne	-8359
▁uly	-8360
▁ÁKK	-8361
▁áfa	-8362
▁érg	-8363
▁Band	-8364
▁alax	-8365
▁ance	-8366
▁atyá	-8367
▁auri	-8368
▁dono	-8369
▁ehez	-8370
▁foga	-8371
▁grád	-8372
▁hark	-8373
▁jüan	-8374
▁kaka	-8375
▁llis	-8376
▁lutá	-8377
▁malá	-8378
▁mnyp	-8379
▁oyce	-8380
▁pony	-8381
▁rius	-8382
▁ttel	-8383
▁eroin	-8384
▁etyka	-8385
▁gálán	-8386
▁kocka	-8387
▁latba	-8388
▁letén	-8389
▁letét	-8390
▁mória	-8391
▁rassó	-8392
▁tetet	-8393
▁thlet	-8394
▁torzí	-8395
▁zinté	-8396
▁álato	-8397
▁ársas	-8398
cu	-8399
út	-8400
cze	-8401
der	-8402
raf	-8403
uch	-8404
▁Dü	-8405
▁KR	-8406
▁My	-8407
▁OK	-8408
▁Qu	-8409
▁SI	-8410
▁ct	-8411
▁pd	-8412
▁zv	-8413
▁105	-8414
▁4-0	-8415
▁650	-8416
▁Bxd	-8417
▁CIB	-8418
▁LED	-8419
▁Map	-8420
▁een	-8421
▁kau	-8422
▁oan	-8423
▁oen	-8424
▁qua	-8425
▁rmá	-8426
▁tox	-8427
▁wen	-8428
▁Épp	-8429
▁ábo	-8430
▁álá	-8431
▁épz	-8432
▁Sach	-8433
▁agát	-8434
▁amor	-8435
▁askó	-8436
▁ejel	-8437
▁eléb	-8438
▁erki	-8439
▁eski	-8440
▁immy	-8441
▁list	-8442
▁loyd	-8443
▁mere	-8444
▁nker	-8445
▁pell	-8446
▁plen	-8447
▁rass	-8448
▁sorb	-8449
▁tabe	-8450
▁tári	-8451
▁vecs	-8452
▁ábry	-8453
▁EBESZ	-8454
▁eszer	-8455
▁isney	-8456
▁izzad	-8457
▁kacsa	-8458
▁ocsai	-8459
▁ponyá	-8460
▁pumpá	-8461
▁regen	-8462
▁rnold	-8463
▁torná	-8464
▁vezés	-8465
▁zítés	-8466
▁árdai	-8467
FR	-8468
HF	-8469
sd	-8470
yn	-8471
ctr	-8472
ger	-8473
inc	-8474
nyá	-8475
ona	-8476
vil	-8477
▁Cu	-8478
▁HC	-8479
▁Ig	-8480
▁PA	-8481
▁UN	-8482
▁Ya	-8483
▁nr	-8484
▁td	-8485
▁yü	-8486
▁öp	-8487
▁176	-8488
▁9,5	-8489
▁Bxe	-8490
▁NDK	-8491
▁bri	-8492
▁heo	-8493
▁iké	-8494
▁ktr	-8495
▁kuk	-8496
▁lse	-8497
▁ngo	-8498
▁ode	-8499
▁owl	-8500
▁row	-8501
▁sós	-8502
▁tói	-8503
▁zeb	-8504
▁zot	-8505
▁ékó	-8506
▁acer	-8507
▁adio	-8508
▁aúdi	-8509
▁bicz	-8510
▁dott	-8511
▁iPod	-8512
▁icag	-8513
▁kerá	-8514
▁lera	-8515
▁llet	-8516
▁lnök	-8517
▁odro	-8518
▁opin	-8519
▁ower	-8520
▁runo	-8521
▁teré	-8522
▁ámog	-8523
▁áriá	-8524
▁adhat	-8525
▁andro	-8526
▁asági	-8527
▁eople	-8528
▁ezése	-8529
▁gymás	-8530
▁nyeft	-8531
▁ooper	-8532
▁orsen	-8533
▁pavil	-8534
▁plená	-8535
▁teket	-8536
▁unami	-8537
▁ántor	-8538
EP	-8539
MA	-8540
dy	-8541
ij	-8542
of	-8543
ÉP	-8544
anz	-8545
miá	-8546
org	-8547
uel	-8548
▁#1	-8549
▁(9	-8550
▁VV	-8551
▁3,2	-8552
▁4-3	-8553
▁6:3	-8554
▁Del	-8555
▁Kun	-8556
▁MVM	-8557
▁Mod	-8558
▁Nie	-8559
▁Ros	-8560
▁SUV	-8561
▁aar	-8562
▁aft	-8563
▁azs	-8564
▁aúd	-8565
▁déz	-8566
▁evé	-8567
▁izg	-8568
▁jaj	-8569
▁lij	-8570
▁mak	-8571
▁múz	-8572
▁osh	-8573
▁rba	-8574
▁rsá	-8575
▁sna	-8576
▁séf	-8577
▁yak	-8578
▁ákó	-8579
▁áná	-8580
▁öcs	-8581
▁Alan	-8582
▁addi	-8583
▁atri	-8584
▁enit	-8585
▁hort	-8586
▁iram	-8587
▁izzó	-8588
▁jánl	-8589
▁laki	-8590
▁lark	-8591
▁llás	-8592
▁ndez	-8593
▁ohan	-8594
▁omez	-8595
▁onty	-8596
▁píté	-8597
▁szír	-8598
▁told	-8599
▁totí	-8600
▁vere	-8601
▁zóna	-8602
▁ónap	-8603
▁özös	-8604
▁ünte	-8605
▁amaha	-8606
▁atson	-8607
▁iblio	-8608
▁immer	-8609
▁razzi	-8610
▁tréfá	-8611
AA	-8612
lé	-8613
ög	-8614
aru	-8615
ese	-8616
ido	-8617
ile	-8618
iss	-8619
mar	-8620
roc	-8621
▁Br	-8622
▁Bú	-8623
▁CC	-8624
▁Da	-8625
▁Hí	-8626
▁Ké	-8627
▁Ló	-8628
▁NS	-8629
▁Vh	-8630
▁ün	-8631
▁̋A	-8632
▁260	-8633
▁Bea	-8634
▁Bob	-8635
▁Bra	-8636
▁FDP	-8637
▁McG	-8638
▁Sas	-8639
▁Sem	-8640
▁aco	-8641
▁elu	-8642
▁hew	-8643
▁ikt	-8644
▁lac	-8645
▁ogd	-8646
▁pul	-8647
▁vaj	-8648
▁yim	-8649
▁yor	-8650
▁Babo	-8651
▁Play	-8652
▁Taxi	-8653
▁able	-8654
▁arah	-8655
▁aura	-8656
▁befe	-8657
▁dhat	-8658
▁erbe	-8659
▁etke	-8660
▁iköz	-8661
▁inje	-8662
▁inni	-8663
▁ldás	-8664
▁masz	-8665
▁plan	-8666
▁sodi	-8667
▁tein	-8668
▁tomp	-8669
▁utan	-8670
▁vben	-8671
▁vist	-8672
▁zhet	-8673
▁Pannó	-8674
▁Queen	-8675
▁bugyi	-8676
▁ernád	-8677
▁kanál	-8678
▁majom	-8679
▁meter	-8680
▁nitor	-8681
▁opper	-8682
▁paksi	-8683
▁thaif	-8684
▁tárcs	-8685
▁ultik	-8686
▁vélem	-8687
eb	-8688
fs	-8689
hr	-8690
omi	-8691
óle	-8692
▁Bh	-8693
▁CB	-8694
▁HP	-8695
▁TA	-8696
▁gs	-8697
▁Ül	-8698
▁175	-8699
▁280	-8700
▁3.,	-8701
▁FKF	-8702
▁SNS	-8703
▁TMZ	-8704
▁aps	-8705
▁egé	-8706
▁ezo	-8707
▁hős	-8708
▁kie	-8709
▁kna	-8710
▁ltá	-8711
▁nki	-8712
▁pof	-8713
▁uál	-8714
▁zes	-8715
▁árú	-8716
▁örn	-8717
▁Adam	-8718
▁ache	-8719
▁anuc	-8720
▁ardv	-8721
▁arre	-8722
▁asmi	-8723
▁dina	-8724
▁elül	-8725
▁emin	-8726
▁erna	-8727
▁hart	-8728
▁ifej	-8729
▁inta	-8730
▁into	-8731
▁lkép	-8732
▁llem	-8733
▁líbi	-8734
▁mére	-8735
▁oren	-8736
▁ritt	-8737
▁szág	-8738
▁sört	-8739
▁taal	-8740
▁tatá	-8741
▁tino	-8742
▁túsz	-8743
▁átiá	-8744
▁KRESZ	-8745
▁Madár	-8746
▁aréná	-8747
▁erdin	-8748
▁iállí	-8749
▁móriá	-8750
▁ontpe	-8751
▁párto	-8752
▁stein	-8753
▁supán	-8754
▁tléta	-8755
▁tálal	-8756
▁unday	-8757
▁ájába	-8758
▁ületi	-8759
GM	-8760
bé	-8761
▁õ	-8762
ala	-8763
▁AG	-8764
▁CT	-8765
▁GY	-8766
▁PI	-8767
▁WS	-8768
▁őm	-8769
▁340	-8770
▁8.,	-8771
▁Biz	-8772
▁Bud	-8773
▁Fxd	-8774
▁Ivo	-8775
▁VfL	-8776
▁afé	-8777
▁aht	-8778
▁aru	-8779
▁aúl	-8780
▁dön	-8781
▁ehé	-8782
▁ery	-8783
▁fúr	-8784
▁lou	-8785
▁zát	-8786
▁éln	-8787
▁étv	-8788
▁Rati	-8789
▁aced	-8790
▁acht	-8791
▁agyt	-8792
▁audi	-8793
▁baro	-8794
▁einz	-8795
▁ekke	-8796
▁evil	-8797
▁gatt	-8798
▁hane	-8799
▁hony	-8800
▁hozz	-8801
▁iber	-8802
▁inzu	-8803
▁itne	-8804
▁jabb	-8805
▁jahu	-8806
▁köny	-8807
▁leon	-8808
▁lőző	-8809
▁nged	-8810
▁nyir	-8811
▁pers	-8812
▁pert	-8813
▁ranz	-8814
▁rizi	-8815
▁road	-8816
▁ruce	-8817
▁séta	-8818
▁taka	-8819
▁trad	-8820
▁tuti	-8821
▁ugló	-8822
▁zagy	-8823
▁zési	-8824
▁ácso	-8825
▁ömeg	-8826
▁önte	-8827
▁Ashto	-8828
▁ather	-8829
▁ivata	-8830
▁lectr	-8831
▁ltrah	-8832
▁nyeck	-8833
▁teine	-8834
▁ubaru	-8835
MI	-8836
OR	-8837
wa	-8838
ali	-8839
ard	-8840
mén	-8841
rad	-8842
wig	-8843
íbi	-8844
▁AD	-8845
▁CA	-8846
▁Ou	-8847
▁SK	-8848
▁uf	-8849
▁yk	-8850
▁0,9	-8851
▁1.)	-8852
▁16,	-8853
▁4-2	-8854
▁One	-8855
▁Sam	-8856
▁USB	-8857
▁adn	-8858
▁bim	-8859
▁ecc	-8860
▁eet	-8861
▁ezh	-8862
▁gbe	-8863
▁ilt	-8864
▁lje	-8865
▁lké	-8866
▁lti	-8867
▁lőj	-8868
▁nam	-8869
▁nty	-8870
▁nyü	-8871
▁oor	-8872
▁rót	-8873
▁skó	-8874
▁éte	-8875
▁Arth	-8876
▁Baja	-8877
▁MIÉP	-8878
▁ange	-8879
▁argo	-8880
▁asco	-8881
▁ború	-8882
▁delé	-8883
▁edez	-8884
▁enja	-8885
▁erth	-8886
▁gyám	-8887
▁iang	-8888
▁inth	-8889
▁itán	-8890
▁kalá	-8891
▁kobo	-8892
▁lake	-8893
▁lmes	-8894
▁lóri	-8895
▁mand	-8896
▁mics	-8897
▁ntum	-8898
▁olyt	-8899
▁oswo	-8900
▁otal	-8901
▁pedi	-8902
▁rail	-8903
▁ryan	-8904
▁ránc	-8905
▁rémü	-8906
▁spur	-8907
▁ther	-8908
▁túró	-8909
▁áján	-8910
▁árgy	-8911
▁ővel	-8912
▁adará	-8913
▁apper	-8914
▁apóle	-8915
▁arner	-8916
▁atyer	-8917
▁bileu	-8918
▁erner	-8919
▁etafe	-8920
▁ezmén	-8921
▁ikerü	-8922
▁itute	-8923
▁licit	-8924
▁lábas	-8925
▁mería	-8926
▁ményt	-8927
▁pszer	-8928
▁radic	-8929
▁rigye	-8930
▁sarká	-8931
▁szabá	-8932
▁tottá	-8933
TT	-8934
óc	-8935
új	-8936
agó	-8937
aná	-8938
ble	-8939
cea	-8940
che	-8941
ets	-8942
lle	-8943
rah	-8944
▁9-	-8945
▁Av	-8946
▁LC	-8947
▁Sö	-8948
▁mn	-8949
▁vs	-8950
▁102	-8951
▁17,	-8952
▁3,1	-8953
▁NOL	-8954
▁Neo	-8955
▁OMV	-8956
▁Roy	-8957
▁SPD	-8958
▁WRC	-8959
▁adr	-8960
▁bad	-8961
▁epe	-8962
▁gri	-8963
▁gro	-8964
▁gyv	-8965
▁kte	-8966
▁mba	-8967
▁nep	-8968
▁piz	-8969
▁púr	-8970
▁rac	-8971
▁ree	-8972
▁ráf	-8973
▁sre	-8974
▁uer	-8975
▁éné	-8976
▁íne	-8977
▁Aval	-8978
▁DJIA	-8979
▁Lake	-8980
▁Nich	-8981
▁Traf	-8982
▁ablo	-8983
▁abor	-8984
▁abro	-8985
▁adot	-8986
▁amon	-8987
▁anác	-8988
▁ardy	-8989
▁boka	-8990
▁egsz	-8991
▁elmű	-8992
▁even	-8993
▁iseg	-8994
▁ivar	-8995
▁izár	-8996
▁kaot	-8997
▁ltán	-8998
▁minó	-8999
▁nick	-9000
▁nnep	-9001
▁nten	-9002
▁orne	-9003
▁raci	-9004
▁rugó	-9005
▁ssal	-9006
▁szla	-9007
▁téne	-9008
▁uido	-9009
▁valy	-9010
▁ádor	-9011
▁átri	-9012
▁édel	-9013
▁övet	-9014
▁banán	-9015
▁felet	-9016
▁galma	-9017
▁ienna	-9018
▁lobal	-9019
▁ltatá	-9020
▁meder	-9021
▁odrig	-9022
▁pellá	-9023
▁puska	-9024
▁szász	-9025
HA	-9026
IK	-9027
RD	-9028
SK	-9029
gu	-9030
ph	-9031
ty	-9032
kay	-9033
lie	-9034
riv	-9035
szi	-9036
utu	-9037
ÉSZ	-9038
ázs	-9039
▁Bt	-9040
▁EI	-9041
▁Gl	-9042
▁LB	-9043
▁Lá	-9044
▁MV	-9045
▁RA	-9046
▁zh	-9047
▁Őr	-9048
▁őg	-9049
▁0-3	-9050
▁11,	-9051
▁3,4	-9052
▁320	-9053
▁6,2	-9054
▁7.,	-9055
▁BBB	-9056
▁Bxf	-9057
▁Chu	-9058
▁Ede	-9059
▁Ham	-9060
▁Hxe	-9061
▁MAC	-9062
▁Mai	-9063
▁Ted	-9064
▁ajc	-9065
▁auk	-9066
▁azo	-9067
▁cti	-9068
▁dad	-9069
▁hof	-9070
▁klő	-9071
▁mcs	-9072
▁mád	-9073
▁ntö	-9074
▁nác	-9075
▁pór	-9076
▁rah	-9077
▁run	-9078
▁vik	-9079
▁yeg	-9080
▁zep	-9081
▁zúd	-9082
▁álo	-9083
▁öre	-9084
▁öul	-9085
▁ődi	-9086
▁Aren	-9087
▁Bako	-9088
▁Inde	-9089
▁OMSZ	-9090
▁asin	-9091
▁atty	-9092
▁avel	-9093
▁ccse	-9094
▁csin	-9095
▁egin	-9096
▁emén	-9097
▁engu	-9098
▁essa	-9099
▁eyer	-9100
▁icsi	-9101
▁ladb	-9102
▁leme	-9103
▁lhas	-9104
▁mete	-9105
▁okta	-9106
▁omsz	-9107
▁pucé	-9108
▁rawn	-9109
▁roth	-9110
▁tali	-9111
▁ueen	-9112
▁zemé	-9113
▁álas	-9114
▁épás	-9115
▁észk	-9116
▁ődöt	-9117
▁aczkó	-9118
▁anató	-9119
▁andal	-9120
▁entet	-9121
▁hisze	-9122
▁igany	-9123
▁ilbao	-9124
▁kakaó	-9125
▁kalci	-9126
▁kamer	-9127
▁lazma	-9128
▁lábán	-9129
▁maszk	-9130
▁meets	-9131
▁ogató	-9132
▁ommer	-9133
▁pohar	-9134
▁sarki	-9135
▁öntés	-9136
),	-9137
ED	-9138
SV	-9139
EAC	-9140
ale	-9141
lon	-9142
nik	-9143
ódé	-9144
▁Bj	-9145
▁GS	-9146
▁NC	-9147
▁OP	-9148
▁kW	-9149
▁oé	-9150
▁íc	-9151
▁135	-9152
▁4,4	-9153
▁4.)	-9154
▁CIG	-9155
▁Dow	-9156
▁Fxc	-9157
▁Fxe	-9158
▁HSC	-9159
▁ITD	-9160
▁Kia	-9161
▁Nig	-9162
▁Sun	-9163
▁VEK	-9164
▁VfB	-9165
▁Vxc	-9166
▁bac	-9167
▁bsz	-9168
▁bóv	-9169
▁elá	-9170
▁fül	-9171
▁hxg	-9172
▁iac	-9173
▁idá	-9174
▁mix	-9175
▁nij	-9176
▁ogi	-9177
▁oth	-9178
▁rda	-9179
▁rty	-9180
▁ród	-9181
▁röm	-9182
▁zzá	-9183
▁zál	-9184
▁zűr	-9185
▁üri	-9186
▁Evan	-9187
▁Mand	-9188
▁Utal	-9189
▁akas	-9190
▁akon	-9191
▁akás	-9192
▁alli	-9193
▁alvó	-9194
▁ancy	-9195
▁arré	-9196
▁atba	-9197
▁atlé	-9198
▁edet	-9199
▁eorg	-9200
▁erri	-9201
▁gárd	-9202
▁ievo	-9203
▁ijón	-9204
▁itál	-9205
▁kult	-9206
▁lath	-9207
▁lich	-9208
▁lick	-9209
▁lisz	-9210
▁neon	-9211
▁ning	-9212
▁nton	-9213
▁ogad	-9214
▁ombi	-9215
▁omol	-9216
▁oran	-9217
▁ormu	-9218
▁piká	-9219
▁pipá	-9220
▁rley	-9221
▁rúzi	-9222
▁terí	-9223
▁toná	-9224
▁tára	-9225
▁urto	-9226
▁öszö	-9227
▁özve	-9228
▁Sachs	-9229
▁adnót	-9230
▁anitá	-9231
▁bimbó	-9232
▁eccse	-9233
▁elepü	-9234
▁ereke	-9235
▁ieber	-9236
▁karus	-9237
▁leonó	-9238
▁lovag	-9239
▁marty	-9240
▁ngari	-9241
▁ognár	-9242
▁radio	-9243
▁rooke	-9244
▁szemé	-9245
▁udwig	-9246
▁uncze	-9247
▁utatá	-9248
▁ársai	-9249
▁átyja	-9250
FE	-9251
OL	-9252
TS	-9253
ís	-9254
▁×	-9255
edi	-9256
hoo	-9257
ome	-9258
ódi	-9259
▁(7	-9260
▁1/	-9261
▁4:	-9262
▁CR	-9263
▁EC	-9264
▁KÖ	-9265
▁vt	-9266
ágrá	-9267
▁115	-9268
▁165	-9269
▁2.,	-9270
▁275	-9271
▁3-5	-9272
▁4,6	-9273
▁4,7	-9274
▁Bad	-9275
▁Bic	-9276
▁Big	-9277
▁Bxc	-9278
▁CBS	-9279
▁CER	-9280
▁Döm	-9281
▁EKF	-9282
▁ETA	-9283
▁McQ	-9284
▁NEM	-9285
▁XIV	-9286
▁alc	-9287
▁ams	-9288
▁bat	-9289
▁bxc	-9290
▁eim	-9291
▁eva	-9292
▁idd	-9293
▁lbe	-9294
▁réd	-9295
▁sim	-9296
▁töp	-9297
▁uzs	-9298
▁zda	-9299
▁áto	-9300
▁ökö	-9301
▁Auch	-9302
▁Fide	-9303
▁ankó	-9304
▁asim	-9305
▁axis	-9306
▁azah	-9307
▁béta	-9308
▁dene	-9309
▁enet	-9310
▁erse	-9311
▁gnek	-9312
▁grár	-9313
▁heen	-9314
▁idak	-9315
▁itro	-9316
▁kagy	-9317
▁komo	-9318
▁licz	-9319
▁mato	-9320
▁mily	-9321
▁nába	-9322
▁ogra	-9323
▁okak	-9324
▁opal	-9325
▁otka	-9326
▁rtan	-9327
▁rupo	-9328
▁ráng	-9329
▁stoc	-9330
▁trán	-9331
▁urná	-9332
▁zász	-9333
▁álak	-9334
▁ámad	-9335
▁ólom	-9336
▁öuli	-9337
▁alina	-9338
▁anadi	-9339
▁ardin	-9340
▁bóvli	-9341
▁etyká	-9342
▁gárdi	-9343
▁kakas	-9344
▁liban	-9345
▁metál	-9346
▁orres	-9347
▁otond	-9348
▁patin	-9349
▁richt	-9350
▁rubel	-9351
▁siett	-9352
▁teria	-9353
▁tompí	-9354
▁tript	-9355
▁vénye	-9356
▁zágrá	-9357
▁álaga	-9358
hú	-9359
jo	-9360
vó	-9361
deb	-9362
nov	-9363
ova	-9364
reb	-9365
ánu	-9366
▁--	-9367
▁BC	-9368
▁Gf	-9369
▁Ik	-9370
▁KG	-9371
▁LA	-9372
▁MJ	-9373
▁Zo	-9374
▁kz	-9375
▁pö	-9376
▁1.,	-9377
▁2,1	-9378
▁265	-9379
▁4,3	-9380
▁5,2	-9381
▁7,9	-9382
▁ISS	-9383
▁LCD	-9384
▁Pep	-9385
▁Tex	-9386
▁Tus	-9387
▁alf	-9388
▁bio	-9389
▁dxc	-9390
▁eep	-9391
▁eje	-9392
▁gve	-9393
▁hog	-9394
▁jtó	-9395
▁ktő	-9396
▁nag	-9397
▁pod	-9398
▁rép	-9399
▁róm	-9400
▁ttu	-9401
▁ulz	-9402
▁ége	-9403
▁épv	-9404
▁ésü	-9405
▁Pand	-9406
▁VEKE	-9407
▁XVII	-9408
▁achi	-9409
▁airó	-9410
▁akay	-9411
▁akkó	-9412
▁araj	-9413
▁arki	-9414
▁arth	-9415
▁awai	-9416
▁boro	-9417
▁bund	-9418
▁dams	-9419
▁eges	-9420
▁egál	-9421
▁eidu	-9422
▁ekte	-9423
▁elta	-9424
▁enov	-9425
▁enta	-9426
▁erta	-9427
▁gyin	-9428
▁ipót	-9429
▁itka	-9430
▁kamu	-9431
▁krat	-9432
▁króm	-9433
▁lein	-9434
▁lisa	-9435
▁llah	-9436
▁mest	-9437
▁ntag	-9438
▁omán	-9439
▁orga	-9440
▁otth	-9441
▁porc	-9442
▁quin	-9443
▁repe	-9444
▁rgen	-9445
▁risz	-9446
▁ródy	-9447
▁sben	-9448
▁shop	-9449
▁tamk	-9450
▁udni	-9451
▁urál	-9452
▁vann	-9453
▁árdá	-9454
▁ásta	-9455
▁ászt	-9456
▁átrá	-9457
▁altat	-9458
▁arcus	-9459
▁arvik	-9460
▁aszka	-9461
▁ction	-9462
▁elyek	-9463
▁etano	-9464
▁evils	-9465
▁eyeno	-9466
▁gában	-9467
▁harma	-9468
▁idney	-9469
▁imázs	-9470
▁itter	-9471
▁lovak	-9472
▁lusta	-9473
▁maced	-9474
▁mániá	-9475
▁natko	-9476
▁ndent	-9477
▁rizzl	-9478
▁rozsd	-9479
▁sarka	-9480
▁uanda	-9481
▁yanús	-9482
▁zebrá	-9483
▁ácsik	-9484
▁épzel	-9485
▁ürich	-9486
LA	-9487
xf	-9488
ame	-9489
ens	-9490
ete	-9491
gor	-9492
ick	-9493
ike	-9494
lac	-9495
qui	-9496
ras	-9497
xel	-9498
▁+1	-9499
▁-5	-9500
▁//	-9501
▁Ed	-9502
▁Sh	-9503
▁TB	-9504
▁mg	-9505
▁úg	-9506
▁üm	-9507
▁őn	-9508
▁(1)	-9509
▁15,	-9510
▁168	-9511
▁190	-9512
▁2.)	-9513
▁3-3	-9514
▁4,1	-9515
▁4,8	-9516
▁5,6	-9517
▁6-8	-9518
▁7,3	-9519
▁Abb	-9520
▁BSC	-9521
▁Hxc	-9522
▁Ron	-9523
▁Sky	-9524
▁TDI	-9525
▁ahl	-9526
▁apí	-9527
▁aug	-9528
▁bba	-9529
▁cho	-9530
▁deg	-9531
▁eot	-9532
▁kup	-9533
▁nze	-9534
▁oel	-9535
▁out	-9536
▁pát	-9537
▁tég	-9538
▁urd	-9539
▁zav	-9540
▁ztj	-9541
▁zén	-9542
▁öré	-9543
▁ője	-9544
▁Ikva	-9545
▁Road	-9546
▁Tusk	-9547
▁ackó	-9548
▁agos	-9549
▁ajka	-9550
▁akaó	-9551
▁apid	-9552
▁arga	-9553
▁arle	-9554
▁ases	-9555
▁csán	-9556
▁dekl	-9557
▁egek	-9558
▁etta	-9559
▁fúzi	-9560
▁geol	-9561
▁insp	-9562
▁itor	-9563
▁itsu	-9564
▁ixel	-9565
▁kaló	-9566
▁meló	-9567
▁mpon	-9568
▁nath	-9569
▁nica	-9570
▁pako	-9571
▁raig	-9572
▁rant	-9573
▁scak	-9574
▁teng	-9575
▁tore	-9576
▁uana	-9577
▁ányo	-9578
▁átia	-9579
▁Panth	-9580
▁ahmúd	-9581
▁aléka	-9582
▁andid	-9583
▁asbou	-9584
▁awaii	-9585
▁bagbo	-9586
▁erjes	-9587
▁hetős	-9588
▁idane	-9589
▁kabar	-9590
▁karit	-9591
▁késel	-9592
▁major	-9593
▁mosdó	-9594
▁ontol	-9595
▁sarkv	-9596
▁shire	-9597
▁ékben	-9598
Ne	-9599
ps	-9600
qu	-9601
uf	-9602
ang	-9603
cid	-9604
emo	-9605
imb	-9606
ini	-9607
ise	-9608
ist	-9609
jan	-9610
niá	-9611
nta	-9612
rót	-9613
▁04	-9614
▁DD	-9615
▁DF	-9616
▁IR	-9617
▁Pü	-9618
▁RO	-9619
▁VE	-9620
▁iW	-9621
▁xx	-9622
adás	-9623
▁14,	-9624
▁32.	-9625
▁4-6	-9626
▁5-2	-9627
▁9.,	-9628
▁Amb	-9629
▁Arc	-9630
▁BSE	-9631
▁FMH	-9632
▁IBM	-9633
▁ads	-9634
▁aze	-9635
▁cht	-9636
▁dis	-9637
▁eas	-9638
▁eró	-9639
▁ezé	-9640
▁gte	-9641
▁irg	-9642
▁lah	-9643
▁lyó	-9644
▁mek	-9645
▁nol	-9646
▁ozz	-9647
▁ray	-9648
▁rev	-9649
▁rvo	-9650
▁szc	-9651
▁tfő	-9652
▁udj	-9653
▁uel	-9654
▁upp	-9655
▁zhe	-9656
▁égb	-9657
▁éme	-9658
▁Mado	-9659
▁Utol	-9660
▁adul	-9661
▁alik	-9662
▁anda	-9663
▁arci	-9664
▁babá	-9665
▁béna	-9666
▁bódé	-9667
▁chus	-9668
▁daru	-9669
▁dose	-9670
▁endv	-9671
▁erci	-9672
▁eruz	-9673
▁etti	-9674
▁etts	-9675
▁geno	-9676
▁gese	-9677
▁idal	-9678
▁ingó	-9679
▁karu	-9680
▁ksze	-9681
▁kúsz	-9682
▁lleg	-9683
▁lügy	-9684
▁ndék	-9685
▁ndít	-9686
▁nyin	-9687
▁obal	-9688
▁obby	-9689
▁ocsá	-9690
▁odrá	-9691
▁oncz	-9692
▁opez	-9693
▁oste	-9694
▁otel	-9695
▁otty	-9696
▁owbo	-9697
▁pólu	-9698
▁ramo	-9699
▁rgan	-9700
▁sorá	-9701
▁spor	-9702
▁szoc	-9703
▁ségü	-9704
▁zelő	-9705
▁zeng	-9706
▁zlet	-9707
▁záll	-9708
▁ápol	-9709
▁átyi	-9710
▁ázmá	-9711
▁Texas	-9712
▁aguar	-9713
▁ahtar	-9714
▁astin	-9715
▁astro	-9716
▁atroc	-9717
▁deflá	-9718
▁döntö	-9719
▁ennis	-9720
▁etése	-9721
▁iasat	-9722
▁irror	-9723
▁konom	-9724
▁orbes	-9725
▁petes	-9726
▁ponty	-9727
▁rapid	-9728
▁recht	-9729
▁tlétá	-9730
▁áadás	-9731
▁életé	-9732
mb	-9733
rg	-9734
xi	-9735
ena	-9736
rau	-9737
uka	-9738
▁4)	-9739
▁FK	-9740
▁OS	-9741
▁Sy	-9742
▁VA	-9743
▁dg	-9744
ezon	-9745
▁111	-9746
▁13,	-9747
▁185	-9748
▁6,8	-9749
▁6:7	-9750
▁8,5	-9751
▁Bau	-9752
▁EPA	-9753
▁ESP	-9754
▁Han	-9755
▁ISZ	-9756
▁NAC	-9757
▁OKF	-9758
▁Ray	-9759
▁SDK	-9760
▁Sör	-9761
▁Vxd	-9762
▁agó	-9763
▁déd	-9764
▁eyn	-9765
▁iam	-9766
▁ict	-9767
▁ild	-9768
▁ilk	-9769
▁iri	-9770
▁jaz	-9771
▁kít	-9772
▁köp	-9773
▁lhe	-9774
▁lmé	-9775
▁nis	-9776
▁nén	-9777
▁oós	-9778
▁ses	-9779
▁szm	-9780
▁sző	-9781
▁uso	-9782
▁vít	-9783
▁yem	-9784
▁zön	-9785
▁áky	-9786
▁égő	-9787
▁öbl	-9788
▁ősö	-9789
▁Avar	-9790
▁Buzz	-9791
▁Trav	-9792
▁aast	-9793
▁anal	-9794
▁anni	-9795
▁apat	-9796
▁argó	-9797
▁arti	-9798
▁azán	-9799
▁bago	-9800
▁bika	-9801
▁béka	-9802
▁cagó	-9803
▁cion	-9804
▁dult	-9805
▁dögl	-9806
▁eith	-9807
▁elyn	-9808
▁erry	-9809
▁gyet	-9810
▁ions	-9811
▁izmo	-9812
▁kele	-9813
▁konf	-9814
▁kony	-9815
▁logy	-9816
▁lván	-9817
▁ndel	-9818
▁nyig	-9819
▁onan	-9820
▁ordí	-9821
▁over	-9822
▁pole	-9823
▁raun	-9824
▁rier	-9825
▁rill	-9826
▁rnok	-9827
▁rond	-9828
▁sych	-9829
▁szim	-9830
▁tini	-9831
▁tork	-9832
▁trau	-9833
▁vona	-9834
▁zzuk	-9835
▁ősen	-9836
▁IDESZ	-9837
▁Madar	-9838
▁Maple	-9839
▁Yahoo	-9840
▁acqui	-9841
▁arifá	-9842
▁atyja	-9843
▁eteor	-9844
▁gyáva	-9845
▁hason	-9846
▁kacag	-9847
▁mayer	-9848
▁megál	-9849
▁paktu	-9850
▁ritká	-9851
▁torzu	-9852
▁tségé	-9853
▁zezon	-9854
▁zombi	-9855
▁ökőár	-9856
IG	-9857
af	-9858
iW	-9859
so	-9860
▁	-9861
azí	-9862
cio	-9863
gya	-9864
oro	-9865
ost	-9866
▁(8	-9867
▁1:	-9868
▁5)	-9869
▁DC	-9870
▁DE	-9871
▁Ep	-9872
▁Fh	-9873
▁LG	-9874
▁Lő	-9875
▁TT	-9876
▁cr	-9877
▁124	-9878
▁2-5	-9879
▁225	-9880
▁330	-9881
▁5,3	-9882
▁6,4	-9883
▁6-7	-9884
▁7,1	-9885
▁7,6	-9886
▁7:5	-9887
▁Eag	-9888
▁FHB	-9889
▁For	-9890
▁Kék	-9891
▁MCF	-9892
▁MMK	-9893
▁OEP	-9894
▁PPO	-9895
▁Par	-9896
▁Ura	-9897
▁amv	-9898
▁aál	-9899
▁bah	-9900
▁bul	-9901
▁but	-9902
▁cat	-9903
▁dne	-9904
▁egí	-9905
▁gis	-9906
▁hot	-9907
▁inő	-9908
▁kto	-9909
▁led	-9910
▁lts	-9911
▁neo	-9912
▁nős	-9913
▁oke	-9914
▁oon	-9915
▁oty	-9916
▁ovo	-9917
▁pis	-9918
▁rma	-9919
▁rrá	-9920
▁sbe	-9921
▁szú	-9922
▁tea	-9923
▁uiz	-9924
▁uny	-9925
▁use	-9926
▁zdá	-9927
▁zól	-9928
▁Íme	-9929
▁été	-9930
▁óki	-9931
▁öle	-9932
▁Cruz	-9933
▁Ping	-9934
▁abul	-9935
▁adil	-9936
▁adna	-9937
▁aine	-9938
▁ajcs	-9939
▁ally	-9940
▁anar	-9941
▁aras	-9942
▁arat	-9943
▁arku	-9944
▁arsh	-9945
▁arty	-9946
▁atra	-9947
▁aure	-9948
▁basz	-9949
▁cati	-9950
▁diká	-9951
▁each	-9952
▁eafs	-9953
▁eddy	-9954
▁egna	-9955
▁eich	-9956
▁ellu	-9957
▁enjá	-9958
▁enos	-9959
▁enve	-9960
▁ezér	-9961
▁geng	-9962
▁grin	-9963
▁hrow	-9964
▁iWiW	-9965
▁iaco	-9966
▁leas	-9967
▁lier	-9968
▁pecs	-9969
▁pele	-9970
▁pool	-9971
▁póli	-9972
▁reak	-9973
▁ritz	-9974
▁rund	-9975
▁sarc	-9976
▁teau	-9977
▁tenn	-9978
▁tolv	-9979
▁trom	-9980
▁tump	-9981
▁udán	-9982
▁ujza	-9983
▁vább	-9984
▁wich	-9985
▁yörg	-9986
▁zere	-9987
▁zülő	-9988
▁óliá	-9989
▁öncz	-9990
▁ötty	-9991
▁őkap	-9992
▁Ouatt	-9993
▁abuli	-9994
▁arréb	-9995
▁aukee	-9996
▁brazí	-9997
▁eiszd	-9998
▁ejtet	-9999
▁entai	-10000
▁kötel	-10001
▁lemmá	-10002
▁manga	-10003
▁máriá	-10004
▁nowbo	-10005
▁nyakk	-10006
▁onrad	-10007
▁orbás	-10008
▁ordít	-10009
▁perto	-10010
▁poszt	-10011
▁rigád	-10012
▁sugár	-10013
▁tenst	-10014
▁táska	-10015
▁tásra	-10016
Jó	-10017
PA	-10018
PM	-10019
SI	-10020
VB	-10021
iu	-10022
ji	-10023
pu	-10024
rc	-10025
ÁG	-10026
ijd	-10027
iko	-10028
lyá	-10029
ots	-10030
rió	-10031
umm	-10032
zes	-10033
▁AK	-10034
▁AX	-10035
▁GH	-10036
▁KB	-10037
▁On	-10038
▁SD	-10039
▁SN	-10040
▁VM	-10041
▁cl	-10042
▁fy	-10043
▁ji	-10044
▁sn	-10045
arte	-10046
arth	-10047
▁145	-10048
▁20,	-10049
▁5,1	-10050
▁5,4	-10051
▁5,7	-10052
▁6,3	-10053
▁7,2	-10054
▁850	-10055
▁Amy	-10056
▁Apa	-10057
▁ESA	-10058
▁GfK	-10059
▁Jay	-10060
▁Jon	-10061
▁Jön	-10062
▁MAB	-10063
▁Rak	-10064
▁Vxf	-10065
▁WBA	-10066
▁WBO	-10067
▁WSJ	-10068
▁WTI	-10069
▁ecz	-10070
▁eek	-10071
▁ekó	-10072
▁elz	-10073
▁icc	-10074
▁ick	-10075
▁ilé	-10076
▁ish	-10077
▁kiá	-10078
▁kén	-10079
▁láp	-10080
▁lúg	-10081
▁mág	-10082
▁ncé	-10083
▁pam	-10084
▁rib	-10085
▁rze	-10086
▁szv	-10087
▁tjá	-10088
▁yte	-10089
▁ölc	-10090
▁üss	-10091
▁Linu	-10092
▁Pink	-10093
▁Roos	-10094
▁Rosa	-10095
▁abri	-10096
▁akul	-10097
▁andy	-10098
▁antó	-10099
▁anub	-10100
▁anyó	-10101
▁arac	-10102
▁arin	-10103
▁aror	-10104
▁arró	-10105
▁auro	-10106
▁bble	-10107
▁bont	-10108
▁bury	-10109
▁débb	-10110
▁dísz	-10111
▁dömp	-10112
▁elke	-10113
▁enno	-10114
▁gget	-10115
▁grém	-10116
▁grén	-10117
▁imén	-10118
▁inog	-10119
▁iójá	-10120
▁jeru	-10121
▁king	-10122
▁légy	-10123
▁ndok	-10124
▁nett	-10125
▁nier	-10126
▁niós	-10127
▁nyei	-10128
▁ogyó	-10129
▁olle	-10130
▁ollá	-10131
▁omen	-10132
▁ozin	-10133
▁oémi	-10134
▁pász	-10135
▁resc	-10136
▁rgiz	-10137
▁rkel	-10138
▁rrow	-10139
▁rwin	-10140
▁sztü	-10141
▁szúr	-10142
▁sély	-10143
▁talk	-10144
▁tast	-10145
▁tájé	-10146
▁ulzu	-10147
▁Ausch	-10148
▁Trade	-10149
▁agner	-10150
▁andle	-10151
▁andár	-10152
▁arbon	-10153
▁arino	-10154
▁azany	-10155
▁esley	-10156
▁etség	-10157
▁etője	-10158
▁ieder	-10159
▁inder	-10160
▁káder	-10161
▁latya	-10162
▁lette	-10163
▁marhá	-10164
▁mogat	-10165
▁múmiá	-10166
▁neijd	-10167
▁osító	-10168
▁romba	-10169
▁ségve	-10170
▁torká	-10171
▁zomba	-10172
▁édiká	-10173
.;	-10174
EG	-10175
oy	-10176
rk	-10177
anó	-10178
day	-10179
izz	-10180
máz	-10181
rat	-10182
vic	-10183
zso	-10184
zzi	-10185
éri	-10186
▁-3	-10187
▁Ca	-10188
▁EF	-10189
▁HU	-10190
▁TC	-10191
▁Ta	-10192
▁UV	-10193
▁Yu	-10194
▁dű	-10195
▁iT	-10196
▁vk	-10197
▁zr	-10198
▁206	-10199
▁272	-10200
▁4,9	-10201
▁440	-10202
▁530	-10203
▁8,7	-10204
▁Abu	-10205
▁Aug	-10206
▁Bxa	-10207
▁CSU	-10208
▁KEK	-10209
▁MOM	-10210
▁OVI	-10211
▁Old	-10212
▁OÉT	-10213
▁Som	-10214
▁Top	-10215
▁VIP	-10216
▁VSE	-10217
▁aid	-10218
▁auf	-10219
▁aur	-10220
▁buc	-10221
▁imb	-10222
▁lfo	-10223
▁lőr	-10224
▁rdé	-10225
▁reb	-10226
▁rno	-10227
▁ské	-10228
▁zas	-10229
▁árj	-10230
▁óny	-10231
▁ömb	-10232
▁úri	-10233
▁Busz	-10234
▁Lada	-10235
▁Líbi	-10236
▁Mali	-10237
▁Roda	-10238
▁UNES	-10239
▁Vénu	-10240
▁adai	-10241
▁ajkó	-10242
▁alic	-10243
▁ampá	-10244
▁attr	-10245
▁borz	-10246
▁búza	-10247
▁ciót	-10248
▁disz	-10249
▁dság	-10250
▁döng	-10251
▁edrá	-10252
▁ejút	-10253
▁enke	-10254
▁erhe	-10255
▁hill	-10256
▁jama	-10257
▁klán	-10258
▁kort	-10259
▁kürt	-10260
▁lind	-10261
▁llát	-10262
▁mark	-10263
▁nyál	-10264
▁olan	-10265
▁olyá	-10266
▁oris	-10267
▁ovak	-10268
▁púri	-10269
▁ragh	-10270
▁roni	-10271
▁sola	-10272
▁spal	-10273
▁tapa	-10274
▁tola	-10275
▁utch	-10276
▁yila	-10277
▁zsol	-10278
▁zter	-10279
▁zámí	-10280
▁árai	-10281
▁Aréna	-10282
▁MSZDP	-10283
▁Panat	-10284
▁alkin	-10285
▁ardio	-10286
▁barna	-10287
▁baszk	-10288
▁cskay	-10289
▁impre	-10290
▁karik	-10291
▁klemo	-10292
▁kordá	-10293
▁kréta	-10294
▁lássá	-10295
▁lázas	-10296
▁mártá	-10297
▁nyadi	-10298
▁obcat	-10299
▁odrav	-10300
▁puszt	-10301
▁ummer	-10302
▁zauer	-10303
▁zetés	-10304
▁ádári	-10305
▁áltai	-10306
▁átrak	-10307
BR	-10308
De	-10309
bál	-10310
chu	-10311
ere	-10312
kül	-10313
lyk	-10314
odi	-10315
use	-10316
éte	-10317
▁6)	-10318
▁Ec	-10319
▁IF	-10320
▁Jr	-10321
▁MH	-10322
▁NE	-10323
▁SM	-10324
▁UP	-10325
▁Uj	-10326
▁XL	-10327
▁kp	-10328
▁pH	-10329
▁uá	-10330
nyog	-10331
ábiá	-10332
▁104	-10333
▁112	-10334
▁117	-10335
▁2.0	-10336
▁4.,	-10337
▁5,8	-10338
▁7,8	-10339
▁ABS	-10340
▁Bod	-10341
▁Exc	-10342
▁Hbd	-10343
▁SCD	-10344
▁WBC	-10345
▁WTA	-10346
▁aly	-10347
▁dej	-10348
▁hys	-10349
▁héz	-10350
▁ibá	-10351
▁idi	-10352
▁irk	-10353
▁kic	-10354
▁kól	-10355
▁law	-10356
▁lőt	-10357
▁mám	-10358
▁nar	-10359
▁nzi	-10360
▁rto	-10361
▁yán	-10362
▁Ács	-10363
▁Ági	-10364
▁ásy	-10365
▁ötl	-10366
▁övi	-10367
▁Mikó	-10368
▁Pres	-10369
▁aban	-10370
▁acki	-10371
▁afal	-10372
▁aich	-10373
▁aior	-10374
▁akij	-10375
▁alja	-10376
▁ambo	-10377
▁amui	-10378
▁anuá	-10379
▁arha	-10380
▁arne	-10381
▁atak	-10382
▁atwi	-10383
▁aust	-10384
▁bány	-10385
▁dtak	-10386
▁dych	-10387
▁eier	-10388
▁esta	-10389
▁etle	-10390
▁etri	-10391
▁ezey	-10392
▁geom	-10393
▁gran	-10394
▁greg	-10395
▁ianc	-10396
▁ilic	-10397
▁ippo	-10398
▁ivár	-10399
▁kasá	-10400
▁kott	-10401
▁líra	-10402
▁noch	-10403
▁ntar	-10404
▁onas	-10405
▁onom	-10406
▁osch	-10407
▁race	-10408
▁remi	-10409
▁rezg	-10410
▁riff	-10411
▁rish	-10412
▁rtóz	-10413
▁sbou	-10414
▁slav	-10415
▁szku	-10416
▁szuk	-10417
▁szök	-10418
▁tabu	-10419
▁tain	-10420
▁teps	-10421
▁timf	-10422
▁udás	-10423
▁ursa	-10424
▁wein	-10425
▁ámbó	-10426
▁ásty	-10427
▁Fábiá	-10428
▁acram	-10429
▁akadá	-10430
▁alcea	-10431
▁anage	-10432
▁arcsi	-10433
▁ataki	-10434
▁ausen	-10435
▁avier	-10436
▁bishi	-10437
▁bogar	-10438
▁eambu	-10439
▁ettye	-10440
▁kirch	-10441
▁klímá	-10442
▁nyaka	-10443
▁operá	-10444
▁orpor	-10445
▁pakol	-10446
▁pdate	-10447
▁piter	-10448
▁plant	-10449
▁téglá	-10450
▁zugló	-10451
▁zület	-10452
▁élkül	-10453
▁únyog	-10454
IS	-10455
KE	-10456
OM	-10457
íp	-10458
ans	-10459
api	-10460
coa	-10461
ice	-10462
lik	-10463
nye	-10464
ono	-10465
ran	-10466
wer	-10467
▁07	-10468
▁3:	-10469
▁BP	-10470
▁It	-10471
▁KL	-10472
▁KM	-10473
▁SL	-10474
▁UC	-10475
▁py	-10476
▁-10	-10477
▁107	-10478
▁113	-10479
▁118	-10480
▁119	-10481
▁178	-10482
▁212	-10483
▁40.	-10484
▁54.	-10485
▁6.,	-10486
▁Alt	-10487
▁Alu	-10488
▁BKK	-10489
▁Blu	-10490
▁Bus	-10491
▁DTM	-10492
▁EST	-10493
▁KSE	-10494
▁Löv	-10495
▁Mór	-10496
▁Műc	-10497
▁NFM	-10498
▁NGM	-10499
▁RRI	-10500
▁Raj	-10501
▁USD	-10502
▁VSC	-10503
▁Vxe	-10504
▁afa	-10505
▁arh	-10506
▁car	-10507
▁dak	-10508
▁doz	-10509
▁dva	-10510
▁ewi	-10511
▁gyf	-10512
▁gót	-10513
▁hiv	-10514
▁hím	-10515
▁iTu	-10516
▁iab	-10517
▁kma	-10518
▁nád	-10519
▁orc	-10520
▁osp	-10521
▁rgy	-10522
▁rja	-10523
▁rub	-10524
▁rün	-10525
▁stm	-10526
▁tők	-10527
▁váb	-10528
▁Úti	-10529
▁árc	-10530
▁érü	-10531
▁önc	-10532
▁úga	-10533
▁ürt	-10534
▁Auré	-10535
▁MMKA	-10536
▁Mene	-10537
▁aber	-10538
▁algé	-10539
▁amár	-10540
▁apas	-10541
▁asel	-10542
▁atzi	-10543
▁auti	-10544
▁aver	-10545
▁bato	-10546
▁cine	-10547
▁dire	-10548
▁down	-10549
▁dríg	-10550
▁duzz	-10551
▁dwin	-10552
▁eese	-10553
▁enri	-10554
▁erne	-10555
▁eskó	-10556
▁euta	-10557
▁gren	-10558
▁hurt	-10559
▁ippi	-10560
▁kaja	-10561
▁kerí	-10562
▁lady	-10563
▁lasg	-10564
▁last	-10565
▁lias	-10566
▁limi	-10567
▁lébe	-10568
▁nybe	-10569
▁orsa	-10570
▁pofa	-10571
▁pódi	-10572
▁quil	-10573
▁rasz	-10574
▁reda	-10575
▁rest	-10576
▁rima	-10577
▁rime	-10578
▁romw	-10579
▁rost	-10580
▁ssee	-10581
▁star	-10582
▁stra	-10583
▁ttan	-10584
▁tárg	-10585
▁zakó	-10586
▁ário	-10587
▁Astrá	-10588
▁MSZMP	-10589
▁agreb	-10590
▁alcon	-10591
▁algor	-10592
▁alány	-10593
▁antio	-10594
▁aréna	-10595
▁aszal	-10596
▁babon	-10597
▁brand	-10598
▁ector	-10599
▁erzet	-10600
▁etkez	-10601
▁gregá	-10602
▁gzett	-10603
▁hatat	-10604
▁kredi	-10605
▁lenti	-10606
▁letbe	-10607
▁orenz	-10608
▁ozart	-10609
▁pyker	-10610
▁rival	-10611
▁rugóz	-10612
▁rácso	-10613
▁sapka	-10614
▁sikka	-10615
▁stand	-10616
▁stons	-10617
▁szárm	-10618
▁sógor	-10619
▁teaua	-10620
▁trand	-10621
▁tumpf	-10622
▁tágab	-10623
▁vanna	-10624
▁varte	-10625
▁értel	-10626
▁ítván	-10627
Ma	-10628
WF	-10629
lu	-10630
zé	-10631
év	-10632
aly	-10633
czó	-10634
ith	-10635
opá	-10636
qua	-10637
ter	-10638
zen	-10639
▁>>	-10640
▁CM	-10641
▁CP	-10642
▁DK	-10643
▁ET	-10644
▁Fű	-10645
▁GE	-10646
▁Hh	-10647
▁IM	-10648
▁LP	-10649
▁MÚ	-10650
▁Ró	-10651
▁SS	-10652
▁Vr	-10653
▁123	-10654
▁134	-10655
▁172	-10656
▁18,	-10657
▁21,	-10658
▁22,	-10659
▁35.	-10660
▁41.	-10661
▁50.	-10662
▁6,6	-10663
▁Ian	-10664
▁LTE	-10665
▁Mel	-10666
▁NAÜ	-10667
▁NFÜ	-10668
▁NHH	-10669
▁Nők	-10670
▁PKK	-10671
▁baz	-10672
▁bús	-10673
▁cta	-10674
▁dil	-10675
▁dát	-10676
▁fxe	-10677
▁jat	-10678
▁kűr	-10679
▁low	-10680
▁lyt	-10681
▁mei	-10682
▁mpo	-10683
▁nea	-10684
▁okz	-10685
▁stu	-10686
▁tbc	-10687
▁uil	-10688
▁urn	-10689
▁yir	-10690
▁yna	-10691
▁zia	-10692
▁zán	-10693
▁zét	-10694
▁ölk	-10695
▁ürd	-10696
▁Adeb	-10697
▁Ajká	-10698
▁Alac	-10699
▁Ganz	-10700
▁IKEA	-10701
▁Léná	-10702
▁Prah	-10703
▁Utre	-10704
▁achu	-10705
▁acsi	-10706
▁agne	-10707
▁akta	-10708
▁alkó	-10709
▁almo	-10710
▁amid	-10711
▁anom	-10712
▁asso	-10713
▁atag	-10714
▁atha	-10715
▁baju	-10716
▁edad	-10717
▁enis	-10718
▁eryl	-10719
▁erít	-10720
▁esne	-10721
▁gier	-10722
▁gyík	-10723
▁ibir	-10724
▁idan	-10725
▁iere	-10726
▁iter	-10727
▁itty	-10728
▁karó	-10729
▁kron	-10730
▁kuká	-10731
▁lazu	-10732
▁líva	-10733
▁menn	-10734
▁mmár	-10735
▁nyod	-10736
▁nyög	-10737
▁onyo	-10738
▁ordo	-10739
▁prém	-10740
▁ramm	-10741
▁rgia	-10742
▁rtes	-10743
▁rémá	-10744
▁sika	-10745
▁stag	-10746
▁text	-10747
▁uscs	-10748
▁usta	-10749
▁veta	-10750
▁ynch	-10751
▁zelé	-10752
▁zíne	-10753
▁álko	-10754
▁áras	-10755
▁éder	-10756
▁érez	-10757
▁Auris	-10758
▁Dankó	-10759
▁Earth	-10760
▁abads	-10761
▁agyag	-10762
▁alczó	-10763
▁apucs	-10764
▁arina	-10765
▁arten	-10766
▁atyor	-10767
▁azság	-10768
▁dióta	-10769
▁eikki	-10770
▁erena	-10771
▁guile	-10772
▁gőzer	-10773
▁iguel	-10774
▁ingli	-10775
▁isher	-10776
▁iuzzi	-10777
▁kacsá	-10778
▁kamrá	-10779
▁kezde	-10780
▁kérdé	-10781
▁ledon	-10782
▁lovat	-10783
▁majmo	-10784
▁ofron	-10785
▁okrat	-10786
▁rendi	-10787
▁rovás	-10788
▁savin	-10789
▁spray	-10790
▁ségén	-10791
▁tarkí	-10792
▁teréz	-10793
▁tuart	-10794
▁ultim	-10795
▁ulyka	-10796
▁veszé	-10797
▁yllen	-10798
▁ztéri	-10799
▁ábban	-10800
▁ártír	-10801
▁érdez	-10802
AK	-10803
IC	-10804
LC	-10805
fl	-10806
rs	-10807
▁‭	-10808
SZH	-10809
aja	-10810
cli	-10811
csk	-10812
ene	-10813
han	-10814
ins	-10815
ite	-10816
ndo	-10817
roe	-10818
uto	-10819
áry	-10820
édi	-10821
▁-7	-10822
▁At	-10823
▁BT	-10824
▁Es	-10825
▁Gm	-10826
▁HS	-10827
▁OC	-10828
▁PD	-10829
▁XP	-10830
SZSZ	-10831
▁(2)	-10832
▁109	-10833
▁136	-10834
▁183	-10835
▁188	-10836
▁276	-10837
▁277	-10838
▁290	-10839
▁38.	-10840
▁420	-10841
▁65.	-10842
▁7-8	-10843
▁9,6	-10844
▁ATV	-10845
▁Bag	-10846
▁CFR	-10847
▁Col	-10848
▁ING	-10849
▁KGB	-10850
▁Kik	-10851
▁Mád	-10852
▁Pop	-10853
▁Vxg	-10854
▁asn	-10855
▁asp	-10856
▁dvd	-10857
▁döf	-10858
▁döt	-10859
▁düb	-10860
▁dős	-10861
▁eby	-10862
▁esc	-10863
▁gio	-10864
▁géb	-10865
▁jar	-10866
▁jdo	-10867
▁nix	-10868
▁not	-10869
▁obe	-10870
▁ozo	-10871
▁ozá	-10872
▁rtá	-10873
▁rum	-10874
▁sur	-10875
▁sót	-10876
▁tót	-10877
▁tőt	-10878
▁vül	-10879
▁you	-10880
▁zsu	-10881
▁átó	-10882
▁öde	-10883
▁Abdu	-10884
▁BVSC	-10885
▁EBRD	-10886
▁SDKÚ	-10887
▁adia	-10888
▁angk	-10889
▁ared	-10890
▁arek	-10891
▁arká	-10892
▁arxi	-10893
▁avít	-10894
▁babé	-10895
▁born	-10896
▁béte	-10897
▁emat	-10898
▁erbá	-10899
▁etal	-10900
▁fina	-10901
▁grot	-10902
▁gurí	-10903
▁iege	-10904
▁irch	-10905
▁isto	-10906
▁kons	-10907
▁latb	-10908
▁loká	-10909
▁loud	-10910
▁lton	-10911
▁lált	-10912
▁nnov	-10913
▁ogue	-10914
▁olli	-10915
▁oppá	-10916
▁pake	-10917
▁plaz	-10918
▁raga	-10919
▁rdon	-10920
▁rses	-10921
▁réta	-10922
▁róma	-10923
▁siká	-10924
▁stel	-10925
▁szbe	-10926
▁tony	-10927
▁ugar	-10928
▁unda	-10929
▁util	-10930
▁vivő	-10931
▁voln	-10932
▁wart	-10933
▁yűjt	-10934
▁ztár	-10935
▁ájko	-10936
▁éren	-10937
▁ódva	-10938
▁ópez	-10939
▁órah	-10940
▁Astor	-10941
▁Klíma	-10942
▁Mózes	-10943
▁adách	-10944
▁akult	-10945
▁ambia	-10946
▁antic	-10947
▁arald	-10948
▁arion	-10949
▁asabb	-10950
▁ataky	-10951
▁avigy	-10952
▁bánja	-10953
▁diéta	-10954
▁eedom	-10955
▁eprin	-10956
▁ewitt	-10957
▁ezelő	-10958
▁imitá	-10959
▁ingat	-10960
▁ittle	-10961
▁itzer	-10962
▁kavic	-10963
▁meopá	-10964
▁nanke	-10965
▁ochau	-10966
▁oczkó	-10967
▁ogdan	-10968
▁ogány	-10969
▁osley	-10970
▁oster	-10971
▁ozsik	-10972
▁retus	-10973
▁ripen	-10974
▁ritás	-10975
▁rmani	-10976
▁rnest	-10977
▁rudak	-10978
▁staur	-10979
▁sérül	-10980
▁tágas	-10981
▁umbai	-10982
▁vador	-10983
▁zsolc	-10984
▁ősebb	-10985
.)	-10986
20	-10987
AR	-10988
CS	-10989
DE	-10990
HS	-10991
SM	-10992
by	-10993
eo	-10994
▁‬	-10995
atu	-10996
csó	-10997
fel	-10998
húh	-10999
ica	-11000
lán	-11001
ret	-11002
ród	-11003
ulá	-11004
uru	-11005
usz	-11006
▁2)	-11007
▁2/	-11008
▁CV	-11009
▁HÖ	-11010
▁KE	-11011
▁KH	-11012
▁Pa	-11013
▁Tú	-11014
▁Up	-11015
▁WE	-11016
▁lü	-11017
▁uv	-11018
▁yé	-11019
▁ÖV	-11020
▁(10	-11021
▁1-4	-11022
▁139	-11023
▁5.)	-11024
▁6,1	-11025
▁8,2	-11026
▁8-9	-11027
▁950	-11028
▁Ale	-11029
▁Amm	-11030
▁BNP	-11031
▁Ban	-11032
▁CES	-11033
▁HUF	-11034
▁Kör	-11035
▁MRI	-11036
▁NFC	-11037
▁Néz	-11038
▁Pal	-11039
▁Rod	-11040
▁Vxb	-11041
▁adv	-11042
▁aig	-11043
▁azé	-11044
▁aís	-11045
▁cet	-11046
▁dre	-11047
▁eks	-11048
▁gxf	-11049
▁iar	-11050
▁icó	-11051
▁izé	-11052
▁lme	-11053
▁nex	-11054
▁nté	-11055
▁ocz	-11056
▁odg	-11057
▁oku	-11058
▁ozt	-11059
▁puk	-11060
▁reh	-11061
▁rfo	-11062
▁rou	-11063
▁sci	-11064
▁scs	-11065
▁scó	-11066
▁sál	-11067
▁tkö	-11068
▁tlé	-11069
▁uga	-11070
▁uon	-11071
▁vre	-11072
▁wat	-11073
▁yko	-11074
▁zló	-11075
▁záh	-11076
▁Évi	-11077
▁áká	-11078
▁étf	-11079
▁éti	-11080
▁öss	-11081
▁űen	-11082
▁BUDA	-11083
▁Koch	-11084
▁Manf	-11085
▁Pino	-11086
▁Puch	-11087
▁Trag	-11088
▁ahar	-11089
▁alez	-11090
▁aomi	-11091
▁apta	-11092
▁aram	-11093
▁arit	-11094
▁arol	-11095
▁asse	-11096
▁atur	-11097
▁aven	-11098
▁azza	-11099
▁band	-11100
▁brov	-11101
▁bünt	-11102
▁ctor	-11103
▁duma	-11104
▁eart	-11105
▁eeds	-11106
▁ekán	-11107
▁elix	-11108
▁emek	-11109
▁emle	-11110
▁enio	-11111
▁erga	-11112
▁eric	-11113
▁erno	-11114
▁etro	-11115
▁fali	-11116
▁fell	-11117
▁gate	-11118
▁gere	-11119
▁grad	-11120
▁górc	-11121
▁hanh	-11122
▁haro	-11123
▁inné	-11124
▁ipke	-11125
▁isio	-11126
▁ivas	-11127
▁kará	-11128
▁katy	-11129
▁kene	-11130
▁love	-11131
▁lází	-11132
▁mami	-11133
▁moto	-11134
▁muni	-11135
▁nati	-11136
▁nnye	-11137
▁nóta	-11138
▁ocke	-11139
▁odge	-11140
▁okka	-11141
▁oksá	-11142
▁orda	-11143
▁orre	-11144
▁ouli	-11145
▁pete	-11146
▁pile	-11147
▁rela	-11148
▁rivo	-11149
▁rles	-11150
▁rooy	-11151
▁ryst	-11152
▁rése	-11153
▁seré	-11154
▁sikl	-11155
▁skur	-11156
▁sára	-11157
▁takt	-11158
▁talá	-11159
▁telj	-11160
▁tobz	-11161
▁turm	-11162
▁valh	-11163
▁zari	-11164
▁zerk	-11165
▁zert	-11166
▁zése	-11167
▁áját	-11168
▁ánam	-11169
▁árká	-11170
▁énye	-11171
▁űsor	-11172
▁DSZSZ	-11173
▁MÚOSZ	-11174
▁abhúh	-11175
▁ailer	-11176
▁alant	-11177
▁allup	-11178
▁ansas	-11179
▁arren	-11180
▁audio	-11181
▁audit	-11182
▁avies	-11183
▁bahce	-11184
▁cukor	-11185
▁ejlon	-11186
▁elmúl	-11187
▁ergel	-11188
▁ergia	-11189
▁ernet	-11190
▁ettin	-11191
▁gulyá	-11192
▁hatós	-11193
▁ibaly	-11194
▁icskó	-11195
▁irond	-11196
▁istel	-11197
▁járda	-11198
▁kardo	-11199
▁lamok	-11200
▁lipse	-11201
▁lobog	-11202
▁logat	-11203
▁lóver	-11204
▁mitra	-11205
▁ndeav	-11206
▁nonim	-11207
▁noper	-11208
▁nyakl	-11209
▁oklin	-11210
▁oltay	-11211
▁ontag	-11212
▁orgen	-11213
▁panor	-11214
▁próza	-11215
▁raham	-11216
▁rágcs	-11217
▁short	-11218
▁steig	-11219
▁szlan	-11220
▁sztin	-11221
▁terap	-11222
▁válla	-11223
▁zabál	-11224
▁zembe	-11225
▁zsiká	-11226
▁öderá	-11227
▁ökség	-11228
AT	-11229
BE	-11230
IP	-11231
gó	-11232
ju	-11233
ké	-11234
sy	-11235
yi	-11236
SEV	-11237
ags	-11238
agá	-11239
aka	-11240
bie	-11241
oke	-11242
ola	-11243
ons	-11244
ori	-11245
▁#2	-11246
▁-9	-11247
▁AU	-11248
▁Aa	-11249
▁EG	-11250
▁EZ	-11251
▁Ka	-11252
▁TH	-11253
▁TÁ	-11254
▁Xi	-11255
▁bk	-11256
▁vv	-11257
▁Út	-11258
uble	-11259
árká	-11260
▁101	-11261
▁128	-11262
▁155	-11263
▁193	-11264
▁204	-11265
▁264	-11266
▁4-4	-11267
▁480	-11268
▁6.)	-11269
▁60.	-11270
▁6:1	-11271
▁7,4	-11272
▁70.	-11273
▁8,8	-11274
▁Bas	-11275
▁Bin	-11276
▁FSV	-11277
▁FTS	-11278
▁Gúr	-11279
▁KTM	-11280
▁Ken	-11281
▁Law	-11282
▁MGE	-11283
▁MeH	-11284
▁NKK	-11285
▁Nea	-11286
▁Nix	-11287
▁Nos	-11288
▁PCC	-11289
▁PRT	-11290
▁Roh	-11291
▁Sax	-11292
▁Tar	-11293
▁Túr	-11294
▁Val	-11295
▁Vxa	-11296
▁Vác	-11297
▁aag	-11298
▁acz	-11299
▁ajk	-11300
▁axb	-11301
▁bas	-11302
▁bau	-11303
▁dsz	-11304
▁edá	-11305
▁eel	-11306
▁eip	-11307
▁emz	-11308
▁eum	-11309
▁ezs	-11310
▁fax	-11311
▁fém	-11312
▁gyr	-11313
▁inb	-11314
▁ith	-11315
▁itó	-11316
▁kta	-11317
▁kót	-11318
▁lec	-11319
▁leh	-11320
▁luj	-11321
▁ohl	-11322
▁olh	-11323
▁olz	-11324
▁oun	-11325
▁oya	-11326
▁pai	-11327
▁pja	-11328
▁rév	-11329
▁sic	-11330
▁tón	-11331
▁tői	-11332
▁udu	-11333
▁ume	-11334
▁zny	-11335
▁zór	-11336
▁évő	-11337
▁íko	-11338
▁örs	-11339
▁üti	-11340
▁Arad	-11341
▁Avan	-11342
▁HÖOK	-11343
▁PLER	-11344
▁Pana	-11345
▁TASZ	-11346
▁akup	-11347
▁alfi	-11348
▁amil	-11349
▁amir	-11350
▁appy	-11351
▁arch	-11352
▁asal	-11353
▁asan	-11354
▁atkó	-11355
▁ausz	-11356
▁bará	-11357
▁blin	-11358
▁boly	-11359
▁bugy	-11360
▁búvó	-11361
▁echt	-11362
▁eidi	-11363
▁ejci	-11364
▁elic	-11365
▁ello	-11366
▁ench	-11367
▁enei	-11368
▁enyá	-11369
▁epsi	-11370
▁esar	-11371
▁ethe	-11372
▁etty	-11373
▁foko	-11374
▁gitá	-11375
▁gumi	-11376
▁görg	-11377
▁idge	-11378
▁ilma	-11379
▁immo	-11380
▁inch	-11381
▁itti	-11382
▁izot	-11383
▁kolt	-11384
▁kóst	-11385
▁lade	-11386
▁lema	-11387
▁leur	-11388
▁lian	-11389
▁lica	-11390
▁lics	-11391
▁lvis	-11392
▁main	-11393
▁maró	-11394
▁mród	-11395
▁ndam	-11396
▁nyes	-11397
▁nyós	-11398
▁odel	-11399
▁okha	-11400
▁ommy	-11401
▁otto	-11402
▁ound	-11403
▁rcin	-11404
▁rlem	-11405
▁rogr	-11406
▁rtol	-11407
▁ruge	-11408
▁rülé	-11409
▁stri	-11410
▁szká	-11411
▁súro	-11412
▁tanh	-11413
▁thai	-11414
▁tota	-11415
▁urbo	-11416
▁urki	-11417
▁vans	-11418
▁vicz	-11419
▁yárt	-11420
▁zvet	-11421
▁ángó	-11422
▁árba	-11423
▁érde	-11424
▁ódot	-11425
▁Bajor	-11426
▁Cruze	-11427
▁alact	-11428
▁alley	-11429
▁antif	-11430
▁apuká	-11431
▁arcía	-11432
▁arden	-11433
▁ariah	-11434
▁arkiv	-11435
▁atrac	-11436
▁avant	-11437
▁bobos	-11438
▁borsó	-11439
▁catio	-11440
▁ctavi	-11441
▁egíts	-11442
▁fájás	-11443
▁gamma	-11444
▁iggye	-11445
▁imnaz	-11446
▁ingle	-11447
▁insta	-11448
▁iszku	-11449
▁lamin	-11450
▁lazáb	-11451
▁lazán	-11452
▁leton	-11453
▁medál	-11454
▁mundo	-11455
▁mámor	-11456
▁márka	-11457
▁nslet	-11458
▁nyenc	-11459
▁ogram	-11460
▁ondol	-11461
▁ourke	-11462
▁pofoz	-11463
▁quare	-11464
▁raian	-11465
▁rgánu	-11466
▁rince	-11467
▁skurz	-11468
▁sztet	-11469
▁torta	-11470
▁uszin	-11471
▁vertá	-11472
▁ánamó	-11473
▁ányba	-11474
▁átrix	-11475
▁észül	-11476
▁ürgen	-11477
HT	-11478
IT	-11479
cá	-11480
nc	-11481
ow	-11482
rí	-11483
zy	-11484
ÉK	-11485
▁ô	-11486
PMG	-11487
aro	-11488
eta	-11489
ize	-11490
lic	-11491
nkó	-11492
osz	-11493
ová	-11494
rie	-11495
sch	-11496
tas	-11497
und	-11498
▁+2	-11499
▁-4	-11500
▁AL	-11501
▁AT	-11502
▁BH	-11503
▁IL	-11504
▁IQ	-11505
▁PO	-11506
▁WC	-11507
▁mk	-11508
▁xg	-11509
▁121	-11510
▁122	-11511
▁186	-11512
▁245	-11513
▁3.)	-11514
▁380	-11515
▁5-1	-11516
▁5.,	-11517
▁680	-11518
▁7,7	-11519
▁8,3	-11520
▁9,8	-11521
▁Ach	-11522
▁Ann	-11523
▁Bxb	-11524
▁EHF	-11525
▁Fxb	-11526
▁Hou	-11527
▁ITA	-11528
▁KIM	-11529
▁LEN	-11530
▁LHC	-11531
▁Lak	-11532
▁Liz	-11533
▁Nou	-11534
▁PPP	-11535
▁PSA	-11536
▁Szú	-11537
▁Tea	-11538
▁WWF	-11539
▁amn	-11540
▁aya	-11541
▁ays	-11542
▁ble	-11543
▁boz	-11544
▁bák	-11545
▁dop	-11546
▁duc	-11547
▁ehm	-11548
▁ejg	-11549
▁euf	-11550
▁fól	-11551
▁ico	-11552
▁igó	-11553
▁ipo	-11554
▁jes	-11555
▁kke	-11556
▁kür	-11557
▁lys	-11558
▁nut	-11559
▁nyó	-11560
▁nőr	-11561
▁oin	-11562
▁oom	-11563
▁oph	-11564
▁pdf	-11565
▁rdu	-11566
▁rdí	-11567
▁rhe	-11568
▁sef	-11569
▁sum	-11570
▁tee	-11571
▁way	-11572
▁yag	-11573
▁zde	-11574
▁zón	-11575
▁zúg	-11576
▁ády	-11577
▁ívá	-11578
▁ógi	-11579
▁üll	-11580
▁ülé	-11581
▁Amne	-11582
▁KPMG	-11583
▁MKIK	-11584
▁Maxi	-11585
▁Mona	-11586
▁Nani	-11587
▁Pete	-11588
▁Pons	-11589
▁SZTE	-11590
▁Wizz	-11591
▁YSEV	-11592
▁Zuma	-11593
▁adiá	-11594
▁ager	-11595
▁agyá	-11596
▁aico	-11597
▁akba	-11598
▁akut	-11599
▁aków	-11600
▁alim	-11601
▁angu	-11602
▁antr	-11603
▁anyj	-11604
▁arbo	-11605
▁ariu	-11606
▁asza	-11607
▁asít	-11608
▁atic	-11609
▁awre	-11610
▁bion	-11611
▁búzá	-11612
▁csúc	-11613
▁dnak	-11614
▁dobe	-11615
▁domo	-11616
▁duló	-11617
▁dörg	-11618
▁eira	-11619
▁eiss	-11620
▁ento	-11621
▁esum	-11622
▁here	-11623
▁hier	-11624
▁ical	-11625
▁iner	-11626
▁ious	-11627
▁ipax	-11628
▁jörg	-11629
▁kasi	-11630
▁kevé	-11631
▁ldus	-11632
▁lers	-11633
▁life	-11634
▁lufi	-11635
▁láma	-11636
▁okas	-11637
▁oldá	-11638
▁ológ	-11639
▁omic	-11640
▁omin	-11641
▁orst	-11642
▁orti	-11643
▁ouré	-11644
▁plus	-11645
▁reat	-11646
▁regg	-11647
▁rien	-11648
▁rion	-11649
▁rtúr	-11650
▁sapa	-11651
▁skin	-11652
▁sszo	-11653
▁tobb	-11654
▁uczi	-11655
▁ulth	-11656
▁uter	-11657
▁utio	-11658
▁váry	-11659
▁wald	-11660
▁west	-11661
▁ylan	-11662
▁zvén	-11663
▁ádáz	-11664
▁ález	-11665
▁álto	-11666
▁áner	-11667
▁ánni	-11668
▁ápió	-11669
▁ástá	-11670
▁átog	-11671
▁ázel	-11672
▁éger	-11673
▁égez	-11674
▁ésar	-11675
▁ézag	-11676
▁ísér	-11677
▁örge	-11678
▁BUDAP	-11679
▁Panda	-11680
▁Rohác	-11681
▁Sárká	-11682
▁aborc	-11683
▁ameru	-11684
▁andik	-11685
▁andor	-11686
▁antro	-11687
▁arcel	-11688
▁argin	-11689
▁artás	-11690
▁aszás	-11691
▁atrik	-11692
▁bites	-11693
▁bárká	-11694
▁dogan	-11695
▁ellin	-11696
▁eminá	-11697
▁endri	-11698
▁eotíp	-11699
▁eriva	-11700
▁ginla	-11701
▁hatch	-11702
▁iener	-11703
▁indle	-11704
▁izeté	-11705
▁kalác	-11706
▁kompr	-11707
▁kotró	-11708
▁latan	-11709
▁later	-11710
▁lavia	-11711
▁lazac	-11712
▁liens	-11713
▁livan	-11714
▁lobex	-11715
▁marat	-11716
▁nautá	-11717
▁ogdán	-11718
▁otyog	-11719
▁plazm	-11720
▁reder	-11721
▁rencs	-11722
▁rszag	-11723
▁rányí	-11724
▁savak	-11725
▁stutt	-11726
▁szaga	-11727
▁szlav	-11728
▁szélt	-11729
▁talap	-11730
▁track	-11731
▁traff	-11732
▁uerto	-11733
▁uskin	-11734
▁uther	-11735
▁wartz	-11736
▁ztott	-11737
▁ástyá	-11738
▁ászká	-11739
▁áthor	-11740
▁átrab	-11741
▁éleon	-11742
▁őrinc	-11743
50	-11744
FO	-11745
FT	-11746
GO	-11747
NY	-11748
RK	-11749
RS	-11750
py	-11751
yk	-11752
És	-11753
ám	-11754
▁Š	-11755
Pal	-11756
agu	-11757
ata	-11758
cak	-11759
etá	-11760
iki	-11761
jal	-11762
lip	-11763
llu	-11764
man	-11765
nyó	-11766
uve	-11767
vin	-11768
ári	-11769
éne	-11770
örg	-11771
▁!!	-11772
▁BB	-11773
▁CL	-11774
▁IE	-11775
▁JA	-11776
▁VT	-11777
▁Yi	-11778
▁dú	-11779
▁sw	-11780
▁tz	-11781
▁1.6	-11782
▁108	-11783
▁116	-11784
▁126	-11785
▁184	-11786
▁192	-11787
▁205	-11788
▁278	-11789
▁3,0	-11790
▁34.	-11791
▁36.	-11792
▁375	-11793
▁5,9	-11794
▁5-4	-11795
▁6,7	-11796
▁8,1	-11797
▁8,9	-11798
▁9,3	-11799
▁Any	-11800
▁Arn	-11801
▁Bac	-11802
▁Bxg	-11803
▁CSA	-11804
▁Day	-11805
▁Dec	-11806
▁EMI	-11807
▁Eti	-11808
▁FVB	-11809
▁HTC	-11810
▁Isa	-11811
▁MEH	-11812
▁Mec	-11813
▁Pap	-11814
▁RAV	-11815
▁RNS	-11816
▁SIM	-11817
▁SZK	-11818
▁Sme	-11819
▁You	-11820
▁diu	-11821
▁díc	-11822
▁dív	-11823
▁döc	-11824
▁eau	-11825
▁egó	-11826
▁erp	-11827
▁ghy	-11828
▁hab	-11829
▁hry	-11830
▁hur	-11831
▁imu	-11832
▁ips	-11833
▁iár	-11834
▁kko	-11835
▁kog	-11836
▁lau	-11837
▁lug	-11838
▁lvi	-11839
▁maf	-11840
▁mby	-11841
▁nfe	-11842
▁nod	-11843
▁nyl	-11844
▁oek	-11845
▁tir	-11846
▁ubo	-11847
▁ude	-11848
▁ury	-11849
▁voj	-11850
▁yep	-11851
▁zob	-11852
▁zof	-11853
▁zzi	-11854
▁Élő	-11855
▁árn	-11856
▁ásd	-11857
▁áts	-11858
▁öme	-11859
▁Abid	-11860
▁Amor	-11861
▁Axel	-11862
▁Baka	-11863
▁Budá	-11864
▁CERN	-11865
▁Drót	-11866
▁PKKB	-11867
▁REAC	-11868
▁SZKA	-11869
▁Tags	-11870
▁VOSZ	-11871
▁abel	-11872
▁acif	-11873
▁acto	-11874
▁adas	-11875
▁afar	-11876
▁agja	-11877
▁ajúd	-11878
▁allu	-11879
▁alph	-11880
▁ancz	-11881
▁anád	-11882
▁arai	-11883
▁aray	-11884
▁arov	-11885
▁artó	-11886
▁asad	-11887
▁asar	-11888
▁awas	-11889
▁azzi	-11890
▁borí	-11891
▁báty	-11892
▁békí	-11893
▁békü	-11894
▁eane	-11895
▁ecze	-11896
▁elan	-11897
▁elli	-11898
▁enat	-11899
▁endi	-11900
▁ercu	-11901
▁erde	-11902
▁ermó	-11903
▁etis	-11904
▁etrá	-11905
▁etőj	-11906
▁gazd	-11907
▁haci	-11908
▁iaci	-11909
▁ilip	-11910
▁inka	-11911
▁intu	-11912
▁intá	-11913
▁kacé	-11914
▁kend	-11915
▁klón	-11916
▁kurt	-11917
▁kuum	-11918
▁late	-11919
▁loga	-11920
▁lojá	-11921
▁lova	-11922
▁láda	-11923
▁líti	-11924
▁mege	-11925
▁mine	-11926
▁mont	-11927
▁nici	-11928
▁nyad	-11929
▁oche	-11930
▁ocht	-11931
▁ogly	-11932
▁okna	-11933
▁olly	-11934
▁ongy	-11935
▁opol	-11936
▁orgá	-11937
▁orko	-11938
▁otan	-11939
▁oter	-11940
▁ovar	-11941
▁prés	-11942
▁raff	-11943
▁rain	-11944
▁ream	-11945
▁rgio	-11946
▁ribu	-11947
▁ráns	-11948
▁sion	-11949
▁sner	-11950
▁sser	-11951
▁súcs	-11952
▁tems	-11953
▁toli	-11954
▁trik	-11955
▁tron	-11956
▁tube	-11957
▁ulin	-11958
▁unyi	-11959
▁urci	-11960
▁uszk	-11961
▁yert	-11962
▁yler	-11963
▁zsef	-11964
▁zárm	-11965
▁zést	-11966
▁ámbé	-11967
▁ányt	-11968
▁árra	-11969
▁ásik	-11970
▁ödés	-11971
▁ütty	-11972
▁őrin	-11973
▁Ambru	-11974
▁Györg	-11975
▁alder	-11976
▁allin	-11977
▁alpár	-11978
▁ammut	-11979
▁andur	-11980
▁apáry	-11981
▁arane	-11982
▁ardco	-11983
▁arrog	-11984
▁ayPal	-11985
▁boglá	-11986
▁ccaná	-11987
▁diver	-11988
▁ejgli	-11989
▁elügy	-11990
▁enség	-11991
▁gatyá	-11992
▁gerős	-11993
▁hnato	-11994
▁icská	-11995
▁ierar	-11996
▁inect	-11997
▁iszká	-11998
▁kalib	-11999
▁kanna	-12000
▁kaszt	-12001
▁konne	-12002
▁késik	-12003
▁latol	-12004
▁lorad	-12005
▁lírai	-12006
▁meste	-12007
▁nnita	-12008
▁nnyad	-12009
▁orcza	-12010
▁other	-12011
▁persz	-12012
▁plake	-12013
▁plató	-12014
▁prili	-12015
▁rande	-12016
▁rimor	-12017
▁riplá	-12018
▁ritkí	-12019
▁rombi	-12020
▁ryllu	-12021
▁shley	-12022
▁sztan	-12023
▁ságba	-12024
▁teriá	-12025
▁tobor	-12026
▁tuber	-12027
▁tájak	-12028
▁ultip	-12029
▁umari	-12030
▁uongo	-12031
▁ution	-12032
▁verly	-12033
▁áklyá	-12034
▁álhat	-12035
▁ánnyá	-12036
▁átong	-12037
▁átriu	-12038
AP	-12039
GC	-12040
KM	-12041
VI	-12042
fü	-12043
gh	-12044
ms	-12045
áy	-12046
▁à	-12047
MIX	-12048
NAS	-12049
ahi	-12050
cer	-12051
ckó	-12052
isi	-12053
jen	-12054
lif	-12055
lit	-12056
neu	-12057
nok	-12058
oll	-12059
ord	-12060
pac	-12061
res	-12062
roy	-12063
rán	-12064
say	-12065
umá	-12066
wea	-12067
zsa	-12068
▁#3	-12069
▁5/	-12070
▁AV	-12071
▁FP	-12072
▁GA	-12073
▁HA	-12074
▁LO	-12075
▁SG	-12076
▁SR	-12077
▁TR	-12078
▁WP	-12079
▁ić	-12080
▁pj	-12081
▁zn	-12082
▁(18	-12083
▁1,0	-12084
▁103	-12085
▁127	-12086
▁129	-12087
▁131	-12088
▁133	-12089
▁147	-12090
▁152	-12091
▁163	-12092
▁173	-12093
▁255	-12094
▁274	-12095
▁430	-12096
▁47.	-12097
▁48.	-12098
▁5-7	-12099
▁525	-12100
▁540	-12101
▁630	-12102
▁8,4	-12103
▁8,6	-12104
▁9,7	-12105
▁AMC	-12106
▁AMG	-12107
▁Ana	-12108
▁BVM	-12109
▁Bem	-12110
▁Buz	-12111
▁Bán	-12112
▁Den	-12113
▁Evo	-12114
▁GOP	-12115
▁Guy	-12116
▁Hxf	-12117
▁IBF	-12118
▁IRM	-12119
▁ISA	-12120
▁KDB	-12121
▁Kit	-12122
▁Kár	-12123
▁Lil	-12124
▁MIT	-12125
▁MSN	-12126
▁McA	-12127
▁MiG	-12128
▁NEC	-12129
▁Nij	-12130
▁OCÖ	-12131
▁Oda	-12132
▁PSD	-12133
▁Pak	-12134
▁RCZ	-12135
▁RIA	-12136
▁Res	-12137
▁Roz	-12138
▁SOS	-12139
▁Vad	-12140
▁Von	-12141
▁WTO	-12142
▁aen	-12143
▁akn	-12144
▁bou	-12145
▁dtá	-12146
▁dőr	-12147
▁evy	-12148
▁ezg	-12149
▁far	-12150
▁fir	-12151
▁fra	-12152
▁hót	-12153
▁ibb	-12154
▁imf	-12155
▁inv	-12156
▁irc	-12157
▁irl	-12158
▁its	-12159
▁key	-12160
▁ktí	-12161
▁lka	-12162
▁luk	-12163
▁lör	-12164
▁mmy	-12165
▁ogn	-12166
▁oos	-12167
▁osá	-12168
▁pik	-12169
▁pin	-12170
▁puc	-12171
▁rgó	-12172
▁rse	-12173
▁rtó	-12174
▁rób	-12175
▁say	-12176
▁sha	-12177
▁sis	-12178
▁ssó	-12179
▁sáp	-12180
▁tec	-12181
▁thy	-12182
▁udd	-12183
▁urk	-12184
▁vív	-12185
▁ynn	-12186
▁yst	-12187
▁yöm	-12188
▁zef	-12189
▁Önt	-12190
▁ékk	-12191
▁íny	-12192
▁ízű	-12193
▁öli	-12194
▁üch	-12195
▁Aqua	-12196
▁Arag	-12197
▁DVTK	-12198
▁Expo	-12199
▁LESZ	-12200
▁Lami	-12201
▁Linc	-12202
▁Niro	-12203
▁PISA	-12204
▁Pack	-12205
▁Pris	-12206
▁WADA	-12207
▁adis	-12208
▁adox	-12209
▁ajak	-12210
▁ajdi	-12211
▁ajté	-12212
▁alám	-12213
▁andh	-12214
▁andl	-12215
▁anis	-12216
▁anja	-12217
▁arca	-12218
▁arcs	-12219
▁arim	-12220
▁armo	-12221
▁aron	-12222
▁aryl	-12223
▁aser	-12224
▁asri	-12225
▁auli	-12226
▁avan	-12227
▁azia	-12228
▁bach	-12229
▁banc	-12230
▁béná	-12231
▁csik	-12232
▁ddie	-12233
▁dics	-12234
▁dinb	-12235
▁dudá	-12236
▁eidf	-12237
▁engé	-12238
▁enkó	-12239
▁etró	-12240
▁gard	-12241
▁guer	-12242
▁gysz	-12243
▁heri	-12244
▁hias	-12245
▁homp	-12246
▁howt	-12247
▁ichy	-12248
▁iden	-12249
▁ielb	-12250
▁iemi	-12251
▁iggy	-12252
▁imil	-12253
▁inke	-12254
▁inve	-12255
▁invá	-12256
▁iots	-12257
▁irth	-12258
▁itta	-12259
▁ivás	-12260
▁iéna	-12261
▁jász	-12262
▁kars	-12263
▁kaza	-12264
▁kemb	-12265
▁kulc	-12266
▁kuná	-12267
▁késh	-12268
▁kétá	-12269
▁kóku	-12270
▁lato	-12271
▁litu	-12272
▁loom	-12273
▁lyag	-12274
▁lóan	-12275
▁mill	-12276
▁morf	-12277
▁mpán	-12278
▁muze	-12279
▁ndru	-12280
▁nuel	-12281
▁nénj	-12282
▁nétá	-12283
▁odar	-12284
▁odká	-12285
▁ojan	-12286
▁ompó	-12287
▁onym	-12288
▁oper	-12289
▁orsz	-12290
▁orzs	-12291
▁oszk	-12292
▁pale	-12293
▁poll	-12294
▁prah	-12295
▁ratu	-12296
▁rico	-12297
▁rján	-12298
▁rukk	-12299
▁rust	-12300
▁réme	-12301
▁répa	-12302
▁saft	-12303
▁soma	-12304
▁song	-12305
▁team	-12306
▁theq	-12307
▁trat	-12308
▁udas	-12309
▁ulli	-12310
▁undo	-12311
▁urka	-12312
▁uruc	-12313
▁usza	-12314
▁uszi	-12315
▁vica	-12316
▁yeme	-12317
▁yere	-12318
▁ylie	-12319
▁ymbi	-12320
▁zzal	-12321
▁zéró	-12322
▁ábra	-12323
▁ágra	-12324
▁ássa	-12325
▁ölyk	-12326
▁BUMIX	-12327
▁Palkó	-12328
▁SZOSZ	-12329
▁Somfa	-12330
▁adako	-12331
▁adren	-12332
▁ahara	-12333
▁ajoro	-12334
▁akemb	-12335
▁alacs	-12336
▁alani	-12337
▁alany	-12338
▁ambul	-12339
▁ardas	-12340
▁arley	-12341
▁aromá	-12342
▁arton	-12343
▁aspar	-12344
▁aszto	-12345
▁aulle	-12346
▁avarr	-12347
▁aywea	-12348
▁conet	-12349
▁ectro	-12350
▁erapi	-12351
▁eszél	-12352
▁etika	-12353
▁etiká	-12354
▁guant	-12355
▁ictur	-12356
▁idrau	-12357
▁illon	-12358
▁imány	-12359
▁ingáz	-12360
▁kambo	-12361
▁kassa	-12362
▁kurta	-12363
▁kásás	-12364
▁letch	-12365
▁lojal	-12366
▁láger	-12367
▁nomád	-12368
▁ntázs	-12369
▁nyigo	-12370
▁ofler	-12371
▁oklip	-12372
▁onroe	-12373
▁orgás	-12374
▁parke	-12375
▁polar	-12376
▁porol	-12377
▁progr	-12378
▁prózá	-12379
▁pumpa	-12380
▁rgalm	-12381
▁rnoki	-12382
▁rugas	-12383
▁róniá	-12384
▁sarat	-12385
▁szent	-12386
▁sztat	-12387
▁sztoj	-12388
▁trans	-12389
▁táriá	-12390
▁túszu	-12391
▁ulyká	-12392
▁ulzus	-12393
▁ummáz	-12394
▁átras	-12395
▁ütyük	-12396
?)	-12397
ND	-12398
oj	-12399
ss	-12400
ÁK	-12401
óm	-12402
ECO	-12403
WRC	-12404
bal	-12405
die	-12406
esa	-12407
gyó	-12408
mia	-12409
nay	-12410
oga	-12411
ree	-12412
uta	-12413
vio	-12414
vir	-12415
wen	-12416
zer	-12417
zsi	-12418
árd	-12419
íra	-12420
▁AJ	-12421
▁CX	-12422
▁Hó	-12423
▁NÖ	-12424
▁PE	-12425
▁RR	-12426
▁Ty	-12427
▁ZE	-12428
▁eB	-12429
▁hl	-12430
▁uo	-12431
▁ÁL	-12432
elle	-12433
éler	-12434
▁(?)	-12435
▁1-5	-12436
▁114	-12437
▁141	-12438
▁146	-12439
▁156	-12440
▁157	-12441
▁162	-12442
▁181	-12443
▁191	-12444
▁195	-12445
▁197	-12446
▁23,	-12447
▁266	-12448
▁273	-12449
▁3-6	-12450
▁33.	-12451
▁37.	-12452
▁370	-12453
▁470	-12454
▁5-0	-12455
▁53.	-12456
▁560	-12457
▁570	-12458
▁6,9	-12459
▁64.	-12460
▁690	-12461
▁9,1	-12462
▁AFC	-12463
▁AXN	-12464
▁Alj	-12465
▁BVK	-12466
▁CEF	-12467
▁CSI	-12468
▁Est	-12469
▁FOX	-12470
▁Ice	-12471
▁Jog	-12472
▁Joó	-12473
▁KEH	-12474
▁Liv	-12475
▁Lou	-12476
▁MAL	-12477
▁MME	-12478
▁McS	-12479
▁OKM	-12480
▁PSG	-12481
▁Pat	-12482
▁Ras	-12483
▁UNI	-12484
▁WTC	-12485
▁agm	-12486
▁aja	-12487
▁arq	-12488
▁aví	-12489
▁bam	-12490
▁bek	-12491
▁bod	-12492
▁dök	-12493
▁eak	-12494
▁eco	-12495
▁ehi	-12496
▁ejk	-12497
▁enu	-12498
▁goo	-12499
▁goz	-12500
▁jam	-12501
▁kúp	-12502
▁luc	-12503
▁lór	-12504
▁mír	-12505
▁nip	-12506
▁náz	-12507
▁oal	-12508
▁oer	-12509
▁oir	-12510
▁ojt	-12511
▁omé	-12512
▁osq	-12513
▁sip	-12514
▁sóh	-12515
▁vex	-12516
▁vir	-12517
▁win	-12518
▁zej	-12519
▁zne	-12520
▁ÁVH	-12521
▁ísz	-12522
▁íts	-12523
▁ödé	-12524
▁önn	-12525
▁̋Az	-12526
▁Agca	-12527
▁Anni	-12528
▁Book	-12529
▁Erat	-12530
▁ISAF	-12531
▁MKPK	-12532
▁Marx	-12533
▁OPEC	-12534
▁Page	-12535
▁Pato	-12536
▁acek	-12537
▁adam	-12538
▁ader	-12539
▁aggi	-12540
▁agna	-12541
▁agok	-12542
▁aime	-12543
▁ajko	-12544
▁alek	-12545
▁alil	-12546
▁altz	-12547
▁amak	-12548
▁andi	-12549
▁anga	-12550
▁angy	-12551
▁anne	-12552
▁anyu	-12553
▁apor	-12554
▁arni	-12555
▁arte	-12556
▁ashi	-12557
▁avag	-12558
▁avda	-12559
▁back	-12560
▁boká	-12561
▁borm	-12562
▁bozó	-12563
▁dado	-12564
▁demy	-12565
▁ealt	-12566
▁east	-12567
▁eccs	-12568
▁ecki	-12569
▁egge	-12570
▁eice	-12571
▁eléd	-12572
▁emic	-12573
▁enda	-12574
▁endr	-12575
▁enus	-12576
▁euma	-12577
▁ezza	-12578
▁fons	-12579
▁gató	-12580
▁gyap	-12581
▁gály	-12582
▁gány	-12583
▁géná	-12584
▁gúny	-12585
▁hack	-12586
▁haki	-12587
▁hryn	-12588
▁ices	-12589
▁icky	-12590
▁idas	-12591
▁idze	-12592
▁iena	-12593
▁imer	-12594
▁inku	-12595
▁intó	-12596
▁irup	-12597
▁iste	-12598
▁itku	-12599
▁izza	-12600
▁jevi	-12601
▁kara	-12602
▁klór	-12603
▁komá	-12604
▁kunc	-12605
▁kuru	-12606
▁kvár	-12607
▁kóci	-12608
▁leop	-12609
▁lici	-12610
▁lita	-12611
▁lley	-12612
▁láne	-12613
▁lémá	-12614
▁létr	-12615
▁lőny	-12616
▁mali	-12617
▁nami	-12618
▁ndit	-12619
▁nich	-12620
▁nitá	-12621
▁ntyj	-12622
▁nzag	-12623
▁nótá	-12624
▁oder	-12625
▁okam	-12626
▁olar	-12627
▁olha	-12628
▁olym	-12629
▁omfo	-12630
▁ontó	-12631
▁orva	-12632
▁orán	-12633
▁pagá	-12634
▁pere	-12635
▁pres	-12636
▁puff	-12637
▁rees	-12638
▁renn	-12639
▁reud	-12640
▁rogy	-12641
▁rünf	-12642
▁sejk	-12643
▁sitc	-12644
▁site	-12645
▁solt	-12646
▁suar	-12647
▁szed	-12648
▁szog	-12649
▁szsz	-12650
▁tade	-12651
▁teen	-12652
▁teté	-12653
▁tiná	-12654
▁tréf	-12655
▁ttro	-12656
▁tyin	-12657
▁tála	-12658
▁unst	-12659
▁unty	-12660
▁useu	-12661
▁utyi	-12662
▁varo	-12663
▁venn	-12664
▁vetk	-12665
▁warz	-12666
▁week	-12667
▁yomo	-12668
▁zsor	-12669
▁ztet	-12670
▁áday	-12671
▁ágát	-12672
▁éres	-12673
▁észü	-12674
▁ítan	-12675
▁óger	-12676
▁Alcoa	-12677
▁Alien	-12678
▁Buzás	-12679
▁Búvár	-12680
▁ERECO	-12681
▁Radar	-12682
▁aiman	-12683
▁ainer	-12684
▁alker	-12685
▁allah	-12686
▁ampus	-12687
▁andev	-12688
▁andzu	-12689
▁anore	-12690
▁aplan	-12691
▁apuka	-12692
▁arbie	-12693
▁arche	-12694
▁arhah	-12695
▁arhol	-12696
▁arija	-12697
▁arwin	-12698
▁athan	-12699
▁atura	-12700
▁ausch	-12701
▁avrov	-12702
▁bitor	-12703
▁bontó	-12704
▁borka	-12705
▁borou	-12706
▁bánta	-12707
▁dikál	-12708
▁ecret	-12709
▁efner	-12710
▁eilly	-12711
▁emper	-12712
▁enial	-12713
▁gólya	-12714
▁icchu	-12715
▁inkar	-12716
▁irrac	-12717
▁itate	-12718
▁kandá	-12719
▁katar	-12720
▁kszim	-12721
▁kulis	-12722
▁kumen	-12723
▁kóbor	-12724
▁közpo	-12725
▁lanka	-12726
▁leury	-12727
▁marsh	-12728
▁merev	-12729
▁ndriv	-12730
▁neuve	-12731
▁nkiss	-12732
▁oboro	-12733
▁oderá	-12734
▁olgoz	-12735
▁olleb	-12736
▁orbac	-12737
▁ordai	-12738
▁oszty	-12739
▁prímá	-12740
▁radiá	-12741
▁resto	-12742
▁rgona	-12743
▁riter	-12744
▁rodeu	-12745
▁ronda	-12746
▁rugós	-12747
▁réler	-12748
▁sirat	-12749
▁story	-12750
▁totál	-12751
▁tréfa	-12752
▁ulató	-12753
▁ultif	-12754
▁usban	-12755
▁utina	-12756
▁utnok	-12757
▁vényt	-12758
▁zerek	-12759
▁zárká	-12760
▁örnye	-12761
38	-12762
BT	-12763
JA	-12764
LE	-12765
RV	-12766
Sz	-12767
VE	-12768
cr	-12769
dü	-12770
ef	-12771
fu	-12772
fé	-12773
hn	-12774
kr	-12775
kú	-12776
yc	-12777
yo	-12778
Új	-12779
ÜK	-12780
áj	-12781
éh	-12782
íj	-12783
íá	-12784
▁è	-12785
SZK	-12786
atá	-12787
cif	-12788
enz	-12789
ign	-12790
izs	-12791
lya	-12792
olá	-12793
ose	-12794
ozj	-12795
ppe	-12796
rid	-12797
rád	-12798
uke	-12799
ula	-12800
ánk	-12801
áta	-12802
ívi	-12803
▁+3	-12804
▁2:	-12805
▁AA	-12806
▁FD	-12807
▁ME	-12808
▁NN	-12809
▁Ní	-12810
▁RX	-12811
▁ST	-12812
▁TP	-12813
▁gü	-12814
▁iQ	-12815
▁iy	-12816
▁uw	-12817
▁vl	-12818
▁ÁR	-12819
▁Át	-12820
▁ÉS	-12821
udin	-12822
▁(11	-12823
▁-15	-12824
▁/50	-12825
▁106	-12826
▁132	-12827
▁138	-12828
▁143	-12829
▁166	-12830
▁174	-12831
▁194	-12832
▁203	-12833
▁267	-12834
▁271	-12835
▁284	-12836
▁30,	-12837
▁39.	-12838
▁390	-12839
▁61.	-12840
▁6:0	-12841
▁7.)	-12842
▁74.	-12843
▁9,4	-12844
▁90.	-12845
▁93.	-12846
▁990	-12847
▁Aub	-12848
▁Avi	-12849
▁BME	-12850
▁Bai	-12851
▁Boy	-12852
▁Bxh	-12853
▁CBR	-12854
▁DBR	-12855
▁Dél	-12856
▁Ear	-12857
▁FKC	-12858
▁FVM	-12859
▁IPM	-12860
▁Kid	-12861
▁Kji	-12862
▁Kxg	-12863
▁Lea	-12864
▁Les	-12865
▁Leé	-12866
▁MVH	-12867
▁May	-12868
▁McK	-12869
▁Mia	-12870
▁Mun	-12871
▁NFH	-12872
▁Oak	-12873
▁PMI	-12874
▁PTE	-12875
▁Pel	-12876
▁RSM	-12877
▁Ria	-12878
▁Toy	-12879
▁UPC	-12880
▁aas	-12881
▁abu	-12882
▁act	-12883
▁apé	-12884
▁aqu	-12885
▁aró	-12886
▁ask	-12887
▁boc	-12888
▁böl	-12889
▁can	-12890
▁cem	-12891
▁dbe	-12892
▁ded	-12893
▁dxe	-12894
▁dót	-12895
▁eav	-12896
▁elp	-12897
▁emm	-12898
▁eps	-12899
▁esm	-12900
▁exd	-12901
▁gui	-12902
▁hao	-12903
▁heg	-12904
▁hgy	-12905
▁hul	-12906
▁iag	-12907
▁iei	-12908
▁irq	-12909
▁ivő	-12910
▁jas	-12911
▁kéc	-12912
▁lio	-12913
▁lut	-12914
▁lém	-12915
▁mlé	-12916
▁nav	-12917
▁oco	-12918
▁opp	-12919
▁owa	-12920
▁owe	-12921
▁rts	-12922
▁rue	-12923
▁ruy	-12924
▁rók	-12925
▁röl	-12926
▁sab	-12927
▁sba	-12928
▁sca	-12929
▁skö	-12930
▁taf	-12931
▁ttü	-12932
▁tut	-12933
▁uda	-12934
▁upá	-12935
▁ush	-12936
▁usk	-12937
▁yát	-12938
▁zto	-12939
▁Ágh	-12940
▁Árt	-12941
▁ÖBB	-12942
▁ásk	-12943
▁ásu	-12944
▁áti	-12945
▁émá	-12946
▁ükk	-12947
▁üld	-12948
▁ülű	-12949
▁Apác	-12950
▁Atti	-12951
▁BEAC	-12952
▁Bodó	-12953
▁Czuk	-12954
▁Dama	-12955
▁Erin	-12956
▁KÉSZ	-12957
▁Lívi	-12958
▁MJUS	-12959
▁MacC	-12960
▁Magd	-12961
▁Mozj	-12962
▁PVSK	-12963
▁Proj	-12964
▁Tara	-12965
▁acsa	-12966
▁afto	-12967
▁agan	-12968
▁aguk	-12969
▁aker	-12970
▁alab	-12971
▁aldi	-12972
▁alki	-12973
▁alya	-12974
▁anca	-12975
▁anit	-12976
▁arno	-12977
▁asak	-12978
▁asch	-12979
▁atib	-12980
▁atká	-12981
▁avos	-12982
▁becq	-12983
▁beto	-12984
▁brék	-12985
▁cean	-12986
▁chim	-12987
▁comp	-12988
▁dage	-12989
▁dale	-12990
▁deka	-12991
▁dill	-12992
▁doma	-12993
▁dumá	-12994
▁egan	-12995
▁emma	-12996
▁eplé	-12997
▁ercy	-12998
▁erda	-12999
▁erro	-13000
▁erto	-13001
▁erzs	-13002
▁eych	-13003
▁ezid	-13004
▁guil	-13005
▁gyok	-13006
▁gyúl	-13007
▁hant	-13008
▁harp	-13009
▁hear	-13010
▁hene	-13011
▁iana	-13012
▁idon	-13013
▁idor	-13014
▁imid	-13015
▁inar	-13016
▁inór	-13017
▁iosz	-13018
▁ipes	-13019
▁izab	-13020
▁kurd	-13021
▁kvar	-13022
▁kómá	-13023
▁legk	-13024
▁lerá	-13025
▁lint	-13026
▁litá	-13027
▁liza	-13028
▁lowe	-13029
▁mala	-13030
▁mery	-13031
▁metó	-13032
▁mili	-13033
▁myth	-13034
▁napp	-13035
▁nemű	-13036
▁nnia	-13037
▁nnie	-13038
▁nszk	-13039
▁oach	-13040
▁odáz	-13041
▁okán	-13042
▁omeo	-13043
▁omor	-13044
▁opro	-13045
▁ordi	-13046
▁orni	-13047
▁orté	-13048
▁ouar	-13049
▁ovod	-13050
▁owen	-13051
▁owle	-13052
▁peed	-13053
▁polá	-13054
▁páti	-13055
▁rade	-13056
▁rane	-13057
▁rdés	-13058
▁ride	-13059
▁rigy	-13060
▁rina	-13061
▁rios	-13062
▁ripp	-13063
▁rive	-13064
▁seke	-13065
▁sele	-13066
▁skiz	-13067
▁skén	-13068
▁sper	-13069
▁tano	-13070
▁tieb	-13071
▁tist	-13072
▁tont	-13073
▁tosu	-13074
▁traf	-13075
▁tébo	-13076
▁tónu	-13077
▁ugen	-13078
▁uide	-13079
▁undq	-13080
▁unto	-13081
▁uraj	-13082
▁vasz	-13083
▁vára	-13084
▁yrto	-13085
▁yson	-13086
▁zajo	-13087
▁álká	-13088
▁árdi	-13089
▁ásza	-13090
▁átyá	-13091
▁élel	-13092
▁ényi	-13093
▁ínés	-13094
▁ítsé	-13095
▁óner	-13096
▁ónia	-13097
▁ónig	-13098
▁ózta	-13099
▁üllő	-13100
▁őssé	-13101
▁Abdul	-13102
▁Isaac	-13103
▁Oudin	-13104
▁abona	-13105
▁adame	-13106
▁agmat	-13107
▁agyát	-13108
▁alkán	-13109
▁amvai	-13110
▁amvas	-13111
▁andhi	-13112
▁anmar	-13113
▁ansel	-13114
▁anyád	-13115
▁anyós	-13116
▁arbor	-13117
▁argar	-13118
▁arger	-13119
▁argon	-13120
▁arkad	-13121
▁armen	-13122
▁arris	-13123
▁asper	-13124
▁auser	-13125
▁aviár	-13126
▁avlat	-13127
▁ayden	-13128
▁bagat	-13129
▁barbá	-13130
▁bundá	-13131
▁bunkó	-13132
▁casny	-13133
▁eczki	-13134
▁elená	-13135
▁ellay	-13136
▁eolib	-13137
▁erome	-13138
▁etzla	-13139
▁gasab	-13140
▁golff	-13141
▁idnyá	-13142
▁ieszt	-13143
▁ieter	-13144
▁igaro	-13145
▁inges	-13146
▁ippai	-13147
▁iróni	-13148
▁ispán	-13149
▁itika	-13150
▁kabát	-13151
▁kassz	-13152
▁kurió	-13153
▁layer	-13154
▁lemen	-13155
▁lkobz	-13156
▁lobod	-13157
▁lábak	-13158
▁manuf	-13159
▁megke	-13160
▁orien	-13161
▁pakli	-13162
▁parti	-13163
▁pixel	-13164
▁pizza	-13165
▁rammy	-13166
▁ranze	-13167
▁rjánz	-13168
▁roadw	-13169
▁rénsz	-13170
▁ssion	-13171
▁stobá	-13172
▁stock	-13173
▁szimm	-13174
▁tamás	-13175
▁taxit	-13176
▁terét	-13177
▁tonin	-13178
▁tudio	-13179
▁túsze	-13180
▁ubara	-13181
▁valit	-13182
▁visio	-13183
▁watch	-13184
▁znyec	-13185
▁égane	-13186
▁ésébe	-13187
▁ökőkú	-13188
FI	-13189
Ki	-13190
KÖ	-13191
cl	-13192
mm	-13193
uj	-13194
xa	-13195
xb	-13196
yr	-13197
ys	-13198
zó	-13199
ÁN	-13200
ÁS	-13201
▁š	-13202
▁†	-13203
FSZ	-13204
acy	-13205
bac	-13206
bok	-13207
cle	-13208
ema	-13209
eth	-13210
ezo	-13211
fic	-13212
igi	-13213
lav	-13214
lás	-13215
odá	-13216
oka	-13217
ole	-13218
oti	-13219
pin	-13220
ppu	-13221
rom	-13222
rou	-13223
ust	-13224
zak	-13225
óti	-13226
úsz	-13227
▁0)	-13228
▁AW	-13229
▁Bő	-13230
▁Dú	-13231
▁EX	-13232
▁Eg	-13233
▁IA	-13234
▁Io	-13235
▁MB	-13236
▁Mg	-13237
▁NP	-13238
▁SO	-13239
▁SY	-13240
▁bű	-13241
▁hä	-13242
▁ÁT	-13243
alli	-13244
ette	-13245
iosz	-13246
onta	-13247
ugli	-13248
▁(27	-13249
▁10%	-13250
▁144	-13251
▁171	-13252
▁187	-13253
▁198	-13254
▁2,0	-13255
▁211	-13256
▁217	-13257
▁229	-13258
▁254	-13259
▁285	-13260
▁299	-13261
▁305	-13262
▁306	-13263
▁317	-13264
▁335	-13265
▁42.	-13266
▁458	-13267
▁5-8	-13268
▁52.	-13269
▁54,	-13270
▁590	-13271
▁6-2	-13272
▁670	-13273
▁80.	-13274
▁AEK	-13275
▁AGY	-13276
▁Acc	-13277
▁Ari	-13278
▁BFC	-13279
▁CBA	-13280
▁CEZ	-13281
▁CHF	-13282
▁COP	-13283
▁CSO	-13284
▁Ces	-13285
▁DDD	-13286
▁Dab	-13287
▁Dag	-13288
▁Dro	-13289
▁Díj	-13290
▁FPÖ	-13291
▁FTP	-13292
▁Fan	-13293
▁Fáy	-13294
▁Hot	-13295
▁Kós	-13296
▁Lis	-13297
▁MAX	-13298
▁Mód	-13299
▁NKA	-13300
▁NSO	-13301
▁PDK	-13302
▁RBS	-13303
▁SNC	-13304
▁SPN	-13305
▁SPÖ	-13306
▁Say	-13307
▁VAZ	-13308
▁Víz	-13309
▁aan	-13310
▁anj	-13311
▁aph	-13312
▁arf	-13313
▁asc	-13314
▁asd	-13315
▁asó	-13316
▁dab	-13317
▁die	-13318
▁dpa	-13319
▁dár	-13320
▁ehr	-13321
▁eix	-13322
▁fál	-13323
▁fék	-13324
▁hed	-13325
▁hoc	-13326
▁hőn	-13327
▁ign	-13328
▁ija	-13329
▁isi	-13330
▁isl	-13331
▁itu	-13332
▁jád	-13333
▁kli	-13334
▁kőr	-13335
▁lcd	-13336
▁lee	-13337
▁mam	-13338
▁mic	-13339
▁opy	-13340
▁ory	-13341
▁otz	-13342
▁pez	-13343
▁pun	-13344
▁raw	-13345
▁súr	-13346
▁tty	-13347
▁tub	-13348
▁uff	-13349
▁uus	-13350
▁uár	-13351
▁vey	-13352
▁was	-13353
▁xxx	-13354
▁yoz	-13355
▁zót	-13356
▁ÁAK	-13357
▁Ócs	-13358
▁éva	-13359
▁öhl	-13360
▁öng	-13361
▁örf	-13362
▁üly	-13363
▁Aach	-13364
▁Amur	-13365
▁Asch	-13366
▁Bama	-13367
▁Bana	-13368
▁Bucu	-13369
▁Bánu	-13370
▁Clio	-13371
▁Drom	-13372
▁Expr	-13373
▁Gáll	-13374
▁Kuru	-13375
▁Lisz	-13376
▁Nano	-13377
▁Nika	-13378
▁Pant	-13379
▁SITA	-13380
▁SZÁG	-13381
▁Saxo	-13382
▁Sidi	-13383
▁Syma	-13384
▁Tage	-13385
▁XXII	-13386
▁acho	-13387
▁afka	-13388
▁ahlb	-13389
▁aidá	-13390
▁ajan	-13391
▁ancu	-13392
▁ando	-13393
▁angó	-13394
▁anko	-13395
▁anto	-13396
▁aoul	-13397
▁aric	-13398
▁arli	-13399
▁arsi	-13400
▁artb	-13401
▁aría	-13402
▁atró	-13403
▁attá	-13404
▁atyi	-13405
▁atűr	-13406
▁auna	-13407
▁avlo	-13408
▁awel	-13409
▁azar	-13410
▁azsa	-13411
▁bang	-13412
▁biná	-13413
▁bocs	-13414
▁bába	-13415
▁bála	-13416
▁bárd	-13417
▁cali	-13418
▁desz	-13419
▁dieu	-13420
▁doro	-13421
▁ecil	-13422
▁ecti	-13423
▁eeth	-13424
▁efco	-13425
▁egvá	-13426
▁ekát	-13427
▁elia	-13428
▁elké	-13429
▁ellő	-13430
▁elép	-13431
▁előt	-13432
▁enon	-13433
▁ergo	-13434
▁ertu	-13435
▁esic	-13436
▁essi	-13437
▁eudá	-13438
▁euer	-13439
▁evak	-13440
▁eyto	-13441
▁gyon	-13442
▁gált	-13443
▁hare	-13444
▁haus	-13445
▁hrin	-13446
▁ibby	-13447
▁igná	-13448
▁inas	-13449
▁inge	-13450
▁insz	-13451
▁ione	-13452
▁ipac	-13453
▁irol	-13454
▁itar	-13455
▁jáno	-13456
▁kkad	-13457
▁klőd	-13458
▁kobz	-13459
▁kodá	-13460
▁kuti	-13461
▁liff	-13462
▁lish	-13463
▁lkot	-13464
▁lobá	-13465
▁lock	-13466
▁lust	-13467
▁lynn	-13468
▁lútó	-13469
▁mono	-13470
▁mper	-13471
▁muff	-13472
▁nden	-13473
▁nicz	-13474
▁nnis	-13475
▁nsch	-13476
▁nsis	-13477
▁nska	-13478
▁nteg	-13479
▁nyic	-13480
▁nóva	-13481
▁ocká	-13482
▁odka	-13483
▁ogan	-13484
▁ogas	-13485
▁ojko	-13486
▁okou	-13487
▁okum	-13488
▁olno	-13489
▁omer	-13490
▁oney	-13491
▁oszl	-13492
▁otts	-13493
▁oval	-13494
▁ovan	-13495
▁pong	-13496
▁pper	-13497
▁ranq	-13498
▁rdas	-13499
▁reib	-13500
▁rick	-13501
▁rics	-13502
▁rili	-13503
▁rnov	-13504
▁répá	-13505
▁réti	-13506
▁rögz	-13507
▁röhe	-13508
▁sacc	-13509
▁sipo	-13510
▁skal	-13511
▁slaw	-13512
▁szip	-13513
▁szop	-13514
▁sémá	-13515
▁síak	-13516
▁tang	-13517
▁tarc	-13518
▁tará	-13519
▁teph	-13520
▁tkin	-13521
▁tász	-13522
▁télt	-13523
▁uchs	-13524
▁uigi	-13525
▁unde	-13526
▁urco	-13527
▁urku	-13528
▁urns	-13529
▁uutu	-13530
▁uzic	-13531
▁vano	-13532
▁yatt	-13533
▁yder	-13534
▁zone	-13535
▁álon	-13536
▁áram	-13537
▁ásni	-13538
▁ékel	-13539
▁észí	-13540
▁ítmé	-13541
▁ónya	-13542
▁öbbi	-13543
▁Arjen	-13544
▁Aréná	-13545
▁Prost	-13546
▁actor	-13547
▁adaga	-13548
▁adcli	-13549
▁adden	-13550
▁alcio	-13551
▁alias	-13552
▁alifa	-13553
▁allej	-13554
▁allis	-13555
▁alper	-13556
▁ancer	-13557
▁anoiá	-13558
▁anomá	-13559
▁arcla	-13560
▁arcsa	-13561
▁arrey	-13562
▁artín	-13563
▁atosa	-13564
▁auder	-13565
▁avani	-13566
▁barná	-13567
▁birka	-13568
▁bogyó	-13569
▁botox	-13570
▁bunda	-13571
▁bábás	-13572
▁demio	-13573
▁ednár	-13574
▁egacy	-13575
▁eghal	-13576
▁egner	-13577
▁egyve	-13578
▁eslie	-13579
▁ettkó	-13580
▁event	-13581
▁eynol	-13582
▁fóliá	-13583
▁house	-13584
▁ickup	-13585
▁ierra	-13586
▁ilkin	-13587
▁ilppu	-13588
▁imbor	-13589
▁innea	-13590
▁irren	-13591
▁irrit	-13592
▁itzki	-13593
▁jiosz	-13594
▁kande	-13595
▁kanté	-13596
▁kusza	-13597
▁kvark	-13598
▁kóstá	-13599
▁labir	-13600
▁landi	-13601
▁lapka	-13602
▁lebeg	-13603
▁llett	-13604
▁louda	-13605
▁maffi	-13606
▁mansz	-13607
▁mbrió	-13608
▁mázsa	-13609
▁mázsá	-13610
▁ndabo	-13611
▁nyatt	-13612
▁ocska	-13613
▁oczka	-13614
▁oonen	-13615
▁orten	-13616
▁pamut	-13617
▁patkó	-13618
▁perec	-13619
▁power	-13620
▁pretá	-13621
▁racle	-13622
▁regén	-13623
▁reiss	-13624
▁rezon	-13625
▁rider	-13626
▁ringe	-13627
▁ritku	-13628
▁roszk	-13629
▁shuto	-13630
▁skatu	-13631
▁síitá	-13632
▁tanár	-13633
▁taszí	-13634
▁tinen	-13635
▁tooth	-13636
▁torzó	-13637
▁trade	-13638
▁tábor	-13639
▁uppan	-13640
▁uster	-13641
▁ustra	-13642
▁ustur	-13643
▁vallu	-13644
▁verde	-13645
▁youtu	-13646
▁zeres	-13647
▁ádasd	-13648
▁álkoz	-13649
▁átriá	-13650
▁érges	-13651
▁ónyay	-13652
▁ótány	-13653
▁őzete	-13654
60	-13655
AB	-13656
CE	-13657
GS	-13658
IQ	-13659
RE	-13660
SF	-13661
YP	-13662
cy	-13663
dn	-13664
du	-13665
dí	-13666
ún	-13667
▁<	-13668
TER	-13669
adó	-13670
akk	-13671
alá	-13672
boa	-13673
bol	-13674
cky	-13675
ega	-13676
har	-13677
ige	-13678
kád	-13679
lau	-13680
min	-13681
nya	-13682
oky	-13683
omo	-13684
que	-13685
ral	-13686
ski	-13687
ugó	-13688
unt	-13689
uth	-13690
vre	-13691
yeh	-13692
yen	-13693
▁-8	-13694
▁0/	-13695
▁00	-13696
▁08	-13697
▁3/	-13698
▁4/	-13699
▁BD	-13700
▁BJ	-13701
▁CZ	-13702
▁DM	-13703
▁Ip	-13704
▁KO	-13705
▁LM	-13706
▁MX	-13707
▁OL	-13708
▁Of	-13709
▁RB	-13710
▁TU	-13711
▁Us	-13712
▁WI	-13713
▁df	-13714
▁gd	-13715
▁Ír	-13716
▁íb	-13717
hrer	-13718
húho	-13719
▁(14	-13720
▁(28	-13721
▁(3)	-13722
▁(65	-13723
▁10)	-13724
▁142	-13725
▁149	-13726
▁158	-13727
▁167	-13728
▁179	-13729
▁182	-13730
▁19,	-13731
▁196	-13732
▁207	-13733
▁208	-13734
▁213	-13735
▁215	-13736
▁218	-13737
▁224	-13738
▁241	-13739
▁25,	-13740
▁257	-13741
▁258	-13742
▁298	-13743
▁365	-13744
▁386	-13745
▁45.	-13746
▁46.	-13747
▁50,	-13748
▁55.	-13749
▁57.	-13750
▁6-5	-13751
▁60,	-13752
▁62.	-13753
▁725	-13754
▁730	-13755
▁825	-13756
▁88.	-13757
▁89.	-13758
▁9,2	-13759
▁9,9	-13760
▁911	-13761
▁AAA	-13762
▁AHL	-13763
▁Aar	-13764
▁Ani	-13765
▁Asi	-13766
▁Ave	-13767
▁BEK	-13768
▁Bon	-13769
▁Bús	-13770
▁CMA	-13771
▁Cle	-13772
▁Dre	-13773
▁Dóm	-13774
▁EBI	-13775
▁GHz	-13776
▁Gru	-13777
▁Imá	-13778
▁KBC	-13779
▁KSI	-13780
▁KTE	-13781
▁Kft	-13782
▁MAN	-13783
▁MGY	-13784
▁MIN	-13785
▁MKK	-13786
▁McM	-13787
▁MyS	-13788
▁NRK	-13789
▁Pór	-13790
▁SNB	-13791
▁SZE	-13792
▁TDA	-13793
▁Tre	-13794
▁UBS	-13795
▁Ult	-13796
▁Uma	-13797
▁afo	-13798
▁akc	-13799
▁asg	-13800
▁aso	-13801
▁aum	-13802
▁awn	-13803
▁bré	-13804
▁bók	-13805
▁bök	-13806
▁dha	-13807
▁dós	-13808
▁eaf	-13809
▁edb	-13810
▁eij	-13811
▁eue	-13812
▁eát	-13813
▁fus	-13814
▁fén	-13815
▁fúj	-13816
▁gum	-13817
▁gém	-13818
▁hei	-13819
▁hop	-13820
▁icá	-13821
▁igu	-13822
▁ijk	-13823
▁ilc	-13824
▁iol	-13825
▁ios	-13826
▁ipk	-13827
▁irs	-13828
▁jte	-13829
▁kéj	-13830
▁kóp	-13831
▁lúd	-13832
▁mlí	-13833
▁nay	-13834
▁nif	-13835
▁oav	-13836
▁oop	-13837
▁opl	-13838
▁pip	-13839
▁péd	-13840
▁qai	-13841
▁roi	-13842
▁roy	-13843
▁rzs	-13844
▁rút	-13845
▁tei	-13846
▁uva	-13847
▁wal	-13848
▁yas	-13849
▁yin	-13850
▁zad	-13851
▁ánj	-13852
▁árb	-13853
▁árr	-13854
▁épe	-13855
▁éra	-13856
▁íta	-13857
▁ívó	-13858
▁öll	-13859
▁önd	-13860
▁önz	-13861
▁üan	-13862
▁Ador	-13863
▁Alab	-13864
▁Aung	-13865
▁Baba	-13866
▁Baku	-13867
▁Blum	-13868
▁Bona	-13869
▁Coma	-13870
▁Doma	-13871
▁Dúró	-13872
▁EMNT	-13873
▁Estu	-13874
▁Evra	-13875
▁Exch	-13876
▁Gulá	-13877
▁KHEM	-13878
▁Laki	-13879
▁Lilu	-13880
▁Line	-13881
▁Mage	-13882
▁Mádl	-13883
▁NCIS	-13884
▁Nice	-13885
▁Nike	-13886
▁Niki	-13887
▁Nézd	-13888
▁PORT	-13889
▁Pani	-13890
▁Pars	-13891
▁Peng	-13892
▁SEAT	-13893
▁SYMA	-13894
▁Után	-13895
▁Wimb	-13896
▁Yale	-13897
▁abat	-13898
▁ahal	-13899
▁aiku	-13900
▁ajam	-13901
▁ajká	-13902
▁akai	-13903
▁alde	-13904
▁algá	-13905
▁amaz	-13906
▁amiz	-13907
▁amsz	-13908
▁amva	-13909
▁angl	-13910
▁arda	-13911
▁arib	-13912
▁arná	-13913
▁artu	-13914
▁asab	-13915
▁aske	-13916
▁auná	-13917
▁avuk	-13918
▁aván	-13919
▁bane	-13920
▁bonc	-13921
▁bony	-13922
▁borj	-13923
▁boué	-13924
▁burá	-13925
▁busó	-13926
▁cast	-13927
▁chip	-13928
▁dele	-13929
▁dikt	-13930
▁dler	-13931
▁domí	-13932
▁díva	-13933
▁egor	-13934
▁einh	-13935
▁ejan	-13936
▁eker	-13937
▁elps	-13938
▁emer	-13939
▁endo	-13940
▁ends	-13941
▁enlo	-13942
▁epom	-13943
▁erit	-13944
▁erli	-13945
▁ermu	-13946
▁erso	-13947
▁ersz	-13948
▁eruh	-13949
▁ervé	-13950
▁escó	-13951
▁fajo	-13952
▁falf	-13953
▁grön	-13954
▁gyál	-13955
▁gyáv	-13956
▁gánc	-13957
▁huke	-13958
▁iegó	-13959
▁ihat	-13960
▁imák	-13961
▁inde	-13962
▁ired	-13963
▁istó	-13964
▁ixer	-13965
▁jack	-13966
▁jazz	-13967
▁kamp	-13968
▁kaná	-13969
▁kark	-13970
▁kemp	-13971
▁klau	-13972
▁kret	-13973
▁lajo	-13974
▁leni	-13975
▁lime	-13976
▁lius	-13977
▁llai	-13978
▁long	-13979
▁lámá	-13980
▁láné	-13981
▁láth	-13982
▁láva	-13983
▁löff	-13984
▁maci	-13985
▁mage	-13986
▁megi	-13987
▁more	-13988
▁nell	-13989
▁nicé	-13990
▁nisc	-13991
▁nitz	-13992
▁nnét	-13993
▁ntur	-13994
▁néhá	-13995
▁obio	-13996
▁ogli	-13997
▁okar	-13998
▁okró	-13999
▁ooks	-14000
▁ooth	-14001
▁opul	-14002
▁ourg	-14003
▁oyer	-14004
▁ozsó	-14005
▁patt	-14006
▁pier	-14007
▁pinc	-14008
▁pneu	-14009
▁poná	-14010
▁posz	-14011
▁poté	-14012
▁poul	-14013
▁racy	-14014
▁rady	-14015
▁rago	-14016
▁rdet	-14017
▁rdít	-14018
▁rede	-14019
▁redi	-14020
▁redo	-14021
▁rene	-14022
▁resh	-14023
▁riga	-14024
▁risk	-14025
▁rizg	-14026
▁rnye	-14027
▁roam	-14028
▁robl	-14029
▁rows	-14030
▁rszá	-14031
▁röpk	-14032
▁sche	-14033
▁sepr	-14034
▁shie	-14035
▁sikí	-14036
▁simá	-14037
▁siva	-14038
▁stok	-14039
▁szam	-14040
▁tage	-14041
▁tale	-14042
▁tasi	-14043
▁tavo	-14044
▁tera	-14045
▁ting	-14046
▁tosz	-14047
▁trow	-14048
▁trás	-14049
▁trój	-14050
▁tétá	-14051
▁uine	-14052
▁ulik	-14053
▁uljo	-14054
▁ultz	-14055
▁urgó	-14056
▁valj	-14057
▁vády	-14058
▁vást	-14059
▁with	-14060
▁yama	-14061
▁zilá	-14062
▁ztek	-14063
▁zzát	-14064
▁áljá	-14065
▁ánaá	-14066
▁árku	-14067
▁árna	-14068
▁ássá	-14069
▁édli	-14070
▁élix	-14071
▁ívós	-14072
▁ökön	-14073
▁úráz	-14074
▁üles	-14075
▁AGYAR	-14076
▁Abbey	-14077
▁Avang	-14078
▁Exper	-14079
▁Favar	-14080
▁Galli	-14081
▁Hanni	-14082
▁abana	-14083
▁aglán	-14084
▁aldon	-14085
▁alist	-14086
▁almer	-14087
▁alone	-14088
▁amora	-14089
▁amíbi	-14090
▁andah	-14091
▁andon	-14092
▁andál	-14093
▁antrá	-14094
▁apsot	-14095
▁arcin	-14096
▁ardon	-14097
▁armis	-14098
▁assan	-14099
▁assbe	-14100
▁aster	-14101
▁astor	-14102
▁atjan	-14103
▁atter	-14104
▁awyer	-14105
▁baltá	-14106
▁bandi	-14107
▁bankó	-14108
▁bhúho	-14109
▁bunyó	-14110
▁bábuk	-14111
▁bátyj	-14112
▁endra	-14113
▁epper	-14114
▁estor	-14115
▁eutro	-14116
▁fenol	-14117
▁ftyeh	-14118
▁gaard	-14119
▁gandá	-14120
▁guyen	-14121
▁gólyá	-14122
▁hysic	-14123
▁ieira	-14124
▁ienná	-14125
▁iesel	-14126
▁igadó	-14127
▁igner	-14128
▁iknik	-14129
▁ilbaó	-14130
▁illik	-14131
▁irtas	-14132
▁iréná	-14133
▁ither	-14134
▁kanná	-14135
▁keble	-14136
▁kinne	-14137
▁konta	-14138
▁kurtí	-14139
▁lacid	-14140
▁lanet	-14141
▁lelet	-14142
▁lindá	-14143
▁lmány	-14144
▁láber	-14145
▁macsó	-14146
▁massz	-14147
▁media	-14148
▁meier	-14149
▁mezes	-14150
▁mezít	-14151
▁mosta	-14152
▁mázli	-14153
▁múmia	-14154
▁ngine	-14155
▁nowle	-14156
▁nszki	-14157
▁ntino	-14158
▁occer	-14159
▁oglár	-14160
▁oprád	-14161
▁orint	-14162
▁oruzs	-14163
▁ospic	-14164
▁oszká	-14165
▁otero	-14166
▁owboy	-14167
▁pacal	-14168
▁palle	-14169
▁polip	-14170
▁ragua	-14171
▁raumá	-14172
▁redri	-14173
▁regná	-14174
▁rezeg	-14175
▁riend	-14176
▁rouch	-14177
▁spoon	-14178
▁spres	-14179
▁ssien	-14180
▁ssima	-14181
▁szkaj	-14182
▁sztur	-14183
▁tific	-14184
▁torny	-14185
▁torre	-14186
▁ttack	-14187
▁ultiv	-14188
▁urtis	-14189
▁uskas	-14190
▁utyus	-14191
▁válas	-14192
▁váriá	-14193
▁zeket	-14194
▁zsora	-14195
▁zóleu	-14196
▁ámuel	-14197
▁átyol	-14198
▁érget	-14199
).	-14200
2,	-14201
FP	-14202
XI	-14203
ZZ	-14204
ao	-14205
fj	-14206
hm	-14207
iv	-14208
mó	-14209
pl	-14210
wC	-14211
áá	-14212
AAF	-14213
EMA	-14214
aba	-14215
aku	-14216
aya	-14217
aza	-14218
bin	-14219
chi	-14220
cho	-14221
edo	-14222
ezi	-14223
fer	-14224
icz	-14225
mir	-14226
not	-14227
oto	-14228
pel	-14229
rit	-14230
rop	-14231
tey	-14232
ure	-14233
vos	-14234
ÉRT	-14235
ádi	-14236
úzi	-14237
▁#7	-14238
▁+4	-14239
▁03	-14240
▁??	-14241
▁By	-14242
▁Bö	-14243
▁CF	-14244
▁CG	-14245
▁DB	-14246
▁GQ	-14247
▁HK	-14248
▁LL	-14249
▁LV	-14250
▁Mü	-14251
▁Nú	-14252
▁Oh	-14253
▁RI	-14254
▁SX	-14255
▁Sí	-14256
▁Sű	-14257
▁VK	-14258
▁bt	-14259
▁fj	-14260
▁mt	-14261
▁oS	-14262
▁tn	-14263
▁tx	-14264
▁wo	-14265
▁ÉV	-14266
▁őp	-14267
andé	-14268
anyh	-14269
csík	-14270
▁!!!	-14271
▁(12	-14272
▁(33	-14273
▁-20	-14274
▁148	-14275
▁151	-14276
▁153	-14277
▁169	-14278
▁201	-14279
▁209	-14280
▁222	-14281
▁228	-14282
▁232	-14283
▁24,	-14284
▁251	-14285
▁268	-14286
▁304	-14287
▁324	-14288
▁345	-14289
▁406	-14290
▁5-3	-14291
▁56.	-14292
▁580	-14293
▁75.	-14294
▁81.	-14295
▁82.	-14296
▁820	-14297
▁830	-14298
▁87.	-14299
▁960	-14300
▁ATM	-14301
▁ATP	-14302
▁AXA	-14303
▁Abo	-14304
▁Arg	-14305
▁BAE	-14306
▁BMI	-14307
▁DSL	-14308
▁EDF	-14309
▁EGY	-14310
▁EKK	-14311
▁EPT	-14312
▁ERM	-14313
▁End	-14314
▁FAO	-14315
▁FAZ	-14316
▁FDA	-14317
▁FIL	-14318
▁Fau	-14319
▁Fót	-14320
▁Gól	-14321
▁Hxa	-14322
▁IFA	-14323
▁IMD	-14324
▁IPI	-14325
▁Jót	-14326
▁KSZ	-14327
▁LLC	-14328
▁LPG	-14329
▁MAG	-14330
▁MGM	-14331
▁MHz	-14332
▁McB	-14333
▁McE	-14334
▁McN	-14335
▁Met	-14336
▁NYI	-14337
▁Nad	-14338
▁Neg	-14339
▁Noé	-14340
▁OFE	-14341
▁OSA	-14342
▁PGA	-14343
▁PIN	-14344
▁Por	-14345
▁PwC	-14346
▁Pól	-14347
▁RCA	-14348
▁Réz	-14349
▁SAP	-14350
▁SZO	-14351
▁Sah	-14352
▁Sar	-14353
▁Sin	-14354
▁Uli	-14355
▁VEB	-14356
▁VSK	-14357
▁Vxh	-14358
▁War	-14359
▁Who	-14360
▁Wii	-14361
▁aby	-14362
▁afi	-14363
▁awk	-14364
▁bro	-14365
▁bxa	-14366
▁béu	-14367
▁cre	-14368
▁eci	-14369
▁eck	-14370
▁egj	-14371
▁epü	-14372
▁etí	-14373
▁evá	-14374
▁exf	-14375
▁eór	-14376
▁gir	-14377
▁gni	-14378
▁got	-14379
▁hem	-14380
▁hom	-14381
▁hűl	-14382
▁idl	-14383
▁idu	-14384
▁jah	-14385
▁jok	-14386
▁jot	-14387
▁lmű	-14388
▁lum	-14389
▁léd	-14390
▁mao	-14391
▁max	-14392
▁mlá	-14393
▁oah	-14394
▁oaq	-14395
▁oba	-14396
▁oew	-14397
▁orz	-14398
▁oua	-14399
▁oud	-14400
▁ppo	-14401
▁pác	-14402
▁rvi	-14403
▁sam	-14404
▁sev	-14405
▁szj	-14406
▁uck	-14407
▁udy	-14408
▁uin	-14409
▁uki	-14410
▁umm	-14411
▁utz	-14412
▁uín	-14413
▁web	-14414
▁zio	-14415
▁zzy	-14416
▁zün	-14417
▁ÖVP	-14418
▁átn	-14419
▁éró	-14420
▁évb	-14421
▁ógu	-14422
▁óla	-14423
▁ömp	-14424
▁ümm	-14425
▁őrt	-14426
▁ővá	-14427
▁őér	-14428
▁ADAC	-14429
▁Abwo	-14430
▁Arti	-14431
▁Arts	-14432
▁Asam	-14433
▁Bagi	-14434
▁Báta	-14435
▁Cahi	-14436
▁Dras	-14437
▁Earl	-14438
▁FCSM	-14439
▁FIDE	-14440
▁IAAF	-14441
▁KEHI	-14442
▁KISZ	-14443
▁KÖSZ	-14444
▁LIFE	-14445
▁Lant	-14446
▁Lima	-14447
▁MJSZ	-14448
▁MNYP	-14449
▁MacA	-14450
▁Manh	-14451
▁Mano	-14452
▁Manu	-14453
▁MySp	-14454
▁NFGM	-14455
▁Nina	-14456
▁Nino	-14457
▁PAOK	-14458
▁PDSZ	-14459
▁Peno	-14460
▁Roth	-14461
▁Tira	-14462
▁Túri	-14463
▁WAMP	-14464
▁abit	-14465
▁abou	-14466
▁acha	-14467
▁agra	-14468
▁aguá	-14469
▁agyj	-14470
▁ajol	-14471
▁akob	-14472
▁akub	-14473
▁akál	-14474
▁alda	-14475
▁alog	-14476
▁alou	-14477
▁alók	-14478
▁ammó	-14479
▁anye	-14480
▁apda	-14481
▁arce	-14482
▁assi	-14483
▁aszi	-14484
▁atah	-14485
▁atel	-14486
▁atil	-14487
▁atis	-14488
▁atto	-14489
▁ause	-14490
▁azic	-14491
▁azsó	-14492
▁bana	-14493
▁bbik	-14494
▁bent	-14495
▁bina	-14496
▁birk	-14497
▁bron	-14498
▁bumm	-14499
▁buvá	-14500
▁bábu	-14501
▁bálo	-14502
▁bánt	-14503
▁báró	-14504
▁ccin	-14505
▁dgar	-14506
▁drót	-14507
▁duba	-14508
▁ecas	-14509
▁ecco	-14510
▁econ	-14511
▁edor	-14512
▁eita	-14513
▁ejmu	-14514
▁elas	-14515
▁elma	-14516
▁emcs	-14517
▁enan	-14518
▁enea	-14519
▁eney	-14520
▁ensz	-14521
▁erac	-14522
▁eran	-14523
▁ergé	-14524
▁eria	-14525
▁ermi	-14526
▁erty	-14527
▁ertá	-14528
▁esch	-14529
▁ettá	-14530
▁eusz	-14531
▁ezei	-14532
▁ezár	-14533
▁fors	-14534
▁gyón	-14535
▁hank	-14536
▁howd	-14537
▁häus	-14538
▁icle	-14539
▁iers	-14540
▁iess	-14541
▁igno	-14542
▁ikto	-14543
▁ikár	-14544
▁ilda	-14545
▁imzo	-14546
▁inal	-14547
▁ipek	-14548
▁ipsz	-14549
▁irts	-14550
▁iusz	-14551
▁kale	-14552
▁kari	-14553
▁karm	-14554
▁katt	-14555
▁kava	-14556
▁kebl	-14557
▁klim	-14558
▁kuva	-14559
▁kéta	-14560
▁laci	-14561
▁lain	-14562
▁leis	-14563
▁lena	-14564
▁lens	-14565
▁lexi	-14566
▁lika	-14567
▁lkád	-14568
▁lopm	-14569
▁lová	-14570
▁lédi	-14571
▁lódu	-14572
▁lósz	-14573
▁lőni	-14574
▁mera	-14575
▁metz	-14576
▁mába	-14577
▁ncan	-14578
▁neft	-14579
▁nico	-14580
▁nics	-14581
▁nnyé	-14582
▁nyáj	-14583
▁odot	-14584
▁ogar	-14585
▁ogyi	-14586
▁ojuz	-14587
▁omar	-14588
▁onyá	-14589
▁orte	-14590
▁orus	-14591
▁orvá	-14592
▁osco	-14593
▁osic	-14594
▁osmo	-14595
▁ospi	-14596
▁osse	-14597
▁otya	-14598
▁oust	-14599
▁oxer	-14600
▁pado	-14601
▁pima	-14602
▁pite	-14603
▁podá	-14604
▁polc	-14605
▁pult	-14606
▁púpo	-14607
▁quer	-14608
▁racs	-14609
▁rava	-14610
▁ravo	-14611
▁read	-14612
▁rgas	-14613
▁rimm	-14614
▁rkez	-14615
▁rody	-14616
▁roes	-14617
▁romo	-14618
▁rézs	-14619
▁ríma	-14620
▁sand	-14621
▁ship	-14622
▁simí	-14623
▁size	-14624
▁spam	-14625
▁stad	-14626
▁stal	-14627
▁szif	-14628
▁széf	-14629
▁szót	-14630
▁sánt	-14631
▁síma	-14632
▁tact	-14633
▁tanu	-14634
▁tasy	-14635
▁teeg	-14636
▁tege	-14637
▁tell	-14638
▁tepa	-14639
▁than	-14640
▁time	-14641
▁tine	-14642
▁tock	-14643
▁trin	-14644
▁túla	-14645
▁uant	-14646
▁uche	-14647
▁ucsi	-14648
▁ugat	-14649
▁umin	-14650
▁urdi	-14651
▁urdo	-14652
▁urul	-14653
▁ussz	-14654
▁uzer	-14655
▁vago	-14656
▁vali	-14657
▁vinc	-14658
▁vász	-14659
▁weet	-14660
▁wicz	-14661
▁wimb	-14662
▁xxon	-14663
▁yber	-14664
▁ytho	-14665
▁zbég	-14666
▁zzog	-14667
▁álov	-14668
▁ánta	-14669
▁ápák	-14670
▁ármű	-14671
▁ászf	-14672
▁ívis	-14673
▁ívül	-14674
▁óság	-14675
▁óton	-14676
▁ózon	-14677
▁örgl	-14678
▁öwen	-14679
▁ütyk	-14680
▁Aarhu	-14681
▁Annie	-14682
▁Favre	-14683
▁Pandá	-14684
▁acher	-14685
▁acsin	-14686
▁adron	-14687
▁agyuk	-14688
▁akvar	-14689
▁alawi	-14690
▁aljós	-14691
▁alkuv	-14692
▁andin	-14693
▁apósa	-14694
▁arami	-14695
▁arise	-14696
▁arusz	-14697
▁arvis	-14698
▁aróti	-14699
▁asiná	-14700
▁atyro	-14701
▁azare	-14702
▁bauer	-14703
▁birká	-14704
▁bordá	-14705
▁bágyi	-14706
▁bányá	-14707
▁diszk	-14708
▁diótá	-14709
▁eader	-14710
▁einer	-14711
▁ellus	-14712
▁elídí	-14713
▁endel	-14714
▁enyer	-14715
▁epler	-14716
▁ertze	-14717
▁essna	-14718
▁etyer	-14719
▁fedro	-14720
▁gomba	-14721
▁gombó	-14722
▁gyért	-14723
▁hedir	-14724
▁hofer	-14725
▁hoice	-14726
▁ierse	-14727
▁ietzs	-14728
▁ikono	-14729
▁inois	-14730
▁intol	-14731
▁inute	-14732
▁invaz	-14733
▁ionta	-14734
▁ippek	-14735
▁ippel	-14736
▁irenz	-14737
▁isboa	-14738
▁isnov	-14739
▁ister	-14740
▁ivője	-14741
▁izomz	-14742
▁jászo	-14743
▁klúzi	-14744
▁korbá	-14745
▁korsó	-14746
▁kukás	-14747
▁költs	-14748
▁lanyh	-14749
▁lazer	-14750
▁lovan	-14751
▁ltrai	-14752
▁lárvá	-14753
▁madou	-14754
▁magro	-14755
▁malaj	-14756
▁mentá	-14757
▁mondj	-14758
▁mpire	-14759
▁mézze	-14760
▁nauta	-14761
▁ndner	-14762
▁nevál	-14763
▁nibal	-14764
▁nipes	-14765
▁nnaff	-14766
▁obrov	-14767
▁ockáz	-14768
▁odoky	-14769
▁ogrom	-14770
▁oljon	-14771
▁onacó	-14772
▁ondrá	-14773
▁onúsz	-14774
▁orner	-14775
▁orrow	-14776
▁osban	-14777
▁othar	-14778
▁ourde	-14779
▁pandé	-14780
▁panír	-14781
▁pedál	-14782
▁pizsa	-14783
▁pollo	-14784
▁pottr	-14785
▁prise	-14786
▁párná	-14787
▁randa	-14788
▁ransz	-14789
▁reich	-14790
▁retin	-14791
▁revor	-14792
▁rlesq	-14793
▁rámiá	-14794
▁részl	-14795
▁shtey	-14796
▁sible	-14797
▁spage	-14798
▁spino	-14799
▁stine	-14800
▁szeke	-14801
▁sztof	-14802
▁tapog	-14803
▁tarka	-14804
▁tiprá	-14805
▁toxin	-14806
▁traka	-14807
▁treep	-14808
▁tépáz	-14809
▁uliná	-14810
▁ument	-14811
▁ustár	-14812
▁vacak	-14813
▁vania	-14814
▁ydroc	-14815
▁zemol	-14816
▁ánkód	-14817
▁äuble	-14818
▁öhler	-14819
1,	-14820
CA	-14821
FF	-14822
HK	-14823
LB	-14824
MK	-14825
NE	-14826
ST	-14827
TH	-14828
UA	-14829
UM	-14830
ZS	-14831
ae	-14832
hs	-14833
ić	-14834
sk	-14835
ÁR	-14836
ÁT	-14837
ÉR	-14838
▁£	-14839
▁°	-14840
▁ă	-14841
Gas	-14842
MSZ	-14843
SZB	-14844
aks	-14845
bar	-14846
ceu	-14847
cso	-14848
eng	-14849
etz	-14850
hea	-14851
isz	-14852
mbo	-14853
net	-14854
omb	-14855
qué	-14856
rea	-14857
ril	-14858
sen	-14859
ton	-14860
uro	-14861
vik	-14862
zep	-14863
ájz	-14864
éto	-14865
▁#4	-14866
▁-6	-14867
▁05	-14868
▁06	-14869
▁0:	-14870
▁1)	-14871
▁3)	-14872
▁5%	-14873
▁7)	-14874
▁Ai	-14875
▁Ay	-14876
▁BI	-14877
▁BS	-14878
▁ED	-14879
▁EV	-14880
▁GC	-14881
▁GO	-14882
▁HO	-14883
▁JC	-14884
▁Ld	-14885
▁NV	-14886
▁OD	-14887
▁OH	-14888
▁PB	-14889
▁Qi	-14890
▁RK	-14891
▁TS	-14892
▁UK	-14893
▁Vu	-14894
▁hü	-14895
▁lp	-14896
▁mx	-14897
▁sj	-14898
▁yy	-14899
▁ÁV	-14900
▁ÖM	-14901
▁är	-14902
asis	-14903
clar	-14904
▁(15	-14905
▁(45	-14906
▁(55	-14907
▁(69	-14908
▁+10	-14909
▁-1,	-14910
▁-5,	-14911
▁0,0	-14912
▁1.4	-14913
▁177	-14914
▁199	-14915
▁216	-14916
▁233	-14917
▁235	-14918
▁263	-14919
▁282	-14920
▁289	-14921
▁293	-14922
▁295	-14923
▁308	-14924
▁322	-14925
▁325	-14926
▁327	-14927
▁329	-14928
▁333	-14929
▁336	-14930
▁337	-14931
▁410	-14932
▁42,	-14933
▁45,	-14934
▁460	-14935
▁490	-14936
▁51.	-14937
▁58.	-14938
▁6,0	-14939
▁610	-14940
▁73.	-14941
▁76.	-14942
▁85.	-14943
▁92.	-14944
▁ADO	-14945
▁Aba	-14946
▁BAR	-14947
▁BTK	-14948
▁CEB	-14949
▁CHL	-14950
▁EBU	-14951
▁ECB	-14952
▁EIB	-14953
▁EKI	-14954
▁ELI	-14955
▁ENŐ	-14956
▁Eck	-14957
▁FCC	-14958
▁FIS	-14959
▁GTI	-14960
▁HTM	-14961
▁Hao	-14962
▁Hun	-14963
▁Hxg	-14964
▁Ily	-14965
▁KDH	-14966
▁KKK	-14967
▁Leo	-14968
▁Lim	-14969
▁MNA	-14970
▁Mir	-14971
▁NHT	-14972
▁NYF	-14973
▁Nar	-14974
▁Nec	-14975
▁Non	-14976
▁NÜK	-14977
▁OIT	-14978
▁ORF	-14979
▁Ole	-14980
▁Rab	-14981
▁Rex	-14982
▁Rob	-14983
▁SDR	-14984
▁SEC	-14985
▁SLS	-14986
▁SPA	-14987
▁TER	-14988
▁TSA	-14989
▁TSI	-14990
▁Tab	-14991
▁Tád	-14992
▁UCI	-14993
▁VTK	-14994
▁Yue	-14995
▁ZDF	-14996
▁aiz	-14997
▁ajm	-14998
▁amr	-14999
▁anx	-15000
▁asy	-15001
▁atz	-15002
▁ayo	-15003
▁ayy	-15004
▁azó	-15005
▁bej	-15006
▁big	-15007
▁bín	-15008
▁bög	-15009
▁cin	-15010
▁cki	-15011
▁cán	-15012
▁dou	-15013
▁dum	-15014
▁eab	-15015
▁eem	-15016
▁ees	-15017
▁ejd	-15018
▁ejm	-15019
▁ems	-15020
▁esd	-15021
▁ezv	-15022
▁eón	-15023
▁fan	-15024
▁fau	-15025
▁fei	-15026
▁glu	-15027
▁gló	-15028
▁grü	-15029
▁góc	-15030
▁hey	-15031
▁hiú	-15032
▁ieb	-15033
▁igg	-15034
▁igl	-15035
▁jós	-15036
▁kám	-15037
▁lax	-15038
▁lde	-15039
▁lix	-15040
▁loa	-15041
▁löl	-15042
▁map	-15043
▁miv	-15044
▁odt	-15045
▁ody	-15046
▁oed	-15047
▁ofí	-15048
▁ohn	-15049
▁onj	-15050
▁pac	-15051
▁quo	-15052
▁roh	-15053
▁rüh	-15054
▁sec	-15055
▁ská	-15056
▁sop	-15057
▁sám	-15058
▁són	-15059
▁taj	-15060
▁tgy	-15061
▁tml	-15062
▁tto	-15063
▁tóz	-15064
▁udm	-15065
▁uol	-15066
▁usq	-15067
▁uud	-15068
▁váz	-15069
▁wig	-15070
▁wyn	-15071
▁yed	-15072
▁zsé	-15073
▁zös	-15074
▁Örs	-15075
▁ápo	-15076
▁árg	-15077
▁árh	-15078
▁árq	-15079
▁áso	-15080
▁érc	-15081
▁ízt	-15082
▁üde	-15083
▁ürg	-15084
▁őve	-15085
▁űrt	-15086
▁Agne	-15087
▁Andó	-15088
▁Anno	-15089
▁Anze	-15090
▁Apac	-15091
▁Asus	-15092
▁Aveo	-15093
▁BATE	-15094
▁Bali	-15095
▁Bumm	-15096
▁Buzs	-15097
▁Buzá	-15098
▁Búza	-15099
▁Clea	-15100
▁Eras	-15101
▁Expe	-15102
▁FARC	-15103
▁FSZB	-15104
▁Fuzi	-15105
▁KITE	-15106
▁KMOP	-15107
▁MRSZ	-15108
▁Misi	-15109
▁Mádi	-15110
▁NSSZ	-15111
▁Nica	-15112
▁Orav	-15113
▁PETA	-15114
▁Prad	-15115
▁Radó	-15116
▁Rajk	-15117
▁Rodo	-15118
▁Rudi	-15119
▁Zitá	-15120
▁abar	-15121
▁acau	-15122
▁acch	-15123
▁acco	-15124
▁afax	-15125
▁agló	-15126
▁ahri	-15127
▁alah	-15128
▁alca	-15129
▁alit	-15130
▁alto	-15131
▁amme	-15132
▁ampf	-15133
▁ampu	-15134
▁ania	-15135
▁anje	-15136
▁anks	-15137
▁anru	-15138
▁aper	-15139
▁após	-15140
▁arcy	-15141
▁arcz	-15142
▁ardo	-15143
▁arfi	-15144
▁artz	-15145
▁asen	-15146
▁asid	-15147
▁atyr	-15148
▁atán	-15149
▁atúr	-15150
▁auss	-15151
▁avol	-15152
▁awei	-15153
▁azdá	-15154
▁azir	-15155
▁bacs	-15156
▁blam	-15157
▁bles	-15158
▁ctur	-15159
▁damu	-15160
▁deno	-15161
▁diol	-15162
▁dést	-15163
▁eggy	-15164
▁ehol	-15165
▁eise	-15166
▁ekká	-15167
▁elei	-15168
▁elio	-15169
▁ells	-15170
▁elov	-15171
▁elto	-15172
▁enad	-15173
▁endy	-15174
▁enga	-15175
▁enoá	-15176
▁enyí	-15177
▁erif	-15178
▁erka	-15179
▁erku	-15180
▁erné	-15181
▁erti	-15182
▁erva	-15183
▁esor	-15184
▁etas	-15185
▁evin	-15186
▁evol	-15187
▁fany	-15188
▁finx	-15189
▁gamy	-15190
▁ggal	-15191
▁gric	-15192
▁gulá	-15193
▁hand	-15194
▁hore	-15195
▁hree	-15196
▁hóna	-15197
▁idom	-15198
▁idra	-15199
▁ijad	-15200
▁imfo	-15201
▁imic	-15202
▁imon	-15203
▁indo	-15204
▁inov	-15205
▁inst	-15206
▁ioso	-15207
▁ipká	-15208
▁ipog	-15209
▁iqué	-15210
▁iász	-15211
▁kinc	-15212
▁klie	-15213
▁kokó	-15214
▁koml	-15215
▁komó	-15216
▁korz	-15217
▁kuka	-15218
▁kuna	-15219
▁kóla	-15220
▁kösz	-15221
▁laas	-15222
▁lada	-15223
▁lakk	-15224
▁lane	-15225
▁laty	-15226
▁ldal	-15227
▁ldoz	-15228
▁leig	-15229
▁lelt	-15230
▁levá	-15231
▁lill	-15232
▁lilá	-15233
▁litz	-15234
▁lobo	-15235
▁loop	-15236
▁lopp	-15237
▁ltch	-15238
▁lyog	-15239
▁lász	-15240
▁léta	-15241
▁maja	-15242
▁mani	-15243
▁manó	-15244
▁merá	-15245
▁mirá	-15246
▁mone	-15247
▁méne	-15248
▁nacó	-15249
▁napj	-15250
▁ncut	-15251
▁nish	-15252
▁nner	-15253
▁ntim	-15254
▁néné	-15255
▁ocha	-15256
▁odak	-15257
▁ogne	-15258
▁ombo	-15259
▁ompa	-15260
▁omul	-15261
▁onar	-15262
▁orbo	-15263
▁orgó	-15264
▁orné	-15265
▁osec	-15266
▁oser	-15267
▁oszi	-15268
▁otex	-15269
▁otál	-15270
▁ours	-15271
▁owan	-15272
▁owli	-15273
▁pali	-15274
▁palá	-15275
▁panc	-15276
▁patá	-15277
▁perá	-15278
▁pice	-15279
▁pint	-15280
▁plex	-15281
▁pofo	-15282
▁pold	-15283
▁post	-15284
▁ppal	-15285
▁prím	-15286
▁rald	-15287
▁rati	-15288
▁reno	-15289
▁rezs	-15290
▁ricu	-15291
▁rold	-15292
▁ronc	-15293
▁rowe	-15294
▁rrög	-15295
▁ruit	-15296
▁runi	-15297
▁rédé	-15298
▁sGas	-15299
▁shoz	-15300
▁siku	-15301
▁skar	-15302
▁skis	-15303
▁spol	-15304
▁spán	-15305
▁ssef	-15306
▁swap	-15307
▁szlé	-15308
▁séfj	-15309
▁séne	-15310
▁tark	-15311
▁taud	-15312
▁tegy	-15313
▁théq	-15314
▁tkár	-15315
▁tlet	-15316
▁toes	-15317
▁tojó	-15318
▁toló	-15319
▁toma	-15320
▁tona	-15321
▁topo	-15322
▁tuóz	-15323
▁téko	-15324
▁ucin	-15325
▁ugin	-15326
▁uhan	-15327
▁ulka	-15328
▁ulto	-15329
▁umif	-15330
▁umpy	-15331
▁undi	-15332
▁uskó	-15333
▁utba	-15334
▁uval	-15335
▁uwon	-15336
▁vang	-15337
▁verz	-15338
▁vety	-15339
▁vidi	-15340
▁wand	-15341
▁wick	-15342
▁ztál	-15343
▁züll	-15344
▁zült	-15345
▁áder	-15346
▁ádud	-15347
▁álam	-15348
▁áncs	-15349
▁áncz	-15350
▁ánjá	-15351
▁ántá	-15352
▁ásti	-15353
▁ászo	-15354
▁ászy	-15355
▁átán	-15356
▁ázzs	-15357
▁éklá	-15358
▁érna	-15359
▁észé	-15360
▁étét	-15361
▁ínai	-15362
▁ólia	-15363
▁ökhe	-15364
▁örcs	-15365
▁özep	-15366
▁ülyí	-15367
▁ürch	-15368
▁ürkü	-15369
▁őszö	-15370
▁AMOSZ	-15371
▁Aleja	-15372
▁Dagen	-15373
▁Madis	-15374
▁Oasis	-15375
▁Ultra	-15376
▁acsar	-15377
▁aczol	-15378
▁adtán	-15379
▁aganó	-15380
▁agina	-15381
▁ahler	-15382
▁ahmud	-15383
▁alajá	-15384
▁alkuk	-15385
▁alpin	-15386
▁alóli	-15387
▁ammal	-15388
▁amour	-15389
▁amsay	-15390
▁andar	-15391
▁andom	-15392
▁aneta	-15393
▁angya	-15394
▁antan	-15395
▁anyáz	-15396
▁aquin	-15397
▁arang	-15398
▁arika	-15399
▁arine	-15400
▁arper	-15401
▁arraz	-15402
▁artre	-15403
▁aszká	-15404
▁aszla	-15405
▁atalo	-15406
▁atróz	-15407
▁atteo	-15408
▁avare	-15409
▁badar	-15410
▁barká	-15411
▁bioma	-15412
▁bóklá	-15413
▁díler	-15414
▁dühro	-15415
▁edesa	-15416
▁eiper	-15417
▁elező	-15418
▁elley	-15419
▁elyet	-15420
▁endás	-15421
▁enová	-15422
▁erbin	-15423
▁erczo	-15424
▁erend	-15425
▁ergon	-15426
▁erthá	-15427
▁erzif	-15428
▁eszle	-15429
▁etyeg	-15430
▁eveld	-15431
▁evich	-15432
▁eyers	-15433
▁ezbol	-15434
▁falaz	-15435
▁fália	-15436
▁garde	-15437
▁guine	-15438
▁ibral	-15439
▁iffel	-15440
▁igani	-15441
▁ihnov	-15442
▁imper	-15443
▁inema	-15444
▁inget	-15445
▁inkog	-15446
▁ipoch	-15447
▁iprás	-15448
▁irgiz	-15449
▁issio	-15450
▁iszom	-15451
▁itage	-15452
▁itani	-15453
▁itzge	-15454
▁kanal	-15455
▁karbo	-15456
▁klári	-15457
▁lanck	-15458
▁larke	-15459
▁lavio	-15460
▁louis	-15461
▁látno	-15462
▁maele	-15463
▁malac	-15464
▁mangá	-15465
▁masza	-15466
▁mbert	-15467
▁mclar	-15468
▁medré	-15469
▁mentó	-15470
▁metaf	-15471
▁minta	-15472
▁mágus	-15473
▁ndisz	-15474
▁nibál	-15475
▁nitúd	-15476
▁nyder	-15477
▁oldáv	-15478
▁onosz	-15479
▁onter	-15480
▁oposz	-15481
▁orvay	-15482
▁ouill	-15483
▁ovász	-15484
▁paszt	-15485
▁pilla	-15486
▁playb	-15487
▁poulo	-15488
▁pucol	-15489
▁puszi	-15490
▁ralik	-15491
▁remeg	-15492
▁reudi	-15493
▁rezze	-15494
▁rooks	-15495
▁rtyom	-15496
▁rvena	-15497
▁röhej	-15498
▁röszk	-15499
▁savas	-15500
▁senkó	-15501
▁slaut	-15502
▁sonic	-15503
▁spájz	-15504
▁stell	-15505
▁szele	-15506
▁szezo	-15507
▁sápad	-15508
▁tanya	-15509
▁tefán	-15510
▁telka	-15511
▁teore	-15512
▁teper	-15513
▁terve	-15514
▁tojka	-15515
▁tonná	-15516
▁tosan	-15517
▁treit	-15518
▁trott	-15519
▁tutit	-15520
▁upert	-15521
▁urdan	-15522
▁venír	-15523
▁vivor	-15524
▁zebra	-15525
▁áglyá	-15526
▁áliki	-15527
▁ályog	-15528
▁árado	-15529
▁árász	-15530
▁átrat	-15531
▁átyjá	-15532
▁ölgyi	-15533
▁örgey	-15534
▁ütyül	-15535
-1	-15536
10	-15537
3,	-15538
90	-15539
EU	-15540
El	-15541
KO	-15542
LÓ	-15543
OE	-15544
UP	-15545
YF	-15546
ea	-15547
eh	-15548
ob	-15549
rd	-15550
xh	-15551
ym	-15552
ÖP	-15553
ät	-15554
▁â	-15555
EMO	-15556
FRS	-15557
GSZ	-15558
SZT	-15559
TOP	-15560
ado	-15561
asc	-15562
ats	-15563
bis	-15564
báj	-15565
can	-15566
egi	-15567
esz	-15568
fin	-15569
hau	-15570
lij	-15571
lis	-15572
low	-15573
men	-15574
nev	-15575
oni	-15576
ovi	-15577
rib	-15578
riq	-15579
riu	-15580
tay	-15581
ule	-15582
uno	-15583
usa	-15584
vVM	-15585
way	-15586
zin	-15587
zió	-15588
zzz	-15589
ánt	-15590
ége	-15591
ézy	-15592
óli	-15593
öml	-15594
űné	-15595
▁(+	-15596
▁+5	-15597
▁9)	-15598
▁CW	-15599
▁DI	-15600
▁EA	-15601
▁Fl	-15602
▁GL	-15603
▁Hz	-15604
▁If	-15605
▁Im	-15606
▁KV	-15607
▁MD	-15608
▁Oz	-15609
▁Pu	-15610
▁QX	-15611
▁RV	-15612
▁TF	-15613
▁TK	-15614
▁XY	-15615
▁Ye	-15616
▁cn	-15617
▁dn	-15618
▁eL	-15619
▁fb	-15620
▁iq	-15621
▁iü	-15622
▁kd	-15623
▁sg	-15624
▁tw	-15625
▁uy	-15626
▁ÁN	-15627
▁Ón	-15628
▁úd	-15629
agra	-15630
ndch	-15631
ogin	-15632
ovie	-15633
ravi	-15634
áska	-15635
ötty	-15636
▁(1.	-15637
▁(21	-15638
▁(24	-15639
▁(35	-15640
▁(37	-15641
▁(40	-15642
▁(50	-15643
▁-12	-15644
▁-9,	-15645
▁1/4	-15646
▁154	-15647
▁161	-15648
▁164	-15649
▁214	-15650
▁219	-15651
▁226	-15652
▁238	-15653
▁244	-15654
▁246	-15655
▁248	-15656
▁249	-15657
▁256	-15658
▁281	-15659
▁297	-15660
▁311	-15661
▁316	-15662
▁347	-15663
▁382	-15664
▁422	-15665
▁43.	-15666
▁445	-15667
▁465	-15668
▁49.	-15669
▁494	-15670
▁520	-15671
▁620	-15672
▁66.	-15673
▁718	-15674
▁8.)	-15675
▁828	-15676
▁83.	-15677
▁91.	-15678
▁999	-15679
▁???	-15680
▁AIG	-15681
▁AMD	-15682
▁ARC	-15683
▁Ape	-15684
▁Apo	-15685
▁Asp	-15686
▁Ass	-15687
▁Aud	-15688
▁Aul	-15689
▁BMC	-15690
▁Bfd	-15691
▁Bis	-15692
▁BÖP	-15693
▁CBF	-15694
▁CVT	-15695
▁Cam	-15696
▁CeB	-15697
▁Cop	-15698
▁Czu	-15699
▁DHL	-15700
▁DRV	-15701
▁Das	-15702
▁Dió	-15703
▁EMF	-15704
▁Eis	-15705
▁FOR	-15706
▁FRA	-15707
▁Fia	-15708
▁Fru	-15709
▁Fxa	-15710
▁Hal	-15711
▁Hit	-15712
▁Hxb	-15713
▁IBE	-15714
▁ICE	-15715
▁IKO	-15716
▁IRA	-15717
▁JFK	-15718
▁Jet	-15719
▁Jug	-15720
▁KLM	-15721
▁Kxd	-15722
▁Kxf	-15723
▁LEG	-15724
▁Luc	-15725
▁MBA	-15726
▁MEI	-15727
▁MPP	-15728
▁MSK	-15729
▁MTE	-15730
▁Mam	-15731
▁NET	-15732
▁NHS	-15733
▁Nay	-15734
▁Nit	-15735
▁ORM	-15736
▁PET	-15737
▁Pia	-15738
▁Pom	-15739
▁Riz	-15740
▁Rég	-15741
▁SAS	-15742
▁SRA	-15743
▁Sol	-15744
▁Sós	-15745
▁TDH	-15746
▁TOP	-15747
▁Tan	-15748
▁VFR	-15749
▁VVV	-15750
▁Vic	-15751
▁Wat	-15752
▁aad	-15753
▁acc	-15754
▁adh	-15755
▁aer	-15756
▁aes	-15757
▁ahr	-15758
▁anó	-15759
▁arp	-15760
▁bij	-15761
▁bug	-15762
▁báj	-15763
▁böj	-15764
▁cai	-15765
▁cső	-15766
▁cxb	-15767
▁dér	-15768
▁edr	-15769
▁eiz	-15770
▁etp	-15771
▁eun	-15772
▁fij	-15773
▁fli	-15774
▁fás	-15775
▁főz	-15776
▁gei	-15777
▁gám	-15778
▁iaz	-15779
▁ibó	-15780
▁icu	-15781
▁idm	-15782
▁iló	-15783
▁inj	-15784
▁ipó	-15785
▁itn	-15786
▁iwi	-15787
▁jom	-15788
▁jug	-15789
▁kcm	-15790
▁loc	-15791
▁lud	-15792
▁lue	-15793
▁lyh	-15794
▁léz	-15795
▁mur	-15796
▁nts	-15797
▁nur	-15798
▁okl	-15799
▁ood	-15800
▁opi	-15801
▁otm	-15802
▁ots	-15803
▁ozd	-15804
▁oór	-15805
▁pej	-15806
▁pko	-15807
▁pta	-15808
▁pés	-15809
▁púp	-15810
▁rgl	-15811
▁rko	-15812
▁rmű	-15813
▁roc	-15814
▁rtö	-15815
▁róp	-15816
▁stl	-15817
▁tah	-15818
▁tup	-15819
▁uai	-15820
▁ual	-15821
▁uba	-15822
▁uká	-15823
▁ulj	-15824
▁ulp	-15825
▁yah	-15826
▁yid	-15827
▁ynd	-15828
▁Ára	-15829
▁Írt	-15830
▁ánz	-15831
▁ázt	-15832
▁ébé	-15833
▁írd	-15834
▁óti	-15835
▁öly	-15836
▁öne	-15837
▁údy	-15838
▁úra	-15839
▁űvé	-15840
▁Abbi	-15841
▁Akin	-15842
▁Ales	-15843
▁Andi	-15844
▁Anja	-15845
▁Arbe	-15846
▁BUSZ	-15847
▁Bati	-15848
▁Boda	-15849
▁Bucs	-15850
▁Clem	-15851
▁Cora	-15852
▁Cran	-15853
▁Daka	-15854
▁Eato	-15855
▁Exit	-15856
▁From	-15857
▁Gama	-15858
▁HSBC	-15859
▁IFRS	-15860
▁KCNA	-15861
▁KEOP	-15862
▁KvVM	-15863
▁Lali	-15864
▁Lane	-15865
▁Libé	-15866
▁Lisb	-15867
▁MESZ	-15868
▁MSZH	-15869
▁MTSZ	-15870
▁MacD	-15871
▁Malm	-15872
▁Mani	-15873
▁Mens	-15874
▁NKSE	-15875
▁NSZK	-15876
▁Netw	-15877
▁Nézz	-15878
▁Núri	-15879
▁OKSZ	-15880
▁PNAS	-15881
▁PPKE	-15882
▁Pong	-15883
▁Ponz	-15884
▁Rand	-15885
▁SZJA	-15886
▁SZNT	-15887
▁Soma	-15888
▁abhe	-15889
▁abir	-15890
▁acie	-15891
▁adac	-15892
▁adak	-15893
▁adwa	-15894
▁affe	-15895
▁ahno	-15896
▁aith	-15897
▁ajná	-15898
▁akic	-15899
▁akvá	-15900
▁allé	-15901
▁alsz	-15902
▁alza	-15903
▁anam	-15904
▁anco	-15905
▁ande	-15906
▁anke	-15907
▁anty	-15908
▁apan	-15909
▁arms	-15910
▁arnu	-15911
▁arté	-15912
▁arus	-15913
▁arva	-15914
▁asia	-15915
▁asor	-15916
▁aszu	-15917
▁athe	-15918
▁atyn	-15919
▁auch	-15920
▁aule	-15921
▁aulá	-15922
▁axof	-15923
▁babo	-15924
▁baon	-15925
▁bell	-15926
▁biká	-15927
▁bono	-15928
▁boom	-15929
▁buja	-15930
▁burj	-15931
▁böjt	-15932
▁chet	-15933
▁csij	-15934
▁csík	-15935
▁dahl	-15936
▁dakt	-15937
▁dell	-15938
▁dome	-15939
▁domá	-15940
▁domé	-15941
▁drog	-15942
▁drás	-15943
▁dóze	-15944
▁dühí	-15945
▁dőny	-15946
▁earl	-15947
▁ebab	-15948
▁edot	-15949
▁edák	-15950
▁egys	-15951
▁egyz	-15952
▁eiph	-15953
▁elym	-15954
▁eman	-15955
▁emis	-15956
▁emps	-15957
▁enya	-15958
▁epan	-15959
▁erer	-15960
▁eriu	-15961
▁erst	-15962
▁esie	-15963
▁etit	-15964
▁etői	-15965
▁eumá	-15966
▁eutá	-15967
▁evet	-15968
▁evid	-15969
▁ewle	-15970
▁ezai	-15971
▁ezin	-15972
▁ezuc	-15973
▁fala	-15974
▁fast	-15975
▁fejl	-15976
▁ffan	-15977
▁fiol	-15978
▁foka	-15979
▁gall	-15980
▁gnak	-15981
▁görd	-15982
▁haun	-15983
▁heck	-15984
▁heim	-15985
▁hell	-15986
▁heor	-15987
▁hrek	-15988
▁ibor	-15989
▁icci	-15990
▁ichl	-15991
▁icht	-15992
▁idic	-15993
▁idst	-15994
▁igna	-15995
▁iksa	-15996
▁ilen	-15997
▁imbo	-15998
▁imen	-15999
▁inda	-16000
▁iord	-16001
▁irou	-16002
▁itez	-16003
▁jörk	-16004
▁kabá	-16005
▁klen	-16006
▁kozi	-16007
▁krik	-16008
▁kubi	-16009
▁kály	-16010
▁késí	-16011
▁lank	-16012
▁lara	-16013
▁lari	-16014
▁lear	-16015
▁lesb	-16016
▁lina	-16017
▁linc	-16018
▁lity	-16019
▁llac	-16020
▁llit	-16021
▁lmar	-16022
▁loui	-16023
▁lund	-16024
▁lyud	-16025
▁lösz	-16026
▁lúzi	-16027
▁mble	-16028
▁menc	-16029
▁mero	-16030
▁mira	-16031
▁mode	-16032
▁moár	-16033
▁naív	-16034
▁ncze	-16035
▁ngad	-16036
▁nicá	-16037
▁nigu	-16038
▁nlac	-16039
▁nriq	-16040
▁nszt	-16041
▁nyák	-16042
▁océn	-16043
▁oday	-16044
▁ofré	-16045
▁oglu	-16046
▁ográ	-16047
▁ogul	-16048
▁oice	-16049
▁olee	-16050
▁olub	-16051
▁ombá	-16052
▁omáz	-16053
▁oncs	-16054
▁onák	-16055
▁ooke	-16056
▁oomi	-16057
▁opak	-16058
▁orsó	-16059
▁osza	-16060
▁otis	-16061
▁otro	-16062
▁oték	-16063
▁ourq	-16064
▁oyes	-16065
▁pely	-16066
▁pipa	-16067
▁pore	-16068
▁potá	-16069
▁pred	-16070
▁pucs	-16071
▁pánt	-16072
▁pöck	-16073
▁pöml	-16074
▁raaf	-16075
▁rack	-16076
▁rahe	-16077
▁raum	-16078
▁reem	-16079
▁ries	-16080
▁rivi	-16081
▁rons	-16082
▁rosj	-16083
▁roug	-16084
▁rrép	-16085
▁rsai	-16086
▁rune	-16087
▁rzso	-16088
▁ráni	-16089
▁réná	-16090
▁sara	-16091
▁scue	-16092
▁shaw	-16093
▁shut	-16094
▁sinc	-16095
▁ssey	-16096
▁sspi	-16097
▁stas	-16098
▁surr	-16099
▁szté	-16100
▁szák	-16101
▁szőr	-16102
▁sáro	-16103
▁tary	-16104
▁tass	-16105
▁tesó	-16106
▁tipo	-16107
▁titi	-16108
▁tnay	-16109
▁torl	-16110
▁totó	-16111
▁tova	-16112
▁tusá	-16113
▁tömí	-16114
▁uala	-16115
▁uang	-16116
▁uate	-16117
▁udek	-16118
▁ufei	-16119
▁ugor	-16120
▁ugra	-16121
▁ulko	-16122
▁umpu	-16123
▁unch	-16124
▁unyó	-16125
▁uran	-16126
▁uská	-16127
▁utic	-16128
▁uton	-16129
▁vant	-16130
▁vezt	-16131
▁vics	-16132
▁vvel	-16133
▁véná	-16134
▁wall	-16135
▁wijk	-16136
▁wing	-16137
▁yron	-16138
▁yász	-16139
▁zend	-16140
▁zená	-16141
▁zomá	-16142
▁zörg	-16143
▁ÁFSZ	-16144
▁ábád	-16145
▁álff	-16146
▁áltá	-16147
▁árgá	-16148
▁árkó	-16149
▁ármá	-16150
▁ársz	-16151
▁ártá	-16152
▁ásto	-16153
▁átyl	-16154
▁écel	-16155
▁ékla	-16156
▁émán	-16157
▁érge	-16158
▁évbe	-16159
▁ókay	-16160
▁órdo	-16161
▁öblí	-16162
▁önge	-16163
▁öpfl	-16164
▁örsi	-16165
▁övig	-16166
▁ücsk	-16167
▁őlőh	-16168
▁Arden	-16169
▁Bútor	-16170
▁Chron	-16171
▁Drake	-16172
▁MGSZH	-16173
▁NHTSA	-16174
▁SZEMA	-16175
▁Sayid	-16176
▁Tucat	-16177
▁Unger	-16178
▁abanc	-16179
▁abare	-16180
▁abine	-16181
▁abora	-16182
▁abric	-16183
▁abver	-16184
▁agall	-16185
▁agitá	-16186
▁ailey	-16187
▁allas	-16188
▁aller	-16189
▁allon	-16190
▁amahá	-16191
▁amizd	-16192
▁amper	-16193
▁angla	-16194
▁anufa	-16195
▁apace	-16196
▁apoel	-16197
▁arapó	-16198
▁arath	-16199
▁areth	-16200
▁arget	-16201
▁ariad	-16202
▁arron	-16203
▁arvel	-16204
▁asker	-16205
▁asmír	-16206
▁assin	-16207
▁atami	-16208
▁ation	-16209
▁atran	-16210
▁atron	-16211
▁atyjá	-16212
▁auble	-16213
▁avide	-16214
▁avone	-16215
▁awker	-16216
▁azita	-16217
▁babot	-16218
▁bagbó	-16219
▁bambu	-16220
▁bomba	-16221
▁borda	-16222
▁bunye	-16223
▁burka	-16224
▁bánná	-16225
▁creen	-16226
▁davos	-16227
▁drift	-16228
▁emere	-16229
▁eneca	-16230
▁engál	-16231
▁enior	-16232
▁enner	-16233
▁entil	-16234
▁enézy	-16235
▁eppel	-16236
▁erbst	-16237
▁ererá	-16238
▁erese	-16239
▁eszká	-16240
▁firká	-16241
▁fugli	-16242
▁füles	-16243
▁gally	-16244
▁gassi	-16245
▁gyalá	-16246
▁helyz	-16247
▁igmar	-16248
▁ikini	-16249
▁ikora	-16250
▁ilkor	-16251
▁illin	-16252
▁inkle	-16253
▁inórv	-16254
▁ipnot	-16255
▁ircea	-16256
▁irics	-16257
▁iréna	-16258
▁islog	-16259
▁itimá	-16260
▁iumei	-16261
▁izeus	-16262
▁izolá	-16263
▁izott	-16264
▁jámbo	-16265
▁kagra	-16266
▁kajál	-16267
▁kaját	-16268
▁kampó	-16269
▁kazin	-16270
▁kebel	-16271
▁kiáll	-16272
▁klima	-16273
▁kupac	-16274
▁kóder	-16275
▁kóser	-16276
▁kótya	-16277
▁kúráz	-16278
▁laket	-16279
▁lamou	-16280
▁lardy	-16281
▁lavan	-16282
▁ligán	-16283
▁lipsz	-16284
▁lokal	-16285
▁lomha	-16286
▁manda	-16287
▁marká	-16288
▁meríá	-16289
▁metél	-16290
▁mezej	-16291
▁milia	-16292
▁mount	-16293
▁movie	-16294
▁nauer	-16295
▁nelka	-16296
▁ngrid	-16297
▁nnitá	-16298
▁nszun	-16299
▁nyakú	-16300
▁nyest	-16301
▁odena	-16302
▁odore	-16303
▁oeder	-16304
▁olinó	-16305
▁olzse	-16306
▁ompej	-16307
▁ondra	-16308
▁ongrá	-16309
▁ontgo	-16310
▁ooker	-16311
▁opánk	-16312
▁orkás	-16313
▁osice	-16314
▁otsch	-16315
▁ottey	-16316
▁otázs	-16317
▁ouise	-16318
▁ouseC	-16319
▁pankr	-16320
▁patak	-16321
▁perel	-16322
▁perty	-16323
▁pizzé	-16324
▁pukka	-16325
▁pulcó	-16326
▁pítés	-16327
▁randy	-16328
▁remer	-16329
▁renák	-16330
▁rezig	-16331
▁ringa	-16332
▁ringó	-16333
▁rnott	-16334
▁rombó	-16335
▁roncs	-16336
▁rouwe	-16337
▁runne	-16338
▁rzsuj	-16339
▁rózió	-16340
▁röder	-16341
▁sario	-16342
▁savat	-16343
▁seprő	-16344
▁siana	-16345
▁sogin	-16346
▁sseff	-16347
▁stela	-16348
▁szjós	-16349
▁szmán	-16350
▁sálat	-16351
▁sántí	-16352
▁tabuk	-16353
▁tanol	-16354
▁tomaj	-16355
▁tonen	-16356
▁torna	-16357
▁trich	-16358
▁ttasé	-16359
▁ttony	-16360
▁txako	-16361
▁túszt	-16362
▁uczak	-16363
▁ulett	-16364
▁ultur	-16365
▁ustrá	-16366
▁vetyé	-16367
▁volta	-16368
▁volto	-16369
▁wynet	-16370
▁ÉVOSZ	-16371
▁Ónodi	-16372
▁ámadá	-16373
▁átony	-16374
▁észít	-16375
▁ührer	-16376
▁ündch	-16377
+2	-16378
Ci	-16379
FB	-16380
Fy	-16381
HD	-16382
HU	-16383
IL	-16384
LT	-16385
ME	-16386
OC	-16387
ON	-16388
RP	-16389
WD	-16390
ZÖ	-16391
br	-16392
bí	-16393
gl	-16394
ml	-16395
ní	-16396
oa	-16397
oi	-16398
sc	-16399
sp	-16400
ÁD	-16401
ÉG	-16402
éé	-16403
úv	-16404
űd	-16405
▁~	-16406
▁ç	-16407
▁û	-16408
FHS	-16409
FTA	-16410
GYH	-16411
ajk	-16412
akó	-16413
ase	-16414
azá	-16415
bid	-16416
bró	-16417
cam	-16418
cca	-16419
eee	-16420
ege	-16421
ela	-16422
eme	-16423
eró	-16424
eti	-16425
fal	-16426
hal	-16427
hle	-16428
hou	-16429
ieu	-16430
iga	-16431
ila	-16432
ilá	-16433
imn	-16434
ipe	-16435
jaj	-16436
lár	-16437
mbH	-16438
now	-16439
ogo	-16440
oli	-16441
onh	-16442
orc	-16443
ory	-16444
osi	-16445
ovo	-16446
pal	-16447
pák	-16448
rey	-16449
rát	-16450
top	-16451
tti	-16452
ttá	-16453
urá	-16454
zdi	-16455
zsá	-16456
ÉKÓ	-16457
áre	-16458
áti	-16459
éda	-16460
ézs	-16461
▁+0	-16462
▁1%	-16463
▁5:	-16464
▁AH	-16465
▁CH	-16466
▁DU	-16467
▁Dz	-16468
▁Dö	-16469
▁EH	-16470
▁FR	-16471
▁FX	-16472
▁Hr	-16473
▁IZ	-16474
▁LD	-16475
▁Lö	-16476
▁Mb	-16477
▁Mh	-16478
▁Mj	-16479
▁NT	-16480
▁PG	-16481
▁Pv	-16482
▁RF	-16483
▁RU	-16484
▁TJ	-16485
▁Uc	-16486
▁VG	-16487
▁VÁ	-16488
▁Xu	-16489
▁ZA	-16490
▁aM	-16491
▁aq	-16492
▁bv	-16493
▁cy	-16494
▁gf	-16495
▁lr	-16496
▁mä	-16497
▁nq	-16498
▁oq	-16499
▁vu	-16500
▁wy	-16501
▁äm	-16502
▁ía	-16503
▁íl	-16504
▁öc	-16505
está	-16506
orth	-16507
over	-16508
raft	-16509
roni	-16510
zecz	-16511
▁(20	-16512
▁(29	-16513
▁(36	-16514
▁(42	-16515
▁(51	-16516
▁(57	-16517
▁(75	-16518
▁-7,	-16519
▁1.:	-16520
▁1/2	-16521
▁137	-16522
▁189	-16523
▁19)	-16524
▁2.:	-16525
▁202	-16526
▁223	-16527
▁242	-16528
▁252	-16529
▁26,	-16530
▁262	-16531
▁279	-16532
▁286	-16533
▁310	-16534
▁32,	-16535
▁342	-16536
▁35,	-16537
▁355	-16538
▁363	-16539
▁384	-16540
▁394	-16541
▁408	-16542
▁411	-16543
▁429	-16544
▁446	-16545
▁447	-16546
▁4:0	-16547
▁5/5	-16548
▁512	-16549
▁575	-16550
▁577	-16551
▁595	-16552
▁6-3	-16553
▁6-4	-16554
▁660	-16555
▁67.	-16556
▁68,	-16557
▁720	-16558
▁740	-16559
▁77.	-16560
▁78.	-16561
▁838	-16562
▁875	-16563
▁894	-16564
▁9.)	-16565
▁APA	-16566
▁ASA	-16567
▁AUS	-16568
▁AWB	-16569
▁Act	-16570
▁Aku	-16571
▁BDO	-16572
▁BFT	-16573
▁Bol	-16574
▁Box	-16575
▁CAS	-16576
▁CDC	-16577
▁CNB	-16578
▁Can	-16579
▁Che	-16580
▁DMC	-16581
▁DSG	-16582
▁Dic	-16583
▁EMG	-16584
▁ERS	-16585
▁ESO	-16586
▁ETS	-16587
▁FEM	-16588
▁FIN	-16589
▁Fuj	-16590
▁Fxh	-16591
▁GAZ	-16592
▁GBR	-16593
▁GMO	-16594
▁Get	-16595
▁HDi	-16596
▁IKR	-16597
▁ILO	-16598
▁INF	-16599
▁INS	-16600
▁Ion	-16601
▁Joy	-16602
▁KAC	-16603
▁Lőw	-16604
▁MET	-16605
▁MLS	-16606
▁MMF	-16607
▁MOK	-16608
▁MON	-16609
▁MTH	-16610
▁MVD	-16611
▁MVP	-16612
▁Mao	-16613
▁NIH	-16614
▁OBD	-16615
▁OHL	-16616
▁OPC	-16617
▁Ovi	-16618
▁PAN	-16619
▁PTV	-16620
▁Pin	-16621
▁Quo	-16622
▁REM	-16623
▁RSE	-16624
▁RUS	-16625
▁SMS	-16626
▁SPS	-16627
▁Sen	-16628
▁Spa	-16629
▁TNT	-16630
▁Urs	-16631
▁VSZ	-16632
▁Ven	-16633
▁WIG	-16634
▁WPT	-16635
▁Web	-16636
▁Wes	-16637
▁Xue	-16638
▁aaj	-16639
▁aak	-16640
▁aat	-16641
▁abr	-16642
▁abó	-16643
▁asf	-16644
▁asq	-16645
▁boj	-16646
▁buz	-16647
▁bád	-16648
▁bég	-16649
▁bén	-16650
▁böf	-16651
▁bör	-16652
▁cak	-16653
▁cit	-16654
▁csí	-16655
▁cár	-16656
▁day	-16657
▁dda	-16658
▁due	-16659
▁dét	-16660
▁ehl	-16661
▁enj	-16662
▁eud	-16663
▁gbí	-16664
▁gug	-16665
▁hap	-16666
▁hij	-16667
▁hil	-16668
▁hou	-16669
▁hun	-16670
▁hut	-16671
▁iOS	-16672
▁ief	-16673
▁imó	-16674
▁inó	-16675
▁iop	-16676
▁iph	-16677
▁ipá	-16678
▁irm	-16679
▁iud	-16680
▁iút	-16681
▁jag	-16682
▁jás	-16683
▁kay	-16684
▁kié	-16685
▁ldu	-16686
▁leu	-16687
▁lls	-16688
▁mme	-16689
▁odi	-16690
▁oev	-16691
▁okó	-16692
▁omn	-16693
▁ope	-16694
▁oti	-16695
▁oub	-16696
▁oup	-16697
▁ovu	-16698
▁oyá	-16699
▁plé	-16700
▁rco	-16701
▁rió	-16702
▁rkő	-16703
▁rly	-16704
▁rna	-16705
▁roj	-16706
▁roó	-16707
▁sbo	-16708
▁sou	-16709
▁spy	-16710
▁stb	-16711
▁stó	-16712
▁sáf	-16713
▁síc	-16714
▁síz	-16715
▁tay	-16716
▁tic	-16717
▁táz	-16718
▁tőr	-16719
▁ube	-16720
▁udi	-16721
▁ule	-16722
▁uná	-16723
▁uth	-16724
▁uts	-16725
▁utu	-16726
▁uzz	-16727
▁vej	-16728
▁vák	-16729
▁yűl	-16730
▁zbe	-16731
▁zim	-16732
▁ÁEK	-16733
▁Árf	-16734
▁Árk	-16735
▁ÉNY	-16736
▁áln	-16737
▁áms	-16738
▁égz	-16739
▁érm	-16740
▁írj	-16741
▁óno	-16742
▁óró	-16743
▁óvó	-16744
▁ökl	-16745
▁ölg	-16746
▁önb	-16747
▁ötz	-16748
▁üng	-16749
▁ürr	-16750
▁ütz	-16751
▁Ősz	-16752
▁ADHD	-16753
▁Alad	-16754
▁Alem	-16755
▁Amen	-16756
▁Amos	-16757
▁Anda	-16758
▁Anfi	-16759
▁Ante	-16760
▁Apeh	-16761
▁Apát	-16762
▁Arat	-16763
▁Aziz	-16764
▁Azíz	-16765
▁BGYH	-16766
▁Báná	-16767
▁Clif	-16768
▁Dage	-16769
▁Dana	-16770
▁Dark	-16771
▁EIHC	-16772
▁Elia	-16773
▁FDIC	-16774
▁FINA	-16775
▁Flau	-16776
▁GYES	-16777
▁GmbH	-16778
▁Hank	-16779
▁ITDA	-16780
▁Ital	-16781
▁Klum	-16782
▁Krug	-16783
▁Lanz	-16784
▁Limb	-16785
▁Link	-16786
▁MKKT	-16787
▁MOSZ	-16788
▁MacS	-16789
▁Maja	-16790
▁Mika	-16791
▁NCAP	-16792
▁NYKK	-16793
▁Nibe	-16794
▁Niit	-16795
▁OSZK	-16796
▁PWRC	-16797
▁Pere	-16798
▁Pólu	-16799
▁Rali	-16800
▁Roch	-16801
▁Rósa	-16802
▁Róza	-16803
▁STOP	-16804
▁SWRC	-16805
▁SZDP	-16806
▁SyFy	-16807
▁Tari	-16808
▁Túry	-16809
▁Umar	-16810
▁Utál	-16811
▁VMSZ	-16812
▁WTCC	-16813
▁Yonh	-16814
▁abai	-16815
▁achm	-16816
▁adek	-16817
▁adim	-16818
▁adir	-16819
▁afaj	-16820
▁affi	-16821
▁agol	-16822
▁ajac	-16823
▁alho	-16824
▁alme	-16825
▁alsh	-16826
▁altó	-16827
▁aluj	-16828
▁alvé	-16829
▁amal	-16830
▁andr	-16831
▁ankt	-16832
▁annu	-16833
▁antu	-16834
▁appl	-16835
▁apás	-16836
▁arge	-16837
▁arun	-16838
▁asam	-16839
▁asic	-16840
▁asil	-16841
▁aska	-16842
▁asmu	-16843
▁asol	-16844
▁aszk	-16845
▁athi	-16846
▁atip	-16847
▁ativ	-16848
▁atka	-16849
▁atna	-16850
▁aude	-16851
▁audí	-16852
▁aulk	-16853
▁aycr	-16854
▁aydn	-16855
▁azió	-16856
▁barm	-16857
▁batá	-16858
▁beck	-16859
▁beny	-16860
▁bera	-16861
▁bobo	-16862
▁boch	-16863
▁bolt	-16864
▁bona	-16865
▁bout	-16866
▁boxo	-16867
▁butí	-16868
▁buzi	-16869
▁bája	-16870
▁bétá	-16871
▁bömb	-16872
▁bősz	-16873
▁cana	-16874
▁cing	-16875
▁comb	-16876
▁csök	-16877
▁csúd	-16878
▁dall	-16879
▁dalo	-16880
▁derg	-16881
▁ding	-16882
▁dish	-16883
▁dren	-16884
▁eavy	-16885
▁ebri	-16886
▁eddi	-16887
▁edge	-16888
▁efoe	-16889
▁eiji	-16890
▁eill	-16891
▁eitz	-16892
▁ekko	-16893
▁ekén	-16894
▁elga	-16895
▁embo	-16896
▁emgo	-16897
▁emog	-16898
▁enih	-16899
▁enil	-16900
▁entz	-16901
▁enár	-16902
▁ercé	-16903
▁erdí	-16904
▁ergl	-16905
▁erko	-16906
▁erma	-16907
▁ernd	-16908
▁eroe	-16909
▁erpe	-16910
▁ertz	-16911
▁esca	-16912
▁esda	-16913
▁esut	-16914
▁etic	-16915
▁etko	-16916
▁euth	-16917
▁ewin	-16918
▁exan	-16919
▁eyne	-16920
▁eyro	-16921
▁ezit	-16922
▁ezzo	-16923
▁fafa	-16924
▁fasz	-16925
▁fatá	-16926
▁fero	-16927
▁fiuk	-16928
▁flix	-16929
▁fosz	-16930
▁fusz	-16931
[...]
