<unk>	0
<s>	0
</s>	0
▁a	-0
sz	-1
el	-2
et	-3
en	-4
▁m	-5
gy	-6
▁k	-7
er	-8
at	-9
an	-10
▁h	-11
al	-12
▁t	-13
▁v	-14
és	-15
ek	-16
▁sz	-17
or	-18
▁az	-19
ár	-20
in	-21
em	-22
on	-23
▁f	-24
ol	-25
ál	-26
▁n	-27
ak	-28
ás	-29
eg	-30
es	-31
▁A	-32
án	-33
ez	-34
is	-35
tt	-36
ér	-37
ok	-38
▁l	-39
ik	-40
én	-41
▁el	-42
ar	-43
▁b	-44
ég	-45
cs	-46
os	-47
egy	-48
▁p	-49
bb	-50
át	-51
▁és	-52
ül	-53
ett	-54
oz	-55
ít	-56
ág	-57
▁s	-58
él	-59
il	-60
ap	-61
▁j	-62
ét	-63
▁egy	-64
▁r	-65
▁kö	-66
▁meg	-67
ogy	-68
int	-69
ban	-70
ed	-71
ék	-72
ott	-73
▁is	-74
▁hogy	-75
ben	-76
▁M	-77
it	-78
agy	-79
▁d	-80
szt	-81
ad	-82
ut	-83
om	-84
▁-	-85
▁nem	-86
am	-87
as	-88
ól	-89
ség	-90
ig	-91
ul	-92
▁szer	-93
ni	-94
▁cs	-95
ja	-96
ra	-97
ta	-98
ák	-99
og	-100
ány	-101
▁S	-102
re	-103
áll	-104
ény	-105
ép	-106
aj	-107
áz	-108
ai	-109
▁köz	-110
▁fel	-111
az	-112
▁ki	-113
ely	-114
▁E	-115
év	-116
nak	-117
iz	-118
▁B	-119
ért	-120
▁K	-121
ot	-122
ent	-123
ész	-124
ag	-125
▁1	-126
ör	-127
ság	-128
id	-129
▁2	-130
▁le	-131
nk	-132
▁am	-133
ám	-134
het	-135
ny	-136
olt	-137
nek	-138
ől	-139
end	-140
▁al	-141
▁ak	-142
ci	-143
ell	-144
▁Az	-145
▁ez	-146
ind	-147
▁(	-148
ált	-149
ön	-150
▁H	-151
ök	-152
▁N	-153
us	-154
hat	-155
▁be	-156
ill	-157
▁T	-158
od	-159
▁F	-160
▁ny	-161
szer	-162
ír	-163
art	-164
▁ú	-165
öl	-166
▁P	-167
ond	-168
ont	-169
▁g	-170
ud	-171
len	-172
▁gy	-173
▁év	-174
▁áll	-175
ur	-176
ev	-177
uk	-178
ab	-179
ők	-180
unk	-181
▁G	-182
ber	-183
av	-184
oly	-185
▁szerint	-186
te	-187
ös	-188
ók	-189
▁V	-190
▁de	-191
ezet	-192
▁ut	-193
▁for	-194
ött	-195
▁volt	-196
▁L	-197
szág	-198
▁C	-199
agyar	-200
▁c	-201
vet	-202
ov	-203
▁kor	-204
att	-205
▁leg	-206
▁jel	-207
ában	-208
öbb	-209
00	-210
ország	-211
esz	-212
ep	-213
▁már	-214
▁"	-215
▁elő	-216
ej	-217
▁I	-218
▁R	-219
est	-220
▁rend	-221
▁D	-222
ős	-223
iv	-224
öz	-225
ir	-226
erül	-227
ább	-228
ük	-229
▁id	-230
kor	-231
▁Sz	-232
ert	-233
ént	-234
▁mind	-235
▁ér	-236
ba	-237
▁ad	-238
ember	-239
atás	-240
▁több	-241
úl	-242
▁hely	-243
▁val	-244
ében	-245
kal	-246
olg	-247
▁J	-248
ügy	-249
aszt	-250
▁nagy	-251
val	-252
zet	-253
ív	-254
▁még	-255
mány	-256
eket	-257
áj	-258
▁er	-259
▁mi	-260
elm	-261
éd	-262
ós	-263
asz	-264
▁azt	-265
ály	-266
árt	-267
▁szám	-268
ette	-269
um	-270
elő	-271
obb	-272
ára	-273
▁csak	-274
▁kell	-275
ia	-276
őr	-277
eszt	-278
ebb	-279
▁lehet	-280
kez	-281
▁száz	-282
koz	-283
▁kap	-284
okat	-285
éz	-286
ítás	-287
öv	-288
▁tud	-289
▁amely	-290
▁van	-291
▁mint	-292
▁tör	-293
össz	-294
isz	-295
iszt	-296
▁tart	-297
ót	-298
▁más	-299
▁vagy	-300
ése	-301
ort	-302
ból	-303
▁O	-304
▁es	-305
ony	-306
▁sem	-307
▁ter	-308
▁3	-309
▁két	-310
be	-311
▁mag	-312
illi	-313
ajd	-314
ód	-315
alm	-316
ső	-317
alék	-318
▁vég	-319
hoz	-320
▁vál	-321
im	-322
tet	-323
ély	-324
ch	-325
▁ar	-326
▁össz	-327
mény	-328
▁él	-329
▁ellen	-330
ának	-331
ve	-332
▁fog	-333
ín	-334
▁új	-335
▁mond	-336
ják	-337
ató	-338
▁biz	-339
▁százalék	-340
ém	-341
▁pr	-342
ést	-343
▁kép	-344
ző	-345
▁magyar	-346
ított	-347
eh	-348
nök	-349
ról	-350
ug	-351
▁át	-352
ult	-353
íz	-354
▁z	-355
op	-356
edig	-357
ei	-358
elt	-359
▁u	-360
ást	-361
na	-362
nál	-363
ére	-364
ór	-365
leg	-366
eres	-367
ható	-368
▁szem	-369
eny	-370
áros	-371
▁pedig	-372
je	-373
ikai	-374
▁ért	-375
▁milli	-376
ének	-377
▁jelent	-378
▁tel	-379
▁kül	-380
▁ha	-381
▁után	-382
▁ig	-383
ilág	-384
aság	-385
abb	-386
▁ol	-387
esen	-388
vény	-389
▁rész	-390
ési	-391
enn	-392
▁azon	-393
ünk	-394
▁forint	-395
▁200	-396
ása	-397
ost	-398
▁hat	-399
▁hoz	-400
ani	-401
▁mű	-402
tak	-403
▁20	-404
▁munk	-405
ád	-406
áci	-407
▁kör	-408
va	-409
▁nap	-410
ült	-411
▁kez	-412
ával	-413
▁minden	-414
gyan	-415
▁vis	-416
▁majd	-417
kö	-418
▁í	-419
▁e	-420
let	-421
árs	-422
ked	-423
ális	-424
ob	-425
lan	-426
emény	-427
uró	-428
▁kormány	-429
▁lesz	-430
vezet	-431
ások	-432
ján	-433
▁4	-434
őz	-435
őt	-436
▁ember	-437
nap	-438
azd	-439
jel	-440
▁ü	-441
önt	-442
▁em	-443
▁an	-444
ang	-445
▁első	-446
▁vezet	-447
▁alap	-448
ház	-449
ből	-450
énz	-451
▁miatt	-452
dés	-453
▁tal	-454
▁követ	-455
eng	-456
köz	-457
▁in	-458
ily	-459
▁Magyar	-460
▁szak	-461
hez	-462
▁Z	-463
▁Ez	-464
áb	-465
ről	-466
▁ill	-467
▁Egy	-468
olyan	-469
▁úgy	-470
etlen	-471
▁között	-472
▁ö	-473
ölt	-474
▁bel	-475
▁ország	-476
ikus	-477
fi	-478
▁vissz	-479
▁ugyan	-480
for	-481
mű	-482
▁hét	-483
▁aki	-484
▁5	-485
▁állam	-486
fel	-487
▁így	-488
▁19	-489
▁ok	-490
ló	-491
▁fi	-492
),	-493
▁elm	-494
▁tört	-495
▁mert	-496
erült	-497
▁ügy	-498
▁ját	-499
▁né	-500
▁kis	-501
any	-502
ilyen	-503
ers	-504
▁foly	-505
▁mondta	-506
▁olyan	-507
▁sok	-508
ések	-509
osan	-510
▁ind	-511
▁min	-512
ezett	-513
ic	-514
edd	-515
▁akkor	-516
ási	-517
▁világ	-518
ász	-519
atok	-520
ták	-521
étel	-522
öld	-523
atal	-524
▁ír	-525
őv	-526
ajt	-527
ovább	-528
▁sor	-529
által	-530
tat	-531
▁lát	-532
kel	-533
óz	-534
árom	-535
nyi	-536
▁int	-537
ként	-538
0-	-539
▁Nem	-540
eb	-541
eti	-542
▁ép	-543
ki	-544
íj	-545
ossz	-546
▁egyik	-547
ács	-548
▁W	-549
olit	-550
▁kész	-551
▁igaz	-552
mer	-553
▁azonban	-554
árd	-555
un	-556
osz	-557
▁kér	-558
▁An	-559
▁vált	-560
ajn	-561
tel	-562
▁választ	-563
▁ah	-564
▁tovább	-565
ével	-566
▁tám	-567
all	-568
st	-569
▁ár	-570
utó	-571
eni	-572
▁ami	-573
oszt	-574
▁bizt	-575
▁i	-576
▁mell	-577
▁jog	-578
▁szab	-579
szak	-580
▁valam	-581
azdaság	-582
pont	-583
▁201	-584
▁fér	-585
atkoz	-586
áv	-587
űn	-588
ület	-589
ikor	-590
ező	-591
▁kezd	-592
pr	-593
▁pénz	-594
▁tan	-595
▁hozz	-596
▁idő	-597
uróp	-598
hető	-599
lt	-600
állal	-601
▁eset	-602
▁érd	-603
▁most	-604
▁ir	-605
ün	-606
▁való	-607
▁6	-608
▁csap	-609
ran	-610
▁U	-611
ván	-612
old	-613
▁által	-614
..	-615
▁jó	-616
arad	-617
▁elnök	-618
▁illet	-619
ját	-620
izs	-621
ört	-622
▁telj	-623
fog	-624
ati	-625
esít	-626
izet	-627
jt	-628
jár	-629
▁vár	-630
egész	-631
lő	-632
eked	-633
ata	-634
▁három	-635
hely	-636
▁dönt	-637
csol	-638
▁nev	-639
▁Cs	-640
and	-641
▁fej	-642
ing	-643
▁ó	-644
▁rendőr	-645
▁hi	-646
▁külön	-647
incs	-648
▁jár	-649
▁Á	-650
elem	-651
▁arra	-652
ító	-653
árm	-654
▁É	-655
port	-656
▁korább	-657
fő	-658
véd	-659
▁ered	-660
enek	-661
juk	-662
▁visz	-663
elmi	-664
oll	-665
oló	-666
▁előtt	-667
vis	-668
▁pont	-669
▁élet	-670
▁sik	-671
tek	-672
up	-673
ri	-674
▁jelen	-675
atot	-676
SZ	-677
adás	-678
alom	-679
▁Or	-680
ését	-681
kép	-682
▁per	-683
zel	-684
kül	-685
▁nyil	-686
ög	-687
ter	-688
ivel	-689
▁ker	-690
▁cí	-691
ck	-692
▁egész	-693
▁szerep	-694
▁dolg	-695
olna	-696
tatás	-697
▁Gy	-698
▁polit	-699
▁millió	-700
▁szint	-701
éld	-702
izsg	-703
díj	-704
ozó	-705
últ	-706
le	-707
ozott	-708
▁besz	-709
▁cég	-710
▁éves	-711
utat	-712
▁7	-713
kod	-714
▁volna	-715
▁kapcsol	-716
eli	-717
ített	-718
ökk	-719
szerű	-720
éter	-721
▁gond	-722
arm	-723
sal	-724
omb	-725
lam	-726
ef	-727
üt	-728
ekt	-729
lal	-730
▁gyer	-731
atlan	-732
ilm	-733
▁történ	-734
rend	-735
úly	-736
▁ezt	-737
ába	-738
▁mér	-739
▁talál	-740
enc	-741
őség	-742
elet	-743
▁érdek	-744
1-	-745
▁kon	-746
▁fő	-747
▁illetve	-748
ozás	-749
▁alatt	-750
ajnok	-751
▁másod	-752
▁fél	-753
esség	-754
▁Al	-755
ári	-756
▁öt	-757
ője	-758
oh	-759
▁hal	-760
inek	-761
▁term	-762
író	-763
▁ezer	-764
kol	-765
▁lak	-766
ogat	-767
ció	-768
▁költ	-769
jelent	-770
▁péld	-771
▁mellett	-772
usz	-773
ütt	-774
ából	-775
gg	-776
▁tag	-777
▁akik	-778
adó	-779
asznál	-780
▁párt	-781
▁milliárd	-782
iai	-783
▁kom	-784
után	-785
▁8	-786
ram	-787
ezte	-788
idesz	-789
▁társ	-790
vas	-791
▁szó	-792
osság	-793
▁amikor	-794
of	-795
orv	-796
dul	-797
▁hó	-798
▁Magyarország	-799
▁vissza	-800
erikai	-801
▁seg	-802
▁nyug	-803
szín	-804
erseny	-805
▁játék	-806
vel	-807
▁jöv	-808
ip	-809
ors	-810
▁négy	-811
ant	-812
erület	-813
áció	-814
▁rendszer	-815
észt	-816
▁von	-817
▁érték	-818
enne	-819
▁en	-820
▁In	-821
ec	-822
form	-823
gel	-824
▁közl	-825
▁hang	-826
áról	-827
iszter	-828
zs	-829
▁men	-830
kot	-831
izsgál	-832
émet	-833
▁haz	-834
élkül	-835
▁nemzet	-836
uár	-837
▁szól	-838
▁ott	-839
udap	-840
udapest	-841
ex	-842
▁férfi	-843
▁gazdaság	-844
▁törvény	-845
▁mód	-846
sel	-847
anem	-848
▁ő	-849
▁tár	-850
íg	-851
ánt	-852
nél	-853
▁együtt	-854
ölte	-855
ink	-856
▁par	-857
omány	-858
ték	-859
aton	-860
ester	-861
▁biztos	-862
ub	-863
▁vállal	-864
▁alkal	-865
ülés	-866
anak	-867
almaz	-868
▁nő	-869
urópai	-870
ocs	-871
▁tav	-872
▁jav	-873
tal	-874
vez	-875
▁képvis	-876
ását	-877
▁üz	-878
ass	-879
▁kil	-880
zés	-881
▁lett	-882
▁következ	-883
séges	-884
▁nagyon	-885
▁amerikai	-886
▁nyom	-887
ábor	-888
▁Ha	-889
".	-890
▁marad	-891
avaz	-892
▁csökk	-893
tól	-894
▁túl	-895
▁nincs	-896
▁ház	-897
▁keres	-898
▁vesz	-899
▁jobb	-900
▁hanem	-901
ügyi	-902
▁bet	-903
▁csal	-904
ne	-905
lat	-906
▁pály	-907
tart	-908
gató	-909
ió	-910
üntet	-911
▁dél	-912
▁cél	-913
eken	-914
köd	-915
vány	-916
▁ilyen	-917
▁eredmény	-918
ób	-919
ogram	-920
oport	-921
ozat	-922
ekben	-923
▁MN	-924
aly	-925
▁hisz	-926
ették	-927
▁személy	-928
▁erős	-929
▁vél	-930
pen	-931
őket	-932
▁figy	-933
ton	-934
▁össze	-935
ason	-936
▁bef	-937
ája	-938
▁véd	-939
▁9	-940
▁hiv	-941
ügg	-942
▁megy	-943
▁azért	-944
▁közölte	-945
▁rá	-946
eddig	-947
ank	-948
ául	-949
▁kerül	-950
▁ór	-951
▁hír	-952
▁ism	-953
▁lép	-954
rit	-955
elés	-956
▁nek	-957
▁verseny	-958
▁szük	-959
ist	-960
▁autó	-961
▁kív	-962
▁helyzet	-963
hon	-964
éri	-965
ottság	-966
▁szín	-967
aját	-968
uszt	-969
ezés	-970
éb	-971
▁segít	-972
öm	-973
ekkel	-974
▁körül	-975
őd	-976
▁kev	-977
enni	-978
ítés	-979
ern	-980
szám	-981
só	-982
▁vas	-983
ítani	-984
▁szolg	-985
lát	-986
▁kar	-987
akor	-988
▁Fidesz	-989
úz	-990
erg	-991
▁itt	-992
▁második	-993
▁15	-994
▁növ	-995
armad	-996
▁ahol	-997
▁viszont	-998
▁kés	-999
0.	-1000
fél	-1001
dal	-1002
▁elv	-1003
▁akar	-1004
ontos	-1005
lék	-1006
▁szerző	-1007
▁eddig	-1008
▁ezért	-1009
▁csapat	-1010
ess	-1011
▁lét	-1012
okban	-1013
▁költség	-1014
esebb	-1015
▁annak	-1016
ista	-1017
▁ment	-1018
▁város	-1019
ha	-1020
övet	-1021
ékoz	-1022
▁nélkül	-1023
zett	-1024
▁kam	-1025
▁MNO	-1026
▁film	-1027
▁st	-1028
nyv	-1029
▁kapcsolat	-1030
▁kiv	-1031
▁felt	-1032
▁jövő	-1033
▁El	-1034
▁hónap	-1035
öt	-1036
▁Mi	-1037
▁hozzá	-1038
▁szeret	-1039
nagy	-1040
ően	-1041
▁foglal	-1042
▁bizony	-1043
▁közel	-1044
ettek	-1045
ször	-1046
észet	-1047
ord	-1048
▁százalékkal	-1049
út	-1050
ika	-1051
▁például	-1052
szab	-1053
ac	-1054
elnök	-1055
▁határ	-1056
föld	-1057
íróság	-1058
ította	-1059
▁jelenleg	-1060
▁saját	-1061
▁forg	-1062
▁arról	-1063
eit	-1064
▁vezető	-1065
▁te	-1066
▁alkalm	-1067
ájékoz	-1068
arc	-1069
▁sajt	-1070
▁ugyanis	-1071
ogatás	-1072
▁valamint	-1073
▁szerd	-1074
bbi	-1075
ségi	-1076
▁Nagy	-1077
hány	-1078
▁reg	-1079
▁tavaly	-1080
elked	-1081
▁miniszter	-1082
▁megh	-1083
▁intéz	-1084
éről	-1085
alak	-1086
▁amit	-1087
▁óta	-1088
cia	-1089
égi	-1090
2-	-1091
▁jut	-1092
▁Köz	-1093
érték	-1094
▁vizsgál	-1095
▁negy	-1096
▁olvas	-1097
örtök	-1098
ütörtök	-1099
ásár	-1100
▁elmond	-1101
▁szabad	-1102
▁család	-1103
0,	-1104
leszt	-1105
közi	-1106
oci	-1107
▁táv	-1108
▁került	-1109
▁alapján	-1110
ver	-1111
otta	-1112
ark	-1113
▁kérdés	-1114
ottak	-1115
ulajd	-1116
▁alak	-1117
).	-1118
▁pár	-1119
▁mely	-1120
tár	-1121
▁Er	-1122
▁any	-1123
▁tiszt	-1124
újt	-1125
▁ismer	-1126
▁játsz	-1127
ulajdon	-1128
sor	-1129
ozz	-1130
▁Budapest	-1131
▁korábban	-1132
▁bal	-1133
▁kit	-1134
ológ	-1135
▁közös	-1136
▁másik	-1137
itk	-1138
▁számára	-1139
séget	-1140
▁tér	-1141
▁hétfő	-1142
▁hiszen	-1143
iac	-1144
▁hason	-1145
▁megsz	-1146
▁beszél	-1147
ró	-1148
sége	-1149
okkal	-1150
lás	-1151
inak	-1152
▁kedd	-1153
jobb	-1154
űz	-1155
8-	-1156
essz	-1157
zal	-1158
ús	-1159
▁lap	-1160
ttal	-1161
olc	-1162
▁á	-1163
telen	-1164
itel	-1165
őváros	-1166
▁ked	-1167
▁győz	-1168
▁jól	-1169
▁ma	-1170
▁megv	-1171
▁pént	-1172
▁perc	-1173
▁út	-1174
mi	-1175
lag	-1176
▁Nemzet	-1177
▁terület	-1178
ari	-1179
▁csütörtök	-1180
▁című	-1181
▁szabály	-1182
▁hát	-1183
▁közül	-1184
▁euró	-1185
▁felh	-1186
▁program	-1187
▁néz	-1188
▁Meg	-1189
▁elt	-1190
gyű	-1191
▁szavaz	-1192
▁jegy	-1193
▁hossz	-1194
fej	-1195
▁gondol	-1196
▁működ	-1197
▁lehetőség	-1198
▁százalékos	-1199
hu	-1200
▁képviselő	-1201
től	-1202
▁ör	-1203
▁neh	-1204
▁oldal	-1205
nagyobb	-1206
▁hagy	-1207
▁irány	-1208
ánd	-1209
mér	-1210
▁doll	-1211
ib	-1212
▁lenne	-1213
vétel	-1214
ard	-1215
▁gól	-1216
▁használ	-1217
▁Ú	-1218
▁késő	-1219
▁or	-1220
assz	-1221
▁nyilatkoz	-1222
tor	-1223
▁azok	-1224
ítél	-1225
▁önk	-1226
ron	-1227
ához	-1228
új	-1229
▁Mind	-1230
▁fordul	-1231
▁tárgy	-1232
▁akár	-1233
▁folyam	-1234
▁jan	-1235
▁harmad	-1236
csak	-1237
▁ne	-1238
enged	-1239
súly	-1240
ekint	-1241
6-	-1242
ással	-1243
ay	-1244
ókat	-1245
előtt	-1246
zi	-1247
ull	-1248
▁12	-1249
▁legnagyobb	-1250
von	-1251
▁csökkent	-1252
igaz	-1253
▁kut	-1254
▁legjobb	-1255
...	-1256
jük	-1257
▁ön	-1258
tó	-1259
▁száll	-1260
▁fiatal	-1261
▁kl	-1262
▁történt	-1263
▁míg	-1264
lament	-1265
▁fizet	-1266
▁nyilván	-1267
ics	-1268
rás	-1269
▁néhány	-1270
ésre	-1271
▁kellett	-1272
▁dec	-1273
▁egym	-1274
▁utol	-1275
▁tulajdon	-1276
acs	-1277
▁bűn	-1278
▁érkez	-1279
nő	-1280
▁De	-1281
▁hivatal	-1282
▁során	-1283
▁Ny	-1284
ment	-1285
▁szemben	-1286
jabb	-1287
▁nyugdíj	-1288
▁december	-1289
▁oszt	-1290
▁elmúlt	-1291
áló	-1292
almas	-1293
▁magas	-1294
▁alkot	-1295
▁rendel	-1296
abd	-1297
▁csoport	-1298
▁megáll	-1299
▁aján	-1300
eztet	-1301
▁Szer	-1302
▁jelentős	-1303
árnap	-1304
▁német	-1305
▁18	-1306
▁test	-1307
▁rendőrség	-1308
ásra	-1309
▁tíz	-1310
▁megt	-1311
ly	-1312
▁aut	-1313
obl	-1314
▁amelyek	-1315
ején	-1316
▁nagyobb	-1317
▁gyerek	-1318
▁szervezet	-1319
sági	-1320
bán	-1321
▁legy	-1322
▁azzal	-1323
▁Ch	-1324
▁víz	-1325
ói	-1326
eset	-1327
erm	-1328
▁And	-1329
lik	-1330
-1	-1331
▁10	-1332
rel	-1333
▁foglalkoz	-1334
▁ebb	-1335
▁cím	-1336
▁moz	-1337
▁elem	-1338
ong	-1339
né	-1340
▁elég	-1341
zék	-1342
▁tett	-1343
▁egyéb	-1344
▁elmondta	-1345
▁korábbi	-1346
▁haj	-1347
▁nép	-1348
▁megk	-1349
▁megfel	-1350
ene	-1351
▁körny	-1352
▁közt	-1353
▁hatás	-1354
eget	-1355
ános	-1356
ítása	-1357
▁elfog	-1358
ah	-1359
lés	-1360
▁Ar	-1361
ászló	-1362
oblém	-1363
itány	-1364
bajnok	-1365
▁els	-1366
land	-1367
▁Fer	-1368
,5	-1369
▁mutat	-1370
▁negyed	-1371
alt	-1372
ormány	-1373
▁részt	-1374
▁hasonló	-1375
▁gyors	-1376
▁szél	-1377
▁ezzel	-1378
biz	-1379
öd	-1380
▁munka	-1381
▁fut	-1382
nem	-1383
▁fontos	-1384
▁gazdasági	-1385
eccs	-1386
etem	-1387
ür	-1388
▁ál	-1389
▁re	-1390
▁tesz	-1391
▁St	-1392
elte	-1393
▁sp	-1394
▁vannak	-1395
ezni	-1396
▁zs	-1397
ma	-1398
jában	-1399
▁változ	-1400
▁terv	-1401
▁bár	-1402
▁mivel	-1403
ítja	-1404
▁dolgoz	-1405
▁gyakor	-1406
iség	-1407
▁szoci	-1408
▁mindig	-1409
ormányz	-1410
okr	-1411
oda	-1412
▁január	-1413
▁hiány	-1414
▁idén	-1415
kőz	-1416
ven	-1417
▁rom	-1418
▁parlament	-1419
lin	-1420
nny	-1421
▁ám	-1422
▁tájékoz	-1423
ro	-1424
úr	-1425
▁támogatás	-1426
SZP	-1427
▁érint	-1428
talan	-1429
▁2009	-1430
▁En	-1431
▁abb	-1432
▁föld	-1433
ovember	-1434
▁költségvet	-1435
ssz	-1436
▁eljár	-1437
▁teh	-1438
esült	-1439
▁25	-1440
éssel	-1441
▁polg	-1442
▁kín	-1443
.,	-1444
▁ink	-1445
▁Ist	-1446
▁MT	-1447
▁sport	-1448
lov	-1449
esek	-1450
▁fran	-1451
▁alá	-1452
ákat	-1453
▁elnöke	-1454
▁bank	-1455
▁teljesít	-1456
▁problém	-1457
▁vasárnap	-1458
▁rossz	-1459
ock	-1460
▁hazai	-1461
▁László	-1462
▁adó	-1463
▁rep	-1464
▁11	-1465
▁ész	-1466
átt	-1467
▁tanul	-1468
▁kid	-1469
▁voltak	-1470
▁emlék	-1471
üz	-1472
▁javas	-1473
▁inform	-1474
▁gyan	-1475
▁szen	-1476
évő	-1477
▁ezek	-1478
▁teljes	-1479
áját	-1480
▁nyolc	-1481
▁adott	-1482
tam	-1483
▁Ál	-1484
▁sér	-1485
▁kapott	-1486
imp	-1487
▁tekint	-1488
ete	-1489
7-	-1490
▁közép	-1491
▁utolsó	-1492
▁rendelkez	-1493
ejt	-1494
▁MSZP	-1495
▁inkább	-1496
ali	-1497
▁vel	-1498
▁megb	-1499
ították	-1500
úsz	-1501
óbál	-1502
▁csat	-1503
arát	-1504
3-	-1505
viv	-1506
jának	-1507
li	-1508
▁lev	-1509
▁adat	-1510
▁különb	-1511
nia	-1512
óta	-1513
okon	-1514
▁felel	-1515
aki	-1516
▁legal	-1517
▁folytat	-1518
sze	-1519
ehér	-1520
▁kereszt	-1521
éj	-1522
son	-1523
színű	-1524
jai	-1525
▁további	-1526
▁Ö	-1527
leges	-1528
ítette	-1529
gyel	-1530
olta	-1531
min	-1532
▁főváros	-1533
ítő	-1534
▁őket	-1535
▁esz	-1536
▁14	-1537
követ	-1538
lap	-1539
▁vád	-1540
sér	-1541
▁tette	-1542
▁fogy	-1543
▁könny	-1544
▁nemzetközi	-1545
két	-1546
",	-1547
▁várható	-1548
▁Orbán	-1549
▁sikerült	-1550
▁szomb	-1551
▁gyerm	-1552
ogatott	-1553
▁köt	-1554
mel	-1555
▁16	-1556
érium	-1557
atos	-1558
▁199	-1559
▁önkormányz	-1560
ismer	-1561
▁magát	-1562
▁Am	-1563
▁piac	-1564
▁kötel	-1565
▁november	-1566
uh	-1567
▁újra	-1568
▁figyelm	-1569
oknak	-1570
éhez	-1571
mények	-1572
▁bajnok	-1573
ion	-1574
iss	-1575
▁súly	-1576
orvos	-1577
űr	-1578
ón	-1579
mal	-1580
ülő	-1581
▁Bal	-1582
lak	-1583
he	-1584
▁fr	-1585
▁ennek	-1586
▁tény	-1587
ens	-1588
▁kedv	-1589
▁harmadik	-1590
▁politikai	-1591
előre	-1592
▁magán	-1593
adt	-1594
▁kat	-1595
erc	-1596
▁elk	-1597
▁Péter	-1598
▁hall	-1599
▁találkoz	-1600
jegy	-1601
ációs	-1602
▁megfelelő	-1603
almi	-1604
▁milyen	-1605
▁vit	-1606
ságot	-1607
tató	-1608
▁orosz	-1609
▁sajtó	-1610
▁állami	-1611
▁készült	-1612
▁meccs	-1613
▁megállap	-1614
▁utó	-1615
▁felad	-1616
▁vez	-1617
▁elh	-1618
▁Ne	-1619
▁gép	-1620
▁éppen	-1621
itt	-1622
▁Zs	-1623
▁ber	-1624
▁ismert	-1625
ármester	-1626
▁alkalmaz	-1627
anyol	-1628
otor	-1629
ozta	-1630
▁átlag	-1631
▁méd	-1632
szik	-1633
▁zár	-1634
▁egyes	-1635
▁szolgált	-1636
ebr	-1637
jét	-1638
▁kisebb	-1639
▁mik	-1640
akkor	-1641
▁utc	-1642
ikl	-1643
vezető	-1644
▁következő	-1645
szolg	-1646
eség	-1647
▁hol	-1648
▁13	-1649
▁függ	-1650
▁enged	-1651
▁belül	-1652
▁állap	-1653
enz	-1654
▁szület	-1655
▁emberek	-1656
akat	-1657
▁kih	-1658
▁István	-1659
▁fok	-1660
áp	-1661
ukat	-1662
▁rendez	-1663
foly	-1664
▁talált	-1665
▁könyv	-1666
▁európai	-1667
fr	-1668
▁politikus	-1669
ka	-1670
utt	-1671
▁szükség	-1672
anyag	-1673
milli	-1674
ecs	-1675
olni	-1676
▁indul	-1677
elek	-1678
▁mintegy	-1679
▁emelked	-1680
▁játékos	-1681
elni	-1682
▁éve	-1683
osítás	-1684
ébe	-1685
chn	-1686
állítás	-1687
▁17	-1688
▁közleked	-1689
ait	-1690
▁dr	-1691
edett	-1692
ellem	-1693
úg	-1694
dő	-1695
mus	-1696
▁Európ	-1697
▁1,	-1698
atív	-1699
erős	-1700
szor	-1701
▁hon	-1702
gat	-1703
▁közlemény	-1704
orn	-1705
▁mérkőz	-1706
▁bíróság	-1707
ésére	-1708
ím	-1709
▁gyermek	-1710
cius	-1711
inál	-1712
ották	-1713
▁szóló	-1714
▁ítél	-1715
▁anyag	-1716
▁képest	-1717
erj	-1718
▁telep	-1719
▁legalább	-1720
nal	-1721
▁2010.	-1722
▁mod	-1723
▁nyert	-1724
▁erre	-1725
▁őr	-1726
ánk	-1727
ekre	-1728
ektet	-1729
4-	-1730
▁később	-1731
▁növeked	-1732
hatnak	-1733
heti	-1734
övid	-1735
▁forintot	-1736
▁tűn	-1737
▁veszély	-1738
nep	-1739
▁szerdán	-1740
órház	-1741
▁kívül	-1742
▁bizton	-1743
▁beteg	-1744
▁hív	-1745
▁megl	-1746
5-	-1747
▁miniszterelnök	-1748
gal	-1749
▁lévő	-1750
▁végén	-1751
ow	-1752
▁újabb	-1753
▁helyen	-1754
▁amelyet	-1755
▁ható	-1756
▁írja	-1757
▁helyi	-1758
▁helyett	-1759
▁hitel	-1760
rt	-1761
▁Ind	-1762
▁Azt	-1763
▁neki	-1764
▁megold	-1765
▁felelős	-1766
▁halál	-1767
▁évvel	-1768
▁tárgyal	-1769
▁múlt	-1770
lom	-1771
▁ellenére	-1772
isztérium	-1773
ih	-1774
emokr	-1775
mond	-1776
▁hétfőn	-1777
nev	-1778
uc	-1779
▁sokkal	-1780
▁számít	-1781
▁valószínű	-1782
▁tap	-1783
csi	-1784
▁Itt	-1785
nok	-1786
lott	-1787
pénz	-1788
▁én	-1789
▁elér	-1790
▁bír	-1791
nyit	-1792
védelmi	-1793
▁elleni	-1794
ógy	-1795
▁igazgató	-1796
▁Y	-1797
jon	-1798
csap	-1799
▁büntet	-1800
alap	-1801
▁MTI	-1802
▁föl	-1803
▁kedden	-1804
eknek	-1805
ezték	-1806
▁tiz	-1807
▁vásár	-1808
hetetlen	-1809
ezt	-1810
aszn	-1811
▁Állam	-1812
▁Ország	-1813
ennyi	-1814
uház	-1815
▁Le	-1816
kori	-1817
▁üt	-1818
▁fenn	-1819
▁egyre	-1820
▁dollár	-1821
apitány	-1822
öző	-1823
▁Magyarországon	-1824
oj	-1825
földi	-1826
▁form	-1827
polg	-1828
éből	-1829
▁Í	-1830
▁Szab	-1831
ese	-1832
álaszt	-1833
ikk	-1834
▁Br	-1835
▁válasz	-1836
▁természet	-1837
▁fejleszt	-1838
etes	-1839
▁ahogy	-1840
▁este	-1841
▁tűz	-1842
▁febr	-1843
hatja	-1844
▁összeg	-1845
▁üzlet	-1846
ettel	-1847
város	-1848
ich	-1849
fizet	-1850
▁egyelőre	-1851
▁egyetlen	-1852
gép	-1853
▁(1	-1854
sék	-1855
encs	-1856
▁Ferenc	-1857
ezer	-1858
ózs	-1859
▁üzem	-1860
▁időszak	-1861
▁évben	-1862
▁folyamat	-1863
nnep	-1864
▁utóbbi	-1865
őleg	-1866
orban	-1867
▁szóviv	-1868
▁bem	-1869
▁tanács	-1870
▁március	-1871
▁egyébként	-1872
▁műv	-1873
▁kény	-1874
tóber	-1875
▁Gábor	-1876
▁bejelent	-1877
ft	-1878
ide	-1879
▁igen	-1880
asztal	-1881
▁ismét	-1882
okra	-1883
▁válság	-1884
▁Európai	-1885
▁részlet	-1886
▁szintén	-1887
országban	-1888
▁iskol	-1889
ast	-1890
határ	-1891
▁Jobb	-1892
vári	-1893
▁intern	-1894
▁uni	-1895
úcs	-1896
▁követően	-1897
áig	-1898
▁létre	-1899
▁kíván	-1900
▁társad	-1901
ilis	-1902
▁igény	-1903
▁nehéz	-1904
▁csütörtökön	-1905
▁let	-1906
▁pénteken	-1907
inc	-1908
▁fogyaszt	-1909
eged	-1910
országi	-1911
▁ünnep	-1912
szön	-1913
ékeny	-1914
▁szív	-1915
pály	-1916
tag	-1917
▁rég	-1918
ázs	-1919
▁fogad	-1920
övetség	-1921
áni	-1922
▁vállalkoz	-1923
etet	-1924
örgy	-1925
ral	-1926
vár	-1927
▁kik	-1928
▁készül	-1929
▁helyszín	-1930
▁bizottság	-1931
▁27	-1932
dig	-1933
íteni	-1934
▁Tam	-1935
▁vet	-1936
▁1-	-1937
nyug	-1938
vált	-1939
▁erő	-1940
olás	-1941
▁ford	-1942
endég	-1943
▁szig	-1944
▁egyszer	-1945
műv	-1946
rány	-1947
▁ham	-1948
▁gáz	-1949
▁jelentette	-1950
▁kí	-1951
▁mérték	-1952
endő	-1953
▁tölt	-1954
▁nyer	-1955
▁végül	-1956
▁iz	-1957
▁rövid	-1958
▁fin	-1959
▁egyen	-1960
elv	-1961
▁annyi	-1962
▁díj	-1963
▁megyei	-1964
▁til	-1965
▁szinte	-1966
▁társaság	-1967
▁ver	-1968
▁abban	-1969
▁forduló	-1970
▁Pr	-1971
ítvány	-1972
la	-1973
▁di	-1974
ácsony	-1975
▁barát	-1976
1.	-1977
mag	-1978
▁hosszú	-1979
▁először	-1980
▁vonatkoz	-1981
▁tudja	-1982
▁raj	-1983
▁amelynek	-1984
arab	-1985
▁tév	-1986
▁tehát	-1987
▁kórház	-1988
ézet	-1989
▁ebben	-1990
▁esély	-1991
▁X	-1992
▁0,	-1993
özben	-1994
▁fogalmaz	-1995
▁egyszerű	-1996
▁bor	-1997
lovák	-1998
▁kett	-1999
izmus	-2000
▁évek	-2001
▁Ak	-2002
utató	-2003
ásban	-2004
▁hatóság	-2005
oni	-2006
jából	-2007
▁álló	-2008
▁ide	-2009
▁brit	-2010
ársaság	-2011
ői	-2012
bert	-2013
▁hib	-2014
▁végre	-2015
▁miután	-2016
▁viszony	-2017
hetnek	-2018
▁szakember	-2019
száz	-2020
▁nyújt	-2021
▁szerződés	-2022
űjt	-2023
hogy	-2024
▁szerv	-2025
▁Rend	-2026
ird	-2027
▁mit	-2028
▁Mint	-2029
▁február	-2030
▁kormányz	-2031
urg	-2032
rész	-2033
▁délután	-2034
pal	-2035
▁György	-2036
ere	-2037
▁ed	-2038
▁kir	-2039
▁nyit	-2040
▁Sport	-2041
▁fény	-2042
line	-2043
ulás	-2044
éseket	-2045
több	-2046
álni	-2047
▁ellenőr	-2048
▁vélemény	-2049
isták	-2050
ködés	-2051
▁alkotmány	-2052
▁október	-2053
▁veszt	-2054
álat	-2055
őben	-2056
▁Már	-2057
▁Sch	-2058
ann	-2059
▁maga	-2060
▁baleset	-2061
▁szép	-2062
féle	-2063
ilag	-2064
enk	-2065
▁felk	-2066
▁Vik	-2067
▁János	-2068
▁többi	-2069
▁Jobbik	-2070
üket	-2071
▁Világ	-2072
dönt	-2073
▁előző	-2074
▁feltétel	-2075
ésben	-2076
▁kért	-2077
▁vezetője	-2078
▁próbál	-2079
▁vendég	-2080
▁éj	-2081
mun	-2082
▁szakért	-2083
▁kifej	-2084
▁továbbra	-2085
▁orvos	-2086
kezd	-2087
upán	-2088
▁lány	-2089
▁hangsúly	-2090
za	-2091
▁kapcsolatban	-2092
etében	-2093
prilis	-2094
▁teljesen	-2095
▁kéz	-2096
pány	-2097
▁part	-2098
▁mégis	-2099
adásul	-2100
▁arány	-2101
▁idei	-2102
▁egészség	-2103
▁otthon	-2104
ama	-2105
▁töm	-2106
▁lem	-2107
▁elfogad	-2108
ept	-2109
ékony	-2110
hetően	-2111
▁műsor	-2112
▁világbajnok	-2113
▁része	-2114
▁legyen	-2115
olja	-2116
▁kevés	-2117
▁állít	-2118
ától	-2119
▁áld	-2120
▁befektet	-2121
ork	-2122
avar	-2123
▁kics	-2124
▁érdem	-2125
▁elkövet	-2126
▁New	-2127
szabad	-2128
éli	-2129
▁EU	-2130
igazgató	-2131
▁labd	-2132
▁konc	-2133
▁gyeng	-2134
▁jelenlegi	-2135
polit	-2136
▁port	-2137
▁reggel	-2138
ügymin	-2139
▁komoly	-2140
szk	-2141
▁vele	-2142
▁értelm	-2143
▁Nemzeti	-2144
▁szocial	-2145
▁kérd	-2146
erek	-2147
ásokat	-2148
af	-2149
dött	-2150
▁polgármester	-2151
érd	-2152
ilk	-2153
▁kult	-2154
▁szenv	-2155
▁szükséges	-2156
▁Fran	-2157
▁rendőrök	-2158
▁haszn	-2159
▁24	-2160
osabb	-2161
vonal	-2162
▁közben	-2163
▁kiem	-2164
▁kellene	-2165
uz	-2166
emp	-2167
▁Mar	-2168
▁Zrt	-2169
▁férf	-2170
▁kiad	-2171
hajt	-2172
▁energ	-2173
▁tartott	-2174
▁És	-2175
▁lel	-2176
▁ci	-2177
▁esetben	-2178
▁100	-2179
▁Val	-2180
ándor	-2181
gatás	-2182
▁utaz	-2183
▁motor	-2184
▁Zolt	-2185
▁miért	-2186
▁száma	-2187
▁ezen	-2188
▁semm	-2189
▁(2	-2190
acsony	-2191
▁szerepel	-2192
oc	-2193
efon	-2194
▁szok	-2195
▁kevesebb	-2196
▁persze	-2197
▁ül	-2198
▁Biz	-2199
nie	-2200
▁médi	-2201
▁forintos	-2202
▁30	-2203
enger	-2204
▁előre	-2205
▁BK	-2206
álló	-2207
▁benne	-2208
ősorban	-2209
▁keresked	-2210
▁Új	-2211
sága	-2212
▁het	-2213
▁tev	-2214
ségek	-2215
ására	-2216
▁pályáz	-2217
▁környezet	-2218
▁válogatott	-2219
▁Tamás	-2220
ga	-2221
▁2-	-2222
▁Ig	-2223
▁Egyesült	-2224
▁poz	-2225
▁Em	-2226
▁íg	-2227
ívül	-2228
▁érvény	-2229
tr	-2230
észség	-2231
▁jelölt	-2232
▁segítség	-2233
nék	-2234
urcs	-2235
▁támogat	-2236
ou	-2237
▁22	-2238
▁ing	-2239
attal	-2240
▁alig	-2241
▁semmi	-2242
▁ugyanakkor	-2243
ozni	-2244
▁rem	-2245
mai	-2246
rán	-2247
▁gazd	-2248
orvát	-2249
▁olimp	-2250
íti	-2251
örög	-2252
▁csupán	-2253
apitányság	-2254
ná	-2255
▁kialak	-2256
atták	-2257
▁közvet	-2258
▁köszön	-2259
iskol	-2260
rendszer	-2261
▁karácsony	-2262
▁százaléka	-2263
▁BKV	-2264
▁Ezt	-2265
ockáz	-2266
▁fegy	-2267
uló	-2268
▁tagja	-2269
ánc	-2270
▁akt	-2271
▁cikk	-2272
▁utas	-2273
▁eszköz	-2274
▁gyanús	-2275
▁újság	-2276
▁francia	-2277
▁tet	-2278
▁Német	-2279
▁kampány	-2280
▁április	-2281
fer	-2282
▁pénzügyi	-2283
▁mög	-2284
▁héten	-2285
▁összesen	-2286
▁rek	-2287
▁pl	-2288
▁tanulmány	-2289
▁vett	-2290
ileg	-2291
▁különös	-2292
ővel	-2293
▁bér	-2294
hatatlan	-2295
org	-2296
ball	-2297
▁hogyan	-2298
ian	-2299
ina	-2300
▁talán	-2301
▁Zoltán	-2302
▁lég	-2303
▁legtöbb	-2304
▁szempont	-2305
▁Ol	-2306
adék	-2307
omag	-2308
▁bőv	-2309
▁kezdőd	-2310
▁érdekében	-2311
elők	-2312
ésével	-2313
enki	-2314
▁-,	-2315
enci	-2316
▁gyógy	-2317
.)	-2318
se	-2319
▁dok	-2320
▁ell	-2321
szabály	-2322
▁jobban	-2323
▁intézmény	-2324
▁termék	-2325
▁Sp	-2326
▁épület	-2327
▁szül	-2328
men	-2329
▁csökken	-2330
atárs	-2331
eleg	-2332
élet	-2333
▁küz	-2334
anács	-2335
▁indult	-2336
▁mindenki	-2337
▁tizen	-2338
ona	-2339
▁név	-2340
gyűlés	-2341
DF	-2342
eje	-2343
elmű	-2344
▁kilom	-2345
onn	-2346
▁Viktor	-2347
▁forr	-2348
▁indok	-2349
▁Att	-2350
▁írta	-2351
zők	-2352
▁központ	-2353
▁techn	-2354
ódott	-2355
▁26	-2356
▁aztán	-2357
▁est	-2358
íp	-2359
óri	-2360
▁Kr	-2361
ármaz	-2362
▁tevékeny	-2363
meg	-2364
ozik	-2365
▁klub	-2366
▁pill	-2367
▁ezelőtt	-2368
örös	-2369
▁siker	-2370
álták	-2371
▁elkép	-2372
▁katon	-2373
▁Józs	-2374
▁meglep	-2375
▁döntött	-2376
gol	-2377
észeti	-2378
▁w	-2379
engyel	-2380
ítottak	-2381
beli	-2382
átette	-2383
átor	-2384
▁gyárt	-2385
▁Ki	-2386
▁uniós	-2387
▁modell	-2388
▁lény	-2389
ulat	-2390
róf	-2391
kívül	-2392
▁irod	-2393
ólag	-2394
▁bárm	-2395
akt	-2396
▁állás	-2397
▁intézked	-2398
▁elsősorban	-2399
9-	-2400
▁Itthon	-2401
get	-2402
▁fal	-2403
raj	-2404
▁állt	-2405
▁fot	-2406
▁Re	-2407
ument	-2408
▁elején	-2409
▁hav	-2410
▁mer	-2411
▁kiz	-2412
▁épít	-2413
szervezet	-2414
▁ex	-2415
▁im	-2416
oha	-2417
ségét	-2418
ományos	-2419
víz	-2420
ezon	-2421
irdet	-2422
van	-2423
▁sőt	-2424
▁maradt	-2425
▁olasz	-2426
▁vagyis	-2427
éni	-2428
▁látt	-2429
▁tulajdonos	-2430
gazdaság	-2431
▁21	-2432
ései	-2433
▁állapot	-2434
▁Hír	-2435
▁felf	-2436
▁Bár	-2437
▁közötti	-2438
▁történet	-2439
ódik	-2440
tatási	-2441
▁keresztül	-2442
ágy	-2443
▁vagyok	-2444
rál	-2445
▁származ	-2446
énk	-2447
ezik	-2448
▁évi	-2449
io	-2450
▁egyed	-2451
▁kísér	-2452
▁különböző	-2453
▁tapasztal	-2454
uális	-2455
örtén	-2456
▁vezér	-2457
▁péntek	-2458
▁esemény	-2459
▁Európa	-2460
▁József	-2461
▁számos	-2462
▁MDF	-2463
▁nemzeti	-2464
ansz	-2465
iről	-2466
▁külföldi	-2467
zetes	-2468
▁felé	-2469
▁lehetett	-2470
éteres	-2471
▁kockáz	-2472
▁Ugyan	-2473
ila	-2474
éves	-2475
▁mozg	-2476
ásával	-2477
▁András	-2478
ner	-2479
▁spanyol	-2480
▁módon	-2481
▁Index	-2482
▁Bar	-2483
ású	-2484
sért	-2485
▁akad	-2486
▁jutott	-2487
▁munkatárs	-2488
Sz	-2489
ítják	-2490
oldal	-2491
▁nemcsak	-2492
▁str	-2493
▁3-	-2494
óban	-2495
▁23	-2496
iaci	-2497
▁tervez	-2498
őként	-2499
▁honlap	-2500
ocsát	-2501
értelmű	-2502
szint	-2503
▁magyaráz	-2504
apír	-2505
álta	-2506
▁óra	-2507
▁közé	-2508
íl	-2509
log	-2510
usok	-2511
▁nőtt	-2512
örvény	-2513
▁bek	-2514
▁had	-2515
▁akart	-2516
▁ellát	-2517
▁esetében	-2518
ey	-2519
▁Rendőr	-2520
váj	-2521
andó	-2522
▁list	-2523
ésének	-2524
sem	-2525
▁ap	-2526
jára	-2527
▁Uni	-2528
▁azaz	-2529
▁alacsony	-2530
▁szolgáltatás	-2531
rec	-2532
▁eml	-2533
▁Ennek	-2534
fok	-2535
ereség	-2536
űt	-2537
emt	-2538
jelen	-2539
áson	-2540
ekkor	-2541
▁Nép	-2542
▁egykori	-2543
idék	-2544
▁Sándor	-2545
▁szakasz	-2546
ozza	-2547
világ	-2548
▁közep	-2549
▁súlyos	-2550
▁kutatás	-2551
zik	-2552
óg	-2553
vég	-2554
olták	-2555
udapesti	-2556
lőd	-2557
▁darab	-2558
▁bele	-2559
erő	-2560
▁valami	-2561
▁felhasznál	-2562
jut	-2563
▁Ma	-2564
▁pénzt	-2565
eptember	-2566
▁teljesítmény	-2567
II	-2568
akar	-2569
▁vill	-2570
▁kilenc	-2571
▁visszat	-2572
▁valaki	-2573
▁Van	-2574
▁dokument	-2575
▁budapesti	-2576
őle	-2577
▁ők	-2578
óval	-2579
▁mély	-2580
rom	-2581
▁terj	-2582
ente	-2583
jával	-2584
nyire	-2585
▁szor	-2586
▁demokr	-2587
▁Így	-2588
▁azokat	-2589
oy	-2590
atikus	-2591
▁lényeg	-2592
▁mérkőzés	-2593
▁szóvivője	-2594
ie	-2595
▁adatok	-2596
▁képes	-2597
▁Két	-2598
▁Min	-2599
▁Megy	-2600
▁független	-2601
par	-2602
▁tém	-2603
óknak	-2604
▁addig	-2605
▁egyetem	-2606
▁lakosság	-2607
ekv	-2608
rák	-2609
oltak	-2610
▁Több	-2611
▁régi	-2612
▁években	-2613
ham	-2614
sa	-2615
und	-2616
zó	-2617
▁eur	-2618
eteg	-2619
▁jött	-2620
▁megjelent	-2621
kör	-2622
elik	-2623
▁kínai	-2624
▁kezdemény	-2625
▁2.	-2626
▁okoz	-2627
fők	-2628
szem	-2629
ival	-2630
csoport	-2631
▁lass	-2632
bel	-2633
millió	-2634
▁jellem	-2635
▁cent	-2636
▁se	-2637
▁Kft	-2638
fordul	-2639
▁végzett	-2640
etek	-2641
▁dob	-2642
▁vér	-2643
eztek	-2644
▁színész	-2645
egény	-2646
▁ahhoz	-2647
▁egyértelmű	-2648
▁fell	-2649
▁fogalmazott	-2650
ler	-2651
ékes	-2652
▁kár	-2653
▁múl	-2654
▁2010-	-2655
akció	-2656
▁Vas	-2657
▁nők	-2658
▁szezon	-2659
atokat	-2660
▁Még	-2661
▁ideg	-2662
▁megm	-2663
▁nevű	-2664
▁beruház	-2665
evő	-2666
▁Rom	-2667
aként	-2668
iklós	-2669
▁Gazdaság	-2670
úra	-2671
▁kapcsolatos	-2672
8.	-2673
anszír	-2674
50	-2675
ivatal	-2676
ítése	-2677
össze	-2678
▁ülés	-2679
ung	-2680
▁szerencs	-2681
ója	-2682
elen	-2683
▁idején	-2684
▁osztály	-2685
▁tömeg	-2686
▁tudott	-2687
▁rendkívül	-2688
tiz	-2689
000	-2690
vállal	-2691
▁angol	-2692
▁nehez	-2693
▁többször	-2694
▁Fel	-2695
▁Ad	-2696
▁hajt	-2697
▁gyűjt	-2698
30	-2699
▁férfit	-2700
▁szombaton	-2701
▁vonatkozó	-2702
20	-2703
▁Ed	-2704
elték	-2705
keres	-2706
eik	-2707
nyal	-2708
atott	-2709
▁2009-	-2710
rid	-2711
▁Kar	-2712
éig	-2713
ocsi	-2714
zése	-2715
párt	-2716
einek	-2717
▁járt	-2718
▁támad	-2719
▁tartalmaz	-2720
eum	-2721
our	-2722
olog	-2723
▁érkezett	-2724
▁50	-2725
lési	-2726
▁sokat	-2727
▁részvény	-2728
▁választási	-2729
orm	-2730
ővé	-2731
▁valószínűleg	-2732
már	-2733
▁becs	-2734
ásának	-2735
▁mögött	-2736
jelölt	-2737
▁Mol	-2738
▁választások	-2739
erv	-2740
edik	-2741
ash	-2742
ideg	-2743
eltek	-2744
,8	-2745
▁nál	-2746
cselek	-2747
▁2008-	-2748
▁valóban	-2749
▁elképzel	-2750
era	-2751
obil	-2752
▁tr	-2753
▁mindent	-2754
sp	-2755
▁napon	-2756
▁kutat	-2757
ósság	-2758
▁jön	-2759
oss	-2760
▁rög	-2761
▁korlát	-2762
▁árfoly	-2763
▁gyakorlat	-2764
▁Ő	-2765
émi	-2766
▁Per	-2767
▁titk	-2768
▁született	-2769
irt	-2770
arúg	-2771
▁húsz	-2772
▁módos	-2773
asztróf	-2774
▁szeptember	-2775
▁esett	-2776
ust	-2777
▁döntés	-2778
▁látható	-2779
▁akit	-2780
enes	-2781
▁mai	-2782
▁felett	-2783
,7	-2784
ájuk	-2785
▁buk	-2786
▁Attila	-2787
▁megbíz	-2788
▁olvasható	-2789
▁század	-2790
▁meghatár	-2791
▁ingatlan	-2792
tunk	-2793
▁fed	-2794
ájában	-2795
▁országos	-2796
ack	-2797
urális	-2798
étt	-2799
▁forgalom	-2800
ánál	-2801
▁Országos	-2802
▁sorozat	-2803
,6	-2804
ce	-2805
ajos	-2806
▁oda	-2807
▁Megyei	-2808
fl	-2809
▁nyelv	-2810
▁élő	-2811
▁ellenzék	-2812
ológiai	-2813
▁lő	-2814
▁tudta	-2815
▁kárt	-2816
▁előny	-2817
▁senki	-2818
,2	-2819
▁női	-2820
▁utal	-2821
▁Zsolt	-2822
▁szerk	-2823
▁teszt	-2824
▁tudom	-2825
▁tartja	-2826
▁dokumentum	-2827
ölcs	-2828
▁őt	-2829
▁Csak	-2830
ff	-2831
▁Ant	-2832
részt	-2833
▁megny	-2834
▁teszi	-2835
▁ráadásul	-2836
▁hivatalos	-2837
kr	-2838
evíz	-2839
tatta	-2840
usban	-2841
▁csúcs	-2842
ca	-2843
▁For	-2844
qu	-2845
▁Kov	-2846
▁hatalmas	-2847
sd	-2848
úgy	-2849
íció	-2850
▁Kor	-2851
▁miközben	-2852
▁korr	-2853
▁Ber	-2854
ultak	-2855
▁kommun	-2856
▁kiderült	-2857
▁parlamenti	-2858
str	-2859
atát	-2860
▁kelet	-2861
ezi	-2862
jön	-2863
ódó	-2864
étől	-2865
▁küzd	-2866
▁megszer	-2867
▁szerzett	-2868
álja	-2869
▁jelentkez	-2870
esül	-2871
▁felv	-2872
▁Man	-2873
▁pan	-2874
▁krit	-2875
▁beszélt	-2876
▁futball	-2877
▁megállapod	-2878
▁198	-2879
almat	-2880
▁összes	-2881
gyek	-2882
▁bűncselek	-2883
osztály	-2884
zott	-2885
▁azóta	-2886
▁mondja	-2887
▁várhatóan	-2888
▁költségvetési	-2889
▁On	-2890
▁embert	-2891
▁országban	-2892
écs	-2893
olcs	-2894
▁idéz	-2895
▁kicsit	-2896
úttal	-2897
▁terh	-2898
ellett	-2899
▁tudni	-2900
áért	-2901
▁alk	-2902
▁vide	-2903
▁együttmű	-2904
▁megjelen	-2905
▁tűnik	-2906
örtön	-2907
▁esetén	-2908
ái	-2909
▁arany	-2910
▁tartó	-2911
,9	-2912
utatás	-2913
ier	-2914
burg	-2915
▁Miklós	-2916
▁pillan	-2917
▁eljárás	-2918
▁0	-2919
bil	-2920
lét	-2921
▁engedély	-2922
onal	-2923
▁feny	-2924
▁többek	-2925
▁többet	-2926
▁Igaz	-2927
▁telefon	-2928
▁folyamatosan	-2929
akoz	-2930
eszél	-2931
ítették	-2932
▁sajtót	-2933
jen	-2934
itás	-2935
▁ról	-2936
lődés	-2937
▁felső	-2938
▁forin	-2939
▁harc	-2940
▁koll	-2941
▁térség	-2942
gr	-2943
▁4-	-2944
▁40	-2945
▁BL	-2946
ancs	-2947
▁távol	-2948
nyugdíj	-2949
▁eddigi	-2950
▁tur	-2951
▁alkalom	-2952
titk	-2953
▁mindössze	-2954
aba	-2955
▁ab	-2956
▁Kár	-2957
▁Nap	-2958
▁megelő	-2959
▁jogszabály	-2960
▁tenni	-2961
▁befoly	-2962
óra	-2963
ítva	-2964
▁Most	-2965
▁ellent	-2966
úli	-2967
▁egyet	-2968
▁op	-2969
▁[	-2970
mód	-2971
▁Leg	-2972
▁méter	-2973
▁felmér	-2974
▁feleség	-2975
▁3.	-2976
▁br	-2977
film	-2978
▁fiz	-2979
jének	-2980
hetik	-2981
▁hamar	-2982
▁vizsgálat	-2983
ekről	-2984
áború	-2985
▁nyilvánosság	-2986
,4	-2987
ity	-2988
▁ének	-2989
▁elekt	-2990
,3	-2991
szel	-2992
▁vegy	-2993
▁ur	-2994
tized	-2995
▁legf	-2996
▁dolgozó	-2997
emet	-2998
úzeum	-2999
▁York	-3000
▁ég	-3001
apán	-3002
▁Mad	-3003
▁lez	-3004
janak	-3005
▁akinek	-3006
▁munkav	-3007
▁megerős	-3008
▁Budapesten	-3009
▁tájékoztatás	-3010
.:	-3011
edt	-3012
▁fenntart	-3013
ker	-3014
tuk	-3015
▁at	-3016
iában	-3017
,1	-3018
állam	-3019
elmet	-3020
nökség	-3021
vá	-3022
sen	-3023
▁mut	-3024
▁végig	-3025
▁Bel	-3026
▁Car	-3027
szolgált	-3028
▁szereplő	-3029
főkapitányság	-3030
una	-3031
eként	-3032
▁egyéni	-3033
ota	-3034
▁1.	-3035
▁jelenti	-3036
▁forinttal	-3037
ry	-3038
néz	-3039
▁Mag	-3040
▁elb	-3041
▁hivatkoz	-3042
pár	-3043
▁annyira	-3044
▁Pet	-3045
eznek	-3046
illag	-3047
▁Inter	-3048
általán	-3049
kék	-3050
ebben	-3051
vájci	-3052
▁Hogy	-3053
ttól	-3054
▁figyelem	-3055
▁kilométer	-3056
▁Úgy	-3057
játék	-3058
tabil	-3059
▁szöv	-3060
rag	-3061
▁Kín	-3062
▁Lig	-3063
▁észak	-3064
▁környék	-3065
▁előzetes	-3066
▁javaslat	-3067
éve	-3068
polgár	-3069
▁Lajos	-3070
ikat	-3071
▁kal	-3072
áltak	-3073
▁szerződ	-3074
▁amelyben	-3075
▁informáci	-3076
▁Im	-3077
▁menny	-3078
▁éjszak	-3079
▁módszer	-3080
▁Ér	-3081
▁ajánl	-3082
▁tudós	-3083
au	-3084
▁assz	-3085
▁szövet	-3086
▁szakmai	-3087
▁önkormányzat	-3088
izál	-3089
▁proj	-3090
▁román	-3091
urcsány	-3092
MP	-3093
álóz	-3094
▁seb	-3095
▁zaj	-3096
▁mostani	-3097
man	-3098
▁nyilatkozta	-3099
▁költségvetés	-3100
.),	-3101
hatják	-3102
▁cégek	-3103
▁fidesz	-3104
▁negyedik	-3105
▁idős	-3106
▁vette	-3107
▁meghal	-3108
iát	-3109
önyv	-3110
▁Hozz	-3111
▁egymás	-3112
ezz	-3113
inte	-3114
▁vagyon	-3115
ontosabb	-3116
▁igazság	-3117
▁vagyunk	-3118
▁biztonsági	-3119
0-1	-3120
anad	-3121
olják	-3122
▁szom	-3123
▁mindkét	-3124
ázis	-3125
▁óri	-3126
lenül	-3127
▁azonos	-3128
▁időben	-3129
▁finanszír	-3130
▁hatóságok	-3131
hetett	-3132
▁börtön	-3133
▁Egyetem	-3134
osok	-3135
▁lenni	-3136
hol	-3137
lám	-3138
▁baj	-3139
atban	-3140
▁belső	-3141
ián	-3142
▁2011-	-3143
▁évtized	-3144
▁beszám	-3145
orú	-3146
▁Ro	-3147
▁húz	-3148
▁felül	-3149
▁részét	-3150
▁sí	-3151
▁hit	-3152
▁cser	-3153
▁sokan	-3154
▁település	-3155
jog	-3156
raz	-3157
berg	-3158
▁fehér	-3159
elj	-3160
▁ígér	-3161
séggel	-3162
▁ügyben	-3163
▁érintett	-3164
▁különösen	-3165
ügyminiszter	-3166
▁munkahely	-3167
▁jég	-3168
▁örök	-3169
nevezett	-3170
▁visszav	-3171
égy	-3172
▁ős	-3173
▁kin	-3174
▁Mich	-3175
▁elad	-3176
ereg	-3177
▁máj	-3178
ípus	-3179
elleg	-3180
SA	-3181
▁hull	-3182
▁Minden	-3183
▁bevezet	-3184
▁eh	-3185
▁fővárosi	-3186
▁népszerű	-3187
▁Online	-3188
▁Ezek	-3189
▁szlovák	-3190
▁figyelmet	-3191
ötte	-3192
tette	-3193
tatott	-3194
▁hosszabb	-3195
▁biztonság	-3196
▁elé	-3197
▁legutó	-3198
▁szex	-3199
ándék	-3200
▁egyáltalán	-3201
▁szét	-3202
▁tervezett	-3203
oszk	-3204
▁mező	-3205
szerep	-3206
ítását	-3207
▁Orosz	-3208
▁Gyurcsány	-3209
if	-3210
▁legk	-3211
▁dolog	-3212
▁igyek	-3213
▁államtitk	-3214
▁információ	-3215
▁dí	-3216
▁rak	-3217
okból	-3218
▁internet	-3219
▁szervez	-3220
▁agy	-3221
szabadság	-3222
▁hí	-3223
▁évre	-3224
▁számító	-3225
▁kijelent	-3226
szó	-3227
▁Eg	-3228
enet	-3229
hang	-3230
▁lakás	-3231
▁történelmi	-3232
űk	-3233
hess	-3234
▁Pál	-3235
▁labdarúg	-3236
▁rendezvény	-3237
▁kateg	-3238
DP	-3239
ick	-3240
eltet	-3241
▁sért	-3242
▁bevétel	-3243
helyett	-3244
▁legfontosabb	-3245
▁Th	-3246
▁konz	-3247
▁zárt	-3248
▁jóval	-3249
▁minőség	-3250
▁kísérlet	-3251
▁hangsúlyozta	-3252
▁Ham	-3253
▁emberi	-3254
▁interj	-3255
▁általában	-3256
▁szocialista	-3257
▁őrizet	-3258
▁egyedül	-3259
▁pontosan	-3260
éért	-3261
▁agg	-3262
▁erről	-3263
▁jövőre	-3264
▁természetesen	-3265
▁óv	-3266
ciós	-3267
ekete	-3268
▁tavalyi	-3269
iplom	-3270
▁felvétel	-3271
▁testület	-3272
ox	-3273
▁Kap	-3274
▁gar	-3275
▁robb	-3276
▁lesznek	-3277
▁bizonyos	-3278
▁épp	-3279
etett	-3280
▁tehet	-3281
▁érdemes	-3282
▁magasabb	-3283
élt	-3284
adta	-3285
▁azonnal	-3286
nőtt	-3287
▁Tim	-3288
▁hideg	-3289
▁Ebb	-3290
▁The	-3291
▁kib	-3292
▁maguk	-3293
▁lehetne	-3294
ford	-3295
▁Kis	-3296
valós	-3297
▁folyó	-3298
▁kutató	-3299
▁kötelező	-3300
bizt	-3301
zési	-3302
▁rab	-3303
▁svájci	-3304
▁Bizottság	-3305
öny	-3306
▁király	-3307
▁pontos	-3308
▁található	-3309
fér	-3310
▁busz	-3311
▁küld	-3312
▁csinál	-3313
▁kényszer	-3314
▁Be	-3315
▁Dr	-3316
▁várt	-3317
felé	-3318
örök	-3319
▁ekkor	-3320
▁Horvát	-3321
▁csomag	-3322
▁tudják	-3323
▁összef	-3324
▁jövőben	-3325
ij	-3326
igo	-3327
▁Elő	-3328
inkább	-3329
▁egészen	-3330
▁sikeres	-3331
perc	-3332
▁Szent	-3333
gyűlési	-3334
▁tűzolt	-3335
▁sajtótájékoz	-3336
DSZ	-3337
▁tenger	-3338
áns	-3339
▁Géz	-3340
ainak	-3341
▁repül	-3342
▁sérült	-3343
▁csatlak	-3344
▁lit	-3345
▁kutatók	-3346
vil	-3347
üst	-3348
ozók	-3349
▁jogi	-3350
▁helyre	-3351
▁hozott	-3352
▁közölt	-3353
őzsd	-3354
▁bíz	-3355
▁Amer	-3356
▁jármű	-3357
▁Kovács	-3358
bé	-3359
ood	-3360
tes	-3361
▁Gr	-3362
ónak	-3363
▁nyí	-3364
▁hátt	-3365
foglal	-3366
hatott	-3367
▁találtak	-3368
ine	-3369
▁tor	-3370
veszt	-3371
ítási	-3372
▁megvalós	-3373
▁prod	-3374
▁nekik	-3375
bíróság	-3376
▁felügy	-3377
utas	-3378
▁Sok	-3379
▁edző	-3380
ítható	-3381
▁fogja	-3382
ételt	-3383
▁jöved	-3384
▁igazán	-3385
▁Sh	-3386
▁kormányfő	-3387
képpen	-3388
áris	-3389
▁dev	-3390
▁2010	-3391
álisan	-3392
▁készített	-3393
adik	-3394
ciót	-3395
egyen	-3396
▁piaci	-3397
Az	-3398
▁soha	-3399
tan	-3400
áron	-3401
▁bev	-3402
ákkal	-3403
▁kapcs	-3404
▁igazgatója	-3405
▁internetes	-3406
▁28	-3407
alma	-3408
▁arc	-3409
▁érz	-3410
▁Géza	-3411
▁szándék	-3412
▁Ü	-3413
ala	-3414
ula	-3415
▁adta	-3416
▁szór	-3417
harmad	-3418
szerző	-3419
▁friss	-3420
▁elismer	-3421
▁úgynevezett	-3422
ism	-3423
átum	-3424
▁Var	-3425
nének	-3426
szaki	-3427
▁kont	-3428
▁célja	-3429
▁Tanács	-3430
▁alakul	-3431
bev	-3432
onc	-3433
▁vág	-3434
▁zen	-3435
▁gyak	-3436
▁családi	-3437
▁mes	-3438
ajnos	-3439
▁menet	-3440
▁szenved	-3441
▁többség	-3442
▁negyedév	-3443
faj	-3444
▁fest	-3445
▁zöld	-3446
▁Szabó	-3447
▁minős	-3448
▁poszt	-3449
attak	-3450
▁Bank	-3451
▁idők	-3452
▁megvált	-3453
▁játszott	-3454
idő	-3455
ítást	-3456
▁infl	-3457
▁forrás	-3458
▁feladat	-3459
▁prof	-3460
▁áldoz	-3461
élemény	-3462
▁beszéd	-3463
▁meleg	-3464
▁tudnak	-3465
▁napokban	-3466
▁társadalmi	-3467
úk	-3468
ekvő	-3469
ilap	-3470
▁köny	-3471
▁igazi	-3472
▁elkész	-3473
▁szerinte	-3474
▁vad	-3475
▁döntő	-3476
▁érzék	-3477
▁társadalom	-3478
▁segítségével	-3479
▁egészségügyi	-3480
▁róla	-3481
hatunk	-3482
▁2006-	-3483
▁tartóz	-3484
odik	-3485
▁35	-3486
▁szav	-3487
▁mobil	-3488
▁szolgál	-3489
hi	-3490
eri	-3491
▁Joh	-3492
ájának	-3493
▁ehhez	-3494
▁kötött	-3495
▁lengyel	-3496
gazdasági	-3497
▁fideszes	-3498
▁magyarországi	-3499
ilt	-3500
▁Cl	-3501
▁hő	-3502
▁LMP	-3503
kezett	-3504
▁ebből	-3505
rab	-3506
ondoni	-3507
ulcs	-3508
vizsgál	-3509
▁délelőtt	-3510
▁29	-3511
▁pil	-3512
▁Ezzel	-3513
▁részben	-3514
usi	-3515
ásos	-3516
érte	-3517
▁Tib	-3518
BC	-3519
rá	-3520
atta	-3521
belül	-3522
▁diák	-3523
▁harm	-3524
usztrál	-3525
▁diplom	-3526
▁megtal	-3527
▁kétszer	-3528
var	-3529
ital	-3530
▁ára	-3531
oldali	-3532
társ	-3533
▁Mil	-3534
oldog	-3535
▁Központ	-3536
ore	-3537
úni	-3538
okról	-3539
kotmány	-3540
▁átalak	-3541
▁mennyiség	-3542
▁választók	-3543
ebrec	-3544
ozása	-3545
▁attól	-3546
kan	-3547
nyel	-3548
▁Mivel	-3549
▁jelentősen	-3550
▁KA	-3551
▁ri	-3552
itív	-3553
száll	-3554
▁feld	-3555
▁megf	-3556
▁ismeretlen	-3557
ach	-3558
▁minisztérium	-3559
ener	-3560
íték	-3561
▁Államok	-3562
▁Kül	-3563
▁Tud	-3564
▁köszönhetően	-3565
▁vége	-3566
▁remény	-3567
▁életét	-3568
▁visszatér	-3569
▁általános	-3570
ium	-3571
osszabb	-3572
▁erősöd	-3573
▁működés	-3574
▁létrehoz	-3575
haj	-3576
eleti	-3577
onnan	-3578
origo	-3579
▁időt	-3580
▁keretében	-3581
co	-3582
ael	-3583
forg	-3584
▁láb	-3585
ozást	-3586
▁Kl	-3587
hagy	-3588
▁szob	-3589
enként	-3590
ökkent	-3591
▁meggy	-3592
alk	-3593
▁Dél	-3594
olv	-3595
munk	-3596
zések	-3597
▁szék	-3598
▁Más	-3599
▁eny	-3600
ennél	-3601
▁elők	-3602
▁ezeket	-3603
▁osztrák	-3604
▁éd	-3605
vesz	-3606
abban	-3607
com	-3608
▁Il	-3609
▁Ir	-3610
odott	-3611
ünket	-3612
▁civil	-3613
ítan	-3614
nának	-3615
őknek	-3616
várium	-3617
▁leginkább	-3618
olf	-3619
nyom	-3620
▁téli	-3621
onttal	-3622
▁forintra	-3623
▁értékesít	-3624
▁megfelelően	-3625
házy	-3626
ádió	-3627
▁köl	-3628
▁mintha	-3629
▁stabil	-3630
▁eredeti	-3631
▁of	-3632
takar	-3633
▁köztük	-3634
▁hasonlóan	-3635
-,	-3636
▁Un	-3637
▁elkezd	-3638
▁alkalommal	-3639
▁állampolgár	-3640
oft	-3641
ror	-3642
atók	-3643
▁úton	-3644
▁csaknem	-3645
▁tényleg	-3646
2.	-3647
▁Antik	-3648
▁egyház	-3649
▁munkan	-3650
▁Föld	-3651
kodó	-3652
▁ölt	-3653
pénzt	-3654
▁prób	-3655
▁papír	-3656
ügynökség	-3657
ini	-3658
ivat	-3659
▁írt	-3660
▁vitt	-3661
ennyiben	-3662
fejleszt	-3663
▁felkész	-3664
:4	-3665
res	-3666
atait	-3667
▁reag	-3668
ságban	-3669
▁reform	-3670
▁At	-3671
artóz	-3672
hatók	-3673
▁napi	-3674
▁vizsg	-3675
▁Amikor	-3676
▁vereség	-3677
red	-3678
▁500	-3679
cz	-3680
esi	-3681
igy	-3682
upa	-3683
▁SZ	-3684
▁bot	-3685
▁Debrec	-3686
▁férfiak	-3687
▁országgyűlési	-3688
úti	-3689
▁bü	-3690
jebb	-3691
▁hétvég	-3692
▁százalékát	-3693
sé	-3694
ásai	-3695
arcel	-3696
▁jogos	-3697
▁sincs	-3698
▁londoni	-3699
bank	-3700
▁kim	-3701
ogató	-3702
▁gólt	-3703
▁közz	-3704
▁akció	-3705
ova	-3706
▁font	-3707
▁rang	-3708
▁megpr	-3709
▁hátrány	-3710
▁katasztróf	-3711
höz	-3712
écsi	-3713
▁cig	-3714
▁löv	-3715
elése	-3716
▁Vagy	-3717
▁minim	-3718
▁Főváros	-3719
▁mértékben	-3720
▁Ob	-3721
▁197	-3722
ektől	-3723
szich	-3724
▁Hozzátette	-3725
edv	-3726
ítik	-3727
▁haza	-3728
▁kemény	-3729
▁felnőtt	-3730
▁kezelés	-3731
▁Antikvárium	-3732
▁Id	-3733
issz	-3734
ásnak	-3735
▁tagjai	-3736
üv	-3737
▁szár	-3738
▁mikor	-3739
▁portál	-3740
▁szerda	-3741
▁szöveg	-3742
ilkosság	-3743
▁Hivatal	-3744
▁megrend	-3745
▁működik	-3746
▁szabadság	-3747
öp	-3748
▁tök	-3749
▁sztr	-3750
▁felhív	-3751
▁tiltak	-3752
▁védelm	-3753
▁kapcsán	-3754
▁összefügg	-3755
▁Ph	-3756
ered	-3757
ölgy	-3758
▁Győr	-3759
▁havi	-3760
▁Par	-3761
élyes	-3762
▁Csaba	-3763
▁gyógyszer	-3764
▁emelkedett	-3765
▁önkormányzati	-3766
.-	-3767
köt	-3768
fokú	-3769
krét	-3770
esztő	-3771
▁lőtt	-3772
ásában	-3773
▁esetleg	-3774
▁kommunik	-3775
ence	-3776
▁Cím	-3777
uguszt	-3778
▁rajta	-3779
▁hirdet	-3780
▁idegen	-3781
▁asszony	-3782
évén	-3783
▁közön	-3784
▁vörös	-3785
▁ütköz	-3786
▁gyakran	-3787
▁Alkotmány	-3788
úd	-3789
fehér	-3790
ákban	-3791
▁eltér	-3792
▁feljelent	-3793
▁benn	-3794
▁előbb	-3795
▁kötet	-3796
▁munkát	-3797
adók	-3798
közel	-3799
▁sérül	-3800
ítására	-3801
▁hozzát	-3802
▁együttes	-3803
jén	-3804
ecsk	-3805
énnyel	-3806
▁kamat	-3807
▁zavar	-3808
hatóság	-3809
▁jelleg	-3810
▁gyorsan	-3811
▁lehetővé	-3812
▁letartóz	-3813
▁szövetség	-3814
▁íz	-3815
▁eredet	-3816
▁megkérd	-3817
▁mindenk	-3818
▁projekt	-3819
per	-3820
ünet	-3821
külön	-3822
▁többen	-3823
▁országok	-3824
▁drág	-3825
▁győzelem	-3826
óth	-3827
zést	-3828
▁2008	-3829
▁blog	-3830
▁javasl	-3831
▁kifizet	-3832
▁szombat	-3833
ádi	-3834
▁5-	-3835
▁érte	-3836
▁remek	-3837
▁előtti	-3838
4.	-3839
hass	-3840
▁Alap	-3841
▁olaj	-3842
▁görög	-3843
▁típus	-3844
▁szinten	-3845
íts	-3846
▁Mű	-3847
▁on	-3848
▁Bor	-3849
▁benz	-3850
▁kedvez	-3851
jú	-3852
▁kuty	-3853
▁norm	-3854
aks	-3855
▁hajn	-3856
árólag	-3857
▁deviz	-3858
3.	-3859
otó	-3860
áján	-3861
▁Kat	-3862
▁tők	-3863
▁reng	-3864
▁temp	-3865
▁júni	-3866
▁múlva	-3867
▁biztosan	-3868
▁őrizetbe	-3869
▁vezérigazgató	-3870
"-	-3871
▁Fő	-3872
part	-3873
▁jutt	-3874
▁védek	-3875
▁kezdett	-3876
▁tartják	-3877
▁jellemző	-3878
▁árfolyam	-3879
:1	-3880
ara	-3881
▁amíg	-3882
▁rajt	-3883
▁takar	-3884
▁annyit	-3885
▁tudjuk	-3886
▁ügyvéd	-3887
▁állítólag	-3888
tem	-3889
vér	-3890
ányi	-3891
▁Károly	-3892
▁kategóri	-3893
▁vállalat	-3894
▁lehetőséget	-3895
lex	-3896
▁egymást	-3897
▁körülbelül	-3898
▁nyilvánosságra	-3899
▁Nyug	-3900
▁ideje	-3901
▁televíz	-3902
▁kulturális	-3903
da	-3904
▁eszt	-3905
▁magyarok	-3906
gazd	-3907
▁Hal	-3908
▁iránt	-3909
▁kapitány	-3910
kos	-3911
▁Ró	-3912
▁Jan	-3913
aszkod	-3914
▁Címkék	-3915
ológia	-3916
▁hatékony	-3917
pad	-3918
▁Mc	-3919
ényi	-3920
járás	-3921
▁megyében	-3922
▁Go	-3923
▁Imre	-3924
mérsék	-3925
verseny	-3926
▁büntető	-3927
ue	-3928
uzs	-3929
elyik	-3930
magas	-3931
▁kapu	-3932
ington	-3933
▁főleg	-3934
▁körében	-3935
▁végrehajt	-3936
▁Nemzetközi	-3937
cel	-3938
ödik	-3939
jenek	-3940
▁gyanú	-3941
▁erőszak	-3942
junk	-3943
védő	-3944
▁Sim	-3945
döntő	-3946
▁svéd	-3947
▁Tibor	-3948
▁ideig	-3949
▁választás	-3950
tér	-3951
▁195	-3952
▁Vég	-3953
▁hány	-3954
▁okozott	-3955
▁politik	-3956
▁gyerekek	-3957
▁szociális	-3958
▁bűncselekmény	-3959
űnt	-3960
▁Ab	-3961
▁Is	-3962
▁Ben	-3963
▁bék	-3964
▁sors	-3965
▁kölcs	-3966
▁helyet	-3967
:2	-3968
▁űr	-3969
niuk	-3970
▁mon	-3971
bizton	-3972
▁résztv	-3973
!!	-3974
NP	-3975
▁fáj	-3976
▁Unió	-3977
▁ennél	-3978
▁sérülés	-3979
▁olimpiai	-3980
▁kizárólag	-3981
▁60	-3982
öntet	-3983
▁venni	-3984
▁Bíróság	-3985
▁befolyás	-3986
▁kiállítás	-3987
▁szenvedett	-3988
▁lop	-3989
unkat	-3990
▁Francia	-3991
öket	-3992
ókkal	-3993
▁nemr	-3994
▁olcs	-3995
szerint	-3996
▁pályán	-3997
ukt	-3998
elly	-3999
▁járó	-4000
▁államtitkár	-4001
ugál	-4002
való	-4003
▁ruh	-4004
▁adósság	-4005
▁látvány	-4006
ébb	-4007
ológus	-4008
▁leveg	-4009
széd	-4010
kodás	-4011
övezet	-4012
▁világh	-4013
▁Országgyűlés	-4014
▁Te	-4015
fogy	-4016
árul	-4017
▁lelk	-4018
▁ajánd	-4019
választ	-4020
▁indított	-4021
▁Budapesti	-4022
▁munkavállal	-4023
ux	-4024
irat	-4025
▁300	-4026
▁eurót	-4027
▁sztráj	-4028
▁szerdai	-4029
mérséklet	-4030
▁Fővárosi	-4031
autó	-4032
jait	-4033
▁Ily	-4034
ekből	-4035
▁áram	-4036
▁futam	-4037
▁magam	-4038
kormány	-4039
▁legfel	-4040
érm	-4041
abda	-4042
▁ant	-4043
tatiszt	-4044
▁frakció	-4045
koló	-4046
ációt	-4047
▁akadály	-4048
▁vb	-4049
alon	-4050
szig	-4051
▁pal	-4052
▁hord	-4053
▁2007-	-4054
▁Balázs	-4055
▁Szeged	-4056
▁körüli	-4057
írt	-4058
▁lemond	-4059
▁auguszt	-4060
▁elkövetett	-4061
ori	-4062
▁45	-4063
▁ág	-4064
gond	-4065
▁pót	-4066
▁felsz	-4067
▁keddi	-4068
▁strat	-4069
politikai	-4070
dik	-4071
ita	-4072
piac	-4073
apcsol	-4074
▁index	-4075
▁centim	-4076
▁terjed	-4077
▁tartani	-4078
elnek	-4079
isztr	-4080
▁komp	-4081
▁sziget	-4082
▁növekedés	-4083
▁Port	-4084
▁ötlet	-4085
▁kormányzati	-4086
▁körülmények	-4087
▁Bl	-4088
ítanak	-4089
▁megkezd	-4090
▁szellem	-4091
▁fenyeget	-4092
▁emlékeztet	-4093
0)	-4094
▁GDP	-4095
álkoz	-4096
▁édes	-4097
▁média	-4098
▁száml	-4099
▁állat	-4100
▁lépett	-4101
keresked	-4102
▁továbbá	-4103
▁36	-4104
▁Dav	-4105
ezése	-4106
▁Persze	-4107
▁ezúttal	-4108
▁ellentét	-4109
▁tartozik	-4110
óbb	-4111
▁Kom	-4112
▁mérsék	-4113
▁egyszerűen	-4114
▁mél	-4115
aradt	-4116
tárak	-4117
ázott	-4118
▁derül	-4119
▁mester	-4120
▁változás	-4121
▁közösségi	-4122
erem	-4123
iket	-4124
esett	-4125
▁könnyű	-4126
▁tüntet	-4127
amos	-4128
▁met	-4129
▁aszt	-4130
▁minél	-4131
▁médiat	-4132
▁vezetett	-4133
7.	-4134
:3	-4135
amp	-4136
nes	-4137
nák	-4138
▁196	-4139
ültek	-4140
▁révén	-4141
▁vették	-4142
▁közelében	-4143
▁lehetséges	-4144
három	-4145
orosz	-4146
▁másfél	-4147
elmiszer	-4148
▁alapvet	-4149
▁bemutat	-4150
iak	-4151
▁tit	-4152
onyol	-4153
▁évig	-4154
▁házas	-4155
▁kevésbé	-4156
▁pozitív	-4157
▁használt	-4158
amb	-4159
hal	-4160
▁Rá	-4161
▁kr	-4162
▁Duna	-4163
▁csod	-4164
▁nevezte	-4165
▁He	-4166
ásba	-4167
▁kop	-4168
▁Tóth	-4169
▁Ezért	-4170
▁boldog	-4171
▁egyben	-4172
▁hatály	-4173
▁működő	-4174
▁látszik	-4175
▁tartozó	-4176
▁másodperc	-4177
▁kötelezett	-4178
ana	-4179
eai	-4180
▁bar	-4181
oznak	-4182
▁Rich	-4183
▁kollég	-4184
▁percben	-4185
▁repülőt	-4186
▁eljárást	-4187
lók	-4188
▁0-	-4189
alan	-4190
entr	-4191
▁11-	-4192
▁Int	-4193
▁Mik	-4194
▁kérte	-4195
▁szerepet	-4196
▁amelyeket	-4197
▁ellenzéki	-4198
▁módosítás	-4199
fg	-4200
őbb	-4201
edzs	-4202
okba	-4203
▁elind	-4204
▁akkori	-4205
▁hozzáj	-4206
▁komment	-4207
▁ellenfel	-4208
▁Di	-4209
▁Bud	-4210
▁Mester	-4211
▁konkrét	-4212
▁százalékot	-4213
iber	-4214
▁Hol	-4215
raeli	-4216
▁Real	-4217
▁megfi	-4218
▁nyílt	-4219
chester	-4220
▁adatai	-4221
▁számolt	-4222
▁versenyző	-4223
ódi	-4224
azin	-4225
▁hozta	-4226
▁kerület	-4227
▁sokszor	-4228
▁ló	-4229
kett	-4230
kező	-4231
▁Har	-4232
▁vir	-4233
▁ingy	-4234
▁ritk	-4235
▁japán	-4236
fa	-4237
DNP	-4238
őző	-4239
▁Tovább	-4240
▁összeh	-4241
▁egyeztet	-4242
▁Népszabadság	-4243
ook	-4244
▁oka	-4245
aránt	-4246
▁szent	-4247
▁regény	-4248
▁csillag	-4249
polgármester	-4250
eci	-4251
▁Iz	-4252
akad	-4253
enti	-4254
ihar	-4255
▁kab	-4256
▁oly	-4257
▁júli	-4258
▁Angel	-4259
▁nyerte	-4260
▁hajland	-4261
TE	-4262
vál	-4263
ovics	-4264
▁lakó	-4265
ésében	-4266
▁napja	-4267
▁korrup	-4268
▁alkalmas	-4269
▁szerepelt	-4270
▁területén	-4271
▁Tisz	-4272
▁harminc	-4273
▁labdarúgó	-4274
▁munkanélkül	-4275
kó	-4276
▁önmag	-4277
fal	-4278
▁Mal	-4279
ezést	-4280
▁valós	-4281
atlanul	-4282
▁teremt	-4283
▁alakult	-4284
▁oldalon	-4285
ons	-4286
▁32	-4287
ulék	-4288
▁apr	-4289
ozzák	-4290
▁keret	-4291
▁mutatja	-4292
▁napilap	-4293
▁támadás	-4294
bor	-4295
icc	-4296
ogle	-4297
álás	-4298
ettem	-4299
tatni	-4300
▁rögz	-4301
▁Fehér	-4302
▁pontot	-4303
▁évente	-4304
▁szomszéd	-4305
zár	-4306
órum	-4307
▁15-	-4308
lehet	-4309
ésekkel	-4310
▁Nagyon	-4311
▁belőle	-4312
▁nappal	-4313
▁(3	-4314
ofőr	-4315
ukor	-4316
▁Vesz	-4317
▁öröm	-4318
MF	-4319
nénk	-4320
▁Ste	-4321
ukció	-4322
európai	-4323
▁semmit	-4324
▁egyaránt	-4325
▁helyszínen	-4326
▁hivatkozva	-4327
▁kiváló	-4328
▁számol	-4329
csökkent	-4330
▁fegyver	-4331
▁történő	-4332
▁szakértők	-4333
▁közlekedési	-4334
▁km	-4335
járt	-4336
▁tavasz	-4337
▁dollárt	-4338
▁hallgat	-4339
ashington	-4340
▁következt	-4341
▁gyanúsított	-4342
▁elsz	-4343
hatjuk	-4344
▁level	-4345
▁reklám	-4346
▁Horváth	-4347
▁nélküli	-4348
lett	-4349
ésnek	-4350
▁külső	-4351
▁probléma	-4352
▁tevékenység	-4353
ábl	-4354
atai	-4355
▁Mart	-4356
▁Kriszt	-4357
▁gazdag	-4358
▁pártok	-4359
▁kiderül	-4360
erd	-4361
fut	-4362
uth	-4363
▁nekem	-4364
▁hozzátette	-4365
▁képviselők	-4366
▁élelmiszer	-4367
▁hom	-4368
encia	-4369
▁elemző	-4370
▁Szerinte	-4371
▁meglepet	-4372
▁Szövetség	-4373
▁Én	-4374
adja	-4375
▁kisz	-4376
▁kerék	-4377
▁hangulat	-4378
ren	-4379
▁kapta	-4380
▁kaptak	-4381
▁pénteki	-4382
▁átlagos	-4383
éket	-4384
leked	-4385
ságát	-4386
magyar	-4387
▁fognak	-4388
▁energia	-4389
▁nagyjából	-4390
▁szakemberek	-4391
ami	-4392
észek	-4393
ítést	-4394
iszony	-4395
▁autós	-4396
szerűen	-4397
▁Google	-4398
▁döntet	-4399
▁százalékra	-4400
ket	-4401
irály	-4402
▁Term	-4403
üggeszt	-4404
▁kereskedelmi	-4405
iros	-4406
lány	-4407
▁Fej	-4408
ukrán	-4409
▁idej	-4410
▁frank	-4411
▁pszich	-4412
▁hagyomány	-4413
▁közleményében	-4414
▁Ár	-4415
énél	-4416
eiben	-4417
ektor	-4418
vezetője	-4419
▁bajnoki	-4420
▁időszakban	-4421
▁194	-4422
▁Tav	-4423
▁John	-4424
▁fesz	-4425
▁tervek	-4426
▁vezette	-4427
▁állítja	-4428
▁Gu	-4429
örny	-4430
▁eleg	-4431
▁veszteség	-4432
őre	-4433
▁cseh	-4434
▁felm	-4435
▁ajándék	-4436
▁csütörtöki	-4437
▁szerződést	-4438
▁31	-4439
ötét	-4440
▁Hét	-4441
▁köv	-4442
▁tartomány	-4443
▁Ugyanakkor	-4444
nyt	-4445
▁Szak	-4446
ezhető	-4447
▁Varga	-4448
▁vidék	-4449
▁hétfői	-4450
▁rendező	-4451
▁állandó	-4452
▁4.	-4453
▁vall	-4454
▁Szomb	-4455
▁szélső	-4456
▁óriási	-4457
milliárd	-4458
▁sikerül	-4459
▁következtében	-4460
oks	-4461
▁Hat	-4462
▁esti	-4463
▁husz	-4464
▁légi	-4465
▁szűk	-4466
csapat	-4467
▁levél	-4468
ellenes	-4469
▁akarja	-4470
▁áldozat	-4471
▁kórházba	-4472
▁változat	-4473
dor	-4474
növ	-4475
ugr	-4476
▁Mih	-4477
elést	-4478
ipari	-4479
irtok	-4480
▁megjegy	-4481
▁pályára	-4482
▁kétharmad	-4483
▁izg	-4484
orvég	-4485
ábban	-4486
ásokkal	-4487
▁Madrid	-4488
▁üzleti	-4489
▁kiemelt	-4490
▁mindegy	-4491
bajnokság	-4492
igazgatás	-4493
ley	-4494
uni	-4495
vai	-4496
aceb	-4497
▁Mark	-4498
▁stíl	-4499
▁Ilyen	-4500
▁május	-4501
▁hatalom	-4502
▁magukat	-4503
omp	-4504
▁Pa	-4505
▁főt	-4506
essége	-4507
▁La	-4508
▁rejt	-4509
▁káros	-4510
▁szerb	-4511
erületi	-4512
▁fekete	-4513
▁műszaki	-4514
csal	-4515
terj	-4516
▁Vel	-4517
▁jelöl	-4518
program	-4519
▁megkap	-4520
▁ügyfel	-4521
▁kedvező	-4522
▁nyugati	-4523
▁magánnyugdíj	-4524
40	-4525
atra	-4526
▁átt	-4527
ozási	-4528
állás	-4529
▁mire	-4530
▁ügyében	-4531
▁központi	-4532
▁dolgozott	-4533
▁egyértelműen	-4534
▁szakszervezet	-4535
▁Ap	-4536
ésen	-4537
▁leb	-4538
▁árt	-4539
▁Bors	-4540
▁beny	-4541
▁elvég	-4542
▁Barcel	-4543
▁ügyészség	-4544
2,	-4545
etű	-4546
▁II	-4547
iatt	-4548
▁megem	-4549
▁mentő	-4550
▁szerepl	-4551
▁Minisztérium	-4552
lev	-4553
rium	-4554
▁bőr	-4555
▁kölcsön	-4556
▁többsége	-4557
▁véletlen	-4558
▁+	-4559
▁rag	-4560
▁autót	-4561
▁anyagi	-4562
pénztári	-4563
▁szóvivő	-4564
▁érdekes	-4565
▁Szabolcs	-4566
▁említett	-4567
▁Pest	-4568
éséhez	-4569
▁messz	-4570
▁hasonl	-4571
▁vettek	-4572
▁szeretnék	-4573
xim	-4574
onban	-4575
szerk	-4576
▁puszt	-4577
▁lassan	-4578
▁elkerül	-4579
▁majdnem	-4580
▁számában	-4581
6.	-4582
zás	-4583
▁tőle	-4584
▁menek	-4585
▁Észak	-4586
▁repülő	-4587
▁fizetni	-4588
▁folytatás	-4589
▁legutóbbi	-4590
hetünk	-4591
▁szövetségi	-4592
▁Oroszország	-4593
▁ist	-4594
áshoz	-4595
▁sújt	-4596
▁részén	-4597
▁indítvány	-4598
▁szempontból	-4599
▁ötven	-4600
aik	-4601
ein	-4602
opp	-4603
irány	-4604
razil	-4605
urkol	-4606
ítások	-4607
▁Obama	-4608
▁havaz	-4609
▁Michael	-4610
▁vezetői	-4611
▁betegség	-4612
▁elektron	-4613
▁hőmérséklet	-4614
▁eg	-4615
elég	-4616
▁évet	-4617
▁fellép	-4618
▁valamennyi	-4619
▁tájékoztatása	-4620
ars	-4621
ciók	-4622
esed	-4623
rist	-4624
▁kol	-4625
egnap	-4626
ettől	-4627
iszap	-4628
▁véli	-4629
▁befej	-4630
▁lista	-4631
▁emiatt	-4632
▁okozta	-4633
▁ötödik	-4634
▁könnyen	-4635
▁személyes	-4636
▁számítógép	-4637
szolgáltatás	-4638
▁letartóztatás	-4639
▁mot	-4640
ítését	-4641
ezetten	-4642
▁felfed	-4643
▁Szlovák	-4644
▁alkalmazott	-4645
ax	-4646
szerte	-4647
▁Egyes	-4648
▁kapus	-4649
vélemény	-4650
▁hajlandó	-4651
▁Nyom	-4652
▁zsid	-4653
▁legyőz	-4654
hív	-4655
▁PL	-4656
▁védő	-4657
▁Forma	-4658
ferenci	-4659
▁alelnök	-4660
▁holland	-4661
▁figyelmeztet	-4662
car	-4663
rad	-4664
term	-4665
fogás	-4666
intéz	-4667
▁botrány	-4668
ősen	-4669
▁eső	-4670
▁kelt	-4671
▁kocs	-4672
▁mellé	-4673
▁tőzsd	-4674
▁külföld	-4675
▁tartanak	-4676
▁honlapján	-4677
▁hagyományos	-4678
nár	-4679
ikában	-4680
▁SZDSZ	-4681
▁hálóz	-4682
▁énekes	-4683
▁győztes	-4684
▁rengeteg	-4685
ügyminisztérium	-4686
lob	-4687
▁számú	-4688
▁robban	-4689
▁katonai	-4690
▁statiszt	-4691
▁beszélget	-4692
▁gyakorlatilag	-4693
TP	-4694
cion	-4695
írás	-4696
▁Három	-4697
▁felúj	-4698
▁hiába	-4699
▁kiáll	-4700
▁egymilli	-4701
▁rendelkező	-4702
zió	-4703
onyi	-4704
adott	-4705
aival	-4706
▁Andre	-4707
kutatás	-4708
▁mutató	-4709
▁játszik	-4710
▁autópály	-4711
▁tudományos	-4712
9.	-4713
jével	-4714
értek	-4715
▁Össz	-4716
▁csapata	-4717
▁hamarosan	-4718
▁Ó	-4719
áit	-4720
eksz	-4721
▁Ott	-4722
▁nyáron	-4723
▁izraeli	-4724
▁mondott	-4725
▁szigorú	-4726
▁töltött	-4727
▁dolgozik	-4728
de	-4729
▁As	-4730
▁Fi	-4731
ukra	-4732
ásait	-4733
▁benzin	-4734
▁fogják	-4735
▁látogat	-4736
▁kerültek	-4737
▁szocialisták	-4738
ke	-4739
ebek	-4740
ezők	-4741
ikát	-4742
ivál	-4743
▁20-	-4744
könyv	-4745
▁bíró	-4746
▁kerületi	-4747
▁együttműködés	-4748
pl	-4749
ráz	-4750
prém	-4751
▁Mat	-4752
▁Mát	-4753
▁ősz	-4754
etben	-4755
▁neve	-4756
beszer	-4757
egatív	-4758
▁észre	-4759
▁rekord	-4760
▁felelősség	-4761
seg	-4762
üsz	-4763
gyűjt	-4764
▁City	-4765
▁Unit	-4766
▁megint	-4767
▁ugyanaz	-4768
▁főszerep	-4769
rav	-4770
▁Oly	-4771
▁mos	-4772
olvas	-4773
▁Szil	-4774
▁adni	-4775
▁plusz	-4776
▁online	-4777
▁mennyire	-4778
▁üzemeltet	-4779
▁PK	-4780
újabb	-4781
▁voks	-4782
▁Akkor	-4783
▁Ebben	-4784
▁energi	-4785
ezs	-4786
raf	-4787
uli	-4788
▁FC	-4789
edes	-4790
▁Lev	-4791
akban	-4792
sztön	-4793
ásokra	-4794
▁sofőr	-4795
▁klassz	-4796
▁nyomán	-4797
▁	-4798
e	-4799
a	-4800
t	-4801
l	-4802
s	-4803
n	-4804
k	-4805
r	-4806
i	-4807
z	-4808
o	-4809
á	-4810
é	-4811
g	-4812
m	-4813
y	-4814
b	-4815
d	-4816
v	-4817
,	-4818
h	-4819
j	-4820
p	-4821
ó	-4822
ö	-4823
u	-4824
ő	-4825
.	-4826
f	-4827
c	-4828
í	-4829
-	-4830
ü	-4831
A	-4832
ú	-4833
0	-4834
M	-4835
1	-4836
S	-4837
2	-4838
ű	-4839
B	-4840
K	-4841
E	-4842
:	-4843
"	-4844
N	-4845
T	-4846
P	-4847
F	-4848
H	-4849
3	-4850
)	-4851
5	-4852
(	-4853
V	-4854
I	-4855
C	-4856
L	-4857
D	-4858
G	-4859
4	-4860
9	-4861
R	-4862
6	-4863
8	-4864
O	-4865
7	-4866
J	-4867
Z	-4868
x	-4869
w	-4870
U	-4871
?	-4872
W	-4873
Á	-4874
É	-4875
!	-4876
/	-4877
;	-4878
Ú	-4879
X	-4880
Ö	-4881
Y	-4882
Í	-4883
'	-4884
+	-4885
q	-4886
Ő	-4887
[	-4888
]	-4889
Ü	-4890
%	-4891
Q	-4892
Ó	-4893
&	-4894
̋	-4895
=	-4896
ä	-4897
#	-4898
>	-4899
_	-4900
•	-4901
*	-4902
−	-4903
­	-4904
$	-4905
©	-4906
@	-4907
Ű	-4908
ë	-4909
õ	-4910
ć	-4911
§	-4912
à	-4913
×	-4914
è	-4915
č	-4916
	-4917
ô	-4918
š	-4919
‭	-4920
Š	-4921
‬	-4922
ă	-4923
†	-4924
<	-4925
ç	-4926
~	-4927
ñ	-4928
£	-4929
°	-4930
û	-4931
\	-4932
â	-4933
ß	-4934
ý	-4935
`	-4936
ø	-4937
ł	-4938
ń	-4939
	-4940
Č	-4941
ş	-4942
ţ	-4943
⁄	-4944
	-4945
	-4946
È	-4947
Ž	-4948
ž	-4949
¬	-4950
®	-4951
±	-4952
å	-4953
ò	-4954
ň	-4955
̈	-4956
‒	-4957
^	-4958
	-4959
·	-4960
Ä	-4961
ã	-4962
ì	-4963
ï	-4964
ÿ	-4965
Đ	-4966
ť	-4967
ה	-4968
′	-4969
€	-4970
≤	-4971
Å	-4972
æ	-4973
ê	-4974
î	-4975
ð	-4976
ą	-4977
Ć	-4978
đ	-4979
ę	-4980
ı	-4981
ř	-4982
Ś	-4983
ś	-4984
Ţ	-4985
Ť	-4986
ů	-4987
ż	-4988
ș	-4989
λ	-4990
μ	-4991
ї	-4992
ו	-4993
י	-4994
∗	-4995
	-4996
