[UNK]	0
[CLS]	1
[SEP]	2
[PAD]	3
[MASK]	4
!	5
"	6
#	7
$	8
%	9
&	10
'	11
(	12
)	13
*	14
+	15
,	16
-	17
.	18
/	19
0	20
1	21
2	22
3	23
4	24
5	25
6	26
7	27
8	28
9	29
:	30
;	31
<	32
=	33
>	34
?	35
@	36
[	37
\	38
]	39
^	40
_	41
`	42
a	43
b	44
c	45
d	46
e	47
f	48
g	49
h	50
i	51
j	52
k	53
l	54
m	55
n	56
o	57
p	58
q	59
r	60
s	61
t	62
u	63
v	64
w	65
x	66
y	67
z	68
~	69
	70
	71
	72
	73
£	74
§	75
©	76
¬	77
­	78
®	79
°	80
±	81
·	82
×	83
ß	84
à	85
á	86
â	87
ã	88
ä	89
å	90
æ	91
ç	92
è	93
é	94
ê	95
ë	96
ì	97
í	98
î	99
ï	100
ð	101
ñ	102
ò	103
ó	104
ô	105
õ	106
ö	107
ø	108
ú	109
û	110
ü	111
ý	112
ÿ	113
ă	114
ą	115
ć	116
č	117
đ	118
ę	119
ı	120
ł	121
ń	122
ň	123
ő	124
ř	125
ś	126
ş	127
š	128
ţ	129
ť	130
ů	131
ű	132
ż	133
ž	134
ș	135
̈	136
̋	137
λ	138
μ	139
ї	140
ה	141
ו	142
י	143
‒	144
†	145
•	146
‬	147
‭	148
′	149
⁄	150
€	151
−	152
∗	153
≤	154
	155
	156
##e	157
##t	158
##m	159
##a	160
##r	161
##k	162
##o	163
##v	164
##n	165
##g	166
##l	167
##d	168
##ó	169
##y	170
##á	171
##ú	172
##.	173
##:	174
##-	175
##)	176
##z	177
##é	178
##s	179
##ö	180
##ő	181
##u	182
##p	183
##í	184
##i	185
##c	186
##h	187
##j	188
##f	189
##ü	190
##ű	191
##b	192
##w	193
##6	194
##5	195
##0	196
##2	197
##8	198
##4	199
##3	200
##1	201
##7	202
##x	203
##ô	204
##ë	205
##q	206
##9	207
##à	208
##,	209
##ä	210
##ý	211
##å	212
##ı	213
##/	214
##õ	215
##>	216
###	217
##!	218
##_	219
##]	220
##ť	221
##?	222
##"	223
##­	224
##è	225
##'	226
##*	227
##č	228
##û	229
##ů	230
##ă	231
##ć	232
##ñ	233
##;	234
##ì	235
##ş	236
##š	237
##ž	238
##ç	239
##<	240
##[	241
##%	242
##ł	243
##ż	244
##ř	245
##‭	246
##ò	247
##ţ	248
##(	249
##ś	250
##ę	251
##ą	252
##+	253
##ß	254
##ã	255
##ê	256
##§	257
##−	258
##â	259
##ň	260
##ń	261
##&	262
##ð	263
##ø	264
##$	265
##ÿ	266
##′	267
##ș	268
##đ	269
##@	270
##~	271
##æ	272
##î	273
##ї	274
##=	275
##†	276
##ה	277
##ו	278
##ï	279
##®	280
##\	281
##et	282
##en	283
##el	284
##sz	285
##gy	286
##er	287
##at	288
##an	289
##al	290
az	291
sz	292
##ek	293
##on	294
##ár	295
##or	296
##ak	297
##em	298
##ás	299
##in	300
##ol	301
##eg	302
##án	303
##ál	304
##es	305
##tt	306
el	307
##és	308
##ik	309
##ar	310
##ok	311
##ez	312
##én	313
##ég	314
##os	315
##ér	316
##bb	317
és	318
##ett	319
egy	320
##oz	321
##ül	322
##ág	323
kö	324
##ít	325
meg	326
##át	327
##ap	328
##ét	329
##ogy	330
##ék	331
is	332
##ban	333
hogy	334
##il	335
##él	336
##ed	337
##int	338
##ott	339
##is	340
##it	341
nem	342
##agy	343
##szt	344
##ben	345
##ad	346
##cs	347
##om	348
##ta	349
cs	350
##ól	351
##ra	352
##ség	353
szer	354
##ul	355
##as	356
##ni	357
##ja	358
##ák	359
##og	360
köz	361
##ány	362
ki	363
##ény	364
fel	365
##re	366
##am	367
##aj	368
##ai	369
##áz	370
le	371
##ely	372
##ig	373
ez	374
am	375
##az	376
##nak	377
##ent	378
##ag	379
##ot	380
##iz	381
##nk	382
##ép	383
al	384
##ság	385
##ész	386
tö	387
##ut	388
##het	389
##ll	390
ak	391
##ny	392
##ől	393
##nek	394
##ám	395
##end	396
##olt	397
##rt	398
##ell	399
##ci	400
##lt	401
be	402
gy	403
ny	404
##ért	405
min	406
##us	407
##hat	408
##nt	409
##ök	410
de	411
##od	412
##szer	413
áll	414
##art	415
##ond	416
##ont	417
év	418
##len	419
##ud	420
vál	421
szerint	422
kor	423
##ab	424
##ró	425
##egy	426
##unk	427
for	428
##av	429
##ber	430
##uk	431
mi	432
##ev	433
##ezet	434
##ött	435
már	436
volt	437
jel	438
##kö	439
##szág	440
leg	441
es	442
elő	443
mind	444
##agyar	445
rend	446
##vet	447
##ov	448
magyar	449
##ók	450
20	451
##ert	452
##att	453
##ában	454
ol	455
nagy	456
##ill	457
ut	458
id	459
##ep	460
##ők	461
em	462
##erül	463
ad	464
or	465
##vel	466
##ább	467
ér	468
val	469
ha	470
er	471
##ej	472
##ük	473
##id	474
##est	475
több	476
##ős	477
##ént	478
##ba	479
##tat	480
hely	481
##esz	482
még	483
né	484
azt	485
##val	486
##koz	487
##kor	488
##ön	489
##ében	490
##olg	491
##áll	492
##ssz	493
##kal	494
in	495
##zet	496
##aszt	497
csak	498
##mány	499
##eket	500
##ív	501
##áj	502
szám	503
hi	504
##te	505
mint	506
##elm	507
kap	508
##ály	509
##ve	510
van	511
##ia	512
##um	513
ar	514
##ette	515
kell	516
lehet	517
##oly	518
##obb	519
##ós	520
tud	521
##éd	522
száz	523
két	524
más	525
vagy	526
ter	527
##kez	528
##okat	529
##ző	530
##árt	531
hat	532
##let	533
##elő	534
##ítás	535
amely	536
##ára	537
mag	538
##ei	539
tart	540
sem	541
##iszt	542
új	543
vég	544
biz	545
##ort	546
an	547
##ony	548
##ból	549
össz	550
##ált	551
##illi	552
##ső	553
##ajd	554
##ót	555
##alm	556
ellen	557
##alék	558
##be	559
##eszt	560
##ch	561
##ély	562
##ír	563
ig	564
##ód	565
##hoz	566
##öl	567
##ör	568
##mény	569
mond	570
##ást	571
##őr	572
fog	573
##ur	574
##ának	575
##ebb	576
##ése	577
kép	578
##öv	579
##ják	580
##ín	581
százalék	582
##ést	583
pr	584
át	585
##ország	586
##nök	587
##ított	588
##ról	589
##ása	590
##úl	591
tel	592
##éz	593
eu	594
ped	595
kül	596
##asz	597
##eh	598
##ult	599
##elt	600
##ug	601
ért	602
szem	603
minden	604
pedig	605
##im	606
##na	607
##íz	608
rész	609
hoz	610
##ére	611
##op	612
##ható	613
jelent	614
##nál	615
##leg	616
nap	617
milli	618
##áros	619
##ikai	620
mű	621
##je	622
ben	623
##eres	624
után	625
en	626
200	627
##ások	628
azon	629
##ilág	630
##aság	631
##abb	632
munk	633
kör	634
euró	635
##esen	636
##vény	637
##ési	638
##ási	639
vis	640
##utat	641
forint	642
##ünk	643
##ani	644
ország	645
vi	646
kez	647
kormány	648
állam	649
##áci	650
##ád	651
majd	652
ugy	653
##ének	654
##ost	655
##tak	656
##ölt	657
ind	658
alap	659
##eny	660
##va	661
##ával	662
##lal	663
##ült	664
tár	665
lesz	666
fő	667
bel	668
##ális	669
fi	670
ugyan	671
##ked	672
##vezet	673
##ről	674
##önt	675
han	676
tal	677
##emény	678
szak	679
világ	680
kis	681
első	682
úgy	683
##lan	684
##gat	685
ember	686
##nap	687
##ob	688
##ján	689
így	690
##ügy	691
vezet	692
##ember	693
int	694
##azd	695
19	696
aki	697
##köz	698
##etlen	699
##dés	700
oly	701
##ogat	702
##őz	703
ill	704
követ	705
hét	706
##ház	707
##énz	708
miatt	709
sok	710
##iv	711
vissz	712
ügy	713
szab	714
##év	715
##ből	716
##yen	717
##ne	718
##jel	719
##ri	720
mert	721
##fi	722
között	723
elm	724
jó	725
##hez	726
##ikus	727
akkor	728
sp	729
tört	730
##00	731
##ös	732
##áb	733
##ló	734
olyan	735
##for	736
##mű	737
igaz	738
saj	739
ját	740
foly	741
sor	742
##szak	743
mondta	744
mar	745
ami	746
##erült	747
##ezt	748
tan	749
hal	750
##eti	751
##ers	752
idő	753
lát	754
##ések	755
ah	756
##osan	757
##nyi	758
##ezett	759
ép	760
##ász	761
tör	762
##fel	763
##atok	764
##atal	765
##öld	766
##any	767
##ém	768
##ovább	769
tovább	770
##árom	771
most	772
hozz	773
##ként	774
kér	775
egyik	776
ir	777
nemzet	778
választ	779
##kel	780
##ir	781
kész	782
##eni	783
##ező	784
bizt	785
##íj	786
azonban	787
##ták	788
ism	789
pénz	790
##étel	791
##olit	792
##ekt	793
##ács	794
##ossz	795
##áv	796
él	797
tám	798
jog	799
##árd	800
ban	801
##osz	802
##nok	803
vált	804
fr	805
érd	806
201	807
valam	808
##utó	809
mell	810
eg	811
gazd	812
##ével	813
rendőr	814
fér	815
való	816
kezd	817
st	818
ár	819
három	820
per	821
dönt	822
elnök	823
),	824
##tel	825
##ület	826
csap	827
##ikor	828
##hető	829
##ck	830
vár	831
fej	832
ált	833
##un	834
által	835
##pont	836
##eng	837
ked	838
##eb	839
##tö	840
eset	841
európ	842
vol	843
telj	844
##zs	845
külön	846
ezt	847
##ki	848
##ván	849
illet	850
##jt	851
cí	852
##ati	853
ed	854
ker	855
##izs	856
##old	857
re	858
arra	859
ered	860
korább	861
nev	862
jelen	863
##esít	864
##ját	865
##őt	866
##izet	867
jár	868
har	869
##jár	870
##atkoz	871
##eked	872
##ata	873
ír	874
##csol	875
élet	876
egész	877
pont	878
##fog	879
br	880
##and	881
##olgál	882
visz	883
##met	884
szó	885
ok	886
sik	887
##incs	888
##ását	889
jobb	890
##ító	891
##fő	892
len	893
nyil	894
##oló	895
##ing	896
##tár	897
magyarország	898
##elem	899
kom	900
##árm	901
szint	902
előtt	903
bal	904
##véd	905
polit	906
##elmi	907
##juk	908
nyug	909
##enek	910
##up	911
amer	912
il	913
par	914
##atot	915
##zel	916
kon	917
##alom	918
##oll	919
##ését	920
dolg	921
nek	922
##író	923
##vis	924
##tó	925
szerep	926
fél	927
##ic	928
##hely	929
##adás	930
itt	931
term	932
##őd	933
besz	934
##últ	935
gazdaság	936
##ög	937
##ram	938
##ip	939
amikor	940
##dig	941
##kül	942
##dul	943
cég	944
gond	945
##óz	946
millió	947
gyer	948
##éld	949
##izsg	950
érdek	951
mér	952
##kép	953
##ti	954
éves	955
péld	956
kapcsol	957
lak	958
##öz	959
bud	960
történ	961
párt	962
##kod	963
volna	964
társ	965
##ített	966
talál	967
##ökk	968
##tam	969
##éter	970
vezető	971
ne	972
##szerű	973
másod	974
##sal	975
ma	976
költ	977
kar	978
tag	979
négy	980
men	981
illetve	982
##rend	983
##ozó	984
fid	985
##úly	986
##ába	987
vas	988
megy	989
alatt	990
##űn	991
##ajnok	992
ott	993
nagyon	994
ezer	995
dél	996
##esség	997
##oh	998
akik	999
##őség	1000
##gel	1001
##adó	1002
én	1003
közl	1004
össze	1005
##inek	1006
hó	1007
amerikai	1008
tav	1009
von	1010
jöv	1011
##ció	1012
seg	1013
érték	1014
mellett	1015
##oztat	1016
##kol	1017
##jelent	1018
10	1019
##ex	1020
##usz	1021
##gg	1022
##ütt	1023
##díj	1024
##ából	1025
miniszt	1026
vissza	1027
##st	1028
rendszer	1029
játék	1030
milliárd	1031
##uár	1032
öt	1033
nő	1034
##iai	1035
fidesz	1036
vesz	1037
hír	1038
közölt	1039
##után	1040
nyom	1041
##ezte	1042
##nél	1043
##osság	1044
##enc	1045
haz	1046
hang	1047
##város	1048
##omb	1049
megt	1050
zs	1051
##vas	1052
##elet	1053
hiv	1054
##ozott	1055
bar	1056
##erseny	1057
ilyen	1058
ház	1059
hasz	1060
haj	1061
biztos	1062
##ünt	1063
##ozás	1064
nincs	1065
férfi	1066
##erület	1067
##áció	1068
##ilm	1069
vállal	1070
törvény	1071
##szín	1072
együtt	1073
15	1074
##form	1075
##ozat	1076
##ern	1077
##ors	1078
mód	1079
rá	1080
##eli	1081
kil	1082
jav	1083
##észt	1084
##izsgál	1085
szól	1086
kat	1087
##kot	1088
##zés	1089
bet	1090
##le	1091
üz	1092
##lat	1093
budap	1094
budapest	1095
##ant	1096
eredmény	1097
##élkül	1098
támogat	1099
##áról	1100
képvis	1101
##gató	1102
alkal	1103
##ium	1104
##ór	1105
keres	1106
##pr	1107
csal	1108
##íg	1109
csökk	1110
lett	1111
##ub	1112
##anak	1113
##omány	1114
német	1115
".	1116
##almaz	1117
##ink	1118
vél	1119
következ	1120
##ester	1121
##ocs	1122
európai	1123
egyes	1124
marad	1125
azért	1126
pály	1127
##sel	1128
##séges	1129
##ezés	1130
ezért	1131
hisz	1132
hanem	1133
cél	1134
##ábor	1135
autó	1136
erős	1137
te	1138
szín	1139
##avaz	1140
##oszt	1141
túl	1142
kev	1143
##ügyi	1144
személy	1145
##etés	1146
##tört	1147
fran	1148
figy	1149
bef	1150
véd	1151
##köd	1152
##eken	1153
##vány	1154
##ang	1155
##ió	1156
kés	1157
mn	1158
verseny	1159
##ef	1160
##ogram	1161
##ekben	1162
##oport	1163
##ilyen	1164
kam	1165
közölte	1166
##aly	1167
##ették	1168
kerül	1169
##all	1170
2010	1171
##da	1172
##ánt	1173
eddig	1174
##vár	1175
sport	1176
##pen	1177
##of	1178
##ája	1179
##ason	1180
kív	1181
város	1182
szük	1183
##ügg	1184
##ául	1185
viszont	1186
szolgál	1187
segít	1188
lép	1189
##mad	1190
eml	1191
körül	1192
##dal	1193
jelenleg	1194
reg	1195
jövő	1196
helyzet	1197
akar	1198
költség	1199
ment	1200
tavaly	1201
szerző	1202
bár	1203
##tek	1204
annak	1205
kl	1206
##ottság	1207
szeret	1208
második	1209
ahol	1210
##zett	1211
##uszt	1212
##hon	1213
pár	1214
##ekkel	1215
##ítés	1216
##elés	1217
terv	1218
12	1219
néh	1220
nép	1221
például	1222
##lát	1223
út	1224
##ítani	1225
csapat	1226
mik	1227
##só	1228
##akor	1229
lét	1230
##ec	1231
##úz	1232
bl	1233
szabad	1234
##ass	1235
közel	1236
kiv	1237
rom	1238
ők	1239
##lés	1240
##szám	1241
bizony	1242
vel	1243
##ess	1244
arról	1245
ber	1246
##esebb	1247
##ista	1248
nélkül	1249
fejl	1250
jan	1251
##ontos	1252
hozzá	1253
##tól	1254
##éb	1255
saját	1256
kapcsolat	1257
mno	1258
határ	1259
elt	1260
foglal	1261
kérdés	1262
film	1263
hónap	1264
##ven	1265
18	1266
felt	1267
megh	1268
##ője	1269
##övet	1270
tiszt	1271
korábban	1272
##ően	1273
##ással	1274
amit	1275
elmond	1276
##isz	1277
11	1278
hétfő	1279
ugyanis	1280
negy	1281
miniszter	1282
##észet	1283
##nyv	1284
megsz	1285
##ájék	1286
százalékkal	1287
##ettek	1288
##..	1289
##ülés	1290
##okban	1291
##rób	1292
ebb	1293
kedd	1294
##ika	1295
olvas	1296
kín	1297
hivatal	1298
alkalm	1299
vizsgál	1300
##íróság	1301
##ította	1302
##bbi	1303
alkot	1304
kutat	1305
##ször	1306
kit	1307
hason	1308
##föld	1309
tér	1310
ör	1311
##ist	1312
mutat	1313
##atlan	1314
család	1315
##erg	1316
táv	1317
orosz	1318
valamint	1319
##lam	1320
any	1321
hát	1322
hagy	1323
lap	1324
intéz	1325
győz	1326
##ségi	1327
ezek	1328
##fél	1329
hiszen	1330
ennek	1331
##eit	1332
##ver	1333
##elked	1334
mely	1335
##éről	1336
##közi	1337
jut	1338
jól	1339
csü	1340
óta	1341
gól	1342
pént	1343
##cia	1344
##ac	1345
közös	1346
gondol	1347
##ető	1348
legn	1349
azok	1350
##ásár	1351
ezzel	1352
beszél	1353
##törtök	1354
csütörtök	1355
##alak	1356
##oci	1357
ch	1358
alak	1359
került	1360
##onság	1361
##szab	1362
##ásra	1363
##itk	1364
alapján	1365
30	1366
mivel	1367
##otta	1368
kr	1369
program	1370
##ottak	1371
játsz	1372
##ulajd	1373
##érték	1374
másik	1375
hossz	1376
##újt	1377
pia	1378
neh	1379
késő	1380
nyugdíj	1381
uta	1382
számára	1383
##ológ	1384
néhány	1385
bank	1386
rég	1387
ór	1388
##sége	1389
föld	1390
##séget	1391
dec	1392
bajnok	1393
felh	1394
##inak	1395
##min	1396
megv	1397
##sa	1398
##essz	1399
oldal	1400
semm	1401
egyet	1402
hit	1403
##út	1404
cím	1405
##ttal	1406
önk	1407
##ájékoztat	1408
míg	1409
##orv	1410
ismer	1411
##olc	1412
perc	1413
szabály	1414
##zi	1415
##ord	1416
##jobb	1417
közül	1418
oszt	1419
##gyű	1420
##zal	1421
december	1422
szavaz	1423
##ói	1424
akár	1425
terület	1426
##elnök	1427
képviselő	1428
##ekint	1429
di	1430
##ús	1431
##alan	1432
##ter	1433
jegy	1434
című	1435
irány	1436
test	1437
használ	1438
25	1439
16	1440
##lag	1441
nyilván	1442
as	1443
víz	1444
##sor	1445
##ulajdon	1446
).	1447
ön	1448
##von	1449
doll	1450
működ	1451
uni	1452
##ha	1453
lehetőség	1454
ist	1455
harmad	1456
főváros	1457
##za	1458
moz	1459
##nal	1460
##ism	1461
and	1462
százalékos	1463
##öt	1464
csoport	1465
im	1466
##vétel	1467
január	1468
okoz	1469
folytat	1470
tíz	1471
szerd	1472
fordul	1473
negyed	1474
folyam	1475
kif	1476
csökkent	1477
nyilatkoz	1478
lenne	1479
##ánd	1480
tárgy	1481
növ	1482
##ib	1483
.)	1484
nemzetközi	1485
##űz	1486
nov	1487
legjobb	1488
fiatal	1489
pl	1490
egym	1491
utol	1492
ap	1493
ám	1494
dr	1495
##agyobb	1496
köt	1497
##ához	1498
szervezet	1499
##etett	1500
legnagyobb	1501
##lő	1502
fizet	1503
hol	1504
##lás	1505
##né	1506
munka	1507
kedv	1508
körny	1509
jelentős	1510
##assz	1511
##iség	1512
##előtt	1513
történt	1514
##súly	1515
aut	1516
##jük	1517
##ull	1518
magas	1519
fer	1520
elv	1521
szomb	1522
elem	1523
parlam	1524
##okkal	1525
egyéb	1526
aján	1527
kellett	1528
közép	1529
nemzeti	1530
parlament	1531
nagyobb	1532
##mér	1533
érkez	1534
##nny	1535
azzal	1536
hasonló	1537
elég	1538
##nő	1539
fontos	1540
idén	1541
legy	1542
szoci	1543
száll	1544
szemben	1545
##aton	1546
során	1547
##új	1548
megáll	1549
elmúlt	1550
gyerek	1551
##rás	1552
13	1553
##jabb	1554
##ókat	1555
forg	1556
adó	1557
elmondta	1558
##almas	1559
szél	1560
rendőrség	1561
emlék	1562
##árnap	1563
14	1564
teh	1565
megyei	1566
abb	1567
vannak	1568
...	1569
17	1570
gazdasági	1571
##ejt	1572
##adt	1573
amelyek	1574
dolgoz	1575
##ment	1576
##ong	1577
vasárnap	1578
##szp	1579
rendel	1580
elh	1581
tulajdon	1582
gyors	1583
korábbi	1584
foglalkoz	1585
##obl	1586
##csak	1587
##ezni	1588
els	1589
tett	1590
mindig	1591
##ón	1592
##ején	1593
ál	1594
bíróság	1595
ham	1596
##bán	1597
költségvet	1598
nyolc	1599
##tor	1600
kid	1601
##ajt	1602
megfel	1603
nyert	1604
##óság	1605
tanács	1606
polg	1607
rep	1608
##eset	1609
##ma	1610
szövet	1611
##élet	1612
elfog	1613
##ard	1614
bizottság	1615
gyakor	1616
##igaz	1617
##rel	1618
##ános	1619
inform	1620
##ítása	1621
##zék	1622
részt	1623
vit	1624
##ászló	1625
ink	1626
.,	1627
szerv	1628
##oblém	1629
további	1630
ant	1631
##jai	1632
rossz	1633
##enni	1634
##itány	1635
kereszt	1636
utó	1637
##kész	1638
hiány	1639
megk	1640
##ene	1641
eng	1642
tesz	1643
tanul	1644
hon	1645
csat	1646
##alt	1647
##eccs	1648
##ására	1649
2009	1650
##land	1651
teljes	1652
##nn	1653
##jában	1654
legal	1655
állami	1656
##ítja	1657
##róbál	1658
mot	1659
##telen	1660
hazai	1661
vid	1662
mszp	1663
##okr	1664
eljár	1665
##mek	1666
##kőz	1667
erre	1668
függ	1669
bor	1670
helyett	1671
##ock	1672
alá	1673
szen	1674
könyv	1675
hu	1676
lev	1677
gyan	1678
érint	1679
inkább	1680
##mányz	1681
javas	1682
##ari	1683
voltak	1684
problém	1685
bűn	1686
dem	1687
megb	1688
teljesít	1689
##ay	1690
##lin	1691
önkor	1692
tekint	1693
felel	1694
november	1695
##acs	1696
utolsó	1697
elnöke	1698
##biz	1699
sér	1700
ismert	1701
lászló	1702
##ákat	1703
th	1704
önkormányz	1705
##ah	1706
199	1707
könny	1708
##erj	1709
tény	1710
adott	1711
##son	1712
múlt	1713
##átt	1714
kapott	1715
27	1716
##évő	1717
##talan	1718
orbán	1719
vez	1720
újra	1721
iz	1722
##li	1723
##áját	1724
fok	1725
fogy	1726
milyen	1727
adat	1728
esz	1729
sajtó	1730
különb	1731
francia	1732
méd	1733
##ür	1734
brit	1735
fin	1736
rendelkez	1737
tr	1738
##óta	1739
súly	1740
het	1741
fen	1742
##ow	1743
várható	1744
##nia	1745
éppen	1746
##ics	1747
##ították	1748
alkotmány	1749
##úsz	1750
mer	1751
őket	1752
##sér	1753
##ka	1754
##viv	1755
természet	1756
politikai	1757
##ítő	1758
erő	1759
##leges	1760
vád	1761
##jának	1762
##tatás	1763
##ehér	1764
##sze	1765
##színű	1766
##üz	1767
##lov	1768
néz	1769
díj	1770
kötel	1771
##ítette	1772
sikerült	1773
##har	1774
összeg	1775
közleked	1776
tette	1777
szig	1778
port	1779
##olta	1780
##elte	1781
piac	1782
att	1783
tájékoztat	1784
##követ	1785
magát	1786
meccs	1787
később	1788
harmadik	1789
##lott	1790
folyamat	1791
21	1792
megállap	1793
##lik	1794
ahogy	1795
##áló	1796
magán	1797
gép	1798
##érium	1799
##imp	1800
##mel	1801
figyelm	1802
##lap	1803
##per	1804
intern	1805
találkoz	1806
##edett	1807
újabb	1808
##ral	1809
kisebb	1810
2008	1811
##oni	1812
",	1813
kir	1814
igazgató	1815
megfelelő	1816
kór	1817
fejleszt	1818
##nem	1819
##ikk	1820
ebben	1821
tiz	1822
átlag	1823
##gyel	1824
##uh	1825
##meg	1826
legalább	1827
mintegy	1828
szerdán	1829
fut	1830
mod	1831
péter	1832
##kv	1833
##esek	1834
alkalmaz	1835
zár	1836
központ	1837
felad	1838
##úr	1839
kár	1840
készült	1841
##mal	1842
szület	1843
gyermek	1844
##éssel	1845
##ációs	1846
##almi	1847
hétfőn	1848
ít	1849
országos	1850
24	1851
persze	1852
##jegy	1853
utc	1854
##ezték	1855
22	1856
##ebr	1857
##ték	1858
-,	1859
##ülő	1860
igen	1861
##ens	1862
halál	1863
##anyol	1864
##ármester	1865
kedden	1866
indul	1867
biztonság	1868
##éhez	1869
##ind	1870
##ion	1871
mérkőz	1872
##ésre	1873
emberek	1874
következő	1875
##szik	1876
belül	1877
##előre	1878
hozzát	1879
észak	1880
mit	1881
egyetem	1882
őr	1883
##ört	1884
##őv	1885
szükség	1886
emelked	1887
valószínű	1888
enged	1889
tor	1890
egyelőre	1891
politikus	1892
##eség	1893
kih	1894
állap	1895
##tart	1896
at	1897
##akat	1898
lég	1899
##áp	1900
##vezető	1901
istván	1902
##jét	1903
megl	1904
játékos	1905
utóbbi	1906
##oknak	1907
végül	1908
beteg	1909
##ukat	1910
növeked	1911
spanyol	1912
elér	1913
##utt	1914
bünt	1915
##elek	1916
közt	1917
##állal	1918
anyag	1919
tap	1920
jelölt	1921
lab	1922
ezen	1923
miniszterelnök	1924
közlemény	1925
hatóság	1926
##olni	1927
##akkor	1928
telep	1929
##ébe	1930
egyre	1931
éve	1932
##ogatott	1933
irod	1934
miután	1935
ab	1936
veszély	1937
szlov	1938
##úg	1939
olasz	1940
sokkal	1941
##chn	1942
kult	1943
##mények	1944
külföld	1945
on	1946
##mus	1947
##állítás	1948
ugyanakkor	1949
26	1950
##atív	1951
történet	1952
##okon	1953
febr	1954
szóló	1955
##osítás	1956
##cius	1957
talált	1958
##erős	1959
képest	1960
szintén	1961
##től	1962
vásár	1963
##milli	1964
##lom	1965
##foly	1966
##szolgál	1967
##csi	1968
komoly	1969
fot	1970
hív	1971
felelős	1972
##ellem	1973
helyi	1974
##ári	1975
##oldal	1976
neki	1977
egyébként	1978
##árs	1979
március	1980
kívül	1981
##bajnok	1982
raj	1983
##anyag	1984
##öm	1985
##hatnak	1986
február	1987
##ekre	1988
##heti	1989
ang	1990
egészség	1991
##övid	1992
##asznál	1993
forintot	1994
szeg	1995
##ánk	1996
től	1997
ford	1998
megold	1999
helyen	2000
amelyet	2001
reggel	2002
tárgyal	2003
##öző	2004
lévő	2005
írja	2006
##szor	2007
először	2008
végén	2009
##ásban	2010
index	2011
##nnep	2012
iskol	2013
nehéz	2014
egyetlen	2015
##ották	2016
ismét	2017
pénteken	2018
orv	2019
válasz	2020
részlet	2021
##ságot	2022
##gal	2023
évvel	2024
csütörtökön	2025
##kori	2026
dollár	2027
bem	2028
gyű	2029
számít	2030
ellenére	2031
tizen	2032
form	2033
magyarországon	2034
föl	2035
társaság	2036
mti	2037
gáz	2038
##lak	2039
tűz	2040
##uc	2041
ferenc	2042
vállalkoz	2043
este	2044
elleni	2045
annyi	2046
##jon	2047
##nyit	2048
tehát	2049
##ógy	2050
##inál	2051
##védelmi	2052
##oj	2053
üzem	2054
kí	2055
##üt	2056
##gazd	2057
barát	2058
szív	2059
rövid	2060
üzlet	2061
##elni	2062
part	2063
kösz	2064
budapesti	2065
kórház	2066
egyszer	2067
társad	2068
##ft	2069
23	2070
kik	2071
vélemény	2072
##uház	2073
fogyaszt	2074
internet	2075
üt	2076
let	2077
##hetetlen	2078
50	2079
kény	2080
abban	2081
aztán	2082
##éből	2083
##ésére	2084
##miniszt	2085
jobbik	2086
kíván	2087
hitel	2088
rendez	2089
til	2090
##űnt	2091
szép	2092
hall	2093
hosszú	2094
szinte	2095
##ásokat	2096
##nev	2097
##fr	2098
miért	2099
fehér	2100
##őket	2101
szóviv	2102
kett	2103
##kr	2104
##apitány	2105
##csap	2106
bejelent	2107
##eknek	2108
##hatja	2109
kal	2110
##ese	2111
##őleg	2112
ünnep	2113
válság	2114
##sék	2115
##atos	2116
ip	2117
ver	2118
##dő	2119
##dönt	2120
talán	2121
időszak	2122
##ezer	2123
évben	2124
##polg	2125
##ich	2126
##ron	2127
igény	2128
##ennyi	2129
gábor	2130
októ	2131
október	2132
##asztal	2133
létre	2134
rem	2135
##gép	2136
##aki	2137
##dött	2138
##orban	2139
ide	2140
##se	2141
##ün	2142
egyszerű	2143
##országban	2144
végre	2145
dar	2146
tam	2147
##ait	2148
##úcs	2149
##pal	2150
##ékeny	2151
ex	2152
fogad	2153
követően	2154
készül	2155
egyen	2156
##óri	2157
keresked	2158
100	2159
##ilis	2160
##határ	2161
pan	2162
világbajnok	2163
##endő	2164
##uz	2165
os	2166
##ettel	2167
40	2168
sch	2169
2011	2170
közben	2171
##uta	2172
##áig	2173
itthon	2174
##örgy	2175
műv	2176
##port	2177
##ark	2178
sen	2179
vill	2180
próbál	2181
##áni	2182
##enet	2183
nyit	2184
orvos	2185
##íteni	2186
tölt	2187
kéz	2188
lem	2189
##tató	2190
továbbra	2191
##pénz	2192
poz	2193
fők	2194
kormányz	2195
szerződés	2196
mérték	2197
##af	2198
##iss	2199
tudja	2200
##endég	2201
évek	2202
esély	2203
hangsúly	2204
környezet	2205
##ozta	2206
forduló	2207
gr	2208
arány	2209
ellenőr	2210
jelentette	2211
délután	2212
bír	2213
fény	2214
hib	2215
keret	2216
##ner	2217
szakért	2218
viszony	2219
teljesen	2220
maga	2221
baj	2222
éj	2223
mégis	2224
siker	2225
##pály	2226
bi	2227
amelynek	2228
new	2229
##rány	2230
##nék	2231
válogatott	2232
kevés	2233
vik	2234
##ítvány	2235
klub	2236
ek	2237
##ásával	2238
érdem	2239
mindk	2240
##ácsony	2241
vonatkoz	2242
se	2243
##okra	2244
energ	2245
elfogad	2246
veszt	2247
helyszín	2248
kiem	2249
##bert	2250
olimp	2251
fogalmaz	2252
szakember	2253
án	2254
##encs	2255
##ézet	2256
otthon	2257
karácsony	2258
man	2259
##izmus	2260
álló	2261
baleset	2262
tév	2263
pap	2264
##jából	2265
befekt	2266
állít	2267
hogyan	2268
semmi	2269
motor	2270
nyújt	2271
##mond	2272
##hetnek	2273
feltétel	2274
lel	2275
##nie	2276
györgy	2277
különös	2278
lány	2279
##ecs	2280
kics	2281
legyen	2282
alig	2283
mindenki	2284
konc	2285
##urg	2286
csup	2287
gyeng	2288
gör	2289
sőt	2290
vendég	2291
előző	2292
jános	2293
##száz	2294
##man	2295
##oc	2296
##line	2297
vezetője	2298
##isták	2299
##ködés	2300
előre	2301
##műv	2302
többi	2303
összesen	2304
szocial	2305
##ismer	2306
kért	2307
tev	2308
műsor	2309
##ilag	2310
##vált	2311
ráadás	2312
szlovák	2313
##elv	2314
akad	2315
##gr	2316
vagyis	2317
nál	2318
fal	2319
##mag	2320
kiad	2321
##társ	2322
labd	2323
ápr	2324
idei	2325
##ásának	2326
országgyű	2327
valami	2328
fővárosi	2329
##üket	2330
kevesebb	2331
egyesült	2332
##ékony	2333
katon	2334
##ton	2335
kapcsolatban	2336
áld	2337
független	2338
##ozik	2339
##mun	2340
április	2341
##ou	2342
pénzügyi	2343
jelenlegi	2344
##olja	2345
##kezd	2346
rek	2347
##pány	2348
##ept	2349
ráadásul	2350
##hetően	2351
értelm	2352
utaz	2353
vele	2354
fegy	2355
##szk	2356
köszön	2357
##fer	2358
##tag	2359
##őben	2360
##alap	2361
elkövet	2362
##lós	2363
zrt	2364
##ce	2365
szok	2366
rendőrök	2367
szor	2368
része	2369
vet	2370
ell	2371
##osabb	2372
polgármester	2373
##ga	2374
##ója	2375
szenv	2376
demokr	2377
hav	2378
##ügyminiszt	2379
##rendszer	2380
28	2381
szükséges	2382
szent	2383
újság	2384
##függ	2385
##kör	2386
##veszt	2387
##enger	2388
pályáz	2389
##vonal	2390
haszn	2391
str	2392
##több	2393
cikk	2394
dok	2395
gyógy	2396
csupán	2397
elsős	2398
kellene	2399
##itt	2400
közvet	2401
hí	2402
##álni	2403
##ilk	2404
bemutat	2405
##ségek	2406
tartott	2407
techn	2408
##ná	2409
ra	2410
akt	2411
##folyam	2412
tanulmány	2413
bér	2414
íg	2415
##dik	2416
esetben	2417
zolt	2418
benne	2419
##ától	2420
##avar	2421
segítség	2422
száma	2423
ró	2424
##ándor	2425
vezér	2426
##acsony	2427
dob	2428
kelet	2429
gyanús	2430
##emp	2431
kampány	2432
meglep	2433
cent	2434
##ezik	2435
forintos	2436
csökken	2437
mel	2438
érvény	2439
kock	2440
szerencs	2441
mad	2442
mozg	2443
tamás	2444
elkép	2445
eszköz	2446
elsősorban	2447
kialak	2448
##str	2449
forr	2450
vett	2451
##igazgató	2452
##ású	2453
bkv	2454
##urcs	2455
fed	2456
##apitányság	2457
mög	2458
##attal	2459
szerepel	2460
online	2461
##mai	2462
##eget	2463
##orvát	2464
##kív	2465
legtöbb	2466
bárm	2467
számos	2468
európa	2469
##efon	2470
horvát	2471
##atták	2472
##fit	2473
##ca	2474
százaléka	2475
jobban	2476
##áson	2477
##eztek	2478
##orn	2479
kérd	2480
angol	2481
##éli	2482
termék	2483
##cel	2484
nemcsak	2485
szék	2486
##íti	2487
héten	2488
kezdőd	2489
lengyel	2490
tagja	2491
##erő	2492
egyed	2493
##ileg	2494
had	2495
##iskol	2496
##kívül	2497
lény	2498
döntés	2499
intézmény	2500
sv	2501
##ker	2502
zoltán	2503
##hatatlan	2504
##df	2505
##álaszt	2506
szempont	2507
vide	2508
szül	2509
##ánc	2510
gyárt	2511
##bizt	2512
szerinte	2513
##róf	2514
viktor	2515
pill	2516
##enci	2517
##ina	2518
tűn	2519
arany	2520
indok	2521
épület	2522
##érd	2523
##adék	2524
érdekében	2525
31	2526
küz	2527
##tr	2528
##ly	2529
épít	2530
##omag	2531
mol	2532
##ozni	2533
##szabály	2534
##polit	2535
kísér	2536
tet	2537
kilom	2538
##ansz	2539
##ésben	2540
##ezi	2541
inf	2542
##ork	2543
kiz	2544
modell	2545
##össz	2546
választási	2547
péntek	2548
##vég	2549
írta	2550
##elmű	2551
##ack	2552
##ázs	2553
##asági	2554
józs	2555
uniós	2556
szövetség	2557
ül	2558
indult	2559
##álló	2560
cser	2561
tulajdonos	2562
tevékeny	2563
med	2564
román	2565
eh	2566
##féle	2567
állás	2568
minisztérium	2569
azaz	2570
##ólag	2571
döntött	2572
##szabad	2573
munkat	2574
kínai	2575
##álták	2576
##íp	2577
##ball	2578
##uló	2579
ezelőtt	2580
##ármaz	2581
nyí	2582
látt	2583
##cz	2584
35	2585
óra	2586
##tatási	2587
intézked	2588
mérkőzés	2589
##átor	2590
##észeti	2591
##ítottak	2592
##ői	2593
súlyos	2594
hozzátette	2595
##özben	2596
különböző	2597
tapasztal	2598
met	2599
##által	2600
##elők	2601
2006	2602
kilenc	2603
et	2604
ahhoz	2605
utas	2606
##ségét	2607
##beli	2608
állt	2609
bek	2610
gar	2611
évi	2612
maradt	2613
kan	2614
##ro	2615
elején	2616
##ument	2617
##la	2618
régi	2619
kft	2620
##iában	2621
visszat	2622
##oha	2623
külföldi	2624
li	2625
##eteg	2626
mdf	2627
addig	2628
29	2629
vér	2630
ellát	2631
megny	2632
pal	2633
idej	2634
sorozat	2635
##ományos	2636
józsef	2637
##ezon	2638
állapot	2639
kockáz	2640
szombaton	2641
lass	2642
tur	2643
származ	2644
seb	2645
valószínűleg	2646
##rál	2647
keresztül	2648
##elen	2649
##atokat	2650
közötti	2651
##ocsi	2652
mester	2653
vagyok	2654
##ágy	2655
esemény	2656
un	2657
##élt	2658
ro	2659
##víz	2660
lehetett	2661
tak	2662
lig	2663
##uális	2664
##énk	2665
lényeg	2666
45	2667
##sért	2668
andrás	2669
bra	2670
nak	2671
nor	2672
nőtt	2673
##erte	2674
valaki	2675
auszt	2676
felé	2677
##szervezet	2678
magyaráz	2679
##zetes	2680
##eztet	2681
##éteres	2682
női	2683
honlap	2684
alacsony	2685
##ódik	2686
módon	2687
mély	2688
jutott	2689
attil	2690
var	2691
változ	2692
.),	2693
görög	2694
##lus	2695
bele	2696
##ítják	2697
írt	2698
##éni	2699
darab	2700
húsz	2701
sh	2702
egykori	2703
közé	2704
tömeg	2705
##nyire	2706
##sága	2707
ideg	2708
##értelmű	2709
rendkívül	2710
##éves	2711
##ocsát	2712
felhasznál	2713
##zik	2714
esetében	2715
hid	2716
sim	2717
azóta	2718
##ódott	2719
szakasz	2720
király	2721
##olás	2722
##ésével	2723
miközben	2724
dokument	2725
##titk	2726
##raj	2727
közep	2728
természetesen	2729
##van	2730
##üntet	2731
teljesítmény	2732
mon	2733
sándor	2734
##jára	2735
azokat	2736
egyértelmű	2737
költségvetési	2738
##ereség	2739
list	2740
becs	2741
sajt	2742
kifej	2743
##űt	2744
osztály	2745
sváj	2746
##ulat	2747
lond	2748
nők	2749
mai	2750
##ih	2751
kiderült	2752
##usok	2753
képes	2754
mindent	2755
futball	2756
terj	2757
sokat	2758
##álta	2759
megjelent	2760
##olták	2761
the	2762
jellem	2763
megjel	2764
beruház	2765
##einek	2766
##zó	2767
részvény	2768
##gatlan	2769
##űr	2770
szept	2771
kezdemény	2772
buk	2773
jött	2774
oda	2775
tém	2776
##jut	2777
szeptember	2778
##erv	2779
valóban	2780
megm	2781
adatok	2782
lakosság	2783
2007	2784
senki	2785
megf	2786
ról	2787
##ulás	2788
##ntart	2789
színész	2790
felső	2791
szóvivője	2792
ehhez	2793
##jával	2794
gyűjt	2795
##atikus	2796
fell	2797
deb	2798
##ente	2799
nehez	2800
##eik	2801
##iát	2802
##ff	2803
##éseket	2804
sziget	2805
többször	2806
com	2807
kov	2808
##sem	2809
##eznek	2810
##szint	2811
években	2812
század	2813
elképzel	2814
##ái	2815
##andó	2816
szezon	2817
##ekv	2818
kup	2819
sokan	2820
##örös	2821
du	2822
tenger	2823
kárt	2824
tudom	2825
##övel	2826
elk	2827
##szó	2828
vagyon	2829
ülés	2830
##ler	2831
végzett	2832
titk	2833
##erm	2834
támad	2835
fogalmazott	2836
##zők	2837
csúcs	2838
pénzt	2839
teszt	2840
azonnal	2841
##emt	2842
kim	2843
##leszt	2844
jön	2845
cseh	2846
hatalmas	2847
gyakorlat	2848
bék	2849
##rák	2850
##étől	2851
élő	2852
##millió	2853
ekkor	2854
##fordul	2855
nevű	2856
mindkét	2857
##úra	2858
##aként	2859
##ian	2860
hir	2861
##fok	2862
kapcsolatos	2863
##anszír	2864
vegy	2865
##sd	2866
##ung	2867
unió	2868
##ran	2869
##csoport	2870
##rec	2871
##evő	2872
her	2873
tudott	2874
mező	2875
rög	2876
##hajt	2877
##ítése	2878
##uty	2879
idején	2880
pál	2881
##akció	2882
##észség	2883
szolgáltat	2884
mögött	2885
eszt	2886
ob	2887
választások	2888
született	2889
kicsit	2890
együttmű	2891
nyelv	2892
szombat	2893
koll	2894
őt	2895
napon	2896
vonatkozó	2897
tartalmaz	2898
látható	2899
férfit	2900
hivatalos	2901
ingatlan	2902
car	2903
##részt	2904
##lőd	2905
krit	2906
érkezett	2907
198	2908
##oltak	2909
módos	2910
árfolyam	2911
ág	2912
##zák	2913
várhatóan	2914
akit	2915
##nyal	2916
adós	2917
megbíz	2918
befektet	2919
##elik	2920
jég	2921
lő	2922
múl	2923
sí	2924
##olog	2925
##lési	2926
60	2927
korlát	2928
##össze	2929
feket	2930
##tet	2931
##obil	2932
##eum	2933
igazság	2934
##ésének	2935
meghatár	2936
##cselek	2937
szerk	2938
ka	2939
korr	2940
##atát	2941
alk	2942
erről	2943
kommun	2944
##mp	2945
felv	2946
esett	2947
##szem	2948
elekt	2949
hamar	2950
médi	2951
32	2952
##ey	2953
többek	2954
##zése	2955
##akt	2956
felett	2957
utal	2958
forgalom	2959
dokumentum	2960
előny	2961
feny	2962
##arúg	2963
##asztróf	2964
terh	2965
ellenzék	2966
ég	2967
##zott	2968
ebből	2969
lez	2970
##ánál	2971
látogat	2972
##und	2973
laj	2974
olvasható	2975
megállapod	2976
attila	2977
##ona	2978
mondja	2979
biztonsági	2980
pet	2981
##ux	2982
##ájuk	2983
svéd	2984
##edik	2985
mindössze	2986
mil	2987
##bel	2988
##ájában	2989
zsolt	2990
különösen	2991
##eri	2992
##urális	2993
##mi	2994
##nének	2995
##éve	2996
akart	2997
labdarúg	2998
##oss	2999
kol	3000
tartja	3001
##keres	3002
parlamenti	3003
legf	3004
napi	3005
hajt	3006
##éig	3007
tudta	3008
##tiz	3009
##örvény	3010
##ológiai	3011
beszélt	3012
##ham	3013
##br	3014
szom	3015
ének	3016
teszi	3017
##párt	3018
##enz	3019
##evíz	3020
##pénztár	3021
fiz	3022
óri	3023
tudni	3024
távol	3025
##ere	3026
fenntart	3027
folyamatosan	3028
engedély	3029
szeged	3030
akinek	3031
államok	3032
##írt	3033
##óknak	3034
##íció	3035
megszer	3036
küzd	3037
bört	3038
##ozza	3039
jelentkez	3040
rád	3041
##hogy	3042
##eltek	3043
##elték	3044
bűncselek	3045
zöld	3046
##ius	3047
##eként	3048
##ultak	3049
önkormányzat	3050
pé	3051
##nyug	3052
telefon	3053
pillan	3054
bajnokság	3055
megjelen	3056
kore	3057
összes	3058
izra	3059
##haj	3060
szerzett	3061
főkapitányság	3062
vörös	3063
többet	3064
ügyben	3065
cl	3066
sta	3067
csill	3068
feleség	3069
##izál	3070
##tized	3071
fil	3072
##vállal	3073
##éri	3074
növel	3075
előzetes	3076
##ue	3077
##ier	3078
##jön	3079
##elmet	3080
örök	3081
ellent	3082
##almat	3083
országban	3084
vizsgálat	3085
eljárás	3086
##jének	3087
##ash	3088
##ojekt	3089
bot	3090
##our	3091
hétvég	3092
##áért	3093
tartó	3094
felmér	3095
legutó	3096
##ódó	3097
eddigi	3098
térség	3099
járt	3100
##úttal	3101
##gyek	3102
annyira	3103
##itás	3104
figyelem	3105
miklós	3106
tűnik	3107
##olcs	3108
esetén	3109
sajtót	3110
bőv	3111
##úgy	3112
##cc	3113
##jen	3114
##ekről	3115
megelő	3116
magyarországi	3117
kin	3118
##burg	3119
testület	3120
##bil	3121
##ama	3122
ítél	3123
##uttat	3124
ára	3125
##oy	3126
megerős	3127
végig	3128
munkav	3129
erősö	3130
##vári	3131
##kó	3132
katasztróf	3133
gen	3134
##lcs	3135
##sági	3136
##aba	3137
##ítették	3138
hird	3139
.:	3140
jap	3141
##fej	3142
csod	3143
évtized	3144
éjszak	3145
robb	3146
##óg	3147
forin	3148
jogszabály	3149
befoly	3150
fu	3151
##org	3152
alkalom	3153
jövőre	3154
##edt	3155
##ust	3156
tenni	3157
vad	3158
##ezz	3159
ész	3160
##di	3161
belső	3162
##osztály	3163
lit	3164
##lét	3165
##ásos	3166
embert	3167
dolgozó	3168
máj	3169
elb	3170
nyilvánosság	3171
hull	3172
méter	3173
##sen	3174
egyéni	3175
##ítva	3176
##onal	3177
kib	3178
központi	3179
##arad	3180
mal	3181
zaj	3182
szil	3183
##ellett	3184
harc	3185
##hetik	3186
szakmai	3187
információ	3188
##áború	3189
szal	3190
amennyi	3191
tudós	3192
budapesten	3193
##ünet	3194
ii	3195
##rak	3196
##atban	3197
név	3198
fotó	3199
projekt	3200
felügy	3201
##úzeum	3202
assz	3203
mobil	3204
##áltak	3205
egymás	3206
##janak	3207
szöv	3208
leh	3209
javaslat	3210
york	3211
televíz	3212
hangsúlyozta	3213
japán	3214
##lék	3215
visszav	3216
idéz	3217
hivatkoz	3218
##rid	3219
intézet	3220
módszer	3221
##ota	3222
idős	3223
##nökség	3224
##tunk	3225
elad	3226
jelenti	3227
általában	3228
konz	3229
negyedik	3230
##ándék	3231
##ry	3232
##vá	3233
szét	3234
osztrák	3235
börtön	3236
forinttal	3237
rak	3238
##enes	3239
egyedül	3240
kilométer	3241
##rész	3242
győr	3243
##berg	3244
egészségügyi	3245
érdemes	3246
megp	3247
egyáltal	3248
holland	3249
tra	3250
szex	3251
blog	3252
költségvetés	3253
##utas	3254
egyáltalán	3255
ajánl	3256
svájci	3257
lajos	3258
##ast	3259
mostani	3260
##vér	3261
szerződ	3262
környék	3263
##nos	3264
amelyben	3265
azonos	3266
kop	3267
frank	3268
felül	3269
ezeket	3270
gyurcs	3271
informáci	3272
emberi	3273
óv	3274
##nyiség	3275
változat	3276
beszám	3277
történelmi	3278
dí	3279
##ián	3280
mich	3281
meghal	3282
finanszír	3283
##ikat	3284
cégek	3285
ígér	3286
33	3287
munkahely	3288
kötelező	3289
##co	3290
##osok	3291
##ity	3292
forrás	3293
##ancs	3294
edző	3295
kijelent	3296
pontosan	3297
hosszabb	3298
nyilatkozta	3299
gyurcsány	3300
mat	3301
##álóz	3302
zen	3303
időben	3304
##polgár	3305
szocialista	3306
vág	3307
vette	3308
##állt	3309
köny	3310
szerb	3311
többség	3312
kovács	3313
soha	3314
##hatják	3315
szabó	3316
média	3317
újságíró	3318
rab	3319
##viz	3320
vagyunk	3321
népszerű	3322
tűzolt	3323
nyer	3324
interj	3325
győzt	3326
szigor	3327
húz	3328
##itel	3329
erd	3330
bevezet	3331
hatóságok	3332
agy	3333
tim	3334
##ázis	3335
##ox	3336
##ásai	3337
##olják	3338
település	3339
rad	3340
##óban	3341
##ezők	3342
36	3343
agg	3344
kont	3345
bizonyos	3346
részét	3347
török	3348
egészen	3349
80	3350
bíz	3351
ös	3352
##mód	3353
épp	3354
általános	3355
hírek	3356
kateg	3357
busz	3358
meggy	3359
##lám	3360
##eleti	3361
csinál	3362
real	3363
érintett	3364
őrizet	3365
500	3366
##hetett	3367
évre	3368
##állam	3369
debrec	3370
igyek	3371
mikor	3372
múzeum	3373
csomag	3374
##ípus	3375
szob	3376
civ	3377
##pár	3378
##ársa	3379
##nevezett	3380
pat	3381
piaci	3382
pil	3383
rang	3384
figyelmet	3385
rendezvény	3386
meleg	3387
május	3388
af	3389
##era	3390
bevétel	3391
##lenül	3392
prof	3393
hideg	3394
##kék	3395
szereplő	3396
tol	3397
minőség	3398
jóval	3399
folyó	3400
kísérlet	3401
mes	3402
op	3403
##fa	3404
államtitk	3405
döntő	3406
tervezett	3407
psz	3408
író	3409
##már	3410
##pia	3411
sérült	3412
szándék	3413
számító	3414
300	3415
elé	3416
sért	3417
lakás	3418
csatlak	3419
level	3420
igazi	3421
##ontosabb	3422
dolog	3423
legfontosabb	3424
ba	3425
ph	3426
bev	3427
jogi	3428
34	3429
##ítását	3430
felvétel	3431
nekik	3432
ri	3433
zárt	3434
park	3435
fenn	3436
##esül	3437
sikeres	3438
##erek	3439
lesznek	3440
##szabadság	3441
tavalyi	3442
##dsz	3443
tehet	3444
fest	3445
##áns	3446
##ozása	3447
##ötte	3448
prod	3449
pontos	3450
cig	3451
##fér	3452
##játék	3453
magasabb	3454
kemény	3455
legk	3456
szabadság	3457
kényszer	3458
civil	3459
maguk	3460
vir	3461
##világ	3462
##ie	3463
##jog	3464
szav	3465
tv	3466
gal	3467
lehetne	3468
menet	3469
##óra	3470
##éért	3471
tudják	3472
attól	3473
##men	3474
##ko	3475
##iplom	3476
stabil	3477
##dp	3478
##zési	3479
##ciós	3480
gyak	3481
mintha	3482
repül	3483
kulturális	3484
afr	3485
beszéd	3486
alakul	3487
társadalmi	3488
##áf	3489
##ítási	3490
kormányfő	3491
lmp	3492
éd	3493
egyház	3494
helyre	3495
igazán	3496
##tan	3497
##ket	3498
##óval	3499
friss	3500
fekete	3501
##néz	3502
##bev	3503
családi	3504
ot	3505
##rég	3506
megval	3507
##nőtt	3508
ítélet	3509
géz	3510
##ij	3511
jármű	3512
##esült	3513
reform	3514
található	3515
##rom	3516
##országi	3517
av	3518
bul	3519
kiss	3520
megvált	3521
társadalom	3522
téli	3523
olaj	3524
jövőben	3525
sajtótájékoztat	3526
hátt	3527
elkész	3528
feld	3529
##felé	3530
antik	3531
##tuk	3532
##edék	3533
##adta	3534
nappal	3535
kutatók	3536
tényleg	3537
##ke	3538
##bé	3539
kisz	3540
##igo	3541
##könyv	3542
részben	3543
##élés	3544
amíg	3545
tib	3546
vb	3547
hozott	3548
diák	3549
megvalós	3550
##szerep	3551
igazgatója	3552
70	3553
90	3554
##ood	3555
kab	3556
poszt	3557
##ozást	3558
találtak	3559
internetes	3560
érzék	3561
##őzsd	3562
visszatér	3563
##hatott	3564
kétszer	3565
fogja	3566
mennyiség	3567
hasonlóan	3568
gl	3569
hő	3570
joh	3571
##elleg	3572
érz	3573
##bíróság	3574
sztr	3575
##onn	3576
##inkább	3577
célja	3578
tisz	3579
##ítható	3580
készített	3581
##álisan	3582
megtal	3583
szenved	3584
infl	3585
##foglal	3586
##képpen	3587
fideszes	3588
##atég	3589
##okból	3590
szerda	3591
minős	3592
##alma	3593
##ásában	3594
mindez	3595
##döntő	3596
géza	3597
diplom	3598
##faj	3599
##ula	3600
##ciót	3601
kapcs	3602
úgynevezett	3603
##onz	3604
eredet	3605
##allgat	3606
jelentősen	3607
remény	3608
csaknem	3609
stat	3610
##if	3611
##fizet	3612
##ozók	3613
##ebben	3614
##ásnak	3615
##séggel	3616
adta	3617
átalak	3618
benz	3619
délelőtt	3620
színház	3621
ismeretlen	3622
áldoz	3623
róla	3624
reng	3625
tők	3626
##átum	3627
játszott	3628
feladat	3629
##úk	3630
##áris	3631
tartóz	3632
bő	3633
eb	3634
sajnos	3635
##áron	3636
##ákkal	3637
leginkább	3638
tudnak	3639
##ped	3640
##ttel	3641
##ítást	3642
hajnal	3643
mosz	3644
##attak	3645
pénztár	3646
negyedév	3647
vidék	3648
husz	3649
origo	3650
ölt	3651
napokban	3652
ennél	3653
frakció	3654
várak	3655
kötött	3656
##ilap	3657
legfel	3658
küld	3659
belől	3660
köztük	3661
segítségével	3662
##ekvő	3663
##vi	3664
előbb	3665
197	3666
##perc	3667
csillag	3668
bü	3669
hom	3670
vége	3671
nyugat	3672
várt	3673
##hatunk	3674
##ford	3675
eredeti	3676
kanad	3677
kul	3678
láb	3679
##ájának	3680
változtat	3681
felhív	3682
közlekedési	3683
kereskedelmi	3684
##nai	3685
többen	3686
harmin	3687
haza	3688
.-	3689
aug	3690
eny	3691
##indul	3692
olimpiai	3693
rák	3694
felsz	3695
vezérigazgató	3696
##ax	3697
##bc	3698
gyilk	3699
braz	3700
londoni	3701
00	3702
##kan	3703
##idő	3704
##pl	3705
labdarúgó	3706
37	3707
ko	3708
illeték	3709
jú	3710
elkezd	3711
működés	3712
életét	3713
sar	3714
##oldog	3715
értékesít	3716
##usztus	3717
##ővé	3718
ft	3719
##álja	3720
műszak	3721
lenni	3722
##oldali	3723
létrehoz	3724
állítólag	3725
##get	3726
##érte	3727
inter	3728
esetleg	3729
országgyűlés	3730
idegen	3731
duna	3732
##nyel	3733
##harmad	3734
papír	3735
köszönhetően	3736
##var	3737
##itív	3738
biztosít	3739
takar	3740
he	3741
mos	3742
minim	3743
##kezett	3744
önkormányzati	3745
energia	3746
löv	3747
##nius	3748
magyarok	3749
kollég	3750
##belül	3751
pest	3752
##nának	3753
##rab	3754
nekem	3755
férfiak	3756
szociális	3757
la	3758
##50	3759
júl	3760
net	3761
##nes	3762
szár	3763
##ilt	3764
felkész	3765
reag	3766
felk	3767
##artóz	3768
tagjai	3769
keretében	3770
országgyűlési	3771
munkatárs	3772
tit	3773
##kit	3774
akció	3775
körülbelül	3776
hátrány	3777
gyakran	3778
font	3779
felf	3780
felnőtt	3781
sérülés	3782
gyógyszer	3783
vereség	3784
##ana	3785
kölcs	3786
##szerző	3787
arc	3788
hírügy	3789
lop	3790
temp	3791
regény	3792
##zések	3793
munkan	3794
győzelem	3795
főleg	3796
vitt	3797
ügyvéd	3798
##kodó	3799
##ügyminiszter	3800
június	3801
hegy	3802
áram	3803
szol	3804
állampolgár	3805
##hang	3806
##ünket	3807
időt	3808
##ror	3809
##onttal	3810
jogos	3811
érdekes	3812
##várium	3813
megfelelően	3814
norm	3815
##esi	3816
köztárs	3817
forintra	3818
max	3819
úton	3820
gyorsan	3821
ep	3822
##elvény	3823
szű	3824
##házy	3825
havi	3826
rév	3827
zavar	3828
##olf	3829
tudjuk	3830
##ivat	3831
##odott	3832
büntető	3833
alkalommal	3834
sztráj	3835
gdp	3836
##hi	3837
##üst	3838
##si	3839
##ím	3840
ezúttal	3841
kezelés	3842
##oft	3843
büntet	3844
kd	3845
kuty	3846
elsz	3847
##abban	3848
##ris	3849
##jenek	3850
vizsg	3851
##ael	3852
##enként	3853
est	3854
gólt	3855
remek	3856
kiállítás	3857
feljelent	3858
##ölcs	3859
országok	3860
##atait	3861
##prém	3862
következt	3863
drág	3864
megkérd	3865
##gazdasági	3866
##ine	3867
nemrég	3868
##hatók	3869
állat	3870
választás	3871
rajta	3872
tiltak	3873
jellemző	3874
szöveg	3875
őrizetbe	3876
bors	3877
mor	3878
közz	3879
annyit	3880
sincs	3881
##úti	3882
hiába	3883
együttes	3884
go	3885
##jebb	3886
százalékát	3887
vállalat	3888
eltér	3889
amennyiben	3890
közön	3891
kommunik	3892
boldog	3893
láz	3894
##res	3895
megrend	3896
##őként	3897
##ektől	3898
jöved	3899
letartóz	3900
antikvárium	3901
tök	3902
emellett	3903
##takar	3904
összefügg	3905
védelm	3906
működik	3907
asszony	3908
bíró	3909
##ételt	3910
##csó	3911
kamat	3912
mértékben	3913
na	3914
típus	3915
íz	3916
##bank	3917
##forg	3918
portál	3919
emelkedett	3920
##ítik	3921
csaba	3922
biztosan	3923
ausztrál	3924
hány	3925
kedvező	3926
lemond	3927
kategóri	3928
jelleg	3929
ötö	3930
stratég	3931
kapcsán	3932
ruh	3933
kötet	3934
lőtt	3935
médiat	3936
harminc	3937
##ezése	3938
##ova	3939
szakszervezet	3940
hallgat	3941
édes	3942
fáj	3943
űr	3944
munkál	3945
munkát	3946
##jelölt	3947
##fokú	3948
##hagy	3949
##őknek	3950
egyesület	3951
kifizet	3952
alkotmánybíróság	3953
##krét	3954
egyszerűen	3955
##üv	3956
deviz	3957
lehetővé	3958
madrid	3959
futam	3960
##con	3961
kapitány	3962
sors	3963
házas	3964
emi	3965
javasl	3966
partner	3967
42	3968
##vesz	3969
##zést	3970
##edés	3971
##ítására	3972
győztes	3973
augusztus	3974
aszt	3975
##inc	3976
##énnyel	3977
##edes	3978
##ányi	3979
minél	3980
##hatóság	3981
továbbá	3982
politik	3983
veszprém	3984
##üntetés	3985
műszaki	3986
bu	3987
##dék	3988
##höz	3989
megjegy	3990
érte	3991
szinten	3992
érdeklőd	3993
pak	3994
pir	3995
megkezd	3996
##nyom	3997
választók	3998
##osszabb	3999
kezdett	4000
ló	4001
kapu	4002
nyugati	4003
adósság	4004
enyh	4005
del	4006
gu	4007
it	4008
##ákban	4009
##köt	4010
előtti	4011
##hass	4012
##film	4013
közgyű	4014
##abda	4015
másfél	4016
kormányzati	4017
ideje	4018
##enn	4019
##ereg	4020
##unkat	4021
védek	4022
if	4023
sokszor	4024
kevésbé	4025
pót	4026
##onc	4027
##árólag	4028
ideig	4029
tem	4030
##kos	4031
##atott	4032
alapvet	4033
egymást	4034
oper	4035
##oznak	4036
##adók	4037
néző	4038
időjár	4039
résztv	4040
károly	4041
múlva	4042
nyilvánosságra	4043
##io	4044
##áján	4045
hatékony	4046
tartják	4047
lehetőséget	4048
erőszak	4049
emiatt	4050
sk	4051
szellem	4052
##ini	4053
látvány	4054
címkék	4055
gyerekek	4056
magam	4057
méret	4058
ge	4059
##való	4060
196	4061
járó	4062
mél	4063
kizárólag	4064
sár	4065
##íték	4066
##odik	4067
mentő	4068
leveg	4069
"-	4070
38	4071
of	4072
prób	4073
##iós	4074
##okról	4075
##eivel	4076
##óth	4077
puszt	4078
élt	4079
##sp	4080
ajándék	4081
pozitív	4082
bűncselekmény	4083
##ainak	4084
##vizsgál	4085
##aszkod	4086
megyében	4087
##ológia	4088
imre	4089
gyanú	4090
000	4091
fl	4092
mire	4093
tudományos	4094
eredmények	4095
pályán	4096
kutató	4097
helyet	4098
ev	4099
megfi	4100
##egyen	4101
körében	4102
konkrét	4103
befolyás	4104
tibor	4105
##közel	4106
kezdet	4107
óriási	4108
államtitkár	4109
dav	4110
hord	4111
isz	4112
km	4113
##ílus	4114
##ényi	4115
ritk	4116
##pad	4117
okozott	4118
portug	4119
növekedés	4120
##ook	4121
##jú	4122
lehetséges	4123
világh	4124
barcel	4125
módosítás	4126
kínál	4127
gra	4128
##ásba	4129
##niuk	4130
rendező	4131
##ológus	4132
##mérsék	4133
levél	4134
venni	4135
##junk	4136
##árul	4137
vall	4138
napja	4139
könnyű	4140
szenvedett	4141
munkavállal	4142
pa	4143
##jén	4144
pszich	4145
##uzs	4146
szé	4147
akkori	4148
július	4149
szdsz	4150
nagyjából	4151
lakó	4152
szerdai	4153
hírügynökség	4154
##tér	4155
ezután	4156
száml	4157
##ásait	4158
ügyészség	4159
balázs	4160
##védő	4161
##magas	4162
rádió	4163
##np	4164
##ébb	4165
##sh	4166
európában	4167
közösségi	4168
portugál	4169
col	4170
ur	4171
indított	4172
szerepelt	4173
mérsék	4174
keddi	4175
ellentét	4176
##ukt	4177
ingy	4178
##irat	4179
bajnoki	4180
akadály	4181
kocs	4182
ét	4183
forma	4184
kerék	4185
ötlet	4186
##essen	4187
szakértők	4188
##mérséklet	4189
##nák	4190
##iak	4191
##ezést	4192
mindegy	4193
nyílt	4194
repülőt	4195
dom	4196
lov	4197
##öny	4198
##széd	4199
##erem	4200
##ara	4201
évente	4202
összeh	4203
eur	4204
fül	4205
mart	4206
##öd	4207
egyben	4208
##csökk	4209
##ókkal	4210
ellenfel	4211
##élyes	4212
##ációt	4213
körüli	4214
rajt	4215
##sák	4216
##ezmény	4217
##szerint	4218
##esztő	4219
elkövetett	4220
##vé	4221
##nénk	4222
##öket	4223
eurót	4224
194	4225
##közben	4226
tavasz	4227
##ered	4228
leb	4229
tartani	4230
##kodás	4231
centim	4232
tóth	4233
napilap	4234
##ásokkal	4235
önmag	4236
##ecsk	4237
korrup	4238
statiszt	4239
sm	4240
spe	4241
balaton	4242
##nyugdíj	4243
ger	4244
miskol	4245
látszik	4246
komment	4247
körülmények	4248
55	4249
változás	4250
lépett	4251
végrehajt	4252
41	4253
vették	4254
##elnek	4255
##ita	4256
hozzáj	4257
vaj	4258
##ekből	4259
tartozik	4260
derül	4261
hálóz	4262
##állás	4263
déli	4264
kötelezett	4265
ellenzéki	4266
##jait	4267
##ölgy	4268
szerepl	4269
művész	4270
##munk	4271
##qu	4272
##atai	4273
köv	4274
hatály	4275
vezetett	4276
fegyver	4277
##esett	4278
##ezhető	4279
hasonl	4280
botrány	4281
##fejleszt	4282
##gond	4283
##öp	4284
##ázott	4285
közelében	4286
##igazgat	4287
ütköz	4288
révén	4289
tökélet	4290
juttat	4291
me	4292
norv	4293
##apcsol	4294
##elmiszer	4295
másodperc	4296
terjed	4297
szomszéd	4298
afg	4299
rengeteg	4300
rich	4301
##autó	4302
##ónak	4303
##fal	4304
##ttől	4305
évig	4306
##onyol	4307
valóság	4308
semmit	4309
működő	4310
kérte	4311
##biztonság	4312
kulcs	4313
ve	4314
##kutat	4315
amelyeket	4316
ugyancsak	4317
nevezte	4318
szerepet	4319
kiváló	4320
eljárást	4321
norvég	4322
hv	4323
##óján	4324
##aradt	4325
felm	4326
számol	4327
##eiben	4328
tartozó	4329
angel	4330
2005	4331
195	4332
versenyző	4333
keleti	4334
wash	4335
szup	4336
##amos	4337
##eztetett	4338
élelmiszer	4339
percben	4340
reklám	4341
kur	4342
kerület	4343
##kinek	4344
##20	4345
támogatás	4346
népszabadság	4347
szövetségi	4348
ren	4349
##edzs	4350
pontot	4351
ötven	4352
adatai	4353
koreai	4354
##azin	4355
százalékot	4356
hozta	4357
##ektor	4358
munkanélkül	4359
mak	4360
##chester	4361
majdnem	4362
gazdag	4363
oka	4364
lassan	4365
sa	4366
benn	4367
járul	4368
alkalmas	4369
keresztény	4370
rögz	4371
izraeli	4372
400	4373
fc	4374
valós	4375
városi	4376
rekord	4377
kdnp	4378
goog	4379
##ódi	4380
vezetői	4381
washing	4382
44	4383
ju	4384
tar	4385
##ovics	4386
hajland	4387
képviselők	4388
kerületi	4389
gyanúsított	4390
##elése	4391
##atta	4392
külső	4393
támadás	4394
##ismert	4395
nyerte	4396
##polgármester	4397
elektron	4398
39	4399
##iket	4400
##ozási	4401
##enti	4402
oldalon	4403
területén	4404
hamarosan	4405
dun	4406
ere	4407
katal	4408
esti	4409
teremt	4410
hatás	4411
mutatja	4412
kiderül	4413
tájékoztatása	4414
horváth	4415
fac	4416
##dor	4417
##bi	4418
##bor	4419
olcsó	4420
##enged	4421
##aránt	4422
számolt	4423
##ásokra	4424
valamennyi	4425
alakult	4426
elemző	4427
hvg	4428
rejt	4429
##ác	4430
##ania	4431
egyaránt	4432
##sszel	4433
kriszt	4434
autós	4435
probléma	4436
könnyen	4437
szerződést	4438
eleg	4439
állandó	4440
##ukor	4441
mih	4442
oroszország	4443
hagyomány	4444
szakemberek	4445
tevékenység	4446
rag	4447
som	4448
##úd	4449
szur	4450
##ons	4451
##okba	4452
megem	4453
##eiről	4454
tartomány	4455
##órum	4456
átlagos	4457
kórházba	4458
manchester	4459
használt	4460
belőle	4461
kölcsön	4462
google	4463
ukr	4464
##vei	4465
##ésekkel	4466
hangulat	4467
hivatkozva	4468
##ukció	4469
januárban	4470
hamis	4471
sérül	4472
világbajnokság	4473
helyszínen	4474
##ala	4475
terror	4476
alapítvány	4477
történő	4478
pártok	4479
nélküli	4480
dollárt	4481
szélső	4482
vezette	4483
john	4484
fesz	4485
##őző	4486
##akad	4487
##kező	4488
öröm	4489
üzleti	4490
remél	4491
árt	4492
##zár	4493
##arc	4494
##hatjuk	4495
szórak	4496
izg	4497
ukrán	4498
##kocsi	4499
##ítanak	4500
##amp	4501
##ird	4502
kiemelt	4503
egyértelműen	4504
káros	4505
kocsi	4506
ősz	4507
##zás	4508
##álás	4509
megint	4510
##uth	4511
##napi	4512
##ábl	4513
veszteség	4514
mát	4515
messz	4516
##járt	4517
inn	4518
kétharmad	4519
stílus	4520
szeretnék	4521
repülő	4522
pénteki	4523
43	4524
der	4525
tól	4526
##elyik	4527
állítja	4528
kaptak	4529
##ley	4530
negyven	4531
egymilli	4532
magánnyugdíj	4533
közleményében	4534
katonai	4535
tü	4536
eső	4537
kapta	4538
kapus	4539
fognak	4540
párizs	4541
lelk	4542
##adja	4543
védő	4544
örül	4545
lend	4546
##encia	4547
##elly	4548
fejlőd	4549
hétfői	4550
gener	4551
##ítést	4552
lef	4553
hatalom	4554
százalékra	4555
szabolcs	4556
apró	4557
koncent	4558
híd	4559
varga	4560
48	4561
fórum	4562
táp	4563
ilyenkor	4564
véletlen	4565
klassz	4566
díjat	4567
áldozat	4568
megpróbál	4569
##ődés	4570
##akban	4571
##énél	4572
##külön	4573
tervek	4574
csütörtöki	4575
##ferenci	4576
sztrájk	4577
##besz	4578
felfügg	4579
beny	4580
befej	4581
elvég	4582
megkap	4583
merc	4584
időszakban	4585
##eim	4586
elnökség	4587
zsid	4588
elérhető	4589
utána	4590
2002	4591
autom	4592
televízió	4593
mc	4594
tűnt	4595
2004	4596
azoknak	4597
szóvivő	4598
birt	4599
##tem	4600
##verseny	4601
ügyfel	4602
sikerül	4603
akarja	4604
##ötét	4605
menek	4606
##áshoz	4607
ezr	4608
énekes	4609
robban	4610
vok	4611
##lehet	4612
pályára	4613
gyakorlatilag	4614
##keresked	4615
következtében	4616
##ettem	4617
##nyt	4618
nyáron	4619
autót	4620
bur	4621
##hol	4622
##fogy	4623
magukat	4624
ugyanaz	4625
ügyében	4626
dolgozott	4627
felfüggeszt	4628
din	4629
far	4630
##ein	4631
különleges	4632
mennyire	4633
betegség	4634
cigány	4635
speci	4636
##etek	4637
##egr	4638
##tatott	4639
mennyi	4640
személyes	4641
plusz	4642
legutóbbi	4643
felfed	4644
ötödik	4645
havaz	4646
por	4647
##cser	4648
szerintem	4649
##ültek	4650
##vezetője	4651
anyagi	4652
karácsonyi	4653
75	4654
hung	4655
kos	4656
sop	4657
átt	4658
roma	4659
##milliárd	4660
tőle	4661
##lány	4662
elismer	4663
alkalmazott	4664
atom	4665
felelősség	4666
üzemelt	4667
liber	4668
elkerül	4669
együttműködés	4670
bél	4671
gum	4672
hum	4673
lista	4674
felúj	4675
indítvány	4676
fellép	4677
san	4678
előfordul	4679
művel	4680
karri	4681
hagyományos	4682
legyőz	4683
helyettes	4684
##politikai	4685
együttműköd	4686
számítógép	4687
vettek	4688
##etet	4689
többsége	4690
autópály	4691
említett	4692
michael	4693
sal	4694
##part	4695
##jék	4696
##ozzák	4697
forgat	4698
46	4699
rám	4700
##ach	4701
##vél	4702
##ezési	4703
magazin	4704
csapata	4705
meghalt	4706
szegény	4707
teg	4708
tőzsd	4709
##jében	4710
##elést	4711
##álkoz	4712
alelnök	4713
valah	4714
számában	4715
összet	4716
politika	4717
fizetni	4718
északi	4719
kettős	4720
ipar	4721
obama	4722
szigorú	4723
49	4724
agr	4725
máv	4726
neg	4727
##jével	4728
sztár	4729
##gyűjt	4730
hőmérséklet	4731
sújt	4732
##egész	4733
##hetünk	4734
évet	4735
##eje	4736
részén	4737
2012	4738
aktív	4739
szempontból	4740
##zió	4741
kellem	4742
irán	4743
andre	4744
hajd	4745
##hal	4746
##ile	4747
mások	4748
2000	4749
olvasó	4750
kutatás	4751
##lődés	4752
fenyeg	4753
kelt	4754
viz	4755
üv	4756
##ítások	4757
benzin	4758
cik	4759
fert	4760
mut	4761
vonal	4762
kérdésre	4763
jót	4764
riv	4765
kora	4766
készít	4767
##ipari	4768
véli	4769
okozta	4770
igazgatóság	4771
sebesség	4772
észre	4773
brazil	4774
maxim	4775
kg	4776
tábor	4777
##ezetten	4778
fejlesztési	4779
rajong	4780
##ciók	4781
honlapján	4782
##ital	4783
kip	4784
##amb	4785
mellé	4786
valójában	4787
neve	4788
üzenet	4789
##történ	4790
számú	4791
##vélemény	4792
city	4793
mand	4794
rob	4795
##car	4796
##átus	4797
tartanak	4798
##földi	4799
öreg	4800
szocialisták	4801
káb	4802
pk	4803
sug	4804
##nár	4805
##óm	4806
jelezte	4807
56	4808
bab	4809
##cion	4810
főszerep	4811
mark	4812
##fogás	4813
játszik	4814
irodalom	4815
demokráci	4816
##ügyminisztérium	4817
álláspont	4818
szén	4819
##eksz	4820
##opp	4821
törvényt	4822
##orvos	4823
széles	4824
faceb	4825
bőr	4826
red	4827
ud	4828
##szeg	4829
szünet	4830
##oztak	4831
dolgozik	4832
rendelkező	4833
##csapat	4834
töltött	4835
unit	4836
kijelentette	4837
voks	4838
közeli	4839
adóz	4840
##onyi	4841
legfeljebb	4842
##csökkent	4843
##ikában	4844
megegy	4845
németország	4846
rendkívüli	4847
##eink	4848
##áit	4849
##ásról	4850
##ítését	4851
mondott	4852
bizonytalan	4853
##ukra	4854
fogják	4855
jelentés	4856
ennyi	4857
##ivál	4858
kerültek	4859
régió	4860
##mer	4861
##po	4862
megtakar	4863
##szerk	4864
mondani	4865
mellék	4866
##ebek	4867
brü	4868
kilát	4869
debrecen	4870
ázs	4871
alsó	4872
##szerv	4873
támogatást	4874
befizet	4875
forrad	4876
szűk	4877
negatív	4878
bán	4879
##értek	4880
annál	4881
##ofőr	4882
birtok	4883
sötét	4884
##üsz	4885
megalap	4886
##ogr	4887
előkész	4888
adni	4889
tudomány	4890
véget	4891
##városi	4892
velük	4893
önként	4894
képviselői	4895
##bizottság	4896
pécs	4897
hétvégén	4898
mihály	4899
üd	4900
##adott	4901
közbe	4902
időpont	4903
házi	4904
szolgáltatás	4905
bejelentette	4906
##váltás	4907
65	4908
ste	4909
##enő	4910
##sztön	4911
államfő	4912
nyomán	4913
abból	4914
##órium	4915
kezdődött	4916
közepén	4917
##bevétel	4918
ac	4919
bay	4920
nat	4921
om	4922
sáv	4923
idők	4924
utáni	4925
fiú	4926
helyzetben	4927
alacsonyabb	4928
huszon	4929
jos	4930
roh	4931
web	4932
##méter	4933
##ázó	4934
látja	4935
érkező	4936
52	4937
51	4938
hev	4939
lek	4940
mt	4941
##atra	4942
belvíz	4943
kezdte	4944
nyugdíjpénztár	4945
mindkett	4946
nálunk	4947
47	4948
páros	4949
##ítél	4950
végéig	4951
##írás	4952
pro	4953
gyakorl	4954
rosszul	4955
fölött	4956
előrejel	4957
származó	4958
közönség	4959
közgyűlés	4960
faj	4961
##lev	4962
fele	4963
állította	4964
nagykövet	4965
összek	4966
szeretne	4967
kivétel	4968
kettő	4969
robert	4970
ettől	4971
gab	4972
gerg	4973
##újabb	4974
##han	4975
##elég	4976
##alkot	4977
##ikát	4978
##irod	4979
##ítettek	4980
megtart	4981
területen	4982
fokozat	4983
iroda	4984
kultúr	4985
munkatársa	4986
53	4987
##urt	4988
##aival	4989
legújabb	4990
előz	4991
döntetlen	4992
##járól	4993
akiknek	4994
létszám	4995
halálos	4996
ly	4997
##választ	4998
##atórium	4999
