<unk>	0
<s>	0
</s>	0
▁a	-0
▁e	-1
▁t	-2
▁s	-3
▁k	-4
▁i	-5
▁n	-6
▁m	-7
▁,	-8
▁o	-9
▁l	-10
▁é	-11
gy	-12
▁h	-13
▁v	-14
▁á	-15
▁b	-16
▁r	-17
▁sz	-18
▁.	-19
el	-20
en	-21
er	-22
▁f	-23
et	-24
sz	-25
▁j	-26
an	-27
▁az	-28
▁el	-29
tt	-30
▁-	-31
al	-32
at	-33
▁A	-34
▁z	-35
▁p	-36
▁és	-37
ak	-38
eg	-39
or	-40
nt	-41
em	-42
▁d	-43
ár	-44
▁u	-45
▁c	-46
ég	-47
ek	-48
▁ó	-49
▁is	-50
▁egy	-51
▁ny	-52
▁kö	-53
ar	-54
ny	-55
▁ho	-56
▁g	-57
ás	-58
▁ál	-59
ol	-60
▁meg	-61
▁ő	-62
▁et	-63
▁en	-64
ág	-65
▁al	-66
▁ö	-67
▁ez	-68
▁mi	-69
▁ek	-70
▁ü	-71
▁M	-72
▁ké	-73
▁at	-74
▁hogy	-75
ap	-76
▁ok	-77
▁szer	-78
▁ki	-79
▁ás	-80
▁es	-81
bb	-82
▁1	-83
▁er	-84
nd	-85
ez	-86
▁ol	-87
▁í	-88
és	-89
▁le	-90
▁0	-91
▁nem	-92
▁cs	-93
▁ér	-94
es	-95
▁ak	-96
ed	-97
▁ban	-98
ál	-99
▁2	-100
án	-101
on	-102
ér	-103
ék	-104
▁em	-105
ól	-106
▁ik	-107
▁S	-108
os	-109
▁ú	-110
ik	-111
▁be	-112
▁an	-113
▁ott	-114
▁fel	-115
át	-116
él	-117
▁ben	-118
▁B	-119
▁E	-120
▁gy	-121
ok	-122
ül	-123
▁K	-124
ta	-125
▁áll	-126
▁tö	-127
▁"	-128
▁ett	-129
▁int	-130
▁:	-131
▁nak	-132
▁re	-133
▁ad	-134
▁am	-135
in	-136
▁ar	-137
nk	-138
ett	-139
ét	-140
▁on	-141
szt	-142
am	-143
ad	-144
aj	-145
om	-146
ely	-147
il	-148
az	-149
it	-150
agy	-151
▁ár	-152
cs	-153
▁or	-154
og	-155
ag	-156
ák	-157
▁lt	-158
▁te	-159
▁os	-160
▁év	-161
▁Az	-162
▁ni	-163
▁szá	-164
▁nek	-165
▁N	-166
▁H	-167
▁jel	-168
ől	-169
▁(	-170
▁ja	-171
▁hat	-172
▁id	-173
▁F	-174
▁T	-175
▁ra	-176
▁köz	-177
▁)	-178
▁át	-179
ban	-180
ség	-181
▁él	-182
▁ság	-183
▁kor	-184
ni	-185
▁P	-186
oz	-187
ben	-188
▁agy	-189
▁elő	-190
is	-191
▁ren	-192
het	-193
▁val	-194
▁ség	-195
ut	-196
len	-197
▁leg	-198
▁ig	-199
ig	-200
ll	-201
▁3	-202
ra	-203
ány	-204
iz	-205
▁de	-206
▁tu	-207
▁vol	-208
▁rend	-209
as	-210
▁y	-211
▁G	-212
▁V	-213
ai	-214
ell	-215
▁ut	-216
áb	-217
re	-218
▁L	-219
art	-220
▁C	-221
ott	-222
▁ter	-223
▁for	-224
▁9	-225
▁5	-226
▁tett	-227
ít	-228
▁jelen	-229
ró	-230
ész	-231
▁agyar	-232
▁ker	-233
▁ind	-234
▁ot	-235
ja	-236
▁D	-237
ény	-238
lt	-239
▁I	-240
▁4	-241
▁R	-242
ság	-243
én	-244
▁tart	-245
▁volt	-246
▁án	-247
▁már	-248
▁hely	-249
▁ko	-250
▁ét	-251
▁ít	-252
▁oz	-253
▁in	-254
▁ös	-255
má	-256
▁kez	-257
▁szt	-258
▁emb	-259
ép	-260
▁tel	-261
nek	-262
ci	-263
▁tör	-264
▁ne	-265
▁ve	-266
▁kép	-267
▁ta	-268
▁csak	-269
▁tá	-270
ul	-271
▁több	-272
▁ért	-273
▁J	-274
kor	-275
▁nagy	-276
▁as	-277
ök	-278
▁6	-279
▁ember	-280
ve	-281
sze	-282
▁eg	-283
us	-284
▁kap	-285
za	-286
▁ked	-287
▁ha	-288
▁8	-289
▁még	-290
▁vá	-291
▁ű	-292
▁más	-293
▁rsz	-294
▁rszág	-295
▁azt	-296
▁fog	-297
▁ügy	-298
▁né	-299
ső	-300
▁van	-301
▁tud	-302
▁két	-303
▁7	-304
▁szám	-305
▁új	-306
▁tár	-307
▁sem	-308
▁om	-309
▁vég	-310
▁kell	-311
▁O	-312
▁tal	-313
▁ezet	-314
ív	-315
▁mint	-316
▁mag	-317
▁ai	-318
▁lehet	-319
▁ellen	-320
▁ját	-321
att	-322
▁ed	-323
ro	-324
ej	-325
▁ált	-326
▁iz	-327
áz	-328
ly	-329
da	-330
▁amely	-331
▁zö	-332
ot	-333
▁la	-334
▁nt	-335
▁össze	-336
na	-337
mi	-338
▁jár	-339
ért	-340
ont	-341
lli	-342
▁tt	-343
olg	-344
▁nap	-345
▁ul	-346
▁oly	-347
▁milli	-348
▁ük	-349
▁ond	-350
▁lék	-351
▁je	-352
▁tés	-353
▁száza	-354
▁aj	-355
▁után	-356
ond	-357
▁tak	-358
ov	-359
▁vagy	-360
le	-361
ne	-362
▁lát	-363
éd	-364
▁őr	-365
▁ír	-366
▁vi	-367
▁szak	-368
▁zt	-369
▁ba	-370
▁rész	-371
ia	-372
▁biz	-373
▁ped	-374
ko	-375
vé	-376
▁est	-377
▁Sz	-378
▁tan	-379
▁abb	-380
kö	-381
▁ir	-382
▁kül	-383
to	-384
gyan	-385
▁mu	-386
▁het	-387
▁pedig	-388
▁tette	-389
▁ab	-390
▁men	-391
▁forin	-392
▁ill	-393
ős	-394
▁han	-395
▁ként	-396
▁ci	-397
▁első	-398
▁ról	-399
ch	-400
▁ap	-401
ert	-402
▁ebb	-403
▁unk	-404
▁vár	-405
uk	-406
▁munk	-407
vő	-408
▁kér	-409
▁ében	-410
vet	-411
▁ondta	-412
▁vil	-413
▁alap	-414
▁eket	-415
öl	-416
▁okat	-417
▁bi	-418
▁pár	-419
▁ül	-420
▁idő	-421
▁ött	-422
▁ezt	-423
▁ból	-424
▁kormá	-425
▁kat	-426
▁ri	-427
▁lés	-428
▁nél	-429
obb	-430
▁sok	-431
sza	-432
▁inden	-433
▁rá	-434
▁ikai	-435
▁ép	-436
ció	-437
té	-438
▁mű	-439
▁it	-440
▁hal	-441
▁maj	-442
▁ti	-443
▁követ	-444
nak	-445
▁miatt	-446
▁kal	-447
▁akkor	-448
▁ism	-449
▁tek	-450
▁dö	-451
▁majd	-452
▁hi	-453
▁nő	-454
▁pro	-455
▁vál	-456
▁kész	-457
▁pont	-458
▁vel	-459
▁igaz	-460
ön	-461
mé	-462
▁úgy	-463
ná	-464
▁eln	-465
▁ám	-466
▁Z	-467
▁való	-468
uró	-469
▁ide	-470
ály	-471
▁bel	-472
▁hoz	-473
íz	-474
▁fő	-475
utat	-476
▁gaz	-477
▁ják	-478
▁kerü	-479
se	-480
▁állam	-481
▁ló	-482
kal	-483
▁nd	-484
▁rt	-485
ín	-486
▁társ	-487
▁törté	-488
▁ták	-489
val	-490
▁uk	-491
éz	-492
▁sor	-493
▁világ	-494
▁ható	-495
▁aki	-496
▁dí	-497
▁lő	-498
▁véd	-499
▁laszt	-500
▁ről	-501
▁issza	-502
▁fej	-503
▁kezd	-504
▁ei	-505
őz	-506
emé	-507
▁eset	-508
▁ezető	-509
▁lesz	-510
▁zött	-511
▁nk	-512
▁ly	-513
▁old	-514
▁og	-515
▁dönt	-516
▁elnök	-517
▁én	-518
▁ugyan	-519
▁talál	-520
ug	-521
▁ből	-522
▁így	-523
▁av	-524
▁áz	-525
énz	-526
▁pénz	-527
▁?	-528
▁von	-529
▁ily	-530
▁zó	-531
▁ör	-532
▁ünk	-533
▁mell	-534
▁olyan	-535
▁st	-536
▁nál	-537
▁fél	-538
rá	-539
▁mind	-540
▁mert	-541
▁tám	-542
▁ami	-543
▁tól	-544
▁előtt	-545
▁ilyen	-546
▁sít	-547
▁jó	-548
▁keres	-549
▁zet	-550
▁sal	-551
nyi	-552
▁tás	-553
▁alm	-554
▁W	-555
ző	-556
▁od	-557
▁ában	-558
be	-559
od	-560
▁ep	-561
▁jö	-562
ír	-563
▁ll	-564
▁jog	-565
▁ismer	-566
▁egyik	-567
szo	-568
▁ék	-569
▁saj	-570
▁által	-571
▁me	-572
ab	-573
hat	-574
▁pol	-575
▁mér	-576
▁elm	-577
▁díj	-578
▁alak	-579
▁let	-580
étel	-581
▁vez	-582
▁érd	-583
▁adó	-584
▁Ez	-585
▁onban	-586
▁hár	-587
▁ján	-588
▁tov	-589
zá	-590
▁já	-591
▁asz	-592
▁tat	-593
tat	-594
▁se	-595
je	-596
▁ah	-597
dá	-598
▁hét	-599
▁tú	-600
▁etlen	-601
▁per	-602
▁mond	-603
▁ály	-604
▁mény	-605
▁va	-606
▁továb	-607
▁kk	-608
▁olt	-609
▁vet	-610
▁lak	-611
▁aut	-612
▁ház	-613
ély	-614
ort	-615
▁ozzá	-616
▁nev	-617
▁tér	-618
▁bo	-619
▁autó	-620
▁től	-621
▁ani	-622
▁polit	-623
fi	-624
▁ke	-625
▁sen	-626
▁ver	-627
▁Nem	-628
▁ent	-629
▁U	-630
int	-631
▁ro	-632
▁éves	-633
▁öt	-634
▁ten	-635
▁mos	-636
ló	-637
▁három	-638
▁illet	-639
▁ély	-640
est	-641
▁kapcs	-642
kez	-643
▁munka	-644
▁fér	-645
▁lis	-646
▁zás	-647
▁ének	-648
vel	-649
▁gazda	-650
▁külön	-651
▁di	-652
▁euró	-653
éter	-654
▁ezer	-655
▁áb	-656
▁bizto	-657
▁sp	-658
▁dolg	-659
▁kon	-660
▁ré	-661
elő	-662
▁sik	-663
▁ikus	-664
▁sap	-665
▁il	-666
▁Egy	-667
▁állal	-668
▁hez	-669
▁emel	-670
tó	-671
ím	-672
▁élet	-673
öve	-674
▁ére	-675
▁szín	-676
bá	-677
▁ag	-678
ony	-679
▁li	-680
lan	-681
▁ása	-682
▁kör	-683
▁város	-684
szá	-685
▁ának	-686
▁Á	-687
▁mikor	-688
nap	-689
▁tott	-690
▁sapat	-691
▁ték	-692
▁fiz	-693
▁koz	-694
▁lép	-695
▁egész	-696
▁most	-697
▁any	-698
jt	-699
▁mutat	-700
▁É	-701
▁zs	-702
▁ont	-703
ze	-704
áro	-705
▁end	-706
▁nyil	-707
ód	-708
▁zott	-709
▁koráb	-710
űn	-711
va	-712
▁arra	-713
▁ku	-714
▁párt	-715
▁cím	-716
▁gond	-717
▁ing	-718
▁öl	-719
▁aszná	-720
▁nyug	-721
▁erős	-722
▁ció	-723
▁kérd	-724
▁állí	-725
op	-726
▁föl	-727
▁tet	-728
▁ató	-729
▁férfi	-730
▁árd	-731
ud	-732
ük	-733
um	-734
▁játék	-735
▁cég	-736
ce	-737
tö	-738
▁ment	-739
▁oszt	-740
▁ely	-741
▁ered	-742
▁siker	-743
ör	-744
▁lap	-745
▁jut	-746
oly	-747
▁gyer	-748
▁ók	-749
▁elem	-750
▁hang	-751
ri	-752
▁net	-753
▁baj	-754
▁társa	-755
▁törvé	-756
▁dolgo	-757
▁lás	-758
▁im	-759
▁ön	-760
▁len	-761
▁par	-762
▁ód	-763
ki	-764
▁Ha	-765
▁fizet	-766
dig	-767
▁óta	-768
gyel	-769
▁itt	-770
▁!	-771
▁ára	-772
▁ia	-773
SZ	-774
▁érték	-775
▁szerv	-776
▁juk	-777
▁adat	-778
sg	-779
▁obb	-780
▁haj	-781
tá	-782
▁érdek	-783
▁hó	-784
▁seg	-785
▁kis	-786
▁kel	-787
asz	-788
▁alatt	-789
nte	-790
▁atlan	-791
▁volna	-792
▁kív	-793
▁készü	-794
▁nyom	-795
▁ov	-796
▁vezet	-797
▁sú	-798
▁csö	-799
▁ási	-800
▁gr	-801
▁uta	-802
he	-803
▁másod	-804
▁otta	-805
köd	-806
▁szerű	-807
▁zat	-808
▁jegy	-809
▁gondo	-810
▁elmi	-811
▁négy	-812
▁kken	-813
▁valam	-814
la	-815
▁alá	-816
▁oldal	-817
▁tag	-818
▁ők	-819
▁túl	-820
▁té	-821
▁Mi	-822
no	-823
▁jav	-824
▁ltség	-825
▁amer	-826
ge	-827
▁mar	-828
▁súly	-829
▁tr	-830
▁terv	-831
▁ink	-832
▁fil	-833
▁idesz	-834
▁út	-835
▁vesz	-836
▁eb	-837
▁eml	-838
▁mód	-839
▁tlen	-840
▁akik	-841
▁közel	-842
atal	-843
ep	-844
▁szó	-845
▁vétel	-846
vi	-847
▁zár	-848
▁besz	-849
▁verse	-850
uá	-851
ká	-852
▁utó	-853
▁ennyi	-854
▁intéz	-855
▁atás	-856
▁éh	-857
ról	-858
▁olat	-859
▁lni	-860
▁viszo	-861
▁kar	-862
▁mini	-863
▁cél	-864
▁ütt	-865
▁tik	-866
▁öz	-867
▁mány	-868
▁támog	-869
ára	-870
▁vált	-871
lte	-872
▁lét	-873
▁ford	-874
▁De	-875
▁ások	-876
▁nagyo	-877
▁szól	-878
▁film	-879
▁méter	-880
▁áltoz	-881
▁pél	-882
▁példá	-883
▁ése	-884
kü	-885
▁ező	-886
▁szül	-887
udap	-888
▁fü	-889
▁nélkü	-890
▁bizo	-891
▁indul	-892
▁akar	-893
▁jobb	-894
▁tiszt	-895
▁nin	-896
00	-897
met	-898
▁ész	-899
köz	-900
▁Or	-901
▁son	-902
▁pály	-903
▁szter	-904
▁rö	-905
▁pia	-906
▁víz	-907
▁beszé	-908
▁marad	-909
▁őd	-910
▁föld	-911
▁olyam	-912
▁si	-913
▁forg	-914
▁hanem	-915
ác	-916
▁mú	-917
▁munká	-918
▁ord	-919
ba	-920
▁ző	-921
zet	-922
▁gép	-923
▁pró	-924
▁nincs	-925
▁győz	-926
vas	-927
▁szem	-928
▁sí	-929
▁orszá	-930
▁/	-931
▁ell	-932
▁kam	-933
▁szet	-934
▁alom	-935
▁ügyi	-936
▁lal	-937
▁arm	-938
▁szab	-939
vat	-940
▁ően	-941
▁isz	-942
▁ével	-943
▁w	-944
▁álat	-945
▁igazg	-946
lat	-947
▁ották	-948
▁iselő	-949
▁igyel	-950
▁termé	-951
▁terül	-952
▁sk	-953
▁MN	-954
▁üz	-955
▁lett	-956
▁zölte	-957
▁bajno	-958
▁erő	-959
▁lé	-960
▁adás	-961
▁ran	-962
▁Cs	-963
▁ső	-964
▁vas	-965
ád	-966
▁jövő	-967
▁táv	-968
▁dol	-969
▁nyer	-970
▁tol	-971
▁fogad	-972
▁ükség	-973
▁kt	-974
▁azért	-975
▁játsz	-976
▁azok	-977
▁kl	-978
▁lá	-979
▁lj	-980
▁ken	-981
▁kev	-982
íg	-983
▁egyed	-984
▁tü	-985
▁ász	-986
▁sági	-987
▁ip	-988
▁eddig	-989
▁ur	-990
▁nyi	-991
▁hív	-992
▁orv	-993
▁eng	-994
▁előre	-995
▁Al	-996
nyv	-997
▁lat	-998
▁perc	-999
opo	-1000
▁ezek	-1001
▁Kö	-1002
▁ng	-1003
▁ontos	-1004
▁csopo	-1005
▁us	-1006
▁bí	-1007
▁inte	-1008
▁olvas	-1009
▁inf	-1010
▁kó	-1011
▁tköz	-1012
▁gram	-1013
lag	-1014
▁test	-1015
▁gyű	-1016
▁tő	-1017
▁ült	-1018
▁anyag	-1019
▁űköd	-1020
▁foly	-1021
▁avaz	-1022
▁hu	-1023
▁ési	-1024
▁ahol	-1025
▁bu	-1026
▁fr	-1027
▁polg	-1028
▁bal	-1029
▁polgá	-1030
▁dal	-1031
▁emély	-1032
▁armad	-1033
▁elt	-1034
▁számí	-1035
▁fo	-1036
▁ezért	-1037
▁ősz	-1038
▁nevez	-1039
▁um	-1040
▁gyen	-1041
▁annak	-1042
▁súlyo	-1043
▁and	-1044
▁ánd	-1045
▁dél	-1046
▁képv	-1047
▁bár	-1048
né	-1049
▁ottak	-1050
fő	-1051
▁san	-1052
▁telje	-1053
ei	-1054
▁fok	-1055
ható	-1056
▁don	-1057
▁bank	-1058
▁gyak	-1059
▁néz	-1060
pá	-1061
and	-1062
▁hagy	-1063
▁míg	-1064
▁eit	-1065
rás	-1066
▁hónap	-1067
▁részt	-1068
dés	-1069
▁MNO	-1070
▁kár	-1071
▁do	-1072
▁táj	-1073
▁szolg	-1074
▁könyv	-1075
▁saját	-1076
▁salád	-1077
▁tam	-1078
▁bíró	-1079
▁ülés	-1080
▁telen	-1081
▁ket	-1082
▁füg	-1083
▁iká	-1084
▁haz	-1085
zel	-1086
▁ást	-1087
▁ma	-1088
▁;	-1089
ma	-1090
▁csü	-1091
▁őség	-1092
▁iá	-1093
▁ális	-1094
só	-1095
▁má	-1096
▁bü	-1097
▁fe	-1098
▁irány	-1099
▁tem	-1100
▁har	-1101
lá	-1102
▁őrség	-1103
▁zen	-1104
▁arról	-1105
▁rég	-1106
▁ég	-1107
▁ésé	-1108
▁tős	-1109
▁növe	-1110
▁sér	-1111
▁pé	-1112
▁szo	-1113
▁jelöl	-1114
▁ekk	-1115
▁megf	-1116
▁bl	-1117
▁kedés	-1118
▁sü	-1119
▁maga	-1120
▁magas	-1121
any	-1122
▁taval	-1123
▁tartó	-1124
▁iszen	-1125
▁sel	-1126
▁sajtó	-1127
há	-1128
▁olg	-1129
▁atáro	-1130
▁tul	-1131
▁képes	-1132
▁viz	-1133
▁sony	-1134
▁kutat	-1135
▁gól	-1136
▁készí	-1137
▁kívül	-1138
▁ex	-1139
▁Budap	-1140
▁rtök	-1141
▁amit	-1142
▁száz	-1143
▁ával	-1144
▁állít	-1145
▁neh	-1146
▁nyol	-1147
▁ris	-1148
▁abály	-1149
▁min	-1150
▁ss	-1151
▁zik	-1152
▁ekkel	-1153
▁tárgy	-1154
▁adott	-1155
▁jan	-1156
▁éd	-1157
▁áj	-1158
▁alkal	-1159
▁próbá	-1160
▁tulaj	-1161
▁lek	-1162
▁ést	-1163
▁ros	-1164
▁endő	-1165
▁másik	-1166
▁emzet	-1167
▁éhány	-1168
▁ámára	-1169
▁tség	-1170
▁oztat	-1171
▁tűn	-1172
▁jú	-1173
▁kedv	-1174
▁akad	-1175
ors	-1176
▁kedd	-1177
▁vett	-1178
▁ud	-1179
▁jé	-1180
▁épí	-1181
▁ná	-1182
kod	-1183
▁piac	-1184
▁rm	-1185
▁lékos	-1186
▁inkáb	-1187
vá	-1188
▁járás	-1189
▁felé	-1190
▁ök	-1191
▁órá	-1192
▁bb	-1193
▁tájék	-1194
▁esz	-1195
▁ttság	-1196
▁ac	-1197
▁inter	-1198
▁hivat	-1199
▁lo	-1200
▁nyilv	-1201
▁egyé	-1202
▁szöve	-1203
▁pl	-1204
▁za	-1205
▁teni	-1206
▁lhet	-1207
ho	-1208
▁Ú	-1209
▁eség	-1210
▁thet	-1211
▁alaku	-1212
▁csütö	-1213
▁hát	-1214
▁hall	-1215
▁izsg	-1216
▁fordu	-1217
▁című	-1218
▁vé	-1219
▁ait	-1220
▁közül	-1221
hoz	-1222
▁vis	-1223
▁ezés	-1224
▁késő	-1225
▁izsgá	-1226
▁múlt	-1227
▁iatal	-1228
▁hit	-1229
▁raj	-1230
▁épp	-1231
▁része	-1232
▁akár	-1233
▁Nagy	-1234
▁német	-1235
▁abad	-1236
▁talan	-1237
▁tiz	-1238
▁évek	-1239
▁att	-1240
▁dollá	-1241
▁jól	-1242
▁számo	-1243
▁okoz	-1244
ha	-1245
itá	-1246
▁tközi	-1247
▁tanul	-1248
▁tölt	-1249
▁eren	-1250
▁örö	-1251
▁lenne	-1252
▁elj	-1253
▁támad	-1254
▁érkez	-1255
▁elég	-1256
▁köt	-1257
▁lab	-1258
▁ány	-1259
▁gj	-1260
▁gyors	-1261
▁ztat	-1262
▁Meg	-1263
▁ós	-1264
▁bűn	-1265
▁érz	-1266
▁gjobb	-1267
▁hatás	-1268
▁rom	-1269
▁közö	-1270
▁állap	-1271
▁nép	-1272
▁pályá	-1273
▁tó	-1274
▁niszt	-1275
▁álló	-1276
▁ítél	-1277
▁moz	-1278
▁tű	-1279
▁sérü	-1280
▁gyobb	-1281
▁szüle	-1282
▁fi	-1283
mű	-1284
▁ya	-1285
▁almaz	-1286
▁enged	-1287
▁oló	-1288
▁ítás	-1289
▁Euró	-1290
▁januá	-1291
▁szál	-1292
▁mely	-1293
▁sport	-1294
▁ty	-1295
▁ang	-1296
▁oro	-1297
▁Európ	-1298
▁dec	-1299
▁nyú	-1300
▁emlék	-1301
▁kí	-1302
▁legna	-1303
▁körül	-1304
▁mez	-1305
▁du	-1306
▁azz	-1307
▁hír	-1308
▁okkal	-1309
▁kr	-1310
▁belül	-1311
▁gyár	-1312
▁rd	-1313
▁ásá	-1314
anc	-1315
▁atott	-1316
csi	-1317
▁atok	-1318
▁állás	-1319
▁zp	-1320
▁nság	-1321
▁leges	-1322
▁Ch	-1323
▁ic	-1324
▁bar	-1325
▁tétel	-1326
▁ou	-1327
▁tesz	-1328
▁lalko	-1329
▁ponto	-1330
▁gyako	-1331
▁gyere	-1332
▁mec	-1333
▁tíz	-1334
▁ág	-1335
▁esti	-1336
▁során	-1337
ami	-1338
▁ati	-1339
▁bet	-1340
▁na	-1341
▁eni	-1342
▁iszt	-1343
▁mai	-1344
▁egyei	-1345
▁jai	-1346
koz	-1347
▁rossz	-1348
▁idej	-1349
▁erd	-1350
▁semmi	-1351
▁árnap	-1352
▁hiány	-1353
▁ista	-1354
▁erenc	-1355
▁zpont	-1356
▁azzal	-1357
▁vetés	-1358
▁ette	-1359
▁részé	-1360
▁br	-1361
▁kü	-1362
▁nyolc	-1363
▁emben	-1364
▁rny	-1365
▁alk	-1366
▁európ	-1367
▁pénzt	-1368
▁indig	-1369
▁író	-1370
▁ard	-1371
▁ru	-1372
▁nyel	-1373
▁tit	-1374
▁ete	-1375
▁egyéb	-1376
▁bef	-1377
▁ev	-1378
▁beteg	-1379
▁skol	-1380
▁ala	-1381
▁közép	-1382
▁ződés	-1383
▁kom	-1384
▁ezzel	-1385
▁megsz	-1386
▁telep	-1387
▁mot	-1388
▁oltak	-1389
▁kön	-1390
▁gyan	-1391
▁tolsó	-1392
▁mo	-1393
▁bra	-1394
▁leked	-1395
▁sztés	-1396
▁száll	-1397
▁zl	-1398
▁kot	-1399
▁zni	-1400
▁orosz	-1401
▁akció	-1402
▁sebb	-1403
▁későb	-1404
▁so	-1405
▁éri	-1406
▁MSZ	-1407
▁lta	-1408
▁szok	-1409
▁ános	-1410
▁éve	-1411
▁tarto	-1412
▁ászló	-1413
▁érte	-1414
▁utób	-1415
▁atkoz	-1416
▁tb	-1417
▁visel	-1418
▁mivel	-1419
▁kod	-1420
▁parla	-1421
▁meccs	-1422
ele	-1423
▁MT	-1424
▁fen	-1425
▁ossz	-1426
▁aján	-1427
▁vonat	-1428
▁lépés	-1429
▁ró	-1430
▁lévő	-1431
▁eljes	-1432
▁mányz	-1433
▁maz	-1434
▁eszt	-1435
▁vizsg	-1436
▁fejle	-1437
▁til	-1438
▁nyit	-1439
▁idén	-1440
▁kező	-1441
▁ezett	-1442
▁iro	-1443
▁rható	-1444
bán	-1445
▁ajánl	-1446
▁csat	-1447
▁végén	-1448
▁újra	-1449
▁színű	-1450
▁bil	-1451
▁enki	-1452
▁keze	-1453
já	-1454
▁könny	-1455
▁eh	-1456
▁nemze	-1457
▁úja	-1458
▁tetté	-1459
▁újabb	-1460
▁magán	-1461
▁pénte	-1462
▁fejez	-1463
▁MSZP	-1464
ván	-1465
▁rende	-1466
▁végz	-1467
▁ant	-1468
let	-1469
▁ennek	-1470
me	-1471
▁El	-1472
▁op	-1473
▁hazai	-1474
▁Ö	-1475
▁ák	-1476
▁élemé	-1477
▁gyerm	-1478
▁határ	-1479
▁gyanú	-1480
▁eti	-1481
im	-1482
▁kség	-1483
▁hí	-1484
alm	-1485
▁rú	-1486
▁hitel	-1487
▁enek	-1488
▁elelő	-1489
▁port	-1490
▁gal	-1491
▁Ne	-1492
ális	-1493
▁rel	-1494
▁últ	-1495
▁segít	-1496
▁elkez	-1497
▁méd	-1498
▁orvos	-1499
▁úsz	-1500
▁utas	-1501
▁veszt	-1502
▁gyó	-1503
▁helyi	-1504
▁jának	-1505
▁tekin	-1506
▁10	-1507
▁ein	-1508
▁oda	-1509
▁rak	-1510
▁hú	-1511
▁kotmá	-1512
▁Le	-1513
▁Orbán	-1514
▁iai	-1515
▁ult	-1516
▁almas	-1517
▁ebben	-1518
▁tanác	-1519
▁vány	-1520
▁abban	-1521
▁hajt	-1522
ről	-1523
▁pal	-1524
▁red	-1525
▁bö	-1526
▁bele	-1527
▁infor	-1528
▁gen	-1529
▁vonal	-1530
▁tor	-1531
▁gel	-1532
▁au	-1533
▁segí	-1534
▁kín	-1535
▁ich	-1536
▁csap	-1537
▁tét	-1538
▁olgál	-1539
▁íz	-1540
▁uszt	-1541
▁eseté	-1542
▁un	-1543
▁fut	-1544
▁omb	-1545
▁zta	-1546
▁etem	-1547
▁napi	-1548
▁tani	-1549
▁gos	-1550
▁der	-1551
▁lja	-1552
▁nov	-1553
▁étfő	-1554
▁őket	-1555
▁oci	-1556
▁önk	-1557
ex	-1558
▁idei	-1559
▁orrás	-1560
▁jük	-1561
▁óvi	-1562
▁ábor	-1563
▁önkor	-1564
▁tűz	-1565
▁erv	-1566
▁alakí	-1567
ub	-1568
▁Péter	-1569
▁lytat	-1570
▁ából	-1571
te	-1572
▁szél	-1573
▁vér	-1574
▁to	-1575
▁ato	-1576
▁évben	-1577
▁ését	-1578
▁alább	-1579
▁érint	-1580
gel	-1581
▁Be	-1582
▁rmest	-1583
▁nyújt	-1584
mény	-1585
▁utc	-1586
▁sta	-1587
▁osság	-1588
▁válog	-1589
▁fenn	-1590
▁óvivő	-1591
▁kil	-1592
tos	-1593
▁éb	-1594
▁elej	-1595
▁elet	-1596
ábor	-1597
▁iztos	-1598
▁motor	-1599
▁lég	-1600
▁epel	-1601
▁írás	-1602
▁lány	-1603
▁gáz	-1604
▁éppen	-1605
▁éli	-1606
▁áltat	-1607
▁pil	-1608
▁tot	-1609
gye	-1610
▁ős	-1611
▁ain	-1612
▁erdán	-1613
▁okban	-1614
▁egyes	-1615
▁yaszt	-1616
▁bír	-1617
▁átlag	-1618
▁intén	-1619
ják	-1620
▁séges	-1621
▁étfőn	-1622
▁bá	-1623
▁ersze	-1624
▁kiv	-1625
▁kór	-1626
▁ekt	-1627
▁hető	-1628
▁szom	-1629
▁máció	-1630
▁ester	-1631
▁erre	-1632
▁arc	-1633
▁lov	-1634
▁magá	-1635
▁jegyz	-1636
▁annyi	-1637
▁zék	-1638
▁mel	-1639
▁ismét	-1640
▁telez	-1641
▁mal	-1642
▁hol	-1643
▁üzem	-1644
▁álság	-1645
▁terje	-1646
▁zlemé	-1647
▁etet	-1648
▁tap	-1649
▁gyűjt	-1650
▁sonló	-1651
▁x	-1652
▁ber	-1653
▁ika	-1654
▁magát	-1655
▁bő	-1656
▁Ma	-1657
▁dar	-1658
▁Bu	-1659
▁stván	-1660
▁óra	-1661
▁halál	-1662
▁ká	-1663
▁éj	-1664
▁ipar	-1665
▁nik	-1666
▁itás	-1667
▁szint	-1668
▁15	-1669
▁etés	-1670
gi	-1671
▁nőtt	-1672
▁pr	-1673
▁írja	-1674
▁kció	-1675
▁aslat	-1676
▁kíván	-1677
▁Ro	-1678
▁neki	-1679
▁jában	-1680
▁lőd	-1681
ént	-1682
▁ervez	-1683
▁azon	-1684
▁keves	-1685
▁mit	-1686
▁Szer	-1687
▁str	-1688
▁cso	-1689
ine	-1690
▁emény	-1691
után	-1692
▁alami	-1693
▁áció	-1694
▁ogyan	-1695
ka	-1696
▁szóló	-1697
▁totta	-1698
▁áról	-1699
▁atív	-1700
▁iután	-1701
▁kság	-1702
▁őrök	-1703
▁barát	-1704
▁igen	-1705
▁Sp	-1706
▁ebr	-1707
▁atot	-1708
▁kény	-1709
▁szív	-1710
▁bíz	-1711
sor	-1712
▁lag	-1713
▁szor	-1714
▁éről	-1715
▁elős	-1716
▁ft	-1717
▁este	-1718
▁land	-1719
▁Y	-1720
▁árm	-1721
▁régi	-1722
▁ozat	-1723
▁ebruá	-1724
▁formá	-1725
▁álasz	-1726
zs	-1727
▁ezte	-1728
▁tető	-1729
▁ese	-1730
▁tele	-1731
▁etné	-1732
▁nete	-1733
▁műsor	-1734
nne	-1735
▁ttal	-1736
▁ene	-1737
lő	-1738
adt	-1739
▁lkod	-1740
vid	-1741
▁kkal	-1742
▁kelet	-1743
▁ata	-1744
▁las	-1745
▁vid	-1746
▁ény	-1747
▁rög	-1748
▁adság	-1749
▁őször	-1750
▁20	-1751
▁tehet	-1752
chn	-1753
▁üzlet	-1754
▁assz	-1755
▁Zs	-1756
▁zben	-1757
▁ost	-1758
▁rnyez	-1759
▁vatal	-1760
▁jelz	-1761
öv	-1762
▁ogl	-1763
▁csú	-1764
▁igény	-1765
▁kocsi	-1766
▁lik	-1767
▁ong	-1768
▁bev	-1769
▁tunk	-1770
▁függe	-1771
▁Mind	-1772
▁aszt	-1773
▁zi	-1774
▁franc	-1775
sér	-1776
▁ener	-1777
▁szí	-1778
▁földi	-1779
▁évvel	-1780
▁kett	-1781
▁rlat	-1782
▁szerz	-1783
▁bér	-1784
▁elv	-1785
▁rtökö	-1786
émá	-1787
▁jött	-1788
▁megh	-1789
▁érium	-1790
▁irat	-1791
▁vél	-1792
▁legf	-1793
▁ordul	-1794
▁kísér	-1795
▁Bar	-1796
▁moly	-1797
▁rek	-1798
▁ggel	-1799
▁lg	-1800
▁íg	-1801
▁gyárt	-1802
▁felh	-1803
▁MTI	-1804
▁blémá	-1805
▁halad	-1806
▁anak	-1807
▁Í	-1808
elm	-1809
▁osszú	-1810
▁sa	-1811
▁kan	-1812
▁ítés	-1813
▁oglal	-1814
nnep	-1815
▁izm	-1816
▁őrz	-1817
▁ünnep	-1818
ur	-1819
▁tudom	-1820
▁enni	-1821
▁miért	-1822
▁Ki	-1823
▁vall	-1824
▁ib	-1825
▁épül	-1826
▁szk	-1827
▁arány	-1828
▁egyre	-1829
▁po	-1830
tor	-1831
▁uni	-1832
▁techn	-1833
▁kek	-1834
▁tilt	-1835
▁Gy	-1836
▁part	-1837
▁keret	-1838
▁Gábor	-1839
▁12	-1840
▁erősí	-1841
▁ín	-1842
▁kiad	-1843
▁sért	-1844
▁ason	-1845
▁csu	-1846
▁hallg	-1847
▁ria	-1848
▁áld	-1849
▁töm	-1850
▁ottho	-1851
▁Vil	-1852
▁mö	-1853
▁hos	-1854
▁küld	-1855
▁esség	-1856
ház	-1857
▁ásra	-1858
▁ől	-1859
▁yör	-1860
▁értő	-1861
▁eken	-1862
▁élő	-1863
▁ekre	-1864
▁listá	-1865
▁labda	-1866
▁sség	-1867
▁unió	-1868
▁nehéz	-1869
▁képp	-1870
▁Orszá	-1871
▁ld	-1872
rt	-1873
▁jon	-1874
▁rövid	-1875
▁hossz	-1876
▁tv	-1877
▁alkot	-1878
▁tetés	-1879
▁kilo	-1880
▁ltek	-1881
▁minő	-1882
▁ették	-1883
▁gyes	-1884
▁ándor	-1885
▁ark	-1886
▁fek	-1887
▁kőz	-1888
ába	-1889
▁nyomo	-1890
▁eplő	-1891
▁Új	-1892
▁man	-1893
▁omány	-1894
▁env	-1895
▁ását	-1896
▁végre	-1897
▁ern	-1898
▁nal	-1899
▁elmet	-1900
▁terem	-1901
▁rúg	-1902
▁ton	-1903
▁elyen	-1904
▁apitá	-1905
ke	-1906
▁pó	-1907
tób	-1908
▁dob	-1909
▁izony	-1910
▁létre	-1911
▁lf	-1912
▁terme	-1913
▁szete	-1914
▁mozg	-1915
▁állt	-1916
pa	-1917
▁óri	-1918
▁X	-1919
▁kevés	-1920
▁kórhá	-1921
▁fu	-1922
▁lnek	-1923
▁egyez	-1924
▁ion	-1925
▁Jo	-1926
▁mer	-1927
▁média	-1928
▁esély	-1929
▁aho	-1930
▁ezen	-1931
▁kori	-1932
▁lják	-1933
▁tóság	-1934
▁gyógy	-1935
▁érdem	-1936
▁módo	-1937
▁ztal	-1938
▁utaz	-1939
▁egyen	-1940
▁teszi	-1941
▁özben	-1942
zab	-1943
▁ank	-1944
▁mente	-1945
▁tudja	-1946
▁kéz	-1947
▁enved	-1948
▁gyeng	-1949
▁olcs	-1950
ic	-1951
▁asonl	-1952
▁rit	-1953
▁'	-1954
▁óg	-1955
▁ajo	-1956
▁keny	-1957
▁aradt	-1958
▁esett	-1959
▁Szab	-1960
▁akasz	-1961
▁energ	-1962
▁húz	-1963
▁színe	-1964
▁osan	-1965
▁Uni	-1966
▁ner	-1967
▁konce	-1968
▁ea	-1969
▁brit	-1970
▁hibá	-1971
mu	-1972
▁őv	-1973
▁jön	-1974
▁túr	-1975
▁etek	-1976
▁ehér	-1977
▁teh	-1978
▁endég	-1979
▁yörgy	-1980
▁ril	-1981
▁végül	-1982
▁legi	-1983
▁eny	-1984
▁sá	-1985
▁rül	-1986
▁tehát	-1987
▁ásár	-1988
▁Sport	-1989
▁óz	-1990
▁rab	-1991
▁usz	-1992
▁nyelv	-1993
▁vezér	-1994
▁Ján	-1995
▁obbik	-1996
▁ület	-1997
▁tizen	-1998
▁takar	-1999
▁áp	-2000
▁ázs	-2001
▁all	-2002
▁irod	-2003
▁pi	-2004
▁ff	-2005
▁előző	-2006
▁sítmé	-2007
▁többi	-2008
▁nyság	-2009
▁függ	-2010
▁ay	-2011
▁fegy	-2012
▁fele	-2013
▁ocial	-2014
▁cik	-2015
▁cius	-2016
▁ciós	-2017
▁klub	-2018
▁fed	-2019
▁elér	-2020
▁zel	-2021
▁ándék	-2022
▁mat	-2023
▁jármű	-2024
▁buk	-2025
▁lm	-2026
▁féle	-2027
▁tí	-2028
▁ele	-2029
▁koc	-2030
▁ólag	-2031
▁kőzés	-2032
▁lovák	-2033
▁ggy	-2034
▁ígér	-2035
▁cikk	-2036
▁fény	-2037
▁János	-2038
▁Gyu	-2039
▁mok	-2040
▁beli	-2041
▁elme	-2042
▁hete	-2043
▁szép	-2044
▁darab	-2045
▁pá	-2046
▁da	-2047
▁New	-2048
▁ehet	-2049
▁apot	-2050
▁tvány	-2051
▁donos	-2052
▁lső	-2053
▁Mint	-2054
▁ösen	-2055
var	-2056
▁alu	-2057
▁benne	-2058
▁októb	-2059
▁ügyel	-2060
▁ssz	-2061
▁Né	-2062
▁ejt	-2063
▁tapas	-2064
▁alos	-2065
▁eleg	-2066
csá	-2067
▁ombat	-2068
▁bünte	-2069
▁Világ	-2070
▁izmus	-2071
▁ásárl	-2072
▁An	-2073
▁tuk	-2074
▁omo	-2075
▁szu	-2076
▁írta	-2077
űl	-2078
▁encs	-2079
▁nként	-2080
▁szü	-2081
▁védő	-2082
▁tatás	-2083
▁tkez	-2084
▁vevő	-2085
▁őriz	-2086
▁get	-2087
▁tést	-2088
ilk	-2089
▁vele	-2090
▁lakás	-2091
▁trány	-2092
amás	-2093
▁ová	-2094
▁kul	-2095
▁éko	-2096
▁név	-2097
▁tük	-2098
▁Tamás	-2099
▁nök	-2100
▁agyis	-2101
▁EU	-2102
▁odell	-2103
▁nl	-2104
▁art	-2105
▁őváro	-2106
▁utal	-2107
▁ven	-2108
▁ggyűl	-2109
▁oktat	-2110
zd	-2111
▁erá	-2112
▁bor	-2113
▁oha	-2114
▁ékony	-2115
▁úr	-2116
▁bőv	-2117
▁iség	-2118
▁rilis	-2119
▁gi	-2120
▁tos	-2121
▁zeti	-2122
▁óriá	-2123
▁harc	-2124
▁csele	-2125
▁tésé	-2126
▁mégis	-2127
▁mp	-2128
▁nyert	-2129
▁indí	-2130
▁kocká	-2131
▁adásu	-2132
▁nf	-2133
▁llam	-2134
▁pu	-2135
▁por	-2136
▁alás	-2137
ött	-2138
▁oo	-2139
▁spany	-2140
kol	-2141
▁ésre	-2142
▁ító	-2143
▁emp	-2144
▁ahogy	-2145
▁küzd	-2146
▁újság	-2147
▁ck	-2148
▁ötte	-2149
▁kampá	-2150
▁elh	-2151
▁évi	-2152
▁elyez	-2153
▁ög	-2154
▁tőz	-2155
▁ntr	-2156
▁kettő	-2157
▁pa	-2158
▁éz	-2159
▁olta	-2160
▁gyilk	-2161
▁csá	-2162
▁usztr	-2163
▁ányos	-2164
▁kapu	-2165
▁tja	-2166
▁ád	-2167
▁cser	-2168
▁egle	-2169
▁aná	-2170
▁maguk	-2171
▁ügymi	-2172
▁ször	-2173
▁Azt	-2174
▁nline	-2175
▁ályáz	-2176
▁erel	-2177
▁nyít	-2178
▁alapí	-2179
▁És	-2180
▁orban	-2181
▁inc	-2182
▁ába	-2183
▁ására	-2184
▁zá	-2185
▁ird	-2186
▁bocsá	-2187
▁oldás	-2188
▁áldoz	-2189
iná	-2190
▁af	-2191
▁rem	-2192
▁lass	-2193
▁elyik	-2194
▁lin	-2195
▁aton	-2196
▁pálya	-2197
▁közös	-2198
▁csi	-2199
▁andó	-2200
▁nsági	-2201
▁atos	-2202
▁eknek	-2203
▁ug	-2204
▁járó	-2205
▁íció	-2206
▁Zrt	-2207
▁alac	-2208
▁BK	-2209
▁elé	-2210
▁Zol	-2211
▁znak	-2212
▁gyesü	-2213
▁ideg	-2214
▁pül	-2215
ekt	-2216
▁rg	-2217
▁ler	-2218
▁Német	-2219
▁log	-2220
▁eglep	-2221
▁Sch	-2222
▁fin	-2223
énye	-2224
▁avi	-2225
▁sza	-2226
▁érvé	-2227
▁Zoltá	-2228
▁titká	-2229
▁reg	-2230
▁alaki	-2231
▁dr	-2232
▁esen	-2233
▁távo	-2234
▁Hu	-2235
sa	-2236
▁ka	-2237
▁som	-2238
▁közve	-2239
▁valós	-2240
▁alig	-2241
▁iktor	-2242
▁tin	-2243
▁lenc	-2244
▁ist	-2245
▁olim	-2246
▁széd	-2247
▁tevé	-2248
▁irdet	-2249
▁karác	-2250
▁olimp	-2251
▁senki	-2252
▁végé	-2253
▁busz	-2254
▁üt	-2255
▁16	-2256
▁csupá	-2257
▁30	-2258
▁Ezt	-2259
▁mög	-2260
▁ort	-2261
▁olasz	-2262
▁ih	-2263
▁sze	-2264
▁Ho	-2265
▁fot	-2266
▁üket	-2267
▁folyt	-2268
▁össég	-2269
▁gyűl	-2270
hon	-2271
▁vette	-2272
▁zak	-2273
▁ngyel	-2274
▁orvát	-2275
több	-2276
▁BKV	-2277
▁pan	-2278
▁idéz	-2279
▁gtöbb	-2280
▁vág	-2281
▁előz	-2282
▁héten	-2283
▁katon	-2284
▁léka	-2285
▁ív	-2286
▁zer	-2287
kalm	-2288
▁lem	-2289
▁rag	-2290
▁lkalm	-2291
▁zin	-2292
▁talán	-2293
▁ölcs	-2294
▁fordí	-2295
▁Bo	-2296
▁25	-2297
▁atója	-2298
▁azott	-2299
▁ológi	-2300
▁écs	-2301
▁zis	-2302
▁éből	-2303
▁tthon	-2304
▁lef	-2305
▁fotó	-2306
▁Köz	-2307
▁remé	-2308
all	-2309
▁dió	-2310
▁működ	-2311
▁tév	-2312
▁hétfő	-2313
▁erg	-2314
▁11	-2315
▁kinek	-2316
▁ainak	-2317
▁hull	-2318
▁áború	-2319
▁vád	-2320
▁gazdá	-2321
▁indok	-2322
▁lu	-2323
▁okon	-2324
▁ansz	-2325
▁Ber	-2326
▁Fel	-2327
▁embe	-2328
▁ktor	-2329
▁ámos	-2330
▁elejé	-2331
szö	-2332
▁ések	-2333
▁hő	-2334
▁ánt	-2335
▁járul	-2336
▁árt	-2337
▁terhe	-2338
▁onn	-2339
▁kkent	-2340
▁+	-2341
▁18	-2342
▁yő	-2343
▁zte	-2344
▁emlí	-2345
▁neve	-2346
▁-,	-2347
▁anat	-2348
▁zent	-2349
▁skolá	-2350
▁eztet	-2351
▁járat	-2352
▁menet	-2353
▁somag	-2354
▁úz	-2355
▁esemé	-2356
▁léte	-2357
▁ekkor	-2358
▁hál	-2359
▁öbb	-2360
▁tése	-2361
▁élyes	-2362
▁ral	-2363
▁csal	-2364
▁kkel	-2365
▁vita	-2366
▁atai	-2367
▁vagyo	-2368
ók	-2369
▁öld	-2370
▁böző	-2371
▁ndrás	-2372
▁ogalm	-2373
▁adék	-2374
▁nehez	-2375
▁ens	-2376
▁zetes	-2377
▁lott	-2378
▁zú	-2379
▁kif	-2380
▁dok	-2381
▁nok	-2382
▁plom	-2383
▁táb	-2384
▁ecs	-2385
▁lán	-2386
▁tény	-2387
▁urg	-2388
▁aztán	-2389
▁köszö	-2390
▁elsős	-2391
▁tball	-2392
▁ack	-2393
▁felül	-2394
▁sítás	-2395
▁dalom	-2396
▁bé	-2397
▁Ezek	-2398
▁dá	-2399
▁tömeg	-2400
▁ármaz	-2401
▁mező	-2402
▁csiná	-2403
DF	-2404
co	-2405
▁ajó	-2406
▁elf	-2407
▁ója	-2408
▁ezon	-2409
▁éhez	-2410
▁agyok	-2411
▁fegyv	-2412
▁ályo	-2413
▁nye	-2414
▁mély	-2415
▁tes	-2416
▁ezre	-2417
▁ktív	-2418
▁1,	-2419
▁ozi	-2420
▁hhoz	-2421
▁nter	-2422
▁uniós	-2423
▁dt	-2424
▁háló	-2425
▁lev	-2426
▁osz	-2427
▁lták	-2428
▁13	-2429
▁nyz	-2430
▁vény	-2431
▁érség	-2432
▁ari	-2433
▁ej	-2434
▁indít	-2435
▁Bár	-2436
▁távol	-2437
▁Vas	-2438
▁enc	-2439
▁enti	-2440
▁ásáro	-2441
▁angol	-2442
▁tenni	-2443
▁ers	-2444
▁sőt	-2445
▁kemé	-2446
▁szel	-2447
▁tve	-2448
▁romá	-2449
sef	-2450
▁ue	-2451
▁házi	-2452
▁tized	-2453
▁edző	-2454
▁einek	-2455
▁ch	-2456
▁odás	-2457
▁Ind	-2458
▁telm	-2459
▁ics	-2460
▁del	-2461
▁uró	-2462
▁kiz	-2463
▁izál	-2464
▁csúcs	-2465
▁fokoz	-2466
▁MDF	-2467
▁rium	-2468
▁örös	-2469
▁végez	-2470
▁olaj	-2471
▁lásá	-2472
▁Ugyan	-2473
▁ept	-2474
▁amar	-2475
▁izá	-2476
▁ségé	-2477
▁encsé	-2478
▁esí	-2479
▁kik	-2480
▁tur	-2481
▁zavar	-2482
▁14	-2483
▁ztül	-2484
▁befek	-2485
▁urópa	-2486
▁gö	-2487
▁utat	-2488
▁látás	-2489
▁azaz	-2490
▁kizár	-2491
▁zötti	-2492
▁kban	-2493
▁örök	-2494
▁Att	-2495
▁kid	-2496
▁árf	-2497
▁ekben	-2498
▁kínai	-2499
▁ménye	-2500
▁ődött	-2501
▁löv	-2502
▁hány	-2503
▁ózsef	-2504
▁Bal	-2505
lap	-2506
▁szony	-2507
▁iv	-2508
▁tra	-2509
▁ettek	-2510
▁nyben	-2511
▁onlap	-2512
▁ce	-2513
▁rű	-2514
▁megv	-2515
▁olato	-2516
▁eged	-2517
▁módon	-2518
▁pülő	-2519
▁ához	-2520
▁hh	-2521
▁arl	-2522
▁Index	-2523
▁lénye	-2524
▁knek	-2525
▁skola	-2526
▁őt	-2527
▁ser	-2528
▁elkö	-2529
▁szék	-2530
▁addig	-2531
▁dokum	-2532
▁zók	-2533
▁Attil	-2534
▁folyó	-2535
▁látsz	-2536
▁ikló	-2537
▁sztő	-2538
▁döntő	-2539
▁atta	-2540
▁cégek	-2541
▁vonul	-2542
▁En	-2543
▁múl	-2544
▁alma	-2545
▁fedez	-2546
▁dzs	-2547
▁nyí	-2548
▁kmény	-2549
▁hhez	-2550
▁ivel	-2551
▁17	-2552
▁okra	-2553
▁eu	-2554
▁apír	-2555
▁ógus	-2556
▁Ennek	-2557
▁telmű	-2558
▁írt	-2559
▁reng	-2560
▁ázás	-2561
▁uális	-2562
▁őle	-2563
▁etét	-2564
▁riss	-2565
▁rz	-2566
▁nekü	-2567
jc	-2568
▁kozó	-2569
▁mellé	-2570
▁adta	-2571
▁kben	-2572
▁Nép	-2573
▁eté	-2574
▁ínész	-2575
▁jét	-2576
▁yug	-2577
▁áig	-2578
▁közé	-2579
▁orít	-2580
▁tősen	-2581
▁tön	-2582
▁látog	-2583
▁zkod	-2584
▁entu	-2585
▁ezni	-2586
▁ondja	-2587
▁éké	-2588
▁nhet	-2589
▁ukat	-2590
▁pontj	-2591
▁Kr	-2592
▁budap	-2593
▁előny	-2594
▁esebb	-2595
▁tyá	-2596
▁knak	-2597
▁lakó	-2598
▁vájc	-2599
▁cseré	-2600
▁közep	-2601
▁oknak	-2602
▁ow	-2603
▁cel	-2604
▁átu	-2605
▁idék	-2606
▁ileg	-2607
▁lhat	-2608
▁fiú	-2609
▁rülmé	-2610
▁Gaz	-2611
▁Két	-2612
▁íroz	-2613
▁kri	-2614
▁költ	-2615
uh	-2616
▁vetel	-2617
▁hon	-2618
▁incs	-2619
▁vége	-2620
▁pp	-2621
▁arg	-2622
▁Már	-2623
▁sznek	-2624
▁zsi	-2625
▁ront	-2626
▁sága	-2627
▁rs	-2628
▁ói	-2629
▁gok	-2630
▁esül	-2631
▁eal	-2632
▁lly	-2633
▁láb	-2634
▁sége	-2635
▁gra	-2636
▁ettes	-2637
▁ódott	-2638
▁ura	-2639
▁ekről	-2640
▁onnal	-2641
▁derül	-2642
▁mentő	-2643
▁lcs	-2644
▁szig	-2645
ból	-2646
▁ajn	-2647
▁cen	-2648
▁mérés	-2649
▁tagja	-2650
▁szen	-2651
▁egyér	-2652
▁menti	-2653
▁fa	-2654
▁nan	-2655
▁heti	-2656
▁szór	-2657
▁zett	-2658
▁árak	-2659
▁űr	-2660
▁form	-2661
▁jogi	-2662
▁kas	-2663
▁essz	-2664
▁nie	-2665
▁endőr	-2666
▁th	-2667
▁adi	-2668
▁sak	-2669
▁piaci	-2670
▁rid	-2671
▁zene	-2672
▁gar	-2673
▁Így	-2674
▁ml	-2675
▁nevű	-2676
st	-2677
▁mik	-2678
▁pus	-2679
▁pót	-2680
▁ntet	-2681
▁felsz	-2682
▁dik	-2683
▁ntető	-2684
▁édelm	-2685
▁haza	-2686
▁kata	-2687
▁gu	-2688
▁tte	-2689
▁Zso	-2690
▁had	-2691
▁that	-2692
▁tom	-2693
▁őleg	-2694
▁tartá	-2695
▁rik	-2696
▁gyház	-2697
▁mért	-2698
▁nyár	-2699
▁alapo	-2700
▁inten	-2701
▁tudta	-2702
▁beruh	-2703
▁level	-2704
▁sztu	-2705
▁vide	-2706
▁pad	-2707
▁rák	-2708
sel	-2709
▁idejé	-2710
▁zza	-2711
▁válto	-2712
▁csit	-2713
▁ektr	-2714
▁ezték	-2715
▁Rá	-2716
▁ksz	-2717
▁jen	-2718
▁lig	-2719
▁ivat	-2720
▁sebe	-2721
▁Ve	-2722
▁ork	-2723
▁titk	-2724
▁szomb	-2725
▁kisz	-2726
▁onal	-2727
▁Ko	-2728
▁igá	-2729
▁női	-2730
▁iget	-2731
▁elett	-2732
▁képze	-2733
▁sokat	-2734
▁zaj	-2735
▁tar	-2736
▁tán	-2737
▁emző	-2738
▁lnak	-2739
▁Ő	-2740
▁nyos	-2741
▁éni	-2742
▁ztak	-2743
▁láto	-2744
▁lia	-2745
▁aság	-2746
▁jele	-2747
▁sh	-2748
▁cse	-2749
▁lan	-2750
▁célj	-2751
▁lk	-2752
▁akt	-2753
▁róf	-2754
▁sar	-2755
▁ulat	-2756
▁hatja	-2757
▁Bl	-2758
▁kol	-2759
▁eszkö	-2760
▁eső	-2761
▁ssze	-2762
▁50	-2763
vény	-2764
▁megy	-2765
▁örtö	-2766
▁Mol	-2767
▁olás	-2768
▁ec	-2769
▁ságok	-2770
▁nyal	-2771
▁etes	-2772
▁jöv	-2773
▁arany	-2774
nö	-2775
▁fők	-2776
▁felső	-2777
▁rang	-2778
▁tikus	-2779
▁mm	-2780
▁etben	-2781
▁etett	-2782
jai	-2783
▁ann	-2784
▁almi	-2785
▁bert	-2786
▁úto	-2787
▁Még	-2788
▁enye	-2789
▁agjai	-2790
▁ako	-2791
▁erősö	-2792
▁adni	-2793
▁előb	-2794
▁ozás	-2795
▁öm	-2796
▁ltak	-2797
▁léká	-2798
▁zati	-2799
▁lyás	-2800
öld	-2801
▁rej	-2802
▁lföld	-2803
▁lám	-2804
▁szi	-2805
▁járt	-2806
▁nch	-2807
▁ázad	-2808
▁kider	-2809
▁rális	-2810
▁sil	-2811
▁esés	-2812
▁híre	-2813
▁írek	-2814
▁bre	-2815
▁rog	-2816
▁eget	-2817
▁öv	-2818
▁portá	-2819
▁jekt	-2820
▁rban	-2821
▁rém	-2822
▁rály	-2823
▁soro	-2824
▁éssel	-2825
▁lte	-2826
▁akit	-2827
▁ügyé	-2828
▁tlenü	-2829
▁pill	-2830
▁oka	-2831
▁zra	-2832
▁vízi	-2833
▁Ant	-2834
▁kré	-2835
▁ogy	-2836
▁asszo	-2837
▁zu	-2838
▁ltu	-2839
▁olni	-2840
▁ellem	-2841
▁zés	-2842
▁And	-2843
▁szoci	-2844
▁jelle	-2845
▁szség	-2846
▁2.	-2847
▁kék	-2848
▁Gazd	-2849
▁akat	-2850
▁19	-2851
▁sd	-2852
▁légi	-2853
▁lel	-2854
▁una	-2855
▁ellát	-2856
▁sé	-2857
▁bol	-2858
▁erről	-2859
▁ajnok	-2860
▁ert	-2861
▁entá	-2862
▁kih	-2863
▁spe	-2864
▁gban	-2865
▁ajd	-2866
▁dem	-2867
▁kra	-2868
bo	-2869
▁kora	-2870
▁[	-2871
▁enes	-2872
▁nu	-2873
▁agg	-2874
▁nni	-2875
ber	-2876
▁Má	-2877
▁no	-2878
,5	-2879
▁orma	-2880
▁silla	-2881
▁ágy	-2882
▁ekez	-2883
▁dalmi	-2884
▁tünte	-2885
▁vitá	-2886
▁agyon	-2887
▁ségű	-2888
▁BL	-2889
▁ry	-2890
▁mél	-2891
▁lako	-2892
▁véle	-2893
▁ámol	-2894
▁edés	-2895
▁halt	-2896
▁]	-2897
▁seh	-2898
▁ényle	-2899
▁elnö	-2900
▁rep	-2901
▁zért	-2902
▁emelt	-2903
▁elk	-2904
▁gár	-2905
▁ölt	-2906
▁isza	-2907
▁tása	-2908
▁osí	-2909
▁éles	-2910
II	-2911
▁ncs	-2912
▁zásá	-2913
▁ól	-2914
▁jával	-2915
esí	-2916
▁gá	-2917
▁ljesí	-2918
▁ővé	-2919
▁ium	-2920
▁Ci	-2921
▁irán	-2922
▁isták	-2923
▁kezel	-2924
▁há	-2925
▁imp	-2926
▁lland	-2927
▁obban	-2928
▁yi	-2929
▁éző	-2930
▁drá	-2931
▁rná	-2932
▁igye	-2933
▁észak	-2934
sé	-2935
▁utcá	-2936
▁mokra	-2937
▁100	-2938
▁lla	-2939
▁niká	-2940
▁ügynö	-2941
▁ge	-2942
▁lóg	-2943
▁ajtó	-2944
▁her	-2945
omá	-2946
▁jég	-2947
▁ozott	-2948
▁zvény	-2949
▁SZ	-2950
ében	-2951
▁llé	-2952
▁hisz	-2953
▁tünk	-2954
▁sö	-2955
▁olja	-2956
▁dő	-2957
ca	-2958
▁ogat	-2959
▁tít	-2960
▁zre	-2961
▁áju	-2962
▁sban	-2963
ült	-2964
▁bárm	-2965
▁40	-2966
▁ash	-2967
▁roszo	-2968
ck	-2969
▁atko	-2970
▁bség	-2971
▁só	-2972
▁ail	-2973
▁lték	-2974
▁vill	-2975
▁tiv	-2976
▁tték	-2977
▁Ar	-2978
▁ió	-2979
▁up	-2980
▁zz	-2981
▁eleme	-2982
▁ón	-2983
▁gény	-2984
▁amb	-2985
▁vári	-2986
▁24	-2987
▁Van	-2988
▁uto	-2989
▁tásá	-2990
▁óv	-2991
▁jegye	-2992
▁Wi	-2993
▁ie	-2994
▁ór	-2995
▁lus	-2996
▁áros	-2997
▁ím	-2998
▁izo	-2999
▁yom	-3000
▁sere	-3001
▁lődés	-3002
▁nők	-3003
▁rdő	-3004
▁figy	-3005
▁nny	-3006
▁zva	-3007
▁befo	-3008
▁ente	-3009
▁ségét	-3010
▁ao	-3011
▁omá	-3012
▁leszt	-3013
▁ődik	-3014
MP	-3015
▁akoz	-3016
▁erce	-3017
▁thető	-3018
▁lop	-3019
▁rie	-3020
▁zöl	-3021
▁pe	-3022
▁No	-3023
▁cz	-3024
▁űz	-3025
▁tenge	-3026
▁yugat	-3027
▁ötö	-3028
▁ogás	-3029
▁err	-3030
▁ndex	-3031
▁kos	-3032
▁kkor	-3033
▁elköv	-3034
▁állat	-3035
▁ünt	-3036
▁eke	-3037
▁eret	-3038
▁helye	-3039
▁cc	-3040
▁ttól	-3041
▁22	-3042
▁szülő	-3043
▁ham	-3044
▁rat	-3045
▁zöve	-3046
▁3.	-3047
▁Ang	-3048
▁ace	-3049
▁képz	-3050
▁nder	-3051
▁ruhá	-3052
▁agyom	-3053
▁őszer	-3054
▁21	-3055
▁Hi	-3056
▁ené	-3057
▁szét	-3058
▁olo	-3059
▁becs	-3060
▁kere	-3061
▁ezi	-3062
▁lad	-3063
▁lom	-3064
▁var	-3065
▁anya	-3066
▁nség	-3067
▁teszt	-3068
▁Di	-3069
▁dolo	-3070
▁étől	-3071
▁fogy	-3072
▁ezhet	-3073
▁tenek	-3074
▁ey	-3075
▁pat	-3076
▁tus	-3077
▁üntet	-3078
▁nyek	-3079
▁szava	-3080
▁Er	-3081
▁zzel	-3082
▁épít	-3083
▁he	-3084
▁ekint	-3085
SA	-3086
▁io	-3087
▁ky	-3088
▁ob	-3089
▁szp	-3090
▁ona	-3091
▁ajna	-3092
▁alat	-3093
▁Kis	-3094
▁elől	-3095
▁zé	-3096
▁itel	-3097
▁nger	-3098
▁szob	-3099
▁nó	-3100
▁Hír	-3101
▁tlan	-3102
▁of	-3103
▁ném	-3104
▁sztal	-3105
DP	-3106
▁felv	-3107
▁kelt	-3108
▁szaki	-3109
▁Am	-3110
▁empon	-3111
▁ger	-3112
▁ax	-3113
▁esk	-3114
▁fal	-3115
▁inn	-3116
▁oma	-3117
▁agad	-3118
▁hetne	-3119
ére	-3120
▁ébe	-3121
▁ésére	-3122
▁ettel	-3123
▁felel	-3124
▁adós	-3125
▁ódik	-3126
▁jék	-3127
▁tru	-3128
▁Úgy	-3129
▁tatók	-3130
li	-3131
▁fia	-3132
▁nná	-3133
▁rác	-3134
▁pel	-3135
▁érj	-3136
▁üze	-3137
▁kommu	-3138
▁ndon	-3139
▁éken	-3140
▁egény	-3141
▁őrzés	-3142
ából	-3143
▁poz	-3144
▁jából	-3145
▁szeti	-3146
▁LMP	-3147
▁ate	-3148
▁has	-3149
▁elemz	-3150
▁nyomá	-3151
▁egye	-3152
▁eznek	-3153
▁zták	-3154
▁kapta	-3155
▁aló	-3156
▁ass	-3157
▁imo	-3158
▁ons	-3159
▁vek	-3160
▁ügye	-3161
▁ót	-3162
▁gyö	-3163
▁orú	-3164
▁elvet	-3165
▁ásban	-3166
▁res	-3167
▁if	-3168
▁até	-3169
▁óan	-3170
▁enné	-3171
▁okból	-3172
▁űv	-3173
▁Bor	-3174
▁ama	-3175
▁ttó	-3176
▁Ü	-3177
▁anú	-3178
▁sm	-3179
▁istá	-3180
▁témá	-3181
▁fá	-3182
▁egő	-3183
▁mon	-3184
▁org	-3185
▁sár	-3186
▁oros	-3187
▁rist	-3188
▁mod	-3189
▁mene	-3190
▁zal	-3191
▁eteg	-3192
▁ásos	-3193
▁kem	-3194
▁ítja	-3195
▁össz	-3196
▁ranci	-3197
▁mé	-3198
▁korr	-3199
▁téve	-3200
▁ulás	-3201
▁árul	-3202
▁mérté	-3203
▁napon	-3204
▁rob	-3205
▁tök	-3206
▁yen	-3207
▁harm	-3208
▁sten	-3209
▁kő	-3210
▁ino	-3211
▁szl	-3212
▁zió	-3213
▁arán	-3214
▁műve	-3215
▁rkol	-3216
▁edett	-3217
▁psz	-3218
▁ror	-3219
▁jk	-3220
▁igo	-3221
▁lehe	-3222
▁séget	-3223
▁tanak	-3224
▁nia	-3225
▁tív	-3226
▁ítő	-3227
▁olód	-3228
▁Andr	-3229
▁Ab	-3230
▁egá	-3231
▁ötv	-3232
▁róla	-3233
▁lib	-3234
▁ént	-3235
▁esek	-3236
▁Fr	-3237
▁szon	-3238
DSZ	-3239
▁Kor	-3240
▁izs	-3241
▁őke	-3242
▁alék	-3243
▁niu	-3244
▁lőtt	-3245
▁osa	-3246
▁élt	-3247
▁ilag	-3248
▁szaka	-3249
▁enő	-3250
▁komm	-3251
▁yar	-3252
▁atja	-3253
▁illa	-3254
▁rakoz	-3255
▁gat	-3256
▁gyal	-3257
▁ályok	-3258
▁ancs	-3259
▁bben	-3260
▁tél	-3261
▁éntek	-3262
▁tni	-3263
▁szal	-3264
bl	-3265
▁nna	-3266
▁inak	-3267
▁tják	-3268
▁nor	-3269
▁zam	-3270
▁lefon	-3271
▁faj	-3272
▁lemző	-3273
▁anu	-3274
▁leb	-3275
▁ssé	-3276
▁yőr	-3277
▁itány	-3278
▁1.	-3279
▁KA	-3280
▁vic	-3281
▁etbe	-3282
▁park	-3283
▁aba	-3284
▁des	-3285
▁nék	-3286
▁lista	-3287
▁tm	-3288
▁Du	-3289
▁zg	-3290
▁orna	-3291
▁vető	-3292
▁ef	-3293
▁The	-3294
▁napo	-3295
▁éde	-3296
▁anács	-3297
▁itte	-3298
▁iába	-3299
szn	-3300
▁haszn	-3301
▁vb	-3302
▁ach	-3303
▁osok	-3304
▁adá	-3305
▁ere	-3306
▁ári	-3307
▁elmé	-3308
▁27	-3309
▁telef	-3310
▁amp	-3311
▁uló	-3312
if	-3313
▁ns	-3314
▁árv	-3315
▁elen	-3316
▁mezt	-3317
▁nyh	-3318
▁tró	-3319
▁ozta	-3320
▁23	-3321
▁gó	-3322
▁jj	-3323
▁ibo	-3324
▁epet	-3325
▁ósság	-3326
▁enz	-3327
▁rád	-3328
▁atni	-3329
▁elvé	-3330
▁reme	-3331
▁almat	-3332
▁din	-3333
▁rre	-3334
▁épü	-3335
▁elte	-3336
▁megye	-3337
▁Fő	-3338
▁orn	-3339
▁pir	-3340
▁2,	-3341
▁erék	-3342
▁elkép	-3343
BC	-3344
▁ju	-3345
▁liá	-3346
▁szün	-3347
▁ier	-3348
▁vén	-3349
▁labd	-3350
▁dó	-3351
▁tok	-3352
▁agál	-3353
▁ntik	-3354
▁Dr	-3355
▁Ku	-3356
▁ael	-3357
▁etén	-3358
▁GDP	-3359
▁ztrá	-3360
▁javas	-3361
ani	-3362
▁bir	-3363
▁vás	-3364
▁elsz	-3365
▁Me	-3366
▁jt	-3367
▁200	-3368
▁lód	-3369
▁vin	-3370
▁vő	-3371
▁dor	-3372
▁eri	-3373
▁sad	-3374
▁kezet	-3375
▁nnyit	-3376
▁körny	-3377
▁ésben	-3378
▁észet	-3379
▁To	-3380
▁Kar	-3381
▁ösz	-3382
▁vala	-3383
▁zéke	-3384
▁ada	-3385
▁tva	-3386
▁omás	-3387
▁co	-3388
▁sul	-3389
▁étel	-3390
kőz	-3391
▁űt	-3392
▁dés	-3393
▁zil	-3394
▁ille	-3395
▁érkőz	-3396
▁oss	-3397
▁erep	-3398
▁ségi	-3399
▁km	-3400
▁zí	-3401
▁veg	-3402
▁áss	-3403
kó	-3404
▁Co	-3405
▁iskol	-3406
▁ságra	-3407
▁nné	-3408
▁zök	-3409
▁űk	-3410
▁azá	-3411
▁ajta	-3412
▁onos	-3413
▁taná	-3414
▁ékes	-3415
▁rében	-3416
▁atá	-3417
▁amik	-3418
▁eszi	-3419
▁Mc	-3420
▁ges	-3421
▁mis	-3422
▁rbe	-3423
▁ráz	-3424
▁elfog	-3425
▁udomá	-3426
▁ub	-3427
▁lda	-3428
▁II	-3429
▁áson	-3430
▁rr	-3431
▁Li	-3432
▁anc	-3433
▁obá	-3434
▁%	-3435
▁oll	-3436
▁ács	-3437
▁tikai	-3438
▁gh	-3439
▁nyok	-3440
▁hn	-3441
▁ara	-3442
▁dai	-3443
▁tsz	-3444
▁elés	-3445
▁utató	-3446
▁ian	-3447
▁ofi	-3448
▁tava	-3449
▁probl	-3450
▁égy	-3451
▁Nemze	-3452
▁demok	-3453
▁űvész	-3454
▁rp	-3455
▁eli	-3456
▁piaco	-3457
▁arr	-3458
▁ess	-3459
▁éma	-3460
▁újt	-3461
▁bold	-3462
▁iában	-3463
▁orm	-3464
▁szé	-3465
▁hátr	-3466
▁ékeny	-3467
▁lam	-3468
▁zük	-3469
▁edz	-3470
▁sák	-3471
▁3,	-3472
▁ető	-3473
▁rán	-3474
▁sáv	-3475
mun	-3476
▁Jó	-3477
▁apa	-3478
▁áru	-3479
▁inti	-3480
▁Eb	-3481
▁ugá	-3482
▁teme	-3483
▁mre	-3484
de	-3485
▁2-	-3486
▁eten	-3487
▁lor	-3488
▁lése	-3489
▁lógia	-3490
.,	-3491
▁Ami	-3492
▁napja	-3493
▁yében	-3494
▁őbb	-3495
▁redmé	-3496
▁ással	-3497
▁adja	-3498
▁éget	-3499
▁35	-3500
▁enny	-3501
▁tból	-3502
▁árom	-3503
▁ától	-3504
▁ozni	-3505
▁kozás	-3506
▁ású	-3507
▁ekes	-3508
▁gész	-3509
▁táro	-3510
▁ius	-3511
▁tse	-3512
▁ron	-3513
▁alato	-3514
▁kivál	-3515
▁szert	-3516
hér	-3517
sék	-3518
▁llye	-3519
NP	-3520
▁rra	-3521
▁avas	-3522
▁zárt	-3523
▁mérsé	-3524
▁érhet	-3525
▁érsék	-3526
▁kov	-3527
▁med	-3528
▁fehér	-3529
▁sej	-3530
▁sztel	-3531
▁60	-3532
▁KD	-3533
▁gű	-3534
▁gan	-3535
▁tál	-3536
▁tána	-3537
io	-3538
▁láz	-3539
▁ndi	-3540
▁áv	-3541
▁eik	-3542
▁eve	-3543
▁jap	-3544
▁kál	-3545
▁rad	-3546
▁SZDSZ	-3547
▁tését	-3548
ron	-3549
▁utóbb	-3550
▁tad	-3551
▁attal	-3552
▁ale	-3553
▁dul	-3554
▁gyü	-3555
▁one	-3556
▁kezé	-3557
▁Vi	-3558
▁lko	-3559
▁lhető	-3560
▁1-	-3561
▁nci	-3562
▁idős	-3563
▁ttek	-3564
▁hango	-3565
▁japán	-3566
▁merik	-3567
▁pany	-3568
▁unkat	-3569
au	-3570
▁oru	-3571
▁zté	-3572
▁atár	-3573
▁nket	-3574
▁0,	-3575
▁hús	-3576
▁nel	-3577
▁szön	-3578
▁szerb	-3579
▁élete	-3580
di	-3581
▁alko	-3582
▁lit	-3583
▁tro	-3584
▁ága	-3585
▁nz	-3586
▁ihe	-3587
▁áf	-3588
▁ime	-3589
▁krá	-3590
▁övé	-3591
▁érni	-3592
▁Ni	-3593
▁ph	-3594
▁hir	-3595
▁tért	-3596
▁árol	-3597
▁ókat	-3598
▁26	-3599
▁apá	-3600
▁uli	-3601
▁illi	-3602
▁lójá	-3603
▁ull	-3604
▁médi	-3605
▁zzák	-3606
▁letes	-3607
▁szköz	-3608
▁cu	-3609
▁elle	-3610
▁jogo	-3611
▁téri	-3612
▁aks	-3613
▁mad	-3614
▁eres	-3615
▁pest	-3616
▁Ben	-3617
▁inek	-3618
▁landó	-3619
▁Itt	-3620
▁our	-3621
▁rod	-3622
▁uko	-3623
▁emes	-3624
▁ványo	-3625
▁zba	-3626
▁lege	-3627
▁süt	-3628
▁yel	-3629
▁almá	-3630
▁közt	-3631
▁prof	-3632
▁kifej	-3633
▁okról	-3634
ff	-3635
aki	-3636
end	-3637
▁imm	-3638
▁font	-3639
▁jára	-3640
▁kedő	-3641
▁lható	-3642
▁árosi	-3643
ének	-3644
▁KDNP	-3645
pp	-3646
▁TV	-3647
▁gle	-3648
▁kro	-3649
▁zák	-3650
▁kulá	-3651
▁ht	-3652
▁ero	-3653
▁élv	-3654
▁eksz	-3655
▁mb	-3656
▁rü	-3657
▁otó	-3658
▁ságá	-3659
▁ságát	-3660
▁lyen	-3661
▁ana	-3662
▁zása	-3663
▁örög	-3664
ga	-3665
▁Gu	-3666
▁ndr	-3667
▁ezik	-3668
▁kárt	-3669
▁táma	-3670
▁q	-3671
▁28	-3672
▁go	-3673
▁ített	-3674
▁niá	-3675
▁sof	-3676
▁végi	-3677
▁rn	-3678
▁iba	-3679
▁ska	-3680
▁umi	-3681
▁eltet	-3682
▁3-	-3683
▁gl	-3684
▁oko	-3685
▁záró	-3686
▁atást	-3687
▁óc	-3688
▁blo	-3689
▁ilv	-3690
▁kab	-3691
▁ves	-3692
▁élés	-3693
▁érzé	-3694
▁panyo	-3695
▁ldö	-3696
▁ltö	-3697
▁oki	-3698
▁teg	-3699
▁őz	-3700
▁grá	-3701
▁rca	-3702
▁ína	-3703
▁tható	-3704
▁NA	-3705
▁els	-3706
▁visz	-3707
▁bú	-3708
▁rok	-3709
▁sír	-3710
▁vai	-3711
▁sztrá	-3712
▁ica	-3713
▁háza	-3714
▁rzet	-3715
▁500	-3716
▁érv	-3717
Az	-3718
▁wi	-3719
▁Én	-3720
▁zám	-3721
▁telt	-3722
▁gát	-3723
▁kert	-3724
▁ányi	-3725
▁Ju	-3726
▁eá	-3727
▁ova	-3728
▁ódos	-3729
▁redet	-3730
▁aval	-3731
▁öltö	-3732
▁tatni	-3733
▁iná	-3734
▁nisz	-3735
▁tj	-3736
▁esé	-3737
▁lke	-3738
▁lsó	-3739
▁sto	-3740
▁bru	-3741
▁ikk	-3742
▁élé	-3743
▁mó	-3744
▁ast	-3745
▁mán	-3746
▁átv	-3747
▁lása	-3748
▁tében	-3749
▁dé	-3750
▁riá	-3751
▁hajl	-3752
▁ságot	-3753
▁Ó	-3754
▁evő	-3755
▁amos	-3756
▁szik	-3757
▁ostan	-3758
▁PL	-3759
▁kb	-3760
▁kán	-3761
▁ódosí	-3762
.:	-3763
▁fű	-3764
▁zerv	-3765
▁űn	-3766
▁alán	-3767
▁ezők	-3768
▁onta	-3769
▁akart	-3770
▁rét	-3771
▁ivál	-3772
▁negy	-3773
▁term	-3774
ac	-3775
▁eo	-3776
▁ks	-3777
▁atát	-3778
▁llá	-3779
▁Q	-3780
▁ámolt	-3781
▁Eur	-3782
▁sod	-3783
▁áci	-3784
▁benn	-3785
▁FC	-3786
▁üg	-3787
▁lve	-3788
▁etű	-3789
▁oks	-3790
▁iszti	-3791
▁letet	-3792
▁üs	-3793
▁néh	-3794
▁zelés	-3795
▁ota	-3796
▁uc	-3797
▁ili	-3798
ft	-3799
▁ref	-3800
▁illan	-3801
▁zm	-3802
▁dev	-3803
▁nyt	-3804
▁onz	-3805
▁zsá	-3806
▁latá	-3807
▁rény	-3808
▁zhat	-3809
▁dy	-3810
▁osít	-3811
▁aranc	-3812
▁ze	-3813
▁rin	-3814
▁fesz	-3815
▁rben	-3816
▁ommun	-3817
▁ste	-3818
▁egyet	-3819
▁su	-3820
▁chi	-3821
▁kre	-3822
▁rág	-3823
▁rsen	-3824
▁ósít	-3825
úr	-3826
▁lók	-3827
▁vat	-3828
▁ölé	-3829
▁derü	-3830
▁itele	-3831
udi	-3832
▁neg	-3833
▁ezmé	-3834
▁Do	-3835
▁OT	-3836
▁iss	-3837
▁zon	-3838
▁atják	-3839
▁45	-3840
▁ltó	-3841
▁óbb	-3842
▁ém	-3843
▁oni	-3844
▁etei	-3845
▁sabb	-3846
▁kicsi	-3847
▁közbe	-3848
tak	-3849
▁PK	-3850
▁iza	-3851
▁ermé	-3852
▁esége	-3853
▁laszo	-3854
▁növ	-3855
▁adal	-3856
▁32	-3857
▁lv	-3858
▁oml	-3859
▁ted	-3860
▁etne	-3861
▁ntek	-3862
▁semm	-3863
▁lmény	-3864
▁ktu	-3865
▁felj	-3866
▁atalm	-3867
▁Vá	-3868
▁lál	-3869
▁olták	-3870
▁diá	-3871
▁zív	-3872
▁enne	-3873
▁Ph	-3874
▁ác	-3875
▁táp	-3876
▁felm	-3877
▁nének	-3878
▁ado	-3879
▁alt	-3880
▁ive	-3881
▁eld	-3882
▁gál	-3883
▁iel	-3884
▁zsa	-3885
▁dött	-3886
▁Ti	-3887
▁lük	-3888
▁suk	-3889
▁eked	-3890
▁indi	-3891
▁orra	-3892
▁ster	-3893
▁szto	-3894
▁szán	-3895
▁ánál	-3896
▁ölgy	-3897
▁gyész	-3898
▁uz	-3899
▁300	-3900
▁oli	-3901
▁oto	-3902
▁sse	-3903
▁odott	-3904
▁ztály	-3905
▁nos	-3906
MF	-3907
▁iga	-3908
▁kok	-3909
▁erte	-3910
▁ntéz	-3911
▁szén	-3912
▁bó	-3913
▁óm	-3914
▁csk	-3915
▁met	-3916
▁íná	-3917
▁und	-3918
▁elik	-3919
▁sy	-3920
▁ván	-3921
▁jába	-3922
▁közv	-3923
▁éven	-3924
▁29	-3925
▁eztek	-3926
TE	-3927
▁4.	-3928
▁Mű	-3929
▁gn	-3930
▁MÁ	-3931
▁esse	-3932
▁esté	-3933
▁tság	-3934
▁zetet	-3935
▁Af	-3936
▁ügyv	-3937
▁aik	-3938
▁alo	-3939
▁oká	-3940
▁ono	-3941
▁vad	-3942
▁atol	-3943
▁elni	-3944
▁eves	-3945
▁ikor	-3946
▁król	-3947
▁szár	-3948
▁nat	-3949
▁áns	-3950
▁edé	-3951
▁lél	-3952
▁rság	-3953
▁árja	-3954
▁avaly	-3955
▁ülésé	-3956
▁AP	-3957
▁olgár	-3958
eke	-3959
▁ebe	-3960
▁íti	-3961
▁szol	-3962
▁ságos	-3963
▁émi	-3964
▁zaki	-3965
▁opron	-3966
▁NB	-3967
▁dag	-3968
▁pre	-3969
▁esél	-3970
bi	-3971
▁edd	-3972
▁vaz	-3973
▁orí	-3974
▁zom	-3975
▁közi	-3976
▁kezik	-3977
▁31	-3978
▁80	-3979
▁ito	-3980
▁ádo	-3981
▁etér	-3982
▁tört	-3983
▁letek	-3984
▁Buda	-3985
▁atal	-3986
▁ztán	-3987
cat	-3988
▁erí	-3989
▁gén	-3990
▁mor	-3991
▁yú	-3992
▁ung	-3993
▁urá	-3994
▁korá	-3995
▁erült	-3996
▁vazás	-3997
▁BBC	-3998
▁iát	-3999
▁ltat	-4000
▁ssen	-4001
▁ődés	-4002
ay	-4003
▁OTP	-4004
▁fős	-4005
▁orr	-4006
▁lánc	-4007
▁ováb	-4008
▁éke	-4009
▁ésen	-4010
▁isztá	-4011
▁ondon	-4012
▁ij	-4013
▁ini	-4014
▁átor	-4015
▁Te	-4016
▁dék	-4017
▁sító	-4018
▁atási	-4019
▁erben	-4020
▁iroda	-4021
▁̋	-4022
▁70	-4023
▁MÁV	-4024
▁acs	-4025
▁nőt	-4026
▁lést	-4027
▁tter	-4028
▁urcs	-4029
▁zala	-4030
TO	-4031
▁odá	-4032
▁lmez	-4033
▁művé	-4034
▁óban	-4035
▁ew	-4036
▁rk	-4037
▁bán	-4038
▁kop	-4039
▁rol	-4040
▁ődő	-4041
▁ga	-4042
▁sc	-4043
▁ts	-4044
▁api	-4045
▁tim	-4046
▁IMF	-4047
▁rus	-4048
▁örül	-4049
▁Ny	-4050
▁lim	-4051
▁gyed	-4052
▁llen	-4053
▁ina	-4054
▁nyve	-4055
▁Aki	-4056
▁ólt	-4057
▁eles	-4058
▁ormá	-4059
▁ano	-4060
▁sek	-4061
▁erge	-4062
▁trag	-4063
▁4,	-4064
▁EN	-4065
▁gye	-4066
▁les	-4067
▁tvé	-4068
▁ula	-4069
▁keve	-4070
▁sb	-4071
▁kezés	-4072
▁dv	-4073
▁ój	-4074
▁idé	-4075
▁lít	-4076
▁sék	-4077
▁énk	-4078
▁apos	-4079
▁vers	-4080
▁adalm	-4081
▁atban	-4082
▁rikai	-4083
▁őként	-4084
▁minős	-4085
▁Mon	-4086
▁zol	-4087
▁lete	-4088
▁szeg	-4089
▁ekv	-4090
▁eré	-4091
▁ony	-4092
▁ülön	-4093
zi	-4094
▁xi	-4095
▁anta	-4096
▁állom	-4097
▁Pál	-4098
▁ici	-4099
▁rip	-4100
▁rí	-4101
▁aul	-4102
▁köd	-4103
▁vásár	-4104
▁vj	-4105
▁gyu	-4106
▁zor	-4107
▁oso	-4108
▁ltam	-4109
▁óber	-4110
▁napjá	-4111
▁ivá	-4112
▁36	-4113
▁USA	-4114
▁ars	-4115
▁mir	-4116
▁tiku	-4117
▁Pr	-4118
▁kv	-4119
▁íj	-4120
▁gom	-4121
▁kés	-4122
▁rig	-4123
▁avid	-4124
▁era	-4125
▁sült	-4126
▁téte	-4127
▁vg	-4128
▁wa	-4129
▁zy	-4130
▁con	-4131
▁eme	-4132
▁ogó	-4133
▁cé	-4134
▁che	-4135
▁erek	-4136
▁&	-4137
▁ezeté	-4138
▁kabin	-4139
▁üd	-4140
▁iti	-4141
▁lub	-4142
▁riás	-4143
▁melle	-4144
▁dü	-4145
▁ilo	-4146
▁tje	-4147
▁zín	-4148
▁kerül	-4149
▁Rend	-4150
▁kivá	-4151
▁tató	-4152
▁ladás	-4153
▁90	-4154
▁BM	-4155
▁hor	-4156
▁lmo	-4157
▁óval	-4158
▁adtak	-4159
▁fonto	-4160
▁ans	-4161
▁erz	-4162
▁ánc	-4163
▁edig	-4164
▁lakos	-4165
▁000	-4166
▁ulá	-4167
▁akor	-4168
▁iban	-4169
▁oc	-4170
▁esked	-4171
FK	-4172
▁cá	-4173
▁rl	-4174
▁ame	-4175
▁böz	-4176
▁úcs	-4177
▁edv	-4178
▁lva	-4179
▁zab	-4180
▁ekor	-4181
▁erül	-4182
▁ázta	-4183
▁tej	-4184
▁önt	-4185
▁olva	-4186
▁immár	-4187
▁lid	-4188
▁árá	-4189
▁tere	-4190
▁teti	-4191
ip	-4192
▁ee	-4193
▁dic	-4194
▁iek	-4195
▁szö	-4196
▁ktat	-4197
▁Ce	-4198
▁lep	-4199
▁okr	-4200
▁ras	-4201
▁ázá	-4202
▁usok	-4203
▁etten	-4204
▁tucat	-4205
▁400	-4206
▁tiká	-4207
▁észek	-4208
▁klu	-4209
▁nde	-4210
▁nes	-4211
▁nár	-4212
▁tarta	-4213
▁edi	-4214
▁yene	-4215
▁efekt	-4216
▁teles	-4217
▁Ám	-4218
▁ür	-4219
▁akí	-4220
▁erk	-4221
▁pla	-4222
▁avar	-4223
▁giá	-4224
▁nfl	-4225
▁yer	-4226
▁izet	-4227
▁gul	-4228
▁ddig	-4229
▁elek	-4230
▁óján	-4231
▁edelm	-4232
▁abá	-4233
▁aga	-4234
▁top	-4235
▁rtok	-4236
▁növek	-4237
▁sztán	-4238
id	-4239
ir	-4240
▁eut	-4241
▁tré	-4242
▁éle	-4243
▁ENSZ	-4244
▁iért	-4245
▁nn	-4246
▁ors	-4247
▁yőz	-4248
▁adik	-4249
▁oráb	-4250
▁élte	-4251
▁kozik	-4252
▁üv	-4253
▁nán	-4254
▁graf	-4255
▁nála	-4256
▁tago	-4257
▁zást	-4258
▁etési	-4259
▁=	-4260
nök	-4261
▁olv	-4262
▁lgár	-4263
▁adásá	-4264
▁Mic	-4265
iá	-4266
▁0-	-4267
▁lö	-4268
▁Car	-4269
▁ita	-4270
▁ozza	-4271
▁ragad	-4272
▁4-	-4273
▁apo	-4274
▁rece	-4275
▁esnek	-4276
▁ozhat	-4277
▁33	-4278
▁fig	-4279
▁kit	-4280
▁laz	-4281
▁vei	-4282
▁teres	-4283
▁eat	-4284
▁repü	-4285
▁egyi	-4286
▁zölt	-4287
▁atták	-4288
▁Su	-4289
▁abo	-4290
▁ellá	-4291
▁vező	-4292
▁alv	-4293
▁ikl	-4294
▁ízi	-4295
▁ótá	-4296
▁rják	-4297
▁ítani	-4298
▁zü	-4299
▁etv	-4300
▁tri	-4301
▁FT	-4302
▁lle	-4303
▁lya	-4304
▁ence	-4305
▁téma	-4306
RFK	-4307
▁MK	-4308
▁kba	-4309
▁évé	-4310
▁enko	-4311
íma	-4312
▁app	-4313
▁asi	-4314
▁mil	-4315
▁szű	-4316
▁ránt	-4317
▁megvá	-4318
▁ví	-4319
▁aty	-4320
▁utt	-4321
▁ranc	-4322
▁pt	-4323
▁ilá	-4324
▁latot	-4325
▁ntern	-4326
▁gyá	-4327
▁lli	-4328
▁rug	-4329
▁sso	-4330
▁llít	-4331
▁megm	-4332
▁artin	-4333
FA	-4334
ui	-4335
▁kad	-4336
▁nom	-4337
▁alól	-4338
▁assa	-4339
▁etre	-4340
▁lyan	-4341
▁sság	-4342
▁áraz	-4343
▁szült	-4344
▁nü	-4345
▁Nic	-4346
▁égül	-4347
ződ	-4348
▁oh	-4349
▁itá	-4350
▁mpl	-4351
▁erződ	-4352
▁zatot	-4353
▁bak	-4354
▁mas	-4355
▁zok	-4356
▁erés	-4357
▁rzés	-4358
▁nyzat	-4359
EH	-4360
▁alj	-4361
▁eho	-4362
▁ley	-4363
▁mul	-4364
▁énz	-4365
▁áron	-4366
▁irály	-4367
▁zút	-4368
▁nyét	-4369
▁onál	-4370
▁vent	-4371
▁édi	-4372
▁ltató	-4373
▁rő	-4374
▁kes	-4375
▁nák	-4376
▁őse	-4377
▁enci	-4378
▁Ol	-4379
▁gia	-4380
▁gon	-4381
▁lná	-4382
▁ányá	-4383
▁dönté	-4384
▁igazo	-4385
▁integ	-4386
▁melés	-4387
▁FI	-4388
▁Ke	-4389
▁akk	-4390
▁koló	-4391
▁nban	-4392
▁sszi	-4393
▁árad	-4394
▁enger	-4395
▁építé	-4396
▁KN	-4397
▁iP	-4398
▁Los	-4399
▁Mil	-4400
▁ech	-4401
▁utol	-4402
▁Szi	-4403
▁ali	-4404
▁lér	-4405
▁pap	-4406
▁tta	-4407
▁tün	-4408
▁iről	-4409
SC	-4410
▁75	-4411
▁nc	-4412
▁adók	-4413
▁zban	-4414
▁pő	-4415
▁gne	-4416
▁ins	-4417
▁kém	-4418
▁agyi	-4419
▁rnak	-4420
▁nában	-4421
▁5,	-4422
▁Ft	-4423
▁erm	-4424
▁lto	-4425
▁nti	-4426
▁ájuk	-4427
▁34	-4428
▁Red	-4429
▁tum	-4430
▁tl	-4431
▁MNB	-4432
▁dom	-4433
▁Bá	-4434
▁őj	-4435
▁def	-4436
▁toj	-4437
▁közl	-4438
▁álni	-4439
▁zo	-4440
▁amá	-4441
▁nco	-4442
▁rés	-4443
▁etel	-4444
▁nöke	-4445
▁BU	-4446
▁iku	-4447
▁ram	-4448
▁atók	-4449
▁uház	-4450
▁ca	-4451
▁zed	-4452
▁alál	-4453
▁zato	-4454
▁felté	-4455
▁lóban	-4456
▁sztás	-4457
ox	-4458
▁37	-4459
▁Ex	-4460
▁dig	-4461
▁kut	-4462
▁oy	-4463
▁BMW	-4464
▁riz	-4465
▁gyé	-4466
▁non	-4467
▁lata	-4468
▁rmes	-4469
▁ttség	-4470
▁kn	-4471
▁Sok	-4472
▁dat	-4473
▁lga	-4474
▁oln	-4475
▁raz	-4476
▁osta	-4477
▁szat	-4478
▁özép	-4479
▁arlam	-4480
▁yomoz	-4481
▁ttá	-4482
▁yot	-4483
▁nnek	-4484
▁rivá	-4485
▁szük	-4486
▁gynök	-4487
▁nyire	-4488
▁DV	-4489
▁nus	-4490
▁ülő	-4491
▁eter	-4492
▁gene	-4493
▁nkat	-4494
▁tött	-4495
▁ánya	-4496
▁eszte	-4497
▁sségé	-4498
ót	-4499
▁ean	-4500
▁gét	-4501
▁sko	-4502
▁ende	-4503
▁szan	-4504
▁elhet	-4505
▁soroz	-4506
▁ításá	-4507
▁42	-4508
▁káb	-4509
▁nyá	-4510
▁alon	-4511
▁llami	-4512
▁nálat	-4513
▁zetbe	-4514
▁5.	-4515
▁eto	-4516
▁rát	-4517
▁odik	-4518
▁rika	-4519
▁ései	-4520
▁ülte	-4521
▁aw	-4522
▁dán	-4523
▁ilm	-4524
▁kim	-4525
▁átr	-4526
▁szott	-4527
▁7,	-4528
▁OV	-4529
▁őké	-4530
▁buda	-4531
▁onto	-4532
▁érté	-4533
▁kú	-4534
▁nya	-4535
▁ruh	-4536
▁öző	-4537
▁Audi	-4538
▁együ	-4539
▁iben	-4540
▁ügge	-4541
▁38	-4542
▁Fe	-4543
▁Re	-4544
▁gor	-4545
▁ogo	-4546
▁ncse	-4547
▁nyen	-4548
▁mál	-4549
▁mét	-4550
▁ssa	-4551
▁sük	-4552
▁okba	-4553
▁rajt	-4554
SE	-4555
▁enau	-4556
▁enge	-4557
▁elg	-4558
▁lok	-4559
▁ngs	-4560
▁umb	-4561
▁árás	-4562
▁kg	-4563
▁bic	-4564
▁nen	-4565
▁rga	-4566
▁azás	-4567
▁neke	-4568
▁nyak	-4569
▁klíma	-4570
▁RT	-4571
▁fon	-4572
▁the	-4573
▁uka	-4574
▁elin	-4575
▁6,	-4576
▁yö	-4577
▁150	-4578
▁felf	-4579
▁ilág	-4580
▁kból	-4581
▁lvár	-4582
▁gő	-4583
▁ine	-4584
▁égi	-4585
▁yújt	-4586
ciu	-4587
▁oj	-4588
▁vó	-4589
▁vész	-4590
▁erepe	-4591
▁Bi	-4592
▁WA	-4593
▁bom	-4594
▁ldi	-4595
▁omp	-4596
▁aték	-4597
▁szló	-4598
▁GP	-4599
▁olá	-4600
▁érő	-4601
▁APEH	-4602
▁ncia	-4603
▁pot	-4604
▁rén	-4605
▁sök	-4606
▁vak	-4607
▁onda	-4608
▁önyv	-4609
▁etese	-4610
▁olhat	-4611
▁55	-4612
▁65	-4613
▁ús	-4614
▁ien	-4615
▁sté	-4616
▁ppen	-4617
▁eszti	-4618
▁imá	-4619
▁irt	-4620
▁rdo	-4621
▁digi	-4622
▁gyel	-4623
▁gyedi	-4624
▁Pá	-4625
▁uh	-4626
▁nte	-4627
▁anna	-4628
▁ított	-4629
▁Na	-4630
▁Mag	-4631
▁sés	-4632
▁sét	-4633
▁övő	-4634
▁rany	-4635
▁tene	-4636
▁enciá	-4637
▁hábor	-4638
▁tojás	-4639
▁árciu	-4640
▁ánk	-4641
▁íre	-4642
▁ékos	-4643
mer	-4644
▁nga	-4645
▁ved	-4646
▁áló	-4647
▁íté	-4648
▁képe	-4649
▁poli	-4650
▁űl	-4651
▁erj	-4652
▁sül	-4653
▁észle	-4654
▁Fu	-4655
▁ekek	-4656
▁gett	-4657
▁láng	-4658
▁La	-4659
▁App	-4660
▁sör	-4661
▁éső	-4662
ru	-4663
▁rj	-4664
▁MTV	-4665
▁ndá	-4666
▁ekbe	-4667
▁ritka	-4668
▁ies	-4669
▁kodás	-4670
▁ix	-4671
▁nce	-4672
▁uty	-4673
▁ajno	-4674
▁tériu	-4675
▁Lu	-4676
▁kf	-4677
▁RTL	-4678
▁kin	-4679
▁rjá	-4680
▁inál	-4681
▁otor	-4682
▁adata	-4683
▁Mar	-4684
▁ktől	-4685
▁ssan	-4686
▁ársa	-4687
▁kedve	-4688
▁jal	-4689
▁áma	-4690
▁nfor	-4691
▁nysz	-4692
ügy	-4693
▁zul	-4694
▁abba	-4695
▁tika	-4696
▁ezete	-4697
▁gé	-4698
▁abi	-4699
▁nad	-4700
▁ásf	-4701
▁ósz	-4702
▁ejle	-4703
▁bombá	-4704
▁Míg	-4705
▁gre	-4706
▁ola	-4707
▁zig	-4708
▁rdeke	-4709
▁zk	-4710
▁pet	-4711
▁tésre	-4712
▁6.	-4713
▁ará	-4714
▁gez	-4715
▁ias	-4716
▁iko	-4717
▁nsz	-4718
▁gz	-4719
▁dén	-4720
▁lmi	-4721
▁tax	-4722
▁tog	-4723
▁okol	-4724
▁olit	-4725
▁álta	-4726
▁atásá	-4727
▁erzés	-4728
▁llító	-4729
bbi	-4730
▁rv	-4731
▁kij	-4732
▁arna	-4733
▁lapí	-4734
one	-4735
▁Fa	-4736
▁sű	-4737
▁Szé	-4738
▁umo	-4739
▁áté	-4740
▁játs	-4741
▁kszer	-4742
▁ségbe	-4743
up	-4744
wn	-4745
▁dj	-4746
▁bin	-4747
▁fer	-4748
▁ire	-4749
▁nda	-4750
▁ned	-4751
▁pás	-4752
▁tab	-4753
▁ájá	-4754
▁szta	-4755
▁argen	-4756
▁eljár	-4757
▁Bx	-4758
▁edt	-4759
▁iak	-4760
▁ósí	-4761
▁izto	-4762
▁negye	-4763
▁EB	-4764
▁So	-4765
▁Mik	-4766
▁Mit	-4767
▁rge	-4768
▁áró	-4769
▁dalm	-4770
▁nész	-4771
▁zerb	-4772
▁bj	-4773
▁ski	-4774
▁tba	-4775
▁erez	-4776
▁giai	-4777
▁mlék	-4778
▁mész	-4779
▁gazga	-4780
▁osabb	-4781
▁lc	-4782
▁aha	-4783
▁den	-4784
▁imi	-4785
▁lic	-4786
▁rök	-4787
▁tas	-4788
▁áli	-4789
▁örny	-4790
▁amint	-4791
▁anuár	-4792
▁kapac	-4793
▁ítják	-4794
▁EP	-4795
▁imn	-4796
▁rke	-4797
▁gyar	-4798
▁	-4799
e	-4800
a	-4801
t	-4802
l	-4803
s	-4804
n	-4805
k	-4806
r	-4807
i	-4808
z	-4809
o	-4810
á	-4811
é	-4812
g	-4813
m	-4814
y	-4815
b	-4816
d	-4817
v	-4818
,	-4819
h	-4820
j	-4821
p	-4822
ó	-4823
ö	-4824
u	-4825
ő	-4826
.	-4827
f	-4828
c	-4829
í	-4830
-	-4831
ü	-4832
A	-4833
ú	-4834
0	-4835
M	-4836
1	-4837
S	-4838
2	-4839
ű	-4840
B	-4841
K	-4842
E	-4843
:	-4844
"	-4845
N	-4846
T	-4847
P	-4848
F	-4849
H	-4850
3	-4851
)	-4852
5	-4853
(	-4854
V	-4855
I	-4856
C	-4857
L	-4858
D	-4859
G	-4860
4	-4861
9	-4862
R	-4863
6	-4864
8	-4865
O	-4866
7	-4867
J	-4868
Z	-4869
x	-4870
w	-4871
U	-4872
?	-4873
W	-4874
Á	-4875
É	-4876
!	-4877
/	-4878
;	-4879
Ú	-4880
X	-4881
Ö	-4882
Y	-4883
Í	-4884
'	-4885
+	-4886
q	-4887
Ő	-4888
[	-4889
]	-4890
Ü	-4891
%	-4892
Q	-4893
Ó	-4894
&	-4895
̋	-4896
=	-4897
ä	-4898
#	-4899
>	-4900
_	-4901
•	-4902
*	-4903
−	-4904
­	-4905
$	-4906
©	-4907
@	-4908
Ű	-4909
ë	-4910
õ	-4911
ć	-4912
§	-4913
à	-4914
×	-4915
è	-4916
č	-4917
	-4918
ô	-4919
š	-4920
‭	-4921
Š	-4922
‬	-4923
ă	-4924
†	-4925
<	-4926
ç	-4927
~	-4928
ñ	-4929
£	-4930
°	-4931
û	-4932
\	-4933
â	-4934
ß	-4935
ý	-4936
`	-4937
ø	-4938
ł	-4939
ń	-4940
	-4941
Č	-4942
ş	-4943
ţ	-4944
⁄	-4945
	-4946
	-4947
È	-4948
Ž	-4949
ž	-4950
¬	-4951
®	-4952
±	-4953
å	-4954
ò	-4955
ň	-4956
̈	-4957
‒	-4958
^	-4959
	-4960
·	-4961
Ä	-4962
ã	-4963
ì	-4964
ï	-4965
ÿ	-4966
Đ	-4967
ť	-4968
ה	-4969
′	-4970
€	-4971
≤	-4972
Å	-4973
æ	-4974
ê	-4975
î	-4976
ð	-4977
ą	-4978
Ć	-4979
đ	-4980
ę	-4981
ı	-4982
ř	-4983
Ś	-4984
ś	-4985
Ţ	-4986
Ť	-4987
ů	-4988
ż	-4989
ș	-4990
λ	-4991
μ	-4992
ї	-4993
ו	-4994
י	-4995
∗	-4996
