<unk>	0
<s>	0
</s>	0
▁a	-0
sz	-1
el	-2
▁k	-3
▁m	-4
et	-5
en	-6
gy	-7
er	-8
▁t	-9
▁h	-10
at	-11
an	-12
▁v	-13
al	-14
▁n	-15
és	-16
▁,	-17
ek	-18
▁sz	-19
▁f	-20
▁e	-21
▁az	-22
or	-23
ár	-24
in	-25
on	-26
ol	-27
ál	-28
ak	-29
ás	-30
em	-31
▁A	-32
eg	-33
▁b	-34
▁i	-35
án	-36
es	-37
▁l	-38
tt	-39
ér	-40
ok	-41
▁el	-42
én	-43
▁.	-44
ar	-45
ik	-46
ég	-47
ez	-48
cs	-49
▁r	-50
os	-51
▁p	-52
▁s	-53
▁j	-54
bb	-55
▁és	-56
át	-57
▁-	-58
ül	-59
▁ho	-60
ett	-61
ít	-62
ág	-63
él	-64
▁kö	-65
ap	-66
▁egy	-67
▁meg	-68
ét	-69
int	-70
ék	-71
ott	-72
oz	-73
▁is	-74
▁hogy	-75
▁d	-76
▁M	-77
il	-78
ed	-79
ban	-80
is	-81
agy	-82
ben	-83
szt	-84
it	-85
ut	-86
ad	-87
om	-88
▁nem	-89
ól	-90
as	-91
▁cs	-92
am	-93
▁szer	-94
ul	-95
ség	-96
▁S	-97
ni	-98
ák	-99
og	-100
ta	-101
ány	-102
ai	-103
▁ki	-104
ény	-105
áll	-106
ép	-107
aj	-108
▁fel	-109
▁köz	-110
▁1	-111
áz	-112
ja	-113
▁B	-114
▁E	-115
ely	-116
▁le	-117
▁K	-118
▁2	-119
év	-120
az	-121
ig	-122
ag	-123
re	-124
ért	-125
ész	-126
ot	-127
ent	-128
iz	-129
ra	-130
ör	-131
nk	-132
▁am	-133
▁ak	-134
▁"	-135
ság	-136
ám	-137
▁al	-138
olt	-139
▁be	-140
ől	-141
het	-142
▁ez	-143
ny	-144
end	-145
ci	-146
▁Az	-147
ell	-148
ind	-149
▁H	-150
▁(	-151
▁N	-152
nak	-153
▁g	-154
ön	-155
ált	-156
▁ny	-157
ök	-158
▁T	-159
us	-160
▁F	-161
od	-162
▁ú	-163
▁gy	-164
ató	-165
▁év	-166
▁P	-167
ír	-168
art	-169
▁áll	-170
nek	-171
ond	-172
öl	-173
ont	-174
len	-175
ud	-176
szer	-177
ur	-178
▁G	-179
▁V	-180
▁de	-181
uk	-182
egy	-183
unk	-184
▁for	-185
ab	-186
oly	-187
▁c	-188
▁szerint	-189
ber	-190
te	-191
ös	-192
▁ut	-193
▁kor	-194
av	-195
▁ü	-196
▁L	-197
▁C	-198
ezet	-199
▁volt	-200
ött	-201
▁ér	-202
▁jel	-203
szág	-204
ev	-205
ők	-206
agyar	-207
▁rend	-208
▁leg	-209
vet	-210
ov	-211
▁elő	-212
att	-213
ában	-214
▁20	-215
öbb	-216
▁már	-217
▁D	-218
ill	-219
▁I	-220
▁R	-221
ország	-222
▁id	-223
▁ad	-224
▁em	-225
▁val	-226
ep	-227
▁ter	-228
ább	-229
▁Sz	-230
ej	-231
ős	-232
▁mi	-233
▁ok	-234
▁mind	-235
▁hely	-236
▁ker	-237
ént	-238
id	-239
öz	-240
▁át	-241
▁er	-242
kor	-243
est	-244
atás	-245
▁több	-246
áb	-247
ült	-248
▁J	-249
ert	-250
úl	-251
▁szám	-252
ében	-253
▁:	-254
▁nagy	-255
esz	-256
olg	-257
▁es	-258
zet	-259
▁3	-260
▁még	-261
ük	-262
ív	-263
aszt	-264
alm	-265
mány	-266
▁z	-267
ók	-268
éd	-269
▁azt	-270
▁kap	-271
ály	-272
eket	-273
áv	-274
elm	-275
▁tör	-276
ette	-277
let	-278
um	-279
▁csak	-280
iv	-281
▁ha	-282
▁tart	-283
árt	-284
▁kell	-285
▁száz	-286
ia	-287
obb	-288
▁lehet	-289
áj	-290
▁tud	-291
▁mint	-292
▁hoz	-293
ei	-294
őr	-295
ós	-296
▁né	-297
ára	-298
elő	-299
▁van	-300
▁amely	-301
öv	-302
eszt	-303
koz	-304
ítás	-305
▁O	-306
▁vagy	-307
kez	-308
▁más	-309
össz	-310
▁ért	-311
▁vál	-312
iszt	-313
▁nak	-314
▁sem	-315
▁két	-316
▁mag	-317
▁él	-318
ony	-319
ort	-320
▁fog	-321
▁nek	-322
▁vég	-323
▁kép	-324
▁pr	-325
▁ar	-326
isz	-327
illi	-328
▁ellen	-329
ső	-330
ajd	-331
hat	-332
▁mond	-333
▁össz	-334
alék	-335
▁biz	-336
ély	-337
ző	-338
mény	-339
▁új	-340
▁hat	-341
▁il	-342
ch	-343
ín	-344
kal	-345
▁en	-346
tet	-347
▁százalék	-348
▁ig	-349
ának	-350
▁u	-351
▁magyar	-352
▁ol	-353
▁)	-354
ve	-355
ód	-356
ják	-357
ület	-358
▁tel	-359
okat	-360
ebb	-361
nök	-362
ított	-363
ése	-364
íz	-365
ult	-366
edig	-367
▁4	-368
▁ó	-369
▁milli	-370
ir	-371
op	-372
éz	-373
ció	-374
▁szem	-375
ug	-376
▁jelent	-377
leg	-378
ható	-379
▁kül	-380
eh	-381
▁ban	-382
dés	-383
na	-384
▁an	-385
▁mű	-386
ba	-387
▁pedig	-388
▁rész	-389
im	-390
áros	-391
ikai	-392
asz	-393
▁után	-394
be	-395
ilág	-396
▁kez	-397
elt	-398
ének	-399
▁200	-400
▁nap	-401
▁kör	-402
▁5	-403
aság	-404
▁munk	-405
▁in	-406
vény	-407
▁vezet	-408
▁azon	-409
ani	-410
▁ját	-411
▁forint	-412
▁minden	-413
ót	-414
esen	-415
gyan	-416
▁tár	-417
je	-418
eny	-419
▁re	-420
▁vis	-421
▁tal	-422
ád	-423
ére	-424
ost	-425
▁í	-426
▁majd	-427
00	-428
zés	-429
▁ember	-430
▁kormány	-431
ával	-432
uró	-433
ális	-434
▁szak	-435
abb	-436
emény	-437
▁alap	-438
▁lesz	-439
ob	-440
lan	-441
▁ár	-442
▁ek	-443
▁ra	-444
azd	-445
ém	-446
ján	-447
▁első	-448
▁ö	-449
tak	-450
va	-451
▁követ	-452
ást	-453
önt	-454
▁han	-455
enn	-456
▁Magyar	-457
▁miatt	-458
nap	-459
ügy	-460
▁Z	-461
énz	-462
kö	-463
ember	-464
▁19	-465
▁Ez	-466
ked	-467
yen	-468
▁Egy	-469
▁bel	-470
▁ügy	-471
▁ország	-472
▁tört	-473
▁úgy	-474
▁fi	-475
olyan	-476
▁vissz	-477
▁hét	-478
▁fő	-479
▁ír	-480
▁között	-481
ri	-482
etlen	-483
▁sor	-484
▁világ	-485
vel	-486
▁ind	-487
ló	-488
▁ugyan	-489
▁állam	-490
▁aki	-491
ikus	-492
nál	-493
fi	-494
ház	-495
▁így	-496
▁ép	-497
hoz	-498
▁lát	-499
vezet	-500
▁sok	-501
▁foly	-502
▁min	-503
▁6	-504
▁vált	-505
ési	-506
ést	-507
▁mert	-508
ünk	-509
ölt	-510
▁mondta	-511
▁int	-512
ások	-513
▁kis	-514
▁olyan	-515
jel	-516
köz	-517
▁idő	-518
▁elm	-519
▁akkor	-520
▁kész	-521
étel	-522
öld	-523
▁hal	-524
atal	-525
ers	-526
▁igaz	-527
ász	-528
ovább	-529
által	-530
▁kér	-531
▁választ	-532
▁saj	-533
árom	-534
ezett	-535
osan	-536
▁W	-537
ím	-538
▁tan	-539
▁Nem	-540
▁tám	-541
mer	-542
íj	-543
nyi	-544
▁szab	-545
▁bizt	-546
ező	-547
ták	-548
utó	-549
▁egyik	-550
ossz	-551
▁alk	-552
árm	-553
▁csap	-554
ács	-555
olit	-556
eb	-557
▁jog	-558
atok	-559
▁azonban	-560
▁?	-561
any	-562
▁An	-563
árd	-564
ic	-565
▁tovább	-566
nok	-567
▁ir	-568
▁kezd	-569
osz	-570
▁mell	-571
▁ami	-572
▁ked	-573
óz	-574
▁pénz	-575
adás	-576
ról	-577
tel	-578
un	-579
▁201	-580
▁fej	-581
lt	-582
▁fér	-583
kel	-584
oszt	-585
eni	-586
▁valam	-587
▁7	-588
for	-589
azdaság	-590
▁hozz	-591
űn	-592
ikor	-593
▁ról	-594
ási	-595
▁való	-596
▁érd	-597
atkoz	-598
▁eset	-599
▁illet	-600
▁U	-601
ran	-602
tat	-603
tó	-604
▁jó	-605
▁most	-606
▁vár	-607
▁elnök	-608
fel	-609
hető	-610
uróp	-611
ki	-612
▁telj	-613
lő	-614
állal	-615
▁8	-616
▁nev	-617
▁hi	-618
0-	-619
almaz	-620
éter	-621
▁által	-622
▁dönt	-623
zel	-624
▁kapcs	-625
izet	-626
ün	-627
pont	-628
▁é	-629
gész	-630
izs	-631
ván	-632
eng	-633
st	-634
▁három	-635
ító	-636
▁ő	-637
▁pont	-638
ozás	-639
▁külön	-640
▁Cs	-641
▁polit	-642
szak	-643
ati	-644
val	-645
▁ed	-646
ített	-647
▁vissza	-648
▁Á	-649
▁rendőr	-650
▁per	-651
eti	-652
▁ben	-653
arad	-654
fő	-655
▁nél	-656
▁É	-657
jt	-658
old	-659
▁élet	-660
eked	-661
▁ered	-662
incs	-663
▁arra	-664
▁visz	-665
▁korább	-666
▁jelen	-667
ülés	-668
▁vezető	-669
▁előtt	-670
▁sik	-671
▁szó	-672
port	-673
ozat	-674
áció	-675
▁szint	-676
▁össze	-677
tár	-678
oló	-679
ítés	-680
ről	-681
elmi	-682
hez	-683
▁mér	-684
▁szerep	-685
▁nyil	-686
▁Or	-687
▁men	-688
ozó	-689
▁millió	-690
▁dolg	-691
lat	-692
▁cím	-693
▁term	-694
ört	-695
oll	-696
up	-697
▁egész	-698
▁ott	-699
▁jár	-700
ből	-701
▁ah	-702
▁gond	-703
ck	-704
▁kon	-705
and	-706
alom	-707
ing	-708
ög	-709
▁cég	-710
▁kapcsol	-711
SZ	-712
▁történ	-713
▁társ	-714
▁nő	-715
▁vol	-716
vis	-717
▁besz	-718
dig	-719
▁9	-720
▁éves	-721
tek	-722
▁á	-723
▁Gy	-724
pr	-725
últ	-726
▁har	-727
▁rendszer	-728
▁öt	-729
izsg	-730
ével	-731
éld	-732
▁kom	-733
▁talál	-734
▁von	-735
ozott	-736
fog	-737
tatás	-738
▁költ	-739
▁on	-740
▁gyer	-741
ogy	-742
▁fél	-743
őz	-744
kül	-745
véd	-746
▁volna	-747
▁Al	-748
▁játék	-749
▁tag	-750
▁lak	-751
ökk	-752
lam	-753
lal	-754
▁ezt	-755
▁ezer	-756
▁siker	-757
▁párt	-758
jár	-759
▁érdek	-760
▁milliárd	-761
▁et	-762
▁alatt	-763
▁érték	-764
ból	-765
▁or	-766
díj	-767
ilm	-768
ezés	-769
▁másod	-770
úly	-771
▁illetve	-772
enc	-773
ába	-774
▁teljes	-775
ter	-776
▁ként	-777
ajnok	-778
▁ból	-779
▁csapat	-780
▁nyug	-781
▁ház	-782
▁hasz	-783
▁mellett	-784
▁haj	-785
▁seg	-786
▁péld	-787
hely	-788
▁ford	-789
oh	-790
▁hó	-791
▁Magyarország	-792
író	-793
ex	-794
▁kat	-795
eli	-796
őség	-797
▁keres	-798
ezte	-799
▁akik	-800
usz	-801
ütt	-802
gg	-803
adó	-804
uár	-805
gató	-806
▁vers	-807
ása	-808
üt	-809
▁amikor	-810
kol	-811
▁jöv	-812
omb	-813
idesz	-814
▁hang	-815
erikai	-816
▁vállal	-817
▁négy	-818
ként	-819
után	-820
ram	-821
elés	-822
juk	-823
ából	-824
elet	-825
atott	-826
iai	-827
▁törvény	-828
elem	-829
szerű	-830
▁par	-831
▁pály	-832
▁In	-833
▁támog	-834
▁szól	-835
enek	-836
▁közl	-837
▁rá	-838
▁férfi	-839
▁biztos	-840
▁mód	-841
▁Ha	-842
of	-843
▁üz	-844
vas	-845
enne	-846
tr	-847
iszter	-848
▁gazdaság	-849
▁nyom	-850
▁vizsg	-851
kép	-852
▁lép	-853
▁véd	-854
ór	-855
▁csökk	-856
▁jav	-857
▁vesz	-858
ors	-859
séges	-860
▁nemzet	-861
▁haz	-862
▁marad	-863
▁tól	-864
kod	-865
jelent	-866
le	-867
város	-868
▁nál	-869
▁együtt	-870
▁ment	-871
udap	-872
udapest	-873
▁csal	-874
atlan	-875
ium	-876
szín	-877
▁mut	-878
▁verseny	-879
ió	-880
▁lett	-881
zs	-882
gel	-883
ester	-884
▁képvis	-885
▁autó	-886
▁amerikai	-887
ölte	-888
▁tav	-889
omány	-890
osság	-891
▁következ	-892
ocs	-893
tal	-894
ub	-895
▁szolg	-896
urópai	-897
íg	-898
▁túl	-899
▁ít	-900
észt	-901
▁terv	-902
▁erős	-903
1-	-904
▁cél	-905
▁kil	-906
▁nagyon	-907
ték	-908
▁kut	-909
form	-910
▁jobb	-911
ábor	-912
▁szín	-913
ip	-914
álat	-915
áci	-916
▁!	-917
őt	-918
▁te	-919
avaz	-920
▁nincs	-921
eres	-922
ját	-923
ant	-924
ass	-925
▁hanem	-926
▁kapcsolat	-927
▁),	-928
▁eredmény	-929
uló	-930
▁helyzet	-931
▁dél	-932
esség	-933
▁ilyen	-934
▁személy	-935
▁figy	-936
▁film	-937
üntet	-938
▁út	-939
▁megy	-940
▁at	-941
▁hisz	-942
▁től	-943
▁növ	-944
▁bet	-945
oport	-946
▁ism	-947
all	-948
▁vél	-949
ügyi	-950
ogram	-951
▁kar	-952
vány	-953
▁ről	-954
ánt	-955
ec	-956
ilyen	-957
▁hiv	-958
▁15	-959
▁MN	-960
▁hír	-961
aly	-962
▁ét	-963
inek	-964
ang	-965
dő	-966
▁kev	-967
▁azért	-968
pen	-969
▁szerző	-970
ések	-971
▁város	-972
▁közölte	-973
ügg	-974
ason	-975
lás	-976
▁szük	-977
▁segít	-978
▁kív	-979
▁kérdés	-980
▁10	-981
▁vas	-982
▁bef	-983
▁körül	-984
ául	-985
▁".	-986
ef	-987
▁hozzá	-988
▁kam	-989
▁het	-990
mad	-991
▁költség	-992
anak	-993
só	-994
▁műkö	-995
ób	-996
rend	-997
▁tett	-998
▁0	-999
rit	-1000
▁lét	-1001
▁itt	-1002
dal	-1003
zett	-1004
hon	-1005
▁eml	-1006
▁határ	-1007
▁második	-1008
▁tér	-1009
▁Fidesz	-1010
▁ahol	-1011
▁akar	-1012
erg	-1013
uszt	-1014
éntek	-1015
ítani	-1016
▁kés	-1017
▁viszont	-1018
ern	-1019
▁jövő	-1020
öm	-1021
tor	-1022
▁nélkül	-1023
▁eddig	-1024
▁Mi	-1025
ontos	-1026
▁jut	-1027
▁ba	-1028
▁foglal	-1029
vár	-1030
ásár	-1031
▁kerül	-1032
ne	-1033
▁abb	-1034
▁ezért	-1035
▁annak	-1036
▁any	-1037
▁ők	-1038
nyv	-1039
ink	-1040
enni	-1041
úz	-1042
▁szeret	-1043
▁terület	-1044
tart	-1045
▁lap	-1046
▁bizony	-1047
▁El	-1048
▁12	-1049
▁alak	-1050
▁pia	-1051
▁közel	-1052
▁olvas	-1053
ista	-1054
▁hónap	-1055
▁MNO	-1056
éb	-1057
ékoz	-1058
▁ném	-1059
▁forg	-1060
▁ebb	-1061
vétel	-1062
▁ismer	-1063
▁uk	-1064
▁intéz	-1065
lát	-1066
övet	-1067
észet	-1068
bbi	-1069
▁szabad	-1070
▁saját	-1071
▁ne	-1072
▁ből	-1073
▁százalékkal	-1074
▁reg	-1075
▁negy	-1076
ször	-1077
▁például	-1078
▁jelenleg	-1079
ha	-1080
▁miniszter	-1081
ess	-1082
akor	-1083
íróság	-1084
▁száll	-1085
▁arról	-1086
▁játsz	-1087
▁program	-1088
ája	-1089
▁tiszt	-1090
▁csoport	-1091
▁bal	-1092
▁pár	-1093
dik	-1094
▁Nagy	-1095
ord	-1096
▁táv	-1097
▁család	-1098
▁beszél	-1099
▁jegy	-1100
▁ma	-1101
fél	-1102
▁került	-1103
ist	-1104
▁vel	-1105
▁valamint	-1106
▁ugyanis	-1107
cia	-1108
ájékoz	-1109
▁szerd	-1110
▁18	-1111
▁amit	-1112
▁fizet	-1113
▁tavaly	-1114
▁Köz	-1115
ika	-1116
ottság	-1117
sal	-1118
▁óta	-1119
▁mely	-1120
rás	-1121
esebb	-1122
égi	-1123
▁hagy	-1124
leszt	-1125
nagy	-1126
oci	-1127
föld	-1128
▁ja	-1129
▁ának	-1130
▁szabály	-1131
hány	-1132
▁ön	-1133
almas	-1134
▁ál	-1135
▁ének	-1136
▁ot	-1137
örtök	-1138
ütörtök	-1139
ően	-1140
▁emel	-1141
▁közös	-1142
ver	-1143
ekben	-1144
▁ás	-1145
▁oldal	-1146
▁alapján	-1147
ac	-1148
▁hétfő	-1149
közi	-1150
▁gondol	-1151
onság	-1152
▁Budapest	-1153
út	-1154
..	-1155
elnök	-1156
▁munka	-1157
ulajd	-1158
itel	-1159
▁használ	-1160
itk	-1161
ró	-1162
▁hason	-1163
▁oszt	-1164
▁korábban	-1165
dött	-1166
▁hiszen	-1167
▁rendőrség	-1168
▁másik	-1169
▁elmond	-1170
▁számára	-1171
ették	-1172
▁hez	-1173
▁tek	-1174
▁hát	-1175
ozz	-1176
▁ör	-1177
▁irány	-1178
sel	-1179
▁én	-1180
▁Er	-1181
▁perc	-1182
▁kedd	-1183
▁szavaz	-1184
lott	-1185
▁ség	-1186
▁felt	-1187
olc	-1188
▁hossz	-1189
▁jól	-1190
▁péntek	-1191
▁tulajd	-1192
▁azok	-1193
ark	-1194
▁euró	-1195
▁tárgy	-1196
▁kl	-1197
jobb	-1198
▁Nemzet	-1199
zi	-1200
zal	-1201
▁gól	-1202
essz	-1203
▁lehetőség	-1204
ította	-1205
mű	-1206
ús	-1207
▁csütörtök	-1208
▁című	-1209
▁Meg	-1210
telen	-1211
▁neh	-1212
▁százalékos	-1213
ari	-1214
ánd	-1215
▁csökkent	-1216
lag	-1217
ata	-1218
▁közül	-1219
▁képviselő	-1220
lés	-1221
nél	-1222
▁ór	-1223
ológ	-1224
mi	-1225
▁test	-1226
▁érkez	-1227
▁;	-1228
▁okat	-1229
▁harmad	-1230
▁negyed	-1231
▁De	-1232
tató	-1233
anuár	-1234
áló	-1235
ttal	-1236
▁2010	-1237
▁Ú	-1238
▁doll	-1239
▁folyam	-1240
▁elem	-1241
ője	-1242
szab	-1243
▁kedv	-1244
▁Mind	-1245
újt	-1246
▁moz	-1247
▁lenne	-1248
▁nyilatkoz	-1249
nagyobb	-1250
▁felh	-1251
öt	-1252
hu	-1253
▁késő	-1254
▁nyilván	-1255
▁akár	-1256
oda	-1257
▁amelyek	-1258
▁szerv	-1259
▁alkot	-1260
alak	-1261
▁aján	-1262
orv	-1263
ulás	-1264
▁16	-1265
▁megh	-1266
▁elv	-1267
▁tulajdon	-1268
▁nyugdíj	-1269
▁1,	-1270
▁hivatal	-1271
▁szervezet	-1272
ay	-1273
űz	-1274
▁önk	-1275
▁gyerek	-1276
▁bűn	-1277
▁fiatal	-1278
▁legjobb	-1279
új	-1280
▁legnagyobb	-1281
ven	-1282
▁Ny	-1283
▁néhány	-1284
▁víz	-1285
▁adó	-1286
lament	-1287
sége	-1288
▁fut	-1289
▁dec	-1290
▁míg	-1291
▁kellett	-1292
min	-1293
ségi	-1294
▁utol	-1295
▁ára	-1296
▁magas	-1297
▁német	-1298
▁25	-1299
▁ük	-1300
ítő	-1301
▁zs	-1302
▁Szer	-1303
▁december	-1304
érték	-1305
▁Ch	-1306
▁rendel	-1307
▁során	-1308
árs	-1309
▁hatás	-1310
atot	-1311
▁elmúlt	-1312
súly	-1313
▁tesz	-1314
ard	-1315
▁szemben	-1316
jabb	-1317
abd	-1318
▁jelentős	-1319
▁bar	-1320
▁tíz	-1321
▁tartott	-1322
▁ezek	-1323
▁január	-1324
▁st	-1325
ését	-1326
▁ink	-1327
árnap	-1328
ull	-1329
gyű	-1330
ong	-1331
ma	-1332
sor	-1333
▁megsz	-1334
▁11	-1335
okban	-1336
aton	-1337
▁nagyobb	-1338
előtt	-1339
őzés	-1340
nal	-1341
ején	-1342
▁sport	-1343
▁foglalkoz	-1344
ivel	-1345
▁hiány	-1346
assz	-1347
▁egym	-1348
ülő	-1349
▁...	-1350
▁azzal	-1351
ro	-1352
▁nép	-1353
▁győz	-1354
▁elég	-1355
▁raj	-1356
▁gyors	-1357
▁sp	-1358
eztet	-1359
▁ság	-1360
obl	-1361
▁eng	-1362
▁And	-1363
▁megáll	-1364
▁elt	-1365
csak	-1366
▁korábbi	-1367
lik	-1368
▁piac	-1369
▁szél	-1370
▁körny	-1371
ene	-1372
bán	-1373
▁csat	-1374
von	-1375
▁részt	-1376
▁köt	-1377
▁egyéb	-1378
▁17	-1379
▁Ar	-1380
▁aut	-1381
▁dolgoz	-1382
▁támogatás	-1383
ib	-1384
▁legy	-1385
▁rom	-1386
ói	-1387
zat	-1388
▁gazdasági	-1389
▁Fer	-1390
▁fogy	-1391
▁elmondta	-1392
ejt	-1393
élet	-1394
▁hasonló	-1395
▁szoci	-1396
▁bár	-1397
▁rep	-1398
▁kit	-1399
ászló	-1400
szám	-1401
▁föld	-1402
▁tekint	-1403
ettek	-1404
▁kín	-1405
▁bank	-1406
▁gyakor	-1407
sze	-1408
▁emlék	-1409
ános	-1410
▁fontos	-1411
▁megfel	-1412
oblém	-1413
▁ezzel	-1414
nő	-1415
▁unk	-1416
▁ható	-1417
itány	-1418
ics	-1419
▁13	-1420
.)	-1421
▁ám	-1422
▁vannak	-1423
eit	-1424
der	-1425
▁szen	-1426
ormány	-1427
▁problém	-1428
zék	-1429
▁mivel	-1430
▁szolgált	-1431
▁elfog	-1432
jai	-1433
▁14	-1434
eccs	-1435
▁kif	-1436
▁tette	-1437
áról	-1438
▁kal	-1439
▁sér	-1440
▁néz	-1441
séget	-1442
nny	-1443
ezni	-1444
▁könyv	-1445
▁mindig	-1446
▁2009	-1447
▁alá	-1448
▁gép	-1449
▁ával	-1450
▁tájékoz	-1451
▁parlament	-1452
▁nyolc	-1453
▁polg	-1454
▁egyes	-1455
land	-1456
▁idén	-1457
eset	-1458
▁prób	-1459
▁érint	-1460
▁En	-1461
eget	-1462
▁fok	-1463
▁ész	-1464
▁teh	-1465
▁esz	-1466
▁fran	-1467
▁MSZ	-1468
▁költségvet	-1469
mek	-1470
▁gyan	-1471
▁adott	-1472
▁inform	-1473
▁adat	-1474
ítette	-1475
▁történt	-1476
etem	-1477
ür	-1478
▁eljár	-1479
▁MT	-1480
okr	-1481
▁els	-1482
▁rossz	-1483
ekt	-1484
▁kereszt	-1485
▁vasárnap	-1486
▁erő	-1487
▁elnöke	-1488
ovember	-1489
▁kapott	-1490
▁különb	-1491
li	-1492
▁javas	-1493
▁felel	-1494
▁Ist	-1495
▁hazai	-1496
▁közép	-1497
alt	-1498
ock	-1499
▁őket	-1500
▁szerződés	-1501
▁meccs	-1502
▁utolsó	-1503
▁László	-1504
▁voltak	-1505
lin	-1506
▁milyen	-1507
bajnok	-1508
▁enged	-1509
▁fr	-1510
leges	-1511
▁bajnok	-1512
acs	-1513
▁Ál	-1514
évő	-1515
▁újra	-1516
▁zár	-1517
úr	-1518
▁vásár	-1519
mér	-1520
▁inkább	-1521
▁ünk	-1522
▁Ö	-1523
▁gyű	-1524
▁kötel	-1525
▁MSZP	-1526
▁199	-1527
ítja	-1528
lov	-1529
▁vez	-1530
▁rendelkez	-1531
né	-1532
▁vit	-1533
átt	-1534
▁sajtó	-1535
ssz	-1536
▁politikai	-1537
▁várható	-1538
talan	-1539
mények	-1540
almazott	-1541
▁fejleszt	-1542
olás	-1543
▁St	-1544
óta	-1545
▁anyag	-1546
▁1-	-1547
▁legal	-1548
▁hív	-1549
▁súly	-1550
▁iz	-1551
iség	-1552
viv	-1553
▁főváros	-1554
▁könny	-1555
ehér	-1556
▁további	-1557
▁függ	-1558
▁vád	-1559
▁Orbán	-1560
2-	-1561
▁Ne	-1562
▁szomb	-1563
almi	-1564
▁kiv	-1565
▁őr	-1566
esült	-1567
igaz	-1568
▁folyamat	-1569
▁telep	-1570
▁nemzetközi	-1571
▁ismert	-1572
▁emberek	-1573
▁ber	-1574
ens	-1575
éről	-1576
▁mot	-1577
▁mérk	-1578
ították	-1579
▁játékos	-1580
8-	-1581
▁sikerült	-1582
▁állap	-1583
▁magán	-1584
▁orosz	-1585
▁november	-1586
▁önkormány	-1587
▁tanul	-1588
▁magát	-1589
▁Bal	-1590
▁találkoz	-1591
úsz	-1592
▁dr	-1593
▁igazgató	-1594
,5	-1595
▁tény	-1596
▁ennek	-1597
színű	-1598
érium	-1599
sér	-1600
▁Bar	-1601
▁megállap	-1602
▁emelked	-1603
aki	-1604
▁díj	-1605
▁utó	-1606
▁figyelm	-1607
▁27	-1608
▁készült	-1609
▁műv	-1610
▁harmadik	-1611
▁történet	-1612
▁Br	-1613
ment	-1614
imp	-1615
▁Le	-1616
iss	-1617
▁ában	-1618
▁mod	-1619
▁méd	-1620
▁állami	-1621
▁üt	-1622
▁utc	-1623
▁megfelelő	-1624
jük	-1625
oni	-1626
▁átlag	-1627
ion	-1628
gyel	-1629
ozta	-1630
▁hol	-1631
adt	-1632
▁Péter	-1633
▁beteg	-1634
▁rendez	-1635
itás	-1636
▁mutat	-1637
▁megv	-1638
▁szület	-1639
▁mik	-1640
▁növeked	-1641
emel	-1642
uh	-1643
▁felad	-1644
ármester	-1645
▁politikus	-1646
tam	-1647
▁talált	-1648
▁éppen	-1649
▁következő	-1650
rel	-1651
anyol	-1652
▁Zs	-1653
ah	-1654
▁vet	-1655
▁kisebb	-1656
▁vi	-1657
▁hitel	-1658
▁cik	-1659
▁).	-1660
▁Európ	-1661
ka	-1662
előre	-1663
▁biztonság	-1664
ekkel	-1665
▁európai	-1666
áját	-1667
▁gyermek	-1668
ebr	-1669
pl	-1670
ogatott	-1671
▁közleked	-1672
▁eket	-1673
▁belül	-1674
▁mérkőzés	-1675
követ	-1676
▁veszély	-1677
▁tűn	-1678
szik	-1679
▁bíróság	-1680
▁30	-1681
▁kór	-1682
két	-1683
mel	-1684
edett	-1685
▁form	-1686
▁István	-1687
osítás	-1688
▁lev	-1689
jában	-1690
▁fin	-1691
▁közlemény	-1692
ly	-1693
har	-1694
son	-1695
▁sal	-1696
▁hon	-1697
▁éve	-1698
▁szóló	-1699
▁mintegy	-1700
üz	-1701
▁fogyaszt	-1702
▁tap	-1703
▁nyert	-1704
▁2010.	-1705
ását	-1706
utt	-1707
▁erre	-1708
orn	-1709
eség	-1710
akkor	-1711
▁helyett	-1712
▁legalább	-1713
▁tárgyal	-1714
▁iskol	-1715
▁neki	-1716
▁változ	-1717
nn	-1718
úg	-1719
▁bír	-1720
▁ver	-1721
▁24	-1722
rt	-1723
atív	-1724
▁múlt	-1725
▁tanács	-1726
lap	-1727
▁helyen	-1728
erc	-1729
▁megk	-1730
▁szövet	-1731
ellem	-1732
▁elér	-1733
cius	-1734
▁képest	-1735
▁írja	-1736
chn	-1737
▁halál	-1738
▁ni	-1739
▁szükség	-1740
▁helyi	-1741
mus	-1742
ári	-1743
▁ül	-1744
▁Ind	-1745
íteni	-1746
állítás	-1747
▁megb	-1748
▁később	-1749
őv	-1750
▁kívül	-1751
nem	-1752
▁föl	-1753
ektet	-1754
▁büntet	-1755
öző	-1756
ebruár	-1757
6-	-1758
▁felelős	-1759
▁hatóság	-1760
▁forintot	-1761
övid	-1762
▁okkal	-1763
▁tiz	-1764
▁megt	-1765
▁lévő	-1766
▁miniszterelnök	-1767
▁bor	-1768
▁amelyet	-1769
▁szerdán	-1770
▁br	-1771
▁újabb	-1772
▁megold	-1773
ulat	-1774
▁közt	-1775
▁végén	-1776
▁válság	-1777
álni	-1778
▁sokkal	-1779
▁évvel	-1780
▁üzlet	-1781
he	-1782
▁abban	-1783
▁Y	-1784
▁számít	-1785
▁Azt	-1786
▁vid	-1787
▁fenn	-1788
ow	-1789
▁Am	-1790
▁bele	-1791
▁kí	-1792
nnep	-1793
ációs	-1794
▁ellenére	-1795
▁valószínű	-1796
▁tölt	-1797
▁hétfőn	-1798
▁barát	-1799
isztérium	-1800
csi	-1801
emokr	-1802
elek	-1803
▁igény	-1804
▁kény	-1805
ókat	-1806
▁Itt	-1807
▁dollár	-1808
▁elleni	-1809
ezték	-1810
lak	-1811
▁hall	-1812
ottak	-1813
▁kutató	-1814
▁di	-1815
▁összeg	-1816
▁szív	-1817
▁válasz	-1818
▁Magyarországon	-1819
űr	-1820
mal	-1821
▁2-	-1822
ismer	-1823
▁természet	-1824
la	-1825
▁MTI	-1826
▁orv	-1827
▁Í	-1828
▁kedden	-1829
▁Mar	-1830
▁bizottság	-1831
▁Állam	-1832
▁ünnep	-1833
▁Ország	-1834
olni	-1835
ákat	-1836
▁nyer	-1837
▁keresked	-1838
kori	-1839
▁mer	-1840
▁Szab	-1841
▁0,	-1842
▁ebben	-1843
uc	-1844
biz	-1845
etés	-1846
től	-1847
▁Ki	-1848
▁időszak	-1849
▁szig	-1850
▁egyre	-1851
▁vállalkoz	-1852
ógy	-1853
▁vizsgálat	-1854
▁til	-1855
fr	-1856
oj	-1857
▁21	-1858
otta	-1859
▁ing	-1860
haj	-1861
uház	-1862
▁részlet	-1863
ali	-1864
inak	-1865
▁társad	-1866
▁este	-1867
▁készül	-1868
▁gáz	-1869
▁Ferenc	-1870
▁szóviv	-1871
▁",	-1872
▁utóbbi	-1873
erj	-1874
▁társaság	-1875
▁ismét	-1876
▁évben	-1877
▁egyetlen	-1878
▁március	-1879
▁ham	-1880
földi	-1881
apitány	-1882
▁egyen	-1883
▁veszt	-1884
▁egyelőre	-1885
endő	-1886
olta	-1887
▁február	-1888
▁teljesít	-1889
▁egyébként	-1890
▁X	-1891
ese	-1892
encs	-1893
▁évek	-1894
ennyi	-1895
ernet	-1896
▁szintén	-1897
▁kíván	-1898
ánk	-1899
▁szor	-1900
▁nehéz	-1901
▁álló	-1902
▁elh	-1903
▁uni	-1904
▁igen	-1905
szor	-1906
▁Gábor	-1907
▁kider	-1908
ft	-1909
▁Jobb	-1910
émet	-1911
▁elk	-1912
tóber	-1913
▁létre	-1914
▁ci	-1915
▁kösz	-1916
▁Európai	-1917
▁w	-1918
ona	-1919
ózs	-1920
polg	-1921
▁keret	-1922
▁forduló	-1923
esek	-1924
▁tév	-1925
ecs	-1926
▁tűz	-1927
ékeny	-1928
▁ide	-1929
sék	-1930
foly	-1931
▁követően	-1932
▁pénteken	-1933
őleg	-1934
▁internet	-1935
▁helyszín	-1936
▁csütörtökön	-1937
▁23	-1938
▁fogad	-1939
▁rövid	-1940
ich	-1941
úcs	-1942
▁fény	-1943
),	-1944
ón	-1945
▁der	-1946
▁rég	-1947
▁kórház	-1948
heti	-1949
▁mérték	-1950
▁folytat	-1951
▁kért	-1952
▁jelentette	-1953
▁kezdő	-1954
▁egyszer	-1955
ázs	-1956
▁töm	-1957
▁motor	-1958
▁ellenőr	-1959
▁vezetője	-1960
▁bejelent	-1961
▁központ	-1962
▁hib	-1963
országban	-1964
jegy	-1965
▁állít	-1966
▁kih	-1967
▁lány	-1968
örgy	-1969
▁megl	-1970
ázat	-1971
▁Tam	-1972
▁kett	-1973
▁jelölt	-1974
▁gyárt	-1975
▁gazd	-1976
▁esély	-1977
védelmi	-1978
▁Már	-1979
▁annyi	-1980
▁szinte	-1981
éssel	-1982
▁világbajnok	-1983
▁tet	-1984
▁konc	-1985
▁hosszú	-1986
▁ével	-1987
vezető	-1988
országi	-1989
▁vizsgál	-1990
▁part	-1991
▁viszony	-1992
ti	-1993
erős	-1994
▁műsor	-1995
▁egyszerű	-1996
za	-1997
endég	-1998
eged	-1999
ással	-2000
▁megyei	-2001
▁baleset	-2002
▁szakért	-2003
▁végül	-2004
▁rek	-2005
▁orvos	-2006
emut	-2007
hetetlen	-2008
▁kult	-2009
▁válogatott	-2010
▁sorozat	-2011
▁os	-2012
ilis	-2013
▁mit	-2014
asztal	-2015
▁vonatkoz	-2016
▁3-	-2017
rány	-2018
▁Mik	-2019
▁tudja	-2020
akat	-2021
ésre	-2022
szolg	-2023
▁amelynek	-2024
▁tr	-2025
▁utas	-2026
asznál	-2027
▁először	-2028
ítvány	-2029
ácsony	-2030
▁maga	-2031
elni	-2032
▁tehát	-2033
▁próbál	-2034
ézet	-2035
elv	-2036
ármű	-2037
▁techn	-2038
▁arány	-2039
▁végre	-2040
▁otthon	-2041
▁Sport	-2042
▁szakember	-2043
gal	-2044
▁22	-2045
▁port	-2046
▁kir	-2047
▁Rend	-2048
anyag	-2049
▁brit	-2050
▁vélemény	-2051
áni	-2052
lovák	-2053
▁befektet	-2054
▁szok	-2055
▁Mint	-2056
▁vendég	-2057
▁miután	-2058
▁feltétel	-2059
ezt	-2060
▁Sch	-2061
gr	-2062
özben	-2063
▁New	-2064
▁áld	-2065
▁im	-2066
▁éj	-2067
▁szép	-2068
ait	-2069
elte	-2070
▁utaz	-2071
▁délután	-2072
▁alkotmány	-2073
▁kéz	-2074
▁egészség	-2075
tól	-2076
▁fal	-2077
bert	-2078
▁György	-2079
▁szükséges	-2080
▁labd	-2081
▁án	-2082
▁gyeng	-2083
▁október	-2084
▁Pr	-2085
▁nyújt	-2086
ird	-2087
mun	-2088
▁Ak	-2089
ához	-2090
▁bér	-2091
▁többi	-2092
íti	-2093
▁26	-2094
▁Jobbik	-2095
nyit	-2096
▁dar	-2097
▁Val	-2098
▁János	-2099
▁eszköz	-2100
ői	-2101
▁hangsúly	-2102
urg	-2103
line	-2104
▁Világ	-2105
▁értelm	-2106
pénz	-2107
ébe	-2108
▁előző	-2109
▁teljesen	-2110
▁Vik	-2111
▁ik	-2112
dönt	-2113
▁része	-2114
▁előre	-2115
▁/	-2116
▁tem	-2117
▁haszn	-2118
áp	-2119
erm	-2120
▁Fran	-2121
▁kapcsolatban	-2122
▁nyit	-2123
▁szenv	-2124
▁100	-2125
▁továbbra	-2126
ná	-2127
▁bemut	-2128
▁energ	-2129
ezer	-2130
▁idei	-2131
▁lel	-2132
▁kevés	-2133
határ	-2134
▁mozg	-2135
upán	-2136
ékony	-2137
▁legyen	-2138
nev	-2139
▁EU	-2140
orban	-2141
▁ekkel	-2142
▁vett	-2143
eken	-2144
▁tev	-2145
▁gyógy	-2146
▁mégis	-2147
▁közben	-2148
▁szocial	-2149
pány	-2150
▁tulajdonos	-2151
enet	-2152
adásul	-2153
ner	-2154
féle	-2155
▁dob	-2156
ettel	-2157
▁termék	-2158
▁javaslat	-2159
▁ezen	-2160
ept	-2161
zati	-2162
éli	-2163
avar	-2164
ándor	-2165
▁kock	-2166
▁jelenlegi	-2167
.,	-2168
▁fegy	-2169
▁komoly	-2170
▁Nemzeti	-2171
▁poz	-2172
▁tizen	-2173
ozni	-2174
▁vele	-2175
▁újság	-2176
enger	-2177
▁állás	-2178
áig	-2179
▁pl	-2180
▁csökken	-2181
▁sen	-2182
▁gyűjt	-2183
▁reggel	-2184
gép	-2185
▁ülés	-2186
▁50	-2187
isták	-2188
▁kísér	-2189
ork	-2190
▁környezet	-2191
▁polgármester	-2192
ford	-2193
prilis	-2194
▁elkövet	-2195
▁rendőrök	-2196
ukat	-2197
▁cikk	-2198
▁választás	-2199
▁íg	-2200
▁indul	-2201
▁száma	-2202
▁szolgáltatás	-2203
▁közvet	-2204
fer	-2205
lós	-2206
ton	-2207
atták	-2208
▁miért	-2209
▁Új	-2210
▁fot	-2211
▁let	-2212
▁szerepel	-2213
▁gyanús	-2214
▁épület	-2215
▁És	-2216
▁akt	-2217
▁lem	-2218
társ	-2219
▁semmi	-2220
ank	-2221
▁Ig	-2222
ségek	-2223
▁dok	-2224
▁esetben	-2225
▁kampány	-2226
▁kellene	-2227
ítása	-2228
ilk	-2229
▁Zrt	-2230
▁ill	-2231
hetően	-2232
▁forintos	-2233
ügymin	-2234
▁persze	-2235
omás	-2236
▁Biz	-2237
▁klub	-2238
▁kevesebb	-2239
▁cser	-2240
▁modell	-2241
izmus	-2242
zó	-2243
▁Zolt	-2244
ou	-2245
több	-2246
▁tanulmány	-2247
nyug	-2248
▁Tamás	-2249
▁tak	-2250
▁köszön	-2251
kot	-2252
▁BK	-2253
▁sel	-2254
acsony	-2255
▁benne	-2256
▁érvény	-2257
szk	-2258
atta	-2259
▁forr	-2260
▁list	-2261
▁intézmény	-2262
▁ére	-2263
▁olimp	-2264
▁küz	-2265
ama	-2266
▁francia	-2267
▁Egyesült	-2268
ősorban	-2269
apitányság	-2270
mai	-2271
tag	-2272
efon	-2273
▁alig	-2274
▁segítség	-2275
▁karácsony	-2276
▁név	-2277
ga	-2278
ann	-2279
▁Fő	-2280
▁Német	-2281
▁indult	-2282
ométer	-2283
▁csupán	-2284
▁Ezt	-2285
▁ex	-2286
▁állt	-2287
▁érdem	-2288
▁ugyanakkor	-2289
▁döntés	-2290
pal	-2291
ották	-2292
▁Ol	-2293
orvát	-2294
▁méter	-2295
örög	-2296
▁terj	-2297
▁BKV	-2298
▁rem	-2299
▁pénzügyi	-2300
▁héten	-2301
▁különös	-2302
▁épít	-2303
▁hogyan	-2304
ságot	-2305
uz	-2306
urcs	-2307
okkal	-2308
▁százaléka	-2309
cel	-2310
ánc	-2311
▁mög	-2312
▁alkalmaz	-2313
gyűlés	-2314
▁talán	-2315
7-	-2316
▁str	-2317
▁kics	-2318
▁Em	-2319
jét	-2320
ívül	-2321
▁pill	-2322
▁semm	-2323
▁írta	-2324
▁40	-2325
▁om	-2326
jon	-2327
▁akad	-2328
ce	-2329
▁Kr	-2330
ái	-2331
▁összesen	-2332
ésére	-2333
▁elfogad	-2334
▁szempont	-2335
▁Zoltán	-2336
▁szül	-2337
▁jobban	-2338
▁tevékeny	-2339
hatja	-2340
▁áról	-2341
▁mindenki	-2342
▁oda	-2343
▁döntött	-2344
▁legtöbb	-2345
íp	-2346
olja	-2347
▁állapot	-2348
▁április	-2349
rán	-2350
ilag	-2351
álló	-2352
▁vezér	-2353
▁kutatás	-2354
▁érdekében	-2355
odás	-2356
omag	-2357
▁tagja	-2358
▁ap	-2359
eleg	-2360
▁irod	-2361
▁lég	-2362
▁ellát	-2363
kívül	-2364
▁intézked	-2365
se	-2366
▁Il	-2367
▁Re	-2368
▁Sp	-2369
mond	-2370
▁idej	-2371
▁darab	-2372
átor	-2373
adék	-2374
▁indok	-2375
oc	-2376
▁súlyos	-2377
gol	-2378
▁2,	-2379
▁hav	-2380
▁se	-2381
▁nők	-2382
▁óra	-2383
jának	-2384
vonal	-2385
▁Viktor	-2386
mag	-2387
▁Be	-2388
▁kialak	-2389
jából	-2390
▁felé	-2391
▁szez	-2392
▁pap	-2393
DF	-2394
függ	-2395
▁szeretn	-2396
elők	-2397
▁ip	-2398
elmű	-2399
▁jön	-2400
▁Att	-2401
▁vill	-2402
▁aztán	-2403
▁esemény	-2404
fit	-2405
▁osztály	-2406
okon	-2407
ozik	-2408
▁lény	-2409
-1	-2410
engyel	-2411
▁Ma	-2412
▁csin	-2413
▁maradt	-2414
▁évi	-2415
ezik	-2416
▁húz	-2417
ármaz	-2418
igazgató	-2419
őben	-2420
▁elkép	-2421
▁jutott	-2422
▁ezelőtt	-2423
ball	-2424
gatás	-2425
▁meglep	-2426
ezi	-2427
▁elsősorban	-2428
▁nemzeti	-2429
▁Józs	-2430
milli	-2431
▁szakasz	-2432
▁Bár	-2433
átette	-2434
▁olasz	-2435
örös	-2436
▁uniós	-2437
▁összes	-2438
▁látt	-2439
▁jött	-2440
▁hajt	-2441
íció	-2442
▁ell	-2443
▁sőt	-2444
ományos	-2445
▁elején	-2446
oha	-2447
▁ék	-2448
▁had	-2449
▁Itthon	-2450
▁tapasztal	-2451
▁bárm	-2452
zetes	-2453
róf	-2454
▁képes	-2455
szabad	-2456
ral	-2457
éni	-2458
ólag	-2459
▁Európa	-2460
lus	-2461
▁ében	-2462
▁számos	-2463
▁származ	-2464
▁különböző	-2465
kr	-2466
ileg	-2467
▁eljárás	-2468
▁teljesítmény	-2469
▁egyed	-2470
▁vagyis	-2471
▁Fel	-2472
▁kár	-2473
atni	-2474
hatnak	-2475
▁2.	-2476
▁András	-2477
▁spanyol	-2478
▁Hír	-2479
atárs	-2480
ument	-2481
▁vagyok	-2482
enci	-2483
▁külföldi	-2484
▁közötti	-2485
▁demokr	-2486
▁keresztül	-2487
etett	-2488
▁nőtt	-2489
▁cent	-2490
▁Ugyan	-2491
▁gyakorlat	-2492
io	-2493
▁látog	-2494
▁változat	-2495
▁MDF	-2496
▁kiz	-2497
▁szerk	-2498
▁József	-2499
▁lehetett	-2500
▁munkatárs	-2501
▁település	-2502
zők	-2503
álás	-2504
▁kilométer	-2505
▁bl	-2506
▁kilenc	-2507
ocsi	-2508
▁buk	-2509
észeti	-2510
▁vér	-2511
▁beruház	-2512
▁(1	-2513
uális	-2514
▁üzem	-2515
▁lakás	-2516
▁módon	-2517
▁nemcsak	-2518
5-	-2519
▁Van	-2520
▁kárt	-2521
▁Attil	-2522
▁Index	-2523
▁honlap	-2524
▁szezon	-2525
▁valami	-2526
▁közé	-2527
lom	-2528
▁Uni	-2529
▁alacsony	-2530
▁dokument	-2531
ina	-2532
ansz	-2533
▁akart	-2534
▁járt	-2535
▁mély	-2536
▁kik	-2537
▁tém	-2538
▁lő	-2539
ocsát	-2540
tatási	-2541
▁jármű	-2542
▁korlát	-2543
▁fed	-2544
▁Ennek	-2545
értelmű	-2546
▁Rendőr	-2547
▁valaki	-2548
ozza	-2549
▁régi	-2550
▁Sándor	-2551
▁esetében	-2552
rál	-2553
▁3,	-2554
van	-2555
▁Nép	-2556
▁adatok	-2557
titk	-2558
attal	-2559
ereség	-2560
▁színész	-2561
▁baj	-2562
▁egykori	-2563
száz	-2564
váj	-2565
énk	-2566
eztek	-2567
▁közep	-2568
▁tömeg	-2569
▁működ	-2570
▁forgalom	-2571
óg	-2572
zás	-2573
akció	-2574
▁tartó	-2575
▁egyetem	-2576
▁független	-2577
▁felhasznál	-2578
000	-2579
▁Kar	-2580
▁kel	-2581
udapesti	-2582
▁Min	-2583
nyire	-2584
▁érdeklő	-2585
osabb	-2586
▁Több	-2587
▁látható	-2588
▁addig	-2589
▁lényeg	-2590
ca	-2591
▁29	-2592
▁Így	-2593
▁lass	-2594
eptember	-2595
▁budapesti	-2596
3-	-2597
▁terh	-2598
▁kínai	-2599
▁teszt	-2600
▁szóvivője	-2601
▁felk	-2602
▁titk	-2603
ie	-2604
▁4-	-2605
hhez	-2606
▁Két	-2607
▁azokat	-2608
▁Minden	-2609
rec	-2610
óri	-2611
iskol	-2612
▁ideg	-2613
▁hid	-2614
▁kiad	-2615
▁lakosság	-2616
▁szerencs	-2617
ekv	-2618
▁években	-2619
▁vág	-2620
▁nevű	-2621
álaszt	-2622
▁ur	-2623
▁részvény	-2624
ékes	-2625
▁Rom	-2626
▁Vas	-2627
▁angol	-2628
▁csúcs	-2629
▁árfoly	-2630
▁Megy	-2631
▁becs	-2632
▁ítél	-2633
ente	-2634
▁magyaráz	-2635
▁kerület	-2636
▁kezdemény	-2637
▁pénzt	-2638
▁nyelv	-2639
emt	-2640
▁For	-2641
▁jellem	-2642
ler	-2643
▁rak	-2644
▁sajt	-2645
▁nehez	-2646
oy	-2647
fok	-2648
anat	-2649
▁okoz	-2650
▁ahhoz	-2651
▁katon	-2652
▁egyértelmű	-2653
éri	-2654
ektr	-2655
▁ához	-2656
▁sokat	-2657
▁választási	-2658
▁végzett	-2659
ron	-2660
▁eur	-2661
ósság	-2662
▁rendkívül	-2663
zik	-2664
▁Ed	-2665
▁Kft	-2666
▁információ	-2667
▁tor	-2668
▁élő	-2669
▁fogalmazott	-2670
pály	-2671
▁kommun	-2672
▁érkezett	-2673
▁Még	-2674
II	-2675
rész	-2676
▁költségvetés	-2677
erő	-2678
▁od	-2679
▁olvasható	-2680
ágy	-2681
▁Per	-2682
álták	-2683
▁támad	-2684
hatatlan	-2685
fők	-2686
sért	-2687
városi	-2688
▁Gazdaság	-2689
▁ég	-2690
▁előny	-2691
▁kapcsolatos	-2692
▁28	-2693
▁krit	-2694
▁megjelent	-2695
▁napon	-2696
anács	-2697
víz	-2698
▁múl	-2699
anszír	-2700
▁tudott	-2701
▁éről	-2702
szabály	-2703
ítették	-2704
▁vonatkozó	-2705
rák	-2706
érd	-2707
▁Kor	-2708
▁Mol	-2709
▁tur	-2710
▁idején	-2711
▁többször	-2712
4-	-2713
▁esett	-2714
ete	-2715
▁2008	-2716
▁assz	-2717
fl	-2718
ian	-2719
▁35	-2720
▁op	-2721
▁mai	-2722
▁szombaton	-2723
▁választások	-2724
ásra	-2725
éhez	-2726
ítottak	-2727
gazdaság	-2728
▁Ő	-2729
▁utal	-2730
▁2010-	-2731
pénztár	-2732
▁felett	-2733
szervezet	-2734
▁valószínűleg	-2735
▁nyí	-2736
▁csomag	-2737
▁mögött	-2738
lék	-2739
▁női	-2740
▁rög	-2741
ítése	-2742
▁jának	-2743
obil	-2744
af	-2745
ung	-2746
▁je	-2747
▁cégek	-2748
▁teszi	-2749
▁ából	-2750
our	-2751
éves	-2752
oknak	-2753
▁2009-	-2754
itt	-2755
atikus	-2756
▁pan	-2757
▁megjel	-2758
▁szeptember	-2759
ódott	-2760
▁mindent	-2761
▁valóban	-2762
űt	-2763
enz	-2764
▁feladat	-2765
▁3.	-2766
▁akit	-2767
▁ingatlan	-2768
evő	-2769
▁született	-2770
▁korr	-2771
nie	-2772
elen	-2773
▁húsz	-2774
▁kérd	-2775
▁mondja	-2776
▁tartja	-2777
műkö	-2778
▁tehet	-2779
▁elképzel	-2780
▁őt	-2781
olog	-2782
olták	-2783
▁azonnal	-2784
▁1.	-2785
eum	-2786
össze	-2787
▁kelet	-2788
▁dokumentum	-2789
▁Ant	-2790
▁vide	-2791
▁senki	-2792
ham	-2793
sem	-2794
▁menny	-2795
▁országos	-2796
▁jelentkez	-2797
rid	-2798
▁Man	-2799
▁feny	-2800
▁fejlő	-2801
▁hivatalos	-2802
észség	-2803
▁század	-2804
▁telefon	-2805
org	-2806
▁2008-	-2807
▁tenni	-2808
asztróf	-2809
▁férfit	-2810
▁Országos	-2811
▁Ad	-2812
arúg	-2813
lési	-2814
▁hird	-2815
éseket	-2816
▁tudta	-2817
▁Attila	-2818
▁Kov	-2819
▁működés	-2820
era	-2821
▁(2	-2822
beli	-2823
nyal	-2824
▁megbíz	-2825
▁önkormányzat	-2826
bizt	-2827
éből	-2828
▁Ber	-2829
▁meghatár	-2830
▁küzd	-2831
cselek	-2832
▁Zsolt	-2833
▁beszélt	-2834
sa	-2835
andó	-2836
▁tudni	-2837
▁ellenzék	-2838
▁erősö	-2839
▁Csak	-2840
▁vegy	-2841
▁ab	-2842
▁bőv	-2843
▁koll	-2844
▁Megyei	-2845
tatta	-2846
▁kifej	-2847
▁média	-2848
szerzés	-2849
▁áldozat	-2850
▁hatalmas	-2851
▁finanszír	-2852
▁tartalmaz	-2853
▁Laj	-2854
▁szereplő	-2855
tiz	-2856
alap	-2857
ue	-2858
urális	-2859
▁ráadásul	-2860
eznek	-2861
▁juk	-2862
▁arany	-2863
▁távol	-2864
ash	-2865
▁198	-2866
▁Car	-2867
▁seb	-2868
▁futball	-2869
evíz	-2870
egény	-2871
▁miközben	-2872
▁országban	-2873
▁harc	-2874
▁tűnik	-2875
aba	-2876
▁megny	-2877
rak	-2878
almat	-2879
ack	-2880
álja	-2881
▁fiz	-2882
▁idéz	-2883
▁felső	-2884
▁kiderült	-2885
▁parlamenti	-2886
álta	-2887
részt	-2888
▁engedély	-2889
▁szerzett	-2890
inte	-2891
usok	-2892
▁proj	-2893
▁bűncselek	-2894
ey	-2895
▁ve	-2896
▁szöv	-2897
áború	-2898
▁sérülés	-2899
ajn	-2900
ancs	-2901
▁azóta	-2902
vég	-2903
atja	-2904
örtön	-2905
▁többek	-2906
úra	-2907
▁Igaz	-2908
ivatal	-2909
▁térség	-2910
str	-2911
▁elektr	-2912
▁vagyon	-2913
▁várhatóan	-2914
▁költségvetési	-2915
irt	-2916
▁bevétel	-2917
▁att	-2918
▁kicsit	-2919
▁0-	-2920
▁Nap	-2921
▁felmér	-2922
▁dolgozó	-2923
▁visszat	-2924
zése	-2925
▁felvétel	-2926
bil	-2927
csap	-2928
ítják	-2929
▁éhez	-2930
▁On	-2931
▁esetén	-2932
▁level	-2933
sd	-2934
▁Elő	-2935
▁Kár	-2936
▁szob	-2937
▁Miklós	-2938
gyek	-2939
▁zaj	-2940
▁többet	-2941
▁politik	-2942
▁biztonsági	-2943
▁hamar	-2944
▁tudós	-2945
zott	-2946
▁fell	-2947
▁[	-2948
▁BL	-2949
▁Most	-2950
hetnek	-2951
▁eddigi	-2952
▁embert	-2953
▁értékes	-2954
▁folyamatosan	-2955
ódó	-2956
nökség	-2957
▁pályáz	-2958
▁fenntart	-2959
ier	-2960
▁mindössze	-2961
olcs	-2962
kalom	-2963
úttal	-2964
▁egyet	-2965
▁forin	-2966
▁befoly	-2967
▁többség	-2968
▁jogszabály	-2969
ájuk	-2970
▁megelő	-2971
nan	-2972
▁fordul	-2973
▁nyilvánosság	-2974
őd	-2975
iat	-2976
▁küld	-2977
oldal	-2978
▁feleség	-2979
▁jelenti	-2980
▁Leg	-2981
▁Ezek	-2982
▁Inter	-2983
tized	-2984
▁örök	-2985
▁fehér	-2986
▁forrás	-2987
▁módszer	-2988
jen	-2989
elmet	-2990
▁York	-2991
▁akció	-2992
erv	-2993
écs	-2994
▁alkalom	-2995
▁megjelen	-2996
una	-2997
▁testület	-2998
▁5-	-2999
apán	-3000
▁Mag	-3001
▁robb	-3002
attak	-3003
▁legf	-3004
▁kateg	-3005
▁tájékoztatás	-3006
őket	-3007
▁Mad	-3008
▁óri	-3009
elték	-3010
▁együttműkö	-3011
▁mező	-3012
▁Kín	-3013
▁felv	-3014
▁módos	-3015
▁egyéni	-3016
úli	-3017
▁Pet	-3018
▁végig	-3019
▁akinek	-3020
▁szakmai	-3021
▁4,	-3022
edik	-3023
▁fest	-3024
▁Budapesten	-3025
▁ügyben	-3026
úzeum	-3027
ff	-3028
und	-3029
▁vad	-3030
▁munkav	-3031
▁ős	-3032
élés	-3033
▁rab	-3034
▁sért	-3035
▁annyira	-3036
onal	-3037
ölcs	-3038
▁vette	-3039
főkapitányság	-3040
bel	-3041
▁időben	-3042
▁éjszak	-3043
burg	-3044
oltak	-3045
▁hull	-3046
▁szom	-3047
▁román	-3048
▁kezelés	-3049
▁Bel	-3050
▁igazság	-3051
▁hosszabb	-3052
1.	-3053
▁dí	-3054
atos	-3055
▁máj	-3056
▁csill	-3057
ológiai	-3058
▁részét	-3059
▁sajtót	-3060
▁évtized	-3061
millió	-3062
▁észak	-3063
▁pontos	-3064
▁előzetes	-3065
▁forinttal	-3066
▁haza	-3067
▁szét	-3068
ípus	-3069
ekete	-3070
▁király	-3071
▁Ér	-3072
etek	-3073
▁felül	-3074
▁figyelem	-3075
▁hatóságok	-3076
elik	-3077
polgár	-3078
▁környék	-3079
▁Im	-3080
vári	-3081
vájci	-3082
▁börtön	-3083
sp	-3084
szó	-3085
általán	-3086
▁sí	-3087
eteg	-3088
▁Úgy	-3089
ity	-3090
tuk	-3091
▁Lajos	-3092
▁azonos	-3093
▁mostani	-3094
▁hivatkoz	-3095
▁Né	-3096
▁Ro	-3097
▁Lig	-3098
tabil	-3099
▁idős	-3100
▁kísérlet	-3101
ih	-3102
sen	-3103
▁ígér	-3104
▁amelyben	-3105
▁tervezett	-3106
úgy	-3107
▁belső	-3108
edt	-3109
▁hí	-3110
hajt	-3111
iában	-3112
▁konz	-3113
oss	-3114
▁egymás	-3115
▁interj	-3116
▁rendezvény	-3117
ügyminiszter	-3118
▁fidesz	-3119
▁negyedik	-3120
▁nyilatkozta	-3121
▁piaci	-3122
▁ellent	-3123
▁szlovák	-3124
irat	-3125
▁jég	-3126
▁busz	-3127
▁edző	-3128
▁minőség	-3129
▁hál	-3130
éig	-3131
▁Gr	-3132
üket	-3133
kodás	-3134
▁beszéd	-3135
▁vagyunk	-3136
orm	-3137
gyen	-3138
▁szigor	-3139
▁kényszer	-3140
▁Hozz	-3141
urcsány	-3142
▁Dr	-3143
ellett	-3144
▁kötött	-3145
▁mindkét	-3146
kó	-3147
▁szex	-3148
▁különösen	-3149
▁prod	-3150
cz	-3151
▁45	-3152
▁felügy	-3153
▁található	-3154
▁ölt	-3155
▁Mich	-3156
örvény	-3157
▁tenger	-3158
▁kötelező	-3159
ián	-3160
▁jogi	-3161
▁menet	-3162
▁kormányfő	-3163
ker	-3164
▁60	-3165
▁ri	-3166
állás	-3167
▁lenni	-3168
▁Egyetem	-3169
MP	-3170
eltek	-3171
ontosabb	-3172
▁gar	-3173
▁Orosz	-3174
▁számító	-3175
▁zavar	-3176
nyugdíj	-3177
▁változás	-3178
▁+	-3179
ota	-3180
▁32	-3181
ultak	-3182
▁döntő	-3183
▁sokan	-3184
anad	-3185
▁folyó	-3186
▁érzék	-3187
kezd	-3188
▁Online	-3189
▁munkahely	-3190
alma	-3191
vált	-3192
▁lez	-3193
ájában	-3194
ya	-3195
éve	-3196
▁hő	-3197
▁zárt	-3198
▁sérült	-3199
őként	-3200
▁fővárosi	-3201
ázis	-3202
dolg	-3203
▁agy	-3204
titkár	-3205
▁népszerű	-3206
▁szocialista	-3207
▁hit	-3208
▁lit	-3209
▁bíz	-3210
▁évre	-3211
▁érintett	-3212
▁figyelmet	-3213
▁szövetség	-3214
ere	-3215
▁meghal	-3216
▁történelmi	-3217
arúgó	-3218
lenül	-3219
au	-3220
ry	-3221
jut	-3222
▁elé	-3223
elleg	-3224
▁óv	-3225
▁bot	-3226
▁Gyurcsány	-3227
▁mennyiség	-3228
man	-3229
▁energia	-3230
ke	-3231
▁Pál	-3232
▁szánd	-3233
▁bizonyos	-3234
▁egyáltalán	-3235
▁jöved	-3236
30	-3237
▁Szövet	-3238
▁emberi	-3239
▁hozott	-3240
▁legutó	-3241
prób	-3242
▁2011-	-3243
▁dolog	-3244
▁minős	-3245
▁beszám	-3246
▁gyerekek	-3247
ox	-3248
ésben	-3249
▁takar	-3250
▁kutatók	-3251
kék	-3252
döntő	-3253
▁típus	-3254
nevezett	-3255
▁hangsúlyozta	-3256
ereg	-3257
▁The	-3258
▁fogja	-3259
▁Kis	-3260
▁igyek	-3261
▁Kap	-3262
▁prof	-3263
▁erről	-3264
▁természetesen	-3265
ású	-3266
▁helyre	-3267
▁megerős	-3268
▁tudom	-3269
▁általában	-3270
▁igazgatója	-3271
▁épp	-3272
▁Amer	-3273
▁olaj	-3274
▁jóval	-3275
▁értes	-3276
▁egyedül	-3277
▁hideg	-3278
▁csatlak	-3279
ko	-3280
lét	-3281
▁löv	-3282
▁várt	-3283
▁meleg	-3284
▁papír	-3285
▁legfontosabb	-3286
▁na	-3287
▁Ebb	-3288
▁agg	-3289
▁szék	-3290
▁ekkor	-3291
▁Szent	-3292
▁maguk	-3293
▁jövőre	-3294
▁repülő	-3295
▁őrizet	-3296
▁tavalyi	-3297
▁Th	-3298
▁ítélet	-3299
ast	-3300
ésével	-3301
DP	-3302
ezők	-3303
▁legk	-3304
▁vitt	-3305
▁kiadás	-3306
rendszer	-3307
▁érdemes	-3308
▁pontosan	-3309
vá	-3310
▁y	-3311
lám	-3312
▁kiállítás	-3313
járás	-3314
▁kont	-3315
▁bevezet	-3316
▁lesznek	-3317
▁Ste	-3318
▁magasabb	-3319
ájékoztató	-3320
▁Tim	-3321
méter	-3322
▁szenved	-3323
már	-3324
ekre	-3325
▁győzt	-3326
▁Horvát	-3327
co	-3328
▁SZ	-3329
atók	-3330
▁Ham	-3331
▁adta	-3332
▁zöld	-3333
▁friss	-3334
▁tudják	-3335
▁egészségügyi	-3336
bé	-3337
▁Bl	-3338
▁láb	-3339
▁köny	-3340
▁svájci	-3341
▁asszony	-3342
▁500	-3343
▁szav	-3344
▁poszt	-3345
áns	-3346
berg	-3347
▁Mil	-3348
▁arc	-3349
▁mes	-3350
▁zen	-3351
▁Kovács	-3352
▁lehetne	-3353
adta	-3354
szel	-3355
▁gyilk	-3356
iát	-3357
▁mél	-3358
▁találtak	-3359
hol	-3360
▁Ben	-3361
▁köl	-3362
helyett	-3363
▁Bizottság	-3364
jön	-3365
▁faj	-3366
▁napi	-3367
társaság	-3368
SA	-3369
▁infl	-3370
▁mobil	-3371
fér	-3372
▁Har	-3373
zelem	-3374
▁egészen	-3375
▁írt	-3376
▁jövőben	-3377
▁Sok	-3378
▁pal	-3379
▁május	-3380
▁szándék	-3381
szabadság	-3382
▁társadalom	-3383
▁5,	-3384
▁ősz	-3385
írás	-3386
ünet	-3387
▁pil	-3388
▁tűzolt	-3389
műv	-3390
▁Géz	-3391
▁dip	-3392
▁játszott	-3393
▁készített	-3394
igo	-3395
▁Szabó	-3396
gyűlési	-3397
▁vállalat	-3398
akt	-3399
▁kr	-3400
nőtt	-3401
▁Bank	-3402
▁hátt	-3403
▁szár	-3404
vil	-3405
őzsd	-3406
▁közölt	-3407
▁szabadság	-3408
DSZ	-3409
üst	-3410
ekvő	-3411
▁Var	-3412
▁Ü	-3413
onz	-3414
▁oz	-3415
sági	-3416
ötte	-3417
állam	-3418
▁igazi	-3419
▁tartóz	-3420
da	-3421
▁Cl	-3422
▁bek	-3423
▁mar	-3424
▁soha	-3425
▁úton	-3426
▁igazán	-3427
▁érvényes	-3428
▁módosítás	-3429
ezz	-3430
▁ebből	-3431
▁társadalmi	-3432
▁Unió	-3433
viz	-3434
▁nekik	-3435
▁tevékenység	-3436
űk	-3437
▁megoldás	-3438
▁ezr	-3439
▁győ	-3440
▁családi	-3441
▁ellenőrzés	-3442
▁magyarországi	-3443
tartás	-3444
tatott	-3445
▁eredeti	-3446
▁gyak	-3447
▁Államok	-3448
▁internetes	-3449
ítva	-3450
▁fiú	-3451
▁blog	-3452
ood	-3453
var	-3454
szaki	-3455
▁Géza	-3456
.:	-3457
▁Joh	-3458
▁Tud	-3459
▁diák	-3460
▁2006-	-3461
▁úgynevezett	-3462
nia	-3463
▁36	-3464
minc	-3465
ódik	-3466
osztály	-3467
▁Tanács	-3468
▁diplom	-3469
▁kamat	-3470
▁rang	-3471
▁nk	-3472
▁va	-3473
adik	-3474
▁havi	-3475
▁vége	-3476
inkább	-3477
▁ehhez	-3478
▁lengyel	-3479
▁met	-3480
emelt	-3481
élkül	-3482
▁lőtt	-3483
jelölt	-3484
▁napokban	-3485
▁ruh	-3486
▁írás	-3487
▁várak	-3488
▁részben	-3489
▁minisztérium	-3490
pár	-3491
ádió	-3492
▁stabil	-3493
▁tudnak	-3494
átum	-3495
▁állat	-3496
▁jú	-3497
▁eny	-3498
esztő	-3499
▁negyedév	-3500
▁szerinte	-3501
▁Sh	-3502
▁Ezzel	-3503
▁kötet	-3504
▁országok	-3505
▁választók	-3506
▁katasztróf	-3507
▁segítségével	-3508
▁hány	-3509
▁járó	-3510
▁attól	-3511
▁hallg	-3512
▁fideszes	-3513
ozók	-3514
▁lop	-3515
valós	-3516
▁célja	-3517
▁hátrány	-3518
▁kétszer	-3519
▁kijelent	-3520
ciós	-3521
oszk	-3522
▁Kül	-3523
▁LMP	-3524
▁aszt	-3525
oldali	-3526
▁munkát	-3527
▁pillanat	-3528
▁Mivel	-3529
▁belől	-3530
▁elismer	-3531
▁ismeretlen	-3532
▁KA	-3533
ulcs	-3534
olják	-3535
edv	-3536
polit	-3537
▁of	-3538
▁idők	-3539
ondoni	-3540
▁Központ	-3541
upa	-3542
ilap	-3543
▁tagjai	-3544
▁délelőtt	-3545
▁általános	-3546
mut	-3547
▁Más	-3548
▁ett	-3549
▁jutt	-3550
▁ág	-3551
▁tők	-3552
ror	-3553
▁Deb	-3554
▁Tib	-3555
▁sztr	-3556
mód	-3557
▁ák	-3558
▁projekt	-3559
▁alkalmazott	-3560
BC	-3561
áris	-3562
oldog	-3563
usztus	-3564
usztrál	-3565
▁ezeket	-3566
▁életét	-3567
▁használt	-3568
▁megvalós	-3569
▁Kl	-3570
▁reform	-3571
▁pót	-3572
▁remény	-3573
▁szöveg	-3574
▁győzelem	-3575
▁jelentősen	-3576
▁állampolgár	-3577
▁Par	-3578
▁alakul	-3579
▁növekedés	-3580
ij	-3581
izál	-3582
tunk	-3583
▁Dél	-3584
odott	-3585
▁hord	-3586
▁téli	-3587
▁sziget	-3588
▁osztrák	-3589
▁szinten	-3590
▁kategóri	-3591
ine	-3592
itív	-3593
jára	-3594
nius	-3595
▁szal	-3596
▁közön	-3597
▁száml	-3598
▁árfolyam	-3599
▁ló	-3600
▁éd	-3601
▁íz	-3602
ener	-3603
ivat	-3604
▁fáj	-3605
▁civil	-3606
▁kiemel	-3607
▁köszönhetően	-3608
rá	-3609
▁Ph	-3610
▁it	-3611
iket	-3612
▁támadás	-3613
▁kommunik	-3614
belül	-3615
▁ütköz	-3616
▁mintha	-3617
vér	-3618
▁Un	-3619
erül	-3620
▁keretében	-3621
com	-3622
edes	-3623
íték	-3624
▁197	-3625
▁kib	-3626
vállal	-3627
▁bajnokság	-3628
▁eredmények	-3629
▁33	-3630
felé	-3631
párt	-3632
▁tök	-3633
▁jogos	-3634
ula	-3635
▁Kö	-3636
▁Debrec	-3637
▁áram	-3638
kör	-3639
▁jét	-3640
origo	-3641
képpen	-3642
ítható	-3643
▁szent	-3644
ala	-3645
▁kölcs	-3646
▁kemény	-3647
▁portál	-3648
▁büntető	-3649
▁leginkább	-3650
▁park	-3651
▁átalak	-3652
▁bü	-3653
▁táb	-3654
örtén	-3655
▁partner	-3656
▁együttes	-3657
olf	-3658
▁cig	-3659
▁Vagy	-3660
várium	-3661
élemény	-3662
▁főszer	-3663
▁idegen	-3664
▁jelleg	-3665
▁tényleg	-3666
▁gyógyszer	-3667
▁emelkedett	-3668
▁80	-3669
▁At	-3670
kodó	-3671
▁Hogy	-3672
▁hálóz	-3673
▁házas	-3674
▁sincs	-3675
▁adósság	-3676
▁forintra	-3677
▁visszatér	-3678
▁megfelelően	-3679
▁Föld	-3680
onttal	-3681
▁strat	-3682
▁londoni	-3683
▁hasonlóan	-3684
oft	-3685
kotmány	-3686
▁köztük	-3687
▁létrehoz	-3688
▁együttműködés	-3689
▁leh	-3690
▁gólt	-3691
▁megf	-3692
▁csaknem	-3693
▁alkalommal	-3694
érte	-3695
▁egyház	-3696
▁védelm	-3697
▁vezérigazgató	-3698
▁reag	-3699
▁kollég	-3700
▁mester	-3701
▁vereség	-3702
kan	-3703
énny	-3704
▁befolyás	-3705
▁elb	-3706
▁mon	-3707
▁kapu	-3708
álisan	-3709
▁vörös	-3710
bíróság	-3711
▁felnőtt	-3712
▁li	-3713
▁bék	-3714
▁nyár	-3715
▁ától	-3716
▁Antik	-3717
▁minim	-3718
▁hétvég	-3719
ennyiben	-3720
ügynökség	-3721
▁mértékben	-3722
▁országgyűlési	-3723
▁He	-3724
házy	-3725
▁tol	-3726
▁Győr	-3727
▁sors	-3728
▁Amikor	-3729
▁pályán	-3730
▁tüntet	-3731
▁frakció	-3732
ick	-3733
▁34	-3734
▁mikor	-3735
perc	-3736
▁férfiak	-3737
ővé	-3738
▁30-	-3739
▁éből	-3740
▁futam	-3741
▁pálya	-3742
▁vonal	-3743
ore	-3744
jebb	-3745
▁font	-3746
▁helyet	-3747
▁százalékát	-3748
öd	-3749
▁70	-3750
écsi	-3751
▁Hal	-3752
▁közz	-3753
▁labdarúgó	-3754
úd	-3755
▁Ob	-3756
▁drág	-3757
▁szerda	-3758
ától	-3759
▁lakó	-3760
▁Csaba	-3761
▁rajta	-3762
▁szombat	-3763
▁tartani	-3764
▁Hozzátette	-3765
50	-3766
▁reng	-3767
▁ajánd	-3768
▁előtti	-3769
▁'	-3770
ence	-3771
odik	-3772
szich	-3773
ítási	-3774
▁érte	-3775
▁Hivatal	-3776
▁kezdett	-3777
abda	-3778
erek	-3779
▁Antikvárium	-3780
▁önkormányzati	-3781
▁37	-3782
artóz	-3783
▁esetleg	-3784
▁kapcsán	-3785
▁működik	-3786
▁tartják	-3787
▁magyarok	-3788
ael	-3789
prém	-3790
esztés	-3791
kezett	-3792
▁index	-3793
▁informáci	-3794
▁tiltak	-3795
▁gyakran	-3796
úti	-3797
fokú	-3798
okra	-3799
▁görög	-3800
▁kedvező	-3801
▁Alkotmány	-3802
▁kötelezett	-3803
▁hegy	-3804
▁Francia	-3805
▁beszélg	-3806
▁összefügg	-3807
▁lehetőséget	-3808
▁Mc	-3809
▁ei	-3810
utas	-3811
▁Cím	-3812
▁jelöl	-3813
▁regény	-3814
▁000	-3815
▁Bor	-3816
▁benn	-3817
▁körében	-3818
▁6,	-3819
▁6:	-3820
▁300	-3821
▁szek	-3822
▁ideje	-3823
▁venni	-3824
▁június	-3825
▁kockáz	-3826
▁megtal	-3827
▁csillag	-3828
ini	-3829
krét	-3830
évén	-3831
▁író	-3832
▁iránt	-3833
▁gyorsan	-3834
▁kapitány	-3835
if	-3836
ach	-3837
▁Mű	-3838
szem	-3839
▁benz	-3840
▁eszt	-3841
▁lépett	-3842
▁terjed	-3843
ugusztus	-3844
gazdasági	-3845
▁szociális	-3846
▁kulturális	-3847
azin	-3848
ölgy	-3849
örök	-3850
ítását	-3851
▁deviz	-3852
▁remek	-3853
▁elkész	-3854
▁eszközök	-3855
▁lehetővé	-3856
ust	-3857
▁31	-3858
▁kop	-3859
ológus	-3860
▁többen	-3861
▁vb	-3862
amos	-3863
▁előbb	-3864
▁sztráj	-3865
▁akadály	-3866
▁megszer	-3867
▁hangulat	-3868
▁körülbelül	-3869
jén	-3870
▁vir	-3871
▁teremt	-3872
▁ügyvéd	-3873
▁államtitkár	-3874
▁est	-3875
▁ába	-3876
▁munkan	-3877
▁tudjuk	-3878
▁hatékony	-3879
csó	-3880
ései	-3881
▁bev	-3882
▁Nyug	-3883
▁védek	-3884
▁vették	-3885
▁jellemző	-3886
erület	-3887
▁Go	-3888
▁bő	-3889
óban	-3890
▁erőszak	-3891
▁letartóz	-3892
óth	-3893
▁Sim	-3894
ukció	-3895
▁levél	-3896
▁mindenk	-3897
▁Ró	-3898
▁Te	-3899
▁10-	-3900
▁ült	-3901
énnyel	-3902
▁mened	-3903
▁televíz	-3904
sé	-3905
▁Tel	-3906
▁amíg	-3907
▁norm	-3908
árólag	-3909
▁múlva	-3910
▁hajnal	-3911
▁fegyver	-3912
▁őrizetbe	-3913
ara	-3914
▁Is	-3915
▁megvált	-3916
men	-3917
űnt	-3918
▁Id	-3919
▁űr	-3920
élyes	-3921
▁biztosan	-3922
▁Nemzetközi	-3923
▁Vég	-3924
▁védő	-3925
▁eltér	-3926
▁gyanú	-3927
▁állítólag	-3928
▁Duna	-3929
▁főleg	-3930
▁Károly	-3931
▁annyit	-3932
▁felhív	-3933
▁körülmények	-3934
▁rag	-3935
▁svéd	-3936
▁résztv	-3937
▁egymást	-3938
▁szellem	-3939
harmad	-3940
▁részes	-3941
▁szokás	-3942
szolgált	-3943
▁rendező	-3944
▁nyilvánosságra	-3945
idő	-3946
▁ök	-3947
▁Port	-3948
▁fenyeget	-3949
▁megyében	-3950
rab	-3951
▁Kat	-3952
▁vidék	-3953
aks	-3954
faj	-3955
▁Rá	-3956
ányi	-3957
▁dal	-3958
▁elők	-3959
▁fesz	-3960
▁harminc	-3961
▁kab	-3962
osszabb	-3963
▁Címkék	-3964
▁fekete	-3965
qu	-3966
▁Imre	-3967
▁hozta	-3968
hatóság	-3969
▁üzemel	-3970
nyugdíjpénztár	-3971
jú	-3972
eri	-3973
▁ideig	-3974
▁szenvedett	-3975
kedés	-3976
0)	-3977
9-	-3978
egő	-3979
▁7,	-3980
▁édes	-3981
foglal	-3982
▁ennél	-3983
▁puszt	-3984
▁művész	-3985
▁kifizet	-3986
▁indított	-3987
▁ipar	-3988
▁Tibor	-3989
▁ötlet	-3990
▁90	-3991
ílus	-3992
▁eredet	-3993
▁látvány	-3994
▁okozott	-3995
▁számolt	-3996
▁olimpiai	-3997
▁Országgyűlés	-3998
uzs	-3999
séklet	-4000
ödik	-4001
▁kölcsön	-4002
kedő	-4003
▁kin	-4004
fogás	-4005
▁körüli	-4006
▁kizárólag	-4007
▁kereskedelmi	-4008
övezet	-4009
▁lista	-4010
▁valós	-4011
▁Szeged	-4012
▁készít	-4013
▁működő	-4014
jával	-4015
▁Bíróság	-4016
NP	-4017
▁eg	-4018
issz	-4019
úlius	-4020
▁Real	-4021
▁közösségi	-4022
▁tárgyalás	-4023
kos	-4024
ugál	-4025
ebben	-4026
erült	-4027
▁visel	-4028
▁számol	-4029
▁versenyző	-4030
▁munkavállal	-4031
tér	-4032
öny	-4033
▁mos	-4034
öntet	-4035
▁heti	-4036
▁Balázs	-4037
▁képzés	-4038
üv	-4039
otó	-4040
▁15-	-4041
▁Mal	-4042
▁lelk	-4043
▁nemr	-4044
▁kérte	-4045
▁mentő	-4046
▁pontot	-4047
▁pénztár	-4048
▁Budapesti	-4049
▁Hol	-4050
▁izg	-4051
▁Alap	-4052
▁tervek	-4053
▁megprób	-4054
▁szerdai	-4055
mérséklet	-4056
▁probléma	-4057
▁feljelent	-4058
▁Di	-4059
▁Dav	-4060
▁néző	-4061
▁ukat	-4062
▁magam	-4063
▁megkérd	-4064
Az	-4065
▁4.	-4066
▁méret	-4067
▁napja	-4068
▁Persze	-4069
▁könnyű	-4070
▁Fővárosi	-4071
▁politika	-4072
▁határozat	-4073
ival	-4074
▁ist	-4075
▁kerék	-4076
▁minél	-4077
▁boldog	-4078
▁195	-4079
▁keddi	-4080
▁panasz	-4081
▁komment	-4082
▁egyeztet	-4083
▁vezetett	-4084
▁augusztus	-4085
esi	-4086
élt	-4087
▁11-	-4088
▁érz	-4089
▁derül	-4090
tatiszt	-4091
▁ajánlat	-4092
▁kormányzati	-4093
elly	-4094
▁oly	-4095
einek	-4096
ésének	-4097
▁nyílt	-4098
▁centim	-4099
▁mutató	-4100
▁pozitív	-4101
▁szabályozás	-4102
ux	-4103
ttel	-4104
ényi	-4105
▁pozíció	-4106
▁ellentét	-4107
▁másodperc	-4108
▁veszteség	-4109
▁elkövetett	-4110
▁képviselők	-4111
ráció	-4112
▁eurót	-4113
▁gazdag	-4114
▁legfel	-4115
▁oldalon	-4116
▁tartozik	-4117
▁egyszerűen	-4118
▁felelősség	-4119
ukt	-4120
széd	-4121
▁196	-4122
ológia	-4123
▁adatai	-4124
▁alapvet	-4125
▁nevezte	-4126
ető	-4127
▁köv	-4128
▁betegség	-4129
▁emlékeztet	-4130
eje	-4131
írt	-4132
▁La	-4133
áján	-4134
▁Kom	-4135
▁Tóth	-4136
▁ritk	-4137
▁elemző	-4138
▁pszich	-4139
▁látszik	-4140
▁ellenzéki	-4141
▁bűncselekmény	-4142
ébb	-4143
▁Tisz	-4144
▁mérsék	-4145
▁ezúttal	-4146
▁tartozó	-4147
▁szerepet	-4148
▁GDP	-4149
▁győztes	-4150
▁kevésbé	-4151
kut	-4152
ook	-4153
egyen	-4154
takar	-4155
▁felf	-4156
hetett	-4157
▁továbbá	-4158
▁lehetséges	-4159
▁szakemberek	-4160
▁jával	-4161
▁másfél	-4162
▁7-	-4163
▁Bud	-4164
▁repül	-4165
▁képesség	-4166
▁Ezért	-4167
▁reklám	-4168
▁világh	-4169
▁folytató	-4170
▁gyanúsított	-4171
pró	-4172
ódi	-4173
▁38	-4174
▁eső	-4175
▁japán	-4176
▁évente	-4177
▁szolgálat	-4178
ilt	-4179
▁adni	-4180
▁légi	-4181
▁évig	-4182
▁Fehér	-4183
▁valóság	-4184
▁szakértők	-4185
nos	-4186
uper	-4187
▁ton	-4188
elyik	-4189
▁kelt	-4190
▁menek	-4191
▁révén	-4192
▁egyben	-4193
▁alakult	-4194
▁konkrét	-4195
▁közelében	-4196
fg	-4197
eai	-4198
nes	-4199
▁Ab	-4200
▁Iz	-4201
onyol	-4202
▁Vesz	-4203
▁káros	-4204
▁Mester	-4205
elmiszer	-4206
▁ajándék	-4207
▁előford	-4208
▁nélküli	-4209
▁vádlott	-4210
▁Fr	-4211
ételt	-4212
▁Rich	-4213
▁2007-	-4214
▁kapta	-4215
▁hatály	-4216
▁felkész	-4217
étől	-4218
▁rögz	-4219
ezmény	-4220
▁ingyen	-4221
▁rekord	-4222
▁visszav	-4223
▁területén	-4224
polgármester	-4225
▁Tovább	-4226
▁akkori	-4227
▁nyerte	-4228
▁koncent	-4229
▁eljárást	-4230
▁Népszabadság	-4231
bank	-4232
fehér	-4233
közel	-4234
ársaság	-4235
▁július	-4236
▁megrend	-4237
▁percben	-4238
▁amelyeket	-4239
arc	-4240
ukor	-4241
▁öröm	-4242
▁kocsi	-4243
▁korrup	-4244
▁pártok	-4245
▁sokszor	-4246
20	-4247
fa	-4248
amb	-4249
▁6-	-4250
▁csúsz	-4251
▁stílus	-4252
▁mutatja	-4253
▁Ir	-4254
adni	-4255
ogyan	-4256
raeli	-4257
▁Mart	-4258
▁szur	-4259
▁Angel	-4260
▁szomszéd	-4261
▁százalékot	-4262
▁bőr	-4263
▁tit	-4264
enként	-4265
vai	-4266
▁felsz	-4267
▁alkalmas	-4268
▁kockázat	-4269
▁tartomány	-4270
ázó	-4271
▁med	-4272
▁lemond	-4273
▁botrány	-4274
▁szerepelt	-4275
DNP	-4276
essen	-4277
▁rejt	-4278
▁szűk	-4279
edmény	-4280
▁járul	-4281
szerint	-4282
▁vállalkozás	-4283
.),	-4284
ására	-4285
ashing	-4286
chester	-4287
▁hozzát	-4288
▁hajland	-4289
▁vezette	-4290
néz	-4291
▁km	-4292
azil	-4293
▁Int	-4294
▁hom	-4295
▁tük	-4296
▁gyár	-4297
▁ipari	-4298
▁napilap	-4299
▁szerződést	-4300
ádi	-4301
magas	-4302
▁nappal	-4303
▁munkanélkül	-4304
pad	-4305
▁biztosít	-4306
öp	-4307
uli	-4308
jének	-4309
ozást	-4310
▁husz	-4311
▁kies	-4312
▁tábor	-4313
▁ellenfel	-4314
▁Gu	-4315
ogle	-4316
hetik	-4317
▁kiváló	-4318
▁Horváth	-4319
▁hatalom	-4320
▁nyugati	-4321
▁tökélet	-4322
▁közlekedési	-4323
per	-4324
kett	-4325
aránt	-4326
▁autós	-4327
▁Nagyon	-4328
▁tavasz	-4329
▁csapata	-4330
▁vezetői	-4331
▁állítja	-4332
▁élelmiszer	-4333
▁Pa	-4334
▁Én	-4335
▁20-	-4336
▁pir	-4337
▁átv	-4338
▁külső	-4339
▁belőle	-4340
▁hozzáj	-4341
▁szolgál	-4342
ita	-4343
védő	-4344
órum	-4345
▁Hat	-4346
▁Vid	-4347
▁Ilyen	-4348
▁számú	-4349
▁kaptak	-4350
▁rajong	-4351
▁bajnoki	-4352
▁helyszínen	-4353
▁me	-4354
ofőr	-4355
▁jük	-4356
aradt	-4357
encia	-4358
▁robban	-4359
▁szóvivő	-4360
▁egyaránt	-4361
▁beruházás	-4362
MF	-4363
inc	-4364
▁frank	-4365
▁nekem	-4366
▁jelentés	-4367
▁hivatkozva	-4368
▁közleményében	-4369
hogy	-4370
▁dik	-4371
irtok	-4372
▁John	-4373
▁mire	-4374
▁üket	-4375
ítését	-4376
▁médiat	-4377
▁szélső	-4378
▁interjú	-4379
▁pénteki	-4380
▁történő	-4381
▁különbség	-4382
▁8-	-4383
▁gal	-4384
ozzák	-4385
▁olcsó	-4386
▁pályára	-4387
▁átlagos	-4388
▁nagyjából	-4389
▁megállapodás	-4390
▁TV	-4391
adók	-4392
ezése	-4393
▁cseh	-4394
▁házi	-4395
▁Kriszt	-4396
▁fognak	-4397
▁szünet	-4398
▁Ár	-4399
▁Fej	-4400
▁Szomb	-4401
▁mellé	-4402
▁sztár	-4403
▁semmit	-4404
▁szórak	-4405
▁hagyomány	-4406
▁használat	-4407
▁időszakban	-4408
ons	-4409
▁dísz	-4410
▁dollárt	-4411
▁Szerinte	-4412
▁Szövetség	-4413
▁szakszervezet	-4414
▁194	-4415
▁meggy	-4416
▁olvasó	-4417
▁sebesség	-4418
▁következt	-4419
▁hozzátette	-4420
ism	-4421
tem	-4422
érm	-4423
▁Tav	-4424
▁viz	-4425
▁Mark	-4426
▁fokozat	-4427
▁fejlődés	-4428
▁személyes	-4429
ana	-4430
jog	-4431
▁eleg	-4432
ezhető	-4433
▁kapus	-4434
▁Google	-4435
▁sikeres	-4436
▁centiméter	-4437
▁helyzetben	-4438
eci	-4439
uth	-4440
edés	-4441
▁Mih	-4442
▁Szak	-4443
▁vettek	-4444
▁óriási	-4445
▁üzenet	-4446
▁fizetni	-4447
▁hőmérséklet	-4448
enti	-4449
ítik	-4450
▁sáv	-4451
ázott	-4452
▁bíró	-4453
▁jában	-4454
▁hasonl	-4455
▁kiderül	-4456
▁állandó	-4457
▁FC	-4458
▁Hét	-4459
▁Vol	-4460
▁Varga	-4461
▁szerb	-4462
▁döntet	-4463
▁érdekes	-4464
▁elektron	-4465
▁szerkezet	-4466
▁százalékra	-4467
▁isz	-4468
▁kol	-4469
▁rel	-4470
▁sug	-4471
áltak	-4472
▁Barcel	-4473
▁konfer	-4474
▁műszaki	-4475
TE	-4476
raj	-4477
kező	-4478
▁Vel	-4479
▁időt	-4480
▁vita	-4481
▁hamis	-4482
▁ötven	-4483
▁akarja	-4484
▁kórházba	-4485
amp	-4486
▁ür	-4487
▁vall	-4488
▁iskola	-4489
▁ügyészség	-4490
ecsk	-4491
▁Tor	-4492
▁árt	-4493
▁felúj	-4494
▁önmag	-4495
▁hétfői	-4496
▁közeli	-4497
▁piacon	-4498
▁elérhető	-4499
▁csütörtöki	-4500
▁számítógép	-4501
▁Oroszország	-4502
oks	-4503
▁II	-4504
▁por	-4505
▁esti	-4506
▁kkal	-4507
▁kocs	-4508
▁anyagi	-4509
tan	-4510
▁ják	-4511
adott	-4512
▁Term	-4513
▁részén	-4514
▁üzleti	-4515
▁kiemelt	-4516
▁folytatás	-4517
▁Ugyanakkor	-4518
ötét	-4519
▁mindegy	-4520
▁közönség	-4521
▁dolgozott	-4522
▁valamennyi	-4523
hang	-4524
örny	-4525
janak	-4526
keres	-4527
ovics	-4528
avazás	-4529
ítások	-4530
▁Madrid	-4531
▁birtok	-4532
▁következtében	-4533
onc	-4534
▁PL	-4535
orvég	-4536
▁Pest	-4537
▁sikerül	-4538
▁8,	-4539
tatni	-4540
európai	-4541
icc	-4542
őző	-4543
etet	-4544
▁tőzsd	-4545
ítására	-4546
▁magukat	-4547
▁töltött	-4548
▁Szabolcs	-4549
▁kerültek	-4550
▁számában	-4551
▁Bors	-4552
▁évet	-4553
▁ajánl	-4554
▁megfi	-4555
▁messz	-4556
▁központi	-4557
dor	-4558
alan	-4559
▁kora	-4560
▁rajz	-4561
▁majdnem	-4562
▁államfő	-4563
▁említett	-4564
▁üzemeltet	-4565
aceb	-4566
osok	-4567
ásával	-4568
▁autót	-4569
▁klassz	-4570
▁ügyében	-4571
▁törvényt	-4572
▁nyilatkozat	-4573
ogat	-4574
óval	-4575
ajnai	-4576
▁tették	-4577
▁énekes	-4578
▁Michael	-4579
▁Szlovák	-4580
▁szegény	-4581
▁rendszert	-4582
▁egyértelműen	-4583
óra	-4584
▁Egyes	-4585
▁bázis	-4586
csoport	-4587
▁háború	-4588
▁ötödik	-4589
▁ügyfel	-4590
▁mondott	-4591
▁Ó	-4592
▁42	-4593
▁sztrájk	-4594
▁véletlen	-4595
zió	-4596
▁gum	-4597
óknak	-4598
▁2007	-4599
▁menedzs	-4600
ilv	-4601
▁39	-4602
▁sziv	-4603
▁Antal	-4604
▁fordult	-4605
▁holland	-4606
▁Minisztérium	-4607
▁Q	-4608
raf	-4609
ellen	-4610
▁lassan	-4611
▁többsége	-4612
▁szeretnék	-4613
esse	-4614
való	-4615
abban	-4616
▁fert	-4617
▁Észak	-4618
▁alkalm	-4619
▁benzin	-4620
▁széles	-4621
▁tudományos	-4622
▁szempontból	-4623
▁5.	-4624
iatt	-4625
átus	-4626
▁fogják	-4627
▁indítvány	-4628
▁problémák	-4629
sák	-4630
▁neve	-4631
szerző	-4632
▁online	-4633
▁terror	-4634
▁források	-4635
▁kétharmad	-4636
▁végrehajt	-4637
▁szövetségi	-4638
▁Chr	-4639
▁Ott	-4640
▁man	-4641
oznak	-4642
▁tőle	-4643
▁étel	-4644
▁előadás	-4645
▁könnyen	-4646
▁legutóbbi	-4647
adja	-4648
▁400	-4649
ültek	-4650
▁szel	-4651
▁zsid	-4652
ájának	-4653
▁Forma	-4654
▁Obama	-4655
▁hagyományos	-4656
▁világbajnokság	-4657
ket	-4658
▁ko	-4659
▁hass	-4660
▁kisz	-4661
hatják	-4662
▁hírek	-4663
▁alelnök	-4664
▁koncert	-4665
▁negyven	-4666
igazgatás	-4667
▁visszaes	-4668
▁területen	-4669
▁Manchester	-4670
ley	-4671
áért	-4672
▁fele	-4673
▁étől	-4674
▁emiatt	-4675
▁katonai	-4676
▁tájékoztatása	-4677
▁aj	-4678
inál	-4679
▁Kir	-4680
▁kulcs	-4681
▁páros	-4682
▁sofőr	-4683
▁okozta	-4684
▁állnak	-4685
▁játszik	-4686
▁tartanak	-4687
▁érdeklődés	-4688
▁figyelmeztet	-4689
▁üv	-4690
rium	-4691
ódás	-4692
▁apró	-4693
▁tétel	-4694
esztett	-4695
▁érkező	-4696
▁hajlandó	-4697
▁statiszt	-4698
▁Fi	-4699
egnap	-4700
▁véli	-4701
▁SZDSZ	-4702
▁hiába	-4703
▁gazdál	-4704
▁fogalmaz	-4705
▁rengeteg	-4706
▁letartóztatás	-4707
ph	-4708
▁aktív	-4709
▁hozzájár	-4710
xim	-4711
▁káb	-4712
orosz	-4713
▁Akkor	-4714
▁összeh	-4715
▁állította	-4716
▁ű	-4717
▁and	-4718
▁kod	-4719
▁net	-4720
lehet	-4721
tette	-4722
▁fagy	-4723
▁Egész	-4724
▁melyek	-4725
▁izraeli	-4726
▁gyakorlatilag	-4727
ky	-4728
uni	-4729
part	-4730
ánál	-4731
▁Oly	-4732
▁sár	-4733
váltás	-4734
▁Három	-4735
▁Jelen	-4736
▁honlapján	-4737
▁támogatást	-4738
▁bizonytalan	-4739
nár	-4740
ebek	-4741
járt	-4742
▁hús	-4743
▁ágy	-4744
elmes	-4745
▁Ezen	-4746
▁Andre	-4747
▁látja	-4748
▁plusz	-4749
ozása	-4750
ítást	-4751
▁mennyire	-4752
car	-4753
pel	-4754
▁if	-4755
▁un	-4756
▁sim	-4757
▁jára	-4758
▁vétel	-4759
▁gyártó	-4760
▁rendelkező	-4761
nyt	-4762
asztó	-4763
kocsi	-4764
▁Ebben	-4765
▁válik	-4766
▁nyáron	-4767
▁tartalm	-4768
▁hallgató	-4769
▁kerületi	-4770
▁hamarosan	-4771
gó	-4772
üm	-4773
▁Mát	-4774
▁Nyom	-4775
▁Robert	-4776
▁nyitott	-4777
▁szigorú	-4778
▁dolgozik	-4779
▁o	-4780
osi	-4781
▁Cr	-4782
▁Pár	-4783
három	-4784
▁kever	-4785
▁speci	-4786
▁különleges	-4787
▁PK	-4788
▁eit	-4789
▁neg	-4790
▁City	-4791
▁voks	-4792
berális	-4793
▁fölött	-4794
▁kezdte	-4795
▁létszám	-4796
▁pályázat	-4797
▁tudomány	-4798
▁szocialisták	-4799
ügyminisztérium	-4800
ivál	-4801
▁közv	-4802
ezetten	-4803
▁városi	-4804
▁intézet	-4805
▁vezetés	-4806
▁Veszprém	-4807
▁megtakar	-4808
▁Európában	-4809
1)	-4810
Sz	-4811
▁Tal	-4812
▁észre	-4813
▁elkezd	-4814
▁forrad	-4815
▁megint	-4816
▁külföld	-4817
▁keresztény	-4818
TP	-4819
vid	-4820
külön	-4821
▁Unit	-4822
szerte	-4823
▁közepén	-4824
po	-4825
enő	-4826
pia	-4827
▁Ap	-4828
▁ch	-4829
sága	-4830
▁horvát	-4831
▁Lengyel	-4832
üsz	-4833
▁NA	-4834
▁Os	-4835
▁ait	-4836
egész	-4837
sztön	-4838
▁csod	-4839
▁tűnt	-4840
ökkent	-4841
▁autom	-4842
▁elemzés	-4843
▁kezdődött	-4844
aná	-4845
köt	-4846
lob	-4847
illa	-4848
▁Som	-4849
▁bolt	-4850
▁tilt	-4851
▁elind	-4852
▁régió	-4853
▁szerű	-4854
▁Debrecen	-4855
ova	-4856
▁44	-4857
▁Jos	-4858
jenek	-4859
▁utáni	-4860
▁Mihály	-4861
▁alatti	-4862
▁vezetők	-4863
ené	-4864
onyi	-4865
▁kur	-4866
kodik	-4867
▁felfed	-4868
▁nyomán	-4869
▁tudták	-4870
▁azoknak	-4871
ax	-4872
▁48	-4873
erem	-4874
ábban	-4875
▁vágy	-4876
▁elvég	-4877
▁végéig	-4878
▁Balaton	-4879
▁származó	-4880
▁demokráci	-4881
szig	-4882
▁mad	-4883
▁roh	-4884
▁Érd	-4885
ákban	-4886
▁adóz	-4887
▁hiba	-4888
▁autók	-4889
▁kellem	-4890
▁felfügg	-4891
▁megjegy	-4892
▁időjárás	-4893
▁szervezetek	-4894
bban	-4895
elése	-4896
▁múzeum	-4897
▁negatív	-4898
▁ugyanaz	-4899
▁főszerep	-4900
lók	-4901
▁bb	-4902
▁híd	-4903
▁mat	-4904
ainak	-4905
ulhat	-4906
▁kiegész	-4907
▁felmérés	-4908
▁álláspont	-4909
adi	-4910
▁Mat	-4911
▁enyh	-4912
▁ural	-4913
▁gener	-4914
▁látni	-4915
▁időpont	-4916
▁bemutató	-4917
▁gyilkosság	-4918
▁karácsonyi	-4919
edd	-4920
alog	-4921
üssz	-4922
▁éven	-4923
▁örül	-4924
▁kettő	-4925
ercedes	-4926
▁rendelet	-4927
▁körülmény	-4928
▁MÁ	-4929
újabb	-4930
▁mért	-4931
▁szén	-4932
▁ánál	-4933
▁díjat	-4934
▁mások	-4935
▁követő	-4936
▁színház	-4937
▁csapatok	-4938
▁hétvégén	-4939
▁nagykövet	-4940
▁alacsonyabb	-4941
esít	-4942
▁für	-4943
kozás	-4944
szint	-4945
▁déli	-4946
▁befej	-4947
▁kapnak	-4948
▁mennyi	-4949
▁jelezte	-4950
▁védelem	-4951
▁fiatalok	-4952
▁kérdésre	-4953
▁januárban	-4954
▁Mesterházy	-4955
si	-4956
alk	-4957
▁55	-4958
▁ró	-4959
ital	-4960
▁Bay	-4961
▁előz	-4962
▁szed	-4963
▁velük	-4964
▁mérleg	-4965
helyettes	-4966
▁szeretne	-4967
leked	-4968
▁2011	-4969
▁Pécs	-4970
▁cigány	-4971
▁filmet	-4972
▁vadász	-4973
▁befizet	-4974
▁működtet	-4975
▁szabályok	-4976
▁értelmében	-4977
cion	-4978
ciók	-4979
hagy	-4980
ősen	-4981
▁Gerg	-4982
▁záró	-4983
esszor	-4984
▁Olasz	-4985
▁kilát	-4986
▁lépés	-4987
atórium	-4988
▁Tavaly	-4989
▁háttér	-4990
▁önként	-4991
▁győzelm	-4992
▁dolláros	-4993
▁városban	-4994
▁ev	-4995
ovic	-4996
▁Dem	-4997
▁fék	-4998
▁rúg	-4999
▁Hung	-5000
▁Szám	-5001
kodott	-5002
▁Bajnai	-5003
▁belvíz	-5004
▁berend	-5005
biztonság	-5006
▁legfeljebb	-5007
▁bejelentette	-5008
▁jót	-5009
udvar	-5010
▁mozd	-5011
▁Spanyol	-5012
▁Németország	-5013
ami	-5014
ger	-5015
rav	-5016
▁ant	-5017
olikus	-5018
▁Moszk	-5019
▁ösztön	-5020
▁akiknek	-5021
▁ismerős	-5022
▁autópály	-5023
▁rendkívüli	-5024
szol	-5025
▁Aki	-5026
▁Eur	-5027
▁futó	-5028
▁sötét	-5029
▁véget	-5030
▁magunk	-5031
▁építés	-5032
▁csatorn	-5033
▁védelmi	-5034
▁hónapban	-5035
▁szeretné	-5036
▁veszélyes	-5037
plom	-5038
ritan	-5039
▁szánt	-5040
▁induló	-5041
▁sajnos	-5042
allgatás	-5043
▁járulék	-5044
▁történik	-5045
▁semmilyen	-5046
▁médiatörvény	-5047
mán	-5048
▁Cseh	-5049
▁Munk	-5050
▁beny	-5051
▁ront	-5052
▁torn	-5053
asztás	-5054
▁támadó	-5055
▁északi	-5056
▁Intézet	-5057
▁mondani	-5058
politikai	-5059
▁közösség	-5060
▁legújabb	-5061
▁vasárnapi	-5062
▁figyelembe	-5063
▁milliárdos	-5064
TO	-5065
éti	-5066
őbb	-5067
autó	-5068
▁Kol	-5069
▁olt	-5070
ellyel	-5071
▁abból	-5072
▁tanár	-5073
▁aminek	-5074
▁hullám	-5075
▁kettős	-5076
▁körzet	-5077
▁megegy	-5078
▁polgár	-5079
▁végére	-5080
▁hálózat	-5081
opp	-5082
▁bont	-5083
▁falu	-5084
▁megm	-5085
▁lezár	-5086
▁megsér	-5087
▁tettek	-5088
▁milliós	-5089
▁találkozó	-5090
▁köztársaság	-5091
▁fű	-5092
agóg	-5093
▁BBC	-5094
▁közbe	-5095
kormány	-5096
ocsátás	-5097
br	-5098
ena	-5099
▁Med	-5100
▁agr	-5101
▁utat	-5102
▁látsz	-5103
▁várja	-5104
▁kivétel	-5105
▁valójában	-5106
jék	-5107
udi	-5108
▁Lev	-5109
▁OTP	-5110
ozási	-5111
▁Görög	-5112
▁veszi	-5113
▁verzió	-5114
▁esetleges	-5115
pe	-5116
off	-5117
▁Tr	-5118
anci	-5119
ulni	-5120
▁rám	-5121
ségét	-5122
▁annál	-5123
▁szólt	-5124
▁érzés	-5125
▁United	-5126
▁élmény	-5127
▁regiszt	-5128
▁tanácsadó	-5129
főbb	-5130
állt	-5131
▁Erd	-5132
▁Hon	-5133
▁2006	-5134
▁Erre	-5135
▁Szín	-5136
▁Aztán	-5137
▁elérni	-5138
▁megkap	-5139
▁magazin	-5140
▁meccsen	-5141
▁összeget	-5142
▁kifejezetten	-5143
omp	-5144
▁15.	-5145
▁Dáv	-5146
▁gát	-5147
▁ped	-5148
▁szoft	-5149
▁kultúr	-5150
▁nemrég	-5151
▁rosszul	-5152
▁vendégek	-5153
▁döntetlen	-5154
▁foglalkozó	-5155
▁MÁV	-5156
fizet	-5157
onban	-5158
▁Faceb	-5159
▁alkoh	-5160
▁karri	-5161
▁fellép	-5162
▁közösen	-5163
▁Ráadásul	-5164
▁előrejel	-5165
▁irodalom	-5166
▁embereket	-5167
▁bizonyíték	-5168
▁̋	-5169
▁Ge	-5170
▁jö	-5171
▁eladás	-5172
▁kezdet	-5173
nék	-5174
▁vaj	-5175
▁Times	-5176
▁öltöz	-5177
▁derült	-5178
▁koncep	-5179
▁napján	-5180
▁négyzet	-5181
▁ponttal	-5182
▁szerepl	-5183
▁templom	-5184
▁nyomozás	-5185
▁Természet	-5186
▁befektetők	-5187
▁46	-5188
▁lov	-5189
▁rádió	-5190
▁mellék	-5191
▁helyzetet	-5192
▁határozott	-5193
▁információk	-5194
par	-5195
▁Ág	-5196
elég	-5197
▁Dávid	-5198
▁melyik	-5199
▁oktatás	-5200
▁találták	-5201
1,	-5202
▁var	-5203
▁Pénz	-5204
▁utca	-5205
▁Gyula	-5206
▁fórum	-5207
▁valah	-5208
▁valamit	-5209
▁legmagas	-5210
▁közvetlen	-5211
▁nyilatkozott	-5212
▁szempontjából	-5213
▁43	-5214
éért	-5215
▁Wik	-5216
▁old	-5217
▁oper	-5218
▁róla	-5219
▁segély	-5220
sh	-5221
con	-5222
▁tá	-5223
▁tü	-5224
alás	-5225
olnok	-5226
ublik	-5227
▁fejl	-5228
▁sújt	-5229
▁tanú	-5230
▁voltam	-5231
han	-5232
▁49	-5233
hatunk	-5234
ikában	-5235
▁maxim	-5236
▁megye	-5237
▁miként	-5238
▁tegnap	-5239
esztivál	-5240
▁későbbi	-5241
▁meghalt	-5242
▁mutatott	-5243
▁viszonylag	-5244
vek	-5245
ábr	-5246
áng	-5247
▁üd	-5248
▁Bél	-5249
▁Col	-5250
▁Kult	-5251
▁Mert	-5252
▁kuty	-5253
▁tőke	-5254
▁levegő	-5255
▁teszik	-5256
▁feldolg	-5257
▁küldött	-5258
▁szívesen	-5259
▁születés	-5260
▁képviselői	-5261
▁képviselője	-5262
▁intézkedések	-5263
ze	-5264
ogó	-5265
oli	-5266
▁kup	-5267
atait	-5268
▁atom	-5269
anadai	-5270
▁adtak	-5271
▁legyőz	-5272
▁tagállam	-5273
tus	-5274
ámp	-5275
vesz	-5276
▁riv	-5277
▁web	-5278
▁utak	-5279
intézet	-5280
▁legend	-5281
▁előkész	-5282
▁oldalán	-5283
▁hírügynökség	-5284
ary	-5285
asi	-5286
omos	-5287
otor	-5288
terj	-5289
▁süt	-5290
▁Mari	-5291
▁elsz	-5292
▁2009.	-5293
▁látott	-5294
lesztési	-5295
▁amelyen	-5296
▁készülék	-5297
▁személyi	-5298
▁szervező	-5299
▁munkatársai	-5300
ss	-5301
▁Jan	-5302
▁leb	-5303
▁nőt	-5304
▁adja	-5305
▁alsó	-5306
sztikus	-5307
ítettek	-5308
▁közzét	-5309
▁kivitel	-5310
▁egymilli	-5311
▁természetes	-5312
▁kijelentette	-5313
gazd	-5314
ezést	-5315
▁tévé	-5316
▁asztal	-5317
▁valódi	-5318
▁halálos	-5319
▁tartalék	-5320
▁ugyancsak	-5321
ins	-5322
▁9,	-5323
eksz	-5324
exik	-5325
▁18.	-5326
▁tél	-5327
osztás	-5328
▁merény	-5329
▁órakor	-5330
▁Mercedes	-5331
▁közlekedés	-5332
▁legmagasabb	-5333
▁hős	-5334
▁trag	-5335
frikai	-5336
▁finom	-5337
▁fogadta	-5338
▁egymással	-5339
▁miszerint	-5340
▁segítséget	-5341
▁közleményben	-5342
vi	-5343
zár	-5344
lány	-5345
isztán	-5346
▁ukrán	-5347
▁rivális	-5348
▁formában	-5349
▁újságíró	-5350
▁rendelkezik	-5351
▁Jó	-5352
▁rét	-5353
▁csőd	-5354
▁drám	-5355
Britan	-5356
▁testvér	-5357
bajnokság	-5358
▁tervezet	-5359
pót	-5360
tlen	-5361
özés	-5362
▁Ker	-5363
▁konf	-5364
hatott	-5365
▁David	-5366
▁halad	-5367
▁méltó	-5368
▁konzerv	-5369
▁részvétel	-5370
▁támogatott	-5371
▁rendszeresen	-5372
fej	-5373
iga	-5374
les	-5375
▁áp	-5376
▁ily	-5377
▁pih	-5378
ológi	-5379
▁Török	-5380
▁megúj	-5381
▁téren	-5382
▁érintő	-5383
ashington	-5384
▁elnökség	-5385
▁nyújtott	-5386
▁megállapod	-5387
gl	-5388
eik	-5389
gent	-5390
szky	-5391
▁10.	-5392
▁San	-5393
▁elől	-5394
▁komp	-5395
büntet	-5396
▁nehezen	-5397
▁nincsenek	-5398
▁veszélyeztet	-5399
eknek	-5400
engés	-5401
▁fotó	-5402
▁funk	-5403
▁hajó	-5404
▁tran	-5405
▁idény	-5406
▁bankok	-5407
▁tudtak	-5408
▁hivatalosan	-5409
zák	-5410
▁hé	-5411
ecskem	-5412
▁tárca	-5413
▁azután	-5414
▁csinál	-5415
▁mezőny	-5416
▁egyetért	-5417
▁nyereség	-5418
▁Washington	-5419
▁fejlesztés	-5420
▁valamilyen	-5421
▁főpolgármester	-5422
▁AP	-5423
dése	-5424
olaj	-5425
▁Dom	-5426
▁Red	-5427
▁Sem	-5428
▁Tar	-5429
▁huszon	-5430
▁összet	-5431
▁képesek	-5432
▁szakértő	-5433
áf	-5434
ica	-5435
ovj	-5436
adal	-5437
rált	-5438
ezhet	-5439
lotta	-5440
▁Hagy	-5441
▁Párt	-5442
▁elkerül	-5443
▁fővárosban	-5444
▁fa	-5445
▁kő	-5446
▁sh	-5447
▁öl	-5448
▁disz	-5449
▁koncepció	-5450
FK	-5451
ht	-5452
▁EN	-5453
▁fil	-5454
▁élt	-5455
könyv	-5456
ítést	-5457
▁zene	-5458
ekszik	-5459
▁erősen	-5460
▁mégsem	-5461
▁ponton	-5462
▁villamos	-5463
▁vásárlás	-5464
▁tisztelet	-5465
▁történelem	-5466
▁intézmények	-5467
öb	-5468
evők	-5469
▁20.	-5470
ektív	-5471
▁erej	-5472
ozások	-5473
▁brazil	-5474
▁ezután	-5475
▁nálunk	-5476
▁megalap	-5477
bi	-5478
bor	-5479
▁6.	-5480
ella	-5481
éria	-5482
▁Mit	-5483
▁adót	-5484
▁hitt	-5485
▁mand	-5486
▁rajt	-5487
ítanak	-5488
▁csatár	-5489
▁mondták	-5490
▁újságír	-5491
▁művészet	-5492
▁számítani	-5493
▁decemberben	-5494
).	-5495
erd	-5496
tön	-5497
iver	-5498
ítél	-5499
▁hűt	-5500
észek	-5501
▁öreg	-5502
▁aktiv	-5503
▁Múzeum	-5504
vezetője	-5505
▁jellegű	-5506
▁legfőbb	-5507
▁ausztrál	-5508
▁elfogadott	-5509
▁Államokban	-5510
▁önkormányz	-5511
▁tájékoztatta	-5512
▁%	-5513
kóz	-5514
▁(3	-5515
junk	-5516
pest	-5517
▁Mon	-5518
pedig	-5519
▁Kína	-5520
▁ütem	-5521
▁kanadai	-5522
▁stratég	-5523
▁illetékes	-5524
ans	-5525
▁Pl	-5526
aték	-5527
▁Pal	-5528
▁USA	-5529
▁din	-5530
▁élv	-5531
aként	-5532
▁Auszt	-5533
▁parancs	-5534
▁amennyiben	-5535
▁Ok	-5536
▁ul	-5537
ítési	-5538
▁Külön	-5539
▁járat	-5540
▁dolgozók	-5541
▁közvélemény	-5542
ürg	-5543
▁Ön	-5544
assa	-5545
▁far	-5546
▁vív	-5547
sereg	-5548
▁nekünk	-5549
▁nyugat	-5550
▁értékű	-5551
▁adatokat	-5552
▁ilyenkor	-5553
▁nyugdíjas	-5554
--	-5555
ác	-5556
▁75	-5557
▁Ám	-5558
▁Ház	-5559
▁sír	-5560
▁Fotó	-5561
▁Kiss	-5562
▁Szal	-5563
▁jóvá	-5564
▁lenn	-5565
▁felszám	-5566
▁üzemanyag	-5567
▁NB	-5568
fgan	-5569
▁álm	-5570
eiben	-5571
▁bány	-5572
emelés	-5573
▁Pedig	-5574
▁akarta	-5575
▁esélye	-5576
▁körben	-5577
▁tartós	-5578
▁feletti	-5579
▁repülőt	-5580
▁infláció	-5581
▁környékén	-5582
iti	-5583
▁7.	-5584
▁bi	-5585
akad	-5586
ucat	-5587
▁Ami	-5588
▁Saj	-5589
▁pat	-5590
▁étt	-5591
▁Bull	-5592
▁Intern	-5593
▁elutas	-5594
amerikai	-5595
▁számított	-5596
▁változott	-5597
▁legalábbis	-5598
0,	-5599
cou	-5600
ous	-5601
rom	-5602
eaks	-5603
▁Mer	-5604
▁hum	-5605
▁kém	-5606
▁műt	-5607
▁pro	-5608
couver	-5609
koreai	-5610
▁ennyi	-5611
▁nevét	-5612
▁néven	-5613
asztott	-5614
▁Miskol	-5615
▁mutatkoz	-5616
igazgatási	-5617
▁rendezett	-5618
▁mérkőzésen	-5619
ico	-5620
övő	-5621
▁56	-5622
▁Li	-5623
▁Ör	-5624
▁jon	-5625
▁kos	-5626
▁táj	-5627
▁tábl	-5628
▁immár	-5629
▁távon	-5630
▁Mindez	-5631
▁főként	-5632
▁típusú	-5633
▁korszak	-5634
▁kezdődik	-5635
ozs	-5636
▁(4	-5637
▁BM	-5638
arnok	-5639
helyi	-5640
▁üveg	-5641
attint	-5642
▁edzés	-5643
▁eurós	-5644
▁sikert	-5645
".	-5646
őlt	-5647
▁mal	-5648
▁ugr	-5649
járat	-5650
▁Lond	-5651
▁példa	-5652
▁aránya	-5653
▁szavazás	-5654
▁egészséges	-5655
▁Jam	-5656
▁Pat	-5657
világ	-5658
▁szán	-5659
▁török	-5660
▁amivel	-5661
▁elvesz	-5662
▁látogatás	-5663
▁állapotban	-5664
ezs	-5665
▁Dun	-5666
▁Gól	-5667
▁hir	-5668
▁Ferr	-5669
asszal	-5670
▁fegyv	-5671
▁képet	-5672
▁utcai	-5673
▁kétség	-5674
▁egyebek	-5675
▁kérdést	-5676
▁melynek	-5677
▁tekintet	-5678
▁Barcelona	-5679
▁euróövezet	-5680
▁kezdeményezés	-5681
örg	-5682
▁fűt	-5683
▁lep	-5684
▁tánc	-5685
▁bronz	-5686
▁félre	-5687
▁kabin	-5688
ítésére	-5689
▁gyalog	-5690
▁modern	-5691
▁Központi	-5692
▁csapadék	-5693
▁helyezett	-5694
▁választókerület	-5695
mit	-5696
▁Los	-5697
▁Vár	-5698
▁fül	-5699
▁rec	-5700
játék	-5701
lanul	-5702
▁küsz	-5703
▁amúgy	-5704
▁földr	-5705
▁Róbert	-5706
▁méteres	-5707
▁hatására	-5708
▁65	-5709
▁Arra	-5710
▁Bizt	-5711
▁Múlt	-5712
▁szög	-5713
▁ablak	-5714
▁hozni	-5715
▁bocsát	-5716
▁bonyol	-5717
▁hirdet	-5718
▁meglepő	-5719
▁szoftver	-5720
usi	-5721
íni	-5722
▁47	-5723
▁Fl	-5724
▁Lu	-5725
▁Na	-5726
napi	-5727
▁Ter	-5728
atják	-5729
ettem	-5730
ülést	-5731
▁sejt	-5732
▁hátsó	-5733
kedelmi	-5734
▁szombati	-5735
▁közgyűlés	-5736
▁vizsgálatok	-5737
iről	-5738
likk	-5739
ázni	-5740
▁25-	-5741
▁ébe	-5742
ovjet	-5743
▁drog	-5744
▁ágaz	-5745
▁itthon	-5746
▁orvosi	-5747
▁döntést	-5748
▁biztosító	-5749
▁tartottak	-5750
▁kormánypárt	-5751
bev	-5752
che	-5753
avéd	-5754
vizsg	-5755
▁élete	-5756
ekedett	-5757
tartási	-5758
▁akiket	-5759
eredmény	-5760
▁Szombat	-5761
szolgálat	-5762
▁ENSZ	-5763
▁áért	-5764
▁kamer	-5765
▁értek	-5766
étlenül	-5767
▁ellene	-5768
▁rögtön	-5769
▁Angeles	-5770
▁alapító	-5771
▁megnyer	-5772
vers	-5773
▁Air	-5774
▁fős	-5775
▁inn	-5776
▁mor	-5777
▁zuh	-5778
hunyt	-5779
▁Béla	-5780
▁nyar	-5781
▁nevet	-5782
▁tucat	-5783
▁éjjel	-5784
▁felszer	-5785
▁gondolt	-5786
▁folyamatos	-5787
▁fejlesztési	-5788
▁szolgáltató	-5789
▁vállalkozások	-5790
dám	-5791
▁Eb	-5792
▁tün	-5793
kezés	-5794
oztak	-5795
▁vicc	-5796
▁remél	-5797
▁szülő	-5798
▁melyet	-5799
▁szuper	-5800
▁állomás	-5801
▁mandátum	-5802
▁egyesület	-5803
▁története	-5804
▁folytatott	-5805
▁meglepetés	-5806
▁megszüntet	-5807
anc	-5808
▁Da	-5809
▁doh	-5810
gyilk	-5811
álati	-5812
étlen	-5813
▁Izra	-5814
▁ifjú	-5815
▁szim	-5816
ozatok	-5817
▁belép	-5818
▁furcs	-5819
▁jének	-5820
▁videó	-5821
▁pilóta	-5822
▁konflik	-5823
▁termékek	-5824
▁államház	-5825
▁állomány	-5826
▁politikusok	-5827
kál	-5828
ille	-5829
▁1,3	-5830
▁dup	-5831
▁erd	-5832
▁höz	-5833
eztem	-5834
ipari	-5835
▁tápl	-5836
▁fekvő	-5837
▁cserél	-5838
▁elemzők	-5839
▁erősödött	-5840
▁magyarázta	-5841
ezr	-5842
iká	-5843
kun	-5844
okk	-5845
one	-5846
▁54	-5847
▁lef	-5848
▁pad	-5849
adion	-5850
▁Hajd	-5851
▁glob	-5852
▁némi	-5853
▁száj	-5854
ilabda	-5855
▁büszk	-5856
▁piros	-5857
szerűbb	-5858
▁Néhány	-5859
▁költöz	-5860
▁felszól	-5861
▁érkezik	-5862
lehetősen	-5863
▁Jelenleg	-5864
▁eredménye	-5865
▁játékosok	-5866
▁tartották	-5867
▁árfolyama	-5868
▁összecsap	-5869
▁jelentőség	-5870
▁polgármestere	-5871
.-	-5872
uss	-5873
uta	-5874
▁52	-5875
▁57	-5876
▁Cap	-5877
▁dem	-5878
▁órán	-5879
ezettek	-5880
▁folyik	-5881
▁akarnak	-5882
▁kritikus	-5883
▁részéről	-5884
▁szüksége	-5885
▁vizsgálatot	-5886
ams	-5887
her	-5888
jait	-5889
▁17.	-5890
jármű	-5891
kezdő	-5892
onald	-5893
▁alul	-5894
▁2012-	-5895
▁csont	-5896
▁híres	-5897
▁sugár	-5898
▁keleti	-5899
▁titkos	-5900
▁fénykép	-5901
▁oktatási	-5902
▁egyszerre	-5903
▁átlagosan	-5904
ájékoztatón	-5905
▁közbeszerzés	-5906
▁Ép	-5907
edék	-5908
▁lél	-5909
iszony	-5910
▁Hírek	-5911
▁ettől	-5912
▁liter	-5913
kapitányság	-5914
▁munkatársa	-5915
▁meghatározó	-5916
▁41	-5917
▁Bu	-5918
▁Hi	-5919
▁Pap	-5920
▁tej	-5921
▁roma	-5922
ellenes	-5923
▁kiterj	-5924
▁ülésén	-5925
▁kerülhet	-5926
▁tartotta	-5927
▁szexuális	-5928
▁támogatja	-5929
vg	-5930
forg	-5931
▁búcs	-5932
▁néha	-5933
▁épül	-5934
▁emelés	-5935
▁mostan	-5936
▁ügyfél	-5937
▁kormányzat	-5938
me	-5939
kit	-5940
seg	-5941
uel	-5942
eteor	-5943
ezési	-5944
▁gárd	-5945
▁hete	-5946
▁ezüst	-5947
▁verte	-5948
▁Miután	-5949
▁export	-5950
▁várják	-5951
▁fizetés	-5952
▁polgári	-5953
▁kereslet	-5954
▁nevezett	-5955
▁színésznő	-5956
▁függetlenül	-5957
ho	-5958
tim	-5959
orna	-5960
▁150	-5961
▁lux	-5962
▁vak	-5963
emier	-5964
onstr	-5965
ásáról	-5966
▁teher	-5967
▁Németh	-5968
▁felesége	-5969
▁hadsereg	-5970
▁kedvezmény	-5971
▁következmény	-5972
FA	-5973
ily	-5974
▁Vl	-5975
ezve	-5976
geli	-5977
ánia	-5978
ttest	-5979
▁2005-	-5980
▁Könyv	-5981
almazás	-5982
▁Molnár	-5983
▁amiért	-5984
▁elhely	-5985
▁benyújt	-5986
▁szerezte	-5987
▁konferenci	-5988
▁tárgyalások	-5989
RFK	-5990
erny	-5991
▁rák	-5992
ülése	-5993
essége	-5994
állító	-5995
▁Hagyó	-5996
▁Lehet	-5997
▁csend	-5998
▁folyt	-5999
▁hívta	-6000
▁Egészség	-6001
▁dolgozni	-6002
▁klasszikus	-6003
▁Görögország	-6004
▁Franciaország	-6005
▁Ex	-6006
▁16-	-6007
arkas	-6008
nának	-6009
▁mark	-6010
teremt	-6011
▁lehetnek	-6012
▁professzor	-6013
▁világbajnoki	-6014
ge	-6015
▁8.	-6016
rand	-6017
▁Láz	-6018
zések	-6019
kezelő	-6020
pályás	-6021
▁adták	-6022
▁amire	-6023
▁iroda	-6024
▁társa	-6025
▁dohány	-6026
▁havazás	-6027
▁meccset	-6028
▁mindkett	-6029
SC	-6030
vé	-6031
óm	-6032
nák	-6033
rón	-6034
onnan	-6035
▁esik	-6036
▁lend	-6037
▁kihív	-6038
▁kissé	-6039
▁ségét	-6040
kutatás	-6041
▁Bajnok	-6042
▁kislány	-6043
▁példány	-6044
▁tapasztalat	-6045
▁meglehetősen	-6046
EH	-6047
iós	-6048
omó	-6049
yás	-6050
▁Tom	-6051
ésőbb	-6052
▁fájd	-6053
▁Ádám	-6054
▁építő	-6055
▁kifejt	-6056
▁szenny	-6057
▁emellett	-6058
▁fogyasztás	-6059
▁bán	-6060
jében	-6061
▁alól	-6062
▁kony	-6063
▁Ehhez	-6064
▁látta	-6065
▁menni	-6066
▁Szabad	-6067
▁felvet	-6068
▁hatvan	-6069
▁mentes	-6070
▁messze	-6071
▁nyugod	-6072
▁önálló	-6073
▁szerkeszt	-6074
▁történtek	-6075
▁javaslatot	-6076
óc	-6077
busz	-6078
film	-6079
járó	-6080
▁sos	-6081
▁Ügy	-6082
▁ása	-6083
kezet	-6084
orvos	-6085
▁dics	-6086
▁felte	-6087
▁időre	-6088
▁váltó	-6089
ionális	-6090
▁kialakult	-6091
▁színvonal	-6092
▁véleménye	-6093
]-	-6094
ein	-6095
ros	-6096
▁Tw	-6097
▁ai	-6098
▁úr	-6099
▁hvg	-6100
▁Carl	-6101
szeres	-6102
szóviv	-6103
▁Végül	-6104
▁radik	-6105
▁mozgás	-6106
▁támogató	-6107
▁jövedelem	-6108
▁repülőgép	-6109
▁tökéletes	-6110
▁eredetileg	-6111
▁novemberben	-6112
▁mindenképpen	-6113
ain	-6114
jött	-6115
olya	-6116
▁átt	-6117
▁Blikk	-6118
▁Nincs	-6119
▁leggy	-6120
▁megőr	-6121
▁napig	-6122
atlanul	-6123
▁sokáig	-6124
▁megelőző	-6125
▁technikai	-6126
▁megerősítette	-6127
ajt	-6128
▁(5	-6129
▁(6	-6130
szki	-6131
▁(1-	-6132
▁Gab	-6133
▁Mel	-6134
almak	-6135
▁Chel	-6136
▁legr	-6137
▁tegy	-6138
▁árul	-6139
▁hozam	-6140
▁vonat	-6141
csökkent	-6142
▁sportág	-6143
▁irányító	-6144
▁jegybank	-6145
▁elektronikus	-6146
yú	-6147
eim	-6148
sea	-6149
mann	-6150
oszl	-6151
▁Bék	-6152
▁ábr	-6153
▁Való	-6154
▁zsidó	-6155
▁bírság	-6156
▁figyel	-6157
▁növény	-6158
▁Színház	-6159
▁hasznos	-6160
▁robbant	-6161
▁világos	-6162
▁termelés	-6163
▁eredményt	-6164
▁korrupció	-6165
ean	-6166
ria	-6167
tom	-6168
▁9-	-6169
▁öv	-6170
▁önt	-6171
anyar	-6172
ilván	-6173
kedik	-6174
okros	-6175
▁kert	-6176
▁nyúl	-6177
▁illeg	-6178
▁szeml	-6179
▁mondjuk	-6180
▁októberben	-6181
▁ov	-6182
ávol	-6183
▁19.	-6184
▁Kép	-6185
▁Sal	-6186
artás	-6187
enisz	-6188
▁tükr	-6189
▁Willi	-6190
▁kezel	-6191
▁kidolg	-6192
▁minket	-6193
állított	-6194
▁külügyminiszter	-6195
zük	-6196
édia	-6197
ozták	-6198
álkoz	-6199
▁nyel	-6200
▁sürg	-6201
elemben	-6202
▁Kapusok	-6203
▁forgató	-6204
▁ismeret	-6205
▁amellyel	-6206
▁helyettes	-6207
▁közleménye	-6208
▁konzervatív	-6209
ura	-6210
▁ep	-6211
inős	-6212
▁Gal	-6213
▁ejt	-6214
▁ján	-6215
▁tál	-6216
eszél	-6217
éppen	-6218
áltató	-6219
▁Arsen	-6220
▁szimp	-6221
▁ügyek	-6222
bizottság	-6223
▁versenyt	-6224
▁liberális	-6225
▁megsérült	-6226
▁repülőtér	-6227
fic	-6228
irod	-6229
▁deb	-6230
▁éért	-6231
séggel	-6232
▁Talán	-6233
▁kerülnek	-6234
▁beszámoló	-6235
▁tulajdonosa	-6236
emű	-6237
ápa	-6238
szék	-6239
▁16.	-6240
▁cip	-6241
▁nal	-6242
▁ták	-6243
▁hárm	-6244
▁adnak	-6245
▁emleg	-6246
▁pilót	-6247
▁profi	-6248
▁Izrael	-6249
▁Nyugat	-6250
▁ajánló	-6251
▁felmer	-6252
▁lapnak	-6253
▁Chelsea	-6254
▁igénybe	-6255
▁megelőz	-6256
▁hajnalban	-6257
emp	-6258
▁Ek	-6259
▁13.	-6260
▁18-	-6261
▁IMF	-6262
▁Jack	-6263
▁bánt	-6264
csapat	-6265
▁Olyan	-6266
▁beval	-6267
örténet	-6268
▁hazánk	-6269
▁mindez	-6270
▁szintű	-6271
▁értéke	-6272
▁gondolom	-6273
▁érdeklőd	-6274
▁gyűjtemény	-6275
pap	-6276
▁1:	-6277
ünch	-6278
▁pak	-6279
▁árak	-6280
▁Hétfő	-6281
▁vihar	-6282
állomás	-6283
▁amiben	-6284
▁hatnak	-6285
▁ügyész	-6286
▁győzött	-6287
▁szektor	-6288
▁szerinti	-6289
▁tűzoltók	-6290
▁érzékeny	-6291
▁részvények	-6292
hi	-6293
bér	-6294
orú	-6295
▁Ju	-6296
▁hű	-6297
▁iP	-6298
korú	-6299
ukra	-6300
▁kék	-6301
▁adós	-6302
▁klím	-6303
▁lelki	-6304
▁Martin	-6305
▁hajlék	-6306
▁ügynök	-6307
▁felület	-6308
▁feszült	-6309
▁kedvenc	-6310
▁elegendő	-6311
▁országot	-6312
▁kapcsolódó	-6313
▁finanszírozás	-6314
-1-	-6315
ano	-6316
▁log	-6317
gyűjt	-6318
▁Katal	-6319
▁munkás	-6320
▁vezeti	-6321
▁színpad	-6322
gáz	-6323
ográ	-6324
▁láz	-6325
▁Négy	-6326
▁címet	-6327
▁elvár	-6328
▁kerek	-6329
ügyelet	-6330
▁meghív	-6331
▁szülők	-6332
▁Bajnokok	-6333
▁vesztette	-6334
SE	-6335
que	-6336
▁Bo	-6337
írus	-6338
▁600	-6339
▁köb	-6340
eként	-6341
▁Paul	-6342
▁adás	-6343
esetre	-6344
▁mesél	-6345
▁rájuk	-6346
▁réteg	-6347
▁dolgok	-6348
▁Gergely	-6349
▁kabinet	-6350
▁magának	-6351
▁szavazók	-6352
▁vállalatok	-6353
▁köztársasági	-6354
▁kommunikációs	-6355
ars	-6356
apcs	-6357
▁Bul	-6358
▁Víz	-6359
▁fig	-6360
enzív	-6361
▁felb	-6362
▁óriás	-6363
szerűen	-6364
▁Király	-6365
▁gyenge	-6366
▁államad	-6367
▁szokásos	-6368
▁ügyvezető	-6369
▁Németországban	-6370
15	-6371
usk	-6372
▁Ft	-6373
▁KN	-6374
enné	-6375
▁Bur	-6376
▁jós	-6377
▁ket	-6378
iségi	-6379
étert	-6380
▁férj	-6381
▁einek	-6382
▁nyári	-6383
▁Bokros	-6384
▁elnöki	-6385
▁halott	-6386
▁közölték	-6387
▁kapcsolatot	-6388
eml	-6389
gye	-6390
▁53	-6391
▁Co	-6392
ikát	-6393
▁1,5	-6394
▁Árp	-6395
ünket	-6396
▁Mont	-6397
▁beav	-6398
▁Lázár	-6399
▁Tisza	-6400
▁végző	-6401
▁gondos	-6402
▁kedves	-6403
▁képzel	-6404
▁megért	-6405
▁szurkol	-6406
▁gépjármű	-6407
▁hirtelen	-6408
▁berendezés	-6409
▁foglalkozik	-6410
▁közvetlenül	-6411
mis	-6412
▁vé	-6413
képp	-6414
▁BMW	-6415
▁Her	-6416
▁Gord	-6417
▁legn	-6418
▁főnök	-6419
▁várnak	-6420
▁gyanúja	-6421
ékesfehér	-6422
▁Egyesület	-6423
▁szakértői	-6424
▁februárban	-6425
fal	-6426
hal	-6427
más	-6428
uttó	-6429
▁Fin	-6430
▁bes	-6431
essék	-6432
javas	-6433
▁Eszt	-6434
▁elev	-6435
▁ását	-6436
▁Simon	-6437
▁virág	-6438
▁ciklus	-6439
▁cselek	-6440
▁igazol	-6441
▁tudunk	-6442
javaslat	-6443
▁elhunyt	-6444
▁erősebb	-6445
▁kattint	-6446
▁mindegyik	-6447
szolgáltatás	-6448
▁szállították	-6449
▁nyugdíjrendszer	-6450
2,	-6451
fur	-6452
▁Sa	-6453
▁gr	-6454
▁(0-	-6455
▁12.	-6456
▁250	-6457
▁has	-6458
▁mín	-6459
erceg	-6460
▁adók	-6461
▁nyak	-6462
▁ainak	-6463
▁Arsenal	-6464
▁közülük	-6465
▁orvosok	-6466
▁reggeli	-6467
▁vásárol	-6468
▁állatok	-6469
ességében	-6470
▁hónappal	-6471
▁rendőrségi	-6472
▁kötelezettség	-6473
csk	-6474
lel	-6475
vál	-6476
szav	-6477
▁erk	-6478
▁megr	-6479
▁fenti	-6480
▁kinev	-6481
▁Érdek	-6482
▁fizetett	-6483
▁izgalmas	-6484
▁megközel	-6485
▁rosszabb	-6486
▁végleges	-6487
▁speciális	-6488
▁mindenkinek	-6489
rog	-6490
inni	-6491
▁Rad	-6492
▁rát	-6493
fajta	-6494
▁távú	-6495
▁vevő	-6496
ümölcs	-6497
▁Közép	-6498
▁legsz	-6499
▁tetsz	-6500
forduló	-6501
▁forinton	-6502
▁háromszor	-6503
▁menetrend	-6504
▁szervezett	-6505
ává	-6506
▁Es	-6507
▁av	-6508
ettó	-6509
ülly	-6510
▁Dec	-6511
▁hev	-6512
▁tető	-6513
evízió	-6514
▁Milan	-6515
▁front	-6516
▁hábor	-6517
▁integ	-6518
▁tagok	-6519
▁Christ	-6520
▁ellenőriz	-6521
▁önkormányzatok	-6522
▁&	-6523
uck	-6524
osta	-6525
▁Nek	-6526
▁Nor	-6527
▁Park	-6528
▁boly	-6529
▁utód	-6530
▁Balog	-6531
▁napot	-6532
▁Somogy	-6533
▁elhagy	-6534
▁hatják	-6535
▁megfog	-6536
▁produk	-6537
▁címvédő	-6538
▁közlése	-6539
▁kormányt	-6540
▁megkeres	-6541
▁dolgoznak	-6542
▁problémát	-6543
▁lehetetlen	-6544
▁tartalmazó	-6545
▁ellentétben	-6546
▁fiatalember	-6547
ace	-6548
fin	-6549
▁58	-6550
▁ob	-6551
▁Öt	-6552
etni	-6553
élyi	-6554
őzött	-6555
▁halt	-6556
▁mozi	-6557
▁szeg	-6558
hatjuk	-6559
▁2008.	-6560
▁Frank	-6561
▁unkat	-6562
▁Borsod	-6563
▁kezdve	-6564
▁Állami	-6565
▁alkotás	-6566
▁megfigy	-6567
▁éjszaka	-6568
▁portugál	-6569
▁merénylet	-6570
▁programot	-6571
▁demokratikus	-6572
nyugdíjpénztári	-6573
▁törvényjavaslat	-6574
ozg	-6575
rei	-6576
▁9.	-6577
▁díz	-6578
ákkal	-6579
▁Függ	-6580
▁adják	-6581
▁kínál	-6582
emokrata	-6583
▁Facebook	-6584
▁játszani	-6585
▁képtelen	-6586
▁területi	-6587
▁legjobban	-6588
▁programok	-6589
▁fordulóban	-6590
▁választott	-6591
▁Természetesen	-6592
▁!!	-6593
▁Sop	-6594
▁mel	-6595
▁ral	-6596
enged	-6597
▁élni	-6598
▁norvég	-6599
▁adomány	-6600
▁hulladék	-6601
▁választó	-6602
▁katolikus	-6603
▁következtet	-6604
KB	-6605
row	-6606
enko	-6607
▁Jon	-6608
▁fém	-6609
akban	-6610
kodni	-6611
lovén	-6612
▁érzi	-6613
▁2002-	-6614
▁terem	-6615
▁mérnök	-6616
▁szoros	-6617
▁felében	-6618
▁megkezd	-6619
▁csinálni	-6620
▁felügyelő	-6621
▁igazgatóság	-6622
▁negyedévben	-6623
▁nyilvánvaló	-6624
▁feljelentést	-6625
▁bűncselekmények	-6626
▁FI	-6627
aták	-6628
▁fia	-6629
▁Alex	-6630
▁lámp	-6631
▁órás	-6632
adások	-6633
▁felép	-6634
▁jából	-6635
▁passz	-6636
akadály	-6637
▁nyomás	-6638
▁készülő	-6639
▁naponta	-6640
▁beszélni	-6641
▁szavazat	-6642
▁helyzetbe	-6643
▁felügyelet	-6644
▁földrengés	-6645
▁megakadály	-6646
▁BU	-6647
▁Ut	-6648
odor	-6649
érmes	-6650
▁Bern	-6651
▁szót	-6652
eszélés	-6653
választ	-6654
esztette	-6655
▁Szerint	-6656
▁illeték	-6657
▁globális	-6658
▁jelenség	-6659
▁Parlament	-6660
▁beavatkoz	-6661
▁személyiség	-6662
ová	-6663
ander	-6664
ermek	-6665
friss	-6666
▁James	-6667
▁hozza	-6668
▁torna	-6669
▁egység	-6670
▁hallott	-6671
ügyészség	-6672
▁Korábban	-6673
▁alelnöke	-6674
biztosítás	-6675
▁alapítvány	-6676
▁növekedést	-6677
▁katasztrófa	-6678
hy	-6679
eot	-6680
ric	-6681
▁áz	-6682
okba	-6683
rajz	-6684
▁12-	-6685
▁21.	-6686
▁Ger	-6687
▁bok	-6688
▁tip	-6689
avart	-6690
▁Audi	-6691
▁Char	-6692
▁gomb	-6693
▁elsőd	-6694
▁okozó	-6695
▁tiszta	-6696
▁akarják	-6697
▁döntése	-6698
▁ellátás	-6699
▁találta	-6700
▁csapatot	-6701
▁juttatás	-6702
▁módosító	-6703
▁valamelyik	-6704
fia	-6705
umb	-6706
olly	-6707
▁193	-6708
▁bez	-6709
vények	-6710
▁héttel	-6711
▁veszik	-6712
▁amelyik	-6713
▁megnyit	-6714
▁tűzoltó	-6715
▁Emellett	-6716
▁jutottak	-6717
▁rendezés	-6718
ík	-6719
ets	-6720
▁59	-6721
▁64	-6722
▁RT	-6723
▁11.	-6724
▁Kon	-6725
▁bab	-6726
▁Éva	-6727
alkot	-6728
▁elej	-6729
▁erők	-6730
▁rett	-6731
▁vasút	-6732
spanyol	-6733
▁bérlet	-6734
▁színes	-6735
▁televízió	-6736
▁hajléktalan	-6737
ária	-6738
▁31-	-6739
▁Seb	-6740
▁fűz	-6741
▁toj	-6742
nként	-6743
▁sége	-6744
▁csoda	-6745
▁terep	-6746
▁árvíz	-6747
▁Gordon	-6748
▁emelte	-6749
▁parkoló	-6750
▁megismer	-6751
▁érdekelt	-6752
▁értesült	-6753
▁bármilyen	-6754
▁lakossági	-6755
▁FT	-6756
▁ly	-6757
▁vá	-6758
▁mez	-6759
▁pre	-6760
▁rug	-6761
iszap	-6762
menet	-6763
▁fölé	-6764
atikai	-6765
ogatás	-6766
▁Azért	-6767
▁tudat	-6768
▁legutóbb	-6769
▁tekintve	-6770
▁vezetést	-6771
▁Független	-6772
▁jobboldali	-6773
▁rendelkezésre	-6774
oki	-6775
lése	-6776
onda	-6777
szal	-6778
▁Nov	-6779
▁fár	-6780
▁kre	-6781
▁kén	-6782
intén	-6783
▁Anna	-6784
▁sága	-6785
▁napos	-6786
▁okból	-6787
▁végső	-6788
▁zenek	-6789
ménnyel	-6790
▁hagyta	-6791
▁házasság	-6792
▁megoldást	-6793
▁szerintem	-6794
▁elektromos	-6795
▁befektetési	-6796
jan	-6797
ola	-6798
▁!"	-6799
koló	-6800
ábbi	-6801
▁23-	-6802
▁Pan	-6803
▁dig	-6804
▁szé	-6805
ekció	-6806
sburg	-6807
▁Kedd	-6808
▁vont	-6809
▁bárki	-6810
▁hatja	-6811
▁sosem	-6812
▁bejegy	-6813
▁bruttó	-6814
▁megnéz	-6815
▁mínusz	-6816
▁vasúti	-6817
▁Katalin	-6818
▁betegek	-6819
▁szerepe	-6820
▁feladata	-6821
▁komolyan	-6822
▁diplomáci	-6823
▁elégedett	-6824
▁hozzátéve	-6825
▁szezonban	-6826
íl	-6827
▁stb	-6828
asonl	-6829
ekkor	-6830
elmek	-6831
iptom	-6832
eszter	-6833
▁divat	-6834
▁lemez	-6835
▁Ágnes	-6836
bevétel	-6837
▁megtud	-6838
▁reagált	-6839
▁munkáját	-6840
▁vizsgálja	-6841
▁tö	-6842
edek	-6843
ikat	-6844
kupa	-6845
▁Kam	-6846
▁Toy	-6847
itter	-6848
▁láng	-6849
enault	-6850
izáció	-6851
viselő	-6852
▁Japán	-6853
▁helyét	-6854
▁kerülő	-6855
▁száraz	-6856
▁kiadott	-6857
▁literes	-6858
▁Év	-6859
imir	-6860
▁lóg	-6861
▁Dáni	-6862
▁Phil	-6863
▁valak	-6864
▁ására	-6865
▁hatodik	-6866
▁kínálat	-6867
biztonsági	-6868
ris	-6869
áit	-6870
ipar	-6871
▁14.	-6872
▁Hát	-6873
▁MNB	-6874
akter	-6875
annyi	-6876
papír	-6877
▁téma	-6878
▁vert	-6879
▁énél	-6880
korong	-6881
tatták	-6882
▁kamion	-6883
▁kifogás	-6884
módosítás	-6885
▁ajánlott	-6886
▁segíteni	-6887
▁sportoló	-6888
▁visszavon	-6889
▁kapcsolatok	-6890
üly	-6891
▁68	-6892
akar	-6893
▁Rog	-6894
eleti	-6895
▁szök	-6896
▁Vasas	-6897
▁légit	-6898
▁Párizs	-6899
▁címmel	-6900
▁indiai	-6901
▁megszűn	-6902
▁kíváncsi	-6903
▁légitársaság	-6904
jei	-6905
azon	-6906
entő	-6907
fogó	-6908
ikák	-6909
munk	-6910
▁káv	-6911
napos	-6912
udarc	-6913
▁Svéd	-6914
▁trén	-6915
▁végi	-6916
ismert	-6917
▁kizár	-6918
▁Árpád	-6919
▁élnek	-6920
▁szállod	-6921
▁alapvető	-6922
▁embernek	-6923
▁hatással	-6924
▁számukra	-6925
▁tizenegy	-6926
▁egymillió	-6927
▁vörösiszap	-6928
▁elképzelhető	-6929
ney	-6930
alép	-6931
szeg	-6932
ózás	-6933
▁800	-6934
▁Mor	-6935
▁Ros	-6936
▁Ukr	-6937
▁csú	-6938
▁lek	-6939
egedi	-6940
tartó	-6941
▁anya	-6942
▁Össz	-6943
▁2011.	-6944
▁képek	-6945
▁találni	-6946
▁négyzetméter	-6947
di	-6948
kat	-6949
meg	-6950
éta	-6951
▁WA	-6952
chan	-6953
egyű	-6954
▁2,5	-6955
▁Dzs	-6956
▁üld	-6957
hatás	-6958
▁Wiki	-6959
▁eink	-6960
▁Élet	-6961
▁nettó	-6962
▁Brüssz	-6963
▁garant	-6964
▁kanyar	-6965
▁áruház	-6966
▁könyvet	-6967
▁többlet	-6968
▁megbízott	-6969
▁mennyiségű	-6970
▁világháború	-6971
üh	-6972
del	-6973
▁Ib	-6974
ings	-6975
▁Sar	-6976
▁the	-6977
▁érv	-6978
ekint	-6979
ünkre	-6980
▁graf	-6981
▁tend	-6982
kedett	-6983
▁vajon	-6984
▁ábráz	-6985
▁elszám	-6986
▁helysz	-6987
▁letölt	-6988
▁nagyság	-6989
▁gyümölcs	-6990
▁lehetősége	-6991
▁rendszerben	-6992
▁Spanyolország	-6993
▁vezérigazgatója	-6994
huz	-6995
höz	-6996
vaj	-6997
yom	-6998
aján	-6999
gyal	-7000
vent	-7001
émia	-7002
▁17-	-7003
▁Reg	-7004
▁rob	-7005
árták	-7006
▁ital	-7007
éldául	-7008
▁metró	-7009
▁onnan	-7010
▁pécsi	-7011
▁ünket	-7012
isztáni	-7013
▁ahogyan	-7014
▁alkohol	-7015
▁katonák	-7016
▁állítás	-7017
▁aktuális	-7018
▁határidő	-7019
▁változások	-7020
▁folytatódik	-7021
afut	-7022
őrök	-7023
▁Míg	-7024
▁cáf	-7025
▁les	-7026
irány	-7027
▁kegy	-7028
▁Eddig	-7029
▁hibát	-7030
▁kincs	-7031
▁kosár	-7032
▁szemb	-7033
▁várni	-7034
▁eltérő	-7035
▁helyén	-7036
▁járnak	-7037
▁régóta	-7038
▁szembe	-7039
▁tudtam	-7040
▁hónapos	-7041
▁édesany	-7042
▁többnyire	-7043
▁eredményei	-7044
▁változtatás	-7045
kai	-7046
KDNP	-7047
elme	-7048
▁esk	-7049
▁hek	-7050
▁tab	-7051
▁éri	-7052
esett	-7053
▁Klub	-7054
▁csep	-7055
▁füst	-7056
▁áron	-7057
▁2004-	-7058
▁Arany	-7059
▁indít	-7060
▁optim	-7061
▁ügyet	-7062
▁hozták	-7063
▁kudarc	-7064
▁számát	-7065
▁átadás	-7066
▁megszok	-7067
▁öngyilk	-7068
▁December	-7069
▁egyetemi	-7070
▁szállító	-7071
▁használni	-7072
▁nyilvános	-7073
rád	-7074
eges	-7075
▁Fed	-7076
Leaks	-7077
▁Georg	-7078
▁Miért	-7079
▁nézni	-7080
▁ütött	-7081
ítószer	-7082
▁elrend	-7083
▁gondolat	-7084
▁mutatják	-7085
▁forintért	-7086
▁jelentett	-7087
▁megváltoz	-7088
▁szervezők	-7089
▁elsődleges	-7090
▁számítanak	-7091
▁szolgáltatások	-7092
dán	-7093
éki	-7094
▁%-	-7095
▁kv	-7096
▁19-	-7097
▁22-	-7098
▁App	-7099
▁Bak	-7100
aktor	-7101
almát	-7102
▁Mond	-7103
▁gumi	-7104
▁okok	-7105
alitás	-7106
ánnyal	-7107
▁tudás	-7108
▁életben	-7109
ori	-7110
▁Jo	-7111
regy	-7112
rich	-7113
▁Kev	-7114
szent	-7115
▁beli	-7116
▁szál	-7117
▁aláír	-7118
▁kárty	-7119
▁utalt	-7120
▁zárta	-7121
▁Velvet	-7122
▁kereső	-7123
▁Renault	-7124
▁létesít	-7125
▁létezik	-7126
▁megtart	-7127
▁takarék	-7128
▁egységes	-7129
▁könnyebb	-7130
▁szereplők	-7131
▁alapvetően	-7132
▁véleményét	-7133
▁meghosszabb	-7134
ice	-7135
seb	-7136
▁Mo	-7137
▁Vi	-7138
otal	-7139
▁Kér	-7140
▁RTL	-7141
▁koz	-7142
járól	-7143
▁APEH	-7144
▁Sajn	-7145
▁elár	-7146
▁szűr	-7147
▁tele	-7148
▁Isten	-7149
▁Zsuzs	-7150
▁bölcs	-7151
▁fogva	-7152
▁hátra	-7153
▁állni	-7154
▁hetven	-7155
▁párhuz	-7156
▁sajnál	-7157
▁felsőok	-7158
▁gyakorl	-7159
▁idősebb	-7160
▁megszor	-7161
▁szegedi	-7162
▁WikiLeaks	-7163
▁radikális	-7164
▁törvények	-7165
▁feltétlenül	-7166
▁DV	-7167
▁kg	-7168
▁ug	-7169
zsák	-7170
▁1,2	-7171
▁21-	-7172
▁3,5	-7173
▁fen	-7174
elnek	-7175
ájára	-7176
▁Napi	-7177
helyen	-7178
semmis	-7179
▁Bayern	-7180
▁Sajnos	-7181
▁hiszem	-7182
▁stratégi	-7183
▁ütközött	-7184
▁baloldali	-7185
▁kórházban	-7186
▁mérkőzést	-7187
bl	-7188
mar	-7189
▁bul	-7190
▁sar	-7191
▁2000	-7192
▁Zala	-7193
alíció	-7194
▁Város	-7195
▁egyedi	-7196
▁filmek	-7197
▁megvan	-7198
▁vastag	-7199
▁ellenfél	-7200
▁fesztivál	-7201
▁megsemmis	-7202
▁interneten	-7203
▁sorozatban	-7204
ozd	-7205
▁dur	-7206
▁kód	-7207
irend	-7208
jutott	-7209
▁félid	-7210
▁játszó	-7211
▁követi	-7212
▁Kecskem	-7213
▁ügyelet	-7214
▁bírósági	-7215
▁délutáni	-7216
▁állítják	-7217
▁visszalép	-7218
▁használják	-7219
▁tekintettel	-7220
édi	-7221
lyel	-7222
▁pot	-7223
iller	-7224
álják	-7225
▁Akad	-7226
▁Film	-7227
itális	-7228
ázsiai	-7229
▁Peter	-7230
▁genet	-7231
▁nának	-7232
▁vizet	-7233
▁herceg	-7234
▁pontra	-7235
▁pedagóg	-7236
▁világon	-7237
▁Szerencs	-7238
▁tisztség	-7239
▁világban	-7240
▁államadósság	-7241
▁szeptemberben	-7242
uty	-7243
▁(8	-7244
▁Ah	-7245
▁Ko	-7246
eszi	-7247
tori	-7248
▁Utó	-7249
▁bur	-7250
▁nék	-7251
▁Szil	-7252
▁gyűl	-7253
▁órát	-7254
▁Békés	-7255
▁Hajdú	-7256
▁élett	-7257
hivatal	-7258
regyház	-7259
▁hatása	-7260
▁kontin	-7261
frissebb	-7262
▁mielőtt	-7263
▁holttest	-7264
▁tavasszal	-7265
▁kormánynak	-7266
▁legfrissebb	-7267
▁összehasonl	-7268
imn	-7269
its	-7270
▁85	-7271
ázta	-7272
▁Ver	-7273
▁mak	-7274
önyör	-7275
▁bomb	-7276
▁mult	-7277
esztin	-7278
▁Kanad	-7279
▁fürdő	-7280
▁képző	-7281
▁egyike	-7282
lekedési	-7283
▁Brüsszel	-7284
önny	-7285
▁Lad	-7286
▁Műv	-7287
▁Rem	-7288
osszú	-7289
▁háló	-7290
▁lánc	-7291
▁porn	-7292
elődés	-7293
gentin	-7294
▁előír	-7295
olgálat	-7296
▁jelöltje	-7297
▁százezer	-7298
▁súlyosan	-7299
▁versenyen	-7300
▁áldozatok	-7301
▁bejelentés	-7302
▁kormányzás	-7303
▁szeretnénk	-7304
▁kilométeres	-7305
="	-7306
VB	-7307
ild	-7308
zen	-7309
▁98	-7310
omba	-7311
roll	-7312
újtó	-7313
▁Mot	-7314
vásár	-7315
▁KDNP	-7316
▁kutya	-7317
▁lakos	-7318
▁luxus	-7319
▁zajló	-7320
▁helyes	-7321
▁szárny	-7322
▁megsért	-7323
▁okozhat	-7324
▁rendben	-7325
▁tízezer	-7326
▁forgalma	-7327
▁gyengült	-7328
▁pályafut	-7329
▁csökkenés	-7330
▁bajnokságban	-7331
▁választásokon	-7332
gő	-7333
yk	-7334
cél	-7335
dzs	-7336
ski	-7337
harc	-7338
▁MTV	-7339
emlék	-7340
▁Ekkor	-7341
▁bevon	-7342
▁napra	-7343
▁titok	-7344
talanul	-7345
▁séggel	-7346
▁társai	-7347
▁Ferrari	-7348
▁jogosult	-7349
▁szellemi	-7350
▁összegyű	-7351
▁kommunikáció	-7352
▁rendszerváltás	-7353
hív	-7354
▁Dob	-7355
▁Gar	-7356
▁Kör	-7357
▁Vill	-7358
▁hüly	-7359
▁élén	-7360
▁emelt	-7361
▁vírus	-7362
▁látják	-7363
▁elmarad	-7364
▁karrier	-7365
▁játékosa	-7366
▁számítás	-7367
szolgálati	-7368
▁védekezés	-7369
40	-7370
yn	-7371
kam	-7372
évé	-7373
abor	-7374
amin	-7375
fogy	-7376
omra	-7377
▁Rák	-7378
▁alv	-7379
▁top	-7380
▁Idén	-7381
▁párb	-7382
▁unió	-7383
esszió	-7384
etáris	-7385
álatok	-7386
▁doboz	-7387
▁máris	-7388
▁egyenl	-7389
▁játssz	-7390
▁kívüli	-7391
▁életbe	-7392
▁többiek	-7393
▁Igazgató	-7394
▁ezelőtti	-7395
▁szabadon	-7396
▁interjúban	-7397
▁készültség	-7398
▁következik	-7399
▁végeredmény	-7400
▁nyilvántartás	-7401
ale	-7402
pát	-7403
▁Bx	-7404
▁ee	-7405
ikán	-7406
öket	-7407
▁Sőt	-7408
ezzük	-7409
▁inter	-7410
▁sülly	-7411
telenül	-7412
▁házban	-7413
▁kultúra	-7414
▁Egyelőre	-7415
▁csatorna	-7416
▁gyűjtött	-7417
▁ingyenes	-7418
▁munkaerő	-7419
▁nyolcvan	-7420
▁fordított	-7421
▁külföldön	-7422
▁maradvány	-7423
▁működését	-7424
▁Amennyiben	-7425
▁demokrácia	-7426
Nem	-7427
lási	-7428
tebb	-7429
ácsi	-7430
ózis	-7431
▁700	-7432
▁End	-7433
▁Irán	-7434
▁elny	-7435
▁erdő	-7436
▁mást	-7437
▁okra	-7438
esszük	-7439
ossuth	-7440
▁rámut	-7441
▁hétköz	-7442
▁utazás	-7443
▁kiegyen	-7444
▁kérdése	-7445
▁szolgáló	-7446
▁otthonában	-7447
▁Ferencváros	-7448
▁keletkezett	-7449
▁lehetőségét	-7450
▁foglalkoztatás	-7451
pi	-7452
▁66	-7453
▁Bla	-7454
▁rov	-7455
▁tam	-7456
▁Ford	-7457
▁kéri	-7458
mentes	-7459
éllyel	-7460
▁kassz	-7461
▁Aleksz	-7462
▁furcsa	-7463
▁küszöb	-7464
▁határon	-7465
▁karakter	-7466
▁napirend	-7467
▁olvashat	-7468
▁robbanás	-7469
▁válaszol	-7470
▁döntöttek	-7471
▁illegális	-7472
▁produkció	-7473
▁forradalom	-7474
▁településen	-7475
▁választáson	-7476
▁meghatározott	-7477
kocs	-7478
örés	-7479
▁24-	-7480
▁26-	-7481
olgár	-7482
▁amik	-7483
▁cukor	-7484
▁hölgy	-7485
▁jához	-7486
▁érett	-7487
▁írták	-7488
▁lettek	-7489
▁meteor	-7490
▁szemét	-7491
▁Holland	-7492
▁esztend	-7493
▁próbált	-7494
▁másrészt	-7495
▁kénytelen	-7496
▁összetett	-7497
edő	-7498
lon	-7499
▁Se	-7500
▁Ír	-7501
inél	-7502
▁Fül	-7503
▁újd	-7504
ányos	-7505
▁Ered	-7506
▁zsák	-7507
közben	-7508
sziget	-7509
▁Emlék	-7510
▁Kelet	-7511
▁kicsi	-7512
▁római	-7513
titkára	-7514
▁franci	-7515
▁kivált	-7516
▁labdát	-7517
▁legkev	-7518
▁strukt	-7519
▁Újpest	-7520
▁állást	-7521
▁forgatás	-7522
▁jelenlét	-7523
▁kiemelte	-7524
▁ajánlószel	-7525
▁amerikaiak	-7526
▁konfliktus	-7527
▁Igazgatóság	-7528
▁foglalkoztat	-7529
3,	-7530
jak	-7531
ósa	-7532
▁ös	-7533
ajna	-7534
mező	-7535
ínek	-7536
ória	-7537
ficit	-7538
▁foci	-7539
▁kéne	-7540
▁céget	-7541
▁körbe	-7542
terület	-7543
▁Ronald	-7544
▁hiánya	-7545
▁magára	-7546
▁anyagok	-7547
▁hazaiak	-7548
▁jogerős	-7549
▁olimpia	-7550
▁perccel	-7551
▁tesznek	-7552
▁szerzője	-7553
▁fegyveres	-7554
▁költségek	-7555
▁Lengyelország	-7556
lép	-7557
uha	-7558
ötő	-7559
▁Gi	-7560
edző	-7561
szás	-7562
▁BUX	-7563
▁Con	-7564
▁ger	-7565
inger	-7566
▁nunk	-7567
▁ozás	-7568
▁stáb	-7569
iverpo	-7570
obbant	-7571
▁utcán	-7572
▁jelzés	-7573
▁Választ	-7574
▁hónapja	-7575
▁megment	-7576
▁szovjet	-7577
▁illetően	-7578
▁intenzív	-7579
▁jegyezték	-7580
▁közzétett	-7581
▁vállalkozó	-7582
uj	-7583
rum	-7584
üsp	-7585
ársa	-7586
▁Mak	-7587
▁Szó	-7588
▁köd	-7589
díjat	-7590
üspök	-7591
▁Volt	-7592
magyar	-7593
olható	-7594
▁műtét	-7595
▁vidéki	-7596
▁Először	-7597
▁hallgat	-7598
▁jelenet	-7599
▁terjeszt	-7600
▁állítani	-7601
▁elfogadás	-7602
▁használja	-7603
sy	-7604
ero	-7605
oba	-7606
▁?"	-7607
csuk	-7608
jába	-7609
▁Nik	-7610
▁Tur	-7611
▁nyi	-7612
ászat	-7613
▁Cent	-7614
▁csel	-7615
▁Afgan	-7616
▁kapac	-7617
▁Péntek	-7618
▁kártér	-7619
▁nézett	-7620
▁gyönyör	-7621
▁kívánja	-7622
▁tapaszt	-7623
▁felismer	-7624
▁fordulat	-7625
▁folytatja	-7626
▁feltételek	-7627
▁kategóriában	-7628
ive	-7629
▁62	-7630
▁GP	-7631
▁XV	-7632
gond	-7633
lást	-7634
zséb	-7635
▁Fut	-7636
▁Lak	-7637
▁sét	-7638
főnök	-7639
életi	-7640
▁díja	-7641
▁üres	-7642
▁ságot	-7643
▁törzs	-7644
▁Farkas	-7645
▁előtte	-7646
▁hektár	-7647
▁méretű	-7648
▁riport	-7649
▁szerel	-7650
avédelmi	-7651
▁tényező	-7652
▁büntetés	-7653
▁tehetség	-7654
▁Televízió	-7655
▁mindenkit	-7656
▁próbálkoz	-7657
▁területek	-7658
▁várakozás	-7659
▁lényegében	-7660
enny	-7661
▁1,4	-7662
▁Jud	-7663
izált	-7664
tetés	-7665
értek	-7666
ulását	-7667
▁Vörös	-7668
▁csere	-7669
▁kisfi	-7670
▁terén	-7671
▁Honvéd	-7672
▁betölt	-7673
▁hátter	-7674
▁lelkes	-7675
▁mekkor	-7676
▁perces	-7677
▁ígéret	-7678
▁mértékű	-7679
▁zenekar	-7680
▁közelebb	-7681
▁vezetése	-7682
▁események	-7683
▁különféle	-7684
▁kábítószer	-7685
▁Afganisztán	-7686
▁szeretnének	-7687
ájékoztatóján	-7688
NS	-7689
izt	-7690
jes	-7691
rág	-7692
Kore	-7693
izsi	-7694
rian	-7695
ákon	-7696
▁Szig	-7697
▁vész	-7698
különb	-7699
tenger	-7700
▁Alons	-7701
▁korai	-7702
▁trend	-7703
szakasz	-7704
▁Később	-7705
▁bukkan	-7706
▁eltűnt	-7707
▁listát	-7708
▁lóerős	-7709
▁megmut	-7710
cionális	-7711
▁különadó	-7712
▁megvásár	-7713
▁szerezni	-7714
▁szórakoz	-7715
▁énekesnő	-7716
csökkentés	-7717
▁kihasznál	-7718
▁részletes	-7719
▁stratégiai	-7720
▁származású	-7721
▁munkanélküliség	-7722
▁51	-7723
esti	-7724
▁del	-7725
▁jai	-7726
▁lat	-7727
▁pop	-7728
ősebb	-7729
▁1000	-7730
▁Szem	-7731
▁Ebből	-7732
▁befog	-7733
▁deleg	-7734
▁sorban	-7735
▁számon	-7736
▁védett	-7737
▁összev	-7738
▁További	-7739
▁köszönt	-7740
▁olcsóbb	-7741
▁stadion	-7742
▁alaposan	-7743
▁tartalom	-7744
▁értékben	-7745
▁fontosabb	-7746
▁értesülés	-7747
▁fokozatosan	-7748
▁kétharmados	-7749
▁közigazgatási	-7750
bo	-7751
ója	-7752
▁Qu	-7753
▁Cor	-7754
hajtó	-7755
▁bocs	-7756
▁Keres	-7757
▁tonna	-7758
▁eléged	-7759
▁nyerni	-7760
▁számot	-7761
▁vegyes	-7762
▁anyagot	-7763
▁fejezte	-7764
▁levelet	-7765
▁termelő	-7766
▁Vasárnap	-7767
▁gondolja	-7768
▁gyereket	-7769
▁egyensúly	-7770
▁forgalmaz	-7771
▁igyekszik	-7772
▁nyomozást	-7773
▁évforduló	-7774
▁információi	-7775
lev	-7776
vöz	-7777
etro	-7778
tern	-7779
végi	-7780
ászt	-7781
▁120	-7782
▁Dev	-7783
▁Jól	-7784
▁pál	-7785
▁vám	-7786
▁előd	-7787
▁gyök	-7788
▁hold	-7789
▁keny	-7790
▁ezren	-7791
▁Balogh	-7792
▁deficit	-7793
▁elmélet	-7794
▁elsőként	-7795
▁forintba	-7796
▁pártelnök	-7797
▁Alapítvány	-7798
▁emlékeztetett	-7799
aw	-7800
já	-7801
:00	-7802
aza	-7803
ino	-7804
▁Cz	-7805
▁si	-7806
úton	-7807
ülni	-7808
▁28-	-7809
▁szar	-7810
▁Münch	-7811
▁bűnös	-7812
▁figur	-7813
▁mozog	-7814
▁rokon	-7815
▁átmen	-7816
nevezés	-7817
▁lányok	-7818
▁kezdődő	-7819
▁korában	-7820
▁magával	-7821
▁megoszt	-7822
▁szerény	-7823
▁utcában	-7824
▁győzelmet	-7825
▁kifejtette	-7826
▁biztosítani	-7827
▁eredményeket	-7828
▁Magyarországra	-7829
▁69	-7830
▁Sc	-7831
szön	-7832
árog	-7833
▁Afr	-7834
▁Tiz	-7835
eting	-7836
▁Liga	-7837
▁NATO	-7838
▁megér	-7839
▁Vettel	-7840
▁helyez	-7841
▁illeti	-7842
▁kaland	-7843
▁térkép	-7844
▁váltás	-7845
▁érinti	-7846
▁kétszáz	-7847
▁úgyhogy	-7848
▁Portugál	-7849
▁készpénz	-7850
▁életvesz	-7851
▁látványos	-7852
▁programja	-7853
▁térségben	-7854
▁vizsgálják	-7855
▁Köztársaság	-7856
▁feltehetően	-7857
ks	-7858
met	-7859
ped	-7860
▁uj	-7861
mail	-7862
önyv	-7863
▁Dar	-7864
▁Jul	-7865
▁Kál	-7866
▁Lap	-7867
▁Sam	-7868
▁tét	-7869
eking	-7870
ulnak	-7871
▁bűnt	-7872
ejtező	-7873
▁Telek	-7874
▁járól	-7875
▁leány	-7876
▁szank	-7877
▁udvar	-7878
▁Richard	-7879
▁ennyire	-7880
▁képerny	-7881
▁szavazó	-7882
▁nehezebb	-7883
▁munkáltató	-7884
▁Kop	-7885
▁Szé	-7886
▁vét	-7887
abizt	-7888
eiről	-7889
▁szür	-7890
▁vala	-7891
zsébet	-7892
▁helye	-7893
▁kiadó	-7894
▁túlél	-7895
▁idézte	-7896
▁nyelvű	-7897
▁piacra	-7898
▁szokat	-7899
▁Kossuth	-7900
▁játékok	-7901
▁tisztáz	-7902
▁kérdések	-7903
▁sikerrel	-7904
▁gondolkod	-7905
▁kérdésére	-7906
▁ellentmond	-7907
▁kellemetlen	-7908
▁személyesen	-7909
cht	-7910
arch	-7911
wood	-7912
▁lök	-7913
Európ	-7914
edves	-7915
▁csek	-7916
keleti	-7917
▁feles	-7918
▁jével	-7919
▁szobr	-7920
▁filozó	-7921
▁jönnek	-7922
▁szépen	-7923
▁tolvaj	-7924
▁ágazat	-7925
▁ásával	-7926
▁ázsiai	-7927
▁összek	-7928
milliárd	-7929
▁eltávol	-7930
▁funkció	-7931
▁könnyed	-7932
▁mondják	-7933
▁szivatt	-7934
▁tavaszi	-7935
▁tetszik	-7936
▁államok	-7937
▁köbméter	-7938
▁kormányzó	-7939
▁résztvevő	-7940
▁érvényben	-7941
▁helyszínre	-7942
▁tapasztalt	-7943
▁beszélgetés	-7944
▁szélsőséges	-7945
hát	-7946
▁Ang	-7947
▁Fid	-7948
▁Gen	-7949
▁Első	-7950
▁irat	-7951
▁zsír	-7952
niában	-7953
▁alkat	-7954
▁banki	-7955
▁gépek	-7956
▁ittas	-7957
▁közzé	-7958
▁mosoly	-7959
▁publik	-7960
▁vitték	-7961
▁évesen	-7962
▁felszín	-7963
▁filmben	-7964
▁milliót	-7965
▁érkeztek	-7966
▁emelkedik	-7967
git	-7968
▁GB	-7969
▁tó	-7970
anta	-7971
enyi	-7972
▁13-	-7973
▁Haj	-7974
▁Jel	-7975
▁Sen	-7976
▁bát	-7977
▁dag	-7978
▁hód	-7979
▁pol	-7980
▁sűr	-7981
ement	-7982
▁show	-7983
hetünk	-7984
ogramm	-7985
▁Total	-7986
▁kompl	-7987
▁márka	-7988
▁Utóbbi	-7989
▁import	-7990
▁lapunk	-7991
▁lehető	-7992
▁mentők	-7993
▁szakma	-7994
isztikai	-7995
▁fizikai	-7996
▁párizsi	-7997
▁részére	-7998
▁hozzáfér	-7999
▁jegyezte	-8000
▁maradtak	-8001
▁balesetet	-8002
▁valamivel	-8003
▁világszerte	-8004
RT	-8005
orl	-8006
űnő	-8007
űri	-8008
▁ól	-8009
astr	-8010
▁III	-8011
▁orr	-8012
ergom	-8013
ártól	-8014
▁Webb	-8015
▁felek	-8016
▁nézet	-8017
▁végki	-8018
▁góllal	-8019
▁vallom	-8020
▁váltak	-8021
▁ítélte	-8022
▁órával	-8023
▁München	-8024
▁éjszakai	-8025
▁beszámolt	-8026
▁csoportok	-8027
▁hónapokban	-8028
▁regionális	-8029
▁parlamentben	-8030
▁államháztartási	-8031
th	-8032
fesz	-8033
ikum	-8034
piac	-8035
▁Bál	-8036
▁tax	-8037
olási	-8038
▁Dani	-8039
▁Igen	-8040
▁észl	-8041
század	-8042
▁Gabri	-8043
▁Hason	-8044
▁elért	-8045
▁felől	-8046
▁magat	-8047
▁ritka	-8048
▁diákok	-8049
▁esetek	-8050
▁hitelt	-8051
▁készen	-8052
▁könyve	-8053
▁Ausztrál	-8054
▁Vancouver	-8055
▁gyermekek	-8056
▁személyek	-8057
▁tájékoztató	-8058
2)	-8059
jal	-8060
csal	-8061
ense	-8062
inho	-8063
kinek	-8064
ólyom	-8065
▁Hold	-8066
▁mérg	-8067
▁élők	-8068
elikop	-8069
elmúlt	-8070
▁Vissz	-8071
▁nagym	-8072
▁színű	-8073
▁árver	-8074
▁Január	-8075
▁kihagy	-8076
▁produc	-8077
▁ellenes	-8078
▁helyére	-8079
▁iskolai	-8080
▁szállás	-8081
▁tizenöt	-8082
▁vásárló	-8083
▁Krisztián	-8084
▁bizonyult	-8085
▁folytatód	-8086
▁közelmúlt	-8087
▁részletek	-8088
▁benyújtott	-8089
▁intézkedés	-8090
▁köszönhető	-8091
▁beruházások	-8092
▁tartalmazza	-8093
▁börtönbüntet	-8094
íd	-8095
ESZ	-8096
cal	-8097
áld	-8098
▁Pe	-8099
andr	-8100
aszn	-8101
údió	-8102
▁Teh	-8103
ilton	-8104
▁tonn	-8105
▁tönk	-8106
▁vigy	-8107
elések	-8108
tekint	-8109
építés	-8110
▁Apple	-8111
▁napok	-8112
▁oknak	-8113
▁feltár	-8114
▁zajlik	-8115
örnyezet	-8116
▁hajtott	-8117
▁kezdték	-8118
▁kilátás	-8119
▁szintet	-8120
▁váltott	-8121
▁folyamán	-8122
▁hiányzik	-8123
▁ideiglen	-8124
▁Csütörtök	-8125
▁digitális	-8126
▁feladatok	-8127
▁novemberi	-8128
▁felülvizsg	-8129
▁főigazgató	-8130
▁pillanatban	-8131
▁megalapozott	-8132
▁sajtóügyelet	-8133
III	-8134
gól	-8135
odr	-8136
▁ná	-8137
vájc	-8138
ítók	-8139
▁tok	-8140
▁váz	-8141
olcsy	-8142
▁gyűr	-8143
▁imád	-8144
▁Ákos	-8145
▁éles	-8146
▁írni	-8147
exikói	-8148
ászati	-8149
▁Malév	-8150
▁nézve	-8151
▁hangoz	-8152
▁kerest	-8153
▁legnép	-8154
▁listán	-8155
▁láttam	-8156
▁nyitva	-8157
▁felaján	-8158
▁hétvégi	-8159
▁vesznek	-8160
▁elődöntő	-8161
▁erősödés	-8162
▁utoljára	-8163
▁fogyasztó	-8164
▁indokolta	-8165
▁minimális	-8166
▁fogyasztói	-8167
▁kommunista	-8168
▁megválaszt	-8169
▁használható	-8170
▁dokumentumok	-8171
▁választották	-8172
TA	-8173
iá	-8174
air	-8175
ezd	-8176
ikk	-8177
▁Át	-8178
apor	-8179
niai	-8180
okol	-8181
▁zni	-8182
apott	-8183
intéz	-8184
▁dupl	-8185
▁gyar	-8186
▁márk	-8187
▁véve	-8188
▁zseb	-8189
onnyal	-8190
▁Tiszt	-8191
▁jelek	-8192
▁lapok	-8193
▁szakm	-8194
▁szóba	-8195
▁vélte	-8196
ational	-8197
▁Kedden	-8198
▁alapon	-8199
▁tenisz	-8200
▁Szolnok	-8201
▁Twitter	-8202
▁egyenlő	-8203
▁argentin	-8204
▁elmaradt	-8205
▁forgalmi	-8206
▁helyezés	-8207
▁korszerű	-8208
▁lehessen	-8209
▁látogató	-8210
▁állított	-8211
▁teljesítménye	-8212
▁tájékoztatott	-8213
sch	-8214
▁(7	-8215
▁bú	-8216
▁rö	-8217
ardo	-8218
ösen	-8219
▁Nic	-8220
▁Nyí	-8221
▁zak	-8222
▁eiket	-8223
▁művel	-8224
▁simán	-8225
vezetés	-8226
▁Andrea	-8227
▁Hétfőn	-8228
▁utasok	-8229
▁ülésen	-8230
▁játékot	-8231
▁szépség	-8232
▁sértett	-8233
▁önkéntes	-8234
▁szerintük	-8235
▁korlátozás	-8236
▁megszokott	-8237
ww	-8238
odó	-8239
▁Op	-8240
▁ká	-8241
olid	-8242
ouse	-8243
▁Cam	-8244
▁olv	-8245
▁ost	-8246
ulást	-8247
▁évad	-8248
bizony	-8249
ekedés	-8250
▁okban	-8251
▁Újabb	-8252
▁Alonso	-8253
▁látták	-8254
▁mentén	-8255
▁álltak	-8256
▁bekövet	-8257
▁előterj	-8258
▁sorrend	-8259
▁fizetési	-8260
▁autópálya	-8261
▁szakaszon	-8262
ate	-8263
őri	-8264
▁sé	-8265
ászl	-8266
▁Mur	-8267
▁asz	-8268
adást	-8269
hette	-8270
▁tunk	-8271
pótlás	-8272
tették	-8273
▁Mária	-8274
▁Szoci	-8275
▁fajta	-8276
▁jogok	-8277
gazdász	-8278
▁felvon	-8279
▁rablás	-8280
▁jóváhagy	-8281
▁párhuzam	-8282
▁végeztek	-8283
▁átmeneti	-8284
▁évszázad	-8285
▁kézilabda	-8286
▁tisztában	-8287
▁Olaszország	-8288
▁megállapodást	-8289
▁szerencsétlen	-8290
env	-8291
éje	-8292
▁Fx	-8293
▁Sy	-8294
fran	-8295
▁0,2	-8296
▁12,	-8297
▁pet	-8298
▁sör	-8299
ükben	-8300
▁Autó	-8301
▁Lend	-8302
▁jába	-8303
▁mikr	-8304
▁talp	-8305
▁Ellen	-8306
▁betét	-8307
▁műfaj	-8308
▁átlát	-8309
▁dolgot	-8310
▁katona	-8311
iverpool	-8312
▁euróval	-8313
▁fellebb	-8314
▁hetedik	-8315
▁kezdtek	-8316
▁mekkora	-8317
▁szervek	-8318
▁arányban	-8319
▁gyengébb	-8320
▁jelöltek	-8321
▁legyenek	-8322
▁levélben	-8323
▁normális	-8324
▁Liverpool	-8325
▁szállítás	-8326
▁kevesebbet	-8327
▁meghaladja	-8328
▁visszaélés	-8329
▁értékesítés	-8330
lo	-8331
cím	-8332
▁EP	-8333
▁Ly	-8334
▁áj	-8335
eser	-8336
ight	-8337
ltal	-8338
nánk	-8339
▁Gre	-8340
▁Jog	-8341
▁Pol	-8342
▁bud	-8343
▁dől	-8344
▁gel	-8345
labda	-8346
▁leny	-8347
▁szil	-8348
▁Sokan	-8349
▁büdzs	-8350
▁díját	-8351
▁iráni	-8352
▁kimut	-8353
▁Által	-8354
▁Barack	-8355
▁London	-8356
▁elhang	-8357
▁eltelt	-8358
▁mondat	-8359
▁másnap	-8360
▁profit	-8361
▁számok	-8362
▁Ausztri	-8363
kezdődött	-8364
▁Fehérvár	-8365
▁Matolcsy	-8366
▁monetáris	-8367
biztosítási	-8368
▁kibocsátás	-8369
▁kiemelkedő	-8370
▁véletlenül	-8371
▁biztonságos	-8372
▁diplomáciai	-8373
▁szolgáltatók	-8374
itu	-8375
kul	-8376
ehez	-8377
nunk	-8378
▁0-0	-8379
▁Ass	-8380
▁Fél	-8381
▁Rob	-8382
▁Tak	-8383
▁cel	-8384
▁dug	-8385
ászár	-8386
▁2004	-8387
▁Mess	-8388
▁Máté	-8389
▁klin	-8390
▁megd	-8391
egedés	-8392
oldalú	-8393
▁Svájc	-8394
▁aggod	-8395
▁férje	-8396
▁Toyota	-8397
▁fenyeg	-8398
▁kísért	-8399
▁sággal	-8400
vállalás	-8401
▁Kínában	-8402
▁Moszkva	-8403
▁könyvek	-8404
▁Vélemény	-8405
▁egyrészt	-8406
▁hetekben	-8407
▁maradnak	-8408
▁ugyanúgy	-8409
▁kontinens	-8410
▁szereplés	-8411
▁balesetben	-8412
▁televíziós	-8413
▁választotta	-8414
ago	-8415
gar	-8416
láb	-8417
▁88	-8418
▁Ők	-8419
anna	-8420
prom	-8421
▁Fab	-8422
▁Hun	-8423
▁sak	-8424
német	-8425
▁Ivan	-8426
▁plak	-8427
▁unok	-8428
öltség	-8429
▁katal	-8430
▁talaj	-8431
▁Érték	-8432
▁eltilt	-8433
▁konstr	-8434
▁lépést	-8435
▁mechan	-8436
▁mentek	-8437
▁műszer	-8438
▁Kereszt	-8439
▁akarták	-8440
▁januári	-8441
▁kötvény	-8442
▁maradék	-8443
▁voltunk	-8444
▁vállalt	-8445
▁meggyőző	-8446
▁székhely	-8447
▁beszélget	-8448
▁figyelmét	-8449
▁főszereplő	-8450
▁szolgáltatást	-8451
anás	-8452
▁Sun	-8453
▁gén	-8454
ergia	-8455
árton	-8456
pontos	-8457
szövet	-8458
▁Szerb	-8459
▁Vlagy	-8460
ponttal	-8461
▁Dániel	-8462
▁Románi	-8463
közelebb	-8464
▁fejezet	-8465
▁Amerikai	-8466
▁játéknap	-8467
▁megtalál	-8468
▁tizenkét	-8469
▁versenykép	-8470
▁Székesfehér	-8471
▁legrosszabb	-8472
▁összeállítás	-8473
aim	-8474
▁95	-8475
▁eb	-8476
▁sk	-8477
▁sá	-8478
▁öz	-8479
dtek	-8480
lini	-8481
ázás	-8482
▁0,5	-8483
▁lás	-8484
▁Hang	-8485
▁közr	-8486
▁Oscar	-8487
▁terve	-8488
▁Berlin	-8489
▁Fekete	-8490
▁Sólyom	-8491
▁hatott	-8492
▁varázs	-8493
▁övezet	-8494
▁ősszel	-8495
▁felirat	-8496
▁meglévő	-8497
▁támogat	-8498
▁tudósító	-8499
▁formájában	-8500
▁rendszeres	-8501
▁igazságügyi	-8502
▁országokban	-8503
▁találkozott	-8504
▁közbeszerzési	-8505
▁mezőgazdasági	-8506
Ha	-8507
iás	-8508
zus	-8509
▁Ev	-8510
▁Com	-8511
ellel	-8512
hatta	-8513
utyin	-8514
▁Széch	-8515
▁besor	-8516
▁bőven	-8517
▁eltűn	-8518
▁nyitás	-8519
▁püspök	-8520
▁vallás	-8521
▁életet	-8522
▁igazolt	-8523
▁németek	-8524
▁Williams	-8525
▁legyőzte	-8526
▁mobiltel	-8527
▁folytatta	-8528
▁generáció	-8529
▁korosztály	-8530
▁közgazdász	-8531
▁parancsnok	-8532
▁megtakarítás	-8533
▁információkat	-8534
▁közszolgálati	-8535
▁tulajdonképpen	-8536
löv	-8537
tál	-8538
▁67	-8539
onta	-8540
ítve	-8541
▁1,6	-8542
▁2-3	-8543
▁900	-8544
▁gál	-8545
▁tás	-8546
▁Jövő	-8547
▁Leon	-8548
▁alapú	-8549
▁csemp	-8550
▁jöhet	-8551
▁utóbb	-8552
▁érzem	-8553
▁altern	-8554
▁búcsúz	-8555
▁halála	-8556
▁piacok	-8557
▁Richter	-8558
▁jelenik	-8559
▁tervezi	-8560
▁melletti	-8561
▁mérséklő	-8562
▁próbálja	-8563
▁újdonság	-8564
▁Környezet	-8565
▁demokrata	-8566
▁elismerte	-8567
▁említette	-8568
▁válaszolt	-8569
▁alternatív	-8570
▁információt	-8571
Ez	-8572
zon	-8573
ágó	-8574
▁63	-8575
▁ív	-8576
ange	-8577
arak	-8578
olat	-8579
olók	-8580
tünk	-8581
▁Dub	-8582
▁Kid	-8583
▁Tol	-8584
▁Vit	-8585
▁hig	-8586
▁nom	-8587
egyed	-8588
▁Wolf	-8589
▁elit	-8590
▁virr	-8591
▁élen	-8592
▁őriz	-8593
receni	-8594
▁Guard	-8595
▁szilv	-8596
▁épült	-8597
▁energi	-8598
▁felejt	-8599
▁jelkép	-8600
▁kimond	-8601
▁reagál	-8602
▁Hasonló	-8603
▁afrikai	-8604
▁tudósok	-8605
▁gyönyörű	-8606
▁számolni	-8607
▁debreceni	-8608
▁elnevezés	-8609
▁esetekben	-8610
▁kifejezés	-8611
▁végkielég	-8612
▁Választási	-8613
▁kilométerre	-8614
▁részleteket	-8615
▁területeken	-8616
ogn	-8617
out	-8618
ubl	-8619
ömb	-8620
aren	-8621
inda	-8622
lása	-8623
ózsa	-8624
▁(19	-8625
▁14-	-8626
▁27-	-8627
▁Rol	-8628
▁tri	-8629
elési	-8630
eszéd	-8631
etése	-8632
igazd	-8633
letek	-8634
ságos	-8635
▁Fern	-8636
▁Pann	-8637
▁ajtó	-8638
▁ését	-8639
csomag	-8640
▁Fülöp	-8641
▁Rádió	-8642
▁Schum	-8643
▁náluk	-8644
▁nézők	-8645
▁tudok	-8646
▁vitte	-8647
▁aligha	-8648
▁mondan	-8649
▁tudtuk	-8650
▁fejlett	-8651
▁megszól	-8652
▁nevében	-8653
▁világot	-8654
▁ítélték	-8655
▁esztendő	-8656
▁helyzete	-8657
▁házigazd	-8658
▁jótékony	-8659
▁büntetőel	-8660
▁kapacitás	-8661
▁megteremt	-8662
▁személygép	-8663
▁technológi	-8664
▁fordulójában	-8665
▁forgatókönyv	-8666
▁legnépszerűbb	-8667
cső	-8668
itz	-8669
nam	-8670
ekul	-8671
icik	-8672
▁0,3	-8673
▁Lou	-8674
▁Pro	-8675
▁Tan	-8676
▁Vir	-8677
▁dán	-8678
▁ler	-8679
▁mág	-8680
▁pof	-8681
isebb	-8682
nének	-8683
▁kkel	-8684
▁legh	-8685
▁leír	-8686
▁prot	-8687
▁tárc	-8688
▁őszi	-8689
▁Black	-8690
▁fedél	-8691
▁testi	-8692
▁Sopron	-8693
▁edzője	-8694
▁kívánt	-8695
▁szörny	-8696
▁tervez	-8697
▁ünnepi	-8698
történet	-8699
▁esélyes	-8700
▁hiteles	-8701
▁maximum	-8702
▁vonatok	-8703
elikopter	-8704
▁elsőfokú	-8705
▁fertőzés	-8706
▁életében	-8707
▁Vlagyimir	-8708
▁gazdálkod	-8709
▁kerületben	-8710
▁visszaesés	-8711
▁átalakítás	-8712
▁lehetőségek	-8713
HL	-8714
erk	-8715
zál	-8716
▁74	-8717
zési	-8718
▁Ast	-8719
kelet	-8720
▁Roma	-8721
▁Thom	-8722
▁sark	-8723
▁turb	-8724
esszív	-8725
ásában	-8726
▁dinam	-8727
▁fotók	-8728
▁jogot	-8729
▁írják	-8730
viselők	-8731
▁kezelő	-8732
▁Haladás	-8733
▁csinált	-8734
▁potenci	-8735
▁virradó	-8736
▁kiadások	-8737
▁magasság	-8738
▁vásárolt	-8739
▁palesztin	-8740
▁vezetőjét	-8741
▁ugyanolyan	-8742
▁üzletember	-8743
IA	-8744
emi	-8745
▁73	-8746
Nagy	-8747
óker	-8748
▁Jer	-8749
▁Lov	-8750
▁Rac	-8751
▁ája	-8752
csoly	-8753
jével	-8754
▁Horn	-8755
▁eszm	-8756
▁null	-8757
ináció	-8758
▁díjak	-8759
▁felét	-8760
▁lánya	-8761
▁népsz	-8762
▁tettes	-8763
▁Miskolc	-8764
▁egyikük	-8765
▁gyakori	-8766
▁kapható	-8767
▁kezdeni	-8768
▁lépések	-8769
▁vonalon	-8770
▁családok	-8771
▁felhábor	-8772
▁különböz	-8773
▁szeretet	-8774
▁törleszt	-8775
▁folyóirat	-8776
▁szakaszán	-8777
▁következett	-8778
▁szerződések	-8779
▁összecsapás	-8780
▁munkavállalók	-8781
▁tájékoztatást	-8782
▁összességében	-8783
▁ajánlószelvény	-8784
áh	-8785
bur	-8786
vat	-8787
vez	-8788
▁72	-8789
▁EB	-8790
▁Hu	-8791
adót	-8792
dikó	-8793
▁192	-8794
▁ást	-8795
tőzsd	-8796
▁Hely	-8797
cional	-8798
forrás	-8799
▁ellop	-8800
▁jelzi	-8801
személy	-8802
▁Bálint	-8803
▁Ildikó	-8804
▁Vagyis	-8805
▁mennek	-8806
▁valaha	-8807
▁barátnő	-8808
▁fogadja	-8809
▁rendelt	-8810
▁hozzájuk	-8811
▁magabizt	-8812
▁működött	-8813
▁titkossz	-8814
▁Széchenyi	-8815
▁viszonyok	-8816
▁újságírók	-8817
▁eredményes	-8818
▁személyzet	-8819
▁találkozón	-8820
▁történetét	-8821
▁egészségügy	-8822
▁magánszemély	-8823
fut	-8824
nel	-8825
özi	-8826
▁Ba	-8827
▁Vx	-8828
ceán	-8829
kány	-8830
▁Luk	-8831
▁hab	-8832
▁pól	-8833
ejtek	-8834
illag	-8835
▁abba	-8836
▁megn	-8837
▁szúr	-8838
▁moszk	-8839
▁sárga	-8840
▁séget	-8841
közlési	-8842
▁alábbi	-8843
▁eldönt	-8844
▁előbbi	-8845
▁ismeri	-8846
▁riaszt	-8847
▁sztori	-8848
▁Nyomozó	-8849
▁étterem	-8850
▁azonnali	-8851
▁Szerintem	-8852
▁szurkolók	-8853
▁képviselet	-8854
▁automatikus	-8855
▁sérüléseket	-8856
-10	-8857
SZÁ	-8858
kes	-8859
kil	-8860
lán	-8861
tra	-8862
▁-1	-8863
▁Ag	-8864
▁Aut	-8865
▁McL	-8866
▁alp	-8867
▁son	-8868
▁tür	-8869
▁Bart	-8870
▁Bund	-8871
▁apja	-8872
▁árny	-8873
▁újjá	-8874
▁bármi	-8875
▁gárda	-8876
▁házat	-8877
▁tojás	-8878
▁Biztos	-8879
▁abszol	-8880
▁futott	-8881
▁jöttek	-8882
▁mondom	-8883
▁Románia	-8884
▁munkája	-8885
▁dolgokat	-8886
▁hatáskör	-8887
▁olimpián	-8888
▁távolság	-8889
▁beszerzés	-8890
▁Svédország	-8891
▁térségében	-8892
▁pénzintézet	-8893
▁várakozások	-8894
▁Hírügynökség	-8895
mon	-8896
sük	-8897
▁61	-8898
▁So	-8899
ségű	-8900
ütés	-8901
▁22.	-8902
▁29-	-8903
▁Mic	-8904
▁Sor	-8905
▁bál	-8906
▁érő	-8907
eműkö	-8908
uhász	-8909
▁Buda	-8910
▁Rész	-8911
▁Száz	-8912
▁elad	-8913
▁nemi	-8914
▁telt	-8915
▁temp	-8916
▁vonz	-8917
▁Atlan	-8918
▁bevet	-8919
▁eleve	-8920
▁magad	-8921
▁nyitó	-8922
▁csalás	-8923
▁kisziv	-8924
ollywood	-8925
▁Benedek	-8926
▁Szerdán	-8927
▁elenged	-8928
▁kezelni	-8929
▁mértéke	-8930
▁Erzsébet	-8931
▁moszkvai	-8932
▁közreműkö	-8933
▁telefonon	-8934
▁változtat	-8935
▁lényegesen	-8936
▁Fejlesztési	-8937
▁felfüggeszt	-8938
▁folyamatban	-8939
▁tekintetében	-8940
kl	-8941
▁•	-8942
med	-8943
óba	-8944
▁Ös	-8945
▁ód	-8946
izód	-8947
órás	-8948
▁Rud	-8949
▁alb	-8950
▁rém	-8951
▁Zsig	-8952
▁tért	-8953
folyam	-8954
▁Iroda	-8955
▁jutás	-8956
▁Fontos	-8957
▁Közben	-8958
▁Tarlós	-8959
▁elérte	-8960
▁törekv	-8961
▁adatait	-8962
▁hagyott	-8963
▁halálát	-8964
▁határid	-8965
▁jogsért	-8966
▁vezeték	-8967
▁villany	-8968
▁fokozott	-8969
▁Kecskemét	-8970
▁jelentése	-8971
▁munkaügyi	-8972
▁értékelés	-8973
▁márciusban	-8974
▁összefoglal	-8975
▁mindenesetre	-8976
▁Székesfehérvár	-8977
,6	-8978
AC	-8979
ide	-8980
cher	-8981
mitt	-8982
riai	-8983
zött	-8984
érés	-8985
▁Baj	-8986
▁Nav	-8987
▁bol	-8988
▁dom	-8989
▁eld	-8990
▁elj	-8991
akadt	-8992
▁Jean	-8993
▁mögé	-8994
▁noha	-8995
▁patt	-8996
▁túli	-8997
egyver	-8998
▁Daily	-8999
▁Tizen	-9000
▁engem	-9001
▁idézi	-9002
▁kalóz	-9003
▁nének	-9004
▁szert	-9005
▁alakít	-9006
▁előrel	-9007
▁embere	-9008
▁iránti	-9009
▁szerez	-9010
▁indokol	-9011
▁iskolák	-9012
▁kereset	-9013
▁kezében	-9014
▁nyomozók	-9015
▁tartozás	-9016
▁kiválaszt	-9017
▁legkisebb	-9018
▁művészeti	-9019
▁támogatta	-9020
▁Amerikában	-9021
▁csoportban	-9022
▁tekinthető	-9023
▁viszonyítva	-9024
",	-9025
avi	-9026
eth	-9027
kán	-9028
▁Kub	-9029
▁gör	-9030
▁lik	-9031
páros	-9032
▁Visz	-9033
▁joga	-9034
elmény	-9035
liában	-9036
vándor	-9037
▁Arról	-9038
▁Polit	-9039
▁Veres	-9040
▁ésére	-9041
törvény	-9042
▁Hogyan	-9043
▁órától	-9044
▁Futball	-9045
▁nyertek	-9046
▁részleg	-9047
▁védelme	-9048
▁kontroll	-9049
▁lendület	-9050
▁részében	-9051
▁szerelem	-9052
▁egészében	-9053
▁emlékezet	-9054
▁megnyerte	-9055
▁vélhetően	-9056
▁kereskedők	-9057
▁vonatkozik	-9058
▁szerencsére	-9059
fo	-9060
rik	-9061
▁78	-9062
▁Ni	-9063
jogi	-9064
ölés	-9065
▁Del	-9066
▁Lip	-9067
▁War	-9068
ellát	-9069
jártó	-9070
▁Gold	-9071
▁Iván	-9072
▁fent	-9073
▁kötő	-9074
ettebb	-9075
▁Szilv	-9076
▁drága	-9077
▁hazug	-9078
▁hibás	-9079
▁George	-9080
▁Thomas	-9081
▁plakát	-9082
▁szülés	-9083
▁táplál	-9084
▁szokott	-9085
▁épített	-9086
▁könyvtár	-9087
▁marketing	-9088
▁nagyszerű	-9089
▁pályázati	-9090
▁könnyebben	-9091
▁intézkedéseket	-9092
ré	-9093
éh	-9094
űs	-9095
▁x	-9096
apt	-9097
kur	-9098
pul	-9099
▁89	-9100
▁Bi	-9101
▁No	-9102
▁ti	-9103
▁us	-9104
aszk	-9105
cium	-9106
öngy	-9107
▁Bus	-9108
▁1500	-9109
▁szik	-9110
▁teng	-9111
▁2003-	-9112
▁jukat	-9113
▁kivon	-9114
ennyire	-9115
▁Ligája	-9116
▁Márton	-9117
▁Racing	-9118
▁epizód	-9119
▁gondot	-9120
▁hoztak	-9121
▁iratok	-9122
▁keresni	-9123
▁követte	-9124
▁legendás	-9125
▁távozott	-9126
▁valahogy	-9127
▁vállalta	-9128
▁kilencven	-9129
▁számíthat	-9130
▁területet	-9131
de	-9132
aga	-9133
eld	-9134
ise	-9135
ukle	-9136
óczi	-9137
▁0,4	-9138
▁ret	-9139
olvas	-9140
ációk	-9141
émium	-9142
▁ugye	-9143
▁érez	-9144
ítések	-9145
▁Kapos	-9146
▁akadt	-9147
▁rakét	-9148
▁Szalai	-9149
▁Webber	-9150
▁fordít	-9151
aktérium	-9152
▁Telekom	-9153
▁gyártás	-9154
▁Schumach	-9155
▁Társaság	-9156
▁autóbusz	-9157
▁csúszott	-9158
▁működési	-9159
▁elfogadta	-9160
▁helyezték	-9161
▁vereséget	-9162
▁bemutatott	-9163
▁kisebbségi	-9164
▁találkozót	-9165
▁állították	-9166
kereskedelmi	-9167
▁legközelebb	-9168
▁megjegyezte	-9169
▁hosszabbítás	-9170
VG	-9171
we	-9172
vit	-9173
óni	-9174
▁kb	-9175
enza	-9176
vagy	-9177
▁191	-9178
▁Bod	-9179
▁Ele	-9180
▁Ser	-9181
▁div	-9182
utóbb	-9183
▁Jász	-9184
▁Kupa	-9185
▁Szép	-9186
▁Vilm	-9187
elhető	-9188
rációs	-9189
▁2013-	-9190
▁Budai	-9191
▁felhő	-9192
▁sorsa	-9193
▁telek	-9194
▁Össze	-9195
▁óráig	-9196
▁Moszkv	-9197
▁megism	-9198
▁mozdul	-9199
▁transz	-9200
▁Fernand	-9201
▁Nagydíj	-9202
▁hitelek	-9203
▁minimum	-9204
▁túlzott	-9205
▁élvonal	-9206
művészeti	-9207
▁megfelel	-9208
▁rendezik	-9209
▁dollárral	-9210
▁megfigyel	-9211
▁Nyíregyház	-9212
▁betegségek	-9213
▁támogatási	-9214
▁gondolkodás	-9215
▁rendelkezés	-9216
nyugdíjpénztárak	-9217
▁képviselőjelölt	-9218
▁sajtóügyeletese	-9219
ER	-9220
dni	-9221
anyi	-9222
becs	-9223
orok	-9224
lések	-9225
▁Hisz	-9226
▁zsar	-9227
▁álom	-9228
▁Judit	-9229
▁album	-9230
▁elfel	-9231
▁humor	-9232
▁jelző	-9233
▁közti	-9234
▁végez	-9235
▁zsűri	-9236
telenek	-9237
▁Putyin	-9238
▁eleget	-9239
▁hűtlen	-9240
▁pillan	-9241
▁Szintén	-9242
▁középső	-9243
▁szemmel	-9244
▁minőségű	-9245
▁állítása	-9246
▁elmondása	-9247
▁próbálják	-9248
▁törvényhoz	-9249
▁vezetőedző	-9250
▁felhasználó	-9251
▁választmány	-9252
▁felhasználók	-9253
▁tulajdonosok	-9254
OP	-9255
pan	-9256
▁PS	-9257
▁Pi	-9258
▁We	-9259
grád	-9260
mérő	-9261
oody	-9262
tető	-9263
▁Pető	-9264
▁Tour	-9265
▁borz	-9266
▁reál	-9267
astély	-9268
oszlop	-9269
▁házak	-9270
▁jutni	-9271
▁labor	-9272
▁ságát	-9273
▁zenei	-9274
▁ítélt	-9275
▁Albert	-9276
▁Ezután	-9277
▁Juvent	-9278
▁felsor	-9279
▁percig	-9280
▁szállít	-9281
▁helyiség	-9282
▁mutatták	-9283
▁baktérium	-9284
▁készülnek	-9285
▁műsorában	-9286
▁résztvevők	-9287
▁előrejelzés	-9288
▁mobiltelefon	-9289
▁Magyarországot	-9290
▁szakszervezetek	-9291
▁76	-9292
allg	-9293
asti	-9294
cska	-9295
ölni	-9296
▁1-1	-9297
▁25.	-9298
▁50-	-9299
▁Tíz	-9300
▁düh	-9301
▁lag	-9302
érdek	-9303
▁Beck	-9304
▁elkö	-9305
▁fant	-9306
▁halm	-9307
▁hető	-9308
▁1990-	-9309
etlenül	-9310
▁Eszter	-9311
▁Milyen	-9312
▁közúti	-9313
▁segítő	-9314
▁szálló	-9315
▁átfogó	-9316
▁Lendvai	-9317
▁mexikói	-9318
▁tárgyak	-9319
▁érthető	-9320
▁órákban	-9321
▁indoklás	-9322
▁szurkoló	-9323
▁vízszint	-9324
▁bennünket	-9325
▁felmerült	-9326
▁választást	-9327
▁vélekedett	-9328
▁összegyűjt	-9329
▁részletesen	-9330
▁szabálysért	-9331
▁informatikai	-9332
▁megkérdezett	-9333
▁bizottságának	-9334
hit	-9335
▁FM	-9336
▁Hx	-9337
▁XI	-9338
▁hu	-9339
ikos	-9340
▁Hen	-9341
▁Köv	-9342
▁apa	-9343
▁hor	-9344
▁Áll	-9345
ezlet	-9346
ásait	-9347
ülnek	-9348
▁BRFK	-9349
▁Bécs	-9350
▁Szij	-9351
▁adag	-9352
▁hírt	-9353
▁időn	-9354
▁iraki	-9355
▁ozott	-9356
▁régen	-9357
▁Dunánt	-9358
▁Juhász	-9359
▁deviza	-9360
▁hatjuk	-9361
▁hatunk	-9362
▁ketten	-9363
▁parkol	-9364
▁tervei	-9365
▁aratott	-9366
▁elődönt	-9367
▁látogat	-9368
▁mondván	-9369
választás	-9370
▁döntését	-9371
▁hatatlan	-9372
▁számomra	-9373
▁vizsgált	-9374
▁ügyfelek	-9375
▁ünnepség	-9376
Britanniában	-9377
▁középpályás	-9378
ájú	-9379
áma	-9380
éző	-9381
▁99	-9382
▁la	-9383
baúj	-9384
ello	-9385
oham	-9386
énél	-9387
őkép	-9388
▁Fal	-9389
▁Wal	-9390
▁oka	-9391
▁ult	-9392
asson	-9393
rendű	-9394
▁2005	-9395
▁Akár	-9396
▁Reut	-9397
▁Stre	-9398
emelte	-9399
▁dízel	-9400
▁influ	-9401
▁megte	-9402
▁vonzó	-9403
utaalap	-9404
▁Elmond	-9405
▁munkák	-9406
▁négyes	-9407
▁utólag	-9408
▁zavart	-9409
▁Belföld	-9410
▁Schmitt	-9411
▁feltölt	-9412
▁ideális	-9413
▁megítél	-9414
▁műanyag	-9415
▁franciák	-9416
▁kiadvány	-9417
▁lennének	-9418
▁visszaél	-9419
▁állapota	-9420
▁csoportos	-9421
▁feladatot	-9422
▁fontosnak	-9423
▁iskolában	-9424
▁önmagában	-9425
antasztikus	-9426
▁felszerelt	-9427
▁áprilisban	-9428
▁fejlesztések	-9429
▁munkanélküli	-9430
abi	-9431
ish	-9432
rad	-9433
táv	-9434
▁87	-9435
▁US	-9436
▁XX	-9437
▁só	-9438
agen	-9439
nyom	-9440
ulta	-9441
áték	-9442
▁Ism	-9443
▁Kal	-9444
▁foc	-9445
▁lig	-9446
apság	-9447
szkij	-9448
▁Blog	-9449
▁kézi	-9450
▁köze	-9451
▁műve	-9452
▁plet	-9453
biztos	-9454
művész	-9455
regény	-9456
▁Ember	-9457
▁Olimp	-9458
▁Volán	-9459
▁soros	-9460
viszony	-9461
▁elterj	-9462
▁erőtel	-9463
▁hetjük	-9464
▁kapták	-9465
▁leszög	-9466
▁segíti	-9467
▁viadal	-9468
▁dönteni	-9469
▁terjedő	-9470
▁viselked	-9471
▁genetikai	-9472
▁jégkorong	-9473
▁kilogramm	-9474
▁bevezetése	-9475
▁szerencsés	-9476
▁szomszédos	-9477
▁követelmény	-9478
▁szabálytalan	-9479
NA	-9480
uki	-9481
yan	-9482
▁):	-9483
▁96	-9484
▁ge	-9485
andi	-9486
ling	-9487
▁180	-9488
▁Lát	-9489
▁Ázs	-9490
csics	-9491
piaci	-9492
sanak	-9493
▁Majd	-9494
▁Szék	-9495
▁West	-9496
▁2000-	-9497
▁Fejér	-9498
▁elhár	-9499
▁koord	-9500
▁tranz	-9501
▁video	-9502
▁értem	-9503
▁Bundes	-9504
▁Kérdés	-9505
▁Vállal	-9506
▁címlap	-9507
▁gyűlöl	-9508
▁ritkán	-9509
▁Költség	-9510
▁istálló	-9511
▁motoros	-9512
▁hatósági	-9513
▁szerette	-9514
▁eljárások	-9515
▁Költségvet	-9516
▁kereskedés	-9517
▁biztosított	-9518
▁nyugdíjpénztár	-9519
);	-9520
▁Fe	-9521
▁SE	-9522
▁bu	-9523
ague	-9524
essé	-9525
ster	-9526
utak	-9527
▁1-2	-9528
▁Hot	-9529
▁Tat	-9530
▁Gond	-9531
▁Hoff	-9532
▁Tran	-9533
▁ebbe	-9534
▁komb	-9535
zárkóz	-9536
▁Csong	-9537
▁belga	-9538
▁ekben	-9539
▁innen	-9540
▁isten	-9541
▁küzdő	-9542
▁labda	-9543
▁vélik	-9544
verseny	-9545
▁Vilmos	-9546
▁alkotó	-9547
▁filmje	-9548
▁kizárt	-9549
ukleáris	-9550
▁McLaren	-9551
▁bűntett	-9552
▁oroszok	-9553
▁pénzügy	-9554
▁századi	-9555
▁elkövető	-9556
▁küzdelem	-9557
▁változik	-9558
▁biztosítás	-9559
▁magyarázza	-9560
▁jelentkezett	-9561
▁kereskedelem	-9562
▁helyreállítás	-9563
▁összefüggésben	-9564
,7	-9565
ee	-9566
ora	-9567
ure	-9568
▁Tv	-9569
▁fl	-9570
▁sm	-9571
SZÁF	-9572
▁(2-	-9573
▁Dan	-9574
▁OVB	-9575
▁jók	-9576
órház	-9577
ülési	-9578
▁Csap	-9579
▁csáb	-9580
▁trük	-9581
osságú	-9582
portál	-9583
uártól	-9584
▁eljut	-9585
▁gyújt	-9586
▁hátul	-9587
▁kongr	-9588
▁nyers	-9589
▁teráp	-9590
osabban	-9591
ságosan	-9592
▁megköt	-9593
▁tanuló	-9594
▁tehera	-9595
▁vetett	-9596
▁Reuters	-9597
▁Viszont	-9598
▁csapatt	-9599
▁ismerte	-9600
▁mutatta	-9601
▁szabott	-9602
▁zajlott	-9603
▁járművek	-9604
▁keresnek	-9605
▁képernyő	-9606
▁követett	-9607
▁rendszám	-9608
▁szembeni	-9609
▁összhang	-9610
▁Karácsony	-9611
▁fiatalabb	-9612
▁helyszíni	-9613
▁menedzser	-9614
▁fogyasztók	-9615
▁szlovákiai	-9616
▁tulajdonság	-9617
▁előfordulhat	-9618
▁magánnyugdíj	-9619
▁tartományban	-9620
:6	-9621
kő	-9622
alg	-9623
kar	-9624
oty	-9625
▁71	-9626
▁Ip	-9627
▁ké	-9628
elve	-9629
jünk	-9630
▁HVG	-9631
▁Met	-9632
▁Pir	-9633
▁hár	-9634
ektor	-9635
▁Ható	-9636
▁Jenő	-9637
▁levő	-9638
ancell	-9639
▁adatb	-9640
▁iszap	-9641
▁kijel	-9642
▁körök	-9643
▁lassú	-9644
▁többé	-9645
▁tőlük	-9646
▁bocsán	-9647
▁pályát	-9648
▁ragasz	-9649
▁szóval	-9650
▁Hatóság	-9651
▁Mindkét	-9652
▁alakulat	-9653
▁baloldal	-9654
▁felhívta	-9655
▁kedvéért	-9656
▁kibocsát	-9657
▁megszűnt	-9658
▁Szervezet	-9659
▁ajánlatot	-9660
▁bonyolult	-9661
▁felújítás	-9662
▁hozzátart	-9663
▁nyolcadik	-9664
▁rendszerbe	-9665
▁szabadságv	-9666
▁tökéletesen	-9667
gé	-9668
mat	-9669
uch	-9670
▁CD	-9671
atőr	-9672
emen	-9673
eron	-9674
utin	-9675
▁1,1	-9676
▁110	-9677
▁23.	-9678
▁Tűz	-9679
▁bio	-9680
indul	-9681
▁2002	-9682
▁Eger	-9683
▁Pont	-9684
▁finn	-9685
▁kosz	-9686
▁ozni	-9687
▁post	-9688
iskola	-9689
▁Egyéb	-9690
▁bicik	-9691
▁célra	-9692
▁híján	-9693
▁jogát	-9694
▁költő	-9695
▁megél	-9696
▁Éppen	-9697
▁ítani	-9698
iskolci	-9699
▁Michel	-9700
▁hibrid	-9701
▁stúdió	-9702
▁szóban	-9703
▁Azonban	-9704
▁autóval	-9705
▁főszerk	-9706
▁jelentő	-9707
▁nyolcad	-9708
▁szintre	-9709
▁vártnál	-9710
▁Juventus	-9711
▁döntések	-9712
▁hasonlít	-9713
▁miskolci	-9714
▁alapított	-9715
▁gondoltam	-9716
▁kongressz	-9717
▁forgalomba	-9718
▁megbízható	-9719
▁Főügyészség	-9720
▁létesítmény	-9721
dög	-9722
álé	-9723
▁Ri	-9724
arag	-9725
elle	-9726
▁Kur	-9727
▁Luc	-9728
▁Mac	-9729
▁mil	-9730
▁nel	-9731
meket	-9732
▁knak	-9733
▁2014-	-9734
▁csecs	-9735
▁sokak	-9736
▁élénk	-9737
▁kaphat	-9738
▁ásának	-9739
▁gyilkos	-9740
▁indulás	-9741
▁nincsen	-9742
▁nyelven	-9743
▁növekvő	-9744
▁rendőri	-9745
▁összeom	-9746
▁Hamilton	-9747
▁demonstr	-9748
▁keresett	-9749
▁kutatási	-9750
▁résztvev	-9751
▁segített	-9752
▁tucatnyi	-9753
▁előfordul	-9754
▁félidőben	-9755
▁selejtező	-9756
▁támadások	-9757
▁növekedése	-9758
▁százalékról	-9759
▁csatlakozott	-9760
▁kormányszóviv	-9761
ibi	-9762
▁00	-9763
▁79	-9764
▁MO	-9765
eink	-9766
ezze	-9767
idéz	-9768
kelő	-9769
▁190	-9770
▁4,5	-9771
arett	-9772
lanak	-9773
▁diag	-9774
▁órák	-9775
▁Munka	-9776
▁kezdi	-9777
▁tölti	-9778
francia	-9779
oltatás	-9780
▁Kárpát	-9781
▁Margit	-9782
▁bolygó	-9783
▁elítél	-9784
▁fogott	-9785
▁szalag	-9786
▁tanult	-9787
▁Capital	-9788
▁berlini	-9789
▁fedezet	-9790
▁felment	-9791
▁keresik	-9792
▁tervező	-9793
▁általuk	-9794
▁értelme	-9795
▁egyfajta	-9796
▁egyúttal	-9797
▁forgalmat	-9798
▁komolyabb	-9799
▁szemlélet	-9800
▁Schumacher	-9801
??	-9802
őke	-9803
Szat	-9804
empl	-9805
vevő	-9806
▁!!!	-9807
▁30.	-9808
▁Bab	-9809
▁úti	-9810
ságát	-9811
▁José	-9812
▁csuk	-9813
▁junk	-9814
emplén	-9815
frastr	-9816
ulladt	-9817
▁Annak	-9818
▁Messi	-9819
▁elsej	-9820
▁földi	-9821
▁ilyes	-9822
▁kalap	-9823
▁leveg	-9824
▁tömör	-9825
▁velem	-9826
Szatmár	-9827
▁League	-9828
▁bukott	-9829
▁cégnek	-9830
▁pártja	-9831
▁tárlat	-9832
▁Demszky	-9833
▁csarnok	-9834
▁hónapok	-9835
▁nyomozó	-9836
▁számban	-9837
▁Érdekes	-9838
▁útvonal	-9839
▁amelyből	-9840
▁fizetnie	-9841
▁modellek	-9842
▁mozgalom	-9843
▁részesed	-9844
▁Szijjártó	-9845
▁bizonnyal	-9846
▁helyzetét	-9847
▁történész	-9848
▁beszédében	-9849
▁folyamatok	-9850
▁stabilitás	-9851
▁szerepelnek	-9852
▁változtatni	-9853
▁jogszabályok	-9854
▁rendezvényen	-9855
▁statisztikai	-9856
KA	-9857
zá	-9858
);"	-9859
ire	-9860
irk	-9861
▁po	-9862
ical	-9863
olas	-9864
orld	-9865
▁31.	-9866
▁nar	-9867
▁seh	-9868
ságok	-9869
▁Vona	-9870
▁fiúk	-9871
▁napp	-9872
▁rádi	-9873
▁útra	-9874
▁Azóta	-9875
▁Endre	-9876
▁Tehát	-9877
▁feled	-9878
▁forgó	-9879
▁hetik	-9880
▁jától	-9881
▁kapja	-9882
▁kopog	-9883
▁koron	-9884
▁roham	-9885
▁sorra	-9886
essenek	-9887
sorozat	-9888
ublikán	-9889
▁hajlam	-9890
▁kaptam	-9891
▁kiszab	-9892
▁megvéd	-9893
▁számla	-9894
▁vicces	-9895
▁vékony	-9896
▁édesap	-9897
▁Premier	-9898
▁barátja	-9899
▁cserébe	-9900
▁kiesett	-9901
▁November	-9902
▁cigarett	-9903
▁szerepét	-9904
▁sújtotta	-9905
▁agresszív	-9906
▁büntetést	-9907
▁elnökének	-9908
▁engedélyt	-9909
▁esztendős	-9910
▁tagország	-9911
▁történeti	-9912
▁túlságosan	-9913
▁finanszírozási	-9914
no	-9915
pa	-9916
vó	-9917
úk	-9918
inz	-9919
ána	-9920
▁82	-9921
▁tű	-9922
▁0,7	-9923
▁túr	-9924
▁áru	-9925
ancia	-9926
▁Brit	-9927
▁Papp	-9928
▁Pitt	-9929
▁Tény	-9930
▁andó	-9931
▁béke	-9932
képvis	-9933
opping	-9934
▁eknek	-9935
▁fejét	-9936
▁Vannak	-9937
▁jártak	-9938
▁érdemi	-9939
▁bevásár	-9940
▁közepes	-9941
▁mondhat	-9942
▁oldalak	-9943
▁tudomás	-9944
▁valahol	-9945
▁összege	-9946
▁abszolút	-9947
▁hatályba	-9948
▁magunkat	-9949
▁technika	-9950
▁uralkodó	-9951
▁decemberi	-9952
▁emelkedés	-9953
▁kutatások	-9954
▁készíteni	-9955
▁Valutaalap	-9956
▁eszközöket	-9957
▁gyakorlati	-9958
▁gyerekeket	-9959
▁Költségvetési	-9960
,3	-9961
ccs	-9962
▁Po	-9963
fgán	-9964
gium	-9965
hone	-9966
lánc	-9967
ságú	-9968
▁0,1	-9969
▁6:4	-9970
▁Bog	-9971
▁Hit	-9972
▁Kut	-9973
▁Nat	-9974
▁laz	-9975
▁obj	-9976
▁poh	-9977
aiban	-9978
allas	-9979
▁Braz	-9980
▁csaj	-9981
▁célt	-9982
▁ekre	-9983
▁erőt	-9984
▁komm	-9985
▁szór	-9986
▁Hiába	-9987
▁lejár	-9988
▁ígért	-9989
parancs	-9990
▁belüli	-9991
▁kértek	-9992
▁megtám	-9993
▁ékszer	-9994
irodalom	-9995
▁ahonnan	-9996
▁akartak	-9997
▁mindezt	-9998
frastrukt	-9999
▁belváros	-10000
▁jogállam	-10001
▁kerékpár	-10002
▁kitüntet	-10003
helyettese	-10004
▁másodfokú	-10005
▁szervezés	-10006
▁szokatlan	-10007
fejlesztési	-10008
▁mindenféle	-10009
▁érintettek	-10010
▁szövetséges	-10011
▁települések	-10012
▁Kereskedelmi	-10013
▁frakcióvezető	-10014
▁teljesítményt	-10015
▁megállapította	-10016
lad	-10017
oka	-10018
ince	-10019
éket	-10020
ósok	-10021
▁0,0	-10022
▁1,8	-10023
▁140	-10024
▁Jak	-10025
▁Mir	-10026
▁mol	-10027
▁rág	-10028
▁ülő	-10029
Bereg	-10030
díjas	-10031
közép	-10032
▁Labd	-10033
▁kard	-10034
hetjük	-10035
iptomi	-10036
▁forma	-10037
▁félév	-10038
miniszt	-10039
▁Roland	-10040
▁ellátó	-10041
▁támasz	-10042
felvétel	-10043
▁háborús	-10044
▁éreztem	-10045
▁Csongrád	-10046
▁Tudomány	-10047
▁dollárra	-10048
▁hatályos	-10049
▁indokolt	-10050
▁Valószínű	-10051
▁nukleáris	-10052
▁nyugdíjba	-10053
▁szivattyú	-10054
▁koncentrál	-10055
▁feldolgozás	-10056
▁párhuzamosan	-10057
▁állampolgárok	-10058
to	-10059
ty	-10060
jev	-10061
oke	-10062
oth	-10063
▁09	-10064
▁77	-10065
▁86	-10066
▁Ka	-10067
adar	-10068
nyik	-10069
over	-10070
ozva	-10071
term	-10072
▁26.	-10073
▁3,8	-10074
▁Kun	-10075
attuk	-10076
kezik	-10077
rajzi	-10078
szott	-10079
ülhet	-10080
▁Jour	-10081
▁Mour	-10082
▁brut	-10083
▁domb	-10084
▁druk	-10085
▁esed	-10086
▁nünk	-10087
▁pert	-10088
▁páci	-10089
ásának	-10090
égiben	-10091
▁Egyik	-10092
▁Halál	-10093
▁Honda	-10094
▁Rogán	-10095
▁eivel	-10096
▁hívja	-10097
▁janak	-10098
▁lelet	-10099
▁matem	-10100
▁parti	-10101
▁tanús	-10102
▁privat	-10103
▁zuhant	-10104
▁bizalom	-10105
▁célpont	-10106
▁egyenes	-10107
▁elemzői	-10108
▁jegyban	-10109
▁nyertes	-10110
▁rangsor	-10111
▁robbanó	-10112
▁szlovén	-10113
▁összegű	-10114
▁igazolás	-10115
▁tervezés	-10116
▁Szlovákia	-10117
▁egyenesen	-10118
▁egyszerűs	-10119
▁foglaltak	-10120
▁gondolják	-10121
▁gyermeket	-10122
▁inflációs	-10123
▁látogatók	-10124
▁megjelenő	-10125
▁vendéglát	-10126
▁Szövetsége	-10127
▁utánpótlás	-10128
▁történetében	-10129
▁eredményeként	-10130
EK	-10131
yi	-10132
für	-10133
rov	-10134
▁84	-10135
elli	-10136
test	-10137
▁5,5	-10138
▁FTC	-10139
▁ron	-10140
▁Önk	-10141
▁áig	-10142
eoton	-10143
unkra	-10144
ászok	-10145
▁Bács	-10146
▁Foly	-10147
▁Marc	-10148
▁Part	-10149
▁alud	-10150
▁kism	-10151
▁spór	-10152
▁téri	-10153
▁váll	-10154
▁óvat	-10155
▁Navra	-10156
▁diagn	-10157
▁romák	-10158
▁temet	-10159
▁tünet	-10160
afrikai	-10161
▁Blogok	-10162
▁filmes	-10163
▁hiányt	-10164
▁kitart	-10165
▁velünk	-10166
▁árnyék	-10167
kapitány	-10168
▁Nyilván	-10169
▁elveszt	-10170
▁erőfesz	-10171
▁vallási	-10172
▁hirdetés	-10173
▁irányuló	-10174
▁kellemes	-10175
▁májusban	-10176
▁októberi	-10177
▁Írország	-10178
▁Gabriella	-10179
▁ellenfele	-10180
▁erőszakos	-10181
▁repülőter	-10182
▁szeretném	-10183
▁erősítette	-10184
▁társaságok	-10185
CD	-10186
▁−	-10187
ikó	-10188
lav	-10189
ray	-10190
▁08	-10191
▁83	-10192
ehéz	-10193
▁Bib	-10194
▁ajt	-10195
▁lic	-10196
olasz	-10197
parti	-10198
▁gólp	-10199
▁kint	-10200
▁musz	-10201
eződés	-10202
▁lopás	-10203
▁szorg	-10204
▁vonul	-10205
▁Vissza	-10206
▁amiket	-10207
▁javult	-10208
▁kalkul	-10209
▁kiprób	-10210
▁pontja	-10211
▁szobor	-10212
▁Ukrajna	-10213
▁járvány	-10214
▁képeket	-10215
▁tengeri	-10216
▁vezetni	-10217
▁bebizony	-10218
▁bevándor	-10219
▁elfoglal	-10220
▁festmény	-10221
▁honlapja	-10222
▁időnként	-10223
▁valamely	-10224
szolgáltató	-10225
▁alkalmából	-10226
▁használata	-10227
▁nyilatkozó	-10228
▁versenyben	-10229
▁visszatért	-10230
▁negyeddöntő	-10231
▁közelmúltban	-10232
▁tulajdonában	-10233
ea	-10234
aty	-10235
esc	-10236
get	-10237
oom	-10238
▁BA	-10239
egyi	-10240
▁Cas	-10241
▁Rég	-10242
▁Sár	-10243
▁rez	-10244
▁szp	-10245
adták	-10246
front	-10247
▁Matt	-10248
▁Oszk	-10249
▁Sant	-10250
▁Wind	-10251
▁amin	-10252
▁ball	-10253
ciókat	-10254
▁afgán	-10255
▁békés	-10256
▁célba	-10257
▁dolga	-10258
▁konyh	-10259
▁pornó	-10260
elminős	-10261
▁Kórház	-10262
▁eljutt	-10263
▁kedvez	-10264
▁keresi	-10265
▁kispad	-10266
▁lépése	-10267
▁pálink	-10268
▁pénzek	-10269
▁társas	-10270
▁vágott	-10271
▁zárult	-10272
▁amelyre	-10273
▁rangadó	-10274
▁reakció	-10275
▁utazott	-10276
▁esedékes	-10277
▁ítéletet	-10278
▁hiányában	-10279
▁kétszeres	-10280
▁legtöbben	-10281
▁bemutatkoz	-10282
▁egyeztetés	-10283
▁embereknek	-10284
▁meghaladta	-10285
▁növekedési	-10286
▁támogatása	-10287
▁befolyásolja	-10288
col	-10289
mos	-10290
ows	-10291
ube	-10292
way	-10293
▁AC	-10294
rown	-10295
▁130	-10296
▁27.	-10297
▁Net	-10298
▁bön	-10299
▁dra	-10300
▁tat	-10301
vezér	-10302
▁Cser	-10303
▁Mező	-10304
▁Vers	-10305
▁aink	-10306
▁pápa	-10307
▁teli	-10308
lettel	-10309
ájával	-10310
▁Egyre	-10311
▁Moody	-10312
▁havas	-10313
▁látom	-10314
▁múlik	-10315
▁pihen	-10316
▁robot	-10317
eztette	-10318
▁becsül	-10319
▁drámai	-10320
▁idővel	-10321
▁kérelm	-10322
▁műhely	-10323
▁példát	-10324
▁reális	-10325
▁Journal	-10326
▁foglalt	-10327
▁földgáz	-10328
▁kényelm	-10329
▁készítő	-10330
▁maradni	-10331
▁megnyug	-10332
▁építeni	-10333
▁újonnan	-10334
▁helyezte	-10335
▁kérdéses	-10336
▁szavazni	-10337
▁dolgoztak	-10338
▁középpont	-10339
▁láthatóan	-10340
▁sorozatot	-10341
▁században	-10342
▁hihetetlen	-10343
▁republikán	-10344
▁feladatokat	-10345
▁elutasította	-10346
anó	-10347
inn	-10348
rai	-10349
ucs	-10350
vét	-10351
▁(9	-10352
▁mp	-10353
négy	-10354
tein	-10355
teti	-10356
ília	-10357
▁Don	-10358
▁Női	-10359
▁www	-10360
ezent	-10361
index	-10362
ullám	-10363
ációt	-10364
▁anti	-10365
▁hany	-10366
kutató	-10367
▁bécsi	-10368
▁győri	-10369
▁kisgy	-10370
▁megít	-10371
▁sereg	-10372
▁tilos	-10373
▁vinni	-10374
▁zárás	-10375
▁érvel	-10376
▁üdvöz	-10377
antikus	-10378
irdetés	-10379
nyugati	-10380
▁akivel	-10381
irdetett	-10382
▁jegyzés	-10383
▁kerülni	-10384
▁mesélte	-10385
▁ugyanez	-10386
▁bevételt	-10387
▁irodalmi	-10388
▁kikapott	-10389
▁lefoglal	-10390
▁alkatrész	-10391
▁bármelyik	-10392
▁Önkormány	-10393
▁Navracsics	-10394
▁hitelminős	-10395
▁hónapjában	-10396
▁Közlekedési	-10397
▁csökkenteni	-10398
▁jelentették	-10399
▁meghallgatás	-10400
▁szórakoztató	-10401
20-	-10402
ejű	-10403
esk	-10404
iox	-10405
rol	-10406
▁du	-10407
eger	-10408
etty	-10409
▁1,7	-10410
▁Gaz	-10411
▁Jéz	-10412
▁Sik	-10413
Abaúj	-10414
angol	-10415
olnak	-10416
▁Husz	-10417
▁Kósa	-10418
▁híre	-10419
▁jére	-10420
▁kiló	-10421
▁mani	-10422
▁tűnő	-10423
ettünk	-10424
kodnak	-10425
▁1998-	-10426
▁Bence	-10427
▁bezár	-10428
▁blokk	-10429
▁elhal	-10430
▁enyhe	-10431
Zemplén	-10432
▁előseg	-10433
▁hagyja	-10434
▁olykor	-10435
almasabb	-10436
▁bűnügyi	-10437
▁ezáltal	-10438
▁leminős	-10439
▁nappali	-10440
szövetség	-10441
vállalkoz	-10442
▁Mindenki	-10443
▁Totalcar	-10444
▁adófizet	-10445
▁bármikor	-10446
▁gyorsabb	-10447
▁jegyzett	-10448
▁napjaink	-10449
▁turizmus	-10450
▁bemutatás	-10451
▁irányítás	-10452
▁meghaladó	-10453
▁számoltak	-10454
▁származik	-10455
▁feszültség	-10456
▁kosárlabda	-10457
▁munkálatok	-10458
▁tiltakozás	-10459
▁felkészülés	-10460
▁technológia	-10461
▁büntetőeljárás	-10462
SH	-10463
ane	-10464
suk	-10465
▁2:	-10466
▁Ti	-10467
▁th	-10468
sőbb	-10469
▁24.	-10470
▁Kim	-10471
▁Vis	-10472
▁all	-10473
▁nák	-10474
▁ték	-10475
antól	-10476
azion	-10477
eller	-10478
▁Oszt	-10479
▁aznap	-10480
▁ráját	-10481
▁talan	-10482
▁útján	-10483
▁emelet	-10484
▁győzte	-10485
▁hívják	-10486
▁megseb	-10487
▁raktár	-10488
▁szavak	-10489
▁viselő	-10490
▁vándor	-10491
különböz	-10492
▁Népszav	-10493
▁kancell	-10494
▁lényege	-10495
▁visszam	-10496
▁Akadémia	-10497
▁Ausztria	-10498
▁híresség	-10499
▁lebonyol	-10500
▁minőségi	-10501
▁időközben	-10502
▁kategória	-10503
▁lépéseket	-10504
▁csökkentés	-10505
▁százalékuk	-10506
▁találkozik	-10507
▁Horvátország	-10508
▁koncentráció	-10509
OSZ	-10510
aló	-10511
hög	-10512
▁Ga	-10513
diox	-10514
roni	-10515
sort	-10516
vebb	-10517
▁Els	-10518
▁Jég	-10519
▁Men	-10520
▁Tok	-10521
▁búj	-10522
▁eik	-10523
▁főt	-10524
▁hur	-10525
▁kra	-10526
▁nov	-10527
▁víg	-10528
ezető	-10529
▁fűző	-10530
▁ikat	-10531
▁kérő	-10532
▁körű	-10533
▁tásk	-10534
▁vacs	-10535
▁virt	-10536
dioxid	-10537
▁Brown	-10538
▁Dzsud	-10539
▁extra	-10540
▁ezres	-10541
▁progn	-10542
▁párti	-10543
▁vádat	-10544
hetőleg	-10545
▁Dallas	-10546
▁diktat	-10547
▁kisfiú	-10548
▁oktató	-10549
▁életre	-10550
vállalat	-10551
▁csecsem	-10552
▁gázolaj	-10553
▁ismerik	-10554
▁premier	-10555
▁romlott	-10556
Britannia	-10557
▁elfogták	-10558
▁előfizet	-10559
▁maradhat	-10560
▁mellette	-10561
▁menekült	-10562
▁elkészült	-10563
▁hátrányos	-10564
▁lemondott	-10565
▁rendszerek	-10566
▁bejelentett	-10567
▁felszámolás	-10568
▁százalékban	-10569
▁összefüggés	-10570
▁technológiai	-10571
▁életveszélyes	-10572
45	-10573
rah	-10574
----	-10575
erél	-10576
házi	-10577
real	-10578
édul	-10579
▁28.	-10580
▁Cel	-10581
▁Fil	-10582
▁dzs	-10583
▁ozó	-10584
dőjel	-10585
ázium	-10586
▁2003	-10587
▁Irod	-10588
▁Wood	-10589
▁lyuk	-10590
▁váró	-10591
▁árát	-10592
rabban	-10593
▁2001-	-10594
▁Franc	-10595
▁Jones	-10596
▁Katon	-10597
▁kapni	-10598
▁klíma	-10599
▁lélek	-10600
▁lépni	-10601
▁Inform	-10602
▁Kanada	-10603
▁betart	-10604
▁kérték	-10605
▁utcára	-10606
▁vonult	-10607
▁Johnson	-10608
▁Norbert	-10609
▁költött	-10610
▁remekül	-10611
acsonyabb	-10612
▁Pénteken	-10613
▁döntőben	-10614
▁engedték	-10615
▁mutatnak	-10616
▁próbálta	-10617
▁Dzsudzsák	-10618
▁Egyébként	-10619
▁megoldani	-10620
▁népszerűs	-10621
▁tartoznak	-10622
▁Csehország	-10623
▁kerékpáros	-10624
▁magatartás	-10625
▁szolgálati	-10626
▁egyedülálló	-10627
▁konferencián	-10628
DA	-10629
edi	-10630
vin	-10631
▁to	-10632
▁zó	-10633
adel	-10634
emet	-10635
erán	-10636
hont	-10637
ádár	-10638
▁1-0	-10639
▁All	-10640
▁Pok	-10641
▁Vad	-10642
▁főh	-10643
▁mul	-10644
felől	-10645
iklás	-10646
nyolc	-10647
ogató	-10648
ravúr	-10649
▁Bulg	-10650
▁felr	-10651
▁nánk	-10652
▁takt	-10653
éséhez	-10654
▁Louis	-10655
▁fokoz	-10656
▁massz	-10657
▁rutin	-10658
▁telen	-10659
▁utazó	-10660
▁viszi	-10661
▁vitát	-10662
▁ással	-10663
▁épülő	-10664
▁alapja	-10665
▁fogtak	-10666
▁lejárt	-10667
▁naptár	-10668
▁szalon	-10669
imnázium	-10670
▁Assange	-10671
▁Például	-10672
▁Univers	-10673
▁olyanok	-10674
▁prémium	-10675
▁szomorú	-10676
▁tisztán	-10677
▁Fernando	-10678
▁Miközben	-10679
▁régióban	-10680
▁weboldal	-10681
▁szolgálja	-10682
▁terhesség	-10683
▁elnevezésű	-10684
▁indítottak	-10685
▁játszottak	-10686
▁megegyezés	-10687
▁természeti	-10688
▁értelemben	-10689
▁megkülönböz	-10690
▁születésnap	-10691
▁Szlovákiában	-10692
▁megállapítás	-10693
▁gazdaságpolit	-10694
,8	-10695
BA	-10696
ct	-10697
éj	-10698
Kis	-10699
ado	-10700
bud	-10701
tél	-10702
ucc	-10703
▁Me	-10704
dhet	-10705
oson	-10706
▁Rep	-10707
entúl	-10708
gyárt	-10709
onosz	-10710
wagen	-10711
▁óvod	-10712
▁úszó	-10713
adelph	-10714
rosoft	-10715
tőzsde	-10716
▁World	-10717
▁agrár	-10718
▁elönt	-10719
▁jében	-10720
▁Ezeket	-10721
▁földön	-10722
▁hangot	-10723
▁hívták	-10724
▁kering	-10725
▁léptek	-10726
▁miatti	-10727
▁szólva	-10728
▁állhat	-10729
rendelet	-10730
▁garanci	-10731
▁havonta	-10732
▁otthont	-10733
▁szereti	-10734
▁ünnepek	-10735
▁Eredmény	-10736
▁támadást	-10737
▁adminiszt	-10738
▁csökkenti	-10739
▁emberölés	-10740
▁forintnyi	-10741
▁hírportál	-10742
▁mindannyi	-10743
▁mindenhol	-10744
▁programban	-10745
▁alkotmányos	-10746
▁bizonyítani	-10747
▁foglalkozni	-10748
▁gazdálkodás	-10749
▁változatlan	-10750
▁tevékenységét	-10751
hid	-10752
▁Ho	-10753
▁ox	-10754
apia	-10755
esta	-10756
inam	-10757
ódni	-10758
▁2-1	-10759
▁Der	-10760
▁Ped	-10761
▁Rod	-10762
▁jan	-10763
▁ősi	-10764
atika	-10765
letes	-10766
nyira	-10767
▁Cont	-10768
▁okos	-10769
▁ügye	-10770
ossági	-10771
▁Remél	-10772
▁csomó	-10773
▁geszt	-10774
▁hazud	-10775
▁szfér	-10776
▁teret	-10777
▁újonc	-10778
▁ülést	-10779
endszer	-10780
ületett	-10781
▁Mátyás	-10782
▁bolgár	-10783
▁ekkora	-10784
▁fölény	-10785
▁kettőt	-10786
▁megeml	-10787
▁médium	-10788
▁oszlop	-10789
▁szavai	-10790
▁tagság	-10791
▁Hamburg	-10792
▁böngész	-10793
▁szerűen	-10794
▁vesszük	-10795
▁becsület	-10796
▁gondolni	-10797
▁hangzott	-10798
▁kétségbe	-10799
▁legszebb	-10800
▁megtiszt	-10801
▁mondható	-10802
▁szenátus	-10803
▁turisták	-10804
▁vezettek	-10805
▁érdekeit	-10806
▁Szolgálat	-10807
▁becslések	-10808
▁bevételek	-10809
▁egymástól	-10810
▁idegenben	-10811
▁közlekedő	-10812
▁növekszik	-10813
▁városában	-10814
▁ismertette	-10815
▁jelentkező	-10816
▁nemrégiben	-10817
▁sikertelen	-10818
▁euróövezeti	-10819
▁létrehozott	-10820
▁állásfoglal	-10821
▁centiméteres	-10822
▁kormánypárti	-10823
▁felsőoktatási	-10824
▁megkérdezettek	-10825
▁Ja	-10826
▁Lo	-10827
szül	-10828
▁3-1	-10829
▁DNS	-10830
▁Raf	-10831
▁főz	-10832
▁hul	-10833
▁kaz	-10834
ályos	-10835
▁Erős	-10836
▁háza	-10837
▁kori	-10838
▁szől	-10839
▁Mikor	-10840
▁Nyolc	-10841
▁boksz	-10842
▁kilép	-10843
▁madár	-10844
gyűjtés	-10845
kswagen	-10846
vezeték	-10847
▁finálé	-10848
▁intell	-10849
▁nevelő	-10850
▁recept	-10851
▁tőzsde	-10852
▁Külföld	-10853
▁Melinda	-10854
▁Székely	-10855
▁autósok	-10856
▁egyházi	-10857
▁irányba	-10858
▁kutatói	-10859
▁minimál	-10860
▁mondtam	-10861
▁belföldi	-10862
▁figyelni	-10863
▁gondolta	-10864
▁házaspár	-10865
▁megfizet	-10866
▁mégpedig	-10867
▁napvilág	-10868
▁gyakorolt	-10869
▁készültek	-10870
▁problémái	-10871
▁szavazott	-10872
▁kialakulás	-10873
▁mindennapi	-10874
▁kivételével	-10875
▁támogatását	-10876
▁fantasztikus	-10877
▁lehetőségeket	-10878
by	-10879
nó	-10880
log	-10881
nai	-10882
rip	-10883
rác	-10884
▁EL	-10885
ésbé	-10886
▁fúj	-10887
ecser	-10888
ölcsi	-10889
▁Azok	-10890
▁Butt	-10891
▁Camp	-10892
▁Flor	-10893
▁bors	-10894
▁csók	-10895
▁férf	-10896
etroit	-10897
észett	-10898
▁dátum	-10899
▁fokon	-10900
▁hajtó	-10901
▁homok	-10902
▁kellő	-10903
▁akarok	-10904
▁holott	-10905
▁joggal	-10906
▁kézzel	-10907
▁légkör	-10908
▁merült	-10909
▁nagyot	-10910
▁percet	-10911
szigetek	-10912
▁Detroit	-10913
▁elmenek	-10914
▁felhalm	-10915
▁hajnali	-10916
▁kaptunk	-10917
▁komplex	-10918
▁építési	-10919
▁Videoton	-10920
▁fedélzet	-10921
▁gépkocsi	-10922
▁igencsak	-10923
▁interjút	-10924
▁Microsoft	-10925
▁rendszere	-10926
▁vizsgálni	-10927
▁változata	-10928
▁Eredmények	-10929
▁bizottsági	-10930
▁vizsgálata	-10931
▁Ausztriában	-10932
▁infrastrukt	-10933
▁legkevesebb	-10934
▁műsorvezető	-10935
▁teljesített	-10936
▁turisztikai	-10937
▁kormányszóvivő	-10938
sm	-10939
bal	-10940
ili	-10941
ret	-10942
ump	-10943
▁Hy	-10944
▁Ke	-10945
ifik	-10946
laud	-10947
énes	-10948
▁Néz	-10949
▁Sev	-10950
▁Chic	-10951
▁Kocs	-10952
▁Zöld	-10953
▁jutó	-10954
▁pinc	-10955
▁tenn	-10956
▁India	-10957
▁tészt	-10958
udomány	-10959
▁Daniel	-10960
▁Rudolf	-10961
▁Street	-10962
▁Takács	-10963
▁egykor	-10964
▁esetet	-10965
▁növeli	-10966
▁szapor	-10967
▁tartom	-10968
▁járatok	-10969
▁képzett	-10970
▁megtesz	-10971
▁növelés	-10972
▁olvasni	-10973
▁székház	-10974
▁elfelejt	-10975
▁februári	-10976
▁nyomaték	-10977
▁népesség	-10978
▁tömegköz	-10979
▁váltotta	-10980
▁áprilisi	-10981
▁épületet	-10982
▁csapatban	-10983
▁országnak	-10984
▁számunkra	-10985
▁változást	-10986
▁Alekszandr	-10987
▁Volkswagen	-10988
▁befektetői	-10989
▁felesleges	-10990
▁helikopter	-10991
▁Internazion	-10992
▁parlamentbe	-10993
▁sajtószóviv	-10994
▁négyzetméteres	-10995
))	-10996
sok	-10997
▁Kg	-10998
▁cm	-10999
kert	-11000
▁Bot	-11001
▁dús	-11002
▁ráj	-11003
ikája	-11004
motor	-11005
ásban	-11006
▁Prim	-11007
▁elöl	-11008
▁kávé	-11009
▁mász	-11010
▁rock	-11011
▁zott	-11012
▁áját	-11013
íthető	-11014
▁Villa	-11015
▁festő	-11016
▁hotel	-11017
▁lakók	-11018
▁segéd	-11019
▁szenz	-11020
▁télen	-11021
erősebb	-11022
▁alapos	-11023
▁bravúr	-11024
▁létező	-11025
▁sikere	-11026
▁színek	-11027
▁válhat	-11028
▁ígérte	-11029
almatlan	-11030
tartások	-11031
▁kortárs	-11032
▁páciens	-11033
▁stressz	-11034
▁tagadta	-11035
▁találat	-11036
▁fogadott	-11037
▁jelentek	-11038
▁vásárlók	-11039
▁befektető	-11040
▁bukkantak	-11041
▁egyiptomi	-11042
▁körzetben	-11043
▁vásárolni	-11044
▁gyorsabban	-11045
▁házkutatás	-11046
▁problémákat	-11047
▁megváltozott	-11048
▁Szövetségének	-11049
▁költségvetést	-11050
▁polgármesteri	-11051
▁legalacsonyabb	-11052
▁belügyminiszter	-11053
BI	-11054
pu	-11055
yű	-11056
ald	-11057
rét	-11058
tük	-11059
yle	-11060
árg	-11061
első	-11062
erni	-11063
essy	-11064
etik	-11065
isza	-11066
▁350	-11067
▁6,5	-11068
▁Pri	-11069
▁Wil	-11070
▁báb	-11071
▁dek	-11072
▁fer	-11073
állni	-11074
▁"...	-11075
▁Társ	-11076
▁dőlt	-11077
▁holt	-11078
▁kasz	-11079
▁mese	-11080
▁mérő	-11081
▁sűrű	-11082
otikus	-11083
▁bejut	-11084
▁esküv	-11085
▁kinek	-11086
▁órára	-11087
lekedés	-11088
▁Hiszen	-11089
▁Sziget	-11090
▁hattak	-11091
▁koránt	-11092
▁munkab	-11093
▁pártot	-11094
▁senkit	-11095
▁utakon	-11096
▁Február	-11097
▁kastély	-11098
▁küzdött	-11099
▁magában	-11100
▁családja	-11101
▁gyermeke	-11102
▁listáján	-11103
íthatatlan	-11104
▁Fidesznek	-11105
▁besorolás	-11106
▁csapatnak	-11107
▁felmérése	-11108
▁folytatni	-11109
▁képregény	-11110
▁sikeresen	-11111
▁számtalan	-11112
▁értékelte	-11113
▁előállítás	-11114
▁jellemzően	-11115
▁tagállamok	-11116
▁vizsgálták	-11117
aph	-11118
uzz	-11119
vös	-11120
▁MA	-11121
▁éh	-11122
eton	-11123
eves	-11124
▁29.	-11125
▁Gál	-11126
▁Pak	-11127
▁gig	-11128
gyógy	-11129
hozzá	-11130
istán	-11131
latok	-11132
tagok	-11133
▁Pint	-11134
▁diad	-11135
kezési	-11136
álatos	-11137
őleges	-11138
▁Kádár	-11139
▁Rózsa	-11140
▁levon	-11141
▁motiv	-11142
▁neves	-11143
▁pesti	-11144
▁éjfél	-11145
ulladás	-11146
üsszeli	-11147
▁Együtt	-11148
▁erővel	-11149
▁gyarap	-11150
▁gyűjtő	-11151
▁hetnek	-11152
▁rendre	-11153
▁Vízügyi	-11154
▁elvileg	-11155
▁erdélyi	-11156
▁idézett	-11157
▁jegyzők	-11158
▁némileg	-11159
▁jegyében	-11160
▁jobbikos	-11161
▁megkapta	-11162
▁mentelmi	-11163
▁rövidebb	-11164
▁tárgyalt	-11165
▁vizsgáló	-11166
▁brüsszeli	-11167
▁jelenthet	-11168
▁kérdésben	-11169
▁mindkettő	-11170
▁szereztek	-11171
▁továbbjut	-11172
▁Philadelph	-11173
▁növekedett	-11174
▁vélemények	-11175
▁összetétel	-11176
▁beszámolója	-11177
▁biztosítási	-11178
▁szabályokat	-11179
▁vezetésével	-11180
▁nagykövetség	-11181
kap	-11182
▁Ec	-11183
▁zl	-11184
bolt	-11185
ttől	-11186
▁Gáz	-11187
▁Haz	-11188
▁You	-11189
▁kov	-11190
▁maj	-11191
▁rok	-11192
ation	-11193
efánt	-11194
mában	-11195
oston	-11196
szerv	-11197
telep	-11198
élyeg	-11199
érmet	-11200
▁Bill	-11201
▁Tott	-11202
▁Vajd	-11203
▁Wall	-11204
▁extr	-11205
▁okon	-11206
▁ruha	-11207
ászlót	-11208
▁Barát	-11209
▁Jézus	-11210
▁Legal	-11211
▁Pécsi	-11212
▁forró	-11213
▁kérni	-11214
▁lovag	-11215
▁lovas	-11216
▁mikro	-11217
▁tüzet	-11218
couveri	-11219
osztott	-11220
▁haszon	-11221
▁kitért	-11222
▁megbet	-11223
▁szponz	-11224
▁Sebasti	-11225
▁Szegedi	-11226
▁hivatás	-11227
▁szakkép	-11228
▁szégyen	-11229
▁tudatos	-11230
▁változó	-11231
▁Kiderült	-11232
▁bírságot	-11233
▁hivatali	-11234
▁megvizsg	-11235
▁munkával	-11236
▁épületek	-11237
▁kockázati	-11238
▁létrejött	-11239
▁vállalati	-11240
▁áldozatot	-11241
▁Nyomtatási	-11242
▁elbeszélés	-11243
▁készítette	-11244
▁legerősebb	-11245
▁mérkőzésén	-11246
▁vancouveri	-11247
▁állítottak	-11248
▁személyautó	-11249
▁fenntartható	-11250
▁felülvizsgálat	-11251
bar	-11252
cid	-11253
ugh	-11254
yal	-11255
▁Kf	-11256
▁MK	-11257
▁Nó	-11258
▁Ur	-11259
emes	-11260
kész	-11261
toni	-11262
álóz	-11263
▁0,6	-11264
▁270	-11265
▁Eng	-11266
▁Lot	-11267
▁May	-11268
▁Tra	-11269
▁lis	-11270
▁off	-11271
▁ozz	-11272
▁szk	-11273
airól	-11274
elést	-11275
tatja	-11276
▁Hort	-11277
▁Medv	-11278
▁Pozs	-11279
▁ival	-11280
▁land	-11281
▁rász	-11282
▁térd	-11283
ámadás	-11284
▁Nekem	-11285
▁adhat	-11286
▁celeb	-11287
▁hetek	-11288
▁ragad	-11289
▁vevők	-11290
▁átlép	-11291
▁Petőfi	-11292
▁Szeret	-11293
▁Szóval	-11294
▁beszer	-11295
▁büdzsé	-11296
▁csavar	-11297
▁előadó	-11298
▁félidő	-11299
▁hozzák	-11300
▁szolid	-11301
▁aláírás	-11302
▁darabot	-11303
▁elkötel	-11304
▁emeltek	-11305
▁fellend	-11306
▁hatását	-11307
▁papírok	-11308
▁szimpat	-11309
▁tengely	-11310
▁érdekel	-11311
▁Frankfur	-11312
▁helyeken	-11313
▁ifjúsági	-11314
▁magyarul	-11315
▁tábornok	-11316
▁Labdarúgó	-11317
▁adatbázis	-11318
▁alapítója	-11319
▁bejegyzés	-11320
▁pszichiát	-11321
▁színeiben	-11322
▁milliméter	-11323
▁mindketten	-11324
▁Csütörtökön	-11325
▁beavatkozás	-11326
▁megszerezte	-11327
MSZ	-11328
icz	-11329
isk	-11330
nám	-11331
rep	-11332
tes	-11333
óka	-11334
óst	-11335
▁07	-11336
▁Hf	-11337
▁Ru	-11338
coni	-11339
fiai	-11340
iter	-11341
vest	-11342
▁3-4	-11343
▁Fog	-11344
▁Lis	-11345
▁Seg	-11346
▁cir	-11347
▁fek	-11348
▁fák	-11349
▁veh	-11350
▁ébr	-11351
assák	-11352
beteg	-11353
ilkol	-11354
odtak	-11355
őrség	-11356
▁News	-11357
▁Team	-11358
▁alát	-11359
▁kval	-11360
▁stag	-11361
▁szag	-11362
▁árus	-11363
▁bátor	-11364
▁elkül	-11365
▁kiált	-11366
▁posta	-11367
▁zloty	-11368
▁élére	-11369
lusconi	-11370
▁Ibolya	-11371
▁járműv	-11372
▁kamera	-11373
állomány	-11374
▁Hungary	-11375
▁bármely	-11376
▁fejlődő	-11377
▁hagyták	-11378
▁köthető	-11379
▁repülés	-11380
▁képvisel	-11381
▁meglepet	-11382
▁mutatója	-11383
▁rekonstr	-11384
▁számának	-11385
▁születik	-11386
▁sérülést	-11387
▁tizenhat	-11388
▁érkeznek	-11389
▁ügyekben	-11390
▁Ugyancsak	-11391
▁aktivitás	-11392
▁balesetek	-11393
▁csoportja	-11394
▁hallgatók	-11395
▁hangsúlyt	-11396
▁júniusban	-11397
▁könnyedén	-11398
▁pénztárak	-11399
▁tulajdonú	-11400
▁évtizedek	-11401
▁Berlusconi	-11402
▁használták	-11403
▁igyekeznek	-11404
▁győzelemmel	-11405
▁hangoztatta	-11406
▁korlátozott	-11407
▁teljesíteni	-11408
▁automatikusan	-11409
▁tárgyalásokat	-11410
▁Internazionale	-11411
LSZ	-11412
lok	-11413
por	-11414
rij	-11415
sik	-11416
ves	-11417
érő	-11418
ívó	-11419
▁Vf	-11420
▁pi	-11421
egye	-11422
hajó	-11423
onás	-11424
rigy	-11425
ítők	-11426
▁Hab	-11427
▁tág	-11428
ergej	-11429
éseit	-11430
ódnak	-11431
▁2-0-	-11432
▁Elem	-11433
▁csíp	-11434
▁mini	-11435
▁real	-11436
Kiskun	-11437
enberg	-11438
negyed	-11439
▁Győri	-11440
▁Közel	-11441
▁jeges	-11442
▁leáll	-11443
▁szeme	-11444
ességes	-11445
▁baráti	-11446
▁futómű	-11447
▁időjár	-11448
▁jutnak	-11449
▁kártya	-11450
▁retteg	-11451
▁sértés	-11452
▁ugrott	-11453
▁állása	-11454
▁Belgium	-11455
▁Október	-11456
▁Szergej	-11457
▁előírás	-11458
▁frissen	-11459
▁hónapig	-11460
▁manipul	-11461
▁megtört	-11462
▁párharc	-11463
▁szemtan	-11464
▁Legalább	-11465
▁ellátott	-11466
▁maradjon	-11467
▁nehézség	-11468
▁senkinek	-11469
▁Szombaton	-11470
▁felzárkóz	-11471
▁tízmillió	-11472
▁ellentétes	-11473
▁felfedezés	-11474
▁szélsőjobb	-11475
▁hatékonyabb	-11476
▁konferencia	-11477
▁megbeszélés	-11478
▁Valószínűleg	-11479
▁mm	-11480
gart	-11481
nünk	-11482
olyi	-11483
omor	-11484
áron	-11485
ívum	-11486
ízis	-11487
▁1,9	-11488
▁160	-11489
▁Dep	-11490
▁Jac	-11491
▁Kup	-11492
▁MKB	-11493
▁ani	-11494
▁dni	-11495
▁usz	-11496
▁éig	-11497
ettük	-11498
refer	-11499
▁Pusk	-11500
▁depr	-11501
▁fejt	-11502
▁főút	-11503
▁plat	-11504
▁ítás	-11505
hullám	-11506
reform	-11507
▁PSZÁF	-11508
▁eléri	-11509
▁fogás	-11510
▁gyász	-11511
▁helyt	-11512
▁piszt	-11513
▁Kálmán	-11514
▁Pannon	-11515
▁akarat	-11516
▁bővebb	-11517
▁előnye	-11518
▁esélyt	-11519
▁végleg	-11520
forgalmi	-11521
▁Bundesl	-11522
▁akartam	-11523
▁alapuló	-11524
▁ezeknek	-11525
▁határát	-11526
▁időtart	-11527
▁kiadása	-11528
▁modellt	-11529
▁Dunántúl	-11530
▁irányába	-11531
▁játékost	-11532
▁készítés	-11533
▁államnak	-11534
▁jobboldal	-11535
▁kereskedő	-11536
▁nyugodtan	-11537
▁politikát	-11538
▁árbevétel	-11539
▁Kulturális	-11540
▁feldolgozó	-11541
▁helyenként	-11542
▁jelentenek	-11543
▁pályázatot	-11544
▁sajtórefer	-11545
▁törvényben	-11546
▁csökkentése	-11547
▁kérdésünkre	-11548
▁szakemberei	-11549
▁határozottan	-11550
▁megtalálható	-11551
▁Olaszországban	-11552
▁nyilvántartásba	-11553
my	-11554
ila	-11555
lem	-11556
rát	-11557
▁Kh	-11558
anda	-11559
egas	-11560
usch	-11561
ózan	-11562
▁Bán	-11563
▁Dam	-11564
▁Fre	-11565
▁Max	-11566
▁Nob	-11567
▁pán	-11568
Korea	-11569
abeli	-11570
ennel	-11571
itási	-11572
jesen	-11573
jétől	-11574
▁3000	-11575
▁Azon	-11576
▁Post	-11577
▁romb	-11578
▁teny	-11579
▁Clint	-11580
▁Mexik	-11581
▁Nehéz	-11582
▁ilyet	-11583
▁mehet	-11584
▁viták	-11585
▁újból	-11586
▁Antoni	-11587
▁Bulvár	-11588
▁hagyni	-11589
▁illető	-11590
▁kocsit	-11591
▁konkur	-11592
▁korban	-11593
▁mélyen	-11594
▁ottani	-11595
▁verték	-11596
▁ötszáz	-11597
egerszeg	-11598
vevőszék	-11599
▁autóban	-11600
▁elefánt	-11601
▁ezekben	-11602
▁kétezer	-11603
▁értéket	-11604
▁Barcelon	-11605
▁Devecser	-11606
▁fejtette	-11607
▁manapság	-11608
▁veszprém	-11609
▁váratlan	-11610
▁Londonban	-11611
▁alapanyag	-11612
▁döntéshoz	-11613
▁fejlemény	-11614
▁kollektív	-11615
▁mindennap	-11616
▁részeként	-11617
▁tekintély	-11618
▁korrupciós	-11619
▁tűzoltóság	-11620
▁figyelemmel	-11621
▁németországi	-11622
▁történetének	-11623
▁államtitkára	-11624
▁tapasztalatok	-11625
üd	-11626
akó	-11627
ipp	-11628
lág	-11629
mát	-11630
ukk	-11631
alax	-11632
avas	-11633
ezső	-11634
hold	-11635
iság	-11636
▁Ath	-11637
▁Gás	-11638
▁Inn	-11639
▁Orv	-11640
▁rit	-11641
▁sző	-11642
egyev	-11643
művek	-11644
ozgás	-11645
szfér	-11646
uzuki	-11647
vidék	-11648
▁Euro	-11649
▁Szél	-11650
▁beép	-11651
▁médi	-11652
▁mélt	-11653
▁náci	-11654
▁sikk	-11655
▁útja	-11656
andard	-11657
oppant	-11658
szolid	-11659
ántúli	-11660
▁Abban	-11661
▁estek	-11662
▁ezett	-11663
▁kitör	-11664
▁Vagyon	-11665
▁bulvár	-11666
▁jegyző	-11667
▁pillér	-11668
▁tartás	-11669
▁érdeke	-11670
▁érezte	-11671
elnökség	-11672
▁Jackson	-11673
▁Március	-11674
▁Windows	-11675
▁melyben	-11676
▁sajátos	-11677
▁végezni	-11678
▁washing	-11679
▁értékek	-11680
▁elismert	-11681
▁erkölcsi	-11682
▁mutattak	-11683
▁nevezték	-11684
▁veszélyt	-11685
▁vállalni	-11686
▁védelmet	-11687
▁Összesen	-11688
▁devizapia	-11689
▁előírások	-11690
▁főosztály	-11691
▁konszolid	-11692
▁tényleges	-11693
▁visszafog	-11694
▁alkalmazás	-11695
▁igyekezett	-11696
▁megoldások	-11697
▁visszautas	-11698
▁válaszolta	-11699
▁bejelentése	-11700
▁washingtoni	-11701
▁csökkentette	-11702
▁árvízvédelmi	-11703
▁International	-11704
▁kormányrendelet	-11705
,1	-11706
ui	-11707
are	-11708
tig	-11709
▁Si	-11710
ebbi	-11711
heim	-11712
odni	-11713
▁PSV	-11714
▁Str	-11715
▁Vál	-11716
▁tob	-11717
▁zás	-11718
burgi	-11719
eztük	-11720
kerek	-11721
kerék	-11722
értve	-11723
ődött	-11724
▁Ross	-11725
▁krón	-11726
▁máig	-11727
▁naps	-11728
▁srác	-11729
ikával	-11730
indult	-11731
▁egyén	-11732
▁eltör	-11733
▁fogok	-11734
▁hibák	-11735
▁járni	-11736
▁károk	-11737
▁menti	-11738
▁nemes	-11739
▁okról	-11740
▁szoba	-11741
▁vehet	-11742
▁évről	-11743
egyetem	-11744
▁Gáspár	-11745
▁Merkel	-11746
▁bővült	-11747
▁fogunk	-11748
▁javára	-11749
▁kérnek	-11750
▁rendes	-11751
▁zászló	-11752
▁életem	-11753
▁dopping	-11754
▁ezekkel	-11755
▁igényel	-11756
▁megdöbb	-11757
▁mozgást	-11758
▁támaszt	-11759
▁csomagot	-11760
▁elindult	-11761
▁idényben	-11762
▁különben	-11763
▁mélypont	-11764
▁nagysága	-11765
▁szelvény	-11766
▁töltötte	-11767
▁utasítás	-11768
▁ügyvédje	-11769
▁bíróságon	-11770
▁fejlesztő	-11771
▁megbeszél	-11772
▁rájátszás	-11773
▁tagjainak	-11774
▁amelyekben	-11775
▁kérdéseket	-11776
▁választani	-11777
▁állampapír	-11778
▁üzemeltető	-11779
▁Szerencsére	-11780
▁Szombathely	-11781
▁tanácskozás	-11782
▁decemberében	-11783
▁munkavállaló	-11784
▁rendelkeznek	-11785
▁rendelkezésére	-11786
vo	-11787
jöv	-11788
vad	-11789
▁93	-11790
▁Ty	-11791
anni	-11792
asem	-11793
esés	-11794
uson	-11795
zóna	-11796
▁0,8	-11797
▁Erő	-11798
▁Gul	-11799
▁Kit	-11800
▁zik	-11801
ektől	-11802
hitel	-11803
ontás	-11804
rogén	-11805
▁Stef	-11806
▁kiép	-11807
▁képe	-11808
▁lobb	-11809
▁ránk	-11810
▁tüdő	-11811
Fidesz	-11812
ohasem	-11813
▁Felső	-11814
▁Kövér	-11815
▁atlan	-11816
▁célok	-11817
▁eleje	-11818
▁havaz	-11819
▁lőtte	-11820
▁merev	-11821
▁nőnek	-11822
▁próba	-11823
forniai	-11824
▁Számos	-11825
▁emelni	-11826
▁fektet	-11827
▁felder	-11828
▁fizető	-11829
▁gólját	-11830
▁holnap	-11831
▁kiszám	-11832
▁lopott	-11833
▁látjuk	-11834
▁lépnek	-11835
▁nyarán	-11836
▁nyomoz	-11837
▁projek	-11838
▁szürke	-11839
▁elnökét	-11840
▁koordin	-11841
▁szerver	-11842
▁szerződ	-11843
▁assziszt	-11844
▁döntenek	-11845
▁előrelép	-11846
▁áldozata	-11847
▁javasolja	-11848
▁megpróbál	-11849
▁mégiscsak	-11850
▁mérsékelt	-11851
▁adóhatóság	-11852
▁biztosítja	-11853
▁eredményét	-11854
▁szenvedély	-11855
▁elfogadható	-11856
▁eredményeit	-11857
▁kategóriába	-11858
▁kihallgatás	-11859
▁mechanizmus	-11860
▁veszteséget	-11861
▁készültséget	-11862
hár	-11863
hét	-11864
nik	-11865
▁Ra	-11866
Fotó	-11867
egel	-11868
istó	-11869
sson	-11870
▁Vic	-11871
▁fők	-11872
▁gőz	-11873
▁kim	-11874
▁osz	-11875
▁áfa	-11876
▁1994	-11877
▁Lesz	-11878
▁Opel	-11879
ségben	-11880
▁célzó	-11881
▁gyert	-11882
▁hajsz	-11883
▁növel	-11884
▁Peking	-11885
▁amiből	-11886
▁előzet	-11887
▁fogták	-11888
▁galéri	-11889
▁karban	-11890
▁léphet	-11891
▁nyílik	-11892
▁rajtuk	-11893
tervezet	-11894
▁elvárás	-11895
▁energet	-11896
▁felidéz	-11897
▁halálra	-11898
▁kiszolg	-11899
▁konzult	-11900
▁szerzői	-11901
▁tekinti	-11902
▁véleked	-11903
órendszer	-11904
▁Zsigmond	-11905
▁akárcsak	-11906
▁kijelölt	-11907
▁megnyert	-11908
▁producer	-11909
▁terméket	-11910
▁többségi	-11911
▁ugyanazt	-11912
▁Angliában	-11913
▁Krisztina	-11914
▁emberiség	-11915
▁hiányosság	-11916
▁kockázatot	-11917
▁magyarázat	-11918
▁milliárdot	-11919
▁tisztesség	-11920
▁Brüsszelben	-11921
▁kiegyensúly	-11922
▁vonatkozóan	-11923
▁tevékenységet	-11924
▁összehasonlítás	-11925
,4	-11926
EL	-11927
hő	-11928
ecz	-11929
ome	-11930
onn	-11931
font	-11932
nője	-11933
▁McC	-11934
▁mem	-11935
▁tes	-11936
▁tég	-11937
▁vul	-11938
osztó	-11939
▁Alig	-11940
▁dikt	-11941
▁omat	-11942
asztár	-11943
▁Ahhoz	-11944
▁bízik	-11945
▁farag	-11946
▁tálib	-11947
▁tévés	-11948
asznált	-11949
▁Barany	-11950
▁Demokr	-11951
▁Erdély	-11952
▁cikkek	-11953
▁fennak	-11954
▁hajtás	-11955
▁haladt	-11956
▁határt	-11957
▁helyek	-11958
▁hetett	-11959
▁műhold	-11960
▁tornán	-11961
▁Program	-11962
▁gépkocs	-11963
▁hallani	-11964
▁hozatal	-11965
▁idejére	-11966
▁karossz	-11967
▁kevesen	-11968
▁kihívás	-11969
▁királyi	-11970
▁megfont	-11971
▁rendőrt	-11972
▁Népszava	-11973
▁elemzése	-11974
▁indulhat	-11975
▁kerüljön	-11976
▁lezárták	-11977
▁megbízás	-11978
▁működnek	-11979
▁rekordot	-11980
▁törvényi	-11981
▁csoportot	-11982
▁javasolta	-11983
▁korántsem	-11984
▁szélesebb	-11985
▁takarékos	-11986
▁öngyilkos	-11987
▁Katasztróf	-11988
▁drasztikus	-11989
▁kiszivárog	-11990
▁viselkedés	-11991
▁érdeklődők	-11992
▁rendőrséget	-11993
▁felelősséget	-11994
▁nyolcaddöntő	-11995
▁előrejelzések	-11996
▁kezdeményezte	-11997
▁tapasztalható	-11998
▁alpolgármester	-11999
▁sajtószabadság	-12000
eó	-12001
▁#	-12002
epl	-12003
kov	-12004
nya	-12005
ítt	-12006
▁Gl	-12007
ehab	-12008
iano	-12009
ideg	-12010
ikon	-12011
▁0,9	-12012
▁Cat	-12013
▁Den	-12014
▁Ful	-12015
▁Túl	-12016
ostel	-12017
▁1990	-12018
▁NASA	-12019
▁Ryan	-12020
▁anim	-12021
▁elve	-12022
tetett	-12023
állyal	-12024
▁Bloom	-12025
▁Green	-12026
▁csepp	-12027
▁fűzte	-12028
▁gyári	-12029
▁hírül	-12030
▁közre	-12031
▁lányt	-12032
▁szett	-12033
▁érzik	-12034
▁íteni	-12035
üntette	-12036
▁Button	-12037
▁alátám	-12038
▁haltak	-12039
▁jogász	-12040
▁kérdez	-12041
▁lövöld	-12042
▁rászor	-12043
▁tervet	-12044
▁válnak	-12045
▁Cameron	-12046
▁erkölcs	-12047
▁ezerrel	-12048
▁gyártók	-12049
▁javítás	-12050
▁kereste	-12051
▁követel	-12052
▁eurózóna	-12053
▁fogyaték	-12054
▁labdarúg	-12055
▁segíthet	-12056
▁sérültek	-12057
▁ártatlan	-12058
▁kormányok	-12059
▁lapunknak	-12060
▁rendeznek	-12061
▁semmiféle	-12062
▁egyszerűbb	-12063
▁kuratórium	-12064
▁elégedetlen	-12065
▁vállalkozók	-12066
▁foglalkozott	-12067
▁szerkesztőség	-12068
éc	-12069
:30	-12070
aur	-12071
ies	-12072
ite	-12073
ekas	-12074
kárt	-12075
vére	-12076
▁Faz	-12077
▁Gro	-12078
▁Jim	-12079
▁Kil	-12080
▁Pic	-12081
▁bir	-12082
▁bén	-12083
▁dir	-12084
▁gur	-12085
▁szt	-12086
adrág	-12087
▁Ernő	-12088
▁FIFA	-12089
▁Lyon	-12090
▁Samp	-12091
▁lecs	-12092
▁pezs	-12093
▁toll	-12094
újában	-12095
▁anyja	-12096
▁bomba	-12097
▁bútor	-12098
▁dupla	-12099
▁húzta	-12100
▁portf	-12101
▁ruház	-12102
▁zseni	-12103
aradics	-12104
szabású	-12105
újváros	-12106
▁Norvég	-12107
▁borult	-12108
▁euróra	-12109
▁fantáz	-12110
▁gyöker	-12111
▁hátral	-12112
▁iPhone	-12113
▁leendő	-12114
▁mértek	-12115
▁alapkam	-12116
▁csekély	-12117
▁elnököt	-12118
▁tudatta	-12119
▁Ilyenkor	-12120
▁Mourinho	-12121
▁cikkében	-12122
▁javítani	-12123
▁méghozzá	-12124
válogatott	-12125
▁Gólszerző	-12126
▁egymásnak	-12127
▁haláleset	-12128
▁megszavaz	-12129
▁mindenütt	-12130
▁veszprémi	-12131
▁vizsgálta	-12132
▁válogatás	-12133
▁hétköznapi	-12134
▁ideiglenes	-12135
▁tehetséges	-12136
▁csatlakozás	-12137
▁feljelentés	-12138
▁támogatások	-12139
▁interjújában	-12140
▁továbbiakban	-12141
▁foglalkoztató	-12142
▁személygépkocsi	-12143
NT	-12144
aid	-12145
gin	-12146
▁MI	-12147
▁cl	-12148
▁fu	-12149
gyár	-12150
ofit	-12151
oney	-12152
zést	-12153
árda	-12154
▁Boy	-12155
▁Sci	-12156
▁com	-12157
ersey	-12158
ókusz	-12159
▁Kész	-12160
▁Test	-12161
▁baba	-12162
▁buli	-12163
▁cége	-12164
▁címe	-12165
▁hadi	-12166
▁korú	-12167
▁köré	-12168
▁nénk	-12169
▁okát	-12170
▁ráta	-12171
hajtás	-12172
válság	-12173
ünkben	-12174
▁Patri	-12175
▁afgan	-12176
▁kivet	-12177
▁kötni	-12178
▁leját	-12179
helyzet	-12180
▁Forrás	-12181
▁Hosszú	-12182
▁Kultúr	-12183
▁Mindig	-12184
▁einket	-12185
▁feltűn	-12186
▁fogjuk	-12187
▁hangos	-12188
▁hatást	-12189
▁hányad	-12190
▁merész	-12191
▁torony	-12192
▁távoli	-12193
▁Gyermek	-12194
▁Igazság	-12195
▁becsült	-12196
▁bírálta	-12197
▁elszenv	-12198
▁javulás	-12199
▁készlet	-12200
▁olaszok	-12201
▁szerzők	-12202
ismertebb	-12203
▁Kaposvár	-12204
▁győzelme	-12205
▁leggyors	-12206
▁listáját	-12207
▁országba	-12208
▁tüntetés	-12209
▁fertőzött	-12210
▁januártól	-12211
▁jelentést	-12212
▁nagyváros	-12213
▁segítette	-12214
▁virtuális	-12215
▁visszamen	-12216
▁mostanában	-12217
▁százmillió	-12218
▁összefüggő	-12219
▁háromnegyed	-12220
▁összhangban	-12221
▁kormánybiztos	-12222
▁sajtószóvivője	-12223
,9	-12224
ida	-12225
ike	-12226
tai	-12227
▁04	-12228
etes	-12229
nénk	-12230
ágai	-12231
▁Dig	-12232
▁Fit	-12233
▁Kab	-12234
▁jen	-12235
erőmű	-12236
ográf	-12237
▁2-1-	-12238
▁King	-12239
▁Rang	-12240
▁hekt	-12241
nyomás	-12242
▁Ferih	-12243
▁Rövid	-12244
▁dobog	-12245
▁kezét	-12246
▁éssel	-12247
▁Kedves	-12248
▁buszok	-12249
▁elemek	-12250
▁előáll	-12251
▁normál	-12252
▁pletyk	-12253
▁szakad	-12254
▁titkár	-12255
▁áradás	-12256
▁ásához	-12257
▁ügylet	-12258
▁akarunk	-12259
▁elkülön	-12260
▁kelljen	-12261
▁növelte	-12262
▁oldalas	-12263
▁pártnak	-12264
▁tartály	-12265
▁távozás	-12266
▁összesz	-12267
▁Guardian	-12268
▁foglalja	-12269
▁vitatott	-12270
▁börtönben	-12271
▁csapattal	-12272
▁játszanak	-12273
▁megelőzés	-12274
▁rögzített	-12275
▁szórakozó	-12276
▁bizonyítja	-12277
▁kiegészítő	-12278
▁megelőzően	-12279
▁megjelenés	-12280
▁pályaudvar	-12281
▁jelentősége	-12282
▁játékvezető	-12283
▁listavezető	-12284
▁megfigyelés	-12285
▁afganisztáni	-12286
▁gyanúsítottak	-12287
▁következménye	-12288
▁Oroszországban	-12289
▁nemzetgazdasági	-12290
uld	-12291
▁94	-12292
▁öm	-12293
azar	-12294
futó	-12295
igan	-12296
ilit	-12297
ossá	-12298
rény	-12299
ősök	-12300
▁3,9	-12301
▁Koz	-12302
▁Món	-12303
▁Nos	-12304
▁aik	-12305
▁fak	-12306
▁omb	-12307
▁tar	-12308
▁zöm	-12309
abány	-12310
erről	-12311
▁Mész	-12312
▁Paks	-12313
▁Play	-12314
▁alag	-12315
▁csip	-12316
▁iPad	-12317
▁inak	-12318
▁trón	-12319
ítheti	-12320
▁Dénes	-12321
▁Grand	-12322
▁Heves	-12323
▁budai	-12324
▁kérik	-12325
▁soron	-12326
▁ugrás	-12327
▁ülése	-12328
asztron	-12329
védelem	-12330
▁Jelent	-12331
▁Suzuki	-12332
▁célkit	-12333
▁elment	-12334
▁hasson	-12335
▁kedvel	-12336
▁kielég	-12337
▁kritiz	-12338
▁lépcső	-12339
▁szállt	-12340
▁vettem	-12341
▁Nemcsak	-12342
▁Ronaldo	-12343
▁emelték	-12344
▁euróért	-12345
▁forgalm	-12346
▁külügyi	-12347
▁levelek	-12348
▁nyíltan	-12349
▁szólnak	-12350
▁világra	-12351
▁Csakhogy	-12352
▁Hungária	-12353
▁hetetlen	-12354
▁jövedelm	-12355
▁kvalifik	-12356
▁tervezik	-12357
▁Megasztár	-12358
▁csatornák	-12359
▁egyenként	-12360
▁fordítani	-12361
▁elhangzott	-12362
▁elképzelés	-12363
▁középiskol	-12364
▁megszerzés	-12365
▁miniszteri	-12366
▁pillanatok	-12367
▁rendőröket	-12368
▁Debrecenben	-12369
▁hozzájárulás	-12370
▁meghirdetett	-12371
▁munkaviszony	-12372
▁nyilatkozatot	-12373
▁bizonytalanság	-12374
▁következmények	-12375
▁szabadságveszt	-12376
NI	-12377
VH	-12378
bes	-12379
lit	-12380
▁Do	-12381
orde	-12382
▁0-1	-12383
▁Dab	-12384
▁Sol	-12385
▁fát	-12386
▁hím	-12387
enham	-12388
lások	-12389
▁Amit	-12390
▁Fiat	-12391
▁bent	-12392
▁cenz	-12393
▁olni	-12394
mozgás	-12395
▁10-15	-12396
▁Erika	-12397
▁ahová	-12398
▁köröz	-12399
▁közok	-12400
▁liszt	-12401
▁látás	-12402
▁neked	-12403
ellátás	-12404
mánnyal	-12405
▁Bizony	-12406
▁Hírlap	-12407
▁Jersey	-12408
▁amihez	-12409
▁doktor	-12410
▁eladós	-12411
▁folyos	-12412
▁hatták	-12413
▁jegyek	-12414
▁jegyet	-12415
▁kiesés	-12416
▁kompen	-12417
▁lakott	-12418
▁mindaz	-12419
▁sürgős	-12420
▁várost	-12421
▁Egyszer	-12422
▁Szerbia	-12423
▁eszközt	-12424
▁korrekt	-12425
▁károkat	-12426
▁leszünk	-12427
▁másikat	-12428
▁narancs	-12429
▁növelni	-12430
▁túlsúly	-12431
▁Elmondta	-12432
▁Valencia	-12433
▁emelkedő	-12434
▁energiát	-12435
▁jelentik	-12436
▁koalíció	-12437
▁korabeli	-12438
▁rajongók	-12439
▁Sebastian	-12440
▁költözött	-12441
▁külföldre	-12442
▁nyeremény	-12443
▁szeretett	-12444
▁teherautó	-12445
▁visszahív	-12446
▁fogyasztási	-12447
▁gyerekeknek	-12448
▁háromszoros	-12449
▁nyilatkozni	-12450
▁pontosabban	-12451
▁vezetőjének	-12452
▁augusztusban	-12453
▁felelősségre	-12454
▁pszichológus	-12455
▁megválasztott	-12456
▁államháztartás	-12457
▁foglalkoztatási	-12458
EM	-12459
din	-12460
dve	-12461
els	-12462
izm	-12463
mez	-12464
íli	-12465
▁If	-12466
▁NF	-12467
▁Sw	-12468
endi	-12469
enix	-12470
esty	-12471
hárm	-12472
iger	-12473
ábla	-12474
üveg	-12475
▁170	-12476
▁2,3	-12477
▁2-0	-12478
▁DVD	-12479
▁Nev	-12480
▁Tím	-12481
▁akk	-12482
einte	-12483
entes	-12484
zálog	-12485
▁2012	-12486
▁Heat	-12487
▁Irak	-12488
▁Kett	-12489
▁Mozg	-12490
▁Star	-12491
▁juni	-12492
▁kecs	-12493
úszott	-12494
▁Nobel	-12495
▁erejű	-12496
▁felgy	-12497
▁izmus	-12498
▁kiírt	-12499
▁pohár	-12500
▁trükk	-12501
▁téves	-12502
▁írtak	-12503
▁Kocsis	-12504
▁folyós	-12505
▁konyha	-12506
▁oldalt	-12507
▁szülei	-12508
▁örökös	-12509
ilágítás	-12510
izsgálás	-12511
▁hónapra	-12512
▁mennyit	-12513
▁vagyoni	-12514
▁viharos	-12515
▁életmód	-12516
▁Hoffmann	-12517
▁eséllyel	-12518
▁használó	-12519
▁lényeges	-12520
▁maguknak	-12521
▁tragédia	-12522
▁tárgyaló	-12523
▁Biztonság	-12524
▁Szabadság	-12525
▁Tottenham	-12526
▁határozza	-12527
▁hazánkban	-12528
▁stratégia	-12529
▁alkalmazni	-12530
▁autópályán	-12531
▁döntéseket	-12532
▁ingatlanok	-12533
▁integráció	-12534
▁szerelvény	-12535
▁bizonyított	-12536
▁jegyzőkönyv	-12537
▁minősítette	-12538
▁regisztrált	-12539
▁álláspontja	-12540
▁Egészségügyi	-12541
▁laboratórium	-12542
▁Szakszervezet	-12543
▁belvízvédelmi	-12544
▁választópolgár	-12545
/1	-12546
edy	-12547
nom	-12548
urd	-12549
uti	-12550
áva	-12551
▁Eg	-12552
▁Él	-12553
erer	-12554
kozy	-12555
árok	-12556
érem	-12557
▁Pav	-12558
▁Tár	-12559
▁Vat	-12560
▁buz	-12561
▁inf	-12562
▁kát	-12563
▁tüz	-12564
csont	-12565
zatos	-12566
▁Bert	-12567
▁link	-12568
▁nyíl	-12569
ancial	-12570
mezőny	-12571
profit	-12572
▁Stars	-12573
▁agyon	-12574
▁eladó	-12575
▁képen	-12576
▁nőket	-12577
▁ombud	-12578
▁prakt	-12579
▁sehol	-12580
▁szebb	-12581
▁zárja	-12582
csarnok	-12583
jövőben	-12584
ulajdon	-12585
▁Nógrád	-12586
▁gonosz	-12587
▁gyanúj	-12588
▁kutyák	-12589
▁lennie	-12590
▁ésének	-12591
▁cáfolta	-12592
▁eleinte	-12593
▁köteles	-12594
▁átmenet	-12595
▁életkor	-12596
▁Mindezek	-12597
▁cseleked	-12598
▁egyszeri	-12599
▁elöntött	-12600
▁intellig	-12601
▁klasszis	-12602
▁lakásban	-12603
▁nacional	-12604
▁személyt	-12605
▁szögezte	-12606
▁védelmét	-12607
▁forrásból	-12608
▁kedvezőbb	-12609
▁kényelmes	-12610
▁kétmillió	-12611
▁mindhárom	-12612
▁szabadláb	-12613
▁szimpatiz	-12614
▁veszélybe	-12615
▁Tudományos	-12616
▁birtokában	-12617
▁jelentések	-12618
▁kapcsolata	-12619
▁rámutatott	-12620
▁szavazatok	-12621
▁versenyzők	-12622
▁összesítés	-12623
▁Törökország	-12624
▁helyszínről	-12625
▁megjelenése	-12626
▁menedzsment	-12627
▁környezetben	-12628
▁közeljövőben	-12629
▁Magyarországnak	-12630
▁elfogadhatatlan	-12631
kg	-12632
úf	-12633
▁©	-12634
ade	-12635
czy	-12636
res	-12637
ádé	-12638
▁AB	-12639
▁SC	-12640
edit	-12641
elep	-12642
lang	-12643
lent	-12644
orit	-12645
ramm	-12646
raph	-12647
terv	-12648
ubai	-12649
ímél	-12650
▁Emi	-12651
▁Kéz	-12652
▁Sir	-12653
▁táp	-12654
aktív	-12655
gólos	-12656
▁Atom	-12657
▁Whit	-12658
▁abbá	-12659
▁arab	-12660
▁felp	-12661
▁hajr	-12662
▁mocs	-12663
▁tünk	-12664
▁Újra	-12665
gentín	-12666
▁Angol	-12667
▁Pesti	-12668
▁alvás	-12669
▁lövés	-12670
▁megír	-12671
▁mozik	-12672
▁ízlés	-12673
▁ördög	-12674
▁Emiatt	-12675
▁Fulham	-12676
▁emészt	-12677
▁gerinc	-12678
▁leszám	-12679
▁nyomon	-12680
▁okozza	-12681
▁perben	-12682
▁rendbe	-12683
▁támadt	-12684
▁vittek	-12685
▁Fazekas	-12686
▁Sarkozy	-12687
▁felmond	-12688
▁félelem	-12689
▁pillant	-12690
▁roppant	-12691
▁szerelt	-12692
▁szerviz	-12693
▁tragédi	-12694
▁végezte	-12695
▁értékét	-12696
▁Továbbra	-12697
▁rugalmas	-12698
▁szálloda	-12699
▁tartalma	-12700
▁vezethet	-12701
▁vígjáték	-12702
▁beszélnek	-12703
▁egyezmény	-12704
▁ellenkező	-12705
▁ismerteti	-12706
▁megtekint	-12707
▁napközben	-12708
▁pedagógus	-12709
▁eljárásban	-12710
▁emelkedtek	-12711
▁emlegetett	-12712
▁veszélyben	-12713
▁forgalomban	-12714
▁jelentősebb	-12715
▁mutatkozott	-12716
▁potenciális	-12717
▁gyakorlatban	-12718
▁alkalmazottak	-12719
BO	-12720
uf	-12721
acz	-12722
aji	-12723
azz	-12724
ohl	-12725
tív	-12726
uez	-12727
áli	-12728
áne	-12729
▁Bd	-12730
▁CN	-12731
▁Kő	-12732
ilei	-12733
vert	-12734
ásos	-12735
úzió	-12736
▁(27	-12737
▁750	-12738
▁Bag	-12739
▁Dis	-12740
▁Kos	-12741
▁Raj	-12742
▁Vaj	-12743
▁Wat	-12744
▁sch	-12745
▁szm	-12746
ozhat	-12747
senek	-12748
▁Brad	-12749
▁Herc	-12750
▁Kics	-12751
▁Szek	-12752
▁időz	-12753
▁proc	-12754
▁prov	-12755
▁sakk	-12756
▁sima	-12757
hettek	-12758
orcium	-12759
▁Fradi	-12760
▁Iskol	-12761
▁Kiadó	-12762
▁bossz	-12763
▁közöl	-12764
▁lapot	-12765
▁roncs	-12766
▁tetej	-12767
asszony	-12768
▁Toront	-12769
▁Városi	-12770
▁bennem	-12771
▁cégnél	-12772
▁eladni	-12773
▁eléggé	-12774
▁hatalm	-12775
▁iszlám	-12776
▁kapasz	-12777
▁kapuba	-12778
▁korrig	-12779
▁műsort	-12780
▁nadrág	-12781
▁nőttek	-12782
▁teheti	-12783
▁utalva	-12784
▁villám	-12785
▁ezentúl	-12786
▁helyben	-12787
▁helyről	-12788
▁illuszt	-12789
▁játssza	-12790
▁katalán	-12791
▁legsúly	-12792
▁pusztán	-12793
▁sohasem	-12794
▁tizedik	-12795
▁utazási	-12796
kilométer	-12797
▁csapatát	-12798
▁fegyelmi	-12799
▁fordítás	-12800
▁igazából	-12801
▁indultak	-12802
▁játszhat	-12803
▁keményen	-12804
▁kérésére	-12805
▁látszott	-12806
▁millióra	-12807
▁műsorban	-12808
▁romániai	-12809
▁vállalja	-12810
▁Financial	-12811
▁Párizsban	-12812
▁beleértve	-12813
▁diagnoszt	-12814
▁ellenében	-12815
▁hétköznap	-12816
▁legtöbbet	-12817
▁magyarság	-12818
▁épületben	-12819
▁pakisztáni	-12820
▁szakértője	-12821
▁tartózkodó	-12822
▁alapszakasz	-12823
▁egymilliárd	-12824
▁irányította	-12825
▁sebességgel	-12826
▁Philadelphia	-12827
▁legsúlyosabb	-12828
▁támogatására	-12829
▁visszafogott	-12830
,2	-12831
ren	-12832
sek	-12833
ttp	-12834
orth	-12835
▁Cit	-12836
▁ETO	-12837
▁Hom	-12838
▁kft	-12839
andra	-12840
kolat	-12841
oráma	-12842
ériai	-12843
őztes	-12844
▁Rock	-12845
▁Súly	-12846
▁bosz	-12847
▁cipő	-12848
▁kali	-12849
▁ránt	-12850
hattak	-12851
kodtak	-12852
seille	-12853
ásztor	-12854
▁bűnöz	-12855
▁fennm	-12856
▁gépet	-12857
▁hétig	-12858
▁megcs	-12859
erületi	-12860
fegyver	-12861
használ	-12862
osodott	-12863
▁akadém	-12864
▁alapok	-12865
▁elvitt	-12866
▁előnyt	-12867
▁forgat	-12868
▁kapunk	-12869
▁leszek	-12870
▁likvid	-12871
▁megtan	-12872
▁reptér	-12873
▁tönkre	-12874
▁ásáról	-12875
▁daganat	-12876
▁függően	-12877
▁keveset	-12878
▁magához	-12879
▁nyugodt	-12880
▁rejtett	-12881
▁unalmas	-12882
▁valakit	-12883
▁bankközi	-12884
▁részének	-12885
▁találnak	-12886
▁államban	-12887
▁Különösen	-12888
▁egymáshoz	-12889
▁megmaradt	-12890
▁minősítés	-12891
▁publikált	-12892
▁rendezték	-12893
▁szavaztak	-12894
▁állampolg	-12895
▁Portugália	-12896
▁felvételek	-12897
▁mutatkozik	-12898
▁napvilágot	-12899
▁visszatérő	-12900
▁bajnokságot	-12901
▁eredménnyel	-12902
▁kapcsolatba	-12903
▁állapította	-12904
▁biztosította	-12905
▁megvalósítás	-12906
▁választásokat	-12907
25	-12908
ffi	-12909
pat	-12910
▁To	-12911
▁VI	-12912
▁no	-12913
edni	-12914
enie	-12915
ágyi	-12916
ápor	-12917
▁60-	-12918
▁Jár	-12919
▁Pho	-12920
▁Roy	-12921
▁bak	-12922
▁fir	-12923
▁kok	-12924
▁káp	-12925
▁lim	-12926
▁méz	-12927
▁pok	-12928
▁rej	-12929
▁ító	-12930
adett	-12931
olása	-12932
▁1998	-12933
▁Csep	-12934
▁DVSC	-12935
▁Erik	-12936
▁Vért	-12937
▁ügyi	-12938
tatása	-12939
▁Atlét	-12940
▁Haiti	-12941
▁fokos	-12942
▁fázis	-12943
▁gyűlt	-12944
▁haiti	-12945
▁innov	-12946
▁lakói	-12947
▁megal	-12948
▁széri	-12949
▁tábla	-12950
▁várta	-12951
▁Pintér	-12952
▁alpesi	-12953
▁holoka	-12954
▁klubok	-12955
▁listák	-12956
▁láttak	-12957
▁pihenő	-12958
▁tréner	-12959
▁vezény	-12960
▁órában	-12961
▁Csillag	-12962
▁fogadás	-12963
▁komprom	-12964
▁lakások	-12965
▁szilárd	-12966
▁automata	-12967
▁dolgozói	-12968
▁elemzője	-12969
▁fogadták	-12970
▁jelezték	-12971
▁kérdezte	-12972
▁platform	-12973
▁rendesen	-12974
▁Gazdasági	-12975
▁elnökségi	-12976
▁használta	-12977
▁kancellár	-12978
▁legjelent	-12979
▁párbeszéd	-12980
▁vallomást	-12981
▁Általános	-12982
▁építkezés	-12983
▁amelyekkel	-12984
▁bocsánatot	-12985
▁szerződése	-12986
▁valószínűs	-12987
▁váratlanul	-12988
▁megfogalmaz	-12989
▁szilveszter	-12990
▁értesülései	-12991
▁körülményeit	-12992
▁legismertebb	-12993
▁nyilvánvalóan	-12994
▁támogatásával	-12995
▁elnökválasztás	-12996
▁következményei	-12997
▁legjelentősebb	-12998
▁letartóztatását	-12999
▁százalékponttal	-13000
apa	-13001
jas	-13002
uer	-13003
uma	-13004
önd	-13005
örő	-13006
▁92	-13007
▁Bc	-13008
▁Du	-13009
eire	-13010
ondi	-13011
ridi	-13012
sman	-13013
ónia	-13014
ödöl	-13015
▁Can	-13016
▁Dow	-13017
▁Lew	-13018
▁Top	-13019
▁Tri	-13020
▁elr	-13021
▁gen	-13022
▁tin	-13023
esleg	-13024
furti	-13025
égett	-13026
▁1-0-	-13027
▁Amíg	-13028
▁Dmit	-13029
▁MLSZ	-13030
▁akat	-13031
▁izom	-13032
▁kart	-13033
▁köre	-13034
▁kört	-13035
▁téve	-13036
▁zakl	-13037
▁ásra	-13038
isszum	-13039
▁(1-0)	-13040
▁1997-	-13041
▁Andor	-13042
▁Crist	-13043
▁Harry	-13044
▁Saját	-13045
▁lóerő	-13046
▁missz	-13047
▁popul	-13048
▁rehab	-13049
▁róluk	-13050
▁utaló	-13051
például	-13052
vezetők	-13053
▁Történ	-13054
▁azokra	-13055
▁bélyeg	-13056
▁büszke	-13057
▁hoznak	-13058
▁oldala	-13059
▁olimpi	-13060
▁szorul	-13061
▁vizsga	-13062
▁ajánlás	-13063
▁főorvos	-13064
▁indítás	-13065
▁nevelés	-13066
▁okokból	-13067
▁fegyvert	-13068
▁járművet	-13069
▁keletkez	-13070
▁kiegyenl	-13071
▁rendezni	-13072
▁vezetőit	-13073
▁vádolják	-13074
▁életüket	-13075
▁győzelmét	-13076
▁kisebbség	-13077
▁kopogtató	-13078
▁megszűnik	-13079
▁megítélés	-13080
▁negyedévi	-13081
▁vádlottak	-13082
▁elképesztő	-13083
▁gyanújával	-13084
▁közvetítés	-13085
▁termékeket	-13086
▁gyógyszerek	-13087
▁konstrukció	-13088
▁megtalálták	-13089
▁szeptemberi	-13090
▁történteket	-13091
▁Mindenesetre	-13092
▁feltételeket	-13093
▁tisztességes	-13094
▁Magyarországi	-13095
czi	-13096
eff	-13097
ibb	-13098
kir	-13099
kup	-13100
▁81	-13101
aidő	-13102
cker	-13103
eman	-13104
embe	-13105
falt	-13106
mund	-13107
olsó	-13108
▁Fér	-13109
▁sík	-13110
▁Ért	-13111
alált	-13112
ukban	-13113
▁Elég	-13114
▁ebéd	-13115
▁szőr	-13116
▁Könny	-13117
▁barna	-13118
▁bánya	-13119
▁címét	-13120
▁fotós	-13121
▁futás	-13122
▁heves	-13123
▁ápoló	-13124
▁Jövőre	-13125
▁Legfel	-13126
▁Puskás	-13127
▁Szinte	-13128
▁adatot	-13129
▁ezeken	-13130
▁fontot	-13131
▁fáradt	-13132
▁hatású	-13133
▁honfit	-13134
▁korona	-13135
▁palack	-13136
▁spekul	-13137
▁zárták	-13138
▁ételek	-13139
▁Antonio	-13140
▁Fideszt	-13141
▁Phoenix	-13142
▁elolvas	-13143
▁erősíti	-13144
▁munkába	-13145
▁pénzből	-13146
▁szakadt	-13147
aradicsom	-13148
▁Egyiptom	-13149
▁befejező	-13150
▁bekerült	-13151
▁beszélve	-13152
▁hazugság	-13153
▁sajtóban	-13154
▁tartósan	-13155
▁áttekint	-13156
▁időjárási	-13157
▁spanyolok	-13158
▁veszteget	-13159
▁állandóan	-13160
▁csökkenése	-13161
▁korábbinál	-13162
▁leszögezte	-13163
▁minimálbér	-13164
▁moratórium	-13165
▁programját	-13166
▁pályázatok	-13167
▁szigorítás	-13168
▁bevonásával	-13169
▁számítógépes	-13170
▁élelmiszerek	-13171
▁tapasztalatai	-13172
▁frakcióvezetője	-13173
úv	-13174
üs	-13175
aux	-13176
ign	-13177
ojt	-13178
oma	-13179
írű	-13180
▁91	-13181
▁LE	-13182
▁ij	-13183
ador	-13184
avig	-13185
mith	-13186
téri	-13187
vend	-13188
árak	-13189
árdi	-13190
▁12:	-13191
▁2,9	-13192
▁Chi	-13193
▁Kra	-13194
▁fik	-13195
▁hip	-13196
▁méh	-13197
ollár	-13198
rangl	-13199
ukott	-13200
▁Ferg	-13201
▁döbb	-13202
▁folt	-13203
▁főbb	-13204
▁hajd	-13205
▁rong	-13206
▁vízi	-13207
▁érti	-13208
kanizs	-13209
▁Ismét	-13210
▁Média	-13211
▁Rossz	-13212
▁debüt	-13213
▁ezret	-13214
▁falak	-13215
▁józan	-13216
▁minap	-13217
▁módja	-13218
▁írtam	-13219
▁ükkel	-13220
exuális	-13221
ferenci	-13222
uttgart	-13223
▁Facebo	-13224
▁aukció	-13225
▁hallat	-13226
▁munkak	-13227
▁munkáj	-13228
▁nézzük	-13229
▁tettem	-13230
▁utazik	-13231
▁árokba	-13232
▁Clinton	-13233
▁beismer	-13234
▁csepeli	-13235
▁drágább	-13236
▁határoz	-13237
▁olvasók	-13238
▁tanulni	-13239
▁üzletág	-13240
▁Szegeden	-13241
▁alakítás	-13242
▁elhelyez	-13243
▁indulnak	-13244
▁jogalkot	-13245
fontosságú	-13246
▁ellensúly	-13247
▁ellenőrző	-13248
▁elnöksége	-13249
▁elterjedt	-13250
▁felnőttek	-13251
▁kinevezés	-13252
▁projektek	-13253
▁világhírű	-13254
▁ügynökség	-13255
▁keveredett	-13256
▁nehézségek	-13257
▁rendszerét	-13258
▁bekövetkezett	-13259
▁kutatócsoport	-13260
05	-13261
KI	-13262
izz	-13263
áth	-13264
▁Lj	-13265
enék	-13266
itor	-13267
zeni	-13268
▁2,2	-13269
▁32.	-13270
▁Abu	-13271
▁Sió	-13272
▁Tes	-13273
▁Tit	-13274
alatt	-13275
ilabd	-13276
landi	-13277
roncs	-13278
ények	-13279
▁Comp	-13280
▁Hall	-13281
▁Húsz	-13282
▁Olym	-13283
▁Szív	-13284
▁Tech	-13285
▁Vall	-13286
▁band	-13287
▁fokú	-13288
▁kiab	-13289
▁közm	-13290
▁árad	-13291
alista	-13292
főnöke	-13293
▁1999-	-13294
▁felir	-13295
▁harag	-13296
▁keszt	-13297
▁kimer	-13298
▁korán	-13299
▁megöl	-13300
▁művek	-13301
▁volum	-13302
▁ított	-13303
▁Afrika	-13304
▁Gondol	-13305
▁Motors	-13306
▁blogon	-13307
▁bosszú	-13308
▁csapás	-13309
▁dobott	-13310
▁kezdés	-13311
▁legkor	-13312
▁nyújtó	-13313
▁pótlék	-13314
▁rendet	-13315
▁terhes	-13316
▁egyesek	-13317
▁madridi	-13318
▁pilóták	-13319
▁egymásra	-13320
▁ellenség	-13321
▁királynő	-13322
▁kívánják	-13323
▁mostanra	-13324
▁munkaadó	-13325
▁névtelen	-13326
▁tüntetők	-13327
▁veszélye	-13328
▁voksolás	-13329
▁árhullám	-13330
▁életének	-13331
▁Bloomberg	-13332
▁Marseille	-13333
▁Medvegyev	-13334
▁felvételi	-13335
▁gyengülés	-13336
▁karrierje	-13337
▁követelés	-13338
▁legjobbja	-13339
▁millióval	-13340
▁szerelmes	-13341
▁tudományi	-13342
▁virradóra	-13343
▁alkalmával	-13344
▁cselekmény	-13345
▁csökkenést	-13346
▁felkészült	-13347
▁világrangl	-13348
▁eszközökkel	-13349
▁meglepetést	-13350
▁tanácsadója	-13351
▁törvényeket	-13352
▁dokumentumot	-13353
▁elkötelezett	-13354
▁emelkedéssel	-13355
▁felsőoktatás	-13356
▁számíthatnak	-13357
▁elszámoltatás	-13358
▁hagyományosan	-13359
▁változatlanul	-13360
3)	-13361
KK	-13362
Doc	-13363
aut	-13364
cég	-13365
erb	-13366
mik	-13367
▁Ve	-13368
Tube	-13369
▁Bra	-13370
▁Hay	-13371
▁Kiv	-13372
▁Len	-13373
▁ZTE	-13374
▁fas	-13375
erman	-13376
iffer	-13377
ormon	-13378
áliai	-13379
▁1999	-13380
▁Akik	-13381
▁Andy	-13382
▁Csík	-13383
▁Feli	-13384
▁arch	-13385
▁betű	-13386
▁eről	-13387
▁okot	-13388
▁tari	-13389
Docler	-13390
jegyző	-13391
szenny	-13392
ödöllő	-13393
▁Europ	-13394
▁atlét	-13395
▁emeli	-13396
▁fárad	-13397
▁félig	-13398
▁incid	-13399
▁kilós	-13400
▁tized	-13401
▁véres	-13402
kereszt	-13403
vénnyel	-13404
▁amiről	-13405
▁felelő	-13406
▁hangja	-13407
▁ideges	-13408
▁kezébe	-13409
▁törölt	-13410
▁észrev	-13411
▁Kultúra	-13412
▁Sampdor	-13413
▁Szovjet	-13414
▁YouTube	-13415
▁belőlük	-13416
▁fekszik	-13417
▁felvett	-13418
▁kórházi	-13419
▁szemlél	-13420
▁tipikus	-13421
▁turista	-13422
▁vetette	-13423
▁érzékel	-13424
Európában	-13425
ecskeméti	-13426
▁Norvégia	-13427
▁beszédet	-13428
▁jelzálog	-13429
▁környező	-13430
▁köztiszt	-13431
▁oldalról	-13432
▁tartalmú	-13433
▁vesztett	-13434
▁országból	-13435
▁prognózis	-13436
▁érettségi	-13437
▁költségeit	-13438
▁környezeti	-13439
▁közterület	-13440
▁menedzsere	-13441
▁álláskeres	-13442
▁összegeket	-13443
▁adatvédelmi	-13444
▁energetikai	-13445
▁erőfeszítés	-13446
▁fogyasztása	-13447
▁hatékonyság	-13448
▁kilencvenes	-13449
▁októberében	-13450
▁szolgálatot	-13451
▁megkezdődött	-13452
▁együttműködést	-13453
//	-13454
dí	-13455
kv	-13456
óv	-13457
://	-13458
boy	-13459
hov	-13460
lep	-13461
rey	-13462
sza	-13463
üty	-13464
▁NO	-13465
Amer	-13466
ardi	-13467
ende	-13468
enzi	-13469
forr	-13470
lett	-13471
udat	-13472
▁184	-13473
▁Art	-13474
▁Bir	-13475
▁Far	-13476
▁Tap	-13477
▁Vám	-13478
asági	-13479
pálya	-13480
tetni	-13481
zedék	-13482
ölgyi	-13483
▁Csal	-13484
▁Finn	-13485
▁Kali	-13486
▁Kezd	-13487
▁Kosz	-13488
▁Lind	-13489
▁fiók	-13490
▁küls	-13491
eltség	-13492
tattak	-13493
▁Erről	-13494
▁Gyors	-13495
▁bajba	-13496
▁beton	-13497
▁gazda	-13498
▁hegyi	-13499
▁illat	-13500
▁kiáll	-13501
▁névre	-13502
▁röhög	-13503
▁ukkal	-13504
▁útját	-13505
▁őrült	-13506
▁Ukrajn	-13507
▁amatőr	-13508
▁fizika	-13509
▁homlok	-13510
▁honnan	-13511
▁irányt	-13512
▁kapják	-13513
▁kettes	-13514
▁kísérő	-13515
▁mérkőz	-13516
▁nehogy	-13517
▁nőknél	-13518
▁tennie	-13519
▁tároló	-13520
▁várjuk	-13521
▁vívott	-13522
unántúli	-13523
▁Beckham	-13524
▁Műszaki	-13525
▁Nicolas	-13526
▁Nyugdíj	-13527
▁Rangers	-13528
▁Rákóczi	-13529
▁Vatikán	-13530
▁aszfalt	-13531
▁becslés	-13532
▁döntőbe	-13533
▁elegáns	-13534
▁magáról	-13535
▁meccsén	-13536
▁remélem	-13537
▁szervez	-13538
▁ségének	-13539
▁témában	-13540
▁veterán	-13541
▁írásban	-13542
szerződés	-13543
▁alakulás	-13544
▁emberrel	-13545
▁fizetnek	-13546
▁fogadják	-13547
▁költsége	-13548
▁támadtak	-13549
▁vallomás	-13550
▁összegét	-13551
alapítvány	-13552
▁Világkupa	-13553
▁Véleménye	-13554
▁háttérben	-13555
▁nyugdíjak	-13556
▁tudatosan	-13557
▁támogatni	-13558
▁Romániában	-13559
▁csapatának	-13560
▁látogatott	-13561
▁megpróbált	-13562
▁megítélése	-13563
▁romantikus	-13564
▁információs	-13565
▁kedvezőtlen	-13566
▁kidolgozott	-13567
▁közlekedést	-13568
▁különbségek	-13569
▁repülőtéren	-13570
▁tárgyaláson	-13571
▁szombathelyi	-13572
▁Afganisztánban	-13573
▁teljesítményét	-13574
60	-13575
DS	-13576
TI	-13577
iny	-13578
▁-2	-13579
▁FA	-13580
ance	-13581
vani	-13582
ázza	-13583
ítsa	-13584
▁7,5	-13585
▁Gas	-13586
▁Hur	-13587
▁bed	-13588
▁ein	-13589
asszt	-13590
erdam	-13591
erson	-13592
hanem	-13593
ukkan	-13594
ukrán	-13595
▁Show	-13596
▁Vált	-13597
▁blok	-13598
▁bort	-13599
▁enni	-13600
▁repr	-13601
▁árat	-13602
földön	-13603
ulatot	-13604
▁Chris	-13605
▁Dezső	-13606
▁Ennél	-13607
▁Fórum	-13608
▁Teleg	-13609
▁dráma	-13610
▁hatta	-13611
▁hetes	-13612
▁keser	-13613
▁napló	-13614
▁navig	-13615
▁panel	-13616
▁prost	-13617
▁szitu	-13618
▁sértő	-13619
▁tetem	-13620
▁tudna	-13621
▁tudná	-13622
▁zárva	-13623
▁ített	-13624
▁Boston	-13625
▁Minnes	-13626
▁Mónika	-13627
▁kivéve	-13628
▁lakást	-13629
▁motort	-13630
▁onként	-13631
▁viselt	-13632
▁Dmitrij	-13633
▁autókat	-13634
▁azokkal	-13635
▁barátai	-13636
▁bekerül	-13637
▁elsején	-13638
▁hagyják	-13639
▁hetente	-13640
▁maradás	-13641
▁nagyban	-13642
szerkezet	-13643
▁Argentín	-13644
▁közöttük	-13645
▁millióan	-13646
▁munkavég	-13647
▁működése	-13648
▁nyújtani	-13649
▁terhelés	-13650
▁társával	-13651
katasztróf	-13652
képviselet	-13653
▁együttese	-13654
▁feltétele	-13655
▁forintról	-13656
▁hollywood	-13657
▁hátralévő	-13658
▁ombudsman	-13659
▁demokraták	-13660
▁hozzáállás	-13661
▁kiterjeszt	-13662
▁kockázatok	-13663
▁szólította	-13664
▁vendéglátó	-13665
▁válaszadók	-13666
▁válaszolva	-13667
▁alkalmatlan	-13668
▁jogosítvány	-13669
▁különbséget	-13670
▁nyilatkozva	-13671
▁nyugdíjasok	-13672
▁többségében	-13673
▁számíthatunk	-13674
▁Világgazdaság	-13675
▁kompromisszum	-13676
FP	-13677
éi	-13678
űg	-13679
age	-13680
ele	-13681
kín	-13682
ném	-13683
ráb	-13684
abás	-13685
aida	-13686
atov	-13687
eneg	-13688
szór	-13689
szög	-13690
▁???	-13691
▁Coz	-13692
▁Mod	-13693
▁NHL	-13694
▁Pas	-13695
sztíz	-13696
védők	-13697
ítsák	-13698
▁10-1	-13699
▁Déli	-13700
▁anal	-13701
▁golf	-13702
▁http	-13703
▁tagú	-13704
▁érni	-13705
Európa	-13706
háború	-13707
▁Azzal	-13708
▁Fodor	-13709
▁aival	-13710
▁csata	-13711
▁hetet	-13712
▁jánál	-13713
▁kábel	-13714
▁miről	-13715
▁nevén	-13716
▁olyat	-13717
▁pánik	-13718
▁téved	-13719
▁úgyis	-13720
▁Kemény	-13721
▁csalód	-13722
▁eleven	-13723
▁győzni	-13724
▁kezelt	-13725
▁lőttek	-13726
▁máshol	-13727
▁nevezi	-13728
▁piacot	-13729
▁ritmus	-13730
▁veszít	-13731
▁érhető	-13732
▁évekig	-13733
▁Mikulás	-13734
▁balaton	-13735
▁bérleti	-13736
▁bírálat	-13737
▁emberei	-13738
▁faluban	-13739
▁fejében	-13740
▁gyereke	-13741
▁magától	-13742
▁megmozd	-13743
▁vallott	-13744
▁ütközés	-13745
▁Hangsúly	-13746
▁brutális	-13747
▁felhívás	-13748
▁felvenni	-13749
▁folyadék	-13750
▁gyorskor	-13751
▁góljával	-13752
▁hamarabb	-13753
▁hibázott	-13754
▁megtenni	-13755
▁megélhet	-13756
▁munkások	-13757
▁nemzedék	-13758
▁partnere	-13759
▁ösztönöz	-13760
▁Bernadett	-13761
▁Közgyűlés	-13762
▁dollárért	-13763
▁feleségét	-13764
▁főtitkára	-13765
▁gondolták	-13766
▁háromszáz	-13767
▁időpontja	-13768
▁influenza	-13769
▁korrekció	-13770
▁szigorúan	-13771
▁születtek	-13772
▁valakinek	-13773
▁Moszkvában	-13774
▁előzetesen	-13775
▁honvédelmi	-13776
▁támogatják	-13777
▁alkalmazása	-13778
▁ellenőrzése	-13779
▁ellenőrzést	-13780
▁fellendülés	-13781
▁foglalkozás	-13782
▁futballista	-13783
▁gyanúsítják	-13784
▁háztartások	-13785
▁időszakában	-13786
▁kommentálta	-13787
▁pályafutása	-13788
▁tekintetben	-13789
▁Értéktőzsde	-13790
▁átalakítása	-13791
▁folytatódott	-13792
▁tulajdonosai	-13793
▁változásokat	-13794
▁öngyilkosság	-13795
▁részvételével	-13796
VA	-13797
etű	-13798
fik	-13799
kin	-13800
kát	-13801
top	-13802
tté	-13803
▁GM	-13804
▁KC	-13805
▁TE	-13806
etti	-13807
okos	-13808
úció	-13809
▁Civ	-13810
▁Lar	-13811
▁bél	-13812
▁jöj	-13813
▁póz	-13814
olhat	-13815
organ	-13816
uzsál	-13817
▁Mass	-13818
▁Péld	-13819
▁eken	-13820
▁elle	-13821
▁emet	-13822
▁feje	-13823
▁írók	-13824
attunk	-13825
ejáték	-13826
hessen	-13827
álkozó	-13828
álózat	-13829
öltött	-13830
▁egyez	-13831
▁inger	-13832
▁járás	-13833
▁rangú	-13834
▁ukban	-13835
▁vádak	-13836
▁ókori	-13837
engeres	-13838
▁Carlos	-13839
▁Szerző	-13840
▁alakja	-13841
▁bármit	-13842
▁bíznak	-13843
▁gondok	-13844
▁haladó	-13845
▁hárman	-13846
▁iparág	-13847
▁község	-13848
▁küldte	-13849
▁küszkö	-13850
▁szerte	-13851
▁vízzel	-13852
▁árulta	-13853
üntették	-13854
▁Remélem	-13855
▁akarjuk	-13856
▁eredetű	-13857
▁helyért	-13858
▁hozzánk	-13859
▁hónapon	-13860
▁járható	-13861
▁kerülne	-13862
▁kijelző	-13863
▁magasan	-13864
▁rajongó	-13865
▁töredék	-13866
▁Schiffer	-13867
▁fellépés	-13868
▁iskolába	-13869
▁jegyzése	-13870
▁megnyitó	-13871
▁módszert	-13872
▁pontokat	-13873
▁szolidar	-13874
▁sérülése	-13875
▁veretlen	-13876
▁Demokrata	-13877
▁anyagokat	-13878
▁jegybanki	-13879
▁legjobbak	-13880
▁rendeltek	-13881
▁régészeti	-13882
▁visszavág	-13883
▁Biztonsági	-13884
▁hollywoodi	-13885
▁jellemezte	-13886
▁módosítása	-13887
▁találkozás	-13888
▁biztosítása	-13889
▁eseményeket	-13890
▁használatát	-13891
▁keresztényd	-13892
▁kialakítása	-13893
▁nagyszabású	-13894
▁ellehetetlen	-13895
▁magabiztosan	-13896
▁negyedévében	-13897
▁előterjesztés	-13898
▁hírügynökségnek	-13899
ES	-13900
ké	-13901
ege	-13902
sai	-13903
ukr	-13904
▁AS	-13905
▁Hd	-13906
▁bű	-13907
agép	-13908
arab	-13909
egor	-13910
ikás	-13911
vald	-13912
ékek	-13913
▁125	-13914
▁3-0	-13915
▁Cél	-13916
▁Het	-13917
▁Ink	-13918
▁Ren	-13919
▁Uta	-13920
▁gab	-13921
▁kak	-13922
▁kan	-13923
▁muz	-13924
▁páp	-13925
▁rap	-13926
▁sop	-13927
attam	-13928
forma	-13929
hozam	-13930
obile	-13931
puszt	-13932
űzött	-13933
▁1200	-13934
▁2001	-13935
▁Kram	-13936
▁Száv	-13937
▁baja	-13938
▁endő	-13939
▁goly	-13940
▁legd	-13941
▁menő	-13942
▁Fitch	-13943
▁Gergő	-13944
▁Group	-13945
▁Heged	-13946
▁Kevin	-13947
▁Közös	-13948
▁Lotus	-13949
▁Marad	-13950
▁Massa	-13951
▁Miami	-13952
▁Vajon	-13953
▁ereje	-13954
▁erőmű	-13955
▁foszt	-13956
▁kedés	-13957
▁szánk	-13958
▁taxis	-13959
▁tobor	-13960
▁válni	-13961
▁állom	-13962
Szolnok	-13963
atalabb	-13964
esültek	-13965
▁amiatt	-13966
▁chilei	-13967
▁cikket	-13968
▁előírt	-13969
▁igényt	-13970
▁lefelé	-13971
▁lefoly	-13972
▁szelet	-13973
▁állunk	-13974
▁Yorkban	-13975
▁anélkül	-13976
▁bővülés	-13977
▁hangzik	-13978
▁megőriz	-13979
▁másképp	-13980
▁méteren	-13981
▁sorolta	-13982
▁stagnál	-13983
▁szorult	-13984
▁társaik	-13985
▁tömeges	-13986
▁építése	-13987
▁ítették	-13988
▁ították	-13989
asztronóm	-13990
mezővásár	-13991
▁Panoráma	-13992
▁amelyről	-13993
▁benzines	-13994
▁elnöknek	-13995
▁fizettek	-13996
▁helyette	-13997
▁honlapon	-13998
▁jellemzi	-13999
▁kórházak	-14000
▁közérdek	-14001
▁melyeket	-14002
▁tartható	-14003
▁Miskolcon	-14004
▁diadalmas	-14005
▁dinamikus	-14006
▁hirdetett	-14007
▁követelte	-14008
▁színpadon	-14009
▁tartalmát	-14010
▁társasági	-14011
▁befizetett	-14012
▁frankfurti	-14013
▁kinevezett	-14014
▁kérdésekre	-14015
▁mérkőzések	-14016
▁végrehajtó	-14017
▁elvesztette	-14018
▁játéknapján	-14019
▁megpróbálta	-14020
▁mesterséges	-14021
▁szennyezett	-14022
▁tulajdonban	-14023
▁másodosztály	-14024
▁szimpatizáns	-14025
▁tevékenysége	-14026
▁elengedhetetlen	-14027
FB	-14028
ÉT	-14029
EFA	-14030
inó	-14031
unt	-14032
ájt	-14033
úró	-14034
▁RM	-14035
▁RS	-14036
ever	-14037
ibás	-14038
szél	-14039
▁2,7	-14040
▁2,8	-14041
▁Bad	-14042
▁Lat	-14043
▁Ven	-14044
▁Vin	-14045
▁cit	-14046
idejű	-14047
ulása	-14048
▁Emil	-14049
▁Fico	-14050
▁Jord	-14051
▁Lass	-14052
▁cucc	-14053
▁őrök	-14054
edelem	-14055
hatóan	-14056
zottak	-14057
▁2015-	-14058
▁Annam	-14059
▁Mégis	-14060
▁Vidék	-14061
▁barom	-14062
▁edzőt	-14063
▁elbír	-14064
▁főhős	-14065
▁hívni	-14066
▁oknál	-14067
▁vonni	-14068
▁vágta	-14069
▁élvez	-14070
▁ükben	-14071
chnikai	-14072
program	-14073
▁bennük	-14074
▁estére	-14075
▁ezekre	-14076
▁földre	-14077
▁megnöv	-14078
▁tagját	-14079
▁tartva	-14080
▁vezett	-14081
▁zsidók	-14082
testület	-14083
▁Amerika	-14084
▁Békéscs	-14085
▁Komárom	-14086
▁csendes	-14087
▁célkitű	-14088
▁elhatár	-14089
▁halaszt	-14090
▁hatalmi	-14091
▁hetilap	-14092
▁könyvel	-14093
▁mögötte	-14094
▁szintje	-14095
▁találja	-14096
▁tegnapi	-14097
▁ütemben	-14098
▁Márpedig	-14099
▁Pénzügyi	-14100
▁Standard	-14101
▁bővebben	-14102
▁bűntette	-14103
▁elméleti	-14104
▁fájdalom	-14105
▁gyártott	-14106
▁hassanak	-14107
▁javasolt	-14108
▁kiválóan	-14109
▁közelébe	-14110
▁motorral	-14111
▁rendelte	-14112
▁számokat	-14113
▁Zsuzsanna	-14114
▁biológiai	-14115
▁fehérvári	-14116
▁kattintva	-14117
▁születésű	-14118
▁tárgyalni	-14119
▁valóságos	-14120
▁bevezetett	-14121
▁hátterében	-14122
▁kampányban	-14123
▁kidolgozás	-14124
▁megtörtént	-14125
▁problémája	-14126
▁szavazatot	-14127
▁szállítani	-14128
▁bejelentést	-14129
▁előkészület	-14130
▁fejlesztése	-14131
▁hivatkozott	-14132
▁kiállításon	-14133
▁közlekednek	-14134
▁megrendelés	-14135
▁személyében	-14136
▁hitelminősítő	-14137
▁felfüggesztett	-14138
▁költségvetésben	-14139
▁titkosszolgálat	-14140
4)	-14141
MI	-14142
ON	-14143
lők	-14144
▁Hó	-14145
▁da	-14146
▁fü	-14147
▁Út	-14148
olva	-14149
outh	-14150
▁34.	-14151
▁5,7	-14152
▁Bas	-14153
▁Ide	-14154
▁KSH	-14155
▁Laz	-14156
▁etn	-14157
▁lej	-14158
▁pog	-14159
▁szu	-14160
▁tűr	-14161
ambol	-14162
inamo	-14163
ínium	-14164
▁Avat	-14165
▁fajt	-14166
▁keze	-14167
▁zsin	-14168
▁óval	-14169
▁ülni	-14170
ahitel	-14171
figyel	-14172
állást	-14173
▁Simor	-14174
▁gumik	-14175
▁illik	-14176
▁javít	-14177
▁kabát	-14178
▁kapos	-14179
▁ruhát	-14180
▁vonta	-14181
▁éltek	-14182
esebben	-14183
részben	-14184
▁Katona	-14185
▁Kolont	-14186
▁folyók	-14187
▁hátvéd	-14188
▁hívott	-14189
▁kezeli	-14190
▁koreai	-14191
▁képpen	-14192
▁levált	-14193
▁mozgós	-14194
▁semmis	-14195
▁Császár	-14196
▁Rosberg	-14197
▁autóját	-14198
▁cikkben	-14199
▁kamerák	-14200
▁kerítés	-14201
▁madarak	-14202
▁megrong	-14203
▁mutatni	-14204
▁másként	-14205
▁napokon	-14206
▁paraszt	-14207
▁partján	-14208
▁szerelő	-14209
▁tiltott	-14210
▁tréning	-14211
▁zöldség	-14212
▁alakítja	-14213
▁alapítás	-14214
▁konflikt	-14215
▁kutatója	-14216
▁márpedig	-14217
▁problémá	-14218
▁regisztr	-14219
▁színházi	-14220
▁terveket	-14221
▁válságot	-14222
▁végeznek	-14223
▁érdemben	-14224
▁Debreceni	-14225
▁elsejétől	-14226
▁félmillió	-14227
▁háztartás	-14228
▁közvetítő	-14229
▁másodszor	-14230
▁működtető	-14231
▁rehabilit	-14232
▁sérülések	-14233
▁történelm	-14234
▁vezetőség	-14235
▁édesanyja	-14236
▁érdeklődő	-14237
▁használtak	-14238
▁irányított	-14239
▁kecskeméti	-14240
▁kevesebben	-14241
▁szállított	-14242
▁előkészítés	-14243
▁ismertetett	-14244
▁munkahelyek	-14245
▁rendőrségen	-14246
▁vállalkozói	-14247
▁érvénytelen	-14248
▁hozzátartozó	-14249
▁megrendezett	-14250
▁északnyugati	-14251
▁kiskereskedelmi	-14252
TV	-14253
cl	-14254
gót	-14255
húz	-14256
lis	-14257
▁97	-14258
erőt	-14259
eter	-14260
etve	-14261
izáj	-14262
iába	-14263
▁2,6	-14264
▁40-	-14265
▁Bol	-14266
▁Est	-14267
▁Jar	-14268
▁Rat	-14269
▁org	-14270
▁tuk	-14271
▁zón	-14272
Kaida	-14273
▁Bush	-14274
▁Hill	-14275
▁acél	-14276
▁hova	-14277
▁liga	-14278
▁lába	-14279
▁tűzi	-14280
▁váló	-14281
ennyit	-14282
eztünk	-14283
gyakor	-14284
helyek	-14285
rablás	-14286
▁1989-	-14287
▁Ettől	-14288
▁Gener	-14289
▁Lewis	-14290
▁Saint	-14291
▁Woods	-14292
▁adódó	-14293
▁bővül	-14294
▁eleme	-14295
▁hibáz	-14296
▁hívás	-14297
▁ingad	-14298
▁jéről	-14299
▁kifog	-14300
▁rabló	-14301
▁éghaj	-14302
▁ügyét	-14303
győztes	-14304
ségesen	-14305
▁Hitler	-14306
▁Miller	-14307
▁Olympi	-14308
▁dicsér	-14309
▁esküvő	-14310
▁kezdőd	-14311
▁meséli	-14312
▁szerek	-14313
▁utazni	-14314
▁ellenük	-14315
▁fogadni	-14316
▁kezdete	-14317
▁szorong	-14318
▁tilalom	-14319
▁vereked	-14320
▁átvette	-14321
▁élvezet	-14322
▁érdekli	-14323
▁örömmel	-14324
▁bajnokin	-14325
▁csúcstal	-14326
▁munkálat	-14327
▁presztíz	-14328
▁szekrény	-14329
▁tragikus	-14330
▁tényezők	-14331
▁Művelődés	-14332
▁Telegraph	-14333
▁boldogság	-14334
▁fontosság	-14335
▁gyakorlás	-14336
▁júliusban	-14337
▁kollekció	-14338
▁kormányra	-14339
▁könyvében	-14340
▁látszólag	-14341
▁népszavaz	-14342
▁választja	-14343
▁összekötő	-14344
▁Budapestre	-14345
▁biztosítók	-14346
▁csodálatos	-14347
▁felrobbant	-14348
▁szervezeti	-14349
▁Dunaújváros	-14350
▁eljuttatott	-14351
▁megszerezni	-14352
▁professzora	-14353
▁rendszerrel	-14354
▁tartózkodik	-14355
▁Vagyonkezelő	-14356
▁közreműködés	-14357
▁novemberében	-14358
▁Önkormányzat	-14359
▁kezdeményezett	-14360
▁magánszemélyek	-14361
▁támogatottsága	-14362
▁letartóztatásba	-14363
jó	-14364
zy	-14365
fát	-14366
iók	-14367
ázd	-14368
▁Bf	-14369
▁DA	-14370
▁Fa	-14371
▁ud	-14372
hell	-14373
ivér	-14374
roid	-14375
verz	-14376
wart	-14377
űlés	-14378
▁450	-14379
▁Gir	-14380
▁Jol	-14381
▁Maj	-14382
▁Nál	-14383
▁Spi	-14384
▁dkg	-14385
▁egz	-14386
▁kaj	-14387
▁kád	-14388
aradó	-14389
esből	-14390
issan	-14391
átlan	-14392
▁Gyen	-14393
▁belt	-14394
▁duzz	-14395
▁gömb	-14396
▁lább	-14397
▁sült	-14398
▁vari	-14399
atható	-14400
ennégy	-14401
hozott	-14402
imenzi	-14403
ivatag	-14404
nokság	-14405
ogatni	-14406
ütötte	-14407
▁Hercz	-14408
▁Puszt	-14409
▁Smith	-14410
▁durva	-14411
▁ekről	-14412
▁harci	-14413
▁javul	-14414
▁kínos	-14415
▁legfi	-14416
▁mulat	-14417
▁nyerő	-14418
▁padló	-14419
▁szőlő	-14420
▁törés	-14421
▁vizes	-14422
▁érzet	-14423
▁ítják	-14424
szlovák	-14425
umínium	-14426
▁Regény	-14427
▁Steven	-14428
▁Szávay	-14429
▁akciót	-14430
▁csokol	-14431
▁hormon	-14432
▁orvost	-14433
▁részeg	-14434
onprofit	-14435
▁Chicago	-14436
▁fennáll	-14437
▁hosszas	-14438
▁képzési	-14439
▁minősül	-14440
▁szarvas	-14441
▁szembes	-14442
▁tudtunk	-14443
▁vonalak	-14444
▁Április	-14445
▁államot	-14446
▁önmagát	-14447
emlékezés	-14448
▁Budaházy	-14449
▁Mészáros	-14450
▁felfogás	-14451
▁incidens	-14452
▁irányadó	-14453
▁könyvben	-14454
▁meztelen	-14455
▁tavaszán	-14456
▁termelők	-14457
▁tetszett	-14458
▁többfelé	-14459
▁Minnesota	-14460
▁elvégzett	-14461
▁környéken	-14462
▁megnyitás	-14463
▁nyújtotta	-14464
▁szabályai	-14465
▁szurkolói	-14466
▁teremteni	-14467
▁használati	-14468
▁nyolcvanas	-14469
▁stabilizál	-14470
▁jelentettek	-14471
▁kongresszus	-14472
▁leminősítés	-14473
▁szállítmány	-14474
▁berendezések	-14475
▁hangsúlyozza	-14476
▁országgyűlés	-14477
▁országszerte	-14478
▁összefoglaló	-14479
▁adócsökkentés	-14480
▁katasztrófavéd	-14481
DK	-14482
IV	-14483
gá	-14484
yl	-14485
bál	-14486
cze	-14487
des	-14488
dob	-14489
kóp	-14490
lor	-14491
rek	-14492
▁AI	-14493
Szab	-14494
engő	-14495
lövő	-14496
onya	-14497
ulin	-14498
utaz	-14499
▁80-	-14500
▁Arm	-14501
▁Dor	-14502
▁Idő	-14503
▁Moz	-14504
▁Nok	-14505
▁Zal	-14506
▁ken	-14507
▁spr	-14508
láger	-14509
▁Dieg	-14510
▁Lady	-14511
▁Szar	-14512
▁bead	-14513
▁berg	-14514
▁kacs	-14515
▁krim	-14516
▁mész	-14517
▁prop	-14518
▁rózs	-14519
▁taps	-14520
▁élve	-14521
▁ötöd	-14522
inform	-14523
ingham	-14524
jaként	-14525
▁Carol	-14526
▁Egyed	-14527
▁Erdei	-14528
▁Olvas	-14529
▁Valam	-14530
▁Videó	-14531
▁ajkai	-14532
▁alany	-14533
▁címen	-14534
▁etlen	-14535
▁gyűrű	-14536
▁immun	-14537
▁kodás	-14538
▁léleg	-14539
▁nulla	-14540
▁rassz	-14541
▁töltő	-14542
▁óceán	-14543
▁ügyes	-14544
esztője	-14545
rendező	-14546
▁Avatar	-14547
▁Köszön	-14548
▁felhat	-14549
▁feltör	-14550
▁kenyér	-14551
▁kiírás	-14552
▁kémiai	-14553
▁kőolaj	-14554
▁lelepl	-14555
▁megérd	-14556
▁mentés	-14557
▁pontok	-14558
▁sejtek	-14559
▁tankol	-14560
▁tetten	-14561
▁utakat	-14562
▁végzik	-14563
▁Domokos	-14564
▁Erdélyi	-14565
▁Ugyanis	-14566
▁bővítés	-14567
▁fölötti	-14568
▁hatások	-14569
▁járőrök	-14570
▁kreatív	-14571
▁műemlék	-14572
▁okostel	-14573
▁tagjait	-14574
▁Egyrészt	-14575
▁bizalmat	-14576
▁bűnösnek	-14577
▁előadást	-14578
▁hatalmat	-14579
▁károsult	-14580
▁kívánnak	-14581
▁követelő	-14582
▁lehetünk	-14583
▁szenvedő	-14584
▁zsákmány	-14585
▁felvételt	-14586
▁játékosai	-14587
▁kaposvári	-14588
▁praktikus	-14589
▁teljesítő	-14590
katasztrófa	-14591
▁Elsősorban	-14592
▁amelyeknek	-14593
▁emlékezett	-14594
▁felelőtlen	-14595
▁kattintson	-14596
▁megismétel	-14597
▁tudósítója	-14598
▁kaliforniai	-14599
▁okostelefon	-14600
▁átmenetileg	-14601
▁ügyvezetője	-14602
▁februárjában	-14603
▁foglalkoznak	-14604
▁fordulójának	-14605
▁későbbiekben	-14606
▁legfiatalabb	-14607
▁mennyiségben	-14608
▁szerződésben	-14609
▁törvényhozás	-14610
▁megállapítani	-14611
▁csapatkapitány	-14612
▁dokumentumokat	-14613
▁állampolgárság	-14614
▁figyelmeztetett	-14615
5,	-14616
Bi	-14617
RI	-14618
má	-14619
Egy	-14620
Vas	-14621
cks	-14622
ábl	-14623
épp	-14624
öly	-14625
▁05	-14626
▁Ku	-14627
▁ók	-14628
▁Őr	-14629
igen	-14630
inen	-14631
kedv	-14632
rádi	-14633
sius	-14634
unió	-14635
ward	-14636
zabi	-14637
óbev	-14638
▁(18	-14639
▁11:	-14640
▁16:	-14641
▁3,7	-14642
▁33.	-14643
▁Ali	-14644
▁Hum	-14645
▁Ken	-14646
▁Mus	-14647
▁Tag	-14648
▁hok	-14649
▁ren	-14650
▁sap	-14651
efont	-14652
illér	-14653
tárgy	-14654
ódhat	-14655
▁Andr	-14656
▁Edit	-14657
▁Eric	-14658
▁Jani	-14659
▁Moto	-14660
▁burg	-14661
▁féle	-14662
▁kiür	-14663
▁lépő	-14664
▁oxig	-14665
▁play	-14666
▁túra	-14667
csolya	-14668
hellip	-14669
érkező	-14670
őtábla	-14671
▁1992-	-14672
▁2006.	-14673
▁Aston	-14674
▁Motor	-14675
▁alakú	-14676
▁gólja	-14677
▁járók	-14678
▁létes	-14679
▁szesz	-14680
▁tempó	-14681
▁ázott	-14682
ességét	-14683
osztrák	-14684
szülött	-14685
▁Hungar	-14686
▁Indian	-14687
▁Meglep	-14688
▁adóbev	-14689
▁autója	-14690
▁fűszer	-14691
▁kocsik	-14692
▁svédek	-14693
▁zenész	-14694
▁érezni	-14695
▁ütötte	-14696
alkovics	-14697
engedett	-14698
jelöltje	-14699
▁Alföldi	-14700
▁Energia	-14701
▁Levente	-14702
▁Lászlót	-14703
▁Magazin	-14704
▁bejárat	-14705
▁előnyös	-14706
▁kikapcs	-14707
▁lakóház	-14708
▁okoztak	-14709
▁pénzért	-14710
▁szóltak	-14711
▁szüntet	-14712
▁valósul	-14713
▁Atlético	-14714
▁Másrészt	-14715
▁Olimpiai	-14716
▁amelyhez	-14717
▁beszámol	-14718
▁elárulta	-14719
▁előirány	-14720
▁eseményt	-14721
▁filmeket	-14722
▁jelöltet	-14723
▁márciusi	-14724
▁szeretik	-14725
▁óránként	-14726
▁felbukkan	-14727
▁hallottam	-14728
▁kapitánya	-14729
▁kísérleti	-14730
▁májusában	-14731
▁módszerek	-14732
▁véleményt	-14733
▁hallgatták	-14734
▁játszották	-14735
▁kapitányság	-14736
▁feltételezés	-14737
▁strukturális	-14738
▁szerződéseket	-14739
BB	-14740
eki	-14741
lie	-14742
odi	-14743
áta	-14744
▁',	-14745
▁3:	-14746
ofil	-14747
omat	-14748
oxid	-14749
zmus	-14750
ükre	-14751
▁2,4	-14752
▁20:	-14753
▁How	-14754
▁Nas	-14755
▁cső	-14756
▁nád	-14757
▁síp	-14758
▁ujj	-14759
entin	-14760
ezsim	-14761
ggyel	-14762
nnyel	-14763
ourne	-14764
▁Gyul	-14765
▁Ifjú	-14766
▁Kenn	-14767
▁Közl	-14768
▁fiát	-14769
▁ring	-14770
▁szop	-14771
▁szub	-14772
▁ököl	-14773
ekingi	-14774
eszked	-14775
indhov	-14776
ulátor	-14777
▁falat	-14778
▁fuvar	-14779
▁függő	-14780
▁hazat	-14781
▁mielő	-14782
▁nevez	-14783
▁októl	-14784
▁álmod	-14785
arányos	-14786
üntetés	-14787
[...]
