<unk>	0
<s>	0
</s>	0
,	-3.03246
▁a	-3.12324
.	-3.53821
t	-4.08925
▁az	-4.16803
i	-4.24791
▁A	-4.568
▁és	-4.66068
▁	-4.69566
-	-4.7753
▁hogy	-4.94138
▁is	-5.04678
e	-5.07568
k	-5.08048
▁-	-5.11387
a	-5.1543
▁nem	-5.23099
▁egy	-5.40708
▁meg	-5.46302
:	-5.46749
ek	-5.48982
s	-5.56619
ban	-5.56865
en	-5.60493
ok	-5.63257
ra	-5.67195
nak	-5.73017
▁Az	-5.75427
ben	-5.7732
et	-5.78674
ni	-5.7881
▁ki	-5.79055
▁(	-5.82374
es	-5.82437
▁el	-5.82796
re	-5.88295
nek	-5.88537
n	-5.97308
ja	-6.03617
on	-6.05348
▁szerint	-6.08574
d	-6.1008
)	-6.12889
át	-6.16339
ot	-6.16466
▁de	-6.18535
os	-6.19313
ó	-6.19431
▁"	-6.21777
▁volt	-6.22376
an	-6.24265
m	-6.25788
"	-6.30043
▁fel	-6.30582
ét	-6.31178
▁már	-6.31844
▁be	-6.3362
ik	-6.3682
ő	-6.41379
at	-6.49297
ak	-6.51486
▁csak	-6.523
z	-6.52466
y	-6.5272
▁még	-6.53124
ba	-6.53806
▁le	-6.54771
l	-6.60448
án	-6.62262
b	-6.66057
▁ha	-6.66893
sz	-6.67
▁azt	-6.71021
▁van	-6.71493
▁mint	-6.7261
ta	-6.72698
▁két	-6.75646
▁s	-6.78631
▁sem	-6.79551
okat	-6.81472
▁több	-6.83476
eket	-6.83536
be	-6.83566
▁kell	-6.83793
▁pedig	-6.84696
▁ez	-6.85427
ott	-6.86343
f	-6.87804
ás	-6.88439
h	-6.88489
ú	-6.90435
▁vagy	-6.9105
▁magyar	-6.92715
▁után	-6.92972
g	-6.9367
▁S	-6.98979
va	-6.99662
én	-7.02037
▁majd	-7.02751
▁nagy	-7.04376
▁első	-7.04839
ból	-7.05238
▁miatt	-7.05457
te	-7.07297
ként	-7.0764
▁lehet	-7.08018
▁új	-7.08306
▁aki	-7.08341
hoz	-7.09245
c	-7.09632
om	-7.11068
ért	-7.11387
ról	-7.11537
ű	-7.12907
ett	-7.13192
ig	-7.13455
el	-7.13897
ul	-7.13921
▁így	-7.14115
?	-7.14177
ről	-7.14525
▁lesz	-7.14889
▁amely	-7.14994
▁át	-7.15174
ve	-7.15203
▁mondta	-7.15513
▁K	-7.15525
▁mert	-7.16442
je	-7.16931
ol	-7.17175
unk	-7.17205
ában	-7.17411
as	-7.18118
▁olyan	-7.18272
er	-7.18907
o	-7.20959
ség	-7.21379
p	-7.2159
j	-7.22243
▁B	-7.22345
cs	-7.22561
em	-7.23124
▁úgy	-7.23777
és	-7.24458
é	-7.24604
ék	-7.24888
▁között	-7.24953
▁akkor	-7.26317
ának	-7.26774
▁azonban	-7.29023
ság	-7.29626
r	-7.30237
▁minden	-7.30704
▁egyik	-7.31153
ed	-7.31741
),	-7.32053
▁T	-7.32354
v	-7.33664
ében	-7.34307
val	-7.3437
▁ami	-7.35105
▁év	-7.35423
▁M	-7.355
▁sz	-7.36112
ünk	-7.36674
ták	-7.3731
A	-7.37532
tól	-7.38012
nál	-7.38055
ből	-7.38159
▁ellen	-7.38269
tak	-7.39538
na	-7.39698
uk	-7.40353
or	-7.40839
ára	-7.41483
ják	-7.41858
▁Ha	-7.42755
ének	-7.42848
in	-7.42884
ük	-7.43863
▁kormány	-7.43885
ai	-7.44154
vel	-7.44377
5	-7.44768
ját	-7.45857
▁V	-7.46093
gy	-7.47657
▁jó	-7.47728
▁arra	-7.48434
6	-7.48956
től	-7.50109
ül	-7.50694
▁millió	-7.51509
ál	-7.52241
ny	-7.53351
▁három	-7.53442
▁C	-7.53515
▁mi	-7.53596
▁forint	-7.53832
kor	-7.54236
ár	-7.5438
u	-7.54427
4	-7.54496
M	-7.55249
ur	-7.5554
▁éves	-7.5613
▁rá	-7.56179
B	-7.56185
hez	-7.56369
▁vissza	-7.56891
▁G	-7.58248
al	-7.5857
3	-7.58781
▁H	-7.58837
▁F	-7.5892
▁p	-7.59549
7	-7.59706
ték	-7.59839
▁volna	-7.60351
▁most	-7.60609
us	-7.60659
▁más	-7.60872
ar	-7.6095
ad	-7.61256
nél	-7.61445
▁Egy	-7.62117
▁előtt	-7.62157
ére	-7.62272
ák	-7.62572
▁E	-7.63725
ez	-7.64193
ával	-7.64231
S	-7.64258
le	-7.64262
▁illetve	-7.64635
▁mellett	-7.64686
▁össze	-7.65045
it	-7.65181
▁ezer	-7.66583
tek	-7.66767
▁ezt	-7.67676
8	-7.68722
!	-7.70062
▁amikor	-7.70512
is	-7.71256
▁Ez	-7.72146
▁alatt	-7.72237
ei	-7.73313
▁I	-7.73679
▁világ	-7.73766
▁leg	-7.73786
li	-7.73805
2	-7.7395
K	-7.74165
▁P	-7.74455
hat	-7.74476
▁ember	-7.74516
kat	-7.74599
▁L	-7.74896
▁Nem	-7.74996
ne	-7.75695
▁Sz	-7.7659
ása	-7.77492
▁által	-7.77553
ri	-7.7784
▁milliárd	-7.78048
juk	-7.79044
▁köz	-7.79946
egy	-7.80335
▁cég	-7.80449
ök	-7.80785
▁sok	-7.81434
▁ország	-7.81897
▁lett	-7.81914
eg	-7.82074
▁kis	-7.82293
▁nagyon	-7.82377
▁Magyar	-7.82453
ít	-7.82595
▁hozzá	-7.82811
x	-7.83035
▁négy	-7.83128
▁fog	-7.83189
▁hanem	-7.84023
▁Mi	-7.84369
▁áll	-7.84483
▁f	-7.84995
▁férfi	-7.85226
▁tovább	-7.85459
▁akik	-7.85538
öl	-7.85978
1	-7.86017
od	-7.8634
het	-7.86484
T	-7.86631
▁párt	-7.86809
▁N	-7.86831
P	-7.87025
ével	-7.87064
C	-7.87223
▁csapat	-7.87707
▁amerikai	-7.88166
▁közölte	-7.89146
ha	-7.8938
▁ne	-7.90306
okkal	-7.90865
▁b	-7.91046
▁fő	-7.91726
ö	-7.92077
▁Fidesz	-7.9237
▁D	-7.92469
▁ma	-7.92551
hető	-7.92707
▁fél	-7.92718
ekkel	-7.93562
tal	-7.93799
ható	-7.94085
▁azért	-7.94115
V	-7.94231
▁nincs	-7.94586
▁adó	-7.94617
▁viszont	-7.95349
ch	-7.95592
ter	-7.95811
".	-7.95869
▁második	-7.96169
▁ilyen	-7.96367
ér	-7.96676
▁ahol	-7.97047
E	-7.97095
da	-7.97736
▁ezért	-7.98274
;	-7.9857
▁annak	-7.98657
▁De	-7.98678
/	-7.98772
D	-7.99108
vi	-7.99173
▁túl	-7.9952
I	-7.99594
▁MNO	-8.00091
▁elő	-8.00421
▁ő	-8.00428
▁alap	-8.0055
ése	-8.00572
él	-8.00658
▁autó	-8.00821
ló	-8.00995
nyi	-8.01102
▁százalékkal	-8.02839
▁például	-8.03288
am	-8.03455
▁saját	-8.04056
▁m	-8.04124
▁R	-8.04281
▁e	-8.0451
▁arról	-8.04686
ka	-8.0493
leg	-8.04978
▁százalék	-8.05319
sel	-8.05634
▁élet	-8.05661
▁k	-8.0577
▁ugyanis	-8.05776
▁valamint	-8.05828
bb	-8.0597
H	-8.06068
▁10	-8.06557
ebb	-8.06809
sal	-8.07345
▁óta	-8.07648
▁öt	-8.07661
ók	-8.07981
▁törvény	-8.08024
F	-8.08172
ma	-8.08308
▁20	-8.08367
szt	-8.08867
▁nap	-8.09168
▁alapján	-8.09592
szer	-8.09962
▁szó	-8.11377
um	-8.11611
▁korábban	-8.11769
▁számára	-8.1227
▁másik	-8.12421
▁hiszen	-8.12604
▁rendőrség	-8.12936
og	-8.1304
adó	-8.13546
▁amit	-8.13941
á	-8.14222
▁J	-8.14814
▁itt	-8.15327
▁tart	-8.15397
▁idő	-8.1574
di	-8.16306
ing	-8.16495
né	-8.16786
▁jog	-8.16998
▁című	-8.17287
▁Magyarország	-8.17662
▁jól	-8.18016
▁2	-8.18143
▁pénz	-8.18466
▁ér	-8.1847
▁cél	-8.1855
▁elnök	-8.18755
▁Európa	-8.19044
▁akár	-8.19094
ítás	-8.19094
0	-8.19196
▁O	-8.19338
▁százalékos	-8.19363
ör	-8.1943
▁rendszer	-8.19639
▁film	-8.198
▁lenne	-8.20864
▁nélkül	-8.2127
▁verseny	-8.21568
▁tud	-8.21883
ös	-8.22445
▁3	-8.23571
ci	-8.23802
▁19	-8.24043
ön	-8.24392
▁El	-8.24497
eit	-8.24556
▁legnagyobb	-8.24947
áz	-8.2504
▁Ki	-8.25113
tel	-8.25189
ly	-8.25246
▁amelyek	-8.25517
▁út	-8.25631
▁város	-8.25801
▁Ma	-8.2588
▁kellett	-8.26047
▁míg	-8.26083
▁néhány	-8.26198
▁cs	-8.26238
▁hét	-8.26283
hu	-8.26339
▁korábbi	-8.26344
ro	-8.26667
mi	-8.26751
▁való	-8.26897
▁csoport	-8.27418
ult	-8.27553
▁során	-8.27601
▁került	-8.27725
R	-8.27842
00	-8.27855
▁elmúlt	-8.27979
▁állam	-8.28369
▁szemben	-8.2837
...	-8.28492
ani	-8.28823
ker	-8.29239
▁ott	-8.29396
▁h	-8.29413
▁pont	-8.29903
▁helyzet	-8.30197
▁közül	-8.30239
ver	-8.30249
ket	-8.30357
ir	-8.30393
▁Meg	-8.3058
▁eddig	-8.3074
▁nagyobb	-8.31218
L	-8.31742
▁c	-8.32027
▁azzal	-8.32035
abb	-8.32344
áról	-8.32482
▁teljes	-8.32608
ző	-8.32733
▁elmondta	-8.32757
il	-8.32875
▁közel	-8.32971
▁egész	-8.33438
ü	-8.33445
▁8	-8.3346
▁Z	-8.33509
vé	-8.33602
ött	-8.33717
jük	-8.34495
▁vezető	-8.34548
▁német	-8.34651
▁nő	-8.34722
9	-8.34808
zi	-8.34847
▁Le	-8.34874
▁gazdasági	-8.35361
▁tavaly	-8.35393
mény	-8.35445
▁lap	-8.35549
▁ezzel	-8.36088
▁csökkent	-8.36105
za	-8.3612
▁ugyan	-8.36489
▁jár	-8.36519
la	-8.36672
olt	-8.36675
▁szervezet	-8.36822
▁g	-8.3684
zs	-8.3698
▁László	-8.37104
).	-8.37173
▁12	-8.37479
▁18	-8.37557
▁él	-8.37804
vá	-8.37824
▁legjobb	-8.37946
▁adott	-8.37985
▁Nagy	-8.38041
▁család	-8.38089
▁mivel	-8.38149
▁együtt	-8.38373
▁sor	-8.38389
▁fontos	-8.38391
▁mindig	-8.38428
▁ezek	-8.38432
fel	-8.3857
▁idén	-8.38595
im	-8.38741
▁U	-8.38796
ján	-8.38883
eszt	-8.39032
▁vannak	-8.39052
▁15	-8.39322
▁kér	-8.39451
ki	-8.39645
ír	-8.39655
az	-8.39868
▁történt	-8.39903
jának	-8.39931
▁La	-8.40003
N	-8.40081
▁ám	-8.40123
ia	-8.40167
▁elnöke	-8.4044
▁jelent	-8.40515
▁utolsó	-8.40628
▁később	-8.40691
oz	-8.41852
hely	-8.41972
se	-8.42143
▁kerül	-8.42356
w	-8.42469
▁hely	-8.42615
▁szak	-8.42895
▁január	-8.42914
lás	-8.43071
▁ár	-8.43172
szám	-8.43238
▁Al	-8.43269
▁tette	-8.43344
ását	-8.43347
▁kapott	-8.43455
í	-8.43572
▁újra	-8.44091
▁kérdés	-8.44122
elő	-8.44159
▁MSZP	-8.44397
▁inkább	-8.44455
O	-8.44744
▁december	-8.44785
lő	-8.45134
▁hat	-8.45377
▁euró	-8.45818
▁nemzetközi	-8.46159
▁Orbán	-8.46278
▁voltak	-8.46331
tor	-8.46611
▁v	-8.46636
ic	-8.46694
▁te	-8.46814
▁hír	-8.46837
▁4	-8.46953
kal	-8.4698
rel	-8.47056
ut	-8.47056
▁víz	-8.47244
ész	-8.47447
▁W	-8.47498
G	-8.4764
tam	-8.47649
▁őket	-8.47678
▁17	-8.47756
▁Péter	-8.48192
elt	-8.48218
ette	-8.48371
▁könyv	-8.48508
kel	-8.48589
éről	-8.48681
▁jobb	-8.48696
▁bank	-8.48792
▁tíz	-8.49026
zás	-8.4916
let	-8.49186
ait	-8.4929
ház	-8.49398
▁6	-8.49523
▁sikerült	-8.49691
▁Cs	-8.49717
▁következő	-8.4976
▁marad	-8.49761
▁pár	-8.49883
tár	-8.49941
▁ház	-8.50029
▁9	-8.5004
ából	-8.50241
▁Ka	-8.50382
zó	-8.50531
▁politikai	-8.50556
▁tett	-8.50645
▁jövő	-8.50851
pa	-8.51178
▁mind	-8.51221
▁11	-8.51333
▁bár	-8.51404
st	-8.51556
ális	-8.51613
sa	-8.51622
ába	-8.51709
▁munka	-8.51759
▁5	-8.51799
▁állami	-8.51903
▁ennek	-8.52247
▁harmadik	-8.52515
ást	-8.52517
▁d	-8.52775
▁szer	-8.52978
▁milyen	-8.53021
▁kap	-8.53213
▁szabad	-8.53306
▁vált	-8.53727
▁ért	-8.53772
gal	-8.5385
rész	-8.53876
▁program	-8.53966
▁éppen	-8.54302
▁akar	-8.54343
▁hazai	-8.54343
▁éve	-8.54887
▁magát	-8.55215
▁ment	-8.55382
▁emberek	-8.55823
▁része	-8.5607
mer	-8.56162
▁ügy	-8.56198
▁Bo	-8.56201
▁további	-8.56281
▁13	-8.56417
▁belül	-8.5653
▁helyi	-8.56561
▁István	-8.56835
▁16	-8.56927
zés	-8.56984
▁biztos	-8.57059
▁maga	-8.57104
▁14	-8.57206
▁l	-8.57381
▁vég	-8.5759
▁európai	-8.57635
▁neki	-8.57659
ng	-8.57956
ná	-8.58104
okra	-8.58181
ag	-8.58255
ült	-8.58541
▁mintegy	-8.58829
▁múlt	-8.5892
▁fej	-8.59193
▁kor	-8.59206
▁orosz	-8.59326
▁szám	-8.59431
▁ön	-8.59484
ők	-8.59525
▁szóló	-8.59703
▁lévő	-8.59815
gó	-8.59972
▁bele	-8.59993
esen	-8.60095
tem	-8.60241
▁bíróság	-8.60266
fi	-8.60606
▁játék	-8.60814
nap	-8.61009
▁jelentős	-8.61133
▁szól	-8.61221
▁erre	-8.61429
▁este	-8.61436
▁képest	-8.61607
öt	-8.6161
▁jelenleg	-8.6167
0-	-8.62017
ító	-8.62224
▁2010.	-8.62289
őr	-8.62493
▁perc	-8.62866
hi	-8.62964
▁írja	-8.63015
▁szerdán	-8.6302
▁utóbbi	-8.63091
▁végén	-8.63119
▁kívül	-8.63227
▁vasárnap	-8.63238
▁forintot	-8.633
nd	-8.63308
nt	-8.63388
jon	-8.63457
un	-8.63653
ov	-8.63943
▁újabb	-8.64079
jét	-8.641
▁Be	-8.64131
son	-8.6416
▁gyermek	-8.6419
▁támogatás	-8.64281
▁hasonló	-8.64307
ág	-8.64499
int	-8.64657
ász	-8.64755
ám	-8.64819
▁elég	-8.64897
▁alá	-8.64913
éz	-8.6492
▁szükség	-8.64952
▁ka	-8.64975
▁helyen	-8.65068
▁évvel	-8.65145
ény	-8.65213
kó	-8.65252
otta	-8.65403
▁amelyet	-8.6542
▁ellenére	-8.65466
▁igen	-8.65524
▁hétfőn	-8.65613
▁szinte	-8.6564
ty	-8.65684
rá	-8.65855
nia	-8.65862
▁7	-8.65917
lag	-8.65951
▁sokkal	-8.66235
▁sajtó	-8.66365
▁miniszterelnök	-8.66516
▁hang	-8.66572
▁hitel	-8.66809
▁válság	-8.67198
jában	-8.67437
▁MTI	-8.67463
▁kedden	-8.67604
▁Gábor	-8.68051
▁szerződés	-8.68171
ított	-8.68219
ment	-8.68229
▁egyes	-8.68236
tér	-8.68288
▁összeg	-8.68414
ap	-8.6862
▁november	-8.68776
▁lát	-8.69145
▁ismét	-8.69181
▁re	-8.69302
nal	-8.69423
áció	-8.6946
▁tér	-8.69567
▁részt	-8.69581
▁Magyarországon	-8.6963
▁keres	-8.69728
ozás	-8.69764
▁én	-8.69826
lat	-8.70009
ikus	-8.70031
de	-8.70119
▁1	-8.70386
der	-8.70648
▁döntés	-8.7079
▁vele	-8.70978
▁semmi	-8.71082
▁képviselő	-8.71175
▁egyelőre	-8.71198
▁gyerek	-8.71308
▁egyetlen	-8.71389
zet	-8.71492
▁érték	-8.71643
▁legyen	-8.71732
▁vár	-8.71807
▁jelentette	-8.71844
▁elleni	-8.71919
ált	-8.71955
▁március	-8.7219
▁erős	-8.72286
op	-8.7229
▁nyom	-8.7229
▁egyébként	-8.72307
ezés	-8.72316
ező	-8.72676
▁mely	-8.72807
▁évben	-8.73033
th	-8.73055
▁szintén	-8.73087
▁kép	-8.73214
▁oldal	-8.73225
▁igaz	-8.73282
▁évek	-8.73603
▁követően	-8.73695
▁csütörtökön	-8.73984
ését	-8.74227
▁27	-8.74406
▁pénteken	-8.74456
fog	-8.7451
▁tudja	-8.74551
▁gól	-8.74801
▁nyolc	-8.74942
okban	-8.75042
▁30	-8.75134
nő	-8.75143
lo	-8.75211
kkal	-8.75804
ga	-8.75946
éből	-8.76013
▁mindenki	-8.76175
▁egyre	-8.76679
▁hosszú	-8.76695
▁Sa	-8.76792
▁24	-8.77067
ébe	-8.77073
▁sport	-8.77221
▁25	-8.77591
oknak	-8.77704
ony	-8.77747
▁álló	-8.77811
▁végül	-8.7811
▁dollár	-8.78195
nk	-8.78462
ekre	-8.78598
▁ok	-8.78663
▁Budapest	-8.78789
▁megyei	-8.78911
ke	-8.78947
▁magán	-8.78973
▁társaság	-8.79051
▁magas	-8.79062
mp	-8.79116
▁abban	-8.79309
▁eljárás	-8.79313
▁ill	-8.79416
vet	-8.79449
▁először	-8.79449
csak	-8.79596
▁előző	-8.79619
▁tehát	-8.79858
▁gazdaság	-8.8042
▁ebben	-8.80422
▁kisebb	-8.80458
▁Sport	-8.80478
▁22	-8.80498
ug	-8.80623
▁siker	-8.80663
▁ismert	-8.80676
▁helyett	-8.80679
ekben	-8.80733
si	-8.80738
▁politikus	-8.80813
szk	-8.80891
ell	-8.80947
▁János	-8.81105
▁bor	-8.81107
▁brit	-8.81112
▁motor	-8.81233
▁amelynek	-8.81235
▁készült	-8.81239
▁nyert	-8.81254
▁benne	-8.81428
▁miután	-8.81625
öv	-8.81737
▁növekedés	-8.81745
▁talál	-8.81807
usz	-8.81833
ce	-8.8185
ív	-8.81948
▁vezetője	-8.82225
zik	-8.82229
▁hiány	-8.82328
ügy	-8.82399
▁Mint	-8.82429
▁délután	-8.82546
len	-8.82564
▁György	-8.82628
ral	-8.82938
▁határ	-8.83126
▁Ba	-8.83137
▁szükséges	-8.83151
ésére	-8.8335
ozó	-8.83392
▁rend	-8.83494
▁nyugdíj	-8.83512
lan	-8.8353
sége	-8.83581
ós	-8.83618
▁ír	-8.83727
gel	-8.83901
▁elv	-8.84091
▁26	-8.84098
▁Re	-8.84183
▁miniszter	-8.84282
▁föld	-8.84316
▁mérkőzés	-8.84365
mal	-8.84365
ítés	-8.84374
vezető	-8.84392
▁Jobbik	-8.84547
▁kör	-8.84575
iz	-8.84589
▁Tamás	-8.84617
▁legalább	-8.84733
bor	-8.84809
▁szerepel	-8.84946
▁fiatal	-8.85057
▁közép	-8.85122
oly	-8.85419
kép	-8.85467
telen	-8.85737
▁idei	-8.85806
ton	-8.85825
▁írta	-8.85926
▁jelenlegi	-8.85984
▁Mo	-8.86112
▁lehetőség	-8.86151
▁nehéz	-8.86152
elme	-8.86173
▁kapcsolatban	-8.86222
ással	-8.8632
ája	-8.86477
▁valaki	-8.86542
man	-8.86559
ány	-8.86608
▁teljesen	-8.86649
enek	-8.86651
éhez	-8.86661
▁mégis	-8.86703
okon	-8.86716
▁kellene	-8.86742
nem	-8.86774
bi	-8.86909
▁felé	-8.86933
▁reggel	-8.86953
szor	-8.87101
▁hó	-8.87106
▁Ferenc	-8.87154
▁közös	-8.87156
▁Ro	-8.87413
▁feladat	-8.87435
éssel	-8.87635
▁piac	-8.87647
meg	-8.87871
tó	-8.87934
rend	-8.88134
▁bizottság	-8.88185
▁EU	-8.88278
ssz	-8.8832
ést	-8.88489
▁száma	-8.88504
▁szem	-8.88545
▁21	-8.88594
▁Nemzeti	-8.88643
▁válogatott	-8.88659
mel	-8.88693
▁körül	-8.8873
▁rövid	-8.88923
▁eset	-8.89084
üket	-8.89097
áj	-8.89118
30	-8.89128
har	-8.89191
▁rossz	-8.89247
ista	-8.89303
ához	-8.89345
▁Vi	-8.89425
hatja	-8.89426
▁hónap	-8.89497
▁személy	-8.89542
▁választ	-8.89705
zen	-8.89785
▁És	-8.89898
▁néz	-8.89983
▁rendőrök	-8.90034
rendszer	-8.90116
osan	-8.90142
▁per	-8.90183
▁Zrt	-8.90443
beli	-8.90528
1-	-8.9054
vány	-8.90552
▁jel	-8.90684
oló	-8.90789
ég	-8.90794
▁cikk	-8.90828
aj	-8.90965
▁lakás	-8.91013
▁Egyesül	-8.91219
▁esetben	-8.91396
▁in	-8.91458
▁cím	-8.91459
▁tartott	-8.91473
zett	-8.91497
co	-8.91502
▁közben	-8.9152
cz	-8.9153
per	-8.91548
▁kár	-8.9158
▁ezen	-8.91602
do	-8.91607
▁Zoltán	-8.91636
ására	-8.91713
hal	-8.91752
▁New	-8.91816
ber	-8.91977
▁persze	-8.92017
▁miért	-8.92166
▁február	-8.9219
▁mit	-8.92342
▁száz	-8.92453
▁jut	-8.92521
ca	-8.92649
▁gáz	-8.92652
▁ahogy	-8.9277
▁forintos	-8.93013
▁azok	-8.93233
▁nemzeti	-8.9327
▁lépés	-8.93276
▁23	-8.93324
▁költségvetés	-8.93329
me	-8.93488
▁test	-8.93488
▁otthon	-8.93547
ill	-8.93568
▁ugyanakkor	-8.9371
▁terület	-8.93781
id	-8.93841
adás	-8.93995
zott	-8.94175
▁csupán	-8.94188
▁senki	-8.94192
eken	-8.94194
▁50	-8.94252
▁pénzügyi	-8.94489
▁vizsgálat	-8.94649
ner	-8.94785
▁se	-8.9482
▁BKV	-8.94957
▁megfelelő	-8.95014
▁Viktor	-8.95054
20	-8.95173
▁játékos	-8.95357
eknek	-8.95375
▁megoldás	-8.95437
▁baleset	-8.95505
▁francia	-8.95595
▁Bár	-8.95645
tunk	-8.9566
▁valami	-8.95731
▁április	-8.95732
▁kampány	-8.95795
▁klub	-8.95887
ür	-8.95897
ették	-8.9604
▁százaléka	-8.96087
▁talán	-8.96234
▁tanulmány	-8.96297
▁tiszt	-8.96323
▁összesen	-8.96392
öm	-8.96407
talan	-8.96498
▁héten	-8.9677
▁emlék	-8.96964
einek	-8.96968
olás	-8.97031
▁adat	-8.97031
zel	-8.97074
▁rész	-8.97078
▁legtöbb	-8.9711
▁épület	-8.97203
▁érdekében	-8.97451
koz	-8.97479
▁jobban	-8.98114
jával	-8.98171
▁hagy	-8.98266
▁zár	-8.98332
bl	-8.98375
▁meccs	-8.98433
ította	-8.9845
ll	-8.98536
▁Gy	-8.98617
ülés	-8.98629
ró	-8.98767
▁Bar	-8.99093
▁kíván	-8.99243
▁Br	-8.99275
▁eredmény	-8.99863
▁élő	-8.99937
lik	-9.00238
no	-9.0034
akat	-9.00391
▁készül	-9.00434
hatnak	-9.00514
▁utal	-9.00626
▁Ezt	-9.00837
▁200	-9.00891
▁jelen	-9.00971
▁ezelőtt	-9.0115
▁vi	-9.01214
▁Li	-9.01403
▁András	-9.0147
ger	-9.01522
szerű	-9.01535
▁nép	-9.01587
'	-9.01677
heti	-9.01892
alma	-9.02008
▁uniós	-9.0222
var	-9.02267
▁aztán	-9.02338
▁Világ	-9.02354
lak	-9.0236
kon	-9.02384
▁modell	-9.02527
▁várható	-9.02529
ór	-9.02639
vár	-9.02694
▁elején	-9.02785
lés	-9.02872
▁elsősorban	-9.02889
▁Itthon	-9.02991
▁vett	-9.0306
tör	-9.03061
ink	-9.03307
▁lép	-9.03365
▁intézmény	-9.03379
mond	-9.0357
▁emel	-9.036
▁indult	-9.03637
anyag	-9.0371
ától	-9.03934
jára	-9.03947
osz	-9.04105
▁jelölt	-9.04105
▁lány	-9.04138
▁mér	-9.04172
▁Na	-9.04265
sága	-9.04293
to	-9.04317
▁olasz	-9.0441
▁különböző	-9.04491
▁gy	-9.04501
elem	-9.04549
▁Fel	-9.04625
▁sőt	-9.04809
▁információ	-9.04878
ítani	-9.04923
nie	-9.0497
▁jegy	-9.05106
▁irány	-9.05134
▁Ne	-9.05198
▁komoly	-9.0521
▁vagyis	-9.05315
ög	-9.05327
▁darab	-9.05345
▁ára	-9.05439
▁rendőr	-9.0546
▁hivatal	-9.05493
▁keresztül	-9.0555
▁ter	-9.05567
▁fejlesztés	-9.05713
▁egyszer	-9.05834
▁Sándor	-9.05853
▁külföldi	-9.05853
and	-9.05979
▁gyors	-9.05985
▁Ra	-9.06076
ítő	-9.06159
▁képes	-9.06164
▁javaslat	-9.0618
ze	-9.06215
▁számos	-9.06244
▁József	-9.06392
▁40	-9.06436
▁MDF	-9.065
ud	-9.06511
ót	-9.06558
▁maradt	-9.06563
▁közé	-9.06618
mű	-9.06622
áll	-9.0663
▁szív	-9.06857
▁állt	-9.07031
ev	-9.07032
▁spanyol	-9.07083
▁óra	-9.07112
▁r	-9.07151
▁hív	-9.07268
ven	-9.07327
▁külön	-9.07504
▁vállal	-9.07509
▁lehetett	-9.07522
▁al	-9.0758
jai	-9.07596
▁Ko	-9.07686
2-	-9.07691
▁Index	-9.07698
▁módon	-9.07711
▁kezd	-9.07804
▁jutott	-9.08011
fa	-9.08035
ck	-9.08088
▁vesz	-9.08169
▁fizet	-9.08183
▁hogyan	-9.08193
▁oda	-9.0823
séget	-9.08609
▁vagyok	-9.08658
▁vagyon	-9.08673
▁súlyos	-9.08682
csi	-9.08729
dal	-9.08824
▁ünnep	-9.08846
▁nemcsak	-9.08861
▁bér	-9.08938
▁mű	-9.09086
▁nők	-9.09111
pi	-9.09201
▁Rendőr	-9.09219
▁indul	-9.09325
atlan	-9.09354
féle	-9.09355
▁esetében	-9.09435
érték	-9.09468
anak	-9.0957
▁évi	-9.09571
gu	-9.09593
▁környezet	-9.09615
csoport	-9.09684
pp	-9.09723
ások	-9.09831
▁előre	-9.09854
▁fény	-9.09906
▁kapcsolat	-9.09926
út	-9.09956
men	-9.09989
zat	-9.10056
▁Ennek	-9.10098
ített	-9.10105
▁teljesítmény	-9.1012
▁fok	-9.10184
ukat	-9.10221
ff	-9.1023
▁nőtt	-9.10286
▁kar	-9.10537
▁parlament	-9.10558
▁döntő	-9.10559
▁gép	-9.10579
▁kevesebb	-9.1061
▁október	-9.10616
▁Á	-9.10696
▁egykori	-9.10735
új	-9.10799
ru	-9.10805
▁időszak	-9.10845
hetetlen	-9.11117
▁ide	-9.1112
▁100	-9.11227
▁műsor	-9.1127
go	-9.11332
▁Di	-9.11501
▁kutatás	-9.11609
▁budapesti	-9.11838
▁érintett	-9.12102
▁gondol	-9.12191
▁Új	-9.12541
▁szóvivője	-9.12564
▁kapcsolatos	-9.12595
ási	-9.126
▁Már	-9.12633
▁dél	-9.1264
pont	-9.1265
▁összes	-9.12671
▁beszél	-9.12736
sen	-9.12745
▁Így	-9.12756
▁tagja	-9.12863
▁látható	-9.12865
▁erő	-9.12924
▁bal	-9.13026
hogy	-9.13073
▁azaz	-9.13139
bo	-9.13153
▁önkormányzat	-9.13181
ika	-9.13409
▁28	-9.13412
▁média	-9.13415
▁addig	-9.1345
▁Több	-9.13566
gi	-9.13649
▁haza	-9.13661
▁Mar	-9.13711
▁helyszín	-9.1374
▁próbál	-9.13839
▁He	-9.14045
po	-9.14082
▁fotó	-9.1411
▁kínai	-9.1413
▁években	-9.1425
▁megjelent	-9.14324
▁Két	-9.14408
▁közötti	-9.14418
▁többi	-9.14605
▁jött	-9.14708
▁játszott	-9.14839
▁2.	-9.15163
SZ	-9.15174
ard	-9.15258
▁idején	-9.15267
▁fi	-9.15286
▁történet	-9.15345
▁szél	-9.15349
sh	-9.15369
mu	-9.15394
▁baj	-9.15402
ép	-9.15443
▁Kft	-9.15455
▁végzett	-9.15467
▁nyelv	-9.1547
tan	-9.15471
▁angol	-9.15587
▁számít	-9.15646
▁ahhoz	-9.15715
▁gond	-9.15754
▁ők	-9.15828
▁polgármester	-9.159
▁kockázat	-9.15917
▁fogalmazott	-9.15963
▁n	-9.16087
lal	-9.16153
▁Megye	-9.16235
▁forduló	-9.16238
endő	-9.16265
▁nevű	-9.16275
lap	-9.1634
▁szín	-9.16345
izmus	-9.16365
hatatlan	-9.16387
U	-9.16405
millió	-9.16582
üt	-9.16611
▁hatás	-9.16685
▁Még	-9.16715
▁Gazdaság	-9.16754
▁2010-	-9.16815
▁vonatkozó	-9.16874
▁Ta	-9.17029
▁hát	-9.17081
ád	-9.17194
jen	-9.17234
▁országos	-9.17281
öd	-9.17414
▁választás	-9.17485
éves	-9.17523
védelmi	-9.17698
▁átlag	-9.17758
▁állás	-9.17875
ották	-9.1795
ves	-9.17966
▁tudott	-9.17998
▁tevékenység	-9.18009
tart	-9.18041
▁többször	-9.18133
▁osztály	-9.18144
▁di	-9.1829
iai	-9.18305
▁érdek	-9.18309
hetnek	-9.18363
szak	-9.18403
50	-9.18525
▁szombaton	-9.18571
mo	-9.18574
▁ismer	-9.18619
▁tanács	-9.18624
get	-9.18673
zon	-9.18742
ou	-9.18899
dás	-9.18988
von	-9.19012
▁érkezett	-9.19017
mar	-9.19109
▁adatok	-9.19145
▁előzetes	-9.19184
tette	-9.19192
▁olvasható	-9.19249
vonal	-9.19302
▁tr	-9.19324
ep	-9.19331
ainak	-9.19395
▁2009-	-9.19581
▁született	-9.196
▁hol	-9.19666
▁Pa	-9.19742
jegy	-9.19749
kkel	-9.19783
▁Ho	-9.19805
▁valószínűleg	-9.19818
▁(1	-9.19826
▁mögött	-9.19923
▁érte	-9.20018
▁jelentés	-9.20058
▁vér	-9.20193
▁Ezek	-9.20453
jön	-9.20456
ezer	-9.2067
▁Zsolt	-9.20685
ry	-9.20792
▁választási	-9.20831
▁sí	-9.2103
▁mondja	-9.21139
▁forrás	-9.21291
▁2008-	-9.21366
▁állapot	-9.21398
▁mutat	-9.21452
▁valóban	-9.21526
▁sokat	-9.21607
alap	-9.21749
▁húsz	-9.2175
▁egymás	-9.21787
▁azonnal	-9.2182
▁z	-9.21825
▁beszélt	-9.21998
▁sorozat	-9.22149
▁alig	-9.22175
zni	-9.22442
kör	-9.22547
▁Attila	-9.22558
pe	-9.22589
▁tudta	-9.22615
▁ingatlan	-9.22813
▁század	-9.22884
▁kon	-9.22894
esebb	-9.22932
▁Országos	-9.22958
▁szeret	-9.23061
▁Lu	-9.23089
▁bevétel	-9.23115
▁Hu	-9.23152
▁pályázat	-9.23175
▁esett	-9.23197
etlen	-9.23419
▁Ti	-9.23483
▁méter	-9.23534
séggel	-9.23612
▁In	-9.23712
assa	-9.23759
▁Ja	-9.23822
ságot	-9.23832
▁hivatalos	-9.23888
szó	-9.23894
▁egyéni	-9.23906
▁dolgozó	-9.23993
▁szereplő	-9.24107
ow	-9.24111
min	-9.24252
▁Ny	-9.24287
▁2008	-9.24358
▁tulajdon	-9.24371
▁alkotmány	-9.24411
▁üzlet	-9.24443
W	-9.24613
▁előny	-9.24669
▁mai	-9.24724
▁eddigi	-9.24758
▁igény	-9.2477
▁női	-9.2484
▁ráadásul	-9.24873
▁cégek	-9.2517
sor	-9.25191
▁tartja	-9.25198
▁kiadás	-9.25353
▁pénzt	-9.2541
▁hatalmas	-9.25427
ozott	-9.25433
▁tudni	-9.25455
▁men	-9.25498
főkapitányság	-9.25499
▁teszi	-9.25536
▁hatóságok	-9.25578
▁akció	-9.2558
tuk	-9.25585
▁döntött	-9.25655
J	-9.25674
ass	-9.26114
jár	-9.26209
▁tagjai	-9.26309
szel	-9.2632
▁Er	-9.26395
▁régi	-9.26424
▁tartó	-9.26431
▁készített	-9.26437
▁haj	-9.2653
▁felelős	-9.26538
nék	-9.26675
▁Köz	-9.26698
film	-9.26718
▁szerzett	-9.2674
edett	-9.26818
▁ti	-9.26858
▁kiderült	-9.26904
politik	-9.27149
ho	-9.27173
▁szerző	-9.27198
ká	-9.27203
ac	-9.27257
szi	-9.27341
▁lakó	-9.27404
▁parlamenti	-9.27446
▁igazol	-9.27523
ler	-9.27536
gép	-9.27544
▁megy	-9.27604
▁utas	-9.27682
▁vál	-9.27798
asz	-9.27801
▁tag	-9.27875
csapat	-9.27969
▁fogad	-9.27988
▁várhatóan	-9.2803
jének	-9.2811
▁Se	-9.28169
▁szakmai	-9.28173
3-	-9.28192
▁hi	-9.28259
▁ad	-9.28357
ségét	-9.28401
ip	-9.28402
▁tűnik	-9.2845
▁Ch	-9.28626
▁azonos	-9.28651
őd	-9.28652
ekről	-9.28666
okból	-9.28688
▁4-	-9.28693
▁esetén	-9.28717
▁férfit	-9.28722
▁azóta	-9.28784
▁tévé	-9.28864
föld	-9.28955
világ	-9.28958
▁Miklós	-9.28991
▁mindössze	-9.28996
▁vezet	-9.29045
▁kicsit	-9.29058
del	-9.29122
ind	-9.29202
▁Van	-9.29358
▁folyamatosan	-9.29491
▁országban	-9.29572
sé	-9.29579
▁1.	-9.29603
▁Lajos	-9.29671
▁költségvetési	-9.29672
▁díj	-9.2977
ásra	-9.29812
▁tömeg	-9.29829
▁jelenti	-9.29849
ési	-9.29909
▁támadás	-9.30051
▁többség	-9.30088
olta	-9.30098
▁tűz	-9.30128
▁198	-9.30137
▁azokat	-9.30206
▁BL	-9.3028
év	-9.30298
▁fa	-9.30307
▁vette	-9.30418
▁szép	-9.30422
▁termék	-9.3051
▁Most	-9.30586
vény	-9.3062
▁halad	-9.30697
okról	-9.30747
vas	-9.30761
▁tenni	-9.30783
▁együttes	-9.30826
▁őt	-9.30917
▁Ber	-9.31011
ron	-9.31103
▁nyilatkozta	-9.31135
tikus	-9.31218
▁Pál	-9.31264
ács	-9.31265
ón	-9.31274
▁kilenc	-9.31303
▁York	-9.31323
▁[	-9.31351
▁vállalat	-9.31378
▁szövetség	-9.31401
tük	-9.31443
▁hal	-9.31462
▁gyakorlat	-9.31592
ezett	-9.31598
▁sérülés	-9.31708
felé	-9.31759
▁Eb	-9.31776
alom	-9.31819
▁kezelés	-9.32269
▁mostani	-9.32321
▁csökken	-9.32374
▁Pi	-9.32378
ásával	-9.324
▁többek	-9.32877
▁nyújt	-9.32932
▁orvos	-9.33
▁többet	-9.33023
▁3.	-9.33105
▁rendez	-9.33165
▁követ	-9.33175
▁vendég	-9.33216
▁elé	-9.33309
▁folytat	-9.33337
▁Budapesten	-9.33356
▁energia	-9.3344
ang	-9.33462
▁gyerekek	-9.33467
▁végig	-9.33599
▁szint	-9.33735
▁emberi	-9.33743
▁észak	-9.33752
▁neve	-9.33835
tünk	-9.33951
▁forinttal	-9.34077
ge	-9.34115
▁olvas	-9.34152
▁indított	-9.34335
▁mindent	-9.34398
▁végre	-9.34414
ros	-9.34455
▁Car	-9.3457
▁annyira	-9.3457
▁vád	-9.34575
▁Da	-9.34579
▁alakul	-9.34642
han	-9.34745
▁nevez	-9.34793
▁kevés	-9.34853
úr	-9.34903
szem	-9.3491
▁er	-9.34929
▁29	-9.34929
▁főváros	-9.34938
▁felvétel	-9.34966
▁Úgy	-9.35142
▁pontos	-9.35226
▁akinek	-9.35458
▁keret	-9.35676
▁válasz	-9.35714
mány	-9.35723
▁szezon	-9.35775
▁bűn	-9.35832
br	-9.35834
▁bizonyos	-9.35867
▁módszer	-9.35891
knak	-9.35952
▁tudom	-9.35963
▁veszély	-9.3625
▁halál	-9.36526
▁csúcs	-9.36534
▁listá	-9.36683
▁köt	-9.36701
▁Dr	-9.3675
▁kormányfő	-9.36794
▁terv	-9.3681
▁lak	-9.36817
▁vezetés	-9.36865
▁ta	-9.36867
▁közt	-9.37075
▁számol	-9.37223
▁mond	-9.3723
▁hete	-9.37244
▁projekt	-9.37282
elés	-9.37283
▁negyedik	-9.37319
▁X	-9.37433
▁arc	-9.37509
olni	-9.376
▁előbb	-9.37608
ko	-9.37652
tag	-9.37725
▁belső	-9.37788
▁mindkét	-9.37793
lát	-9.37809
▁található	-9.37835
▁Co	-9.37896
▁Államok	-9.3814
Z	-9.38154
▁Egyetem	-9.38221
▁lenni	-9.38439
ály	-9.38457
könyv	-9.38457
he	-9.3849
▁vagyunk	-9.38534
▁folyamat	-9.38541
for	-9.38568
▁kötelező	-9.38571
▁2009	-9.386
▁karácsony	-9.38664
▁St	-9.3874
építés	-9.38931
▁Unió	-9.3897
▁időben	-9.38979
▁biztonsági	-9.38992
▁fehér	-9.39084
▁Ben	-9.3917
▁figyelmet	-9.39209
▁részét	-9.39233
▁2011-	-9.3938
▁azon	-9.39393
▁különösen	-9.39553
+	-9.39577
atás	-9.39591
▁du	-9.39694
▁Nemzet	-9.39731
▁szolgáltatás	-9.39734
▁kocsi	-9.39748
▁vet	-9.39798
díj	-9.39807
ium	-9.39855
▁Csak	-9.39932
▁enged	-9.39994
▁felmérés	-9.4002
▁Bu	-9.40057
▁sokan	-9.40075
▁1-	-9.40106
▁ügyben	-9.40133
10	-9.40183
▁testület	-9.40222
▁embert	-9.40294
▁tényleg	-9.4035
▁nyer	-9.40388
dő	-9.40511
jel	-9.40535
▁Ri	-9.40577
▁viszony	-9.40613
▁The	-9.40678
ős	-9.40763
▁tanul	-9.40773
▁adatai	-9.40824
▁busz	-9.41003
ex	-9.41066
▁Online	-9.41083
▁figyel	-9.41141
játék	-9.41154
író	-9.41176
▁történelmi	-9.41192
▁Jo	-9.41195
áló	-9.41298
ember	-9.41302
▁Minden	-9.41347
lel	-9.41422
elte	-9.41462
autó	-9.41494
▁miközbe	-9.4157
▁fővárosi	-9.41703
▁használt	-9.4172
lin	-9.41758
sok	-9.41776
▁szét	-9.41795
étől	-9.41916
▁harc	-9.41965
▁felelősség	-9.42003
▁egyáltalán	-9.42005
▁ülés	-9.42027
▁írás	-9.42029
áig	-9.42045
ide	-9.42159
▁esemény	-9.42168
lt	-9.42197
hallgat	-9.42202
▁Ca	-9.4222
▁kísérlet	-9.42279
▁Gyurcsány	-9.42315
▁változat	-9.42322
▁dolog	-9.4247
irat	-9.42508
▁hoz	-9.42543
▁változás	-9.42593
tív	-9.42631
▁ül	-9.42847
▁Dél	-9.42931
▁sérült	-9.42972
▁államtitkár	-9.43107
▁60	-9.43196
▁tervezett	-9.43199
▁foglalkoz	-9.43222
▁vizsgál	-9.43227
▁hideg	-9.43249
▁meleg	-9.43279
▁Fi	-9.433
▁érdemes	-9.43382
bu	-9.43451
▁rendezvény	-9.43488
▁tulajdonos	-9.43554
ozni	-9.43578
▁mély	-9.43582
ésével	-9.43605
zz	-9.43645
dik	-9.43774
▁sors	-9.43849
▁legfontosabb	-9.43876
▁anyag	-9.43921
▁hangsúlyozta	-9.43937
▁2010	-9.4395
▁Azt	-9.43952
▁telefon	-9.4396
7-	-9.44182
▁szándék	-9.44191
▁általános	-9.44197
lá	-9.44219
▁arany	-9.44232
esz	-9.44237
▁akit	-9.44242
ics	-9.44279
▁választások	-9.44302
▁von	-9.44311
▁futball	-9.44376
▁Hi	-9.44438
mat	-9.44495
▁jóval	-9.44504
▁szocialista	-9.44507
▁fizetés	-9.44522
ezte	-9.446
▁tavalyi	-9.44651
▁jármű	-9.44672
gr	-9.44692
▁adta	-9.44716
enként	-9.44749
▁általában	-9.44758
▁eredeti	-9.44795
▁működés	-9.44828
▁erről	-9.4492
▁pontosan	-9.44926
▁bel	-9.44979
▁Ga	-9.45031
est	-9.45105
▁természetesen	-9.45196
▁tan	-9.45206
▁mer	-9.45221
▁tör	-9.45226
▁egyetem	-9.45334
▁évre	-9.45356
▁ellenőrzés	-9.45395
▁tény	-9.45448
-1	-9.45476
▁ekkor	-9.45493
▁jövőre	-9.45545
▁őr	-9.45553
▁állat	-9.45576
kar	-9.45621
ré	-9.45675
▁Te	-9.45725
▁kül	-9.45918
▁célja	-9.45941
▁lehetne	-9.45966
▁maguk	-9.45999
sék	-9.46018
▁magasabb	-9.46022
mos	-9.46045
▁lakosság	-9.46109
▁svájci	-9.46186
▁jön	-9.46189
8-	-9.46205
▁olvasó	-9.46263
míg	-9.46268
tál	-9.46277
▁betegség	-9.4634
12	-9.46344
▁Bizottság	-9.46426
form	-9.46545
com	-9.46562
ju	-9.46584
org	-9.46631
▁forgalom	-9.4671
▁eső	-9.46713
▁király	-9.46802
▁problémá	-9.46891
▁Kar	-9.46892
▁kutatók	-9.46897
▁nyilatkozat	-9.46943
osabb	-9.46969
▁Ku	-9.46983
▁ítélet	-9.47141
▁Ar	-9.47249
▁Bank	-9.47306
▁tárgyal	-9.47347
▁part	-9.47426
▁tudják	-9.47447
tartás	-9.47457
▁róla	-9.47546
▁egyéb	-9.47728
pr	-9.47741
▁mar	-9.47743
▁csomag	-9.47791
▁kötött	-9.47806
▁Bal	-9.47821
▁jogi	-9.47837
▁Sch	-9.47856
▁használat	-9.47906
▁jövőben	-9.48064
▁fideszes	-9.48097
▁szolgál	-9.48125
idő	-9.48138
▁fiú	-9.48161
6-	-9.48191
▁lesznek	-9.48323
▁hétfő	-9.48333
ánál	-9.48357
űr	-9.48381
▁hozott	-9.48384
▁üzem	-9.48406
ódott	-9.48456
▁fal	-9.48541
▁elem	-9.48541
▁Kovács	-9.48547
▁bíz	-9.4859
▁május	-9.48712
▁egészen	-9.48726
▁igazgatója	-9.48784
▁kész	-9.48806
szik	-9.4887
▁Lo	-9.48992
▁kamat	-9.4906
▁barát	-9.49062
▁zavar	-9.49121
▁kés	-9.49137
▁járt	-9.49152
ottak	-9.4917
▁Mind	-9.49219
▁idéz	-9.49223
íteni	-9.49232
▁találtak	-9.49233
tin	-9.49312
▁áldozat	-9.49324
▁hozta	-9.49407
vég	-9.49443
▁román	-9.49451
▁tölt	-9.49528
▁biztosít	-9.49542
tani	-9.49597
▁esély	-9.49648
ec	-9.49664
tetés	-9.49715
▁föl	-9.49722
▁Szabó	-9.49735
▁igazán	-9.49745
gen	-9.49778
40	-9.49804
▁Mol	-9.49806
ej	-9.49844
▁vége	-9.49847
▁fogja	-9.49878
▁csinál	-9.49913
▁Sza	-9.49918
köz	-9.50099
omb	-9.501
▁szöveg	-9.50141
▁igazgató	-9.50237
▁munkahely	-9.50268
▁soha	-9.50372
▁használ	-9.50549
▁megállapodás	-9.50652
▁So	-9.50701
▁kora	-9.5071
ford	-9.50713
▁poszt	-9.50769
▁vezetői	-9.50791
társa	-9.50807
edik	-9.50838
▁Géza	-9.50883
▁épít	-9.50938
▁internetes	-9.50946
▁társadalmi	-9.50963
verseny	-9.51001
▁úgynevezett	-9.51051
▁olaj	-9.51056
▁nekik	-9.51057
▁bo	-9.51119
▁gyár	-9.5116
áért	-9.51187
▁Tanács	-9.51221
▁gyanúsított	-9.51344
zák	-9.51357
▁témá	-9.5139
▁szabály	-9.51405
Az	-9.51427
▁hit	-9.51578
▁En	-9.51609
szint	-9.51784
▁írt	-9.5181
▁Tr	-9.51879
▁sikeres	-9.51979
▁annyi	-9.5199
átor	-9.52076
fő	-9.52175
▁visel	-9.52239
her	-9.52254
▁központ	-9.52257
▁Mag	-9.52262
▁piaci	-9.5228
▁35	-9.52282
▁rajta	-9.52293
▁visszatér	-9.52298
▁tenger	-9.52464
két	-9.52568
▁különbség	-9.52578
száz	-9.52608
kap	-9.52613
▁település	-9.52621
▁beteg	-9.52629
15	-9.52631
▁napokban	-9.52635
▁iskola	-9.52641
au	-9.52674
▁ke	-9.5269
▁szakasz	-9.52701
▁távol	-9.52738
▁társadalom	-9.52756
▁segítségével	-9.52787
▁tesz	-9.5279
▁tárgyalás	-9.52792
▁nappal	-9.52953
▁egészségügyi	-9.52995
▁létre	-9.53027
▁arány	-9.53034
mentes	-9.53036
▁védő	-9.53226
ásának	-9.53229
▁eszköz	-9.53293
▁kórház	-9.53397
▁folyó	-9.5344
▁lengyel	-9.53447
dó	-9.5357
▁2006-	-9.5362
▁tudnak	-9.53623
▁láb	-9.53628
▁ehhez	-9.53642
▁Kor	-9.53678
▁indít	-9.53693
▁magyarországi	-9.53715
▁LMP	-9.53793
▁ebből	-9.53794
hatják	-9.53809
▁szeptember	-9.53828
ruhá	-9.53887
▁igazi	-9.5398
▁vélemény	-9.53998
vétel	-9.54006
gat	-9.54065
▁délelőtt	-9.54146
▁hatóság	-9.54182
met	-9.54191
tu	-9.54204
▁érdekes	-9.5425
4-	-9.54305
▁kért	-9.54312
▁Ezzel	-9.54398
▁járó	-9.54418
▁beruházás	-9.54434
▁találkozó	-9.54488
▁hangulat	-9.54492
ina	-9.54495
▁országok	-9.5454
álta	-9.54617
▁ismeretlen	-9.54756
▁Bor	-9.54799
▁író	-9.54806
▁Bi	-9.54826
origo	-9.54843
dy	-9.54863
▁részben	-9.54882
▁együttműködés	-9.55049
▁családi	-9.55195
ések	-9.55306
▁kezel	-9.55325
▁adósság	-9.55389
▁követel	-9.5541
▁2011	-9.55433
land	-9.556
ay	-9.55709
▁péntek	-9.55724
▁nyomozás	-9.55753
▁fordít	-9.55808
9-	-9.55863
▁férfiak	-9.55898
▁őrizetbe	-9.55915
▁színész	-9.55916
ens	-9.56001
▁attól	-9.56033
▁téli	-9.56053
end	-9.56055
▁minisztérium	-9.56078
hetik	-9.56116
▁szakember	-9.56175
▁Ő	-9.56219
▁jogszabály	-9.56237
▁labdarúgó	-9.56256
▁dokumentum	-9.56281
und	-9.56334
▁ver	-9.56447
mennyiben	-9.56464
▁jelentősen	-9.56507
járó	-9.5651
▁köszönhetően	-9.56561
állás	-9.56569
▁épp	-9.56603
dor	-9.56645
▁KA	-9.56733
▁foglal	-9.56816
fer	-9.5683
ákat	-9.56835
▁idegen	-9.56867
▁versenyző	-9.56889
más	-9.56963
már	-9.56976
▁keretében	-9.57051
▁havi	-9.57065
ésre	-9.57073
jelölt	-9.57081
ers	-9.5714
milliárd	-9.57156
▁Szent	-9.5719
csa	-9.57218
▁kutató	-9.57272
▁igazság	-9.57386
▁életét	-9.57441
▁lényeg	-9.57461
ob	-9.57549
port	-9.57553
tud	-9.57605
▁csütörtök	-9.57646
▁Y	-9.57757
▁háború	-9.57774
▁kezdet	-9.57794
▁kilométer	-9.57799
▁Me	-9.57812
▁friss	-9.57821
köd	-9.57858
▁osztrák	-9.58031
▁kelet	-9.58033
▁civil	-9.58053
▁okoz	-9.58075
▁véli	-9.58083
▁fegyver	-9.58148
▁500	-9.58158
▁nyilván	-9.58195
▁portál	-9.58249
országi	-9.5833
▁Ke	-9.58409
▁leginkább	-9.58416
▁szolgálat	-9.58447
▁egyszerű	-9.58568
▁profi	-9.58577
tett	-9.58621
▁épül	-9.58642
▁napon	-9.58781
▁elnökség	-9.58802
írás	-9.5886
▁Fr	-9.58896
▁vág	-9.59008
olva	-9.59018
▁köztük	-9.59099
▁vezette	-9.59131
▁alkalommal	-9.59152
▁formá	-9.59161
▁Ol	-9.592
▁Kis	-9.59202
▁megfelelően	-9.59299
ham	-9.59306
kedés	-9.59404
▁mintha	-9.59449
▁hasonlóan	-9.59469
tató	-9.59566
nya	-9.59577
▁készít	-9.59586
niuk	-9.59607
▁alkalmaz	-9.59638
▁csaknem	-9.59641
5-	-9.59688
▁oka	-9.59694
▁Föld	-9.59702
▁32	-9.59705
dr	-9.59743
fej	-9.59848
▁San	-9.59852
▁körülmények	-9.59886
súly	-9.59889
É	-9.59904
▁videó	-9.60005
▁fordul	-9.60026
ekből	-9.60041
▁szavazat	-9.60055
sorozat	-9.601
▁alkalmazott	-9.60175
▁papír	-9.60268
álni	-9.60298
▁kérte	-9.60323
▁Hogy	-9.60326
▁45	-9.60376
rt	-9.60405
▁Jó	-9.60441
mint	-9.60463
▁Amikor	-9.6049
▁31	-9.60491
▁börtön	-9.60511
▁kapta	-9.60556
▁úton	-9.60571
ein	-9.6059
▁ezeket	-9.6063
▁országgyűlési	-9.60671
▁tervez	-9.6071
25	-9.60717
ították	-9.60818
▁költség	-9.60864
ün	-9.60882
▁5-	-9.60911
oldal	-9.61006
▁bír	-9.61039
▁mo	-9.61179
▁londoni	-9.61184
▁sincs	-9.61185
pl	-9.61227
▁egyház	-9.61234
▁kiállítás	-9.61252
▁to	-9.61274
▁forintra	-9.61301
▁szerda	-9.61351
▁tehet	-9.61437
▁szabadság	-9.61508
▁napi	-9.61604
▁É	-9.61608
▁mikor	-9.61626
höz	-9.61748
▁forgalma	-9.61812
▁természet	-9.61839
▁ég	-9.61925
▁Csaba	-9.61938
▁Hozzátette	-9.61938
▁név	-9.61956
ku	-9.61965
▁százalékát	-9.61999
▁Fa	-9.62016
▁pi	-9.62022
▁elkezd	-9.62043
▁mértékben	-9.62049
▁tervek	-9.62112
▁Antikvárium	-9.62124
▁működő	-9.62124
▁felnőtt	-9.62124
fe	-9.62133
▁Tibor	-9.62148
▁kemény	-9.62152
álás	-9.62217
jenek	-9.62255
▁harmad	-9.62313
lm	-9.62359
▁pro	-9.62372
andó	-9.62441
nel	-9.62482
▁Hivatal	-9.62502
▁működik	-9.62502
▁kapcsán	-9.62503
ológiai	-9.62506
▁győztes	-9.62571
▁előadás	-9.62577
íz	-9.62604
▁Har	-9.62617
álló	-9.62723
▁munkát	-9.6273
isták	-9.62742
▁edző	-9.62826
▁partner	-9.62902
▁Győr	-9.62919
▁bajnok	-9.62932
▁emelkedett	-9.63133
magyar	-9.63134
▁teszt	-9.63138
▁por	-9.63144
▁gyógyszer	-9.63222
▁érvényes	-9.63249
lkotmánybíróság	-9.63264
▁bejelentés	-9.63269
lé	-9.63277
lad	-9.63343
▁jellemző	-9.6346
▁Zs	-9.63484
város	-9.63499
▁szavaz	-9.63517
▁számolt	-9.63598
▁gyakran	-9.63646
▁módosítás	-9.63657
iv	-9.63662
tartó	-9.63737
járat	-9.63807
▁asszony	-9.63815
▁Do	-9.63826
▁oszt	-9.63911
▁segít	-9.63972
▁társ	-9.64037
▁szabályozás	-9.64116
▁la	-9.64163
kér	-9.64193
jt	-9.64314
gar	-9.64322
▁magyarok	-9.64411
▁Po	-9.6442
▁szlovák	-9.64425
▁közönség	-9.64429
▁lehetővé	-9.64429
▁ál	-9.64438
▁dob	-9.64446
atos	-9.64466
terület	-9.64485
ozta	-9.6449
▁kettő	-9.64557
19	-9.64558
▁esz	-9.6457
▁kötet	-9.64612
▁197	-9.64692
jén	-9.647
▁lég	-9.64762
▁gyorsan	-9.64768
▁önkormányzati	-9.64856
kormány	-9.64959
▁alakít	-9.64992
▁iránt	-9.65004
áb	-9.65046
nának	-9.65053
ció	-9.65089
elni	-9.65176
▁blog	-9.65226
▁ígér	-9.65248
▁Oroszország	-9.65256
▁Más	-9.65284
▁bajnoki	-9.65294
▁nyerte	-9.65298
▁végez	-9.65373
▁Országgyűlés	-9.65387
▁tekint	-9.65389
▁gólt	-9.65404
▁vita	-9.65419
▁negyed	-9.65463
▁kedd	-9.65472
ődött	-9.65554
▁görög	-9.65582
ley	-9.65614
▁15-	-9.65693
▁tartani	-9.65734
any	-9.65776
▁jég	-9.65793
má	-9.65794
▁ideje	-9.65914
▁Balázs	-9.65975
▁pillanat	-9.65975
ítette	-9.66025
vári	-9.66028
▁iskolá	-9.66056
▁j	-9.66077
▁szociális	-9.66181
▁had	-9.66186
nák	-9.66292
▁szerep	-9.66321
▁rendező	-9.66323
junk	-9.66344
▁Ugyan	-9.66368
▁szinten	-9.66385
piac	-9.66444
árd	-9.66506
▁június	-9.66565
▁benzin	-9.66565
▁közlekedés	-9.66568
▁múlva	-9.66585
kod	-9.66624
fo	-9.66636
▁bemutat	-9.66669
▁árfolyam	-9.66783
való	-9.66878
só	-9.66925
közben	-9.66931
lét	-9.66949
▁állítólag	-9.66961
▁ügyvéd	-9.66961
▁tartják	-9.67035
ségi	-9.67055
▁80	-9.67059
ami	-9.67064
▁évtized	-9.67094
fizet	-9.67124
▁zárt	-9.67126
▁tudjuk	-9.67138
▁biztosan	-9.67156
▁Károly	-9.67159
köt	-9.67187
▁fizetni	-9.67196
séges	-9.672
cse	-9.67328
▁egyedül	-9.67354
▁körülbelül	-9.67362
▁biztonság	-9.67381
zár	-9.6742
▁nyilvánosságra	-9.67502
vált	-9.67523
▁kulturális	-9.67557
▁tor	-9.67595
▁helyet	-9.67667
▁Szövetség	-9.67696
hang	-9.67713
jében	-9.67813
▁Su	-9.67814
18	-9.67832
osztály	-9.67852
jából	-9.67863
▁engedély	-9.67873
▁alacsony	-9.67921
▁Címké	-9.67956
gyel	-9.67961
▁ötlet	-9.68074
▁figyelmeztet	-9.68158
ezni	-9.68181
sze	-9.68246
ságát	-9.6831
▁régió	-9.68316
▁mag	-9.68414
▁esti	-9.6844
fér	-9.68455
▁házi	-9.68535
▁Imre	-9.68563
▁Nemzetközi	-9.68566
▁lőtt	-9.68625
▁tartozó	-9.68627
▁megyében	-9.68664
▁időjárás	-9.68774
tá	-9.68826
ya	-9.68878
▁Ju	-9.68908
▁annyit	-9.68923
▁támad	-9.68942
ich	-9.68992
erő	-9.68996
▁lehetőséget	-9.6908
▁határozat	-9.69136
▁főleg	-9.69152
▁fekete	-9.69178
rány	-9.69231
▁körében	-9.69238
esse	-9.69247
ké	-9.69251
zal	-9.69299
▁nevezte	-9.69303
▁szakemberek	-9.69314
▁pálya	-9.6932
▁svéd	-9.69369
ügyi	-9.69387
▁töltött	-9.694
▁felett	-9.69447
▁véd	-9.6954
sza	-9.69634
Sz	-9.69654
▁ölt	-9.69719
▁okozott	-9.69732
▁futam	-9.6977
ebben	-9.69772
▁kínál	-9.6982
▁hosszabb	-9.69823
▁hagyományos	-9.69912
nyom	-9.69935
▁Ami	-9.70002
▁befolyás	-9.70017
esek	-9.70033
▁szenvedett	-9.7004
90	-9.7006
▁hány	-9.70065
▁részén	-9.70083
▁hisz	-9.70094
kapcsol	-9.70108
▁kizárólag	-9.70183
▁ennél	-9.70211
▁szerepelt	-9.70268
▁po	-9.70336
▁Bíróság	-9.70388
jelen	-9.70477
▁bar	-9.70502
▁pályán	-9.70506
▁kölcsön	-9.70526
▁utcá	-9.70724
io	-9.70767
▁olimpiai	-9.70786
▁venni	-9.70789
▁könnyű	-9.70842
▁felső	-9.70938
▁talált	-9.71032
mor	-9.71033
▁kapu	-9.71037
▁térség	-9.71079
▁többen	-9.71137
▁70	-9.71163
sch	-9.71238
▁tőle	-9.71317
sta	-9.71367
▁számlá	-9.71373
wa	-9.71387
▁levegő	-9.71419
▁probléma	-9.71419
ítja	-9.71455
▁Kr	-9.715
éd	-9.71545
▁állampolgár	-9.71574
▁Her	-9.71595
▁akarta	-9.71629
▁esetleg	-9.71683
▁minőség	-9.71714
▁tört	-9.7175
oli	-9.71765
▁ajándék	-9.71834
váltás	-9.71877
▁hajó	-9.71897
hol	-9.7197
▁Nap	-9.72005
neve	-9.72032
▁Fővárosi	-9.72046
képpen	-9.72109
íti	-9.72125
▁Gu	-9.72126
cc	-9.7218
▁sztrájk	-9.72185
▁Ge	-9.72189
▁Ed	-9.72265
▁kezdett	-9.72289
▁örök	-9.72293
▁harminc	-9.72371
▁alakult	-9.72381
▁195	-9.72423
▁tartózkod	-9.72464
van	-9.72482
pol	-9.72518
▁bu	-9.72528
tro	-9.72536
rd	-9.72605
▁mell	-9.7263
▁rádió	-9.72675
▁járat	-9.72695
ick	-9.72708
▁küzd	-9.7274
alak	-9.72747
▁Szeged	-9.72779
▁kísér	-9.72823
▁Gi	-9.72921
▁rendkívül	-9.72937
▁szerdai	-9.7302
▁Aki	-9.73048
▁széles	-9.7306
elmi	-9.73088
▁augusztus	-9.73091
▁elkövetett	-9.73091
▁Pécs	-9.73093
▁ro	-9.73107
▁derül	-9.73113
törés	-9.73148
▁szerinte	-9.73158
▁keddi	-9.73169
▁elfogad	-9.73208
par	-9.73242
▁levele	-9.73246
▁valószínű	-9.73259
▁akad	-9.73263
▁mellé	-9.73325
▁reform	-9.73327
av	-9.73336
▁vb	-9.73341
▁okozta	-9.73379
▁hirdet	-9.73391
▁nyújtott	-9.73407
ong	-9.73417
▁világbajnok	-9.73488
▁me	-9.73527
▁csap	-9.73545
▁2007-	-9.73545
▁érdem	-9.73554
▁centiméter	-9.73561
▁mód	-9.73657
ettek	-9.73704
há	-9.73705
▁index	-9.73747
▁állította	-9.73782
▁ügyészség	-9.73795
don	-9.73853
▁Észak	-9.7395
dob	-9.74007
▁honlap	-9.74025
▁magam	-9.74052
tétel	-9.74079
▁zs	-9.74102
▁hallgat	-9.74144
▁belőle	-9.74152
▁Ker	-9.74178
▁építés	-9.74289
program	-9.74325
▁továbbá	-9.74327
▁képvisel	-9.7433
▁tavasz	-9.74365
▁bűncselekmény	-9.7438
▁alkalmas	-9.74413
bán	-9.74485
▁GDP	-9.74507
▁területén	-9.74515
▁bi	-9.74531
törvény	-9.74547
▁Persze	-9.74583
▁kormányzati	-9.74597
▁tartozik	-9.74604
▁ezúttal	-9.74606
▁segítség	-9.74617
▁néző	-9.74623
óta	-9.74657
▁büntetés	-9.74664
pénz	-9.74764
száll	-9.74773
▁fogyasztás	-9.74812
szal	-9.74818
vin	-9.74834
októl	-9.74891
▁lépett	-9.74897
▁másfél	-9.74974
tus	-9.75078
hatott	-9.75079
▁melyek	-9.7511
▁büntető	-9.75153
X	-9.75181
▁mentő	-9.75203
▁beszéd	-9.75221
las	-9.75232
tiszt	-9.75243
▁teljesít	-9.75245
ország	-9.75246
▁300	-9.7529
▁közösségi	-9.753
▁lehetséges	-9.75317
rk	-9.75413
▁táv	-9.75423
▁körüli	-9.75424
▁Budapesti	-9.75433
▁támadó	-9.75525
▁pártok	-9.75533
▁ellenzéki	-9.75544
▁zene	-9.75549
▁gyógy	-9.7556
▁Real	-9.7557
▁vezetett	-9.75572
▁egyszerűen	-9.7562
▁révén	-9.75653
▁külső	-9.75654
▁nyílt	-9.75675
sá	-9.75714
old	-9.75757
fogás	-9.75783
▁kedv	-9.75808
▁To	-9.75821
▁internet	-9.75852
▁Ver	-9.75859
rajz	-9.75889
ana	-9.75924
▁közelében	-9.75924
gő	-9.75925
sági	-9.75941
▁többsége	-9.75943
▁előtti	-9.75983
▁Du	-9.76056
&	-9.76086
▁pozitív	-9.76086
kin	-9.76097
▁Fő	-9.76109
ín	-9.76135
▁vették	-9.7626
▁komment	-9.76319
▁kevésbé	-9.76332
▁pr	-9.76416
▁helyre	-9.765
szervezet	-9.76504
▁boldog	-9.76521
▁Tóth	-9.76522
▁vádlott	-9.76524
▁látszik	-9.76544
▁szakértők	-9.76587
▁másodperc	-9.76621
oszt	-9.76638
▁illetékes	-9.76639
járól	-9.76643
esett	-9.76669
választás	-9.76683
▁Debrecen	-9.7674
▁Igaz	-9.76758
burg	-9.7676
▁bíró	-9.76768
▁anyagi	-9.76805
lam	-9.76844
▁válaszol	-9.76891
ozza	-9.76894
európai	-9.76942
▁fest	-9.76954
▁Népszabadság	-9.76958
nagy	-9.77034
▁egészség	-9.77111
▁36	-9.77141
▁vállalkozás	-9.77147
▁Ezért	-9.77156
emelés	-9.77165
▁telep	-9.7718
▁évig	-9.77182
▁támogat	-9.77205
▁196	-9.77279
edés	-9.77311
etett	-9.77358
zött	-9.77366
▁konkrét	-9.77397
▁japán	-9.77398
oznak	-9.77478
janak	-9.77533
part	-9.77552
képp	-9.77583
▁különleges	-9.77629
▁valóság	-9.77644
óval	-9.77653
uta	-9.77664
ítása	-9.77681
▁Sp	-9.77704
▁percben	-9.77722
párt	-9.77779
szolgáltatás	-9.7778
▁elérhető	-9.77839
▁korlát	-9.77841
▁eszközök	-9.77939
▁sokszor	-9.7794
▁fiatalok	-9.77958
▁infláció	-9.7806
▁mutató	-9.78067
ekhez	-9.78081
▁megtalál	-9.78093
hű	-9.78128
óra	-9.7818
▁szerepet	-9.78224
jék	-9.78272
▁kapus	-9.78293
eivel	-9.783
▁dolgoz	-9.78308
▁vezér	-9.78315
▁független	-9.78367
▁33	-9.78371
les	-9.78417
▁Par	-9.78426
▁rengeteg	-9.78504
▁zöld	-9.78513
▁elemzés	-9.78545
]	-9.78549
▁százalékot	-9.78585
▁nyitott	-9.78608
▁Én	-9.78646
▁akart	-9.78707
▁július	-9.78726
▁regény	-9.78727
gazdaság	-9.78784
▁csillag	-9.78786
▁rendelkező	-9.78855
▁nyug	-9.78948
▁hajlandó	-9.7895
▁eurót	-9.78964
cu	-9.78995
lép	-9.79099
hor	-9.79149
▁szűk	-9.79179
▁mennyi	-9.79408
orvos	-9.79411
▁örül	-9.79415
feljebb	-9.7942
ülő	-9.79431
▁agy	-9.79519
▁sza	-9.79608
▁szánt	-9.79627
▁Szerinte	-9.79656
▁Vas	-9.7967
lu	-9.79673
hetett	-9.79768
log	-9.7977
pal	-9.7978
▁példa	-9.79848
▁napilap	-9.79861
gg	-9.79862
▁kö	-9.79874
▁Ru	-9.79881
▁remény	-9.79883
▁amelyeket	-9.79943
▁mozgás	-9.79973
szeg	-9.80031
kori	-9.80053
ológus	-9.80084
▁évente	-9.80155
ain	-9.80196
▁kiderül	-9.80198
rom	-9.80223
▁mutatja	-9.8028
▁oldalon	-9.80306
▁közösség	-9.8038
▁90	-9.80393
▁éjszaka	-9.80526
▁öröm	-9.80527
úl	-9.80581
▁közlemény	-9.80603
▁idős	-9.80626
▁11-	-9.80722
▁áram	-9.80733
határ	-9.8074
politikai	-9.80748
▁kiváló	-9.80754
▁egyaránt	-9.80755
▁pl	-9.80789
▁hivatkozva	-9.80808
▁elemző	-9.80826
▁pontot	-9.80855
▁negyedév	-9.80911
adni	-9.80953
úd	-9.80979
▁történő	-9.80981
óban	-9.80984
pá	-9.80994
all	-9.81014
▁hozzátette	-9.81058
tető	-9.81148
▁ku	-9.812
▁állandó	-9.81258
vásár	-9.81276
▁Nagyon	-9.81276
bér	-9.81298
fajta	-9.81317
▁sziget	-9.81363
▁Horváth	-9.81438
▁reklám	-9.81438
▁helyszínen	-9.81479
▁eljárást	-9.81497
▁étel	-9.81527
▁pénteki	-9.81629
▁ri	-9.81696
csap	-9.81735
▁óriási	-9.81809
zék	-9.81814
fal	-9.81859
▁gazdag	-9.81898
▁Varga	-9.81905
▁Leg	-9.81935
▁vásárol	-9.82024
▁kötelezettség	-9.8203
▁szóvivő	-9.8205
▁átlagos	-9.8209
▁pályá	-9.82117
▁élelmiszer	-9.82128
▁tol	-9.82155
▁nekem	-9.82166
▁honlapján	-9.8227
▁képviselői	-9.82278
▁tökéletes	-9.82359
▁műszaki	-9.82359
▁nemzet	-9.82368
▁közlekedési	-9.82392
11	-9.82394
táv	-9.82435
védő	-9.82455
▁km	-9.82499
▁egyértelmű	-9.82521
▁fejlődés	-9.82563
▁meglepetés	-9.82593
nok	-9.82631
▁szombat	-9.82657
tatni	-9.8271
▁dönt	-9.8275
▁Google	-9.82823
▁Ilyen	-9.82824
▁of	-9.82863
niük	-9.8293
▁függ	-9.83008
▁ítél	-9.83073
200	-9.83129
▁kereskedelmi	-9.83143
▁4.	-9.83149
▁nagyjából	-9.83157
▁ősz	-9.83275
▁döntetlen	-9.83298
▁bőr	-9.83328
kov	-9.83366
ston	-9.83489
dzs	-9.83506
osztás	-9.8354
▁Pe	-9.83641
▁kiemelt	-9.83676
▁hírek	-9.83698
▁érez	-9.83782
▁közleményében	-9.83823
▁kaptak	-9.8383
▁sikerül	-9.83869
▁34	-9.83987
ser	-9.83999
▁élete	-9.84108
▁kapitány	-9.84166
éért	-9.8418
▁0	-9.84311
▁problémák	-9.84346
vezetés	-9.84415
▁állítja	-9.84439
▁cseh	-9.84468
cal	-9.8448
▁csütörtöki	-9.84487
▁vállalkozó	-9.84488
▁kezdte	-9.84499
történet	-9.84503
pu	-9.84577
▁veszteség	-9.84589
élet	-9.84659
▁érkező	-9.84745
▁ellátás	-9.8475
▁Franciaország	-9.84766
mér	-9.84773
45	-9.84777
▁időszakban	-9.84789
▁ó	-9.849
▁Itt	-9.84935
▁Ugyanakkor	-9.84935
▁tartomány	-9.84936
▁jegybank	-9.84947
▁akarja	-9.84963
▁ko	-9.85006
▁tárgy	-9.85082
▁Fe	-9.85124
▁hétfői	-9.85156
▁tűnt	-9.85173
que	-9.85217
vér	-9.85235
▁Inter	-9.85338
▁százalékra	-9.85344
yer	-9.85352
▁mindez	-9.8536
szob	-9.85384
▁semmit	-9.85393
ew	-9.85407
▁következtében	-9.85412
▁szerv	-9.85417
▁fognak	-9.8552
okhoz	-9.85571
▁kórházba	-9.85598
kodás	-9.85641
▁szabályok	-9.85653
fizetés	-9.85654
▁szervez	-9.85732
ozik	-9.85739
oda	-9.85756
telep	-9.85776
adott	-9.85792
▁kéz	-9.85803
ényi	-9.85845
▁lezár	-9.8589
vizsgá	-9.85906
▁rom	-9.85912
olja	-9.8593
▁Ter	-9.85968
▁művészet	-9.85989
sson	-9.86011
▁szent	-9.86055
▁ennyi	-9.8611
▁Madrid	-9.86129
▁letartóztatás	-9.86129
▁terror	-9.8613
▁plusz	-9.86146
▁intézkedés	-9.86201
leges	-9.86251
▁pályára	-9.86256
▁fenn	-9.86259
marad	-9.86273
▁kez	-9.86306
▁elkerül	-9.86356
▁hatalom	-9.86411
60	-9.86412
▁Pest	-9.86451
▁csökkenés	-9.8652
du	-9.86522
▁adni	-9.86523
szív	-9.86561
ányi	-9.86598
▁Szabolcs	-9.8661
▁magukat	-9.86623
▁erősít	-9.86625
▁meghalt	-9.86713
▁dollárt	-9.86721
▁bán	-9.86782
láz	-9.86817
▁nélküli	-9.86838
▁mobil	-9.86858
élt	-9.86868
adta	-9.8687
▁államfő	-9.86889
▁mondani	-9.86905
terem	-9.86942
mon	-9.86979
eknél	-9.87041
ller	-9.87046
▁súly	-9.87063
▁központi	-9.8707
▁valamennyi	-9.87094
▁árul	-9.87124
észeti	-9.87142
▁szerb	-9.87283
▁pozíció	-9.87284
▁vehet	-9.87292
▁Duna	-9.87305
▁apró	-9.87358
pár	-9.87376
▁nyugati	-9.87419
kötő	-9.8742
▁Man	-9.87422
▁dolgozott	-9.87455
▁stílus	-9.87458
▁személyes	-9.87476
aival	-9.87515
▁felül	-9.87575
▁ügyében	-9.87578
▁ötven	-9.87653
▁megkap	-9.87713
▁egyértelműen	-9.87725
áját	-9.87753
▁üzleti	-9.87819
▁Minisztérium	-9.87823
elnök	-9.87844
ségek	-9.87965
din	-9.87998
hívás	-9.88027
▁képviselők	-9.8804
▁küld	-9.8818
uc	-9.8818
jével	-9.88187
tanács	-9.88189
▁Kon	-9.88251
▁említett	-9.88294
▁birtok	-9.88313
tatott	-9.88344
▁Akkor	-9.88414
orosz	-9.88419
▁kétszer	-9.88483
jött	-9.88517
▁falu	-9.88545
nünk	-9.88553
▁lassan	-9.88559
▁remél	-9.8856
▁hiába	-9.88599
Á	-9.88636
oknál	-9.88637
▁Per	-9.88665
▁II	-9.88681
▁anya	-9.88705
▁Ön	-9.88817
▁tapasztalat	-9.88828
▁értéke	-9.8887
őrök	-9.88892
▁Sok	-9.88919
▁hőmérséklet	-9.88931
▁másod	-9.88961
▁légi	-9.88982
▁Michael	-9.89052
▁majdnem	-9.89057
▁számában	-9.89085
▁űr	-9.89171
▁Ste	-9.89172
▁szeretnék	-9.89173
rov	-9.89191
▁intézet	-9.89214
▁újság	-9.8924
▁ny	-9.89247
▁tudományos	-9.89279
▁össz	-9.8932
koreai	-9.89345
▁Forma	-9.8935
▁37	-9.89364
sem	-9.89383
▁győzelem	-9.89411
mag	-9.89516
▁komp	-9.89555
uz	-9.89566
▁indítvány	-9.89567
▁szempontból	-9.89605
▁javasol	-9.89641
ább	-9.89663
▁mire	-9.89713
szerűen	-9.8973
▁+	-9.89776
▁Antal	-9.89844
▁sztár	-9.89899
▁szolgáltató	-9.89908
▁legutóbbi	-9.89928
14	-9.89936
osok	-9.90008
▁Ni	-9.90022
▁Obama	-9.90046
▁vevő	-9.90157
ster	-9.90268
helyettes	-9.90411
▁mondott	-9.90427
ésének	-9.90489
▁szerezte	-9.90501
▁dal	-9.90507
▁tájékoztatása	-9.90523
▁emiatt	-9.90546
▁ötödik	-9.90547
▁számítógép	-9.90552
bajnokság	-9.90593
▁utaz	-9.9062
ula	-9.90624
▁fut	-9.90667
▁vettek	-9.90669
▁Mari	-9.90672
oc	-9.90775
▁könnyen	-9.90782
szav	-9.90791
cél	-9.90946
pad	-9.90989
▁tőke	-9.91051
▁frank	-9.91059
▁befejez	-9.91062
▁munkatársai	-9.911
▁fordult	-9.91176
hatóság	-9.91206
▁alkot	-9.91214
▁meglepő	-9.91489
▁ex	-9.91548
▁zsidó	-9.91556
16	-9.91597
▁No	-9.91752
▁szavazás	-9.9177
▁PL	-9.9177
▁holland	-9.91777
szín	-9.91845
▁alacsonyabb	-9.91854
közi	-9.91855
▁szövetségi	-9.91859
▁szeretne	-9.91901
▁megpróbál	-9.91902
▁botrány	-9.92068
▁kol	-9.92088
▁esetleges	-9.92098
▁tartanak	-9.92141
▁emelked	-9.9218
17	-9.92255
▁katonai	-9.92281
ügyminisztérium	-9.92319
▁esélye	-9.9233
▁szakértő	-9.92348
tatta	-9.92372
▁újságíró	-9.92423
13	-9.92488
▁SZDSZ	-9.92513
rém	-9.92549
▁gyakorlatilag	-9.92575
▁fogadta	-9.926
terv	-9.92624
odik	-9.92681
▁számú	-9.92704
vásárlás	-9.92745
▁védelm	-9.92756
▁jelezte	-9.92815
▁Három	-9.92831
▁példá	-9.92874
27	-9.92879
▁Mindez	-9.92907
▁bírál	-9.92908
▁visz	-9.92929
▁szerződést	-9.92936
▁szeretné	-9.92937
ődik	-9.92958
▁Tor	-9.92995
▁gyártó	-9.93035
▁kom	-9.93039
▁követő	-9.93081
▁közgyűlés	-9.93088
▁194	-9.9313
▁tanár	-9.93133
énél	-9.93209
▁játszik	-9.93214
döntő	-9.93219
▁Gal	-9.93219
bal	-9.93311
▁Ü	-9.93316
98	-9.93337
▁izraeli	-9.93346
▁hamarosan	-9.93358
▁hálózat	-9.93361
kozott	-9.93371
eik	-9.93411
jú	-9.9344
▁kétség	-9.93563
szár	-9.93594
berg	-9.93594
▁lét	-9.93605
▁ajánlat	-9.93606
▁ős	-9.93606
▁szigorú	-9.93638
▁üzenet	-9.93648
ször	-9.93692
▁nyáron	-9.93702
▁tele	-9.93751
▁Val	-9.93799
▁dolgozik	-9.93816
▁rekord	-9.93856
▁szocialisták	-9.93863
▁Szer	-9.93876
▁Mark	-9.93894
▁részvény	-9.93924
▁művész	-9.93955
▁kicsi	-9.93988
zta	-9.94045
▁íz	-9.94073
ellenes	-9.94101
▁élt	-9.94162
▁For	-9.94167
▁Ott	-9.9421
eiket	-9.94214
lasz	-9.94261
jába	-9.94321
▁érdeklődés	-9.94337
▁veszélyes	-9.94344
▁fogják	-9.94363
▁bővül	-9.94385
▁elérni	-9.94401
▁észre	-9.94475
up	-9.94482
fon	-9.9449
arc	-9.94516
▁hátrány	-9.94542
kció	-9.94553
ségű	-9.94556
mut	-9.94567
▁bizonyít	-9.94601
▁véget	-9.94634
▁online	-9.94645
▁City	-9.94648
▁tárca	-9.94657
▁közepén	-9.94775
nének	-9.94777
▁ugyanaz	-9.94778
viz	-9.94779
list	-9.94868
▁szünet	-9.94903
▁vádol	-9.94921
▁Hol	-9.94928
▁figyelembe	-9.94933
▁fölött	-9.94944
▁bevezetés	-9.94964
hatunk	-9.95013
▁érintő	-9.95071
lánc	-9.95074
motor	-9.95118
▁remek	-9.95118
▁katasztrófa	-9.95163
▁kerületi	-9.95198
▁bő	-9.95257
▁ismeret	-9.95301
tikai	-9.95315
csomag	-9.95327
TE	-9.95371
▁élvez	-9.95401
▁vidék	-9.95403
▁Robert	-9.95436
tűnő	-9.95457
▁menekül	-9.95466
▁vonul	-9.95512
▁PK	-9.95565
▁mennyire	-9.95567
▁sofőr	-9.95572
▁emelkedés	-9.95574
▁története	-9.95579
▁Bel	-9.9558
bon	-9.95596
víz	-9.95615
eink	-9.95638
"-	-9.95649
▁Mihály	-9.95696
▁modern	-9.95696
▁Wi	-9.95752
▁20-	-9.95765
▁10-	-9.95773
zu	-9.95829
▁FC	-9.95841
amerikai	-9.95861
lis	-9.95864
▁nyomán	-9.95887
▁Veszprém	-9.9596
▁napja	-9.95966
itás	-9.96005
▁vereség	-9.96028
▁származó	-9.96057
▁mások	-9.96063
▁befektetők	-9.96089
▁környék	-9.96091
▁Anna	-9.96114
▁csapata	-9.96152
ist	-9.96183
mé	-9.96206
▁akkori	-9.96208
▁kerültek	-9.96245
▁aktív	-9.96276
▁időpont	-9.96291
▁Jan	-9.96403
22	-9.96406
▁kezdeményez	-9.96417
▁szegény	-9.96503
▁végéig	-9.96506
▁kezdődött	-9.96507
▁részvétel	-9.96511
▁Or	-9.96516
ünket	-9.96588
ria	-9.96823
▁TV	-9.96827
▁világos	-9.9686
▁Ezen	-9.96921
▁folytatás	-9.96936
▁ígéret	-9.96978
▁rosszul	-9.96991
▁bírság	-9.97005
▁fele	-9.97013
▁végrehajt	-9.97015
▁negatív	-9.97025
▁Gyula	-9.97041
▁megint	-9.97105
▁400	-9.97203
▁világbajnokság	-9.97257
fél	-9.97279
titkár	-9.97305
odott	-9.97348
▁biztosító	-9.97382
▁terjed	-9.97404
▁tájékoztatás	-9.97484
▁helyzetben	-9.97498
▁várt	-9.97502
▁számított	-9.97508
▁negyven	-9.97562
társ	-9.97579
▁hall	-9.97653
▁kerülhet	-9.97659
jog	-9.97714
evő	-9.97721
▁bajnokság	-9.97778
▁eladás	-9.97779
▁álláspont	-9.97857
▁zené	-9.97897
▁Rá	-9.97915
▁száll	-9.97929
▁területen	-9.97963
▁ipar	-9.97975
▁hajt	-9.98052
▁Ö	-9.98058
▁bejelentette	-9.98079
vonás	-9.98079
gor	-9.98091
▁Mesterházy	-9.98102
▁Nyugat	-9.98102
▁értelmében	-9.98102
nov	-9.98123
▁tanú	-9.98166
▁000	-9.98166
olták	-9.9818
bol	-9.98208
▁Európában	-9.98292
▁tehetség	-9.98339
▁források	-9.9834
ipari	-9.98343
▁karácsonyi	-9.98373
▁létszám	-9.98397
so	-9.98423
▁látja	-9.98425
▁hétvégén	-9.98443
▁Manchester	-9.98455
▁We	-9.98461
▁indokol	-9.98485
illa	-9.98527
lip	-9.986
biztos	-9.98757
▁teremt	-9.98772
▁eredményei	-9.98785
▁gondolat	-9.98787
▁szerez	-9.98824
ánc	-9.98889
szállás	-9.98895
gh	-9.98935
▁3-	-9.98944
▁helyez	-9.98987
▁Men	-9.99015
ovic	-9.99116
▁véleménye	-9.99134
vagy	-9.9914
▁tiltakoz	-9.99174
▁késő	-9.99179
▁déli	-9.99336
▁januárban	-9.99374
▁kérdésre	-9.99412
SC	-9.99464
▁United	-9.99465
▁Tavaly	-9.99465
▁velük	-9.99472
nyíl	-9.99592
kezelő	-9.99707
▁keresztény	-9.99758
▁következménye	-9.9977
▁háttér	-9.9978
ust	-9.99829
▁tudták	-9.9984
▁30-	-9.9987
▁2007	-9.9987
▁polgár	-9.99923
▁rendelet	-10
▁sötét	-10.0002
▁Andr	-10.0004
▁dolláros	-10.0015
▁időt	-10.0015
▁Es	-10.0015
▁szab	-10.0021
vidék	-10.0022
állomás	-10.0023
mas	-10.0027
▁Intézet	-10.0029
▁tartalmaz	-10.0029
▁válik	-10.0038
▁idők	-10.0041
fejlesztés	-10.0044
▁közleked	-10.005
24	-10.005
▁győz	-10.0051
▁adja	-10.0055
▁legújabb	-10.0057
▁semmilyen	-10.0057
▁verzió	-10.0057
▁panasz	-10.0061
▁nyugat	-10.0063
▁egymást	-10.0063
▁páros	-10.0063
bil	-10.0069
szerzés	-10.0069
▁megjelenés	-10.0072
▁utazás	-10.008
80	-10.0083
▁horvát	-10.0085
▁történik	-10.0085
▁Kína	-10.0085
▁hónapban	-10.0089
▁mennyiség	-10.0095
▁évet	-10.0098
igazgató	-10.0103
▁alkalmazás	-10.0108
▁szervezetek	-10.011
▁munkatársa	-10.011
▁javul	-10.0111
▁Balaton	-10.0113
ama	-10.0113
▁látta	-10.0114
▁médiatörvény	-10.0114
▁bankok	-10.0116
▁kapnak	-10.0117
-1-	-10.0119
nunk	-10.012
▁éven	-10.012
▁Pro	-10.0121
futás	-10.0123
▁ajánl	-10.013
▁fogalmaz	-10.0132
évé	-10.0134
▁vall	-10.0135
▁bizony	-10.0135
nom	-10.0138
▁táj	-10.0139
▁lehetősége	-10.0142
lég	-10.0142
cia	-10.0143
mód	-10.0144
▁tanácsadó	-10.0147
▁2000	-10.0156
▁feleség	-10.0165
sággal	-10.0165
▁szület	-10.0167
▁OTP	-10.0168
▁BBC	-10.0168
▁veszélyeztet	-10.0169
▁Kom	-10.0176
▁mellék	-10.018
uló	-10.0183
▁nemrég	-10.0196
▁Bajnai	-10.0197
▁megye	-10.0201
jait	-10.0206
▁utak	-10.021
▁im	-10.0211
96	-10.0213
▁38	-10.0215
▁Za	-10.0216
bizottság	-10.0216
▁kr	-10.0216
▁2-	-10.022
▁felesége	-10.0224
▁sajnos	-10.0225
▁dolgozók	-10.0228
▁támogatást	-10.0233
hetünk	-10.0234
▁rak	-10.0239
▁Ger	-10.024
▁elmond	-10.0245
▁végére	-10.0246
▁kifejezetten	-10.0253
▁korrupció	-10.0254
▁látott	-10.0254
▁készültség	-10.0257
▁Mil	-10.0259
közel	-10.0261
▁abból	-10.0264
követ	-10.0275
kocsi	-10.028
▁cigány	-10.0281
▁becsül	-10.0283
▁kettős	-10.0287
▁élmény	-10.0293
▁utána	-10.03
▁viz	-10.0308
▁Ráadásul	-10.031
▁kijelentette	-10.031
▁diák	-10.031
▁foglalkozó	-10.0311
▁Németország	-10.0311
▁hallgató	-10.0313
dar	-10.0313
▁fenyeget	-10.0313
▁javít	-10.0317
▁intézmények	-10.0318
▁Fl	-10.0321
▁Aztán	-10.0322
▁megáll	-10.0331
▁utca	-10.0332
▁Pal	-10.0333
▁Fo	-10.0334
▁szuper	-10.0338
▁ismerős	-10.0341
műve	-10.0342
▁záró	-10.0343
▁körzet	-10.0344
▁bizonyíték	-10.0346
▁valójában	-10.0348
ezik	-10.0355
▁annál	-10.0357
▁halálos	-10.0358
▁rendkívüli	-10.036
▁kérdések	-10.0366
▁Facebook	-10.0367
▁megsérült	-10.0367
▁derült	-10.0372
▁szavazó	-10.0375
ris	-10.038
▁beszámoló	-10.0389
▁testvér	-10.0393
▁havazás	-10.0395
▁öreg	-10.0396
▁északi	-10.0398
rand	-10.0398
ezték	-10.0416
▁42	-10.0418
▁5.	-10.0419
cég	-10.0423
▁MÁV	-10.0424
▁főpolgármester	-10.0424
▁legmagasabb	-10.0424
▁gyanús	-10.0425
▁gumi	-10.0425
▁tűzoltók	-10.0426
ps	-10.0427
▁járulék	-10.0427
▁Erre	-10.0428
▁közösen	-10.0428
▁nyilatkozott	-10.0434
szab	-10.0435
▁6-	-10.0438
▁érzés	-10.0439
▁Times	-10.0441
▁közvetlen	-10.0447
▁John	-10.0451
▁szempontjából	-10.0453
▁Franc	-10.0455
▁csatár	-10.0456
▁jelöl	-10.0459
▁erőszak	-10.0471
▁2006	-10.0472
▁sír	-10.0476
▁kereset	-10.0477
szent	-10.0478
▁mu	-10.0481
▁hasonlít	-10.0482
▁kialakul	-10.0483
bel	-10.0483
▁szólt	-10.0485
helyzet	-10.0488
ásáról	-10.0494
nyugdíjpénztár	-10.0496
▁értékel	-10.0501
▁sáv	-10.0503
▁Dávid	-10.0511
▁azoknak	-10.0511
igaz	-10.0518
ille	-10.0522
vette	-10.0528
▁eredmények	-10.0534
▁számíthat	-10.0541
jó	-10.0544
▁közeli	-10.0544
központ	-10.0545
▁állnak	-10.0546
▁Tisza	-10.0554
▁koncert	-10.0559
▁menet	-10.0561
▁hátra	-10.0562
▁kisebbség	-10.0562
aink	-10.0563
▁olvashat	-10.0571
zza	-10.0579
ánnyal	-10.058
dé	-10.0583
▁Ros	-10.0589
ációs	-10.059
▁vasárnapi	-10.0595
▁hírügynökség	-10.0598
▁tegnap	-10.0598
▁mezőny	-10.0598
labda	-10.0601
hár	-10.0603
▁szívesen	-10.0604
▁eredménye	-10.0605
lov	-10.0608
nyer	-10.0608
▁fű	-10.0609
▁gyűjt	-10.0612
▁rajt	-10.0614
váz	-10.0617
éria	-10.062
str	-10.0627
▁határidő	-10.063
▁viszonylag	-10.0631
▁vágy	-10.064
pel	-10.0644
▁szex	-10.067
öket	-10.0672
▁melyik	-10.0672
▁7-	-10.0678
▁szerkezet	-10.0679
jelző	-10.0681
▁esztendő	-10.0687
▁részlet	-10.0688
▁iroda	-10.0692
▁voltam	-10.0693
▁aminek	-10.0709
▁érkez	-10.0715
▁Euro	-10.0718
▁megelőz	-10.072
után	-10.073
▁órakor	-10.0731
▁képviselője	-10.0746
▁szokás	-10.075
▁autót	-10.0751
▁Kö	-10.0751
▁tisztelet	-10.0751
▁egymással	-10.0754
▁Mercedes	-10.0756
▁magazin	-10.0759
▁összeget	-10.0767
▁kérdez	-10.0769
▁Cl	-10.0779
▁vallás	-10.0779
▁vendégek	-10.078
▁sportoló	-10.0781
▁következ	-10.0784
mann	-10.0786
▁Ér	-10.079
▁kényszer	-10.079
▁rendelkezik	-10.0792
▁valódi	-10.0795
▁kilátás	-10.0795
▁kereszt	-10.08
oztak	-10.0801
▁ügyvezető	-10.0804
▁Görögország	-10.0805
▁tájékoztatta	-10.0805
▁közvetít	-10.0807
▁miszerint	-10.0808
▁átalakítás	-10.081
szabad	-10.0811
▁hiba	-10.0812
szolgálat	-10.0816
▁dolgok	-10.0819
26	-10.082
▁látni	-10.0821
▁tudós	-10.0823
▁miként	-10.0826
▁szembe	-10.0827
▁ügyek	-10.0827
▁szenved	-10.0845
▁interjú	-10.0846
▁határozott	-10.0847
▁irodalom	-10.0849
▁múzeum	-10.085
unkat	-10.085
▁embereket	-10.0851
▁segítséget	-10.0852
▁jelenség	-10.0855
▁megér	-10.0856
▁érzi	-10.0861
▁vonat	-10.0868
ván	-10.0869
▁mért	-10.0874
ékony	-10.0875
▁természetes	-10.0876
szol	-10.0877
bolt	-10.088
▁némi	-10.0893
▁előrejelzés	-10.0895
énnyel	-10.0896
haj	-10.0896
▁gyűl	-10.0896
▁divat	-10.0896
▁fe	-10.0899
▁politika	-10.0905
▁Cor	-10.0908
▁faj	-10.0912
▁fedez	-10.0914
▁hívta	-10.0915
▁felel	-10.0918
▁kivitel	-10.092
▁Th	-10.0924
adat	-10.0929
cent	-10.093
▁megerősít	-10.093
▁törvényt	-10.093
ektől	-10.0936
▁'	-10.0945
▁lemond	-10.0952
▁Róbert	-10.0956
▁félre	-10.0959
▁alsó	-10.0959
▁Mal	-10.096
▁Fotó	-10.0961
▁asztal	-10.0961
▁rendszeresen	-10.0963
nánk	-10.0965
▁hagyomány	-10.0966
▁induló	-10.097
▁rendelt	-10.0972
szeres	-10.0974
▁ponttal	-10.0978
sy	-10.0981
▁híd	-10.0982
▁találták	-10.0986
▁Párt	-10.0986
▁villamos	-10.0987
▁hamar	-10.0987
▁Mert	-10.0987
▁képzés	-10.0987
oltak	-10.0989
▁várja	-10.0994
▁nincsenek	-10.1001
jegyzés	-10.1007
hatás	-10.1009
▁káros	-10.1011
▁megnyer	-10.1012
▁felhasznál	-10.1014
▁rivális	-10.1017
▁valamilyen	-10.1017
▁London	-10.1017
▁nehezen	-10.1017
▁egyetért	-10.102
tudomány	-10.102
▁váltó	-10.1027
▁közleményben	-10.1028
▁Il	-10.1029
▁1-0	-10.1029
▁személyi	-10.1034
hetjük	-10.104
▁ukrán	-10.1045
▁mutatott	-10.1047
▁fórum	-10.1047
▁méltó	-10.1047
▁messze	-10.1048
szék	-10.105
▁színésznő	-10.105
▁he	-10.1061
▁segély	-10.1064
▁tulajdonosa	-10.1082
▁tár	-10.1086
▁látogat	-10.1087
▁azután	-10.1087
21	-10.1088
▁alul	-10.1092
asztal	-10.1092
▁termékek	-10.11
▁feltétel	-10.1101
abban	-10.1105
hhez	-10.1107
▁tudtak	-10.1116
gyár	-10.1116
▁ezután	-10.112
▁Gra	-10.1122
pó	-10.1122
▁tétel	-10.1126
▁sejt	-10.1128
▁mégsem	-10.1129
▁alkotás	-10.113
▁autók	-10.113
▁roma	-10.1135
▁bevezet	-10.1135
hel	-10.1138
változás	-10.1138
cska	-10.1139
▁szoftver	-10.114
▁hátsó	-10.1142
▁formában	-10.1142
▁televízió	-10.1148
▁fagy	-10.1154
▁fővárosban	-10.116
atív	-10.1164
▁finom	-10.1172
▁gyilkosság	-10.1173
szabály	-10.1173
hajtás	-10.1173
▁tárgyalások	-10.1175
▁alatti	-10.1176
ung	-10.118
▁emelte	-10.1184
▁száj	-10.1185
rád	-10.1186
▁hivatalosan	-10.1191
▁Ó	-10.1195
kupa	-10.1196
▁Hír	-10.1196
por	-10.1201
ítják	-10.1201
▁hegy	-10.1201
▁legfőbb	-10.1202
▁David	-10.1202
▁liter	-10.1203
▁bemutató	-10.1205
▁tartós	-10.1214
▁oldalán	-10.1217
▁elfogadott	-10.122
inger	-10.1221
társaság	-10.1224
▁Red	-10.1226
▁Kol	-10.1233
▁távoz	-10.1234
válasz	-10.1235
▁utat	-10.1236
▁valamit	-10.1238
▁brazil	-10.1246
of	-10.1248
▁font	-10.125
▁kedvenc	-10.1251
▁Államokban	-10.1251
ová	-10.1262
▁erősen	-10.1263
▁érint	-10.1264
▁Múzeum	-10.1264
▁néha	-10.1264
▁nálunk	-10.1265
kutatás	-10.127
▁Con	-10.1277
ence	-10.128
▁hossz	-10.1287
▁dr	-10.1289
▁lövés	-10.1294
▁NB	-10.1295
uss	-10.1297
álja	-10.1298
ozd	-10.1302
ock	-10.1302
venni	-10.1304
▁helyzetet	-10.1304
▁fék	-10.1305
ója	-10.1307
hon	-10.1308
▁nyereség	-10.1309
osztott	-10.1311
▁szeretet	-10.1314
▁der	-10.1317
napos	-10.1318
vol	-10.1321
▁városban	-10.1325
▁Spanyolország	-10.1327
▁teher	-10.133
▁terhel	-10.133
▁szén	-10.1344
▁ilyenkor	-10.1344
▁idény	-10.1348
ovics	-10.1352
pro	-10.1354
▁kifizet	-10.1355
▁láthat	-10.1357
ásához	-10.1358
▁közvélemény	-10.1358
afrikai	-10.1359
▁elől	-10.136
▁Bull	-10.1362
▁képesség	-10.1368
▁piacon	-10.1378
hatjuk	-10.1382
▁Ház	-10.1392
▁kedves	-10.1392
▁nekünk	-10.1395
▁Ám	-10.1396
▁mérték	-10.1399
▁Nép	-10.1401
ski	-10.1403
három	-10.1404
▁környékén	-10.1406
hát	-10.1416
▁adtak	-10.1421
▁Izrael	-10.1422
▁elődöntő	-10.1426
fehér	-10.1428
vállalat	-10.1428
gott	-10.1429
tartalm	-10.1431
bocs	-10.1434
▁8-	-10.1437
▁55	-10.144
▁Col	-10.144
▁ütem	-10.144
▁Tud	-10.1441
▁előz	-10.1444
▁Elő	-10.1445
▁lop	-10.1447
▁titkos	-10.1453
▁kanadai	-10.1454
▁bizalm	-10.1454
▁pap	-10.1455
lem	-10.1455
▁USA	-10.1455
gyal	-10.146
▁koncepció	-10.1463
▁megtakarítás	-10.1464
▁nyilatkoz	-10.1467
▁számítani	-10.1468
▁városi	-10.1469
▁2009.	-10.1472
tették	-10.1481
▁egészséges	-10.1482
▁ausztrál	-10.1486
▁támogató	-10.1486
▁immár	-10.1487
▁vonal	-10.1491
▁Los	-10.1491
művész	-10.1492
▁vállalkozások	-10.1493
▁decemberben	-10.1496
▁nyilvános	-10.1497
▁kezdeményezés	-10.1505
▁ponton	-10.1507
▁ellenzék	-10.1511
▁veszi	-10.1512
▁kiló	-10.1515
▁éjjel	-10.1518
vállalás	-10.1519
▁érdeklőd	-10.1523
▁oktatás	-10.1523
gál	-10.1525
▁kormánypárt	-10.1526
▁látványos	-10.1533
%-	-10.1534
▁szülő	-10.1544
▁Pedig	-10.155
▁tető	-10.1553
▁változott	-10.1555
gondol	-10.1557
▁fia	-10.1558
szerző	-10.1561
▁kezdő	-10.1566
kai	-10.1567
▁nevet	-10.1567
▁visszaesés	-10.1568
35	-10.1576
▁nyomás	-10.1577
▁csatlakoz	-10.1578
▁kém	-10.1579
92	-10.1579
▁ellenfele	-10.1581
▁euróövezet	-10.1582
▁méret	-10.1583
▁aránya	-10.1584
▁népszerű	-10.1585
▁vas	-10.1589
▁büntet	-10.159
▁biztosítás	-10.1597
▁politikusok	-10.1598
vez	-10.1598
▁csőd	-10.1601
▁szoros	-10.1606
▁rendezett	-10.1607
▁egyebek	-10.1615
▁kedvező	-10.162
▁játszó	-10.1622
▁igénybe	-10.1624
▁legalábbis	-10.1633
▁küldött	-10.1642
▁filmet	-10.1646
▁képesek	-10.1646
▁Washington	-10.1647
▁földrengés	-10.1647
▁választókerület	-10.1647
▁csapadék	-10.1647
▁eltérő	-10.1647
▁kezdődik	-10.1649
▁üzemanyag	-10.1649
szövetség	-10.1655
▁színház	-10.1655
▁hatalm	-10.1661
▁főként	-10.1662
képzés	-10.1664
▁alkohol	-10.1675
▁39	-10.1678
▁elkövető	-10.168
▁Em	-10.1687
▁halott	-10.1688
▁résztvevő	-10.169
felvétel	-10.1693
▁Pol	-10.1697
▁tü	-10.1698
▁termelés	-10.1698
▁hatására	-10.1705
▁edzés	-10.1711
▁finanszírozás	-10.1712
ác	-10.1712
▁41	-10.1723
▁adatokat	-10.1727
aná	-10.173
▁tél	-10.1731
vo	-10.1736
éséhez	-10.174
▁elindul	-10.1741
▁Kiss	-10.1742
▁nyugdíjas	-10.1744
▁napján	-10.1744
▁amúgy	-10.1745
▁huszon	-10.1745
▁órán	-10.1746
▁megszüntet	-10.1746
ókat	-10.1752
▁rendszert	-10.1752
▁híres	-10.1753
▁költ	-10.1753
▁150	-10.1754
ica	-10.1754
bri	-10.1757
▁mozi	-10.1758
▁játékosok	-10.1761
▁szüksége	-10.1761
▁feltételek	-10.1772
▁ideig	-10.1772
▁ülésén	-10.1775
▁Könyv	-10.1778
▁Múlt	-10.1778
sztó	-10.1779
▁tényező	-10.1781
▁hamis	-10.1784
Ha	-10.1784
1)	-10.1785
▁bárki	-10.1787
▁rendelkez	-10.1799
▁Központi	-10.1804
képesség	-10.1805
▁teszik	-10.1809
▁néven	-10.181
▁rögtön	-10.1811
▁pihen	-10.1811
▁Mu	-10.1813
▁itthon	-10.1814
menő	-10.1816
▁Gar	-10.1818
▁érdekelt	-10.1818
hegy	-10.1823
▁gyakorol	-10.1825
bél	-10.1828
▁eurós	-10.183
ítették	-10.1837
cel	-10.1837
▁Év	-10.1839
gyilkos	-10.184
▁távon	-10.1847
▁foglalkoztatás	-10.1847
mérő	-10.1847
▁helyezett	-10.1847
▁visszaélés	-10.185
ova	-10.1852
elték	-10.1853
den	-10.1854
▁vezérigazgató	-10.1854
hivatal	-10.1854
védelem	-10.1854
▁Angeles	-10.1859
mail	-10.1863
▁Pri	-10.1863
▁hús	-10.1863
▁melynek	-10.1865
beszél	-10.1865
▁48	-10.187
▁Pan	-10.1871
▁intézkedések	-10.1874
▁értesít	-10.1874
▁gyenge	-10.1877
▁Béla	-10.1878
▁kelt	-10.1881
▁forgat	-10.1884
▁utcai	-10.1885
▁vív	-10.1886
▁anti	-10.1892
▁nála	-10.1892
▁csapatok	-10.1895
▁információk	-10.1899
eiről	-10.1902
▁folytatott	-10.1902
-10	-10.1904
▁rab	-10.1905
▁meccsen	-10.1907
23	-10.1908
test	-10.191
▁ENSZ	-10.1911
▁ügynök	-10.1911
▁heti	-10.1916
▁gát	-10.1917
futó	-10.1922
lon	-10.1926
▁nevét	-10.1927
▁ipari	-10.1928
akar	-10.193
▁folyamatos	-10.193
képes	-10.1934
▁Med	-10.1935
▁emlékeztet	-10.1936
menedzser	-10.1944
▁Miskolc	-10.1944
▁ápol	-10.1944
▁milliárdos	-10.1945
▁édes	-10.1945
▁cserél	-10.1945
▁sebesség	-10.1947
▁polgármestere	-10.1949
▁bab	-10.195
kártyá	-10.1955
%	-10.196
▁for	-10.196
▁Go	-10.1975
▁finanszíroz	-10.1976
▁konfliktus	-10.1978
▁mandátum	-10.1978
▁jellegű	-10.1978
▁játékosa	-10.1978
ölte	-10.1979
▁elégedett	-10.1982
▁típusú	-10.1986
▁Arra	-10.1989
kutató	-10.1991
szállító	-10.1991
▁gondolkod	-10.1994
éig	-10.2004
▁közölt	-10.2005
▁óv	-10.2007
▁tartalék	-10.2009
▁Tom	-10.201
növel	-10.2012
▁állapotban	-10.2013
▁hős	-10.2013
▁verte	-10.2017
zer	-10.2024
▁templom	-10.2028
cím	-10.203
▁körben	-10.2035
▁bázis	-10.2039
nénk	-10.2039
▁repülőtér	-10.2046
▁részéről	-10.2052
dá	-10.2054
ítható	-10.2059
▁jelentő	-10.2059
aiban	-10.206
▁kulcs	-10.2062
sport	-10.2077
▁75	-10.2078
▁Barcelona	-10.2079
▁44	-10.2086
▁állít	-10.2088
ajtótájékoztatón	-10.209
állítás	-10.2097
▁kultúr	-10.2109
▁fekvő	-10.2113
▁segített	-10.2114
▁közbeszerzés	-10.2116
▁török	-10.2123
▁üveg	-10.2133
▁Nor	-10.2134
▁egyszerre	-10.2135
iss	-10.2135
▁far	-10.2137
▁hullám	-10.2143
▁átlagosan	-10.2146
▁Olaszország	-10.2147
▁hadsereg	-10.2147
▁kerékpár	-10.2147
▁kénytelen	-10.2147
▁rajongó	-10.2148
▁mester	-10.2148
▁Hírek	-10.2149
▁díjat	-10.2156
mivel	-10.2156
▁mondhat	-10.2157
▁hasznos	-10.2161
▁dísz	-10.2171
ságú	-10.2172
▁46	-10.2177
▁kategóriá	-10.2181
▁Lengyelország	-10.2182
▁kutyá	-10.2182
▁támogatja	-10.2184
▁vétel	-10.2184
ight	-10.2185
▁feletti	-10.219
izáció	-10.219
▁különadó	-10.2191
sák	-10.2191
▁Kl	-10.2193
▁történelem	-10.2194
▁elemzők	-10.221
konferenciá	-10.2216
▁gyártás	-10.2217
öntött	-10.2223
nyá	-10.2223
airól	-10.2225
ozzák	-10.2228
▁látogató	-10.2237
▁szombati	-10.224
▁képek	-10.2243
▁születés	-10.2243
▁7.	-10.2245
▁bolt	-10.2247
▁akiket	-10.2248
▁fűz	-10.2248
▁tartottak	-10.2249
ükben	-10.2249
▁Néhány	-10.225
▁2012-	-10.225
▁előfordul	-10.2253
▁tettek	-10.2253
emet	-10.2253
▁végleges	-10.2253
▁tették	-10.2255
▁vasút	-10.2258
▁köszön	-10.2265
▁megvalósít	-10.2271
hó	-10.2284
▁téren	-10.2284
▁meglehetős	-10.2285
95	-10.2286
▁világháború	-10.2287
▁kislány	-10.2288
▁drog	-10.2288
▁akarnak	-10.2291
▁Németh	-10.2293
▁készülék	-10.2293
ítése	-10.2295
▁tartotta	-10.2296
▁szomszéd	-10.2299
▁feladata	-10.2305
]-	-10.2312
dom	-10.2313
▁szerkesztő	-10.2319
▁Pr	-10.2319
pénzügyminiszter	-10.232
▁folyik	-10.232
▁megkérdezett	-10.232
▁Jelenleg	-10.2321
▁okozhat	-10.2322
▁lakos	-10.2335
▁kormányzat	-10.2336
ódik	-10.2337
lépés	-10.235
▁halt	-10.2354
zsák	-10.2359
▁Miután	-10.2359
▁felhő	-10.2361
▁gyanú	-10.2361
▁csúsz	-10.2361
▁Szak	-10.2362
▁rokon	-10.2362
▁függetlenül	-10.2363
szél	-10.2364
▁Mor	-10.2382
tiltott	-10.2384
▁Blikk	-10.239
▁ügyfél	-10.2392
▁töm	-10.2392
▁önálló	-10.2393
▁árfolyama	-10.2394
▁ettől	-10.2395
szim	-10.2397
II	-10.2399
▁(19	-10.2402
színű	-10.2406
vill	-10.2411
▁Simon	-10.2412
▁Rend	-10.2413
▁elhunyt	-10.2424
▁Ádám	-10.2424
▁emellett	-10.2425
▁kedvezmény	-10.2425
70	-10.2428
▁fordulat	-10.2433
▁Alap	-10.2434
▁kissé	-10.2436
▁2005-	-10.2436
▁vezetők	-10.2438
▁mondták	-10.244
▁nőt	-10.2442
▁43	-10.2442
▁Paul	-10.2443
▁alkalm	-10.2445
nci	-10.2445
▁hozam	-10.2453
aikat	-10.2455
▁szülők	-10.2457
▁pilóta	-10.246
▁alól	-10.2471
▁megállapít	-10.2471
ice	-10.2472
▁egyeztetés	-10.2474
▁folyt	-10.2476
▁érkezik	-10.2481
▁kerület	-10.2482
▁várakozás	-10.2482
▁kerek	-10.2483
▁Lehet	-10.2491
▁növény	-10.2495
▁Molnár	-10.2495
ográf	-10.2495
▁erősödött	-10.2496
▁rendel	-10.2497
▁szexuális	-10.2497
▁megnéz	-10.2497
▁ir	-10.2497
▁frakció	-10.2499
▁képzel	-10.2502
▁állomás	-10.2505
▁hatása	-10.2507
kedő	-10.2509
főnök	-10.2512
vizsgálat	-10.2514
▁közzé	-10.2518
▁ajánlott	-10.2522
▁aláír	-10.2523
▁szed	-10.2527
▁döntése	-10.2528
▁magyarázta	-10.2531
▁Hagyó	-10.2531
honnan	-10.2533
essék	-10.2541
olják	-10.2542
rö	-10.2554
▁vörös	-10.2555
jutott	-10.2557
csal	-10.2557
▁orvosi	-10.256
▁oktatási	-10.2563
▁hektár	-10.2566
▁piros	-10.2568
▁működtet	-10.257
▁hatvan	-10.2571
▁sokáig	-10.2575
ipar	-10.2591
rin	-10.2595
park	-10.2596
▁javaslatot	-10.26
▁értékű	-10.2604
▁megerősítette	-10.2605
▁ablak	-10.2608
bin	-10.2609
▁elhagy	-10.261
▁bármi	-10.2615
▁65	-10.262
meccs	-10.262
▁férj	-10.2622
ológia	-10.2623
▁valós	-10.2625
▁meghatározó	-10.2626
▁úr	-10.263
▁esté	-10.2631
▁döntést	-10.2632
▁események	-10.2636
ásában	-10.2636
ney	-10.2636
▁történtek	-10.2637
▁Színház	-10.2638
cseré	-10.2638
csuk	-10.2641
▁Végül	-10.2642
▁tervei	-10.2647
▁2-0	-10.2655
piaci	-10.2658
eiben	-10.2666
eire	-10.2668
▁megakadályoz	-10.2674
▁Négy	-10.2674
▁közleménye	-10.2674
▁elképzelés	-10.2675
▁munkanélküliség	-10.2679
▁polgári	-10.268
▁mindenképpen	-10.2685
▁személyiség	-10.2689
kész	-10.269
▁tervezet	-10.2693
zük	-10.2693
ágy	-10.2693
sziget	-10.2696
▁kivétel	-10.2697
▁fenntart	-10.2697
▁értékesítés	-10.2698
első	-10.27
zavar	-10.27
▁mérkőzésen	-10.2702
▁kihasznál	-10.2704
▁Vagy	-10.2705
▁hvg	-10.271
▁Kapuso	-10.2712
▁vihar	-10.2715
▁előírás	-10.2717
▁eredetileg	-10.2717
ává	-10.2719
▁rendelkezés	-10.2721
▁1,3	-10.2723
▁ellene	-10.2724
▁mon	-10.2726
▁w	-10.2727
veszély	-10.273
▁reagál	-10.2736
▁kialakult	-10.2736
▁1-1	-10.274
jére	-10.2742
▁ideg	-10.2746
▁egyesület	-10.2746
▁metró	-10.2746
▁amellye	-10.2746
▁áru	-10.2746
jev	-10.275
▁erősebb	-10.2753
▁sportág	-10.2754
▁250	-10.2754
▁kop	-10.2757
SE	-10.2759
▁vad	-10.2763
▁tej	-10.2764
▁napig	-10.2764
▁vesztette	-10.2774
gá	-10.2777
▁ajtó	-10.2781
▁speciális	-10.2782
▁ágazat	-10.2782
▁kaphat	-10.2783
kodó	-10.2784
▁eredményes	-10.2796
▁vezeti	-10.2798
csökkentés	-10.28
tetni	-10.2806
▁felügyelet	-10.2813
off	-10.2815
▁foci	-10.2819
▁ügyész	-10.2819
▁elektronikus	-10.2819
▁koncentrál	-10.2819
▁Nincs	-10.2819
▁dolgozni	-10.2831
került	-10.2839
▁hagyta	-10.2844
▁világbajnoki	-10.2845
▁irányító	-10.2846
▁októberben	-10.2847
ld	-10.2848
▁Kelet	-10.285
▁/	-10.2856
▁hajtott	-10.2858
▁képet	-10.286
▁novemberben	-10.2863
ázó	-10.2864
kapitányság	-10.2865
▁fénykép	-10.287
▁példány	-10.2875
▁elismer	-10.2885
▁húz	-10.2892
▁téma	-10.2892
▁hajnalban	-10.2892
▁felmerül	-10.2893
▁sorol	-10.2903
lus	-10.291
▁megelőző	-10.2912
encia	-10.2913
▁Bur	-10.2917
mutató	-10.292
bé	-10.2921
▁hiteles	-10.2925
▁hazánk	-10.2929
▁külügyminiszter	-10.2929
▁időre	-10.2933
vesztés	-10.2938
akkal	-10.2947
▁Szám	-10.2951
▁nevezett	-10.2956
▁lista	-10.2959
Q	-10.2966
▁elegendő	-10.2966
▁Olyan	-10.2966
▁minket	-10.2966
▁értékesít	-10.2968
▁hő	-10.2972
▁levél	-10.2975
▁magának	-10.2977
▁mindegyik	-10.2977
▁Milan	-10.2978
▁kérdést	-10.298
▁milliós	-10.2988
▁amire	-10.2989
▁részvények	-10.2993
ph	-10.2999
▁un	-10.3002
▁átmeneti	-10.3003
▁Szabad	-10.3004
▁Ahogy	-10.3004
termék	-10.3008
▁tábor	-10.3014
▁kereslet	-10.3014
▁vásárlás	-10.3021
▁fős	-10.3022
fin	-10.3023
fű	-10.3025
ring	-10.3027
díjat	-10.3029
kereskedelem	-10.3041
▁klasszikus	-10.3041
▁köztársasági	-10.3041
▁épített	-10.3041
▁ural	-10.3041
▁szülés	-10.3041
vezet	-10.3045
talanul	-10.3047
▁változtat	-10.3047
oper	-10.3049
▁Központ	-10.3051
hitel	-10.3057
bajnok	-10.3061
▁16-	-10.3064
ox	-10.3064
▁egymillió	-10.3068
▁Gergely	-10.3078
▁jelenet	-10.3078
▁önkéntes	-10.3078
▁tapasztalt	-10.308
▁címvédő	-10.308
▁pénztár	-10.3082
barát	-10.3082
▁találta	-10.3086
zsa	-10.3092
▁akadály	-10.3097
▁játsz	-10.3103
▁védekez	-10.3107
▁várják	-10.3108
▁szakszervezet	-10.3111
nyal	-10.3113
▁Bajnokok	-10.3116
▁izgalmas	-10.3116
▁államadósság	-10.3116
▁belvíz	-10.3116
▁elkészül	-10.3116
▁házasság	-10.3116
▁repülőgép	-10.3116
▁25-	-10.3126
▁rúg	-10.3128
▁betegek	-10.3136
spanyol	-10.314
▁hangsúly	-10.3142
▁gondolom	-10.3143
▁szempont	-10.3149
▁globális	-10.3153
▁hölgy	-10.3153
▁közlése	-10.3155
▁győzött	-10.3157
▁meccset	-10.316
▁nyári	-10.3166
szon	-10.3172
▁kert	-10.3175
▁igazgatóság	-10.3176
▁találat	-10.3181
▁lehetnek	-10.3187
éséről	-10.3187
Nem	-10.3189
▁Ferrari	-10.3191
▁búcsú	-10.3191
▁ingyenes	-10.3192
▁parkoló	-10.3192
biz	-10.3193
▁menetrend	-10.3194
▁orvosok	-10.3197
▁korszak	-10.3197
▁olcsóbb	-10.3199
▁irodá	-10.3199
▁Rad	-10.3204
szög	-10.321
▁2-1	-10.3225
▁kabinet	-10.3229
▁Talán	-10.3229
▁export	-10.323
▁szokásos	-10.3233
▁ru	-10.3234
▁foglalkozik	-10.3235
▁közvetlenül	-10.3236
▁általa	-10.3238
▁közölték	-10.324
▁eljut	-10.3247
bevétel	-10.3248
ajtó	-10.3249
▁megfelel	-10.3253
▁gyanúja	-10.3255
▁Szint	-10.3257
▁IMF	-10.3258
▁feltételez	-10.3261
▁szektor	-10.3264
▁atom	-10.3264
▁jövedelem	-10.3267
▁hirtelen	-10.3267
▁összecsapás	-10.3268
▁Martin	-10.327
▁fiatalember	-10.3271
▁nyugdíjrendszer	-10.3273
▁létrehoz	-10.3277
▁reagált	-10.3278
▁KN	-10.328
vitel	-10.3285
▁alapító	-10.3287
ékeny	-10.3288
29	-10.329
ítva	-10.3294
▁hivatkoz	-10.3296
tábor	-10.3297
▁egységes	-10.3297
▁illegális	-10.3306
▁zuhan	-10.3306
▁mikro	-10.3308
▁hónappal	-10.3308
zte	-10.331
▁keleti	-10.331
▁2002-	-10.3315
▁figyelm	-10.3317
▁biztosított	-10.3321
▁befektető	-10.3325
▁nyit	-10.3329
iskola	-10.3332
▁szakértői	-10.3333
hib	-10.3335
▁tartották	-10.3335
▁lo	-10.3336
▁üt	-10.3339
▁Lázár	-10.3344
▁munkás	-10.3345
▁hallott	-10.3349
▁kever	-10.3349
jav	-10.3354
▁kapcsolódó	-10.3358
állítani	-10.3361
puszt	-10.3362
▁típus	-10.3362
▁12-	-10.3367
ack	-10.337
Ö	-10.337
▁védelem	-10.3373
sük	-10.3374
▁torná	-10.338
▁hajléktalan	-10.3383
▁törvényjavaslat	-10.3383
▁emleget	-10.3383
▁tánc	-10.3385
▁eredményt	-10.3386
▁hon	-10.3387
▁közülük	-10.3389
▁felirat	-10.3389
▁felújítás	-10.339
▁aligha	-10.3399
rák	-10.341
▁rájuk	-10.3412
▁sújt	-10.342
▁Király	-10.3422
▁ellenőriz	-10.3422
▁Tar	-10.3424
▁számítás	-10.3424
▁üres	-10.3426
▁ágy	-10.3427
▁mondat	-10.3432
▁Villa	-10.3435
▁reggeli	-10.3437
▁Egyesület	-10.3446
tenger	-10.3452
rr	-10.3452
▁kapcsolatot	-10.3456
▁tiszta	-10.3459
▁Eredmény	-10.346
▁ellentétben	-10.346
▁barátnő	-10.3464
▁kíváncsi	-10.3465
▁fül	-10.3467
jukat	-10.3467
állították	-10.3469
▁mondjuk	-10.3472
▁Németországban	-10.3474
▁Tovább	-10.3474
pé	-10.3475
▁vizsgálatot	-10.3477
▁részletes	-10.3492
▁országot	-10.3492
▁tartalmazó	-10.3495
jétől	-10.3497
▁Arsenal	-10.3499
▁Chelsea	-10.3499
▁BMW	-10.3499
▁merénylet	-10.3499
▁onnan	-10.35
▁Bokros	-10.35
▁alelnöke	-10.35
▁kárt	-10.3505
▁berendezés	-10.3514
zo	-10.3522
▁tudunk	-10.3525
▁értek	-10.3527
válogatott	-10.3528
kérdez	-10.3529
▁helyettes	-10.3529
bány	-10.3529
▁szoci	-10.3537
küszöb	-10.3539
▁munkáltató	-10.3539
▁kritikus	-10.3539
▁fogy	-10.3539
▁Vár	-10.354
▁erdő	-10.3542
▁csont	-10.3543
▁rosszabb	-10.3544
busz	-10.3547
darab	-10.3549
▁felhasználó	-10.3553
▁esik	-10.3555
▁méteres	-10.3556
▁mindenkinek	-10.3559
▁fogyaszt	-10.3561
▁zárta	-10.3567
▁könny	-10.3569
▁megmarad	-10.3571
▁karrier	-10.3577
▁eltűnt	-10.3578
▁konzervatív	-10.3578
csarnok	-10.3578
▁érv	-10.3581
▁Liga	-10.3586
▁fenti	-10.3587
ségének	-10.3592
pör	-10.3594
▁címet	-10.3594
▁csend	-10.3595
▁szervező	-10.3596
▁Marc	-10.3599
▁juttat	-10.3606
▁lelkes	-10.3614
▁Gordon	-10.3618
▁Katalin	-10.3618
▁pilótá	-10.3618
▁végső	-10.3618
▁februárban	-10.3621
▁vetett	-10.3622
hajtó	-10.3623
▁amiben	-10.3626
▁várnak	-10.3628
▁szerencs	-10.3629
▁vak	-10.3632
!"	-10.3634
▁nyak	-10.364
▁szobá	-10.3643
gazda	-10.3643
választott	-10.3644
▁para	-10.3645
▁kezdve	-10.3646
▁katonák	-10.3647
▁ered	-10.3647
hessen	-10.3649
▁Állami	-10.3652
▁47	-10.3653
▁Somogy	-10.3657
▁magyarázat	-10.3657
▁vallomás	-10.3658
▁színvonal	-10.3661
▁csatorná	-10.3669
▁közzétett	-10.3672
▁Roma	-10.3675
gáz	-10.3676
▁dolgoznak	-10.3677
▁Irán	-10.3677
▁legjobban	-10.368
▁Ham	-10.3683
▁rég	-10.3686
▁kommunikációs	-10.3687
▁megmutat	-10.3687
▁igyekez	-10.3689
▁31-	-10.3693
▁katolikus	-10.3697
▁norvég	-10.3697
▁Ágnes	-10.3697
▁Borsod	-10.37
▁szék	-10.3701
▁elmarad	-10.3701
▁bezár	-10.3705
▁old	-10.3709
övet	-10.371
▁tüntet	-10.3712
▁negyedévben	-10.3712
▁oly	-10.3716
▁Star	-10.3722
▁1,5	-10.3722
jelentkez	-10.3726
▁különös	-10.3726
28	-10.3729
▁Fer	-10.3732
▁meghatároz	-10.3736
kupá	-10.3737
▁Parlament	-10.3737
▁Természetesen	-10.3738
▁színpad	-10.3739
▁kiáll	-10.3739
▁költöz	-10.374
ítanak	-10.3741
ace	-10.3745
▁Audi	-10.3746
állal	-10.3746
városi	-10.3748
▁helyes	-10.3748
getés	-10.3749
▁hozza	-10.3749
▁Cser	-10.3753
▁unió	-10.3754
▁alapvető	-10.3761
német	-10.3764
▁fölé	-10.3768
telenül	-10.3769
üzem	-10.377
technika	-10.3773
▁forinton	-10.3774
▁liberális	-10.3776
▁James	-10.3778
▁megfigyel	-10.3778
▁hozzájárul	-10.3782
▁valamelyik	-10.3788
▁53	-10.3789
alakul	-10.3794
szter	-10.3798
▁legutóbb	-10.3799
▁beszélgetés	-10.3802
2)	-10.3804
▁legyőz	-10.3804
▁1:	-10.3811
▁portugál	-10.3818
▁nyilvánvaló	-10.3819
▁feljelentést	-10.3821
ogó	-10.3822
▁ítélte	-10.3831
cker	-10.3831
▁borít	-10.3833
▁stabil	-10.3834
▁fáj	-10.3843
▁szerepe	-10.3847
▁állatok	-10.3848
▁területi	-10.3849
▁kifizetés	-10.3856
biztosítási	-10.3857
▁fogva	-10.3858
▁Korábban	-10.3858
▁elsődleges	-10.3858
▁technikai	-10.3859
▁önkormányzatok	-10.386
▁menni	-10.3864
▁Mű	-10.3866
▁szellemi	-10.3867
alko	-10.387
▁56	-10.3872
téve	-10.3875
▁követi	-10.3876
▁programok	-10.3876
▁távú	-10.3877
▁héttel	-10.3881
keresés	-10.3885
▁választók	-10.3888
▁adták	-10.389
▁végző	-10.3892
kezelés	-10.3892
▁seb	-10.3893
▁jogosult	-10.3895
▁Emellett	-10.3899
▁elektromos	-10.3899
▁energiá	-10.3899
▁kattint	-10.3899
▁radikális	-10.3899
enko	-10.3901
négy	-10.3903
▁műve	-10.3904
▁49	-10.3909
jához	-10.3914
bur	-10.3918
▁megállapítás	-10.3923
▁ismerte	-10.3924
▁beszélni	-10.3925
▁naponta	-10.3928
▁600	-10.3931
▁hozni	-10.3931
tudat	-10.3936
▁bűncselekmények	-10.3936
▁Cha	-10.3938
▁generáció	-10.394
▁klíma	-10.394
▁megújul	-10.3941
▁ütött	-10.3943
▁tudás	-10.3947
oga	-10.3951
▁okozó	-10.3953
▁professzor	-10.3955
▁biztonságos	-10.396
SA	-10.3964
▁nyúl	-10.3966
Ez	-10.3967
▁gazdaságpolitik	-10.3967
▁rendelkezésre	-10.3972
▁mínusz	-10.3981
▁bármilyen	-10.3981
▁udvar	-10.3981
▁Isten	-10.3981
▁kialakítás	-10.3981
▁gépjármű	-10.3982
▁amelyik	-10.3983
▁szorul	-10.3985
▁megvan	-10.3989
▁Park	-10.399
99	-10.3991
▁buk	-10.3992
atlanul	-10.3994
▁éjszaká	-10.3995
▁2004-	-10.3996
▁értelme	-10.4004
szerelés	-10.4006
89	-10.4007
KDNP	-10.4015
▁kerülnek	-10.4018
hette	-10.4021
▁színes	-10.4021
▁dízel	-10.4022
▁Független	-10.4022
▁számító	-10.4022
▁kamion	-10.4022
▁értesült	-10.4022
▁köteles	-10.4022
▁0-0	-10.4023
szolgáltató	-10.4023
▁kamerá	-10.4024
▁hozzátéve	-10.4026
eztek	-10.4026
jünk	-10.4029
▁lehető	-10.403
gyújt	-10.4033
▁52	-10.4037
▁Öt	-10.4038
▁Pu	-10.4042
▁Sta	-10.4043
▁elismerés	-10.4044
09	-10.4048
▁mesél	-10.405
sértés	-10.4051
▁Honvéd	-10.4057
▁akarják	-10.4061
▁foglalkoztat	-10.4062
▁problémát	-10.4063
▁nyilvántartás	-10.4065
▁Éva	-10.4066
▁rep	-10.4067
▁munkaerő	-10.4067
▁háztartás	-10.4068
jogi	-10.4071
▁elhelyez	-10.4072
▁kézi	-10.4074
▁vizsgálatok	-10.408
áris	-10.4081
▁Vasas	-10.4085
gatás	-10.4085
▁vírus	-10.4088
▁újságírók	-10.4089
▁lehetetlen	-10.4092
lg	-10.4092
íg	-10.4092
munka	-10.41
▁Nov	-10.4101
gyártó	-10.4104
▁bruttó	-10.4105
▁robbant	-10.4105
▁sosem	-10.4105
emelt	-10.4113
▁demokratikus	-10.4115
▁fordulóban	-10.4115
vezér	-10.4119
▁módosít	-10.412
▁képtelen	-10.4127
hatta	-10.4132
zárás	-10.4132
assák	-10.4137
▁tagok	-10.4142
▁felében	-10.4144
▁javítás	-10.4145
▁vörösiszap	-10.4146
techniká	-10.4146
▁csoda	-10.4151
▁Peter	-10.4153
▁Ár	-10.4158
▁csalás	-10.4159
▁védekezés	-10.4159
▁ront	-10.4161
▁produkció	-10.417
folyam	-10.4181
▁MNB	-10.4188
erős	-10.4188
▁látogatás	-10.4195
uck	-10.4201
▁kiadott	-10.4201
▁óriás	-10.4204
▁irányítás	-10.4212
▁komolyan	-10.4223
▁említ	-10.4225
▁vállalatok	-10.4226
rik	-10.4226
▁só	-10.423
▁módosító	-10.423
▁ciklus	-10.423
▁fém	-10.4231
▁forma	-10.4234
▁társai	-10.4234
▁Dan	-10.4235
fokú	-10.4248
▁park	-10.4253
▁becslése	-10.4256
▁pol	-10.426
▁jobboldali	-10.426
▁választotta	-10.4269
▁fizetett	-10.427
▁számukra	-10.4272
▁nehezebb	-10.4272
túr	-10.4273
▁Közép	-10.4276
▁kő	-10.4278
▁eleve	-10.4281
▁orr	-10.4283
▁tárol	-10.4284
álták	-10.4287
▁készülő	-10.429
pál	-10.4292
▁vegyes	-10.4295
▁Mel	-10.4296
▁szülei	-10.4297
kedve	-10.4299
▁Kép	-10.4301
▁engedélyez	-10.4304
▁Napi	-10.4307
▁Mont	-10.4308
▁lakossági	-10.4308
▁korlátozás	-10.4312
▁Petr	-10.4314
▁elképzelhető	-10.4315
▁tizenegy	-10.4315
▁Árpád	-10.4315
▁Klub	-10.4315
▁elítél	-10.4315
▁légitársaság	-10.4315
▁rendszerváltás	-10.432
cher	-10.4321
▁pályáz	-10.4327
▁18-	-10.4333
▁technológia	-10.4336
▁Volt	-10.4343
élyes	-10.4343
▁Rob	-10.4345
▁elmélet	-10.4346
▁többlet	-10.4354
▁hangsúlyoz	-10.4357
▁gazdá	-10.4357
▁védelme	-10.4357
hány	-10.4358
▁megold	-10.4358
▁gépkocsi	-10.4359
▁sör	-10.4361
▁lapnak	-10.4364
▁nyugodt	-10.4364
▁egyetemi	-10.4364
látó	-10.4365
▁aggód	-10.4367
▁háromszor	-10.4383
▁felkészülés	-10.4383
támadás	-10.4384
szervezés	-10.439
▁felismer	-10.4392
▁frakcióvezető	-10.4393
▁művel	-10.4394
▁láng	-10.44
▁Élet	-10.44
▁nettó	-10.44
▁érzékel	-10.4403
▁vasúti	-10.4403
▁utód	-10.4404
▁Áll	-10.4404
zá	-10.4405
▁kiemelte	-10.4405
▁Mer	-10.4407
▁passz	-10.4412
▁193	-10.4415
▁hatékony	-10.4417
ellátás	-10.4428
▁Párizs	-10.4443
▁többiek	-10.4444
▁egyedi	-10.4445
aira	-10.4447
▁tervezi	-10.4449
▁munkáját	-10.4456
▁folytatódik	-10.4458
ogatás	-10.4458
▁kapcsol	-10.4465
előtt	-10.4472
▁emlékezet	-10.4477
▁értelmez	-10.4478
FA	-10.4481
▁tesztel	-10.4483
▁aktuális	-10.4486
▁alapítvány	-10.4486
▁furcsa	-10.4486
▁pécsi	-10.4486
▁gondoskod	-10.4486
▁befektetési	-10.4488
próbá	-10.4493
▁kidolgoz	-10.4493
▁emelés	-10.4495
▁Dem	-10.4506
▁helyzetbe	-10.451
▁Mad	-10.4512
▁Szó	-10.4523
▁kín	-10.4526
▁ugyanez	-10.4528
▁Brüsszel	-10.4529
▁garantál	-10.4529
▁négyzetméter	-10.4529
▁Japán	-10.4529
AC	-10.453
▁régóta	-10.453
▁segíteni	-10.4531
▁játszani	-10.4533
▁hatodik	-10.4533
▁felszín	-10.4534
túra	-10.4535
▁címmel	-10.4536
▁autós	-10.454
▁adnak	-10.4541
▁vers	-10.4542
▁teljesített	-10.4544
▁vizsgálja	-10.4551
▁Ex	-10.4553
▁ellát	-10.4554
▁54	-10.4555
▁51	-10.4557
bár	-10.4557
▁vezérigazgatója	-10.4561
▁szeme	-10.4566
▁süt	-10.4571
▁luxus	-10.4573
▁holttest	-10.4573
▁többnyire	-10.4573
▁vám	-10.4579
▁kiadó	-10.4583
▁120	-10.4585
▁mennyiségű	-10.4586
▁vajon	-10.4587
▁fordított	-10.4588
▁jelentett	-10.4588
▁férje	-10.4594
▁jelez	-10.4595
▁gyengült	-10.4602
▁vadász	-10.4607
erg	-10.4612
▁rögzít	-10.4612
▁területek	-10.4613
▁kudarc	-10.4616
▁WA	-10.4618
▁terep	-10.4622
▁stb	-10.4626
▁57	-10.4628
tatták	-10.4631
lapvetően	-10.4634
we	-10.4635
▁repülő	-10.4637
▁front	-10.4642
bar	-10.4653
▁piacok	-10.4654
08	-10.4659
hálózat	-10.4659
▁Hajdú	-10.466
▁December	-10.466
▁száraz	-10.4661
▁tenisz	-10.4661
▁Velvet	-10.4662
▁munkavállaló	-10.4663
▁gazdálkod	-10.4664
▁szerintem	-10.4666
▁ahogyan	-10.4667
▁számítanak	-10.4667
▁gomb	-10.467
▁szállították	-10.4673
miért	-10.4678
▁feldolgoz	-10.4679
▁Hát	-10.468
▁Sim	-10.4681
tájékoztatóján	-10.4684
▁utasok	-10.4685
▁mérleg	-10.4688
05	-10.4694
▁Pat	-10.4697
tenni	-10.4698
▁véletlen	-10.4699
▁felsőoktatás	-10.4704
▁feltétlenül	-10.4704
▁megítélés	-10.4704
▁észlel	-10.4705
▁élni	-10.4705
▁sértett	-10.471
örök	-10.4724
▁forintért	-10.4725
▁használni	-10.4727
ázott	-10.473
jű	-10.4731
▁forgalm	-10.4739
járás	-10.474
állomány	-10.4748
▁gén	-10.4748
▁APEH	-10.4749
▁WikiLeaks	-10.4749
robbant	-10.4749
▁jöhet	-10.4749
▁létezik	-10.4749
ném	-10.475
▁Szombathely	-10.475
biztonsági	-10.4751
mester	-10.4753
▁változatlan	-10.4753
▁idősebb	-10.4755
▁háló	-10.4755
▁Míg	-10.4756
▁könnyebb	-10.4759
csatorn	-10.476
omat	-10.4762
▁Pla	-10.4764
vetett	-10.4765
▁jelöltje	-10.4766
▁költő	-10.4773
▁szezonban	-10.4777
▁Való	-10.4777
▁bronz	-10.4793
▁Eddig	-10.4793
▁jegyezte	-10.4795
▁diákok	-10.4799
▁elsejé	-10.4805
75	-10.4806
takarékos	-10.4807
▁szolgáltatások	-10.481
▁szintű	-10.4818
szakasz	-10.4823
bukott	-10.4823
▁csinálni	-10.4829
jától	-10.4832
▁Első	-10.4832
▁iratok	-10.4834
▁forgatókönyv	-10.4838
▁gyümölcs	-10.4838
▁RTL	-10.4838
▁kanyar	-10.4838
fegyver	-10.4838
▁élnek	-10.4842
▁napok	-10.4849
▁Mond	-10.4855
▁átadás	-10.4862
▁interneten	-10.4869
▁megszerez	-10.4871
▁szellem	-10.4873
▁szegedi	-10.4882
▁ritka	-10.4883
szerződés	-10.4883
▁Iroda	-10.4883
ano	-10.4884
viadal	-10.4886
▁gyűjtött	-10.4886
▁kereskedés	-10.4886
▁the	-10.4887
▁ellenfél	-10.4893
▁Arany	-10.4893
▁Cas	-10.4896
▁tekintve	-10.4901
▁hatással	-10.4906
tervezet	-10.4909
▁meglát	-10.4909
▁fér	-10.4909
▁választott	-10.491
▁Dar	-10.4917
▁mutatta	-10.492
▁függő	-10.4925
▁tudtam	-10.4926
▁legfrissebb	-10.4927
▁kávé	-10.4928
mérkőzés	-10.4928
keleti	-10.4928
▁véleményét	-10.4929
▁indoklás	-10.493
▁Andrea	-10.4931
▁vetít	-10.4932
▁tekintettel	-10.4932
▁éles	-10.4932
▁mielőtt	-10.4933
▁énekes	-10.4934
▁elrendel	-10.4935
ültek	-10.4943
▁kizárt	-10.4947
▁Juli	-10.4949
▁mutatják	-10.4949
▁érinti	-10.495
kocká	-10.4951
▁Város	-10.4954
▁Miért	-10.4955
▁összetett	-10.4955
▁követte	-10.4957
tartott	-10.4966
lány	-10.4969
kereskedő	-10.497
▁jutottak	-10.4971
▁magánnyugdíj	-10.4971
▁adják	-10.4971
▁tavasszal	-10.4973
▁funkció	-10.4973
▁sajnál	-10.4973
▁hetven	-10.4973
▁ügyfelek	-10.4975
▁rang	-10.4975
▁Film	-10.4975
▁szárny	-10.4977
teljes	-10.4978
▁kék	-10.498
▁kihívás	-10.4983
nyugdíjpénztárak	-10.4996
▁vitte	-10.5001
▁ütközött	-10.5001
▁tanít	-10.5002
▁Sopron	-10.5006
▁érzékeny	-10.5008
▁hibát	-10.5009
▁kg	-10.5011
▁Com	-10.5017
papír	-10.5018
▁hulladék	-10.5018
▁tőzsde	-10.5018
▁Renault	-10.5018
figurá	-10.502
▁szeretnénk	-10.5023
▁szereplés	-10.5024
▁sark	-10.5026
▁díja	-10.5029
▁isten	-10.5029
▁bekerül	-10.503
etlenül	-10.5034
élés	-10.5034
▁változások	-10.5035
izált	-10.5039
▁bont	-10.504
▁gyermekek	-10.5047
ozták	-10.5059
Ú	-10.5061
lav	-10.5061
mező	-10.5061
▁kellő	-10.5062
▁herceg	-10.5064
▁indiai	-10.5064
kívül	-10.5065
▁termelő	-10.5068
="	-10.5071
▁tízezer	-10.5071
▁kormányzás	-10.5072
▁tettes	-10.5077
hajó	-10.5078
▁inter	-10.5088
▁programja	-10.5091
abi	-10.5092
▁összefüggés	-10.5094
▁védelmi	-10.5095
▁kötelez	-10.5095
csúszott	-10.5099
▁olcsó	-10.5101
ujj	-10.5106
▁hónapja	-10.5108
▁szovjet	-10.511
tisztviselő	-10.511
▁karakter	-10.511
▁deviza	-10.511
▁énekesnő	-10.5111
▁Port	-10.5113
műsor	-10.5117
nézet	-10.5134
▁Vég	-10.5134
▁rámutat	-10.5144
▁tanuló	-10.5147
minősít	-10.5151
▁helyén	-10.5152
▁órás	-10.5152
alkotás	-10.5154
▁minimális	-10.5156
▁ábrázol	-10.5156
▁Kap	-10.5156
▁Ekkor	-10.5156
▁nevel	-10.5159
▁napirend	-10.516
alitás	-10.5165
▁baloldali	-10.5172
▁környezetvédelm	-10.5173
▁hiszem	-10.5176
▁tartozás	-10.5179
▁Dom	-10.5181
▁kétharmad	-10.5182
▁kilométeres	-10.5186
▁szeptemberben	-10.5193
▁alkotó	-10.5197
váltó	-10.5198
▁cáfol	-10.5202
▁füst	-10.5202
▁ezüst	-10.5202
▁végeredmény	-10.5203
▁réteg	-10.5203
intézet	-10.5203
vándor	-10.5204
fesz	-10.5204
töltés	-10.5207
▁MTV	-10.5207
▁jegyzés	-10.5209
▁helyét	-10.521
▁műv	-10.5216
▁költségek	-10.5218
▁csapatot	-10.5222
▁csatá	-10.5228
▁következik	-10.523
▁mentők	-10.5231
hova	-10.5235
▁szépség	-10.5244
láb	-10.5246
▁rendszeres	-10.5246
▁szereplők	-10.5246
▁Sajnos	-10.5249
▁kábítószer	-10.5249
▁külföldön	-10.5249
▁fizikai	-10.5249
völgy	-10.5249
▁magunk	-10.525
▁tudomány	-10.5252
uch	-10.5252
pontos	-10.5253
▁részesül	-10.5254
▁életbe	-10.5258
▁terjeszt	-10.5259
▁XI	-10.5265
▁beavatkozás	-10.5268
▁nyerni	-10.5275
▁juttatás	-10.5279
fr	-10.5279
órás	-10.5279
szalag	-10.5279
NA	-10.528
▁embernek	-10.528
▁súlyosan	-10.5287
ation	-10.5293
▁Bayern	-10.5295
▁bölcs	-10.5296
▁kiemelkedő	-10.53
▁bizonyult	-10.53
▁dől	-10.5308
▁War	-10.5324
▁töröl	-10.5329
egyház	-10.5333
▁otthonában	-10.5333
▁robbanás	-10.5335
▁literes	-10.5335
▁szervezők	-10.5337
▁befektetés	-10.5341
▁keletkezett	-10.5342
▁Idén	-10.5343
▁Vettel	-10.5343
▁megbeszélés	-10.5343
▁kifejezés	-10.5345
▁jelenlét	-10.5346
edtek	-10.5355
▁technológiá	-10.5357
lény	-10.5358
▁szolgáló	-10.5359
mondás	-10.5359
graf	-10.5362
▁jelzi	-10.5363
▁nagykövet	-10.537
▁pszich	-10.5371
▁futó	-10.5376
38	-10.5378
gazdálkodás	-10.5385
▁izg	-10.5386
▁amilyen	-10.539
▁stáb	-10.539
▁költségei	-10.5391
▁hibáz	-10.5391
▁lehetőségét	-10.5392
▁zajló	-10.5392
▁hatáskör	-10.5394
építeni	-10.5396
bul	-10.5396
▁béke	-10.5398
▁szül	-10.54
▁titok	-10.5403
▁esélyes	-10.5405
▁használják	-10.5406
▁lemez	-10.5406
▁ital	-10.5408
művek	-10.5409
▁életben	-10.5409
▁irányít	-10.5411
▁Bru	-10.5412
gyűjtés	-10.5421
▁szabadon	-10.5422
lám	-10.5424
▁21-	-10.5427
▁távolság	-10.5429
▁torna	-10.5435
▁Kecskemét	-10.5437
▁Hírügynökség	-10.5437
▁Igazgatóság	-10.5437
▁elveszít	-10.5438
méret	-10.5441
▁58	-10.5447
▁félév	-10.545
▁megbízott	-10.5453
▁településen	-10.5454
▁nyilvánosság	-10.5456
▁másrészt	-10.5461
▁akadályoz	-10.5463
▁gyakor	-10.5464
▁fenntartás	-10.5466
▁kéne	-10.5466
▁választásokon	-10.5466
▁szállít	-10.5468
▁meghatározott	-10.5473
▁dokumentumok	-10.5478
ím	-10.548
▁Svédország	-10.5484
▁Mac	-10.5485
▁körülményei	-10.5486
▁felszámolás	-10.5486
▁erők	-10.5487
kiknek	-10.5488
▁jogerős	-10.5488
lay	-10.5488
▁világon	-10.5491
▁Ferencváros	-10.5494
▁őriz	-10.5498
▁kapcsolatok	-10.5506
▁belváros	-10.5508
▁rejt	-10.5512
▁veszik	-10.5512
▁pártelnök	-10.5517
▁64	-10.5519
▁abba	-10.5526
▁fokozat	-10.5529
▁1,2	-10.5529
▁szállítás	-10.5531
▁áldozatok	-10.5531
terme	-10.5532
▁BUX	-10.5532
▁Január	-10.5532
▁Egyelőre	-10.5532
▁szemét	-10.5534
▁elvárás	-10.5535
▁perccel	-10.5535
▁bizonytalan	-10.5537
▁működését	-10.5539
▁Szu	-10.5541
▁Sőt	-10.5542
▁Ford	-10.5543
▁fed	-10.5544
▁máris	-10.5546
▁ügyet	-10.5549
▁hónapos	-10.5551
▁felkészül	-10.5551
▁kínálat	-10.5554
▁Dob	-10.5559
q	-10.5563
▁folytatta	-10.5564
▁illetően	-10.5566
▁főút	-10.5573
▁Fehér	-10.5577
▁munkavállalók	-10.5577
▁római	-10.558
rendezés	-10.5581
tábla	-10.5581
▁vastag	-10.5582
▁takar	-10.5582
04	-10.5583
▁járnak	-10.5584
▁évforduló	-10.5585
▁napot	-10.5589
beszerzés	-10.5589
▁döntöttek	-10.5589
▁kórházban	-10.5593
33	-10.5594
▁magára	-10.5595
▁Tur	-10.5596
34	-10.5601
tulajdonos	-10.5614
forrás	-10.5621
▁Vel	-10.5625
▁gyakori	-10.5627
▁Utóbbi	-10.5629
▁kártérítés	-10.5629
▁meggyőz	-10.5629
▁Chris	-10.563
▁olimpia	-10.5632
úton	-10.5632
▁illeti	-10.5634
költség	-10.5637
▁KDNP	-10.5637
▁járművek	-10.5637
gatott	-10.5638
ákkal	-10.564
▁rendezés	-10.5644
▁évtizedek	-10.5644
asszony	-10.5646
▁beszélget	-10.5654
▁vásárolt	-10.5654
ösztön	-10.5668
nyelv	-10.5671
▁pontra	-10.5671
▁Televízió	-10.5677
▁demokrácia	-10.5677
▁hétköznap	-10.5677
ä	-10.5677
▁Emlék	-10.5677
▁lelki	-10.5678
▁Először	-10.5678
▁műtét	-10.5679
▁főszereplő	-10.568
▁termel	-10.5681
▁rögzített	-10.5682
kelet	-10.5683
▁fürdő	-10.5685
hiány	-10.5696
▁erősödés	-10.57
▁szabályai	-10.5702
▁helyezés	-10.5715
▁leáll	-10.5716
▁befizetés	-10.5716
cső	-10.5724
▁nézni	-10.5724
▁statisztika	-10.5726
01	-10.5726
▁kutya	-10.5726
▁Kultúr	-10.5727
94	-10.5728
▁szerette	-10.5729
helyettese	-10.573
▁játékok	-10.5732
▁bérlet	-10.5736
forgalmi	-10.574
▁Hal	-10.5743
▁amerikaiak	-10.5743
▁utcán	-10.5751
boly	-10.5758
▁folytatja	-10.576
▁tartalma	-10.5762
▁fr	-10.5764
▁Farkas	-10.5775
▁deficit	-10.5775
▁tojás	-10.5776
▁médiá	-10.5776
▁negyeddöntő	-10.5776
▁számát	-10.5777
55	-10.5779
▁hazaiak	-10.5779
ázás	-10.5781
▁szeretnének	-10.5782
qui	-10.5783
▁trend	-10.5787
umb	-10.5789
▁zseb	-10.5794
▁kihagy	-10.5794
▁órák	-10.5795
hattak	-10.5798
▁segítő	-10.5798
▁települések	-10.5799
▁lóerős	-10.58
jo	-10.5801
▁kijelentés	-10.5803
▁alapított	-10.5808
cer	-10.5809
pesti	-10.5812
▁alkotmányos	-10.5817
#	-10.5824
▁Krisztián	-10.5824
▁kritiká	-10.5824
▁gondolkodás	-10.5826
▁fokozatosan	-10.5826
▁feszültség	-10.5826
pec	-10.5827
▁fontosabb	-10.5827
▁különféle	-10.5829
MSZ	-10.583
használat	-10.5831
közép	-10.5837
▁személyek	-10.584
▁programot	-10.584
▁felfedez	-10.5844
▁bevet	-10.5846
▁keze	-10.585
▁közelebb	-10.5854
kereszt	-10.5857
ztatás	-10.5861
▁közigazgatási	-10.5869
▁Később	-10.5874
▁Vasárnap	-10.5874
▁Williams	-10.5874
▁igyekszik	-10.5874
▁származású	-10.5874
▁felajánl	-10.5874
▁köbméter	-10.5874
▁Össze	-10.5874
kezdés	-10.5876
▁óvatos	-10.5876
külön	-10.5877
▁kötvény	-10.5877
▁nyolcvan	-10.5878
▁elvégz	-10.5882
▁1,4	-10.5883
rendű	-10.5888
▁alaposan	-10.5893
▁kívánja	-10.5893
biztonság	-10.5894
▁kétharmados	-10.5896
▁hozták	-10.5899
▁GP	-10.59
▁futott	-10.5904
liga	-10.5907
▁válogat	-10.5913
▁800	-10.5914
▁Alapítvány	-10.5924
▁intenzív	-10.5924
▁Vörös	-10.5924
▁virág	-10.5924
▁kifejtette	-10.5925
▁kibocsátás	-10.593
▁katona	-10.5931
▁megrendez	-10.5936
▁emlékeztetett	-10.5936
▁megbízás	-10.5952
▁India	-10.5957
▁anyagok	-10.5959
▁kilométerre	-10.5961
▁hirdetés	-10.5962
▁tonna	-10.5974
▁kód	-10.5978
▁elmaradt	-10.5983
▁áron	-10.5984
▁Bol	-10.5986
▁jelzés	-10.5987
▁értékelés	-10.5991
pla	-10.5992
▁körbe	-10.5993
▁kétszáz	-10.5993
▁2,5	-10.6011
▁Balogh	-10.6024
▁mozog	-10.6024
▁bolygó	-10.6024
▁Köztársaság	-10.6025
▁készpénz	-10.6026
▁áruház	-10.6027
gyógy	-10.6029
Magyarország	-10.6036
▁mértékű	-10.6037
▁részletek	-10.604
▁hiánya	-10.6043
vezetője	-10.6043
▁fogyasztó	-10.6049
▁közepé	-10.6051
bontás	-10.6053
▁tesznek	-10.6056
▁munkájá	-10.6059
▁szavai	-10.606
▁várni	-10.6064
▁igényel	-10.6064
▁Lin	-10.6067
▁rendszerben	-10.6068
▁Afganisztán	-10.6074
▁feltehetően	-10.6074
▁bekövetkez	-10.6074
▁fejlett	-10.6075
▁talaj	-10.6075
▁Ákos	-10.6075
▁video	-10.6076
ezres	-10.6077
▁normális	-10.6077
line	-10.608
▁labdát	-10.6082
pálya	-10.6084
▁3,5	-10.6089
össze	-10.609
▁vizet	-10.609
szögezte	-10.6091
▁Ellen	-10.6092
pénztári	-10.6093
tárgy	-10.6093
▁Ebből	-10.6097
▁főnök	-10.6101
tagok	-10.6101
fény	-10.6108
▁látják	-10.6115
utak	-10.6118
▁fellépés	-10.6121
▁Erdély	-10.6125
▁kiterjed	-10.6125
▁szélsőséges	-10.6126
▁elárul	-10.6126
formá	-10.6127
▁bio	-10.6128
▁forintba	-10.6128
▁főigazgató	-10.6132
esítés	-10.6132
▁benyújtott	-10.6133
▁felület	-10.6134
▁államok	-10.6137
▁Post	-10.6137
▁váratlan	-10.6139
ER	-10.6141
▁tudatos	-10.6142
▁lehessen	-10.6144
▁élők	-10.6146
lop	-10.6148
▁fegyveres	-10.6149
▁szerzője	-10.6155
▁úgyhogy	-10.6157
▁terén	-10.6162
▁autópályá	-10.6164
▁szerezni	-10.6164
▁változtatás	-10.6165
▁kérdésére	-10.6169
▁választáson	-10.6174
▁NATO	-10.6176
▁érvényben	-10.6176
▁Ők	-10.6177
▁váltott	-10.6177
▁próbálta	-10.6179
▁minősített	-10.618
▁Fu	-10.6181
▁kategóriában	-10.6181
▁értékben	-10.6182
▁Újpest	-10.6183
▁mos	-10.6184
▁befogad	-10.6184
▁magával	-10.6188
▁rablás	-10.6192
róf	-10.6196
▁kerülő	-10.6199
adták	-10.6203
▁figyelem	-10.6206
32	-10.6206
▁85	-10.621
gés	-10.6214
▁személyesen	-10.6214
▁beáll	-10.6219
ella	-10.6223
▁Richard	-10.6227
▁Svájc	-10.6227
▁megsemmisít	-10.6227
▁táplál	-10.6227
▁állomány	-10.6228
▁vélte	-10.6229
▁zenekar	-10.623
hatná	-10.6234
▁kommunikáció	-10.6235
▁szokatlan	-10.6237
szerkezet	-10.6241
típus	-10.6241
▁3-1	-10.6242
EK	-10.6243
▁iskolák	-10.6246
▁biztosítani	-10.6247
▁másnap	-10.6251
▁egyeztet	-10.6255
▁Zala	-10.6257
látás	-10.626
▁További	-10.6261
▁Tim	-10.6264
▁szorít	-10.6265
▁meghosszabbít	-10.6266
▁bejut	-10.6267
▁kereső	-10.627
▁fejez	-10.6271
▁fejezte	-10.6274
▁Szombat	-10.6277
▁Biztos	-10.6279
▁világszerte	-10.6279
▁jelentkező	-10.628
▁szórakoz	-10.628
▁kezdődő	-10.628
▁fesztivál	-10.6283
56	-10.6285
▁adhat	-10.6293
▁jogos	-10.6298
▁szakad	-10.63
▁helyszínre	-10.63
06	-10.6301
▁felhasználók	-10.6304
▁Bud	-10.6312
▁Wa	-10.6315
▁határon	-10.6318
gyűjtő	-10.6328
konstrukció	-10.6331
▁Kossuth	-10.6331
▁München	-10.6331
▁forradalom	-10.6331
▁megvalósul	-10.6331
▁párizsi	-10.6331
▁kormányzó	-10.6331
▁megszokott	-10.6331
óceán	-10.6331
▁innen	-10.6331
▁zsír	-10.6337
▁könyvet	-10.6343
▁sikerrel	-10.6344
▁interjúban	-10.6345
dön	-10.6354
▁ajánlószelvény	-10.6355
▁fogalm	-10.6356
▁megbízható	-10.6358
▁részleg	-10.6362
szony	-10.6368
▁Jól	-10.6374
▁utcában	-10.6375
▁1-2	-10.6377
▁idézte	-10.6378
▁viselkedés	-10.6382
▁Dániel	-10.6383
▁jóváhagy	-10.6383
▁tetszik	-10.6383
▁cukor	-10.6383
07	-10.6383
▁órát	-10.6384
▁egyenlít	-10.6385
▁találni	-10.6389
▁szabálytalan	-10.6392
▁Szlovákiá	-10.6393
▁szerény	-10.6397
Korea	-10.6401
▁bajnokságban	-10.6406
nevelés	-10.6407
▁márka	-10.6408
rop	-10.6408
▁részére	-10.641
▁beszámolt	-10.6411
▁tagállam	-10.6411
▁harcol	-10.6412
49	-10.6414
▁valamivel	-10.6415
▁köszönhető	-10.6415
▁rendben	-10.6416
▁szépen	-10.6419
▁teli	-10.642
▁államháztartási	-10.6421
▁Újabb	-10.6422
91	-10.6424
ájának	-10.6426
▁tét	-10.6426
▁hónapokban	-10.6428
gatni	-10.6432
▁regionális	-10.6435
▁Oscar	-10.6435
▁börtönbüntetés	-10.6435
▁Csehország	-10.6436
▁stratégiai	-10.6436
▁stabilitás	-10.6436
▁elutasít	-10.6438
▁küzdelem	-10.6438
▁tartalmazza	-10.644
▁gyereket	-10.6444
▁rajz	-10.6445
▁bűnös	-10.6445
számlá	-10.6447
cská	-10.6454
▁népszerűség	-10.6456
▁szóba	-10.6462
▁fejlőd	-10.6485
Í	-10.6486
▁lendület	-10.6488
▁cipő	-10.6488
▁Apple	-10.6488
▁illető	-10.6489
▁zajlik	-10.6489
▁kellemetlen	-10.649
▁Máté	-10.649
kodott	-10.6492
díjas	-10.6495
fekt	-10.6495
állam	-10.6495
▁indokolta	-10.6495
▁hiányzik	-10.6497
▁nyitva	-10.65
▁méretű	-10.6501
lab	-10.6503
forgalom	-10.6504
izálás	-10.6507
▁bejelentett	-10.6508
álják	-10.6509
▁térségben	-10.6515
▁szabályoz	-10.6521
gaz	-10.6534
▁1000	-10.6535
Egy	-10.6535
▁győzelmé	-10.6541
▁hétvégi	-10.6541
▁Vissza	-10.6541
▁Malév	-10.6542
▁Munka	-10.6543
▁sorozatban	-10.6543
▁folyóirat	-10.6543
▁százezer	-10.6545
▁kaland	-10.6546
37	-10.6549
▁ennyire	-10.655
szurkoló	-10.6553
▁helyezte	-10.6556
▁köré	-10.6561
36	-10.6567
lépett	-10.6569
▁parlamentben	-10.6581
▁összegyűjt	-10.6584
omlott	-10.6586
▁pillanatban	-10.6591
▁ingyen	-10.6594
▁Wal	-10.6594
▁ázsiai	-10.6594
▁Kedden	-10.6594
▁Moszkva	-10.6594
▁Külön	-10.6594
▁tempó	-10.6594
▁fárad	-10.6594
▁tized	-10.6596
OP	-10.6596
44	-10.6601
▁tekinthető	-10.6604
jelentés	-10.6607
▁eredményeket	-10.6608
▁lányok	-10.6613
▁gondolja	-10.6617
▁élén	-10.6618
▁esetek	-10.6619
készítő	-10.6622
osztó	-10.6626
▁tapasztalatai	-10.6629
31	-10.6636
▁szervek	-10.6639
▁Fél	-10.6639
▁tudná	-10.6647
▁argentin	-10.6647
▁megalapozott	-10.6647
▁ideiglenes	-10.6647
▁folyamán	-10.6648
▁szállodá	-10.6648
▁Ligá	-10.6655
törő	-10.6657
▁tájékoztatott	-10.6657
▁szállított	-10.6662
▁számon	-10.6671
sáv	-10.6673
▁megváltoztat	-10.6677
▁fejleszt	-10.6677
▁tüntetés	-10.668
▁emelkedik	-10.6684
▁192	-10.6684
▁ütköz	-10.6684
▁gépek	-10.6695
▁mérnök	-10.6699
▁Twitter	-10.6701
▁kontinens	-10.6701
▁monetáris	-10.6701
▁munkálatok	-10.6701
▁pápa	-10.6701
▁részesedés	-10.6701
▁fenntartható	-10.6702
▁Választás	-10.6702
▁simán	-10.6702
▁tudósító	-10.6705
▁Szeret	-10.6708
▁napos	-10.6709
heim	-10.6713
▁állampolgárság	-10.6716
▁Kell	-10.6722
jobb	-10.6724
gatta	-10.6725
ájában	-10.6727
▁mértéke	-10.6728
▁ünnepel	-10.6732
ling	-10.6732
▁stadion	-10.6734
szakadt	-10.6745
▁Tiszt	-10.6746
▁állítás	-10.6746
▁Var	-10.6749
▁digitális	-10.6755
▁tönkre	-10.6755
▁Alonso	-10.6755
▁Hasonló	-10.6755
▁egyensúly	-10.6756
▁téved	-10.6756
▁írták	-10.6757
eddig	-10.6758
▁autópálya	-10.6759
▁Fehérvár	-10.676
▁GB	-10.676
▁magatartás	-10.6762
▁95	-10.6763
▁kivált	-10.6771
▁Szo	-10.6775
▁98	-10.6788
▁használja	-10.6793
hettek	-10.6795
▁nézők	-10.6797
▁feljelentés	-10.6798
▁tisztában	-10.6798
▁finn	-10.68
▁fogyasztói	-10.6802
▁hord	-10.6804
▁dolga	-10.681
▁felszólít	-10.681
▁zsűri	-10.681
Szatmár	-10.6811
▁mosoly	-10.6811
▁autóbusz	-10.6814
▁újjá	-10.6815
41	-10.6818
▁62	-10.682
▁Hétfőn	-10.6821
▁említette	-10.6821
▁Motor	-10.6823
▁Mária	-10.6825
▁barátai	-10.6828
▁Cr	-10.6832
▁villá	-10.6833
▁Egészség	-10.6833
▁képez	-10.6846
▁elkészít	-10.6847
▁fennáll	-10.6847
▁meglévő	-10.685
▁ittas	-10.6854
▁alkalom	-10.6863
▁láttam	-10.6863
▁meghaladja	-10.6864
csempész	-10.6864
▁győzelmet	-10.6865
▁Barack	-10.6866
▁utazó	-10.6866
▁halála	-10.6866
▁tárgyak	-10.6869
▁euróval	-10.687
▁ugr	-10.6872
▁szakaszán	-10.6872
▁fellép	-10.6873
▁szál	-10.6875
85	-10.6876
▁eltelt	-10.688
▁Európá	-10.6881
▁állítják	-10.6881
▁Op	-10.6883
▁Hold	-10.6895
▁megbíz	-10.6896
▁nyelvű	-10.6902
▁résztvevők	-10.6902
ugrott	-10.6918
▁ünnepség	-10.6918
olvad	-10.6919
▁Ausztriá	-10.6919
▁Ausztrál	-10.6919
▁tizenöt	-10.6919
▁lélek	-10.6921
▁aláírás	-10.6921
▁közlekedő	-10.6921
▁riport	-10.6921
▁székhely	-10.6922
▁kincs	-10.6924
édi	-10.6924
▁folytatód	-10.6925
▁egyrészt	-10.6926
▁véletlenül	-10.6926
cio	-10.6945
▁használható	-10.6946
▁elismerte	-10.6949
vezeték	-10.6951
▁védett	-10.6957
press	-10.6962
▁kevesebbet	-10.6964
▁700	-10.6967
alizmus	-10.6967
▁Sor	-10.6968
nyúl	-10.6969
▁Matolcsy	-10.6974
▁Vancouver	-10.6974
▁bonyolult	-10.6974
▁dolgot	-10.6974
▁mobiltelefon	-10.6974
▁ugyanúgy	-10.6974
hr	-10.6975
▁hetekben	-10.6976
▁szavazók	-10.6976
ásakor	-10.6985
nyugat	-10.6995
gyors	-10.6997
▁vezetése	-10.6997
üveg	-10.6997
abbak	-10.7
▁vész	-10.7
▁tegye	-10.702
▁jelenthet	-10.7027
▁Toyota	-10.703
▁Vélemény	-10.703
▁büdzsé	-10.703
▁utoljára	-10.703
▁évszázad	-10.703
▁Bécs	-10.703
▁Gól	-10.7031
▁gyengébb	-10.7034
▁1999	-10.7034
▁Török	-10.7037
▁útvonal	-10.7042
▁med	-10.7045
▁Igen	-10.7046
▁arányban	-10.7048
▁regisztrált	-10.705
▁stratégiá	-10.7053
klub	-10.7053
▁Pont	-10.7053
▁figyelmét	-10.7056
▁kezdték	-10.7056
helyett	-10.7058
▁leány	-10.7067
jainak	-10.7067
▁kiprób	-10.708
▁mentén	-10.7084
▁kényszerít	-10.7086
▁produkál	-10.7086
▁legrosszabb	-10.7086
▁eltávolít	-10.7086
▁enyhít	-10.7086
▁munkák	-10.7087
közlési	-10.7087
▁műfaj	-10.7087
▁ősszel	-10.7088
▁jegyezték	-10.7088
pattan	-10.7088
▁pénzintézet	-10.7089
▁formájában	-10.7091
▁kapcsolód	-10.7092
▁törzs	-10.7095
▁Jack	-10.7095
▁érkeztek	-10.7096
▁módosított	-10.7103
▁ruha	-10.7104
francia	-10.7109
csúcs	-10.7109
termelés	-10.7112
▁tagad	-10.7117
▁Kínában	-10.7117
záró	-10.7119
▁egyikük	-10.7135
▁fejezet	-10.7138
▁Sólyom	-10.7142
▁iráni	-10.7142
▁származ	-10.7142
▁kézilabda	-10.7143
▁csatorna	-10.7143
▁Amerikai	-10.7143
▁igazságügyi	-10.7144
▁hetedik	-10.7146
▁lejárt	-10.7147
▁korosztály	-10.7147
▁műsorvezető	-10.7148
▁Haiti	-10.715
▁korában	-10.7153
▁legyőzte	-10.7161
▁vizsgálják	-10.7163
győztes	-10.7166
▁Hel	-10.7166
kártya	-10.7171
▁térkép	-10.7183
▁elérte	-10.7184
▁utasítás	-10.7184
▁III	-10.7198
>	-10.7198
▁mérséklőd	-10.7198
▁Richter	-10.7199
▁közszolgálati	-10.7199
▁Michel	-10.7199
▁órával	-10.7199
▁bőven	-10.7201
▁pop	-10.7203
▁szerencsétlen	-10.7204
▁Ivan	-10.7216
▁jutás	-10.7219
több	-10.722
▁Nagydíj	-10.7222
▁Érdekes	-10.7222
modell	-10.7223
▁intéz	-10.7227
▁üzemeltető	-10.7227
kereső	-10.7228
▁érthető	-10.7233
fejlesztő	-10.7238
▁megnyerte	-10.7238
▁irányított	-10.7241
▁forgatás	-10.7243
tatja	-10.7244
▁társa	-10.7255
▁Liverpool	-10.7255
▁érzem	-10.7255
gyűrű	-10.7256
▁diplomáciai	-10.7256
▁ragad	-10.7256
▁weboldal	-10.7256
▁tulajdonképpen	-10.7258
▁1994	-10.7258
▁találkozott	-10.7259
▁próbálja	-10.726
▁kezdtek	-10.7262
▁mezőgazdasági	-10.7264
▁nagyszerű	-10.7267
▁televíziós	-10.7267
▁Jog	-10.7269
érzet	-10.727
▁elkövetés	-10.7278
▁képernyő	-10.7284
▁ellop	-10.7289
▁csere	-10.7291
▁évad	-10.7291
▁félidő	-10.7294
▁vásárló	-10.7296
▁esetekben	-10.7299
▁hónapok	-10.73
▁Sokan	-10.7305
▁Fülöp	-10.7312
▁büntetőeljárás	-10.7312
▁kapacitás	-10.7312
▁legnépszerűbb	-10.7312
▁személygépkocsi	-10.7312
▁tizenkét	-10.7312
▁Jövő	-10.7312
▁Rádió	-10.7313
▁reakció	-10.7313
▁megvizsgál	-10.7313
▁import	-10.7314
▁hull	-10.7314
▁beruházások	-10.7317
▁2003-	-10.7318
▁vizsgáló	-10.7321
▁kellemes	-10.7323
▁akarták	-10.7326
▁balesetet	-10.7328
▁szurkolók	-10.7329
▁megtámad	-10.7329
mozgás	-10.7338
▁fordulójában	-10.7339
állító	-10.7339
front	-10.734
▁versenyez	-10.7342
▁csodá	-10.7352
lévő	-10.7354
▁országokban	-10.7356
▁Tudomány	-10.737
▁debreceni	-10.737
▁végkielégítés	-10.737
▁ugye	-10.737
▁megszület	-10.737
▁kisfiú	-10.737
▁nevében	-10.737
▁taxi	-10.7371
▁náluk	-10.7372
▁részletei	-10.7373
▁blokk	-10.7373
▁Fekete	-10.7373
▁Horn	-10.738
▁Jász	-10.7394
▁ülésen	-10.7396
▁2-3	-10.7397
▁felől	-10.7398
▁elfogadta	-10.7413
ránt	-10.7413
▁előfordulhat	-10.7418
▁együttműköd	-10.7419
fur	-10.7422
▁buli	-10.7424
▁betölt	-10.7424
fogyasztás	-10.7426
▁tőzsdé	-10.7428
▁kommunista	-10.7428
▁palesztin	-10.7428
▁virradó	-10.7428
▁ugyanolyan	-10.7428
▁újdonság	-10.7428
▁tonná	-10.7429
▁sztori	-10.743
▁bevon	-10.7434
ogató	-10.7435
▁Románia	-10.7436
fotó	-10.7444
kassz	-10.7454
/3	-10.7457
▁vonatok	-10.7457
▁segíti	-10.746
▁látvány	-10.747
▁59	-10.7476
▁kerületben	-10.748
▁információkat	-10.7481
▁Mc	-10.7485
művészeti	-10.7485
▁Fejlesztés	-10.7486
▁Székesfehérvár	-10.7486
▁genetikai	-10.7486
▁maximum	-10.7486
▁népszavazás	-10.7486
▁zászló	-10.7486
▁tolvaj	-10.7486
▁George	-10.7486
▁jótékony	-10.7486
szerelvény	-10.7486
▁franciák	-10.7488
csere	-10.7488
▁68	-10.749
▁Berlin	-10.7491
▁góllal	-10.7494
▁autósok	-10.7495
▁Jer	-10.7497
▁elsőfokú	-10.7498
▁Tele	-10.7507
▁mondják	-10.751
▁magasság	-10.752
▁lemarad	-10.7523
betegség	-10.7525
▁állítani	-10.7531
▁helyére	-10.7537
▁barátság	-10.7537
▁váltak	-10.7541
eiből	-10.7541
▁dohány	-10.7542
▁kényelmes	-10.7544
▁alternatív	-10.7544
▁kontroll	-10.7544
▁összességében	-10.7544
▁humor	-10.7544
vették	-10.7545
▁hibák	-10.7548
▁ezren	-10.7549
▁talp	-10.755
▁összeállítás	-10.7553
▁kutat	-10.7556
▁ítélték	-10.7557
▁képviselőjelölt	-10.756
▁mehet	-10.7568
▁EP	-10.7573
▁viselked	-10.7577
▁web	-10.7578
▁lopás	-10.7579
▁levélben	-10.7594
▁látták	-10.7594
fogy	-10.7596
▁elérés	-10.7602
▁kultúra	-10.7603
▁Széchenyi	-10.7603
▁Vlagyimir	-10.7603
▁közgazdász	-10.7603
▁valahogy	-10.7603
▁Nyomozó	-10.7603
▁valaha	-10.7603
▁Bálint	-10.7603
▁alábbi	-10.7604
▁magánszemély	-10.7604
▁imád	-10.7606
▁végeztek	-10.7606
▁üzletember	-10.7607
▁ifjú	-10.7607
menet	-10.7612
lényegében	-10.7613
▁maradék	-10.7613
▁felügyelő	-10.7615
▁komolyabb	-10.7616
▁küzdő	-10.7619
▁következett	-10.762
▁önmagá	-10.7625
▁tar	-10.7629
utas	-10.7631
dús	-10.7634
▁vállalta	-10.764
▁sugár	-10.765
Bereg	-10.7651
▁gyönyörű	-10.7662
▁Ildikó	-10.7662
▁producer	-10.7662
▁püspök	-10.7662
▁Békés	-10.7662
▁véve	-10.7663
▁megvásárol	-10.7665
ébb	-10.7667
▁Sal	-10.7672
hetné	-10.7676
▁választották	-10.7677
▁0-1	-10.7677
▁61	-10.768
▁térségében	-10.7681
▁hozzájuk	-10.7682
küzdelme	-10.7682
▁olimpián	-10.7684
▁Hely	-10.7692
▁dolgokat	-10.7694
▁vesznek	-10.7694
hívták	-10.7696
módosítás	-10.7697
pótlás	-10.7704
▁bővít	-10.7709
▁munkanélküli	-10.7712
szerep	-10.7713
▁nézve	-10.7715
emelkedés	-10.7715
▁meteor	-10.7718
▁Szolnok	-10.7721
▁Pénz	-10.7722
Dunántúl	-10.7722
▁moszkvai	-10.7722
▁Webber	-10.7722
▁részleteket	-10.7722
▁tekintetében	-10.7722
▁1990-	-10.7722
▁Sziget	-10.7723
▁sárga	-10.7723
▁létesítmény	-10.7723
▁kifogásol	-10.7726
▁elvégez	-10.7727
▁doboz	-10.7732
▁erejé	-10.7738
▁Él	-10.7739
▁kapja	-10.7741
▁bizonytalanság	-10.7752
▁szerencsés	-10.7754
▁történész	-10.7766
▁jönnek	-10.7768
gyártás	-10.777
▁fogyasztók	-10.7772
rendező	-10.7774
▁3-0	-10.7775
▁szakmá	-10.7778
▁létrehozásá	-10.7781
•	-10.7782
▁Erzsébet	-10.7782
▁Tarlós	-10.7782
▁Szerdán	-10.7782
▁felesleges	-10.7782
▁középpályás	-10.7783
▁Jean	-10.7784
▁lényegesen	-10.7788
▁Eszter	-10.7789
▁támogatottság	-10.7789
▁szállító	-10.779
▁Vagyis	-10.779
▁gyűjtemény	-10.779
▁vezeték	-10.7791
▁nyertes	-10.7797
▁szava	-10.7806
hasson	-10.7811
olasz	-10.7813
▁tájékoztat	-10.7815
ésekor	-10.7822
▁tudósok	-10.7824
▁kapható	-10.7826
▁voks	-10.7832
▁66	-10.7835
arányos	-10.7841
▁legkisebb	-10.7842
▁drága	-10.7842
▁Fontos	-10.7842
▁Benedek	-10.7842
▁étterem	-10.7842
▁területeken	-10.7843
▁viszonyítva	-10.7843
▁vitték	-10.7849
▁tudtuk	-10.7856
▁kul	-10.7857
▁kezelni	-10.7858
szerv	-10.7858
▁hold	-10.7861
Ameriká	-10.7861
▁74	-10.7867
▁halálát	-10.7868
▁telefonon	-10.7871
▁kezében	-10.7872
▁Iván	-10.7881
▁vegye	-10.7892
emmel	-10.7896
▁vonzó	-10.7898
▁tükröz	-10.7903
▁Futball	-10.7903
▁recept	-10.7903
▁munkája	-10.7903
▁engem	-10.7903
▁2013-	-10.7903
▁órától	-10.7903
▁közepes	-10.7903
▁uralkodó	-10.7903
▁kur	-10.7908
▁fokozott	-10.7908
▁javulás	-10.7908
pályás	-10.7912
▁felhívta	-10.7912
▁ígérte	-10.7913
szerint	-10.7916
▁maradhat	-10.7917
▁Sár	-10.7922
▁indulás	-10.7923
irodalom	-10.7935
▁eredményez	-10.7936
▁értesülés	-10.7938
▁Cal	-10.7939
▁életében	-10.7942
▁baloldal	-10.7946
▁koalíció	-10.7952
▁72	-10.7956
▁várakozások	-10.7958
▁centi	-10.796
▁jövedelme	-10.7964
▁megszűnt	-10.7964
▁mindenesetre	-10.7964
▁mögé	-10.7964
▁fellebbez	-10.7964
▁kalóz	-10.7964
▁vonatkozik	-10.7964
▁Szalai	-10.7964
▁titkosszolgálat	-10.7964
▁születésnap	-10.7967
▁multi	-10.7968
▁személyautó	-10.7969
rúg	-10.7975
▁jogszabályok	-10.7976
tölteni	-10.7982
▁Fiat	-10.7985
▁Közben	-10.7985
▁egészségügy	-10.7986
OSZ	-10.799
▁Mindenki	-10.7991
▁zaj	-10.7992
▁vicces	-10.7992
háború	-10.7992
beteg	-10.7994
miniszter	-10.7997
nyomás	-10.7999
▁Veres	-10.8008
▁téves	-10.8009
kifejez	-10.8009
▁statisztiká	-10.8025
▁mekkora	-10.8025
▁vélhetően	-10.8025
▁Thomas	-10.8025
▁övezet	-10.8025
▁dicsér	-10.8026
▁rangadó	-10.8029
tározó	-10.8029
▁villany	-10.803
dőlt	-10.8035
▁Márton	-10.8035
▁meghív	-10.8037
▁személyzet	-10.8038
szállítás	-10.8044
▁legendás	-10.8049
▁jogai	-10.8051
▁Ligája	-10.8053
▁nyomoz	-10.8056
▁nyár	-10.8058
▁folyamatban	-10.8059
▁felfedezés	-10.8062
▁vezethet	-10.8064
▁maradtak	-10.8072
▁sérüléseket	-10.8074
▁telt	-10.8077
▁könnyebben	-10.8077
▁Szerintem	-10.8077
▁legközelebb	-10.8087
▁megjegyezte	-10.8087
▁megszólal	-10.8087
▁Telekom	-10.8087
!!!	-10.8087
www	-10.8087
▁szörny	-10.8087
▁Daily	-10.8087
▁noha	-10.8087
▁Írország	-10.8087
▁dobogó	-10.8088
▁megállapította	-10.8091
▁munkaügy	-10.8092
faj	-10.8096
Britanniában	-10.8097
▁egészében	-10.8102
▁180	-10.8112
készlet	-10.8113
jéről	-10.8119
▁állított	-10.812
▁támogatta	-10.8125
▁részében	-10.8128
▁bemutatott	-10.8129
▁gondot	-10.8136
▁romák	-10.8137
▁házak	-10.8143
▁forgalomba	-10.8145
▁áldozatai	-10.8145
▁működött	-10.8149
▁vezetőedző	-10.8149
▁Társaság	-10.8149
▁Messi	-10.8149
▁Amerikában	-10.8149
▁agrár	-10.815
▁segíthet	-10.815
lövő	-10.8151
▁tiltakozás	-10.8152
▁istálló	-10.8153
▁érvényesül	-10.8154
▁szerencsére	-10.8157
▁győzte	-10.8158
▁sajtóügyeletese	-10.816
▁dollárral	-10.816
▁vereséget	-10.8161
▁sorrend	-10.8165
ux	-10.8165
▁pótol	-10.8167
hagyott	-10.8169
▁szakaszon	-10.8172
▁edzője	-10.8174
eszköz	-10.8179
▁kétszeres	-10.8181
strukt	-10.8181
▁hozhat	-10.8184
▁selejtező	-10.8191
válság	-10.8192
▁énekel	-10.8192
munkás	-10.8203
▁Kupa	-10.8206
▁Putyin	-10.8211
▁hűtlen	-10.8211
▁kilogramm	-10.8211
▁életveszélyes	-10.8211
▁Judit	-10.8211
oszlop	-10.8213
▁Haladás	-10.8213
▁hátteré	-10.8215
▁elmondása	-10.8221
▁Budai	-10.8224
▁anyagot	-10.8235
▁Baj	-10.8237
▁állítása	-10.8239
▁egyenlő	-10.8239
kereskedelmi	-10.8244
nyolc	-10.8248
▁191	-10.8253
▁Brit	-10.8261
▁Win	-10.8262
▁megvéd	-10.8273
▁Horvátország	-10.8274
▁büszke	-10.8274
▁szilveszter	-10.8274
▁eleget	-10.8277
▁filmje	-10.8278
▁választmány	-10.828
▁fogadja	-10.8282
▁Tour	-10.8291
▁dán	-10.8296
▁tekintély	-10.8297
NI	-10.8298
▁boksz	-10.8305
▁tervező	-10.8305
▁Arról	-10.8309
TV	-10.831
emlék	-10.8311
szigetek	-10.8311
▁náci	-10.8312
▁hatály	-10.8316
▁valósul	-10.8318
Belföld	-10.8323
jelöltje	-10.8329
▁megfigyelés	-10.8335
▁állapít	-10.8337
▁szélső	-10.8337
▁Racing	-10.8337
▁drágul	-10.8337
szkij	-10.8339
▁hatályba	-10.8344
▁0,3	-10.8346
▁Bors	-10.8347
▁percig	-10.8348
▁élénk	-10.8349
▁feltételei	-10.8349
kciós	-10.835
▁határoz	-10.8352
▁rendezik	-10.8358
▁bocsát	-10.8359
▁álltak	-10.8363
▁felfüggesztett	-10.8372
▁fenyegető	-10.8373
növekedés	-10.8375
▁járul	-10.8385
▁órákban	-10.8387
▁régész	-10.8389
utóbb	-10.8398
cionális	-10.8398
▁Schumacher	-10.8401
▁bennünket	-10.8401
▁informatikai	-10.8401
▁vélekedett	-10.8401
▁Vilmos	-10.8401
▁óráig	-10.8401
▁ellenkező	-10.8401
▁közúti	-10.8402
▁középső	-10.8402
▁részletesen	-10.8402
▁aratott	-10.8403
▁fent	-10.8404
▁Hogyan	-10.8405
húzó	-10.8406
▁Phil	-10.8407
▁67	-10.8412
▁tájékoztató	-10.8419
▁betét	-10.8422
▁BRFK	-10.8428
állapították	-10.8433
▁nyomozók	-10.8445
▁Pár	-10.8451
▁kérés	-10.8459
▁viták	-10.8461
▁demokráciá	-10.8465
▁törekvés	-10.8465
▁varázs	-10.8465
▁minimum	-10.8465
robbanó	-10.8465
▁kereste	-10.8465
▁szlovén	-10.8465
▁számomra	-10.8466
▁Albert	-10.8466
▁elfoglal	-10.847
▁kilencven	-10.8471
▁Tu	-10.8471
▁műanyag	-10.8472
Abaúj	-10.8473
▁vízszint	-10.8473
▁Autó	-10.8476
▁alakulat	-10.8477
▁Gold	-10.8483
▁Ide	-10.8483
▁Jose	-10.8486
▁Szép	-10.8489
▁követelés	-10.8497
▁történetét	-10.85
▁kór	-10.85
oid	-10.8502
▁Der	-10.8504
etlenség	-10.8508
▁kard	-10.8514
mentő	-10.8517
▁gyalogos	-10.8519
▁érhet	-10.8524
▁sűrű	-10.853
▁lennének	-10.853
▁utólag	-10.8531
▁erőteljes	-10.8531
▁mondván	-10.8532
39	-10.8534
▁érdeklődők	-10.8534
▁munkatárs	-10.8535
győzelme	-10.8539
▁Nyír	-10.8541
▁tartalom	-10.8543
▁nyara	-10.8548
▁vásárlók	-10.8549
▁előkészítés	-10.8549
▁sakk	-10.855
▁Tíz	-10.8552
▁távozott	-10.8555
▁mérés	-10.8556
▁méltat	-10.8561
▁szomszédos	-10.8568
▁olimpiá	-10.8571
▁önmagában	-10.8572
vonat	-10.8576
▁nyitó	-10.8581
▁előadó	-10.8583
▁kiesés	-10.8584
▁top	-10.859
▁tucat	-10.8591
▁demokrata	-10.8592
▁támogatott	-10.8593
elektro	-10.8593
▁Juventus	-10.8595
▁Lendvai	-10.8595
▁düh	-10.8595
▁Média	-10.8595
▁XX	-10.8597
▁szerelem	-10.8607
▁Tech	-10.861
▁szemmel	-10.8612
▁2004	-10.8613
▁Vona	-10.8613
▁reális	-10.8615
▁3-2	-10.8617
világítás	-10.8617
▁találkozón	-10.863
sky	-10.8634
▁rendőrkapitány	-10.8635
nyilván	-10.8636
▁lépte	-10.8642
Y	-10.8643
OR	-10.8643
▁kiegészítő	-10.8645
stein	-10.8648
▁Max	-10.8649
▁parancsnok	-10.8652
ukleáris	-10.866
▁Kérdés	-10.866
▁Schmitt	-10.866
▁bűnöző	-10.866
▁elhangzott	-10.866
▁zaklat	-10.866
▁sajtószabadság	-10.866
▁átfogó	-10.866
▁Volán	-10.866
▁Milyen	-10.866
▁belga	-10.8667
▁elszámol	-10.8669
▁felállít	-10.867
▁szakszervezetek	-10.8675
▁vitt	-10.8676
▁megőrz	-10.8679
▁Blog	-10.8682
▁pusztít	-10.8682
▁1,6	-10.8684
▁minőségű	-10.8686
▁73	-10.8689
▁üldöz	-10.869
▁Eger	-10.8692
▁terjedő	-10.87
név	-10.8702
▁apja	-10.8702
▁összefüggésben	-10.8705
képtelen	-10.8713
fertőzés	-10.8716
▁bejelent	-10.8718
▁opera	-10.872
ászati	-10.8722
▁régen	-10.8724
▁publikál	-10.8726
PSZÁF	-10.8726
▁jégkorong	-10.8726
▁Juhász	-10.8726
▁besorolás	-10.8726
▁OVB	-10.8726
▁kinevezés	-10.8726
▁1997	-10.8726
pillant	-10.8726
▁celeb	-10.8726
▁iraki	-10.8726
▁megemlít	-10.8727
▁Fejér	-10.8727
▁Lip	-10.8727
▁teherautó	-10.8728
ília	-10.8728
▁XVI	-10.8729
teszi	-10.8733
ESZ	-10.8733
▁130	-10.8735
▁hangzott	-10.8739
vevő	-10.8741
▁bővítés	-10.8746
▁díjak	-10.8749
▁fiatalabb	-10.8749
▁túlzott	-10.875
▁tagállamok	-10.8758
testület	-10.8769
▁csatlakozás	-10.8772
▁felvett	-10.8782
▁játékvezető	-10.8787
▁megteremt	-10.8789
stratégia	-10.8791
▁bántalmaz	-10.8792
▁Reuters	-10.8792
▁HVG	-10.8792
▁show	-10.8792
▁zajlott	-10.8792
▁Hatóság	-10.8792
▁ketten	-10.8793
▁Szervezet	-10.8793
Kiskun	-10.8793
▁helyreállítás	-10.8793
▁tőlük	-10.8794
▁kedvéért	-10.8794
▁tetejé	-10.8794
▁Ember	-10.8795
▁légkör	-10.8796
▁változik	-10.8798
▁címlap	-10.88
▁fedezet	-10.88
▁növeli	-10.8805
▁rendszám	-10.8809
▁Akár	-10.881
▁West	-10.8813
▁katasztrófá	-10.8813
▁2005	-10.8816
▁diplomá	-10.8818
▁mesé	-10.8823
▁alakított	-10.8825
▁próbálják	-10.8826
▁jósol	-10.8828
czy	-10.8828
▁hátul	-10.8837
felől	-10.8837
▁1500	-10.8839
▁tisztség	-10.8852
▁szór	-10.8853
▁Főügyészség	-10.8859
▁ragaszkod	-10.8859
▁főügyész	-10.8859
▁lassú	-10.8859
▁Viszont	-10.8859
▁jelentkezett	-10.8859
▁Jenő	-10.886
▁következtetés	-10.886
▁Mindkét	-10.8862
▁levő	-10.8865
▁felülvizsgálat	-10.8866
▁tagország	-10.8866
▁cserébe	-10.887
▁Ur	-10.8875
▁Azonban	-10.8876
▁Sun	-10.8887
▁hátrányos	-10.8888
▁betű	-10.889
érkezett	-10.8892
izáló	-10.8895
▁kezdeni	-10.8899
02	-10.8901
▁érdekel	-10.8901
▁követett	-10.891
▁játszhat	-10.8917
▁válhat	-10.8917
▁forradalm	-10.8926
szivárog	-10.8926
▁McLaren	-10.8926
▁kormányszóvivő	-10.8926
▁mexikói	-10.8926
▁miskolci	-10.8926
▁hibrid	-10.8926
▁ritkán	-10.8926
▁Éppen	-10.8926
▁kiadvány	-10.8926
▁plakát	-10.8926
▁bevallás	-10.8926
▁rangsor	-10.8927
vonulás	-10.8927
▁megvál	-10.893
ódó	-10.8937
▁0,2	-10.894
hívott	-10.8942
▁ellátó	-10.8943
akadt	-10.8944
lemez	-10.8944
▁csatlakozott	-10.8955
einket	-10.8958
▁pót	-10.8959
FI	-10.8962
▁félidőben	-10.8963
▁vicc	-10.8967
király	-10.8972
Nagy	-10.8972
vissza	-10.8973
tűz	-10.8977
▁adomány	-10.8977
2010	-10.8978
bombá	-10.898
▁lába	-10.898
▁riasztás	-10.8993
▁stressz	-10.8993
▁Capital	-10.8993
▁Margit	-10.8994
▁Majd	-10.8994
▁átlátható	-10.8994
▁heves	-10.8997
▁látom	-10.9
▁vártnál	-10.9011
▁Sar	-10.9012
▁Idő	-10.9017
▁erősítette	-10.902
▁erőszakos	-10.9031
▁egyúttal	-10.9032
▁Angel	-10.9035
húzta	-10.9036
▁átlép	-10.9042
özte	-10.9045
▁váltotta	-10.9048
kötött	-10.905
▁amennyi	-10.9052
▁állhat	-10.9056
▁meggyilkol	-10.9061
▁Hamilton	-10.9061
▁League	-10.9061
▁bizonnyal	-10.9061
▁híján	-10.9061
Zemplén	-10.9061
▁Wood	-10.9061
▁gárda	-10.9062
▁Angliá	-10.9062
▁2014-	-10.9062
▁nyolcadik	-10.9062
▁szankció	-10.9062
▁oldalak	-10.9064
▁jogállam	-10.9065
▁tárlat	-10.9066
▁José	-10.9069
▁rabló	-10.9069
▁hosszabbítás	-10.9073
▁ideális	-10.9074
▁mindegy	-10.9087
▁hoki	-10.9089
▁elindít	-10.909
▁Kíná	-10.9098
▁Bács	-10.9099
▁tagság	-10.91
beszéd	-10.9107
▁nyitás	-10.911
igény	-10.9119
▁indulhat	-10.9121
▁közöl	-10.9123
*	-10.913
▁Karácsony	-10.913
▁epizód	-10.913
▁süllyed	-10.913
▁elősegít	-10.913
▁Endre	-10.913
▁Törökország	-10.9131
▁Hozzá	-10.9131
▁Frank	-10.9131
sztár	-10.9136
töltő	-10.9146
▁jelképe	-10.9147
▁válaszolta	-10.9149
▁Csap	-10.9161
▁álom	-10.9163
▁üzen	-10.9165
ezzük	-10.9172
▁műsorában	-10.9177
▁panaszkod	-10.9188
▁felejt	-10.919
▁csapás	-10.9195
égett	-10.9196
▁Demszky	-10.9199
▁Költségvetési	-10.9199
▁Premier	-10.9199
▁Szijjártó	-10.9199
▁Valutaalap	-10.9199
▁berlini	-10.9199
▁valahol	-10.9199
▁hírportál	-10.9199
▁Cseh	-10.92
▁pornó	-10.92
▁November	-10.92
▁változtatni	-10.9202
▁vonz	-10.9203
▁felsorol	-10.9203
▁sújtotta	-10.9205
▁követelmény	-10.9208
▁hajrá	-10.9214
▁meglep	-10.9218
▁koncentráció	-10.9219
gólos	-10.922
▁listán	-10.9222
▁nehézségek	-10.9227
▁intézkedéseket	-10.9228
▁gondoltam	-10.9231
kapu	-10.924
▁kényszerül	-10.9244
▁visszalép	-10.9249
büntet	-10.925
▁különböz	-10.9252
▁ebbe	-10.9254
mell	-10.9256
▁Halál	-10.9257
▁Kereskedelmi	-10.9268
▁kritizál	-10.9268
▁6:4	-10.9269
▁másodfokú	-10.9269
▁szokott	-10.927
Afrika	-10.927
▁Nico	-10.9276
▁elnökválasztás	-10.9277
▁63	-10.9281
▁0,5	-10.9285
▁helyezték	-10.9287
▁elnökének	-10.9292
készítés	-10.9293
▁szokta	-10.9294
ükkel	-10.9295
▁mutatták	-10.9304
▁bejegyzés	-10.9309
szülött	-10.931
▁76	-10.9318
▁villa	-10.9334
▁ügyelet	-10.9337
▁Akadémia	-10.9338
▁Csongrád	-10.9338
▁baktérium	-10.9338
▁esedékes	-10.9338
gyulladás	-10.9338
▁Külföld	-10.9338
▁gyökere	-10.9338
▁építkezés	-10.9338
▁párhuzamosan	-10.9339
▁mindkettő	-10.934
▁Szlovákia	-10.9342
▁emberölés	-10.9342
▁ajánlatot	-10.9346
▁felépít	-10.9363
▁hatályos	-10.9366
▁900	-10.9367
▁mese	-10.937
odtak	-10.9386
▁írják	-10.9388
▁nagykövetség	-10.9388
csillag	-10.939
ejtő	-10.9394
▁szerepét	-10.9404
▁Kárpát	-10.9409
▁abszolút	-10.9409
▁páciens	-10.9409
▁túlságosan	-10.9409
▁megjelenő	-10.9409
▁kapták	-10.9409
▁óvodá	-10.9411
▁árbevétel	-10.9413
▁Roland	-10.9415
▁Papp	-10.9415
▁gyalog	-10.9421
▁munkába	-10.9424
▁jogkör	-10.9427
▁eredményeként	-10.943
▁hatékonyabb	-10.9434
▁tünetek	-10.9436
negyed	-10.9443
▁ajánlás	-10.9445
▁mindenféle	-10.9452
▁számla	-10.9453
▁bizottságának	-10.9464
mennyire	-10.9475
▁elképesztő	-10.948
▁Gabriella	-10.948
▁rutin	-10.9481
▁létrejött	-10.9482
▁86	-10.9482
▁roham	-10.9482
▁földgáz	-10.9482
▁irányuló	-10.9483
▁reptér	-10.9483
▁tőké	-10.9483
▁trükk	-10.9487
▁amiatt	-10.949
▁Hiába	-10.949
row	-10.9491
▁megtesz	-10.9495
ődtek	-10.9512
▁munkaadó	-10.9514
▁békés	-10.9523
▁bányá	-10.9528
tatása	-10.9529
▁szeretném	-10.9534
folyó	-10.9535
cell	-10.955
demokraták	-10.9551
▁tájékozód	-10.9551
−	-10.9551
▁erőfeszítés	-10.9551
▁közelmúltban	-10.9551
▁Kanada	-10.9551
▁próba	-10.9551
▁transz	-10.9551
▁hibás	-10.9551
▁adatbázis	-10.9552
▁Atlant	-10.9553
▁szálloda	-10.9553
▁tüdő	-10.9553
▁alkalmából	-10.9555
▁nyomozó	-10.9556
▁gondolta	-10.956
▁kitalál	-10.9562
ismerő	-10.9566
építő	-10.9572
▁ügylet	-10.9577
▁közélet	-10.9578
▁szúr	-10.9586
▁Dun	-10.959
▁könyvtár	-10.9591
▁mondom	-10.9593
kapitány	-10.9594
▁megpróbálta	-10.9597
▁69	-10.9599
▁szavak	-10.9599
forduló	-10.961
falu	-10.9616
▁gyengé	-10.9618
▁Mexikó	-10.9623
▁Kórház	-10.9623
▁gólpassz	-10.9623
▁meghaladta	-10.9623
▁érettségi	-10.9623
tengely	-10.9623
▁megrendelés	-10.9623
▁Norbert	-10.9623
▁tréner	-10.9623
▁megszorítás	-10.9623
szűnik	-10.9623
▁Rogán	-10.9623
▁elbeszélés	-10.9623
▁befolyásolja	-10.9625
▁Tehát	-10.9625
elnökség	-10.9626
dupláz	-10.9627
▁forgó	-10.9627
▁alelnök	-10.9628
▁nyilatkozó	-10.9628
▁költött	-10.9629
▁tapasztal	-10.9635
▁kispad	-10.9635
▁nagyváros	-10.9641
▁Auto	-10.9642
▁vesztett	-10.9643
▁szemlélet	-10.9644
▁magunkat	-10.9649
▁szenvedély	-10.9667
▁140	-10.967
war	-10.9672
▁valamely	-10.9677
▁vonalon	-10.9678
gyermek	-10.9679
fenntartó	-10.9684
▁hiányában	-10.9689
▁kongresszus	-10.9695
▁republikánus	-10.9695
Britannia	-10.9695
▁afgán	-10.9696
▁magyarázza	-10.9696
szaporod	-10.9696
▁időnként	-10.9696
rablás	-10.9697
▁lépcső	-10.9698
▁extra	-10.9698
▁elutasította	-10.9699
▁dönteni	-10.97
▁Női	-10.9701
Afriká	-10.9702
torná	-10.9704
▁fűtés	-10.971
▁aukció	-10.9716
▁éreztem	-10.9719
alatt	-10.9734
▁bukás	-10.9738
▁tulajdonában	-10.9739
▁szabott	-10.9742
▁zöldség	-10.9747
kérdés	-10.9753
▁rohan	-10.976
▁hozzájárulás	-10.976
▁Glo	-10.9762
▁Román	-10.9764
dioxid	-10.9768
▁üdvöz	-10.9768
influenza	-10.9768
▁Journal	-10.9768
▁Közlekedési	-10.9768
▁maximális	-10.9768
▁Önkormányzat	-10.9768
▁bizalom	-10.9768
▁újonnan	-10.9768
▁hitelminősítő	-10.9768
▁Moody	-10.9768
▁bécsi	-10.9768
▁kikapott	-10.9769
▁győri	-10.9769
▁megtanul	-10.9769
▁velünk	-10.977
▁jártak	-10.9777
▁tenné	-10.9782
▁csökkenteni	-10.9782
▁hónapjában	-10.9782
▁mesélte	-10.9785
▁kezdeményezte	-10.9787
▁siet	-10.9797
▁Bab	-10.9804
▁egyenesen	-10.9804
osodás	-10.9805
▁feltölt	-10.9806
▁adag	-10.9806
▁foglaltak	-10.9807
▁történetében	-10.9809
▁reg	-10.9823
▁mentés	-10.9826
képző	-10.9835
▁havas	-10.984
▁Navracsics	-10.9842
▁Totalcar	-10.9842
▁minősül	-10.9842
▁növekvő	-10.9842
▁anélkül	-10.9842
▁meghaladó	-10.9842
▁ezáltal	-10.9842
▁tilos	-10.9842
▁építőipar	-10.9842
▁bármikor	-10.9853
▁holnap	-10.9853
▁léphet	-10.9854
▁bármelyik	-10.9858
▁szigorítás	-10.9859
▁Jobb	-10.9862
▁származik	-10.9866
▁Bence	-10.9867
▁tűzoltó	-10.9873
▁megírt	-10.9887
▁szakma	-10.9889
▁Kup	-10.989
asztották	-10.9891
▁terhesség	-10.9894
finanszírozás	-10.99
▁vonta	-10.991
▁felfüggesztés	-10.9913
▁bicikli	-10.9916
▁cselekmény	-10.9916
▁kollégái	-10.9916
▁találkozik	-10.9916
▁album	-10.9916
▁kosárlabda	-10.9916
▁jobbikos	-10.9917
▁népesség	-10.9918
▁bűnügyi	-10.9919
▁kiszolgál	-10.9935
▁kombi	-10.9936
hirdetés	-10.9947
▁célpont	-10.9948
▁hordoz	-10.9948
▁kalap	-10.995
vitamin	-10.9957
▁kedvez	-10.9958
▁rez	-10.9973
▁gyorsabb	-10.999
▁Ukrajna	-10.9991
▁helikopter	-10.9991
▁nyolcaddöntő	-10.9991
▁felszólal	-10.9991
▁Kaposvár	-10.9991
▁gázolaj	-10.9991
▁felidéz	-10.9991
▁elfogták	-10.9991
▁utó	-10.9991
▁Honda	-10.9991
▁jutalm	-10.9991
Esztergom	-10.9992
▁szlovákiai	-10.9995
▁iszap	-10.9995
▁ékszer	-10.9996
▁takarít	-10.9997
Amerika	-11
▁időközben	-11.0002
▁külügy	-11.0008
well	-11.0009
▁fenyegetés	-11.0014
▁lemondott	-11.0017
▁visszavonul	-11.0022
▁csodál	-11.0027
figyelő	-11.0027
▁lóerő	-11.0028
▁2002	-11.0033
▁Raj	-11.0034
▁növeked	-11.0042
személy	-11.0046
termés	-11.0053
árfolyam	-11.0061
▁81	-11.0061
▁Jézus	-11.0066
▁ellentétes	-11.0066
▁lámpá	-11.0066
▁Kósa	-11.0066
▁finálé	-11.0067
▁drámai	-11.0067
▁alvás	-11.0067
▁szabálysértés	-11.0067
▁napjaink	-11.0069
fil	-11.007
▁Johnson	-11.0071
▁eléri	-11.0072
▁megoldani	-11.0072
▁útján	-11.0079
▁eltérés	-11.008
▁remekül	-11.0082
III	-11.0086
▁kiegészít	-11.0086
▁Pénteken	-11.0087
▁Cap	-11.0088
szag	-11.0096
múlt	-11.01
▁veszített	-11.0104
Környezetvédelmi	-11.0105
▁elkészítés	-11.0108
▁Pitt	-11.0115
▁Német	-11.0123
tély	-11.0128
világbajnokság	-11.0131
▁szálló	-11.0134
hús	-11.0141
▁Assange	-11.0142
▁Egyébként	-11.0142
▁Például	-11.0142
▁csecsemő	-11.0142
▁tevékenyked	-11.0142
▁enyhe	-11.0142
▁tisztességes	-11.0142
▁Black	-11.0142
▁Louis	-11.0142
▁bosszú	-11.0142
▁konyha	-11.0142
▁értelemben	-11.0142
játszott	-11.0142
▁árverés	-11.0142
▁szórakoztató	-11.0143
▁Orosz	-11.0145
▁elnevezésű	-11.0146
▁vékony	-11.0147
▁olykor	-11.0153
▁nevelő	-11.0156
▁bizonyított	-11.016
▁vezetőjét	-11.016
▁táblá	-11.0162
unoká	-11.0164
▁földön	-11.0166
▁rejtett	-11.0183
▁gondolják	-11.0184
▁Vízügy	-11.0184
▁megindul	-11.0192
▁Víz	-11.0199
sérülés	-11.0206
▁Dzsudzsák	-11.0218
▁Nyilván	-11.0218
▁Teljes	-11.0218
▁ilyesmi	-11.0218
▁kancellár	-11.0218
▁póló	-11.0218
▁6:3	-11.0219
▁110	-11.0221
▁hihetetlen	-11.0225
▁népszerűsít	-11.023
▁posta	-11.0233
▁múlik	-11.0233
Körös	-11.0241
▁1,1	-11.0241
▁haszon	-11.0248
▁jelentősége	-11.0248
▁utazott	-11.0251
abbá	-11.0252
▁felújít	-11.0264
▁kérdezte	-11.0267
▁szigor	-11.0268
▁áradás	-11.0269
kereset	-11.0275
fürdő	-11.0283
Fidesz	-11.0283
▁vaj	-11.0287
kiállítás	-11.0292
▁Fernando	-11.0295
▁Szolgálat	-11.0295
▁böngész	-11.0295
▁növekszik	-11.0295
▁szenátus	-11.0295
▁szomorú	-11.0295
▁sürgős	-11.0295
▁turbó	-11.0295
▁rájátszás	-11.0295
▁árnyék	-11.0295
▁legszebb	-11.0295
▁megnyitó	-11.0295
▁nemrégiben	-11.0296
▁Jones	-11.0297
▁romlott	-11.0297
▁híresség	-11.0299
▁homok	-11.03
▁ízlés	-11.03
▁minősítés	-11.03
▁festő	-11.0307
▁utánpótlás	-11.0308
engedték	-11.0309
▁nehezít	-11.0309
épület	-11.0311
összeg	-11.0312
▁létrehozott	-11.0317
▁mindenhol	-11.032
fertőzött	-11.0324
▁listavezető	-11.0328
▁Wall	-11.0332
▁összehasonlít	-11.0338
▁felszerelt	-11.0344
ecske	-11.0348
▁Erős	-11.0356
működés	-11.0357
▁benyújt	-11.036
▁labdá	-11.0361
repülő	-11.0361
▁Mátyás	-11.0372
▁tisztségviselő	-11.0372
▁FTC	-11.0372
▁belföldi	-11.0372
▁Gólszerző	-11.0373
▁állásfoglalás	-11.0373
▁robot	-11.0374
▁mindennapi	-11.0374
▁ügyfelei	-11.0374
▁kering	-11.0375
▁küldte	-11.0379
▁készíteni	-11.0381
▁kivételével	-11.0381
▁devizá	-11.0385
▁visszatérés	-11.0385
▁tízmillió	-11.0386
▁lyuk	-11.0395
▁fektet	-11.0402
▁kitért	-11.0407
▁egymástól	-11.0411
RC	-11.0416
▁350	-11.0416
angol	-11.0419
▁ismertette	-11.0421
▁formál	-11.0423
ológ	-11.0424
▁190	-11.0425
▁foglalkoztatott	-11.043
gyűjtemény	-11.0439
▁szakemberei	-11.044
▁kortárs	-11.0443
▁fedélzet	-11.0451
▁összefoglaló	-11.0451
▁DNS	-11.0451
▁Polgár	-11.0451
▁Brown	-11.0451
▁Street	-11.0451
▁álmod	-11.0451
▁sereg	-11.0451
▁egyedülálló	-11.0453
▁támaszt	-11.0453
változat	-11.0454
▁tucatnyi	-11.0455
ligában	-11.0455
▁árvíz	-11.0456
▁pénztárak	-11.0456
▁mégpedig	-11.0465
lőtte	-11.0471
▁húzód	-11.0485
▁köv	-11.0494
biztosítás	-11.0497
pedig	-11.0503
▁juthat	-11.0504
▁norma	-11.0514
kibocsátás	-11.0519
sebesség	-11.0519
szakértő	-11.0519
úttal	-11.0522
▁Microsoft	-11.0529
▁legkevesebb	-11.0529
▁Melinda	-11.0529
▁1993	-11.053
▁Ismer	-11.053
▁számunkra	-11.053
▁Pannon	-11.053
▁hazud	-11.053
▁Lyon	-11.053
▁Társ	-11.0531
▁újonc	-11.0534
▁magzat	-11.0534
▁Annyi	-11.0535
▁Ernő	-11.0539
sugárzás	-11.0546
▁korszerű	-11.055
▁körök	-11.0551
▁dolgoztak	-11.0552
▁kihirdet	-11.0555
▁érezte	-11.0559
roll	-11.0559
▁4,5	-11.0575
▁javasolta	-11.0579
ájuk	-11.0583
isztikus	-11.0584
érdek	-11.0598
százalékos	-11.0599
család	-11.0601
▁71	-11.0603
▁Devecser	-11.0609
▁Volkswagen	-11.0609
▁legalacsonyabb	-11.0609
▁megismétel	-11.0609
▁premier	-11.0609
▁turisztikai	-11.0609
▁Székely	-11.0609
▁Nyolc	-11.0609
▁nyomaték	-11.0609
▁Katona	-11.0609
▁tömegközlekedés	-11.0609
▁csomó	-11.0609
▁előterjesztés	-11.0612
▁kézzel	-11.0613
▁házkutatás	-11.0614
▁mozdulat	-11.0625
▁Paks	-11.0625
▁Szövetségének	-11.0633
tartalmú	-11.0634
▁0,4	-11.0642
▁szenvedő	-11.0647
▁egyenes	-11.0651
▁irányába	-11.0665
▁0,1	-11.0665
▁csaló	-11.0669
▁függetlenség	-11.0672
kevésbé	-11.068
▁parancs	-11.0688
▁bolgár	-11.0689
▁Rózsa	-11.0689
▁médium	-11.0689
▁Takács	-11.0689
▁megegyezés	-11.0689
▁Hamburg	-11.069
▁potenciális	-11.069
tartozás	-11.0691
▁megérkez	-11.0691
▁kereskedők	-11.0693
▁270	-11.0712
▁gyorsabban	-11.0713
▁katoná	-11.0713
▁integráció	-11.0713
párbaj	-11.0714
▁3,8	-11.0721
▁váll	-11.0726
▁160	-11.0726
▁szavazott	-11.0735
▁Közel	-11.0757
vállalkozó	-11.076
szlovák	-11.0761
Európa	-11.0761
▁bukkan	-11.0764
index	-11.0766
▁Ausztria	-11.0769
▁Nyomtatás	-11.0769
▁World	-11.0769
▁belügyminiszter	-11.0769
▁brüsszeli	-11.0769
▁kategória	-11.0769
▁tragédiá	-11.0769
▁hülye	-11.0769
▁felzárkóz	-11.0769
▁megváltozott	-11.0769
▁megfontol	-11.0769
▁jeges	-11.0769
▁Attilá	-11.0769
▁csavar	-11.0769
▁retteg	-11.077
▁Hiszen	-11.077
▁elvileg	-11.077
pszichológus	-11.0771
▁drágább	-11.0773
▁elkölt	-11.0773
▁Green	-11.0774
▁köröz	-11.0783
▁számtalan	-11.0785
▁hordó	-11.0786
▁megérte	-11.0792
▁indok	-11.0794
▁fakad	-11.0796
▁ellenállás	-11.0799
▁úsz	-11.0799
▁jogász	-11.0803
▁78	-11.0818
▁tekintett	-11.082
▁úszó	-11.0828
energia	-11.0843
vállalkozás	-11.0843
szivattyú	-11.0851
▁Február	-11.0851
▁mozgalom	-11.0851
▁éjfél	-11.0851
▁alkatrész	-11.0851
▁hozzátartozó	-11.0851
▁továbbjutás	-11.0851
▁császár	-11.0851
▁kábel	-11.0851
▁havonta	-11.0851
▁tanácskozás	-11.0851
▁bulvár	-11.0851
▁jegyzőkönyv	-11.0851
▁főszerep	-11.0853
▁némileg	-11.0859
▁felvetés	-11.0861
▁ártatlan	-11.0863
▁elolvas	-11.0864
ON	-11.0873
▁hatékonyság	-11.0877
▁rövidebb	-11.0879
▁megszerezte	-11.0892
▁Opera	-11.09
▁koroná	-11.0911
fesztivál	-11.0925
▁átalakít	-11.0927
▁Alekszandr	-11.0933
▁Labdarúgó	-11.0933
▁Rudolf	-11.0933
▁aktivitás	-11.0933
▁erdélyi	-11.0933
▁fantasztikus	-11.0933
▁megbetegedés	-11.0933
▁megnyugtat	-11.0933
▁vancouveri	-11.0933
▁Kiderült	-11.0933
▁legerősebb	-11.0933
▁ellentmondás	-11.0933
▁Daniel	-11.0933
▁hotel	-11.0933
▁temető	-11.0935
▁színeiben	-11.0935
▁Irak	-11.0942
▁bizonyítani	-11.0947
▁megvalósításá	-11.0966
▁beépít	-11.0981
▁vitát	-11.0986
▁örökség	-11.0989
▁mélység	-11.0991
▁szerver	-11.0993
▁mérlegel	-11.0998
támogatás	-11.1009
levél	-11.101
folyás	-11.1012
▁Berlusconi	-11.1015
▁Nógrád	-11.1015
▁mindketten	-11.1015
▁rugalmas	-11.1015
▁tizenhat	-11.1015
▁zloty	-11.1015
▁könnyedén	-11.1015
▁Kádár	-11.1015
▁hivatás	-11.1015
▁házaspár	-11.1015
▁értelmiség	-11.1015
▁Ibolya	-11.1015
▁maradványai	-11.1015
színház	-11.1016
mérgezés	-11.1016
▁belépő	-11.1016
▁ifjúsági	-11.1016
▁Csütörtökön	-11.1017
▁képregény	-11.1017
▁visszautasít	-11.1018
▁repülés	-11.1021
kulcs	-11.1023
▁automatikusan	-11.1023
▁előállítás	-11.1024
vágás	-11.1025
▁hangoztatta	-11.1027
ítsák	-11.1031
▁történelm	-11.1039
értékelő	-11.1045
golyó	-11.1046
▁állapította	-11.1046
▁magában	-11.1047
▁listáján	-11.1051
▁domb	-11.1057
▁öngyilkosság	-11.1062
▁fertőz	-11.108
▁bármely	-11.108
▁Kris	-11.1087
▁összesítés	-11.1087
▁Legalább	-11.1099
▁Október	-11.1099
▁kiegyenlít	-11.1099
▁szemtanú	-11.1099
▁összehangol	-11.1099
▁6:2	-11.11
▁forró	-11.1102
▁tüzet	-11.1103
▁megemlékez	-11.1104
▁növekedett	-11.1108
▁vízállás	-11.1109
▁Hungary	-11.111
ilincs	-11.1111
▁3000	-11.1115
▁tervezés	-11.1117
▁változó	-11.1118
▁3-4	-11.1123
▁vezetésével	-11.1125
▁Szóval	-11.1127
▁fejlődő	-11.1128
▁báb	-11.113
▁Hall	-11.1131
▁jobboldal	-11.1132
▁jelentették	-11.1135
▁ismerteti	-11.1141
▁ellátott	-11.1141
terjesztés	-11.1152
hossz	-11.1157
méteres	-11.1158
▁futómű	-11.1178
▁Belgium	-11.1183
▁Értéktőzsd	-11.1183
▁Kulturális	-11.1183
▁Petőfi	-11.1183
▁hazugság	-11.1183
▁sajtóreferens	-11.1183
▁irodalmi	-11.1183
▁időtartam	-11.1183
GY	-11.1183
▁Zöld	-11.1183
▁kérdésünkre	-11.1183
▁törvényhozás	-11.1185
▁szalon	-11.1186
▁tábornok	-11.1186
▁vinni	-11.1186
▁1991	-11.1187
▁Előbb	-11.1191
▁alapuló	-11.1193
▁felhasználásá	-11.1195
▁tudatta	-11.1196
▁megtalálható	-11.1196
▁Munká	-11.1197
▁Team	-11.1202
▁dönthet	-11.1204
▁futballistá	-11.1206
▁beszédében	-11.1208
táblázat	-11.121
▁csaj	-11.1212
▁feltárás	-11.1213
▁búj	-11.1215
szóró	-11.1225
▁várakoz	-11.1231
▁keltett	-11.1237
▁2-2	-11.1241
mokratikus	-11.1247
▁kiírt	-11.1255
tömeg	-11.1265
▁Kálmán	-11.1267
▁egyiptomi	-11.1267
▁kormányrendelet	-11.1267
▁cseleked	-11.1267
▁esküvő	-11.1267
▁garanciá	-11.1267
▁étkezés	-11.1267
▁Dallas	-11.1267
▁Forrás	-11.1267
▁Szergej	-11.1267
galériá	-11.1267
▁Bulvár	-11.1267
▁Együtt	-11.1268
▁mesterséges	-11.1269
▁Eric	-11.127
▁figyelemmel	-11.1271
▁háromnegyed	-11.1274
▁Heves	-11.1276
▁százmillió	-11.1277
▁repül	-11.1278
▁adóhatóság	-11.128
▁képzett	-11.1287
▁távozás	-11.1288
▁feltételezés	-11.129
▁Opel	-11.1296
▁tűzoltóság	-11.1312
▁tagadta	-11.1327
bizonyít	-11.1349
▁érzék	-11.1349
közönség	-11.135
ítaná	-11.135
Fotó	-11.135
▁Valószínűleg	-11.1353
▁milliméter	-11.1353
▁prémium	-11.1353
▁washingtoni	-11.1353
▁fejlemény	-11.1353
▁manapság	-11.1353
▁Frankfurt	-11.1353
▁párharc	-11.1353
▁ilyet	-11.1353
éllyel	-11.1353
▁áfa	-11.1353
▁árvízvédelmi	-11.1354
szegény	-11.1356
▁értékelte	-11.1357
▁létező	-11.1358
▁köszönhet	-11.136
▁Blue	-11.1362
▁igyekezett	-11.1371
▁járvány	-11.1375
▁fúj	-11.1384
▁1,7	-11.1389
▁végezte	-11.1395
▁megelőzés	-11.1395
▁ruhák	-11.142
alapítás	-11.1423
▁1,8	-11.1429
▁Windows	-11.1439
▁Gáspár	-11.1439
▁Általános	-11.1439
▁stagnál	-11.1439
▁türelm	-11.1439
▁javára	-11.1439
drukker	-11.1439
szláv	-11.144
▁Összesen	-11.1441
▁Merkel	-11.1443
▁állampapír	-11.1444
▁bukkantak	-11.1446
▁oktató	-11.1448
▁fejtette	-11.1453
▁repülőtere	-11.1455
▁rendelkezésére	-11.1455
▁reményked	-11.1456
▁bátor	-11.1459
▁megenged	-11.1461
▁élettárs	-11.1484
▁79	-11.1487
kedni	-11.1489
▁integr	-11.1499
▁eldől	-11.1505
▁Egészségügy	-11.1505
▁Jelen	-11.1522
▁Természet	-11.1524
▁Olimpia	-11.1526
▁bravúr	-11.1526
▁kollektív	-11.1526
▁Népszava	-11.1526
▁sürget	-11.1526
▁visszavágó	-11.1526
▁nyarán	-11.1526
▁pincé	-11.1526
▁pillér	-11.1526
▁leminősítés	-11.1528
▁lovas	-11.1529
minden	-11.1529
▁nagyságrend	-11.1532
▁döntenek	-11.1532
▁felszámol	-11.1534
▁teljesíteni	-11.1544
▁összetétel	-11.1546
▁kaptunk	-11.1546
▁kiderít	-11.1547
▁köthető	-11.1548
▁sétál	-11.1549
▁ütközés	-11.1553
▁5,5	-11.1559
ugró	-11.1559
▁értesülései	-11.1562
tünet	-11.1565
szervező	-11.1573
▁jellem	-11.1575
rúgás	-11.1584
▁sikertelen	-11.1585
▁megszavaz	-11.159
▁áttekint	-11.1594
▁fejlesztett	-11.1595
▁alkalmazkod	-11.1603
▁elképzelései	-11.1609
fogalmaz	-11.161
botrány	-11.1613
▁Internazionale	-11.1614
▁Krisztina	-11.1614
▁Március	-11.1614
▁Zsigmond	-11.1614
▁kastély	-11.1614
▁szponzor	-11.1614
▁dátum	-11.1614
▁szelvény	-11.1614
▁őszinte	-11.1614
▁szőlő	-11.1614
▁órára	-11.1614
palota	-11.1615
▁Kövér	-11.1615
réteg	-11.1616
▁Kezd	-11.1616
▁Jackson	-11.1617
▁Felső	-11.1627
▁visszalépés	-11.1627
▁eleje	-11.1631
▁rajtuk	-11.1632
▁kasszá	-11.1634
▁összefogás	-11.1638
▁szélesebb	-11.1646
▁öngyilkos	-11.1657
▁elfelejt	-11.1662
▁elfogadható	-11.167
Európában	-11.1702
­	-11.1702
▁Katasztrófa	-11.1702
▁alpolgármester	-11.1702
▁szürke	-11.1702
▁tálib	-11.1702
▁Orvos	-11.1702
▁fogyaték	-11.1702
▁MKB	-11.1702
▁srác	-11.1702
▁diadal	-11.1702
▁madár	-11.1703
▁Nekem	-11.1703
▁hiányosság	-11.1704
▁Fradi	-11.1704
dráma	-11.1705
cikk	-11.1709
kezdet	-11.171
▁adócsökkentés	-11.1711
▁gyász	-11.1718
▁máig	-11.1722
▁lezárták	-11.1726
▁múl	-11.1772
▁83	-11.1773
▁elküld	-11.1783
▁Barceloná	-11.1791
▁International	-11.1791
▁Program	-11.1791
▁Videoton	-11.1791
▁lövöldöz	-11.1791
▁pletyká	-11.1791
▁NASA	-11.1791
▁Nehéz	-11.1791
▁segéd	-11.1791
centrum	-11.1791
▁Cameron	-11.1791
▁kevesen	-11.1791
▁Peking	-11.1792
▁elégedetlen	-11.1792
▁haláleset	-11.1792
▁Ryan	-11.1793
▁panel	-11.1793
▁idejére	-11.1794
▁Szerencsére	-11.1794
▁tapasztalható	-11.1796
▁magánélet	-11.1797
fenyő	-11.1798
▁vádak	-11.1809
▁0,7	-11.1811
▁fölény	-11.1813
csont	-11.1819
szerelő	-11.1841
forgalmazó	-11.1843
hordozó	-11.1845
▁sarok	-11.1851
menetel	-11.1855
OK	-11.1867
nadrág	-11.1882
▁Mourinho	-11.1882
▁brutális	-11.1882
▁depresszió	-11.1882
▁dopping	-11.1882
▁drasztikus	-11.1882
▁iPhone	-11.1882
▁Vajda	-11.1882
▁eurózóna	-11.1882
▁méghozzá	-11.1882
▁vigyáz	-11.1882
▁padló	-11.1882
▁kamera	-11.1882
▁megőriz	-11.1882
▁étterme	-11.1882
▁lapunknak	-11.1882
▁továbbiakban	-11.1882
Szolnok	-11.1883
kedvezmény	-11.1883
intézmény	-11.1883
szünet	-11.1883
▁csábít	-11.1884
▁kamatemelés	-11.1885
▁győzelemmel	-11.1887
pályán	-11.1888
lökés	-11.1888
▁jogsértés	-11.1888
▁mélypont	-11.1888
idékfejlesztési	-11.1916
▁halász	-11.1918
becslés	-11.1927
▁voksolás	-11.1927
▁stabilizál	-11.1933
Bihar	-11.194
iroda	-11.1952
▁tág	-11.1958
függő	-11.197
$	-11.1972
▁daganat	-11.1972
▁Detroit	-11.1972
▁FIFA	-11.1972
▁alapkamat	-11.1972
▁felháborod	-11.1972
▁regisztráció	-11.1972
▁sajtószóvivője	-11.1972
▁leggyorsabb	-11.1972
▁alátámaszt	-11.1973
▁szobor	-11.1973
▁amellett	-11.1973
▁mostanában	-11.1973
▁mindenütt	-11.1973
regény	-11.1973
szerkesztő	-11.1974
katasztrófa	-11.1974
liberális	-11.1975
▁erőforrás	-11.1977
▁McC	-11.1979
termelő	-11.198
▁összefüggő	-11.1984
▁Állam	-11.1986
használó	-11.1987
▁kormánybiztos	-11.1992
▁egyszerűbb	-11.1995
IN	-11.2007
▁elkötelezett	-11.2008
▁részesít	-11.2012
▁összehasonlítás	-11.2012
▁jellemzi	-11.2018
▁amatőr	-11.202
▁bocsátott	-11.2033
▁voksol	-11.2038
▁lóg	-11.2055
▁rajzol	-11.2057
▁Guardian	-11.2064
▁minimálbér	-11.2064
▁csekély	-11.2064
▁tranzakció	-11.2064
▁összhangban	-11.2064
▁nemzetgazdasági	-11.2064
terápiá	-11.2064
▁Elmondta	-11.2064
▁rakéta	-11.2065
▁Ír	-11.2066
ünnep	-11.2067
▁Hírlap	-11.2067
▁bomba	-11.2068
▁közreműköd	-11.2069
▁vitatott	-11.207
▁normál	-11.2071
▁hallani	-11.2074
▁németországi	-11.2076
▁nevén	-11.208
▁teendő	-11.2081
▁államháztartás	-11.2089
▁díszít	-11.2091
rontott	-11.2092
százezer	-11.2099
ágyú	-11.2133
engedett	-11.2135
ugrás	-11.2153
▁gondjai	-11.2153
▁Gyermek	-11.2157
▁Rövid	-11.2157
▁gerinc	-11.2157
▁munkaviszony	-11.2157
▁veszprémi	-11.2157
▁Megasztár	-11.2157
▁iPad	-11.2157
szekrény	-11.2157
▁műhold	-11.2157
▁Gondol	-11.2157
▁táská	-11.2157
▁növelte	-11.2157
???	-11.2157
▁dupla	-11.2159
közlekedés	-11.216
▁előrelépés	-11.216
▁meghirdetett	-11.216
▁Indiá	-11.2162
tagú	-11.2162
▁üzemeltet	-11.2162
▁rock	-11.2165
▁vesztes	-11.2166
frakció	-11.2173
rekord	-11.2186
▁létesít	-11.2188
lövés	-11.2221
▁célkitűzés	-11.225
▁felbukkan	-11.225
▁Ferihegy	-11.225
▁Hosszú	-11.225
▁mágnes	-11.225
▁hűtő	-11.225
▁Button	-11.225
▁korrekt	-11.2251
medencé	-11.2251
▁Dénes	-11.2251
▁Nikol	-11.2251
▁szembesül	-11.2252
▁pohár	-11.2252
▁korlátozott	-11.2254
demokrata	-11.2255
mérnök	-11.2255
▁tüntetők	-11.2256
▁Ahhoz	-11.2257
▁Erika	-11.2259
▁életmód	-11.2261
▁érvelt	-11.2262
▁neked	-11.2264
▁műhely	-11.2269
▁használhat	-11.2282
▁veretlen	-11.2282
▁megszerzésé	-11.2287
▁üzemeltetés	-11.2293
hívó	-11.2298
▁különösebb	-11.2306
vadász	-11.2341
terhelés	-11.2342
▁junior	-11.2345
▁virtuális	-11.2345
▁választópolgár	-11.2345
▁Jersey	-11.2345
▁elterjedt	-11.2345
▁Kocsis	-11.2345
▁kedvezőtlen	-11.2345
▁eséllyel	-11.2345
▁Szakszervezet	-11.2346
▁politikájá	-11.2347
▁ahová	-11.2347
▁meztelen	-11.2347
▁belvízvédelmi	-11.2347
▁interjújában	-11.235
tartalék	-11.235
kilenc	-11.235
▁Út	-11.2351
▁Csakhogy	-11.2351
▁Ronaldo	-11.2352
terjesztő	-11.2355
▁jegyző	-11.2366
sejtek	-11.2371
▁névtelen	-11.2384
▁edz	-11.2404
▁árokba	-11.2409
kiegyensúlyozott	-11.244
▁Biztonság	-11.244
▁Egyiptom	-11.244
▁Hungária	-11.244
▁Suzuki	-11.244
▁konferencia	-11.244
▁kuratórium	-11.244
▁közeljövőben	-11.244
▁narancs	-11.244
▁külföldre	-11.244
▁Nyugdíj	-11.244
▁Kedves	-11.244
▁PSV	-11.244
isztán	-11.244
▁eleinte	-11.244
▁húsvét	-11.244
misszió	-11.2441
▁növelni	-11.2441
▁előírt	-11.2445
▁mindhárom	-11.2446
szereplő	-11.2446
▁javítani	-11.2449
▁kedvezőbb	-11.2452
ózis	-11.2459
▁0-2	-11.246
▁pasi	-11.2465
▁terhes	-11.2469
▁társadalm	-11.249
_	-11.2536
©	-11.2536
▁Financia	-11.2536
▁Hoffmann	-11.2536
▁spórol	-11.2536
▁megtörtént	-11.2536
▁Bizony	-11.2536
▁golf	-11.2536
▁lassabb	-11.2536
▁mozgat	-11.2537
fájdalma	-11.2537
▁méltán	-11.2537
▁Semmi	-11.2538
▁Nobel	-11.2538
▁vonatkozás	-11.2538
nagyobb	-11.2539
▁játszanak	-11.2539
▁sehol	-11.2543
baleset	-11.2544
▁korabeli	-11.2544
▁kapujá	-11.2545
▁határozza	-11.2546
▁örökös	-11.2549
▁napközben	-11.2551
▁okozza	-11.2557
▁gyengülés	-11.256
kettő	-11.2562
▁illeték	-11.2581
▁megkülönböztet	-11.2598
▁hétvégé	-11.2609
netes	-11.2623
szövetkezet	-11.2633
▁afganisztáni	-11.2633
▁demonstráció	-11.2633
▁legsúlyosabb	-11.2633
▁ombudsman	-11.2633
▁tragédia	-11.2633
▁fegyelmi	-11.2633
▁unalmas	-11.2633
▁Emiatt	-11.2633
▁játssza	-11.2633
▁működnek	-11.2633
▁katalán	-11.2633
▁ezentúl	-11.2633
▁visszafogott	-11.2633
▁vendéglátó	-11.2635
▁sohasem	-11.2636
▁elfogadhatatlan	-11.2638
▁légiós	-11.264
▁Figyel	-11.2641
például	-11.2641
ukrán	-11.2642
▁tipp	-11.2642
szektor	-11.2642
kényszer	-11.2642
▁valószínűsít	-11.2645
romlás	-11.2645
▁merész	-11.2657
▁postá	-11.2665
húzódó	-11.2696
vadászat	-11.27
szerűtlen	-11.271
▁mozdul	-11.2712
▁övé	-11.2712
▁Ronald	-11.2725
▁Hollandiá	-11.2731
paradicsom	-11.2731
▁Sarkozy	-11.2731
▁Sebastian	-11.2731
gyulladt	-11.2731
▁fennakadás	-11.2731
▁napvilágot	-11.2731
▁eléggé	-11.2731
▁munkával	-11.2731
▁próbálkozás	-11.2732
▁Politika	-11.2732
▁látszott	-11.2732
czky	-11.2732
▁túlélő	-11.2732
▁zsarol	-11.2733
▁Andor	-11.2733
▁tartóztat	-11.2734
csík	-11.2734
hajtott	-11.2735
▁hím	-11.2737
gömb	-11.2738
▁magához	-11.2738
▁romániai	-11.2738
gyakorlat	-11.274
▁beindul	-11.2741
csökkenés	-11.2741
Univer	-11.2745
▁0,0	-11.2757
döntés	-11.2759
▁gyártott	-11.2765
.000	-11.2768
Koreá	-11.2781
▁segítse	-11.2791
▁irodájá	-11.2811
▁Fazekas	-11.283
▁Ismét	-11.283
▁korrigál	-11.283
▁legjelentősebb	-11.283
▁pályaudvar	-11.283
▁Magazin	-11.283
▁alpesi	-11.283
▁házigazdá	-11.283
▁százalékponttal	-11.283
▁Csillag	-11.283
▁keveset	-11.283
▁Clinton	-11.283
aktivistá	-11.283
▁Személy	-11.2831
qua	-11.2831
▁Angol	-11.2831
▁délnyugat	-11.2832
▁10-15	-11.2833
konzerv	-11.2835
▁felépül	-11.2836
kommunikáció	-11.284
lsősorban	-11.2841
különbség	-11.2842
▁Emil	-11.2853
mély	-11.2853
szkóp	-11.2881
▁raktár	-11.2905
takaró	-11.2916
vitte	-11.2917
▁Alkotmány	-11.2925
▁Dunaújváros	-11.293
▁jellegzetes	-11.293
▁legismertebb	-11.293
▁munkájuk	-11.293
▁pakisztáni	-11.293
▁MLSZ	-11.293
▁elmenekült	-11.293
▁Különösen	-11.293
▁eltiltás	-11.293
▁DVD	-11.293
▁túlnyomó	-11.293
▁konyhá	-11.293
▁Pintér	-11.293
▁iszlám	-11.293
▁megismert	-11.2931
szűrés	-11.2931
▁űrhajó	-11.2931
▁párbeszéd	-11.2933
▁róluk	-11.2934
▁gyanújával	-11.2934
▁kisgyerek	-11.2934
▁röp	-11.2934
▁kft	-11.2935
▁alapszakasz	-11.2938
▁haiti	-11.2941
szállítmány	-11.2947
▁Hann	-11.2949
▁beindít	-11.2951
▁kikerül	-11.2954
ódtak	-11.2966
kötele	-11.2996
▁indokolatlan	-11.3005
NY	-11.302
▁bocsánatot	-11.3031
▁eredménnyel	-11.3031
▁leleplez	-11.3031
▁matematika	-11.3031
▁megdöbbent	-11.3031
▁pezsgő	-11.3031
▁Puskás	-11.3031
▁szórakozóhely	-11.3031
▁legfelső	-11.3031
▁ETO	-11.3031
▁menedék	-11.3031
▁Szerbia	-11.3031
▁pusztán	-11.3031
áramlás	-11.3033
▁bevonásával	-11.3033
▁Harry	-11.3037
Ü	-11.3043
rövid	-11.3044
literes	-11.3044
▁auto	-11.3114
▁szolgáltat	-11.3119
▁Mindenesetre	-11.3133
▁csepeli	-11.3133
▁mechanizmus	-11.3133
▁Fulham	-11.3133
▁honfitárs	-11.3133
▁beleértve	-11.3133
▁lassul	-11.3133
▁kielégít	-11.3133
▁Vásár	-11.3133
▁csepp	-11.3133
▁budai	-11.3133
▁kutatócsoport	-11.314
▁rakétá	-11.3144
▁kamara	-11.3144
hamisítás	-11.3145
▁növelésé	-11.3146
parancsnok	-11.3146
alkalmazott	-11.3147
tulaj	-11.3147
tervező	-11.3154
gyerek	-11.3158
felhasználás	-11.3162
▁képviseleté	-11.3165
maszk	-11.319
úszás	-11.3211
▁Hungar	-11.3222
négyzetkilométer	-11.3236
▁Antonio	-11.3236
▁Bloomberg	-11.3236
▁Portugália	-11.3236
▁debütál	-11.3236
▁kitüntetés	-11.3236
▁madridi	-11.3236
▁roppant	-11.3236
▁világhírű	-11.3236
Docler	-11.3236
▁Részlet	-11.3236
▁társasház	-11.3236
▁fázis	-11.3236
mozgalm	-11.3236
▁gonosz	-11.3236
://	-11.3237
field	-11.3238
▁Erdei	-11.3238
▁árhullám	-11.3239
▁méh	-11.3239
▁parkolás	-11.324
▁dohányzás	-11.3241
hullám	-11.3248
korlátozás	-11.3251
állapot	-11.3252
osztrák	-11.3252
híd	-11.3255
▁elemez	-11.3268
perces	-11.3269
üss	-11.3291
▁helyezked	-11.3296
▁környez	-11.3314
▁kezébe	-11.3322
húzott	-11.3336
▁feszül	-11.334
▁Medvegyev	-11.334
▁Tottenham	-11.334
▁incidens	-11.334
▁laboratórium	-11.334
▁moratórium	-11.334
▁ördög	-11.334
▁automata	-11.334
▁verekedés	-11.334
▁Hitler	-11.3341
▁doktor	-11.3341
▁roncs	-11.3341
▁történhet	-11.3342
▁gőz	-11.3342
▁mostanra	-11.3343
▁pontosabban	-11.3344
▁sebességgel	-11.3345
▁ultra	-11.3347
▁csata	-11.3349
▁töreked	-11.335
polgár	-11.3354
palotá	-11.3369
törlesztés	-11.3371
özö	-11.344
szűrő	-11.3441
vágta	-11.3445
dunántúli	-11.3446
▁YouTube	-11.3446
▁belőlük	-11.3446
▁folyosó	-11.3446
▁jelzálog	-11.3446
▁Beckham	-11.3446
▁megkezdődött	-11.3446
▁szombathelyi	-11.3446
▁Romániában	-11.3446
▁egyezmény	-11.3446
▁Legutóbb	-11.3447
▁Nicolas	-11.3447
▁csodálatos	-11.3447
▁józan	-11.3447
▁korona	-11.3449
▁Andy	-11.345
▁nézzük	-11.345
▁tárcá	-11.345
▁0,6	-11.3452
▁merev	-11.3456
pótló	-11.3459
robbanás	-11.3463
▁esés	-11.3463
▁folyósít	-11.3472
▁szigetország	-11.3477
▁sérül	-11.3486
▁szavazókör	-11.3491
▁biztat	-11.3496
▁beszámol	-11.3523
▁intézked	-11.3527
▁Vatikán	-11.3552
▁klasszis	-11.3552
▁Mónika	-11.3552
▁holokauszt	-11.3552
▁kompromisszum	-11.3552
▁napsütés	-11.3552
▁palack	-11.3552
▁főhős	-11.3552
▁nyeremény	-11.3552
▁eskü	-11.3552
▁válaszadók	-11.3552
▁kivéve	-11.3553
▁átvizsgál	-11.3553
▁csalódás	-11.3554
▁elszámoltatás	-11.3555
▁diplomatá	-11.3555
▁Világkupa	-11.3556
Kaida	-11.3556
▁Lotus	-11.3557
▁alapelv	-11.3559
▁beszerez	-11.3559
▁játszmá	-11.3563
Vasas	-11.357
▁jelentkezés	-11.3577
▁urán	-11.3608
testvér	-11.3619
▁normá	-11.3646
▁Rákóczi	-11.366
▁munkavégzés	-11.366
▁Bernadett	-11.366
▁Közgyűlés	-11.366
▁fellendülés	-11.366
▁spekul	-11.366
▁Fórum	-11.366
▁megrongál	-11.366
▁NHL	-11.366
▁gramm	-11.366
▁hajlamos	-11.366
▁Műszaki	-11.366
▁fekszik	-11.366
▁ösztönöz	-11.366
▁tekintetben	-11.366
▁Régi	-11.366
▁kerítés	-11.366
▁szüntet	-11.3661
▁gyanúsítják	-11.3661
▁honvédelmi	-11.3663
töredék	-11.3663
▁Világgazdaság	-11.3665
▁sima	-11.3666
halmozó	-11.3684
▁végrehajtásá	-11.3716
▁törleszt	-11.3736
▁nemzetbiztonság	-11.374
▁működtetés	-11.3757
ezüstérmes	-11.3768
▁Dmitrij	-11.3768
▁Moszkvában	-11.3768
▁Rangers	-11.3768
▁Schiffer	-11.3768
▁aggodalma	-11.3768
▁hollywoodi	-11.3768
▁jogosítvány	-11.3768
▁küszköd	-11.3768
▁megszűnés	-11.3768
▁nagyszabású	-11.3768
▁ébred	-11.3768
▁Súlyos	-11.3768
▁bevándorló	-11.3768
▁prognózis	-11.3768
▁romantikus	-11.3768
▁erejű	-11.3768
▁megkezdő	-11.3768
▁politizál	-11.3768
▁táplálkozás	-11.3768
▁Dezső	-11.3768
▁ebéd	-11.3768
▁Gyors	-11.3769
▁támaszkod	-11.3769
▁konzul	-11.3769
▁jellemezte	-11.3769
▁Stefan	-11.377
▁táp	-11.377
▁elérheti	-11.377
▁ajkai	-11.377
▁vérnyomás	-11.377
▁temetés	-11.3771
▁találkozás	-11.3771
▁mutatkozott	-11.3773
▁ókori	-11.3773
▁liszt	-11.3773
▁titka	-11.3775
▁megnyitás	-11.3775
▁odafigyel	-11.3779
bázis	-11.3787
koalíció	-11.3788
futott	-11.379
holland	-11.3792
▁lelke	-11.3816
hengeres	-11.3833
▁Egész	-11.3857
▁Marseille	-11.3878
▁energetikai	-11.3878
▁vígjáték	-11.3878
▁Április	-11.3878
szőnyeg	-11.3878
▁turista	-11.3878
▁mutatkozik	-11.3878
▁Mikulás	-11.3878
▁aszfalt	-11.3878
▁veterán	-11.3878
▁korrekció	-11.3879
▁megtéveszt	-11.3879
▁rektor	-11.3879
▁Fitch	-11.3879
▁elengedhetetlen	-11.3879
▁Valencia	-11.388
▁Húsz	-11.388
▁Gergő	-11.3881
▁komplex	-11.3884
▁betilt	-11.3886
Ő	-11.3899
▁pakol	-11.3903
▁előkészít	-11.3929
támasz	-11.3955
▁Press	-11.3968
▁1,9	-11.3983
▁Válasz	-11.3988
burkolat	-11.3989
filozófia	-11.3989
▁Energia	-11.3989
▁Panoráma	-11.3989
▁elegáns	-11.3989
▁frankfurti	-11.3989
▁homlok	-11.3989
▁privatizáció	-11.3989
▁recesszió	-11.3989
▁rászoruló	-11.3989
▁vulkán	-11.3989
▁lefolytat	-11.3989
▁tetszett	-11.3989
▁Pápa	-11.3989
▁Zsuzsanna	-11.3989
▁nulla	-11.3989
▁Show	-11.3989
▁lovag	-11.3989
▁Baranya	-11.3989
▁játéknapján	-11.3989
▁America	-11.399
▁órában	-11.399
▁Pénzügyi	-11.399
▁keveredett	-11.3992
▁Fodor	-11.3992
▁alkalmatlan	-11.3993
▁hetilap	-11.3993
▁Serie	-11.3996
▁tankol	-11.4007
▁lobbi	-11.4009
Ó	-11.4012
mennyiség	-11.4014
minőség	-11.4017
▁oroszlán	-11.4024
▁elfogadásá	-11.4044
gárdá	-11.4063
▁leírt	-11.4068
lkotmányellenes	-11.4078
▁ismerked	-11.4093
▁menedzsment	-11.4102
▁dinamikus	-11.4102
▁előkészület	-11.4102
▁kecskeméti	-11.4102
▁közoktatás	-11.4102
▁szorgalmaz	-11.4102
▁édesanyja	-11.4102
▁Demokrata	-11.4102
▁elbocsátás	-11.4102
▁érvénytelen	-11.4102
▁Kolontár	-11.4102
▁pályafutása	-11.4102
▁eredetű	-11.4102
▁bútor	-11.4102
▁direkt	-11.4102
▁Kanadá	-11.4102
▁középpontjába	-11.4102
▁Vajon	-11.4102
Dinamo	-11.4102
▁kegyetlen	-11.4103
▁Márpedig	-11.4103
▁Rosberg	-11.4104
▁Kevin	-11.4106
▁harag	-11.4109
▁mozgósít	-11.4111
▁Valami	-11.4124
▁0,8	-11.4131
▁3,9	-11.4138
▁kifejt	-11.4152
▁országgyűlés	-11.4187
▁Olympi	-11.4215
▁Pozsony	-11.4215
▁Zsuzsa	-11.4215
▁Telegraph	-11.4215
▁Vagyonkezelő	-11.4215
▁chilei	-11.4215
▁látszólag	-11.4215
▁Group	-11.4215
▁megélhetés	-11.4215
▁tipikus	-11.4215
▁Komárom	-11.4215
▁tréning	-11.4215
▁kosár	-11.4215
▁vidám	-11.4215
▁pótlék	-11.4215
▁2015-	-11.4215
▁eljuttatott	-11.4217
Faktor	-11.4217
▁döntéshozó	-11.4219
fokozatú	-11.4221
Ázsiá	-11.4222
zerencsejáték	-11.4224
futam	-11.4241
medence	-11.4244
ismeret	-11.4245
törvénymódosítás	-11.4249
▁feljelent	-11.4287
▁Siker	-11.4298
elhárítás	-11.4299
kivel	-11.4302
vonatkoz	-11.4307
▁rejtély	-11.4319
▁szituáció	-11.433
Minnesota	-11.433
onprofit	-11.433
▁cigarettá	-11.433
▁kőolaj	-11.433
▁lebonyolítás	-11.433
▁munkái	-11.433
▁sikkasztás	-11.433
▁szolidaritás	-11.433
▁volumen	-11.433
▁platform	-11.433
▁kímél	-11.433
▁Császár	-11.433
▁vizsga	-11.433
▁Lewis	-11.433
▁Regény	-11.433
▁csalódott	-11.4331
▁lecserél	-11.4331
▁kiabál	-11.4331
▁rongál	-11.4331
▁teremteni	-11.4334
▁Wild	-11.4334
▁Mester	-11.4335
▁http	-11.4335
▁elhelyezked	-11.4345
érzékeny	-11.4358
▁tisza	-11.4363
▁lelké	-11.4369
gyógyászat	-11.4395
▁legendá	-11.4405
hívta	-11.4446
eruzsálem	-11.4446
▁Portugáliá	-11.4446
▁felelőtlen	-11.4446
▁Budaházy	-11.4447
▁Szávay	-11.4447
▁folyadék	-11.4447
▁legfiatalabb	-11.4447
▁okostelefon	-11.4447
▁kaposvári	-11.4447
▁országszerte	-11.4447
▁megmondani	-11.4447
pisztoly	-11.4447
▁hetente	-11.4447
▁valuta	-11.4447
▁Videó	-11.4447
▁találkozhat	-11.4447
▁pánik	-11.4448
Mobile	-11.4448
▁Hatvan	-11.4448
▁Tűz	-11.4449
▁műemlék	-11.4449
▁védeni	-11.4452
▁szerződtet	-11.4452
fizika	-11.4453
▁részvénypiac	-11.4462
▁kozm	-11.4466
▁full	-11.4471
SZDSZ	-11.4474
IMF	-11.4474
felület	-11.4475
▁kivonul	-11.4499
▁Művészet	-11.4503
▁sajt	-11.4514
▁mozgó	-11.4555
▁presztízs	-11.4564
adminisztráció	-11.4564
pedagógia	-11.4564
▁Mészáros	-11.4564
▁Remélem	-11.4564
▁kaliforniai	-11.4564
▁középiskolá	-11.4564
▁nemzedék	-11.4564
▁tragikus	-11.4564
▁hármas	-11.4564
▁bonyolít	-11.4564
akadémia	-11.4564
▁érzelmi	-11.4564
Berettyó	-11.4564
Nyíregyháza	-11.4564
Palkovics	-11.4565
▁madarak	-11.4565
▁Egyrészt	-11.4566
▁bűntetté	-11.4566
ecskék	-11.4567
▁elnyert	-11.4577
▁adományoz	-11.4593
Szabó	-11.4593
beruházás	-11.4594
lehetőség	-11.4597
média	-11.4616
héj	-11.4625
zöld	-11.4641
▁szemlél	-11.465
▁Hétfő	-11.4658
▁Celsius	-11.4683
▁Cristian	-11.4683
▁Phoenix	-11.4683
▁Standard	-11.4683
▁fájdalom	-11.4683
▁oxigén	-11.4683
szennyezés	-11.4683
▁pekingi	-11.4683
▁Levente	-11.4683
▁elszenvedett	-11.4683
▁muszáj	-11.4683
▁mielőbb	-11.4683
▁krízis	-11.4683
▁durva	-11.4683
▁Másrészt	-11.4683
▁megnehezít	-11.4683
▁sodor	-11.4684
▁Anders	-11.4684
▁szériá	-11.4684
sivatag	-11.4684
▁megszabadul	-11.4684
tórium	-11.4685
▁Avatar	-11.4685
▁szub	-11.4685
▁státus	-11.4686
▁szoba	-11.469
▁megtudhat	-11.47
tanulmány	-11.4714
tárgyalás	-11.4716
▁konzorcium	-11.4804
▁ritmus	-11.4804
▁székesfehérvári	-11.4804
▁átigazolás	-11.4804
▁klinika	-11.4804
▁beruházó	-11.4804
▁gesztus	-11.4804
▁Reggel	-11.4804
▁Smith	-11.4804
▁őszintén	-11.4804
▁portré	-11.4804
▁titkol	-11.4804
▁póker	-11.4804
▁pláne	-11.4804
▁Senki	-11.4805
▁izom	-11.4806
▁megértés	-11.4811
irányú	-11.4818
▁tanúsít	-11.4818
nyugdíj	-11.4826
▁politikát	-11.4833
történész	-11.4836
üzlet	-11.4836
rajongó	-11.4836
elmélet	-11.4836
ejteni	-11.4837
▁fordulójá	-11.4843
ítené	-11.4856
▁elhárít	-11.4865
küldött	-11.4882
=	-11.4907
▁Stone	-11.4917
▁FTSE	-11.4926
▁Főigazgatóság	-11.4926
▁Jégkorong	-11.4926
▁Orleans	-11.4926
▁főszerkesztője	-11.4926
▁gyarapod	-11.4926
▁hatállyal	-11.4926
▁kézilabdá	-11.4926
▁megkérdőjelez	-11.4926
▁strukturális	-11.4926
▁Szekeres	-11.4926
▁bűnözés	-11.4926
▁örvend	-11.4926
▁General	-11.4926
▁hormon	-11.4926
▁Izland	-11.4926
▁Semjén	-11.4926
▁Dubaj	-11.4926
▁tudomásul	-11.4926
▁hárman	-11.4926
▁megfékez	-11.4926
▁Alföldi	-11.4926
▁csúcstalálkozó	-11.4926
▁devizahitel	-11.4927
▁ellenőrzi	-11.4927
▁Jelentős	-11.4927
▁megtagad	-11.4936
▁kiigazít	-11.494
▁gyorsaság	-11.4959
teljesítmény	-11.4959
kórház	-11.4959
▁megtilt	-11.4959
▁megjelenít	-11.4971
▁felügyel	-11.4978
▁behajt	-11.4994
NBA	-11.4999
Line	-11.5016
hamisít	-11.5018
▁mezőgazdaság	-11.5031
▁megszüntetésé	-11.5044
@	-11.5049
műlesiklás	-11.5049
▁Elemzők	-11.5049
▁Hunvald	-11.5049
▁Philadelphia	-11.5049
▁Szilágyi	-11.5049
▁karambol	-11.5049
▁kulcsfontosságú	-11.5049
▁nyugdíjkorhatár	-11.5049
▁operációs	-11.5049
▁sugall	-11.5049
▁Pakisztán	-11.5049
legeredményesebb	-11.5049
▁tilalma	-11.5049
▁emészt	-11.5049
▁class	-11.5049
▁meggyőződés	-11.5049
▁konzultáció	-11.5049
▁Domokos	-11.5049
▁2020-	-11.5049
▁AFP	-11.505
▁pusztul	-11.5051
▁lassít	-11.5053
▁ejtett	-11.5066
▁Trans	-11.508
szenved	-11.5084
▁előállított	-11.5156
▁párhuzam	-11.5173
munkabeszüntetés	-11.5174
▁Ferguson	-11.5174
▁devizapiacon	-11.5174
▁elbírálás	-11.5174
▁felmelegedés	-11.5174
▁garázs	-11.5174
▁likviditás	-11.5174
▁röhög	-11.5174
▁vetélytárs	-11.5174
hellyel	-11.5174
▁Siófok	-11.5174
▁bátran	-11.5174
▁döbben	-11.5174
▁közepette	-11.5174
▁praktikus	-11.5174
▁zsákmány	-11.5174
▁megismerés	-11.5174
▁hátvéd	-11.5174
▁kistérség	-11.5174
▁megcsinál	-11.5174
▁fájdalmas	-11.5175
▁megjelenik	-11.5175
▁másolat	-11.5175
color	-11.5175
▁Nokia	-11.5175
kísérő	-11.52
képviselő	-11.5211
▁gyengül	-11.5245
▁hódít	-11.5247
szolgáltatott	-11.5292
▁megyeszékhely	-11.5301
▁Keresztény	-11.5301
▁Kristóf	-11.5301
▁Szovjetunió	-11.5301
▁Zalaegerszeg	-11.5301
▁elefánt	-11.5301
▁elkövetkező	-11.5301
▁mindannyian	-11.5301
▁szennyezett	-11.5301
▁Legfelső	-11.5301
▁kenyér	-11.5301
▁tilalom	-11.5301
▁világháló	-11.5301
▁kreatív	-11.5301
▁cucc	-11.5301
▁régebbi	-11.5301
▁csillog	-11.5301
▁kiskorú	-11.5301
▁drámá	-11.5302
▁kettes	-11.5303
▁ügyeletese	-11.5303
▁szorong	-11.5305
▁nézettség	-11.5306
▁farkas	-11.5313
▁mindazok	-11.5318
lejátszó	-11.5331
Sopron	-11.5339
interjú	-11.5339
vörös	-11.5339
Kelet	-11.5341
végrehajtás	-11.536
csökkentő	-11.5366
Popu	-11.5368
▁leszögez	-11.5395
Moson	-11.5404
tanítvány	-11.5417
bevásárlóközpont	-11.5429
▁csokoládé	-11.5429
▁Leonardo	-11.5429
▁Számvevőszék	-11.5429
▁Wolfsburg	-11.5429
▁elektronika	-11.5429
▁gyilkol	-11.5429
▁koordinál	-11.5429
▁milánói	-11.5429
▁politológus	-11.5429
▁vacsorá	-11.5429
▁vesztegetés	-11.5429
▁leszámítva	-11.5429
▁Örök	-11.5429
▁kolléga	-11.5429
▁Que	-11.5429
▁ingadoz	-11.5429
▁megszorító	-11.5429
▁tender	-11.5429
▁delegáció	-11.5429
spirál	-11.5429
▁fillér	-11.543
Toronto	-11.543
▁állíthat	-11.5431
▁karrierjé	-11.5433
▁krimi	-11.5434
▁előtérbe	-11.5445
normal	-11.5454
▁gálá	-11.5458
köszöntött	-11.5466
frissítés	-11.5467
▁Érdek	-11.5505
▁Lengyel	-11.5558
elképzelhetetlen	-11.5559
▁kirándul	-11.5559
▁Ügynökség	-11.5559
▁államkötvény	-11.5559
▁Atlético	-11.5559
▁Deutsch	-11.5559
▁Kramnyik	-11.5559
▁Tímea	-11.5559
▁legkésőbb	-11.5559
▁szimpatizáns	-11.5559
▁Ügyészség	-11.5559
▁CNN	-11.5559
▁Gulyás	-11.5559
▁Qui	-11.5559
▁rezsim	-11.5559
▁MTK	-11.5559
▁nedves	-11.5559
▁megtehet	-11.5559
▁lennék	-11.5559
▁látszat	-11.556
termesztés	-11.556
▁ellensúlyoz	-11.5566
▁hazájá	-11.557
ügyelőbizottság	-11.5578
gyanús	-11.56
selejtező	-11.56
sztrájk	-11.5601
projekt	-11.5601
kerülhet	-11.5644
vitatkoz	-11.5675
▁RMDSZ	-11.569
▁demonstrál	-11.569
▁külképviselet	-11.569
▁Mozgalom	-11.569
▁Sebestyén	-11.569
▁Stohl	-11.569
▁előnnyel	-11.569
▁evolúció	-11.569
▁felhívja	-11.569
▁kopogtatócédulá	-11.569
▁labdarúgás	-11.569
▁legsikeresebb	-11.569
▁soproni	-11.569
▁szélsőjobboldal	-11.569
▁tendenciá	-11.569
▁visszhang	-11.569
▁motivál	-11.569
▁Nissan	-11.569
▁Csepel	-11.569
▁kétoldalú	-11.569
▁működni	-11.569
▁néhol	-11.569
▁sérelme	-11.569
▁Tesco	-11.5691
▁Tolna	-11.5691
▁laptop	-11.5691
▁megfogalmazás	-11.5694
▁erőltet	-11.5701
▁elkülönít	-11.5708
▁árusít	-11.5725
eredmény	-11.5733
vendég	-11.5734
kölcsön	-11.5734
GDP	-11.5734
üzenet	-11.5734
kínai	-11.581
▁kidolgozásá	-11.5819
▁identitás	-11.5824
▁Rooney	-11.5824
▁Stuttgart	-11.5824
▁diktatúra	-11.5824
▁önéletrajz	-11.5824
▁éllovas	-11.5824
▁Sevilla	-11.5824
▁érzelmek	-11.5824
▁hármat	-11.5824
▁nevéhez	-11.5824
▁comment	-11.5824
▁megközelítés	-11.5824
▁pénzbüntetés	-11.5824
▁káosz	-11.5824
▁Patric	-11.5824
▁megsértése	-11.5825
▁fokozód	-11.5825
▁szőke	-11.5825
▁Változ	-11.5827
▁megígér	-11.5828
▁körülötte	-11.5828
▁ösztöndíj	-11.585
kísérlet	-11.5869
egészségügyi	-11.5869
▁Péntek	-11.5922
▁Hollandia	-11.5959
▁Wikileaks	-11.5959
▁devecseri	-11.5959
▁kommunikál	-11.5959
▁nyugdíjjárulék	-11.5959
▁Bundesliga	-11.5959
▁Chicago	-11.5959
▁Rengeteg	-11.5959
▁Virgin	-11.5959
▁akkumulátor	-11.5959
▁hibái	-11.5959
▁legnehezebb	-11.5959
▁pozsonyi	-11.5959
▁Érdemes	-11.5959
▁sláger	-11.5959
▁titokzatos	-11.5959
▁Család	-11.5959
▁abortusz	-11.5959
▁extrém	-11.5959
▁generál	-11.5959
▁pazar	-11.5959
▁középkorú	-11.5959
▁style	-11.5959
▁beadvány	-11.5959
▁megtartani	-11.5959
▁Diego	-11.5959
▁Kiemelte	-11.5959
▁társulat	-11.5959
▁főosztályvezető	-11.5959
▁lelkiismeret	-11.5959
▁jelentkezik	-11.5959
▁Ilona	-11.596
▁csakúgy	-11.596
▁Szerbiá	-11.5961
onmou	-11.5963
foglalás	-11.5965
▁Mariann	-11.5966
díjjal	-11.5969
igazából	-11.5991
jogosultság	-11.5993
kampány	-11.6006
nyilatkozat	-11.6006
koncert	-11.6006
videó	-11.601
sajtótájékoztató	-11.6015
▁megindít	-11.6044
▁0,9	-11.6071
mutatkozó	-11.6073
▁ábrá	-11.6096
▁Bulgáriá	-11.6096
▁manipulál	-11.6096
▁gimnázium	-11.6096
▁megsebesült	-11.6096
▁muzulmán	-11.6096
▁szimbólum	-11.6096
▁tizennégy	-11.6096
▁Civil	-11.6096
▁hivatott	-11.6096
▁szivattyútelep	-11.6096
▁DAX	-11.6096
▁homály	-11.6096
▁Jakab	-11.6096
▁diplomata	-11.6096
▁humán	-11.6096
▁licit	-11.6096
▁kapaszkod	-11.6096
▁Híd	-11.6096
▁mostantól	-11.6096
▁Innen	-11.6097
▁felperes	-11.6098
▁elenged	-11.6119
húzás	-11.6131
közösség	-11.6145
együttes	-11.6145
Minden	-11.6145
pszichológia	-11.6147
▁mozikba	-11.6159
▁pozíciójá	-11.6199
▁béké	-11.6208
rehabilitáció	-11.6235
▁Debreczeni	-11.6235
▁Herczeg	-11.6235
▁Viktória	-11.6235
▁Zeitung	-11.6235
▁antibiotikum	-11.6235
▁kesztyű	-11.6235
▁legolcsóbb	-11.6235
▁száguld	-11.6235
▁mozgott	-11.6235
▁feltüntet	-11.6235
▁Qua	-11.6235
▁Inkább	-11.6235
▁zápor	-11.6235
▁református	-11.6235
▁lámpa	-11.6235
▁gyengít	-11.6235
▁értelmetlen	-11.6235
▁megszerzett	-11.6235
▁állatkert	-11.6235
▁Könnye	-11.6235
▁kamasz	-11.6235
▁kicserél	-11.6237
▁vétség	-11.6242
▁képződ	-11.6244
▁bombáz	-11.6249
▁elrejt	-11.6263
intézkedés	-11.6285
▁Internet	-11.6285
megállapodás	-11.6286
űvelődéstörténet	-11.6304
ozzuk	-11.6323
▁fidesz	-11.6338
engedte	-11.6341
rendőrfőkapitány	-11.6375
▁Finnország	-11.6376
▁adófizetők	-11.6376
terápia	-11.6376
▁Eindhoven	-11.6376
▁Gazprom	-11.6376
▁HÉV	-11.6376
▁Kennedy	-11.6376
▁Sampdoria	-11.6376
▁bronzérmes	-11.6376
▁disznó	-11.6376
▁feltörekvő	-11.6376
▁megsegítésé	-11.6376
▁merénylő	-11.6376
▁ügyintézés	-11.6376
▁enyhül	-11.6376
▁megnyilvánulás	-11.6376
▁édesapja	-11.6376
▁bejegyzett	-11.6376
▁Kilenc	-11.6376
▁hülyé	-11.6376
▁sprint	-11.6376
▁ruházat	-11.6376
▁Virág	-11.6376
▁találkoznak	-11.6376
▁Falco	-11.6376
▁Oszkó	-11.6376
▁munkára	-11.6376
▁egyhangú	-11.6376
▁Davis	-11.6376
▁beleszól	-11.6376
▁Jolie	-11.6376
▁adócsalás	-11.6376
▁kkv	-11.6377
▁megkérdezte	-11.6379
▁landol	-11.6397
▁nélkülöz	-11.6421
▁helytáll	-11.647
húzza	-11.6506
▁ifj	-11.6509
becsü	-11.6518
▁Hollywood	-11.6518
▁határátkelő	-11.6518
▁Brazília	-11.6518
▁Dortmund	-11.6518
▁Iskola	-11.6518
▁Miniszterelnök	-11.6518
▁Talmácsi	-11.6518
▁dizájn	-11.6518
▁eldönteni	-11.6518
▁garancia	-11.6518
▁jövedéki	-11.6518
▁leghíresebb	-11.6518
▁navigáció	-11.6518
▁prioritás	-11.6518
▁struktúrá	-11.6518
▁szegmens	-11.6518
▁Űr	-11.6518
▁Volvo	-11.6518
▁Wilson	-11.6518
▁MNV	-11.6518
▁mellesleg	-11.6518
▁egyszerűsített	-11.6518
▁szerződött	-11.6518
▁megfordult	-11.6518
▁Pokorni	-11.6519
▁tagozat	-11.6519
▁szenátor	-11.6519
▁megfogalmazott	-11.6519
▁elődje	-11.6519
▁Úr	-11.6519
▁megbecsül	-11.652
▁Potter	-11.652
▁irigy	-11.6524
▁finanszírozásá	-11.6558
▁képzőművész	-11.6562
mértékben	-11.6574
tekinteni	-11.6578
▁hangoztat	-11.6644
néztem	-11.6653
▁áldoz	-11.6654
▁CSZKA	-11.6663
▁Krisztus	-11.6663
▁Tudományegyetem	-11.6663
▁bázisponttal	-11.6663
▁jogviszony	-11.6663
▁részvényindexe	-11.6663
▁konszenzus	-11.6663
▁kitűzött	-11.6663
▁készenlét	-11.6663
▁Férfi	-11.6663
▁kurzus	-11.6663
▁ellehetetlenít	-11.6663
▁megmenteni	-11.6663
▁kollégák	-11.6663
▁fiatalkorú	-11.6663
grúz	-11.6663
▁MTA	-11.6663
▁Airport	-11.6664
▁Morgan	-11.6664
▁Rómá	-11.6664
▁ugyanennyi	-11.6664
gránát	-11.6664
▁növelése	-11.6664
▁Tokaj	-11.6664
Nagykun	-11.6664
▁Szíj	-11.6664
▁bácsi	-11.6665
▁Díj	-11.6668
készítmény	-11.6709
kínálat	-11.6721
stadion	-11.6721
▁elnevezés	-11.6802
közreműködésével	-11.6805
▁Csütörtök	-11.6808
zélandi	-11.681
▁Koszovó	-11.681
indazonáltal	-11.681
▁Federer	-11.681
▁Ifjúsági	-11.681
▁Megjegyezte	-11.681
▁Peugeot	-11.681
▁etnikai	-11.681
▁hozzáférhető	-11.681
▁kereszteződés	-11.681
▁szennyvíz	-11.681
▁Christian	-11.681
▁Karrier	-11.681
▁Martonyi	-11.681
▁feltűnt	-11.681
▁kombináció	-11.681
▁maffia	-11.681
▁Carlsen	-11.681
▁elmesél	-11.681
▁kormánnyal	-11.681
▁Addig	-11.681
▁megtekinthet	-11.681
▁égitest	-11.681
▁hunyt	-11.681
▁monitor	-11.6811
▁összeomlás	-11.6811
györgy	-11.6811
▁Adrian	-11.6811
▁aggaszt	-11.6811
▁automatá	-11.6811
▁székházá	-11.6812
kvótá	-11.6812
▁verseng	-11.6813
▁áthalad	-11.6818
▁focistá	-11.6818
▁mellőz	-11.6819
faktor	-11.682
halmaz	-11.6862
információ	-11.687
Budapest	-11.687
▁henger	-11.6871
értelmű	-11.6915
▁Szerencs	-11.6953
▁kalkulál	-11.696
tockholm	-11.696
▁EBEL	-11.696
▁Murray	-11.696
▁Regionális	-11.696
▁Statisztikai	-11.696
▁alumínium	-11.696
▁csípő	-11.696
▁fantáziá	-11.696
▁játsszák	-11.696
▁mulasztás	-11.696
▁müncheni	-11.696
▁számottevő	-11.696
▁terjeszked	-11.696
▁tizennyolc	-11.696
▁életfogytig	-11.696
▁özvegy	-11.696
▁ELTE	-11.696
▁férőhely	-11.696
▁karbantartás	-11.696
▁éppúgy	-11.696
▁Példa	-11.696
▁léteznek	-11.696
▁munkahelyteremt	-11.696
▁vegyék	-11.696
▁Cozma	-11.696
▁Tőkés	-11.696
▁Kerület	-11.696
▁kockáztat	-11.696
▁Club	-11.696
▁tésztá	-11.696
öböl	-11.696
▁mutogat	-11.696
hicagó	-11.6961
▁meredek	-11.6961
▁hozzáférés	-11.6961
▁hajszál	-11.6978
szöveg	-11.7022
irányító	-11.7022
vírus	-11.7024
üldözés	-11.7042
egyenlőség	-11.7048
▁visszaállít	-11.7102
▁Annamária	-11.7111
▁Brazíliá	-11.7111
▁Hegedűs	-11.7111
▁Selmeczi	-11.7111
▁Szolgáltató	-11.7111
▁autonóm	-11.7111
▁dolgát	-11.7111
▁elfogatóparancs	-11.7111
▁tizenhárom	-11.7111
▁érdekképviselet	-11.7111
▁főiskolá	-11.7111
▁gyöngy	-11.7111
▁Oszkár	-11.7111
▁innováció	-11.7111
molekulá	-11.7111
▁Alstom	-11.7111
▁FBI	-11.7111
▁logikus	-11.7111
▁Igazságügy	-11.7111
▁kokain	-11.7111
▁elgondolkod	-11.7111
▁Kelemen	-11.7112
kommandó	-11.7112
▁átalakulás	-11.7113
▁Csabá	-11.7113
▁lottó	-11.7113
▁Szerintü	-11.7121
▁felmentés	-11.713
tekintő	-11.7132
kultúrá	-11.7134
▁kitölt	-11.7136
származott	-11.7158
bemutatkoz	-11.7169
ütközött	-11.7175
ellenőrzés	-11.7175
dolgozó	-11.7253
jöjjön	-11.7265
▁Szlovénia	-11.7265
▁borzasztó	-11.7265
▁gyakrabban	-11.7265
▁honvédség	-11.7265
▁megköszön	-11.7265
▁objektum	-11.7265
▁vezényel	-11.7265
▁Összességében	-11.7265
▁dolguk	-11.7265
▁fegyelmez	-11.7265
▁kompenzál	-11.7265
▁eltűnés	-11.7265
▁öltöző	-11.7265
▁Bridge	-11.7265
▁Stadion	-11.7265
▁ezredes	-11.7265
▁törekszik	-11.7265
▁jüan	-11.7265
▁fontolgat	-11.7265
▁gyomor	-11.7265
▁megegyezik	-11.7265
▁székely	-11.7265
▁sertés	-11.7265
▁Utána	-11.7265
▁lézer	-11.7265
▁megmagyaráz	-11.7265
▁Felipe	-11.7265
▁csupa	-11.7265
▁Lakers	-11.7265
WHO	-11.7266
▁módosul	-11.7266
▁eszembe	-11.7269
▁leplez	-11.7271
▁szférá	-11.7275
Invest	-11.7289
▁kijavít	-11.7293
▁Segít	-11.7303
harminc	-11.7332
▁megszakít	-11.7387
▁szociáldemokrat	-11.7394
lövedék	-11.7421
▁Felügyelet	-11.7421
▁galaxis	-11.7421
▁horror	-11.7421
▁hátráltat	-11.7421
▁izlandi	-11.7421
▁legdrágább	-11.7421
▁motiváció	-11.7421
▁Ítélőtábla	-11.7421
▁Óriási	-11.7421
feküdt	-11.7421
▁eladósodott	-11.7421
▁hüvely	-11.7421
▁korcsolyá	-11.7421
Fehéroroszország	-11.7421
▁Tűzoltó	-11.7421
▁Werder	-11.7421
▁ihlet	-11.7421
▁találkoztak	-11.7421
▁Gregor	-11.7421
▁Lévai	-11.7421
▁rendellenesség	-11.7422
▁Carolin	-11.7423
kötelezettség	-11.7428
hasznosítás	-11.7452
▁súlyosbít	-11.7454
▁magáé	-11.7474
produkció	-11.749
▁szurkol	-11.7496
szétlövés	-11.752
▁rajong	-11.7535
▁Szlovák	-11.7541
indulás	-11.7562
diploma	-11.7576
rősödött	-11.7577
▁Közlöny	-11.758
▁Stabilitás	-11.758
▁Szociális	-11.758
▁kollégium	-11.758
▁leggyakoribb	-11.758
▁meghibásodás	-11.758
▁pálinka	-11.758
▁zarándok	-11.758
▁Alexandr	-11.758
▁Anglia	-11.758
▁gyülekez	-11.758
▁kaszinó	-11.758
▁zsúfol	-11.758
▁Science	-11.758
▁kocsmá	-11.758
▁nyersanyag	-11.758
▁buzdít	-11.758
▁kismamá	-11.758
▁konszern	-11.758
▁Mihail	-11.758
▁megrendelő	-11.758
▁bizakod	-11.758
▁Meglepő	-11.7581
▁eszmél	-11.7582
füzet	-11.7582
▁rekedt	-11.7582
▁küldetés	-11.7589
▁elhalasztott	-11.759
▁közigazgatás	-11.7598
felügyelet	-11.7651
▁kiürít	-11.7658
▁hétvége	-11.7685
▁Esterházy	-11.7741
▁Bordeaux	-11.7741
▁Christoph	-11.7741
▁Mezőgazdasági	-11.7741
▁Spiegel	-11.7741
▁Vállalkozás	-11.7741
▁gyémánt	-11.7741
▁informátor	-11.7741
▁kecsegtet	-11.7741
▁megkönnyít	-11.7741
▁mesterhármas	-11.7741
▁objektív	-11.7741
▁vélekedik	-11.7741
▁Karjakin	-11.7741
▁Schalke	-11.7741
▁Szilárd	-11.7741
▁fennmaradó	-11.7741
▁kollégájá	-11.7741
▁Hatalmas	-11.7741
kristály	-11.7741
▁Manuel	-11.7741
▁Várhatóan	-11.7741
▁nyugdíjreform	-11.7741
▁osztalék	-11.7741
▁Előzetes	-11.7741
▁Győző	-11.7741
▁GVH	-11.7741
▁mindenekelőtt	-11.7741
▁Gyógy	-11.7741
▁hobbi	-11.7741
▁szlogen	-11.7741
Spanyol	-11.7741
Békéscsaba	-11.7741
▁EKB	-11.7742
▁Róma	-11.7742
▁kedély	-11.7742
▁vébé	-11.7742
▁Puszta	-11.7742
▁túsz	-11.7742
sütemény	-11.7746
▁legénység	-11.7749
meteorológia	-11.7753
sapká	-11.7761
Hódmezővásárhely	-11.7764
▁megteremtésé	-11.777
▁jelmez	-11.7779
▁túrá	-11.7804
nstant	-11.787
▁Körmend	-11.7905
▁ORTT	-11.7905
filozófiá	-11.7905
▁Közalapítvány	-11.7905
▁Porsche	-11.7905
▁abszurd	-11.7905
▁gabona	-11.7905
▁gyertyá	-11.7905
▁megkezdték	-11.7905
▁pedofil	-11.7905
▁pokolgép	-11.7905
▁szolnoki	-11.7905
▁élmezőny	-11.7905
▁összeesküvés	-11.7905
▁üdülő	-11.7905
▁közérdekű	-11.7905
▁évezred	-11.7905
▁Howard	-11.7905
▁Valentin	-11.7905
Claude	-11.7905
▁megtudtuk	-11.7905
▁Nándor	-11.7905
▁megkereste	-11.7905
▁MFB	-11.7905
▁tegyék	-11.7905
▁megragad	-11.7906
▁nullá	-11.7906
novellá	-11.7907
▁irányelv	-11.7907
▁balhé	-11.7912
▁jelentkezhet	-11.7912
görcs	-11.7914
táblák	-11.7973
▁éghajlat	-11.8026
▁vélem	-11.807
▁fölösleges	-11.8072
▁public	-11.8072
▁Alexander	-11.8072
▁Fesztivál	-11.8072
▁Horthy	-11.8072
▁Richárd	-11.8072
▁garázdaság	-11.8072
▁kvalifikáció	-11.8072
▁kígyó	-11.8072
▁Állítólag	-11.8072
▁Contador	-11.8072
▁szinkron	-11.8072
▁Sauber	-11.8072
▁ciklon	-11.8072
▁szabadlábra	-11.8072
▁végződött	-11.8072
õ	-11.9912
ć	-12.0537
§	-12.0977
à	-12.2168
è	-12.3522
×	-12.3522
č	-12.5432
	-12.6544
[	-12.7706
ô	-12.7796
š	-12.825
ë	-12.9226
‭	-12.9226
Š	-12.9753
ă	-13.1522
†	-13.4505
<	-13.5414
ç	-13.5414
~	-13.6414
ñ	-13.6414
Ű	-13.7525
°	-13.7525
û	-13.7525
\	-13.8775
â	-13.8775
ß	-14.0204
ý	-14.0204
ń	-14.1871
ø	-14.1871
`	-14.1871
	-14.1871
ł	-14.1871
ş	-14.3871
Č	-14.3871
ţ	-14.3871
⁄	-14.3871
	-14.6371
ž	-14.6371
	-14.6371
È	-14.6371
Ž	-14.6371
®	-14.9704
¬	-14.9704
å	-14.9704
ò	-14.9704
ň	-14.9704
̈	-14.9704
‒	-14.9704
±	-14.9704
Ä	-15.4704
	-15.4704
·	-15.4704
ã	-15.4704
ì	-15.4704
ï	-15.4704
ÿ	-15.4704
Đ	-15.4704
ה	-15.4704
′	-15.4704
€	-15.4704
≤	-15.4704
ť	-15.4704
^	-15.4704
£	-16.4701
‬	-16.4702
̋	-16.4703
ð	-16.4704
Ć	-16.4704
Å	-16.4704
æ	-16.4704
ê	-16.4704
î	-16.4704
ą	-16.4704
đ	-16.4704
ę	-16.4704
ı	-16.4704
ř	-16.4704
Ś	-16.4704
ś	-16.4704
Ţ	-16.4704
Ť	-16.4704
ů	-16.4704
ș	-16.4704
λ	-16.4704
μ	-16.4704
ї	-16.4704
ו	-16.4704
י	-16.4704
∗	-16.4704
	-16.4704
(	-16.4704
ż	-16.4704
