<unk>	0
<s>	0
</s>	0
an	-0
er	-1
en	-2
▁d	-3
▁m	-4
ar	-5
at	-6
▁p	-7
ang	-8
ak	-9
in	-10
▁s	-11
as	-12
al	-13
▁k	-14
ah	-15
▁t	-16
em	-17
▁b	-18
am	-19
un	-20
▁di	-21
el	-22
▁men	-23
▁P	-24
ad	-25
kan	-26
tu	-27
▁S	-28
ya	-29
si	-30
▁K	-31
ap	-32
on	-33
▁y	-34
▁yang	-35
eb	-36
il	-37
ga	-38
or	-39
▁B	-40
▁dan	-41
▁M	-42
▁A	-43
es	-44
ik	-45
eng	-46
is	-47
▁ter	-48
ur	-49
ut	-50
▁ber	-51
it	-52
▁l	-53
ing	-54
us	-55
ek	-56
▁D	-57
um	-58
et	-59
asi	-60
akan	-61
ol	-62
▁J	-63
▁meng	-64
▁T	-65
ada	-66
ara	-67
ung	-68
▁I	-69
▁j	-70
▁per	-71
uk	-72
ari	-73
emb	-74
▁2	-75
ab	-76
nya	-77
▁(	-78
▁ke	-79
▁h	-80
ai	-81
im	-82
▁R	-83
om	-84
ul	-85
id	-86
ir	-87
ta	-88
▁in	-89
tuk	-90
▁20	-91
▁un	-92
alam	-93
▁se	-94
▁untuk	-95
ud	-96
itu	-97
ih	-98
▁pen	-99
▁r	-100
engan	-101
ata	-102
▁202	-103
ti	-104
ag	-105
aw	-106
up	-107
▁H	-108
▁dengan	-109
atan	-110
▁mem	-111
angan	-112
eg	-113
▁W	-114
▁-	-115
▁1	-116
▁ini	-117
▁N	-118
▁dari	-119
▁In	-120
adi	-121
esi	-122
▁G	-123
ama	-124
ok	-125
ia	-126
▁itu	-127
",	-128
▁2024	-129
▁C	-130
ro	-131
uh	-132
▁L	-133
▁dalam	-134
▁pada	-135
ant	-136
ed	-137
▁n	-138
ep	-139
▁"	-140
▁mel	-141
and	-142
aga	-143
ian	-144
aya	-145
▁seb	-146
▁U	-147
amp	-148
ukan	-149
ent	-150
▁memb	-151
▁mer	-152
ay	-153
ali	-154
ebut	-155
ri	-156
▁menj	-157
per	-158
eh	-159
▁g	-160
▁ters	-161
idak	-162
▁w	-163
▁meny	-164
ub	-165
▁pem	-166
▁Ind	-167
▁F	-168
eri	-169
aj	-170
ain	-171
▁c	-172
isi	-173
alah	-174
elah	-175
aan	-176
▁Per	-177
uga	-178
▁tidak	-179
ot	-180
wa	-181
angk	-182
end	-183
).	-184
ua	-185
ib	-186
uan	-187
onesi	-188
▁akan	-189
onesia	-190
▁tersebut	-191
▁Indonesia	-192
▁peng	-193
ahan	-194
asa	-195
▁kep	-196
emp	-197
agai	-198
aran	-199
uj	-200
nn	-201
amb	-202
aat	-203
pnn	-204
anj	-205
ota	-206
▁juga	-207
ana	-208
atakan	-209
com	-210
angg	-211
▁E	-212
ati	-213
▁sel	-214
▁WI	-215
▁Pr	-216
▁WIB	-217
▁Sel	-218
tr	-219
usi	-220
▁mend	-221
ahun	-222
▁pro	-223
▁bah	-224
akukan	-225
ami	-226
▁mas	-227
int	-228
orang	-229
gi	-230
ob	-231
anya	-232
any	-233
alu	-234
▁kata	-235
apat	-236
oleh	-237
agi	-238
ra	-239
▁menjadi	-240
arga	-241
cara	-242
akar	-243
▁f	-244
asan	-245
alan	-246
▁An	-247
▁mengatakan	-248
ja	-249
ungan	-250
ter	-251
▁Ke	-252
had	-253
eka	-254
▁saat	-255
▁O	-256
ala	-257
isa	-258
▁bahwa	-259
atu	-260
ika	-261
▁sek	-262
da	-263
▁ad	-264
▁pel	-265
▁ser	-266
▁ak	-267
▁sebagai	-268
ebih	-269
▁oleh	-270
▁telah	-271
ong	-272
ingk	-273
▁ada	-274
▁tahun	-275
ena	-276
ip	-277
itas	-278
apa	-279
os	-280
utu	-281
aman	-282
akarta	-283
yar	-284
▁kar	-285
00	-286
▁kon	-287
ew	-288
▁set	-289
udah	-290
▁bisa	-291
api	-292
▁dil	-293
▁ket	-294
egara	-295
ita	-296
onal	-297
▁ata	-298
AR	-299
lah	-300
ran	-301
▁kem	-302
▁Pol	-303
aru	-304
▁jpnn	-305
ingga	-306
art	-307
▁kepada	-308
▁atau	-309
ingg	-310
▁Y	-311
ind	-312
inya	-313
asil	-314
▁lebih	-315
akat	-316
ow	-317
▁0	-318
aku	-319
▁Pem	-320
▁mereka	-321
▁pert	-322
res	-323
▁menc	-324
ungk	-325
ina	-326
▁pemb	-327
▁Jakarta	-328
gr	-329
elum	-330
urut	-331
esar	-332
▁orang	-333
eber	-334
den	-335
▁satu	-336
▁dis	-337
▁sem	-338
yarakat	-339
▁Men	-340
▁bers	-341
od	-342
aik	-343
osi	-344
▁sudah	-345
anyak	-346
op	-347
empat	-348
awa	-349
▁karena	-350
▁pers	-351
imp	-352
▁Un	-353
▁Is	-354
▁(2	-355
▁dib	-356
▁berk	-357
erint	-358
iri	-359
▁kel	-360
erah	-361
erja	-362
▁adalah	-363
▁(1	-364
▁kes	-365
TA	-366
▁dit	-367
▁3	-368
▁Kota	-369
▁kami	-370
og	-371
▁para	-372
iga	-373
▁berb	-374
▁peny	-375
▁masyarakat	-376
apan	-377
▁an	-378
orm	-379
▁melakukan	-380
ilik	-381
▁Sen	-382
▁Pen	-383
ember	-384
esiden	-385
abu	-386
asih	-387
ban	-388
▁hari	-389
▁pas	-390
▁lain	-391
▁Tim	-392
/1	-393
angs	-394
awan	-395
▁uj	-396
atkan	-397
▁sej	-398
ac	-399
arang	-400
ist	-401
oh	-402
uat	-403
aks	-404
hadap	-405
arkan	-406
ilih	-407
aikan	-408
arus	-409
▁Kem	-410
umat	-411
▁Kam	-412
ini	-413
est	-414
apkan	-415
AK	-416
▁negara	-417
▁Ber	-418
▁terhadap	-419
▁mengg	-420
ej	-421
erikan	-422
ima	-423
omp	-424
▁dik	-425
▁V	-426
▁memper	-427
▁tet	-428
ikan	-429
▁at	-430
▁bagi	-431
▁pr	-432
jadi	-433
ic	-434
▁terb	-435
▁Kab	-436
asional	-437
▁dapat	-438
erintah	-439
▁ujar	-440
▁kor	-441
▁dia	-442
arat	-443
ARTA	-444
AKARTA	-445
upat	-446
umlah	-447
ka	-448
▁secara	-449
uhan	-450
dang	-451
▁Ch	-452
▁Pro	-453
gram	-454
uran	-455
▁hingga	-456
mas	-457
upaten	-458
duk	-459
▁as	-460
▁Selasa	-461
20	-462
▁Rabu	-463
engah	-464
umah	-465
▁JAKARTA	-466
▁v	-467
hir	-468
unj	-469
eberapa	-470
usah	-471
anjut	-472
upakan	-473
▁Senin	-474
ingan	-475
askan	-476
ihak	-477
perti	-478
),	-479
▁Al	-480
ensi	-481
jpnn	-482
▁setelah	-483
ov	-484
▁Sur	-485
▁Dia	-486
▁Kamis	-487
▁merupakan	-488
angat	-489
▁2024.	-490
▁Sem	-491
▁pol	-492
ec	-493
angka	-494
enc	-495
▁dua	-496
usia	-497
▁seperti	-498
▁Kep	-499
antu	-500
▁AS	-501
ayah	-502
▁baru	-503
▁saya	-504
▁keb	-505
ulan	-506
▁Ag	-507
▁Kabupaten	-508
uka	-509
▁Jumat	-510
PP	-511
▁warga	-512
tua	-513
alon	-514
▁masih	-515
ses	-516
▁pun	-517
▁ag	-518
▁harus	-519
▁ek	-520
▁dilakukan	-521
▁beberapa	-522
▁Am	-523
▁Ter	-524
▁serta	-525
aerah	-526
asus	-527
tif	-528
▁memberikan	-529
iliki	-530
ump	-531
alui	-532
▁Mar	-533
era	-534
▁anak	-535
▁pend	-536
amun	-537
angsung	-538
ilan	-539
▁banyak	-540
anc	-541
▁ant	-542
uang	-543
ekan	-544
▁Jawa	-545
engg	-546
ukum	-547
artai	-548
ni	-549
ayan	-550
AN	-551
rael	-552
itik	-553
▁Ar	-554
ilayah	-555
▁Presiden	-556
▁korban	-557
▁lalu	-558
▁dip	-559
▁hanya	-560
▁atas	-561
▁pihak	-562
olo	-563
tor	-564
▁besar	-565
ikasi	-566
tur	-567
▁berh	-568
ons	-569
▁su	-570
▁Kom	-571
di	-572
▁Israel	-573
uah	-574
unan	-575
▁Pil	-576
inan	-577
uar	-578
▁Di	-579
▁dig	-580
▁memiliki	-581
▁Bali	-582
▁rumah	-583
ern	-584
apor	-585
▁bersama	-586
form	-587
ea	-588
inggu	-589
202	-590
agian	-591
tikan	-592
▁Ketua	-593
owo	-594
▁terjadi	-595
af	-596
uruh	-597
▁tim	-598
▁seh	-599
erangan	-600
▁selama	-601
itar	-602
ting	-603
▁baik	-604
▁melalui	-605
▁berl	-606
uc	-607
ev	-608
▁Sab	-609
▁sangat	-610
imb	-611
▁Ap	-612
aksi	-613
unia	-614
embali	-615
ug	-616
ani	-617
ulai	-618
▁ker	-619
▁salah	-620
▁Seb	-621
▁ked	-622
▁Menurut	-623
▁Peng	-624
▁Des	-625
▁kasus	-626
entara	-627
wan	-628
inta	-629
st	-630
man	-631
▁DP	-632
ilai	-633
ei	-634
▁wak	-635
kait	-636
▁wilayah	-637
angkan	-638
▁4	-639
elar	-640
▁sen	-641
ikut	-642
▁Band	-643
iap	-644
▁bert	-645
▁Pas	-646
▁pemerintah	-647
ampaikan	-648
▁5	-649
edia	-650
▁Rp	-651
▁Sabtu	-652
aja	-653
unakan	-654
gaw	-655
▁kita	-656
▁Pel	-657
▁mengh	-658
au	-659
▁mil	-660
▁sama	-661
ahu	-662
unc	-663
▁al	-664
▁terl	-665
▁tetapi	-666
umb	-667
iv	-668
▁Barat	-669
lu	-670
▁Namun	-671
abowo	-672
▁ap	-673
▁Minggu	-674
▁PT	-675
▁Prabowo	-676
▁angg	-677
▁terus	-678
▁sebelum	-679
▁kom	-680
oto	-681
▁dir	-682
▁terkait	-683
▁kembali	-684
ny	-685
isasi	-686
utus	-687
han	-688
adan	-689
utan	-690
▁persen	-691
ihat	-692
▁kek	-693
tri	-694
▁sekitar	-695
kr	-696
uda	-697
enter	-698
tern	-699
▁kec	-700
▁hal	-701
udi	-702
ig	-703
▁meningk	-704
▁hukum	-705
pa	-706
entang	-707
unya	-708
▁seluruh	-709
anto	-710
ungg	-711
onom	-712
▁mendapat	-713
▁agar	-714
udian	-715
▁19	-716
az	-717
▁Ser	-718
▁St	-719
kada	-720
ark	-721
▁berbagai	-722
arah	-723
▁Dir	-724
▁did	-725
▁sep	-726
▁Ad	-727
ij	-728
▁pes	-729
▁Ment	-730
2024	-731
▁tak	-732
▁tiga	-733
idikan	-734
▁terd	-735
atih	-736
inggal	-737
lik	-738
atang	-739
omor	-740
▁daerah	-741
▁Kor	-742
.00	-743
amatan	-744
mi	-745
▁o	-746
▁Pert	-747
abat	-748
sp	-749
▁tan	-750
ju	-751
▁hasil	-752
uli	-753
epan	-754
upaya	-755
uru	-756
▁program	-757
▁menjel	-758
entu	-759
ahkan	-760
▁sebuah	-761
▁Selatan	-762
men	-763
▁lainnya	-764
masuk	-765
egeri	-766
ukung	-767
if	-768
▁KP	-769
ehatan	-770
▁samp	-771
▁10	-772
apai	-773
ubern	-774
iz	-775
ubernur	-776
usahaan	-777
▁calon	-778
emen	-779
▁dunia	-780
▁Menteri	-781
▁menyebut	-782
▁diper	-783
▁Dalam	-784
uari	-785
▁produk	-786
sa	-787
uta	-788
und	-789
etu	-790
▁belum	-791
air	-792
▁Ut	-793
formasi	-794
tas	-795
osial	-796
ologi	-797
".	-798
▁Tr	-799
▁pertama	-800
ersi	-801
▁antara	-802
▁RI	-803
abaya	-804
▁tentang	-805
▁Z	-806
ilu	-807
aris	-808
▁Kepala	-809
anti	-810
▁sedang	-811
▁Agus	-812
▁ses	-813
inggi	-814
/2024	-815
▁Surabaya	-816
ank	-817
utama	-818
▁kerja	-819
ampak	-820
▁penting	-821
ingin	-822
▁menghad	-823
ef	-824
▁res	-825
▁dem	-826
▁kh	-827
mad	-828
▁Hal	-829
▁Bandung	-830
iter	-831
ayanan	-832
abar	-833
elas	-834
okasi	-835
▁membuat	-836
MK	-837
olah	-838
▁semua	-839
idang	-840
ilihan	-841
▁termasuk	-842
▁Mas	-843
nas	-844
▁Ket	-845
ekerja	-846
amanan	-847
▁sejumlah	-848
▁pelaku	-849
▁memas	-850
▁berj	-851
▁Timur	-852
alami	-853
▁berd	-854
▁As	-855
▁Sep	-856
insi	-857
atanya	-858
▁langsung	-859
▁Partai	-860
▁Mer	-861
ril	-862
▁Sek	-863
▁st	-864
araan	-865
▁Th	-866
▁Ini	-867
li	-868
akin	-869
▁China	-870
▁Set	-871
umum	-872
impin	-873
atif	-874
ibat	-875
▁depan	-876
▁Kec	-877
uas	-878
akit	-879
ungkap	-880
▁sejak	-881
▁berp	-882
▁Pilkada	-883
▁man	-884
re	-885
akhir	-886
ual	-887
▁penc	-888
▁Tengah	-889
usus	-890
sia	-891
antan	-892
▁bi	-893
▁DPR	-894
▁kedua	-895
▁anggota	-896
unjuk	-897
esk	-898
▁a	-899
▁terp	-900
▁katanya	-901
tiv	-902
▁Ak	-903
anda	-904
▁7	-905
▁Um	-906
antor	-907
▁2023	-908
▁kali	-909
▁mener	-910
awat	-911
▁bagian	-912
angunan	-913
▁suara	-914
▁waktu	-915
▁Persi	-916
epat	-917
asis	-918
▁seorang	-919
ibu	-920
istr	-921
▁Jok	-922
aka	-923
▁dim	-924
empuan	-925
▁mendukung	-926
▁Pal	-927
▁bulan	-928
enterian	-929
encana	-930
▁politik	-931
▁Ok	-932
▁sehingga	-933
ono	-934
▁pengg	-935
ustr	-936
▁6	-937
aian	-938
gas	-939
ch	-940
uni	-941
asar	-942
erika	-943
▁tempat	-944
akil	-945
▁mengaku	-946
usat	-947
▁15	-948
▁ya	-949
▁Ang	-950
▁serangan	-951
▁menyampaikan	-952
▁akhir	-953
arg	-954
utusan	-955
▁kota	-956
atim	-957
nyata	-958
▁mulai	-959
ont	-960
ekn	-961
lin	-962
▁Kap	-963
▁Selain	-964
awasan	-965
SI	-966
aksan	-967
▁Mal	-968
▁Amerika	-969
▁meningkatkan	-970
▁12	-971
▁saja	-972
▁proses	-973
onomi	-974
▁perusahaan	-975
ompok	-976
▁lagi	-977
▁Polres	-978
ingkat	-979
▁Kar	-980
din	-981
▁[	-982
oba	-983
▁kons	-984
ober	-985
emukan	-986
▁Nov	-987
▁Direk	-988
▁ind	-989
ikat	-990
▁aw	-991
eo	-992
engk	-993
▁ketika	-994
▁bel	-995
DI	-996
PN	-997
alau	-998
▁Pada	-999
▁sosial	-1000
▁menggunakan	-1001
ublik	-1002
ard	-1003
eksi	-1004
▁kamp	-1005
▁seg	-1006
▁sur	-1007
▁malam	-1008
▁juta	-1009
akni	-1010
▁14	-1011
gaj	-1012
▁kesehatan	-1013
ers	-1014
uarga	-1015
usaha	-1016
otor	-1017
-1	-1018
NI	-1019
ukungan	-1020
vinsi	-1021
▁2024,	-1022
▁menjelaskan	-1023
▁Rusia	-1024
idup	-1025
▁16	-1026
egi	-1027
ort	-1028
oal	-1029
eral	-1030
▁tinggi	-1031
▁yakni	-1032
▁media	-1033
▁Umum	-1034
obil	-1035
▁201	-1036
▁Okt	-1037
adir	-1038
▁min	-1039
▁Sh	-1040
▁tetap	-1041
▁pemain	-1042
▁bukan	-1043
antuan	-1044
KP	-1045
▁Mah	-1046
▁Oktober	-1047
▁mengen	-1048
▁kegi	-1049
perasi	-1050
AS	-1051
una	-1052
alkan	-1053
▁kegiatan	-1054
▁keterangan	-1055
▁Man	-1056
▁ingin	-1057
abil	-1058
upun	-1059
▁ma	-1060
arap	-1061
30	-1062
▁Gubernur	-1063
▁diri	-1064
▁Kecamatan	-1065
▁PPP	-1066
tus	-1067
▁lanjut	-1068
▁air	-1069
▁Put	-1070
▁ben	-1071
▁masa	-1072
ukul	-1073
usan	-1074
anjang	-1075
ko	-1076
aling	-1077
angkah	-1078
rat	-1079
aza	-1080
▁tersangka	-1081
▁Kami	-1082
▁berada	-1083
▁upaya	-1084
▁Kementerian	-1085
inal	-1086
ca	-1087
angkap	-1088
▁Unit	-1089
▁mendapatkan	-1090
tar	-1091
▁kemudian	-1092
▁luar	-1093
owi	-1094
▁masuk	-1095
▁sekali	-1096
ukti	-1097
▁sampai	-1098
▁11	-1099
▁November	-1100
ahanan	-1101
▁apa	-1102
▁Jan	-1103
▁sesu	-1104
aporan	-1105
ola	-1106
▁dih	-1107
ula	-1108
angi	-1109
▁presiden	-1110
▁Tahun	-1111
▁put	-1112
▁mencapai	-1113
gab	-1114
▁Juli	-1115
iran	-1116
upsi	-1117
na	-1118
▁13	-1119
▁17	-1120
▁Wakil	-1121
ingkungan	-1122
▁sebelumnya	-1123
oy	-1124
tim	-1125
▁khusus	-1126
▁makan	-1127
▁kur	-1128
ambil	-1129
yat	-1130
▁kond	-1131
▁posi	-1132
▁pern	-1133
▁menunjuk	-1134
le	-1135
ibran	-1136
▁Semarang	-1137
▁en	-1138
akal	-1139
.000	-1140
itmen	-1141
▁Gaza	-1142
▁8	-1143
▁acara	-1144
▁tran	-1145
▁perempuan	-1146
▁uc	-1147
▁dukungan	-1148
▁jelas	-1149
ator	-1150
ogor	-1151
▁Kel	-1152
urkan	-1153
ungkin	-1154
▁komp	-1155
adilan	-1156
aki	-1157
uhi	-1158
▁musi	-1159
▁kawasan	-1160
▁kend	-1161
▁Bogor	-1162
:0	-1163
eda	-1164
enangan	-1165
jata	-1166
▁Sementara	-1167
ilm	-1168
▁Direktur	-1169
ustri	-1170
yah	-1171
▁penyel	-1172
orong	-1173
▁jalan	-1174
▁pasangan	-1175
▁Polda	-1176
▁membantu	-1177
▁18	-1178
▁jadi	-1179
▁Utara	-1180
anye	-1181
▁21	-1182
▁hak	-1183
▁Agustus	-1184
▁nomor	-1185
▁Jalan	-1186
▁Nasional	-1187
▁menyatakan	-1188
▁pukul	-1189
▁Se	-1190
▁pengh	-1191
▁mengalami	-1192
ital	-1193
ambah	-1194
▁Badan	-1195
utur	-1196
▁Juni	-1197
▁Peny	-1198
▁perk	-1199
oc	-1200
▁terakhir	-1201
iversi	-1202
▁intern	-1203
itan	-1204
RI	-1205
▁Foto	-1206
▁Dep	-1207
▁Jadi	-1208
▁menunjukkan	-1209
:1	-1210
▁Hari	-1211
endiri	-1212
tember	-1213
▁Ab	-1214
▁Har	-1215
▁bantuan	-1216
▁memastikan	-1217
uatan	-1218
▁Desa	-1219
/2024).	-1220
ayaan	-1221
KB	-1222
▁September	-1223
▁PPPK	-1224
▁jika	-1225
▁kap	-1226
iar	-1227
▁Desember	-1228
ulang	-1229
▁lokasi	-1230
awah	-1231
resi	-1232
▁ekonomi	-1233
ode	-1234
▁Mei	-1235
▁keluarga	-1236
erj	-1237
omb	-1238
Kami	-1239
ond	-1240
awab	-1241
▁gamb	-1242
angun	-1243
▁meminta	-1244
▁Saya	-1245
ema	-1246
▁ucap	-1247
▁jumlah	-1248
aut	-1249
▁berm	-1250
▁berlangsung	-1251
ateng	-1252
/11	-1253
ebr	-1254
▁din	-1255
▁tengah	-1256
emuan	-1257
▁April	-1258
jen	-1259
erik	-1260
ukai	-1261
▁Pemerintah	-1262
▁Ir	-1263
▁Kal	-1264
▁Kh	-1265
urun	-1266
to	-1267
▁Januari	-1268
▁meninggal	-1269
▁berhasil	-1270
erang	-1271
aju	-1272
ubungan	-1273
faat	-1274
eman	-1275
ey	-1276
ulu	-1277
▁Negeri	-1278
▁si	-1279
▁setiap	-1280
aporkan	-1281
umber	-1282
ahui	-1283
otensi	-1284
▁PDI	-1285
▁tr	-1286
▁str	-1287
▁Ah	-1288
▁awal	-1289
kar	-1290
oor	-1291
erta	-1292
▁memp	-1293
▁United	-1294
▁laga	-1295
▁mana	-1296
sel	-1297
▁maupun	-1298
▁Sub	-1299
/7	-1300
angga	-1301
▁asal	-1302
▁tind	-1303
ungkapkan	-1304
ebab	-1305
edi	-1306
dul	-1307
aim	-1308
isn	-1309
▁rek	-1310
▁Timnas	-1311
▁partai	-1312
isata	-1313
▁empat	-1314
▁ia	-1315
▁ujarnya	-1316
▁Jokowi	-1317
▁polisi	-1318
▁soal	-1319
▁melihat	-1320
urn	-1321
▁Pemb	-1322
irkan	-1323
emu	-1324
/8	-1325
▁tekn	-1326
▁sesuai	-1327
etahui	-1328
▁pihaknya	-1329
▁kl	-1330
▁mobil	-1331
asarkan	-1332
:5	-1333
▁berharap	-1334
▁sebesar	-1335
/5	-1336
▁perb	-1337
KI	-1338
ujan	-1339
ungi	-1340
rasi	-1341
▁Sum	-1342
aih	-1343
▁Universi	-1344
ugaan	-1345
:4	-1346
sek	-1347
▁resmi	-1348
▁pernah	-1349
embangan	-1350
▁menurut	-1351
ewan	-1352
▁memen	-1353
▁pet	-1354
▁kelompok	-1355
▁9	-1356
▁Sat	-1357
▁Liga	-1358
:3	-1359
uangan	-1360
ulkan	-1361
upati	-1362
krain	-1363
▁Komisi	-1364
▁gambar	-1365
▁terk	-1366
ijakan	-1367
kraina	-1368
▁Ham	-1369
▁ungkap	-1370
ura	-1371
▁Pi	-1372
▁kondisi	-1373
▁militer	-1374
/10	-1375
▁sendiri	-1376
▁Trump	-1377
▁bekerja	-1378
▁Maret	-1379
akyat	-1380
▁tangg	-1381
andingan	-1382
▁sk	-1383
anjar	-1384
▁Ked	-1385
▁Ukraina	-1386
nyataan	-1387
/12	-1388
▁kr	-1389
▁utama	-1390
▁Suk	-1391
unt	-1392
ikuti	-1393
▁Mereka	-1394
▁hadir	-1395
▁nasional	-1396
asiswa	-1397
▁ar	-1398
istrik	-1399
▁Muh	-1400
▁Asia	-1401
▁perd	-1402
▁lingkungan	-1403
▁Daerah	-1404
▁informasi	-1405
/9	-1406
▁Pend	-1407
▁laporan	-1408
erb	-1409
ies	-1410
etugas	-1411
▁Para	-1412
upa	-1413
ampung	-1414
istem	-1415
▁perj	-1416
iden	-1417
▁tanpa	-1418
▁X	-1419
▁yaitu	-1420
▁kendaraan	-1421
embaga	-1422
▁adanya	-1423
ewas	-1424
imana	-1425
▁perlu	-1426
/6	-1427
av	-1428
/3	-1429
anak	-1430
▁dek	-1431
▁menjalan	-1432
ukup	-1433
angkat	-1434
▁barang	-1435
▁Provinsi	-1436
egaw	-1437
abor	-1438
org	-1439
▁Dem	-1440
▁KPU	-1441
ateg	-1442
arget	-1443
ejabat	-1444
ade	-1445
▁perm	-1446
▁&	-1447
anding	-1448
lim	-1449
▁Kapol	-1450
▁memperk	-1451
▁menerima	-1452
▁bakal	-1453
▁sebanyak	-1454
/4	-1455
▁Iran	-1456
aranya	-1457
▁Kr	-1458
ampu	-1459
onor	-1460
▁layanan	-1461
alaman	-1462
▁penj	-1463
▁keber	-1464
ergi	-1465
▁Pemilu	-1466
agaimana	-1467
▁22	-1468
usai	-1469
▁par	-1470
eta	-1471
▁Korea	-1472
▁Air	-1473
elit	-1474
▁uang	-1475
▁keamanan	-1476
impinan	-1477
▁dugaan	-1478
alia	-1479
▁mengungkapkan	-1480
adion	-1481
apun	-1482
▁konf	-1483
iaya	-1484
idana	-1485
ez	-1486
vest	-1487
eter	-1488
▁mengenai	-1489
▁Pak	-1490
▁melawan	-1491
▁tuj	-1492
▁TNI	-1493
▁dirinya	-1494
▁paling	-1495
ham	-1496
ANG	-1497
irim	-1498
▁Sul	-1499
▁Kes	-1500
amat	-1501
embang	-1502
▁membawa	-1503
▁Ada	-1504
▁Keb	-1505
aksanakan	-1506
▁sat	-1507
▁Ol	-1508
▁industri	-1509
▁Den	-1510
▁menggelar	-1511
ilang	-1512
▁Anda	-1513
▁Ek	-1514
udara	-1515
▁dok	-1516
▁masalah	-1517
▁kini	-1518
▁umum	-1519
isti	-1520
▁pendidikan	-1521
tik	-1522
-2	-1523
ungsi	-1524
ism	-1525
▁Serikat	-1526
enang	-1527
▁menjaga	-1528
▁Piala	-1529
atihan	-1530
erintahan	-1531
▁Br	-1532
▁kepala	-1533
▁perang	-1534
▁Saat	-1535
umen	-1536
▁mengaj	-1537
gag	-1538
▁sp	-1539
▁muda	-1540
ajar	-1541
▁En	-1542
▁des	-1543
▁menghadapi	-1544
isnis	-1545
▁pl	-1546
idik	-1547
▁bawah	-1548
▁pertandingan	-1549
utuhan	-1550
▁berg	-1551
apres	-1552
▁lima	-1553
▁PS	-1554
▁Sej	-1555
▁Pers	-1556
▁II	-1557
▁Din	-1558
▁Leb	-1559
PB	-1560
▁cukup	-1561
oni	-1562
tum	-1563
apua	-1564
fi	-1565
uaca	-1566
▁nama	-1567
▁Res	-1568
▁And	-1569
▁PB	-1570
▁Ia	-1571
▁Anies	-1572
▁pembangunan	-1573
alnya	-1574
▁Gol	-1575
fr	-1576
▁Mel	-1577
oordin	-1578
▁Pusat	-1579
▁(3	-1580
▁sementara	-1581
▁segera	-1582
▁KPK	-1583
▁23	-1584
▁surat	-1585
atian	-1586
▁langkah	-1587
▁pelangg	-1588
estina	-1589
KN	-1590
▁menyel	-1591
edung	-1592
▁mah	-1593
▁30	-1594
▁kampanye	-1595
▁harga	-1596
antai	-1597
ori	-1598
hi	-1599
▁So	-1600
▁Negara	-1601
uara	-1602
▁urut	-1603
AM	-1604
intas	-1605
▁mungkin	-1606
ret	-1607
:2	-1608
▁diter	-1609
▁senjata	-1610
erjaan	-1611
▁akibat	-1612
ha	-1613
▁sed	-1614
egal	-1615
▁situ	-1616
▁Papua	-1617
▁bukti	-1618
▁Ari	-1619
▁of	-1620
▁negeri	-1621
iau	-1622
▁data	-1623
▁Stadion	-1624
▁Universitas	-1625
▁keh	-1626
▁Kantor	-1627
saan	-1628
angsa	-1629
anan	-1630
ubahan	-1631
▁digelar	-1632
▁memang	-1633
▁pernyataan	-1634
PS	-1635
▁kal	-1636
uku	-1637
▁kebijakan	-1638
gus	-1639
untu	-1640
▁tutur	-1641
▁mampu	-1642
ira	-1643
▁berin	-1644
▁25	-1645
▁Sp	-1646
▁meneg	-1647
▁'	-1648
▁op	-1649
utuh	-1650
▁Kemen	-1651
▁sekolah	-1652
jadian	-1653
▁ken	-1654
elak	-1655
▁Ger	-1656
▁mantan	-1657
busi	-1658
▁Gr	-1659
▁sistem	-1660
▁Setelah	-1661
▁dij	-1662
▁on	-1663
▁internasional	-1664
erd	-1665
anten	-1666
▁kebutuhan	-1667
uju	-1668
▁Bea	-1669
▁Palestina	-1670
ualitas	-1671
sip	-1672
▁kol	-1673
▁tingkat	-1674
▁terj	-1675
▁jam	-1676
▁Ahmad	-1677
okus	-1678
atur	-1679
▁em	-1680
aksa	-1681
agu	-1682
icara	-1683
▁pejabat	-1684
line	-1685
umi	-1686
▁pekan	-1687
▁lama	-1688
war	-1689
▁siap	-1690
▁Keterangan	-1691
empatan	-1692
▁miliar	-1693
eski	-1694
eran	-1695
▁bal	-1696
▁hidup	-1697
etapkan	-1698
▁Polisi	-1699
AB	-1700
ulit	-1701
▁Ac	-1702
▁pemilu	-1703
▁Solo	-1704
▁milik	-1705
argaan	-1706
▁Ganjar	-1707
ideo	-1708
adw	-1709
▁Febr	-1710
▁datang	-1711
▁Cukai	-1712
▁Polri	-1713
▁Jep	-1714
▁bersi	-1715
▁punya	-1716
▁Q	-1717
▁lap	-1718
juangan	-1719
isian	-1720
edan	-1721
▁mendorong	-1722
▁sekaligus	-1723
alur	-1724
ambahkan	-1725
ohon	-1726
arkoba	-1727
pres	-1728
yo	-1729
eal	-1730
▁int	-1731
▁mod	-1732
eriksaan	-1733
▁Wid	-1734
▁Ing	-1735
min	-1736
ebat	-1737
ingkatan	-1738
▁makanan	-1739
andang	-1740
enaga	-1741
▁hujan	-1742
▁akhirnya	-1743
enderal	-1744
▁Il	-1745
unga	-1746
▁Depok	-1747
▁diduga	-1748
▁sakit	-1749
▁bahkan	-1750
ibatkan	-1751
▁publik	-1752
enis	-1753
▁Bank	-1754
▁wakil	-1755
etak	-1756
▁Bupati	-1757
lob	-1758
▁1.	-1759
▁mendatang	-1760
uanya	-1761
▁tanah	-1762
▁24	-1763
ft	-1764
▁Intern	-1765
▁war	-1766
amah	-1767
▁motor	-1768
▁pemerintahan	-1769
engar	-1770
▁pemimpin	-1771
ell	-1772
▁aman	-1773
▁Or	-1774
▁Bas	-1775
▁Hamas	-1776
UR	-1777
▁Februari	-1778
▁el	-1779
▁Meng	-1780
▁Untuk	-1781
oin	-1782
ongan	-1783
▁bern	-1784
▁kont	-1785
arik	-1786
truk	-1787
dukung	-1788
▁listrik	-1789
▁menilai	-1790
baru	-1791
ianto	-1792
▁kejadian	-1793
▁pan	-1794
▁mew	-1795
▁Angg	-1796
arin	-1797
▁ribu	-1798
lobal	-1799
onorer	-1800
▁digunakan	-1801
anggung	-1802
▁El	-1803
▁cara	-1804
▁guru	-1805
ma	-1806
EN	-1807
atat	-1808
ambang	-1809
▁Biden	-1810
▁menegaskan	-1811
▁tert	-1812
▁Persib	-1813
▁ditemukan	-1814
ampil	-1815
auh	-1816
tivitas	-1817
no	-1818
▁PP	-1819
▁ny	-1820
ammad	-1821
▁Gun	-1822
▁menambahkan	-1823
uki	-1824
ert	-1825
▁perl	-1826
▁Nomor	-1827
aborasi	-1828
olusi	-1829
▁pasar	-1830
▁berjalan	-1831
adaan	-1832
amina	-1833
▁beras	-1834
▁menuju	-1835
▁dic	-1836
▁kalau	-1837
enar	-1838
unaan	-1839
erasan	-1840
▁kapal	-1841
enal	-1842
anjir	-1843
uti	-1844
embak	-1845
isial	-1846
ity	-1847
▁teknologi	-1848
▁Jatim	-1849
▁08	-1850
▁Dit	-1851
▁Nus	-1852
fikasi	-1853
▁ibu	-1854
▁ment	-1855
ujud	-1856
▁DKI	-1857
enggara	-1858
▁Jepang	-1859
▁petugas	-1860
egitu	-1861
anisasi	-1862
uri	-1863
▁tewas	-1864
▁Met	-1865
▁peserta	-1866
▁aksi	-1867
▁bisnis	-1868
okrasi	-1869
inc	-1870
ebabkan	-1871
olisian	-1872
▁Dengan	-1873
uasa	-1874
▁bat	-1875
▁Adapun	-1876
▁eks	-1877
▁pil	-1878
▁sempat	-1879
▁Ero	-1880
▁Salah	-1881
▁07	-1882
▁Sebelum	-1883
por	-1884
▁peri	-1885
jo	-1886
erl	-1887
sis	-1888
▁Tan	-1889
erahkan	-1890
▁Banten	-1891
▁pri	-1892
MI	-1893
aji	-1894
▁komitmen	-1895
▁Baru	-1896
▁sebagian	-1897
▁terutama	-1898
▁Wali	-1899
▁pemeriksaan	-1900
▁meraih	-1901
▁kantor	-1902
▁komun	-1903
iah	-1904
otal	-1905
▁terbaik	-1906
▁tahu	-1907
▁Eropa	-1908
alanan	-1909
ipun	-1910
▁sektor	-1911
▁Ram	-1912
arian	-1913
▁Jaya	-1914
▁semakin	-1915
▁periode	-1916
eskipun	-1917
▁Pertamina	-1918
▁diberikan	-1919
▁Jenderal	-1920
▁Kemudian	-1921
adah	-1922
erasi	-1923
krim	-1924
▁Rep	-1925
oro	-1926
isk	-1927
ajaran	-1928
▁Kej	-1929
antara	-1930
▁rasa	-1931
▁perc	-1932
▁musim	-1933
▁Program	-1934
▁Calon	-1935
lam	-1936
▁jatim	-1937
MKM	-1938
▁berinisial	-1939
▁Subianto	-1940
bu	-1941
▁gol	-1942
▁cepat	-1943
▁hubungan	-1944
▁Dinas	-1945
▁potensi	-1946
▁kab	-1947
▁cuaca	-1948
umas	-1949
▁Bal	-1950
abilitas	-1951
lon	-1952
▁Sup	-1953
▁korupsi	-1954
▁teg	-1955
untut	-1956
▁pak	-1957
▁selalu	-1958
ampir	-1959
anjutan	-1960
▁Tak	-1961
▁mengikuti	-1962
/2	-1963
adang	-1964
▁ketiga	-1965
▁membangun	-1966
okal	-1967
▁perubahan	-1968
▁digital	-1969
▁rakyat	-1970
ipil	-1971
▁meningkat	-1972
ubah	-1973
ation	-1974
arakan	-1975
resiasi	-1976
▁disampaikan	-1977
▁tok	-1978
oritas	-1979
▁bertu	-1980
enda	-1981
sama	-1982
▁The	-1983
▁jabar	-1984
▁gr	-1985
anjutkan	-1986
▁27	-1987
olak	-1988
▁09	-1989
ulasi	-1990
▁berusia	-1991
NG	-1992
▁BB	-1993
▁keputusan	-1994
▁Jabar	-1995
eli	-1996
ambut	-1997
▁pemilihan	-1998
asilitas	-1999
▁ef	-2000
▁Jateng	-2001
▁pertemuan	-2002
▁usaha	-2003
▁Mus	-2004
akah	-2005
gris	-2006
/11).	-2007
▁film	-2008
▁tindakan	-2009
ogy	-2010
amin	-2011
/8).	-2012
aftar	-2013
yak	-2014
ky	-2015
▁FC	-2016
▁memberi	-2017
yek	-2018
antas	-2019
▁bentuk	-2020
anggap	-2021
▁Agung	-2022
vestasi	-2023
▁disebut	-2024
ore	-2025
okan	-2026
▁Has	-2027
▁mahasiswa	-2028
▁kesempatan	-2029
ach	-2030
▁kemenangan	-2031
/7).	-2032
UM	-2033
▁PBB	-2034
▁mengel	-2035
▁jar	-2036
▁jauh	-2037
atasan	-2038
▁perjalanan	-2039
▁peningkatan	-2040
ans	-2041
idat	-2042
▁Gibran	-2043
eks	-2044
▁Mad	-2045
▁Tidak	-2046
▁pember	-2047
▁(5	-2048
▁Mo	-2049
▁jenis	-2050
utup	-2051
ajang	-2052
▁nanti	-2053
AT	-2054
▁Si	-2055
ugas	-2056
▁trans	-2057
▁pul	-2058
▁desa	-2059
▁Austr	-2060
umsi	-2061
pasar	-2062
▁terc	-2063
atangan	-2064
tribusi	-2065
Gibran	-2066
elakaan	-2067
▁ikut	-2068
▁Ins	-2069
▁video	-2070
▁terpilih	-2071
▁terbaru	-2072
/10).	-2073
▁dekat	-2074
▁Inggris	-2075
▁Par	-2076
▁posisi	-2077
alahan	-2078
ovasi	-2079
arapkan	-2080
rov	-2081
likasi	-2082
▁Im	-2083
▁enam	-2084
umumkan	-2085
▁membuka	-2086
▁memilih	-2087
▁form	-2088
Saya	-2089
▁bahan	-2090
utuhkan	-2091
▁seusai	-2092
▁mengambil	-2093
▁kuat	-2094
5.	-2095
▁is	-2096
atar	-2097
▁Gar	-2098
▁kurang	-2099
awas	-2100
onel	-2101
▁maka	-2102
▁Dewan	-2103
ayakan	-2104
▁Pl	-2105
▁Ant	-2106
▁kand	-2107
▁kecil	-2108
▁satunya	-2109
▁2022	-2110
vei	-2111
▁Perd	-2112
▁begitu	-2113
▁tinggal	-2114
bes	-2115
enti	-2116
▁Golkar	-2117
ipt	-2118
▁UMKM	-2119
▁udara	-2120
▁Ma	-2121
▁daya	-2122
ajak	-2123
okok	-2124
ulis	-2125
▁Denpasar	-2126
▁Hukum	-2127
▁jawab	-2128
▁menjalani	-2129
uhnya	-2130
sipasi	-2131
erman	-2132
▁tenaga	-2133
▁terlibat	-2134
itra	-2135
▁Komp	-2136
▁Rumah	-2137
▁il	-2138
▁pria	-2139
abatan	-2140
▁berkom	-2141
▁Pemilihan	-2142
ilis	-2143
▁200	-2144
amankan	-2145
alis	-2146
▁merasa	-2147
of	-2148
undang	-2149
▁saksi	-2150
▁New	-2151
ly	-2152
▁Rah	-2153
▁menging	-2154
▁melaporkan	-2155
uf	-2156
▁Sy	-2157
▁kej	-2158
/1).	-2159
▁ger	-2160
ayat	-2161
▁memenuhi	-2162
anta	-2163
▁menit	-2164
▁(4	-2165
abr	-2166
ate	-2167
▁nilai	-2168
irakan	-2169
wak	-2170
/5).	-2171
▁suk	-2172
atusan	-2173
stitu	-2174
▁ungg	-2175
▁pusat	-2176
▁bidang	-2177
▁online	-2178
ansi	-2179
▁dampak	-2180
▁Mil	-2181
istik	-2182
▁berdasarkan	-2183
▁06	-2184
ewat	-2185
▁z	-2186
▁org	-2187
▁poin	-2188
▁PDIP	-2189
▁Menurutnya	-2190
▁i	-2191
▁gen	-2192
▁dr	-2193
▁biasa	-2194
▁penuh	-2195
grasi	-2196
aturan	-2197
▁Warga	-2198
▁Sumat	-2199
▁Kons	-2200
▁ditangkap	-2201
ry	-2202
▁ut	-2203
▁Nur	-2204
tumb	-2205
▁khususnya	-2206
▁pener	-2207
ex	-2208
▁Dari	-2209
inasi	-2210
▁mempert	-2211
uncurkan	-2212
ce	-2213
▁keluar	-2214
one	-2215
▁Bel	-2216
▁ASN	-2217
gabung	-2218
ayar	-2219
▁mau	-2220
▁sumber	-2221
onf	-2222
▁tel	-2223
unuhan	-2224
uman	-2225
▁kontr	-2226
,5	-2227
pol	-2228
entasi	-2229
▁bagaimana	-2230
omo	-2231
▁global	-2232
negara	-2233
▁turun	-2234
▁dibanding	-2235
▁Em	-2236
▁positif	-2237
▁sekarang	-2238
/6).	-2239
ratis	-2240
kot	-2241
▁SE	-2242
▁Gedung	-2243
▁honorer	-2244
▁Sal	-2245
ikit	-2246
isme	-2247
▁Riau	-2248
▁maju	-2249
▁har	-2250
▁Dunia	-2251
..	-2252
fud	-2253
atus	-2254
▁imb	-2255
PK	-2256
iptakan	-2257
▁menang	-2258
aksanaan	-2259
▁tah	-2260
▁banjir	-2261
▁menemukan	-2262
▁Perjuangan	-2263
▁and	-2264
anian	-2265
▁Dr	-2266
uduk	-2267
▁operasi	-2268
▁Dan	-2269
udaya	-2270
▁fasilitas	-2271
ewa	-2272
▁Mak	-2273
masing	-2274
▁Australia	-2275
ho	-2276
▁Pes	-2277
iba	-2278
/9).	-2279
unjung	-2280
▁keras	-2281
elawan	-2282
unjungan	-2283
▁gubernur	-2284
▁ist	-2285
▁penghargaan	-2286
ikian	-2287
▁ditu	-2288
AY	-2289
▁bermain	-2290
▁lembaga	-2291
ahter	-2292
▁Budi	-2293
▁pagi	-2294
▁tambah	-2295
indungan	-2296
▁pekerja	-2297
▁kekerasan	-2298
erensi	-2299
▁unit	-2300
▁Su	-2301
unggu	-2302
▁kompet	-2303
▁Yo	-2304
▁laut	-2305
▁total	-2306
▁antaranya	-2307
▁26	-2308
▁Utama	-2309
/12).	-2310
▁wisata	-2311
ogyakarta	-2312
ris	-2313
iti	-2314
▁setempat	-2315
▁hampir	-2316
amping	-2317
ens	-2318
annya	-2319
▁tepat	-2320
▁Raya	-2321
▁perh	-2322
awaslu	-2323
▁Besar	-2324
▁bali	-2325
PR	-2326
urah	-2327
ungkinan	-2328
Un	-2329
▁pasukan	-2330
MKG	-2331
ahas	-2332
uhkan	-2333
izin	-2334
otel	-2335
tumbuhan	-2336
▁Pelatih	-2337
ARA	-2338
▁engg	-2339
▁dana	-2340
▁lapangan	-2341
▁28	-2342
▁Us	-2343
▁For	-2344
▁masing	-2345
▁naik	-2346
ona	-2347
▁tegas	-2348
odo	-2349
tasi	-2350
/3).	-2351
antikan	-2352
▁Yogyakarta	-2353
▁Ed	-2354
elang	-2355
co	-2356
▁pidana	-2357
▁seri	-2358
adwal	-2359
ass	-2360
▁Bek	-2361
▁UU	-2362
▁Republik	-2363
orn	-2364
▁Dua	-2365
▁menyebabkan	-2366
uncul	-2367
akaran	-2368
▁imp	-2369
▁berita	-2370
▁Sa	-2371
indak	-2372
akatan	-2373
ki	-2374
iman	-2375
pons	-2376
SD	-2377
ubuh	-2378
amu	-2379
▁namun	-2380
▁menjelang	-2381
let	-2382
▁29	-2383
▁eksp	-2384
▁id	-2385
▁mom	-2386
usung	-2387
▁beb	-2388
mal	-2389
atasi	-2390
▁pemilih	-2391
ela	-2392
AYA	-2393
istiwa	-2394
▁sipil	-2395
ekerjaan	-2396
▁Muhammad	-2397
wi	-2398
▁Sekret	-2399
▁sepanjang	-2400
antangan	-2401
▁kil	-2402
▁DPRD	-2403
▁menyebutkan	-2404
endah	-2405
ajib	-2406
▁pelanggaran	-2407
uarkan	-2408
▁disel	-2409
▁memperkuat	-2410
▁energi	-2411
amai	-2412
▁Joko	-2413
jid	-2414
amar	-2415
▁BRI	-2416
▁turut	-2417
▁lintas	-2418
▁menarik	-2419
umpang	-2420
▁angka	-2421
uji	-2422
▁Pul	-2423
▁kan	-2424
▁prak	-2425
▁manusia	-2426
juan	-2427
▁Bar	-2428
▁Nat	-2429
▁jalur	-2430
▁bur	-2431
▁persi	-2432
ash	-2433
▁fokus	-2434
▁lokal	-2435
▁Kan	-2436
te	-2437
erak	-2438
▁mengur	-2439
ine	-2440
/4).	-2441
elapan	-2442
▁berbeda	-2443
AL	-2444
oli	-2445
▁mat	-2446
▁karya	-2447
egawai	-2448
mar	-2449
▁tangan	-2450
▁ik	-2451
▁Gus	-2452
▁(6	-2453
▁ev	-2454
▁tapi	-2455
▁menghadirkan	-2456
ategis	-2457
egah	-2458
▁mudah	-2459
agangan	-2460
▁kualitas	-2461
▁Le	-2462
▁Pa	-2463
▁benar	-2464
▁sisi	-2465
okrat	-2466
entukan	-2467
▁sedikit	-2468
▁bertemu	-2469
▁mencari	-2470
▁Kesehatan	-2471
iun	-2472
▁demikian	-2473
▁tertu	-2474
AI	-2475
▁kemungkinan	-2476
he	-2477
▁Bo	-2478
erita	-2479
▁belak	-2480
ambahan	-2481
▁narkoba	-2482
▁SM	-2483
▁kemarin	-2484
▁Seorang	-2485
utip	-2486
istan	-2487
▁menekan	-2488
▁menciptakan	-2489
▁PSI	-2490
▁Aw	-2491
ust	-2492
▁gag	-2493
▁Anak	-2494
operasi	-2495
▁tujuan	-2496
▁dihad	-2497
▁target	-2498
ral	-2499
lemen	-2500
▁tugas	-2501
▁keterangannya	-2502
NT	-2503
lis	-2504
kl	-2505
▁Penj	-2506
▁demi	-2507
▁mengak	-2508
▁perkara	-2509
▁terdapat	-2510
▁Tang	-2511
▁pengalaman	-2512
usak	-2513
▁jabatan	-2514
▁keuangan	-2515
▁fak	-2516
▁02	-2517
▁akses	-2518
▁muncul	-2519
▁diketahui	-2520
▁seni	-2521
▁sis	-2522
▁Prof	-2523
▁Widodo	-2524
▁manfaat	-2525
▁pelaksanaan	-2526
▁ajang	-2527
▁Sebelumnya	-2528
▁Mul	-2529
ingatan	-2530
▁ob	-2531
▁asing	-2532
▁elek	-2533
▁Anggota	-2534
▁tuturnya	-2535
▁Rak	-2536
▁Luar	-2537
▁Abdul	-2538
▁berat	-2539
▁pembunuhan	-2540
UNG	-2541
erat	-2542
arti	-2543
▁DPP	-2544
▁Berd	-2545
▁Kerja	-2546
▁bicara	-2547
▁pengembangan	-2548
pada	-2549
udik	-2550
ibuan	-2551
▁menteri	-2552
II	-2553
▁isu	-2554
▁ruang	-2555
▁dini	-2556
▁Lebih	-2557
▁peran	-2558
▁kecelakaan	-2559
unuh	-2560
amanya	-2561
▁Kombes	-2562
▁Raf	-2563
ader	-2564
▁04	-2565
inerja	-2566
▁Masyarakat	-2567
▁100	-2568
▁Itu	-2569
tawan	-2570
ediakan	-2571
▁pertumbuhan	-2572
▁Pilpres	-2573
ebar	-2574
ibur	-2575
▁med	-2576
▁Bidang	-2577
▁Malang	-2578
▁Karena	-2579
▁ilegal	-2580
▁ucapnya	-2581
epas	-2582
▁guna	-2583
▁dar	-2584
▁BAN	-2585
▁Sumatera	-2586
egini	-2587
▁Humas	-2588
▁rencana	-2589
▁At	-2590
▁Aceh	-2591
▁luas	-2592
la	-2593
ilip	-2594
uali	-2595
embangkan	-2596
ero	-2597
▁pesawat	-2598
▁putusan	-2599
osok	-2600
entuk	-2601
▁bernama	-2602
▁melaksanakan	-2603
▁mengumumkan	-2604
yan	-2605
entingan	-2606
ila	-2607
ustrasi	-2608
▁diharapkan	-2609
bar	-2610
▁organisasi	-2611
▁Sl	-2612
KS	-2613
was	-2614
▁(20	-2615
▁tiba	-2616
▁Demokrat	-2617
▁Bah	-2618
▁tubuh	-2619
▁panjang	-2620
▁Ker	-2621
▁emas	-2622
ase	-2623
ess	-2624
pen	-2625
ton	-2626
▁Dis	-2627
ortasi	-2628
▁RS	-2629
KBP	-2630
▁SUR	-2631
▁api	-2632
▁Tangerang	-2633
ment	-2634
ational	-2635
▁diperk	-2636
▁pengaw	-2637
▁Re	-2638
abak	-2639
▁Rid	-2640
oordinasi	-2641
ial	-2642
▁Tel	-2643
▁Eri	-2644
enggarakan	-2645
▁ali	-2646
▁melibatkan	-2647
urat	-2648
adakan	-2649
▁BUM	-2650
▁apakah	-2651
▁(18	-2652
▁Bawaslu	-2653
PNN	-2654
agus	-2655
▁aturan	-2656
▁tanggal	-2657
▁penyakit	-2658
isiko	-2659
▁AKBP	-2660
▁31	-2661
▁pangan	-2662
erti	-2663
▁alasan	-2664
ABAYA	-2665
▁SURABAYA	-2666
▁memimpin	-2667
▁kepolisian	-2668
▁Arab	-2669
▁Hasil	-2670
▁makin	-2671
▁Pengadilan	-2672
▁(23	-2673
▁Dip	-2674
▁Gro	-2675
▁kasih	-2676
▁produksi	-2677
ayu	-2678
▁Jo	-2679
encan	-2680
ungai	-2681
▁titik	-2682
jau	-2683
sist	-2684
▁alias	-2685
▁situasi	-2686
▁05	-2687
▁pengel	-2688
▁sering	-2689
ck	-2690
▁01	-2691
anja	-2692
▁Pendidikan	-2693
ayang	-2694
ungutan	-2695
▁Min	-2696
▁samb	-2697
▁tantangan	-2698
▁03	-2699
▁(22	-2700
▁for	-2701
▁Islam	-2702
yu	-2703
etik	-2704
▁Tran	-2705
▁terlihat	-2706
lasi	-2707
andar	-2708
▁alat	-2709
▁peluang	-2710
▁Sekretaris	-2711
kum	-2712
▁Nas	-2713
truktur	-2714
▁bangsa	-2715
▁(19	-2716
▁proyek	-2717
▁Meski	-2718
▁Kapolres	-2719
▁Laut	-2720
▁tril	-2721
▁pengguna	-2722
ail	-2723
▁budaya	-2724
all	-2725
▁sidang	-2726
▁bes	-2727
▁rut	-2728
caman	-2729
▁diterima	-2730
▁personel	-2731
▁kunjungan	-2732
zi	-2733
anjian	-2734
▁Pember	-2735
yanto	-2736
▁pilihan	-2737
▁terbesar	-2738
bul	-2739
lar	-2740
▁lewat	-2741
▁dimulai	-2742
45	-2743
icu	-2744
itasi	-2745
▁Pat	-2746
▁melanjutkan	-2747
▁ped	-2748
▁penda	-2749
▁dibandingkan	-2750
▁dikenal	-2751
▁kepentingan	-2752
akwa	-2753
raga	-2754
esaikan	-2755
▁anggaran	-2756
▁Bat	-2757
▁prof	-2758
tan	-2759
▁(21	-2760
utuskan	-2761
emi	-2762
▁Kalau	-2763
▁pendukung	-2764
▁Kasus	-2765
GP	-2766
ork	-2767
▁Ng	-2768
▁SD	-2769
▁berupa	-2770
▁sana	-2771
▁bencana	-2772
▁akun	-2773
▁Mand	-2774
▁usia	-2775
▁transp	-2776
▁berkomitmen	-2777
adar	-2778
▁(24	-2779
angkaian	-2780
▁enggak	-2781
▁tokoh	-2782
▁berkel	-2783
▁berasal	-2784
▁50	-2785
▁penelit	-2786
etn	-2787
abuhan	-2788
▁badan	-2789
ujudkan	-2790
▁survei	-2791
▁konflik	-2792
▁mengajak	-2793
▁arah	-2794
▁tujuh	-2795
▁ot	-2796
▁bola	-2797
▁aktif	-2798
▁(17	-2799
akuasi	-2800
elis	-2801
▁(30	-2802
▁Ben	-2803
▁Sud	-2804
▁seleksi	-2805
▁triliun	-2806
ejahter	-2807
ns	-2808
qu	-2809
:00	-2810
impi	-2811
▁semb	-2812
▁strategis	-2813
OG	-2814
egiatan	-2815
▁(25	-2816
antaran	-2817
▁pelayanan	-2818
▁Kas	-2819
▁musik	-2820
▁(7	-2821
▁PN	-2822
▁Sam	-2823
th	-2824
anji	-2825
ancis	-2826
entikan	-2827
▁area	-2828
▁Kalim	-2829
rah	-2830
wakilan	-2831
anjutnya	-2832
▁Lampung	-2833
▁konferensi	-2834
andi	-2835
▁lahan	-2836
▁Lap	-2837
urahan	-2838
▁(27	-2839
kamah	-2840
atform	-2841
▁Palembang	-2842
▁(15	-2843
▁sehat	-2844
urangan	-2845
▁jelasnya	-2846
kab	-2847
indra	-2848
▁Sebagai	-2849
alahkan	-2850
▁Jerman	-2851
masi	-2852
▁Sejumlah	-2853
▁investasi	-2854
▁sig	-2855
ektif	-2856
badi	-2857
sor	-2858
ilah	-2859
▁terbuka	-2860
▁dilaksanakan	-2861
▁Oleh	-2862
▁provinsi	-2863
▁dilaporkan	-2864
▁Mem	-2865
pro	-2866
▁Er	-2867
▁DPD	-2868
▁Her	-2869
nif	-2870
▁Bl	-2871
▁optim	-2872
▁tindak	-2873
▁luka	-2874
tagram	-2875
▁babak	-2876
anusi	-2877
▁sang	-2878
gub	-2879
▁Dig	-2880
▁BMKG	-2881
▁AF	-2882
▁penumpang	-2883
▁final	-2884
agam	-2885
faatkan	-2886
▁sah	-2887
▁Korupsi	-2888
onald	-2889
angkapan	-2890
▁(8	-2891
▁Bekasi	-2892
▁penjara	-2893
▁BUMN	-2894
▁Metro	-2895
▁pekerjaan	-2896
sen	-2897
▁(10	-2898
▁gratis	-2899
▁pentingnya	-2900
▁teman	-2901
▁formasi	-2902
▁penggunaan	-2903
olaan	-2904
antung	-2905
▁dianggap	-2906
▁Nusantara	-2907
▁Pasal	-2908
▁(11	-2909
▁(29	-2910
▁pop	-2911
irasi	-2912
asanya	-2913
▁latihan	-2914
▁Hak	-2915
▁art	-2916
▁Riz	-2917
antik	-2918
▁berusaha	-2919
asaran	-2920
olid	-2921
ty	-2922
▁Sing	-2923
▁gel	-2924
▁menurun	-2925
▁Ka	-2926
▁tua	-2927
emui	-2928
erai	-2929
▁aktivitas	-2930
▁ternyata	-2931
urus	-2932
▁Prancis	-2933
▁Mahkamah	-2934
▁Dok	-2935
▁BAND	-2936
▁terdiri	-2937
▁sampah	-2938
erg	-2939
epatan	-2940
▁Co	-2941
asinya	-2942
▁Rek	-2943
indungi	-2944
▁solusi	-2945
ekonom	-2946
▁kinerja	-2947
▁berupaya	-2948
ftaran	-2949
tinggi	-2950
ekonomian	-2951
inj	-2952
mat	-2953
onton	-2954
ewaskan	-2955
▁pendaftaran	-2956
1,	-2957
50	-2958
▁Dik	-2959
▁tampak	-2960
▁menolak	-2961
▁Pram	-2962
ilipina	-2963
▁mengungkap	-2964
uad	-2965
aysia	-2966
▁mata	-2967
-202	-2968
▁(9	-2969
anon	-2970
yarat	-2971
▁2023.	-2972
▁perdana	-2973
▁disi	-2974
▁generasi	-2975
OR	-2976
ayak	-2977
▁bertujuan	-2978
wil	-2979
▁Af	-2980
▁biaya	-2981
▁BP	-2982
▁Bi	-2983
▁Str	-2984
ategi	-2985
▁tampil	-2986
har	-2987
▁(28	-2988
ampingi	-2989
▁menangkap	-2990
amen	-2991
▁ialah	-2992
uth	-2993
▁Net	-2994
▁sini	-2995
anggar	-2996
▁wartawan	-2997
▁1,	-2998
siden	-2999
▁Kalimantan	-3000
▁Pur	-3001
▁Tekn	-3002
▁oper	-3003
ajemen	-3004
▁Filipina	-3005
▁peristiwa	-3006
ampuan	-3007
onsumsi	-3008
▁Sumber	-3009
▁Gerindra	-3010
▁semangat	-3011
▁ditetapkan	-3012
▁penyelidikan	-3013
uma	-3014
awatan	-3015
awarkan	-3016
▁jaringan	-3017
aca	-3018
abes	-3019
fras	-3020
▁sup	-3021
▁kesel	-3022
▁lantaran	-3023
▁Maj	-3024
▁belakang	-3025
▁sulit	-3026
▁aplikasi	-3027
andatangan	-3028
baik	-3029
isah	-3030
itur	-3031
▁(13	-3032
▁Ibu	-3033
▁(26	-3034
▁demokrasi	-3035
onis	-3036
▁kematian	-3037
iket	-3038
ender	-3039
▁2025	-3040
▁Kamp	-3041
▁hakim	-3042
tib	-3043
oran	-3044
▁India	-3045
nifikan	-3046
▁Instagram	-3047
iaga	-3048
▁bus	-3049
▁Ex	-3050
▁asp	-3051
▁perg	-3052
▁pertahanan	-3053
alisi	-3054
▁hukuman	-3055
▁pelatih	-3056
▁Sebanyak	-3057
ebasan	-3058
▁kepem	-3059
▁pimpinan	-3060
PBD	-3061
▁keper	-3062
▁siswa	-3063
▁petani	-3064
▁Ilustrasi	-3065
dy	-3066
PNS	-3067
▁paslon	-3068
ejahteraan	-3069
▁memenangkan	-3070
9.	-3071
▁Ramadan	-3072
▁selatan	-3073
▁Lebanon	-3074
▁ancaman	-3075
arif	-3076
▁(16	-3077
▁leg	-3078
wedan	-3079
jualan	-3080
▁ratusan	-3081
▁meskipun	-3082
▁ed	-3083
DP	-3084
▁Kl	-3085
▁signifikan	-3086
kap	-3087
▁MK	-3088
▁ib	-3089
▁lagu	-3090
irmasi	-3091
▁Putih	-3092
▁siapa	-3093
▁komunitas	-3094
▁Undang	-3095
▁ringan	-3096
▁Malaysia	-3097
▁Az	-3098
▁kelas	-3099
▁inf	-3100
▁Berk	-3101
▁skor	-3102
▁jateng	-3103
oordinator	-3104
▁perhatian	-3105
▁menyediakan	-3106
estiv	-3107
▁terh	-3108
▁Baswedan	-3109
ulus	-3110
▁PKB	-3111
▁dasar	-3112
▁kolaborasi	-3113
atas	-3114
▁HAM	-3115
▁tentu	-3116
antasan	-3117
▁mencegah	-3118
frastruktur	-3119
▁mengetahui	-3120
▁menghadiri	-3121
juk	-3122
red	-3123
erit	-3124
▁menjabat	-3125
anusiaan	-3126
IN	-3127
ogja	-3128
unikasi	-3129
entar	-3130
▁peringatan	-3131
iwa	-3132
▁judi	-3133
▁kenaikan	-3134
▁menjalankan	-3135
uler	-3136
▁Korban	-3137
uy	-3138
tra	-3139
ikap	-3140
▁Sri	-3141
ategori	-3142
▁(14	-3143
▁Sus	-3144
▁Moto	-3145
▁ulang	-3146
tifikasi	-3147
▁dikutip	-3148
▁jajaran	-3149
ord	-3150
▁JPNN	-3151
▁Pasar	-3152
▁BANDUNG	-3153
▁Tenggara	-3154
In	-3155
stem	-3156
▁Car	-3157
inaan	-3158
▁pesan	-3159
ampilan	-3160
estival	-3161
▁Angk	-3162
▁kesep	-3163
▁TPS	-3164
▁Tur	-3165
▁Mantan	-3166
/0	-3167
apatan	-3168
▁Tai	-3169
endara	-3170
▁mengirim	-3171
po	-3172
▁Ali	-3173
▁pat	-3174
wisata	-3175
▁pasti	-3176
enarnya	-3177
ukaan	-3178
▁Serang	-3179
ustru	-3180
intang	-3181
▁olah	-3182
▁dokter	-3183
▁Keuangan	-3184
▁juara	-3185
ack	-3186
▁Dew	-3187
▁gug	-3188
▁Perdana	-3189
tup	-3190
▁mengurangi	-3191
▁membutuhkan	-3192
▁Sed	-3193
▁angk	-3194
▁rapat	-3195
▁perbatasan	-3196
▁non	-3197
adisi	-3198
anksi	-3199
▁inovasi	-3200
▁Gunung	-3201
▁Kegiatan	-3202
lo	-3203
▁Paris	-3204
cak	-3205
▁Pj	-3206
▁(12	-3207
▁Kon	-3208
▁platform	-3209
▁Pilgub	-3210
aha	-3211
▁BBC	-3212
▁Tri	-3213
▁gagal	-3214
▁kekuatan	-3215
▁La	-3216
▁izin	-3217
▁memutuskan	-3218
▁meluncurkan	-3219
▁Suriah	-3220
isan	-3221
▁sil	-3222
▁Fran	-3223
▁Berikut	-3224
▁berkelanjutan	-3225
taf	-3226
▁ANT	-3227
▁terima	-3228
kand	-3229
udal	-3230
anita	-3231
▁MotoGP	-3232
▁Beberapa	-3233
1.	-3234
ora	-3235
▁Mart	-3236
▁Orang	-3237
▁menewaskan	-3238
▁Dar	-3239
▁kemampuan	-3240
TB	-3241
evel	-3242
kumham	-3243
unda	-3244
arusnya	-3245
▁pegawai	-3246
dangan	-3247
iayaan	-3248
▁Internasional	-3249
empa	-3250
iring	-3251
uruan	-3252
▁spesi	-3253
▁KO	-3254
▁Wah	-3255
▁gab	-3256
▁boleh	-3257
ungkan	-3258
▁delapan	-3259
▁vs	-3260
▁rem	-3261
▁2.	-3262
▁Ta	-3263
▁sin	-3264
▁meres	-3265
▁penyidik	-3266
PAS	-3267
impiade	-3268
▁menunggu	-3269
▁Hasto	-3270
▁Pet	-3271
▁hati	-3272
asakan	-3273
▁buah	-3274
▁pos	-3275
▁disk	-3276
▁minggu	-3277
▁konsumen	-3278
▁membahas	-3279
awesi	-3280
intaan	-3281
▁meman	-3282
▁Gel	-3283
▁Pos	-3284
ahatan	-3285
▁bebas	-3286
▁ANTARA	-3287
▁menekankan	-3288
kes	-3289
▁40	-3290
utri	-3291
▁Bad	-3292
▁mengajukan	-3293
arto	-3294
usif	-3295
▁Sebab	-3296
▁momen	-3297
hati	-3298
▁Pihak	-3299
▁siang	-3300
alih	-3301
▁Jika	-3302
idupan	-3303
TT	-3304
indo	-3305
▁tahap	-3306
▁aparat	-3307
los	-3308
▁Vi	-3309
▁Tet	-3310
▁alam	-3311
▁puluhan	-3312
olaborasi	-3313
abum	-3314
▁Bandara	-3315
▁menetapkan	-3316
ukur	-3317
▁Bul	-3318
▁Grup	-3319
▁Sulawesi	-3320
esak	-3321
▁Ridwan	-3322
▁Pembangunan	-3323
zah	-3324
▁terg	-3325
▁Kedua	-3326
erbangan	-3327
ast	-3328
▁maksi	-3329
anganan	-3330
NA	-3331
▁Tol	-3332
engkap	-3333
▁mencoba	-3334
▁Moh	-3335
▁neg	-3336
▁Yang	-3337
▁menik	-3338
adem	-3339
▁mes	-3340
▁kader	-3341
esai	-3342
hawat	-3343
▁jadwal	-3344
▁Wilayah	-3345
▁sejarah	-3346
▁DEN	-3347
antau	-3348
▁Perk	-3349
/2024)	-3350
▁menyi	-3351
uw	-3352
egr	-3353
tudi	-3354
▁menawarkan	-3355
▁kemanusiaan	-3356
ekat	-3357
▁Gen	-3358
▁Kong	-3359
aksaan	-3360
▁ketua	-3361
jauh	-3362
▁der	-3363
arikan	-3364
▁Selama	-3365
PASAR	-3366
▁DENPASAR	-3367
syah	-3368
itkan	-3369
ongk	-3370
▁Fak	-3371
▁IKN	-3372
▁Seti	-3373
abuming	-3374
ji	-3375
▁kew	-3376
▁pribadi	-3377
▁mengakui	-3378
▁mengeluarkan	-3379
▁sa	-3380
agang	-3381
igran	-3382
▁Saudi	-3383
▁Center	-3384
▁justru	-3385
▁harapan	-3386
num	-3387
▁istri	-3388
uturkan	-3389
▁Rakabuming	-3390
▁Berdasarkan	-3391
▁Pang	-3392
▁debat	-3393
▁menuturkan	-3394
ren	-3395
▁reg	-3396
angin	-3397
angani	-3398
▁III	-3399
▁Rakyat	-3400
▁bersih	-3401
▁sukses	-3402
su	-3403
abumi	-3404
ajukan	-3405
ito	-3406
▁Keh	-3407
osisi	-3408
anggapi	-3409
migrasi	-3410
▁Kur	-3411
▁International	-3412
ee	-3413
▁status	-3414
ite	-3415
atuh	-3416
▁sub	-3417
ariwisata	-3418
▁kebakaran	-3419
▁Sim	-3420
▁bay	-3421
alagi	-3422
▁Mend	-3423
▁mengamankan	-3424
oalisi	-3425
▁percaya	-3426
▁mengatasi	-3427
▁hit	-3428
▁sore	-3429
▁Group	-3430
▁bangunan	-3431
▁gabungan	-3432
▁menyambut	-3433
sh	-3434
▁bagus	-3435
▁kandidat	-3436
▁kabupaten	-3437
▁Ken	-3438
▁Berb	-3439
▁dinilai	-3440
▁berkembang	-3441
▁Ric	-3442
anggil	-3443
▁Koordinator	-3444
▁mengembangkan	-3445
▁merek	-3446
▁berper	-3447
esu	-3448
▁ok	-3449
udin	-3450
abila	-3451
ancam	-3452
larasi	-3453
▁agama	-3454
stitusi	-3455
▁risiko	-3456
imbulkan	-3457
▁Perempuan	-3458
fa	-3459
iksa	-3460
ailand	-3461
▁meski	-3462
uddin	-3463
langga	-3464
▁meter	-3465
▁sosok	-3466
▁Thailand	-3467
ue	-3468
lor	-3469
▁Raka	-3470
▁tertinggi	-3471
go	-3472
edar	-3473
iksi	-3474
yadi	-3475
▁tud	-3476
▁bergabung	-3477
▁log	-3478
▁kesejahteraan	-3479
▁kalah	-3480
▁mencatat	-3481
▁Kita	-3482
antinya	-3483
ministr	-3484
▁lakukan	-3485
omend	-3486
▁Idul	-3487
ampi	-3488
▁CPNS	-3489
ikir	-3490
entak	-3491
▁Pekan	-3492
▁perkembangan	-3493
▁Bagi	-3494
anyakan	-3495
▁Airlangga	-3496
aid	-3497
ajah	-3498
iraan	-3499
▁Begini	-3500
ekar	-3501
▁berbicara	-3502
ida	-3503
akup	-3504
▁vir	-3505
isalnya	-3506
▁Politik	-3507
▁Sukabumi	-3508
▁mengingatkan	-3509
osk	-3510
asilkan	-3511
▁mengaw	-3512
apresiasi	-3513
▁pemungutan	-3514
oa	-3515
▁Id	-3516
upuk	-3517
ood	-3518
▁bergerak	-3519
▁menyerang	-3520
cr	-3521
aker	-3522
▁dikel	-3523
▁berlaku	-3524
▁kategori	-3525
omat	-3526
▁Sah	-3527
▁Kend	-3528
▁pengelolaan	-3529
▁Sosial	-3530
apak	-3531
etan	-3532
omendasi	-3533
▁selesai	-3534
▁terdampak	-3535
▁perlindungan	-3536
▁sal	-3537
▁rangka	-3538
▁mewujudkan	-3539
IP	-3540
▁Uni	-3541
ometer	-3542
ten	-3543
▁lah	-3544
▁Forum	-3545
▁ribuan	-3546
▁Pan	-3547
▁bek	-3548
apaian	-3549
▁kabar	-3550
artemen	-3551
unjungi	-3552
▁Taiwan	-3553
▁menyer	-3554
▁diperkirakan	-3555
▁199	-3556
▁anti	-3557
▁merah	-3558
▁sepeda	-3559
AP	-3560
bud	-3561
▁Hend	-3562
EO	-3563
bullah	-3564
ilangan	-3565
▁Pertahanan	-3566
adu	-3567
our	-3568
▁sy	-3569
ance	-3570
torat	-3571
▁Penc	-3572
▁balik	-3573
▁nyata	-3574
▁kehidupan	-3575
▁infrastruktur	-3576
▁Shin	-3577
▁arus	-3578
eor	-3579
airan	-3580
▁pand	-3581
urunan	-3582
▁Sumsel	-3583
▁dibawa	-3584
▁rendah	-3585
▁terdakwa	-3586
▁pelatihan	-3587
▁pengawasan	-3588
isik	-3589
▁profesi	-3590
▁jiwa	-3591
▁truk	-3592
▁sebenarnya	-3593
ano	-3594
abah	-3595
▁Afr	-3596
▁Mat	-3597
hasil	-3598
▁tambahan	-3599
▁Olimpiade	-3600
▁klub	-3601
aluasi	-3602
asitas	-3603
▁Acara	-3604
▁minim	-3605
▁sedangkan	-3606
eja	-3607
▁Hotel	-3608
▁Trans	-3609
▁berbasis	-3610
▁meninggalkan	-3611
etul	-3612
▁Khusus	-3613
▁hilang	-3614
izbullah	-3615
▁Kelurahan	-3616
0.	-3617
embakan	-3618
ifah	-3619
itri	-3620
▁Bir	-3621
▁tumb	-3622
emprov	-3623
▁pemilik	-3624
▁Pasangan	-3625
▁seharusnya	-3626
fik	-3627
/2).	-3628
UU	-3629
alin	-3630
mati	-3631
▁rel	-3632
▁pajak	-3633
▁insiden	-3634
ugi	-3635
▁ah	-3636
▁Tanah	-3637
▁perdagangan	-3638
lem	-3639
mcr	-3640
arjo	-3641
duksi	-3642
▁foto	-3643
UT	-3644
▁pasi	-3645
▁Medan	-3646
awal	-3647
▁Lebaran	-3648
OA	-3649
bon	-3650
▁Pri	-3651
▁kre	-3652
▁rudal	-3653
▁puncak	-3654
ear	-3655
▁Muda	-3656
▁seks	-3657
▁Pemain	-3658
ualifikasi	-3659
ner	-3660
▁sus	-3661
usakan	-3662
▁berpotensi	-3663
▁menyiapkan	-3664
▁Seh	-3665
atuan	-3666
unggal	-3667
▁pilkada	-3668
▁kesepakatan	-3669
▁gelar	-3670
▁putra	-3671
▁minyak	-3672
▁kalangan	-3673
▁pengungsi	-3674
awapres	-3675
▁berakhir	-3676
▁melanggar	-3677
ber	-3678
tes	-3679
egawati	-3680
▁tertulis	-3681
ili	-3682
ainkan	-3683
▁darah	-3684
▁2,	-3685
unci	-3686
▁Award	-3687
▁terlalu	-3688
tain	-3689
esang	-3690
▁daftar	-3691
▁didukung	-3692
▁penduduk	-3693
▁Hizbullah	-3694
▁perawatan	-3695
illah	-3696
▁tiket	-3697
iriman	-3698
▁kulit	-3699
onfirmasi	-3700
▁berdampak	-3701
ER	-3702
araw	-3703
umur	-3704
▁Pelaku	-3705
▁mempering	-3706
9,	-3707
▁Int	-3708
▁ayah	-3709
▁buruk	-3710
▁tradisi	-3711
▁Kemenkumham	-3712
:30	-3713
enag	-3714
▁Dewi	-3715
▁selaku	-3716
adinya	-3717
▁tulis	-3718
ket	-3719
laki	-3720
▁utara	-3721
▁Megawati	-3722
▁Bh	-3723
yono	-3724
▁KOTA	-3725
▁menyelesaikan	-3726
.1	-3727
▁PKS	-3728
ahulu	-3729
etnam	-3730
etapan	-3731
▁memicu	-3732
▁senior	-3733
▁berikut	-3734
▁Ul	-3735
▁Kad	-3736
evisi	-3737
amaian	-3738
▁mitra	-3739
▁Fr	-3740
▁ahli	-3741
▁genc	-3742
ongsor	-3743
▁jangan	-3744
IM	-3745
old	-3746
▁strategi	-3747
-7	-3748
Ini	-3749
uel	-3750
son	-3751
▁Kek	-3752
▁tema	-3753
▁Kaesang	-3754
▁menyerahkan	-3755
ington	-3756
▁paket	-3757
ahankan	-3758
▁Banyak	-3759
▁pembel	-3760
▁Vietnam	-3761
▁Keamanan	-3762
-3	-3763
▁Lalu	-3764
▁syarat	-3765
▁mendesak	-3766
▁Ik	-3767
atatan	-3768
▁menyus	-3769
ice	-3770
▁Ti	-3771
▁Ung	-3772
wenang	-3773
▁Garuda	-3774
▁serius	-3775
▁diselenggarakan	-3776
.0	-3777
assar	-3778
ulauan	-3779
▁ungkapnya	-3780
insip	-3781
ofifah	-3782
idaknya	-3783
▁Bany	-3784
ayaran	-3785
iburan	-3786
▁rutin	-3787
arelawan	-3788
ino	-3789
uny	-3790
▁Kamil	-3791
▁Khofifah	-3792
▁maksimal	-3793
▁Satu	-3794
ombang	-3795
▁sikap	-3796
▁Penjabat	-3797
ish	-3798
ikin	-3799
▁kri	-3800
▁Samp	-3801
cayaan	-3802
▁iklim	-3803
▁sanksi	-3804
▁Operasi	-3805
▁mencetak	-3806
▁tertentu	-3807
▁permintaan	-3808
▁net	-3809
anggu	-3810
▁awak	-3811
▁pelanggan	-3812
▁pengadilan	-3813
▁Ev	-3814
▁visi	-3815
edakan	-3816
▁diikuti	-3817
enggaraan	-3818
▁kejahatan	-3819
▁kompetisi	-3820
abrik	-3821
undur	-3822
▁Menj	-3823
▁2023,	-3824
enalkan	-3825
entitas	-3826
▁saling	-3827
▁penerbangan	-3828
rig	-3829
akti	-3830
empur	-3831
san	-3832
▁kursi	-3833
▁menambah	-3834
▁AKP	-3835
▁Suh	-3836
▁Harris	-3837
Mah	-3838
acam	-3839
▁Sid	-3840
ekanan	-3841
▁AI	-3842
▁Me	-3843
▁gram	-3844
▁Padang	-3845
kom	-3846
anyi	-3847
sekut	-3848
▁Bantu	-3849
▁Pulau	-3850
▁Champi	-3851
▁Pemkot	-3852
▁melindungi	-3853
agub	-3854
egang	-3855
▁Tinggi	-3856
oko	-3857
rut	-3858
▁MPR	-3859
oalan	-3860
▁Film	-3861
▁Seri	-3862
anjung	-3863
▁Ketika	-3864
argetkan	-3865
▁mencakup	-3866
▁mengapresiasi	-3867
alik	-3868
ence	-3869
▁mus	-3870
▁Pran	-3871
▁menimbulkan	-3872
uasaan	-3873
▁Manag	-3874
▁panas	-3875
▁Ekonomi	-3876
asiun	-3877
▁Sleman	-3878
▁mengek	-3879
ASN	-3880
esan	-3881
▁Sil	-3882
abang	-3883
ambat	-3884
benar	-3885
▁City	-3886
▁laki	-3887
▁Senayan	-3888
▁penanganan	-3889
opi	-3890
▁Ro	-3891
▁sabu	-3892
UP	-3893
inet	-3894
ainan	-3895
tabes	-3896
▁unggul	-3897
▁pertanian	-3898
▁perjanjian	-3899
lok	-3900
▁ur	-3901
▁teror	-3902
▁Makassar	-3903
▁Mod	-3904
oroti	-3905
aksana	-3906
▁Lembaga	-3907
▁berf	-3908
▁Roh	-3909
anyaan	-3910
▁Meskipun	-3911
▁penjualan	-3912
omm	-3913
▁Wil	-3914
▁Irjen	-3915
▁dipimpin	-3916
8,	-3917
IS	-3918
Pem	-3919
▁tentara	-3920
▁dihadiri	-3921
▁memanfaatkan	-3922
ahami	-3923
osiasi	-3924
▁penyebab	-3925
pon	-3926
oman	-3927
▁Pertama	-3928
▁berawan	-3929
▁kilometer	-3930
▁kepemimpinan	-3931
ff	-3932
▁Kampung	-3933
▁diambil	-3934
▁Polresta	-3935
jual	-3936
▁putih	-3937
▁terang	-3938
angkalan	-3939
▁gugatan	-3940
▁tambahnya	-3941
ick	-3942
hari	-3943
ontoh	-3944
▁Merah	-3945
▁olahraga	-3946
▁(31	-3947
ugian	-3948
▁Kali	-3949
▁Penyel	-3950
▁tuduhan	-3951
tron	-3952
ajuan	-3953
tivis	-3954
▁Purw	-3955
▁peneg	-3956
▁operasional	-3957
dus	-3958
▁pres	-3959
▁Harga	-3960
ontribusi	-3961
io	-3962
▁perp	-3963
▁mengingat	-3964
indakan	-3965
▁Kemend	-3966
▁Serangan	-3967
ace	-3968
sidi	-3969
▁Wash	-3970
▁bank	-3971
▁diperl	-3972
▁ditahan	-3973
▁Putra	-3974
▁yakin	-3975
▁pencarian	-3976
agn	-3977
oga	-3978
▁Juru	-3979
ubungi	-3980
▁rokok	-3981
ungkinkan	-3982
▁komunikasi	-3983
▁ab	-3984
▁klas	-3985
enagak	-3986
▁Sejak	-3987
hip	-3988
▁im	-3989
▁Sin	-3990
▁VOA	-3991
Mahfud	-3992
kandar	-3993
5,	-3994
▁mey	-3995
▁Marc	-3996
sisten	-3997
▁konser	-3998
ministrasi	-3999
enagakerjaan	-4000
▁Did	-4001
▁Jam	-4002
andera	-4003
▁merilis	-4004
▁memasuki	-4005
▁penelitian	-4006
▁Cor	-4007
▁medis	-4008
)",	-4009
▁Sw	-4010
▁up	-4011
ameran	-4012
ekatan	-4013
▁Motor	-4014
▁Industri	-4015
▁kehilangan	-4016
HK	-4017
.30	-4018
▁Nik	-4019
▁misi	-4020
▁laman	-4021
tabilitas	-4022
▁peringkat	-4023
▁Washington	-4024
antah	-4025
ataan	-4026
▁barat	-4027
▁pengan	-4028
▁Perusahaan	-4029
PU	-4030
▁hi	-4031
akuan	-4032
ancar	-4033
▁Musi	-4034
▁mesin	-4035
hadiran	-4036
▁bupati	-4037
▁parlemen	-4038
▁Informasi	-4039
▁persiapan	-4040
enj	-4041
ony	-4042
rom	-4043
andra	-4044
▁inst	-4045
▁ekspor	-4046
▁Mandiri	-4047
▁angin	-4048
ht	-4049
KPU	-4050
sir	-4051
▁us	-4052
iset	-4053
imbau	-4054
entuan	-4055
▁Melalui	-4056
▁dokumen	-4057
▁putaran	-4058
▁Iskandar	-4059
ON	-4060
▁uji	-4061
tinya	-4062
▁wali	-4063
▁berisi	-4064
▁menjawab	-4065
▁tercatat	-4066
▁mengalahkan	-4067
2,	-4068
alian	-4069
▁mati	-4070
reskrim	-4071
▁selain	-4072
▁menjadikan	-4073
EM	-4074
so	-4075
/4)	-4076
ukl	-4077
land	-4078
▁haji	-4079
▁swas	-4080
▁atlet	-4081
▁Donald	-4082
ARANG	-4083
▁Bang	-4084
▁Pengh	-4085
▁diskusi	-4086
▁biasanya	-4087
▁mengubah	-4088
▁Champions	-4089
▁transaksi	-4090
apol	-4091
uluh	-4092
▁Dav	-4093
▁Pantai	-4094
▁re	-4095
▁nas	-4096
alang	-4097
▁inisi	-4098
▁sembilan	-4099
ella	-4100
ihan	-4101
▁Tae	-4102
▁juru	-4103
▁libur	-4104
▁sehari	-4105
▁minuman	-4106
▁berkontribusi	-4107
Undang	-4108
▁ekstr	-4109
▁gempa	-4110
▁suami	-4111
HO	-4112
ajam	-4113
hiri	-4114
▁Cir	-4115
▁Div	-4116
indari	-4117
▁gedung	-4118
▁anaknya	-4119
.5	-4120
▁On	-4121
jing	-4122
▁Boj	-4123
▁impor	-4124
▁Pemkab	-4125
▁Lingkungan	-4126
/5)	-4127
itr	-4128
▁tol	-4129
▁Hujan	-4130
BK	-4131
ps	-4132
hat	-4133
▁PL	-4134
▁Joh	-4135
▁aku	-4136
umpul	-4137
▁Perm	-4138
▁Persis	-4139
▁Pemprov	-4140
▁menurunkan	-4141
▁penangkapan	-4142
PT	-4143
rab	-4144
ater	-4145
▁mudik	-4146
▁materi	-4147
▁mengusung	-4148
▁60	-4149
▁Aj	-4150
▁tuan	-4151
▁Karaw	-4152
▁dipas	-4153
▁Petugas	-4154
-23	-4155
▁gaj	-4156
/3)	-4157
ron	-4158
sat	-4159
ampilkan	-4160
▁Karawang	-4161
itusi	-4162
▁Hakim	-4163
▁keduanya	-4164
▁kehadiran	-4165
urian	-4166
▁Perh	-4167
▁obat	-4168
▁memungkinkan	-4169
ebaya	-4170
▁ketat	-4171
▁Festival	-4172
▁Kejaksaan	-4173
▁Ho	-4174
▁Ters	-4175
awatir	-4176
iminal	-4177
BS	-4178
▁Sk	-4179
vensi	-4180
▁fisik	-4181
▁apresiasi	-4182
▁Pemberantasan	-4183
▁Arif	-4184
egional	-4185
▁Pengaw	-4186
▁berarti	-4187
▁kepercayaan	-4188
ci	-4189
▁SEM	-4190
istis	-4191
▁Putri	-4192
▁oknum	-4193
itungan	-4194
▁selamat	-4195
▁Kepulauan	-4196
rid	-4197
esti	-4198
intu	-4199
aimin	-4200
yatakan	-4201
▁Soekar	-4202
▁pulang	-4203
▁segala	-4204
▁undang	-4205
▁perwakilan	-4206
orl	-4207
▁Cip	-4208
eorologi	-4209
▁Digital	-4210
ujuk	-4211
▁kapasitas	-4212
awi	-4213
▁Mir	-4214
otika	-4215
enazah	-4216
ohonan	-4217
▁dibuka	-4218
leks	-4219
▁Ros	-4220
arangan	-4221
▁jangka	-4222
▁Pranowo	-4223
▁memulai	-4224
▁menutup	-4225
KA	-4226
by	-4227
ahuan	-4228
ayani	-4229
▁Mahfud	-4230
▁longsor	-4231
▁gencatan	-4232
▁Joe	-4233
▁Kos	-4234
▁Nusa	-4235
adahal	-4236
▁terbukti	-4237
abis	-4238
iling	-4239
▁Hart	-4240
osistem	-4241
▁Madura	-4242
▁Bambang	-4243
▁mengand	-4244
▁persoalan	-4245
▁perekonomian	-4246
sabu	-4247
tian	-4248
▁Konst	-4249
▁Surat	-4250
▁Hingga	-4251
▁pantai	-4252
▁menghentikan	-4253
▁Pria	-4254
▁Polsek	-4255
6.	-4256
ive	-4257
▁ton	-4258
orter	-4259
elasan	-4260
▁Mobil	-4261
▁berta	-4262
roduksi	-4263
sekutif	-4264
▁diamankan	-4265
▁pertanyaan	-4266
ahl	-4267
▁Up	-4268
ando	-4269
agikan	-4270
▁praktik	-4271
▁SEMARANG	-4272
isl	-4273
▁ku	-4274
▁CEO	-4275
▁Afrika	-4276
anggilan	-4277
▁menentukan	-4278
UD	-4279
▁ditemui	-4280
▁memperoleh	-4281
ech	-4282
raf	-4283
akai	-4284
▁fitur	-4285
▁Imigrasi	-4286
RT	-4287
▁Ju	-4288
▁Apa	-4289
truksi	-4290
▁belajar	-4291
▁Persebaya	-4292
▁Yus	-4293
apura	-4294
ensif	-4295
▁sepak	-4296
▁Cil	-4297
▁Sar	-4298
▁pengamanan	-4299
▁No	-4300
▁Bei	-4301
▁Akan	-4302
▁hutan	-4303
▁suatu	-4304
▁$	-4305
ill	-4306
▁War	-4307
▁ins	-4308
▁Sant	-4309
▁kampus	-4310
evakuasi	-4311
▁Go	-4312
laim	-4313
sinya	-4314
▁Terl	-4315
▁faktor	-4316
arkotika	-4317
▁mengunjungi	-4318
...	-4319
sus	-4320
aksud	-4321
▁aset	-4322
▁damai	-4323
▁mengadakan	-4324
▁profesional	-4325
▁met	-4326
RB	-4327
amm	-4328
▁Ip	-4329
udul	-4330
▁Tapi	-4331
igrasi	-4332
uransi	-4333
▁bertajuk	-4334
▁Pelabuhan	-4335
ve	-4336
▁kerap	-4337
▁mengec	-4338
vasi	-4339
▁mul	-4340
ester	-4341
▁putri	-4342
▁berwenang	-4343
23	-4344
▁antar	-4345
▁hewan	-4346
▁kementerian	-4347
6,	-4348
▁Ib	-4349
ukasi	-4350
▁bayi	-4351
embatan	-4352
▁dahulu	-4353
▁ketidak	-4354
▁Surakarta	-4355
▁Kepolisian	-4356
▁Tik	-4357
ebaran	-4358
▁kanan	-4359
▁efektif	-4360
Jadi	-4361
rist	-4362
ahaya	-4363
▁capres	-4364
▁Institu	-4365
▁Tanjung	-4366
▁Angkatan	-4367
▁menghasilkan	-4368
oso	-4369
otan	-4370
▁Bus	-4371
▁mak	-4372
▁band	-4373
▁dibuat	-4374
▁Beijing	-4375
ingkatkan	-4376
▁e	-4377
▁Ge	-4378
luas	-4379
intar	-4380
estasi	-4381
▁berperan	-4382
▁ka	-4383
uklir	-4384
▁timur	-4385
agama	-4386
▁Guru	-4387
▁rusak	-4388
▁darurat	-4389
▁penurunan	-4390
pora	-4391
enting	-4392
spirasi	-4393
▁kereta	-4394
▁Peraturan	-4395
▁Konstitusi	-4396
▁bertanggung	-4397
▁News	-4398
▁Siap	-4399
anyahu	-4400
▁konten	-4401
awancara	-4402
ahmi	-4403
▁Fat	-4404
▁era	-4405
▁kerugian	-4406
▁lanjutnya	-4407
adai	-4408
ania	-4409
elayan	-4410
siapkan	-4411
▁pasien	-4412
▁standar	-4413
▁khawatir	-4414
PD	-4415
bk	-4416
▁ro	-4417
▁Rai	-4418
utaan	-4419
▁membeli	-4420
▁prioritas	-4421
AD	-4422
▁Turki	-4423
▁hitam	-4424
▁mengin	-4425
umpulkan	-4426
4,	-4427
▁Hid	-4428
astik	-4429
gunaan	-4430
▁senang	-4431
▁teknis	-4432
▁the	-4433
▁coba	-4434
▁senilai	-4435
▁Kelompok	-4436
▁kemajuan	-4437
uz	-4438
▁dom	-4439
▁gas	-4440
▁Masjid	-4441
▁2024-202	-4442
▁Netanyahu	-4443
▁diperlukan	-4444
▁Dj	-4445
/11)	-4446
▁batas	-4447
▁menya	-4448
▁beragam	-4449
▁menengah	-4450
andatangani	-4451
PO	-4452
▁mo	-4453
▁Daya	-4454
hamdul	-4455
ungnya	-4456
▁layak	-4457
▁menud	-4458
▁serupa	-4459
▁Layanan	-4460
▁mempertahankan	-4461
/7)	-4462
usn	-4463
▁ul	-4464
anyol	-4465
▁Terb	-4466
▁grup	-4467
▁kesi	-4468
▁Kompol	-4469
▁Pekanbaru	-4470
kus	-4471
orld	-4472
▁pula	-4473
eorang	-4474
eriksa	-4475
▁seksual	-4476
▁menyoroti	-4477
▁pengusaha	-4478
udahan	-4479
▁Teknologi	-4480
▁mengonsumsi	-4481
4.	-4482
/202	-4483
▁Gian	-4484
▁Jasa	-4485
▁kaki	-4486
egahan	-4487
▁klaim	-4488
▁Sekolah	-4489
masalahan	-4490
▁kerusakan	-4491
8.	-4492
iang	-4493
▁Muslim	-4494
▁keadaan	-4495
▁buku	-4496
▁Bakal	-4497
▁Qatar	-4498
▁rangkaian	-4499
▁pendapatan	-4500
▁Andi	-4501
▁Sungai	-4502
▁Pertanian	-4503
▁beroperasi	-4504
PI	-4505
▁lawan	-4506
▁rekan	-4507
uncuran	-4508
engaruhi	-4509
▁kecamatan	-4510
▁membentuk	-4511
▁SAR	-4512
▁Wak	-4513
▁pohon	-4514
rediksi	-4515
▁memahami	-4516
/8)	-4517
▁Tiga	-4518
▁Putin	-4519
engkapi	-4520
▁bahasa	-4521
▁menerapkan	-4522
▁selanjutnya	-4523
▁penyelenggaraan	-4524
/12)	-4525
intah	-4526
▁mundur	-4527
▁pengunjung	-4528
▁Erick	-4529
▁Kasat	-4530
▁didampingi	-4531
▁menanggapi	-4532
2.	-4533
7,	-4534
▁jasa	-4535
udayaan	-4536
▁wanita	-4537
▁bertahan	-4538
▁nantinya	-4539
▁dinyatakan	-4540
▁Cl	-4541
▁dulu	-4542
▁jatuh	-4543
entunya	-4544
▁Spanyol	-4545
▁Pimpinan	-4546
▁Direktorat	-4547
entan	-4548
▁sant	-4549
▁tata	-4550
ifinal	-4551
▁Karya	-4552
▁Kelas	-4553
▁tahanan	-4554
agri	-4555
aruh	-4556
ediaan	-4557
▁Hasan	-4558
▁berubah	-4559
ie	-4560
kota	-4561
emaah	-4562
▁akrab	-4563
▁nyaman	-4564
▁tangga	-4565
▁Bersama	-4566
▁kalinya	-4567
Pol	-4568
adj	-4569
▁Kat	-4570
amkan	-4571
▁zona	-4572
▁karyawan	-4573
▁Be	-4574
▁semuanya	-4575
▁setidaknya	-4576
/6)	-4577
▁Bengk	-4578
urnamen	-4579
▁mendek	-4580
▁tekanan	-4581
▁kekuasaan	-4582
/9)	-4583
▁Tbk	-4584
ertai	-4585
▁Anwar	-4586
▁berkualitas	-4587
▁00	-4588
ound	-4589
ainya	-4590
▁Soal	-4591
vestor	-4592
alisasi	-4593
▁Kaltim	-4594
▁fungsi	-4595
▁peraturan	-4596
za	-4597
iat	-4598
▁Ny	-4599
indah	-4600
▁Makan	-4601
▁dinas	-4602
angkatan	-4603
empatkan	-4604
lih	-4605
▁Agama	-4606
alurkan	-4607
imbangan	-4608
ock	-4609
▁bar	-4610
andan	-4611
▁remaja	-4612
▁nasabah	-4613
▁transportasi	-4614
antren	-4615
angguan	-4616
▁Kapolda	-4617
▁Militer	-4618
tis	-4619
etuju	-4620
▁buat	-4621
▁lengkap	-4622
▁manajemen	-4623
▁kos	-4624
▁Aparat	-4625
▁tanggung	-4626
▁Panc	-4627
▁Perl	-4628
▁Karno	-4629
hawatiran	-4630
▁pengiriman	-4631
▁It	-4632
▁ram	-4633
cepat	-4634
ayoritas	-4635
0,	-4636
sur	-4637
▁Con	-4638
awanan	-4639
▁ekosistem	-4640
aing	-4641
▁Ped	-4642
▁umat	-4643
▁inter	-4644
▁situs	-4645
▁pemuda	-4646
imbangkan	-4647
▁penetapan	-4648
▁dibutuhkan	-4649
arkir	-4650
▁Jalur	-4651
▁warna	-4652
▁mengimbau	-4653
▁to	-4654
▁Gelar	-4655
▁sesuatu	-4656
rak	-4657
▁Da	-4658
itia	-4659
▁ikan	-4660
▁usai	-4661
▁apabila	-4662
▁Yud	-4663
imaan	-4664
orneo	-4665
▁Natal	-4666
▁Sakit	-4667
▁Kediri	-4668
elahiran	-4669
▁prinsip	-4670
lt	-4671
▁DI	-4672
▁Ass	-4673
▁Teg	-4674
▁keny	-4675
hasilan	-4676
ominasi	-4677
▁Keluarga	-4678
▁Singapura	-4679
hamdulillah	-4680
▁permohonan	-4681
bal	-4682
▁lem	-4683
▁Irak	-4684
obatan	-4685
▁Jumlah	-4686
▁Majelis	-4687
▁ekstrem	-4688
KPK	-4689
▁Emas	-4690
▁Borneo	-4691
▁Sekjen	-4692
▁pabrik	-4693
epi	-4694
istri	-4695
▁Ting	-4696
▁Martin	-4697
▁merayakan	-4698
▁perbaikan	-4699
▁rekomendasi	-4700
▁He	-4701
▁kunci	-4702
▁nuklir	-4703
Pers	-4704
▁Dedi	-4705
aritas	-4706
▁persidangan	-4707
▁elektabilitas	-4708
mp	-4709
-20	-4710
EAN	-4711
ektur	-4712
▁Comm	-4713
▁ibadah	-4714
▁Persija	-4715
▁Pasalnya	-4716
▁Setiawan	-4717
▁logistik	-4718
▁NTB	-4719
▁Batu	-4720
▁wajib	-4721
7.	-4722
hu	-4723
▁UN	-4724
▁Kim	-4725
▁Bung	-4726
▁Rapat	-4727
▁World	-4728
ulangan	-4729
▁Meteorologi	-4730
tion	-4731
ikbud	-4732
ogram	-4733
▁dipl	-4734
uktikan	-4735
etika	-4736
▁Perj	-4737
▁bunga	-4738
▁efisi	-4739
▁Kanwil	-4740
▁swasta	-4741
PA	-4742
sed	-4743
amatkan	-4744
▁mengus	-4745
▁berikutnya	-4746
PAN	-4747
kah	-4748
▁Ha	-4749
▁Meny	-4750
▁jurn	-4751
▁Balai	-4752
▁Pengg	-4753
▁Semua	-4754
▁Taman	-4755
▁kontrak	-4756
▁perayaan	-4757
▁identitas	-4758
onj	-4759
yani	-4760
▁HUT	-4761
▁Sir	-4762
itung	-4763
▁melip	-4764
▁lancar	-4765
▁menampilkan	-4766
-19	-4767
▁Situ	-4768
▁gerakan	-4769
▁pemberian	-4770
▁seseorang	-4771
epend	-4772
angkau	-4773
▁lihat	-4774
aksikan	-4775
▁Gianyar	-4776
▁norm	-4777
▁sambil	-4778
▁sungai	-4779
▁aktivis	-4780
▁catatan	-4781
▁berencana	-4782
▁keselamatan	-4783
3,	-4784
CC	-4785
▁ga	-4786
urit	-4787
▁Sya	-4788
▁Data	-4789
▁alami	-4790
ebaskan	-4791
▁menemp	-4792
adwalkan	-4793
▁kelahiran	-4794
identifikasi	-4795
▁Ku	-4796
▁Te	-4797
iana	-4798
andai	-4799
ansir	-4800
udang	-4801
unyai	-4802
▁saran	-4803
▁Seperti	-4804
olar	-4805
▁Mic	-4806
▁BPBD	-4807
▁Memb	-4808
enjata	-4809
▁Cuaca	-4810
▁disertai	-4811
▁Polrestabes	-4812
▁permasalahan	-4813
aria	-4814
▁Org	-4815
▁Kapal	-4816
▁Media	-4817
▁Sebuah	-4818
▁agenda	-4819
tisipasi	-4820
▁perangkat	-4821
▁memperkenalkan	-4822
sal	-4823
epon	-4824
abrak	-4825
▁Dana	-4826
ikahan	-4827
▁bakar	-4828
▁jarak	-4829
inginkan	-4830
▁Departemen	-4831
▁mengakibatkan	-4832
▁Ist	-4833
a	-4834
▁	-4835
n	-4836
e	-4837
i	-4838
r	-4839
t	-4840
u	-4841
k	-4842
m	-4843
s	-4844
d	-4845
g	-4846
l	-4847
p	-4848
o	-4849
b	-4850
h	-4851
y	-4852
,	-4853
.	-4854
j	-4855
P	-4856
S	-4857
K	-4858
A	-4859
2	-4860
c	-4861
B	-4862
w	-4863
I	-4864
M	-4865
0	-4866
D	-4867
T	-4868
-	-4869
R	-4870
1	-4871
J	-4872
f	-4873
"	-4874
N	-4875
)	-4876
(	-4877
4	-4878
G	-4879
H	-4880
U	-4881
v	-4882
C	-4883
W	-4884
L	-4885
/	-4886
3	-4887
5	-4888
F	-4889
E	-4890
O	-4891
9	-4892
:	-4893
7	-4894
6	-4895
8	-4896
z	-4897
Y	-4898
V	-4899
'	-4900
Z	-4901
x	-4902
X	-4903
?	-4904
[	-4905
]	-4906
q	-4907
Q	-4908
&	-4909
%	-4910
;	-4911
$	-4912
!	-4913
@	-4914
+	-4915
#	-4916
_	-4917
é	-4918
*	-4919
á	-4920
ü	-4921
ö	-4922
è	-4923
°	-4924
=	-4925
í	-4926
ñ	-4927
ó	-4928
•	-4929
±	-4930
€	-4931
£	-4932
ú	-4933
ä	-4934
®	-4935
â	-4936
ı	-4937
>	-4938
`	-4939
ã	-4940
′	-4941
ć	-4942
×	-4943
ê	-4944
ï	-4945
\	-4946
Ó	-4947
à	-4948
ô	-4949
⁠	-4950
Ç	-4951
Ü	-4952
ç	-4953
ì	-4954
ş	-4955
⁄	-4956
😭	-4957
<	-4958
·	-4959
ø	-4960
μ	-4961
−	-4962
Á	-4963
Ä	-4964
Ö	-4965
ë	-4966
ā	-4967
ğ	-4968
š	-4969
Â	-4970
É	-4971
ð	-4972
ò	-4973
õ	-4974
Ā	-4975
ę	-4976
İ	-4977
ķ	-4978
Ł	-4979
ł	-4980
ś	-4981
ơ	-4982
ư	-4983
Α	-4984
Η	-4985
Τ	-4986
α	-4987
‍	-4988
≥	-4989
丽	-4990
安	-4991
洪	-4992
金	-4993
陈	-4994
🍌	-4995
😊	-4996
