<unk>	0
<s>	0
</s>	0
,	-3.09382
.	-3.22205
▁di	-4.0296
▁yang	-4.09202
▁dan	-4.19372
-	-4.88457
▁untuk	-4.99354
▁(	-5.05849
▁dengan	-5.12081
nya	-5.1433
▁-	-5.18202
▁dari	-5.20054
▁ini	-5.20503
▁	-5.22861
▁itu	-5.24468
)	-5.25251
",	-5.27212
▁pada	-5.29839
▁dalam	-5.29992
▁"	-5.33839
an	-5.42722
▁2024	-5.53312
▁ke	-5.61183
kan	-5.66463
i	-5.66925
▁tidak	-5.73722
▁akan	-5.80322
▁tersebut	-5.80355
▁Indonesia	-5.81418
▁juga	-5.93672
com	-5.95082
▁WIB	-5.99517
▁kata	-6.06927
▁menjadi	-6.15015
▁mengatakan	-6.15903
▁saat	-6.20752
▁bahwa	-6.21078
▁sebagai	-6.22534
▁oleh	-6.24873
▁ada	-6.25039
▁telah	-6.25682
▁tahun	-6.28803
▁bisa	-6.33903
▁kepada	-6.38856
s	-6.39033
▁jpnn	-6.39502
▁atau	-6.40011
▁se	-6.41329
▁lebih	-6.43007
▁mereka	-6.4579
▁ber	-6.46804
▁Jakarta	-6.48051
▁satu	-6.50663
▁orang	-6.51394
/	-6.51844
▁sudah	-6.5498
▁karena	-6.56125
▁adalah	-6.61388
▁para	-6.61476
▁Kota	-6.61891
▁kami	-6.62568
▁masyarakat	-6.64698
▁melakukan	-6.67551
▁hari	-6.69413
a	-6.71855
▁negara	-6.75087
▁terhadap	-6.75868
▁S	-6.77549
▁bagi	-6.77783
▁dapat	-6.80631
▁dia	-6.80986
n	-6.81244
▁secara	-6.85061
:	-6.85347
▁hingga	-6.86108
▁Selasa	-6.8692
▁Dia	-6.87306
▁Rabu	-6.87562
▁JAKARTA	-6.88229
▁P	-6.89386
▁K	-6.89401
▁Senin	-6.89991
jpnn	-6.90586
▁setelah	-6.91164
▁Di	-6.91324
▁Kamis	-6.91699
▁merupakan	-6.92099
▁M	-6.93152
▁dua	-6.9386
▁seperti	-6.94924
▁baru	-6.94966
▁warga	-6.97576
▁Kabupaten	-6.97906
▁Jumat	-6.98087
▁masih	-6.99439
▁harus	-7.00411
▁dilakukan	-7.00553
▁beberapa	-7.01332
▁saya	-7.01516
▁serta	-7.01764
▁memberikan	-7.02711
▁Jawa	-7.05776
▁banyak	-7.07319
▁besar	-7.07929
▁lalu	-7.08406
▁atas	-7.08523
▁Presiden	-7.0862
▁korban	-7.08695
▁hanya	-7.09349
▁2024.	-7.10103
▁Bali	-7.10149
▁Israel	-7.10315
e	-7.1075
"	-7.11009
▁memiliki	-7.11471
▁anak	-7.13096
▁terjadi	-7.13214
▁ujar	-7.13599
▁Ketua	-7.1373
▁A	-7.13865
▁bersama	-7.14965
t	-7.15202
▁selama	-7.15342
▁melalui	-7.17341
▁baik	-7.17477
▁rumah	-7.17889
▁sangat	-7.18366
▁salah	-7.20229
▁1	-7.20693
k	-7.21315
▁kasus	-7.21628
▁B	-7.22457
▁pemerintah	-7.24795
▁Rp	-7.26294
▁wilayah	-7.2632
▁Sabtu	-7.26829
▁kita	-7.26859
▁Se	-7.27523
▁sama	-7.28464
▁Barat	-7.30336
buah	-7.30539
▁lain	-7.30582
▁tetapi	-7.3068
▁Namun	-7.30795
▁Minggu	-7.31636
▁AS	-7.31965
▁kembali	-7.31975
▁Prabowo	-7.32118
▁terus	-7.3229
▁meng	-7.33051
▁terkait	-7.3318
▁ter	-7.34125
▁persen	-7.35597
▁PT	-7.36227
▁seluruh	-7.36829
▁agar	-7.37767
o	-7.38296
y	-7.38813
▁hal	-7.3921
▁sekitar	-7.40379
▁tiga	-7.40405
▁I	-7.41405
▁daerah	-7.41842
S	-7.43654
▁program	-7.4429
▁berbaga	-7.4472
▁pun	-7.44921
▁Selatan	-7.45132
3	-7.46276
▁lainnya	-7.46371
▁Menurut	-7.47039
▁dunia	-7.48082
▁calon	-7.48142
▁tim	-7.48221
▁Menteri	-7.4825
).	-7.48878
▁Dalam	-7.48911
▁hasil	-7.49244
▁belum	-7.49765
1	-7.49987
▁pertama	-7.50221
▁kerja	-7.50681
▁antara	-7.50858
▁tentang	-7.51362
in	-7.51588
▁Kepala	-7.52096
▁sedang	-7.52347
▁Surabaya	-7.5337
▁2	-7.54193
▁Bandung	-7.5542
2	-7.55587
▁semua	-7.55627
▁pelaku	-7.55873
▁pihak	-7.56191
▁RI	-7.56256
▁termasuk	-7.56664
".	-7.57316
▁tak	-7.57955
▁sejumlah	-7.58033
▁Timur	-7.58386
▁Ini	-7.58594
si	-7.58731
▁langsung	-7.58784
▁Partai	-7.58816
▁per	-7.59209
▁China	-7.59411
),	-7.59467
▁membuat	-7.59656
5	-7.59897
▁hukum	-7.60526
▁D	-7.61137
▁U	-7.61526
▁suara	-7.61713
▁sejak	-7.61822
▁Pilkada	-7.619
▁G	-7.61971
▁Tengah	-7.62324
▁kedua	-7.6289
▁anggota	-7.63028
▁kali	-7.6393
▁waktu	-7.6481
▁seorang	-7.65741
▁mendukung	-7.66134
▁bagian	-7.66164
▁bulan	-7.66282
▁katanya	-7.66878
ta	-7.67154
'	-7.67499
▁kota	-7.67556
▁3	-7.67766
▁sehingga	-7.67779
▁depan	-7.679
▁tempat	-7.68527
h	-7.6896
▁serangan	-7.69663
▁menyampaikan	-7.69802
▁proses	-7.70072
7	-7.70364
▁mulai	-7.70455
6	-7.70648
▁Selain	-7.71401
▁saja	-7.71417
8	-7.71998
▁Amerika	-7.72092
p	-7.72095
▁politik	-7.72291
▁Pada	-7.72376
▁meningkatkan	-7.7241
]	-7.72525
4	-7.72768
▁perusahaan	-7.73014
P	-7.7303
▁10	-7.73171
▁lagi	-7.73174
▁[	-7.73771
▁ketika	-7.74916
A	-7.75587
▁menggunakan	-7.75818
▁juta	-7.76568
r	-7.76602
▁malam	-7.77005
d	-7.77076
▁kesehatan	-7.77822
u	-7.77967
▁C	-7.78445
▁menjelaskan	-7.78776
er	-7.78835
▁Hal	-7.78903
▁Rusia	-7.78903
▁media	-7.7902
▁tetap	-7.79035
▁tinggi	-7.79042
▁masa	-7.7911
ing	-7.79128
▁T	-7.7913
R	-7.79729
▁yakni	-7.79738
▁penting	-7.79774
9	-7.79937
▁Umum	-7.8003
▁menyebut	-7.80072
B	-7.80561
▁bukan	-7.81057
▁Oktober	-7.81203
?	-7.81473
al	-7.81526
▁H	-7.81605
▁kegiatan	-7.818
▁upaya	-7.81986
▁ingin	-7.82022
▁Gubernur	-7.82517
▁diri	-7.83231
▁Kecamatan	-7.83363
▁tersangka	-7.8429
▁air	-7.84671
▁Juli	-7.84807
▁Kami	-7.84836
▁Ber	-7.84854
▁berada	-7.85031
▁Kementerian	-7.85245
l	-7.85334
▁pemain	-7.85569
▁me	-7.8595
▁luar	-7.86155
▁mendapatkan	-7.86175
▁apa	-7.8619
▁kemudian	-7.86232
▁masuk	-7.86285
▁sampai	-7.8656
▁November	-7.87133
di	-7.87977
▁mencapai	-7.88108
K	-7.88178
▁presiden	-7.88388
▁Tahun	-7.88611
▁s	-7.88974
▁Wakil	-7.89288
▁Ke	-7.89848
▁sebelumnya	-7.89939
▁sosial	-7.90297
▁Semarang	-7.90416
▁acara	-7.90702
▁Gaza	-7.90846
ka	-7.9098
▁perempuan	-7.9132
na	-7.91508
ar	-7.91598
D	-7.91828
us	-7.92107
▁membantu	-7.92223
▁kawasan	-7.92479
▁pukul	-7.92552
▁Bogor	-7.92845
▁jadi	-7.92985
▁Sementara	-7.933
▁Direktur	-7.93327
▁20	-7.93798
T	-7.93882
▁pasangan	-7.94017
is	-7.94118
▁Polda	-7.94136
da	-7.9414
▁mengaku	-7.9434
▁Utara	-7.94479
▁produk	-7.94802
▁Mei	-7.95045
▁F	-7.95104
▁Agustus	-7.95117
▁nomor	-7.95189
▁Jalan	-7.95242
▁Nasional	-7.95415
▁menyatakan	-7.95452
▁mengalami	-7.9549
▁Badan	-7.9597
ri	-7.96321
▁Foto	-7.96477
▁terakhir	-7.96556
▁Jadi	-7.96833
▁Juni	-7.9693
M	-7.97111
▁dukungan	-7.97143
▁ekonomi	-7.97269
m	-7.9738
▁lokasi	-7.97507
▁menunjukkan	-7.97575
▁Desa	-7.97616
ah	-7.97664
▁bantuan	-7.98349
▁memastikan	-7.984
▁Tim	-7.98559
0	-7.98714
▁R	-7.98891
▁meminta	-7.99025
▁September	-7.99029
▁jika	-7.99103
▁PPPK	-7.9924
Kami	-7.99432
▁Saya	-7.99588
▁Desember	-7.99616
▁keluarga	-7.99688
at	-7.9972
▁12	-8.00336
▁berlangsung	-8.01278
▁DPR	-8.01504
▁Pemerintah	-8.01569
▁tengah	-8.01733
▁Januari	-8.02326
▁mana	-8.02333
▁berhasil	-8.0237
▁Negeri	-8.02445
b	-8.02542
▁asal	-8.03099
G	-8.03485
ma	-8.03953
orang	-8.0398
ti	-8.04139
▁laga	-8.0437
▁United	-8.04374
▁empat	-8.04429
▁April	-8.04984
tiap	-8.04992
▁partai	-8.05231
la	-8.05685
▁Timnas	-8.05708
lah	-8.0577
▁Jokowi	-8.05967
▁jalan	-8.06045
▁ia	-8.06113
▁polisi	-8.06239
▁soal	-8.06368
▁melihat	-8.06408
▁sesuai	-8.06828
▁ujarnya	-8.07418
▁berharap	-8.07511
▁sebesar	-8.07561
▁resmi	-8.07565
▁pihaknya	-8.0814
▁sendiri	-8.0879
▁bekerja	-8.08792
▁pernah	-8.0884
▁gambar	-8.08882
▁jumlah	-8.08949
C	-8.09345
▁Liga	-8.09452
▁kelompok	-8.09462
▁maupu	-8.09659
▁Al	-8.09678
▁kondisi	-8.09693
▁Hari	-8.10087
▁19	-8.10113
▁Trump	-8.10405
▁15	-8.10519
▁Maret	-8.10758
▁utama	-8.11134
N	-8.11232
▁Ukraina	-8.11776
▁4	-8.12074
▁informasi	-8.12138
▁hadir	-8.12296
▁Asia	-8.12438
▁Mereka	-8.12623
▁5	-8.13292
▁mobil	-8.1333
▁Polres	-8.13399
▁lingkungan	-8.1347
▁Daerah	-8.13515
▁membawa	-8.13562
▁mem	-8.13575
▁laporan	-8.1386
▁Para	-8.14108
▁kendaraan	-8.14246
▁Ada	-8.14283
▁tanpa	-8.14286
▁militer	-8.14411
▁barang	-8.14466
▁yaitu	-8.1447
▁Anda	-8.14963
▁sebelum	-8.15541
▁Provinsi	-8.1562
▁menerima	-8.15939
▁&	-8.16572
▁bakal	-8.16966
▁Komisi	-8.17105
▁sebanyak	-8.17207
▁nasional	-8.17219
▁Korea	-8.17448
▁Iran	-8.17678
▁awal	-8.17724
▁layanan	-8.17809
▁men	-8.17916
▁Pemilu	-8.1792
ur	-8.18347
on	-8.18422
▁adanya	-8.18543
▁uang	-8.18755
▁keamanan	-8.18757
▁KPU	-8.18769
ter	-8.18834
▁dugaan	-8.189
▁mengungkapkan	-8.19094
▁lanjut	-8.19332
ng	-8.19487
▁perlu	-8.19515
▁mengenai	-8.1957
▁melawan	-8.19863
▁TNI	-8.20122
▁paling	-8.20159
▁kepala	-8.20584
▁dirinya	-8.20864
▁E	-8.2117
▁menggelar	-8.21414
▁N	-8.21658
▁kini	-8.21857
▁masalah	-8.21882
▁16	-8.21942
▁pendidikan	-8.22246
▁perang	-8.2232
▁menjaga	-8.22347
▁Serikat	-8.22445
ra	-8.22474
▁Piala	-8.22497
▁muda	-8.22639
J	-8.22656
to	-8.22739
▁menurut	-8.22756
▁menghadapi	-8.23347
▁Saat	-8.23422
▁bawah	-8.23544
▁industri	-8.23664
en	-8.23916
F	-8.24195
▁kampanye	-8.24356
▁14	-8.24389
I	-8.24479
▁pertandingan	-8.248
▁nama	-8.24902
▁lima	-8.25075
man	-8.25187
▁cukup	-8.25571
▁p	-8.25579
or	-8.2613
▁Ia	-8.2642
▁memang	-8.26426
▁Anies	-8.26539
▁pembangunan	-8.26633
▁keterangan	-8.2684
le	-8.27097
▁Pusat	-8.27152
▁sementara	-8.27357
▁segera	-8.27632
▁11	-8.27662
▁bukti	-8.27811
H	-8.2794
▁surat	-8.28004
▁KPK	-8.28033
▁langkah	-8.28267
▁harga	-8.28401
▁data	-8.28421
▁Negara	-8.28784
▁tingkat	-8.29323
▁mungkin	-8.29367
▁urut	-8.29372
▁2023	-8.29487
▁senjata	-8.29518
▁negeri	-8.29667
▁akibat	-8.30159
▁lama	-8.30163
▁Papua	-8.30261
c	-8.30398
anak	-8.30466
▁18	-8.30588
▁jelas	-8.30663
▁Re	-8.30766
▁Stadion	-8.30789
▁Universitas	-8.30789
▁Kantor	-8.30953
lan	-8.31216
▁digelar	-8.3149
▁mampu	-8.31815
li	-8.31819
▁kebijakan	-8.31886
▁mendapat	-8.32321
▁sekolah	-8.32343
▁30	-8.32507
g	-8.32666
▁Ahmad	-8.32914
▁13	-8.32994
▁'	-8.3328
▁mantan	-8.33293
▁7	-8.33387
▁Setelah	-8.33576
▁internasional	-8.33622
▁hak	-8.3375
▁miliar	-8.33907
▁Palestina	-8.34041
▁kebutuhan	-8.34072
▁umum	-8.34431
▁17	-8.34614
▁L	-8.34768
▁meninggal	-8.34779
▁pejabat	-8.35421
▁Bea	-8.35549
ang	-8.35676
▁pekan	-8.35773
▁Keterangan	-8.35915
▁Solo	-8.36135
▁pemilu	-8.36271
▁2024,	-8.36285
▁siap	-8.36412
▁Polisi	-8.36485
▁21	-8.36647
▁Ganjar	-8.37109
▁datang	-8.37141
▁Cukai	-8.37452
▁Polri	-8.37653
▁akhir	-8.37658
▁sistem	-8.37693
▁punya	-8.37721
ir	-8.37834
ga	-8.379
te	-8.37942
as	-8.37972
▁sekaligus	-8.38318
▁mendorong	-8.38319
W	-8.38345
▁cara	-8.38609
▁pernyataan	-8.39084
L	-8.3937
el	-8.39535
▁makanan	-8.39642
▁hujan	-8.39659
ke	-8.39767
▁Depok	-8.40308
▁diduga	-8.40341
▁sakit	-8.40366
▁bahkan	-8.40468
▁ungkap	-8.40519
▁akhirnya	-8.4055
▁publik	-8.4059
▁wakil	-8.40695
se	-8.40773
▁Bupati	-8.40781
▁tanah	-8.41078
▁pasar	-8.41352
▁motor	-8.41737
▁pemimpin	-8.41866
▁ribu	-8.42088
▁Hamas	-8.42094
▁guru	-8.42183
▁Februari	-8.42221
▁O	-8.42289
▁Untuk	-8.42444
ak	-8.42476
▁menilai	-8.42542
ul	-8.42661
▁listrik	-8.42819
▁kejadian	-8.43071
ro	-8.43344
▁digunakan	-8.43917
tan	-8.44401
▁menegaskan	-8.44407
▁Biden	-8.44409
▁Ter	-8.44414
▁Deng	-8.44497
▁kalau	-8.44658
▁ibu	-8.44704
▁ditemukan	-8.44716
▁Persib	-8.44716
▁Per	-8.44815
re	-8.4488
▁Bank	-8.44957
▁menuju	-8.44969
▁kapal	-8.45214
▁menambahkan	-8.45224
es	-8.45241
▁Nomor	-8.45336
▁berjalan	-8.45428
▁24	-8.45961
▁teknologi	-8.45976
▁hidup	-8.46092
▁V	-8.4615
▁peserta	-8.4646
E	-8.46462
sa	-8.46489
▁tewas	-8.46838
usia	-8.46903
▁Jatim	-8.46904
▁DKI	-8.47166
▁petugas	-8.47217
▁Jepang	-8.47232
▁aksi	-8.47233
asi	-8.47276
▁Baru	-8.47514
▁pers	-8.47579
ik	-8.47632
uh	-8.47673
▁rasa	-8.47912
▁25	-8.48109
▁Wali	-8.48542
▁Adapun	-8.48761
▁tahu	-8.4884
▁sempat	-8.48879
▁The	-8.48981
▁Salah	-8.48997
▁pemerintahan	-8.4909
▁Banten	-8.49317
gi	-8.49326
▁terutama	-8.49781
▁sebagian	-8.4979
▁musim	-8.49977
▁pemeriksaan	-8.50107
▁meraih	-8.50237
▁ketiga	-8.50361
▁Eropa	-8.50368
semakin	-8.50626
▁periode	-8.50695
▁sektor	-8.50776
ku	-8.50884
▁khusus	-8.50993
▁Pertamina	-8.51096
▁J	-8.51131
▁diberikan	-8.51185
▁Jenderal	-8.51287
▁Kemudian	-8.51388
▁6	-8.51465
▁of	-8.5162
▁ucap	-8.51691
▁Tak	-8.52118
ja	-8.52121
▁Program	-8.52247
▁Calon	-8.52312
▁jatim	-8.52349
mi	-8.52425
▁berinisial	-8.52547
▁Subianto	-8.52681
um	-8.52891
▁cepat	-8.52921
▁jam	-8.53029
▁cuaca	-8.53217
id	-8.53251
▁Dinas	-8.53258
▁memberi	-8.5327
▁korupsi	-8.53297
ut	-8.53323
▁mengikuti	-8.53352
▁22	-8.53369
negara	-8.53421
▁desa	-8.53756
ya	-8.53783
▁selalu	-8.53835
ni	-8.54021
▁membangun	-8.543
ab	-8.54536
▁bisnis	-8.54557
▁maka	-8.54575
▁perubahan	-8.54851
▁meningkat	-8.54977
▁rakyat	-8.55209
▁mendatang	-8.5525
▁Ma	-8.55462
▁23	-8.55564
▁disampaikan	-8.55668
▁video	-8.55753
▁jabar	-8.55943
▁usaha	-8.55959
▁terbaik	-8.56204
▁ikut	-8.56329
▁Jabar	-8.56411
▁mahasiswa	-8.56506
▁keputusan	-8.56577
f	-8.56806
ko	-8.56938
▁milik	-8.56966
▁kantor	-8.57114
▁Jateng	-8.57138
▁pertemuan	-8.57202
▁pemilihan	-8.57214
▁bentuk	-8.57249
▁mau	-8.57341
▁film	-8.57503
ia	-8.57518
de	-8.57649
▁27	-8.57699
▁tindakan	-8.57866
it	-8.57891
em	-8.57902
▁FC	-8.58193
▁Agung	-8.58322
il	-8.5878
▁kesempatan	-8.58795
▁kemenangan	-8.58888
▁nanti	-8.58968
▁perjalanan	-8.59101
▁hubungan	-8.59201
▁jauh	-8.59248
▁peningkatan	-8.59315
▁PBB	-8.59319
▁Su	-8.59582
Saya	-8.59653
▁terbaru	-8.59718
▁Tidak	-8.59781
Gibran	-8.59783
▁jenis	-8.59854
▁Gibran	-8.59995
▁udara	-8.60393
▁terpilih	-8.60538
▁dekat	-8.6056
▁posisi	-8.60578
▁membuka	-8.60611
▁Inggris	-8.6091
▁potensi	-8.61098
▁kurang	-8.61288
▁Dewan	-8.61371
z	-8.61375
▁memilih	-8.61484
▁enam	-8.61515
▁kuat	-8.61603
▁nilai	-8.61679
▁seusai	-8.61709
▁mengambil	-8.61731
▁bahan	-8.61807
▁Pak	-8.61899
▁komitmen	-8.61933
▁tinggal	-8.62289
▁daya	-8.623
tu	-8.62428
wa	-8.62508
▁kecil	-8.62575
▁menjalani	-8.6266
▁begitu	-8.62732
▁Si	-8.6281
▁Golkar	-8.62889
▁tenaga	-8.62968
▁De	-8.63043
▁UMKM	-8.6309
▁Denpasar	-8.63399
▁Hukum	-8.63474
▁pria	-8.63554
▁merasa	-8.63581
▁Warga	-8.63581
▁terlibat	-8.63697
▁Rumah	-8.63777
▁saksi	-8.63821
▁Pemilihan	-8.63911
▁memenuhi	-8.64372
▁melaporkan	-8.64406
ce	-8.64441
▁penuh	-8.64464
▁8	-8.64731
▁online	-8.649
▁pusat	-8.65049
ung	-8.65091
▁bidang	-8.65171
▁biasa	-8.65384
men	-8.65396
▁Jaya	-8.65406
▁poin	-8.6569
▁berdasarkan	-8.65713
et	-8.65883
un	-8.66004
▁PDIP	-8.66045
▁Dari	-8.66507
go	-8.66514
▁ditangkap	-8.66652
▁bagaimana	-8.66729
▁operasi	-8.67226
▁menit	-8.67317
▁fasilitas	-8.67444
▁gol	-8.67534
ber	-8.67659
▁satunya	-8.67708
▁khususnya	-8.67723
▁global	-8.67812
▁Menurutnya	-8.67889
▁Australia	-8.67974
▁laut	-8.6799
▁lembaga	-8.68031
▁turun	-8.68156
▁aman	-8.68215
▁ASN	-8.68224
▁sumber	-8.68232
▁maju	-8.6844
▁Raya	-8.68855
no	-8.68918
▁positif	-8.68986
▁sekarang	-8.68986
▁Gedung	-8.69145
▁digital	-8.69372
▁honorer	-8.69382
pi	-8.69491
▁Dunia	-8.69539
▁Riau	-8.69555
▁pekerja	-8.69976
▁Utama	-8.70026
▁banjir	-8.70039
▁menemukan	-8.70174
▁Budi	-8.70181
▁Perjuangan	-8.70183
masing	-8.70299
▁total	-8.70575
per	-8.7069
▁W	-8.70711
bi	-8.70735
▁Besar	-8.70901
▁keras	-8.71017
▁pagi	-8.71061
▁gubernur	-8.71376
▁penghargaan	-8.71537
▁bermain	-8.71716
▁unit	-8.71802
▁X	-8.71858
▁kekerasan	-8.7187
▁bali	-8.7302
▁setempat	-8.73109
▁hampir	-8.73166
▁pidana	-8.73494
▁Pelatih	-8.73717
▁La	-8.73786
▁lapangan	-8.74404
▁Dua	-8.74427
▁Republik	-8.74654
▁naik	-8.74658
▁antaranya	-8.7466
▁dampak	-8.74907
am	-8.74908
▁Yogyakarta	-8.74997
▁berita	-8.74998
▁masing	-8.75052
ba	-8.75148
▁Me	-8.75384
▁Pe	-8.75413
▁angka	-8.75459
▁26	-8.7554
▁menyebabkan	-8.75658
▁28	-8.76069
▁Ar	-8.76091
▁energi	-8.76173
lu	-8.76286
wan	-8.76298
▁ya	-8.76454
▁pemilih	-8.76565
▁namun	-8.76588
▁menjelang	-8.76676
▁menang	-8.76817
U	-8.7696
sepanjang	-8.77015
lo	-8.77306
▁sipil	-8.77355
▁Muhammad	-8.77473
me	-8.77584
▁29	-8.7777
▁sekali	-8.77814
▁DPRD	-8.77878
▁pelanggaran	-8.78088
mo	-8.78234
▁memperkuat	-8.78302
▁Joko	-8.78382
▁lintas	-8.78421
▁manusia	-8.78466
▁peran	-8.78616
▁menarik	-8.78655
▁lokal	-8.78735
▁Sa	-8.78764
▁menyebutkan	-8.78794
▁turut	-8.78908
bo	-8.79118
▁jalur	-8.79431
ki	-8.79601
▁jawab	-8.79766
▁fokus	-8.79774
▁berbeda	-8.79978
▁mencari	-8.80221
▁PDI	-8.80292
ran	-8.80366
▁tangan	-8.80468
▁Dan	-8.80512
▁menghadirkan	-8.80661
▁tapi	-8.80668
▁bertemu	-8.80772
▁mudah	-8.80807
▁perkara	-8.80845
▁kualitas	-8.80927
ca	-8.80958
▁sisi	-8.80998
▁benar	-8.81074
▁Kesehatan	-8.81282
ok	-8.81322
▁demikian	-8.81569
▁akses	-8.81654
▁narkoba	-8.81661
▁kemungkinan	-8.81739
▁Ka	-8.81982
▁kemarin	-8.82087
NG	-8.82091
▁demi	-8.82097
▁menciptakan	-8.82266
▁pasukan	-8.82315
▁bicara	-8.82537
▁Agus	-8.82558
▁Anak	-8.82683
▁target	-8.82758
▁dimulai	-8.82898
▁pen	-8.82921
▁kan	-8.83219
▁terdapat	-8.83267
▁diketahui	-8.83351
▁pengalaman	-8.83358
▁keuangan	-8.83533
ed	-8.83553
▁muncul	-8.83636
▁Widodo	-8.83806
▁keterangannya	-8.8383
▁menteri	-8.83914
▁dana	-8.83986
▁guna	-8.84027
▁Karena	-8.84033
▁pelaksanaan	-8.84132
▁ajang	-8.84182
▁Anggota	-8.8428
▁Sebelumnya	-8.84418
▁asing	-8.84459
ge	-8.84462
▁Le	-8.84514
▁Kerja	-8.8473
▁Luar	-8.84747
▁berat	-8.84829
▁UU	-8.84843
▁pembunuhan	-8.84846
▁isu	-8.84863
▁rencana	-8.84897
▁Dr	-8.84907
▁ruang	-8.85033
▁tuturnya	-8.85038
▁situasi	-8.8519
▁DPP	-8.85199
▁pengembangan	-8.85227
▁luas	-8.85516
▁kecelakaan	-8.85563
▁Lebih	-8.85568
▁pengguna	-8.85827
▁Kombes	-8.85835
▁disebut	-8.86019
do	-8.86039
▁Masyarakat	-8.86141
▁organisasi	-8.86164
▁Itu	-8.86292
▁pertumbuhan	-8.86301
▁dini	-8.86351
▁Pilpres	-8.8642
▁Bidang	-8.86585
▁Malang	-8.86613
▁Men	-8.86652
▁Laut	-8.86664
▁ilegal	-8.86677
▁produksi	-8.86822
▁Ba	-8.8691
▁Sumatera	-8.87068
▁Ra	-8.87084
▁Humas	-8.872
nilai	-8.87209
;	-8.87242
▁Aceh	-8.87246
▁pesawat	-8.87544
▁bernama	-8.87567
▁ucapnya	-8.87599
▁putusan	-8.87614
▁melaksanakan	-8.8762
▁mengumumkan	-8.87715
th	-8.87773
▁tubuh	-8.87798
▁tiba	-8.87831
▁diharapkan	-8.87906
▁c	-8.88192
▁in	-8.88225
▁panjang	-8.88286
▁api	-8.88516
▁emas	-8.88651
▁9	-8.88881
UNG	-8.89062
▁pe	-8.89201
▁II	-8.89203
▁diterima	-8.89246
▁Tangerang	-8.89246
▁tanggal	-8.89417
▁bangsa	-8.89555
▁area	-8.89621
▁dikenal	-8.9002
▁melibatkan	-8.90117
▁makan	-8.90323
▁apakah	-8.90332
diri	-8.90344
▁Bawaslu	-8.90406
▁Tri	-8.90409
▁usia	-8.9046
▁penyakit	-8.90613
▁aturan	-8.90639
co	-8.90682
▁AKBP	-8.908
▁Islam	-8.90814
▁pangan	-8.90914
O	-8.90937
▁Satu	-8.90951
▁Ali	-8.9098
▁tegas	-8.91068
▁Demokrat	-8.91073
han	-8.91088
▁SURABAYA	-8.91094
▁kepolisian	-8.91094
▁memimpin	-8.91094
▁makin	-8.91116
▁Pengadilan	-8.91192
▁Arab	-8.9123
▁meny	-8.91251
pa	-8.91303
ch	-8.91331
▁tujuan	-8.91381
▁kasih	-8.91414
▁PP	-8.91478
▁titik	-8.91527
▁sering	-8.91644
▁alias	-8.91685
▁budaya	-8.9171
▁Pendidikan	-8.91883
▁manfaat	-8.92004
▁tantangan	-8.9218
▁terlihat	-8.92584
▁alat	-8.92675
▁peluang	-8.9268
▁Sekretaris	-8.92682
▁lewat	-8.92703
▁re	-8.92872
▁Meski	-8.9297
▁Air	-8.93159
▁sidang	-8.93382
▁Kalau	-8.93404
▁Sebagai	-8.93475
▁sana	-8.93589
▁personel	-8.9368
gu	-8.93883
▁terbesar	-8.93892
▁pilihan	-8.94005
▁survei	-8.94198
▁bola	-8.94289
▁pasti	-8.94403
▁melanjutkan	-8.94591
▁a	-8.94606
▁tugas	-8.94663
▁tepat	-8.94724
▁dibandingkan	-8.94796
▁kepentingan	-8.94808
▁peng	-8.94958
▁anggaran	-8.94998
▁mencatat	-8.951
▁e	-8.95521
▁Kasus	-8.95646
▁berupa	-8.95696
▁31	-8.95732
▁triliun	-8.95818
▁bencana	-8.95819
▁proyek	-8.96032
▁berkomitmen	-8.96337
▁02	-8.96338
▁enggak	-8.96543
▁berasal	-8.96672
▁arah	-8.96679
▁tokoh	-8.96837
▁seleksi	-8.96957
▁mengajak	-8.96959
▁konflik	-8.96983
▁badan	-8.97013
▁tujuh	-8.97061
▁sang	-8.97138
▁aktif	-8.97223
ek	-8.97759
▁strategis	-8.97914
hi	-8.97917
▁01	-8.9812
▁pelayanan	-8.98121
mu	-8.98152
▁musik	-8.98216
tor	-8.98294
▁investasi	-8.9832
sama	-8.9851
ai	-8.98605
▁penjara	-8.9876
▁konferensi	-8.98957
▁Lampung	-8.98958
▁lahan	-8.99268
▁and	-8.99289
▁Palembang	-8.99381
▁terbuka	-8.99488
ic	-8.99572
▁sehat	-8.99776
▁Jerman	-8.99918
▁kinerja	-8.99926
▁luka	-8.99975
▁Mas	-9.00006
▁Pol	-9.00028
▁provinsi	-9.00141
▁formasi	-9.00154
▁Z	-9.00262
▁Na	-9.00366
▁dilaksanakan	-9.00454
▁mata	-9.00484
▁Oleh	-9.00598
▁dilaporkan	-9.00669
▁jelasnya	-9.00868
ne	-9.00938
▁DPD	-9.0097
ad	-9.01063
▁babak	-9.01104
▁solusi	-9.01214
▁penumpang	-9.01428
▁BMKG	-9.01487
ru	-9.01605
▁akun	-9.01699
▁Uni	-9.0172
▁Korupsi	-9.01764
▁alasan	-9.01993
▁Bekasi	-9.01993
▁BUMN	-9.02018
▁Pasal	-9.02066
▁tua	-9.02102
▁keluar	-9.02221
▁gratis	-9.02306
▁Nusantara	-9.02413
▁BRI	-9.02424
▁perdana	-9.02539
▁dianggap	-9.0268
▁pekerjaan	-9.02798
▁latihan	-9.02854
tujuan	-9.02906
▁penggunaan	-9.02977
▁berusaha	-9.03093
ha	-9.03139
▁tindak	-9.03166
▁sini	-9.03216
ju	-9.03529
▁kunjungan	-9.03545
▁100	-9.03675
▁Mo	-9.03724
▁aktivitas	-9.03741
▁ternyata	-9.03966
eberapa	-9.04039
▁biaya	-9.04077
▁Prancis	-9.04083
▁Mahkamah	-9.04083
▁pentingnya	-9.04302
▁sampah	-9.04412
▁Ibu	-9.04561
▁berupaya	-9.04914
▁mengungkap	-9.05086
▁Metro	-9.05206
▁pendaftaran	-9.05362
▁menolak	-9.05541
▁generasi	-9.05671
▁tampil	-9.05967
w	-9.05989
pe	-9.06047
▁siswa	-9.06109
▁jabatan	-9.06212
▁India	-9.06227
▁No	-9.06306
▁peristiwa	-9.06349
▁menangkap	-9.06572
▁aplikasi	-9.06822
▁final	-9.06846
▁ialah	-9.06998
▁wartawan	-9.07026
▁Ya	-9.07035
▁Ro	-9.07097
▁lagu	-9.07108
▁Kalimantan	-9.07141
▁Filipina	-9.07148
▁de	-9.07209
▁semangat	-9.07256
▁belakang	-9.07296
▁pesan	-9.07351
▁Gerindra	-9.07372
▁ditetapkan	-9.07372
▁jaringan	-9.07373
▁penyelidikan	-9.07404
▁Sumber	-9.07489
ji	-9.07533
▁hukuman	-9.0756
▁lantaran	-9.07603
▁demokrasi	-9.07876
▁03	-9.07976
▁sulit	-9.07978
uk	-9.0835
▁Prof	-9.08352
▁50	-9.08386
▁kematian	-9.08417
▁petani	-9.08421
▁Ramadan	-9.08535
▁Undang	-9.08571
▁hakim	-9.08597
▁Instagram	-9.08777
▁pelatih	-9.08799
V	-9.08824
▁pertahanan	-9.09003
▁Sebanyak	-9.09273
▁Li	-9.09337
▁pimpinan	-9.09356
▁tentu	-9.09366
▁Ilustrasi	-9.09373
dy	-9.0947
▁BAND	-9.09503
▁mengetahui	-9.09592
▁memenangkan	-9.09639
▁paslon	-9.09669
▁Berdasar	-9.09801
▁selatan	-9.0984
▁ancaman	-9.09947
▁Lebanon	-9.0996
▁siapa	-9.09975
yo	-9.1001
▁hati	-9.10144
▁ratusan	-9.10184
▁meskipun	-9.10192
wi	-9.10219
j	-9.10411
▁2025	-9.10444
▁signifikan	-9.10541
▁judi	-9.10542
▁Malaysia	-9.10568
▁Putih	-9.10661
▁ringan	-9.10663
▁komunitas	-9.10673
jateng	-9.10783
baru	-9.10903
▁kelas	-9.10938
▁ulang	-9.10939
▁Baswedan	-9.11019
▁menyediakan	-9.11019
▁perhatian	-9.11019
▁skor	-9.1103
▁MK	-9.1107
x	-9.11073
▁Hasil	-9.111
▁non	-9.11133
▁kolaborasi	-9.11147
▁Perdana	-9.11266
▁menghadiri	-9.11311
▁Da	-9.11395
▁PKB	-9.11403
▁HAM	-9.11446
▁mencegah	-9.115
▁menjabat	-9.11623
ong	-9.11818
jo	-9.11942
▁peringatan	-9.11983
▁kenaikan	-9.12104
▁menjalankan	-9.12104
▁Pasar	-9.1224
▁Korban	-9.1232
▁pem	-9.12551
za	-9.12602
▁dikutip	-9.1261
▁Tenggara	-9.12711
undang	-9.12743
▁JPNN	-9.12845
▁sedikit	-9.12872
▁Serang	-9.12938
▁gagal	-9.12958
▁Mu	-9.13023
▁Mantan	-9.1309
▁Meng	-9.13153
▁TPS	-9.13156
im	-9.13297
▁inovasi	-9.13341
▁pegawai	-9.13445
▁Gunung	-9.13448
▁juara	-9.13691
▁mengurangi	-9.13691
▁Keuangan	-9.13814
▁dokter	-9.13825
▁minggu	-9.14002
▁Paris	-9.14009
▁As	-9.14087
▁membutuhkan	-9.14184
▁Pa	-9.14187
ry	-9.14283
▁perbatasan	-9.14308
▁rapat	-9.1431
▁Kegiatan	-9.14617
▁platform	-9.14818
▁2023.	-9.14866
▁Pilgub	-9.14969
▁BBC	-9.15074
▁Pj	-9.15107
▁kekuatan	-9.15131
▁meluncurkan	-9.15201
▁izin	-9.15228
▁memutuskan	-9.15232
ci	-9.15279
▁terima	-9.15289
▁Suriah	-9.15308
▁berkelanjutan	-9.15429
▁Berikut	-9.15434
▁MotoGP	-9.15805
▁Ci	-9.15836
▁menewaskan	-9.15932
▁kemampuan	-9.15942
▁Orang	-9.15991
▁menunggu	-9.16064
▁Kapolres	-9.16138
au	-9.16193
▁Internasional	-9.16436
▁pendukung	-9.16487
▁jadwal	-9.16563
▁penyidik	-9.16619
▁boleh	-9.1672
▁bebas	-9.16747
▁delapan	-9.16817
▁New	-9.16819
▁vs	-9.16987
▁Ni	-9.17171
▁Kita	-9.17269
▁dibawa	-9.17323
▁Hasto	-9.17331
▁momen	-9.1748
▁membahas	-9.17581
▁konsumen	-9.17837
st	-9.18301
▁ANTARA	-9.18473
▁mengajukan	-9.18481
▁menekankan	-9.18503
▁tahap	-9.18536
▁Sebab	-9.18623
▁siang	-9.18633
▁Jika	-9.18642
▁Bagi	-9.18853
▁mencoba	-9.18872
▁Kedua	-9.19136
▁puluhan	-9.19177
▁menetapkan	-9.19284
▁Bandara	-9.1931
▁06	-9.19382
sari	-9.19502
▁Sulawesi	-9.19527
▁Grup	-9.19527
▁wisata	-9.19541
▁Nur	-9.19612
▁Ridwan	-9.1965
▁Pembangunan	-9.1965
itas	-9.19768
▁05	-9.19769
v	-9.19777
▁ketua	-9.19811
▁selesai	-9.19911
▁mengatasi	-9.19915
▁k	-9.19993
▁Bo	-9.20125
hari	-9.20151
▁Gus	-9.20178
▁Shin	-9.20241
▁Selama	-9.20249
▁sukses	-9.20364
▁Yang	-9.20392
▁kader	-9.20441
▁istri	-9.20517
ASAR	-9.20579
▁Wilayah	-9.20581
▁sejarah	-9.20596
▁tutur	-9.20648
▁risiko	-9.20725
▁kemanusiaan	-9.20832
▁menawarkan	-9.20833
bu	-9.20856
Y	-9.20896
▁teman	-9.20926
▁buah	-9.21134
▁Ja	-9.21173
▁pribadi	-9.21178
▁Saudi	-9.21233
ENP	-9.21259
▁mengeluarkan	-9.21762
▁IKN	-9.21771
▁justru	-9.21896
▁Center	-9.219
▁nyata	-9.2191
▁Rakabuming	-9.22029
▁04	-9.22085
▁menuturkan	-9.22163
▁debat	-9.22169
ck	-9.22193
fi	-9.22239
ud	-9.22275
▁mengakui	-9.22359
▁III	-9.22419
▁Rakyat	-9.22431
▁percaya	-9.22482
▁bersih	-9.22554
▁f	-9.22833
▁Begini	-9.22836
▁tertinggi	-9.22842
▁International	-9.22855
▁Tol	-9.22936
▁Raka	-9.2298
▁sore	-9.22986
▁kebakaran	-9.23105
▁agama	-9.23105
▁Peng	-9.2323
▁mengamankan	-9.23241
▁Y	-9.23252
▁Lu	-9.23349
▁Group	-9.23512
▁menyambut	-9.23512
▁gabungan	-9.23532
▁bangunan	-9.23623
▁kandidat	-9.23647
▁kabupaten	-9.23673
▁kalah	-9.23679
▁bagus	-9.2369
▁berkembang	-9.23784
▁Koordinator	-9.2392
▁mengembangkan	-9.2392
20	-9.23926
▁berlaku	-9.23962
▁Perempuan	-9.24068
bar	-9.24072
▁kehidupan	-9.24193
▁Ko	-9.24288
▁dasar	-9.24298
▁dinilai	-9.24307
▁meski	-9.2433
▁Thailand	-9.24487
▁sosok	-9.24491
▁bergabung	-9.24741
▁kesejahteraan	-9.24879
lain	-9.2506
▁lakukan	-9.25155
▁CPNS	-9.25207
elalui	-9.25279
▁foto	-9.25403
etika	-9.25405
son	-9.25421
laki	-9.25422
▁perkembangan	-9.25569
▁Airlangga	-9.25708
▁Abdul	-9.25709
▁kategori	-9.25749
ana	-9.25813
▁berbicara	-9.25847
eng	-9.25967
▁rangka	-9.2612
▁Sukabumi	-9.26126
▁meter	-9.26185
▁pemungutan	-9.2627
▁mengingatkan	-9.26422
▁08	-9.26448
▁bergerak	-9.26544
▁menyerang	-9.26553
pun	-9.26636
ns	-9.26697
▁Mar	-9.26736
▁pengelolaan	-9.26926
fa	-9.27063
▁perlindungan	-9.27106
▁terdampak	-9.2711
▁jiwa	-9.27133
▁mewujudkan	-9.27247
▁mitra	-9.27606
▁kabar	-9.27677
▁40	-9.27717
▁Forum	-9.27821
▁Taiwan	-9.27954
▁sepeda	-9.27997
▁Kali	-9.2807
min	-9.28073
▁diperkirakan	-9.28161
▁bus	-9.28228
▁Pertahanan	-9.2838
▁terdakwa	-9.2838
▁infrastruktur	-9.28523
▁arus	-9.28528
▁balik	-9.28584
ram	-9.28779
▁ribuan	-9.28847
▁rendah	-9.28859
▁Sumsel	-9.28884
▁Pelaku	-9.28906
▁pengawasan	-9.28972
▁sebenarnya	-9.29097
▁truk	-9.29165
▁07	-9.29168
▁Sri	-9.29219
▁pemilik	-9.29241
▁pelatihan	-9.29346
▁Olimpiade	-9.29384
▁Acara	-9.29425
▁jajaran	-9.29522
▁hilang	-9.29528
▁Hotel	-9.29532
▁klub	-9.29557
▁sabu	-9.2959
▁berbasis	-9.29817
▁tambahan	-9.2984
▁Kelurahan	-9.29961
▁Khusus	-9.29975
▁seharusnya	-9.30251
▁insiden	-9.30265
▁Pasangan	-9.30293
▁Medan	-9.30315
pan	-9.30414
▁Muda	-9.30538
▁pajak	-9.30544
tik	-9.30552
▁rudal	-9.30571
▁perdagangan	-9.30688
▁Tanah	-9.30708
▁meninggalkan	-9.30716
▁tema	-9.30799
mcr	-9.30834
Ini	-9.30857
▁2022	-9.3091
▁El	-9.30938
▁Adi	-9.3095
▁09	-9.31013
▁Lebaran	-9.31128
adi	-9.3117
benar	-9.31201
▁puncak	-9.31292
▁putra	-9.31355
▁Pemain	-9.31423
asa	-9.31466
▁gelar	-9.3147
vi	-9.31501
▁strategi	-9.31546
▁menyiapkan	-9.31567
▁berpotensi	-9.31579
▁pilkada	-9.31583
▁kesepakatan	-9.31714
▁melanggar	-9.31715
up	-9.31731
tar	-9.3176
▁minyak	-9.31862
▁kalangan	-9.31863
▁daftar	-9.3192
/2024).	-9.31946
▁karya	-9.31975
▁Te	-9.32175
ol	-9.32192
▁maksimal	-9.32305
▁pelanggan	-9.32305
▁ahli	-9.32306
▁darah	-9.3231
▁Garuda	-9.32317
▁terlalu	-9.32454
▁merah	-9.32501
▁didukung	-9.32603
▁Hizbullah	-9.32616
▁perawatan	-9.32646
▁Wa	-9.3266
▁for	-9.32698
▁tiket	-9.32753
kar	-9.32869
▁berdampak	-9.329
▁kulit	-9.32901
hu	-9.32946
▁si	-9.32987
▁Dewi	-9.33071
▁buruk	-9.332
▁utara	-9.332
▁Kemenkumham	-9.33238
▁selaku	-9.33262
dar	-9.33486
▁Tinggi	-9.33514
▁memicu	-9.33649
▁Megawati	-9.3365
▁status	-9.3378
▁KOTA	-9.33799
▁menyelesaikan	-9.33799
▁senior	-9.33816
▁Harga	-9.33838
▁b	-9.33984
▁PKS	-9.34146
RI	-9.34205
▁Co	-9.34285
▁sanksi	-9.34293
▁m	-9.34294
▁jangan	-9.34333
▁Lalu	-9.3443
▁harapan	-9.34517
▁paket	-9.34561
tra	-9.34565
▁Be	-9.34597
X	-9.34653
▁alam	-9.34686
▁permintaan	-9.34858
▁Kaesang	-9.3501
▁Keamanan	-9.3501
▁Banyak	-9.35071
▁menyerahkan	-9.35097
▁Vietnam	-9.35163
▁penanganan	-9.35163
kota	-9.35167
▁Wi	-9.35298
▁kursi	-9.35316
▁mendesak	-9.35319
▁syarat	-9.3537
hadiri	-9.35454
▁melindungi	-9.35468
mp	-9.35574
▁diselenggarakan	-9.35622
▁serius	-9.35637
▁Pen	-9.35714
ap	-9.35725
-19	-9.35769
▁Operasi	-9.35798
▁Kamil	-9.3583
om	-9.35843
▁sikap	-9.36087
PP	-9.36087
ker	-9.36096
Penjabat	-9.36105
hal	-9.36231
▁Khofifah	-9.36236
cu	-9.36346
▁kompetisi	-9.36391
▁diikuti	-9.36392
▁iklim	-9.36545
▁mencetak	-9.36545
▁tertentu	-9.36545
▁pengadilan	-9.367
▁awak	-9.36748
▁kejahatan	-9.36875
▁penerbangan	-9.3701
▁saling	-9.37016
▁tambah	-9.37081
os	-9.37088
▁menambah	-9.37131
▁ungkapnya	-9.37294
ton	-9.37328
▁visi	-9.37343
▁Harris	-9.37659
▁Padang	-9.37719
▁antar	-9.37828
▁AKP	-9.37914
▁tentara	-9.37947
▁Pulau	-9.37949
▁misi	-9.37988
▁gram	-9.38008
▁Juru	-9.38018
▁Apa	-9.38194
▁Pemkot	-9.3824
▁mengapresiasi	-9.38261
▁panas	-9.38268
▁Ekonomi	-9.38293
▁mencakup	-9.38419
▁Ri	-9.38419
▁menimbul	-9.3842
▁Film	-9.38422
▁MPR	-9.38498
▁unggul	-9.38707
▁Sleman	-9.38893
san	-9.3893
ly	-9.38977
▁Senayan	-9.39051
▁yakin	-9.39058
▁City	-9.39079
AS	-9.39082
:00	-9.3914
!	-9.39177
▁Makassar	-9.39369
▁perjanjian	-9.39369
▁pertanian	-9.39369
▁Putra	-9.39369
▁sehari	-9.39411
▁laki	-9.39522
▁beras	-9.39702
▁Lembaga	-9.39722
▁Irjen	-9.39849
ling	-9.40156
▁Meskipun	-9.40227
▁wali	-9.40268
▁penjualan	-9.40293
▁dipimpin	-9.40297
▁memanfaatkan	-9.40489
▁kepemimpinan	-9.4065
▁penyebab	-9.40651
ting	-9.40758
▁mati	-9.40761
▁kilometer	-9.40811
▁Kampung	-9.40815
▁Go	-9.40842
▁berawan	-9.40917
▁Siap	-9.41076
nda	-9.41081
▁Polresta	-9.41134
▁olahraga	-9.41135
▁gugatan	-9.41135
▁putih	-9.41165
▁komunikasi	-9.41328
▁Merah	-9.41329
▁tuduhan	-9.41459
▁An	-9.41518
▁He	-9.41601
be	-9.41645
▁tambahnya	-9.41742
▁mengingat	-9.4178
/2024	-9.41782
▁impor	-9.41784
▁operasional	-9.4179
ambil	-9.41821
ger	-9.41986
▁Batu	-9.41992
▁AI	-9.42173
ejumlah	-9.42371
▁ditahan	-9.42445
Mahfud	-9.42559
▁pencarian	-9.42695
▁diambil	-9.42752
▁Pria	-9.42764
▁bank	-9.42765
▁rokok	-9.42767
sh	-9.42887
▁Serangan	-9.42889
▁berisi	-9.42921
der	-9.42959
▁Sejak	-9.42996
▁Bu	-9.43089
▁VOA	-9.43112
so	-9.43168
▁Informasi	-9.43212
▁rutin	-9.43253
▁apresiasi	-9.43262
▁memasuki	-9.43262
▁merilis	-9.43262
▁uji	-9.43264
▁gempa	-9.4327
▁parlemen	-9.43283
▁tampak	-9.43345
nas	-9.4345
ser	-9.43499
▁transaksi	-9.43594
▁medis	-9.43609
Di	-9.43652
▁penelitian	-9.43717
▁kehilangan	-9.4376
▁bupati	-9.43761
du	-9.43848
▁Andi	-9.43907
▁Washington	-9.43926
▁peringkat	-9.43926
▁Mandiri	-9.43937
▁barat	-9.43959
▁aku	-9.43964
▁Perusahaan	-9.44093
▁diskusi	-9.44093
▁ekspor	-9.44098
▁laman	-9.44192
▁persiapan	-9.4426
▁angin	-9.44261
▁mesin	-9.44309
▁Tae	-9.44342
Undang	-9.44399
▁to	-9.44495
▁dibuka	-9.44596
▁juru	-9.44761
▁Iskandar	-9.44762
▁putaran	-9.44763
▁Ga	-9.44764
▁Eri	-9.44768
▁dokumen	-9.44782
▁penduduk	-9.44864
▁menjawab	-9.4493
▁tercatat	-9.4493
▁mengalahkan	-9.44931
pen	-9.44998
rs	-9.45069
▁dulu	-9.45103
▁suami	-9.45192
tri	-9.4523
▁Donald	-9.45436
▁haji	-9.4548
▁Pantai	-9.45607
▁Putri	-9.45609
▁mengubah	-9.45616
▁libur	-9.45662
▁berakhir	-9.45734
▁kaki	-9.4579
isasi	-9.45896
▁Ge	-9.45921
lin	-9.45923
▁sembilan	-9.45945
▁ketat	-9.45965
▁berkontribusi	-9.46115
▁penegak	-9.46115
▁tata	-9.46206
tif	-9.46304
▁minuman	-9.46385
▁gedung	-9.46492
▁selamat	-9.46498
su	-9.46604
▁Lingkungan	-9.46627
▁fisik	-9.46627
ve	-9.46646
▁Persis	-9.46648
▁Hujan	-9.46671
▁obat	-9.46673
▁Pemkab	-9.46757
▁eks	-9.46865
▁Nusa	-9.4687
▁biasanya	-9.46911
▁penangkapan	-9.4697
▁Ta	-9.4701
▁Pemprov	-9.47067
▁mudik	-9.47142
▁mengusung	-9.47143
▁menurunkan	-9.47162
▁Petugas	-9.47344
bagai	-9.47347
▁memulai	-9.47486
▁pertanyaan	-9.47505
▁tuan	-9.47577
▁Politik	-9.47623
▁Karawang	-9.4766
▁kehadiran	-9.47832
▁Hakim	-9.47838
▁al	-9.47935
▁memungkinkan	-9.48005
suatu	-9.48024
Per	-9.48086
▁Festival	-9.48179
▁Kejaksaan	-9.48179
▁Joe	-9.48272
ot	-9.48274
-23	-9.48354
▁sepak	-9.48355
▁segala	-9.48466
ada	-9.48478
▁Pemberantasan	-9.48527
▁kepercayaan	-9.48527
▁berarti	-9.48566
▁pro	-9.48604
0.000	-9.48658
▁pulang	-9.4874
pol	-9.48839
MI	-9.48842
▁Kepulauan	-9.48876
▁pantai	-9.48876
▁oknum	-9.48911
sabu	-9.49198
▁perwakilan	-9.49228
▁membeli	-9.49244
▁Daya	-9.49263
▁undang	-9.49356
▁bayi	-9.49404
▁2019	-9.4942
lt	-9.49454
▁Pem	-9.49491
▁kapasitas	-9.49578
▁kereta	-9.49579
▁Bambang	-9.4962
▁Madura	-9.49756
▁hutan	-9.49762
jumlah	-9.49779
Ke	-9.49779
▁Surat	-9.49833
▁Pranowo	-9.49932
▁gencatan	-9.49932
▁Pertama	-9.49975
▁Ha	-9.50059
▁longsor	-9.50109
▁terbukti	-9.50124
▁perekonomian	-9.50463
▁persoalan	-9.50487
▁menghentikan	-9.50641
▁Hingga	-9.50664
▁Mahfud	-9.50689
▁ton	-9.5071
▁Dwi	-9.50733
▁In	-9.50769
▁Ari	-9.50777
▁SEMARA	-9.5082
▁ditemui	-9.50821
▁hewan	-9.50823
▁Polsek	-9.50824
▁Natal	-9.50837
▁diamankan	-9.51003
▁Indra	-9.51186
▁praktik	-9.51233
▁Mi	-9.51296
▁2023,	-9.51344
▁teknis	-9.51356
▁Afrika	-9.5136
▁CEO	-9.5136
▁menentukan	-9.51385
▁memperoleh	-9.51537
▁Imigrasi	-9.51542
ding	-9.51554
▁keduanya	-9.51592
▁anti	-9.51703
▁fitur	-9.51772
va	-9.51775
rah	-9.51858
▁mengunjungi	-9.51896
▁belajar	-9.51897
▁Persebaya	-9.51897
las	-9.51903
ny	-9.51937
▁coba	-9.51983
dampingi	-9.52048
akan	-9.52225
▁damai	-9.52258
▁Bakal	-9.52274
jang	-9.52281
▁pengamanan	-9.52285
▁Pro	-9.52289
▁tulis	-9.52311
▁Tapi	-9.52373
gan	-9.52502
▁Guru	-9.52518
he	-9.52538
▁pengungsi	-9.52538
▁atlet	-9.52641
▁kampus	-9.52676
▁tangga	-9.52742
ft	-9.528
▁anaknya	-9.52804
▁dibuat	-9.5284
▁faktor	-9.52855
▁buku	-9.52891
▁Sosial	-9.52976
▁mengonsumsi	-9.52984
▁mengadakan	-9.52984
Se	-9.53012
ani	-9.53039
ho	-9.53046
mar	-9.53063
mas	-9.53067
▁aset	-9.53073
sen	-9.53184
▁putri	-9.53231
▁kerap	-9.53273
▁bertajuk	-9.53349
▁the	-9.53435
▁Pelabuhan	-9.53532
▁60	-9.53697
▁khawatir	-9.53751
▁dahulu	-9.539
▁berwenang	-9.53939
Jadi	-9.5395
▁kementerian	-9.54106
rata	-9.54251
▁Kepolisian	-9.54268
▁Surakarta	-9.54268
▁efektif	-9.54457
▁SAR	-9.54553
▁menghasilkan	-9.54638
▁aparat	-9.54643
▁era	-9.54651
▁capres	-9.54681
▁Angkatan	-9.54699
▁Beijing	-9.54824
▁berperan	-9.54982
▁timur	-9.55068
▁menjadikan	-9.55075
▁beroperasi	-9.55221
▁darurat	-9.55382
▁penurunan	-9.55382
▁rusak	-9.55383
▁konten	-9.55428
▁standar	-9.55436
▁batas	-9.55464
▁Konstitusi	-9.55569
▁Peraturan	-9.55572
▁kanan	-9.55595
▁News	-9.55632
▁Turki	-9.55764
▁bahasa	-9.55827
▁kerugian	-9.55944
apa	-9.55996
▁Industri	-9.56008
-20	-9.56026
▁Ayu	-9.56098
▁seksual	-9.56132
▁pasien	-9.56132
tas	-9.56207
▁menanggapi	-9.56324
▁Akan	-9.56333
▁prioritas	-9.56335
▁hitam	-9.56509
▁Digital	-9.56521
▁gas	-9.56536
▁RS	-9.56558
.30	-9.56613
▁Jasa	-9.56713
▁senang	-9.56754
ent	-9.56777
ine	-9.56878
▁Kelompok	-9.56888
▁Sungai	-9.56888
▁kemajuan	-9.56888
▁Yu	-9.5698
isi	-9.57071
▁Netanyahu	-9.57077
▁diperlukan	-9.57077
▁Masjid	-9.57078
▁beragam	-9.57145
▁pula	-9.57234
▁menengah	-9.57268
▁pengusaha	-9.5727
antara	-9.57358
▁memahami	-9.57458
▁Layanan	-9.57458
▁mempertahankan	-9.57458
▁layak	-9.5746
▁serupa	-9.57463
▁Sekolah	-9.57649
▁grup	-9.5765
▁Pekanbaru	-9.57653
▁menyoroti	-9.57854
▁jasa	-9.57859
rd	-9.57982
▁MA	-9.58002
▁Putin	-9.58035
▁Teknologi	-9.58044
▁kerusakan	-9.58224
▁lanjutnya	-9.58247
▁klaim	-9.58254
▁keadaan	-9.58418
▁Tiga	-9.58445
▁Qatar	-9.58609
▁rangkaian	-9.58619
▁Pertanian	-9.58802
▁membentuk	-9.5881
KPU	-9.58865
▁lawan	-9.5896
▁pendapatan	-9.58993
▁kecamatan	-9.58995
▁jatuh	-9.59016
▁pohon	-9.59193
▁Har	-9.59265
jam	-9.59311
▁menerapkan	-9.59383
▁selanjutnya	-9.59383
▁mundur	-9.59384
▁g	-9.59424
▁diserta	-9.59496
▁penyelenggaraan	-9.59573
▁wanita	-9.59578
▁Gelar	-9.59582
▁pengunjung	-9.59584
▁Keluarga	-9.59776
▁Erick	-9.59788
▁Fa	-9.59878
▁Bersama	-9.59883
▁dinyatakan	-9.59968
▁bertahan	-9.59968
▁Kelas	-9.60027
par	-9.60052
▁Rai	-9.60066
▁te	-9.6007
▁Direktorat	-9.60163
▁Spanyol	-9.60175
▁Pimpinan	-9.60203
tasi	-9.60302
▁tanggung	-9.60333
▁bertanggung	-9.60408
▁tahanan	-9.60499
▁zona	-9.60507
▁Persija	-9.60556
▁berubah	-9.60585
▁tekanan	-9.60759
▁nyaman	-9.60765
▁sesuatu	-9.6094
▁setidaknya	-9.60951
▁Anwar	-9.6096
▁karyawan	-9.60971
▁kunci	-9.61189
▁Lo	-9.61256
▁warna	-9.61317
▁kekuasaan	-9.61346
tis	-9.61382
bang	-9.6139
▁kontra	-9.61501
▁berkualitas	-9.61544
▁Tbk	-9.61544
ASN	-9.61572
▁nantinya	-9.61579
▁Kaltim	-9.61583
▁tanda	-9.61743
▁peraturan	-9.6175
▁2026	-9.61765
▁Soal	-9.61825
▁pengiriman	-9.61942
▁transportasi	-9.61942
▁remaja	-9.62144
▁Ho	-9.62148
▁buat	-9.62164
▁Agama	-9.62172
50	-9.62175
AN	-9.62185
▁2020	-9.62206
ara	-9.62272
ty	-9.62294
▁nasabah	-9.62342
▁tumbuh	-9.62368
▁lengkap	-9.62433
▁Kapolda	-9.62542
▁Militer	-9.62542
▁Mem	-9.62812
ajelis	-9.62936
▁manajemen	-9.62944
▁permohonan	-9.62944
▁pemuda	-9.63348
▁Karno	-9.63377
15	-9.63418
if	-9.63527
▁la	-9.63535
▁profesional	-9.63546
▁Bi	-9.63689
tek	-9.6375
▁ekosistem	-9.63753
▁Ting	-9.63808
▁Balai	-9.63825
▁Media	-9.6384
KPK	-9.63852
▁dibutuhkan	-9.63956
▁bunga	-9.63957
▁penetapan	-9.63964
▁tadi	-9.63993
▁umat	-9.64043
10	-9.64081
▁situs	-9.64109
▁usai	-9.64161
▁Jalur	-9.64166
▁mengimbau	-9.64178
▁Pos	-9.64192
▁rekomendasi	-9.64264
▁Tu	-9.64291
▁Sekjen	-9.64423
tur	-9.64448
▁ikan	-9.6448
▁apabila	-9.64569
nan	-9.64602
tang	-9.64663
▁Ade	-9.64758
tahun	-9.64777
▁Sakit	-9.64781
▁Kediri	-9.64851
▁prinsip	-9.64888
bel	-9.64914
▁pabrik	-9.64957
▁Bung	-9.64968
▁Singapura	-9.64979
▁kalinya	-9.64993
angan	-9.65118
▁Je	-9.65122
▁Data	-9.6517
▁Borneo	-9.65185
▁aktivis	-9.65185
▁Jumlah	-9.65248
▁Irak	-9.6525
ita	-9.65306
▁agenda	-9.6532
▁Unit	-9.65324
▁membayar	-9.65396
:30	-9.65406
▁Emas	-9.65427
▁perbaikan	-9.65598
▁merayakan	-9.65598
▁semuanya	-9.65784
▁nuklir	-9.65804
▁persidangan	-9.65804
▁Seperti	-9.65867
yang	-9.65899
▁So	-9.65917
▁elektabilitas	-9.66012
▁Taman	-9.66074
▁ibadah	-9.6622
▁logistik	-9.6622
▁Setiawan	-9.66223
▁Pihak	-9.66293
▁ka	-9.66327
▁kiri	-9.66367
▁PSI	-9.66424
▁wajib	-9.66428
▁NTB	-9.66526
ari	-9.6655
▁Meteorologi	-9.66637
▁swasta	-9.66637
▁Tanjung	-9.66642
▁Rapat	-9.66645
▁World	-9.66659
ban	-9.66673
▁Haji	-9.6686
▁pelajar	-9.67026
ver	-9.67034
▁Semua	-9.67037
ten	-9.67041
gen	-9.67105
▁Kanwil	-9.67127
▁Pasalnya	-9.67331
▁identitas	-9.67476
▁sungai	-9.67476
▁perayaan	-9.67477
▁berikutnya	-9.67497
▁lancar	-9.67533
dik	-9.67627
▁menampilkan	-9.67687
hati	-9.67694
▁HUT	-9.67783
▁Karya	-9.67786
▁alami	-9.67805
▁seseorang	-9.67899
letak	-9.67963
▁pemberian	-9.67968
▁lihat	-9.68017
▁gerakan	-9.68025
ham	-9.68089
▁Departemen	-9.68111
▁Gianyar	-9.68111
▁bersenjata	-9.68123
anto	-9.68164
ment	-9.68174
▁fakta	-9.68174
▁keselamatan	-9.68323
▁catatan	-9.68324
▁minta	-9.68327
▁berencana	-9.68361
▁ko	-9.68369
▁gaji	-9.68435
teman	-9.68466
pas	-9.68494
▁kelahiran	-9.68536
▁ketentuan	-9.68536
ie	-9.6859
▁Bangsa	-9.68663
▁Cuaca	-9.68749
▁mengakibat	-9.68756
▁Maju	-9.68784
▁Ad	-9.68814
▁permasalahan	-9.68963
apten	-9.68963
▁mempunya	-9.68963
▁Polrestabes	-9.68967
▁Kapal	-9.68968
▁BPBD	-9.6914
▁memperkenalkan	-9.69177
▁Muslim	-9.6918
▁perangkat	-9.69207
▁Aksi	-9.69248
▁Ti	-9.69331
▁diminta	-9.69355
▁jarak	-9.69392
▁memeriksa	-9.69397
▁bakar	-9.69408
▁Marc	-9.69467
war	-9.6952
▁kontribusi	-9.69606
▁menangani	-9.69629
har	-9.6966
ner	-9.69672
▁mendaftar	-9.69695
dang	-9.69714
kelompok	-9.69716
▁Sudah	-9.69768
▁sa	-9.6981
▁militan	-9.69823
PI	-9.69825
▁Martin	-9.69867
▁menutup	-9.69904
▁Bahkan	-9.69978
▁Ben	-9.70005
▁diperiksa	-9.70039
▁model	-9.70108
▁sejauh	-9.70118
▁Sebelum	-9.70144
▁Jogja	-9.70211
▁mengakhiri	-9.70257
▁lahir	-9.70267
▁wisatawan	-9.7028
▁tertulis	-9.70322
▁Dewa	-9.70394
▁pasca	-9.70424
▁Mahasiswa	-9.70471
▁permainan	-9.70471
▁misalnya	-9.70471
▁Tetapi	-9.70528
AP	-9.70614
▁jangka	-9.70614
res	-9.70666
▁Penghargaan	-9.70734
▁PSIS	-9.70751
▁Atas	-9.70825
▁Perang	-9.70831
▁Imam	-9.70916
▁dr	-9.71055
▁tes	-9.71118
▁hijau	-9.71125
▁tarif	-9.71135
▁pa	-9.71222
my	-9.71238
▁klasemen	-9.71344
▁Usaha	-9.71345
▁berkolaborasi	-9.71348
▁Kampanye	-9.71431
▁ASEAN	-9.71563
▁Ratusan	-9.71568
▁Arema	-9.71569
▁Bantul	-9.71637
▁Tersangka	-9.71651
▁Bisa	-9.71714
▁MD	-9.71727
▁Kompol	-9.71779
▁Kawasan	-9.71783
▁plastik	-9.71802
▁tunggal	-9.71819
▁Pemuda	-9.72003
▁Keputusan	-9.72031
▁Mobil	-9.72105
▁Bantuan	-9.72203
▁aspek	-9.72229
rat	-9.72412
▁kilogram	-9.72445
▁menghindari	-9.72478
Persero	-9.72559
▁koordinasi	-9.72667
▁Lapangan	-9.72668
▁perdamaian	-9.72686
▁Jo	-9.72724
▁dilansir	-9.72748
langkah	-9.72999
▁internal	-9.73114
▁sesi	-9.73165
Jokowi	-9.73245
▁gangguan	-9.73336
▁Man	-9.73368
▁PSS	-9.73588
po	-9.73638
▁Hasan	-9.73723
▁jenazah	-9.73783
▁mempersiapkan	-9.73783
▁konsep	-9.73817
den	-9.73866
▁Motor	-9.73903
▁Komunikasi	-9.74008
▁University	-9.74008
▁sandera	-9.74008
▁York	-9.74008
▁Gu	-9.74028
▁Laporan	-9.74083
Z	-9.74141
▁kontrak	-9.74201
▁tren	-9.74213
▁Pakistan	-9.74233
▁pembayaran	-9.74233
▁Belanda	-9.74236
▁BBM	-9.74358
▁Am	-9.74364
▁Ku	-9.74386
▁menargetkan	-9.74551
▁buka	-9.746
▁berjudul	-9.74685
▁berangkat	-9.74687
▁supaya	-9.747
▁sosialisasi	-9.74823
▁Ketenagakerjaan	-9.74911
▁Pengamat	-9.74913
lis	-9.74917
▁Juanda	-9.74921
▁perintah	-9.74944
▁tahapan	-9.75043
tengah	-9.75135
▁membantah	-9.75139
▁regulasi	-9.75139
▁dibangun	-9.75139
▁sukarelawan	-9.75141
▁Do	-9.75168
sel	-9.75248
jm	-9.75278
eofisika	-9.75367
▁menuntut	-9.75367
▁semifinal	-9.75367
▁menuduh	-9.75368
▁beliau	-9.75375
HO	-9.7544
satunya	-9.7544
▁Kim	-9.75578
▁To	-9.75598
23	-9.75617
▁toko	-9.75662
▁mengirimkan	-9.75665
▁saudara	-9.75729
▁merasakan	-9.75742
▁bilang	-9.75773
▁Ngurah	-9.75824
▁nelayan	-9.75824
▁pariwisata	-9.75824
▁skuad	-9.75824
▁tersedia	-9.75824
▁seni	-9.75839
ris	-9.76026
▁krisis	-9.76053
▁sela	-9.76099
▁massa	-9.76251
▁bertugas	-9.76311
▁kampung	-9.76342
▁fungsi	-9.76367
pu	-9.76375
▁suaminya	-9.76387
▁perjuangan	-9.76534
▁Nana	-9.76543
▁Arya	-9.76544
▁berhenti	-9.76545
SK	-9.76625
▁penyelenggara	-9.7675
▁drone	-9.76783
▁Klimatologi	-9.76976
▁pintu	-9.7698
ARTA	-9.76995
bah	-9.77008
▁ayah	-9.77095
ye	-9.77165
▁Gelora	-9.77208
▁menikmati	-9.77208
▁merespons	-9.77208
▁mengenakan	-9.77208
▁adat	-9.77256
▁Dedi	-9.77348
▁mengawal	-9.774
ster	-9.77412
▁batu	-9.7746
▁Mulai	-9.77467
▁ekstrem	-9.77476
▁protes	-9.7748
▁35	-9.7749
▁Sumut	-9.7757
mat	-9.77696
▁Her	-9.77737
RB	-9.77819
▁dinas	-9.77848
▁Suara	-9.77928
tidak	-9.77968
▁ge	-9.78087
▁YOGYAK	-9.78141
▁memperingatkan	-9.78141
▁turnamen	-9.78141
▁Manusia	-9.78165
▁RUU	-9.78227
gal	-9.78375
▁viral	-9.78376
▁kekhawatiran	-9.78376
▁pameran	-9.7841
▁lulus	-9.78618
▁PSSI	-9.78641
▁menyerukan	-9.78645
▁Sebut	-9.78823
▁sasaran	-9.78847
▁SMA	-9.78856
awan	-9.78943
▁tersebar	-9.79086
▁kuasa	-9.7909
▁menganggap	-9.79096
unjuk	-9.79098
▁rekan	-9.791
▁Ju	-9.7924
tel	-9.79281
▁dilantik	-9.79321
▁edukasi	-9.79343
▁Andika	-9.79373
▁David	-9.79419
▁Jember	-9.79559
▁Mesir	-9.79565
kah	-9.79652
▁diberi	-9.79657
ina	-9.7966
dan	-9.79745
▁terjadinya	-9.79774
▁Istana	-9.79798
isme	-9.79894
▁Maluku	-9.80035
▁hendak	-9.80035
▁diajukan	-9.80036
▁melanda	-9.80288
▁Sidoarjo	-9.80289
enjelang	-9.80506
▁hotel	-9.80514
▁serentak	-9.80514
▁upacara	-9.80514
▁pencurian	-9.80565
guruan	-9.80606
tion	-9.80728
ngan	-9.8075
▁perairan	-9.80754
▁pasokan	-9.80812
▁PPP	-9.80838
▁doa	-9.80897
ian	-9.80992
▁investor	-9.80995
▁Gen	-9.80999
▁tambang	-9.80999
▁St	-9.81026
yanto	-9.81066
▁terang	-9.81082
▁dirancang	-9.81131
▁Idulfitri	-9.81237
▁memperluas	-9.81238
kat	-9.81241
▁konser	-9.81243
▁pendapat	-9.81244
▁meliputi	-9.81272
ag	-9.81369
▁akrab	-9.8138
▁mayoritas	-9.81479
▁KM	-9.81491
▁Jangan	-9.81632
▁pergi	-9.81667
▁kamar	-9.81731
▁200	-9.81857
mer	-9.81872
▁konsisten	-9.81915
▁penonton	-9.81965
▁dialami	-9.81967
▁lebat	-9.81968
▁diadakan	-9.81977
▁Belum	-9.82024
wo	-9.82061
KP	-9.82095
▁Hadi	-9.82145
▁merek	-9.82176
▁peroleh	-9.8222
▁Open	-9.82245
▁mendengar	-9.82351
Kalau	-9.82407
▁Rafah	-9.82455
▁Bicara	-9.82459
▁on	-9.82465
▁halaman	-9.82493
▁Lapas	-9.82516
▁Hadir	-9.82543
▁penyidikan	-9.8259
▁timnya	-9.82612
▁koalisi	-9.82698
▁pokok	-9.82698
▁susu	-9.82707
▁tamu	-9.8271
▁migran	-9.82746
▁Langkah	-9.82755
▁DIY	-9.82873
▁sebagaimana	-9.82882
▁Diketahui	-9.82944
▁Akbar	-9.82948
▁2025.	-9.82955
▁mengucapkan	-9.82967
▁menahan	-9.82971
rak	-9.82989
▁keberadaan	-9.8319
▁mengandung	-9.83191
▁Rizky	-9.83191
▁WITA	-9.83198
▁Badung	-9.83203
▁administrasi	-9.83206
▁terlebih	-9.83212
▁Ru	-9.83221
▁Is	-9.8326
▁keluarganya	-9.83378
▁penganiayaan	-9.83437
▁Terkait	-9.83497
▁Myanmar	-9.83685
▁dijadwalkan	-9.83685
▁meyakini	-9.83685
▁Capres	-9.83731
annya	-9.83784
▁daring	-9.83879
hak	-9.83915
▁Parlemen	-9.83933
▁Reskrim	-9.83933
▁Kasat	-9.83959
▁berbagi	-9.83997
▁lepas	-9.84062
lang	-9.84161
▁respons	-9.84175
▁Gresik	-9.84182
▁Jadwal	-9.84207
tiba	-9.84415
▁maaf	-9.84436
▁pakar	-9.84464
▁Proses	-9.84496
▁istrinya	-9.84535
11	-9.84614
▁TikTok	-9.84681
▁berjuang	-9.84681
▁kartu	-9.84682
▁Sidang	-9.84701
▁Paus	-9.84752
▁besert	-9.84759
yu	-9.84774
angka	-9.84808
▁Luthfi	-9.84932
▁beredar	-9.84932
16	-9.84937
▁sebut	-9.85152
▁Hi	-9.85156
▁berlanjut	-9.85183
▁kesulitan	-9.85183
▁mengatur	-9.85221
awa	-9.85226
▁Kondisi	-9.85229
▁komentar	-9.85229
▁Ketum	-9.85249
▁bumi	-9.8531
▁Dn	-9.85318
ali	-9.85341
▁500	-9.85346
▁pernikahan	-9.85435
▁Tingkat	-9.85442
▁Tewas	-9.85442
▁instansi	-9.85446
▁Bencana	-9.85456
▁KAI	-9.85666
tal	-9.85705
▁rata	-9.85719
17	-9.85721
ron	-9.85759
▁bintang	-9.85806
af	-9.85838
▁Arif	-9.85844
▁32	-9.85886
▁Dana	-9.85924
ualifikasi	-9.85929
▁Pancasila	-9.85941
je	-9.85977
▁bersalah	-9.86247
▁Beri	-9.86273
▁arahan	-9.86346
▁Trans	-9.86371
▁Menko	-9.86424
▁modern	-9.86441
▁pasal	-9.8649
▁SD	-9.86591
▁DE	-9.86648
▁keberlanjutan	-9.86704
▁menjual	-9.86709
▁2016	-9.86741
▁Cha	-9.86752
▁Pan	-9.86809
AI	-9.86895
▁70	-9.86966
▁narkotika	-9.87216
▁cerah	-9.87216
▁mengelola	-9.87232
▁konsumsi	-9.87276
▁We	-9.87289
▁KA	-9.87295
▁Bar	-9.87333
ecara	-9.87355
▁Bukan	-9.87356
PA	-9.87377
▁Minta	-9.87429
▁keseluruhan	-9.87473
▁melayani	-9.87475
▁evaluasi	-9.87501
▁2018	-9.87502
▁ta	-9.87528
pang	-9.87548
▁@	-9.87552
▁rumahnya	-9.87555
▁Dis	-9.87599
PT	-9.87735
▁keempat	-9.87831
ahan	-9.879
▁independen	-9.87989
▁mengumpulkan	-9.87989
▁BOGO	-9.8799
▁Italia	-9.87992
▁AFF	-9.88001
▁adil	-9.88003
▁Kabar	-9.88032
▁ramah	-9.88033
▁Pangan	-9.88034
▁be	-9.88052
▁Super	-9.88081
▁pos	-9.88098
ren	-9.88175
▁Perdagangan	-9.88248
▁inisiatif	-9.88249
▁siaran	-9.88257
▁Jaksa	-9.88263
▁sah	-9.88279
▁puasa	-9.88329
▁gelombang	-9.88508
▁inflasi	-9.88508
▁Honda	-9.88518
▁berjanji	-9.88539
sus	-9.88541
▁Vi	-9.88619
▁Tiongkok	-9.88769
▁Manager	-9.88771
▁Sub	-9.88874
▁sejalan	-9.88906
tin	-9.88914
▁Hidup	-9.8903
▁jemaah	-9.8903
▁level	-9.8903
cara	-9.89172
▁Marquez	-9.89291
▁menembak	-9.89293
▁Hanya	-9.89375
ub	-9.89473
land	-9.89473
ler	-9.89538
▁parkir	-9.89554
▁modal	-9.89562
▁membagikan	-9.89613
▁Raja	-9.89619
▁penerima	-9.89635
lik	-9.89639
▁Wayan	-9.89667
▁penerimaan	-9.89736
▁memper	-9.89742
▁Kembali	-9.89817
▁prestasi	-9.89817
▁Hodak	-9.89823
▁Hu	-9.89826
▁materi	-9.89828
▁Pagi	-9.89859
▁Antara	-9.89935
ono	-9.89937
▁gula	-9.89983
lon	-9.89987
▁pikir	-9.90067
▁besok	-9.90083
▁dirilis	-9.90126
▁mengirim	-9.90265
▁Ca	-9.90293
din	-9.90329
▁dekade	-9.90345
▁tradisional	-9.90347
▁diusung	-9.90348
▁suku	-9.9047
▁PNS	-9.90475
PD	-9.90558
▁emisi	-9.90616
we	-9.90647
▁Bulan	-9.90651
▁Masih	-9.90737
▁lanjutan	-9.90833
▁Perlindungan	-9.90877
▁berbahaya	-9.90877
▁dilanjutkan	-9.90877
▁palsu	-9.90877
▁Pramono	-9.9088
▁mengganggu	-9.90898
▁terbatas	-9.90906
▁masjid	-9.90911
▁Moskow	-9.91143
▁dimiliki	-9.91143
▁peluncuran	-9.91143
▁Rektor	-9.91143
▁keadilan	-9.91144
▁Pidana	-9.91147
q	-9.91205
ers	-9.91208
▁Sedangkan	-9.91255
▁SK	-9.91377
▁merusak	-9.91411
▁pedagang	-9.91411
▁melancar	-9.91416
▁apalagi	-9.9142
▁mendatangi	-9.91434
▁Pernyataan	-9.91437
%	-9.91484
ep	-9.91597
mana	-9.91634
▁Yayasan	-9.91679
▁oposisi	-9.9168
▁melarang	-9.91694
▁namanya	-9.91809
erahkan	-9.91896
▁Produk	-9.91946
▁berkumpul	-9.91948
▁jaksa	-9.91949
▁gawang	-9.91951
▁Niaga	-9.91955
▁asli	-9.91961
▁Fakultas	-9.91966
▁pengurus	-9.92024
▁pola	-9.92028
▁Dukung	-9.92046
PN	-9.92061
▁artis	-9.92066
▁tanggapan	-9.92089
▁BKN	-9.92131
AM	-9.92159
▁NU	-9.92205
▁dipastikan	-9.92217
▁tuntutan	-9.92218
▁Puncak	-9.92242
▁Ki	-9.92253
▁Selanjutnya	-9.9226
▁kopi	-9.92269
▁duduk	-9.92272
ura	-9.92293
od	-9.92301
▁Ne	-9.92325
lam	-9.92434
▁Ribuan	-9.92441
▁SMK	-9.92464
▁disebabkan	-9.92487
Ada	-9.92511
▁Pengembangan	-9.92758
▁telepon	-9.92758
▁liar	-9.92787
▁mental	-9.92794
▁Eks	-9.92831
▁Pengawas	-9.92866
uddin	-9.92915
40	-9.92917
ptu	-9.92949
▁2021	-9.92973
30	-9.92977
▁Penyanyi	-9.9303
▁elektronik	-9.9303
▁Sultan	-9.93036
wati	-9.93054
▁pas	-9.93206
bat	-9.93243
▁Pi	-9.93298
▁h	-9.93384
▁berulang	-9.93407
▁studi	-9.93513
▁Thohir	-9.93576
▁cedera	-9.93576
▁optimistis	-9.93577
SI	-9.93689
▁Eko	-9.93726
tim	-9.93731
▁Top	-9.93751
▁desain	-9.93753
▁RT	-9.9377
▁Manajemen	-9.94125
▁keuntungan	-9.94125
▁Masa	-9.94181
andi	-9.94207
▁Ria	-9.94345
▁Cina	-9.94346
▁berkaitan	-9.94401
▁SDM	-9.94438
▁berkat	-9.94461
▁ma	-9.94668
▁Eksekutif	-9.94676
▁evakuasi	-9.94676
▁menyusul	-9.94678
▁Perhubungan	-9.94682
BI	-9.94716
▁penipuan	-9.94723
▁KH	-9.94752
▁Real	-9.94785
▁jurnalis	-9.94808
ring	-9.94836
▁tentunya	-9.94936
▁aspirasi	-9.94953
▁pengendara	-9.94953
▁Kongres	-9.94959
car	-9.94999
▁Bumi	-9.95036
▁minum	-9.95068
MA	-9.95128
▁Narkoba	-9.95231
▁Ungkap	-9.95231
▁sekadar	-9.95235
▁bangga	-9.95236
fokus	-9.95245
▁Sistem	-9.95263
▁merugikan	-9.95267
▁peneliti	-9.95302
▁beli	-9.95305
▁PAN	-9.95306
)",	-9.95348
▁90	-9.95377
▁menga	-9.95412
▁Puluh	-9.95478
▁Ruang	-9.95588
▁Padahal	-9.95592
▁pemenang	-9.95622
zi	-9.95632
▁mengangkat	-9.9579
▁penampilan	-9.95814
▁gaya	-9.95815
▁Biak	-9.95818
▁Ida	-9.95854
bus	-9.95965
▁Survei	-9.96069
▁ditutup	-9.96069
▁keunggulan	-9.96069
▁rupiah	-9.96069
▁Pasukan	-9.96072
mb	-9.9613
▁Kini	-9.96173
▁darat	-9.96187
sah	-9.96313
▁ga	-9.96315
▁sepakat	-9.96329
▁membela	-9.96341
▁Bengkulu	-9.9635
▁menggambarkan	-9.9635
▁mengancam	-9.9635
▁peredaran	-9.96353
▁Honorer	-9.96353
ps	-9.96356
▁0	-9.96406
dak	-9.96427
▁kotak	-9.96509
▁daripada	-9.96566
tah	-9.96593
▁Global	-9.96632
▁Kapolri	-9.96632
▁kekalahan	-9.96632
▁kekurangan	-9.96632
▁momentum	-9.96636
▁suhu	-9.96638
▁Er	-9.9665
▁cukai	-9.96655
▁Organisasi	-9.96661
▁khas	-9.96675
▁unggulan	-9.96682
▁Un	-9.96764
▁NasDem	-9.96914
Corporate	-9.96914
▁diserahkan	-9.96917
▁melaju	-9.96923
▁Pra	-9.97032
▁Surya	-9.97049
▁ra	-9.97055
menyelenggarakan	-9.97091
pres	-9.97106
▁Satpol	-9.97204
00	-9.97206
▁singkat	-9.97252
▁cerita	-9.97283
▁ditanya	-9.97301
▁US	-9.97338
ning	-9.97361
kiri	-9.97424
▁Cirebon	-9.97482
▁wajah	-9.97483
▁Demak	-9.97506
▁Gunawan	-9.9753
▁tajam	-9.97551
▁80	-9.97561
ion	-9.97637
bun	-9.97692
▁Sam	-9.977
▁terkena	-9.97744
▁Afghanistan	-9.97766
▁kreatif	-9.97766
▁Mohammad	-9.97767
▁unsur	-9.97801
▁Kan	-9.97866
▁kaya	-9.97974
▁Dukungan	-9.97981
▁performa	-9.98044
▁kemiskinan	-9.98052
▁murah	-9.98052
▁Brasil	-9.98053
▁disapa	-9.98058
▁Ketiga	-9.98078
▁sarana	-9.98098
▁Stasiun	-9.98339
▁berpartisipasi	-9.98339
▁pencapaian	-9.98339
▁Dipta	-9.98339
▁tenang	-9.98349
aya	-9.98388
▁Amin	-9.98411
▁PLN	-9.98465
▁Grand	-9.98479
ven	-9.98563
KI	-9.98614
▁pembebasan	-9.98626
▁penerapan	-9.98626
jogja	-9.98627
mempertimbangkan	-9.98627
▁Indah	-9.98632
▁Upaya	-9.98675
▁Bagaimana	-9.98684
kas	-9.98734
▁sekutu	-9.98784
mah	-9.98847
▁Sebagian	-9.98931
▁Abdullah	-9.98981
oh	-9.99004
op	-9.99062
eh	-9.9909
▁Mer	-9.99118
▁Raffi	-9.99203
▁bersangkutan	-9.99203
▁lantas	-9.99203
▁meninjau	-9.99204
▁Perubahan	-9.99204
▁Kar	-9.99266
▁bila	-9.99335
▁tahunan	-9.99394
Ma	-9.99437
▁Divisi	-9.99465
▁dikeluarkan	-9.99493
▁suasana	-9.99493
▁suporter	-9.99493
▁utang	-9.99498
▁individu	-9.99535
▁sepenuhnya	-9.99537
▁kesalahan	-9.99539
▁Reuters	-9.9955
barang	-9.9957
▁n	-9.99595
▁pulau	-9.99654
duk	-9.99673
▁Api	-9.9969
▁WNA	-9.99703
▁Perwakilan	-9.99792
▁Kanada	-9.99792
▁Dokter	-9.99792
▁hektare	-9.99802
▁2017	-9.99826
▁Tan	-9.99836
▁Sama	-9.99905
▁pakaian	-9.99917
ahkan	-9.99919
▁Patra	-10.0014
▁Pegi	-10.0015
udin	-10.0017
▁awalnya	-10.0017
▁mengapa	-10.002
▁Awards	-10.0024
▁kandungan	-10.0028
sta	-10.0036
▁memperbaiki	-10.0037
▁rute	-10.0037
yan	-10.0039
▁Kabid	-10.0042
MK	-10.0046
Q	-10.0058
raya	-10.0064
▁Pemimpin	-10.0066
▁mewakili	-10.0066
▁bersaing	-10.0066
▁kesiapan	-10.0066
▁normal	-10.0071
▁Satgas	-10.0075
▁diper	-10.0082
▁berdiri	-10.0084
▁Perjanjian	-10.0096
▁pencegahan	-10.0096
▁pra	-10.0099
▁Siti	-10.0109
▁bin	-10.0113
▁DW	-10.0121
▁mendalam	-10.0121
▁Kebudayaan	-10.0125
▁belanja	-10.0125
▁keberhasilan	-10.0125
▁menyaksikan	-10.0125
▁tidur	-10.0125
▁transformasi	-10.0125
▁kebebasan	-10.0125
▁kompetensi	-10.0126
▁SMP	-10.0126
▁cuma	-10.0129
▁buatan	-10.0134
▁sel	-10.0136
▁Sat	-10.0142
▁hiburan	-10.0155
▁menandatangani	-10.0155
▁Kebijakan	-10.0159
uhan	-10.0167
▁menekan	-10.0176
▁suka	-10.0182
▁transisi	-10.0184
▁kamu	-10.0186
▁mer	-10.0189
▁panggilan	-10.0193
▁menjal	-10.0193
▁Sehingga	-10.0197
ib	-10.0211
kon	-10.0211
▁PSM	-10.0213
▁staf	-10.0214
uni	-10.0216
▁DPC	-10.0217
▁garis	-10.0221
▁Yong	-10.0227
▁imbang	-10.0237
pel	-10.0238
▁Aparatur	-10.0245
▁bekas	-10.0247
▁terluka	-10.0249
▁Sang	-10.025
▁Bapak	-10.025
Untuk	-10.025
▁t	-10.0257
▁memantau	-10.0274
▁pelantikan	-10.0274
ket	-10.0275
▁Han	-10.0281
▁rama	-10.0283
▁dikonfirmasi	-10.0284
Men	-10.0284
▁Kong	-10.0284
aran	-10.029
Kita	-10.0297
▁Maka	-10.0299
▁memperlihatkan	-10.0304
▁penyalahgunaan	-10.0304
▁produsen	-10.0304
▁Hubungan	-10.0304
uan	-10.0307
▁bu	-10.0308
▁Apalagi	-10.0309
▁Du	-10.031
▁Dar	-10.031
▁wujud	-10.0315
▁pembukaan	-10.0317
▁Pakar	-10.0325
▁Gerakan	-10.0334
▁Staf	-10.0335
▁Award	-10.0352
?"	-10.0354
was	-10.0356
▁Sun	-10.0357
▁tutup	-10.0364
▁penghitungan	-10.0364
▁beban	-10.0365
▁partisipasi	-10.0365
▁Hidayat	-10.0394
▁2024-2029	-10.0394
▁Fraksi	-10.0395
▁sepuluh	-10.0395
▁pendekatan	-10.0398
▁penembakan	-10.0398
▁subsidi	-10.0408
▁Iqbal	-10.0425
▁NATO	-10.0425
▁PSBS	-10.0425
▁dihubungi	-10.0442
▁34	-10.0447
▁medali	-10.0455
▁rekor	-10.0456
▁kandang	-10.0458
▁distribusi	-10.046
▁Baik	-10.0462
▁RSUD	-10.0463
status	-10.0463
▁Rencana	-10.0465
lia	-10.0477
▁melewati	-10.0486
▁serangkai	-10.0487
▁wawancara	-10.0493
atan	-10.0503
▁parah	-10.0506
Ba	-10.0508
▁prosedur	-10.0511
▁dok	-10.0514
▁perbedaan	-10.0517
▁mengeklaim	-10.0517
▁binaan	-10.0517
26	-10.052
▁sapi	-10.0521
gandeng	-10.0522
▁populer	-10.0524
▁36	-10.0528
▁pembicaraan	-10.0532
18	-10.0536
▁diprediksi	-10.0542
▁membuktikan	-10.0547
▁menyalurkan	-10.0547
▁sembako	-10.0547
▁jual	-10.0547
▁dijadikan	-10.0548
rang	-10.0548
▁Paslon	-10.0553
▁Seluruh	-10.0554
▁Barang	-10.0562
▁kon	-10.0573
▁menurun	-10.0575
▁Energi	-10.0578
▁tergabung	-10.0578
▁mengungsi	-10.0578
▁merujuk	-10.0578
▁kabinet	-10.0579
▁Relawan	-10.0579
▁terduga	-10.058
▁berwarna	-10.0581
mal	-10.0582
▁Hak	-10.0601
pro	-10.0606
▁cabang	-10.0609
▁internet	-10.0609
▁Nikita	-10.0609
▁Pejabat	-10.061
▁fase	-10.061
guyur	-10.0617
▁janji	-10.0622
▁sekitarnya	-10.0628
▁pembelian	-10.0629
▁Pegawai	-10.064
▁menghormati	-10.064
▁peralatan	-10.064
▁larangan	-10.064
▁temuan	-10.064
jalan	-10.0643
▁2022,	-10.0645
jaya	-10.0648
▁setia	-10.0649
buru	-10.065
▁Cak	-10.0662
TI	-10.0664
▁pindah	-10.0666
inkan	-10.0667
▁panggung	-10.0672
sar	-10.0681
▁miliknya	-10.0682
Deng	-10.0684
▁tanaman	-10.069
chi	-10.0694
▁bermula	-10.0707
▁imbuhnya	-10.0719
▁Bayu	-10.073
▁sayap	-10.0731
▁membunuh	-10.0734
▁Muhaimin	-10.0745
ika	-10.0746
▁menu	-10.0746
set	-10.075
▁Pelayanan	-10.0765
▁asuransi	-10.0765
▁bertambah	-10.0765
▁butuh	-10.0765
▁kanker	-10.0769
tak	-10.077
▁38	-10.0778
▁Hong	-10.0781
▁Banjir	-10.0797
▁institusi	-10.0797
▁kenyamanan	-10.0797
▁tenggelam	-10.0797
▁pelabuhan	-10.0799
▁San	-10.0804
▁Bus	-10.0804
▁kencang	-10.081
▁Tata	-10.0813
▁Pelaksana	-10.0816
▁menceritakan	-10.0829
▁memanggil	-10.0829
▁menikah	-10.0829
▁layar	-10.0829
gantung	-10.0832
▁tol	-10.0833
-10	-10.0835
▁kredit	-10.0835
▁IV	-10.0836
▁Pupuk	-10.0837
▁Institute	-10.0841
▁ayat	-10.0848
▁Nama	-10.0858
▁berkoordinasi	-10.086
▁diterapkan	-10.086
▁keterlibatan	-10.086
▁roda	-10.0861
▁Series	-10.0865
▁minimal	-10.0866
NI	-10.0872
▁menggantikan	-10.0876
ac	-10.0879
▁Persik	-10.0883
sia	-10.0889
▁ketahanan	-10.0892
▁terbakar	-10.0892
▁Listrik	-10.0892
▁umur	-10.0893
▁samping	-10.0894
▁kecepatan	-10.0898
SP	-10.0899
ikin	-10.09
▁2022.	-10.0905
ambang	-10.0906
▁Q	-10.0908
▁Rus	-10.0917
35	-10.0919
▁300	-10.0923
▁Sampai	-10.0935
▁agen	-10.0935
sifat	-10.0936
top	-10.0937
▁Gusti	-10.0937
▁pakai	-10.095
ih	-10.095
12	-10.0955
▁sinergi	-10.0956
▁domestik	-10.0956
▁kedatangan	-10.0956
▁kira	-10.0959
▁hadiah	-10.0966
ze	-10.0968
tro	-10.0976
▁baterai	-10.0988
▁pengetahuan	-10.0988
▁pertempuran	-10.0988
▁sengaja	-10.0988
▁Zoni	-10.0988
▁dipilih	-10.0988
▁daging	-10.0988
▁saham	-10.0991
▁AL	-10.0998
ant	-10.1001
gar	-10.1003
▁Edi	-10.1004
▁En	-10.1005
25	-10.1006
▁Tindak	-10.1009
jar	-10.1012
▁45	-10.1013
les	-10.1018
▁Perekonomian	-10.1021
▁regional	-10.1021
▁lolos	-10.1021
des	-10.1031
+	-10.1032
▁lo	-10.104
▁prakira	-10.1043
▁dilihat	-10.1047
uri	-10.1053
▁Riset	-10.1055
▁mendampingi	-10.1058
▁Brand	-10.1062
▁Con	-10.1074
▁rekaman	-10.1075
▁Said	-10.1075
PK	-10.1075
cer	-10.1085
▁mengantisipasi	-10.1086
▁dikelola	-10.1086
▁silam	-10.1087
ologi	-10.1106
▁Blinken	-10.1118
▁bergizi	-10.1118
▁kesadaran	-10.1118
▁penggemar	-10.1118
▁penindakan	-10.1118
▁kosong	-10.1118
▁Batam	-10.112
▁keinginan	-10.1123
produk	-10.1125
▁setara	-10.1138
ky	-10.114
▁jantung	-10.1151
▁pencalonan	-10.1151
▁diangkat	-10.1151
▁petir	-10.1153
19	-10.1162
▁diluncurkan	-10.1166
▁AFP	-10.1167
▁sedikitnya	-10.1176
ator	-10.1181
▁Lombok	-10.1184
▁event	-10.1184
▁ketegangan	-10.1184
▁unggahan	-10.1184
▁contoh	-10.1184
▁kompleks	-10.1184
▁pupuk	-10.1184
▁usulan	-10.1192
▁1.000	-10.1198
▁Keduanya	-10.1199
kes	-10.1207
▁setengah	-10.1207
▁Allah	-10.1212
asan	-10.1212
▁versi	-10.1213
▁takut	-10.1216
▁elemen	-10.1216
▁kondusif	-10.1216
▁Madrid	-10.1216
▁majelis	-10.1218
▁berani	-10.1218
▁bandara	-10.1221
▁malah	-10.1222
▁Made	-10.1222
▁seiring	-10.1229
▁lantai	-10.1249
▁Kemenangan	-10.125
▁Anggaran	-10.125
vo	-10.1256
▁dihadapi	-10.1259
▁terbang	-10.1259
bur	-10.127
▁Blitar	-10.1283
▁metode	-10.1283
▁Bintang	-10.1286
gas	-10.1291
▁Kata	-10.1295
24	-10.1296
▁detik	-10.13
ori	-10.1302
▁War	-10.1303
ala	-10.1306
▁berkata	-10.1307
▁Or	-10.1309
▁diumumkan	-10.1316
▁pengadaan	-10.1316
▁melarikan	-10.1317
▁1445	-10.1318
ov	-10.1328
▁TV	-10.1331
▁Wahyu	-10.1331
▁Kom	-10.1338
▁da	-10.1347
▁negatif	-10.1349
▁jaminan	-10.1349
▁Pemerintahan	-10.1354
▁Koster	-10.1358
era	-10.1371
▁menurutnya	-10.1373
pon	-10.1382
▁karakter	-10.1382
▁Pengurus	-10.1383
ati	-10.1385
IN	-10.139
▁Alam	-10.1407
▁Cianjur	-10.1416
▁Houthi	-10.1416
▁dewasa	-10.1416
▁intelijen	-10.1416
▁mempercepat	-10.1416
▁Arief	-10.1418
▁optimal	-10.1449
indo	-10.1449
▁vitamin	-10.145
▁Video	-10.145
▁Bisnis	-10.145
utan	-10.146
▁Championship	-10.1467
▁situ	-10.1472
▁Pegadaian	-10.1484
▁aliran	-10.1484
▁Kudus	-10.1484
▁penjaga	-10.1484
▁sampaikan	-10.1484
▁terungkap	-10.1485
▁rawan	-10.1486
▁intensitas	-10.1487
eserse	-10.1489
▁For	-10.1489
▁2015	-10.149
60	-10.1505
▁dikirim	-10.1508
▁game	-10.151
▁Publik	-10.1517
▁pengakuan	-10.1517
▁hadapan	-10.1518
▁dolar	-10.1518
▁urusan	-10.1518
▁PN	-10.1518
sis	-10.1522
▁Yo	-10.1528
▁33	-10.153
▁Nah	-10.1534
▁Pekerja	-10.1541
▁Kebakaran	-10.1551
▁bersyukur	-10.1551
▁penjelasan	-10.1551
▁terpaksa	-10.1551
▁Skuad	-10.1551
▁Tenaga	-10.1552
▁dilengkapi	-10.1552
▁Lokasi	-10.1552
▁Demokrasi	-10.1553
ff	-10.1559
▁sebab	-10.157
sy	-10.157
▁Pri	-10.1584
▁mayat	-10.1589
▁Istri	-10.1589
by	-10.1589
▁deklarasi	-10.1589
Pj	-10.1605
▁belah	-10.1607
▁Pihaknya	-10.1613
▁AP	-10.1618
▁menginginkan	-10.162
▁gudang	-10.162
▁teroris	-10.162
▁Bojan	-10.1621
In	-10.1622
▁tradisi	-10.1623
▁Ir	-10.1623
▁USD	-10.1626
▁Angka	-10.1629
▁Indo	-10.1636
▁Pas	-10.1639
-21	-10.1644
cita	-10.165
▁Koalisi	-10.1654
▁televisi	-10.1654
▁Pertemuan	-10.1654
▁Menang	-10.1657
bal	-10.166
▁memerintahkan	-10.1661
▁analis	-10.1685
▁Malam	-10.1686
▁efek	-10.1688
▁Soekarno	-10.1689
▁mengusulkan	-10.1689
▁patroli	-10.1689
▁lini	-10.1691
sin	-10.1696
▁red	-10.1697
▁pidato	-10.1699
rai	-10.1703
▁co	-10.171
▁dibanding	-10.172
▁Setiap	-10.172
▁berkunjung	-10.1723
▁kuota	-10.1723
▁penilaian	-10.1723
▁sopir	-10.1723
▁dijual	-10.1724
▁Tetap	-10.1724
▁memproduksi	-10.1724
▁stabilitas	-10.1724
▁Garut	-10.1725
ip	-10.1729
kali	-10.1736
pat	-10.1742
dam	-10.1744
▁Iwan	-10.1748
▁ponsel	-10.1758
▁akbar	-10.1758
lem	-10.1759
DI	-10.1761
▁TKP	-10.1767
POK	-10.1771
ast	-10.1774
▁diungkapkan	-10.1775
▁pandangan	-10.1782
▁Putu	-10.1785
▁Lestari	-10.1793
▁jejak	-10.1793
adu	-10.1797
▁Lewat	-10.1801
▁pesta	-10.1802
▁berawal	-10.1803
end	-10.1804
BMKG	-10.1809
▁Raih	-10.1815
▁Suka	-10.1815
▁skala	-10.1818
Ka	-10.1822
kam	-10.1823
▁inovatif	-10.1828
▁Sipil	-10.1828
▁menyadari	-10.1828
▁menandai	-10.1829
▁Tom	-10.1829
len	-10.1838
io	-10.1859
▁limbah	-10.1863
▁Empat	-10.1863
emendikbudristek	-10.1863
▁Lintas	-10.1865
ER	-10.1869
eri	-10.1871
meng	-10.1879
pakah	-10.1879
tha	-10.1889
▁unik	-10.1898
FI	-10.1901
▁mengisi	-10.191
Pe	-10.1917
kap	-10.1922
▁finansial	-10.1933
▁pengacara	-10.1933
▁pengaruh	-10.1934
▁Kapolsek	-10.1935
▁kayu	-10.1935
▁Deput	-10.1935
▁Kecelakaan	-10.1935
▁Head	-10.1936
▁2014	-10.1936
aja	-10.1937
ev	-10.1939
▁Ser	-10.1941
▁up	-10.1941
▁angkatan	-10.1943
dana	-10.1959
nama	-10.1968
▁CCTV	-10.1969
▁Kepegawaian	-10.1969
▁legislatif	-10.1969
▁mempromosikan	-10.1969
▁menghancurkan	-10.1969
▁Jambi	-10.197
ug	-10.1972
▁forum	-10.1974
AL	-10.198
ation	-10.1983
▁AD	-10.1989
80	-10.1996
▁setahun	-10.1997
▁YouTube	-10.2
▁kritik	-10.2001
lepas	-10.2001
▁menge	-10.2002
▁Bahlil	-10.2005
▁Banyuwangi	-10.2005
▁disabilitas	-10.2005
▁Cara	-10.2005
▁dosen	-10.2005
▁pengemudi	-10.2005
▁Muhammadiyah	-10.2006
▁Alex	-10.2007
▁ganja	-10.2008
▁brand	-10.2009
ity	-10.201
bas	-10.2011
SA	-10.2011
▁Par	-10.2018
ua	-10.2022
enanggulangan	-10.2038
▁raya	-10.2038
▁diatur	-10.2038
▁ku	-10.204
▁menghabis	-10.204
▁Pariwisata	-10.204
iz	-10.2044
ben	-10.2046
▁SE	-10.2048
▁Kasi	-10.2052
▁li	-10.2052
▁Masuk	-10.2053
▁bom	-10.2057
fe	-10.2059
fo	-10.2062
kanan	-10.2064
RS	-10.2064
▁persyaratan	-10.2076
▁menempatkan	-10.2077
▁Sigit	-10.2077
▁Bang	-10.2091
tama	-10.2101
▁Laga	-10.2106
▁main	-10.2108
▁pandemi	-10.2112
▁menyelamatkan	-10.2112
▁menjamin	-10.2112
▁latar	-10.2114
▁setuju	-10.2117
DA	-10.2123
BANG	-10.2126
▁sambung	-10.2127
▁tampaknya	-10.2131
lek	-10.2136
dung	-10.2142
▁Waktu	-10.2154
▁Lima	-10.2168
▁PPN	-10.2171
▁Nu	-10.2172
kur	-10.2175
est	-10.2178
▁John	-10.2183
▁kontestasi	-10.2184
▁kewenangan	-10.2185
▁mewah	-10.2187
nal	-10.2188
▁semacam	-10.2188
▁Sekitar	-10.219
luka	-10.219
nd	-10.2195
rasi	-10.2214
▁Imin	-10.2218
menyita	-10.2218
▁Aku	-10.2218
▁Investasi	-10.2221
▁Mirzani	-10.2221
▁Olahraga	-10.2221
▁jembatan	-10.2221
▁stunting	-10.2221
▁pertimbangan	-10.2221
▁gizi	-10.2221
▁Director	-10.2221
BK	-10.2224
▁Fajar	-10.2224
▁asasi	-10.2229
▁Dirjen	-10.223
▁Kadin	-10.2232
Tidak	-10.224
ini	-10.2241
ksi	-10.2245
▁Po	-10.2248
▁pembiayaan	-10.2257
▁Pondok	-10.2257
▁kelola	-10.2258
ow	-10.2259
▁kapan	-10.226
BP	-10.2265
tun	-10.2269
kri	-10.2277
kh	-10.2277
▁Reza	-10.2294
▁Serentak	-10.2294
▁kekayaan	-10.2294
▁stasiun	-10.2294
▁Soekarnoputri	-10.2294
▁Komite	-10.2294
▁Mataram	-10.2294
▁menulis	-10.2295
▁melintas	-10.2297
▁Andri	-10.23
▁mela	-10.2303
melainkan	-10.2312
program	-10.2314
▁ilmu	-10.2329
▁seri	-10.2329
▁Aktris	-10.2331
▁integritas	-10.2331
▁karbon	-10.2331
▁penguatan	-10.2331
▁mengawasi	-10.2331
▁kewajiban	-10.2337
▁rekapitulasi	-10.2368
▁Persatuan	-10.2368
▁saluran	-10.2368
▁Wanita	-10.2368
EN	-10.2368
▁Bima	-10.2371
▁Park	-10.2377
▁Ryan	-10.239
▁kemudahan	-10.24
▁Yordania	-10.2405
▁alternatif	-10.2405
▁skema	-10.2405
▁kemasan	-10.2405
▁memperkirakan	-10.2405
▁nyawa	-10.2406
▁spesial	-10.2409
ial	-10.2418
▁Harus	-10.2419
ef	-10.2422
▁ki	-10.2437
cenderung	-10.2442
▁Asosiasi	-10.2442
▁Kriminal	-10.2442
▁mengevakuasi	-10.2442
▁terpisah	-10.2442
▁perempat	-10.2444
▁All	-10.2445
▁terkenal	-10.2447
▁Sumbar	-10.2452
▁mengundang	-10.2462
▁bertahun	-10.247
por	-10.247
yono	-10.2473
▁berapa	-10.2474
▁Wong	-10.2475
▁Wisata	-10.2477
▁bahaya	-10.2479
utip	-10.2479
▁merebut	-10.2479
▁Rahmat	-10.2479
▁ledakan	-10.2485
▁Cup	-10.2486
▁bendera	-10.249
▁timnas	-10.2492
enggan	-10.2494
sya	-10.2498
cam	-10.2503
rem	-10.2503
ll	-10.2505
apan	-10.2505
peng	-10.2506
▁sisa	-10.2514
tung	-10.2516
▁Buleleng	-10.2517
▁riset	-10.2517
▁dirawat	-10.2522
ria	-10.2523
▁Terima	-10.253
aman	-10.2531
kir	-10.2538
Karena	-10.2538
tir	-10.254
▁Vina	-10.2541
▁Ker	-10.2548
▁Hartarto	-10.2554
▁komoditas	-10.2554
▁Xi	-10.2555
22	-10.2565
kin	-10.257
▁parpol	-10.2578
dah	-10.2578
IS	-10.2581
▁mene	-10.2585
tus	-10.259
syah	-10.259
▁Balikpapan	-10.2592
▁sebelah	-10.2592
lar	-10.2592
▁gim	-10.2594
▁Hulu	-10.2594
▁dilarang	-10.2597
▁depannya	-10.2601
▁Mall	-10.2604
▁Mari	-10.2612
-16	-10.2625
▁Kabinet	-10.263
▁bertindak	-10.263
▁sengketa	-10.2632
▁Soe	-10.2636
▁massal	-10.2636
▁dituduh	-10.2645
▁bi	-10.2646
▁imbuh	-10.2648
▁disambut	-10.2659
▁37	-10.2664
▁Taliban	-10.2668
▁berpikir	-10.2668
▁menyelidiki	-10.2668
▁pembentukan	-10.2668
▁perilaku	-10.2668
AD	-10.2669
▁Sha	-10.2671
ATEN	-10.2672
cap	-10.2674
▁mo	-10.2678
▁AMIN	-10.2679
isu	-10.268
▁d	-10.268
▁PNM	-10.2683
lak	-10.2691
ida	-10.2696
▁tayang	-10.27
▁gerimis	-10.2706
▁kecurangan	-10.2706
▁pesantren	-10.2706
▁pesisir	-10.2706
▁dikabarkan	-10.2706
▁populasi	-10.2706
▁literasi	-10.2707
▁mengenal	-10.271
▁ASDP	-10.2712
▁stabil	-10.2717
▁aktor	-10.2719
▁75	-10.2719
sela	-10.2721
▁mencerm	-10.2723
ampir	-10.2734
▁Fransiskus	-10.2744
▁Purwakarta	-10.2744
▁menabrak	-10.2744
▁mineral	-10.2744
▁Proyek	-10.2744
▁Teguh	-10.2745
▁Ilmu	-10.2745
▁League	-10.2747
▁lulusan	-10.2782
▁Regional	-10.2783
▁kuliah	-10.2783
▁menemui	-10.2783
▁pemulihan	-10.2783
▁persaingan	-10.2783
▁habis	-10.2783
▁pilpres	-10.2783
▁Sur	-10.2785
▁nutrisi	-10.2786
aksi	-10.2787
▁bersiap	-10.2794
nto	-10.2806
▁Buka	-10.2819
▁Expo	-10.282
▁km	-10.2821
▁menghilang	-10.2821
▁Rohingya	-10.2821
▁dipanggil	-10.2821
▁memakai	-10.2821
▁terbanyak	-10.2825
▁Peristiwa	-10.2825
▁Meksiko	-10.2826
▁kemerdekaan	-10.2828
▁ataupun	-10.2829
▁dimaksud	-10.2831
▁Total	-10.2831
▁lari	-10.2832
▁Day	-10.2834
▁Chi	-10.2839
jak	-10.2844
ance	-10.2844
▁pembuatan	-10.2844
jen	-10.2848
KA	-10.2855
ec	-10.2857
▁Katolik	-10.286
▁gagasan	-10.286
▁BPJS	-10.286
▁SOLO	-10.286
▁mekanisme	-10.286
▁memainkan	-10.286
▁memajukan	-10.286
▁Yusuf	-10.286
▁Tugas	-10.2861
▁pengobatan	-10.2861
▁Semen	-10.2863
▁Bagian	-10.2877
▁Car	-10.2885
Emil	-10.2886
▁Mus	-10.2895
▁o	-10.2898
▁pemudik	-10.2899
▁ayam	-10.29
▁Juara	-10.29
▁Kuasa	-10.2901
▁kualifikasi	-10.2901
▁Karang	-10.2907
▁berlaga	-10.2911
gel	-10.2916
▁implementasi	-10.2916
RC	-10.292
▁berkas	-10.2921
▁Kuta	-10.2922
▁Akibat	-10.2925
▁kuliner	-10.2938
▁memfasilitasi	-10.2938
▁pemangku	-10.2938
▁bunuh	-10.2938
▁Coach	-10.2939
▁Ammar	-10.2939
▁menentang	-10.294
▁Kompleks	-10.294
▁Tam	-10.2943
▁Inter	-10.2944
jangkau	-10.2946
▁pembatasan	-10.2946
wat	-10.295
▁Bey	-10.2953
▁teh	-10.2962
ira	-10.2962
Indonesia	-10.2963
▁Pu	-10.2963
besaran	-10.2969
anda	-10.2971
▁pensiun	-10.2973
▁antusias	-10.2976
▁Daftar	-10.2977
▁Halilintar	-10.2977
▁Jayapura	-10.2979
▁seluas	-10.2983
▁Khan	-10.2994
▁perbuatan	-10.2998
▁Run	-10.3001
▁transparan	-10.3012
▁berpendapat	-10.3017
▁dievakuasi	-10.3017
▁mempengaruhi	-10.3017
ABUP	-10.3019
▁kendala	-10.302
▁Benny	-10.3023
▁adik	-10.3024
PS	-10.3026
▁hasilnya	-10.303
BS	-10.304
eg	-10.3043
win	-10.3048
▁Kristiyanto	-10.3056
▁Pangarep	-10.3056
▁derajat	-10.3056
▁Cabang	-10.3057
▁terdekat	-10.3057
▁Sari	-10.3064
long	-10.3066
CC	-10.3068
▁Aman	-10.308
▁sambungnya	-10.308
mak	-10.3082
-4	-10.3094
▁denda	-10.3095
▁menguasai	-10.3096
▁mikro	-10.3096
▁Lee	-10.3113
bahan	-10.312
▁Inovasi	-10.3136
▁mengonfirmasi	-10.3136
▁pemahaman	-10.3136
▁Dharma	-10.3136
▁Bareskrim	-10.3136
▁kisah	-10.3136
▁Pratama	-10.3136
▁bermanfaat	-10.3137
▁perahu	-10.3137
-79	-10.314
▁Batang	-10.3142
ulang	-10.3146
▁KTT	-10.3146
▁Ratu	-10.3146
▁j	-10.3151
Muhaimin	-10.3162
▁ganda	-10.3163
▁belakangan	-10.3167
▁pengawas	-10.3171
RT	-10.3171
▁2024/2025	-10.3176
▁Teuku	-10.3176
▁album	-10.3176
▁ha	-10.3179
DP	-10.3179
▁dewan	-10.3181
▁Alhamdulillah	-10.3207
tiga	-10.3212
▁Bhayangkara	-10.3216
▁WhatsApp	-10.3216
▁menghubungi	-10.3217
▁deras	-10.3218
▁Juta	-10.322
▁baku	-10.322
▁Gede	-10.3223
▁Fe	-10.3224
▁Risma	-10.3225
ex	-10.3228
ez	-10.324
▁kritis	-10.3256
▁membatalkan	-10.3256
▁pertambangan	-10.3256
▁tawuran	-10.3256
▁cerai	-10.3256
▁gigi	-10.3256
▁Reformasi	-10.3257
▁Rudy	-10.3258
▁Asep	-10.3261
▁reformasi	-10.3263
▁saing	-10.3264
▁Biro	-10.3268
▁Meny	-10.3278
▁top	-10.328
TA	-10.3284
▁Artinya	-10.3285
pihak	-10.3295
cur	-10.3295
▁Business	-10.3297
▁Istimewa	-10.3297
▁Merdeka	-10.3297
▁memerlukan	-10.3297
▁pemberantasan	-10.3297
▁waspada	-10.3297
▁terkini	-10.3297
▁Perumahan	-10.3297
▁ditangani	-10.3297
▁mengklaim	-10.3297
▁Tempat	-10.3301
La	-10.3301
che	-10.3307
▁kelima	-10.3309
ruf	-10.3315
sal	-10.3321
Saat	-10.3324
ukan	-10.3328
cha	-10.3334
▁memudahkan	-10.3337
▁otomotif	-10.3337
▁pelamar	-10.3337
▁pelecehan	-10.3337
▁diperoleh	-10.3337
▁Thomas	-10.3338
▁motif	-10.3338
mata	-10.3339
ela	-10.3343
▁Rutan	-10.3345
▁memaksa	-10.3345
▁ri	-10.3345
▁Anas	-10.3351
▁Jam	-10.3351
KS	-10.3351
let	-10.3357
Pilkada	-10.3365
dia	-10.3369
▁Achmad	-10.3378
▁kaca	-10.3378
▁prajurit	-10.3378
▁sawit	-10.3378
▁terancam	-10.3378
▁dimanfaatkan	-10.3378
▁Sin	-10.338
▁mandiri	-10.3381
dor	-10.3384
▁Perse	-10.3387
▁Za	-10.3392
▁Pemenangan	-10.3393
▁Kon	-10.3393
▁NTT	-10.34
▁puas	-10.3408
Dari	-10.3414
▁jutaan	-10.3416
▁su	-10.3418
▁Pasuruan	-10.3419
▁komersial	-10.3419
▁memperhatikan	-10.3419
▁buruh	-10.3419
▁Edward	-10.3419
▁Ternyata	-10.3419
▁Distrik	-10.3419
▁manis	-10.3422
▁Mur	-10.3423
IA	-10.3429
but	-10.3438
Me	-10.3446
▁konstitusi	-10.346
▁keagamaan	-10.346
▁menyetujui	-10.346
▁Udara	-10.346
br	-10.3461
▁Selamat	-10.3462
▁bertema	-10.3462
▁Sal	-10.3474
▁penutupan	-10.3476
▁pilih	-10.3477
cah	-10.3483
▁itulah	-10.3485
▁Uang	-10.3496
▁Sp	-10.35
▁banding	-10.3501
▁pengumuman	-10.3502
▁direktur	-10.3502
▁Santoso	-10.3502
▁memperingati	-10.3502
▁Kendaraan	-10.3505
pem	-10.3511
-7	-10.3515
▁Mak	-10.3521
ibu	-10.3526
yong	-10.353
▁tembakan	-10.3535
▁efisien	-10.3538
PM	-10.3539
▁partainya	-10.3541
▁properti	-10.3543
▁Basuki	-10.3543
▁Jembrana	-10.3543
▁pinjaman	-10.3543
▁responden	-10.3543
▁silaturahmi	-10.3543
▁otoritas	-10.3544
▁memuji	-10.3545
rum	-10.3545
aw	-10.3545
▁universitas	-10.3546
▁Emil	-10.3548
▁alih	-10.3557
▁Mega	-10.3558
ino	-10.3563
▁betul	-10.358
▁rentan	-10.3582
▁mencuri	-10.3583
▁so	-10.3585
▁beasiswa	-10.3585
▁kurban	-10.3585
▁menderita	-10.3585
▁penahanan	-10.3585
▁perbankan	-10.3585
▁KUHP	-10.3585
▁modus	-10.3585
▁dirasakan	-10.3585
▁Wijaya	-10.3586
▁Teluk	-10.3587
▁ba	-10.3592
pak	-10.3599
▁Heru	-10.3604
mudahan	-10.3607
ium	-10.3608
perusahaan	-10.3615
▁BP	-10.3626
▁Gol	-10.3626
▁Nugroho	-10.3627
▁Ahli	-10.3627
▁panen	-10.3627
▁ditambah	-10.3627
▁cinta	-10.3627
▁pergerakan	-10.3627
ph	-10.3628
▁dingin	-10.3628
PL	-10.3629
▁Target	-10.3632
uran	-10.3632
▁caleg	-10.3633
▁Terbaru	-10.3634
▁apapun	-10.3638
eusai	-10.3644
▁isi	-10.3653
antongi	-10.3662
ola	-10.3665
van	-10.3668
▁santri	-10.3668
▁Trenggalek	-10.3669
▁festival	-10.3669
▁kepedulian	-10.3669
▁membeberkan	-10.3669
▁menjatuhkan	-10.3669
itu	-10.3671
▁penambahan	-10.3671
nanti	-10.3677
our	-10.368
mbu	-10.3682
aga	-10.3687
▁Ram	-10.3688
▁ayahnya	-10.369
bul	-10.3696
▁Google	-10.3711
▁melahirkan	-10.3711
tepatan	-10.3711
▁rombongan	-10.3711
▁markas	-10.3711
▁disiapkan	-10.3711
▁Plt	-10.3712
▁ide	-10.3712
▁Ulama	-10.3713
▁mahal	-10.3713
▁pendek	-10.3715
ila	-10.3718
▁BTN	-10.3719
▁dialog	-10.3721
tujukan	-10.3723
▁umumnya	-10.3729
tic	-10.3729
▁asuhan	-10.373
▁150	-10.3732
ay	-10.3736
▁At	-10.3741
▁tetangga	-10.3742
atul	-10.3746
▁ruangan	-10.3749
elebritas	-10.3749
▁mengembalikan	-10.3753
▁kedaulatan	-10.3753
▁Sumatra	-10.3753
mengidentifikasi	-10.3754
▁dijalankan	-10.3754
▁Tanpa	-10.3755
▁Champions	-10.3756
▁paksa	-10.3756
▁efisiensi	-10.3758
▁Kamala	-10.3764
buat	-10.3768
ee	-10.3781
▁Teco	-10.3786
▁Siapa	-10.3793
▁Brigjen	-10.3796
▁Probolinggo	-10.3796
▁mengecek	-10.3796
▁pemberdayaan	-10.3796
▁Cahyadi	-10.3797
▁Ivan	-10.3802
▁Sar	-10.3818
▁cita	-10.3823
▁le	-10.3823
▁tepatnya	-10.3826
14	-10.3828
▁pengamat	-10.3829
▁demonstrasi	-10.3838
▁menimpa	-10.3838
▁Zelenskyy	-10.3839
▁kabur	-10.3839
▁tulang	-10.3839
▁menduga	-10.384
▁Terlebih	-10.384
▁bertanya	-10.384
dominasi	-10.384
▁Ferry	-10.384
nah	-10.3845
▁Lagi	-10.3849
sek	-10.3856
28	-10.3857
anti	-10.3861
Pada	-10.3861
▁sesama	-10.3862
sat	-10.3866
▁kriminal	-10.387
05	-10.3878
▁Development	-10.3881
▁mengecam	-10.3882
▁bikin	-10.3883
UN	-10.3886
▁siber	-10.3886
-13	-10.389
▁Yasin	-10.3891
PU	-10.3891
▁Pesan	-10.3894
LA	-10.3904
way	-10.3904
▁Mal	-10.3905
▁band	-10.3908
▁u	-10.3908
RO	-10.3913
dis	-10.3923
▁membenarkan	-10.3924
▁ruas	-10.3924
▁jarang	-10.3925
ena	-10.3925
▁Misalnya	-10.3928
▁Port	-10.3932
edi	-10.3933
▁invasi	-10.3933
▁Plus	-10.3933
▁didapat	-10.3937
▁Dito	-10.3941
mur	-10.3947
▁disebutkan	-10.3956
alih	-10.3965
▁Fatoni	-10.3968
▁Madiun	-10.3968
▁Miliar	-10.3968
▁Kereta	-10.3968
▁Kampus	-10.3969
iring	-10.3969
age	-10.3969
▁Penyidik	-10.3973
▁aparatur	-10.3974
▁pembinaan	-10.3975
▁Mah	-10.3981
▁WNI	-10.3985
▁berhak	-10.3995
angkut	-10.3996
▁lebaran	-10.3999
rin	-10.4
▁Red	-10.4002
lim	-10.401
▁London	-10.4011
▁Pemasyarakatan	-10.4011
▁memegang	-10.4011
▁penyelesaian	-10.4012
▁dikatakan	-10.4012
▁Arena	-10.4013
▁relawan	-10.4013
▁Dorong	-10.4013
▁kaum	-10.4015
▁cocok	-10.4015
▁Sandra	-10.4017
pot	-10.402
ses	-10.4024
rus	-10.4035
▁bek	-10.404
av	-10.4046
buk	-10.4047
▁as	-10.4049
▁Tujuan	-10.4052
oli	-10.4054
▁perlawanan	-10.4055
▁Duta	-10.4061
▁Pekerjaan	-10.4069
baik	-10.4074
ts	-10.4075
ras	-10.4076
elang	-10.408
US	-10.4088
oto	-10.4099
▁Harvey	-10.4099
▁mendeklarasikan	-10.4099
▁tertutup	-10.4099
▁mengizinkan	-10.4099
▁otak	-10.4099
▁Bobby	-10.4099
PPPK	-10.41
▁sorotan	-10.4103
▁daun	-10.4103
▁ban	-10.4105
▁penyelundupan	-10.411
▁39	-10.4112
▁lipat	-10.4114
▁resminya	-10.4126
▁angkat	-10.4139
ade	-10.4141
▁federal	-10.4143
▁ketertiban	-10.4143
▁berkuasa	-10.4143
▁pendanaan	-10.4143
▁ditembak	-10.4143
▁hamil	-10.4143
▁Aktor	-10.4144
▁diplomatik	-10.4144
:10	-10.4146
▁material	-10.415
▁PON	-10.4158
▁55	-10.4163
bes	-10.4163
▁Irwan	-10.4167
tari	-10.4186
▁Pesantren	-10.4187
▁destinasi	-10.4187
▁pembahasan	-10.4187
▁Ricis	-10.4187
▁Pramella	-10.4187
▁Budaya	-10.4188
▁Pasaribu	-10.4188
▁nasib	-10.4193
▁Cagub	-10.4193
▁Putusan	-10.4193
▁cawapres	-10.4195
ill	-10.4196
▁Noor	-10.4197
▁Best	-10.4203
▁CSR	-10.4203
▁macam	-10.4204
ili	-10.4207
RA	-10.4213
▁etik	-10.4213
net	-10.4215
▁dipakai	-10.4222
-3	-10.4223
▁250	-10.4228
▁EURO	-10.4231
▁Komunitas	-10.4231
▁memperjuangkan	-10.4231
▁mendirikan	-10.4232
▁Wibowo	-10.4232
▁tempur	-10.4232
ALEM	-10.4232
▁Gratis	-10.4232
▁pengganti	-10.4233
▁Damai	-10.4234
▁Non	-10.4237
▁Termasuk	-10.424
▁Life	-10.4243
▁pil	-10.4246
▁terangnya	-10.425
▁Tel	-10.4251
put	-10.4254
▁PK	-10.4259
▁Eka	-10.4261
▁tertua	-10.4262
▁sambutan	-10.4263
▁California	-10.4276
▁Gorontalo	-10.4276
▁diterbitkan	-10.4276
▁peduli	-10.4276
▁pembalap	-10.4276
▁komponen	-10.4276
▁menjamu	-10.4277
▁jabatannya	-10.428
▁pi	-10.4281
▁Kas	-10.4282
▁menye	-10.4282
▁Kang	-10.4297
jan	-10.4309
▁mi	-10.4316
▁tegasnya	-10.4318
▁Telkom	-10.4321
▁pendiri	-10.4321
▁mencalonkan	-10.4321
▁rahasia	-10.4321
▁terkemuka	-10.4321
▁Teheran	-10.4321
▁pangkalan	-10.4321
▁dibebaskan	-10.4321
eks	-10.4321
▁pemanfaatan	-10.4322
▁Mojokerto	-10.4324
13	-10.4324
▁Tito	-10.4326
▁terasa	-10.4327
▁Kemenag	-10.4332
▁Institut	-10.4348
▁liburan	-10.4352
De	-10.4362
▁diyakini	-10.4366
▁pembelajaran	-10.4366
▁kontak	-10.4367
▁tersisa	-10.4368
Yang	-10.4368
▁duka	-10.437
nder	-10.4372
▁PBNU	-10.4373
▁Yaman	-10.4377
▁Kejati	-10.4381
ardi	-10.4396
▁banten	-10.4397
BC	-10.4402
cawapres	-10.4403
▁BI	-10.4404
andalkan	-10.4411
▁membatasi	-10.4411
▁kemitraan	-10.4411
▁Anti	-10.4418
▁ramai	-10.4419
▁Banda	-10.4424
cak	-10.4424
▁PM	-10.4446
Jateng	-10.4449
Polri	-10.445
▁Maulana	-10.4457
▁dakwaan	-10.4457
▁Tangkap	-10.4457
▁Ruben	-10.4457
▁terdaftar	-10.4459
▁Suami	-10.446
▁Lagu	-10.4467
sk	-10.4468
▁berlokasi	-10.4469
pri	-10.4472
bulan	-10.4477
▁undangan	-10.4478
▁Sah	-10.4488
▁President	-10.4493
▁meresmi	-10.4502
▁Bahrain	-10.4502
▁Komisaris	-10.4502
▁Pendaftaran	-10.4502
▁Ponorogo	-10.4502
▁stadion	-10.4502
▁tembakau	-10.4503
▁Auto	-10.4504
MP	-10.4505
▁Denny	-10.4506
▁upah	-10.4507
▁berfungsi	-10.4507
▁intensif	-10.451
5.000	-10.4516
▁Bangka	-10.4518
ndo	-10.4522
her	-10.4523
▁Pat	-10.4526
ansyah	-10.4539
mpu	-10.4544
▁Gi	-10.4547
▁hangat	-10.4548
▁konteks	-10.4548
▁memaparkan	-10.4548
▁banget	-10.4548
▁Terminal	-10.4549
▁Marketing	-10.455
▁Bagus	-10.455
rama	-10.4552
▁Tepi	-10.4554
▁terjangkau	-10.4556
atif	-10.4558
Pen	-10.456
pin	-10.4563
con	-10.4563
gam	-10.4568
▁RK	-10.457
▁Ran	-10.4575
▁Kel	-10.4577
▁by	-10.4579
▁EV	-10.458
▁kediaman	-10.4582
Setelah	-10.4587
▁Bangladesh	-10.4594
▁Tulungagung	-10.4594
▁kecerdasan	-10.4594
▁Penyakit	-10.4594
▁ISIS	-10.4595
▁wadah	-10.4595
▁disita	-10.4597
▁analisis	-10.4599
▁capaian	-10.4602
ach	-10.4603
▁berlebihan	-10.4605
ssa	-10.4613
▁timah	-10.4616
▁Gar	-10.4618
mbung	-10.4626
02	-10.4631
▁Cek	-10.4638
▁Nyoman	-10.4641
▁Koordinasi	-10.4641
▁Jati	-10.4641
▁Andrew	-10.4642
dalam	-10.4644
▁Wapres	-10.4649
▁besi	-10.4651
BA	-10.4654
▁Ham	-10.4662
▁Sab	-10.4672
pati	-10.4673
▁artinya	-10.4675
▁kamp	-10.4683
nis	-10.4685
▁narapidana	-10.4687
▁simulasi	-10.4687
▁penuntut	-10.4687
▁bapak	-10.4687
▁Bangkalan	-10.469
▁detail	-10.4692
▁Dokumentasi	-10.4693
ley	-10.4695
ight	-10.4697
▁Kejari	-10.47
▁Andre	-10.4701
Itu	-10.4701
▁padat	-10.4705
bin	-10.4712
▁Min	-10.4713
▁Ang	-10.4719
▁tertulisnya	-10.4719
iya	-10.4724
▁Makanan	-10.4731
▁Benjamin	-10.4734
▁Samarinda	-10.4734
▁canggih	-10.4734
▁mempertanyakan	-10.4734
▁menaikkan	-10.4734
▁kamera	-10.4734
▁Pajak	-10.4735
▁Dapat	-10.4735
▁Penyelenggara	-10.4737
▁Debat	-10.4737
▁Siang	-10.4737
▁Pecco	-10.474
▁etika	-10.4746
-5	-10.4753
sing	-10.4754
08	-10.4757
kor	-10.4772
aan	-10.4778
▁netral	-10.478
▁mengakses	-10.4781
▁panitia	-10.4781
▁kajian	-10.4781
▁mengejutkan	-10.4781
▁LPG	-10.4785
ajar	-10.4791
▁Kuningan	-10.4793
▁sapaan	-10.4793
desa	-10.4795
yi	-10.4805
▁pemadaman	-10.4815
▁es	-10.4815
▁Bojonegoro	-10.4828
▁Menengah	-10.4828
▁penyaluran	-10.4828
▁menempati	-10.4828
▁Apple	-10.4829
▁berkampanye	-10.4831
45	-10.4831
yat	-10.4832
99	-10.4834
▁mendalami	-10.4837
ping	-10.4841
▁ambil	-10.4842
▁sambutannya	-10.4842
▁Sekarang	-10.4844
ate	-10.4849
gra	-10.4852
▁Bella	-10.4853
▁UI	-10.4854
70	-10.4854
▁Semoga	-10.4862
Mereka	-10.4869
▁Bal	-10.4869
▁simbol	-10.4874
▁Majalengka	-10.4875
▁bahagia	-10.4875
▁menerbitkan	-10.4875
▁pengungkapan	-10.4875
▁diraih	-10.4876
▁fenomena	-10.4876
▁Peserta	-10.4876
▁suci	-10.4877
▁Water	-10.4884
▁gunung	-10.4885
▁Antam	-10.4888
▁kantong	-10.489
49	-10.4894
▁ID	-10.4895
one	-10.4895
mbo	-10.4902
▁tu	-10.4906
vonis	-10.4915
▁Convention	-10.4923
▁Jembatan	-10.4923
▁Sudjana	-10.4923
▁Sumenep	-10.4923
▁delegasi	-10.4923
▁penalti	-10.4923
▁kendali	-10.4923
▁persatuan	-10.4923
▁Online	-10.4923
▁warung	-10.4924
▁netralitas	-10.4924
▁Resmi	-10.4924
▁Ikut	-10.4924
▁meluas	-10.4925
▁Mulyadi	-10.4925
uli	-10.4928
▁Kolaborasi	-10.4932
▁Yan	-10.4941
▁Tegal	-10.4945
-17	-10.4952
▁Paul	-10.4958
ward	-10.4962
▁Ji	-10.4966
▁Manfaat	-10.4971
▁menguntungkan	-10.4971
▁pengangkatan	-10.4971
▁Prasetyo	-10.4971
▁Dugaan	-10.4971
▁angkutan	-10.4971
▁visa	-10.4971
pura	-10.4973
▁berkomunikasi	-10.4973
ima	-10.4976
▁politisi	-10.4979
gun	-10.4988
red	-10.499
▁Daniel	-10.4994
nti	-10.4997
tanda	-10.5002
kal	-10.5004
▁dikonsumsi	-10.5008
▁Habib	-10.5018
▁Argentina	-10.5019
▁Situbondo	-10.5019
▁Stadium	-10.5019
▁gereja	-10.5019
▁pertengahan	-10.5019
▁pengecekan	-10.5019
▁asam	-10.5022
II	-10.5023
▁utamanya	-10.5026
bak	-10.5031
pora	-10.5037
▁melepas	-10.5038
TP	-10.5045
nik	-10.5051
▁Terus	-10.5051
entang	-10.5056
▁Ronald	-10.5064
Jika	-10.5066
▁Kyiv	-10.5067
▁otomatis	-10.5067
▁penemuan	-10.5067
▁memasang	-10.5067
▁minat	-10.5067
▁penggeledahan	-10.5068
▁Serdang	-10.5068
▁Green	-10.5068
▁kelaparan	-10.5069
▁Lebak	-10.5069
▁Dirinya	-10.5069
▁mengundur	-10.5069
▁Cipta	-10.507
▁Nilai	-10.5073
▁tanya	-10.5077
▁RW	-10.508
luk	-10.5084
ikat	-10.5087
▁objek	-10.5089
▁Shi	-10.5101
▁melepaskan	-10.5102
GI	-10.5105
▁seru	-10.511
▁Personel	-10.5116
▁Sukarelawan	-10.5116
▁Gabungan	-10.5116
▁menantang	-10.5116
▁edisi	-10.5116
▁Bamsoet	-10.5119
dit	-10.5121
▁investigasi	-10.5121
75	-10.5123
▁Kejagung	-10.5129
▁APBN	-10.5131
▁Peringatan	-10.5132
▁Kemendagri	-10.5133
▁kebun	-10.5133
▁ti	-10.5134
eb	-10.5153
▁Gereja	-10.5165
▁Mitsubishi	-10.5165
▁diselesaikan	-10.5165
▁praperadilan	-10.5165
▁Moeis	-10.5165
▁kelancaran	-10.5165
▁restoran	-10.5165
▁Dusun	-10.5165
▁Silva	-10.5165
▁pilot	-10.5166
▁selebritas	-10.5169
▁akademisi	-10.5176
▁Fest	-10.5177
▁rencananya	-10.5179
guna	-10.518
▁Th	-10.5184
LI	-10.5192
dhi	-10.5199
JPNN	-10.5209
ist	-10.5211
▁ketersediaan	-10.5214
▁percepatan	-10.5214
▁pertunjukan	-10.5214
▁badai	-10.5214
▁begini	-10.5214
▁dikenakan	-10.5214
ence	-10.5216
▁Baim	-10.5219
5%	-10.5224
mba	-10.5233
▁Studi	-10.5234
01	-10.5235
▁Bas	-10.5236
▁promo	-10.5237
▁ditunjuk	-10.5246
EC	-10.5258
▁Bagnaia	-10.5263
▁kecantikan	-10.5263
▁permukaan	-10.5263
▁imigrasi	-10.5263
▁Tabanan	-10.5263
▁keterampilan	-10.5263
▁1,5	-10.5264
▁Simak	-10.5266
▁kode	-10.5267
▁promosi	-10.5268
▁berkendara	-10.5268
▁Otoritas	-10.5269
EM	-10.5269
46	-10.5272
▁Mulia	-10.5273
▁Mbak	-10.5273
gara	-10.5277
▁taktik	-10.5281
▁Lin	-10.5283
▁Im	-10.5289
▁Satria	-10.5306
▁relevan	-10.5312
▁Yamaha	-10.5312
▁melengkapi	-10.5312
▁mengkritik	-10.5312
▁persetujuan	-10.5312
▁dikembangkan	-10.5312
▁revisi	-10.5312
▁curah	-10.5313
▁Polandia	-10.5313
▁pleno	-10.5313
kum	-10.5316
▁Diduga	-10.5317
▁Fakta	-10.5318
▁sadar	-10.5319
▁jawaban	-10.5321
IC	-10.5321
▁hunian	-10.5321
▁sertifikasi	-10.5323
nia	-10.5323
▁pemenangan	-10.5343
LO	-10.5345
onferensi	-10.5361
▁Panitia	-10.5362
▁Syariah	-10.5362
▁aliansi	-10.5362
▁berlatih	-10.5362
▁menembus	-10.5362
▁menyuarakan	-10.5362
▁perpanjangan	-10.5362
▁Manahan	-10.5364
▁#	-10.5364
▁kadar	-10.5364
az	-10.5373
▁Darat	-10.5373
▁jasad	-10.5373
pet	-10.5389
▁berterima	-10.539
ihal	-10.539
tam	-10.5395
laku	-10.5396
cal	-10.5402
kom	-10.5405
▁klarifikasi	-10.5412
▁menjanjikan	-10.5412
▁menerangkan	-10.5412
▁penolakan	-10.5412
▁kesuksesan	-10.5412
▁Depan	-10.5418
jah	-10.542
og	-10.5423
▁Arifin	-10.5423
Ber	-10.5426
▁kering	-10.5429
▁Jawab	-10.5431
▁segar	-10.5432
sum	-10.5432
ken	-10.5435
▁2024:	-10.5447
▁Heri	-10.5447
IKN	-10.5459
▁Kurnia	-10.5461
▁Mon	-10.5461
▁Raharja	-10.5462
▁Sahroni	-10.5462
▁bioskop	-10.5462
▁menempuh	-10.5462
▁etnis	-10.5462
▁mematikan	-10.5462
▁dapur	-10.5463
▁pengurangan	-10.5463
▁mengejar	-10.5463
▁inklusif	-10.5463
▁Kepada	-10.5465
▁Dapil	-10.5467
harga	-10.547
▁bansos	-10.5474
▁Basarnas	-10.5475
▁48	-10.5479
▁Ris	-10.5481
▁Pasifik	-10.5486
RANG	-10.5488
hat	-10.5493
▁v	-10.5494
▁Malik	-10.5495
▁Live	-10.5503
▁melintasi	-10.5511
▁Covid	-10.5513
▁menyasar	-10.5513
▁Persita	-10.5513
anggota	-10.5515
▁Yuni	-10.5515
▁UNRWA	-10.5518
▁Masalah	-10.552
▁membaca	-10.553
▁Abu	-10.5532
pos	-10.5536
▁erat	-10.5537
sak	-10.5545
▁Gas	-10.5547
val	-10.5552
▁42	-10.5553
Dalam	-10.5562
▁ditentukan	-10.5564
▁eksekutif	-10.5564
▁Seleksi	-10.5564
▁insentif	-10.5564
▁melemah	-10.5564
▁Bin	-10.5565
▁kawan	-10.5567
▁Begitu	-10.5568
▁Pemilih	-10.5576
OM	-10.5591
jauh	-10.5594
shi	-10.5604
tes	-10.5606
▁tas	-10.5614
▁helikopter	-10.5615
▁kripto	-10.5615
▁menampung	-10.5615
▁produktivitas	-10.5615
▁Ginting	-10.5615
▁Ketut	-10.5615
▁DPW	-10.5616
▁Penting	-10.5616
▁THR	-10.5616
▁Indar	-10.5618
▁ucapan	-10.562
pl	-10.5627
▁wa	-10.563
▁Guna	-10.563
▁diisi	-10.563
▁kubu	-10.5642
iyah	-10.5645
▁menunjuk	-10.5645
▁dibentuk	-10.5646
mem	-10.5654
▁spesialis	-10.5659
▁solid	-10.5665
▁Hasyim	-10.5666
▁Iduladha	-10.5666
▁menduduki	-10.5666
▁artikel	-10.5666
▁niat	-10.5667
▁paham	-10.5667
▁memb	-10.567
▁digitalisasi	-10.5671
▁masukan	-10.5672
▁tangkis	-10.5673
▁Final	-10.5675
tom	-10.5685
SS	-10.5688
tempat	-10.5688
TPS	-10.569
▁Fitri	-10.5691
yadi	-10.5696
aka	-10.5711
▁Ita	-10.5713
▁koleksi	-10.5717
▁komprehensif	-10.5717
▁kimia	-10.5717
▁melukai	-10.5717
▁dinamika	-10.5718
▁bertekad	-10.5718
▁voli	-10.5718
▁Onsu	-10.5718
▁suap	-10.5719
ensi	-10.572
▁ST	-10.5722
▁Herman	-10.5723
▁Pekan	-10.5724
▁Akhirnya	-10.5725
AT	-10.5729
▁biru	-10.5729
kapal	-10.5734
▁SIM	-10.5735
▁Kiai	-10.5736
Ter	-10.5744
▁diklaim	-10.5744
21	-10.5746
▁Ex	-10.5747
90	-10.5747
▁olah	-10.5749
-12	-10.5753
▁penye	-10.5763
▁Ditangkap	-10.5769
▁Lumajang	-10.5769
▁disetujui	-10.5769
▁botol	-10.5769
▁membebaskan	-10.5769
▁pengambilan	-10.5769
▁perasaan	-10.5769
▁mengedepan	-10.5769
▁kenapa	-10.5771
▁Bri	-10.5773
▁berke	-10.578
▁Sen	-10.578
▁opsi	-10.5788
bit	-10.579
▁putus	-10.58
PSI	-10.5801
▁Jalak	-10.5804
▁41	-10.5809
rt	-10.5817
onal	-10.5819
▁Komandan	-10.5821
▁Ramadhan	-10.5821
▁kronologi	-10.5821
▁bersikap	-10.5821
▁kakak	-10.5821
▁kecewa	-10.5821
▁Solidaritas	-10.5822
▁proposal	-10.5822
▁Purnama	-10.5822
▁terwujud	-10.5824
▁merawat	-10.5824
▁National	-10.5826
▁Saleh	-10.5833
▁Siak	-10.5837
▁mengarah	-10.5846
oran	-10.5846
▁pendampingan	-10.5852
▁penyediaan	-10.5865
lus	-10.5865
▁Ren	-10.5867
line	-10.5873
▁Logistik	-10.5874
▁kemacetan	-10.5874
▁meyakinkan	-10.5874
▁dibantu	-10.5874
▁basis	-10.5874
▁Alasan	-10.5875
▁mendekati	-10.5875
▁telak	-10.5875
▁pertamanya	-10.5877
▁Ayah	-10.5881
▁sederhana	-10.5881
▁vonis	-10.5881
▁lampu	-10.5882
Ya	-10.5883
▁Satreskrim	-10.5883
▁kg	-10.5884
▁Tuhan	-10.5884
▁Qu	-10.5885
-15	-10.5889
▁Tentu	-10.5889
atu	-10.589
▁AHY	-10.5893
▁menyebar	-10.5893
▁mendengarkan	-10.5896
▁am	-10.5901
rumah	-10.5907
▁jet	-10.5907
▁SP	-10.591
bil	-10.5911
-8	-10.5915
log	-10.5915
▁na	-10.5921
▁Af	-10.5922
▁tiap	-10.5925
▁Administrasi	-10.5926
▁ditawarkan	-10.5926
▁mempelajari	-10.5926
▁tercapai	-10.5926
pus	-10.5928
▁salat	-10.5929
fri	-10.5933
▁penandatanganan	-10.5934
▁Pelatihan	-10.5942
▁Tur	-10.5946
bek	-10.5949
▁amanah	-10.595
cy	-10.5952
isa	-10.5953
▁bersamaan	-10.5957
▁Kha	-10.5959
iri	-10.5962
▁leg	-10.5975
tem	-10.5977
bon	-10.5977
▁diabetes	-10.5979
▁perumahan	-10.5979
▁premium	-10.598
▁diakui	-10.598
▁Buruh	-10.5982
▁motivasi	-10.5983
▁didirikan	-10.5983
▁Dasar	-10.5983
▁berikut	-10.5983
▁penyedia	-10.5988
▁hancur	-10.5989
▁cadangan	-10.5993
MS	-10.5995
▁pemantauan	-10.5996
lit	-10.6002
pal	-10.6004
AR	-10.6006
▁44	-10.6012
▁Ribu	-10.6017
▁Makan	-10.602
▁Lama	-10.6023
▁karier	-10.6027
▁Boyolali	-10.6032
▁Harupat	-10.6032
▁Hijriah	-10.6032
▁Nasution	-10.6032
▁Senjata	-10.6032
▁kekeringan	-10.6032
▁mengendalikan	-10.6032
▁mengunggah	-10.6032
▁resolusi	-10.6032
▁volume	-10.6032
▁Aditya	-10.6033
▁menyinggung	-10.6033
▁Tessa	-10.6034
enanggapi	-10.6034
▁07:0	-10.6037
▁berisiko	-10.6039
▁Rizal	-10.604
▁400	-10.6043
picu	-10.6043
tika	-10.6061
▁bersatu	-10.6063
▁negaranya	-10.6064
tara	-10.6073
▁l	-10.6077
laga	-10.6082
ite	-10.6086
▁Vladimir	-10.6086
▁disediakan	-10.6086
▁stakeholder	-10.6086
▁petahana	-10.6086
▁segmen	-10.6086
▁Listyo	-10.6086
▁rezim	-10.6087
▁sertifikat	-10.6087
▁Show	-10.609
▁Citra	-10.609
▁Duel	-10.609
▁padahal	-10.6103
▁43	-10.6105
▁Harapan	-10.6108
sir	-10.611
rejo	-10.611
▁Bek	-10.6112
▁pendukungnya	-10.6118
▁Bina	-10.612
▁Timor	-10.6121
▁Kal	-10.6123
▁Jaga	-10.6123
38	-10.6126
68	-10.613
nes	-10.6132
▁dedikasi	-10.6134
▁menelan	-10.6138
▁eksklusif	-10.614
▁maskapai	-10.614
▁diakses	-10.614
▁direncanakan	-10.614
▁muslim	-10.614
▁Ngawi	-10.6141
▁tunai	-10.615
gah	-10.615
▁Kunjungan	-10.6153
▁Mungkin	-10.6154
▁berharga	-10.6156
.500	-10.6159
anglima	-10.6161
IP	-10.6165
▁asuhnya	-10.6165
▁KKB	-10.6168
leng	-10.617
▁Foundation	-10.6194
▁Swedia	-10.6194
▁bergulir	-10.6194
▁bertahap	-10.6194
▁menggagalkan	-10.6194
▁penyeberangan	-10.6194
▁umrah	-10.6194
▁wajar	-10.6194
▁finis	-10.6195
kata	-10.6195
dji	-10.6198
▁Kehadiran	-10.6202
▁(20	-10.6202
▁BAZNAS	-10.6205
▁merata	-10.6205
BB	-10.6206
▁menc	-10.6207
▁PMI	-10.6207
▁benda	-10.6213
▁lomba	-10.6215
siap	-10.6216
▁Ag	-10.6216
▁didorong	-10.6216
$	-10.6218
▁jumlahnya	-10.6218
▁pecah	-10.622
▁Asal	-10.6221
▁Pengawasan	-10.6227
▁2024",	-10.6242
▁Deklarasi	-10.6248
▁armada	-10.6248
▁dideportasi	-10.6248
▁miskin	-10.6248
▁Pembunuhan	-10.6248
▁Jaringan	-10.6248
▁Susanto	-10.6248
▁mendarat	-10.6248
▁muka	-10.6249
▁Mabes	-10.625
▁Terbaik	-10.6251
▁berkurang	-10.6253
▁Peningkatan	-10.6254
▁produktif	-10.6259
▁seputar	-10.6262
ON	-10.6263
▁65	-10.6264
04	-10.6264
▁warisan	-10.6267
▁ibunya	-10.6271
rian	-10.6272
34	-10.6273
39	-10.6292
dul	-10.6293
▁Hasilnya	-10.6295
awi	-10.6295
▁20:0	-10.6296
king	-10.6297
▁Management	-10.6303
▁Pertandingan	-10.6303
▁Unggul	-10.6303
▁alumni	-10.6303
▁dipenuhi	-10.6303
▁menyeluruh	-10.6303
▁milenial	-10.6303
▁penyanyi	-10.6303
▁terpidana	-10.6303
▁mengoptimal	-10.6303
▁Kendal	-10.6304
▁kiper	-10.6305
▁kena	-10.6305
▁konsolidasi	-10.6306
▁perut	-10.6306
▁Amran	-10.6306
▁GOR	-10.6307
awal	-10.631
▁tembak	-10.6312
pusat	-10.6315
▁APBD	-10.6317
port	-10.632
pul	-10.6324
▁go	-10.6324
▁Pengelolaan	-10.6331
enuhan	-10.6341
▁Win	-10.6343
▁dibintangi	-10.6356
▁kelapa	-10.6357
▁Ban	-10.6358
▁Georgia	-10.6358
▁Sumedang	-10.6358
▁menindak	-10.6358
▁terintegrasi	-10.6358
▁tertarik	-10.6358
▁membongkar	-10.6358
▁zaman	-10.6358
turut	-10.6359
▁apel	-10.636
nu	-10.6361
▁Band	-10.6365
▁ideal	-10.6365
▁dimintai	-10.6368
▁Subang	-10.6368
▁Naik	-10.6369
▁Saksi	-10.6379
api	-10.638
dal	-10.6382
atur	-10.6389
▁Strategi	-10.6392
▁kliennya	-10.6393
▁PA	-10.6396
▁Pati	-10.6406
09	-10.6409
▁Federal	-10.6413
▁membersihkan	-10.6413
▁ditandatangani	-10.6413
▁Tentara	-10.6413
▁membakar	-10.6413
▁ditingkatkan	-10.6413
▁Akhir	-10.6414
▁pemegang	-10.6414
ivitas	-10.6415
Bawaslu	-10.6415
▁dilanda	-10.6415
▁bersejarah	-10.6416
▁Cinta	-10.6417
▁Syah	-10.6418
air	-10.6419
▁taman	-10.6419
▁PB	-10.6425
▁musuh	-10.6433
▁struktur	-10.6435
ou	-10.6435
▁Tour	-10.6442
▁Ger	-10.6444
▁Judi	-10.6446
▁mendaftarkan	-10.6447
▁beragama	-10.6449
daya	-10.6451
▁AC	-10.6454
▁banyaknya	-10.6456
03	-10.6457
yah	-10.6458
▁Sudan	-10.6462
anaknya	-10.6463
▁komitmennya	-10.6464
▁Pesawat	-10.6468
▁diberlakukan	-10.6468
▁keturunan	-10.6468
▁mematuhi	-10.6468
▁membahayakan	-10.6468
▁tersendiri	-10.6468
▁Cilegon	-10.6468
▁rantai	-10.6468
▁teknik	-10.6468
▁tuntas	-10.6468
▁memasukkan	-10.6469
▁Ingin	-10.6469
▁masif	-10.6469
▁Kulon	-10.647
▁lupa	-10.647
▁Libur	-10.647
▁Week	-10.6471
wah	-10.6471
BM	-10.6471
▁tingginya	-10.6473
ular	-10.6478
▁Mark	-10.6479
▁Inilah	-10.6481
Peng	-10.6496
▁harian	-10.6496
rom	-10.6498
tai	-10.6508
hir	-10.6521
▁Kreatif	-10.6524
▁Sejahtera	-10.6524
▁keberangkatan	-10.6524
▁melampaui	-10.6524
▁General	-10.6524
▁penulis	-10.6524
▁virus	-10.6524
▁mengusut	-10.6524
▁mirip	-10.6525
▁Chief	-10.6525
▁Hartono	-10.6525
▁moral	-10.6525
▁gender	-10.6526
▁Sekda	-10.6526
qu	-10.6527
▁mengurus	-10.6531
▁intervensi	-10.6532
ski	-10.6537
▁AM	-10.6538
ID	-10.6539
MB	-10.6541
sut	-10.6545
▁jumpa	-10.6546
lot	-10.6546
PO	-10.655
▁dipasang	-10.655
▁Wang	-10.6552
▁Sumar	-10.6553
ore	-10.6554
▁pel	-10.6554
lab	-10.6563
▁Press	-10.6566
Kemen	-10.6568
BN	-10.6571
▁XXI	-10.6572
▁ingat	-10.6574
▁Star	-10.6575
▁sih	-10.6577
sem	-10.6578
51	-10.658
▁bernomor	-10.6581
▁kepemilikan	-10.6581
▁keperluan	-10.6581
▁menghapus	-10.6581
▁Segera	-10.6581
▁Jorge	-10.6581
▁dibahas	-10.6581
▁Aliansi	-10.6581
▁Irish	-10.6581
▁narasi	-10.6581
▁butir	-10.6581
▁sepatu	-10.6581
▁maritim	-10.6582
▁Bantu	-10.6583
urus	-10.6585
ndang	-10.6586
▁Rahman	-10.6587
NA	-10.6591
masa	-10.6593
▁pemberontak	-10.6593
mati	-10.6596
▁Gempa	-10.6596
▁Jan	-10.6604
obatan	-10.661
AK	-10.6616
Komnas	-10.6616
55	-10.6617
alisasi	-10.662
ral	-10.6637
▁mendadak	-10.6637
▁menonton	-10.6637
▁Penyebab	-10.6637
▁memberantas	-10.6637
▁Sukses	-10.6637
▁Pemilik	-10.6638
▁Stefano	-10.664
bra	-10.6643
▁Komitmen	-10.6643
▁Kejadian	-10.6645
TV	-10.6647
udi	-10.6652
KM	-10.6652
▁Es	-10.6653
kawan	-10.6658
HI	-10.6661
kel	-10.6665
far	-10.6673
▁menyebarkan	-10.6675
▁hukumnya	-10.6677
▁2021.	-10.668
▁kok	-10.6688
unggu	-10.669
▁Muara	-10.6691
ish	-10.6693
▁Parawansa	-10.6694
▁Barcelona	-10.6694
▁Communication	-10.6694
▁Swiss	-10.6694
▁Yudhoyono	-10.6694
▁bjb	-10.6694
▁memengaruhi	-10.6694
▁satelit	-10.6694
▁bergengsi	-10.6694
▁diunggah	-10.6694
▁hebat	-10.6694
▁tumbang	-10.6695
▁berujung	-10.67
▁Ng	-10.6712
29	-10.6714
▁Bola	-10.6721
▁Che	-10.6723
▁Suci	-10.6725
UP	-10.6729
▁ekor	-10.6732
▁Den	-10.6734
▁Mau	-10.6738
tap	-10.6739
rul	-10.674
▁19:0	-10.6741
▁peny	-10.6741
▁(1)	-10.6748
▁Birokrasi	-10.6751
▁Energy	-10.6751
▁almarhum	-10.6751
▁berpengaruh	-10.6751
▁Cimahi	-10.6751
▁roket	-10.6751
▁absen	-10.6751
▁dicetak	-10.6751
▁Florida	-10.6751
▁Social	-10.6751
▁Hindu	-10.6751
dha	-10.6752
▁Meningkat	-10.6755
ANTARA	-10.6758
▁Far	-10.6758
otret	-10.676
▁Kemnaker	-10.6765
▁penyerang	-10.6765
▁lah	-10.6766
▁Ajak	-10.6766
dong	-10.6766
▁turis	-10.6768
daerah	-10.6769
dr	-10.6769
27	-10.677
▁Diri	-10.6771
▁balasan	-10.6772
▁Kus	-10.6772
▁Mini	-10.6772
KK	-10.6775
▁DKPP	-10.6777
alang	-10.6783
▁Suk	-10.6787
▁Pam	-10.6788
32	-10.6788
▁Deli	-10.679
-2	-10.6791
BT	-10.6794
▁diproduksi	-10.6795
▁Let	-10.6796
▁SERA	-10.6799
lum	-10.6804
▁panel	-10.6805
sik	-10.6806
▁dihadirkan	-10.6808
▁Idris	-10.6808
▁Meninggal	-10.6808
▁Peduli	-10.6808
▁horor	-10.6808
▁transfer	-10.6809
▁Anung	-10.6815
▁2011	-10.6817
▁persnya	-10.6819
▁MS	-10.6822
▁Seksi	-10.6823
▁Ditjen	-10.6825
kasus	-10.6828
ple	-10.683
hab	-10.6837
▁pre	-10.6841
▁Pop	-10.6843
48	-10.6844
SE	-10.6846
til	-10.6851
▁seks	-10.6852
▁Marga	-10.6852
sung	-10.6855
UI	-10.6858
▁DC	-10.6858
▁menyimpan	-10.6864
▁Bandar	-10.6864
▁Liverpool	-10.6866
▁Manchester	-10.6866
▁membalas	-10.6866
▁rekening	-10.6866
▁nasi	-10.6866
▁Putera	-10.6866
▁dihentikan	-10.6867
▁kebanyakan	-10.6867
▁Pengusaha	-10.6867
ALANG	-10.6867
▁bareng	-10.6867
▁menyumbang	-10.6868
▁baju	-10.6868
▁Officer	-10.6869
▁Fuji	-10.687
ary	-10.6871
lakoni	-10.6873
▁papan	-10.6877
▁Makin	-10.6881
▁mere	-10.6885
mis	-10.6887
▁Giri	-10.69
▁out	-10.6904
sion	-10.6913
▁58	-10.6915
▁Atta	-10.6924
Hal	-10.6924
▁Miftah	-10.6924
▁krusial	-10.6924
▁Yahya	-10.6924
▁kecuali	-10.6924
▁dibunuh	-10.6925
▁Ahok	-10.6925
▁walau	-10.6925
▁Wuling	-10.6925
▁Unair	-10.6925
▁rilis	-10.6925
▁Melihat	-10.6925
▁Ismail	-10.6925
Si	-10.6926
uang	-10.6929
Bu	-10.6932
▁seberat	-10.6934
gh	-10.6937
enang	-10.6952
fer	-10.6952
upaya	-10.6955
▁Ros	-10.6956
▁GP	-10.6959
▁berhati	-10.6968
▁matang	-10.6971
▁Siswa	-10.6972
cc	-10.6973
▁Um	-10.6976
arto	-10.6979
▁ukuran	-10.698
▁Brimob	-10.6983
▁erupsi	-10.6983
▁jenderal	-10.6983
▁perceraian	-10.6983
▁rumput	-10.6983
▁varian	-10.6983
▁bilateral	-10.6983
▁ulama	-10.6983
▁pengaturan	-10.6983
▁Kristen	-10.6983
OS	-10.6984
▁47	-10.6987
▁Fasilitas	-10.6987
▁pembangkit	-10.6987
▁Musi	-10.699
lokasi	-10.6991
▁PSIM	-10.6993
▁teror	-10.6993
▁menua	-10.6995
ius	-10.6998
▁batang	-10.6999
▁17:0	-10.7003
▁Cu	-10.7003
ase	-10.7008
▁Strategis	-10.7008
rek	-10.7014
▁Mela	-10.7016
44	-10.7018
ret	-10.7019
▁Ele	-10.702
▁peta	-10.7025
▁minim	-10.703
▁halal	-10.7034
▁Musk	-10.7041
▁hambatan	-10.7042
▁kepastian	-10.7042
▁pengaduan	-10.7042
▁perwira	-10.7042
▁rambut	-10.7042
▁lansia	-10.7042
▁patut	-10.7042
▁relatif	-10.7042
Re	-10.7043
▁16:1	-10.7046
yar	-10.7047
▁Amir	-10.7054
aksa	-10.7055
▁PUPR	-10.7059
▁Cawapres	-10.7061
▁belasan	-10.7064
100	-10.7066
▁Rian	-10.7067
for	-10.7067
▁terjun	-10.7072
tt	-10.7075
temu	-10.7075
mil	-10.708
tok	-10.7084
can	-10.7089
sebut	-10.709
rong	-10.7091
kira	-10.7091
AH	-10.7093
_	-10.7101
▁Insiden	-10.7101
▁Sudirman	-10.7101
▁Tokyo	-10.7101
▁Yahudi	-10.7101
▁figur	-10.7101
▁negosiasi	-10.7101
▁raksasa	-10.7101
▁menyarankan	-10.7101
▁murid	-10.7101
▁Pameran	-10.7101
▁berdarah	-10.7101
▁ditolak	-10.7101
▁Power	-10.7101
▁Teknis	-10.7101
▁1.200	-10.7101
ngga	-10.7102
▁Wahid	-10.7103
▁Mitra	-10.7104
▁memakan	-10.7111
ive	-10.7118
▁Land	-10.7136
▁Nurul	-10.7138
.45	-10.7148
awali	-10.7151
versi	-10.7157
batas	-10.7158
▁Kinerja	-10.716
▁Portugal	-10.716
▁Suzuki	-10.716
▁Uzbekistan	-10.716
▁pengangguran	-10.716
▁pengolahan	-10.716
▁menyenangkan	-10.716
▁kerabat	-10.716
▁telur	-10.716
▁Kusuma	-10.7161
▁pergantian	-10.7161
▁lemak	-10.7161
▁alokasi	-10.7162
▁liter	-10.7163
▁mandi	-10.7163
Suswono	-10.7166
▁berhubungan	-10.717
lap	-10.7171
utamakan	-10.7171
▁politikus	-10.7173
▁syukur	-10.7175
▁pemda	-10.7178
▁rincian	-10.7182
▁campur	-10.719
▁Isu	-10.7191
▁Penelitian	-10.7194
mor	-10.7196
▁Pram	-10.7208
jawa	-10.7217
▁multi	-10.722
▁Pencegahan	-10.722
▁menghubungkan	-10.722
▁pencoblosan	-10.722
▁BYD	-10.722
▁melebihi	-10.722
▁perhitungan	-10.722
▁Barito	-10.722
▁nikel	-10.722
▁Turun	-10.7223
▁Haiti	-10.7223
▁seruan	-10.7223
▁beber	-10.7225
-6	-10.7226
Hamas	-10.7227
▁Mars	-10.7233
▁Law	-10.724
ves	-10.7243
SDM	-10.7253
23/	-10.7272
▁88	-10.7276
▁putranya	-10.7279
▁Mohammed	-10.7281
▁School	-10.7281
▁memaksimalkan	-10.7281
▁menindaklanjuti	-10.7281
▁tertinggal	-10.7281
▁Luhut	-10.7281
▁berhadapan	-10.7281
▁kertas	-10.7281
▁dihasilkan	-10.7281
▁mencabut	-10.7281
AC	-10.7282
NE	-10.7284
▁favorit	-10.7285
▁menyapa	-10.7285
▁matahari	-10.7286
▁Aji	-10.7288
pp	-10.729
cat	-10.729
▁Politikus	-10.7293
▁indikasi	-10.7303
▁Persen	-10.7304
▁Tra	-10.7305
▁ex	-10.7307
sim	-10.7309
▁andalan	-10.7312
▁Bunga	-10.7312
▁Seru	-10.7313
▁ketidak	-10.7315
▁Az	-10.7318
abung	-10.7335
satu	-10.7335
▁Faisal	-10.7341
▁menyesuaikan	-10.7341
▁Fikri	-10.7341
▁abad	-10.7341
▁Pelajar	-10.7341
▁mesti	-10.7342
▁tercipta	-10.7342
▁pesat	-10.7344
▁terheboh	-10.7344
▁terorisme	-10.7344
HT	-10.7347
▁17:1	-10.7348
▁perundingan	-10.7348
jin	-10.7352
▁dipercaya	-10.7357
▁Don	-10.7358
banding	-10.736
▁GIIAS	-10.736
▁Ikat	-10.7365
wal	-10.7366
▁Asy	-10.7367
▁semata	-10.7367
mun	-10.7375
hin	-10.7378
baya	-10.7381
▁diubah	-10.7382
▁Sya	-10.7389
▁Yus	-10.739
▁Asuransi	-10.7402
▁Pemberdayaan	-10.7402
▁gejala	-10.7402
▁memperpanjang	-10.7402
▁terbunuh	-10.7402
▁perencanaan	-10.7402
▁Fauziyah	-10.7402
▁PPK	-10.7402
▁musisi	-10.7402
▁Tegas	-10.7404
tensi	-10.7404
bagi	-10.7405
▁Diponegoro	-10.7406
▁mar	-10.7406
besar	-10.7407
▁bercerita	-10.7407
betul	-10.7411
▁memecah	-10.7411
▁Food	-10.7412
▁Awal	-10.7414
▁pemadam	-10.742
▁Ny	-10.742
ide	-10.7421
ora	-10.7437
▁balapan	-10.7439
BU	-10.7451
ome	-10.7452
▁Puan	-10.7462
▁Pendayagunaan	-10.7463
▁Sulaiman	-10.7463
▁gembira	-10.7463
▁ketenagakerjaan	-10.7463
▁manufaktur	-10.7463
▁mengharapkan	-10.7463
▁mulut	-10.7463
▁Komisioner	-10.7463
▁menghargai	-10.7463
▁SPBU	-10.7464
▁Ambon	-10.7464
beda	-10.7465
▁2023-2024	-10.7465
▁Sosialisasi	-10.7466
▁hidupnya	-10.7481
▁berturut	-10.7481
▁Peran	-10.7484
▁padi	-10.7485
▁Nga	-10.7485
▁Sangat	-10.749
karya	-10.7493
▁KTP	-10.7495
lly	-10.7496
▁Wo	-10.7498
pok	-10.7503
pur	-10.7514
▁terbarukan	-10.7514
▁Arie	-10.7515
31	-10.7518
▁Pamekasan	-10.7525
▁Research	-10.7525
▁Telegram	-10.7525
▁hoaks	-10.7525
▁komandan	-10.7525
▁stres	-10.7525
▁keluhan	-10.7525
▁Cikarang	-10.7525
▁Mahendra	-10.7525
▁Potensi	-10.7526
▁gelap	-10.7526
▁Azwar	-10.7526
▁lemah	-10.7526
▁ditempatkan	-10.7526
▁Kebangkitan	-10.7527
▁terjebak	-10.7527
▁disahkan	-10.7527
▁Mudik	-10.7528
▁Mengapa	-10.7529
ig	-10.7531
▁BSD	-10.7531
▁CI	-10.7531
▁Kalsel	-10.7532
07	-10.7533
partai	-10.7534
Qur	-10.7536
OR	-10.7536
▁Sales	-10.7537
▁warganet	-10.7538
BH	-10.7541
▁Mel	-10.7542
Manajer	-10.7542
▁Nataru	-10.7542
▁Laku	-10.7545
▁Bangun	-10.7552
dil	-10.7554
▁Rah	-10.7561
▁berikan	-10.7566
▁Jong	-10.7567
▁lu	-10.7568
▁match	-10.7569
▁Ak	-10.7585
▁Aparat	-10.7587
▁Kehutanan	-10.7587
▁Migran	-10.7587
▁Komando	-10.7587
▁Boeing	-10.7587
▁dicapai	-10.7587
▁ketinggian	-10.7587
▁Dasco	-10.7588
▁Febri	-10.7588
aj	-10.7588
▁jelang	-10.7588
ngkar	-10.7589
▁Roma	-10.759
tanggung	-10.759
▁Demi	-10.7598
EA	-10.7599
▁real	-10.76
bri	-10.7601
▁disiplin	-10.7601
▁komp	-10.7601
▁PPDB	-10.7603
▁07:1	-10.7604
▁praktis	-10.7615
36	-10.7616
DN	-10.7622
▁Ch	-10.7624
▁mengajar	-10.7624
▁lebar	-10.7625
▁Sport	-10.7635
▁51	-10.7636
umbu	-10.7645
▁kain	-10.7646
▁Kekerasan	-10.765
▁Sekretariat	-10.765
▁kegagalan	-10.765
▁terjatuh	-10.765
▁wacana	-10.765
▁Asisten	-10.765
▁South	-10.765
▁52	-10.7655
Pemkot	-10.7659
nta	-10.766
▁medan	-10.7661
▁RA	-10.7661
mohon	-10.7661
ros	-10.7663
▁BNI	-10.7664
▁Baca	-10.7665
▁tangkap	-10.7667
dari	-10.7669
▁Kemen	-10.7672
▁Pastikan	-10.7675
▁tuanya	-10.7677
kong	-10.7678
▁Memang	-10.768
▁Kam	-10.7683
▁Pre	-10.7684
putar	-10.7684
stra	-10.7687
bayang	-10.7688
▁Haris	-10.769
GA	-10.7694
kul	-10.7695
ure	-10.7704
▁Beirut	-10.7713
▁Racing	-10.7713
▁Zulkifli	-10.7713
▁perkebunan	-10.7713
▁verifikasi	-10.7713
▁bermotor	-10.7713
▁Perkasa	-10.7713
▁kebudayaan	-10.7713
▁memandang	-10.7713
▁jujur	-10.7713
▁Rahayu	-10.7713
▁penyebaran	-10.7713
▁Dardak	-10.7714
▁tipis	-10.7715
ea	-10.7715
▁menghantam	-10.7715
▁Malut	-10.7717
-25	-10.7719
▁Situasi	-10.7719
▁bersubsidi	-10.7721
lor	-10.7726
▁Ulang	-10.7727
▁IS	-10.7731
57	-10.7731
▁Hendra	-10.7734
▁profesi	-10.7739
PKS	-10.7741
▁Punya	-10.7741
▁indah	-10.7744
-14	-10.7746
:50	-10.7747
▁2.000	-10.7748
▁Dik	-10.7748
▁Kris	-10.7753
▁bernilai	-10.7753
fin	-10.7759
▁ujian	-10.776
▁geng	-10.7762
UM	-10.7764
aba	-10.7764
▁16:0	-10.7766
▁Astra	-10.7775
▁One	-10.7775
▁Thariq	-10.7776
▁bersinergi	-10.7776
▁kucing	-10.7776
▁perundungan	-10.7776
▁Alumni	-10.7776
▁single	-10.7776
▁Teknik	-10.7776
▁kebaikan	-10.7776
▁web	-10.7776
▁zat	-10.7776
▁Sehat	-10.7777
▁penyandang	-10.7777
▁Sampah	-10.7778
▁Kevin	-10.7779
▁Kuala	-10.7781
▁Koperasi	-10.7782
▁Adam	-10.7782
▁16:2	-10.779
▁RIDO	-10.7791
dasarkan	-10.7792
▁pengelola	-10.7794
▁Hati	-10.7796
▁20:2	-10.7797
▁tahan	-10.7799
▁Eman	-10.7801
und	-10.7805
▁09:0	-10.7806
▁debut	-10.781
▁Mac	-10.7816
▁Cho	-10.7819
yak	-10.782
CO	-10.7824
idi	-10.7824
▁2021,	-10.7826
▁Pers	-10.783
fan	-10.7832
art	-10.7839
▁Kemayoran	-10.784
▁Pelanggan	-10.784
▁Sepanjang	-10.784
▁amunisi	-10.784
▁menuntaskan	-10.784
▁penasihat	-10.784
▁bertanding	-10.784
▁memadai	-10.784
▁Seoul	-10.784
▁menyusun	-10.784
▁Finance	-10.784
rikatan	-10.7841
▁berinovasi	-10.7842
▁Sampang	-10.7843
jati	-10.7845
▁Solusi	-10.7846
▁20:4	-10.7847
▁Milik	-10.7848
▁Harun	-10.7849
▁mengangkut	-10.7849
▁Ol	-10.7853
embangun	-10.7856
arta	-10.7858
▁diajak	-10.7859
▁bara	-10.7862
▁ganti	-10.7862
The	-10.7862
▁ujung	-10.7863
▁Dian	-10.7864
▁pak	-10.7865
▁Asri	-10.7867
33	-10.7869
▁kayak	-10.7871
▁Mada	-10.7874
▁Maria	-10.7876
▁live	-10.7885
gang	-10.7888
▁jalannya	-10.7892
▁sinyal	-10.7894
yani	-10.7896
▁Hall	-10.79
▁Toyota	-10.7904
▁konstruksi	-10.7904
▁memberlakukan	-10.7904
▁Menaker	-10.7904
▁bibit	-10.7904
▁Peluang	-10.7905
▁Ansor	-10.7905
▁Senat	-10.7906
▁manajer	-10.7906
perebutkan	-10.7906
▁bawang	-10.7907
▁Pel	-10.7909
▁Garda	-10.7909
ST	-10.7909
ree	-10.791
▁seniman	-10.7911
pah	-10.7912
PC	-10.7914
stan	-10.7914
PB	-10.7917
65	-10.7917
▁is	-10.7933
▁dijaga	-10.794
ks	-10.7946
unt	-10.795
▁sub	-10.7952
▁Musik	-10.7957
▁Rokan	-10.7959
▁tenda	-10.7968
▁Health	-10.7968
▁Hyundai	-10.7968
▁aborsi	-10.7968
▁memikirkan	-10.7968
▁Kakanwil	-10.7968
▁melantik	-10.7968
▁rekrutmen	-10.7968
▁tertib	-10.7968
▁diinginkan	-10.7968
▁dikarenakan	-10.7968
▁gelandang	-10.7969
▁End	-10.797
▁berkomentar	-10.7972
▁Tua	-10.7972
▁stok	-10.7973
▁super	-10.7975
▁keyakinan	-10.7979
BPBD	-10.7979
▁Salim	-10.7979
▁Penyuluhan	-10.798
▁08:3	-10.7981
▁segi	-10.7983
12/	-10.7987
▁penderita	-10.7988
lay	-10.7992
▁bawa	-10.7992
ebutan	-10.7993
▁kandung	-10.7997
implementasikan	-10.8004
UK	-10.8004
▁SI	-10.8005
▁Ab	-10.8013
▁Seri	-10.8013
▁batangan	-10.8017
:45	-10.8017
▁membuatnya	-10.8026
▁Edy	-10.8032
▁drama	-10.8033
▁Kendati	-10.8033
▁Nugraha	-10.8033
▁cerdas	-10.8033
▁kuartal	-10.8033
▁permukiman	-10.8033
▁peluru	-10.8034
▁Mulyani	-10.8034
landia	-10.8035
▁Perlu	-10.8037
▁posko	-10.8038
▁dukungannya	-10.804
▁99	-10.8042
Dia	-10.8044
▁Val	-10.8045
ula	-10.8046
▁biji	-10.8048
▁Buah	-10.805
▁Ze	-10.805
▁Prima	-10.8051
▁tawaran	-10.8055
/12	-10.8055
▁dibagikan	-10.8058
afi	-10.8058
ungan	-10.8063
▁FK	-10.808
kol	-10.8083
ema	-10.8095
rip	-10.8096
arah	-10.8098
é	-10.8099
▁Facebook	-10.8099
▁Kehormatan	-10.8099
▁Narkotika	-10.8099
▁Sarwendah	-10.8099
▁pemerasan	-10.8099
▁sempurna	-10.8099
▁trauma	-10.8099
▁citra	-10.8099
▁agak	-10.8099
▁Banyumas	-10.8099
▁Jepara	-10.8099
▁Kartu	-10.8107
▁Intan	-10.8107
▁sewaktu	-10.8107
HA	-10.811
▁melangkah	-10.811
▁Los	-10.8114
▁lambat	-10.8116
▁Assad	-10.8117
▁yong	-10.8118
▁Ardi	-10.8118
low	-10.8119
▁rekam	-10.8122
▁bangkit	-10.8123
▁bea	-10.8123
ies	-10.8124
▁08:0	-10.8129
mad	-10.8131
Mu	-10.8136
trans	-10.8137
▁BA	-10.8139
▁Temu	-10.8144
Al	-10.8148
▁akar	-10.8153
uma	-10.8154
WA	-10.8154
▁Fat	-10.8155
▁temannya	-10.8155
▁On	-10.8162
Un	-10.8164
▁Ducati	-10.8164
▁Keadilan	-10.8164
▁Pengendali	-10.8164
▁Wisnu	-10.8164
▁netizen	-10.8164
▁Bukti	-10.8164
▁Tampil	-10.8164
▁pengedar	-10.8164
▁ormas	-10.8164
▁keberatan	-10.8165
▁wasit	-10.8165
▁goreng	-10.8165
▁Belitung	-10.8165
PH	-10.8165
▁ilmuwan	-10.8167
▁Daop	-10.817
alun	-10.8172
▁Kalteng	-10.8172
▁Awalnya	-10.8174
▁set	-10.8176
CA	-10.8176
PKB	-10.8177
lembaga	-10.8177
Rano	-10.8177
ukir	-10.8184
▁Modi	-10.8187
▁17:3	-10.8193
▁ciri	-10.8194
ingat	-10.8195
▁Massa	-10.8196
▁dijatuh	-10.8196
▁KIM	-10.82
▁JPU	-10.8201
▁Yudi	-10.8209
▁Ye	-10.821
ndra	-10.8213
wanto	-10.8214
iti	-10.8225
▁Banjar	-10.8229
▁kehormatan	-10.8231
▁pencabulan	-10.8231
▁Ryder	-10.8231
Armuji	-10.8231
▁gratifikasi	-10.8231
▁Menjadi	-10.8232
ES	-10.8232
▁Bebas	-10.8232
▁Ilegal	-10.8233
▁Human	-10.8237
▁abu	-10.8243
UMKM	-10.8244
▁tergantung	-10.8244
▁anjing	-10.8245
▁miras	-10.8245
▁bers	-10.825
▁penghasilan	-10.8253
▁Peter	-10.8254
▁wilayahnya	-10.826
▁menyerah	-10.8267
59	-10.8267
▁56	-10.8268
▁98	-10.827
▁DJ	-10.8273
1/	-10.8276
▁(14	-10.8277
tum	-10.8278
▁Service	-10.828
ona	-10.8285
▁46	-10.8289
dok	-10.8294
emungutan	-10.8297
▁Proliga	-10.8297
▁indekos	-10.8297
▁kreativitas	-10.8297
▁menjerat	-10.8297
▁rehabilitasi	-10.8297
▁penataan	-10.8297
▁memukul	-10.8297
▁zakat	-10.8297
▁FIFA	-10.8297
▁Izin	-10.8297
▁Akmal	-10.8298
▁inisial	-10.8298
▁Zakat	-10.8298
▁Ce	-10.8299
▁1998	-10.83
over	-10.8301
ifikasi	-10.8301
▁13:0	-10.8303
▁pilar	-10.8303
▁sahabat	-10.8304
lih	-10.8304
OK	-10.8306
▁Ayat	-10.8308
▁SYL	-10.8312
▁intimidasi	-10.8313
▁pinggir	-10.832
kian	-10.832
▁Lab	-10.8326
sos	-10.8326
▁sumpah	-10.8329
▁Wira	-10.8337
▁makna	-10.834
kara	-10.8344
sih	-10.8344
▁Can	-10.8346
▁im	-10.8347
▁Yos	-10.8349
▁mil	-10.8351
▁JA	-10.8355
▁Aris	-10.8355
Hari	-10.8356
pra	-10.8357
iro	-10.8359
ted	-10.836
▁2020.	-10.8361
▁2,5	-10.8361
▁Banyuasin	-10.8364
▁Pahlawan	-10.8364
▁Suasana	-10.8364
▁antisipasi	-10.8364
▁dikuasai	-10.8364
▁disalurkan	-10.8364
▁kebiasaan	-10.8364
▁terobosan	-10.8364
▁FOTO	-10.8364
▁Sosok	-10.8364
▁semoga	-10.8364
▁lapisan	-10.8365
▁betapa	-10.8365
▁Konser	-10.8366
▁Kurniawan	-10.8366
▁1-0	-10.8368
▁terjaga	-10.8368
▁mendominasi	-10.8369
WI	-10.8372
LP	-10.8372
▁ternama	-10.8377
▁cek	-10.8378
hara	-10.838
Bangsa	-10.838
▁menggal	-10.8382
nggar	-10.8382
Selain	-10.8382
▁Merak	-10.8383
▁Vice	-10.8384
▁w	-10.8391
▁menj	-10.8394
▁Momen	-10.8397
▁jalanan	-10.8398
▁je	-10.8399
▁LP	-10.8403
47	-10.8415
-18	-10.842
▁meja	-10.8421
vin	-10.8428
enetapan	-10.843
▁Jombang	-10.8432
▁PEKANBARU	-10.8432
▁mengabaikan	-10.8432
▁menghambat	-10.8432
▁operator	-10.8432
▁2024-2025	-10.8432
▁penempatan	-10.8433
▁kuning	-10.8433
▁Saputra	-10.8433
▁penyerahan	-10.8433
▁reaksi	-10.8434
▁antusiasme	-10.8435
▁marak	-10.8436
▁Kelapa	-10.8436
▁Aplikasi	-10.8437
sam	-10.8438
elandang	-10.8439
▁kelurahan	-10.8439
▁siaga	-10.844
▁Sulteng	-10.8444
▁Waspada	-10.8447
sangat	-10.8449
▁penjual	-10.8454
▁kondisinya	-10.8454
undangan	-10.8455
entil	-10.8459
▁blok	-10.8459
itan	-10.8459
▁TKN	-10.846
▁Sho	-10.8461
Rancangan	-10.8464
bab	-10.8465
▁20:3	-10.8466
▁Halim	-10.847
▁Bule	-10.8472
67	-10.8475
▁membacakan	-10.8478
▁19:3	-10.8479
▁VI	-10.8481
run	-10.8484
▁AR	-10.8484
▁der	-10.8486
rap	-10.8496
▁Academy	-10.85
▁Michael	-10.85
▁istilah	-10.85
▁pemanggilan	-10.85
▁punggung	-10.85
▁terdengar	-10.85
▁sengit	-10.85
▁Supriyani	-10.85
▁distrik	-10.85
▁Dampak	-10.8501
▁Maya	-10.8501
nggang	-10.8501
lina	-10.8502
▁Doha	-10.8503
▁AFC	-10.8505
▁terganggu	-10.8505
▁Area	-10.8506
▁49	-10.8506
abu	-10.8507
▁Chandra	-10.8513
▁2009	-10.8516
▁William	-10.8519
nus	-10.8523
bentuk	-10.8532
uji	-10.8535
▁Sore	-10.854
-11	-10.855
▁13:3	-10.8552
rik	-10.8563
▁spesifik	-10.8566
▁Puskesmas	-10.8568
▁Upacara	-10.8568
▁kebersamaan	-10.8568
▁kriteria	-10.8568
▁membiarkan	-10.8568
▁pemakaman	-10.8568
▁Club	-10.8568
▁bersedia	-10.8568
▁penanaman	-10.8568
▁persegi	-10.8569
▁lonjakan	-10.8569
▁seminar	-10.8569
▁minoritas	-10.8569
▁Rio	-10.8569
▁batik	-10.8571
▁terdepan	-10.8571
▁Karim	-10.8572
▁pikiran	-10.8573
▁Dja	-10.8575
▁Alasannya	-10.8576
▁DBD	-10.8581
▁21:1	-10.8581
Alhamdulillah	-10.8584
▁eskalasi	-10.8584
hen	-10.859
▁kas	-10.8592
▁Lam	-10.8593
▁Yoon	-10.8608
▁Zi	-10.861
▁via	-10.8612
ANG	-10.8612
▁Nanti	-10.8618
arti	-10.8623
78	-10.8623
▁Ary	-10.8628
▁Timah	-10.8631
▁Aaliyah	-10.8637
▁Gerimis	-10.8637
▁Kimberly	-10.8637
▁Virgoun	-10.8637
▁menyentuh	-10.8637
▁pengeroyokan	-10.8637
▁lembar	-10.8637
▁perkiraan	-10.8637
▁sebaliknya	-10.8638
▁Generasi	-10.8638
▁kala	-10.8638
▁pembagian	-10.8638
▁kebenaran	-10.8639
▁akademik	-10.8648
▁KPPS	-10.8649
▁bermasalah	-10.8649
▁21:2	-10.865
▁Mata	-10.8653
China	-10.8654
▁Kepri	-10.8654
▁Ph	-10.8654
foto	-10.8655
▁kekasih	-10.8658
ANGE	-10.8659
muk	-10.8662
▁sebulan	-10.8663
▁Hendri	-10.8663
▁beraksi	-10.8666
▁jaga	-10.8674
del	-10.8683
▁Bak	-10.8685
balik	-10.869
▁Rusli	-10.8692
▁19:1	-10.8701
▁beruntun	-10.8705
▁Dokumen	-10.8706
▁Lion	-10.8706
▁Apresiasi	-10.8707
▁Atikoh	-10.8707
▁Nahdl	-10.8707
▁beraktivitas	-10.8707
▁birokrasi	-10.8707
▁kompetitif	-10.8707
▁konkret	-10.8707
▁Formasi	-10.8707
▁Paloh	-10.8707
▁mewaspadai	-10.8707
▁Justin	-10.8707
▁diskon	-10.8708
▁Bulog	-10.8708
▁Gagal	-10.871
▁19:4	-10.8712
ukuran	-10.8712
▁Progo	-10.8714
pam	-10.872
▁Op	-10.8723
kisar	-10.8724
▁Paula	-10.8726
tangan	-10.8727
▁Abd	-10.8731
▁11:0	-10.8734
▁dibeli	-10.8734
MD	-10.8735
▁Jurnalis	-10.8738
▁tarik	-10.8742
AW	-10.8743
▁BSI	-10.8743
▁Kab	-10.8745
▁balita	-10.8746
▁tur	-10.8748
▁Sy	-10.8749
:35	-10.8749
▁Angga	-10.8754
▁13:1	-10.8763
▁Adat	-10.8766
GP	-10.8769
PBB	-10.8772
▁Anthony	-10.8777
▁Kamboja	-10.8777
▁Merespons	-10.8777
▁berinvestasi	-10.8777
▁mengkhawatirkan	-10.8777
▁sudut	-10.8777
▁bertarung	-10.8777
▁kenyataan	-10.8777
▁sejatinya	-10.8777
▁mengalir	-10.8777
▁Mayjen	-10.8777
▁cuti	-10.8777
▁dikerahkan	-10.8777
▁nekat	-10.8777
▁20:5	-10.8777
▁Yandri	-10.8778
▁agresif	-10.8778
▁bulu	-10.878
▁1945	-10.8781
▁Hilang	-10.8782
▁bandang	-10.8782
pek	-10.8783
▁Ai	-10.8785
untuk	-10.8786
▁Prakiraan	-10.8788
puk	-10.8792
sekitar	-10.8793
imbang	-10.88
▁bungkus	-10.8802
ayu	-10.8802
sha	-10.8802
▁diam	-10.8802
dag	-10.8803
▁beralih	-10.8803
▁makam	-10.8815
▁mengganti	-10.8815
yana	-10.8819
▁AA	-10.882
TKP	-10.8821
▁mengarahkan	-10.8824
jadi	-10.8825
Tim	-10.8825
▁ne	-10.8826
▁bau	-10.8826
gg	-10.8827
enuju	-10.8829
▁Rasa	-10.8836
▁mengacu	-10.8846
▁Berkelanjutan	-10.8847
▁Brazil	-10.8847
▁Indramayu	-10.8847
▁Statistik	-10.8847
▁Project	-10.8847
▁Tannur	-10.8847
▁Kenaikan	-10.8847
▁jagung	-10.8847
▁diusulkan	-10.8847
Mapolda	-10.8848
▁atap	-10.8849
▁minimum	-10.885
oro	-10.885
paruh	-10.885
▁istimewa	-10.8853
▁IP	-10.8854
▁pelajaran	-10.8858
▁melakukannya	-10.8859
etik	-10.8861
SN	-10.8863
▁Fair	-10.8863
▁Sesuai	-10.8864
▁Pendapatan	-10.8864
▁04:5	-10.8866
▁Bawa	-10.8868
▁Pemda	-10.887
▁2012	-10.887
▁Pembina	-10.8874
▁pembeli	-10.8875
uf	-10.8877
▁SA	-10.8882
▁menanam	-10.8883
▁mend	-10.8893
-30	-10.8894
Te	-10.8895
▁tr	-10.8904
▁perundang	-10.8905
day	-10.8907
▁Hans	-10.8912
don	-10.8917
▁Des	-10.8918
▁Associate	-10.8918
▁Tunggal	-10.8918
▁hidangan	-10.8918
▁istirahat	-10.8918
▁lingkup	-10.8918
▁memerangi	-10.8918
▁Pabrik	-10.8918
▁Ridho	-10.8918
▁Magelang	-10.8918
▁sumur	-10.8919
▁Badai	-10.8919
▁memprediksi	-10.8919
eta	-10.892
▁Eddy	-10.8922
▁Lask	-10.8926
▁West	-10.893
atkan	-10.8931
▁Leste	-10.8933
66	-10.8933
25/	-10.8933
Pemkab	-10.8936
hor	-10.8939
▁bangun	-10.8948
▁berdasar	-10.8955
200	-10.8957
tol	-10.8958
▁Korp	-10.8963
SC	-10.8965
▁BK	-10.8966
wenang	-10.8968
hy	-10.8969
▁Pena	-10.8971
▁satuan	-10.8974
misi	-10.8977
arang	-10.8979
▁mengomentari	-10.899
▁pemerkosaan	-10.899
▁Fokus	-10.899
▁mendiang	-10.899
▁Rizki	-10.899
▁Ul	-10.8991
▁sawah	-10.8991
▁Jon	-10.8994
▁Berawan	-10.9001
▁seolah	-10.9005
Israel	-10.9008
▁Sugi	-10.901
▁Dishub	-10.9012
ska	-10.9014
had	-10.9017
▁mendapati	-10.9018
Kota	-10.9018
2)	-10.9019
lip	-10.902
▁potensial	-10.9029
▁21:3	-10.903
▁16:4	-10.9036
▁maut	-10.9037
▁Pin	-10.9045
▁didapatkan	-10.9048
▁Hutan	-10.9053
▁diungkap	-10.9055
▁Diskusi	-10.9062
▁Gadjah	-10.9062
▁Syaikhu	-10.9062
▁Vadel	-10.9062
▁disesuaikan	-10.9062
▁Keliling	-10.9062
▁Hafid	-10.9062
▁menginspirasi	-10.9062
▁pulih	-10.9062
▁harta	-10.9062
▁realisasi	-10.9064
▁man	-10.9065
kit	-10.9069
▁akal	-10.907
bukti	-10.9077
▁fan	-10.9078
Caleg	-10.9081
▁Sepak	-10.9081
▁14:0	-10.9086
▁WHO	-10.9088
▁Aset	-10.909
▁balap	-10.9091
dua	-10.9091
▁54	-10.9095
ix	-10.9095
erang	-10.91
▁Dimas	-10.9102
▁KK	-10.9119
▁ras	-10.9122
iman	-10.9125
▁sayang	-10.9132
▁vaksin	-10.9132
▁Hospital	-10.9134
▁Indragiri	-10.9134
▁dibatalkan	-10.9134
▁indeks	-10.9134
▁mempermudah	-10.9134
▁meringankan	-10.9134
▁pencernaan	-10.9134
▁penggelapan	-10.9134
▁penyesuaian	-10.9134
▁Alexander	-10.9134
▁Latihan	-10.9134
▁mengutuk	-10.9134
▁bertentangan	-10.9134
▁Richard	-10.9134
▁pantas	-10.9134
▁keindahan	-10.9134
▁burung	-10.9134
▁pengunduran	-10.9134
▁Multi	-10.9135
▁Terpadu	-10.9135
▁Petani	-10.9136
▁menunda	-10.9136
RE	-10.9137
▁Johan	-10.9138
▁inilah	-10.914
usa	-10.914
.2024	-10.9141
▁Medi	-10.9143
▁Andra	-10.9143
▁Asasi	-10.9146
▁landasan	-10.9149
95	-10.915
▁harap	-10.9151
06	-10.9156
▁Info	-10.917
▁pop	-10.9172
EL	-10.9172
jur	-10.9176
▁GT	-10.9176
zo	-10.918
▁sport	-10.9182
▁1.1	-10.9187
tuk	-10.919
▁Bah	-10.9199
▁Iman	-10.9201
▁pemainnya	-10.9202
▁Cilacap	-10.9207
▁Haniyeh	-10.9207
▁Muhamad	-10.9207
▁memberdayakan	-10.9207
▁tunjangan	-10.9207
▁menghalangi	-10.9207
▁satwa	-10.9207
▁keliling	-10.9207
▁terkesan	-10.9207
▁iklan	-10.9207
▁Shopee	-10.9207
▁Sandiaga	-10.9207
▁Cepat	-10.9207
▁Lantas	-10.9208
▁pencucian	-10.9208
▁Macron	-10.9208
▁Bukit	-10.9208
▁Bet	-10.9209
▁kompak	-10.921
▁21:0	-10.9211
▁Obat	-10.9213
PR	-10.9215
▁sembar	-10.9215
▁2030	-10.9217
▁off	-10.9217
▁anggotanya	-10.9219
▁dangdut	-10.9222
▁19:2	-10.9225
▁ketimbang	-10.923
pada	-10.9232
▁Mag	-10.9234
▁berbuat	-10.9234
▁Adhi	-10.9235
PJ	-10.9242
fu	-10.9251
▁Sim	-10.9252
▁$1	-10.9256
reng	-10.9258
▁Roh	-10.9261
▁jo	-10.9264
▁13:4	-10.9267
gugat	-10.9267
▁dibayar	-10.9275
▁Wamen	-10.9275
▁Informatika	-10.9281
▁Kredit	-10.9281
▁mitigasi	-10.9281
▁penyimpanan	-10.9281
▁VNL	-10.9281
▁protein	-10.9281
▁Secretary	-10.9281
▁2024/25	-10.9281
▁Yudha	-10.9282
▁Irawan	-10.9282
▁Fitur	-10.9282
▁terpopuler	-10.9283
▁Tokoh	-10.9285
▁Pura	-10.9286
amerkan	-10.9286
TS	-10.9288
▁terbit	-10.929
▁Sulsel	-10.929
▁17:2	-10.9295
▁Tahap	-10.9295
▁toleransi	-10.9297
▁ESG	-10.9299
▁membaik	-10.93
Semoga	-10.9301
▁kebangsaan	-10.9302
▁Candi	-10.9307
▁penyelamatan	-10.9308
blakan	-10.931
hol	-10.9317
▁53	-10.9321
tandai	-10.9323
▁hulu	-10.9324
▁beri	-10.9329
ness	-10.9332
▁She	-10.9345
/11/2024	-10.9345
kot	-10.9345
▁Las	-10.9349
▁lapor	-10.9351
▁pernyataannya	-10.9351
▁Cugurra	-10.9355
▁Pesisir	-10.9355
▁diturunkan	-10.9355
▁kepresidenan	-10.9355
▁terkejut	-10.9355
SDN	-10.9355
▁Pengamanan	-10.9355
▁peradilan	-10.9355
▁perseroan	-10.9355
▁Kedutaan	-10.9355
▁rancangan	-10.9355
▁Sukoharjo	-10.9355
▁Pemadam	-10.9355
▁berpeluang	-10.9355
▁tunggu	-10.9355
▁dagang	-10.9355
▁pintar	-10.9355
▁pemasaran	-10.9356
▁Janji	-10.9356
▁remisi	-10.9357
▁Massaid	-10.9357
▁Gading	-10.9358
▁Senator	-10.9358
suka	-10.9365
▁UN	-10.9365
▁PR	-10.9365
▁Van	-10.9365
▁Pesta	-10.9365
▁time	-10.9367
▁tipe	-10.9367
▁Juga	-10.937
▁Undip	-10.9371
ction	-10.9372
▁Kementan	-10.9374
▁pipa	-10.9382
▁Uji	-10.9387
▁Meta	-10.9389
37	-10.9394
▁melapor	-10.9395
embang	-10.9396
▁SIG	-10.9403
▁Pang	-10.9404
TO	-10.9406
▁08:4	-10.9408
▁campuran	-10.941
▁Motors	-10.9412
mbak	-10.9413
▁Jay	-10.9421
▁Dini	-10.9422
▁Mun	-10.9425
▁Fauzi	-10.9426
▁Siregar	-10.9429
▁ambulans	-10.9429
▁meledak	-10.9429
▁melonjak	-10.9429
▁mengadopsi	-10.9429
▁pengajuan	-10.9429
▁popularitas	-10.9429
▁Cerita	-10.9429
▁Retno	-10.9429
▁Tengku	-10.9429
▁Mikro	-10.9429
▁terseret	-10.9429
▁pemusnahan	-10.943
▁lelang	-10.9431
▁Kecil	-10.9433
▁topik	-10.9433
▁Minyak	-10.9434
kerja	-10.9435
▁Kun	-10.9435
sekolah	-10.9435
▁Sorong	-10.9436
▁17:4	-10.944
▁berpesan	-10.9443
▁Bahan	-10.9445
▁pengendalian	-10.9445
main	-10.9446
▁tebal	-10.9446
▁2045	-10.9455
duta	-10.9455
enny	-10.9457
▁pelapor	-10.9458
▁pendamping	-10.946
▁13.00	-10.9461
▁Bakar	-10.9472
77	-10.948
FA	-10.9488
susul	-10.9491
DC	-10.9492
TC	-10.9492
▁Inti	-10.9492
▁bio	-10.9494
▁pasang	-10.9495
▁rem	-10.9501
NU	-10.9503
▁Aktivis	-10.9504
▁Intelijen	-10.9504
▁percakapan	-10.9504
▁syariah	-10.9504
▁beradaptasi	-10.9504
▁streaming	-10.9504
▁dinamis	-10.9505
▁dipaksa	-10.9505
▁race	-10.9505
▁berlalu	-10.9505
▁kontrol	-10.9505
▁Sektor	-10.9505
▁paspor	-10.9505
▁Atlet	-10.9505
▁Kadek	-10.9506
▁Lihat	-10.9506
▁konsekuensi	-10.951
uw	-10.951
▁santunan	-10.9516
▁2023/2024	-10.9516
▁seminggu	-10.9517
iga	-10.9517
▁sewa	-10.9518
raja	-10.9521
▁he	-10.9529
▁15:3	-10.9531
▁bentrok	-10.9536
TM	-10.9542
43	-10.9544
dap	-10.9548
sor	-10.9552
▁Tar	-10.9554
▁Roy	-10.956
dek	-10.9566
juk	-10.9566
dus	-10.9568
salah	-10.9573
imbau	-10.9573
▁Pay	-10.9577
▁pu	-10.9578
lebih	-10.9579
▁Hilir	-10.9579
git	-10.958
▁Pacitan	-10.958
▁Pelanggaran	-10.958
▁menyayangkan	-10.958
▁peninjauan	-10.958
▁ternak	-10.958
▁tendangan	-10.9581
▁Pelita	-10.9581
▁Menpora	-10.9582
▁jajarannya	-10.9583
▁Insurance	-10.9584
▁karang	-10.9585
mus	-10.9585
▁perluasan	-10.9587
YAR	-10.9588
ving	-10.9589
▁Kebun	-10.9591
▁elite	-10.9592
oe	-10.9594
▁putrinya	-10.9595
69	-10.9597
▁Leo	-10.9598
▁berdaya	-10.9601
atau	-10.9603
DIY	-10.9605
ndi	-10.9606
mbah	-10.9607
▁tabung	-10.9608
▁Ed	-10.9614
-1	-10.9614
que	-10.9615
EK	-10.9626
▁15:0	-10.9627
▁Yani	-10.9628
org	-10.9629
alur	-10.9631
NK	-10.9636
▁rampung	-10.9638
▁18:5	-10.9642
irkuit	-10.9653
▁Aulia	-10.9653
▁Widya	-10.9655
▁emosi	-10.9656
▁pemasangan	-10.9656
▁pemindahan	-10.9656
▁apartemen	-10.9657
▁Penanganan	-10.9657
▁diaspora	-10.9657
▁perkotaan	-10.9657
▁Setidaknya	-10.9657
▁pertarungan	-10.9657
gn	-10.9657
▁center	-10.9657
▁mengevaluasi	-10.9658
▁Capai	-10.9658
▁berpengalaman	-10.9658
▁Senior	-10.9659
aksamana	-10.9659
▁Desak	-10.9659
▁Paling	-10.9661
olah	-10.9662
iq	-10.9665
▁16:3	-10.9666
▁simbolis	-10.9666
▁Puji	-10.967
▁Pakai	-10.9671
▁cat	-10.9674
▁Tipikor	-10.9676
olo	-10.9676
▁potongan	-10.9678
Semua	-10.968
Sudah	-10.968
▁JK	-10.9682
▁Moh	-10.9692
▁Ton	-10.9695
▁Kh	-10.9695
▁info	-10.9706
the	-10.9707
ongan	-10.9714
zer	-10.9716
spek	-10.9725
ys	-10.9727
IT	-10.9727
▁Robert	-10.9727
aku	-10.9728
lok	-10.973
▁Revolusi	-10.9733
▁fiskal	-10.9733
▁peresmian	-10.9733
▁tangguh	-10.9733
▁tsunami	-10.9733
▁wawasan	-10.9733
▁Respons	-10.9733
▁disiarkan	-10.9733
▁menanyakan	-10.9733
▁pendataan	-10.9733
▁hibah	-10.9733
▁Darmawan	-10.9735
▁STY	-10.9735
▁polusi	-10.9735
▁Gra	-10.9735
▁Posisi	-10.9736
▁Peluncur	-10.9736
▁Palu	-10.9737
▁James	-10.9738
▁Bangli	-10.9738
▁teratas	-10.9739
▁07:2	-10.9739
▁terbarunya	-10.9741
▁Laos	-10.9742
▁Hery	-10.9742
▁SUV	-10.9748
▁15:2	-10.9752
akhir	-10.9753
ddy	-10.9754
▁bar	-10.9755
▁10:1	-10.9757
ero	-10.9757
Korban	-10.9757
Namun	-10.9757
Informasi	-10.9757
kesempatan	-10.9759
▁/	-10.9759
WNA	-10.976
rasa	-10.9764
▁marah	-10.9764
ogo	-10.9764
▁76	-10.9765
▁tanam	-10.9765
▁Gun	-10.9768
pes	-10.977
▁Penggunaan	-10.977
▁Selat	-10.9771
▁saran	-10.9775
▁Airin	-10.9776
▁Harian	-10.9777
▁baca	-10.9781
▁tugasnya	-10.9789
banyak	-10.979
ess	-10.9792
▁57	-10.9795
▁sebaiknya	-10.9799
▁biar	-10.9799
kop	-10.9806
luar	-10.9807
▁diplomat	-10.9809
▁kurun	-10.9811
▁Damaskus	-10.9811
▁Taufik	-10.9811
▁Tionghoa	-10.9811
▁klinik	-10.9811
▁memulihkan	-10.9811
▁mendoakan	-10.9811
▁perizinan	-10.9811
▁Konvensi	-10.9811
▁berjarak	-10.9811
▁infeksi	-10.9811
▁hormat	-10.9811
▁website	-10.9811
▁antioksidan	-10.9811
▁kebersihan	-10.9811
▁bunyi	-10.9811
▁diperkuat	-10.9811
▁diputuskan	-10.9811
▁15:1	-10.9811
▁induk	-10.9815
▁Bakti	-10.9815
▁perlunya	-10.9818
old	-10.9819
akar	-10.9819
▁transparansi	-10.9821
▁Visi	-10.9822
Pa	-10.9829
▁Sempat	-10.983
▁2004	-10.983
▁Musim	-10.9832
wil	-10.9836
▁Salam	-10.9839
nggak	-10.9844
▁pengungsian	-10.9846
juluk	-10.9847
▁Sports	-10.9848
ell	-10.9851
▁Fre	-10.9852
aro	-10.9852
LT	-10.9855
▁Ver	-10.9857
▁diproses	-10.9867
▁Siaga	-10.9873
▁menyama	-10.9873
▁My	-10.9878
▁Ulu	-10.9882
▁Cor	-10.9885
▁Hijau	-10.9889
▁Karangasem	-10.9889
▁Kremlin	-10.9889
▁Pertumbuhan	-10.9889
▁Sahabat	-10.9889
▁ginjal	-10.9889
▁inspirasi	-10.9889
▁memblokir	-10.9889
▁spanduk	-10.9889
▁sutradara	-10.9889
▁basket	-10.9889
▁memindahkan	-10.9889
▁imigran	-10.9889
▁selengkapnya	-10.9889
▁imbauan	-10.9889
▁ditargetkan	-10.9889
▁Mengena	-10.989
▁Bur	-10.9891
▁Tuban	-10.9892
▁seringkali	-10.9892
▁Ganda	-10.9906
▁dihukum	-10.9912
▁menguatkan	-10.9912
19/	-10.9913
Teco	-10.9915
▁King	-10.9919
▁19:5	-10.9919
▁20:1	-10.992
▁Ten	-10.992
▁Berita	-10.992
98	-10.9924
▁pencari	-10.9925
▁Buat	-10.9927
▁XI	-10.9932
▁BPK	-10.9935
▁Suku	-10.9936
▁menangis	-10.9946
▁wi	-10.995
▁Kapolresta	-10.9953
▁Mapolres	-10.9953
▁Rum	-10.996
nata	-10.9965
▁22:0	-10.9966
▁Kepresidenan	-10.9968
▁Oknum	-10.9968
▁Pyongyang	-10.9968
▁berdiskusi	-10.9968
▁pondok	-10.9968
▁skenario	-10.9968
▁bursa	-10.9968
▁mengerikan	-10.9968
▁menyukseskan	-10.9968
▁Usman	-10.9968
▁formulir	-10.9968
▁simpatisan	-10.9968
▁Blue	-10.9969
1)	-10.9971
▁yatim	-10.9973
▁Pilwalkot	-10.9973
▁Buku	-10.9978
Pas	-10.9979
▁setinggi	-10.998
▁Tambang	-10.998
▁Paser	-10.9982
▁21:4	-10.9985
▁TA	-10.9986
ney	-10.9988
alat	-10.9991
bersih	-10.9996
ullah	-11.0001
▁pembuat	-11.0002
una	-11.0003
▁pengin	-11.0009
gol	-11.0012
yati	-11.0014
▁Pembinaan	-11.0017
▁arti	-11.0026
▁800	-11.0029
MC	-11.003
▁CO	-11.0033
▁op	-11.0042
▁COVID	-11.0047
▁Karanganyar	-11.0047
▁Temanggung	-11.0047
▁dilalui	-11.0047
▁polemik	-11.0047
▁prasarana	-11.0047
▁tertangkap	-11.0047
▁pengeluaran	-11.0047
▁Kematian	-11.0047
▁berlambang	-11.0047
▁pengisian	-11.0047
▁kesetaraan	-11.0047
▁Jaminan	-11.0047
▁dikembalikan	-11.0047
▁Lamongan	-11.0047
▁Cerah	-11.0048
▁Tunjung	-11.0049
56	-11.005
▁relasi	-11.0053
▁pasir	-11.0055
▁Menteng	-11.0055
▁Masters	-11.0056
ED	-11.0057
▁Bilang	-11.0062
rup	-11.0062
▁Rudi	-11.0068
▁Seto	-11.0074
▁10:0	-11.0079
▁Pelaksanaan	-11.008
▁dukung	-11.0083
▁09:3	-11.0093
bahkan	-11.0096
bir	-11.0098
▁Fadil	-11.0102
diam	-11.0113
▁13:5	-11.0117
med	-11.0118
▁Kasih	-11.012
▁1.2	-11.0122
▁organ	-11.0125
▁gelaran	-11.0125
▁UM	-11.0127
▁Sebegini	-11.0127
▁System	-11.0127
▁Terpilih	-11.0127
▁Febian	-11.0127
▁Pengadaan	-11.0127
▁balistik	-11.0127
▁kebahagiaan	-11.0127
▁permanen	-11.0127
▁kontainer	-11.0127
▁Electric	-11.0127
▁Penyerang	-11.0128
▁Remaja	-11.0128
▁susah	-11.0128
▁Dani	-11.0129
▁Chery	-11.0129
Purn	-11.0131
▁Lawan	-11.0132
▁Bersih	-11.0132
▁liga	-11.0133
▁2013	-11.0134
▁meredakan	-11.0137
▁Praja	-11.0138
▁Fahmi	-11.0138
▁SH	-11.0141
▁menanti	-11.0141
berniat	-11.0142
ble	-11.0143
▁11:3	-11.0145
▁mengantarkan	-11.0154
▁balon	-11.0161
▁Peneliti	-11.0162
OC	-11.0163
fra	-11.0165
enting	-11.0175
ART	-11.0178
▁Kor	-11.0179
serangan	-11.0186
▁Cip	-11.0187
▁Sunda	-11.0187
road	-11.0189
▁16:5	-11.0195
▁mal	-11.0199
data	-11.0201
▁Promo	-11.0202
▁Penyelenggaraan	-11.0203
▁Economic	-11.0208
▁Efek	-11.0208
▁Kemerdekaan	-11.0208
▁Simalungun	-11.0208
▁Transportasi	-11.0208
▁kerusuhan	-11.0208
▁penggerebekan	-11.0208
▁Museum	-11.0208
▁Magetan	-11.0208
▁bocah	-11.0208
▁Pencarian	-11.0208
▁pungutan	-11.0208
▁Denmark	-11.0208
▁dipindahkan	-11.0208
▁membuang	-11.0208
▁sepekan	-11.0208
▁ideologi	-11.0209
▁Sorot	-11.0209
▁Terakhir	-11.021
▁Dosen	-11.021
▁madu	-11.0212
▁bedah	-11.0214
▁terlarang	-11.0214
▁Games	-11.0219
▁Ilham	-11.022
PAN	-11.0222
▁terlepas	-11.0223
▁Enggak	-11.0228
qi	-11.0232
▁Sara	-11.0234
Hatta	-11.0235
▁Om	-11.0237
▁10:4	-11.0246
bud	-11.0253
▁Fer	-11.0254
▁kru	-11.0255
▁adu	-11.0255
▁kembang	-11.0256
▁memutus	-11.0256
▁Didik	-11.0256
▁Mati	-11.0257
PG	-11.0261
idik	-11.0265
UU	-11.0265
▁paparan	-11.0267
▁Vin	-11.027
ther	-11.0271
▁Doa	-11.0278
▁Sad	-11.0279
▁IN	-11.0287
▁pandang	-11.0289
amba	-11.0289
▁Penjelasan	-11.0289
▁Technology	-11.0289
▁genosida	-11.0289
▁handphone	-11.0289
▁herbal	-11.0289
▁ketidakpastian	-11.0289
▁menyeberang	-11.0289
▁dinikmati	-11.0289
▁kepuasan	-11.0289
▁jajak	-11.0289
▁ketakutan	-11.0289
▁didakwa	-11.0289
▁konsultasi	-11.0289
▁ditugaskan	-11.029
▁Irfan	-11.029
▁juri	-11.029
▁Tiket	-11.0291
▁Kisah	-11.0291
▁Kupang	-11.0291
▁Keempat	-11.0292
▁ekstasi	-11.0292
▁14:1	-11.0293
▁rekayasa	-11.0296
▁UKM	-11.0296
▁12:3	-11.0305
▁Pasca	-11.0306
bank	-11.0308
▁Paket	-11.0312
▁beda	-11.0313
band	-11.0317
58	-11.0319
kedua	-11.032
▁berpihak	-11.032
▁Ray	-11.0324
▁kadang	-11.0329
▁14:4	-11.033
-29	-11.0331
larang	-11.0334
ril	-11.0338
▁diundang	-11.0342
▁Era	-11.0343
▁serang	-11.0343
ganggu	-11.0343
dem	-11.0346
53	-11.0347
rawat	-11.0348
▁raih	-11.0349
▁Suhar	-11.0356
▁Seni	-11.0357
amping	-11.0357
ath	-11.0365
▁Kerobokan	-11.0371
▁Manokwari	-11.0371
▁Pribadi	-11.0371
▁Texas	-11.0371
▁gugur	-11.0371
▁memadamkan	-11.0371
▁mengendarai	-11.0371
▁narasumber	-11.0371
▁sensitif	-11.0371
▁wewenang	-11.0371
▁Slamet	-11.0371
▁pesaing	-11.0371
▁Ditemukan	-11.0371
▁jahe	-11.0371
▁Sudaryono	-11.0371
▁disepakati	-11.0371
▁dinding	-11.0372
▁pengajar	-11.0373
▁akurat	-11.0374
▁merekrut	-11.0375
▁bakat	-11.0375
▁Agam	-11.0376
▁Raz	-11.0376
▁08:2	-11.0378
tip	-11.0378
▁Korsel	-11.038
▁Apabila	-11.0381
▁Bajo	-11.0381
onis	-11.0385
▁Lukman	-11.0388
▁Ujang	-11.0394
odo	-11.0397
▁ITB	-11.0403
▁Tas	-11.0405
▁Pus	-11.0408
▁Pemeriksaan	-11.041
▁Tindakan	-11.0412
tokoh	-11.0415
lut	-11.0416
▁Supar	-11.0417
▁Bun	-11.0418
pesan	-11.0424
PMI	-11.0425
▁18:4	-11.0431
LE	-11.0434
ejauh	-11.044
lawan	-11.0447
▁dampaknya	-11.0451
▁Syarif	-11.0454
▁Darurat	-11.0454
▁Karnavian	-11.0454
▁Tangan	-11.0454
▁demokratis	-11.0454
▁hybrid	-11.0454
▁kebanggaan	-11.0454
▁mencontohkan	-11.0454
▁pejuang	-11.0454
▁pembakaran	-11.0454
▁pengabdian	-11.0454
▁Lolly	-11.0455
▁batal	-11.0455
▁Angeles	-11.0455
▁Kampar	-11.0456
▁Max	-11.0456
▁Viral	-11.0457
▁terburuk	-11.0457
angkaian	-11.0458
▁64	-11.046
▁tepi	-11.0461
▁Posko	-11.0461
▁terbentuk	-11.0462
▁rasanya	-11.0463
▁Dadang	-11.0464
SL	-11.0466
all	-11.0473
▁no	-11.0474
▁Bro	-11.0474
▁Umar	-11.0482
▁berbulan	-11.0482
41	-11.0483
khi	-11.0488
EV	-11.049
▁memeri	-11.0495
▁1.3	-11.0495
▁MR	-11.0495
▁pungkasnya	-11.0497
▁instruksi	-11.0498
▁IT	-11.05
aris	-11.0501
▁Agen	-11.0505
▁sebaik	-11.051
▁serat	-11.0514
gem	-11.0522
▁Os	-11.0532
72	-11.0532
▁Badjideh	-11.0537
▁Polhukam	-11.0537
▁Verhoeven	-11.0537
▁diperbolehkan	-11.0537
▁drastis	-11.0537
▁penyiksaan	-11.0537
▁Emirat	-11.0537
▁murni	-11.0537
▁dengar	-11.0537
▁cucu	-11.0537
▁ditulis	-11.0537
▁keprihatinan	-11.0537
▁Indosat	-11.0538
▁Ekspor	-11.0539
▁koperasi	-11.054
▁Kho	-11.054
▁Biru	-11.0542
▁Kenya	-11.0543
▁memburuk	-11.0544
row	-11.0545
ncang	-11.0551
▁600	-11.0553
ick	-11.0554
▁2008	-11.0559
▁Tuan	-11.0561
86	-11.0562
▁seberapa	-11.0566
-2024	-11.0567
Pelaku	-11.0568
▁GBK	-11.0569
▁membe	-11.057
▁UGM	-11.057
BKN	-11.0574
▁PHK	-11.0574
▁Lim	-11.0576
▁BIN	-11.0579
CI	-11.0579
atch	-11.0586
▁Wahyudi	-11.0589
DS	-11.0592
neka	-11.0597
▁pita	-11.0603
tih	-11.0605
▁Ven	-11.0614
▁Dir	-11.0616
▁Holding	-11.0621
▁Luncur	-11.0621
▁Mahalini	-11.0621
▁instrumen	-11.0621
▁intelektual	-11.0621
▁kreator	-11.0621
▁memprioritaskan	-11.0621
▁penghuni	-11.0621
▁terendam	-11.0621
▁Semeru	-11.0621
▁kemarau	-11.0621
▁mendeteksi	-11.0621
▁diwawancarai	-11.0621
▁dimasukkan	-11.0621
▁diizinkan	-11.0622
▁perselisihan	-11.0623
▁gitu	-11.0623
▁pompa	-11.0623
ganda	-11.0623
4/	-11.0623
▁Kodam	-11.0624
▁pemohon	-11.0624
▁Bila	-11.0631
▁Penjualan	-11.0635
▁Antony	-11.0639
▁Kontra	-11.0643
▁Gegar	-11.0646
▁Toko	-11.0647
▁Tujuannya	-11.0649
paslon	-11.0654
▁Ras	-11.0658
▁Susi	-11.0659
agendakan	-11.0659
▁papar	-11.066
▁07:4	-11.0663
kang	-11.0664
▁menarget	-11.0671
▁Bra	-11.0675
62	-11.068
▁Saja	-11.068
encana	-11.0686
▁Gita	-11.0689
able	-11.0695
ric	-11.0695
▁Ken	-11.0696
▁Mineral	-11.0698
▁Ste	-11.0698
▁didik	-11.0702
▁10.00	-11.0703
▁Mir	-11.0704
MM	-11.0705
▁Gunungkidul	-11.0706
▁Infrastruktur	-11.0706
▁Penulis	-11.0706
▁Perwira	-11.0706
▁keseimbangan	-11.0706
▁keterbatasan	-11.0706
▁menyajikan	-11.0706
▁pelestarian	-11.0706
▁pemberhentian	-11.0706
▁Austin	-11.0706
▁kejutan	-11.0706
▁urine	-11.0706
▁SELAT	-11.0706
▁tekstil	-11.0706
▁Sel	-11.0706
incar	-11.0706
▁petunjuk	-11.0707
▁fungsional	-11.0707
▁Farhan	-11.0708
GIAN	-11.0709
▁Hendy	-11.0709
▁ragu	-11.0709
▁KemenPAN	-11.0711
▁series	-11.0711
▁Dirut	-11.0714
▁Kopi	-11.0716
▁berkala	-11.0717
▁semula	-11.0719
sana	-11.0723
hadi	-11.0725
▁Cita	-11.0726
dapat	-11.0731
▁peternakan	-11.0732
has	-11.0734
iming	-11.0741
yanti	-11.0743
▁meriah	-11.0743
▁Pengelola	-11.0748
▁Sera	-11.0748
tru	-11.075
▁Ops	-11.0755
▁nota	-11.0755
▁rest	-11.0758
yun	-11.0759
ggi	-11.0762
▁dimana	-11.0763
jun	-11.0767
▁apik	-11.0771
▁Res	-11.0775
▁Fo	-11.0775
nie	-11.0783
3%	-11.0785
▁kenal	-11.0785
JO	-11.0789
▁miliki	-11.0791
▁Indeks	-11.0791
▁Jessica	-11.0791
▁Mbappe	-11.0791
▁Pekalongan	-11.0791
▁kebocoran	-11.0791
▁pahlawan	-11.0791
▁pemotongan	-11.0791
▁penampungan	-11.0791
▁profesor	-11.0791
▁Bhakti	-11.0791
▁Miller	-11.0791
▁Terbuka	-11.0791
▁seumur	-11.0791
▁Nunuk	-11.0792
▁sedih	-11.0792
▁ditunda	-11.0792
▁Kemenpora	-11.0792
▁Oscar	-11.0792
▁Machmudin	-11.0792
▁Teddy	-11.0792
▁Manado	-11.0793
▁duel	-11.0793
▁memuat	-11.0794
▁menghitung	-11.0795
Dan	-11.0799
▁memohon	-11.0799
▁Walaupun	-11.08
▁Wal	-11.0802
jaring	-11.0806
10/	-11.0808
▁Alat	-11.0809
▁13:2	-11.0809
masok	-11.0814
▁Titi	-11.0815
rok	-11.0816
▁2000	-11.0817
ilang	-11.0818
inta	-11.082
▁Rano	-11.0821
▁Bos	-11.0822
▁Perh	-11.0823
-9	-11.0824
pemerintah	-11.0824
▁Eco	-11.0824
▁demo	-11.0827
▁Mart	-11.0827
▁SM	-11.0828
pandang	-11.0829
singgung	-11.0832
▁ten	-11.0836
▁63	-11.0838
▁Tum	-11.0838
▁food	-11.0839
larikan	-11.084
▁Sandi	-11.0849
▁TI	-11.0849
▁kalian	-11.0849
Rp	-11.0855
▁77	-11.0858
▁Berkat	-11.0864
▁r	-11.0867
sun	-11.0869
ekor	-11.087
artisipasi	-11.0875
▁APK	-11.0875
▁Novi	-11.0876
▁Anugerah	-11.0878
▁Centre	-11.0878
▁Charles	-11.0878
▁Ibrahim	-11.0878
▁Konflik	-11.0878
▁Merauke	-11.0878
▁Pennsylvania	-11.0878
▁gemilang	-11.0878
▁keimigrasian	-11.0878
▁spiritual	-11.0878
▁terpenuhi	-11.0878
▁Kesejahteraan	-11.0878
▁merencanakan	-11.0878
▁Plaza	-11.0878
▁perhelatan	-11.0878
▁Penjara	-11.0878
▁radikal	-11.0878
▁Tantangan	-11.0878
▁opini	-11.0878
jal	-11.0878
▁Protes	-11.0879
▁Kemenko	-11.0879
▁jangkauan	-11.088
▁Lokal	-11.0881
▁17:5	-11.0886
stianto	-11.0887
▁Blok	-11.0888
▁pin	-11.0888
fit	-11.089
▁Audi	-11.0896
KO	-11.0899
▁siswi	-11.09
▁Kamar	-11.09
cil	-11.09
CS	-11.0901
lli	-11.0902
▁Bahas	-11.0903
▁Maung	-11.0903
&	-11.0911
▁Rena	-11.0911
kekuatan	-11.0911
▁amanat	-11.0915
▁Jl	-11.0915
▁Col	-11.0918
▁bantu	-11.0924
ace	-11.0924
potong	-11.0929
▁ketemu	-11.093
▁Pasti	-11.0931
▁memenang	-11.0934
ampa	-11.0935
▁Main	-11.0936
▁Asta	-11.0941
▁Merc	-11.095
▁Antar	-11.0951
▁Berlin	-11.0953
▁Uno	-11.0956
▁Misi	-11.0957
42	-11.0958
impunan	-11.096
wu	-11.096
▁Soesatyo	-11.0964
▁cagub	-11.0964
▁diselamatkan	-11.0964
▁laboratorium	-11.0964
▁menggabungkan	-11.0964
▁penawaran	-11.0964
▁penghormatan	-11.0964
▁puskesmas	-11.0964
▁terpenting	-11.0964
▁Iklim	-11.0964
▁diperhatikan	-11.0964
▁Agustina	-11.0964
▁demam	-11.0964
▁kedudukan	-11.0965
▁kelamin	-11.0965
▁kesaksian	-11.0965
▁disaksikan	-11.0965
▁Henry	-11.0965
▁sprint	-11.0966
▁peraih	-11.0966
▁sibuk	-11.0966
▁Seribu	-11.0967
▁terhitung	-11.0969
▁LRT	-11.097
▁Tren	-11.097
Ipda	-11.0976
▁Rangku	-11.0979
▁Il	-11.0989
adang	-11.099
▁keenam	-11.0991
▁formal	-11.0992
▁Sini	-11.0994
ografi	-11.0994
Co	-11.0995
▁gambaran	-11.0996
▁cap	-11.0997
▁Gande	-11.1003
▁pelaksana	-11.1004
▁Akibatnya	-11.1008
cermin	-11.1014
wang	-11.1018
64	-11.1018
warnai	-11.102
▁Sil	-11.1021
▁Simon	-11.1021
▁tulisan	-11.1027
▁penyerangan	-11.1031
▁Anton	-11.1032
qui	-11.1038
▁miliaran	-11.1039
▁rekannya	-11.104
▁dituntut	-11.104
▁bak	-11.1041
asih	-11.1043
▁Susu	-11.1044
▁asisten	-11.1047
ship	-11.1049
▁Zam	-11.1052
▁(5/6)	-11.1052
▁Wartawan	-11.1052
▁geopolitik	-11.1052
▁keahlian	-11.1052
▁kejaksaan	-11.1052
▁mencoblos	-11.1052
▁menggarisbawahi	-11.1052
▁menyikapi	-11.1052
▁Belanja	-11.1052
▁Kadiv	-11.1052
▁Sebaliknya	-11.1052
▁vital	-11.1052
▁Afif	-11.1053
▁Modal	-11.1054
▁Inara	-11.1057
▁mengga	-11.1059
▁cari	-11.1059
▁Ponpes	-11.1063
▁amal	-11.1063
▁11:	-11.1065
▁Produksi	-11.1068
▁Siber	-11.1073
Gus	-11.1075
burg	-11.1075
▁Sol	-11.1078
▁PTPN	-11.1079
▁Agar	-11.1081
▁68	-11.1081
▁sayuran	-11.109
▁pembicara	-11.1095
ox	-11.1096
▁19.00	-11.1104
▁Care	-11.1104
LH	-11.1112
▁pidatonya	-11.1113
▁Bor	-11.1113
Meng	-11.1117
▁diguyur	-11.1119
sep	-11.1128
▁Cel	-11.113
▁bayar	-11.1133
Ditreskrimsus	-11.1141
langsungkan	-11.1141
▁Berbicara	-11.1141
▁Kedatangan	-11.1141
▁Pengumuman	-11.1141
▁keracunan	-11.1141
▁solidaritas	-11.1141
erkumpulan	-11.1141
commerce	-11.1141
▁Sejarah	-11.1141
▁ranking	-11.1141
▁terekam	-11.1141
▁Pangkalan	-11.1141
▁Dumai	-11.1141
kaitkan	-11.1141
▁Beli	-11.1141
▁prima	-11.1141
▁swasembada	-11.1141
▁Mardani	-11.1141
▁komisi	-11.1141
▁milisi	-11.1142
▁Kunci	-11.1142
Pro	-11.1142
▁Kenapa	-11.1142
encinta	-11.1142
▁jari	-11.1143
SD	-11.1144
▁Simpang	-11.1144
pose	-11.1145
▁Hadap	-11.1145
▁Lebat	-11.1146
6.000	-11.1146
▁IBL	-11.1147
▁Wan	-11.1147
▁Hewan	-11.1149
▁Mayor	-11.115
4%	-11.115
▁Gugatan	-11.1154
zal	-11.1154
▁2010	-11.1156
PPI	-11.1158
perbarui	-11.1164
▁61	-11.1167
GB	-11.1168
▁120	-11.1177
▁MUI	-11.1178
▁diserang	-11.1179
▁membuah	-11.1186
ica	-11.1189
▁Art	-11.1194
800	-11.1201
ukuhkan	-11.1207
yl	-11.1213
of	-11.1214
mbal	-11.1218
▁15:4	-11.1228
▁Bedagai	-11.123
▁Conference	-11.123
▁Michigan	-11.123
▁Moerdijat	-11.123
▁Pegunungan	-11.123
▁Tercatat	-11.123
▁dilindungi	-11.123
▁ditindaklanjuti	-11.123
▁irigasi	-11.123
▁legislator	-11.123
▁mancanegara	-11.123
▁meramaikan	-11.123
▁terhubung	-11.123
▁Ricky	-11.123
▁perbincangan	-11.123
▁Sedikit	-11.123
▁Mudah	-11.123
▁mengupayakan	-11.123
▁Kajian	-11.123
▁menyalahkan	-11.123
▁Transformasi	-11.123
▁Munster	-11.1231
▁menjunjung	-11.1231
▁Deddy	-11.1232
▁Pintu	-11.1232
▁organik	-11.1232
▁Santri	-11.1233
▁menyu	-11.1233
▁posisinya	-11.1233
kuat	-11.1233
SUGBK	-11.1234
▁jeda	-11.1234
▁Enam	-11.1235
▁Bareng	-11.1235
▁Mary	-11.1236
▁Kader	-11.1237
▁Bay	-11.1237
▁kuda	-11.1241
▁aja	-11.1253
▁mimpi	-11.1254
▁berperang	-11.1254
▁terse	-11.1256
masalah	-11.126
JI	-11.1261
hub	-11.1265
wilayah	-11.1266
▁Graha	-11.1275
▁rela	-11.128
▁Kasub	-11.1286
raj	-11.1293
▁Gang	-11.1301
aq	-11.1318
▁62	-11.1319
▁Rini	-11.1319
▁Indikator	-11.132
▁Konsumen	-11.132
▁klasik	-11.132
▁semestinya	-11.132
▁sampel	-11.132
▁bercerai	-11.132
▁gerbang	-11.132
▁mengabdi	-11.132
▁dijerat	-11.132
▁sebetulnya	-11.132
▁Jinping	-11.132
▁eksternal	-11.132
▁hilirisasi	-11.1321
▁Penajam	-11.1321
▁Euro	-11.1321
▁gerai	-11.1322
▁Kompas	-11.1322
▁melayang	-11.1322
▁asap	-11.1322
▁pengangkut	-11.1323
agita	-11.1323
▁terlaksana	-11.1323
▁Bio	-11.1324
▁Inhu	-11.1325
▁IM	-11.1325
▁Royal	-11.1327
tong	-11.1327
▁database	-11.1328
▁barisan	-11.1333
lom	-11.1334
▁22:2	-11.1336
▁Wil	-11.1336
▁SMAN	-11.1338
▁14:2	-11.1339
▁Em	-11.1339
SM	-11.1341
dera	-11.1344
▁Kembang	-11.1347
▁Babak	-11.135
▁timbul	-11.1353
▁15:5	-11.1359
hulu	-11.1361
▁11:1	-11.1363
▁Thi	-11.1368
8.000	-11.1369
▁ad	-11.1372
▁bentrokan	-11.1373
cepat	-11.1373
▁MI	-11.1375
▁59	-11.1377
▁09:1	-11.1387
▁mediasi	-11.1394
via	-11.1398
1%	-11.14
▁Darma	-11.1402
ack	-11.1406
aa	-11.1406
▁bandar	-11.1408
▁Pontianak	-11.1411
▁Lahadalia	-11.1411
▁Profesor	-11.1411
▁ilmiah	-11.1411
▁kepatuhan	-11.1411
▁penyusunan	-11.1411
▁Kehakiman	-11.1411
▁Perencanaan	-11.1411
▁kaget	-11.1411
▁rugi	-11.1411
89	-11.1411
▁Harimurti	-11.1411
▁PS	-11.1411
▁Serbia	-11.1411
▁Tani	-11.1412
▁Komjen	-11.1412
▁Youth	-11.1412
▁Patrol	-11.1414
▁melempar	-11.1415
▁Penangkapan	-11.142
▁poster	-11.1421
▁Ok	-11.1422
▁Dit	-11.1429
stri	-11.1432
▁Mentan	-11.1432
mbangkan	-11.1438
bawa	-11.1439
JP	-11.144
▁migrasi	-11.1441
▁Has	-11.1442
▁klien	-11.1444
▁IX	-11.1447
▁Alun	-11.1448
saudara	-11.1449
geng	-11.145
teng	-11.1452
Foto	-11.1454
▁PKK	-11.1462
eu	-11.1469
Iya	-11.1486
AA	-11.1488
munculkan	-11.149
rung	-11.1493
BL	-11.1495
▁Hai	-11.1495
▁langka	-11.1499
ard	-11.15
▁Banjarmasin	-11.1503
▁Executive	-11.1503
▁Panjaitan	-11.1503
▁Pengungsi	-11.1503
▁Terdakwa	-11.1503
▁defisit	-11.1503
▁indikator	-11.1503
▁monitoring	-11.1503
▁museum	-11.1503
▁pengejaran	-11.1503
▁penundaan	-11.1503
▁mafia	-11.1503
▁visual	-11.1503
▁terinspirasi	-11.1503
▁Tirta	-11.1503
▁Usai	-11.1503
▁pelari	-11.1504
▁pengusung	-11.1504
▁Operasional	-11.1504
▁Tamara	-11.1505
▁Panjang	-11.1506
▁Tanggung	-11.1506
rekan	-11.1507
▁Candra	-11.1507
▁koper	-11.1508
▁Truk	-11.1509
▁Tjah	-11.1511
▁mendasar	-11.1511
Ko	-11.1511
Urusan	-11.1512
▁mentah	-11.1513
▁diskriminasi	-11.1513
mos	-11.1513
▁Net	-11.1515
▁Poin	-11.1516
▁penarikan	-11.1516
▁Paes	-11.1518
50.000	-11.1521
duh	-11.1523
▁inti	-11.1524
▁ditinggalkan	-11.1527
▁Indonesian	-11.153
▁72	-11.1531
lla	-11.1532
▁alasannya	-11.1532
proyek	-11.1541
sekutu	-11.1542
▁Say	-11.1543
▁menyera	-11.1543
▁95	-11.1544
lau	-11.1548
adik	-11.1549
sil	-11.1551
▁kunjung	-11.1551
▁du	-11.1552
▁Fin	-11.1556
uch	-11.1564
usaha	-11.1565
▁07:3	-11.1566
under	-11.157
▁PAS	-11.157
ware	-11.1572
8%	-11.1575
▁diprakirakan	-11.1579
rim	-11.1581
▁mas	-11.1583
▁olahan	-11.1584
▁14:3	-11.159
▁start	-11.1593
▁Azerbaijan	-11.1595
▁Mardiono	-11.1595
▁Platform	-11.1595
▁Sjafri	-11.1595
▁kemandirian	-11.1595
▁korporasi	-11.1595
▁mangrove	-11.1595
▁melestarikan	-11.1595
▁pelayaran	-11.1595
▁pembuangan	-11.1595
▁penertiban	-11.1595
▁virtual	-11.1595
▁Djoko	-11.1595
▁huruf	-11.1595
▁jenjang	-11.1595
▁Rokok	-11.1595
▁pemberitaan	-11.1595
▁rektor	-11.1595
▁Bakrie	-11.1596
▁Prestasi	-11.1596
▁Penega	-11.1596
▁diwujudkan	-11.1596
▁melatih	-11.1596
▁BALI	-11.1596
▁Sayangnya	-11.1596
▁pertukaran	-11.1596
▁dibacakan	-11.1596
▁dibuktikan	-11.1596
▁3-0	-11.1596
▁gajah	-11.1596
▁Propam	-11.1596
▁memproses	-11.1596
▁Terhadap	-11.1597
▁memburu	-11.1597
▁galon	-11.1597
▁striker	-11.1598
▁Nigeria	-11.16
▁menjauh	-11.1601
▁lap	-11.1601
▁1999	-11.1601
▁Markas	-11.1602
▁menguji	-11.1604
▁lega	-11.1604
▁PJ	-11.1607
▁Milan	-11.161
▁Sakti	-11.1611
kov	-11.1616
uc	-11.1618
▁tampilan	-11.1619
▁disebutnya	-11.1619
▁Part	-11.1622
▁inter	-11.1622
▁08:1	-11.1625
PDIP	-11.1636
▁DPO	-11.1636
▁Perak	-11.1636
7.000	-11.1642
ikut	-11.1642
golong	-11.1643
ming	-11.1643
▁pendidik	-11.1643
hkan	-11.1648
▁Bis	-11.1651
BPN	-11.1657
▁pinggiran	-11.1658
reg	-11.1665
▁waktunya	-11.1666
▁Soni	-11.1671
▁Nantinya	-11.1675
lempar	-11.1688
▁Lumpur	-11.1689
▁Mandalika	-11.1689
▁Rafael	-11.1689
▁berinteraksi	-11.1689
▁berkompetisi	-11.1689
▁berprestasi	-11.1689
▁kebencian	-11.1689
▁mahasiswi	-11.1689
▁penyisihan	-11.1689
▁ekspansi	-11.1689
▁terjalin	-11.1689
▁Perjalanan	-11.1689
▁Akses	-11.1689
▁Pelindo	-11.1689
▁count	-11.169
▁semester	-11.169
hias	-11.169
▁Gajah	-11.169
▁Zona	-11.1691
▁Ilir	-11.1691
▁kiai	-11.1692
▁Twitter	-11.1695
▁Bertemu	-11.1695
▁ilustrasi	-11.1696
▁Smart	-11.1697
▁menggugat	-11.1697
▁Rekor	-11.1698
▁Saham	-11.1699
▁terapi	-11.1701
▁BNN	-11.1703
▁Peradi	-11.1703
rie	-11.1706
▁DK	-11.1708
prov	-11.1708
▁talenta	-11.171
▁alamat	-11.1711
▁Kemenkes	-11.1714
▁Insyaallah	-11.1719
▁ICE	-11.1723
▁Catatan	-11.1723
abad	-11.1723
▁legal	-11.173
▁perbuatannya	-11.1734
zu	-11.1735
empat	-11.1738
hil	-11.1739
atik	-11.1739
Para	-11.1749
Li	-11.175
bilang	-11.1752
▁Malamnya	-11.1754
▁Mobile	-11.1759
▁diinisiasi	-11.1759
ayat	-11.1765
▁dibagi	-11.1766
▁Avi	-11.1767
▁Jen	-11.177
▁Airlines	-11.1783
▁Idzes	-11.1783
▁Kesepakatan	-11.1783
▁Kompetisi	-11.1783
▁Perindustrian	-11.1783
▁Singapore	-11.1783
▁alkohol	-11.1783
▁integrasi	-11.1783
▁kepabeanan	-11.1783
▁penyintas	-11.1783
▁prihatin	-11.1783
▁Petrus	-11.1783
▁cabai	-11.1783
▁pendalaman	-11.1783
Rudenim	-11.1783
▁bonus	-11.1783
▁identifikasi	-11.1783
▁utuh	-11.1783
▁Abbas	-11.1784
▁pemasok	-11.1785
▁serikat	-11.1785
▁Lulus	-11.1785
▁patah	-11.1785
▁BUMD	-11.1786
▁Mc	-11.1787
▁terhenti	-11.1789
▁personal	-11.1789
▁Kebon	-11.1791
▁Anji	-11.1793
▁pacar	-11.1798
▁Pangeran	-11.1801
ajatan	-11.1801
▁18:2	-11.1803
▁dasarnya	-11.1808
▁06:5	-11.181
▁Dok	-11.1817
posisi	-11.1823
yam	-11.1824
6%	-11.1824
Palestina	-11.1825
▁Dekan	-11.1825
▁mandat	-11.1826
▁10.000	-11.1827
Polda	-11.1828
bidang	-11.1835
▁10:3	-11.184
riya	-11.1843
idap	-11.1845
Mar	-11.1845
▁menyis	-11.1846
2%	-11.185
2.000	-11.1854
▁Peta	-11.1861
▁Setia	-11.1867
erap	-11.187
▁1.0	-11.1872
▁gen	-11.1878
▁Cibinong	-11.1878
▁Mukomuko	-11.1878
▁kalender	-11.1878
▁kolesterol	-11.1878
▁predikat	-11.1878
▁Agustiar	-11.1878
▁Perikanan	-11.1878
▁karet	-11.1879
▁perannya	-11.188
▁Maha	-11.1881
▁Halal	-11.1884
rekrut	-11.1885
▁Albert	-11.1885
▁kacang	-11.1886
▁laba	-11.1886
7%	-11.1886
▁Rakernas	-11.1887
▁Boy	-11.1889
▁Luka	-11.1892
▁Up	-11.1893
HK	-11.1896
▁audit	-11.1899
erkuat	-11.19
▁angkasa	-11.1902
▁Apel	-11.1902
▁mini	-11.1905
wakil	-11.1906
ME	-11.1908
baca	-11.1909
▁Miss	-11.1912
▁10:2	-11.1916
prinsip	-11.1921
Pemprov	-11.1921
Jabar	-11.1921
Sebagai	-11.1925
▁bisnisnya	-11.1929
▁Chris	-11.193
cia	-11.1932
▁Nabi	-11.1933
▁Bela	-11.1936
▁1-1	-11.194
CH	-11.1943
tana	-11.1947
ungkan	-11.1948
▁79	-11.1951
HP	-11.1953
▁kos	-11.1956
ntoro	-11.1958
▁kontroversi	-11.197
▁Penerbangan	-11.1974
▁demonstran	-11.1974
▁konvoi	-11.1974
▁pemberitahuan	-11.1974
▁pemeliharaan	-11.1974
▁system	-11.1974
▁seragam	-11.1975
▁Ternate	-11.1975
▁mempererat	-11.1975
▁menemani	-11.1975
▁persentase	-11.1975
▁Zulhas	-11.1975
▁Lan	-11.1975
▁terendah	-11.1975
▁Usul	-11.1976
▁Luluk	-11.1976
▁Hanif	-11.1978
▁Sulut	-11.1978
▁doktor	-11.1979
▁Teh	-11.1979
▁Alami	-11.1979
▁Jenazah	-11.1979
▁kotor	-11.198
▁kanal	-11.1981
▁Baznas	-11.1984
▁terbagi	-11.1985
▁bos	-11.1985
▁mengenang	-11.1986
▁vaksinasi	-11.1986
▁Free	-11.1988
▁nol	-11.1989
mpung	-11.1991
▁Founder	-11.1993
▁00:0	-11.1994
▁ambisi	-11.1998
▁intens	-11.2003
ubur	-11.2004
▁Harta	-11.2011
wali	-11.2015
▁UUD	-11.2017
Amerika	-11.2018
food	-11.2019
ound	-11.202
tanggal	-11.2021
▁Asing	-11.2024
▁dipenjara	-11.2025
▁pengembang	-11.2028
▁Bagas	-11.2032
▁ekstra	-11.2037
DPD	-11.204
emas	-11.2043
lihat	-11.2052
▁Karo	-11.2053
300	-11.2063
▁PMK	-11.2066
▁(28/8)	-11.2072
▁Bobotoh	-11.2072
▁Brigadi	-11.2072
▁Keselamatan	-11.2072
▁berbelanja	-11.2072
▁fashion	-11.2072
▁menegakkan	-11.2072
▁syuting	-11.2072
▁training	-11.2072
▁Event	-11.2072
▁Persiapan	-11.2072
▁donasi	-11.2072
▁tekad	-11.2072
▁perikanan	-11.2072
▁08.00	-11.2072
▁kesenjangan	-11.2072
▁emosional	-11.2072
▁pencemaran	-11.2072
▁kumpul	-11.2072
▁mengedukasi	-11.2073
▁Madya	-11.2073
ops	-11.2074
▁Riza	-11.2074
▁Rohul	-11.2075
▁rentang	-11.2078
umut	-11.2078
▁Fed	-11.2081
▁Erwin	-11.2081
oso	-11.2082
▁Kencana	-11.2083
▁gue	-11.2084
▁jus	-11.2086
▁pemikiran	-11.2088
▁Kemenhub	-11.2088
▁09:5	-11.2089
▁67	-11.2091
▁UIN	-11.2092
▁Widi	-11.2095
▁2007	-11.2095
TH	-11.2099
Be	-11.21
▁Muh	-11.2102
▁Neta	-11.2105
▁06:0	-11.2107
▁diolah	-11.2108
:07	-11.2109
▁Asian	-11.2114
prakirakan	-11.2121
▁menutupi	-11.2132
▁Pala	-11.2136
▁Sabu	-11.2138
▁jera	-11.2139
▁ditunjukkan	-11.2141
▁kepadatan	-11.2142
leg	-11.2143
hon	-11.2146
lama	-11.2149
mbong	-11.215
genap	-11.2152
▁Resor	-11.2156
uskan	-11.2157
aki	-11.216
skala	-11.2166
▁mm	-11.2168
▁Amanat	-11.2169
ustainable	-11.217
▁(23/1)	-11.217
▁Austria	-11.217
▁Elektabilitas	-11.217
▁Grobogan	-11.217
▁Public	-11.217
▁Tasikmalaya	-11.217
▁forensik	-11.217
▁konservatif	-11.217
▁Jemaah	-11.217
▁berlibur	-11.217
▁percobaan	-11.217
▁perlengkapan	-11.217
▁perlintasan	-11.217
▁BWF	-11.217
▁Gatot	-11.217
▁rumit	-11.217
▁langit	-11.217
▁berbuka	-11.217
▁Zakiyah	-11.217
▁Product	-11.217
▁adegan	-11.217
▁2019-2024	-11.2171
▁Sambut	-11.2171
▁Sanksi	-11.2171
▁teori	-11.2172
▁ajaran	-11.2173
▁ditanam	-11.2173
▁rel	-11.2175
▁berbincang	-11.2176
▁Pemberian	-11.2176
kaltim	-11.2177
▁Gilimanuk	-11.2179
▁Sanur	-11.218
oma	-11.2182
▁ATM	-11.2182
▁Bawang	-11.2183
▁lintasan	-11.2184
▁Tolak	-11.2187
berat	-11.2189
aktif	-11.2197
yal	-11.2198
▁Nor	-11.2198
88	-11.2206
▁Volo	-11.2207
▁kesan	-11.2208
▁pribadinya	-11.2208
▁18:3	-11.221
▁produknya	-11.2212
▁Eva	-11.2215
Kemudian	-11.2215
▁MU	-11.2218
▁82	-11.2219
tono	-11.2222
Pol	-11.2227
▁aduan	-11.2227
27/	-11.2227
▁Santa	-11.223
awai	-11.2232
▁Zain	-11.2232
▁ITS	-11.2248
21/	-11.2253
▁Satya	-11.2256
saksi	-11.2258
▁Hand	-11.2259
▁Jet	-11.2263
angga	-11.2264
▁Analis	-11.2267
▁Philip	-11.2268
gadang	-11.2268
▁show	-11.2268
tanggungjawaban	-11.2269
▁Kedokteran	-11.2269
▁Kronologi	-11.2269
▁Muzani	-11.2269
▁Pandeglang	-11.2269
▁diplomasi	-11.2269
▁komposisi	-11.2269
▁Pengacara	-11.2269
▁persepsi	-11.2269
▁terlapor	-11.2269
▁Klaim	-11.2269
▁menandakan	-11.2269
▁dipecat	-11.2269
▁perlakuan	-11.2269
▁kerangka	-11.2269
▁cetak	-11.2269
▁Fadjar	-11.2269
▁keanggotaan	-11.2269
▁pengesahan	-11.2269
▁Taspen	-11.227
▁Aturan	-11.227
▁ranah	-11.227
▁Transaksi	-11.227
▁radio	-11.2271
▁optimalisasi	-11.2271
▁golongan	-11.2271
▁ditarik	-11.2272
ipda	-11.2272
▁AN	-11.2273
▁tolong	-11.2274
▁Ogan	-11.228
▁Jak	-11.2281
▁ibunda	-11.2281
agaman	-11.2282
▁Feri	-11.2283
▁Tangsel	-11.2287
▁2006	-11.2292
▁Isa	-11.2296
▁dihitung	-11.2299
▁kantornya	-11.23
off	-11.2301
▁Jar	-11.2303
PPK	-11.2304
▁Tari	-11.2306
▁Taj	-11.2306
UNI	-11.2311
ilik	-11.2317
won	-11.2322
putri	-11.2326
▁Arus	-11.2328
▁Minum	-11.2329
larut	-11.2329
▁pelaporan	-11.2331
▁+	-11.2335
▁21:5	-11.2336
▁America	-11.2336
▁dada	-11.2342
out	-11.2343
antap	-11.2347
▁gegar	-11.2347
lintas	-11.2347
▁nyari	-11.2355
▁Mana	-11.2361
▁Kubu	-11.2367
ulung	-11.2369
▁(18/1)	-11.2369
▁Bangkok	-11.2369
▁Central	-11.2369
▁Clinic	-11.2369
▁Kekayaan	-11.2369
▁Supratman	-11.2369
▁binatang	-11.2369
▁entertainment	-11.2369
▁komputer	-11.2369
▁pegunungan	-11.2369
▁runtuh	-11.2369
▁spesies	-11.2369
▁benih	-11.2369
▁Jabatan	-11.2369
▁Perairan	-11.2369
▁Yunani	-11.2369
▁Francesco	-11.2369
▁kelebihan	-11.2369
▁peledak	-11.2369
▁Sonny	-11.2369
▁Damkar	-11.2369
▁menyangka	-11.237
▁Ingat	-11.237
▁Jules	-11.237
▁kafe	-11.2371
▁Tiba	-11.2371
▁menaruh	-11.2371
▁Watch	-11.2371
julukan	-11.2371
▁Golden	-11.2372
▁Year	-11.2374
▁Digelar	-11.2374
▁Sikap	-11.2375
▁Sup	-11.2377
wangi	-11.2379
▁66	-11.238
400	-11.2381
▁Satlantas	-11.2381
ote	-11.2384
▁Murah	-11.2386
▁aksinya	-11.2387
tabrak	-11.2389
▁konsistensi	-11.2389
▁700	-11.2389
▁CASN	-11.239
hubungan	-11.2395
▁tri	-11.2397
▁sungguh	-11.2401
/2023	-11.2401
▁cairan	-11.2405
▁Mene	-11.2406
▁Akun	-11.2407
▁Suri	-11.2414
sampai	-11.2416
Selama	-11.242
7/	-11.2421
▁Suf	-11.2421
rad	-11.2422
▁panda	-11.2423
▁Pengguna	-11.2424
▁kontrakan	-11.2425
▁penguasa	-11.2426
myr	-11.2426
inisiasi	-11.2432
omo	-11.2432
yung	-11.2435
▁TPI	-11.2437
▁Yi	-11.2442
▁Music	-11.2446
ebut	-11.2451
▁Panda	-11.2454
▁14:5	-11.2458
▁Berat	-11.246
▁petingg	-11.2461
▁JI	-11.2463
ficial	-11.2468
▁(5/2)	-11.247
▁Ciamis	-11.247
▁Khasiat	-11.247
▁kehamilan	-11.247
▁kelayakan	-11.247
▁komando	-11.247
▁menggerakkan	-11.247
▁penculikan	-11.247
▁Mengonsumsi	-11.247
▁Periode	-11.247
▁demografi	-11.247
▁pegiat	-11.247
▁Risiko	-11.247
▁kedapatan	-11.247
▁kambing	-11.247
▁Tower	-11.247
▁dramatis	-11.2471
house	-11.2471
▁pedoman	-11.2472
▁busana	-11.2477
▁09:2	-11.2478
▁$2	-11.2479
▁Impor	-11.248
sm	-11.2481
▁pensiunan	-11.2482
calon	-11.2482
▁Penuh	-11.2484
▁imbalan	-11.2484
▁bor	-11.2493
▁08:5	-11.2494
▁kewarganegaraan	-11.2494
▁Danau	-11.2499
▁maksud	-11.2505
▁cm	-11.2507
▁Iya	-11.2507
lib	-11.2509
▁kiriman	-11.251
tech	-11.2511
▁usahanya	-11.2511
RAN	-11.2512
HM	-11.2512
▁Ara	-11.2513
bia	-11.2516
▁pasukannya	-11.2517
▁Biasa	-11.2518
Sumsel	-11.2518
Humas	-11.2518
MO	-11.2522
▁Lang	-11.2526
ole	-11.253
▁baja	-11.253
▁CV	-11.2534
zy	-11.2539
▁78	-11.2543
▁PO	-11.2545
▁Desain	-11.255
▁Bahasa	-11.2551
▁mempersem	-11.2561
DE	-11.2561
▁pengunju	-11.2563
▁bebernya	-11.2569
▁inklusi	-11.257
▁Ketahanan	-11.2572
▁Pelantikan	-11.2572
▁Perdamaian	-11.2572
▁Premier	-11.2572
▁Soeharto	-11.2572
▁bertuliskan	-11.2572
▁eksekusi	-11.2572
▁mempertemukan	-11.2572
▁reguler	-11.2572
Cikampek	-11.2572
▁kakek	-11.2572
▁terjual	-11.2572
▁Klub	-11.2572
▁mengalihkan	-11.2572
▁dikhawatirkan	-11.2572
▁ketujuh	-11.2572
▁kisaran	-11.2572
▁Jajaran	-11.2572
▁Aqua	-11.2572
mitra	-11.2573
▁Modus	-11.2573
▁pertolongan	-11.2573
▁tukar	-11.2574
▁pembawa	-11.2575
▁Azizah	-11.2575
ubah	-11.2576
▁terkadang	-11.2577
▁panti	-11.258
▁selaras	-11.2581
▁sifat	-11.2583
▁Klok	-11.2586
hasil	-11.2587
▁terulang	-11.2588
▁Menlu	-11.2588
▁penyu	-11.2589
▁Play	-11.2589
▁ESDM	-11.2597
▁sejahtera	-11.26
▁Dju	-11.2602
minggu	-11.2606
▁IA	-11.2607
▁05:5	-11.2613
illa	-11.2615
MT	-11.2619
badan	-11.2625
▁dijatuhkan	-11.2626
▁Sehari	-11.2627
lapis	-11.2631
▁sayur	-11.2631
▁Inf	-11.2631
▁tanggap	-11.2634
▁81	-11.2639
▁penderitaan	-11.2643
▁Temuan	-11.2649
SO	-11.2652
sport	-11.2659
▁TB	-11.2662
▁Huda	-11.2665
▁74	-11.2674
▁(29/8)	-11.2675
▁Belgia	-11.2675
▁Kolombia	-11.2675
▁Marselino	-11.2675
▁Triliun	-11.2675
▁diperpanjang	-11.2675
▁fraksi	-11.2675
▁kekacauan	-11.2675
▁kronis	-11.2675
▁perjudian	-11.2675
▁terkendali	-11.2675
▁Perintah	-11.2675
▁menginap	-11.2675
▁MIND	-11.2675
▁jebol	-11.2675
▁donor	-11.2675
▁mengurai	-11.2675
▁Qodari	-11.2675
▁memanas	-11.2675
▁Belajar	-11.2675
mendistribusikan	-11.2675
▁Christie	-11.2675
▁Hermansyah	-11.2675
▁Christian	-11.2676
▁Menarik	-11.2676
▁laju	-11.2676
▁enak	-11.2677
▁Percepat	-11.2677
▁Berharap	-11.2677
round	-11.2677
▁Soreang	-11.2678
▁LBH	-11.2679
▁Laura	-11.2681
▁Kanit	-11.2682
▁Mundur	-11.2683
▁Ana	-11.2683
▁Sinergi	-11.2684
▁Tugu	-11.2685
▁Road	-11.2686
▁Idul	-11.2686
▁Akademi	-11.2695
▁Beras	-11.2697
▁KLHK	-11.2698
▁separuh	-11.2699
▁Laki	-11.27
▁Munas	-11.2707
▁Budiman	-11.2709
▁69	-11.2721
eriksa	-11.2722
organisasi	-11.2725
Jakarta	-11.2725
▁6,5	-11.2726
tingkat	-11.2728
▁Peny	-11.2734
▁Nad	-11.2735
▁Deni	-11.2736
elantun	-11.2738
▁Chen	-11.2739
▁FI	-11.274
▁Tema	-11.2742
▁mengantar	-11.2744
▁Biasanya	-11.2745
nopol	-11.2748
▁Rita	-11.2752
▁UE	-11.2752
▁02:0	-11.2755
▁sepi	-11.2757
VP	-11.2768
▁Jane	-11.2768
putra	-11.2768
▁85	-11.277
less	-11.2775
ray	-11.2775
▁Encep	-11.2779
▁Nasdem	-11.2779
▁Paskibraka	-11.2779
▁Rahasia	-11.2779
▁Simanjuntak	-11.2779
▁Venezuela	-11.2779
▁advokat	-11.2779
▁efektivitas	-11.2779
▁penggerak	-11.2779
▁penjuru	-11.2779
▁telekomunikasi	-11.2779
▁venue	-11.2779
▁menghidupkan	-11.2779
▁surya	-11.2779
habisan	-11.2779
▁kemarahan	-11.2779
▁kolega	-11.2779
▁runner	-11.2779
▁berlari	-11.2779
▁Ronny	-11.278
▁diwakili	-11.278
▁Labuan	-11.278
▁Sch	-11.278
▁Hassan	-11.278
▁Taruna	-11.2781
▁Sugeng	-11.2781
▁Jabodetabek	-11.2783
▁kapten	-11.2784
▁harganya	-11.2785
▁Turut	-11.2787
▁YouTuber	-11.2792
▁Angela	-11.2792
▁Batik	-11.2797
▁SU	-11.28
tta	-11.2801
jek	-11.2804
jer	-11.2805
▁bal	-11.281
amin	-11.2812
▁12:5	-11.2813
tron	-11.2815
79	-11.2823
▁Bayi	-11.2825
▁UT	-11.2829
NTT	-11.2832
jono	-11.2834
▁71	-11.2834
▁Rawa	-11.284
▁pendaftar	-11.284
▁MH	-11.285
▁pema	-11.2855
▁diganti	-11.2856
tsu	-11.2856
GO	-11.2873
JPU	-11.2874
iksa	-11.2878
jemput	-11.2882
▁(21/1)	-11.2884
▁(25/1)	-11.2884
▁Kolonel	-11.2884
▁Rismaharini	-11.2884
▁elektoral	-11.2884
▁kurikulum	-11.2884
▁tenggara	-11.2884
▁Literasi	-11.2884
▁skandal	-11.2884
▁ultra	-11.2884
▁Kendari	-11.2885
▁Tahanan	-11.2885
▁kesatuan	-11.2885
▁Kualitas	-11.2885
▁SUKA	-11.2885
▁kedalaman	-11.2885
▁Penjaga	-11.2885
▁vila	-11.2885
▁96	-11.2885
▁dimainkan	-11.2885
▁Tampak	-11.2886
71	-11.2886
▁usus	-11.2886
abilitas	-11.2887
▁teks	-11.2887
▁Tinggal	-11.2887
▁Kelima	-11.2888
▁1990	-11.2891
▁Jojo	-11.2892
wara	-11.2907
▁berdua	-11.2908
▁Umat	-11.2912
▁kediamannya	-11.2912
luas	-11.2913
▁IDF	-11.2913
jangan	-11.2914
ceng	-11.2919
▁akrabnya	-11.2928
▁Mali	-11.2928
▁pemerintahannya	-11.2931
jenis	-11.2931
▁berkali	-11.2933
▁semen	-11.2935
meter	-11.2937
elo	-11.2937
pemain	-11.2938
FP	-11.2943
▁pembuka	-11.2944
▁Ika	-11.2944
putus	-11.2945
▁16.00	-11.2951
▁meringku	-11.2953
otong	-11.2954
CT	-11.2959
▁HP	-11.2961
▁tangkapan	-11.2962
trik	-11.2968
▁Qo	-11.2973
▁Lingga	-11.2973
▁09:4	-11.2976
▁Sek	-11.2983
▁07:5	-11.2983
gub	-11.2986
▁DR	-11.2987
▁Web	-11.2988
▁progres	-11.299
▁pelindung	-11.2991
▁(14/10)	-11.2991
▁(27/3)	-11.2991
▁Paripurna	-11.2991
▁Penasihat	-11.2991
▁Pendukung	-11.2991
▁Slavina	-11.2991
▁celana	-11.2991
▁dikumpulkan	-11.2991
▁diresmikan	-11.2991
▁fiktif	-11.2991
▁lukisan	-11.2991
▁menyimpulkan	-11.2991
▁nirawak	-11.2991
▁pemecatan	-11.2991
▁persahabatan	-11.2991
▁selisih	-11.2991
▁workshop	-11.2991
▁benua	-11.2991
▁nyeri	-11.2991
▁diperkenalkan	-11.2991
▁angket	-11.2991
▁Sawit	-11.2991
▁ATR	-11.2991
▁Serpong	-11.2991
▁berdoa	-11.2991
▁kerajinan	-11.2991
▁pemalsuan	-11.2991
▁PD	-11.2991
▁dijelaskan	-11.2991
▁mengerti	-11.2992
▁lubang	-11.2992
▁cantik	-11.2992
BUMI	-11.2992
▁terminal	-11.2994
▁kabel	-11.2994
▁Kurang	-11.2994
▁sulung	-11.2995
▁kontroversial	-11.2995
▁LSM	-11.2996
fat	-11.2997
▁sendirian	-11.2997
▁Gregoria	-11.2999
▁Ning	-11.3
▁terbalik	-11.3001
▁psikologis	-11.3002
UT	-11.3002
▁Tepat	-11.3005
▁pendirian	-11.3007
ndu	-11.3008
▁tour	-11.3012
gat	-11.3013
▁berfoto	-11.3015
▁berenang	-11.302
▁Shan	-11.302
roh	-11.3021
tz	-11.3026
▁war	-11.303
▁Hen	-11.3032
▁Jer	-11.3032
▁Citi	-11.3033
▁Angel	-11.3036
▁Md	-11.3036
ondo	-11.304
▁Bre	-11.3041
Hasil	-11.3044
▁kue	-11.3046
▁gencar	-11.3047
-31	-11.3048
▁Wawan	-11.3052
▁buron	-11.3056
▁gerak	-11.3056
▁Junior	-11.3062
Berdasar	-11.3062
▁Cik	-11.3064
▁Nova	-11.3066
supan	-11.3068
jelas	-11.3068
▁Tip	-11.3072
RU	-11.3075
tegas	-11.3077
LU	-11.3079
-28	-11.3082
ojo	-11.3083
park	-11.3086
▁Ace	-11.3089
▁tank	-11.3097
▁agresi	-11.3097
▁menonjol	-11.3098
▁(13/11)	-11.3098
▁(22/1)	-11.3098
▁(22/4)	-11.3098
▁(24/1)	-11.3098
▁(7/2)	-11.3098
▁Abraham	-11.3098
▁Financial	-11.3098
▁Muncul	-11.3098
▁Terutama	-11.3098
▁bocor	-11.3098
▁jendela	-11.3098
▁kedokteran	-11.3098
▁menghibur	-11.3098
▁pembekalan	-11.3098
▁pengumpulan	-11.3098
▁Inisiatif	-11.3098
▁impian	-11.3098
▁memadati	-11.3098
▁mengindikasikan	-11.3098
▁jahat	-11.3098
▁kewaspadaan	-11.3098
▁naturalisasi	-11.3098
▁konvensional	-11.3098
▁legendaris	-11.3098
▁tukang	-11.3099
▁Jonatan	-11.3099
▁aneh	-11.3099
▁Model	-11.31
▁dokumentasi	-11.3103
▁tiang	-11.3103
▁Melawan	-11.3104
▁port	-11.3105
▁Etik	-11.3106
▁Rock	-11.3108
▁sebelas	-11.3109
▁Hanura	-11.3111
▁ABC	-11.3117
CG	-11.3119
▁Penerimaan	-11.3123
▁kunjungannya	-11.3125
▁Siangnya	-11.3125
▁Race	-11.3126
▁Didi	-11.313
indikat	-11.313
▁KU	-11.3134
▁konfirmasi	-11.3142
Kon	-11.3143
agung	-11.3144
UB	-11.3153
Program	-11.3153
pendidikan	-11.3153
-22	-11.3154
▁sisanya	-11.3159
▁test	-11.3162
iringi	-11.3163
RAM	-11.3163
rey	-11.3169
▁23:5	-11.317
▁Hatta	-11.3171
▁militernya	-11.3174
4.000	-11.3177
▁saji	-11.3178
▁Tah	-11.3183
▁Yuli	-11.3185
▁gunakan	-11.3185
ontak	-11.3186
ohon	-11.319
mall	-11.3193
▁do	-11.3196
▁Eng	-11.3196
HC	-11.3198
▁12:1	-11.3199
▁Kos	-11.3199
lapak	-11.32
Wa	-11.3201
▁instan	-11.3205
▁(23/10)	-11.3207
▁(30/1)	-11.3207
▁Bengkalis	-11.3207
▁Cipayung	-11.3207
▁Elektronik	-11.3207
▁Entertainment	-11.3207
▁Gallant	-11.3207
▁Hasibuan	-11.3207
▁Kompetensi	-11.3207
▁Wajib	-11.3207
▁aktris	-11.3207
▁mumpuni	-11.3207
▁perdebatan	-11.3207
▁perspektif	-11.3207
▁Maharani	-11.3207
▁assist	-11.3207
▁email	-11.3207
▁Future	-11.3207
▁membedakan	-11.3207
▁santai	-11.3207
▁perak	-11.3207
▁porsi	-11.3207
▁nikah	-11.3207
▁diduduki	-11.3207
▁Langsung	-11.3207
▁postingan	-11.3207
▁kebetulan	-11.3207
▁otot	-11.3207
▁anyar	-11.3208
▁Dhani	-11.3208
▁Supian	-11.3208
▁BRICS	-11.3208
▁Bulu	-11.3209
▁Tesla	-11.3209
▁Johnson	-11.321
▁Good	-11.321
▁beruntung	-11.3211
▁Kebay	-11.3212
▁Andreas	-11.3212
▁Raden	-11.3213
▁garam	-11.3214
▁Komang	-11.3214
▁TP	-11.3215
▁73	-11.3216
▁bule	-11.3217
▁wisuda	-11.3217
▁Jack	-11.3218
▁serial	-11.3219
▁Ditreskrimum	-11.3221
▁tandang	-11.3224
▁Detik	-11.3228
▁maya	-11.3229
gaji	-11.3235
▁Set	-11.3237
▁seimbang	-11.3237
ous	-11.3237
▁pemukiman	-11.3238
▁Ferdinan	-11.3241
gre	-11.3242
▁UMK	-11.3244
▁2045.	-11.3246
▁Menu	-11.3246
▁logo	-11.3246
▁Palm	-11.3249
hel	-11.3254
KIM	-11.3257
mir	-11.3258
▁harapkan	-11.3259
bag	-11.3259
▁Dong	-11.3261
▁AU	-11.3263
Kegiatan	-11.3263
Kedua	-11.3264
▁Chang	-11.3264
ryanti	-11.3269
▁87	-11.327
angkal	-11.3273
▁Tek	-11.3273
▁mak	-11.3279
RW	-11.3279
▁del	-11.3282
▁nggak	-11.3283
sky	-11.3288
cang	-11.3296
mand	-11.33
▁tuh	-11.3303
▁dimaksudkan	-11.3306
▁hitung	-11.3307
ella	-11.3308
▁Setyo	-11.3312
▁Hang	-11.3313
IF	-11.3315
▁Livin	-11.3316
▁Makanya	-11.3316
▁(15/4)	-11.3317
▁(27/11)	-11.3317
▁(30/10)	-11.3317
▁(30/7)	-11.3317
▁(5/1)	-11.3317
▁(8/3)	-11.3317
▁Bergizi	-11.3317
▁Bioskop	-11.3317
▁Bondowoso	-11.3317
▁Cholil	-11.3317
▁Inflasi	-11.3317
▁Maarten	-11.3317
▁Pembalap	-11.3317
▁Penuntut	-11.3317
▁Yerusalem	-11.3317
▁alhamdulillah	-11.3317
▁bimbingan	-11.3317
▁dermaga	-11.3317
▁dimakamkan	-11.3317
▁kelestarian	-11.3317
▁kesepahaman	-11.3317
▁perincian	-11.3317
▁Ketapang	-11.3317
▁Libya	-11.3317
▁menyatukan	-11.3317
▁lawatan	-11.3317
▁kedekatan	-11.3317
▁3-1	-11.3317
▁roti	-11.3317
▁podium	-11.3317
▁profil	-11.3317
▁bijak	-11.3318
▁mengamati	-11.3318
▁Menjaga	-11.3318
▁koordinator	-11.3318
▁pengikut	-11.3318
perketat	-11.3319
▁Tertinggi	-11.3319
▁Mangku	-11.3319
▁Setiadi	-11.3321
▁pagar	-11.3321
▁Panji	-11.3322
▁jurusan	-11.3323
▁Madani	-11.3324
▁Rosan	-11.3324
▁Ricardo	-11.3326
▁Pacific	-11.3327
▁hubungannya	-11.3332
KU	-11.3335
▁PIK	-11.334
▁Sekali	-11.334
▁mobilitas	-11.3342
hap	-11.3344
suk	-11.3353
▁Permen	-11.3356
▁awan	-11.3357
▁HM	-11.336
96	-11.336
obo	-11.3365
enteng	-11.3366
▁Est	-11.3368
andai	-11.3371
▁Tang	-11.3371
menerus	-11.3374
mpo	-11.3374
blak	-11.3374
▁Amal	-11.3376
▁Dico	-11.3377
elola	-11.3379
LK	-11.338
▁Fit	-11.3381
cut	-11.3383
▁Kg	-11.3384
oka	-11.339
▁mari	-11.3395
lagu	-11.3398
▁Toba	-11.3402
Ku	-11.3404
▁Sorenya	-11.3412
▁Cut	-11.3423
▁Cahyo	-11.3426
dongkrak	-11.3428
mengintegrasikan	-11.3428
▁(1/10)	-11.3428
▁(10/10)	-11.3428
▁(15/10)	-11.3428
▁Erdogan	-11.3428
▁Investment	-11.3428
▁Matthew	-11.3428
▁Summit	-11.3428
▁asusila	-11.3428
▁berlindung	-11.3428
▁diberangkatkan	-11.3428
▁ditimbulkan	-11.3428
▁fosil	-11.3428
▁insyaallah	-11.3428
▁kekebalan	-11.3428
▁kepengurusan	-11.3428
▁kerawanan	-11.3428
▁konservasi	-11.3428
▁merangkul	-11.3428
▁mewajibkan	-11.3428
▁statistik	-11.3428
▁terpantau	-11.3428
▁George	-11.3428
▁Khalifa	-11.3428
▁lunak	-11.3428
▁skill	-11.3428
elebrasi	-11.3428
▁Brawijaya	-11.3428
▁atmosfer	-11.3428
▁dihapus	-11.3428
▁Hubner	-11.3428
▁suaka	-11.3429
▁dikerjakan	-11.3429
▁logam	-11.3429
▁memberitahu	-11.3429
▁Walau	-11.3429
▁Palangka	-11.343
▁Manila	-11.343
▁Bara	-11.343
duga	-11.343
▁fit	-11.3431
▁Yakin	-11.3431
▁1.500	-11.3436
▁Kontrak	-11.3437
barkan	-11.3438
▁Mala	-11.3439
▁12:4	-11.3443
LM	-11.3445
▁Romo	-11.3446
▁menerus	-11.3448
▁Reporter	-11.3449
▁10:5	-11.3449
alin	-11.345
!"	-11.3451
▁Kalah	-11.3451
▁BNPB	-11.3454
▁pelat	-11.3458
BRI	-11.3462
▁App	-11.3463
▁kaitannya	-11.3465
▁18:1	-11.3465
▁KI	-11.3467
▁bela	-11.347
▁GM	-11.3477
▁pungkas	-11.3482
▁rak	-11.3482
inggung	-11.3486
OL	-11.3487
▁batasan	-11.349
resenter	-11.3492
Nanti	-11.3494
henti	-11.3496
JB	-11.3499
ement	-11.35
▁Amar	-11.35
Jangan	-11.3501
ihan	-11.3503
▁Maritim	-11.3508
▁Balik	-11.3517
KKB	-11.3529
▁Rif	-11.3537
mula	-11.3538
▁(11/7)	-11.354
▁Klasemen	-11.354
▁Lippo	-11.354
▁Yaqut	-11.354
▁autopsi	-11.354
▁sarjana	-11.354
▁sekretaris	-11.354
▁sentuhan	-11.354
▁Penerangan	-11.354
▁Persikabo	-11.354
▁Klinik	-11.354
▁menyukai	-11.354
▁entitas	-11.354
▁mengukur	-11.354
▁sesungguhnya	-11.354
▁pengasuh	-11.354
▁Jusuf	-11.354
▁cermat	-11.354
▁nominasi	-11.3541
▁ombak	-11.3541
▁Makmur	-11.3541
▁Yesus	-11.3541
▁penggawa	-11.3541
▁ditempati	-11.3542
▁Lembong	-11.3542
▁simak	-11.3543
▁Susilo	-11.3543
▁Terjadi	-11.3544
down	-11.3545
▁Pinang	-11.3546
▁Berbeda	-11.3547
▁Kedung	-11.3552
▁tali	-11.3553
esok	-11.3554
▁mengulangi	-11.3558
core	-11.3563
ontoh	-11.3565
▁Amil	-11.3565
▁zonasi	-11.3569
time	-11.357
kena	-11.3571
▁tebu	-11.3572
baiknya	-11.3573
▁Kuat	-11.3573
▁LSI	-11.3578
▁pembacaan	-11.3578
▁OJK	-11.3581
600	-11.3582
muat	-11.3585
▁MP	-11.3587
▁pilihnya	-11.3587
operasi	-11.3596
Pasifik	-11.36
▁Iswar	-11.3607
▁Puri	-11.3607
▁Pilih	-11.3614
▁Tanda	-11.3617
▁May	-11.363
Aku	-11.363
▁amat	-11.3635
▁11:4	-11.3636
▁harapannya	-11.3638
▁Kamal	-11.3638
▁Zu	-11.3639
sit	-11.3646
dani	-11.3646
▁tujuannya	-11.3647
▁hanyalah	-11.3653
▁(14/8)	-11.3654
▁(24/7)	-11.3654
▁Ariotedjo	-11.3654
▁Beasiswa	-11.3654
▁Guterres	-11.3654
▁Halmahera	-11.3654
▁Norwegia	-11.3654
▁Penumpang	-11.3654
▁Prioritas	-11.3654
▁Tokopedia	-11.3654
▁dibiarkan	-11.3654
▁ditampilkan	-11.3654
▁maksimum	-11.3654
▁membicarakan	-11.3654
▁memerinci	-11.3654
▁Bontang	-11.3654
▁Travel	-11.3654
▁mengesahkan	-11.3654
▁Black	-11.3654
▁disimpan	-11.3654
▁depresi	-11.3654
▁jatah	-11.3654
▁aroma	-11.3654
▁Kurdi	-11.3654
bobol	-11.3654
▁Transmigrasi	-11.3654
▁pemerataan	-11.3654
▁dikawal	-11.3654
CB	-11.3654
▁memotivasi	-11.3654
▁Dinar	-11.3654
▁penghentian	-11.3655
▁kontestan	-11.3655
▁penjabat	-11.3655
▁Subdit	-11.3655
▁Maming	-11.3656
▁kolam	-11.3656
▁kasasi	-11.3657
▁dicari	-11.3657
▁12:0	-11.3658
▁sabar	-11.3659
▁Mike	-11.3661
▁Gaji	-11.3662
▁pantauan	-11.3663
▁perunggu	-11.3664
▁Lawang	-11.3666
/10	-11.3673
▁Mendagri	-11.3673
▁5.000	-11.3673
iringan	-11.3676
▁WWF	-11.3676
▁Dede	-11.3677
▁Peru	-11.3681
▁22:1	-11.3684
ulasi	-11.3687
jaga	-11.369
▁banteng	-11.3692
erangkat	-11.3692
oyo	-11.37
▁Hay	-11.3702
RK	-11.3703
▁Batakan	-11.3704
▁bakti	-11.3707
kha	-11.3708
struktur	-11.3708
▁dibayarkan	-11.3709
▁Perum	-11.3712
FC	-11.3712
oleh	-11.3712
truk	-11.3714
keluarga	-11.3715
Wakil	-11.3715
sumpah	-11.3715
Kom	-11.3716
light	-11.3722
jani	-11.3724
▁Wina	-11.3726
vis	-11.3734
▁Gold	-11.3735
▁LA	-11.3746
enyandang	-11.3748
zar	-11.3751
lagi	-11.3762
MEDAN	-11.3766
guru	-11.3766
▁Aziz	-11.3766
▁TPA	-11.3767
▁Pemelihara	-11.3769
▁(26/1)	-11.3769
▁Buddha	-11.3769
▁Challenge	-11.3769
▁Hevearita	-11.3769
▁Nelayan	-11.3769
▁dikunjungi	-11.3769
▁konsultan	-11.3769
▁reputasi	-11.3769
▁tragedi	-11.3769
▁judul	-11.3769
▁razia	-11.3769
▁tudingan	-11.3769
▁Hotman	-11.3769
▁menyambangi	-11.3769
isolasi	-11.3769
▁Paniai	-11.3769
▁acuan	-11.3769
▁menyembunyikan	-11.3769
▁ketahui	-11.3769
▁digagas	-11.3769
▁menyerta	-11.3769
▁Carolina	-11.3769
▁mengkaji	-11.3769
▁Prihadi	-11.3769
▁naungan	-11.3769
▁Pengunjung	-11.3769
▁Pembebas	-11.3769
▁Jansen	-11.377
▁terlambat	-11.3772
▁Tawar	-11.3773
▁(2)	-11.3775
▁PBSI	-11.3775
VI	-11.3777
▁Sarana	-11.3778
▁Harapannya	-11.378
▁Team	-11.3781
▁UEA	-11.3783
▁Pasir	-11.3783
▁tubuhnya	-11.3783
▁Japan	-11.3783
▁Prodi	-11.3786
▁Panas	-11.3787
polis	-11.3788
Pak	-11.3789
▁Bakauheni	-11.3794
▁Lain	-11.3794
▁Andy	-11.3795
▁Beliau	-11.3798
▁Fath	-11.3799
▁Standar	-11.38
▁Fu	-11.38
▁Grab	-11.3804
▁dimusnahkan	-11.381
gus	-11.3813
jeng	-11.3818
▁berakhirnya	-11.382
▁2-1	-11.3826
▁Revi	-11.3827
▁kerjasama	-11.3829
▁tega	-11.383
tonton	-11.3831
target	-11.3831
▁Nicke	-11.3832
▁IKA	-11.3835
helat	-11.3837
▁Pul	-11.3839
▁DP	-11.3839
▁penutup	-11.3842
timbang	-11.3847
▁mengeluh	-11.385
▁Sita	-11.3852
▁Long	-11.3854
▁Atma	-11.3855
UD	-11.3863
indah	-11.3868
▁menunjukan	-11.3868
▁ala	-11.3871
▁Jiwa	-11.3871
▁DPT	-11.3876
▁Jun	-11.3881
▁(10/9)	-11.3885
▁(22/8)	-11.3885
▁(27/6)	-11.3885
▁(29/1)	-11.3885
▁(5/4)	-11.3885
▁Habiburokhman	-11.3885
▁Lengkap	-11.3885
▁Manggarai	-11.3885
▁Mimika	-11.3885
▁Pensiun	-11.3885
▁Pentagon	-11.3885
▁Sustainability	-11.3885
▁bakteri	-11.3885
▁bervariasi	-11.3885
▁degradasi	-11.3885
▁konektivitas	-11.3885
▁merokok	-11.3885
▁pembalasan	-11.3885
▁perseorangan	-11.3885
▁berlayar	-11.3885
▁pemicu	-11.3885
▁Aurel	-11.3885
▁utusan	-11.3885
▁Longsor	-11.3885
▁ojek	-11.3885
▁dibakar	-11.3885
enyerahan	-11.3886
▁Imlek	-11.3886
▁menangguhkan	-11.3886
▁diawasi	-11.3886
▁Mengaku	-11.3887
ode	-11.3887
▁Pilar	-11.3887
▁Terungkap	-11.3887
▁Alfian	-11.3888
▁menuding	-11.3888
▁heran	-11.3888
apolrestabes	-11.3889
▁sentral	-11.389
▁wayang	-11.389
▁Zero	-11.3891
work	-11.3891
▁berteriak	-11.3893
▁Keberhasilan	-11.3895
▁DNA	-11.3895
▁knalpot	-11.3896
▁Pileg	-11.3898
▁Yulia	-11.3901
▁Sudar	-11.3901
LS	-11.3902
▁Marcos	-11.3903
TAR	-11.3905
▁BAN	-11.3906
Ririn	-11.3912
ITE	-11.3914
IV	-11.3916
▁Rama	-11.3919
▁Mayat	-11.3919
▁bertempat	-11.3921
▁2003	-11.3921
▁Devi	-11.3925
Giri	-11.3929
▁amankan	-11.3938
▁Hamid	-11.394
harjo	-11.3943
gambar	-11.3945
ich	-11.3949
lengkap	-11.3949
▁praktisi	-11.3951
▁Nick	-11.3953
▁Ash	-11.3958
▁puluh	-11.3959
▁mula	-11.397
▁Vol	-11.3977
▁1,7	-11.3978
▁05:0	-11.3983
52	-11.3985
▁1.5	-11.3989
ova	-11.399
non	-11.399
▁Angin	-11.3994
anggung	-11.3995
▁Antoni	-11.4002
▁Suherman	-11.4003
▁(12/12)	-11.4003
▁(17/1)	-11.4003
▁(20/3)	-11.4003
▁(23/12)	-11.4003
▁(5/11)	-11.4003
▁Kandidat	-11.4003
▁Kapuas	-11.4003
▁Klungkung	-11.4003
▁Pictures	-11.4003
▁Prajurit	-11.4003
▁Tujuh	-11.4003
▁dipengaruhi	-11.4003
▁diperbaiki	-11.4003
▁influencer	-11.4003
▁kelelahan	-11.4003
▁menggeledah	-11.4003
▁pelosok	-11.4003
▁Kepemimpinan	-11.4003
▁Swift	-11.4003
▁Kemitraan	-11.4003
▁mengoperasikan	-11.4003
▁Album	-11.4003
▁Arsip	-11.4003
▁margin	-11.4003
▁instalasi	-11.4003
▁SWT	-11.4003
▁semalam	-11.4003
▁rock	-11.4003
▁Natuna	-11.4003
▁TPNPB	-11.4003
▁berangin	-11.4003
▁kerajaan	-11.4003
▁silakan	-11.4003
▁senada	-11.4003
▁Harry	-11.4003
▁iuran	-11.4003
▁outlet	-11.4003
▁buaya	-11.4004
▁Mengingat	-11.4005
▁Perkara	-11.4007
▁Tambak	-11.4008
▁Acep	-11.4008
▁open	-11.401
▁Konon	-11.4012
▁Space	-11.4012
▁Tab	-11.4013
▁bersumber	-11.4016
▁salam	-11.4016
▁penerbitan	-11.4017
▁MAN	-11.4018
▁belas	-11.4019
▁HIV	-11.4022
▁Anna	-11.4025
▁lirik	-11.4028
▁Beach	-11.4032
▁dorongan	-11.4035
▁PHPU	-11.4042
▁Out	-11.4044
iano	-11.4046
▁MoU	-11.4048
▁JIS	-11.4049
▁OPD	-11.4049
-24	-11.4051
▁3.000	-11.4052
▁112	-11.4053
media	-11.4054
▁terbaiknya	-11.4055
posting	-11.4058
anjak	-11.406
▁Christ	-11.4061
DK	-11.4061
▁Gran	-11.4068
▁Tomo	-11.4068
BPK	-11.4072
logi	-11.4073
▁BPS	-11.4074
▁penyelamat	-11.4078
▁Times	-11.4079
abulkan	-11.4084
▁menguat	-11.4087
angsa	-11.4088
▁Kara	-11.4097
▁Pr	-11.4098
kos	-11.41
zim	-11.4106
▁andal	-11.4107
▁You	-11.4116
invest	-11.4118
▁Saiful	-11.4119
direktorat	-11.4122
▁(20/5)	-11.4122
▁(24/6)	-11.4122
▁(29/7)	-11.4122
▁(4/11)	-11.4122
▁Happy	-11.4122
▁Keimigrasian	-11.4122
▁Lewotobi	-11.4122
▁Optimistis	-11.4122
▁Sedunia	-11.4122
▁terhindar	-11.4122
▁keponakan	-11.4122
▁mengobati	-11.4122
▁Beauty	-11.4122
▁Nasib	-11.4122
▁memasak	-11.4122
▁rumor	-11.4122
▁BMW	-11.4122
▁UKT	-11.4122
▁Maduro	-11.4122
▁Network	-11.4122
▁panduan	-11.4122
▁interaksi	-11.4122
rg	-11.4122
▁Marsudi	-11.4122
▁menyeret	-11.4122
▁perlahan	-11.4122
▁JAYA	-11.4123
▁lambung	-11.4123
wen	-11.4123
▁Makkah	-11.4123
▁Jeruk	-11.4124
perhitungkan	-11.4124
▁begal	-11.4124
▁label	-11.4125
▁mengguncang	-11.4126
▁disebar	-11.4126
▁Himpunan	-11.4127
▁susun	-11.413
▁Motif	-11.413
▁siapapun	-11.4131
humas	-11.4132
▁perusakan	-11.4133
▁insan	-11.4133
CP	-11.4134
▁Tayang	-11.4134
▁peraga	-11.4136
▁Aula	-11.4138
emakin	-11.4139
▁member	-11.4144
hot	-11.4152
▁VII	-11.4152
▁Rivan	-11.4152
▁Simp	-11.4153
▁Wu	-11.4157
▁mengeluhkan	-11.4158
▁produser	-11.4158
▁digantikan	-11.4162
lima	-11.4162
▁94	-11.4162
▁Firman	-11.4166
antik	-11.4167
wanti	-11.4167
subsidi	-11.4173
▁Tentunya	-11.4174
▁Pilihan	-11.4175
▁puing	-11.4179
▁Was	-11.4187
NTB	-11.4191
bumi	-11.4193
▁Catat	-11.4206
▁Bangunan	-11.4207
janto	-11.4212
kadang	-11.4215
kecil	-11.4217
▁gara	-11.4221
nov	-11.4227
▁manfaatnya	-11.4227
para	-11.4229
▁Rencananya	-11.4232
PPN	-11.4238
▁(11/12)	-11.4242
▁(21/8)	-11.4242
▁(28/1)	-11.4242
▁(28/3)	-11.4242
▁(3/7)	-11.4242
▁(30/4)	-11.4242
▁(5/3)	-11.4242
▁Badminton	-11.4242
▁Bitcoin	-11.4242
▁Kertanegara	-11.4242
▁Penembakan	-11.4242
▁Purnomo	-11.4242
▁Yoyok	-11.4242
▁asosiasi	-11.4242
▁nenek	-11.4242
interogasi	-11.4242
▁mencintai	-11.4242
▁pelarangan	-11.4242
▁perpecahan	-11.4242
▁seluler	-11.4242
▁estate	-11.4242
▁Delapan	-11.4242
▁1973	-11.4242
▁berpasangan	-11.4242
▁edaran	-11.4242
▁disusun	-11.4242
▁kelengkapan	-11.4242
▁sandar	-11.4242
▁Tabungan	-11.4242
▁telinga	-11.4242
▁Ratna	-11.4243
▁Cegah	-11.4243
▁Edwin	-11.4243
▁konstitusional	-11.4243
▁dijalani	-11.4245
▁selebgram	-11.4246
▁Big	-11.4247
▁terpadu	-11.4247
▁Alvin	-11.4248
sol	-11.426
▁BPOM	-11.4266
teg	-11.4266
▁penambangan	-11.4267
▁North	-11.4272
▁pangkat	-11.4273
▁Lahan	-11.4273
▁rupanya	-11.4274
▁Sule	-11.4274
gul	-11.4275
▁Apri	-11.4275
kita	-11.4276
▁Nurma	-11.4278
▁Oil	-11.4278
temannya	-11.428
▁meneruskan	-11.428
▁2002	-11.428
▁ICC	-11.429
alis	-11.4293
▁henti	-11.4301
▁ekonom	-11.4302
heboh	-11.4304
▁Lai	-11.4306
perkirakan	-11.4306
Sehingga	-11.431
Kepala	-11.431
Calon	-11.431
DKPP	-11.4311
goro	-11.4313
▁daratan	-11.4315
SMK	-11.4315
▁kelak	-11.4317
Sumut	-11.4318
CE	-11.4318
bebas	-11.4331
coba	-11.434
▁Datar	-11.4348
dengan	-11.4352
▁Nabila	-11.4355
▁Qi	-11.4359
▁Prana	-11.4361
provokasi	-11.4361
▁(14/5)	-11.4364
▁(23/9)	-11.4364
▁(25/4)	-11.4364
▁(6/9)	-11.4364
▁(8/8)	-11.4364
▁Gaikindo	-11.4364
▁Gilbert	-11.4364
▁Investigasi	-11.4364
▁Kroasia	-11.4364
▁Perkebunan	-11.4364
▁Produsen	-11.4364
▁berkeliling	-11.4364
▁blusukan	-11.4364
▁diselidiki	-11.4364
▁koridor	-11.4364
▁pengerjaan	-11.4364
▁tanggul	-11.4364
▁Bergerak	-11.4364
▁dominan	-11.4364
▁pembersihan	-11.4364
▁Kekuatan	-11.4364
▁Perbatasan	-11.4364
▁menumbuhk	-11.4364
▁pedesaan	-11.4364
▁perhiasan	-11.4364
▁Safari	-11.4364
▁Panggil	-11.4364
▁RANS	-11.4364
▁Ujung	-11.4364
▁diminati	-11.4364
▁terjerat	-11.4364
▁QRIS	-11.4364
▁Firdaus	-11.4365
▁Samsung	-11.4365
▁Guntur	-11.4365
▁Meranti	-11.4365
▁Wilson	-11.4366
▁Septian	-11.4366
▁kios	-11.4367
▁Induk	-11.4367
▁penghubung	-11.4368
rianto	-11.4369
▁kuno	-11.437
▁restu	-11.437
▁Prasta	-11.437
▁menular	-11.4372
▁Carlos	-11.4373
▁Parkir	-11.4374
enam	-11.4375
▁baliho	-11.4375
use	-11.4377
▁pemula	-11.4378
▁teratur	-11.438
▁Titik	-11.438
ista	-11.4381
merekomendasikan	-11.4383
bagian	-11.4385
▁Wall	-11.4386
YA	-11.439
olusi	-11.4391
▁IIA	-11.4392
▁prediksi	-11.4395
▁penentuan	-11.4401
▁Bursa	-11.4403
star	-11.4405
tinggi	-11.4406
meriah	-11.4406
▁mediator	-11.4412
▁Tor	-11.4413
pasang	-11.4416
bet	-11.4418
▁one	-11.4419
instruksikan	-11.4421
TF	-11.4422
▁Sak	-11.4423
▁peti	-11.4425
▁Sido	-11.4443
▁Pemenang	-11.4445
▁cair	-11.4446
▁serba	-11.4446
puji	-11.4449
hang	-11.4457
▁Pon	-11.4464
tuju	-11.4468
▁kekasihnya	-11.4468
serta	-11.4468
tya	-11.4474
▁Suswono	-11.4476
nyerbu	-11.4476
▁optimis	-11.4485
▁(11/11)	-11.4488
▁(27/1)	-11.4488
▁(4/12)	-11.4488
▁(6/2)	-11.4488
▁Evaluasi	-11.4488
▁Guinea	-11.4488
▁Taipei	-11.4488
▁beribadah	-11.4488
▁dihimpun	-11.4488
▁konsesi	-11.4488
▁membubarkan	-11.4488
▁Ahmed	-11.4488
▁asesmen	-11.4488
▁Positif	-11.4488
▁Putaran	-11.4488
▁Seminar	-11.4488
▁Sragen	-11.4488
▁Terancam	-11.4488
▁mulia	-11.4488
▁Vatikan	-11.4488
▁dilibatkan	-11.4488
▁Srikandi	-11.4488
▁Taylor	-11.4488
▁kolektif	-11.4488
▁diidentifikasi	-11.4488
▁Freeport	-11.4488
▁magnitudo	-11.4488
▁BEKAS	-11.4488
▁ditunggu	-11.4488
▁Mariska	-11.4488
Dimyati	-11.4488
▁Pemalang	-11.4489
▁klip	-11.449
▁Senada	-11.449
://	-11.449
▁Saint	-11.449
▁Candy	-11.449
▁(17)	-11.4491
▁memotong	-11.4491
▁Lahir	-11.4491
▁Imran	-11.4491
▁Home	-11.4493
▁Market	-11.4493
▁Pernah	-11.4494
▁Perindo	-11.4496
▁Bersatu	-11.4496
▁mon	-11.4496
▁beralasan	-11.4497
MAS	-11.4497
▁Mad	-11.4497
▁lelah	-11.4497
▁House	-11.45
▁Operation	-11.4501
▁asuh	-11.4504
▁desainer	-11.4507
saat	-11.4509
▁3,5	-11.4511
tain	-11.4513
1.000	-11.4513
▁Syam	-11.4514
dorong	-11.4515
▁TPPO	-11.4516
▁Bru	-11.4519
▁Ancaman	-11.452
perburuk	-11.4522
mudi	-11.4524
▁berguna	-11.4528
▁Bala	-11.4529
▁Tech	-11.453
▁Teman	-11.4532
▁Coba	-11.4536
SAR	-11.4537
▁Abi	-11.4539
agar	-11.4544
▁penduduknya	-11.4546
▁Fah	-11.4546
URA	-11.4548
bom	-11.4552
TU	-11.4552
ARAT	-11.4557
bisa	-11.4562
mark	-11.4562
militer	-11.4563
landa	-11.4569
bayar	-11.4572
▁1.8	-11.4573
▁Donny	-11.4574
ruk	-11.4575
▁KRI	-11.4578
mber	-11.4578
new	-11.4584
▁tangki	-11.4596
▁Azhar	-11.4597
▁Yoga	-11.46
For	-11.46
▁mengenalkan	-11.4601
andra	-11.4604
▁Stefan	-11.4607
Maka	-11.4609
tanggungjawabkan	-11.4613
▁(13/3)	-11.4613
▁(2/1)	-11.4613
▁(25/3)	-11.4613
▁(3/2)	-11.4613
▁(4/6)	-11.4613
▁Asnawi	-11.4613
▁Bendahara	-11.4613
▁Hamzah	-11.4613
▁Investor	-11.4613
▁Serdadu	-11.4613
▁cokelat	-11.4613
▁diberhentikan	-11.4613
▁kesimpulan	-11.4613
▁kompensasi	-11.4613
▁merealisasikan	-11.4613
▁nafkah	-11.4613
▁sponsor	-11.4613
▁macet	-11.4613
▁mogok	-11.4613
▁pengujian	-11.4613
▁Street	-11.4613
▁check	-11.4613
▁Status	-11.4613
▁bangku	-11.4613
▁Relations	-11.4613
▁Penduduk	-11.4613
▁Kartika	-11.4614
▁Binsar	-11.4614
▁Densus	-11.4614
▁Yunus	-11.4614
▁resep	-11.4615
detik	-11.4615
▁Dagang	-11.4615
▁Kalbar	-11.4615
▁silat	-11.4618
▁bersembunyi	-11.4618
ilih	-11.4621
▁dianiaya	-11.4622
emak	-11.4622
nggo	-11.4623
▁Kategori	-11.4625
▁Inc	-11.4627
▁22:3	-11.4628
kab	-11.4629
anggap	-11.463
▁Usia	-11.4634
▁Baba	-11.4634
▁Dinkes	-11.4635
▁Sebenarnya	-11.4635
▁cipta	-11.4636
▁Tembak	-11.4636
yel	-11.4637
▁Supri	-11.4637
ancing	-11.4638
▁Sai	-11.464
▁Kala	-11.4643
▁Wid	-11.4645
▁20.00	-11.4645
▁bumbu	-11.4648
▁akunnya	-11.4655
▁durasi	-11.4664
▁Amanda	-11.4669
atchday	-11.467
▁Trade	-11.467
onic	-11.4672
▁Kaka	-11.4673
tugas	-11.4674
BBM	-11.4677
▁Hendi	-11.4679
▁PKPU	-11.4681
kala	-11.4683
tive	-11.4689
sosialisasikan	-11.469
▁Chu	-11.469
AFP	-11.4691
▁Bad	-11.4692
▁Tanggap	-11.4693
bakti	-11.4694
▁tabungan	-11.4695
▁berkah	-11.47
▁sebabnya	-11.4703
tuduh	-11.4705
Ru	-11.4708
▁Kemang	-11.4709
▁Ansar	-11.4711
buku	-11.4716
FO	-11.4716
Plt	-11.4718
▁trans	-11.4718
▁Wad	-11.4722
▁Otorita	-11.4722
▁dibilang	-11.4726
▁160	-11.4728
▁89	-11.473
▁22:4	-11.4731
▁Perta	-11.4733
▁http	-11.4739
atasnamakan	-11.4739
▁(1/8)	-11.4739
▁(12/9)	-11.4739
▁(13/5)	-11.4739
▁(15/3)	-11.4739
▁(18/10)	-11.4739
▁(21/11)	-11.4739
▁(21/5)	-11.4739
▁(24/9)	-11.4739
▁(26/3)	-11.4739
▁(3/1)	-11.4739
▁(31/5)	-11.4739
▁(5/12)	-11.4739
▁Anindya	-11.4739
▁Edukasi	-11.4739
▁Governance	-11.4739
▁Independen	-11.4739
▁Mendukung	-11.4739
▁Pandjaitan	-11.4739
▁Pedagang	-11.4739
▁Pelalawan	-11.4739
▁Penandatangan	-11.4739
▁dipantau	-11.4739
▁kelanjutan	-11.4739
▁komisaris	-11.4739
▁Properti	-11.4739
▁letusan	-11.4739
▁travel	-11.4739
▁interior	-11.4739
▁kosmetik	-11.4739
▁pisau	-11.4739
▁menoreh	-11.4739
▁kurir	-11.4739
▁Perayaan	-11.4739
▁mengusir	-11.4739
▁Modern	-11.4739
▁Otto	-11.4739
▁Sanusi	-11.4739
▁Singaraja	-11.4739
▁Utusan	-11.4739
▁keliru	-11.4739
coklit	-11.4739
▁Masiku	-11.4739
▁Resolusi	-11.4739
▁Ledakan	-11.4739
▁Afriansyah	-11.4739
▁Kasatreskrim	-11.474
▁Internet	-11.474
▁memprotes	-11.474
▁Belasan	-11.474
▁Doktor	-11.4741
▁Pintar	-11.4741
▁Tabrak	-11.4741
▁Asmat	-11.4745
▁Mesin	-11.4745
▁Wei	-11.4746
▁Suko	-11.4747
▁dihadap	-11.4747
▁Paulus	-11.4749
▁pendahuluan	-11.475
epakati	-11.475
▁daur	-11.4751
ecinta	-11.4751
▁Phil	-11.4751
▁perampokan	-11.4751
▁menyala	-11.4752
side	-11.4752
▁Natalia	-11.4753
▁takluk	-11.4753
▁Ipul	-11.4754
ungkap	-11.4755
▁Arhan	-11.4759
▁dokumenter	-11.476
▁Ac	-11.4764
▁Ron	-11.4764
life	-11.4768
▁12:2	-11.4769
▁Ramdan	-11.4772
▁plus	-11.4779
▁tip	-11.4779
▁sekian	-11.4779
▁sebutnya	-11.478
▁HI	-11.4781
rintis	-11.4783
arno	-11.4785
▁back	-11.4796
waktu	-11.4797
indir	-11.4801
▁Game	-11.4801
awas	-11.4809
▁Juan	-11.4811
hidup	-11.4814
▁RM	-11.4815
▁Cari	-11.4815
▁raja	-11.482
awang	-11.482
terangan	-11.4824
/2023)	-11.4826
bing	-11.4827
djo	-11.4827
sco	-11.4829
▁Artis	-11.4834
puing	-11.4837
▁06:3	-11.4839
▁over	-11.484
GM	-11.4843
gini	-11.4844
▁Binaan	-11.4846
halang	-11.4851
ciri	-11.4855
▁pendudukan	-11.4858
urut	-11.4859
3.000	-11.486
▁125	-11.4863
elebgram	-11.4864
esti	-11.4864
buntut	-11.4865
ww	-11.4867
▁(17/12)	-11.4867
▁(19/8)	-11.4867
▁(22/11)	-11.4867
▁(22/7)	-11.4867
▁(26/4)	-11.4867
▁(29/4)	-11.4867
▁(31/1)	-11.4867
▁(31/12)	-11.4867
▁(8/11)	-11.4867
▁Citroen	-11.4867
▁Fashion	-11.4867
▁Legislator	-11.4867
▁Morowali	-11.4867
▁kloter	-11.4867
▁membiayai	-11.4867
▁menunaikan	-11.4867
▁meresahkan	-11.4867
▁paripurna	-11.4867
▁practice	-11.4867
▁terpencil	-11.4867
▁vokasi	-11.4867
▁Training	-11.4867
▁tembus	-11.4867
▁Mekaar	-11.4867
▁bingung	-11.4867
▁kalori	-11.4867
▁Nations	-11.4867
▁Vokasi	-11.4867
▁Lutfi	-11.4867
▁kargo	-11.4867
membungkam	-11.4868
▁year	-11.4868
▁Nganjuk	-11.4868
▁LHKPN	-11.4868
jodoh	-11.4868
▁hadapi	-11.4868
peruntukkan	-11.4868
▁ikatan	-11.4868
▁disukai	-11.4869
▁prospek	-11.4869
▁2-0	-11.4869
▁Nathan	-11.4869
▁Penyidikan	-11.4869
▁robot	-11.4869
▁dibatasi	-11.4869
▁diarahkan	-11.4869
▁Habibie	-11.4869
▁dikirimkan	-11.4871
▁sekutunya	-11.4871
▁Rilis	-11.4872
▁harmonis	-11.4872
▁Alih	-11.4873
▁terpasang	-11.4874
▁rob	-11.4876
▁Pohon	-11.488
▁Jean	-11.488
▁Cuma	-11.489
▁23:1	-11.4894
▁ABK	-11.4895
mm	-11.4895
▁Adik	-11.4901
▁PE	-11.4907
endra	-11.4908
▁Dedie	-11.4914
▁Shar	-11.4915
▁tetangganya	-11.4916
▁diuji	-11.4922
bekali	-11.4923
tos	-11.4927
janji	-11.4931
arak	-11.4937
rungi	-11.4938
▁Toh	-11.494
▁sifatnya	-11.4943
▁abadi	-11.4943
BKPSDM	-11.4943
TJSL	-11.4943
Pemerintah	-11.4943
Muhammad	-11.4943
profesi	-11.4943
▁sepertiga	-11.4946
HUT	-11.495
▁pembaca	-11.4956
lansir	-11.496
▁bawaan	-11.4965
tunjuk	-11.4974
▁2,3	-11.4975
pad	-11.4975
LN	-11.4977
▁Zul	-11.4979
PPP	-11.498
▁Bone	-11.4985
guhkan	-11.4988
24)	-11.4988
engemudi	-11.4995
umba	-11.4995
▁hilir	-11.4996
▁konvensi	-11.4997
manipulasi	-11.4997
▁(11/6)	-11.4997
▁(18/9)	-11.4997
▁(7/3)	-11.4997
▁(7/5)	-11.4997
▁(7/8)	-11.4997
▁Ballroom	-11.4997
▁Burhanuddin	-11.4997
▁Cartenz	-11.4997
▁Kebangsaan	-11.4997
▁Khamenei	-11.4997
▁Pertambangan	-11.4997
▁Struick	-11.4997
▁dipersiapkan	-11.4997
▁iPhone	-11.4997
▁keseriusan	-11.4997
▁ritual	-11.4997
▁tropis	-11.4997
▁Turnamen	-11.4997
▁komite	-11.4997
▁tumpang	-11.4997
▁penerus	-11.4997
▁mutasi	-11.4997
▁khasiat	-11.4997
▁Federasi	-11.4997
▁mutu	-11.4997
▁(6/11)	-11.4997
▁bepergian	-11.4997
▁sinar	-11.4997
▁memesan	-11.4998
▁tabrakan	-11.4998
▁dioperasikan	-11.4998
▁Melinda	-11.4998
▁Sultra	-11.4998
▁Jeje	-11.4999
▁Bentuk	-11.4999
▁Biaya	-11.5
▁merinci	-11.5
hard	-11.5002
▁Zainal	-11.5003
▁Adhy	-11.5005
BPS	-11.5006
back	-11.5006
▁penanggulangan	-11.5007
nom	-11.5007
▁TC	-11.5009
▁susulan	-11.5011
▁Semangat	-11.5013
esnarkoba	-11.5014
▁FBI	-11.5014
▁MATA	-11.5021
▁Shah	-11.5021
▁Tro	-11.5022
▁bekal	-11.5023
▁Jauh	-11.5026
▁dicek	-11.5027
▁Aprilia	-11.5029
Menko	-11.5029
serang	-11.5029
VA	-11.503
▁berkarya	-11.503
▁Jum	-11.5034
▁paru	-11.5037
jakarta	-11.504
▁Son	-11.5044
▁TJSL	-11.5052
▁DI	-11.5052
▁heboh	-11.5055
▁Com	-11.5062
▁nge	-11.5062
deng	-11.5063
▁Nara	-11.5064
ette	-11.5066
politik	-11.5075
Salah	-11.5075
▁serah	-11.5077
▁teriak	-11.5078
ONG	-11.5078
ttle	-11.5081
▁Risk	-11.5083
▁18:0	-11.5086
merek	-11.5088
▁Sand	-11.509
▁dicampur	-11.509
▁Dante	-11.5091
graf	-11.5093
ngkir	-11.5093
▁Ky	-11.5101
▁1,2	-11.5103
▁dicabut	-11.5103
DPR	-11.5103
esta	-11.5113
naldi	-11.5113
SF	-11.5114
mond	-11.5116
▁Arel	-11.5119
▁Tes	-11.5123
▁Tahu	-11.5127
▁FA	-11.5128
▁Rekomendasi	-11.5129
aguyuban	-11.5129
▁(16/1)	-11.5129
▁(18/11)	-11.5129
▁(19/1)	-11.5129
▁(19/9)	-11.5129
▁(25/9)	-11.5129
▁(27/5)	-11.5129
▁(31/7)	-11.5129
▁(5/8)	-11.5129
▁Borobudur	-11.5129
▁Kejahatan	-11.5129
▁Komarudin	-11.5129
▁Microsoft	-11.5129
▁Penindakan	-11.5129
▁Permintaan	-11.5129
▁Tyasmara	-11.5129
▁distributor	-11.5129
▁jilbab	-11.5129
▁lowongan	-11.5129
▁melontarkan	-11.5129
▁menaklukkan	-11.5129
▁payudara	-11.5129
▁pengerahan	-11.5129
▁propaganda	-11.5129
▁smelter	-11.5129
▁yayasan	-11.5129
▁Asmawa	-11.5129
▁Hindia	-11.5129
▁Peringkat	-11.5129
▁kongres	-11.5129
▁liputan	-11.5129
▁pengarahan	-11.5129
▁Kodim	-11.5129
▁diringkus	-11.5129
▁royong	-11.5129
▁sistematis	-11.5129
▁kepulauan	-11.5129
▁kepergian	-11.5129
▁LAMP	-11.5129
▁dicatat	-11.5129
bondong	-11.5129
▁Trisakti	-11.5129
▁tandasnya	-11.513
▁Thom	-11.513
▁Hasina	-11.513
▁leher	-11.513
▁informal	-11.513
▁Purwo	-11.513
▁Untung	-11.5131
▁proyeksi	-11.5131
▁patung	-11.5131
▁OKU	-11.5132
▁Jhon	-11.5132
▁(23)	-11.5132
▁pengalih	-11.5133
▁Analisis	-11.5134
▁Priok	-11.5134
▁Permata	-11.5136
▁Fun	-11.5137
▁Berbagi	-11.5137
▁Kominfo	-11.5139
▁Vance	-11.514
HAM	-11.514
▁Mahmud	-11.5141
▁dendam	-11.5141
▁Hadiri	-11.5142
izin	-11.5144
▁taksi	-11.5144
haru	-11.5144
▁Rejang	-11.5147
▁mengikat	-11.5147
EX	-11.5151
▁East	-11.5158
▁pabrikan	-11.5161
▁MG	-11.5163
▁OPM	-11.5165
konfirmasi	-11.5166
desak	-11.5174
DPP	-11.5176
▁kombinasi	-11.5177
▁1,3	-11.5185
mart	-11.5187
▁Tangga	-11.5187
▁Masing	-11.5188
▁DA	-11.5188
cover	-11.5202
▁mengajarkan	-11.5203
obat	-11.5204
Tersangka	-11.5208
Anak	-11.5209
durasi	-11.5211
film	-11.5211
▁Nina	-11.5213
Malam	-11.5214
surat	-11.5214
Bagi	-11.5217
▁170	-11.5218
▁pembunuh	-11.5219
berg	-11.5224
▁Gha	-11.5228
pers	-11.5241
sang	-11.5244
hadap	-11.5248
▁Sentral	-11.5251
▁mengemban	-11.5253
▁hektar	-11.5254
HU	-11.5258
▁Match	-11.526
▁(1/2)	-11.5262
▁(10/2)	-11.5262
▁(17/10)	-11.5262
▁(2/7)	-11.5262
▁(20/11)	-11.5262
▁(21/3)	-11.5262
▁(29/5)	-11.5262
▁AEON	-11.5262
▁Delegasi	-11.5262
▁Keberadaan	-11.5262
▁Mahardhika	-11.5262
▁Penyelidikan	-11.5262
▁Rupiah	-11.5262
▁Samudra	-11.5262
▁TASPEN	-11.5262
▁elpiji	-11.5262
▁konsentrasi	-11.5262
▁penelusuran	-11.5262
▁Nengah	-11.5262
▁Pengakuan	-11.5262
▁persenjataan	-11.5262
▁NKRI	-11.5262
▁besutan	-11.5262
▁mengisyaratkan	-11.5262
▁pemanasan	-11.5262
▁trofi	-11.5262
▁PGRI	-11.5262
▁memadukan	-11.5262
▁umpan	-11.5262
▁berduka	-11.5262
▁antrean	-11.5262
▁mah	-11.5263
▁Edaran	-11.5263
▁kokoh	-11.5263
▁LPSK	-11.5263
▁tempo	-11.5264
▁Bersenjata	-11.5264
▁Yusril	-11.5264
▁Gudang	-11.5266
▁bahu	-11.5266
▁Drone	-11.5266
▁surut	-11.5267
▁110	-11.5267
▁21.00	-11.5267
▁Rohil	-11.5267
▁Studies	-11.5268
▁mewarnai	-11.5268
▁menyangkal	-11.5269
rel	-11.527
▁Ramli	-11.527
▁14.00	-11.527
▁Farid	-11.5271
erbasis	-11.5272
amai	-11.5274
▁Aviv	-11.5274
▁Elly	-11.5276
raf	-11.5276
endi	-11.5276
▁pungli	-11.5276
▁Pras	-11.528
▁sesaat	-11.528
ontrol	-11.5286
dom	-11.529
▁Datang	-11.5291
triker	-11.5291
▁Sofia	-11.5293
▁Ciro	-11.5296
HR	-11.5296
▁Luis	-11.5296
▁merekam	-11.5297
▁Elon	-11.5301
▁sajikan	-11.5305
▁SEA	-11.5307
▁segalanya	-11.5309
▁Visa	-11.5318
▁BKPSDM	-11.5318
sila	-11.5318
▁x	-11.5321
▁Matt	-11.5327
rina	-11.5327
PUU	-11.5331
daftar	-11.5335
▁Penye	-11.5343
BUMN	-11.5343
TKN	-11.5345
▁Farma	-11.5348
TARA	-11.535
UR	-11.5356
▁Peringat	-11.5359
▁waris	-11.536
▁balas	-11.5367
▁pemberi	-11.5369
▁hip	-11.537
▁12.00	-11.538
▁Ode	-11.5382
▁statusnya	-11.5382
▁camp	-11.5385
beng	-11.5387
▁Oh	-11.5389
▁KARAWA	-11.5397
▁(12/8)	-11.5397
▁(13/6)	-11.5397
▁(17/7)	-11.5397
▁(18/7)	-11.5397
▁(19/3)	-11.5397
▁(19/6)	-11.5397
▁(2/5)	-11.5397
▁(2/9)	-11.5397
▁(23/8)	-11.5397
▁(25/11)	-11.5397
▁(25/7)	-11.5397
▁(28/5)	-11.5397
▁(6/8)	-11.5397
▁(8/5)	-11.5397
▁Faizal	-11.5397
▁Intelligence	-11.5397
▁Poltracking	-11.5397
▁Starlink	-11.5397
▁berdialog	-11.5397
▁bersemangat	-11.5397
▁crypto	-11.5397
▁dipulangkan	-11.5397
▁kebugaran	-11.5397
▁kesebelasan	-11.5397
▁Penerapan	-11.5397
▁Siloam	-11.5397
▁kontingen	-11.5397
▁pemetaan	-11.5397
▁penyitaan	-11.5397
▁Kartini	-11.5397
▁Lebong	-11.5397
▁menepis	-11.5397
▁Pedro	-11.5397
▁pembaruan	-11.5397
▁arena	-11.5397
▁muatan	-11.5398
▁fitnah	-11.5398
▁Penguat	-11.5398
▁booth	-11.5398
▁Rahmad	-11.5398
▁Wujud	-11.5398
▁pendistribusian	-11.5398
▁Kirim	-11.5399
▁merancang	-11.5399
▁basah	-11.5399
▁Logam	-11.5399
▁Bongkar	-11.5399
▁dialihkan	-11.5399
▁Sumargo	-11.5402
▁kenegaraan	-11.5402
▁Gencata	-11.5404
▁Antonio	-11.5405
beli	-11.5405
▁pesanan	-11.5407
PMK	-11.5408
▁Insan	-11.5408
pai	-11.5413
▁Suhu	-11.5416
▁berjaga	-11.5416
▁Ronaldo	-11.5416
▁Kemenkominfo	-11.5416
OT	-11.5417
▁Tarif	-11.5419
▁mencurigakan	-11.5422
▁Dewata	-11.5426
▁Sandy	-11.5429
ARA	-11.543
hemat	-11.543
FK	-11.5434
▁Setiba	-11.5435
hitung	-11.544
dono	-11.5442
ihara	-11.5453
▁sedia	-11.5456
▁Pari	-11.5463
▁adiknya	-11.5464
kawa	-11.5471
Polres	-11.5481
▁Kadis	-11.5486
▁pelanggar	-11.549
▁Syur	-11.5491
▁ditinggal	-11.5499
▁Lok	-11.5502
aset	-11.5504
▁Gani	-11.5508
perang	-11.551
▁Link	-11.5519
▁Mulya	-11.5524
▁Adil	-11.553
▁Pemantau	-11.5534
▁(10/5)	-11.5534
▁(14/3)	-11.5534
▁(21/10)	-11.5534
▁(30/5)	-11.5534
▁(8/10)	-11.5534
▁Hungaria	-11.5534
▁Jonathan	-11.5534
▁Kebutuhan	-11.5534
▁Kenjeran	-11.5534
▁Nasrallah	-11.5534
▁Penurunan	-11.5534
▁berpidato	-11.5534
▁bullying	-11.5534
▁dikendalikan	-11.5534
▁dipublikasikan	-11.5534
▁fesyen	-11.5534
▁penugasan	-11.5534
▁pornografi	-11.5534
▁terpengaruh	-11.5534
▁Bojong	-11.5534
▁berbahasa	-11.5534
▁mencuat	-11.5534
▁Komentar	-11.5534
▁Yakni	-11.5534
▁tumpukan	-11.5534
▁Diminta	-11.5534
▁(6/12)	-11.5535
▁jeruk	-11.5535
▁Innovation	-11.5535
▁kedutaan	-11.5535
▁menaiki	-11.5535
▁direksi	-11.5535
▁garda	-11.5535
▁lumbung	-11.5535
Sheikh	-11.5535
▁tebing	-11.5535
▁Lauren	-11.5535
▁Rudal	-11.5536
▁High	-11.5536
▁Wardana	-11.5536
▁didalami	-11.5536
▁head	-11.5537
▁Maruli	-11.5537
SDGs	-11.5537
▁Puasa	-11.5537
▁menginjak	-11.5538
▁Danone	-11.5539
▁Keluar	-11.5539
▁rub	-11.5539
▁format	-11.554
▁Golf	-11.5541
▁terpercaya	-11.5541
max	-11.5541
▁lapas	-11.5542
▁Rossa	-11.5543
▁Jangka	-11.5543
▁Kiper	-11.5544
embel	-11.5544
▁Sentra	-11.5548
▁MT	-11.5549
▁Cal	-11.5549
▁Sof	-11.5549
enter	-11.5549
▁Love	-11.5552
▁Tulang	-11.5552
▁flu	-11.5553
eraih	-11.5555
▁Dur	-11.5557
▁KDRT	-11.5561
▁market	-11.5564
▁WBP	-11.5572
Jawa	-11.5575
hukum	-11.5575
▁Orde	-11.5579
▁pakan	-11.5583
▁RE	-11.5584
▁Mama	-11.5585
bangkitan	-11.5588
▁mus	-11.5593
sara	-11.5593
arif	-11.5594
uro	-11.5596
TB	-11.5599
9.000	-11.5601
▁Mina	-11.5603
suara	-11.5608
sumber	-11.561
▁130	-11.5615
Kecamatan	-11.5619
khusus	-11.5619
▁turunan	-11.562
▁84	-11.5623
city	-11.5626
▁tawar	-11.563
▁05:3	-11.5636
▁Ina	-11.5637
▁Thu	-11.564
blok	-11.5651
▁Bangga	-11.5654
▁06:4	-11.5657
lomba	-11.5661
jabat	-11.5666
tag	-11.5672
▁(10/7)	-11.5673
▁(12/11)	-11.5673
▁(19/11)	-11.5673
▁(22/5)	-11.5673
▁(4/2)	-11.5673
▁(6/3)	-11.5673
▁Arsenal	-11.5673
▁Ginanjar	-11.5673
▁Kemanusiaan	-11.5673
▁Terlibat	-11.5673
▁akuntabel	-11.5673
▁anonim	-11.5673
▁manual	-11.5673
▁mengerjakan	-11.5673
▁menyingkirkan	-11.5673
▁pengembalian	-11.5673
▁Tubuh	-11.5673
▁dihindari	-11.5673
▁keberagaman	-11.5673
▁nusantara	-11.5673
▁perekrutan	-11.5673
▁Klaten	-11.5673
▁wahana	-11.5673
▁terukur	-11.5673
▁Utomo	-11.5673
▁green	-11.5673
▁takjil	-11.5673
▁Pantura	-11.5673
▁KRL	-11.5673
▁Salurkan	-11.5673
▁berumur	-11.5673
▁interaktif	-11.5673
▁bengkel	-11.5674
▁temukan	-11.5674
▁dibuang	-11.5674
▁nyamuk	-11.5674
▁eksplorasi	-11.5674
▁ikon	-11.5674
▁Paralimpiade	-11.5674
▁tendik	-11.5674
▁menelusuri	-11.5674
▁proaktif	-11.5674
▁Slank	-11.5674
▁Hendro	-11.5675
▁orasi	-11.5675
▁ritel	-11.5675
▁Sopir	-11.5676
▁Women	-11.5677
▁polio	-11.5678
demo	-11.5681
emikian	-11.5682
▁Sul	-11.5682
▁Dandan	-11.5683
Astrid	-11.5683
▁big	-11.5684
▁KBRI	-11.5686
▁Endang	-11.5688
▁Fadli	-11.5688
▁Belakangan	-11.569
edoman	-11.5691
▁Diddy	-11.5691
▁revolusi	-11.5694
▁Purwanto	-11.5695
▁SN	-11.5697
▁kaus	-11.5698
▁tayangan	-11.5699
mel	-11.5701
Tentu	-11.5701
alam	-11.5711
▁merau	-11.5715
▁Vidi	-11.5716
persembah	-11.5717
▁PIS	-11.5718
▁Bob	-11.5721
kada	-11.5721
percaya	-11.5722
▁Leader	-11.5725
umpul	-11.573
▁Jog	-11.5731
▁Tiko	-11.5731
ror	-11.5742
▁bayaran	-11.5745
▁parpolnya	-11.575
▁...	-11.5755
▁KP	-11.5758
tindakan	-11.576
Banyak	-11.576
sehat	-11.5763
jumpa	-11.5764
▁pendaki	-11.5768
▁FP	-11.5771
▁11:5	-11.5771
▁91	-11.5783
▁Semuanya	-11.5784
aruh	-11.579
titik	-11.5791
entah	-11.5796
▁AK	-11.5798
▁Beragam	-11.5802
▁Tuk	-11.5804
▁rinci	-11.5806
umat	-11.5807
.700	-11.5809
▁1.7	-11.5809
Pilwakot	-11.5814
▁(1/11)	-11.5814
▁(1/7)	-11.5814
▁(11/9)	-11.5814
▁(30/8)	-11.5814
▁(6/5)	-11.5814
▁(6/6)	-11.5814
▁(7/11)	-11.5814
▁Ghufron	-11.5814
▁Mampang	-11.5814
▁adopsi	-11.5814
▁advokasi	-11.5814
▁keberanian	-11.5814
▁ketergantungan	-11.5814
▁kudeta	-11.5814
▁memuaskan	-11.5814
▁mendiskusikan	-11.5814
▁menerjunka	-11.5814
▁parfum	-11.5814
▁partner	-11.5814
▁terkecuali	-11.5814
▁tersenyum	-11.5814
▁vulkanik	-11.5814
▁Cloud	-11.5814
▁Tridatu	-11.5814
▁siklus	-11.5814
▁terealisasi	-11.5814
▁NASA	-11.5814
▁tertunda	-11.5814
▁Sirait	-11.5814
▁Kritik	-11.5814
▁berbakat	-11.5814
▁Lubis	-11.5814
▁kehancuran	-11.5814
▁Tuntut	-11.5814
▁Somalia	-11.5814
▁memberatkan	-11.5814
▁Younis	-11.5814
▁wafat	-11.5814
▁titip	-11.5815
▁England	-11.5815
▁2.0	-11.5815
▁kecaman	-11.5815
▁home	-11.5815
▁dihuni	-11.5815
SMKN	-11.5816
▁Digi	-11.5816
▁napas	-11.5816
▁jatuhnya	-11.5816
▁panik	-11.5816
▁soft	-11.5816
▁Sumadi	-11.5817
▁Kalla	-11.5817
▁Syarat	-11.5818
▁Atau	-11.5818
kedar	-11.5819
▁draf	-11.5819
benahi	-11.5819
▁Gaya	-11.5821
ongsong	-11.5821
▁Billy	-11.5821
▁TPN	-11.5821
yon	-11.5822
▁Sprint	-11.5822
▁2029	-11.5823
▁Young	-11.5825
▁PPA	-11.583
▁vokal	-11.5832
▁Hadiah	-11.5834
▁Keras	-11.5835
GN	-11.5835
▁mendan	-11.5836
▁kans	-11.5839
▁mode	-11.5841
▁Resort	-11.5844
untu	-11.5845
▁pengamatan	-11.5848
▁Mendes	-11.585
▁(19	-11.5864
▁Fad	-11.5866
BO	-11.5872
fest	-11.5874
fungsi	-11.5888
umbangkan	-11.5889
nita	-11.5894
toko	-11.5899
indikasi	-11.5903
▁Sani	-11.5905
▁Industrial	-11.5908
wono	-11.5911
▁pemantau	-11.5912
▁Memper	-11.5916
mann	-11.5921
▁Pep	-11.5921
▁23:0	-11.5925
▁Arti	-11.5926
▁15.00	-11.5927
mena	-11.5928
undur	-11.5939
▁Solok	-11.5941
▁83	-11.5949
▁norma	-11.5951
▁ular	-11.5955
▁Solution	-11.5957
▁(15/11)	-11.5957
▁(15/8)	-11.5957
▁(18/4)	-11.5957
▁(2/2)	-11.5957
▁(21/6)	-11.5957
▁(3/12)	-11.5957
▁(31/10)	-11.5957
▁(4/9)	-11.5957
▁(9/12)	-11.5957
▁ASABRI	-11.5957
▁Gelombang	-11.5957
▁Ibadah	-11.5957
▁Kishida	-11.5957
▁Muktamar	-11.5957
▁Musyawarah	-11.5957
▁Pembukaan	-11.5957
▁Penampilan	-11.5957
▁Petrokimia	-11.5957
▁Security	-11.5957
▁Taufiq	-11.5957
▁ambruk	-11.5957
▁bersilaturahmi	-11.5957
▁cakupan	-11.5957
▁ekspedisi	-11.5957
▁fondasi	-11.5957
▁mempekerjakan	-11.5957
▁memperkaya	-11.5957
▁pengg	-11.5957
▁realistis	-11.5957
▁Kelautan	-11.5957
▁Kirby	-11.5957
▁Lanjut	-11.5957
▁Wacana	-11.5957
▁audio	-11.5957
▁lutut	-11.5957
▁menunjang	-11.5957
▁Idham	-11.5957
▁ojol	-11.5957
▁slogan	-11.5957
▁Butuh	-11.5957
▁memihak	-11.5957
▁cuci	-11.5957
▁Rekaman	-11.5957
▁mengharuskan	-11.5957
▁support	-11.5957
▁Tapera	-11.5957
▁karakteristik	-11.5957
▁Inspektur	-11.5957
▁pembatalan	-11.5957
▁Salsha	-11.5958
▁Cerai	-11.5958
▁Bendera	-11.5958
▁genangan	-11.5958
▁gotong	-11.5958
▁startup	-11.5958
▁Ciputra	-11.5958
▁Hitam	-11.5958
▁Umrah	-11.5959
▁meredam	-11.596
▁Willy	-11.596
▁Hub	-11.5961
▁smart	-11.5961
▁spesifikasi	-11.5961
▁terpecah	-11.5961
▁Bayam	-11.5962
▁menyewa	-11.5962
▁Strategic	-11.5963
▁Berencana	-11.5964
▁tempe	-11.5966
▁Karyawan	-11.5968
▁terbawa	-11.5969
▁Tony	-11.5973
▁RSUP	-11.5975
▁Serta	-11.5976
▁Dedy	-11.5978
▁mengemukakan	-11.5978
▁Pantauan	-11.5983
▁Farhat	-11.5984
▁Pun	-11.5991
▁nuansa	-11.5992
▁anggapan	-11.5995
▁CAT	-11.5997
▁2005	-11.5999
verse	-11.6004
▁play	-11.6008
▁Sky	-11.6011
▁Terap	-11.6014
kep	-11.6017
▁punah	-11.603
GS	-11.6031
wer	-11.6032
pir	-11.6035
▁LS	-11.6046
Kabupaten	-11.6048
▁Rob	-11.6056
▁Wah	-11.6056
▁HR	-11.6061
▁Way	-11.6067
tory	-11.6073
▁PDT	-11.6074
▁Nov	-11.6075
▁IIB	-11.6085
▁jok	-11.6091
▁Ditambah	-11.6102
▁(16/10)	-11.6102
▁(16/7)	-11.6102
▁(17/5)	-11.6102
▁(17/9)	-11.6102
▁(18/12)	-11.6102
▁(26/8)	-11.6102
▁Advokat	-11.6102
▁Galaxy	-11.6102
▁Gresini	-11.6102
▁Saudara	-11.6102
▁Suporter	-11.6102
▁Tertinggal	-11.6102
▁berjualan	-11.6102
▁deportasi	-11.6102
▁diragukan	-11.6102
▁diterjunkan	-11.6102
▁keraguan	-11.6102
▁membanggakan	-11.6102
▁mengakomodasi	-11.6102
▁merumuskan	-11.6102
▁tembok	-11.6102
▁tercantum	-11.6102
▁tertimpa	-11.6102
▁Samapta	-11.6102
▁Delhi	-11.6102
▁melekat	-11.6102
▁naskah	-11.6102
▁Jatuh	-11.6102
▁jamaah	-11.6102
▁kemeja	-11.6102
▁Mukti	-11.6102
▁rempah	-11.6102
▁Betawi	-11.6102
▁dikemas	-11.6102
▁bodong	-11.6103
▁Pangdam	-11.6103
▁payung	-11.6103
▁bambu	-11.6103
▁rival	-11.6103
▁mengunggul	-11.6103
▁Menghadap	-11.6103
erujuk	-11.6103
▁gadis	-11.6103
▁Store	-11.6104
FH	-11.6104
▁Ambil	-11.6104
▁teritorial	-11.6104
▁Sinwar	-11.6104
▁Korut	-11.6107
▁senam	-11.6107
▁BPIP	-11.6109
▁diantaranya	-11.611
boyong	-11.6112
▁Warung	-11.6114
Apa	-11.6117
▁pelopor	-11.6117
▁Udinus	-11.6119
▁Kompolnas	-11.6119
list	-11.612
hun	-11.6123
▁Bawah	-11.6127
▁renovasi	-11.6129
ector	-11.613
▁Kawal	-11.6135
▁Darah	-11.6138
kriminalisasi	-11.6141
PAC	-11.6143
▁Samp	-11.6152
mono	-11.6154
▁mengadu	-11.6156
inst	-11.6158
bacok	-11.6168
▁tani	-11.6173
▁Jr	-11.6182
▁06:1	-11.6192
▁Jus	-11.6194
masyarakat	-11.6195
▁intinya	-11.6195
antre	-11.62
cawe	-11.6203
▁peternak	-11.6204
-27	-11.6212
▁pemberontakan	-11.6216
pindahan	-11.6221
▁Sekar	-11.6223
▁Cat	-11.6224
eva	-11.6226
BPD	-11.6227
▁elit	-11.623
▁Dam	-11.6234
▁tari	-11.6234
▁Purwa	-11.6243
▁stigma	-11.6249
▁(15/5)	-11.6249
▁(15/7)	-11.6249
▁(16/12)	-11.6249
▁(18/6)	-11.6249
▁(20/12)	-11.6249
▁(20/6)	-11.6249
▁(4/10)	-11.6249
▁(7/6)	-11.6249
▁(8/7)	-11.6249
▁(9/9)	-11.6249
▁Emmanuel	-11.6249
▁Fabio	-11.6249
▁Fardhana	-11.6249
▁Hybrid	-11.6249
▁Kerugian	-11.6249
▁Komedian	-11.6249
▁Konawe	-11.6249
▁Mohamed	-11.6249
▁Pengalaman	-11.6249
▁Perkembangan	-11.6249
▁Semifinal	-11.6249
▁Silaturahmi	-11.6249
▁Soviet	-11.6249
▁Tanjungpinang	-11.6249
▁Terbakar	-11.6249
▁Yasonna	-11.6249
▁Zhejiang	-11.6249
▁brutal	-11.6249
▁dipertimbangkan	-11.6249
▁kelulusan	-11.6249
▁kerumunan	-11.6249
▁orientasi	-11.6249
▁pemesanan	-11.6249
▁pencabutan	-11.6249
▁pesepak	-11.6249
▁Ibnu	-11.6249
▁Morning	-11.6249
▁meletus	-11.6249
genjot	-11.6249
▁estetika	-11.6249
▁Dubai	-11.6249
▁Kerajaan	-11.6249
▁Kesatuan	-11.6249
▁Pencapaian	-11.6249
▁dipegang	-11.6249
▁junta	-11.6249
▁Louis	-11.6249
▁Barisan	-11.6249
▁penyampaian	-11.6249
▁Notaris	-11.6249
▁Sembilan	-11.6249
▁roboh	-11.6249
▁Konsep	-11.6249
▁Sadikin	-11.625
▁sembarangan	-11.625
▁Pilot	-11.625
▁Gerbang	-11.6251
▁Lomba	-11.6251
▁Bruno	-11.6251
▁Hutama	-11.6251
▁Agency	-11.6251
▁duet	-11.6252
▁ramadan	-11.6252
▁dicuri	-11.6252
▁Pansus	-11.6252
site	-11.6253
▁Aju	-11.6254
▁Santo	-11.6256
▁mengontrol	-11.6256
CSR	-11.6257
▁Angkasa	-11.6258
▁Camat	-11.6258
▁Pertamax	-11.6258
ompet	-11.6258
▁Boleh	-11.6259
▁struktural	-11.626
▁00:1	-11.6261
▁dong	-11.6261
▁Pendiri	-11.6262
cross	-11.6262
▁berpindah	-11.6262
▁Aldi	-11.6265
▁Warna	-11.6265
▁Sumba	-11.6265
▁Corp	-11.6266
ombongan	-11.6269
▁Post	-11.6269
▁Pentingnya	-11.627
▁Shop	-11.6272
char	-11.6273
▁SBY	-11.6273
▁92	-11.6277
noda	-11.6278
▁Kayu	-11.628
▁end	-11.6282
PLN	-11.6287
▁FGD	-11.6287
trasi	-11.6294
▁11.00	-11.6295
▁Mako	-11.6296
rekannya	-11.6298
▁sesak	-11.6298
rut	-11.6313
▁Sop	-11.6322
▁semi	-11.6322
DPT	-11.6326
▁Raisi	-11.633
▁Studio	-11.6332
ujung	-11.6333
▁Damar	-11.6337
macam	-11.634
▁PDB	-11.634
Presiden	-11.6344
OJK	-11.6344
▁Marco	-11.6345
AHY	-11.6347
CPNS	-11.6347
▁Gali	-11.6352
▁perawat	-11.6356
ktur	-11.6362
▁menyesal	-11.6365
▁Ide	-11.6366
▁Araf	-11.6376
wing	-11.6383
syarat	-11.6383
llo	-11.6384
XXII	-11.6387
▁Jin	-11.6392
DLH	-11.6394
jaran	-11.6398
▁France	-11.6398
nyosialisasikan	-11.6398
▁(1/4)	-11.6398
▁(12/3)	-11.6398
▁(14/11)	-11.6398
▁(19/12)	-11.6398
▁(19/7)	-11.6398
▁(20/1)	-11.6398
▁(23/7)	-11.6398
▁(24/4)	-11.6398
▁(26/7)	-11.6398
▁(3/6)	-11.6398
▁(8/4)	-11.6398
▁(9/7)	-11.6398
▁Ambyar	-11.6398
▁Amnesty	-11.6398
▁Intelektual	-11.6398
▁Komunis	-11.6398
▁akuntabilitas	-11.6398
▁berintegritas	-11.6398
▁dibicarakan	-11.6398
▁dilayangkan	-11.6398
▁dipertahankan	-11.6398
▁giliran	-11.6398
▁keberpihakan	-11.6398
▁meloloskan	-11.6398
▁merdeka	-11.6398
▁pendengar	-11.6398
▁penyisiran	-11.6398
domisili	-11.6398
▁bensin	-11.6398
▁cahaya	-11.6398
▁dihormati	-11.6398
▁mencukupi	-11.6398
▁power	-11.6398
▁pelepasan	-11.6398
▁Jordi	-11.6398
▁ditindak	-11.6398
▁dibantah	-11.6398
▁berbatasan	-11.6398
▁09.00	-11.6398
▁Aboe	-11.6399
▁memberangkat	-11.6399
▁Irlandia	-11.6399
▁memusnahkan	-11.6399
▁magang	-11.6399
▁Flores	-11.64
▁terkendala	-11.64
▁Patria	-11.6401
▁Mandarin	-11.6401
▁Faktor	-11.6402
▁Muna	-11.6402
▁Frans	-11.6402
▁menjemput	-11.6402
▁Tanggal	-11.6403
▁Chico	-11.6403
▁PSU	-11.6404
▁Memasuk	-11.6404
▁Purwokerto	-11.6404
▁Lanka	-11.6405
▁State	-11.6405
▁Bermain	-11.6406
ahwa	-11.6409
▁nonton	-11.6409
▁Mayoritas	-11.6409
▁06:2	-11.6409
etty	-11.641
▁Kia	-11.6411
▁Copa	-11.6411
▁mengolah	-11.6411
▁Peruri	-11.6413
▁sahur	-11.6415
ertifikat	-11.6417
▁Marin	-11.6418
▁dinasti	-11.642
nyandera	-11.6424
▁1,4	-11.643
▁Fly	-11.6432
▁Salat	-11.6433
▁Ganti	-11.6433
▁OTT	-11.6435
ompa	-11.6437
▁gun	-11.6437
▁Mia	-11.6438
▁Skor	-11.6438
▁Bag	-11.644
▁Aep	-11.6442
encari	-11.6447
▁buronan	-11.646
0%	-11.6464
diagnosis	-11.6469
MAK	-11.6473
▁malu	-11.6473
▁Kaya	-11.6474
sional	-11.6474
▁julukan	-11.648
wujud	-11.6484
▁Golan	-11.6484
ahu	-11.6485
vre	-11.649
▁Naga	-11.6492
▁Kecam	-11.6492
▁Anam	-11.6492
▁Misa	-11.6492
▁0,5	-11.6495
bungkus	-11.6496
demokrasi	-11.6496
Harapan	-11.6496
UGM	-11.6498
▁ajakan	-11.6498
mukim	-11.6498
tambahan	-11.6499
kutip	-11.65
▁gantung	-11.6504
▁penentu	-11.6504
OG	-11.6505
WNI	-11.6507
▁dikasih	-11.6507
▁pembela	-11.6507
Solo	-11.6508
▁Sabar	-11.6516
deni	-11.6523
lena	-11.6529
▁Jaro	-11.6535
▁93	-11.6535
▁Anis	-11.6536
depan	-11.6539
▁Muba	-11.6541
erselisihan	-11.6547
risti	-11.6549
public	-11.655
▁(20/10)	-11.655
▁(26/11)	-11.655
▁(3/5)	-11.655
▁(9/8)	-11.655
▁Albanese	-11.655
▁Arsjad	-11.655
▁Daihatsu	-11.655
▁Summarecon	-11.655
▁Sydney	-11.655
▁Ustaz	-11.655
▁ajudan	-11.655
▁berkarier	-11.655
▁kejuaraan	-11.655
▁kelembapan	-11.655
▁melupakan	-11.655
▁membebani	-11.655
▁mengoleksi	-11.655
▁musibah	-11.655
▁penyerapan	-11.655
▁preventif	-11.655
▁Peresmian	-11.655
▁dikendarai	-11.655
▁pemaparan	-11.655
▁terbiasa	-11.655
Ditresnarkoba	-11.655
▁pembuktian	-11.655
▁berkabut	-11.655
▁Pieter	-11.655
masuk	-11.655
▁Hanoi	-11.655
▁mengeksplorasi	-11.655
▁UEFA	-11.655
▁antikorupsi	-11.655
▁Nugini	-11.655
▁Wahono	-11.655
▁laptop	-11.655
▁saraf	-11.655
▁digambarkan	-11.655
▁Jeffry	-11.6551
▁fatal	-11.6551
▁Sugianto	-11.6551
▁Bantah	-11.6551
▁melimpah	-11.6552
▁Bromo	-11.6552
▁Elite	-11.6553
▁Fadel	-11.6554
▁Venna	-11.6556
▁Night	-11.6559
▁terputus	-11.6559
pho	-11.6559
fla	-11.656
GT	-11.6561
▁kasar	-11.6561
rendah	-11.6562
▁curanmor	-11.6563
▁rekonstruksi	-11.6564
▁eksploitasi	-11.6564
▁Farida	-11.6565
▁Disdik	-11.6565
▁1-2	-11.6566
▁otonomi	-11.6569
aturan	-11.6569
korban	-11.6571
ANJU	-11.6572
▁Irman	-11.6574
▁Berkah	-11.6576
▁Bill	-11.6576
ball	-11.6578
▁persis	-11.6578
▁Seng	-11.6581
▁bersekolah	-11.6582
▁menyesalkan	-11.6585
▁Sinar	-11.6588
▁Services	-11.6588
▁Cawagub	-11.6591
▁Kena	-11.6592
▁Yen	-11.6595
Rusia	-11.6596
▁Spa	-11.6598
▁dicanangkan	-11.6601
walk	-11.6602
▁Batal	-11.6605
▁Kongo	-11.6612
▁tatap	-11.6615
maksud	-11.6625
▁menanamkan	-11.6625
▁Ijo	-11.6627
TT	-11.6627
$1	-11.6634
▁Lor	-11.6649
Pemilu	-11.665
▁900	-11.6651
▁penghasil	-11.6654
▁Banking	-11.6656
TPN	-11.6659
▁Perluas	-11.6661
▁(20)	-11.6664
▁membagi	-11.6676
aneka	-11.6679
▁Wind	-11.668
▁Versi	-11.6684
ASI	-11.6687
musuh	-11.6695
▁memeca	-11.6696
▁sukarela	-11.6702
▁(11/5)	-11.6704
▁(16/4)	-11.6704
▁(28/6)	-11.6704
▁Aktivitas	-11.6704
▁Bahagia	-11.6704
▁Chelsea	-11.6704
▁Effendi	-11.6704
▁Kekalahan	-11.6704
▁Kependudukan	-11.6704
▁Muhadjir	-11.6704
▁Navalny	-11.6704
▁Rachim	-11.6704
▁Regulasi	-11.6704
▁berkapasitas	-11.6704
▁hijab	-11.6704
▁kewirausahaan	-11.6704
▁legitimasi	-11.6704
▁memasarkan	-11.6704
▁penyiaran	-11.6704
▁residivis	-11.6704
▁service	-11.6704
▁Acosta	-11.6704
▁Diploma	-11.6704
▁Identitas	-11.6704
▁kekecewaan	-11.6704
▁medsos	-11.6704
▁BNPT	-11.6704
▁dapil	-11.6704
▁Maroko	-11.6704
▁bereaksi	-11.6704
▁problem	-11.6704
▁adaptasi	-11.6704
▁lemon	-11.6704
▁minimarket	-11.6704
▁triwulan	-11.6704
▁deteksi	-11.6704
▁didistribusikan	-11.6704
▁pisang	-11.6704
▁Estate	-11.6704
▁renang	-11.6704
▁bibir	-11.6704
▁asrama	-11.6704
▁Letjen	-11.6704
▁antariksa	-11.6705
▁dipukul	-11.6705
▁with	-11.6706
▁Frank	-11.6707
▁chat	-11.6708
▁Banyu	-11.6709
▁Intel	-11.6709
▁Dekat	-11.6716
▁fair	-11.6716
▁Eky	-11.6717
IKA	-11.6719
hakim	-11.6721
▁Hariyanto	-11.6723
▁Menhan	-11.6726
▁23:2	-11.6727
▁buang	-11.6728
▁Cap	-11.6729
▁kalimat	-11.6733
▁Wulan	-11.6733
▁Master	-11.6739
▁kenangan	-11.6743
▁bergantian	-11.6745
Le	-11.6748
▁Demo	-11.675
erol	-11.675
batu	-11.6752
Mari	-11.6762
Bali	-11.6764
▁hemat	-11.6766
▁Maut	-11.6767
▁PSN	-11.6771
▁penguasaan	-11.6771
▁van	-11.6774
▁Sudi	-11.6778
itch	-11.6783
ARI	-11.6784
▁Baku	-11.679
lav	-11.6793
ML	-11.6794
▁BRIN	-11.6795
▁segel	-11.6804
Jatim	-11.6806
mungkin	-11.6806
Memang	-11.6808
▁paparnya	-11.6811
500	-11.6814
▁komedi	-11.6816
▁Amri	-11.6817
▁Kenal	-11.6819
tial	-11.682
▁kesal	-11.6831
AMAN	-11.6831
▁Adrian	-11.6835
▁diakhiri	-11.6836
▁Kuba	-11.6843
▁kandungnya	-11.6844
ngkal	-11.6848
memperdalam	-11.6854
▁1000	-11.6856
▁penggantian	-11.6857
Jampidsus	-11.686
▁(12/6)	-11.686
▁(13/8)	-11.686
▁(14/6)	-11.686
▁(15/12)	-11.686
▁(18/3)	-11.686
▁(26/6)	-11.686
▁(29/11)	-11.686
▁(7/10)	-11.686
▁Angkutan	-11.686
▁Chicago	-11.686
▁Istiqlal	-11.686
▁Koleksi	-11.686
▁Konservasi	-11.686
▁Maruarar	-11.686
▁Mochamad	-11.686
▁Pezeshkian	-11.686
▁Seksual	-11.686
▁Wardoyo	-11.686
▁hanyut	-11.686
▁kedelapan	-11.686
▁pemandangan	-11.686
▁Diperiksa	-11.686
▁fundamental	-11.686
▁meluap	-11.686
▁pendingin	-11.686
▁terguling	-11.686
▁Arjuna	-11.686
▁Kuliah	-11.686
▁angkot	-11.686
▁stiker	-11.686
▁toilet	-11.686
▁helm	-11.686
▁representasi	-11.686
Ditlantas	-11.686
▁Company	-11.686
▁Workshop	-11.686
▁jaket	-11.686
▁nominal	-11.686
▁PADANG	-11.686
▁Jazuli	-11.686
▁Ekosistem	-11.686
▁Finlandia	-11.686
▁mengakselerasi	-11.686
▁dilancarkan	-11.686
▁rasio	-11.686
▁Untag	-11.686
▁Syahrul	-11.686
/4/2024).	-11.686
▁Kalapas	-11.6861
▁lurus	-11.6861
▁Legend	-11.6861
▁udah	-11.6861
▁Bekerja	-11.6862
▁Kulit	-11.6862
▁(21)	-11.6862
▁Telkomsel	-11.6862
▁PPDS	-11.6862
▁Lingkar	-11.6862
▁membukuk	-11.6863
▁Hasanuddin	-11.6863
▁Niko	-11.6864
cre	-11.6864
▁Yuk	-11.6865
▁Abadi	-11.6865
▁Nurdin	-11.6866
▁Urut	-11.6866
▁Uganda	-11.6869
Mas	-11.6869
▁berekspresi	-11.6871
▁Ibunda	-11.6871
▁terkuat	-11.6871
sarat	-11.6872
[...]
