[UNK]	0
[CLS]	1
[SEP]	2
[PAD]	3
[MASK]	4
!	5
"	6
#	7
$	8
%	9
&	10
'	11
(	12
)	13
*	14
+	15
,	16
-	17
.	18
/	19
0	20
1	21
2	22
3	23
4	24
5	25
6	26
7	27
8	28
9	29
:	30
;	31
<	32
=	33
>	34
?	35
@	36
[	37
\	38
]	39
_	40
`	41
a	42
b	43
c	44
d	45
e	46
f	47
g	48
h	49
i	50
j	51
k	52
l	53
m	54
n	55
o	56
p	57
q	58
r	59
s	60
t	61
u	62
v	63
w	64
x	65
y	66
z	67
£	68
®	69
°	70
±	71
·	72
×	73
à	74
á	75
â	76
ã	77
ä	78
ç	79
è	80
é	81
ê	82
ë	83
ì	84
í	85
ï	86
ð	87
ñ	88
ò	89
ó	90
ô	91
õ	92
ö	93
ø	94
ú	95
ü	96
ā	97
ć	98
ę	99
ğ	100
ı	101
ķ	102
ł	103
ś	104
ş	105
š	106
ơ	107
ư	108
́	109
̇	110
α	111
η	112
μ	113
τ	114
‍	115
‎	116
•	117
′	118
⁄	119
⁠	120
€	121
−	122
≥	123
丽	124
安	125
洪	126
金	127
陈	128
🍌	129
😊	130
😭	131
🤲	132
##r	133
##u	134
##k	135
##t	136
##e	137
##a	138
##c	139
##i	140
##f	141
##j	142
##p	143
##o	144
##d	145
##g	146
##l	147
##n	148
##b	149
##9	150
##0	151
##y	152
##s	153
##m	154
##v	155
##w	156
##h	157
##z	158
##3	159
##4	160
##8	161
##x	162
##2	163
##1	164
##6	165
##q	166
##ä	167
##5	168
##7	169
##é	170
##ì	171
##:	172
##ú	173
##ö	174
##.	175
##í	176
##è	177
##ñ	178
##ş	179
##ı	180
##ü	181
##τ	182
##á	183
##@	184
##'	185
##ë	186
##′	187
##"	188
##,	189
##ç	190
##ć	191
##金	192
##丽	193
##ê	194
##?	195
##ã	196
##ơ	197
##-	198
##ø	199
##)	200
##+	201
##ę	202
##ó	203
##ï	204
##ś	205
##ô	206
##*	207
##̇	208
##õ	209
##‎	210
##š	211
##🤲	212
##/	213
##â	214
##±	215
##an	216
an	217
##er	218
##en	219
##ar	220
##at	221
di	222
##ang	223
##as	224
##al	225
##ak	226
##ah	227
se	228
me	229
ke	230
##am	231
men	232
##ya	233
##tu	234
in	235
##in	236
##si	237
pe	238
##ad	239
##ga	240
yang	241
##ta	242
dan	243
un	244
kan	245
##un	246
ter	247
ber	248
nya	249
##il	250
##ik	251
ng	252
##eng	253
##uk	254
er	255
##ap	256
te	257
ti	258
per	259
##ut	260
ko	261
ak	262
ar	263
ang	264
##ur	265
##ari	266
##ai	267
##us	268
al	269
##um	270
meng	271
##ara	272
##ada	273
en	274
##is	275
ba	276
##or	277
##tuk	278
##es	279
##on	280
pada	281
mb	282
untuk	283
##ti	284
##la	285
##ing	286
##ih	287
sa	288
ini	289
am	290
ad	291
pen	292
##it	293
ah	294
deng	295
mem	296
ol	297
la	298
ne	299
pr	300
itu	301
##alam	302
##ir	303
ap	304
##el	305
dari	306
si	307
is	308
##ab	309
dalam	310
as	311
mas	312
nt	313
##ul	314
##ama	315
ta	316
nd	317
##ata	318
##gi	319
or	320
##lah	321
##ek	322
ngk	323
at	324
nj	325
##sia	326
em	327
##ud	328
ind	329
##asi	330
##wa	331
##om	332
##ung	333
mp	334
el	335
le	336
ri	337
##ri	338
pem	339
us	340
##adi	341
##uh	342
seb	343
um	344
ung	345
ju	346
kar	347
re	348
##dak	349
##ib	350
ur	351
uk	352
tidak	353
ing	354
kam	355
tah	356
il	357
##ali	358
##up	359
##ukan	360
peng	361
##aya	362
##te	363
##eri	364
##ana	365
tak	366
it	367
na	368
ik	369
##gai	370
indo	371
##ua	372
be	373
telah	374
meny	375
ro	376
id	377
sebut	378
##pn	379
nesia	380
akan	381
on	382
ek	383
ja	384
##ja	385
im	386
ant	387
kata	388
asi	389
##ia	390
##ra	391
bagai	392
jpn	393
jpnn	394
ma	395
menga	396
po	397
##ber	398
ag	399
juga	400
com	401
bah	402
int	403
##eh	404
har	405
li	406
ab	407
##ma	408
##asa	409
mend	410
##ok	411
dia	412
ut	413
wib	414
atu	415
takan	416
orang	417
##da	418
tahun	419
st	420
bar	421
pro	422
ada	423
tu	424
had	425
saat	426
kukan	427
de	428
##to	429
##isi	430
ngg	431
njadi	432
rak	433
ok	434
ban	435
ra	436
##ingg	437
##abu	438
##alu	439
ku	440
oleh	441
kami	442
##eka	443
aw	444
amp	445
ul	446
any	447
bahwa	448
kota	449
ata	450
ka	451
tr	452
nc	453
sem	454
mela	455
bel	456
nur	457
##ala	458
##se	459
leb	460
lebih	461
kem	462
ereka	463
bis	464
##ka	465
##jar	466
jak	467
lalu	468
ion	469
##id	470
neg	471
##ati	472
tim	473
bisa	474
eg	475
ngkat	476
sama	477
lu	478
ed	479
##et	480
kom	481
gr	482
hari	483
ud	484
atau	485
##sa	486
apa	487
bu	488
om	489
##udah	490
##ita	491
jadi	492
peny	493
para	494
pre	495
war	496
ir	497
##bu	498
bes	499
##ter	500
kare	501
mu	502
rb	503
itas	504
pemer	505
hadap	506
ngkap	507
hingg	508
min	509
han	510
up	511
mil	512
##tap	513
jakar	514
ional	515
##nya	516
has	517
##ju	518
dap	519
##gu	520
pa	521
besar	522
masya	523
rakat	524
rup	525
sen	526
##aha	527
ac	528
ser	529
cara	530
intah	531
##aku	532
anyak	533
pend	534
sudah	535
nas	536
saya	537
menj	538
belum	539
baru	540
##kan	541
man	542
##pe	543
jal	544
sid	545
ian	546
eng	547
##ba	548
negar	549
ha	550
lo	551
karta	552
##alah	553
mene	554
ay	555
no	556
adal	557
ker	558
##pu	559
wak	560
amb	561
##ika	562
ub	563
nam	564
mpat	565
tetap	566
bagi	567
da	568
ru	569
pas	570
anak	571
mo	572
##jak	573
dapat	574
es	575
hasil	576
##tai	577
and	578
siden	579
bo	580
gun	581
##pa	582
nom	583
##uka	584
pun	585
ga	586
kel	587
menc	588
##wan	589
meni	590
tan	591
lama	592
lang	593
ukung	594
eb	595
serta	596
hal	597
kas	598
mberi	599
jalan	600
pil	601
pat	602
pemb	603
nteri	604
dila	605
ia	606
##ni	607
dis	608
ch	609
su	610
tur	611
dua	612
lat	613
warga	614
rum	615
ampai	616
rt	617
dip	618
imp	619
ujar	620
kon	621
to	622
anj	623
mber	624
##hir	625
memb	626
nu	627
##ve	628
perti	629
salah	630
ungan	631
umlah	632
ic	633
##ila	634
kabu	635
##iki	636
et	637
baik	638
beber	639
nurut	640
mak	641
angan	642
mar	643
gu	644
##pat	645
paten	646
elasa	647
pu	648
rban	649
sur	650
rabu	651
so	652
rs	653
harus	654
bali	655
op	656
##ke	657
rumah	658
##erah	659
mbang	660
akhir	661
gram	662
senin	663
lan	664
pih	665
usaha	666
pihak	667
ntara	668
##im	669
kali	670
agi	671
kamis	672
rupak	673
apat	674
kai	675
ny	676
des	677
dp	678
menye	679
##ses	680
masuk	681
af	682
ho	683
ari	684
##re	685
pan	686
##ina	687
##ha	688
##go	689
jum	690
mena	691
jumat	692
##ko	693
antar	694
yan	695
hu	696
masih	697
mana	698
lur	699
ketu	700
aerah	701
ger	702
osi	703
bi	704
ketua	705
erang	706
umum	707
kita	708
air	709
ked	710
res	711
iliki	712
kasus	713
ni	714
mel	715
bantu	716
nggal	717
artai	718
lalui	719
atas	720
jab	721
huk	722
jawa	723
langs	724
rang	725
laku	726
sra	727
keter	728
hukum	729
pela	730
hanya	731
lah	732
##tr	733
wila	734
namun	735
wilay	736
##tor	737
srael	738
gi	739
pala	740
masi	741
dep	742
##men	743
mengu	744
rp	745
ntang	746
##hat	747
##ji	748
luar	749
##ki	750
ib	751
mul	752
##pk	753
perta	754
angat	755
inggu	756
##amat	757
wakil	758
ham	759
menu	760
inf	761
lit	762
gel	763
keme	764
alam	765
##uat	766
kait	767
kr	768
ip	769
wo	770
mbali	771
impin	772
kerja	773
but	774
hadir	775
uara	776
agian	777
ins	778
pak	779
ibu	780
isi	781
ten	782
olisi	783
##lik	784
##tus	785
##na	786
luruh	787
buah	788
##di	789
##tik	790
atang	791
kit	792
unia	793
##mi	794
lih	795
ks	796
pp	797
##gas	798
utama	799
rja	800
##nas	801
##tif	802
enang	803
kedua	804
ran	805
latan	806
was	807
uh	808
nil	809
ep	810
alon	811
##res	812
kitar	813
nting	814
ikut	815
sab	816
angka	817
##itas	818
##aga	819
dang	820
##ini	821
nilai	822
##ask	823
sehat	824
anggo	825
kap	826
ani	827
sabtu	828
sej	829
idik	830
ya	831
rima	832
lain	833
##ong	834
angun	835
pt	836
mulai	837
pol	838
yo	839
kec	840
por	841
sek	842
mper	843
menge	844
##abo	845
abaya	846
ara	847
barat	848
uang	849
gunak	850
dite	851
rtama	852
uc	853
prabo	854
penga	855
rem	856
fo	857
terus	858
inter	859
rsen	860
ngga	861
kese	862
gelar	863
yak	864
lihat	865
##iri	866
iri	867
tif	868
agar	869
sp	870
##tem	871
seme	872
tiga	873
##udi	874
nyata	875
isasi	876
und	877
nding	878
##ed	879
bul	880
upaya	881
wa	882
arang	883
##ibat	884
pilka	885
##uda	886
bad	887
tika	888
band	889
ela	890
nf	891
jan	892
hi	893
ist	894
ema	895
minta	896
kemud	897
idang	898
##ani	899
ncana	900
sta	901
nomor	902
semua	903
tahu	904
##ro	905
litik	906
mbuat	907
##ol	908
eks	909
##wat	910
ters	911
rn	912
asang	913
unc	914
tang	915
innya	916
par	917
eko	918
desa	919
##li	920
##de	921
##lu	922
anjut	923
agus	924
rk	925
for	926
##wi	927
harga	928
sk	929
nomi	930
ong	931
ngah	932
str	933
sum	934
dir	935
guber	936
##uli	937
sar	938
pene	939
##mad	940
##tar	941
sep	942
##tur	943
##dia	944
tingg	945
rd	946
roses	947
ner	948
depan	949
nang	950
ersi	951
milih	952
gen	953
ob	954
ahkan	955
anc	956
osial	957
guna	958
do	959
elain	960
emil	961
giat	962
lagi	963
th	964
kons	965
keb	966
bat	967
rik	968
rod	969
ikasi	970
lin	971
hen	972
jati	973
kala	974
##ans	975
harap	976
bulan	977
trans	978
siap	979
sis	980
olo	981
roduk	982
co	983
emilu	984
yanan	985
china	986
##ca	987
kh	988
ingin	989
if	990
foto	991
omp	992
aksi	993
apai	994
waktu	995
ina	996
mempe	997
lawan	998
ce	999
dib	1000
asal	1001
manan	1002
##man	1003
ksana	1004
tugas	1005
emain	1006
mer	1007
##tuh	1008
ci	1009
njuk	1010
ki	1011
lap	1012
diri	1013
mes	1014
bak	1015
ria	1016
rat	1017
acara	1018
badan	1019
hid	1020
sak	1021
hak	1022
ndak	1023
jel	1024
engah	1025
dpr	1026
dise	1027
sejak	1028
sing	1029
uar	1030
lam	1031
rasa	1032
##za	1033
##anti	1034
aj	1035
du	1036
ingat	1037
antan	1038
10	1039
camat	1040
pena	1041
ndiri	1042
oko	1043
ali	1044
jen	1045
rap	1046
okasi	1047
ameri	1048
ken	1049
hub	1050
alami	1051
uarga	1052
nama	1053
awal	1054
os	1055
ns	1056
##lo	1057
jika	1058
puk	1059
rempu	1060
mi	1061
olda	1062
vin	1063
penye	1064
pra	1065
pal	1066
das	1067
utara	1068
erada	1069
ev	1070
nar	1071
ublik	1072
antor	1073
ukti	1074
usat	1075
fe	1076
wan	1077
wasan	1078
saja	1079
empat	1080
olres	1081
sat	1082
##no	1083
menya	1084
malam	1085
ben	1086
ompok	1087
ndara	1088
sul	1089
direk	1090
rio	1091
elask	1092
oper	1093
rah	1094
kamp	1095
ilih	1096
meski	1097
ana	1098
fi	1099
jabat	1100
ucap	1101
lak	1102
dasar	1103
mam	1104
eti	1105
penge	1106
media	1107
erita	1108
juta	1109
rusia	1110
diper	1111
dil	1112
rek	1113
jatim	1114
##uru	1115
ca	1116
tor	1117
infor	1118
sh	1119
ngaku	1120
masa	1121
mukan	1122
aman	1123
rg	1124
komp	1125
##le	1126
jo	1127
vinsi	1128
ust	1129
aftar	1130
##do	1131
iksa	1132
##mb	1133
bog	1134
resmi	1135
yakni	1136
jam	1137
##gr	1138
bukan	1139
rus	1140
okto	1141
aling	1142
ntu	1143
ent	1144
oktob	1145
lek	1146
njung	1147
soal	1148
kea	1149
anda	1150
icara	1151
pb	1152
ambar	1153
kalau	1154
agust	1155
panj	1156
ec	1157
dike	1158
rin	1159
ambil	1160
astik	1161
tri	1162
san	1163
tek	1164
jabar	1165
ngkah	1166
les	1167
arah	1168
ef	1169
he	1170
did	1171
ampak	1172
ling	1173
##ver	1174
##amb	1175
jun	1176
##rea	1177
juli	1178
nove	1179
ndisi	1180
penc	1181
ati	1182
jelas	1183
pale	1184
logi	1185
lapor	1186
hanan	1187
egara	1188
laga	1189
##oko	1190
ren	1191
poran	1192
##was	1193
kibat	1194
##po	1195
kanan	1196
leng	1197
nggap	1198
okowi	1199
masal	1200
semar	1201
ustri	1202
milik	1203
sitas	1204
kad	1205
milit	1206
asia	1207
gaza	1208
ot	1209
egi	1210
entuk	1211
anye	1212
##nis	1213
maha	1214
istem	1215
adi	1216
itmen	1217
pppk	1218
njukk	1219
uga	1220
pasar	1221
##aat	1222
njata	1223
kepe	1224
muda	1225
kl	1226
nfaat	1227
mpung	1228
inte	1229
ngkin	1230
mal	1231
keras	1232
ris	1233
gung	1234
hidup	1235
pukul	1236
benar	1237
bogor	1238
kpu	1239
aku	1240
mampu	1241
ram	1242
dam	1243
akar	1244
nat	1245
imnas	1246
komun	1247
##han	1248
juang	1249
mob	1250
dita	1251
tiap	1252
iran	1253
nal	1254
utus	1255
ai	1256
orong	1257
erah	1258
rupsi	1259
las	1260
makin	1261
fil	1262
juni	1263
fa	1264
ili	1265
20	1266
musi	1267
suai	1268
tensi	1269
lima	1270
rai	1271
lingk	1272
dak	1273
bank	1274
septe	1275
pdi	1276
kolah	1277
inst	1278
batas	1279
dese	1280
##gus	1281
ji	1282
wali	1283
naik	1284
mei	1285
laut	1286
pang	1287
muh	1288
tap	1289
kep	1290
ember	1291
peni	1292
ribu	1293
usia	1294
latih	1295
njaga	1296
aup	1297
ps	1298
nit	1299
nggar	1300
nusia	1301
rsi	1302
ateng	1303
iv	1304
ukai	1305
##ng	1306
mba	1307
janu	1308
kuat	1309
yai	1310
egeri	1311
tahui	1312
umber	1313
dem	1314
iz	1315
mobil	1316
nited	1317
##ril	1318
otor	1319
beri	1320
##ump	1321
wi	1322
aupun	1323
##jan	1324
april	1325
bijak	1326
put	1327
jar	1328
laman	1329
rnah	1330
strik	1331
kpk	1332
ge	1333
isata	1334
##ent	1335
tentu	1336
lengg	1337
kini	1338
aka	1339
jaya	1340
inasi	1341
muha	1342
perlu	1343
mang	1344
eni	1345
buka	1346
##hi	1347
mbawa	1348
aya	1349
intas	1350
ulang	1351
ons	1352
lamat	1353
ej	1354
##lin	1355
urang	1356
liga	1357
suka	1358
omisi	1359
duga	1360
dik	1361
ugaan	1362
ritas	1363
sy	1364
pk	1365
maret	1366
raya	1367
cepat	1368
12	1369
##rai	1370
inisi	1371
bal	1372
hus	1373
son	1374
siswa	1375
trump	1376
ral	1377
upati	1378
rikat	1379
ukrai	1380
az	1381
tuju	1382
rinya	1383
husus	1384
main	1385
ex	1386
the	1387
ring	1388
bum	1389
lok	1390
niver	1391
go	1392
of	1393
alang	1394
butuh	1395
##leh	1396
osisi	1397
##ip	1398
ikuti	1399
mbaga	1400
awab	1401
bid	1402
##dik	1403
udara	1404
baw	1405
vid	1406
danya	1407
dilan	1408
tanpa	1409
ig	1410
tat	1411
end	1412
punya	1413
##ot	1414
akti	1415
tem	1416
enai	1417
sim	1418
stasi	1419
##buh	1420
yaitu	1421
korea	1422
bang	1423
terd	1424
olri	1425
ua	1426
ndang	1427
gera	1428
mema	1429
iliar	1430
uat	1431
anjar	1432
dar	1433
jauh	1434
mpil	1435
berb	1436
nanti	1437
agung	1438
biasa	1439
antas	1440
ektor	1441
guru	1442
uti	1443
pi	1444
bakal	1445
daya	1446
dinas	1447
bawah	1448
tni	1449
naga	1450
idana	1451
git	1452
apal	1453
dion	1454
br	1455
alia	1456
angsa	1457
luas	1458
iala	1459
api	1460
cuk	1461
tahan	1462
##gis	1463
ono	1464
elang	1465
dek	1466
kal	1467
##eo	1468
kenal	1469
ino	1470
gital	1471
pekan	1472
ncari	1473
asa	1474
sema	1475
isa	1476
sup	1477
irim	1478
bea	1479
##aris	1480
15	1481
den	1482
uji	1483
peran	1484
ebab	1485
aus	1486
roy	1487
##jo	1488
annya	1489
aring	1490
##ord	1491
tul	1492
yu	1493
ita	1494
##usi	1495
ngka	1496
cukup	1497
##tup	1498
aru	1499
anti	1500
lesai	1501
elo	1502
mbak	1503
uku	1504
kir	1505
tamb	1506
dr	1507
arat	1508
30	1509
##bah	1510
imb	1511
data	1512
gas	1513
akit	1514
##mk	1515
kri	1516
antai	1517
surat	1518
isnis	1519
depok	1520
are	1521
ron	1522
anies	1523
omb	1524
apres	1525
putus	1526
##orm	1527
ambut	1528
gerak	1529
jah	1530
duk	1531
##ikan	1532
aji	1533
pap	1534
uaca	1535
mpang	1536
tihan	1537
mis	1538
koord	1539
lajar	1540
uru	1541
feb	1542
##ran	1543
maka	1544
raih	1545
mmad	1546
ola	1547
asn	1548
mbuka	1549
awas	1550
rm	1551
mau	1552
io	1553
papua	1554
perse	1555
agang	1556
stina	1557
rget	1558
tiv	1559
etiga	1560
edung	1561
gol	1562
oh	1563
eri	1564
neger	1565
##utk	1566
maju	1567
inan	1568
##ru	1569
ii	1570
sip	1571
kut	1572
ton	1573
nus	1574
rubah	1575
nda	1576
usai	1577
gask	1578
tutur	1579
cal	1580
ejad	1581
kha	1582
angk	1583
ilang	1584
agai	1585
##era	1586
inve	1587
lind	1588
bur	1589
beda	1590
ahmad	1591
ianto	1592
henti	1593
tanya	1594
art	1595
lanju	1596
hamas	1597
penj	1598
emb	1599
ras	1600
erk	1601
enuh	1602
ende	1603
dekat	1604
isti	1605
anten	1606
uni	1607
mbah	1608
libat	1609
ibusi	1610
olusi	1611
pel	1612
ket	1613
rep	1614
indra	1615
anto	1616
sik	1617
cat	1618
udaya	1619
##ura	1620
edi	1621
mod	1622
tp	1623
je	1624
ulu	1625
pri	1626
rif	1627
ele	1628
unuh	1629
rtem	1630
jat	1631
unit	1632
berd	1633
etak	1634
yar	1635
ligus	1636
sus	1637
mat	1638
kab	1639
nor	1640
pres	1641
oe	1642
nuju	1643
ncang	1644
abat	1645
rdana	1646
urut	1647
saksi	1648
hit	1649
seka	1650
ajak	1651
adw	1652
rc	1653
rtemu	1654
##ons	1655
hujan	1656
penu	1657
utra	1658
siasi	1659
aris	1660
sakit	1661
tus	1662
anya	1663
kand	1664
ido	1665
##me	1666
adwal	1667
alat	1668
lasan	1669
visi	1670
bas	1671
fas	1672
##lau	1673
enuhi	1674
16	1675
penuh	1676
sd	1677
turun	1678
tas	1679
terb	1680
rusak	1681
##tim	1682
apang	1683
duksi	1684
emo	1685
yakin	1686
tanah	1687
arta	1688
olah	1689
alu	1690
engg	1691
11	1692
anjir	1693
febru	1694
wat	1695
alur	1696
orasi	1697
kual	1698
demo	1699
##gya	1700
tekno	1701
uhan	1702
sana	1703
yogya	1704
kum	1705
berke	1706
ancam	1707
atur	1708
pl	1709
pes	1710
enam	1711
kema	1712
aksa	1713
##ch	1714
suma	1715
epang	1716
namb	1717
fasil	1718
biden	1719
mit	1720
ungsi	1721
14	1722
sisi	1723
uri	1724
ersib	1725
nju	1726
riode	1727
norer	1728
urah	1729
mina	1730
rw	1731
psi	1732
musim	1733
iar	1734
umk	1735
nik	1736
oto	1737
alan	1738
terp	1739
kat	1740
lemen	1741
wu	1742
ncur	1743
dapun	1744
bb	1745
dki	1746
tewas	1747
egitu	1748
diba	1749
amar	1750
ropa	1751
ener	1752
nurun	1753
akses	1754
aktiv	1755
##gal	1756
##jud	1757
sete	1758
fin	1759
toko	1760
##atu	1761
krasi	1762
elola	1763
pul	1764
egah	1765
anta	1766
bri	1767
fok	1768
mudah	1769
ama	1770
trasi	1771
tusan	1772
all	1773
ungi	1774
fokus	1775
atan	1776
pilih	1777
bahan	1778
raky	1779
ky	1780
leksi	1781
narko	1782
utuh	1783
royek	1784
est	1785
nusa	1786
pbb	1787
meter	1788
25	1789
org	1790
rut	1791
alani	1792
ebar	1793
utih	1794
##sip	1795
jenis	1796
elalu	1797
usul	1798
ganti	1799
mata	1800
film	1801
luka	1802
tiba	1803
13	1804
tot	1805
calon	1806
inat	1807
angga	1808
uduk	1809
au	1810
ff	1811
anggu	1812
set	1813
umkm	1814
bab	1815
isu	1816
video	1817
turut	1818
tra	1819
port	1820
netap	1821
18	1822
epe	1823
lep	1824
24	1825
##pul	1826
og	1827
iap	1828
ngat	1829
udi	1830
nggul	1831
njutk	1832
andar	1833
berat	1834
sel	1835
urve	1836
tnya	1837
gan	1838
asuk	1839
tulis	1840
wujud	1841
tes	1842
tepat	1843
17	1844
rkuat	1845
urat	1846
abd	1847
uncur	1848
temu	1849
tik	1850
olk	1851
emas	1852
pakat	1853
budi	1854
organ	1855
del	1856
hut	1857
vi	1858
##aim	1859
awang	1860
##lon	1861
lewat	1862
final	1863
lidik	1864
ira	1865
new	1866
eno	1867
rcaya	1868
abil	1869
bin	1870
fc	1871
alah	1872
unung	1873
sos	1874
rh	1875
resta	1876
tasi	1877
tahap	1878
utri	1879
tisip	1880
amank	1881
ril	1882
ersih	1883
ibran	1884
rtu	1885
##ami	1886
janji	1887
pdip	1888
kola	1889
liti	1890
ping	1891
pla	1892
kecil	1893
ditu	1894
ry	1895
ade	1896
dic	1897
inggr	1898
austr	1899
hati	1900
ubah	1901
pasal	1902
narik	1903
ate	1904
ekan	1905
kasih	1906
nah	1907
her	1908
ile	1909
pesan	1910
dana	1911
atal	1912
ayu	1913
umumk	1914
teman	1915
udah	1916
glo	1917
bus	1918
hum	1919
adang	1920
obat	1921
mengg	1922
ntung	1923
angi	1924
okter	1925
rawat	1926
gib	1927
luang	1928
urvei	1929
##ny	1930
mpro	1931
olkar	1932
izin	1933
dij	1934
ndung	1935
gibr	1936
atif	1937
dewan	1938
ruang	1939
bk	1940
##fe	1941
sulit	1942
tab	1943
kolab	1944
lepas	1945
denpa	1946
sitif	1947
kuasa	1948
watir	1949
pakah	1950
njual	1951
ilm	1952
mati	1953
indah	1954
nol	1955
ukses	1956
amin	1957
av	1958
iy	1959
tum	1960
ala	1961
ngani	1962
aktif	1963
bay	1964
inov	1965
apre	1966
sah	1967
tua	1968
##cu	1969
onlin	1970
laki	1971
atat	1972
ologi	1973
rhati	1974
lib	1975
nco	1976
poin	1977
khus	1978
eta	1979
aslon	1980
bahas	1981
od	1982
utuhk	1983
skri	1984
enc	1985
ngan	1986
hend	1987
nggil	1988
yarat	1989
##tak	1990
menit	1991
##bp	1992
usnya	1993
sw	1994
uncul	1995
ow	1996
27	1997
erai	1998
bun	1999
skrim	2000
ulasi	2001
riau	2002
sekar	2003
puluh	2004
ident	2005
rensi	2006
glob	2007
pn	2008
uasa	2009
pos	2010
agama	2011
jang	2012
mere	2013
fer	2014
gab	2015
berk	2016
tegas	2017
lahir	2018
spons	2019
rsiap	2020
nggu	2021
kalah	2022
akang	2023
sawat	2024
engar	2025
ituas	2026
stra	2027
los	2028
isme	2029
##and	2030
ens	2031
bp	2032
roleh	2033
berta	2034
dikit	2035
total	2036
ph	2037
uktur	2038
bayar	2039
iptak	2040
uami	2041
makan	2042
kumen	2043
mung	2044
krat	2045
19	2046
adar	2047
mpir	2048
dipe	2049
umen	2050
pagi	2051
atuan	2052
pasti	2053
22	2054
inc	2055
erman	2056
beb	2057
mungk	2058
sig	2059
emiki	2060
damai	2061
eh	2062
urus	2063
humas	2064
gaw	2065
taris	2066
##lam	2067
marin	2068
rkara	2069
oc	2070
upa	2071
etu	2072
ual	2073
nk	2074
atasi	2075
pasuk	2076
gagal	2077
ntar	2078
rib	2079
andi	2080
mom	2081
suh	2082
ayang	2083
tol	2084
sonel	2085
catat	2086
energ	2087
waslu	2088
##juk	2089
sor	2090
rapan	2091
pj	2092
23	2093
bmk	2094
uu	2095
50	2096
ine	2097
inta	2098
ebabk	2099
rilis	2100
gawai	2101
bmkg	2102
iaya	2103
asar	2104
rtumb	2105
kemen	2106
ity	2107
perd	2108
dprd	2109
21	2110
rugi	2111
bawa	2112
tubuh	2113
bebas	2114
pik	2115
lim	2116
asing	2117
sabu	2118
rba	2119
njara	2120
ahf	2121
usung	2122
rbang	2123
antau	2124
ndah	2125
iah	2126
elek	2127
duli	2128
fes	2129
joko	2130
anger	2131
ksi	2132
kil	2133
istri	2134
##juh	2135
sekre	2136
balik	2137
ahfud	2138
istiw	2139
sal	2140
tera	2141
rela	2142
islam	2143
sipil	2144
jalur	2145
luk	2146
apar	2147
ibat	2148
lokal	2149
ngkut	2150
turan	2151
momen	2152
net	2153
rid	2154
ratis	2155
sc	2156
luark	2157
ibatk	2158
isah	2159
tani	2160
ster	2161
dpp	2162
mitra	2163
dj	2164
##ly	2165
erat	2166
rtani	2167
tatus	2168
lar	2169
rti	2170
ebut	2171
landa	2172
nolak	2173
ahy	2174
sebab	2175
ment	2176
##ori	2177
etro	2178
uncak	2179
ato	2180
usi	2181
demi	2182
edar	2183
##gat	2184
kontr	2185
tapi	2186
lor	2187
ratur	2188
ase	2189
non	2190
bers	2191
ntik	2192
mbel	2193
aki	2194
nflik	2195
memer	2196
tegis	2197
mus	2198
dini	2199
abdul	2200
mk	2201
erd	2202
lub	2203
iapk	2204
ans	2205
nerja	2206
ajang	2207
erahk	2208
untu	2209
alih	2210
ward	2211
rand	2212
##yo	2213
alank	2214
rj	2215
##so	2216
pengu	2217
ajar	2218
dangk	2219
ampah	2220
sm	2221
aceh	2222
lil	2223
leg	2224
ano	2225
mpak	2226
kilo	2227
ungut	2228
jaran	2229
idodo	2230
ium	2231
egini	2232
undur	2233
kecel	2234
iswa	2235
baran	2236
elekt	2237
perke	2238
kete	2239
ebas	2240
akaan	2241
amu	2242
26	2243
28	2244
raf	2245
buat	2246
lus	2247
saing	2248
jarah	2249
antu	2250
tujuh	2251
titik	2252
isiko	2253
suatu	2254
ombes	2255
ediak	2256
fisi	2257
tokoh	2258
ahaya	2259
ena	2260
ont	2261
lahan	2262
nto	2263
ileg	2264
pir	2265
##ulu	2266
jaksa	2267
ey	2268
mbeli	2269
cu	2270
vs	2271
liun	2272
rata	2273
naw	2274
hadi	2275
akun	2276
agu	2277
alif	2278
sl	2279
kirak	2280
tf	2281
oro	2282
erkel	2283
warna	2284
ramad	2285
jatuh	2286
tar	2287
sif	2288
awan	2289
pulau	2290
eo	2291
mad	2292
tel	2293
istan	2294
peri	2295
ene	2296
ahan	2297
hing	2298
dakwa	2299
idu	2300
kim	2301
abu	2302
uz	2303
ansi	2304
atar	2305
kur	2306
arc	2307
gener	2308
memba	2309
ill	2310
awe	2311
mui	2312
oo	2313
isten	2314
ungai	2315
ngin	2316
enter	2317
bon	2318
minum	2319
ribad	2320
horm	2321
ien	2322
mud	2323
adil	2324
ort	2325
ncar	2326
grasi	2327
akbp	2328
orot	2329
emuda	2330
dakan	2331
erek	2332
misi	2333
arab	2334
dpd	2335
29	2336
orum	2337
alias	2338
etuju	2339
rbaik	2340
lir	2341
hakim	2342
adat	2343
uran	2344
kaian	2345
sang	2346
tis	2347
mpul	2348
der	2349
adu	2350
tps	2351
##kam	2352
agr	2353
##kp	2354
ore	2355
ou	2356
erm	2357
kau	2358
wati	2359
gus	2360
iti	2361
jur	2362
ensi	2363
pema	2364
utu	2365
nergi	2366
tl	2367
akui	2368
ekasi	2369
ejak	2370
iaga	2371
ean	2372
tion	2373
ez	2374
aktor	2375
emati	2376
simal	2377
emi	2378
adaan	2379
artaw	2380
unan	2381
raga	2382
nutup	2383
mun	2384
kabar	2385
ck	2386
bumn	2387
moh	2388
ols	2389
ov	2390
judi	2391
ingan	2392
mah	2393
boleh	2394
gar	2395
lay	2396
labuh	2397
fif	2398
sedia	2399
deb	2400
mc	2401
##jid	2402
ngha	2403
rjen	2404
##ono	2405
ikan	2406
ss	2407
ank	2408
nton	2409
utusk	2410
area	2411
kb	2412
ver	2413
dy	2414
berse	2415
musik	2416
ie	2417
##jib	2418
umi	2419
rag	2420
ation	2421
elah	2422
tha	2423
uf	2424
wajib	2425
asjid	2426
nja	2427
esak	2428
bila	2429
wal	2430
nak	2431
ekat	2432
basis	2433
rof	2434
edia	2435
tutup	2436
pkb	2437
gugat	2438
nen	2439
our	2440
isk	2441
lis	2442
una	2443
lagu	2444
ategi	2445
sari	2446
za	2447
sma	2448
iny	2449
ikn	2450
gro	2451
langg	2452
lm	2453
ayak	2454
nerap	2455
efek	2456
audi	2457
ih	2458
popul	2459
pon	2460
konfe	2461
libur	2462
dim	2463
edak	2464
ndali	2465
rangi	2466
llah	2467
krit	2468
tema	2469
ator	2470
kapa	2471
olsek	2472
nawar	2473
tform	2474
siapa	2475
kp	2476
ahkam	2477
ult	2478
sya	2479
##bo	2480
nalis	2481
wil	2482
uter	2483
iden	2484
reg	2485
kup	2486
jahte	2487
debat	2488
lurah	2489
aplik	2490
kla	2491
kelas	2492
kalim	2493
anah	2494
sini	2495
eny	2496
iro	2497
cc	2498
elas	2499
karya	2500
babak	2501
agram	2502
##anc	2503
nikah	2504
entar	2505
iyah	2506
rapat	2507
iet	2508
ukur	2509
evaku	2510
minal	2511
guh	2512
ncuri	2513
31	2514
ullah	2515
terj	2516
ern	2517
ld	2518
tud	2519
semen	2520
biaya	2521
ransi	2522
##zi	2523
pranc	2524
##din	2525
tren	2526
lanta	2527
memu	2528
pand	2529
rofes	2530
amat	2531
ame	2532
##gub	2533
berte	2534
ilgub	2535
ndra	2536
mping	2537
riz	2538
mudik	2539
##ade	2540
bera	2541
arga	2542
kutip	2543
olid	2544
india	2545
aik	2546
hil	2547
##ck	2548
darah	2549
eral	2550
etik	2551
##ine	2552
inyak	2553
wah	2554
filip	2555
arti	2556
edan	2557
kaya	2558
ilus	2559
pingi	2560
uta	2561
ork	2562
ard	2563
ereko	2564
keta	2565
ito	2566
stik	2567
aysia	2568
buruk	2569
nghi	2570
titus	2571
nov	2572
mega	2573
mpur	2574
enda	2575
ustr	2576
nggah	2577
egori	2578
andr	2579
by	2580
diu	2581
aket	2582
unggu	2583
akta	2584
tand	2585
etisi	2586
delap	2587
nv	2588
ona	2589
cek	2590
ialah	2591
sri	2592
reta	2593
onal	2594
ntut	2595
info	2596
putar	2597
cah	2598
ampus	2599
jemen	2600
jukan	2601
banon	2602
okan	2603
ndar	2604
engk	2605
uatan	2606
ht	2607
kena	2608
ohon	2609
ums	2610
imba	2611
fikan	2612
aja	2613
trad	2614
inato	2615
asw	2616
km	2617
seti	2618
oni	2619
sikap	2620
anji	2621
rok	2622
genc	2623
rastr	2624
tib	2625
kade	2626
pbd	2627
100	2628
aju	2629
jahat	2630
raan	2631
dur	2632
fak	2633
##ho	2634
ikl	2635
sih	2636
erl	2637
sial	2638
ury	2639
##kot	2640
idat	2641
ayor	2642
berl	2643
aswed	2644
signi	2645
ew	2646
nan	2647
rius	2648
ogja	2649
plo	2650
ntah	2651
ahulu	2652
arus	2653
ida	2654
mohon	2655
skor	2656
emkot	2657
##gp	2658
airl	2659
ekst	2660
iskus	2661
riah	2662
ender	2663
aes	2664
erv	2665
lum	2666
anita	2667
ice	2668
anksi	2669
awak	2670
hutan	2671
40	2672
ako	2673
tival	2674
eber	2675
itur	2676
nkum	2677
nti	2678
diti	2679
ions	2680
chi	2681
kiri	2682
##rak	2683
ilat	2684
ntuk	2685
atuh	2686
minim	2687
kank	2688
uth	2689
prof	2690
ragam	2691
ahli	2692
newas	2693
baya	2694
iring	2695
tlet	2696
ojo	2697
pus	2698
pram	2699
usun	2700
uriah	2701
bbc	2702
ustru	2703
kah	2704
paris	2705
esa	2706
ancar	2707
rud	2708
ekspo	2709
enior	2710
tele	2711
taw	2712
duh	2713
era	2714
oba	2715
sil	2716
rbit	2717
afri	2718
keber	2719
tir	2720
jelis	2721
otogp	2722
ktik	2723
ue	2724
##ge	2725
aky	2726
bakar	2727
kuad	2728
erak	2729
##pns	2730
ima	2731
yanto	2732
assa	2733
muka	2734
bei	2735
kader	2736
tabil	2737
lul	2738
mbil	2739
siang	2740
ayat	2741
##lar	2742
pek	2743
ning	2744
ngkit	2745
hasto	2746
parat	2747
ial	2748
cha	2749
migr	2750
rtimb	2751
esi	2752
pikir	2753
ft	2754
tam	2755
bagus	2756
cpns	2757
empa	2758
klaim	2759
ehari	2760
usl	2761
uddin	2762
sti	2763
kho	2764
sdm	2765
ncoba	2766
tom	2767
eman	2768
roni	2769
reng	2770
asih	2771
pks	2772
piade	2773
run	2774
ers	2775
vir	2776
nden	2777
redik	2778
old	2779
iii	2780
epeda	2781
ongso	2782
umsel	2783
idwan	2784
truk	2785
hip	2786
grup	2787
awesi	2788
mir	2789
oha	2790
jiwa	2791
terl	2792
ura	2793
02	2794
bumi	2795
inci	2796
ntrak	2797
eli	2798
igasi	2799
##gab	2800
arak	2801
lulus	2802
01	2803
tudi	2804
alisi	2805
mbul	2806
sore	2807
imbau	2808
ain	2809
ekor	2810
genda	2811
bud	2812
aham	2813
nutur	2814
pab	2815
ere	2816
sosok	2817
group	2818
dit	2819
micu	2820
ingga	2821
optim	2822
suk	2823
lans	2824
ariw	2825
thail	2826
akyat	2827
uslim	2828
ergab	2829
apak	2830
epar	2831
num	2832
amai	2833
enpa	2834
pajak	2835
jer	2836
ondo	2837
ei	2838
ord	2839
anyi	2840
uming	2841
ayah	2842
rmal	2843
ero	2844
rakab	2845
esan	2846
ary	2847
uci	2848
iga	2849
lai	2850
knis	2851
lp	2852
arjo	2853
abar	2854
impor	2855
aga	2856
merah	2857
ahasa	2858
emk	2859
udin	2860
konte	2861
rdeka	2862
rokok	2863
one	2864
ese	2865
nis	2866
adam	2867
sud	2868
emkab	2869
qu	2870
jual	2871
hamp	2872
mbulk	2873
eklar	2874
iq	2875
md	2876
nci	2877
taan	2878
rung	2879
peras	2880
rakir	2881
rom	2882
amil	2883
pakai	2884
berku	2885
angin	2886
panas	2887
ontra	2888
iang	2889
igr	2890
terke	2891
ander	2892
ajah	2893
nahan	2894
cam	2895
ngkar	2896
log	2897
esu	2898
esin	2899
eal	2900
temen	2901
minis	2902
iwan	2903
umur	2904
ug	2905
berpo	2906
otel	2907
ila	2908
tok	2909
uas	2910
yono	2911
eleb	2912
lun	2913
taf	2914
uluh	2915
top	2916
sam	2917
hat	2918
kin	2919
pet	2920
sura	2921
sepak	2922
ome	2923
rkir	2924
pesi	2925
memp	2926
ajuk	2927
akai	2928
logis	2929
ayar	2930
otif	2931
uw	2932
ped	2933
baca	2934
mbuh	2935
lem	2936
ingk	2937
shin	2938
asuki	2939
krea	2940
alnya	2941
arma	2942
mengh	2943
ail	2944
eto	2945
tv	2946
prod	2947
gub	2948
rama	2949
rto	2950
unga	2951
ursi	2952
real	2953
onto	2954
gra	2955
umsi	2956
saran	2957
nsum	2958
igran	2959
dul	2960
nten	2961
kbar	2962
alap	2963
ndari	2964
eja	2965
ike	2966
inkan	2967
ick	2968
you	2969
ink	2970
bint	2971
ntan	2972
mpa	2973
torat	2974
menda	2975
lola	2976
ayi	2977
andal	2978
vel	2979
ergi	2980
akal	2981
oli	2982
mprov	2983
ier	2984
itri	2985
juk	2986
zb	2987
renta	2988
bl	2989
maja	2990
lon	2991
mbar	2992
tre	2993
tuduh	2994
va	2995
ogo	2996
tara	2997
gur	2998
my	2999
ood	3000
lti	3001
kul	3002
pid	3003
robo	3004
utan	3005
ewi	3006
negak	3007
sena	3008
njau	3009
bung	3010
yah	3011
yawan	3012
aks	3013
inggi	3014
gang	3015
emua	3016
eku	3017
kes	3018
ruda	3019
ire	3020
lad	3021
ahnya	3022
gizi	3023
epat	3024
osko	3025
anja	3026
rahk	3027
03	3028
ltim	3029
harr	3030
anu	3031
ies	3032
anan	3033
ell	3034
brak	3035
lt	3036
vo	3037
mengo	3038
urna	3039
semi	3040
egala	3041
produ	3042
iak	3043
persi	3044
uruh	3045
reko	3046
cap	3047
rko	3048
yat	3049
yani	3050
raja	3051
egang	3052
ersis	3053
enny	3054
apan	3055
ska	3056
teng	3057
seni	3058
polit	3059
tin	3060
din	3061
akas	3062
ndri	3063
nap	3064
edit	3065
ntak	3066
rupa	3067
menca	3068
meran	3069
relaw	3070
kara	3071
dih	3072
lly	3073
mari	3074
atra	3075
zah	3076
berj	3077
emp	3078
ilit	3079
ental	3080
ect	3081
nsums	3082
sua	3083
dh	3084
ulau	3085
ale	3086
inaan	3087
mor	3088
ndai	3089
ance	3090
laim	3091
ct	3092
dig	3093
prin	3094
ach	3095
awa	3096
lf	3097
sla	3098
erisi	3099
siun	3100
dal	3101
ee	3102
atik	3103
uma	3104
rne	3105
gikan	3106
juru	3107
aca	3108
akr	3109
aran	3110
tanda	3111
sidi	3112
mbo	3113
uhu	3114
ear	3115
sub	3116
sha	3117
merek	3118
kt	3119
kasi	3120
##ne	3121
ampu	3122
efi	3123
alahk	3124
mosi	3125
bai	3126
lasi	3127
akp	3128
onald	3129
ika	3130
kepem	3131
hkan	3132
hami	3133
05	3134
beras	3135
rekam	3136
enak	3137
ndik	3138
iawan	3139
pers	3140
jau	3141
obil	3142
berw	3143
apas	3144
rusan	3145
ori	3146
emah	3147
untut	3148
aset	3149
ipta	3150
ive	3151
itus	3152
long	3153
##ce	3154
berp	3155
aria	3156
age	3157
kok	3158
bek	3159
tong	3160
bunuh	3161
nuk	3162
doa	3163
ujuk	3164
eksi	3165
arian	3166
samb	3167
asta	3168
06	3169
kus	3170
ich	3171
rit	3172
itra	3173
sual	3174
rig	3175
adir	3176
ide	3177
stor	3178
60	3179
dro	3180
aian	3181
kalan	3182
hib	3183
ujan	3184
ish	3185
leks	3186
spir	3187
gant	3188
ae	3189
dura	3190
ms	3191
red	3192
iper	3193
land	3194
ius	3195
ler	3196
ania	3197
unjuk	3198
akim	3199
emak	3200
okok	3201
muan	3202
rist	3203
hab	3204
aruh	3205
sut	3206
imin	3207
iau	3208
jian	3209
layan	3210
iset	3211
utin	3212
joe	3213
kor	3214
ui	3215
alis	3216
ure	3217
enal	3218
naman	3219
ibad	3220
resi	3221
fisik	3222
ea	3223
alin	3224
tuan	3225
iput	3226
ayaan	3227
uka	3228
imat	3229
perte	3230
rea	3231
ulan	3232
rkoba	3233
bs	3234
edu	3235
lukan	3236
nga	3237
rnia	3238
uksi	3239
ite	3240
tun	3241
pd	3242
diam	3243
gad	3244
tch	3245
sent	3246
eten	3247
line	3248
wid	3249
use	3250
abah	3251
ceo	3252
rlin	3253
asil	3254
bing	3255
bong	3256
oal	3257
adap	3258
teo	3259
amen	3260
##uri	3261
pengg	3262
awi	3263
jing	3264
lla	3265
mpr	3266
pis	3267
diy	3268
rip	3269
07	3270
bere	3271
ark	3272
itut	3273
onser	3274
04	3275
tb	3276
ric	3277
jaga	3278
seng	3279
pora	3280
cak	3281
ntb	3282
mula	3283
08	3284
dok	3285
hana	3286
jasa	3287
kop	3288
mbe	3289
dire	3290
eru	3291
aan	3292
sad	3293
keu	3294
berju	3295
yam	3296
nyi	3297
tata	3298
tadi	3299
tifik	3300
mog	3301
ntro	3302
rki	3303
ekno	3304
med	3305
emisi	3306
hm	3307
gres	3308
uhi	3309
kapan	3310
rasi	3311
ndata	3312
pemu	3313
rdi	3314
ital	3315
opi	3316
arung	3317
rgan	3318
sca	3319
rawan	3320
09	3321
##bi	3322
emar	3323
embat	3324
anal	3325
elar	3326
ongan	3327
imi	3328
lung	3329
een	3330
akat	3331
ulia	3332
ack	3333
gal	3334
bert	3335
sien	3336
umat	3337
nggi	3338
umpul	3339
ikin	3340
ruh	3341
ros	3342
enya	3343
elit	3344
pula	3345
waw	3346
ifik	3347
esain	3348
tk	3349
iaran	3350
sela	3351
##ind	3352
ond	3353
beru	3354
jad	3355
sna	3356
raj	3357
pany	3358
satu	3359
kk	3360
sir	3361
sasi	3362
smk	3363
ven	3364
gri	3365
seri	3366
adai	3367
iany	3368
andan	3369
gama	3370
impan	3371
iko	3372
apura	3373
lik	3374
pah	3375
##apa	3376
pera	3377
eksp	3378
rtai	3379
uah	3380
arno	3381
rie	3382
onis	3383
tinya	3384
sr	3385
inda	3386
nfir	3387
lora	3388
rukan	3389
ane	3390
terta	3391
xi	3392
puas	3393
spada	3394
ly	3395
rol	3396
rain	3397
luh	3398
sok	3399
artin	3400
ahar	3401
forma	3402
cs	3403
ewa	3404
##eku	3405
pit	3406
tut	3407
##th	3408
alas	3409
istik	3410
kseku	3411
pung	3412
we	3413
epi	3414
meme	3415
uto	3416
iam	3417
mon	3418
mbela	3419
jung	3420
nes	3421
dima	3422
arya	3423
mpah	3424
antik	3425
ait	3426
ihat	3427
kta	3428
dira	3429
nstr	3430
erkat	3431
itung	3432
tain	3433
dw	3434
iber	3435
oa	3436
tama	3437
rac	3438
ambu	3439
kro	3440
rul	3441
kew	3442
asp	3443
ndy	3444
awah	3445
kru	3446
rge	3447
rsit	3448
star	3449
anas	3450
riy	3451
ast	3452
ndas	3453
ngkas	3454
enko	3455
led	3456
umb	3457
ging	3458
uan	3459
ntri	3460
asin	3461
tral	3462
ayan	3463
gula	3464
ndera	3465
ruu	3466
mele	3467
ilo	3468
may	3469
hir	3470
pot	3471
unive	3472
van	3473
mbu	3474
amah	3475
agia	3476
erdas	3477
sun	3478
ideo	3479
jm	3480
tta	3481
erp	3482
asu	3483
ass	3484
inal	3485
aro	3486
ater	3487
lakuk	3488
dn	3489
diko	3490
teru	3491
arik	3492
onda	3493
hr	3494
out	3495
wna	3496
enar	3497
onf	3498
ppp	3499
kira	3500
ence	3501
lut	3502
teror	3503
teks	3504
bn	3505
iun	3506
rad	3507
ding	3508
egal	3509
wita	3510
urn	3511
eam	3512
oma	3513
ntas	3514
atis	3515
mpun	3516
ikat	3517
isis	3518
tya	3519
gelo	3520
lest	3521
esuai	3522
sias	3523
ede	3524
susu	3525
saha	3526
ams	3527
eco	3528
rema	3529
ibuan	3530
bersa	3531
ikir	3532
ulai	3533
aff	3534
imo	3535
angku	3536
dara	3537
king	3538
lom	3539
yap	3540
dium	3541
erapa	3542
eter	3543
eras	3544
##mp	3545
arto	3546
indak	3547
turn	3548
cok	3549
gul	3550
ll	3551
ahu	3552
lekt	3553
cet	3554
hmad	3555
sli	3556
sesi	3557
edera	3558
rya	3559
eland	3560
tae	3561
umah	3562
nada	3563
35	3564
rman	3565
nggel	3566
alik	3567
elum	3568
manya	3569
pss	3570
dup	3571
asan	3572
liter	3573
hap	3574
ij	3575
rkan	3576
day	3577
fl	3578
ndeng	3579
iru	3580
acu	3581
eret	3582
oho	3583
dina	3584
ost	3585
paya	3586
mbat	3587
bany	3588
pssi	3589
lumn	3590
gam	3591
anis	3592
ukan	3593
lari	3594
raksi	3595
bt	3596
meno	3597
dewa	3598
yur	3599
arana	3600
ota	3601
far	3602
##pi	3603
itusi	3604
ambat	3605
engge	3606
bil	3607
kter	3608
pons	3609
rtis	3610
ibi	3611
rate	3612
80	3613
hn	3614
jari	3615
enggu	3616
andu	3617
itia	3618
ead	3619
roli	3620
distr	3621
aim	3622
oda	3623
##js	3624
tris	3625
timal	3626
alim	3627
lig	3628
ulus	3629
puan	3630
rlind	3631
rgo	3632
peru	3633
nduk	3634
egas	3635
reka	3636
yangk	3637
ndika	3638
liar	3639
lob	3640
oyo	3641
alau	3642
iana	3643
ula	3644
menik	3645
aid	3646
rv	3647
mewa	3648
pere	3649
pura	3650
##nu	3651
elun	3652
ret	3653
omm	3654
ebak	3655
tkp	3656
pns	3657
alal	3658
70	3659
via	3660
arg	3661
orp	3662
agen	3663
thi	3664
khir	3665
ute	3666
ateri	3667
nald	3668
ewas	3669
gaya	3670
mda	3671
entu	3672
penda	3673
uro	3674
rr	3675
ktor	3676
hy	3677
erma	3678
oll	3679
njam	3680
ermin	3681
fan	3682
nut	3683
uli	3684
deral	3685
gn	3686
curi	3687
enu	3688
embu	3689
nsy	3690
arap	3691
emudi	3692
imis	3693
spor	3694
inar	3695
oran	3696
oso	3697
oj	3698
ugi	3699
rakt	3700
epo	3701
paran	3702
urit	3703
ukul	3704
itar	3705
dipa	3706
amal	3707
onor	3708
uel	3709
lini	3710
uju	3711
kanto	3712
bd	3713
sine	3714
jamin	3715
kinan	3716
anju	3717
adik	3718
ash	3719
ians	3720
bkn	3721
spa	3722
vasi	3723
eda	3724
asila	3725
odo	3726
eban	3727
enj	3728
stri	3729
bol	3730
dah	3731
oor	3732
tari	3733
inis	3734
ekas	3735
rest	3736
fung	3737
nh	3738
##bs	3739
##ena	3740
rpo	3741
ngaja	3742
dera	3743
iasa	3744
oy	3745
ujuan	3746
nggak	3747
##bn	3748
etah	3749
dwi	3750
nve	3751
unt	3752
ule	3753
kond	3754
ombo	3755
fungs	3756
ted	3757
ump	3758
nag	3759
ambah	3760
afp	3761
dud	3762
rab	3763
say	3764
idup	3765
erke	3766
ndam	3767
uki	3768
skus	3769
setia	3770
ming	3771
ye	3772
200	3773
voa	3774
dl	3775
##fi	3776
pln	3777
oris	3778
dali	3779
kn	3780
nai	3781
sin	3782
leh	3783
tt	3784
erto	3785
ndo	3786
ekal	3787
abup	3788
dm	3789
##aka	3790
nekan	3791
aut	3792
part	3793
rahan	3794
bbm	3795
integ	3796
aih	3797
elen	3798
mbina	3799
rtasi	3800
ffi	3801
get	3802
nasi	3803
ago	3804
odus	3805
etahu	3806
##co	3807
ami	3808
duduk	3809
caya	3810
mr	3811
aul	3812
ewan	3813
uali	3814
orm	3815
babk	3816
lv	3817
nz	3818
ssa	3819
hani	3820
sosia	3821
risti	3822
ntai	3823
nato	3824
32	3825
enti	3826
tm	3827
uda	3828
diku	3829
jadik	3830
terti	3831
aten	3832
psm	3833
500	3834
kej	3835
nder	3836
ngkal	3837
ray	3838
etika	3839
rsud	3840
rma	3841
berma	3842
eka	3843
prose	3844
cit	3845
##wo	3846
ahat	3847
ahana	3848
ision	3849
dus	3850
##hk	3851
shi	3852
tbk	3853
pemba	3854
##su	3855
ghan	3856
pele	3857
pertu	3858
tro	3859
mani	3860
ambi	3861
nia	3862
over	3863
ppn	3864
sung	3865
uha	3866
ndala	3867
dpc	3868
how	3869
ting	3870
ngar	3871
tip	3872
kian	3873
putra	3874
lobal	3875
igi	3876
ree	3877
lot	3878
apor	3879
ranc	3880
egar	3881
rsatu	3882
oco	3883
bm	3884
mand	3885
igit	3886
con	3887
aktu	3888
rial	3889
gia	3890
sit	3891
arna	3892
etiap	3893
can	3894
hin	3895
mara	3896
##ps	3897
keke	3898
rkas	3899
tekn	3900
cor	3901
ls	3902
rel	3903
##ii	3904
adin	3905
stin	3906
tangg	3907
siko	3908
ansa	3909
erpo	3910
dau	3911
akin	3912
unik	3913
nny	3914
sb	3915
sho	3916
##gaw	3917
spek	3918
syah	3919
mate	3920
kuk	3921
ncurk	3922
bpk	3923
mur	3924
adj	3925
situ	3926
sant	3927
kuh	3928
nim	3929
til	3930
ado	3931
adis	3932
ukkan	3933
iji	3934
niat	3935
jut	3936
ntt	3937
emu	3938
araw	3939
kw	3940
duan	3941
tunt	3942
fit	3943
ess	3944
rta	3945
ilaku	3946
moti	3947
ening	3948
imak	3949
ceh	3950
duka	3951
aba	3952
fic	3953
dasi	3954
kg	3955
teria	3956
terse	3957
legal	3958
nakan	3959
ode	3960
wasa	3961
kek	3962
sto	3963
presi	3964
rno	3965
evel	3966
isan	3967
pira	3968
kuran	3969
erti	3970
rim	3971
iman	3972
luncu	3973
kis	3974
usti	3975
garu	3976
psbs	3977
plt	3978
gak	3979
nand	3980
oka	3981
erima	3982
elem	3983
45	3984
tal	3985
terna	3986
risi	3987
36	3988
##ty	3989
lapa	3990
gir	3991
rwa	3992
usif	3993
90	3994
fri	3995
kak	3996
mpo	3997
nce	3998
uhnya	3999
ejar	4000
erse	4001
mbung	4002
lab	4003
ukar	4004
prov	4005
matik	4006
aun	4007
mm	4008
ahm	4009
engka	4010
ein	4011
ias	4012
mala	4013
vok	4014
nega	4015
mart	4016
nangk	4017
ereb	4018
vita	4019
teh	4020
aram	4021
mpe	4022
edik	4023
ruan	4024
nif	4025
cip	4026
seli	4027
ngis	4028
rdo	4029
kun	4030
ann	4031
ikap	4032
xx	4033
gemb	4034
ael	4035
pnm	4036
gis	4037
nata	4038
isar	4039
ompo	4040
putri	4041
buk	4042
adak	4043
indu	4044
ncob	4045
hel	4046
diber	4047
ngi	4048
enta	4049
saw	4050
abe	4051
enge	4052
car	4053
kang	4054
ses	4055
abung	4056
hop	4057
jemb	4058
pmi	4059
enand	4060
app	4061
abo	4062
arl	4063
ath	4064
elaka	4065
umpa	4066
okal	4067
asok	4068
ement	4069
ace	4070
solo	4071
yadi	4072
ampir	4073
edis	4074
ipe	4075
oin	4076
esti	4077
ppd	4078
dri	4079
ales	4080
ader	4081
lili	4082
gb	4083
lia	4084
ebo	4085
elat	4086
udy	4087
otal	4088
masan	4089
34	4090
gat	4091
rana	4092
valu	4093
berpe	4094
aker	4095
ahter	4096
obj	4097
tria	4098
ramp	4099
lomba	4100
lb	4101
ty	4102
ekam	4103
him	4104
usd	4105
ewat	4106
haya	4107
enaga	4108
moto	4109
ando	4110
obo	4111
nad	4112
ubu	4113
##rt	4114
sion	4115
atah	4116
mos	4117
che	4118
gim	4119
oi	4120
pm	4121
ple	4122
inv	4123
hol	4124
respo	4125
##he	4126
erc	4127
erus	4128
alkan	4129
##est	4130
elu	4131
oman	4132
smp	4133
sman	4134
anga	4135
puti	4136
##kpp	4137
nsyah	4138
pam	4139
inya	4140
anggi	4141
ora	4142
det	4143
trik	4144
csr	4145
ante	4146
lias	4147
edang	4148
motor	4149
dc	4150
mia	4151
keti	4152
sita	4153
let	4154
raha	4155
uy	4156
ony	4157
agam	4158
iras	4159
lamb	4160
tc	4161
tic	4162
koh	4163
mika	4164
ipil	4165
eus	4166
sida	4167
asc	4168
kna	4169
ys	4170
erb	4171
ksik	4172
gor	4173
rev	4174
osok	4175
ecam	4176
ugas	4177
lihan	4178
rmo	4179
bra	4180
rl	4181
nggo	4182
ipi	4183
ix	4184
rni	4185
seg	4186
pegaw	4187
ake	4188
arkan	4189
dor	4190
ose	4191
nek	4192
ikel	4193
omen	4194
manu	4195
isip	4196
onstr	4197
dat	4198
etap	4199
gp	4200
perc	4201
atr	4202
eleng	4203
rint	4204
75	4205
mran	4206
yal	4207
sia	4208
ungk	4209
keha	4210
ngko	4211
ansy	4212
bersi	4213
erna	4214
rop	4215
abi	4216
ampil	4217
irin	4218
endah	4219
uruan	4220
aia	4221
amer	4222
ahal	4223
mpu	4224
iapa	4225
nemp	4226
rsel	4227
300	4228
ega	4229
ebu	4230
stem	4231
tikan	4232
pembe	4233
etn	4234
kuhp	4235
piras	4236
rsa	4237
kot	4238
maj	4239
utar	4240
yaa	4241
dk	4242
gh	4243
tru	4244
uba	4245
tertu	4246
bara	4247
ngun	4248
isal	4249
emat	4250
maham	4251
lmu	4252
33	4253
38	4254
ngel	4255
mengi	4256
odi	4257
pad	4258
sn	4259
istr	4260
aum	4261
mew	4262
arte	4263
##omo	4264
uman	4265
ulik	4266
bpjs	4267
arda	4268
neka	4269
gon	4270
osa	4271
wni	4272
##wf	4273
nel	4274
eu	4275
hon	4276
kti	4277
adah	4278
anyu	4279
mark	4280
aa	4281
cana	4282
eran	4283
##uro	4284
ksp	4285
tuk	4286
itan	4287
epan	4288
suki	4289
arget	4290
iba	4291
##pb	4292
dkpp	4293
mnas	4294
pte	4295
div	4296
kol	4297
arasi	4298
emang	4299
lev	4300
pac	4301
anaan	4302
jutk	4303
kj	4304
fesi	4305
db	4306
mada	4307
als	4308
ashi	4309
ds	4310
ksa	4311
ts	4312
nget	4313
uruk	4314
otak	4315
utip	4316
cent	4317
yl	4318
onv	4319
jaw	4320
nant	4321
giri	4322
##pp	4323
berge	4324
nter	4325
ndek	4326
ngku	4327
ilan	4328
eder	4329
hli	4330
anpa	4331
erdi	4332
apur	4333
ilik	4334
ica	4335
rent	4336
katan	4337
aspad	4338
onfir	4339
bom	4340
dom	4341
radi	4342
rong	4343
ntal	4344
umbu	4345
pay	4346
ulk	4347
ataan	4348
ubar	4349
endam	4350
erluk	4351
bj	4352
cari	4353
u2	4354
amd	4355
gre	4356
omo	4357
engga	4358
bowo	4359
pbnu	4360
vent	4361
##fa	4362
erasa	4363
langk	4364
afi	4365
kedu	4366
njang	4367
uler	4368
nyar	4369
rangk	4370
ktt	4371
ppk	4372
arena	4373
bau	4374
tub	4375
olab	4376
sport	4377
cipta	4378
fli	4379
lk	4380
met	4381
ukt	4382
banda	4383
apbn	4384
aula	4385
ssi	4386
sai	4387
sed	4388
peme	4389
awat	4390
hang	4391
keba	4392
amera	4393
isw	4394
rov	4395
nsia	4396
yas	4397
ndon	4398
ilai	4399
spes	4400
ruk	4401
stu	4402
anat	4403
erko	4404
entif	4405
aban	4406
dag	4407
boli	4408
ongk	4409
rena	4410
krim	4411
iya	4412
ogis	4413
diga	4414
berm	4415
idi	4416
auh	4417
##hum	4418
anus	4419
versi	4420
len	4421
ulkan	4422
icu	4423
dz	4424
lli	4425
##ias	4426
##st	4427
diun	4428
law	4429
abes	4430
anyar	4431
hot	4432
iver	4433
oet	4434
tle	4435
pec	4436
sumb	4437
adem	4438
fest	4439
mpeti	4440
swa	4441
kont	4442
eusai	4443
wed	4444
##cc	4445
lee	4446
iter	4447
ibur	4448
taru	4449
ardi	4450
ism	4451
udar	4452
ao	4453
peg	4454
unj	4455
ange	4456
ask	4457
ume	4458
karan	4459
temba	4460
ehat	4461
euro	4462
jet	4463
terc	4464
terg	4465
nyal	4466
lana	4467
nara	4468
ebat	4469
thr	4470
anag	4471
aznas	4472
mna	4473
ve	4474
kos	4475
ntre	4476
usah	4477
komis	4478
55	4479
muk	4480
ste	4481
medi	4482
ngo	4483
erbi	4484
kaw	4485
nian	4486
enep	4487
romo	4488
pup	4489
erup	4490
eser	4491
##line	4492
vis	4493
aci	4494
dpw	4495
giias	4496
fu	4497
nline	4498
arj	4499
elan	4500
usa	4501
eki	4502
acar	4503
keru	4504
aniel	4505
antun	4506
alemb	4507
cr	4508
iat	4509
nung	4510
sila	4511
zo	4512
uling	4513
ompa	4514
jala	4515
sap	4516
keh	4517
eram	4518
ars	4519
manah	4520
jawab	4521
ror	4522
arm	4523
rans	4524
ml	4525
unr	4526
unda	4527
adan	4528
itb	4529
37	4530
cup	4531
nn	4532
wit	4533
endi	4534
asaan	4535
unrwa	4536
cia	4537
oga	4538
yasa	4539
yim	4540
arhum	4541
asit	4542
nentu	4543
erem	4544
lpg	4545
klu	4546
u1	4547
ze	4548
dio	4549
ahe	4550
bey	4551
upp	4552
alian	4553
nanda	4554
dha	4555
hok	4556
oot	4557
erbu	4558
ape	4559
mpi	4560
ngge	4561
rtang	4562
ermu	4563
ove	4564
tpn	4565
inj	4566
umas	4567
raw	4568
nvest	4569
fk	4570
pin	4571
ugu	4572
ngsi	4573
penya	4574
lega	4575
sebe	4576
gni	4577
pati	4578
uil	4579
wis	4580
ahap	4581
promo	4582
ntis	4583
kapol	4584
ktiv	4585
pupr	4586
erut	4587
agn	4588
esmi	4589
eat	4590
tag	4591
bet	4592
seks	4593
demik	4594
150	4595
tkn	4596
labor	4597
cl	4598
gah	4599
nir	4600
seo	4601
eria	4602
asak	4603
ekar	4604
semp	4605
dut	4606
unak	4607
erlu	4608
yol	4609
mic	4610
sand	4611
laras	4612
btn	4613
pur	4614
plik	4615
inum	4616
inti	4617
erce	4618
rian	4619
agak	4620
esar	4621
sanya	4622
250	4623
fik	4624
##os	4625
eruk	4626
urun	4627
able	4628
prote	4629
omin	4630
osis	4631
nerg	4632
obi	4633
bkp	4634
bjb	4635
bit	4636
ering	4637
pengh	4638
ikr	4639
time	4640
timi	4641
lusi	4642
rtas	4643
sisw	4644
nsu	4645
lg	4646
perp	4647
iska	4648
rido	4649
jay	4650
omba	4651
nator	4652
unya	4653
ppdb	4654
eas	4655
fr	4656
who	4657
ekr	4658
polri	4659
limp	4660
capai	4661
gali	4662
erol	4663
ors	4664
orit	4665
onfe	4666
rsita	4667
nge	4668
erhi	4669
ahas	4670
att	4671
beli	4672
seru	4673
hp	4674
akh	4675
rnama	4676
azar	4677
ior	4678
pg	4679
siat	4680
aif	4681
ront	4682
kkb	4683
xxi	4684
badi	4685
mbon	4686
usk	4687
ebera	4688
samp	4689
ormas	4690
gl	4691
hulu	4692
err	4693
##uran	4694
enis	4695
olu	4696
awati	4697
ajib	4698
##ira	4699
timb	4700
mutus	4701
avi	4702
shop	4703
41	4704
ipa	4705
tna	4706
umpu	4707
redi	4708
udan	4709
yoy	4710
meras	4711
temp	4712
iza	4713
mg	4714
zat	4715
ndat	4716
gend	4717
ifika	4718
aitan	4719
bir	4720
nua	4721
tuh	4722
angs	4723
ald	4724
atl	4725
upat	4726
patu	4727
form	4728
ock	4729
ihara	4730
aat	4731
eor	4732
nind	4733
owo	4734
hyb	4735
eek	4736
gk	4737
gil	4738
uai	4739
syl	4740
gy	4741
hara	4742
ibut	4743
nerj	4744
ifa	4745
luhan	4746
iw	4747
jin	4748
aret	4749
max	4750
sten	4751
opo	4752
kapal	4753
ugm	4754
aikan	4755
cer	4756
jus	4757
zin	4758
lian	4759
upak	4760
esal	4761
evi	4762
memas	4763
iss	4764
naf	4765
haru	4766
ull	4767
kung	4768
lko	4769
rini	4770
erj	4771
arko	4772
alita	4773
orb	4774
kret	4775
araan	4776
rmati	4777
sdn	4778
muni	4779
ovi	4780
dung	4781
oel	4782
teri	4783
ole	4784
ndi	4785
esg	4786
melih	4787
mest	4788
aiman	4789
bap	4790
fid	4791
uj	4792
wang	4793
peti	4794
uno	4795
akwa	4796
inde	4797
tumb	4798
encar	4799
phk	4800
kasa	4801
tung	4802
eluru	4803
udik	4804
bos	4805
khu	4806
tori	4807
aspen	4808
##eni	4809
njal	4810
hool	4811
mt	4812
erta	4813
mini	4814
ibuk	4815
igh	4816
arun	4817
memak	4818
illa	4819
okus	4820
warg	4821
off	4822
walk	4823
fun	4824
kib	4825
inn	4826
##one	4827
atin	4828
ukun	4829
39	4830
dd	4831
jid	4832
ldi	4833
menuh	4834
ektif	4835
spbu	4836
rku	4837
usik	4838
buru	4839
gara	4840
ert	4841
arum	4842
##ona	4843
reat	4844
rob	4845
abor	4846
kpps	4847
rkira	4848
sse	4849
yana	4850
tep	4851
iso	4852
okyo	4853
##log	4854
byd	4855
bc	4856
kd	4857
tmen	4858
perw	4859
pener	4860
atak	4861
emik	4862
raks	4863
este	4864
lhk	4865
uing	4866
entr	4867
els	4868
riw	4869
asik	4870
penyi	4871
tribu	4872
untun	4873
smail	4874
oti	4875
tn	4876
uala	4877
yen	4878
##dn	4879
syar	4880
febr	4881
jutan	4882
etapa	4883
gt	4884
iasi	4885
jl	4886
yi	4887
zu	4888
##ze	4889
enat	4890
rakan	4891
egan	4892
psim	4893
adapi	4894
44	4895
hai	4896
erja	4897
ilak	4898
lita	4899
tres	4900
dpo	4901
hamm	4902
43	4903
yn	4904
##bt	4905
tia	4906
nte	4907
atkan	4908
impi	4909
seper	4910
atim	4911
enyu	4912
65	4913
aq	4914
ged	4915
itif	4916
mim	4917
pc	4918
sist	4919
400	4920
##gh	4921
berg	4922
ngnya	4923
akse	4924
ente	4925
olt	4926
ntra	4927
adio	4928
ilip	4929
42	4930
kia	4931
wai	4932
asti	4933
oke	4934
enci	4935
taran	4936
mai	4937
rhat	4938
##pd	4939
mbun	4940
rau	4941
nolog	4942
suv	4943
bsd	4944
cang	4945
ngung	4946
erw	4947
arr	4948
laya	4949
ubuh	4950
natur	4951
pusat	4952
runa	4953
ktp	4954
dmin	4955
bela	4956
ego	4957
uhkan	4958
klim	4959
u23	4960
bpn	4961
rar	4962
yer	4963
ande	4964
asem	4965
48	4966
fek	4967
hk	4968
nko	4969
unkan	4970
bag	4971
manat	4972
ggo	4973
rdak	4974
sme	4975
endo	4976
pant	4977
isian	4978
ajuan	4979
hor	4980
##wn	4981
ebi	4982
ebutk	4983
afa	4984
ova	4985
erson	4986
bnn	4987
nta	4988
inus	4989
mbia	4990
iket	4991
semb	4992
hay	4993
meru	4994
daran	4995
bps	4996
adirk	4997
mut	4998
peta	4999
persa	5000
ahir	5001
empu	5002
stat	5003
yaw	5004
hri	5005
iwa	5006
np	5007
iner	5008
nyala	5009
riku	5010
khi	5011
lapan	5012
aza	5013
ntor	5014
lip	5015
awar	5016
fifa	5017
fia	5018
tjs	5019
won	5020
##hu	5021
perma	5022
arin	5023
big	5024
rikan	5025
icky	5026
ojk	5027
bsi	5028
ski	5029
saan	5030
ntho	5031
ndasi	5032
ukm	5033
dpt	5034
afc	5035
yawa	5036
yoon	5037
hind	5038
##ee	5039
##vi	5040
lid	5041
raka	5042
own	5043
tjsl	5044
blo	5045
kid	5046
ngal	5047
emen	5048
way	5049
iklan	5050
erper	5051
qr	5052
ugat	5053
vn	5054
mpok	5055
sty	5056
ecil	5057
tunj	5058
gai	5059
erba	5060
upi	5061
kip	5062
selat	5063
eluar	5064
51	5065
cm	5066
hun	5067
iara	5068
ptim	5069
##va	5070
aras	5071
aha	5072
ista	5073
ikon	5074
ekt	5075
rbo	5076
esk	5077
elaj	5078
bangk	5079
bni	5080
perl	5081
##umi	5082
engu	5083
atm	5084
iki	5085
edy	5086
58	5087
ble	5088
fran	5089
his	5090
mz	5091
pmk	5092
##od	5093
ahl	5094
taka	5095
mou	5096
entas	5097
phpu	5098
ktif	5099
mudi	5100
ote	5101
rse	5102
nyak	5103
hoa	5104
ibl	5105
okoh	5106
##ei	5107
##dc	5108
digu	5109
alla	5110
ntin	5111
emon	5112
ncah	5113
skal	5114
cep	5115
tasan	5116
onfer	5117
jk	5118
##uke	5119
enah	5120
##oro	5121
pop	5122
eso	5123
lite	5124
coba	5125
eva	5126
endal	5127
52	5128
88	5129
erhe	5130
arf	5131
usli	5132
tron	5133
sidan	5134
nyamb	5135
skusi	5136
lakan	5137
kutan	5138
pdt	5139
annur	5140
val	5141
sei	5142
apri	5143
ott	5144
jem	5145
dlat	5146
mimpi	5147
47	5148
##ry	5149
erum	5150
ukup	5151
imu	5152
entan	5153
auf	5154
cv	5155
gori	5156
kc	5157
uin	5158
uit	5159
yd	5160
pent	5161
iku	5162
ulat	5163
tange	5164
klhk	5165
hul	5166
suda	5167
uet	5168
##ev	5169
sian	5170
usu	5171
epak	5172
bulk	5173
watan	5174
nova	5175
cetak	5176
vnl	5177
dun	5178
idak	5179
lel	5180
##yan	5181
##her	5182
dili	5183
perca	5184
enamb	5185
emam	5186
retar	5187
udit	5188
etan	5189
etno	5190
nyama	5191
hl	5192
oes	5193
aso	5194
room	5195
idf	5196
abri	5197
ncam	5198
web	5199
appy	5200
gala	5201
##pt	5202
ines	5203
ngl	5204
amba	5205
apk	5206
mpan	5207
iron	5208
mode	5209
kst	5210
usim	5211
show	5212
dra	5213
igas	5214
mid	5215
yon	5216
znas	5217
##ea	5218
alo	5219
uko	5220
agal	5221
abak	5222
ebol	5223
opd	5224
yaran	5225
bnpb	5226
cas	5227
kno	5228
pw	5229
pta	5230
##ton	5231
erlin	5232
pert	5233
ilu	5234
semba	5235
toh	5236
nior	5237
ofi	5238
nhu	5239
bia	5240
fg	5241
fis	5242
hnya	5243
##sk	5244
##vid	5245
die	5246
perda	5247
amo	5248
ayung	5249
sept	5250
56	5251
nisi	5252
ool	5253
uny	5254
berko	5255
alk	5256
apt	5257
juara	5258
uren	5259
itasi	5260
kawa	5261
edo	5262
side	5263
tura	5264
afari	5265
ecu	5266
egiat	5267
iva	5268
fir	5269
pda	5270
ves	5271
anit	5272
dian	5273
erh	5274
entur	5275
stan	5276
ston	5277
covid	5278
baka	5279
ntun	5280
izal	5281
lusur	5282
emula	5283
gm	5284
gita	5285
kra	5286
terla	5287
entik	5288
nde	5289
mende	5290
bumd	5291
lokas	5292
pelat	5293
##ard	5294
amad	5295
egra	5296
andat	5297
uheni	5298
kuman	5299
gin	5300
hre	5301
rna	5302
yud	5303
##sit	5304
arn	5305
mbal	5306
elap	5307
ded	5308
oki	5309
raham	5310
lsi	5311
rli	5312
uis	5313
##be	5314
uron	5315
eting	5316
rso	5317
azia	5318
ign	5319
galk	5320
kspor	5321
ax	5322
col	5323
dya	5324
dai	5325
gum	5326
ilah	5327
jpu	5328
nump	5329
wwf	5330
rot	5331
opot	5332
lengk	5333
mh	5334
vat	5335
ngs	5336
ngus	5337
arki	5338
onan	5339
ptpn	5340
54	5341
98	5342
fat	5343
gg	5344
wata	5345
##aru	5346
tiw	5347
rita	5348
its	5349
ikm	5350
lani	5351
lbh	5352
hina	5353
kses	5354
nsa	5355
##em	5356
eme	5357
urir	5358
itis	5359
rauke	5360
acun	5361
gawa	5362
etis	5363
opul	5364
ancan	5365
naras	5366
tppo	5367
abdu	5368
encer	5369
ualan	5370
lustr	5371
ais	5372
gja	5373
jon	5374
tyo	5375
mengk	5376
adia	5377
onta	5378
onte	5379
ekali	5380
lif	5381
uty	5382
auan	5383
46	5384
53	5385
bata	5386
nm	5387
var	5388
mete	5389
alm	5390
embah	5391
pengi	5392
naung	5393
mbera	5394
gitu	5395
uncu	5396
rsip	5397
ete	5398
rf	5399
uaya	5400
##ew	5401
asl	5402
atri	5403
ilis	5404
ubli	5405
esel	5406
opm	5407
imbul	5408
muncu	5409
kidul	5410
bwf	5411
mn	5412
eror	5413
alika	5414
##ire	5415
apkan	5416
njar	5417
riti	5418
awai	5419
senj	5420
gem	5421
ihad	5422
empur	5423
gist	5424
bappe	5425
jud	5426
nani	5427
lemb	5428
riya	5429
esla	5430
gian	5431
temuk	5432
eraih	5433
k2	5434
upt	5435
sug	5436
fgd	5437
gap	5438
gua	5439
sukan	5440
spk	5441
wbp	5442
yun	5443
##gs	5444
onn	5445
pok	5446
ulit	5447
irma	5448
iant	5449
nyer	5450
nie	5451
mera	5452
ival	5453
63	5454
atuk	5455
cle	5456
eet	5457
teran	5458
membu	5459
emuka	5460
ekre	5461
abin	5462
udd	5463
irta	5464
mind	5465
cob	5466
asark	5467
##ney	5468
erbai	5469
dbd	5470
57	5471
dli	5472
sea	5473
ise	5474
masin	5475
ikma	5476
rbaru	5477
loud	5478
ayana	5479
etty	5480
600	5481
95	5482
dent	5483
rih	5484
ujud	5485
terpa	5486
alak	5487
low	5488
nio	5489
ipp	5490
anca	5491
salin	5492
iew	5493
stian	5494
61	5495
73	5496
enim	5497
amata	5498
tawa	5499
orn	5500
ubi	5501
lint	5502
rapi	5503
bino	5504
aliho	5505
esep	5506
nih	5507
##vp	5508
erind	5509
enas	5510
apol	5511
nje	5512
erku	5513
feren	5514
ntian	5515
apork	5516
u17	5517
76	5518
pim	5519
digi	5520
amis	5521
itel	5522
menci	5523
icc	5524
sol	5525
park	5526
laka	5527
buran	5528
ogra	5529
800	5530
emuan	5531
49	5532
hama	5533
nul	5534
nna	5535
slo	5536
peed	5537
uss	5538
uskan	5539
jajar	5540
posit	5541
ops	5542
arif	5543
psu	5544
psn	5545
brin	5546
ormat	5547
ooth	5548
72	5549
aur	5550
eer	5551
nari	5552
##ff	5553
olil	5554
itik	5555
onel	5556
asir	5557
acl	5558
resh	5559
dibe	5560
dzes	5561
orban	5562
kdrt	5563
",	5564
don	5565
nin	5566
qua	5567
sina	5568
tali	5569
tup	5570
##rc	5571
term	5572
leo	5573
umba	5574
irda	5575
engo	5576
opera	5577
berbi	5578
mpaik	5579
dunia	5580
gini	5581
hs	5582
lle	5583
nita	5584
ogi	5585
yid	5586
##tun	5587
inga	5588
asis	5589
bark	5590
komu	5591
lami	5592
heck	5593
pkk	5594
bpom	5595
ansen	5596
ernat	5597
eir	5598
eju	5599
iu	5600
ndir	5601
mpor	5602
rug	5603
gue	5604
nisa	5605
68	5606
cil	5607
ija	5608
jik	5609
nne	5610
##dp	5611
##zy	5612
anny	5613
neur	5614
ntel	5615
elp	5616
usta	5617
urhan	5618
loy	5619
mot	5620
isik	5621
kluk	5622
pion	5623
emban	5624
tppu	5625
64	5626
eel	5627
gs	5628
oid	5629
uud	5630
##ct	5631
##by	5632
elana	5633
abila	5634
likas	5635
sby	5636
epu	5637
lrt	5638
mf	5639
rde	5640
##cd	5641
##xy	5642
unta	5643
alai	5644
emari	5645
kaa	5646
ico	5647
ipda	5648
klat	5649
120	5650
swar	5651
orea	5652
jr	5653
tto	5654
##zul	5655
lau	5656
isang	5657
ella	5658
tpi	5659
bpip	5660
62	5661
cf	5662
dja	5663
fw	5664
tth	5665
zon	5666
ankan	5667
aly	5668
elv	5669
menyi	5670
abumi	5671
engat	5672
aft	5673
vii	5674
limut	5675
kura	5676
nila	5677
owa	5678
p1	5679
uo	5680
yp	5681
yber	5682
disa	5683
melt	5684
klama	5685
endes	5686
pdb	5687
tpnpb	5688
lhkpn	5689
arfum	5690
cel	5691
gari	5692
sas	5693
unah	5694
arsa	5695
ahera	5696
olak	5697
ngki	5698
ncan	5699
lank	5700
pps	5701
pbsi	5702
99	5703
ppa	5704
vitas	5705
##dy	5706
kandi	5707
ngh	5708
arb	5709
sau	5710
sib	5711
tau	5712
ndal	5713
elt	5714
usus	5715
buan	5716
mutu	5717
pag	5718
ayo	5719
ayl	5720
ipmi	5721
poli	5722
polis	5723
gela	5724
bidan	5725
sign	5726
ansus	5727
orth	5728
napas	5729
ehan	5730
hom	5731
oat	5732
opa	5733
xv	5734
##qi	5735
sege	5736
arut	5737
alil	5738
oly	5739
ngkai	5740
sera	5741
nomo	5742
rato	5743
enewa	5744
munit	5745
erusa	5746
59	5747
85	5748
cn	5749
ehi	5750
map	5751
tai	5752
tukan	5753
ertu	5754
erte	5755
ahi	5756
onc	5757
imun	5758
abk	5759
membe	5760
ibya	5761
ratus	5762
kuti	5763
ntegr	5764
bh	5765
dji	5766
oil	5767
ook	5768
zi	5769
asah	5770
elc	5771
umh	5772
umin	5773
urk	5774
imda	5775
okt	5776
moda	5777
konf	5778
rant	5779
seku	5780
##lio	5781
epem	5782
date	5783
ngund	5784
lgbt	5785
66	5786
67	5787
yuk	5788
##ts	5789
##cr	5790
enk	5791
bac	5792
adab	5793
njat	5794
emba	5795
agan	5796
isial	5797
nso	5798
udio	5799
700	5800
qris	5801
eraga	5802
olan	5803
olok	5804
rote	5805
jaja	5806
##okh	5807
esen	5808
cher	5809
suran	5810
mperl	5811
lpsk	5812
ross	5813
ddin	5814
gasi	5815
ujuh	5816
yari	5817
erg	5818
ahma	5819
olina	5820
mpuh	5821
urokh	5822
kue	5823
upan	5824
niai	5825
ippo	5826
aksim	5827
ajan	5828
riot	5829
lfi	5830
medan	5831
lsm	5832
tthew	5833
bor	5834
kto	5835
rgi	5836
wet	5837
yad	5838
##ci	5839
kepo	5840
tig	5841
aknya	5842
enna	5843
nggr	5844
egit	5845
buy	5846
ays	5847
bola	5848
etw	5849
hiv	5850
tho	5851
smkn	5852
bnpt	5853
ppds	5854
ibawa	5855
hua	5856
iuran	5857
jcc	5858
kebu	5859
##iko	5860
akkan	5861
enn	5862
enz	5863
nji	5864
ebani	5865
iph	5866
lamp	5867
egia	5868
ivis	5869
klukk	5870
ees	5871
ges	5872
iati	5873
jok	5874
oz	5875
rjo	5876
salam	5877
##mo	5878
inja	5879
perin	5880
apu	5881
ory	5882
rick	5883
urkan	5884
ith	5885
ampa	5886
upu	5887
lant	5888
epul	5889
duo	5890
amaah	5891
swt	5892
nkri	5893
resid	5894
yudo	5895
--	5896
nab	5897
uja	5898
yed	5899
yro	5900
eril	5901
nem	5902
astr	5903
elia	5904
usn	5905
egu	5906
irk	5907
irl	5908
pendi	5909
renc	5910
umpan	5911
engec	5912
yoyok	5913
tuhan	5914
fp	5915
fh	5916
flu	5917
iia	5918
jas	5919
nsi	5920
yata	5921
##bl	5922
ingo	5923
roto	5924
ids	5925
jakan	5926
hany	5927
manda	5928
nic	5929
insar	5930
yos	5931
obol	5932
link	5933
burg	5934
viv	5935
ryp	5936
htt	5937
bmw	5938
pgri	5939
aylor	5940
fs	5941
kada	5942
mri	5943
sudi	5944
wari	5945
nger	5946
inim	5947
memi	5948
row	5949
oku	5950
uduh	5951
rsup	5952
folio	5953
ther	5954
gej	5955
nore	5956
erant	5957
ransp	5958
ertan	5959
79	5960
81	5961
curan	5962
hah	5963
lya	5964
nika	5965
tter	5966
tami	5967
wen	5968
yg	5969
##je	5970
erit	5971
##ore	5972
ndes	5973
mpar	5974
elai	5975
egis	5976
manto	5977
esona	5978
boat	5979
ebr	5980
etar	5981
rsu	5982
huj	5983
ept	5984
rdan	5985
bent	5986
smat	5987
ihak	5988
iqu	5989
78	5990
77	5991
het	5992
ous	5993
uine	5994
uns	5995
eres	5996
tega	5997
angg	5998
ahwa	5999
atnya	6000
roen	6001
ware	6002
nop	6003
undu	6004
izi	6005
erdu	6006
garan	6007
kbri	6008
uinea	6009
pia	6010
rro	6011
uad	6012
uana	6013
wf	6014
##bc	6015
kei	6016
arel	6017
adiri	6018
isen	6019
emer	6020
urs	6021
aby	6022
omis	6023
ubis	6024
airud	6025
skb	6026
shar	6027
iarah	6028
bpkp	6029
cik	6030
msi	6031
rke	6032
sf	6033
##py	6034
anusi	6035
lav	6036
taz	6037
lic	6038
ncol	6039
haj	6040
ubur	6041
krl	6042
tike	6043
gusu	6044
alisa	6045
mzah	6046
ihan	6047
jib	6048
##get	6049
##ate	6050
sec	6051
terha	6052
##air	6053
atsu	6054
usak	6055
omi	6056
ube	6057
esta	6058
icj	6059
icke	6060
afet	6061
skd	6062
nsar	6063
##mea	6064
aguy	6065
utut	6066
sinya	6067
gbt	6068
u20	6069
71	6070
87	6071
bro	6072
lpk	6073
nse	6074
rina	6075
##ie	6076
mac	6077
kome	6078
lanet	6079
mulyo	6080
spon	6081
obot	6082
ece	6083
ejo	6084
bran	6085
gand	6086
gbk	6087
82	6088
bup	6089
hala	6090
lh	6091
anka	6092
back	6093
ndia	6094
emasa	6095
empe	6096
elam	6097
elih	6098
reda	6099
ilk	6100
menei	6101
kris	6102
ipr	6103
##edy	6104
oss	6105
dikin	6106
smawa	6107
budur	6108
mpany	6109
https	6110
69	6111
74	6112
bih	6113
cp	6114
igu	6115
k3	6116
pom	6117
rati	6118
wara	6119
wira	6120
##for	6121
##qu	6122
anw	6123
abc	6124
udal	6125
nual	6126
pakan	6127
sumsi	6128
rdhi	6129
rend	6130
ngatk	6131
encat	6132
rosot	6133
bcl	6134
aer	6135
datu	6136
eila	6137
iung	6138
ipu	6139
rju	6140
tana	6141
uya	6142
##nk	6143
anes	6144
mener	6145
inas	6146
perba	6147
akzul	6148
ady	6149
isma	6150
itam	6151
nav	6152
abel	6153
egask	6154
ayc	6155
puu	6156
ipb	6157
anie	6158
sank	6159
jie	6160
aeon	6161
korup	6162
ness	6163
assar	6164
94	6165
cut	6166
nitas	6167
yek	6168
##gc	6169
dige	6170
akni	6171
sebel	6172
imana	6173
harg	6174
ncer	6175
luan	6176
ubl	6177
sop	6178
huf	6179
less	6180
loka	6181
erkar	6182
tpp	6183
oecd	6184
ensin	6185
dham	6186
bilit	6187
dna	6188
eon	6189
ox	6190
ptun	6191
rter	6192
anone	6193
keg	6194
perm	6195
koru	6196
emuk	6197
rown	6198
onet	6199
intan	6200
udol	6201
irto	6202
mence	6203
desak	6204
rpp	6205
nsya	6206
##ley	6207
eck	6208
goya	6209
sdgs	6210
viii	6211
shida	6212
gate	6213
wait	6214
iib	6215
ijak	6216
lte	6217
lkp	6218
nud	6219
##rah	6220
##tp	6221
##ey	6222
berba	6223
oru	6224
else	6225
lean	6226
rien	6227
imul	6228
mendo	6229
ege	6230
ird	6231
lanc	6232
uck	6233
sumo	6234
kebi	6235
ensus	6236
ufmi	6237
ourt	6238
xxii	6239
xvii	6240
nopol	6241
iel	6242
lal	6243
sala	6244
anr	6245
##sir	6246
erli	6247
aleri	6248
ngke	6249
lec	6250
riel	6251
using	6252
once	6253
irt	6254
mann	6255
janto	6256
batu	6257
cop	6258
aje	6259
yaif	6260
mund	6261
caman	6262
eep	6263
afety	6264
aud	6265
hw	6266
jd	6267
diha	6268
akir	6269
arir	6270
amit	6271
olly	6272
##oma	6273
ekti	6274
stika	6275
ampun	6276
irby	6277
moch	6278
boy	6279
embut	6280
alaxy	6281
bpd	6282
aep	6283
bpa	6284
dad	6285
eve	6286
mw	6287
mum	6288
oir	6289
oup	6290
tz	6291
unh	6292
eron	6293
ndil	6294
ordi	6295
elhi	6296
elly	6297
iduk	6298
andai	6299
panta	6300
osta	6301
##lem	6302
efe	6303
ganis	6304
pont	6305
amdk	6306
ngec	6307
elsea	6308
96	6309
hono	6310
jp	6311
oum	6312
sj	6313
sada	6314
tpa	6315
wh	6316
yr	6317
##unj	6318
eren	6319
arid	6320
arman	6321
ektur	6322
stol	6323
iram	6324
iani	6325
box	6326
board	6327
keli	6328
melu	6329
hej	6330
akaf	6331
mith	6332
smine	6333
hts	6334
tkd	6335
bts	6336
anese	6337
iwi	6338
lati	6339
rte	6340
vil	6341
##dh	6342
##zo	6343
##ato	6344
dika	6345
ukuh	6346
idah	6347
imf	6348
irah	6349
sert	6350
ibus	6351
undar	6352
stay	6353
ivi	6354
kpai	6355
uefa	6356
fon	6357
gw	6358
g7	6359
gih	6360
sni	6361
smi	6362
uq	6363
xia	6364
zan	6365
##au	6366
##op	6367
ngsu	6368
alny	6369
enunj	6370
sier	6371
asya	6372
urb	6373
ural	6374
onas	6375
deo	6376
iris	6377
mily	6378
ruar	6379
eth	6380
afar	6381
##rey	6382
yakan	6383
rissa	6384
psk	6385
embo	6386
160	6387
bkd	6388
anoi	6389
guran	6390
alem	6391
rrah	6392
rlih	6393
ydney	6394
89	6395
bama	6396
cy	6397
nun	6398
rwan	6399
##ye	6400
##win	6401
olon	6402
pemi	6403
##iba	6404
iks	6405
rook	6406
onsi	6407
tent	6408
ompet	6409
rmu	6410
rce	6411
avis	6412
swara	6413
djir	6414
ezes	6415
##hou	6416
tokol	6417
rasio	6418
hris	6419
ugia	6420
bnnp	6421
anras	6422
..	6423
bca	6424
gana	6425
nl	6426
nke	6427
sko	6428
vr	6429
von	6430
##sy	6431
keja	6432
mbl	6433
ahr	6434
apuk	6435
ndus	6436
mpik	6437
itr	6438
eger	6439
hanty	6440
paud	6441
impo	6442
##gol	6443
rani	6444
shim	6445
rame	6446
psg	6447
tone	6448
170	6449
chain	6450
ntens	6451
annel	6452
ootb	6453
hb	6454
ijo	6455
kma	6456
lta	6457
lman	6458
oer	6459
ope	6460
ramat	6461
sran	6462
ww	6463
win	6464
##cy	6465
##ph	6466
##oh	6467
##hs	6468
alti	6469
apua	6470
ikh	6471
lipat	6472
okk	6473
trate	6474
bub	6475
mili	6476
ambir	6477
dax	6478
esm	6479
ettu	6480
epas	6481
epal	6482
laksa	6483
enoa	6484
bks	6485
ezat	6486
kular	6487
caks	6488
wee	6489
tms	6490
honor	6491
91	6492
csi	6493
gne	6494
kse	6495
tpu	6496
##bb	6497
tisi	6498
prak	6499
isman	6500
asr	6501
riwi	6502
karsa	6503
atut	6504
bant	6505
manik	6506
rth	6507
hoi	6508
osip	6509
lahi	6510
rp1	6511
pts	6512
uca	6513
110	6514
ava	6515
iyan	6516
dimu	6517
...	6518
92	6519
bki	6520
cul	6521
fbi	6522
hd	6523
yik	6524
##pen	6525
##mas	6526
unk	6527
angsu	6528
##urt	6529
bante	6530
dae	6531
ebes	6532
airul	6533
pph	6534
thy	6535
mie	6536
entah	6537
trip	6538
tatan	6539
rmas	6540
130	6541
dimul	6542
mempr	6543
gube	6544
pdam	6545
gner	6546
knpi	6547
gbla	6548
mumk	6549
unhcr	6550
aal	6551
bok	6552
bre	6553
hmi	6554
kkp	6555
rz	6556
uisi	6557
utup	6558
yok	6559
##ic	6560
##vo	6561
##zer	6562
bertu	6563
arit	6564
alt	6565
ahit	6566
isum	6567
indr	6568
mpl	6569
eline	6570
uram	6571
ilita	6572
imt	6573
kui	6574
edot	6575
engan	6576
gau	6577
rpj	6578
ksal	6579
kecam	6580
doo	6581
bru	6582
iod	6583
112	6584
uea	6585
gnes	6586
pmii	6587
zoom	6588
pwnu	6589
loyd	6590
mma	6591
mura	6592
s1	6593
ux	6594
##20	6595
enung	6596
isak	6597
elok	6598
rida	6599
usup	6600
seba	6601
antin	6602
mania	6603
not	6604
nip	6605
saki	6606
lame	6607
mbau	6608
ext	6609
rasak	6610
pltu	6611
bkk	6612
ody	6613
tamin	6614
350	6615
alikp	6616
dupan	6617
84	6618
fina	6619
nr	6620
oord	6621
s2	6622
vas	6623
yor	6624
##cle	6625
##sn	6626
berh	6627
arri	6628
arot	6629
siaga	6630
atok	6631
uso	6632
ush	6633
sebu	6634
reu	6635
rawa	6636
awk	6637
edas	6638
irm	6639
esli	6640
cean	6641
nalk	6642
last	6643
hite	6644
ualit	6645
esid	6646
wei	6647
dlh	6648
gkut	6649
inner	6650
83	6651
bka	6652
bina	6653
eid	6654
jul	6655
pv	6656
##ub	6657
##hy	6658
dinya	6659
erad	6660
alju	6661
alhi	6662
sio	6663
ntika	6664
ngkun	6665
inder	6666
ild	6667
ekni	6668
lisi	6669
abire	6670
kuan	6671
lopp	6672
rsf	6673
kram	6674
tens	6675
ppg	6676
istra	6677
tore	6678
ringa	6679
ivre	6680
ewask	6681
lemba	6682
bsk	6683
ited	6684
ricuh	6685
yaman	6686
xii	6687
care	6688
cur	6689
dt	6690
gna	6691
lj	6692
muri	6693
shir	6694
##gen	6695
terte	6696
ery	6697
arul	6698
aldo	6699
lawi	6700
elot	6701
usin	6702
ungu	6703
tahil	6704
ilg	6705
itkan	6706
beth	6707
idul	6708
ontr	6709
irst	6710
haz	6711
lock	6712
etter	6713
bio	6714
nice	6715
ppi	6716
spar	6717
ratu	6718
job	6719
ramik	6720
dekah	6721
rmon	6722
gust	6723
lumas	6724
oney	6725
tind	6726
luhur	6727
dkk	6728
nirl	6729
midah	6730
ippon	6731
lpkr	6732
eung	6733
fn	6734
ktr	6735
och	6736
spe	6737
vip	6738
zhou	6739
##mu	6740
erim	6741
erge	6742
mban	6743
sain	6744
olar	6745
olis	6746
laf	6747
taq	6748
eluk	6749
usaka	6750
urga	6751
ily	6752
ime	6753
abad	6754
ulli	6755
ncap	6756
negas	6757
udia	6758
acat	6759
logo	6760
andas	6761
elaw	6762
pare	6763
olog	6764
osy	6765
deni	6766
rch	6767
oget	6768
smpn	6769
enye	6770
ewe	6771
nsume	6772
retas	6773
erbit	6774
ivers	6775
nteg	6776
uqman	6777
93	6778
cg	6779
dona	6780
ppu	6781
sch	6782
wn	6783
##cg	6784
anuli	6785
inaga	6786
##una	6787
mbi	6788
isra	6789
asto	6790
ager	6791
loh	6792
ksad	6793
kriti	6794
bpj	6795
bonat	6796
iakan	6797
tkdn	6798
nesco	6799
tilas	6800
mlb	6801
pgn	6802
buyb	6803
bskdn	6804
aen	6805
aar	6806
auk	6807
buh	6808
esia	6809
g20	6810
kre	6811
sda	6812
##md	6813
##aki	6814
kepa	6815
inho	6816
tern	6817
erny	6818
koni	6819
enp	6820
ello	6821
elind	6822
usum	6823
itte	6824
ones	6825
ages	6826
sendi	6827
icy	6828
lanj	6829
airah	6830
ptn	6831
saka	6832
ball	6833
ios	6834
140	6835
selam	6836
avar	6837
bpp	6838
fisip	6839
likar	6840
ilos	6841
dlor	6842
zola	6843
nnedy	6844
blem	6845
kcna	6846
break	6847
ulliv	6848
hali	6849
kf	6850
nba	6851
rca	6852
uwa	6853
vit	6854
anna	6855
alma	6856
ahn	6857
lag	6858
sie	6859
taj	6860
elati	6861
eky	6862
eker	6863
atun	6864
ayy	6865
tant	6866
cho	6867
rumi	6868
melar	6869
gio	6870
ibar	6871
ptfi	6872
ancis	6873
thai	6874
raton	6875
plh	6876
erdam	6877
ploso	6878
mdan	6879
napi	6880
idea	6881
aidah	6882
bitat	6883
ggot	6884
imtek	6885
eera	6886
hj	6887
js	6888
lent	6889
mka	6890
neri	6891
qi	6892
rmi	6893
xin	6894
##ht	6895
inah	6896
##ike	6897
akul	6898
alid	6899
enni	6900
ising	6901
iste	6902
isol	6903
asb	6904
rou	6905
idd	6906
abun	6907
ulas	6908
kaf	6909
mank	6910
moon	6911
konom	6912
icw	6913
arie	6914
iff	6915
rino	6916
125	6917
endor	6918
allas	6919
ryan	6920
odg	6921
ssc	6922
xiii	6923
dwp	6924
imoen	6925
ller	6926
arkiv	6927
uptd	6928
nicef	6929
boro	6930
dhi	6931
nri	6932
nali	6933
otu	6934
##ac	6935
##mn	6936
##mm	6937
untik	6938
tima	6939
akw	6940
baum	6941
laj	6942
isel	6943
ndr	6944
naan	6945
nack	6946
iklon	6947
onia	6948
ude	6949
irana	6950
acik	6951
maki	6952
uhur	6953
keca	6954
##olo	6955
azis	6956
drus	6957
bbp	6958
mkd	6959
smita	6960
orem	6961
layu	6962
kpol	6963
romi	6964
anuar	6965
subi	6966
thio	6967
mrt	6968
upply	6969
yiah	6970
ynch	6971
aqu	6972
www	6973
boks	6974
bkkbn	6975
86	6976
fed	6977
fsir	6978
hdi	6979
jf	6980
ois	6981
owan	6982
pti	6983
sg	6984
tj	6985
uip	6986
anam	6987
amm	6988
rey	6989
bem	6990
eke	6991
imam	6992
anter	6993
ulin	6994
ette	6995
ranta	6996
sekto	6997
kenai	6998
##los	6999
otte	7000
pkl	7001
brina	7002
180	7003
enez	7004
eif	7005
sron	7006
asser	7007
gnar	7008
rtaw	7009
450	7010
900	7011
snia	7012
gjaw	7013
spkt	7014
elvy	7015
bg	7016
jis	7017
jim	7018
uam	7019
vp	7020
yc	7021
##ret	7022
##bk	7023
pep	7024
unei	7025
erni	7026
erly	7027
enen	7028
emur	7029
##ome	7030
lew	7031
usur	7032
naut	7033
into	7034
dew	7035
nggun	7036
ncak	7037
warta	7038
ubh	7039
esse	7040
iaz	7041
cht	7042
kong	7043
##ims	7044
nich	7045
melan	7046
kapi	7047
skr	7048
obs	7049
shel	7050
damp	7051
dakw	7052
rona	7053
mcc	7054
kpr	7055
pdn	7056
elsen	7057
ahaan	7058
lkpi	7059
usumo	7060
odgj	7061
cin	7062
mali	7063
nnya	7064
rua	7065
vaku	7066
ym	7067
##yi	7068
##yah	7069
pee	7070
arsip	7071
arkam	7072
nea	7073
emis	7074
elak	7075
elik	7076
itah	7077
utya	7078
race	7079
warn	7080
rups	7081
chine	7082
bias	7083
ptdh	7084
hio	7085
kend	7086
risma	7087
jiw	7088
uatu	7089
lust	7090
garo	7091
eraka	7092
awaw	7093
ktm	7094
iaman	7095
yeol	7096
nifil	7097
erupa	7098
ynth	7099
aing	7100
iatu	7101
ohi	7102
##yn	7103
anar	7104
##ere	7105
menja	7106
ingi	7107
pete	7108
perat	7109
kob	7110
akt	7111
aren	7112
ento	7113
aper	7114
illi	7115
ikah	7116
bed	7117
atul	7118
omw	7119
waru	7120
irgc	7121
milu	7122
now	7123
ruma	7124
pub	7125
sobo	7126
gerus	7127
ibia	7128
ipin	7129
undry	7130
hima	7131
rdir	7132
obl	7133
trid	7134
ufc	7135
list	7136
erser	7137
ierre	7138
dinat	7139
eee	7140
dlhk	7141
psms	7142
plts	7143
u19	7144
east	7145
just	7146
olten	7147
cnn	7148
oumas	7149
prakt	7150
heng	7151
hila	7152
ln	7153
lme	7154
pju	7155
sara	7156
tuli	7157
uv	7158
zz	7159
erf	7160
##urg	7161
##ust	7162
enan	7163
##ito	7164
ahari	7165
labu	7166
aph	7167
atam	7168
elis	7169
ref	7170
road	7171
nego	7172
udrey	7173
ubuk	7174
ebur	7175
marga	7176
solu	7177
skin	7178
ecret	7179
atih	7180
demak	7181
akao	7182
mangg	7183
azi	7184
imble	7185
selek	7186
lisa	7187
ersus	7188
ijat	7189
holz	7190
dkj	7191
colas	7192
aenal	7193
fm	7194
iup	7195
llo	7196
pai	7197
rri	7198
rabo	7199
upn	7200
peka	7201
unn	7202
enia	7203
ahra	7204
ndu	7205
ndur	7206
anty	7207
oky	7208
ulut	7209
tras	7210
timah	7211
gay	7212
opher	7213
afis	7214
iband	7215
isio	7216
bule	7217
obor	7218
hena	7219
pukat	7220
adian	7221
exi	7222
ofia	7223
endek	7224
misa	7225
nday	7226
embi	7227
oeto	7228
plat	7229
plika	7230
pulu	7231
usir	7232
iem	7233
tudy	7234
aikin	7235
samar	7236
ltd	7237
aeda	7238
galan	7239
gnet	7240
nagih	7241
nzo	7242
kwk	7243
gkung	7244
lgbtq	7245
enkum	7246
bubur	7247
bli	7248
cb	7249
eed	7250
eira	7251
lho	7252
mro	7253
naya	7254
pki	7255
tw	7256
ws	7257
yel	7258
##ler	7259
##yu	7260
##ano	7261
disi	7262
unas	7263
unita	7264
perso	7265
angu	7266
alar	7267
alus	7268
aht	7269
##aba	7270
asur	7271
njab	7272
lei	7273
riil	7274
ingka	7275
##ted	7276
nay	7277
liu	7278
##oki	7279
oksi	7280
kuid	7281
sido	7282
ubj	7283
andur	7284
mbern	7285
ett	7286
paka	7287
yaf	7288
mpera	7289
risa	7290
wich	7291
pkn	7292
apitu	7293
pelan	7294
240	7295
bkc	7296
smrc	7297
kurs	7298
uff	7299
kpi	7300
onic	7301
tomo	7302
dinah	7303
eaf	7304
rgant	7305
urov	7306
hinta	7307
nimb	7308
uyung	7309
ismil	7310
bkpm	7311
umham	7312
kua	7313
pita	7314
som	7315
yom	7316
##of	7317
##wu	7318
##har	7319
##und	7320
##usu	7321
enga	7322
aser	7323
asut	7324
mass	7325
orer	7326
eling	7327
eldi	7328
elbo	7329
ilia	7330
barga	7331
luyo	7332
irat	7333
engin	7334
look	7335
ubung	7336
toar	7337
opan	7338
opes	7339
ipas	7340
sumah	7341
ever	7342
trib	7343
aic	7344
aitu	7345
ejat	7346
ofyan	7347
155	7348
ganja	7349
ineas	7350
madu	7351
ugar	7352
yato	7353
mst	7354
hmo	7355
kkn	7356
nhil	7357
bpkh	7358
u16	7359
hort	7360
otul	7361
eha	7362
eji	7363
hud	7364
yno	7365
zal	7366
##oe	7367
##ln	7368
##bol	7369
anp	7370
inak	7371
peda	7372
##unt	7373
erasi	7374
ardo	7375
##ure	7376
enja	7377
enol	7378
neo	7379
orte	7380
orto	7381
emaha	7382
riang	7383
reb	7384
ilal	7385
maf	7386
abot	7387
utro	7388
trak	7389
edes	7390
milia	7391
kere	7392
amban	7393
dao	7394
esp	7395
boyo	7396
ebang	7397
pppa	7398
spbe	7399
hie	7400
haka	7401
gemp	7402
syik	7403
endr	7404
tpg	7405
pide	7406
subs	7407
paham	7408
srat	7409
nstru	7410
hira	7411
mron	7412
tsus	7413
colo	7414
bksda	7415
eun	7416
gong	7417
iims	7418
lkan	7419
lwan	7420
lwi	7421
mmea	7422
oik	7423
pong	7424
slam	7425
tina	7426
uid	7427
wr	7428
wasi	7429
##uw	7430
##cs	7431
##ft	7432
##pm	7433
bernu	7434
perb	7435
koro	7436
eneng	7437
mbala	7438
adget	7439
apuh	7440
ndim	7441
umfor	7442
uring	7443
illem	7444
itek	7445
itha	7446
kav	7447
iong	7448
luit	7449
uddi	7450
irza	7451
rsan	7452
nyan	7453
nies	7454
giur	7455
ipl	7456
ipdn	7457
wow	7458
hij	7459
batan	7460
ift	7461
dug	7462
rapto	7463
shal	7464
exy	7465
lokan	7466
itab	7467
bpr	7468
bppd	7469
ehid	7470
djp	7471
nakal	7472
nakes	7473
quo	7474
aily	7475
digma	7476
radis	7477
nimo	7478
dbh	7479
nafsu	7480
esota	7481
spklu	7482
shire	7483
ittee	7484
bada	7485
dpn	7486
eis	7487
fx	7488
lpe	7489
mmk	7490
nadi	7491
oek	7492
pka	7493
snya	7494
ugo	7495
vv	7496
yle	7497
##cm	7498
inu	7499
##sis	7500
ngad	7501
tet	7502
akum	7503
arlah	7504
asha	7505
elin	7506
rimea	7507
ukka	7508
imal	7509
abit	7510
ncu	7511
ncat	7512
act	7513
ambun	7514
tolo	7515
nyusu	7516
hou	7517
niv	7518
epit	7519
sume	7520
dirin	7521
ancy	7522
ifah	7523
fac	7524
sono	7525
uay	7526
berbe	7527
rase	7528
loso	7529
lpd	7530
agoan	7531
kwh	7532
ixon	7533
flix	7534
ismo	7535
mlan	7536
aqua	7537
cvc	7538
mnc	7539
aukus	7540
mmksi	7541
dju	7542
dmi	7543
jai	7544
oom	7545
wing	7546
##ec	7547
##ov	7548
anet	7549
##eno	7550
##ild	7551
tira	7552
perka	7553
aluk	7554
endak	7555
engaw	7556
mbg	7557
laz	7558
isy	7559
emin	7560
urv	7561
uras	7562
itme	7563
rose	7564
mao	7565
rav	7566
rbun	7567
engam	7568
lose	7569
ubik	7570
##ked	7571
undan	7572
ompl	7573
reku	7574
torus	7575
shiba	7576
goen	7577
ogy	7578
ganda	7579
ilmy	7580
smin	7581
antul	7582
slim	7583
oos	7584
mcd	7585
ewu	7586
stia	7587
lona	7588
ripda	7589
purwa	7590
mtq	7591
dliy	7592
taqin	7593
%.	7594
97	7595
b1	7596
dol	7597
doko	7598
fly	7599
gcg	7600
hpp	7601
kte	7602
kila	7603
nber	7604
oon	7605
qsa	7606
tmi	7607
##tc	7608
##pc	7609
meg	7610
meet	7611
intim	7612
inmas	7613
ngen	7614
akes	7615
alit	7616
##ora	7617
amur	7618
olik	7619
asek	7620
oret	7621
rei	7622
iksi	7623
ikul	7624
ondi	7625
ulsa	7626
ultur	7627
semak	7628
edana	7629
muju	7630
mount	7631
ebel	7632
hoc	7633
bip	7634
obel	7635
she	7636
iliun	7637
kalt	7638
rwah	7639
tarum	7640
kmp	7641
esis	7642
baic	7643
inist	7644
oyke	7645
hanie	7646
pltn	7647
360	7648
doro	7649
dbl	7650
aulay	7651
nihil	7652
nghad	7653
akule	7654
leix	7655
vvip	7656
aib	7657
cim	7658
dum	7659
lma	7660
mok	7661
mdi	7662
ober	7663
tdc	7664
uika	7665
wes	7666
xl	7667
xpo	7668
##ku	7669
##hia	7670
##ame	7671
inka	7672
unat	7673
terja	7674
ngu	7675
erpe	7676
labo	7677
elvi	7678
reak	7679
uktu	7680
ider	7681
idha	7682
agat	7683
agir	7684
udes	7685
manul	7686
nola	7687
ebrak	7688
iaea	7689
sode	7690
##rem	7691
rph	7692
eppy	7693
yod	7694
food	7695
ecar	7696
rine	7697
azair	7698
vide	7699
iger	7700
iguna	7701
adewa	7702
netra	7703
djka	7704
naker	7705
erawa	7706
elif	7707
eller	7708
ktato	7709
bsah	7710
antet	7711
ixed	7712
sedan	7713
buhan	7714
factu	7715
cpo	7716
dly	7717
fra	7718
hur	7719
iot	7720
mta	7721
oiko	7722
qil	7723
tma	7724
uap	7725
##ks	7726
##ss	7727
diter	7728
##ase	7729
erin	7730
arina	7731
alya	7732
neta	7733
isto	7734
oria	7735
emara	7736
mpit	7737
elaku	7738
elki	7739
lear	7740
idar	7741
pote	7742
abang	7743
utte	7744
deau	7745
ular	7746
udhi	7747
irup	7748
irna	7749
engh	7750
ayne	7751
andum	7752
gaul	7753
iaw	7754
suar	7755
publ	7756
suru	7757
ipw	7758
sekal	7759
oby	7760
ajut	7761
otan	7762
ramil	7763
natal	7764
114	7765
135	7766
erdon	7767
ezze	7768
budak	7769
blk	7770
pdr	7771
aids	7772
kukuh	7773
dore	7774
bpjph	7775
iddle	7776
ubhol	7777
ubjek	7778
ezzec	7779
bw	7780
bim	7781
cd	7782
gde	7783
hza	7784
iis	7785
jor	7786
lara	7787
lud	7788
rra	7789
rda	7790
tad	7791
udak	7792
wani	7793
yes	7794
yomo	7795
zak	7796
##ep	7797
##ner	7798
##bm	7799
inang	7800
tech	7801
tiek	7802
akah	7803
##ess	7804
amma	7805
laah	7806
isè	7807
ndan	7808
ely	7809
ries	7810
rime	7811
usar	7812
umta	7813
karen	7814
itt	7815
ontak	7816
imm	7817
agasi	7818
lie	7819
stal	7820
stis	7821
ulap	7822
omz	7823
mane	7824
loc	7825
esq	7826
bot	7827
ebam	7828
konek	7829
town	7830
etra	7831
surv	7832
holar	7833
ibe	7834
ksu	7835
ucun	7836
parta	7837
skk	7838
rsih	7839
wij	7840
pkpu	7841
calo	7842
artis	7843
oem	7844
115	7845
uria	7846
rhas	7847
bpt	7848
slb	7849
ermai	7850
mck	7851
nakho	7852
araka	7853
lpdp	7854
rits	7855
bssn	7856
argon	7857
750	7858
oeld	7859
hlak	7860
cfd	7861
ttery	7862
wfp	7863
gnec	7864
aquf	7865
emurr	7866
jaib	7867
tmii	7868
cung	7869
gno	7870
jt	7871
lda	7872
oard	7873
rnas	7874
tabo	7875
utur	7876
wtp	7877
zas	7878
##bd	7879
##sp	7880
##wei	7881
seju	7882
menta	7883
inha	7884
tersa	7885
eris	7886
erha	7887
alung	7888
nep	7889
ispa	7890
elf	7891
elur	7892
rias	7893
rium	7894
urq	7895
itn	7896
naz	7897
roki	7898
jaj	7899
harjo	7900
uly	7901
trit	7902
ncini	7903
udong	7904
uput	7905
acc	7906
lodo	7907
noah	7908
ruah	7909
esut	7910
yanti	7911
airs	7912
rp5	7913
ibh	7914
ipm	7915
ptk	7916
fox	7917
elay	7918
sky	7919
ajal	7920
103	7921
102	7922
shot	7923
rger	7924
##mbg	7925
rise	7926
tapa	7927
azda	7928
aluw	7929
waty	7930
pessy	7931
mitr	7932
rwana	7933
briel	7934
selir	7935
ilei	7936
eneca	7937
ortel	7938
ough	7939
hilal	7940
nanas	7941
ritz	7942
gamus	7943
gnat	7944
##fie	7945
tten	7946
shima	7947
tyas	7948
nadah	7949
ovie	7950
aufal	7951
kcic	7952
fwd	7953
rowth	7954
uipm	7955
tabol	7956
3t	7957
cis	7958
cbp	7959
ddi	7960
fhu	7961
gina	7962
ladi	7963
lba	7964
meri	7965
ntim	7966
stur	7967
scu	7968
tuka	7969
wana	7970
##ane	7971
ngon	7972
enari	7973
saf	7974
olat	7975
isney	7976
aslu	7977
ndom	7978
orgol	7979
emut	7980
ried	7981
iton	7982
iting	7983
idan	7984
buta	7985
irga	7986
irun	7987
irai	7988
irama	7989
upon	7990
loch	7991
ubak	7992
ebres	7993
oppen	7994
yany	7995
bies	7996
rp2	7997
rdju	7998
cian	7999
osm	8000
mix	8001
evy	8002
echo	8003
dakim	8004
goda	8005
ioc	8006
tpt	8007
rcia	8008
113	8009
ruth	8010
tasia	8011
phia	8012
lilin	8013
kpm	8014
etop	8015
hrir	8016
nze	8017
apper	8018
fkub	8019
mgm	8020
kibar	8021
ldii	8022
solok	8023
ursus	8024
rthur	8025
pvmbg	8026
halie	8027
kfurt	8028
yomi	8029
fhui	8030
).	8031
aed	8032
bana	8033
bita	8034
eil	8035
ejan	8036
gamb	8037
kja	8038
lali	8039
mj	8040
nnu	8041
rmen	8042
sru	8043
vol	8044
yung	8045
yted	8046
zr	8047
zul	8048
##chi	8049
##vs	8050
anrem	8051
dilah	8052
ined	8053
##ily	8054
tew	8055
tih	8056
##use	8057
alad	8058
mbuk	8059
oles	8060
oline	8061
sic	8062
issa	8063
asy	8064
asul	8065
tax	8066
atty	8067
indi	8068
indai	8069
mpong	8070
elli	8071
ride	8072
usana	8073
usma	8074
rew	8075
iky	8076
rogo	8077
imur	8078
abs	8079
abut	8080
atua	8081
sther	8082
paj	8083
bob	8084
gaet	8085
patan	8086
suara	8087
rten	8088
rtam	8089
rsai	8090
rson	8091
hoal	8092
hohi	8093
kso	8094
pprt	8095
ppln	8096
uhid	8097
obes	8098
hent	8099
evp	8100
heu	8101
heo	8102
goyah	8103
ronco	8104
ombol	8105
ioh	8106
rasto	8107
ekank	8108
glow	8109
huma	8110
pnbp	8111
ensen	8112
eog	8113
arci	8114
kpp	8115
stip	8116
blet	8117
alela	8118
rito	8119
tbc	8120
nado	8121
idie	8122
fks	8123
urunk	8124
tnbt	8125
licot	8126
oirul	8127
ville	8128
okky	8129
ayyip	8130
kobar	8131
3d	8132
aet	8133
cum	8134
cine	8135
duat	8136
dkp	8137
eut	8138
fd	8139
hf	8140
ieng	8141
iek	8142
lade	8143
mono	8144
mne	8145
nib	8146
oul	8147
svp	8148
uadi	8149
yri	8150
yna	8151
##ky	8152
##lai	8153
##my	8154
mente	8155
pedi	8156
kanak	8157
erik	8158
ergu	8159
titu	8160
koso	8161
arv	8162
##ite	8163
olas	8164
mpet	8165
ukus	8166
kamla	8167
tahik	8168
ilir	8169
asio	8170
agre	8171
hare	8172
utt	8173
dea	8174
deco	8175
semia	8176
grc	8177
mine	8178
hane	8179
ubun	8180
ebti	8181
iaf	8182
iag	8183
diser	8184
etr	8185
pui	8186
rpm	8187
ipar	8188
sps	8189
rdp	8190
nere	8191
105	8192
osh	8193
nser	8194
ech	8195
rista	8196
tapea	8197
psht	8198
ivf	8199
songo	8200
enden	8201
uawei	8202
dukun	8203
incin	8204
etung	8205
urant	8206
ermo	8207
isku	8208
ewis	8209
imax	8210
jukk	8211
gangk	8212
kesu	8213
habi	8214
ripik	8215
tbs	8216
lyn	8217
tuti	8218
khiri	8219
murah	8220
kwp	8221
kjri	8222
zoo	8223
uild	8224
arfur	8225
ynote	8226
lpei	8227
duate	8228
5g	8229
aber	8230
bike	8231
cen	8232
cta	8233
dong	8234
eca	8235
hz	8236
iata	8237
ied	8238
jc	8239
jn	8240
j9	8241
kka	8242
kki	8243
ldo	8244
lkpp	8245
madi	8246
neng	8247
oong	8248
tte	8249
wt	8250
yama	8251
##cut	8252
##der	8253
##gb	8254
##lan	8255
##bhi	8256
key	8257
dane	8258
unni	8259
kole	8260
arw	8261
olit	8262
tawan	8263
emeri	8264
riuh	8265
umus	8266
umuh	8267
ukas	8268
ukis	8269
naati	8270
ikar	8271
ikal	8272
rog	8273
rogol	8274
ekik	8275
##raf	8276
abab	8277
razy	8278
kuak	8279
ulf	8280
jaks	8281
edib	8282
load	8283
ambon	8284
ruz	8285
eblos	8286
patk	8287
nyam	8288
nerba	8289
obok	8290
dow	8291
ifi	8292
ifat	8293
fie	8294
efa	8295
maluk	8296
jip	8297
pst	8298
got	8299
gasah	8300
burgh	8301
embuk	8302
sdg	8303
tikai	8304
binsa	8305
ryst	8306
tabe	8307
iyas	8308
fere	8309
pho	8310
soro	8311
tpst	8312
layat	8313
anks	8314
vers	8315
ragih	8316
luma	8317
ailul	8318
ngap	8319
vanza	8320
luts	8321
imos	8322
rmain	8323
bmmn	8324
erbuk	8325
roper	8326
tsm	8327
ylbhi	8328
fidz	8329
fp1	8330
rrow	8331
mblas	8332
ptsl	8333
urqon	8334
j99	8335
aas	8336
bdi	8337
c1	8338
cdc	8339
iad	8340
jol	8341
kwa	8342
lju	8343
lena	8344
mv	8345
m2	8346
##ui	8347
##ds	8348
##hon	8349
anf	8350
unu	8351
unar	8352
ngang	8353
erun	8354
teur	8355
akap	8356
mbz	8357
saac	8358
isb	8359
ison	8360
isha	8361
lex	8362
lema	8363
rich	8364
urt	8365
roe	8366
antal	8367
antah	8368
liq	8369
abg	8370
ulka	8371
trek	8372
udari	8373
enger	8374
daan	8375
child	8376
meli	8377
rpmk	8378
iptu	8379
eper	8380
epok	8381
yoso	8382
wagen	8383
staz	8384
down	8385
co2	8386
cela	8387
cijan	8388
106	8389
rusah	8390
ecet	8391
hem	8392
oten	8393
rami	8394
nale	8395
puty	8396
syana	8397
pkt	8398
igd	8399
oep	8400
aug	8401
iyung	8402
phri	8403
lare	8404
smana	8405
oost	8406
bondo	8407
ezbol	8408
iez	8409
enyak	8410
enyam	8411
sili	8412
lpha	8413
olipa	8414
blt	8415
digit	8416
leret	8417
enalk	8418
arkus	8419
kuhap	8420
mms	8421
snur	8422
kjmu	8423
metri	8424
ease	8425
ocky	8426
pcnu	8427
jkn	8428
midi	8429
737	8430
yekh	8431
mafma	8432
nnual	8433
iyasu	8434
b2	8435
cita	8436
dalah	8437
eik	8438
epa	8439
fah	8440
hh	8441
hko	8442
item	8443
jh	8444
ltik	8445
nb	8446
oeng	8447
pwi	8448
tpk	8449
uber	8450
wala	8451
yus	8452
zh	8453
zum	8454
##og	8455
##lh	8456
##bot	8457
anni	8458
inul	8459
berga	8460
tela	8461
##uti	8462
akso	8463
arwin	8464
allo	8465
mburg	8466
adad	8467
ahmi	8468
apo	8469
mpv	8470
ungs	8471
jua	8472
rejo	8473
urin	8474
ille	8475
roa	8476
dean	8477
raz	8478
##set	8479
hania	8480
uplai	8481
hao	8482
kerto	8483
daf	8484
esat	8485
afd	8486
nife	8487
lahk	8488
iban	8489
ksan	8490
ksin	8491
epy	8492
spi	8493
obar	8494
anch	8495
dos	8496
door	8497
ify	8498
ifter	8499
rekat	8500
rust	8501
rinah	8502
heel	8503
faz	8504
geta	8505
azak	8506
papa	8507
matu	8508
bbl	8509
iraj	8510
ryo	8511
270	8512
antum	8513
abuan	8514
emicu	8515
eiz	8516
lpka	8517
lunas	8518
mosir	8519
ritno	8520
uii	8521
suna	8522
dayu	8523
umpuh	8524
bpkad	8525
nadya	8526
rlan	8527
innor	8528
waii	8529
pmkri	8530
fhnk	8531
eptis	8532
ucker	8533
cycle	8534
curk	8535
bbpvp	8536
anare	8537
tnbts	8538
00	8539
b3	8540
bfor	8541
dwan	8542
eba	8543
fni	8544
fkp	8545
hgu	8546
hro	8547
igai	8548
jw	8549
kik	8550
lx	8551
mmi	8552
nni	8553
pari	8554
ske	8555
twa	8556
yman	8557
zam	8558
##km	8559
##per	8560
##gy	8561
see	8562
##yai	8563
##ino	8564
peak	8565
erda	8566
aktik	8567
arra	8568
alsa	8569
enb	8570
enek	8571
##oni	8572
mbent	8573
amul	8574
add	8575
adas	8576
oling	8577
olet	8578
apd	8579
apus	8580
siman	8581
indad	8582
legi	8583
uky	8584
ilman	8585
itz	8586
roz	8587
agk	8588
abl	8589
utis	8590
jaka	8591
haw	8592
andir	8593
soj	8594
rshs	8595
opet	8596
ppo	8597
nfi	8598
rkat	8599
genre	8600
dog	8601
rodu	8602
ajam	8603
jend	8604
fee	8605
rahar	8606
sher	8607
shak	8608
hea	8609
hev	8610
oths	8611
ized	8612
pkpa	8613
sons	8614
dry	8615
tono	8616
arty	8617
tpd	8618
watu	8619
ogok	8620
humer	8621
ilmar	8622
lukis	8623
netw	8624
lps	8625
onete	8626
qui	8627
uiz	8628
ukaan	8629
onder	8630
ttack	8631
odoh	8632
ttah	8633
mral	8634
tmmd	8635
emui	8636
kuni	8637
anner	8638
340	8639
uyen	8640
ebuah	8641
dbor	8642
ssim	8643
stuti	8644
apec	8645
gede	8646
hayne	8647
axi	8648
almco	8649
loyee	8650
mbles	8651
arwis	8652
aika	8653
aeni	8654
df	8655
eak	8656
egaw	8657
fti	8658
gapa	8659
hny	8660
jch	8661
jono	8662
kati	8663
lc	8664
pali	8665
rpa	8666
smb	8667
tsu	8668
wir	8669
xu	8670
xy	8671
yk	8672
andak	8673
##tui	8674
unto	8675
ngok	8676
akut	8677
angki	8678
enza	8679
amy	8680
##ith	8681
lavi	8682
prt	8683
itun	8684
apm	8685
siana	8686
isp	8687
ates	8688
mpal	8689
rior	8690
rion	8691
usan	8692
umere	8693
ilin	8694
itts	8695
ikti	8696
rope	8697
im3	8698
asiv	8699
liame	8700
uts	8701
stnk	8702
okom	8703
kusi	8704
##ett	8705
udap	8706
udus	8707
udget	8708
pred	8709
upus	8710
rupuk	8711
serd	8712
iane	8713
disku	8714
rsj	8715
rsang	8716
dpk	8717
dpkp	8718
dpmp	8719
hui	8720
nig	8721
ipan	8722
hiu	8723
hipo	8724
rdu	8725
khot	8726
alie	8727
rapen	8728
nseng	8729
nsur	8730
##lov	8731
pbi	8732
hee	8733
mall	8734
ramo	8735
azzi	8736
gosip	8737
endir	8738
rmat	8739
rcti	8740
149	8741
oger	8742
vian	8743
avel	8744
odena	8745
bpdp	8746
190	8747
pjs	8748
scbd	8749
260	8750
onton	8751
ouch	8752
ihom	8753
esaw	8754
mira	8755
ugup	8756
tvo	8757
empek	8758
dale	8759
kopi	8760
eena	8761
kkr	8762
nese	8763
ledge	8764
affar	8765
lomb	8766
351	8767
thium	8768
rrt	8769
lvy	8770
tcom	8771
alsh	8772
dzily	8773
nungg	8774
mpiun	8775
pintu	8776
erjee	8777
abora	8778
iblat	8779
alog	8780
iquid	8781
msil	8782
irdha	8783
rpjpd	8784
sojev	8785
bf	8786
basa	8787
dny	8788
fy	8789
gani	8790
gge	8791
iom	8792
ijar	8793
jia	8794
lz	8795
lulu	8796
osia	8797
oed	8798
pip	8799
rada	8800
sbi	8801
tda	8802
ttar	8803
ueno	8804
vy	8805
yore	8806
zra	8807
zmi	8808
##ren	8809
##jb	8810
anon	8811
diny	8812
sega	8813
insi	8814
une	8815
ngsa	8816
teen	8817
tie	8818
tio	8819
alek	8820
alet	8821
enon	8822
enjo	8823
mbs	8824
ollo	8825
aska	8826
ntini	8827
njol	8828
elni	8829
riak	8830
usada	8831
karna	8832
rec	8833
ilina	8834
ilton	8835
itera	8836
antz	8837
liat	8838
oker	8839
bandi	8840
tril	8841
udut	8842
irty	8843
ircle	8844
upas	8845
pack	8846
rupst	8847
ianna	8848
engen	8849
hae	8850
loom	8851
ubs	8852
ubato	8853
rucut	8854
gac	8855
ebe	8856
ebor	8857
char	8858
chel	8859
later	8860
latur	8861
impit	8862
impos	8863
ics	8864
etha	8865
afik	8866
arius	8867
osit	8868
airun	8869
kson	8870
rane	8871
anida	8872
sppd	8873
doza	8874
kebe	8875
coo	8876
104	8877
108	8878
pbhi	8879
otre	8880
risd	8881
lash	8882
laska	8883
faa	8884
rmin	8885
idola	8886
leppo	8887
aval	8888
phd	8889
smak	8890
ontok	8891
oopy	8892
utung	8893
garak	8894
fakt	8895
tafet	8896
blud	8897
more	8898
hmid	8899
pahit	8900
sruh	8901
xiv	8902
affa	8903
odot	8904
oyan	8905
oyce	8906
knk	8907
tmiko	8908
tsp	8909
mukti	8910
injai	8911
ddap	8912
arren	8913
epubl	8914
cfx	8915
embay	8916
erger	8917
there	8918
wfh	8919
eroni	8920
nackv	8921
pdns	8922
agreg	8923
bko	8924
blu	8925
dpa	8926
e5	8927
gpa	8928
hsa	8929
jbb	8930
klah	8931
lng	8932
lkam	8933
mto	8934
nza	8935
ppat	8936
rga	8937
rji	8938
uqi	8939
wom	8940
wck	8941
yb	8942
##rs	8943
##ms	8944
##hur	8945
anati	8946
##all	8947
menan	8948
##ile	8949
akter	8950
albe	8951
##ond	8952
mbua	8953
##tip	8954
olver	8955
apid	8956
ats	8957
atti	8958
mpm	8959
mplo	8960
elir	8961
usg	8962
uspen	8963
kart	8964
ilek	8965
idin	8966
onek	8967
abm	8968
raca	8969
kay	8970
nch	8971
egr	8972
irik	8973
haf	8974
aye	8975
noa	8976
ambia	8977
dawa	8978
pasu	8979
tania	8980
dist	8981
icuh	8982
etas	8983
lanca	8984
airi	8985
rp3	8986
ipo	8987
ipad	8988
ppih	8989
epot	8990
under	8991
onge	8992
rdji	8993
doha	8994
olot	8995
kipp	8996
uard	8997
nsp	8998
miz	8999
nark	9000
entak	9001
klan	9002
klum	9003
rish	9004
izen	9005
putro	9006
pkm	9007
121	9008
azing	9009
iov	9010
kutat	9011
sumay	9012
alaf	9013
271	9014
phe	9015
pjr	9016
kilas	9017
ridge	9018
ansas	9019
ansah	9020
eye	9021
ihar	9022
ardj	9023
ntit	9024
suko	9025
empol	9026
kusum	9027
bsyi	9028
kky	9029
likem	9030
lome	9031
ulaga	9032
yep	9033
bmn	9034
bpkn	9035
##hei	9036
338	9037
ulkas	9038
hots	9039
orbes	9040
wangi	9041
indef	9042
650	9043
ydro	9044
gmni	9045
oussa	9046
cpmi	9047
okkes	9048
yikh	9049
reuen	9050
llery	9051
entol	9052
pubg	9053
wijk	9054
yungo	9055
lumaj	9056
eikal	9057
roach	9058
aeng	9059
basi	9060
bda	9061
cw	9062
cab	9063
cked	9064
deh	9065
djo	9066
flo	9067
gps	9068
hwa	9069
hine	9070
iada	9071
keng	9072
lina	9073
lbi	9074
oana	9075
py	9076
s3	9077
sro	9078
sno	9079
tka	9080
tno	9081
vk	9082
vest	9083
wk	9084
wad	9085
wor	9086
wto	9087
xa	9088
ype	9089
zim	9090
zhi	9091
##cha	9092
##pr	9093
##ob	9094
##oy	9095
##gar	9096
##lis	9097
##ven	9098
##vsi	9099
##hp	9100
anil	9101
##ene	9102
seva	9103
menk	9104
erome	9105
tiar	9106
perg	9107
akab	9108
alama	9109
aleka	9110
ennis	9111
mbom	9112
ahid	9113
olp	9114
olia	9115
assi	9116
asnya	9117
tay	9118
orat	9119
orita	9120
ating	9121
##way	9122
mpp	9123
leta	9124
leman	9125
reas	9126
resia	9127
reho	9128
ukuk	9129
ingg	9130
ilw	9131
ilwa	9132
ilid	9133
ilter	9134
roh	9135
rouri	9136
ekon	9137
imip	9138
asic	9139
agul	9140
liz	9141
atum	9142
okim	9143
raa	9144
ncoro	9145
lux	9146
udono	9147
mojo	9148
esy	9149
eby	9150
late	9151
guy	9152
##key	9153
nyia	9154
##ree	9155
huck	9156
niya	9157
ranca	9158
epto	9159
epet	9160
waini	9161
parti	9162
skpd	9163
oblo	9164
khar	9165
meron	9166
ratya	9167
anafi	9168
tory	9169
shan	9170
rink	9171
sanak	9172
heet	9173
onst	9174
pkh	9175
azza	9176
ringk	9177
imbim	9178
rono	9179
arton	9180
jaten	9181
matum	9182
169	9183
urip	9184
ally	9185
133	9186
134	9187
bkb	9188
bpi	9189
bph	9190
bpvp	9191
djbc	9192
smani	9193
eyond	9194
orogo	9195
iduan	9196
uzman	9197
tlas	9198
cken	9199
mahk	9200
lmas	9201
kppu	9202
nanya	9203
esih	9204
lpp	9205
lpck	9206
ltah	9207
moro	9208
dalas	9209
msg	9210
mss	9211
ngaw	9212
kkmb	9213
hnw	9214
umpal	9215
ttal	9216
agos	9217
tmc	9218
annon	9219
holm	9220
euf	9221
veen	9222
gluk	9223
pdtt	9224
##zyn	9225
uoev	9226
arbor	9227
tzu	9228
nriq	9229
cimb	9230
erint	9231
lzhei	9232
mplop	9233
3x	9234
5k	9235
aung	9236
aeo	9237
auran	9238
cra	9239
dlu	9240
firi	9241
hne	9242
iñ	9243
ihi	9244
jj	9245
kv	9246
kuli	9247
mx	9248
oah	9249
oun	9250
oap	9251
oud	9252
oxy	9253
p2	9254
png	9255
rly	9256
rade	9257
sbn	9258
ving	9259
wono	9260
wyn	9261
yt	9262
yf	9263
yz	9264
zza	9265
##du	9266
##dj	9267
##ls	9268
##vy	9269
##war	9270
##qa	9271
anne	9272
anley	9273
sean	9274
sehi	9275
pew	9276
pear	9277
undak	9278
terh	9279
ngana	9280
ersia	9281
erpa	9282
artu	9283
araga	9284
angor	9285
aler	9286
alina	9287
env	9288
enit	9289
ench	9290
adb	9291
adya	9292
penan	9293
ahb	9294
apek	9295
apot	9296
ntr	9297
ntam	9298
oron	9299
emena	9300
ushu	9301
umrah	9302
jug	9303
reo	9304
ukee	9305
ilas	9306
ilul	9307
idih	9308
idji	9309
imus	9310
stine	9311
deal	9312
ngger	9313
oks	9314
kuas	9315
kuza	9316
egon	9317
omar	9318
rbie	9319
loan	9320
uban	9321
esai	9322
essa	9323
ebt	9324
dison	9325
suu	9326
turi	9327
rsya	9328
dps	9329
hoh	9330
hock	9331
mulat	9332
mulya	9333
litas	9334
ips	9335
woong	9336
yaz	9337
ptt	9338
spm	9339
elabu	9340
skm	9341
sumed	9342
101	9343
107	9344
alius	9345
mice	9346
anaje	9347
ship	9348
pbvsi	9349
eci	9350
trict	9351
oth	9352
klumi	9353
gema	9354
pkp	9355
goa	9356
goh	9357
ige	9358
brt	9359
inois	9360
ombok	9361
golak	9362
embel	9363
pelni	9364
tpdi	9365
eley	9366
matir	9367
117	9368
plas	9369
plrt	9370
142	9371
132	9372
iapan	9373
ganas	9374
aving	9375
210	9376
smaya	9377
eneg	9378
ouin	9379
ensit	9380
garut	9381
mcg	9382
ssur	9383
ouri	9384
iht	9385
ccs	9386
kmil	9387
imaj	9388
lair	9389
romat	9390
ungag	9391
mpau	9392
rigan	9393
awipa	9394
tbrc	9395
kopol	9396
imic	9397
ackup	9398
like	9399
rief	9400
asino	9401
hrur	9402
tmoko	9403
trop	9404
sito	9405
bukit	9406
dorf	9407
dkm	9408
ghurt	9409
bjp	9410
steo	9411
zec	9412
ovem	9413
bird	9414
imula	9415
firma	9416
gsp	9417
pskc	9418
nrang	9419
dtw	9420
asbor	9421
ycko	9422
peech	9423
kilau	9424
megah	9425
aedar	9426
%,	9427
bfi	9428
dab	9429
eud	9430
fé	9431
fda	9432
gika	9433
lq	9434
lre	9435
lry	9436
mti	9437
nha	9438
oca	9439
pgr	9440
q2	9441
qat	9442
sani	9443
tki	9444
vw	9445
wam	9446
xon	9447
yeh	9448
##kb	9449
##lb	9450
##lit	9451
##ble	9452
##xe	9453
keda	9454
inna	9455
berik	9456
erap	9457
kowi	9458
akd	9459
enom	9460
itul	9461
itudo	9462
apto	9463
atbot	9464
emok	9465
indhu	9466
mple	9467
elor	9468
elman	9469
riv	9470
usb	9471
umla	9472
ukk	9473
ilon	9474
nawa	9475
roc	9476
roup	9477
roid	9478
lick	9479
lipi	9480
utik	9481
dela	9482
##tol	9483
rach	9484
trol	9485
egy	9486
edor	9487
udori	9488
buck	9489
rbasi	9490
upit	9491
hase	9492
paw	9493
acka	9494
nopo	9495
uby	9496
dawu	9497
espo	9498
gunan	9499
patut	9500
chp	9501
topo	9502
ict	9503
icon	9504
suria	9505
rscm	9506
hukr	9507
insen	9508
ppj	9509
ppy	9510
yafi	9511
dob	9512
doolo	9513
rikil	9514
khta	9515
inago	9516
sakan	9517
mipc	9518
fiz	9519
rind	9520
hef	9521
hedi	9522
otin	9523
other	9524
ejit	9525
127	9526
uate	9527
brat	9528
elod	9529
ombe	9530
eriod	9531
ndaan	9532
tpl	9533
pest	9534
bbw	9535
avy	9536
tumo	9537
oder	9538
odol	9539
230	9540
sco	9541
280	9542
fifg	9543
kbs	9544
umio	9545
zaen	9546
ihc	9547
rizon	9548
ersen	9549
ainya	9550
mdal	9551
uwm	9552
tvs	9553
print	9554
grid	9555
jungp	9556
outt	9557
rris	9558
oyong	9559
raba	9560
knai	9561
mrp	9562
lvi	9563
city	9564
ubug	9565
mpuan	9566
ssis	9567
said	9568
glas	9569
gym	9570
pcx	9571
atmod	9572
seig	9573
ofian	9574
lanie	9575
bhik	9576
nemia	9577
lavon	9578
broto	9579
cgv	9580
sched	9581
jime	9582
ettha	9583
hudan	9584
lpduk	9585
gnos	9586
spsl	9587
iady	9588
lavio	9589
knkt	9590
hneid	9591
qatar	9592
aek	9593
aisi	9594
bhum	9595
dg	9596
dter	9597
dono	9598
eur	9599
geri	9600
gkp	9601
hek	9602
iai	9603
jdi	9604
kbp	9605
kzul	9606
lga	9607
mman	9608
nasa	9609
oedy	9610
phi	9611
puro	9612
rka	9613
rfie	9614
sdi	9615
song	9616
thir	9617
wj	9618
wer	9619
wzi	9620
zzi	9621
##den	9622
##ger	9623
##gur	9624
##gra	9625
##lp	9626
##nd	9627
anua	9628
inp	9629
##ink	9630
peb	9631
##ill	9632
erih	9633
erth	9634
teg	9635
akk	9636
argas	9637
arge	9638
##ume	9639
enik	9640
enur	9641
baz	9642
bage	9643
mbire	9644
##tih	9645
init	9646
inix	9647
ador	9648
adoma	9649
olf	9650
olor	9651
lac	9652
pria	9653
sima	9654
ishi	9655
asum	9656
ndul	9657
##gie	9658
atil	9659
atel	9660
emai	9661
mph	9662
mpek	9663
##ibi	9664
urrah	9665
uke	9666
ukik	9667
iles	9668
ikd	9669
ikw	9670
beg	9671
roch	9672
onna	9673
mage	9674
life	9675
abyan	9676
desi	9677
okh	9678
trok	9679
oment	9680
irad	9681
caraz	9682
haq	9683
hawa	9684
losi	9685
loyo	9686
ambur	9687
ubel	9688
estor	9689
andek	9690
bod	9691
gaik	9692
halat	9693
chuse	9694
tos	9695
marah	9696
soe	9697
rsha	9698
nyu	9699
dpup	9700
afal	9701
ibr	9702
ibit	9703
mulih	9704
emaju	9705
skt	9706
ongr	9707
anci	9708
siapk	9709
cod	9710
ompi	9711
cef	9712
nst	9713
##lot	9714
caust	9715
ntuah	9716
risud	9717
risto	9718
nate	9719
202	9720
izar	9721
izka	9722
jarm	9723
sona	9724
godo	9725
ofwan	9726
ofob	9727
endap	9728
156	9729
157	9730
arez	9731
ronto	9732
rasan	9733
erken	9734
antos	9735
catl	9736
oedi	9737
rchi	9738
plta	9739
plbn	9740
144	9741
sell	9742
dici	9743
libli	9744
lusin	9745
ourse	9746
lissa	9747
ldren	9748
rizal	9749
lone	9750
usei	9751
acker	9752
lld	9753
llan	9754
thius	9755
rayu	9756
hino	9757
sbane	9758
stop	9759
rlina	9760
seger	9761
ntern	9762
550	9763
nafas	9764
waid	9765
azaar	9766
uite	9767
colm	9768
eeren	9769
arbol	9770
sjh	9771
csis	9772
rough	9773
upnv	9774
bptd	9775
alsaf	9776
ppatk	9777
3x3	9778
bhumi	9779
3r	9780
4g	9781
5x	9782
bla	9783
bmi	9784
cess	9785
ftar	9786
fpi	9787
fgh	9788
ggi	9789
gati	9790
gho	9791
ipk	9792
kari	9793
kud	9794
kwan	9795
kmi	9796
liki	9797
lfe	9798
mya	9799
maya	9800
mhu	9801
p3	9802
pni	9803
pli	9804
q1	9805
xvi	9806
yla	9807
ypa	9808
zen	9809
zis	9810
##sr	9811
##hd	9812
aning	9813
dien	9814
sef	9815
erung	9816
erde	9817
perj	9818
koma	9819
arp	9820
arsi	9821
alut	9822
alom	9823
##isa	9824
sao	9825
ammi	9826
olin	9827
siba	9828
ndc	9829
oraya	9830
aton	9831
eler	9832
lea	9833
ushi	9834
urka	9835
itta	9836
iken	9837
ikri	9838
bev	9839
beti	9840
idn	9841
onkey	9842
ekl	9843
ekap	9844
jaz	9845
asim	9846
agor	9847
agra	9848
hart	9849
liv	9850
lien	9851
abet	9852
utton	9853
stom	9854
dewi	9855
nggan	9856
banj	9857
ampan	9858
ulur	9859
belo	9860
##eth	9861
udo	9862
oms	9863
omas	9864
irs	9865
minto	9866
hanna	9867
hav	9868
nopi	9869
ubasi	9870
daun	9871
moot	9872
boel	9873
bock	9874
gacy	9875
kelo	9876
topa	9877
etri	9878
mars	9879
lande	9880
hoe	9881
hof	9882
niti	9883
gigi	9884
ible	9885
isil	9886
pping	9887
ranat	9888
rdin	9889
thal	9890
jeli	9891
rapbn	9892
mian	9893
evri	9894
bentu	9895
rahim	9896
fied	9897
lake	9898
mami	9899
##dog	9900
otk	9901
klm	9902
izza	9903
123	9904
jeon	9905
mater	9906
hito	9907
idow	9908
base	9909
119	9910
111	9911
116	9912
141	9913
249	9914
171	9915
175	9916
odz	9917
buni	9918
phr	9919
220	9920
225	9921
adui	9922
agrak	9923
ezer	9924
ourne	9925
listr	9926
ldp	9927
hile	9928
hili	9929
roket	9930
esit	9931
ersan	9932
quad	9933
mdani	9934
dulf	9935
acau	9936
ampub	9937
pdp	9938
llaz	9939
grib	9940
weet	9941
racy	9942
mayu	9943
fles	9944
rry	9945
hyd	9946
sink	9947
tton	9948
cants	9949
core	9950
talo	9951
goron	9952
egawa	9953
majal	9954
pect	9955
nner	9956
pink	9957
eaty	9958
avier	9959
biru	9960
erjal	9961
cash	9962
rliah	9963
guay	9964
poks	9965
ussel	9966
djie	9967
ergen	9968
thout	9969
ozak	9970
xviii	9971
skop	9972
rogoh	9973
jcb	9974
isbat	9975
oepar	9976
iadab	9977
eudr	9978
pgris	9979
rocus	9980
aura	9981
bdo	9982
eq	9983
eong	9984
f1	9985
fter	9986
fiba	9987
gd	9988
gok	9989
hkp	9990
iha	9991
lup	9992
lka	9993
lza	9994
m6	9995
mjo	9996
niki	9997
nre	9998
oen	9999
