[UNK]	0
[CLS]	1
[SEP]	2
[PAD]	3
[MASK]	4
!	5
"	6
#	7
$	8
%	9
&	10
'	11
(	12
)	13
*	14
+	15
,	16
-	17
.	18
/	19
0	20
1	21
2	22
3	23
4	24
5	25
6	26
7	27
8	28
9	29
:	30
;	31
<	32
=	33
>	34
?	35
@	36
[	37
\	38
]	39
_	40
`	41
a	42
b	43
c	44
d	45
e	46
f	47
g	48
h	49
i	50
j	51
k	52
l	53
m	54
n	55
o	56
p	57
q	58
r	59
s	60
t	61
u	62
v	63
w	64
x	65
y	66
z	67
£	68
®	69
°	70
±	71
·	72
×	73
à	74
á	75
â	76
ã	77
ä	78
ç	79
è	80
é	81
ê	82
ë	83
ì	84
í	85
ï	86
ð	87
ñ	88
ò	89
ó	90
ô	91
õ	92
ö	93
ø	94
ú	95
ü	96
ā	97
ć	98
ę	99
ğ	100
ı	101
ķ	102
ł	103
ś	104
ş	105
š	106
ơ	107
ư	108
̇	109
α	110
η	111
μ	112
τ	113
‍	114
‎	115
•	116
′	117
⁄	118
⁠	119
€	120
−	121
≥	122
丽	123
安	124
洪	125
金	126
陈	127
🍌	128
😊	129
😭	130
🤲	131
##2	132
##4	133
##u	134
##r	135
##a	136
##d	137
##n	138
##y	139
##e	140
##g	141
##t	142
##i	143
##l	144
##f	145
##o	146
##k	147
##s	148
##m	149
##h	150
##b	151
##v	152
##z	153
##p	154
##w	155
##j	156
##c	157
##"	158
##q	159
##5	160
##x	161
##1	162
##0	163
##7	164
##8	165
##é	166
##6	167
##_	168
##ó	169
##3	170
##.	171
##á	172
##9	173
##ü	174
##+	175
##-	176
##,	177
##â	178
##@	179
##í	180
##ç	181
##ı	182
##′	183
##'	184
##/	185
##ã	186
##ö	187
##)	188
##š	189
##>	190
##ñ	191
##ô	192
##?	193
##ë	194
##ú	195
##ķ	196
##:	197
##ä	198
##‎	199
##*	200
##!	201
##ş	202
###	203
##è	204
##]	205
##ò	206
##ø	207
##ā	208
##ś	209
##ę	210
##ğ	211
##ê	212
##;	213
##$	214
##τ	215
##ć	216
##ï	217
##😭	218
##ì	219
##<	220
##金	221
##丽	222
##±	223
##õ	224
##ư	225
##ơ	226
##🤲	227
##̇	228
##[	229
##an	230
##er	231
##en	232
##ar	233
##at	234
##ang	235
##ak	236
##as	237
##al	238
##ah	239
##in	240
di	241
##em	242
##am	243
men	244
##el	245
##kan	246
##un	247
##tu	248
##si	249
##ya	250
##ad	251
ke	252
se	253
##on	254
##ap	255
yang	256
##il	257
##ga	258
##ta	259
dan	260
ber	261
ter	262
in	263
##or	264
per	265
##ik	266
##eng	267
##ur	268
##is	269
##bu	270
##ing	271
##us	272
##asi	273
##es	274
##um	275
meng	276
##it	277
##ara	278
mem	279
##ung	280
##ari	281
un	282
##uk	283
##ti	284
##ol	285
##om	286
##ada	287
##im	288
20	289
##id	290
##akan	291
##ek	292
##ul	293
##ir	294
##nya	295
pen	296
pr	297
##ai	298
##tuk	299
pem	300
##ba	301
202	302
untuk	303
##alam	304
##ut	305
##da	306
##et	307
an	308
##gi	309
##engan	310
dengan	311
ini	312
##ber	313
##ih	314
##atan	315
sa	316
##angan	317
2024	318
dari	319
dalam	320
pada	321
itu	322
##ud	323
##ama	324
##esi	325
##wa	326
##ok	327
##adi	328
",	329
##se	330
sel	331
##eg	332
mel	333
mer	334
##ib	335
##ata	336
##up	337
##ja	338
##but	339
ba	340
##amp	341
##ter	342
##uh	343
##ukan	344
##ali	345
ind	346
##ri	347
##and	348
##arta	349
##eb	350
kep	351
peng	352
kem	353
##ab	354
##per	355
##ant	356
##ed	357
pro	358
meny	359
##ia	360
tid	361
mas	362
menj	363
la	364
ju	365
tidak	366
kam	367
##elah	368
##alah	369
##ian	370
##ra	371
##isi	372
##ana	373
##pat	374
##sebut	375
##ua	376
akan	377
##baga	378
##pn	379
sem	380
##ot	381
##onesi	382
indonesi	383
indonesia	384
tersebut	385
##eh	386
ser	387
##ent	388
##akarta	389
##aw	390
##angk	391
tah	392
##uan	393
bah	394
jpn	395
jpnn	396
ak	397
ko	398
pol	399
##bagai	400
ad	401
com	402
pel	403
bar	404
##ay	405
juga	406
##aran	407
).	408
nya	409
##atakan	410
as	411
##ub	412
sek	413
jakarta	414
##abu	415
wib	416
##ep	417
##asa	418
##ati	419
##ahan	420
##anj	421
##end	422
ol	423
kar	424
mend	425
kon	426
##akukan	427
##tr	428
tahun	429
##aan	430
kata	431
saat	432
##any	433
##alu	434
##apat	435
neg	436
##asan	437
##int	438
ada	439
##ena	440
sat	441
##ikan	442
menjadi	443
dia	444
##amb	445
##arga	446
or	447
al	448
ap	449
##cara	450
##alan	451
leb	452
##ala	453
pert	454
bis	455
mengatakan	456
##aj	457
sebagai	458
tim	459
##usi	460
kom	461
oleh	462
kami	463
sen	464
##had	465
##aya	466
##ungan	467
pas	468
##yar	469
bahwa	470
##eka	471
##ika	472
##anya	473
is	474
kota	475
be	476
telah	477
ag	478
##ingk	479
mereka	480
seb	481
##angg	482
##ina	483
kel	484
bisa	485
##ip	486
##tau	487
bagi	488
##ka	489
##ong	490
##itas	491
##ita	492
dil	493
lebih	494
orang	495
##udah	496
##ran	497
kor	498
##os	499
##ew	500
##ain	501
set	502
##onal	503
kepada	504
hari	505
atau	506
##ban	507
##ingga	508
har	509
peny	510
##api	511
ker	512
pemer	513
##ind	514
para	515
##asil	516
##ingg	517
##gr	518
##bang	519
##lah	520
##aman	521
ar	522
##ow	523
sur	524
pers	525
karena	526
##akat	527
negara	528
menc	529
satu	530
##aku	531
pe	532
ang	533
si	534
##og	535
##tas	536
##tem	537
sudah	538
ja	539
am	540
sej	541
##elum	542
##den	543
bers	544
##esar	545
##apa	546
saya	547
##uj	548
##yarakat	549
masyarakat	550
##utu	551
##od	552
##osi	553
##pr	554
##anyak	555
da	556
berk	557
jum	558
ri	559
adalah	560
##atkan	561
##jar	562
##op	563
dis	564
pemerint	565
##iri	566
##apan	567
pil	568
##inya	569
anak	570
melakukan	571
10	572
##ilik	573
lain	574
presi	575
setelah	576
pend	577
ant	578
ek	579
##orm	580
baru	581
##asih	582
tet	583
##urut	584
##ob	585
hal	586
su	587
##oh	588
##erah	589
member	590
presiden	591
##ungk	592
dir	593
wak	594
##aks	595
dik	596
##est	597
##angs	598
ch	599
##hadap	600
mar	601
tem	602
##aikan	603
##imp	604
ma	605
terhadap	606
mengg	607
um	608
##ini	609
dapat	610
##apkan	611
memper	612
st	613
kec	614
##arkan	615
##ov	616
##ima	617
dua	618
secara	619
hingga	620
##ni	621
##dang	622
rum	623
ti	624
ked	625
##asional	626
ujar	627
warga	628
##jadi	629
teng	630
jawa	631
pemil	632
kabu	633
##perti	634
kas	635
##paten	636
kabupaten	637
##han	638
ut	639
##res	640
beber	641
pemerintah	642
menurut	643
##emp	644
dit	645
ketu	646
##gram	647
selasa	648
des	649
##uti	650
sep	651
##mas	652
rabu	653
seperti	654
tr	655
##awan	656
pun	657
##hir	658
beberapa	659
##upakan	660
bali	661
##ic	662
rumah	663
senin	664
##unj	665
kemen	666
besar	667
ket	668
##ingan	669
##ihak	670
kamis	671
merupakan	672
memb	673
##ensi	674
##angat	675
masih	676
banyak	677
korban	678
salah	679
##anjut	680
sum	681
pihak	682
tan	683
ban	684
dep	685
##askan	686
##anan	687
band	688
harus	689
12	690
##enc	691
re	692
##di	693
##wan	694
membu	695
wil	696
jumat	697
lalu	698
en	699
dig	700
##bat	701
kh	702
nam	703
##alon	704
daerah	705
##ihan	706
##erja	707
dilakukan	708
11	709
serta	710
ketua	711
19	712
seh	713
memberikan	714
angg	715
##eri	716
##uran	717
##tur	718
selama	719
atas	720
gr	721
kasus	722
##iliki	723
hanya	724
##duk	725
mil	726
##tif	727
parta	728
ku	729
bersama	730
jat	731
##alui	732
##to	733
tengah	734
sebelum	735
##mi	736
##angsung	737
kese	738
##ses	739
##olo	740
melalui	741
pal	742
keter	743
pemb	744
##arang	745
##ag	746
##ayah	747
berh	748
##inan	749
##tri	750
##ukum	751
kita	752
##tor	753
isra	754
partai	755
med	756
namun	757
##ilan	758
baik	759
##emb	760
##uruh	761
israel	762
tak	763
##ulan	764
wilayah	765
##usia	766
dem	767
##itik	768
program	769
##angka	770
##ikasi	771
##ch	772
sama	773
keb	774
memiliki	775
kepala	776
hukum	777
kap	778
##usah	779
##pk	780
berl	781
##uar	782
##unan	783
##uda	784
##ota	785
##ting	786
##apor	787
sangat	788
00	789
res	790
terjadi	791
me	792
pes	793
##inggu	794
menye	795
bi	796
##form	797
##tikan	798
##owo	799
##teri	800
##ember	801
##inta	802
gu	803
dip	804
##ump	805
calon	806
##kait	807
sab	808
##era	809
##baya	810
antara	811
jadi	812
minggu	813
##itar	814
par	815
##ju	816
kr	817
barat	818
mak	819
mul	820
em	821
rp	822
##unia	823
man	824
kek	825
mah	826
terl	827
tent	828
hasil	829
so	830
kes	831
tetapi	832
bel	833
pan	834
jalan	835
dunia	836
samp	837
kemb	838
kan	839
##ilai	840
ing	841
menteri	842
terkait	843
##elar	844
selatan	845
##ki	846
sekitar	847
kembali	848
up	849
##lu	850
sabtu	851
15	852
pt	853
##wal	854
##ukung	855
terus	856
##unakan	857
pern	858
##orang	859
pp	860
ben	861
kerja	862
li	863
th	864
##uhan	865
tiga	866
##man	867
air	868
##gas	869
sura	870
seluruh	871
umum	872
##ec	873
##bar	874
inter	875
##ani	876
surabaya	877
produk	878
##ekerja	879
persen	880
sebu	881
prab	882
prabowo	883
meningk	884
##umlah	885
mengh	886
##ac	887
##uga	888
did	889
im	890
##ihat	891
terd	892
##ampaikan	893
nasional	894
berbagai	895
us	896
sebuah	897
30	898
persi	899
agar	900
##adan	901
kemud	902
kamp	903
##isasi	904
##su	905
menjel	906
##atang	907
anggota	908
pertama	909
##utus	910
keterangan	911
sejumlah	912
bandung	913
mendapat	914
kl	915
##aksi	916
seti	917
berd	918
##onom	919
ters	920
##udi	921
seorang	922
sement	923
sementara	924
pelaku	925
##sia	926
##kada	927
belum	928
wakil	929
pilkada	930
##ons	931
kons	932
16	933
##por	934
ia	935
kedua	936
##idikan	937
sedang	938
##anto	939
##unc	940
nom	941
semua	942
14	943
##inggal	944
din	945
kali	946
##uru	947
mana	948
suk	949
kemudian	950
jab	951
##ahkan	952
ung	953
##tim	954
put	955
##anc	956
ik	957
##amatan	958
ins	959
##ist	960
##lik	961
##oto	962
penc	963
##sa	964
##nur	965
pak	966
##ko	967
lok	968
timur	969
ok	970
##gaw	971
##iv	972
17	973
lainnya	974
eks	975
13	976
berb	977
##yata	978
sejak	979
kal	980
negeri	981
keseh	982
mes	983
rak	984
##asar	985
intern	986
bid	987
##masuk	988
##entu	989
nomor	990
penting	991
##uli	992
##apai	993
kesehatan	994
##ui	995
diper	996
pl	997
##inggi	998
guber	999
gubernur	1000
politik	1001
##usahaan	1002
tentang	1003
menyebut	1004
18	1005
21	1006
sis	1007
unit	1008
##formasi	1009
ab	1010
##nas	1011
##ea	1012
##uari	1013
cuk	1014
bak	1015
termasuk	1016
serangan	1017
min	1018
##unya	1019
polisi	1020
perusahaan	1021
##osial	1022
##ologi	1023
##utan	1024
##ij	1025
ah	1026
##ca	1027
##anti	1028
selain	1029
jok	1030
desa	1031
agus	1032
menghad	1033
pus	1034
".	1035
suara	1036
##araan	1037
##ula	1038
bulan	1039
depan	1040
terp	1041
luar	1042
##fa	1043
membuat	1044
##ampak	1045
##li	1046
ketika	1047
kegi	1048
##za	1049
sosial	1050
kegiatan	1051
pengg	1052
pemilu	1053
##pa	1054
sh	1055
memas	1056
buk	1057
china	1058
sebelumnya	1059
yak	1060
##men	1061
##mad	1062
##ft	1063
2023	1064
langsung	1065
hak	1066
waktu	1067
sehingga	1068
mal	1069
bagian	1070
kur	1071
tempat	1072
##tus	1073
bert	1074
komp	1075
tran	1076
akhir	1077
##iter	1078
23	1079
mulai	1080
bantu	1081
##amanan	1082
##encana	1083
sp	1084
pemain	1085
memba	1086
tek	1087
##und	1088
##insi	1089
menja	1090
##omp	1091
##na	1092
direk	1093
proses	1094
),	1095
##impin	1096
sk	1097
dpr	1098
##ibat	1099
el	1100
juta	1101
##atanya	1102
##bab	1103
tinggi	1104
kant	1105
##eo	1106
mener	1107
il	1108
##kap	1109
badan	1110
##atif	1111
te	1112
baw	1113
apa	1114
dim	1115
foto	1116
##antan	1117
malam	1118
##ersi	1119
bat	1120
##iran	1121
##pu	1122
katanya	1123
##akit	1124
amer	1125
mendukung	1126
dib	1127
##ev	1128
ham	1129
media	1130
##unjuk	1131
##tiv	1132
ger	1133
##akhir	1134
lagi	1135
kecamatan	1136
##usus	1137
duk	1138
seg	1139
##asis	1140
peremp	1141
25	1142
jika	1143
22	1144
perempuan	1145
bukan	1146
gol	1147
mengaku	1148
##jalan	1149
##terian	1150
dar	1151
kementerian	1152
khusus	1153
acara	1154
kaw	1155
##uni	1156
kend	1157
tersangka	1158
utama	1159
had	1160
er	1161
str	1162
id	1163
amerika	1164
saja	1165
lay	1166
meningkatkan	1167
berp	1168
kantor	1169
menyampaikan	1170
polres	1171
masa	1172
makan	1173
jel	1174
upaya	1175
pasangan	1176
ekonom	1177
perk	1178
utara	1179
##ono	1180
rek	1181
musi	1182
##yah	1183
nov	1184
##aian	1185
semarang	1186
##ungg	1187
201	1188
##alami	1189
menga	1190
pa	1191
trans	1192
pusat	1193
prov	1194
##enang	1195
tur	1196
##utusan	1197
penyel	1198
on	1199
tetap	1200
##ompok	1201
##din	1202
dp	1203
fil	1204
apr	1205
menggunakan	1206
##awat	1207
bal	1208
##sis	1209
ga	1210
kond	1211
and	1212
tekn	1213
kala	1214
##ilih	1215
##ikat	1216
##ustr	1217
pengh	1218
ingin	1219
##ublik	1220
##una	1221
sul	1222
##fi	1223
kawasan	1224
ekonomi	1225
den	1226
op	1227
24	1228
br	1229
mot	1230
rusia	1231
diri	1232
sampai	1233
##ingkat	1234
jatim	1235
masuk	1236
yakni	1237
##yat	1238
ur	1239
##uarga	1240
bog	1241
dukungan	1242
##bak	1243
oper	1244
sub	1245
##ont	1246
##eksi	1247
menjelaskan	1248
mengen	1249
provinsi	1250
##gan	1251
##idup	1252
bogor	1253
bu	1254
##war	1255
##ine	1256
tu	1257
dok	1258
pelat	1259
lingk	1260
sesu	1261
maj	1262
ra	1263
sekali	1264
bantuan	1265
##obil	1266
okto	1267
oktober	1268
ram	1269
keluarga	1270
##embang	1271
pendidikan	1272
ka	1273
posi	1274
jumlah	1275
lanjut	1276
##ma	1277
kelompok	1278
##eral	1279
##emen	1280
##bantu	1281
##olah	1282
sebanyak	1283
ru	1284
##upun	1285
##gian	1286
kalau	1287
lapor	1288
mengungk	1289
uc	1290
informasi	1291
mobil	1292
##engg	1293
jabar	1294
##etah	1295
jan	1296
ditem	1297
uk	1298
##anjang	1299
berada	1300
direktur	1301
##ukul	1302
tind	1303
##angkah	1304
met	1305
##ve	1306
lem	1307
na	1308
##jabat	1309
mendapatkan	1310
##ustri	1311
##gus	1312
##inal	1313
##ola	1314
##angkap	1315
##owi	1316
soal	1317
sup	1318
ribu	1319
pember	1320
mencapai	1321
november	1322
dih	1323
##okr	1324
jelas	1325
##erta	1326
##la	1327
tamb	1328
barang	1329
awal	1330
lokasi	1331
##le	1332
juli	1333
nar	1334
at	1335
jokowi	1336
##upsi	1337
dew	1338
##eda	1339
##oy	1340
##istr	1341
militer	1342
setiap	1343
polda	1344
menunjuk	1345
lingkungan	1346
000	1347
gib	1348
gaza	1349
pemilihan	1350
##usan	1351
27	1352
##ro	1353
gibran	1354
jam	1355
pppk	1356
##anye	1357
sal	1358
keamanan	1359
##itmen	1360
lap	1361
laga	1362
##aris	1363
##aha	1364
terakhir	1365
undang	1366
##ungkin	1367
langkah	1368
pukul	1369
empat	1370
##buh	1371
##jata	1372
##adilan	1373
pembang	1374
tangg	1375
##ator	1376
##ami	1377
dr	1378
pekerja	1379
ken	1380
membantu	1381
##utur	1382
pembangunan	1383
muda	1384
tel	1385
kab	1386
perm	1387
##urkan	1388
univ	1389
laporan	1390
juni	1391
##uhi	1392
##orong	1393
ibu	1394
pi	1395
industri	1396
ir	1397
kej	1398
kondisi	1399
berm	1400
timnas	1401
##aki	1402
menyatakan	1403
mengalami	1404
agustus	1405
pener	1406
layanan	1407
asal	1408
hadir	1409
meninggal	1410
bakal	1411
pekan	1412
mantan	1413
##ies	1414
##angi	1415
pihaknya	1416
ungkap	1417
co	1418
##empat	1419
send	1420
##tugas	1421
gamb	1422
##ital	1423
af	1424
dek	1425
menunjukkan	1426
##uas	1427
memastikan	1428
ac	1429
##jen	1430
internasional	1431
universi	1432
data	1433
harga	1434
##tember	1435
tuj	1436
de	1437
##arg	1438
kpu	1439
september	1440
melihat	1441
##ambil	1442
mei	1443
##arap	1444
##ck	1445
surat	1446
sesuai	1447
muh	1448
desember	1449
meminta	1450
kebu	1451
##anda	1452
kol	1453
diber	1454
##tab	1455
inv	1456
berhasil	1457
berlangsung	1458
masing	1459
perd	1460
int	1461
ucap	1462
keti	1463
april	1464
resmi	1465
##alkan	1466
perang	1467
##erang	1468
mod	1469
konf	1470
sekolah	1471
28	1472
bang	1473
##estasi	1474
jateng	1475
##00	1476
terb	1477
for	1478
januari	1479
kendaraan	1480
komisi	1481
tanpa	1482
pasar	1483
29	1484
##baik	1485
26	1486
keh	1487
##ubungan	1488
keber	1489
##ebr	1490
##otensi	1491
united	1492
##nis	1493
##tik	1494
korupsi	1495
berharap	1496
liga	1497
pk	1498
##kr	1499
bidang	1500
perlu	1501
pet	1502
##yataan	1503
nama	1504
maupun	1505
##ura	1506
##ate	1507
terk	1508
bank	1509
kini	1510
kpk	1511
siap	1512
uang	1513
pernah	1514
##anakan	1515
of	1516
pap	1517
ujarnya	1518
##isata	1519
##irkan	1520
tanah	1521
kampanye	1522
##uka	1523
demokr	1524
##ulu	1525
##etahui	1526
##ce	1527
gambar	1528
##ungi	1529
##oleh	1530
sebesar	1531
sendiri	1532
sid	1533
##ten	1534
duga	1535
sy	1536
##asarkan	1537
bekerja	1538
##iti	1539
##aporkan	1540
##ujan	1541
##aih	1542
##alitas	1543
dugaan	1544
komun	1545
masalah	1546
stadi	1547
ul	1548
motor	1549
hujan	1550
kad	1551
menamb	1552
##anjar	1553
##ilang	1554
trump	1555
##upati	1556
##baru	1557
##embangan	1558
maret	1559
ukra	1560
bupati	1561
##asiswa	1562
##ode	1563
mus	1564
##kar	1565
##ijakan	1566
ukraina	1567
aj	1568
##atur	1569
akibat	1570
dirinya	1571
gen	1572
##dag	1573
lima	1574
guru	1575
##tan	1576
kapal	1577
sed	1578
##andingan	1579
ged	1580
pernyataan	1581
kebijakan	1582
##ahanan	1583
pelangg	1584
##ili	1585
mat	1586
asia	1587
##bul	1588
paling	1589
ps	1590
adanya	1591
mo	1592
##itan	1593
laut	1594
pul	1595
pb	1596
rakyat	1597
##aitu	1598
sol	1599
the	1600
sistem	1601
##jo	1602
kapol	1603
sumber	1604
yaitu	1605
teg	1606
mengenai	1607
##iar	1608
menjalan	1609
bahkan	1610
petugas	1611
sakit	1612
memperk	1613
ya	1614
##imana	1615
menerima	1616
##tisi	1617
wali	1618
##ikuti	1619
melawan	1620
pid	1621
tok	1622
pertandingan	1623
hidup	1624
iran	1625
bl	1626
aman	1627
ev	1628
##ema	1629
anda	1630
##engk	1631
##daft	1632
korea	1633
##arget	1634
hon	1635
inf	1636
##ergi	1637
berdasarkan	1638
mungkin	1639
pejabat	1640
teknologi	1641
##ps	1642
##ade	1643
serikat	1644
bant	1645
menjaga	1646
##ampu	1647
tni	1648
segera	1649
film	1650
08	1651
denp	1652
##iz	1653
##bangun	1654
universitas	1655
solo	1656
aksi	1657
perl	1658
prof	1659
##tuhan	1660
##alaman	1661
##ci	1662
07	1663
denpasar	1664
senjata	1665
gl	1666
bukti	1667
membawa	1668
##impinan	1669
cukai	1670
mengungkapkan	1671
##bagian	1672
##iaya	1673
stadion	1674
bawah	1675
##hi	1676
bum	1677
ari	1678
##ewas	1679
##alia	1680
menggelar	1681
menghadapi	1682
es	1683
berg	1684
##isti	1685
memang	1686
##saan	1687
##ig	1688
##wak	1689
piala	1690
31	1691
bea	1692
##tul	1693
##amat	1694
##yak	1695
digital	1696
pelatih	1697
##ateg	1698
jal	1699
##irim	1700
sar	1701
po	1702
##aksanakan	1703
tingkat	1704
##atu	1705
##apun	1706
cukup	1707
##tai	1708
jen	1709
lembaga	1710
pemimpin	1711
##ond	1712
##umen	1713
ro	1714
##ungsi	1715
dinas	1716
##oni	1717
pemerintahan	1718
##emuan	1719
miliar	1720
fak	1721
##jak	1722
bek	1723
##sel	1724
##ordin	1725
pd	1726
operasi	1727
polri	1728
lama	1729
dibu	1730
anies	1731
##mk	1732
depok	1733
##abor	1734
publik	1735
sim	1736
pad	1737
##uat	1738
listr	1739
papua	1740
bas	1741
##apres	1742
gun	1743
listrik	1744
bo	1745
rep	1746
kand	1747
ali	1748
cua	1749
cuaca	1750
##aranya	1751
berin	1752
##re	1753
##gak	1754
makanan	1755
digelar	1756
cara	1757
pria	1758
##unga	1759
##ha	1760
keputusan	1761
##aji	1762
bersi	1763
##angkat	1764
pat	1765
daya	1766
menyel	1767
palest	1768
09	1769
##titu	1770
mahasiswa	1771
ud	1772
gel	1773
tewas	1774
tang	1775
akhirnya	1776
keu	1777
diduga	1778
usaha	1779
sebagian	1780
keuangan	1781
vid	1782
angk	1783
palestina	1784
war	1785
punya	1786
##ajar	1787
##co	1788
kebutuhan	1789
##ham	1790
milik	1791
le	1792
diter	1793
gedung	1794
##atian	1795
##intas	1796
bisnis	1797
situ	1798
##iau	1799
##ekan	1800
mampu	1801
##aksana	1802
ii	1803
##anding	1804
penj	1805
##jadian	1806
nilai	1807
kejadian	1808
bern	1809
berup	1810
benar	1811
ef	1812
##ira	1813
hubungan	1814
menem	1815
##ori	1816
##iksaan	1817
mendatang	1818
tutur	1819
jend	1820
##ila	1821
##ubahan	1822
##angkan	1823
##edi	1824
##ogy	1825
##arik	1826
meneg	1827
##uri	1828
perubahan	1829
asn	1830
datang	1831
jar	1832
##ret	1833
##busi	1834
hamas	1835
##yo	1836
pasal	1837
ahmad	1838
peserta	1839
##wi	1840
##me	1841
##angsa	1842
perh	1843
ketiga	1844
sam	1845
##atis	1846
terbu	1847
organ	1848
##uju	1849
jep	1850
banten	1851
##aksa	1852
ce	1853
05	1854
##tasi	1855
del	1856
karya	1857
ed	1858
satunya	1859
urut	1860
dana	1861
##fikasi	1862
##caya	1863
sus	1864
##oro	1865
##pl	1866
##eran	1867
perju	1868
##utama	1869
sekaligus	1870
##untu	1871
pertam	1872
ganjar	1873
##okus	1874
mendorong	1875
##tribusi	1876
ng	1877
menuju	1878
meski	1879
pertemuan	1880
komitmen	1881
bri	1882
san	1883
##line	1884
06	1885
##argaan	1886
##empatan	1887
ditemukan	1888
gar	1889
maju	1890
ta	1891
jaya	1892
penghargaan	1893
nus	1894
kemenangan	1895
##idik	1896
##pres	1897
baga	1898
wid	1899
##umum	1900
maka	1901
##enaga	1902
nas	1903
##ji	1904
##isian	1905
sah	1906
menging	1907
##koba	1908
video	1909
2025	1910
##usaha	1911
tapi	1912
honor	1913
perjuangan	1914
##uc	1915
##ilitas	1916
##kot	1917
pemeriksaan	1918
##ohon	1919
terbaik	1920
beras	1921
rel	1922
sektor	1923
##ingkatan	1924
##uanya	1925
terj	1926
perdana	1927
febr	1928
##opa	1929
##adwal	1930
##ayan	1931
eng	1932
##ore	1933
##lim	1934
jenderal	1935
potensi	1936
##itra	1937
200	1938
##etapkan	1939
sempat	1940
rasa	1941
##ikut	1942
bp	1943
form	1944
##ibatkan	1945
01	1946
februari	1947
##ef	1948
##etak	1949
muham	1950
pengadilan	1951
peri	1952
##alis	1953
bertem	1954
##hkan	1955
nat	1956
menilai	1957
semak	1958
tenaga	1959
jalur	1960
rah	1961
cepat	1962
lapangan	1963
##no	1964
pos	1965
tot	1966
##unt	1967
prak	1968
tert	1969
glob	1970
##dul	1971
pelaksana	1972
mew	1973
keker	1974
##enuhi	1975
terutama	1976
digunakan	1977
musim	1978
bur	1979
jer	1980
saksi	1981
##ulai	1982
##ogyakarta	1983
berjalan	1984
her	1985
mad	1986
bagaimana	1987
global	1988
yogyakarta	1989
##engar	1990
tindakan	1991
bangsa	1992
##tum	1993
nanti	1994
biden	1995
aktiv	1996
##ongan	1997
dewan	1998
##mar	1999
50	2000
periode	2001
02	2002
pidana	2003
honorer	2004
##eta	2005
menegaskan	2006
jepang	2007
tahu	2008
##eks	2009
##ampung	2010
##atat	2011
menurutnya	2012
banj	2013
##km	2014
##ampil	2015
menambahkan	2016
peningkatan	2017
bb	2018
tern	2019
persib	2020
pagi	2021
udara	2022
semakin	2023
##aborasi	2024
##usai	2025
##adaan	2026
seusai	2027
membangun	2028
banjir	2029
rs	2030
##oa	2031
bahan	2032
pasukan	2033
sip	2034
04	2035
##arin	2036
##unaan	2037
##uki	2038
manusia	2039
##egal	2040
menjelang	2041
dki	2042
pula	2043
##babkan	2044
##ianto	2045
##gitu	2046
sil	2047
pengaw	2048
##ug	2049
##isial	2050
##truk	2051
rat	2052
tol	2053
##urn	2054
terbaru	2055
##ujud	2056
wisata	2057
adapun	2058
begitu	2059
meningkat	2060
fa	2061
mis	2062
ib	2063
##olisian	2064
ungg	2065
pertahanan	2066
mand	2067
ny	2068
raya	2069
kepolisian	2070
kont	2071
jauh	2072
koordin	2073
online	2074
meraih	2075
sekarang	2076
to	2077
lat	2078
total	2079
emas	2080
##ity	2081
tik	2082
fasil	2083
selalu	2084
bentuk	2085
ikut	2086
eropa	2087
pbb	2088
ot	2089
pertamina	2090
##kip	2091
##ers	2092
##gab	2093
hum	2094
posisi	2095
tinggal	2096
perjalan	2097
perjalanan	2098
organisasi	2099
##arah	2100
angka	2101
tujuan	2102
bus	2103
03	2104
meskip	2105
diberikan	2106
meskipun	2107
terpilih	2108
narkoba	2109
##arian	2110
lant	2111
mengikuti	2112
lah	2113
##erasi	2114
energi	2115
##faat	2116
diketahui	2117
##uatan	2118
2022	2119
tiba	2120
umkm	2121
bicara	2122
##ior	2123
kecil	2124
ditangkap	2125
menang	2126
apar	2127
subianto	2128
enam	2129
berinisial	2130
##iah	2131
##lam	2132
##enal	2133
art	2134
##elu	2135
agung	2136
##krim	2137
##utih	2138
disebut	2139
bay	2140
isu	2141
has	2142
dampak	2143
##anggung	2144
berj	2145
teman	2146
##akaan	2147
hamp	2148
surve	2149
ruang	2150
jenis	2151
putih	2152
kurang	2153
berikut	2154
kuat	2155
cer	2156
terc	2157
##te	2158
sig	2159
pangan	2160
lew	2161
##lon	2162
##jukan	2163
hakim	2164
pengembangan	2165
##anjutan	2166
fc	2167
mom	2168
berusia	2169
dekat	2170
lintas	2171
sipil	2172
##gu	2173
disampaikan	2174
##esiasi	2175
kesempatan	2176
proy	2177
##gris	2178
dic	2179
##ulasi	2180
##erahkan	2181
yo	2182
turun	2183
target	2184
sidang	2185
inov	2186
bes	2187
memberi	2188
poin	2189
api	2190
##akah	2191
mau	2192
##uasa	2193
new	2194
rencana	2195
pelay	2196
##ation	2197
fasilitas	2198
tengg	2199
biasa	2200
kekerasan	2201
memer	2202
ho	2203
sin	2204
turut	2205
laki	2206
tugas	2207
##umsi	2208
net	2209
##af	2210
##ly	2211
terlibat	2212
seri	2213
pdip	2214
memilih	2215
##ny	2216
peran	2217
##anjutkan	2218
membuka	2219
##ulkan	2220
##inkan	2221
berkom	2222
beb	2223
inggris	2224
tul	2225
##ern	2226
sand	2227
hampir	2228
##utup	2229
penuh	2230
##sep	2231
##one	2232
##ubah	2233
alasan	2234
bencana	2235
kecel	2236
merasa	2237
pilpres	2238
naik	2239
mengambil	2240
##arakan	2241
##batasan	2242
penel	2243
##pasi	2244
pemilih	2245
kecelakaan	2246
sw	2247
pimpinan	2248
##takan	2249
pembun	2250
sabu	2251
##buhan	2252
##ard	2253
##atangan	2254
apakah	2255
survei	2256
menjalani	2257
##icara	2258
menit	2259
golkar	2260
kelas	2261
keluar	2262
##umumkan	2263
kul	2264
diba	2265
40	2266
may	2267
nur	2268
##alahan	2269
##anggap	2270
kunj	2271
berita	2272
##sed	2273
jawab	2274
##inasi	2275
memenuhi	2276
pin	2277
##onel	2278
bin	2279
melaporkan	2280
putra	2281
positif	2282
##ajaran	2283
rid	2284
##likasi	2285
mu	2286
sumat	2287
##bangan	2288
##dak	2289
##enti	2290
gag	2291
##ue	2292
khususnya	2293
##okok	2294
pelanggaran	2295
##daya	2296
merah	2297
##amankan	2298
sepanjang	2299
elek	2300
proyek	2301
hot	2302
budi	2303
##sim	2304
##nam	2305
keras	2306
putusan	2307
##uang	2308
##cak	2309
##titusi	2310
##tuhkan	2311
##irakan	2312
pn	2313
##ilis	2314
tepat	2315
dibanding	2316
was	2317
bermain	2318
rapat	2319
##juan	2320
##bp	2321
grup	2322
ratusan	2323
paslon	2324
fokus	2325
##ry	2326
##grasi	2327
austr	2328
mudah	2329
##fud	2330
tegas	2331
tambah	2332
anggaran	2333
jo	2334
riau	2335
##olak	2336
##entasi	2337
penyelengg	2338
##egr	2339
malang	2340
##angga	2341
lewat	2342
ris	2343
demi	2344
##uncurkan	2345
sekret	2346
akun	2347
tangan	2348
##istik	2349
pand	2350
hati	2351
##arapkan	2352
##jah	2353
pelayanan	2354
pembunuhan	2355
pesawat	2356
gus	2357
pembu	2358
ajang	2359
lokal	2360
rud	2361
sang	2362
belak	2363
menemukan	2364
buda	2365
pam	2366
menarik	2367
perb	2368
australia	2369
##ebat	2370
kontr	2371
##ikit	2372
##iman	2373
agama	2374
##aturan	2375
##omo	2376
penyakit	2377
sedikit	2378
pop	2379
##oli	2380
##ris	2381
##amin	2382
##iptakan	2383
##akwa	2384
republik	2385
manfaat	2386
dam	2387
luka	2388
rus	2389
kil	2390
##ona	2391
budaya	2392
##anian	2393
dij	2394
##aslu	2395
tindak	2396
sl	2397
##gabung	2398
memp	2399
muhammad	2400
leg	2401
##unggu	2402
bul	2403
##turan	2404
##iksa	2405
##uduk	2406
bertemu	2407
antaranya	2408
##ikian	2409
investasi	2410
##erensi	2411
##indungan	2412
fi	2413
sd	2414
berbeda	2415
pelaksanaan	2416
pj	2417
##po	2418
kualitas	2419
dini	2420
hend	2421
tant	2422
##aim	2423
##atus	2424
uu	2425
pertum	2426
pendaft	2427
komb	2428
berkel	2429
sisi	2430
ilegal	2431
tubuh	2432
lib	2433
setempat	2434
jadwal	2435
munc	2436
personel	2437
terdapat	2438
perkara	2439
tokoh	2440
guna	2441
akses	2442
kemarin	2443
jabatan	2444
bawaslu	2445
##urah	2446
alat	2447
##mkg	2448
##fah	2449
olah	2450
##ungkinan	2451
kemungkinan	2452
juru	2453
jangan	2454
ge	2455
makin	2456
berat	2457
asing	2458
pertumbuhan	2459
rut	2460
dprd	2461
memperkuat	2462
demikian	2463
##engah	2464
menyebabkan	2465
situasi	2466
pengalaman	2467
##odo	2468
kunjungan	2469
##ambut	2470
peristi	2471
demokrasi	2472
humas	2473
muncul	2474
##pi	2475
##isan	2476
manaj	2477
##akaran	2478
tangerang	2479
##ras	2480
balik	2481
panjang	2482
seleksi	2483
pengel	2484
kasih	2485
##amping	2486
gelar	2487
##ton	2488
dokter	2489
bmkg	2490
##pons	2491
pasi	2492
putri	2493
pantai	2494
peluang	2495
mengur	2496
ditu	2497
mencari	2498
titik	2499
##akatan	2500
mahfud	2501
peristiwa	2502
aturan	2503
produksi	2504
joko	2505
ex	2506
mata	2507
##abr	2508
anc	2509
strateg	2510
vir	2511
palembang	2512
pekerjaan	2513
meman	2514
der	2515
kin	2516
pdi	2517
##antikan	2518
fr	2519
lagu	2520
##endah	2521
menyebutkan	2522
##sir	2523
dpp	2524
ternyata	2525
bir	2526
vi	2527
kos	2528
pegaw	2529
tantangan	2530
pegawai	2531
##orn	2532
pertanian	2533
##utip	2534
mempr	2535
##umpang	2536
minum	2537
penye	2538
disel	2539
100	2540
##erak	2541
sebab	2542
bola	2543
##uji	2544
##jid	2545
gab	2546
pering	2547
gratis	2548
menghadirkan	2549
konferensi	2550
tra	2551
35	2552
pesan	2553
menciptakan	2554
puluhan	2555
mk	2556
terima	2557
enggak	2558
no	2559
##go	2560
##th	2561
dihad	2562
##usung	2563
luas	2564
##rah	2565
##unjung	2566
optim	2567
##ans	2568
##uf	2569
final	2570
menekan	2571
45	2572
iz	2573
log	2574
##gub	2575
serang	2576
##arnya	2577
strategis	2578
hotel	2579
##egah	2580
##inc	2581
##tujuan	2582
tanggal	2583
siapa	2584
sehat	2585
pendaftaran	2586
mengak	2587
abdul	2588
musik	2589
##omb	2590
diharapkan	2591
ji	2592
##tar	2593
ay	2594
he	2595
sud	2596
##pir	2597
sing	2598
##lemen	2599
##atasi	2600
##ass	2601
##ayakan	2602
perj	2603
area	2604
perse	2605
harapan	2606
diperk	2607
tentu	2608
aceh	2609
keterangannya	2610
sedangkan	2611
konflik	2612
bandara	2613
sekretaris	2614
##istan	2615
sumatera	2616
##bd	2617
widodo	2618
##eluarkan	2619
pengguna	2620
##enangkan	2621
##ajak	2622
inovasi	2623
ip	2624
lampung	2625
siang	2626
kampung	2627
perlindungan	2628
it	2629
pilihan	2630
kim	2631
##kam	2632
##okasi	2633
##yan	2634
##ahas	2635
##iliun	2636
komunitas	2637
tuturnya	2638
ribuan	2639
kabar	2640
jasa	2641
##entukan	2642
##antara	2643
pendukung	2644
##ky	2645
kombes	2646
car	2647
##perasi	2648
puncak	2649
##enter	2650
solusi	2651
juara	2652
kemenk	2653
kolaborasi	2654
##sek	2655
perdag	2656
komunikasi	2657
formasi	2658
perdagangan	2659
ph	2660
du	2661
tri	2662
##udik	2663
kinerja	2664
vs	2665
##eli	2666
lahan	2667
sampah	2668
bk	2669
##ase	2670
##let	2671
penjara	2672
efek	2673
##isiko	2674
demokrat	2675
##epas	2676
eri	2677
##okan	2678
##jau	2679
islam	2680
ucapnya	2681
terbuka	2682
melaksanakan	2683
haji	2684
bernama	2685
mengumumkan	2686
##eter	2687
jaringan	2688
usia	2689
##ess	2690
sant	2691
sering	2692
disk	2693
peraturan	2694
penggunaan	2695
generasi	2696
##egini	2697
##ward	2698
tujuh	2699
latihan	2700
fo	2701
perg	2702
##entingan	2703
##osok	2704
triliun	2705
##ustrasi	2706
##pol	2707
pulau	2708
peringatan	2709
##zi	2710
##ela	2711
istri	2712
mark	2713
##uhkan	2714
kebakaran	2715
semb	2716
gunung	2717
terbesar	2718
sana	2719
go	2720
terlihat	2721
ulang	2722
memimpin	2723
ped	2724
##isme	2725
dimulai	2726
tua	2727
##ahu	2728
siswa	2729
hi	2730
melibatkan	2731
arab	2732
non	2733
penyidik	2734
amb	2735
dasar	2736
ki	2737
aplikasi	2738
kapolres	2739
sunga	2740
kepentingan	2741
##pek	2742
waj	2743
##urun	2744
##enggarakan	2745
sik	2746
##ational	2747
plat	2748
pur	2749
akbp	2750
dpd	2751
psi	2752
##artawan	2753
parlemen	2754
kalim	2755
alias	2756
sungai	2757
##cr	2758
sore	2759
suh	2760
##min	2761
cat	2762
perek	2763
##raga	2764
pari	2765
ha	2766
##adakan	2767
##andang	2768
##untut	2769
berkomitmen	2770
nik	2771
por	2772
penumpang	2773
dibandingkan	2774
diterima	2775
dikenal	2776
mi	2777
babak	2778
arah	2779
forum	2780
##unuh	2781
##ungutan	2782
aktif	2783
tps	2784
capres	2785
mir	2786
melanjutkan	2787
reg	2788
tampil	2789
##tabilitas	2790
petani	2791
judi	2792
anti	2793
ilustrasi	2794
bekasi	2795
##all	2796
kematian	2797
##tin	2798
sebut	2799
pram	2800
kepem	2801
##anjian	2802
kre	2803
wan	2804
wartawan	2805
##ite	2806
##icu	2807
gug	2808
bumn	2809
tampak	2810
##itasi	2811
nusantara	2812
prib	2813
##gikan	2814
##tisipasi	2815
debat	2816
##if	2817
kesep	2818
pentingnya	2819
kenaikan	2820
hukuman	2821
dilaporkan	2822
alam	2823
aktivitas	2824
disi	2825
perjanjian	2826
nt	2827
mengajak	2828
##erd	2829
##esaikan	2830
pengur	2831
berasal	2832
semangat	2833
##ty	2834
insi	2835
kesel	2836
##utuskan	2837
berupa	2838
ancaman	2839
##ero	2840
strate	2841
biaya	2842
bagus	2843
##angkaian	2844
pkb	2845
imi	2846
##truktur	2847
agen	2848
strategi	2849
sini	2850
##ment	2851
pemuda	2852
##ayaan	2853
##akuasi	2854
##ujudkan	2855
bint	2856
##impi	2857
##ancis	2858
##emi	2859
buah	2860
fes	2861
gi	2862
##lar	2863
ran	2864
batu	2865
##ho	2866
##unda	2867
penju	2868
spesi	2869
momen	2870
daft	2871
##embangkan	2872
##faatkan	2873
penyelidikan	2874
menurun	2875
wah	2876
gabungan	2877
jerman	2878
pup	2879
sulit	2880
##anji	2881
gro	2882
##dangan	2883
##kp	2884
pasti	2885
lul	2886
##anja	2887
##adah	2888
medan	2889
jog	2890
##wakilan	2891
az	2892
berkelanjutan	2893
izin	2894
ob	2895
##entikan	2896
berusaha	2897
##jahter	2898
bap	2899
##urahan	2900
##bus	2901
meres	2902
mahkam	2903
mahkamah	2904
sm	2905
##masi	2906
platform	2907
dianggap	2908
##oran	2909
insta	2910
jelasnya	2911
##anjutnya	2912
jajaran	2913
gemp	2914
##indra	2915
dilaksanakan	2916
ahli	2917
sukses	2918
kanan	2919
bad	2920
tum	2921
##entuk	2922
dipr	2923
##alahkan	2924
lebaran	2925
masjid	2926
gagal	2927
daftar	2928
div	2929
##abuhan	2930
bersih	2931
tenggara	2932
##yanto	2933
##nif	2934
instagram	2935
kekuatan	2936
##elis	2937
##imb	2938
ramadan	2939
hit	2940
##dayaan	2941
##arus	2942
bebas	2943
##tal	2944
perwakilan	2945
selanjutnya	2946
##pirasi	2947
begini	2948
nu	2949
##idat	2950
pajak	2951
##ork	2952
##angkapan	2953
kader	2954
##onald	2955
stu	2956
menolak	2957
ikn	2958
dise	2959
pelatihan	2960
skor	2961
##alisasi	2962
caw	2963
prancis	2964
##asanya	2965
terdiri	2966
belakang	2967
##olaan	2968
##antas	2969
##indungi	2970
keduanya	2971
ai	2972
pon	2973
##ambang	2974
ditetapkan	2975
berupaya	2976
pemba	2977
##ebih	2978
mitra	2979
olahraga	2980
##bk	2981
##tulis	2982
pengelolaan	2983
##ail	2984
##sor	2985
keper	2986
konsumen	2987
lan	2988
##antung	2989
pilgub	2990
mengungkap	2991
pengawasan	2992
lantaran	2993
sosok	2994
perbatasan	2995
##isah	2996
##juk	2997
aku	2998
##tinggi	2999
kri	3000
##epatan	3001
filip	3002
metro	3003
##urat	3004
lakukan	3005
malay	3006
kalimantan	3007
hid	3008
##ampingi	3009
center	3010
##ewaskan	3011
##onton	3012
malaysia	3013
tahap	3014
##onsumsi	3015
ayah	3016
##onomian	3017
india	3018
gerindra	3019
insiden	3020
filipina	3021
##uad	3022
##ewa	3023
menangkap	3024
delapan	3025
32	3026
hab	3027
##anon	3028
##uma	3029
sejarah	3030
##kab	3031
##antik	3032
pribadi	3033
##yarat	3034
perekonomian	3035
bertujuan	3036
##iaga	3037
dokumen	3038
risiko	3039
##pan	3040
memenangkan	3041
ialah	3042
##etisi	3043
##aka	3044
##alnya	3045
pelabuhan	3046
konstitusi	3047
##sedia	3048
boleh	3049
kelurahan	3050
ringan	3051
##onf	3052
mengetahui	3053
ton	3054
tud	3055
menya	3056
pemungutan	3057
##uth	3058
manajemen	3059
##awarkan	3060
lebanon	3061
dikutip	3062
minta	3063
terh	3064
pemilik	3065
mencegah	3066
perhatian	3067
##ampuan	3068
##anggar	3069
sri	3070
top	3071
menyer	3072
konser	3073
##ej	3074
##andatangan	3075
##wed	3076
sta	3077
penga	3078
##indak	3079
mempert	3080
intel	3081
mandiri	3082
keman	3083
paris	3084
tes	3085
##agam	3086
hadi	3087
kemampuan	3088
signif	3089
tal	3090
##ender	3091
bangunan	3092
signifikan	3093
##wang	3094
##ens	3095
##eman	3096
tai	3097
##wil	3098
infras	3099
##ming	3100
hilang	3101
##ebasan	3102
menyedi	3103
menyediakan	3104
##ex	3105
kesejahter	3106
kesejahteraan	3107
##ilah	3108
menghadiri	3109
mengurangi	3110
menangg	3111
gerakan	3112
##tian	3113
meluncurkan	3114
kemanusi	3115
dah	3116
##irmasi	3117
##wedan	3118
pang	3119
rata	3120
pemas	3121
truk	3122
##ofi	3123
menjabat	3124
tip	3125
##lan	3126
##ora	3127
pelanggan	3128
angkatan	3129
36	3130
berbicara	3131
##kl	3132
##so	3133
##isk	3134
##umham	3135
baswedan	3136
kateg	3137
pemkot	3138
kemanusiaan	3139
kategori	3140
tertinggi	3141
status	3142
kandidat	3143
jogja	3144
dom	3145
fran	3146
kiri	3147
rev	3148
sukar	3149
sank	3150
##antasan	3151
kampus	3152
km	3153
##tra	3154
airl	3155
terdakwa	3156
minyak	3157
menjalankan	3158
koordinator	3159
##oba	3160
##uler	3161
infrastruktur	3162
tata	3163
pemberantasan	3164
kara	3165
long	3166
##tival	3167
et	3168
suami	3169
tentara	3170
teror	3171
##abumi	3172
riz	3173
##tifikasi	3174
mengirim	3175
##ampilan	3176
klub	3177
##stem	3178
##isa	3179
##endara	3180
profesi	3181
festival	3182
kun	3183
##dy	3184
seben	3185
visi	3186
menunggu	3187
menewaskan	3188
##enangan	3189
selamat	3190
##onis	3191
2021	3192
membutuhkan	3193
sukabumi	3194
##tuju	3195
##apatan	3196
percaya	3197
arus	3198
maksim	3199
bbc	3200
sanksi	3201
justr	3202
##hadiran	3203
justru	3204
cab	3205
##upa	3206
dinilai	3207
sebenarnya	3208
##gn	3209
##lukan	3210
suriah	3211
##bulkan	3212
menik	3213
motog	3214
tam	3215
##ver	3216
senior	3217
##prov	3218
iii	3219
##oritas	3220
##adisi	3221
##idupan	3222
tiket	3223
motogp	3224
##bangkan	3225
bergerak	3226
penyebab	3227
kalah	3228
jiwa	3229
memutuskan	3230
##uhnya	3231
33	3232
misi	3233
penangan	3234
##jaga	3235
##pns	3236
##uruan	3237
ekspor	3238
majelis	3239
kesepakatan	3240
500	3241
##apr	3242
mengatasi	3243
sumsel	3244
perkembangan	3245
meter	3246
anaknya	3247
##intaan	3248
##wisata	3249
##iayaan	3250
rudal	3251
group	3252
pengungsi	3253
##arif	3254
membahas	3255
minim	3256
mendes	3257
penanganan	3258
##ins	3259
impor	3260
kompl	3261
wanita	3262
cpns	3263
##45	3264
kehadiran	3265
paket	3266
pik	3267
##itian	3268
##adai	3269
moh	3270
menetapkan	3271
terg	3272
##bau	3273
mengajukan	3274
kehidupan	3275
mon	3276
##operasi	3277
international	3278
damai	3279
merek	3280
##bud	3281
menyambut	3282
mencoba	3283
hasto	3284
genc	3285
##lo	3286
uni	3287
##laim	3288
bumi	3289
60	3290
##andar	3291
##impiade	3292
##mat	3293
##ink	3294
menekankan	3295
34	3296
##pur	3297
tradisi	3298
##evel	3299
##atar	3300
##awesi	3301
sulawesi	3302
penelitian	3303
ridwan	3304
kereta	3305
##har	3306
lu	3307
##mu	3308
perp	3309
antar	3310
studi	3311
##kand	3312
tema	3313
menawarkan	3314
park	3315
gas	3316
imigrasi	3317
gempa	3318
##asakan	3319
##butan	3320
##usif	3321
seharus	3322
pks	3323
diperkirakan	3324
seharusnya	3325
det	3326
atlet	3327
mewujudkan	3328
38	3329
ses	3330
##engkap	3331
mengakui	3332
berawan	3333
##jaya	3334
##entar	3335
sepeda	3336
berbasis	3337
jaksa	3338
iklim	3339
penjualan	3340
seles	3341
admin	3342
kompetisi	3343
tab	3344
##gia	3345
##ual	3346
##ral	3347
##ganya	3348
##wab	3349
prot	3350
klas	3351
199	3352
panas	3353
unggul	3354
syarat	3355
darah	3356
##ailand	3357
jemb	3358
thailand	3359
terdampak	3360
sikap	3361
mati	3362
##alisi	3363
berpotensi	3364
tambahan	3365
penerbangan	3366
kari	3367
nyata	3368
##tup	3369
bergabung	3370
fisi	3371
mudik	3372
##zah	3373
rekan	3374
##ahatan	3375
mengeluarkan	3376
saudi	3377
kejahatan	3378
rendah	3379
##hawat	3380
##ungkan	3381
menyi	3382
##aksaan	3383
fitur	3384
##gasi	3385
aset	3386
pakar	3387
##bal	3388
mengamankan	3389
##uku	3390
##abuming	3391
berkembang	3392
muslim	3393
##indo	3394
rakabuming	3395
idul	3396
diskusi	3397
mengembangkan	3398
##ancam	3399
menutur	3400
selesai	3401
menuturkan	3402
red	3403
##ge	3404
##erita	3405
##arikan	3406
penduduk	3407
berlaku	3408
##sisten	3409
##edia	3410
2019	3411
permintaan	3412
##angani	3413
pencarian	3414
raka	3415
##ida	3416
menyerang	3417
##awatan	3418
##num	3419
penjabat	3420
kulit	3421
gugatan	3422
menengah	3423
peman	3424
oknum	3425
apala	3426
apalagi	3427
operasional	3428
bh	3429
##itri	3430
peneg	3431
pemkab	3432
cor	3433
berper	3434
pec	3435
padang	3436
##atikan	3437
##anggil	3438
mencatat	3439
eksek	3440
libur	3441
##larasi	3442
rangka	3443
apresiasi	3444
skuad	3445
dibawa	3446
##ito	3447
##abila	3448
gram	3449
55	3450
rokok	3451
kerus	3452
##bol	3453
##iksi	3454
inisi	3455
ist	3456
##adem	3457
##elola	3458
perawatan	3459
##utri	3460
tas	3461
tuan	3462
berakhir	3463
sas	3464
saw	3465
##apaian	3466
diduk	3467
##antinya	3468
persiapan	3469
didukung	3470
obat	3471
taiwan	3472
airlangga	3473
uji	3474
##arjo	3475
##iraan	3476
##ampi	3477
massa	3478
pariwisata	3479
roh	3480
seja	3481
##entak	3482
bintang	3483
menanggapi	3484
fl	3485
##omend	3486
##endali	3487
##anyakan	3488
transaksi	3489
mengingat	3490
mengingatkan	3491
misalnya	3492
kemenkumham	3493
##omendasi	3494
pembel	3495
shin	3496
##asilkan	3497
##daftar	3498
kepemimpinan	3499
##akup	3500
##osk	3501
buruk	3502
samb	3503
penangkapan	3504
melanggar	3505
terlalu	3506
diminta	3507
aparat	3508
administr	3509
sir	3510
##eni	3511
lawan	3512
ide	3513
##ekar	3514
menyus	3515
tercatat	3516
rutin	3517
tuduhan	3518
fat	3519
angin	3520
off	3521
##ell	3522
ca	3523
hutan	3524
##sh	3525
##by	3526
##bi	3527
biasanya	3528
yakin	3529
pengusaha	3530
##apresiasi	3531
award	3532
hew	3533
##ulang	3534
olimpiade	3535
bany	3536
pah	3537
akbar	3538
##temen	3539
saling	3540
garuda	3541
37	3542
gor	3543
##adar	3544
##urangan	3545
kalangan	3546
mesin	3547
##ukur	3548
menyiapkan	3549
hiz	3550
##ts	3551
##iring	3552
##erjaan	3553
##bullah	3554
ni	3555
prod	3556
koalisi	3557
tanda	3558
pengan	3559
##yadi	3560
##torat	3561
##unci	3562
kursi	3563
##ee	3564
##egara	3565
##aluasi	3566
amin	3567
viet	3568
era	3569
##dan	3570
bangk	3571
iv	3572
kompet	3573
meninggalkan	3574
city	3575
##ometer	3576
pemprov	3577
##assar	3578
##ast	3579
##ilangan	3580
krim	3581
kejaksaan	3582
##ker	3583
##hing	3584
pengamanan	3585
ilmu	3586
##mati	3587
##asitas	3588
makassar	3589
maksimal	3590
hut	3591
##atuan	3592
peringkat	3593
##ikin	3594
say	3595
mempering	3596
buka	3597
coba	3598
menim	3599
megaw	3600
berdampak	3601
teknis	3602
serius	3603
hizbullah	3604
taman	3605
serentak	3606
dewi	3607
##gung	3608
2020	3609
##edar	3610
manag	3611
##unggal	3612
mcr	3613
##udara	3614
sepak	3615
awak	3616
##alifikasi	3617
indra	3618
buku	3619
sejauh	3620
koordinasi	3621
hewan	3622
champi	3623
##ner	3624
tertulis	3625
staf	3626
gam	3627
selaku	3628
melindungi	3629
##ongk	3630
##iriman	3631
##los	3632
putaran	3633
menyelesaikan	3634
kot	3635
penet	3636
##ice	3637
##arti	3638
pengurus	3639
cawapres	3640
comm	3641
##ambah	3642
pekanbaru	3643
faktor	3644
logistik	3645
diikuti	3646
##itkan	3647
##ainkan	3648
mendesak	3649
megawati	3650
##asta	3651
memasuki	3652
ikan	3653
##der	3654
memicu	3655
ekstr	3656
cip	3657
mpr	3658
##tain	3659
##tir	3660
##esang	3661
mag	3662
sehari	3663
menambah	3664
uj	3665
##resi	3666
tekan	3667
purw	3668
##ren	3669
##etan	3670
pendapatan	3671
materi	3672
medis	3673
persis	3674
kaesang	3675
##emaja	3676
fakta	3677
##ekat	3678
sembilan	3679
##de	3680
mund	3681
harris	3682
darurat	3683
##illah	3684
##anjung	3685
##asilan	3686
kuasa	3687
tertentu	3688
vietnam	3689
perc	3690
##ombang	3691
rai	3692
##amaian	3693
pertanya	3694
##anggu	3695
pertanyaan	3696
hil	3697
ditahan	3698
kabin	3699
bayi	3700
pupuk	3701
##tual	3702
##bo	3703
kepula	3704
kepulauan	3705
fed	3706
pac	3707
menyerahkan	3708
mencetak	3709
bunga	3710
##ayu	3711
##ahankan	3712
belajar	3713
ungkapnya	3714
praktik	3715
##ei	3716
terang	3717
star	3718
transpor	3719
minuman	3720
diselenggarakan	3721
do	3722
mur	3723
setidak	3724
##onfirmasi	3725
karawang	3726
##abah	3727
kamil	3728
kualifikasi	3729
sleman	3730
gencatan	3731
yong	3732
khofi	3733
setidaknya	3734
khofifah	3735
##elawan	3736
tanggung	3737
sukarelawan	3738
klaim	3739
##insip	3740
mengk	3741
##anyi	3742
##cayaan	3743
##nu	3744
mengapresiasi	3745
##ediksi	3746
stasi	3747
moham	3748
##ez	3749
prior	3750
##udin	3751
##unjungi	3752
terlebih	3753
irjen	3754
kehilangan	3755
penyelenggaraan	3756
bengk	3757
con	3758
jurn	3759
##uy	3760
persero	3761
##yakini	3762
rup	3763
sap	3764
pengamat	3765
##ick	3766
gian	3767
voa	3768
##lasi	3769
kilometer	3770
memanfaatkan	3771
##adinya	3772
prinsip	3773
##bagi	3774
pendek	3775
menimbulkan	3776
stasiun	3777
nantinya	3778
##ainan	3779
penetapan	3780
mengusung	3781
senayan	3782
prioritas	3783
pabr	3784
##enalkan	3785
pabrik	3786
##kti	3787
bahasa	3788
akp	3789
apabila	3790
kaltim	3791
invest	3792
pulang	3793
dihadiri	3794
tun	3795
mencakup	3796
penyelenggara	3797
je	3798
polresta	3799
buat	3800
remaja	3801
##oalan	3802
mengonsumsi	3803
persoalan	3804
longsor	3805
jangka	3806
##sos	3807
##ambat	3808
dipimpin	3809
##tivitas	3810
##tabes	3811
mencer	3812
mig	3813
konten	3814
dag	3815
transportasi	3816
kat	3817
lihat	3818
zona	3819
##egang	3820
sosialisasi	3821
champions	3822
##aker	3823
kapasitas	3824
rusak	3825
##rika	3826
##sus	3827
##oman	3828
akr	3829
terbukti	3830
tunggal	3831
polsek	3832
dibuka	3833
legis	3834
cir	3835
kunci	3836
marc	3837
ketena	3838
##oroti	3839
washing	3840
md	3841
rob	3842
komand	3843
##ence	3844
menjawab	3845
rangkaian	3846
bpbd	3847
laman	3848
perum	3849
pran	3850
##osiasi	3851
berkon	3852
tambahnya	3853
wi	3854
##pon	3855
diambil	3856
berisi	3857
merilis	3858
pengawas	3859
pohon	3860
##ey	3861
berf	3862
##urunan	3863
mengubah	3864
penurunan	3865
mundur	3866
washington	3867
cl	3868
##oso	3869
##edakan	3870
##ubungi	3871
standar	3872
##ontoh	3873
nusa	3874
##sidi	3875
##ulis	3876
regi	3877
kt	3878
##yono	3879
##gh	3880
##uddin	3881
##wenang	3882
##ajuan	3883
keru	3884
profesional	3885
berarti	3886
pera	3887
segala	3888
##uasaan	3889
##amar	3890
sebaga	3891
hitam	3892
fisik	3893
yus	3894
sumut	3895
aktivis	3896
kerugian	3897
hel	3898
otor	3899
tahanan	3900
senang	3901
kepercayaan	3902
##akuan	3903
perint	3904
##juang	3905
##yu	3906
##son	3907
bakar	3908
ident	3909
mengalahkan	3910
usai	3911
##entuan	3912
menurunkan	3913
nel	3914
##..	3915
seksu	3916
bapak	3917
##kandar	3918
ketenagak	3919
berkontribusi	3920
donald	3921
finan	3922
hib	3923
teh	3924
##ahami	3925
##itung	3926
pengunjung	3927
pasien	3928
ketenagakerjaan	3929
##iban	3930
semuanya	3931
kontrak	3932
##lom	3933
pelajar	3934
ketat	3935
##ungkinkan	3936
arif	3937
joh	3938
wor	3939
##ahun	3940
menjadikan	3941
umat	3942
pameran	3943
taj	3944
lengkap	3945
toko	3946
administrasi	3947
sor	3948
wat	3949
tae	3950
fungsi	3951
memulai	3952
khawat	3953
rp1	3954
beragam	3955
##esan	3956
iskandar	3957
dj	3958
hijau	3959
39	3960
kemajuan	3961
pintu	3962
seksual	3963
brand	3964
##argetkan	3965
boj	3966
cil	3967
##imbau	3968
adat	3969
dipas	3970
catatan	3971
kabinet	3972
gad	3973
##osisi	3974
solid	3975
cabang	3976
alami	3977
pemberian	3978
elektr	3979
##uksi	3980
polit	3981
##umpul	3982
##tansi	3983
madura	3984
elektabilitas	3985
batas	3986
tangga	3987
gianyar	3988
dulu	3989
kak	3990
##fik	3991
##hiri	3992
##utif	3993
imbuh	3994
##ancar	3995
fer	3996
nasi	3997
##jur	3998
menutup	3999
super	4000
##eor	4001
diamankan	4002
##indari	4003
situs	4004
real	4005
model	4006
khawatir	4007
mor	4008
tp	4009
##ahi	4010
##ino	4011
suatu	4012
layak	4013
riset	4014
##land	4015
peg	4016
##erai	4017
##urian	4018
karyawan	4019
tanjung	4020
plas	4021
ditemui	4022
warna	4023
aparatur	4024
ceo	4025
memungkinkan	4026
##amaan	4027
soekar	4028
upa	4029
rekomendasi	4030
48	4031
sun	4032
##",	4033
keselamatan	4034
43	4035
bambang	4036
kaki	4037
mik	4038
##fat	4039
wajib	4040
kp	4041
beliau	4042
merespons	4043
dahulu	4044
44	4045
dap	4046
om	4047
##erat	4048
beroperasi	4049
menghentikan	4050
##ohonan	4051
joe	4052
tekanan	4053
mengand	4054
##omosi	4055
cal	4056
camp	4057
##ahal	4058
tulis	4059
regional	4060
##bs	4061
kerusakan	4062
bilang	4063
ded	4064
##vensi	4065
##tion	4066
afrika	4067
intensi	4068
kriminal	4069
##eorologi	4070
menentukan	4071
##app	4072
dav	4073
jatuh	4074
##istis	4075
surakarta	4076
muhaim	4077
perdamaian	4078
muhaimin	4079
##fisi	4080
senilai	4081
depar	4082
relawan	4083
pranowo	4084
jena	4085
sop	4086
##ld	4087
##fe	4088
kerap	4089
upacara	4090
jenazah	4091
tay	4092
wal	4093
##undang	4094
##adu	4095
sekjen	4096
seni	4097
persebaya	4098
kompleks	4099
gaji	4100
rest	4101
##rid	4102
norm	4103
##ebut	4104
perayaan	4105
##ester	4106
desain	4107
kred	4108
tambang	4109
padahal	4110
efektif	4111
ntb	4112
##truksi	4113
migran	4114
##osistem	4115
kapten	4116
##ampilkan	4117
protes	4118
pengiriman	4119
darat	4120
liter	4121
##onik	4122
##iling	4123
berta	4124
ekosistem	4125
membeli	4126
##ijing	4127
nasabah	4128
news	4129
berperan	4130
bend	4131
hy	4132
mengec	4133
mengunjungi	4134
beijing	4135
##anggilan	4136
diny	4137
integr	4138
eksekutif	4139
keadaan	4140
##apol	4141
##apura	4142
##endik	4143
agenda	4144
jema	4145
##syah	4146
##elasan	4147
mac	4148
memperoleh	4149
##ace	4150
nyaman	4151
lp	4152
##uny	4153
##uro	4154
##esti	4155
taw	4156
ibadah	4157
bung	4158
eduk	4159
nah	4160
##akai	4161
kartu	4162
institu	4163
ekstrem	4164
...	4165
##que	4166
##otan	4167
satuan	4168
bertanggung	4169
dibuat	4170
han	4171
sya	4172
kamar	4173
##evakuasi	4174
mari	4175
##oga	4176
##alin	4177
berubah	4178
##itungan	4179
penyanyi	4180
narkot	4181
bertajuk	4182
pot	4183
##ahmi	4184
berwenang	4185
term	4186
saudara	4187
##gres	4188
bersen	4189
menghasilkan	4190
kontra	4191
narkotika	4192
##ish	4193
mengadakan	4194
##oduksi	4195
##aksud	4196
##uransi	4197
kasat	4198
diplom	4199
diperlukan	4200
qatar	4201
##ualitas	4202
##orter	4203
bertahan	4204
permohonan	4205
bersenjata	4206
nuk	4207
##akar	4208
##udul	4209
klasemen	4210
far	4211
perangkat	4212
##olusi	4213
awalnya	4214
berkualitas	4215
identitas	4216
berencana	4217
selebr	4218
turki	4219
##raf	4220
lebat	4221
kompol	4222
open	4223
lahir	4224
##andatangani	4225
42	4226
tadi	4227
tarif	4228
memahami	4229
drone	4230
41	4231
cel	4232
kus	4233
lar	4234
diy	4235
balai	4236
mempertahankan	4237
kac	4238
lo	4239
yud	4240
##ahaya	4241
##esu	4242
kanwil	4243
##pora	4244
purn	4245
##lir	4246
didampingi	4247
persidangan	4248
kreatif	4249
##gunaan	4250
melay	4251
ros	4252
80	4253
sent	4254
2026	4255
serupa	4256
viral	4257
legisl	4258
47	4259
keadilan	4260
andi	4261
##anyahu	4262
dilan	4263
modern	4264
netanyahu	4265
perbaikan	4266
jas	4267
tembak	4268
emil	4269
fir	4270
##aruh	4271
##abat	4272
menyoroti	4273
respons	4274
nelayan	4275
sese	4276
berikutnya	4277
menud	4278
##siapkan	4279
pelunc	4280
konsep	4281
kekuasaan	4282
putin	4283
produs	4284
nuklir	4285
dos	4286
indah	4287
kediri	4288
##umpulkan	4289
diperiksa	4290
56	4291
dw	4292
mun	4293
mic	4294
pembicara	4295
direktorat	4296
##namen	4297
hasan	4298
permas	4299
adil	4300
tumbuh	4301
dinyatakan	4302
##kes	4303
alham	4304
ic	4305
sambil	4306
keempat	4307
##entang	4308
wisatawan	4309
smk	4310
##olaborasi	4311
##anyol	4312
##ungkap	4313
penceg	4314
spanyol	4315
sido	4316
departemen	4317
ayat	4318
##rist	4319
##antah	4320
lanjutnya	4321
kapolda	4322
natal	4323
swasta	4324
regulasi	4325
alhamdul	4326
vol	4327
##eja	4328
kew	4329
pasca	4330
beli	4331
ten	4332
##ujuk	4333
panc	4334
menerapkan	4335
lapas	4336
permasalahan	4337
##buk	4338
##eskrim	4339
mengapa	4340
erick	4341
world	4342
cerah	4343
##aing	4344
##lih	4345
pemad	4346
##upan	4347
##jakan	4348
tren	4349
membentuk	4350
##cepat	4351
susu	4352
artinya	4353
70	4354
ting	4355
##uw	4356
##ium	4357
##bon	4358
##jek	4359
##gag	4360
##idasi	4361
mendek	4362
imam	4363
perintah	4364
bn	4365
kai	4366
##teng	4367
##sur	4368
aktor	4369
karang	4370
##engaruhi	4371
perairan	4372
##sen	4373
##andi	4374
edukasi	4375
##va	4376
merayakan	4377
plastik	4378
don	4379
berkolaborasi	4380
sesuatu	4381
efisi	4382
bikin	4383
##hip	4384
ketentuan	4385
pembay	4386
pencegahan	4387
bet	4388
cik	4389
tbk	4390
kesi	4391
##uluh	4392
anwar	4393
alum	4394
reformasi	4395
tentunya	4396
keberl	4397
akrab	4398
pembayaran	4399
semif	4400
arm	4401
##engkapi	4402
krisis	4403
semifinal	4404
49	4405
##vi	4406
kalinya	4407
turnamen	4408
raja	4409
permainan	4410
peluncuran	4411
pangk	4412
jarak	4413
bbm	4414
dilansir	4415
akadem	4416
dibutuhkan	4417
by	4418
pesi	4419
wh	4420
##adang	4421
##ertai	4422
aut	4423
lancar	4424
##itia	4425
kopi	4426
ketum	4427
meteorologi	4428
kebudayaan	4429
lantas	4430
suas	4431
singapura	4432
cak	4433
##dem	4434
evaluasi	4435
detik	4436
investor	4437
spor	4438
bil	4439
cita	4440
syah	4441
##sean	4442
pembuk	4443
dukung	4444
gangg	4445
jus	4446
tahapan	4447
##intar	4448
penyer	4449
##indah	4450
suasana	4451
gangguan	4452
asuransi	4453
suka	4454
born	4455
penyidikan	4456
##awanan	4457
militan	4458
bkn	4459
seseorang	4460
bob	4461
menempat	4462
baz	4463
##antren	4464
semoga	4465
lulus	4466
##tok	4467
##cang	4468
##angkatan	4469
karno	4470
sandera	4471
sdm	4472
90	4473
##alurkan	4474
##idana	4475
kekhawat	4476
transi	4477
pasalnya	4478
mayoritas	4479
kekhawatiran	4480
58	4481
sc	4482
##sal	4483
##entan	4484
pesantren	4485
internal	4486
deklarasi	4487
inisiatif	4488
geo	4489
yas	4490
syari	4491
##yani	4492
mengimbau	4493
supaya	4494
jemaah	4495
kk	4496
pu	4497
##asia	4498
##tern	4499
persija	4500
membayar	4501
irak	4502
jembatan	4503
jurnalis	4504
59	4505
aspek	4506
suku	4507
keberadaan	4508
kelah	4509
berbagi	4510
##ataan	4511
persatuan	4512
berkat	4513
kilo	4514
borneo	4515
kelahiran	4516
52	4517
dwi	4518
##imaan	4519
##ayat	4520
disertai	4521
bantul	4522
ruu	4523
memperkenalkan	4524
prestasi	4525
##baiki	4526
ayu	4527
alhamdulillah	4528
asean	4529
dedi	4530
##dagang	4531
##tujui	4532
pokok	4533
##hasilan	4534
mendaftar	4535
peneliti	4536
jm	4537
lt	4538
lol	4539
##ron	4540
##amkan	4541
sambung	4542
75	4543
col	4544
##be	4545
##akkan	4546
sesi	4547
berangkat	4548
hasilnya	4549
setiawan	4550
penerimaan	4551
51	4552
cek	4553
lest	4554
##ear	4555
inflasi	4556
lum	4557
##hana	4558
##esik	4559
prakiraan	4560
muk	4561
dn	4562
##aritas	4563
market	4564
##amatkan	4565
##ingin	4566
mengus	4567
pernik	4568
ppp	4569
polrestabes	4570
modal	4571
mengakhiri	4572
istana	4573
sasaran	4574
53	4575
wis	4576
##ph	4577
sela	4578
sebagaimana	4579
sidoarjo	4580
mit	4581
wna	4582
menampilkan	4583
lepas	4584
##fitri	4585
##ato	4586
##alih	4587
tertu	4588
##itakan	4589
penip	4590
maaf	4591
2018	4592
mempunya	4593
menangani	4594
indep	4595
pendapat	4596
kilogram	4597
##ulangan	4598
##embali	4599
gelombang	4600
independ	4601
##waj	4602
##luas	4603
transp	4604
batang	4605
jember	4606
##ementasi	4607
menko	4608
##urit	4609
##day	4610
##epon	4611
kontribusi	4612
tahunan	4613
belanja	4614
transformasi	4615
##alik	4616
konsisten	4617
mempunyai	4618
wawan	4619
satgas	4620
mengakibatkan	4621
cc	4622
##elang	4623
mengin	4624
dilantik	4625
arya	4626
##ower	4627
ketidak	4628
54	4629
level	4630
psis	4631
##adwalkan	4632
boy	4633
puasa	4634
##angkau	4635
elektronik	4636
pernikahan	4637
ci	4638
yah	4639
##vin	4640
dibangun	4641
##tusi	4642
pedagang	4643
##ance	4644
nasdem	4645
yay	4646
penemb	4647
menghindari	4648
konsumsi	4649
penganiayaan	4650
cag	4651
##hk	4652
pasokan	4653
pag	4654
tar	4655
##imat	4656
melip	4657
pola	4658
##dagri	4659
memeriksa	4660
##tusias	4661
xi	4662
antusias	4663
##aksikan	4664
##ancarkan	4665
##ijen	4666
##untutan	4667
46	4668
tep	4669
##kus	4670
menguc	4671
terjadinya	4672
##untungan	4673
yayasan	4674
uh	4675
belanda	4676
##onstr	4677
aff	4678
halaman	4679
murah	4680
##fer	4681
peroleh	4682
otoritas	4683
57	4684
bent	4685
##do	4686
kud	4687
sut	4688
mengant	4689
##angkut	4690
adik	4691
##hanc	4692
##batas	4693
berhenti	4694
300	4695
rektor	4696
hek	4697
land	4698
main	4699
york	4700
tersedia	4701
pensi	4702
merasakan	4703
mempersiapkan	4704
university	4705
pss	4706
buruh	4707
alih	4708
tiktok	4709
optimistis	4710
fad	4711
##ekaan	4712
adi	4713
all	4714
martin	4715
temuan	4716
namanya	4717
gresik	4718
pencurian	4719
pakistan	4720
idulfitri	4721
kotak	4722
menu	4723
menuntut	4724
menargetkan	4725
divisi	4726
perform	4727
pemenangan	4728
surya	4729
dewa	4730
pssi	4731
##san	4732
keterl	4733
ramah	4734
keluarganya	4735
dol	4736
##dian	4737
##cok	4738
arema	4739
respon	4740
keberhasilan	4741
sambutan	4742
fraksi	4743
menikmati	4744
sari	4745
sma	4746
##usak	4747
##oblos	4748
sarana	4749
corpor	4750
cinta	4751
doa	4752
niaga	4753
wita	4754
##rut	4755
##alang	4756
prop	4757
juanda	4758
##awal	4759
arahan	4760
suam	4761
membantah	4762
wasp	4763
parkir	4764
david	4765
pond	4766
##oko	4767
mendengar	4768
kongres	4769
pegi	4770
pilih	4771
pembal	4772
badung	4773
bila	4774
bertugas	4775
penangg	4776
penind	4777
penonton	4778
##andai	4779
series	4780
diberi	4781
berjudul	4782
hendak	4783
ky	4784
mesi	4785
rom	4786
##inar	4787
##tib	4788
pelantikan	4789
pembebasan	4790
klimat	4791
selebritas	4792
klimatologi	4793
##au	4794
##lakukan	4795
##fo	4796
##ktikan	4797
##js	4798
pra	4799
##awang	4800
##asaan	4801
komentar	4802
daring	4803
mengenakan	4804
penerima	4805
besok	4806
mengirimkan	4807
kredit	4808
keberlanjutan	4809
hektar	4810
ven	4811
##kah	4812
##akter	4813
##ement	4814
pergi	4815
pemenang	4816
kesul	4817
rekor	4818
gelora	4819
kompetensi	4820
##fisika	4821
geofisika	4822
suaminya	4823
web	4824
##ku	4825
##bitkan	4826
berjuang	4827
perund	4828
##ulian	4829
istr	4830
2016	4831
ngurah	4832
perumahan	4833
kaj	4834
sch	4835
terse	4836
penampilan	4837
##ambangan	4838
##uruhan	4839
##klusif	4840
asi	4841
##ebaskan	4842
##ingkatkan	4843
kedatangan	4844
intelijen	4845
##roli	4846
mena	4847
sec	4848
instansi	4849
jaminan	4850
cerita	4851
ras	4852
##kom	4853
##iner	4854
##uters	4855
ade	4856
adv	4857
timnya	4858
raf	4859
supri	4860
##my	4861
menel	4862
meru	4863
##abilitas	4864
pencapaian	4865
rupiah	4866
##unjukan	4867
gereja	4868
event	4869
suhu	4870
banjar	4871
rem	4872
tkp	4873
##irikan	4874
melanda	4875
##jual	4876
penggel	4877
youtu	4878
tamu	4879
gula	4880
##nia	4881
##ahaman	4882
alex	4883
##ormatan	4884
paus	4885
penerapan	4886
menyerukan	4887
mesir	4888
istrinya	4889
pengadaan	4890
##ormati	4891
saham	4892
##lad	4893
##jana	4894
beri	4895
##ust	4896
##ebar	4897
sejalan	4898
panitia	4899
2017	4900
fakul	4901
memperingatkan	4902
tersebar	4903
bud	4904
hulu	4905
tk	4906
##injau	4907
sekutu	4908
persa	4909
menganggap	4910
pns	4911
perolehan	4912
ver	4913
zul	4914
rumahnya	4915
parpol	4916
pakai	4917
mineral	4918
maluku	4919
andika	4920
fakultas	4921
79	4922
##ding	4923
gre	4924
##eco	4925
##timewa	4926
suporter	4927
gud	4928
kira	4929
nana	4930
out	4931
##put	4932
diran	4933
##emar	4934
##ony	4935
partisipasi	4936
wajah	4937
##uyur	4938
penipuan	4939
dirancang	4940
cuma	4941
contoh	4942
##hub	4943
menahan	4944
##ambarkan	4945
pesta	4946
penembakan	4947
cr	4948
cah	4949
##par	4950
pres	4951
##egoro	4952
##abil	4953
palsu	4954
kekalahan	4955
permuk	4956
kesulitan	4957
luth	4958
2029	4959
##trik	4960
berlanjut	4961
emisi	4962
sampaikan	4963
federal	4964
ced	4965
ft	4966
diajukan	4967
penyedia	4968
oposisi	4969
fau	4970
dosen	4971
abu	4972
run	4973
diadakan	4974
asasi	4975
penjelasan	4976
artis	4977
produsen	4978
day	4979
##atih	4980
reskrim	4981
melayani	4982
meliputi	4983
##itim	4984
##iden	4985
reuters	4986
tradisional	4987
gaya	4988
my	4989
##uel	4990
##uali	4991
##st	4992
##onegoro	4993
##inginan	4994
##imis	4995
indo	4996
kemerd	4997
semen	4998
karakter	4999
