<unk>	0
<s>	0
</s>	0
▁	-3.37276
,	-3.41511
.	-3.50997
▁di	-3.92049
▁yang	-4.18642
▁dan	-4.28613
an	-4.4324
kan	-4.51392
▁,	-4.77557
i	-4.99349
-	-5.07371
▁.	-5.08126
▁untuk	-5.0873
▁se	-5.09007
▁-	-5.15651
▁(	-5.18886
▁dengan	-5.21519
▁"	-5.25397
▁ke	-5.27985
)	-5.2819
▁dari	-5.28522
▁ini	-5.29231
▁ber	-5.32026
▁itu	-5.3397
▁pada	-5.37851
nya	-5.38049
▁dalam	-5.39272
▁2024	-5.6306
▁me	-5.79724
▁meng	-5.82173
▁tidak	-5.83016
a	-5.86226
▁akan	-5.89177
▁tersebut	-5.89978
▁Indonesia	-5.90534
telah	-5.93024
",	-5.99188
▁juga	-6.03199
com	-6.04664
▁WIB	-6.09123
▁p	-6.11595
▁nya	-6.14242
▁ter	-6.16392
▁kata	-6.16426
▁",	-6.19665
▁ada	-6.20102
▁mem	-6.20729
s	-6.23211
▁menjadi	-6.23752
▁mengatakan	-6.2553
l	-6.26717
▁saat	-6.30195
▁bahwa	-6.30645
▁sebagai	-6.31163
▁oleh	-6.34314
▁P	-6.36144
▁tahun	-6.37548
▁Se	-6.39117
▁bisa	-6.43318
k	-6.47487
▁kepada	-6.47669
▁atau	-6.49492
▁jpnn	-6.50695
▁lebih	-6.52268
▁mereka	-6.54688
▁Jakarta	-6.57176
▁satu	-6.58635
▁orang	-6.61066
sudah	-6.63705
e	-6.65467
▁karena	-6.65497
▁men	-6.68715
▁para	-6.70248
▁adalah	-6.70884
▁Kota	-6.70962
▁kami	-6.71763
▁masyarakat	-6.73863
hingga	-6.75463
▁melakukan	-6.76739
cara	-6.77742
▁meny	-6.78125
/	-6.78508
▁hari	-6.78536
▁Di	-6.83705
▁negara	-6.84221
▁bagi	-6.85347
▁terhadap	-6.85394
▁be	-6.86021
▁dapat	-6.8803
▁dia	-6.88067
t	-6.88326
▁K	-6.89615
o	-6.89626
ARTA	-6.91746
▁memberi	-6.92038
y	-6.93737
berapa	-6.94051
▁Selasa	-6.96446
▁Rabu	-6.97021
jpnn	-6.97658
▁JAK	-6.97742
▁S	-6.98404
▁Senin	-6.99499
▁Dia	-6.99704
ur	-7.00072
r	-7.01158
▁Kamis	-7.0127
▁A	-7.01511
▁merupakan	-7.01605
▁M	-7.019
▁dua	-7.03095
▁seperti	-7.03161
▁baru	-7.0432
n	-7.04453
▁warga	-7.06651
▁Kabupaten	-7.07181
▁Jumat	-7.07515
▁masih	-7.0832
▁harus	-7.09874
▁dilakukan	-7.10159
▁saya	-7.10685
▁serta	-7.11536
si	-7.12724
▁2024.	-7.14096
▁banyak	-7.14358
▁Jawa	-7.15032
▁terjadi	-7.15968
▁B	-7.16863
▁hanya	-7.17094
▁Presiden	-7.17226
▁besar	-7.17473
▁atas	-7.17547
▁korban	-7.17879
▁pihak	-7.1866
▁Israel	-7.18831
▁lalu	-7.18964
▁Bali	-7.19066
▁memiliki	-7.20803
▁anak	-7.22844
▁ujar	-7.2294
▁Ketua	-7.23259
▁bersama	-7.23755
▁T	-7.24241
▁selama	-7.24842
▁baik	-7.26779
▁rumah	-7.27211
▁sangat	-7.27996
h	-7.28359
▁salah	-7.29051
▁m	-7.30187
▁t	-7.30907
▁kasus	-7.30976
▁s	-7.31812
▁Ke	-7.31866
ng	-7.32182
▁pemerintah	-7.32874
▁Rp	-7.35026
▁wilayah	-7.35262
buah	-7.35401
▁kita	-7.35759
▁Sabtu	-7.36209
▁1	-7.37665
jumlah	-7.37836
▁sama	-7.37984
▁AS	-7.38099
▁melalu	-7.38545
▁per	-7.39523
▁Barat	-7.39803
:	-7.39889
▁tetapi	-7.40239
▁Namun	-7.40457
agar	-7.40941
▁Minggu	-7.4101
▁Prabowo	-7.41272
▁kembali	-7.41457
▁terus	-7.41501
bagai	-7.4197
jak	-7.42492
▁terkait	-7.42699
▁persen	-7.43042
▁lain	-7.43072
▁mendapat	-7.4396
▁apa	-7.44949
tiga	-7.45101
▁seluruh	-7.46231
0	-7.46745
▁PT	-7.47236
er	-7.47711
▁hal	-7.49489
▁sekitar	-7.49836
▁daerah	-7.51356
lain	-7.5239
▁G	-7.53552
▁program	-7.53725
tika	-7.53812
▁pun	-7.53927
al	-7.54673
▁Selatan	-7.54691
▁lainnya	-7.55855
us	-7.5662
▁Menurut	-7.56805
▁Menteri	-7.57311
masuk	-7.57604
▁I	-7.57607
▁calon	-7.57638
▁dunia	-7.57692
belum	-7.57736
▁tim	-7.57904
▁Dalam	-7.58518
▁hasil	-7.58901
▁kerja	-7.5929
▁antara	-7.59731
▁pertama	-7.59799
▁tentang	-7.60021
▁RI	-7.61059
▁Kepala	-7.61353
▁sedang	-7.61748
mulai	-7.61958
5	-7.62042
▁Surabaya	-7.62055
▁Bandung	-7.64473
▁Ini	-7.645
▁membuat	-7.65033
▁pelaku	-7.65254
▁semua	-7.65275
▁tak	-7.66236
u	-7.6648
▁Partai	-7.67584
▁Timur	-7.679
▁China	-7.68255
▁langsung	-7.68256
▁hukum	-7.68314
3	-7.69735
▁U	-7.70934
▁waktu	-7.71036
1	-7.7107
▁Pilkada	-7.7136
▁C	-7.71749
▁Tengah	-7.71816
▁anggota	-7.71816
▁kali	-7.71911
2	-7.72191
▁kedua	-7.72428
▁2	-7.73447
▁suara	-7.73622
lah	-7.74189
ah	-7.74724
▁bulan	-7.75273
▁mendukung	-7.75448
▁katanya	-7.75794
▁kota	-7.76111
▁depan	-7.76214
d	-7.76418
ampaikan	-7.76905
or	-7.76926
▁bagian	-7.77809
▁tempat	-7.77821
▁10	-7.78103
▁politik	-7.78837
▁H	-7.78867
▁serangan	-7.78975
▁Amerika	-7.79698
m	-7.8016
ta	-7.80192
in	-7.80329
▁ia	-7.80478
is	-7.80698
▁saja	-7.80973
▁proses	-7.81298
P	-7.81431
▁meningkatkan	-7.81679
▁Pada	-7.81943
pun	-7.82301
▁perusahaan	-7.82481
▁[	-7.82879
▁tinggi	-7.82933
▁lagi	-7.83134
▁media	-7.84629
ing	-7.84717
▁menggunakan	-7.85137
▁juta	-7.85197
▁Hal	-7.85533
▁malam	-7.86245
▁Rusia	-7.87119
▁kesehatan	-7.87323
▁pe	-7.87546
▁tetap	-7.87912
▁masa	-7.87922
▁3	-7.87932
▁menjelaskan	-7.88313
ar	-7.88441
▁menyebut	-7.88947
▁penting	-7.88992
seorang	-7.89065
▁bukan	-7.89084
▁yakni	-7.89172
▁'	-7.89276
▁Umum	-7.89592
▁Ber	-7.89754
▁D	-7.90099
7	-7.90117
▁Oktober	-7.90611
▁ingin	-7.90867
▁kegiatan	-7.91175
▁Gubernur	-7.9188
▁Kecamatan	-7.92336
▁air	-7.92422
▁upaya	-7.92736
ca	-7.93608
▁tersangka	-7.93715
▁diri	-7.93765
▁Kementerian	-7.9385
▁Juli	-7.93988
▁pemain	-7.9412
▁berada	-7.94528
▁sampai	-7.94826
▁luar	-7.94917
orang	-7.9495
▁E	-7.95421
]	-7.95504
▁kemudian	-7.95654
tiap	-7.96003
ncapai	-7.96066
▁November	-7.96308
8	-7.9649
9	-7.96597
▁Kami	-7.96614
▁menunjuk	-7.96705
alami	-7.9705
▁presiden	-7.97809
▁Waki	-7.97915
▁Tahun	-7.98075
▁khusus	-7.98864
▁Gaza	-7.99112
▁sebelumnya	-7.99169
▁Semarang	-7.99396
▁sosial	-7.9974
▁masuk	-7.9987
Polda	-8.00132
6	-8.00182
▁pukul	-8.00187
▁acara	-8.0027
▁perempuan	-8.005
▁dukungan	-8.00527
▁Me	-8.00766
4	-8.01079
▁20	-8.01169
▁Direkt	-8.01555
▁membantu	-8.01689
▁kawasan	-8.01813
▁jadi	-8.01952
▁Bogor	-8.02143
▁Foto	-8.02607
▁mengaku	-8.02702
ka	-8.02807
▁Sementara	-8.02918
▁pasangan	-8.03157
▁Jalan	-8.03473
▁)	-8.03882
▁Utara	-8.04067
▁Agustus	-8.04366
▁nomor	-8.04388
▁produk	-8.04552
▁menyatakan	-8.04918
▁Mei	-8.04947
▁mengena	-8.05004
▁:	-8.05008
▁Nasional	-8.05042
▁Badan	-8.05237
▁ekonomi	-8.05753
▁terakhir	-8.05997
▁Tim	-8.06118
▁Juni	-8.06242
▁Desa	-8.0652
▁Jadi	-8.06791
Kami	-8.06801
▁bantuan	-8.07003
▁lokasi	-8.07015
▁jalan	-8.07298
▁b	-8.07437
▁memasti	-8.07524
jika	-8.08144
▁September	-8.0816
p	-8.08242
▁meminta	-8.0835
▁12	-8.08411
▁Desember	-8.08573
▁PPPK	-8.08646
▁keluarga	-8.09085
▁mau	-8.09447
▁mana	-8.10026
▁Pemerintah	-8.1003
▁Saya	-8.1022
▁tengah	-8.10304
▁DPR	-8.10575
▁berlangsung	-8.10879
▁lanjut	-8.11128
▁meninggal	-8.11387
▁R	-8.11536
▁Januari	-8.11753
▁berhasil	-8.11904
ang	-8.1192
▁Negeri	-8.12072
▁kondisi	-8.12518
on	-8.13014
akibat	-8.13051
▁gambar	-8.13264
▁asal	-8.13438
▁laga	-8.13636
▁empat	-8.13652
▁April	-8.13695
▁United	-8.1399
▁sendiri	-8.14282
S	-8.14296
▁partai	-8.14358
▁Jokowi	-8.15239
▁Timnas	-8.15284
aling	-8.15308
▁polisi	-8.15491
▁soal	-8.15616
▁mobil	-8.15642
▁ribu	-8.15661
▁melihat	-8.15713
▁15	-8.15775
▁sesuai	-8.16264
▁ujarnya	-8.16313
▁resmi	-8.16776
▁peng	-8.16995
▁berharap	-8.17049
▁sebesar	-8.17117
▁?	-8.17193
▁F	-8.1723
▁Asia	-8.17292
▁Hari	-8.17368
▁jumlah	-8.1764
▁j	-8.17836
lima	-8.18076
▁kelompok	-8.18298
▁Para	-8.18653
▁militer	-8.18757
da	-8.18839
▁Komisi	-8.18854
▁Liga	-8.18941
▁Trump	-8.19329
▁Maret	-8.199
▁bekerja	-8.19973
▁informasi	-8.20723
ernah	-8.20745
▁Ukraina	-8.20904
&	-8.20951
▁5	-8.2112
▁utama	-8.21122
▁perlu	-8.21221
g	-8.21248
▁hadir	-8.21326
anpa	-8.2144
▁Polres	-8.22128
tif	-8.22177
▁4	-8.22315
▁Mereka	-8.22349
▁barang	-8.2254
▁Ada	-8.22548
▁Daerah	-8.22691
▁lingkungan	-8.22691
▁membawa	-8.22703
▁laporan	-8.23038
▁kendaraan	-8.2337
▁memper	-8.23493
▁Al	-8.23714
▁pen	-8.23725
▁yaitu	-8.24004
▁N	-8.24153
▁2024,	-8.24498
▁Anda	-8.24533
▁menjalan	-8.24544
▁nasional	-8.24732
▁a	-8.24977
▁Provinsi	-8.24987
el	-8.25235
▁menerima	-8.25335
▁Iran	-8.25826
▁Korea	-8.25851
▁sebelum	-8.2609
▁uang	-8.26117
en	-8.26171
▁Pemilu	-8.26712
iala	-8.26972
▁awal	-8.27083
▁sebanyak	-8.27088
▁layanan	-8.27202
▁KPU	-8.27382
▁baka	-8.27432
at	-8.27799
▁keamanan	-8.27815
▁dugaan	-8.28279
▁16	-8.28497
▁TNI	-8.28793
▁mengungkapkan	-8.28947
▁14	-8.29137
tan	-8.29399
melawan	-8.29523
▁kepala	-8.29582
'	-8.297
A	-8.29743
▁dirinya	-8.30164
▁masalah	-8.30286
▁L	-8.30494
▁30	-8.30583
▁kini	-8.30947
▁menggelar	-8.30991
▁7	-8.31303
▁pendidikan	-8.31333
▁/	-8.31352
▁bawah	-8.3139
na	-8.31448
▁muda	-8.31714
▁perang	-8.31784
▁Serikat	-8.32072
▁menurut	-8.3216
▁menghadapi	-8.32646
▁industri	-8.33095
▁Saat	-8.33147
▁11	-8.33171
▁18	-8.33907
▁pertandingan	-8.33918
▁19	-8.34273
duga	-8.34353
▁cukup	-8.34479
▁Anies	-8.35032
▁Ia	-8.35373
▁menjag	-8.3555
▁pembangunan	-8.359
▁data	-8.36087
▁nama	-8.36283
▁Pusat	-8.36364
▁keterangan	-8.36489
▁segera	-8.3654
▁sementara	-8.36621
▁langkah	-8.36768
▁surat	-8.36992
▁kampanye	-8.37017
▁miliar	-8.37349
▁tingkat	-8.3736
▁Negara	-8.37467
ma	-8.37513
▁harga	-8.37545
▁mungkin	-8.37609
akan	-8.37832
▁KPK	-8.38043
f	-8.38133
▁biasa	-8.3824
▁bukti	-8.38328
▁13	-8.38416
▁senjata	-8.38765
▁Papua	-8.3887
▁Per	-8.38883
ra	-8.39029
▁negeri	-8.39188
▁jelas	-8.39285
raih	-8.39353
▁Kantor	-8.39614
▁2023	-8.39635
▁17	-8.39787
▁lama	-8.39843
Universitas	-8.40008
▁memang	-8.40011
di	-8.40139
▁Stadion	-8.40255
▁sekolah	-8.40337
le	-8.40382
anak	-8.40819
asi	-8.40877
▁kebijakan	-8.41045
▁Ahmad	-8.41063
▁digelar	-8.41063
▁mampu	-8.41063
B	-8.41191
ti	-8.41322
c	-8.41349
▁mendatang	-8.41988
▁k	-8.42399
▁mantan	-8.42593
▁kebutuhan	-8.42834
▁hak	-8.42849
▁J	-8.43086
▁internasional	-8.43139
K	-8.43281
▁Palestina	-8.43328
▁24	-8.43901
bahkan	-8.44003
▁Ter	-8.4422
lalu	-8.44304
▁umum	-8.44357
▁pejabat	-8.44548
▁Solo	-8.44839
▁pemilu	-8.44849
▁Keterangan	-8.44923
kah	-8.45075
▁Bea	-8.45101
▁Polisi	-8.45156
▁merasa	-8.45472
▁Setelah	-8.45579
kaligus	-8.45841
▁Ganjar	-8.45942
sehingga	-8.46099
▁datang	-8.4624
▁sistem	-8.46335
ri	-8.46567
▁akhir	-8.46753
▁Polri	-8.46756
▁urut	-8.46793
z	-8.46807
▁25	-8.46857
▁pekan	-8.46906
▁rasa	-8.47041
▁Cukai	-8.47083
▁siap	-8.47433
▁".	-8.47568
▁mendorong	-8.4762
punya	-8.47647
▁pernyataan	-8.48389
▁re	-8.48519
▁hujan	-8.48817
▁ungkap	-8.48826
▁makanan	-8.48992
▁Bank	-8.49408
▁Depok	-8.49642
▁sakit	-8.49805
▁akhirnya	-8.49817
▁publik	-8.4994
▁Bupati	-8.49993
▁tanah	-8.49997
▁guru	-8.50338
▁pasar	-8.50361
usai	-8.50409
▁pemimpin	-8.50471
▁menang	-8.50738
▁Hamas	-8.51147
G	-8.51241
▁21	-8.51563
▁kejadian	-8.51662
▁Februari	-8.51755
upaya	-8.51787
▁listrik	-8.52256
▁menilai	-8.52372
M	-8.52384
enam	-8.52754
▁pers	-8.52837
▁kalau	-8.52939
▁wakil	-8.53056
▁digunakan	-8.53362
▁Biden	-8.53484
sa	-8.53581
▁Wali	-8.53582
▁ibu	-8.53751
▁menegaskan	-8.53788
▁Persib	-8.538
▁Deng	-8.53808
▁menuju	-8.53981
▁Nomor	-8.54096
em	-8.5425
▁Meski	-8.54254
▁23	-8.54347
▁ditemukan	-8.54463
▁Untu	-8.54466
▁teknologi	-8.54738
▁kapal	-8.54746
usia	-8.54765
▁ya	-8.5478
b	-8.54988
▁motor	-8.54991
H	-8.55052
▁hidup	-8.55063
▁menambahkan	-8.55094
▁berjalan	-8.55096
▁Jepang	-8.55245
▁aksi	-8.55355
uan	-8.5562
▁peserta	-8.55899
▁Re	-8.55936
▁Baru	-8.5624
▁tewas	-8.56251
R	-8.56305
▁DKI	-8.56469
▁Jatim	-8.56528
▁petugas	-8.5654
▁meski	-8.56745
▁kon	-8.57223
▁27	-8.5728
jukan	-8.57365
es	-8.57392
▁pem	-8.57481
▁of	-8.57593
▁tahu	-8.57712
T	-8.57987
▁22	-8.58085
▁d	-8.58295
▁Adapun	-8.58365
▁Be	-8.58412
▁Banten	-8.58475
▁Pemilih	-8.58568
▁e	-8.58602
▁Salah	-8.58648
▁6	-8.58783
▁period	-8.58919
bkan	-8.59025
▁V	-8.59057
▁Eropa	-8.59214
▁pemeriksaan	-8.59363
▁Pertamina	-8.59408
▁musim	-8.59458
sempat	-8.59523
▁The	-8.59812
▁sektor	-8.59934
▁ucap	-8.59959
▁pemerintahan	-8.60081
▁berinisia	-8.60181
ul	-8.60326
▁menemu	-8.60519
terutama	-8.6058
▁jam	-8.60717
▁Jenderal	-8.60848
▁diberikan	-8.6096
▁Calon	-8.61004
▁Kemudian	-8.61145
▁Program	-8.61231
nama	-8.61232
▁posisi	-8.61283
▁hubungan	-8.61346
▁Tak	-8.61358
et	-8.61371
▁cepat	-8.61468
▁ketiga	-8.61485
▁Dinas	-8.61722
▁cua	-8.61725
▁jatim	-8.61977
uk	-8.62058
▁korupsi	-8.62064
▁desa	-8.62165
▁Subianto	-8.62241
panjang	-8.62858
▁membangun	-8.62999
▁W	-8.63372
▁bisnis	-8.63502
▁meningkat	-8.63574
▁perubahan	-8.63655
▁Pak	-8.63803
▁maka	-8.63983
▁O	-8.64043
▁rakyat	-8.64264
▁berdasar	-8.64882
▁video	-8.64899
D	-8.64942
▁mahasiswa	-8.65206
▁keputusan	-8.65259
▁disampaikan	-8.65305
▁jabar	-8.65335
▁bentuk	-8.65383
um	-8.65396
▁FC	-8.65719
▁terbaik	-8.65972
▁milik	-8.66042
▁Jabar	-8.66099
itas	-8.66151
ed	-8.66156
▁pertemuan	-8.66195
▁kantor	-8.66393
diri	-8.66568
▁8	-8.66607
▁pemilihan	-8.66972
▁film	-8.66997
▁Jateng	-8.67017
▁tinggal	-8.67102
▁nanti	-8.67136
▁usaha	-8.67276
▁peningkat	-8.67383
▁Pe	-8.6755
▁kemenangan	-8.67665
▁kesempatan	-8.6782
▁tindakan	-8.67822
▁Agung	-8.67878
▁disebut	-8.68008
Gibran	-8.68082
se	-8.68172
▁Tida	-8.68295
▁Pelatih	-8.68303
Saya	-8.68304
▁ikut	-8.68314
▁Dewan	-8.68418
▁perjalanan	-8.68444
▁PBB	-8.68504
lalui	-8.68634
as	-8.68774
▁terbaru	-8.68801
temu	-8.68829
▁daya	-8.68874
▁Inggris	-8.68943
▁udara	-8.69014
▁jauh	-8.6922
▁jenis	-8.69229
aupun	-8.69248
▁dekat	-8.69306
▁kurang	-8.69376
ya	-8.69377
▁Su	-8.69453
man	-8.69529
enuhi	-8.69549
negara	-8.69559
▁terpilih	-8.70005
▁n	-8.70122
▁memilih	-8.70672
▁kuat	-8.70703
▁bahan	-8.70966
▁Gibran	-8.70971
"	-8.70999
ab	-8.71159
▁UMKM	-8.71594
▁turun	-8.71697
han	-8.71775
▁tenaga	-8.71794
▁Golkar	-8.71797
▁begitu	-8.71916
▁Rumah	-8.71921
ikuti	-8.71991
▁potensi	-8.72041
▁Denpasar	-8.72064
▁kecil	-8.72121
▁Hukum	-8.72359
▁26	-8.72378
▁pria	-8.72614
makin	-8.72769
▁bali	-8.72921
▁bidang	-8.72932
▁terlibat	-8.72952
▁saksi	-8.7296
▁in	-8.72976
▁cara	-8.72992
▁aman	-8.73047
▁nilai	-8.73409
▁operasi	-8.73625
▁komitmen	-8.73668
▁penuh	-8.73681
▁online	-8.73699
▁gol	-8.73738
▁mengingat	-8.73778
▁pusat	-8.73837
ak	-8.73932
▁melaporkan	-8.74265
ir	-8.74288
▁Warga	-8.74763
▁poin	-8.74764
▁Jaya	-8.75089
harapkan	-8.75132
ut	-8.75144
▁PDIP	-8.75438
▁28	-8.75486
▁c	-8.75648
▁rencana	-8.75917
▁ditangkap	-8.75972
mengambil	-8.76036
dapat	-8.76056
▁Dari	-8.7617
▁menit	-8.76192
▁dampak	-8.76235
▁Australia	-8.7651
▁maju	-8.76674
▁fasilitas	-8.7675
▁lembaga	-8.76783
edung	-8.76825
▁bagaimana	-8.76842
▁Menurutnya	-8.77028
▁satunya	-8.77183
semakin	-8.77239
▁sumber	-8.77304
▁global	-8.77362
masing	-8.7747
▁X	-8.77476
▁sekarang	-8.77517
hampir	-8.77721
▁29	-8.7778
▁laut	-8.77808
to	-8.77901
▁lintas	-8.77927
▁Budi	-8.78056
▁ASN	-8.78131
▁dibanding	-8.78145
▁Dunia	-8.78299
▁pekerja	-8.78336
▁digital	-8.78364
▁Raya	-8.78429
▁positif	-8.78456
▁banjir	-8.78767
▁honorer	-8.78773
▁Riau	-8.78786
▁total	-8.79009
▁Utama	-8.79421
▁Perjuangan	-8.79617
▁kekerasan	-8.79642
ik	-8.79883
bagian	-8.7998
▁Besar	-8.80043
▁menga	-8.8008
▁keras	-8.80081
▁unit	-8.80212
▁pagi	-8.80377
ni	-8.8043
▁pidana	-8.80632
▁gubernur	-8.80681
▁penghargaan	-8.80922
▁bermain	-8.8126
nilai	-8.81344
banyak	-8.81425
perkuat	-8.81653
▁De	-8.81924
▁pasukan	-8.81975
▁guna	-8.82029
▁angka	-8.82409
▁manusia	-8.82552
▁setempat	-8.82849
tor	-8.82981
▁antaranya	-8.82994
▁Ka	-8.83047
▁tentu	-8.83204
▁Si	-8.83303
ferensi	-8.83326
▁tepat	-8.83329
▁lapangan	-8.83451
ris	-8.83471
▁naik	-8.83539
▁Republik	-8.83783
I	-8.83828
no	-8.83905
▁Dua	-8.83927
▁Yogyakarta	-8.83987
▁Pen	-8.84232
F	-8.84344
▁peran	-8.84483
dungan	-8.84507
▁menyeba	-8.84534
▁berita	-8.84722
▁energi	-8.84876
▁pemilih	-8.84937
me	-8.84993
ajang	-8.85214
▁jawab	-8.85682
namun	-8.85807
▁pelanggaran	-8.86002
▁Muhammad	-8.86139
ter	-8.86476
▁menjela	-8.86517
co	-8.86794
▁DPRD	-8.86851
ce	-8.86892
▁sekali	-8.86944
ahan	-8.86965
▁sipil	-8.86982
▁pengembang	-8.87059
▁masing	-8.87319
▁Joko	-8.87319
ga	-8.87333
▁lokal	-8.87673
▁menarik	-8.87762
▁turut	-8.87796
▁narkoba	-8.88077
▁PDI	-8.88171
▁sisi	-8.8823
tapi	-8.88289
▁jalur	-8.88448
▁sering	-8.88658
wan	-8.8904
▁tangan	-8.89151
▁mencari	-8.89499
▁menghadir	-8.89606
▁berbeda	-8.89639
▁perkara	-8.89674
▁sedikit	-8.89847
▁kemungkinan	-8.89847
▁II	-8.89949
▁belakang	-8.89967
▁Kerja	-8.90011
▁kualitas	-8.90023
▁fokus	-8.90066
la	-8.9039
▁menyebutkan	-8.90489
J	-8.90498
▁Kesehatan	-8.90643
▁benar	-8.90703
▁demi	-8.90827
▁target	-8.90977
▁mencipt	-8.91098
undang	-8.9116
▁akses	-8.91176
▁menekan	-8.91193
▁demikian	-8.91201
▁kemarin	-8.91358
C	-8.91536
▁mudah	-8.91661
▁Anak	-8.91965
irakan	-8.92201
▁pengalaman	-8.92256
▁Air	-8.92536
▁Sebelumnya	-8.92626
▁UU	-8.92776
▁menteri	-8.92794
▁organisasi	-8.92813
▁diketahui	-8.92887
umumkan	-8.92899
▁keuangan	-8.92978
▁luas	-8.93228
▁keterangannya	-8.9324
▁Anggota	-8.93242
▁Abdul	-8.93251
▁Widodo	-8.93342
mi	-8.93348
▁situasi	-8.93349
▁Agus	-8.93383
▁asing	-8.93405
▁pelaksanaan	-8.93466
it	-8.93503
▁muncul	-8.9351
▁ruang	-8.93571
▁kecelakaan	-8.93799
isasi	-8.93817
▁pembunuhan	-8.93974
▁berat	-8.94057
▁31	-8.94107
▁isu	-8.94201
▁Men	-8.94213
▁tuturnya	-8.94303
▁Karena	-8.94305
▁Dan	-8.94315
id	-8.94351
▁Pem	-8.94419
▁bicara	-8.94474
▁api	-8.94499
▁DPP	-8.94599
Kombes	-8.9468
▁makan	-8.9483
▁Sumatera	-8.94843
▁Lebih	-8.94978
▁Pilpres	-8.95024
▁dini	-8.952
▁Malang	-8.95396
▁Kedua	-8.95518
▁Bidang	-8.95558
anggap	-8.95564
▁Laut	-8.95762
ung	-8.95779
▁Masyarakat	-8.95818
N	-8.95851
▁pertumbuhan	-8.95957
▁ilegal	-8.96024
▁putusan	-8.9608
▁Aceh	-8.96123
▁membuk	-8.9617
▁Itu	-8.96196
▁produksi	-8.9625
▁Islam	-8.96262
▁Demokrat	-8.96398
▁Humas	-8.96419
▁),	-8.9645
te	-8.96478
▁pesawat	-8.9659
▁emas	-8.96617
un	-8.96665
▁melaksana	-8.9668
▁ucapnya	-8.96872
▁tubuh	-8.96881
NG	-8.96906
li	-8.97014
x	-8.971
▁2022	-8.9719
sama	-8.97334
ba	-8.97474
komitmen	-8.97574
ro	-8.97682
▁tiba	-8.97776
▁Bawaslu	-8.97953
▁bangsa	-8.97957
▁Tangerang	-8.98105
▁Ha	-8.98316
▁area	-8.98479
▁sana	-8.985
▁tanggal	-8.98623
▁diterima	-8.98754
UNG	-8.98844
▁kasih	-8.98955
▁SURA	-8.98978
▁aturan	-8.98996
▁Satu	-8.99211
▁pangan	-8.99295
▁dikenal	-8.99516
▁Arab	-8.99565
usaha	-8.99635
▁titik	-8.99738
▁penyakit	-8.99888
AKBP	-8.99939
▁Pengadilan	-8.99939
▁lewat	-8.9995
▁tegas	-9.0008
▁dimulai	-9.00147
ajak	-9.00364
▁alat	-9.0043
alias	-9.00435
▁02	-9.00474
BAYA	-9.00526
▁budaya	-9.00529
asal	-9.00534
memimpin	-9.00588
▁panjang	-9.00592
apa	-9.00662
▁kepolisian	-9.00721
W	-9.00756
▁Pendidikan	-9.00819
▁pengguna	-9.00849
▁Dr	-9.00922
▁sidang	-9.00948
de	-9.00981
apan	-9.01196
▁survei	-9.01312
▁Sekretaris	-9.01327
▁g	-9.01336
▁tantangan	-9.01512
laporkan	-9.01594
▁terlihat	-9.0217
▁akun	-9.02191
▁manfaat	-9.0231
▁).	-9.02312
▁proyek	-9.02329
".	-9.0233
daftar	-9.02452
▁Apa	-9.02541
▁Mas	-9.02646
▁PP	-9.02804
▁personel	-9.02804
▁peluang	-9.02815
▁bola	-9.02917
L	-9.03095
▁kepentingan	-9.03106
▁kunjungan	-9.0314
▁Ali	-9.03226
▁and	-9.03313
▁terbesar	-9.03328
▁melibat	-9.03449
▁usia	-9.03602
▁bencana	-9.03612
▁berupa	-9.03729
▁melanjutkan	-9.03813
▁anggaran	-9.03816
▁sang	-9.04047
▁Kalau	-9.04069
▁tampil	-9.04105
enggak	-9.04175
▁tuju	-9.04372
isi	-9.04432
▁arah	-9.04487
▁seleksi	-9.04595
▁tujuan	-9.04666
▁pasti	-9.04728
▁50	-9.04756
▁01	-9.04781
▁mencatat	-9.04827
▁Kasus	-9.04848
▁tugas	-9.04938
wujud	-9.05213
▁konflik	-9.05251
ad	-9.0533
▁aktif	-9.05331
▁triliun	-9.05446
▁penjara	-9.05869
▁membaha	-9.05884
▁badan	-9.06049
▁9	-9.06283
▁tokoh	-9.06419
▁Tri	-9.06797
▁strategis	-9.0725
▁pesan	-9.07283
wa	-9.07447
▁investasi	-9.07467
▁memenang	-9.0759
▁100	-9.07666
▁pelayanan	-9.07666
▁sehat	-9.07709
▁penyelenggara	-9.07856
uh	-9.08045
▁terbuka	-9.08053
▁Lampung	-9.08169
▁Lu	-9.08212
▁dana	-9.08288
▁mata	-9.08304
▁formasi	-9.08476
▁lahan	-9.08539
▁l	-9.0858
▁Jerman	-9.08689
▁Palembang	-9.08689
▁kinerja	-9.08689
▁provinsi	-9.08689
lo	-9.08812
ahkamah	-9.09115
▁sini	-9.09144
▁DPD	-9.09241
▁luka	-9.09365
▁BRI	-9.09386
▁Sebagai	-9.09673
▁pilihan	-9.09718
▁BUMN	-9.09749
wi	-9.09799
▁dilaksanakan	-9.09865
▁siapa	-9.10096
▁alasan	-9.10115
▁Peng	-9.10151
▁memutus	-9.10188
▁jelasnya	-9.10258
▁penumpang	-9.10298
▁Oleh	-9.10315
▁tua	-9.10441
tujuan	-9.10655
▁keluar	-9.1083
▁Pasal	-9.10918
▁tindak	-9.11178
▁solusi	-9.11192
▁Korupsi	-9.11213
am	-9.11372
▁gratis	-9.11383
▁Bekasi	-9.11416
▁Nusantara	-9.11492
▁BMKG	-9.1159
▁musik	-9.11737
ha	-9.11739
▁menurun	-9.1193
▁latihan	-9.11936
▁perdana	-9.12058
▁Te	-9.12082
▁sebagi	-9.1224
do	-9.12414
▁03	-9.12538
▁08	-9.12589
▁aktivitas	-9.12601
pa	-9.12757
▁Ibu	-9.12837
▁Meng	-9.12879
ja	-9.12997
▁Prancis	-9.13035
▁penggunaan	-9.13047
▁generasi	-9.13264
▁JPNN	-9.13285
baru	-9.133
▁de	-9.13327
▁ternyata	-9.13484
▁sampah	-9.13486
▁pentingnya	-9.13514
▁biaya	-9.13567
▁mengikut	-9.13619
nangkap	-9.13847
▁mengungkap	-9.13963
▁40	-9.14132
▁tampak	-9.14152
▁siswa	-9.14376
▁menolak	-9.14491
▁Metro	-9.14496
ambil	-9.14558
▁peristiwa	-9.1456
▁final	-9.14605
▁La	-9.14619
▁Sumber	-9.14715
▁No	-9.14819
▁India	-9.15134
ediakan	-9.15475
▁jabatan	-9.15507
▁ulang	-9.15706
▁Gerindra	-9.1585
▁aplikasi	-9.15857
▁sulit	-9.15888
▁Filipina	-9.15965
▁Kalimantan	-9.15965
▁semangat	-9.16032
▁demokrasi	-9.16058
▁jaringan	-9.16086
awak	-9.16123
▁wartawan	-9.16308
abak	-9.16551
▁pengelola	-9.16553
▁penyelidikan	-9.16623
▁r	-9.16676
▁ditetapkan	-9.16768
▁Instagram	-9.16883
▁Pol	-9.16904
▁kematian	-9.17002
▁lagu	-9.17009
▁Nur	-9.17064
▁ratus	-9.17265
▁pelatih	-9.17325
dampingi	-9.17346
▁Ramadan	-9.17347
▁Berdasar	-9.17481
bo	-9.17513
▁pimpinan	-9.1758
%	-9.17592
▁Le	-9.17685
▁hakim	-9.17686
▁hukuman	-9.17854
▁05	-9.17875
▁Prof	-9.17897
▁pertahanan	-9.17958
▁06	-9.18042
▁petani	-9.18048
▁paslon	-9.18245
re	-9.18735
▁ancaman	-9.18769
▁judi	-9.18822
▁ringan	-9.18875
▁f	-9.18883
ewas	-9.18912
▁Lebanon	-9.18929
▁PKB	-9.18969
▁Ilustrasi	-9.18976
▁mengetahui	-9.18984
▁Undang	-9.19064
▁kelas	-9.19072
▁Uni	-9.19123
▁BAND	-9.1913
▁komunitas	-9.19219
▁HAM	-9.19234
▁selatan	-9.19348
ateng	-9.1962
▁meluncur	-9.19723
▁skor	-9.19812
▁signifikan	-9.1993
pendaftaran	-9.19972
▁Malaysia	-9.19977
▁Hasil	-9.20001
▁Putih	-9.20168
▁Ma	-9.2019
▁pekerjaan	-9.20434
▁Baswedan	-9.20527
▁perhatian	-9.20527
ic	-9.20566
▁kolaborasi	-9.20571
▁2023.	-9.20787
▁mengatas	-9.20856
▁Pasar	-9.2097
laku	-9.21016
mencegah	-9.211
▁peringatan	-9.21129
▁menjabat	-9.21144
▁jajaran	-9.21328
▁menetap	-9.21368
go	-9.21511
▁Serang	-9.21676
E	-9.21785
ong	-9.21869
▁menghadiri	-9.21907
▁MK	-9.21914
embangan	-9.21985
▁Z	-9.22128
lantar	-9.22139
▁Tenggara	-9.22217
▁ANTARA	-9.2226
▁dikutip	-9.22267
▁gelar	-9.22349
▁non	-9.22363
▁Korban	-9.22404
▁mengirim	-9.22461
▁Gunung	-9.22462
▁kekuatan	-9.22501
peroleh	-9.22504
▁Mantan	-9.22595
mengurangi	-9.22651
▁dokter	-9.22833
▁Perdana	-9.22834
il	-9.22854
dy	-9.22899
▁pegawai	-9.23186
▁juara	-9.23198
▁New	-9.23254
▁rapat	-9.23319
▁platform	-9.23352
klaim	-9.23358
▁Paris	-9.23404
▁Keuangan	-9.23441
▁membutuhkan	-9.23565
▁kemampuan	-9.23566
▁Suriah	-9.23571
▁inovasi	-9.23623
▁perbatasan	-9.23704
▁terima	-9.23731
▁Sa	-9.2374
▁momen	-9.23844
▁minggu	-9.23858
▁gagal	-9.23922
▁04	-9.24005
▁bus	-9.24036
▁Pilgub	-9.24046
potensi	-9.24255
rangkai	-9.24311
▁to	-9.24374
▁Kegiatan	-9.24452
basis	-9.24517
▁BBC	-9.24577
▁pendukung	-9.24619
▁izin	-9.24645
▁MotoGP	-9.24681
▁rangka	-9.24916
▁Berikut	-9.24933
▁Lua	-9.24935
▁perk	-9.25052
▁07	-9.25054
▁berkelanjutan	-9.25105
▁TPS	-9.25121
▁vs	-9.25262
tu	-9.25324
▁Orang	-9.25454
▁bebas	-9.25471
▁penyidik	-9.25505
▁Kapolres	-9.25644
menunggu	-9.25676
▁hati	-9.257
▁Sebab	-9.25832
▁Pj	-9.25859
▁Internasional	-9.26063
▁aparat	-9.26104
jauh	-9.26255
▁09	-9.26444
hasil	-9.26448
▁As	-9.26546
elapan	-9.26804
▁tahap	-9.2692
▁Hasto	-9.26955
Se	-9.26957
▁boleh	-9.26976
▁konsumen	-9.2708
▁mengu	-9.2713
laki	-9.27187
lihat	-9.27201
ketua	-9.2721
▁wisata	-9.27279
catat	-9.27286
ek	-9.27361
▁jadwal	-9.27412
▁menyerah	-9.2745
ran	-9.27471
▁menawar	-9.27593
▁Bagi	-9.27643
▁Sulawesi	-9.27721
▁mencoba	-9.27721
▁Pembangunan	-9.27722
▁Ridwan	-9.27723
▁Y	-9.27724
▁siang	-9.27754
▁Wilayah	-9.2785
▁penjual	-9.27877
▁Ar	-9.28092
▁puluhan	-9.28128
▁;	-9.28331
▁Pihak	-9.28343
▁risiko	-9.28367
▁Grup	-9.28373
▁Bandara	-9.2838
▁istri	-9.28429
▁In	-9.28557
eng	-9.28635
lindungi	-9.28712
▁penerima	-9.28756
▁III	-9.28791
eluarkan	-9.28873
bicara	-9.2888
▁kader	-9.29012
▁selesai	-9.29162
lis	-9.29365
▁kenaik	-9.29432
langgar	-9.29438
▁kemanusiaan	-9.29801
sepeda	-9.29804
▁sejarah	-9.29813
▁sukses	-9.29939
▁Ya	-9.29942
▁debat	-9.29977
▁tutur	-9.3
▁Yang	-9.3001
▁Saudi	-9.30064
▁DEN	-9.30073
th	-9.30106
▁Selama	-9.3015
▁pribadi	-9.30263
▁El	-9.30399
▁Rakyat	-9.30592
▁agama	-9.30593
?	-9.30604
▁foto	-9.30967
▁Center	-9.3099
larang	-9.31013
▁teman	-9.31047
os	-9.31168
▁penduduk	-9.31201
▁Politik	-9.31206
ustru	-9.31217
▁dibawa	-9.31256
▁anti	-9.31267
▁IKN	-9.31318
▁bersih	-9.31337
▁Perempuan	-9.31389
ASAR	-9.31444
▁Rakabuming	-9.31523
▁kabupaten	-9.31624
▁kebakaran	-9.31658
lepas	-9.31756
▁menuturkan	-9.3179
▁Begini	-9.31925
▁Gus	-9.32123
▁bangunan	-9.32165
▁kalah	-9.32286
▁tertinggi	-9.32385
▁Group	-9.32388
▁sore	-9.32439
▁International	-9.3245
▁Raka	-9.32526
▁Thailand	-9.32536
▁bagus	-9.32568
▁kandidat	-9.32597
▁gabungan	-9.32629
mengamankan	-9.32763
up	-9.32795
▁mengembang	-9.32859
▁kehidupan	-9.32868
▁keter	-9.33006
▁Koordinator	-9.33139
▁nyata	-9.33207
▁mengakui	-9.33254
ia	-9.33264
▁berkembang	-9.33275
▁Tol	-9.33334
▁dasar	-9.33374
▁status	-9.33453
▁kategori	-9.33464
lancar	-9.33622
tahun	-9.33633
men	-9.33664
▁percaya	-9.33783
mudah	-9.33807
▁sosok	-9.33972
▁berlaku	-9.34116
▁Pa	-9.34213
▁kesejahteraan	-9.34236
▁CPNS	-9.34252
▁diperk	-9.34418
benar	-9.34448
▁Shin	-9.34478
▁meter	-9.34558
▁Kita	-9.3458
ok	-9.34584
hi	-9.34651
▁lakukan	-9.34656
▁dinilai	-9.3472
▁pemungut	-9.34727
▁bergabung	-9.34756
Pemkab	-9.34783
▁Jik	-9.34917
▁balik	-9.34965
▁Sri	-9.34968
▁mitra	-9.35226
▁Airlangga	-9.35335
▁Sukabumi	-9.35335
iapkan	-9.35384
▁putra	-9.35544
menyerang	-9.35636
▁bergerak	-9.35648
▁jiwa	-9.35728
▁Forum	-9.35761
▁perlin	-9.35775
lu	-9.35827
dampak	-9.3588
nyambut	-9.36027
▁rendah	-9.36364
bukti	-9.36443
▁Taiwan	-9.36453
za	-9.36534
▁Mu	-9.36547
rakan	-9.36556
▁kabar	-9.36598
cakup	-9.36876
▁arus	-9.3689
hal	-9.36898
▁2025	-9.36928
▁terdampak	-9.36955
mbilan	-9.36979
▁Khusus	-9.37015
▁karya	-9.37302
▁terdakwa	-9.3746
▁Pertahanan	-9.37496
▁infrastruktur	-9.37581
dukung	-9.37714
rilis	-9.37718
▁ka	-9.378
▁hilang	-9.38013
▁antar	-9.38046
▁truk	-9.38058
▁rudal	-9.38123
▁Kali	-9.38185
▁pengawasan	-9.38294
▁insiden	-9.38437
▁pemilik	-9.38438
▁Olimpiade	-9.38438
▁sebenarnya	-9.38439
▁Medan	-9.38556
▁Co	-9.38572
ke	-9.38643
percaya	-9.38797
▁Hotel	-9.38868
elesaikan	-9.38959
▁Tanah	-9.39035
▁klub	-9.39054
▁Pelaku	-9.39057
▁Informasi	-9.39062
▁seharusnya	-9.39083
▁for	-9.39166
▁strategi	-9.39246
▁Kelurahan	-9.39299
▁puncak	-9.39312
▁pajak	-9.39371
▁dokumen	-9.39382
▁Pemain	-9.3945
▁Muda	-9.39506
U	-9.39528
▁perdagangan	-9.3959
▁tema	-9.39657
▁pelatihan	-9.39668
kesepakatan	-9.39745
Ini	-9.39843
▁Lebaran	-9.39882
▁lulus	-9.39924
▁Sumsel	-9.39937
▁tambahan	-9.40014
▁Pasangan	-9.40078
Pemprov	-9.40217
gapi	-9.40243
▁Acara	-9.40252
▁merah	-9.40351
▁impor	-9.40359
▁minyak	-9.40441
▁alam	-9.40458
mcr	-9.40461
lkan	-9.40501
▁visi	-9.40593
bagi	-9.40732
tik	-9.40759
ko	-9.40762
▁darah	-9.40764
▁jangan	-9.40794
▁sabu	-9.40868
▁pilkada	-9.40996
▁beras	-9.41009
▁tiket	-9.41049
▁60	-9.41182
▁ahli	-9.41196
▁kalangan	-9.41202
▁aku	-9.41344
▁perawatan	-9.41459
▁berakhir	-9.4156
▁pelanggan	-9.41636
▁Hizbullah	-9.41707
bila	-9.41839
▁buruk	-9.4184
▁Megawati	-9.41934
▁kulit	-9.41934
mbang	-9.42025
O	-9.42061
▁Tinggi	-9.42235
▁sanksi	-9.42283
▁Kemenkumham	-9.42309
▁PKS	-9.42341
▁Dewi	-9.42398
▁utara	-9.42617
▁harapan	-9.42646
▁memperingat	-9.42694
ton	-9.42802
kumpul	-9.42904
▁Harga	-9.42959
▁maksimal	-9.43065
kota	-9.43087
▁senior	-9.43154
▁ekspor	-9.43192
KOTA	-9.43276
gi	-9.43371
▁Kaesang	-9.43426
▁Lalu	-9.43437
▁paket	-9.43583
▁mendesak	-9.4359
etapan	-9.4363
▁ton	-9.43751
▁Garuda	-9.43862
▁Keamanan	-9.43879
▁kursi	-9.43936
penanganan	-9.44044
bentuk	-9.4405
atur	-9.44108
▁Vietnam	-9.44182
▁permintaan	-9.44333
▁gram	-9.44345
hentikan	-9.44364
▁diselengga	-9.44485
▁serius	-9.44516
uddin	-9.44722
▁misi	-9.44747
j	-9.44772
▁Da	-9.44816
▁Banyak	-9.4486
▁Adi	-9.4486
▁syarat	-9.44934
▁pemberi	-9.44958
berangkat	-9.44979
▁saling	-9.45064
▁kompetisi	-9.45212
▁Operasi	-9.45215
▁Kamil	-9.45396
▁rutin	-9.45403
▁tambah	-9.45455
▁bank	-9.45475
.00	-9.45479
▁Khofifah	-9.45556
▁penerbangan	-9.45556
▁iklim	-9.45556
tidaknya	-9.45643
▁menambah	-9.45694
▁diminta	-9.4571
▁sikap	-9.45776
▁kejahatan	-9.45868
▁ungkapnya	-9.45995
wajib	-9.46011
▁tertentu	-9.46018
▁pengadilan	-9.46021
▁Pemkot	-9.46033
▁Jasa	-9.46043
▁wali	-9.46084
▁su	-9.46145
▁tentara	-9.46173
▁Pulau	-9.46328
▁Film	-9.46332
jawab	-9.46345
Penjabat	-9.46351
▁MPR	-9.46511
▁mendaftar	-9.46521
▁Ekonomi	-9.46537
bunuh	-9.46537
▁unggul	-9.46696
jalan	-9.46868
▁Lembaga	-9.46922
▁panas	-9.46961
▁AKP	-9.46994
▁Harris	-9.47078
▁Panta	-9.47209
mencetak	-9.47224
eringkat	-9.47249
▁menimbul	-9.47261
▁yakin	-9.47265
Irjen	-9.47288
ck	-9.47303
hari	-9.47468
bi	-9.47595
▁Joe	-9.47686
▁AI	-9.47719
▁City	-9.47752
▁Pertama	-9.47882
▁mengapresiasi	-9.47888
nas	-9.47947
▁Juru	-9.47951
▁Makassar	-9.48204
▁Padang	-9.4821
mana	-9.48281
▁perjanjian	-9.48326
▁Senayan	-9.48362
▁pertanian	-9.4852
▁Sleman	-9.4852
▁Putra	-9.48851
▁w	-9.48908
▁terang	-9.48928
ne	-9.48929
kontribusi	-9.48934
▁sehari	-9.49148
▁operasional	-9.49159
▁Polresta	-9.49187
ingga	-9.49329
mo	-9.49433
▁putih	-9.49459
▁berawan	-9.49583
▁mati	-9.49756
▁memanfaatkan	-9.49771
▁Ko	-9.49803
siapkan	-9.49956
▁gugatan	-9.49973
▁uji	-9.49986
▁Kampung	-9.50005
▁dipimpin	-9.50065
Mahfud	-9.50085
▁kilometer	-9.50116
▁materi	-9.50119
▁tuduhan	-9.50121
▁Ci	-9.50136
▁Merah	-9.5016
▁olahraga	-9.5021
hak	-9.50257
▁Serangan	-9.50269
pertahankan	-9.50439
▁medis	-9.50441
distribusi	-9.50441
arif	-9.50664
▁tambahnya	-9.5076
▁apresiasi	-9.51086
▁parlemen	-9.51086
▁buah	-9.51106
▁rokok	-9.51167
▁laki	-9.51207
▁Siap	-9.5121
▁Pria	-9.51382
ud	-9.51425
▁Industri	-9.51545
▁transaksi	-9.51702
▁ditahan	-9.51751
▁komunikasi	-9.5184
▁Perusahaan	-9.52066
▁tata	-9.52143
iring	-9.52156
▁pelajar	-9.522
▁angin	-9.52236
▁Batu	-9.52243
▁gempa	-9.52316
▁Tae	-9.52332
icu	-9.52336
▁pencarian	-9.5248
▁VOA	-9.52559
▁Mandiri	-9.52571
w	-9.52623
.30	-9.52628
adakan	-9.52641
▁mesin	-9.52723
▁laman	-9.52764
▁barat	-9.52767
▁berisi	-9.52781
Undang	-9.52788
ns	-9.52883
Donald	-9.52888
▁Andi	-9.52941
▁mendengar	-9.53059
▁eks	-9.53073
▁bupati	-9.53222
▁diambil	-9.5331
▁RS	-9.53377
ch	-9.53448
▁Washington	-9.53553
▁persiapan	-9.53554
▁Angkat	-9.53557
▁dulu	-9.53567
▁haji	-9.53572
▁penelitian	-9.53602
▁libur	-9.53718
mengalahkan	-9.53787
▁suami	-9.53929
▁putaran	-9.54065
▁tuan	-9.54068
▁juru	-9.5407
kehilangan	-9.54083
erwakilan	-9.54174
▁Iskandar	-9.54222
▁meyakin	-9.54222
▁mengubah	-9.54272
▁diskusi	-9.54331
▁2023,	-9.54364
rektorat	-9.54496
-19	-9.54535
prediksi	-9.54626
▁Hujan	-9.54895
▁gedung	-9.54924
▁Putri	-9.54944
Sudah	-9.55165
▁jatuh	-9.55233
▁Lingkungan	-9.55402
▁obat	-9.55503
▁dibuka	-9.55643
▁al	-9.55651
▁minuman	-9.55689
▁selamat	-9.55699
ki	-9.55758
▁Persis	-9.55796
▁35	-9.55864
▁pulang	-9.55878
▁Nusa	-9.5592
▁coba	-9.56089
▁penangkapan	-9.56255
▁mudik	-9.56255
▁Hakim	-9.56259
adaan	-9.56288
▁pertanyaan	-9.56348
sabu	-9.56384
▁Li	-9.56547
▁si	-9.56605
▁Jal	-9.56651
▁segala	-9.56942
▁Karawang	-9.56942
▁memungkin	-9.56959
langkah	-9.5701
hati	-9.57041
▁Layan	-9.57081
▁Kejaksaan	-9.57113
CEO	-9.57114
▁Petugas	-9.57141
▁Kepula	-9.57154
▁kehadiran	-9.57163
▁Festival	-9.57298
ry	-9.57311
▁Pemberantas	-9.57396
pe	-9.57455
▁fisik	-9.57461
▁ketat	-9.57528
▁genca	-9.57548
terlalu	-9.57753
lt	-9.57766
rah	-9.57778
▁era	-9.57807
▁oknum	-9.57825
gabung	-9.57833
▁Mem	-9.57883
letak	-9.57885
▁hutan	-9.57887
suatu	-9.57994
ie	-9.58164
per	-9.58172
▁berarti	-9.5826
▁kereta	-9.58329
▁Bambang	-9.58386
▁Indra	-9.58429
▁pantai	-9.58503
▁Madura	-9.58505
▁lah	-9.58547
▁Ba	-9.58584
erapkan	-9.5865
▁penegak	-9.58654
▁bayi	-9.58679
▁praktik	-9.58748
▁pro	-9.58815
▁Surat	-9.58849
▁menutup	-9.58856
▁Afrika	-9.58862
▁membeli	-9.5888
hadiri	-9.58912
ngusung	-9.5893
Muhaimin	-9.5903
▁putri	-9.59042
▁kapasitas	-9.59078
pi	-9.59122
▁Pranowo	-9.59382
▁longsor	-9.59382
▁2021	-9.59386
▁persoalan	-9.59387
00	-9.59464
nyatakan	-9.59506
▁Polsek	-9.59657
▁pabrik	-9.59702
▁perekonomian	-9.59736
produksi	-9.59736
▁Imigrasi	-9.59739
▁Daya	-9.59836
▁menarget	-9.59913
▁kementerian	-9.59913
▁standar	-9.59959
▁kepemimpinan	-9.59984
Y	-9.60003
▁Natal	-9.60047
▁teknis	-9.60091
▁keduanya	-9.60244
▁damai	-9.60269
▁hewan	-9.60273
▁Persebaya	-9.60447
▁SEMARA	-9.60447
▁diamankan	-9.60459
▁ditemui	-9.60481
▁penyebab	-9.60521
-23	-9.60604
▁pengungsi	-9.60689
ngunjungi	-9.6081
▁the	-9.60872
▁faktor	-9.60901
▁kontra	-9.60936
▁tulis	-9.6097
▁gas	-9.60978
▁belajar	-9.60984
nto	-9.61001
▁menentukan	-9.61074
▁Dwi	-9.61079
▁ikan	-9.6108
▁berperan	-9.61144
▁Guru	-9.61206
▁kampus	-9.61231
▁tangga	-9.61262
▁rusak	-9.61404
perluas	-9.61424
▁fitur	-9.61514
▁undang	-9.61557
yo	-9.61575
rs	-9.6162
V	-9.61689
▁Bakal	-9.61722
▁anaknya	-9.61742
▁Sosial	-9.61874
Jadi	-9.61927
▁atlet	-9.61948
▁Tapi	-9.61956
▁pengamanan	-9.61959
▁Mar	-9.62042
▁lawan	-9.6217
▁dibuat	-9.62197
▁on	-9.62287
▁Eri	-9.62316
▁aset	-9.6238
▁buku	-9.62392
ft	-9.62556
ty	-9.62574
▁mengonsumsi	-9.62624
▁Mahfud	-9.62646
▁bertaj	-9.6265
▁Rai	-9.62651
▁Beijing	-9.62793
▁dahulu	-9.62793
▁Surakarta	-9.62794
▁kerap	-9.62913
▁Ro	-9.62931
lan	-9.62954
▁Tiga	-9.62956
▁Pelabuhan	-9.62976
▁menyorot	-9.62978
▁Bu	-9.63241
ono	-9.63351
▁konten	-9.63372
mohon	-9.63416
▁berwenang	-9.63483
▁khawatir	-9.63504
▁Digital	-9.63514
▁Peraturan	-9.63527
▁Kepolisian	-9.63711
▁efektif	-9.63731
▁sepak	-9.63745
▁mendalam	-9.63756
▁capres	-9.63778
deklarasi	-9.6408
bantah	-9.64108
▁News	-9.64194
ham	-9.64218
▁MA	-9.6424
▁Turki	-9.6434
▁bahasa	-9.64392
▁timur	-9.64432
▁kemajuan	-9.64451
▁penurunan	-9.64451
Seperti	-9.64452
▁Ri	-9.64533
▁prioritas	-9.64568
▁pasien	-9.64637
▁menge	-9.64646
▁diper	-9.64698
▁pula	-9.64782
▁hitam	-9.64824
▁darurat	-9.64829
▁menampi	-9.6501
▁Konstitusi	-9.6501
▁kerugian	-9.65011
▁senang	-9.65056
ge	-9.65078
▁Muslim	-9.65109
▁kaki	-9.65121
rancang	-9.65151
▁Kelompok	-9.65199
▁Teknologi	-9.65384
▁Ayu	-9.65471
egang	-9.6548
▁jasa	-9.65485
▁seksual	-9.65502
▁Netanyahu	-9.65571
▁Sekolah	-9.65572
▁beroperasi	-9.65574
▁batas	-9.65714
ve	-9.65736
▁kerusakan	-9.65768
▁Putin	-9.65854
▁tanggung	-9.6589
▁Mo	-9.66002
ber	-9.66006
urnamen	-9.66012
▁Sungai	-9.66137
▁grup	-9.66139
▁Bersama	-9.6621
▁Masjid	-9.66325
ku	-9.66386
▁menengah	-9.66515
▁diperlukan	-9.66517
lansir	-9.66517
▁Pekanbaru	-9.66519
rata	-9.66603
▁beragam	-9.66689
▁kecamatan	-9.66705
▁pengusaha	-9.6676
▁Keluarga	-9.66896
mar	-9.66926
angkatan	-9.67019
ru	-9.67082
▁kunci	-9.67085
▁Qatar	-9.67086
▁serupa	-9.67098
▁layak	-9.67349
▁zona	-9.67578
▁pengirim	-9.6773
▁bertanggung	-9.67824
▁Pertanian	-9.67851
▁tes	-9.68227
▁wanita	-9.68236
▁mundur	-9.68275
▁pohon	-9.68402
▁pendapatan	-9.68429
▁SAR	-9.68448
tugas	-9.68552
asana	-9.68575
promosi	-9.68617
▁tekanan	-9.68635
jadwal	-9.68701
▁buat	-9.68744
gerakan	-9.68755
▁tumbuh	-9.68767
▁selanjutnya	-9.68816
▁Gelar	-9.68818
▁bertahan	-9.6882
▁32	-9.68876
▁Geo	-9.6888
▁Spanyol	-9.6901
▁Kelas	-9.69058
▁Pimpinan	-9.69119
▁pengunjung	-9.69226
▁kanan	-9.69428
asih	-9.69567
▁Persija	-9.69597
▁lanjutnya	-9.69682
▁Kom	-9.69863
▁Anwar	-9.6999
im	-9.70011
▁nyaman	-9.70051
▁berubah	-9.70076
▁sesuatu	-9.70094
▁warna	-9.70156
▁karyawan	-9.704
▁Eric	-9.70473
▁peraturan	-9.70578
▁Media	-9.70634
▁nantinya	-9.70684
▁berkualitas	-9.70775
▁kekuasaan	-9.70777
▁remaja	-9.70777
▁Soal	-9.70825
▁Tbk	-9.70973
san	-9.71149
▁profesional	-9.71169
▁Aparat	-9.71194
alih	-9.71218
ASN	-9.71233
▁Har	-9.71332
▁inisia	-9.71335
▁transportasi	-9.7137
moga	-9.71376
▁Kaltim	-9.71414
▁Agama	-9.71444
tar	-9.71532
buka	-9.71571
▁Militer	-9.71574
▁memasuk	-9.71624
ol	-9.71646
▁lengkap	-9.71702
▁Pos	-9.71728
▁2019	-9.71767
▁Kapolda	-9.7177
AS	-9.71922
▁nasabah	-9.71969
KPK	-9.72022
▁umat	-9.72079
▁manajemen	-9.72169
▁gaji	-9.7243
▁mela	-9.72438
▁tahanan	-9.72499
▁Balai	-9.72676
gagal	-9.72749
▁Majel	-9.7278
▁agenda	-9.72842
▁ekosistem	-9.72975
▁Karno	-9.72998
▁tadi	-9.73055
▁pemuda	-9.73086
▁bunga	-9.7318
▁Unit	-9.73214
▁Ari	-9.73218
▁An	-9.73232
▁Ting	-9.73269
jang	-9.7334
▁memaham	-9.73375
▁rekomendasi	-9.73379
▁Singapura	-9.7338
▁aktivis	-9.73419
va	-9.73441
▁kalinya	-9.73582
▁dibutuhkan	-9.73584
▁situs	-9.73597
▁semuanya	-9.73603
▁Arya	-9.73643
ho	-9.73767
▁Kediri	-9.73777
▁mengimbau	-9.73837
▁perbaikan	-9.73991
serta	-9.74075
▁Pro	-9.74153
▁...	-9.7419
▁membayar	-9.74196
rak	-9.74232
▁meraya	-9.74248
▁Jumlah	-9.7435
▁Sekjen	-9.74371
▁Borneo	-9.74401
▁Sakit	-9.74404
▁PSI	-9.74442
▁kontrak	-9.74465
▁Irak	-9.74472
fi	-9.74482
▁persidangan	-9.74606
▁He	-9.74691
▁2020	-9.74717
▁prinsip	-9.74726
▁menyusu	-9.74763
RUU	-9.74784
▁nuklir	-9.74812
ju	-9.7482
▁Emas	-9.74834
▁swasta	-9.74912
lagi	-9.7495
▁sa	-9.74996
▁World	-9.75116
▁Bung	-9.75152
▁elektabilitas	-9.75225
▁Tanjung	-9.75241
▁Data	-9.75249
engendara	-9.75264
▁tanda	-9.75301
langan	-9.75321
▁Kanwil	-9.75409
▁ibadah	-9.75432
▁logistik	-9.75432
bak	-9.75495
▁Karya	-9.75641
▁Kapal	-9.75647
▁Setiawan	-9.75655
▁Haji	-9.7566
▁Nana	-9.75796
▁Meteorologi	-9.76055
jo	-9.76083
▁Ni	-9.76125
bangkit	-9.7613
▁NTB	-9.76235
▁Pasalnya	-9.76313
bar	-9.76316
st	-9.76328
▁sungai	-9.76401
au	-9.76454
▁ma	-9.76455
▁dr	-9.76468
Keputusan	-9.76483
▁minta	-9.76496
▁Semua	-9.7651
▁perayaan	-9.76514
▁kiri	-9.76593
teman	-9.76614
▁Departemen	-9.76687
▁Hadi	-9.7671
▁SMA	-9.76848
▁catatan	-9.7696
setara	-9.76987
▁Maju	-9.76996
▁MD	-9.77014
▁HUT	-9.77017
▁berikutnya	-9.77075
▁perangkat	-9.77163
▁Jogja	-9.77212
▁Wa	-9.7724
▁fakta	-9.77279
▁BPBD	-9.77321
om	-9.77363
Persero	-9.77388
▁keselamatan	-9.77423
▁Cuaca	-9.77526
lebih	-9.7761
▁Menang	-9.77636
Polrestabes	-9.77674
▁45	-9.77691
▁Gianyar	-9.77738
▁bersenjata	-9.77769
▁Ra	-9.77772
apten	-9.77804
tis	-9.77835
▁Bahkan	-9.77942
▁ketentuan	-9.77952
▁melintas	-9.77957
▁Akan	-9.7796
▁Mahasiswa	-9.77977
dar	-9.77985
du	-9.78071
elum	-9.78117
▁pasok	-9.7814
▁kelahiran	-9.78164
▁Atas	-9.78167
▁permasalahan	-9.78167
▁Aksi	-9.78194
sari	-9.78305
▁permainan	-9.78376
mengakhiri	-9.78389
▁lahir	-9.78402
▁Ade	-9.78548
▁ASEAN	-9.7859
▁hijau	-9.7859
ganggu	-9.78605
▁memeriksa	-9.78619
▁diserta	-9.78651
▁Perang	-9.78655
memperkenalkan	-9.78676
▁jangka	-9.78711
usul	-9.78807
▁Imam	-9.78807
▁pembeli	-9.78808
▁perdamaian	-9.78813
▁Bangsa	-9.78894
▁menyeru	-9.78907
▁mempunya	-9.78912
▁So	-9.79012
▁misalnya	-9.79021
▁militan	-9.79023
▁model	-9.79028
▁perintah	-9.7904
KPU	-9.79055
▁BO	-9.79103
▁plastik	-9.79234
▁pasca	-9.7926
▁Martin	-9.79305
▁Bisa	-9.79346
rawan	-9.79449
▁Usaha	-9.79449
▁diperiksa	-9.79451
▁rekam	-9.79514
▁jarak	-9.79583
▁sandera	-9.79611
▁To	-9.79621
▁Marc	-9.79643
menangani	-9.7968
kali	-9.79825
▁Ratusan	-9.79887
▁wisatawan	-9.79905
▁h	-9.80001
▁tunggal	-9.80072
▁bakar	-9.80096
OK	-9.8011
berencana	-9.80119
▁PSIS	-9.80131
▁tertulis	-9.80189
▁Go	-9.80196
RB	-9.80289
▁Kawasan	-9.80316
dekatan	-9.80382
▁Taman	-9.80466
▁Tetapi	-9.80468
judul	-9.80602
▁Penghargaan	-9.80612
X	-9.80622
elola	-9.80649
▁Pemuda	-9.80754
mati	-9.80798
.000	-9.8082
▁lancar	-9.80862
ancam	-9.80969
▁klasemen	-9.80971
▁internal	-9.80973
▁berkolaborasi	-9.80983
▁Kampanye	-9.80985
▁Bantul	-9.81048
jalin	-9.8119
▁Mobil	-9.81199
▁tren	-9.81309
▁Rapa	-9.81349
▁36	-9.81375
▁Kompol	-9.81407
▁Sebelum	-9.81421
fa	-9.81464
▁Motor	-9.81489
hancur	-9.81521
▁Tersangka	-9.81541
fisika	-9.81629
▁Komunikasi	-9.8163
▁konsep	-9.81651
▁seseorang	-9.81669
▁lihat	-9.81755
▁Bantuan	-9.81836
▁kilogram	-9.81851
▁Lapangan	-9.81851
▁aspek	-9.81972
rujuk	-9.81979
▁sosialisasi	-9.81985
▁desain	-9.82161
▁ganggu	-9.82267
▁kampung	-9.82319
enjamin	-9.82324
rusak	-9.82391
▁Pakistan	-9.8252
▁Belanda	-9.82521
▁PSS	-9.82558
▁pener	-9.8258
nda	-9.82638
▁Kim	-9.82686
▁jenazah	-9.82739
▁regulasi	-9.82739
▁38	-9.82803
▁koordinasi	-9.82817
▁fungsi	-9.82906
my	-9.82957
▁krisis	-9.82962
▁University	-9.82967
gaya	-9.8302
▁Hasan	-9.83044
ji	-9.83116
laga	-9.83122
▁BBM	-9.83127
▁ayah	-9.83186
satunya	-9.83238
kelompok	-9.83372
▁200	-9.8343
▁saudara	-9.83494
▁kontribusi	-9.83519
so	-9.83545
▁York	-9.83635
HO	-9.83639
▁batu	-9.83652
▁Dewa	-9.83787
▁Arema	-9.83814
▁pembayaran	-9.8386
andung	-9.83922
▁membagi	-9.83946
▁bilang	-9.83954
▁Pengamat	-9.84086
▁Juanda	-9.84091
▁Laporan	-9.84099
▁massa	-9.84125
▁Pra	-9.84264
▁toko	-9.84286
▁semifinal	-9.84312
▁perjuangan	-9.84312
▁Ngur	-9.84351
▁protes	-9.84372
▁Ketenagakerjaan	-9.84539
▁sukarelawan	-9.84541
ap	-9.846
▁menuduh	-9.84767
▁beliau	-9.84771
puluh	-9.84773
ion	-9.84832
▁klaim	-9.84889
jm	-9.84892
menghindari	-9.84893
hitungan	-9.84978
▁nelayan	-9.84994
▁tersedia	-9.84994
▁dibangun	-9.84997
Jokowi	-9.85008
▁Fa	-9.85011
buktikan	-9.85157
▁buka	-9.85174
▁berhenti	-9.85278
▁tahapan	-9.8529
tengah	-9.85344
▁2026	-9.85413
▁!	-9.85415
▁pariwisata	-9.85451
▁skuad	-9.85451
hu	-9.85514
▁usai	-9.85546
▁pintu	-9.8568
▁viral	-9.85681
son	-9.85681
gen	-9.85744
▁34	-9.85763
▁Dedi	-9.858
▁suaminya	-9.85852
▁drone	-9.85889
guyur	-9.8591
▁70	-9.85943
▁kekhawatiran	-9.86141
▁David	-9.86142
▁Gelora	-9.86145
din	-9.86149
▁mengucap	-9.86174
▁Suara	-9.86181
▁500	-9.86251
▁ekstrem	-9.86343
▁ku	-9.86387
▁Klimatologi	-9.86603
▁seni	-9.86638
▁merespons	-9.8664
▁modern	-9.8664
ny	-9.8674
der	-9.86749
▁Sumut	-9.86796
▁Ku	-9.86806
▁sasaran	-9.8685
pertimbangkan	-9.86884
izin	-9.86888
▁pengurus	-9.86911
tahanan	-9.87078
▁Manusia	-9.87086
▁Bar	-9.8709
▁tambang	-9.87144
▁diberi	-9.8722
▁PSSI	-9.87228
▁Mulai	-9.87237
▁Mesir	-9.87311
lin	-9.87377
▁adat	-9.874
▁pameran	-9.87544
betul	-9.87636
▁pembuka	-9.87639
ayoritas	-9.87676
▁KA	-9.87712
embus	-9.87716
ram	-9.87718
▁edukasi	-9.8776
▁YOGYAK	-9.87768
▁normal	-9.878
▁Sebut	-9.87854
▁ilmu	-9.88014
▁respons	-9.8809
fokus	-9.88125
▁80	-9.88204
▁Jember	-9.88243
▁2025.	-9.88298
ermohon	-9.8835
he	-9.88392
▁beli	-9.88443
▁mengawal	-9.88516
▁kuasa	-9.88523
▁Akt	-9.88717
▁dinas	-9.88732
▁menganggap	-9.88752
▁Andika	-9.88758
▁Maluku	-9.8895
▁sah	-9.89099
▁Istana	-9.89186
▁kamar	-9.89197
kaitan	-9.89238
iyah	-9.89241
▁Sidoarjo	-9.89257
▁jurnalis	-9.89265
▁pencurian	-9.89321
▁konsisten	-9.89341
▁upa	-9.8935
▁hendak	-9.89423
▁Langkah	-9.89433
anto	-9.89439
mpulkan	-9.89477
▁pendapat	-9.89511
▁dilantik	-9.8957
▁hotel	-9.89613
perpanjang	-9.89615
▁Menjela	-9.89696
▁bumi	-9.89796
Kalau	-9.89844
▁Idulfitri	-9.89901
▁KM	-9.89964
▁melanda	-9.89973
▁Dana	-9.90072
▁PPP	-9.90093
▁serentak	-9.90141
▁Akbar	-9.90143
▁]	-9.90224
▁doa	-9.90236
▁menghubung	-9.90273
GOR	-9.90291
▁sesi	-9.90318
utama	-9.90361
arkan	-9.90363
▁gelo	-9.904
▁perairan	-9.90435
adi	-9.90535
▁menjadikan	-9.90585
▁koalisi	-9.90596
▁investor	-9.90622
▁Open	-9.90636
20	-9.90664
hormati	-9.90715
▁timnya	-9.90746
sapa	-9.90775
▁susu	-9.90835
▁melepas	-9.90926
▁meliputi	-9.90933
▁terseb	-9.90981
mp	-9.91046
▁akrab	-9.91092
▁Lapas	-9.91099
▁Rizky	-9.91107
▁Sidang	-9.91115
▁Jangan	-9.91128
▁halaman	-9.91131
mula	-9.9125
nspirasi	-9.91292
▁Hadir	-9.91336
▁migran	-9.91349
▁lebat	-9.91352
den	-9.91362
latar	-9.91368
▁identitas	-9.91373
▁Rafah	-9.91375
▁penonton	-9.91376
▁pergi	-9.91421
PI	-9.91484
▁merek	-9.91639
▁tamu	-9.91639
▁evaluasi	-9.91717
awal	-9.91727
▁administrasi	-9.91851
▁konser	-9.91877
▁keluarganya	-9.92005
▁rekan	-9.92017
▁Diketahui	-9.9208
▁Myanmar	-9.9208
▁Bicara	-9.9216
pasti	-9.92165
▁pokok	-9.92326
▁DIY	-9.92442
▁Kasat	-9.92449
erkait	-9.92501
▁WITA	-9.92575
▁Badung	-9.92576
▁Tingkat	-9.92577
▁Trans	-9.92599
▁90	-9.92627
▁sebut	-9.92684
▁TikTok	-9.92818
▁keberadaan	-9.92818
▁penganiayaan	-9.92818
▁kartu	-9.92854
▁optimal	-9.92862
▁mengada	-9.92891
▁pakar	-9.92894
▁menu	-9.92923
▁instansi	-9.9305
▁Gresik	-9.93065
▁Capres	-9.93068
▁mu	-9.93142
▁parkir	-9.93171
▁Na	-9.93221
nuntut	-9.93284
▁Kondisi	-9.93297
▁Ta	-9.93298
▁Reskrim	-9.93379
▁Paus	-9.93407
▁penyidikan	-9.93419
kunjung	-9.93421
hitung	-9.93533
▁Menko	-9.93543
▁Parlemen	-9.9356
▁Pancasila	-9.9356
▁maaf	-9.93572
▁intens	-9.93574
▁Bencana	-9.93576
▁rela	-9.93599
▁istrinya	-9.93696
▁Jadwal	-9.93714
▁@	-9.93934
▁Kon	-9.93935
▁Luthfi	-9.94058
▁pernikahan	-9.94058
lolos	-9.94059
▁komentar	-9.94071
kesulitan	-9.94088
▁KAI	-9.94168
▁bintang	-9.94218
▁Dn	-9.94259
rd	-9.94323
awasi	-9.94382
▁merugi	-9.94409
▁Ketum	-9.94415
▁Proses	-9.94453
▁efek	-9.94532
▁berlanjut	-9.94559
▁rumahnya	-9.94675
transformasi	-9.94719
▁beredar	-9.94798
▁ramah	-9.94826
antara	-9.94833
▁peluncur	-9.9489
ngan	-9.94892
berjuang	-9.94899
▁NU	-9.95014
▁Surve	-9.95062
▁Divisi	-9.95097
▁Her	-9.95217
▁Tewas	-9.95224
▁arahan	-9.95244
▁Arif	-9.95332
▁minum	-9.9541
▁Malam	-9.95486
tiba	-9.95565
▁keempat	-9.95708
▁Lo	-9.95751
ly	-9.95789
▁SD	-9.95789
▁rata	-9.9582
▁keberlanjutan	-9.95822
▁bersalah	-9.95823
▁pasal	-9.95949
▁siar	-9.95999
▁Yu	-9.96074
▁narkotika	-9.96076
▁cerah	-9.96077
Di	-9.96087
▁konsumsi	-9.96165
▁Minta	-9.96199
ag	-9.96212
▁adil	-9.96229
▁Tiongkok	-9.96331
▁menjual	-9.96331
onis	-9.96364
▁Kabar	-9.96369
▁melayan	-9.96381
skala	-9.9645
▁level	-9.96587
▁prestasi	-9.96587
▁Hidup	-9.96589
▁SK	-9.96648
unjuk	-9.96717
bu	-9.96741
perhatikan	-9.96759
▁Ge	-9.96804
yanto	-9.96813
▁independen	-9.96843
▁keseluruhan	-9.96843
koordinasi	-9.96874
▁modal	-9.96907
▁puasa	-9.97026
jerat	-9.97105
▁AFF	-9.97116
perbaiki	-9.97206
▁ko	-9.97215
gantung	-9.97269
▁Perdagangan	-9.97358
▁inflasi	-9.9736
▁Italia	-9.97366
▁Jaksa	-9.9737
▁palsu	-9.97395
▁Kar	-9.97472
▁Bukan	-9.97485
▁Honda	-9.97622
▁pembuat	-9.97684
tidak	-9.97686
▁suku	-9.97694
▁daring	-9.97697
bah	-9.9771
▁peroleh	-9.97881
▁Antara	-9.97922
▁berjanji	-9.97939
▁Kembali	-9.97945
▁gula	-9.9799
▁Amin	-9.98004
▁Raja	-9.98038
▁jemaah	-9.98053
▁menembak	-9.98135
▁emisi	-9.98142
▁PSM	-9.98165
▁pikir	-9.98197
AI	-9.98336
unggah	-9.98355
▁PNS	-9.98358
ualifikasi	-9.98369
▁Marquez	-9.98396
angkut	-9.98489
▁Pangan	-9.9856
oh	-9.98577
▁berbahaya	-9.98657
▁dekade	-9.98657
▁tradisional	-9.98658
▁Beri	-9.9867
▁Bulan	-9.98672
▁alami	-9.98797
▁kopi	-9.98932
▁St	-9.99059
▁masjid	-9.99081
▁oposisi	-9.99183
▁Hodak	-9.99183
▁Yayasan	-9.99183
▁telepon	-9.99196
▁Pagi	-9.99234
▁mental	-9.99245
▁KH	-9.99416
▁pedagang	-9.99444
▁besok	-9.99461
▁liar	-9.99467
elawan	-9.9948
▁33	-9.99506
▁terbatas	-9.99515
▁keadilan	-9.99541
ment	-9.99548
▁studi	-9.99557
▁Perlin	-9.99731
▁Super	-9.99744
▁Pengembangan	-9.99775
lokasi	-9.99789
▁Is	-9.9984
▁pola	-9.99894
▁Puncak	-9.99973
▁diusung	-9.99976
▁jaksa	-9.99988
asuki	-10.0009
▁PAN	-10.0018
▁Selanjutnya	-10.0018
▁Moskow	-10.0024
▁Pidana	-10.0024
▁Pramono	-10.0024
▁namanya	-10.0028
rasi	-10.0032
▁Produk	-10.0032
▁SMP	-10.0035
▁menanda	-10.0046
▁dilanjutkan	-10.005
▁pemadam	-10.005
▁Top	-10.0051
▁Rektor	-10.0051
kiri	-10.0053
▁Pernyataan	-10.0066
vi	-10.007
▁dimiliki	-10.0077
▁tuntutan	-10.0079
▁tanggapan	-10.0083
tion	-10.0087
▁Dukung	-10.0093
ver	-10.0096
▁elektronik	-10.0104
▁Sedangkan	-10.0105
ari	-10.0106
PP	-10.0107
▁Fakultas	-10.0114
▁Pengawas	-10.0119
tur	-10.012
hkan	-10.012
▁dikirim	-10.0122
hadapan	-10.0129
▁da	-10.013
▁gawang	-10.0131
▁Niaga	-10.0131
▁karakter	-10.0132
▁Surya	-10.0139
▁Pasukan	-10.0158
▁asli	-10.0158
pilih	-10.017
▁SDM	-10.0174
eluruh	-10.0177
▁duduk	-10.018
▁cedera	-10.0181
▁Sultan	-10.0185
▁Masa	-10.0191
▁Cina	-10.0192
komunikasi	-10.0195
bebasan	-10.0202
▁diseba	-10.0203
▁berulang	-10.021
▁Organisasi	-10.0211
▁Maka	-10.0212
▁Bumi	-10.0214
Ada	-10.0216
saingan	-10.0216
▁BKN	-10.0216
RSUD	-10.0221
antisipasi	-10.0222
▁penipuan	-10.0224
▁singkat	-10.0229
bel	-10.0233
▁arti	-10.0236
▁Puluh	-10.0241
▁menyebar	-10.0243
▁)",	-10.0249
engumum	-10.0263
paksa	-10.0263
udin	-10.0266
▁Manajemen	-10.0266
▁Eko	-10.0269
▁kaya	-10.0274
▁Penyanyi	-10.0275
▁Raff	-10.0275
▁Sistem	-10.0279
AP	-10.0282
▁Thohir	-10.0293
▁1.000	-10.0301
▁RT	-10.0306
▁artis	-10.0307
▁darat	-10.0311
rebut	-10.0313
▁lantas	-10.032
▁optimistis	-10.0321
▁Kongres	-10.0323
▁bangga	-10.0324
▁Ruang	-10.0324
sarana	-10.0334
▁berkat	-10.0339
▁keuntungan	-10.0348
▁diserah	-10.0353
▁Kini	-10.0355
▁dirilis	-10.0355
▁penampilan	-10.0358
▁Bo	-10.0364
▁Wayan	-10.0366
-20	-10.0374
▁aspirasi	-10.0375
▁Ria	-10.0376
panggil	-10.0379
▁Padahal	-10.0383
partisipasi	-10.0393
▁Real	-10.0398
▁Narkoba	-10.0403
▁menggambar	-10.0418
▁peneliti	-10.0423
▁sisa	-10.0426
▁evakuasi	-10.043
▁Perhubungan	-10.0432
▁Eksekutif	-10.0432
ramal	-10.0433
▁te	-10.0439
oto	-10.0444
syukur	-10.0445
▁pemenang	-10.0451
MI	-10.047
▁kotak	-10.0473
ikat	-10.0476
▁kekurangan	-10.0486
▁Biak	-10.0487
ambang	-10.0488
▁Ungkap	-10.0489
kat	-10.0502
DPC	-10.0502
▁kontesta	-10.0504
▁Global	-10.0514
▁Stasiun	-10.0514
polsek	-10.0514
▁keunggulan	-10.0514
▁Demak	-10.0515
▁tajam	-10.0518
▁Ida	-10.0527
ub	-10.0537
▁ditutup	-10.0542
▁wajah	-10.0542
▁Kanada	-10.0542
▁Honorer	-10.0542
dalam	-10.0542
▁suhu	-10.0543
▁Mohammad	-10.0544
▁Indo	-10.0555
las	-10.0555
▁Ho	-10.0559
nyelenggara	-10.0564
▁Patr	-10.0567
be	-10.0569
▁Bengkulu	-10.057
▁NasDem	-10.057
▁rupiah	-10.057
▁peninda	-10.057
▁Perubahan	-10.057
▁Kapolri	-10.057
kar	-10.0573
▁Wi	-10.058
▁kekalahan	-10.0598
▁kreatif	-10.0598
▁peredaran	-10.0601
▁cukai	-10.0603
▁PLN	-10.0607
▁Jo	-10.0621
▁suporter	-10.0626
tir	-10.0626
▁murah	-10.0627
▁Wahyu	-10.0632
▁subsidi	-10.0634
▁unggulan	-10.0644
▁unsur	-10.0644
▁Satpol	-10.0646
ninjau	-10.0649
▁imbang	-10.065
Corporate	-10.0654
▁khas	-10.0657
▁pindah	-10.066
▁dialami	-10.066
melaju	-10.0666
▁dok	-10.0668
▁individu	-10.0672
▁SMK	-10.0679
macam	-10.0682
▁Afghanistan	-10.0682
▁Brasil	-10.0682
▁Pang	-10.0685
▁sepenuhnya	-10.0686
▁tenang	-10.0688
▁pembebasan	-10.0689
▁terkena	-10.0692
ara	-10.0699
mengangkat	-10.0703
▁75	-10.0704
▁pulau	-10.0707
▁Cirebon	-10.0711
▁bin	-10.0729
percepat	-10.0735
▁memerintah	-10.0739
▁kemiskinan	-10.0739
▁membela	-10.074
▁Dokter	-10.074
▁wawancara	-10.074
▁Gunawan	-10.074
▁kandang	-10.0745
▁ditanya	-10.0749
▁Satgas	-10.0752
calon	-10.0753
▁garis	-10.0762
gar	-10.0765
▁sepakat	-10.0769
▁kamu	-10.0769
▁Reuters	-10.077
▁pencapaian	-10.0773
▁belanja	-10.0777
jadikan	-10.0788
▁pos	-10.0795
▁Dipta	-10.0797
▁Indah	-10.0797
▁utang	-10.0798
▁Dukungan	-10.08
▁Mi	-10.081
▁Sama	-10.0812
jogja	-10.0825
▁cerita	-10.0828
▁dip	-10.0831
▁Bagaimana	-10.0834
▁AL	-10.0834
erjanjian	-10.0834
▁37	-10.0835
emberantas	-10.0836
▁300	-10.0836
▁Ben	-10.0843
ep	-10.0851
micu	-10.0853
otivasi	-10.0854
▁Upaya	-10.0857
▁mewakil	-10.0861
ation	-10.0862
ine	-10.0868
▁Siti	-10.0872
▁awalnya	-10.0878
▁mema	-10.0881
▁Hubungan	-10.0883
▁bersangkutan	-10.0883
▁dikeluarkan	-10.0884
▁hektare	-10.0886
dan	-10.0886
▁dimaksud	-10.0892
▁menik	-10.0895
▁Grand	-10.0901
mantau	-10.0907
▁kesalahan	-10.0912
▁membaca	-10.0913
▁berdiri	-10.0913
▁kompetensi	-10.0913
▁Penyelenggara	-10.0914
vo	-10.0914
▁sekutu	-10.0915
ib	-10.0918
▁tidur	-10.092
▁prosedur	-10.0935
▁hiburan	-10.0942
▁Perwakilan	-10.0942
▁Pemimpin	-10.0943
▁kompleks	-10.0943
ika	-10.0952
▁Awards	-10.096
▁Suka	-10.0964
berlakukan	-10.0969
▁rute	-10.0971
we	-10.0973
▁mengusu	-10.0975
▁kesiapan	-10.0985
▁Gen	-10.0987
▁produse	-10.0987
▁Kebudayaan	-10.0999
▁staf	-10.1
▁bersaing	-10.1
manggil	-10.1013
omentum	-10.1015
▁WNA	-10.1015
▁Tu	-10.1016
▁pakaian	-10.1022
▁Pegi	-10.1023
▁Kabid	-10.1026
▁pencegahan	-10.1029
▁keberhasilan	-10.103
▁penyalahguna	-10.103
▁kritik	-10.1032
▁Hidayat	-10.1052
▁Kebijakan	-10.1053
▁Bapak	-10.1055
▁bekas	-10.1064
▁panggilan	-10.1074
asar	-10.1076
▁kira	-10.1082
▁39	-10.1082
▁Staf	-10.1088
SBS	-10.1089
eh	-10.1092
ent	-10.1097
▁Sun	-10.1107
Untu	-10.1107
▁tayang	-10.1112
asan	-10.1115
▁ing	-10.1115
▁pelantikan	-10.1117
min	-10.1122
enny	-10.1132
▁performa	-10.1133
▁melewat	-10.1134
ot	-10.1139
▁menandatangan	-10.1146
▁tutup	-10.1147
▁Fraksi	-10.1148
▁buatan	-10.1154
▁Yong	-10.1156
raya	-10.1157
▁lu	-10.1158
kian	-10.1172
▁Apalagi	-10.1177
▁parpol	-10.1181
kelola	-10.1185
turut	-10.1198
▁For	-10.1199
▁Pakar	-10.12
▁2016	-10.1206
▁beban	-10.1206
▁Kong	-10.1207
▁Sore	-10.1208
ip	-10.1213
▁penembakan	-10.1217
oner	-10.122
erahkan	-10.1227
ning	-10.1233
▁Award	-10.1251
▁Hong	-10.1254
▁terluka	-10.1254
▁NATO	-10.1255
▁na	-10.126
uku	-10.1264
▁Energi	-10.1267
▁minimal	-10.1272
▁mengarah	-10.1273
▁Barang	-10.1275
▁dikonfirmasi	-10.1277
▁stabil	-10.1287
status	-10.1287
▁batang	-10.13
ita	-10.1309
▁red	-10.1309
alurkan	-10.131
ransisi	-10.1318
rekor	-10.1319
▁Bus	-10.1324
▁Pegawai	-10.1327
▁penutup	-10.1328
▁Rencana	-10.1344
▁temuan	-10.1345
v	-10.1346
bagaimana	-10.1348
ilaku	-10.1349
▁suka	-10.1354
▁populer	-10.1355
▁55	-10.1355
▁2024-2029	-10.1357
▁Iqbal	-10.1357
Kita	-10.1362
▁TV	-10.1387
indikasi	-10.1388
▁perbedaan	-10.1388
▁Vi	-10.1388
▁medali	-10.1388
▁Eks	-10.1388
▁Paslon	-10.1388
▁Baik	-10.1388
▁dihubungi	-10.1388
ling	-10.1392
▁tanaman	-10.1407
▁tol	-10.1407
▁pas	-10.1417
cenderung	-10.1418
▁sapi	-10.1419
aw	-10.1422
Deng	-10.1427
▁samping	-10.1432
▁Kamal	-10.1434
▁cuma	-10.144
▁asuransi	-10.1441
▁Ad	-10.1444
▁Pelayanan	-10.1449
▁kabinet	-10.1449
▁Pejabat	-10.1449
▁Tata	-10.145
▁sekitarnya	-10.1452
daran	-10.1461
▁panggung	-10.1463
▁pra	-10.1463
▁mengenal	-10.1471
rat	-10.1472
▁ketidak	-10.1475
▁internet	-10.1479
▁cabang	-10.1479
▁binaan	-10.148
▁sayap	-10.1483
▁Sang	-10.1492
▁Bayu	-10.1493
▁partisipasi	-10.1499
▁Do	-10.1499
▁sembako	-10.151
peralat	-10.1517
▁AFP	-10.1519
▁ayat	-10.1535
▁Niki	-10.1535
▁mengungsi	-10.1541
▁layar	-10.1541
▁fase	-10.1542
Dirjen	-10.1543
▁Pupuk	-10.1543
▁ba	-10.1547
▁Cak	-10.1548
▁Du	-10.1551
▁Kata	-10.156
▁parah	-10.1561
▁larangan	-10.1562
▁kanker	-10.1572
▁contoh	-10.1572
gandeng	-10.1572
▁berwarna	-10.158
ondok	-10.1584
▁miliknya	-10.1591
mu	-10.1592
▁bila	-10.1596
▁All	-10.1607
▁Series	-10.1611
sen	-10.1612
▁pendiri	-10.1615
▁keterlibatan	-10.1634
▁butuh	-10.1635
pegawai	-10.1637
▁agen	-10.1638
▁sinergi	-10.1643
▁janji	-10.1643
land	-10.1652
sengketa	-10.1665
▁Penanggu	-10.1667
▁terduga	-10.1671
▁Kuta	-10.1684
▁kredit	-10.1688
▁sengaja	-10.1697
▁kencang	-10.1697
▁roda	-10.1699
▁DW	-10.17
▁Sehingga	-10.17
▁Pelaksana	-10.1704
andang	-10.1717
▁Sam	-10.1724
gizi	-10.1728
▁bertambah	-10.1728
▁Banjir	-10.1728
▁institusi	-10.1729
▁tenggelam	-10.1729
ov	-10.1738
▁Man	-10.1742
▁versi	-10.1744
bal	-10.1746
AN	-10.1754
▁Api	-10.1755
▁pergur	-10.176
▁daging	-10.176
ER	-10.1763
▁Tindak	-10.1767
▁kenyamanan	-10.1768
▁pelabuhan	-10.1776
▁hadiah	-10.1786
▁pengetahuan	-10.1788
tasi	-10.1791
▁diterapkan	-10.1792
bes	-10.1793
RI	-10.1795
▁menikah	-10.1797
usulan	-10.1798
▁Manage	-10.1798
▁Institute	-10.18
▁situ	-10.1804
sh	-10.1819
▁event	-10.1823
▁Listrik	-10.1823
▁pertempuran	-10.1823
▁2014	-10.1824
aksi	-10.1825
TA	-10.1825
▁kecepatan	-10.1827
▁Tom	-10.183
adu	-10.1842
ary	-10.1849
▁minim	-10.1852
▁Gusti	-10.186
▁peny	-10.1862
▁Allah	-10.1863
▁imbuhnya	-10.1863
sifat	-10.1868
▁terbakar	-10.1873
▁menggantikan	-10.1874
▁2018	-10.1874
▁campur	-10.1875
▁2022.	-10.1875
▁terbang	-10.1886
▁domestik	-10.1887
▁kedatangan	-10.1887
▁baterai	-10.1888
cocok	-10.1888
▁takut	-10.1906
▁keinginan	-10.1914
batasi	-10.1917
▁Perekonomian	-10.1919
▁regional	-10.1919
▁saham	-10.1922
▁Hak	-10.1932
bulan	-10.1942
ih	-10.1942
▁Riset	-10.1953
yu	-10.1954
Z	-10.1957
▁petir	-10.1958
▁Zoni	-10.1958
sekadar	-10.1959
▁pakai	-10.1959
dorong	-10.1974
▁Persik	-10.1984
▁unggahan	-10.1988
▁memaksa	-10.1989
▁Ju	-10.199
▁jual	-10.1992
▁kolek	-10.1992
ati	-10.1994
nikmat	-10.1997
▁sela	-10.1999
▁US	-10.2003
des	-10.2006
▁ketegangan	-10.2016
▁lantai	-10.2016
▁penggemar	-10.2016
▁silam	-10.2016
▁Anggaran	-10.2017
▁Batam	-10.2017
▁umur	-10.2037
▁1.	-10.2037
MK	-10.2047
▁Blinken	-10.2048
▁jantung	-10.2048
▁ri	-10.2049
br	-10.2055
▁(6	-10.2061
▁raya	-10.2069
▁jamin	-10.207
lengkapi	-10.2074
▁prakira	-10.2076
1445	-10.2078
▁pengamat	-10.2081
▁vitamin	-10.2081
▁elemen	-10.2081
▁pupuk	-10.2083
ler	-10.2085
▁es	-10.2088
ikin	-10.2088
▁berani	-10.2091
sambut	-10.2092
▁kesa	-10.2093
engurus	-10.2094
▁kosong	-10.2097
wati	-10.21
▁Alam	-10.2102
▁detik	-10.2102
q	-10.2104
▁maje	-10.2115
▁pencalonan	-10.2116
▁mencerit	-10.2118
tukar	-10.2119
▁diluncurkan	-10.2134
▁Made	-10.214
barang	-10.2142
elamatkan	-10.2144
duduk	-10.2145
▁Madrid	-10.2146
▁Bisnis	-10.2146
ren	-10.2146
▁Lombok	-10.2146
▁kondusif	-10.2146
sediaan	-10.2147
▁Pengelola	-10.2148
▁Bintang	-10.2149
▁En	-10.215
▁wujud	-10.2153
▁rentan	-10.2155
▁bandara	-10.2157
▁IV	-10.2173
▁San	-10.2173
▁Sub	-10.2176
▁diangkat	-10.2179
▁Demokrasi	-10.2179
▁Reser	-10.218
▁PN	-10.2199
▁Blitar	-10.2212
▁intelijen	-10.2212
▁Said	-10.2213
▁metode	-10.2214
▁belah	-10.2215
▁Semen	-10.2226
▁Pekerja	-10.2226
▁ditunjuk	-10.2227
▁Boj	-10.2228
▁beber	-10.2231
▁Kemenangan	-10.2234
▁bom	-10.2234
▁setengah	-10.2235
▁tradisi	-10.2244
▁Houthi	-10.2245
▁Pertemuan	-10.2245
▁Cianjur	-10.2246
perjuangkan	-10.2248
teks	-10.225
▁menurutnya	-10.2254
▁o	-10.2255
▁game	-10.2258
▁Ga	-10.2262
50	-10.2264
Pj	-10.2264
▁44	-10.2265
buang	-10.2268
▁Video	-10.2273
▁dihadapi	-10.2283
▁Mor	-10.2284
▁patrol	-10.2285
ito	-10.2296
produk	-10.2296
▁balap	-10.2297
▁menaik	-10.2306
▁berkata	-10.2307
▁negatif	-10.2312
▁Kebakaran	-10.2312
▁Aku	-10.2315
▁penjaga	-10.2322
cu	-10.2322
▁Tan	-10.2325
▁dewasa	-10.2331
▁kuo	-10.2333
▁Angka	-10.2335
0.000	-10.234
▁Nah	-10.2344
enaga	-10.2344
▁Publik	-10.2345
▁pengakuan	-10.2345
▁USD	-10.2348
▁Koster	-10.2359
/7/2024)	-10.2364
mas	-10.2368
▁la	-10.2369
tangani	-10.2375
▁Koalisi	-10.2379
▁Pegadaian	-10.2379
▁Lokasi	-10.238
▁Arief	-10.2382
▁Ketu	-10.2392
▁Championship	-10.2393
▁aliran	-10.2403
opir	-10.2405
pengadaan	-10.2407
solusi	-10.2408
▁Kudus	-10.2413
▁Istri	-10.2414
▁Nation	-10.2417
▁menyadar	-10.2418
▁Paul	-10.2419
bat	-10.2423
▁urusan	-10.2428
PN	-10.2432
pol	-10.2438
▁terungkap	-10.2446
▁dolar	-10.2446
▁teroris	-10.2448
▁Lewat	-10.2448
lari	-10.2452
▁pengaruh	-10.2452
▁Gu	-10.2452
▁AD	-10.2471
▁Komit	-10.2472
▁analis	-10.2476
AK	-10.2479
▁Skuad	-10.248
pat	-10.2486
▁penyerang	-10.2487
▁Direct	-10.2492
-10	-10.2495
▁48	-10.2498
▁gudang	-10.251
▁Sat	-10.2512
cerdas	-10.2513
▁Komplek	-10.2514
▁penjelasan	-10.2515
▁kayu	-10.2516
▁lini	-10.252
▁brand	-10.252
▁mayat	-10.2522
RC	-10.2523
▁sebab	-10.2523
▁Anti	-10.2524
▁pidato	-10.2528
▁Ketiga	-10.2543
▁Kecelakaan	-10.2548
menginginkan	-10.2549
penilaian	-10.2554
▁Kasi	-10.257
▁Pemerintahan	-10.2578
▁Soekarno	-10.2583
▁Empat	-10.2584
▁pa	-10.259
ting	-10.2591
ivitas	-10.2591
▁peme	-10.2591
▁Ca	-10.2592
▁2017	-10.2595
▁televisi	-10.2617
▁jejak	-10.2617
▁Cara	-10.2618
BMKG	-10.262
▁menj	-10.2638
▁Iwan	-10.2638
▁pengganti	-10.2651
akbar	-10.2652
▁pesta	-10.2658
▁Je	-10.2661
buat	-10.2668
▁Tetap	-10.2672
▁pandangan	-10.2678
▁ponsel	-10.2686
▁dijual	-10.2686
▁Garut	-10.2687
▁unik	-10.2688
ampung	-10.2689
ron	-10.2703
kadar	-10.2709
▁sambung	-10.271
▁Sya	-10.2713
ner	-10.2717
▁pandemi	-10.2721
▁Otorita	-10.2721
tra	-10.2751
▁Lestari	-10.2756
▁inovatif	-10.2756
▁limbah	-10.2756
▁penyedia	-10.2756
▁Lintas	-10.2757
23	-10.2757
ps	-10.2758
SK	-10.2763
▁diungkapkan	-10.2775
▁main	-10.2781
▁Brand	-10.279
▁Sipil	-10.2791
▁DEP	-10.2791
▁penyelundup	-10.2791
▁Deput	-10.2791
▁Ribu	-10.2793
▁Raih	-10.2797
▁ta	-10.28
;	-10.28
▁Market	-10.2802
▁43	-10.2805
▁Masuk	-10.2814
▁Gol	-10.2816
undur	-10.2818
alokasi	-10.2821
▁Bahlil	-10.2826
▁disabilitas	-10.2826
▁Jambi	-10.2826
▁Head	-10.2828
KTT	-10.2832
eristiwa	-10.2838
▁Ronald	-10.2847
▁YouTube	-10.2852
ecam	-10.2854
▁Banyuwangi	-10.2861
▁finansial	-10.2861
▁2015	-10.2863
keliling	-10.2868
▁CCTV	-10.2881
▁Hi	-10.2886
▁Studi	-10.2894
▁Pariwisata	-10.2896
▁pengacara	-10.2896
persyaratan	-10.2897
▁forum	-10.2901
▁TKP	-10.2903
▁mewah	-10.2908
bintang	-10.2913
juluk	-10.2925
▁Investasi	-10.2932
▁dosen	-10.2932
▁legislatif	-10.2933
▁Muhammadiyah	-10.2934
▁depannya	-10.2939
ev	-10.294
manfaatkan	-10.2949
vin	-10.2949
jah	-10.2958
manfaatan	-10.2963
▁Bhayangkar	-10.2967
▁pertimbangan	-10.2967
▁ledakan	-10.2968
▁kapan	-10.2969
▁menghabis	-10.297
PA	-10.2974
▁Pasti	-10.2978
maksimal	-10.2983
▁Am	-10.2985
pan	-10.2987
bantu	-10.2989
sial	-10.2995
sosiasi	-10.2999
▁karbon	-10.3004
su	-10.3013
har	-10.3015
▁man	-10.3015
ologi	-10.3016
▁memperk	-10.3016
▁asasi	-10.3019
▁setahun	-10.3021
tim	-10.3023
▁km	-10.3025
gugat	-10.3031
▁diumumkan	-10.3036
▁Sigit	-10.3041
▁Ros	-10.305
▁penguat	-10.3054
▁Yo	-10.306
▁Lima	-10.3065
▁42	-10.3072
▁Waktu	-10.3074
▁Olahraga	-10.3075
rasakan	-10.3075
▁Reza	-10.3079
▁Imin	-10.3083
sal	-10.3087
inggung	-10.3089
▁bendera	-10.3095
▁Laga	-10.3099
▁Meny	-10.3101
▁sampaikan	-10.3105
▁John	-10.311
▁kewenangan	-10.3111
ky	-10.3113
pengemudi	-10.3118
bekal	-10.312
ow	-10.312
av	-10.3126
▁menempatkan	-10.3126
▁Ne	-10.3129
menyita	-10.3134
Ribuan	-10.3135
via	-10.3139
▁kaca	-10.3146
▁Sekitar	-10.3146
▁stasiun	-10.3147
▁stunting	-10.3147
▁Persatuan	-10.3147
verifikasi	-10.3147
▁Un	-10.3151
▁Bima	-10.3152
enyelesai	-10.3154
war	-10.3156
▁pembentuk	-10.3156
tempat	-10.3169
▁PPN	-10.3173
Tida	-10.3175
▁jembatan	-10.3177
▁Mirzani	-10.3183
▁bahaya	-10.3183
▁menulis	-10.3185
▁skema	-10.3185
Q	-10.3199
enggeledah	-10.3201
hormatan	-10.3204
▁Kadin	-10.3205
ez	-10.3206
▁Fajar	-10.321
▁pembiayaan	-10.322
▁kekayaan	-10.322
▁kewajiban	-10.322
▁kreat	-10.3221
▁Expo	-10.3234
let	-10.3236
▁spesial	-10.3243
Karena	-10.3246
▁imbuh	-10.3247
▁seri	-10.3247
gan	-10.3253
ekapitulasi	-10.3253
▁ganja	-10.3254
▁Serentak	-10.3257
▁integritas	-10.3257
▁Soekarnoputri	-10.3257
▁Wanita	-10.3257
▁Mataram	-10.3257
pertanyakan	-10.3257
dut	-10.3259
pembicaraan	-10.3268
buru	-10.3273
ger	-10.3279
▁diatur	-10.328
▁Andri	-10.3283
sumber	-10.3284
ster	-10.3291
alternatif	-10.3293
▁saluran	-10.3293
elecehan	-10.3293
▁Yordania	-10.3293
bermanfaat	-10.3298
▁setuju	-10.3301
mata	-10.3309
enggan	-10.3312
luka	-10.3316
lon	-10.3321
BANG	-10.3322
▁habis	-10.3328
adopsi	-10.333
▁riset	-10.3331
▁kemasan	-10.3333
emendikbudristek	-10.3341
ium	-10.3342
▁angkat	-10.3343
wo	-10.3347
/12/2024)	-10.3353
▁Vina	-10.3354
▁Ryan	-10.3361
▁AP	-10.3363
melainkan	-10.3364
▁Ir	-10.3366
▁Rahmat	-10.3368
ampilan	-10.3369
▁ayam	-10.3369
▁gim	-10.337
▁timnas	-10.3379
▁pendek	-10.3383
▁Cup	-10.3388
▁terkenal	-10.3392
▁Wisata	-10.3403
▁Terima	-10.3403
▁Kriminal	-10.3404
▁League	-10.3404
▁mengevakuasi	-10.3404
▁Taliban	-10.3405
KP	-10.3405
▁Gede	-10.3406
implementasi	-10.3406
▁dikena	-10.3407
▁2,	-10.3411
▁terpisah	-10.3417
▁Sumbar	-10.3426
▁kelola	-10.3426
▁Harus	-10.3427
isu	-10.3434
▁kualifikasi	-10.3446
▁Wong	-10.3447
olah	-10.3448
Rano	-10.3452
asai	-10.3461
▁perempat	-10.3463
isme	-10.3463
▁sebelah	-10.3466
ers	-10.347
▁gizi	-10.3473
▁Buleleng	-10.3479
▁menyelidik	-10.3479
▁komoditas	-10.348
syaallah	-10.3483
▁memaka	-10.3496
▁Mall	-10.3507
▁PNM	-10.3508
biarkan	-10.351
▁Ja	-10.3513
sukses	-10.3515
▁Hartarto	-10.3517
▁Kabinet	-10.3517
▁bertindak	-10.3517
▁Balikpapan	-10.3517
▁Hulu	-10.3518
▁nutrisi	-10.352
▁dirawat	-10.3527
▁tangki	-10.3537
onfirmasi	-10.3538
tabilitas	-10.3548
pakai	-10.3552
▁kecurangan	-10.3555
▁kemerdekaan	-10.3556
▁populasi	-10.3557
▁ASDP	-10.3558
▁Nama	-10.356
▁aktor	-10.356
▁dituduh	-10.357
▁teh	-10.3574
▁SE	-10.3581
▁no	-10.3581
▁1,	-10.3582
daulatan	-10.3583
▁AMIN	-10.3583
batalkan	-10.3583
▁Edi	-10.359
▁Proyek	-10.3592
program	-10.3593
ainkan	-10.3594
▁adik	-10.3595
biasa	-10.3598
▁Park	-10.3602
▁ha	-10.3608
▁dikab	-10.3616
▁nyawa	-10.3616
▁massal	-10.3625
end	-10.3626
▁Inovasi	-10.363
▁menghilang	-10.363
▁mineral	-10.363
▁pemulihan	-10.363
▁Purwakarta	-10.363
Emil	-10.3633
literasi	-10.3638
▁berpikir	-10.3643
Me	-10.3643
tek	-10.3644
▁bersiap	-10.3646
apai	-10.3647
-4	-10.3659
kritik	-10.3662
▁Rohingya	-10.3669
▁Teguh	-10.3669
▁gerimis	-10.3669
▁pesantren	-10.3669
▁pesisir	-10.3669
ATEN	-10.3672
▁penahan	-10.3681
▁ganda	-10.3684
▁pilpres	-10.3686
▁Irwan	-10.3686
bakar	-10.3691
▁kuliah	-10.3698
▁Amma	-10.3698
▁Ram	-10.3698
▁Ru	-10.37
par	-10.37
▁Buka	-10.3705
cah	-10.3705
▁Fransiskus	-10.3707
▁Regional	-10.3707
▁menabrak	-10.3707
utip	-10.3707
▁Ilmu	-10.3708
▁Port	-10.3714
▁tangkap	-10.3714
besaran	-10.3719
▁hasilnya	-10.3722
▁Sha	-10.3725
indo	-10.3727
▁pembatasan	-10.373
saksi	-10.3735
▁Meksiko	-10.3738
▁41	-10.374
proses	-10.374
oro	-10.3744
▁Daftar	-10.3745
▁Yusuf	-10.3746
▁Juara	-10.3746
▁gagasan	-10.3748
▁panen	-10.3748
warna	-10.3754
▁Ipt	-10.3756
nggak	-10.3763
▁We	-10.3777
-7	-10.3778
ampir	-10.3779
▁Karang	-10.3779
▁perbuatan	-10.378
▁le	-10.3781
▁pensiun	-10.3781
▁War	-10.3783
▁objek	-10.3784
▁menentang	-10.3792
▁co	-10.3799
▁150	-10.38
ew	-10.3802
▁Total	-10.3804
▁belas	-10.3811
▁berkas	-10.3815
bikin	-10.3821
▁Katolik	-10.3823
▁SOLO	-10.3823
▁pemudik	-10.3823
▁BPJS	-10.3823
▁Tugas	-10.3823
ngecek	-10.3824
▁mekanisme	-10.3824
▁Kuasa	-10.3826
sel	-10.3829
▁pemaha	-10.3832
endanaan	-10.3837
▁pinggir	-10.3839
▁otorita	-10.3844
▁ID	-10.3852
▁Lee	-10.3855
▁denda	-10.386
▁kuliner	-10.3862
▁Stefan	-10.3862
▁Bareskrim	-10.3862
ntervensi	-10.3862
▁kritis	-10.3863
▁Tempat	-10.3865
her	-10.3875
▁dakwa	-10.3875
ator	-10.3883
▁terbanyak	-10.3886
dana	-10.3887
enasihat	-10.3888
▁reformasi	-10.389
▁Sampai	-10.3891
▁antusias	-10.3899
▁Jayapura	-10.3902
lia	-10.3902
▁Risma	-10.3902
▁penderita	-10.3905
chi	-10.391
▁Benny	-10.3913
▁Akibat	-10.3915
▁kendala	-10.3921
▁banding	-10.3924
▁transparan	-10.3932
▁ataupun	-10.3933
og	-10.3935
▁menyak	-10.3936
▁Halilintar	-10.394
▁berpendapat	-10.394
▁kisah	-10.394
▁penambah	-10.3943
dal	-10.3943
po	-10.3943
lip	-10.3944
▁mempengaruhi	-10.3947
▁Run	-10.3948
▁Bagian	-10.3951
▁seluas	-10.3959
▁setia	-10.3959
oordinasi	-10.3961
▁Day	-10.3964
IS	-10.3967
tepat	-10.397
▁pengawas	-10.3979
▁dievakuasi	-10.3979
▁Cabang	-10.3979
▁Reformasi	-10.398
ABUP	-10.398
▁Juta	-10.3983
▁dihadir	-10.3986
itkan	-10.3987
memfasilitasi	-10.3988
▁Khan	-10.3989
▁?"	-10.399
▁motif	-10.3992
lengkap	-10.3993
▁ide	-10.3998
▁Putu	-10.4
▁derajat	-10.4006
▁Kristiyanto	-10.4019
▁Pangarep	-10.4019
▁WhatsApp	-10.4019
▁terdekat	-10.4019
▁Biro	-10.4019
▁Ratu	-10.4023
ansyah	-10.4025
▁Coach	-10.4029
heboh	-10.4033
embalikan	-10.4039
sit	-10.4048
tulis	-10.4057
▁praktis	-10.4059
▁deras	-10.406
▁Business	-10.406
▁perahu	-10.4062
▁mandiri	-10.4062
-3	-10.407
kandungan	-10.409
▁santri	-10.4091
lbum	-10.4094
ola	-10.4095
/10/2024)	-10.4096
▁Dharma	-10.4098
▁Pratama	-10.4099
▁Rudy	-10.4099
▁pelamar	-10.41
ikir	-10.41
▁baku	-10.4102
▁Asep	-10.4102
▁sambungnya	-10.4111
erlukan	-10.4122
▁wa	-10.4125
▁Red	-10.4126
BI	-10.4132
▁cinta	-10.4134
▁Merdeka	-10.4138
▁cerai	-10.4138
▁lipat	-10.4139
day	-10.4141
af	-10.4142
▁manis	-10.4142
/9/2024)	-10.4143
▁Strategi	-10.4148
duta	-10.415
▁Pas	-10.415
▁karier	-10.4151
▁Bang	-10.4154
Dari	-10.4162
ering	-10.4167
asok	-10.4168
dewan	-10.4173
▁Achmad	-10.4179
▁tawuran	-10.4179
▁Misalnya	-10.4179
▁terkini	-10.4179
▁Thomas	-10.4179
▁bawa	-10.4185
pelajari	-10.4186
▁efisiensi	-10.4187
Saat	-10.4201
hubungan	-10.4203
ira	-10.4211
ten	-10.4213
▁Bi	-10.4217
peduli	-10.4219
▁Istimewa	-10.4219
▁menjatuh	-10.422
▁47	-10.4222
-79	-10.4223
▁pertambangan	-10.4226
▁prajurit	-10.4227
tivitas	-10.424
▁Xi	-10.4243
PK	-10.4245
▁PM	-10.4256
▁Soe	-10.4259
▁membeber	-10.4259
▁pemberontak	-10.4259
▁Perumahan	-10.426
▁menerb	-10.4262
▁tembakan	-10.427
▁ditempat	-10.4281
yono	-10.4289
memudahkan	-10.4291
▁efisien	-10.4292
▁Anas	-10.4294
▁terancam	-10.4299
▁Edward	-10.43
▁Pasuruan	-10.43
▁bentrok	-10.43
▁otomotif	-10.43
▁sawit	-10.43
▁Ahli	-10.43
▁komersial	-10.43
▁kurban	-10.4302
▁250	-10.4302
▁Ham	-10.4302
▁Artinya	-10.4309
▁Rutan	-10.4309
▁puas	-10.4312
▁silaturahmi	-10.4319
▁Selamat	-10.4322
awan	-10.4323
▁mencerm	-10.4324
zim	-10.4327
▁Cha	-10.4332
▁tahunan	-10.4334
▁ga	-10.4337
▁Udara	-10.4341
▁modus	-10.4342
jam	-10.4342
▁buruh	-10.4342
▁mikro	-10.4344
Distrik	-10.4344
▁partainya	-10.4345
▁Alhamdulillah	-10.4346
dor	-10.4348
▁melahirkan	-10.4348
▁pinjaman	-10.435
ac	-10.4355
▁universitas	-10.4355
▁direkt	-10.4375
▁58	-10.4381
▁Pemenangan	-10.4381
▁properti	-10.4382
▁keagamaan	-10.4382
▁konstitusi	-10.4383
awa	-10.4384
wadah	-10.439
jangkau	-10.4396
▁Bey	-10.4402
▁Mulia	-10.4404
▁Target	-10.4407
▁Ternyata	-10.4407
ramai	-10.4413
integrasi	-10.4418
kembangkan	-10.4422
▁menyetujui	-10.4423
▁multi	-10.4424
▁mahal	-10.4427
▁NTT	-10.4436
▁Kendaraan	-10.4444
rtifikasi	-10.4447
-6	-10.4451
▁kamp	-10.4457
▁Han	-10.4458
▁Heru	-10.4461
▁Trenggalek	-10.4464
▁Santoso	-10.4464
▁rombong	-10.4465
▁match	-10.4468
▁Lagi	-10.4468
▁Uang	-10.4469
▁Ki	-10.4477
▁waspada	-10.4479
▁dingin	-10.4479
▁demonstrasi	-10.4479
ven	-10.448
ujung	-10.4486
▁band	-10.45
▁Jembrana	-10.4506
▁perbankan	-10.4506
▁Sumatra	-10.4506
▁responden	-10.4506
nonton	-10.4507
nah	-10.4513
▁memuji	-10.4525
main	-10.4531
▁bertema	-10.4533
▁Gad	-10.4538
▁cita	-10.4541
▁caleg	-10.4545
asiswa	-10.4545
dang	-10.4545
▁mencuri	-10.4546
▁Google	-10.4547
▁Wijaya	-10.4548
▁Teluk	-10.4549
▁menderita	-10.4549
▁ayahnya	-10.455
kisar	-10.4551
▁Terlebih	-10.4552
▁Heri	-10.4552
▁Kunjung	-10.4554
estival	-10.4554
▁99	-10.4555
▁KUHP	-10.4564
ino	-10.4568
resmikan	-10.457
▁markas	-10.4574
Pilkada	-10.4584
kajian	-10.4586
▁dialog	-10.4587
▁Nugroho	-10.4589
▁ditambah	-10.459
▁Plus	-10.459
▁isi	-10.4596
mer	-10.4597
▁Terbaru	-10.4597
▁umumnya	-10.4598
▁Mari	-10.4605
▁Plt	-10.4618
if	-10.4619
▁apapun	-10.4625
▁etik	-10.4625
tekad	-10.4627
▁Siapa	-10.4629
▁Probolinggo	-10.4631
▁kepedulian	-10.4632
▁Ulama	-10.4633
edisi	-10.4638
ruf	-10.4638
▁itulah	-10.4641
▁kandung	-10.4649
▁mengajar	-10.465
▁Sar	-10.4664
▁Pu	-10.4672
▁Telkom	-10.4673
▁Brigjen	-10.4673
▁Kereta	-10.4674
▁asuhan	-10.4676
▁invasi	-10.4678
rajin	-10.4681
▁Sal	-10.4681
▁BTN	-10.4684
▁Sh	-10.4691
▁tetangga	-10.4697
kh	-10.4698
▁Alex	-10.4701
cerita	-10.4707
▁Green	-10.471
▁Sp	-10.471
▁lari	-10.4715
▁kabur	-10.4716
▁pelapor	-10.4718
▁dijalankan	-10.4722
▁tulang	-10.4722
▁pembinaan	-10.4736
▁Pekerjaan	-10.4741
engobatan	-10.4741
je	-10.4741
▁pilih	-10.4741
was	-10.4746
▁Emil	-10.4754
▁kelima	-10.4754
▁Er	-10.4757
▁pemberdayaan	-10.4758
▁Dokumentasi	-10.4759
▁Cahyadi	-10.4759
▁ruas	-10.4759
▁siber	-10.4761
▁Ferry	-10.4761
Ke	-10.4762
▁WNI	-10.4763
▁alih	-10.4764
▁relawan	-10.4764
▁Ivan	-10.4769
▁Pi	-10.4776
▁2.	-10.4785
pas	-10.4791
▁Po	-10.4794
▁Kang	-10.4795
dominasi	-10.4795
cinta	-10.4798
▁Zelenskyy	-10.4801
▁menimpa	-10.4801
▁London	-10.4801
▁otak	-10.4801
perusahaan	-10.4803
nan	-10.4804
▁bertanya	-10.4804
▁Champions	-10.4805
▁Yasin	-10.4814
ina	-10.4822
▁Batang	-10.4824
muat	-10.4831
▁out	-10.4836
▁Or	-10.4836
▁Chi	-10.4842
▁solid	-10.4843
▁Development	-10.4844
▁gunung	-10.4845
car	-10.4847
terbit	-10.4848
jaya	-10.4849
MA	-10.4851
▁Hu	-10.4854
membenarkan	-10.4864
▁by	-10.4866
▁lebaran	-10.4867
-21	-10.4871
▁Penyidik	-10.4885
▁ruangan	-10.4887
▁Komunitas	-10.4887
▁Madiun	-10.4887
▁kontak	-10.4888
▁Kampus	-10.4888
▁jarang	-10.4889
▁Dorong	-10.4889
▁20:0	-10.4889
▁daun	-10.489
▁Pesan	-10.4899
▁Best	-10.49
▁Life	-10.49
▁Mega	-10.4901
▁Anton	-10.4902
▁sesama	-10.4907
▁menduga	-10.4908
ditujukan	-10.4912
▁Teco	-10.4913
▁Cagub	-10.4914
▁kriminal	-10.4929
▁Miliar	-10.493
▁Fatoni	-10.493
▁Pendaftaran	-10.4931
▁Arena	-10.4931
▁perlawanan	-10.4932
URO	-10.4932
tha	-10.4936
▁PON	-10.4939
▁up	-10.494
▁At	-10.494
pergerakan	-10.4944
lambang	-10.4952
▁pengece	-10.4959
▁Harvey	-10.4974
▁diyakin	-10.4974
▁dikatakan	-10.4976
▁Pemasyarakatan	-10.498
▁CSR	-10.498
mitraan	-10.4987
▁analisis	-10.4988
baya	-10.4991
tel	-10.4991
▁gigi	-10.4992
▁Min	-10.4997
Pada	-10.5002
elebritas	-10.5002
eg	-10.501
▁Jam	-10.5013
▁Putusan	-10.5014
▁Budaya	-10.5018
▁nasib	-10.5019
taan	-10.5019
cita	-10.5026
diskusi	-10.5029
▁mereda	-10.5029
▁RK	-10.5036
kendali	-10.5046
▁resminya	-10.5053
▁paksa	-10.5055
▁Pesantren	-10.5061
▁tertutup	-10.5061
▁penyalur	-10.5061
▁Bobby	-10.5062
▁ketertiban	-10.5062
est	-10.5062
▁diplomatik	-10.5062
meriah	-10.5072
cawapres	-10.5072
▁sorotan	-10.5072
PD	-10.5072
▁Mojokerto	-10.5075
▁tempur	-10.5077
▁upah	-10.5079
sikan	-10.508
▁Pengguna	-10.5082
mengidentifikasi	-10.5087
ibu	-10.5091
▁Lin	-10.5095
▁Mal	-10.51
▁California	-10.5106
▁stadion	-10.5106
▁Nyom	-10.5106
▁pangkalan	-10.5106
▁Komisari	-10.5106
▁federal	-10.5106
Ditjen	-10.5106
▁hamil	-10.5106
▁komponen	-10.5106
pembahasan	-10.5106
▁Pasaribu	-10.5107
simulasi	-10.5109
balap	-10.5109
▁Inter	-10.511
▁Eka	-10.5111
▁von	-10.5128
▁Abu	-10.5129
▁kor	-10.5133
▁betul	-10.5134
▁Let	-10.5135
by	-10.5139
▁Tujuan	-10.5139
▁berkuasa	-10.5145
engku	-10.5145
▁Gorontalo	-10.515
▁destinasi	-10.515
▁Ricis	-10.515
▁Pramella	-10.515
▁dibayar	-10.515
▁u	-10.515
▁19:0	-10.5151
top	-10.5159
▁Noor	-10.5166
▁disiapkan	-10.5169
▁tas	-10.5169
▁rahasia	-10.5172
▁Kejari	-10.5176
waspadai	-10.5178
▁Kejati	-10.518
▁bar	-10.518
mah	-10.5182
BT	-10.5185
▁Wibowo	-10.5194
pembelajaran	-10.5194
▁hangat	-10.5194
▁Damai	-10.5194
▁Gratis	-10.5195
▁jabatannya	-10.5196
tertarik	-10.5196
▁Bagus	-10.5198
▁intensif	-10.5207
▁terasa	-10.5208
ALEM	-10.5212
▁Kemenag	-10.5212
▁Sari	-10.5215
▁etika	-10.5227
▁tegasnya	-10.5227
▁revisi	-10.5235
Satreskrim	-10.524
▁menjamu	-10.524
▁sambutan	-10.5243
▁terkemuka	-10.5244
▁pertunjuk	-10.5245
▁Tangkap	-10.5248
uji	-10.5252
empuh	-10.5256
Jateng	-10.5262
pihak	-10.5264
IN	-10.5264
PPPK	-10.5274
bebaskan	-10.5277
▁PBNU	-10.5278
▁kar	-10.5283
▁penandatangan	-10.5284
▁Teheran	-10.5284
▁Suami	-10.5284
▁Non	-10.5285
▁bapak	-10.5285
▁Termasuk	-10.5287
▁Termin	-10.5287
DPW	-10.5288
-5	-10.5289
tunjuk	-10.529
▁Sandr	-10.5292
▁Siswa	-10.5293
PL	-10.5301
▁undangan	-10.5311
▁Wapres	-10.5315
arapidana	-10.5319
▁Aman	-10.5321
▁49	-10.5327
eksekusi	-10.5329
sia	-10.5332
▁tersisa	-10.5333
▁Yaman	-10.5335
▁400	-10.5336
ee	-10.5338
▁klarifikasi	-10.5338
▁berfungsi	-10.534
edepankan	-10.5342
▁President	-10.5343
umur	-10.5344
▁Guna	-10.5345
▁top	-10.5354
▁pil	-10.5354
Yang	-10.5362
DA	-10.5364
▁timah	-10.5369
▁Arie	-10.5369
▁Genera	-10.5369
▁banten	-10.537
▁del	-10.537
▁RW	-10.5372
▁Water	-10.5379
▁liburan	-10.538
▁Ton	-10.5382
▁jutaan	-10.5383
▁Lagu	-10.5384
▁Makanan	-10.5391
dung	-10.5396
▁capaian	-10.5397
Setelah	-10.5399
telit	-10.5407
▁Dut	-10.5408
res	-10.5418
bersihkan	-10.5419
▁Maulana	-10.5419
▁Bahrain	-10.5419
▁Service	-10.5419
▁Tulungagung	-10.5419
▁tembakau	-10.542
▁pilot	-10.542
▁detail	-10.542
▁mengantar	-10.542
▁Bangka	-10.5422
TKN	-10.543
$	-10.5431
▁Auto	-10.5435
▁Banda	-10.5443
log	-10.5444
▁cawapres	-10.5454
▁65	-10.5455
▁Peringatan	-10.546
▁ditembak	-10.5462
▁Bangladesh	-10.5465
▁Penyakit	-10.5465
▁Ponorogo	-10.5465
▁Aditya	-10.5465
▁Online	-10.5465
▁ISIS	-10.5465
▁Andrew	-10.5466
▁panel	-10.5468
ambu	-10.5473
▁ramai	-10.5478
▁52	-10.5483
▁dibebaskan	-10.5485
mapar	-10.55
▁46	-10.5501
Itu	-10.5502
op	-10.5507
Sangat	-10.551
▁Bas	-10.551
▁panitia	-10.5511
lampau	-10.5511
▁suci	-10.5511
▁banget	-10.5512
▁Dapat	-10.5512
hantam	-10.5512
▁Tepi	-10.5514
▁tabung	-10.5517
ill	-10.5517
▁vol	-10.5521
▁Gera	-10.5523
▁Siang	-10.5528
bahan	-10.5532
▁terjangkau	-10.5534
atul	-10.5537
▁duka	-10.5555
delegasi	-10.5557
▁mengejutkan	-10.5557
▁spesifik	-10.5557
▁kediaman	-10.5558
nding	-10.5559
▁Debat	-10.5559
▁disita	-10.5561
▁sapaan	-10.5565
sikap	-10.5568
mit	-10.5572
▁netral	-10.5576
▁seru	-10.5584
▁mer	-10.5587
▁Samarinda	-10.5603
▁penalti	-10.5603
▁Apple	-10.5604
▁macam	-10.5605
dah	-10.5605
▁Fest	-10.5607
▁BI	-10.5615
▁berlebihan	-10.5617
nd	-10.5618
▁penemu	-10.5619
tergantung	-10.562
AM	-10.5621
/2024).	-10.5624
▁Kuningan	-10.5636
▁politisi	-10.5641
sar	-10.5642
▁kering	-10.5642
pastian	-10.5643
▁88	-10.5645
▁Sumenep	-10.565
▁Ikut	-10.565
▁07:0	-10.565
▁Bangkalan	-10.5651
▁LPG	-10.5652
lang	-10.5652
▁tertulisnya	-10.5655
▁Pajak	-10.5661
oli	-10.5665
▁penuntut	-10.5668
▁investigasi	-10.5671
▁kantong	-10.5672
▁56	-10.5679
angku	-10.5685
OR	-10.5686
▁76	-10.5687
▁menempat	-10.5687
▁tanya	-10.5694
gas	-10.5695
▁Majalengka	-10.5697
▁kamera	-10.5697
▁fenomena	-10.5697
▁visa	-10.5698
▁51	-10.57
▁Dito	-10.57
▁canggih	-10.57
▁berterima	-10.5706
pen	-10.5708
▁98	-10.5714
▁Bella	-10.5718
▁1,5	-10.5723
ersetujuan	-10.5725
ast	-10.573
▁57	-10.5731
Mereka	-10.5732
▁Pecco	-10.5736
enang	-10.5737
▁Jembatan	-10.5744
▁Manfaat	-10.5744
▁gereja	-10.5744
▁mengakses	-10.5744
jebak	-10.5744
▁2024:	-10.5758
cetak	-10.5759
stik	-10.5774
▁ra	-10.5777
pidana	-10.5782
▁Gar	-10.5783
▁Bojonegoro	-10.5791
▁Menengah	-10.5791
▁Situbondo	-10.5791
▁simbol	-10.5792
▁sambutannya	-10.5792
▁netralitas	-10.5793
▁Jawab	-10.5794
▁berkampanye	-10.5801
yanti	-10.5803
cc	-10.5806
▁Pers	-10.5812
baik	-10.5824
▁menguat	-10.5826
anggung	-10.5827
▁bahagia	-10.5829
Polri	-10.583
▁pungkas	-10.5838
▁Convention	-10.5838
ratifikasi	-10.5838
▁warung	-10.5839
▁17:0	-10.5839
▁Peserta	-10.5842
yong	-10.5846
▁meluas	-10.5849
RS	-10.5855
▁utamanya	-10.5858
▁persatuan	-10.5858
▁pecah	-10.5866
▁EV	-10.5873
ktor	-10.5878
ngejar	-10.5883
itsubishi	-10.5886
▁Argentina	-10.5886
▁Panitia	-10.5886
▁Sudjana	-10.5886
▁otomatis	-10.5886
▁Dugaan	-10.5886
▁menguntungkan	-10.5886
boleh	-10.5886
▁Resmi	-10.5887
▁kelaparan	-10.5887
▁Mulyadi	-10.5887
▁Prasetyo	-10.5888
▁aliansi	-10.5889
▁asam	-10.5891
▁Sekarang	-10.5892
▁Kolaborasi	-10.5893
otret	-10.5893
▁besi	-10.5897
uni	-10.5916
/11/2024)	-10.5917
angkutan	-10.5917
▁Antam	-10.5917
▁minat	-10.5921
▁Nilai	-10.593
▁(11	-10.5933
▁kebun	-10.5933
▁Sukarelawan	-10.5934
▁Kemendagri	-10.5934
▁Lebak	-10.5936
▁kode	-10.5938
batasan	-10.594
▁sari	-10.5947
setujui	-10.5947
angan	-10.5947
lak	-10.5948
▁menyimpan	-10.5949
17	-10.5949
▁Gabungan	-10.595
-16	-10.5962
operasi	-10.5963
tongi	-10.5968
tic	-10.5969
▁biru	-10.597
▁elit	-10.597
▁dikonsumsi	-10.5971
▁APBN	-10.5972
▁Sah	-10.5977
▁Lama	-10.5979
▁Terus	-10.5979
▁Gereja	-10.5982
▁Stadium	-10.5982
▁Kyiv	-10.5982
▁badai	-10.5982
▁imigrasi	-10.5982
▁Cipta	-10.5983
▁Kapolresta	-10.5997
▁Daniel	-10.6001
HI	-10.6007
ket	-10.6007
▁Dirinya	-10.6018
▁Boy	-10.6021
Nurul	-10.6022
▁Dar	-10.6023
▁Ren	-10.6027
▁Bagnaia	-10.603
▁menantang	-10.603
▁memasang	-10.603
▁curah	-10.603
▁menanam	-10.6031
▁restoran	-10.6033
▁#	-10.6033
▁Serdang	-10.6033
▁saing	-10.6034
uf	-10.6036
▁Kas	-10.6036
▁Masalah	-10.6039
▁Institut	-10.6066
ban	-10.6066
Tanpa	-10.6071
15	-10.6072
▁taktik	-10.6078
▁permukaan	-10.6079
▁Gerak	-10.6079
▁percepatan	-10.6085
itigasi	-10.6087
▁Syah	-10.6092
salat	-10.6095
▁Bamsoet	-10.6098
▁Personel	-10.6098
indaklanjuti	-10.6099
▁(18	-10.6103
raperadilan	-10.611
▁Kejagung	-10.6117
rum	-10.6118
▁Mel	-10.6118
▁Silva	-10.6127
▁Satria	-10.6128
▁Moeis	-10.6128
▁diselesaikan	-10.6129
▁Dusun	-10.6129
▁sub	-10.6135
▁selebritas	-10.6136
tinggi	-10.6147
▁Live	-10.6149
▁akademisi	-10.615
▁penu	-10.6158
RANG	-10.6159
▁Peran	-10.616
Baim	-10.6164
lar	-10.6171
▁Syariah	-10.6176
▁pengurang	-10.6177
▁16:0	-10.6178
abu	-10.6185
▁AM	-10.6189
▁pendamping	-10.619
ilateral	-10.6192
▁Suk	-10.62
-8	-10.6201
▁padat	-10.6207
pura	-10.621
▁begini	-10.6211
elang	-10.6212
cil	-10.6219
rin	-10.6224
▁kecantikan	-10.6226
▁Tabanan	-10.6226
▁kimia	-10.6226
▁penolakan	-10.6226
Yamaha	-10.6226
helat	-10.6226
▁insen	-10.6228
▁Show	-10.6229
▁kakak	-10.623
pergi	-10.6232
▁sel	-10.6232
▁halal	-10.6234
▁Seleksi	-10.6235
▁jasad	-10.6237
▁Simak	-10.624
▁UI	-10.6244
SI	-10.6247
rekrut	-10.6256
▁sih	-10.6264
▁Ji	-10.6266
alah	-10.6267
ergantian	-10.6272
instruksi	-10.6275
menyuarakan	-10.6275
▁relevan	-10.6275
▁William	-10.6275
▁Polandia	-10.6275
▁etnis	-10.6277
▁Cek	-10.6277
ping	-10.6278
▁sadar	-10.6279
ef	-10.628
agak	-10.6289
mak	-10.6294
RU	-10.6295
andi	-10.6297
▁Dapil	-10.6301
▁UNRWA	-10.6302
▁Mah	-10.6304
▁Rube	-10.6306
▁kg	-10.6307
hunian	-10.6316
▁Pasifik	-10.6321
▁melengkapi	-10.6322
▁Pendapat	-10.6324
▁Covid	-10.6325
▁perasaan	-10.6325
▁suap	-10.6327
▁Depan	-10.6327
▁Manahan	-10.6329
▁Darat	-10.6332
▁Q	-10.6333
▁digitalisasi	-10.6333
▁Malik	-10.6335
▁2.000	-10.6336
▁ro	-10.6339
cha	-10.6339
▁53	-10.6342
pot	-10.6342
▁erat	-10.6353
pleno	-10.6355
▁berlatih	-10.6356
hargai	-10.6358
▁Musi	-10.6364
landia	-10.6367
▁meluka	-10.6373
▁bioskop	-10.6375
▁menerangkan	-10.6375
▁dapur	-10.6375
▁Ayah	-10.6379
▁menjanjikan	-10.6379
▁Arifin	-10.6383
lam	-10.6385
foto	-10.6388
▁segar	-10.6389
bahagia	-10.639
▁AC	-10.6391
eresmi	-10.6391
eb	-10.6398
▁berkendara	-10.6399
▁Con	-10.6405
▁Andre	-10.6405
mil	-10.6407
▁SIM	-10.6407
▁leg	-10.641
▁putus	-10.6411
▁promo	-10.6411
▁Jati	-10.6412
▁Kepada	-10.6416
▁THR	-10.642
ish	-10.6422
▁54	-10.6422
▁Kurnia	-10.6424
▁Sahroni	-10.6425
▁melemah	-10.6425
▁kripto	-10.6425
feksi	-10.6425
▁mematikan	-10.6426
▁inklusif	-10.6426
▁kawan	-10.6428
▁Raharja	-10.643
ura	-10.643
ity	-10.6431
▁dinami	-10.6433
▁Don	-10.6434
teria	-10.6436
target	-10.6438
▁taman	-10.6438
▁pemenangan	-10.644
▁abad	-10.6442
▁bansos	-10.6449
obatan	-10.645
ukur	-10.645
BC	-10.645
▁Basarnas	-10.6456
inkan	-10.6457
▁kok	-10.6461
▁Antoni	-10.6461
▁Bawa	-10.6467
▁Hasilnya	-10.6469
ksekutif	-10.6472
▁Penyuluh	-10.6476
▁helikopter	-10.6476
▁Persita	-10.6478
▁produktivitas	-10.648
▁Yuni	-10.648
PT	-10.6481
▁Simp	-10.649
mbongkar	-10.6491
.200	-10.6503
age	-10.6504
ela	-10.6507
ila	-10.6509
▁paham	-10.6514
▁mask	-10.6516
ding	-10.6518
▁olah	-10.6524
▁Hasyim	-10.6526
▁ditentukan	-10.6526
▁komprehensif	-10.6526
▁Ginting	-10.6527
▁SA	-10.654
erap	-10.6541
▁End	-10.6545
▁spesialis	-10.6546
▁opsi	-10.6551
tahuan	-10.6556
▁Begitu	-10.6556
▁(20	-10.6567
▁artikel	-10.6567
▁komp	-10.6573
▁Ditangkap	-10.6577
▁Iduladha	-10.6577
ndadak	-10.6579
▁sertifikat	-10.658
▁Final	-10.6581
▁port	-10.6581
pengambilan	-10.6583
▁Penting	-10.6591
▁konserva	-10.6593
Dalam	-10.6595
▁ingat	-10.66
▁Kiai	-10.6602
sti	-10.6611
▁Mark	-10.6614
tama	-10.6625
▁Senjata	-10.6629
atuhi	-10.6629
▁botol	-10.6629
▁kecewa	-10.6629
▁stakeholder	-10.6629
▁kenapa	-10.663
▁Indar	-10.6631
▁menelan	-10.6632
▁Solidaritas	-10.6635
▁didasar	-10.6635
▁go	-10.6641
beratan	-10.6641
tandatangani	-10.6642
▁jawaban	-10.6644
erry	-10.6647
nomor	-10.665
tin	-10.6652
tapa	-10.6663
pantau	-10.6665
▁propos	-10.6676
▁Komandan	-10.668
▁Lumajang	-10.668
▁Respons	-10.668
▁Onsu	-10.668
▁20:3	-10.6682
amin	-10.6683
▁pertamanya	-10.6685
▁Tegal	-10.6686
NBA	-10.6691
▁jet	-10.6693
ulang	-10.6694
ntang	-10.6697
▁Bina	-10.6699
konstruksi	-10.6704
▁Akhirnya	-10.6704
▁kepemil	-10.6706
Jik	-10.671
▁amanah	-10.6711
▁niat	-10.6712
US	-10.6712
▁negaranya	-10.6715
patut	-10.6719
▁benda	-10.6723
▁MS	-10.6724
▁Nu	-10.6724
▁sederhana	-10.6725
▁Deklarasi	-10.6732
▁diabetes	-10.6732
▁perunding	-10.6733
▁zaman	-10.6734
▁Tuhan	-10.6735
-13	-10.6736
nis	-10.6743
▁Rizal	-10.6744
gengsi	-10.6745
▁Ita	-10.6747
pet	-10.6754
edar	-10.6756
konsolidasi	-10.6756
▁volu	-10.6769
▁Pam	-10.6771
nam	-10.6773
atan	-10.6775
▁Ramadhan	-10.6784
▁kronologi	-10.6784
▁Logistik	-10.6784
▁Purnama	-10.6785
ria	-10.6786
▁telak	-10.6787
▁transfer	-10.6788
▁Timor	-10.679
▁Saleh	-10.679
▁Siak	-10.6794
endalikan	-10.6799
▁PMI	-10.68
pel	-10.6801
tal	-10.6802
lla	-10.6804
▁bersatu	-10.6808
!	-10.6809
evaluasi	-10.6809
TPS	-10.6813
▁Jar	-10.682
▁produktif	-10.6822
▁Shi	-10.6832
▁struktur	-10.6833
▁kemacetan	-10.6836
▁petahana	-10.6836
▁perumahan	-10.6836
▁premium	-10.6837
▁17:3	-10.6837
▁21:0	-10.6838
▁Ayat	-10.6841
▁(3	-10.6847
▁Alasan	-10.6848
▁Gas	-10.6848
▁armad	-10.685
geser	-10.6855
ungan	-10.6859
ex	-10.6859
▁(19	-10.6863
inovasi	-10.6864
sesuai	-10.6864
▁mal	-10.6866
▁cadangan	-10.6873
▁nasi	-10.6879
▁Herman	-10.6886
usut	-10.6888
▁Administrasi	-10.6889
▁Meningkat	-10.6889
▁ditawarkan	-10.6889
▁tercapai	-10.6889
▁umrah	-10.6889
▁virus	-10.6889
▁wajar	-10.689
▁bayar	-10.6891
▁berisiko	-10.6892
▁terwujud	-10.6892
▁Buruh	-10.6895
▁Dasar	-10.6897
▁ucapan	-10.6897
▁tembak	-10.6905
pu	-10.6908
▁Ris	-10.6912
▁muslim	-10.6914
▁Tentu	-10.6921
kapal	-10.6923
▁Suhar	-10.6932
ser	-10.6938
▁Tentara	-10.6942
▁diakui	-10.6942
▁11:0	-10.6944
▁Yudh	-10.6944
▁Citra	-10.6944
▁apel	-10.6946
jen	-10.6948
▁berikut	-10.6961
▁AHY	-10.6961
EN	-10.6961
ontrol	-10.6961
unjang	-10.6962
rt	-10.6964
▁Pengawasan	-10.6965
▁ibunya	-10.697
hambat	-10.6971
▁landas	-10.6974
▁Asal	-10.6977
▁lampu	-10.6978
▁masukan	-10.6981
tanda	-10.6982
▁pemantauan	-10.6986
▁95	-10.6989
▁3,	-10.6991
gel	-10.6991
▁Boyolali	-10.6995
▁Nasution	-10.6995
▁Vladimir	-10.6995
▁kekeringan	-10.6995
▁Pertandingan	-10.6995
▁Jaringan	-10.6995
▁Harupat	-10.6995
▁Hijriah	-10.6995
▁Tessa	-10.6996
ihal	-10.7006
▁bio	-10.7015
▁asuhnya	-10.7017
▁hancur	-10.7022
▁XXI	-10.7024
▁papar	-10.7024
▁pendukungnya	-10.7032
▁KKB	-10.7034
▁perteng	-10.7042
kiper	-10.7044
+	-10.7046
ekretariat	-10.7049
▁Swedia	-10.7049
▁Pembunuhan	-10.7049
▁Listyo	-10.7049
▁dedikasi	-10.705
▁disediakan	-10.7051
▁Par	-10.7054
▁68	-10.7055
▁DC	-10.7055
▁segmen	-10.7056
▁Prima	-10.7059
▁live	-10.7062
fli	-10.7064
▁Luhu	-10.7067
▁Ngawi	-10.7071
▁Harapan	-10.7073
▁Seger	-10.7078
AL	-10.7087
▁bek	-10.7091
kadang	-10.7093
tuang	-10.7095
hubung	-10.7095
▁en	-10.71
UN	-10.7101
▁eksklusif	-10.7102
▁diakses	-10.7102
▁Kendal	-10.7103
▁penulis	-10.7103
▁Cinta	-10.7106
ena	-10.7107
▁Due	-10.7122
▁miskin	-10.7124
ies	-10.7131
ehadiran	-10.7131
▁muka	-10.7137
yakan	-10.7147
TI	-10.7149
▁lomba	-10.7149
▁berharga	-10.715
▁Tel	-10.715
set	-10.7151
▁Foundation	-10.7156
▁penyeberangan	-10.7156
▁teknik	-10.7156
▁Libur	-10.7156
▁Susanto	-10.7156
▁bertahap	-10.7156
▁Pesawat	-10.7157
▁19:3	-10.7157
▁Mabes	-10.7158
anaknya	-10.7159
▁Makan	-10.7162
▁Akhir	-10.7166
▁bergulir	-10.7169
▁Wira	-10.7169
▁BAZNAS	-10.7174
gambar	-10.7179
▁Habib	-10.7183
▁direncanakan	-10.7189
golong	-10.719
▁Peningkatan	-10.7194
sinergi	-10.7197
dik	-10.7199
▁Mungkin	-10.7199
/2024	-10.72
RA	-10.7201
perang	-10.7202
▁Th	-10.7203
gunaan	-10.7207
▁Za	-10.7208
▁seputar	-10.7209
▁tunai	-10.721
▁Pati	-10.721
▁kelapa	-10.721
▁dideportasi	-10.7211
▁menindak	-10.7211
▁berkurang	-10.7211
▁mendarat	-10.7211
▁gender	-10.7211
▁masif	-10.7211
▁Management	-10.7212
▁Bantu	-10.7212
▁Amran	-10.7212
▁Terbaik	-10.7213
▁GI	-10.7213
▁dipenuhi	-10.7215
sul	-10.7216
▁bersejarah	-10.7219
▁Pekan	-10.7222
temukan	-10.7223
▁APBD	-10.7227
▁komitmennya	-10.7227
masa	-10.723
▁(2	-10.7231
alihkan	-10.7233
▁kena	-10.7235
berpihak	-10.7238
rikan	-10.7241
nal	-10.725
▁Bek	-10.7261
▁BP	-10.7261
▁Nas	-10.7263
bas	-10.7264
▁Secret	-10.7265
▁Unggul	-10.7265
▁milenial	-10.7265
▁hebat	-10.7266
▁Jan	-10.7267
tam	-10.7269
▁Judi	-10.727
▁mengoptimal	-10.7271
▁ideal	-10.7273
▁kri	-10.7279
ze	-10.728
bus	-10.7281
rang	-10.7282
lantik	-10.7284
▁penyebar	-10.7287
▁is	-10.7289
▁menyeluruh	-10.7289
▁Jaga	-10.7295
hara	-10.7305
▁perut	-10.731
▁kubu	-10.731
▁67	-10.7316
▁keturunan	-10.732
▁rantai	-10.732
▁Sumedang	-10.7321
penduduk	-10.7321
▁Kreatif	-10.7322
▁Ingin	-10.7322
▁14:0	-10.7323
▁Rahman	-10.7323
▁Naik	-10.7324
▁Gempa	-10.7327
sus	-10.7328
▁narasi	-10.7329
les	-10.7331
▁pengatur	-10.7331
▁merata	-10.7334
empatan	-10.7335
▁menua	-10.7336
pres	-10.7339
seret	-10.7339
▁Den	-10.7345
▁Saksi	-10.7346
▁Federal	-10.7347
▁kliennya	-10.7348
▁terintegrasi	-10.7349
▁tuntas	-10.7356
engaruhi	-10.7359
▁liter	-10.7367
▁Wang	-10.7371
kompak	-10.7371
▁pengendali	-10.7376
▁2011	-10.7376
▁moral	-10.7376
▁2021.	-10.7376
▁butir	-10.7376
▁Analis	-10.7376
▁09:0	-10.7376
▁ditingkatkan	-10.7376
▁Week	-10.7377
▁mirip	-10.7377
▁musuh	-10.7378
▁Sejahtera	-10.7379
▁Band	-10.738
▁Subang	-10.7382
▁Sudan	-10.7383
▁Af	-10.7386
salurkan	-10.7391
▁2,5	-10.7391
▁PB	-10.7404
timbang	-10.7411
▁simpati	-10.7412
▁Yudi	-10.742
▁Kejadian	-10.7422
adaptasi	-10.7422
▁Mau	-10.7426
harga	-10.7426
omentar	-10.7428
▁tersendiri	-10.7431
▁Cilegon	-10.7431
▁diganti	-10.7431
▁Pemilik	-10.7432
▁13:3	-10.7432
▁13:0	-10.7433
▁16:1	-10.7434
▁Persen	-10.7435
▁Yus	-10.7437
▁telur	-10.7438
nantia	-10.7444
bek	-10.7447
▁Aris	-10.7459
▁Muara	-10.7459
▁beragama	-10.7461
kuasa	-10.7461
▁Mer	-10.7462
▁Makin	-10.7465
bin	-10.7475
▁64	-10.7475
PSI	-10.7476
peluang	-10.7478
▁teror	-10.7482
TP	-10.7483
▁Ch	-10.7486
Energy	-10.7487
▁Barcelona	-10.7487
▁Jorge	-10.7487
▁dibahas	-10.7487
▁sejati	-10.7487
▁21:3	-10.7488
▁Sekda	-10.7489
▁Hartono	-10.7489
▁Hindu	-10.749
▁turis	-10.7491
▁Press	-10.7493
▁Widya	-10.7494
▁dilanda	-10.7494
▁menghapus	-10.7495
wacana	-10.7496
jamin	-10.7499
▁mengurus	-10.7501
tun	-10.7503
bilang	-10.7512
utuk	-10.7512
sembunyi	-10.7518
merawat	-10.752
▁Seks	-10.7522
▁Gi	-10.7524
lit	-10.7527
▁Isu	-10.7528
▁Dur	-10.7529
▁Kris	-10.7533
jan	-10.7535
▁maritim	-10.7538
▁balasan	-10.7541
▁(1	-10.7543
▁Manchester	-10.7543
▁bjb	-10.7543
▁keperluan	-10.7543
▁absen	-10.7543
▁Sukses	-10.7543
▁Wuling	-10.7543
langsung	-10.7544
▁hambatan	-10.7548
ertolong	-10.7548
iklan	-10.7549
PU	-10.7552
SDN	-10.7566
nuhan	-10.7567
▁jumpa	-10.7569
▁Rian	-10.7584
SA	-10.7589
▁Georgia	-10.7589
▁dipasang	-10.7591
▁(14	-10.7593
wawancara	-10.7599
▁baju	-10.7599
▁almarhum	-10.76
▁Meninggal	-10.76
▁Peduli	-10.76
▁Swiss	-10.76
▁Ahok	-10.76
▁tumbang	-10.76
▁gelandang	-10.7601
uli	-10.7603
UK	-10.7603
▁Social	-10.7603
sat	-10.7613
▁li	-10.7625
▁Ak	-10.7625
▁ni	-10.7628
hin	-10.7642
▁terorisme	-10.7648
▁Communication	-10.7657
▁Parawansa	-10.7657
▁Yudhoyono	-10.7657
▁erupsi	-10.7657
▁Cimahi	-10.7657
▁Florida	-10.7657
▁Suci	-10.7657
▁roket	-10.7657
▁08:0	-10.7657
▁Mitra	-10.766
▁bara	-10.7662
omitmen	-10.7662
▁Pengusaha	-10.7663
ug	-10.7675
▁lupa	-10.768
▁sebaik	-10.7686
▁Kemnaker	-10.7687
▁Amir	-10.7688
▁memasukkan	-10.7689
tensi	-10.7689
tah	-10.7691
tas	-10.7692
▁persnya	-10.7693
seragam	-10.7693
▁disiplin	-10.7698
▁Demi	-10.7705
40	-10.7707
irokrasi	-10.7712
▁Land	-10.7713
▁jenderal	-10.7714
▁rekening	-10.7714
▁Yahya	-10.7714
guncang	-10.7714
▁Dis	-10.7714
▁menye	-10.7716
▁Anung	-10.7717
▁pengolah	-10.7718
naikan	-10.7721
▁mandi	-10.7724
karena	-10.7725
cuti	-10.7728
red	-10.7729
▁walau	-10.7732
▁Bola	-10.7734
ini	-10.7738
▁One	-10.7738
▁Mur	-10.7739
▁ki	-10.7739
ifikasi	-10.7743
▁bulu	-10.7749
▁sifat	-10.7754
lakukan	-10.7754
▁Bandar	-10.7758
▁IS	-10.7761
▁pembicara	-10.7761
mpu	-10.7762
▁(1)	-10.7763
olusi	-10.7768
▁dibentuk	-10.7768
sela	-10.7768
▁Liverpool	-10.7771
▁horor	-10.7771
Insiden	-10.7771
▁Robert	-10.7772
▁Wal	-10.7772
▁Kuala	-10.7772
▁Idris	-10.7772
▁menyumbang	-10.7774
▁Fuji	-10.7775
populer	-10.7776
BP	-10.7782
alumni	-10.7784
▁diraih	-10.7787
▁Chie	-10.7789
bun	-10.7793
▁Ikat	-10.7794
ula	-10.7795
▁Pameran	-10.7797
▁GP	-10.7798
▁Penelitian	-10.7801
▁Food	-10.781
▁ch	-10.7813
ringkus	-10.7819
hol	-10.782
▁Mata	-10.7822
liansi	-10.7822
▁Yan	-10.7825
▁ekor	-10.7826
▁Sudirman	-10.7829
▁Ismail	-10.7829
▁santun	-10.7829
▁negosiasi	-10.7831
pengaduan	-10.7831
▁bareng	-10.7831
▁Officer	-10.7832
▁17:1	-10.7832
simpan	-10.7832
▁fi	-10.7833
▁Putera	-10.7836
tus	-10.7836
▁Power	-10.7836
▁Sosialisasi	-10.7837
▁kecuali	-10.7837
▁Walau	-10.7839
▁favorit	-10.7842
AB	-10.7842
hir	-10.7844
▁Melihat	-10.7844
kawan	-10.7845
▁Kor	-10.7845
▁Sen	-10.7846
KS	-10.7846
▁Iris	-10.7858
SP	-10.7863
syah	-10.7863
endam	-10.7866
.500	-10.787
▁rumput	-10.7871
▁Fer	-10.7875
▁DKPP	-10.7882
air	-10.7882
▁Miftah	-10.7887
▁figur	-10.7887
▁perceraian	-10.7887
▁Brimob	-10.7887
▁raksasa	-10.7887
▁krusial	-10.7887
▁Kristen	-10.7887
▁ulama	-10.7887
▁Unair	-10.7887
▁rambut	-10.7888
▁16:3	-10.7888
▁ganti	-10.7888
▁Wahid	-10.7889
▁Atta	-10.7892
▁andalan	-10.7892
▁menerus	-10.7893
mendekati	-10.7899
pusat	-10.7899
▁LP	-10.79
ALANG	-10.7903
▁GOR	-10.7904
▁rehabilitasi	-10.7907
pati	-10.7909
▁matang	-10.791
▁Fasilitas	-10.7911
▁seberat	-10.7912
▁Rus	-10.7913
▁Strategis	-10.7917
▁hukumnya	-10.7918
▁Mak	-10.7921
enyanyi	-10.7923
▁diputus	-10.7924
▁lo	-10.7928
had	-10.7928
erseroan	-10.7933
pertanggungjawab	-10.794
▁Es	-10.7945
▁ukuran	-10.7945
tro	-10.7945
▁Cawapres	-10.7946
ombak	-10.7946
▁15:3	-10.7947
▁indah	-10.7948
tyo	-10.7948
▁menyaran	-10.795
▁PSIM	-10.7954
ward	-10.796
▁Giri	-10.7963
▁perhitungan	-10.7963
▁Yahudi	-10.7965
▁tuanya	-10.7967
ilang	-10.7968
hakim	-10.7968
ayat	-10.798
bot	-10.7982
ANG	-10.7987
▁PUPR	-10.7995
curiga	-10.8001
▁Tokyo	-10.8004
▁Uzbekistan	-10.8004
▁kerabat	-10.8004
▁Pencegahan	-10.8004
▁murid	-10.8004
▁mengeluh	-10.8004
▁lansia	-10.8005
uzuki	-10.8005
▁Kulon	-10.8005
▁BYD	-10.8006
▁blok	-10.8008
▁lebar	-10.8009
▁Informati	-10.8009
murni	-10.8012
2)	-10.8017
▁Mohamm	-10.8021
daerah	-10.8021
lik	-10.8041
CC	-10.8042
ED	-10.8048
▁Tour	-10.805
▁rekrut	-10.8056
KA	-10.8059
▁Ex	-10.806
_	-10.8064
▁Asuransi	-10.8064
▁Kinerja	-10.8064
▁pencoblosan	-10.8064
▁tertinggal	-10.8064
▁Kekerasan	-10.8064
▁Pelajar	-10.8064
▁Teknis	-10.8064
afiliasi	-10.8064
▁berdarah	-10.8064
▁Turun	-10.8065
▁15:0	-10.8066
▁menyenangkan	-10.8068
▁(13	-10.8069
▁yong	-10.8074
▁Musk	-10.8076
▁terjun	-10.8076
/8/2024)	-10.8077
▁ti	-10.8088
kerahkan	-10.809
▁Bos	-10.8095
▁Bunga	-10.8095
inisia	-10.8103
▁konse	-10.8104
▁Pram	-10.8108
lim	-10.8111
▁KTP	-10.8112
▁penye	-10.8115
▁Jala	-10.8117
▁rincian	-10.8118
kejut	-10.8119
▁Portugal	-10.8123
▁Kusuma	-10.8123
▁pengangguran	-10.8123
▁penguasa	-10.8123
▁kertas	-10.8123
▁tahan	-10.8123
▁nikel	-10.8123
▁lemak	-10.8124
▁mo	-10.8124
▁Barito	-10.8124
▁America	-10.8125
anggilan	-10.8125
konfirmasi	-10.813
ley	-10.8131
sya	-10.8131
▁Jonat	-10.814
emberhenti	-10.8141
omando	-10.8142
-12	-10.8144
ick	-10.8144
▁Hati	-10.8145
▁advoka	-10.8146
▁Aji	-10.8147
erat	-10.8149
▁melebih	-10.815
▁Gold	-10.8157
10	-10.8158
ros	-10.816
▁Tur	-10.8164
▁Awal	-10.8164
guna	-10.8175
▁intimidasi	-10.8175
▁School	-10.8183
▁Pemberdayaan	-10.8183
▁PEKA	-10.8183
▁memecah	-10.8183
▁Haiti	-10.8183
▁lemah	-10.8184
▁Sehat	-10.8184
▁07:1	-10.8184
▁menunt	-10.8186
▁matahari	-10.8189
▁pemda	-10.8192
▁Sales	-10.8194
▁sinyal	-10.8194
dam	-10.8196
▁ran	-10.82
OM	-10.82
▁putranya	-10.8202
▁ditolak	-10.8203
▁berikan	-10.8203
nak	-10.8207
▁gejala	-10.8207
▁Ajak	-10.8212
but	-10.8214
▁Tua	-10.8218
▁mesti	-10.8218
▁gelap	-10.8222
nyesuai	-10.8231
dit	-10.8231
▁Pop	-10.8234
engungkap	-10.8235
baiknya	-10.8238
▁Fikri	-10.8243
▁manufaktur	-10.8243
▁08:3	-10.8244
▁pembaca	-10.8244
▁operat	-10.8244
▁20:4	-10.8245
▁10:1	-10.8248
rus	-10.8248
▁59	-10.8251
▁BNI	-10.8251
▁Car	-10.8252
pacara	-10.8253
rawat	-10.8255
PM	-10.8259
ungutan	-10.8261
encabulan	-10.8264
prioritas	-10.8266
▁awan	-10.8271
pak	-10.8272
sebelas	-10.8274
▁Eman	-10.8274
▁sepatu	-10.8275
aris	-10.8276
IL	-10.8278
▁Seru	-10.8281
publikasi	-10.8282
▁pemer	-10.8282
▁urutan	-10.8286
mad	-10.8292
aka	-10.8295
endaya	-10.8301
▁63	-10.8302
▁aborsi	-10.8304
komandan	-10.8304
▁Hilir	-10.8305
▁Telegram	-10.8305
hariq	-10.8305
▁Faisal	-10.8306
▁mulut	-10.8307
▁pesat	-10.8308
▁tercipta	-10.8316
mb	-10.8319
▁terbunuh	-10.8326
Suswono	-10.8327
▁hidupnya	-10.8328
▁basis	-10.8329
andalkan	-10.8334
▁(29	-10.8335
▁seruan	-10.8336
▁66	-10.8338
▁SERA	-10.834
AT	-10.8343
▁lambat	-10.8345
▁semata	-10.8346
▁diubah	-10.8346
ekam	-10.8346
od	-10.835
era	-10.835
▁Ng	-10.8351
ate	-10.8351
▁mi	-10.8352
▁off	-10.8357
tung	-10.8362
▁ban	-10.8363
▁hoaks	-10.8365
▁musisi	-10.8365
▁Fauziyah	-10.8365
▁Cikarang	-10.8365
▁Health	-10.8365
▁Mudik	-10.8366
▁18:3	-10.8366
NI	-10.8367
Ma	-10.8367
▁GIIAS	-10.8367
▁Laku	-10.8369
▁BSD	-10.8369
▁Tegas	-10.837
▁tipis	-10.837
▁Solusi	-10.8375
askan	-10.8377
▁perencanaan	-10.838
cermin	-10.8383
▁kain	-10.8384
Ya	-10.8387
▁Diponegoro	-10.839
▁Situasi	-10.8397
▁do	-10.8399
▁UN	-10.8402
▁nir	-10.8406
▁Jong	-10.8415
▁legal	-10.8415
indahkan	-10.8417
▁eskalasi	-10.8418
rumah	-10.8419
▁RA	-10.8419
BU	-10.8425
▁Research	-10.8426
▁ketenagakerjaan	-10.8426
▁Sulaiman	-10.8426
▁goreng	-10.8426
▁Asisten	-10.8426
▁kebudayaan	-10.8426
▁SPBU	-10.8426
▁stres	-10.8426
▁2023-2024	-10.8427
▁keyakinan	-10.8427
▁Ambon	-10.8427
▁Sampah	-10.8428
▁10:0	-10.843
berpengaruh	-10.8432
▁PPK	-10.8443
ware	-10.8448
▁Subdi	-10.845
▁kirim	-10.845
ketinggian	-10.8458
▁Potensi	-10.8458
BM	-10.846
▁IM	-10.8462
admin	-10.8462
▁Diri	-10.8463
▁komisi	-10.8463
▁(10	-10.8468
In	-10.8473
kata	-10.8474
▁imbau	-10.8477
▁gembira	-10.848
▁9,	-10.8483
▁PK	-10.8485
▁BE	-10.8486
▁drama	-10.8487
▁Manaje	-10.8488
▁Pamekasan	-10.8488
▁Dasco	-10.8488
▁warganet	-10.8488
▁Mahendra	-10.8488
▁Azwar	-10.8488
▁Peluang	-10.8488
▁disahkan	-10.8489
▁keluhan	-10.8489
▁padi	-10.8489
hemat	-10.849
▁10:3	-10.8491
▁Malut	-10.8491
▁saji	-10.8492
▁profesi	-10.8492
▁akt	-10.8505
▁nota	-10.8507
▁(9	-10.8508
▁Pat	-10.8514
▁kucing	-10.8515
BK	-10.8517
kuat	-10.8518
nua	-10.8519
▁cek	-10.8521
bersamaan	-10.8524
desa	-10.8526
aga	-10.8526
▁Nataru	-10.8528
▁Kalsel	-10.8531
▁real	-10.8534
▁dibunuh	-10.8537
▁geng	-10.8539
lek	-10.8539
umbu	-10.8542
EC	-10.8548
diang	-10.8549
▁Migran	-10.855
▁Racing	-10.855
▁mengacu	-10.855
▁Boeing	-10.855
▁Bukti	-10.855
▁Teknik	-10.855
▁single	-10.855
▁dicapai	-10.855
▁stok	-10.855
▁Zulki	-10.855
▁Sport	-10.8551
▁Kehutanan	-10.8552
kal	-10.8554
▁dihentikan	-10.8556
isnu	-10.8557
▁Kade	-10.8561
▁debut	-10.8566
kait	-10.8568
▁Fakta	-10.8568
/5/2024)	-10.8569
▁VI	-10.857
▁Law	-10.8571
▁96	-10.8572
Hal	-10.8573
▁Assad	-10.8579
nyawa	-10.858
1)	-10.8584
▁Mada	-10.8584
IC	-10.8584
▁2020.	-10.8587
▁sumpah	-10.859
▁77	-10.8592
▁Maria	-10.8598
▁jujur	-10.8598
kaji	-10.8599
rim	-10.8604
▁Los	-10.8605
▁On	-10.8606
▁nara	-10.8612
▁Pelanggan	-10.8613
▁terjatuh	-10.8613
citra	-10.8613
▁buron	-10.8613
lontar	-10.8614
▁12:3	-10.8614
▁Gard	-10.8615
▁Sugi	-10.8615
▁toleransi	-10.8615
AR	-10.8616
▁peluru	-10.8617
▁zat	-10.8617
▁Ulang	-10.8618
▁Aplikasi	-10.862
▁Astra	-10.8621
IKN	-10.8622
▁2024/2025	-10.8626
bawang	-10.8628
ue	-10.8628
▁jaga	-10.8633
▁pak	-10.864
▁Puan	-10.864
▁PPDB	-10.8643
▁du	-10.8648
Bawaslu	-10.8649
BPN	-10.8657
PS	-10.8658
▁web	-10.8658
▁perkira	-10.8671
▁SI	-10.8672
mat	-10.8672
perundungan	-10.8675
▁Beirut	-10.8675
▁Perkasa	-10.8675
▁perkebunan	-10.8675
ekspresi	-10.8675
▁Rahayu	-10.8676
▁Dardak	-10.8676
sion	-10.8676
▁kebaikan	-10.8676
▁kuning	-10.8677
▁21:1	-10.8678
▁19:1	-10.8678
▁bi	-10.8678
▁Harun	-10.8681
▁bu	-10.8683
▁Punya	-10.8683
able	-10.8686
▁bersubsidi	-10.8687
tuntut	-10.8689
▁Koperasi	-10.8689
▁Ardi	-10.8689
▁ujung	-10.869
▁Alumni	-10.8691
▁bermotor	-10.8692
cak	-10.8694
bunyi	-10.87
▁Hendra	-10.8701
▁RIDO	-10.8709
▁memb	-10.871
▁kayak	-10.8712
wenang	-10.8713
▁harap	-10.8721
kasus	-10.8725
▁5,	-10.8731
▁akar	-10.8732
▁Kemayoran	-10.8739
▁manajer	-10.8739
▁Dampak	-10.8739
▁Seoul	-10.8739
▁pemukim	-10.874
▁11:3	-10.874
▁20:5	-10.874
▁bersedi	-10.8741
▁16:2	-10.8741
▁20:2	-10.8743
gara	-10.8743
▁Milik	-10.8743
unggung	-10.8744
▁penari	-10.8747
▁Asri	-10.8747
val	-10.8751
-17	-10.8761
▁seks	-10.8761
unjung	-10.8762
lly	-10.8771
▁Ce	-10.8779
▁Musik	-10.878
Hamas	-10.878
tentangan	-10.8793
▁(27	-10.8796
selisih	-10.8796
putar	-10.8797
iko	-10.88
▁Senat	-10.8801
▁Hyundai	-10.8802
▁Toyota	-10.8802
▁amunisi	-10.8802
▁Finance	-10.8802
▁permukiman	-10.8802
▁memadai	-10.8802
▁Micha	-10.8803
▁Bebas	-10.8805
▁Area	-10.8813
berangkatkan	-10.8818
▁Hall	-10.8819
▁kala	-10.8825
ajar	-10.8827
DI	-10.8828
▁syukur	-10.8833
▁(17	-10.8834
▁bertanding	-10.8835
▁1998	-10.8838
llah	-10.8839
niat	-10.884
raja	-10.8845
-2	-10.8845
▁6,	-10.8848
▁ST	-10.8852
▁Haris	-10.8862
▁pengin	-10.8863
▁Bin	-10.8864
▁segi	-10.8866
▁Narkotika	-10.8867
▁trauma	-10.8867
▁Ansor	-10.8867
jemput	-10.8868
▁seniman	-10.8871
▁Sampang	-10.8873
▁biji	-10.8875
▁Rancang	-10.8878
SUV	-10.8879
▁Yos	-10.888
nata	-10.8881
▁Buah	-10.8882
rangka	-10.8885
▁Menaker	-10.8888
▁posko	-10.8888
▁800	-10.8888
deteksi	-10.8889
▁Las	-10.8894
Daop	-10.8898
▁8,	-10.8906
▁Op	-10.8911
koni	-10.8913
▁sempurna	-10.8913
▁tertib	-10.8917
kas	-10.8923
▁mini	-10.8925
warisan	-10.8928
perebut	-10.8928
▁tawaran	-10.8929
▁Konser	-10.8931
▁FOTO	-10.8931
▁Facebook	-10.8931
▁Kakanwil	-10.8931
▁berkomentar	-10.8931
▁diinginkan	-10.8931
▁kuartal	-10.8932
▁sahabat	-10.8933
▁5.000	-10.894
▁Human	-10.894
▁bibit	-10.8942
▁Kehormatan	-10.8943
▁Fitri	-10.8943
letus	-10.8944
▁Rokan	-10.8949
baran	-10.8951
alun	-10.8952
▁Baca	-10.8953
embawa	-10.8955
▁dijaga	-10.8959
▁abu	-10.896
erwira	-10.8963
bocoran	-10.8982
▁v	-10.8988
nt	-10.8989
MW	-10.8989
AD	-10.8992
▁didapat	-10.8996
▁Pengendali	-10.8996
▁Nugraha	-10.8996
▁Mulyani	-10.8997
amanat	-10.8998
▁Salim	-10.8998
▁Momen	-10.8999
▁Keadilan	-10.8999
alang	-10.9004
▁West	-10.9004
askar	-10.9004
▁Bangun	-10.9009
▁DK	-10.9011
huni	-10.9012
hidang	-10.9013
IK	-10.9019
▁siaga	-10.902
gh	-10.9021
AC	-10.9026
▁ujian	-10.9028
▁menyangka	-10.9035
▁div	-10.904
▁Perlu	-10.904
pisah	-10.9052
The	-10.9053
rita	-10.9057
▁Edy	-10.9061
é	-10.9061
▁Anthon	-10.9061
▁Jepara	-10.9061
▁Sarwendah	-10.9061
▁istilah	-10.9061
▁netizen	-10.9061
▁Izin	-10.9061
▁zakat	-10.9061
▁Banyumas	-10.9061
▁pemerasan	-10.9062
▁wasit	-10.9062
▁mend	-10.9063
▁19:4	-10.9063
▁batik	-10.9063
▁anjing	-10.9063
▁13:1	-10.9064
▁Sosok	-10.9065
▁Vice	-10.9065
▁reaksi	-10.9065
sum	-10.9066
erselisih	-10.9068
46	-10.9069
▁2009	-10.9072
mba	-10.9072
▁Generasi	-10.9073
▁Intan	-10.9075
▁JPU	-10.9077
lem	-10.9077
garap	-10.9077
aya	-10.9078
▁pengedar	-10.908
▁dijatuh	-10.9085
▁sewaktu	-10.9086
SO	-10.909
▁tenda	-10.9092
▁Menjadi	-10.9097
▁ormas	-10.9104
▁JA	-10.9113
▁ge	-10.9114
tabrak	-10.9116
tase	-10.9116
Bangsa	-10.9117
▁dipercaya	-10.9118
amer	-10.9123
▁KIM	-10.9126
ajikan	-10.9126
▁Penerima	-10.9127
▁terobosan	-10.9127
▁Belitung	-10.9127
▁Zakat	-10.9128
▁Banjar	-10.9128
▁1-0	-10.9128
▁Ilegal	-10.913
▁as	-10.9134
kot	-10.9139
▁penghasilan	-10.914
▁bau	-10.9145
▁pengisi	-10.9147
▁temannya	-10.915
▁formal	-10.9152
▁terbarukan	-10.9156
▁Ducati	-10.9156
▁Akma	-10.9162
▁ciri	-10.9173
▁Kalteng	-10.9177
▁Sab	-10.9179
kes	-10.918
▁Bak	-10.9184
ard	-10.9186
satwa	-10.9193
▁Dokumen	-10.9193
lingkup	-10.9193
▁FIFA	-10.9193
▁Ryder	-10.9194
▁sengit	-10.9194
▁mengge	-10.9194
▁22:0	-10.9195
▁Awalnya	-10.9195
Armuji	-10.9195
▁2012	-10.9196
▁harta	-10.9196
▁memukul	-10.9199
▁pilar	-10.9199
16	-10.92
▁Maya	-10.9201
▁Az	-10.9205
pri	-10.9206
▁Merak	-10.9206
▁Tr	-10.9216
entang	-10.9216
karya	-10.9217
▁saran	-10.9217
mpat	-10.9226
elita	-10.9226
hibah	-10.9228
ken	-10.9228
KI	-10.9231
aman	-10.9232
erangan	-10.9237
30	-10.9237
▁Agen	-10.9237
▁makna	-10.9243
▁Rio	-10.9245
lapor	-10.9249
▁akademik	-10.9252
Alhamdulillah	-10.9253
▁AR	-10.9254
BN	-10.9254
▁bungkus	-10.926
engeluaran	-10.926
▁Banyuasin	-10.926
▁Formasi	-10.926
▁Pahlawan	-10.926
▁legenda	-10.926
▁Proliga	-10.926
▁ambulan	-10.926
erserikat	-10.9261
▁indekos	-10.9261
▁Jombang	-10.9262
▁penataan	-10.9262
▁lapisan	-10.9263
▁mengabaikan	-10.9265
▁PR	-10.9267
▁terjaga	-10.9277
▁Bule	-10.9278
▁kap	-10.9281
olong	-10.9281
▁SYL	-10.9284
▁miras	-10.9287
Menpora	-10.9289
suka	-10.9295
▁79	-10.9304
▁Tampil	-10.9305
▁baris	-10.9306
nta	-10.9318
lot	-10.9319
TE	-10.9322
emerdekaan	-10.9324
ach	-10.9327
terdengar	-10.9327
▁Sentra	-10.9328
▁Syarif	-10.9328
▁Kurniawan	-10.9329
tipe	-10.933
▁am	-10.9332
▁00:	-10.9332
▁Hery	-10.9334
aktivitas	-10.9336
▁he	-10.9337
ala	-10.934
▁mering	-10.9346
▁lonj	-10.9347
▁mendominasi	-10.9347
▁Waspada	-10.9349
▁penanam	-10.9349
▁Um	-10.9356
aruh	-10.9356
fri	-10.9356
▁1.3	-10.9361
▁Rasa	-10.9362
win	-10.9362
rem	-10.9369
▁kelurahan	-10.9374
▁AA	-10.9375
▁Og	-10.9376
▁Rom	-10.9378
▁tur	-10.9379
ongan	-10.938
▁Fat	-10.938
,7	-10.9382
▁Karim	-10.9383
raksi	-10.9384
▁Alasannya	-10.9386
▁Marga	-10.9387
ullah	-10.939
PE	-10.939
implementasikan	-10.9391
▁vaksin	-10.9392
BPBD	-10.9393
musuh	-10.9393
Pemkot	-10.9393
sangat	-10.9394
Puskesmas	-10.9395
▁2024-2025	-10.9395
▁Academy	-10.9395
▁Apresiasi	-10.9395
▁Project	-10.9395
▁Supriyani	-10.9395
▁penentu	-10.9395
imberly	-10.9395
bingung	-10.9395
venue	-10.9395
makmur	-10.9395
▁distrik	-10.9395
▁rilis	-10.9396
▁16:4	-10.9397
▁antusiasme	-10.9398
▁Im	-10.9398
▁Sulteng	-10.94
▁Fe	-10.9401
▁Saputra	-10.9402
Dia	-10.9403
▁Chandra	-10.9406
awali	-10.9409
wawas	-10.941
▁meja	-10.9416
erizinan	-10.9416
▁Massa	-10.9424
▁Febri	-10.9428
▁bangun	-10.944
sha	-10.9443
gerebek	-10.9451
▁finis	-10.9456
▁penyeraha	-10.946
▁terganggu	-10.9462
▁info	-10.9462
▁seminar	-10.9463
rekomendasi	-10.9463
▁minoritas	-10.9463
▁pengeroyok	-10.9463
▁dibaca	-10.9463
▁lembar	-10.9464
▁agresif	-10.9464
▁Doha	-10.9465
▁AFC	-10.9467
arah	-10.9468
▁Hilang	-10.9468
▁Yoon	-10.9468
sy	-10.947
▁pencuci	-10.9472
▁super	-10.9474
▁Pangkal	-10.9476
enggerebekan	-10.9477
dap	-10.9479
▁z	-10.948
rumus	-10.9482
ulihkan	-10.9484
▁bermasalah	-10.9484
▁BA	-10.9497
dokumentasi	-10.9497
▁dibagi	-10.9499
▁gerb	-10.9502
anggota	-10.9506
logo	-10.9506
libatkan	-10.9513
▁04:5	-10.9515
skon	-10.9515
▁race	-10.9522
jar	-10.9525
▁SM	-10.9528
▁Deli	-10.9529
kum	-10.953
▁Associate	-10.9531
▁Virgoun	-10.9531
▁menyentuh	-10.9531
▁pemakaman	-10.9531
▁persegi	-10.9531
▁sebaliknya	-10.9531
▁konsekuensi	-10.9532
▁Club	-10.9533
partai	-10.9534
▁terdepan	-10.9537
TKP	-10.9537
▁bak	-10.9538
emen	-10.9538
ski	-10.9538
▁marak	-10.9539
▁DBD	-10.954
▁Lion	-10.9543
▁ternama	-10.9545
▁(15	-10.9546
▁Tit	-10.9547
embangkit	-10.9554
▁terkes	-10.9554
▁mengganti	-10.9559
syarat	-10.9564
BL	-10.9566
▁03:	-10.9569
OS	-10.9572
▁pikiran	-10.9573
▁Jurnalis	-10.9574
cer	-10.9579
aneka	-10.9587
GB	-10.9587
▁Nahdl	-10.9592
iri	-10.9592
▁Brazil	-10.96
▁Gerimis	-10.96
▁kompetitif	-10.96
▁Statisti	-10.96
▁sudut	-10.9602
▁17:4	-10.9602
▁1945	-10.9602
▁jagung	-10.9602
▁21:2	-10.9602
Mayjen	-10.9605
▁time	-10.9606
skusi	-10.9608
▁Kamar	-10.9608
rom	-10.9608
▁Timah	-10.9611
▁Rusli	-10.9613
ebsite	-10.9622
▁'.	-10.9624
▁mengkhawatirkan	-10.9625
▁Adat	-10.9628
▁istimewa	-10.9628
MC	-10.9629
▁(24	-10.963
▁Bulog	-10.9634
▁BSI	-10.9637
ANGE	-10.9638
▁antisipasi	-10.9643
▁Bag	-10.9644
ist	-10.9644
▁tarik	-10.9644
▁makam	-10.9645
▁peta	-10.9647
tunjang	-10.9651
▁Ary	-10.9652
▁atap	-10.9654
SE	-10.966
▁kekasih	-10.9662
bir	-10.9662
gra	-10.9662
▁pendaftar	-10.9664
▁Pemda	-10.9668
bawah	-10.9668
▁Paula	-10.9669
▁Atikoh	-10.967
▁Hafid	-10.967
▁Indramayu	-10.967
▁Kamboja	-10.967
▁konkret	-10.967
▁dagang	-10.967
▁Paloh	-10.967
▁09:3	-10.967
▁(22	-10.967
▁Merespons	-10.967
▁realisasi	-10.9671
das	-10.9671
▁13:4	-10.9671
▁cerdas	-10.9672
▁Justin	-10.9673
▁Progo	-10.9673
▁15:1	-10.9674
▁Mag	-10.9675
▁birokrasi	-10.9675
▁Fair	-10.9676
▁IP	-10.9677
▁KPPS	-10.968
▁Gagal	-10.9681
▁sumur	-10.9682
▁Kepri	-10.9682
ukuran	-10.9682
▁beruntun	-10.9682
▁Nanti	-10.9682
▁Hans	-10.9686
▁Pembina	-10.969
▁My	-10.9691
▁Labu	-10.9693
pandang	-10.9696
▁Memang	-10.9699
bincang	-10.97
▁Leste	-10.9703
▁dibeli	-10.9703
▁Pemberi	-10.9706
▁balita	-10.9708
▁beraksi	-10.9708
▁69	-10.971
▁Jon	-10.971
▁SH	-10.9711
alamat	-10.9713
▁10.00	-10.9714
jaring	-10.9714
pasang	-10.9718
▁KK	-10.9719
tera	-10.9722
angkas	-10.9724
sih	-10.9727
bedah	-10.9733
▁sebulan	-10.9734
prakira	-10.9735
▁optimis	-10.9739
▁Latihan	-10.974
▁pulih	-10.974
▁mengalir	-10.974
▁Afif	-10.974
▁Yandri	-10.974
▁sawah	-10.9742
▁lelang	-10.9743
▁Prakiraan	-10.9743
sam	-10.9747
angga	-10.9747
▁topik	-10.9748
Rizki	-10.975
▁bandang	-10.9753
nekat	-10.9753
▁Asy	-10.9754
▁berinvestasi	-10.9754
▁menghalang	-10.9757
▁Halim	-10.976
▁Profes	-10.9769
naung	-10.977
eluncur	-10.9771
nes	-10.9777
gagas	-10.978
inta	-10.9781
ive	-10.9784
mbo	-10.9784
▁Marco	-10.9789
▁78	-10.9792
▁Hutan	-10.9794
IF	-10.9796
▁Roy	-10.9799
3.000	-10.9801
varian	-10.9807
afia	-10.9807
▁indek	-10.9809
▁Tannur	-10.981
▁Pelanggaran	-10.981
▁pantas	-10.981
▁Berkelanjutan	-10.9812
enjang	-10.9816
▁Kenaikan	-10.9818
Mapolda	-10.9819
▁Cahyo	-10.982
▁Uji	-10.9824
▁sport	-10.9824
▁rem	-10.9824
▁Kh	-10.9829
▁tank	-10.9829
▁Badai	-10.9829
▁adu	-10.9832
sik	-10.9834
simpul	-10.9835
MM	-10.9838
▁Ver	-10.9842
▁diungkap	-10.9842
▁Mul	-10.9842
▁Andra	-10.9846
van	-10.9847
▁Graha	-10.9854
▁menggal	-10.9855
▁Bal	-10.9855
-15	-10.9856
yam	-10.986
stan	-10.9864
▁Dishub	-10.9873
mir	-10.9876
▁Tunggal	-10.9881
▁pemerkosaan	-10.9881
▁Magelang	-10.9881
▁Pabrik	-10.9882
▁Ridho	-10.9884
▁Vade	-10.9884
▁Kredit	-10.9885
▁Fitur	-10.9885
▁20:1	-10.9885
owo	-10.9886
▁akal	-10.9888
DP	-10.9897
biaya	-10.9898
▁Ol	-10.99
▁600	-10.9916
▁Fokus	-10.9918
▁Sesuai	-10.9919
dul	-10.9924
intas	-10.9926
▁Sulsel	-10.9928
▁seolah	-10.993
pos	-10.9934
ikapi	-10.9938
Hari	-10.9943
paruh	-10.9945
▁Gin	-10.9948
lab	-10.9951
imigran	-10.9952
▁Alexander	-10.9952
▁Cilacap	-10.9952
▁Muhamad	-10.9952
▁protein	-10.9952
▁Richard	-10.9952
▁menunda	-10.9954
▁Pesta	-10.9955
pengunduran	-10.9956
▁12:0	-10.9956
▁2030	-10.9956
▁85	-10.9956
▁Johan	-10.9957
Caleg	-10.9957
▁Tokoh	-10.9959
ial	-10.9962
▁penyimpan	-10.9962
▁im	-10.9962
onny	-10.9965
▁Berawan	-10.9968
▁61	-10.9969
▁diam	-10.9972
▁PS	-10.9974
▁Aset	-10.9975
▁Dimas	-10.9976
▁pemasar	-10.9976
▁Tahap	-10.9977
▁ternak	-10.9978
▁Temu	-10.9979
ness	-10.9981
▁bersamaan	-10.9988
kam	-10.9989
idi	-10.999
▁istirahat	-11.0003
▁potensial	-11.0005
dji	-11.0006
ora	-11.0008
▁Moh	-11.0009
daur	-11.0012
Per	-11.0017
▁WHO	-11.0017
▁Fauzi	-11.002
▁Syaikhu	-11.0024
▁Indek	-11.0024
▁Lantas	-11.0024
▁Shopee	-11.0024
▁Sandiaga	-11.0024
▁Macron	-11.0025
penggelapan	-11.0025
▁Lihat	-11.0025
▁08:4	-11.0025
▁19:5	-11.0025
▁Petani	-11.0026
▁Keliling	-11.0027
▁Bahan	-11.0028
▁62	-11.0029
▁tunggu	-11.0029
▁Senator	-11.0029
garis	-11.0032
▁Promo	-11.0034
▁Obat	-11.0035
▁Multi	-11.0036
▁(25	-11.0047
LP	-11.0048
▁Saiful	-11.0053
nik	-11.0053
MS	-11.006
sman	-11.0064
endra	-11.0064
-25	-11.0065
penyesuaian	-11.0066
ekat	-11.0069
▁dorong	-11.0069
ukir	-11.0078
tive	-11.0083
BS	-11.0087
▁food	-11.0089
▁Qo	-11.009
/6/2024)	-11.009
lebihan	-11.0093
ise	-11.0095
▁Iman	-11.0096
▁pemindah	-11.0097
▁Indragiri	-11.0097
▁keindahan	-11.0097
▁pencernaan	-11.0097
cantum	-11.0097
▁Pengamanan	-11.0097
▁streaming	-11.0097
VNL	-11.0097
▁hulu	-11.0097
▁lapor	-11.0097
urti	-11.0097
▁Insurance	-11.0097
▁Cepat	-11.0098
▁18:5	-11.0098
▁Cerita	-11.0098
▁14:3	-11.0098
▁syariah	-11.0098
ide	-11.0099
▁burung	-11.01
▁Terpadu	-11.0101
▁18:0	-11.0101
▁profes	-11.0101
▁perundang	-11.0106
▁peninjau	-11.0107
haman	-11.011
▁IT	-11.0118
▁pasang	-11.0118
sepakati	-11.0119
tech	-11.0129
▁Leg	-11.013
ili	-11.0131
▁ESG	-11.0137
data	-11.0143
▁Dol	-11.0152
▁vokal	-11.0152
uansa	-11.0155
▁pernyataannya	-11.0162
▁13.00	-11.0162
▁anggotanya	-11.0166
▁Haniyeh	-11.017
▁Pemadam	-11.017
▁Cugur	-11.017
▁2013	-11.017
▁Sukoharjo	-11.017
▁rekayasa	-11.017
▁menyalah	-11.017
▁Rum	-11.017
▁Janji	-11.0171
▁Adhi	-11.0171
▁19:2	-11.0172
▁(4	-11.0175
rip	-11.0175
▁Gading	-11.0177
▁gu	-11.0179
▁2004	-11.0181
DS	-11.0184
▁tebal	-11.0184
▁87	-11.0186
▁Desak	-11.0187
▁gerak	-11.019
ight	-11.0194
▁un	-11.0195
▁Puji	-11.02
PBB	-11.0201
▁membaik	-11.0201
▁Gala	-11.0204
▁Bukit	-11.0205
kawal	-11.0207
pit	-11.0209
▁2024).	-11.021
imbang	-11.0213
kembalikan	-11.0214
acu	-11.022
▁Up	-11.0234
▁sembar	-11.0235
ncabut	-11.0235
put	-11.0236
▁Pesisir	-11.0243
▁kepresidenan	-11.0243
▁2024/25	-11.0243
▁pintar	-11.0243
▁Minyak	-11.0243
▁penyelamatan	-11.0244
▁pengaju	-11.0246
▁17:2	-11.0246
▁koordinat	-11.0246
▁peradilan	-11.0247
▁rampung	-11.0247
▁Candi	-11.025
▁Sorong	-11.0251
dak	-11.0252
▁FK	-11.0254
▁Irawan	-11.0262
dia	-11.0268
▁Sektor	-11.0269
UMKM	-11.0273
▁menanya	-11.0275
jarak	-11.0275
▁Kasih	-11.0281
ys	-11.029
reksi	-11.0291
▁Jak	-11.0292
▁pop	-11.0293
▁Mengap	-11.0293
ayu	-11.0295
DE	-11.0295
lok	-11.0297
▁Kedu	-11.0298
▁Usu	-11.0298
▁Kart	-11.0299
ertumbuhan	-11.0301
enuju	-11.0303
▁Modi	-11.0305
▁Aktivis	-11.0317
▁Kremlin	-11.0317
▁diturunkan	-11.0317
▁popularitas	-11.0317
▁Retno	-11.0317
bubarkan	-11.0317
▁Sirku	-11.0318
▁Massaid	-11.0319
▁South	-11.0319
▁14:4	-11.032
▁14:1	-11.032
▁10:4	-11.0321
▁Info	-11.0323
▁paspor	-11.0323
▁pemusnahan	-11.0327
uw	-11.0327
dinas	-11.0328
tanggung	-11.0328
▁Kecil	-11.0328
▁Jim	-11.0329
gg	-11.0329
endah	-11.033
▁Afri	-11.0333
bit	-11.0333
▁Undip	-11.034
▁dinamis	-11.0347
idor	-11.0348
▁tanam	-11.035
▁kaitan	-11.035
▁pipa	-11.036
▁Korp	-11.0361
▁putrinya	-11.0364
ursa	-11.0366
▁SIG	-11.0376
▁konsultasi	-11.0376
undangan	-11.0377
PKB	-11.0377
▁Res	-11.0377
▁Bara	-11.0379
▁Juga	-11.038
▁Tar	-11.0383
▁kebangsaan	-11.0387
▁Main	-11.0389
bertarung	-11.039
ero	-11.039
▁Kro	-11.039
orientasi	-11.0392
skenario	-11.0392
▁Siregar	-11.0392
▁tsunami	-11.0392
▁percakapan	-11.0392
▁melonjak	-11.0392
▁Penanganan	-11.0392
▁menyesal	-11.0392
rea	-11.0393
▁21:4	-11.0394
▁laju	-11.0394
dil	-11.0395
▁Musim	-11.0399
blakan	-11.04
andy	-11.04
ART	-11.0401
dri	-11.0404
▁Bakar	-11.0404
▁Leo	-11.0404
▁fan	-11.0406
lina	-11.041
▁meledak	-11.041
▁dibatalkan	-11.0411
cal	-11.0413
SDM	-11.0415
▁Palu	-11.0417
kon	-11.0418
▁lap	-11.0425
35	-11.0425
ragukan	-11.0426
▁Bri	-11.0426
Korban	-11.0427
▁Kementan	-11.0427
▁pengu	-11.0428
▁Era	-11.043
lembaga	-11.0432
pora	-11.0434
▁mengulang	-11.0437
▁seminggu	-11.0438
▁berpesan	-11.0439
▁Jay	-11.044
oda	-11.0441
▁Alat	-11.0448
▁Nga	-11.0454
▁potongan	-11.0456
embada	-11.0458
kir	-11.0458
▁tendang	-11.0461
ode	-11.0462
pegang	-11.0465
aspora	-11.0466
▁Djoko	-11.0467
▁Intelijen	-11.0467
▁Pacitan	-11.0467
▁apartemen	-11.0467
▁fiskal	-11.0467
▁melapor	-11.0467
▁Pencarian	-11.0467
▁perkotaan	-11.0467
▁emosi	-11.0468
▁13:5	-11.0468
▁16:5	-11.0468
▁Qu	-11.0469
▁18:4	-11.0469
▁11:1	-11.047
▁induk	-11.047
▁2023/2024	-11.047
▁smart	-11.0471
▁72	-11.0477
ANYA	-11.0477
oko	-11.0477
lor	-11.0479
zo	-11.0484
▁ne	-11.0486
▁Berita	-11.0491
▁wilayahnya	-11.0493
enggerak	-11.0497
▁Selat	-11.0501
▁2025,	-11.0504
▁simbolis	-11.0505
WNA	-11.0505
▁didik	-11.0505
gam	-11.0506
antaran	-11.0507
-14	-11.0509
kom	-11.0509
▁(12	-11.0511
▁Suku	-11.0518
▁82	-11.0519
▁Mikro	-11.0522
24	-11.0522
ite	-11.0526
▁Will	-11.0528
SS	-11.0537
penting	-11.0539
culik	-11.0541
▁diplomat	-11.0541
pemasangan	-11.0542
▁berpengalaman	-11.0543
▁klinik	-11.0543
▁Gregori	-11.0543
▁Zi	-11.0545
▁Pakai	-11.0545
▁James	-11.0546
▁Senior	-11.0547
▁UKM	-11.0547
▁94	-11.0548
▁po	-11.0552
IR	-11.0557
laya	-11.0558
▁terbit	-11.0559
▁Fo	-11.056
beda	-11.0564
bulu	-11.0564
ataan	-11.0565
▁Buku	-11.0566
▁Meta	-11.0568
jun	-11.057
▁Pri	-11.0572
imo	-11.0573
osis	-11.0573
▁mil	-11.0574
▁terbarunya	-11.0577
▁+	-11.0582
-9	-11.0582
Teco	-11.0583
Namun	-11.0584
DIY	-11.0584
▁Ye	-11.0585
Mentan	-11.0585
▁Tipikor	-11.0589
▁Kun	-11.059
▁Aulia	-11.0598
osko	-11.0601
45	-11.0601
▁Pelaksanaan	-11.0603
▁Pre	-11.0607
▁Yani	-11.0609
adili	-11.0609
▁Oknum	-11.0619
▁Sahabat	-11.0619
▁center	-11.0619
▁imbal	-11.062
▁Darmawan	-11.062
▁Revolusi	-11.062
▁2045	-11.0621
▁Posisi	-11.0624
rugi	-11.0625
/4/2024)	-11.0627
▁Capai	-11.0629
▁kepatu	-11.0631
xy	-11.0631
idik	-11.0633
▁ad	-11.0633
▁Laksa	-11.0634
genang	-11.0637
▁1.2	-11.0638
▁rancang	-11.064
rencanakan	-11.0641
▁Penyebab	-11.065
▁tangguh	-11.0652
▁Airin	-11.0654
▁MR	-11.0659
▁Rafa	-11.0659
▁Manag	-11.0662
▁tugasnya	-11.0663
sekitar	-11.0663
▁liga	-11.0664
▁market	-11.0665
ble	-11.0668
▁Dini	-11.0669
susul	-11.0679
▁berdaya	-11.0679
rai	-11.0684
▁jalanan	-11.0686
▁ditanda	-11.0687
isyarat	-11.069
afi	-11.0691
▁kurun	-11.0696
▁Karangasem	-11.0696
▁Pyongyang	-11.0696
▁permanen	-11.0696
▁Kematian	-11.0696
▁STY	-11.0697
▁07:2	-11.0697
▁ideologi	-11.0697
▁we	-11.0698
▁Bangli	-11.0699
▁15:2	-11.07
1/	-11.07
pesan	-11.07
▁Bersih	-11.0701
▁teratas	-11.0701
▁pendata	-11.0701
▁Keempat	-11.0702
▁rupa	-11.0702
▁Laos	-11.0702
▁tele	-11.0703
▁pertaru	-11.0703
▁penambang	-11.0704
▁kepuasa	-11.0705
onal	-11.0706
▁transparansi	-11.0712
▁(16	-11.0715
▁Seri	-11.0716
19	-11.072
▁Sports	-11.0721
▁Didik	-11.0722
pro	-11.0723
▁Salam	-11.0725
/2024)	-11.0725
▁Dina	-11.0726
menyayangkan	-11.0728
pon	-11.0728
▁Buat	-11.0729
▁melakukannya	-11.0731
ogo	-11.0732
▁Eco	-11.0735
kira	-11.0736
▁tel	-11.0739
▁sewa	-11.0741
aja	-11.0741
mal	-11.0742
Semua	-11.0743
lempar	-11.0744
▁00.	-11.0745
▁Fu	-11.0746
RE	-11.0755
batas	-11.0757
▁Mir	-11.0758
▁kas	-11.0763
▁Motors	-11.0766
otong	-11.0768
▁$1	-11.0771
realisasikan	-11.0774
▁Damaskus	-11.0774
▁Taufik	-11.0774
▁Tionghoa	-11.0774
▁ketakutan	-11.0774
▁polemik	-11.0774
▁mendoakan	-11.0774
▁Irfan	-11.0774
▁kebersihan	-11.0774
▁antioksidan	-11.0774
▁Efek	-11.0774
▁Tuban	-11.0775
▁prasarana	-11.0775
▁spanduk	-11.0776
▁Bakti	-11.0776
▁pasir	-11.0779
▁menyama	-11.0779
▁Kebun	-11.078
▁Ray	-11.0785
▁Siaga	-11.0789
▁Tas	-11.079
▁Kemen	-11.0792
KM	-11.0794
▁madu	-11.0794
til	-11.0798
mbalas	-11.0799
▁Tambang	-11.08
▁Sara	-11.08
ndo	-11.0803
dudukan	-11.0805
▁Indonesian	-11.0811
▁Jela	-11.0813
CS	-11.0816
▁Dja	-11.082
▁pencari	-11.082
▁Pura	-11.0823
ANTARA	-11.0824
stra	-11.0832
▁Dani	-11.0834
ddy	-11.084
▁pembala	-11.0851
▁Hijau	-11.0852
▁ginjal	-11.0852
▁Electric	-11.0852
▁kerusuhan	-11.0852
▁Jaminan	-11.0852
▁selengkapnya	-11.0852
▁07:3	-11.0852
▁mengerikan	-11.0853
▁Carlo	-11.0856
▁Menteng	-11.0857
oleh	-11.0857
akselerasi	-11.0858
▁Usman	-11.0858
database	-11.0861
▁2008	-11.0864
ben	-11.0865
▁Akibatnya	-11.0866
ou	-11.0866
▁Pasca	-11.0867
kol	-11.0869
▁formul	-11.0869
▁mencuriga	-11.0871
▁memerang	-11.0872
utuh	-11.0874
PKS	-11.0876
▁Nik	-11.0879
▁Ze	-11.0883
▁Sad	-11.089
▁Peneliti	-11.0891
▁dipaksa	-11.0892
plikasi	-11.0893
fin	-11.0894
▁marah	-11.0898
siar	-11.0898
▁Bio	-11.0903
korupsi	-11.0905
▁basket	-11.0906
▁Pembinaan	-11.0907
▁Halal	-11.0908
▁Max	-11.091
▁Mon	-11.0912
latih	-11.0915
nu	-11.0918
-11	-11.0921
▁Taj	-11.0924
▁pita	-11.0926
▁Mapolres	-11.0926
▁susah	-11.0928
▁ketu	-11.0928
lestarikan	-11.0931
▁Kepresidenan	-11.0931
▁COVID	-11.0931
▁Karanganyar	-11.0931
▁Kisah	-11.0931
▁Kelapa	-11.0931
▁Lamongan	-11.0931
▁Transportasi	-11.0931
▁kontainer	-11.0931
▁keprihatinan	-11.0931
▁Indosat	-11.0931
▁menyukseskan	-11.0931
▁Remaja	-11.0931
▁Dosen	-11.0932
▁Ekspor	-11.0932
▁73	-11.0933
▁Jessi	-11.0933
▁Ganda	-11.0934
▁Toko	-11.0934
▁Rudi	-11.0934
▁yatim	-11.0935
▁Penyerang	-11.0935
▁Pengadaan	-11.0936
▁Lawan	-11.0936
IA	-11.0936
▁member	-11.094
▁gugur	-11.094
▁cari	-11.0943
▁Paser	-11.0943
▁Care	-11.0944
▁Mus	-11.0945
▁Mengena	-11.0946
▁sutradara	-11.0947
28	-11.095
▁setinggi	-11.0951
▁Sho	-11.0952
▁Mars	-11.0963
▁Pilwalkot	-11.0966
▁Roma	-11.0966
▁King	-11.0967
▁rest	-11.0972
▁pemainnya	-11.0975
wil	-11.0976
-1	-11.0981
II	-11.0985
▁Far	-11.0986
▁89	-11.0986
lautan	-11.099
ania	-11.0991
▁Gegar	-11.0995
che	-11.0998
▁Ilham	-11.1
▁Mini	-11.1001
▁Star	-11.1003
▁Simalungun	-11.101
▁System	-11.101
▁Temanggung	-11.101
▁Tirta	-11.101
▁Museum	-11.101
▁Darurat	-11.101
▁Chery	-11.1011
org	-11.1011
▁Cerah	-11.1011
▁tertangkap	-11.1011
▁juri	-11.1011
▁organ	-11.1012
▁balon	-11.1012
EM	-11.1013
Sudaryono	-11.1013
▁Polhukam	-11.1015
▁Terpilih	-11.1016
▁PHK	-11.1019
▁Tunjung	-11.1019
▁Fahmi	-11.102
elandang	-11.1021
▁Ditemukan	-11.1027
▁Sunda	-11.1028
▁Novi	-11.1028
▁Samu	-11.1028
onvoi	-11.1041
pin	-11.1043
▁Azhar	-11.1044
mblokir	-11.1044
▁1.4	-11.1045
CO	-11.1045
▁beda	-11.1059
tum	-11.1061
▁der	-11.1062
limpah	-11.1062
our	-11.1063
▁menangis	-11.1066
▁Inspekt	-11.1067
Hatta	-11.1068
▁ITB	-11.1069
JPNN	-11.107
▁Mac	-11.107
agenda	-11.1072
▁Mati	-11.1079
▁show	-11.1079
▁Konvensi	-11.1081
cy	-11.1081
trik	-11.1084
▁Sumar	-11.1086
ST	-11.1088
▁Doa	-11.1088
▁genosida	-11.109
▁pesaing	-11.109
WWF	-11.109
▁Magetan	-11.109
▁bocah	-11.109
ahlian	-11.109
▁06:0	-11.1091
▁pejuang	-11.1092
▁Sebegini	-11.1092
▁menanti	-11.1093
▁pandang	-11.1093
.45	-11.1098
▁Net	-11.1099
▁Masters	-11.1101
sir	-11.1101
▁Cik	-11.1101
ndang	-11.1104
istik	-11.1107
▁She	-11.1109
▁kru	-11.1116
▁jari	-11.1117
▁Denmark	-11.1123
▁paparan	-11.1125
▁Nota	-11.1132
▁Korsel	-11.1132
▁kese	-11.1135
▁pengungsian	-11.1142
▁Ger	-11.1146
▁berlalu	-11.1155
LRT	-11.1155
pangkat	-11.1161
ongko	-11.1163
▁Seni	-11.1163
bang	-11.1166
▁700	-11.1168
way	-11.117
▁demokratis	-11.1171
▁sensitif	-11.1171
▁herbal	-11.1171
▁Tiket	-11.1171
▁dengar	-11.1171
▁ketidakpastian	-11.1171
▁Economic	-11.1171
▁Sorot	-11.1171
▁jahe	-11.1172
▁Terakhir	-11.1172
▁pemotong	-11.1173
▁dipindahkan	-11.1173
▁tepi	-11.1173
▁Technology	-11.1173
▁sepekan	-11.1174
dha	-11.1175
▁2010	-11.1175
▁kejutan	-11.1176
▁Urus	-11.1177
one	-11.1178
▁6,5	-11.1179
▁Tanda	-11.118
▁Games	-11.1181
pendampingan	-11.1182
▁Tangan	-11.1194
▁Praja	-11.1196
utan	-11.1197
▁pungutan	-11.1202
▁mm	-11.1203
zer	-11.1208
▁at	-11.1213
▁Seto	-11.1214
▁demo	-11.1215
▁Che	-11.1218
▁pengajar	-11.1222
iv	-11.1223
▁Dok	-11.1228
UI	-11.1228
TC	-11.1228
latform	-11.1229
link	-11.1232
▁Asas	-11.1235
Pelaku	-11.1237
▁Rick	-11.1238
▁Ag	-11.1244
▁semest	-11.1248
Satlantas	-11.1252
▁Kedatangan	-11.1252
▁Manokwari	-11.1252
▁Pribadi	-11.1252
▁Texas	-11.1252
▁Tantangan	-11.1252
▁menyeberang	-11.1252
▁handphone	-11.1252
memadamkan	-11.1252
▁Kupang	-11.1252
▁Slamet	-11.1252
▁Penjelasan	-11.1252
▁Sayangnya	-11.1253
▁Mun	-11.1253
rejo	-11.1254
▁ekstasi	-11.1254
▁Gal	-11.1254
▁personal	-11.1254
▁Bajo	-11.1254
donasi	-11.1258
nugerah	-11.126
▁berinte	-11.1263
bag	-11.1268
▁BIN	-11.1268
▁bakat	-11.1273
rek	-11.1279
▁Penjualan	-11.129
jaga	-11.1292
▁Il	-11.1293
▁Kemenko	-11.1295
mitra	-11.1298
▁Ulu	-11.1299
▁terlarang	-11.13
LK	-11.1302
▁04:	-11.1304
▁akurat	-11.1305
▁semen	-11.1307
EA	-11.1309
▁(26	-11.1309
▁KP	-11.1309
▁ru	-11.1314
ahu	-11.1317
yana	-11.132
▁penyand	-11.1323
▁Inisia	-11.1323
▁Ops	-11.1329
emas	-11.1329
▁pompa	-11.1333
▁Kerobokan	-11.1334
▁Konflik	-11.1334
▁07:4	-11.1335
▁17:5	-11.1335
▁Biru	-11.1335
▁08:2	-11.1335
▁serat	-11.1336
incar	-11.1336
Si	-11.1336
jajak	-11.1336
pembakaran	-11.1336
Purn	-11.1336
▁15:4	-11.1337
▁Sim	-11.1342
▁PAS	-11.1344
▁Ujang	-11.1352
▁jo	-11.1353
obati	-11.1355
▁1,7	-11.1355
▁XI	-11.1355
▁Pemeriksaan	-11.136
▁Lukman	-11.1362
▁didakwa	-11.1364
▁diskriminasi	-11.1365
▁Kopi	-11.1368
PC	-11.137
-18	-11.1371
embangun	-11.1372
▁Dede	-11.1373
pra	-11.1373
▁SP	-11.1375
▁PD	-11.1388
hat	-11.1389
55	-11.1393
▁Supar	-11.1399
▁Wahyudi	-11.14
▁Agam	-11.1402
▁Thi	-11.1404
▁ul	-11.1405
iming	-11.1405
▁Sandi	-11.1406
7/	-11.1408
▁02:0	-11.1408
BKN	-11.141
▁cat	-11.1413
▁inklusi	-11.1414
tokoh	-11.1416
▁Mardan	-11.1416
▁Karnavian	-11.1416
▁hybrid	-11.1416
▁mencontohkan	-11.1416
▁penyiksaan	-11.1416
▁pahlawan	-11.1416
▁pengabdian	-11.1416
▁cucu	-11.1416
▁penawar	-11.1417
▁Kemenpora	-11.1417
▁kebanggaan	-11.1417
▁opini	-11.1417
▁Lolly	-11.1417
▁Emirat	-11.1417
▁Hendy	-11.1417
▁Angeles	-11.1417
▁Kodam	-11.1418
▁tekstil	-11.1418
Ka	-11.1418
▁15:5	-11.1418
▁Viral	-11.142
▁penghuni	-11.142
▁Dadang	-11.1421
▁Kampar	-11.1421
▁Road	-11.1421
▁Smart	-11.1422
▁penampung	-11.1423
jelaskan	-11.1423
prihatin	-11.143
▁mimpi	-11.1432
kesempatan	-11.1438
▁Umar	-11.144
▁terburuk	-11.1441
wang	-11.1442
▁dang	-11.145
imun	-11.1458
▁Cho	-11.1465
neka	-11.1466
RT	-11.1471
▁Dam	-11.1476
▁serang	-11.1479
Bilang	-11.148
▁Sin	-11.148
khawatirkan	-11.148
SF	-11.1481
dhika	-11.1484
olidaritas	-11.1492
Indonesia	-11.1494
▁Badjideh	-11.15
▁Holding	-11.15
▁Infrastruktur	-11.15
▁Verhoeven	-11.15
▁drastis	-11.15
▁komedi	-11.15
▁Semeru	-11.15
▁instrumen	-11.15
▁74	-11.1502
▁Farhan	-11.1502
riya	-11.1504
▁Dirut	-11.1506
▁koperasi	-11.1507
▁Saja	-11.151
hakti	-11.1511
▁mas	-11.1512
▁amal	-11.1513
▁Bila	-11.1514
Febi	-11.1514
onitoring	-11.1516
PR	-11.1516
▁UGM	-11.1523
▁el	-11.1526
▁memburuk	-11.1531
yadi	-11.1532
▁terbentuk	-11.1533
▁series	-11.1537
ahami	-11.1541
▁Asta	-11.1542
ukai	-11.1546
duk	-11.1548
tz	-11.1548
ransformasi	-11.1551
ranking	-11.1553
▁GBK	-11.1554
▁kenal	-11.1557
▁Moham	-11.1561
▁SU	-11.1562
▁Antar	-11.1562
ewenang	-11.1565
▁Gita	-11.1566
▁so	-11.1568
GI	-11.1569
▁Adam	-11.1574
▁radikal	-11.1577
▁kuda	-11.1581
▁Mahalini	-11.1584
▁Merauke	-11.1584
▁Sedikit	-11.1584
▁Twitter	-11.1584
▁intelektual	-11.1584
▁Perjalanan	-11.1584
▁pendaki	-11.1584
▁kemarau	-11.1584
▁gitu	-11.1584
▁Luncur	-11.1584
▁fungsional	-11.1584
▁Teddy	-11.1585
▁kesaksian	-11.1586
layang	-11.1587
▁asap	-11.1587
donor	-11.1587
▁Tujuannya	-11.1588
ade	-11.1589
gor	-11.159
▁Blok	-11.1594
Qur	-11.1599
▁Tuan	-11.1601
▁Kader	-11.1602
▁Out	-11.1603
TS	-11.1604
▁pembuang	-11.1604
▁Produksi	-11.161
jeda	-11.1611
▁Ten	-11.1613
juara	-11.1617
▁ragu	-11.1618
▁remi	-11.1636
IP	-11.1637
▁Tindakan	-11.1637
▁duel	-11.1645
▁peternakan	-11.1654
▁DJ	-11.1654
▁Mineral	-11.1655
▁Susi	-11.1657
selaras	-11.1659
▁Avi	-11.166
▁Bahas	-11.166
ct	-11.1661
▁Gunungkidul	-11.1669
▁SELAT	-11.1669
▁Penulis	-11.1669
▁Plaza	-11.1669
laboratorium	-11.1669
▁Protes	-11.1669
▁Sebaliknya	-11.1669
Kota	-11.1669
▁sedih	-11.1669
▁Oscar	-11.1669
▁urine	-11.1669
▁Kir	-11.167
▁organik	-11.167
▁sprint	-11.1671
▁Austin	-11.1671
▁bantu	-11.1672
obat	-11.1673
nominasi	-11.1674
pelestarian	-11.1678
LB	-11.1678
▁keseimbangan	-11.168
▁inti	-11.1682
aba	-11.1682
tolak	-11.1683
ersahabatan	-11.1683
▁GT	-11.1687
▁Maung	-11.1688
▁politis	-11.1688
▁harian	-11.1691
▁1.0	-11.1691
▁berkala	-11.1691
▁Perwira	-11.1693
UR	-11.1694
▁ditugas	-11.1695
▁Gugatan	-11.1701
▁kadang	-11.1702
arti	-11.1709
▁dong	-11.1711
▁bea	-11.1712
▁Kab	-11.1712
▁Rangka	-11.1713
▁Cu	-11.1714
▁Edd	-11.1714
loud	-11.1715
▁jela	-11.1715
▁baca	-11.1715
▁tip	-11.1722
▁kenang	-11.1734
dera	-11.174
▁Abra	-11.1743
▁Steve	-11.1746
timpa	-11.1747
Ditreskrimum	-11.1754
▁Belanja	-11.1754
▁Mbappe	-11.1754
▁Pekalongan	-11.1754
▁Pennsylvania	-11.1754
▁puskesmas	-11.1754
▁demam	-11.1754
▁gemilang	-11.1754
▁ditunda	-11.1754
▁kelamin	-11.1754
▁Machmudin	-11.1755
▁Penega	-11.1755
▁Blue	-11.1755
▁Charles	-11.1755
▁Ibrahim	-11.1755
▁Manado	-11.1755
provokasi	-11.1757
▁fa	-11.1757
▁13:2	-11.1758
▁Miller	-11.1758
tegas	-11.1759
▁Hewan	-11.176
▁Terbuka	-11.1763
ragaman	-11.1764
▁Tercatat	-11.1769
▁Sini	-11.177
▁Agustina	-11.1773
▁IX	-11.1774
esejahteraan	-11.1776
Apa	-11.1778
▁Saran	-11.1783
▁diundang	-11.1786
leksi	-11.1786
▁Cita	-11.1793
PTPN	-11.1794
dani	-11.1798
odium	-11.1799
▁Mana	-11.1801
▁vari	-11.1806
▁Sera	-11.1807
▁tabrak	-11.181
▁apik	-11.1813
▁Patrol	-11.1817
gon	-11.1819
▁Nar	-11.1821
▁Maha	-11.1822
▁miliki	-11.1822
ndaan	-11.1824
bud	-11.1831
▁lan	-11.1832
▁asisten	-11.1832
▁120	-11.1835
▁Moer	-11.1836
MAN	-11.1837
IUP	-11.1839
Cawagub	-11.184
▁Centre	-11.184
▁Kadiv	-11.184
▁keimigrasian	-11.184
▁spiritual	-11.184
▁Sejarah	-11.184
▁Wartawan	-11.184
▁ekspansi	-11.1841
▁Fir	-11.1841
▁sibuk	-11.1841
▁Tah	-11.1841
▁serikat	-11.1842
▁terpenuhi	-11.1842
▁prima	-11.1842
▁vaksinasi	-11.1843
▁defi	-11.1844
▁Lokal	-11.1845
edukasi	-11.1846
▁Satya	-11.1846
▁Penjara	-11.1847
juh	-11.185
ndong	-11.1852
alan	-11.1853
▁Jl	-11.1855
atau	-11.1856
▁hormat	-11.1859
▁th	-11.1864
▁swas	-11.1865
▁Yuli	-11.1865
JO	-11.1866
IT	-11.1866
▁migrasi	-11.1872
▁Harim	-11.1877
angeran	-11.188
▁APK	-11.1881
▁ten	-11.1881
sing	-11.1882
▁lega	-11.1885
sif	-11.1885
geledah	-11.1887
▁Gra	-11.189
▁gue	-11.1895
▁Sila	-11.1895
▁pelaksana	-11.1896
mendeteksi	-11.1897
▁Mary	-11.1898
lamar	-11.1905
▁Gande	-11.1906
▁kom	-11.1909
▁Uno	-11.1911
ojek	-11.1919
▁Atlet	-11.1925
nggang	-11.1926
▁pemeca	-11.1927
▁Centra	-11.1927
▁Iklim	-11.1927
▁kaget	-11.1927
▁Kunci	-11.1927
▁cagub	-11.1927
▁Mukta	-11.1927
▁Akses	-11.1927
▁penyusun	-11.1928
▁Lam	-11.1928
▁Henry	-11.1928
Ipda	-11.1928
▁diselamatkan	-11.1928
▁09:1	-11.1929
▁Kenapa	-11.1929
▁mencoblos	-11.193
▁visual	-11.193
▁Helm	-11.1933
▁Siber	-11.1934
▁milisi	-11.1935
▁Idul	-11.1935
China	-11.1937
▁Pener	-11.1943
▁Ash	-11.1944
▁Berlin	-11.1944
▁Misi	-11.1947
WI	-11.1947
musnahkan	-11.1948
berantas	-11.195
▁Ab	-11.1952
erlintasan	-11.1954
mutasi	-11.1957
silakan	-11.1959
▁Vin	-11.196
dya	-11.196
▁Van	-11.1962
ekor	-11.1965
lawat	-11.1965
ching	-11.1968
▁MUI	-11.197
▁op	-11.1971
berhadapan	-11.1973
▁Sabu	-11.1975
▁semula	-11.1976
yun	-11.1977
▁siswi	-11.1981
▁diserang	-11.1982
▁Inara	-11.1983
▁Mudah	-11.1986
▁Nantinya	-11.1986
duh	-11.1988
▁Ponpes	-11.1991
▁Rangku	-11.1991
▁Nat	-11.1994
▁meriah	-11.1995
rap	-11.1999
aktif	-11.2
NE	-11.2001
▁Lim	-11.2003
▁Tani	-11.2006
mangku	-11.2008
▁batal	-11.2008
▁(5/6)	-11.2015
▁Konsumen	-11.2015
▁keracunan	-11.2015
▁klasik	-11.2015
▁kejaksaan	-11.2015
▁geopolitik	-11.2015
▁count	-11.2015
▁vital	-11.2015
▁Seribu	-11.2015
▁menyatu	-11.2016
▁Hadap	-11.2017
▁Andrea	-11.2018
▁Hendri	-11.2019
▁Indikator	-11.202
▁talenta	-11.2021
▁Kel	-11.2021
▁terp	-11.2026
▁Modal	-11.2026
kedua	-11.2028
▁2007	-11.203
▁MH	-11.203
jat	-11.2031
IBL	-11.2035
▁Ste	-11.2038
▁Persi	-11.2039
▁Lab	-11.2042
pose	-11.2046
▁pidatonya	-11.2047
▁tari	-11.205
▁Soes	-11.2054
▁serah	-11.2061
emani	-11.2067
▁ICE	-11.2069
ublic	-11.2075
▁predik	-11.2075
hun	-11.2075
▁tulisan	-11.2076
▁Rena	-11.2077
ndra	-11.2078
▁Susu	-11.2079
yang	-11.208
enjaga	-11.2083
▁Founde	-11.2085
▁terapi	-11.2086
muncul	-11.2087
bil	-11.2088
tomo	-11.2088
▁Mc	-11.2091
WK	-11.2098
commerce	-11.2103
▁Michigan	-11.2103
▁Pegunungan	-11.2103
▁irigasi	-11.2103
▁mancanegara	-11.2103
▁terlaksana	-11.2103
▁Pengungsi	-11.2103
Ditreskrimsus	-11.2103
▁Kajian	-11.2104
▁koper	-11.2104
Dinkes	-11.2104
▁mengemuka	-11.2104
▁gerai	-11.2104
▁Usai	-11.2104
▁Pintu	-11.2104
▁hilirisasi	-11.2104
▁Deddy	-11.2105
▁08:1	-11.2105
▁Lebat	-11.2106
azar	-11.2106
▁Bareng	-11.2107
▁Mayor	-11.2108
▁Poin	-11.2113
▁Truk	-11.2118
▁sayuran	-11.212
▁PKK	-11.2121
▁mediasi	-11.2129
▁Berbicara	-11.2129
▁HP	-11.2129
▁1-1	-11.2132
MP	-11.2132
▁rekannya	-11.2136
▁karang	-11.2138
-29	-11.2138
▁Kasub	-11.2139
▁Dumai	-11.214
▁mentah	-11.214
ajaran	-11.2148
▁Tren	-11.2149
▁inter	-11.215
erhadap	-11.215
70	-11.2154
23/	-11.2155
opang	-11.216
▁Zain	-11.2165
▁wati	-11.2167
▁Perk	-11.2168
▁UM	-11.2168
▁Kal	-11.2169
▁Cor	-11.2169
▁PA	-11.217
TH	-11.2171
LI	-11.2174
▁Free	-11.2175
▁trans	-11.2179
ebut	-11.218
▁Penangkap	-11.2183
▁Fin	-11.2184
▁Simon	-11.2185
owongan	-11.2186
hibur	-11.2189
acific	-11.2193
▁Executive	-11.2193
▁bercerai	-11.2193
▁Bedagai	-11.2193
▁Rokok	-11.2193
▁loyal	-11.2193
▁eksternal	-11.2193
▁kebencian	-11.2193
▁Prestasi	-11.2193
▁ditindaklanjuti	-11.2193
▁penerbit	-11.2193
SUGBK	-11.2193
▁perbincangan	-11.2194
▁Conference	-11.2194
▁Youth	-11.2194
▁pemelihara	-11.2195
▁Kompas	-11.2195
dijat	-11.2197
▁2019.	-11.2197
▁poster	-11.22
▁Royal	-11.22
TM	-11.2201
TR	-11.2203
4/	-11.2204
▁perlaku	-11.2205
▁Sepak	-11.2205
▁waris	-11.2206
▁Rini	-11.2208
▁war	-11.2215
▁alasannya	-11.2217
jal	-11.2222
line	-11.2225
pondok	-11.2226
under	-11.2228
Iya	-11.2229
▁menyala	-11.223
▁x	-11.2231
serangan	-11.2232
GA	-11.2234
utusan	-11.2234
visi	-11.2236
▁Kembang	-11.2238
▁jangkau	-11.2245
▁01:	-11.2247
gala	-11.2252
stri	-11.2255
▁Suri	-11.2264
undi	-11.2264
▁Soni	-11.2265
▁mari	-11.2271
▁Nunuk	-11.2272
▁Musta	-11.2275
▁kontro	-11.2276
agita	-11.2278
kebal	-11.2279
daya	-11.2281
▁pembela	-11.2282
/08)	-11.2283
▁Banjarmasin	-11.2283
▁ilmiah	-11.2283
▁Pelindo	-11.2283
▁Jinping	-11.2283
▁Penajam	-11.2283
▁gajah	-11.2284
▁Catatan	-11.2285
▁1999	-11.2285
▁sampel	-11.2285
▁22:2	-11.2286
▁alkohol	-11.2286
▁14:2	-11.2286
agung	-11.2287
▁Yusri	-11.2288
▁menegak	-11.229
▁mengabdi	-11.2292
▁pelari	-11.2293
▁Peta	-11.2295
aro	-11.2296
▁menghidup	-11.2299
alat	-11.23
▁membesar	-11.2301
LO	-11.2305
kompetisi	-11.2305
sekutu	-11.2308
unggu	-11.2313
▁Harian	-11.2319
▁jus	-11.2325
▁klien	-11.2328
erencanaan	-11.2328
▁melayang	-11.2329
▁(30	-11.2329
▁Nabi	-11.2331
▁pemangk	-11.2336
andai	-11.2336
Un	-11.2337
▁Mobile	-11.2337
▁bandar	-11.2338
far	-11.2338
▁Gun	-11.2339
▁mahasisw	-11.2345
▁start	-11.2347
bol	-11.2349
▁Inhu	-11.2355
▁CI	-11.2367
ET	-11.2367
▁tandas	-11.2371
▁BNN	-11.2371
▁terse	-11.2373
qui	-11.2373
▁museum	-11.2374
▁Azerbaijan	-11.2374
▁Lahadalia	-11.2374
▁Pontianak	-11.2374
▁Serbia	-11.2374
▁Kesepakatan	-11.2374
▁mandat	-11.2374
striker	-11.2374
▁Propam	-11.2374
▁Panji	-11.2375
▁Operasional	-11.2375
▁Komjen	-11.2375
tonton	-11.2375
huruf	-11.2375
▁21:5	-11.2375
▁mendasar	-11.2375
▁patah	-11.2376
▁pengangkut	-11.2376
▁Aip	-11.2377
▁Markas	-11.2378
-30	-11.2378
▁Usul	-11.2379
diam	-11.2379
empat	-11.2379
▁pacar	-11.2383
▁(28	-11.2386
▁2006	-11.2388
▁(23	-11.2388
fer	-11.24
paslon	-11.2401
▁Pus	-11.2403
▁Babak	-11.2404
▁melempar	-11.241
▁Os	-11.2411
▁Beli	-11.2413
▁Us	-11.2414
▁Alun	-11.2415
▁81	-11.2418
▁BPK	-11.2425
▁Sy	-11.2431
entil	-11.2435
wu	-11.244
papan	-11.244
▁system	-11.244
GP	-11.2442
▁Bit	-11.2449
cky	-11.2452
alaman	-11.2455
qu	-11.2455
▁Panjaitan	-11.2465
▁kolesterol	-11.2465
▁pelayar	-11.2465
▁pengejaran	-11.2466
▁teori	-11.2466
▁ilustrasi	-11.2466
▁Gajah	-11.2466
▁3-0	-11.2467
▁pencemar	-11.2467
▁Terdakwa	-11.2467
▁Panjang	-11.2468
endati	-11.2469
▁Candra	-11.247
▁kotor	-11.2471
▁penyisi	-11.2472
▁Lulus	-11.2474
ON	-11.2476
▁Paes	-11.2478
kin	-11.2478
▁tolong	-11.2479
abadi	-11.2479
stabil	-11.2479
fat	-11.248
▁Rama	-11.2481
▁ditinggalkan	-11.2485
▁pengusung	-11.2486
▁Ang	-11.2487
UUD	-11.2489
AH	-11.2489
▁kembang	-11.2492
▁Fed	-11.2492
▁bos	-11.2495
▁sejahtera	-11.2497
▁aja	-11.2499
▁identifikasi	-11.25
▁memburu	-11.25
eater	-11.2509
ival	-11.251
▁Hand	-11.251
▁Tamar	-11.2515
▁kebenaran	-11.2516
▁Ap	-11.2516
duet	-11.252
potong	-11.2522
▁ras	-11.2528
harus	-11.2529
▁pendidik	-11.2532
▁Zona	-11.2532
▁cela	-11.2533
▁Visi	-11.2535
▁nol	-11.2535
RAN	-11.254
enertiban	-11.2541
100	-11.2546
rib	-11.2547
angrove	-11.2549
▁(21	-11.2549
TV	-11.255
mandirian	-11.2552
anjung	-11.2553
La	-11.2556
▁Angga	-11.2558
▁Bakrie	-11.2558
▁Penerbangan	-11.2558
▁Sjafri	-11.2558
▁virtual	-11.2558
MIND	-11.2558
▁Mardiono	-11.2558
▁Kompetisi	-11.2558
▁Nigeria	-11.2558
▁korporasi	-11.2558
▁06:5	-11.2559
▁09:5	-11.2559
▁Petrus	-11.2559
▁Safar	-11.2559
▁galon	-11.2559
▁Sakti	-11.256
bor	-11.2561
▁penculik	-11.2561
▁Rekor	-11.2561
▁karet	-11.2562
▁Milan	-11.2562
▁BALI	-11.2562
▁doktor	-11.2563
▁MU	-11.2566
▁menguku	-11.2566
usuk	-11.2566
king	-11.257
▁langka	-11.2572
▁Kontra	-11.2575
▁05:	-11.2577
djo	-11.2577
▁Santri	-11.2579
▁Ami	-11.2583
▁Berka	-11.2587
▁pemberita	-11.259
nce	-11.2605
▁Nova	-11.2606
▁Penye	-11.2606
kasih	-11.2613
ndikator	-11.2613
dua	-11.2615
hen	-11.2617
▁Kemenkes	-11.2619
31	-11.2621
▁langit	-11.2626
artisipasi	-11.2626
▁Av	-11.2627
▁over	-11.2628
ebutkan	-11.2635
▁dihukum	-11.2637
▁dilepas	-11.2637
▁Sch	-11.2641
bilitas	-11.2643
hon	-11.2645
▁Perak	-11.2646
▁menjauh	-11.2651
bukaan	-11.2651
▁Lumpur	-11.2651
▁Mandalika	-11.2651
▁Singapore	-11.2651
▁berprestasi	-11.2651
▁diplomasi	-11.2651
▁Event	-11.2651
▁cabai	-11.2652
▁kiai	-11.2652
▁adegan	-11.2653
▁Ilir	-11.2654
▁Albert	-11.2654
▁set	-11.2657
▁Saham	-11.2659
▁ram	-11.2663
uding	-11.2665
zu	-11.2667
▁perbuatannya	-11.2669
▁Apel	-11.267
persepsi	-11.2674
mun	-11.268
karan	-11.2681
▁semester	-11.2681
▁Bur	-11.2681
tiar	-11.2684
▁Wamen	-11.2685
▁dasarnya	-11.2687
HK	-11.2687
▁Harta	-11.2689
25/	-11.269
▁olahan	-11.2696
▁ambisi	-11.2696
▁sentuh	-11.2699
▁dukung	-11.27
▁Bertemu	-11.2701
bab	-11.2701
▁Bela	-11.2701
tanding	-11.2703
▁Tari	-11.2705
SC	-11.2706
isa	-11.2706
ambut	-11.2712
▁audit	-11.2713
emalsu	-11.2713
▁Pin	-11.2722
▁fer	-11.2731
▁$	-11.2733
uruh	-11.2737
▁Setia	-11.2737
pto	-11.2738
pekerja	-11.2739
▁Sol	-11.2742
IM	-11.2743
▁Kemenhub	-11.2743
ejahatan	-11.2744
Rudenim	-11.2746
erspektif	-11.2746
▁Airlines	-11.2746
▁Idzes	-11.2746
▁Perindustrian	-11.2746
▁kepabeanan	-11.2746
▁otonom	-11.2746
▁Ternate	-11.2746
▁Rakernas	-11.2746
kesenjangan	-11.2746
▁timbul	-11.2746
▁Lippo	-11.2746
▁Abbas	-11.2746
RO	-11.2746
▁komputer	-11.2746
▁Klaim	-11.2746
▁Luka	-11.2746
▁Agustiar	-11.2747
▁22:3	-11.2747
▁14:5	-11.2747
ACL	-11.2748
▁ultra	-11.275
▁18:2	-11.275
▁Kebon	-11.2752
hasiat	-11.2752
▁Hanif	-11.2754
▁terhenti	-11.2756
▁Tolak	-11.2758
▁Frances	-11.2758
kop	-11.2759
ntuk	-11.2759
ure	-11.2759
▁DPO	-11.276
aji	-11.2762
▁Isa	-11.2763
▁Ara	-11.2763
▁kacang	-11.2764
Gus	-11.2767
asia	-11.2771
enghenti	-11.2771
rekan	-11.2772
▁rob	-11.2776
▁gegar	-11.2778
▁Desain	-11.2779
▁Peter	-11.2779
kemas	-11.2781
prinsip	-11.2785
Jabar	-11.2786
SN	-11.2787
awat	-11.2787
▁gen	-11.2787
CA	-11.2791
▁Zu	-11.2794
tana	-11.2796
▁anyar	-11.2796
▁biar	-11.2797
UU	-11.2801
▁May	-11.2803
▁Dud	-11.2807
▁UT	-11.2808
▁diperkuat	-11.281
▁kanal	-11.2811
▁laba	-11.2821
pp	-11.2821
kalahkan	-11.2827
ses	-11.2831
tusan	-11.2832
▁kontroversi	-11.2836
▁UIN	-11.2837
oke	-11.2838
eberhasilan	-11.2838
▁Cibinong	-11.2841
▁Elektabilitas	-11.2841
▁Keselamatan	-11.2841
▁Kronologi	-11.2841
▁Mukomuko	-11.2841
▁kalender	-11.2841
▁BWF	-11.2841
▁training	-11.2841
▁Produse	-11.2841
▁Risiko	-11.2841
▁rumit	-11.2841
▁Tiba	-11.2842
▁Present	-11.2842
▁Aturan	-11.2842
▁Watch	-11.2843
▁Art	-11.2843
▁Luluk	-11.2844
▁Nadi	-11.2845
▁Om	-11.2846
▁ex	-11.2847
▁10:2	-11.2848
▁1.500	-11.2853
/10)	-11.2854
▁pedoman	-11.2855
kombinasi	-11.2856
▁KemenPAN	-11.2856
kel	-11.2857
▁1.7	-11.2859
▁Teh	-11.286
persenjata	-11.286
mbar	-11.2861
▁Miss	-11.2862
▁antre	-11.2862
▁angkasa	-11.2865
erkuat	-11.2868
Menlu	-11.2868
campur	-11.2871
anggar	-11.2871
▁kewarganegaraan	-11.2873
▁konsistensi	-11.2874
▁line	-11.2877
▁pemikiran	-11.2881
bisnis	-11.2885
PDIP	-11.2885
▁Neta	-11.2886
▁Gilimanuk	-11.289
▁Dir	-11.2899
▁Baznas	-11.2901
nginap	-11.2903
▁tiap	-11.2903
▁Pantau	-11.2906
▁IN	-11.2908
▁cap	-11.2916
▁back	-11.2924
angkat	-11.2929
KO	-11.293
▁menggerak	-11.2932
idap	-11.2932
sekolah	-11.2934
EL	-11.2935
erikanan	-11.2936
▁Pandeglang	-11.2937
▁demonstran	-11.2937
▁fashion	-11.2937
▁spesies	-11.2937
▁Sanksi	-11.2937
▁surya	-11.2937
▁Literasi	-11.2937
▁emosional	-11.2937
▁naturalisasi	-11.2938
▁Purwanto	-11.2938
ondasi	-11.2938
rahkan	-11.2939
▁12:5	-11.294
▁percobaan	-11.2941
▁panti	-11.2942
▁enak	-11.2946
▁Sulut	-11.2946
▁ATM	-11.2947
▁sayang	-11.2948
▁Sambut	-11.2948
TO	-11.2951
hina	-11.2952
komposisi	-11.2953
over	-11.2964
kukuh	-11.2967
komando	-11.2967
▁125	-11.2967
urung	-11.2969
▁Jenazah	-11.297
▁Zulhas	-11.297
▁Karo	-11.2974
▁Neng	-11.2974
▁Asing	-11.2977
berita	-11.2981
▁Was	-11.2981
banding	-11.2984
app	-11.2985
Kemudian	-11.2985
▁membeda	-11.299
▁Rad	-11.3001
udah	-11.3001
bangun	-11.3002
▁Les	-11.3004
akta	-11.3014
bohong	-11.3014
▁dada	-11.3021
guling	-11.3023
▁71	-11.3028
▁pengumpul	-11.3034
▁Austria	-11.3034
▁Bobotoh	-11.3034
▁Grobogan	-11.3034
▁Tasikmalaya	-11.3034
▁wisuda	-11.3034
▁Jemaah	-11.3034
▁syuting	-11.3034
▁teritori	-11.3034
▁cantik	-11.3034
▁didatang	-11.3035
▁Jabatan	-11.3035
▁Erwin	-11.3035
▁Nasi	-11.3035
▁mendekat	-11.3035
cegat	-11.3036
▁Madya	-11.3037
▁11:4	-11.3037
pengurus	-11.3037
egah	-11.3038
▁Riza	-11.3038
▁PMK	-11.3038
▁Year	-11.3039
▁12:1	-11.3039
enjuru	-11.304
▁Kedokteran	-11.304
▁Kam	-11.3041
▁(28/8)	-11.3041
▁Has	-11.3041
Paskibraka	-11.3042
▁Kencana	-11.3042
▁Alami	-11.3043
/6/2024).	-11.3043
genap	-11.3044
representasi	-11.3047
knal	-11.3048
▁pilihnya	-11.3048
▁CO	-11.3051
▁berbelanja	-11.3054
▁Bawang	-11.3055
▁Wo	-11.3057
▁perikanan	-11.3058
raton	-11.3059
▁produknya	-11.306
▁Say	-11.3061
rampas	-11.3064
▁Sanur	-11.3071
lupakan	-11.3074
angkal	-11.3074
▁Ace	-11.3075
produser	-11.3077
▁Brip	-11.308
▁pribadinya	-11.3082
▁rel	-11.3086
▁Persiapan	-11.3086
the	-11.3086
▁Inti	-11.3087
lawan	-11.3088
▁Rohul	-11.3088
▁ITS	-11.3091
▁Ken	-11.3091
umut	-11.3092
▁bor	-11.3096
▁suaranya	-11.3096
akar	-11.3107
▁Amanat	-11.3107
▁DA	-11.3111
▁Aldi	-11.3111
▁Bun	-11.3112
▁Santa	-11.3113
asing	-11.3113
▁aduan	-11.3123
12	-11.3125
engonsumsi	-11.3125
▁Widi	-11.3126
▁Resor	-11.3127
▁Ras	-11.3129
▁Arm	-11.313
jir	-11.3131
▁autopsi	-11.3132
▁binatang	-11.3132
▁forensik	-11.3132
▁kolega	-11.3132
dipecat	-11.3132
▁Gatot	-11.3132
razia	-11.3132
▁Periode	-11.3132
▁Pelantikan	-11.3132
▁Zakiyah	-11.3132
▁Tinggal	-11.3133
▁2019-2024	-11.3133
▁Pengacara	-11.3133
▁08:5	-11.3133
makamkan	-11.3134
▁debit	-11.3135
▁Marselin	-11.3135
▁Jajaran	-11.3135
▁Kekaya	-11.3136
▁12:4	-11.3136
hur	-11.3137
▁Yohan	-11.3137
lompat	-11.3138
▁MI	-11.3138
▁Tech	-11.3139
▁Klub	-11.3139
▁(23/1)	-11.3141
▁Sehari	-11.3141
rumor	-11.3141
CASN	-11.3144
kaltim	-11.3148
▁berlibur	-11.3148
▁Mahar	-11.3149
NK	-11.3152
▁Volo	-11.3154
▁Tia	-11.3154
▁utuh	-11.3157
▁maksud	-11.3158
2,3	-11.3159
▁Wil	-11.3159
keanggotaan	-11.3172
NS	-11.3181
▁mempersem	-11.3182
▁Biasa	-11.3185
ekspor	-11.3188
▁cm	-11.319
▁kantornya	-11.3192
▁Bagas	-11.3197
▁bisnisnya	-11.3212
▁domin	-11.322
ska	-11.3222
▁Minum	-11.3223
▁Peradi	-11.3226
▁0,	-11.3231
entertainment	-11.3231
kekacauan	-11.3231
▁Clinic	-11.3231
▁Muzani	-11.3231
▁alhamdulil	-11.3231
▁pegunungan	-11.3231
ziarah	-11.3231
▁benih	-11.3231
▁Ditambah	-11.3231
▁Tampak	-11.3232
▁statis	-11.3232
▁Fadjar	-11.3232
▁Taspen	-11.3232
▁PAD	-11.3232
▁Yunani	-11.3232
cahaya	-11.3232
▁lubang	-11.3232
▁perampok	-11.3232
▁ditanam	-11.3233
Sebagai	-11.3235
▁pengesahan	-11.3236
aniaya	-11.3236
▁Mapolresta	-11.3236
▁penguji	-11.3239
gus	-11.3239
▁ibunda	-11.324
larut	-11.3241
▁Kolon	-11.3245
▁Eva	-11.3252
eret	-11.3254
▁Music	-11.3255
▁Jane	-11.326
pok	-11.3263
okhm	-11.3265
▁UE	-11.3266
gadang	-11.3267
▁Berat	-11.3268
▁You	-11.327
entitas	-11.3271
▁audi	-11.3271
▁Sto	-11.3274
sesmen	-11.3275
▁Damkar	-11.3276
ombong	-11.3284
▁Suf	-11.3284
canang	-11.3285
▁Ana	-11.3285
▁84	-11.3286
▁Kelima	-11.3286
▁TPI	-11.3286
CB	-11.3289
prov	-11.329
Sumsel	-11.3291
lom	-11.3295
▁usahanya	-11.3302
lapis	-11.3302
Para	-11.3305
▁LBH	-11.331
erjaan	-11.3312
▁sayur	-11.3313
▁sand	-11.3313
▁Jab	-11.3315
ock	-11.3317
embunyi	-11.3319
▁Laki	-11.332
▁Starlin	-11.3321
rdiansyah	-11.3326
▁sungguh	-11.3326
▁Bangkok	-11.3331
▁Ricardo	-11.3331
▁Supratman	-11.3331
▁reguler	-11.3331
▁Digelar	-11.3331
▁Perintah	-11.3331
▁Impor	-11.3331
▁Soeharto	-11.3332
▁ditarik	-11.3332
▁Christian	-11.3332
▁dramatis	-11.3332
▁kambing	-11.3332
▁pembersih	-11.3333
▁Kanit	-11.3333
▁Perdamaian	-11.3333
▁peledak	-11.3335
▁22:1	-11.3335
▁tanggap	-11.3335
▁1.8	-11.3336
erairan	-11.3336
▁nikah	-11.3337
part	-11.3337
▁Turut	-11.3338
▁1.5	-11.334
▁(18/1)	-11.3341
▁Ingat	-11.3342
kejar	-11.3342
▁Murah	-11.3347
▁Tangsel	-11.3347
▁tab	-11.3352
▁Danau	-11.3357
orong	-11.3358
marah	-11.3363
▁radio	-11.3366
nte	-11.3368
tua	-11.3369
tenggara	-11.3371
BRI	-11.3376
bung	-11.3378
minggu	-11.3379
▁audiens	-11.338
CI	-11.3381
▁kunjung	-11.3382
▁diwakil	-11.3383
▁semi	-11.3383
▁pendahulu	-11.3386
less	-11.3386
▁pengunju	-11.3387
▁16.00	-11.3391
▁Batal	-11.3391
▁terge	-11.3392
akomodasi	-11.3393
saudara	-11.3395
Palestina	-11.3395
atkan	-11.3401
ganda	-11.3402
▁salam	-11.3403
rung	-11.3404
lestarian	-11.3405
UM	-11.3406
▁muat	-11.3407
Tim	-11.3412
ayangkan	-11.3413
ketat	-11.3413
nyerbu	-11.3415
▁jurus	-11.3416
akhir	-11.3422
▁menanggu	-11.3425
mberdaya	-11.3426
PB	-11.3428
▁Ciamis	-11.3432
▁Financial	-11.3432
▁Premier	-11.3432
▁demografi	-11.3432
▁kehamilan	-11.3432
▁skill	-11.3432
▁Rahasia	-11.3433
Be	-11.3433
▁07:5	-11.3433
mission	-11.3433
▁23:5	-11.3434
▁09:2	-11.3434
▁Burhan	-11.3434
▁pegiat	-11.3436
▁Batik	-11.3437
▁18:1	-11.3437
▁Tower	-11.3438
▁(5/2)	-11.3439
▁Bahasa	-11.3443
▁Jule	-11.3448
identifikasi	-11.345
MEDAN	-11.3451
▁Etik	-11.3452
▁mak	-11.3453
▁Menu	-11.3454
larangan	-11.3454
buruk	-11.3455
▁Sikap	-11.3455
▁baja	-11.3457
▁Mundur	-11.3459
▁cetak	-11.3466
▁pemerintahannya	-11.3466
▁Gem	-11.3471
myr	-11.3472
▁86	-11.3474
/11/2024).	-11.3477
▁cairan	-11.3478
tukang	-11.3482
saji	-11.3482
logi	-11.3486
sun	-11.3492
erhimpun	-11.3492
▁PO	-11.3494
▁Id	-11.3495
▁Chris	-11.3496
▁Part	-11.3496
tanggal	-11.35
lotan	-11.35
▁harinya	-11.3502
siaga	-11.3507
▁bakti	-11.3509
▁Lapor	-11.3521
cia	-11.3521
▁Ika	-11.3525
lama	-11.3528
penyediaan	-11.3534
Cikampek	-11.3534
cawagub	-11.3534
▁Berharap	-11.3534
▁Kolombia	-11.3534
▁terjual	-11.3534
▁Belajar	-11.3535
▁runner	-11.3535
▁kakek	-11.3535
▁Sugeng	-11.3535
▁09:4	-11.3536
▁fraksi	-11.3536
▁lukisan	-11.3536
▁Darma	-11.3536
▁Laura	-11.3537
▁Tepat	-11.3538
▁Tugu	-11.3538
▁Modus	-11.3538
▁Azizah	-11.3538
PO	-11.354
ficial	-11.3543
▁tri	-11.3544
kendara	-11.3544
▁Robi	-11.3545
▁Umat	-11.3546
▁tali	-11.3546
rianto	-11.3547
99	-11.3548
hantu	-11.3548
▁Klok	-11.355
▁Choli	-11.355
▁Citi	-11.3551
▁Komp	-11.3551
ID	-11.3553
njot	-11.3555
▁Yaq	-11.3558
melatih	-11.3564
▁Genca	-11.3567
▁Serda	-11.3568
▁Nis	-11.357
que	-11.3571
▁Dh	-11.3572
▁dilindungi	-11.3573
▁terulang	-11.3577
▁Mai	-11.358
yat	-11.3581
▁ala	-11.3582
▁KLHK	-11.3582
▁jebol	-11.3583
▁terkendali	-11.3584
▁gencar	-11.3586
▁Deni	-11.3588
▁Div	-11.359
RAM	-11.3591
won	-11.3592
▁kenyataan	-11.3592
▁KL	-11.3593
▁Bayi	-11.3594
▁Iya	-11.3595
▁kue	-11.3604
NTT	-11.3607
▁ana	-11.3609
jualan	-11.3617
abilitas	-11.3617
▁ho	-11.3617
tter	-11.3617
singgung	-11.362
▁Dekan	-11.362
▁Rap	-11.3621
▁Tema	-11.3621
kekuatan	-11.3621
▁Bet	-11.3623
▁separuh	-11.3624
▁Engga	-11.3626
arang	-11.3627
besar	-11.3632
PPI	-11.3636
▁progres	-11.3637
▁Belgia	-11.3637
▁Jabodetabek	-11.3637
▁Kualitas	-11.3637
▁Langsung	-11.3637
▁Triliun	-11.3637
▁kronis	-11.3638
▁perjudian	-11.3638
▁Kendari	-11.3638
▁Qodari	-11.3638
▁Nasdem	-11.3638
nafkah	-11.3638
▁Christie	-11.3638
▁Hermansyah	-11.3638
▁Percepat	-11.3639
ray	-11.3639
▁vila	-11.3639
unduk	-11.364
proyeksi	-11.364
▁10:5	-11.364
▁menepi	-11.3645
▁tek	-11.3645
▁pensiunan	-11.3646
▁usus	-11.3646
▁Biasanya	-11.3646
▁Fahri	-11.3647
odifikasi	-11.3648
▁one	-11.365
oid	-11.365
▁memanas	-11.3652
▁aneh	-11.3652
▁Kontrak	-11.3655
▁Budiman	-11.3661
low	-11.3662
▁mengurai	-11.3666
ndro	-11.3671
▁fit	-11.3675
▁ESDM	-11.3677
proyek	-11.3679
nyeri	-11.3681
▁Huda	-11.3685
▁tega	-11.3687
HA	-11.3691
▁dilalui	-11.3694
lulus	-11.3694
▁Rita	-11.3694
▁om	-11.3697
IB	-11.3697
▁Yi	-11.3707
▁dijatuhkan	-11.3708
BRIN	-11.371
▁Temuan	-11.3711
▁Rock	-11.3713
protes	-11.3714
▁tuh	-11.3715
▁91	-11.3716
▁97	-11.3719
▁harganya	-11.3723
▁kos	-11.3723
▁93	-11.3725
19/	-11.3726
▁tour	-11.3726
▁runtuh	-11.3729
urikulum	-11.3731
enjabat	-11.3732
▁ATR	-11.3734
martabat	-11.3738
▁Detik	-11.3738
▁pre	-11.3739
▁Encep	-11.3742
▁Simanjuntak	-11.3742
▁Venezuela	-11.3742
▁elektoral	-11.3742
boikot	-11.3742
stributor	-11.3742
▁check	-11.3742
▁pelindung	-11.3742
▁konvensional	-11.3742
▁jahat	-11.3742
▁jatah	-11.3742
▁Sawit	-11.3742
▁Hassan	-11.3743
▁otot	-11.3743
▁Play	-11.3743
▁Taruna	-11.3743
pamer	-11.3744
▁rektor	-11.3744
▁kesatuan	-11.3744
▁Tahanan	-11.3745
▁kabel	-11.3745
raj	-11.3746
▁Jojo	-11.3746
▁Bahar	-11.3746
▁Ronny	-11.3747
▁Race	-11.3748
asah	-11.3751
▁Suharto	-11.3752
▁Pendukung	-11.3752
▁maya	-11.3753
yon	-11.3756
▁tekad	-11.3757
▁Lingga	-11.3759
▁ABC	-11.3761
▁Angela	-11.3762
▁Penjaga	-11.3766
▁Fabi	-11.3766
igu	-11.3766
▁YouTuber	-11.3769
▁Com	-11.377
▁Hard	-11.3781
estiant	-11.3781
ess	-11.3781
▁Brigadi	-11.3783
▁berlari	-11.3784
BB	-11.3785
▁Akademi	-11.3789
gol	-11.3806
FBI	-11.3814
▁1.9	-11.3814
orat	-11.3817
▁Fas	-11.3817
▁Helen	-11.3817
▁hitung	-11.3818
▁perusak	-11.3818
/2/2024)	-11.3821
▁Atma	-11.3825
balik	-11.3825
stro	-11.383
▁akrabnya	-11.3837
▁Kenya	-11.3838
▁bonu	-11.3838
▁2045.	-11.3839
dokteran	-11.384
Dan	-11.3841
▁jaya	-11.3841
etik	-11.3844
▁kediamannya	-11.3847
▁(25/1)	-11.3847
▁Muncul	-11.3847
▁Prioritas	-11.3847
▁Rismaharini	-11.3847
▁Serpong	-11.3847
▁assist	-11.3847
▁SUKA	-11.3847
▁impian	-11.3847
elantun	-11.3848
▁BRICS	-11.3848
▁official	-11.3849
▁1990	-11.3849
pungli	-11.3849
Najib	-11.385
▁Kurang	-11.3851
▁Good	-11.3851
▁2-1	-11.3854
▁ja	-11.3857
▁1.1	-11.3859
▁(21/1)	-11.3859
omo	-11.3862
▁UMK	-11.3862
jin	-11.3864
ttle	-11.3865
orkshop	-11.3873
▁Habibi	-11.3883
DC	-11.3886
indikat	-11.3886
py	-11.3889
▁Pes	-11.3892
ath	-11.3895
▁Rachm	-11.3902
▁berdua	-11.3904
view	-11.3906
pindah	-11.3907
▁Iswar	-11.3907
lap	-11.3908
49	-11.391
▁Gang	-11.3911
▁Ph	-11.3912
▁160	-11.3912
▁Penyer	-11.3916
Riri	-11.3917
jeng	-11.3919
awang	-11.3926
▁Fath	-11.3926
▁Kg	-11.3927
Humas	-11.3934
JPU	-11.3935
▁ling	-11.394
▁kesan	-11.394
▁Akun	-11.3941
▁tumpu	-11.3944
▁sentral	-11.3945
sosialisasi	-11.3947
▁Dong	-11.3947
▁Wawan	-11.3949
▁agresi	-11.3951
▁Euro	-11.3953
/09)	-11.3953
▁(27/3)	-11.3953
▁Slavina	-11.3953
▁Wajib	-11.3953
▁diperkenalkan	-11.3953
▁fiktif	-11.3953
ompensasi	-11.3953
▁email	-11.3953
▁terminal	-11.3953
▁santai	-11.3953
▁Jusuf	-11.3954
▁angket	-11.3954
▁dipenjara	-11.3954
▁(14/10)	-11.3954
▁fitnah	-11.3954
postingan	-11.3954
▁Siangnya	-11.3954
▁kewaspadaan	-11.3954
▁Md	-11.3954
hukum	-11.3954
▁06:3	-11.3954
▁Dhani	-11.3955
▁berdoa	-11.3955
▁LSM	-11.3957
▁Madani	-11.3958
▁memadat	-11.3958
▁bule	-11.3958
▁Angin	-11.3958
▁lawatan	-11.3958
▁garam	-11.3959
▁kontroversial	-11.3959
▁Matth	-11.396
▁tiang	-11.3962
asosiasi	-11.3964
▁George	-11.3964
▁porsi	-11.3966
▁psikologis	-11.3967
▁test	-11.3967
▁Paripurna	-11.3968
perkaya	-11.3971
▁Habibur	-11.3971
sutan	-11.3972
▁terbalik	-11.3975
mengamati	-11.3975
▁kalian	-11.3997
layak	-11.3999
▁Chen	-11.4001
▁IDF	-11.4004
▁DP	-11.4006
▁Ob	-11.4007
12/	-11.4007
▁Win	-11.4012
kov	-11.4014
rup	-11.4014
▁Zhe	-11.4019
UP	-11.4023
impulkan	-11.4028
▁Suko	-11.4032
untung	-11.4034
Kegiatan	-11.4044
Berdasar	-11.4044
wilayah	-11.4044
copot	-11.4044
▁83	-11.4045
▁TB	-11.4051
kapten	-11.4053
ruan	-11.4054
▁Kalah	-11.4057
wanto	-11.4059
▁(22/1)	-11.4061
▁(22/4)	-11.4061
▁(7/2)	-11.4061
▁Bengkalis	-11.4061
▁Elektronik	-11.4061
▁jendela	-11.4061
▁menonjol	-11.4061
▁Model	-11.4061
▁Happy	-11.4061
▁Inflasi	-11.4061
▁Kurdi	-11.4061
▁Hanura	-11.4062
▁Johnson	-11.4062
▁sabar	-11.4064
▁Berbeda	-11.4066
▁tandang	-11.4066
▁traged	-11.4066
▁3-1	-11.4067
▁roti	-11.4068
▁Gaji	-11.4069
enyitaan	-11.407
▁Team	-11.4071
▁Junior	-11.4073
enggawa	-11.4074
▁Kuat	-11.4074
rindu	-11.4076
▁3,5	-11.4076
cipta	-11.4077
▁serial	-11.4078
nsi	-11.4079
raf	-11.4079
▁Bid	-11.4081
MB	-11.4082
satu	-11.4086
abet	-11.409
▁raja	-11.409
▁amat	-11.4091
▁eksplora	-11.4095
layan	-11.4095
blak	-11.4096
▁tuding	-11.4096
▁Bulu	-11.4103
ubah	-11.4105
▁Palm	-11.4106
aksa	-11.4106
▁Aga	-11.4108
▁IKA	-11.411
▁beruntung	-11.4115
ografi	-11.4116
▁Prodi	-11.4117
vic	-11.412
▁Titi	-11.4127
18	-11.4129
▁Karta	-11.4131
BA	-11.4136
ngkapan	-11.4136
▁tujuannya	-11.4137
tenaga	-11.4138
▁CV	-11.4142
▁Makanya	-11.4142
▁Sekali	-11.4144
rajurit	-11.4147
▁KI	-11.4152
▁Tang	-11.4154
▁seimbang	-11.4156
Kedua	-11.4156
ML	-11.4157
SD	-11.4158
▁kontrakan	-11.4159
lay	-11.4163
kecuali	-11.4164
▁Cat	-11.4164
▁instan	-11.4166
Gaikindo	-11.417
▁(30/1)	-11.417
▁Bondowoso	-11.417
▁Entertainment	-11.417
▁Gallant	-11.417
▁Hasibuan	-11.417
▁Investment	-11.417
▁Kompetensi	-11.417
dermaga	-11.417
Maarten	-11.417
▁Ketapang	-11.417
▁mumpuni	-11.417
▁instal	-11.417
▁(23/10)	-11.417
▁Cipayung	-11.417
▁lunak	-11.417
▁Supian	-11.417
▁Maharani	-11.417
▁Evalua	-11.4171
▁Tesla	-11.4171
▁pengikut	-11.4171
guyub	-11.4171
susun	-11.4172
▁Cel	-11.4173
▁simak	-11.4173
anjur	-11.4174
▁perdebatan	-11.4175
▁Larang	-11.4175
▁aroma	-11.4177
RANS	-11.4179
nnisa	-11.4181
▁bijak	-11.4182
▁Gunar	-11.4185
pengaruh	-11.4187
▁2003	-11.4192
BH	-11.4194
kerjakan	-11.4197
untut	-11.4198
rangkum	-11.4202
▁Maritim	-11.4202
▁Bongka	-11.4204
ern	-11.4204
▁Pr	-11.4205
▁sepi	-11.4207
▁Beras	-11.4207
rina	-11.4208
satgas	-11.421
rio	-11.4214
▁Hen	-11.4219
▁Wina	-11.422
▁Setyo	-11.4224
▁Sustainabilit	-11.4227
.600	-11.423
UD	-11.4241
salin	-11.4242
▁!"	-11.4243
▁hi	-11.4244
▁kolo	-11.4246
rey	-11.4248
KE	-11.4249
giat	-11.425
▁1.6	-11.4252
▁Muns	-11.4252
OC	-11.4252
▁Kebay	-11.4253
edaran	-11.4256
▁2024/2025.	-11.4257
kretaris	-11.4263
▁qu	-11.4263
▁menyis	-11.4267
merinci	-11.4268
oka	-11.4268
menerus	-11.4269
tampil	-11.427
▁Pilih	-11.4271
lagu	-11.4272
enghapus	-11.4272
andra	-11.4274
meter	-11.4274
▁Ferdinan	-11.4276
bimbingan	-11.4276
DPD	-11.4276
KK	-11.4278
▁Livin	-11.4279
▁(15/4)	-11.4279
▁(30/7)	-11.4279
▁(5/1)	-11.4279
▁(8/3)	-11.4279
▁Bioskop	-11.4279
▁Kepemimpinan	-11.4279
▁Tokopedia	-11.4279
▁Yerusalem	-11.4279
▁Libya	-11.4279
▁Persikabo	-11.4279
▁atmosf	-11.4279
phone	-11.4279
▁asusila	-11.4279
▁konstitusional	-11.428
▁Konserva	-11.428
▁Manila	-11.4281
▁kesepa	-11.4281
▁Pengunjung	-11.4281
▁Setiadi	-11.4282
▁kerawanan	-11.4283
▁Zero	-11.4283
▁VII	-11.4283
▁Tertinggi	-11.4284
esahkan	-11.4285
▁pencipta	-11.4286
▁Fri	-11.4286
▁Nicke	-11.4291
▁Fred	-11.4291
▁banteng	-11.4291
▁cermat	-11.4292
▁perincian	-11.4292
▁lirik	-11.4292
▁Bergizi	-11.4293
▁cipta	-11.4294
▁50.000	-11.4295
▁Reporter	-11.4297
▁2002	-11.4302
▁Bol	-11.4302
▁Romo	-11.4304
▁Hatta	-11.431
▁AN	-11.4312
▁mera	-11.4315
▁sesungguh	-11.4318
selebgram	-11.4322
▁KS	-11.4323
▁PIK	-11.4326
▁Kha	-11.4326
LT	-11.4327
LIB	-11.4328
rong	-11.4332
dapatan	-11.4336
▁ditimbu	-11.4336
engembali	-11.434
▁konek	-11.4342
▁(31	-11.4349
gun	-11.4355
▁05:5	-11.4357
▁Perum	-11.4359
▁DI	-11.4359
PJ	-11.4359
BUM	-11.436
sebut	-11.4361
tron	-11.4371
anduan	-11.4371
wen	-11.4374
serius	-11.4385
ekuatan	-11.4385
▁Aziz	-11.4388
▁Aja	-11.4388
▁Erdogan	-11.4391
▁Lembong	-11.4391
▁fosil	-11.4391
▁reputasi	-11.4391
▁sarjana	-11.4391
lumpuh	-11.4391
▁Klinik	-11.4391
▁Makmur	-11.4391
▁Summit	-11.4391
▁berlindung	-11.4391
▁substansi	-11.4391
▁depresi	-11.4391
▁Himpun	-11.4391
▁memberitahu	-11.4391
▁Eng	-11.4391
▁Brawijaya	-11.4391
▁(10/10)	-11.4391
▁Hubner	-11.4391
▁(1/10)	-11.4391
influencer	-11.4391
▁suaka	-11.4392
▁rock	-11.4394
CP	-11.4395
▁Milo	-11.4397
▁diingat	-11.4398
▁Jun	-11.4399
▁harapannya	-11.4401
ongres	-11.4401
▁Tip	-11.4402
▁Panas	-11.4402
▁mengkriti	-11.4403
▁JK	-11.4405
nonaktif	-11.4408
tara	-11.4413
PPK	-11.4417
▁Mike	-11.4418
▁mah	-11.4418
Ber	-11.442
endang	-11.4422
▁Sand	-11.4423
▁kedekatan	-11.4424
agam	-11.4425
▁komit	-11.4428
▁Marul	-11.443
▁ICC	-11.4433
▁Jen	-11.4434
▁mula	-11.4436
▁aksinya	-11.4438
▁$2	-11.4438
▁Toba	-11.4441
▁JI	-11.4443
▁LSI	-11.4446
▁BNPB	-11.4447
▁Yesu	-11.4447
▁penyu	-11.4448
▁Hang	-11.445
▁dihapus	-11.4453
▁BUMD	-11.4456
▁ring	-11.4465
esok	-11.4467
▁way	-11.4471
▁Bro	-11.4472
umbung	-11.4474
▁diresmikan	-11.4477
tage	-11.4477
struktur	-11.4478
▁bakteri	-11.448
▁Datar	-11.4482
kolam	-11.449
▁ger	-11.4493
▁Khalifa	-11.4496
▁penanggu	-11.4497
ampang	-11.4498
aging	-11.4499
dedikasi	-11.45
egitimasi	-11.4503
revitalisasi	-11.4503
▁Kandidat	-11.4503
▁Klasemen	-11.4503
▁margin	-11.4503
▁nenek	-11.4503
▁arsitek	-11.4503
embantai	-11.4503
▁Poli	-11.4504
Jangan	-11.4504
▁Susilo	-11.4504
▁Yakin	-11.4505
▁Pilar	-11.4506
▁kasasi	-11.4507
▁Pinang	-11.4507
rakyat	-11.4507
▁Beasiswa	-11.4508
▁perunggu	-11.451
▁PBSI	-11.4511
ett	-11.4512
▁Sita	-11.4512
merangkul	-11.4514
embalasan	-11.4514
gum	-11.4516
▁mere	-11.4516
▁Lawang	-11.4517
▁pengasuh	-11.4517
▁jati	-11.4518
gulingkan	-11.4518
▁4.000	-11.4518
▁syah	-11.452
▁robot	-11.452
iringi	-11.452
▁terlambat	-11.4522
ple	-11.4527
enuntut	-11.4529
▁Vari	-11.4536
▁Tuju	-11.4539
old	-11.4542
▁Kos	-11.4542
anugerah	-11.4548
ving	-11.455
▁Adik	-11.4551
▁zonasi	-11.4552
big	-11.4554
▁Long	-11.4557
▁Terjadi	-11.4557
lapak	-11.4562
jenis	-11.4564
▁TI	-11.4566
NC	-11.4568
▁asuh	-11.4574
▁RM	-11.4575
▁Balik	-11.4576
landa	-11.4591
▁politiknya	-11.4592
▁Big	-11.4593
urai	-11.4594
▁Qur	-11.46
cut	-11.46
▁loga	-11.46
▁Philip	-11.4601
▁tubuhnya	-11.4602
▁OPD	-11.4603
▁maksim	-11.4611
pelopor	-11.4612
kemudi	-11.4613
▁PHPU	-11.4613
git	-11.4616
▁(14/8)	-11.4617
▁(24/7)	-11.4617
▁Ariotedjo	-11.4617
▁Guterres	-11.4617
▁Kategori	-11.4617
▁Manggarai	-11.4617
▁Norwegia	-11.4617
▁Penumpang	-11.4617
▁Terungkap	-11.4617
▁renovasi	-11.4617
▁Longsor	-11.4617
▁keponakan	-11.4617
▁Beauty	-11.4617
▁Hevea	-11.4617
▁Travel	-11.4617
▁Transmigrasi	-11.4617
▁Perkara	-11.4617
▁Bontang	-11.4617
▁Tawar	-11.4618
▁liput	-11.4618
/3/2024).	-11.4618
▁Grab	-11.4619
▁Sunar	-11.462
▁wayang	-11.462
▁Cip	-11.4622
▁Maming	-11.4623
▁sumbang	-11.4623
ence	-11.4623
▁acuan	-11.4623
▁Komarud	-11.4624
▁pantauan	-11.4626
onsep	-11.4626
▁open	-11.4628
▁Gran	-11.4629
▁kumpul	-11.4637
iuran	-11.4638
issa	-11.4643
bicarakan	-11.4648
SMKN	-11.4651
inum	-11.4652
▁Jet	-11.4652
cegah	-11.4654
▁Lain	-11.4654
▁OJK	-11.4654
▁proyeksi	-11.4655
▁Jiwa	-11.4655
▁Mayat	-11.4656
▁Yog	-11.4656
SAR	-11.4664
▁Puri	-11.4668
▁Devi	-11.4673
▁TC	-11.4675
candu	-11.4686
▁Derma	-11.4692
▁kelak	-11.4706
90	-11.4706
light	-11.4713
▁andal	-11.4716
▁vi	-11.4717
angkir	-11.4726
▁pembek	-11.4727
▁Buddha	-11.4731
▁Challenge	-11.4731
▁Kapuas	-11.4731
▁Lengkap	-11.4731
▁Penembakan	-11.4731
▁ketahui	-11.4731
▁Hotman	-11.4731
▁Mengaku	-11.4732
isolasi	-11.4732
▁Network	-11.4732
▁Carolina	-11.4732
kloter	-11.4732
▁Paniai	-11.4732
▁Arsip	-11.4732
▁Imlek	-11.4732
▁Nelayan	-11.4732
lpiji	-11.4732
▁menyerta	-11.4732
▁Space	-11.4732
▁Prihadi	-11.4732
▁Jansen	-11.4732
▁DNA	-11.4732
▁Pemelihara	-11.4733
▁Bergerak	-11.4734
nduk	-11.4734
▁23:0	-11.4734
▁begal	-11.4734
nindya	-11.4735
▁23:1	-11.4736
▁Mocham	-11.4736
▁HIV	-11.4737
takluk	-11.4737
banjir	-11.4739
▁sandar	-11.4739
▁Pasir	-11.474
▁UEA	-11.474
▁(26/1)	-11.474
▁Mendagri	-11.4741
▁ular	-11.4741
▁Rivan	-11.4741
▁Andy	-11.4742
Giri	-11.4742
▁lambung	-11.4746
▁Motif	-11.4747
buk	-11.4748
▁Tru	-11.4749
▁Kemitraan	-11.4749
▁Titik	-11.4751
▁berteriak	-11.4753
▁Album	-11.4758
▁5%	-11.476
▁pemicu	-11.4761
▁susun	-11.4761
guru	-11.4761
▁Lai	-11.4765
endahara	-11.4768
meluk	-11.4769
▁Batakan	-11.4771
▁jera	-11.4772
▁rujuk	-11.4776
UMP	-11.4779
▁Jap	-11.4781
▁Angg	-11.4781
PAN	-11.4789
HE	-11.4797
▁Lok	-11.4797
andangan	-11.4797
▁Sura	-11.4797
▁Tam	-11.4798
▁Rel	-11.48
▁Pileg	-11.4808
▁Mala	-11.4812
▁Bangunan	-11.4828
▁DPT	-11.483
rta	-11.4831
▁(2)	-11.4832
▁Juan	-11.4838
▁degradasi	-11.4841
apu	-11.4841
▁Harry	-11.4842
▁112	-11.4842
▁terbaiknya	-11.4846
▁(10/9)	-11.4848
▁(27/6)	-11.4848
▁(29/1)	-11.4848
▁(5/4)	-11.4848
▁Edwin	-11.4848
▁Mimika	-11.4848
▁Pentagon	-11.4848
▁cuci	-11.4848
▁kelelahan	-11.4848
▁Pensiun	-11.4848
▁SWT	-11.4848
▁berlayar	-11.4848
▁QRIS	-11.4848
▁umpan	-11.4848
▁penyuluh	-11.4848
▁Aurel	-11.4848
▁buaya	-11.4848
kerumun	-11.4848
alin	-11.4848
Seminar	-11.4848
▁Hamid	-11.4849
▁kerajaan	-11.4849
▁Len	-11.4849
▁Ry	-11.4849
▁Catat	-11.485
▁Alfian	-11.485
▁Ibn	-11.485
uwono	-11.4852
▁(22/8)	-11.4855
cho	-11.4856
▁Pilihan	-11.4857
Pasifik	-11.4857
remeh	-11.4858
▁Pembuka	-11.4861
▁Konon	-11.4862
▁heran	-11.4862
▁Yas	-11.4863
▁merokok	-11.4863
▁road	-11.4866
ransaksi	-11.4868
▁Kedung	-11.4868
▁bervariasi	-11.4871
▁MG	-11.4874
▁Harapannya	-11.4878
tom	-11.488
▁Fitr	-11.4883
sek	-11.4883
▁tr	-11.4886
▁Risk	-11.4891
angsa	-11.4892
▁TPA	-11.4893
▁Bakauheni	-11.4895
▁mili	-11.4897
erti	-11.4898
▁Lahan	-11.4901
erayaan	-11.4902
ungku	-11.4914
▁Beliau	-11.4916
sep	-11.4918
▁Bre	-11.4918
▁SS	-11.4919
▁00:0	-11.492
▁mengo	-11.493
▁Anna	-11.4937
▁Wat	-11.4937
▁Wid	-11.4939
▁ikat	-11.4942
ella	-11.4944
▁Hospital	-11.4945
▁Match	-11.4945
47	-11.4948
tina	-11.4949
▁Coba	-11.4952
▁Hor	-11.4953
gga	-11.4955
mbung	-11.4956
putra	-11.4963
limpiade	-11.4964
▁Tomo	-11.4965
▁Penandatangan	-11.4965
▁(12/12)	-11.4965
▁(20/3)	-11.4965
▁Klungkung	-11.4965
▁Lewotobi	-11.4965
▁Permintaan	-11.4965
▁Suherman	-11.4965
▁pelosok	-11.4965
▁Pictures	-11.4965
▁telinga	-11.4965
▁(23/12)	-11.4965
▁propagand	-11.4965
▁TPNPB	-11.4965
▁Natuna	-11.4966
▁Val	-11.4966
▁penyelamat	-11.4966
▁senada	-11.4966
mutakhir	-11.4966
▁berangin	-11.4966
hadapi	-11.4966
▁Stree	-11.4966
▁JAYA	-11.4967
▁land	-11.4968
▁22:4	-11.4968
▁Pemalang	-11.4969
▁Trade	-11.4969
▁Acep	-11.4969
▁Makkah	-11.497
cik	-11.4971
▁Mengingat	-11.4973
▁(5/11)	-11.4974
▁Wah	-11.4975
▁Baba	-11.4979
▁Gelo	-11.498
DKPP	-11.498
dalih	-11.4981
Ter	-11.4982
riadi	-11.4983
▁Beach	-11.4984
▁170	-11.4984
tarung	-11.499
encinta	-11.499
siap	-11.4992
▁Feri	-11.4992
gembira	-11.4994
▁4%	-11.4994
▁semalam	-11.5001
▁Delapan	-11.5002
▁Bala	-11.5003
▁Mat	-11.5006
▁tertua	-11.5006
▁Sule	-11.501
▁Sup	-11.5013
▁berdur	-11.5014
elusuri	-11.5014
▁Ning	-11.5016
istan	-11.5017
▁Nak	-11.5017
pus	-11.502
▁92	-11.5022
dium	-11.5022
mall	-11.5024
IDI	-11.5032
MD	-11.5033
▁Dau	-11.5035
▁manfaatnya	-11.5039
▁Suswono	-11.5039
▁Times	-11.504
star	-11.5041
▁Mang	-11.5051
plai	-11.5053
pasangan	-11.506
ahera	-11.5062
▁1,2	-11.5063
▁Nick	-11.507
pengaruhi	-11.5073
ojol	-11.5079
▁bumbu	-11.508
▁Kadis	-11.5081
▁(20/5)	-11.5084
▁(24/6)	-11.5084
▁(29/7)	-11.5084
▁Edukasi	-11.5084
▁Keimigrasian	-11.5084
▁Yoyok	-11.5084
▁diperuntuk	-11.5084
▁terhindar	-11.5084
▁Marsudi	-11.5084
▁estate	-11.5084
▁Jeruk	-11.5084
▁(4/11)	-11.5085
▁Optimistis	-11.5085
▁UKT	-11.5085
▁memasak	-11.5085
▁Ahme	-11.5085
▁Ledakan	-11.5085
▁Tabrak	-11.5085
▁Maduro	-11.5085
▁North	-11.5086
▁gotong	-11.5086
▁Keberadaa	-11.5088
▁perlahan	-11.5088
▁Sedunia	-11.5092
ista	-11.5093
mencintai	-11.5093
▁Firman	-11.5093
▁Alvin	-11.5094
cokelat	-11.5094
malukan	-11.5094
▁beralas	-11.5095
KIM	-11.5095
▁Mendukung	-11.5095
▁peraga	-11.5097
amapta	-11.5097
▁2000	-11.5098
URA	-11.5099
▁insan	-11.51
TAR	-11.5101
Nanti	-11.5103
▁Dico	-11.5104
NTB	-11.5104
/03)	-11.5107
payung	-11.5107
▁Fashi	-11.5108
etail	-11.5109
▁pemula	-11.5109
ritual	-11.5111
▁Home	-11.5111
▁Berbagi	-11.5115
entar	-11.5115
▁pembu	-11.5115
posting	-11.5116
FA	-11.5118
▁Tayang	-11.512
tanggul	-11.5123
erson	-11.5123
▁Wu	-11.5124
ardi	-11.5124
▁disebar	-11.5126
wanti	-11.5126
▁KRI	-11.5127
serang	-11.5129
Densus	-11.5134
▁teratur	-11.5135
▁WA	-11.5135
▁2018.	-11.5135
nyanyi	-11.5139
▁plus	-11.5142
▁House	-11.5143
▁legislat	-11.5144
▁110	-11.5146
▁Stan	-11.5147
badan	-11.5147
▁Rencananya	-11.5148
ops	-11.515
▁Mulya	-11.5161
▁MT	-11.5162
▁MoU	-11.5167
erseorangan	-11.5171
▁Kubu	-11.5171
eth	-11.5173
utar	-11.5174
informasi	-11.5177
▁Ring	-11.518
▁Mali	-11.518
imbau	-11.5181
▁Bay	-11.5186
▁Pergu	-11.5188
▁Zam	-11.5189
▁JIS	-11.5189
harusnya	-11.5189
ngusir	-11.5189
▁FA	-11.5193
▁label	-11.5195
sport	-11.5196
▁perak	-11.52
qi	-11.52
▁Fernand	-11.5202
asaran	-11.5204
blusukan	-11.5205
curanmor	-11.5205
interogasi	-11.5205
▁(11/12)	-11.5205
▁(21/8)	-11.5205
▁(28/3)	-11.5205
▁(3/7)	-11.5205
▁(30/4)	-11.5205
▁(5/3)	-11.5205
▁Gilbert	-11.5205
▁Investigasi	-11.5205
▁Kertanegara	-11.5205
▁Penindakan	-11.5205
▁Taylor	-11.5205
▁perpecahan	-11.5205
▁Purnomo	-11.5205
▁Samsung	-11.5205
▁macet	-11.5205
▁seluler	-11.5205
▁Ratna	-11.5205
▁Fajri	-11.5205
▁Tabungan	-11.5205
▁pedesaan	-11.5205
artono	-11.5205
▁Operation	-11.5206
▁Biaya	-11.5206
▁puluh	-11.5206
▁Imran	-11.5207
▁Lahir	-11.5207
mark	-11.5209
▁1973	-11.5209
▁Bersatu	-11.5209
encana	-11.5209
▁Perbatasan	-11.5211
▁Pemenang	-11.5211
▁Saint	-11.5211
▁terpadu	-11.5212
▁cair	-11.5213
▁restu	-11.5213
▁(28/1)	-11.5213
Sehingga	-11.5216
▁dijalani	-11.5216
HC	-11.5222
ctor	-11.5222
▁Oil	-11.5224
▁pengarah	-11.5224
SMK	-11.5226
▁Abi	-11.5227
Program	-11.5229
▁silat	-11.523
▁ekonom	-11.5231
papar	-11.5234
▁Bru	-11.524
temannya	-11.5243
▁magnitud	-11.5246
▁Ansar	-11.5247
ndati	-11.5248
yah	-11.5252
▁Alfa	-11.5262
▁batasan	-11.5263
▁swa	-11.5263
▁komis	-11.5264
teliti	-11.5267
gre	-11.5267
▁Wall	-11.5269
▁gara	-11.5273
▁Qi	-11.5273
TN	-11.5281
▁Future	-11.5281
enangan	-11.5286
▁Maru	-11.5287
overnance	-11.5289
▁Teman	-11.5289
▁BPS	-11.529
300	-11.5296
▁year	-11.5298
48	-11.5298
azz	-11.53
suara	-11.531
hilangan	-11.5311
erahan	-11.5312
▁Nabila	-11.5316
▁Palangka	-11.5318
▁Ancaman	-11.5321
▁Swift	-11.5323
resahkan	-11.5323
▁05:0	-11.5323
▁Kemang	-11.5324
▁Tentunya	-11.5325
▁130	-11.5326
dcast	-11.5327
▁(14/5)	-11.5327
▁(23/9)	-11.5327
▁(25/4)	-11.5327
▁(6/9)	-11.5327
▁(8/8)	-11.5327
▁Firdaus	-11.5327
▁Guinea	-11.5327
▁Internet	-11.5327
▁Investor	-11.5327
▁Pengakuan	-11.5327
▁diselidiki	-11.5327
▁Perkebunan	-11.5327
▁Sragen	-11.5327
▁Properti	-11.5327
▁Ujung	-11.5327
▁Meranti	-11.5327
▁Vatikan	-11.5327
▁Positif	-11.5327
▁Septian	-11.5327
awai	-11.5327
beragaman	-11.5327
▁Mesin	-11.5327
▁Guntur	-11.5327
▁Wilson	-11.5328
▁menular	-11.5328
▁mulia	-11.5328
▁kios	-11.5329
▁head	-11.5329
▁purna	-11.533
bimbing	-11.533
▁laun	-11.5331
▁dicari	-11.5332
▁Parkir	-11.5333
▁Pernah	-11.5335
▁kuno	-11.5335
▁Prana	-11.5336
▁baliho	-11.5336
jiang	-11.5336
▁perekrut	-11.5336
▁tawar	-11.5337
▁Donny	-11.5337
▁profil	-11.5338
▁Terancam	-11.5339
▁Untung	-11.5341
▁Bursa	-11.5343
▁menumbuhk	-11.5343
▁Toh	-11.5344
▁lelah	-11.5344
sol	-11.5347
row	-11.5348
▁20.00	-11.5349
▁Sido	-11.535
▁Wei	-11.535
zza	-11.535
▁1,3	-11.5351
▁Penduduk	-11.5353
▁BPOM	-11.5353
▁sponsor	-11.5354
musim	-11.5355
▁Wen	-11.5356
▁Penuh	-11.5357
▁camp	-11.5361
luas	-11.5362
lobi	-11.5364
▁Suma	-11.5368
▁3%	-11.5369
▁Pant	-11.5375
▁Melay	-11.5377
▁Tanggap	-11.5377
▁Fan	-11.5378
▁perhi	-11.5378
▁DR	-11.5379
lacak	-11.538
▁Prasta	-11.5382
isisi	-11.5382
▁legisla	-11.5386
▁memes	-11.5389
▁Masing	-11.5389
penghubung	-11.5391
arena	-11.5394
roaktif	-11.5398
▁Cabu	-11.5399
▁kekasihnya	-11.5409
/5/2024).	-11.5413
▁Bra	-11.5414
▁Revi	-11.5415
engemudi	-11.5418
▁Ok	-11.5419
▁puing	-11.542
▁Penyidikan	-11.5422
▁har	-11.5425
▁Mina	-11.5427
▁Sinergi	-11.5432
▁14.00	-11.5435
▁Sai	-11.5436
▁PKPU	-11.5438
▁Comm	-11.5447
▁hilir	-11.5449
▁Aqua	-11.545
TF	-11.545
▁Freeport	-11.545
▁Independen	-11.545
▁Taipei	-11.545
▁beribadah	-11.545
▁kosmetik	-11.545
▁kudeta	-11.545
▁(11/11)	-11.545
▁(4/12)	-11.545
Dimyati	-11.545
▁Senada	-11.545
▁mendongk	-11.545
▁Delega	-11.5451
▁Putaran	-11.5451
▁Mariska	-11.5451
wisma	-11.5451
▁Tembak	-11.5451
://	-11.5451
▁Kalbar	-11.5451
▁Asnaw	-11.5451
KASI	-11.5451
mpo	-11.5451
▁Asmaw	-11.5451
kecil	-11.5452
▁diakhiri	-11.5452
▁11:5	-11.5452
▁Bentuk	-11.5453
▁Shah	-11.5454
▁ny	-11.5455
kim	-11.5456
▁Perindo	-11.5458
▁Amanda	-11.5458
▁Coun	-11.546
▁(6/2)	-11.5462
▁Tek	-11.5462
▁Usia	-11.5465
▁Alih	-11.5466
polis	-11.5468
▁ABK	-11.5469
nopol	-11.5469
aq	-11.5469
PANRB	-11.5472
▁Bone	-11.5473
Muba	-11.5474
▁dibakar	-11.5479
▁Manu	-11.5479
▁Egi	-11.5479
yati	-11.5481
▁gard	-11.5481
bahasa	-11.5483
pendidikan	-11.5483
Sumut	-11.5487
▁anto	-11.5487
▁kecam	-11.5487
▁Cari	-11.5489
puing	-11.5491
jing	-11.5495
▁daratan	-11.5495
egu	-11.5495
format	-11.5501
ARAT	-11.5501
▁Beda	-11.5502
ncing	-11.5505
▁Kara	-11.5506
esel	-11.5515
▁Merc	-11.5516
▁ditunggu	-11.5523
▁Bis	-11.5527
matang	-11.5528
▁Dal	-11.5529
▁Kala	-11.5532
▁Setiba	-11.5534
WA	-11.5537
▁Artis	-11.5541
▁TE	-11.5544
▁(17)	-11.555
encapaian	-11.5554
mau	-11.5554
▁Riva	-11.5555
▁Jum	-11.5556
mogok	-11.5557
endera	-11.5558
▁bocor	-11.5559
shop	-11.556
▁0.	-11.556
pung	-11.5561
OD	-11.5562
/4/2024).	-11.5563
Candy	-11.5564
▁Panggil	-11.5566
▁Anji	-11.5572
▁kara	-11.5574
▁Relations	-11.5574
Forkopimda	-11.5575
bullying	-11.5575
practice	-11.5575
▁(2/1)	-11.5575
▁(3/2)	-11.5575
▁(4/6)	-11.5575
▁Hamzah	-11.5575
▁Kominfo	-11.5575
▁Penurunan	-11.5575
▁menakluk	-11.5575
▁http	-11.5575
▁Dagang	-11.5575
▁Status	-11.5575
▁kalori	-11.5575
▁(13/3)	-11.5575
▁sistematis	-11.5575
▁diberhentikan	-11.5575
▁Komedi	-11.5575
▁sinar	-11.5576
▁Samudr	-11.5576
▁diminati	-11.5576
▁Belasan	-11.5577
▁Asmat	-11.5577
dapil	-11.5578
▁Yunus	-11.5579
▁11:2	-11.558
▁12:2	-11.5581
▁valid	-11.5584
use	-11.5588
▁Love	-11.5589
▁Arhan	-11.5591
▁Moch	-11.5593
▁Penyelidikan	-11.5594
anjar	-11.5594
▁East	-11.5595
tuju	-11.5598
▁dihimpun	-11.5599
▁kubur	-11.5602
umba	-11.5602
▁HM	-11.5605
istirahat	-11.5612
EV	-11.5615
bidang	-11.5616
▁sebabnya	-11.562
▁Keter	-11.5623
▁ikon	-11.5628
meja	-11.563
▁TPPO	-11.5631
rasa	-11.5632
▁Panda	-11.5633
▁orasi	-11.5634
PW	-11.5642
halal	-11.5647
kelanjutan	-11.5649
▁Abo	-11.565
▁panda	-11.565
▁interak	-11.5652
▁2023)	-11.5652
RSUP	-11.5655
ggi	-11.5655
▁Nurma	-11.5655
▁memadu	-11.5656
atap	-11.5658
▁Kolek	-11.5658
tinjau	-11.5659
rintis	-11.5661
SOP	-11.5669
KBRI	-11.5671
▁196	-11.5673
timbun	-11.5673
PPN	-11.5677
fir	-11.5679
ledak	-11.568
▁keliru	-11.5682
Aku	-11.5683
aripurna	-11.5684
▁Mama	-11.5685
▁Cuma	-11.5687
pasar	-11.5687
▁resep	-11.5688
suruh	-11.5691
▁genera	-11.5699
▁dianiaya	-11.5701
▁konvensi	-11.5702
▁(1/8)	-11.5702
▁(12/9)	-11.5702
▁(21/5)	-11.5702
▁(24/9)	-11.5702
▁(26/3)	-11.5702
▁(31/5)	-11.5702
▁(5/12)	-11.5702
▁Citroen	-11.5702
▁Pandjaitan	-11.5702
▁Pedagang	-11.5702
▁Pelalawan	-11.5702
▁Training	-11.5702
▁terpencil	-11.5702
▁menoreh	-11.5702
coklit	-11.5702
▁Otto	-11.5702
▁Ipul	-11.5702
▁travel	-11.5702
▁pisau	-11.5702
▁Singaraja	-11.5702
▁(21/11)	-11.5702
▁Masiku	-11.5702
▁tropis	-11.5702
▁Sanusi	-11.5702
▁(18/10)	-11.5702
▁interior	-11.5702
inetron	-11.5702
▁tumpang	-11.5703
▁Pintar	-11.5703
▁leher	-11.5703
▁Melind	-11.5703
▁Drone	-11.5704
▁Doktor	-11.5705
▁pemesan	-11.5706
▁serba	-11.5708
▁0,5	-11.5709
▁Natalia	-11.571
anggur	-11.571
▁Strike	-11.5711
▁Hunt	-11.5711
Bapanas	-11.5712
tribut	-11.5716
odo	-11.5716
▁Pohon	-11.5718
▁kokoh	-11.5718
rahasia	-11.5719
▁Sebenarnya	-11.5722
lemahan	-11.5722
▁Ramdan	-11.5722
lambat	-11.5728
▁Fun	-11.5733
▁Orde	-11.5738
▁membayang	-11.5738
vir	-11.5739
sono	-11.5743
▁Datang	-11.5744
wisata	-11.5745
dialog	-11.5745
life	-11.5745
ciri	-11.5748
▁akomodasi	-11.5752
desain	-11.5753
▁mempercaya	-11.5754
▁sc	-11.5755
enyampai	-11.5756
▁Inf	-11.5757
arto	-11.5759
misi	-11.5759
▁Sustainab	-11.5763
▁jilbab	-11.5768
PMI	-11.5774
uting	-11.5775
pang	-11.5778
▁sekutunya	-11.578
buku	-11.5781
ntong	-11.5784
▁Ruk	-11.5789
SKB	-11.579
ique	-11.5791
▁Perta	-11.5797
▁Krea	-11.58
rop	-11.5804
▁MAN	-11.5811
kerjasama	-11.5812
▁Hendi	-11.5819
▁balas	-11.582
▁AU	-11.5821
bobol	-11.5829
▁Product	-11.583
▁crypto	-11.583
▁(17/12)	-11.583
▁(19/8)	-11.583
▁(22/7)	-11.583
▁(26/4)	-11.583
▁(29/4)	-11.583
▁(8/11)	-11.583
▁Kebutuhan	-11.583
▁Legislator	-11.583
▁Morowali	-11.583
▁Rekomendasi	-11.583
▁Vokasi	-11.583
▁iPhone	-11.583
▁Lutfi	-11.583
▁jeruk	-11.583
▁(22/11)	-11.583
▁(31/12)	-11.583
▁1997	-11.583
▁Mekaar	-11.583
▁Nganjuk	-11.583
▁green	-11.583
jodoh	-11.583
Kodim	-11.583
▁konfronta	-11.5831
▁royong	-11.5831
▁2-0	-11.5832
▁Nathan	-11.5833
KU	-11.5833
pemanasan	-11.5833
▁Teb	-11.5833
▁khasiat	-11.5834
inus	-11.5835
HMI	-11.5836
roh	-11.5836
▁(31/1)	-11.5839
▁Suhu	-11.5841
▁tetangganya	-11.5842
▁Jhon	-11.5843
▁Peringkat	-11.5846
▁Mill	-11.585
▁Domin	-11.5858
▁Jean	-11.5866
▁Srikan	-11.5869
▁susulan	-11.5872
▁Ani	-11.5873
▁Mahmud	-11.5876
BKPSDM	-11.5876
balas	-11.5877
keluarga	-11.5878
pidato	-11.588
smelter	-11.5883
▁Jeje	-11.5884
KRL	-11.5886
banggakan	-11.589
arar	-11.5893
▁TP	-11.5894
▁Black	-11.5897
▁Son	-11.5901
▁Dedie	-11.5904
prospek	-11.5909
▁TJSL	-11.5909
Plt	-11.591
SM	-11.5911
▁ekstra	-11.5914
haram	-11.5919
▁LHKPN	-11.592
▁tani	-11.5922
▁diperbaiki	-11.5929
▁Aria	-11.5929
▁harmonis	-11.5932
abung	-11.5938
laba	-11.594
ertambangan	-11.5944
▁mutu	-11.5944
▁Federa	-11.5944
▁sebutnya	-11.5946
▁PPA	-11.5952
▁administra	-11.5952
▁Francisc	-11.5954
▁197	-11.5958
EK	-11.5959
▁Jeff	-11.5959
▁hidro	-11.596
GN	-11.596
▁Stephan	-11.596
manipulasi	-11.596
▁(11/6)	-11.596
▁(18/9)	-11.596
▁(7/3)	-11.596
▁(7/5)	-11.596
▁(7/8)	-11.596
▁Borobudur	-11.596
▁Cartenz	-11.596
▁Khamenei	-11.596
▁Struick	-11.596
▁TASPEN	-11.596
▁Microsoft	-11.596
▁Ballroom	-11.596
▁Kebangsaan	-11.596
▁(6/11)	-11.596
▁nyamuk	-11.596
▁Hasina	-11.596
▁Trisakti	-11.5961
▁Kartini	-11.5961
▁OKU	-11.5962
▁Vance	-11.5962
▁AW	-11.5964
RW	-11.5964
▁Misa	-11.5965
EON	-11.5966
▁Lang	-11.5967
▁Zainal	-11.5968
▁Permata	-11.5968
junta	-11.5968
▁industrial	-11.5969
acana	-11.5969
PAC	-11.5969
▁8.000	-11.5971
▁Elly	-11.5971
▁rinci	-11.5972
▁mode	-11.5976
runtuhan	-11.5977
▁dendam	-11.5979
▁Dante	-11.598
▁dicabut	-11.598
▁SEA	-11.5985
▁Supra	-11.5987
▁pembunuh	-11.5988
kema	-11.5995
IV	-11.5995
▁Mart	-11.5996
▁vokasi	-11.5997
▁Binaan	-11.6001
▁Vol	-11.6004
deng	-11.6004
▁Gre	-11.6005
▁menyanyi	-11.6006
atri	-11.6011
TJSL	-11.6011
▁OPM	-11.6012
Tersangka	-11.6013
semangat	-11.6013
▁Oh	-11.6013
Malam	-11.6014
▁Haja	-11.6018
▁Cal	-11.6018
RPP	-11.6019
▁mala	-11.602
▁Binsa	-11.6021
laka	-11.6022
Salah	-11.6022
JP	-11.6023
atch	-11.6024
sumpah	-11.6025
▁LA	-11.6028
▁Sultra	-11.6037
▁jok	-11.6038
utara	-11.6039
ahwa	-11.6039
Dance	-11.604
▁tuna	-11.605
▁bibi	-11.6053
▁berkarya	-11.6057
LN	-11.6059
▁Semangat	-11.606
▁350	-11.6062
park	-11.6065
RK	-11.6068
▁2.0	-11.607
▁BAN	-11.6075
▁Modern	-11.6077
▁hektar	-11.6078
aset	-11.6081
wakil	-11.6081
▁SN	-11.6087
trofi	-11.6087
/04)	-11.6088
▁(16/1)	-11.6092
▁(19/1)	-11.6092
▁(19/9)	-11.6092
▁(27/5)	-11.6092
▁(31/7)	-11.6092
▁Arsenal	-11.6092
▁Gresini	-11.6092
▁Rupiah	-11.6092
▁Tyasmara	-11.6092
▁payudara	-11.6092
▁PGRI	-11.6092
▁Angkut	-11.6092
akumulasi	-11.6092
▁(18/11)	-11.6092
▁penyiar	-11.6092
▁LAMP	-11.6092
▁regist	-11.6092
ibility	-11.6092
▁Hindia	-11.6092
▁Thom	-11.6092
▁LPSK	-11.6092
▁Gudang	-11.6093
▁esensi	-11.6093
▁Priok	-11.6093
▁patung	-11.6093
▁Tes	-11.6094
▁home	-11.6094
▁Sak	-11.6094
▁Syarat	-11.6095
▁lapas	-11.6096
▁basah	-11.6096
▁informal	-11.6097
▁Pertimbang	-11.6097
▁surut	-11.6097
▁bahu	-11.61
▁pend	-11.6102
▁Irian	-11.6109
▁fe	-11.6111
▁Tulang	-11.6112
TT	-11.6112
Intinya	-11.6113
▁Wind	-11.6113
▁2026.	-11.6113
Kemenkeu	-11.6117
▁Komentar	-11.6117
bayang	-11.6121
▁Muh	-11.6123
elepon	-11.6124
gate	-11.6129
▁Sopir	-11.613
▁soft	-11.6132
yasan	-11.6133
▁play	-11.6134
▁Syur	-11.614
race	-11.6142
▁Kandung	-11.6142
▁Peru	-11.615
▁peti	-11.615
▁Agustin	-11.615
posisi	-11.6152
HUT	-11.6152
▁asu	-11.6154
▁diuji	-11.6156
detik	-11.6166
▁Abdi	-11.6166
▁(23)	-11.6167
▁paru	-11.6172
▁Kum	-11.6173
terjunkan	-11.6175
angkis	-11.6176
mantap	-11.6176
▁Bob	-11.6177
▁berkes	-11.6179
enia	-11.6179
dosa	-11.6181
▁caranya	-11.6181
▁segalanya	-11.6182
OL	-11.6185
IIA	-11.6188
mond	-11.6188
▁Christ	-11.6193
board	-11.6193
giring	-11.6197
▁Farid	-11.6198
BCL	-11.6202
shu	-11.6203
emasyarakatan	-11.6205
▁Audi	-11.6205
▁kampanyenya	-11.6205
▁rub	-11.6206
▁amankan	-11.6212
ingkirkan	-11.6215
abulkan	-11.6215
▁Pad	-11.6216
penelusuran	-11.6217
▁Hadiri	-11.6218
tegak	-11.6218
▁MB	-11.6221
▁4,5	-11.6221
▁TPN	-11.6223
▁(1/2)	-11.6225
▁(10/2)	-11.6225
▁(2/7)	-11.6225
▁(21/3)	-11.6225
▁(29/5)	-11.6225
▁Faizal	-11.6225
▁mencuat	-11.6225
▁pornografi	-11.6225
▁siklus	-11.6225
▁NKRI	-11.6225
▁stigma	-11.6225
▁(20/11)	-11.6225
▁Kerugian	-11.6225
gosip	-11.6225
▁(17/10)	-11.6225
▁Aviv	-11.6226
▁Xiao	-11.6226
▁High	-11.6226
▁Wujud	-11.6226
▁06:4	-11.6226
▁ritel	-11.6226
▁Bersenjata	-11.6226
▁gang	-11.6229
mbara	-11.623
▁taksi	-11.6231
▁Pedro	-11.6231
▁Sheik	-11.6231
ofoli	-11.6231
▁rebus	-11.6231
▁Sof	-11.6235
▁flu	-11.6235
▁Visa	-11.6236
▁Ciro	-11.6237
BBM	-11.6237
▁Young	-11.6239
ulung	-11.624
▁Edaran	-11.6241
▁Peringat	-11.6241
▁teriak	-11.6248
▁wahan	-11.6249
ikal	-11.6249
▁Nina	-11.625
▁Roll	-11.6251
rawa	-11.6251
▁Arel	-11.6252
etakan	-11.6255
▁gan	-11.6255
▁sesaat	-11.6259
▁Duku	-11.6259
startup	-11.6262
▁Ramli	-11.6266
▁mengg	-11.6268
▁Sisa	-11.6272
membungkam	-11.6282
▁Penguat	-11.6282
▁pengera	-11.6284
pemuda	-11.629
Meski	-11.629
▁PIS	-11.629
▁Rohil	-11.6293
humas	-11.6295
mart	-11.6295
▁1%	-11.63
NU	-11.6301
DPP	-11.6305
una	-11.6305
▁BKPSDM	-11.6312
▁Ode	-11.6315
▁Tangga	-11.6316
▁dura	-11.6317
▁judul	-11.6319
▁Insan	-11.6338
14	-11.634
janjikan	-11.634
vy	-11.6341
ngerti	-11.6341
▁Kemenkominfo	-11.6342
▁Fre	-11.6343
max	-11.6345
side	-11.6348
▁Kirim	-11.635
BPS	-11.6351
TARA	-11.6355
GS	-11.6359
▁(12/8)	-11.636
▁(13/6)	-11.636
▁(17/7)	-11.636
▁(19/3)	-11.636
▁(19/6)	-11.636
▁(2/5)	-11.636
▁(23/8)	-11.636
▁(25/7)	-11.636
▁(6/8)	-11.636
▁(8/5)	-11.636
▁Intelligence	-11.636
▁Kenjeran	-11.636
▁Poltracking	-11.636
▁Siloam	-11.636
▁booth	-11.636
▁deportasi	-11.636
▁fesyen	-11.636
▁kebugaran	-11.636
▁tebing	-11.636
▁Lebong	-11.636
▁Silaturahmi	-11.636
▁Yakni	-11.636
▁(25/11)	-11.636
▁Amnest	-11.636
▁pengenal	-11.636
▁KARAWA	-11.636
▁Excellen	-11.636
▁dipulangkan	-11.636
▁Yasmin	-11.6361
▁revolusi	-11.6361
▁Lauren	-11.6361
▁Rudal	-11.6361
▁Women	-11.6361
▁State	-11.6361
▁kontingen	-11.6361
▁Sumargo	-11.6362
▁06:1	-11.6363
▁Lili	-11.6363
▁Sofia	-11.6364
▁Rossa	-11.6367
adik	-11.6369
▁penugasa	-11.637
▁Mans	-11.6371
▁kenegaraan	-11.6372
▁2016.	-11.6372
▁merinci	-11.6375
▁kafe	-11.6375
▁21.00	-11.6378
▁BK	-11.638
▁Tanggal	-11.638
▁1,4	-11.638
▁1,8	-11.6381
▁power	-11.6381
erpadu	-11.6382
wali	-11.6383
▁lok	-11.6384
erampasan	-11.6384
▁Dewata	-11.6385
▁KDRT	-11.6386
▁adiknya	-11.6391
off	-11.6394
uguh	-11.6395
▁900	-11.6398
bank	-11.64
film	-11.6402
▁rejo	-11.6403
agi	-11.6404
▁Belakangan	-11.6405
CU	-11.6406
▁Ide	-11.6408
▁Hub	-11.6411
▁Hid	-11.6412
▁kaus	-11.6416
MATA	-11.6417
▁pelanggar	-11.6418
ngko	-11.6418
▁Sumarn	-11.6422
▁house	-11.6425
mensi	-11.6425
▁Tarif	-11.6427
▁Des	-11.6428
JB	-11.6431
berlangsung	-11.6432
keras	-11.6432
pemain	-11.6432
kreasi	-11.6432
iq	-11.6433
sky	-11.6435
▁Rahmad	-11.6436
▁Mad	-11.6436
▁LS	-11.644
▁Lat	-11.644
deret	-11.6441
dikendalikan	-11.6442
▁berjaga	-11.6442
ulut	-11.6448
benteng	-11.645
▁Adil	-11.6451
wijaya	-11.6452
ugi	-11.6453
▁bela	-11.6458
▁alumn	-11.6466
▁FP	-11.6468
city	-11.6475
▁Tj	-11.6476
▁Pul	-11.6477
▁Pentingnya	-11.6484
▁Shar	-11.6485
pulau	-11.6489
▁Gani	-11.6493
▁mengemban	-11.6494
▁(10/5)	-11.6497
▁(14/3)	-11.6497
▁(6/12)	-11.6497
▁Hungaria	-11.6497
▁Lanjut	-11.6497
▁Nasrallah	-11.6497
▁Saudara	-11.6497
▁parfum	-11.6497
keberanian	-11.6497
▁Tubuh	-11.6497
▁nusantara	-11.6497
▁Diminta	-11.6497
hanyut	-11.6497
▁lutut	-11.6497
epotisme	-11.6497
Astrid	-11.6497
▁(21/10)	-11.6497
▁Klaten	-11.6497
▁geografi	-11.6497
▁Ghufr	-11.6497
SDGs	-11.6497
▁tempo	-11.6498
▁menginjak	-11.6498
▁Wardana	-11.6498
▁Faktor	-11.6499
▁Store	-11.6499
ej	-11.6499
oncong	-11.6499
▁Atau	-11.6499
endeta	-11.6499
▁takjil	-11.6499
▁2029	-11.6499
lebaran	-11.65
KN	-11.65
▁panik	-11.6503
▁budi	-11.6504
bukit	-11.6504
▁Dandan	-11.6504
▁(8/10)	-11.6504
PUU	-11.6505
▁Pemantau	-11.6505
▁Golf	-11.6506
▁Tuntut	-11.6506
MT	-11.6508
▁polio	-11.6508
▁Puasa	-11.6508
tandang	-11.6509
▁struktural	-11.6511
▁membeban	-11.6511
▁asa	-11.6512
▁penunjuk	-11.6512
▁berpa	-11.6513
adilan	-11.6515
ojok	-11.6516
▁Fade	-11.6516
▁1,6	-11.6517
hard	-11.652
erfilman	-11.6524
Tentu	-11.6526
satreskrim	-11.6526
▁Disebut	-11.6527
▁2005	-11.6528
▁lurus	-11.6529
tulus	-11.6532
▁Sky	-11.6534
stone	-11.6534
80	-11.6534
ondo	-11.6534
halang	-11.6536
▁Mawar	-11.6536
▁Salurkan	-11.6541
wah	-11.6541
jono	-11.6543
lani	-11.6543
ulus	-11.6545
eira	-11.6552
Aprilia	-11.6555
▁terukur	-11.6555
orak	-11.6555
▁prosesnya	-11.6556
▁Kawal	-11.6556
▁support	-11.6558
▁Nam	-11.656
▁eksploita	-11.656
▁Setya	-11.6561
RF	-11.6562
▁van	-11.6564
silaturahmi	-11.6572
cairan	-11.6573
Banyak	-11.6573
▁sedia	-11.6573
Hasil	-11.6573
OP	-11.6573
tuduh	-11.6575
▁kepula	-11.6576
▁(13/11).	-11.6581
▁Yen	-11.6582
jumpa	-11.6583
▁Kho	-11.6589
▁Sas	-11.6593
dem	-11.6598
▁(29/8).	-11.6598
▁Jenn	-11.6605
GM	-11.6617
adaban	-11.6618
▁berkah	-11.662
▁HR	-11.662
erjakan	-11.6624
▁UP	-11.6624
▁gun	-11.6627
▁poli	-11.6629
kamtibmas	-11.6636
mbarkasi	-11.6636
separatis	-11.6636
▁(10/7)	-11.6636
▁(22/5)	-11.6636
▁(4/2)	-11.6636
▁(6/3)	-11.6636
▁Kemanusiaan	-11.6636
▁Taufiq	-11.6636
▁Terlibat	-11.6636
▁akuntabel	-11.6636
▁manual	-11.6636
▁anonim	-11.6636
▁Purwokerto	-11.6636
▁(12/11)	-11.6636
▁(19/11)	-11.6636
▁Talent	-11.6636
▁Slank	-11.6636
▁Somalia	-11.6636
▁Gerbang	-11.6636
▁tendik	-11.6636
▁wafat	-11.6636
holding	-11.6636
▁Ambil	-11.6637
▁penyerap	-11.6638
Co	-11.6639
▁Sumadi	-11.6639
▁Hendro	-11.6639
▁bengkel	-11.6639
▁interaktif	-11.6639
▁vulkani	-11.6639
▁Corp	-11.6641
▁Pantura	-11.6642
▁Utomo	-11.6643
▁Demo	-11.665
ebus	-11.6651
▁tumpah	-11.6651
▁2,6	-11.6654
uver	-11.6655
▁pelat	-11.6657
▁Pari	-11.6661
▁Fadli	-11.6665
▁CAT	-11.6666
▁Semuanya	-11.6667
▁Leader	-11.6667
VI	-11.6669
▁Daru	-11.6671
▁Kalla	-11.6672
▁net	-11.6672
jenak	-11.6672
▁Jus	-11.6673
▁Menghadap	-11.6675
aparan	-11.6678
field	-11.668
Menhan	-11.6683
puk	-11.6685
PMK	-11.6692
paya	-11.6699
▁Danon	-11.6701
▁terpercaya	-11.6703
▁Kompolnas	-11.6703
▁kuri	-11.6705
▁WBP	-11.6707
laf	-11.6707
▁Kep	-11.6715
Zahr	-11.6715
▁Wit	-11.6715
UNI	-11.6716
tangguh	-11.6717
politik	-11.6718
Pak	-11.6719
Bagi	-11.672
BEM	-11.6722
Anak	-11.6724
▁heboh	-11.6726
argo	-11.6731
arbon	-11.6736
ndi	-11.6737
▁dihindari	-11.6738
kutip	-11.6741
onton	-11.6742
wira	-11.6742
fasilitasi	-11.6744
ette	-11.6745
▁Diddy	-11.6747
▁puji	-11.675
▁Munas	-11.6752
▁Beragam	-11.6752
25	-11.6755
LE	-11.6756
nsus	-11.6756
▁Bor	-11.6759
kit	-11.676
rmanto	-11.6762
zar	-11.6763
▁pekerjaannya	-11.6766
-24	-11.6766
bangsa	-11.6771
▁Rub	-11.6774
Pilwakot	-11.6777
olaboratif	-11.6777
▁(1/7)	-11.6777
▁(11/9)	-11.6777
▁(30/8)	-11.6777
▁(6/5)	-11.6777
▁(6/6)	-11.6777
▁Musyawara	-11.6777
▁Soviet	-11.6777
▁Tertinggal	-11.6777
▁Tridatu	-11.6777
▁ambruk	-11.6777
▁realistis	-11.6777
▁tembok	-11.6777
▁terealisasi	-11.6777
▁tersenyum	-11.6777
▁Sirait	-11.6777
▁terpecah	-11.6777
▁(7/11)	-11.6777
▁Dubai	-11.6777
▁memuaskan	-11.6777
▁tertunda	-11.6777
▁Lubis	-11.6777
▁berbakat	-11.6777
▁NASA	-11.6777
▁menerjunka	-11.6777
▁Younis	-11.6777
hidrasi	-11.6777
▁England	-11.6777
▁memberatkan	-11.6777
▁Operat	-11.6778
▁Kritik	-11.6778
▁memihak	-11.6778
▁Umrah	-11.6778
▁Keras	-11.6778
▁Regulasi	-11.6778
▁bodong	-11.6779
▁Josep	-11.678
▁menyewa	-11.678
lena	-11.678
▁Master	-11.6781
▁Korut	-11.6781
▁Mira	-11.6782
▁rekonstruksi	-11.6783
▁eksped	-11.6783
▁dimenang	-11.6784
▁Billy	-11.6785
▁Yason	-11.6786
▁Karyawan	-11.6786
▁Warung	-11.6788
dakwa	-11.6788
▁Mampang	-11.6789
▁1-2	-11.6789
▁kelemb	-11.679
rot	-11.679
▁Resort	-11.6792
▁iman	-11.6795
▁Sprint	-11.6797
aria	-11.6798
yar	-11.68
▁12.00	-11.6801
▁Arti	-11.6803
benahi	-11.6805
eum	-11.6806
▁Ut	-11.6811
▁memprak	-11.6815
▁pemantau	-11.6819
antap	-11.682
minasi	-11.6823
vest	-11.6825
kedar	-11.6827
▁Mako	-11.6827
Maka	-11.6845
enting	-11.6847
▁Farhat	-11.6848
▁Santo	-11.6849
inergitas	-11.6853
▁bang	-11.6854
▁Lomb	-11.6855
KEK	-11.6861
ohon	-11.6862
berat	-11.6864
elebgram	-11.6865
Israel	-11.6865
▁Mendes	-11.6867
▁pencabu	-11.6872
cepat	-11.6873
▁Syamsu	-11.6878
▁2017.	-11.6878
▁son	-11.6879
yudi	-11.688
▁02:	-11.6881
ova	-11.6888
ipu	-11.6891
▁Huta	-11.6891
enteng	-11.6894
▁Bayer	-11.6895
▁Jat	-11.6895
▁Bangga	-11.6896
▁Tahu	-11.6899
▁norma	-11.69
samping	-11.69
gub	-11.6903
ajud	-11.6907
mayan	-11.6914
col	-11.6918
▁(15/8)	-11.692
▁(18/4)	-11.692
▁(21/6)	-11.692
▁(3/12)	-11.692
▁(9/12)	-11.692
▁ASABRI	-11.692
▁Hybrid	-11.692
▁Ibadah	-11.692
▁Kishida	-11.692
▁mengeksplor	-11.692
▁(15/11)	-11.692
▁(31/10)	-11.692
▁Pembicaraan	-11.692
▁lemon	-11.692
omisili	-11.692
▁slogan	-11.692
▁Kirby	-11.692
▁Cerai	-11.692
▁Sinwar	-11.692
▁Salsha	-11.692
▁Hitam	-11.6921
▁pembata	-11.6921
▁Jatuh	-11.6921
▁Security	-11.6921
▁Sugianto	-11.6921
dalami	-11.6921
▁Tor	-11.6922
▁1980	-11.6922
▁Bayam	-11.6922
▁Peruri	-11.6924
▁Solution	-11.6924
▁Petrokimia	-11.6925
▁4.0	-11.6925
▁pemberlaku	-11.6925
cabor	-11.6925
▁Advokat	-11.6927
ngat	-11.6928
▁Amar	-11.6928
▁napas	-11.6928
▁(2/2)	-11.6929
▁Erik	-11.6929
▁(4/9)	-11.693
egal	-11.693
vitas	-11.6933
Rp	-11.6933
with	-11.6934
▁50%	-11.6935
▁end	-11.6935
AHU	-11.6936
▁pengawal	-11.6936
▁spekula	-11.6937
▁Serta	-11.694
▁15.00	-11.6942
rekannya	-11.6942
hajar	-11.6943
▁Niss	-11.6945
▁peternak	-11.6945
▁Kayu	-11.6947
▁Kuba	-11.6948
klasifikasi	-11.6949
▁Darah	-11.6951
▁Time	-11.6955
▁ulah	-11.6955
ize	-11.6957
long	-11.696
▁Kok	-11.6961
▁Rekaman	-11.6971
DLH	-11.6972
lewati	-11.6976
▁motornya	-11.6978
▁Tapera	-11.6979
▁mengadu	-11.6979
▁anggapan	-11.6982
▁rente	-11.6984
Raker	-11.6987
▁Flore	-11.6988
antariksa	-11.6989
▁Jack	-11.6992
▁Araf	-11.6994
▁ASI	-11.6995
▁SL	-11.6998
▁Nara	-11.6999
bulat	-11.7003
▁kejuara	-11.7007
enangkan	-11.7008
legal	-11.7011
▁(30/10).	-11.7012
▁Sedang	-11.7013
tempur	-11.7013
asrama	-11.7014
AHY	-11.7014
tindakan	-11.7014
luar	-11.7017
▁11.00	-11.7021
ower	-11.7024
▁Udinus	-11.7025
▁Jr	-11.7025
27/	-11.7025
▁yanto	-11.7026
▁rempah	-11.703
▁Kia	-11.7031
▁Unta	-11.7035
▁Sani	-11.7037
▁Pass	-11.7038
berg	-11.7041
epakati	-11.7041
▁Custom	-11.7044
truk	-11.7045
▁Gusta	-11.7051
bau	-11.7054
100.000	-11.7055
▁195	-11.7057
▁Rohi	-11.7058
▁memanja	-11.7059
/05)	-11.7063
endeportasi	-11.7065
▁(16/7)	-11.7065
▁(17/9)	-11.7065
▁(26/8)	-11.7065
▁Komunis	-11.7065
▁Suporter	-11.7065
▁Konawe	-11.7065
▁Betawi	-11.7065
▁(18/12)	-11.7065
▁Mukti	-11.7065
▁Marcel	-11.7065
▁Kerajaan	-11.7065
▁(16/10)	-11.7065
▁punah	-11.7065
▁Delhi	-11.7065
▁naskah	-11.7065
▁Barisan	-11.7065
uplemen	-11.7065
▁mengunggul	-11.7065
▁Pangdam	-11.7066
terjang	-11.7066
▁Pilot	-11.7066
▁gadis	-11.7066
▁22:5	-11.7066
seberang	-11.7067
erobos	-11.7068
▁4,9	-11.7068
AMDK	-11.707
juang	-11.7071
▁Terbakar	-11.7073
▁Angkasa	-11.7073
▁kandungnya	-11.7077
▁BPIP	-11.7077
IE	-11.7077
▁Boleh	-11.708
▁Shop	-11.708
▁Brun	-11.7081
▁Fly	-11.7081
▁malu	-11.7085
tilasi	-11.7085
▁Prawir	-11.7088
BPD	-11.7089
▁Pendiri	-11.7095
▁Lind	-11.7105
▁tatap	-11.7112
beli	-11.7112
sidak	-11.7116
▁Lor	-11.7117
try	-11.7118
▁cum	-11.712
▁Vir	-11.712
▁jama	-11.7122
▁Pengalaman	-11.7126
▁Solok	-11.7128
▁Yuk	-11.7129
gali	-11.713
enyimpangan	-11.7132
▁brutal	-11.7135
▁Lap	-11.7141
▁intinya	-11.7144
tampung	-11.715
sulit	-11.7151
▁PDB	-11.7153
TB	-11.7153
ship	-11.7153
▁all	-11.7156
boat	-11.7157
▁Sula	-11.7157
▁Game	-11.7162
karier	-11.7166
▁BNPT	-11.7166
Calon	-11.7167
▁kemar	-11.7168
▁Apri	-11.7169
OJK	-11.717
▁nan	-11.717
▁persis	-11.717
esatuan	-11.717
rahman	-11.7171
▁Sekar	-11.7171
▁Ven	-11.7171
▁Kenal	-11.7173
▁MP	-11.7177
cation	-11.7181
▁Kre	-11.7181
▁Menar	-11.7182
▁Tuk	-11.7188
▁berduka	-11.7188
▁Samp	-11.7189
▁Angel	-11.719
▁dicuri	-11.719
mecat	-11.7197
▁roboh	-11.7198
▁PJ	-11.7199
▁kredi	-11.7203
▁Fadil	-11.7204
eriksa	-11.7206
▁pesepak	-11.7211
▁penyisir	-11.7211
▁(15/5)	-11.7212
▁(15/7)	-11.7212
▁(16/12)	-11.7212
▁(18/6)	-11.7212
▁(20/6)	-11.7212
▁(7/6)	-11.7212
▁(8/7)	-11.7212
▁(9/9)	-11.7212
▁Emmanuel	-11.7212
▁Fardhana	-11.7212
▁Optimal	-11.7212
▁Semifinal	-11.7212
▁Tanjungpinang	-11.7212
▁(20/12)	-11.7212
▁Kemungkinan	-11.7212
▁magang	-11.7212
▁ramadan	-11.7212
▁track	-11.7212
▁Louis	-11.7212
▁(4/10)	-11.7212
fresh	-11.7212
▁Wakapolres	-11.7212
▁sembarangan	-11.7212
▁Sadikin	-11.7212
▁fatal	-11.7212
▁Camat	-11.7212
▁estetika	-11.7212
cross	-11.7213
▁Irlandia	-11.7213
obster	-11.7213
▁Skor	-11.7213
▁Parlin	-11.7213
▁Pansus	-11.7213
▁Ganti	-11.7214
▁Elite	-11.7214
DPT	-11.7215
aula	-11.7216
▁moda	-11.7216
wing	-11.7216
▁sesak	-11.7216
UA	-11.7217
▁Night	-11.7217
▁Sulit	-11.7218
tentik	-11.7218
▁nia	-11.7218
▁auto	-11.7219
boyong	-11.7219
ujur	-11.7219
▁isme	-11.722
▁Warna	-11.722
▁Taru	-11.7221
▁Agency	-11.7221
lut	-11.7222
ory	-11.7222
▁pendengar	-11.7222
▁Toto	-11.7223
▁Copa	-11.7223
nold	-11.7223
SDA	-11.7224
▁lingkar	-11.7225
▁Bermain	-11.7225
▁dinasti	-11.7226
▁Sabar	-11.7227
▁henti	-11.7227
▁potong	-11.7232
rnando	-11.7232
▁8%	-11.7235
▁adaptasi	-11.7236
▁Salat	-11.7236
▁dihadap	-11.7237
perhitung	-11.7238
▁meminimalis	-11.7238
▁Hay	-11.7241
▁2001	-11.7242
etas	-11.7244
▁Farida	-11.7244
desak	-11.7245
▁Kid	-11.7248
adis	-11.7248
▁Fil	-11.7249
▁yo	-11.725
▁pelepas	-11.7253
▁Damar	-11.7256
▁Aep	-11.7257
▁perawat	-11.726
puji	-11.7262
tiker	-11.7262
▁Piet	-11.7272
sepakbola	-11.7276
nobar	-11.7279
room	-11.728
BPK	-11.728
▁berpindah	-11.728
-22	-11.7286
▁Raisi	-11.7288
▁PSU	-11.7288
▁(17/1).	-11.7288
▁Much	-11.7292
mbak	-11.7297
▁Mam	-11.7298
KB	-11.7299
onsentrasi	-11.7299
ound	-11.7301
praktik	-11.7307
AU	-11.7309
▁Innovati	-11.7309
Selama	-11.731
adang	-11.7315
▁ajakan	-11.7316
kapasitas	-11.7319
Kepala	-11.732
Menko	-11.7321
gat	-11.7322
▁Berkah	-11.7323
ngkar	-11.7324
Elon	-11.7325
▁Riz	-11.7326
tawan	-11.7328
sarat	-11.7329
ikap	-11.733
▁nasionalis	-11.7331
cawe	-11.7334
KKN	-11.7338
Huang	-11.734
PPS	-11.7343
akuntabilitas	-11.7348
▁Work	-11.7356
lampung	-11.7357
seruan	-11.7358
pikir	-11.7359
diagnosis	-11.7361
preventif	-11.7361
▁(1/4)	-11.7361
▁(12/3)	-11.7361
▁(19/12)	-11.7361
▁(19/7)	-11.7361
▁(23/7)	-11.7361
▁(24/4)	-11.7361
▁(26/7)	-11.7361
▁(8/4)	-11.7361
▁(9/7)	-11.7361
▁Bahagia	-11.7361
▁Chelsea	-11.7361
▁Intelektual	-11.7361
▁Pembayaran	-11.7361
▁berintegritas	-11.7361
▁merdeka	-11.7361
▁minimarket	-11.7361
▁giliran	-11.7361
▁helm	-11.7361
▁(14/11)	-11.7361
▁bensin	-11.7361
▁mencukupi	-11.7361
▁Ambyar	-11.7361
▁bentur	-11.7361
▁UEFA	-11.7361
▁Identitas	-11.7361
▁Build	-11.7361
▁kekecewaan	-11.7361
▁laptop	-11.7361
▁Lingkar	-11.7362
▁service	-11.7362
▁Lanka	-11.7362
▁Auditor	-11.7363
▁Estat	-11.7363
▁Mandarin	-11.7363
▁06:2	-11.7363
▁Rache	-11.7363
▁free	-11.7364
staz	-11.7364
▁Pelapor	-11.7365
▁Kaka	-11.7366
▁terkendala	-11.7366
▁Chico	-11.7366
▁Muhad	-11.7367
▁SBY	-11.7368
▁Idha	-11.7368
▁Studio	-11.7369
ngsong	-11.7369
▁Web	-11.737
Hadiah	-11.737
▁(20/1)	-11.7371
▁chat	-11.7372
▁Patria	-11.7373
burg	-11.7377
▁Timika	-11.7378
▁bala	-11.7378
▁2,8	-11.7381
▁Pasam	-11.7382
▁Rif	-11.7382
Letjen	-11.7383
▁Ceta	-11.7385
▁kasar	-11.7386
onggo	-11.7388
▁kans	-11.7392
▁GM	-11.7396
▁Zay	-11.7401
kuler	-11.7401
ranjang	-11.7402
FK	-11.7403
▁20%	-11.7404
▁Perluas	-11.7405
▁Baku	-11.7407
motif	-11.7412
22	-11.7417
▁sahur	-11.7421
▁Mayoritas	-11.7423
maksud	-11.7425
▁OTT	-11.7427
▁Well	-11.7428
parah	-11.7432
gusur	-11.7437
idah	-11.7439
▁Of	-11.744
ich	-11.7441
▁terte	-11.7446
▁Tjah	-11.7447
▁Bom	-11.745
▁Bendung	-11.745
▁TK	-11.745
antaranya	-11.745
estasi	-11.7458
inder	-11.7459
▁mengorb	-11.7461
ilik	-11.7461
▁FGD	-11.7465
▁PSN	-11.7467
ries	-11.7468
▁Mile	-11.7473
Memang	-11.7475
UGM	-11.7475
osialisasi	-11.7475
lintas	-11.7476
▁medsos	-11.7476
tingkat	-11.7477
work	-11.748
rad	-11.748
buntut	-11.7481
▁Anis	-11.7483
▁1000	-11.7483
De	-11.7486
▁mengolah	-11.749
▁Versi	-11.7491
edoman	-11.7493
tuding	-11.7494
rekam	-11.7496
▁Jauh	-11.7499
yen	-11.75
▁Aba	-11.7501
▁RD	-11.7503
▁Mia	-11.7504
damaian	-11.7504
iff	-11.7504
▁Disdik	-11.7508
melekat	-11.7508
jaket	-11.7512
▁(3/5)	-11.7512
▁(9/8)	-11.7512
▁Albanese	-11.7512
▁Arsjad	-11.7512
▁Daihatsu	-11.7512
▁Effendi	-11.7512
▁Konsumsi	-11.7512
▁Summarecon	-11.7512
▁Sydney	-11.7512
▁musibah	-11.7512
Kopassus	-11.7512
▁ditindak	-11.7512
nominal	-11.7512
▁meneriak	-11.7512
▁trading	-11.7512
▁(26/11)	-11.7512
Menkumham	-11.7512
▁Nugini	-11.7513
▁pembuktian	-11.7513
▁(20/10)	-11.7513
▁Hanoi	-11.7513
▁Jeffry	-11.7513
▁Wahono	-11.7513
error	-11.7513
▁Bromo	-11.7513
▁Telkomsel	-11.7514
▁Maroko	-11.7514
▁Bernard	-11.7514
▁(20)	-11.7514
munculan	-11.7515
▁urgen	-11.7515
▁berkabut	-11.7516
▁Fut	-11.7516
▁Hasanuddin	-11.7518
▁devi	-11.7518
▁Kekalaha	-11.7518
emulangan	-11.7518
▁water	-11.7519
selebr	-11.7519
▁saraf	-11.7519
▁Bojong	-11.7522
▁Bantah	-11.7523
▁terputus	-11.7523
nov	-11.7523
▁Sinar	-11.7524
▁Dekat	-11.7529
▁Tig	-11.7529
▁Memasuk	-11.7531
Agenda	-11.7532
▁Post	-11.7535
▁humani	-11.7537
AA	-11.7539
▁pang	-11.754
▁Gor	-11.7543
GO	-11.7543
▁penghuj	-11.7551
▁Ijo	-11.7551
▁golf	-11.7559
▁pilihannya	-11.7559
▁Way	-11.7559
▁melimpah	-11.7571
▁Kongo	-11.7572
▁ragam	-11.7572
ful	-11.7573
berdaya	-11.7573
▁Golan	-11.758
▁penghasil	-11.7581
etty	-11.7581
engingat	-11.7582
▁kakinya	-11.7584
▁Amb	-11.7584
▁kreasi	-11.7585
elli	-11.7588
▁Elia	-11.7589
▁bersekolah	-11.7591
▁Sarm	-11.7593
▁Suro	-11.7596
▁wakilnya	-11.7597
▁Your	-11.7598
▁Touris	-11.7601
umas	-11.761
annel	-11.761
▁Pena	-11.761
langka	-11.7614
▁05:3	-11.7615
rendam	-11.7616
▁penggunanya	-11.7617
call	-11.7621
▁Amri	-11.7621
arapan	-11.7622
▁Kecam	-11.7634
klarifikasi	-11.7634
analisis	-11.7634
tambahan	-11.7638
▁Jama	-11.7638
Perpres	-11.7642
nobat	-11.7646
prodi	-11.7649
▁nge	-11.765
▁dibicarakan	-11.7653
AMAN	-11.7654
perlomba	-11.7655
▁Nya	-11.7656
PPP	-11.7659
definisi	-11.7663
▁Standar	-11.7663
esidivis	-11.7663
▁iya	-11.7663
▁Jin	-11.7664
▁sukarela	-11.7665
▁Spa	-11.7666
▁(11/5)	-11.7666
▁(16/4)	-11.7666
▁(28/6)	-11.7666
▁Acosta	-11.7666
▁Chicago	-11.7666
▁Ekosistem	-11.7666
▁Istiqlal	-11.7666
▁OECD	-11.7666
▁Practic	-11.7666
▁Rachim	-11.7666
▁kewirausahaan	-11.7666
▁Level	-11.7666
▁toilet	-11.7666
▁Diperiksa	-11.7666
merosot	-11.7666
bijaksana	-11.7666
▁pendarat	-11.7666
▁hijab	-11.7666
Menhub	-11.7666
▁angkot	-11.7666
▁bereaksi	-11.7667
▁pisang	-11.7667
▁hayati	-11.7667
▁Frank	-11.7667
▁migas	-11.7667
lisensi	-11.7667
▁sarung	-11.7667
pinjol	-11.7668
▁Bekerja	-11.7668
▁Kulit	-11.7668
▁pendingin	-11.7668
lalai	-11.7668
▁rasio	-11.7668
▁Navalny	-11.7668
▁triwulan	-11.7669
▁Maaf	-11.767
▁Urut	-11.7671
▁Ganes	-11.7671
▁kriminalisasi	-11.7671
▁Andr	-11.7671
▁renang	-11.7672
▁jura	-11.7672
federa	-11.7672
▁Jenis	-11.7673
esnarkoba	-11.7674
▁04:0	-11.7675
▁Report	-11.7676
▁Map	-11.7676
▁pember	-11.7676
▁kalimat	-11.7678
▁IPB	-11.7679
▁6.000	-11.7681
▁Eky	-11.7682
▁Ubaya	-11.7682
▁taat	-11.7682
skap	-11.7684
▁Wono	-11.7685
▁memori	-11.7686
▁klaimnya	-11.769
▁It	-11.7695
▁Tuduhan	-11.7699
▁pembar	-11.7699
BKD	-11.77
sepsi	-11.7702
▁Gigi	-11.7704
▁Naz	-11.7707
mbah	-11.7709
▁Syaiful	-11.7713
JU	-11.7714
▁Maut	-11.7716
TU	-11.7719
▁Banyu	-11.7723
masalah	-11.7725
▁sempit	-11.7729
Ditresnarkoba	-11.773
▁Medica	-11.7731
JI	-11.774
▁Abd	-11.7741
▁Indi	-11.7741
▁Macan	-11.7744
▁Lia	-11.7745
gemar	-11.775
▁SC	-11.7758
▁Jens	-11.7758
FO	-11.7766
hormat	-11.7766
ifer	-11.7768
LHK	-11.7769
▁Rust	-11.7771
Perumda	-11.7771
erusakan	-11.7774
abean	-11.7779
entah	-11.7779
▁(11/7).	-11.778
▁bergantian	-11.7791
tru	-11.7792
pahan	-11.7794
usun	-11.7796
Oleh	-11.7796
Muhammad	-11.7796
organisasi	-11.7796
▁PPDS	-11.7799
cukup	-11.78
ONG	-11.7803
perkosa	-11.7805
▁identitasnya	-11.7807
▁Rob	-11.7808
ensi	-11.7809
▁France	-11.781
amping	-11.7813
enguk	-11.7813
koneksi	-11.7815
▁EP	-11.7818
▁manapun	-11.7819
▁gem	-11.782
kreditas	-11.782
persoal	-11.7821
▁Victor	-11.7822
▁JEMB	-11.7822
Ditlantas	-11.7822
Jampidsus	-11.7822
dahsyat	-11.7822
ijazah	-11.7822
▁(12/6)	-11.7822
▁(13/8)	-11.7822
▁(14/6)	-11.7822
▁(15/12)	-11.7822
▁(18/3)	-11.7822
▁Pezeshkian	-11.7822
▁argumen	-11.7822
▁belasungkawa	-11.7822
▁fundamental	-11.7822
▁histori	-11.7822
▁Arjuna	-11.7822
▁Erupsi	-11.7822
▁HIPMI	-11.7822
▁Seksual	-11.7822
▁down	-11.7822
▁Kuliah	-11.7822
▁meluap	-11.7822
▁(7/10)	-11.7823
▁Smith	-11.7823
▁Wardoyo	-11.7823
▁(29/11)	-11.7823
▁Tumbuh	-11.7823
▁Purworejo	-11.7823
▁Rashid	-11.7823
▁eksistensi	-11.7823
▁Company	-11.7823
▁Widjaja	-11.7823
▁Kalapas	-11.7823
atanras	-11.7823
▁Finlandia	-11.7823
▁rasional	-11.7823
▁lembut	-11.7823
▁pusing	-11.7823
janto	-11.7823
▁elektrik	-11.7823
▁chip	-11.7824
▁Truno	-11.7824
▁Forest	-11.7825
▁Manda	-11.7825
zeki	-11.7825
▁Workshop	-11.7825
▁Off	-11.7825
budidaya	-11.7825
longgar	-11.7825
▁Abadi	-11.7826
▁Spesialis	-11.7826
sensasi	-11.7827
▁fair	-11.7828
▁Kip	-11.7828
▁Rute	-11.7829
▁Basri	-11.7829
▁Uganda	-11.783
fw	-11.783
hid	-11.783
BNNP	-11.783
▁Ibunda	-11.783
▁AG	-11.7831
engkel	-11.7831
muntah	-11.7832
▁Perinciannya	-11.7832
▁kick	-11.7833
▁180	-11.7834
▁Bab	-11.7834
▁Galer	-11.7836
▁Diperk	-11.7838
▁Hima	-11.7839
▁Kakak	-11.7839
▁Leonard	-11.7843
bersih	-11.7848
▁Adrian	-11.7849
▁22.00	-11.785
▁Abang	-11.7852
Mas	-11.7852
igma	-11.7853
iliasi	-11.7856
▁Kode	-11.7857
▁Wulan	-11.7857
ous	-11.7857
▁HA	-11.7858
mobil	-11.786
▁Kap	-11.7862
▁pengebom	-11.7864
▁ditekan	-11.7868
Dubes	-11.787
▁Pasang	-11.7874
▁20.000	-11.7876
▁diatasi	-11.7878
▁trade	-11.7879
▁Kepatu	-11.788
▁Sugiart	-11.7882
itri	-11.7884
▁Ong	-11.789
Baleg	-11.7896
▁Chair	-11.7903
EPA	-11.7903
▁(21)	-11.7909
cio	-11.7909
34	-11.791
▁Sul	-11.7912
emblokir	-11.7914
abad	-11.7915
▁akademis	-11.7924
▁base	-11.7932
▁AH	-11.7935
▁RE	-11.7935
▁18.00	-11.7939
▁Inc	-11.7942
UT	-11.7943
▁kesuka	-11.7945
▁Krisna	-11.7947
padat	-11.7948
▁membukuk	-11.7951
▁Chu	-11.7951
▁kesal	-11.7952
mpang	-11.7953
ampanye	-11.7953
▁(27/11).	-11.7953
▁Sir	-11.7957
profesi	-11.7959
Daniel	-11.7961
CPNS	-11.7961
surat	-11.7962
SJ	-11.7966
▁Insya	-11.7973
juk	-11.7974
▁honor	-11.7976
▁(13/12)	-11.7981
▁(8/2)	-11.7981
▁Capital	-11.7981
▁berkepanjangan	-11.7981
▁penjahat	-11.7981
á	-11.7981
▁Kursk	-11.7981
▁Memiliki	-11.7981
▁Pencuri	-11.7981
langganan	-11.7981
▁diberitahu	-11.7981
▁Pembiayaan	-11.7981
▁berpuas	-11.7981
▁jerawat	-11.7981
▁Privat	-11.7981
Rasyid	-11.7981
lockchain	-11.7981
▁Kairo	-11.7981
▁adaptif	-11.7981
▁(24/10)	-11.7981
▁Kristian	-11.7982
▁Sritex	-11.7982
▁berselang	-11.7982
▁merapat	-11.7982
▁tertahan	-11.7982
ragis	-11.7983
▁Community	-11.7983
▁Davis	-11.7985
▁23:4	-11.7985
▁Sastra	-11.7985
▁Nyata	-11.7986
senian	-11.7986
▁Atleti	-11.7986
▁23:2	-11.7987
deni	-11.7987
taruh	-11.7987
▁Wisatawan	-11.7987
▁Nurdin	-11.7988
▁Ubud	-11.799
▁Campur	-11.799
▁Kri	-11.7991
road	-11.7991
▁Tambak	-11.7992
▁Atang	-11.7993
▁Wetan	-11.7993
▁Baito	-11.7995
enjaringan	-11.7996
-78	-11.7997
200	-11.7998
▁9%	-11.7999
▁masker	-11.7999
marga	-11.8
▁ekstremis	-11.8001
▁mg	-11.8003
▁spot	-11.8005
▁Ford	-11.8005
ahala	-11.8009
▁pele	-11.801
▁Syahru	-11.8011
▁KB	-11.8013
CSR	-11.8016
Hariyanto	-11.8016
▁7%	-11.8017
▁bermakna	-11.8021
embebasan	-11.8023
daulat	-11.8023
▁penyelidik	-11.8023
rif	-11.8028
▁TPP	-11.8028
janggalan	-11.8029
CE	-11.8031
persembah	-11.8032
sila	-11.8034
tipu	-11.8036
▁TPPU	-11.8041
well	-11.8043
Polwan	-11.8048
IKA	-11.8049
▁Suryo	-11.805
▁Digi	-11.8056
srama	-11.8062
▁tebu	-11.8063
▁mainan	-11.8063
CK	-11.8063
▁Venn	-11.8066
ilitas	-11.8071
nders	-11.8071
▁Hana	-11.8071
Haye	-11.8075
▁Unpad	-11.8076
▁Cap	-11.8078
▁Fit	-11.8082
azuli	-11.8084
▁beton	-11.8094
▁Fais	-11.8094
▁mengharu	-11.8096
atriot	-11.8098
nyandera	-11.8098
time	-11.8098
▁DM	-11.81
▁Sud	-11.8101
▁partner	-11.8105
marak	-11.8109
IKI	-11.8109
olicy	-11.8113
lyn	-11.8114
▁(15/10).	-11.8114
emuan	-11.8115
▁Waru	-11.8116
▁Batas	-11.8116
terangan	-11.8116
▁konsul	-11.8118
encuci	-11.812
▁Dewas	-11.8125
Sekarang	-11.8126
Jatim	-11.8126
Sementara	-11.8126
perintah	-11.8127
▁tongka	-11.8128
DPO	-11.8129
▁BB	-11.8142
▁Kemendikbud	-11.8142
Pilbup	-11.8142
emakzulan	-11.8142
ercontohan	-11.8142
▁(18/5)	-11.8142
▁(20/9)	-11.8142
▁(23/4)	-11.8142
▁(25/6)	-11.8142
▁(3/4)	-11.8142
▁(4/7)	-11.8142
▁(5/7)	-11.8142
▁Ciliwung	-11.8142
▁Journal	-11.8142
▁Kazakhstan	-11.8142
▁Thamrin	-11.8142
▁(9/10).	-11.8142
▁Michel	-11.8143
▁sanitasi	-11.8143
▁Dahlan	-11.8143
▁(2/11)	-11.8143
▁(23/11)	-11.8143
▁Celcius	-11.8143
▁Distribusi	-11.8143
▁Psikolog	-11.8143
▁Meriah	-11.8143
▁tertawa	-11.8143
▁(22/10)	-11.8143
▁offline	-11.8143
▁(11/10)	-11.8143
▁clean	-11.8143
▁box	-11.8143
▁Ancol	-11.8143
▁Jaksel	-11.8143
▁kebobolan	-11.8143
teladan	-11.8143
▁County	-11.8143
▁meniru	-11.8143
▁racun	-11.8143
identik	-11.8144
▁Ucap	-11.8144
▁jago	-11.8145
▁Guardi	-11.8145
▁23:3	-11.8145
gegas	-11.8145
▁kelembagaan	-11.8145
▁bendungan	-11.8146
▁Plh	-11.8146
▁Lepas	-11.8146
▁Restoran	-11.8146
▁dirugikan	-11.8147
▁Jamil	-11.8147
▁pemakai	-11.8149
▁ketum	-11.8149
nahas	-11.8149
▁Ibra	-11.815
▁BPKP	-11.8151
▁lengan	-11.8152
▁membentang	-11.8154
▁Krisis	-11.8155
▁MAKA	-11.8156
▁berolahraga	-11.8156
▁pendatang	-11.8157
▁melebar	-11.8158
▁aksesori	-11.8159
▁5,3	-11.8159
▁riw	-11.8162
▁240	-11.8162
▁YA	-11.8165
racik	-11.8168
▁Jud	-11.8168
▁Latin	-11.817
preneur	-11.8173
FS	-11.8174
▁Fuad	-11.8176
Tentunya	-11.8179
olok	-11.8179
kap	-11.8184
tagihan	-11.8185
aldo	-11.8185
▁Lisa	-11.8186
▁berganti	-11.8186
engajian	-11.8187
nner	-11.8194
yoy	-11.8198
fre	-11.8201
▁point	-11.8204
▁bidan	-11.8206
▁bersuara	-11.8208
▁tengga	-11.821
▁siri	-11.821
▁Keluar	-11.8212
▁Kemendag	-11.8213
▁Rid	-11.8216
▁kompeten	-11.8219
BON	-11.8221
eken	-11.8222
▁Shan	-11.8225
▁Mask	-11.8225
▁pecahan	-11.8225
sampai	-11.8228
▁Link	-11.8228
waktu	-11.8232
▁Naf	-11.8234
terowongan	-11.8235
▁penyebabnya	-11.8238
rene	-11.8242
ladang	-11.8243
tempel	-11.8244
▁(26)	-11.8244
enyumbang	-11.826
▁menyakit	-11.8264
▁pahit	-11.8268
▁terikat	-11.827
jabat	-11.8272
▁Paku	-11.8272
MJ	-11.8273
Jelas	-11.8276
gaungkan	-11.8277
JS	-11.828
▁debu	-11.8281
▁Mao	-11.8282
apak	-11.8285
▁genre	-11.8287
▁Sop	-11.8289
▁Umm	-11.8294
Sekda	-11.8295
▁dicek	-11.8296
▁Gakkum	-11.8296
Waki	-11.8297
Orang	-11.8298
WNI	-11.8298
DK	-11.8299
▁PAM	-11.83
melihara	-11.8301
DPR	-11.8302
merek	-11.8303
▁Susmanto	-11.8306
UNHCR	-11.8306
deforestasi	-11.8306
muljono	-11.8306
▁(13/7)	-11.8306
▁(30/12)	-11.8306
▁Dortmund	-11.8306
▁Initiative	-11.8306
▁Marzuki	-11.8306
▁Proklama	-11.8306
▁Sekuritas	-11.8306
▁Square	-11.8306
▁Bahaya	-11.8306
▁Pengganti	-11.8306
▁petualang	-11.8306
▁1996	-11.8306
▁Tyron	-11.8306
▁Alves	-11.8306
GBLA	-11.8306
▁sembuh	-11.8306
▁Bhre	-11.8306
▁papua	-11.8307
▁Akhmad	-11.8307
CNN	-11.8307
▁sensor	-11.8307
▁Marthin	-11.8307
▁Rafiq	-11.8307
▁Ocean	-11.8307
▁Djarum	-11.8307
▁senator	-11.8307
▁dkk	-11.8307
▁Pertanyaan	-11.8307
▁Talk	-11.8307
▁Ow	-11.8308
▁urban	-11.8308
▁regulat	-11.8308
▁Penipu	-11.8308
▁Consult	-11.8309
▁kolonial	-11.8309
▁Hebat	-11.8309
akjub	-11.8311
▁Wasit	-11.8311
▁VAR	-11.8311
bareng	-11.8312
▁Atlantik	-11.8312
▁Anyar	-11.8313
▁Purwa	-11.8313
▁Arfi	-11.8313
utlak	-11.8314
▁Serie	-11.8316
terlambatan	-11.8316
ember	-11.8317
aterai	-11.8317
kental	-11.832
▁Bimbing	-11.8322
erjang	-11.8325
▁2.8	-11.8328
ejo	-11.8332
▁Pras	-11.8333
▁Margo	-11.8333
▁gak	-11.8335
▁Sawah	-11.8335
ayangan	-11.8337
▁Arah	-11.8339
▁Penilai	-11.8341
himpun	-11.8345
usiness	-11.835
▁BPA	-11.8351
uff	-11.8352
penggugat	-11.8354
▁pemusa	-11.8355
CG	-11.8358
▁Nadia	-11.8359
▁Pembangkit	-11.836
▁draf	-11.8361
▁Syi	-11.8364
▁5,2	-11.8365
▁Tala	-11.8367
▁Ketiganya	-11.8368
▁Jamkrindo	-11.8368
▁2%	-11.8372
▁konsentra	-11.8374
sinformasi	-11.8375
rick	-11.8377
▁peretasan	-11.838
andil	-11.8384
arch	-11.8387
orji	-11.8388
▁Pun	-11.839
▁Kath	-11.8392
serap	-11.8394
▁IA	-11.8395
pox	-11.8397
mentasi	-11.8397
oria	-11.8398
▁mind	-11.8402
▁Championships	-11.8405
▁kepemimpinannya	-11.8406
▁Ombu	-11.8413
▁pene	-11.8415
▁Bata	-11.8416
▁jamu	-11.842
▁Tambahan	-11.8421
promotor	-11.8423
▁Haryo	-11.8424
fest	-11.8426
aransi	-11.8429
▁(24)	-11.8429
▁Chan	-11.8433
▁2.9	-11.8434
▁Clar	-11.8434
ndono	-11.8436
▁RO	-11.8438
▁Putus	-11.8438
hidup	-11.8439
▁FI	-11.8439
▁Vale	-11.8441
▁Tadi	-11.8444
APAN	-11.8445
ombo	-11.8446
▁Kapan	-11.845
timpang	-11.845
vre	-11.8451
▁2.4	-11.8454
▁XVII	-11.8454
CSI	-11.8456
iriman	-11.8459
ibilitas	-11.8461
alkohol	-11.8467
GIIAS	-11.8467
▁Beng	-11.8468
Menurut	-11.8468
khusus	-11.8468
darurat	-11.8468
perempat	-11.8469
AFP	-11.8469
TAN	-11.847
enomena	-11.8472
▁Tradisi	-11.8473
ü	-11.8473
Korlantas	-11.8473
ekspektasi	-11.8473
▁(10/12)	-11.8473
▁(17/4)	-11.8473
▁(24/5)	-11.8473
▁(26/5)	-11.8473
▁(27/8)	-11.8473
▁(28/9)	-11.8473
▁(3/9)	-11.8473
▁(30/9)	-11.8473
▁(5/9)	-11.8473
▁(9/4)	-11.8473
▁Jenewa	-11.8473
▁Kekhawatiran	-11.8473
▁Legislatif	-11.8473
▁Pernikahan	-11.8473
▁Premium	-11.8473
▁Stunting	-11.8473
▁afirmasi	-11.8473
▁diapresiasi	-11.8473
▁Tutup	-11.8473
▁Nepal	-11.8473
▁Front	-11.8473
▁proporsional	-11.8473
▁(3/11)	-11.8473
▁Penutupan	-11.8473
▁transmigrasi	-11.8473
▁Organization	-11.8473
▁persaudaraan	-11.8473
▁Insight	-11.8473
PWNU	-11.8473
▁Kyli	-11.8473
▁Salemba	-11.8473
▁Benoa	-11.8473
▁euro	-11.8473
▁Science	-11.8473
▁prostitusi	-11.8474
▁jelajah	-11.8474
▁(27/1).	-11.8474
▁Rutin	-11.8474
▁Wicaks	-11.8474
▁Sumbawa	-11.8474
mulyo	-11.8474
▁Limpo	-11.8475
▁tikus	-11.8475
utang	-11.8476
▁seribu	-11.8476
▁VIII	-11.8477
▁Bale	-11.8477
SIK	-11.8478
▁PMII	-11.8479
HAM	-11.8479
▁Right	-11.848
▁customer	-11.8481
▁segel	-11.8481
01.00	-11.8483
▁Seno	-11.8484
▁Tunggu	-11.8486
▁Cucu	-11.8487
▁asistensi	-11.8489
▁GBT	-11.8492
cius	-11.8498
▁present	-11.8498
▁Terbukti	-11.8499
enggunakan	-11.8502
▁fut	-11.8503
▁Harli	-11.8505
▁Rina	-11.8506
▁Minuman	-11.8507
▁Waris	-11.8509
LAN	-11.851
▁kejam	-11.8516
▁mual	-11.8519
▁berjam	-11.8519
mancing	-11.852
ncur	-11.852
zon	-11.8523
bising	-11.8524
▁cadang	-11.8525
toko	-11.8526
dhy	-11.8527
sme	-11.8533
▁Panggung	-11.8535
ramik	-11.8543
outh	-11.8544
ille	-11.8553
biyanto	-11.8557
▁Gugu	-11.8558
muda	-11.8561
▁Ardianto	-11.8562
▁2.5	-11.8563
ksploitasi	-11.8565
▁Kemari	-11.8568
bungkam	-11.8571
▁Ronal	-11.8572
umb	-11.8573
iksa	-11.8573
peng	-11.8578
awahan	-11.8582
cell	-11.8582
KUR	-11.8583
odong	-11.8583
▁Hary	-11.8586
ahap	-11.8594
▁FH	-11.8596
▁coblos	-11.8597
stitusi	-11.8597
▁Menarik	-11.8598
▁imp	-11.86
entas	-11.8604
sahabat	-11.8609
panas	-11.861
▁Amat	-11.8612
maaf	-11.8613
▁konsulta	-11.8617
zy	-11.8628
INDO	-11.8629
▁Musto	-11.863
diksi	-11.8633
nggala	-11.8635
76	-11.8637
▁(19)	-11.8637
neliti	-11.8638
▁Spesial	-11.8638
Diskominfo	-11.8643
▁(20/8)	-11.8643
▁(4/4)	-11.8643
▁(9/2)	-11.8643
▁Columbia	-11.8643
▁Corporation	-11.8643
▁Gambir	-11.8643
▁Wagner	-11.8643
▁anjlok	-11.8643
▁inspiratif	-11.8643
▁Politisi	-11.8643
▁Tibet	-11.8643
▁meminjam	-11.8643
▁Bawean	-11.8643
▁(17/11)	-11.8643
▁2027	-11.8643
▁(28/11)	-11.8643
▁Vincent	-11.8643
bungkus	-11.8643
▁perpisahan	-11.8643
Cawapres	-11.8643
[...]
