<unk>	0
<s>	0
</s>	0
an	-0
er	-1
en	-2
▁d	-3
▁m	-4
ar	-5
at	-6
▁p	-7
ang	-8
ak	-9
in	-10
▁s	-11
as	-12
▁k	-13
al	-14
ah	-15
▁t	-16
▁b	-17
em	-18
am	-19
un	-20
▁di	-21
▁men	-22
el	-23
▁P	-24
ad	-25
kan	-26
tu	-27
▁S	-28
ya	-29
si	-30
▁K	-31
ap	-32
on	-33
▁y	-34
▁yang	-35
eb	-36
il	-37
ga	-38
or	-39
▁B	-40
▁dan	-41
▁M	-42
▁A	-43
es	-44
ik	-45
eng	-46
is	-47
▁ter	-48
ur	-49
ut	-50
▁ber	-51
▁l	-52
it	-53
ing	-54
us	-55
ek	-56
▁D	-57
um	-58
et	-59
asi	-60
akan	-61
▁J	-62
ol	-63
▁meng	-64
▁T	-65
ada	-66
ara	-67
▁I	-68
nya	-69
▁j	-70
▁2	-71
ung	-72
▁,	-73
▁per	-74
uk	-75
ari	-76
emb	-77
▁ke	-78
▁h	-79
ab	-80
▁(	-81
ai	-82
im	-83
▁R	-84
om	-85
ul	-86
id	-87
ir	-88
ta	-89
▁"	-90
▁in	-91
▁.	-92
▁20	-93
tuk	-94
▁un	-95
alam	-96
▁se	-97
▁untuk	-98
▁r	-99
itu	-100
ud	-101
▁-	-102
▁pen	-103
▁202	-104
ih	-105
engan	-106
ata	-107
ti	-108
ag	-109
▁H	-110
aw	-111
up	-112
▁1	-113
▁dengan	-114
atan	-115
▁mem	-116
angan	-117
▁W	-118
eg	-119
▁N	-120
▁ini	-121
▁dari	-122
▁In	-123
▁G	-124
ia	-125
ama	-126
esi	-127
adi	-128
ok	-129
▁itu	-130
▁2024	-131
▁n	-132
▁C	-133
▁L	-134
▁pada	-135
ro	-136
uh	-137
▁dalam	-138
ant	-139
ed	-140
ep	-141
▁mel	-142
aga	-143
and	-144
aya	-145
ian	-146
▁U	-147
▁seb	-148
amp	-149
ukan	-150
ent	-151
▁memb	-152
▁mer	-153
ay	-154
ali	-155
▁g	-156
ebut	-157
ri	-158
▁menj	-159
per	-160
eh	-161
▁w	-162
▁ters	-163
idak	-164
▁c	-165
▁F	-166
▁pem	-167
▁meny	-168
▁Ind	-169
ub	-170
eri	-171
aj	-172
ain	-173
isi	-174
elah	-175
▁Per	-176
alah	-177
aan	-178
uga	-179
▁tidak	-180
wa	-181
ot	-182
angk	-183
end	-184
ua	-185
▁akan	-186
onesi	-187
uan	-188
ib	-189
onesia	-190
▁tersebut	-191
▁Indonesia	-192
▁peng	-193
ahan	-194
asa	-195
▁kep	-196
agai	-197
emp	-198
uj	-199
aran	-200
nn	-201
",	-202
amb	-203
aat	-204
pnn	-205
ota	-206
anj	-207
▁E	-208
).	-209
▁juga	-210
ana	-211
atakan	-212
com	-213
angg	-214
▁sel	-215
ati	-216
▁WI	-217
▁nya	-218
▁Pr	-219
▁",	-220
▁WIB	-221
▁Sel	-222
usi	-223
ra	-224
▁pro	-225
▁mend	-226
ahun	-227
▁bah	-228
▁mas	-229
akukan	-230
ami	-231
gi	-232
orang	-233
int	-234
ob	-235
any	-236
alu	-237
▁kata	-238
▁f	-239
apat	-240
asan	-241
oleh	-242
agi	-243
tr	-244
▁menjadi	-245
arga	-246
cara	-247
▁An	-248
akar	-249
alan	-250
ja	-251
▁mengatakan	-252
▁O	-253
▁Ke	-254
ungan	-255
ala	-256
▁saat	-257
eka	-258
had	-259
isa	-260
ter	-261
atu	-262
▁bahwa	-263
▁sek	-264
▁ak	-265
▁pel	-266
ika	-267
anya	-268
▁ad	-269
da	-270
▁ser	-271
▁sebagai	-272
▁ada	-273
▁oleh	-274
ebih	-275
▁telah	-276
ena	-277
▁tahun	-278
ingk	-279
ong	-280
apa	-281
itas	-282
ip	-283
utu	-284
os	-285
aman	-286
▁kar	-287
▁kon	-288
akarta	-289
yar	-290
▁0	-291
▁set	-292
▁bisa	-293
udah	-294
ew	-295
api	-296
egara	-297
ita	-298
▁ket	-299
▁dil	-300
▁Pol	-301
onal	-302
▁ata	-303
▁kem	-304
ran	-305
00	-306
aru	-307
AR	-308
▁Y	-309
▁jpnn	-310
ingga	-311
▁kepada	-312
▁atau	-313
art	-314
ingg	-315
lah	-316
asil	-317
▁lebih	-318
ind	-319
▁an	-320
▁Pem	-321
akat	-322
▁3	-323
ow	-324
aku	-325
▁mereka	-326
▁pert	-327
▁menc	-328
ina	-329
ungk	-330
▁pemb	-331
res	-332
▁Jakarta	-333
gr	-334
▁orang	-335
urut	-336
elum	-337
esar	-338
▁satu	-339
eber	-340
den	-341
▁sem	-342
▁Men	-343
yarakat	-344
▁sudah	-345
aik	-346
osi	-347
▁bers	-348
awa	-349
od	-350
▁dis	-351
anyak	-352
▁pers	-353
empat	-354
▁karena	-355
▁Is	-356
▁Un	-357
imp	-358
op	-359
▁(2	-360
▁kel	-361
erint	-362
iri	-363
▁berk	-364
erja	-365
▁adalah	-366
erah	-367
▁dib	-368
▁Kota	-369
▁kami	-370
▁kes	-371
▁(1	-372
▁para	-373
TA	-374
iga	-375
og	-376
▁peny	-377
▁masyarakat	-378
▁Pen	-379
▁berb	-380
apan	-381
▁dit	-382
inya	-383
▁melakukan	-384
orm	-385
▁Sen	-386
ilik	-387
esiden	-388
ember	-389
abu	-390
▁hari	-391
▁pas	-392
asih	-393
▁Tim	-394
ban	-395
▁lain	-396
▁uj	-397
angs	-398
awan	-399
▁sej	-400
uat	-401
/1	-402
arang	-403
ist	-404
ac	-405
▁Kem	-406
oh	-407
ilih	-408
hadap	-409
atkan	-410
aks	-411
arus	-412
aikan	-413
umat	-414
arkan	-415
▁Ber	-416
▁negara	-417
est	-418
▁Kam	-419
apkan	-420
▁terhadap	-421
▁V	-422
AK	-423
▁at	-424
ima	-425
▁mengg	-426
ini	-427
▁bagi	-428
erikan	-429
▁pr	-430
▁dapat	-431
▁memper	-432
▁tet	-433
omp	-434
ej	-435
▁terb	-436
ikan	-437
jadi	-438
▁Kab	-439
ic	-440
asional	-441
▁kor	-442
▁dia	-443
▁ujar	-444
erintah	-445
▁dik	-446
arat	-447
ARTA	-448
AKARTA	-449
▁v	-450
▁as	-451
upat	-452
umlah	-453
ka	-454
▁Pro	-455
▁secara	-456
▁Ch	-457
uhan	-458
dang	-459
▁hingga	-460
gram	-461
upaten	-462
uran	-463
▁Selasa	-464
duk	-465
▁Rabu	-466
engah	-467
umah	-468
▁JAKARTA	-469
mas	-470
hir	-471
unj	-472
usah	-473
eberapa	-474
anjut	-475
upakan	-476
▁Al	-477
▁Senin	-478
perti	-479
ensi	-480
▁Sur	-481
▁Dia	-482
▁pol	-483
ihak	-484
ingan	-485
▁setelah	-486
jpnn	-487
askan	-488
▁Kamis	-489
▁2024.	-490
ov	-491
▁merupakan	-492
▁Sem	-493
angka	-494
angat	-495
▁AS	-496
▁dua	-497
usia	-498
▁Kep	-499
▁seperti	-500
antu	-501
ec	-502
▁baru	-503
enc	-504
uka	-505
ayah	-506
▁saya	-507
▁keb	-508
▁Ag	-509
▁ek	-510
▁4	-511
▁Kabupaten	-512
ulan	-513
▁Jumat	-514
▁pun	-515
▁ag	-516
▁warga	-517
▁masih	-518
tua	-519
▁Di	-520
alon	-521
▁Am	-522
▁harus	-523
ses	-524
▁dilakukan	-525
▁Ter	-526
▁beberapa	-527
PP	-528
▁serta	-529
aerah	-530
asus	-531
▁5	-532
▁memberikan	-533
▁ant	-534
iliki	-535
era	-536
tif	-537
ump	-538
▁Mar	-539
alui	-540
▁anak	-541
▁pend	-542
▁banyak	-543
angsung	-544
amun	-545
ilan	-546
uang	-547
anc	-548
▁Jawa	-549
ukum	-550
artai	-551
ekan	-552
▁Ar	-553
▁Presiden	-554
rael	-555
▁korban	-556
ayan	-557
ni	-558
itik	-559
▁lalu	-560
ilayah	-561
engg	-562
▁su	-563
olo	-564
▁atas	-565
▁hanya	-566
▁pihak	-567
ikasi	-568
▁Israel	-569
▁besar	-570
▁Kom	-571
AN	-572
tor	-573
20	-574
▁berh	-575
st	-576
uah	-577
▁Pil	-578
▁Bali	-579
tur	-580
▁memiliki	-581
unan	-582
▁rumah	-583
uar	-584
▁bersama	-585
inan	-586
apor	-587
ea	-588
ern	-589
▁dig	-590
inggu	-591
agian	-592
form	-593
▁tim	-594
▁Ketua	-595
owo	-596
tikan	-597
▁terjadi	-598
di	-599
▁dip	-600
uruh	-601
▁seh	-602
af	-603
▁selama	-604
erangan	-605
itar	-606
▁baik	-607
▁melalui	-608
ting	-609
▁Ap	-610
▁berl	-611
▁Sab	-612
▁Peng	-613
uc	-614
▁sangat	-615
▁ker	-616
ev	-617
aksi	-618
imb	-619
unia	-620
embali	-621
ulai	-622
▁si	-623
▁salah	-624
▁Seb	-625
ug	-626
ani	-627
▁Des	-628
▁Menurut	-629
▁kasus	-630
▁ked	-631
▁DP	-632
ei	-633
entara	-634
inta	-635
▁wak	-636
wan	-637
ilai	-638
▁sen	-639
▁wilayah	-640
ons	-641
kait	-642
▁Pas	-643
▁Band	-644
▁)	-645
elar	-646
▁al	-647
ikut	-648
▁pemerintah	-649
▁bert	-650
▁Rp	-651
man	-652
ampaikan	-653
angkan	-654
edia	-655
aja	-656
au	-657
▁Sabtu	-658
▁kita	-659
▁Pel	-660
▁mengh	-661
unakan	-662
▁mil	-663
gaw	-664
▁sama	-665
ahu	-666
▁terl	-667
▁ap	-668
unc	-669
▁tetapi	-670
▁Barat	-671
iv	-672
▁o	-673
umb	-674
▁PT	-675
lu	-676
▁Namun	-677
▁kom	-678
abowo	-679
▁angg	-680
▁Minggu	-681
▁Prabowo	-682
▁terus	-683
oto	-684
▁sebelum	-685
▁19	-686
202	-687
isasi	-688
▁terkait	-689
▁kembali	-690
▁kek	-691
uda	-692
utus	-693
▁hal	-694
▁persen	-695
▁sekitar	-696
tri	-697
ihat	-698
ny	-699
utan	-700
han	-701
adan	-702
▁hukum	-703
▁kec	-704
tern	-705
▁meningk	-706
enter	-707
udi	-708
kr	-709
pa	-710
entang	-711
▁seluruh	-712
▁St	-713
▁mendapat	-714
▁agar	-715
onom	-716
ungg	-717
udian	-718
▁dir	-719
▁Ser	-720
az	-721
▁tak	-722
▁berbagai	-723
▁7	-724
kada	-725
▁pes	-726
▁sep	-727
▁Ment	-728
arah	-729
▁Ad	-730
▁Dir	-731
▁tiga	-732
ij	-733
idikan	-734
ark	-735
anto	-736
▁a	-737
▁Kor	-738
▁tan	-739
mi	-740
▁10	-741
atang	-742
atih	-743
▁6	-744
inggal	-745
▁daerah	-746
▁Pert	-747
▁terd	-748
omor	-749
lik	-750
amatan	-751
▁hasil	-752
abat	-753
uru	-754
▁kan	-755
ju	-756
uli	-757
upaya	-758
▁program	-759
epan	-760
▁sebuah	-761
▁menjel	-762
sp	-763
entu	-764
▁Selatan	-765
▁KP	-766
ambah	-767
▁lainnya	-768
egeri	-769
▁samp	-770
.00	-771
masuk	-772
unya	-773
▁did	-774
ukung	-775
ehatan	-776
apai	-777
▁RI	-778
iz	-779
ubern	-780
▁Menteri	-781
▁calon	-782
ubernur	-783
▁dunia	-784
usahaan	-785
▁produk	-786
▁menyebut	-787
▁Dalam	-788
formasi	-789
uta	-790
uari	-791
▁belum	-792
sa	-793
air	-794
emen	-795
▁Ut	-796
ologi	-797
▁Z	-798
▁antara	-799
etu	-800
if	-801
osial	-802
▁pertama	-803
▁tentang	-804
und	-805
▁Tr	-806
▁diper	-807
▁Kepala	-808
tas	-809
abaya	-810
ilu	-811
anti	-812
▁Agus	-813
▁sedang	-814
▁ses	-815
▁Surabaya	-816
aris	-817
ersi	-818
inggi	-819
li	-820
▁res	-821
▁kerja	-822
▁dem	-823
▁st	-824
▁kh	-825
utama	-826
▁penting	-827
▁menghad	-828
ampak	-829
men	-830
ingin	-831
▁Hal	-832
▁Bandung	-833
▁membuat	-834
okasi	-835
ayanan	-836
abar	-837
olah	-838
idang	-839
mad	-840
▁termasuk	-841
▁Mas	-842
▁man	-843
▁semua	-844
elas	-845
ef	-846
ilihan	-847
iter	-848
▁Ket	-849
ekerja	-850
MK	-851
▁pelaku	-852
▁sejumlah	-853
nas	-854
▁Partai	-855
amanan	-856
▁bi	-857
▁memas	-858
▁Timur	-859
alami	-860
▁Th	-861
▁Sep	-862
▁langsung	-863
2024	-864
▁China	-865
▁berj	-866
▁Sek	-867
▁depan	-868
insi	-869
▁Ini	-870
▁Mer	-871
▁Set	-872
araan	-873
▁berd	-874
ril	-875
akin	-876
▁Kec	-877
umum	-878
impin	-879
▁ya	-880
ibat	-881
atanya	-882
atif	-883
▁2023	-884
uas	-885
ungkap	-886
▁Pilkada	-887
akit	-888
▁sejak	-889
ank	-890
▁penc	-891
ual	-892
re	-893
▁Tengah	-894
usus	-895
sia	-896
▁As	-897
▁anggota	-898
▁8	-899
▁DPR	-900
akhir	-901
▁Ak	-902
antan	-903
▁15	-904
▁kedua	-905
▁kali	-906
anda	-907
unjuk	-908
esk	-909
▁katanya	-910
▁bagian	-911
▁suara	-912
▁waktu	-913
▁Um	-914
iap	-915
▁terp	-916
gas	-917
▁mener	-918
▁berp	-919
aka	-920
▁Persi	-921
ibu	-922
▁Jok	-923
tiv	-924
awat	-925
angunan	-926
▁bulan	-927
▁seorang	-928
epat	-929
antor	-930
▁mendukung	-931
asis	-932
▁Pal	-933
empuan	-934
▁12	-935
enterian	-936
▁politik	-937
encana	-938
ont	-939
▁Ok	-940
▁sehingga	-941
▁pengg	-942
istr	-943
/2024	-944
▁kota	-945
▁tempat	-946
ustr	-947
▁Ang	-948
ono	-949
aian	-950
uni	-951
erika	-952
▁mengaku	-953
▁serangan	-954
usat	-955
▁akhir	-956
asar	-957
▁menyampaikan	-958
akil	-959
▁Amerika	-960
utusan	-961
▁mulai	-962
▁ind	-963
▁Kap	-964
nyata	-965
▁dim	-966
atim	-967
ekn	-968
▁Selain	-969
arg	-970
awasan	-971
▁meningkatkan	-972
▁proses	-973
▁14	-974
▁Mal	-975
▁kons	-976
▁bel	-977
aksan	-978
ch	-979
▁saja	-980
onomi	-981
▁aw	-982
▁Polres	-983
▁perusahaan	-984
▁'	-985
eo	-986
lin	-987
oba	-988
▁lagi	-989
ompok	-990
▁[	-991
▁Kar	-992
▁16	-993
▁Nov	-994
ingkat	-995
▁Direk	-996
emukan	-997
ig	-998
ober	-999
ikat	-1000
▁ketika	-1001
▁sur	-1002
▁kamp	-1003
▁sosial	-1004
din	-1005
▁Pada	-1006
alau	-1007
ublik	-1008
▁menggunakan	-1009
▁201	-1010
▁seg	-1011
engk	-1012
PN	-1013
eksi	-1014
SI	-1015
▁malam	-1016
▁juta	-1017
akni	-1018
▁Rusia	-1019
DI	-1020
▁2024,	-1021
usaha	-1022
gaj	-1023
▁kesehatan	-1024
▁min	-1025
ca	-1026
▁9	-1027
uarga	-1028
▁media	-1029
ukungan	-1030
ard	-1031
▁ma	-1032
otor	-1033
vinsi	-1034
egi	-1035
▁menjelaskan	-1036
idup	-1037
▁tinggi	-1038
ort	-1039
▁bukan	-1040
▁13	-1041
▁yakni	-1042
NI	-1043
eral	-1044
▁Sh	-1045
oal	-1046
▁Umum	-1047
▁Mah	-1048
▁Okt	-1049
obil	-1050
adir	-1051
▁pemain	-1052
perasi	-1053
antuan	-1054
▁11	-1055
▁tetap	-1056
▁".	-1057
una	-1058
▁ben	-1059
▁Man	-1060
▁Oktober	-1061
▁kegi	-1062
▁mengen	-1063
▁ingin	-1064
▁kegiatan	-1065
▁keterangan	-1066
▁diri	-1067
▁air	-1068
▁Gubernur	-1069
upun	-1070
abil	-1071
arap	-1072
▁Kecamatan	-1073
▁PPP	-1074
▁masa	-1075
▁lanjut	-1076
▁17	-1077
▁Put	-1078
alkan	-1079
tus	-1080
▁en	-1081
▁tersangka	-1082
anjang	-1083
ukul	-1084
▁Kementerian	-1085
KP	-1086
▁upaya	-1087
angkah	-1088
▁Kami	-1089
ko	-1090
aza	-1091
usan	-1092
aling	-1093
▁berada	-1094
▁luar	-1095
▁apa	-1096
rat	-1097
▁put	-1098
▁Unit	-1099
inal	-1100
angkap	-1101
▁mendapatkan	-1102
▁Se	-1103
▁kemudian	-1104
tar	-1105
ukti	-1106
▁sampai	-1107
ers	-1108
owi	-1109
▁masuk	-1110
▁18	-1111
▁sekali	-1112
▁November	-1113
na	-1114
:3	-1115
ola	-1116
▁Jan	-1117
▁sesu	-1118
ahanan	-1119
▁makan	-1120
ula	-1121
aporan	-1122
▁mencapai	-1123
▁kur	-1124
▁Juli	-1125
-1	-1126
▁presiden	-1127
▁Wakil	-1128
▁(3	-1129
▁Tahun	-1130
▁tran	-1131
upsi	-1132
angi	-1133
AS	-1134
▁:	-1135
▁khusus	-1136
▁sebelumnya	-1137
▁posi	-1138
gab	-1139
ingkungan	-1140
▁kond	-1141
iran	-1142
▁Semarang	-1143
nah	-1144
ambil	-1145
▁menunjuk	-1146
▁uc	-1147
▁komp	-1148
▁/	-1149
ibran	-1150
▁acara	-1151
▁jelas	-1152
▁Gaza	-1153
le	-1154
▁Kel	-1155
▁dih	-1156
▁dukungan	-1157
▁perempuan	-1158
itmen	-1159
oy	-1160
yat	-1161
akal	-1162
▁21	-1163
▁Bog	-1164
ungkin	-1165
tim	-1166
▁i	-1167
▁musi	-1168
▁jalan	-1169
jata	-1170
▁kawasan	-1171
eda	-1172
adilan	-1173
▁kend	-1174
uhi	-1175
▁Bogor	-1176
ator	-1177
aki	-1178
▁Direktur	-1179
▁jadi	-1180
urkan	-1181
▁Polda	-1182
▁Sementara	-1183
ustri	-1184
enangan	-1185
▁Foto	-1186
▁pasangan	-1187
▁hak	-1188
▁Jalan	-1189
ilm	-1190
▁pukul	-1191
▁penyel	-1192
▁membantu	-1193
orong	-1194
▁Peny	-1195
anye	-1196
▁Utara	-1197
▁nomor	-1198
▁Agustus	-1199
),	-1200
yah	-1201
▁menyatakan	-1202
▁mengalami	-1203
:0	-1204
▁Nasional	-1205
▁Badan	-1206
▁?	-1207
▁Juni	-1208
utur	-1209
▁pengh	-1210
ital	-1211
.000	-1212
▁perk	-1213
▁terakhir	-1214
▁intern	-1215
endiri	-1216
▁Jadi	-1217
▁Har	-1218
▁Hari	-1219
▁Dep	-1220
iversi	-1221
▁bantuan	-1222
▁menunjukkan	-1223
▁Ab	-1224
tember	-1225
▁Desa	-1226
▁memastikan	-1227
oc	-1228
▁kap	-1229
▁jika	-1230
▁September	-1231
▁ekonomi	-1232
itan	-1233
▁PPPK	-1234
uatan	-1235
ayaan	-1236
▁Mei	-1237
▁Desember	-1238
▁lokasi	-1239
ulang	-1240
to	-1241
iar	-1242
▁tr	-1243
▁keluarga	-1244
ode	-1245
▁ia	-1246
▁tengah	-1247
awah	-1248
ema	-1249
▁gamb	-1250
KB	-1251
resi	-1252
▁Saya	-1253
▁meminta	-1254
angun	-1255
awab	-1256
▁ucap	-1257
▁jumlah	-1258
Kami	-1259
▁Kh	-1260
▁str	-1261
▁berlangsung	-1262
ulu	-1263
▁Ir	-1264
▁April	-1265
omb	-1266
:1	-1267
aut	-1268
ukai	-1269
aju	-1270
ateng	-1271
▁Pemerintah	-1272
▁mana	-1273
jen	-1274
▁meninggal	-1275
ebr	-1276
/11	-1277
▁Ah	-1278
emuan	-1279
urun	-1280
▁din	-1281
▁Januari	-1282
▁berhasil	-1283
erik	-1284
ond	-1285
▁Negeri	-1286
▁PDI	-1287
ubungan	-1288
ahui	-1289
▁berm	-1290
▁setiap	-1291
faat	-1292
▁awal	-1293
umber	-1294
otensi	-1295
▁rek	-1296
▁Kal	-1297
aporkan	-1298
▁laga	-1299
erta	-1300
RI	-1301
oor	-1302
erang	-1303
▁ar	-1304
▁asal	-1305
angga	-1306
▁tind	-1307
▁United	-1308
▁Sub	-1309
▁maupun	-1310
▁Pemb	-1311
ey	-1312
▁kl	-1313
eman	-1314
▁memp	-1315
▁Jokowi	-1316
▁partai	-1317
ungkapkan	-1318
dul	-1319
▁empat	-1320
erj	-1321
▁ujarnya	-1322
isata	-1323
▁Timnas	-1324
▁polisi	-1325
▁tekn	-1326
▁mobil	-1327
ebab	-1328
/7	-1329
▁soal	-1330
▁melihat	-1331
aim	-1332
emu	-1333
edi	-1334
etahui	-1335
▁sesuai	-1336
ungi	-1337
isn	-1338
urn	-1339
▁pihaknya	-1340
ahkan	-1341
kar	-1342
▁berharap	-1343
▁sebesar	-1344
asarkan	-1345
▁pet	-1346
▁Sum	-1347
rasi	-1348
▁resmi	-1349
ujan	-1350
▁perb	-1351
▁Universi	-1352
▁kelompok	-1353
irkan	-1354
ugaan	-1355
aih	-1356
▁kr	-1357
sel	-1358
ewan	-1359
▁Sat	-1360
▁X	-1361
▁sk	-1362
▁menurut	-1363
▁memen	-1364
▁pernah	-1365
/8	-1366
▁Pi	-1367
▁tangg	-1368
embangan	-1369
▁militer	-1370
/5	-1371
▁sendiri	-1372
▁Liga	-1373
▁Komisi	-1374
▁gambar	-1375
upati	-1376
▁ungkap	-1377
KI	-1378
ura	-1379
▁kondisi	-1380
▁Ham	-1381
krain	-1382
▁Trump	-1383
:5	-1384
uangan	-1385
ijakan	-1386
kraina	-1387
▁Maret	-1388
▁bekerja	-1389
ulkan	-1390
▁terk	-1391
/10	-1392
akyat	-1393
▁Ked	-1394
▁informasi	-1395
anjar	-1396
andingan	-1397
▁Ukraina	-1398
▁menambah	-1399
:4	-1400
asiswa	-1401
▁utama	-1402
ikuti	-1403
▁hadir	-1404
nyataan	-1405
▁Muh	-1406
▁nasional	-1407
sek	-1408
▁Para	-1409
▁Asia	-1410
▁Mereka	-1411
▁22	-1412
▁perd	-1413
▁Pend	-1414
/12	-1415
istem	-1416
istrik	-1417
▁Daerah	-1418
▁lingkungan	-1419
▁laporan	-1420
▁barang	-1421
▁dek	-1422
ies	-1423
upa	-1424
▁kendaraan	-1425
etugas	-1426
▁tanpa	-1427
unt	-1428
gan	-1429
▁yaitu	-1430
▁adanya	-1431
iden	-1432
embaga	-1433
▁Dem	-1434
▁perlu	-1435
▁perj	-1436
ampung	-1437
imana	-1438
▁KPU	-1439
▁menjalan	-1440
/9	-1441
▁Suk	-1442
ewas	-1443
▁Provinsi	-1444
ukup	-1445
angkat	-1446
av	-1447
▁menerima	-1448
ade	-1449
egaw	-1450
/6	-1451
▁Iran	-1452
arget	-1453
▁&	-1454
ejabat	-1455
abor	-1456
▁uang	-1457
▁Kapol	-1458
▁bakal	-1459
▁Kr	-1460
▁kont	-1461
▁perm	-1462
anding	-1463
▁memperk	-1464
ergi	-1465
/3	-1466
▁par	-1467
▁Pemilu	-1468
ampu	-1469
▁penj	-1470
▁sebanyak	-1471
lim	-1472
▁konf	-1473
▁Korea	-1474
ateg	-1475
▁layanan	-1476
eta	-1477
agaimana	-1478
▁keber	-1479
onor	-1480
alaman	-1481
idana	-1482
▁Air	-1483
▁keamanan	-1484
ma	-1485
usai	-1486
anak	-1487
▁dugaan	-1488
▁23	-1489
impinan	-1490
▁mengungkapkan	-1491
iaya	-1492
▁dok	-1493
adion	-1494
elit	-1495
▁TNI	-1496
▁sp	-1497
▁Pak	-1498
▁tuj	-1499
▁Sul	-1500
▁paling	-1501
▁mengenai	-1502
vest	-1503
▁Kes	-1504
alia	-1505
▁30	-1506
▁industri	-1507
ez	-1508
erb	-1509
▁dirinya	-1510
▁melawan	-1511
▁Keb	-1512
/4	-1513
▁Den	-1514
▁membawa	-1515
▁Anda	-1516
▁masalah	-1517
▁pl	-1518
▁sat	-1519
▁Ada	-1520
▁Ek	-1521
irim	-1522
▁on	-1523
amat	-1524
udara	-1525
eter	-1526
embang	-1527
aksanakan	-1528
▁Ol	-1529
▁kepala	-1530
▁kini	-1531
▁menggelar	-1532
apun	-1533
ilang	-1534
▁25	-1535
▁pendidikan	-1536
▁umum	-1537
▁des	-1538
▁Br	-1539
ANG	-1540
▁menjaga	-1541
▁perang	-1542
▁II	-1543
▁muda	-1544
ungsi	-1545
ham	-1546
▁En	-1547
▁Piala	-1548
▁Serikat	-1549
▁bawah	-1550
erintahan	-1551
▁menghadapi	-1552
isti	-1553
atihan	-1554
umen	-1555
▁Saat	-1556
▁mengaj	-1557
▁PS	-1558
tik	-1559
▁lima	-1560
gag	-1561
ajar	-1562
▁Pers	-1563
enang	-1564
isnis	-1565
▁Sej	-1566
▁pertandingan	-1567
▁Din	-1568
▁nama	-1569
▁PB	-1570
▁cukup	-1571
▁Leb	-1572
utuhan	-1573
apres	-1574
idik	-1575
▁Pap	-1576
▁Ia	-1577
▁Res	-1578
oni	-1579
▁Anies	-1580
uaca	-1581
aranya	-1582
▁of	-1583
▁berg	-1584
▁Gol	-1585
▁langkah	-1586
▁or	-1587
▁pembangunan	-1588
oordin	-1589
▁So	-1590
▁mah	-1591
▁Pusat	-1592
▁segera	-1593
▁sementara	-1594
▁And	-1595
▁pelangg	-1596
▁Mel	-1597
fi	-1598
▁surat	-1599
tum	-1600
▁KPK	-1601
▁harga	-1602
▁Negara	-1603
▁kampanye	-1604
▁mungkin	-1605
antai	-1606
▁urut	-1607
PB	-1608
▁menyel	-1609
▁data	-1610
atian	-1611
estina	-1612
▁op	-1613
▁situ	-1614
hi	-1615
edung	-1616
KN	-1617
wal	-1618
▁bukti	-1619
▁senjata	-1620
uara	-1621
▁sed	-1622
ha	-1623
▁Papua	-1624
fr	-1625
▁akibat	-1626
intas	-1627
▁negeri	-1628
ira	-1629
▁keh	-1630
stitu	-1631
▁Kantor	-1632
ret	-1633
▁Ari	-1634
▁1.	-1635
▁24	-1636
angsa	-1637
erjaan	-1638
▁Kemen	-1639
▁Universitas	-1640
▁sekolah	-1641
iau	-1642
▁diter	-1643
▁Stadion	-1644
▁memang	-1645
▁jam	-1646
▁kal	-1647
▁Sp	-1648
egal	-1649
saan	-1650
▁Ger	-1651
▁pernyataan	-1652
▁kebijakan	-1653
ubahan	-1654
▁mampu	-1655
▁digelar	-1656
▁em	-1657
▁tutur	-1658
jadian	-1659
▁sistem	-1660
uku	-1661
▁el	-1662
untu	-1663
▁meneg	-1664
AM	-1665
ori	-1666
▁kol	-1667
utuh	-1668
▁berin	-1669
busi	-1670
▁bal	-1671
▁Bea	-1672
▁tingkat	-1673
▁ken	-1674
▁Gr	-1675
▁mantan	-1676
▁Ahmad	-1677
▁kebutuhan	-1678
gus	-1679
▁Setelah	-1680
▁Palestina	-1681
▁internasional	-1682
uju	-1683
agu	-1684
sip	-1685
▁terj	-1686
-2	-1687
▁Q	-1688
ualitas	-1689
anten	-1690
umi	-1691
▁lama	-1692
aksa	-1693
:2	-1694
PS	-1695
▁pejabat	-1696
okus	-1697
elak	-1698
icara	-1699
▁Solo	-1700
▁pekan	-1701
▁Keterangan	-1702
▁siap	-1703
▁lap	-1704
▁pemilu	-1705
▁Polisi	-1706
▁hidup	-1707
atur	-1708
▁Ac	-1709
▁miliar	-1710
eski	-1711
▁Meng	-1712
ideo	-1713
empatan	-1714
▁Ganjar	-1715
▁Jep	-1716
/2024)	-1717
line	-1718
etapkan	-1719
▁int	-1720
▁datang	-1721
eal	-1722
▁Polri	-1723
▁milik	-1724
ulit	-1725
▁mod	-1726
argaan	-1727
▁punya	-1728
eran	-1729
▁Febr	-1730
▁Cukai	-1731
▁Ing	-1732
▁bersi	-1733
▁mendorong	-1734
andang	-1735
juangan	-1736
war	-1737
▁war	-1738
erd	-1739
▁sekaligus	-1740
isian	-1741
▁08	-1742
AB	-1743
▁PP	-1744
enaga	-1745
▁aman	-1746
▁makanan	-1747
arkoba	-1748
yo	-1749
▁pan	-1750
me	-1751
alur	-1752
ohon	-1753
eriksaan	-1754
ebat	-1755
▁hujan	-1756
▁Wid	-1757
▁dij	-1758
▁wakil	-1759
edan	-1760
▁Bank	-1761
▁Il	-1762
ingkatan	-1763
▁bahkan	-1764
▁akhirnya	-1765
unga	-1766
▁diduga	-1767
▁Depok	-1768
enderal	-1769
▁sakit	-1770
pres	-1771
▁pemerintahan	-1772
▁tanah	-1773
▁Bupati	-1774
▁Or	-1775
▁publik	-1776
▁ny	-1777
enis	-1778
uanya	-1779
▁pemimpin	-1780
▁mendatang	-1781
ibatkan	-1782
▁Intern	-1783
lob	-1784
▁motor	-1785
▁Hamas	-1786
etak	-1787
ft	-1788
▁guru	-1789
dukung	-1790
▁Bas	-1791
min	-1792
▁kejadian	-1793
▁Februari	-1794
▁07	-1795
▁Bel	-1796
▁Untuk	-1797
amah	-1798
▁cara	-1799
▁listrik	-1800
▁menilai	-1801
oin	-1802
▁El	-1803
▁mew	-1804
UR	-1805
la	-1806
lobal	-1807
▁ribu	-1808
arik	-1809
engar	-1810
▁Angg	-1811
ambang	-1812
▁Kon	-1813
▁is	-1814
▁bern	-1815
▁ment	-1816
auh	-1817
▁digunakan	-1818
▁Biden	-1819
onorer	-1820
olusi	-1821
ongan	-1822
▁Persib	-1823
▁menegaskan	-1824
▁kalau	-1825
truk	-1826
atat	-1827
▁Nomor	-1828
ianto	-1829
▁pasar	-1830
▁ditemukan	-1831
▁kapal	-1832
baru	-1833
ammad	-1834
ampil	-1835
arin	-1836
▁menuju	-1837
uki	-1838
▁teknologi	-1839
▁menambahkan	-1840
no	-1841
▁perl	-1842
tivitas	-1843
▁Gun	-1844
▁berjalan	-1845
aborasi	-1846
EN	-1847
adaan	-1848
▁aksi	-1849
▁Jepang	-1850
amina	-1851
embak	-1852
▁ibu	-1853
anjir	-1854
▁beras	-1855
anggung	-1856
enal	-1857
▁Nus	-1858
▁tert	-1859
uti	-1860
unaan	-1861
isial	-1862
▁peserta	-1863
▁27	-1864
erasan	-1865
fikasi	-1866
▁Jatim	-1867
enggara	-1868
▁ku	-1869
ity	-1870
▁bat	-1871
enar	-1872
▁DKI	-1873
▁petugas	-1874
▁pil	-1875
▁bisnis	-1876
ujud	-1877
▁pri	-1878
▁tewas	-1879
egitu	-1880
▁Met	-1881
▁rasa	-1882
okrasi	-1883
▁z	-1884
otal	-1885
▁Tan	-1886
▁Baru	-1887
ebabkan	-1888
▁Ero	-1889
olisian	-1890
▁Dengan	-1891
▁Sebelum	-1892
aji	-1893
▁peri	-1894
▁Adapun	-1895
▁sempat	-1896
▁Salah	-1897
▁komitmen	-1898
inc	-1899
uri	-1900
▁Banten	-1901
▁Jaya	-1902
▁komun	-1903
▁Dit	-1904
jo	-1905
▁tahu	-1906
▁Wali	-1907
alis	-1908
▁terutama	-1909
▁sebagian	-1910
▁Eropa	-1911
ganisasi	-1912
▁pemeriksaan	-1913
▁Pertamina	-1914
▁kantor	-1915
por	-1916
▁Kej	-1917
▁sektor	-1918
▁meraih	-1919
tan	-1920
▁09	-1921
erahkan	-1922
▁semakin	-1923
iah	-1924
▁Ram	-1925
▁periode	-1926
▁terbaik	-1927
▁gol	-1928
alanan	-1929
ipun	-1930
sis	-1931
▁eks	-1932
eskipun	-1933
▁diberikan	-1934
▁hubungan	-1935
arian	-1936
▁Calon	-1937
▁Jenderal	-1938
UM	-1939
▁Kemudian	-1940
▁kab	-1941
erasi	-1942
▁Program	-1943
oro	-1944
ajaran	-1945
▁Rep	-1946
▁cepat	-1947
▁gr	-1948
adah	-1949
▁musim	-1950
▁Dinas	-1951
bu	-1952
▁korupsi	-1953
▁pak	-1954
▁potensi	-1955
▁perc	-1956
▁jatim	-1957
MKM	-1958
krim	-1959
▁berinisial	-1960
▁teg	-1961
▁Subianto	-1962
lam	-1963
▁Bal	-1964
▁mengikuti	-1965
ly	-1966
▁selalu	-1967
▁Sup	-1968
▁cuaca	-1969
▁membangun	-1970
umas	-1971
ation	-1972
▁Tak	-1973
abilitas	-1974
▁perubahan	-1975
lon	-1976
▁ef	-1977
▁ketiga	-1978
▁digital	-1979
▁Si	-1980
▁dic	-1981
▁har	-1982
▁pember	-1983
▁The	-1984
enda	-1985
ampir	-1986
anjutan	-1987
▁rakyat	-1988
▁tok	-1989
adang	-1990
▁BB	-1991
▁meningkat	-1992
isk	-1993
▁bentuk	-1994
ipil	-1995
▁mahasiswa	-1996
▁jabar	-1997
▁keputusan	-1998
ubah	-1999
resiasi	-2000
▁disampaikan	-2001
▁Mus	-2002
sama	-2003
NG	-2004
▁FC	-2005
▁trans	-2006
aftar	-2007
ulasi	-2008
oritas	-2009
▁200	-2010
▁berusia	-2011
antara	-2012
▁Jabar	-2013
olak	-2014
▁usaha	-2015
anjutkan	-2016
▁pemilihan	-2017
ambut	-2018
▁pertemuan	-2019
▁bertu	-2020
▁il	-2021
▁Jateng	-2022
vestasi	-2023
▁Mo	-2024
asilitas	-2025
▁memberi	-2026
▁film	-2027
▁tindakan	-2028
ore	-2029
gris	-2030
▁tinggal	-2031
yak	-2032
▁Su	-2033
▁pul	-2034
▁jauh	-2035
/8).	-2036
▁Ins	-2037
/11).	-2038
▁Gibran	-2039
▁kesempatan	-2040
▁nanti	-2041
akah	-2042
▁kemenangan	-2043
amin	-2044
arakan	-2045
umsi	-2046
▁jar	-2047
▁Agung	-2048
▁disebut	-2049
antas	-2050
ogy	-2051
▁desa	-2052
▁Has	-2053
yek	-2054
▁PBB	-2055
tribusi	-2056
▁ger	-2057
▁form	-2058
▁peningkatan	-2059
▁perjalanan	-2060
/7).	-2061
▁2022	-2062
▁Austr	-2063
▁Tidak	-2064
▁video	-2065
▁Pasal	-2066
▁jawab	-2067
▁06	-2068
▁ikut	-2069
▁Inggris	-2070
ky	-2071
ugas	-2072
▁Mad	-2073
▁jenis	-2074
utup	-2075
ach	-2076
▁daya	-2077
▁mengel	-2078
atasan	-2079
likasi	-2080
▁posisi	-2081
▁Ma	-2082
anggap	-2083
idat	-2084
▁dekat	-2085
ajang	-2086
▁membuka	-2087
▁Dewan	-2088
elakaan	-2089
▁terpilih	-2090
ovasi	-2091
okal	-2092
▁enam	-2093
▁terbaru	-2094
▁kuat	-2095
▁kurang	-2096
▁Gar	-2097
▁bahan	-2098
▁mengambil	-2099
pasar	-2100
vei	-2101
▁memilih	-2102
▁terc	-2103
atangan	-2104
▁(5	-2105
▁Im	-2106
umumkan	-2107
eli	-2108
/10).	-2109
▁UMKM	-2110
▁seusai	-2111
▁kand	-2112
▁maka	-2113
▁udara	-2114
alahan	-2115
utuhkan	-2116
ulis	-2117
▁gen	-2118
Gibran	-2119
▁tenaga	-2120
▁Pl	-2121
takan	-2122
▁Perd	-2123
▁Golkar	-2124
Saya	-2125
▁kecil	-2126
ate	-2127
anta	-2128
onel	-2129
▁Rumah	-2130
▁begitu	-2131
itra	-2132
▁ut	-2133
okan	-2134
▁satunya	-2135
▁Denpasar	-2136
AT	-2137
▁menjalani	-2138
atar	-2139
▁26	-2140
▁New	-2141
▁saksi	-2142
/2024).	-2143
▁Hukum	-2144
▁Par	-2145
sipasi	-2146
▁tel	-2147
▁Pemilihan	-2148
▁pria	-2149
ajak	-2150
bes	-2151
▁kej	-2152
▁bidang	-2153
▁ungg	-2154
enti	-2155
▁Komp	-2156
rov	-2157
▁merasa	-2158
▁terlibat	-2159
awas	-2160
▁berkom	-2161
▁Sy	-2162
okok	-2163
▁menit	-2164
▁Rah	-2165
▁pusat	-2166
▁dr	-2167
▁Ant	-2168
▁ist	-2169
▁suk	-2170
ayakan	-2171
amankan	-2172
/2	-2173
abatan	-2174
▁nilai	-2175
▁online	-2176
▁memenuhi	-2177
▁menging	-2178
MI	-2179
ilis	-2180
▁melaporkan	-2181
▁Mil	-2182
erman	-2183
▁dampak	-2184
eks	-2185
atusan	-2186
▁Sumat	-2187
irakan	-2188
▁poin	-2189
/5).	-2190
▁biasa	-2191
▁penuh	-2192
abr	-2193
ayat	-2194
▁2025	-2195
undang	-2196
▁operasi	-2197
▁28	-2198
▁Warga	-2199
▁berdasarkan	-2200
ansi	-2201
▁PDIP	-2202
/1).	-2203
▁and	-2204
▁Menurutnya	-2205
ce	-2206
▁Nur	-2207
▁pener	-2208
▁ditangkap	-2209
grasi	-2210
▁mau	-2211
▁khususnya	-2212
ewat	-2213
▁imb	-2214
ex	-2215
wak	-2216
▁sumber	-2217
▁(4	-2218
▁Dari	-2219
entasi	-2220
▁SE	-2221
▁ASN	-2222
▁keluar	-2223
▁mempert	-2224
▁Em	-2225
ayar	-2226
aturan	-2227
stitusi	-2228
uncurkan	-2229
ubuh	-2230
▁29	-2231
▁Dan	-2232
▁global	-2233
▁Kan	-2234
gabung	-2235
▁sekarang	-2236
istik	-2237
▁maju	-2238
▁Dr	-2239
inasi	-2240
▁bagaimana	-2241
arapkan	-2242
▁turun	-2243
unuhan	-2244
▁dibanding	-2245
omo	-2246
atuh	-2247
▁Dunia	-2248
▁1,	-2249
▁Gedung	-2250
▁positif	-2251
▁banjir	-2252
▁tah	-2253
ratis	-2254
▁menang	-2255
one	-2256
/6).	-2257
tumb	-2258
uman	-2259
udaya	-2260
▁Riau	-2261
▁honorer	-2262
▁Yo	-2263
▁total	-2264
ry	-2265
▁Sal	-2266
▁pekerja	-2267
ikit	-2268
▁tambah	-2269
▁eksp	-2270
▁Australia	-2271
ewa	-2272
▁Budi	-2273
▁Mak	-2274
▁fasilitas	-2275
▁menemukan	-2276
▁Perjuangan	-2277
▁kekerasan	-2278
fud	-2279
iptakan	-2280
▁lembaga	-2281
▁Pes	-2282
iba	-2283
▁keras	-2284
▁id	-2285
▁dana	-2286
▁pidana	-2287
aksanaan	-2288
▁unit	-2289
ho	-2290
atus	-2291
kot	-2292
▁peran	-2293
anian	-2294
▁pagi	-2295
▁Ker	-2296
uduk	-2297
▁imp	-2298
▁wisata	-2299
▁gubernur	-2300
▁Utama	-2301
▁kompet	-2302
unggu	-2303
masing	-2304
▁penghargaan	-2305
/9).	-2306
unjungan	-2307
▁hampir	-2308
▁bermain	-2309
▁ditu	-2310
▁antaranya	-2311
▁Sa	-2312
adwal	-2313
ahter	-2314
ikian	-2315
elawan	-2316
erensi	-2317
indungan	-2318
▁laut	-2319
unjung	-2320
▁For	-2321
negara	-2322
▁pasukan	-2323
iti	-2324
▁Us	-2325
uf	-2326
AY	-2327
erl	-2328
ogyakarta	-2329
▁Besar	-2330
▁ik	-2331
▁tepat	-2332
▁setempat	-2333
▁Raya	-2334
▁engg	-2335
urah	-2336
/12).	-2337
▁seri	-2338
awaslu	-2339
tasi	-2340
▁ev	-2341
▁bali	-2342
▁02	-2343
wi	-2344
▁tegas	-2345
ungkinan	-2346
▁lapangan	-2347
MKG	-2348
▁UU	-2349
▁naik	-2350
▁perh	-2351
izin	-2352
▁masing	-2353
▁Pelatih	-2354
KS	-2355
otel	-2356
▁Republik	-2357
ahas	-2358
▁lah	-2359
▁Yogyakarta	-2360
▁05	-2361
▁Ed	-2362
atasi	-2363
tumbuhan	-2364
▁berita	-2365
odo	-2366
▁),	-2367
ris	-2368
▁beb	-2369
uncul	-2370
/3).	-2371
▁Dua	-2372
amping	-2373
▁menyebabkan	-2374
ona	-2375
pol	-2376
▁mom	-2377
ARA	-2378
▁Bek	-2379
elang	-2380
pons	-2381
akaran	-2382
▁kil	-2383
te	-2384
▁pelanggaran	-2385
istiwa	-2386
▁namun	-2387
▁Muhammad	-2388
▁angka	-2389
▁bur	-2390
▁energi	-2391
▁pemilih	-2392
▁Sekret	-2393
▁menjelang	-2394
co	-2395
iman	-2396
usung	-2397
ass	-2398
▁Ku	-2399
▁Le	-2400
▁mat	-2401
▁karya	-2402
akatan	-2403
▁sepanjang	-2404
indak	-2405
▁DPRD	-2406
▁lintas	-2407
▁turut	-2408
▁manusia	-2409
mal	-2410
of	-2411
▁04	-2412
▁sipil	-2413
ekerjaan	-2414
▁Pul	-2415
▁prak	-2416
▁memperkuat	-2417
▁BRI	-2418
▁del	-2419
endah	-2420
ki	-2421
amu	-2422
antikan	-2423
antangan	-2424
▁menyebutkan	-2425
AYA	-2426
orn	-2427
▁Pa	-2428
amai	-2429
▁Joko	-2430
PR	-2431
ajib	-2432
▁tangan	-2433
▁menarik	-2434
uarkan	-2435
▁lokal	-2436
▁narkoba	-2437
▁sisi	-2438
egawai	-2439
ine	-2440
Un	-2441
let	-2442
▁jalur	-2443
umpang	-2444
jid	-2445
▁Nat	-2446
▁fokus	-2447
▁50	-2448
amar	-2449
▁tubuh	-2450
▁benar	-2451
▁SM	-2452
▁persi	-2453
▁mengur	-2454
uji	-2455
▁01	-2456
▁Gus	-2457
▁tapi	-2458
▁mudah	-2459
NT	-2460
juan	-2461
▁mencari	-2462
oli	-2463
▁berbeda	-2464
▁Re	-2465
/4).	-2466
▁belak	-2467
▁sedikit	-2468
▁kemungkinan	-2469
ela	-2470
▁100	-2471
▁kualitas	-2472
ash	-2473
▁disel	-2474
▁bertemu	-2475
▁Bar	-2476
▁Seorang	-2477
▁menghadirkan	-2478
▁target	-2479
▁Bo	-2480
ategis	-2481
▁).	-2482
▁Kesehatan	-2483
▁PSI	-2484
iun	-2485
egah	-2486
▁menciptakan	-2487
agangan	-2488
▁demi	-2489
entukan	-2490
▁ob	-2491
▁demikian	-2492
erita	-2493
okrat	-2494
▁menekan	-2495
▁perkara	-2496
erak	-2497
▁kemarin	-2498
lemen	-2499
▁gag	-2500
▁Tang	-2501
ambahan	-2502
▁Anak	-2503
▁tertu	-2504
▁tugas	-2505
▁tujuan	-2506
▁dihad	-2507
▁fak	-2508
he	-2509
mar	-2510
unuh	-2511
▁(6	-2512
utip	-2513
▁akses	-2514
▁pengalaman	-2515
ral	-2516
▁Prof	-2517
▁Sebelumnya	-2518
▁keterangannya	-2519
▁seni	-2520
▁31	-2521
▁ajang	-2522
▁manfaat	-2523
▁organisasi	-2524
istan	-2525
▁jabatan	-2526
▁menteri	-2527
▁sis	-2528
▁Mul	-2529
▁berat	-2530
▁terdapat	-2531
▁diketahui	-2532
▁Abdul	-2533
▁keuangan	-2534
▁asing	-2535
ans	-2536
▁RS	-2537
▁muncul	-2538
▁Anggota	-2539
usak	-2540
▁elek	-2541
▁mengak	-2542
▁03	-2543
▁isu	-2544
▁Penj	-2545
▁Widodo	-2546
▁pelaksanaan	-2547
▁dini	-2548
▁guna	-2549
▁bicara	-2550
ck	-2551
▁kecelakaan	-2552
AL	-2553
anan	-2554
▁Luar	-2555
▁pembunuhan	-2556
ingatan	-2557
▁tuturnya	-2558
ibuan	-2559
▁Kerja	-2560
▁kad	-2561
ust	-2562
▁DPP	-2563
inerja	-2564
▁Rak	-2565
▁med	-2566
ert	-2567
▁api	-2568
▁ruang	-2569
▁pengembangan	-2570
▁Raf	-2571
▁rencana	-2572
▁Sumatera	-2573
SD	-2574
▁luas	-2575
▁Lebih	-2576
▁Pilpres	-2577
lis	-2578
ens	-2579
udik	-2580
▁Karena	-2581
▁Kombes	-2582
▁Malang	-2583
▁Itu	-2584
▁Bidang	-2585
UNG	-2586
operasi	-2587
▁Masyarakat	-2588
▁panjang	-2589
▁putusan	-2590
epas	-2591
tawan	-2592
▁pertumbuhan	-2593
▁dar	-2594
▁ilegal	-2595
▁BAN	-2596
▁Aceh	-2597
▁Humas	-2598
ibur	-2599
isme	-2600
▁emas	-2601
ediakan	-2602
▁ucapnya	-2603
ebar	-2604
▁pesawat	-2605
▁BP	-2606
kl	-2607
▁At	-2608
▁Bah	-2609
ero	-2610
arti	-2611
▁Tel	-2612
egini	-2613
uhnya	-2614
▁melaksanakan	-2615
▁tiba	-2616
▁Jo	-2617
ilip	-2618
▁bernama	-2619
embangkan	-2620
▁Ben	-2621
▁Demokrat	-2622
▁mengumumkan	-2623
osok	-2624
▁BUM	-2625
ustrasi	-2626
entingan	-2627
▁Bawaslu	-2628
oordinasi	-2629
30	-2630
ase	-2631
ila	-2632
isiko	-2633
▁diharapkan	-2634
▁ali	-2635
▁Berd	-2636
▁Rid	-2637
▁produksi	-2638
▁Sl	-2639
AI	-2640
▁Eri	-2641
▁Tangerang	-2642
ess	-2643
▁tanggal	-2644
▁Hasil	-2645
▁kasih	-2646
▁pengaw	-2647
ortasi	-2648
▁alasan	-2649
KBP	-2650
▁apakah	-2651
▁SUR	-2652
▁for	-2653
▁aturan	-2654
▁e	-2655
▁pangan	-2656
▁diperk	-2657
▁situasi	-2658
▁Arab	-2659
▁Tran	-2660
▁titik	-2661
enggarakan	-2662
ward	-2663
ational	-2664
▁melibatkan	-2665
erat	-2666
bar	-2667
▁Gro	-2668
▁penyakit	-2669
ial	-2670
▁Pengadilan	-2671
jau	-2672
▁alat	-2673
▁Islam	-2674
PNN	-2675
abak	-2676
ayu	-2677
▁AKBP	-2678
▁makin	-2679
agus	-2680
▁samb	-2681
▁bangsa	-2682
▁budaya	-2683
▁sering	-2684
yan	-2685
ungai	-2686
▁alias	-2687
▁memimpin	-2688
yu	-2689
▁Min	-2690
ABAYA	-2691
▁SURABAYA	-2692
▁kepolisian	-2693
▁gel	-2694
untut	-2695
adakan	-2696
▁sidang	-2697
▁Pendidikan	-2698
was	-2699
anja	-2700
▁sana	-2701
".	-2702
▁SD	-2703
▁Mem	-2704
▁(18	-2705
erti	-2706
▁Sekretaris	-2707
urat	-2708
▁(23	-2709
encan	-2710
▁tantangan	-2711
ungutan	-2712
▁2,	-2713
▁pengel	-2714
▁survei	-2715
▁(20	-2716
ment	-2717
▁terlihat	-2718
▁Nas	-2719
▁proyek	-2720
▁prof	-2721
▁peluang	-2722
▁ped	-2723
▁Laut	-2724
lasi	-2725
▁Kapolres	-2726
etik	-2727
▁diterima	-2728
▁pengguna	-2729
andar	-2730
▁Meski	-2731
▁pilihan	-2732
▁(22	-2733
caman	-2734
▁tril	-2735
▁lewat	-2736
ail	-2737
arasi	-2738
ayang	-2739
▁personel	-2740
▁ot	-2741
isal	-2742
▁kunjungan	-2743
zi	-2744
▁rut	-2745
▁Pember	-2746
▁kepentingan	-2747
▁dikenal	-2748
▁terbesar	-2749
sist	-2750
anjian	-2751
▁bencana	-2752
eor	-2753
▁Ng	-2754
▁penda	-2755
▁pendukung	-2756
▁bes	-2757
icu	-2758
akwa	-2759
itasi	-2760
▁dimulai	-2761
▁anggaran	-2762
▁melanjutkan	-2763
ton	-2764
▁dibandingkan	-2765
bul	-2766
truktur	-2767
raga	-2768
▁seleksi	-2769
kum	-2770
▁PN	-2771
▁usia	-2772
45	-2773
▁Pat	-2774
▁Kalau	-2775
▁Kasus	-2776
▁akun	-2777
esaikan	-2778
▁transp	-2779
▁aktif	-2780
▁(19	-2781
▁arah	-2782
▁konflik	-2783
▁(21	-2784
utuskan	-2785
▁bola	-2786
emi	-2787
▁Mand	-2788
▁enggak	-2789
▁berkomitmen	-2790
▁berupa	-2791
▁semb	-2792
▁badan	-2793
▁tokoh	-2794
▁berasal	-2795
angkaian	-2796
▁tujuh	-2797
▁Op	-2798
▁Bat	-2799
▁penelit	-2800
▁(24	-2801
abuhan	-2802
▁musik	-2803
▁mengajak	-2804
all	-2805
▁sah	-2806
akuasi	-2807
ujudkan	-2808
qu	-2809
impi	-2810
▁triliun	-2811
▁strategis	-2812
GP	-2813
▁(17	-2814
▁Kas	-2815
▁Sud	-2816
▁investasi	-2817
▁area	-2818
:00	-2819
ancis	-2820
▁berkel	-2821
▁lahan	-2822
▁sehat	-2823
▁pelayanan	-2824
▁Lap	-2825
II	-2826
etn	-2827
▁terbuka	-2828
▁konferensi	-2829
▁AF	-2830
▁(30	-2831
antaran	-2832
anji	-2833
▁Dis	-2834
▁sang	-2835
▁Kalim	-2836
onsumsi	-2837
▁Lampung	-2838
OG	-2839
▁penjara	-2840
▁Sam	-2841
▁art	-2842
egiatan	-2843
▁ed	-2844
▁Dok	-2845
▁efek	-2846
wakilan	-2847
▁Sejumlah	-2848
amanya	-2849
▁Jerman	-2850
▁provinsi	-2851
▁Palembang	-2852
ejahter	-2853
entikan	-2854
ork	-2855
▁DPD	-2856
▁sig	-2857
kamah	-2858
urahan	-2859
atform	-2860
▁Sebagai	-2861
▁Ka	-2862
▁(27	-2863
urangan	-2864
▁tindak	-2865
▁jelasnya	-2866
▁2.	-2867
masi	-2868
▁luka	-2869
anjutnya	-2870
▁BUMN	-2871
▁final	-2872
entuk	-2873
▁optim	-2874
su	-2875
▁dilaksanakan	-2876
▁40	-2877
▁(25	-2878
▁(7	-2879
▁Oleh	-2880
▁(15	-2881
▁formasi	-2882
▁dilaporkan	-2883
▁Dip	-2884
indra	-2885
▁babak	-2886
alahkan	-2887
▁penumpang	-2888
sor	-2889
▁Co	-2890
badi	-2891
▁pop	-2892
anusi	-2893
▁BMKG	-2894
▁teman	-2895
▁pekerjaan	-2896
nif	-2897
elis	-2898
tagram	-2899
gub	-2900
▁Bl	-2901
irasi	-2902
▁Er	-2903
▁Her	-2904
▁Riz	-2905
▁Korupsi	-2906
▁solusi	-2907
▁Metro	-2908
▁Bekasi	-2909
▁gratis	-2910
angkapan	-2911
▁berusaha	-2912
▁Nusantara	-2913
▁Hak	-2914
onald	-2915
faatkan	-2916
agam	-2917
▁penggunaan	-2918
rah	-2919
▁mata	-2920
▁latihan	-2921
▁pentingnya	-2922
▁Sing	-2923
antung	-2924
▁dianggap	-2925
▁aktivitas	-2926
kab	-2927
erai	-2928
uasa	-2929
▁tua	-2930
olaan	-2931
emui	-2932
asanya	-2933
indungi	-2934
▁Mahkamah	-2935
▁kinerja	-2936
▁Bi	-2937
▁Dig	-2938
▁hukuman	-2939
▁menurun	-2940
aca	-2941
▁(29	-2942
▁JPNN	-2943
▁sini	-2944
▁(10	-2945
yanto	-2946
▁bus	-2947
▁Prancis	-2948
antik	-2949
olid	-2950
urus	-2951
▁generasi	-2952
▁(11	-2953
▁sup	-2954
▁sampah	-2955
PK	-2956
isah	-2957
ategi	-2958
▁ternyata	-2959
uma	-2960
▁(8	-2961
▁Rek	-2962
▁BAND	-2963
asaran	-2964
▁terdiri	-2965
▁tampak	-2966
▁Pur	-2967
epatan	-2968
▁2023.	-2969
▁Ibu	-2970
ftaran	-2971
▁berupaya	-2972
▁pendaftaran	-2973
▁Net	-2974
▁menolak	-2975
▁peristiwa	-2976
tinggi	-2977
▁perdana	-2978
ampingi	-2979
th	-2980
onton	-2981
▁Filip	-2982
ewaskan	-2983
▁mengungkap	-2984
▁Ex	-2985
aysia	-2986
ekonom	-2987
▁biaya	-2988
▁Sumber	-2989
ekonomian	-2990
▁inf	-2991
▁Tekn	-2992
onf	-2993
▁sulit	-2994
▁tampil	-2995
yarat	-2996
▁semangat	-2997
▁Af	-2998
siden	-2999
▁Pram	-3000
▁Gerindra	-3001
▁aplikasi	-3002
▁bertujuan	-3003
▁demokrasi	-3004
ty	-3005
anon	-3006
▁Filipina	-3007
▁belakang	-3008
▁menangkap	-3009
▁Kalimantan	-3010
▁jaringan	-3011
sen	-3012
▁Maj	-3013
▁Str	-3014
▁ialah	-3015
▁wartawan	-3016
lo	-3017
▁pesan	-3018
▁penyelidikan	-3019
iaga	-3020
▁(28	-3021
▁anti	-3022
anggar	-3023
▁kontr	-3024
▁siswa	-3025
▁ditetapkan	-3026
inj	-3027
▁MK	-3028
ajemen	-3029
▁Instagram	-3030
ayak	-3031
▁oper	-3032
▁India	-3033
▁hakim	-3034
awarkan	-3035
▁kematian	-3036
▁lantaran	-3037
▁ib	-3038
▁Tri	-3039
uad	-3040
abes	-3041
ampuan	-3042
▁kesel	-3043
uth	-3044
ilah	-3045
awatan	-3046
▁(9	-3047
iket	-3048
▁leg	-3049
▁pimpinan	-3050
andatangan	-3051
▁ulang	-3052
wil	-3053
amen	-3054
oran	-3055
▁asp	-3056
roduk	-3057
▁paslon	-3058
itur	-3059
▁Kamp	-3060
▁pertahanan	-3061
▁(26	-3062
▁petani	-3063
▁perg	-3064
fras	-3065
▁(13	-3066
▁PKB	-3067
nifikan	-3068
▁pelatih	-3069
▁Ramadan	-3070
▁Sebanyak	-3071
▁Ali	-3072
▁ringan	-3073
▁ancaman	-3074
▁kelas	-3075
▁Lebanon	-3076
▁Ilustrasi	-3077
▁memenangkan	-3078
▁ANT	-3079
▁HAM	-3080
▁siapa	-3081
▁mengetahui	-3082
OR	-3083
ast	-3084
andi	-3085
▁Sri	-3086
ebasan	-3087
mat	-3088
alisi	-3089
▁kepem	-3090
▁komunitas	-3091
PBD	-3092
iwa	-3093
▁ah	-3094
onis	-3095
▁selatan	-3096
▁meskipun	-3097
ejahteraan	-3098
▁Az	-3099
▁lagu	-3100
ender	-3101
▁Undang	-3102
▁ratusan	-3103
PNS	-3104
wedan	-3105
▁skor	-3106
irmasi	-3107
▁Malaysia	-3108
▁Sus	-3109
▁signifikan	-3110
▁menyediakan	-3111
arif	-3112
▁(16	-3113
▁Putih	-3114
▁keper	-3115
▁La	-3116
▁judi	-3117
jualan	-3118
baik	-3119
▁non	-3120
▁sik	-3121
▁dasar	-3122
▁tentu	-3123
▁Car	-3124
▁jateng	-3125
▁Baswedan	-3126
▁perhatian	-3127
▁kolaborasi	-3128
dy	-3129
▁Kl	-3130
▁sa	-3131
ategori	-3132
oordinator	-3133
juk	-3134
▁to	-3135
▁sin	-3136
anusiaan	-3137
▁mencegah	-3138
▁menghadiri	-3139
▁Pasar	-3140
▁kenaikan	-3141
ogja	-3142
ulus	-3143
▁Moto	-3144
▁disi	-3145
▁jajaran	-3146
▁menjabat	-3147
▁peringatan	-3148
▁Tai	-3149
▁Tur	-3150
antasan	-3151
frastruktur	-3152
uler	-3153
estiv	-3154
▁angk	-3155
▁menjalankan	-3156
▁olah	-3157
▁pasti	-3158
▁ANTARA	-3159
▁Dik	-3160
▁Angk	-3161
▁gagal	-3162
▁kesep	-3163
▁Korban	-3164
▁pegawai	-3165
▁TPS	-3166
▁sil	-3167
▁gug	-3168
▁dikutip	-3169
▁kekuatan	-3170
▁Tenggara	-3171
unikasi	-3172
tifikasi	-3173
▁BANDUNG	-3174
aha	-3175
ampilan	-3176
▁Gunung	-3177
▁mengirim	-3178
stem	-3179
inaan	-3180
endara	-3181
estival	-3182
▁Mantan	-3183
kap	-3184
▁juara	-3185
▁mengurangi	-3186
▁On	-3187
▁pos	-3188
▁terh	-3189
▁Serang	-3190
▁dokter	-3191
▁Perdana	-3192
▁inovasi	-3193
▁(14	-3194
entar	-3195
▁Kad	-3196
anksi	-3197
apatan	-3198
enarnya	-3199
erit	-3200
▁Sed	-3201
ustru	-3202
▁rapat	-3203
▁platform	-3204
▁Keuangan	-3205
▁Suriah	-3206
▁terima	-3207
▁kemampuan	-3208
▁membutuhkan	-3209
erg	-3210
▁Dar	-3211
▁rem	-3212
▁hati	-3213
▁perbatasan	-3214
intang	-3215
▁Pilgub	-3216
DP	-3217
▁izin	-3218
▁Paris	-3219
adisi	-3220
ukaan	-3221
▁Fran	-3222
idupan	-3223
▁Kegiatan	-3224
▁der	-3225
▁Pj	-3226
ora	-3227
tup	-3228
▁BBC	-3229
▁memutuskan	-3230
▁meluncurkan	-3231
▁KO	-3232
unda	-3233
dangan	-3234
▁MotoGP	-3235
▁Wah	-3236
anita	-3237
▁disk	-3238
▁spesi	-3239
▁Berikut	-3240
udal	-3241
▁Bad	-3242
intaan	-3243
wisata	-3244
▁berkelanjutan	-3245
fa	-3246
▁vs	-3247
empa	-3248
iayaan	-3249
▁Orang	-3250
▁jadwal	-3251
po	-3252
▁(12	-3253
▁buah	-3254
▁Beberapa	-3255
▁menunggu	-3256
▁menewaskan	-3257
▁Pos	-3258
▁gab	-3259
uy	-3260
har	-3261
▁Me	-3262
uhkan	-3263
anganan	-3264
▁delapan	-3265
▁Dew	-3266
▁Ta	-3267
evel	-3268
isan	-3269
▁Mart	-3270
▁Sebab	-3271
adai	-3272
▁Gel	-3273
▁Gen	-3274
▁boleh	-3275
▁aparat	-3276
▁Internasional	-3277
tib	-3278
atas	-3279
▁bebas	-3280
arusnya	-3281
uruan	-3282
▁pat	-3283
iring	-3284
▁membahas	-3285
-202	-3286
IN	-3287
▁momen	-3288
▁penyidik	-3289
▁Pet	-3290
▁reg	-3291
▁sub	-3292
▁alam	-3293
kumham	-3294
▁Hasto	-3295
impiade	-3296
▁minggu	-3297
▁;	-3298
▁konsumen	-3299
▁ok	-3300
▁menekankan	-3301
▁Ris	-3302
▁meres	-3303
▁Vi	-3304
kand	-3305
▁2021	-3306
▁meman	-3307
▁Tol	-3308
awesi	-3309
▁Jika	-3310
▁siang	-3311
▁Ridwan	-3312
▁mencoba	-3313
▁Sulawesi	-3314
▁mengajukan	-3315
▁Pembangunan	-3316
TB	-3317
ahatan	-3318
▁Wilayah	-3319
▁mes	-3320
▁puluhan	-3321
▁tahap	-3322
ekl	-3323
ukur	-3324
usif	-3325
▁Fak	-3326
▁Pihak	-3327
▁Bandara	-3328
red	-3329
tudi	-3330
▁Moh	-3331
▁Grup	-3332
PAS	-3333
asakan	-3334
▁menetapkan	-3335
▁III	-3336
▁ketua	-3337
▁Tet	-3338
▁Perk	-3339
▁menyi	-3340
▁Yang	-3341
▁kader	-3342
abum	-3343
engkap	-3344
▁Kedua	-3345
olaborasi	-3346
,5	-3347
▁penerb	-3348
▁maksi	-3349
▁menyer	-3350
▁hit	-3351
antau	-3352
▁istri	-3353
▁mengatasi	-3354
cak	-3355
▁Bul	-3356
▁menik	-3357
▁sejarah	-3358
los	-3359
▁Kong	-3360
angani	-3361
▁debat	-3362
▁harapan	-3363
▁kemanusiaan	-3364
▁kew	-3365
▁Selama	-3366
NA	-3367
TT	-3368
▁DEN	-3369
▁Pang	-3370
▁menawarkan	-3371
esai	-3372
hati	-3373
▁bersih	-3374
▁us	-3375
anggapi	-3376
zah	-3377
arto	-3378
▁meter	-3379
▁risiko	-3380
▁IKN	-3381
▁agama	-3382
▁Rakyat	-3383
▁percaya	-3384
ihan	-3385
▁Saudi	-3386
▁pribadi	-3387
taf	-3388
esak	-3389
utri	-3390
▁neg	-3391
hawat	-3392
▁sukses	-3393
▁mengakui	-3394
▁bay	-3395
▁sal	-3396
PASAR	-3397
agang	-3398
aksaan	-3399
▁Center	-3400
▁DENPASAR	-3401
▁SI	-3402
ungkan	-3403
oalisi	-3404
▁mengeluarkan	-3405
▁Ric	-3406
abuming	-3407
▁justru	-3408
▁Perempuan	-3409
▁Sim	-3410
▁log	-3411
▁kabupaten	-3412
▁Rakabuming	-3413
ite	-3414
num	-3415
▁kebakaran	-3416
▁Berdasarkan	-3417
uturkan	-3418
▁menuturkan	-3419
arikan	-3420
▁status	-3421
▁bangunan	-3422
ji	-3423
egr	-3424
adem	-3425
▁Ken	-3426
angin	-3427
▁terg	-3428
▁Keh	-3429
▁sore	-3430
ailand	-3431
ajukan	-3432
▁Group	-3433
▁bagus	-3434
▁tertinggi	-3435
▁International	-3436
▁Thailand	-3437
ord	-3438
▁gabungan	-3439
▁kandidat	-3440
▁menyambut	-3441
ekat	-3442
jauh	-3443
▁Uni	-3444
▁Bagi	-3445
▁Berk	-3446
migrasi	-3447
ariwisata	-3448
ell	-3449
▁Kur	-3450
▁vir	-3451
alagi	-3452
▁kehidupan	-3453
▁mengamankan	-3454
▁Kita	-3455
▁Raka	-3456
▁Seti	-3457
ee	-3458
uw	-3459
▁ur	-3460
▁tud	-3461
▁Koordinator	-3462
itkan	-3463
▁meski	-3464
▁kategori	-3465
▁berkembang	-3466
▁mengembangkan	-3467
ancam	-3468
▁dinilai	-3469
anggil	-3470
0.	-3471
▁Pan	-3472
iksa	-3473
▁kalah	-3474
▁sosok	-3475
▁lakukan	-3476
esu	-3477
abumi	-3478
▁CPNS	-3479
▁foto	-3480
imbulkan	-3481
▁ab	-3482
▁sy	-3483
▁199	-3484
abila	-3485
langga	-3486
▁berlaku	-3487
▁Idul	-3488
▁Mend	-3489
▁balik	-3490
▁kesejahteraan	-3491
iksi	-3492
uddin	-3493
▁bergabung	-3494
ikir	-3495
osisi	-3496
▁Pekan	-3497
▁mencatat	-3498
▁Sosial	-3499
go	-3500
ito	-3501
ongk	-3502
▁Politik	-3503
▁perkembangan	-3504
ajah	-3505
▁berbicara	-3506
apaian	-3507
▁Begini	-3508
ack	-3509
edar	-3510
antinya	-3511
ministr	-3512
kes	-3513
▁ul	-3514
▁Sukabumi	-3515
▁Airlangga	-3516
ood	-3517
▁Id	-3518
ampi	-3519
▁bek	-3520
entak	-3521
iraan	-3522
▁jiwa	-3523
▁pemungutan	-3524
akup	-3525
▁pand	-3526
▁putra	-3527
▁bergerak	-3528
udin	-3529
omend	-3530
▁Forum	-3531
anyakan	-3532
isalnya	-3533
omendasi	-3534
▁mengingatkan	-3535
oa	-3536
/3)	-3537
lor	-3538
▁rel	-3539
▁Trans	-3540
▁mengaw	-3541
▁menyerang	-3542
▁merah	-3543
asilkan	-3544
▁berper	-3545
▁sepeda	-3546
▁perlindungan	-3547
/5)	-3548
upuk	-3549
▁2019	-3550
▁Penc	-3551
▁dibawa	-3552
▁rendah	-3553
▁ribuan	-3554
▁selesai	-3555
▁merek	-3556
▁minim	-3557
▁rangka	-3558
▁Taiwan	-3559
▁mewujudkan	-3560
▁pengelolaan	-3561
aid	-3562
ekar	-3563
▁sus	-3564
▁Kend	-3565
▁dikel	-3566
▁kabar	-3567
▁teror	-3568
▁profesi	-3569
raf	-3570
aker	-3571
▁Afr	-3572
▁Sah	-3573
▁tumb	-3574
unjungi	-3575
▁terdampak	-3576
▁Shin	-3577
▁arus	-3578
▁ng	-3579
▁Khusus	-3580
osk	-3581
▁nyata	-3582
▁diperkirakan	-3583
cr	-3584
omat	-3585
syah	-3586
apresiasi	-3587
adar	-3588
▁terdakwa	-3589
▁Pertahanan	-3590
hip	-3591
▁Hend	-3592
artemen	-3593
▁infrastruktur	-3594
ten	-3595
▁truk	-3596
apak	-3597
▁pengawasan	-3598
bullah	-3599
▁rudal	-3600
▁hilang	-3601
▁pelatihan	-3602
▁kre	-3603
igran	-3604
urunan	-3605
▁re	-3606
unci	-3607
▁Bir	-3608
torat	-3609
▁Sumsel	-3610
aluasi	-3611
▁insiden	-3612
▁Olimpiade	-3613
▁sebenarnya	-3614
/4)	-3615
ren	-3616
▁AI	-3617
ance	-3618
▁tambahan	-3619
PU	-3620
ano	-3621
▁Seh	-3622
▁meninggalkan	-3623
son	-3624
airan	-3625
▁klub	-3626
ometer	-3627
▁Hotel	-3628
▁Informasi	-3629
EO	-3630
eja	-3631
▁Kons	-3632
▁Acara	-3633
▁Tanah	-3634
▁pajak	-3635
ilangan	-3636
▁seharusnya	-3637
▁Berb	-3638
etan	-3639
mati	-3640
▁pasi	-3641
asitas	-3642
▁Medan	-3643
▁daftar	-3644
▁puncak	-3645
▁berbasis	-3646
▁Kelurahan	-3647
▁sedangkan	-3648
ner	-3649
indo	-3650
▁Pemain	-3651
▁pemilik	-3652
▁strategi	-3653
etul	-3654
▁seks	-3655
izbullah	-3656
▁perdagangan	-3657
▁gelar	-3658
▁ton	-3659
▁Muda	-3660
▁ayah	-3661
▁Lebaran	-3662
▁Pasangan	-3663
abah	-3664
emprov	-3665
ida	-3666
ifah	-3667
yadi	-3668
unggal	-3669
▁kesepakatan	-3670
adu	-3671
embakan	-3672
▁minyak	-3673
▁tradisi	-3674
bud	-3675
mcr	-3676
ugi	-3677
itri	-3678
▁Mat	-3679
alifikasi	-3680
▁melanggar	-3681
▁pengungsi	-3682
▁berpotensi	-3683
▁im	-3684
▁darah	-3685
▁jangan	-3686
▁terlalu	-3687
▁mitra	-3688
▁pilkada	-3689
▁menyiapkan	-3690
isik	-3691
▁Megaw	-3692
▁tiket	-3693
OA	-3694
▁ahli	-3695
iriman	-3696
▁tulis	-3697
▁kalangan	-3698
▁Kek	-3699
usakan	-3700
▁buruk	-3701
▁perawatan	-3702
▁net	-3703
▁berakhir	-3704
wang	-3705
▁PKS	-3706
ahulu	-3707
▁genc	-3708
▁Award	-3709
awapres	-3710
▁didukung	-3711
▁Hizbullah	-3712
▁pelanggan	-3713
▁Ul	-3714
▁ka	-3715
▁Pri	-3716
▁Satu	-3717
▁tertulis	-3718
▁tema	-3719
ainkan	-3720
▁kulit	-3721
▁Megawati	-3722
▁Kemenkumham	-3723
bon	-3724
▁60	-3725
umur	-3726
atuan	-3727
▁utara	-3728
▁penduduk	-3729
▁35	-3730
▁kri	-3731
▁Dewi	-3732
tes	-3733
▁Sil	-3734
esang	-3735
▁Kara	-3736
▁Pelaku	-3737
▁selaku	-3738
▁berdampak	-3739
UT	-3740
▁Bh	-3741
▁mempering	-3742
▁menyelesaikan	-3743
tain	-3744
▁Int	-3745
lem	-3746
▁Ti	-3747
▁memicu	-3748
▁senior	-3749
laki	-3750
evisi	-3751
IP	-3752
▁ro	-3753
▁KOTA	-3754
▁Lalu	-3755
▁Kaesang	-3756
ataan	-3757
etnam	-3758
asilan	-3759
▁paket	-3760
▁berikut	-3761
▁mendesak	-3762
▁Ev	-3763
▁visi	-3764
etapan	-3765
▁melindungi	-3766
uel	-3767
alin	-3768
anggu	-3769
▁Kali	-3770
amaian	-3771
anyaan	-3772
▁Garuda	-3773
▁sanksi	-3774
▁Keamanan	-3775
:30	-3776
▁gram	-3777
▁serius	-3778
ice	-3779
ongsor	-3780
▁syarat	-3781
▁Vietnam	-3782
▁maksimal	-3783
▁penanganan	-3784
▁permintaan	-3785
▁mus	-3786
▁awak	-3787
▁pres	-3788
▁2023,	-3789
▁Banyak	-3790
▁menyerahkan	-3791
▁Fr	-3792
▁Ro	-3793
▁sikap	-3794
▁kompetisi	-3795
old	-3796
awal	-3797
illah	-3798
ahankan	-3799
▁saling	-3800
▁ungkapnya	-3801
Ini	-3802
▁bank	-3803
▁Ung	-3804
atatan	-3805
▁menyus	-3806
▁pembel	-3807
▁Operasi	-3808
▁diselenggarakan	-3809
▁Ik	-3810
/2).	-3811
arjo	-3812
▁Bany	-3813
▁Pemkot	-3814
onfirmasi	-3815
ear	-3816
▁up	-3817
akti	-3818
assar	-3819
▁Khof	-3820
iburan	-3821
ulauan	-3822
wenang	-3823
▁Kamil	-3824
▁rutin	-3825
▁hi	-3826
enag	-3827
empur	-3828
▁iklim	-3829
▁kursi	-3830
idaknya	-3831
▁Khofifah	-3832
▁penerbangan	-3833
arelawan	-3834
insip	-3835
▁Samp	-3836
ayaran	-3837
▁Penjabat	-3838
▁kejahatan	-3839
anyi	-3840
ikin	-3841
ombang	-3842
▁diikuti	-3843
▁tertentu	-3844
▁pengadilan	-3845
▁Seri	-3846
cayaan	-3847
ington	-3848
▁mencetak	-3849
▁MPR	-3850
▁Film	-3851
▁Pulau	-3852
enggaraan	-3853
uny	-3854
undur	-3855
▁Ekonomi	-3856
/11)	-3857
abrik	-3858
▁panas	-3859
entitas	-3860
▁Padang	-3861
▁Lembaga	-3862
/7)	-3863
opi	-3864
▁AKP	-3865
▁tol	-3866
asiun	-3867
▁laki	-3868
ekanan	-3869
▁Harris	-3870
asp	-3871
▁Suh	-3872
adinya	-3873
ker	-3874
ainan	-3875
io	-3876
▁ins	-3877
▁Bantu	-3878
▁Manag	-3879
enalkan	-3880
▁Champi	-3881
▁Tinggi	-3882
▁menimbulkan	-3883
acam	-3884
edakan	-3885
ace	-3886
/12)	-3887
▁City	-3888
▁Menj	-3889
rig	-3890
sekut	-3891
▁Ketika	-3892
▁mengapresiasi	-3893
omm	-3894
rut	-3895
agub	-3896
▁Wil	-3897
▁mencakup	-3898
ence	-3899
oalan	-3900
▁Irjen	-3901
argetkan	-3902
▁Makassar	-3903
▁perjanjian	-3904
▁Ho	-3905
▁Sid	-3906
aksana	-3907
anjung	-3908
▁Senayan	-3909
ket	-3910
ambat	-3911
▁sabu	-3912
uasaan	-3913
▁Sleman	-3914
▁pertanian	-3915
▁unggul	-3916
▁Pertama	-3917
▁tentara	-3918
▁Serangan	-3919
ER	-3920
▁Mod	-3921
ahami	-3922
▁Putra	-3923
ue	-3924
egang	-3925
tabes	-3926
▁terang	-3927
▁penjualan	-3928
▁Roh	-3929
▁Polresta	-3930
▁operasional	-3931
▁bl	-3932
▁putih	-3933
▁berawan	-3934
inet	-3935
▁ekspor	-3936
jual	-3937
▁Pran	-3938
▁Purw	-3939
▁mati	-3940
▁impor	-3941
▁memanfaatkan	-3942
-19	-3943
oroti	-3944
▁antar	-3945
▁Meskipun	-3946
▁komunikasi	-3947
▁kepemimpinan	-3948
▁misi	-3949
▁wali	-3950
▁Penyel	-3951
▁Kampung	-3952
▁gugatan	-3953
▁dipimpin	-3954
▁Merah	-3955
▁tuduhan	-3956
▁dihadiri	-3957
▁olahraga	-3958
▁penyebab	-3959
▁kilometer	-3960
..	-3961
ASN	-3962
oko	-3963
osiasi	-3964
▁tambahnya	-3965
oman	-3966
▁medis	-3967
▁Kemend	-3968
▁diambil	-3969
-7	-3970
yono	-3971
▁berf	-3972
▁peneg	-3973
/9)	-3974
ino	-3975
▁Jam	-3976
▁Marc	-3977
▁yakin	-3978
/8)	-3979
benar	-3980
ontoh	-3981
▁inst	-3982
ubungi	-3983
▁rokok	-3984
sidi	-3985
▁parlemen	-3986
▁mengingat	-3987
▁(31	-3988
▁uji	-3989
ugian	-3990
▁Harga	-3991
angkalan	-3992
ajuan	-3993
▁klas	-3994
▁dokumen	-3995
▁Industri	-3996
▁transaksi	-3997
AP	-3998
oga	-3999
tivis	-4000
▁peringkat	-4001
/6)	-4002
▁Juru	-4003
▁konser	-4004
▁ditahan	-4005
ili	-4006
pon	-4007
▁gaj	-4008
▁nas	-4009
▁ekstr	-4010
dus	-4011
▁mo	-4012
▁Cor	-4013
▁Wash	-4014
▁diperl	-4015
▁Perusahaan	-4016
ick	-4017
tron	-4018
▁aku	-4019
▁Bang	-4020
▁Musi	-4021
▁angin	-4022
▁pencarian	-4023
▁kehilangan	-4024
ontribusi	-4025
ministrasi	-4026
fik	-4027
▁VOA	-4028
entuan	-4029
▁Motor	-4030
▁Pengh	-4031
▁Sejak	-4032
▁laman	-4033
▁mesin	-4034
▁Mandiri	-4035
▁diskusi	-4036
▁memasuki	-4037
so	-4038
ish	-4039
▁Nik	-4040
enagak	-4041
kandar	-4042
▁barat	-4043
indakan	-4044
sh	-4045
▁ing	-4046
▁mey	-4047
andera	-4048
▁materi	-4049
▁merilis	-4050
▁penelitian	-4051
enagakerjaan	-4052
Mah	-4053
esan	-4054
▁Sin	-4055
▁Donald	-4056
UP	-4057
▁PL	-4058
▁bupati	-4059
ungkinkan	-4060
agn	-4061
andra	-4062
▁haji	-4063
▁swas	-4064
ameran	-4065
sisten	-4066
ns	-4067
ancar	-4068
Mahfud	-4069
ekatan	-4070
hadiran	-4071
▁pengan	-4072
▁persiapan	-4073
▁Washington	-4074
abang	-4075
antah	-4076
▁tuan	-4077
▁inisi	-4078
tabilitas	-4079
▁mengalahkan	-4080
HK	-4081
akuan	-4082
▁Perm	-4083
▁berisi	-4084
▁putaran	-4085
▁sembilan	-4086
ht	-4087
▁Iskandar	-4088
▁mengubah	-4089
▁menjawab	-4090
▁gempa	-4091
▁suami	-4092
▁Melalui	-4093
UU	-4094
▁da	-4095
▁atlet	-4096
▁Pantai	-4097
▁Pemkab	-4098
▁tercatat	-4099
▁Dav	-4100
▁juru	-4101
▁perp	-4102
▁libur	-4103
▁selain	-4104
▁menjadikan	-4105
.30	-4106
imbau	-4107
▁Hujan	-4108
▁gedung	-4109
▁minuman	-4110
▁Sw	-4111
▁biasanya	-4112
▁Champions	-4113
▁jatuh	-4114
▁berkontribusi	-4115
alih	-4116
alik	-4117
▁Tae	-4118
ARANG	-4119
▁sehari	-4120
▁Pemprov	-4121
▁Lingkungan	-4122
▁Art	-4123
reskrim	-4124
ive	-4125
sir	-4126
ukl	-4127
▁Go	-4128
▁Persis	-4129
▁pulang	-4130
▁Digital	-4131
▁anaknya	-4132
ci	-4133
ony	-4134
hiri	-4135
jang	-4136
umpul	-4137
▁obat	-4138
▁Up	-4139
▁mul	-4140
awatir	-4141
▁undang	-4142
ON	-4143
jing	-4144
▁Perh	-4145
indari	-4146
▁Hakim	-4147
▁mudik	-4148
▁apresiasi	-4149
▁menurunkan	-4150
▁pertanyaan	-4151
▁penangkapan	-4152
ajam	-4153
▁Cir	-4154
▁Joh	-4155
kom	-4156
hari	-4157
▁memulai	-4158
▁mengusung	-4159
ill	-4160
▁Boj	-4161
▁Putri	-4162
▁ketat	-4163
▁Petugas	-4164
▁Karawang	-4165
intu	-4166
▁Pria	-4167
Undang	-4168
▁Kejaksaan	-4169
▁kehadiran	-4170
▁memungkinkan	-4171
▁Div	-4172
▁Arif	-4173
▁ikan	-4174
iminal	-4175
▁Pengaw	-4176
▁segala	-4177
▁Festival	-4178
▁keduanya	-4179
▁era	-4180
vensi	-4181
▁fisik	-4182
▁oknum	-4183
▁selamat	-4184
▁gencatan	-4185
rom	-4186
urian	-4187
▁Nusa	-4188
ohonan	-4189
ampilkan	-4190
▁Pemberantasan	-4191
▁Sk	-4192
ater	-4193
uluh	-4194
▁Joe	-4195
ebaya	-4196
▁dibuka	-4197
▁Kepulauan	-4198
KA	-4199
hat	-4200
sat	-4201
▁No	-4202
/10)	-4203
tian	-4204
▁Cip	-4205
▁dipas	-4206
▁jangka	-4207
▁berarti	-4208
▁kepercayaan	-4209
egional	-4210
▁Bambang	-4211
▁praktik	-4212
MB	-4213
▁Madura	-4214
▁pantai	-4215
▁perwakilan	-4216
HO	-4217
▁Surat	-4218
▁rusak	-4219
▁Soekar	-4220
eorologi	-4221
▁kapasitas	-4222
▁Mir	-4223
istis	-4224
▁Afrika	-4225
▁Mahfud	-4226
▁menutup	-4227
▁menghentikan	-4228
ron	-4229
▁Ju	-4230
apol	-4231
▁Kos	-4232
▁Ros	-4233
aimin	-4234
alang	-4235
KPU	-4236
▁Ip	-4237
ujuk	-4238
▁Apa	-4239
▁SEM	-4240
alian	-4241
▁Mobil	-4242
▁putri	-4243
▁ga	-4244
▁CEO	-4245
▁coba	-4246
enazah	-4247
▁Pranowo	-4248
▁longsor	-4249
▁terbukti	-4250
▁persoalan	-4251
rab	-4252
leks	-4253
arangan	-4254
itungan	-4255
▁Polsek	-4256
orl	-4257
ahuan	-4258
yatakan	-4259
▁Imigrasi	-4260
▁perekonomian	-4261
▁$	-4262
esti	-4263
▁Yus	-4264
adahal	-4265
▁kementerian	-4266
▁gas	-4267
▁band	-4268
BS	-4269
-23	-4270
▁met	-4271
otika	-4272
▁damai	-4273
osistem	-4274
▁Hingga	-4275
▁mengand	-4276
▁er	-4277
abis	-4278
▁Bei	-4279
▁hutan	-4280
▁ditemui	-4281
▁Persebaya	-4282
▁diamankan	-4283
land	-4284
sabu	-4285
▁War	-4286
truksi	-4287
sekutif	-4288
▁faktor	-4289
/1)	-4290
▁Bus	-4291
anggilan	-4292
▁SEMARANG	-4293
▁profesional	-4294
awi	-4295
ayani	-4296
▁kampus	-4297
▁belajar	-4298
▁menentukan	-4299
IS	-4300
rid	-4301
elasan	-4302
igrasi	-4303
▁fitur	-4304
▁sepak	-4305
▁dibuat	-4306
▁memperoleh	-4307
UD	-4308
isl	-4309
iling	-4310
orter	-4311
▁suatu	-4312
▁mengunjungi	-4313
akai	-4314
vasi	-4315
ensif	-4316
▁Akan	-4317
agikan	-4318
▁Sar	-4319
▁mak	-4320
▁aset	-4321
▁pengamanan	-4322
by	-4323
evakuasi	-4324
▁standar	-4325
RT	-4326
ahl	-4327
itr	-4328
tajuk	-4329
▁Hart	-4330
▁Tapi	-4331
▁lawan	-4332
roduksi	-4333
▁mengec	-4334
ech	-4335
▁3,	-4336
▁bayi	-4337
▁kanan	-4338
arkotika	-4339
▁Cil	-4340
aksud	-4341
uransi	-4342
▁mengadakan	-4343
▁Rai	-4344
▁kerap	-4345
spirasi	-4346
▁dahulu	-4347
▁Beijing	-4348
▁membeli	-4349
▁Surakarta	-4350
▁Tik	-4351
apura	-4352
▁Ters	-4353
▁Institu	-4354
▁bertajuk	-4355
▁Pelabuhan	-4356
ando	-4357
udul	-4358
▁the	-4359
▁Guru	-4360
▁konten	-4361
awancara	-4362
▁Tanjung	-4363
▁Angkatan	-4364
ff	-4365
▁Terl	-4366
▁berwenang	-4367
oso	-4368
sus	-4369
▁Fat	-4370
ukasi	-4371
▁Sant	-4372
▁capres	-4373
▁Peraturan	-4374
▁prioritas	-4375
▁menghasilkan	-4376
-3	-4377
▁...	-4378
▁Siap	-4379
▁tata	-4380
▁hewan	-4381
▁timur	-4382
▁efektif	-4383
▁Kepolisian	-4384
san	-4385
▁DI	-4386
▁News	-4387
estasi	-4388
embatan	-4389
▁kereta	-4390
andatangani	-4391
50	-4392
▁Cl	-4393
▁berperan	-4394
▁bertanggung	-4395
nik	-4396
▁Produk	-4397
▁Did	-4398
ahaya	-4399
intar	-4400
▁darurat	-4401
▁kemajuan	-4402
▁penurunan	-4403
amm	-4404
▁Karya	-4405
▁pasien	-4406
BK	-4407
uklir	-4408
▁pula	-4409
▁Turki	-4410
▁hitam	-4411
▁senang	-4412
▁khawatir	-4413
otan	-4414
ester	-4415
▁Daya	-4416
▁Muslim	-4417
▁kerugian	-4418
▁Konstitusi	-4419
▁!	-4420
▁jasa	-4421
ebaran	-4422
▁Kelompok	-4423
▁Ib	-4424
▁MA	-4425
Jadi	-4426
aruh	-4427
▁dom	-4428
▁Andi	-4429
anyahu	-4430
▁bahasa	-4431
▁Teknologi	-4432
▁beroperasi	-4433
PT	-4434
ahmi	-4435
▁kaki	-4436
▁teknis	-4437
▁Sekolah	-4438
▁Netanyahu	-4439
▁menanggapi	-4440
▁bar	-4441
elayan	-4442
▁klaim	-4443
▁kerusakan	-4444
▁mempertahankan	-4445
▁Hid	-4446
gunaan	-4447
▁seksual	-4448
rist	-4449
▁grup	-4450
siapkan	-4451
▁Bersama	-4452
▁mengonsumsi	-4453
bk	-4454
luas	-4455
pora	-4456
utaan	-4457
eriksa	-4458
▁inter	-4459
▁Masjid	-4460
umpulkan	-4461
▁senilai	-4462
RB	-4463
▁kesi	-4464
▁Putin	-4465
▁batas	-4466
▁memahami	-4467
▁menengah	-4468
▁Pekanbaru	-4469
▁diperlukan	-4470
fat	-4471
agama	-4472
▁Jasa	-4473
▁sant	-4474
▁layak	-4475
▁menud	-4476
▁Kompol	-4477
▁kecamatan	-4478
▁pengusaha	-4479
▁menya	-4480
▁Layanan	-4481
▁beragam	-4482
▁keadaan	-4483
▁Be	-4484
astik	-4485
▁Qatar	-4486
▁kunci	-4487
▁serupa	-4488
▁2024-202	-4489
▁menyoroti	-4490
▁Da	-4491
anyol	-4492
hamdul	-4493
orld	-4494
▁Gian	-4495
▁buku	-4496
▁Sungai	-4497
▁lanjutnya	-4498
▁pendapatan	-4499
kus	-4500
our	-4501
▁Tiga	-4502
▁zona	-4503
▁rangkaian	-4504
ie	-4505
▁32	-4506
▁SAR	-4507
masalahan	-4508
▁Pertanian	-4509
uz	-4510
▁buat	-4511
▁Bakal	-4512
▁pohon	-4513
▁rekan	-4514
intah	-4515
egahan	-4516
▁fungsi	-4517
▁mundur	-4518
▁wanita	-4519
iang	-4520
▁Kasat	-4521
▁tanggung	-4522
▁membentuk	-4523
▁Direktorat	-4524
pro	-4525
▁Dj	-4526
ania	-4527
▁Wak	-4528
udahan	-4529
▁tekanan	-4530
▁menerapkan	-4531
▁penyelenggaraan	-4532
ge	-4533
▁]	-4534
▁Con	-4535
engaruhi	-4536
▁bertahan	-4537
▁selanjutnya	-4538
▁es	-4539
▁dulu	-4540
▁Hasan	-4541
▁Kelas	-4542
uncuran	-4543
▁Spanyol	-4544
▁Pimpinan	-4545
▁Ny	-4546
ediaan	-4547
▁Erick	-4548
▁tangga	-4549
▁tahanan	-4550
ingkatkan	-4551
▁didampingi	-4552
▁pengunjung	-4553
ve	-4554
▁kos	-4555
▁2026	-4556
▁Makan	-4557
▁nyaman	-4558
▁nantinya	-4559
▁setidaknya	-4560
▁36	-4561
udayaan	-4562
▁dinyatakan	-4563
entan	-4564
entunya	-4565
ifinal	-4566
▁Anwar	-4567
engkapi	-4568
▁berubah	-4569
▁lengkap	-4570
▁semuanya	-4571
iat	-4572
▁akrab	-4573
urnamen	-4574
▁kalinya	-4575
▁Ha	-4576
emaah	-4577
▁2020	-4578
▁karyawan	-4579
▁Bengk	-4580
rediksi	-4581
▁kontrak	-4582
▁peraturan	-4583
agri	-4584
ertai	-4585
▁Soal	-4586
▁mengin	-4587
▁remaja	-4588
▁kekuasaan	-4589
▁berkualitas	-4590
adw	-4591
▁3.	-4592
▁Tbk	-4593
▁lem	-4594
▁ram	-4595
▁dinas	-4596
▁warna	-4597
▁ketidak	-4598
▁pengiriman	-4599
ound	-4600
▁Ass	-4601
enting	-4602
▁Aparat	-4603
▁Kaltim	-4604
▁Panc	-4605
vestor	-4606
▁Agama	-4607
▁transportasi	-4608
▁Terb	-4609
▁Militer	-4610
app	-4611
▁umat	-4612
▁Kapolda	-4613
▁It	-4614
▁Batu	-4615
eorang	-4616
▁nasabah	-4617
▁Keluarga	-4618
▁permohonan	-4619
PO	-4620
▁UN	-4621
indah	-4622
angguan	-4623
▁manajemen	-4624
▁Jalur	-4625
▁rekomendasi	-4626
▁Kat	-4627
▁norm	-4628
▁pemuda	-4629
empatkan	-4630
PI	-4631
▁He	-4632
antren	-4633
awanan	-4634
▁efisi	-4635
urnalis	-4636
imbangan	-4637
▁ekstrem	-4638
▁sesuatu	-4639
etuju	-4640
▁Perj	-4641
▁Perl	-4642
▁Karno	-4643
angkatan	-4644
▁Majelis	-4645
▁ekosistem	-4646
PD	-4647
▁May	-4648
▁usai	-4649
▁situs	-4650
alurkan	-4651
▁gerakan	-4652
hawatiran	-4653
ber	-4654
andan	-4655
▁apabila	-4656
▁Singapura	-4657
tion	-4658
▁Yud	-4659
▁Natal	-4660
▁Kediri	-4661
▁penetapan	-4662
▁dibutuhkan	-4663
lih	-4664
▁Te	-4665
aing	-4666
▁Ped	-4667
arkir	-4668
▁Gelar	-4669
alisasi	-4670
▁mengimbau	-4671
▁4,	-4672
▁Kim	-4673
▁Comm	-4674
▁intel	-4675
▁Jumlah	-4676
▁prinsip	-4677
▁perbaikan	-4678
itia	-4679
▁Rapat	-4680
PA	-4681
hu	-4682
cepat	-4683
orneo	-4684
▁Irak	-4685
▁Ting	-4686
▁Balai	-4687
▁Sakit	-4688
ominasi	-4689
▁Borneo	-4690
elahiran	-4691
imbangkan	-4692
epi	-4693
▁br	-4694
▁Teg	-4695
imaan	-4696
▁Martin	-4697
▁pabrik	-4698
▁persidangan	-4699
amkan	-4700
▁Emas	-4701
▁nuklir	-4702
▁swasta	-4703
hamdulillah	-4704
adj	-4705
gasi	-4706
▁Situ	-4707
▁World	-4708
▁alami	-4709
hasilan	-4710
▁Kanwil	-4711
▁Sekjen	-4712
▁agenda	-4713
ock	-4714
▁80	-4715
▁Dedi	-4716
▁bunga	-4717
▁Persija	-4718
▁merayakan	-4719
▁elektabilitas	-4720
▁Bung	-4721
▁Meny	-4722
▁keny	-4723
obatan	-4724
▁Media	-4725
▁Taman	-4726
▁saran	-4727
▁ibadah	-4728
▁Seperti	-4729
▁sambung	-4730
▁Pasalnya	-4731
▁logistik	-4732
lt	-4733
▁NTB	-4734
▁Sya	-4735
▁Kapal	-4736
▁wajib	-4737
▁lancar	-4738
▁Setiawan	-4739
▁34	-4740
kota	-4741
▁Data	-4742
DO	-4743
EAN	-4744
bal	-4745
▁Semua	-4746
▁lihat	-4747
▁Meteorologi	-4748
▁tes	-4749
▁BPBD	-4750
▁dipl	-4751
▁sungai	-4752
KPK	-4753
▁MD	-4754
▁HUT	-4755
▁rep	-4756
▁Hadi	-4757
enjata	-4758
uktikan	-4759
▁perayaan	-4760
jek	-4761
▁Dana	-4762
aritas	-4763
amatkan	-4764
▁mengus	-4765
▁aktivis	-4766
▁catatan	-4767
▁identitas	-4768
▁berikutnya	-4769
▁500	-4770
▁tun	-4771
ogram	-4772
▁pemberian	-4773
▁perangkat	-4774
sur	-4775
▁Mic	-4776
ikbud	-4777
etujui	-4778
▁melip	-4779
▁keselamatan	-4780
▁menampilkan	-4781
are	-4782
▁Sir	-4783
itung	-4784
▁Cuaca	-4785
▁seseorang	-4786
identifikasi	-4787
etika	-4788
▁gaji	-4789
▁bakar	-4790
▁Bahkan	-4791
▁Gianyar	-4792
▁berencana	-4793
▁bersenjata	-4794
▁Kus	-4795
▁mar	-4796
epend	-4797
angkau	-4798
ulangan	-4799
▁sambil	-4800
▁Mahasiswa	-4801
▁ketentuan	-4802
▁Departemen	-4803
za	-4804
abrak	-4805
▁Aksi	-4806
▁Pengg	-4807
▁mempunya	-4808
▁kelahiran	-4809
▁Polrestabes	-4810
▁permasalahan	-4811
▁IC	-4812
ansir	-4813
udang	-4814
tisipasi	-4815
▁permainan	-4816
▁SK	-4817
urit	-4818
▁Ist	-4819
▁ASEAN	-4820
▁hijau	-4821
▁jarak	-4822
▁minta	-4823
▁Sebuah	-4824
▁menemp	-4825
lementasi	-4826
▁disertai	-4827
▁mengakhiri	-4828
ektur	-4829
▁Imam	-4830
▁model	-4831
▁tanda	-4832
aksikan	-4833
a	-4834
▁	-4835
n	-4836
e	-4837
i	-4838
r	-4839
t	-4840
u	-4841
k	-4842
m	-4843
s	-4844
d	-4845
g	-4846
l	-4847
p	-4848
o	-4849
b	-4850
h	-4851
y	-4852
,	-4853
.	-4854
j	-4855
P	-4856
S	-4857
K	-4858
A	-4859
2	-4860
c	-4861
B	-4862
w	-4863
I	-4864
M	-4865
0	-4866
D	-4867
T	-4868
-	-4869
R	-4870
1	-4871
J	-4872
f	-4873
"	-4874
N	-4875
)	-4876
(	-4877
4	-4878
G	-4879
H	-4880
U	-4881
v	-4882
C	-4883
W	-4884
L	-4885
/	-4886
3	-4887
5	-4888
F	-4889
E	-4890
O	-4891
9	-4892
:	-4893
7	-4894
6	-4895
8	-4896
z	-4897
Y	-4898
V	-4899
'	-4900
Z	-4901
x	-4902
X	-4903
?	-4904
[	-4905
]	-4906
q	-4907
Q	-4908
&	-4909
%	-4910
;	-4911
$	-4912
!	-4913
@	-4914
+	-4915
#	-4916
_	-4917
é	-4918
*	-4919
á	-4920
ü	-4921
ö	-4922
è	-4923
°	-4924
=	-4925
í	-4926
ñ	-4927
ó	-4928
•	-4929
±	-4930
€	-4931
£	-4932
ú	-4933
ä	-4934
®	-4935
â	-4936
ı	-4937
>	-4938
`	-4939
ã	-4940
′	-4941
ć	-4942
×	-4943
ê	-4944
ï	-4945
\	-4946
Ó	-4947
à	-4948
ô	-4949
⁠	-4950
Ç	-4951
Ü	-4952
ç	-4953
ì	-4954
ş	-4955
⁄	-4956
😭	-4957
<	-4958
·	-4959
ø	-4960
μ	-4961
−	-4962
Á	-4963
Ä	-4964
Ö	-4965
ë	-4966
ā	-4967
ğ	-4968
š	-4969
Â	-4970
É	-4971
ð	-4972
ò	-4973
õ	-4974
Ā	-4975
ę	-4976
İ	-4977
ķ	-4978
Ł	-4979
ł	-4980
ś	-4981
ơ	-4982
ư	-4983
Α	-4984
Η	-4985
Τ	-4986
α	-4987
‍	-4988
≥	-4989
丽	-4990
安	-4991
洪	-4992
金	-4993
陈	-4994
🍌	-4995
😊	-4996
