[UNK]	0
[CLS]	1
[SEP]	2
[PAD]	3
[MASK]	4
!	5
"	6
#	7
$	8
%	9
&	10
'	11
(	12
)	13
*	14
+	15
,	16
-	17
.	18
/	19
0	20
1	21
2	22
3	23
4	24
5	25
6	26
7	27
8	28
9	29
:	30
;	31
<	32
=	33
>	34
?	35
@	36
[	37
\	38
]	39
_	40
`	41
a	42
b	43
c	44
d	45
e	46
f	47
g	48
h	49
i	50
j	51
k	52
l	53
m	54
n	55
o	56
p	57
q	58
r	59
s	60
t	61
u	62
v	63
w	64
x	65
y	66
z	67
£	68
®	69
°	70
±	71
·	72
×	73
à	74
á	75
â	76
ã	77
ä	78
ç	79
è	80
é	81
ê	82
ë	83
ì	84
í	85
ï	86
ð	87
ñ	88
ò	89
ó	90
ô	91
õ	92
ö	93
ø	94
ú	95
ü	96
ā	97
ć	98
ę	99
ğ	100
ı	101
ķ	102
ł	103
ś	104
ş	105
š	106
ơ	107
ư	108
́	109
̇	110
α	111
η	112
μ	113
τ	114
‍	115
‎	116
•	117
′	118
⁄	119
⁠	120
€	121
−	122
≥	123
丽	124
安	125
洪	126
金	127
陈	128
🍌	129
😊	130
😭	131
🤲	132
##a	133
##j	134
##n	135
##d	136
##e	137
##f	138
##v	139
##u	140
##1	141
##5	142
##i	143
##t	144
##p	145
##l	146
##b	147
##g	148
##k	149
##s	150
##w	151
##c	152
##h	153
##r	154
##y	155
##m	156
##o	157
##9	158
##z	159
##0	160
##3	161
##4	162
##é	163
##q	164
##8	165
##2	166
##x	167
##:	168
##6	169
##è	170
##á	171
##.	172
##7	173
##,	174
##ä	175
##ı	176
##τ	177
##)	178
##ô	179
##ú	180
##í	181
##š	182
##ş	183
##金	184
##丽	185
##ơ	186
##ó	187
##@	188
##'	189
##ü	190
##ñ	191
##ë	192
##"	193
##ö	194
##ę	195
##̇	196
##ê	197
##‎	198
##â	199
##ç	200
##?	201
##-	202
##õ	203
##*	204
##ã	205
##/	206
##+	207
##ø	208
##±	209
##ś	210
##🤲	211
##′	212
##ć	213
##ì	214
##ï	215
##an	216
an	217
##er	218
##en	219
##ar	220
##at	221
di	222
##ang	223
##as	224
##al	225
##ak	226
##ah	227
se	228
me	229
ke	230
##am	231
men	232
##ya	233
##tu	234
in	235
##in	236
##si	237
pe	238
##ad	239
##ga	240
yang	241
##ta	242
dan	243
un	244
kan	245
##un	246
ter	247
ber	248
nya	249
##il	250
##ik	251
ng	252
##eng	253
##uk	254
er	255
##ap	256
te	257
ti	258
per	259
##ut	260
ko	261
ak	262
ar	263
ang	264
##ur	265
##ari	266
##ai	267
##us	268
al	269
##um	270
meng	271
##ara	272
##ada	273
en	274
##is	275
ba	276
##or	277
##tuk	278
##es	279
##on	280
pada	281
mb	282
untuk	283
##ti	284
##la	285
##ing	286
##ih	287
sa	288
ini	289
am	290
ad	291
pen	292
##it	293
ah	294
deng	295
mem	296
ol	297
la	298
ne	299
pr	300
itu	301
##alam	302
##ir	303
ap	304
##el	305
dari	306
si	307
is	308
##ab	309
dalam	310
as	311
mas	312
nt	313
##ul	314
##ama	315
ta	316
nd	317
##ata	318
##gi	319
or	320
##lah	321
##ek	322
ngk	323
at	324
nj	325
##sia	326
em	327
##ud	328
ind	329
##asi	330
##wa	331
##om	332
##ung	333
mp	334
el	335
le	336
ri	337
##ri	338
pem	339
us	340
##adi	341
##uh	342
seb	343
um	344
ung	345
ju	346
kar	347
re	348
##dak	349
##ib	350
uk	351
ur	352
tidak	353
ing	354
kam	355
tah	356
il	357
##ali	358
##up	359
##ukan	360
peng	361
##aya	362
##te	363
##eri	364
##ana	365
tak	366
it	367
na	368
ik	369
##gai	370
indo	371
##ua	372
be	373
telah	374
meny	375
ro	376
id	377
sebut	378
##pn	379
nesia	380
akan	381
on	382
ek	383
ja	384
##ja	385
im	386
ant	387
kata	388
asi	389
##ia	390
##ra	391
bagai	392
jpn	393
jpnn	394
ma	395
menga	396
po	397
##ber	398
ag	399
juga	400
com	401
bah	402
int	403
##eh	404
har	405
li	406
ab	407
##ma	408
##asa	409
mend	410
##ok	411
dia	412
ut	413
wib	414
atu	415
takan	416
orang	417
##da	418
tahun	419
st	420
bar	421
pro	422
ada	423
tu	424
had	425
saat	426
kukan	427
de	428
##to	429
##isi	430
ngg	431
njadi	432
rak	433
ok	434
ban	435
ra	436
##ingg	437
##abu	438
##alu	439
ku	440
oleh	441
kami	442
##eka	443
aw	444
amp	445
ul	446
any	447
bahwa	448
kota	449
ata	450
ka	451
tr	452
nc	453
sem	454
mela	455
bel	456
nur	457
##ala	458
##se	459
leb	460
lebih	461
kem	462
ereka	463
bis	464
##ka	465
##jar	466
jak	467
lalu	468
ion	469
##id	470
neg	471
##ati	472
tim	473
bisa	474
eg	475
ngkat	476
sama	477
lu	478
ed	479
##et	480
kom	481
gr	482
hari	483
ud	484
atau	485
##sa	486
apa	487
bu	488
om	489
##udah	490
##ita	491
jadi	492
peny	493
para	494
pre	495
war	496
ir	497
##bu	498
bes	499
##ter	500
kare	501
mu	502
rb	503
itas	504
pemer	505
hadap	506
ngkap	507
hingg	508
min	509
han	510
up	511
mil	512
##tap	513
jakar	514
ional	515
##nya	516
has	517
##ju	518
dap	519
##gu	520
pa	521
besar	522
masya	523
rakat	524
rup	525
sen	526
##aha	527
ac	528
ser	529
cara	530
intah	531
##aku	532
anyak	533
pend	534
sudah	535
nas	536
saya	537
menj	538
belum	539
baru	540
##kan	541
man	542
##pe	543
jal	544
sid	545
ian	546
eng	547
##ba	548
negar	549
ha	550
lo	551
karta	552
##alah	553
mene	554
ay	555
no	556
adal	557
ker	558
##pu	559
wak	560
amb	561
##ika	562
ub	563
nam	564
mpat	565
tetap	566
bagi	567
da	568
ru	569
pas	570
anak	571
mo	572
##jak	573
dapat	574
es	575
hasil	576
##tai	577
and	578
siden	579
bo	580
gun	581
##pa	582
nom	583
##uka	584
pun	585
ga	586
kel	587
menc	588
##wan	589
meni	590
tan	591
lama	592
lang	593
ukung	594
eb	595
serta	596
hal	597
kas	598
mberi	599
jalan	600
pil	601
pat	602
pemb	603
nteri	604
dila	605
ia	606
##ni	607
dis	608
ch	609
su	610
tur	611
dua	612
lat	613
warga	614
rum	615
ampai	616
rt	617
dip	618
imp	619
ujar	620
kon	621
to	622
anj	623
mber	624
##hir	625
memb	626
nu	627
##ve	628
perti	629
salah	630
ungan	631
umlah	632
ic	633
##ila	634
kabu	635
##iki	636
et	637
baik	638
beber	639
nurut	640
mak	641
angan	642
mar	643
gu	644
##pat	645
paten	646
elasa	647
pu	648
rban	649
sur	650
rabu	651
so	652
rs	653
harus	654
bali	655
op	656
##ke	657
rumah	658
##erah	659
mbang	660
akhir	661
gram	662
senin	663
lan	664
pih	665
usaha	666
pihak	667
ntara	668
##im	669
kali	670
agi	671
kamis	672
rupak	673
apat	674
kai	675
ny	676
des	677
dp	678
menye	679
##ses	680
masuk	681
af	682
ho	683
ari	684
##re	685
pan	686
##ina	687
##ha	688
##go	689
jum	690
mena	691
jumat	692
##ko	693
antar	694
yan	695
hu	696
masih	697
mana	698
lur	699
ketu	700
aerah	701
ger	702
osi	703
bi	704
ketua	705
erang	706
umum	707
kita	708
air	709
ked	710
res	711
iliki	712
kasus	713
ni	714
mel	715
bantu	716
nggal	717
artai	718
lalui	719
atas	720
jab	721
huk	722
jawa	723
langs	724
rang	725
laku	726
sra	727
keter	728
hukum	729
pela	730
hanya	731
lah	732
##tr	733
wila	734
namun	735
wilay	736
##tor	737
srael	738
gi	739
pala	740
masi	741
dep	742
##men	743
mengu	744
rp	745
ntang	746
##hat	747
##ji	748
luar	749
##ki	750
ib	751
mul	752
##pk	753
perta	754
angat	755
inggu	756
##amat	757
wakil	758
ham	759
menu	760
inf	761
lit	762
gel	763
keme	764
alam	765
##uat	766
kait	767
kr	768
ip	769
wo	770
mbali	771
impin	772
kerja	773
but	774
hadir	775
uara	776
agian	777
ins	778
pak	779
ibu	780
isi	781
ten	782
olisi	783
##lik	784
##tus	785
##na	786
luruh	787
buah	788
##di	789
##tik	790
atang	791
kit	792
unia	793
##mi	794
lih	795
ks	796
pp	797
##gas	798
utama	799
rja	800
##nas	801
##tif	802
enang	803
kedua	804
ran	805
latan	806
was	807
uh	808
nil	809
ep	810
alon	811
##res	812
kitar	813
nting	814
ikut	815
sab	816
angka	817
##itas	818
##aga	819
dang	820
##ini	821
nilai	822
##ask	823
sehat	824
anggo	825
kap	826
ani	827
sabtu	828
sej	829
idik	830
ya	831
rima	832
lain	833
##ong	834
angun	835
pt	836
mulai	837
pol	838
yo	839
kec	840
por	841
sek	842
mper	843
menge	844
##abo	845
abaya	846
ara	847
barat	848
uang	849
gunak	850
dite	851
rtama	852
uc	853
prabo	854
penga	855
rem	856
fo	857
terus	858
inter	859
rsen	860
ngga	861
kese	862
gelar	863
yak	864
lihat	865
##iri	866
iri	867
tif	868
agar	869
sp	870
##tem	871
seme	872
tiga	873
##udi	874
nyata	875
isasi	876
und	877
nding	878
##ed	879
bul	880
upaya	881
wa	882
arang	883
##ibat	884
pilka	885
##uda	886
bad	887
tika	888
band	889
ela	890
nf	891
jan	892
hi	893
ist	894
ema	895
minta	896
kemud	897
idang	898
##ani	899
ncana	900
sta	901
nomor	902
semua	903
tahu	904
##ro	905
litik	906
mbuat	907
##ol	908
eks	909
##wat	910
ters	911
rn	912
asang	913
unc	914
tang	915
innya	916
par	917
eko	918
desa	919
##li	920
##de	921
##lu	922
anjut	923
agus	924
rk	925
for	926
##wi	927
harga	928
sk	929
nomi	930
ong	931
ngah	932
str	933
sum	934
dir	935
guber	936
##uli	937
sar	938
pene	939
##mad	940
##tar	941
sep	942
##tur	943
##dia	944
tingg	945
rd	946
roses	947
ner	948
depan	949
nang	950
ersi	951
milih	952
gen	953
ob	954
ahkan	955
anc	956
osial	957
guna	958
do	959
elain	960
emil	961
giat	962
lagi	963
th	964
kons	965
keb	966
bat	967
rik	968
rod	969
ikasi	970
lin	971
hen	972
jati	973
kala	974
##ans	975
harap	976
bulan	977
trans	978
siap	979
sis	980
olo	981
roduk	982
co	983
emilu	984
yanan	985
china	986
##ca	987
kh	988
ingin	989
if	990
foto	991
omp	992
aksi	993
apai	994
waktu	995
ina	996
mempe	997
lawan	998
ce	999
dib	1000
asal	1001
manan	1002
##man	1003
ksana	1004
tugas	1005
emain	1006
mer	1007
##tuh	1008
ci	1009
njuk	1010
ki	1011
lap	1012
diri	1013
mes	1014
bak	1015
ria	1016
rat	1017
acara	1018
badan	1019
hid	1020
sak	1021
hak	1022
ndak	1023
jel	1024
engah	1025
dpr	1026
dise	1027
sejak	1028
sing	1029
uar	1030
lam	1031
rasa	1032
##za	1033
##anti	1034
aj	1035
du	1036
ingat	1037
antan	1038
10	1039
camat	1040
pena	1041
ndiri	1042
oko	1043
ali	1044
jen	1045
rap	1046
okasi	1047
ameri	1048
ken	1049
hub	1050
alami	1051
uarga	1052
nama	1053
awal	1054
os	1055
ns	1056
##lo	1057
jika	1058
puk	1059
rempu	1060
mi	1061
olda	1062
vin	1063
penye	1064
pra	1065
pal	1066
das	1067
utara	1068
erada	1069
ev	1070
nar	1071
ublik	1072
antor	1073
ukti	1074
usat	1075
fe	1076
wan	1077
wasan	1078
saja	1079
empat	1080
olres	1081
sat	1082
##no	1083
menya	1084
malam	1085
ben	1086
ompok	1087
ndara	1088
sul	1089
direk	1090
rio	1091
elask	1092
oper	1093
rah	1094
kamp	1095
ilih	1096
meski	1097
ana	1098
fi	1099
jabat	1100
ucap	1101
lak	1102
dasar	1103
mam	1104
eti	1105
penge	1106
media	1107
erita	1108
juta	1109
rusia	1110
diper	1111
dil	1112
rek	1113
jatim	1114
##uru	1115
ca	1116
tor	1117
infor	1118
sh	1119
ngaku	1120
masa	1121
mukan	1122
aman	1123
rg	1124
komp	1125
##le	1126
jo	1127
vinsi	1128
ust	1129
aftar	1130
##do	1131
iksa	1132
##mb	1133
bog	1134
resmi	1135
yakni	1136
jam	1137
##gr	1138
bukan	1139
rus	1140
okto	1141
aling	1142
ntu	1143
ent	1144
oktob	1145
lek	1146
njung	1147
soal	1148
kea	1149
anda	1150
icara	1151
pb	1152
ambar	1153
kalau	1154
agust	1155
panj	1156
ec	1157
dike	1158
rin	1159
ambil	1160
astik	1161
tri	1162
san	1163
tek	1164
jabar	1165
ngkah	1166
les	1167
arah	1168
ef	1169
he	1170
did	1171
ampak	1172
ling	1173
##ver	1174
##amb	1175
jun	1176
##rea	1177
juli	1178
nove	1179
ndisi	1180
penc	1181
ati	1182
jelas	1183
pale	1184
logi	1185
lapor	1186
hanan	1187
egara	1188
laga	1189
##oko	1190
ren	1191
poran	1192
##was	1193
kibat	1194
##po	1195
kanan	1196
leng	1197
nggap	1198
okowi	1199
masal	1200
semar	1201
ustri	1202
milik	1203
sitas	1204
kad	1205
milit	1206
asia	1207
gaza	1208
ot	1209
egi	1210
entuk	1211
anye	1212
##nis	1213
maha	1214
istem	1215
adi	1216
itmen	1217
pppk	1218
njukk	1219
uga	1220
pasar	1221
##aat	1222
njata	1223
kepe	1224
muda	1225
kl	1226
nfaat	1227
mpung	1228
inte	1229
ngkin	1230
mal	1231
keras	1232
ris	1233
gung	1234
hidup	1235
pukul	1236
benar	1237
bogor	1238
kpu	1239
aku	1240
mampu	1241
ram	1242
dam	1243
akar	1244
nat	1245
imnas	1246
komun	1247
##han	1248
juang	1249
mob	1250
dita	1251
tiap	1252
iran	1253
nal	1254
utus	1255
ai	1256
orong	1257
erah	1258
rupsi	1259
las	1260
makin	1261
fil	1262
juni	1263
fa	1264
ili	1265
20	1266
musi	1267
suai	1268
tensi	1269
lima	1270
rai	1271
lingk	1272
dak	1273
bank	1274
septe	1275
pdi	1276
kolah	1277
inst	1278
batas	1279
dese	1280
##gus	1281
ji	1282
wali	1283
naik	1284
mei	1285
laut	1286
pang	1287
muh	1288
tap	1289
kep	1290
ember	1291
peni	1292
ribu	1293
usia	1294
latih	1295
njaga	1296
aup	1297
ps	1298
nit	1299
nggar	1300
nusia	1301
rsi	1302
ateng	1303
iv	1304
ukai	1305
##ng	1306
mba	1307
janu	1308
kuat	1309
yai	1310
egeri	1311
tahui	1312
umber	1313
dem	1314
iz	1315
mobil	1316
nited	1317
##ril	1318
otor	1319
beri	1320
##ump	1321
wi	1322
aupun	1323
##jan	1324
april	1325
bijak	1326
put	1327
jar	1328
laman	1329
rnah	1330
strik	1331
kpk	1332
ge	1333
isata	1334
##ent	1335
tentu	1336
lengg	1337
kini	1338
aka	1339
jaya	1340
inasi	1341
muha	1342
perlu	1343
mang	1344
eni	1345
buka	1346
##hi	1347
mbawa	1348
aya	1349
intas	1350
ulang	1351
ons	1352
lamat	1353
ej	1354
##lin	1355
urang	1356
liga	1357
suka	1358
omisi	1359
duga	1360
dik	1361
ugaan	1362
ritas	1363
sy	1364
pk	1365
maret	1366
raya	1367
cepat	1368
12	1369
##rai	1370
inisi	1371
bal	1372
hus	1373
son	1374
siswa	1375
trump	1376
ral	1377
upati	1378
rikat	1379
ukrai	1380
az	1381
tuju	1382
rinya	1383
husus	1384
main	1385
ex	1386
the	1387
ring	1388
bum	1389
lok	1390
niver	1391
go	1392
of	1393
alang	1394
butuh	1395
##leh	1396
osisi	1397
##ip	1398
ikuti	1399
mbaga	1400
awab	1401
bid	1402
##dik	1403
udara	1404
baw	1405
vid	1406
danya	1407
dilan	1408
tanpa	1409
ig	1410
tat	1411
end	1412
punya	1413
##ot	1414
akti	1415
tem	1416
enai	1417
sim	1418
stasi	1419
##buh	1420
yaitu	1421
korea	1422
bang	1423
terd	1424
olri	1425
ua	1426
ndang	1427
gera	1428
mema	1429
iliar	1430
uat	1431
anjar	1432
dar	1433
jauh	1434
mpil	1435
berb	1436
nanti	1437
agung	1438
biasa	1439
antas	1440
ektor	1441
guru	1442
uti	1443
pi	1444
bakal	1445
daya	1446
dinas	1447
bawah	1448
tni	1449
naga	1450
idana	1451
git	1452
apal	1453
dion	1454
br	1455
alia	1456
angsa	1457
luas	1458
iala	1459
api	1460
cuk	1461
tahan	1462
##gis	1463
ono	1464
elang	1465
dek	1466
kal	1467
##eo	1468
kenal	1469
ino	1470
gital	1471
pekan	1472
ncari	1473
asa	1474
sema	1475
isa	1476
sup	1477
irim	1478
bea	1479
##aris	1480
15	1481
den	1482
uji	1483
peran	1484
ebab	1485
aus	1486
roy	1487
##jo	1488
annya	1489
aring	1490
##ord	1491
tul	1492
yu	1493
ita	1494
##usi	1495
ngka	1496
cukup	1497
##tup	1498
aru	1499
anti	1500
lesai	1501
elo	1502
mbak	1503
uku	1504
kir	1505
tamb	1506
dr	1507
arat	1508
30	1509
##bah	1510
imb	1511
data	1512
gas	1513
akit	1514
##mk	1515
kri	1516
antai	1517
surat	1518
isnis	1519
depok	1520
are	1521
ron	1522
anies	1523
omb	1524
apres	1525
putus	1526
##orm	1527
ambut	1528
gerak	1529
jah	1530
duk	1531
##ikan	1532
aji	1533
pap	1534
uaca	1535
mpang	1536
tihan	1537
mis	1538
koord	1539
lajar	1540
uru	1541
feb	1542
##ran	1543
maka	1544
raih	1545
mmad	1546
ola	1547
asn	1548
mbuka	1549
awas	1550
rm	1551
mau	1552
io	1553
papua	1554
perse	1555
agang	1556
stina	1557
rget	1558
tiv	1559
etiga	1560
edung	1561
gol	1562
oh	1563
eri	1564
neger	1565
##utk	1566
maju	1567
inan	1568
##ru	1569
ii	1570
sip	1571
kut	1572
ton	1573
nus	1574
rubah	1575
nda	1576
usai	1577
gask	1578
tutur	1579
cal	1580
ejad	1581
kha	1582
angk	1583
ilang	1584
agai	1585
##era	1586
inve	1587
lind	1588
bur	1589
beda	1590
ahmad	1591
ianto	1592
henti	1593
tanya	1594
art	1595
lanju	1596
hamas	1597
penj	1598
emb	1599
ras	1600
erk	1601
enuh	1602
ende	1603
dekat	1604
isti	1605
anten	1606
uni	1607
mbah	1608
libat	1609
ibusi	1610
olusi	1611
pel	1612
ket	1613
rep	1614
indra	1615
anto	1616
sik	1617
cat	1618
udaya	1619
##ura	1620
edi	1621
mod	1622
tp	1623
je	1624
ulu	1625
pri	1626
rif	1627
ele	1628
unuh	1629
rtem	1630
jat	1631
unit	1632
berd	1633
etak	1634
yar	1635
ligus	1636
sus	1637
mat	1638
kab	1639
nor	1640
pres	1641
oe	1642
nuju	1643
ncang	1644
abat	1645
rdana	1646
urut	1647
saksi	1648
hit	1649
seka	1650
ajak	1651
adw	1652
rc	1653
rtemu	1654
##ons	1655
hujan	1656
penu	1657
utra	1658
siasi	1659
aris	1660
sakit	1661
tus	1662
anya	1663
kand	1664
ido	1665
##me	1666
adwal	1667
alat	1668
lasan	1669
visi	1670
bas	1671
fas	1672
##lau	1673
enuhi	1674
16	1675
penuh	1676
sd	1677
turun	1678
tas	1679
terb	1680
rusak	1681
##tim	1682
apang	1683
duksi	1684
emo	1685
yakin	1686
tanah	1687
arta	1688
olah	1689
alu	1690
engg	1691
11	1692
anjir	1693
febru	1694
wat	1695
alur	1696
orasi	1697
kual	1698
demo	1699
##gya	1700
tekno	1701
uhan	1702
sana	1703
yogya	1704
kum	1705
berke	1706
ancam	1707
atur	1708
pl	1709
pes	1710
enam	1711
kema	1712
aksa	1713
##ch	1714
suma	1715
epang	1716
namb	1717
fasil	1718
biden	1719
mit	1720
ungsi	1721
14	1722
sisi	1723
uri	1724
ersib	1725
nju	1726
riode	1727
norer	1728
urah	1729
mina	1730
rw	1731
psi	1732
musim	1733
iar	1734
umk	1735
nik	1736
oto	1737
alan	1738
terp	1739
kat	1740
lemen	1741
wu	1742
ncur	1743
dapun	1744
bb	1745
dki	1746
tewas	1747
egitu	1748
diba	1749
amar	1750
ropa	1751
ener	1752
nurun	1753
akses	1754
aktiv	1755
##gal	1756
##jud	1757
sete	1758
fin	1759
toko	1760
##atu	1761
krasi	1762
elola	1763
pul	1764
egah	1765
anta	1766
bri	1767
fok	1768
mudah	1769
ama	1770
trasi	1771
tusan	1772
all	1773
ungi	1774
fokus	1775
atan	1776
pilih	1777
bahan	1778
raky	1779
ky	1780
leksi	1781
narko	1782
utuh	1783
royek	1784
est	1785
nusa	1786
pbb	1787
meter	1788
25	1789
org	1790
rut	1791
alani	1792
ebar	1793
utih	1794
##sip	1795
jenis	1796
elalu	1797
usul	1798
ganti	1799
mata	1800
film	1801
luka	1802
tiba	1803
13	1804
tot	1805
calon	1806
inat	1807
angga	1808
uduk	1809
au	1810
ff	1811
anggu	1812
set	1813
umkm	1814
bab	1815
isu	1816
video	1817
turut	1818
tra	1819
port	1820
netap	1821
18	1822
epe	1823
lep	1824
24	1825
##pul	1826
og	1827
iap	1828
ngat	1829
udi	1830
nggul	1831
njutk	1832
andar	1833
berat	1834
sel	1835
urve	1836
tnya	1837
gan	1838
asuk	1839
tulis	1840
wujud	1841
tes	1842
tepat	1843
17	1844
rkuat	1845
urat	1846
abd	1847
uncur	1848
temu	1849
tik	1850
olk	1851
emas	1852
pakat	1853
budi	1854
organ	1855
del	1856
hut	1857
vi	1858
##aim	1859
awang	1860
##lon	1861
lewat	1862
final	1863
lidik	1864
ira	1865
new	1866
eno	1867
rcaya	1868
abil	1869
bin	1870
fc	1871
alah	1872
unung	1873
sos	1874
rh	1875
resta	1876
tasi	1877
tahap	1878
utri	1879
tisip	1880
amank	1881
ril	1882
ersih	1883
ibran	1884
rtu	1885
##ami	1886
janji	1887
pdip	1888
kola	1889
liti	1890
ping	1891
pla	1892
kecil	1893
ditu	1894
ry	1895
ade	1896
dic	1897
inggr	1898
austr	1899
hati	1900
ubah	1901
pasal	1902
narik	1903
ate	1904
ekan	1905
kasih	1906
nah	1907
her	1908
ile	1909
pesan	1910
dana	1911
atal	1912
ayu	1913
umumk	1914
teman	1915
udah	1916
glo	1917
bus	1918
hum	1919
adang	1920
obat	1921
mengg	1922
ntung	1923
angi	1924
okter	1925
rawat	1926
gib	1927
luang	1928
urvei	1929
##ny	1930
mpro	1931
olkar	1932
izin	1933
dij	1934
ndung	1935
gibr	1936
atif	1937
dewan	1938
ruang	1939
bk	1940
##fe	1941
sulit	1942
tab	1943
kolab	1944
lepas	1945
denpa	1946
sitif	1947
kuasa	1948
watir	1949
pakah	1950
njual	1951
ilm	1952
mati	1953
indah	1954
nol	1955
ukses	1956
amin	1957
av	1958
iy	1959
tum	1960
ala	1961
ngani	1962
aktif	1963
bay	1964
inov	1965
apre	1966
sah	1967
tua	1968
##cu	1969
onlin	1970
laki	1971
atat	1972
ologi	1973
rhati	1974
lib	1975
nco	1976
poin	1977
khus	1978
eta	1979
aslon	1980
bahas	1981
od	1982
utuhk	1983
skri	1984
enc	1985
ngan	1986
hend	1987
nggil	1988
yarat	1989
##tak	1990
menit	1991
##bp	1992
usnya	1993
sw	1994
uncul	1995
ow	1996
27	1997
erai	1998
bun	1999
skrim	2000
ulasi	2001
riau	2002
sekar	2003
puluh	2004
ident	2005
rensi	2006
glob	2007
pn	2008
uasa	2009
pos	2010
agama	2011
jang	2012
mere	2013
fer	2014
gab	2015
berk	2016
tegas	2017
lahir	2018
spons	2019
rsiap	2020
nggu	2021
kalah	2022
akang	2023
sawat	2024
engar	2025
ituas	2026
stra	2027
los	2028
isme	2029
##and	2030
ens	2031
bp	2032
roleh	2033
berta	2034
dikit	2035
total	2036
ph	2037
uktur	2038
bayar	2039
iptak	2040
uami	2041
makan	2042
kumen	2043
mung	2044
krat	2045
19	2046
adar	2047
mpir	2048
dipe	2049
umen	2050
pagi	2051
atuan	2052
pasti	2053
22	2054
inc	2055
erman	2056
beb	2057
mungk	2058
sig	2059
emiki	2060
damai	2061
eh	2062
urus	2063
humas	2064
gaw	2065
taris	2066
##lam	2067
marin	2068
rkara	2069
oc	2070
upa	2071
etu	2072
ual	2073
nk	2074
atasi	2075
pasuk	2076
gagal	2077
ntar	2078
rib	2079
andi	2080
mom	2081
suh	2082
ayang	2083
tol	2084
sonel	2085
catat	2086
energ	2087
waslu	2088
##juk	2089
sor	2090
rapan	2091
pj	2092
23	2093
bmk	2094
uu	2095
50	2096
ine	2097
inta	2098
ebabk	2099
rilis	2100
gawai	2101
bmkg	2102
iaya	2103
asar	2104
rtumb	2105
kemen	2106
ity	2107
perd	2108
dprd	2109
21	2110
rugi	2111
bawa	2112
tubuh	2113
bebas	2114
pik	2115
lim	2116
asing	2117
sabu	2118
rba	2119
njara	2120
ahf	2121
usung	2122
rbang	2123
antau	2124
ndah	2125
iah	2126
elek	2127
duli	2128
fes	2129
joko	2130
anger	2131
ksi	2132
kil	2133
istri	2134
##juh	2135
sekre	2136
balik	2137
ahfud	2138
istiw	2139
sal	2140
tera	2141
rela	2142
islam	2143
sipil	2144
jalur	2145
luk	2146
apar	2147
ibat	2148
lokal	2149
ngkut	2150
turan	2151
momen	2152
net	2153
rid	2154
ratis	2155
sc	2156
luark	2157
ibatk	2158
isah	2159
tani	2160
ster	2161
dpp	2162
mitra	2163
dj	2164
##ly	2165
erat	2166
rtani	2167
tatus	2168
lar	2169
rti	2170
ebut	2171
landa	2172
nolak	2173
ahy	2174
sebab	2175
ment	2176
##ori	2177
etro	2178
uncak	2179
ato	2180
usi	2181
demi	2182
edar	2183
##gat	2184
kontr	2185
tapi	2186
lor	2187
ratur	2188
ase	2189
non	2190
bers	2191
ntik	2192
mbel	2193
aki	2194
nflik	2195
memer	2196
tegis	2197
mus	2198
dini	2199
abdul	2200
mk	2201
erd	2202
lub	2203
iapk	2204
ans	2205
nerja	2206
ajang	2207
erahk	2208
untu	2209
alih	2210
ward	2211
rand	2212
##yo	2213
alank	2214
rj	2215
##so	2216
pengu	2217
ajar	2218
dangk	2219
ampah	2220
sm	2221
aceh	2222
lil	2223
leg	2224
ano	2225
mpak	2226
kilo	2227
ungut	2228
jaran	2229
idodo	2230
ium	2231
egini	2232
undur	2233
kecel	2234
iswa	2235
baran	2236
elekt	2237
perke	2238
kete	2239
ebas	2240
akaan	2241
amu	2242
26	2243
28	2244
raf	2245
buat	2246
lus	2247
saing	2248
jarah	2249
antu	2250
tujuh	2251
titik	2252
isiko	2253
suatu	2254
ombes	2255
ediak	2256
fisi	2257
tokoh	2258
ahaya	2259
ena	2260
ont	2261
lahan	2262
nto	2263
ileg	2264
pir	2265
##ulu	2266
jaksa	2267
ey	2268
mbeli	2269
cu	2270
vs	2271
liun	2272
rata	2273
naw	2274
hadi	2275
akun	2276
agu	2277
alif	2278
sl	2279
kirak	2280
tf	2281
oro	2282
erkel	2283
warna	2284
ramad	2285
jatuh	2286
tar	2287
sif	2288
awan	2289
pulau	2290
eo	2291
mad	2292
tel	2293
istan	2294
peri	2295
ene	2296
ahan	2297
hing	2298
dakwa	2299
idu	2300
kim	2301
abu	2302
uz	2303
ansi	2304
atar	2305
kur	2306
arc	2307
gener	2308
memba	2309
ill	2310
awe	2311
mui	2312
oo	2313
isten	2314
ungai	2315
ngin	2316
enter	2317
bon	2318
minum	2319
ribad	2320
horm	2321
ien	2322
mud	2323
adil	2324
ort	2325
ncar	2326
grasi	2327
akbp	2328
orot	2329
emuda	2330
dakan	2331
erek	2332
misi	2333
arab	2334
dpd	2335
29	2336
orum	2337
alias	2338
etuju	2339
rbaik	2340
lir	2341
hakim	2342
adat	2343
uran	2344
kaian	2345
sang	2346
tis	2347
mpul	2348
der	2349
adu	2350
tps	2351
##kam	2352
agr	2353
##kp	2354
ore	2355
ou	2356
erm	2357
kau	2358
wati	2359
gus	2360
iti	2361
jur	2362
ensi	2363
pema	2364
utu	2365
nergi	2366
tl	2367
akui	2368
ekasi	2369
ejak	2370
iaga	2371
ean	2372
tion	2373
ez	2374
aktor	2375
emati	2376
simal	2377
emi	2378
adaan	2379
artaw	2380
unan	2381
raga	2382
nutup	2383
mun	2384
kabar	2385
ck	2386
bumn	2387
moh	2388
ols	2389
ov	2390
judi	2391
ingan	2392
mah	2393
boleh	2394
gar	2395
lay	2396
labuh	2397
fif	2398
sedia	2399
deb	2400
mc	2401
##jid	2402
ngha	2403
rjen	2404
##ono	2405
ikan	2406
ss	2407
ank	2408
nton	2409
utusk	2410
area	2411
kb	2412
ver	2413
dy	2414
berse	2415
musik	2416
ie	2417
##jib	2418
umi	2419
rag	2420
ation	2421
elah	2422
tha	2423
uf	2424
wajib	2425
asjid	2426
nja	2427
esak	2428
bila	2429
wal	2430
nak	2431
ekat	2432
basis	2433
rof	2434
edia	2435
tutup	2436
pkb	2437
gugat	2438
nen	2439
our	2440
isk	2441
lis	2442
una	2443
lagu	2444
ategi	2445
sari	2446
za	2447
sma	2448
iny	2449
ikn	2450
gro	2451
langg	2452
lm	2453
ayak	2454
nerap	2455
efek	2456
audi	2457
ih	2458
popul	2459
pon	2460
konfe	2461
libur	2462
dim	2463
edak	2464
ndali	2465
rangi	2466
llah	2467
krit	2468
tema	2469
ator	2470
kapa	2471
olsek	2472
nawar	2473
tform	2474
siapa	2475
kp	2476
ahkam	2477
ult	2478
sya	2479
##bo	2480
nalis	2481
wil	2482
uter	2483
iden	2484
reg	2485
kup	2486
jahte	2487
debat	2488
lurah	2489
aplik	2490
kla	2491
kelas	2492
kalim	2493
anah	2494
sini	2495
eny	2496
iro	2497
cc	2498
elas	2499
karya	2500
babak	2501
agram	2502
##anc	2503
nikah	2504
entar	2505
iyah	2506
rapat	2507
iet	2508
ukur	2509
evaku	2510
minal	2511
guh	2512
ncuri	2513
31	2514
ullah	2515
terj	2516
ern	2517
ld	2518
tud	2519
semen	2520
biaya	2521
ransi	2522
##zi	2523
pranc	2524
##din	2525
tren	2526
lanta	2527
memu	2528
pand	2529
rofes	2530
amat	2531
ame	2532
##gub	2533
berte	2534
ilgub	2535
ndra	2536
mping	2537
riz	2538
mudik	2539
##ade	2540
bera	2541
arga	2542
kutip	2543
olid	2544
india	2545
aik	2546
hil	2547
##ck	2548
darah	2549
eral	2550
etik	2551
##ine	2552
inyak	2553
wah	2554
filip	2555
arti	2556
edan	2557
kaya	2558
ilus	2559
pingi	2560
uta	2561
ork	2562
ard	2563
ereko	2564
keta	2565
ito	2566
stik	2567
aysia	2568
buruk	2569
nghi	2570
titus	2571
nov	2572
mega	2573
mpur	2574
enda	2575
ustr	2576
nggah	2577
egori	2578
andr	2579
by	2580
diu	2581
aket	2582
unggu	2583
akta	2584
tand	2585
etisi	2586
delap	2587
nv	2588
ona	2589
cek	2590
ialah	2591
sri	2592
reta	2593
onal	2594
ntut	2595
info	2596
putar	2597
cah	2598
ampus	2599
jemen	2600
jukan	2601
banon	2602
okan	2603
ndar	2604
engk	2605
uatan	2606
ht	2607
kena	2608
ohon	2609
ums	2610
imba	2611
fikan	2612
aja	2613
trad	2614
inato	2615
asw	2616
km	2617
seti	2618
oni	2619
sikap	2620
anji	2621
rok	2622
genc	2623
rastr	2624
tib	2625
kade	2626
pbd	2627
100	2628
aju	2629
jahat	2630
raan	2631
dur	2632
fak	2633
##ho	2634
ikl	2635
sih	2636
erl	2637
sial	2638
ury	2639
##kot	2640
idat	2641
ayor	2642
berl	2643
aswed	2644
signi	2645
ew	2646
nan	2647
rius	2648
ogja	2649
plo	2650
ntah	2651
ahulu	2652
arus	2653
ida	2654
mohon	2655
skor	2656
emkot	2657
##gp	2658
airl	2659
ekst	2660
iskus	2661
riah	2662
ender	2663
aes	2664
erv	2665
lum	2666
anita	2667
ice	2668
anksi	2669
awak	2670
hutan	2671
40	2672
ako	2673
tival	2674
eber	2675
itur	2676
nkum	2677
nti	2678
diti	2679
ions	2680
chi	2681
kiri	2682
##rak	2683
ilat	2684
ntuk	2685
atuh	2686
minim	2687
kank	2688
uth	2689
prof	2690
ragam	2691
ahli	2692
newas	2693
baya	2694
iring	2695
tlet	2696
ojo	2697
pus	2698
pram	2699
usun	2700
uriah	2701
bbc	2702
ustru	2703
kah	2704
paris	2705
esa	2706
ancar	2707
rud	2708
ekspo	2709
enior	2710
tele	2711
taw	2712
duh	2713
era	2714
oba	2715
sil	2716
rbit	2717
afri	2718
keber	2719
tir	2720
jelis	2721
otogp	2722
ktik	2723
ue	2724
##ge	2725
aky	2726
bakar	2727
kuad	2728
erak	2729
##pns	2730
ima	2731
yanto	2732
assa	2733
muka	2734
bei	2735
kader	2736
tabil	2737
lul	2738
mbil	2739
siang	2740
ayat	2741
##lar	2742
pek	2743
ning	2744
ngkit	2745
hasto	2746
parat	2747
ial	2748
cha	2749
migr	2750
rtimb	2751
esi	2752
pikir	2753
ft	2754
tam	2755
bagus	2756
cpns	2757
empa	2758
klaim	2759
ehari	2760
usl	2761
uddin	2762
sti	2763
kho	2764
sdm	2765
ncoba	2766
tom	2767
eman	2768
roni	2769
reng	2770
asih	2771
pks	2772
piade	2773
run	2774
ers	2775
vir	2776
nden	2777
redik	2778
old	2779
iii	2780
epeda	2781
ongso	2782
umsel	2783
idwan	2784
truk	2785
hip	2786
grup	2787
awesi	2788
mir	2789
oha	2790
jiwa	2791
terl	2792
ura	2793
02	2794
bumi	2795
inci	2796
ntrak	2797
eli	2798
igasi	2799
##gab	2800
arak	2801
lulus	2802
01	2803
tudi	2804
alisi	2805
mbul	2806
sore	2807
imbau	2808
ain	2809
ekor	2810
genda	2811
bud	2812
aham	2813
nutur	2814
pab	2815
ere	2816
sosok	2817
group	2818
dit	2819
micu	2820
ingga	2821
optim	2822
suk	2823
lans	2824
ariw	2825
thail	2826
akyat	2827
uslim	2828
ergab	2829
apak	2830
epar	2831
num	2832
amai	2833
enpa	2834
pajak	2835
jer	2836
ondo	2837
ei	2838
ord	2839
anyi	2840
uming	2841
ayah	2842
rmal	2843
ero	2844
rakab	2845
esan	2846
ary	2847
uci	2848
iga	2849
lai	2850
knis	2851
lp	2852
arjo	2853
abar	2854
impor	2855
aga	2856
merah	2857
ahasa	2858
emk	2859
udin	2860
konte	2861
rdeka	2862
rokok	2863
one	2864
ese	2865
nis	2866
adam	2867
sud	2868
emkab	2869
qu	2870
jual	2871
hamp	2872
mbulk	2873
eklar	2874
iq	2875
md	2876
nci	2877
taan	2878
rung	2879
peras	2880
rakir	2881
rom	2882
amil	2883
pakai	2884
berku	2885
angin	2886
panas	2887
ontra	2888
iang	2889
igr	2890
terke	2891
ander	2892
ajah	2893
nahan	2894
cam	2895
ngkar	2896
log	2897
esu	2898
esin	2899
eal	2900
temen	2901
minis	2902
iwan	2903
umur	2904
ug	2905
berpo	2906
otel	2907
ila	2908
tok	2909
uas	2910
yono	2911
eleb	2912
lun	2913
taf	2914
uluh	2915
top	2916
sam	2917
hat	2918
kin	2919
pet	2920
sura	2921
sepak	2922
ome	2923
rkir	2924
pesi	2925
memp	2926
ajuk	2927
akai	2928
logis	2929
ayar	2930
otif	2931
uw	2932
ped	2933
baca	2934
mbuh	2935
lem	2936
ingk	2937
shin	2938
asuki	2939
krea	2940
alnya	2941
arma	2942
mengh	2943
ail	2944
eto	2945
tv	2946
prod	2947
gub	2948
rama	2949
rto	2950
unga	2951
ursi	2952
real	2953
onto	2954
gra	2955
umsi	2956
saran	2957
nsum	2958
igran	2959
dul	2960
nten	2961
kbar	2962
alap	2963
ndari	2964
eja	2965
ike	2966
inkan	2967
ick	2968
you	2969
ink	2970
bint	2971
ntan	2972
mpa	2973
torat	2974
menda	2975
lola	2976
ayi	2977
andal	2978
vel	2979
ergi	2980
akal	2981
oli	2982
mprov	2983
ier	2984
itri	2985
juk	2986
zb	2987
renta	2988
bl	2989
maja	2990
lon	2991
mbar	2992
tre	2993
tuduh	2994
va	2995
ogo	2996
tara	2997
gur	2998
my	2999
ood	3000
lti	3001
kul	3002
pid	3003
robo	3004
utan	3005
ewi	3006
negak	3007
sena	3008
njau	3009
bung	3010
yah	3011
yawan	3012
aks	3013
inggi	3014
gang	3015
emua	3016
eku	3017
kes	3018
ruda	3019
ire	3020
lad	3021
ahnya	3022
gizi	3023
epat	3024
osko	3025
anja	3026
rahk	3027
03	3028
ltim	3029
harr	3030
anu	3031
ies	3032
anan	3033
ell	3034
brak	3035
lt	3036
vo	3037
mengo	3038
urna	3039
semi	3040
egala	3041
produ	3042
iak	3043
persi	3044
uruh	3045
reko	3046
cap	3047
rko	3048
yat	3049
yani	3050
raja	3051
egang	3052
ersis	3053
enny	3054
apan	3055
ska	3056
teng	3057
seni	3058
polit	3059
tin	3060
din	3061
akas	3062
ndri	3063
nap	3064
edit	3065
ntak	3066
rupa	3067
menca	3068
meran	3069
relaw	3070
kara	3071
dih	3072
lly	3073
mari	3074
atra	3075
zah	3076
berj	3077
emp	3078
ilit	3079
ental	3080
ect	3081
nsums	3082
sua	3083
dh	3084
ulau	3085
ale	3086
inaan	3087
mor	3088
ndai	3089
ance	3090
laim	3091
ct	3092
dig	3093
prin	3094
ach	3095
awa	3096
lf	3097
sla	3098
erisi	3099
siun	3100
dal	3101
ee	3102
atik	3103
uma	3104
rne	3105
gikan	3106
juru	3107
aca	3108
akr	3109
aran	3110
tanda	3111
sidi	3112
mbo	3113
uhu	3114
ear	3115
sub	3116
sha	3117
merek	3118
kt	3119
kasi	3120
##ne	3121
ampu	3122
efi	3123
alahk	3124
mosi	3125
bai	3126
lasi	3127
akp	3128
onald	3129
ika	3130
kepem	3131
hkan	3132
hami	3133
05	3134
beras	3135
rekam	3136
enak	3137
ndik	3138
iawan	3139
pers	3140
jau	3141
obil	3142
berw	3143
apas	3144
rusan	3145
ori	3146
emah	3147
untut	3148
aset	3149
ipta	3150
ive	3151
itus	3152
long	3153
##ce	3154
berp	3155
aria	3156
age	3157
kok	3158
bek	3159
tong	3160
bunuh	3161
nuk	3162
doa	3163
ujuk	3164
eksi	3165
arian	3166
samb	3167
asta	3168
06	3169
kus	3170
ich	3171
rit	3172
itra	3173
sual	3174
rig	3175
adir	3176
ide	3177
stor	3178
60	3179
dro	3180
aian	3181
kalan	3182
hib	3183
ujan	3184
ish	3185
leks	3186
spir	3187
gant	3188
ae	3189
dura	3190
ms	3191
red	3192
iper	3193
land	3194
ius	3195
ler	3196
ania	3197
unjuk	3198
akim	3199
emak	3200
okok	3201
muan	3202
rist	3203
hab	3204
aruh	3205
sut	3206
imin	3207
iau	3208
jian	3209
layan	3210
iset	3211
utin	3212
joe	3213
kor	3214
ui	3215
alis	3216
ure	3217
enal	3218
naman	3219
ibad	3220
resi	3221
fisik	3222
ea	3223
alin	3224
tuan	3225
iput	3226
ayaan	3227
uka	3228
imat	3229
perte	3230
rea	3231
ulan	3232
rkoba	3233
bs	3234
edu	3235
lukan	3236
nga	3237
rnia	3238
uksi	3239
ite	3240
tun	3241
pd	3242
diam	3243
gad	3244
tch	3245
sent	3246
eten	3247
line	3248
wid	3249
use	3250
abah	3251
ceo	3252
rlin	3253
asil	3254
bing	3255
bong	3256
oal	3257
adap	3258
teo	3259
amen	3260
##uri	3261
pengg	3262
awi	3263
jing	3264
lla	3265
mpr	3266
pis	3267
diy	3268
rip	3269
07	3270
bere	3271
ark	3272
itut	3273
onser	3274
04	3275
tb	3276
ric	3277
jaga	3278
seng	3279
pora	3280
cak	3281
ntb	3282
mula	3283
08	3284
dok	3285
hana	3286
jasa	3287
kop	3288
mbe	3289
dire	3290
eru	3291
aan	3292
sad	3293
keu	3294
berju	3295
yam	3296
nyi	3297
tata	3298
tadi	3299
tifik	3300
mog	3301
ntro	3302
rki	3303
ekno	3304
med	3305
emisi	3306
hm	3307
gres	3308
uhi	3309
kapan	3310
rasi	3311
ndata	3312
pemu	3313
rdi	3314
ital	3315
opi	3316
arung	3317
rgan	3318
sca	3319
rawan	3320
09	3321
##bi	3322
emar	3323
embat	3324
anal	3325
elar	3326
ongan	3327
imi	3328
lung	3329
een	3330
akat	3331
ulia	3332
ack	3333
gal	3334
bert	3335
sien	3336
umat	3337
nggi	3338
umpul	3339
ikin	3340
ruh	3341
ros	3342
enya	3343
elit	3344
pula	3345
waw	3346
ifik	3347
esain	3348
tk	3349
iaran	3350
sela	3351
##ind	3352
ond	3353
beru	3354
jad	3355
sna	3356
raj	3357
pany	3358
satu	3359
kk	3360
sir	3361
sasi	3362
smk	3363
ven	3364
gri	3365
seri	3366
adai	3367
iany	3368
andan	3369
gama	3370
impan	3371
iko	3372
apura	3373
lik	3374
pah	3375
##apa	3376
pera	3377
eksp	3378
rtai	3379
uah	3380
arno	3381
rie	3382
onis	3383
tinya	3384
sr	3385
inda	3386
nfir	3387
lora	3388
rukan	3389
ane	3390
terta	3391
xi	3392
puas	3393
spada	3394
ly	3395
rol	3396
rain	3397
luh	3398
sok	3399
artin	3400
ahar	3401
forma	3402
cs	3403
ewa	3404
##eku	3405
pit	3406
tut	3407
##th	3408
alas	3409
istik	3410
kseku	3411
pung	3412
we	3413
epi	3414
meme	3415
uto	3416
iam	3417
mon	3418
mbela	3419
jung	3420
nes	3421
dima	3422
arya	3423
mpah	3424
antik	3425
ait	3426
ihat	3427
kta	3428
dira	3429
nstr	3430
erkat	3431
itung	3432
tain	3433
dw	3434
iber	3435
oa	3436
tama	3437
rac	3438
ambu	3439
kro	3440
rul	3441
kew	3442
asp	3443
ndy	3444
awah	3445
kru	3446
rge	3447
rsit	3448
star	3449
anas	3450
riy	3451
ast	3452
ndas	3453
ngkas	3454
enko	3455
led	3456
umb	3457
ging	3458
uan	3459
ntri	3460
asin	3461
tral	3462
ayan	3463
gula	3464
ndera	3465
ruu	3466
mele	3467
ilo	3468
may	3469
hir	3470
pot	3471
unive	3472
van	3473
mbu	3474
amah	3475
agia	3476
erdas	3477
sun	3478
ideo	3479
jm	3480
tta	3481
erp	3482
asu	3483
ass	3484
inal	3485
aro	3486
ater	3487
lakuk	3488
dn	3489
diko	3490
teru	3491
arik	3492
onda	3493
hr	3494
out	3495
wna	3496
enar	3497
onf	3498
ppp	3499
kira	3500
ence	3501
lut	3502
teror	3503
teks	3504
bn	3505
iun	3506
rad	3507
ding	3508
egal	3509
wita	3510
urn	3511
eam	3512
oma	3513
ntas	3514
atis	3515
mpun	3516
ikat	3517
isis	3518
tya	3519
gelo	3520
lest	3521
esuai	3522
sias	3523
ede	3524
susu	3525
saha	3526
ams	3527
eco	3528
rema	3529
ibuan	3530
bersa	3531
ikir	3532
ulai	3533
aff	3534
imo	3535
angku	3536
dara	3537
king	3538
lom	3539
yap	3540
dium	3541
erapa	3542
eter	3543
eras	3544
##mp	3545
arto	3546
indak	3547
turn	3548
cok	3549
gul	3550
ll	3551
ahu	3552
lekt	3553
cet	3554
hmad	3555
sli	3556
sesi	3557
edera	3558
rya	3559
eland	3560
tae	3561
umah	3562
nada	3563
35	3564
rman	3565
nggel	3566
alik	3567
elum	3568
manya	3569
pss	3570
dup	3571
asan	3572
liter	3573
hap	3574
ij	3575
rkan	3576
day	3577
fl	3578
ndeng	3579
iru	3580
acu	3581
eret	3582
oho	3583
dina	3584
ost	3585
paya	3586
mbat	3587
bany	3588
pssi	3589
lumn	3590
gam	3591
anis	3592
ukan	3593
lari	3594
raksi	3595
bt	3596
meno	3597
dewa	3598
yur	3599
arana	3600
ota	3601
far	3602
##pi	3603
itusi	3604
ambat	3605
engge	3606
bil	3607
kter	3608
pons	3609
rtis	3610
ibi	3611
rate	3612
80	3613
hn	3614
jari	3615
enggu	3616
andu	3617
itia	3618
ead	3619
roli	3620
distr	3621
aim	3622
oda	3623
##js	3624
tris	3625
timal	3626
alim	3627
lig	3628
ulus	3629
puan	3630
rlind	3631
rgo	3632
peru	3633
nduk	3634
egas	3635
reka	3636
yangk	3637
ndika	3638
liar	3639
lob	3640
oyo	3641
alau	3642
iana	3643
ula	3644
menik	3645
aid	3646
rv	3647
mewa	3648
pere	3649
pura	3650
##nu	3651
elun	3652
ret	3653
omm	3654
ebak	3655
tkp	3656
pns	3657
alal	3658
70	3659
via	3660
arg	3661
orp	3662
agen	3663
thi	3664
khir	3665
ute	3666
ateri	3667
nald	3668
ewas	3669
gaya	3670
mda	3671
entu	3672
penda	3673
uro	3674
rr	3675
ktor	3676
hy	3677
erma	3678
oll	3679
njam	3680
ermin	3681
fan	3682
nut	3683
uli	3684
deral	3685
gn	3686
curi	3687
enu	3688
embu	3689
nsy	3690
arap	3691
emudi	3692
imis	3693
spor	3694
inar	3695
oran	3696
oso	3697
oj	3698
ugi	3699
rakt	3700
epo	3701
paran	3702
ukul	3703
urit	3704
itar	3705
dipa	3706
amal	3707
onor	3708
uel	3709
lini	3710
uju	3711
kanto	3712
bd	3713
sine	3714
jamin	3715
kinan	3716
anju	3717
adik	3718
ash	3719
ians	3720
bkn	3721
spa	3722
vasi	3723
eda	3724
asila	3725
odo	3726
eban	3727
enj	3728
stri	3729
bol	3730
dah	3731
oor	3732
tari	3733
inis	3734
ekas	3735
rest	3736
fung	3737
nh	3738
##bs	3739
##ena	3740
rpo	3741
ngaja	3742
dera	3743
iasa	3744
oy	3745
ujuan	3746
nggak	3747
##bn	3748
etah	3749
dwi	3750
nve	3751
unt	3752
ule	3753
kond	3754
ombo	3755
fungs	3756
ted	3757
ump	3758
nag	3759
ambah	3760
afp	3761
dud	3762
rab	3763
say	3764
idup	3765
erke	3766
ndam	3767
uki	3768
skus	3769
setia	3770
ming	3771
ye	3772
200	3773
voa	3774
dl	3775
##fi	3776
pln	3777
oris	3778
dali	3779
kn	3780
nai	3781
sin	3782
leh	3783
tt	3784
erto	3785
ndo	3786
ekal	3787
abup	3788
dm	3789
##aka	3790
nekan	3791
aut	3792
part	3793
rahan	3794
bbm	3795
integ	3796
aih	3797
elen	3798
mbina	3799
rtasi	3800
ffi	3801
get	3802
nasi	3803
ago	3804
odus	3805
etahu	3806
##co	3807
ami	3808
duduk	3809
caya	3810
mr	3811
aul	3812
ewan	3813
uali	3814
orm	3815
babk	3816
lv	3817
nz	3818
ssa	3819
hani	3820
sosia	3821
risti	3822
ntai	3823
nato	3824
32	3825
enti	3826
tm	3827
uda	3828
diku	3829
jadik	3830
terti	3831
aten	3832
psm	3833
500	3834
kej	3835
nder	3836
ngkal	3837
ray	3838
etika	3839
rsud	3840
rma	3841
berma	3842
eka	3843
prose	3844
cit	3845
##wo	3846
ahat	3847
ahana	3848
ision	3849
dus	3850
##hk	3851
shi	3852
tbk	3853
pemba	3854
##su	3855
ghan	3856
pele	3857
pertu	3858
tro	3859
mani	3860
ambi	3861
nia	3862
over	3863
ppn	3864
sung	3865
uha	3866
ndala	3867
dpc	3868
how	3869
ting	3870
ngar	3871
tip	3872
kian	3873
putra	3874
lobal	3875
igi	3876
ree	3877
lot	3878
apor	3879
ranc	3880
egar	3881
rsatu	3882
oco	3883
bm	3884
mand	3885
igit	3886
con	3887
aktu	3888
rial	3889
gia	3890
sit	3891
arna	3892
etiap	3893
can	3894
hin	3895
mara	3896
##ps	3897
keke	3898
rkas	3899
tekn	3900
cor	3901
ls	3902
rel	3903
##ii	3904
adin	3905
stin	3906
tangg	3907
siko	3908
ansa	3909
erpo	3910
dau	3911
akin	3912
unik	3913
nny	3914
sb	3915
sho	3916
##gaw	3917
spek	3918
syah	3919
mate	3920
kuk	3921
ncurk	3922
bpk	3923
mur	3924
adj	3925
situ	3926
sant	3927
kuh	3928
nim	3929
til	3930
ado	3931
adis	3932
ukkan	3933
iji	3934
niat	3935
jut	3936
ntt	3937
emu	3938
araw	3939
kw	3940
duan	3941
tunt	3942
fit	3943
ess	3944
rta	3945
ilaku	3946
moti	3947
ening	3948
imak	3949
ceh	3950
duka	3951
aba	3952
fic	3953
dasi	3954
kg	3955
teria	3956
terse	3957
legal	3958
nakan	3959
ode	3960
wasa	3961
kek	3962
sto	3963
presi	3964
rno	3965
evel	3966
isan	3967
pira	3968
kuran	3969
erti	3970
rim	3971
iman	3972
luncu	3973
kis	3974
usti	3975
garu	3976
psbs	3977
plt	3978
gak	3979
nand	3980
oka	3981
erima	3982
elem	3983
45	3984
tal	3985
terna	3986
risi	3987
36	3988
##ty	3989
lapa	3990
gir	3991
rwa	3992
usif	3993
90	3994
fri	3995
kak	3996
mpo	3997
nce	3998
uhnya	3999
ejar	4000
erse	4001
mbung	4002
lab	4003
ukar	4004
prov	4005
matik	4006
aun	4007
mm	4008
ahm	4009
engka	4010
ein	4011
ias	4012
mala	4013
vok	4014
nega	4015
mart	4016
nangk	4017
ereb	4018
vita	4019
teh	4020
aram	4021
mpe	4022
edik	4023
ruan	4024
nif	4025
cip	4026
seli	4027
ngis	4028
rdo	4029
kun	4030
ann	4031
ikap	4032
xx	4033
gemb	4034
ael	4035
pnm	4036
gis	4037
nata	4038
isar	4039
ompo	4040
putri	4041
buk	4042
adak	4043
indu	4044
ncob	4045
hel	4046
diber	4047
ngi	4048
enta	4049
saw	4050
abe	4051
enge	4052
car	4053
kang	4054
ses	4055
abung	4056
hop	4057
jemb	4058
pmi	4059
enand	4060
app	4061
abo	4062
arl	4063
ath	4064
elaka	4065
umpa	4066
okal	4067
asok	4068
ement	4069
ace	4070
solo	4071
yadi	4072
ampir	4073
edis	4074
ipe	4075
oin	4076
esti	4077
ppd	4078
dri	4079
ales	4080
ader	4081
lili	4082
gb	4083
lia	4084
ebo	4085
elat	4086
udy	4087
otal	4088
masan	4089
34	4090
gat	4091
rana	4092
valu	4093
berpe	4094
aker	4095
ahter	4096
obj	4097
tria	4098
ramp	4099
lomba	4100
lb	4101
ty	4102
ekam	4103
him	4104
usd	4105
ewat	4106
haya	4107
enaga	4108
moto	4109
ando	4110
obo	4111
nad	4112
ubu	4113
##rt	4114
sion	4115
atah	4116
mos	4117
che	4118
gim	4119
oi	4120
pm	4121
ple	4122
inv	4123
hol	4124
respo	4125
##he	4126
erc	4127
erus	4128
alkan	4129
##est	4130
elu	4131
oman	4132
smp	4133
sman	4134
anga	4135
puti	4136
##kpp	4137
nsyah	4138
pam	4139
inya	4140
anggi	4141
ora	4142
det	4143
trik	4144
csr	4145
ante	4146
lias	4147
edang	4148
motor	4149
dc	4150
mia	4151
keti	4152
sita	4153
let	4154
raha	4155
uy	4156
ony	4157
agam	4158
iras	4159
lamb	4160
tc	4161
tic	4162
koh	4163
mika	4164
ipil	4165
eus	4166
sida	4167
asc	4168
kna	4169
ys	4170
erb	4171
ksik	4172
gor	4173
rev	4174
osok	4175
ecam	4176
ugas	4177
lihan	4178
rmo	4179
bra	4180
rl	4181
nggo	4182
ipi	4183
ix	4184
rni	4185
seg	4186
pegaw	4187
ake	4188
arkan	4189
dor	4190
ose	4191
nek	4192
ikel	4193
omen	4194
manu	4195
isip	4196
onstr	4197
dat	4198
etap	4199
gp	4200
perc	4201
atr	4202
eleng	4203
rint	4204
75	4205
mran	4206
yal	4207
sia	4208
ungk	4209
keha	4210
ngko	4211
ansy	4212
bersi	4213
erna	4214
rop	4215
abi	4216
ampil	4217
irin	4218
endah	4219
uruan	4220
aia	4221
amer	4222
ahal	4223
mpu	4224
iapa	4225
nemp	4226
rsel	4227
300	4228
ega	4229
ebu	4230
stem	4231
tikan	4232
pembe	4233
etn	4234
kuhp	4235
piras	4236
rsa	4237
kot	4238
maj	4239
utar	4240
yaa	4241
dk	4242
gh	4243
tru	4244
uba	4245
tertu	4246
bara	4247
ngun	4248
isal	4249
emat	4250
maham	4251
lmu	4252
33	4253
38	4254
ngel	4255
mengi	4256
odi	4257
pad	4258
sn	4259
istr	4260
aum	4261
mew	4262
arte	4263
##omo	4264
uman	4265
ulik	4266
bpjs	4267
arda	4268
neka	4269
gon	4270
osa	4271
wni	4272
##wf	4273
nel	4274
eu	4275
hon	4276
kti	4277
adah	4278
anyu	4279
mark	4280
aa	4281
cana	4282
eran	4283
##uro	4284
ksp	4285
tuk	4286
itan	4287
epan	4288
suki	4289
arget	4290
iba	4291
##pb	4292
dkpp	4293
mnas	4294
pte	4295
div	4296
kol	4297
arasi	4298
emang	4299
lev	4300
pac	4301
anaan	4302
jutk	4303
kj	4304
fesi	4305
db	4306
mada	4307
als	4308
ashi	4309
ds	4310
ksa	4311
ts	4312
nget	4313
uruk	4314
otak	4315
utip	4316
cent	4317
yl	4318
onv	4319
jaw	4320
nant	4321
giri	4322
##pp	4323
berge	4324
nter	4325
ndek	4326
ngku	4327
ilan	4328
eder	4329
hli	4330
anpa	4331
erdi	4332
apur	4333
ilik	4334
ica	4335
rent	4336
katan	4337
aspad	4338
onfir	4339
bom	4340
dom	4341
radi	4342
rong	4343
ntal	4344
umbu	4345
pay	4346
ulk	4347
ataan	4348
ubar	4349
endam	4350
erluk	4351
bj	4352
cari	4353
u2	4354
amd	4355
gre	4356
omo	4357
engga	4358
bowo	4359
pbnu	4360
vent	4361
##fa	4362
erasa	4363
langk	4364
afi	4365
kedu	4366
njang	4367
uler	4368
nyar	4369
rangk	4370
ktt	4371
ppk	4372
arena	4373
bau	4374
tub	4375
olab	4376
sport	4377
cipta	4378
fli	4379
lk	4380
met	4381
ukt	4382
banda	4383
apbn	4384
aula	4385
ssi	4386
sai	4387
sed	4388
peme	4389
awat	4390
hang	4391
keba	4392
amera	4393
isw	4394
rov	4395
nsia	4396
yas	4397
ndon	4398
ilai	4399
spes	4400
ruk	4401
stu	4402
anat	4403
erko	4404
entif	4405
aban	4406
dag	4407
boli	4408
ongk	4409
rena	4410
krim	4411
iya	4412
ogis	4413
diga	4414
berm	4415
idi	4416
auh	4417
##hum	4418
anus	4419
versi	4420
len	4421
ulkan	4422
icu	4423
dz	4424
lli	4425
##ias	4426
##st	4427
diun	4428
law	4429
abes	4430
anyar	4431
hot	4432
iver	4433
oet	4434
tle	4435
pec	4436
sumb	4437
adem	4438
fest	4439
mpeti	4440
swa	4441
kont	4442
eusai	4443
wed	4444
##cc	4445
lee	4446
iter	4447
ibur	4448
taru	4449
ardi	4450
ism	4451
udar	4452
ao	4453
peg	4454
unj	4455
ange	4456
ask	4457
ume	4458
karan	4459
temba	4460
ehat	4461
euro	4462
jet	4463
terg	4464
terc	4465
nyal	4466
lana	4467
nara	4468
ebat	4469
thr	4470
anag	4471
aznas	4472
mna	4473
ve	4474
kos	4475
ntre	4476
usah	4477
komis	4478
55	4479
muk	4480
ste	4481
medi	4482
ngo	4483
erbi	4484
kaw	4485
nian	4486
enep	4487
romo	4488
pup	4489
erup	4490
eser	4491
##line	4492
vis	4493
aci	4494
dpw	4495
giias	4496
fu	4497
nline	4498
arj	4499
elan	4500
usa	4501
eki	4502
acar	4503
keru	4504
aniel	4505
antun	4506
alemb	4507
cr	4508
iat	4509
nung	4510
sila	4511
zo	4512
uling	4513
ompa	4514
jala	4515
sap	4516
keh	4517
eram	4518
ars	4519
manah	4520
jawab	4521
ror	4522
arm	4523
rans	4524
ml	4525
unr	4526
unda	4527
adan	4528
itb	4529
37	4530
cup	4531
nn	4532
wit	4533
endi	4534
asaan	4535
unrwa	4536
cia	4537
oga	4538
yasa	4539
yim	4540
arhum	4541
asit	4542
nentu	4543
erem	4544
lpg	4545
klu	4546
u1	4547
ze	4548
dio	4549
ahe	4550
bey	4551
upp	4552
alian	4553
nanda	4554
dha	4555
hok	4556
oot	4557
erbu	4558
ape	4559
mpi	4560
ngge	4561
rtang	4562
ermu	4563
ove	4564
tpn	4565
inj	4566
umas	4567
raw	4568
nvest	4569
fk	4570
pin	4571
ugu	4572
ngsi	4573
penya	4574
lega	4575
sebe	4576
gni	4577
pati	4578
uil	4579
wis	4580
ahap	4581
promo	4582
ntis	4583
kapol	4584
ktiv	4585
pupr	4586
erut	4587
agn	4588
esmi	4589
eat	4590
tag	4591
bet	4592
seks	4593
demik	4594
150	4595
tkn	4596
labor	4597
cl	4598
gah	4599
nir	4600
seo	4601
eria	4602
asak	4603
ekar	4604
semp	4605
dut	4606
unak	4607
erlu	4608
yol	4609
mic	4610
sand	4611
laras	4612
btn	4613
pur	4614
plik	4615
inum	4616
inti	4617
erce	4618
rian	4619
agak	4620
esar	4621
sanya	4622
250	4623
fik	4624
##os	4625
eruk	4626
urun	4627
able	4628
prote	4629
omin	4630
osis	4631
nerg	4632
obi	4633
bkp	4634
bjb	4635
bit	4636
ering	4637
pengh	4638
ikr	4639
time	4640
timi	4641
lusi	4642
rtas	4643
sisw	4644
nsu	4645
lg	4646
perp	4647
iska	4648
rido	4649
jay	4650
omba	4651
nator	4652
unya	4653
ppdb	4654
eas	4655
fr	4656
who	4657
ekr	4658
polri	4659
limp	4660
capai	4661
gali	4662
erol	4663
ors	4664
orit	4665
onfe	4666
rsita	4667
nge	4668
erhi	4669
ahas	4670
att	4671
beli	4672
seru	4673
hp	4674
akh	4675
rnama	4676
azar	4677
ior	4678
pg	4679
siat	4680
aif	4681
ront	4682
kkb	4683
xxi	4684
badi	4685
mbon	4686
usk	4687
ebera	4688
samp	4689
ormas	4690
gl	4691
hulu	4692
err	4693
##uran	4694
enis	4695
olu	4696
awati	4697
ajib	4698
##ira	4699
timb	4700
mutus	4701
avi	4702
shop	4703
41	4704
ipa	4705
tna	4706
umpu	4707
redi	4708
udan	4709
yoy	4710
meras	4711
temp	4712
iza	4713
mg	4714
zat	4715
ndat	4716
gend	4717
ifika	4718
aitan	4719
bir	4720
nua	4721
tuh	4722
angs	4723
ald	4724
atl	4725
upat	4726
patu	4727
form	4728
ock	4729
ihara	4730
aat	4731
eor	4732
nind	4733
owo	4734
hyb	4735
eek	4736
gk	4737
gil	4738
uai	4739
syl	4740
gy	4741
hara	4742
ibut	4743
nerj	4744
ifa	4745
luhan	4746
iw	4747
jin	4748
aret	4749
max	4750
sten	4751
opo	4752
kapal	4753
ugm	4754
aikan	4755
cer	4756
jus	4757
zin	4758
lian	4759
upak	4760
esal	4761
evi	4762
memas	4763
iss	4764
naf	4765
haru	4766
ull	4767
kung	4768
lko	4769
rini	4770
erj	4771
arko	4772
alita	4773
orb	4774
kret	4775
araan	4776
rmati	4777
sdn	4778
muni	4779
ovi	4780
dung	4781
oel	4782
teri	4783
ole	4784
ndi	4785
esg	4786
melih	4787
mest	4788
aiman	4789
bap	4790
fid	4791
uj	4792
wang	4793
peti	4794
uno	4795
akwa	4796
inde	4797
tumb	4798
encar	4799
phk	4800
kasa	4801
tung	4802
eluru	4803
udik	4804
bos	4805
khu	4806
tori	4807
aspen	4808
##eni	4809
njal	4810
hool	4811
mt	4812
erta	4813
mini	4814
ibuk	4815
igh	4816
arun	4817
memak	4818
illa	4819
okus	4820
warg	4821
off	4822
walk	4823
fun	4824
kib	4825
inn	4826
##one	4827
atin	4828
ukun	4829
39	4830
dd	4831
jid	4832
ldi	4833
menuh	4834
ektif	4835
spbu	4836
rku	4837
usik	4838
buru	4839
gara	4840
ert	4841
arum	4842
##ona	4843
reat	4844
rob	4845
abor	4846
kpps	4847
rkira	4848
sse	4849
yana	4850
tep	4851
iso	4852
okyo	4853
##log	4854
byd	4855
bc	4856
kd	4857
tmen	4858
perw	4859
pener	4860
atak	4861
emik	4862
raks	4863
este	4864
lhk	4865
uing	4866
entr	4867
els	4868
riw	4869
asik	4870
penyi	4871
tribu	4872
untun	4873
smail	4874
oti	4875
tn	4876
uala	4877
yen	4878
##dn	4879
syar	4880
febr	4881
jutan	4882
etapa	4883
gt	4884
iasi	4885
jl	4886
yi	4887
zu	4888
##ze	4889
enat	4890
rakan	4891
egan	4892
psim	4893
adapi	4894
44	4895
hai	4896
erja	4897
ilak	4898
lita	4899
tres	4900
dpo	4901
hamm	4902
43	4903
yn	4904
##bt	4905
tia	4906
nte	4907
atkan	4908
impi	4909
seper	4910
atim	4911
enyu	4912
65	4913
aq	4914
ged	4915
itif	4916
mim	4917
pc	4918
sist	4919
400	4920
##gh	4921
berg	4922
ngnya	4923
akse	4924
ente	4925
olt	4926
ntra	4927
adio	4928
ilip	4929
42	4930
kia	4931
wai	4932
asti	4933
oke	4934
enci	4935
taran	4936
mai	4937
rhat	4938
##pd	4939
mbun	4940
rau	4941
nolog	4942
suv	4943
bsd	4944
cang	4945
ngung	4946
erw	4947
arr	4948
laya	4949
ubuh	4950
natur	4951
pusat	4952
runa	4953
ktp	4954
dmin	4955
bela	4956
ego	4957
uhkan	4958
klim	4959
u23	4960
bpn	4961
rar	4962
yer	4963
ande	4964
asem	4965
48	4966
fek	4967
hk	4968
nko	4969
unkan	4970
bag	4971
manat	4972
ggo	4973
rdak	4974
sme	4975
endo	4976
pant	4977
isian	4978
ajuan	4979
hor	4980
##wn	4981
ebi	4982
ebutk	4983
afa	4984
ova	4985
erson	4986
bnn	4987
nta	4988
inus	4989
mbia	4990
iket	4991
semb	4992
hay	4993
meru	4994
daran	4995
bps	4996
adirk	4997
mut	4998
peta	4999
persa	5000
ahir	5001
empu	5002
stat	5003
yaw	5004
hri	5005
iwa	5006
np	5007
iner	5008
nyala	5009
riku	5010
khi	5011
lapan	5012
aza	5013
ntor	5014
lip	5015
awar	5016
fifa	5017
fia	5018
tjs	5019
won	5020
##hu	5021
perma	5022
arin	5023
big	5024
rikan	5025
icky	5026
ojk	5027
bsi	5028
ski	5029
saan	5030
ntho	5031
ndasi	5032
ukm	5033
dpt	5034
afc	5035
yawa	5036
yoon	5037
hind	5038
##ee	5039
##vi	5040
lid	5041
raka	5042
own	5043
tjsl	5044
blo	5045
kid	5046
ngal	5047
emen	5048
way	5049
iklan	5050
erper	5051
qr	5052
ugat	5053
vn	5054
mpok	5055
sty	5056
ecil	5057
tunj	5058
gai	5059
erba	5060
upi	5061
kip	5062
selat	5063
eluar	5064
51	5065
cm	5066
hun	5067
iara	5068
ptim	5069
##va	5070
aras	5071
aha	5072
ista	5073
ikon	5074
ekt	5075
rbo	5076
esk	5077
elaj	5078
bangk	5079
bni	5080
perl	5081
##umi	5082
engu	5083
atm	5084
iki	5085
edy	5086
58	5087
ble	5088
fran	5089
his	5090
mz	5091
pmk	5092
##od	5093
ahl	5094
taka	5095
mou	5096
entas	5097
phpu	5098
ktif	5099
mudi	5100
ote	5101
rse	5102
nyak	5103
hoa	5104
ibl	5105
okoh	5106
##dc	5107
##ei	5108
digu	5109
alla	5110
ntin	5111
emon	5112
ncah	5113
skal	5114
cep	5115
tasan	5116
onfer	5117
jk	5118
##uke	5119
enah	5120
##oro	5121
pop	5122
eso	5123
lite	5124
coba	5125
eva	5126
endal	5127
52	5128
88	5129
erhe	5130
arf	5131
usli	5132
tron	5133
sidan	5134
nyamb	5135
skusi	5136
lakan	5137
kutan	5138
pdt	5139
annur	5140
val	5141
sei	5142
apri	5143
ott	5144
jem	5145
dlat	5146
mimpi	5147
47	5148
##ry	5149
erum	5150
ukup	5151
imu	5152
entan	5153
auf	5154
cv	5155
gori	5156
kc	5157
uin	5158
uit	5159
yd	5160
pent	5161
iku	5162
ulat	5163
tange	5164
klhk	5165
hul	5166
suda	5167
uet	5168
##ev	5169
sian	5170
usu	5171
epak	5172
bulk	5173
watan	5174
nova	5175
cetak	5176
vnl	5177
dun	5178
idak	5179
lel	5180
##her	5181
##yan	5182
dili	5183
perca	5184
enamb	5185
emam	5186
retar	5187
udit	5188
etan	5189
etno	5190
nyama	5191
hl	5192
oes	5193
aso	5194
room	5195
idf	5196
abri	5197
ncam	5198
web	5199
appy	5200
gala	5201
##pt	5202
ines	5203
ngl	5204
amba	5205
apk	5206
mpan	5207
iron	5208
mode	5209
kst	5210
usim	5211
show	5212
dra	5213
igas	5214
mid	5215
yon	5216
znas	5217
##ea	5218
alo	5219
uko	5220
agal	5221
abak	5222
ebol	5223
opd	5224
yaran	5225
bnpb	5226
cas	5227
kno	5228
pw	5229
pta	5230
##ton	5231
erlin	5232
pert	5233
ilu	5234
semba	5235
toh	5236
nior	5237
ofi	5238
nhu	5239
bia	5240
fg	5241
fis	5242
hnya	5243
##vid	5244
##sk	5245
die	5246
perda	5247
amo	5248
ayung	5249
sept	5250
56	5251
nisi	5252
ool	5253
uny	5254
berko	5255
alk	5256
apt	5257
juara	5258
uren	5259
itasi	5260
kawa	5261
edo	5262
side	5263
tura	5264
afari	5265
ecu	5266
egiat	5267
iva	5268
fir	5269
pda	5270
ves	5271
anit	5272
dian	5273
erh	5274
entur	5275
stan	5276
ston	5277
covid	5278
baka	5279
ntun	5280
izal	5281
lusur	5282
emula	5283
gm	5284
gita	5285
kra	5286
terla	5287
entik	5288
nde	5289
mende	5290
bumd	5291
lokas	5292
pelat	5293
##ard	5294
amad	5295
egra	5296
andat	5297
uheni	5298
kuman	5299
gin	5300
hre	5301
rna	5302
yud	5303
##sit	5304
arn	5305
mbal	5306
elap	5307
ded	5308
oki	5309
raham	5310
lsi	5311
rli	5312
uis	5313
##be	5314
uron	5315
eting	5316
rso	5317
azia	5318
ign	5319
galk	5320
kspor	5321
ax	5322
col	5323
dya	5324
dai	5325
gum	5326
ilah	5327
jpu	5328
nump	5329
wwf	5330
rot	5331
opot	5332
lengk	5333
mh	5334
vat	5335
ngs	5336
ngus	5337
arki	5338
onan	5339
ptpn	5340
54	5341
98	5342
fat	5343
gg	5344
wata	5345
##aru	5346
tiw	5347
rita	5348
its	5349
ikm	5350
lani	5351
lbh	5352
hina	5353
kses	5354
nsa	5355
##em	5356
eme	5357
urir	5358
itis	5359
rauke	5360
acun	5361
gawa	5362
etis	5363
opul	5364
ancan	5365
naras	5366
tppo	5367
abdu	5368
encer	5369
ualan	5370
lustr	5371
ais	5372
gja	5373
jon	5374
tyo	5375
mengk	5376
adia	5377
onta	5378
onte	5379
ekali	5380
lif	5381
uty	5382
auan	5383
46	5384
53	5385
bata	5386
nm	5387
var	5388
mete	5389
alm	5390
embah	5391
pengi	5392
naung	5393
mbera	5394
gitu	5395
uncu	5396
rsip	5397
ete	5398
rf	5399
uaya	5400
##ew	5401
asl	5402
atri	5403
ilis	5404
ubli	5405
esel	5406
opm	5407
imbul	5408
muncu	5409
kidul	5410
bwf	5411
mn	5412
eror	5413
alika	5414
##ire	5415
apkan	5416
njar	5417
riti	5418
awai	5419
senj	5420
gem	5421
ihad	5422
empur	5423
gist	5424
bappe	5425
jud	5426
nani	5427
lemb	5428
riya	5429
esla	5430
gian	5431
temuk	5432
eraih	5433
k2	5434
upt	5435
sug	5436
fgd	5437
gap	5438
gua	5439
sukan	5440
spk	5441
wbp	5442
yun	5443
##gs	5444
onn	5445
pok	5446
ulit	5447
irma	5448
iant	5449
nyer	5450
nie	5451
mera	5452
ival	5453
63	5454
atuk	5455
cle	5456
eet	5457
teran	5458
membu	5459
emuka	5460
ekre	5461
abin	5462
udd	5463
irta	5464
mind	5465
cob	5466
asark	5467
##ney	5468
erbai	5469
dbd	5470
57	5471
dli	5472
sea	5473
ise	5474
masin	5475
ikma	5476
rbaru	5477
loud	5478
ayana	5479
etty	5480
600	5481
95	5482
dent	5483
rih	5484
ujud	5485
terpa	5486
alak	5487
low	5488
nio	5489
ipp	5490
anca	5491
salin	5492
iew	5493
stian	5494
61	5495
73	5496
enim	5497
amata	5498
tawa	5499
orn	5500
ubi	5501
lint	5502
rapi	5503
bino	5504
aliho	5505
esep	5506
nih	5507
##vp	5508
erind	5509
enas	5510
apol	5511
nje	5512
erku	5513
feren	5514
ntian	5515
apork	5516
u17	5517
76	5518
pim	5519
digi	5520
amis	5521
itel	5522
menci	5523
icc	5524
sol	5525
park	5526
laka	5527
buran	5528
ogra	5529
800	5530
emuan	5531
49	5532
hama	5533
nul	5534
nna	5535
slo	5536
peed	5537
uss	5538
uskan	5539
jajar	5540
posit	5541
ops	5542
arif	5543
psn	5544
psu	5545
brin	5546
ormat	5547
ooth	5548
72	5549
aur	5550
eer	5551
nari	5552
##ff	5553
olil	5554
itik	5555
onel	5556
asir	5557
acl	5558
resh	5559
dibe	5560
dzes	5561
orban	5562
kdrt	5563
",	5564
don	5565
nin	5566
qua	5567
sina	5568
tali	5569
tup	5570
##rc	5571
term	5572
leo	5573
umba	5574
irda	5575
engo	5576
opera	5577
berbi	5578
mpaik	5579
dunia	5580
gini	5581
hs	5582
lle	5583
nita	5584
ogi	5585
yid	5586
##tun	5587
inga	5588
asis	5589
bark	5590
komu	5591
lami	5592
heck	5593
pkk	5594
bpom	5595
ansen	5596
ernat	5597
eir	5598
eju	5599
iu	5600
ndir	5601
mpor	5602
rug	5603
gue	5604
nisa	5605
68	5606
cil	5607
ija	5608
jik	5609
nne	5610
##dp	5611
##zy	5612
anny	5613
neur	5614
ntel	5615
elp	5616
usta	5617
urhan	5618
loy	5619
mot	5620
isik	5621
kluk	5622
pion	5623
emban	5624
tppu	5625
64	5626
eel	5627
gs	5628
oid	5629
uud	5630
##by	5631
##ct	5632
elana	5633
abila	5634
likas	5635
sby	5636
epu	5637
lrt	5638
mf	5639
rde	5640
##cd	5641
##xy	5642
unta	5643
alai	5644
emari	5645
kaa	5646
ico	5647
ipda	5648
klat	5649
120	5650
swar	5651
orea	5652
jr	5653
tto	5654
##zul	5655
lau	5656
isang	5657
ella	5658
tpi	5659
bpip	5660
62	5661
cf	5662
dja	5663
fw	5664
tth	5665
zon	5666
ankan	5667
aly	5668
elv	5669
menyi	5670
abumi	5671
engat	5672
aft	5673
vii	5674
limut	5675
kura	5676
nila	5677
owa	5678
p1	5679
uo	5680
yp	5681
yber	5682
disa	5683
melt	5684
klama	5685
endes	5686
pdb	5687
tpnpb	5688
lhkpn	5689
arfum	5690
cel	5691
gari	5692
sas	5693
unah	5694
arsa	5695
ahera	5696
olak	5697
ngki	5698
ncan	5699
lank	5700
pps	5701
pbsi	5702
99	5703
ppa	5704
vitas	5705
##dy	5706
kandi	5707
ngh	5708
arb	5709
sau	5710
sib	5711
tau	5712
ndal	5713
elt	5714
usus	5715
buan	5716
mutu	5717
pag	5718
ayl	5719
ayo	5720
ipmi	5721
poli	5722
polis	5723
gela	5724
bidan	5725
sign	5726
ansus	5727
orth	5728
napas	5729
ehan	5730
hom	5731
oat	5732
opa	5733
xv	5734
##qi	5735
sege	5736
arut	5737
alil	5738
oly	5739
ngkai	5740
sera	5741
nomo	5742
rato	5743
enewa	5744
munit	5745
erusa	5746
59	5747
85	5748
cn	5749
ehi	5750
map	5751
tai	5752
tukan	5753
ertu	5754
erte	5755
ahi	5756
onc	5757
imun	5758
abk	5759
membe	5760
ibya	5761
ratus	5762
kuti	5763
ntegr	5764
bh	5765
dji	5766
oil	5767
ook	5768
zi	5769
asah	5770
elc	5771
umh	5772
umin	5773
urk	5774
imda	5775
okt	5776
moda	5777
konf	5778
rant	5779
seku	5780
##lio	5781
epem	5782
date	5783
ngund	5784
lgbt	5785
66	5786
67	5787
yuk	5788
##ts	5789
##cr	5790
enk	5791
bac	5792
adab	5793
njat	5794
emba	5795
agan	5796
isial	5797
nso	5798
udio	5799
700	5800
qris	5801
eraga	5802
olan	5803
olok	5804
rote	5805
jaja	5806
##okh	5807
esen	5808
cher	5809
suran	5810
mperl	5811
lpsk	5812
ross	5813
ddin	5814
gasi	5815
ujuh	5816
yari	5817
erg	5818
ahma	5819
olina	5820
mpuh	5821
urokh	5822
kue	5823
upan	5824
niai	5825
ippo	5826
aksim	5827
ajan	5828
riot	5829
lfi	5830
medan	5831
lsm	5832
tthew	5833
bor	5834
kto	5835
rgi	5836
wet	5837
yad	5838
##ci	5839
kepo	5840
tig	5841
aknya	5842
enna	5843
nggr	5844
egit	5845
buy	5846
ays	5847
bola	5848
etw	5849
hiv	5850
tho	5851
smkn	5852
bnpt	5853
ppds	5854
ibawa	5855
hua	5856
iuran	5857
jcc	5858
kebu	5859
##iko	5860
akkan	5861
enn	5862
enz	5863
nji	5864
ebani	5865
iph	5866
lamp	5867
egia	5868
ivis	5869
klukk	5870
ees	5871
ges	5872
iati	5873
jok	5874
oz	5875
rjo	5876
salam	5877
##mo	5878
inja	5879
perin	5880
apu	5881
ory	5882
rick	5883
urkan	5884
ith	5885
ampa	5886
upu	5887
lant	5888
epul	5889
duo	5890
amaah	5891
swt	5892
nkri	5893
resid	5894
yudo	5895
--	5896
nab	5897
uja	5898
yed	5899
yro	5900
eril	5901
nem	5902
astr	5903
elia	5904
usn	5905
egu	5906
irl	5907
irk	5908
pendi	5909
renc	5910
umpan	5911
engec	5912
yoyok	5913
tuhan	5914
fp	5915
fh	5916
flu	5917
iia	5918
jas	5919
nsi	5920
yata	5921
##bl	5922
ingo	5923
roto	5924
ids	5925
jakan	5926
hany	5927
manda	5928
nic	5929
insar	5930
yos	5931
obol	5932
link	5933
burg	5934
viv	5935
ryp	5936
htt	5937
bmw	5938
pgri	5939
aylor	5940
fs	5941
kada	5942
mri	5943
sudi	5944
wari	5945
nger	5946
inim	5947
memi	5948
row	5949
oku	5950
uduh	5951
rsup	5952
folio	5953
ther	5954
gej	5955
nore	5956
erant	5957
ransp	5958
ertan	5959
79	5960
81	5961
curan	5962
hah	5963
lya	5964
nika	5965
tter	5966
tami	5967
wen	5968
yg	5969
##je	5970
erit	5971
##ore	5972
ndes	5973
mpar	5974
elai	5975
egis	5976
manto	5977
esona	5978
boat	5979
ebr	5980
etar	5981
rsu	5982
huj	5983
ept	5984
rdan	5985
bent	5986
smat	5987
ihak	5988
iqu	5989
78	5990
77	5991
het	5992
ous	5993
uine	5994
uns	5995
eres	5996
tega	5997
angg	5998
ahwa	5999
atnya	6000
roen	6001
ware	6002
nop	6003
undu	6004
izi	6005
erdu	6006
garan	6007
kbri	6008
uinea	6009
pia	6010
rro	6011
uad	6012
uana	6013
wf	6014
##bc	6015
kei	6016
arel	6017
adiri	6018
isen	6019
emer	6020
urs	6021
aby	6022
omis	6023
ubis	6024
airud	6025
skb	6026
shar	6027
iarah	6028
bpkp	6029
cik	6030
msi	6031
rke	6032
sf	6033
##py	6034
anusi	6035
lav	6036
taz	6037
lic	6038
ncol	6039
haj	6040
ubur	6041
krl	6042
tike	6043
gusu	6044
alisa	6045
mzah	6046
ihan	6047
jib	6048
##get	6049
##ate	6050
sec	6051
terha	6052
##air	6053
atsu	6054
usak	6055
omi	6056
ube	6057
esta	6058
icj	6059
icke	6060
afet	6061
skd	6062
nsar	6063
##mea	6064
aguy	6065
utut	6066
sinya	6067
gbt	6068
u20	6069
71	6070
87	6071
bro	6072
lpk	6073
nse	6074
rina	6075
##ie	6076
mac	6077
kome	6078
lanet	6079
mulyo	6080
spon	6081
obot	6082
ece	6083
ejo	6084
bran	6085
gand	6086
gbk	6087
82	6088
bup	6089
hala	6090
lh	6091
anka	6092
back	6093
ndia	6094
emasa	6095
empe	6096
elam	6097
elih	6098
reda	6099
ilk	6100
menei	6101
kris	6102
ipr	6103
##edy	6104
oss	6105
dikin	6106
smawa	6107
budur	6108
mpany	6109
https	6110
69	6111
74	6112
bih	6113
cp	6114
igu	6115
k3	6116
pom	6117
rati	6118
wara	6119
wira	6120
##for	6121
##qu	6122
anw	6123
abc	6124
udal	6125
nual	6126
pakan	6127
sumsi	6128
rdhi	6129
rend	6130
ngatk	6131
encat	6132
rosot	6133
bcl	6134
aer	6135
datu	6136
eila	6137
iung	6138
ipu	6139
rju	6140
tana	6141
uya	6142
##nk	6143
anes	6144
mener	6145
inas	6146
perba	6147
akzul	6148
ady	6149
isma	6150
itam	6151
nav	6152
abel	6153
egask	6154
ayc	6155
puu	6156
ipb	6157
anie	6158
sank	6159
jie	6160
aeon	6161
korup	6162
ness	6163
assar	6164
94	6165
cut	6166
nitas	6167
yek	6168
##gc	6169
dige	6170
akni	6171
sebel	6172
imana	6173
harg	6174
ncer	6175
luan	6176
ubl	6177
sop	6178
huf	6179
less	6180
loka	6181
erkar	6182
tpp	6183
oecd	6184
ensin	6185
dham	6186
bilit	6187
dna	6188
eon	6189
ox	6190
ptun	6191
rter	6192
anone	6193
keg	6194
perm	6195
koru	6196
emuk	6197
rown	6198
onet	6199
intan	6200
udol	6201
irto	6202
mence	6203
desak	6204
rpp	6205
nsya	6206
##ley	6207
eck	6208
goya	6209
sdgs	6210
viii	6211
shida	6212
gate	6213
wait	6214
iib	6215
ijak	6216
lte	6217
lkp	6218
nud	6219
##ey	6220
##tp	6221
##rah	6222
berba	6223
oru	6224
else	6225
lean	6226
rien	6227
imul	6228
mendo	6229
ege	6230
ird	6231
lanc	6232
uck	6233
sumo	6234
kebi	6235
ensus	6236
ufmi	6237
ourt	6238
xxii	6239
xvii	6240
nopol	6241
iel	6242
lal	6243
sala	6244
anr	6245
##sir	6246
erli	6247
aleri	6248
ngke	6249
lec	6250
riel	6251
using	6252
once	6253
irt	6254
mann	6255
janto	6256
batu	6257
cop	6258
aje	6259
yaif	6260
mund	6261
caman	6262
eep	6263
afety	6264
aud	6265
hw	6266
jd	6267
diha	6268
akir	6269
arir	6270
amit	6271
olly	6272
##oma	6273
ekti	6274
stika	6275
ampun	6276
irby	6277
moch	6278
boy	6279
embut	6280
alaxy	6281
bpd	6282
aep	6283
bpa	6284
dad	6285
eve	6286
mw	6287
mum	6288
oir	6289
oup	6290
tz	6291
unh	6292
eron	6293
ndil	6294
ordi	6295
elhi	6296
elly	6297
iduk	6298
andai	6299
panta	6300
osta	6301
##lem	6302
efe	6303
ganis	6304
pont	6305
amdk	6306
ngec	6307
elsea	6308
96	6309
hono	6310
jp	6311
oum	6312
sj	6313
sada	6314
tpa	6315
wh	6316
yr	6317
##unj	6318
eren	6319
arid	6320
arman	6321
ektur	6322
stol	6323
iram	6324
iani	6325
box	6326
board	6327
keli	6328
melu	6329
hej	6330
akaf	6331
mith	6332
smine	6333
hts	6334
tkd	6335
bts	6336
anese	6337
iwi	6338
lati	6339
rte	6340
vil	6341
##dh	6342
##zo	6343
##ato	6344
dika	6345
ukuh	6346
idah	6347
imf	6348
irah	6349
sert	6350
ibus	6351
undar	6352
stay	6353
ivi	6354
kpai	6355
uefa	6356
fon	6357
gw	6358
g7	6359
gih	6360
sni	6361
smi	6362
uq	6363
xia	6364
zan	6365
##au	6366
##op	6367
ngsu	6368
alny	6369
enunj	6370
sier	6371
asya	6372
urb	6373
ural	6374
onas	6375
deo	6376
iris	6377
mily	6378
ruar	6379
eth	6380
afar	6381
##rey	6382
yakan	6383
rissa	6384
psk	6385
embo	6386
160	6387
bkd	6388
anoi	6389
guran	6390
alem	6391
rrah	6392
rlih	6393
ydney	6394
89	6395
bama	6396
cy	6397
nun	6398
rwan	6399
##win	6400
##ye	6401
olon	6402
pemi	6403
##iba	6404
iks	6405
rook	6406
onsi	6407
tent	6408
ompet	6409
rmu	6410
rce	6411
avis	6412
swara	6413
djir	6414
ezes	6415
##hou	6416
tokol	6417
rasio	6418
hris	6419
ugia	6420
bnnp	6421
anras	6422
..	6423
bca	6424
gana	6425
nl	6426
nke	6427
sko	6428
vr	6429
von	6430
##sy	6431
keja	6432
mbl	6433
ahr	6434
apuk	6435
ndus	6436
mpik	6437
itr	6438
eger	6439
hanty	6440
paud	6441
impo	6442
##gol	6443
rani	6444
shim	6445
rame	6446
psg	6447
tone	6448
170	6449
chain	6450
ntens	6451
annel	6452
ootb	6453
hb	6454
ijo	6455
kma	6456
lta	6457
lman	6458
oer	6459
ope	6460
ramat	6461
sran	6462
ww	6463
win	6464
##ph	6465
##cy	6466
##hs	6467
##oh	6468
alti	6469
apua	6470
ikh	6471
lipat	6472
okk	6473
trate	6474
bub	6475
mili	6476
ambir	6477
dax	6478
esm	6479
ettu	6480
epas	6481
epal	6482
laksa	6483
enoa	6484
bks	6485
ezat	6486
kular	6487
caks	6488
wee	6489
tms	6490
honor	6491
91	6492
csi	6493
gne	6494
kse	6495
tpu	6496
##bb	6497
tisi	6498
prak	6499
isman	6500
asr	6501
riwi	6502
karsa	6503
atut	6504
bant	6505
manik	6506
rth	6507
hoi	6508
osip	6509
lahi	6510
rp1	6511
pts	6512
uca	6513
110	6514
ava	6515
iyan	6516
dimu	6517
...	6518
92	6519
bki	6520
cul	6521
fbi	6522
hd	6523
yik	6524
##pen	6525
##mas	6526
unk	6527
angsu	6528
##urt	6529
bante	6530
dae	6531
ebes	6532
airul	6533
pph	6534
thy	6535
mie	6536
entah	6537
trip	6538
tatan	6539
rmas	6540
130	6541
dimul	6542
mempr	6543
gube	6544
pdam	6545
gner	6546
knpi	6547
gbla	6548
mumk	6549
unhcr	6550
aal	6551
bok	6552
bre	6553
hmi	6554
kkp	6555
rz	6556
uisi	6557
utup	6558
yok	6559
##vo	6560
##ic	6561
##zer	6562
bertu	6563
arit	6564
alt	6565
ahit	6566
isum	6567
indr	6568
mpl	6569
eline	6570
uram	6571
ilita	6572
imt	6573
kui	6574
edot	6575
engan	6576
gau	6577
rpj	6578
ksal	6579
kecam	6580
doo	6581
bru	6582
iod	6583
112	6584
uea	6585
gnes	6586
pmii	6587
zoom	6588
pwnu	6589
loyd	6590
mma	6591
mura	6592
s1	6593
ux	6594
##20	6595
enung	6596
isak	6597
elok	6598
rida	6599
usup	6600
seba	6601
antin	6602
mania	6603
not	6604
nip	6605
saki	6606
lame	6607
mbau	6608
ext	6609
rasak	6610
pltu	6611
bkk	6612
ody	6613
tamin	6614
350	6615
alikp	6616
dupan	6617
84	6618
fina	6619
nr	6620
oord	6621
s2	6622
vas	6623
yor	6624
##sn	6625
##cle	6626
berh	6627
arri	6628
arot	6629
siaga	6630
atok	6631
ush	6632
uso	6633
sebu	6634
reu	6635
rawa	6636
awk	6637
edas	6638
irm	6639
esli	6640
cean	6641
nalk	6642
last	6643
hite	6644
ualit	6645
esid	6646
wei	6647
dlh	6648
gkut	6649
inner	6650
83	6651
bka	6652
bina	6653
eid	6654
jul	6655
pv	6656
##ub	6657
##hy	6658
dinya	6659
erad	6660
alju	6661
alhi	6662
sio	6663
ntika	6664
ngkun	6665
inder	6666
ild	6667
ekni	6668
lisi	6669
abire	6670
kuan	6671
lopp	6672
rsf	6673
kram	6674
tens	6675
ppg	6676
istra	6677
tore	6678
ringa	6679
ivre	6680
ewask	6681
lemba	6682
bsk	6683
ited	6684
ricuh	6685
yaman	6686
xii	6687
care	6688
cur	6689
dt	6690
gna	6691
lj	6692
muri	6693
shir	6694
##gen	6695
terte	6696
ery	6697
arul	6698
aldo	6699
lawi	6700
elot	6701
usin	6702
ungu	6703
tahil	6704
ilg	6705
itkan	6706
beth	6707
idul	6708
ontr	6709
irst	6710
haz	6711
lock	6712
etter	6713
bio	6714
nice	6715
ppi	6716
spar	6717
ratu	6718
job	6719
ramik	6720
dekah	6721
rmon	6722
gust	6723
lumas	6724
oney	6725
tind	6726
luhur	6727
dkk	6728
nirl	6729
midah	6730
ippon	6731
lpkr	6732
eung	6733
fn	6734
ktr	6735
och	6736
spe	6737
vip	6738
zhou	6739
##mu	6740
erim	6741
erge	6742
mban	6743
sain	6744
olar	6745
olis	6746
laf	6747
taq	6748
eluk	6749
usaka	6750
urga	6751
ily	6752
ime	6753
abad	6754
ulli	6755
ncap	6756
negas	6757
udia	6758
acat	6759
logo	6760
andas	6761
elaw	6762
pare	6763
olog	6764
osy	6765
deni	6766
rch	6767
oget	6768
smpn	6769
enye	6770
ewe	6771
nsume	6772
retas	6773
erbit	6774
ivers	6775
nteg	6776
uqman	6777
93	6778
cg	6779
dona	6780
ppu	6781
sch	6782
wn	6783
##cg	6784
anuli	6785
inaga	6786
##una	6787
mbi	6788
isra	6789
asto	6790
ager	6791
loh	6792
ksad	6793
kriti	6794
bpj	6795
bonat	6796
iakan	6797
tkdn	6798
nesco	6799
tilas	6800
mlb	6801
pgn	6802
buyb	6803
bskdn	6804
aen	6805
aar	6806
auk	6807
buh	6808
esia	6809
g20	6810
kre	6811
sda	6812
##md	6813
##aki	6814
kepa	6815
inho	6816
tern	6817
erny	6818
koni	6819
enp	6820
ello	6821
elind	6822
usum	6823
itte	6824
ones	6825
ages	6826
sendi	6827
icy	6828
lanj	6829
airah	6830
ptn	6831
saka	6832
ball	6833
ios	6834
140	6835
selam	6836
avar	6837
bpp	6838
fisip	6839
likar	6840
ilos	6841
dlor	6842
zola	6843
nnedy	6844
blem	6845
kcna	6846
break	6847
ulliv	6848
hali	6849
kf	6850
nba	6851
rca	6852
uwa	6853
vit	6854
anna	6855
alma	6856
ahn	6857
lag	6858
sie	6859
taj	6860
elati	6861
eky	6862
eker	6863
atun	6864
ayy	6865
tant	6866
cho	6867
rumi	6868
melar	6869
gio	6870
ibar	6871
ptfi	6872
ancis	6873
thai	6874
raton	6875
plh	6876
erdam	6877
ploso	6878
mdan	6879
napi	6880
idea	6881
aidah	6882
bitat	6883
ggot	6884
imtek	6885
eera	6886
hj	6887
js	6888
lent	6889
mka	6890
neri	6891
qi	6892
rmi	6893
xin	6894
##ht	6895
inah	6896
##ike	6897
akul	6898
alid	6899
enni	6900
ising	6901
iste	6902
isol	6903
asb	6904
rou	6905
idd	6906
abun	6907
ulas	6908
kaf	6909
mank	6910
moon	6911
konom	6912
icw	6913
arie	6914
iff	6915
rino	6916
125	6917
endor	6918
allas	6919
ryan	6920
odg	6921
ssc	6922
xiii	6923
dwp	6924
imoen	6925
ller	6926
arkiv	6927
uptd	6928
nicef	6929
boro	6930
dhi	6931
nri	6932
nali	6933
otu	6934
##ac	6935
##mn	6936
##mm	6937
untik	6938
tima	6939
akw	6940
baum	6941
laj	6942
isel	6943
ndr	6944
naan	6945
nack	6946
iklon	6947
onia	6948
ude	6949
irana	6950
acik	6951
maki	6952
uhur	6953
keca	6954
##olo	6955
azis	6956
drus	6957
bbp	6958
mkd	6959
smita	6960
orem	6961
layu	6962
kpol	6963
romi	6964
anuar	6965
subi	6966
thio	6967
mrt	6968
upply	6969
yiah	6970
ynch	6971
aqu	6972
www	6973
boks	6974
bkkbn	6975
86	6976
fed	6977
fsir	6978
hdi	6979
jf	6980
ois	6981
owan	6982
pti	6983
sg	6984
tj	6985
uip	6986
anam	6987
amm	6988
rey	6989
bem	6990
eke	6991
imam	6992
anter	6993
ulin	6994
ette	6995
ranta	6996
sekto	6997
kenai	6998
##los	6999
otte	7000
pkl	7001
brina	7002
180	7003
enez	7004
eif	7005
sron	7006
asser	7007
gnar	7008
rtaw	7009
450	7010
900	7011
snia	7012
gjaw	7013
spkt	7014
elvy	7015
bg	7016
jis	7017
jim	7018
uam	7019
vp	7020
yc	7021
##bk	7022
##ret	7023
pep	7024
unei	7025
erni	7026
erly	7027
enen	7028
emur	7029
##ome	7030
lew	7031
usur	7032
naut	7033
into	7034
dew	7035
nggun	7036
ncak	7037
warta	7038
ubh	7039
esse	7040
iaz	7041
cht	7042
kong	7043
##ims	7044
nich	7045
melan	7046
kapi	7047
skr	7048
obs	7049
shel	7050
damp	7051
dakw	7052
rona	7053
mcc	7054
kpr	7055
pdn	7056
elsen	7057
ahaan	7058
lkpi	7059
usumo	7060
odgj	7061
cin	7062
mali	7063
nnya	7064
rua	7065
vaku	7066
ym	7067
##yi	7068
##yah	7069
pee	7070
arsip	7071
arkam	7072
nea	7073
emis	7074
elak	7075
elik	7076
itah	7077
utya	7078
race	7079
warn	7080
rups	7081
chine	7082
bias	7083
ptdh	7084
hio	7085
kend	7086
risma	7087
jiw	7088
uatu	7089
lust	7090
garo	7091
eraka	7092
awaw	7093
ktm	7094
iaman	7095
yeol	7096
nifil	7097
erupa	7098
ynth	7099
aing	7100
iatu	7101
ohi	7102
##yn	7103
anar	7104
##ere	7105
menja	7106
ingi	7107
pete	7108
perat	7109
kob	7110
akt	7111
aren	7112
ento	7113
aper	7114
illi	7115
ikah	7116
bed	7117
atul	7118
omw	7119
waru	7120
irgc	7121
milu	7122
now	7123
ruma	7124
pub	7125
sobo	7126
gerus	7127
ibia	7128
ipin	7129
undry	7130
hima	7131
rdir	7132
obl	7133
trid	7134
ufc	7135
list	7136
erser	7137
ierre	7138
dinat	7139
eee	7140
dlhk	7141
psms	7142
plts	7143
u19	7144
east	7145
just	7146
olten	7147
cnn	7148
oumas	7149
prakt	7150
heng	7151
hila	7152
ln	7153
lme	7154
pju	7155
sara	7156
tuli	7157
uv	7158
zz	7159
erf	7160
##urg	7161
##ust	7162
enan	7163
##ito	7164
ahari	7165
labu	7166
aph	7167
atam	7168
elis	7169
ref	7170
road	7171
nego	7172
udrey	7173
ubuk	7174
ebur	7175
marga	7176
solu	7177
skin	7178
ecret	7179
atih	7180
demak	7181
akao	7182
mangg	7183
azi	7184
imble	7185
selek	7186
lisa	7187
ersus	7188
ijat	7189
holz	7190
dkj	7191
colas	7192
aenal	7193
fm	7194
iup	7195
llo	7196
pai	7197
rri	7198
rabo	7199
upn	7200
peka	7201
unn	7202
enia	7203
ahra	7204
ndu	7205
ndur	7206
anty	7207
oky	7208
ulut	7209
tras	7210
timah	7211
gay	7212
opher	7213
afis	7214
iband	7215
isio	7216
bule	7217
obor	7218
hena	7219
pukat	7220
adian	7221
exi	7222
ofia	7223
endek	7224
misa	7225
nday	7226
embi	7227
oeto	7228
plat	7229
plika	7230
pulu	7231
usir	7232
iem	7233
tudy	7234
aikin	7235
samar	7236
ltd	7237
aeda	7238
galan	7239
gnet	7240
nagih	7241
nzo	7242
kwk	7243
gkung	7244
lgbtq	7245
enkum	7246
bubur	7247
bli	7248
cb	7249
eed	7250
eira	7251
lho	7252
mro	7253
naya	7254
pki	7255
tw	7256
ws	7257
yel	7258
##ler	7259
##yu	7260
##ano	7261
disi	7262
unas	7263
unita	7264
perso	7265
angu	7266
alar	7267
alus	7268
aht	7269
##aba	7270
asur	7271
njab	7272
lei	7273
riil	7274
ingka	7275
##ted	7276
nay	7277
liu	7278
##oki	7279
oksi	7280
kuid	7281
sido	7282
ubj	7283
andur	7284
mbern	7285
ett	7286
paka	7287
yaf	7288
mpera	7289
risa	7290
wich	7291
pkn	7292
apitu	7293
pelan	7294
240	7295
bkc	7296
smrc	7297
kurs	7298
uff	7299
kpi	7300
onic	7301
tomo	7302
dinah	7303
eaf	7304
rgant	7305
urov	7306
hinta	7307
nimb	7308
uyung	7309
ismil	7310
bkpm	7311
umham	7312
kua	7313
pita	7314
som	7315
yom	7316
##wu	7317
##har	7318
##of	7319
##und	7320
##usu	7321
enga	7322
aser	7323
asut	7324
mass	7325
orer	7326
eling	7327
eldi	7328
elbo	7329
ilia	7330
barga	7331
luyo	7332
irat	7333
engin	7334
look	7335
ubung	7336
toar	7337
opan	7338
opes	7339
ipas	7340
sumah	7341
ever	7342
trib	7343
aic	7344
aitu	7345
ejat	7346
ofyan	7347
155	7348
ganja	7349
ineas	7350
madu	7351
ugar	7352
yato	7353
mst	7354
hmo	7355
kkn	7356
nhil	7357
bpkh	7358
u16	7359
hort	7360
otul	7361
eha	7362
eji	7363
hud	7364
yno	7365
zal	7366
##ln	7367
##bol	7368
##oe	7369
anp	7370
inak	7371
peda	7372
##unt	7373
erasi	7374
ardo	7375
##ure	7376
enja	7377
enol	7378
neo	7379
orte	7380
orto	7381
emaha	7382
riang	7383
reb	7384
ilal	7385
maf	7386
abot	7387
utro	7388
trak	7389
edes	7390
milia	7391
kere	7392
amban	7393
dao	7394
esp	7395
boyo	7396
ebang	7397
pppa	7398
spbe	7399
hie	7400
haka	7401
gemp	7402
syik	7403
endr	7404
tpg	7405
pide	7406
subs	7407
paham	7408
srat	7409
nstru	7410
hira	7411
mron	7412
tsus	7413
colo	7414
bksda	7415
eun	7416
gong	7417
iims	7418
lkan	7419
lwan	7420
lwi	7421
mmea	7422
oik	7423
pong	7424
slam	7425
tina	7426
uid	7427
wr	7428
wasi	7429
##ft	7430
##uw	7431
##pm	7432
##cs	7433
bernu	7434
perb	7435
koro	7436
eneng	7437
mbala	7438
adget	7439
apuh	7440
ndim	7441
umfor	7442
uring	7443
illem	7444
itek	7445
itha	7446
kav	7447
iong	7448
luit	7449
uddi	7450
irza	7451
rsan	7452
nyan	7453
nies	7454
giur	7455
ipl	7456
ipdn	7457
wow	7458
hij	7459
batan	7460
ift	7461
dug	7462
rapto	7463
shal	7464
exy	7465
lokan	7466
itab	7467
bpr	7468
bppd	7469
ehid	7470
djp	7471
nakal	7472
nakes	7473
quo	7474
aily	7475
digma	7476
radis	7477
nimo	7478
dbh	7479
nafsu	7480
esota	7481
spklu	7482
shire	7483
ittee	7484
bada	7485
dpn	7486
eis	7487
fx	7488
lpe	7489
mmk	7490
nadi	7491
oek	7492
pka	7493
snya	7494
ugo	7495
vv	7496
yle	7497
##cm	7498
inu	7499
##sis	7500
ngad	7501
tet	7502
akum	7503
arlah	7504
asha	7505
elin	7506
rimea	7507
ukka	7508
imal	7509
abit	7510
ncu	7511
ncat	7512
act	7513
ambun	7514
tolo	7515
nyusu	7516
hou	7517
niv	7518
epit	7519
sume	7520
dirin	7521
ancy	7522
ifah	7523
fac	7524
sono	7525
uay	7526
berbe	7527
rase	7528
loso	7529
lpd	7530
agoan	7531
kwh	7532
ixon	7533
flix	7534
ismo	7535
mlan	7536
aqua	7537
cvc	7538
mnc	7539
aukus	7540
mmksi	7541
dju	7542
dmi	7543
jai	7544
oom	7545
wing	7546
##ec	7547
##ov	7548
anet	7549
##eno	7550
##ild	7551
tira	7552
perka	7553
aluk	7554
endak	7555
engaw	7556
mbg	7557
laz	7558
isy	7559
emin	7560
urv	7561
uras	7562
itme	7563
rose	7564
mao	7565
rav	7566
rbun	7567
engam	7568
lose	7569
ubik	7570
##ked	7571
undan	7572
ompl	7573
reku	7574
torus	7575
shiba	7576
goen	7577
ogy	7578
ganda	7579
ilmy	7580
smin	7581
antul	7582
slim	7583
oos	7584
mcd	7585
ewu	7586
stia	7587
lona	7588
ripda	7589
purwa	7590
mtq	7591
dliy	7592
taqin	7593
%.	7594
97	7595
b1	7596
dol	7597
doko	7598
fly	7599
gcg	7600
hpp	7601
kte	7602
kila	7603
nber	7604
oon	7605
qsa	7606
tmi	7607
##tc	7608
##pc	7609
meg	7610
meet	7611
intim	7612
inmas	7613
ngen	7614
akes	7615
alit	7616
##ora	7617
amur	7618
olik	7619
asek	7620
oret	7621
rei	7622
iksi	7623
ikul	7624
ondi	7625
ulsa	7626
ultur	7627
semak	7628
edana	7629
muju	7630
mount	7631
ebel	7632
hoc	7633
bip	7634
obel	7635
she	7636
iliun	7637
kalt	7638
rwah	7639
tarum	7640
kmp	7641
esis	7642
baic	7643
inist	7644
oyke	7645
hanie	7646
pltn	7647
360	7648
doro	7649
dbl	7650
aulay	7651
nihil	7652
nghad	7653
akule	7654
leix	7655
vvip	7656
aib	7657
cim	7658
dum	7659
lma	7660
mok	7661
mdi	7662
ober	7663
tdc	7664
uika	7665
wes	7666
xl	7667
xpo	7668
##ku	7669
##hia	7670
##ame	7671
inka	7672
unat	7673
terja	7674
ngu	7675
erpe	7676
labo	7677
elvi	7678
reak	7679
uktu	7680
ider	7681
idha	7682
agat	7683
agir	7684
udes	7685
manul	7686
nola	7687
ebrak	7688
iaea	7689
sode	7690
##rem	7691
rph	7692
eppy	7693
yod	7694
food	7695
ecar	7696
rine	7697
azair	7698
vide	7699
iger	7700
iguna	7701
adewa	7702
netra	7703
djka	7704
naker	7705
erawa	7706
elif	7707
eller	7708
ktato	7709
bsah	7710
antet	7711
ixed	7712
sedan	7713
buhan	7714
factu	7715
cpo	7716
dly	7717
fra	7718
hur	7719
iot	7720
mta	7721
oiko	7722
qil	7723
tma	7724
uap	7725
##ks	7726
##ss	7727
diter	7728
##ase	7729
erin	7730
arina	7731
alya	7732
neta	7733
isto	7734
oria	7735
emara	7736
mpit	7737
elaku	7738
elki	7739
lear	7740
idar	7741
pote	7742
abang	7743
utte	7744
deau	7745
ular	7746
udhi	7747
irup	7748
irna	7749
engh	7750
ayne	7751
andum	7752
gaul	7753
iaw	7754
suar	7755
publ	7756
suru	7757
ipw	7758
sekal	7759
oby	7760
ajut	7761
otan	7762
ramil	7763
natal	7764
114	7765
135	7766
erdon	7767
ezze	7768
budak	7769
blk	7770
pdr	7771
aids	7772
kukuh	7773
dore	7774
bpjph	7775
iddle	7776
ubhol	7777
ubjek	7778
ezzec	7779
bw	7780
bim	7781
cd	7782
gde	7783
hza	7784
iis	7785
jor	7786
lara	7787
lud	7788
rra	7789
rda	7790
tad	7791
udak	7792
wani	7793
yes	7794
yomo	7795
zak	7796
##ner	7797
##ep	7798
##bm	7799
inang	7800
tech	7801
tiek	7802
akah	7803
##ess	7804
amma	7805
laah	7806
isè	7807
ndan	7808
ely	7809
ries	7810
rime	7811
usar	7812
umta	7813
karen	7814
itt	7815
ontak	7816
imm	7817
agasi	7818
lie	7819
stal	7820
stis	7821
ulap	7822
omz	7823
mane	7824
loc	7825
esq	7826
bot	7827
ebam	7828
konek	7829
town	7830
etra	7831
surv	7832
holar	7833
ibe	7834
ksu	7835
ucun	7836
parta	7837
skk	7838
rsih	7839
wij	7840
pkpu	7841
calo	7842
artis	7843
oem	7844
115	7845
uria	7846
rhas	7847
bpt	7848
slb	7849
ermai	7850
mck	7851
nakho	7852
araka	7853
lpdp	7854
rits	7855
bssn	7856
argon	7857
750	7858
oeld	7859
hlak	7860
cfd	7861
ttery	7862
wfp	7863
gnec	7864
aquf	7865
emurr	7866
jaib	7867
tmii	7868
cung	7869
gno	7870
jt	7871
lda	7872
oard	7873
rnas	7874
tabo	7875
utur	7876
wtp	7877
zas	7878
##bd	7879
##sp	7880
##wei	7881
seju	7882
menta	7883
inha	7884
tersa	7885
eris	7886
erha	7887
alung	7888
nep	7889
ispa	7890
elf	7891
elur	7892
rias	7893
rium	7894
urq	7895
itn	7896
naz	7897
roki	7898
jaj	7899
harjo	7900
uly	7901
trit	7902
ncini	7903
udong	7904
uput	7905
acc	7906
lodo	7907
noah	7908
ruah	7909
esut	7910
yanti	7911
airs	7912
rp5	7913
ibh	7914
ipm	7915
ptk	7916
fox	7917
elay	7918
sky	7919
ajal	7920
103	7921
102	7922
shot	7923
rger	7924
##mbg	7925
rise	7926
tapa	7927
azda	7928
aluw	7929
waty	7930
pessy	7931
mitr	7932
rwana	7933
briel	7934
selir	7935
ilei	7936
eneca	7937
ortel	7938
ough	7939
hilal	7940
nanas	7941
ritz	7942
gamus	7943
gnat	7944
##fie	7945
tten	7946
shima	7947
tyas	7948
nadah	7949
ovie	7950
aufal	7951
kcic	7952
fwd	7953
rowth	7954
uipm	7955
tabol	7956
3t	7957
cis	7958
cbp	7959
ddi	7960
fhu	7961
gina	7962
ladi	7963
lba	7964
meri	7965
ntim	7966
stur	7967
scu	7968
tuka	7969
wana	7970
##ane	7971
ngon	7972
enari	7973
saf	7974
olat	7975
isney	7976
aslu	7977
ndom	7978
orgol	7979
emut	7980
ried	7981
iton	7982
iting	7983
idan	7984
buta	7985
irga	7986
irun	7987
irai	7988
irama	7989
upon	7990
loch	7991
ubak	7992
ebres	7993
oppen	7994
yany	7995
bies	7996
rp2	7997
rdju	7998
cian	7999
osm	8000
mix	8001
evy	8002
echo	8003
dakim	8004
goda	8005
ioc	8006
tpt	8007
rcia	8008
113	8009
ruth	8010
tasia	8011
phia	8012
lilin	8013
kpm	8014
etop	8015
hrir	8016
nze	8017
apper	8018
fkub	8019
mgm	8020
kibar	8021
ldii	8022
solok	8023
ursus	8024
rthur	8025
pvmbg	8026
halie	8027
kfurt	8028
yomi	8029
fhui	8030
).	8031
aed	8032
bana	8033
bita	8034
eil	8035
ejan	8036
gamb	8037
kja	8038
lali	8039
mj	8040
nnu	8041
rmen	8042
sru	8043
vol	8044
yung	8045
yted	8046
zr	8047
zul	8048
##vs	8049
##chi	8050
anrem	8051
dilah	8052
ined	8053
##ily	8054
tew	8055
tih	8056
##use	8057
alad	8058
mbuk	8059
oles	8060
oline	8061
sic	8062
issa	8063
asy	8064
asul	8065
tax	8066
atty	8067
indi	8068
indai	8069
mpong	8070
elli	8071
ride	8072
usana	8073
usma	8074
rew	8075
iky	8076
rogo	8077
imur	8078
abs	8079
abut	8080
atua	8081
sther	8082
paj	8083
bob	8084
gaet	8085
patan	8086
suara	8087
rten	8088
rtam	8089
rsai	8090
rson	8091
hoal	8092
hohi	8093
kso	8094
pprt	8095
ppln	8096
uhid	8097
obes	8098
hent	8099
evp	8100
heu	8101
heo	8102
goyah	8103
ronco	8104
ombol	8105
ioh	8106
rasto	8107
ekank	8108
glow	8109
huma	8110
pnbp	8111
ensen	8112
eog	8113
arci	8114
kpp	8115
stip	8116
blet	8117
alela	8118
rito	8119
tbc	8120
nado	8121
idie	8122
fks	8123
urunk	8124
tnbt	8125
licot	8126
oirul	8127
ville	8128
okky	8129
ayyip	8130
kobar	8131
3d	8132
aet	8133
cum	8134
cine	8135
duat	8136
dkp	8137
eut	8138
fd	8139
hf	8140
ieng	8141
iek	8142
lade	8143
mono	8144
mne	8145
nib	8146
oul	8147
svp	8148
uadi	8149
yri	8150
yna	8151
##lai	8152
##ky	8153
##my	8154
mente	8155
pedi	8156
kanak	8157
erik	8158
ergu	8159
titu	8160
koso	8161
arv	8162
##ite	8163
olas	8164
mpet	8165
ukus	8166
kamla	8167
tahik	8168
ilir	8169
asio	8170
agre	8171
hare	8172
utt	8173
dea	8174
deco	8175
semia	8176
grc	8177
mine	8178
hane	8179
ubun	8180
ebti	8181
iaf	8182
iag	8183
diser	8184
etr	8185
pui	8186
rpm	8187
ipar	8188
sps	8189
rdp	8190
nere	8191
105	8192
osh	8193
nser	8194
ech	8195
rista	8196
tapea	8197
psht	8198
ivf	8199
songo	8200
enden	8201
uawei	8202
dukun	8203
incin	8204
etung	8205
urant	8206
ermo	8207
isku	8208
ewis	8209
imax	8210
jukk	8211
gangk	8212
kesu	8213
habi	8214
ripik	8215
tbs	8216
lyn	8217
tuti	8218
khiri	8219
murah	8220
kwp	8221
kjri	8222
zoo	8223
uild	8224
arfur	8225
ynote	8226
lpei	8227
duate	8228
5g	8229
aber	8230
bike	8231
cen	8232
cta	8233
dong	8234
eca	8235
hz	8236
iata	8237
ied	8238
jn	8239
jc	8240
j9	8241
kka	8242
kki	8243
ldo	8244
lkpp	8245
madi	8246
neng	8247
oong	8248
tte	8249
wt	8250
yama	8251
##der	8252
##lan	8253
##bhi	8254
##gb	8255
##cut	8256
key	8257
dane	8258
unni	8259
kole	8260
arw	8261
olit	8262
tawan	8263
emeri	8264
riuh	8265
umus	8266
umuh	8267
ukas	8268
ukis	8269
naati	8270
ikar	8271
ikal	8272
rog	8273
rogol	8274
ekik	8275
##raf	8276
abab	8277
razy	8278
kuak	8279
ulf	8280
jaks	8281
edib	8282
load	8283
ambon	8284
ruz	8285
eblos	8286
patk	8287
nyam	8288
nerba	8289
obok	8290
dow	8291
ifi	8292
ifat	8293
fie	8294
efa	8295
maluk	8296
jip	8297
pst	8298
got	8299
gasah	8300
burgh	8301
embuk	8302
sdg	8303
tikai	8304
binsa	8305
ryst	8306
tabe	8307
iyas	8308
fere	8309
pho	8310
soro	8311
tpst	8312
layat	8313
anks	8314
vers	8315
ragih	8316
luma	8317
ailul	8318
ngap	8319
vanza	8320
luts	8321
imos	8322
rmain	8323
bmmn	8324
erbuk	8325
roper	8326
tsm	8327
ylbhi	8328
fidz	8329
fp1	8330
rrow	8331
mblas	8332
ptsl	8333
urqon	8334
j99	8335
aas	8336
bdi	8337
c1	8338
cdc	8339
iad	8340
jol	8341
kwa	8342
lju	8343
lena	8344
mv	8345
m2	8346
##ds	8347
##ui	8348
##hon	8349
anf	8350
unu	8351
unar	8352
ngang	8353
erun	8354
teur	8355
akap	8356
mbz	8357
saac	8358
isb	8359
ison	8360
isha	8361
lex	8362
lema	8363
rich	8364
urt	8365
roe	8366
antal	8367
antah	8368
liq	8369
abg	8370
ulka	8371
trek	8372
udari	8373
enger	8374
daan	8375
child	8376
meli	8377
rpmk	8378
iptu	8379
eper	8380
epok	8381
yoso	8382
wagen	8383
staz	8384
down	8385
co2	8386
cela	8387
cijan	8388
106	8389
rusah	8390
ecet	8391
hem	8392
oten	8393
rami	8394
nale	8395
puty	8396
syana	8397
pkt	8398
igd	8399
oep	8400
aug	8401
iyung	8402
phri	8403
lare	8404
smana	8405
oost	8406
bondo	8407
ezbol	8408
iez	8409
enyak	8410
enyam	8411
sili	8412
lpha	8413
olipa	8414
blt	8415
digit	8416
leret	8417
enalk	8418
arkus	8419
kuhap	8420
mms	8421
snur	8422
kjmu	8423
metri	8424
ease	8425
ocky	8426
pcnu	8427
jkn	8428
midi	8429
737	8430
yekh	8431
mafma	8432
nnual	8433
iyasu	8434
b2	8435
cita	8436
dalah	8437
eik	8438
epa	8439
fah	8440
hh	8441
hko	8442
item	8443
jh	8444
ltik	8445
nb	8446
oeng	8447
pwi	8448
tpk	8449
uber	8450
wala	8451
yus	8452
zh	8453
zum	8454
##lh	8455
##bot	8456
##og	8457
anni	8458
inul	8459
berga	8460
tela	8461
##uti	8462
akso	8463
arwin	8464
allo	8465
mburg	8466
adad	8467
ahmi	8468
apo	8469
mpv	8470
ungs	8471
jua	8472
rejo	8473
urin	8474
ille	8475
roa	8476
dean	8477
raz	8478
##set	8479
hania	8480
uplai	8481
hao	8482
kerto	8483
daf	8484
esat	8485
afd	8486
nife	8487
lahk	8488
iban	8489
ksan	8490
ksin	8491
epy	8492
spi	8493
obar	8494
anch	8495
dos	8496
door	8497
ify	8498
ifter	8499
rekat	8500
rust	8501
rinah	8502
heel	8503
faz	8504
geta	8505
azak	8506
papa	8507
matu	8508
bbl	8509
iraj	8510
ryo	8511
270	8512
antum	8513
abuan	8514
emicu	8515
eiz	8516
lpka	8517
lunas	8518
mosir	8519
ritno	8520
uii	8521
suna	8522
dayu	8523
umpuh	8524
bpkad	8525
nadya	8526
rlan	8527
innor	8528
waii	8529
pmkri	8530
fhnk	8531
eptis	8532
ucker	8533
cycle	8534
curk	8535
bbpvp	8536
anare	8537
tnbts	8538
00	8539
b3	8540
bfor	8541
dwan	8542
eba	8543
fni	8544
fkp	8545
hgu	8546
hro	8547
igai	8548
jw	8549
kik	8550
lx	8551
mmi	8552
nni	8553
pari	8554
ske	8555
twa	8556
yman	8557
zam	8558
##per	8559
##gy	8560
##km	8561
see	8562
##yai	8563
##ino	8564
peak	8565
erda	8566
aktik	8567
arra	8568
alsa	8569
enb	8570
enek	8571
##oni	8572
mbent	8573
amul	8574
add	8575
adas	8576
oling	8577
olet	8578
apd	8579
apus	8580
siman	8581
indad	8582
legi	8583
uky	8584
ilman	8585
itz	8586
roz	8587
agk	8588
abl	8589
utis	8590
jaka	8591
haw	8592
andir	8593
soj	8594
rshs	8595
opet	8596
ppo	8597
nfi	8598
rkat	8599
genre	8600
dog	8601
rodu	8602
ajam	8603
jend	8604
fee	8605
rahar	8606
sher	8607
shak	8608
hea	8609
hev	8610
oths	8611
ized	8612
pkpa	8613
sons	8614
dry	8615
tono	8616
arty	8617
tpd	8618
watu	8619
ogok	8620
humer	8621
ilmar	8622
lukis	8623
netw	8624
lps	8625
onete	8626
qui	8627
uiz	8628
ukaan	8629
onder	8630
ttack	8631
odoh	8632
ttah	8633
mral	8634
tmmd	8635
emui	8636
kuni	8637
anner	8638
340	8639
uyen	8640
ebuah	8641
dbor	8642
ssim	8643
stuti	8644
apec	8645
gede	8646
hayne	8647
axi	8648
almco	8649
loyee	8650
mbles	8651
arwis	8652
aika	8653
aeni	8654
df	8655
eak	8656
egaw	8657
fti	8658
gapa	8659
hny	8660
jch	8661
jono	8662
kati	8663
lc	8664
pali	8665
rpa	8666
smb	8667
tsu	8668
wir	8669
xu	8670
xy	8671
yk	8672
andak	8673
##tui	8674
unto	8675
ngok	8676
akut	8677
angki	8678
enza	8679
amy	8680
##ith	8681
lavi	8682
prt	8683
itun	8684
apm	8685
siana	8686
isp	8687
ates	8688
mpal	8689
rior	8690
rion	8691
usan	8692
umere	8693
ilin	8694
itts	8695
ikti	8696
rope	8697
im3	8698
asiv	8699
liame	8700
uts	8701
stnk	8702
okom	8703
kusi	8704
##ett	8705
udap	8706
udus	8707
udget	8708
pred	8709
upus	8710
rupuk	8711
serd	8712
iane	8713
disku	8714
rsj	8715
rsang	8716
dpk	8717
dpkp	8718
dpmp	8719
hui	8720
nig	8721
ipan	8722
hiu	8723
hipo	8724
rdu	8725
khot	8726
alie	8727
rapen	8728
nseng	8729
nsur	8730
##lov	8731
pbi	8732
hee	8733
mall	8734
ramo	8735
azzi	8736
gosip	8737
endir	8738
rmat	8739
rcti	8740
149	8741
oger	8742
vian	8743
avel	8744
odena	8745
bpdp	8746
190	8747
pjs	8748
scbd	8749
260	8750
onton	8751
ouch	8752
ihom	8753
esaw	8754
mira	8755
ugup	8756
tvo	8757
empek	8758
dale	8759
kopi	8760
eena	8761
kkr	8762
nese	8763
ledge	8764
affar	8765
lomb	8766
351	8767
thium	8768
rrt	8769
lvy	8770
tcom	8771
alsh	8772
dzily	8773
nungg	8774
mpiun	8775
pintu	8776
erjee	8777
abora	8778
iblat	8779
alog	8780
iquid	8781
msil	8782
irdha	8783
rpjpd	8784
sojev	8785
bf	8786
basa	8787
dny	8788
fy	8789
gani	8790
gge	8791
iom	8792
ijar	8793
jia	8794
lz	8795
lulu	8796
osia	8797
oed	8798
pip	8799
rada	8800
sbi	8801
tda	8802
ttar	8803
ueno	8804
vy	8805
yore	8806
zra	8807
zmi	8808
##jb	8809
##ren	8810
anon	8811
diny	8812
sega	8813
insi	8814
une	8815
ngsa	8816
teen	8817
tie	8818
tio	8819
alek	8820
alet	8821
enon	8822
enjo	8823
mbs	8824
ollo	8825
aska	8826
ntini	8827
njol	8828
elni	8829
riak	8830
usada	8831
karna	8832
rec	8833
ilina	8834
ilton	8835
itera	8836
antz	8837
liat	8838
oker	8839
bandi	8840
tril	8841
udut	8842
irty	8843
ircle	8844
upas	8845
pack	8846
rupst	8847
ianna	8848
engen	8849
hae	8850
loom	8851
ubs	8852
ubato	8853
rucut	8854
gac	8855
ebe	8856
ebor	8857
char	8858
chel	8859
later	8860
latur	8861
impit	8862
impos	8863
ics	8864
etha	8865
afik	8866
arius	8867
osit	8868
airun	8869
kson	8870
rane	8871
anida	8872
sppd	8873
doza	8874
kebe	8875
coo	8876
104	8877
108	8878
pbhi	8879
otre	8880
risd	8881
lash	8882
laska	8883
faa	8884
rmin	8885
idola	8886
leppo	8887
aval	8888
phd	8889
smak	8890
ontok	8891
oopy	8892
utung	8893
garak	8894
fakt	8895
tafet	8896
blud	8897
more	8898
hmid	8899
pahit	8900
sruh	8901
xiv	8902
affa	8903
odot	8904
oyan	8905
oyce	8906
knk	8907
tmiko	8908
tsp	8909
mukti	8910
injai	8911
ddap	8912
arren	8913
epubl	8914
cfx	8915
embay	8916
erger	8917
there	8918
wfh	8919
eroni	8920
nackv	8921
pdns	8922
agreg	8923
bko	8924
blu	8925
dpa	8926
e5	8927
gpa	8928
hsa	8929
jbb	8930
klah	8931
lng	8932
lkam	8933
mto	8934
nza	8935
ppat	8936
rga	8937
rji	8938
uqi	8939
wom	8940
wck	8941
yb	8942
##hur	8943
##rs	8944
##ms	8945
anati	8946
##all	8947
menan	8948
##ile	8949
akter	8950
albe	8951
##ond	8952
mbua	8953
##tip	8954
olver	8955
apid	8956
ats	8957
atti	8958
mpm	8959
mplo	8960
elir	8961
usg	8962
uspen	8963
kart	8964
ilek	8965
idin	8966
onek	8967
abm	8968
raca	8969
kay	8970
nch	8971
egr	8972
irik	8973
haf	8974
aye	8975
noa	8976
ambia	8977
dawa	8978
pasu	8979
tania	8980
dist	8981
icuh	8982
etas	8983
lanca	8984
airi	8985
rp3	8986
ipo	8987
ipad	8988
ppih	8989
epot	8990
under	8991
onge	8992
rdji	8993
doha	8994
olot	8995
kipp	8996
uard	8997
nsp	8998
miz	8999
nark	9000
entak	9001
klan	9002
klum	9003
rish	9004
izen	9005
putro	9006
pkm	9007
121	9008
azing	9009
iov	9010
kutat	9011
sumay	9012
alaf	9013
271	9014
phe	9015
pjr	9016
kilas	9017
ridge	9018
ansas	9019
ansah	9020
eye	9021
ihar	9022
ardj	9023
ntit	9024
suko	9025
empol	9026
kusum	9027
bsyi	9028
kky	9029
likem	9030
lome	9031
ulaga	9032
yep	9033
bmn	9034
bpkn	9035
##hei	9036
338	9037
ulkas	9038
hots	9039
orbes	9040
wangi	9041
indef	9042
650	9043
ydro	9044
gmni	9045
oussa	9046
cpmi	9047
okkes	9048
yikh	9049
reuen	9050
llery	9051
entol	9052
pubg	9053
wijk	9054
yungo	9055
lumaj	9056
eikal	9057
roach	9058
aeng	9059
basi	9060
bda	9061
cw	9062
cab	9063
cked	9064
deh	9065
djo	9066
flo	9067
gps	9068
hwa	9069
hine	9070
iada	9071
keng	9072
lina	9073
lbi	9074
oana	9075
py	9076
s3	9077
sro	9078
sno	9079
tka	9080
tno	9081
vk	9082
vest	9083
wk	9084
wad	9085
wor	9086
wto	9087
xa	9088
ype	9089
zim	9090
zhi	9091
##ven	9092
##vsi	9093
##pr	9094
##lis	9095
##gar	9096
##cha	9097
##hp	9098
##ob	9099
##oy	9100
anil	9101
##ene	9102
seva	9103
menk	9104
erome	9105
tiar	9106
perg	9107
akab	9108
alama	9109
aleka	9110
ennis	9111
mbom	9112
ahid	9113
olp	9114
olia	9115
assi	9116
asnya	9117
tay	9118
orat	9119
orita	9120
ating	9121
##way	9122
mpp	9123
leta	9124
leman	9125
reas	9126
resia	9127
reho	9128
ukuk	9129
ingg	9130
ilw	9131
ilwa	9132
ilid	9133
ilter	9134
roh	9135
rouri	9136
ekon	9137
imip	9138
asic	9139
agul	9140
liz	9141
atum	9142
okim	9143
raa	9144
ncoro	9145
lux	9146
udono	9147
mojo	9148
esy	9149
eby	9150
late	9151
guy	9152
##key	9153
nyia	9154
##ree	9155
huck	9156
niya	9157
ranca	9158
epto	9159
epet	9160
waini	9161
parti	9162
skpd	9163
oblo	9164
khar	9165
meron	9166
ratya	9167
anafi	9168
tory	9169
shan	9170
rink	9171
sanak	9172
heet	9173
onst	9174
pkh	9175
azza	9176
ringk	9177
imbim	9178
rono	9179
arton	9180
jaten	9181
matum	9182
169	9183
urip	9184
ally	9185
133	9186
134	9187
bkb	9188
bpi	9189
bph	9190
bpvp	9191
djbc	9192
smani	9193
eyond	9194
orogo	9195
iduan	9196
uzman	9197
tlas	9198
cken	9199
mahk	9200
lmas	9201
kppu	9202
nanya	9203
esih	9204
lpp	9205
lpck	9206
ltah	9207
moro	9208
dalas	9209
msg	9210
mss	9211
ngaw	9212
kkmb	9213
hnw	9214
umpal	9215
ttal	9216
agos	9217
tmc	9218
annon	9219
holm	9220
euf	9221
veen	9222
gluk	9223
pdtt	9224
##zyn	9225
uoev	9226
arbor	9227
tzu	9228
nriq	9229
cimb	9230
erint	9231
lzhei	9232
mplop	9233
3x	9234
5k	9235
aung	9236
aeo	9237
auran	9238
cra	9239
dlu	9240
firi	9241
hne	9242
iñ	9243
ihi	9244
jj	9245
kv	9246
kuli	9247
mx	9248
oah	9249
oun	9250
oap	9251
oud	9252
oxy	9253
p2	9254
png	9255
rly	9256
rade	9257
sbn	9258
ving	9259
wono	9260
wyn	9261
yf	9262
yt	9263
yz	9264
zza	9265
##dj	9266
##du	9267
##vy	9268
##ls	9269
##war	9270
##qa	9271
anne	9272
anley	9273
sean	9274
sehi	9275
pew	9276
pear	9277
undak	9278
terh	9279
ngana	9280
ersia	9281
erpa	9282
artu	9283
araga	9284
angor	9285
aler	9286
alina	9287
env	9288
enit	9289
ench	9290
adb	9291
adya	9292
penan	9293
ahb	9294
apek	9295
apot	9296
ntr	9297
ntam	9298
oron	9299
emena	9300
ushu	9301
umrah	9302
jug	9303
reo	9304
ukee	9305
ilas	9306
ilul	9307
idih	9308
idji	9309
imus	9310
stine	9311
deal	9312
ngger	9313
oks	9314
kuas	9315
kuza	9316
egon	9317
omar	9318
rbie	9319
loan	9320
uban	9321
esai	9322
essa	9323
ebt	9324
dison	9325
suu	9326
turi	9327
rsya	9328
dps	9329
hoh	9330
hock	9331
mulat	9332
mulya	9333
litas	9334
ips	9335
woong	9336
yaz	9337
ptt	9338
spm	9339
elabu	9340
skm	9341
sumed	9342
101	9343
107	9344
alius	9345
mice	9346
anaje	9347
ship	9348
pbvsi	9349
eci	9350
trict	9351
oth	9352
klumi	9353
gema	9354
pkp	9355
goa	9356
goh	9357
ige	9358
brt	9359
inois	9360
ombok	9361
golak	9362
embel	9363
pelni	9364
tpdi	9365
eley	9366
matir	9367
117	9368
plas	9369
plrt	9370
142	9371
132	9372
iapan	9373
ganas	9374
aving	9375
210	9376
smaya	9377
eneg	9378
ouin	9379
ensit	9380
garut	9381
mcg	9382
ssur	9383
ouri	9384
iht	9385
ccs	9386
kmil	9387
imaj	9388
lair	9389
romat	9390
ungag	9391
mpau	9392
rigan	9393
awipa	9394
tbrc	9395
kopol	9396
imic	9397
ackup	9398
like	9399
rief	9400
asino	9401
hrur	9402
tmoko	9403
trop	9404
sito	9405
bukit	9406
dorf	9407
dkm	9408
ghurt	9409
bjp	9410
steo	9411
zec	9412
ovem	9413
bird	9414
imula	9415
firma	9416
gsp	9417
pskc	9418
nrang	9419
dtw	9420
asbor	9421
ycko	9422
peech	9423
kilau	9424
megah	9425
aedar	9426
%,	9427
bfi	9428
dab	9429
eud	9430
fé	9431
fda	9432
gika	9433
lq	9434
lre	9435
lry	9436
mti	9437
nha	9438
oca	9439
pgr	9440
q2	9441
qat	9442
sani	9443
tki	9444
vw	9445
wam	9446
xon	9447
yeh	9448
##lb	9449
##lit	9450
##ble	9451
##kb	9452
##xe	9453
keda	9454
inna	9455
berik	9456
erap	9457
kowi	9458
akd	9459
enom	9460
itul	9461
itudo	9462
apto	9463
atbot	9464
emok	9465
indhu	9466
mple	9467
elor	9468
elman	9469
riv	9470
usb	9471
umla	9472
ukk	9473
ilon	9474
nawa	9475
roc	9476
roup	9477
roid	9478
lick	9479
lipi	9480
utik	9481
dela	9482
##tol	9483
rach	9484
trol	9485
egy	9486
edor	9487
udori	9488
buck	9489
rbasi	9490
upit	9491
hase	9492
paw	9493
acka	9494
nopo	9495
uby	9496
dawu	9497
espo	9498
gunan	9499
patut	9500
chp	9501
topo	9502
ict	9503
icon	9504
suria	9505
rscm	9506
hukr	9507
insen	9508
ppj	9509
ppy	9510
yafi	9511
dob	9512
doolo	9513
rikil	9514
khta	9515
inago	9516
sakan	9517
mipc	9518
fiz	9519
rind	9520
hef	9521
hedi	9522
otin	9523
other	9524
ejit	9525
127	9526
uate	9527
brat	9528
elod	9529
ombe	9530
eriod	9531
ndaan	9532
tpl	9533
pest	9534
bbw	9535
avy	9536
tumo	9537
oder	9538
odol	9539
230	9540
sco	9541
280	9542
fifg	9543
kbs	9544
umio	9545
zaen	9546
ihc	9547
rizon	9548
ersen	9549
ainya	9550
mdal	9551
uwm	9552
tvs	9553
print	9554
grid	9555
jungp	9556
outt	9557
rris	9558
oyong	9559
raba	9560
knai	9561
mrp	9562
lvi	9563
city	9564
ubug	9565
mpuan	9566
ssis	9567
said	9568
glas	9569
gym	9570
pcx	9571
atmod	9572
seig	9573
ofian	9574
lanie	9575
bhik	9576
nemia	9577
lavon	9578
broto	9579
cgv	9580
sched	9581
jime	9582
ettha	9583
hudan	9584
lpduk	9585
gnos	9586
spsl	9587
iady	9588
lavio	9589
knkt	9590
hneid	9591
qatar	9592
aek	9593
aisi	9594
bhum	9595
dg	9596
dter	9597
dono	9598
eur	9599
geri	9600
gkp	9601
hek	9602
iai	9603
jdi	9604
kbp	9605
kzul	9606
lga	9607
mman	9608
nasa	9609
oedy	9610
phi	9611
puro	9612
rka	9613
rfie	9614
sdi	9615
song	9616
thir	9617
wj	9618
wer	9619
wzi	9620
zzi	9621
##nd	9622
##den	9623
##lp	9624
##ger	9625
##gur	9626
##gra	9627
anua	9628
inp	9629
##ink	9630
peb	9631
##ill	9632
erih	9633
erth	9634
teg	9635
akk	9636
argas	9637
arge	9638
##ume	9639
enik	9640
enur	9641
baz	9642
bage	9643
mbire	9644
##tih	9645
init	9646
inix	9647
ador	9648
adoma	9649
olf	9650
olor	9651
lac	9652
pria	9653
sima	9654
ishi	9655
asum	9656
ndul	9657
##gie	9658
atil	9659
atel	9660
emai	9661
mph	9662
mpek	9663
##ibi	9664
uke	9665
ukik	9666
urrah	9667
iles	9668
ikd	9669
ikw	9670
beg	9671
roch	9672
onna	9673
mage	9674
life	9675
abyan	9676
desi	9677
okh	9678
trok	9679
oment	9680
irad	9681
caraz	9682
haq	9683
hawa	9684
losi	9685
loyo	9686
ambur	9687
ubel	9688
estor	9689
andek	9690
bod	9691
gaik	9692
halat	9693
chuse	9694
tos	9695
marah	9696
soe	9697
rsha	9698
nyu	9699
dpup	9700
afal	9701
ibr	9702
ibit	9703
mulih	9704
emaju	9705
skt	9706
ongr	9707
anci	9708
siapk	9709
cod	9710
ompi	9711
cef	9712
nst	9713
##lot	9714
caust	9715
ntuah	9716
risud	9717
risto	9718
nate	9719
202	9720
izar	9721
izka	9722
jarm	9723
sona	9724
godo	9725
ofwan	9726
ofob	9727
endap	9728
156	9729
157	9730
arez	9731
ronto	9732
rasan	9733
erken	9734
antos	9735
catl	9736
oedi	9737
rchi	9738
plta	9739
plbn	9740
144	9741
sell	9742
dici	9743
libli	9744
lusin	9745
ourse	9746
lissa	9747
ldren	9748
rizal	9749
lone	9750
usei	9751
acker	9752
lld	9753
llan	9754
thius	9755
rayu	9756
hino	9757
sbane	9758
stop	9759
rlina	9760
seger	9761
ntern	9762
550	9763
nafas	9764
waid	9765
azaar	9766
uite	9767
colm	9768
eeren	9769
arbol	9770
sjh	9771
csis	9772
rough	9773
upnv	9774
bptd	9775
alsaf	9776
ppatk	9777
3x3	9778
bhumi	9779
3r	9780
4g	9781
5x	9782
bla	9783
bmi	9784
cess	9785
ftar	9786
fpi	9787
fgh	9788
ggi	9789
gati	9790
gho	9791
ipk	9792
kari	9793
kud	9794
kwan	9795
kmi	9796
liki	9797
lfe	9798
mya	9799
maya	9800
mhu	9801
p3	9802
pni	9803
pli	9804
q1	9805
xvi	9806
yla	9807
ypa	9808
zen	9809
zis	9810
##sr	9811
##hd	9812
aning	9813
dien	9814
sef	9815
erung	9816
erde	9817
perj	9818
koma	9819
arp	9820
arsi	9821
alut	9822
alom	9823
##isa	9824
sao	9825
ammi	9826
olin	9827
siba	9828
ndc	9829
oraya	9830
aton	9831
eler	9832
lea	9833
ushi	9834
urka	9835
itta	9836
iken	9837
ikri	9838
bev	9839
beti	9840
idn	9841
onkey	9842
ekl	9843
ekap	9844
jaz	9845
asim	9846
agor	9847
agra	9848
hart	9849
liv	9850
lien	9851
abet	9852
utton	9853
stom	9854
dewi	9855
nggan	9856
banj	9857
ampan	9858
ulur	9859
belo	9860
##eth	9861
udo	9862
oms	9863
omas	9864
irs	9865
minto	9866
hanna	9867
hav	9868
nopi	9869
ubasi	9870
daun	9871
moot	9872
boel	9873
bock	9874
gacy	9875
kelo	9876
topa	9877
etri	9878
mars	9879
lande	9880
hoe	9881
hof	9882
niti	9883
gigi	9884
ible	9885
isil	9886
pping	9887
ranat	9888
rdin	9889
thal	9890
jeli	9891
rapbn	9892
mian	9893
evri	9894
bentu	9895
rahim	9896
fied	9897
lake	9898
mami	9899
##dog	9900
otk	9901
klm	9902
izza	9903
123	9904
jeon	9905
mater	9906
hito	9907
idow	9908
base	9909
111	9910
119	9911
116	9912
141	9913
249	9914
171	9915
175	9916
odz	9917
buni	9918
phr	9919
225	9920
220	9921
adui	9922
agrak	9923
ezer	9924
ourne	9925
listr	9926
ldp	9927
hile	9928
hili	9929
roket	9930
esit	9931
ersan	9932
quad	9933
mdani	9934
dulf	9935
acau	9936
ampub	9937
pdp	9938
llaz	9939
grib	9940
weet	9941
racy	9942
mayu	9943
fles	9944
rry	9945
hyd	9946
sink	9947
tton	9948
cants	9949
core	9950
talo	9951
goron	9952
egawa	9953
majal	9954
pect	9955
nner	9956
pink	9957
eaty	9958
avier	9959
biru	9960
erjal	9961
cash	9962
rliah	9963
guay	9964
poks	9965
ussel	9966
djie	9967
ergen	9968
thout	9969
ozak	9970
xviii	9971
skop	9972
rogoh	9973
jcb	9974
isbat	9975
oepar	9976
iadab	9977
eudr	9978
pgris	9979
rocus	9980
aura	9981
bdo	9982
eq	9983
eong	9984
f1	9985
fter	9986
fiba	9987
gd	9988
gok	9989
hkp	9990
iha	9991
lup	9992
lka	9993
lza	9994
m6	9995
mjo	9996
niki	9997
nre	9998
oen	9999
oya	10000
uong	10001
ugr	10002
wap	10003
wel	10004
wung	10005
yy	10006
yre	10007
ydi	10008
yoko	10009
zali	10010
zman	10011
##aw	10012
##nik	10013
##ux	10014
##uan	10015
##pl	10016
##sg	10017
##qis	10018
##xi	10019
anang	10020
anung	10021
pevs	10022
unw	10023
tereo	10024
ngur	10025
ngih	10026
ngton	10027
erom	10028
erca	10029
tei	10030
tiak	10031
arse	10032
arter	10033
arwi	10034
aluh	10035
alaba	10036
enuk	10037
enir	10038
##ise	10039
mbore	10040
sawa	10041
amh	10042
amto	10043
laud	10044
neh	10045
aps	10046
siak	10047
isda	10048
ndis	10049
emli	10050
elma	10051
ungun	10052
jui	10053
reet	10054
urad	10055
ilad	10056
iling	10057
ilda	10058
itti	10059
itro	10060
itler	10061
ikuk	10062
rois	10063
role	10064
idx	10065
imoni	10066
antv	10067
abh	10068
abal	10069
utter	10070
awin	10071
kaj	10072
try	10073
trah	10074
##sem	10075
edup	10076
udere	10077
rbot	10078
hanti	10079
milk	10080
seno	10081
iano	10082
ubhan	10083
ruck	10084
esek	10085
eszyn	10086
book	10087
tany	10088
totip	10089
anjil	10090
icka	10091
etf	10092
hoot	10093
host	10094
ario	10095
nier	10096
nisia	10097
giv	10098
ibn	10099
ibas	10100
ksop	10101
eput	10102
young	10103
sphp	10104
hiev	10105
rdon	10106
henz	10107
10k	10108
aliq	10109
osp	10110
nshar	10111
lesti	10112
rammy	10113
aitih	10114
ivo	10115
ejer	10116
128	10117
122	10118
azec	10119
exus	10120
gito	10121
158	10122
152	10123
krip	10124
erio	10125
rast	10126
165	10127
168	10128
147	10129
kate	10130
pulan	10131
184	10132
188	10133
rili	10134
loss	10135
ensy	10136
196	10137
oop	10138
deres	10139
mundo	10140
ihoe	10141
kpj	10142
315	10143
silo	10144
mirul	10145
rome	10146
logad	10147
omez	10148
kulin	10149
ladk	10150
empas	10151
src	10152
tutik	10153
ween	10154
racik	10155
ijik	10156
oyang	10157
mrs	10158
cipt	10159
hell	10160
driq	10161
erban	10162
egap	10163
kspsi	10164
mukom	10165
yimm	10166
atmo	10167
siant	10168
alkon	10169
yudhi	10170
aish	10171
nmas	10172
almer	10173
doni	10174
yper	10175
rowd	10176
oxa	10177
ecker	10178
ield	10179
essee	10180
malia	10181
hudo	10182
rjiyo	10183
cracy	10184
),	10185
2nd	10186
aam	10187
aila	10188
bmp	10189
cila	10190
dadi	10191
eap	10192
eand	10193
fki	10194
ftui	10195
glu	10196
gnis	10197
ghi	10198
hg	10199
hed	10200
igo	10201
jb	10202
jom	10203
lada	10204
lsa	10205
mra	10206
msa	10207
npk	10208
oali	10209
pf	10210
rha	10211
rhi	10212
rfa	10213
sq	10214
sbp	10215
uer	10216
wg	10217
yuli	10218
zar	10219
zel	10220
zii	10221
##eb	10222
##io	10223
##gak	10224
##kn	10225
##son	10226
##wp	10227
##ou	10228
##oi	10229
anuk	10230
sex	10231
seas	10232
inny	10233
unti	10234
tero	10235
ngil	10236
erzo	10237
teta	10238
teka	10239
tiup	10240
##uth	10241
kow	10242
akus	10243
arong	10244
arwo	10245
arfa	10246
ango	10247
aled	10248
enin	10249
amki	10250
adma	10251
ahak	10252
olus	10253
apji	10254
nty	10255
ntok	10256
atno	10257
indar	10258
elter	10259
leung	10260
leans	10261
lect	10262
ridi	10263
rica	10264
rice	10265
riaki	10266
umr	10267
umo	10268
rez	10269
urent	10270
ilsa	10271
iland	10272
itty	10273
ikp	10274
ikam	10275
ikis	10276
idam	10277
iddy	10278
onga	10279
eking	10280
abus	10281
barak	10282
bargo	10283
tuah	10284
rakah	10285
bani	10286
ravo	10287
kub	10288
kuta	10289
uln	10290
ulgar	10291
kao	10292
kaan	10293
ione	10294
lues	10295
edd	10296
udu	10297
bui	10298
hanas	10299
pafi	10300
manj	10301
many	10302
engal	10303
loor	10304
loon	10305
ayen	10306
noh	10307
ubk	10308
moz	10309
kelar	10310
chin	10311
chol	10312
rumit	10313
rtlh	10314
dipr	10315
tour	10316
anjen	10317
guo	10318
sour	10319
rsus	10320
opol	10321
lano	10322
hoon	10323
bian	10324
gie	10325
rp4	10326
tena	10327
ksap	10328
ppt	10329
uhc	10330
epik	10331
epper	10332
ptm	10333
poll	10334
reme	10335
spin	10336
undul	10337
wafa	10338
hig	10339
hiya	10340
emaj	10341
stac	10342
rkhan	10343
rdy	10344
nango	10345
thur	10346
ratin	10347
109	10348
migra	10349
benda	10350
ecut	10351
sanf	10352
risw	10353
risai	10354
akula	10355
jict	10356
izan	10357
manga	10358
onsum	10359
theid	10360
gow	10361
gojo	10362
endat	10363
daru	10364
pic	10365
brata	10366
denas	10367
ausal	10368
imbo	10369
buri	10370
tpr	10371
hitna	10372
watch	10373
plb	10374
145	10375
148	10376
urij	10377
bbi	10378
estin	10379
137	10380
auw	10381
deli	10382
avc	10383
avai	10384
encur	10385
ocha	10386
slih	10387
tarn	10388
ssen	10389
sshi	10390
ponik	10391
kpts	10392
310	10393
aikat	10394
arden	10395
srif	10396
erlan	10397
uez	10398
esik	10399
stiga	10400
oldp	10401
urag	10402
mdr	10403
ugh	10404
lunto	10405
taff	10406
tino	10407
morim	10408
lfia	10409
mbodo	10410
ktb	10411
riger	10412
aeto	10413
mprs	10414
ricia	10415
luhu	10416
riyah	10417
ibiz	10418
onore	10419
dlib	10420
ttp	10421
amie	10422
lvin	10423
abay	10424
stock	10425
363	10426
ylki	10427
acio	10428
414	10429
olei	10430
ddle	10431
gmt	10432
ippol	10433
hsc	10434
ogie	10435
mfibi	10436
elvia	10437
uoh	10438
rrod	10439
rpjmn	10440
mroh	10441
liech	10442
bodas	10443
fghn	10444
plier	10445
ngihe	10446
bib	10447
bmad	10448
c3	10449
cne	10450
cire	10451
dho	10452
eul	10453
ful	10454
gbn	10455
hc	10456
hes	10457
hres	10458
hyo	10459
hraf	10460
iip	10461
jeng	10462
jit	10463
ktu	10464
lmi	10465
nalu	10466
oar	10467
ptik	10468
pwf	10469
sv	10470
skan	10471
siri	10472
sle	10473
tti	10474
tmp	10475
uand	10476
uire	10477
vf	10478
wl	10479
wbk	10480
ygh	10481
ydog	10482
élam	10483
##eu	10484
##fu	10485
##ier	10486
##gan	10487
##cp	10488
##zes	10489
##ía	10490
anul	10491
##ale	10492
##aks	10493
meal	10494
metr	10495
unes	10496
undi	10497
berla	10498
nyap	10499
ergai	10500
tea	10501
tit	10502
tida	10503
tick	10504
arih	10505
arber	10506
alv	10507
enjar	10508
enses	10509
enne	10510
baf	10511
mbes	10512
mbkm	10513
saba	10514
inir	10515
inier	10516
amr	10517
amas	10518
adr	10519
ahin	10520
olla	10521
laus	10522
sipa	10523
isya	10524
asri	10525
nth	10526
taji	10527
ndaya	10528
emdi	10529
mpin	10530
elup	10531
leaks	10532
usna	10533
umj	10534
umy	10535
umbo	10536
urup	10537
urva	10538
ilfe	10539
taker	10540
itter	10541
rotai	10542
roth	10543
ekad	10544
imas	10545
imena	10546
maan	10547
lix	10548
live	10549
ablo	10550
abmm	10551
proof	10552
rax	10553
rail	10554
edri	10555
gris	10556
udz	10557
buar	10558
rbut	10559
mino	10560
upz	10561
acah	10562
engdu	10563
hagen	10564
lop	10565
nos	10566
ubm	10567
ubin	10568
namu	10569
rui	10570
pass	10571
andy	10572
gund	10573
tanj	10574
##nie	10575
suji	10576
rtho	10577
icar	10578
icmi	10579
soh	10580
nyah	10581
hoho	10582
pandi	10583
huff	10584
biano	10585
kron	10586
butan	10587
inson	10588
ibub	10589
ranj	10590
ranch	10591
epala	10592
yogo	10593
ucla	10594
spt	10595
hiera	10596
stag	10597
##lic	10598
ford	10599
skf	10600
rdw	10601
then	10602
thes	10603
think	10604
ceuti	10605
merta	10606
duta	10607
torsi	10608
shu	10609
jambe	10610
head	10611
juna	10612
atio	10613
##pos	10614
204	10615
iving	10616
puter	10617
pkd	10618
124	10619
bume	10620
gos	10621
goes	10622
gogo	10623
drh	10624
olaa	10625
bury	10626
uluak	10627
oegi	10628
sdam	10629
bbn	10630
bbri	10631
bbnk	10632
131	10633
track	10634
swin	10635
193	10636
incah	10637
occ	10638
etua	10639
djki	10640
nonoh	10641
ansat	10642
anoe	10643
enemu	10644
uzz	10645
uzier	10646
ouf	10647
ezone	10648
ckb	10649
ihadi	10650
ihha	10651
ihite	10652
irobi	10653
rizka	10654
ntip	10655
stie	10656
stige	10657
miro	10658
eiga	10659
quid	10660
luni	10661
blbi	10662
dihad	10663
ngag	10664
pdri	10665
medis	10666
mayam	10667
edev	10668
rvel	10669
ulian	10670
##cof	10671
apora	10672
essy	10673
365	10674
ipef	10675
leton	10676
yson	10677
gore	10678
majt	10679
snbp	10680
snbt	10681
ksau	10682
leep	10683
ismis	10684
nnah	10685
ootc	10686
uilt	10687
khuw	10688
ddy	10689
kds	10690
gtk	10691
hora	10692
hore	10693
kraj	10694
ggak	10695
eslaw	10696
hsse	10697
joki	10698
fsb	10699
ygk	10700
msig	10701
vili	10702
opec	10703
##bbm	10704
weig	10705
eidy	10706
oche	10707
sgm	10708
publi	10709
shall	10710
alitt	10711
pdrb	10712
bptj	10713
yria	10714
uttg	10715
mmsgi	10716
enbin	10717
fyp	10718
bbws	10719
input	10720
pebti	10721
sibau	10722
ugrah	10723
juice	10724
jomb	10725
hresh	10726
yghur	10727
bbnkb	10728
3m	10729
auka	10730
auru	10731
bv	10732
b6	10733
bco	10734
cid	10735
dtp	10736
etai	10737
eine	10738
eith	10739
gmp	10740
gpi	10741
gdp	10742
goki	10743
hik	10744
heh	10745
haim	10746
iut	10747
iab	10748
isia	10749
iwo	10750
kuda	10751
lha	10752
llu	10753
lct	10754
lwin	10755
mik	10756
mita	10757
nw	10758
ntur	10759
nno	10760
oze	10761
pama	10762
pter	10763
pge	10764
rle	10765
rru	10766
sz	10767
uun	10768
uge	10769
vpn	10770
wbbm	10771
ysi	10772
yia	10773
zil	10774
##af	10775
##jat	10776
##jah	10777
##net	10778
##uf	10779
##sc	10780
##hor	10781
##min	10782
##met	10783
##ow	10784
##án	10785
anh	10786
anur	10787
anri	10788
anok	10789
anza	10790
##ero	10791
mek	10792
tere	10793
ngada	10794
nghu	10795
erena	10796
erco	10797
tii	10798
aking	10799
akua	10800
argi	10801
armen	10802
arro	10803
alib	10804
alot	10805
enus	10806
sag	10807
safe	10808
adm	10809
adur	10810
ades	10811
adri	10812
adol	10813
lace	10814
siv	10815
six	10816
ndx	10817
ndhi	10818
em1	10819
emul	10820
elim	10821
elina	10822
elho	10823
umm	10824
ukse	10825
uket	10826
urch	10827
inggo	10828
ilf	10829
ilya	10830
rota	10831
rooy	10832
idya	10833
idil	10834
onk	10835
imber	10836
intro	10837
liy	10838
utho	10839
stm	10840
awn	10841
aww	10842
ampi	10843
ncip	10844
##ido	10845
luch	10846
grand	10847
haria	10848
rbi	10849
rbt	10850
mint	10851
hann	10852
uppe	10853
acha	10854
haul	10855
ayam	10856
ubway	10857
dafi	10858
moo	10859
bou	10860
bout	10861
chen	10862
chlis	10863
suc	10864
sucof	10865
dipta	10866
tob	10867
opy	10868
agic	10869
nym	10870
giz	10871
ipt	10872
ipzi	10873
ksb	10874
ksk	10875
ppid	10876
randa	10877
epro	10878
porta	10879
irip	10880
elaya	10881
nfor	10882
janur	10883
hier	10884
hift	10885
istel	10886
unca	10887
dod	10888
thm	10889
olos	10890
inau	10891
sakih	10892
ajul	10893
osé	10894
mien	10895
anaa	10896
lakat	10897
shah	10898
shing	10899
sandi	10900
heat	10901
atir	10902
renzo	10903
ots	10904
klin	10905
ramew	10906
nalo	10907
aig	10908
nitro	10909
pkw	10910
balo	10911
gola	10912
ofik	10913
bide	10914
igni	10915
uav	10916
asaw	10917
royom	10918
arate	10919
sipp	10920
ndail	10921
riff	10922
162	10923
167	10924
emooh	10925
kyi	10926
eston	10927
181	10928
187	10929
241	10930
172	10931
iyat	10932
odok	10933
274	10934
phu	10935
limo	10936
sms	10937
263	10938
uzzer	10939
oof	10940
ouza	10941
grobo	10942
enyi	10943
enyan	10944
ernia	10945
hild	10946
lumat	10947
erakh	10948
ftv	10949
urau	10950
eig	10951
lpi	10952
lpsi	10953
lppm	10954
graf	10955
icket	10956
ergio	10957
ierra	10958
trec	10959
elldy	10960
emper	10961
awac	10962
bsy	10963
riple	10964
acky	10965
rosh	10966
ondet	10967
srin	10968
weyan	10969
nesa	10970
hrw	10971
rmand	10972
btt	10973
aidi	10974
umpun	10975
yeon	10976
eino	10977
iasan	10978
estiv	10979
oraes	10980
rling	10981
akem	10982
330	10983
witz	10984
zee	10985
mpion	10986
uill	10987
eath	10988
intip	10989
hpl	10990
aldy	10991
gkok	10992
nafik	10993
mtama	10994
offs	10995
robol	10996
pcs	10997
okies	10998
hss	10999
gsn	11000
gsel	11001
buyu	11002
mriel	11003
ncoln	11004
jiep	11005
yrik	11006
iwip	11007
911	11008
julo	11009
skins	11010
unnel	11011
osmos	11012
aetz	11013
iagno	11014
wtf	11015
phosa	11016
b2b	11017
fkppi	11018
rozen	11019
ispan	11020
tegor	11021
ghout	11022
arwij	11023
erzog	11024
ipzig	11025
aab	11026
ave	11027
cj	11028
cbs	11029
dada	11030
eib	11031
fal	11032
ghe	11033
hia	11034
hika	11035
hni	11036
iin	11037
kadi	11038
lr	11039
lpa	11040
llon	11041
mko	11042
mvp	11043
nbc	11044
oan	11045
palu	11046
pke	11047
pno	11048
rfi	11049
sali	11050
td	11051
uak	11052
vu	11053
vl	11054
vana	11055
yin	11056
yeo	11057
##nc	11058
##fy	11059
##tn	11060
##pad	11061
##pro	11062
##lia	11063
##let	11064
##bre	11065
##we	11066
##ham	11067
##rk	11068
##ris	11069
##mt	11070
##mar	11071
##oo	11072
##xt	11073
diq	11074
sevp	11075
inil	11076
##gau	11077
bero	11078
nyai	11079
erra	11080
ersa	11081
titi	11082
perit	11083
kori	11084
arve	11085
arly	11086
arso	11087
arfi	11088
anget	11089
aleng	11090
algo	11091
##umy	11092
enh	11093
enzi	11094
baur	11095
mbeng	11096
mbudi	11097
amg	11098
olek	11099
laok	11100
laji	11101
lack	11102
##iro	11103
siar	11104
simen	11105
isr	11106
isuke	11107
tage	11108
ndin	11109
oras	11110
orun	11111
orata	11112
ordin	11113
mpuk	11114
mperi	11115
mpton	11116
elza	11117
ledo	11118
rige	11119
usuk	11120
umbuh	11121
rej	11122
regat	11123
reth	11124
reund	11125
ukin	11126
urel	11127
urma	11128
iluk	11129
ilqis	11130
beure	11131
roud	11132
rove	11133
idr	11134
idy	11135
idm	11136
ekom	11137
ekoki	11138
imah	11139
imila	11140
anton	11141
asif	11142
maz	11143
mack	11144
pool	11145
aging	11146
agina	11147
lied	11148
abha	11149
utji	11150
ature	11151
##day	11152
profe	11153
tug	11154
dewo	11155
okp	11156
oket	11157
oklit	11158
raini	11159
ulen	11160
ulung	11161
belia	11162
leba	11163
edjo	11164
omet	11165
wart	11166
irit	11167
ired	11168
acle	11169
ength	11170
haji	11171
ayk	11172
ambuh	11173
ubble	11174
namon	11175
ruak	11176
mow	11177
eseh	11178
anden	11179
andit	11180
gae	11181
patuh	11182
toc	11183
icrc	11184
guw	11185
surve	11186
rsul	11187
ophi	11188
ophia	11189
lanka	11190
laney	11191
nye	11192
afia	11193
juma	11194
biot	11195
kitab	11196
aira	11197
resno	11198
ibc	11199
ipc	11200
pper	11201
uhe	11202
yov	11203
spf	11204
undy	11205
skw	11206
rdik	11207
obbi	11208
thn	11209
thl	11210
thuan	11211
oloy	11212
cos	11213
ifg	11214
ifad	11215
saks	11216
ajwa	11217
rape	11218
osn	11219
wand	11220
fiet	11221
joa	11222
santr	11223
klas	11224
risye	11225
pso	11226
balt	11227
simis	11228
darus	11229
308	11230
ious	11231
eleid	11232
matan	11233
163	11234
watil	11235
miten	11236
bbk	11237
enerb	11238
251	11239
138	11240
136	11241
oged	11242
rhs	11243
bkh	11244
odh	11245
odor	11246
226	11247
rjin	11248
smo	11249
smar	11250
smoro	11251
raff	11252
madya	11253
kban	11254
ieq	11255
lms	11256
lmer	11257
kppb	11258
iroj	11259
aikal	11260
duri	11261
luman	11262
uthor	11263
imao	11264
pekal	11265
tomi	11266
onev	11267
ailey	11268
etos	11269
tvri	11270
grafi	11271
olic	11272
dhl	11273
dhil	11274
moral	11275
ache	11276
achet	11277
akral	11278
kors	11279
tadio	11280
gress	11281
rosur	11282
kkin	11283
sraya	11284
mont	11285
dnc	11286
radl	11287
ijk	11288
bile	11289
ulaw	11290
umph	11291
ndouw	11292
getah	11293
condo	11294
lspr	11295
sbt	11296
sbat	11297
368	11298
annah	11299
dct	11300
truck	11301
snan	11302
meton	11303
saida	11304
awatr	11305
anusa	11306
dzik	11307
ismik	11308
mln	11309
370	11310
wito	11311
aheel	11312
purwo	11313
ocker	11314
gkr	11315
uites	11316
hlet	11317
ofiah	11318
ussen	11319
yidi	11320
elpon	11321
850	11322
bhs	11323
cikar	11324
iels	11325
jppi	11326
foni	11327
gwm	11328
pphn	11329
rpjmd	11330
eidoi	11331
ariej	11332
bbpom	11333
entot	11334
zzat	11335
yafar	11336
writ	11337
isyal	11338
bwe	11339
rray	11340
zrumy	11341
hzhia	11342
tpks	11343
nnida	11344
xav	11345
rinkl	11346
ikwik	11347
dpupr	11348
ledoi	11349
bati	11350
ced	11351
d4	11352
dasa	11353
dni	11354
dudi	11355
eya	11356
eum	11357
eok	11358
eaga	11359
eone	11360
fb	11361
fta	11362
fira	11363
gf	11364
geng	11365
gma	11366
gli	11367
gami	11368
gbi	11369
hita	11370
hki	11371
hlo	11372
hori	11373
iera	11374
iori	11375
juh	11376
jed	11377
kkan	11378
kdi	11379
lua	11380
lcr	11381
mori	11382
nly	11383
pum	11384
ppns	11385
pfa	11386
pcc	11387
qd	11388
rx	11389
spn	11390
sbu	11391
sbs	11392
tgb	11393
uen	11394
uib	11395
wy	11396
wim	11397
yul	11398
yhur	11399
zl	11400
zer	11401
zaki	11402
##jm	11403
##ful	11404
##tt	11405
##lv	11406
##ben	11407
##wid	11408
##cl	11409
##con	11410
##ram	11411
##ál	11412
annis	11413
##enb	11414
##enz	11415
diw	11416
seko	11417
inch	11418
pean	11419
unra	11420
teb	11421
tiya	11422
perk	11423
koar	11424
kouw	11425
akpo	11426
aral	11427
arad	11428
arla	11429
arud	11430
argo	11431
arol	11432
aroki	11433
aliri	11434
altim	11435
entor	11436
enver	11437
baung	11438
##ort	11439
saud	11440
iniar	11441
amt	11442
amk	11443
amet	11444
adha	11445
ahara	11446
ahte	11447
laa	11448
nec	11449
near	11450
neak	11451
neko	11452
prud	11453
apen	11454
apet	11455
appi	11456
sibu	11457
asda	11458
mash	11459
tach	11460
ndong	11461
orak	11462
orila	11463
ngkan	11464
emit	11465
inden	11466
mpias	11467
elut	11468
elet	11469
ellar	11470
leun	11471
ussia	11472
juya	11473
karu	11474
redo	11475
uken	11476
urri	11477
inger	11478
ilika	11479
takim	11480
bema	11481
rock	11482
idc	11483
onni	11484
ekh	11485
ekraf	11486
iming	11487
agon	11488
bahar	11489
inten	11490
abul	11491
utnik	11492
nggas	11493
okha	11494
kuala	11495
ulp	11496
uldo	11497
ulyo	11498
ulbi	11499
ulfi	11500
ulye	11501
trs	11502
trat	11503
trap	11504
trai	11505
ncs	11506
nclos	11507
egak	11508
egoro	11509
luck	11510
udlo	11511
omc	11512
ompu	11513
iry	11514
irine	11515
rbs	11516
rbin	11517
hanom	11518
upta	11519
manta	11520
mandi	11521
ianty	11522
hag	11523
lowa	11524
lopo	11525
noi	11526
ubit	11527
ublin	11528
dac	11529
ruy	11530
ruce	11531
mouth	11532
bow	11533
bour	11534
gail	11535
impah	11536
etch	11537
opt	11538
afadi	11539
hos	11540
hoen	11541
hoco	11542
hood	11543
arium	11544
huw	11545
aird	11546
nick	11547
rango	11548
rp6	11549
rphy	11550
ibil	11551
ibba	11552
ipol	11553
ippi	11554
butr	11555
pakad	11556
ppor	11557
ppre	11558
kapar	11559
folu	11560
spia	11561
undut	11562
rdjo	11563
dosis	11564
thp	11565
linda	11566
ifai	11567
mery	11568
kic	11569
hakes	11570
due	11571
osco	11572
nsong	11573
mijah	11574
naruk	11575
satwa	11576
trie	11577
heon	11578
hech	11579
hebre	11580
renb	11581
klt	11582
klit	11583
risbi	11584
risau	11585
aion	11586
fao	11587
raig	11588
psp	11589
geb	11590
getol	11591
ayap	11592
129	11593
azz	11594
azada	11595
god	11596
endy	11597
endon	11598
uaj	11599
utia	11600
bram	11601
151	11602
153	11603
154	11604
aree	11605
arey	11606
ndau	11607
arth	11608
rasuk	11609
tpid	11610
nora	11611
118	11612
plus	11613
143	11614
146	11615
urie	11616
nike	11617
kype	11618
iray	11619
alahi	11620
rhu	11621
ryu	11622
ileen	11623
odom	11624
phev	11625
191	11626
199	11627
gawe	11628
212	11629
pike	11630
lukat	11631
rtia	11632
onth	11633
ontek	11634
cub	11635
ouw	11636
emic	11637
mahu	11638
gard	11639
garet	11640
sson	11641
kbm	11642
kbo	11643
ragh	11644
lmo	11645
rizzy	11646
umsp	11647
umsk	11648
ewon	11649
erep	11650
erez	11651
eremp	11652
eice	11653
eset	11654
samin	11655
tinus	11656
eev	11657
bairi	11658
story	11659
aeed	11660
msc	11661
kormi	11662
eav	11663
uksit	11664
pdf	11665
kopin	11666
gria	11667
srenb	11668
ruly	11669
umbai	11670
hram	11671
bndc	11672
urns	11673
daraw	11674
359	11675
ijj	11676
btc	11677
rrut	11678
ojon	11679
nhk	11680
rabia	11681
sinki	11682
nzál	11683
329	11684
320	11685
tmd	11686
kejad	11687
lsn	11688
murth	11689
pltb	11690
gembo	11691
gisb	11692
athum	11693
pmo	11694
dzir	11695
aode	11696
fuel	11697
crv	11698
378	11699
uppli	11700
wist	11701
gahan	11702
ocket	11703
jls	11704
jlm	11705
430	11706
ynn	11707
arrc	11708
npwp	11709
dptb	11710
kidi	11711
jks	11712
aufan	11713
kcp	11714
arner	11715
almon	11716
760	11717
aurus	11718
mfp	11719
eltje	11720
fsgi	11721
wfo	11722
lavor	11723
tppas	11724
ajeg	11725
yrgy	11726
gnez	11727
ceanx	11728
ildan	11729
rchit	11730
dhiah	11731
ptiq	11732
oksik	11733
wrp	11734
losed	11735
bimp	11736
yesus	11737
ulfur	11738
razia	11739
oedj	11740
gpaa	11741
noaa	11742
worth	11743
iño	11744
wonos	11745
peare	11746
hohib	11747
hkpd	11748
llux	11749
1b	11750
aah	11751
aap	11752
aolo	11753
beng	11754
biri	11755
cai	11756
cib	11757
dlin	11758
eing	11759
fone	11760
fume	11761
hwan	11762
ihir	11763
jap	11764
lw	11765
lja	11766
lgo	11767
lera	11768
m3	11769
mab	11770
mong	11771
nati	11772
nro	11773
nle	11774
nho	11775
oas	11776
ouk	11777
otar	11778
ogya	11779
oone	11780
pgi	11781
pasi	11782
pcu	11783
pmp	11784
rir	11785
riri	11786
uek	11787
utai	11788
ufe	11789
uono	11790
v4	11791
wama	11792
wadi	11793
woro	11794
yara	11795
yuh	11796
yong	11797
zs	11798
zx	11799
zia	11800
##ae	11801
##jn	11802
##jc	11803
##djo	11804
##fre	11805
##tl	11806
##las	11807
anv	11808
anz	11809
anma	11810
dii	11811
sev	11812
##tum	11813
inun	11814
inked	11815
pea	11816
pef	11817
peke	11818
dani	11819
erine	11820
tee	11821
teer	11822
pern	11823
kore	11824
arh	11825
aruk	11826
arai	11827
arbi	11828
##aia	11829
alg	11830
alum	11831
alda	11832
alila	11833
enmas	11834
enset	11835
bae	11836
bajo	11837
bach	11838
mbara	11839
amya	11840
amek	11841
ads	11842
##itt	11843
ahw	11844
ahun	11845
ahua	11846
ahia	11847
nef	11848
nezes	11849
apik	11850
##eld	11851
siwa	11852
siber	11853
isn	11854
isc	11855
aseh	11856
assem	11857
masy	11858
tao	11859
atmi	11860
emih	11861
indy	11862
eld	11863
elip	11864
elky	11865
riat	11866
rigi	11867
risia	11868
riana	11869
usm	11870
umis	11871
urg	11872
urung	11873
kamb	11874
ilmi	11875
itch	11876
roit	11877
idia	11878
idol	11879
imc	11880
imura	11881
maam	11882
agel	11883
agher	11884
harma	11885
lium	11886
liana	11887
liman	11888
lips	11889
abas	11890
abtu	11891
abon	11892
progo	11893
def	11894
dei	11895
deep	11896
rack	11897
awu	11898
aws	11899
trust	11900
kemb	11901
##idi	11902
lug	11903
eduk	11904
edek	11905
eddy	11906
grk	11907
bubu	11908
omg	11909
irb	11910
irus	11911
bessy	11912
mile	11913
acir	11914
pende	11915
##pec	11916
haun	11917
ayt	11918
aytun	11919
ambey	11920
ubt	11921
ubp	11922
rub	11923
ruze	11924
pasan	11925
moe	11926
mol	11927
moyo	11928
espn	11929
andon	11930
boom	11931
bolik	11932
body	11933
bound	11934
boisa	11935
gaz	11936
tandi	11937
ebong	11938
eball	11939
chok	11940
rtini	11941
konse	11942
tov	11943
tober	11944
icie	11945
pugur	11946
rbani	11947
soc	11948
sogo	11949
sody	11950
sodjo	11951
rsb	11952
rsy	11953
##kep	11954
nyana	11955
ariah	11956
osir	11957
biu	11958
airil	11959
niu	11960
niq	11961
niup	11962
gig	11963
kry	11964
ipcc	11965
kstr	11966
ppen	11967
anip	11968
yach	11969
mpers	11970
arawa	11971
ucha	11972
uche	11973
yake	11974
sper	11975
spsi	11976
spdp	11977
undza	11978
elac	11979
jant	11980
##ole	11981
rnai	11982
rnes	11983
unch	11984
pardi	11985
rdn	11986
doe	11987
thia	11988
cola	11989
ifqi	11990
laps	11991
lapak	11992
ajai	11993
ajoe	11994
jene	11995
osen	11996
oshe	11997
mida	11998
mioro	11999
fez	12000
feed	12001
toro	12002
shm	12003
rusa	12004
enth	12005
rinus	12006
atia	12007
klh	12008
klok	12009
205	12010
jima	12011
jica	12012
psc	12013
mbay	12014
azir	12015
igin	12016
endum	12017
bruri	12018
deko	12019
kalar	12020
antir	12021
drah	12022
driko	12023
imbas	12024
gasd	12025
rmidi	12026
tiva	12027
artha	12028
tpb	12029
tpak	12030
rift	12031
oema	12032
peser	12033
##chu	12034
##cho	12035
uriz	12036
brids	12037
139	12038
babil	12039
174	12040
177	12041
bust	12042
table	12043
matic	12044
avana	12045
avos	12046
odha	12047
owe	12048
279	12049
221	12050
tolih	12051
214	12052
ksir	12053
nett	12054
laran	12055
demio	12056
smus	12057
smul	12058
lilea	12059
267	12060
eyes	12061
eyno	12062
ooter	12063
bond	12064
iena	12065
orton	12066
290	12067
ezar	12068
ezza	12069
ezos	12070
ckhy	12071
ovo	12072
ovte	12073
mcp	12074
mcm	12075
ssk	12076
iev	12077
ufa	12078
lmon	12079
kupa	12080
312	12081
ldl	12082
cahe	12083
kmas	12084
roker	12085
fake	12086
ntahe	12087
ntiri	12088
beij	12089
tamfe	12090
laide	12091
quip	12092
mdb	12093
hate	12094
napch	12095
empuk	12096
dhu	12097
eef	12098
umay	12099
bait	12100
baib	12101
enaka	12102
aei	12103
tbot	12104
alase	12105
nest	12106
nessa	12107
rachi	12108
umbon	12109
hrust	12110
outo	12111
ijin	12112
flase	12113
btp	12114
btb	12115
oore	12116
nhar	12117
ulev	12118
322	12119
bmh	12120
bmth	12121
hint	12122
hink	12123
bpkb	12124
rimin	12125
pltp	12126
362	12127
iasat	12128
sess	12129
drie	12130
oboa	12131
check	12132
eluxe	12133
dora	12134
gpm	12135
337	12136
dsd	12137
lks	12138
askya	12139
askes	12140
crm	12141
u18	12142
nsula	12143
ngem	12144
iora	12145
pgs	12146
411	12147
biro	12148
unodc	12149
ddam	12150
rauf	12151
egov	12152
npl	12153
gaib	12154
uinsa	12155
ukoj	12156
axus	12157
atria	12158
ubio	12159
nino	12160
eiro	12161
opay	12162
nabul	12163
usnul	12164
iqui	12165
##qui	12166
aeron	12167
yrus	12168
urban	12169
winto	12170
weep	12171
iyant	12172
notes	12173
nrek	12174
ildf	12175
aarul	12176
chool	12177
jfx	12178
ycl	12179
ymco	12180
uffer	12181
engag	12182
ludak	12183
cisa	12184
osmet	12185
zuma	12186
enjoy	12187
snod	12188
wadar	12189
ypef	12190
xonm	12191
weran	12192
zzio	12193
lupas	12194
bmpp	12195
fkip	12196
eulis	12197
mikro	12198
pnot	12199
idrap	12200
aykal	12201
qdir	12202
leuny	12203
traig	12204
yrgyz	12205
ooney	12206
".	12207
4w	12208
9th	12209
blik	12210
cx	12211
c6	12212
cing	12213
cata	12214
cbu	12215
cme	12216
cpi	12217
dv	12218
dala	12219
dres	12220
eup	12221
eza	12222
gadi	12223
gdc	12224
h1	12225
hpn	12226
hong	12227
huri	12228
iami	12229
kba	12230
lata	12231
mla	12232
mni	12233
nong	12234
oad	12235
oja	12236
otr	12237
pma	12238
pse	12239
qs	12240
quat	12241
rber	12242
rika	12243
sley	12244
two	12245
vt	12246
vm	12247
vtp	12248
wp	12249
wik	12250
weh	12251
wami	12252
wena	12253
xf	12254
x7	12255
yh	12256
yto	12257
yati	12258
zk	12259
zma	12260
zone	12261
ürk	12262
##jt	12263
##nia	12264
##df	12265
##uo	12266
##uz	12267
##bas	12268
##kin	12269
##sh	12270
##wen	12271
##cn	12272
##cf	12273
##yen	12274
anana	12275
dial	12276
##ahi	12277
mey	12278
keas	12279
kesa	12280
intu	12281
unm	12282
unang	12283
unama	12284
##uni	12285
erla	12286
erka	12287
erzi	12288
tegi	12289
perki	12290
kov	12291
koda	12292
kolo	12293
akam	12294
arim	12295
armi	12296
ared	12297
artun	12298
aroma	12299
##ury	12300
alga	12301
aleh	12302
alba	12303
alle	12304
alvo	12305
##ist	12306
##orn	12307
mbr	12308
##tic	12309
sac	12310
amara	12311
adf	12312
aden	12313
adine	12314
adena	12315
penh	12316
pense	12317
ahum	12318
ahaga	12319
olx	12320
nee	12321
neto	12322
nemb	12323
next	12324
prj	12325
prano	12326
apy	12327
apah	12328
siu	12329
isuri	12330
issu	12331
iscc	12332
asat	12333
asung	12334
asgas	12335
asrah	12336
aslem	12337
tawi	12338
orin	12339
orek	12340
orre	12341
atma	12342
mps	12343
mp3	12344
elta	12345
elber	12346
elco	12347
lein	12348
leum	12349
riq	12350
riga	12351
usam	12352
umor	12353
reh	12354
ukha	12355
urc	12356
ingar	12357
ilc	12358
ilana	12359
ilani	12360
ilent	12361
itc	12362
iten	12363
itang	12364
naas	12365
iker	12366
iklin	12367
ikho	12368
roya	12369
roik	12370
roos	12371
idw	12372
idz	12373
onz	12374
ekang	12375
ekek	12376
ekua	12377
eklik	12378
ims	12379
imen	12380
imca	12381
##rau	12382
maw	12383
aged	12384
agne	12385
hard	12386
abol	12387
ablon	12388
utes	12389
atung	12390
okum	12391
kula	12392
ully	12393
ncir	12394
ncet	12395
belle	12396
iona	12397
ioni	12398
egera	12399
lui	12400
grap	12401
udg	12402
udhy	12403
udson	12404
buana	12405
build	12406
omad	12407
omol	12408
omnia	12409
irg	12410
ireng	12411
paung	12412
acy	12413
acas	12414
acid	12415
mans	12416
ianus	12417
engon	12418
ayus	12419
ayla	12420
ubes	12421
dago	12422
mov	12423
esc	12424
andhi	12425
pill	12426
disk	12427
rtr	12428
rty	12429
icp	12430
icik	12431
etda	12432
mary	12433
marmo	12434
sot	12435
sowan	12436
soed	12437
sowid	12438
rsd	12439
rsko	12440
opp	12441
opak	12442
opyan	12443
nyc	12444
nyo	12445
nyang	12446
afe	12447
hob	12448
hog	12449
houn	12450
holy	12451
arip	12452
airy	12453
ress	12454
gija	12455
giyai	12456
rp7	12457
ibak	12458
mult	12459
litb	12460
krt	12461
ipah	12462
ipik	12463
ipur	12464
bute	12465
paksa	12466
kito	12467
ksh	12468
ppas	12469
ptma	12470
polda	12471
yodo	12472
uco	12473
uchi	12474
fob	12475
undah	12476
undel	12477
elael	12478
nfra	12479
##roh	12480
rkp	12481
rkpd	12482
sksg	12483
rdf	12484
rdpu	12485
ersit	12486
thar	12487
oloan	12488
coco	12489
ifq	12490
cio	12491
ratly	12492
ajik	12493
ajing	12494
ajir	12495
osk	12496
osmo	12497
palo	12498
evr	12499
evo	12500
ev9	12501
etipo	12502
rgina	12503
johan	12504
pbg	12505
pbk	12506
pbpd	12507
renic	12508
##pot	12509
otis	12510
risp	12511
akub	12512
raman	12513
nalin	12514
aii	12515
jipt	12516
psr	12517
nite	12518
izer	12519
wiek	12520
geo	12521
mangu	12522
pku	12523
126	12524
balin	12525
exfe	12526
thew	12527
bumen	12528
loki	12529
oft	12530
ofir	12531
pie	12532
pii	12533
kals	12534
159	12535
ausa	12536
drx	12537
rmani	12538
iola	12539
eriff	12540
rcher	12541
sdya	12542
psis	12543
finn	12544
esty	12545
estra	12546
256	12547
ffa	12548
seth	12549
185	12550
245	12551
173	12552
rilla	12553
ilex	12554
buse	12555
bkpp	12556
avas	12557
odore	12558
222	12559
bebe	12560
nkir	12561
239	12562
238	12563
236	12564
213	12565
217	12566
djia	12567
usiah	12568
mkgr	12569
##sos	12570
266	12571
orop	12572
kimi	12573
abub	12574
uzon	12575
kuri	12576
kuras	12577
ermon	12578
ckd	12579
cker	12580
mahfu	12581
ssw	12582
verd	12583
ufi	12584
ihen	12585
kph	12586
ccus	12587
nano	12588
iday	12589
chiz	12590
md3	12591
mdam	12592
uwet	12593
rtoum	12594
oody	12595
yahar	12596
vox	12597
dhika	12598
eem	12599
ktana	12600
bekel	12601
msn	12602
msk	12603
uicy	12604
bsn	12605
pisa	12606
yamah	12607
opian	12608
ackat	12609
ondon	12610
rajut	12611
rolit	12612
racas	12613
riyan	12614
asten	12615
bnsp	12616
game	12617
hyp	12618
edaw	12619
bolga	12620
dahan	12621
nhe	12622
umpur	12623
dlul	12624
gets	12625
mrud	12626
aktub	12627
sbmi	12628
essel	12629
ertip	12630
einze	12631
kund	12632
pmd	12633
uyut	12634
daton	12635
ubau	12636
ngelo	12637
gonzi	12638
aaa	12639
ppkg	12640
usail	12641
crati	12642
zoe	12643
zofre	12644
arsum	12645
eathe	12646
cltn	12647
gilan	12648
iwang	12649
mts	12650
fund	12651
erthi	12652
bci	12653
kdir	12654
tnuk	12655
gtv	12656
aqi	12657
aqsa	12658
mair	12659
hkti	12660
bnnk	12661
nphd	12662
bloid	12663
hist	12664
mzet	12665
uitm	12666
hulam	12667
amoj	12668
rfak	12669
homp	12670
ooke	12671
enzel	12672
ozer	12673
ampau	12674
fsp	12675
ebron	12676
rrot	12677
rros	12678
licy	12679
brow	12680
cpj	12681
aerul	12682
xxiii	12683
gwk	12684
unker	12685
rzn	12686
kfc	12687
inaho	12688
sgn	12689
yafak	12690
aicis	12691
uido	12692
raveh	12693
lmaz	12694
jorr	12695
tadz	12696
jtv	12697
ladia	12698
rewer	12699
arves	12700
zhin	12701
eback	12702
rozny	12703
sbial	12704
tief	12705
vktr	12706
anilo	12707
assil	12708
oudy	12709
ikdar	12710
iradj	12711
oopak	12712
adolu	12713
rfiah	12714
diqah	12715
dnig	12716
hloe	12717
amtas	12718
ufey	12719
iginf	12720
tpakd	12721
oadc	12722
2b	12723
6th	12724
aon	12725
bam	12726
bapa	12727
bcc	12728
cpu	12729
cni	12730
cro	12731
cgs	12732
d3	12733
dati	12734
dbs	12735
eit	12736
etup	12737
fam	12738
fib	12739
fika	12740
fro	12741
gta	12742
gman	12743
hv	12744
hya	12745
hta	12746
haha	12747
hpk	12748
hiri	12749
hje	12750
iuk	12751
iju	12752
j6	12753
jne	12754
jito	12755
kama	12756
klik	12757
kwi	12758
kle	12759
kzi	12760
lika	12761
llin	12762
lmk	12763
lcs	12764
mzi	12765
n3	12766
nok	12767
nli	12768
oak	12769
oza	12770
p4	12771
pata	12772
qa	12773
qo	12774
qnet	12775
rfe	12776
swan	12777
swas	12778
sjid	12779
sbo	12780
tgc	12781
uut	12782
uest	12783
vani	12784
vera	12785
wab	12786
wri	12787
wrt	12788
wmo	12789
wcp	12790
yya	12791
ying	12792
ylah	12793
yala	12794
ytr	12795
zad	12796
zgi	12797
zri	12798
zka	12799
zzy	12800
zrah	12801
##jj	12802
##nt	12803
##eg	12804
##uv	12805
##uy	12806
##15	12807
##lat	12808
##gl	12809
##sb	12810
##rf	12811
##yin	12812
##zu	12813
##én	12814
##ém	12815
anun	12816
##arv	12817
diah	12818
##ins	12819
danar	12820
unet	12821
kana	12822
ergo	12823
ernas	12824
ereo	12825
teak	12826
tier	12827
tias	12828
tipe	12829
koci	12830
akata	12831
ares	12832
arek	12833
arji	12834
arli	12835
##urd	12836
##usa	12837
alter	12838
enra	12839
ense	12840
enera	12841
bagu	12842
baba	12843
mbai	12844
amon	12845
amir	12846
amira	12847
adji	12848
adze	12849
ahru	12850
olen	12851
olba	12852
neum	12853
neda	12854
negie	12855
itude	12856
##ell	12857
sior	12858
isph	12859
issis	12860
asf	12861
asuh	12862
aster	12863
ntari	12864
ntha	12865
ntong	12866
ntyo	12867
nthon	12868
taver	12869
tachi	12870
oren	12871
orta	12872
##eke	12873
aty	12874
atom	12875
njas	12876
emt	12877
emc	12878
mpw	12879
mpus	12880
elda	12881
elsa	12882
elita	12883
elyn	12884
rive	12885
usen	12886
ussi	12887
usch	12888
usly	12889
umpi	12890
karat	12891
urta	12892
urur	12893
urora	12894
tahae	12895
ilde	12896
illon	12897
itk	12898
itor	12899
itsu	12900
ikte	12901
bee	12902
beat	12903
rosir	12904
roof	12905
idas	12906
idap	12907
idum	12908
idera	12909
onjo	12910
onze	12911
jae	12912
imap	12913
mag	12914
mail	12915
agad	12916
lio	12917
liabu	12918
abuk	12919
abfor	12920
abhar	12921
uton	12922
atus	12923
stok	12924
stori	12925
tuo	12926
tual	12927
dex	12928
rake	12929
rakti	12930
rauk	12931
awo	12932
ulo	12933
kaup	12934
kaaki	12935
trin	12936
tring	12937
trika	12938
nca	12939
ncal	12940
jaki	12941
negro	12942
egok	12943
egei	12944
eglov	12945
luyu	12946
edc	12947
komen	12948
grah	12949
udh	12950
apac	12951
omah	12952
omun	12953
irton	12954
irrah	12955
rbb	12956
hant	12957
hanta	12958
upj	12959
uping	12960
upol	12961
milla	12962
paz	12963
paet	12964
aco	12965
##pei	12966
haen	12967
hail	12968
loa	12969
loo	12970
loat	12971
ayon	12972
noc	12973
ruas	12974
moi	12975
moge	12976
esh	12977
esya	12978
eson	12979
ester	12980
andle	12981
boga	12982
tank	12983
ebuk	12984
ebana	12985
halla	12986
patt	12987
iain	12988
chet	12989
su7	12990
lato	12991
ruman	12992
tod	12993
anjer	12994
etang	12995
etta	12996
etti	12997
etto	12998
rsh	12999
rsm	13000
rsino	13001
opus	13002
oppo	13003
opkin	13004
dpm	13005
afand	13006
afsir	13007
hoir	13008
holi	13009
##red	13010
yand	13011
yans	13012
geru	13013
bida	13014
bicc	13015
resan	13016
resso	13017
hukul	13018
rper	13019
hamma	13020
gelut	13021
ipha	13022
woo	13023
ppri	13024
ranti	13025
ranko	13026
ranty	13027
wash	13028
ptv	13029
polar	13030
arage	13031
fos	13032
foam	13033
spam	13034
spol	13035
undp	13036
bull	13037
bados	13038
nfa	13039
hiz	13040
hiwa	13041
##rol	13042
rnata	13043
foria	13044
skma	13045
rdim	13046
gent	13047
obak	13048
dov	13049
tht	13050
tham	13051
thing	13052
cow	13053
cope	13054
ife	13055
ifan	13056
ifsr	13057
lamil	13058
duw	13059
aliya	13060
miwa	13061
mick	13062
evra	13063
evina	13064
wando	13065
benua	13066
rahin	13067
fig	13068
fix	13069
mamm	13070
etir	13071
caf	13072
shul	13073
hey	13074
atiqa	13075
otta	13076
akuan	13077
ramas	13078
aip	13079
filah	13080
203	13081
208	13082
jio	13083
psps	13084
wiya	13085
jarb	13086
##hic	13087
pkc	13088
aze	13089
goy	13090
gowa	13091
igmen	13092
uag	13093
darma	13094
brk	13095
brand	13096
inode	13097
drm	13098
dron	13099
305	13100
309	13101
arem	13102
rme	13103
iop	13104
iogo	13105
kutik	13106
artz	13107
catu	13108
oew	13109
oela	13110
oemi	13111
161	13112
tast	13113
wates	13114
pland	13115
mitha	13116
otol	13117
bbj	13118
bbq	13119
bbwi	13120
antae	13121
kyt	13122
orgum	13123
auv	13124
182	13125
ogen	13126
testa	13127
179	13128
ryd	13129
adez	13130
herl	13131
bkt	13132
##fei	13133
avil	13134
avor	13135
alay	13136
oden	13137
phdi	13138
194	13139
224	13140
ocs	13141
nkar	13142
inee	13143
211	13144
216	13145
sci	13146
scarv	13147
usiy	13148
ilege	13149
cuv	13150
tfest	13151
iller	13152
lays	13153
mcf	13154
mcl	13155
ssb	13156
ief	13157
ihk	13158
iho	13159
ihram	13160
kplp	13161
311	13162
hill	13163
hilir	13164
umsu	13165
tradc	13166
kmt	13167
ntir	13168
imau	13169
esias	13170
stiwa	13171
ersky	13172
budhi	13173
dith	13174
eien	13175
eixe	13176
eropa	13177
lpon	13178
quar	13179
mdas	13180
ugder	13181
ilab	13182
ilay	13183
samad	13184
ickar	13185
inky	13186
ieran	13187
bles	13188
trev	13189
yahid	13190
dine	13191
dhli	13192
alee	13193
lfon	13194
dalgo	13195
##neg	13196
riton	13197
isher	13198
msp	13199
msari	13200
kord	13201
korp	13202
ureau	13203
ukau	13204
bsb	13205
pds	13206
widod	13207
arkup	13208
galih	13209
tks	13210
tkm	13211
kkj	13212
csw	13213
wesi	13214
weyai	13215
money	13216
astel	13217
aroe	13218
hren	13219
outh	13220
onfli	13221
bnpp	13222
loma	13223
gulat	13224
ijme	13225
dayan	13226
lobin	13227
entum	13228
umper	13229
yew	13230
naifi	13231
tts	13232
ttis	13233
ttama	13234
mrin	13235
mrus	13236
lvon	13237
lving	13238
nzar	13239
niac	13240
tipid	13241
canth	13242
bpkd	13243
annes	13244
xxx	13245
ercah	13246
dato	13247
abies	13248
380	13249
snah	13250
aumb	13251
eux	13252
aaj	13253
omogi	13254
yase	13255
dzka	13256
mls	13257
mlasi	13258
unday	13259
379	13260
ogav	13261
oots	13262
rawak	13263
cles	13264
bith	13265
fren	13266
glise	13267
gkal	13268
gilim	13269
tungg	13270
isode	13271
kdm	13272
440	13273
432	13274
489	13275
empuy	13276
npc	13277
dptp	13278
block	13279
mzam	13280
hlf	13281
ironi	13282
rlife	13283
axw	13284
ikmd	13285
aison	13286
donan	13287
iucn	13288
jrp	13289
ypta	13290
sible	13291
ertum	13292
bhd	13293
bhar	13294
ennai	13295
eese	13296
fp2	13297
lhp	13298
lkpj	13299
irdad	13300
ucky	13301
lecut	13302
hdum	13303
sche	13304
scher	13305
oise	13306
esset	13307
uvall	13308
lpem	13309
reig	13310
yrian	13311
ulfat	13312
jhl	13313
kikis	13314
ablas	13315
hawk	13316
wiro	13317
wiran	13318
chell	13319
mizah	13320
bphn	13321
p3k	13322
sourc	13323
dhoc	13324
amrus	13325
ubmis	13326
cided	13327
ozem	13328
eibo	13329
ophie	13330
luay	13331
dacan	13332
pprec	13333
anvas	13334
arbiy	13335
wiksa	13336
issue	13337
ioniq	13338
iukur	13339
kziah	13340
2a	13341
2d	13342
3a	13343
3s	13344
aol	13345
auli	13346
bwi	13347
bims	13348
cad	13349
cna	13350
cpp	13351
cpec	13352
dda	13353
djar	13354
dsa	13355
dpu	13356
dko	13357
domo	13358
dlov	13359
eim	13360
eina	13361
eani	13362
fz	13363
fati	13364
gz	13365
gut	13366
gpu	13367
glik	13368
gnas	13369
gcc	13370
h2	13371
hini	13372
hru	13373
hlon	13374
hley	13375
iamat	13376
jir	13377
jvs	13378
kih	13379
kpn	13380
leri	13381
lsu	13382
lnk	13383
mwa	13384
nuh	13385
nana	13386
nent	13387
oji	13388
oase	13389
plah	13390
pko	13391
rve	13392
slah	13393
sze	13394
tlot	13395
uon	13396
uol	13397
uver	13398
vh	13399
vad	13400
vbt	13401
wih	13402
yib	13403
yra	13404
ymen	13405
ypo	13406
ymp	13407
zlem	13408
##db	13409
##pg	13410
##pmb	13411
##lk	13412
##gm	13413
##wj	13414
##rin	13415
##rpp	13416
##yat	13417
##mc	13418
##mus	13419
##zan	13420
##qc	13421
anb	13422
anai	13423
ansip	13424
diz	13425
dies	13426
meer	13427
meini	13428
inh	13429
inur	13430
intui	13431
##sil	13432
untur	13433
##uno	13434
berry	13435
##ili	13436
erri	13437
erani	13438
erdik	13439
erona	13440
tex	13441
tein	13442
tius	13443
koko	13444
kogab	13445
koco	13446
kovo	13447
akara	13448
akis	13449
arar	13450
arada	13451
arka	13452
arita	13453
arpu	13454
arlem	13455
arury	13456
alab	13457
alve	13458
enr	13459
##iss	13460
mbus	13461
mbada	13462
mbit	13463
saik	13464
iniy	13465
amang	13466
amak	13467
amsia	13468
amlo	13469
penad	13470
ahel	13471
ahul	13472
ahce	13473
apes	13474
appa	13475
isf	13476
isam	13477
isse	13478
isna	13479
isade	13480
aste	13481
asra	13482
asma	13483
ashir	13484
ntya	13485
nteng	13486
##ulo	13487
taa	13488
taya	13489
ndap	13490
ndua	13491
ndji	13492
ndler	13493
orf	13494
orok	13495
orse	13496
##eko	13497
atha	13498
emale	13499
elal	13500
eluka	13501
elle	13502
leet	13503
leth	13504
riyo	13505
rizi	13506
##rim	13507
usp	13508
usuh	13509
umit	13510
ingmi	13511
ilt	13512
ilh	13513
ilga	13514
ilma	13515
illo	13516
itf	13517
ites	13518
itoma	13519
nae	13520
naji	13521
ikara	13522
ikom	13523
being	13524
roon	13525
rosa	13526
rojo	13527
idh	13528
ides	13529
idza	13530
iddo	13531
oner	13532
onut	13533
onne	13534
onwj	13535
ekp	13536
ekvy	13537
jaer	13538
imer	13539
imik	13540
impa	13541
immi	13542
maca	13543
agut	13544
agok	13545
agyo	13546
intar	13547
intya	13548
liur	13549
atup	13550
stf	13551
stv	13552
sting	13553
stand	13554
raksa	13555
okgak	13556
razi	13557
awur	13558
awny	13559
ulm	13560
ulam	13561
ulsi	13562
ulog	13563
tran	13564
ncen	13565
ncin	13566
ncel	13567
bella	13568
eget	13569
luc	13570
luz	13571
edhe	13572
gril	13573
irc	13574
irja	13575
irot	13576
mual	13577
muzi	13578
rbil	13579
minot	13580
hanh	13581
hanis	13582
upee	13583
paja	13584
pauw	13585
pagau	13586
send	13587
acet	13588
achi	13589
nasir	13590
ianda	13591
engus	13592
hack	13593
losa	13594
ayun	13595
ayyan	13596
nodo	13597
noop	13598
ubd	13599
ubko	13600
ubair	13601
daw	13602
daq	13603
mote	13604
molo	13605
andul	13606
bourg	13607
##pau	13608
ebenz	13609
##nim	13610
chr	13611
chuk	13612
chia	13613
succ	13614
rteri	13615
kona	13616
tope	13617
tock	13618
##vez	13619
icil	13620
icko	13621
icbm	13622
etel	13623
etok	13624
sound	13625
rsv	13626
rsma	13627
rspad	13628
opc	13629
oph	13630
opong	13631
ophe	13632
oppy	13633
afing	13634
hod	13635
hoo	13636
ariy	13637
yanza	13638
huo	13639
resen	13640
ibo	13641
ibum	13642
ibom	13643
gello	13644
krb	13645
krah	13646
ipsi	13647
ipon	13648
ipih	13649
ipet	13650
ippp	13651
paki	13652
ppm	13653
ppho	13654
pplic	13655
rante	13656
eptik	13657
eprai	13658
ephon	13659
anic	13660
yoto	13661
araz	13662
araje	13663
uch	13664
ucuti	13665
remai	13666
folia	13667
spp	13668
spb	13669
sp3	13670
spot	13671
nft	13672
hien	13673
ekop	13674
skp	13675
stru	13676
struk	13677
gento	13678
obon	13679
obek	13680
obahi	13681
doya	13682
cot	13683
cout	13684
cogat	13685
khara	13686
khri	13687
kien	13688
kieb	13689
bakti	13690
duy	13691
alip	13692
rapy	13693
nsh	13694
mif	13695
feel	13696
wansa	13697
sulap	13698
tors	13699
shp	13700
rush	13701
enthu	13702
rinda	13703
trix	13704
hep	13705
didas	13706
otp	13707
oton	13708
otto	13709
klb	13710
klx	13711
malan	13712
malil	13713
nalar	13714
nalur	13715
nalog	13716
lasar	13717
201	13718
206	13719
jiah	13720
psbi	13721
pslb	13722
nity	13723
ivai	13724
ivali	13725
izqi	13726
gees	13727
syir	13728
goel	13729
ofur	13730
igra	13731
tato	13732
endar	13733
endut	13734
simo	13735
kale	13736
kalik	13737
asay	13738
isau	13739
drg	13740
drs	13741
drc	13742
301	13743
303	13744
mish	13745
rmuh	13746
iodi	13747
golo	13748
erify	13749
tonga	13750
ndawa	13751
tpm	13752
eleg	13753
mato	13754
##onso	13755
fast	13756
sdf	13757
sdin	13758
aluga	13759
plit	13760
mitsu	13761
urich	13762
253	13763
aucho	13764
babel	13765
train	13766
183	13767
ogor	13768
ogger	13769
self	13770
ganza	13771
178	13772
binta	13773
rys	13774
here	13775
##nyo	13776
alag	13777
bayev	13778
sahid	13779
libo	13780
ncou	13781
odry	13782
enco	13783
swad	13784
swadi	13785
sword	13786
275	13787
276	13788
pnb	13789
enso	13790
phbs	13791
phop	13792
198	13793
192	13794
ocbc	13795
508	13796
pikal	13797
loroh	13798
rjb	13799
smes	13800
smet	13801
smito	13802
262	13803
282	13804
ntow	13805
piro	13806
eymar	13807
aguar	13808
slan	13809
slta	13810
mudji	13811
ouv	13812
ckl	13813
cky	13814
ckm	13815
oven	13816
mci	13817
sst	13818
thaad	13819
ufo	13820
ufth	13821
lise	13822
zawa	13823
318	13824
bye	13825
byte	13826
siht	13827
pusak	13828
silah	13829
esim	13830
tamo	13831
taman	13832
elig	13833
lpmm	13834
iqoo	13835
romah	13836
kinah	13837
olich	13838
blat	13839
myd	13840
mys	13841
lty	13842
lton	13843
lther	13844
vob	13845
vos	13846
yatt	13847
acht	13848
lfa	13849
eej	13850
early	13851
shaq	13852
##nea	13853
##new	13854
aez	13855
msu	13856
haba	13857
uic	13858
eaw	13859
eaux	13860
bsurd	13861
pdgi	13862
ript	13863
043	13864
tbm	13865
tban	13866
ricio	13867
hmj	13868
hms	13869
hmsi	13870
tkrpp	13871
ondol	13872
aneet	13873
iamin	13874
monia	13875
racun	13876
kroa	13877
umble	13878
vant	13879
suns	13880
jmf	13881
assin	13882
aroh	13883
hrc	13884
iunus	13885
urnit	13886
354	13887
gamen	13888
ligh	13889
rvin	13890
thica	13891
hye	13892
hyt	13893
gnon	13894
arapk	13895
ashy	13896
nhc	13897
unton	13898
yeb	13899
dlan	13900
##fiz	13901
nair	13902
amida	13903
324	13904
shii	13905
corn	13906
sbun	13907
sbdj	13908
rimah	13909
rdoba	13910
carle	13911
gbone	13912
andoi	13913
mosin	13914
oice	13915
uyon	13916
goro	13917
rland	13918
akeup	13919
osef	13920
335	13921
snpmb	13922
auhar	13923
dzam	13924
ivere	13925
step	13926
arsam	13927
armon	13928
372	13929
nneth	13930
rawut	13931
pines	13932
eatre	13933
pgtc	13934
410	13935
birin	13936
birru	13937
aldj	13938
iwara	13939
evie	13940
oleon	13941
mtf	13942
445	13943
aqwa	13944
waite	13945
raujo	13946
arrel	13947
480	13948
npol	13949
lipur	13950
wonii	13951
bley	13952
rsela	13953
enahi	13954
520	13955
527	13956
arfas	13957
ottom	13958
amoy	13959
kraf	13960
cole	13961
rott	13962
acuni	13963
etec	13964
eslav	13965
570	13966
lowb	13967
720	13968
ingap	13969
685	13970
elvin	13971
oats	13972
cnbc	13973
bhc	13974
660	13975
riott	13976
borgh	13977
astry	13978
ygro	13979
lavut	13980
tazam	13981
ejoyo	13982
navia	13983
lkpd	13984
riend	13985
irder	13986
jdih	13987
ethel	13988
mpls	13989
uxi	13990
nrung	13991
taqwa	13992
bpjn	13993
ellow	13994
jfk	13995
bgn	13996
aziz	13997
rrima	13998
buleu	13999
mrow	14000
isyam	14001
dumai	14002
immel	14003
bott	14004
nazar	14005
mjm	14006
zulul	14007
kpppa	14008
hfud	14009
photo	14010
kikat	14011
xyz	14012
utsar	14013
unez	14014
charm	14015
ayeuh	14016
ytd	14017
ppjt	14018
yafii	14019
arpg	14020
hofur	14021
nners	14022
unwra	14023
ridie	14024
sptjm	14025
bvit	14026
ugeot	14027
pkwt	14028
kppbc	14029
niqab	14030
dress	14031
xfam	14032
cious	14033
msnbc	14034
nheal	14035
spoll	14036
gkalp	14037
vbtv	14038
.,	14039
3b	14040
5th	14041
a3	14042
aak	14043
aeri	14044
bwa	14045
bly	14046
cri	14047
cade	14048
cpd	14049
cpt	14050
cbl	14051
cqu	14052
d1	14053
dx	14054
dsi	14055
dyo	14056
dvi	14057
dvo	14058
eang	14059
eah	14060
eeh	14061
eike	14062
fai	14063
fus	14064
fada	14065
fpk	14066
fps	14067
gya	14068
gsi	14069
gata	14070
gbu	14071
gki	14072
gura	14073
hter	14074
hgb	14075
hfiz	14076
ić	14077
iur	14078
iari	14079
ipn	14080
ijan	14081
jes	14082
jana	14083
jra	14084
jsa	14085
jong	14086
jpo	14087
jbt	14088
kz	14089
kya	14090
kjo	14091
kém	14092
lasa	14093
lki	14094
lqi	14095
lvez	14096
má	14097
mki	14098
muru	14099
mru	14100
mmp	14101
mhe	14102
maba	14103
nra	14104
nnas	14105
nbs	14106
oang	14107
oam	14108
oing	14109
oent	14110
oura	14111
pud	14112
pika	14113
pudi	14114
pine	14115
rq	14116
rre	14117
rqi	14118
sgo	14119
stim	14120
tg	14121
twn	14122
uir	14123
vri	14124
vaia	14125
wb	14126
wada	14127
weri	14128
walu	14129
wina	14130
west	14131
xe	14132
xr	14133
xtc	14134
yw	14135
yda	14136
yli	14137
yne	14138
yzer	14139
z9	14140
án	14141
óp	14142
öner	14143
ürt	14144
##jk	14145
##dm	14146
##ej	14147
##fp	14148
##fit	14149
##vik	14150
##ue	14151
##ug	14152
##bf	14153
##gle	14154
##kk	14155
##cpm	14156
##hn	14157
##hr	14158
##rl	14159
##rm	14160
##rat	14161
##ruk	14162
##ys	14163
##oa	14164
##éa	14165
##ée	14166
antuk	14167
angai	14168
antem	14169
didak	14170
dide	14171
mea	14172
meung	14173
keun	14174
inke	14175
inca	14176
peuk	14177
unur	14178
unna	14179
kanci	14180
erina	14181
ered	14182
erno	14183
erami	14184
erty	14185
tij	14186
tial	14187
ties	14188
koo	14189
aken	14190
akel	14191
akung	14192
arx	14193
areng	14194
argai	14195
arok	14196
arlo	14197
angar	14198
angas	14199
alf	14200
alala	14201
alfi	14202
alva	14203
enes	14204
ensia	14205
ensa	14206
##ont	14207
##ony	14208
mbp	14209
mbas	14210
mbike	14211
##iha	14212
sae	14213
saq	14214
inia	14215
amel	14216
amina	14217
aduk	14218
adung	14219
adeh	14220
olih	14221
oled	14222
olby	14223
lae	14224
laing	14225
laze	14226
neup	14227
nema	14228
nedi	14229
neck	14230
itua	14231
apq	14232
aput	14233
aping	14234
apeh	14235
apos	14236
apvi	14237
##ele	14238
isd	14239
isl	14240
isba	14241
asqu	14242
ntp	14243
nthe	14244
##ulk	14245
taga	14246
tack	14247
tava	14248
ndira	14249
orch	14250
orena	14251
atc	14252
atari	14253
atek	14254
emun	14255
empo	14256
indan	14257
mpia	14258
elon	14259
elso	14260
lef	14261
leus	14262
riuk	14263
rimp	14264
usha	14265
used	14266
rede	14267
url	14268
urap	14269
urasi	14270
urse	14271
urkot	14272
urge	14273
inguo	14274
iln	14275
iljan	14276
ilsu	14277
itat	14278
itne	14279
naca	14280
nacr	14281
nacon	14282
ikv	14283
ikt	14284
ikad	14285
roj	14286
rous	14287
roda	14288
ropo	14289
roton	14290
onok	14291
ongo	14292
ekulo	14293
imx	14294
imti	14295
asid	14296
pod	14297
agri	14298
agori	14299
comp	14300
intra	14301
harm	14302
harta	14303
lier	14304
liak	14305
lius	14306
lion	14307
lide	14308
lios	14309
abw	14310
##max	14311
atuhi	14312
sth	14313
stad	14314
barok	14315
depa	14316
oking	14317
okia	14318
okka	14319
okben	14320
rause	14321
ampg	14322
ampit	14323
amplo	14324
uls	14325
ulis	14326
ulina	14327
kayu	14328
kachu	14329
trc	14330
trup	14331
ncik	14332
ncong	14333
semmi	14334
##sey	14335
timur	14336
egeng	14337
egel	14338
egev	14339
egea	14340
luim	14341
edeng	14342
edai	14343
edel	14344
edja	14345
edok	14346
##etr	14347
udero	14348
buya	14349
omat	14350
omal	14351
irang	14352
irwa	14353
rbini	14354
mindi	14355
milo	14356
acho	14357
acms	14358
hau	14359
lour	14360
lood	14361
loder	14362
ayd	14363
ayong	14364
noe	14365
nou	14366
nog	14367
noid	14368
noso	14369
nowo	14370
kerta	14371
ubo	14372
ubat	14373
ubris	14374
name	14375
namp	14376
daung	14377
dajat	14378
ruit	14379
moen	14380
mola	14381
move	14382
esus	14383
esley	14384
gaun	14385
ebua	14386
halib	14387
pathi	14388
chu	14389
chan	14390
chair	14391
kone	14392
konaw	14393
too	14394
tolik	14395
nug	14396
etes	14397
eton	14398
mard	14399
sodi	14400
rss	14401
rsin	14402
opri	14403
lane	14404
apatk	14405
dplk	14406
afj	14407
afsu	14408
hoes	14409
hole	14410
panja	14411
hue	14412
osim	14413
biy	14414
nix	14415
nida	14416
giyan	14417
ibin	14418
ibel	14419
litz	14420
ipal	14421
ipit	14422
ipid	14423
ipip	14424
wocpm	14425
ksm	14426
anica	14427
yaile	14428
ptps	14429
yog	14430
aray	14431
iria	14432
spj	14433
split	14434
wag	14435
janti	14436
hif	14437
isty	14438
##ros	14439
rnis	14440
tangk	14441
force	14442
skh	14443
skck	14444
ongh	14445
sumat	14446
rdini	14447
thika	14448
cota	14449
ifus	14450
ifty	14451
cec	14452
ciam	14453
kie	14454
bakin	14455
ratel	14456
lamor	14457
ajek	14458
dub	14459
dula	14460
alier	14461
rapp	14462
raph	14463
osc	14464
osca	14465
oshi	14466
miat	14467
dasus	14468
evx	14469
ev6	14470
nars	14471
naro	14472
feet	14473
anac	14474
fian	14475
laks	14476
lakul	14477
sht	14478
shori	14479
jog	14480
enten	14481
entin	14482
ecik	14483
ecor	14484
ecel	14485
rindo	14486
trial	14487
sanul	14488
hew	14489
heal	14490
heid	14491
heac	14492
rens	14493
adion	14494
kln	14495
klen	14496
klar	14497
klon	14498
rams	14499
ramma	14500
ramee	14501
aie	14502
lass	14503
fav	14504
fact	14505
207	14506
jiv	14507
tapd	14508
ps5	14509
rsid	14510
ivak	14511
wig	14512
wiy	14513
wiup	14514
geda	14515
ejot	14516
balai	14517
azer	14518
azid	14519
azine	14520
azfit	14521
exit	14522
enduk	14523
bangt	14524
piti	14525
kalib	14526
ause	14527
yuen	14528
aruf	14529
drl	14530
drome	14531
304	14532
misan	14533
rmis	14534
ioid	14535
ohu	14536
kutra	14537
bura	14538
artya	14539
rasti	14540
erkas	14541
ketsa	14542
tpq	14543
jep	14544
sushi	14545
mator	14546
oey	14547
basf	14548
plg	14549
mitt	14550
rwito	14551
iarta	14552
niko	14553
otos	14554
258	14555
fff	14556
ffest	14557
epep	14558
243	14559
248	14560
ogan	14561
iapf	14562
selen	14563
ganes	14564
vio	14565
irawa	14566
bine	14567
rheni	14568
rillo	14569
hatim	14570
atew	14571
busa	14572
amino	14573
avira	14574
avito	14575
alaq	14576
odji	14577
oddy	14578
273	14579
277	14580
pnre	14581
ensat	14582
228	14583
ehuda	14584
nkton	14585
235	14586
233	14587
limin	14588
limpi	14589
kilan	14590
salak	14591
ridus	14592
djsn	14593
rtiz	14594
loro	14595
smm	14596
smap	14597
smira	14598
285	14599
cuan	14600
slar	14601
made	14602
arce	14603
illan	14604
bone	14605
iene	14606
mudit	14607
293	14608
298	14609
orey	14610
ouven	14611
eane	14612
ezka	14613
muna	14614
gare	14615
mce	14616
ssya	14617
kblb	14618
dyan	14619
iea	14620
iec	14621
umiy	14622
ragg	14623
ihuru	14624
kpc	14625
ultom	14626
ernu	14627
ernan	14628
ldwin	14629
tude	14630
pandj	14631
ardc	14632
ewang	14633
ewak	14634
ervan	14635
406	14636
ntuka	14637
uev	14638
erst	14639
ainur	14640
ainab	14641
nume	14642
eiver	14643
lpm	14644
esem	14645
que	14646
quil	14647
mdmb	14648
ugd	14649
ugun	14650
ugel	14651
hatt	14652
uwun	14653
lemat	14654
dulur	14655
kulon	14656
iesa	14657
ellen	14658
ltc	14659
ltek	14660
maria	14661
empar	14662
mora	14663
achs	14664
eebot	14665
earce	14666
bais	14667
akpi	14668
sambi	14669
idem	14670
ishol	14671
lero	14672
iauw	14673
uigi	14674
eau	14675
eac	14676
wide	14677
doks	14678
tkins	14679
rajai	14680
ikov	14681
likin	14682
srul	14683
xie	14684
##the	14685
wear	14686
week	14687
aiton	14688
krov	14689
aspi	14690
asper	14691
astil	14692
uanu	14693
potek	14694
ttaqi	14695
erpes	14696
bnp	14697
bnc	14698
edec	14699
yapar	14700
llis	14701
lling	14702
lldi	14703
352	14704
billa	14705
aido	14706
aidir	14707
retc	14708
urod	14709
rrc	14710
rron	14711
ktora	14712
hyte	14713
bdh	14714
ashin	14715
oory	14716
oorz	14717
nhs	14718
umpin	14719
naif	14720
singa	14721
ttl	14722
autp	14723
nasib	14724
amiy	14725
mrih	14726
ault	14727
321	14728
uday	14729
tipan	14730
bmx	14731
maray	14732
sburg	14733
imant	14734
451	14735
453	14736
tale	14737
mmc	14738
iasih	14739
xxv	14740
arlus	14741
athlo	14742
athry	14743
346	14744
himo	14745
oif	14746
pmj	14747
pmt	14748
eusal	14749
ysk	14750
erby	14751
gory	14752
ixing	14753
gpt	14754
751	14755
kotta	14756
333	14757
381	14758
snulk	14759
euta	14760
aaf	14761
kolai	14762
dst	14763
tsg	14764
afie	14765
afiya	14766
saic	14767
leno	14768
llie	14769
lawak	14770
aos	14771
arjee	14772
crb	14773
army	14774
armas	14775
mlet	14776
nning	14777
wista	14778
ikrw	14779
avior	14780
416	14781
ockt	14782
issf	14783
ujat	14784
399	14785
435	14786
434	14787
hayul	14788
ntoro	14789
arino	14790
514	14791
rboy	14792
580	14793
mzami	14794
hoax	14795
524	14796
470	14797
alodo	14798
pwm	14799
560	14800
unyi	14801
firm	14802
ndez	14803
arnet	14804
axy	14805
axde	14806
mhdi	14807
ggl	14808
itss	14809
aisy	14810
aisal	14811
lifah	14812
almas	14813
rfk	14814
634	14815
950	14816
ipper	14817
490	14818
493	14819
brins	14820
680	14821
gsm	14822
gsx	14823
mflet	14824
home	14825
olyer	14826
cngr	14827
mappi	14828
urkh	14829
esenn	14830
nside	14831
http	14832
fsel	14833
tterf	14834
770	14835
hetty	14836
lavia	14837
icjr	14838
698	14839
##que	14840
dadap	14841
hbkn	14842
ptsp	14843
hdl	14844
kkpd	14845
s24	14846
york	14847
irmir	14848
dtks	14849
fnf	14850
taqim	14851
cgt	14852
halia	14853
ayyed	14854
dhie	14855
jfc	14856
tjm	14857
ymer	14858
fmcg	14859
llov	14860
gayam	14861
cbd	14862
aicin	14863
eisa	14864
eiss	14865
xl7	14866
iisf	14867
iisma	14868
gnosa	14869
eutan	14870
arvis	14871
ttew	14872
wtn	14873
nyamp	14874
irajt	14875
003	14876
enbal	14877
xuan	14878
ykmi	14879
apmmi	14880
enjob	14881
bkov	14882
atsus	14883
nchc	14884
hafik	14885
mizu	14886
assio	14887
tayam	14888
yzr	14889
rabay	14890
phic	14891
wjis	14892
3rd	14893
hgn	14894
mekd	14895
arrow	14896
aigon	14897
mkota	14898
vll	14899
enzie	14900
zlur	14901
tebal	14902
ruyne	14903
omgom	14904
x70	14905
rtrw	14906
kshya	14907
finns	14908
cross	14909
sboi	14910
ubdat	14911
rjbbp	14912
htera	14913
kémon	14914
ánch	14915
ilsuf	14916
3k	14917
4x	14918
aai	14919
aini	14920
aver	14921
aaru	14922
b5	14923
bya	14924
bari	14925
bgr	14926
bpo	14927
blon	14928
bgs	14929
cso	14930
cbi	14931
cdp	14932
cair	14933
dcu	14934
e1	14935
epn	14936
eiko	14937
fom	14938
fim	14939
fmi	14940
fani	14941
fst	14942
fonso	14943
gü	14944
gila	14945
gha	14946
gpk	14947
gmb	14948
gumi	14949
gnyo	14950
hung	14951
hpa	14952
hlin	14953
hly	14954
hdin	14955
hdc	14956
ieh	14957
ient	14958
iade	14959
ioma	14960
jsi	14961
jlu	14962
jlo	14963
jpp	14964
jgc	14965
jht	14966
kika	14967
kji	14968
kli	14969
kde	14970
kmk	14971
kkep	14972
lse	14973
lono	14974
lcd	14975
mq	14976
mib	14977
mse	14978
maku	14979
mca	14980
mch	14981
mfe	14982
nup	14983
nka	14984
nid	14985
nsip	14986
npp	14987
nrc	14988
nido	14989
oit	14990
oala	14991
oses	14992
padi	14993
ptum	14994
qc	14995
qh	14996
qin	14997
r3	14998
rgas	14999
rdia	15000
rza	15001
rlo	15002
ramb	15003
rera	15004
sgi	15005
sati	15006
sso	15007
sind	15008
soma	15009
tse	15010
tine	15011
uari	15012
uus	15013
ues	15014
uita	15015
ujak	15016
utif	15017
vd	15018
vc	15019
vab	15020
wuh	15021
wha	15022
wbn	15023
wco	15024
wtc	15025
xc	15026
xing	15027
xpl	15028
yab	15029
yup	15030
yte	15031
yba	15032
ych	15033
ykp	15034
ybe	15035
ybm	15036
yeth	15037
zm	15038
zard	15039
ön	15040
##jf	15041
##jen	15042
##jad	15043
##nn	15044
##dan	15045
##dah	15046
##ef	15047
##fs	15048
##fc	15049
##ll	15050
##bh	15051
##bee	15052
##kl	15053
##sm	15054
##sen	15055
##rb	15056
##yuh	15057
##qr	15058
##xu	15059
##ín	15060
anada	15061
anro	15062
anzer	15063
##ert	15064
##are	15065
diang	15066
diana	15067
##ash	15068
##ahn	15069
seda	15070
seso	15071
mee	15072
##amy	15073
inw	15074
inari	15075
inza	15076
inot	15077
##sie	15078
peer	15079
dand	15080
dante	15081
unut	15082
untar	15083
kani	15084
##une	15085
ngol	15086
erel	15087
erok	15088
erabu	15089
erong	15090
ertak	15091
teel	15092
tiq	15093
tium	15094
kod	15095
kog	15096
kool	15097
kojan	15098
akon	15099
aron	15100
arnya	15101
arba	15102
arni	15103
arch	15104
arred	15105
aln	15106
alb	15107
alul	15108
alte	15109
alli	15110
alolo	15111
##uma	15112
entuh	15113
entim	15114
baa	15115
baab	15116
bajc	15117
mbani	15118
mbine	15119
##tit	15120
##tir	15121
sail	15122
savi	15123
amn	15124
amus	15125
amor	15126
amla	15127
amuh	15128
amos	15129
ammu	15130
amhar	15131
adh	15132
ahur	15133
ahita	15134
ahila	15135
olte	15136
olle	15137
olino	15138
lava	15139
newa	15140
apr	15141
apok	15142
siw	15143
isuk	15144
isca	15145
asg	15146
astu	15147
asai	15148
asnim	15149
ntil	15150
ntek	15151
##ult	15152
tagi	15153
taco	15154
taaf	15155
ndono	15156
ndoro	15157
orab	15158
orba	15159
orrea	15160
orme	15161
oreno	15162
atz	15163
atte	15164
atsy	15165
njani	15166
njop	15167
ems	15168
emura	15169
indh	15170
indur	15171
mpeng	15172
elw	15173
elata	15174
elder	15175
ley	15176
lead	15177
lela	15178
letuh	15179
leted	15180
lease	15181
riba	15182
riza	15183
pemko	15184
user	15185
usara	15186
usra	15187
ussa	15188
umri	15189
umbi	15190
karo	15191
karah	15192
karut	15193
req	15194
reah	15195
reya	15196
ukl	15197
urf	15198
urda	15199
urza	15200
urget	15201
ingxu	15202
ilsi	15203
ilpa	15204
##tec	15205
take	15206
itj	15207
itol	15208
ittim	15209
naa	15210
najat	15211
ikj	15212
ikk	15213
ikta	15214
ikih	15215
ikud	15216
ikip	15217
ikrak	15218
roi	15219
roun	15220
rout	15221
roke	15222
rode	15223
rozi	15224
rowo	15225
ropos	15226
idp	15227
idl	15228
idon	15229
idit	15230
idel	15231
idpro	15232
onko	15233
onot	15234
ekono	15235
ekey	15236
jack	15237
javik	15238
iml	15239
imon	15240
imei	15241
imchi	15242
imén	15243
ants	15244
antr	15245
antat	15246
asion	15247
mae	15248
pob	15249
pox	15250
agp	15251
agb	15252
agong	15253
comte	15254
harv	15255
harge	15256
abf	15257
abt	15258
abur	15259
abih	15260
abir	15261
abra	15262
abeka	15263
utk	15264
utm	15265
utam	15266
uteng	15267
utor	15268
utch	15269
utry	15270
stt	15271
stp	15272
stq	15273
tuta	15274
dee	15275
deg	15276
okd	15277
rae	15278
kuy	15279
ampea	15280
ulya	15281
ulon	15282
ulip	15283
kac	15284
tradi	15285
trong	15286
ncb	15287
bell	15288
jake	15289
egen	15290
egla	15291
egul	15292
luet	15293
edah	15294
eding	15295
edong	15296
edge	15297
grs	15298
grade	15299
udur	15300
udet	15301
udruk	15302
bucha	15303
omk	15304
omer	15305
irn	15306
ires	15307
irca	15308
irch	15309
irami	15310
irth	15311
muf	15312
muat	15313
muara	15314
rby	15315
hand	15316
hanu	15317
hank	15318
hanus	15319
hanbe	15320
ups	15321
upri	15322
mila	15323
pace	15324
acon	15325
pendu	15326
mant	15327
hawn	15328
lov	15329
loha	15330
loli	15331
ayn	15332
ayden	15333
nous	15334
waka	15335
ambe	15336
ubai	15337
ubir	15338
ubov	15339
nami	15340
namo	15341
namit	15342
bagia	15343
dav	15344
dawar	15345
mous	15346
esas	15347
esco	15348
esday	15349
andun	15350
andha	15351
andru	15352
bop	15353
bolo	15354
gaung	15355
gaard	15356
ebal	15357
ebir	15358
ebek	15359
hall	15360
halal	15361
pilot	15362
patti	15363
patri	15364
iaji	15365
chy	15366
chini	15367
chip	15368
suf	15369
sui	15370
ture	15371
rtmm	15372
tou	15373
tobi	15374
anje	15375
icul	15376
ichi	15377
etneg	15378
maru	15379
marco	15380
guana	15381
puyuh	15382
sob	15383
sole	15384
sojo	15385
rst	15386
rspp	15387
opon	15388
oppa	15389
nyl	15390
nyele	15391
afm	15392
afur	15393
afira	15394
hola	15395
hoff	15396
ariat	15397
##rew	15398
##haf	15399
yant	15400
osie	15401
bijb	15402
nias	15403
rpi	15404
rp9	15405
rpong	15406
ibd	15407
ibal	15408
ibir	15409
iberi	15410
ibyo	15411
ibof	15412
muljo	15413
gelan	15414
krut	15415
wolv	15416
ksma	15417
ppf	15418
ppeng	15419
ppbk	15420
ranny	15421
wasum	15422
epp	15423
epte	15424
eptic	15425
rimau	15426
ptsi	15427
ptni	15428
ptdi	15429
aragi	15430
araco	15431
ucl	15432
fosu	15433
irid	15434
spd	15435
spil	15436
spsk	15437
wao	15438
waja	15439
nfe	15440
nfp	15441
jani	15442
hic	15443
hiy	15444
hiek	15445
rner	15446
rkt	15447
rdner	15448
nera	15449
geni	15450
gente	15451
obb	15452
obang	15453
anct	15454
doh	15455
thk	15456
thon	15457
thla	15458
thra	15459
thane	15460
henu	15461
cox	15462
khl	15463
khon	15464
khber	15465
khona	15466
khlis	15467
ifari	15468
ifra	15469
iffa	15470
ifls	15471
ompak	15472
ceu	15473
cepa	15474
ciu	15475
meson	15476
ratul	15477
hidi	15478
haki	15479
lamr	15480
ajp	15481
ajih	15482
ajulu	15483
alium	15484
rapu	15485
rapuh	15486
osd	15487
oska	15488
nshor	15489
miun	15490
evc	15491
nare	15492
feod	15493
rios	15494
rahi	15495
fica	15496
fizer	15497
etia	15498
toria	15499
shita	15500
shore	15501
rgok	15502
joy	15503
joo	15504
jambi	15505
entjo	15506
pbj	15507
rinc	15508
tekni	15509
lesat	15510
hemi	15511
heff	15512
june	15513
junot	15514
atic	15515
otw	15516
otm	15517
adiz	15518
klj	15519
malas	15520
riso	15521
risan	15522
riska	15523
ramba	15524
dame	15525
nath	15526
natch	15527
aiz	15528
aifa	15529
lassc	15530
fill	15531
fax	15532
faur	15533
music	15534
ivy	15535
ivine	15536
ivpro	15537
putr	15538
putih	15539
jarn	15540
jarin	15541
gea	15542
gear	15543
gesi	15544
ejen	15545
ejeu	15546
syr	15547
syan	15548
syid	15549
balun	15550
azwa	15551
azed	15552
theus	15553
ofya	15554
igt	15555
igel	15556
iggo	15557
##oth	15558
temon	15559
uage	15560
darto	15561
beac	15562
roye	15563
yuan	15564
aruq	15565
kirc	15566
dran	15567
drat	15568
imbus	15569
ioso	15570
ioci	15571
golan	15572
ohom	15573
erie	15574
embal	15575
rasat	15576
sikal	15577
cate	15578
edio	15579
rifi	15580
riffi	15581
yarar	15582
kabi	15583
oeda	15584
hitam	15585
arise	15586
164	15587
wateh	15588
uriga	15589
iard	15590
iarsa	15591
wub	15592
bbie	15593
fine	15594
briz	15595
allis	15596
estas	15597
estha	15598
255	15599
ruti	15600
aub	15601
auer	15602
setan	15603
ogin	15604
ogad	15605
olken	15606
hutd	15607
play	15608
adeg	15609
adewo	15610
buste	15611
avr	15612
avin	15613
avia	15614
khusu	15615
odet	15616
swamy	15617
owl	15618
owing	15619
bunut	15620
pnn	15621
bpc	15622
bpmi	15623
phy	15624
195	15625
ince	15626
ehar	15627
ehem	15628
oce	15629
ochi	15630
nkud	15631
pjj	15632
234	15633
inema	15634
215	15635
limer	15636
salat	15637
netas	15638
ridh	15639
ridha	15640
scb	15641
usit	15642
randu	15643
##yod	15644
##sop	15645
smc	15646
smal	15647
smid	15648
smos	15649
264	15650
281	15651
raft	15652
ntou	15653
eys	15654
eyan	15655
eyun	15656
ague	15657
orov	15658
madol	15659
eney	15660
uzul	15661
ataru	15662
kurir	15663
ooh	15664
ooga	15665
bono	15666
ienda	15667
ortg	15668
292	15669
296	15670
tiss	15671
ouyin	15672
utul	15673
ezz	15674
cket	15675
garin	15676
mct	15677
mcb	15678
ssam	15679
ssina	15680
ssure	15681
ankar	15682
kbi	15683
kbb	15684
iela	15685
nake	15686
naked	15687
zaw	15688
smay	15689
grow	15690
lmdh	15691
iham	15692
ihil	15693
ihran	15694
ccc	15695
316	15696
ernam	15697
lds	15698
lder	15699
ardja	15700
andry	15701
nvas	15702
onac	15703
sriz	15704
umsum	15705
lumun	15706
eraca	15707
tirto	15708
pekat	15709
iall	15710
esil	15711
ftc	15712
runch	15713
hipp	15714
mire	15715
eliti	15716
ainy	15717
ditya	15718
eiza	15719
eiyai	15720
lpt	15721
lpai	15722
agau	15723
nisla	15724
roma	15725
ugen	15726
ugby	15727
uguna	15728
hatra	15729
kind	15730
uwks	15731
pedes	15732
olif	15733
bler	15734
ogota	15735
anjay	15736
yatno	15737
dhs	15738
dhita	15739
alep	15740
achai	15741
awau	15742
lfp	15743
ktis	15744
orio	15745
iveaw	15746
ritt	15747
idey	15748
store	15749
drop	15750
drofa	15751
ishu	15752
ishri	15753
ishim	15754
mspp	15755
sutt	15756
eaven	15757
itez	15758
itemi	15759
pdm	15760
gadu	15761
ripto	15762
arkah	15763
dokan	15764
kopen	15765
sadh	15766
medya	15767
hmy	15768
##bie	15769
acken	15770
rost	15771
kkss	15772
vend	15773
vens	15774
likf	15775
srun	15776
csv	15777
wec	15778
weat	15779
aspol	15780
umbat	15781
ayane	15782
potv	15783
mbuun	15784
assy	15785
arosa	15786
hron	15787
llm	15788
355	15789
ijti	15790
flpp	15791
bilt	15792
light	15793
rett	15794
rets	15795
709	15796
fanu	15797
gnum	15798
gnit	15799
bdd	15800
spay	15801
dahar	15802
rpool	15803
oyud	15804
oyle	15805
yec	15806
yech	15807
ttg	15808
tty	15809
tting	15810
ndojo	15811
dmt	15812
lva	15813
lvis	15814
nzone	15815
326	15816
psmti	15817
reem	15818
bmri	15819
mandu	15820
cont	15821
site	15822
hinda	15823
hinji	15824
cors	15825
lsf	15826
lsp	15827
sbd	15828
sbuk	15829
stow	15830
stodi	15831
pltm	15832
giro	15833
kaki	15834
nceuy	15835
aunan	15836
nifes	15837
carl	15838
cars	15839
appd	15840
appen	15841
appsi	15842
ather	15843
dria	15844
alest	15845
341	15846
tyro	15847
mosk	15848
chem	15849
oic	15850
detta	15851
letin	15852
uyu	15853
uyar	15854
uyun	15855
tcl	15856
yssen	15857
758	15858
egaf	15859
ghz	15860
ghal	15861
384	15862
388	15863
aafi	15864
tuke	15865
kolak	15866
kjp	15867
kjpp	15868
alsy	15869
ylpk	15870
icao	15871
lkat	15872
lawit	15873
steam	15874
ngoi	15875
fugal	15876
mlbb	15877
nnur	15878
zech	15879
mpiad	15880
fkg	15881
fkm	15882
fkkb	15883
gnifi	15884
clas	15885
sandy	15886
avig	15887
avies	15888
415	15889
419	15890
ipac	15891
aath	15892
gkg	15893
gky	15894
gyu	15895
mtm	15896
395	15897
390	15898
ddad	15899
kdk	15900
kdek	15901
atako	15902
441	15903
haid	15904
436	15905
ynd	15906
rauw	15907
egovy	15908
hkbp	15909
hrie	15910
npci	15911
lidah	15912
bloc	15913
kids	15914
wayh	15915
wayne	15916
kipas	15917
516	15918
cmo	15919
583	15920
588	15921
pdtg	15922
seiv	15923
cvt	15924
kcbn	15925
ydba	15926
hlis	15927
hlor	15928
ilux	15929
iluet	15930
ofie	15931
ofial	15932
fgs	15933
amoa	15934
unyit	15935
alkul	15936
erhad	15937
gmc	15938
gitaf	15939
540	15940
emef	15941
aisei	15942
jonk	15943
467	15944
538	15945
mnan	15946
judo	15947
niex	15948
725	15949
nindo	15950
mfort	15951
jrf	15952
ttod	15953
cfcd	15954
yptec	15955
saso	15956
593	15957
cnqc	15958
ahier	15959
ookie	15960
677	15961
nabis	15962
ousa	15963
lavin	15964
tazah	15965
nsee	15966
macb	15967
ouméa	15968
vill	15969
gwh	15970
giha	15971
vonne	15972
mbler	15973
ksei	15974
cular	15975
hdan	15976
ppham	15977
rzan	15978
nipah	15979
extg	15980
usodo	15981
pvris	15982
ildli	15983
lafon	15984
ilyet	15985
cgk	15986
bpjt	15987
itted	15988
eeraj	15989
hjb	15990
idden	15991
iddah	15992
bbpjn	15993
aquin	15994
jf3	15995
cines	15996
refo	15997
azio	15998
cbr	15999
wsj	16000
wsl	16001
oksif	16002
yafir	16003
uffet	16004
djpl	16005
lpdb	16006
shemi	16007
nguis	16008
blkk	16009
ittah	16010
eill	16011
mjf	16012
usmao	16013
heula	16014
agreb	16015
etrum	16016
anfat	16017
hrop	16018
zamy	16019
rsjd	16020
sbie	16021
ybak	16022
ydrop	16023
luxee	16024
guys	16025
p2p	16026
reoc	16027
wjnc	16028
lacka	16029
mooth	16030
hofar	16031
zalim	16032
kajj	16033
kuban	16034
nohok	16035
iipg	16036
raxis	16037
sohc	16038
gpii	16039
iabci	16040
ilyaw	16041
tobat	16042
cjr	16043
tocol	16044
eyaa	16045
adhav	16046
nativ	16047
agels	16048
awula	16049
fobia	16050
ifqin	16051
ytro	16052
zadeh	16053
ereow	16054
arlig	16055
rveda	16056
ympho	16057
arary	16058
muziy	16059
cptp	16060
cquel	16061
már	16062
saqib	16063
skhel	16064
jogja	16065
aaruf	16066
iomay	16067
oitte	16068
ybag	16069
ppbkc	16070
'.	16071
7s	16072
??	16073
aama	16074
auri	16075
auro	16076
bti	16077
bsa	16078
bgp	16079
bth	16080
c5	16081
cz	16082
c4	16083
c7	16084
cng	16085
czi	16086
cumi	16087
ceno	16088
dq	16089
dre	16090
dca	16091
ddo	16092
dgb	16093
dxi	16094
euk	16095
eans	16096
eump	16097
eind	16098
eito	16099
eite	16100
fen	16101
feng	16102
fasa	16103
fdi	16104
fca	16105
ftuh	16106
fair	16107
fdh	16108
fmd	16109
fjb	16110
gc	16111
gla	16112
gdo	16113
hq	16114
hti	16115
hsk	16116
i5	16117
iok	16118
jali	16119
jpe	16120
jth	16121
jfa	16122
jira	16123
jpt	16124
jbl	16125
jcs	16126
k9	16127
kö	16128
kgi	16129
kpa	16130
lgi	16131
lwa	16132
lala	16133
lno	16134
lco	16135
m1	16136
mé	16137
mih	16138
mua	16139
mhi	16140
mho	16141
mjs	16142
nine	16143
nqu	16144
nmax	16145
oï	16146
oiri	16147
ogab	16148
ozy	16149
oome	16150
pga	16151
ptor	16152
pmb	16153
q3	16154
qq	16155
qing	16156
qih	16157
r2	16158
rê	16159
rer	16160
rala	16161
rtim	16162
r15	16163
ssia	16164
stif	16165
snu	16166
sfi	16167
sgs	16168
squ	16169
t1	16170
t2	16171
tada	16172
tju	16173
talah	16174
tko	16175
tmk	16176
tbp	16177
uor	16178
ued	16179
vaya	16180
vts	16181
wun	16182
wok	16183
wong	16184
wvi	16185
wpc	16186
xan	16187
yih	16188
ygi	16189
yet	16190
ypk	16191
yza	16192
yth	16193
yone	16194
ycle	16195
zn	16196
zro	16197
zami	16198
zhu	16199
zmy	16200
zmin	16201
âts	16202
ñaki	16203
ós	16204
úñ	16205
ünc	16206
##fri	16207
##vrl	16208
##ig	16209
##iga	16210
##tes	16211
##lc	16212
##ban	16213
##gn	16214
##cb	16215
##cik	16216
##yk	16217
##oc	16218
##40	16219
##qva	16220
##xa	16221
##ás	16222
##ür	16223
##âil	16224
##ão	16225
anad	16226
anama	16227
anom	16228
aneh	16229
anrea	16230
anlan	16231
anrau	16232
dito	16233
diol	16234
disip	16235
sey	16236
seur	16237
seok	16238
seke	16239
selu	16240
selo	16241
meas	16242
mech	16243
meulu	16244
kejar	16245
##amm	16246
inl	16247
inin	16248
inong	16249
inett	16250
ineko	16251
innea	16252
peko	16253
pepi	16254
##tax	16255
unf	16256
unin	16257
unus	16258
unsa	16259
ngak	16260
ngul	16261
erz	16262
eroro	16263
teki	16264
koi	16265
kora	16266
kook	16267
koto	16268
kohat	16269
koli	16270
akn	16271
akb	16272
akka	16273
akhi	16274
akumi	16275
arata	16276
arja	16277
arati	16278
arani	16279
arst	16280
angry	16281
##ush	16282
alun	16283
alup	16284
allu	16285
aleo	16286
alme	16287
enadi	16288
enzy	16289
enhur	16290
bao	16291
##org	16292
##esa	16293
mbur	16294
mbata	16295
mbra	16296
mbip	16297
##tiv	16298
sach	16299
amti	16300
amame	16301
adp	16302
adut	16303
adok	16304
adet	16305
penta	16306
aher	16307
ahut	16308
ahuri	16309
olana	16310
olfie	16311
olmet	16312
lao	16313
lax	16314
laik	16315
nei	16316
pr1	16317
prc	16318
pring	16319
prcs	16320
ituan	16321
apl	16322
apti	16323
apit	16324
apul	16325
appo	16326
apfi	16327
apfa	16328
siti	16329
isin	16330
isad	16331
isus	16332
isek	16333
isch	16334
isps	16335
ispos	16336
asm	16337
asam	16338
asina	16339
asgo	16340
aseo	16341
maste	16342
tazi	16343
ndya	16344
ndum	16345
ndor	16346
ndel	16347
ndana	16348
ndjar	16349
ndapa	16350
ndner	16351
ndful	16352
##gic	16353
orca	16354
atf	16355
atto	16356
atol	16357
athi	16358
ataka	16359
njak	16360
emab	16361
emala	16362
indes	16363
mpc	16364
mpx	16365
mpis	16366
elus	16367
elka	16368
elmi	16369
elfi	16370
elmet	16371
elmus	16372
lez	16373
leen	16374
rix	16375
riwa	16376
riani	16377
##ria	16378
usya	16379
ushan	16380
usqva	16381
seban	16382
umg	16383
umos	16384
kars	16385
ukp	16386
ukat	16387
ukut	16388
ukom	16389
ukber	16390
ukhir	16391
ukod	16392
ukitt	16393
urik	16394
urja	16395
urman	16396
ingbo	16397
tahi	16398
ils	16399
ilen	16400
ildi	16401
ildh	16402
##tet	16403
itari	16404
itto	16405
itpc	16406
nac	16407
naud	16408
ikil	16409
ikari	16410
beh	16411
roo	16412
rox	16413
roek	16414
rover	16415
roho	16416
roep	16417
idab	16418
idika	16419
idori	16420
idair	16421
onar	16422
onti	16423
onit	16424
jax	16425
jaff	16426
imsa	16427
imetr	16428
antja	16429
antra	16430
pou	16431
poce	16432
poile	16433
ags	16434
agas	16435
agin	16436
agun	16437
agde	16438
intin	16439
liya	16440
lija	16441
lidi	16442
aben	16443
absi	16444
abib	16445
ablu	16446
utc	16447
utas	16448
utak	16449
utom	16450
utto	16451
utha	16452
atug	16453
stahn	16454
bare	16455
adaa	16456
adav	16457
nggis	16458
nggol	16459
nggot	16460
okas	16461
okes	16462
okir	16463
okko	16464
oklat	16465
banc	16466
raer	16467
awer	16468
awut	16469
awung	16470
ulad	16471
ules	16472
ullo	16473
ulva	16474
atai	16475
kaina	16476
trun	16477
trum	16478
ncw	16479
ncent	16480
belu	16481
bison	16482
##ide	16483
##idz	16484
egum	16485
luw	16486
luge	16487
lucut	16488
komah	16489
udya	16490
uding	16491
udza	16492
udge	16493
udato	16494
bug	16495
buaya	16496
prey	16497
iret	16498
irdi	16499
irani	16500
irho	16501
rbore	16502
hano	16503
hanto	16504
upk	16505
up3	16506
upuh	16507
mill	16508
hasis	16509
senta	16510
sento	16511
acm	16512
acla	16513
acca	16514
manyu	16515
##ped	16516
ianc	16517
ianka	16518
ianni	16519
##bay	16520
haff	16521
haert	16522
lod	16523
lou	16524
loto	16525
lody	16526
lojen	16527
ayr	16528
ayas	16529
ayes	16530
ayuh	16531
ayet	16532
ayton	16533
noz	16534
nofi	16535
nost	16536
kery	16537
##puc	16538
wakum	16539
ambas	16540
dawi	16541
ruya	16542
rugs	16543
ruci	16544
moc	16545
mowa	16546
eski	16547
esna	16548
estur	16549
esca	16550
esza	16551
esch	16552
andes	16553
andra	16554
andyo	16555
boo	16556
bodo	16557
boyan	16558
pund	16559
gaco	16560
lamay	16561
ebs	16562
ebum	16563
hale	16564
halm	16565
kasy	16566
patah	16567
ched	16568
sugi	16569
laten	16570
rtk	16571
rts	16572
rtin	16573
rtil	16574
rtati	16575
rtjo	16576
konas	16577
ici	16578
ical	16579
icin	16580
icca	16581
ets	16582
etc	16583
make	16584
marh	16585
marta	16586
guan	16587
suri	16588
sof	16589
soi	16590
soul	16591
soet	16592
soli	16593
sopot	16594
rsal	16595
rssi	16596
rslan	16597
opal	16598
opma	16599
opda	16600
opper	16601
desk	16602
desso	16603
dpi	16604
dpsp	16605
afr	16606
afit	16607
pane	16608
panem	16609
##kow	16610
huy	16611
huang	16612
biak	16613
airat	16614
nium	16615
nion	16616
lahat	16617
giar	16618
rpk	16619
rp8	16620
ibb	16621
ibs	16622
ibis	16623
ibanc	16624
mulk	16625
mulas	16626
##pkp	16627
hampa	16628
ipri	16629
ipto	16630
iphi	16631
butar	16632
isir	16633
lihah	16634
kspi	16635
ksaka	16636
ppl	16637
ppb	16638
ppet	16639
pphir	16640
ppdi	16641
ranth	16642
uhamm	16643
epus	16644
eppd	16645
yafei	16646
ptek	16647
ptba	16648
yoo	16649
yogi	16650
ucur	16651
foot	16652
yaki	16653
spen	16654
spab	16655
spcg	16656
spog	16657
elau	16658
nfl	16659
nfc	16660
janov	16661
hiff	16662
##rot	16663
rnc	16664
##dex	16665
rkb	16666
foro	16667
skar	16668
skaya	16669
onger	16670
stral	16671
rdg	16672
rder	16673
rdil	16674
rdni	16675
rdtr	16676
rdli	16677
rdhan	16678
nanga	16679
obk	16680
oben	16681
oble	16682
dop	16683
doso	16684
thet	16685
kebut	16686
batc	16687
riko	16688
linan	16689
linha	16690
coton	16691
khr	16692
khas	16693
khrau	16694
ifp	16695
ifk	16696
ifw	16697
ifc	16698
iffe	16699
ifrs	16700
inac	16701
ceb	16702
ciei	16703
mesco	16704
ratt	16705
ajos	16706
duc	16707
oser	16708
osus	16709
nsc	16710
nsada	16711
nsel	16712
nsha	16713
nstax	16714
mio	16715
wanua	16716
anau	16717
fiata	16718
laksi	16719
cao	16720
shen	16721
sheng	16722
shari	16723
shasa	16724
shem	16725
##lee	16726
jaman	16727
russ	16728
entre	16729
pbl	16730
ecus	16731
ecno	16732
ecru	16733
tekin	16734
lesh	16735
eft	16736
efusa	16737
heuk	16738
heit	16739
heune	16740
lenge	16741
klam	16742
risl	16743
risak	16744
risna	16745
natha	16746
aida	16747
lasti	16748
laste	16749
lasma	16750
ilima	16751
jiwo	16752
meier	16753
psf	16754
psos	16755
ivu	16756
ivil	16757
ivek	16758
ize	16759
izz	16760
izam	16761
izon	16762
ejcik	16763
syi	16764
azu	16765
azo	16766
azan	16767
exa	16768
exp	16769
thea	16770
ofc	16771
ofía	16772
bidi	16773
igce	16774
temin	16775
temeh	16776
uae	16777
utic	16778
utim	16779
utiqu	16780
pif	16781
piye	16782
picy	16783
royo	16784
yuana	16785
yugo	16786
itau	16787
antit	16788
ukuf	16789
drul	16790
drom	16791
arep	16792
rony	16793
ajie	16794
ajiun	16795
rmer	16796
tivit	16797
iif	16798
cals	16799
khach	16800
artan	16801
rash	16802
rasar	16803
rasun	16804
pella	16805
tpf	16806
tppk	16807
tpip	16808
matul	16809
matsu	16810
norc	16811
oei	16812
rcam	16813
rcmp	16814
bash	16815
basan	16816
166	16817
sden	16818
sdkp	16819
wato	16820
kuma	16821
kumul	16822
mito	16823
iarso	16824
bbard	16825
allup	16826
allet	16827
kyc	16828
kyat	16829
259	16830
aux	16831
fford	16832
ffrey	16833
189	16834
ogg	16835
ogel	16836
ganek	16837
tesy	16838
tesha	16839
176	16840
urate	16841
della	16842
huto	16843
fcc	16844
rilya	16845
adei	16846
atee	16847
nahko	16848
hern	16849
ilea	16850
iley	16851
gible	16852
bkad	16853
##fee	16854
amine	16855
avan	16856
aven	16857
avada	16858
aves	16859
avir	16860
avina	16861
iyo	16862
iyal	16863
libu	16864
ncos	16865
point	16866
odd	16867
swati	16868
ower	16869
bune	16870
post	16871
bpih	16872
php	16873
pheri	16874
197	16875
229	16876
ehe	16877
ehati	16878
ehler	16879
oci	16880
oct	16881
ocke	16882
nks	16883
nkes	16884
231	16885
218	16886
scgp	16887
scop	16888
djs	16889
djat	16890
djkn	16891
##lyn	16892
laro	16893
larke	16894
nona	16895
akiti	16896
mkas	16897
randt	16898
##you	16899
smu	16900
smed	16901
smona	16902
smith	16903
265	16904
269	16905
289	16906
287	16907
enau	16908
ntoyo	16909
eyot	16910
cula	16911
sler	16912
sland	16913
slhs	16914
tfg	16915
telan	16916
enea	16917
uzza	16918
uzow	16919
arcía	16920
mudya	16921
ortas	16922
291	16923
295	16924
orep	16925
ouye	16926
itih	16927
tlkm	16928
ezv	16929
ezin	16930
mco	16931
mchat	16932
ssy	16933
ssing	16934
ankor	16935
kbmi	16936
iex	16937
walil	16938
pkbsi	16939
ours	16940
lisat	16941
smawi	16942
ihn	16943
ihe	16944
ihun	16945
kpl	16946
kppn	16947
kpid	16948
kpbu	16949
kpdj	16950
##box	16951
wilan	16952
kupas	16953
ccl	16954
317	16955
lded	16956
amec	16957
rizre	16958
itoe	16959
itop	16960
stiko	16961
bytes	16962
htp	16963
htw	16964
kmin	16965
rokah	16966
ews	16967
ewo	16968
nanah	16969
erval	16970
lumen	16971
401	16972
405	16973
404	16974
uthak	16975
erag	16976
ueer	16977
ftth	16978
stit	16979
pkss	16980
rund	16981
ersat	16982
elix	16983
ditan	16984
eiji	16985
lpj	16986
lphi	16987
agap	16988
iqri	16989
mdma	16990
romb	16991
logg	16992
uasan	16993
lunt	16994
tafas	16995
peth	16996
uwe	16997
armac	16998
tvi	16999
gray	17000
dulli	17001
trea	17002
kulo	17003
pidi	17004
pidna	17005
iref	17006
irew	17007
ireun	17008
iese	17009
iest	17010
iesta	17011
ellas	17012
ellit	17013
lthaf	17014
dhâil	17015
alea	17016
mort	17017
achar	17018
awaz	17019
slav	17020
dalus	17021
mboto	17022
ktan	17023
ktari	17024
agea	17025
msd	17026
lert	17027
korn	17028
uice	17029
uijs	17030
uiii	17031
ea7	17032
bsc	17033
pdc	17034
usev	17035
riput	17036
rippp	17037
arkas	17038
erui	17039
medy	17040
hmm	17041
rdiy	17042
ackin	17043
gale	17044
rosc	17045
rosse	17046
tkg	17047
rajek	17048
sirun	17049
venel	17050
css	17051
pito	17052
weiss	17053
iamik	17054
moni	17055
monie	17056
nesya	17057
neska	17058
ktail	17059
dwin	17060
kruf	17061
astis	17062
ledon	17063
hird	17064
hirt	17065
hiro	17066
assan	17067
assam	17068
arov	17069
hrun	17070
hrus	17071
bns	17072
bnpl	17073
omag	17074
lomi	17075
cokol	17076
353	17077
356	17078
ijd	17079
ijt	17080
ijal	17081
ijjar	17082
fard	17083
bill	17084
hnom	17085
lobet	17086
aidu	17087
aidar	17088
rvm	17089
arges	17090
entut	17091
uroh	17092
uroz	17093
rram	17094
rrap	17095
gnrm	17096
orant	17097
bds	17098
spain	17099
daho	17100
nhm	17101
oyc	17102
oyuz	17103
untd	17104
dudu	17105
dll	17106
##fic	17107
knek	17108
nais	17109
sino	17110
lehem	17111
ndout	17112
dmd	17113
dmz	17114
mrr	17115
aulo	17116
aulah	17117
aulle	17118
lvri	17119
325	17120
323	17121
328	17122
shio	17123
reez	17124
bmj	17125
bmm	17126
hinc	17127
hinzo	17128
lsen	17129
lsam	17130
sbw	17131
sbro	17132
niaty	17133
kgb	17134
kisa	17135
tall	17136
361	17137
367	17138
gira	17139
ersey	17140
mmr	17141
iasn	17142
aeltc	17143
appri	17144
oines	17145
drien	17146
drias	17147
gatti	17148
obos	17149
nadus	17150
pmn	17151
pmm	17152
eluga	17153
angau	17154
dcdc	17155
letra	17156
letse	17157
tcg	17158
tcr	17159
yst	17160
revet	17161
dorro	17162
gpr	17163
abian	17164
rsaw	17165
ghu	17166
331	17167
336	17168
385	17169
snwi	17170
mewah	17171
nell	17172
euer	17173
honi	17174
aag	17175
epanj	17176
diva	17177
kolas	17178
alsum	17179
ashif	17180
ksaan	17181
tsc	17182
ylan	17183
amdal	17184
ppks	17185
lksn	17186
metha	17187
iyau	17188
lene	17189
llip	17190
aoc	17191
aoh	17192
558	17193
crf	17194
cry	17195
zoda	17196
armah	17197
armin	17198
armou	17199
mlff	17200
undae	17201
375	17202
374	17203
nnon	17204
nneke	17205
zem	17206
eatle	17207
pure	17208
purpo	17209
fikom	17210
hpal	17211
azard	17212
glia	17213
gkj	17214
gkn	17215
gile	17216
iwn	17217
ullur	17218
orbid	17219
ujet	17220
mtb	17221
kiba	17222
ertz	17223
ertal	17224
ertek	17225
tnks	17226
jln	17227
jll	17228
jlis	17229
yiak	17230
449	17231
yneh	17232
yndi	17233
ynne	17234
tiao	17235
ntemo	17236
654	17237
aqqa	17238
428	17239
wais	17240
arras	17241
egoe	17242
hkn	17243
nkol	17244
smev	17245
ntac	17246
ntory	17247
lipar	17248
owns	17249
510	17250
cmj	17251
hunku	17252
ahay	17253
esky	17254
jkk	17255
jkm	17256
479	17257
kcl	17258
ydah	17259
ydit	17260
draw	17261
ukoyo	17262
fgm	17263
##sky	17264
firoh	17265
gml	17266
gmki	17267
ndey	17268
hrey	17269
okio	17270
colás	17271
543	17272
ggara	17273
nsaf	17274
aise	17275
460	17276
rfare	17277
onner	17278
uddy	17279
577	17280
ippur	17281
ubiy	17282
76d	17283
usss	17284
donna	17285
niny	17286
hsm	17287
641	17288
620	17289
uob	17290
ngham	17291
olyn	17292
670	17293
enzo	17294
ozzi	17295
ithra	17296
yrov	17297
usnil	17298
fpmm	17299
nsiv	17300
fsc	17301
799	17302
hujat	17303
rroh	17304
sfqr	17305
lavko	17306
870	17307
878	17308
bros	17309
broth	17310
ilkin	17311
747	17312
anwha	17313
aycan	17314
945	17315
eony	17316
nudc	17317
bpdlh	17318
mwh	17319
unhar	17320
960	17321
963	17322
jpw	17323
ouma	17324
oumea	17325
why	17326
yrsky	17327
##zov	17328
kpaid	17329
cyc	17330
ahrin	17331
oerj	17332
oere	17333
ikhin	17334
bubar	17335
avao	17336
rzet	17337
altc	17338
840	17339
834	17340
eidi	17341
lawiy	17342
cgbi	17343
kred	17344
usuma	17345
ayyeh	17346
hjks	17347
asbes	17348
iffer	17349
iffel	17350
udeg	17351
sgar	17352
erful	17353
aphrf	17354
unnah	17355
unnur	17356
bligh	17357
wsbk	17358
pknl	17359
ynos	17360
iplt	17361
bprs	17362
raven	17363
sheer	17364
sheva	17365
tmain	17366
rrach	17367
stise	17368
skkl	17369
oemar	17370
jtts	17371
cisdi	17372
riede	17373
nzein	17374
aedes	17375
volta	17376
zron	17377
issau	17378
asyar	17379
hfc	17380
nibal	17381
oulon	17382
titum	17383
jcw	17384
tsmc	17385
eruni	17386
isbon	17387
zhab	17388
annif	17389
001	17390
smbc	17391
bfm	17392
unex	17393
recis	17394
airiy	17395
sroom	17396
wkar	17397
jjc	17398
p21	17399
ytsia	17400
avys	17401
bazir	17402
sktt	17403
ypac	17404
leagu	17405
stomi	17406
ihaqi	17407
laude	17408
rfaan	17409
uerot	17410
apjii	17411
jitz	17412
ktual	17413
ktuba	17414
nthro	17415
gosok	17416
uzzle	17417
gmpi	17418
nnou	17419
pamaa	17420
ugem	17421
mekka	17422
ksbsi	17423
naloa	17424
edjoe	17425
odoru	17426
sbsn	17427
wimb	17428
neake	17429
pdfmi	17430
pltbg	17431
cibu	17432
molen	17433
kryd	17434
colao	17435
erlac	17436
algae	17437
neex	17438
graph	17439
irgah	17440
oftb	17441
hvdc	17442
ildeb	17443
itkom	17444
udhah	17445
rsmh	17446
aipor	17447
gzhou	17448
enrir	17449
opcw	17450
ouvre	17451
jmfw	17452
iurma	17453
jeste	17454
kzim	17455
rqam	17456
yogha	17457
hifla	17458
3kg	17459
fomc	17460
gül	17461
mibia	17462
ytech	17463
erelo	17464
rpiya	17465
gesik	17466
lcoa	17467
uorca	17468
âtsah	17469
úñiga	17470
rtjog	17471
cieie	17472
1a	17473
2x	17474
4k	17475
6x	17476
8th	17477
8rb	17478
aad	17479
aor	17480
aeh	17481
aaat	17482
bz	17483
b0	17484
bik	17485
balu	17486
bbu	17487
baku	17488
bha	17489
bno	17490
bmb	17491
bhan	17492
bfa	17493
bwu	17494
b40	17495
c2	17496
ceng	17497
ces	17498
cud	17499
csa	17500
cba	17501
ctor	17502
cans	17503
cno	17504
cbt	17505
dhir	17506
dve	17507
dzi	17508
eana	17509
eia	17510
euke	17511
equ	17512
eure	17513
fj	17514
f8	17515
fad	17516
fuk	17517
fel	17518
fab	17519
fasi	17520
fto	17521
fre	17522
fha	17523
fko	17524
fwi	17525
fru	17526
fmp	17527
fomo	17528
fumi	17529
foma	17530
feld	17531
gv	17532
gga	17533
gik	17534
gti	17535
gek	17536
geh	17537
gid	17538
gmk	17539
gons	17540
gest	17541
gsk	17542
gome	17543
hö	17544
hja	17545
hasa	17546
hda	17547
halu	17548
hse	17549
hba	17550
hsu	17551
h20	17552
hlos	17553
hán	17554
iil	17555
iit	17556
iul	17557
iud	17558
ilau	17559
jv	17560
jy	17561
jaha	17562
jmi	17563
jro	17564
jrc	17565
jiro	17566
jür	17567
kiki	17568
kko	17569
ktar	17570
ktur	17571
kdo	17572
kfa	17573
lpn	17574
laha	17575
lpat	17576
lzi	17577
lrey	17578
lsem	17579
mha	17580
mmb	17581
moko	17582
mcu	17583
mly	17584
mgp	17585
nq	17586
nini	17587
nade	17588
npi	17589
nps	17590
oai	17591
oung	17592
oeri	17593
ogu	17594
owi	17595
oera	17596
ogal	17597
ozi	17598
oena	17599
oike	17600
pz	17601
pnas	17602
pade	17603
ql	17604
qari	17605
qwa	17606
qom	17607
qma	17608
qba	17609
qoh	17610
rsia	17611
rbu	17612
rudi	17613
rlon	17614
rori	17615
sé	17616
sx	17617
s7	17618
sadi	17619
stai	17620
sask	17621
sde	17622
soko	17623
sami	17624
sapa	17625
tla	17626
tati	17627
ttus	17628
tca	17629
tmb	17630
tng	17631
tjo	17632
tny	17633
tdn	17634
tgh	17635
tsit	17636
tdp	17637
u8	17638
ulah	17639
uina	17640
uwat	17641
uaris	17642
usip	17643
uade	17644
uva	17645
uqu	17646
vg	17647
vet	17648
vlo	17649
vand	17650
wwa	17651
wda	17652
wso	17653
wcc	17654
wbt	17655
wire	17656
wms	17657
wpr	17658
wmt	17659
wuni	17660
x1	17661
xt	17662
x3	17663
xai	17664
xli	17665
xrt	17666
xev	17667
ysia	17668
yde	17669
yril	17670
ypi	17671
ypt	17672
yzy	17673
yzov	17674
zab	17675
zana	17676
zda	17677
zet	17678
zsa	17679
zina	17680
##aa	17681
##jd	17682
##jr	17683
##jal	17684
##dt	17685
##dw	17686
##dar	17687
##dub	17688
##fir	17689
##van	17690
##vir	17691
##uc	17692
##if	17693
##iv	17694
##ipe	17695
##tv	17696
##tpp	17697
##ld	17698
##lf	17699
##bj	17700
##bul	17701
##bok	17702
##git	17703
##kho	17704
##sw	17705
##wun	17706
##rn	17707
##rd	17708
##yd	17709
##yl	17710
##yho	17711
##yem	17712
##oto	17713
##qo	17714
##ès	17715
##ón	17716
##öm	17717
##any	17718
anin	17719
annas	17720
##ars	17721
##aro	17722
diar	17723
diak	17724
diok	17725
diff	17726
##ast	17727
##ake	17728
seen	17729
sesa	17730
meu	17731
meti	17732
meth	17733
kean	17734
kesit	17735
inz	17736
iné	17737
inet	17738
insa	17739
intai	17740
inmen	17741
inbo	17742
insey	17743
pepe	17744
unset	17745
unnew	17746
untet	17747
kanti	17748
kanot	17749
tery	17750
ngful	17751
eradi	17752
teto	17753
tidj	17754
koel	17755
kost	17756
kood	17757
kolot	17758
akl	17759
akup	17760
akda	17761
akid	17762
arwa	17763
araya	17764
artus	17765
arle	17766
angli	17767
##urs	17768
##uss	17769
alwa	17770
albi	17771
alore	17772
alán	17773
enap	17774
enum	17775
enel	17776
enet	17777
enina	17778
entus	17779
enno	17780
enuru	17781
##ish	17782
##orp	17783
##ory	17784
mbd	17785
mbc	17786
mbla	17787
mbok	17788
mbrey	17789
mbene	17790
mbiro	17791
mbros	17792
##tia	17793
saa	17794
saga	17795
sago	17796
safi	17797
iniak	17798
amun	17799
amra	17800
amora	17801
adv	17802
adc	17803
adua	17804
adasa	17805
adne	17806
penal	17807
pensi	17808
pensa	17809
ahuk	17810
ahla	17811
ahri	17812
ahro	17813
ahrt	17814
olve	17815
olim	17816
olmi	17817
oleo	17818
olest	17819
olger	17820
olbf	17821
lawas	17822
lafi	17823
laos	17824
laem	17825
laci	17826
nesi	17827
neuk	17828
nela	17829
neung	17830
need	17831
nedy	17832
nesis	17833
pras	17834
pril	17835
apon	17836
apte	17837
apra	17838
appk	17839
apdi	17840
aple	17841
appuc	17842
sigi	17843
siung	17844
sipe	17845
isap	17846
isai	17847
isdi	17848
ismi	17849
ispo	17850
isbi	17851
isff	17852
isye	17853
isds	17854
asq	17855
ases	17856
aski	17857
asmi	17858
asaka	17859
asbc	17860
assis	17861
ntoko	17862
ntori	17863
ntsb	17864
##ule	17865
tac	17866
taal	17867
ndit	17868
ndro	17869
ndol	17870
ores	17871
orri	17872
orja	17873
orli	17874
orry	17875
atter	17876
atho	17877
atcl	17878
njp	17879
njun	17880
emes	17881
emma	17882
emono	17883
mpri	17884
elga	17885
elko	17886
elce	17887
eldy	17888
elmo	17889
rii	17890
riung	17891
riet	17892
ricu	17893
pemal	17894
usc	17895
ustu	17896
usse	17897
usena	17898
sebo	17899
umma	17900
umala	17901
umlin	17902
juana	17903
karra	17904
kardi	17905
reen	17906
reja	17907
rego	17908
retik	17909
reol	17910
reca	17911
reck	17912
ukr	17913
ukli	17914
ukos	17915
ukroh	17916
urd	17917
urer	17918
uril	17919
urum	17920
urfa	17921
ingus	17922
kamah	17923
ilb	17924
ilar	17925
illah	17926
ilolo	17927
taki	17928
itl	17929
itw	17930
itm	17931
itma	17932
itora	17933
nau	17934
nail	17935
nazi	17936
nage	17937
ikus	17938
ikor	17939
ikes	17940
iking	17941
ikra	17942
ikha	17943
ikong	17944
beut	17945
rosi	17946
rolo	17947
roop	17948
idur	17949
idai	17950
idara	17951
idina	17952
idge	17953
idney	17954
idyah	17955
idzes	17956
onuk	17957
onim	17958
onde	17959
onca	17960
onley	17961
onbas	17962
ekum	17963
ekes	17964
ekla	17965
ekip	17966
imd	17967
imha	17968
imde	17969
imono	17970
imcd	17971
anth	17972
antm	17973
anthi	17974
asiz	17975
mago	17976
poh	17977
agt	17978
aguk	17979
come	17980
baho	17981
bahul	17982
intal	17983
harul	17984
hareh	17985
liang	17986
liuk	17987
lies	17988
litus	17989
lich	17990
lisit	17991
abn	17992
abb	17993
abr	17994
abik	17995
abana	17996
abda	17997
aburi	17998
utal	17999
utti	18000
utala	18001
utcc	18002
utze	18003
atusi	18004
stb	18005
stk	18006
stc	18007
stari	18008
stel	18009
stama	18010
sttt	18011
bard	18012
barto	18013
tui	18014
tugur	18015
deta	18016
deuh	18017
##top	18018
##tos	18019
okc	18020
okmas	18021
rao	18022
raina	18023
kubu	18024
awam	18025
awad	18026
awon	18027
ampar	18028
ampey	18029
ulak	18030
ulih	18031
ulda	18032
ulse	18033
ultus	18034
ulben	18035
trì	18036
tröm	18037
ncun	18038
bels	18039
belan	18040
lebar	18041
egg	18042
egm	18043
luid	18044
lubu	18045
luwu	18046
luec	18047
edf	18048
edco	18049
grat	18050
gring	18051
udn	18052
uder	18053
udqi	18054
apain	18055
apaun	18056
omon	18057
paray	18058
waras	18059
irak	18060
irri	18061
irsa	18062
irman	18063
irzan	18064
muy	18065
rben	18066
rbuk	18067
mins	18068
mindo	18069
hanul	18070
handa	18071
uph	18072
upot	18073
uphor	18074
pae	18075
pau	18076
pax	18077
acer	18078
acuk	18079
achir	18080
acque	18081
manir	18082
mante	18083
mantr	18084
ianis	18085
ianne	18086
haa	18087
haur	18088
haus	18089
hafi	18090
hava	18091
loe	18092
lowo	18093
loft	18094
ayp	18095
aym	18096
ayuk	18097
ayut	18098
aybe	18099
ayem	18100
aypy	18101
nod	18102
noya	18103
note	18104
noda	18105
noha	18106
ambel	18107
ubc	18108
ubari	18109
ubara	18110
ubek	18111
ubali	18112
ubani	18113
ubver	18114
ubos	18115
daeng	18116
daily	18117
past	18118
anaka	18119
moy	18120
moya	18121
esw	18122
essi	18123
esma	18124
esha	18125
andji	18126
boen	18127
boang	18128
boya	18129
bois	18130
bogo	18131
gaf	18132
gao	18133
kelna	18134
tansi	18135
tanta	18136
tanul	18137
ebih	18138
eband	18139
ebze	18140
ebec	18141
halus	18142
kass	18143
kash	18144
kasak	18145
pato	18146
iay	18147
iao	18148
iayat	18149
chj	18150
chat	18151
chal	18152
chus	18153
chori	18154
turgi	18155
latuk	18156
rumen	18157
rumun	18158
rtad	18159
rton	18160
rtha	18161
impkb	18162
toa	18163
tose	18164
tool	18165
todex	18166
nui	18167
nuwu	18168
##vec	18169
icb	18170
icen	18171
icor	18172
icek	18173
iccu	18174
ety	18175
etz	18176
etna	18177
ethi	18178
etsu	18179
maker	18180
guwo	18181
sury	18182
surup	18183
sov	18184
soo	18185
rs4	18186
rsad	18187
rsab	18188
rswen	18189
opta	18190
openg	18191
oput	18192
opia	18193
ophor	18194
lanne	18195
kaia	18196
nyon	18197
dp4	18198
afka	18199
afril	18200
afoe	18201
afora	18202
hopo	18203
##rez	18204
pani	18205
panen	18206
panda	18207
yank	18208
huan	18209
osid	18210
biz	18211
bitu	18212
bija	18213
bioma	18214
aire	18215
nigo	18216
rangr	18217
rpl	18218
rps	18219
ibm	18220
ibid	18221
ibea	18222
mulan	18223
mulon	18224
kran	18225
krin	18226
krik	18227
ipang	18228
ipak	18229
ipir	18230
insw	18231
tend	18232
ksara	18233
kspn	18234
ppr	18235
ppji	18236
ppli	18237
ppsu	18238
rank	18239
ranje	18240
uhun	18241
uhair	18242
nilam	18243
epon	18244
epuh	18245
eplas	18246
anius	18247
yac	18248
ptp	18249
ptra	18250
pttun	18251
youn	18252
youm	18253
yola	18254
sekt	18255
mpere	18256
araa	18257
arav	18258
arach	18259
uct	18260
ucor	18261
ucony	18262
remas	18263
foi	18264
fot	18265
foya	18266
spy	18267
sppn	18268
spid	18269
sppu	18270
spim	18271
spmi	18272
spip	18273
wave	18274
bade	18275
elaar	18276
nfidz	18277
hieh	18278
hida	18279
hics	18280
hield	18281
istha	18282
emav	18283
stawa	18284
##row	18285
eksus	18286
rnan	18287
rkho	18288
fort	18289
sks	18290
ongs	18291
strat	18292
rdb	18293
rdih	18294
rdho	18295
rdtl	18296
nergo	18297
gene	18298
genen	18299
genta	18300
obr	18301
obeng	18302
obet	18303
obses	18304
obro	18305
ancu	18306
doj	18307
doi	18308
dot	18309
doc	18310
dock	18311
dowo	18312
thor	18313
thom	18314
batur	18315
rike	18316
riks	18317
lins	18318
lines	18319
hens	18320
heny	18321
sish	18322
cog	18323
cock	18324
##cac	18325
khan	18326
khum	18327
khup	18328
ifd	18329
ifud	18330
inaca	18331
ceani	18332
cicm	18333
ciej	18334
kiara	18335
kipk	18336
kiyo	18337
kipi	18338
laput	18339
sakti	18340
lamun	18341
lamet	18342
ajd	18343
ajb	18344
ajc	18345
ajo	18346
ajla	18347
ajud	18348
ajith	18349
aliw	18350
aliah	18351
alima	18352
osul	18353
osses	18354
nsen	18355
nsah	18356
miu	18357
mitiv	18358
mifee	18359
pray	18360
even	18361
evis	18362
evita	18363
evano	18364
narah	18365
fei	18366
wano	18367
rious	18368
dilla	18369
cac	18370
cact	18371
cagak	18372
tora	18373
shr	18374
sham	18375
shur	18376
shum	18377
shri	18378
sheri	18379
shika	18380
shed	18381
shner	18382
joen	18383
jobo	18384
jamur	18385
ntul	18386
ents	18387
enty	18388
ecl	18389
eclan	18390
rinma	18391
trij	18392
trim	18393
trick	18394
santo	18395
lesha	18396
eff	18397
efta	18398
efri	18399
heer	18400
heen	18401
hepi	18402
heep	18403
renak	18404
renda	18405
kado	18406
otz	18407
otam	18408
otom	18409
kling	18410
male	18411
riss	18412
gungk	18413
ramck	18414
daman	18415
naly	18416
aiq	18417
aier	18418
aiga	18419
aima	18420
aied	18421
aich	18422
lase	18423
lasty	18424
filu	18425
filt	18426
faq	18427
209	18428
jif	18429
jiipe	18430
nith	18431
ivor	18432
iznet	18433
izzu	18434
wipo	18435
wiyan	18436
wift	18437
getir	18438
enix	18439
##hio	18440
onsai	18441
syk	18442
pkjb	18443
rayap	18444
balom	18445
huse	18446
rals	18447
azs	18448
azel	18449
ex5	18450
exo	18451
ringo	18452
gov	18453
gou	18454
gooth	18455
ofa	18456
ofar	18457
ofel	18458
vidi	18459
endel	18460
uayou	18461
brang	18462
brush	18463
dekop	18464
kalit	18465
super	18466
kiro	18467
drun	18468
drink	18469
306	18470
krieg	18471
ombak	18472
dukuh	18473
paper	18474
rmf	18475
ioe	18476
golf	18477
eriy	18478
eriz	18479
eriva	18480
lindu	18481
burst	18482
artas	18483
embun	18484
emble	18485
raser	18486
rasad	18487
endem	18488
univ	18489
peluk	18490
ketok	18491
edica	18492
jeta	18493
jete	18494
prima	18495
elep	18496
yart	18497
kabul	18498
oeta	18499
hitn	18500
rckho	18501
idos	18502
sdt	18503
sdb	18504
sdr	18505
sdit	18506
sdana	18507
sdma	18508
taso	18509
kumar	18510
kumin	18511
plc	18512
plai	18513
plpm	18514
urius	18515
urion	18516
rwd	18517
rwil	18518
rwoto	18519
psir	18520
umkim	18521
otot	18522
bbb	18523
bbs	18524
bbit	18525
antaw	18526
brie	18527
foksi	18528
aller	18529
allam	18530
allad	18531
kyb	18532
kyr	18533
kyo	18534
252	18535
toty	18536
ffl	18537
ffar	18538
isual	18539
244	18540
247	18541
ogit	18542
udiy	18543
gank	18544
tiku	18545
emasu	18546
vic	18547
vich	18548
vicha	18549
fcn	18550
sosek	18551
kolay	18552
atec	18553
ateur	18554
hero	18555
danao	18556
ayub	18557
bkm	18558
bk8	18559
bkmm	18560
avl	18561
avya	18562
avad	18563
avani	18564
avnie	18565
iyati	18566
iyono	18567
tume	18568
alaj	18569
alaam	18570
alafi	18571
bayun	18572
libi	18573
odf	18574
odt	18575
odeh	18576
odhi	18577
##bpi	18578
owy	18579
owen	18580
owon	18581
278	18582
bppt	18583
bpht	18584
bpbk	18585
bplh	18586
bpbj	18587
phl	18588
pher	18589
pham	18590
223	18591
227	18592
inck	18593
ehing	18594
ocari	18595
237	18596
uuf	18597
501	18598
505	18599
219	18600
fess	18601
kill	18602
kilah	18603
luks	18604
nette	18605
ridin	18606
ridai	18607
ridho	18608
scg	18609
scc	18610
djpp	18611
rtito	18612
usil	18613
lore	18614
nongo	18615
muse	18616
mkmk	18617
erdin	18618
erdha	18619
luban	18620
anser	18621
rjati	18622
smr	18623
smah	18624
smini	18625
smod	18626
smuna	18627
smeth	18628
legur	18629
anoun	18630
283	18631
288	18632
antuy	18633
pire	18634
eyer	18635
eyci	18636
nawir	18637
sld	18638
slbn	18639
tft	18640
oros	18641
kime	18642
uzm	18643
uzzo	18644
uzbee	18645
ooi	18646
oob	18647
ooz	18648
ienne	18649
orten	18650
ortal	18651
299	18652
dero	18653
oreb	18654
ermus	18655
ensil	18656
ensis	18657
tls	18658
tlh	18659
tler	18660
eanup	18661
ezzi	18662
emio	18663
ovp	18664
ovan	18665
ovch	18666
mahe	18667
layer	18668
layen	18669
mcs	18670
mcmo	18671
ssu	18672
ssgi	18673
kbal	18674
ieta	18675
ieto	18676
iezer	18677
iebie	18678
ufl	18679
wald	18680
wall	18681
walik	18682
isker	18683
zack	18684
smae	18685
smaul	18686
gros	18687
gross	18688
ihari	18689
ihsg	18690
pond	18691
llahi	18692
kpad	18693
kpia	18694
kplb	18695
##boy	18696
iros	18697
ccg	18698
cchio	18699
319	18700
314	18701
ernon	18702
ldr	18703
ardy	18704
ardan	18705
kmue	18706
duren	18707
iklat	18708
ewit	18709
ewel	18710
ewok	18711
nank	18712
nanza	18713
lumbu	18714
icef	18715
chie	18716
uther	18717
rude	18718
tawir	18719
duho	18720
eraw	18721
imay	18722
imaja	18723
lular	18724
tamah	18725
tamso	18726
oldt	18727
elift	18728
ainz	18729
buds	18730
budy	18731
pabc	18732
suke	18733
eiu	18734
orden	18735
eros	18736
udino	18737
niso	18738
quis	18739
quir	18740
iqh	18741
roman	18742
eals	18743
ugli	18744
ugoro	18745
ugene	18746
ilauk	18747
tafel	18748
sams	18749
uwih	18750
pedro	18751
aili	18752
ailid	18753
aille	18754
inkum	18755
oliy	18756
olieu	18757
iero	18758
blad	18759
lonto	18760
tree	18761
vajal	18762
ogos	18763
gurus	18764
myr	18765
myis	18766
mype	18767
kulan	18768
kesh	18769
ireza	18770
ladys	18771
036	18772
ltm	18773
rkozy	18774
yatmo	18775
napak	18776
empes	18777
dhly	18778
aleda	18779
mors	18780
mory	18781
ctv	18782
achr	18783
dalem	18784
eez	18785
eela	18786
eedi	18787
rnea	18788
rnez	18789
uhuan	18790
eart	18791
ktv	18792
ktas	18793
ktatu	18794
sambe	18795
ichw	18796
rity	18797
rites	18798
droos	18799
ishil	18800
ishel	18801
aeva	18802
msf	18803
lerni	18804
uig	18805
urea	18806
resik	18807
eavy	18808
reach	18809
bsf	18810
bst	18811
bss	18812
bscc	18813
pdhi	18814
widi	18815
width	18816
awiy	18817
piso	18818
ripp	18819
tbbm	18820
rico	18821
ricke	18822
cake	18823
erutu	18824
yamp	18825
hmd	18826
gresl	18827
rdion	18828
imima	18829
acket	18830
galar	18831
rosu	18832
tksk	18833
ondek	18834
kkm	18835
kkum	18836
kkks	18837
smkp	18838
liku	18839
likon	18840
likel	18841
aneg	18842
aneen	18843
aneta	18844
xix	18845
lys	18846
luhut	18847
soka	18848
csb	18849
weu	18850
weta	18851
weid	18852
weed	18853
mond	18854
mone	18855
monk	18856
aith	18857
dwil	18858
oac	18859
umbin	18860
ilogs	18861
jmo	18862
asual	18863
aroj	18864
aros	18865
dnal	18866
onday	18867
hrv	18868
hryn	18869
radul	18870
omax	18871
edeg	18872
affit	18873
lomo	18874
llet	18875
llett	18876
hapit	18877
ijp	18878
ijit	18879
flp	18880
gamer	18881
btpn	18882
farm	18883
bilu	18884
bili	18885
ibie	18886
803	18887
hnp	18888
hnsi	18889
aime	18890
oday	18891
ligam	18892
rgow	18893
lobe	18894
rva	18895
retz	18896
retti	18897
thic	18898
rrang	18899
rrad	18900
hyat	18901
fante	18902
gnan	18903
ugie	18904
bdg	18905
spac	18906
bold	18907
taria	18908
nhai	18909
nhum	18910
nhome	18911
oyev	18912
oyole	18913
umpon	18914
rable	18915
yev	18916
yeom	18917
yeyen	18918
dlt	18919
knd	18920
ttel	18921
dms	18922
dmdi	18923
dmfi	18924
bbmc	18925
agoi	18926
agoya	18927
##coy	18928
mrv	18929
mrah	18930
mrul	18931
327	18932
entia	18933
tmt	18934
tmil	18935
cane	18936
cant	18937
cante	18938
lsd	18939
sbj	18940
sbc	18941
sbm	18942
sbih	18943
sbani	18944
sblf	18945
essna	18946
kguk	18947
rimer	18948
okay	18949
452	18950
talk	18951
talik	18952
369	18953
366	18954
kakak	18955
kunda	18956
annun	18957
xxvi	18958
ompos	18959
ngie	18960
arlan	18961
athuk	18962
athon	18963
ipec	18964
gbc	18965
gbhn	18966
eboen	18967
349	18968
344	18969
348	18970
342	18971
347	18972
gaten	18973
lbut	18974
nadri	18975
gime	18976
oiyen	18977
pml	18978
pms	18979
holat	18980
holas	18981
pamit	18982
dci	18983
uyang	18984
uyul	18985
uyana	18986
tcid	18987
ascn	18988
ysak	18989
rls	18990
ix3	18991
ixel	18992
etape	18993
gpib	18994
gpfi	18995
atry	18996
egau	18997
dkv	18998
dkum	18999
ghg	19000
gher	19001
ghni	19002
334	19003
382	19004
386	19005
padan	19006
sning	19007
sncf	19008
gond	19009
gonu	19010
euv	19011
euit	19012
aage	19013
aaui	19014
canaz	19015
pact	19016
dbon	19017
dsp	19018
dsh	19019
yler	19020
bomb	19021
u22	19022
great	19023
omoan	19024
ppksi	19025
lkada	19026
rukut	19027
stul	19028
lend	19029
dzan	19030
lawe	19031
aox	19032
askin	19033
jetp	19034
555	19035
554	19036
552	19037
steh	19038
kawin	19039
pupki	19040
iatta	19041
mlm	19042
mlat	19043
mltr	19044
373	19045
ootw	19046
tpnbp	19047
fkh	19048
fkai	19049
fkui	19050
eats	19051
purb	19052
easep	19053
ngean	19054
atten	19055
hpak	19056
iorgi	19057
uskes	19058
glpg	19059
alder	19060
eoran	19061
nindy	19062
eekly	19063
gkin	19064
gilas	19065
iwm	19066
iwut	19067
iwai	19068
iwei	19069
nafta	19070
nafis	19071
oley	19072
ndiya	19073
fidh	19074
mtv	19075
mtt	19076
innai	19077
391	19078
393	19079
392	19080
dds	19081
ddah	19082
ertha	19083
ssex	19084
ssein	19085
bcm	19086
431	19087
ync	19088
ntep	19089
aqa	19090
mimi	19091
pcg	19092
pcbs	19093
429	19094
422	19095
426	19096
astio	19097
mbunu	19098
rauje	19099
arruk	19100
bpnt	19101
andeg	19102
andey	19103
andem	19104
hayan	19105
ahiro	19106
empug	19107
hriv	19108
azaq	19109
517	19110
pmks	19111
iblis	19112
521	19113
525	19114
vale	19115
uincy	19116
uito	19117
yder	19118
ydra	19119
dund	19120
oesa	19121
oesin	19122
asoe	19123
mide	19124
yond	19125
aloid	19126
pwp	19127
pwc	19128
pwga	19129
amoto	19130
561	19131
564	19132
567	19133
alkun	19134
ivaud	19135
yudan	19136
okie	19137
uisan	19138
axim	19139
color	19140
gumul	19141
mhs	19142
mhtc	19143
ngsin	19144
545	19145
548	19146
fatf	19147
ggyho	19148
ikmir	19149
liff	19150
465	19151
462	19152
532	19153
varo	19154
rfia	19155
mnr	19156
sugih	19157
630	19158
clear	19159
571	19160
575	19161
579	19162
isef	19163
lowd	19164
612	19165
735	19166
733	19167
ornet	19168
76c	19169
764	19170
peedo	19171
ussy	19172
eert	19173
dones	19174
hsbc	19175
llego	19176
iuff	19177
ijaz	19178
640	19179
eely	19180
gsh	19181
mfoma	19182
cfp	19183
cfo	19184
alynn	19185
elvis	19186
uop	19187
ypm	19188
yphon	19189
arbin	19190
arbon	19191
eltas	19192
eltin	19193
oate	19194
cns	19195
cnc	19196
maple	19197
oncé	19198
zic	19199
zijj	19200
ergok	19201
lfiy	19202
bors	19203
ktour	19204
##cio	19205
buyer	19206
iphar	19207
yrou	19208
nemuk	19209
797	19210
ttera	19211
ique	19212
771	19213
778	19214
ousov	19215
ursin	19216
sfs	19217
sfar	19218
lavet	19219
licon	19220
ubedi	19221
broad	19222
nsead	19223
bupi	19224
iprat	19225
cpf	19226
pomad	19227
aere	19228
aeroh	19229
oxo	19230
oxea	19231
egeg	19232
uckl	19233
ucket	19234
irtz	19235
ajep	19236
mundu	19237
hwe	19238
jdt	19239
dadun	19240
tzdub	19241
jpl	19242
sjim	19243
sjfc	19244
ivize	19245
snici	19246
zanah	19247
urbur	19248
ethak	19249
nunuk	19250
nunda	19251
nld	19252
ahrur	19253
hbkb	19254
cult	19255
arito	19256
rpjpn	19257
brug	19258
uxon	19259
eslie	19260
838	19261
pvj	19262
pvc	19263
pvtpp	19264
gnac	19265
ljf	19266
ppiu	19267
spei	19268
lafl	19269
imex	19270
rchw	19271
cgx	19272
aarut	19273
aarup	19274
buha	19275
ptnb	19276
choa	19277
jsc	19278
jsm	19279
qiano	19280
alido	19281
dhif	19282
nric	19283
otut	19284
865	19285
tjen	19286
bgb	19287
jimb	19288
vpc	19289
pepek	19290
ympos	19291
elaks	19292
zzed	19293
erfas	19294
fmti	19295
llow	19296
upnyk	19297
cbf	19298
zalel	19299
inaky	19300
eiser	19301
eisya	19302
lazim	19303
lazqu	19304
dolu	19305
kteh	19306
reich	19307
lmac	19308
laboh	19309
iotf	19310
mtaz	19311
bws	19312
bimc	19313
cdu	19314
cds	19315
iiss	19316
tadhe	19317
ittwe	19318
jtf	19319
jtt	19320
nepl	19321
mjee	19322
voli	19323
tihah	19324
taxi	19325
rogot	19326
ould	19327
arvit	19328
cence	19329
iedad	19330
mv3	19331
urtn	19332
b2c	19333
nbin	19334
annie	19335
spida	19336
002	19337
b35	19338
ebag	19339
hroh	19340
zaman	19341
ablus	19342
lcgc	19343
bfc	19344
bflp	19345
knkg	19346
womb	19347
mpmr	19348
nchen	19349
hafur	19350
ayeuk	19351
[...]
