<unk>	0
<s>	0
</s>	0
▁an	-3.40795
▁,	-3.57273
▁.	-3.75502
a	-4.1071
▁di	-4.28065
▁2	-4.46918
▁se	-4.604
i	-4.63212
▁a	-4.64684
▁s	-4.6606
▁yang	-4.67367
▁ke	-4.70429
▁me	-4.72887
▁dan	-4.76859
▁kan	-4.79754
r	-4.81069
▁0	-4.83086
▁-	-4.84175
k	-4.85784
▁ter	-4.96708
▁nya	-4.97181
▁P	-4.97513
▁p	-4.98777
▁S	-5.03034
▁d	-5.06256
▁"	-5.06453
▁ber	-5.08013
▁b	-5.08294
▁meng	-5.12562
e	-5.13175
▁pe	-5.15888
▁i	-5.18923
▁(	-5.19614
▁)	-5.204
▁1	-5.2786
u	-5.28284
s	-5.31397
▁4	-5.33652
▁m	-5.37452
▁M	-5.41164
▁B	-5.4598
o	-5.47567
▁A	-5.48203
▁k	-5.53323
▁untuk	-5.57731
▁pada	-5.58264
eng	-5.58651
▁te	-5.61394
t	-5.62636
▁K	-5.69425
▁ini	-5.74276
▁itu	-5.75332
▁/	-5.75526
▁dari	-5.77767
▁per	-5.80793
▁T	-5.81006
▁D	-5.83934
▁r	-5.84975
▁dalam	-5.8817
▁ta	-5.89417
l	-5.96157
▁n	-5.96316
lah	-5.96907
▁Ke	-5.97769
▁ah	-6.08061
▁3	-6.09449
▁I	-6.12952
▁R	-6.14659
▁mem	-6.14749
▁G	-6.18747
h	-6.21383
▁ang	-6.21533
▁J	-6.22231
▁meny	-6.2229
n	-6.25071
▁Se	-6.25209
g	-6.25385
▁5	-6.26052
▁tidak	-6.26114
▁Ind	-6.27921
d	-6.32777
▁:	-6.34092
▁ko	-6.35349
m	-6.35611
▁l	-6.36397
▁C	-6.36671
▁peng	-6.36787
▁sebut	-6.36938
▁ada	-6.37072
▁c	-6.38301
▁nesia	-6.38349
▁H	-6.38522
▁akan	-6.38579
▁kata	-6.43141
▁N	-6.43222
▁baga	-6.45483
▁ung	-6.4792
▁L	-6.49443
▁asi	-6.50336
an	-6.50444
▁Pe	-6.50698
▁jpnn	-6.51339
▁jug	-6.52355
▁na	-6.53254
▁9	-6.53282
p	-6.53706
▁com	-6.54964
▁WIB	-6.58345
▁ti	-6.58504
▁mend	-6.58614
▁takan	-6.59103
▁j	-6.6023
▁la	-6.61188
▁Me	-6.62016
▁7	-6.62903
▁U	-6.63407
▁orang	-6.63895
▁kukan	-6.65612
▁6	-6.65993
▁mber	-6.66397
▁al	-6.69456
▁8	-6.69807
jadi	-6.70057
b	-6.70642
▁er	-6.73031
▁w	-6.76565
▁tahun	-6.78267
▁saat	-6.78588
▁atu	-6.7922
▁E	-6.79377
▁e	-6.79548
▁bahw	-6.7992
▁F	-6.80019
▁o	-6.8179
▁mela	-6.83399
▁kar	-6.83472
▁oleh	-6.83655
ah	-6.85349
▁ereka	-6.85877
▁g	-6.86151
▁lalu	-6.88658
▁W	-6.89891
▁lebih	-6.91478
▁bisa	-6.92328
▁sama	-6.93037
▁ngkat	-6.93089
▁apa	-6.953
▁Kami	-6.95472
▁Di	-6.96844
▁t	-7.01377
▁ka	-7.02025
emer	-7.02281
▁itas	-7.02559
▁hadap	-7.03966
▁ngkap	-7.04335
▁hing	-7.04796
▁Jaka	-7.05932
▁ional	-7.05977
▁rakat	-7.08448
▁nega	-7.08805
▁Ma	-7.09025
tau	-7.1104
▁cara	-7.11846
▁intah	-7.1208
▁u	-7.12179
▁anyak	-7.1246
▁meni	-7.12721
udah	-7.13496
▁Per	-7.13642
▁belum	-7.1381
y	-7.14573
▁pro	-7.14841
ya	-7.16037
▁baru	-7.16358
▁hari	-7.1674
▁is	-7.17111
▁um	-7.17112
▁mene	-7.176
▁menj	-7.18904
▁Kota	-7.19796
▁besar	-7.19907
▁para	-7.20258
▁re	-7.20407
▁kami	-7.20998
▁mpat	-7.21925
▁peny	-7.22663
▁si	-7.24208
ngg	-7.24371
▁masy	-7.24464
▁dapat	-7.24466
▁jadi	-7.24997
▁siden	-7.26308
▁pem	-7.27233
▁menc	-7.28813
▁ing	-7.29229
▁memb	-7.29312
▁guna	-7.29594
▁lama	-7.29741
un	-7.30036
▁bagi	-7.30212
▁pun	-7.30223
▁tetap	-7.30418
▁ukung	-7.3071
▁serta	-7.3126
▁O	-7.31288
▁pend	-7.31856
▁nteri	-7.32712
▁dila	-7.32845
▁po	-7.34022
▁us	-7.34028
▁y	-7.34116
▁bu	-7.35314
▁lang	-7.35484
us	-7.36623
se	-7.36677
eber	-7.3688
▁hasil	-7.36994
▁anak	-7.3709
mpai	-7.37133
▁ian	-7.39401
▁ujar	-7.39439
it	-7.40278
ARTA	-7.41028
▁perti	-7.41861
▁rupa	-7.42201
▁ng	-7.42658
▁ungan	-7.42691
▁dia	-7.43405
▁f	-7.43691
▁baik	-7.43709
▁Pra	-7.43853
▁JA	-7.44114
▁nurut	-7.44124
er	-7.44796
▁paten	-7.45227
▁angan	-7.45275
▁rban	-7.45775
▁haru	-7.45888
▁Rabu	-7.46232
▁elasa	-7.46492
▁ur	-7.47979
▁mbang	-7.48068
▁akhir	-7.48289
▁gram	-7.48487
▁le	-7.4865
▁Senin	-7.48657
▁Ko	-7.49183
▁usaha	-7.49311
▁h	-7.49548
▁Dia	-7.49661
▁dua	-7.49827
▁Kab	-7.49944
▁Ber	-7.49972
▁pemb	-7.50478
▁be	-7.50853
▁apat	-7.51123
▁V	-7.51913
▁ku	-7.52454
▁Pre	-7.52814
▁masuk	-7.52997
▁warga	-7.53578
ter	-7.54318
▁nas	-7.55233
▁Ka	-7.55489
▁da	-7.56011
▁Ta	-7.56387
▁Jumat	-7.56669
▁antar	-7.56855
▁ar	-7.57516
▁masih	-7.57709
.	-7.58068
▁aerah	-7.58188
▁laku	-7.58242
▁kel	-7.59428
▁saya	-7.59515
▁erang	-7.59517
▁Re	-7.60524
▁pihak	-7.60834
ng	-7.60906
▁iliki	-7.61006
▁Y	-7.6105
▁atas	-7.61919
▁Tim	-7.62027
▁artai	-7.62133
▁nggal	-7.62219
▁ntara	-7.63484
▁mena	-7.6397
▁salah	-7.64183
▁Jawa	-7.64379
▁Bali	-7.64968
▁jalan	-7.65535
▁dis	-7.65544
▁ha	-7.65603
at	-7.65709
▁Peng	-7.65709
▁AS	-7.66043
ilay	-7.66625
▁masi	-7.66839
▁srael	-7.66881
▁rumah	-7.67383
▁pala	-7.67771
▁hany	-7.67823
▁Sa	-7.68271
▁ntang	-7.68526
▁at	-7.68711
▁upa	-7.69738
▁inggu	-7.70865
▁menu	-7.71099
▁tim	-7.71355
▁Pro	-7.716
▁hal	-7.71742
▁Ketua	-7.7177
▁Keme	-7.71847
▁mana	-7.71967
▁mbali	-7.74663
▁impin	-7.7468
▁kali	-7.74928
gat	-7.74942
ta	-7.75086
▁kerja	-7.75096
▁hadir	-7.75296
▁uara	-7.753
▁but	-7.75412
dal	-7.75655
▁agian	-7.75728
▁mel	-7.75786
▁olisi	-7.76741
▁kita	-7.76777
▁wo	-7.76855
▁luruh	-7.77273
▁kasus	-7.77386
,	-7.78088
ap	-7.78435
▁unia	-7.7887
▁atang	-7.79015
▁Ba	-7.79164
▁mili	-7.79364
bo	-7.79877
▁bantu	-7.80091
▁rja	-7.80161
▁ari	-7.80276
▁in	-7.80623
▁enang	-7.80977
kan	-7.81149
▁ya	-7.81801
▁Ter	-7.82029
▁nila	-7.82974
▁alon	-7.83114
▁Te	-7.83308
▁kom	-7.83572
▁latan	-7.83767
▁nting	-7.84025
▁ikut	-7.84174
▁Rp	-7.84234
▁La	-7.8427
te	-7.84329
▁kitar	-7.84607
▁dib	-7.84692
▁sehat	-7.85121
▁inte	-7.85449
▁'	-7.85459
▁Sabtu	-7.85496
▁idik	-7.85777
▁rima	-7.86124
▁lain	-7.8648
▁ngga	-7.86755
▁angun	-7.87205
▁mulai	-7.87445
▁mper	-7.88162
▁tu	-7.88884
▁luar	-7.88977
▁dang	-7.89356
▁Barat	-7.89366
▁hukum	-7.89641
▁uang	-7.8975
▁rtama	-7.90018
erta	-7.90067
▁Sur	-7.90334
▁pela	-7.9064
▁rsen	-7.91075
▁dite	-7.9131
▁angka	-7.91439
▁gelar	-7.91965
▁lihat	-7.92633
▁agar	-7.93144
▁tif	-7.93199
▁dip	-7.93249
▁pa	-7.93421
▁PT	-7.93488
▁tiga	-7.93827
▁isasi	-7.93995
il	-7.941
▁pre	-7.94633
▁nyata	-7.94897
v	-7.94908
▁el	-7.95075
▁nding	-7.95361
▁tika	-7.95392
▁mu	-7.96465
▁Ini	-7.96741
▁air	-7.96818
▁ara	-7.96996
▁rang	-7.97204
▁arang	-7.97604
▁	-7.98478
ilka	-7.9852
mud	-8.00402
▁Nam	-8.00646
▁idang	-8.0087
▁mint	-8.01061
w	-8.01066
▁ncana	-8.01183
▁li	-8.01443
▁semua	-8.01949
▁litik	-8.02825
▁ub	-8.02844
▁Dalam	-8.03214
▁ind	-8.03538
▁Le	-8.03582
▁asang	-8.03715
▁ho	-8.03857
▁innya	-8.0404
▁Band	-8.04171
▁tak	-8.04198
▁masa	-8.04515
▁anjut	-8.04637
▁mbua	-8.04639
▁kedua	-8.04738
▁nur	-8.04869
▁seb	-8.05265
▁utama	-8.05316
▁harga	-8.05524
▁v	-8.05528
▁ia	-8.05975
▁nomi	-8.06098
▁ngah	-8.06333
▁elas	-8.06336
▁man	-8.06398
▁ata	-8.07296
▁kota	-8.07367
▁roses	-8.07581
▁depan	-8.07676
▁nang	-8.08378
▁Ha	-8.08477
▁Ra	-8.08625
akin	-8.0872
▁milih	-8.08777
▁elai	-8.0902
▁osial	-8.09372
▁sej	-8.09374
▁ahkan	-8.09541
▁giat	-8.10554
▁kons	-8.10649
mb	-8.10655
▁abaya	-8.10738
▁lagi	-8.1082
▁Agus	-8.10879
▁ikasi	-8.11861
▁ters	-8.11882
▁RI	-8.12183
▁bulan	-8.12989
▁harap	-8.12991
is	-8.13486
▁no	-8.13924
▁roduk	-8.13977
▁Saya	-8.14131
▁emilu	-8.14275
▁yanan	-8.14344
▁China	-8.14536
▁lah	-8.14987
▁ingin	-8.15032
▁isi	-8.15091
▁waktu	-8.15553
▁aksi	-8.15924
▁lawan	-8.15953
ke	-8.16139
▁ena	-8.16418
▁ksana	-8.16506
▁asal	-8.16598
▁manan	-8.16876
▁tugas	-8.17179
▁iri	-8.17251
al	-8.17266
▁emain	-8.17313
▁gas	-8.17522
jak	-8.17819
enc	-8.17956
▁njuk	-8.18058
ggo	-8.18181
▁Z	-8.18448
▁as	-8.18488
▁diri	-8.18616
▁rasa	-8.18706
▁apai	-8.18754
▁Al	-8.18844
▁umum	-8.18866
as	-8.19268
▁acara	-8.19303
▁Nas	-8.19668
▁Kom	-8.20159
▁tur	-8.20327
▁engah	-8.20417
▁ndak	-8.20626
▁ra	-8.21135
▁ir	-8.21517
meri	-8.21719
▁ingat	-8.21798
▁antan	-8.22193
▁ndiri	-8.22419
▁okasi	-8.22528
▁pene	-8.22694
▁uarga	-8.23521
▁cama	-8.23601
▁hub	-8.23753
▁dise	-8.24064
▁alami	-8.24148
▁awal	-8.24309
▁nama	-8.24819
▁Ku	-8.24949
empu	-8.25261
▁to	-8.25703
▁ik	-8.25817
▁jen	-8.26233
▁?	-8.26276
▁olda	-8.26384
▁Pad	-8.26569
nya	-8.27679
▁erad	-8.2792
▁siap	-8.28559
▁ublik	-8.28905
▁ukti	-8.29165
▁Sum	-8.2929
▁wan	-8.29435
▁tang	-8.29447
▁usat	-8.29483
ukan	-8.2952
▁Pa	-8.29761
▁eko	-8.29781
▁tuju	-8.30011
▁wasan	-8.30317
▁z	-8.30439
▁ina	-8.30566
▁ins	-8.30878
▁saja	-8.30977
▁[	-8.31034
▁olres	-8.31213
▁empat	-8.31218
▁malam	-8.31572
▁]	-8.31634
▁Dire	-8.31776
▁ompok	-8.3195
per	-8.32264
▁ndara	-8.32528
eski	-8.33091
▁ilih	-8.33114
▁jabat	-8.33688
▁dasar	-8.33885
▁media	-8.34203
▁erita	-8.3436
▁juta	-8.3477
▁St	-8.35128
ul	-8.3539
▁Rusia	-8.35623
itu	-8.3589
▁Nov	-8.36196
▁hi	-8.36229
▁ngak	-8.36695
▁Jadi	-8.36887
▁Hal	-8.37016
▁waki	-8.37115
▁keb	-8.37343
▁vinsi	-8.37394
▁mukan	-8.37448
mun	-8.37562
▁bel	-8.37763
▁aftar	-8.37774
▁iksa	-8.37849
▁resmi	-8.38159
▁alia	-8.38207
▁yakni	-8.38384
tor	-8.38386
▁ne	-8.3847
▁ncar	-8.38985
▁Gube	-8.39163
▁Okto	-8.39237
▁aling	-8.39404
▁njung	-8.39818
▁icara	-8.40075
▁seka	-8.40314
▁aman	-8.40389
▁panj	-8.40407
▁Umum	-8.40794
c	-8.41146
oal	-8.41276
▁if	-8.41358
▁Sema	-8.41462
▁trans	-8.41755
▁Ci	-8.41797
▁eja	-8.42387
▁ngkah	-8.42653
▁mas	-8.42665
▁dike	-8.4275
▁ro	-8.42823
▁info	-8.42898
▁ampak	-8.43238
▁ong	-8.43305
▁arah	-8.43371
▁ling	-8.43558
▁uca	-8.43694
▁it	-8.44088
▁buka	-8.44333
▁Juli	-8.44697
▁ndis	-8.44975
ale	-8.45163
▁logi	-8.45432
▁jelas	-8.45519
▁lapor	-8.45693
▁Tahun	-8.45698
▁for	-8.45701
▁Be	-8.45741
▁ja	-8.45747
▁Wak	-8.45794
▁aya	-8.46007
▁hanan	-8.46169
asal	-8.46391
▁laga	-8.46611
▁egara	-8.46629
▁nomor	-8.46743
▁poran	-8.46883
si	-8.47287
▁okowi	-8.47403
mbil	-8.47539
▁sitas	-8.47775
ibat	-8.47793
▁ustri	-8.47851
▁Gaza	-8.48183
▁ibu	-8.48319
▁eks	-8.48483
▁Seme	-8.48638
▁anye	-8.48682
▁entuk	-8.48808
▁istem	-8.49252
▁PPPK	-8.49505
▁paka	-8.49616
▁rak	-8.49624
▁njata	-8.49896
▁nfaat	-8.50116
▁mpung	-8.50266
▁aru	-8.50278
▁kepe	-8.50305
tmen	-8.50584
▁olo	-8.50708
▁Su	-8.50714
▁Fa	-8.50927
▁keras	-8.50966
▁sing	-8.51132
▁par	-8.51177
▁gung	-8.5118
▁hidup	-8.51211
▁benar	-8.5132
▁Foto	-8.51321
▁Bogor	-8.51427
▁KPU	-8.51877
▁mampu	-8.51942
ukul	-8.52007
▁Sept	-8.52221
▁ak	-8.52327
▁Peny	-8.52406
▁imnas	-8.52577
▁akar	-8.52703
▁ngki	-8.52808
▁Badan	-8.52861
▁juang	-8.52913
▁am	-8.53054
▁Utara	-8.53277
▁kanan	-8.53497
▁jik	-8.53689
▁ngka	-8.54132
▁utus	-8.54208
▁orong	-8.54387
▁Jalan	-8.54442
▁rupsi	-8.54711
▁kamp	-8.54944
▁de	-8.55013
mpe	-8.55095
▁erah	-8.55229
▁Pol	-8.55537
▁pena	-8.55561
▁ran	-8.55605
▁Juni	-8.55862
▁Kap	-8.55896
▁10	-8.55918
▁tensi	-8.56049
▁suai	-8.56163
▁Wa	-8.56264
▁lima	-8.56338
ung	-8.56649
▁Desa	-8.56807
▁dita	-8.56897
▁batas	-8.5761
▁naik	-8.57962
▁he	-8.58287
▁Jan	-8.58373
▁im	-8.58452
▁on	-8.58491
▁ember	-8.58526
▁usia	-8.58933
▁ribu	-8.5908
▁peni	-8.59153
▁latih	-8.59202
▁DPR	-8.59291
npa	-8.59487
▁njag	-8.5956
▁kolah	-8.59614
▁or	-8.5992
▁Muh	-8.59962
▁ulu	-8.59974
▁nusia	-8.60039
▁ukai	-8.60603
▁kuat	-8.608
▁Tu	-8.60838
▁oper	-8.61005
▁egeri	-8.61285
▁ateng	-8.6131
▁nggar	-8.61561
▁umber	-8.61603
▁mobil	-8.61814
▁nited	-8.61933
bawa	-8.61998
▁tahui	-8.62178
▁ut	-8.62425
▁nda	-8.62691
▁otor	-8.62755
▁ent	-8.62823
▁ab	-8.62919
▁bah	-8.63002
upun	-8.63214
▁Des	-8.63225
▁April	-8.63259
▁Hari	-8.6331
stik	-8.63407
▁perl	-8.6346
j	-8.63529
▁alam	-8.63556
▁omis	-8.63569
▁ol	-8.63933
▁strik	-8.64204
▁KPK	-8.64312
▁bija	-8.64354
▁Ada	-8.64403
▁isata	-8.64502
▁laman	-8.64502
▁tentu	-8.64662
▁Men	-8.64882
▁kini	-8.64953
▁inasi	-8.65117
▁komp	-8.65318
▁jam	-8.65324
▁Par	-8.6544
▁Mei	-8.65607
▁ulang	-8.65963
nd	-8.6603
▁intas	-8.662
▁Lig	-8.66338
▁hak	-8.6637
▁rek	-8.66716
▁mang	-8.66808
▁urang	-8.66824
▁duga	-8.66902
▁engg	-8.67016
▁ugaan	-8.67106
▁ritas	-8.67342
▁es	-8.67471
▁sar	-8.67568
▁ring	-8.67656
▁lamat	-8.67736
▁ul	-8.67899
▁cepat	-8.67979
▁Ins	-8.68267
▁Trump	-8.6828
▁siswa	-8.68342
▁rikat	-8.68443
▁Ukr	-8.68502
▁Asia	-8.68518
▁upati	-8.68528
▁Maret	-8.68548
▁rinya	-8.68837
▁husus	-8.68933
▁anto	-8.69014
▁iala	-8.69218
▁main	-8.6922
▁Pend	-8.69242
▁ral	-8.69243
on	-8.6964
▁tor	-8.69663
iver	-8.69707
▁op	-8.69808
enj	-8.69809
&	-8.70163
▁did	-8.70368
nah	-8.70394
▁alang	-8.70541
oleh	-8.70603
▁osisi	-8.70609
▁mbaga	-8.7065
▁sa	-8.70682
utuh	-8.70707
▁awab	-8.70736
z	-8.71098
▁udara	-8.71154
up	-8.71403
▁Har	-8.71737
▁ola	-8.71794
▁iden	-8.72139
▁und	-8.72175
▁dilan	-8.72299
▁do	-8.72442
▁stasi	-8.72604
▁isa	-8.72654
▁ria	-8.72705
alau	-8.72768
▁Inte	-8.72887
▁ga	-8.72953
▁Mar	-8.73161
etap	-8.73298
▁nam	-8.73506
▁Korea	-8.73581
▁ndang	-8.73922
▁gera	-8.74079
▁iliar	-8.74094
▁olri	-8.74106
▁Bo	-8.74191
▁Iran	-8.74331
f	-8.74417
▁jauh	-8.74512
▁mpil	-8.74645
in	-8.74658
▁uku	-8.74701
▁anjar	-8.74765
▁nanti	-8.74805
▁maha	-8.7483
▁biasa	-8.74871
▁inv	-8.75005
▁antas	-8.75036
akal	-8.75064
▁up	-8.75277
▁danya	-8.75561
▁Ro	-8.75717
▁daya	-8.75747
▁guru	-8.7578
▁Pem	-8.76226
▁bawah	-8.7623
▁TNI	-8.76349
▁idana	-8.7637
▁naga	-8.76572
▁ek	-8.77166
▁kont	-8.77414
▁and	-8.7746
▁karta	-8.7747
▁jati	-8.77524
▁angsa	-8.77751
▁luas	-8.77763
▁ed	-8.77847
▁ekto	-8.77925
▁neg	-8.78065
▁tahan	-8.78095
D	-8.78364
▁Anda	-8.78426
▁uh	-8.78531
▁elang	-8.78568
▁20	-8.78617
▁muda	-8.7866
▁apal	-8.78694
▁dion	-8.78717
▁seme	-8.78763
▁Ch	-8.79021
O	-8.79081
▁kenal	-8.79156
▁gital	-8.79245
▁en	-8.79389
▁ono	-8.79454
▁Co	-8.79784
▁imb	-8.7981
▁12	-8.80253
▁ebab	-8.80368
▁dipe	-8.80601
▁edia	-8.80697
▁Kar	-8.80775
▁aring	-8.80798
tu	-8.80843
▁An	-8.80861
ord	-8.80872
▁cukup	-8.80987
▁anti	-8.81445
▁lesai	-8.81583
▁mbak	-8.81685
▁Mu	-8.81746
▁ni	-8.81785
▁ende	-8.81904
▁kec	-8.81996
▁amba	-8.82053
en	-8.82069
▁lan	-8.82084
ntuk	-8.82435
▁memp	-8.82707
▁antai	-8.82887
▁data	-8.82973
▁surat	-8.82996
▁isnis	-8.83028
▁akit	-8.83065
▁Air	-8.83153
▁Ya	-8.83169
▁adi	-8.83206
▁edu	-8.83366
▁et	-8.83638
▁mod	-8.8364
▁Anies	-8.83734
▁asa	-8.83834
▁mema	-8.83926
▁Un	-8.83939
▁putus	-8.84007
▁ambut	-8.84196
▁apres	-8.84272
▁uaca	-8.84293
▁mpang	-8.84368
▁sta	-8.84379
▁tihan	-8.84523
▁sat	-8.84702
▁Pers	-8.84921
ar	-8.84935
▁gerak	-8.8496
▁tahu	-8.85115
▁uji	-8.85207
▁lajar	-8.85214
▁yo	-8.85284
▁ita	-8.85302
▁raih	-8.85564
▁kem	-8.85584
▁Pen	-8.85711
▁mmad	-8.85937
▁pang	-8.85955
▁ac	-8.86169
▁mbuka	-8.86355
▁annya	-8.86379
▁Q	-8.86616
▁awas	-8.86672
▁agang	-8.87059
▁arat	-8.87106
▁rget	-8.87179
▁etiga	-8.87239
ma	-8.87272
▁ASN	-8.87288
▁stina	-8.87398
▁berb	-8.87458
▁ap	-8.87559
▁Papua	-8.87659
▁ef	-8.87733
▁il	-8.87961
▁Nu	-8.88052
▁Ap	-8.88282
▁maju	-8.883
▁ipta	-8.88536
▁lanj	-8.88558
▁usai	-8.88639
▁iv	-8.88643
ubah	-8.88865
▁lo	-8.88888
▁tutu	-8.89071
▁inan	-8.89121
ti	-8.89189
▁lind	-8.8921
▁ham	-8.8928
▁ilang	-8.89593
▁rah	-8.89655
▁Febr	-8.89897
▁aji	-8.8994
▁Bea	-8.89967
▁ma	-8.8998
▁beda	-8.90251
▁Ahmad	-8.90368
▁ati	-8.90368
▁Lu	-8.90663
▁agai	-8.90679
▁Pemb	-8.90884
▁henti	-8.90991
▁ianto	-8.91005
▁Hamas	-8.91362
▁tanya	-8.91577
▁nja	-8.91795
▁of	-8.91871
▁dekat	-8.91916
▁mil	-8.91966
▁ic	-8.91973
▁mbah	-8.92301
▁desa	-8.92377
▁raga	-8.92392
▁ton	-8.92427
▁libat	-8.92629
▁san	-8.92745
▁unu	-8.92792
▁ibusi	-8.92834
uju	-8.93
▁tap	-8.93003
▁olusi	-8.9313
ut	-8.9321
▁anten	-8.93437
▁Dewa	-8.93518
▁udaya	-8.93816
di	-8.93821
▁mar	-8.9393
▁api	-8.9399
▁ama	-8.94382
▁rtem	-8.94472
A	-8.9452
ew	-8.94555
▁rif	-8.94601
▁ligus	-8.94881
▁eni	-8.95097
G	-8.95132
▁ncang	-8.95337
▁tri	-8.95339
▁etak	-8.95457
▁pol	-8.95517
▁rdana	-8.95549
▁saksi	-8.95605
▁abat	-8.95607
▁kala	-8.95758
▁ad	-8.95882
▁han	-8.95928
▁urut	-8.95966
▁peran	-8.9608
▁15	-8.96176
▁hit	-8.9641
▁nd	-8.96531
▁enam	-8.96558
▁penu	-8.96628
▁hujan	-8.96644
▁utra	-8.96771
▁siasi	-8.97078
▁sakit	-8.97114
▁nutu	-8.97122
▁oli	-8.97303
▁alu	-8.97344
▁inis	-8.9745
▁Dar	-8.97531
▁pasar	-8.97648
▁adwal	-8.97679
▁lasan	-8.97871
▁visi	-8.97995
▁emo	-8.98054
▁enuhi	-8.98151
▁pres	-8.98247
▁ajak	-8.9862
▁penuh	-8.98643
▁Depok	-8.98791
▁alat	-8.98999
▁turun	-8.99002
▁rusak	-8.99033
▁ju	-8.99082
▁duksi	-8.99089
▁mak	-8.99119
▁uru	-8.99222
▁Ca	-8.99369
▁akti	-8.99431
N	-8.99479
▁Jatim	-8.99582
▁pas	-8.99698
▁tanah	-8.99722
▁orasi	-8.99803
idak	-8.99891
▁demo	-8.99897
▁anjir	-9.00043
▁oe	-9.00101
▁alur	-9.00439
▁uhan	-9.0088
ing	-9.0103
▁ancam	-9.01092
▁sana	-9.01129
▁Na	-9.01262
▁Pil	-9.01318
▁aris	-9.01755
▁epang	-9.01787
▁ev	-9.01793
sip	-9.01845
▁fasi	-9.01884
▁Bu	-9.0198
▁30	-9.02032
▁ngg	-9.02064
▁aksa	-9.02087
▁Biden	-9.02144
▁Kali	-9.0236
▁toko	-9.02383
▁Seb	-9.02455
▁Po	-9.02483
▁Mal	-9.02494
▁riode	-9.02573
▁ungsi	-9.02596
▁Hi	-9.02618
▁aju	-9.02654
▁mini	-9.02726
▁ersib	-9.0273
E	-9.02781
▁norer	-9.02798
▁ket	-9.02875
▁aku	-9.02961
▁ba	-9.02974
▁Bank	-9.02985
omor	-9.03032
▁yan	-9.03086
▁sisi	-9.03193
▁urah	-9.03546
▁musim	-9.03557
P	-9.03668
▁Wali	-9.03708
▁est	-9.03992
▁ok	-9.0415
▁mina	-9.04237
▁kade	-9.04471
▁Ju	-9.04659
▁lemen	-9.04707
▁fi	-9.04849
▁ncur	-9.04864
▁pula	-9.05005
▁As	-9.05131
B	-9.05352
▁egitu	-9.05461
▁tewas	-9.05471
▁Salah	-9.05473
▁DKI	-9.05503
▁ener	-9.05539
▁Th	-9.05578
▁imp	-9.05827
▁ropa	-9.05846
▁akses	-9.05853
▁nurun	-9.05864
▁16	-9.05881
▁dapu	-9.05927
▁amar	-9.05956
▁terp	-9.05975
▁ki	-9.06004
00	-9.0602
YA	-9.06102
▁alan	-9.06128
▁ega	-9.06304
▁krasi	-9.06313
▁elola	-9.0633
▁Wi	-9.0643
▁kand	-9.06454
▁nark	-9.06456
▁gol	-9.06498
▁temu	-9.06526
▁Jo	-9.06631
▁min	-9.06679
▁tusan	-9.06884
▁inf	-9.06901
▁trasi	-9.06905
▁org	-9.06961
▁fokus	-9.07393
▁rio	-9.07508
▁pilih	-9.07653
▁X	-9.0787
▁atur	-9.07958
▁Pu	-9.0806
▁royek	-9.08103
▁utuh	-9.0816
▁leksi	-9.08168
▁bo	-9.08188
▁kep	-9.08252
▁ons	-9.08259
▁udi	-9.08433
▁Jabar	-9.08514
I	-9.08526
▁atan	-9.08584
▁PBB	-9.08594
▁ns	-9.08673
ku	-9.08707
▁abil	-9.08806
▁om	-9.08873
▁kira	-9.08873
kno	-9.09149
▁ebar	-9.09292
▁De	-9.09313
▁emas	-9.09401
▁utih	-9.09415
▁eg	-9.09676
▁usul	-9.09677
▁14	-9.09743
▁rut	-9.09771
▁sen	-9.09777
▁kha	-9.09859
mbar	-9.09914
ustr	-9.09914
▁film	-9.09947
▁mis	-9.09962
lalu	-9.10109
▁tand	-9.10118
▁ganti	-9.10129
▁eno	-9.10142
▁luka	-9.1018
▁mata	-9.10351
▁alani	-9.10373
▁mudah	-9.10423
▁Jaya	-9.1043
▁uduk	-9.10533
▁Calon	-9.1072
ger	-9.10762
▁angga	-9.10775
lab	-9.10856
▁Dinas	-9.10918
▁tiba	-9.10933
▁port	-9.10939
um	-9.10976
ang	-9.11035
▁io	-9.11119
▁Nusa	-9.11145
▁anggu	-9.1125
▁UMKM	-9.1132
▁Ek	-9.11384
▁rhat	-9.11393
▁video	-9.11588
▁Pela	-9.1169
▁turut	-9.11691
▁bers	-9.11694
▁ira	-9.12605
▁njut	-9.12681
▁laut	-9.12717
▁nggul	-9.12917
▁meter	-9.12918
▁tuli	-9.12928
ip	-9.12962
▁urve	-9.13003
▁enga	-9.1304
▁Ia	-9.1314
▁wujud	-9.13342
▁kema	-9.13347
▁tnya	-9.1335
▁andar	-9.13449
▁tepat	-9.1348
▁ele	-9.13527
▁rkuat	-9.13689
▁asuk	-9.13692
▁erke	-9.13729
▁rem	-9.13829
▁ngat	-9.13851
▁uncur	-9.13955
▁inat	-9.14034
▁urat	-9.14219
ri	-9.14254
nggo	-9.14257
R	-9.14494
▁rik	-9.14618
▁rap	-9.14933
▁awang	-9.14959
▁lewa	-9.15008
▁lidi	-9.15071
po	-9.15086
▁mau	-9.15088
▁ri	-9.15144
▁final	-9.15201
▁rcaya	-9.15475
▁pla	-9.15512
▁tel	-9.1568
▁os	-9.15742
3	-9.15794
▁pel	-9.15866
▁unung	-9.15976
▁berat	-9.16016
▁eta	-9.16078
▁tahap	-9.16185
▁utri	-9.16205
asya	-9.16213
L	-9.16286
▁ersih	-9.16524
▁ibran	-9.16595
▁resta	-9.1666
▁un	-9.16707
▁FC	-9.16833
▁janji	-9.16948
▁PDIP	-9.16957
▁enta	-9.17013
▁Agung	-9.1709
▁liti	-9.17127
▁Ga	-9.1731
H	-9.17389
▁kecil	-9.17426
▁maka	-9.17608
▁bat	-9.17764
▁tasi	-9.178
▁emik	-9.17801
▁gr	-9.18164
▁jur	-9.18197
▁Suka	-9.18271
▁pra	-9.18301
▁narik	-9.18356
▁kasih	-9.1846
▁11	-9.18469
▁18	-9.18473
▁ekan	-9.18495
▁hati	-9.18515
▁ubah	-9.18517
▁pesan	-9.18698
▁su	-9.18738
▁aw	-9.18769
▁tra	-9.18822
▁ilm	-9.18949
▁Kare	-9.19144
▁teman	-9.19173
▁udah	-9.19368
▁olog	-9.19404
▁ntung	-9.19574
▁rawat	-9.19604
▁obat	-9.19637
▁okter	-9.19661
▁atal	-9.19669
▁24	-9.19806
▁str	-9.19841
▁luang	-9.19844
F	-9.19996
▁olkar	-9.2003
▁rw	-9.2003
▁izin	-9.20047
▁Warga	-9.20181
▁adang	-9.20194
▁mati	-9.20346
▁Gib	-9.20418
▁anya	-9.20515
▁atif	-9.20575
▁mpro	-9.20637
▁sulit	-9.20762
▁all	-9.20778
▁dic	-9.20877
▁Kh	-9.20955
epas	-9.20997
▁ungi	-9.21047
▁Bud	-9.21074
▁glo	-9.21116
▁isu	-9.21118
▁Rumah	-9.21137
▁sitif	-9.21349
▁ngan	-9.21388
▁kuasa	-9.21426
▁tas	-9.21475
▁egi	-9.21532
▁Hukum	-9.21573
▁watir	-9.22044
W	-9.22117
▁beri	-9.22131
▁ukses	-9.22164
▁Yu	-9.22173
▁Pas	-9.22257
▁id	-9.22302
▁apre	-9.22425
▁emb	-9.22481
▁indah	-9.22513
▁13	-9.22581
▁dij	-9.22608
▁aktif	-9.22778
▁17	-9.22906
nlin	-9.22989
▁st	-9.23067
▁ry	-9.23096
▁rtan	-9.23236
▁sema	-9.23395
▁Ho	-9.23459
C	-9.23586
▁ngani	-9.23614
▁ot	-9.23668
▁poin	-9.23707
▁aslon	-9.2374
▁khus	-9.23753
▁laki	-9.23856
▁bahas	-9.23882
▁Si	-9.23929
▁so	-9.24284
▁anj	-9.24328
▁atat	-9.2434
▁ger	-9.24432
▁unit	-9.24464
kam	-9.24566
▁yarat	-9.24665
jual	-9.24715
▁nggil	-9.24799
▁ebut	-9.24904
▁go	-9.24921
▁nggu	-9.2498
nov	-9.25012
▁lahi	-9.25188
▁eng	-9.2522
▁uncul	-9.25444
▁Da	-9.25468
▁agi	-9.25637
▁uat	-9.2575
any	-9.25765
▁int	-9.25797
▁skrim	-9.25805
▁ulasi	-9.25901
▁rens	-9.25903
▁lu	-9.25941
▁puluh	-9.25953
▁tik	-9.26431
▁erai	-9.26587
▁ex	-9.26672
▁tegas	-9.2681
▁eksp	-9.27008
▁spons	-9.2707
▁uasa	-9.2714
▁nal	-9.27168
▁jang	-9.27191
▁gab	-9.27224
▁sawat	-9.27287
▁Itu	-9.27361
▁loka	-9.27492
▁lin	-9.27511
▁25	-9.27658
▁agama	-9.27663
U	-9.2794
▁isme	-9.27964
▁Riau	-9.2805
▁uc	-9.28132
▁total	-9.28226
▁dikit	-9.28294
T	-9.28382
▁jaba	-9.2842
▁uktur	-9.28536
▁war	-9.28575
▁Utama	-9.28615
▁uami	-9.28774
▁kumen	-9.28896
▁stra	-9.28994
▁bayar	-9.29151
▁krat	-9.29159
▁SAR	-9.29219
▁emat	-9.2929
▁ec	-9.29379
▁makan	-9.29543
jang	-9.29555
▁umen	-9.29595
▁Besar	-9.29732
▁ntar	-9.29735
▁ep	-9.29901
▁bali	-9.29945
▁pagi	-9.29946
▁inta	-9.30082
▁erman	-9.30121
▁Yogya	-9.30134
enpa	-9.30141
▁kalah	-9.30264
▁mung	-9.30278
▁co	-9.30425
el	-9.30442
▁ine	-9.30533
▁damai	-9.30554
asuk	-9.3077
▁rkara	-9.3078
▁marin	-9.30857
▁ens	-9.30857
▁akang	-9.30894
▁Tri	-9.309
▁taris	-9.30956
▁tum	-9.31072
2	-9.31333
▁Abdu	-9.31425
▁gagal	-9.31512
▁urus	-9.31629
▁atuan	-9.31704
▁lur	-9.31705
K	-9.31755
kre	-9.32045
▁Ng	-9.3212
▁sonel	-9.32177
▁catat	-9.3219
▁waslu	-9.3225
▁ayang	-9.32398
▁Raya	-9.32449
▁suh	-9.32506
▁rapan	-9.32599
▁rili	-9.3265
▁ud	-9.32669
▁past	-9.3276
▁iaya	-9.32778
siap	-9.32785
S	-9.32853
▁ris	-9.32871
▁Dua	-9.3301
▁gawai	-9.3301
▁BMKG	-9.33159
▁27	-9.33386
▁ratu	-9.33396
▁DPRD	-9.3344
▁ity	-9.33544
▁rugi	-9.33583
▁uk	-9.33709
▁bebas	-9.33742
▁ual	-9.33747
▁Sat	-9.33823
▁tubuh	-9.33826
▁19	-9.33964
▁ca	-9.34013
▁BRI	-9.3403
▁berj	-9.34138
ha	-9.34198
▁ksi	-9.34286
▁ato	-9.34338
▁mitr	-9.34374
▁sabu	-9.34415
▁asar	-9.34439
▁iar	-9.34581
▁njara	-9.34601
▁dam	-9.34637
▁usung	-9.34854
▁gube	-9.34882
▁Anak	-9.34944
▁ntik	-9.35063
▁asing	-9.35231
▁ndah	-9.35327
▁Eri	-9.35329
▁duli	-9.35425
▁istri	-9.35701
▁Ed	-9.35738
▁ahfud	-9.35767
▁Joko	-9.35771
▁Kete	-9.35798
▁ula	-9.35799
▁elek	-9.3582
▁ill	-9.3586
▁rbang	-9.35873
▁Sej	-9.35908
▁Bant	-9.35958
▁aka	-9.35976
▁ram	-9.35988
▁los	-9.35989
▁UU	-9.36105
▁Islam	-9.36108
▁sipil	-9.36216
▁sy	-9.36255
▁jalu	-9.36335
▁kat	-9.36418
▁tani	-9.3642
▁balik	-9.36428
▁Mana	-9.36504
▁aki	-9.36527
▁tua	-9.36544
abar	-9.36627
▁Kedua	-9.36694
▁ngkut	-9.36718
▁atasi	-9.36736
▁ibat	-9.36782
▁ratis	-9.36818
▁hen	-9.3712
▁Humas	-9.3714
▁hor	-9.37161
▁turan	-9.37164
▁ment	-9.37171
▁tes	-9.3726
▁mpi	-9.37281
omen	-9.37327
▁PDI	-9.37362
▁DPP	-9.37399
▁luk	-9.37428
▁tatus	-9.37548
▁lak	-9.37581
▁amu	-9.37667
▁nolak	-9.37924
▁demi	-9.37975
to	-9.37982
▁gel	-9.38071
▁ge	-9.3819
▁erat	-9.38396
x	-9.38444
▁iap	-9.38521
▁uncak	-9.38535
▁isah	-9.3855
▁landa	-9.38637
▁pil	-9.3867
ebab	-9.38717
▁etro	-9.38779
▁edar	-9.38973
stiw	-9.39102
▁ob	-9.39175
▁Rama	-9.39215
▁rtum	-9.39219
st	-9.39288
▁22	-9.39312
▁gi	-9.39344
▁egal	-9.3937
▁ila	-9.39408
▁nflik	-9.39677
▁ky	-9.39686
▁tegis	-9.39857
▁rand	-9.39926
▁eb	-9.40405
▁Keb	-9.40421
▁gu	-9.40513
▁leg	-9.40519
▁23	-9.4053
▁lub	-9.4055
▁mere	-9.40597
▁kapa	-9.40615
▁nerja	-9.40671
1	-9.40754
▁ward	-9.4077
▁Id	-9.40784
▁bang	-9.40814
▁hu	-9.40995
▁angi	-9.41103
▁ion	-9.41135
▁nto	-9.41202
▁ou	-9.4131
▁dini	-9.41385
▁ampah	-9.41606
▁kilo	-9.41836
▁Hasil	-9.41934
▁ajar	-9.41998
▁Lebih	-9.42008
▁idodo	-9.421
▁jaran	-9.42124
▁ombe	-9.42147
▁undur	-9.42197
▁egini	-9.42199
▁ncob	-9.42399
▁ebas	-9.42408
▁wa	-9.42437
▁II	-9.4244
▁agu	-9.42505
▁iswa	-9.42505
▁baran	-9.42558
▁ore	-9.42577
cel	-9.42584
▁iah	-9.42865
▁akaan	-9.42908
▁mpak	-9.42935
▁sal	-9.43016
▁ff	-9.43048
▁ium	-9.43211
na	-9.43245
▁jarah	-9.43304
▁saing	-9.43336
▁ster	-9.43378
▁raya	-9.43388
▁rid	-9.43461
▁titik	-9.43564
▁isiko	-9.43574
▁suatu	-9.43662
▁Ti	-9.43745
▁ahaya	-9.43877
▁rd	-9.43926
▁BA	-9.44133
▁Kita	-9.44219
▁Pj	-9.44239
▁jud	-9.44262
▁ileg	-9.44366
▁tiv	-9.44398
▁bal	-9.44406
rim	-9.44592
▁jaksa	-9.4468
▁kad	-9.44683
▁non	-9.44724
▁lahan	-9.44725
▁mbeli	-9.44767
gu	-9.44804
▁21	-9.44817
▁alah	-9.45033
▁Aceh	-9.45047
▁una	-9.45048
pir	-9.45198
▁liun	-9.45255
iz	-9.45284
▁Laut	-9.45314
▁To	-9.45419
▁alif	-9.45566
▁bawa	-9.45599
▁UR	-9.45667
▁akun	-9.4569
▁bus	-9.45743
▁rata	-9.45745
▁Info	-9.45923
▁Pasar	-9.46022
▁anda	-9.46112
▁warna	-9.46188
▁ensi	-9.46191
▁berp	-9.46199
▁are	-9.46241
▁utu	-9.46363
▁jatu	-9.46405
▁oro	-9.4642
▁badan	-9.46445
▁apar	-9.46593
▁Bang	-9.46806
▁tis	-9.46852
▁reta	-9.46856
▁istan	-9.46863
▁MK	-9.4689
▁ip	-9.46911
▁sif	-9.46913
▁jo	-9.46983
▁dakwa	-9.47032
▁fe	-9.4705
▁aran	-9.4714
▁eo	-9.47173
KBP	-9.47614
▁konf	-9.47707
▁Mas	-9.47789
▁awan	-9.47931
▁28	-9.4795
▁PP	-9.47974
▁sud	-9.48108
▁nc	-9.48154
▁erek	-9.4818
▁vi	-9.48455
▁isten	-9.48481
▁son	-9.48608
▁Ad	-9.48621
▁nat	-9.48689
▁uz	-9.48746
▁foto	-9.48767
▁abu	-9.48792
▁wati	-9.48823
▁ngin	-9.48849
▁kete	-9.48896
▁fisi	-9.48919
▁enter	-9.48949
▁grasi	-9.49071
▁ey	-9.4909
▁ABA	-9.4912
▁emuda	-9.4916
▁amin	-9.49184
▁labu	-9.49259
▁adil	-9.4943
▁%	-9.49443
▁JPNN	-9.49443
▁orot	-9.49524
▁rbai	-9.49526
▁net	-9.4956
▁DPD	-9.49574
▁26	-9.4958
▁Ge	-9.49634
▁ay	-9.49634
▁etuju	-9.49665
▁orum	-9.49669
▁Do	-9.49695
▁ungai	-9.49724
▁hakim	-9.49755
▁adu	-9.49913
▁kaian	-9.49951
▁Arab	-9.50033
▁mpul	-9.50117
▁ngha	-9.50126
J	-9.5018
▁ien	-9.5026
ANG	-9.50422
▁em	-9.50496
▁rist	-9.50545
▁ahan	-9.50561
▁uran	-9.50668
▁atar	-9.50686
▁ame	-9.50765
▁TPS	-9.50768
▁art	-9.50827
▁Kasus	-9.50936
▁misi	-9.50976
▁eli	-9.51016
▁ort	-9.51042
ch	-9.51046
▁kla	-9.51121
▁efe	-9.51139
▁men	-9.5118
▁alih	-9.5118
▁Fo	-9.51288
▁pon	-9.51328
▁leng	-9.51446
▁amat	-9.51736
▁nergi	-9.51822
▁sang	-9.52
▁ow	-9.52088
▁ez	-9.52142
▁iaga	-9.52162
▁unan	-9.52211
▁krit	-9.52279
▁aktor	-9.52307
▁Ibu	-9.52336
▁simal	-9.5234
▁tion	-9.52433
▁mo	-9.5246
▁ib	-9.52474
▁Ole	-9.52589
▁kri	-9.52598
▁ld	-9.52725
▁riba	-9.5276
inum	-9.52811
▁arc	-9.52869
▁lit	-9.52869
rtaw	-9.52884
▁ayu	-9.52927
▁ch	-9.53011
▁BUMN	-9.53023
▁29	-9.53206
▁Trans	-9.53328
▁akui	-9.53453
▁Li	-9.53586
▁sedia	-9.53667
▁nton	-9.53724
▁rjen	-9.53735
▁epa	-9.53802
▁Jik	-9.53841
▁lir	-9.5388
▁musik	-9.54458
▁gene	-9.54519
▁ation	-9.5469
▁wajib	-9.54863
▁ejak	-9.54919
▁bar	-9.54947
▁asjid	-9.54966
▁redi	-9.54978
▁ingan	-9.55192
▁av	-9.55253
▁esak	-9.55366
▁ult	-9.5539
▁ink	-9.55393
▁PKB	-9.5543
▁ekat	-9.5544
▁gugat	-9.55642
▁tutup	-9.5567
▁bila	-9.5569
▁nawa	-9.55888
▁ategi	-9.56005
▁lok	-9.56015
▁lis	-9.56078
▁area	-9.56128
▁lagu	-9.56179
▁enda	-9.56305
▁NTARA	-9.56842
opul	-9.56964
▁ron	-9.56975
▁libur	-9.57054
▁mb	-9.57136
▁audi	-9.57169
▁kam	-9.57178
▁IKN	-9.57194
▁ndali	-9.57287
▁bon	-9.57308
asis	-9.57316
▁untu	-9.57376
▁bank	-9.57383
id	-9.57413
▁aja	-9.57482
▁har	-9.57504
▁edak	-9.57641
▁keme	-9.57655
▁stik	-9.57688
▁sw	-9.5769
▁tam	-9.5778
▁rent	-9.57782
▁olsek	-9.57901
form	-9.57993
▁ikan	-9.57997
▁tema	-9.5806
▁ala	-9.58068
▁tud	-9.58097
▁;	-9.58117
▁sign	-9.58129
▁ase	-9.58207
▁lant	-9.58213
▁inda	-9.58394
▁our	-9.58428
▁nalis	-9.58482
▁adat	-9.5854
ho	-9.58541
▁kuti	-9.58546
▁apan	-9.58563
▁sari	-9.58716
▁wali	-9.58844
▁gen	-9.58852
▁debat	-9.58862
▁dy	-9.58927
plik	-9.58939
▁suka	-9.59003
▁ayak	-9.5902
▁ansi	-9.59141
▁kau	-9.59283
▁baba	-9.59291
▁iro	-9.59425
▁ard	-9.59464
le	-9.59472
▁taw	-9.59479
▁elah	-9.59489
▁ona	-9.59507
▁terj	-9.59606
▁kelas	-9.597
▁hil	-9.59701
▁uter	-9.59717
▁edan	-9.59756
▁agram	-9.59833
▁af	-9.5991
▁sini	-9.59925
▁Fil	-9.59993
▁ell	-9.6006
▁nikah	-9.60135
▁mat	-9.60148
▁pri	-9.60168
▁iyah	-9.60254
▁ner	-9.60257
kum	-9.60294
▁arga	-9.60299
▁rapat	-9.60351
▁iet	-9.60369
▁evak	-9.60465
▁indra	-9.60659
7	-9.60672
▁reg	-9.60699
▁ekasi	-9.60707
▁karya	-9.60778
▁guh	-9.60965
▁tat	-9.6102
▁minal	-9.61101
▁arti	-9.61112
▁pand	-9.61294
▁biaya	-9.61377
▁ullah	-9.61606
ranc	-9.61606
▁ransi	-9.61662
▁rofe	-9.61693
▁etik	-9.61725
no	-9.618
▁tren	-9.6186
6	-9.61938
▁ern	-9.62071
▁ator	-9.62127
▁ikl	-9.62139
▁Ex	-9.62165
▁rangi	-9.62237
▁mal	-9.6237
▁Am	-9.62414
▁ukur	-9.62431
▁emi	-9.62489
▁ndra	-9.62718
▁titu	-9.62737
▁ilgub	-9.62803
▁kena	-9.62835
▁iz	-9.6294
▁mping	-9.62987
▁tru	-9.63001
▁mi	-9.63011
af	-9.63035
▁mudik	-9.63046
▁ito	-9.63154
▁uri	-9.63165
▁lar	-9.63176
▁HAM	-9.63429
▁darah	-9.63456
▁ruan	-9.6354
▁rast	-9.63598
nas	-9.63649
▁inyak	-9.63733
▁sah	-9.63758
▁rta	-9.63799
▁PAN	-9.63817
▁ustr	-9.64081
▁India	-9.64162
▁nghi	-9.64283
▁buruk	-9.64308
▁eral	-9.64325
▁aysia	-9.64379
▁pingi	-9.64398
▁llah	-9.64435
UNG	-9.64462
▁uf	-9.64579
▁kup	-9.64594
▁egori	-9.64609
▁Mega	-9.64664
▁kaya	-9.64758
▁mpur	-9.64768
ola	-9.64821
▁aik	-9.64934
▁akta	-9.65285
▁Nat	-9.6531
▁etisi	-9.65314
▁eny	-9.65411
▁oni	-9.65411
▁num	-9.65431
▁nden	-9.65597
▁ntut	-9.65825
▁jemen	-9.65867
▁ndar	-9.65875
▁onal	-9.65889
▁banon	-9.65992
▁nggah	-9.66008
▁ork	-9.66121
9	-9.66149
▁lia	-9.66171
▁ampus	-9.66182
▁jaya	-9.66272
▁ese	-9.66308
▁ahy	-9.66342
car	-9.66394
▁ohon	-9.66397
▁uatan	-9.6644
▁kti	-9.66441
▁uta	-9.66542
▁kabu	-9.666
▁ji	-9.66782
▁fikan	-9.66904
▁mic	-9.66905
▁Ki	-9.6714
▁nder	-9.67285
AN	-9.67344
▁Orang	-9.67374
▁sikap	-9.6742
▁And	-9.67469
▁Bel	-9.67528
▁Lo	-9.67597
▁ND	-9.67601
▁nti	-9.67652
ahte	-9.6771
▁Dr	-9.6773
▁trad	-9.67798
utar	-9.67798
▁PBD	-9.67845
▁ade	-9.67865
▁jahat	-9.68093
▁one	-9.68114
▁Pri	-9.68154
wed	-9.68166
kor	-9.68236
men	-9.6831
▁juk	-9.68337
▁ANG	-9.68403
▁anji	-9.68494
▁sik	-9.68534
▁engk	-9.68585
▁100	-9.68913
▁Ilu	-9.68918
yor	-9.68931
▁raan	-9.68973
▁idat	-9.69015
▁tib	-9.69057
▁wal	-9.69075
▁ogja	-9.69143
▁cah	-9.6916
▁rius	-9.69284
▁ury	-9.69304
▁ntah	-9.69476
▁ahul	-9.69559
ohon	-9.69599
▁okan	-9.69667
ni	-9.69708
▁jak	-9.69789
▁sial	-9.69806
▁oba	-9.69847
▁emkot	-9.69858
▁pu	-9.6988
min	-9.69898
▁sel	-9.699
▁umi	-9.69905
▁mui	-9.69913
▁dur	-9.69914
▁puk	-9.69959
im	-9.70018
lat	-9.70025
▁edi	-9.70027
elap	-9.70048
▁uth	-9.70093
▁ima	-9.70096
▁plo	-9.70097
▁ord	-9.70119
▁tekn	-9.7034
▁31	-9.7078
▁ater	-9.70895
▁baya	-9.70896
▁anksi	-9.70931
▁hutan	-9.7097
▁pos	-9.71083
▁riah	-9.71112
▁erv	-9.71122
▁tival	-9.71228
skus	-9.71384
▁jeli	-9.71444
▁aes	-9.71546
▁AI	-9.71595
▁lim	-9.71597
▁anita	-9.71637
▁awak	-9.71663
▁rud	-9.71675
▁mpa	-9.71844
▁eber	-9.71845
ewas	-9.72019
▁kiri	-9.72126
▁ahli	-9.72134
▁arus	-9.72155
agi	-9.72218
▁ions	-9.72229
▁tlet	-9.72261
▁oto	-9.72294
▁ender	-9.72363
▁assa	-9.72407
▁antau	-9.72424
▁ako	-9.72451
▁sih	-9.72517
▁iring	-9.72528
▁uriah	-9.72537
et	-9.72586
▁BBC	-9.72659
▁ntuk	-9.72686
▁ojo	-9.72693
▁empa	-9.72828
▁Paris	-9.72878
▁usun	-9.72961
▁enior	-9.73154
fri	-9.7319
▁lus	-9.73214
▁Sek	-9.73221
▁wil	-9.73229
▁ketu	-9.73232
▁migr	-9.73274
▁rbit	-9.73523
▁bakar	-9.73788
▁anc	-9.73802
▁tr	-9.73824
▁perd	-9.73834
▁otoGP	-9.73893
▁rit	-9.73894
▁kuad	-9.7392
▁Vi	-9.73952
▁nci	-9.7401
▁ial	-9.74116
▁ene	-9.74235
▁yanto	-9.74297
▁psi	-9.74302
▁inci	-9.74469
▁Pihak	-9.74518
▁lum	-9.7459
▁tabil	-9.74669
▁Thai	-9.74688
▁fif	-9.74703
▁atuh	-9.74729
▁Mak	-9.74732
▁erak	-9.74734
▁keta	-9.74751
▁Oper	-9.74815
▁muka	-9.74886
▁mbil	-9.7494
▁siang	-9.74966
▁Gus	-9.75162
▁pikir	-9.75278
▁hip	-9.75365
▁log	-9.75402
▁Ali	-9.75445
▁CPNS	-9.75528
▁ehari	-9.75528
▁duh	-9.7555
▁ting	-9.7556
erap	-9.75563
▁uddin	-9.75658
pak	-9.75659
▁ning	-9.75709
▁her	-9.75772
▁Az	-9.75838
▁In	-9.75863
▁Hasto	-9.75915
▁SDM	-9.75991
▁piade	-9.76164
▁q	-9.76257
▁ayat	-9.76263
▁ngkit	-9.76293
▁PKS	-9.7639
▁III	-9.7648
▁az	-9.7655
▁epeda	-9.76554
▁esi	-9.76608
▁eman	-9.76661
▁umsel	-9.76679
▁Kal	-9.7673
▁RS	-9.76739
▁roni	-9.76902
▁awesi	-9.76941
▁jiwa	-9.77068
▁pat	-9.7716
▁indo	-9.77205
▁Ni	-9.77232
▁idw	-9.77273
▁ick	-9.77287
▁ras	-9.77394
▁angk	-9.77482
kab	-9.77551
▁Grup	-9.77589
▁cam	-9.77635
▁ntrak	-9.77749
tiv	-9.77776
▁asti	-9.77796
▁yu	-9.77878
▁igasi	-9.77899
▁utara	-9.77904
ket	-9.77909
▁dar	-9.7796
▁Mah	-9.77988
▁reka	-9.78024
▁oha	-9.78033
agus	-9.78036
▁ongs	-9.78045
▁mbul	-9.78081
▁lulus	-9.78098
▁ck	-9.78109
▁imbau	-9.78121
▁vs	-9.78258
gab	-9.78276
▁old	-9.78333
▁arma	-9.78337
▁kut	-9.78392
laim	-9.78459
osok	-9.78487
▁sore	-9.78545
▁bumi	-9.78559
▁rus	-9.78604
▁ero	-9.78626
▁genda	-9.78657
▁aham	-9.78692
▁rela	-9.78707
▁od	-9.78755
▁Ak	-9.7877
▁alisi	-9.78858
▁rat	-9.79002
▁antu	-9.79024
▁$	-9.79144
▁opti	-9.79366
▁emua	-9.79422
▁lil	-9.79477
▁akyat	-9.79673
▁uslim	-9.79703
▁las	-9.79705
▁umpu	-9.79757
▁Group	-9.79803
▁onto	-9.79839
▁Ri	-9.79847
▁ondo	-9.79847
▁Ac	-9.79848
▁parat	-9.79912
duh	-9.8001
▁mir	-9.80113
▁50	-9.80127
▁ingga	-9.80155
▁ino	-9.80233
▁pajak	-9.80308
▁aga	-9.8039
NPA	-9.80512
uang	-9.8063
▁rmal	-9.80633
▁pab	-9.80647
▁iti	-9.80685
▁uming	-9.80724
▁anyi	-9.80793
▁lans	-9.80893
▁udin	-9.80909
▁Go	-9.81095
▁awa	-9.81118
▁knis	-9.81142
▁impor	-9.81143
▁iga	-9.81154
▁agung	-9.81217
▁ft	-9.81229
▁rdeka	-9.8127
▁rokok	-9.8127
▁esan	-9.81337
▁merah	-9.81419
yu	-9.81483
▁asih	-9.81528
M	-9.81538
▁ekla	-9.81565
▁hamp	-9.81606
▁ahasa	-9.81721
▁eras	-9.81777
▁abar	-9.81799
▁emkab	-9.81817
▁ver	-9.81975
▁ekor	-9.82027
▁Uni	-9.82037
▁jual	-9.82083
▁epe	-9.82252
▁amai	-9.8226
▁ain	-9.82267
▁Kem	-9.82285
4	-9.82323
▁nen	-9.82348
hin	-9.82385
▁iwan	-9.82401
rof	-9.82425
▁vid	-9.82512
▁uw	-9.827
▁ontra	-9.82765
▁cu	-9.82768
▁arak	-9.82822
▁panas	-9.82824
▁uci	-9.82848
▁amil	-9.82903
▁ew	-9.82933
▁gan	-9.8301
▁nahan	-9.8309
▁ema	-9.83121
▁esin	-9.83126
▁ajah	-9.8324
▁ander	-9.8335
▁umur	-9.83502
▁kah	-9.8357
▁ome	-9.83648
▁otel	-9.83654
▁rung	-9.83658
▁angin	-9.83719
▁yono	-9.83738
▁temen	-9.83741
ga	-9.83742
▁01	-9.83818
▁rum	-9.83842
▁eal	-9.83859
▁Adi	-9.8392
▁the	-9.84017
▁x	-9.84046
▁Angk	-9.84182
▁Sh	-9.8422
▁ifik	-9.84303
▁ogo	-9.84349
▁bud	-9.84556
▁ee	-9.84602
▁otif	-9.84695
▁rkir	-9.84899
▁amb	-9.84986
▁krea	-9.8511
▁kap	-9.85117
▁mbuh	-9.85143
▁ice	-9.85304
▁bis	-9.85308
▁ura	-9.85328
▁baca	-9.85384
▁02	-9.85442
▁SIS	-9.85464
▁tre	-9.85539
▁uas	-9.85622
▁ursi	-9.85667
▁raki	-9.8567
▁yat	-9.85774
▁qu	-9.85925
▁ru	-9.85977
▁eto	-9.85989
▁akai	-9.85992
▁arta	-9.86024
▁rto	-9.86029
▁ngkar	-9.86052
▁ewi	-9.86066
▁Ari	-9.86182
▁tara	-9.86195
▁pakai	-9.86384
▁rie	-9.86388
▁nten	-9.86417
▁lm	-9.86438
▁bint	-9.86487
▁igran	-9.8651
▁ntu	-9.86533
▁iq	-9.86577
▁logis	-9.8658
▁nsum	-9.86591
▁bes	-9.86592
▁ilit	-9.86641
▁kbar	-9.86653
▁lti	-9.86713
▁real	-9.8673
▁umsi	-9.86754
▁!	-9.86793
▁gub	-9.86837
▁nis	-9.86859
▁iang	-9.86969
▁adam	-9.86976
▁saran	-9.87023
▁nik	-9.87132
▁mbar	-9.87213
▁arjo	-9.87249
▁aks	-9.87392
▁mc	-9.87477
▁th	-9.87535
▁taf	-9.87601
▁torat	-9.87679
▁lad	-9.87696
▁kur	-9.87845
▁itri	-9.8802
▁ayar	-9.88046
▁vel	-9.88075
▁ndari	-9.88212
▁semi	-9.88262
▁ergi	-9.88266
▁age	-9.88348
▁akal	-9.8851
▁nom	-9.8856
▁ampu	-9.886
▁ntan	-9.88618
▁hat	-9.88662
▁zb	-9.88674
▁Muda	-9.88679
end	-9.88695
▁tir	-9.88876
▁maja	-9.88903
▁Kri	-9.88963
▁ei	-9.88965
▁dul	-9.88972
▁bur	-9.89116
▁oko	-9.89177
ber	-9.89333
▁eku	-9.89465
▁ood	-9.89547
▁robo	-9.89652
▁Tol	-9.89699
▁ingk	-9.89705
▁sla	-9.8991
▁No	-9.89955
▁lon	-9.90083
OTA	-9.90125
▁yawan	-9.90201
▁osk	-9.90221
▁uhu	-9.90316
▁ndat	-9.90381
▁taan	-9.90445
▁isti	-9.90476
▁ayi	-9.90532
▁cek	-9.90536
▁You	-9.90565
▁utan	-9.90621
▁Yo	-9.9063
▁AL	-9.90637
▁za	-9.9067
▁ire	-9.90877
rodu	-9.90929
▁rama	-9.91065
▁gizi	-9.9115
▁gang	-9.91257
▁inggi	-9.91265
▁sur	-9.9138
▁ike	-9.9138
▁elu	-9.91409
Y	-9.91605
ras	-9.91666
▁pid	-9.91867
▁Sen	-9.91887
▁rtim	-9.91891
▁epat	-9.91915
▁ltim	-9.91927
▁emar	-9.91954
▁adir	-9.92025
▁ht	-9.92099
▁TV	-9.92239
V	-9.92269
▁kal	-9.92296
▁ahnya	-9.92338
▁Kan	-9.92354
▁erl	-9.92368
akan	-9.92394
▁brak	-9.92423
ge	-9.92515
▁aca	-9.92645
▁ny	-9.92668
▁rne	-9.92845
▁ruda	-9.92867
▁sip	-9.92899
▁terl	-9.92937
▁bung	-9.93022
▁emah	-9.93219
▁ail	-9.93265
▁uruh	-9.93313
▁yah	-9.93353
▁enny	-9.93393
▁oc	-9.93494
▁ies	-9.93513
tro	-9.93517
▁urna	-9.93629
▁ndri	-9.93747
▁eris	-9.93837
▁ach	-9.93879
▁gur	-9.93939
▁kas	-9.94189
▁sim	-9.94253
▁lly	-9.94323
▁meran	-9.94392
▁wi	-9.94396
▁ier	-9.94531
▁akas	-9.94566
▁atra	-9.94607
▁lam	-9.94651
▁mad	-9.9466
▁edit	-9.94667
▁sos	-9.94712
▁ntak	-9.94802
▁ska	-9.94966
▁mus	-9.95136
▁ect	-9.95188
ada	-9.95221
▁Br	-9.95226
▁ersis	-9.95325
▁yani	-9.95439
▁ental	-9.95449
▁ance	-9.95587
▁apak	-9.95645
▁anja	-9.95798
▁zah	-9.95853
▁laim	-9.95937
▁ori	-9.95939
▁nv	-9.95977
▁gra	-9.96013
▁inaan	-9.96046
▁berl	-9.96124
▁raja	-9.96444
▁ary	-9.96501
▁ten	-9.96571
▁ngge	-9.96615
▁03	-9.96655
▁prin	-9.96706
▁mbo	-9.9671
▁Sl	-9.96923
▁enti	-9.96932
PP	-9.9695
▁dim	-9.96996
aw	-9.97009
▁res	-9.97018
▁sidi	-9.97054
▁mosi	-9.97082
▁siun	-9.97097
▁mbu	-9.97201
▁rig	-9.97227
▁tom	-9.97279
▁ndik	-9.97318
EO	-9.97353
▁rdi	-9.97513
▁reng	-9.97654
▁sti	-9.9772
▁ndai	-9.97873
▁ce	-9.97975
▁ov	-9.97987
▁lf	-9.98237
▁Ir	-9.98406
▁AKP	-9.98643
▁iawan	-9.987
▁atik	-9.98846
▁kasi	-9.98951
▁05	-9.9899
▁obil	-9.98995
▁hkan	-9.99031
▁ear	-9.99036
▁rusan	-9.99201
▁ish	-9.99227
▁PSI	-9.99234
q	-9.99273
put	-9.99437
▁ped	-9.99478
▁by	-9.99676
X	-9.99834
UU	-9.9986
▁ive	-9.99863
▁tong	-9.99874
▁mor	-9.99977
▁aset	-9.99977
▁long	-10.0002
▁kul	-10.001
▁Fes	-10.0024
▁bunuh	-10.003
▁lasi	-10.0035
▁nov	-10.0043
▁ido	-10.0046
▁mah	-10.0047
▁ili	-10.005
▁semen	-10.0058
▁MA	-10.0062
▁SE	-10.0079
▁Ab	-10.0089
▁ujuk	-10.0089
▁samb	-10.0091
▁dro	-10.0113
▁akr	-10.0136
▁jau	-10.0137
▁land	-10.0141
▁ide	-10.0145
▁nuk	-10.0147
▁hami	-10.015
▁itra	-10.0151
amp	-10.0156
▁alin	-10.0163
▁ich	-10.0166
▁gant	-10.0168
▁sual	-10.0175
▁uka	-10.0179
▁leks	-10.0182
,5	-10.0189
▁Set	-10.0206
uran	-10.0208
▁ujan	-10.0224
▁aian	-10.025
▁tek	-10.0258
▁bert	-10.0261
▁arian	-10.027
▁del	-10.0279
▁unju	-10.0282
▁riy	-10.0294
▁kalan	-10.0301
▁gar	-10.0304
▁asta	-10.0306
▁hib	-10.0309
▁nap	-10.0318
▁06	-10.0329
▁resi	-10.0337
▁sis	-10.0337
▁bun	-10.0339
▁vo	-10.0342
▁imin	-10.0346
▁beras	-10.0356
▁ida	-10.0356
▁unt	-10.0361
▁ist	-10.0376
▁enak	-10.0383
▁jian	-10.0388
▁layan	-10.0391
▁utin	-10.0392
▁lor	-10.0396
▁okok	-10.04
▁emak	-10.0408
▁ayan	-10.0412
▁emba	-10.0432
▁iset	-10.0445
▁akim	-10.045
▁muan	-10.0452
▁hab	-10.0458
▁ked	-10.0463
▁oal	-10.0476
▁erd	-10.0478
▁fo	-10.0483
▁mula	-10.0486
▁rac	-10.0488
▁dura	-10.0502
da	-10.0539
▁rkoba	-10.0547
bad	-10.0554
▁imat	-10.0558
▁1,	-10.0559
▁oma	-10.057
▁asu	-10.0575
▁stor	-10.0583
▁40	-10.0584
▁uksi	-10.0587
▁ulan	-10.0593
▁gad	-10.0596
▁lat	-10.0605
▁eksi	-10.0618
▁jer	-10.0629
▁pira	-10.0634
▁erp	-10.064
▁enal	-10.0643
▁tch	-10.0653
▁teng	-10.0654
▁sent	-10.0656
▁uni	-10.0662
▁naman	-10.0663
▁rnia	-10.0665
▁lla	-10.0678
▁tuan	-10.068
▁eten	-10.0685
riw	-10.0686
▁alis	-10.0689
▁ere	-10.071
▁hadi	-10.0722
▁jas	-10.0729
▁enya	-10.0742
▁uti	-10.0753
▁line	-10.0764
▁merek	-10.0767
▁red	-10.0774
▁lukan	-10.0775
▁erka	-10.0779
▁abah	-10.0785
▁bong	-10.0821
▁ambi	-10.0823
▁bak	-10.0826
▁uan	-10.0826
▁ast	-10.0831
AR	-10.0845
▁Ar	-10.0855
▁Kec	-10.0872
▁iau	-10.0876
▁jing	-10.0878
▁onser	-10.0895
▁SEMA	-10.0895
▁jaga	-10.09
▁MPR	-10.0901
▁sad	-10.0916
▁sela	-10.0917
▁NTB	-10.093
▁ue	-10.0951
▁bing	-10.0958
▁tul	-10.0968
▁He	-10.0974
▁nyi	-10.0974
▁ure	-10.0975
▁yam	-10.0978
▁tol	-10.0979
▁diam	-10.0984
▁pora	-10.1004
▁elo	-10.1019
▁uhi	-10.1025
▁put	-10.1026
▁07	-10.1044
▁rip	-10.1045
▁apas	-10.1047
▁enu	-10.1052
▁iak	-10.1057
▁ahar	-10.1058
▁aro	-10.106
▁aj	-10.1076
▁lt	-10.1078
▁kus	-10.108
▁04	-10.1081
▁mog	-10.1084
▁rki	-10.1084
▁dal	-10.1084
▁Chi	-10.1085
▁ambu	-10.1093
▁umb	-10.1097
▁awi	-10.1106
▁rna	-10.1115
▁tta	-10.1123
▁entu	-10.1129
▁RB	-10.1132
▁08	-10.1133
▁nt	-10.1134
▁kim	-10.1139
RI	-10.1143
▁bai	-10.115
▁bid	-10.1151
▁ond	-10.1161
▁bad	-10.1169
▁tadi	-10.1175
▁Siap	-10.1182
▁Wid	-10.1182
▁emisi	-10.1187
▁jat	-10.1198
▁alny	-10.1207
▁ius	-10.1215
▁tata	-10.1217
▁aus	-10.1218
ic	-10.1221
▁idu	-10.1231
▁Joe	-10.1237
▁sca	-10.1249
▁rgan	-10.1259
▁kapan	-10.1261
▁has	-10.1266
▁mpo	-10.1268
▁hana	-10.1292
▁kl	-10.1297
▁rawan	-10.1301
▁ig	-10.131
▁ulia	-10.1325
▁arung	-10.1334
▁ct	-10.1334
▁rasi	-10.1335
▁iran	-10.1348
▁ital	-10.1349
▁nand	-10.1355
▁akat	-10.1363
▁Bad	-10.1364
▁ler	-10.1378
▁epi	-10.1383
▁DIY	-10.1385
▁Sc	-10.1391
▁ack	-10.1393
▁va	-10.1394
▁elar	-10.1396
PA	-10.1404
▁nah	-10.1414
▁bab	-10.1425
▁eban	-10.1429
▁ite	-10.1429
▁09	-10.1434
MI	-10.1434
▁ers	-10.1443
▁skus	-10.1462
▁pp	-10.1466
▁sien	-10.1472
▁aria	-10.1476
▁ikin	-10.1485
▁dak	-10.1488
▁oh	-10.1501
▁umat	-10.1507
▁ruh	-10.153
▁lung	-10.153
▁een	-10.1532
▁kse	-10.1534
▁esain	-10.1536
▁sna	-10.1547
▁use	-10.155
▁ean	-10.1552
▁ania	-10.1567
▁elit	-10.1577
▁asil	-10.1595
▁kta	-10.1597
)	-10.1602
▁ban	-10.1605
▁iaran	-10.1608
▁obo	-10.1611
▁Mul	-10.1612
▁opi	-10.162
▁uga	-10.1628
str	-10.163
▁raj	-10.163
▁dire	-10.165
▁nggi	-10.1653
▁rain	-10.1659
▁Af	-10.1676
▁sasi	-10.1677
▁rol	-10.1703
▁pal	-10.171
UT	-10.1722
▁der	-10.1729
za	-10.1747
▁ven	-10.1748
▁nta	-10.1748
pol	-10.1759
▁ping	-10.176
▁ly	-10.1767
wa	-10.1772
▁ongan	-10.1774
▁arno	-10.1776
▁peri	-10.1781
▁nfir	-10.1785
▁cc	-10.1796
▁hid	-10.1797
▁gama	-10.18
▁apura	-10.1807
▁andan	-10.1814
▁ede	-10.1822
▁sub	-10.1837
▁rge	-10.1842
▁adap	-10.1845
▁amp	-10.1847
▁dj	-10.1854
▁onis	-10.1865
▁ark	-10.1879
▁spada	-10.1882
▁PN	-10.1885
▁puas	-10.189
▁my	-10.19
▁mam	-10.1921
▁ewa	-10.1934
▁uto	-10.1935
▁lora	-10.194
▁Pos	-10.1941
▁ekal	-10.1954
▁ost	-10.1967
▁iko	-10.1973
▁artin	-10.1978
▁gal	-10.1978
▁embu	-10.1982
▁ug	-10.1997
▁imi	-10.201
▁sli	-10.202
▁rs	-10.2025
▁forma	-10.2028
▁uah	-10.2038
▁pay	-10.2039
▁andu	-10.204
▁sus	-10.2054
▁gri	-10.2062
▁nu	-10.2069
▁rsit	-10.2075
▁mbela	-10.2078
▁egas	-10.2104
▁alik	-10.2108
▁uma	-10.211
▁gres	-10.2119
▁amer	-10.212
▁mda	-10.2125
▁rti	-10.2142
▁egan	-10.2143
▁iber	-10.2149
▁kro	-10.2158
▁ndy	-10.2161
▁PPP	-10.2161
▁mpah	-10.2162
▁sok	-10.2165
▁nstr	-10.2167
▁ihat	-10.218
▁ibi	-10.2182
▁dil	-10.2191
▁alas	-10.2202
▁lai	-10.221
▁dina	-10.2212
▁Hadi	-10.2253
▁Unit	-10.2258
▁Fe	-10.2274
▁awah	-10.2281
▁enko	-10.2281
▁ntri	-10.2282
▁Gen	-10.2284
ine	-10.2288
▁rom	-10.2291
▁seti	-10.2305
▁El	-10.2315
▁Andi	-10.2356
▁ersi	-10.2367
▁istik	-10.2381
▁Univ	-10.2387
▁tab	-10.2388
▁pen	-10.2391
▁ging	-10.2395
▁doa	-10.2403
▁kop	-10.2411
▁lest	-10.2433
▁tama	-10.2439
▁tut	-10.244
▁eru	-10.2441
▁erdas	-10.2448
▁gula	-10.2449
▁antik	-10.245
▁iam	-10.2453
▁pir	-10.2455
▁ndas	-10.246
▁tya	-10.2461
▁tral	-10.2461
▁arya	-10.2463
▁rul	-10.2468
▁star	-10.2486
▁ika	-10.2487
▁abe	-10.2494
▁cat	-10.2512
▁kon	-10.2518
▁ilak	-10.2528
▁suk	-10.2528
▁sua	-10.2529
▁ideo	-10.2539
▁enj	-10.2539
▁fl	-10.254
▁ewas	-10.2549
▁ence	-10.2549
▁Du	-10.2551
ji	-10.2559
▁kru	-10.256
▁EAN	-10.2568
▁pit	-10.2571
▁ilo	-10.2595
▁erap	-10.2613
▁itung	-10.262
▁MD	-10.2625
▁dok	-10.2628
▁nada	-10.2641
▁WNA	-10.2657
▁Ja	-10.2658
▁arto	-10.266
▁thi	-10.266
▁pis	-10.2661
olit	-10.267
▁mpun	-10.2695
▁hin	-10.2697
▁teror	-10.27
▁Mel	-10.2705
▁enar	-10.2707
▁diko	-10.2719
▁eam	-10.2725
▁sut	-10.2729
▁sias	-10.2744
▁pung	-10.2748
▁fer	-10.2751
▁ntas	-10.2756
▁inal	-10.2768
▁lut	-10.2775
▁aba	-10.2782
▁onda	-10.2786
▁urn	-10.279
▁hir	-10.2833
▁susu	-10.2848
▁ikir	-10.2852
▁agia	-10.2854
▁SK	-10.2857
▁iru	-10.2861
▁ikat	-10.2864
PC	-10.2867
▁ngk	-10.2874
▁era	-10.2878
▁set	-10.2878
▁rman	-10.2882
▁rad	-10.2886
▁ibuan	-10.2894
▁dima	-10.2909
▁oll	-10.2913
▁rsi	-10.2913
▁rep	-10.2916
▁lekt	-10.2924
▁epo	-10.2929
▁atis	-10.2941
▁oo	-10.2944
▁SMA	-10.2956
▁rea	-10.2973
▁hn	-10.2978
▁DP	-10.2985
▁bin	-10.2987
▁eland	-10.2989
▁pot	-10.3006
▁Za	-10.301
▁odo	-10.3012
▁oyo	-10.3038
▁edera	-10.3045
▁gul	-10.305
▁Dj	-10.3067
▁turn	-10.3068
▁Min	-10.3073
▁erlu	-10.3075
▁ulai	-10.3083
▁eter	-10.3095
▁rema	-10.3096
IP	-10.3101
▁oho	-10.3108
▁mbat	-10.3118
▁esa	-10.3135
▁led	-10.3139
▁bol	-10.3141
▁king	-10.3154
▁saha	-10.3158
▁van	-10.3158
▁PSS	-10.3168
mp	-10.3171
▁dara	-10.3173
uncu	-10.3174
▁manya	-10.3179
▁top	-10.3182
▁kew	-10.319
▁lem	-10.3206
▁uli	-10.3211
▁KAI	-10.3212
▁tun	-10.3216
▁PSSI	-10.3219
▁Has	-10.3231
▁usi	-10.3243
▁den	-10.3245
▁eret	-10.3246
▁jan	-10.3247
▁Ser	-10.3247
▁cet	-10.3261
▁nut	-10.3263
▁acu	-10.3269
▁umah	-10.3272
▁@	-10.3285
▁rgo	-10.3292
▁jari	-10.3315
▁raksi	-10.3316
▁erma	-10.3321
▁mani	-10.3327
▁inc	-10.3327
▁band	-10.3333
▁rate	-10.3334
▁rin	-10.3343
▁SMK	-10.3351
▁Hen	-10.3351
law	-10.3355
▁cok	-10.3384
▁ead	-10.3387
▁yur	-10.339
▁kir	-10.3392
▁ukan	-10.34
▁imo	-10.3423
▁NU	-10.3425
▁roli	-10.3428
▁rtis	-10.3435
▁dup	-10.3441
▁OR	-10.3444
▁ake	-10.3446
▁sha	-10.3464
PI	-10.3479
▁val	-10.3487
▁timal	-10.3489
▁emp	-10.3493
▁hm	-10.3495
▁rkan	-10.3497
▁Hu	-10.3502
▁arik	-10.3506
▁puan	-10.3506
▁It	-10.3515
▁ambat	-10.3518
▁lari	-10.3519
▁sc	-10.3521
nj	-10.3523
▁ams	-10.3527
▁ej	-10.3538
▁sil	-10.354
50	-10.3556
▁nduk	-10.3557
▁ndo	-10.3559
▁2,	-10.3568
▁bas	-10.3571
▁sum	-10.3572
▁Tok	-10.3574
▁ota	-10.3578
ly	-10.3592
▁ago	-10.3596
▁pura	-10.3605
▁ebak	-10.3608
▁SD	-10.361
▁run	-10.3614
▁sir	-10.3614
▁gam	-10.3615
AT	-10.3617
▁gaya	-10.3626
ant	-10.3626
▁TKP	-10.3626
▁uda	-10.3646
▁PNS	-10.3658
▁Kl	-10.3665
▁hap	-10.3665
▁omm	-10.3667
▁YOG	-10.3676
▁alim	-10.3677
▁alau	-10.369
KI	-10.3691
▁itia	-10.3693
▁mewa	-10.3701
▁elun	-10.3703
▁itusi	-10.3705
▁lih	-10.3719
▁nia	-10.3722
▁Perd	-10.3723
▁khir	-10.3732
▁orp	-10.3739
▁60	-10.3747
▁ombo	-10.3754
▁ndika	-10.3756
▁ash	-10.3762
▁ute	-10.3763
▁jut	-10.3772
▁mp	-10.3773
▁rya	-10.3774
▁eda	-10.3777
▁nald	-10.3778
▁HO	-10.378
▁alal	-10.379
▁oda	-10.381
▁ulus	-10.3836
kin	-10.3839
▁rma	-10.3845
▁kok	-10.3852
suai	-10.3854
▁agen	-10.3864
▁KM	-10.3866
▁eco	-10.3882
▁luh	-10.3891
▁deral	-10.3892
▁Inf	-10.3896
▁curi	-10.3915
▁mot	-10.3928
▁les	-10.3931
▁ubu	-10.3931
▁emudi	-10.3937
▁ali	-10.3966
▁asan	-10.3967
hmad	-10.3969
▁asin	-10.3971
▁itus	-10.3988
▁vita	-10.3999
▁roy	-10.4005
▁iasa	-10.4006
▁lapa	-10.4009
▁rv	-10.401
▁sin	-10.4013
▁imis	-10.4017
emp	-10.4021
▁kab	-10.4022
▁ugi	-10.4025
▁oor	-10.4027
▁oran	-10.4033
▁RT	-10.4046
▁rakt	-10.4053
▁WITA	-10.4056
▁Sy	-10.4068
▁omb	-10.4079
▁uel	-10.4096
▁bek	-10.4102
▁get	-10.4109
▁kor	-10.4109
▁ktor	-10.4114
▁end	-10.4129
▁bil	-10.413
▁kinan	-10.414
▁jamin	-10.4144
▁ale	-10.4148
▁Man	-10.415
▁perc	-10.4155
▁AR	-10.4158
▁nve	-10.4162
▁iun	-10.4163
▁urit	-10.4164
▁rab	-10.4173
▁anju	-10.4177
▁arap	-10.4186
▁ukul	-10.4197
▁vasi	-10.4207
▁amal	-10.4222
▁uali	-10.4223
▁ule	-10.4228
▁rup	-10.4248
▁nj	-10.4252
▁uki	-10.426
▁gika	-10.4272
▁che	-10.4273
▁nes	-10.4284
▁tro	-10.4286
▁raha	-10.4296
▁ekas	-10.4296
▁meme	-10.4306
▁rest	-10.4319
▁ngaja	-10.4327
▁AP	-10.4358
▁fung	-10.4365
▁itar	-10.4385
▁ujuan	-10.4385
▁iman	-10.4397
▁nce	-10.4401
▁jm	-10.4415
▁nak	-10.4417
sy	-10.4417
▁lini	-10.4423
▁sor	-10.4431
IS	-10.4434
▁rm	-10.4437
▁mit	-10.4457
AS	-10.4461
AP	-10.4463
▁pak	-10.4466
▁asila	-10.4467
▁onor	-10.4475
▁uro	-10.4475
▁sto	-10.4495
▁BKN	-10.4495
▁lig	-10.4499
▁lek	-10.4514
▁stri	-10.4525
▁tari	-10.4543
▁ranc	-10.4551
▁AFF	-10.4554
▁via	-10.4567
▁adik	-10.4572
▁dera	-10.4574
▁ric	-10.4575
ent	-10.4578
▁idup	-10.4581
▁etah	-10.4582
▁umpa	-10.459
▁eh	-10.4591
▁hani	-10.4594
▁paran	-10.4601
▁PLN	-10.4631
▁lap	-10.4636
▁ado	-10.464
▁inar	-10.464
▁eka	-10.4646
▁Dwi	-10.466
▁BOG	-10.4667
▁elak	-10.4669
▁yap	-10.4676
▁erto	-10.4678
▁ate	-10.4679
dy	-10.47
pek	-10.4704
▁oris	-10.471
▁dali	-10.4715
▁BK	-10.4717
▁rim	-10.4737
▁AFP	-10.4745
▁VOA	-10.4761
uduk	-10.4786
▁eve	-10.4802
▁BBM	-10.4803
▁ros	-10.4807
▁mbina	-10.4813
▁rahan	-10.4834
jo	-10.4838
▁ming	-10.484
▁ewan	-10.4853
▁aih	-10.4854
▁elen	-10.4862
▁rtasi	-10.4871
▁ssa	-10.4897
5	-10.4904
▁KH	-10.4913
Z	-10.4915
▁aid	-10.4919
▁So	-10.492
▁iba	-10.4921
▁caya	-10.4925
▁fan	-10.4972
▁ye	-10.4982
▁tan	-10.5017
▁ami	-10.5018
PU	-10.5022
▁pah	-10.5045
▁seri	-10.5073
▁vin	-10.5138
DN	-10.5154
▁ass	-10.5162
▁leh	-10.5176
osia	-10.5197
▁IV	-10.52
▁ision	-10.5205
▁lv	-10.521
▁erse	-10.5213
▁fak	-10.5214
▁oso	-10.5226
▁KA	-10.523
▁nny	-10.5246
▁iji	-10.526
ry	-10.5261
▁rlin	-10.5262
▁ngkal	-10.5268
▁yar	-10.5291
▁Dem	-10.5297
▁teo	-10.5306
▁ghan	-10.5317
▁stin	-10.5317
▁neka	-10.5332
▁ess	-10.5354
▁mur	-10.5358
▁ipe	-10.5367
▁ngar	-10.5386
▁ndala	-10.5389
▁CC	-10.5406
▁lobal	-10.5407
▁Gu	-10.5409
▁putra	-10.5409
▁rai	-10.5416
▁Tbk	-10.5418
RT	-10.5423
▁ret	-10.5424
▁DW	-10.5426
▁IS	-10.5457
▁Kim	-10.5464
▁over	-10.5468
OK	-10.5473
▁nz	-10.5474
▁nek	-10.5474
▁kian	-10.5476
▁out	-10.5478
▁Com	-10.5482
▁aut	-10.5484
▁etika	-10.5487
▁rsatu	-10.5492
▁unga	-10.5493
mba	-10.5516
▁lot	-10.552
▁oy	-10.5525
▁ij	-10.5527
▁wah	-10.5527
▁eri	-10.5532
▁og	-10.5534
▁aktu	-10.5537
▁igit	-10.554
▁lite	-10.5546
▁apor	-10.5552
▁elat	-10.5558
▁arna	-10.5573
▁igi	-10.5582
▁kara	-10.5584
▁aul	-10.5588
▁etia	-10.559
▁Dir	-10.5592
th	-10.5592
▁unc	-10.5599
▁rkas	-10.5607
▁adj	-10.5619
▁ndu	-10.5627
▁NATO	-10.5632
▁35	-10.5634
SI	-10.564
▁erna	-10.5642
▁ty	-10.5646
▁PPN	-10.5647
▁ahat	-10.565
▁Ria	-10.5663
▁oco	-10.5664
▁ahana	-10.5676
▁adin	-10.5685
▁egar	-10.5698
▁sep	-10.5701
▁raf	-10.5715
AM	-10.5715
TT	-10.5716
▁+	-10.5718
▁ffi	-10.5721
▁rial	-10.5725
▁mate	-10.5727
▁nag	-10.573
▁lun	-10.5733
▁pele	-10.5735
▁Xi	-10.5742
man	-10.5765
▁Ade	-10.5767
▁Dn	-10.5772
▁kum	-10.578
▁bul	-10.5781
▁ont	-10.5792
▁ansa	-10.5794
▁tar	-10.5803
▁diku	-10.5817
▁SMP	-10.5827
▁ndi	-10.5831
▁rwa	-10.5832
▁how	-10.5845
han	-10.5847
▁syah	-10.585
▁abi	-10.5856
▁akin	-10.5861
▁IM	-10.5866
▁erm	-10.5882
▁unik	-10.5909
▁hol	-10.5926
▁onfe	-10.5927
▁rt	-10.5945
▁fes	-10.5951
▁ein	-10.5958
▁Han	-10.5977
▁ken	-10.5984
▁ll	-10.5986
▁mon	-10.5987
▁ode	-10.5993
▁NTT	-10.5996
▁seli	-10.5998
if	-10.6001
▁fic	-10.6029
▁niat	-10.603
▁bum	-10.6083
0%	-10.6098
ON	-10.6102
▁uha	-10.6103
▁Den	-10.6117
▁esu	-10.6127
▁ening	-10.6132
▁Up	-10.6149
▁enc	-10.6155
SBS	-10.6156
▁Gol	-10.6164
▁ceh	-10.6176
▁US	-10.618
▁adis	-10.6183
▁legal	-10.6184
▁ile	-10.6192
▁nju	-10.6194
▁ust	-10.6194
▁arl	-10.6197
▁rmo	-10.6202
▁kh	-10.6206
▁gia	-10.6219
▁AD	-10.6223
▁hy	-10.623
▁dasi	-10.6231
▁duka	-10.6236
▁rno	-10.6245
▁lib	-10.6252
▁wasa	-10.6269
▁PSM	-10.6284
▁ogi	-10.6289
▁mara	-10.629
▁rdo	-10.6294
▁imak	-10.6306
▁ebu	-10.6323
yo	-10.6327
▁erti	-10.634
▁erima	-10.6343
▁risi	-10.6376
▁pik	-10.6381
▁elem	-10.6388
▁rsa	-10.6393
▁mari	-10.6394
20	-10.6408
▁usti	-10.6408
▁him	-10.6424
▁rel	-10.6438
▁usif	-10.6441
▁dipa	-10.6445
▁lili	-10.6452
▁uhnya	-10.6479
▁lomb	-10.6483
▁nakan	-10.6488
▁duan	-10.6495
▁ipi	-10.6495
▁mbung	-10.6551
▁erc	-10.6555
▁cor	-10.6557
▁enge	-10.6568
▁bra	-10.6576
▁ompo	-10.6582
▁ebo	-10.6593
▁des	-10.661
▁elan	-10.6626
▁ukar	-10.6659
▁istr	-10.6676
co	-10.6683
▁Gar	-10.6685
▁ree	-10.6686
▁isan	-10.6686
▁PNM	-10.6713
▁gemb	-10.6723
▁lik	-10.6728
▁ikap	-10.6728
▁fri	-10.6737
▁AMIN	-10.6744
▁sam	-10.6745
▁ngis	-10.6746
▁erh	-10.6746
▁putri	-10.6748
IM	-10.6763
▁RSU	-10.6769
▁ora	-10.6772
▁keke	-10.6777
▁mala	-10.6779
▁gir	-10.6791
▁lay	-10.6792
▁cap	-10.6795
▁edik	-10.6797
▁matik	-10.6831
▁jal	-10.6836
▁jun	-10.6884
▁abo	-10.6887
▁dus	-10.6916
▁asok	-10.6974
▁okal	-10.6979
▁spa	-10.6984
▁ement	-10.699
ja	-10.7011
▁say	-10.7012
▁fit	-10.702
ff	-10.7026
▁yadi	-10.7029
▁fa	-10.7031
▁ism	-10.7036
▁hel	-10.7047
▁tip	-10.7051
▁udy	-10.7072
▁nus	-10.7076
▁hop	-10.7081
fi	-10.7095
▁oin	-10.7102
▁nara	-10.7104
▁PA	-10.7142
▁ales	-10.7157
▁kis	-10.7167
▁dri	-10.7173
▁nim	-10.7178
▁otal	-10.7185
▁Bar	-10.7187
▁ahu	-10.719
▁BI	-10.72
▁afi	-10.72
▁dau	-10.7236
zi	-10.7241
▁Jam	-10.7252
▁Angka	-10.7263
▁UI	-10.7273
▁hul	-10.729
▁kna	-10.7291
▁haya	-10.7293
▁AM	-10.7297
▁ramp	-10.7298
▁USD	-10.7302
▁ekam	-10.7308
▁ael	-10.7311
▁aker	-10.7318
▁Bl	-10.7323
gaw	-10.7324
▁ath	-10.7328
▁adai	-10.733
▁Sp	-10.7331
▁Jak	-10.7333
▁ader	-10.734
▁indu	-10.7345
▁ewat	-10.7375
▁nif	-10.7377
▁can	-10.7379
▁mpu	-10.738
▁ars	-10.7386
▁KUH	-10.7392
▁omen	-10.7393
▁sion	-10.7395
▁esti	-10.7401
▁anis	-10.7405
▁ando	-10.7406
▁sma	-10.7411
▁iana	-10.742
▁PR	-10.7434
▁nsyah	-10.7442
▁rni	-10.7445
▁uy	-10.745
EMB	-10.7451
▁agam	-10.7451
▁Ru	-10.7458
▁CSR	-10.747
▁emu	-10.748
IK	-10.7495
▁puti	-10.7497
Q	-10.75
IN	-10.7525
▁avi	-10.7528
▁Im	-10.7538
▁32	-10.7557
▁tic	-10.756
PM	-10.7568
▁engka	-10.7575
▁edang	-10.7581
▁motor	-10.7586
▁tah	-10.7591
▁pus	-10.7597
▁uba	-10.76
▁masan	-10.7605
▁Ky	-10.7618
▁Tra	-10.7622
▁oka	-10.7634
▁kin	-10.7643
▁trik	-10.7648
▁mika	-10.7649
▁ampi	-10.7649
▁Fi	-10.7654
▁mna	-10.7654
▁sida	-10.7657
▁ipil	-10.7686
▁DEP	-10.7693
PW	-10.7694
BI	-10.7698
TN	-10.7698
▁ela	-10.7705
▁sp	-10.7712
▁ple	-10.7713
▁onst	-10.7716
▁ngku	-10.7721
▁aren	-10.7735
▁Em	-10.774
▁chi	-10.7741
▁70	-10.7755
▁ecam	-10.7756
PT	-10.7766
▁lamb	-10.777
▁odu	-10.7774
▁enag	-10.7796
lih	-10.7805
▁lihan	-10.7809
▁sita	-10.7812
▁Gr	-10.783
▁radi	-10.7842
▁rsel	-10.7858
▁osok	-10.7858
▁PK	-10.7865
▁empu	-10.7868
▁rtu	-10.7873
▁rop	-10.7879
▁ugas	-10.788
▁atah	-10.7882
▁etn	-10.7882
▁ony	-10.7889
▁erus	-10.7892
▁erba	-10.7895
▁ose	-10.7908
▁80	-10.7909
▁irin	-10.794
▁1.	-10.7942
ec	-10.7953
▁ilan	-10.7955
▁ikel	-10.7967
▁resp	-10.7971
▁det	-10.7982
▁mran	-10.7988
▁erbi	-10.8
▁arkan	-10.8001
son	-10.8004
▁tria	-10.8032
▁iras	-10.8051
▁rint	-10.8056
▁3,	-10.8077
▁nggo	-10.8078
▁rev	-10.8086
▁Cu	-10.8091
▁mutu	-10.81
▁ampil	-10.8102
▁cak	-10.8108
▁Semen	-10.8109
▁araw	-10.8118
▁gat	-10.812
▁manu	-10.8121
▁gak	-10.8123
▁BP	-10.8135
▁etap	-10.8135
▁saw	-10.8147
▁ID	-10.8151
▁iat	-10.8154
▁endah	-10.8155
▁uruan	-10.8165
▁gis	-10.8195
▁yal	-10.8228
▁bara	-10.8229
▁inya	-10.8233
▁unda	-10.8246
▁kuk	-10.8257
KD	-10.8283
▁let	-10.8287
▁part	-10.8288
FC	-10.8289
▁gon	-10.8293
TEN	-10.8296
▁Top	-10.8318
▁km	-10.8333
▁oet	-10.8347
▁MI	-10.8359
PS	-10.8366
▁RW	-10.8372
▁nasi	-10.8382
▁utar	-10.8383
▁ngel	-10.8432
▁gim	-10.8442
▁asc	-10.8454
▁OA	-10.8455
▁cal	-10.8457
▁IP	-10.8462
▁Din	-10.8465
▁BPJS	-10.8476
TI	-10.8483
▁ahal	-10.8485
▁Api	-10.8486
▁lmu	-10.8496
▁mpet	-10.8517
▁jawa	-10.8519
▁bau	-10.8536
▁arte	-10.8563
▁ulk	-10.8566
▁umbu	-10.8566
▁buk	-10.8575
▁med	-10.8585
▁hr	-10.8596
▁ilik	-10.8603
▁ekt	-10.8603
▁muni	-10.8608
▁ngun	-10.8611
▁ulik	-10.8615
▁len	-10.8616
ggi	-10.8621
▁aci	-10.8625
▁presi	-10.8626
▁omo	-10.8633
▁BM	-10.8636
▁mun	-10.8647
▁eleng	-10.8647
▁ksa	-10.8652
-	-10.8659
▁arget	-10.8667
▁odi	-10.8668
▁raw	-10.8675
▁ekr	-10.8675
▁WNI	-10.8675
▁hli	-10.8676
▁udar	-10.8707
▁taru	-10.8707
▁nant	-10.8709
▁isal	-10.8713
atur	-10.8715
▁SOL	-10.8721
▁Pl	-10.8722
▁iy	-10.8734
▁SP	-10.8738
▁AHY	-10.8744
KP	-10.8762
▁GP	-10.8772
▁nel	-10.8775
▁DKPP	-10.8783
▁stem	-10.8787
▁arasi	-10.8796
▁moto	-10.8813
▁apur	-10.8817
▁ngi	-10.8821
▁emang	-10.8822
▁erdi	-10.8824
lind	-10.8833
▁cana	-10.8846
▁shi	-10.8858
UD	-10.8867
▁awe	-10.8868
▁uj	-10.8868
▁epan	-10.888
▁ruk	-10.8882
▁lev	-10.8884
▁arda	-10.8886
▁nget	-10.8886
▁ubar	-10.8886
▁lli	-10.8889
▁ndon	-10.8901
▁erta	-10.8914
▁fesi	-10.8925
▁rov	-10.8944
spad	-10.898
▁aban	-10.8981
MS	-10.8984
▁klu	-10.8984
▁ndek	-10.8985
▁cob	-10.9005
▁iapa	-10.9005
▁45	-10.9028
▁itan	-10.9029
▁plik	-10.9033
▁eder	-10.9033
▁osa	-10.9057
-1	-10.9059
TA	-10.9065
AL	-10.907
▁34	-10.9078
▁kol	-10.908
▁ntal	-10.9083
▁PBNU	-10.91
▁bowo	-10.91
▁PMI	-10.9103
▁EV	-10.9107
▁nco	-10.9108
▁nata	-10.9111
▁vent	-10.9114
▁otak	-10.9123
▁endam	-10.9126
▁boli	-10.9126
▁ben	-10.9127
▁agus	-10.9135
▁rong	-10.9157
▁EN	-10.916
▁omp	-10.9164
BUP	-10.9178
▁90	-10.9181
▁anaan	-10.9192
▁mark	-10.9195
BC	-10.9212
▁cipta	-10.9221
▁til	-10.9227
▁dom	-10.9237
las	-10.9242
▁PM	-10.9249
nfir	-10.9254
▁PU	-10.9254
▁ashi	-10.9267
▁tot	-10.9276
▁sport	-10.9287
▁Net	-10.929
▁APBN	-10.9303
▁erbu	-10.9307
▁fli	-10.9309
DI	-10.9315
▁hri	-10.9317
▁Pus	-10.9363
emb	-10.9375
▁uler	-10.9377
AD	-10.9379
▁aim	-10.9381
▁awat	-10.9386
bel	-10.9392
▁tub	-10.9397
▁jah	-10.9399
▁uruk	-10.9404
▁pul	-10.9406
▁endi	-10.9418
▁koh	-10.9423
▁aula	-10.9428
▁PPK	-10.9429
▁sA	-10.9431
▁ole	-10.9436
▁nsia	-10.9443
▁erko	-10.9449
▁ugu	-10.946
KA	-10.9464
▁riw	-10.9466
▁eusa	-10.9477
▁aram	-10.9484
▁pac	-10.9491
▁rena	-10.9517
SS	-10.9521
▁IN	-10.9523
ze	-10.953
▁mul	-10.9535
▁cari	-10.954
▁versi	-10.9561
▁aum	-10.9565
▁dor	-10.9567
▁rana	-10.9567
▁ait	-10.9591
DA	-10.9593
CL	-10.9595
▁auh	-10.9611
▁tha	-10.9617
▁mos	-10.962
▁dag	-10.9623
▁car	-10.9624
▁nter	-10.9625
▁ulkan	-10.9653
▁AC	-10.9656
▁36	-10.9661
▁icu	-10.9662
▁stu	-10.9675
OS	-10.969
▁wed	-10.97
▁hang	-10.9706
▁arj	-10.9708
▁labo	-10.9713
NA	-10.9714
▁swa	-10.9725
▁dha	-10.9726
▁kit	-10.9781
▁krim	-10.9783
▁Ip	-10.9785
▁yl	-10.9786
▁38	-10.9793
▁osi	-10.9801
▁con	-10.9803
Di	-10.982
▁EUR	-10.982
▁kp	-10.9823
▁isw	-10.9826
▁gh	-10.9832
AK	-10.9844
▁ST	-10.9857
▁LP	-10.9858
▁pam	-10.9881
▁RK	-10.9881
▁ngo	-10.9883
▁enca	-10.9885
▁oga	-10.989
▁Il	-10.9905
▁aun	-10.9908
▁ilai	-10.9911
IA	-10.9926
▁ompa	-10.9934
▁ipa	-10.9946
▁ehat	-10.9949
▁giri	-10.9952
▁adem	-10.9959
▁aia	-10.9962
▁AZNAS	-10.9983
SP	-11.0008
▁tuk	-11.0016
▁Lin	-11.0018
▁ER	-11.0019
▁ntre	-11.0028
▁iver	-11.0028
▁ebat	-11.0053
MAN	-11.0068
ER	-11.0071
▁tle	-11.0079
BL	-11.0094
▁rian	-11.0105
▁THR	-11.0115
▁nad	-11.0119
▁romo	-11.0122
▁enep	-11.0123
▁mob	-11.0136
▁sman	-11.0138
▁mia	-11.0147
▁GIIAS	-11.016
▁Mere	-11.0165
▁KN	-11.0181
PD	-11.0181
▁law	-11.0184
▁nline	-11.0205
▁KI	-11.0208
PK	-11.0215
▁ardi	-11.0216
▁eram	-11.0218
▁aniel	-11.0225
▁maj	-11.0242
▁spes	-11.0251
▁endo	-11.0265
▁uling	-11.0274
▁erup	-11.0274
▁nan	-11.0288
▁usah	-11.029
▁Jati	-11.0311
▁anyar	-11.0313
▁unj	-11.0315
▁erem	-11.032
▁ias	-11.032
▁antun	-11.0328
SK	-11.033
▁nsu	-11.0331
▁bet	-11.0342
▁eki	-11.0344
▁iya	-11.0355
▁gni	-11.0355
▁ove	-11.0359
▁agn	-11.0363
▁Day	-11.0365
▁ihar	-11.0391
▁arhu	-11.0394
▁pte	-11.0396
▁vis	-11.0403
▁BPK	-11.0403
▁Peran	-11.0425
▁kaw	-11.0427
▁UNRWA	-11.0432
NI	-11.0434
bung	-11.0454
▁upp	-11.0456
▁orit	-11.0463
▁patu	-11.0464
▁75	-11.0472
▁duk	-11.0473
▁jala	-11.0477
▁nentu	-11.0484
▁LPG	-11.0489
▁Abd	-11.0492
▁sand	-11.0496
▁ermu	-11.0507
▁eser	-11.0509
▁mew	-11.0513
ton	-11.0526
▁Fest	-11.0537
▁ald	-11.0565
▁sila	-11.0578
▁ngsi	-11.0579
▁ront	-11.0584
▁sit	-11.0588
▁cha	-11.0592
▁anag	-11.0595
▁arm	-11.0634
▁inti	-11.0637
▁oj	-11.0661
▁Seti	-11.0661
▁yasa	-11.0661
▁esmi	-11.0667
▁trib	-11.0672
AI	-11.0685
▁UNG	-11.0685
▁acar	-11.0689
▁uju	-11.0701
▁ica	-11.071
▁PUPR	-11.0712
▁day	-11.0739
▁ssi	-11.075
▁ape	-11.075
▁lusi	-11.075
▁pec	-11.0757
▁UT	-11.0788
▁nerg	-11.0797
▁bom	-11.0807
▁TKN	-11.0828
▁erut	-11.0831
▁elur	-11.084
▁dut	-11.0841
▁Er	-11.0843
▁alian	-11.085
EN	-11.0852
▁ibur	-11.0854
▁bag	-11.0855
▁wit	-11.086
MA	-11.0863
▁dek	-11.0864
▁iter	-11.0865
▁sisw	-11.0894
▁#	-11.0903
▁rans	-11.0905
▁tt	-11.0912
▁Bak	-11.0912
▁150	-11.0913
▁limp	-11.092
▁ntis	-11.0925
▁yas	-11.0925
▁umas	-11.0928
▁Op	-11.0947
▁tm	-11.0948
▁idi	-11.0948
▁uil	-11.0959
▁omin	-11.096
▁Sah	-11.097
▁able	-11.0972
▁Cup	-11.0973
▁aza	-11.0975
▁osis	-11.0982
SN	-11.1
▁inum	-11.1001
DC	-11.101
▁eran	-11.1021
23	-11.1028
▁gali	-11.1031
▁Kas	-11.1051
▁seks	-11.1059
▁mand	-11.1061
▁ask	-11.108
romo	-11.1093
▁erce	-11.1094
▁att	-11.1106
▁ve	-11.1112
▁RIDO	-11.1152
▁Rai	-11.1153
▁rmat	-11.1154
▁ull	-11.1167
▁ering	-11.1171
▁eat	-11.1172
▁rtas	-11.1176
▁omba	-11.1179
▁PPDB	-11.1196
▁agak	-11.1197
▁capai	-11.1199
▁Baw	-11.1201
▁nung	-11.1212
▁eruk	-11.1217
▁demik	-11.1243
▁iza	-11.1244
▁4,	-11.125
▁Jab	-11.125
▁eria	-11.1252
vest	-11.1256
▁kib	-11.128
▁yim	-11.1281
▁XXI	-11.1306
▁unak	-11.1323
▁yol	-11.1329
▁nator	-11.1332
▁urun	-11.1344
cam	-11.1348
▁KK	-11.1366
▁Ok	-11.1377
▁cia	-11.1385
▁ril	-11.1392
MB	-11.1401
▁pati	-11.1404
▁33	-11.1405
▁ray	-11.1418
▁Polri	-11.1421
▁opo	-11.1422
▁KKB	-11.1425
▁unya	-11.1433
▁NI	-11.1446
FI	-11.1466
▁erol	-11.1467
▁mbon	-11.1467
▁nind	-11.1469
▁ormas	-11.1475
▁wis	-11.1478
▁ys	-11.1479
▁PB	-11.1483
▁DJ	-11.1488
▁asak	-11.1493
▁azar	-11.1494
▁SM	-11.1496
▁obi	-11.1512
▁gend	-11.1517
▁ror	-11.1527
▁ors	-11.1528
▁arg	-11.1557
▁lega	-11.1574
▁ace	-11.1589
▁tok	-11.1596
▁shop	-11.1602
▁lana	-11.1608
▁bir	-11.1612
▁had	-11.1627
▁awati	-11.1627
▁inn	-11.1632
▁aif	-11.1635
▁akh	-11.1638
▁olu	-11.1649
RA	-11.165
▁WHO	-11.1653
▁ahas	-11.1655
▁ior	-11.1659
▁afar	-11.1659
▁Ked	-11.1675
▁rsita	-11.1679
▁aitan	-11.1679
▁Tan	-11.1688
OM	-11.1692
▁siat	-11.1694
▁nerj	-11.1706
▁SIM	-11.1709
▁tal	-11.1713
▁ikr	-11.1715
▁was	-11.1716
▁rot	-11.1718
▁ajib	-11.172
MP	-11.1725
PN	-11.1737
▁udan	-11.1742
▁tna	-11.1749
▁nir	-11.175
BP	-11.1751
▁gara	-11.1755
▁hon	-11.1776
olo	-11.1802
▁iska	-11.1806
▁SYL	-11.181
▁inj	-11.1839
▁RA	-11.1856
OP	-11.1872
▁MAL	-11.1874
▁owo	-11.1884
▁fik	-11.1894
▁nua	-11.1896
wan	-11.1897
EM	-11.1904
▁edo	-11.1932
60	-11.1933
▁sten	-11.1937
▁jet	-11.1942
▁kj	-11.1954
▁khu	-11.1962
▁oel	-11.1975
▁ock	-11.1992
▁eas	-11.2008
▁TP	-11.2018
▁lko	-11.2019
▁UGM	-11.2029
▁rib	-11.2036
▁enis	-11.2045
▁zin	-11.2045
BS	-11.2049
bj	-11.2051
▁aret	-11.2058
▁mart	-11.2059
▁uai	-11.2069
▁aikan	-11.2071
▁erja	-11.2072
▁rba	-11.2073
▁esal	-11.2075
▁kret	-11.208
▁alita	-11.2103
▁ofi	-11.2117
RC	-11.212
▁Cek	-11.2136
▁may	-11.2152
▁aiman	-11.2155
▁arko	-11.2166
▁irt	-11.2168
SM	-11.2172
CA	-11.2181
▁beli	-11.2181
▁form	-11.2195
▁akwa	-11.2196
▁ESG	-11.2196
▁warg	-11.2211
▁Ben	-11.2227
KS	-11.224
▁PHK	-11.2242
IT	-11.2244
▁GOR	-11.2259
▁PON	-11.2259
▁nol	-11.2264
▁Shi	-11.2276
EK	-11.229
▁iw	-11.2295
▁hool	-11.2299
▁eor	-11.2301
▁55	-11.2315
▁igh	-11.2323
▁rini	-11.2327
▁eek	-11.2329
▁fid	-11.2329
▁etu	-11.2338
▁huk	-11.234
ham	-11.2341
▁PD	-11.2351
▁afa	-11.239
▁DC	-11.2401
▁ump	-11.2402
▁AK	-11.2422
▁ovi	-11.2425
▁uis	-11.2436
-2	-11.2465
▁bjb	-11.2465
▁okus	-11.2472
ET	-11.248
▁ble	-11.2483
▁oti	-11.2491
▁PEKA	-11.2497
▁ande	-11.2513
▁SPBU	-11.2521
▁ektif	-11.2521
▁ren	-11.2533
8	-11.254
▁atin	-11.255
▁njal	-11.2563
▁Jay	-11.2568
EI	-11.2587
▁nita	-11.259
▁fin	-11.2605
▁ged	-11.2609
▁kasa	-11.2612
AW	-11.2613
▁hamm	-11.2632
▁KPPS	-11.2635
▁mest	-11.2644
▁usik	-11.2644
▁suma	-11.266
▁IT	-11.2665
▁iasi	-11.2665
▁gus	-11.2672
bes	-11.2673
▁hara	-11.2681
▁uala	-11.2686
▁BYD	-11.2692
▁ukt	-11.2697
▁hok	-11.2698
▁kra	-11.2707
▁MS	-11.2712
▁buru	-11.2721
▁Aku	-11.2724
▁onc	-11.2734
▁ukun	-11.2734
▁IK	-11.2736
▁rku	-11.2737
▁gil	-11.2749
▁jid	-11.2756
TS	-11.2769
▁evi	-11.2778
▁oke	-11.2778
▁tmen	-11.2794
▁ITB	-11.2809
▁abor	-11.2813
BRI	-11.2815
▁nsy	-11.2825
▁muk	-11.2826
▁BKP	-11.2832
▁Kedu	-11.2836
▁UE	-11.2846
▁Lee	-11.2847
▁Gun	-11.2854
▁erj	-11.2864
▁PSIM	-11.2869
▁atl	-11.2877
▁untun	-11.2881
▁naf	-11.2886
▁samp	-11.289
▁arum	-11.2906
▁SIG	-11.2908
▁arin	-11.2909
▁ntra	-11.2912
nama	-11.2927
IC	-11.2927
▁raks	-11.2928
▁okyo	-11.2928
▁upat	-11.2931
▁udik	-11.2932
▁Mc	-11.2948
▁orb	-11.2952
▁spor	-11.2956
▁DPO	-11.2962
▁Tru	-11.2966
▁cer	-11.2974
▁kung	-11.2975
MM	-11.2976
"	-11.2981
▁time	-11.2983
▁_	-11.2985
▁reat	-11.2997
SA	-11.3006
DS	-11.301
UR	-11.3013
▁mbal	-11.3026
▁emen	-11.3037
▁laya	-11.3043
▁itif	-11.3057
▁lita	-11.3061
▁37	-11.3078
LU	-11.3081
▁peti	-11.3081
▁CO	-11.3088
▁arun	-11.3088
▁Ray	-11.3094
é	-11.3104
KB	-11.3115
▁swar	-11.3123
CC	-11.3135
▁fil	-11.314
SC	-11.3152
▁atkan	-11.3153
ron	-11.3156
olog	-11.3159
▁BSD	-11.3164
ARU	-11.3165
▁ego	-11.3166
▁yen	-11.3169
17	-11.3173
▁ntin	-11.3173
▁lemb	-11.3177
▁illa	-11.318
40	-11.3184
▁este	-11.3185
▁KS	-11.3193
▁5,	-11.32
PR	-11.3201
▁cit	-11.3208
▁gl	-11.3218
▁jutan	-11.3219
▁tori	-11.322
▁tung	-11.3225
▁sebe	-11.3226
US	-11.3237
▁KTP	-11.3257
▁ija	-11.3258
▁bia	-11.3261
▁gah	-11.3286
OTO	-11.329
▁ntho	-11.329
PL	-11.3316
▁enci	-11.3317
▁tres	-11.3319
▁mbun	-11.3334
▁ubuh	-11.3339
▁Gre	-11.3342
▁impi	-11.3344
KM	-11.3344
LI	-11.3346
▁amd	-11.3349
▁lb	-11.3354
▁lip	-11.3357
▁ippo	-11.3358
▁PS	-11.3384
▁adio	-11.3403
mail	-11.3407
▁ngung	-11.3412
▁klim	-11.3412
▁wak	-11.3418
UP	-11.3424
▁arr	-11.3425
▁andr	-11.3439
▁Art	-11.3456
▁iwa	-11.3459
▁BPN	-11.3462
▁ebi	-11.3474
▁jin	-11.3479
▁ggo	-11.3497
▁unkan	-11.3509
▁nko	-11.3519
▁asem	-11.3521
▁Mon	-11.3523
▁cang	-11.3527
▁akse	-11.3529
▁rdak	-11.3544
BA	-11.355
▁entr	-11.3551
▁Bus	-11.359
▁AT	-11.3594
▁BNN	-11.3598
▁TANG	-11.3599
▁rbo	-11.362
▁AN	-11.3622
▁Isu	-11.3643
▁khi	-11.3643
▁MP	-11.3645
▁ibuk	-11.3655
IAN	-11.3655
▁(1)	-11.366
▁jar	-11.3667
▁olt	-11.3669
▁mbia	-11.367
▁hind	-11.3689
HI	-11.3695
▁alla	-11.3701
▁erw	-11.3703
NL	-11.3745
▁enat	-11.3749
▁rau	-11.3754
▁ahir	-11.3755
▁VI	-11.3764
▁runa	-11.3764
▁lle	-11.3785
▁SUV	-11.379
▁daran	-11.3799
EP	-11.3803
▁yaw	-11.3807
10	-11.3811
▁TK	-11.3811
▁lian	-11.3812
▁epu	-11.3821
▁rli	-11.3823
▁PLT	-11.3828
▁adan	-11.3838
▁On	-11.3857
▁dem	-11.3858
▁ente	-11.3883
▁emil	-11.3911
▁wang	-11.3915
▁FIFA	-11.3917
▁OJK	-11.3917
70	-11.3936
oro	-11.3943
OR	-11.3947
▁SA	-11.3976
:	-11.3979
▁MUI	-11.3983
▁meru	-11.3994
▁dji	-11.4001
TP	-11.4013
▁IA	-11.4034
▁nyala	-11.4046
▁TJSL	-11.4048
▁39	-11.4062
▁yawa	-11.409
▁mudi	-11.4092
▁yer	-11.4096
▁rikan	-11.4113
▁iket	-11.4127
▁lid	-11.4131
▁blo	-11.4138
▁gin	-11.4146
SG	-11.4158
▁riku	-11.4158
▁ilu	-11.417
UL	-11.4174
▁ote	-11.4183
PO	-11.4183
▁ptim	-11.4184
▁awar	-11.4209
▁kw	-11.4211
▁ecil	-11.4213
▁BSI	-11.4215
▁ikon	-11.4223
▁off	-11.4224
▁AH	-11.4225
▁own	-11.4239
▁wat	-11.4241
▁FK	-11.4242
▁nteg	-11.4251
▁nie	-11.4262
▁udd	-11.4269
▁asl	-11.4295
▁DPT	-11.4308
▁War	-11.4314
▁onta	-11.4315
WF	-11.4318
▁elaj	-11.432
VP	-11.4321
LA	-11.4338
▁ndasi	-11.4341
▁onn	-11.4346
▁Jat	-11.4348
▁CS	-11.4363
▁jab	-11.4368
▁ves	-11.4393
▁PMK	-11.4395
▁hut	-11.4396
▁GT	-11.4404
▁saan	-11.4424
▁BNI	-11.4447
▁hre	-11.445
▁PHPU	-11.4452
▁Yoon	-11.446
▁BPS	-11.4495
▁atak	-11.4496
▁engu	-11.4497
▁gna	-11.4508
▁uty	-11.4514
▁lika	-11.453
▁ktif	-11.4531
▁ova	-11.4556
▁UN	-11.4558
▁egr	-11.4561
▁fir	-11.4563
▁gem	-11.4568
▁iner	-11.4578
▁STY	-11.4592
▁TN	-11.4595
one	-11.4607
ED	-11.4611
▁UP	-11.4612
▁BB	-11.4614
▁tron	-11.4634
▁ARA	-11.4642
SO	-11.4642
▁mut	-11.4653
▁gala	-11.4653
HT	-11.4663
UG	-11.4673
▁pin	-11.4684
▁okoh	-11.4689
KN	-11.4693
▁Wal	-11.4706
▁amo	-11.4711
AF	-11.4718
▁usli	-11.473
▁skal	-11.4731
▁annur	-11.4734
▁zu	-11.4753
▁erhe	-11.4757
▁tasan	-11.4757
▁sidan	-11.4774
▁ecu	-11.4782
,8	-11.4791
▁nhu	-11.4796
▁auf	-11.4796
▁mimpi	-11.4802
▁kutan	-11.4819
▁gori	-11.482
PH	-11.4828
▁ntor	-11.4837
HA	-11.4852
▁rant	-11.4858
▁nisi	-11.4862
▁sian	-11.4868
▁Apri	-11.4874
▁emon	-11.4882
▁jad	-11.4894
▁uren	-11.4899
▁endal	-11.4909
▁hay	-11.4924
▁inus	-11.4926
▁KLHK	-11.4945
▁OPD	-11.4956
PG	-11.4979
▁pent	-11.4987
▁AA	-11.4991
▁eme	-11.4993
TU	-11.5004
▁agr	-11.5025
▁ski	-11.5027
bin	-11.5042
▁tc	-11.5043
▁watan	-11.5053
▁dli	-11.5059
RS	-11.5065
▁erum	-11.5077
-3	-11.5092
▁nne	-11.5096
▁ukup	-11.5116
▁nde	-11.5143
▁don	-11.5143
▁abup	-11.516
▁uet	-11.5163
▁appy	-11.5165
▁rob	-11.5165
NPB	-11.5165
▁room	-11.5166
▁IDF	-11.5166
▁Suk	-11.517
EV	-11.5181
▁emam	-11.5185
▁etno	-11.5186
▁APK	-11.5187
▁ista	-11.5204
2,	-11.5208
▁48	-11.5225
NS	-11.5233
▁ART	-11.5234
▁CV	-11.5235
▁88	-11.5254
▁dra	-11.5263
▁UM	-11.5272
▁ATR	-11.5281
▁BAN	-11.5284
▁show	-11.5313
▁won	-11.5328
▁znas	-11.533
30	-11.5337
▁usim	-11.5348
▁juar	-11.535
▁ebol	-11.5377
▁ihad	-11.5391
▁etan	-11.5391
▁nior	-11.5394
▁eir	-11.5396
▁erlin	-11.5398
▁usak	-11.5398
▁pad	-11.5419
▁ulat	-11.5421
JO	-11.5436
▁sme	-11.5439
▁MoU	-11.5466
▁cep	-11.5466
▁agal	-11.5466
▁ubli	-11.5477
▁iron	-11.5487
▁IX	-11.549
BH	-11.5492
▁XI	-11.5497
▁udit	-11.5509
▁igas	-11.5512
▁ayung	-11.5518
▁lakan	-11.5519
CI	-11.5523
▁aur	-11.554
▁onte	-11.5561
RO	-11.5565
▁ston	-11.5567
DP	-11.5578
▁enah	-11.5583
▁oes	-11.5598
▁emula	-11.5619
▁hono	-11.5628
▁65	-11.5642
TM	-11.5665
▁qua	-11.5666
▁enz	-11.5676
▁BUMD	-11.5695
▁ines	-11.5715
▁kst	-11.5738
▁ntun	-11.5741
▁gita	-11.575
▁TC	-11.5752
▁lif	-11.5755
▁izal	-11.5759
▁44	-11.5759
▁COVID	-11.5773
▁uheni	-11.5773
▁IND	-11.5782
▁INDO	-11.5788
▁ehi	-11.579
▁UKM	-11.579
▁kawa	-11.5795
▁rag	-11.5797
EC	-11.5806
▁yud	-11.5813
▁amad	-11.582
▁uko	-11.5847
▁dili	-11.5854
▁lusu	-11.5869
▁azia	-11.5869
ST	-11.5878
▁IR	-11.588
▁erin	-11.5887
▁naw	-11.5893
RE	-11.5902
▁uit	-11.5908
▁MU	-11.5909
▁ign	-11.5922
▁kspor	-11.5931
▁eting	-11.5952
▁ool	-11.5978
UM	-11.5987
hur	-11.5994
ble	-11.5994
▁Wil	-11.6012
▁ege	-11.6014
AJ	-11.6031
LO	-11.6051
▁uron	-11.6064
▁42	-11.607
▁opot	-11.6072
▁elap	-11.6076
▁gawa	-11.6085
▁DM	-11.6105
▁LBH	-11.6109
POM	-11.6147
▁elin	-11.6156
▁ES	-11.6158
▁cle	-11.6161
▁side	-11.6169
▁pda	-11.6176
▁web	-11.6182
rov	-11.62
▁gap	-11.6206
▁andat	-11.6209
▁Mart	-11.6214
▁etis	-11.6214
▁rso	-11.6223
▁ival	-11.6224
▁apt	-11.6224
▁rato	-11.6238
▁stan	-11.6242
▁opul	-11.6246
EL	-11.6251
▁TPPO	-11.6255
▁rauke	-11.626
▁kno	-11.6272
▁toh	-11.6281
▁idak	-11.6291
▁58	-11.6297
▁LSI	-11.6299
▁his	-11.6299
▁lom	-11.6357
UN	-11.6371
appe	-11.6385
▁arki	-11.6398
;	-11.6418
▁wata	-11.6422
▁PAD	-11.6424
▁acun	-11.6428
▁Pant	-11.6439
▁SH	-11.6465
▁vat	-11.6467
TPN	-11.6474
▁aten	-11.6476
▁uncu	-11.6476
▁kses	-11.6487
▁gum	-11.6494
▁nic	-11.6495
5%	-11.6505
▁kidul	-11.6505
▁ON	-11.6511
▁uaya	-11.6517
▁fis	-11.6524
▁ngus	-11.6537
ES	-11.6538
▁irma	-11.6596
▁encer	-11.66
ATAN	-11.6627
▁IKA	-11.6661
▁Max	-11.6677
▁One	-11.6678
▁loy	-11.6686
▁OPM	-11.6692
▁hun	-11.67
MC	-11.6736
▁FGD	-11.6761
▁TPN	-11.6817
▁SUK	-11.6827
▁Rum	-11.684
IND	-11.6849
▁KU	-11.685
▁eror	-11.686
▁uar	-11.6865
▁WBP	-11.6865
▁ABU	-11.6866
▁cas	-11.6868
▁ith	-11.6872
1,	-11.6874
▁irda	-11.6876
▁nyer	-11.6887
II	-11.69
GI	-11.6914
▁Mic	-11.6919
▁SU	-11.6929
▁fat	-11.6933
BM	-11.6933
NC	-11.6937
▁emuka	-11.6939
▁cel	-11.6964
AMP	-11.6985
▁rsip	-11.6985
▁Setia	-11.6996
▁TPI	-11.7021
▁DBD	-11.7025
▁auan	-11.7026
▁loud	-11.7026
▁ICC	-11.7032
▁nani	-11.7044
▁41	-11.7079
WK	-11.7086
BN	-11.7094
▁ikma	-11.7095
BG	-11.7106
▁etty	-11.712
▁empe	-11.7169
▁56	-11.719
▁orn	-11.7193
▁47	-11.7197
▁tto	-11.7197
▁stian	-11.7206
▁enuh	-11.7209
▁DK	-11.7212
▁DE	-11.7213
▁ulit	-11.7216
▁fere	-11.7216
▁BIN	-11.7231
baru	-11.725
▁IB	-11.7252
▁rug	-11.726
▁GM	-11.7278
▁uad	-11.7287
ox	-11.7291
SB	-11.7291
▁mid	-11.7297
▁bino	-11.7299
▁ogra	-11.7299
for	-11.7302
▁jus	-11.7322
▁UMK	-11.7324
▁Out	-11.7328
▁nje	-11.733
CE	-11.733
▁eet	-11.7344
▁IC	-11.7346
ID	-11.7368
UK	-11.7374
▁tali	-11.7376
GA	-11.7403
▁dent	-11.741
▁atri	-11.7414
▁uny	-11.7417
▁ITS	-11.7418
anto	-11.7426
▁gand	-11.7427
▁orma	-11.7431
▁esla	-11.7446
▁PSU	-11.7481
BT	-11.7486
SF	-11.7498
▁ooth	-11.7501
▁OTT	-11.7501
▁inja	-11.751
▁ATM	-11.7523
▁TKD	-11.7524
▁MR	-11.753
▁rih	-11.7542
▁jajar	-11.7549
▁itel	-11.7553
▁lint	-11.7561
▁Jen	-11.7564
▁ndir	-11.7566
▁KDRT	-11.7573
▁dzes	-11.7573
▁aliho	-11.7599
odo	-11.7602
80	-11.7609
▁resh	-11.7612
▁UIN	-11.7613
▁burg	-11.7619
▁nna	-11.7625
▁digi	-11.7638
▁amis	-11.765
AB	-11.7656
▁arif	-11.7674
▁way	-11.7685
▁oot	-11.7694
▁slo	-11.7703
▁ajan	-11.7703
?	-12.243
/	-12.2584
á	-12.2902
+	-12.3224
ö	-12.5647
è	-12.5859
'	-12.6073
°	-12.6299
=	-12.7491
í	-12.801
ñ	-12.8844
0	-12.8892
ó	-12.9138
•	-13.4049
±	-13.6844
!	-13.7507
$	-13.7507
ú	-13.8225
ü	-13.8991
ä	-13.8994
®	-13.9827
]	-14.2844
ı	-14.2848
>	-14.4098
ã	-14.4098
′	-14.4098
ć	-14.5526
×	-14.7193
ê	-14.7193
ï	-14.7193
Ó	-14.9193
à	-14.9193
ô	-14.9193
⁠	-14.9193
Ç	-15.1693
Ü	-15.1693
ç	-15.1693
ì	-15.1693
ş	-15.1693
😭	-15.1693
<	-15.5026
·	-15.5026
ø	-15.5026
−	-15.5026
Á	-16.0026
Ä	-16.0026
Ö	-16.0026
ë	-16.0026
š	-16.0026
ğ	-17.0014
ā	-17.0015
μ	-17.0016
⁄	-17.0017
\	-17.0018
`	-17.0019
â	-17.002
£	-17.0021
€	-17.0022
*	-17.0023
#	-17.0023
@	-17.0023
_	-17.0023
%	-17.0024
[	-17.0025
ķ	-17.0026
Â	-17.0026
É	-17.0026
ð	-17.0026
ò	-17.0026
Ā	-17.0026
İ	-17.0026
Ł	-17.0026
ł	-17.0026
ś	-17.0026
ơ	-17.0026
ư	-17.0026
́	-17.0026
Α	-17.0026
Η	-17.0026
Τ	-17.0026
α	-17.0026
‍	-17.0026
≥	-17.0026
丽	-17.0026
安	-17.0026
洪	-17.0026
金	-17.0026
陈	-17.0026
🍌	-17.0026
😊	-17.0026
(	-17.0026
õ	-17.0026
ę	-17.0026
