[UNK]	0
[CLS]	1
[SEP]	2
[PAD]	3
[MASK]	4
!	5
"	6
#	7
$	8
%	9
&	10
'	11
(	12
)	13
*	14
+	15
,	16
-	17
.	18
/	19
0	20
1	21
2	22
3	23
4	24
5	25
6	26
7	27
8	28
9	29
:	30
;	31
<	32
=	33
>	34
?	35
@	36
[	37
\	38
]	39
_	40
`	41
a	42
b	43
c	44
d	45
e	46
f	47
g	48
h	49
i	50
j	51
k	52
l	53
m	54
n	55
o	56
p	57
q	58
r	59
s	60
t	61
u	62
v	63
w	64
x	65
y	66
z	67
£	68
®	69
°	70
±	71
·	72
×	73
à	74
á	75
â	76
ã	77
ä	78
ç	79
è	80
é	81
ê	82
ë	83
ì	84
í	85
ï	86
ð	87
ñ	88
ò	89
ó	90
ô	91
õ	92
ö	93
ø	94
ú	95
ü	96
ā	97
ć	98
ę	99
ğ	100
ı	101
ķ	102
ł	103
ś	104
ş	105
š	106
ơ	107
ư	108
̇	109
α	110
η	111
μ	112
τ	113
‍	114
‎	115
•	116
′	117
⁄	118
⁠	119
€	120
−	121
≥	122
丽	123
安	124
洪	125
金	126
陈	127
🍌	128
😊	129
😭	130
🤲	131
##a	132
##r	133
##i	134
##j	135
##n	136
##t	137
##u	138
##b	139
##c	140
##k	141
##v	142
##e	143
##l	144
##z	145
##d	146
##s	147
##p	148
##h	149
##g	150
##o	151
##y	152
##x	153
##f	154
##m	155
##7	156
##8	157
##2	158
##w	159
##9	160
##0	161
##q	162
##1	163
##6	164
##3	165
##5	166
##4	167
##;	168
##)	169
##.	170
##]	171
##ç	172
##_	173
##*	174
##ş	175
##é	176
##ğ	177
##ư	178
##ơ	179
##ı	180
##ã	181
##á	182
##è	183
##ñ	184
##ú	185
##ò	186
##"	187
##,	188
##!	189
##ø	190
##?	191
##ü	192
##ó	193
##ö	194
##/	195
##:	196
##'	197
##-	198
##€	199
##[	200
##ì	201
###	202
##ā	203
##í	204
##ś	205
##ę	206
##\	207
##ï	208
##à	209
##@	210
##ä	211
##ê	212
##(	213
##ë	214
##ô	215
##ć	216
##š	217
##ķ	218
##‎	219
##â	220
##🤲	221
##>	222
##+	223
##$	224
##<	225
##ł	226
##😭	227
##′	228
##±	229
##õ	230
##金	231
##丽	232
##̇	233
##τ	234
##=	235
##⁠	236
##an	237
##er	238
##en	239
##ar	240
##at	241
##ang	242
##ak	243
##as	244
##al	245
##ah	246
##in	247
di	248
##em	249
##am	250
men	251
##el	252
##kan	253
##un	254
##tu	255
##si	256
##ya	257
##ad	258
ke	259
se	260
##on	261
##ap	262
yang	263
##il	264
##ga	265
##ta	266
dan	267
ber	268
ter	269
in	270
##or	271
per	272
##ik	273
##eng	274
##is	275
##ur	276
##bu	277
##ing	278
##us	279
##es	280
##asi	281
##um	282
meng	283
##it	284
##ara	285
mem	286
##ung	287
##ari	288
##nya	289
un	290
##uk	291
##ti	292
##ol	293
##om	294
##ada	295
##im	296
20	297
##id	298
##akan	299
##ek	300
##ul	301
##ir	302
pen	303
pr	304
##ai	305
##tuk	306
pem	307
##ba	308
202	309
untuk	310
##alam	311
##ut	312
##et	313
##da	314
##gi	315
##engan	316
dengan	317
an	318
##ber	319
ini	320
##ih	321
##atan	322
sa	323
##angan	324
2024	325
dari	326
dalam	327
##ud	328
itu	329
pada	330
##esi	331
##ama	332
##ok	333
##adi	334
##wa	335
##se	336
sel	337
",	338
##eg	339
mel	340
mer	341
##ib	342
##ata	343
##up	344
##ja	345
##but	346
##amp	347
##ter	348
ba	349
##uh	350
##ukan	351
##ali	352
ind	353
##ri	354
##and	355
##arta	356
##eb	357
##per	358
peng	359
##ab	360
kep	361
kem	362
##ant	363
##ed	364
meny	365
##ia	366
pro	367
tid	368
mas	369
menj	370
ju	371
tidak	372
la	373
kam	374
##alah	375
##ian	376
##elah	377
##ra	378
##isi	379
##ana	380
##pat	381
##sebut	382
##ua	383
##baga	384
akan	385
).	386
##ot	387
##pn	388
sem	389
##onesi	390
indonesi	391
##eh	392
tersebut	393
indonesia	394
ser	395
##ent	396
##aw	397
##angk	398
##akarta	399
tah	400
##uan	401
bah	402
jpn	403
jpnn	404
ak	405
##ota	406
pol	407
##bagai	408
ad	409
com	410
pel	411
##ay	412
##aran	413
bar	414
juga	415
##atakan	416
##ub	417
sek	418
jakarta	419
##abu	420
as	421
##ep	422
wib	423
##ahan	424
##ati	425
##asa	426
##anj	427
##end	428
mend	429
kar	430
ol	431
##akukan	432
##tr	433
kon	434
##aan	435
tahun	436
##anya	437
##any	438
kata	439
saat	440
##alu	441
##int	442
##apat	443
##ikan	444
neg	445
##ena	446
sat	447
ada	448
##amb	449
menjadi	450
dia	451
##arga	452
##cara	453
or	454
ap	455
##asan	456
##alan	457
leb	458
##ala	459
al	460
pert	461
bis	462
mengatakan	463
##aj	464
sebagai	465
tim	466
##usi	467
oleh	468
kom	469
##had	470
kami	471
##ungan	472
sen	473
pas	474
##aya	475
##yar	476
bahwa	477
##ika	478
##eka	479
kota	480
telah	481
##os	482
be	483
##ingk	484
is	485
ag	486
##angg	487
mereka	488
seb	489
##ina	490
kel	491
##ip	492
bisa	493
dil	494
##ong	495
##tau	496
##itas	497
##ita	498
##ka	499
lebih	500
##udah	501
orang	502
bagi	503
##ran	504
kor	505
##ain	506
##ew	507
##onal	508
set	509
kepada	510
atau	511
##ban	512
hari	513
##ingga	514
##ind	515
peny	516
##api	517
##lah	518
ker	519
har	520
##inya	521
##og	522
pemer	523
##asil	524
para	525
##aman	526
##bang	527
##ingg	528
##ow	529
sur	530
pers	531
menc	532
##akat	533
karena	534
negara	535
ar	536
satu	537
##aku	538
##gr	539
##od	540
##tem	541
ang	542
##tas	543
sudah	544
pe	545
bers	546
sej	547
si	548
##elum	549
##den	550
##esar	551
##apa	552
ja	553
##op	554
am	555
##uj	556
saya	557
##pr	558
##yarakat	559
masyarakat	560
##utu	561
##osi	562
berk	563
##anyak	564
dis	565
jum	566
da	567
##atkan	568
adalah	569
##jar	570
pemerint	571
ri	572
##apan	573
##iri	574
melakukan	575
pil	576
anak	577
##ob	578
##ilik	579
presi	580
lain	581
10	582
setelah	583
##orm	584
##asih	585
pend	586
dir	587
##oh	588
tet	589
##urut	590
dik	591
baru	592
##erah	593
ant	594
ek	595
hal	596
member	597
##ungk	598
su	599
presiden	600
##aks	601
##est	602
wak	603
##angs	604
##hadap	605
##imp	606
##aikan	607
mar	608
mengg	609
##ini	610
tem	611
terhadap	612
ch	613
##ov	614
##apkan	615
##arkan	616
memper	617
um	618
kec	619
ma	620
dua	621
dapat	622
##ima	623
secara	624
st	625
##ni	626
hingga	627
##dang	628
ked	629
##asional	630
rum	631
##jadi	632
ujar	633
warga	634
dit	635
teng	636
ti	637
kabu	638
pemil	639
kas	640
##perti	641
##han	642
##paten	643
jawa	644
kabupaten	645
##res	646
##emp	647
beber	648
pemerintah	649
menurut	650
ketu	651
ut	652
##mas	653
selasa	654
sep	655
##awan	656
rabu	657
des	658
##uti	659
##ic	660
seperti	661
tr	662
##hir	663
beberapa	664
##upakan	665
##unj	666
senin	667
bali	668
rumah	669
##ingan	670
pun	671
kemen	672
memb	673
besar	674
ket	675
##ihak	676
kamis	677
merupakan	678
),	679
##angat	680
##gram	681
masih	682
##ensi	683
banyak	684
##di	685
korban	686
##anjut	687
##askan	688
salah	689
##anan	690
sum	691
pihak	692
dep	693
harus	694
ban	695
##enc	696
band	697
tan	698
12	699
membu	700
dig	701
##wan	702
wil	703
jumat	704
lalu	705
##bat	706
nam	707
##alon	708
daerah	709
kh	710
##ihan	711
dilakukan	712
##erja	713
serta	714
11	715
##uran	716
ketua	717
##tur	718
re	719
seh	720
memberikan	721
##tif	722
angg	723
19	724
##eri	725
kasus	726
en	727
##iliki	728
atas	729
hanya	730
jat	731
selama	732
parta	733
mil	734
##duk	735
gr	736
bersama	737
##mi	738
##alui	739
sebelum	740
kese	741
##angsung	742
tengah	743
##to	744
##ag	745
##ses	746
keter	747
pemb	748
##olo	749
melalui	750
pal	751
##arang	752
##inan	753
berh	754
##ayah	755
##ch	756
##tri	757
##emb	758
##ukum	759
##tor	760
isra	761
##ilan	762
partai	763
kita	764
##uar	765
namun	766
##uruh	767
israel	768
baik	769
med	770
dip	771
##ulan	772
##itik	773
wilayah	774
##usia	775
tak	776
program	777
dem	778
##uda	779
keb	780
##pk	781
##angka	782
##ikasi	783
berl	784
memiliki	785
##usah	786
kap	787
sama	788
kepala	789
hukum	790
##unan	791
##ting	792
##apor	793
sangat	794
00	795
terjadi	796
##form	797
pes	798
##inggu	799
res	800
##tikan	801
ku	802
menye	803
##owo	804
##ember	805
##ump	806
##teri	807
##inta	808
##kait	809
##baya	810
calon	811
sab	812
gu	813
##era	814
bi	815
minggu	816
##itar	817
antara	818
##ju	819
jadi	820
par	821
barat	822
mak	823
kek	824
terl	825
##unia	826
kr	827
mul	828
rp	829
kes	830
mah	831
em	832
tent	833
hasil	834
tetapi	835
me	836
jalan	837
so	838
dunia	839
kemb	840
samp	841
bel	842
man	843
pan	844
##ilai	845
terkait	846
menteri	847
##ki	848
##elar	849
did	850
selatan	851
sekitar	852
##lu	853
kembali	854
##man	855
sabtu	856
##ec	857
##wal	858
##orang	859
up	860
##ukung	861
##unakan	862
pern	863
terus	864
pt	865
##iv	866
##uhan	867
15	868
##ani	869
##gas	870
tiga	871
kerja	872
##bar	873
air	874
seluruh	875
umum	876
ben	877
sura	878
pp	879
th	880
surabaya	881
inter	882
sebu	883
persen	884
produk	885
##ac	886
prab	887
##ekerja	888
prabowo	889
mengh	890
##umlah	891
meningk	892
ing	893
##uga	894
terd	895
##isasi	896
##ampaikan	897
##ihat	898
##adan	899
sebuah	900
berbagai	901
nasional	902
persi	903
##su	904
agar	905
kemud	906
kamp	907
menjel	908
##utus	909
##atang	910
keterangan	911
anggota	912
sejumlah	913
berd	914
bandung	915
30	916
im	917
pertama	918
mendapat	919
ters	920
##ons	921
##aksi	922
##anto	923
##onom	924
seti	925
kl	926
seorang	927
sement	928
##udi	929
sementara	930
##anc	931
us	932
##kada	933
pelaku	934
belum	935
wakil	936
pilkada	937
##sia	938
##ahkan	939
##unya	940
##por	941
##tim	942
##ist	943
kedua	944
##idikan	945
sedang	946
kons	947
16	948
##unc	949
din	950
##inggal	951
semua	952
nom	953
kemudian	954
jab	955
##uru	956
##amatan	957
##lik	958
14	959
##sa	960
suk	961
penc	962
##ko	963
ins	964
diper	965
mana	966
##nur	967
ia	968
kali	969
berb	970
##oto	971
pak	972
timur	973
##gaw	974
put	975
lok	976
ik	977
kal	978
ok	979
lainnya	980
ung	981
17	982
##yata	983
sejak	984
##asar	985
keseh	986
intern	987
mes	988
negeri	989
##masuk	990
13	991
##entu	992
rak	993
bid	994
nomor	995
##uli	996
penting	997
kesehatan	998
21	999
##inggi	1000
##apai	1001
eks	1002
##ui	1003
guber	1004
li	1005
gubernur	1006
##usahaan	1007
politik	1008
menyebut	1009
##nas	1010
tentang	1011
##ea	1012
unit	1013
##uari	1014
pl	1015
sis	1016
termasuk	1017
cuk	1018
##formasi	1019
serangan	1020
18	1021
##ij	1022
polisi	1023
perusahaan	1024
bak	1025
##utan	1026
##osial	1027
##ologi	1028
##anti	1029
min	1030
ab	1031
selain	1032
".	1033
terp	1034
jok	1035
agus	1036
pus	1037
##araan	1038
menghad	1039
desa	1040
suara	1041
##ula	1042
##fa	1043
##omp	1044
pengg	1045
bulan	1046
##za	1047
##men	1048
luar	1049
##ampak	1050
kegi	1051
##li	1052
membuat	1053
bert	1054
ketika	1055
depan	1056
kegiatan	1057
memas	1058
sosial	1059
##mad	1060
ah	1061
sebelumnya	1062
yak	1063
##ft	1064
pemilu	1065
buk	1066
china	1067
2023	1068
langsung	1069
sehingga	1070
##tus	1071
dim	1072
hak	1073
dib	1074
waktu	1075
sp	1076
##iter	1077
tempat	1078
mal	1079
bagian	1080
##und	1081
kur	1082
akhir	1083
##amanan	1084
komp	1085
memba	1086
##encana	1087
##ca	1088
23	1089
mulai	1090
pemain	1091
bantu	1092
sh	1093
tran	1094
##atanya	1095
direk	1096
menja	1097
##insi	1098
##ev	1099
proses	1100
tek	1101
##impin	1102
dpr	1103
##bab	1104
##ibat	1105
kant	1106
tinggi	1107
juta	1108
mener	1109
##na	1110
##atif	1111
sk	1112
##kap	1113
badan	1114
##iran	1115
##ersi	1116
##eo	1117
##antan	1118
##pa	1119
baw	1120
##pu	1121
malam	1122
katanya	1123
##akit	1124
bat	1125
apa	1126
amer	1127
mendukung	1128
il	1129
##unjuk	1130
##tiv	1131
##akhir	1132
el	1133
foto	1134
lagi	1135
berp	1136
##usus	1137
kecamatan	1138
media	1139
ham	1140
##epat	1141
seg	1142
##asis	1143
duk	1144
22	1145
peremp	1146
ger	1147
##jalan	1148
jika	1149
perempuan	1150
##terian	1151
bukan	1152
mengaku	1153
25	1154
khusus	1155
kend	1156
kaw	1157
kementerian	1158
##uni	1159
dar	1160
gol	1161
acara	1162
##ono	1163
tersangka	1164
utama	1165
amerika	1166
saja	1167
had	1168
meningkatkan	1169
kantor	1170
menyampaikan	1171
polres	1172
lay	1173
str	1174
perk	1175
upaya	1176
##ungg	1177
pasangan	1178
##yah	1179
ekonom	1180
utara	1181
jel	1182
201	1183
##aian	1184
masa	1185
id	1186
musi	1187
semarang	1188
makan	1189
nov	1190
##alami	1191
menga	1192
rek	1193
##enang	1194
penyel	1195
pusat	1196
##utusan	1197
prov	1198
##sis	1199
tetap	1200
##ompok	1201
trans	1202
tur	1203
##awat	1204
menggunakan	1205
##din	1206
pengh	1207
apr	1208
##ilih	1209
dp	1210
kond	1211
fil	1212
pa	1213
##ustr	1214
and	1215
##ikat	1216
tekn	1217
##fi	1218
ko	1219
kala	1220
bal	1221
##ublik	1222
ingin	1223
br	1224
kawasan	1225
##una	1226
mot	1227
sul	1228
ga	1229
rusia	1230
jatim	1231
##ingkat	1232
##yat	1233
masuk	1234
##ont	1235
yakni	1236
sampai	1237
ekonomi	1238
den	1239
diri	1240
24	1241
##war	1242
##bak	1243
##uarga	1244
bog	1245
dukungan	1246
menjelaskan	1247
op	1248
mengen	1249
##eksi	1250
##idup	1251
##ine	1252
er	1253
provinsi	1254
##uang	1255
bogor	1256
sub	1257
oper	1258
pelat	1259
##gan	1260
sesu	1261
##obil	1262
lingk	1263
##tober	1264
sekali	1265
maj	1266
##embang	1267
oktober	1268
bantuan	1269
keluarga	1270
dok	1271
##emen	1272
pendidikan	1273
jumlah	1274
##bagi	1275
posi	1276
ram	1277
tu	1278
##eral	1279
##engg	1280
kelompok	1281
##upun	1282
lanjut	1283
##olah	1284
##bantu	1285
sebanyak	1286
ditem	1287
ur	1288
mengungk	1289
##etah	1290
lapor	1291
kalau	1292
kan	1293
jabar	1294
dih	1295
##anjang	1296
mobil	1297
berada	1298
uc	1299
##ukul	1300
jan	1301
direktur	1302
##angkah	1303
tind	1304
##ma	1305
##inal	1306
##jabat	1307
mendapatkan	1308
##gus	1309
informasi	1310
##ustri	1311
##angkap	1312
##uas	1313
met	1314
soal	1315
uk	1316
##owi	1317
##la	1318
##annya	1319
lem	1320
##ola	1321
sup	1322
pember	1323
##okr	1324
november	1325
on	1326
ribu	1327
bu	1328
##le	1329
mencapai	1330
##oy	1331
##erta	1332
jelas	1333
tamb	1334
lokasi	1335
ka	1336
ra	1337
juli	1338
##arap	1339
awal	1340
##eda	1341
##ekan	1342
barang	1343
jokowi	1344
##istr	1345
dew	1346
##upsi	1347
setiap	1348
menunjuk	1349
polda	1350
lingkungan	1351
militer	1352
000	1353
gib	1354
gaza	1355
pemilihan	1356
##aris	1357
gibran	1358
##ami	1359
pppk	1360
berm	1361
##itmen	1362
keamanan	1363
##ator	1364
27	1365
##usan	1366
terakhir	1367
##buh	1368
##ungkin	1369
laga	1370
##urkan	1371
undang	1372
sal	1373
##ro	1374
perm	1375
langkah	1376
##aha	1377
pembang	1378
lap	1379
##adilan	1380
empat	1381
ken	1382
pembangunan	1383
##utur	1384
kej	1385
membantu	1386
univ	1387
##orong	1388
kab	1389
tangg	1390
##jata	1391
##uhi	1392
pekerja	1393
juni	1394
pukul	1395
kondisi	1396
dr	1397
##aki	1398
timnas	1399
jam	1400
muda	1401
ibu	1402
industri	1403
##ies	1404
menyatakan	1405
at	1406
agustus	1407
na	1408
pener	1409
##anye	1410
layanan	1411
##erang	1412
mengalami	1413
meninggal	1414
mantan	1415
##empat	1416
pekan	1417
bakal	1418
tel	1419
pihaknya	1420
send	1421
asal	1422
hadir	1423
ir	1424
##tugas	1425
##ital	1426
ungkap	1427
##arg	1428
##ode	1429
laporan	1430
pi	1431
gamb	1432
##00	1433
menunjukkan	1434
memastikan	1435
af	1436
dek	1437
universi	1438
internasional	1439
##jen	1440
##tember	1441
##ck	1442
kpu	1443
tuj	1444
##ambil	1445
september	1446
##tab	1447
harga	1448
diber	1449
keti	1450
melihat	1451
##anda	1452
muh	1453
##ve	1454
nar	1455
desember	1456
ac	1457
surat	1458
meminta	1459
##alkan	1460
kebu	1461
sesuai	1462
mei	1463
data	1464
kol	1465
berhasil	1466
perd	1467
masing	1468
berlangsung	1469
inv	1470
##angi	1471
terb	1472
ucap	1473
april	1474
int	1475
co	1476
resmi	1477
##kr	1478
jateng	1479
perang	1480
##baik	1481
januari	1482
keh	1483
konf	1484
keber	1485
komisi	1486
##ebr	1487
kendaraan	1488
sekolah	1489
##estasi	1490
tanpa	1491
##nis	1492
terk	1493
##ubungan	1494
pasar	1495
29	1496
28	1497
united	1498
26	1499
berharap	1500
##otensi	1501
for	1502
liga	1503
##tik	1504
perlu	1505
korupsi	1506
##anakan	1507
##ura	1508
##irkan	1509
maupun	1510
pet	1511
bidang	1512
siap	1513
pk	1514
pap	1515
kpk	1516
pernah	1517
bang	1518
kini	1519
mod	1520
nama	1521
ujarnya	1522
##oleh	1523
##isata	1524
##uka	1525
tanah	1526
bank	1527
##ate	1528
demokr	1529
kampanye	1530
gambar	1531
uang	1532
##ten	1533
##alitas	1534
sebesar	1535
##etahui	1536
duga	1537
##iti	1538
##asarkan	1539
sid	1540
##aih	1541
##aporkan	1542
sendiri	1543
bekerja	1544
##ungi	1545
##ulu	1546
##ujan	1547
dugaan	1548
of	1549
##kar	1550
##baru	1551
sy	1552
komun	1553
stadi	1554
motor	1555
##bul	1556
kad	1557
masalah	1558
menamb	1559
hujan	1560
##ilang	1561
trump	1562
##embangan	1563
##dag	1564
##anjar	1565
bup	1566
sed	1567
ukra	1568
maret	1569
##atur	1570
##ijakan	1571
bupati	1572
##tan	1573
ukraina	1574
de	1575
dirinya	1576
mus	1577
akibat	1578
##ili	1579
##andingan	1580
kapal	1581
pernyata	1582
kebijakan	1583
##asiswa	1584
lima	1585
aj	1586
pelangg	1587
ged	1588
adanya	1589
mat	1590
paling	1591
guru	1592
##aitu	1593
asia	1594
ps	1595
laut	1596
rakyat	1597
sol	1598
##jo	1599
gen	1600
kapol	1601
pb	1602
sumber	1603
##ahanan	1604
##iar	1605
pul	1606
yaitu	1607
sistem	1608
memperk	1609
menjalan	1610
mengenai	1611
petugas	1612
teg	1613
sakit	1614
##imana	1615
##engk	1616
bahkan	1617
##tisi	1618
melawan	1619
##ps	1620
the	1621
pertandingan	1622
hidup	1623
##ikuti	1624
##itan	1625
tok	1626
iran	1627
menerima	1628
##daft	1629
##uangan	1630
##ema	1631
korea	1632
##arget	1633
##iz	1634
wali	1635
hon	1636
berdasarkan	1637
pejabat	1638
pid	1639
mungkin	1640
serikat	1641
##ade	1642
bant	1643
##ergi	1644
berg	1645
perl	1646
mo	1647
bl	1648
inf	1649
teknologi	1650
##ig	1651
anda	1652
tni	1653
film	1654
denp	1655
##bangun	1656
menjaga	1657
universitas	1658
##aranya	1659
segera	1660
##tuhan	1661
##ampu	1662
08	1663
##hi	1664
##bagian	1665
##ci	1666
denpasar	1667
07	1668
##alia	1669
aman	1670
prof	1671
ul	1672
mengungkapkan	1673
pernyataan	1674
membawa	1675
##impinan	1676
solo	1677
cukai	1678
senjata	1679
gl	1680
##apun	1681
##ewas	1682
##isti	1683
##iaya	1684
ev	1685
31	1686
stadion	1687
##sel	1688
aksi	1689
##yak	1690
bukti	1691
##tul	1692
menggelar	1693
##ateg	1694
##wak	1695
##saan	1696
##amat	1697
menghadapi	1698
piala	1699
##ond	1700
jal	1701
memang	1702
pelatih	1703
bum	1704
##irim	1705
ari	1706
bawah	1707
##aksanakan	1708
##atu	1709
bea	1710
digital	1711
sar	1712
cukup	1713
jen	1714
pemimpin	1715
tingkat	1716
##umen	1717
lembaga	1718
##ungsi	1719
##emuan	1720
##jak	1721
##tai	1722
dinas	1723
##oni	1724
pad	1725
##re	1726
##mk	1727
dibu	1728
##ordin	1729
miliar	1730
pemerintahan	1731
fak	1732
##abor	1733
bek	1734
polri	1735
##alaman	1736
anies	1737
depok	1738
##uat	1739
pd	1740
publik	1741
bas	1742
lama	1743
listr	1744
##apres	1745
papua	1746
##ha	1747
listrik	1748
berin	1749
rep	1750
cua	1751
bersi	1752
kand	1753
po	1754
cuaca	1755
##co	1756
sim	1757
##gak	1758
digelar	1759
operasi	1760
gun	1761
keputusan	1762
##ham	1763
##angkat	1764
##unga	1765
menyel	1766
diter	1767
palest	1768
makanan	1769
cara	1770
pat	1771
pria	1772
tewas	1773
09	1774
ali	1775
##titu	1776
diduga	1777
akhirnya	1778
vid	1779
keuangan	1780
##ajar	1781
sebagian	1782
palestina	1783
##aji	1784
usaha	1785
punya	1786
bern	1787
##anding	1788
##atian	1789
##intas	1790
gedung	1791
milik	1792
kebutuhan	1793
angk	1794
mahasiswa	1795
##angga	1796
##angkan	1797
##iau	1798
bisnis	1799
##aksana	1800
berup	1801
penj	1802
mampu	1803
daya	1804
##edi	1805
nilai	1806
situ	1807
kejadi	1808
##uri	1809
benar	1810
menem	1811
bo	1812
ro	1813
##ila	1814
##iksaan	1815
war	1816
##ori	1817
##ira	1818
hubungan	1819
##arik	1820
##ogy	1821
ii	1822
tutur	1823
mendatang	1824
##ubahan	1825
meneg	1826
jend	1827
perubahan	1828
##ret	1829
ef	1830
jar	1831
gel	1832
asn	1833
datang	1834
hamas	1835
perh	1836
##yo	1837
##ce	1838
pasal	1839
ahmad	1840
kejadian	1841
##me	1842
##tribu	1843
es	1844
ud	1845
ya	1846
sam	1847
##atis	1848
##oro	1849
terbu	1850
ketiga	1851
jep	1852
##uju	1853
banten	1854
05	1855
peserta	1856
satunya	1857
##wi	1858
##angsa	1859
##aksa	1860
##tasi	1861
##eran	1862
pertam	1863
##ef	1864
organ	1865
##utama	1866
del	1867
##untu	1868
##pres	1869
sekaligus	1870
urut	1871
##eks	1872
##okus	1873
##line	1874
##uc	1875
##caya	1876
ganjar	1877
mendorong	1878
06	1879
perju	1880
##pl	1881
meski	1882
##idik	1883
menuju	1884
sus	1885
pertemuan	1886
komitmen	1887
##fikasi	1888
##empatan	1889
##ji	1890
ditemukan	1891
le	1892
##argaan	1893
##tribusi	1894
##ers	1895
##umum	1896
penghargaan	1897
kemenangan	1898
baga	1899
karya	1900
menging	1901
gar	1902
wid	1903
##isian	1904
##kot	1905
dana	1906
nus	1907
##alis	1908
maju	1909
##koba	1910
##ilitas	1911
bri	1912
##ayan	1913
honor	1914
##ohon	1915
beras	1916
2025	1917
perjuangan	1918
##enaga	1919
maka	1920
##ikut	1921
pemeriksaan	1922
##usaha	1923
nas	1924
tapi	1925
terbaik	1926
terj	1927
##ingkatan	1928
video	1929
##opa	1930
##lim	1931
##ore	1932
febr	1933
##uanya	1934
ed	1935
##adwal	1936
sektor	1937
sah	1938
jenderal	1939
perdana	1940
##unt	1941
##etapkan	1942
sempat	1943
200	1944
##ibatkan	1945
tert	1946
##tum	1947
potensi	1948
##etak	1949
##hkan	1950
februari	1951
muham	1952
##mar	1953
##itra	1954
pengadilan	1955
bertem	1956
rel	1957
##akin	1958
bp	1959
san	1960
peri	1961
##no	1962
##obal	1963
jalur	1964
nat	1965
menilai	1966
##ongan	1967
##dul	1968
lapangan	1969
form	1970
mew	1971
01	1972
##ug	1973
##eta	1974
prak	1975
eng	1976
tot	1977
keker	1978
terutama	1979
##engar	1980
cepat	1981
pelaksana	1982
digunakan	1983
##enuhi	1984
##ogyakarta	1985
mad	1986
tenaga	1987
berjalan	1988
musim	1989
yogyakarta	1990
##km	1991
tindakan	1992
rah	1993
global	1994
pos	1995
##ulai	1996
biden	1997
jer	1998
##urn	1999
bagaimana	2000
saksi	2001
her	2002
aktiv	2003
##ampung	2004
honorer	2005
menegaskan	2006
jaya	2007
jepang	2008
02	2009
periode	2010
dewan	2011
##atat	2012
menurutnya	2013
bangsa	2014
rasa	2015
##ampil	2016
menambahkan	2017
##ianto	2018
peningkatan	2019
persib	2020
banj	2021
##arin	2022
##ity	2023
sip	2024
semakin	2025
tern	2026
##aborasi	2027
nanti	2028
##usai	2029
##oa	2030
seusai	2031
tahu	2032
pasukan	2033
udara	2034
membangun	2035
bb	2036
##unaan	2037
pagi	2038
adapun	2039
##egal	2040
##truk	2041
##uki	2042
pengaw	2043
bur	2044
menjelang	2045
##babkan	2046
##isial	2047
dki	2048
##gitu	2049
banjir	2050
dic	2051
manusia	2052
bahan	2053
04	2054
##ujud	2055
terbaru	2056
begitu	2057
pidana	2058
rat	2059
meningkat	2060
pula	2061
ib	2062
kepol	2063
sil	2064
mis	2065
sekarang	2066
kepolisian	2067
mand	2068
meraih	2069
wisata	2070
50	2071
lat	2072
##adaan	2073
koordin	2074
jauh	2075
ungg	2076
online	2077
selalu	2078
te	2079
##kip	2080
##gab	2081
eropa	2082
pbb	2083
pertamina	2084
total	2085
fasil	2086
terc	2087
emas	2088
perjalan	2089
kont	2090
ikut	2091
##arah	2092
pertahanan	2093
hum	2094
rs	2095
tol	2096
diberikan	2097
03	2098
berj	2099
raya	2100
tujuan	2101
meskip	2102
meskipun	2103
ta	2104
terpilih	2105
ny	2106
posisi	2107
##te	2108
2022	2109
##uatan	2110
##erasi	2111
ot	2112
##faat	2113
bentuk	2114
##krim	2115
##anggung	2116
##iah	2117
diketahui	2118
##elak	2119
fa	2120
tiba	2121
mengikuti	2122
ditangkap	2123
##lam	2124
##enal	2125
##ior	2126
apar	2127
subianto	2128
berinisial	2129
lant	2130
kecil	2131
umkm	2132
tik	2133
enam	2134
##uasa	2135
##ly	2136
disebut	2137
energi	2138
has	2139
narkoba	2140
menang	2141
##utih	2142
bicara	2143
bus	2144
organisasi	2145
dampak	2146
##arian	2147
bay	2148
angka	2149
hamp	2150
ruang	2151
jenis	2152
agung	2153
berikut	2154
##lon	2155
##jukan	2156
art	2157
##gu	2158
isu	2159
kurang	2160
putih	2161
sig	2162
pengembangan	2163
tinggal	2164
berusia	2165
disampaikan	2166
##erahkan	2167
surve	2168
kuat	2169
mom	2170
sipil	2171
bes	2172
pangan	2173
##anjutan	2174
##esiasi	2175
hakim	2176
cer	2177
##ation	2178
##gris	2179
kesempatan	2180
##akah	2181
lew	2182
turun	2183
dekat	2184
##ny	2185
##uf	2186
##inkan	2187
##af	2188
##ulasi	2189
perjalanan	2190
tengg	2191
##ard	2192
inov	2193
lintas	2194
proy	2195
poin	2196
pelay	2197
memberi	2198
fasilitas	2199
fc	2200
rencana	2201
mengel	2202
##ulkan	2203
kekerasan	2204
##ern	2205
target	2206
##sep	2207
new	2208
##ahnya	2209
##one	2210
##arakan	2211
pdip	2212
biasa	2213
sidang	2214
ng	2215
memilih	2216
terlibat	2217
berkom	2218
tugas	2219
##anjutkan	2220
turut	2221
laki	2222
inggris	2223
##dak	2224
mau	2225
hampir	2226
penuh	2227
##utup	2228
beb	2229
membuka	2230
sin	2231
##takan	2232
tul	2233
seri	2234
pilpres	2235
##umsi	2236
bencana	2237
mengambil	2238
merasa	2239
penel	2240
##batasan	2241
net	2242
api	2243
naik	2244
sw	2245
##anggap	2246
##elakaan	2247
##buhan	2248
alasan	2249
pemilih	2250
##atangan	2251
pembun	2252
##cak	2253
##pasi	2254
##sed	2255
sabu	2256
kecelakaan	2257
##ubah	2258
golkar	2259
sand	2260
##icara	2261
keluar	2262
apakah	2263
pimpinan	2264
##asikan	2265
##umumkan	2266
menit	2267
##daya	2268
##onel	2269
kelas	2270
may	2271
nur	2272
yo	2273
menjalani	2274
kunj	2275
##bangan	2276
##ue	2277
memenuhi	2278
melaporkan	2279
positif	2280
sumat	2281
##enti	2282
kul	2283
berita	2284
rid	2285
##ajaran	2286
gag	2287
##sim	2288
pengel	2289
##okok	2290
##amin	2291
khususnya	2292
pelanggaran	2293
##likasi	2294
##arnya	2295
##amankan	2296
##nam	2297
sepanjang	2298
proyek	2299
elek	2300
ho	2301
survei	2302
hot	2303
pin	2304
##ilis	2305
##iman	2306
##ry	2307
merah	2308
##irakan	2309
##tuhkan	2310
##bp	2311
40	2312
dij	2313
tepat	2314
keras	2315
bin	2316
##alahan	2317
dibanding	2318
putusan	2319
##istik	2320
##juan	2321
##titusi	2322
bermain	2323
was	2324
##fud	2325
jawab	2326
##egr	2327
ratusan	2328
tang	2329
austr	2330
pn	2331
rapat	2332
fokus	2333
paslon	2334
grup	2335
budi	2336
putra	2337
##grasi	2338
##olak	2339
##ugi	2340
riau	2341
penyelengg	2342
anggaran	2343
tegas	2344
mudah	2345
##uncurkan	2346
to	2347
##jah	2348
sekret	2349
perb	2350
pembu	2351
akun	2352
lewat	2353
##arapkan	2354
malang	2355
pembunuhan	2356
##ris	2357
demi	2358
pelayanan	2359
rud	2360
pesawat	2361
ris	2362
##oli	2363
peran	2364
memer	2365
pand	2366
##aturan	2367
menemukan	2368
gus	2369
tangan	2370
ajang	2371
lokal	2372
buda	2373
memp	2374
##omo	2375
##ikit	2376
australia	2377
penyakit	2378
sedikit	2379
menarik	2380
##ebat	2381
diba	2382
##ona	2383
##iptakan	2384
##anian	2385
##ans	2386
belak	2387
hati	2388
##gabung	2389
manfaat	2390
##uduk	2391
pam	2392
##akwa	2393
pop	2394
##aslu	2395
republik	2396
muhammad	2397
kil	2398
sl	2399
##ton	2400
##po	2401
agama	2402
tindak	2403
luka	2404
##atus	2405
##ikian	2406
##inasi	2407
kontr	2408
##indungan	2409
##erensi	2410
dam	2411
leg	2412
bertemu	2413
berbeda	2414
bul	2415
sang	2416
##unggu	2417
kualitas	2418
##aim	2419
pertum	2420
##iksa	2421
antaranya	2422
budaya	2423
jo	2424
tant	2425
##fah	2426
##turan	2427
hend	2428
berkel	2429
pendaft	2430
setempat	2431
komb	2432
ilegal	2433
pj	2434
##ras	2435
tubuh	2436
investasi	2437
munc	2438
lib	2439
terdapat	2440
tokoh	2441
rus	2442
personel	2443
kemarin	2444
teman	2445
jadwal	2446
##ungkinan	2447
bawaslu	2448
##mkg	2449
dini	2450
##urah	2451
kemungkinan	2452
jabatan	2453
##amping	2454
akses	2455
makin	2456
juru	2457
pertumbuhan	2458
rut	2459
alat	2460
dprd	2461
memperkuat	2462
sd	2463
disel	2464
jangan	2465
uu	2466
##odo	2467
demikian	2468
olah	2469
##ambut	2470
asing	2471
menyebabkan	2472
perkara	2473
kunjungan	2474
berat	2475
##engah	2476
situasi	2477
sisi	2478
humas	2479
##th	2480
manaj	2481
peristi	2482
##akaran	2483
muncul	2484
tangerang	2485
strateg	2486
##akatan	2487
##antikan	2488
ditu	2489
##isan	2490
dokter	2491
demokrasi	2492
mempr	2493
bmkg	2494
fi	2495
mengur	2496
pasi	2497
peluang	2498
guna	2499
mahfud	2500
pelaksanaan	2501
gelar	2502
##pons	2503
titik	2504
##sir	2505
meman	2506
##abr	2507
joko	2508
##ej	2509
palembang	2510
pantai	2511
##orn	2512
anc	2513
menyebutkan	2514
kin	2515
seleksi	2516
mencari	2517
balik	2518
aturan	2519
fr	2520
panjang	2521
##uarkan	2522
ternyata	2523
kasih	2524
##erak	2525
peristiwa	2526
pdi	2527
tantangan	2528
##utip	2529
dpp	2530
pertanian	2531
putri	2532
##jid	2533
##inc	2534
##umpang	2535
vir	2536
##uji	2537
kos	2538
sebab	2539
##yan	2540
##alnya	2541
lagu	2542
bir	2543
##unjung	2544
menghadirkan	2545
gratis	2546
##rah	2547
mengak	2548
##antara	2549
menciptakan	2550
produksi	2551
konferensi	2552
ex	2553
puluhan	2554
##usung	2555
pering	2556
##gawai	2557
##omb	2558
gab	2559
##tar	2560
pegawai	2561
100	2562
##gub	2563
bola	2564
sud	2565
##ass	2566
dihad	2567
enggak	2568
menekan	2569
mata	2570
##pir	2571
##ayakan	2572
##tujuan	2573
optim	2574
hotel	2575
perj	2576
serang	2577
diperk	2578
strategis	2579
minum	2580
terima	2581
der	2582
final	2583
abdul	2584
pendaftaran	2585
##kam	2586
mk	2587
##bd	2588
diharapkan	2589
35	2590
pengalaman	2591
siapa	2592
luas	2593
musik	2594
##okan	2595
##egah	2596
##istan	2597
log	2598
sing	2599
tra	2600
vi	2601
keterangannya	2602
##entukan	2603
perse	2604
aceh	2605
45	2606
##lemen	2607
area	2608
sedangkan	2609
bandara	2610
sekretaris	2611
sehat	2612
konflik	2613
sumatera	2614
harapan	2615
##enangkan	2616
##eter	2617
penye	2618
pengguna	2619
##ky	2620
##kp	2621
##ajak	2622
widodo	2623
lampung	2624
##isme	2625
perlindungan	2626
##let	2627
##endah	2628
##sek	2629
##ahas	2630
pilihan	2631
ip	2632
siang	2633
kemenk	2634
tuturnya	2635
tanggal	2636
komunitas	2637
##iliun	2638
pesan	2639
##pol	2640
pekerjaan	2641
inovasi	2642
##atasi	2643
kombes	2644
tentu	2645
##enter	2646
ribuan	2647
##ase	2648
##if	2649
##ela	2650
perdag	2651
##udik	2652
puncak	2653
kampung	2654
perdagangan	2655
ay	2656
pendukung	2657
kolaborasi	2658
juara	2659
##uhkan	2660
iz	2661
kim	2662
vs	2663
demokrat	2664
lahan	2665
ucapnya	2666
car	2667
melaksanakan	2668
sampah	2669
kabar	2670
komunikasi	2671
formasi	2672
##ess	2673
mengumumkan	2674
bernama	2675
efek	2676
perg	2677
##epas	2678
jasa	2679
##ward	2680
jaringan	2681
islam	2682
solusi	2683
##ment	2684
##isiko	2685
kinerja	2686
sant	2687
peraturan	2688
penggunaan	2689
##egini	2690
terbuka	2691
##go	2692
##jau	2693
latihan	2694
sering	2695
##osok	2696
ph	2697
##entingan	2698
tujuh	2699
eri	2700
disk	2701
peringatan	2702
##pada	2703
triliun	2704
##ustrasi	2705
##cr	2706
haji	2707
usia	2708
terbesar	2709
##zi	2710
kebakaran	2711
##ahu	2712
##eli	2713
semb	2714
terlihat	2715
pulau	2716
memimpin	2717
dimulai	2718
du	2719
penjara	2720
##pek	2721
##min	2722
melibatkan	2723
mark	2724
ji	2725
##ational	2726
istri	2727
penyidik	2728
arab	2729
generasi	2730
##untut	2731
##andang	2732
kapolres	2733
dasar	2734
ped	2735
##urun	2736
kepentingan	2737
kalim	2738
##enggarakan	2739
sunga	2740
suh	2741
##all	2742
##adakan	2743
perek	2744
plat	2745
dpd	2746
tua	2747
waj	2748
##artawan	2749
akbp	2750
sik	2751
aplikasi	2752
non	2753
parlemen	2754
amb	2755
gunung	2756
lah	2757
##raga	2758
alias	2759
sore	2760
disi	2761
berkomitmen	2762
sungai	2763
pari	2764
dibandingkan	2765
psi	2766
he	2767
dikenal	2768
##tin	2769
##yanto	2770
babak	2771
siswa	2772
##unuh	2773
##ungutan	2774
forum	2775
##ty	2776
penumpang	2777
tps	2778
melanjutkan	2779
cat	2780
capres	2781
##tabilitas	2782
diterima	2783
mir	2784
bk	2785
pur	2786
ulang	2787
sana	2788
tampil	2789
##ho	2790
##oper	2791
tri	2792
bekasi	2793
nik	2794
kepem	2795
ilustrasi	2796
kematian	2797
aktif	2798
pram	2799
petani	2800
sebut	2801
##anjian	2802
fo	2803
##erd	2804
nusantara	2805
judi	2806
kesep	2807
tampak	2808
wartawan	2809
##icu	2810
reg	2811
##itasi	2812
##ite	2813
prib	2814
gug	2815
pentingnya	2816
kenaikan	2817
por	2818
div	2819
dilaporkan	2820
dipr	2821
bumn	2822
it	2823
perjanjian	2824
##esaikan	2825
mengajak	2826
##tisipasi	2827
aktivitas	2828
pengur	2829
kesel	2830
##utuskan	2831
berasal	2832
arah	2833
##ens	2834
berupa	2835
semangat	2836
##truktur	2837
mu	2838
##ero	2839
ancaman	2840
debat	2841
insi	2842
##okasi	2843
alam	2844
kre	2845
##angkaian	2846
bagus	2847
biaya	2848
no	2849
##entuk	2850
##ancis	2851
##ujudkan	2852
##lar	2853
hi	2854
##embangkan	2855
fes	2856
##akuasi	2857
pemuda	2858
pkb	2859
bint	2860
##usnya	2861
imi	2862
##impi	2863
##emi	2864
penju	2865
daft	2866
##faatkan	2867
penyelidikan	2868
menurun	2869
jerman	2870
strate	2871
momen	2872
##entikan	2873
spesi	2874
meres	2875
##anji	2876
##jahter	2877
gabungan	2878
##anja	2879
##unda	2880
jog	2881
pup	2882
##asanya	2883
wah	2884
az	2885
go	2886
hukuman	2887
##wakilan	2888
##indra	2889
berkelanjutan	2890
lul	2891
berusaha	2892
##urahan	2893
##bus	2894
##ayaan	2895
##anjutnya	2896
medan	2897
strategi	2898
izin	2899
bap	2900
##dangan	2901
mahkam	2902
jelasnya	2903
mahkamah	2904
##ement	2905
agen	2906
sulit	2907
dianggap	2908
dise	2909
##imb	2910
pasti	2911
dilaksanakan	2912
nt	2913
##oran	2914
sm	2915
##masi	2916
##alahkan	2917
insta	2918
platform	2919
gro	2920
##adah	2921
##antas	2922
ki	2923
jajaran	2924
sini	2925
##idat	2926
bad	2927
##elis	2928
masjid	2929
##abuhan	2930
##nif	2931
tenggara	2932
kanan	2933
ob	2934
##ork	2935
lebaran	2936
batu	2937
ramadan	2938
instagram	2939
gemp	2940
sukses	2941
begini	2942
perwakilan	2943
selanjutnya	2944
##dayaan	2945
wan	2946
##alisasi	2947
##bk	2948
##angkapan	2949
##onald	2950
bersih	2951
##ail	2952
##ambang	2953
kekuatan	2954
pajak	2955
menolak	2956
ahli	2957
kader	2958
caw	2959
ikn	2960
bebas	2961
##olaan	2962
prancis	2963
##ebih	2964
pelatihan	2965
keper	2966
terdiri	2967
keduanya	2968
##tulis	2969
skor	2970
daftar	2971
stu	2972
gagal	2973
gi	2974
ditetapkan	2975
##pirasi	2976
berupaya	2977
pemba	2978
pengelolaan	2979
hit	2980
##har	2981
konsumen	2982
belakang	2983
pilgub	2984
pengawasan	2985
olahraga	2986
sosok	2987
perbatasan	2988
##antung	2989
ge	2990
ha	2991
##urat	2992
lantaran	2993
tum	2994
##onf	2995
32	2996
##tal	2997
anti	2998
mengungkap	2999
##epatan	3000
filip	3001
##indungi	3002
##juk	3003
##kab	3004
##sor	3005
##onomian	3006
buah	3007
kalimantan	3008
##ex	3009
center	3010
##ewaskan	3011
malay	3012
##onton	3013
lakukan	3014
##antik	3015
mitra	3016
pon	3017
##uad	3018
##ewa	3019
##anon	3020
hid	3021
ran	3022
##pan	3023
##eman	3024
tahap	3025
##tinggi	3026
gerindra	3027
metro	3028
mi	3029
filipina	3030
malaysia	3031
##mu	3032
menangkap	3033
delapan	3034
##wil	3035
bertujuan	3036
##uth	3037
pribadi	3038
india	3039
##yarat	3040
sejarah	3041
perekonomian	3042
insiden	3043
memenangkan	3044
menyer	3045
##ampingi	3046
ialah	3047
kri	3048
##etisi	3049
pelabuhan	3050
hab	3051
tud	3052
##ilah	3053
##isk	3054
kelurahan	3055
mempert	3056
ayah	3057
boleh	3058
##wang	3059
##sedia	3060
manajemen	3061
##kl	3062
pemungutan	3063
##ampuan	3064
##iaga	3065
lebanon	3066
dikutip	3067
##isah	3068
##indak	3069
perhatian	3070
nu	3071
##ming	3072
pemilik	3073
##awarkan	3074
##anggar	3075
##onsumsi	3076
minta	3077
##wed	3078
menya	3079
##uma	3080
penga	3081
risiko	3082
##asinya	3083
##ender	3084
##aka	3085
##andatangan	3086
dokumen	3087
keman	3088
konser	3089
##agam	3090
##lan	3091
infras	3092
ringan	3093
aku	3094
paris	3095
konstitusi	3096
##45	3097
##jaya	3098
signif	3099
signifikan	3100
sri	3101
##",	3102
mencegah	3103
mengetahui	3104
##uhnya	3105
intel	3106
##isa	3107
##ebasan	3108
bangunan	3109
mandiri	3110
##so	3111
menyedi	3112
menyediakan	3113
##lo	3114
##jahteraan	3115
kemampuan	3116
kesejahteraan	3117
sukar	3118
##indo	3119
hilang	3120
##wedan	3121
pemas	3122
meluncurkan	3123
menghadiri	3124
##ins	3125
##ora	3126
mengurangi	3127
tai	3128
##umham	3129
top	3130
menjabat	3131
kemanusi	3132
gerakan	3133
nya	3134
##ofi	3135
##irmasi	3136
truk	3137
baswedan	3138
##dy	3139
pemkot	3140
status	3141
berbicara	3142
sta	3143
tal	3144
kandidat	3145
angkatan	3146
jogja	3147
33	3148
terh	3149
##tian	3150
##antasan	3151
airl	3152
menjalankan	3153
kemanusiaan	3154
fran	3155
lan	3156
koordinator	3157
##abumi	3158
kiri	3159
kateg	3160
menangg	3161
##apr	3162
##tifikasi	3163
minyak	3164
tes	3165
##uler	3166
seben	3167
##prov	3168
terdakwa	3169
infrastruktur	3170
36	3171
##onis	3172
##tival	3173
pemberantasan	3174
dah	3175
dom	3176
##stem	3177
##enangan	3178
mengirim	3179
tentara	3180
rata	3181
tertinggi	3182
sank	3183
tip	3184
##ganya	3185
2021	3186
##ampilan	3187
klub	3188
##wab	3189
##oba	3190
##mat	3191
menewaskan	3192
##apatan	3193
##bulkan	3194
kategori	3195
##oritas	3196
##endara	3197
##bangkan	3198
festival	3199
merek	3200
membutuhkan	3201
sukabumi	3202
bbc	3203
hadi	3204
justr	3205
##lukan	3206
##hadiran	3207
sebenarnya	3208
justru	3209
##tuju	3210
suriah	3211
maksim	3212
dinilai	3213
selamat	3214
kara	3215
menik	3216
riz	3217
motog	3218
##jaga	3219
arus	3220
profesi	3221
##wisata	3222
##ast	3223
terg	3224
senior	3225
pelanggan	3226
menunggu	3227
##adisi	3228
suami	3229
motogp	3230
ai	3231
perp	3232
memutuskan	3233
bergerak	3234
penyebab	3235
##upa	3236
##pns	3237
anaknya	3238
teror	3239
##uruan	3240
##bud	3241
iii	3242
cab	3243
kalah	3244
##arif	3245
penangan	3246
mendes	3247
kesepakatan	3248
visi	3249
sumsel	3250
perkembangan	3251
majelis	3252
tiket	3253
ses	3254
sanksi	3255
long	3256
pang	3257
tam	3258
kampus	3259
km	3260
percaya	3261
pengungsi	3262
##itian	3263
membahas	3264
##ink	3265
##bau	3266
kehadiran	3267
kompl	3268
##laim	3269
rev	3270
##iayaan	3271
wanita	3272
moh	3273
menetapkan	3274
paket	3275
mengajukan	3276
cpns	3277
##edia	3278
kehidup	3279
rudal	3280
tata	3281
##atar	3282
kun	3283
##ungkan	3284
menyambut	3285
international	3286
group	3287
##kand	3288
hasto	3289
500	3290
genc	3291
pik	3292
##andar	3293
##impiade	3294
##tup	3295
minim	3296
menekankan	3297
##evel	3298
sulaw	3299
ridwan	3300
jiwa	3301
sulawesi	3302
penelitian	3303
##pur	3304
##gn	3305
##asakan	3306
mencoba	3307
##intaan	3308
meter	3309
misi	3310
##ida	3311
sehar	3312
ekspor	3313
menawarkan	3314
damai	3315
tradisi	3316
##usif	3317
kereta	3318
diperkirakan	3319
seharusnya	3320
##ts	3321
mengatasi	3322
34	3323
##entar	3324
mewujudkan	3325
atlet	3326
penanganan	3327
berawan	3328
##etik	3329
berbasis	3330
199	3331
berper	3332
seles	3333
pks	3334
imigrasi	3335
jaksa	3336
liv	3337
##uku	3338
penjualan	3339
gempa	3340
jemb	3341
##sh	3342
##engkap	3343
iklim	3344
mengakui	3345
mon	3346
##ral	3347
admin	3348
##ailand	3349
sepeda	3350
thailand	3351
terdampak	3352
syarat	3353
##alisi	3354
impor	3355
klas	3356
unggul	3357
bergabung	3358
rp1	3359
berpotensi	3360
##ual	3361
##aksaan	3362
kompetisi	3363
tambahan	3364
penerbangan	3365
sikap	3366
##hawat	3367
mengeluarkan	3368
studi	3369
saudi	3370
rekan	3371
kejah	3372
kehidupan	3373
mudik	3374
##arikan	3375
panas	3376
fitur	3377
kejahatan	3378
mengamankan	3379
##ito	3380
tema	3381
bumi	3382
38	3383
fisi	3384
uni	3385
##abuming	3386
##sisten	3387
nyata	3388
tab	3389
##ell	3390
##ulang	3391
aset	3392
berkembang	3393
rakabuming	3394
2019	3395
mengembangkan	3396
##awatan	3397
##ancam	3398
pakar	3399
##uturkan	3400
55	3401
kari	3402
##bal	3403
menuturkan	3404
##atikan	3405
muslim	3406
penduduk	3407
idul	3408
##arjo	3409
##egara	3410
menyi	3411
prot	3412
selesai	3413
60	3414
gas	3415
red	3416
##erita	3417
##itri	3418
menyerang	3419
ton	3420
##num	3421
penjabat	3422
##gia	3423
park	3424
pencarian	3425
gugatan	3426
##gasi	3427
##ord	3428
##utri	3429
apala	3430
oknum	3431
kulit	3432
menengah	3433
peman	3434
apalagi	3435
peneg	3436
darah	3437
diskusi	3438
##adem	3439
##bi	3440
##yadi	3441
pemkab	3442
##zah	3443
##anggil	3444
permintaan	3445
et	3446
mencatat	3447
raka	3448
skuad	3449
##abila	3450
eksek	3451
libur	3452
##bol	3453
padang	3454
bh	3455
##ge	3456
kerus	3457
dikel	3458
lu	3459
##adar	3460
pembel	3461
operasional	3462
##iksi	3463
##angani	3464
berlaku	3465
rokok	3466
##antinya	3467
##osk	3468
antar	3469
##dukung	3470
berakhir	3471
perc	3472
##omend	3473
rangka	3474
seja	3475
##ampi	3476
apresiasi	3477
didukung	3478
perawatan	3479
sir	3480
##ker	3481
##anyakan	3482
persiapan	3483
airlangga	3484
##iraan	3485
inisi	3486
saw	3487
##entak	3488
mengingatkan	3489
kemenkumham	3490
pariwisata	3491
taiwan	3492
##by	3493
##eni	3494
fl	3495
##ekar	3496
##alikan	3497
##asilkan	3498
mati	3499
mengingat	3500
misalnya	3501
##apresiasi	3502
##akup	3503
dibawa	3504
kepemimpinan	3505
kop	3506
penangkapan	3507
pec	3508
obat	3509
samb	3510
##hing	3511
menyus	3512
terlalu	3513
shin	3514
administr	3515
##ee	3516
##ukur	3517
diminta	3518
tercatat	3519
tuduhan	3520
pengan	3521
roh	3522
melanggar	3523
rutin	3524
bintang	3525
##daftar	3526
buruk	3527
tuan	3528
prod	3529
biasanya	3530
aparat	3531
37	3532
massa	3533
gram	3534
fat	3535
hew	3536
##ometer	3537
##udin	3538
olimpiade	3539
bany	3540
##ren	3541
##urangan	3542
##temen	3543
##apaian	3544
saling	3545
award	3546
cor	3547
hiz	3548
##iring	3549
transaksi	3550
meninggalkan	3551
##bullah	3552
garuda	3553
##gung	3554
##ilangan	3555
akbar	3556
##ongk	3557
menyiapkan	3558
kalangan	3559
bangk	3560
uji	3561
##torat	3562
menanggapi	3563
hutan	3564
##tra	3565
pengusaha	3566
mesin	3567
angin	3568
kot	3569
viet	3570
pah	3571
pemprov	3572
##airan	3573
mengk	3574
yakin	3575
hut	3576
2020	3577
mempering	3578
kejaksaan	3579
##assar	3580
##atuan	3581
menim	3582
##aluasi	3583
kursi	3584
kompet	3585
##asitas	3586
##tir	3587
pengamanan	3588
manag	3589
koalisi	3590
##ebut	3591
makassar	3592
megaw	3593
##ikin	3594
##itkan	3595
##erjaan	3596
berdampak	3597
hizbullah	3598
##arti	3599
serentak	3600
teknis	3601
tas	3602
say	3603
##uddin	3604
##los	3605
ilmu	3606
mcr	3607
##ekat	3608
##edar	3609
ist	3610
sejauh	3611
##illah	3612
sepak	3613
serius	3614
##mati	3615
amin	3616
ide	3617
tertulis	3618
peringkat	3619
champi	3620
hewan	3621
##alifikasi	3622
lawan	3623
##unggal	3624
city	3625
##bo	3626
##etan	3627
maksimal	3628
rendah	3629
tp	3630
##tain	3631
##udara	3632
selaku	3633
tanda	3634
menyelesaikan	3635
staf	3636
##asta	3637
putaran	3638
##ez	3639
penet	3640
##ice	3641
buka	3642
buku	3643
dewi	3644
pekanbaru	3645
cawapres	3646
gam	3647
faktor	3648
awak	3649
sebaga	3650
##ainkan	3651
megawati	3652
##unci	3653
tambah	3654
logistik	3655
mendesak	3656
indra	3657
memasuki	3658
diikuti	3659
##esang	3660
purw	3661
##ei	3662
memicu	3663
mag	3664
##iriman	3665
gor	3666
mpr	3667
##ner	3668
pengurus	3669
taman	3670
##resi	3671
sehari	3672
pendapatan	3673
kaesang	3674
##ey	3675
##anjung	3676
krim	3677
tekan	3678
##yono	3679
##adinya	3680
harris	3681
persis	3682
ekstr	3683
menambah	3684
iv	3685
comm	3686
fakta	3687
tertentu	3688
cip	3689
##amaian	3690
melindungi	3691
##emaja	3692
vietnam	3693
##ombang	3694
pertanya	3695
darurat	3696
sembilan	3697
menyerahkan	3698
ditahan	3699
kabin	3700
mund	3701
##nu	3702
kepula	3703
uj	3704
diselenggarakan	3705
pupuk	3706
kepulauan	3707
fed	3708
mur	3709
mencetak	3710
##elawan	3711
##ram	3712
##ahankan	3713
kuasa	3714
ungkapnya	3715
##daknya	3716
minuman	3717
##ayu	3718
transpor	3719
##onfirmasi	3720
coba	3721
koordinasi	3722
kamil	3723
medis	3724
belajar	3725
off	3726
karawang	3727
era	3728
kat	3729
khofi	3730
bayi	3731
sleman	3732
gencatan	3733
khofifah	3734
setidaknya	3735
sukarelawan	3736
##insip	3737
materi	3738
moham	3739
bunga	3740
hil	3741
persero	3742
stasi	3743
terang	3744
mengapresiasi	3745
##anggu	3746
terlebih	3747
kehilangan	3748
praktik	3749
jurn	3750
##son	3751
##ick	3752
bengk	3753
sap	3754
##kti	3755
##lasi	3756
##land	3757
##unjungi	3758
penyelenggaraan	3759
##aker	3760
##tual	3761
akp	3762
klaim	3763
rup	3764
pengamat	3765
irjen	3766
memanfaatkan	3767
voa	3768
##old	3769
prinsip	3770
##ediksi	3771
star	3772
##operasi	3773
menimbulkan	3774
stasiun	3775
gian	3776
##enalkan	3777
prior	3778
berkon	3779
kualifikasi	3780
##yakini	3781
kilometer	3782
penetapan	3783
..	3784
nantinya	3785
rai	3786
mengusung	3787
senayan	3788
pabr	3789
##tivitas	3790
pabrik	3791
##anyi	3792
apabila	3793
kaltim	3794
dihadiri	3795
mencer	3796
mencakup	3797
##ence	3798
polresta	3799
cir	3800
##sinya	3801
##gh	3802
pran	3803
##egang	3804
perso	3805
##tabes	3806
berf	3807
invest	3808
prioritas	3809
con	3810
##sos	3811
##pon	3812
pendek	3813
dipimpin	3814
persoalan	3815
##uy	3816
##sus	3817
##abah	3818
##oso	3819
tanggung	3820
champions	3821
yong	3822
##rika	3823
##ambat	3824
pac	3825
##oman	3826
##ainan	3827
##asilan	3828
longsor	3829
pulang	3830
##cayaan	3831
penyelenggara	3832
remaja	3833
##ambah	3834
lihat	3835
sas	3836
tun	3837
konten	3838
kapasitas	3839
##oroti	3840
terbukti	3841
transportasi	3842
mig	3843
perum	3844
ketena	3845
legis	3846
jangka	3847
##entasi	3848
polsek	3849
zona	3850
diambil	3851
##edakan	3852
menjawab	3853
pertanyaan	3854
rangkaian	3855
##amar	3856
komand	3857
bpbd	3858
washing	3859
##ahun	3860
##ino	3861
##ulis	3862
penur	3863
bahasa	3864
marc	3865
pengawas	3866
berisi	3867
merilis	3868
penurunan	3869
pohon	3870
sosialisasi	3871
tambahnya	3872
washington	3873
mengonsumsi	3874
##ontoh	3875
mundur	3876
laman	3877
ru	3878
##wenang	3879
##itung	3880
##andi	3881
akr	3882
dibuka	3883
hel	3884
##ajuan	3885
rob	3886
tunggal	3887
dag	3888
aktivis	3889
berarti	3890
##esan	3891
##intah	3892
buat	3893
kerugi	3894
##juang	3895
fisik	3896
##sidi	3897
tahanan	3898
sumut	3899
regi	3900
segala	3901
otor	3902
yus	3903
##ubungi	3904
senang	3905
dipas	3906
ident	3907
##ungkinkan	3908
menurunkan	3909
hitam	3910
profesional	3911
mengalahkan	3912
ketenagak	3913
joh	3914
##kandar	3915
berkontribusi	3916
kerugian	3917
##lom	3918
pengunjung	3919
pasien	3920
bapak	3921
##fik	3922
##app	3923
##osisi	3924
cil	3925
md	3926
nel	3927
semuanya	3928
usai	3929
ketenagakerjaan	3930
menjadikan	3931
)",	3932
43	3933
donald	3934
##akuan	3935
##ahi	3936
##sual	3937
nusa	3938
pameran	3939
41	3940
##yu	3941
mengubah	3942
boj	3943
finan	3944
##ania	3945
##uksi	3946
pelajar	3947
ketat	3948
##ahami	3949
beragam	3950
iskandar	3951
standar	3952
teh	3953
##imbau	3954
khawat	3955
##entuan	3956
bakar	3957
##argetkan	3958
arif	3959
rusak	3960
sor	3961
tae	3962
dj	3963
taj	3964
umat	3965
administrasi	3966
cl	3967
peg	3968
##erat	3969
kabinet	3970
je	3971
##syah	3972
catatan	3973
hib	3974
kp	3975
kemajuan	3976
pemberian	3977
toko	3978
##uasaan	3979
kepercayaan	3980
##adu	3981
adat	3982
batas	3983
elektabilitas	3984
cabang	3985
gianyar	3986
kt	3987
lengkap	3988
brand	3989
elektr	3990
hijau	3991
##utif	3992
madura	3993
menutup	3994
##indari	3995
39	3996
ikan	3997
kunci	3998
##ver	3999
##eor	4000
##hiri	4001
##fat	4002
real	4003
imbuh	4004
do	4005
gad	4006
diamankan	4007
situs	4008
##osiasi	4009
suatu	4010
##umpul	4011
##tansi	4012
pintu	4013
dap	4014
fer	4015
kak	4016
tangga	4017
##ahal	4018
memulai	4019
seksual	4020
layak	4021
fungsi	4022
mor	4023
##urian	4024
memungkinkan	4025
soekar	4026
karyawan	4027
dulu	4028
##bs	4029
solid	4030
aparatur	4031
riset	4032
rekomend	4033
kontrak	4034
42	4035
lanc	4036
##rid	4037
##jur	4038
##erai	4039
model	4040
keselamatan	4041
khawatir	4042
mengand	4043
polit	4044
ditemui	4045
merespons	4046
ceo	4047
##undang	4048
##amaan	4049
alami	4050
menghentikan	4051
wajib	4052
tanjung	4053
wor	4054
##fisi	4055
beliau	4056
upa	4057
##ish	4058
bambang	4059
wat	4060
##ld	4061
##apol	4062
##omosi	4063
dav	4064
tulis	4065
##uny	4066
berta	4067
##iban	4068
##istis	4069
regional	4070
afrika	4071
##aimin	4072
joe	4073
kerusakan	4074
tekanan	4075
menentukan	4076
##iling	4077
surakarta	4078
intensi	4079
dahulu	4080
ded	4081
kaki	4082
term	4083
##ester	4084
##endik	4085
muhaimin	4086
##eorologi	4087
cal	4088
mik	4089
##vensi	4090
senilai	4091
depar	4092
perdamaian	4093
pranowo	4094
48	4095
44	4096
jena	4097
nasi	4098
sop	4099
##alik	4100
##esti	4101
plas	4102
##ohonan	4103
##onik	4104
##raf	4105
upacara	4106
##apura	4107
jatuh	4108
##ampilkan	4109
beroperasi	4110
sekjen	4111
kerap	4112
padahal	4113
warna	4114
##osistem	4115
kred	4116
relawan	4117
ntb	4118
bend	4119
kapten	4120
persebaya	4121
efektif	4122
kompleks	4123
##alin	4124
mengec	4125
##alian	4126
super	4127
rekomendasi	4128
tay	4129
perayaan	4130
beij	4131
diny	4132
sambut	4133
##akar	4134
bersen	4135
ekosistem	4136
memperoleh	4137
integr	4138
berperan	4139
eksekutif	4140
beijing	4141
bung	4142
##que	4143
##elasan	4144
##otan	4145
##anggilan	4146
camp	4147
lp	4148
##oga	4149
##fe	4150
desain	4151
migran	4152
bilang	4153
liter	4154
seni	4155
##oduksi	4156
pot	4157
##cc	4158
darat	4159
##truksi	4160
hy	4161
jema	4162
mengunjungi	4163
nyaman	4164
ekstrem	4165
taw	4166
pengiriman	4167
institu	4168
bertanggung	4169
dibuat	4170
satuan	4171
47	4172
sya	4173
##akai	4174
##itungan	4175
berku	4176
##evakuasi	4177
kriminal	4178
bertajuk	4179
purn	4180
berwenang	4181
mengadakan	4182
menghasilkan	4183
narkot	4184
news	4185
##ahmi	4186
keadaan	4187
kartu	4188
penyanyi	4189
##aksud	4190
kasat	4191
##pora	4192
narkotika	4193
nah	4194
##orter	4195
##uro	4196
##uransi	4197
diperlukan	4198
tambang	4199
lar	4200
qatar	4201
sun	4202
##udul	4203
diplom	4204
bertahan	4205
protes	4206
56	4207
eduk	4208
ni	4209
rest	4210
klasemen	4211
51	4212
##air	4213
perangkat	4214
##entang	4215
##gres	4216
nuk	4217
##kes	4218
berubah	4219
mac	4220
awalnya	4221
ibadah	4222
identitas	4223
berkualitas	4224
dw	4225
norm	4226
berencana	4227
selebr	4228
agenda	4229
...	4230
jenazah	4231
melay	4232
lebat	4233
membeli	4234
kompol	4235
turki	4236
##uw	4237
open	4238
kanwil	4239
kontra	4240
diy	4241
##olusi	4242
mempertahankan	4243
yud	4244
##esu	4245
kamar	4246
ros	4247
##lir	4248
didampingi	4249
nasabah	4250
kac	4251
tadi	4252
permas	4253
##ace	4254
drone	4255
legisl	4256
tarif	4257
##ku	4258
permohonan	4259
##gunaan	4260
2026	4261
saudara	4262
serupa	4263
dilan	4264
persidangan	4265
lanjutnya	4266
kreatif	4267
cah	4268
sec	4269
##anyahu	4270
##ungkap	4271
netanyahu	4272
perbaikan	4273
wi	4274
keadilan	4275
sese	4276
##siapkan	4277
memahami	4278
##adai	4279
##abat	4280
menyoroti	4281
gaji	4282
##rist	4283
kediri	4284
emil	4285
berikutnya	4286
viral	4287
52	4288
##umpulkan	4289
balai	4290
lahir	4291
bersenjata	4292
cel	4293
##jakan	4294
menud	4295
pelunc	4296
putin	4297
direktorat	4298
nelayan	4299
nuklir	4300
far	4301
panc	4302
##namen	4303
jas	4304
##sen	4305
tembak	4306
pembicara	4307
produs	4308
dinyatakan	4309
hasan	4310
##bon	4311
##hip	4312
##uluh	4313
alham	4314
##andatangani	4315
dos	4316
mari	4317
mic	4318
sambil	4319
##teng	4320
keempat	4321
##olaborasi	4322
##idana	4323
konsep	4324
penceg	4325
diperiksa	4326
modern	4327
wisatawan	4328
fir	4329
mun	4330
smk	4331
##yani	4332
kew	4333
##eskrim	4334
adil	4335
##anyol	4336
kus	4337
##lih	4338
spanyol	4339
kapolda	4340
departemen	4341
alhamdul	4342
##sur	4343
##gag	4344
andi	4345
##upan	4346
##eja	4347
membentuk	4348
menerapkan	4349
natal	4350
##hat	4351
mengapa	4352
lapas	4353
erick	4354
cerah	4355
##aing	4356
##uskan	4357
sido	4358
pemad	4359
##ujuk	4360
kalinya	4361
artinya	4362
##adang	4363
respons	4364
##engaruhi	4365
swasta	4366
om	4367
##ium	4368
perairan	4369
aktor	4370
mendek	4371
vol	4372
##aruh	4373
##buk	4374
##engkapi	4375
49	4376
##ill	4377
merayakan	4378
imam	4379
tumbuh	4380
bn	4381
##jek	4382
##dem	4383
kesi	4384
berkolaborasi	4385
ketidak	4386
keberl	4387
ayat	4388
cik	4389
sent	4390
tbk	4391
semif	4392
sesuatu	4393
pembay	4394
akrab	4395
pencegahan	4396
bet	4397
pangk	4398
tentunya	4399
regulasi	4400
pembayaran	4401
pesi	4402
##antah	4403
##ogram	4404
semifinal	4405
don	4406
##be	4407
akadem	4408
58	4409
av	4410
##amkan	4411
anwar	4412
alum	4413
turnamen	4414
world	4415
dilansir	4416
peluncuran	4417
##tion	4418
dibutuhkan	4419
jarak	4420
##itia	4421
indah	4422
bbm	4423
singapura	4424
krisis	4425
70	4426
##tern	4427
##ertai	4428
plastik	4429
edukasi	4430
##akkan	4431
##ayat	4432
reformasi	4433
meteorologi	4434
investor	4435
permasalahan	4436
53	4437
gangg	4438
##tok	4439
##ph	4440
arm	4441
kebudayaan	4442
lulus	4443
##alurkan	4444
##angkatan	4445
karang	4446
penyer	4447
ketentuan	4448
80	4449
##antren	4450
ketum	4451
permainan	4452
susu	4453
gangguan	4454
##sal	4455
detik	4456
yas	4457
menempat	4458
tahapan	4459
penyidikan	4460
seseorang	4461
born	4462
##va	4463
##indah	4464
efisi	4465
dukung	4466
ting	4467
##ungnya	4468
baz	4469
semoga	4470
karno	4471
kekhawat	4472
pasalnya	4473
pembuk	4474
bkn	4475
59	4476
##idasi	4477
##awanan	4478
berbah	4479
deklar	4480
mayoritas	4481
kekhawatiran	4482
han	4483
jus	4484
##asana	4485
##asia	4486
mengimbau	4487
##day	4488
pesantren	4489
penerim	4490
lancar	4491
bikin	4492
kai	4493
##intar	4494
militan	4495
membayar	4496
transi	4497
cak	4498
##sean	4499
persija	4500
##port	4501
supaya	4502
inisiatif	4503
aut	4504
tren	4505
jembatan	4506
jurnalis	4507
bob	4508
kelah	4509
##ii	4510
##cang	4511
perintah	4512
mengin	4513
aspek	4514
irak	4515
##dagang	4516
54	4517
##ron	4518
berbagi	4519
##entan	4520
persatuan	4521
kekuasaan	4522
borneo	4523
kelahiran	4524
##ear	4525
disertai	4526
suasana	4527
bantul	4528
syari	4529
memperkenalkan	4530
ten	4531
ruu	4532
alhamdulillah	4533
asean	4534
##alih	4535
asuransi	4536
internal	4537
lantas	4538
sdm	4539
kopi	4540
dedi	4541
lol	4542
pokok	4543
##aritas	4544
berkat	4545
46	4546
by	4547
jm	4548
##aga	4549
##esik	4550
##ingin	4551
hasilnya	4552
setiawan	4553
penerimaan	4554
lum	4555
lest	4556
suku	4557
57	4558
wal	4559
peneliti	4560
jemaah	4561
##ff	4562
mendaftar	4563
sesi	4564
berangkat	4565
mengus	4566
2018	4567
prakiraan	4568
mit	4569
##alang	4570
##ulangan	4571
beli	4572
##usak	4573
prestasi	4574
##ataan	4575
polrestabes	4576
lt	4577
##hana	4578
##amatkan	4579
tertu	4580
##itakan	4581
##waj	4582
pernik	4583
inflasi	4584
evaluasi	4585
cita	4586
##fitri	4587
menampilkan	4588
##luas	4589
##baiki	4590
market	4591
istana	4592
sebagaimana	4593
sidoarjo	4594
75	4595
kk	4596
wna	4597
raja	4598
sandera	4599
##elang	4600
penip	4601
indep	4602
mempunya	4603
mengakhiri	4604
sasaran	4605
geo	4606
transp	4607
kilogram	4608
independ	4609
##kah	4610
##urit	4611
##ower	4612
##hk	4613
##epon	4614
##ogo	4615
maaf	4616
mengakibatkan	4617
jember	4618
muk	4619
wis	4620
pendapat	4621
dn	4622
##imat	4623
##tujui	4624
mempunyai	4625
90	4626
pag	4627
psis	4628
kontribusi	4629
##hanc	4630
pidat	4631
ayu	4632
deklarasi	4633
yay	4634
##fo	4635
satgas	4636
##angkau	4637
##ance	4638
##adwalkan	4639
##san	4640
menko	4641
##tusi	4642
dilantik	4643
ppp	4644
##aksikan	4645
gelombang	4646
pernikahan	4647
cag	4648
dibangun	4649
##awal	4650
modal	4651
nasdem	4652
batang	4653
dwi	4654
##hasilan	4655
menguc	4656
pedagang	4657
terjadinya	4658
lepas	4659
##dian	4660
melip	4661
konsisten	4662
penganiayaan	4663
cek	4664
##ct	4665
##kus	4666
##oc	4667
menangani	4668
##olog	4669
##angkut	4670
pasokan	4671
##ijen	4672
##dagri	4673
##untungan	4674
level	4675
puasa	4676
mengant	4677
antusi	4678
arya	4679
menghindari	4680
elektronik	4681
bent	4682
##st	4683
penemb	4684
belanda	4685
##onstr	4686
aff	4687
yayasan	4688
##aminya	4689
belanja	4690
antusias	4691
kud	4692
sut	4693
peroleh	4694
##oko	4695
tahunan	4696
namanya	4697
otoritas	4698
sela	4699
##andai	4700
konsumsi	4701
memeriksa	4702
divisi	4703
pu	4704
sc	4705
##kom	4706
##batas	4707
transformasi	4708
hek	4709
york	4710
merasakan	4711
##awang	4712
mempersiapkan	4713
tiktok	4714
tep	4715
##inar	4716
terse	4717
##tib	4718
pensi	4719
gresik	4720
keterl	4721
university	4722
optimistis	4723
buruh	4724
boy	4725
fad	4726
##au	4727
##lakukan	4728
perform	4729
##ekaan	4730
martin	4731
pakistan	4732
rektor	4733
menuntut	4734
menargetkan	4735
tersedia	4736
prop	4737
timnya	4738
pssi	4739
idulfitri	4740
##are	4741
pemenangan	4742
adik	4743
##ambangan	4744
##ancarkan	4745
pencurian	4746
pss	4747
dol	4748
##iner	4749
perund	4750
##ulian	4751
arema	4752
suaminya	4753
keberadaan	4754
keluarganya	4755
murah	4756
##der	4757
##pi	4758
##fer	4759
pembal	4760
berhenti	4761
membagi	4762
kotak	4763
juanda	4764
all	4765
##oblos	4766
respon	4767
##ondok	4768
berjudul	4769
kaj	4770
uh	4771
##rut	4772
##bitkan	4773
##abilitas	4774
corpor	4775
##fisika	4776
david	4777
mesi	4778
berc	4779
pegi	4780
badung	4781
wita	4782
bertugas	4783
penangg	4784
penonton	4785
temuan	4786
dewa	4787
main	4788
rom	4789
##js	4790
##ktikan	4791
penind	4792
mendengar	4793
kongres	4794
pembebasan	4795
300	4796
klimat	4797
##untutan	4798
##ugikan	4799
hendak	4800
fraksi	4801
selebritas	4802
hektar	4803
klimatologi	4804
##my	4805
##akter	4806
kesul	4807
daring	4808
mengenakan	4809
sarana	4810
besok	4811
mengirimkan	4812
79	4813
sma	4814
##ebaskan	4815
kredit	4816
geofisika	4817
berjuang	4818
pemenang	4819
pelantikan	4820
##ingkatkan	4821
istr	4822
arahan	4823
2016	4824
ramah	4825
ngurah	4826
perumahan	4827
doa	4828
web	4829
wawan	4830
series	4831
alih	4832
##klusif	4833
yah	4834
##ust	4835
kedatangan	4836
membantah	4837
rekor	4838
diberi	4839
niaga	4840
ven	4841
##roli	4842
menel	4843
komentar	4844
##unjukan	4845
ky	4846
##uters	4847
rumahnya	4848
bila	4849
col	4850
##io	4851
adv	4852
penggel	4853
2017	4854
supri	4855
jaminan	4856
cerita	4857
intelijen	4858
menikmati	4859
rupiah	4860
keberlanjutan	4861
ca	4862
tar	4863
##jana	4864
dira	4865
##ony	4866
##irikan	4867
penampilan	4868
##epan	4869
youtu	4870
waspada	4871
tkp	4872
##ahaman	4873
pergi	4874
##abil	4875
##ormatan	4876
gelora	4877
mesir	4878
##put	4879
##hub	4880
##egoro	4881
##ebar	4882
alex	4883
penerapan	4884
menyerukan	4885
memperingatkan	4886
tk	4887
##uruhan	4888
paus	4889
istrinya	4890
##lad	4891
pengadaan	4892
##trik	4893
##eco	4894
instansi	4895
penerima	4896
saham	4897
tersebar	4898
banjar	4899
sch	4900
persa	4901
sejalan	4902
panitia	4903
maluku	4904
suhu	4905
##dp	4906
diran	4907
mena	4908
menganggap	4909
ade	4910
##ambarkan	4911
pilih	4912
fakul	4913
pns	4914
tamu	4915
perolehan	4916
zul	4917
##emar	4918
##iden	4919
melanda	4920
##jual	4921
parpol	4922
andika	4923
parkir	4924
kompetensi	4925
hulu	4926
gereja	4927
##uyur	4928
##injau	4929
sekutu	4930
mineral	4931
event	4932
penipuan	4933
dirancang	4934
fakultas	4935
cinta	4936
rem	4937
##do	4938
##atik	4939
##atih	4940
menahan	4941
##itor	4942
diajukan	4943
bud	4944
##nia	4945
##tn	4946
##een	4947
2029	4948
##ormati	4949
##timewa	4950
pencapaian	4951
federal	4952
syah	4953
##madi	4954
##ehan	4955
adi	4956
suporter	4957
permuk	4958
keberhasilan	4959
fau	4960
cuma	4961
gud	4962
##onegoro	4963
##itim	4964
##ainya	4965
surya	4966
memperluas	4967
berlanjut	4968
pakai	4969
dosen	4970
luth	4971
diadakan	4972
penyedia	4973
produsen	4974
penembakan	4975
day	4976
gula	4977
ras	4978
##cok	4979
raf	4980
penjelasan	4981
meliputi	4982
kesulitan	4983
##her	4984
##inginan	4985
reuters	4986
partisipasi	4987
emisi	4988
tradisional	4989
melayani	4990
nana	4991
##inaan	4992
##imis	4993
##asila	4994
##opsi	4995
palsu	4996
dijadwalkan	4997
mengandung	4998
kenc	4999
