<unk>	0
<s>	0
</s>	0
an	-0
er	-1
en	-2
▁d	-3
▁m	-4
ar	-5
at	-6
▁p	-7
ang	-8
ak	-9
in	-10
▁s	-11
as	-12
▁k	-13
al	-14
ah	-15
▁t	-16
▁b	-17
em	-18
am	-19
un	-20
▁di	-21
▁men	-22
el	-23
▁P	-24
ad	-25
kan	-26
tu	-27
▁S	-28
ya	-29
si	-30
▁K	-31
ap	-32
on	-33
▁y	-34
▁yang	-35
eb	-36
il	-37
ga	-38
or	-39
▁B	-40
▁dan	-41
▁M	-42
▁A	-43
es	-44
ik	-45
eng	-46
is	-47
▁ter	-48
ur	-49
ut	-50
▁ber	-51
▁l	-52
it	-53
ing	-54
us	-55
ek	-56
▁D	-57
um	-58
et	-59
asi	-60
akan	-61
▁J	-62
ol	-63
▁meng	-64
▁T	-65
ada	-66
ara	-67
▁I	-68
nya	-69
▁j	-70
▁2	-71
ung	-72
▁,	-73
▁per	-74
uk	-75
ari	-76
emb	-77
▁ke	-78
▁h	-79
ab	-80
▁(	-81
ai	-82
im	-83
▁R	-84
om	-85
ul	-86
id	-87
ir	-88
ta	-89
▁"	-90
▁in	-91
▁.	-92
▁20	-93
tuk	-94
▁un	-95
alam	-96
▁se	-97
▁untuk	-98
▁r	-99
itu	-100
ud	-101
▁-	-102
▁pen	-103
▁202	-104
ih	-105
engan	-106
ata	-107
ti	-108
ag	-109
▁H	-110
aw	-111
up	-112
▁1	-113
▁dengan	-114
atan	-115
▁mem	-116
angan	-117
▁W	-118
eg	-119
▁N	-120
▁ini	-121
▁dari	-122
▁In	-123
▁G	-124
ia	-125
ama	-126
esi	-127
adi	-128
ok	-129
▁itu	-130
▁2024	-131
▁n	-132
▁C	-133
▁L	-134
▁pada	-135
ro	-136
uh	-137
▁dalam	-138
ant	-139
ed	-140
ep	-141
▁mel	-142
aga	-143
and	-144
aya	-145
ian	-146
▁U	-147
▁seb	-148
amp	-149
ukan	-150
ent	-151
▁memb	-152
▁mer	-153
ay	-154
ali	-155
▁g	-156
ebut	-157
ri	-158
▁menj	-159
per	-160
eh	-161
▁w	-162
▁ters	-163
idak	-164
▁c	-165
▁F	-166
▁pem	-167
▁meny	-168
▁Ind	-169
ub	-170
eri	-171
aj	-172
ain	-173
isi	-174
elah	-175
▁Per	-176
alah	-177
aan	-178
uga	-179
▁tidak	-180
wa	-181
ot	-182
angk	-183
end	-184
ua	-185
▁akan	-186
onesi	-187
uan	-188
ib	-189
onesia	-190
▁tersebut	-191
▁Indonesia	-192
▁peng	-193
ahan	-194
asa	-195
▁kep	-196
agai	-197
emp	-198
uj	-199
aran	-200
nn	-201
",	-202
amb	-203
aat	-204
pnn	-205
ota	-206
anj	-207
▁E	-208
).	-209
▁juga	-210
ana	-211
atakan	-212
com	-213
angg	-214
▁sel	-215
ati	-216
▁WI	-217
▁nya	-218
▁Pr	-219
▁",	-220
▁WIB	-221
▁Sel	-222
usi	-223
ra	-224
▁pro	-225
▁mend	-226
ahun	-227
▁bah	-228
▁mas	-229
akukan	-230
ami	-231
gi	-232
orang	-233
int	-234
ob	-235
any	-236
alu	-237
▁kata	-238
▁f	-239
apat	-240
asan	-241
oleh	-242
agi	-243
tr	-244
▁menjadi	-245
arga	-246
cara	-247
▁An	-248
akar	-249
alan	-250
ja	-251
▁mengatakan	-252
▁O	-253
▁Ke	-254
ungan	-255
ala	-256
▁saat	-257
eka	-258
had	-259
isa	-260
ter	-261
atu	-262
▁bahwa	-263
▁sek	-264
▁ak	-265
▁pel	-266
ika	-267
anya	-268
▁ad	-269
da	-270
▁ser	-271
▁sebagai	-272
▁ada	-273
▁oleh	-274
ebih	-275
▁telah	-276
ena	-277
▁tahun	-278
ingk	-279
ong	-280
apa	-281
itas	-282
ip	-283
utu	-284
os	-285
aman	-286
▁kar	-287
▁kon	-288
akarta	-289
yar	-290
▁0	-291
▁set	-292
▁bisa	-293
udah	-294
ew	-295
api	-296
egara	-297
ita	-298
▁ket	-299
▁dil	-300
▁Pol	-301
onal	-302
▁ata	-303
▁kem	-304
ran	-305
00	-306
aru	-307
AR	-308
▁Y	-309
▁jpnn	-310
ingga	-311
▁kepada	-312
▁atau	-313
art	-314
ingg	-315
lah	-316
asil	-317
▁lebih	-318
ind	-319
▁an	-320
▁Pem	-321
akat	-322
▁3	-323
ow	-324
aku	-325
▁mereka	-326
▁pert	-327
▁menc	-328
ina	-329
ungk	-330
▁pemb	-331
res	-332
▁Jakarta	-333
gr	-334
▁orang	-335
urut	-336
elum	-337
esar	-338
▁satu	-339
eber	-340
den	-341
▁sem	-342
▁Men	-343
yarakat	-344
▁sudah	-345
aik	-346
osi	-347
▁bers	-348
awa	-349
od	-350
▁dis	-351
anyak	-352
▁pers	-353
empat	-354
▁karena	-355
▁Is	-356
▁Un	-357
imp	-358
op	-359
▁(2	-360
▁kel	-361
erint	-362
iri	-363
▁berk	-364
erja	-365
▁adalah	-366
erah	-367
▁dib	-368
▁Kota	-369
▁kami	-370
▁kes	-371
▁(1	-372
▁para	-373
TA	-374
iga	-375
og	-376
▁peny	-377
▁masyarakat	-378
▁Pen	-379
▁berb	-380
apan	-381
▁dit	-382
inya	-383
▁melakukan	-384
orm	-385
▁Sen	-386
ilik	-387
esiden	-388
ember	-389
abu	-390
▁hari	-391
▁pas	-392
asih	-393
▁Tim	-394
ban	-395
▁lain	-396
▁uj	-397
angs	-398
awan	-399
▁sej	-400
uat	-401
/1	-402
arang	-403
ist	-404
ac	-405
▁Kem	-406
oh	-407
ilih	-408
hadap	-409
atkan	-410
aks	-411
arus	-412
aikan	-413
umat	-414
arkan	-415
▁Ber	-416
▁negara	-417
est	-418
▁Kam	-419
apkan	-420
▁terhadap	-421
▁V	-422
AK	-423
▁at	-424
ima	-425
▁mengg	-426
ini	-427
▁bagi	-428
erikan	-429
▁pr	-430
▁dapat	-431
▁memper	-432
▁tet	-433
omp	-434
ej	-435
▁terb	-436
ikan	-437
jadi	-438
▁Kab	-439
ic	-440
asional	-441
▁kor	-442
▁dia	-443
▁ujar	-444
erintah	-445
▁dik	-446
arat	-447
ARTA	-448
AKARTA	-449
▁v	-450
▁as	-451
upat	-452
umlah	-453
ka	-454
▁Pro	-455
▁secara	-456
▁Ch	-457
uhan	-458
dang	-459
▁hingga	-460
gram	-461
upaten	-462
uran	-463
▁Selasa	-464
duk	-465
▁Rabu	-466
engah	-467
umah	-468
▁JAKARTA	-469
mas	-470
hir	-471
unj	-472
usah	-473
eberapa	-474
anjut	-475
upakan	-476
▁Al	-477
▁Senin	-478
perti	-479
ensi	-480
▁Sur	-481
▁Dia	-482
▁pol	-483
ihak	-484
ingan	-485
▁setelah	-486
jpnn	-487
askan	-488
▁Kamis	-489
▁2024.	-490
ov	-491
▁merupakan	-492
▁Sem	-493
angka	-494
angat	-495
▁AS	-496
▁dua	-497
usia	-498
▁Kep	-499
▁seperti	-500
antu	-501
ec	-502
▁baru	-503
enc	-504
uka	-505
ayah	-506
▁saya	-507
▁keb	-508
▁Ag	-509
▁ek	-510
▁4	-511
▁Kabupaten	-512
ulan	-513
▁Jumat	-514
▁pun	-515
▁ag	-516
▁warga	-517
▁masih	-518
tua	-519
▁Di	-520
alon	-521
▁Am	-522
▁harus	-523
ses	-524
▁dilakukan	-525
▁Ter	-526
▁beberapa	-527
PP	-528
▁serta	-529
aerah	-530
asus	-531
▁5	-532
▁memberikan	-533
▁ant	-534
iliki	-535
era	-536
tif	-537
ump	-538
▁Mar	-539
alui	-540
▁anak	-541
▁pend	-542
▁banyak	-543
angsung	-544
amun	-545
ilan	-546
uang	-547
anc	-548
▁Jawa	-549
ukum	-550
artai	-551
ekan	-552
▁Ar	-553
▁Presiden	-554
rael	-555
▁korban	-556
ayan	-557
ni	-558
itik	-559
▁lalu	-560
ilayah	-561
engg	-562
▁su	-563
olo	-564
▁atas	-565
▁hanya	-566
▁pihak	-567
ikasi	-568
▁Israel	-569
▁besar	-570
▁Kom	-571
AN	-572
tor	-573
20	-574
▁berh	-575
st	-576
uah	-577
▁Pil	-578
▁Bali	-579
tur	-580
▁memiliki	-581
unan	-582
▁rumah	-583
uar	-584
▁bersama	-585
inan	-586
apor	-587
ea	-588
ern	-589
▁dig	-590
inggu	-591
agian	-592
form	-593
▁tim	-594
▁Ketua	-595
owo	-596
tikan	-597
▁terjadi	-598
di	-599
▁dip	-600
uruh	-601
▁seh	-602
af	-603
▁selama	-604
erangan	-605
itar	-606
▁baik	-607
▁melalui	-608
ting	-609
▁Ap	-610
▁berl	-611
▁Sab	-612
▁Peng	-613
uc	-614
▁sangat	-615
▁ker	-616
ev	-617
aksi	-618
imb	-619
unia	-620
embali	-621
ulai	-622
▁si	-623
▁salah	-624
▁Seb	-625
ug	-626
ani	-627
▁Des	-628
▁Menurut	-629
▁kasus	-630
▁ked	-631
▁DP	-632
ei	-633
entara	-634
inta	-635
▁wak	-636
wan	-637
ilai	-638
▁sen	-639
▁wilayah	-640
ons	-641
kait	-642
▁Pas	-643
▁Band	-644
▁)	-645
elar	-646
▁al	-647
ikut	-648
▁pemerintah	-649
▁bert	-650
▁Rp	-651
man	-652
ampaikan	-653
angkan	-654
edia	-655
aja	-656
au	-657
▁Sabtu	-658
▁kita	-659
▁Pel	-660
▁mengh	-661
unakan	-662
▁mil	-663
gaw	-664
▁sama	-665
ahu	-666
▁terl	-667
▁ap	-668
unc	-669
▁tetapi	-670
▁Barat	-671
iv	-672
▁o	-673
umb	-674
▁PT	-675
lu	-676
▁Namun	-677
▁kom	-678
abowo	-679
▁angg	-680
▁Minggu	-681
▁Prabowo	-682
▁terus	-683
oto	-684
▁sebelum	-685
▁19	-686
202	-687
isasi	-688
▁terkait	-689
▁kembali	-690
▁kek	-691
uda	-692
utus	-693
▁hal	-694
▁persen	-695
▁sekitar	-696
tri	-697
ihat	-698
ny	-699
utan	-700
han	-701
adan	-702
▁hukum	-703
▁kec	-704
tern	-705
▁meningk	-706
enter	-707
udi	-708
kr	-709
pa	-710
entang	-711
▁seluruh	-712
▁St	-713
▁mendapat	-714
▁agar	-715
onom	-716
ungg	-717
udian	-718
▁dir	-719
▁Ser	-720
az	-721
▁tak	-722
▁berbagai	-723
▁7	-724
kada	-725
▁pes	-726
▁sep	-727
▁Ment	-728
arah	-729
▁Ad	-730
▁Dir	-731
▁tiga	-732
ij	-733
idikan	-734
ark	-735
anto	-736
▁a	-737
▁Kor	-738
▁tan	-739
mi	-740
▁10	-741
atang	-742
atih	-743
▁6	-744
inggal	-745
▁daerah	-746
▁Pert	-747
▁terd	-748
omor	-749
lik	-750
amatan	-751
▁hasil	-752
abat	-753
uru	-754
▁kan	-755
ju	-756
uli	-757
upaya	-758
▁program	-759
epan	-760
▁sebuah	-761
▁menjel	-762
sp	-763
entu	-764
▁Selatan	-765
▁KP	-766
ambah	-767
▁lainnya	-768
egeri	-769
▁samp	-770
.00	-771
masuk	-772
unya	-773
▁did	-774
ukung	-775
ehatan	-776
apai	-777
▁RI	-778
iz	-779
ubern	-780
▁Menteri	-781
▁calon	-782
ubernur	-783
▁dunia	-784
usahaan	-785
▁produk	-786
▁menyebut	-787
▁Dalam	-788
formasi	-789
uta	-790
uari	-791
▁belum	-792
sa	-793
air	-794
emen	-795
▁Ut	-796
ologi	-797
▁Z	-798
▁antara	-799
etu	-800
if	-801
osial	-802
▁pertama	-803
▁tentang	-804
und	-805
▁Tr	-806
▁diper	-807
▁Kepala	-808
tas	-809
abaya	-810
ilu	-811
anti	-812
▁Agus	-813
▁sedang	-814
▁ses	-815
▁Surabaya	-816
aris	-817
ersi	-818
inggi	-819
li	-820
▁res	-821
▁kerja	-822
▁dem	-823
▁st	-824
▁kh	-825
utama	-826
▁penting	-827
▁menghad	-828
ampak	-829
men	-830
ingin	-831
▁Hal	-832
▁Bandung	-833
▁membuat	-834
okasi	-835
ayanan	-836
abar	-837
olah	-838
idang	-839
mad	-840
▁termasuk	-841
▁Mas	-842
▁man	-843
▁semua	-844
elas	-845
ef	-846
ilihan	-847
iter	-848
▁Ket	-849
ekerja	-850
MK	-851
▁pelaku	-852
▁sejumlah	-853
nas	-854
▁Partai	-855
amanan	-856
▁bi	-857
▁memas	-858
▁Timur	-859
alami	-860
▁Th	-861
▁Sep	-862
▁langsung	-863
2024	-864
▁China	-865
▁berj	-866
▁Sek	-867
▁depan	-868
insi	-869
▁Ini	-870
▁Mer	-871
▁Set	-872
araan	-873
▁berd	-874
ril	-875
akin	-876
▁Kec	-877
umum	-878
impin	-879
▁ya	-880
ibat	-881
atanya	-882
atif	-883
▁2023	-884
uas	-885
ungkap	-886
▁Pilkada	-887
akit	-888
▁sejak	-889
ank	-890
▁penc	-891
ual	-892
re	-893
▁Tengah	-894
usus	-895
sia	-896
▁As	-897
▁anggota	-898
▁8	-899
▁DPR	-900
akhir	-901
▁Ak	-902
antan	-903
▁15	-904
▁kedua	-905
▁kali	-906
anda	-907
unjuk	-908
esk	-909
▁katanya	-910
▁bagian	-911
▁suara	-912
▁waktu	-913
▁Um	-914
iap	-915
▁terp	-916
gas	-917
▁mener	-918
▁berp	-919
aka	-920
▁Persi	-921
ibu	-922
▁Jok	-923
tiv	-924
awat	-925
angunan	-926
▁bulan	-927
▁seorang	-928
epat	-929
antor	-930
▁mendukung	-931
asis	-932
▁Pal	-933
empuan	-934
▁12	-935
enterian	-936
▁politik	-937
encana	-938
ont	-939
▁Ok	-940
▁sehingga	-941
▁pengg	-942
istr	-943
/2024	-944
▁kota	-945
▁tempat	-946
ustr	-947
▁Ang	-948
ono	-949
aian	-950
uni	-951
erika	-952
▁mengaku	-953
▁serangan	-954
usat	-955
▁akhir	-956
asar	-957
▁menyampaikan	-958
akil	-959
▁Amerika	-960
utusan	-961
▁mulai	-962
▁ind	-963
▁Kap	-964
nyata	-965
▁dim	-966
atim	-967
ekn	-968
▁Selain	-969
arg	-970
awasan	-971
▁meningkatkan	-972
▁proses	-973
▁14	-974
▁Mal	-975
▁kons	-976
▁bel	-977
aksan	-978
ch	-979
▁saja	-980
onomi	-981
▁aw	-982
▁Polres	-983
▁perusahaan	-984
▁'	-985
eo	-986
lin	-987
oba	-988
▁lagi	-989
ompok	-990
▁[	-991
▁Kar	-992
▁16	-993
▁Nov	-994
ingkat	-995
▁Direk	-996
emukan	-997
ig	-998
ober	-999
ikat	-1000
▁ketika	-1001
▁sur	-1002
▁kamp	-1003
▁sosial	-1004
din	-1005
▁Pada	-1006
alau	-1007
ublik	-1008
▁menggunakan	-1009
▁201	-1010
▁seg	-1011
engk	-1012
PN	-1013
eksi	-1014
SI	-1015
▁malam	-1016
▁juta	-1017
akni	-1018
▁Rusia	-1019
DI	-1020
▁2024,	-1021
usaha	-1022
gaj	-1023
▁kesehatan	-1024
▁min	-1025
ca	-1026
▁9	-1027
uarga	-1028
▁media	-1029
ukungan	-1030
ard	-1031
▁ma	-1032
otor	-1033
vinsi	-1034
egi	-1035
▁menjelaskan	-1036
idup	-1037
▁tinggi	-1038
ort	-1039
▁bukan	-1040
▁13	-1041
▁yakni	-1042
NI	-1043
eral	-1044
▁Sh	-1045
oal	-1046
▁Umum	-1047
▁Mah	-1048
▁Okt	-1049
obil	-1050
adir	-1051
▁pemain	-1052
perasi	-1053
antuan	-1054
▁11	-1055
▁tetap	-1056
▁".	-1057
una	-1058
▁ben	-1059
▁Man	-1060
▁Oktober	-1061
▁kegi	-1062
▁mengen	-1063
▁ingin	-1064
▁kegiatan	-1065
▁keterangan	-1066
▁diri	-1067
▁air	-1068
▁Gubernur	-1069
upun	-1070
abil	-1071
arap	-1072
▁Kecamatan	-1073
▁PPP	-1074
▁masa	-1075
▁lanjut	-1076
▁17	-1077
▁Put	-1078
alkan	-1079
tus	-1080
▁en	-1081
▁tersangka	-1082
anjang	-1083
ukul	-1084
▁Kementerian	-1085
KP	-1086
▁upaya	-1087
angkah	-1088
▁Kami	-1089
ko	-1090
aza	-1091
usan	-1092
aling	-1093
▁berada	-1094
▁luar	-1095
▁apa	-1096
rat	-1097
▁put	-1098
▁Unit	-1099
inal	-1100
angkap	-1101
▁mendapatkan	-1102
▁Se	-1103
▁kemudian	-1104
tar	-1105
ukti	-1106
▁sampai	-1107
ers	-1108
owi	-1109
▁masuk	-1110
▁18	-1111
▁sekali	-1112
▁November	-1113
na	-1114
:3	-1115
ola	-1116
▁Jan	-1117
▁sesu	-1118
ahanan	-1119
▁makan	-1120
ula	-1121
aporan	-1122
▁mencapai	-1123
▁kur	-1124
▁Juli	-1125
-1	-1126
▁presiden	-1127
▁Wakil	-1128
▁(3	-1129
▁Tahun	-1130
▁tran	-1131
upsi	-1132
angi	-1133
AS	-1134
▁:	-1135
▁khusus	-1136
▁sebelumnya	-1137
▁posi	-1138
gab	-1139
ingkungan	-1140
▁kond	-1141
iran	-1142
▁Semarang	-1143
nah	-1144
ambil	-1145
▁menunjuk	-1146
▁uc	-1147
▁komp	-1148
▁/	-1149
ibran	-1150
▁acara	-1151
▁jelas	-1152
▁Gaza	-1153
le	-1154
▁Kel	-1155
▁dih	-1156
▁dukungan	-1157
▁perempuan	-1158
itmen	-1159
oy	-1160
yat	-1161
akal	-1162
▁21	-1163
▁Bog	-1164
ungkin	-1165
tim	-1166
▁i	-1167
▁musi	-1168
▁jalan	-1169
jata	-1170
▁kawasan	-1171
eda	-1172
adilan	-1173
▁kend	-1174
uhi	-1175
▁Bogor	-1176
ator	-1177
aki	-1178
▁Direktur	-1179
▁jadi	-1180
urkan	-1181
▁Polda	-1182
▁Sementara	-1183
ustri	-1184
enangan	-1185
▁Foto	-1186
▁pasangan	-1187
▁hak	-1188
▁Jalan	-1189
ilm	-1190
▁pukul	-1191
▁penyel	-1192
▁membantu	-1193
orong	-1194
▁Peny	-1195
anye	-1196
▁Utara	-1197
▁nomor	-1198
▁Agustus	-1199
),	-1200
yah	-1201
▁menyatakan	-1202
▁mengalami	-1203
:0	-1204
▁Nasional	-1205
▁Badan	-1206
▁?	-1207
▁Juni	-1208
utur	-1209
▁pengh	-1210
ital	-1211
.000	-1212
▁perk	-1213
▁terakhir	-1214
▁intern	-1215
endiri	-1216
▁Jadi	-1217
▁Har	-1218
▁Hari	-1219
▁Dep	-1220
iversi	-1221
▁bantuan	-1222
▁menunjukkan	-1223
▁Ab	-1224
tember	-1225
▁Desa	-1226
▁memastikan	-1227
oc	-1228
▁kap	-1229
▁jika	-1230
▁September	-1231
▁ekonomi	-1232
itan	-1233
▁PPPK	-1234
uatan	-1235
ayaan	-1236
▁Mei	-1237
▁Desember	-1238
▁lokasi	-1239
ulang	-1240
to	-1241
iar	-1242
▁tr	-1243
▁keluarga	-1244
ode	-1245
▁ia	-1246
▁tengah	-1247
awah	-1248
ema	-1249
▁gamb	-1250
KB	-1251
resi	-1252
▁Saya	-1253
▁meminta	-1254
angun	-1255
awab	-1256
▁ucap	-1257
▁jumlah	-1258
Kami	-1259
▁Kh	-1260
▁str	-1261
▁berlangsung	-1262
ulu	-1263
▁Ir	-1264
▁April	-1265
omb	-1266
:1	-1267
aut	-1268
ukai	-1269
aju	-1270
ateng	-1271
▁Pemerintah	-1272
▁mana	-1273
jen	-1274
▁meninggal	-1275
ebr	-1276
/11	-1277
▁Ah	-1278
emuan	-1279
urun	-1280
▁din	-1281
▁Januari	-1282
▁berhasil	-1283
erik	-1284
ond	-1285
▁Negeri	-1286
▁PDI	-1287
ubungan	-1288
ahui	-1289
▁berm	-1290
▁setiap	-1291
faat	-1292
▁awal	-1293
umber	-1294
otensi	-1295
▁rek	-1296
▁Kal	-1297
aporkan	-1298
▁laga	-1299
erta	-1300
RI	-1301
oor	-1302
erang	-1303
▁ar	-1304
▁asal	-1305
angga	-1306
▁tind	-1307
▁United	-1308
▁Sub	-1309
▁maupun	-1310
▁Pemb	-1311
ey	-1312
▁kl	-1313
eman	-1314
▁memp	-1315
▁Jokowi	-1316
▁partai	-1317
ungkapkan	-1318
dul	-1319
▁empat	-1320
erj	-1321
▁ujarnya	-1322
isata	-1323
▁Timnas	-1324
▁polisi	-1325
▁tekn	-1326
▁mobil	-1327
ebab	-1328
/7	-1329
▁soal	-1330
▁melihat	-1331
aim	-1332
emu	-1333
edi	-1334
etahui	-1335
▁sesuai	-1336
ungi	-1337
isn	-1338
urn	-1339
▁pihaknya	-1340
ahkan	-1341
kar	-1342
▁berharap	-1343
▁sebesar	-1344
asarkan	-1345
▁pet	-1346
▁Sum	-1347
rasi	-1348
▁resmi	-1349
ujan	-1350
▁perb	-1351
▁Universi	-1352
▁kelompok	-1353
irkan	-1354
ugaan	-1355
aih	-1356
▁kr	-1357
sel	-1358
ewan	-1359
▁Sat	-1360
▁X	-1361
▁sk	-1362
▁menurut	-1363
▁memen	-1364
▁pernah	-1365
/8	-1366
▁Pi	-1367
▁tangg	-1368
embangan	-1369
▁militer	-1370
/5	-1371
▁sendiri	-1372
▁Liga	-1373
▁Komisi	-1374
▁gambar	-1375
upati	-1376
▁ungkap	-1377
KI	-1378
ura	-1379
▁kondisi	-1380
▁Ham	-1381
krain	-1382
▁Trump	-1383
:5	-1384
uangan	-1385
ijakan	-1386
kraina	-1387
▁Maret	-1388
▁bekerja	-1389
ulkan	-1390
▁terk	-1391
/10	-1392
akyat	-1393
▁Ked	-1394
▁informasi	-1395
anjar	-1396
andingan	-1397
▁Ukraina	-1398
▁menambah	-1399
:4	-1400
asiswa	-1401
▁utama	-1402
ikuti	-1403
▁hadir	-1404
nyataan	-1405
▁Muh	-1406
▁nasional	-1407
sek	-1408
▁Para	-1409
▁Asia	-1410
▁Mereka	-1411
▁22	-1412
▁perd	-1413
▁Pend	-1414
/12	-1415
istem	-1416
istrik	-1417
▁Daerah	-1418
▁lingkungan	-1419
▁laporan	-1420
▁barang	-1421
▁dek	-1422
ies	-1423
upa	-1424
▁kendaraan	-1425
etugas	-1426
▁tanpa	-1427
unt	-1428
gan	-1429
▁yaitu	-1430
▁adanya	-1431
iden	-1432
embaga	-1433
▁Dem	-1434
▁perlu	-1435
▁perj	-1436
ampung	-1437
imana	-1438
▁KPU	-1439
▁menjalan	-1440
/9	-1441
▁Suk	-1442
ewas	-1443
▁Provinsi	-1444
ukup	-1445
angkat	-1446
av	-1447
▁menerima	-1448
ade	-1449
egaw	-1450
/6	-1451
▁Iran	-1452
arget	-1453
▁&	-1454
ejabat	-1455
abor	-1456
▁uang	-1457
▁Kapol	-1458
▁bakal	-1459
▁Kr	-1460
▁kont	-1461
▁perm	-1462
anding	-1463
▁memperk	-1464
ergi	-1465
/3	-1466
▁par	-1467
▁Pemilu	-1468
ampu	-1469
▁penj	-1470
▁sebanyak	-1471
lim	-1472
▁konf	-1473
▁Korea	-1474
ateg	-1475
▁layanan	-1476
eta	-1477
agaimana	-1478
▁keber	-1479
onor	-1480
alaman	-1481
idana	-1482
▁Air	-1483
▁keamanan	-1484
ma	-1485
usai	-1486
anak	-1487
▁dugaan	-1488
▁23	-1489
impinan	-1490
▁mengungkapkan	-1491
iaya	-1492
▁dok	-1493
adion	-1494
elit	-1495
▁TNI	-1496
▁sp	-1497
▁Pak	-1498
▁tuj	-1499
▁Sul	-1500
▁paling	-1501
▁mengenai	-1502
vest	-1503
▁Kes	-1504
alia	-1505
▁30	-1506
▁industri	-1507
ez	-1508
erb	-1509
▁dirinya	-1510
▁melawan	-1511
▁Keb	-1512
/4	-1513
▁Den	-1514
▁membawa	-1515
▁Anda	-1516
▁masalah	-1517
▁pl	-1518
▁sat	-1519
▁Ada	-1520
▁Ek	-1521
irim	-1522
▁on	-1523
amat	-1524
udara	-1525
eter	-1526
embang	-1527
aksanakan	-1528
▁Ol	-1529
▁kepala	-1530
▁kini	-1531
▁menggelar	-1532
apun	-1533
ilang	-1534
▁25	-1535
▁pendidikan	-1536
▁umum	-1537
▁des	-1538
▁Br	-1539
ANG	-1540
▁menjaga	-1541
▁perang	-1542
▁II	-1543
▁muda	-1544
ungsi	-1545
ham	-1546
▁En	-1547
▁Piala	-1548
▁Serikat	-1549
▁bawah	-1550
erintahan	-1551
▁menghadapi	-1552
isti	-1553
atihan	-1554
umen	-1555
▁Saat	-1556
▁mengaj	-1557
▁PS	-1558
tik	-1559
▁lima	-1560
gag	-1561
ajar	-1562
▁Pers	-1563
enang	-1564
isnis	-1565
▁Sej	-1566
▁pertandingan	-1567
▁Din	-1568
▁nama	-1569
▁PB	-1570
▁cukup	-1571
▁Leb	-1572
utuhan	-1573
apres	-1574
idik	-1575
▁Pap	-1576
▁Ia	-1577
▁Res	-1578
oni	-1579
▁Anies	-1580
uaca	-1581
aranya	-1582
▁of	-1583
▁berg	-1584
▁Gol	-1585
▁langkah	-1586
▁or	-1587
▁pembangunan	-1588
oordin	-1589
▁So	-1590
▁mah	-1591
▁Pusat	-1592
▁segera	-1593
▁sementara	-1594
▁And	-1595
▁pelangg	-1596
▁Mel	-1597
fi	-1598
▁surat	-1599
tum	-1600
▁KPK	-1601
▁harga	-1602
▁Negara	-1603
▁kampanye	-1604
▁mungkin	-1605
antai	-1606
▁urut	-1607
PB	-1608
▁menyel	-1609
▁data	-1610
atian	-1611
estina	-1612
▁op	-1613
▁situ	-1614
hi	-1615
edung	-1616
KN	-1617
wal	-1618
▁bukti	-1619
▁senjata	-1620
uara	-1621
▁sed	-1622
ha	-1623
▁Papua	-1624
fr	-1625
▁akibat	-1626
intas	-1627
▁negeri	-1628
ira	-1629
▁keh	-1630
stitu	-1631
▁Kantor	-1632
ret	-1633
▁Ari	-1634
▁1.	-1635
▁24	-1636
angsa	-1637
erjaan	-1638
▁Kemen	-1639
▁Universitas	-1640
▁sekolah	-1641
iau	-1642
▁diter	-1643
▁Stadion	-1644
▁memang	-1645
▁jam	-1646
▁kal	-1647
▁Sp	-1648
egal	-1649
saan	-1650
▁Ger	-1651
▁pernyataan	-1652
▁kebijakan	-1653
ubahan	-1654
▁mampu	-1655
▁digelar	-1656
▁em	-1657
▁tutur	-1658
jadian	-1659
▁sistem	-1660
uku	-1661
▁el	-1662
untu	-1663
▁meneg	-1664
AM	-1665
ori	-1666
▁kol	-1667
utuh	-1668
▁berin	-1669
busi	-1670
▁bal	-1671
▁Bea	-1672
▁tingkat	-1673
▁ken	-1674
▁Gr	-1675
▁mantan	-1676
▁Ahmad	-1677
▁kebutuhan	-1678
gus	-1679
▁Setelah	-1680
▁Palestina	-1681
▁internasional	-1682
uju	-1683
agu	-1684
sip	-1685
▁terj	-1686
-2	-1687
▁Q	-1688
ualitas	-1689
anten	-1690
umi	-1691
▁lama	-1692
aksa	-1693
:2	-1694
PS	-1695
▁pejabat	-1696
okus	-1697
elak	-1698
icara	-1699
▁Solo	-1700
▁pekan	-1701
▁Keterangan	-1702
▁siap	-1703
▁lap	-1704
▁pemilu	-1705
▁Polisi	-1706
▁hidup	-1707
atur	-1708
▁Ac	-1709
▁miliar	-1710
eski	-1711
▁Meng	-1712
ideo	-1713
empatan	-1714
▁Ganjar	-1715
▁Jep	-1716
/2024)	-1717
line	-1718
etapkan	-1719
▁int	-1720
▁datang	-1721
eal	-1722
▁Polri	-1723
▁milik	-1724
ulit	-1725
▁mod	-1726
argaan	-1727
▁punya	-1728
eran	-1729
▁Febr	-1730
▁Cukai	-1731
▁Ing	-1732
▁bersi	-1733
▁mendorong	-1734
andang	-1735
juangan	-1736
war	-1737
▁war	-1738
erd	-1739
▁sekaligus	-1740
isian	-1741
▁08	-1742
AB	-1743
▁PP	-1744
enaga	-1745
▁aman	-1746
▁makanan	-1747
arkoba	-1748
yo	-1749
▁pan	-1750
me	-1751
alur	-1752
ohon	-1753
eriksaan	-1754
ebat	-1755
▁hujan	-1756
▁Wid	-1757
▁dij	-1758
▁wakil	-1759
edan	-1760
▁Bank	-1761
▁Il	-1762
ingkatan	-1763
▁bahkan	-1764
▁akhirnya	-1765
unga	-1766
▁diduga	-1767
▁Depok	-1768
enderal	-1769
▁sakit	-1770
pres	-1771
▁pemerintahan	-1772
▁tanah	-1773
▁Bupati	-1774
▁Or	-1775
▁publik	-1776
▁ny	-1777
enis	-1778
uanya	-1779
▁pemimpin	-1780
▁mendatang	-1781
ibatkan	-1782
▁Intern	-1783
lob	-1784
▁motor	-1785
▁Hamas	-1786
etak	-1787
ft	-1788
▁guru	-1789
dukung	-1790
▁Bas	-1791
min	-1792
▁kejadian	-1793
▁Februari	-1794
▁07	-1795
▁Bel	-1796
▁Untuk	-1797
amah	-1798
▁cara	-1799
▁listrik	-1800
▁menilai	-1801
oin	-1802
▁El	-1803
▁mew	-1804
UR	-1805
la	-1806
lobal	-1807
▁ribu	-1808
arik	-1809
engar	-1810
▁Angg	-1811
ambang	-1812
▁Kon	-1813
▁is	-1814
▁bern	-1815
▁ment	-1816
auh	-1817
▁digunakan	-1818
▁Biden	-1819
onorer	-1820
olusi	-1821
ongan	-1822
▁Persib	-1823
▁menegaskan	-1824
▁kalau	-1825
truk	-1826
atat	-1827
▁Nomor	-1828
ianto	-1829
▁pasar	-1830
▁ditemukan	-1831
▁kapal	-1832
baru	-1833
ammad	-1834
ampil	-1835
arin	-1836
▁menuju	-1837
uki	-1838
▁teknologi	-1839
▁menambahkan	-1840
no	-1841
▁perl	-1842
tivitas	-1843
▁Gun	-1844
▁berjalan	-1845
aborasi	-1846
EN	-1847
adaan	-1848
▁aksi	-1849
▁Jepang	-1850
amina	-1851
embak	-1852
▁ibu	-1853
anjir	-1854
▁beras	-1855
anggung	-1856
enal	-1857
▁Nus	-1858
▁tert	-1859
uti	-1860
unaan	-1861
isial	-1862
▁peserta	-1863
▁27	-1864
erasan	-1865
fikasi	-1866
▁Jatim	-1867
enggara	-1868
▁ku	-1869
ity	-1870
▁bat	-1871
enar	-1872
▁DKI	-1873
▁petugas	-1874
▁pil	-1875
▁bisnis	-1876
ujud	-1877
▁pri	-1878
▁tewas	-1879
egitu	-1880
▁Met	-1881
▁rasa	-1882
okrasi	-1883
▁z	-1884
otal	-1885
▁Tan	-1886
▁Baru	-1887
ebabkan	-1888
▁Ero	-1889
olisian	-1890
▁Dengan	-1891
▁Sebelum	-1892
aji	-1893
▁peri	-1894
▁Adapun	-1895
▁sempat	-1896
▁Salah	-1897
▁komitmen	-1898
inc	-1899
uri	-1900
▁Banten	-1901
▁Jaya	-1902
▁komun	-1903
▁Dit	-1904
jo	-1905
▁tahu	-1906
▁Wali	-1907
alis	-1908
▁terutama	-1909
▁sebagian	-1910
▁Eropa	-1911
ganisasi	-1912
▁pemeriksaan	-1913
▁Pertamina	-1914
▁kantor	-1915
por	-1916
▁Kej	-1917
▁sektor	-1918
▁meraih	-1919
tan	-1920
▁09	-1921
erahkan	-1922
▁semakin	-1923
iah	-1924
▁Ram	-1925
▁periode	-1926
▁terbaik	-1927
▁gol	-1928
alanan	-1929
ipun	-1930
sis	-1931
▁eks	-1932
eskipun	-1933
▁diberikan	-1934
▁hubungan	-1935
arian	-1936
▁Calon	-1937
▁Jenderal	-1938
UM	-1939
▁Kemudian	-1940
▁kab	-1941
erasi	-1942
▁Program	-1943
oro	-1944
ajaran	-1945
▁Rep	-1946
▁cepat	-1947
▁gr	-1948
adah	-1949
▁musim	-1950
▁Dinas	-1951
bu	-1952
▁korupsi	-1953
▁pak	-1954
▁potensi	-1955
▁perc	-1956
▁jatim	-1957
MKM	-1958
krim	-1959
▁berinisial	-1960
▁teg	-1961
▁Subianto	-1962
lam	-1963
▁Bal	-1964
▁mengikuti	-1965
ly	-1966
▁selalu	-1967
▁Sup	-1968
▁cuaca	-1969
▁membangun	-1970
umas	-1971
ation	-1972
▁Tak	-1973
abilitas	-1974
▁perubahan	-1975
lon	-1976
▁ef	-1977
▁ketiga	-1978
▁digital	-1979
▁Si	-1980
▁dic	-1981
▁har	-1982
▁pember	-1983
▁The	-1984
enda	-1985
ampir	-1986
anjutan	-1987
▁rakyat	-1988
▁tok	-1989
adang	-1990
▁BB	-1991
▁meningkat	-1992
isk	-1993
▁bentuk	-1994
ipil	-1995
▁mahasiswa	-1996
▁jabar	-1997
▁keputusan	-1998
ubah	-1999
resiasi	-2000
▁disampaikan	-2001
▁Mus	-2002
sama	-2003
NG	-2004
▁FC	-2005
▁trans	-2006
aftar	-2007
ulasi	-2008
oritas	-2009
▁200	-2010
▁berusia	-2011
antara	-2012
▁Jabar	-2013
olak	-2014
▁usaha	-2015
anjutkan	-2016
▁pemilihan	-2017
ambut	-2018
▁pertemuan	-2019
▁bertu	-2020
▁il	-2021
▁Jateng	-2022
vestasi	-2023
▁Mo	-2024
asilitas	-2025
▁memberi	-2026
▁film	-2027
▁tindakan	-2028
ore	-2029
gris	-2030
▁tinggal	-2031
yak	-2032
▁Su	-2033
▁pul	-2034
▁jauh	-2035
/8).	-2036
▁Ins	-2037
/11).	-2038
▁Gibran	-2039
▁kesempatan	-2040
▁nanti	-2041
akah	-2042
▁kemenangan	-2043
amin	-2044
arakan	-2045
umsi	-2046
▁jar	-2047
▁Agung	-2048
▁disebut	-2049
antas	-2050
ogy	-2051
▁desa	-2052
▁Has	-2053
yek	-2054
▁PBB	-2055
tribusi	-2056
▁ger	-2057
▁form	-2058
▁peningkatan	-2059
▁perjalanan	-2060
/7).	-2061
▁2022	-2062
▁Austr	-2063
▁Tidak	-2064
▁video	-2065
▁Pasal	-2066
▁jawab	-2067
▁06	-2068
▁ikut	-2069
▁Inggris	-2070
ky	-2071
ugas	-2072
▁Mad	-2073
▁jenis	-2074
utup	-2075
ach	-2076
▁daya	-2077
▁mengel	-2078
atasan	-2079
likasi	-2080
▁posisi	-2081
▁Ma	-2082
anggap	-2083
idat	-2084
▁dekat	-2085
ajang	-2086
▁membuka	-2087
▁Dewan	-2088
elakaan	-2089
▁terpilih	-2090
ovasi	-2091
okal	-2092
▁enam	-2093
▁terbaru	-2094
▁kuat	-2095
▁kurang	-2096
▁Gar	-2097
▁bahan	-2098
▁mengambil	-2099
pasar	-2100
vei	-2101
▁memilih	-2102
▁terc	-2103
atangan	-2104
▁(5	-2105
▁Im	-2106
umumkan	-2107
eli	-2108
/10).	-2109
▁UMKM	-2110
▁seusai	-2111
▁kand	-2112
▁maka	-2113
▁udara	-2114
alahan	-2115
utuhkan	-2116
ulis	-2117
▁gen	-2118
Gibran	-2119
▁tenaga	-2120
▁Pl	-2121
takan	-2122
▁Perd	-2123
▁Golkar	-2124
Saya	-2125
▁kecil	-2126
ate	-2127
anta	-2128
onel	-2129
▁Rumah	-2130
▁begitu	-2131
itra	-2132
▁ut	-2133
okan	-2134
▁satunya	-2135
▁Denpasar	-2136
AT	-2137
▁menjalani	-2138
atar	-2139
▁26	-2140
▁New	-2141
▁saksi	-2142
/2024).	-2143
▁Hukum	-2144
▁Par	-2145
sipasi	-2146
▁tel	-2147
▁Pemilihan	-2148
▁pria	-2149
ajak	-2150
bes	-2151
▁kej	-2152
▁bidang	-2153
▁ungg	-2154
enti	-2155
▁Komp	-2156
rov	-2157
▁merasa	-2158
▁terlibat	-2159
awas	-2160
▁berkom	-2161
▁Sy	-2162
okok	-2163
▁menit	-2164
▁Rah	-2165
▁pusat	-2166
▁dr	-2167
▁Ant	-2168
▁ist	-2169
▁suk	-2170
ayakan	-2171
amankan	-2172
/2	-2173
abatan	-2174
▁nilai	-2175
▁online	-2176
▁memenuhi	-2177
▁menging	-2178
MI	-2179
ilis	-2180
▁melaporkan	-2181
▁Mil	-2182
erman	-2183
▁dampak	-2184
eks	-2185
atusan	-2186
▁Sumat	-2187
irakan	-2188
▁poin	-2189
/5).	-2190
▁biasa	-2191
▁penuh	-2192
abr	-2193
ayat	-2194
▁2025	-2195
undang	-2196
▁operasi	-2197
▁28	-2198
▁Warga	-2199
▁berdasarkan	-2200
ansi	-2201
▁PDIP	-2202
/1).	-2203
▁and	-2204
▁Menurutnya	-2205
ce	-2206
▁Nur	-2207
▁pener	-2208
▁ditangkap	-2209
grasi	-2210
▁mau	-2211
▁khususnya	-2212
ewat	-2213
▁imb	-2214
ex	-2215
wak	-2216
▁sumber	-2217
▁(4	-2218
▁Dari	-2219
entasi	-2220
▁SE	-2221
▁ASN	-2222
▁keluar	-2223
▁mempert	-2224
▁Em	-2225
ayar	-2226
aturan	-2227
stitusi	-2228
uncurkan	-2229
ubuh	-2230
▁29	-2231
▁Dan	-2232
▁global	-2233
▁Kan	-2234
gabung	-2235
▁sekarang	-2236
istik	-2237
▁maju	-2238
▁Dr	-2239
inasi	-2240
▁bagaimana	-2241
arapkan	-2242
▁turun	-2243
unuhan	-2244
▁dibanding	-2245
omo	-2246
atuh	-2247
▁Dunia	-2248
▁1,	-2249
▁Gedung	-2250
▁positif	-2251
▁banjir	-2252
▁tah	-2253
ratis	-2254
▁menang	-2255
one	-2256
/6).	-2257
tumb	-2258
uman	-2259
udaya	-2260
▁Riau	-2261
▁honorer	-2262
▁Yo	-2263
▁total	-2264
ry	-2265
▁Sal	-2266
▁pekerja	-2267
ikit	-2268
▁tambah	-2269
▁eksp	-2270
▁Australia	-2271
ewa	-2272
▁Budi	-2273
▁Mak	-2274
▁fasilitas	-2275
▁menemukan	-2276
▁Perjuangan	-2277
▁kekerasan	-2278
fud	-2279
iptakan	-2280
▁lembaga	-2281
▁Pes	-2282
iba	-2283
▁keras	-2284
▁id	-2285
▁dana	-2286
▁pidana	-2287
aksanaan	-2288
▁unit	-2289
ho	-2290
atus	-2291
kot	-2292
▁peran	-2293
anian	-2294
▁pagi	-2295
▁Ker	-2296
uduk	-2297
▁imp	-2298
▁wisata	-2299
▁gubernur	-2300
▁Utama	-2301
▁kompet	-2302
unggu	-2303
masing	-2304
▁penghargaan	-2305
/9).	-2306
unjungan	-2307
▁hampir	-2308
▁bermain	-2309
▁ditu	-2310
▁antaranya	-2311
▁Sa	-2312
adwal	-2313
ahter	-2314
ikian	-2315
elawan	-2316
erensi	-2317
indungan	-2318
▁laut	-2319
unjung	-2320
▁For	-2321
negara	-2322
▁pasukan	-2323
iti	-2324
▁Us	-2325
uf	-2326
AY	-2327
erl	-2328
ogyakarta	-2329
▁Besar	-2330
▁ik	-2331
▁tepat	-2332
▁setempat	-2333
▁Raya	-2334
▁engg	-2335
urah	-2336
/12).	-2337
▁seri	-2338
awaslu	-2339
tasi	-2340
▁ev	-2341
▁bali	-2342
▁02	-2343
wi	-2344
▁tegas	-2345
ungkinan	-2346
▁lapangan	-2347
MKG	-2348
▁UU	-2349
▁naik	-2350
▁perh	-2351
izin	-2352
▁masing	-2353
▁Pelatih	-2354
KS	-2355
otel	-2356
▁Republik	-2357
ahas	-2358
▁lah	-2359
▁Yogyakarta	-2360
▁05	-2361
▁Ed	-2362
atasi	-2363
tumbuhan	-2364
▁berita	-2365
odo	-2366
▁),	-2367
ris	-2368
▁beb	-2369
uncul	-2370
/3).	-2371
▁Dua	-2372
amping	-2373
▁menyebabkan	-2374
ona	-2375
pol	-2376
▁mom	-2377
ARA	-2378
▁Bek	-2379
elang	-2380
pons	-2381
akaran	-2382
▁kil	-2383
te	-2384
▁pelanggaran	-2385
istiwa	-2386
▁namun	-2387
▁Muhammad	-2388
▁angka	-2389
▁bur	-2390
▁energi	-2391
▁pemilih	-2392
▁Sekret	-2393
▁menjelang	-2394
co	-2395
iman	-2396
usung	-2397
ass	-2398
▁Ku	-2399
▁Le	-2400
▁mat	-2401
▁karya	-2402
akatan	-2403
▁sepanjang	-2404
indak	-2405
▁DPRD	-2406
▁lintas	-2407
▁turut	-2408
▁manusia	-2409
mal	-2410
of	-2411
▁04	-2412
▁sipil	-2413
ekerjaan	-2414
▁Pul	-2415
▁prak	-2416
▁memperkuat	-2417
▁BRI	-2418
▁del	-2419
endah	-2420
ki	-2421
amu	-2422
antikan	-2423
antangan	-2424
▁menyebutkan	-2425
AYA	-2426
orn	-2427
▁Pa	-2428
amai	-2429
▁Joko	-2430
PR	-2431
ajib	-2432
▁tangan	-2433
▁menarik	-2434
uarkan	-2435
▁lokal	-2436
▁narkoba	-2437
▁sisi	-2438
egawai	-2439
ine	-2440
Un	-2441
let	-2442
▁jalur	-2443
umpang	-2444
jid	-2445
▁Nat	-2446
▁fokus	-2447
▁50	-2448
amar	-2449
▁tubuh	-2450
▁benar	-2451
▁SM	-2452
▁persi	-2453
▁mengur	-2454
uji	-2455
▁01	-2456
▁Gus	-2457
▁tapi	-2458
▁mudah	-2459
NT	-2460
juan	-2461
▁mencari	-2462
oli	-2463
▁berbeda	-2464
▁Re	-2465
/4).	-2466
▁belak	-2467
▁sedikit	-2468
▁kemungkinan	-2469
ela	-2470
▁100	-2471
▁kualitas	-2472
ash	-2473
▁disel	-2474
▁bertemu	-2475
▁Bar	-2476
▁Seorang	-2477
▁menghadirkan	-2478
▁target	-2479
▁Bo	-2480
ategis	-2481
▁).	-2482
▁Kesehatan	-2483
▁PSI	-2484
iun	-2485
egah	-2486
▁menciptakan	-2487
agangan	-2488
▁demi	-2489
entukan	-2490
▁ob	-2491
▁demikian	-2492
erita	-2493
okrat	-2494
▁menekan	-2495
▁perkara	-2496
erak	-2497
▁kemarin	-2498
lemen	-2499
▁gag	-2500
▁Tang	-2501
ambahan	-2502
▁Anak	-2503
▁tertu	-2504
▁tugas	-2505
▁tujuan	-2506
▁dihad	-2507
▁fak	-2508
he	-2509
mar	-2510
unuh	-2511
▁(6	-2512
utip	-2513
▁akses	-2514
▁pengalaman	-2515
ral	-2516
▁Prof	-2517
▁Sebelumnya	-2518
▁keterangannya	-2519
▁seni	-2520
▁31	-2521
▁ajang	-2522
▁manfaat	-2523
▁organisasi	-2524
istan	-2525
▁jabatan	-2526
▁menteri	-2527
▁sis	-2528
▁Mul	-2529
▁berat	-2530
▁terdapat	-2531
▁diketahui	-2532
▁Abdul	-2533
▁keuangan	-2534
▁asing	-2535
ans	-2536
▁RS	-2537
▁muncul	-2538
▁Anggota	-2539
usak	-2540
▁elek	-2541
▁mengak	-2542
▁03	-2543
▁isu	-2544
▁Penj	-2545
▁Widodo	-2546
▁pelaksanaan	-2547
▁dini	-2548
▁guna	-2549
▁bicara	-2550
ck	-2551
▁kecelakaan	-2552
AL	-2553
anan	-2554
▁Luar	-2555
▁pembunuhan	-2556
ingatan	-2557
▁tuturnya	-2558
ibuan	-2559
▁Kerja	-2560
▁kad	-2561
ust	-2562
▁DPP	-2563
inerja	-2564
▁Rak	-2565
▁med	-2566
ert	-2567
▁api	-2568
▁ruang	-2569
▁pengembangan	-2570
▁Raf	-2571
▁rencana	-2572
▁Sumatera	-2573
SD	-2574
▁luas	-2575
▁Lebih	-2576
▁Pilpres	-2577
lis	-2578
ens	-2579
udik	-2580
▁Karena	-2581
▁Kombes	-2582
▁Malang	-2583
▁Itu	-2584
▁Bidang	-2585
UNG	-2586
operasi	-2587
▁Masyarakat	-2588
▁panjang	-2589
▁putusan	-2590
epas	-2591
tawan	-2592
▁pertumbuhan	-2593
▁dar	-2594
▁ilegal	-2595
▁BAN	-2596
▁Aceh	-2597
▁Humas	-2598
ibur	-2599
isme	-2600
▁emas	-2601
ediakan	-2602
▁ucapnya	-2603
ebar	-2604
▁pesawat	-2605
▁BP	-2606
kl	-2607
▁At	-2608
▁Bah	-2609
ero	-2610
arti	-2611
▁Tel	-2612
egini	-2613
uhnya	-2614
▁melaksanakan	-2615
▁tiba	-2616
▁Jo	-2617
ilip	-2618
▁bernama	-2619
embangkan	-2620
▁Ben	-2621
▁Demokrat	-2622
▁mengumumkan	-2623
osok	-2624
▁BUM	-2625
ustrasi	-2626
entingan	-2627
▁Bawaslu	-2628
oordinasi	-2629
30	-2630
ase	-2631
ila	-2632
isiko	-2633
▁diharapkan	-2634
▁ali	-2635
▁Berd	-2636
▁Rid	-2637
▁produksi	-2638
▁Sl	-2639
AI	-2640
▁Eri	-2641
▁Tangerang	-2642
ess	-2643
▁tanggal	-2644
▁Hasil	-2645
▁kasih	-2646
▁pengaw	-2647
ortasi	-2648
▁alasan	-2649
KBP	-2650
▁apakah	-2651
▁SUR	-2652
▁for	-2653
▁aturan	-2654
▁e	-2655
▁pangan	-2656
▁diperk	-2657
▁situasi	-2658
▁Arab	-2659
▁Tran	-2660
▁titik	-2661
enggarakan	-2662
ward	-2663
ational	-2664
▁melibatkan	-2665
erat	-2666
bar	-2667
▁Gro	-2668
▁penyakit	-2669
ial	-2670
▁Pengadilan	-2671
jau	-2672
▁alat	-2673
▁Islam	-2674
PNN	-2675
abak	-2676
ayu	-2677
▁AKBP	-2678
▁makin	-2679
agus	-2680
▁samb	-2681
▁bangsa	-2682
▁budaya	-2683
▁sering	-2684
yan	-2685
ungai	-2686
▁alias	-2687
▁memimpin	-2688
yu	-2689
▁Min	-2690
ABAYA	-2691
▁SURABAYA	-2692
▁kepolisian	-2693
▁gel	-2694
untut	-2695
adakan	-2696
▁sidang	-2697
▁Pendidikan	-2698
was	-2699
anja	-2700
▁sana	-2701
".	-2702
▁SD	-2703
▁Mem	-2704
▁(18	-2705
erti	-2706
▁Sekretaris	-2707
urat	-2708
▁(23	-2709
encan	-2710
▁tantangan	-2711
ungutan	-2712
▁2,	-2713
▁pengel	-2714
▁survei	-2715
▁(20	-2716
ment	-2717
▁terlihat	-2718
▁Nas	-2719
▁proyek	-2720
▁prof	-2721
▁peluang	-2722
▁ped	-2723
▁Laut	-2724
lasi	-2725
▁Kapolres	-2726
etik	-2727
▁diterima	-2728
▁pengguna	-2729
andar	-2730
▁Meski	-2731
▁pilihan	-2732
▁(22	-2733
caman	-2734
▁tril	-2735
▁lewat	-2736
ail	-2737
arasi	-2738
ayang	-2739
▁personel	-2740
▁ot	-2741
isal	-2742
▁kunjungan	-2743
zi	-2744
▁rut	-2745
▁Pember	-2746
▁kepentingan	-2747
▁dikenal	-2748
▁terbesar	-2749
sist	-2750
anjian	-2751
▁bencana	-2752
eor	-2753
▁Ng	-2754
▁penda	-2755
▁pendukung	-2756
▁bes	-2757
icu	-2758
akwa	-2759
itasi	-2760
▁dimulai	-2761
▁anggaran	-2762
▁melanjutkan	-2763
ton	-2764
▁dibandingkan	-2765
bul	-2766
truktur	-2767
raga	-2768
▁seleksi	-2769
kum	-2770
▁PN	-2771
▁usia	-2772
45	-2773
▁Pat	-2774
▁Kalau	-2775
▁Kasus	-2776
▁akun	-2777
esaikan	-2778
▁transp	-2779
▁aktif	-2780
▁(19	-2781
▁arah	-2782
▁konflik	-2783
▁(21	-2784
utuskan	-2785
▁bola	-2786
emi	-2787
▁Mand	-2788
▁enggak	-2789
▁berkomitmen	-2790
▁berupa	-2791
▁semb	-2792
▁badan	-2793
▁tokoh	-2794
▁berasal	-2795
angkaian	-2796
▁tujuh	-2797
▁Op	-2798
▁Bat	-2799
▁penelit	-2800
▁(24	-2801
abuhan	-2802
▁musik	-2803
▁mengajak	-2804
all	-2805
▁sah	-2806
akuasi	-2807
ujudkan	-2808
qu	-2809
impi	-2810
▁triliun	-2811
▁strategis	-2812
GP	-2813
▁(17	-2814
▁Kas	-2815
▁Sud	-2816
▁investasi	-2817
▁area	-2818
:00	-2819
ancis	-2820
▁berkel	-2821
▁lahan	-2822
▁sehat	-2823
▁pelayanan	-2824
▁Lap	-2825
II	-2826
etn	-2827
▁terbuka	-2828
▁konferensi	-2829
▁AF	-2830
▁(30	-2831
antaran	-2832
anji	-2833
▁Dis	-2834
▁sang	-2835
▁Kalim	-2836
onsumsi	-2837
▁Lampung	-2838
OG	-2839
▁penjara	-2840
▁Sam	-2841
▁art	-2842
egiatan	-2843
▁ed	-2844
▁Dok	-2845
▁efek	-2846
wakilan	-2847
▁Sejumlah	-2848
amanya	-2849
▁Jerman	-2850
▁provinsi	-2851
▁Palembang	-2852
ejahter	-2853
entikan	-2854
ork	-2855
▁DPD	-2856
▁sig	-2857
kamah	-2858
urahan	-2859
atform	-2860
▁Sebagai	-2861
▁Ka	-2862
▁(27	-2863
urangan	-2864
▁tindak	-2865
▁jelasnya	-2866
▁2.	-2867
masi	-2868
▁luka	-2869
anjutnya	-2870
▁BUMN	-2871
▁final	-2872
entuk	-2873
▁optim	-2874
su	-2875
▁dilaksanakan	-2876
▁40	-2877
▁(25	-2878
▁(7	-2879
▁Oleh	-2880
▁(15	-2881
▁formasi	-2882
▁dilaporkan	-2883
▁Dip	-2884
indra	-2885
▁babak	-2886
alahkan	-2887
▁penumpang	-2888
sor	-2889
▁Co	-2890
badi	-2891
▁pop	-2892
anusi	-2893
▁BMKG	-2894
▁teman	-2895
▁pekerjaan	-2896
nif	-2897
elis	-2898
tagram	-2899
gub	-2900
▁Bl	-2901
irasi	-2902
▁Er	-2903
▁Her	-2904
▁Riz	-2905
▁Korupsi	-2906
▁solusi	-2907
▁Metro	-2908
▁Bekasi	-2909
▁gratis	-2910
angkapan	-2911
▁berusaha	-2912
▁Nusantara	-2913
▁Hak	-2914
onald	-2915
faatkan	-2916
agam	-2917
▁penggunaan	-2918
rah	-2919
▁mata	-2920
▁latihan	-2921
▁pentingnya	-2922
▁Sing	-2923
antung	-2924
▁dianggap	-2925
▁aktivitas	-2926
kab	-2927
erai	-2928
uasa	-2929
▁tua	-2930
olaan	-2931
emui	-2932
asanya	-2933
indungi	-2934
▁Mahkamah	-2935
▁kinerja	-2936
▁Bi	-2937
▁Dig	-2938
▁hukuman	-2939
▁menurun	-2940
aca	-2941
▁(29	-2942
▁JPNN	-2943
▁sini	-2944
▁(10	-2945
yanto	-2946
▁bus	-2947
▁Prancis	-2948
antik	-2949
olid	-2950
urus	-2951
▁generasi	-2952
▁(11	-2953
▁sup	-2954
▁sampah	-2955
PK	-2956
isah	-2957
ategi	-2958
▁ternyata	-2959
uma	-2960
▁(8	-2961
▁Rek	-2962
▁BAND	-2963
asaran	-2964
▁terdiri	-2965
▁tampak	-2966
▁Pur	-2967
epatan	-2968
▁2023.	-2969
▁Ibu	-2970
ftaran	-2971
▁berupaya	-2972
▁pendaftaran	-2973
▁Net	-2974
▁menolak	-2975
▁peristiwa	-2976
tinggi	-2977
▁perdana	-2978
ampingi	-2979
th	-2980
onton	-2981
▁Filip	-2982
ewaskan	-2983
▁mengungkap	-2984
▁Ex	-2985
aysia	-2986
ekonom	-2987
▁biaya	-2988
▁Sumber	-2989
ekonomian	-2990
▁inf	-2991
▁Tekn	-2992
onf	-2993
▁sulit	-2994
▁tampil	-2995
yarat	-2996
▁semangat	-2997
▁Af	-2998
siden	-2999
▁Pram	-3000
▁Gerindra	-3001
▁aplikasi	-3002
▁bertujuan	-3003
▁demokrasi	-3004
ty	-3005
anon	-3006
▁Filipina	-3007
▁belakang	-3008
▁menangkap	-3009
▁Kalimantan	-3010
▁jaringan	-3011
sen	-3012
▁Maj	-3013
▁Str	-3014
▁ialah	-3015
▁wartawan	-3016
lo	-3017
▁pesan	-3018
▁penyelidikan	-3019
iaga	-3020
▁(28	-3021
▁anti	-3022
anggar	-3023
▁kontr	-3024
▁siswa	-3025
▁ditetapkan	-3026
inj	-3027
▁MK	-3028
ajemen	-3029
▁Instagram	-3030
ayak	-3031
▁oper	-3032
▁India	-3033
▁hakim	-3034
awarkan	-3035
▁kematian	-3036
▁lantaran	-3037
▁ib	-3038
▁Tri	-3039
uad	-3040
abes	-3041
ampuan	-3042
▁kesel	-3043
uth	-3044
ilah	-3045
awatan	-3046
▁(9	-3047
iket	-3048
▁leg	-3049
▁pimpinan	-3050
andatangan	-3051
▁ulang	-3052
wil	-3053
amen	-3054
oran	-3055
▁asp	-3056
roduk	-3057
▁paslon	-3058
itur	-3059
▁Kamp	-3060
▁pertahanan	-3061
▁(26	-3062
▁petani	-3063
▁perg	-3064
fras	-3065
▁(13	-3066
▁PKB	-3067
nifikan	-3068
▁pelatih	-3069
▁Ramadan	-3070
▁Sebanyak	-3071
▁Ali	-3072
▁ringan	-3073
▁ancaman	-3074
▁kelas	-3075
▁Lebanon	-3076
▁Ilustrasi	-3077
▁memenangkan	-3078
▁ANT	-3079
▁HAM	-3080
▁siapa	-3081
▁mengetahui	-3082
OR	-3083
ast	-3084
andi	-3085
▁Sri	-3086
ebasan	-3087
mat	-3088
alisi	-3089
▁kepem	-3090
▁komunitas	-3091
PBD	-3092
iwa	-3093
▁ah	-3094
onis	-3095
▁selatan	-3096
▁meskipun	-3097
ejahteraan	-3098
▁Az	-3099
▁lagu	-3100
ender	-3101
▁Undang	-3102
▁ratusan	-3103
PNS	-3104
wedan	-3105
▁skor	-3106
irmasi	-3107
▁Malaysia	-3108
▁Sus	-3109
▁signifikan	-3110
▁menyediakan	-3111
arif	-3112
▁(16	-3113
▁Putih	-3114
▁keper	-3115
▁La	-3116
▁judi	-3117
jualan	-3118
baik	-3119
▁non	-3120
▁sik	-3121
▁dasar	-3122
▁tentu	-3123
▁Car	-3124
▁jateng	-3125
▁Baswedan	-3126
▁perhatian	-3127
▁kolaborasi	-3128
dy	-3129
▁Kl	-3130
▁sa	-3131
ategori	-3132
oordinator	-3133
juk	-3134
▁to	-3135
▁sin	-3136
anusiaan	-3137
▁mencegah	-3138
▁menghadiri	-3139
▁Pasar	-3140
▁kenaikan	-3141
ogja	-3142
ulus	-3143
▁Moto	-3144
▁disi	-3145
▁jajaran	-3146
▁menjabat	-3147
▁peringatan	-3148
▁Tai	-3149
▁Tur	-3150
antasan	-3151
frastruktur	-3152
uler	-3153
estiv	-3154
▁angk	-3155
▁menjalankan	-3156
▁olah	-3157
▁pasti	-3158
▁ANTARA	-3159
▁Dik	-3160
▁Angk	-3161
▁gagal	-3162
▁kesep	-3163
▁Korban	-3164
▁pegawai	-3165
▁TPS	-3166
▁sil	-3167
▁gug	-3168
▁dikutip	-3169
▁kekuatan	-3170
▁Tenggara	-3171
unikasi	-3172
tifikasi	-3173
▁BANDUNG	-3174
aha	-3175
ampilan	-3176
▁Gunung	-3177
▁mengirim	-3178
stem	-3179
inaan	-3180
endara	-3181
estival	-3182
▁Mantan	-3183
kap	-3184
▁juara	-3185
▁mengurangi	-3186
▁On	-3187
▁pos	-3188
▁terh	-3189
▁Serang	-3190
▁dokter	-3191
▁Perdana	-3192
▁inovasi	-3193
▁(14	-3194
entar	-3195
▁Kad	-3196
anksi	-3197
apatan	-3198
enarnya	-3199
erit	-3200
▁Sed	-3201
ustru	-3202
▁rapat	-3203
▁platform	-3204
▁Keuangan	-3205
▁Suriah	-3206
▁terima	-3207
▁kemampuan	-3208
▁membutuhkan	-3209
erg	-3210
▁Dar	-3211
▁rem	-3212
▁hati	-3213
▁perbatasan	-3214
intang	-3215
▁Pilgub	-3216
DP	-3217
▁izin	-3218
▁Paris	-3219
adisi	-3220
ukaan	-3221
▁Fran	-3222
idupan	-3223
▁Kegiatan	-3224
▁der	-3225
▁Pj	-3226
ora	-3227
tup	-3228
▁BBC	-3229
▁memutuskan	-3230
▁meluncurkan	-3231
▁KO	-3232
unda	-3233
dangan	-3234
▁MotoGP	-3235
▁Wah	-3236
anita	-3237
▁disk	-3238
▁spesi	-3239
▁Berikut	-3240
udal	-3241
▁Bad	-3242
intaan	-3243
wisata	-3244
▁berkelanjutan	-3245
fa	-3246
▁vs	-3247
empa	-3248
iayaan	-3249
▁Orang	-3250
▁jadwal	-3251
po	-3252
▁(12	-3253
▁buah	-3254
▁Beberapa	-3255
▁menunggu	-3256
▁menewaskan	-3257
▁Pos	-3258
▁gab	-3259
uy	-3260
har	-3261
▁Me	-3262
uhkan	-3263
anganan	-3264
▁delapan	-3265
▁Dew	-3266
▁Ta	-3267
evel	-3268
isan	-3269
▁Mart	-3270
▁Sebab	-3271
adai	-3272
▁Gel	-3273
▁Gen	-3274
▁boleh	-3275
▁aparat	-3276
▁Internasional	-3277
tib	-3278
atas	-3279
▁bebas	-3280
arusnya	-3281
uruan	-3282
▁pat	-3283
iring	-3284
▁membahas	-3285
-202	-3286
IN	-3287
▁momen	-3288
▁penyidik	-3289
▁Pet	-3290
▁reg	-3291
▁sub	-3292
▁alam	-3293
kumham	-3294
▁Hasto	-3295
impiade	-3296
▁minggu	-3297
▁;	-3298
▁konsumen	-3299
▁ok	-3300
▁menekankan	-3301
▁Ris	-3302
▁meres	-3303
▁Vi	-3304
kand	-3305
▁2021	-3306
▁meman	-3307
▁Tol	-3308
awesi	-3309
▁Jika	-3310
▁siang	-3311
▁Ridwan	-3312
▁mencoba	-3313
▁Sulawesi	-3314
▁mengajukan	-3315
▁Pembangunan	-3316
TB	-3317
ahatan	-3318
▁Wilayah	-3319
▁mes	-3320
▁puluhan	-3321
▁tahap	-3322
ekl	-3323
ukur	-3324
usif	-3325
▁Fak	-3326
▁Pihak	-3327
▁Bandara	-3328
red	-3329
tudi	-3330
▁Moh	-3331
▁Grup	-3332
PAS	-3333
asakan	-3334
▁menetapkan	-3335
▁III	-3336
▁ketua	-3337
▁Tet	-3338
▁Perk	-3339
▁menyi	-3340
▁Yang	-3341
▁kader	-3342
abum	-3343
engkap	-3344
▁Kedua	-3345
olaborasi	-3346
,5	-3347
▁penerb	-3348
▁maksi	-3349
▁menyer	-3350
▁hit	-3351
antau	-3352
▁istri	-3353
▁mengatasi	-3354
cak	-3355
▁Bul	-3356
▁menik	-3357
▁sejarah	-3358
los	-3359
▁Kong	-3360
angani	-3361
▁debat	-3362
▁harapan	-3363
▁kemanusiaan	-3364
▁kew	-3365
▁Selama	-3366
NA	-3367
TT	-3368
▁DEN	-3369
▁Pang	-3370
▁menawarkan	-3371
esai	-3372
hati	-3373
▁bersih	-3374
▁us	-3375
anggapi	-3376
zah	-3377
arto	-3378
▁meter	-3379
▁risiko	-3380
▁IKN	-3381
▁agama	-3382
▁Rakyat	-3383
▁percaya	-3384
ihan	-3385
▁Saudi	-3386
▁pribadi	-3387
taf	-3388
esak	-3389
utri	-3390
▁neg	-3391
hawat	-3392
▁sukses	-3393
▁mengakui	-3394
▁bay	-3395
▁sal	-3396
PASAR	-3397
agang	-3398
aksaan	-3399
▁Center	-3400
▁DENPASAR	-3401
▁SI	-3402
ungkan	-3403
oalisi	-3404
▁mengeluarkan	-3405
▁Ric	-3406
abuming	-3407
▁justru	-3408
▁Perempuan	-3409
▁Sim	-3410
▁log	-3411
▁kabupaten	-3412
▁Rakabuming	-3413
ite	-3414
num	-3415
▁kebakaran	-3416
▁Berdasarkan	-3417
uturkan	-3418
▁menuturkan	-3419
arikan	-3420
▁status	-3421
▁bangunan	-3422
ji	-3423
egr	-3424
adem	-3425
▁Ken	-3426
angin	-3427
▁terg	-3428
▁Keh	-3429
▁sore	-3430
ailand	-3431
ajukan	-3432
▁Group	-3433
▁bagus	-3434
▁tertinggi	-3435
▁International	-3436
▁Thailand	-3437
ord	-3438
▁gabungan	-3439
▁kandidat	-3440
▁menyambut	-3441
ekat	-3442
jauh	-3443
▁Uni	-3444
▁Bagi	-3445
▁Berk	-3446
migrasi	-3447
ariwisata	-3448
ell	-3449
▁Kur	-3450
▁vir	-3451
alagi	-3452
▁kehidupan	-3453
▁mengamankan	-3454
▁Kita	-3455
▁Raka	-3456
▁Seti	-3457
ee	-3458
uw	-3459
▁ur	-3460
▁tud	-3461
▁Koordinator	-3462
itkan	-3463
▁meski	-3464
▁kategori	-3465
▁berkembang	-3466
▁mengembangkan	-3467
ancam	-3468
▁dinilai	-3469
anggil	-3470
0.	-3471
▁Pan	-3472
iksa	-3473
▁kalah	-3474
▁sosok	-3475
▁lakukan	-3476
esu	-3477
abumi	-3478
▁CPNS	-3479
▁foto	-3480
imbulkan	-3481
▁ab	-3482
▁sy	-3483
▁199	-3484
abila	-3485
langga	-3486
▁berlaku	-3487
▁Idul	-3488
▁Mend	-3489
▁balik	-3490
▁kesejahteraan	-3491
iksi	-3492
uddin	-3493
▁bergabung	-3494
ikir	-3495
osisi	-3496
▁Pekan	-3497
▁mencatat	-3498
▁Sosial	-3499
go	-3500
ito	-3501
ongk	-3502
▁Politik	-3503
▁perkembangan	-3504
ajah	-3505
▁berbicara	-3506
apaian	-3507
▁Begini	-3508
ack	-3509
edar	-3510
antinya	-3511
ministr	-3512
kes	-3513
▁ul	-3514
▁Sukabumi	-3515
▁Airlangga	-3516
ood	-3517
▁Id	-3518
ampi	-3519
▁bek	-3520
entak	-3521
iraan	-3522
▁jiwa	-3523
▁pemungutan	-3524
akup	-3525
▁pand	-3526
▁putra	-3527
▁bergerak	-3528
udin	-3529
omend	-3530
▁Forum	-3531
anyakan	-3532
isalnya	-3533
omendasi	-3534
▁mengingatkan	-3535
oa	-3536
/3)	-3537
lor	-3538
▁rel	-3539
▁Trans	-3540
▁mengaw	-3541
▁menyerang	-3542
▁merah	-3543
asilkan	-3544
▁berper	-3545
▁sepeda	-3546
▁perlindungan	-3547
/5)	-3548
upuk	-3549
▁2019	-3550
▁Penc	-3551
▁dibawa	-3552
▁rendah	-3553
▁ribuan	-3554
▁selesai	-3555
▁merek	-3556
▁minim	-3557
▁rangka	-3558
▁Taiwan	-3559
▁mewujudkan	-3560
▁pengelolaan	-3561
aid	-3562
ekar	-3563
▁sus	-3564
▁Kend	-3565
▁dikel	-3566
▁kabar	-3567
▁teror	-3568
▁profesi	-3569
raf	-3570
aker	-3571
▁Afr	-3572
▁Sah	-3573
▁tumb	-3574
unjungi	-3575
▁terdampak	-3576
▁Shin	-3577
▁arus	-3578
▁ng	-3579
▁Khusus	-3580
osk	-3581
▁nyata	-3582
▁diperkirakan	-3583
cr	-3584
omat	-3585
syah	-3586
apresiasi	-3587
adar	-3588
▁terdakwa	-3589
▁Pertahanan	-3590
hip	-3591
▁Hend	-3592
artemen	-3593
▁infrastruktur	-3594
ten	-3595
▁truk	-3596
apak	-3597
▁pengawasan	-3598
bullah	-3599
▁rudal	-3600
▁hilang	-3601
▁pelatihan	-3602
▁kre	-3603
igran	-3604
urunan	-3605
▁re	-3606
unci	-3607
▁Bir	-3608
torat	-3609
▁Sumsel	-3610
aluasi	-3611
▁insiden	-3612
▁Olimpiade	-3613
▁sebenarnya	-3614
/4)	-3615
ren	-3616
▁AI	-3617
ance	-3618
▁tambahan	-3619
PU	-3620
ano	-3621
▁Seh	-3622
▁meninggalkan	-3623
son	-3624
airan	-3625
▁klub	-3626
ometer	-3627
▁Hotel	-3628
▁Informasi	-3629
EO	-3630
eja	-3631
▁Kons	-3632
▁Acara	-3633
▁Tanah	-3634
▁pajak	-3635
ilangan	-3636
▁seharusnya	-3637
▁Berb	-3638
etan	-3639
mati	-3640
▁pasi	-3641
asitas	-3642
▁Medan	-3643
▁daftar	-3644
▁puncak	-3645
▁berbasis	-3646
▁Kelurahan	-3647
▁sedangkan	-3648
ner	-3649
indo	-3650
▁Pemain	-3651
▁pemilik	-3652
▁strategi	-3653
etul	-3654
▁seks	-3655
izbullah	-3656
▁perdagangan	-3657
▁gelar	-3658
▁ton	-3659
▁Muda	-3660
▁ayah	-3661
▁Lebaran	-3662
▁Pasangan	-3663
abah	-3664
emprov	-3665
ida	-3666
ifah	-3667
yadi	-3668
unggal	-3669
▁kesepakatan	-3670
adu	-3671
embakan	-3672
▁minyak	-3673
▁tradisi	-3674
bud	-3675
mcr	-3676
ugi	-3677
itri	-3678
▁Mat	-3679
alifikasi	-3680
▁melanggar	-3681
▁pengungsi	-3682
▁berpotensi	-3683
▁im	-3684
▁darah	-3685
▁jangan	-3686
▁terlalu	-3687
▁mitra	-3688
▁pilkada	-3689
▁menyiapkan	-3690
isik	-3691
▁Megaw	-3692
▁tiket	-3693
OA	-3694
▁ahli	-3695
iriman	-3696
▁tulis	-3697
▁kalangan	-3698
▁Kek	-3699
usakan	-3700
▁buruk	-3701
▁perawatan	-3702
▁net	-3703
▁berakhir	-3704
wang	-3705
▁PKS	-3706
ahulu	-3707
▁genc	-3708
▁Award	-3709
awapres	-3710
▁didukung	-3711
▁Hizbullah	-3712
▁pelanggan	-3713
▁Ul	-3714
▁ka	-3715
▁Pri	-3716
▁Satu	-3717
▁tertulis	-3718
▁tema	-3719
ainkan	-3720
▁kulit	-3721
▁Megawati	-3722
▁Kemenkumham	-3723
bon	-3724
▁60	-3725
umur	-3726
atuan	-3727
▁utara	-3728
▁penduduk	-3729
▁35	-3730
▁kri	-3731
▁Dewi	-3732
tes	-3733
▁Sil	-3734
esang	-3735
▁Kara	-3736
▁Pelaku	-3737
▁selaku	-3738
▁berdampak	-3739
UT	-3740
▁Bh	-3741
▁mempering	-3742
▁menyelesaikan	-3743
tain	-3744
▁Int	-3745
lem	-3746
▁Ti	-3747
▁memicu	-3748
▁senior	-3749
laki	-3750
evisi	-3751
IP	-3752
▁ro	-3753
▁KOTA	-3754
▁Lalu	-3755
▁Kaesang	-3756
ataan	-3757
etnam	-3758
asilan	-3759
▁paket	-3760
▁berikut	-3761
▁mendesak	-3762
▁Ev	-3763
▁visi	-3764
etapan	-3765
▁melindungi	-3766
uel	-3767
alin	-3768
anggu	-3769
▁Kali	-3770
amaian	-3771
anyaan	-3772
▁Garuda	-3773
▁sanksi	-3774
▁Keamanan	-3775
:30	-3776
▁gram	-3777
▁serius	-3778
ice	-3779
ongsor	-3780
▁syarat	-3781
▁Vietnam	-3782
▁maksimal	-3783
▁penanganan	-3784
▁permintaan	-3785
▁mus	-3786
▁awak	-3787
▁pres	-3788
▁2023,	-3789
▁Banyak	-3790
▁menyerahkan	-3791
▁Fr	-3792
▁Ro	-3793
▁sikap	-3794
▁kompetisi	-3795
old	-3796
awal	-3797
illah	-3798
ahankan	-3799
▁saling	-3800
▁ungkapnya	-3801
Ini	-3802
▁bank	-3803
▁Ung	-3804
atatan	-3805
▁menyus	-3806
▁pembel	-3807
▁Operasi	-3808
▁diselenggarakan	-3809
▁Ik	-3810
/2).	-3811
arjo	-3812
▁Bany	-3813
▁Pemkot	-3814
onfirmasi	-3815
ear	-3816
▁up	-3817
akti	-3818
assar	-3819
▁Khof	-3820
iburan	-3821
ulauan	-3822
wenang	-3823
▁Kamil	-3824
▁rutin	-3825
▁hi	-3826
enag	-3827
empur	-3828
▁iklim	-3829
▁kursi	-3830
idaknya	-3831
▁Khofifah	-3832
▁penerbangan	-3833
arelawan	-3834
insip	-3835
▁Samp	-3836
ayaran	-3837
▁Penjabat	-3838
▁kejahatan	-3839
anyi	-3840
ikin	-3841
ombang	-3842
▁diikuti	-3843
▁tertentu	-3844
▁pengadilan	-3845
▁Seri	-3846
cayaan	-3847
ington	-3848
▁mencetak	-3849
▁MPR	-3850
▁Film	-3851
▁Pulau	-3852
enggaraan	-3853
uny	-3854
undur	-3855
▁Ekonomi	-3856
/11)	-3857
abrik	-3858
▁panas	-3859
entitas	-3860
▁Padang	-3861
▁Lembaga	-3862
/7)	-3863
opi	-3864
▁AKP	-3865
▁tol	-3866
asiun	-3867
▁laki	-3868
ekanan	-3869
▁Harris	-3870
asp	-3871
▁Suh	-3872
adinya	-3873
ker	-3874
ainan	-3875
io	-3876
▁ins	-3877
▁Bantu	-3878
▁Manag	-3879
enalkan	-3880
▁Champi	-3881
▁Tinggi	-3882
▁menimbulkan	-3883
acam	-3884
edakan	-3885
ace	-3886
/12)	-3887
▁City	-3888
▁Menj	-3889
rig	-3890
sekut	-3891
▁Ketika	-3892
▁mengapresiasi	-3893
omm	-3894
rut	-3895
agub	-3896
▁Wil	-3897
▁mencakup	-3898
ence	-3899
oalan	-3900
▁Irjen	-3901
argetkan	-3902
▁Makassar	-3903
▁perjanjian	-3904
▁Ho	-3905
▁Sid	-3906
aksana	-3907
anjung	-3908
▁Senayan	-3909
ket	-3910
ambat	-3911
▁sabu	-3912
uasaan	-3913
▁Sleman	-3914
▁pertanian	-3915
▁unggul	-3916
▁Pertama	-3917
▁tentara	-3918
▁Serangan	-3919
ER	-3920
▁Mod	-3921
ahami	-3922
▁Putra	-3923
ue	-3924
egang	-3925
tabes	-3926
▁terang	-3927
▁penjualan	-3928
▁Roh	-3929
▁Polresta	-3930
▁operasional	-3931
▁bl	-3932
▁putih	-3933
▁berawan	-3934
inet	-3935
▁ekspor	-3936
jual	-3937
▁Pran	-3938
▁Purw	-3939
▁mati	-3940
▁impor	-3941
▁memanfaatkan	-3942
-19	-3943
oroti	-3944
▁antar	-3945
▁Meskipun	-3946
▁komunikasi	-3947
▁kepemimpinan	-3948
▁misi	-3949
▁wali	-3950
▁Penyel	-3951
▁Kampung	-3952
▁gugatan	-3953
▁dipimpin	-3954
▁Merah	-3955
▁tuduhan	-3956
▁dihadiri	-3957
▁olahraga	-3958
▁penyebab	-3959
▁kilometer	-3960
..	-3961
ASN	-3962
oko	-3963
osiasi	-3964
▁tambahnya	-3965
oman	-3966
▁medis	-3967
▁Kemend	-3968
▁diambil	-3969
-7	-3970
yono	-3971
▁berf	-3972
▁peneg	-3973
/9)	-3974
ino	-3975
▁Jam	-3976
▁Marc	-3977
▁yakin	-3978
/8)	-3979
benar	-3980
ontoh	-3981
▁inst	-3982
ubungi	-3983
▁rokok	-3984
sidi	-3985
▁parlemen	-3986
▁mengingat	-3987
▁(31	-3988
▁uji	-3989
ugian	-3990
▁Harga	-3991
angkalan	-3992
ajuan	-3993
▁klas	-3994
▁dokumen	-3995
▁Industri	-3996
▁transaksi	-3997
AP	-3998
oga	-3999
tivis	-4000
▁peringkat	-4001
/6)	-4002
▁Juru	-4003
▁konser	-4004
▁ditahan	-4005
ili	-4006
pon	-4007
▁gaj	-4008
▁nas	-4009
▁ekstr	-4010
dus	-4011
▁mo	-4012
▁Cor	-4013
▁Wash	-4014
▁diperl	-4015
▁Perusahaan	-4016
ick	-4017
tron	-4018
▁aku	-4019
▁Bang	-4020
▁Musi	-4021
▁angin	-4022
▁pencarian	-4023
▁kehilangan	-4024
ontribusi	-4025
ministrasi	-4026
fik	-4027
▁VOA	-4028
entuan	-4029
▁Motor	-4030
▁Pengh	-4031
▁Sejak	-4032
▁laman	-4033
▁mesin	-4034
▁Mandiri	-4035
▁diskusi	-4036
▁memasuki	-4037
so	-4038
ish	-4039
▁Nik	-4040
enagak	-4041
kandar	-4042
▁barat	-4043
indakan	-4044
sh	-4045
▁ing	-4046
▁mey	-4047
andera	-4048
▁materi	-4049
▁merilis	-4050
▁penelitian	-4051
enagakerjaan	-4052
Mah	-4053
esan	-4054
▁Sin	-4055
▁Donald	-4056
UP	-4057
▁PL	-4058
▁bupati	-4059
ungkinkan	-4060
agn	-4061
andra	-4062
▁haji	-4063
▁swas	-4064
ameran	-4065
sisten	-4066
ns	-4067
ancar	-4068
Mahfud	-4069
ekatan	-4070
hadiran	-4071
▁pengan	-4072
▁persiapan	-4073
▁Washington	-4074
abang	-4075
antah	-4076
▁tuan	-4077
▁inisi	-4078
tabilitas	-4079
▁mengalahkan	-4080
HK	-4081
akuan	-4082
▁Perm	-4083
▁berisi	-4084
▁putaran	-4085
▁sembilan	-4086
ht	-4087
▁Iskandar	-4088
▁mengubah	-4089
▁menjawab	-4090
▁gempa	-4091
▁suami	-4092
▁Melalui	-4093
UU	-4094
▁da	-4095
▁atlet	-4096
▁Pantai	-4097
▁Pemkab	-4098
▁tercatat	-4099
▁Dav	-4100
▁juru	-4101
▁perp	-4102
▁libur	-4103
▁selain	-4104
▁menjadikan	-4105
.30	-4106
imbau	-4107
▁Hujan	-4108
▁gedung	-4109
▁minuman	-4110
▁Sw	-4111
▁biasanya	-4112
▁Champions	-4113
▁jatuh	-4114
▁berkontribusi	-4115
alih	-4116
alik	-4117
▁Tae	-4118
ARANG	-4119
▁sehari	-4120
▁Pemprov	-4121
▁Lingkungan	-4122
▁Art	-4123
reskrim	-4124
ive	-4125
sir	-4126
ukl	-4127
▁Go	-4128
▁Persis	-4129
▁pulang	-4130
▁Digital	-4131
▁anaknya	-4132
ci	-4133
ony	-4134
hiri	-4135
jang	-4136
umpul	-4137
▁obat	-4138
▁Up	-4139
▁mul	-4140
awatir	-4141
▁undang	-4142
ON	-4143
jing	-4144
▁Perh	-4145
indari	-4146
▁Hakim	-4147
▁mudik	-4148
▁apresiasi	-4149
▁menurunkan	-4150
▁pertanyaan	-4151
▁penangkapan	-4152
ajam	-4153
▁Cir	-4154
▁Joh	-4155
kom	-4156
hari	-4157
▁memulai	-4158
▁mengusung	-4159
ill	-4160
▁Boj	-4161
▁Putri	-4162
▁ketat	-4163
▁Petugas	-4164
▁Karawang	-4165
intu	-4166
▁Pria	-4167
Undang	-4168
▁Kejaksaan	-4169
▁kehadiran	-4170
▁memungkinkan	-4171
▁Div	-4172
▁Arif	-4173
▁ikan	-4174
iminal	-4175
▁Pengaw	-4176
▁segala	-4177
▁Festival	-4178
▁keduanya	-4179
▁era	-4180
vensi	-4181
▁fisik	-4182
▁oknum	-4183
▁selamat	-4184
▁gencatan	-4185
rom	-4186
urian	-4187
▁Nusa	-4188
ohonan	-4189
ampilkan	-4190
▁Pemberantasan	-4191
▁Sk	-4192
ater	-4193
uluh	-4194
▁Joe	-4195
ebaya	-4196
▁dibuka	-4197
▁Kepulauan	-4198
KA	-4199
hat	-4200
sat	-4201
▁No	-4202
/10)	-4203
tian	-4204
▁Cip	-4205
▁dipas	-4206
▁jangka	-4207
▁berarti	-4208
▁kepercayaan	-4209
egional	-4210
▁Bambang	-4211
▁praktik	-4212
MB	-4213
▁Madura	-4214
▁pantai	-4215
▁perwakilan	-4216
HO	-4217
▁Surat	-4218
▁rusak	-4219
▁Soekar	-4220
eorologi	-4221
▁kapasitas	-4222
▁Mir	-4223
istis	-4224
▁Afrika	-4225
▁Mahfud	-4226
▁menutup	-4227
▁menghentikan	-4228
ron	-4229
▁Ju	-4230
apol	-4231
▁Kos	-4232
▁Ros	-4233
aimin	-4234
alang	-4235
KPU	-4236
▁Ip	-4237
ujuk	-4238
▁Apa	-4239
▁SEM	-4240
alian	-4241
▁Mobil	-4242
▁putri	-4243
▁ga	-4244
▁CEO	-4245
▁coba	-4246
enazah	-4247
▁Pranowo	-4248
▁longsor	-4249
▁terbukti	-4250
▁persoalan	-4251
rab	-4252
leks	-4253
arangan	-4254
itungan	-4255
▁Polsek	-4256
orl	-4257
ahuan	-4258
yatakan	-4259
▁Imigrasi	-4260
▁perekonomian	-4261
▁$	-4262
esti	-4263
▁Yus	-4264
adahal	-4265
▁kementerian	-4266
▁gas	-4267
▁band	-4268
BS	-4269
-23	-4270
▁met	-4271
otika	-4272
▁damai	-4273
osistem	-4274
▁Hingga	-4275
▁mengand	-4276
▁er	-4277
abis	-4278
▁Bei	-4279
▁hutan	-4280
▁ditemui	-4281
▁Persebaya	-4282
▁diamankan	-4283
land	-4284
sabu	-4285
▁War	-4286
truksi	-4287
sekutif	-4288
▁faktor	-4289
/1)	-4290
▁Bus	-4291
anggilan	-4292
▁SEMARANG	-4293
▁profesional	-4294
awi	-4295
ayani	-4296
▁kampus	-4297
▁belajar	-4298
▁menentukan	-4299
IS	-4300
rid	-4301
elasan	-4302
igrasi	-4303
▁fitur	-4304
▁sepak	-4305
▁dibuat	-4306
▁memperoleh	-4307
UD	-4308
isl	-4309
iling	-4310
orter	-4311
▁suatu	-4312
▁mengunjungi	-4313
akai	-4314
vasi	-4315
ensif	-4316
▁Akan	-4317
agikan	-4318
▁Sar	-4319
▁mak	-4320
▁aset	-4321
▁pengamanan	-4322
by	-4323
evakuasi	-4324
▁standar	-4325
RT	-4326
ahl	-4327
itr	-4328
tajuk	-4329
▁Hart	-4330
▁Tapi	-4331
▁lawan	-4332
roduksi	-4333
▁mengec	-4334
ech	-4335
▁3,	-4336
▁bayi	-4337
▁kanan	-4338
arkotika	-4339
▁Cil	-4340
aksud	-4341
uransi	-4342
▁mengadakan	-4343
▁Rai	-4344
▁kerap	-4345
spirasi	-4346
▁dahulu	-4347
▁Beijing	-4348
▁membeli	-4349
▁Surakarta	-4350
▁Tik	-4351
apura	-4352
▁Ters	-4353
▁Institu	-4354
▁bertajuk	-4355
▁Pelabuhan	-4356
ando	-4357
udul	-4358
▁the	-4359
▁Guru	-4360
▁konten	-4361
awancara	-4362
▁Tanjung	-4363
▁Angkatan	-4364
ff	-4365
▁Terl	-4366
▁berwenang	-4367
oso	-4368
sus	-4369
▁Fat	-4370
ukasi	-4371
▁Sant	-4372
▁capres	-4373
▁Peraturan	-4374
▁prioritas	-4375
▁menghasilkan	-4376
-3	-4377
▁...	-4378
▁Siap	-4379
▁tata	-4380
▁hewan	-4381
▁timur	-4382
▁efektif	-4383
▁Kepolisian	-4384
san	-4385
▁DI	-4386
▁News	-4387
estasi	-4388
embatan	-4389
▁kereta	-4390
andatangani	-4391
50	-4392
▁Cl	-4393
▁berperan	-4394
▁bertanggung	-4395
nik	-4396
▁Produk	-4397
▁Did	-4398
ahaya	-4399
intar	-4400
▁darurat	-4401
▁kemajuan	-4402
▁penurunan	-4403
amm	-4404
▁Karya	-4405
▁pasien	-4406
BK	-4407
uklir	-4408
▁pula	-4409
▁Turki	-4410
▁hitam	-4411
▁senang	-4412
▁khawatir	-4413
otan	-4414
ester	-4415
▁Daya	-4416
▁Muslim	-4417
▁kerugian	-4418
▁Konstitusi	-4419
▁!	-4420
▁jasa	-4421
ebaran	-4422
▁Kelompok	-4423
▁Ib	-4424
▁MA	-4425
Jadi	-4426
aruh	-4427
▁dom	-4428
▁Andi	-4429
anyahu	-4430
▁bahasa	-4431
▁Teknologi	-4432
▁beroperasi	-4433
PT	-4434
ahmi	-4435
▁kaki	-4436
▁teknis	-4437
▁Sekolah	-4438
▁Netanyahu	-4439
▁menanggapi	-4440
▁bar	-4441
elayan	-4442
▁klaim	-4443
▁kerusakan	-4444
▁mempertahankan	-4445
▁Hid	-4446
gunaan	-4447
▁seksual	-4448
rist	-4449
▁grup	-4450
siapkan	-4451
▁Bersama	-4452
▁mengonsumsi	-4453
bk	-4454
luas	-4455
pora	-4456
utaan	-4457
eriksa	-4458
▁inter	-4459
▁Masjid	-4460
umpulkan	-4461
▁senilai	-4462
RB	-4463
▁kesi	-4464
▁Putin	-4465
▁batas	-4466
▁memahami	-4467
▁menengah	-4468
▁Pekanbaru	-4469
▁diperlukan	-4470
fat	-4471
agama	-4472
▁Jasa	-4473
▁sant	-4474
▁layak	-4475
▁menud	-4476
▁Kompol	-4477
▁kecamatan	-4478
▁pengusaha	-4479
▁menya	-4480
▁Layanan	-4481
▁beragam	-4482
▁keadaan	-4483
▁Be	-4484
astik	-4485
▁Qatar	-4486
▁kunci	-4487
▁serupa	-4488
▁2024-202	-4489
▁menyoroti	-4490
▁Da	-4491
anyol	-4492
hamdul	-4493
orld	-4494
▁Gian	-4495
▁buku	-4496
▁Sungai	-4497
▁lanjutnya	-4498
▁pendapatan	-4499
kus	-4500
our	-4501
▁Tiga	-4502
▁zona	-4503
▁rangkaian	-4504
ie	-4505
▁32	-4506
▁SAR	-4507
masalahan	-4508
▁Pertanian	-4509
uz	-4510
▁buat	-4511
▁Bakal	-4512
▁pohon	-4513
▁rekan	-4514
intah	-4515
egahan	-4516
▁fungsi	-4517
▁mundur	-4518
▁wanita	-4519
iang	-4520
▁Kasat	-4521
▁tanggung	-4522
▁membentuk	-4523
▁Direktorat	-4524
pro	-4525
▁Dj	-4526
ania	-4527
▁Wak	-4528
udahan	-4529
▁tekanan	-4530
▁menerapkan	-4531
▁penyelenggaraan	-4532
ge	-4533
▁]	-4534
▁Con	-4535
engaruhi	-4536
▁bertahan	-4537
▁selanjutnya	-4538
▁es	-4539
▁dulu	-4540
▁Hasan	-4541
▁Kelas	-4542
uncuran	-4543
▁Spanyol	-4544
▁Pimpinan	-4545
▁Ny	-4546
ediaan	-4547
▁Erick	-4548
▁tangga	-4549
▁tahanan	-4550
ingkatkan	-4551
▁didampingi	-4552
▁pengunjung	-4553
ve	-4554
▁kos	-4555
▁2026	-4556
▁Makan	-4557
▁nyaman	-4558
▁nantinya	-4559
▁setidaknya	-4560
▁36	-4561
udayaan	-4562
▁dinyatakan	-4563
entan	-4564
entunya	-4565
ifinal	-4566
▁Anwar	-4567
engkapi	-4568
▁berubah	-4569
▁lengkap	-4570
▁semuanya	-4571
iat	-4572
▁akrab	-4573
urnamen	-4574
▁kalinya	-4575
▁Ha	-4576
emaah	-4577
▁2020	-4578
▁karyawan	-4579
▁Bengk	-4580
rediksi	-4581
▁kontrak	-4582
▁peraturan	-4583
agri	-4584
ertai	-4585
▁Soal	-4586
▁mengin	-4587
▁remaja	-4588
▁kekuasaan	-4589
▁berkualitas	-4590
adw	-4591
▁3.	-4592
▁Tbk	-4593
▁lem	-4594
▁ram	-4595
▁dinas	-4596
▁warna	-4597
▁ketidak	-4598
▁pengiriman	-4599
ound	-4600
▁Ass	-4601
enting	-4602
▁Aparat	-4603
▁Kaltim	-4604
▁Panc	-4605
vestor	-4606
▁Agama	-4607
▁transportasi	-4608
▁Terb	-4609
▁Militer	-4610
app	-4611
▁umat	-4612
▁Kapolda	-4613
▁It	-4614
▁Batu	-4615
eorang	-4616
▁nasabah	-4617
▁Keluarga	-4618
▁permohonan	-4619
PO	-4620
▁UN	-4621
indah	-4622
angguan	-4623
▁manajemen	-4624
▁Jalur	-4625
▁rekomendasi	-4626
▁Kat	-4627
▁norm	-4628
▁pemuda	-4629
empatkan	-4630
PI	-4631
▁He	-4632
antren	-4633
awanan	-4634
▁efisi	-4635
urnalis	-4636
imbangan	-4637
▁ekstrem	-4638
▁sesuatu	-4639
etuju	-4640
▁Perj	-4641
▁Perl	-4642
▁Karno	-4643
angkatan	-4644
▁Majelis	-4645
▁ekosistem	-4646
PD	-4647
▁May	-4648
▁usai	-4649
▁situs	-4650
alurkan	-4651
▁gerakan	-4652
hawatiran	-4653
ber	-4654
andan	-4655
▁apabila	-4656
▁Singapura	-4657
tion	-4658
▁Yud	-4659
▁Natal	-4660
▁Kediri	-4661
▁penetapan	-4662
▁dibutuhkan	-4663
lih	-4664
▁Te	-4665
aing	-4666
▁Ped	-4667
arkir	-4668
▁Gelar	-4669
alisasi	-4670
▁mengimbau	-4671
▁4,	-4672
▁Kim	-4673
▁Comm	-4674
▁intel	-4675
▁Jumlah	-4676
▁prinsip	-4677
▁perbaikan	-4678
itia	-4679
▁Rapat	-4680
PA	-4681
hu	-4682
cepat	-4683
orneo	-4684
▁Irak	-4685
▁Ting	-4686
▁Balai	-4687
▁Sakit	-4688
ominasi	-4689
▁Borneo	-4690
elahiran	-4691
imbangkan	-4692
epi	-4693
▁br	-4694
▁Teg	-4695
imaan	-4696
▁Martin	-4697
▁pabrik	-4698
▁persidangan	-4699
amkan	-4700
▁Emas	-4701
▁nuklir	-4702
▁swasta	-4703
hamdulillah	-4704
adj	-4705
gasi	-4706
▁Situ	-4707
▁World	-4708
▁alami	-4709
hasilan	-4710
▁Kanwil	-4711
▁Sekjen	-4712
▁agenda	-4713
ock	-4714
▁80	-4715
▁Dedi	-4716
▁bunga	-4717
▁Persija	-4718
▁merayakan	-4719
▁elektabilitas	-4720
▁Bung	-4721
▁Meny	-4722
▁keny	-4723
obatan	-4724
▁Media	-4725
▁Taman	-4726
▁saran	-4727
▁ibadah	-4728
▁Seperti	-4729
▁sambung	-4730
▁Pasalnya	-4731
▁logistik	-4732
lt	-4733
▁NTB	-4734
▁Sya	-4735
▁Kapal	-4736
▁wajib	-4737
▁lancar	-4738
▁Setiawan	-4739
▁34	-4740
kota	-4741
▁Data	-4742
DO	-4743
EAN	-4744
bal	-4745
▁Semua	-4746
▁lihat	-4747
▁Meteorologi	-4748
▁tes	-4749
▁BPBD	-4750
▁dipl	-4751
▁sungai	-4752
KPK	-4753
▁MD	-4754
▁HUT	-4755
▁rep	-4756
▁Hadi	-4757
enjata	-4758
uktikan	-4759
▁perayaan	-4760
jek	-4761
▁Dana	-4762
aritas	-4763
amatkan	-4764
▁mengus	-4765
▁aktivis	-4766
▁catatan	-4767
▁identitas	-4768
▁berikutnya	-4769
▁500	-4770
▁tun	-4771
ogram	-4772
▁pemberian	-4773
▁perangkat	-4774
sur	-4775
▁Mic	-4776
ikbud	-4777
etujui	-4778
▁melip	-4779
▁keselamatan	-4780
▁menampilkan	-4781
are	-4782
▁Sir	-4783
itung	-4784
▁Cuaca	-4785
▁seseorang	-4786
identifikasi	-4787
etika	-4788
▁gaji	-4789
▁bakar	-4790
▁Bahkan	-4791
▁Gianyar	-4792
▁berencana	-4793
▁bersenjata	-4794
▁Kus	-4795
▁mar	-4796
epend	-4797
angkau	-4798
ulangan	-4799
▁sambil	-4800
▁Mahasiswa	-4801
▁ketentuan	-4802
▁Departemen	-4803
za	-4804
abrak	-4805
▁Aksi	-4806
▁Pengg	-4807
▁mempunya	-4808
▁kelahiran	-4809
▁Polrestabes	-4810
▁permasalahan	-4811
▁IC	-4812
ansir	-4813
udang	-4814
tisipasi	-4815
▁permainan	-4816
▁SK	-4817
urit	-4818
▁Ist	-4819
▁ASEAN	-4820
▁hijau	-4821
▁jarak	-4822
▁minta	-4823
▁Sebuah	-4824
▁menemp	-4825
lementasi	-4826
▁disertai	-4827
▁mengakhiri	-4828
ektur	-4829
▁Imam	-4830
▁model	-4831
▁tanda	-4832
aksikan	-4833
▁perdamaian	-4834
▁memperkenalkan	-4835
ium	-4836
akili	-4837
▁Jogja	-4838
▁militan	-4839
▁membayar	-4840
▁misalnya	-4841
▁menangani	-4842
▁mengakibatkan	-4843
▁70	-4844
olar	-4845
▁Sido	-4846
▁Sudah	-4847
▁tarif	-4848
ebaskan	-4849
▁Kapten	-4850
▁plastik	-4851
▁sandera	-4852
agia	-4853
istri	-4854
▁Usaha	-4855
▁lahir	-4856
adwalkan	-4857
▁diperiksa	-4858
▁mempunyai	-4859
▁mendaftar	-4860
▁Del	-4861
▁Dwi	-4862
tronik	-4863
umahan	-4864
nikahan	-4865
▁Tetapi	-4866
▁sejauh	-4867
eritakan	-4868
onj	-4869
edit	-4870
tusi	-4871
▁Ayu	-4872
▁Geo	-4873
andai	-4874
▁Haji	-4875
▁Maju	-4876
▁Ratusan	-4877
▁tunggal	-4878
▁wisatawan	-4879
▁koordinasi	-4880
PAN	-4881
epon	-4882
▁Nah	-4883
endak	-4884
▁PSIS	-4885
aria	-4886
▁Kawasan	-4887
▁Penghargaan	-4888
fo	-4889
isika	-4890
▁kiri	-4891
ijen	-4892
olos	-4893
▁Indr	-4894
▁sesi	-4895
tusias	-4896
untutan	-4897
▁Bangsa	-4898
▁Pemuda	-4899
ancarkan	-4900
▁diminta	-4901
▁memeriksa	-4902
▁38	-4903
baiki	-4904
▁Pras	-4905
▁Bantul	-4906
▁keberl	-4907
▁menguc	-4908
untungan	-4909
▁klasemen	-4910
▁Tersangka	-4911
▁terjadinya	-4912
▁berkolaborasi	-4913
JS	-4914
▁KM	-4915
awang	-4916
onstr	-4917
▁tumbuh	-4918
▁Bantuan	-4919
▁sosialisasi	-4920
div	-4921
otak	-4922
▁taw	-4923
teman	-4924
egrasi	-4925
▁desain	-4926
▁pelajar	-4927
▁Keputusan	-4928
osa	-4929
opsi	-4930
▁Fer	-4931
▁Rus	-4932
▁amb	-4933
akini	-4934
arisan	-4935
▁konsep	-4936
▁member	-4937
inginkan	-4938
▁gangguan	-4939
▁Komunikasi	-4940
hana	-4941
angkut	-4942
▁aspek	-4943
▁kontra	-4944
▁Lapangan	-4945
▁kilogram	-4946
▁Mb	-4947
▁Fir	-4948
▁bir	-4949
▁rup	-4950
▁tip	-4951
▁Bisa	-4952
▁dilansir	-4953
▁menghindari	-4954
Pem	-4955
itis	-4956
▁buka	-4957
▁kampung	-4958
▁internal	-4959
my	-4960
emar	-4961
▁BBM	-4962
▁PSS	-4963
▁You	-4964
ekaan	-4965
▁modern	-4966
▁Belanda	-4967
▁Pakistan	-4968
LO	-4969
lad	-4970
▁45	-4971
Pers	-4972
upan	-4973
agung	-4974
▁Arya	-4975
angkit	-4976
▁jenazah	-4977
▁regulasi	-4978
▁Ya	-4979
▁Open	-4980
▁krisis	-4981
▁University	-4982
▁ki	-4983
ganya	-4984
▁tahapan	-4985
▁mempersiapkan	-4986
ogo	-4987
sal	-4988
amil	-4989
ower	-4990
yani	-4991
▁adat	-4992
▁2025.	-4993
▁fakta	-4994
▁Kampanye	-4995
▁pembicara	-4996
rak	-4997
fitri	-4998
ijaya	-4999
oblos	-5000
▁York	-5001
▁tadi	-5002
▁protes	-5003
▁Laporan	-5004
▁mengant	-5005
uruk	-5006
▁pal	-5007
▁Lest	-5008
▁Arema	-5009
▁supaya	-5010
▁berangkat	-5011
▁merasakan	-5012
▁pembayaran	-5013
▁menargetkan	-5014
her	-5015
onda	-5016
▁Kol	-5017
limat	-5018
▁2018	-5019
▁Brig	-5020
▁liter	-5021
▁Juanda	-5022
▁Ph	-5023
asia	-5024
ondok	-5025
▁berjudul	-5026
▁semifinal	-5027
▁perjuangan	-5028
▁SMK	-5029
ektar	-5030
ebritas	-5031
▁bilang	-5032
▁dibangun	-5033
▁sukarelawan	-5034
▁Ketenagakerjaan	-5035
mp	-5036
▁Sis	-5037
ugikan	-5038
▁beliau	-5039
▁menuntut	-5040
▁perintah	-5041
▁membantah	-5042
▁mengirimkan	-5043
ba	-5044
SDM	-5045
kah	-5046
▁Li	-5047
iana	-5048
▁Peg	-5049
akter	-5050
aminya	-5051
endali	-5052
fisika	-5053
▁massa	-5054
▁Perang	-5055
▁Secara	-5056
▁nelayan	-5057
▁Tuj	-5058
▁Memb	-5059
▁mark	-5060
▁Ngurah	-5061
▁berhenti	-5062
▁suaminya	-5063
Tok	-5064
▁Yas	-5065
▁Kond	-5066
klusif	-5067
uruhan	-5068
▁skuad	-5069
ambangan	-5070
▁pariwisata	-5071
cang	-5072
iber	-5073
▁had	-5074
bitkan	-5075
olehan	-5076
▁drone	-5077
▁pintu	-5078
▁sambutan	-5079
ega	-5080
esir	-5081
roli	-5082
▁bin	-5083
angku	-5084
▁pros	-5085
▁bertugas	-5086
ps	-5087
▁Ki	-5088
▁ch	-5089
▁Sun	-5090
▁David	-5091
▁Suara	-5092
▁Sumut	-5093
▁Gelora	-5094
▁mengab	-5095
▁timnya	-5096
eklarasi	-5097
▁kekhawatiran	-5098
▁NU	-5099
osen	-5100
▁Tok	-5101
uasai	-5102
uncak	-5103
▁Dewa	-5104
aparan	-5105
▁Geofisika	-5106
▁BA	-5107
▁KU	-5108
okowi	-5109
satunya	-5110
unjukan	-5111
▁Klimat	-5112
▁menikmati	-5113
▁merespons	-5114
▁Klimatologi	-5115
▁4.	-5116
uyur	-5117
▁RUU	-5118
▁may	-5119
▁toko	-5120
▁edukasi	-5121
▁sasaran	-5122
▁turnamen	-5123
▁kontribusi	-5124
▁mengenakan	-5125
▁Adi	-5126
▁PSSI	-5127
▁Sumb	-5128
ahaman	-5129
▁Mulai	-5130
ormatan	-5131
▁netral	-5132
▁tambang	-5133
jm	-5134
ame	-5135
▁5,	-5136
ilmu	-5137
▁Bob	-5138
ormati	-5139
▁Mesir	-5140
▁mengej	-5141
eni	-5142
▁YOG	-5143
idato	-5144
▁sebut	-5145
▁Pangan	-5146
▁pameran	-5147
▁menyerukan	-5148
▁memperingatkan	-5149
NU	-5150
aleg	-5151
injau	-5152
▁Alex	-5153
▁YOGY	-5154
▁ilmu	-5155
▁Sebut	-5156
▁viral	-5157
▁tersedia	-5158
CT	-5159
aft	-5160
eco	-5161
▁00	-5162
jana	-5163
▁Hab	-5164
irikan	-5165
Persero	-5166
▁Manusia	-5167
▁YOGYAKARTA	-5168
▁menganggap	-5169
▁90	-5170
▁PAN	-5171
▁gaw	-5172
ultas	-5173
▁Jember	-5174
▁produs	-5175
▁rumahnya	-5176
Jokowi	-5177
▁Indra	-5178
▁lulus	-5179
elompok	-5180
rata	-5181
▁Cik	-5182
ipuan	-5183
▁Nana	-5184
▁batu	-5185
▁rest	-5186
▁tren	-5187
▁Andika	-5188
▁dilantik	-5189
▁tersebar	-5190
inar	-5191
▁Mun	-5192
▁Vir	-5193
egoro	-5194
▁studi	-5195
▁Maluku	-5196
▁hektar	-5197
ambarkan	-5198
TP	-5199
▁Dn	-5200
▁diw	-5201
▁upa	-5202
ulitan	-5203
▁hotel	-5204
▁kamar	-5205
▁Istana	-5206
▁diberi	-5207
▁Langkah	-5208
▁Sidoarjo	-5209
▁pencurian	-5210
▁keluarganya	-5211
asib	-5212
ement	-5213
▁bumi	-5214
ederal	-5215
▁hendak	-5216
▁konsisten	-5217
lan	-5218
ehan	-5219
uter	-5220
▁pergi	-5221
▁akadem	-5222
▁diajukan	-5223
▁penyelenggara	-5224
ede	-5225
▁Cah	-5226
▁pasokan	-5227
▁upacara	-5228
▁Idulfitri	-5229
1,	-5230
▁33	-5231
▁US	-5232
▁maj	-5233
▁beli	-5234
▁real	-5235
▁Akbar	-5236
▁kuasa	-5237
▁evaluasi	-5238
▁serentak	-5239
▁Menjelang	-5240
BP	-5241
hal	-5242
▁De	-5243
itor	-5244
▁SMA	-5245
▁Jangan	-5246
▁perairan	-5247
:05	-5248
▁ID	-5249
imis	-5250
amakan	-5251
▁diran	-5252
▁daring	-5253
▁investor	-5254
▁pendapat	-5255
▁dirancang	-5256
▁mayoritas	-5257
▁memperluas	-5258
tis	-5259
abel	-5260
itim	-5261
asila	-5262
intai	-5263
▁2017	-5264
▁Luth	-5265
▁Lapas	-5266
inginan	-5267
erdekaan	-5268
▁meliputi	-5269
▁ST	-5270
▁Zul	-5271
edera	-5272
▁Rizky	-5273
▁Sidang	-5274
▁halaman	-5275
▁respons	-5276
▁penyidikan	-5277
bo	-5278
▁DIY	-5279
▁Far	-5280
▁Belum	-5281
▁Rafah	-5282
▁lebat	-5283
▁Corpor	-5284
▁migran	-5285
▁melanda	-5286
▁menahan	-5287
▁penonton	-5288
▁Fau	-5289
▁rata	-5290
andeng	-5291
ukuran	-5292
▁Hadir	-5293
▁lepas	-5294
ependen	-5295
▁diadakan	-5296
ahat	-5297
sisi	-5298
erahan	-5299
▁bintang	-5300
▁tahunan	-5301
▁mendengar	-5302
▁administrasi	-5303
link	-5304
ajian	-5305
▁2016	-5306
▁Myan	-5307
▁istr	-5308
▁tengg	-5309
iskinan	-5310
▁Bicara	-5311
▁Karang	-5312
umentasi	-5313
▁Myanmar	-5314
▁Diketahui	-5315
▁sebagaimana	-5316
BT	-5317
▁DE	-5318
▁Kun	-5319
embus	-5320
emudi	-5321
resik	-5322
▁pokok	-5323
▁arahan	-5324
▁Pengamat	-5325
▁mengucapkan	-5326
der	-5327
▁Ade	-5328
▁Cak	-5329
▁WITA	-5330
▁susu	-5331
▁Badung	-5332
▁menuduh	-5333
ph	-5334
reen	-5335
▁Mag	-5336
▁pakar	-5337
▁Capres	-5338
▁TikTok	-5339
unggulan	-5340
▁Terkait	-5341
▁berjuang	-5342
▁istrinya	-5343
▁terlebih	-5344
▁keberadaan	-5345
▁mengandung	-5346
▁penganiayaan	-5347
ink	-5348
lok	-5349
▁Av	-5350
edur	-5351
ikel	-5352
▁Emp	-5353
▁Tab	-5354
otong	-5355
▁Syah	-5356
▁maaf	-5357
▁Kabar	-5358
egritas	-5359
▁Gresik	-5360
▁meyakini	-5361
:10	-5362
ecah	-5363
idur	-5364
▁Pus	-5365
Kalau	-5366
▁Paus	-5367
edaran	-5368
▁Reskrim	-5369
▁berbagi	-5370
▁antusias	-5371
▁dijadwalkan	-5372
▁@	-5373
ejak	-5374
quez	-5375
▁KAI	-5376
asaan	-5377
onegoro	-5378
▁Jadwal	-5379
▁tembak	-5380
▁Bencana	-5381
embalikan	-5382
▁Parlemen	-5383
▁Pancasila	-5384
▁KA	-5385
alap	-5386
alog	-5387
uters	-5388
▁beserta	-5389
IM	-5390
▁Aj	-5391
▁mon	-5392
akses	-5393
entum	-5394
▁mand	-5395
aspada	-5396
▁Ketum	-5397
▁Luthfi	-5398
▁koalisi	-5399
▁komentar	-5400
▁pernikahan	-5401
▁0,	-5402
▁SU	-5403
ilir	-5404
▁Boy	-5405
idiki	-5406
▁mengatur	-5407
▁kesulitan	-5408
▁Pam	-5409
▁kak	-5410
imbol	-5411
▁beredar	-5412
gizi	-5413
▁San	-5414
▁Yah	-5415
esisir	-5416
ongkok	-5417
▁Malam	-5418
▁pasca	-5419
▁ramah	-5420
ejo	-5421
eno	-5422
tra	-5423
ikro	-5424
▁Rez	-5425
▁Divisi	-5426
asilitasi	-5427
▁gelombang	-5428
ohir	-5429
aging	-5430
ukses	-5431
▁Pand	-5432
▁Terp	-5433
▁camp	-5434
▁tamu	-5435
▁kartu	-5436
▁pasal	-5437
▁keterl	-5438
▁legisl	-5439
▁saudara	-5440
olog	-5441
ulir	-5442
▁Bukan	-5443
egangan	-5444
▁keempat	-5445
ahi	-5446
enj	-5447
▁LP	-5448
eled	-5449
▁Sch	-5450
iansi	-5451
tahun	-5452
▁bersalah	-5453
▁instansi	-5454
▁konsumsi	-5455
▁keberlanjutan	-5456
▁Ri	-5457
▁Supri	-5458
▁cerah	-5459
▁narkotika	-5460
fer	-5461
ector	-5462
ulian	-5463
▁Real	-5464
▁berc	-5465
aturahmi	-5466
▁menjual	-5467
▁Tiongkok	-5468
▁melayani	-5469
rip	-5470
▁bo	-5471
usun	-5472
▁Fin	-5473
▁adil	-5474
▁Hidup	-5475
▁level	-5476
▁minum	-5477
▁modal	-5478
hatikan	-5479
▁inisiatif	-5480
▁mengumpulkan	-5481
abut	-5482
embako	-5483
ibatan	-5484
▁puasa	-5485
angkutan	-5486
▁lanjutan	-5487
▁mengelola	-5488
▁keseluruhan	-5489
/0	-5490
vey	-5491
▁de	-5492
▁AFF	-5493
▁Rud	-5494
atalkan	-5495
▁Hidayat	-5496
sik	-5497
▁RT	-5498
iner	-5499
▁Atas	-5500
▁Jaksa	-5501
▁Italia	-5502
▁siaran	-5503
▁inflasi	-5504
▁Perdagangan	-5505
▁300	-5506
ongkar	-5507
▁Honda	-5508
▁Mapol	-5509
▁Antara	-5510
▁Manager	-5511
Ap	-5512
In	-5513
do	-5514
OGOR	-5515
edak	-5516
▁Hod	-5517
▁PNS	-5518
▁PSM	-5519
▁BOGOR	-5520
▁Banjar	-5521
▁jemaah	-5522
▁namanya	-5523
▁berjanji	-5524
▁penerima	-5525
-20	-5526
ect	-5527
▁BN	-5528
▁Yay	-5529
enakan	-5530
ulusan	-5531
▁Hanya	-5532
▁Minta	-5533
▁emisi	-5534
▁sejalan	-5535
▁perolehan	-5536
▁transparan	-5537
Pil	-5538
ary	-5539
par	-5540
▁KH	-5541
▁me	-5542
▁Akibat	-5543
▁Marquez	-5544
▁penerimaan	-5545
▁Kualifikasi	-5546
uhu	-5547
▁SO	-5548
ajat	-5549
antang	-5550
▁Bulan	-5551
▁dekade	-5552
▁berbahaya	-5553
▁tradisional	-5554
▁be	-5555
ewati	-5556
forma	-5557
mikan	-5558
indahan	-5559
▁masjid	-5560
▁berlanjut	-5561
▁membagikan	-5562
▁ac	-5563
▁Jar	-5564
▁kari	-5565
▁Hodak	-5566
▁Menko	-5567
▁palsu	-5568
▁mental	-5569
▁Yayasan	-5570
▁merusak	-5571
▁oposisi	-5572
▁telepon	-5573
-4	-5574
Tub	-5575
oll	-5576
utar	-5577
waan	-5578
▁Mosk	-5579
▁liar	-5580
▁besok	-5581
▁sepen	-5582
empuran	-5583
▁YouTub	-5584
▁keadilan	-5585
▁pedagang	-5586
▁terbatas	-5587
uit	-5588
apil	-5589
▁)",	-5590
▁top	-5591
▁tur	-5592
tivasi	-5593
▁Masih	-5594
▁Super	-5595
▁duduk	-5596
▁dirilis	-5597
▁mendatangi	-5598
▁Pengembangan	-5599
▁Perlindungan	-5600
ayam	-5601
▁Bur	-5602
▁Rom	-5603
argan	-5604
▁Lomb	-5605
endera	-5606
▁jaksa	-5607
▁Proses	-5608
▁Puncak	-5609
▁diusung	-5610
▁Selanjutnya	-5611
sos	-5612
gaja	-5613
alisis	-5614
▁Moskow	-5615
▁Pidana	-5616
▁Pramono	-5617
▁mengganggu	-5618
▁peluncuran	-5619
5.	-5620
:01	-5621
Pol	-5622
▁Dim	-5623
▁SDM	-5624
▁Prat	-5625
▁pemad	-5626
▁Sedangkan	-5627
▁berkumpul	-5628
▁tanggapan	-5629
▁Pernyataan	-5630
▁dilanjutkan	-5631
:15	-5632
tual	-5633
▁tra	-5634
uling	-5635
▁gula	-5636
▁kopi	-5637
▁pola	-5638
inggung	-5639
▁parkir	-5640
▁apalagi	-5641
▁melarang	-5642
▁tuntutan	-5643
de	-5644
:45	-5645
▁37	-5646
▁PK	-5647
oker	-5648
▁BKN	-5649
▁red	-5650
edaan	-5651
irian	-5652
roses	-5653
▁Andr	-5654
lanjut	-5655
▁sebab	-5656
atuhkan	-5657
▁dikirim	-5658
▁Fakultas	-5659
▁karakter	-5660
▁pengurus	-5661
▁prestasi	-5662
▁Pasi	-5663
▁suku	-5664
incian	-5665
▁Niaga	-5666
▁peral	-5667
▁Ribuan	-5668
▁cedera	-5669
▁gawang	-5670
▁melancarkan	-5671
BI	-5672
uci	-5673
caya	-5674
opir	-5675
teng	-5676
▁Pasukan	-5677
▁ide	-5678
▁lip	-5679
Kemen	-5680
ahana	-5681
asinya	-5682
▁Sultan	-5683
▁Kondisi	-5684
▁dipastikan	-5685
DB	-5686
rs	-5687
▁/0	-5688
awit	-5689
▁Top	-5690
atuhi	-5691
astian	-5692
▁berka	-5693
▁mengk	-5694
▁Dukung	-5695
▁penipuan	-5696
▁Organisasi	-5697
▁disebabkan	-5698
sinya	-5699
▁Kari	-5700
▁kaya	-5701
▁Pengawas	-5702
ean	-5703
▁am	-5704
unyi	-5705
▁Cina	-5706
etahuan	-5707
▁Sistem	-5708
▁Penyanyi	-5709
▁Manajemen	-5710
▁elektronik	-5711
hub	-5712
amas	-5713
erse	-5714
tris	-5715
▁Med	-5716
umuman	-5717
▁1.000	-5718
▁Thohir	-5719
▁Ky	-5720
elam	-5721
olan	-5722
unggah	-5723
▁kotak	-5724
▁Survei	-5725
▁berkat	-5726
▁lantas	-5727
ayangkan	-5728
▁Kongres	-5729
▁dialami	-5730
▁tentunya	-5731
▁perbuatan	-5732
▁optimistis	-5733
9.	-5734
HP	-5735
Dem	-5736
KPP	-5737
▁PE	-5738
▁Fad	-5739
▁Mac	-5740
asana	-5741
▁Jamb	-5742
▁Kini	-5743
▁menu	-5744
▁Wayan	-5745
▁Satpol	-5746
▁keuntungan	-5747
▁penampilan	-5748
▁Ci	-5749
antian	-5750
unting	-5751
▁Balik	-5752
▁Padahal	-5753
ermin	-5754
▁Bumi	-5755
iskusi	-5756
▁Narkoba	-5757
▁jurnalis	-5758
▁berkaitan	-5759
ago	-5760
eum	-5761
gak	-5762
▁75	-5763
▁Hy	-5764
▁Wal	-5765
▁gaya	-5766
▁darat	-5767
▁perund	-5768
▁Puluhan	-5769
▁sekadar	-5770
▁evakuasi	-5771
▁menyusul	-5772
▁unggulan	-5773
artisipasi	-5774
▁Eksekutif	-5775
▁merugikan	-5776
▁Perhubungan	-5777
500	-5778
endra	-5779
▁pemas	-5780
▁pikir	-5781
▁Satuan	-5782
▁pengendara	-5783
uto	-5784
eboh	-5785
▁Aman	-5786
▁Biak	-5787
▁Star	-5788
ebihan	-5789
tengah	-5790
▁tajam	-5791
▁diplomat	-5792
▁kekurangan	-5793
▁mengangkat	-5794
Kem	-5795
▁AL	-5796
▁Amin	-5797
▁2022,	-5798
▁Demak	-5799
▁menel	-5800
▁pensi	-5801
▁Global	-5802
▁imbang	-5803
▁normal	-5804
▁Stasiun	-5805
▁keunggulan	-5806
TS	-5807
mo	-5808
age	-5809
uali	-5810
▁Liv	-5811
▁mir	-5812
▁mur	-5813
▁suhu	-5814
▁wajah	-5815
▁Kanada	-5816
▁Honorer	-5817
▁ditutup	-5818
yarakatan	-5819
▁peneliti	-5820
▁mengancam	-5821
▁Championship	-5822
win	-5823
▁PLN	-5824
▁Sol	-5825
adiah	-5826
▁Ruang	-5827
▁NasDem	-5828
▁Rektor	-5829
▁rupiah	-5830
eportasi	-5831
▁Kapolri	-5832
▁Bengkulu	-5833
▁momentum	-5834
▁pemenang	-5835
▁Perubahan	-5836
▁wawancara	-5837
anggulangan	-5838
epak	-5839
ghan	-5840
sial	-5841
▁Tes	-5842
▁cukai	-5843
▁awalnya	-5844
▁kreatif	-5845
▁mengawal	-5846
antisipasi	-5847
▁kekalahan	-5848
▁peredaran	-5849
▁menggambarkan	-5850
▁DW	-5851
divid	-5852
▁Konf	-5853
gacara	-5854
▁garis	-5855
▁murah	-5856
▁pulau	-5857
▁unsur	-5858
▁suporter	-5859
ebon	-5860
ekad	-5861
▁Sig	-5862
▁kul	-5863
▁sim	-5864
apitu	-5865
izinkan	-5866
▁melaju	-5867
▁sarana	-5868
▁individ	-5869
▁Dukungan	-5870
▁diserahkan	-5871
oner	-5872
▁hid	-5873
itisi	-5874
▁Akhir	-5875
▁solid	-5876
uangkan	-5877
▁Afghan	-5878
▁Brasil	-5879
▁tenang	-5880
alahgunaan	-5881
▁Corporate	-5882
▁pembebasan	-5883
▁sepenuhnya	-5884
▁Afghanistan	-5885
ATO	-5886
Sem	-5887
▁PA	-5888
ella	-5889
ariah	-5890
onsel	-5891
▁khas	-5892
langkah	-5893
▁Satgas	-5894
▁Cirebon	-5895
▁subsidi	-5896
▁terkena	-5897
23	-5898
ne	-5899
lat	-5900
▁Prak	-5901
▁utang	-5902
▁Dokter	-5903
▁Ungkap	-5904
▁Gunawan	-5905
▁Reuters	-5906
▁kandang	-5907
▁independen	-5908
▁kemiskinan	-5909
▁memerintah	-5910
▁berpartisipasi	-5911
hak	-5912
▁Bu	-5913
▁Iq	-5914
ugat	-5915
utra	-5916
▁Ida	-5917
▁off	-5918
udukan	-5919
▁Studi	-5920
▁disapa	-5921
▁Gerakan	-5922
▁Kembali	-5923
▁Abdullah	-5924
▁aspirasi	-5925
▁menindak	-5926
▁penerapan	-5927
▁pencapaian	-5928
Men	-5929
izi	-5930
dian	-5931
umni	-5932
▁Leg	-5933
▁Mit	-5934
ersial	-5935
▁Dipta	-5936
▁Indah	-5937
▁Intel	-5938
▁berulang	-5939
nama	-5940
▁198	-5941
▁Eks	-5942
▁Pac	-5943
▁Rob	-5944
uliah	-5945
▁simp	-5946
▁Raffi	-5947
▁pilih	-5948
▁2024",	-5949
▁Tujuan	-5950
▁respon	-5951
▁terletak	-5952
▁pendekatan	-5953
▁sekitarnya	-5954
▁AC	-5955
aming	-5956
atikan	-5957
bankan	-5958
encang	-5959
▁Patra	-5960
▁peman	-5961
jadikan	-5962
▁menged	-5963
▁sekutu	-5964
▁mengapa	-5965
▁pakaian	-5966
▁sepakat	-5967
istribusi	-5968
▁Sebagian	-5969
▁demonstr	-5970
▁dimaksud	-5971
▁meninjau	-5972
▁Perjanjian	-5973
▁transformasi	-5974
aba	-5975
apus	-5976
▁WNA	-5977
andia	-5978
utkan	-5979
▁Grand	-5980
▁jogja	-5981
▁tidur	-5982
▁hektare	-5983
▁suasana	-5984
▁Hubungan	-5985
▁kesalahan	-5986
▁dikeluarkan	-5987
▁bersangkutan	-5988
ery	-5989
▁te	-5990
▁Eng	-5991
▁2022.	-5992
▁pindah	-5993
▁simbol	-5994
ancurkan	-5995
▁belanja	-5996
▁prosedur	-5997
▁kebebasan	-5998
▁Perwakilan	-5999
▁kompetensi	-6000
vin	-6001
etail	-6002
▁Terd	-6003
▁Awards	-6004
▁hiburan	-6005
▁singkat	-6006
▁Pemimpin	-6007
▁mewakili	-6008
▁kandungan	-6009
▁memperbaiki	-6010
use	-6011
ver	-6012
▁DPC	-6013
urang	-6014
warna	-6015
▁rute	-6016
ilaian	-6017
▁bangga	-6018
▁buatan	-6019
▁Mohammad	-6020
▁kesiapan	-6021
▁menembak	-6022
▁197	-6023
estik	-6024
▁Pegi	-6025
▁Siti	-6026
▁staf	-6027
▁Kabid	-6028
▁artis	-6029
▁bersaing	-6030
▁dimiliki	-6031
▁transisi	-6032
▁Kebudayaan	-6033
ogan	-6034
tiba	-6035
-2024	-6036
ainya	-6037
vesti	-6038
▁Raja	-6039
▁asli	-6040
ristek	-6041
▁Bapak	-6042
▁Presi	-6043
▁keter	-6044
▁membela	-6045
▁Kebijakan	-6046
▁pencegahan	-6047
▁keberhasilan	-6048
-0	-6049
LA	-6050
bum	-6051
▁co	-6052
▁sh	-6053
▁Dib	-6054
▁kamu	-6055
▁Tewas	-6056
▁bekas	-6057
▁bukanlah	-6058
▁panggilan	-6059
▁menyaksikan	-6060
▁Ob	-6061
/202	-6062
kiri	-6063
rafi	-6064
▁Mon	-6065
▁rah	-6066
nilai	-6067
▁Staf	-6068
alonan	-6069
▁Upaya	-6070
▁dinam	-6071
▁Alasan	-6072
▁memantau	-6073
▁Rach	-6074
encanakan	-6075
▁Aparatur	-6076
▁Sehingga	-6077
▁mendalam	-6078
ikbudristek	-6079
▁pelantikan	-6080
▁menandatangani	-6081
▁TV	-6082
▁Ria	-6083
▁Yong	-6084
ajurit	-6085
itamin	-6086
▁tutup	-6087
▁Fraksi	-6088
▁parpol	-6089
▁Apalagi	-6090
gia	-6091
▁AM	-6092
▁la	-6093
ftar	-6094
▁Muk	-6095
▁Pon	-6096
▁web	-6097
umpah	-6098
adaran	-6099
itraan	-6100
▁Pakar	-6101
▁Kristi	-6102
▁populer	-6103
erlakukan	-6104
▁dikonfirmasi	-6105
SR	-6106
▁pad	-6107
ilaku	-6108
▁sepuluh	-6109
▁produsen	-6110
▁pembukaan	-6111
▁distribusi	-6112
▁konstitusi	-6113
▁penembakan	-6114
▁penyalahgunaan	-6115
▁Wib	-6116
▁doa	-6117
▁Hong	-6118
▁John	-6119
▁NATO	-6120
▁adik	-6121
▁berst	-6122
▁Barang	-6123
lihatkan	-6124
▁terluka	-6125
▁mengarah	-6126
▁memperlihatkan	-6127
uro	-6128
onny	-6129
▁teb	-6130
▁parah	-6131
▁Energi	-6132
▁Dh	-6133
▁IV	-6134
▁Had	-6135
▁Log	-6136
Untuk	-6137
imbang	-6138
▁beban	-6139
▁Wisata	-6140
▁terbar	-6141
UI	-6142
:20	-6143
:35	-6144
esh	-6145
▁AH	-6146
▁Ud	-6147
alas	-6148
▁Bert	-6149
▁Sama	-6150
▁sent	-6151
eklaim	-6152
▁rekor	-6153
▁temuan	-6154
▁Pegawai	-6155
▁penutup	-6156
▁pembicaraan	-6157
▁serangkaian	-6158
▁penghitungan	-6159
▁Teh	-6160
adari	-6161
tidak	-6162
▁Baik	-6163
▁Masa	-6164
▁ayat	-6165
▁Iqbal	-6166
engketa	-6167
▁Paslon	-6168
▁berpend	-6169
▁tanaman	-6170
:07	-6171
van	-6172
▁Ot	-6173
▁Hel	-6174
▁div	-6175
▁PSBS	-6176
▁Pagi	-6177
▁RSUD	-6178
▁medali	-6179
▁Relawan	-6180
▁asuransi	-6181
▁miliknya	-6182
▁dihubungi	-6183
▁perbedaan	-6184
DA	-6185
ading	-6186
▁Sand	-6187
▁sapi	-6188
lantas	-6189
okerto	-6190
▁sayap	-6191
▁ramalan	-6192
▁melewati	-6193
ria	-6194
impa	-6195
alasi	-6196
▁Keber	-6197
▁menga	-6198
ensitas	-6199
▁Pejabat	-6200
▁kabinet	-6201
▁larangan	-6202
▁panggung	-6203
▁Bagaimana	-6204
▁Pelayanan	-6205
▁membuktikan	-6206
TN	-6207
ift	-6208
iss	-6209
mart	-6210
▁Bud	-6211
▁Off	-6212
imbah	-6213
▁persa	-6214
▁binaan	-6215
▁cabang	-6216
▁Muhaimin	-6217
▁internet	-6218
▁dijadikan	-6219
▁pembelian	-6220
▁diprediksi	-6221
▁mengeklaim	-6222
KD	-6223
alo	-6224
eksp	-6225
elih	-6226
▁SMP	-6227
iness	-6228
unkan	-6229
▁bent	-6230
▁bila	-6231
▁Pupuk	-6232
lanjuti	-6233
▁Pengel	-6234
▁Seluruh	-6235
▁merujuk	-6236
▁sembako	-6237
▁menyalurkan	-6238
KM	-6239
even	-6240
▁Nug	-6241
turut	-6242
▁fase	-6243
▁layar	-6244
anjangan	-6245
▁terduga	-6246
▁berwarna	-6247
▁mengungsi	-6248
▁tergabung	-6249
esa	-6250
jur	-6251
mah	-6252
amad	-6253
wira	-6254
▁Purn	-6255
▁cuma	-6256
ajiban	-6257
▁Nikita	-6258
▁contoh	-6259
▁kanker	-6260
encanaan	-6261
▁peralatan	-6262
▁menghormati	-6263
mer	-6264
mil	-6265
▁Fa	-6266
▁Kud	-6267
yukur	-6268
▁Surya	-6269
▁Series	-6270
▁individu	-6271
▁membunuh	-6272
▁Pemerintahan	-6273
aper	-6274
olik	-6275
▁Sap	-6276
▁Ven	-6277
▁kas	-6278
ajari	-6279
kanan	-6280
▁Dani	-6281
erakan	-6282
▁Rencana	-6283
▁keterlibatan	-6284
2,	-6285
Ada	-6286
▁fr	-6287
▁def	-6288
▁dew	-6289
akkan	-6290
ukiman	-6291
▁bermula	-6292
▁samping	-6293
pos	-6294
yal	-6295
▁39	-6296
ahap	-6297
▁Amb	-6298
▁Tip	-6299
▁Sang	-6300
▁roda	-6301
▁dijalan	-6302
▁kencang	-6303
▁sengaja	-6304
▁menjalin	-6305
-5	-6306
mu	-6307
va	-6308
ico	-6309
sih	-6310
▁FI	-6311
Kita	-6312
▁AFP	-6313
▁Eko	-6314
ektif	-6315
ikiran	-6316
osikan	-6317
▁versi	-6318
▁wujud	-6319
▁Banjir	-6320
▁hadiah	-6321
▁bertambah	-6322
▁institusi	-6323
▁perguruan	-6324
▁tenggelam	-6325
▁55	-6326
deka	-6327
endi	-6328
lien	-6329
minal	-6330
tinya	-6331
Dengan	-6332
▁daging	-6333
▁mengkl	-6334
▁ketahanan	-6335
▁pelabuhan	-6336
▁kenyamanan	-6337
▁pengetahuan	-6338
▁menceritakan	-6339
:50	-6340
erus	-6341
▁Cib	-6342
▁kam	-6343
▁tab	-6344
endam	-6345
▁otor	-6346
▁suka	-6347
▁umur	-6348
▁memer	-6349
▁pakai	-6350
▁Praset	-6351
▁Institute	-6352
▁kecepatan	-6353
▁memanggil	-6354
▁diterapkan	-6355
▁partisipasi	-6356
▁berkoordinasi	-6357
4.	-6358
▁Api	-6359
▁Gab	-6360
▁Soc	-6361
▁Sent	-6362
▁Thom	-6363
▁Allah	-6364
▁ditud	-6365
▁event	-6366
▁Listrik	-6367
▁imbuhnya	-6368
▁performa	-6369
fasilitasi	-6370
▁Pelaksana	-6371
▁pertempuran	-6372
▁menggantikan	-6373
BC	-6374
FA	-6375
MA	-6376
WA	-6377
bol	-6378
inci	-6379
pura	-6380
olahan	-6381
▁rekaman	-6382
▁terbakar	-6383
CTV	-6384
▁6,	-6385
▁Bet	-6386
▁Sec	-6387
▁pinj	-6388
▁Blink	-6389
▁dikab	-6390
▁Market	-6391
▁Tindak	-6392
▁baterai	-6393
▁berdiri	-6394
▁domestik	-6395
▁keinginan	-6396
▁kedatangan	-6397
▁Jon	-6398
▁gun	-6399
aktif	-6400
▁Awal	-6401
▁kedi	-6402
▁raya	-6403
ovatif	-6404
▁Gusti	-6405
▁Siang	-6406
▁lolos	-6407
▁rawan	-6408
▁saham	-6409
▁dilihat	-6410
arifikasi	-6411
▁kediaman	-6412
▁regional	-6413
▁sampaikan	-6414
▁sedikitnya	-6415
▁Perekonomian	-6416
▁Jor	-6417
▁Zoni	-6418
▁kira	-6419
▁Komun	-6420
▁Riset	-6421
▁petir	-6422
eberkan	-6423
▁usulan	-6424
▁minimal	-6425
vestigasi	-6426
▁menurutnya	-6427
▁(0	-6428
▁CO	-6429
▁All	-6430
▁Ast	-6431
▁Hout	-6432
urusan	-6433
anjikan	-6434
▁berani	-6435
egawaian	-6436
apitulasi	-6437
romosikan	-6438
▁unggahan	-6439
pl	-6440
Sel	-6441
ith	-6442
▁kub	-6443
omotif	-6444
▁Batam	-6445
▁detik	-6446
▁silam	-6447
▁Persik	-6448
▁lantai	-6449
▁memben	-6450
▁pengec	-6451
▁setara	-6452
▁hadapan	-6453
▁Anggaran	-6454
▁Keduanya	-6455
▁kompleks	-6456
▁penggemar	-6457
▁ketegangan	-6458
▁mendampingi	-6459
ife	-6460
▁Ko	-6461
▁ko	-6462
▁na	-6463
zani	-6464
▁Dil	-6465
▁kosong	-6466
▁Blinken	-6467
▁jantung	-6468
▁dikelola	-6469
▁kesadaran	-6470
▁penindakan	-6471
▁mengantisipasi	-6472
Muh	-6473
▁AP	-6474
▁Mur	-6475
▁Said	-6476
▁putr	-6477
▁belah	-6478
▁malah	-6479
▁pemer	-6480
▁pupuk	-6481
yaratan	-6482
▁elemen	-6483
▁kritik	-6484
▁bergizi	-6485
▁ditanya	-6486
▁jaminan	-6487
▁vitamin	-6488
:02	-6489
dan	-6490
ambu	-6491
▁cerita	-6492
▁majelis	-6493
▁terbang	-6494
▁diangkat	-6495
▁pencalonan	-6496
▁diluncurkan	-6497
ajer	-6498
info	-6499
ukkan	-6500
▁Beri	-6501
▁Wong	-6502
adaian	-6503
ungkas	-6504
▁Bisnis	-6505
▁Lombok	-6506
▁Madrid	-6507
▁pengaj	-6508
esuaikan	-6509
ombongan	-6510
▁bandara	-6511
▁seiring	-6512
encananya	-6513
▁kondusif	-6514
▁setengah	-6515
▁prakiraan	-6516
2.	-6517
/2)	-6518
aras	-6519
▁Ach	-6520
▁Gor	-6521
▁Kont	-6522
▁dekl	-6523
asihat	-6524
▁Found	-6525
▁takut	-6526
▁kredit	-6527
inansial	-6528
integrasi	-6529
▁Demokrasi	-6530
▁Sr	-6531
▁bul	-6532
▁Tali	-6533
▁Fauzi	-6534
▁Blitar	-6535
▁Telkom	-6536
▁metode	-6537
▁menyimp	-6538
▁Pengurus	-6539
▁dihadapi	-6540
▁intelijen	-6541
▁Kemenangan	-6542
▁Ur	-6543
allah	-6544
egasi	-6545
▁1445	-6546
▁Cian	-6547
▁Made	-6548
faatan	-6549
isaris	-6550
antauan	-6551
panjang	-6552
▁Houthi	-6553
ternatif	-6554
▁Cianjur	-6555
▁Pelangg	-6556
▁berkata	-6557
▁Pertemuan	-6558
▁melarikan	-6559
se	-6560
cel	-6561
▁We	-6562
▁Bin	-6563
▁Alam	-6564
▁Bayu	-6565
▁Kart	-6566
utrisi	-6567
alaupun	-6568
▁Fransis	-6569
▁Penelit	-6570
▁diumumkan	-6571
▁pengadaan	-6572
▁mempercepat	-6573
-6	-6574
rad	-6575
▁48	-6576
▁Ni	-6577
▁Bag	-6578
▁Las	-6579
▁kok	-6580
▁out	-6581
oskop	-6582
▁Geor	-6583
▁Olah	-6584
▁Wahyu	-6585
ambatan	-6586
▁Koster	-6587
▁dewasa	-6588
▁dipilih	-6589
▁negatif	-6590
▁penjaga	-6591
▁Kebakaran	-6592
▁deklarasi	-6593
▁penegakan	-6594
.,	-6595
UN	-6596
▁USD	-6597
▁Vol	-6598
isten	-6599
otongan	-6600
▁Tenaga	-6601
▁Pekerja	-6602
▁ditunjuk	-6603
▁pengakuan	-6604
ES	-6605
ler	-6606
▁Saf	-6607
▁Maka	-6608
ammadi	-6609
▁Arief	-6610
▁Video	-6611
▁mekan	-6612
▁aliran	-6613
▁urusan	-6614
▁Koalisi	-6615
▁bersifat	-6616
▁depannya	-6617
▁Pegadaian	-6618
▁intensitas	-6619
hy	-6620
vo	-6621
:40	-6622
daul	-6623
eret	-6624
oket	-6625
isihan	-6626
▁Kudus	-6627
▁skala	-6628
▁terpaksa	-6629
▁berstatus	-6630
Al	-6631
▁ri	-6632
▁Jak	-6633
▁bij	-6634
entian	-6635
▁dolar	-6636
▁sopir	-6637
▁gudang	-6638
▁Bintang	-6639
▁teroris	-6640
▁berfokus	-6641
▁kriminal	-6642
▁terungkap	-6643
GM	-6644
ereb	-6645
▁Pec	-6646
ustin	-6647
ahtera	-6648
▁Skuad	-6649
▁pemul	-6650
▁tangk	-6651
▁Ketiga	-6652
▁pidato	-6653
indahkan	-6654
▁optimal	-6655
▁Pihaknya	-6656
▁bersyukur	-6657
Di	-6658
erm	-6659
imia	-6660
ipta	-6661
ocok	-6662
ster	-6663
▁1.2	-6664
▁Bak	-6665
▁Kasi	-6666
▁Otor	-6667
▁kayu	-6668
▁lini	-6669
▁mayat	-6670
▁patroli	-6671
▁dilengkapi	-6672
▁penjelasan	-6673
An	-6674
EMB	-6675
▁PD	-6676
▁ge	-6677
enuhi	-6678
uduki	-6679
barang	-6680
▁Bojan	-6681
▁pingg	-6682
agamaan	-6683
▁sinergi	-6684
▁Kecelakaan	-6685
▁stabilitas	-6686
nop	-6687
▁Jab	-6688
ution	-6689
▁Park	-6690
▁lemb	-6691
ografi	-6692
▁Empat	-6693
▁Lewat	-6694
ahirkan	-6695
▁Reserse	-6696
▁Soekarno	-6697
▁angkatan	-6698
▁penilaian	-6699
▁menginginkan	-6700
▁menghancurkan	-6701
HR	-6702
Pj	-6703
bah	-6704
rop	-6705
alif	-6706
▁Inf	-6707
▁Iwan	-6708
eskrim	-6709
▁Angka	-6710
▁brand	-6711
▁jejak	-6712
▁komod	-6713
▁memad	-6714
▁pesta	-6715
▁tersi	-6716
▁Setiap	-6717
▁televisi	-6718
▁pandangan	-6719
▁berkunjung	-6720
▁memerintahkan	-6721
ague	-6722
▁ris	-6723
▁klien	-6724
▁kuota	-6725
isasikan	-6726
▁mengusulkan	-6727
ide	-6728
▁Yord	-6729
▁setu	-6730
▁unik	-6731
▁Garut	-6732
▁dijual	-6733
▁ponsel	-6734
ancangan	-6735
▁tampaknya	-6736
asyarakatan	-6737
▁memproduksi	-6738
MS	-6739
▁44	-6740
▁AD	-6741
▁Lu	-6742
omba	-6743
▁TKP	-6744
▁bang	-6745
▁akbar	-6746
▁Publik	-6747
▁menaik	-6748
▁pandemi	-6749
erifikasi	-6750
▁menyadari	-6751
▁diungkapkan	-6752
PM	-6753
lil	-6754
▁Rev	-6755
▁bet	-6756
▁Flor	-6757
uwangi	-6758
▁Semen	-6759
adangan	-6760
▁limbah	-6761
▁berawal	-6762
▁menikah	-6763
▁menyita	-6764
▁inovatif	-6765
▁menandai	-6766
POK	-6767
taw	-6768
▁43	-6769
ondo	-6770
yong	-6771
▁AMI	-6772
▁Maul	-6773
eteksi	-6774
umbang	-6775
▁Brand	-6776
▁Sipil	-6777
▁diatur	-6778
▁penyelund	-6779
bi	-6780
adak	-6781
▁Head	-6782
▁Sugi	-6783
ayangk	-6784
▁Jambi	-6785
▁Bahlil	-6786
▁mengisi	-6787
▁disabilitas	-6788
▁mempromosikan	-6789
abet	-6790
omen	-6791
▁Jas	-6792
▁sor	-6793
▁CCTV	-6794
▁jual	-6795
acakan	-6796
eksiko	-6797
▁DEPOK	-6798
▁mewah	-6799
▁Apakah	-6800
▁YouTube	-6801
▁setahun	-6802
▁Kapolsek	-6803
▁finansial	-6804
▁Banyuwangi	-6805
osan	-6806
ubis	-6807
▁Kre	-6808
ening	-6809
iaran	-6810
▁Perb	-6811
▁forum	-6812
▁kapan	-6813
▁Ronald	-6814
▁Pariwisata	-6815
▁Mor	-6816
eleng	-6817
uskan	-6818
▁Hind	-6819
arahan	-6820
▁dosen	-6821
noputri	-6822
ammadiyah	-6823
▁menjamin	-6824
▁Investasi	-6825
▁legislatif	-6826
▁Kepegawaian	-6827
▁persyaratan	-6828
▁Muhammadiyah	-6829
rok	-6830
▁km	-6831
ersih	-6832
▁Mari	-6833
▁Tata	-6834
angkal	-6835
isinya	-6836
▁latar	-6837
▁santri	-6838
▁setuju	-6839
▁ledakan	-6840
▁penegak	-6841
▁Bhayangk	-6842
▁pengemudi	-6843
▁pertimbangan	-6844
▁menyelamatkan	-6845
RC	-6846
oyo	-6847
arep	-6848
sion	-6849
▁150	-6850
▁Day	-6851
▁Seg	-6852
▁Zel	-6853
▁hel	-6854
inang	-6855
produk	-6856
▁asasi	-6857
▁Pondok	-6858
▁karbon	-6859
▁mendek	-6860
▁hasilnya	-6861
▁Penanggulangan	-6862
.0	-6863
AH	-6864
pto	-6865
ikor	-6866
mada	-6867
▁Han	-6868
▁rob	-6869
antam	-6870
igasi	-6871
▁Anas	-6872
▁What	-6873
▁main	-6874
▁Habib	-6875
▁Sigit	-6876
endalian	-6877
ungkapan	-6878
▁menempatkan	-6879
mur	-6880
▁PU	-6881
▁Buk	-6882
▁Nag	-6883
▁Rub	-6884
▁Emil	-6885
▁Imin	-6886
▁butuh	-6887
atatkan	-6888
egaraan	-6889
ertiban	-6890
▁Olahraga	-6891
ID	-6892
-10	-6893
▁Laga	-6894
▁Komite	-6895
▁Sekitar	-6896
▁jembatan	-6897
▁kewenangan	-6898
▁kontestasi	-6899
▁meningkatnya	-6900
ool	-6901
▁AT	-6902
▁App	-6903
▁Oper	-6904
▁Matar	-6905
residen	-6906
▁semacam	-6907
▁stasiun	-6908
▁Director	-6909
▁stunting	-6910
▁Persatuan	-6911
Kar	-6912
▁ta	-6913
emat	-6914
enom	-6915
umpa	-6916
▁Bey	-6917
▁land	-6918
▁Fajar	-6919
▁skema	-6920
▁Dirjen	-6921
▁bahaya	-6922
▁kelola	-6923
▁Harapan	-6924
▁Mirzani	-6925
▁menulis	-6926
▁Asosiasi	-6927
▁kewajiban	-6928
CC	-6929
inja	-6930
▁PPN	-6931
▁Por	-6932
▁Tar	-6933
▁Sport	-6934
▁dipert	-6935
▁Lestari	-6936
▁kekayaan	-6937
▁sengketa	-6938
▁melainkan	-6939
▁pembiayaan	-6940
obi	-6941
oma	-6942
▁ho	-6943
iker	-6944
▁dak	-6945
▁agen	-6946
▁sela	-6947
ecehan	-6948
esaian	-6949
▁Istri	-6950
▁struk	-6951
▁Wanita	-6952
▁Serentak	-6953
▁kemudahan	-6954
▁integritas	-6955
▁Soekarnoputri	-6956
WF	-6957
Set	-6958
▁Tj	-6959
▁fl	-6960
▁196	-6961
▁PAL	-6962
aduan	-6963
▁imbuh	-6964
▁janji	-6965
ahlawan	-6966
▁Aktris	-6967
enderung	-6968
▁merebut	-6969
▁saluran	-6970
▁Yordania	-6971
▁melintas	-6972
▁mengawasi	-6973
▁penguatan	-6974
▁rekapitulasi	-6975
eu	-6976
ume	-6977
▁PM	-6978
▁Cel	-6979
▁Ded	-6980
▁Sut	-6981
▁pah	-6982
emuka	-6983
▁Lima	-6984
▁Tech	-6985
▁diman	-6986
▁riset	-6987
angsaan	-6988
▁Herman	-6989
▁Terima	-6990
▁kemasan	-6991
endalikan	-6992
▁alternatif	-6993
EC	-6994
▁Os	-6995
▁Aku	-6996
▁Cup	-6997
▁Roy	-6998
▁gim	-6999
ontak	-7000
▁ayam	-7001
▁sisa	-7002
udahkan	-7003
▁Rahmat	-7004
▁Sumbar	-7005
▁berapa	-7006
▁mengad	-7007
▁timnas	-7008
ampingan	-7009
▁terkenal	-7010
▁mengundang	-7011
▁memperkirakan	-7012
abi	-7013
ular	-7014
▁Bay	-7015
ujung	-7016
▁kian	-7017
▁League	-7018
▁Lintas	-7019
▁Zelens	-7020
juangkan	-7021
▁Penting	-7022
▁Taliban	-7023
▁dirawat	-7024
▁Kriminal	-7025
▁dilarang	-7026
▁perilaku	-7027
▁mengevakuasi	-7028
SIS	-7029
▁Kul	-7030
▁Lan	-7031
▁PNM	-7032
▁teh	-7033
ander	-7034
otaan	-7035
▁2015	-7036
▁Vina	-7037
aluran	-7038
▁lulusan	-7039
▁sebelah	-7040
▁bertahun	-7041
▁kualifikasi	-7042
apar	-7043
itya	-7044
onen	-7045
▁Fre	-7046
▁tuk	-7047
anaan	-7048
papan	-7049
▁Dhar	-7050
▁Kadin	-7051
iansyah	-7052
yaallah	-7053
▁stabil	-7054
▁Buleleng	-7055
▁struktur	-7056
▁komoditas	-7057
FI	-7058
▁Mu	-7059
amer	-7060
ental	-7061
idasi	-7062
▁AMIN	-7063
▁Hulu	-7064
evelop	-7065
engaruh	-7066
▁Rohing	-7067
▁Trengg	-7068
▁Kabinet	-7069
▁Hartarto	-7070
▁pengaruh	-7071
▁bertindak	-7072
▁cenderung	-7073
▁Balikpapan	-7074
▁persaingan	-7075
OM	-7076
RS	-7077
:33	-7078
ost	-7079
▁Vs	-7080
dent	-7081
▁Sai	-7082
Tidak	-7083
▁ASDP	-7084
▁Stef	-7085
kesmas	-7086
▁aktor	-7087
aliknya	-7088
▁Mataram	-7089
▁disambut	-7090
▁kecurangan	-7091
andatanganan	-7092
▁kemerdekaan	-7093
alak	-7094
egan	-7095
▁Feb	-7096
▁SER	-7097
urasi	-7098
▁2045	-7099
▁Ilmu	-7100
▁Reza	-7101
▁vaks	-7102
Karena	-7103
ahasan	-7104
▁Whats	-7105
▁habis	-7106
▁Bagian	-7107
▁massal	-7108
erminkan	-7109
▁memakai	-7110
▁menyelidiki	-7111
▁pembentukan	-7112
▁mencerminkan	-7113
:31	-7114
▁um	-7115
▁Tir	-7116
▁jas	-7117
ingat	-7118
vitas	-7119
▁Paul	-7120
▁ganja	-7121
epaskan	-7122
umpulan	-7123
▁mengkr	-7124
▁tayang	-7125
▁Inovasi	-7126
▁bersiap	-7127
▁mineral	-7128
▁spesial	-7129
residenan	-7130
▁literasi	-7131
▁pemulihan	-7132
▁Purwakarta	-7133
:03	-7134
PBN	-7135
awe	-7136
tag	-7137
▁Bor	-7138
▁Sor	-7139
▁kun	-7140
arung	-7141
engka	-7142
▁Nama	-7143
▁Ryan	-7144
▁gizi	-7145
▁Teguh	-7146
▁kuliah	-7147
▁gerimis	-7148
▁pesisir	-7149
▁pilpres	-7150
▁Rohingya	-7151
▁pesantren	-7152
▁dikabarkan	-7153
▁implementasi	-7154
als	-7155
ams	-7156
zal	-7157
BMKG	-7158
adis	-7159
▁gar	-7160
itaan	-7161
▁KUHP	-7162
etakan	-7163
▁Coach	-7164
erjakan	-7165
▁Lokasi	-7166
▁berman	-7167
ingginya	-7168
▁Meksiko	-7169
▁Regional	-7170
▁menabrak	-7171
▁dipanggil	-7172
▁memajukan	-7173
▁Fransiskus	-7174
▁belakangan	-7175
▁pembatasan	-7176
ss	-7177
:56	-7178
▁Pe	-7179
▁Cim	-7180
▁Yun	-7181
▁dep	-7182
apaan	-7183
▁Bikin	-7184
▁Harus	-7185
▁Juara	-7186
▁Total	-7187
▁Yusuf	-7188
▁bunuh	-7189
▁panen	-7190
▁Daftar	-7191
estinasi	-7192
gagalkan	-7193
▁ataupun	-7194
▁gagasan	-7195
▁menemui	-7196
hawatirkan	-7197
▁pengobatan	-7198
EA	-7199
▁41	-7200
▁Ay	-7201
▁Ge	-7202
▁IS	-7203
ATEN	-7204
andu	-7205
opol	-7206
ansos	-7207
utasi	-7208
▁Seni	-7209
▁alih	-7210
▁Ammar	-7211
▁Andre	-7212
▁objek	-7213
▁Deputi	-7214
▁analis	-7215
▁berkas	-7216
▁jutaan	-7217
▁banding	-7218
▁pemangku	-7219
▁Peristiwa	-7220
▁memainkan	-7221
▁menentang	-7222
▁pembuatan	-7223
▁terbanyak	-7224
eklarasikan	-7225
igi	-7226
wono	-7227
▁250	-7228
▁tas	-7229
inter	-7230
opter	-7231
▁BPJS	-7232
▁SOLO	-7233
▁prom	-7234
▁Tugas	-7235
▁parta	-7236
aparkan	-7237
▁Katolik	-7238
▁bendera	-7239
▁pemudik	-7240
evelopment	-7241
BH	-7242
App	-7243
trik	-7244
ujur	-7245
▁Ann	-7246
▁Cek	-7247
▁KAB	-7248
▁Lum	-7249
▁cel	-7250
icial	-7251
ubung	-7252
▁Dian	-7253
▁Khan	-7254
▁Waktu	-7255
▁denda	-7256
enomena	-7257
▁Batang	-7258
▁Tempat	-7259
ilangkan	-7260
▁berlaga	-7261
▁kuliner	-7262
▁nutrisi	-7263
▁Kompleks	-7264
▁Bareskrim	-7265
▁reformasi	-7266
▁memfasilitasi	-7267
alk	-7268
ilat	-7269
▁Moj	-7270
▁Tas	-7271
▁bom	-7272
▁Hani	-7273
▁Iptu	-7274
▁Raih	-7275
▁medi	-7276
anggih	-7277
elapan	-7278
▁Benny	-7279
▁Willi	-7280
▁ganda	-7281
▁kisah	-7282
▁mikro	-7283
▁motif	-7284
▁konsul	-7285
▁kendala	-7286
▁pensiun	-7287
▁Jayapura	-7288
▁perempat	-7289
▁partainya	-7290
aia	-7291
pel	-7292
▁KTT	-7293
▁Let	-7294
▁PMI	-7295
▁est	-7296
▁Kuta	-7297
aptasi	-7298
▁Halil	-7299
alonkan	-7300
edulian	-7301
tifikat	-7302
▁itulah	-7303
▁seluas	-7304
▁derajat	-7305
iversitas	-7306
untungkan	-7307
▁Zelensky	-7308
▁Halilintar	-7309
▁mempengaruhi	-7310
OT	-7311
▁47	-7312
▁XX	-7313
Emil	-7314
ihal	-7315
▁Wat	-7316
▁anj	-7317
▁Bima	-7318
▁Mark	-7319
▁Irwan	-7320
abiskan	-7321
intangi	-7322
program	-7323
▁Cabang	-7324
▁Reformasi	-7325
▁menguasai	-7326
▁pemahaman	-7327
▁dievakuasi	-7328
▁menggandeng	-7329
nai	-7330
▁Lee	-7331
ayung	-7332
wujud	-7333
▁Form	-7334
▁Mits	-7335
▁Putu	-7336
edikasi	-7337
▁Pangarep	-7338
▁WhatsApp	-7339
▁terdekat	-7340
▁Kristiyanto	-7341
5/	-7342
:12	-7343
▁7,	-7344
emas	-7345
▁Tul	-7346
emium	-7347
▁Expo	-7348
usuhan	-7349
▁deras	-7350
alengka	-7351
▁karier	-7352
▁perahu	-7353
▁mandiri	-7354
▁Business	-7355
▁mengguyur	-7356
▁sambungnya	-7357
▁mencatatkan	-7358
▁mengonfirmasi	-7359
:17	-7360
▁ES	-7361
▁Lo	-7362
alek	-7363
ight	-7364
ikul	-7365
rana	-7366
▁bas	-7367
ealth	-7368
▁Asep	-7369
▁Bahr	-7370
▁Gede	-7371
▁Juta	-7372
▁Mall	-7373
▁baku	-7374
olakan	-7375
▁Risma	-7376
▁Teuku	-7377
▁album	-7378
▁bikin	-7379
▁manis	-7380
olidasi	-7381
▁Pratama	-7382
▁pelamar	-7383
▁2024/202	-7384
▁pengawas	-7385
▁pengacara	-7386
▁bermanfaat	-7387
▁Bhayangkara	-7388
:37	-7389
ody	-7390
tek	-7391
▁Ba	-7392
▁Do	-7393
▁Mi	-7394
alti	-7395
oksi	-7396
uban	-7397
▁pus	-7398
enial	-7399
▁Berl	-7400
▁Biro	-7401
UPATEN	-7402
▁Masuk	-7403
▁cerai	-7404
▁dewan	-7405
ampanye	-7406
erlukan	-7407
▁sebaik	-7408
eledahan	-7409
▁Merdeka	-7410
▁KABUPATEN	-7411
▁memerlukan	-7412
▁Alhamdulillah	-7413
:09	-7414
▁58	-7415
umbu	-7416
inggo	-7417
risti	-7418
▁ekst	-7419
▁Thomas	-7420
▁penger	-7421
▁tawuran	-7422
▁terkini	-7423
▁Misalnya	-7424
▁tembakan	-7425
▁ditangani	-7426
▁efisiensi	-7427
▁pengumuman	-7428
▁menghubungi	-7429
-79	-7430
:55	-7431
▁Gu	-7432
▁Manc	-7433
▁cita	-7434
timewa	-7435
▁Konser	-7436
▁kritis	-7437
▁Artinya	-7438
▁Istimewa	-7439
▁prajurit	-7440
▁pelecehan	-7441
▁membatalkan	-7442
▁silaturahmi	-7443
▁pertambangan	-7444
▁pemberantasan	-7445
yb	-7446
:59	-7447
fan	-7448
fri	-7449
nal	-7450
rus	-7451
inda	-7452
omod	-7453
ture	-7454
▁Jat	-7455
▁Red	-7456
▁Run	-7457
▁pra	-7458
▁2014	-7459
▁Port	-7460
▁Inter	-7461
▁Kuasa	-7462
▁Rutan	-7463
asarnas	-7464
etujuan	-7465
▁kurban	-7466
▁umumnya	-7467
▁terancam	-7468
▁Perumahan	-7469
▁mengklaim	-7470
:04	-7471
ogle	-7472
roho	-7473
sari	-7474
▁NTT	-7475
▁Ahli	-7476
▁Zain	-7477
▁sawit	-7478
arganya	-7479
ebarkan	-7480
ikopter	-7481
▁Edward	-7482
▁efisien	-7483
▁Pasuruan	-7484
▁otomotif	-7485
▁otoritas	-7486
▁terpisah	-7487
▁diperoleh	-7488
▁mekanisme	-7489
▁memudahkan	-7490
▁dimanfaatkan	-7491
ike	-7492
over	-7493
▁mor	-7494
▁rez	-7495
▁puas	-7496
▁Diper	-7497
▁Udara	-7498
▁buruh	-7499
▁modus	-7500
▁pemak	-7501
▁setia	-7502
erdasan	-7503
▁enggan	-7504
▁ruangan	-7505
▁berpikir	-7506
▁direktur	-7507
▁pinjaman	-7508
▁Pemenangan	-7509
▁melahirkan	-7510
▁universitas	-7511
:25	-7512
adik	-7513
isar	-7514
▁rum	-7515
onasi	-7516
▁Sore	-7517
▁lipat	-7518
intasan	-7519
▁Proyek	-7520
▁rentan	-7521
atangkan	-7522
▁Distrik	-7523
▁Ternyata	-7524
▁properti	-7525
▁keagamaan	-7526
▁penahanan	-7527
▁penutupan	-7528
▁memperhatikan	-7529
pu	-7530
▁no	-7531
ambo	-7532
andy	-7533
ling	-7534
usul	-7535
▁Chi	-7536
▁Riv	-7537
▁Jemb	-7538
▁Uang	-7539
ilitas	-7540
malkan	-7541
▁mahal	-7542
▁padat	-7543
▁dingin	-7544
Muhaimin	-7545
arapidana	-7546
▁aparatur	-7547
▁populasi	-7548
aperadilan	-7549
▁Kendaraan	-7550
▁menyetujui	-7551
▁demonstrasi	-7552
▁Plt	-7553
ihkan	-7554
ompet	-7555
▁match	-7556
▁Basuki	-7557
▁dialog	-7558
▁Santoso	-7559
▁ayahnya	-7560
eberangan	-7561
▁Trenggalek	-7562
▁berpendapat	-7563
▁memperingati	-7564
▁ex	-7565
Dari	-7566
itif	-7567
▁Fik	-7568
▁Ver	-7569
iskin	-7570
minya	-7571
▁Buka	-7572
▁Ratu	-7573
▁etik	-7574
atuhan	-7575
ebunan	-7576
▁betul	-7577
▁caleg	-7578
▁Achmad	-7579
▁Commun	-7580
▁agresi	-7581
▁markas	-7582
▁memuji	-7583
angkitan	-7584
▁Sumatra	-7585
▁Jembrana	-7586
▁perbankan	-7587
▁responden	-7588
▁mengerahkan	-7589
-16	-7590
:08	-7591
▁'.	-7592
▁IN	-7593
▁pi	-7594
Saat	-7595
essi	-7596
olly	-7597
▁400	-7598
▁Kir	-7599
▁say	-7600
▁Cent	-7601
▁Heru	-7602
iarkan	-7603
sekusi	-7604
▁Teluk	-7605
▁Google	-7606
▁Kamala	-7607
▁apapun	-7608
untaskan	-7609
▁mencuri	-7610
▁Terlebih	-7611
▁beasiswa	-7612
▁festival	-7613
▁tepatnya	-7614
▁dirasakan	-7615
▁menderita	-7616
▁rombongan	-7617
▁menjatuhkan	-7618
▁?"	-7619
▁by	-7620
apur	-7621
▁Gil	-7622
▁Jen	-7623
▁Plus	-7624
▁Rudy	-7625
▁lari	-7626
ention	-7627
bolinggo	-7628
▁Nugroho	-7629
▁waspada	-7630
▁ditambah	-7631
▁resminya	-7632
▁Pekerjaan	-7633
▁penambahan	-7634
▁pergerakan	-7635
▁mengembalikan	-7636
OS	-7637
:38	-7638
▁Es	-7639
▁Iz	-7640
agar	-7641
esor	-7642
lima	-7643
▁BTN	-7644
▁Jer	-7645
▁Char	-7646
▁psik	-7647
ikator	-7648
▁Solid	-7649
▁Ulama	-7650
▁beber	-7651
▁asuhan	-7652
▁invasi	-7653
▁kedaul	-7654
▁sesama	-7655
erdayaan	-7656
▁memegang	-7657
▁disiapkan	-7658
▁kedaulatan	-7659
▁kepedulian	-7660
▁Probolinggo	-7661
▁membeberkan	-7662
-8	-7663
ado	-7664
les	-7665
▁MS	-7666
▁Ty	-7667
arja	-7668
▁Abd	-7669
▁Cap	-7670
▁WNI	-7671
▁jer	-7672
kapai	-7673
ondon	-7674
▁Eksp	-7675
▁Madi	-7676
▁Green	-7677
▁Tanpa	-7678
▁emosi	-7679
▁nyawa	-7680
besaran	-7681
▁Kereta	-7682
▁Seusai	-7683
▁berunt	-7684
▁pendek	-7685
▁Brigjen	-7686
▁lebaran	-7687
ras	-7688
▁mu	-7689
roni	-7690
▁Pop	-7691
▁bib	-7692
▁Conv	-7693
▁Elek	-7694
▁Lagi	-7695
▁Teco	-7696
▁kabur	-7697
▁kelima	-7698
▁tulang	-7699
▁mengecam	-7700
▁tetangga	-7701
▁pembinaan	-7702
▁Selebritas	-7703
▁dijalankan	-7704
3)	-7705
:34	-7706
NAS	-7707
ome	-7708
▁42	-7709
▁Arg	-7710
▁Luk	-7711
mawan	-7712
▁ruas	-7713
ayoran	-7714
yakini	-7715
▁Ferry	-7716
▁Sudir	-7717
▁cocok	-7718
▁siber	-7719
uksesan	-7720
estarian	-7721
▁Cahyadi	-7722
▁relawan	-7723
▁material	-7724
▁mengecek	-7725
▁pengamat	-7726
▁disebutkan	-7727
▁Dokumentasi	-7728
▁pemberdayaan	-7729
BD	-7730
car	-7731
ich	-7732
able	-7733
amso	-7734
ebak	-7735
▁Jaz	-7736
acana	-7737
aring	-7738
▁Shop	-7739
▁Tour	-7740
▁otak	-7741
▁Darat	-7742
arankan	-7743
atistik	-7744
▁London	-7745
▁menduga	-7746
▁bertanya	-7747
▁undangan	-7748
▁Zelenskyy	-7749
▁negaranya	-7750
IK	-7751
:32	-7752
usn	-7753
apas	-7754
▁Wir	-7755
▁lan	-7756
linik	-7757
naker	-7758
▁kaum	-7759
▁berhak	-7760
▁Development	-7761
:36	-7762
▁EV	-7763
atta	-7764
▁CSR	-7765
▁EUR	-7766
▁Lah	-7767
▁Ray	-7768
▁Tom	-7769
jukan	-7770
▁Ward	-7771
▁daun	-7772
ations	-7773
daftar	-7774
▁Cagub	-7775
▁Pener	-7776
▁organ	-7777
aftaran	-7778
uarakan	-7779
▁Dorong	-7780
▁Kampus	-7781
▁Madiun	-7782
▁jarang	-7783
▁kontak	-7784
▁analisis	-7785
▁Komunitas	-7786
▁membenarkan	-7787
▁menghabiskan	-7788
▁penyelesaian	-7789
IC	-7790
PH	-7791
sy	-7792
sar	-7793
▁99	-7794
▁To	-7795
asif	-7796
zuki	-7797
▁boc	-7798
▁Serv	-7799
▁2024:	-7800
▁Arena	-7801
▁seder	-7802
Pilkada	-7803
▁Fatoni	-7804
▁Sandra	-7805
▁angkat	-7806
/11/2024)	-7807
▁ditujukan	-7808
▁kemitraan	-7809
▁bergantung	-7810
▁perlawanan	-7811
▁Pendaftaran	-7812
:06	-7813
▁fin	-7814
unian	-7815
▁Franc	-7816
▁cinta	-7817
▁Harvey	-7818
▁tempur	-7819
▁Putusan	-7820
▁dituduh	-7821
▁Penyidik	-7822
▁dikatakan	-7823
▁Pemasyarakatan	-7824
1.	-7825
▁Ec	-7826
▁Ra	-7827
anam	-7828
▁She	-7829
▁Duta	-7830
▁Kang	-7831
▁Ketu	-7832
▁Ungg	-7833
▁kerj	-7834
▁pred	-7835
▁nasib	-7836
elajari	-7837
▁Budaya	-7838
▁Menang	-7839
ilateral	-7840
▁tegasnya	-7841
▁komersial	-7842
▁jabatannya	-7843
▁mengizinkan	-7844
▁penyelundupan	-7845
LHK	-7846
but	-7847
esm	-7848
pes	-7849
▁56	-7850
ZNAS	-7851
uluk	-7852
▁Hij	-7853
ornia	-7854
otret	-7855
uriga	-7856
▁Best	-7857
▁gemb	-7858
▁upah	-7859
ehabil	-7860
▁Bobby	-7861
▁Calif	-7862
▁macam	-7863
▁Wijaya	-7864
enangkan	-7865
▁liburan	-7866
▁memaksa	-7867
▁rahasia	-7868
▁sorotan	-7869
▁Mapolres	-7870
▁tertutup	-7871
▁Mojokerto	-7872
▁Pesantren	-7873
▁pendanaan	-7874
▁diplomatik	-7875
▁ketertiban	-7876
▁mendeklarasikan	-7877
Seb	-7878
Sek	-7879
ipa	-7880
▁mi	-7881
avor	-7882
otol	-7883
▁rev	-7884
aribu	-7885
▁Aktor	-7886
▁Yasin	-7887
▁hamil	-7888
▁Goront	-7889
▁Kejari	-7890
▁Kejati	-7891
▁harian	-7892
timalkan	-7893
▁dipakai	-7894
▁federal	-7895
▁stadion	-7896
▁Pasaribu	-7897
▁berkuasa	-7898
▁cawapres	-7899
▁komponen	-7900
▁pembalap	-7901
▁President	-7902
▁pangkalan	-7903
▁California	-7904
PL	-7905
eld	-7906
▁BE	-7907
enya	-7908
epsi	-7909
ongi	-7910
▁Kod	-7911
ative	-7912
edang	-7913
▁EURO	-7914
▁Noor	-7915
▁Karim	-7916
▁Ricis	-7917
▁Tangg	-7918
▁etika	-7919
▁Nyoman	-7920
▁revisi	-7921
undurkan	-7922
▁Kemenag	-7923
▁kandung	-7924
▁kekasih	-7925
▁menimpa	-7926
▁Pramella	-7927
▁intensif	-7928
aksimalkan	-7929
perusahaan	-7930
▁Gorontalo	-7931
▁destinasi	-7932
ehabilitasi	-7933
▁pembahasan	-7934
:11	-7935
:53	-7936
gen	-7937
▁RW	-7938
edah	-7939
▁Hen	-7940
▁Won	-7941
▁Kata	-7942
▁tend	-7943
EMBANG	-7944
entina	-7945
▁Bagus	-7946
▁Damai	-7947
unduran	-7948
▁Gratis	-7949
▁Wibowo	-7950
▁hangat	-7951
▁mengan	-7952
▁peduli	-7953
▁pendiri	-7954
▁Termasuk	-7955
▁mendirikan	-7956
▁diterbitkan	-7957
▁memperjuangkan	-7958
:47	-7959
vok	-7960
▁46	-7961
▁RK	-7962
IIAS	-7963
osis	-7964
▁Bab	-7965
▁Jos	-7966
ition	-7967
▁PBNU	-7968
abetes	-7969
ingkus	-7970
otanya	-7971
▁membatasi	-7972
▁terkemuka	-7973
▁klarifikasi	-7974
10	-7975
LI	-7976
rul	-7977
tiar	-7978
tice	-7979
trol	-7980
urna	-7981
▁Fac	-7982
▁etn	-7983
▁tek	-7984
adium	-7985
▁Sari	-7986
▁Tito	-7987
gagung	-7988
▁Siapa	-7989
▁Suami	-7990
▁ambil	-7991
▁bapak	-7992
▁timah	-7993
▁Wapres	-7994
▁terasa	-7995
engarkan	-7996
▁Makanan	-7997
▁Teheran	-7998
▁masukan	-7999
▁diyakini	-8000
▁PALEMBANG	-8001
▁dibebaskan	-8002
▁mencalonkan	-8003
▁pemanfaatan	-8004
▁sertifikasi	-8005
▁pembelajaran	-8006
BB	-8007
RWA	-8008
hum	-8009
isu	-8010
▁5.	-8011
▁SA	-8012
▁Wi	-8013
rian	-8014
ariat	-8015
awati	-8016
ehold	-8017
jamin	-8018
▁Simp	-8019
▁kaca	-8020
▁kant	-8021
▁sari	-8022
intasi	-8023
▁Ruben	-8024
▁Tetap	-8025
▁Yaman	-8026
▁berak	-8027
▁paksa	-8028
engahan	-8029
epankan	-8030
eringan	-8031
onologi	-8032
▁pencab	-8033
▁tersisa	-8034
▁simulasi	-8035
▁berfungsi	-8036
tok	-8037
emik	-8038
▁Col	-8039
▁gej	-8040
ampau	-8041
▁Bers	-8042
▁Cara	-8043
▁game	-8044
inting	-8045
▁Pesan	-8046
▁Tulun	-8047
▁wadah	-8048
▁banten	-8049
▁capaian	-8050
▁ketingg	-8051
▁konteks	-8052
/10/2024)	-8053
▁utamanya	-8054
▁Komisaris	-8055
▁terdaftar	-8056
▁Koordinasi	-8057
▁kecerdasan	-8058
SP	-8059
▁Gh	-8060
▁UI	-8061
▁Reg	-8062
▁Anti	-8063
▁temp	-8064
ubsidi	-8065
utanan	-8066
▁Denny	-8067
▁Ponor	-8068
▁pilot	-8069
▁Bangka	-8070
▁detail	-8071
cawapres	-8072
▁Bahrain	-8073
▁Maulana	-8074
▁dakwaan	-8075
▁Terminal	-8076
▁ditembak	-8077
▁tembakau	-8078
▁berlokasi	-8079
▁Peringatan	-8080
▁Tulungagung	-8081
yl	-8082
▁49	-8083
▁Hi	-8084
ardo	-8085
▁bak	-8086
ancur	-8087
posal	-8088
▁ISIS	-8089
atinya	-8090
ladesh	-8091
▁Aditya	-8092
▁Andrew	-8093
▁Online	-8094
eriahkan	-8095
▁Penyakit	-8096
▁Ponorogo	-8097
▁mengutip	-8098
▁Marketing	-8099
▁terangnya	-8100
▁Bangladesh	-8101
▁narapidana	-8102
eis	-8103
luka	-8104
▁Tau	-8105
▁Val	-8106
▁isi	-8107
▁suci	-8108
amsoet	-8109
▁Dapat	-8110
▁banget	-8111
▁berter	-8112
▁kajian	-8113
▁Tingkat	-8114
▁bahagia	-8115
▁panitia	-8116
ersediaan	-8117
▁memaparkan	-8118
▁meresmikan	-8119
▁terjangkau	-8120
:48	-8121
▁57	-8122
▁76	-8123
▁88	-8124
▁Xi	-8125
asit	-8126
udit	-8127
▁Bro	-8128
itual	-8129
▁besi	-8130
▁duka	-8131
acetan	-8132
▁Debat	-8133
▁Pajak	-8134
akehold	-8135
▁disita	-8136
▁gunung	-8137
▁sapaan	-8138
▁berlebihan	-8139
▁mengejutkan	-8140
▁tertulisnya	-8141
ght	-8142
enep	-8143
port	-8144
▁Lagu	-8145
▁Menc	-8146
▁Tamb	-8147
Jateng	-8148
arinda	-8149
▁Apple	-8150
▁Jawab	-8151
ambilan	-8152
▁Dharma	-8153
▁Kompet	-8154
▁artinya	-8155
▁penalti	-8156
▁Kuningan	-8157
▁politisi	-8158
▁Samarinda	-8159
▁banyaknya	-8160
▁Penyelenggara	-8161
yaw	-8162
PPPK	-8163
ekam	-8164
▁1,5	-8165
▁LPG	-8166
▁Tam	-8167
▁Tra	-8168
▁hor	-8169
▁keg	-8170
istyo	-8171
▁Berh	-8172
▁Ivan	-8173
▁Life	-8174
▁blok	-8175
▁Banda	-8176
▁Water	-8177
Setelah	-8178
▁Sumenep	-8179
▁canggih	-8180
▁delegasi	-8181
▁Bangkalan	-8182
▁bersamaan	-8183
▁menaikkan	-8184
▁investigasi	-8185
cu	-8186
:21	-8187
eku	-8188
▁98	-8189
▁Ry	-8190
Yang	-8191
▁Luh	-8192
▁PON	-8193
▁gem	-8194
▁vol	-8195
umput	-8196
urnal	-8197
▁Laks	-8198
▁visa	-8199
awagub	-8200
▁Angel	-8201
▁Pecco	-8202
ancaran	-8203
unungan	-8204
▁kamera	-8205
▁Benjamin	-8206
▁Majalengka	-8207
▁mempertanyakan	-8208
SM	-8209
YL	-8210
:14	-8211
▁Gag	-8212
▁Jun	-8213
bondo	-8214
padai	-8215
▁Lemb	-8216
▁Semb	-8217
eransi	-8218
▁Agust	-8219
▁ditaw	-8220
gagalan	-8221
▁gereja	-8222
▁Jembatan	-8223
▁menyebar	-8224
▁mendalami	-8225
▁mengakses	-8226
▁pemadaman	-8227
▁penyaluran	-8228
▁pertamanya	-8229
▁sambutannya	-8230
ahe	-8231
dik	-8232
reh	-8233
▁Yos	-8234
▁aut	-8235
▁cek	-8236
okter	-8237
ucing	-8238
▁Dito	-8239
▁Fest	-8240
▁diam	-8241
adiran	-8242
ubishi	-8243
▁Semoga	-8244
▁menguat	-8245
▁Menengah	-8246
▁Sekarang	-8247
▁angkutan	-8248
▁mengenal	-8249
▁Situbondo	-8250
▁menempati	-8251
▁Bojonegoro	-8252
▁netralitas	-8253
▁berkampanye	-8254
▁pengungkapan	-8255
akui	-8256
arak	-8257
▁Das	-8258
▁but	-8259
▁sir	-8260
▁Susi	-8261
▁Tepi	-8262
ejarah	-8263
▁Antam	-8264
▁Bella	-8265
▁kebun	-8266
atorium	-8267
injauan	-8268
▁diraih	-8269
▁meluas	-8270
▁warung	-8271
▁Peserta	-8272
▁Selamat	-8273
▁kendali	-8274
▁melepas	-8275
▁promosi	-8276
▁pungkas	-8277
atifikasi	-8278
▁Berbagai	-8279
▁persatuan	-8280
▁Convention	-8281
▁Kemendagri	-8282
▁Kolaborasi	-8283
▁rencananya	-8284
▁menerbitkan	-8285
▁berkomunikasi	-8286
▁penggeledahan	-8287
Ar	-8288
:49	-8289
BRI	-8290
Itu	-8291
angd	-8292
ping	-8293
▁sih	-8294
▁APBN	-8295
▁asam	-8296
▁elit	-8297
nahkan	-8298
▁Ramad	-8299
▁kepad	-8300
▁lingk	-8301
ikirkan	-8302
▁Dugaan	-8303
▁SERANG	-8304
▁otomat	-8305
▁seraya	-8306
▁Mulyadi	-8307
▁Panitia	-8308
▁Sudjana	-8309
▁aliansi	-8310
▁Prasetyo	-8311
▁penemuan	-8312
▁Argentina	-8313
▁kelaparan	-8314
▁pengangkatan	-8315
▁menguntungkan	-8316
oj	-8317
:13	-8318
aro	-8319
pam	-8320
ulia	-8321
▁Cov	-8322
▁Fah	-8323
ahari	-8324
anduk	-8325
▁Mbak	-8326
▁biru	-8327
▁kode	-8328
▁port	-8329
▁Lebak	-8330
akinkan	-8331
ersihkan	-8332
▁jawaban	-8333
▁Gabungan	-8334
▁Otoritas	-8335
▁Mitsubishi	-8336
▁dikonsumsi	-8337
▁melepaskan	-8338
▁pengecekan	-8339
▁Sukarelawan	-8340
19	-8341
zil	-8342
Pada	-8343
ashi	-8344
▁TPP	-8345
▁cer	-8346
jawab	-8347
▁Insp	-8348
▁Kyiv	-8349
▁badai	-8350
▁halal	-8351
▁minat	-8352
▁unjuk	-8353
empurna	-8354
▁Bandar	-8355
▁Gereja	-8356
▁Sampai	-8357
▁membah	-8358
▁ucapan	-8359
▁Dirinya	-8360
▁Stadium	-8361
▁mempers	-8362
rakirakan	-8363
▁imigrasi	-8364
▁pertengahan	-8365
▁pertunjukan	-8366
▁keterampilan	-8367
▁menghilangkan	-8368
2)	-8369
BL	-8370
KT	-8371
gn	-8372
▁#	-8373
:52	-8374
laim	-8375
onya	-8376
▁Eka	-8377
▁Bagn	-8378
▁erat	-8379
ilikan	-8380
▁Sudar	-8381
▁diber	-8382
▁edisi	-8383
▁ramai	-8384
oblosan	-8385
▁taktik	-8386
imigrasi	-8387
▁Bagnaia	-8388
▁Masalah	-8389
▁Serdang	-8390
▁Kejagung	-8391
▁mengeksp	-8392
▁restoran	-8393
▁menantang	-8394
:57	-8395
Mer	-8396
▁BI	-8397
ario	-8398
evan	-8399
▁Edi	-8400
▁Ses	-8401
awali	-8402
▁Eman	-8403
Mereka	-8404
▁Bamsoet	-8405
▁kantong	-8406
▁Institut	-8407
▁Personel	-8408
▁permukaan	-8409
▁percepatan	-8410
▁mengundurkan	-8411
15	-8412
afe	-8413
bek	-8414
own	-8415
ser	-8416
▁65	-8417
▁IM	-8418
adha	-8419
awar	-8420
enta	-8421
olong	-8422
yeksi	-8423
▁Baim	-8424
anaman	-8425
▁Dusun	-8426
▁Moeis	-8427
▁Tegal	-8428
▁diisi	-8429
mudahan	-8430
▁Daniel	-8431
▁Christi	-8432
▁tangkis	-8433
▁akademisi	-8434
▁bertepatan	-8435
▁kelancaran	-8436
▁selebritas	-8437
▁diselesaikan	-8438
▁ketersediaan	-8439
▁praperadilan	-8440
▁53	-8441
▁Nu	-8442
▁do	-8443
▁Jus	-8444
▁Lim	-8445
Polri	-8446
ehkan	-8447
angdut	-8448
uluhan	-8449
vokasi	-8450
▁kadar	-8451
▁Transp	-8452
▁Pasifik	-8453
▁Syariah	-8454
▁menjamu	-8455
▁penyimp	-8456
optimalkan	-8457
▁2024-2029	-8458
▁dikenakan	-8459
▁intervensi	-8460
▁perpanjangan	-8461
ebo	-8462
ene	-8463
uba	-8464
▁Fed	-8465
▁Sug	-8466
amaha	-8467
orban	-8468
phone	-8469
▁seng	-8470
▁tiap	-8471
▁Simak	-8472
▁insen	-8473
▁intim	-8474
▁jasad	-8475
▁kakak	-8476
rehensif	-8477
▁Seleksi	-8478
▁Tabanan	-8479
▁penolakan	-8480
▁kecantikan	-8481
▁pemenangan	-8482
▁persetujuan	-8483
YD	-8484
las	-8485
▁kg	-8486
Jika	-8487
ergy	-8488
mark	-8489
apati	-8490
▁Kris	-8491
▁Dapil	-8492
▁UNRWA	-8493
▁etnis	-8494
▁pleno	-8495
masalah	-8496
▁Diduga	-8497
▁Yamaha	-8498
▁hunian	-8499
▁mengal	-8500
engkapan	-8501
▁Pemilih	-8502
▁koleksi	-8503
▁Hasilnya	-8504
▁Polandia	-8505
▁insentif	-8506
▁berjumlah	-8507
▁kesuksesan	-8508
▁melengkapi	-8509
▁mengkritik	-8510
▁pengurangan	-8511
▁dikembangkan	-8512
17	-8513
BN	-8514
:22	-8515
nak	-8516
yim	-8517
dani	-8518
ecat	-8519
riah	-8520
▁Bos	-8521
▁MAL	-8522
▁Indo	-8523
▁Yudh	-8524
▁suap	-8525
indung	-8526
▁2.000	-8527
▁Covid	-8528
▁Depan	-8529
▁Malik	-8530
narkoba	-8531
▁Health	-8532
▁Manahan	-8533
▁berlatih	-8534
▁bertekad	-8535
▁menembus	-8536
▁mengejar	-8537
▁motivasi	-8538
▁perasaan	-8539
▁berterima	-8540
▁menyuarakan	-8541
▁digitalisasi	-8542
ED	-8543
:16	-8544
rint	-8545
▁Rem	-8546
▁THR	-8547
▁Ayah	-8548
▁Show	-8549
▁gigi	-8550
irahat	-8551
▁dapur	-8552
▁segar	-8553
▁tanya	-8554
▁Arifin	-8555
▁bansos	-8556
▁bioskop	-8557
▁Basarnas	-8558
▁memasang	-8559
imigrasian	-8560
▁Pelatihan	-8561
▁melintasi	-8562
▁berkendara	-8563
▁menerangkan	-8564
▁menjanjikan	-8565
:27	-8566
:43	-8567
ild	-8568
gawi	-8569
oter	-8570
▁Ars	-8571
▁Lab	-8572
▁Ted	-8573
▁por	-8574
erdas	-8575
ustom	-8576
▁Mars	-8577
esmian	-8578
▁melem	-8579
▁pecah	-8580
▁saing	-8581
▁taman	-8582
ebutkan	-8583
impunan	-8584
▁Miliar	-8585
▁kripto	-8586
▁Raharja	-8587
▁Sahroni	-8588
▁Terbaru	-8589
▁bertema	-8590
▁kontrov	-8591
▁inklusif	-8592
▁menempuh	-8593
▁jumlahnya	-8594
▁mematikan	-8595
CO	-8596
:26	-8597
:28	-8598
:58	-8599
▁Fl	-8600
▁GI	-8601
▁RA	-8602
elat	-8603
▁DPW	-8604
▁SIM	-8605
▁SPB	-8606
eroan	-8607
▁Pari	-8608
▁opsi	-8609
aksasa	-8610
eraian	-8611
▁2021.	-8612
▁Nilai	-8613
okteran	-8614
tainment	-8615
▁Persita	-8616
▁menyasar	-8617
▁tingginya	-8618
▁helikopter	-8619
▁produktivitas	-8620
UL	-8621
pem	-8622
pen	-8623
ical	-8624
igur	-8625
▁Haf	-8626
▁fit	-8627
▁gor	-8628
▁pec	-8629
▁voli	-8630
▁Silva	-8631
▁kimia	-8632
▁Begitu	-8633
▁Hasyim	-8634
▁Sejauh	-8635
angguran	-8636
▁Ginting	-8637
▁artikel	-8638
▁membaca	-8639
▁fenomena	-8640
▁resolusi	-8641
▁eksekutif	-8642
▁ditentukan	-8643
▁membebaskan	-8644
▁komprehensif	-8645
,7	-8646
:51	-8647
Ter	-8648
▁Et	-8649
auan	-8650
awak	-8651
▁Lem	-8652
▁Ras	-8653
▁jet	-8654
engsi	-8655
pihak	-8656
▁Kiai	-8657
▁Final	-8658
▁Ketut	-8659
▁vonis	-8660
epakati	-8661
▁Master	-8662
▁Satria	-8663
▁ibunya	-8664
▁Iduladha	-8665
▁dinamika	-8666
▁Ditangkap	-8667
▁menampung	-8668
▁menduduki	-8669
▁sertifikat	-8670
sk	-8671
:24	-8672
hon	-8673
ism	-8674
osp	-8675
azar	-8676
mara	-8677
sela	-8678
▁ban	-8679
argai	-8680
artal	-8681
asari	-8682
asiat	-8683
▁Mach	-8684
inergi	-8685
landia	-8686
radara	-8687
▁Assoc	-8688
▁Boyol	-8689
▁botol	-8690
▁bungk	-8691
▁hancur	-8692
▁kecewa	-8693
▁kenapa	-8694
▁Senjata	-8695
▁melukai	-8696
▁Akhirnya	-8697
▁National	-8698
▁disetujui	-8699
▁stakehold	-8700
▁Konferensi	-8701
▁Satreskrim	-8702
▁Solidaritas	-8703
▁pengambilan	-8704
sun	-8705
▁6.	-8706
▁PG	-8707
egon	-8708
ject	-8709
▁Sad	-8710
▁deb	-8711
inisi	-8712
▁Onsu	-8713
ugerah	-8714
▁Mulia	-8715
▁Sumar	-8716
▁hilir	-8717
▁promo	-8718
▁rezim	-8719
▁Antoni	-8720
▁amanah	-8721
▁mengut	-8722
▁Komandan	-8723
▁Lumajang	-8724
▁proposal	-8725
▁sederhana	-8726
▁mendengarkan	-8727
IKN	-8728
▁DC	-8729
▁Rad	-8730
▁Fair	-8731
▁Perg	-8732
▁Astra	-8733
▁Jalak	-8734
▁Rizal	-8735
▁Timor	-8736
▁Tuhan	-8737
▁salat	-8738
▁zaman	-8739
▁Kepada	-8740
▁bersikap	-8741
▁diabetes	-8742
▁Pengawasan	-8743
▁penyediaan	-8744
US	-8745
:54	-8746
dit	-8747
lic	-8748
onc	-8749
ruf	-8750
▁7.	-8751
▁DJ	-8752
imir	-8753
▁KPP	-8754
▁ref	-8755
lakan	-8756
tarik	-8757
▁Siak	-8758
avorit	-8759
eaming	-8760
olding	-8761
ologis	-8762
▁2024)	-8763
▁Saleh	-8764
▁basis	-8765
▁benda	-8766
▁telak	-8767
estinya	-8768
▁Target	-8769
▁satuan	-8770
▁bersatu	-8771
▁merawat	-8772
▁warisan	-8773
▁Logistik	-8774
▁terwujud	-8775
▁produktif	-8776
▁meyakinkan	-8777
▁pendampingan	-8778
▁mengedepankan	-8779
oth	-8780
tug	-8781
▁54	-8782
▁PR	-8783
mail	-8784
ning	-8785
▁AHY	-8786
waktu	-8787
▁Ayat	-8788
▁Elec	-8789
▁Vlad	-8790
ajakan	-8791
ampang	-8792
▁dikar	-8793
usnahan	-8794
▁armada	-8795
▁dibantu	-8796
▁premium	-8797
▁cadangan	-8798
▁didorong	-8799
▁penyedia	-8800
▁petahana	-8801
▁kemacetan	-8802
▁mendekati	-8803
▁perumahan	-8804
▁pendukungnya	-8805
-17	-8806
▁KI	-8807
▁PH	-8808
▁ir	-8809
TARA	-8810
agen	-8811
isit	-8812
▁Bra	-8813
▁Lam	-8814
▁Rac	-8815
ajaan	-8816
egram	-8817
tanya	-8818
ujian	-8819
▁Comp	-8820
▁nasi	-8821
ampaui	-8822
ulukan	-8823
▁Buruh	-8824
▁Dasar	-8825
▁umrah	-8826
▁virus	-8827
▁wajar	-8828
turunan	-8829
▁diklaim	-8830
▁padahal	-8831
▁berisiko	-8832
▁otomatis	-8833
▁ditawarkan	-8834
▁komitmennya	-8835
▁mempelajari	-8836
▁Administrasi	-8837
▁penandatanganan	-8838
BA	-8839
DS	-8840
▁u	-8841
-13	-8842
ica	-8843
▁68	-8844
ufak	-8845
▁Gam	-8846
▁KKB	-8847
Dalam	-8848
ambar	-8849
▁Asal	-8850
▁Live	-8851
▁apel	-8852
ayangan	-8853
▁volume	-8854
eskalasi	-8855
▁Tentara	-8856
▁dalamnya	-8857
▁hukumnya	-8858
▁maskapai	-8859
▁didirikan	-8860
▁Tingkatkan	-8861
▁mengunggah	-8862
▁pemantauan	-8863
▁konsolidasi	-8864
:41	-8865
abe	-8866
igh	-8867
vel	-8868
▁Tw	-8869
▁Zh	-8870
▁XXI	-8871
ormat	-8872
▁Duel	-8873
erbang	-8874
▁Tessa	-8875
amerkan	-8876
endarai	-8877
ufaktur	-8878
▁begini	-8879
▁petern	-8880
/9/2024)	-8881
entangan	-8882
▁Harupat	-8883
▁Hijriah	-8884
▁asuhnya	-8885
▁Boyolali	-8886
▁Jaringan	-8887
▁Nasution	-8888
▁Vladimir	-8889
▁Ditreskrim	-8890
▁kekeringan	-8891
▁menyinggung	-8892
▁Pertandingan	-8893
▁mengendalikan	-8894
eck	-8895
sit	-8896
▁73	-8897
atal	-8898
hard	-8899
imob	-8900
izen	-8901
sius	-8902
▁Alf	-8903
▁Der	-8904
▁Dom	-8905
▁Gas	-8906
ullah	-8907
▁Heri	-8908
▁Nahd	-8909
▁Ngawi	-8910
▁lomba	-8911
anaknya	-8912
ifikasi	-8913
▁Listyo	-8914
▁Swedia	-8915
▁alumni	-8916
▁miskin	-8917
▁teknik	-8918
▁Manfaat	-8919
▁Panglima	-8920
▁dibentuk	-8921
▁Kunjungan	-8922
▁Pembunuhan	-8923
▁disediakan	-8924
▁direncanakan	-8925
▁menggagalkan	-8926
▁67	-8927
▁GOR	-8928
▁Non	-8929
▁mit	-8930
ayasa	-8931
emani	-8932
esuai	-8933
manto	-8934
wanto	-8935
▁Jati	-8936
ektual	-8937
▁Perlu	-8938
▁musuh	-8939
▁tunai	-8940
arganet	-8941
▁BAZNAS	-8942
▁muslim	-8943
▁urutan	-8944
▁Mungkin	-8945
▁diakses	-8946
▁menelan	-8947
▁penulis	-8948
▁berharga	-8949
▁eksklusif	-8950
▁Menanggapi	-8951
▁mengantongi	-8952
jb	-8953
:18	-8954
:44	-8955
▁Gl	-8956
▁Beb	-8957
ormas	-8958
▁APBD	-8959
▁hand	-8960
▁niat	-8961
▁seru	-8962
alenta	-8963
▁Mabes	-8964
▁Mengg	-8965
▁lampu	-8966
▁sifat	-8967
omodasi	-8968
yakinan	-8969
▁Portug	-8970
▁Segera	-8971
evaluasi	-8972
unjangan	-8973
▁Pesawat	-8974
▁Strategi	-8975
▁bergulir	-8976
▁bertahap	-8977
▁Kehadiran	-8978
▁Foundation	-8979
▁Pengelolaan	-8980
▁Peningkatan	-8981
▁penyeberangan	-8982
iru	-8983
oha	-8984
▁HI	-8985
▁IT	-8986
▁Om	-8987
ange	-8988
erly	-8989
icer	-8990
▁Est	-8991
▁Gat	-8992
▁Gug	-8993
engku	-8994
omasi	-8995
ucian	-8996
wansa	-8997
▁Kand	-8998
aining	-8999
alasan	-9000
enaran	-9001
▁Amran	-9002
▁Indar	-9003
▁kawan	-9004
▁kiper	-9005
▁masif	-9006
▁memul	-9007
▁paham	-9008
olehkan	-9009
▁gender	-9010
▁kelapa	-9011
▁Aliansi	-9012
▁Terbaik	-9013
▁berpeng	-9014
▁relevan	-9015
eliharaan	-9016
▁Penyebab	-9017
▁dipenuhi	-9018
▁berkurang	-9019
▁spesialis	-9020
▁Management	-9021
▁bersejarah	-9022
▁membongkar	-9023
▁dideportasi	-9024
▁membahayakan	-9025
▁membersihkan	-9026
4)	-9027
yn	-9028
:19	-9029
KAN	-9030
Sus	-9031
bas	-9032
dam	-9033
▁Ef	-9034
▁IP	-9035
▁MU	-9036
adel	-9037
hika	-9038
▁Rec	-9039
▁Ren	-9040
▁Chief	-9041
▁hebat	-9042
▁ideal	-9043
▁perut	-9044
esuaian	-9045
▁Inform	-9046
▁Secret	-9047
▁persnya	-9048
▁dimintai	-9049
▁mematuhi	-9050
▁milenial	-9051
▁penyanyi	-9052
▁transfer	-9053
▁terpidana	-9054
▁dibintangi	-9055
▁menyeluruh	-9056
▁sekelompok	-9057
16	-9058
:42	-9059
▁KS	-9060
edua	-9061
pool	-9062
▁2,5	-9063
▁Gan	-9064
▁Pek	-9065
▁Ret	-9066
▁Auto	-9067
▁Lama	-9068
▁Naik	-9069
ashion	-9070
esahan	-9071
▁2021,	-9072
▁Ameri	-9073
▁Citra	-9074
▁Ingin	-9075
▁menak	-9076
alihkan	-9077
ekuensi	-9078
ication	-9079
yangkan	-9080
▁Inilah	-9081
▁merata	-9082
▁narasi	-9083
▁rantai	-9084
aftarkan	-9085
ublikasi	-9086
ubungkan	-9087
▁Federal	-9088
▁General	-9089
▁Kreatif	-9090
▁Sumedang	-9091
▁kliennya	-9092
▁membakar	-9093
▁tertarik	-9094
▁keturunan	-9095
▁mendaftarkan	-9096
▁terintegrasi	-9097
:23	-9098
iro	-9099
lek	-9100
ley	-9101
▁8,	-9102
▁BM	-9103
▁af	-9104
▁800	-9105
▁Rel	-9106
erbal	-9107
▁Week	-9108
▁dius	-9109
▁kubu	-9110
▁Manch	-9111
▁Sekda	-9112
▁Tentu	-9113
▁mirip	-9114
▁moral	-9115
▁Memper	-9116
▁Subang	-9117
sistensi	-9118
angkatkan	-9119
▁Kejadian	-9120
▁beragama	-9121
▁pemegang	-9122
▁Sejahtera	-9123
▁pengganti	-9124
▁memasukkan	-9125
▁ditingkatkan	-9126
▁ditandatangani	-9127
DC	-9128
:39	-9129
:46	-9130
day	-9131
eki	-9132
nur	-9133
▁My	-9134
▁Uz	-9135
lokir	-9136
ology	-9137
rihat	-9138
▁sing	-9139
▁Andri	-9140
▁Kulon	-9141
▁seper	-9142
▁telur	-9143
▁Rahman	-9144
▁diakui	-9145
▁kering	-9146
▁keterb	-9147
▁Cilegon	-9148
▁maritim	-9149
▁satelit	-9150
▁Komitmen	-9151
▁mengusut	-9152
▁tersendiri	-9153
anggungjawab	-9154
▁diberlakukan	-9155
▁keberangkatan	-9156
%.	-9157
▁+	-9158
Sum	-9159
omi	-9160
▁ti	-9161
lang	-9162
▁Tem	-9163
antar	-9164
▁abad	-9165
awaran	-9166
celona	-9167
▁Press	-9168
▁panel	-9169
▁turis	-9170
hadapan	-9171
▁segmen	-9172
▁Hartono	-9173
▁balasan	-9174
▁dibahas	-9175
▁Barcelona	-9176
▁melampaui	-9177
▁menghapus	-9178
▁penyerang	-9179
arganegaraan	-9180
▁menyebarkan	-9181
JK	-9182
rd	-9183
dip	-9184
fak	-9185
idi	-9186
uko	-9187
▁95	-9188
▁AR	-9189
luan	-9190
ohol	-9191
▁Kak	-9192
▁bjb	-9193
▁Mich	-9194
▁baju	-9195
▁muka	-9196
▁Atlet	-9197
▁Cinta	-9198
▁Irish	-9199
▁Makin	-9200
▁Sudan	-9201
▁absen	-9202
▁papar	-9203
olongan	-9204
▁Energy	-9205
▁Wuling	-9206
▁menyes	-9207
▁memperb	-9208
▁bernomor	-9209
▁ditindak	-9210
▁hambatan	-9211
▁keperluan	-9212
▁Manchester	-9213
▁kepemilikan	-9214
▁memberantas	-9215
▁pemberontak	-9216
1)	-9217
oka	-9218
adio	-9219
aget	-9220
▁Ahok	-9221
▁ekor	-9222
erpool	-9223
siplin	-9224
▁Hindu	-9225
▁Jorge	-9226
▁Rober	-9227
▁Swiss	-9228
▁almar	-9229
▁Peduli	-9230
▁Social	-9231
▁batang	-9232
▁campur	-9233
icarakan	-9234
▁Purnama	-9235
▁Stefano	-9236
▁tumbang	-9237
▁Kemnaker	-9238
▁disiplin	-9239
▁mendadak	-9240
▁mendarat	-9241
▁menonton	-9242
▁Meninggal	-9243
▁terorisme	-9244
-9	-9245
jat	-9246
nav	-9247
ucu	-9248
ekos	-9249
▁Sik	-9250
asama	-9251
entuh	-9252
inton	-9253
oyono	-9254
▁Berm	-9255
▁Wahy	-9256
▁yong	-9257
ambung	-9258
aspora	-9259
enuhan	-9260
urance	-9261
▁Gempa	-9262
▁jumpa	-9263
▁roket	-9264
▁Cimahi	-9265
▁Ditjen	-9266
▁erupsi	-9267
▁ukuran	-9268
▁Florida	-9269
▁kecuali	-9270
/12/2024)	-9271
▁berujung	-9272
▁diunggah	-9273
▁Parawansa	-9274
▁Pengusaha	-9275
▁Yudhoyono	-9276
▁bergengsi	-9277
▁kebanyakan	-9278
▁memengaruhi	-9279
AD	-9280
CS	-9281
uo	-9282
Kep	-9283
TPS	-9284
ova	-9285
bang	-9286
iger	-9287
muji	-9288
▁nik	-9289
urnia	-9290
▁DKPP	-9291
obosan	-9292
▁1.200	-9293
▁2020.	-9294
▁Anung	-9295
▁Muara	-9296
▁Yahya	-9297
▁mandi	-9298
apatkan	-9299
▁bareng	-9300
▁matang	-9301
▁tuanya	-9302
▁alokasi	-9303
▁dicetak	-9304
▁jenderal	-9305
▁konvensi	-9306
▁membalas	-9307
▁rekening	-9308
▁Birokrasi	-9309
▁Deklarasi	-9310
▁pengunjuk	-9311
▁Penelitian	-9312
▁berpengaruh	-9313
▁mengoptimalkan	-9314
▁Mc	-9315
▁et	-9316
▁he	-9317
ader	-9318
cita	-9319
ibah	-9320
▁Isu	-9321
▁Lip	-9322
▁Vic	-9323
▁vis	-9324
ampur	-9325
rekan	-9326
usial	-9327
▁Hall	-9328
▁Mift	-9329
▁awan	-9330
▁live	-9331
ebutan	-9332
▁Bukit	-9333
▁Idris	-9334
▁Johan	-9335
▁Kurni	-9336
▁Saksi	-9337
▁Seksi	-9338
▁butir	-9339
▁horor	-9340
onjakan	-9341
owongan	-9342
▁Ikatan	-9343
▁Kurnia	-9344
▁berkes	-9345
▁varian	-9346
▁Georgia	-9347
▁Pameran	-9348
▁andalan	-9349
▁dibunuh	-9350
▁indikasi	-9351
▁jalannya	-9352
▁Liverpool	-9353
▁negosiasi	-9354
▁dihadirkan	-9355
▁dihentikan	-9356
▁diproduksi	-9357
▁pembangkit	-9358
pi	-9359
enz	-9360
evi	-9361
pas	-9362
▁64	-9363
▁UM	-9364
▁Baj	-9365
▁Ita	-9366
▁Muz	-9367
▁tri	-9368
ammed	-9369
ebihi	-9370
purna	-9371
ublic	-9372
▁Bina	-9373
▁Mary	-9374
▁resi	-9375
▁Cipta	-9376
▁Terus	-9377
▁Ismail	-9378
▁Putera	-9379
▁Sukses	-9380
▁rumput	-9381
ayangnya	-9382
▁Insiden	-9383
▁Melihat	-9384
▁Mengapa	-9385
▁Officer	-9386
▁dilanda	-9387
▁favorit	-9388
oritaskan	-9389
▁Cawapres	-9390
▁Sudirman	-9391
▁kurangnya	-9392
▁menyimpan	-9393
▁membuatnya	-9394
▁melakukannya	-9395
AF	-9396
Per	-9397
akh	-9398
luk	-9399
set	-9400
▁CI	-9401
eing	-9402
kuit	-9403
shop	-9404
ubur	-9405
▁Ary	-9406
▁cab	-9407
▁pej	-9408
▁PUPR	-9409
ancang	-9410
rutmen	-9411
▁Unair	-9412
▁figur	-9413
▁papan	-9414
▁rilis	-9415
▁ulama	-9416
▁Brimob	-9417
▁Miftah	-9418
▁dipicu	-9419
▁persel	-9420
▁rambut	-9421
ativitas	-9422
kelompok	-9423
▁Kristen	-9424
▁Pemilik	-9425
▁krusial	-9426
▁perwira	-9427
▁raksasa	-9428
▁seberat	-9429
▁hidupnya	-9430
▁Strategis	-9431
▁pengaduan	-9432
▁pengaturan	-9433
▁perceraian	-9434
▁rehabilitasi	-9435
jan	-9436
oks	-9437
▁52	-9438
▁GP	-9439
adin	-9440
enam	-9441
esat	-9442
▁Hus	-9443
▁Max	-9444
▁SDN	-9445
▁Seo	-9446
▁dat	-9447
▁nir	-9448
akoni	-9449
jalan	-9450
kapal	-9451
trans	-9452
▁Food	-9453
▁PSIM	-9454
▁Perc	-9455
▁Sams	-9456
▁lupa	-9457
ancing	-9458
iteria	-9459
▁Ajang	-9460
▁Nurul	-9461
▁Peran	-9462
▁Uzbek	-9463
▁indah	-9464
▁patut	-9465
▁super	-9466
▁Laskar	-9467
▁MALANG	-9468
▁Yahudi	-9469
▁tuntas	-9470
▁belasan	-9471
▁relatif	-9472
▁bilateral	-9473
▁gelandang	-9474
istribusikan	-9475
▁perhitungan	-9476
iko	-9477
lak	-9478
rin	-9479
▁VI	-9480
egat	-9481
oper	-9482
yang	-9483
▁BYD	-9484
▁Jin	-9485
▁KTP	-9486
▁Yan	-9487
▁bon	-9488
▁Bern	-9489
▁Pati	-9490
▁Samb	-9491
▁audi	-9492
iasaan	-9493
lorasi	-9494
sunami	-9495
▁Tokyo	-9496
▁murid	-9497
▁putus	-9498
anegara	-9499
antiasa	-9500
▁lansia	-9501
▁seruan	-9502
▁Sustain	-9503
▁berikan	-9504
▁kerabat	-9505
▁memakan	-9506
▁putranya	-9507
▁kepastian	-9508
▁Pencegahan	-9509
▁Uzbekistan	-9510
▁senantiasa	-9511
huk	-9512
isih	-9513
▁Abu	-9514
▁Duc	-9515
▁One	-9516
ayati	-9517
earch	-9518
overn	-9519
▁Aziz	-9520
▁Musk	-9521
▁Ribu	-9522
ahagia	-9523
dayaan	-9524
▁Haris	-9525
▁Techn	-9526
▁lebar	-9527
▁Suzuki	-9528
▁menguk	-9529
▁Kinerja	-9530
▁berhati	-9531
▁ditolak	-9532
▁rincian	-9533
▁Asuransi	-9534
▁berdarah	-9535
▁Kekerasan	-9536
▁politikus	-9537
▁pengolahan	-9538
▁pergantian	-9539
▁tertinggal	-9540
▁berhubungan	-9541
▁dukungannya	-9542
▁menyarankan	-9543
▁pencoblosan	-9544
▁menyenangkan	-9545
Ch	-9546
KU	-9547
Kej	-9548
chi	-9549
▁Na	-9550
▁UE	-9551
enai	-9552
ohan	-9553
▁Cit	-9554
▁Imp	-9555
▁Jim	-9556
▁Nun	-9557
▁Tah	-9558
▁jen	-9559
▁sar	-9560
klusi	-9561
▁Hati	-9562
▁Mega	-9563
▁Part	-9564
▁Rest	-9565
▁term	-9566
opuler	-9567
▁Wahid	-9568
▁gelap	-9569
▁lemak	-9570
▁nikel	-9571
▁pemda	-9572
▁Barito	-9573
▁kertas	-9574
▁sinyal	-9575
▁balapan	-9576
▁Mohammed	-9577
▁Portugal	-9578
▁mencabut	-9579
▁kegagalan	-9580
aboratorium	-9581
▁intimidasi	-9582
▁pengangguran	-9583
▁menghubungkan	-9584
for	-9585
tic	-9586
▁51	-9587
▁59	-9588
▁Fo	-9589
▁Sc	-9590
▁th	-9591
ariq	-9592
▁600	-9593
▁Luc	-9594
▁Rat	-9595
▁Toy	-9596
anyar	-9597
uasan	-9598
vokat	-9599
▁Moch	-9600
▁Suka	-9601
▁bara	-9602
▁kemb	-9603
▁Haiti	-9604
▁Mitra	-9605
▁Power	-9606
▁Resmi	-9607
▁Sales	-9608
▁Suhar	-9609
▁lemah	-9610
▁tahan	-9611
▁ujung	-9612
▁Academ	-9613
▁School	-9614
▁diperb	-9615
▁lambat	-9616
ayagunaan	-9617
▁dedikasi	-9618
▁matahari	-9619
▁melebihi	-9620
▁Politikus	-9621
▁berhadapan	-9622
▁terbarukan	-9623
▁Pemberdayaan	-9624
▁memaksimalkan	-9625
ves	-9626
▁63	-9627
▁PO	-9628
▁pe	-9629
idul	-9630
irut	-9631
▁1.3	-9632
▁BNI	-9633
▁Bed	-9634
▁pac	-9635
uaran	-9636
umpur	-9637
▁Land	-9638
▁Sarw	-9639
▁Tjah	-9640
▁diad	-9641
▁kena	-9642
▁magn	-9643
ungguh	-9644
▁2020,	-9645
▁Fikri	-9646
▁GIIAS	-9647
▁Kakan	-9648
▁Luhut	-9649
▁Optim	-9650
▁curah	-9651
▁legal	-9652
▁Persen	-9653
▁diubah	-9654
▁semata	-9655
▁terper	-9656
▁Susanto	-9657
▁menyapa	-9658
/7/2024).	-9659
▁penuntut	-9660
▁terbunuh	-9661
▁dihasilkan	-9662
▁manufaktur	-9663
▁perundingan	-9664
▁menyesuaikan	-9665
▁menindaklanjuti	-9666
RE	-9667
▁66	-9668
▁77	-9669
▁9,	-9670
▁Hut	-9671
▁PPK	-9672
▁TPN	-9673
sihan	-9674
▁Fari	-9675
▁Tert	-9676
▁abor	-9677
alangi	-9678
enteng	-9679
oyokan	-9680
▁Hilir	-9681
▁akunt	-9682
▁mulut	-9683
▁pesat	-9684
arungan	-9685
ulaiman	-9686
▁Faisal	-9687
▁aborsi	-9688
▁ambang	-9689
▁ditemp	-9690
utradara	-9691
▁gembira	-9692
▁merangk	-9693
▁Telegram	-9694
▁terheboh	-9695
▁menghargai	-9696
▁memperpanjang	-9697
BAR	-9698
eed	-9699
imo	-9700
yeh	-9701
▁bu	-9702
amuk	-9703
ency	-9704
itip	-9705
▁BSD	-9706
▁End	-9707
▁ran	-9708
▁Amir	-9709
▁Arie	-9710
▁Giri	-9711
▁Rudi	-9712
▁kain	-9713
▁pomp	-9714
angkas	-9715
▁Mudik	-9716
▁Sehat	-9717
▁hoaks	-9718
▁tipis	-9719
▁jelang	-9720
▁musisi	-9721
▁terjun	-9722
▁Komando	-9723
▁perihal	-9724
awancarai	-9725
▁Cikarang	-9726
▁Fauziyah	-9727
▁eskalasi	-9728
▁komandan	-9729
▁Sepanjang	-9730
▁bercerita	-9731
▁Diponegoro	-9732
▁Komisioner	-9733
▁didominasi	-9734
▁Kebangkitan	-9735
▁perencanaan	-9736
▁mengharapkan	-9737
NL	-9738
SK	-9739
ku	-9740
ics	-9741
kos	-9742
tip	-9743
anty	-9744
gian	-9745
lain	-9746
ongg	-9747
oyok	-9748
tric	-9749
▁Asy	-9750
▁Jef	-9751
▁Mis	-9752
▁Rut	-9753
andri	-9754
osari	-9755
▁Ajak	-9756
▁Must	-9757
▁Prol	-9758
▁Puan	-9759
▁SPBU	-9760
▁Suci	-9761
▁geng	-9762
▁padi	-9763
uncang	-9764
▁Ambon	-9765
▁Siswa	-9766
▁medan	-9767
amunisi	-9768
hentian	-9769
▁Hampir	-9770
▁Nataru	-9771
▁Sampah	-9772
▁Sangat	-9773
▁bawang	-9774
▁komisi	-9775
▁sepatu	-9776
▁sumpah	-9777
▁Potensi	-9778
▁pemadam	-9779
▁praktis	-9780
▁tangkap	-9781
▁Pastikan	-9782
▁Research	-9783
▁Sulaiman	-9784
▁terjebak	-9785
▁2023-2024	-9786
▁keyakinan	-9787
▁kebudayaan	-9788
▁ditempatkan	-9789
▁Pendayagunaan	-9790
▁ketenagakerjaan	-9791
EM	-9792
-15	-9793
kif	-9794
mit	-9795
off	-9796
argo	-9797
lian	-9798
▁Dih	-9799
▁Gal	-9800
▁Hub	-9801
emput	-9802
hukam	-9803
kifli	-9804
▁Bola	-9805
▁Judi	-9806
ekasan	-9807
oharjo	-9808
▁Assad	-9809
▁Azwar	-9810
▁Bunga	-9811
▁Dasco	-9812
▁Malut	-9813
▁drama	-9814
▁jujur	-9815
▁mengu	-9816
▁sadar	-9817
▁Kalsel	-9818
▁kucing	-9819
▁wacana	-9820
▁Manajer	-9821
▁Peluang	-9822
▁keluhan	-9823
▁disahkan	-9824
▁warganet	-9825
operasikan	-9826
▁Pamekasan	-9827
▁ketinggian	-9828
▁verifikasi	-9829
oo	-9830
pr	-9831
aly	-9832
eny	-9833
▁96	-9834
▁BNN	-9835
▁Pad	-9836
▁lel	-9837
▁Diri	-9838
▁PPDB	-9839
▁agak	-9840
▁spir	-9841
▁stok	-9842
ebgram	-9843
entari	-9844
▁ujian	-9845
itoring	-9846
▁Bangun	-9847
▁Berkel	-9848
▁Boeing	-9849
▁Econom	-9850
▁Racing	-9851
▁Teknik	-9852
▁single	-9853
▁dicapai	-9854
▁jalanan	-9855
▁Zulkifli	-9856
▁Kehutanan	-9857
▁memandang	-9858
▁kondisinya	-9859
▁menjangkau	-9860
▁Sekretariat	-9861
GD	-9862
IND	-9863
iji	-9864
ins	-9865
isnu	-9866
kret	-9867
tung	-9868
▁(1)	-9869
▁Asi	-9870
▁Cho	-9871
▁Tap	-9872
▁cok	-9873
▁zat	-9874
oakan	-9875
▁Dard	-9876
▁RIDO	-9877
▁akar	-9878
▁bawa	-9879
daerah	-9880
stansi	-9881
▁Belit	-9882
▁Fakta	-9883
▁Punya	-9884
▁Rokan	-9885
▁Ulang	-9886
▁buron	-9887
▁popul	-9888
▁Komnas	-9889
▁market	-9890
▁peluru	-9891
▁tertib	-9892
ukseskan	-9893
usnahkan	-9894
▁Aplikasi	-9895
▁bernilai	-9896
▁terjatuh	-9897
▁tertuang	-9898
▁Pelanggan	-9899
▁toleransi	-9900
rioritaskan	-9901
▁konstruksi	-9902
▁penyebaran	-9903
▁perundungan	-9904
PSI	-9905
mos	-9906
egar	-9907
hael	-9908
idar	-9909
rove	-9910
▁Aji	-9911
▁Dur	-9912
▁Law	-9913
ekali	-9914
ekraf	-9915
osida	-9916
upang	-9917
▁Nugr	-9918
▁hany	-9919
▁insp	-9920
▁Garda	-9921
▁Harun	-9922
▁Kevin	-9923
▁Kuala	-9924
▁kayak	-9925
Suswono	-9926
endagri	-9927
kominfo	-9928
orkshop	-9929
▁Alumni	-9930
▁Beirut	-9931
▁Christ	-9932
▁Dardak	-9933
▁Rahayu	-9934
▁Thariq	-9935
▁kuning	-9936
▁Perkasa	-9937
▁seputar	-9938
▁Koperasi	-9939
▁Mahendra	-9940
▁bermotor	-9941
▁kebaikan	-9942
▁keberatan	-9943
▁bersubsidi	-9944
▁menghantam	-9945
▁perkebunan	-9946
OTO	-9947
que	-9948
▁BC	-9949
▁Ub	-9950
olil	-9951
ugur	-9952
▁Dam	-9953
▁amp	-9954
▁pod	-9955
▁Nick	-9956
▁Perp	-9957
▁Suas	-9958
incang	-9959
▁Kartu	-9960
▁Seoul	-9961
▁Turun	-9962
alangan	-9963
unggung	-9964
▁Dampak	-9965
▁Teknis	-9966
▁bangkit	-9967
▁Indonesi	-9968
▁temannya	-9969
▁Kemayoran	-9970
▁mengangkut	-9971
▁penyandang	-9972
TI	-9973
:29	-9974
GBK	-9975
III	-9976
ric	-9977
rie	-9978
▁MI	-9979
BARU	-9980
▁end	-9981
▁wis	-9982
ebook	-9983
ernas	-9984
leksi	-9985
oyong	-9986
undai	-9987
▁1998	-9988
▁Stor	-9989
▁TANG	-9990
▁memv	-9991
▁2019,	-9992
▁Senat	-9993
▁siaga	-9994
abrakan	-9995
▁Toyota	-9996
▁dijaga	-9997
ampungan	-9998
▁Finance	-9999
▁Hyundai	-10000
▁Mineral	-10001
▁amunisi	-10002
▁memadai	-10003
▁sahabat	-10004
ewaspadai	-10005
▁berturut	-10006
▁menyusun	-10007
▁pemenuhan	-10008
▁penasihat	-10009
▁pengelola	-10010
▁antisipasi	-10011
▁berinovasi	-10012
▁bersinergi	-10013
▁bertanding	-10014
▁permukiman	-10015
▁wilayahnya	-10016
▁menuntaskan	-10017
▁stakeholder	-10018
ALI	-10019
TAN	-10020
ask	-10021
ibr	-10022
atau	-10023
hony	-10024
inga	-10025
irat	-10026
tein	-10027
▁Dub	-10028
▁JPU	-10029
▁Los	-10030
▁Buah	-10031
▁bulu	-10032
▁part	-10033
etulan	-10034
iliasi	-10035
samaan	-10036
▁2025,	-10037
▁Meres	-10038
▁bibit	-10039
▁keset	-10040
amaikan	-10041
unyikan	-10042
▁berpel	-10043
▁diajak	-10044
▁menuai	-10045
▁pengin	-10046
/5/2024)	-10047
▁Menaker	-10048
▁Sampang	-10049
▁seniman	-10050
▁tawaran	-10051
▁Hadirkan	-10052
▁sempurna	-10053
▁Narkotika	-10054
▁rekrutmen	-10055
▁Sosialisasi	-10056
▁memberlakukan	-10057
ikh	-10058
▁le	-10059
▁Bes	-10060
▁Edy	-10061
▁KIM	-10062
▁via	-10063
bulan	-10064
rahim	-10065
ulans	-10066
▁FOTO	-10067
▁Terc	-10068
ajikan	-10069
tempat	-10070
▁5.000	-10071
▁Kesep	-10072
▁citra	-10073
ability	-10074
elaskan	-10075
▁gejala	-10076
indikasi	-10077
▁Kendati	-10078
▁kuartal	-10079
gabungkan	-10080
▁Facebook	-10081
▁Kakanwil	-10082
▁batangan	-10083
▁melantik	-10084
▁2024/2025	-10085
▁dibagikan	-10086
▁dipercaya	-10087
▁Kehormatan	-10088
▁Penyuluhan	-10089
▁diinginkan	-10090
▁memikirkan	-10091
implementasi	-10092
▁berkomentar	-10093
▁dikarenakan	-10094
JSL	-10095
oki	-10096
ugu	-10097
▁Ep	-10098
▁so	-10099
▁Hil	-10100
▁Mes	-10101
▁run	-10102
entik	-10103
toral	-10104
▁Jaga	-10105
▁Mass	-10106
▁Wang	-10107
▁Yuli	-10108
▁ciri	-10109
▁harm	-10110
▁mens	-10111
▁send	-10112
aksian	-10113
emahan	-10114
▁Momen	-10115
▁Salim	-10116
▁belas	-10117
▁memin	-10118
▁ormas	-10119
▁posko	-10120
▁terin	-10121
Bawaslu	-10122
▁cerdas	-10123
▁Lakukan	-10124
▁Mulyani	-10125
▁menyemb	-10126
▁Keadilan	-10127
▁melakoni	-10128
▁mengajar	-10129
▁anggotanya	-10130
▁gratifikasi	-10131
▁penghasilan	-10132
7.	-10133
8)	-10134
Ya	-10135
ime	-10136
ove	-10137
▁BK	-10138
▁SP	-10139
bert	-10140
etas	-10141
ison	-10142
▁TKN	-10143
▁ret	-10144
ering	-10145
▁Izin	-10146
▁mang	-10147
▁meja	-10148
tainer	-10149
▁Intan	-10150
▁Sosok	-10151
▁batik	-10152
▁harap	-10153
▁tenda	-10154
▁wasit	-10155
▁zakat	-10156
▁Jepara	-10157
▁Solusi	-10158
▁anjing	-10159
▁reaksi	-10160
▁Awalnya	-10161
▁Service	-10162
▁Suasana	-10163
▁divonis	-10164
▁istilah	-10165
▁netizen	-10166
▁sewaktu	-10167
▁Banyumas	-10168
▁Generasi	-10169
▁Sarwendah	-10170
▁melangkah	-10171
▁pemerasan	-10172
▁tergantung	-10173
▁mengandalkan	-10174
HI	-10175
uty	-10176
▁AA	-10177
▁GT	-10178
▁om	-10179
aint	-10180
atap	-10181
egas	-10182
trak	-10183
udut	-10184
▁mal	-10185
Hamas	-10186
KPSDM	-10187
atika	-10188
ombak	-10189
vatif	-10190
▁Daop	-10191
▁Demi	-10192
▁Greg	-10193
▁dian	-10194
asiswi	-10195
ocoran	-10196
▁Perum	-10197
▁Wisnu	-10198
▁Zakat	-10199
▁makna	-10200
▁rekam	-10201
▁Ducati	-10202
▁Ilegal	-10203
▁inilah	-10204
▁mengom	-10205
imbingan	-10206
▁Kalteng	-10207
▁ilmuwan	-10208
▁Belitung	-10209
▁mengurus	-10210
▁terobosan	-10211
▁kehormatan	-10212
▁penempatan	-10213
▁kreativitas	-10214
bia	-10215
iku	-10216
ejut	-10217
eser	-10218
unch	-10219
▁Pag	-10220
▁SYL	-10221
▁naf	-10222
onjak	-10223
uasin	-10224
▁FIFA	-10225
▁Ferd	-10226
▁Hand	-10227
▁tump	-10228
akapan	-10229
enario	-10230
inding	-10231
kosaan	-10232
▁Enter	-10233
▁Merak	-10234
▁Ryder	-10235
▁Spesi	-10236
▁Virgo	-10237
▁miras	-10238
▁pilar	-10239
asarana	-10240
▁betapa	-10241
▁sengit	-10242
▁Michael	-10243
▁inisial	-10244
engkapnya	-10245
erdayakan	-10246
▁dijatuhi	-10247
▁menghambat	-10248
▁pencabulan	-10249
▁pemanggilan	-10250
implementasikan	-10251
GI	-10252
zy	-10253
Mel	-10254
eet	-10255
iki	-10256
nes	-10257
rol	-10258
uke	-10259
ull	-10260
lami	-10261
▁Jay	-10262
▁bea	-10263
▁sab	-10264
abase	-10265
erior	-10266
▁Ikut	-10267
▁Kimb	-10268
▁Rian	-10269
▁Zaki	-10270
erence	-10271
▁Akmal	-10272
▁Mangg	-10273
▁Prima	-10274
▁South	-10275
▁stres	-10276
andakan	-10277
gabdian	-10278
erikatan	-10279
▁Formasi	-10280
▁Jombang	-10281
▁Proliga	-10282
▁Situasi	-10283
▁indekos	-10284
▁lapisan	-10285
▁penjual	-10286
▁pikiran	-10287
▁pinggir	-10288
▁terjaga	-10289
▁Pahlawan	-10290
▁bersedia	-10291
▁menjerat	-10292
▁menyerah	-10293
▁penataan	-10294
▁tahunnya	-10295
▁Banyuasin	-10296
▁kebiasaan	-10297
▁mengabaikan	-10298
12	-10299
cus	-10300
dem	-10301
opa	-10302
▁MR	-10303
▁Rio	-10304
▁Tor	-10305
▁Upa	-10306
▁tik	-10307
antap	-10308
▁time	-10309
anteng	-10310
junkan	-10311
usukan	-10312
▁Fitri	-10313
▁Human	-10314
▁Jabod	-10315
▁ganti	-10316
▁Migran	-10317
▁bangun	-10318
▁dorong	-10319
▁ekonom	-10320
▁kaitan	-10321
▁semoga	-10322
/1/2024)	-10323
▁Nugraha	-10324
▁Sulteng	-10325
▁Upacara	-10326
▁ternama	-10327
/1/2024).	-10328
▁dikuasai	-10329
▁operator	-10330
▁Alasannya	-10331
▁Kurniawan	-10332
▁kelurahan	-10333
▁disalurkan	-10334
▁membiarkan	-10335
▁penyerahan	-10336
▁mendominasi	-10337
▁mendatangkan	-10338
Hal	-10339
The	-10340
ise	-10341
rum	-10342
▁9.	-10343
acap	-10344
▁.00	-10345
▁Bol	-10346
▁Bon	-10347
▁Nis	-10348
▁Sof	-10349
▁Mada	-10350
▁Vice	-10351
unjang	-10352
▁PEKAN	-10353
▁marak	-10354
abeanan	-10355
isahkan	-10356
▁vaksin	-10357
▁Academy	-10358
▁Project	-10359
▁Saputra	-10360
▁distrik	-10361
▁lonjakan	-10362
▁punggung	-10363
▁Apresiasi	-10364
▁PEKANBARU	-10365
▁Penetapan	-10366
▁Rancangan	-10367
▁Supriyani	-10368
▁penanaman	-10369
▁terdengar	-10370
▁terganggu	-10371
▁Indonesian	-10372
▁membacakan	-10373
0-	-10374
▁x	-10375
eph	-10376
urg	-10377
▁KK	-10378
edib	-10379
oria	-10380
site	-10381
▁AFC	-10382
▁Cer	-10383
▁DBD	-10384
▁Win	-10385
▁Aali	-10386
▁Adat	-10387
▁Doha	-10388
▁Klas	-10389
▁Pres	-10390
▁Yoon	-10391
▁atap	-10392
Bangsa	-10393
Selain	-10394
ernaan	-10395
ikulum	-10396
ukulan	-10397
▁Polit	-10398
▁finis	-10399
▁peramp	-10400
erebekan	-10401
upayakan	-10402
▁Aaliyah	-10403
▁Asisten	-10404
▁William	-10405
▁agresif	-10406
▁Karangan	-10407
▁Kimberly	-10408
▁kriteria	-10409
/11/2024).	-10410
▁kebenaran	-10411
▁minoritas	-10412
▁Pemungutan	-10413
▁bermasalah	-10414
HC	-10415
oe	-10416
Ind	-10417
keu	-10418
odi	-10419
uck	-10420
▁KE	-10421
ista	-10422
▁BSI	-10423
▁Hot	-10424
▁abu	-10425
▁ras	-10426
odong	-10427
rokan	-10428
tanda	-10429
▁Club	-10430
▁Fuji	-10431
▁Krem	-10432
▁cuti	-10433
▁kala	-10434
amboja	-10435
antoro	-10436
▁Nanti	-10437
▁Timah	-10438
▁Jelang	-10439
▁Memang	-10440
▁simpat	-10441
▁trauma	-10442
ahagiaan	-10443
ingankan	-10444
▁Virgoun	-10445
▁memperm	-10446
▁persegi	-10447
▁spesifik	-10448
▁terdepan	-10449
▁Puskesmas	-10450
▁mendapati	-10451
▁menyentuh	-10452
▁pemakaman	-10453
▁pembagian	-10454
▁perkiraan	-10455
▁sebaliknya	-10456
▁kebersamaan	-10457
HT	-10458
-12	-10459
cok	-10460
wah	-10461
▁TP	-10462
Rano	-10463
irin	-10464
▁10.	-10465
▁Lub	-10466
▁mut	-10467
angit	-10468
ility	-10469
imewa	-10470
kasus	-10471
latul	-10472
▁1945	-10473
▁Bule	-10474
▁KPPS	-10475
▁trag	-10476
ontrol	-10477
▁Bulog	-10478
▁Kepri	-10479
▁Paula	-10480
▁Pemda	-10481
▁ketak	-10482
▁makam	-10483
▁sudut	-10484
ospital	-10485
▁Brazil	-10486
▁diskon	-10487
▁jagung	-10488
▁Chandra	-10489
▁Gerimis	-10490
▁Menjadi	-10491
▁Pelajar	-10492
▁beraksi	-10493
▁diskrim	-10494
▁mengacu	-10495
▁sebulan	-10496
▁almarhum	-10497
▁istimewa	-10498
▁tercapai	-10499
▁pelajaran	-10500
▁Pendapatan	-10501
▁kompetitif	-10502
Alhamdulillah	-10503
▁pengeroyokan	-10504
▁pernyataannya	-10505
▁mengkhawatirkan	-10506
Sat	-10507
hit	-10508
tul	-10509
▁Yu	-10510
asem	-10511
epis	-10512
rama	-10513
ulik	-10514
▁Can	-10515
amayu	-10516
edian	-10517
injal	-10518
iskal	-10519
tikoh	-10520
▁Atta	-10521
▁Sara	-10522
anking	-10523
tibmas	-10524
▁Hafid	-10525
▁Kepem	-10526
▁Paloh	-10527
▁Progo	-10528
▁Space	-10529
▁sensi	-10530
▁sumur	-10531
ektorat	-10532
ubarkan	-10533
▁Atikoh	-10534
▁balita	-10535
▁formal	-10536
▁membaw	-10537
▁menges	-10538
▁Kamboja	-10539
▁beralih	-10540
▁konkret	-10541
▁beruntun	-10542
▁Indramayu	-10543
▁Merespons	-10544
▁Prakiraan	-10545
▁Statistik	-10546
▁bertarung	-10547
▁birokrasi	-10548
▁kronologi	-10549
▁realisasi	-10550
▁mewaspadai	-10551
▁Pengendalian	-10552
▁beraktivitas	-10553
ENG	-10554
has	-10555
jam	-10556
▁78	-10557
▁Dw	-10558
▁ni	-10559
BPBD	-10560
sesi	-10561
▁Inn	-10562
▁Nav	-10563
▁fil	-10564
aksel	-10565
amana	-10566
empar	-10567
obaan	-10568
▁Peri	-10569
▁race	-10570
▁star	-10571
Pemkot	-10572
sangat	-10573
▁Ansor	-10574
▁Halim	-10575
▁Milik	-10576
▁Niger	-10577
▁debut	-10578
▁harta	-10579
▁nekat	-10580
▁paruh	-10581
▁pulih	-10582
▁sawah	-10583
▁topik	-10584
ewenang	-10585
▁Dishub	-10586
▁Mayjen	-10587
▁Yandri	-10588
▁lelang	-10589
/7/2024)	-10590
embahkan	-10591
▁Anthony	-10592
▁Latihan	-10593
▁bandang	-10594
onference	-10595
▁Ramadhan	-10596
▁terkejut	-10597
▁kenyataan	-10598
▁sejatinya	-10599
▁dikerahkan	-10600
▁mengarahkan	-10601
▁Perserikatan	-10602
▁berinvestasi	-10603
,8	-10604
5)	-10605
Dia	-10606
eur	-10607
▁79	-10608
▁Aq	-10609
▁DK	-10610
▁Ow	-10611
emuk	-10612
▁Bil	-10613
▁Blu	-10614
ancah	-10615
▁Eddy	-10616
▁Jong	-10617
▁Sind	-10618
walkot	-10619
▁Badai	-10620
▁Rizki	-10621
▁Rusli	-10622
▁Samud	-10623
▁Venez	-10624
▁Wamen	-10625
▁dires	-10626
▁iklan	-10627
etulnya	-10628
oksidan	-10629
▁Kendal	-10630
▁Sesuai	-10631
▁Tannur	-10632
▁indeks	-10633
▁kompak	-10634
▁pantas	-10635
▁seolah	-10636
undangan	-10637
▁Diskusi	-10638
▁Pembina	-10639
▁lingkup	-10640
▁minimum	-10641
▁Kenaikan	-10642
▁hidangan	-10643
▁keliling	-10644
▁ketidakp	-10645
▁landasan	-10646
▁pengedar	-10647
▁perlunya	-10648
▁diusulkan	-10649
▁istirahat	-10650
▁memerangi	-10651
▁penderita	-10652
▁Pelanggaran	-10653
▁Berkelanjutan	-10654
1/	-10655
??	-10656
BM	-10657
ze	-10658
TKP	-10659
cam	-10660
▁pu	-10661
▁sl	-10662
ahul	-10663
elan	-10664
inus	-10665
itel	-10666
obar	-10667
teri	-10668
▁WHO	-10669
▁dif	-10670
▁gro	-10671
ongkr	-10672
orkan	-10673
▁Ardi	-10674
▁Saif	-10675
▁akal	-10676
▁maut	-10677
▁Fitur	-10678
▁Fokus	-10679
▁Hutan	-10680
▁Kamar	-10681
▁Kasih	-10682
▁Ridho	-10683
▁tarik	-10684
ajibkan	-10685
▁2024).	-10686
▁Islami	-10687
▁Menuju	-10688
▁Sulsel	-10689
▁pasang	-10690
▁Mapolda	-10691
▁Tunggal	-10692
▁harinya	-10693
▁pembeli	-10694
▁Magelang	-10695
▁Selandia	-10696
▁berdasar	-10697
▁mengutuk	-10698
▁mitigasi	-10699
▁Nahdlatul	-10700
▁memprediksi	-10701
▁pemerkosaan	-10702
▁bertentangan	-10703
xy	-10704
RIS	-10705
ale	-10706
▁Gum	-10707
▁Kop	-10708
▁cap	-10709
ensik	-10710
estan	-10711
▁2030	-10712
▁Afif	-10713
▁Area	-10714
▁Aset	-10715
▁Hans	-10716
▁food	-10717
undaan	-10718
▁Bahan	-10719
▁Desak	-10720
▁Dimas	-10721
▁Libur	-10722
▁Pemad	-10723
▁Tokoh	-10724
▁Vadel	-10725
▁Yudha	-10726
▁balap	-10727
▁Justin	-10728
▁ternak	-10729
▁tunggu	-10730
▁Berawan	-10731
▁Cilacap	-10732
▁Muhamad	-10733
▁Richard	-10734
▁berangg	-10735
▁menunda	-10736
▁protein	-10737
arasumber	-10738
rihatinan	-10739
▁berkisar	-10740
▁campuran	-10741
▁diungkap	-10742
▁mendiang	-10743
▁Alexander	-10744
▁pemainnya	-10745
▁potensial	-10746
▁didapatkan	-10747
▁meringankan	-10748
▁mengomentari	-10749
4/	-10750
7/	-10751
AC	-10752
-25	-10753
duc	-10754
nis	-10755
uet	-10756
usa	-10757
▁Po	-10758
ikhu	-10759
illa	-10760
▁700	-10761
▁ESG	-10762
▁san	-10763
ERANG	-10764
adjah	-10765
agiri	-10766
amati	-10767
orejo	-10768
ulung	-10769
▁Iman	-10770
▁Merc	-10771
▁West	-10772
▁Lihat	-10773
▁bedah	-10774
▁lapor	-10775
▁satwa	-10776
ingkali	-10777
▁Gadjah	-10778
▁Lantas	-10779
▁Legisl	-10780
▁Macron	-10781
▁Petani	-10782
▁Shopee	-10783
▁remisi	-10784
parekraf	-10785
▁Dokumen	-10786
▁Senator	-10787
▁Syaikhu	-10788
▁dangdut	-10789
▁Keliling	-10790
▁Sandiaga	-10791
▁diundang	-10792
▁santunan	-10793
▁TANGERANG	-10794
▁pencucian	-10795
▁tunjangan	-10796
▁dibatalkan	-10797
▁disesuaikan	-10798
▁mempermudah	-10799
▁menghalangi	-10800
▁pengunduran	-10801
▁penyesuaian	-10802
▁menginspirasi	-10803
med	-10804
okw	-10805
ote	-10806
▁Hu	-10807
▁Qu	-10808
alem	-10809
appy	-10810
ebol	-10811
stil	-10812
▁BPK	-10813
▁Jul	-10814
▁Lew	-10815
▁kac	-10816
iated	-10817
ikapi	-10818
▁Bint	-10819
▁Brip	-10820
▁diga	-10821
▁jaga	-10822
▁tipe	-10823
erebek	-10824
lamasi	-10825
usunan	-10826
▁Asasi	-10827
▁Cepat	-10828
▁elite	-10829
▁tebal	-10830
▁burung	-10831
▁tabung	-10832
▁Terpadu	-10833
▁dibayar	-10834
▁manajer	-10835
▁syariah	-10836
umbangkan	-10837
▁Hospital	-10838
▁Indragiri	-10839
▁Insurance	-10840
▁keindahan	-10841
▁rancangan	-10842
▁streaming	-10843
omendasikan	-10844
▁Pengamanan	-10845
▁Setidaknya	-10846
▁pencernaan	-10847
▁terbarunya	-10848
▁penggelapan	-10849
,4	-10850
hut	-10851
vir	-10852
▁SH	-10853
▁lo	-10854
azia	-10855
idin	-10856
▁00.	-10857
▁Eff	-10858
▁VNL	-10859
▁com	-10860
asang	-10861
eliti	-10862
▁2013	-10863
▁beri	-10864
▁segi	-10865
ikmati	-10866
▁Mahal	-10867
▁Gading	-10868
▁Harian	-10869
▁dibeli	-10870
▁kalian	-10871
▁sebaga	-10872
▁Haniyeh	-10873
▁Wakapol	-10874
▁berbuat	-10875
▁membaik	-10876
▁seminar	-10877
▁Kedutaan	-10878
▁putrinya	-10879
▁rekayasa	-10880
▁terkesan	-10881
▁Fasilitas	-10882
▁Secretary	-10883
▁Sukoharjo	-10884
▁ketimbang	-10885
▁Associated	-10886
▁penyelamatan	-10887
▁memberdayakan	-10888
Se	-10889
ety	-10890
oke	-10891
rey	-10892
sin	-10893
▁8.	-10894
isol	-10895
▁SIG	-10896
▁Teb	-10897
▁Wis	-10898
ortir	-10899
uansa	-10900
uting	-10901
▁Bawa	-10902
▁Kadi	-10903
▁Slam	-10904
ambing	-10905
endang	-10906
▁Andra	-10907
▁Mikro	-10908
▁Undip	-10909
▁didik	-10910
▁2024/2	-10911
▁Irawan	-10912
▁Minyak	-10913
▁Sorong	-10914
▁pembac	-10915
▁pintar	-10916
andirian	-10917
▁Pesisir	-10918
▁kontrol	-10919
▁rampung	-10920
omunikasi	-10921
▁dipasang	-10922
▁pendahul	-10923
▁peradilan	-10924
▁berpeluang	-10925
▁didasarkan	-10926
▁jajarannya	-10927
▁kebangsaan	-10928
▁konsultasi	-10929
▁terpopuler	-10930
▁Informatika	-10931
▁penyimpanan	-10932
osialisasikan	-10933
▁kepresidenan	-10934
▁Communication	-10935
eru	-10936
hoa	-10937
sch	-10938
urt	-10939
▁Cr	-10940
▁Uj	-10941
abek	-10942
irik	-10943
oris	-10944
ukuh	-10945
usir	-10946
▁Tex	-10947
▁tro	-10948
aznas	-10949
kawan	-10950
manen	-10951
▁Gall	-10952
▁Juga	-10953
▁Marg	-10954
▁Terk	-10955
▁tand	-10956
Semoga	-10957
blakan	-10958
eledah	-10959
emaran	-10960
ugurra	-10961
ulangi	-10962
▁Hamid	-10963
▁Kecil	-10964
▁Leste	-10965
▁ditur	-10966
esterol	-10967
▁Hilang	-10968
▁Kredit	-10969
▁paspor	-10970
hentikan	-10971
▁Aktivis	-10972
▁Cugurra	-10973
▁Kremlin	-10974
▁Massaid	-10975
▁Menpora	-10976
▁dinamis	-10977
▁memukul	-10978
▁Kementan	-10979
▁tugasnya	-10980
▁pemasaran	-10981
▁pengajuan	-10982
▁perseroan	-10983
▁antusiasme	-10984
▁diturunkan	-10985
▁pemindahan	-10986
▁pemusnahan	-10987
▁pendamping	-10988
▁Pelaksanaan	-10989
▁Pertumbuhan	-10990
▁popularitas	-10991
▁pengendalian	-10992
LB	-10993
vi	-10994
Pel	-10995
ael	-10996
▁JI	-10997
▁SC	-10998
mata	-10999
tisi	-11000
▁Nad	-11001
PANRB	-11002
arini	-11003
ograf	-11004
tunya	-11005
▁pipa	-11006
acunan	-11007
agukan	-11008
angsel	-11009
elatan	-11010
partai	-11011
▁Antar	-11012
▁Bakar	-11013
▁Damas	-11014
▁Musim	-11015
erakkan	-11016
▁Pelita	-11017
▁Tengku	-11018
▁kancah	-11019
/6/2024)	-11020
ontarkan	-11021
▁Siregar	-11022
▁bentrok	-11023
▁imigran	-11024
▁meledak	-11025
▁menanam	-11026
▁tsunami	-11027
▁ambulans	-11028
▁berpesan	-11029
▁ditandai	-11030
▁melonjak	-11031
▁potongan	-11032
▁seminggu	-11033
▁terseret	-11034
▁Penanganan	-11035
▁mengadopsi	-11036
▁peninjauan	-11037
▁percakapan	-11038
JO	-11039
ANY	-11040
Dis	-11041
cep	-11042
dir	-11043
way	-11044
afia	-11045
ajin	-11046
pert	-11047
▁Kit	-11048
▁Mid	-11049
▁RAN	-11050
alung	-11051
itter	-11052
▁Fern	-11053
▁info	-11054
embada	-11055
ternal	-11056
▁Bangk	-11057
▁Kadek	-11058
▁berad	-11059
▁induk	-11060
▁smart	-11061
▁tanam	-11062
isiatif	-11063
▁Berita	-11064
▁Paling	-11065
▁Philip	-11066
▁fiskal	-11067
▁Pacitan	-11068
▁Tipikor	-11069
▁berdaya	-11070
▁berlalu	-11071
▁pelapor	-11072
▁tangguh	-11073
/8/2024).	-11074
italisasi	-11075
▁2023/2024	-11076
▁Intelijen	-11077
▁Pencarian	-11078
▁apartemen	-11079
▁perkotaan	-11080
▁pemasangan	-11081
▁beradaptasi	-11082
PBB	-11083
UMI	-11084
mor	-11085
▁GM	-11086
▁SS	-11087
Hari	-11088
aten	-11089
ecut	-11090
▁1.4	-11091
▁Cro	-11092
▁LHK	-11093
▁UKM	-11094
▁ten	-11095
antum	-11096
awahi	-11097
▁ikon	-11098
enalan	-11099
iksaan	-11100
isteri	-11101
obokan	-11102
▁Caleg	-11103
▁Carol	-11104
▁James	-11105
▁Machm	-11106
▁Marga	-11107
▁bunyi	-11108
▁dimak	-11109
▁natur	-11110
▁Sektor	-11111
▁Senior	-11112
▁klinik	-11113
▁pondok	-11114
▁Respons	-11115
▁infeksi	-11116
▁melapor	-11117
▁wawasan	-11118
▁website	-11119
inggalkan	-11120
▁Konvensi	-11121
▁diproses	-11122
▁skenario	-11123
▁perluasan	-11124
▁tendangan	-11125
▁Peluncuran	-11126
▁mengevaluasi	-11127
▁mengutamakan	-11128
▁menyayangkan	-11129
▁berpengalaman	-11130
9)	-11131
EI	-11132
vy	-11133
▁85	-11134
UMKM	-11135
elus	-11136
etus	-11137
gres	-11138
niat	-11139
▁Lat	-11140
▁Lib	-11141
▁SUV	-11142
▁jus	-11143
amaan	-11144
astis	-11145
butor	-11146
▁Deli	-11147
▁Dini	-11148
anggal	-11149
ariasi	-11150
▁13.00	-11151
▁Airin	-11152
▁Aulia	-11153
▁Oknum	-11154
▁Retno	-11155
▁Selat	-11156
▁hibah	-11157
▁marah	-11158
loitasi	-11159
▁Robert	-11160
▁Unggul	-11161
▁center	-11162
▁goreng	-11163
yongyang	-11164
▁Sahabat	-11165
▁Sirkuit	-11166
▁gelaran	-11167
▁rasanya	-11168
angsungan	-11169
▁Darmawan	-11170
▁Revolusi	-11171
▁diaspora	-11172
▁mengganti	-11173
▁sebagainya	-11174
▁pengungsian	-11175
▁pertarungan	-11176
rt	-11177
Dit	-11178
fiq	-11179
gma	-11180
lig	-11181
rio	-11182
uno	-11183
▁SW	-11184
asuh	-11185
show	-11186
uruf	-11187
▁Mau	-11188
▁STY	-11189
ANYAR	-11190
Sudah	-11191
ademi	-11192
impun	-11193
▁King	-11194
▁Laos	-11195
▁Yani	-11196
▁hulu	-11197
▁test	-11198
Pemkab	-11199
izinan	-11200
onghoa	-11201
▁Didik	-11202
▁bursa	-11203
▁kurun	-11204
asangan	-11205
▁Bangli	-11206
▁Bersih	-11207
▁Motors	-11208
▁Sports	-11209
▁mengob	-11210
▁polusi	-11211
endungan	-11212
▁Keempat	-11213
▁imbauan	-11214
eimbangan	-11215
▁Kematian	-11216
▁berjarak	-11217
▁menyerap	-11218
▁simbolis	-11219
▁Pyongyang	-11220
▁diperkuat	-11221
▁disiarkan	-11222
▁pendataan	-11223
▁peresmian	-11224
▁perizinan	-11225
▁perundang	-11226
▁sebaiknya	-11227
▁Karangasem	-11228
▁Penggunaan	-11229
▁memulihkan	-11230
▁menanyakan	-11231
▁pengeluaran	-11232
▁transparansi	-11233
EV	-11234
-21	-11235
ire	-11236
▁69	-11237
▁Sm	-11238
▁XI	-11239
arau	-11240
osat	-11241
▁120	-11242
▁Don	-11243
▁Gon	-11244
▁Ref	-11245
▁Rup	-11246
▁Taj	-11247
▁ren	-11248
▁sib	-11249
▁sum	-11250
itudo	-11251
orial	-11252
ungli	-11253
▁Mati	-11254
▁spek	-11255
▁tour	-11256
Korban	-11257
ekalan	-11258
ihatin	-11259
▁Bakti	-11260
▁Halal	-11261
▁Kebun	-11262
▁Lawan	-11263
▁Posko	-11264
▁Salam	-11265
▁Sepak	-11266
▁Tuban	-11267
▁pasir	-11268
embunyi	-11269
tukaran	-11270
▁10.000	-11271
▁Gegara	-11272
▁Sempat	-11273
▁Taufik	-11274
▁dukung	-11275
yaratkan	-11276
▁Tambang	-11277
▁pandang	-11278
▁polemik	-11279
▁spanduk	-11280
resentasi	-11281
▁Damaskus	-11282
▁Tionghoa	-11283
▁besarnya	-11284
▁gambaran	-11285
▁Akibatnya	-11286
▁Pembinaan	-11287
▁inspirasi	-11288
▁ketakutan	-11289
▁memblokir	-11290
▁mendoakan	-11291
▁prasarana	-11292
ealisasikan	-11293
▁diputuskan	-11294
▁kebersihan	-11295
▁antioksidan	-11296
▁Penyelenggaraan	-11297
VID	-11298
WNA	-11299
ese	-11300
lit	-11301
voi	-11302
acak	-11303
▁Aip	-11304
▁PHK	-11305
▁Tay	-11306
▁pep	-11307
uheni	-11308
▁2008	-11309
▁Wira	-11310
agakan	-11311
entase	-11312
trumen	-11313
▁Bebas	-11314
▁Hijau	-11315
▁Usman	-11316
▁susah	-11317
okratis	-11318
▁Pabrik	-11319
▁Penerb	-11320
▁basket	-11321
▁ginjal	-11322
▁syukur	-11323
▁Jaminan	-11324
▁Menteng	-11325
▁pembuat	-11326
▁sembari	-11327
▁Electric	-11328
▁setinggi	-11329
▁walaupun	-11330
▁dampaknya	-11331
▁kerusuhan	-11332
▁sutradara	-11333
▁mengerikan	-11334
▁menguatkan	-11335
▁seringkali	-11336
▁ditargetkan	-11337
▁memindahkan	-11338
▁dikembalikan	-11339
▁selengkapnya	-11340
6)	-11341
RO	-11342
DIY	-11343
top	-11344
▁ra	-11345
Teco	-11346
amis	-11347
ante	-11348
arai	-11349
esus	-11350
yana	-11351
▁ITB	-11352
▁Leo	-11353
▁Lin	-11354
▁Mew	-11355
▁Tua	-11356
▁adu	-11357
▁fan	-11358
Namun	-11359
ewaan	-11360
ubang	-11361
▁2000	-11362
▁Hery	-11363
▁Modi	-11364
▁Ning	-11365
▁Toko	-11366
▁liga	-11367
▁madu	-11368
ebatan	-11369
▁2019.	-11370
▁COVID	-11371
▁Dosen	-11372
▁Jessi	-11373
▁Kisah	-11374
▁Maris	-11375
▁Massa	-11376
▁Paser	-11377
▁Smart	-11378
▁yatim	-11379
ulainya	-11380
▁Ekspor	-11381
▁Karnav	-11382
▁Kelapa	-11383
▁Remaja	-11384
▁Sekali	-11385
▁relasi	-11386
/4/2024)	-11387
akauheni	-11388
angkuman	-11389
opolitik	-11390
▁Indosat	-11391
▁dimasuk	-11392
▁paparan	-11393
▁pencari	-11394
estarikan	-11395
▁Jurnalis	-11396
▁Lamongan	-11397
▁formulir	-11398
▁Pengadaan	-11399
▁Pilwalkot	-11400
▁kontainer	-11401
▁berdiskusi	-11402
▁kesetaraan	-11403
▁simpatisan	-11404
▁Karanganyar	-11405
▁Kepresidenan	-11406
▁Transportasi	-11407
▁keprihatinan	-11408
▁menyukseskan	-11409
ET	-11410
wo	-11411
-1.	-11412
ein	-11413
rik	-11414
▁87	-11415
▁MT	-11416
▁mm	-11417
sing	-11418
umai	-11419
▁1.6	-11420
▁12.	-11421
▁15.	-11422
adasi	-11423
elter	-11424
encer	-11425
iliun	-11426
▁Coll	-11427
▁Main	-11428
▁Mera	-11429
▁Palu	-11430
▁juri	-11431
▁pita	-11432
agaman	-11433
alanya	-11434
▁Cerah	-11435
▁Chery	-11436
▁Maria	-11437
▁balon	-11438
▁bantu	-11439
▁sport	-11440
alungun	-11441
entrasi	-11442
sekitar	-11443
▁Bilang	-11444
▁Museum	-11445
▁System	-11446
▁mempro	-11447
▁miliki	-11448
incangan	-11449
ontohkan	-11450
▁Darurat	-11451
▁dilalui	-11452
angguhkan	-11453
▁Peneliti	-11454
▁Polhukam	-11455
▁Terpilih	-11456
▁menangis	-11457
▁permanen	-11458
▁Ditemukan	-11459
▁Gelandang	-11460
▁Laksamana	-11461
▁meredakan	-11462
▁pengisian	-11463
▁2024-2029.	-11464
▁Simalungun	-11465
▁Temanggung	-11466
▁berlambang	-11467
▁tertangkap	-11468
▁kebahagiaan	-11469
▁konsekuensi	-11470
els	-11471
foto	-11472
spek	-11473
▁But	-11474
▁Hay	-11475
▁Yon	-11476
▁ent	-11477
▁iri	-11478
▁pay	-11479
aruan	-11480
▁Adhi	-11481
▁Mali	-11482
▁komb	-11483
ahlian	-11484
ejaran	-11485
isaran	-11486
otakan	-11487
▁Irfan	-11488
▁Pesta	-11489
▁bakat	-11490
▁bocah	-11491
▁ingat	-11492
anggaan	-11493
▁Enggak	-11494
▁Febian	-11495
▁Korsel	-11496
▁lembar	-11497
▁Denmark	-11498
▁Magetan	-11499
▁Masters	-11500
▁berniat	-11501
▁bungkus	-11502
▁pejuang	-11503
▁pesaing	-11504
andingkan	-11505
▁Sebegini	-11506
▁balistik	-11507
▁genosida	-11508
▁terlepas	-11509
▁Sudaryono	-11510
▁mengantarkan	-11511
EP	-11512
100	-11513
cer	-11514
hin	-11515
ott	-11516
rar	-11517
▁61	-11518
▁CV	-11519
▁ov	-11520
▁sc	-11521
reat	-11522
▁6,5	-11523
▁Cat	-11524
▁dri	-11525
▁lun	-11526
arbon	-11527
epung	-11528
ybrid	-11529
▁2009	-11530
▁Berg	-11531
▁Bond	-11532
▁Buku	-11533
▁Info	-11534
▁Mang	-11535
▁Maru	-11536
▁Maya	-11537
▁Pura	-11538
▁Rano	-11539
▁Tuan	-11540
▁jahe	-11541
▁jari	-11542
▁memo	-11543
▁show	-11544
ANTARA	-11545
elahan	-11546
gaskan	-11547
▁Games	-11548
▁Liter	-11549
▁Mardi	-11550
▁Musik	-11551
▁Paket	-11552
▁Praja	-11553
▁Tiket	-11554
▁jajak	-11555
▁multi	-11556
▁serat	-11557
▁Hendra	-11558
▁Tembak	-11559
▁herbal	-11560
▁kadang	-11561
egradasi	-11562
▁Waspada	-11563
▁dinding	-11564
▁kejutan	-11565
▁memutus	-11566
▁sepekan	-11567
▁Terakhir	-11568
▁berpihak	-11569
▁membuang	-11570
▁mengalir	-11571
▁pungutan	-11572
▁sensitif	-11573
▁terlarang	-11574
▁Kapolresta	-11575
▁Technology	-11576
▁ditugaskan	-11577
▁Kemerdekaan	-11578
▁Pemeriksaan	-11579
▁dipindahkan	-11580
▁penggerebekan	-11581
▁ketidakpastian	-11582
Pro	-11583
das	-11584
uch	-11585
▁BS	-11586
enue	-11587
esty	-11588
miah	-11589
udan	-11590
▁BIN	-11591
▁Gak	-11592
▁alk	-11593
ister	-11594
onjol	-11595
untuh	-11596
▁duta	-11597
▁ning	-11598
▁prib	-11599
▁wati	-11600
akiman	-11601
imanuk	-11602
okwari	-11603
ondong	-11604
porasi	-11605
▁Fahmi	-11606
▁Ilham	-11607
▁Texas	-11608
▁direk	-11609
▁murni	-11610
itahuan	-11611
▁Kupang	-11612
▁Lukman	-11613
▁Slamet	-11614
▁akurat	-11615
▁Jessica	-11616
▁Pribadi	-11617
▁didakwa	-11618
▁ekstasi	-11619
▁Tindakan	-11620
▁kepuasan	-11621
▁menyeber	-11622
▁merekrut	-11623
▁personal	-11624
▁Manokwari	-11625
▁Penjualan	-11626
▁Sayangnya	-11627
▁Tantangan	-11628
▁dinikmati	-11629
▁handphone	-11630
▁instruksi	-11631
▁jangkauan	-11632
▁Kedatangan	-11633
▁Penjelasan	-11634
▁menembakkan	-11635
EL	-11636
WI	-11637
juh	-11638
▁1,7	-11639
▁18.	-11640
▁Fai	-11641
▁UGM	-11642
▁peg	-11643
▁reb	-11644
ganda	-11645
iayai	-11646
nando	-11647
▁Bara	-11648
▁Biru	-11649
▁Kopi	-11650
▁Obat	-11651
▁diak	-11652
kandal	-11653
ulikan	-11654
▁Pasca	-11655
▁Sandi	-11656
▁Siaga	-11657
▁Ujang	-11658
▁pompa	-11659
lembaga	-11660
ustrian	-11661
▁Berkat	-11662
▁Invest	-11663
▁terbit	-11664
endahara	-11665
▁Apabila	-11666
▁Konflik	-11667
endudukan	-11668
▁miliaran	-11669
▁petunjuk	-11670
▁wewenang	-11671
/12/2024).	-11672
▁Kerobokan	-11673
▁berkompet	-11674
▁kebocoran	-11675
▁kedudukan	-11676
▁disepakati	-11677
▁memadamkan	-11678
▁narasumber	-11679
▁mengendarai	-11680
▁diskriminasi	-11681
▁perselisihan	-11682
TC	-11683
arm	-11684
get	-11685
ors	-11686
umo	-11687
▁72	-11688
▁AW	-11689
▁Jl	-11690
▁KR	-11691
▁PJ	-11692
▁qu	-11693
JPNN	-11694
awai	-11695
enek	-11696
imer	-11697
resh	-11698
▁Dic	-11699
▁GBK	-11700
▁cac	-11701
Hatta	-11702
▁Adil	-11703
▁Agam	-11704
▁Nurh	-11705
▁Road	-11706
▁Umar	-11707
▁peta	-11708
kantor	-11709
▁10.00	-11710
▁3.000	-11711
▁Hendy	-11712
▁Lolly	-11713
▁Promo	-11714
▁Viral	-11715
▁enter	-11716
▁opini	-11717
▁Dadang	-11718
▁Emirat	-11719
▁Kampar	-11720
▁hybrid	-11721
▁Angeles	-11722
▁Tangkap	-11723
▁inklusi	-11724
▁tekstil	-11725
anggotaan	-11726
▁pahlawan	-11727
▁terburuk	-11728
▁Karnavian	-11729
▁Kemenpora	-11730
▁terbentuk	-11731
ekomunikasi	-11732
▁kebanggaan	-11733
▁pembakaran	-11734
▁pengabdian	-11735
▁penyiksaan	-11736
▁Transformasi	-11737
▁mencontohkan	-11738
,2	-11739
LU	-11740
▁62	-11741
▁AN	-11742
▁KL	-11743
▁ha	-11744
atis	-11745
endy	-11746
inic	-11747
mond	-11748
work	-11749
▁Fab	-11750
▁Rum	-11751
erapa	-11752
jideh	-11753
▁Adam	-11754
▁Baca	-11755
▁duel	-11756
▁ragu	-11757
hoeven	-11758
iganya	-11759
odalan	-11760
▁Candi	-11761
▁Dirut	-11762
▁Kasub	-11763
▁Korps	-11764
▁Panja	-11765
▁radik	-11766
idupkan	-11767
juaraan	-11768
▁Farhan	-11769
▁Firman	-11770
▁Govern	-11771
▁Indeks	-11772
▁Kusuma	-11773
▁Semeru	-11774
▁series	-11775
andangan	-11776
elamatan	-11777
emukakan	-11778
▁Holding	-11779
▁drastis	-11780
▁memperl	-11781
▁tulisan	-11782
▁Badjideh	-11783
▁akademik	-11784
▁koperasi	-11785
▁memburuk	-11786
▁menarget	-11787
▁seberapa	-11788
resnarkoba	-11789
▁Pengelola	-11790
▁Tujuannya	-11791
▁Verhoeven	-11792
▁posisinya	-11793
▁mendeteksi	-11794
▁solidaritas	-11795
▁Infrastruktur	-11796
▁beranggotakan	-11797
▁diperbolehkan	-11798
,6	-11799
okh	-11800
▁Za	-11801
▁go	-11802
appe	-11803
araf	-11804
jono	-11805
obat	-11806
orth	-11807
oyal	-11808
▁Cab	-11809
▁Gem	-11810
▁kru	-11811
arisb	-11812
arket	-11813
▁Blok	-11814
▁Mukt	-11815
▁PTPN	-11816
▁asap	-11817
▁gitu	-11818
Pelaku	-11819
amatis	-11820
▁Kader	-11821
▁Tasik	-11822
▁Teddy	-11823
bilitas	-11824
eritahu	-11825
unculan	-11826
▁Merauke	-11827
▁Sedikit	-11828
▁Twitter	-11829
▁diguyur	-11830
▁ditulis	-11831
▁kemarau	-11832
▁kreator	-11833
▁pemohon	-11834
▁Mahalini	-11835
▁Produksi	-11836
▁berbulan	-11837
▁profesor	-11838
▁suaranya	-11839
▁terendam	-11840
arisbawahi	-11841
▁diizinkan	-11842
▁kesaksian	-11843
▁Perjalanan	-11844
▁dimasukkan	-11845
▁fungsional	-11846
▁peternakan	-11847
▁intelektual	-11848
▁memeriahkan	-11849
▁diwawancarai	-11850
▁pemberhentian	-11851
▁memprioritaskan	-11852
DK	-11853
PJ	-11854
be	-11855
qi	-11856
ui	-11857
Tim	-11858
pot	-11859
▁',	-11860
arta	-11861
arya	-11862
erdi	-11863
igan	-11864
kata	-11865
mpan	-11866
room	-11867
▁1.0	-11868
▁Jet	-11869
jikan	-11870
orasi	-11871
▁Aris	-11872
▁Bach	-11873
▁Meta	-11874
▁apik	-11875
▁biji	-11876
▁cari	-11877
▁jeda	-11878
ibraka	-11879
▁Maung	-11880
▁Oscar	-11881
▁Plaza	-11882
▁sedih	-11883
▁urine	-11884
Melalui	-11885
alongan	-11886
awijaya	-11887
▁Antony	-11888
▁Austin	-11889
▁memuat	-11890
ahabatan	-11891
enjangan	-11892
ungkidul	-11893
▁Gugatan	-11894
▁Penulis	-11895
▁Perwira	-11896
▁berkala	-11897
▁organik	-11898
▁ranking	-11899
▁Pengumuman	-11900
▁Sebaliknya	-11901
▁dimulainya	-11902
▁menghitung	-11903
▁menyajikan	-11904
▁menyumbang	-11905
▁Gunungkidul	-11906
▁pelestarian	-11907
▁keseimbangan	-11908
▁keterbatasan	-11909
▁merencanakan	-11910
dha	-11911
ylv	-11912
▁AK	-11913
▁IX	-11914
▁JA	-11915
ring	-11916
tiga	-11917
uhur	-11918
▁11.	-11919
▁APK	-11920
▁LRT	-11921
▁Pep	-11922
barui	-11923
empah	-11924
nsylv	-11925
▁Asri	-11926
▁Mata	-11927
▁keri	-11928
ajinan	-11929
encian	-11930
opedia	-11931
▁19.00	-11932
▁Hewan	-11933
▁Kodam	-11934
▁Multi	-11935
▁Peneg	-11936
▁demam	-11937
▁tukar	-11938
luencer	-11939
▁Bhakti	-11940
▁Manado	-11941
▁Mbappe	-11942
▁Miller	-11943
▁Posisi	-11944
▁Potret	-11945
▁Syarif	-11946
▁berbel	-11947
▁dengar	-11948
▁hormat	-11949
▁peraih	-11950
▁semula	-11951
▁seumur	-11952
▁Belanja	-11953
▁Charles	-11954
▁Ibrahim	-11955
▁Simpang	-11956
▁Terbuka	-11957
▁Wahyudi	-11958
▁ditunda	-11959
▁kelamin	-11960
▁mediasi	-11961
▁memohon	-11962
▁migrasi	-11963
nsylvania	-11964
▁Agustina	-11965
▁Anugerah	-11966
▁Berdasar	-11967
▁Tercatat	-11968
▁Walaupun	-11969
▁gemilang	-11970
▁rekannya	-11971
▁2024-2025	-11972
▁Luncurkan	-11973
▁Machmudin	-11974
▁Pangkalan	-11975
▁penawaran	-11976
▁puskesmas	-11977
▁Pekalongan	-11978
▁pemotongan	-11979
▁pungkasnya	-11980
▁penampungan	-11981
▁Pennsylvania	-11982
▁laboratorium	-11983
▁Kesejahteraan	-11984
EF	-11985
SU	-11986
-18	-11987
BKN	-11988
PKB	-11989
edd	-11990
▁94	-11991
▁LI	-11992
▁ec	-11993
▁jo	-11994
arut	-11995
odoh	-11996
yati	-11997
▁Def	-11998
▁Kub	-11999
▁MUI	-12000
▁Uno	-12001
▁peb	-12002
LATAN	-12003
aijan	-12004
amaah	-12005
ayana	-12006
yaris	-12007
▁Misi	-12008
▁Saja	-12009
▁Seto	-12010
▁back	-12011
▁post	-12012
▁sewa	-12013
▁sind	-12014
ancial	-12015
eteran	-12016
imbing	-12017
minton	-12018
▁Kadiv	-12019
▁Lokal	-12020
▁Panas	-12021
▁sibuk	-12022
▁siswi	-12023
aringan	-12024
ayarkan	-12025
ecutive	-12026
ustomer	-12027
▁Centre	-12028
▁amanat	-12029
▁keenam	-12030
▁tersel	-12031
afiliasi	-12032
▁GIANYAR	-12033
▁SELATAN	-12034
▁Sejarah	-12035
▁asisten	-12036
▁serikat	-12037
Indonesia	-12038
▁Tanggung	-12039
▁Wartawan	-12040
▁diserang	-12041
▁ekspansi	-12042
▁alasannya	-12043
▁munculnya	-12044
▁spiritual	-12045
▁vaksinasi	-12046
▁memamerkan	-12047
▁perhelatan	-12048
▁swasembada	-12049
▁penyerangan	-12050
▁diperhatikan	-12051
▁keimigrasian	-12052
▁berkesempatan	-12053
▁menggarisbawahi	-12054
pe	-12055
jol	-12056
nan	-12057
ree	-12058
▁89	-12059
▁KN	-12060
ains	-12061
ific	-12062
▁Fil	-12063
▁ICE	-12064
▁Out	-12065
▁Raj	-12066
▁Sas	-12067
▁Som	-12068
▁nan	-12069
erson	-12070
rumah	-12071
▁Berp	-12072
▁Camp	-12073
▁Pask	-12074
▁Puji	-12075
▁SMAN	-12076
akitan	-12077
ataran	-12078
esatyo	-12079
otaris	-12080
pinang	-12081
▁Henry	-12082
▁Iklim	-12083
▁Ricky	-12084
▁Siber	-12085
▁cagub	-12086
▁kaget	-12087
▁mesti	-12088
▁pidat	-12089
endakan	-12090
onisasi	-12091
▁Berlin	-12092
▁Kenapa	-12093
▁Ponpes	-12094
▁berkeb	-12095
▁milisi	-12096
▁visual	-12097
▁talenta	-12098
▁Nantinya	-12099
▁Soesatyo	-12100
▁dituntut	-12101
▁keahlian	-12102
▁mencoblos	-12103
▁penarikan	-12104
▁pidatonya	-12105
▁produknya	-12106
▁terhitung	-12107
▁disaksikan	-12108
▁terpenting	-12109
▁diselamatkan	-12110
▁penghormatan	-12111
▁menggabungkan	-12112
SA	-12113
ger	-12114
kol	-12115
▁SB	-12116
▁Wa	-12117
Kota	-12118
isir	-12119
ogok	-12120
soft	-12121
umer	-12122
ware	-12123
▁Van	-12124
esaan	-12125
murti	-12126
opang	-12127
▁2004	-12128
▁Agar	-12129
▁Ipda	-12130
▁Soeh	-12131
▁amal	-12132
▁manc	-12133
▁nota	-12134
ecahan	-12135
imeter	-12136
▁Bahas	-12137
▁Saran	-12138
▁dipad	-12139
▁vital	-12140
yawarah	-12141
▁Cerita	-12142
▁Santri	-12143
▁Seribu	-12144
▁dimana	-12145
▁klasik	-12146
▁mengag	-12147
▁sprint	-12148
eksekusi	-12149
erbaijan	-12150
▁Mardani	-12151
▁sayuran	-12152
▁Konsumen	-12153
▁berjuluk	-12154
▁penderit	-12155
▁Indikator	-12156
▁kejaksaan	-12157
▁keracunan	-12158
▁menyikapi	-12159
ublikasikan	-12160
▁disebutnya	-12161
▁geopolitik	-12162
▁monitoring	-12163
TU	-12164
VP	-12165
-29	-12166
GBT	-12167
ape	-12168
bag	-12169
zes	-12170
▁74	-12171
▁MH	-12172
▁ol	-12173
-19.	-12174
care	-12175
gawa	-12176
imen	-12177
obel	-12178
▁1-0	-12179
▁17.	-12180
▁Akh	-12181
▁Bit	-12182
▁IBL	-12183
▁Jej	-12184
▁Mim	-12185
▁Nor	-12186
▁PAS	-12187
▁PKK	-12188
▁Rej	-12189
▁lok	-12190
▁pam	-12191
antis	-12192
autan	-12193
emier	-12194
onsul	-12195
▁Enam	-12196
▁Rafi	-12197
▁Rasa	-12198
▁Tern	-12199
▁Truk	-12200
▁Usai	-12201
▁Yudi	-12202
▁brut	-12203
▁kuda	-12204
▁lega	-12205
▁Deddy	-12206
▁Dumai	-12207
▁Lahad	-12208
▁Lebat	-12209
▁Mudah	-12210
▁Pintu	-12211
▁bayar	-12212
▁gerai	-12213
▁koper	-12214
▁polit	-12215
▁Bareng	-12216
▁Itulah	-12217
▁Kajian	-12218
▁Mandal	-12219
▁jurnal	-12220
▁mentah	-12221
/8/2024)	-12222
▁Patroli	-12223
▁Tentang	-12224
▁alkohol	-12225
▁gerbang	-12226
▁irigasi	-12227
▁teratas	-12228
▁terekam	-12229
▁Michigan	-12230
▁menggali	-12231
▁Berbicara	-12232
▁Pengungsi	-12233
▁berperang	-12234
▁berukuran	-12235
▁indikator	-12236
▁memenangi	-12237
▁Pegunungan	-12238
▁dilindungi	-12239
▁hilirisasi	-12240
▁menjunjung	-12241
▁meramaikan	-12242
▁mancanegara	-12243
▁menyalahkan	-12244
ato	-12245
pan	-12246
put	-12247
taz	-12248
otoh	-12249
▁Lut	-12250
▁SUK	-12251
▁Say	-12252
▁cat	-12253
masin	-12254
▁2011	-12255
▁Prih	-12256
▁Visi	-12257
▁alum	-12258
▁play	-12259
▁rugi	-12260
▁serv	-12261
▁sumb	-12262
arudin	-12263
atukan	-12264
ebalan	-12265
iation	-12266
obolan	-12267
uahkan	-12268
▁Ganda	-12269
▁Micro	-12270
▁Rokok	-12271
▁Youth	-12272
▁mafia	-12273
ancuran	-12274
erdijat	-12275
ligence	-12276
▁Hendri	-12277
▁Kompas	-12278
▁Mahard	-12279
▁dagang	-12280
▁meriah	-12281
▁poster	-12282
okasikan	-12283
▁Bedagai	-12284
▁Catatan	-12285
▁Munster	-12286
▁Penjara	-12287
▁besaran	-12288
▁gunakan	-12289
▁Platform	-12290
▁Prestasi	-12291
▁bercerai	-12292
▁database	-12293
▁perannya	-12294
▁tampilan	-12295
▁waktunya	-12296
▁Executive	-12297
▁Meningkat	-12298
▁Moerdijat	-12299
▁bentrokan	-12300
▁eksternal	-12301
▁kebencian	-12302
▁terhubung	-12303
▁Conference	-12304
▁demokratis	-12305
▁legislator	-12306
▁membuahkan	-12307
▁menyangkut	-12308
▁identifikasi	-12309
▁mengupayakan	-12310
▁perbincangan	-12311
▁ditindaklanjuti	-12312
kh	-12313
PSK	-12314
ion	-12315
mir	-12316
▁yo	-12317
WANG	-12318
enim	-12319
▁Cur	-12320
▁Kai	-12321
▁Nab	-12322
▁Pin	-12323
▁bau	-12324
▁gue	-12325
▁Alun	-12326
▁Inhu	-12327
▁Kusn	-12328
▁demo	-12329
▁inti	-12330
alihan	-12331
ecatan	-12332
nalpot	-12333
umbung	-12334
ungkam	-12335
▁Inara	-12336
▁Ponti	-12337
▁gajah	-12338
▁Mentan	-12339
▁Mobile	-12340
▁Tampil	-12341
▁bandar	-12342
▁ilmiah	-12343
▁sampel	-12344
▁sekret	-12345
▁tandas	-12346
intahkan	-12347
tributor	-12348
▁Gandeng	-12349
▁Jinping	-12350
▁Pelindo	-12351
▁Penajam	-12352
▁barisan	-12353
▁dijerat	-12354
▁Profesor	-12355
▁membesar	-12356
angsungkan	-12357
industrian	-12358
▁penundaan	-12359
▁sebetulnya	-12360
▁semestinya	-12361
▁Banjarmasin	-12362
▁Perencanaan	-12363
7)	-12364
-30	-12365
gor	-12366
lus	-12367
ram	-12368
rem	-12369
ador	-12370
ball	-12371
edjo	-12372
esco	-12373
mana	-12374
onia	-12375
▁Ard	-12376
▁Emb	-12377
▁Sak	-12378
China	-12379
ahasa	-12380
araja	-12381
betul	-12382
cauan	-12383
kedua	-12384
▁2006	-12385
▁BUMD	-12386
▁Djar	-12387
▁Gala	-12388
▁Guna	-12389
▁Rini	-12390
dasmen	-12391
etabek	-12392
rahman	-12393
▁Dekan	-12394
▁Panji	-12395
▁bengk	-12396
▁kenal	-12397
▁start	-12398
gunakan	-12399
uranmor	-12400
▁Komjen	-12401
▁Markas	-12402
▁Marsel	-12403
▁Propam	-12404
▁Serbia	-12405
▁ketemu	-12406
▁kredib	-12407
▁langka	-12408
▁mengor	-12409
▁museum	-12410
▁system	-12411
ekacauan	-12412
▁Founder	-12413
▁menguji	-12414
▁dasarnya	-12415
▁lintasan	-12416
▁tercipta	-12417
▁Harimurti	-12418
▁Kehakiman	-12419
▁Lahadalia	-12420
▁Penyerang	-12421
▁Pontianak	-12422
▁instrumen	-12423
▁kepatuhan	-12424
▁mahasiswi	-12425
▁sejahtera	-12426
▁Azerbaijan	-12427
▁penyusunan	-12428
▁pertukaran	-12429
▁Kesepakatan	-12430
▁Operasional	-12431
▁Penangkapan	-12432
▁diprakirakan	-12433
HA	-12434
PDI	-12435
bun	-12436
iho	-12437
jil	-12438
ruk	-12439
▁Vo	-12440
asir	-12441
enge	-12442
wasp	-12443
▁194	-12444
▁Nan	-12445
▁Sja	-12446
▁tor	-12447
-2023	-12448
▁Paes	-12449
▁Susu	-12450
▁Tyas	-12451
▁Gajah	-12452
▁Pakai	-12453
▁huruf	-12454
▁kotor	-12455
restasi	-12456
▁Produc	-12457
▁Tamara	-12458
▁Urusan	-12459
▁konvoi	-12460
▁memunc	-12461
▁olahan	-12462
▁tolong	-12463
serangan	-12464
▁Panjang	-12465
▁defisit	-12466
▁dihukum	-12467
▁jenjang	-12468
▁memburu	-12469
▁meminim	-12470
▁Kemenkes	-12471
▁Pangeran	-12472
▁Terdakwa	-12473
▁Terhadap	-12474
▁Panjaitan	-12475
▁ilustrasi	-12476
▁pelaksana	-12477
▁kolesterol	-12478
▁pengejaran	-12479
▁pemberitaan	-12480
▁ditinggalkan	-12481
▁terinspirasi	-12482
-14	-12483
Iya	-12484
KDN	-12485
bab	-12486
hur	-12487
udo	-12488
▁Ja	-12489
Purn	-12490
abad	-12491
anai	-12492
desa	-12493
idan	-12494
idor	-12495
loud	-12496
ukim	-12497
▁14.	-12498
▁Atu	-12499
▁Bac	-12500
▁DPO	-12501
▁Haj	-12502
▁Jud	-12503
▁Rap	-12504
▁Ten	-12505
▁UUD	-12506
▁buk	-12507
▁rai	-12508
▁rak	-12509
▁tar	-12510
adjar	-12511
tiban	-12512
tokoh	-12513
yawan	-12514
▁BALI	-12515
▁Efek	-12516
▁Suku	-12517
▁Temp	-12518
▁Tris	-12519
▁laba	-12520
tingen	-12521
warnai	-12522
▁2018,	-12523
▁Alban	-12524
▁Asian	-12525
▁Bukti	-12526
▁Janji	-12527
▁Modal	-12528
▁Rekor	-12529
▁Sakti	-12530
▁galon	-12531
▁karet	-12532
▁mohon	-12533
▁sentu	-12534
udaraan	-12535
unching	-12536
▁Bakrie	-12537
▁Pandeg	-12538
▁Petrus	-12539
▁Rafael	-12540
▁Sjafri	-12541
▁donasi	-12542
▁langit	-12543
▁sayang	-12544
inisiasi	-12545
▁Francis	-12546
▁Nigeria	-12547
▁melatih	-12548
▁striker	-12549
▁virtual	-12550
interaksi	-12551
waspadaan	-12552
▁Malamnya	-12553
▁Mardiono	-12554
▁eksekusi	-12555
▁ideologi	-12556
▁mangrove	-12557
▁masuknya	-12558
▁predikat	-12559
▁Kompetisi	-12560
▁Sampaikan	-12561
▁bisnisnya	-12562
▁dibacakan	-12563
▁integrasi	-12564
▁kantornya	-12565
▁korporasi	-12566
▁memproses	-12567
▁pelayaran	-12568
▁perebutan	-12569
▁pinggiran	-12570
▁dibuktikan	-12571
▁diinisiasi	-12572
▁diwujudkan	-12573
▁pembuangan	-12574
▁penertiban	-12575
▁penyisihan	-12576
▁Penerbangan	-12577
▁kemandirian	-12578
▁berinteraksi	-12579
▁melestarikan	-12580
▁perbuatannya	-12581
GA	-12582
OP	-12583
UK	-12584
tt	-12585
ye	-12586
ym	-12587
AMP	-12588
Har	-12589
bel	-12590
▁aj	-12591
atah	-12592
misi	-12593
rang	-12594
▁Dek	-12595
▁Era	-12596
▁Qod	-12597
▁Web	-12598
apore	-12599
awasi	-12600
lines	-12601
▁Apel	-12602
▁Ilir	-12603
▁kiai	-12604
▁kong	-12605
▁mini	-12606
ahanya	-12607
alsuan	-12608
▁Event	-12609
▁Graha	-12610
▁Saham	-12611
▁Tirta	-12612
▁anyar	-12613
▁cabai	-12614
▁kanal	-12615
▁mimpi	-12616
▁Desain	-12617
▁Lumpur	-12618
▁Public	-12619
▁adegan	-12620
▁alamat	-12621
▁Bertemu	-12622
▁Profesi	-12623
▁diawali	-12624
▁pemasok	-12625
▁seragam	-12626
/6/2024).	-12627
/9/2024).	-12628
▁Kemenhub	-12629
▁golongan	-12630
▁pendidik	-12631
▁prihatin	-12632
▁semester	-12633
▁terjalin	-12634
▁usahanya	-12635
▁Mandalika	-12636
▁Singapore	-12637
▁dipandang	-12638
▁diplomasi	-12639
▁menggugat	-12640
▁Insyaallah	-12641
▁berprestasi	-12642
▁berkompetisi	-12643
%,	-12644
TM	-12645
ifa	-12646
kop	-12647
val	-12648
via	-12649
▁Gi	-12650
▁KC	-12651
▁Ne	-12652
▁PC	-12653
▁TC	-12654
▁XV	-12655
▁Eur	-12656
▁Faj	-12657
▁Isa	-12658
▁PMK	-12659
▁Tun	-12660
▁UIN	-12661
▁baw	-12662
▁nol	-12663
▁tir	-12664
emban	-12665
inong	-12666
usila	-12667
▁Agen	-12668
▁Alat	-12669
▁Ball	-12670
▁tepi	-12671
▁utuh	-12672
endela	-12673
urigai	-12674
▁Idzes	-12675
▁Klaim	-12676
▁Lippo	-12677
▁Memas	-12678
▁Tahap	-12679
▁Tolak	-12680
▁antre	-12681
▁batal	-12682
▁bonus	-12683
▁dipul	-12684
▁gugur	-12685
▁panta	-12686
▁Kolomb	-12687
▁Tangan	-12688
▁kacang	-12689
▁timbul	-12690
▁Berikan	-12691
▁Central	-12692
▁Ternate	-12693
▁kembang	-12694
▁rentang	-12695
informasi	-12696
▁Agustiar	-12697
▁Airlines	-12698
▁KemenPAN	-12699
▁Rakernas	-12700
▁komputer	-12701
▁menutupi	-12702
▁terhenti	-12703
▁dilarikan	-12704
▁penyintas	-12705
▁sendirian	-12706
▁kepabeanan	-12707
▁pendalaman	-12708
▁pribadinya	-12709
▁konservatif	-12710
▁pemeliharaan	-12711
▁Perindustrian	-12712
▁memperebutkan	-12713
▁kewarganegaraan	-12714
▁pemerintahannya	-12715
LH	-12716
SN	-12717
cy	-12718
Gus	-12719
Pal	-12720
Seh	-12721
ady	-12722
bit	-12723
ipu	-12724
nie	-12725
nus	-12726
org	-12727
ror	-12728
aret	-12729
stan	-12730
wati	-12731
▁1.7	-12732
▁195	-12733
▁BPS	-12734
▁BWF	-12735
▁Shi	-12736
▁Tud	-12737
▁Uji	-12738
▁aja	-12739
▁tag	-12740
▁val	-12741
Semua	-12742
ankan	-12743
bogan	-12744
imbun	-12745
omuko	-12746
rutan	-12747
▁Feri	-12748
▁Jane	-12749
▁Neta	-12750
▁Tiba	-12751
▁dika	-12752
▁rasi	-12753
esanan	-12754
malaya	-12755
mpulan	-12756
▁08.00	-12757
▁1.500	-12758
▁Alami	-12759
▁Kadis	-12760
▁Luluk	-12761
▁Perak	-12762
▁Watch	-12763
▁rumit	-12764
▁teori	-12765
▁Aturan	-12766
▁Baznas	-12767
▁Produs	-12768
▁Risiko	-12769
▁ajaran	-12770
▁diolah	-12771
erikanan	-12772
▁America	-12773
▁Perkuat	-12774
▁angkasa	-12775
onstruksi	-12776
▁Cibinong	-12777
▁Mengenai	-12778
▁Mukomuko	-12779
▁harganya	-12780
▁petinggi	-12781
▁training	-12782
▁Gilimanuk	-12783
▁Perikanan	-12784
▁dikaitkan	-12785
▁kepadanya	-12786
▁kepadatan	-12787
▁mengenang	-12788
▁pemikiran	-12789
▁perlakuan	-12790
▁pasukannya	-12791
▁Keselamatan	-12792
▁kesenjangan	-12793
▁kontroversi	-12794
▁Elektabilitas	-12795
▁pemberitahuan	-12796
GB	-12797
GC	-12798
-0.	-12799
ole	-12800
opo	-12801
ose	-12802
sib	-12803
str	-12804
tah	-12805
tin	-12806
won	-12807
ider	-12808
ikot	-12809
osil	-12810
pong	-12811
▁160	-12812
▁ATM	-12813
▁Atl	-12814
▁Hit	-12815
▁Kid	-12816
▁Kro	-12817
▁Saw	-12818
▁ala	-12819
▁rac	-12820
iktif	-12821
unani	-12822
uncur	-12823
▁Arus	-12824
▁Care	-12825
▁Genc	-12826
▁dong	-12827
▁enak	-12828
▁ketu	-12829
▁sand	-12830
Armuji	-12831
manuel	-12832
mosfer	-12833
ondasi	-12834
▁Asing	-12835
▁Djoko	-12836
▁Royal	-12837
▁Sukar	-12838
▁Sulut	-12839
▁aduan	-12840
▁panti	-12841
▁patah	-12842
▁perek	-12843
▁surya	-12844
▁tekad	-12845
▁Amanat	-12846
▁Golden	-12847
▁Kontra	-12848
▁Sanksi	-12849
▁Zulhas	-12850
▁gegara	-12851
▁hitung	-12852
▁maksud	-12853
ikdasmen	-12854
▁Jenazah	-12855
▁Strateg	-12856
▁fashion	-12857
▁kiriman	-12858
▁spesies	-12859
▁terbagi	-12860
▁Literasi	-12861
▁menemani	-12862
▁pilihnya	-12863
▁terendah	-12864
▁Transaksi	-12865
▁emosional	-12866
▁kontrakan	-12867
▁percobaan	-12868
▁Pandeglang	-12869
▁demonstran	-12870
▁melemahkan	-12871
▁mempererat	-12872
▁menegakkan	-12873
▁pencemaran	-12874
▁pengembang	-12875
▁persentase	-12876
▁politiknya	-12877
▁Perhimpunan	-12878
▁naturalisasi	-12879
ke	-12880
nu	-12881
BPN	-12882
▁81	-12883
▁po	-12884
alun	-12885
cius	-12886
ekor	-12887
ford	-12888
kali	-12889
opor	-12890
▁ASI	-12891
▁ITS	-12892
▁PAD	-12893
▁UNI	-12894
▁cur	-12895
▁dah	-12896
▁luk	-12897
ropis	-12898
▁Bila	-12899
▁Fred	-12900
▁Free	-12901
▁Riza	-12902
▁Tani	-12903
▁Year	-12904
▁jaya	-12905
ikanan	-12906
▁Akses	-12907
▁Anind	-12908
▁Beras	-12909
▁Erwin	-12910
▁Firda	-12911
▁Madya	-12912
▁Milan	-12913
▁Rohul	-12914
▁Sanur	-12915
▁terit	-12916
ekuatan	-12917
▁Bawang	-12918
▁Jemaah	-12919
▁Protes	-12920
▁Victor	-12921
▁cantik	-12922
▁Austria	-12923
▁Bobotoh	-12924
▁Jabatan	-12925
▁Kemenko	-12926
▁Kencana	-12927
▁menggel	-12928
▁saatnya	-12929
▁syuting	-12930
▁Grobogan	-12931
▁kerangka	-12932
▁terlapor	-12933
▁Pemberian	-12934
▁Persiapan	-12935
▁Satlantas	-12936
▁Tangkapan	-12937
▁kelebihan	-12938
▁komposisi	-12939
▁pelaporan	-12940
▁perikanan	-12941
▁Kedokteran	-12942
▁berbelanja	-12943
▁Tasikmalaya	-12944
▁ditunjukkan	-12945
▁mengedukasi	-12946
▁optimalisasi	-12947
▁perlengkapan	-12948
0)	-12949
TPP	-12950
pox	-12951
▁HP	-12952
▁Pu	-12953
▁cm	-12954
coin	-12955
idap	-12956
ness	-12957
pati	-12958
▁1.9	-12959
▁Lok	-12960
▁one	-12961
Jabar	-12962
antun	-12963
aspen	-12964
isang	-12965
ohong	-12966
urity	-12967
utsal	-12968
▁Cita	-12969
▁Disi	-12970
▁Fauz	-12971
▁Klub	-12972
▁Soni	-12973
▁beda	-12974
▁itas	-12975
▁line	-12976
▁mump	-12977
▁Abbas	-12978
▁Belak	-12979
▁Gatot	-12980
▁Resor	-12981
▁Candra	-12982
▁Kelima	-12983
▁cairan	-12984
▁halnya	-12985
angguhan	-12986
▁Jajaran	-12987
▁Menarik	-12988
▁Periode	-12989
▁Zakiyah	-12990
▁autopsi	-12991
▁berbuka	-12992
▁imbalan	-12993
▁Brigadir	-12994
▁Terdapat	-12995
▁berlibur	-12996
▁binatang	-12997
▁forensik	-12998
▁penguasa	-12999
▁persepsi	-13000
▁2019-2024	-13001
▁Inisiatif	-13002
▁Pengacara	-13003
▁Pelantikan	-13004
▁penderitaan	-13005
▁perlintasan	-13006
▁mempersembahkan	-13007
Si	-13008
25/	-13009
Dan	-13010
▁86	-13011
▁Zi	-13012
PDIP	-13013
abri	-13014
afat	-13015
ongs	-13016
opot	-13017
▁1.8	-13018
▁Ash	-13019
▁Ban	-13020
▁Gub	-13021
▁Jum	-13022
▁LBH	-13023
▁rap	-13024
▁rec	-13025
astra	-13026
edisi	-13027
egiat	-13028
eperg	-13029
ilbab	-13030
indar	-13031
tagon	-13032
▁MIND	-13033
▁Ogan	-13034
▁Slav	-13035
▁Zona	-13036
onakan	-13037
ratman	-13038
▁Aipda	-13039
▁Biasa	-13040
▁Kenya	-13041
▁Music	-13042
▁Persa	-13043
▁benih	-13044
▁isasi	-13045
▁ranah	-13046
▁Clinic	-13047
▁Damkar	-13048
▁Fadjar	-13049
▁Muzani	-13050
▁Taspen	-13051
▁Yunani	-13052
▁bersek	-13053
▁lubang	-13054
ingatkan	-13055
▁Tangsel	-13056
▁dipaksa	-13057
▁dipecat	-13058
▁memperd	-13059
▁menaruh	-13060
ingkirkan	-13061
▁Ditambah	-13062
▁Kekayaan	-13063
▁mengerti	-13064
▁Francesco	-13065
istribusian	-13066
▁konfirmasi	-13067
▁menandakan	-13068
▁pegunungan	-13069
▁penculikan	-13070
▁pengesahan	-13071
integrasikan	-13072
▁keanggotaan	-13073
anggungjawaban	-13074
,9	-13075
RA	-13076
KRI	-13077
ney	-13078
ever	-13079
hani	-13080
uana	-13081
usuk	-13082
▁Cal	-13083
▁Dri	-13084
▁Fit	-13085
▁Iya	-13086
▁TPI	-13087
▁Ulu	-13088
▁jel	-13089
▁sti	-13090
▁ung	-13091
bukti	-13092
imasi	-13093
otasi	-13094
▁CASN	-13095
▁Kesi	-13096
▁Leon	-13097
▁Play	-13098
▁laju	-13099
▁ling	-13100
▁pasc	-13101
▁ster	-13102
▁teks	-13103
ership	-13104
▁Anton	-13105
▁Danau	-13106
▁Gagal	-13107
▁Jules	-13108
▁Menlu	-13109
▁Minum	-13110
▁Murah	-13111
▁Sonny	-13112
▁Syams	-13113
▁Turut	-13114
▁bakti	-13115
▁donor	-13116
▁menun	-13117
eluarga	-13118
julukan	-13119
umuskan	-13120
▁ambisi	-13121
▁busana	-13122
▁fleksi	-13123
▁terapi	-13124
Kemudian	-13125
embagaan	-13126
yeksikan	-13127
▁Bangkok	-13128
▁Digelar	-13129
▁Ricardo	-13130
▁ditarik	-13131
▁kambing	-13132
▁kisaran	-13133
▁peledak	-13134
▁reguler	-13135
ektivitas	-13136
engurusan	-13137
▁Perairan	-13138
▁Soeharto	-13139
▁dramatis	-13140
▁Membangun	-13141
▁Rangkaian	-13142
▁Supratman	-13143
▁kekacauan	-13144
▁menyangka	-13145
▁pensiunan	-13146
▁terpenuhi	-13147
▁Perdamaian	-13148
▁entertainment	-13149
,3	-13150
JA	-13151
URA	-13152
ake	-13153
akm	-13154
▁84	-13155
▁93	-13156
▁BL	-13157
▁FK	-13158
▁Ga	-13159
▁Ih	-13160
▁Oc	-13161
-21,	-13162
apis	-13163
erbu	-13164
▁Aur	-13165
▁Pic	-13166
▁Wag	-13167
▁kat	-13168
▁sec	-13169
ating	-13170
lotan	-13171
merce	-13172
urney	-13173
ustak	-13174
▁Berj	-13175
▁Buat	-13176
▁Chen	-13177
▁KLHK	-13178
▁arti	-13179
▁kafe	-13180
enjara	-13181
ensasi	-13182
▁2045.	-13183
▁Batik	-13184
▁Simon	-13185
▁Tower	-13186
▁keham	-13187
▁sayur	-13188
▁skill	-13189
anyekan	-13190
endaris	-13191
▁Bahasa	-13192
▁Burhan	-13193
▁Ciamis	-13194
▁Mundur	-13195
▁berkec	-13196
▁pegiat	-13197
▁serang	-13198
commerce	-13199
▁Khasiat	-13200
▁Premier	-13201
▁Rahasia	-13202
▁disusul	-13203
▁ketujuh	-13204
▁komando	-13205
▁selaras	-13206
ekerjakan	-13207
▁Pengguna	-13208
▁Financial	-13209
▁kedapatan	-13210
▁kehamilan	-13211
▁kelayakan	-13212
▁pengusung	-13213
indikasikan	-13214
▁Mengonsumsi	-13215
▁hubungannya	-13216
▁mengalihkan	-13217
▁pertolongan	-13218
▁menggerakkan	-13219
br	-13220
nd	-13221
ego	-13222
esl	-13223
pun	-13224
ury	-13225
▁Md	-13226
▁iP	-13227
arag	-13228
enas	-13229
reak	-13230
wara	-13231
▁MAK	-13232
▁ema	-13233
▁mac	-13234
ampek	-13235
apang	-13236
gresi	-13237
inati	-13238
karya	-13239
▁Bayi	-13240
▁ESDM	-13241
▁Klok	-13242
▁Posi	-13243
▁Umat	-13244
▁keji	-13245
▁raja	-13246
▁tali	-13247
arkasi	-13248
liskan	-13249
okalis	-13250
urangi	-13251
▁Kanit	-13252
▁Kunci	-13253
▁Modus	-13254
▁Tepat	-13255
▁cetak	-13256
▁kakek	-13257
▁kesan	-13258
▁radio	-13259
▁sumut	-13260
Sebagai	-13261
anjakan	-13262
elihara	-13263
▁Azizah	-13264
▁Pengan	-13265
▁Simanj	-13266
▁Sugeng	-13267
▁Temuan	-13268
▁fraksi	-13269
▁mandat	-13270
▁nyaris	-13271
▁runner	-13272
▁terkec	-13273
▁tukang	-13274
▁Andreas	-13275
▁Belajar	-13276
▁Pacific	-13277
▁Siapkan	-13278
▁lukisan	-13279
▁memasok	-13280
▁menyamb	-13281
▁pedoman	-13282
▁pembawa	-13283
▁skandal	-13284
▁terjual	-13285
▁Berharap	-13286
▁Biasanya	-13287
▁Kolombia	-13288
▁dihitung	-13289
▁terulang	-13290
▁Ketahanan	-13291
▁tangkapan	-13292
▁terkadang	-13293
▁Penerimaan	-13294
▁dijatuhkan	-13295
▁seluruhnya	-13296
▁terkendali	-13297
▁bertuliskan	-13298
▁kunjungannya	-13299
▁dikhawatirkan	-13300
▁mempertemukan	-13301
FC	-13302
oen	-13303
tay	-13304
yen	-13305
▁82	-13306
▁83	-13307
▁Mr	-13308
▁PI	-13309
▁PW	-13310
▁TI	-13311
atik	-13312
etat	-13313
imda	-13314
tump	-13315
▁ATR	-13316
▁Asm	-13317
▁Fri	-13318
▁Kaz	-13319
▁hij	-13320
eting	-13321
oster	-13322
umpan	-13323
▁Asta	-13324
▁aneh	-13325
▁tong	-13326
▁usus	-13327
▁vila	-13328
Sumsel	-13329
▁Detik	-13330
▁Kebon	-13331
▁Pasti	-13332
▁Tengg	-13333
▁benua	-13334
▁gerak	-13335
▁nggak	-13336
▁puluh	-13337
Pemprov	-13338
artabat	-13339
ongkrak	-13340
▁Belgia	-13341
▁Nasdem	-13342
▁Qodari	-13343
▁Tampak	-13344
▁celana	-13345
▁kronis	-13346
▁Kendari	-13347
▁Triliun	-13348
▁advokat	-13349
▁aksinya	-13350
▁progres	-13351
▁Christie	-13352
▁Kualitas	-13353
▁Langsung	-13354
▁akrabnya	-13355
▁matchday	-13356
▁menginap	-13357
▁penghuni	-13358
▁tenggara	-13359
▁Marselino	-13360
▁berisikan	-13361
▁kemarahan	-13362
▁pendirian	-13363
▁perjudian	-13364
▁tujuannya	-13365
▁Hermansyah	-13366
▁Jabodetabek	-13367
▁dokumentasi	-13368
▁efektivitas	-13369
▁diperpanjang	-13370
Kal	-13371
Sul	-13372
can	-13373
con	-13374
myr	-13375
ovi	-13376
ven	-13377
▁Kg	-13378
▁TM	-13379
▁ba	-13380
ATAR	-13381
Para	-13382
cast	-13383
cell	-13384
ihad	-13385
isau	-13386
uela	-13387
▁16.	-13388
▁ABC	-13389
▁Cas	-13390
▁Jag	-13391
▁Pah	-13392
▁Reb	-13393
▁TAS	-13394
▁Yaq	-13395
endag	-13396
lying	-13397
metik	-13398
untak	-13399
viron	-13400
▁1999	-13401
▁2007	-13402
▁Fard	-13403
▁Futu	-13404
▁Laki	-13405
▁Race	-13406
▁baja	-13407
▁maya	-13408
▁otot	-13409
▁prop	-13410
abisan	-13411
anting	-13412
ission	-13413
odymyr	-13414
▁Berat	-13415
▁Encep	-13416
▁Laura	-13417
▁Ronny	-13418
▁Sawit	-13419
▁check	-13420
▁human	-13421
▁jahat	-13422
▁jatah	-13423
▁kabel	-13424
▁razia	-13425
▁venue	-13426
emangat	-13427
oloskan	-13428
▁Hassan	-13429
▁Labuan	-13430
▁Taruna	-13431
▁kapten	-13432
▁rektor	-13433
▁Melawan	-13434
▁Penjaga	-13435
▁Tahanan	-13436
▁batasan	-13437
▁diganti	-13438
▁katakan	-13439
▁sebelas	-13440
▁sungguh	-13441
▁tandang	-13442
Palestina	-13443
inciannya	-13444
ungguhnya	-13445
vironment	-13446
▁YouTuber	-13447
▁diwakili	-13448
▁kesatuan	-13449
▁pengajar	-13450
▁Christian	-13451
▁Pendukung	-13452
▁Venezuela	-13453
▁Volodymyr	-13454
▁dimainkan	-13455
▁elektoral	-13456
▁kedalaman	-13457
▁kurikulum	-13458
▁penggerak	-13459
▁2024/2025.	-13460
▁Paskibraka	-13461
▁Sedikitnya	-13462
▁berbincang	-13463
▁Partisipasi	-13464
▁Simanjuntak	-13465
▁kediamannya	-13466
▁mengukuhkan	-13467
▁dilakukannya	-13468
▁konvensional	-13469
▁menghidupkan	-13470
▁telekomunikasi	-13471
Ke	-13472
ts	-13473
Kom	-13474
PKS	-13475
ath	-13476
fum	-13477
▁KD	-13478
▁Nd	-13479
▁Wh	-13480
burg	-13481
dadu	-13482
date	-13483
ekap	-13484
kala	-13485
ukun	-13486
unis	-13487
yawa	-13488
▁1.5	-13489
▁Dud	-13490
▁IDF	-13491
▁Nar	-13492
▁UMK	-13493
arani	-13494
embok	-13495
onial	-13496
onsor	-13497
upkan	-13498
▁Bajo	-13499
▁Bill	-13500
▁Good	-13501
▁Lead	-13502
▁Mini	-13503
▁Pani	-13504
▁Rita	-13505
▁biar	-13506
▁marg	-13507
▁ojek	-13508
▁sepi	-13509
▁syah	-13510
ertaan	-13511
etusan	-13512
pektif	-13513
▁16.00	-13514
▁BRICS	-13515
▁Hanif	-13516
▁Hatta	-13517
▁Munas	-13518
▁Sinar	-13519
▁Walau	-13520
▁audit	-13521
▁loyal	-13522
▁nikah	-13523
▁nyeri	-13524
▁pagar	-13525
▁prima	-13526
senjata	-13527
▁Elesti	-13528
▁Muncul	-13529
▁Nagita	-13530
▁Peradi	-13531
▁Rismah	-13532
▁assist	-13533
▁berdua	-13534
▁bersel	-13535
▁impian	-13536
▁inform	-13537
erusalem	-13538
▁Kolonel	-13539
▁Kontrak	-13540
▁Menghad	-13541
▁Serpong	-13542
▁Soreang	-13543
▁entitas	-13544
▁melemah	-13545
▁memecah	-13546
▁penjuru	-13547
▁selisih	-13548
▁sentral	-13549
▁Siangnya	-13550
▁berenang	-13551
▁kalender	-13552
▁official	-13553
▁pastikan	-13554
▁workshop	-13555
▁Penasihat	-13556
▁kerajinan	-13557
▁mengamati	-13558
▁mengantar	-13559
▁pemalsuan	-13560
▁pemecatan	-13561
▁pendaftar	-13562
▁Elestianto	-13563
▁kedokteran	-13564
▁perspektif	-13565
▁Rismaharini	-13566
▁memunculkan	-13567
EK	-13568
OK	-13569
NTT	-13570
Qur	-13571
bus	-13572
elo	-13573
ier	-13574
kam	-13575
wih	-13576
▁CN	-13577
ewek	-13578
iano	-13579
imul	-13580
iton	-13581
madi	-13582
▁2,3	-13583
▁Doa	-13584
▁LSM	-13585
▁ang	-13586
▁ikh	-13587
▁kud	-13588
arten	-13589
empit	-13590
owoso	-13591
raham	-13592
ungut	-13593
▁Apri	-13594
▁Bapp	-13595
▁Corn	-13596
▁Gang	-13597
▁Gita	-13598
▁Isti	-13599
▁imun	-13600
akunya	-13601
ingati	-13602
ontang	-13603
ulator	-13604
▁Angin	-13605
▁Atasi	-13606
▁Impor	-13607
▁Innov	-13608
▁Jusuf	-13609
▁Nunuk	-13610
▁Wajib	-13611
▁email	-13612
▁garam	-13613
▁logam	-13614
▁ombak	-13615
▁porsi	-13616
▁sangg	-13617
▁tiang	-13618
aksakan	-13619
allenge	-13620
prinsip	-13621
sekolah	-13622
umenter	-13623
▁Junior	-13624
▁Madani	-13625
▁Sambut	-13626
▁aktris	-13627
▁angket	-13628
▁berdoa	-13629
▁fiktif	-13630
▁fitnah	-13631
▁kaltim	-13632
▁karang	-13633
▁runtuh	-13634
▁santai	-13635
▁sulung	-13636
▁Akademi	-13637
▁Habibur	-13638
▁Makanya	-13639
▁Menjaga	-13640
▁Slavina	-13641
▁berfoto	-13642
▁jurusan	-13643
▁lawatan	-13644
▁nirawak	-13645
▁pembuka	-13646
▁secepat	-13647
▁sisanya	-13648
▁tanggap	-13649
iskusikan	-13650
▁Gregoria	-13651
▁Persikab	-13652
▁bebernya	-13653
▁diwarnai	-13654
▁terbalik	-13655
▁terminal	-13656
▁Paripurna	-13657
▁kebetulan	-13658
▁menghibur	-13659
▁postingan	-13660
▁dijelaskan	-13661
▁diresmikan	-13662
▁pembekalan	-13663
▁psikologis	-13664
▁dikumpulkan	-13665
▁kewaspadaan	-13666
▁pengumpulan	-13667
▁Ditreskrimum	-13668
▁menyimpulkan	-13669
▁persahabatan	-13670
▁Ditreskrimsus	-13671
▁diperkenalkan	-13672
▁kontroversial	-13673
Sur	-13674
ava	-13675
edy	-13676
iew	-13677
loy	-13678
mus	-13679
zer	-13680
▁FH	-13681
▁MB	-13682
▁sm	-13683
eher	-13684
iani	-13685
kira	-13686
rell	-13687
▁125	-13688
▁13.	-13689
▁130	-13690
▁3,5	-13691
▁3-0	-13692
▁Pay	-13693
▁cle	-13694
ampas	-13695
eaksi	-13696
eligi	-13697
eriak	-13698
wulan	-13699
▁Beli	-13700
▁Etik	-13701
▁Gaji	-13702
▁Kuat	-13703
▁Sabu	-13704
▁Slov	-13705
▁Team	-13706
▁Tend	-13707
▁Tugu	-13708
▁Udin	-13709
▁cont	-13710
▁logo	-13711
▁roti	-13712
▁tank	-13713
Ketika	-13714
irawan	-13715
▁2018.	-13716
▁Happy	-13717
▁Model	-13718
▁Rosan	-13719
▁Sikap	-13720
▁sabar	-13721
asibuan	-13722
▁Hanura	-13723
▁Komang	-13724
▁Lingga	-13725
▁serial	-13726
eorangan	-13727
ulingkan	-13728
▁Abraham	-13729
▁Berbeda	-13730
▁Inflasi	-13731
▁Johnson	-13732
▁Jonatan	-13733
▁Tradisi	-13734
▁berkali	-13735
▁jendela	-13736
▁pesepak	-13737
▁Terutama	-13738
▁memadati	-13739
▁menonjol	-13740
▁seimbang	-13741
▁tubuhnya	-13742
▁Bengkalis	-13743
▁beruntung	-13744
▁mobilitas	-13745
▁pemukiman	-13746
▁Elektronik	-13747
▁harapannya	-13748
▁legendaris	-13749
▁membedakan	-13750
▁terbaiknya	-13751
▁dimaksudkan	-13752
▁melayangkan	-13753
▁memprakirakan	-13754
▁mengindikasikan	-13755
UA	-13756
ys	-13757
dil	-13758
eel	-13759
nia	-13760
▁SL	-13761
▁TB	-13762
▁it	-13763
andr	-13764
etum	-13765
imat	-13766
maga	-13767
▁Nic	-13768
▁Viv	-13769
▁bac	-13770
▁kue	-13771
▁way	-13772
enian	-13773
incar	-13774
inder	-13775
injak	-13776
▁2003	-13777
▁Jauh	-13778
▁pari	-13779
▁stor	-13780
iringi	-13781
isahan	-13782
lukkan	-13783
okhman	-13784
▁Raden	-13785
▁Satya	-13786
▁Tesla	-13787
▁Yohan	-13788
▁bijak	-13789
▁lirik	-13790
▁lunak	-13791
▁simak	-13792
▁ultra	-13793
abrikan	-13794
aikindo	-13795
okuskan	-13796
▁Angela	-13797
▁Hadapi	-13798
▁Permen	-13799
▁Subdit	-13800
▁Supian	-13801
▁gencar	-13802
▁podium	-13803
tificial	-13804
▁Gallant	-13805
▁Maritim	-13806
▁mumpuni	-13807
▁tragedi	-13808
▁Cipayung	-13809
▁Hasibuan	-13810
▁Ketapang	-13811
▁Maharani	-13812
▁Pembalap	-13813
▁Penuntut	-13814
▁diduduki	-13815
▁harapkan	-13816
▁mengabdi	-13817
▁menyakit	-13818
▁nominasi	-13819
▁pengikut	-13820
▁warganya	-13821
▁Bondowoso	-13822
▁kedekatan	-13823
▁terbilang	-13824
▁Investment	-13825
▁Kompetensi	-13826
▁menyamakan	-13827
▁perdebatan	-13828
▁terlaksana	-13829
▁Entertainment	-13830
3/	-13831
JPU	-13832
nap	-13833
▁MP	-13834
▁UT	-13835
ehic	-13836
orot	-13837
▁19.	-13838
▁Baw	-13839
▁Bib	-13840
▁ICC	-13841
▁Kum	-13842
▁LSI	-13843
▁Ops	-13844
▁PIK	-13845
▁Tib	-13846
▁UPT	-13847
▁VII	-13848
▁Wam	-13849
▁bud	-13850
Humas	-13851
hasil	-13852
hutla	-13853
ivers	-13854
usuri	-13855
▁BNPB	-13856
▁Bent	-13857
▁Disk	-13858
▁Norw	-13859
▁bing	-13860
▁pram	-13861
▁rela	-13862
angkir	-13863
gresif	-13864
hiasan	-13865
▁Chris	-13866
▁Dhani	-13867
▁Libya	-13868
▁Mayor	-13869
aruskan	-13870
▁50.000	-13871
▁Cholil	-13872
▁Contoh	-13873
▁Manila	-13874
▁Sarana	-13875
▁ibunda	-13876
▁intens	-13877
angganya	-13878
▁Bergizi	-13879
▁Bioskop	-13880
▁Maarten	-13881
▁Seiring	-13882
▁Setiadi	-13883
▁Sorenya	-13884
▁asusila	-13885
▁dermaga	-13886
▁menerus	-13887
▁Ferdinan	-13888
▁Reporter	-13889
▁berpusat	-13890
▁pencipta	-13891
▁Persikabo	-13892
▁Tertinggi	-13893
▁Tokopedia	-13894
▁Yerusalem	-13895
▁bimbingan	-13896
▁kekebalan	-13897
▁kerawanan	-13898
▁kerjasama	-13899
▁Penerangan	-13900
▁Pengunjung	-13901
▁dimakamkan	-13902
▁eksplorasi	-13903
▁menyatukan	-13904
▁sekretaris	-13905
▁tertanggal	-13906
▁kelestarian	-13907
▁kesepahaman	-13908
▁konsistensi	-13909
▁koordinator	-13910
▁Kepemimpinan	-13911
▁alhamdulillah	-13912
▁konstitusional	-13913
35	-13914
23/	-13915
Dir	-13916
lub	-13917
Berd	-13918
aidi	-13919
alil	-13920
digi	-13921
epot	-13922
fron	-13923
gani	-13924
hone	-13925
plus	-13926
thew	-13927
▁AEO	-13928
▁Ace	-13929
▁Aud	-13930
▁Big	-13931
▁Bis	-13932
▁Cis	-13933
▁Cre	-13934
▁Erd	-13935
▁Lai	-13936
▁OJK	-13937
▁OPD	-13938
▁Peb	-13939
▁Pra	-13940
▁Raz	-13941
▁Rif	-13942
▁Rod	-13943
ABUMI	-13944
ompat	-13945
ubara	-13946
▁Desi	-13947
▁Eduk	-13948
▁Lion	-13949
▁PHPU	-13950
▁amat	-13951
▁rock	-13952
ebrasi	-13953
ibanya	-13954
utaran	-13955
▁Cahyo	-13956
▁Japan	-13957
▁Pensi	-13958
▁Pilih	-13959
▁Sunda	-13960
▁Tujuh	-13961
▁areal	-13962
▁fosil	-13963
▁judul	-13964
▁salam	-13965
▁suaka	-13966
aksimal	-13967
orehkan	-13968
rokimia	-13969
▁Hubner	-13970
▁Klinik	-13971
▁Makmur	-13972
▁Summit	-13973
▁tembus	-13974
Kegiatan	-13975
anggakan	-13976
elusuran	-13977
embalian	-13978
selerasi	-13979
▁Erdogan	-13980
▁Matthew	-13981
▁Suswono	-13982
▁amankan	-13983
▁bakteri	-13984
▁dihapus	-13985
▁sarjana	-13986
▁seharga	-13987
▁silakan	-13988
▁SUKABUMI	-13989
▁atmosfer	-13990
▁berbahan	-13991
▁hanyalah	-13992
▁mengkaji	-13993
▁penjabat	-13994
▁produser	-13995
▁sentuhan	-13996
▁Brawijaya	-13997
▁Perguruan	-13998
▁Rangkuman	-13999
▁kaitannya	-14000
▁merangkul	-14001
▁statistik	-14002
▁substansi	-14003
▁terpantau	-14004
Berdasarkan	-14005
▁berlindung	-14006
▁dikerjakan	-14007
▁insyaallah	-14008
▁konservasi	-14009
▁mewajibkan	-14010
▁militernya	-14011
▁berakhirnya	-14012
▁ditimbulkan	-14013
▁penghentian	-14014
▁kepengurusan	-14015
▁membicarakan	-14016
▁diberangkatkan	-14017
ng	-14018
DPR	-14019
net	-14020
agan	-14021
agon	-14022
ebek	-14023
egia	-14024
rise	-14025
tura	-14026
▁Agr	-14027
▁Deb	-14028
▁Eva	-14029
▁bos	-14030
janto	-14031
nyawa	-14032
track	-14033
yanti	-14034
▁Amil	-14035
▁Bela	-14036
▁Blue	-14037
▁Long	-14038
▁PBSI	-14039
▁Sals	-14040
▁Terj	-14041
▁Zero	-14042
▁over	-14043
▁teri	-14044
epasan	-14045
islasi	-14046
▁2026.	-14047
▁4.000	-14048
▁Marsh	-14049
▁Pilar	-14050
▁Syari	-14051
▁Tegas	-14052
▁Yakin	-14053
▁Yaqut	-14054
▁Yesus	-14055
▁kolam	-14056
▁nenek	-14057
adinata	-14058
itimasi	-14059
▁Lawang	-14060
▁Pinang	-14061
▁Susilo	-14062
▁kasasi	-14063
▁utusan	-14064
▁zonasi	-14065
antungan	-14066
ustakaan	-14067
▁Budiman	-14068
▁Rudenim	-14069
▁Terjadi	-14070
▁knalpot	-14071
▁panduan	-14072
▁separuh	-14073
▁Beasiswa	-14074
▁Kandidat	-14075
▁Klasemen	-14076
▁mengukur	-14077
▁menyukai	-14078
▁penggawa	-14079
▁perunggu	-14080
▁praktisi	-14081
▁Presenter	-14082
▁ditempati	-14083
▁meringkus	-14084
▁pembacaan	-14085
▁terlambat	-14086
▁manfaatnya	-14087
▁mengulangi	-14088
▁pembalasan	-14089
▁sesungguhnya	-14090
▁Sustainability	-14091
ART	-14092
DPD	-14093
Mem	-14094
ile	-14095
lai	-14096
mum	-14097
yid	-14098
▁DR	-14099
▁FA	-14100
▁wa	-14101
bank	-14102
baya	-14103
inat	-14104
ival	-14105
lagu	-14106
osta	-14107
tara	-14108
ujar	-14109
▁Gin	-14110
▁Hev	-14111
▁Kho	-14112
▁Vik	-14113
▁WWF	-14114
▁nom	-14115
▁son	-14116
▁tuh	-14117
divis	-14118
kandi	-14119
▁2010	-14120
▁Bund	-14121
▁Gold	-14122
▁Grab	-14123
▁Hang	-14124
▁Lain	-14125
▁Risk	-14126
▁Talk	-14127
▁anto	-14128
▁blak	-14129
▁purn	-14130
▁road	-14131
alisir	-14132
anahan	-14133
antura	-14134
apusan	-14135
mahera	-14136
otedjo	-14137
proyek	-14138
▁Cegah	-14139
▁Dinar	-14140
▁Guter	-14141
▁Kamal	-14142
▁Mayat	-14143
▁Tanda	-14144
▁acuan	-14145
▁pacar	-14146
menerus	-14147
▁Analis	-14148
▁Beauty	-14149
▁Maming	-14150
▁Travel	-14151
▁kolega	-14152
undupkan	-14153
▁Batakan	-14154
▁Bontang	-14155
▁Longsor	-14156
▁Perkara	-14157
▁berlari	-14158
▁dikawal	-14159
▁kunjung	-14160
▁lambung	-14161
/3/2024).	-14162
▁Bangunan	-14163
▁Guterres	-14164
▁Himpunan	-14165
▁Kategori	-14166
▁Mendagri	-14167
▁Norwegia	-14168
▁Prajurit	-14169
▁asosiasi	-14170
▁disimpan	-14171
▁hadirnya	-14172
▁kerjanya	-14173
▁maksimum	-14174
▁pantauan	-14175
▁prediksi	-14176
▁renovasi	-14177
▁tudingan	-14178
ampanyekan	-14179
▁Ariotedjo	-14180
▁Halmahera	-14181
▁Manggarai	-14182
▁Penumpang	-14183
▁Terungkap	-14184
▁berbentuk	-14185
▁dibiarkan	-14186
▁keponakan	-14187
▁konsultan	-14188
▁kontestan	-14189
▁memerinci	-14190
▁prosesnya	-14191
▁Harapannya	-14192
▁dibayarkan	-14193
▁influencer	-14194
▁memotivasi	-14195
▁pemerataan	-14196
▁ditampilkan	-14197
▁mengesahkan	-14198
▁Transmigrasi	-14199
▁menangguhkan	-14200
▁menyembunyikan	-14201
18	-14202
JI	-14203
emo	-14204
iny	-14205
▁97	-14206
▁MG	-14207
▁MM	-14208
▁li	-14209
EDAN	-14210
aini	-14211
gaya	-14212
ohib	-14213
olio	-14214
osip	-14215
peri	-14216
piji	-14217
sium	-14218
tive	-14219
▁DNA	-14220
▁HIV	-14221
▁Lil	-14222
▁Suf	-14223
▁Tuk	-14224
▁UEA	-14225
▁hab	-14226
▁kum	-14227
▁sun	-14228
esmen	-14229
idsus	-14230
ogasi	-14231
porsi	-14232
resif	-14233
ukupi	-14234
▁Andy	-14235
▁Hard	-14236
▁Nabi	-14237
▁Suri	-14238
▁asuh	-14239
▁ular	-14240
earita	-14241
paslon	-14242
▁Album	-14243
▁Angga	-14244
▁Arsip	-14245
▁Imlek	-14246
▁MEDAN	-14247
▁Motif	-14248
▁Pileg	-14249
▁Rakor	-14250
▁Rivan	-14251
▁Titik	-14252
▁begal	-14253
▁semen	-14254
▁Akadem	-14255
▁Beliau	-14256
▁Hotman	-14257
▁Jansen	-14258
▁Kapuas	-14259
▁Marcos	-14260
▁Paniai	-14261
▁outlet	-14262
▁pengeb	-14263
▁Nelayan	-14264
▁Network	-14265
▁Pilihan	-14266
▁Prihadi	-14267
▁digagas	-14268
▁ketahui	-14269
▁naungan	-14270
▁Bergerak	-14271
▁Carolina	-14272
▁menuding	-14273
▁Badminton	-14274
▁Bakauheni	-14275
▁Hevearita	-14276
▁Kemitraan	-14277
▁berteriak	-14278
▁degradasi	-14279
▁demografi	-14280
▁Pembebasan	-14281
▁Penembakan	-14282
▁dikunjungi	-14283
▁menunjukan	-14284
▁Perkumpulan	-14285
▁berkekuatan	-14286
▁dimusnahkan	-14287
▁menyambangi	-14288
▁konektivitas	-14289
6/	-14290
JP	-14291
PG	-14292
-11	-14293
col	-14294
fil	-14295
mau	-14296
rit	-14297
sem	-14298
tau	-14299
▁AU	-14300
▁HM	-14301
▁sw	-14302
apta	-14303
beda	-14304
berg	-14305
bola	-14306
eluk	-14307
udol	-14308
yber	-14309
▁170	-14310
▁900	-14311
▁BAR	-14312
▁Bio	-14313
▁Boc	-14314
▁MAN	-14315
▁SWT	-14316
▁agr	-14317
▁cor	-14318
▁dul	-14319
▁fes	-14320
aluan	-14321
uwono	-14322
▁Adik	-14323
▁Pred	-14324
▁QRIS	-14325
▁Rena	-14326
▁SMKN	-14327
▁Widi	-14328
▁berv	-14329
▁cuci	-14330
▁mari	-14331
Jangan	-14332
aksono	-14333
ehicle	-14334
reneur	-14335
ukunan	-14336
▁Edwin	-14337
▁Harry	-14338
▁Khali	-14339
▁Konon	-14340
▁Lahan	-14341
▁Match	-14342
▁andal	-14343
▁buaya	-14344
▁heran	-14345
▁iuran	-14346
▁mered	-14347
▁rumor	-14348
▁umpan	-14349
eriusan	-14350
▁Mimika	-14351
▁Pernah	-14352
▁Saiful	-14353
udaranya	-14354
▁Tunjung	-14355
▁diawasi	-14356
▁dibakar	-14357
▁merokok	-14358
▁misteri	-14359
▁pangkat	-14360
▁sebatas	-14361
▁terbuat	-14362
/5/2024).	-14363
ornografi	-14364
▁Evaluasi	-14365
▁Pentagon	-14366
▁berlayar	-14367
▁dorongan	-14368
▁kerajaan	-14369
▁mengeluh	-14370
▁menyeret	-14371
▁Bendahara	-14372
▁Kejahatan	-14373
▁bertempat	-14374
▁instalasi	-14375
▁kelelahan	-14376
alahgunakan	-14377
▁bervariasi	-14378
▁Keberhasilan	-14379
▁perseorangan	-14380
▁Habiburokhman	-14381
EB	-14382
ASA	-14383
Mas	-14384
cle	-14385
hua	-14386
pad	-14387
ure	-14388
▁0.	-14389
▁Aw	-14390
▁HS	-14391
▁RM	-14392
enak	-14393
indu	-14394
ited	-14395
mund	-14396
▁350	-14397
▁JIS	-14398
▁MoU	-14399
▁Rav	-14400
▁Zah	-14401
▁gam	-14402
▁ver	-14403
▁wan	-14404
encil	-14405
otobi	-14406
tures	-14407
▁Acep	-14408
▁Dahl	-14409
▁Dede	-14410
▁Dico	-14411
▁Fitr	-14412
▁Huda	-14413
▁Ikan	-14414
▁JAYA	-14415
▁Nova	-14416
▁Sule	-14417
▁Tren	-14418
▁bule	-14419
▁jati	-14420
▁plus	-14421
alinya	-14422
▁Babak	-14423
▁Beach	-14424
▁Black	-14425
▁Chair	-14426
▁Nasib	-14427
▁Pasir	-14428
▁TPNPB	-14429
▁Times	-14430
▁berdi	-14431
▁count	-14432
anamkan	-14433
anyikan	-14434
ungkung	-14435
▁Dinkes	-14436
▁Makkah	-14437
▁Natuna	-14438
▁Respon	-14439
▁instan	-14440
▁menumb	-14441
▁penyer	-14442
▁propag	-14443
▁senada	-14444
anangkan	-14445
erjasama	-14446
▁Bastian	-14447
▁Delapan	-14448
▁Seminar	-14449
▁akunnya	-14450
▁daratan	-14451
▁pelosok	-14452
▁radikal	-14453
▁teratur	-14454
▁Lewotobi	-14455
▁Pemalang	-14456
▁Pictures	-14457
▁Suherman	-14458
▁Tentunya	-14459
▁berangin	-14460
▁proyeksi	-14461
▁Klungkung	-14462
▁Mengingat	-14463
▁bersumber	-14464
▁tergolong	-14465
▁Penyerahan	-14466
▁Permintaan	-14467
▁Rencananya	-14468
▁diperbaiki	-14469
▁kesimpulan	-14470
▁pelarangan	-14471
▁pendudukan	-14472
▁penerbitan	-14473
▁sepertinya	-14474
▁dipengaruhi	-14475
▁menggeledah	-14476
▁mengguncang	-14477
endikbudristek	-14478
▁mengoperasikan	-14479
55	-14480
200	-14481
act	-14482
kup	-14483
rek	-14484
▁71	-14485
▁JK	-14486
▁lu	-14487
▁pa	-14488
Giri	-14489
Pasi	-14490
alat	-14491
onan	-14492
onna	-14493
▁BMW	-14494
▁Cin	-14495
▁UKT	-14496
▁nih	-14497
▁ori	-14498
ansus	-14499
etaan	-14500
ikkan	-14501
risis	-14502
ussel	-14503
▁Aula	-14504
▁Dong	-14505
▁Gamb	-14506
▁Guin	-14507
▁Jojo	-14508
▁Karo	-14509
▁Syam	-14510
artono	-14511
atalan	-14512
iratif	-14513
ivitas	-14514
jaitan	-14515
▁2016.	-14516
▁Febri	-14517
▁House	-14518
▁Jeruk	-14519
▁Livin	-14520
▁Naval	-14521
▁Widya	-14522
▁Yoyok	-14523
▁insan	-14524
▁label	-14525
▁puing	-14526
anyenya	-14527
aruddin	-14528
ersihan	-14529
ipulasi	-14530
ulkanik	-14531
▁Maduro	-14532
▁Modern	-14533
▁Paulus	-14534
▁edaran	-14535
▁estate	-14536
▁gotong	-14537
▁mencur	-14538
▁peraga	-14539
▁sinerg	-14540
▁Berbagi	-14541
▁Edukasi	-14542
▁Ledakan	-14543
▁Lembong	-14544
▁Marsudi	-14545
▁Sedunia	-14546
▁banteng	-14547
▁dominan	-14548
▁koridor	-14549
▁memasak	-14550
▁pukulan	-14551
▁tanggul	-14552
/4/2024).	-14553
▁Economic	-14554
▁perlahan	-14555
▁siapapun	-14556
▁Mendukung	-14557
▁Prioritas	-14558
▁Relations	-14559
▁dipenjara	-14560
▁interaksi	-14561
▁mengobati	-14562
▁perusakan	-14563
▁Optimistis	-14564
▁Penyidikan	-14565
▁digantikan	-14566
▁meneruskan	-14567
▁penyelamat	-14568
▁propaganda	-14569
▁eksploitasi	-14570
▁kampanyenya	-14571
▁mengeluhkan	-14572
▁menyeberang	-14573
▁pembersihan	-14574
▁penduduknya	-14575
▁Keimigrasian	-14576
▁Kapolrestabes	-14577
OC	-14578
BUM	-14579
PMI	-14580
SMK	-14581
amo	-14582
ipi	-14583
nel	-14584
pei	-14585
▁IR	-14586
▁MC	-14587
▁TA	-14588
duka	-14589
ench	-14590
jaya	-14591
tawa	-14592
▁1,2	-14593
▁10,	-14594
▁110	-14595
▁Cic	-14596
▁Eco	-14597
▁Gis	-14598
▁IIA	-14599
▁IKA	-14600
▁Inc	-14601
▁Len	-14602
▁Lop	-14603
▁Mom	-14604
▁Oil	-14605
▁Rey	-14606
▁Sop	-14607
▁Tro	-14608
▁jun	-14609
adian	-14610
ajaya	-14611
bahan	-14612
field	-14613
isisi	-14614
▁1973	-14615
▁BPOM	-14616
▁Hana	-14617
▁Hary	-14618
▁Kubu	-14619
▁LGBT	-14620
▁Mike	-14621
▁PKPU	-14622
▁Pray	-14623
▁Puri	-14624
▁RANS	-14625
▁Romo	-14626
▁Silo	-14627
▁Soet	-14628
▁Trid	-14629
▁pras	-14630
▁tari	-14631
▁year	-14632
AMPUNG	-14633
ection	-14634
ibadah	-14635
▁Biaya	-14636
▁Imran	-14637
▁berke	-14638
▁macet	-14639
▁pakan	-14640
Pasifik	-14641
akmuran	-14642
▁Kertan	-14643
▁Safari	-14644
▁Taylor	-14645
▁komite	-14646
▁nafkah	-14647
▁Ancaman	-14648
▁Bersatu	-14649
▁Bitcoin	-14650
▁Gilbert	-14651
▁Samsung	-14652
▁caranya	-14653
▁disusun	-14654
▁rupanya	-14655
▁seluler	-14656
▁siapkan	-14657
▁terpadu	-14658
▁Produsen	-14659
▁Srikandi	-14660
▁Tabungan	-14661
▁bertrans	-14662
▁desainer	-14663
▁dijalani	-14664
▁pedesaan	-14665
▁proporsi	-14666
▁memangkas	-14667
▁mencintai	-14668
▁selebgram	-14669
▁Keberadaan	-14670
▁Penindakan	-14671
▁Perbatasan	-14672
▁kompensasi	-14673
▁pengerjaan	-14674
▁perpecahan	-14675
▁Investigasi	-14676
▁Kertanegara	-14677
▁berpasangan	-14678
▁kelengkapan	-14679
▁penambangan	-14680
Is	-14681
-28	-14682
19/	-14683
PPK	-14684
mak	-14685
osh	-14686
ugh	-14687
▁AG	-14688
▁HR	-14689
DKPP	-14690
ahit	-14691
anek	-14692
ipis	-14693
ivia	-14694
olas	-14695
utut	-14696
▁1,3	-14697
▁CAT	-14698
▁Kut	-14699
▁Meh	-14700
▁det	-14701
▁fot	-14702
abung	-14703
anjuk	-14704
areng	-14705
ebani	-14706
eport	-14707
iprah	-14708
saksi	-14709
▁Amaz	-14710
▁Derm	-14711
▁Harm	-14712
▁Paku	-14713
▁Sriw	-14714
▁Tand	-14715
▁Titi	-14716
▁Usut	-14717
▁cair	-14718
▁dada	-14719
▁kios	-14720
▁klip	-14721
▁kuno	-14722
alakan	-14723
endala	-14724
ihakan	-14725
krindo	-14726
ontasi	-14727
ugasan	-14728
▁20.00	-14729
▁Ahmed	-14730
▁Bursa	-14731
▁Dilan	-14732
▁Donny	-14733
▁Induk	-14734
▁Mesin	-14735
▁North	-14736
▁Swift	-14737
▁abadi	-14738
▁konfr	-14739
▁lelah	-14740
▁mulia	-14741
▁serah	-14742
▁taksi	-14743
▁yanto	-14744
ampaian	-14745
▁Buddha	-14746
▁Carlos	-14747
▁Guinea	-14748
▁Guntur	-14749
▁Kemang	-14750
▁Masing	-14751
▁Sragen	-14752
▁Wilson	-14753
▁baliho	-14754
▁berint	-14755
▁berkah	-14756
▁dicari	-14757
▁hadapi	-14758
▁mengga	-14759
▁pelari	-14760
▁raihan	-14761
epergian	-14762
temannya	-14763
▁(28/8).	-14764
▁2024/25	-14765
▁Firdaus	-14766
▁Khalifa	-14767
▁Kroasia	-14768
▁Meranti	-14769
▁Positif	-14770
▁Vatikan	-14771
▁asesmen	-14772
▁cokelat	-14773
▁deteksi	-14774
▁konsesi	-14775
▁turunan	-14776
hitungkan	-14777
▁Gaikindo	-14778
▁Internet	-14779
▁Investor	-14780
▁Kekuatan	-14781
▁Palangka	-14782
▁Pemenang	-14783
▁Perayaan	-14784
▁Singgung	-14785
▁Terancam	-14786
▁berskala	-14787
▁blusukan	-14788
▁kolektif	-14789
▁mediator	-14790
▁memotong	-14791
▁terjerat	-14792
▁Pengakuan	-14793
▁akomodasi	-14794
▁penentuan	-14795
▁perhiasan	-14796
▁Governance	-14797
▁Perkebunan	-14798
▁diselidiki	-14799
▁kekasihnya	-14800
▁penghubung	-14801
▁berkeliling	-14802
▁menyebutnya	-14803
▁menjadikannya	-14804
//	-14805
8.	-14806
LN	-14807
NC	-14808
://	-14809
KIM	-14810
NTB	-14811
dor	-14812
hib	-14813
leh	-14814
ory	-14815
ros	-14816
yai	-14817
▁91	-14818
atri	-14819
eder	-14820
emud	-14821
esia	-14822
▁02.	-14823
▁ABK	-14824
▁Anj	-14825
▁Asn	-14826
▁DPT	-14827
▁Hik	-14828
▁Hor	-14829
▁Maz	-14830
▁Suw	-14831
▁Was	-14832
▁emb	-14833
▁gad	-14834
▁nus	-14835
▁saf	-14836
arnai	-14837
ekaar	-14838
oyudo	-14839
untuk	-14840
▁Akun	-14841
▁Cart	-14842
▁Chan	-14843
▁Chic	-14844
▁Fort	-14845
▁Hung	-14846
▁Mahm	-14847
▁Miss	-14848
▁Novi	-14849
▁Rust	-14850
▁TPPO	-14851
▁Usia	-14852
▁Yoga	-14853
▁prob	-14854
angkis	-14855
empurn	-14856
incare	-14857
tibkan	-14858
▁Audit	-14859
▁Candy	-14860
▁Paral	-14861
▁kelak	-14862
▁kurir	-14863
▁menet	-14864
ecahkan	-14865
▁Amanda	-14866
▁Bentuk	-14867
▁Densus	-14868
▁Kalbar	-14869
▁Senada	-14870
▁Taipei	-14871
▁asupan	-14872
▁bangku	-14873
▁berser	-14874
▁format	-14875
▁kloter	-14876
▁kudeta	-14877
▁sekian	-14878
Sehingga	-14879
emudikan	-14880
perience	-14881
▁Mariska	-14882
▁Perindo	-14883
▁Putaran	-14884
▁Sinergi	-14885
▁berguna	-14886
▁depresi	-14887
▁letusan	-14888
▁optimis	-14889
▁prosesi	-14890
/2/2024).	-14891
▁Freeport	-14892
▁Resolusi	-14893
▁dianiaya	-14894
▁dihimpun	-14895
▁ditunggu	-14896
▁kosmetik	-14897
▁mengusir	-14898
▁sebabnya	-14899
▁Challenge	-14900
▁Pembicara	-14901
▁beralasan	-14902
▁beribadah	-14903
▁kombinasi	-14904
▁komisaris	-14905
▁magnitudo	-14906
▁dilibatkan	-14907
▁membubarkan	-14908
▁mengenalkan	-14909
▁mengagendakan	-14910
▁diidentifikasi	-14911
25	-14912
HL	-14913
HS	-14914
JM	-14915
SB	-14916
BPS	-14917
PEN	-14918
bat	-14919
itz	-14920
low	-14921
pul	-14922
[...]
