<unk>	0
<s>	0
</s>	0
an	-0
er	-1
en	-2
▁d	-3
▁m	-4
ar	-5
at	-6
▁p	-7
ang	-8
ak	-9
in	-10
▁s	-11
as	-12
▁k	-13
al	-14
ah	-15
▁t	-16
▁b	-17
em	-18
am	-19
un	-20
▁di	-21
▁men	-22
el	-23
▁P	-24
ad	-25
kan	-26
tu	-27
▁S	-28
ya	-29
si	-30
▁K	-31
ap	-32
on	-33
▁y	-34
▁yang	-35
eb	-36
il	-37
ga	-38
or	-39
▁B	-40
▁dan	-41
▁M	-42
▁A	-43
es	-44
ik	-45
eng	-46
is	-47
▁ter	-48
ur	-49
ut	-50
▁ber	-51
▁l	-52
it	-53
ing	-54
us	-55
ek	-56
▁D	-57
um	-58
et	-59
asi	-60
akan	-61
▁J	-62
ol	-63
▁meng	-64
▁T	-65
ada	-66
ara	-67
▁I	-68
nya	-69
▁j	-70
▁2	-71
ung	-72
▁,	-73
▁per	-74
uk	-75
ari	-76
emb	-77
▁ke	-78
▁h	-79
ab	-80
▁(	-81
ai	-82
im	-83
▁R	-84
om	-85
ul	-86
id	-87
ir	-88
ta	-89
▁"	-90
▁in	-91
▁.	-92
▁20	-93
tuk	-94
▁un	-95
alam	-96
▁se	-97
▁untuk	-98
▁r	-99
itu	-100
ud	-101
▁-	-102
▁pen	-103
▁202	-104
ih	-105
engan	-106
ata	-107
ti	-108
ag	-109
▁H	-110
aw	-111
up	-112
▁1	-113
▁dengan	-114
atan	-115
▁mem	-116
angan	-117
▁W	-118
eg	-119
▁N	-120
▁ini	-121
▁dari	-122
▁In	-123
▁G	-124
ia	-125
ama	-126
esi	-127
adi	-128
ok	-129
▁itu	-130
▁2024	-131
▁n	-132
▁C	-133
▁L	-134
▁pada	-135
ro	-136
uh	-137
▁dalam	-138
ant	-139
ed	-140
ep	-141
▁mel	-142
aga	-143
and	-144
aya	-145
ian	-146
▁U	-147
▁seb	-148
amp	-149
ukan	-150
ent	-151
▁memb	-152
▁mer	-153
ay	-154
ali	-155
▁g	-156
ebut	-157
ri	-158
▁menj	-159
per	-160
eh	-161
▁w	-162
▁ters	-163
idak	-164
▁c	-165
▁F	-166
▁pem	-167
▁meny	-168
▁Ind	-169
ub	-170
eri	-171
aj	-172
ain	-173
isi	-174
elah	-175
▁Per	-176
alah	-177
aan	-178
uga	-179
▁tidak	-180
wa	-181
ot	-182
angk	-183
end	-184
ua	-185
▁akan	-186
onesi	-187
uan	-188
ib	-189
onesia	-190
▁tersebut	-191
▁Indonesia	-192
▁peng	-193
ahan	-194
asa	-195
▁kep	-196
agai	-197
emp	-198
uj	-199
aran	-200
nn	-201
",	-202
amb	-203
aat	-204
pnn	-205
ota	-206
anj	-207
▁E	-208
).	-209
▁juga	-210
ana	-211
atakan	-212
com	-213
angg	-214
▁sel	-215
ati	-216
▁WI	-217
▁nya	-218
▁Pr	-219
▁",	-220
▁WIB	-221
▁Sel	-222
usi	-223
ra	-224
▁pro	-225
▁mend	-226
ahun	-227
▁bah	-228
▁mas	-229
akukan	-230
ami	-231
gi	-232
orang	-233
int	-234
ob	-235
any	-236
alu	-237
▁kata	-238
▁f	-239
apat	-240
asan	-241
oleh	-242
agi	-243
tr	-244
▁menjadi	-245
arga	-246
cara	-247
▁An	-248
akar	-249
alan	-250
ja	-251
▁mengatakan	-252
▁O	-253
▁Ke	-254
ungan	-255
ala	-256
▁saat	-257
eka	-258
had	-259
isa	-260
ter	-261
atu	-262
▁bahwa	-263
▁sek	-264
▁ak	-265
▁pel	-266
ika	-267
anya	-268
▁ad	-269
da	-270
▁ser	-271
▁sebagai	-272
▁ada	-273
▁oleh	-274
ebih	-275
▁telah	-276
ena	-277
▁tahun	-278
ingk	-279
ong	-280
apa	-281
itas	-282
ip	-283
utu	-284
os	-285
aman	-286
▁kar	-287
▁kon	-288
akarta	-289
yar	-290
▁0	-291
▁set	-292
▁bisa	-293
udah	-294
ew	-295
api	-296
egara	-297
ita	-298
▁ket	-299
▁dil	-300
▁Pol	-301
onal	-302
▁ata	-303
▁kem	-304
ran	-305
00	-306
aru	-307
AR	-308
▁Y	-309
▁jpnn	-310
ingga	-311
▁kepada	-312
▁atau	-313
art	-314
ingg	-315
lah	-316
asil	-317
▁lebih	-318
ind	-319
▁an	-320
▁Pem	-321
akat	-322
▁3	-323
ow	-324
aku	-325
▁mereka	-326
▁pert	-327
▁menc	-328
ina	-329
ungk	-330
▁pemb	-331
res	-332
▁Jakarta	-333
gr	-334
▁orang	-335
urut	-336
elum	-337
esar	-338
▁satu	-339
eber	-340
den	-341
▁sem	-342
▁Men	-343
yarakat	-344
▁sudah	-345
aik	-346
osi	-347
▁bers	-348
awa	-349
od	-350
▁dis	-351
anyak	-352
▁pers	-353
empat	-354
▁karena	-355
▁Is	-356
▁Un	-357
imp	-358
op	-359
▁(2	-360
▁kel	-361
erint	-362
iri	-363
▁berk	-364
erja	-365
▁adalah	-366
erah	-367
▁dib	-368
▁Kota	-369
▁kami	-370
▁kes	-371
▁(1	-372
▁para	-373
TA	-374
iga	-375
og	-376
▁peny	-377
▁masyarakat	-378
▁Pen	-379
▁berb	-380
apan	-381
▁dit	-382
inya	-383
▁melakukan	-384
orm	-385
▁Sen	-386
ilik	-387
esiden	-388
ember	-389
abu	-390
▁hari	-391
▁pas	-392
asih	-393
▁Tim	-394
ban	-395
▁lain	-396
▁uj	-397
angs	-398
awan	-399
▁sej	-400
uat	-401
/1	-402
arang	-403
ist	-404
ac	-405
▁Kem	-406
oh	-407
ilih	-408
hadap	-409
atkan	-410
aks	-411
arus	-412
aikan	-413
umat	-414
arkan	-415
▁Ber	-416
▁negara	-417
est	-418
▁Kam	-419
apkan	-420
▁terhadap	-421
▁V	-422
AK	-423
▁at	-424
ima	-425
▁mengg	-426
ini	-427
▁bagi	-428
erikan	-429
▁pr	-430
▁dapat	-431
▁memper	-432
▁tet	-433
omp	-434
ej	-435
▁terb	-436
ikan	-437
jadi	-438
▁Kab	-439
ic	-440
asional	-441
▁kor	-442
▁dia	-443
▁ujar	-444
erintah	-445
▁dik	-446
arat	-447
ARTA	-448
AKARTA	-449
▁v	-450
▁as	-451
upat	-452
umlah	-453
ka	-454
▁Pro	-455
▁secara	-456
▁Ch	-457
uhan	-458
dang	-459
▁hingga	-460
gram	-461
upaten	-462
uran	-463
▁Selasa	-464
duk	-465
▁Rabu	-466
engah	-467
umah	-468
▁JAKARTA	-469
mas	-470
hir	-471
unj	-472
usah	-473
eberapa	-474
anjut	-475
upakan	-476
▁Al	-477
▁Senin	-478
perti	-479
ensi	-480
▁Sur	-481
▁Dia	-482
▁pol	-483
ihak	-484
ingan	-485
▁setelah	-486
jpnn	-487
askan	-488
▁Kamis	-489
▁2024.	-490
ov	-491
▁merupakan	-492
▁Sem	-493
angka	-494
angat	-495
▁AS	-496
▁dua	-497
usia	-498
▁Kep	-499
▁seperti	-500
antu	-501
ec	-502
▁baru	-503
enc	-504
uka	-505
ayah	-506
▁saya	-507
▁keb	-508
▁Ag	-509
▁ek	-510
▁4	-511
▁Kabupaten	-512
ulan	-513
▁Jumat	-514
▁pun	-515
▁ag	-516
▁warga	-517
▁masih	-518
tua	-519
▁Di	-520
alon	-521
▁Am	-522
▁harus	-523
ses	-524
▁dilakukan	-525
▁Ter	-526
▁beberapa	-527
PP	-528
▁serta	-529
aerah	-530
asus	-531
▁5	-532
▁memberikan	-533
▁ant	-534
iliki	-535
era	-536
tif	-537
ump	-538
▁Mar	-539
alui	-540
▁anak	-541
▁pend	-542
▁banyak	-543
angsung	-544
amun	-545
ilan	-546
uang	-547
anc	-548
▁Jawa	-549
ukum	-550
artai	-551
ekan	-552
▁Ar	-553
▁Presiden	-554
rael	-555
▁korban	-556
ayan	-557
ni	-558
itik	-559
▁lalu	-560
ilayah	-561
engg	-562
▁su	-563
olo	-564
▁atas	-565
▁hanya	-566
▁pihak	-567
ikasi	-568
▁Israel	-569
▁besar	-570
▁Kom	-571
AN	-572
tor	-573
20	-574
▁berh	-575
st	-576
uah	-577
▁Pil	-578
▁Bali	-579
tur	-580
▁memiliki	-581
unan	-582
▁rumah	-583
uar	-584
▁bersama	-585
inan	-586
apor	-587
ea	-588
ern	-589
▁dig	-590
inggu	-591
agian	-592
form	-593
▁tim	-594
▁Ketua	-595
owo	-596
tikan	-597
▁terjadi	-598
di	-599
▁dip	-600
uruh	-601
▁seh	-602
af	-603
▁selama	-604
erangan	-605
itar	-606
▁baik	-607
▁melalui	-608
ting	-609
▁Ap	-610
▁berl	-611
▁Sab	-612
▁Peng	-613
uc	-614
▁sangat	-615
▁ker	-616
ev	-617
aksi	-618
imb	-619
unia	-620
embali	-621
ulai	-622
▁si	-623
▁salah	-624
▁Seb	-625
ug	-626
ani	-627
▁Des	-628
▁Menurut	-629
▁kasus	-630
▁ked	-631
▁DP	-632
ei	-633
entara	-634
inta	-635
▁wak	-636
wan	-637
ilai	-638
▁sen	-639
▁wilayah	-640
ons	-641
kait	-642
▁Pas	-643
▁Band	-644
▁)	-645
elar	-646
▁al	-647
ikut	-648
▁pemerintah	-649
▁bert	-650
▁Rp	-651
man	-652
ampaikan	-653
angkan	-654
edia	-655
aja	-656
au	-657
▁Sabtu	-658
▁kita	-659
▁Pel	-660
▁mengh	-661
unakan	-662
▁mil	-663
gaw	-664
▁sama	-665
ahu	-666
▁terl	-667
▁ap	-668
unc	-669
▁tetapi	-670
▁Barat	-671
iv	-672
▁o	-673
umb	-674
▁PT	-675
lu	-676
▁Namun	-677
▁kom	-678
abowo	-679
▁angg	-680
▁Minggu	-681
▁Prabowo	-682
▁terus	-683
oto	-684
▁sebelum	-685
▁19	-686
202	-687
isasi	-688
▁terkait	-689
▁kembali	-690
▁kek	-691
uda	-692
utus	-693
▁hal	-694
▁persen	-695
▁sekitar	-696
tri	-697
ihat	-698
ny	-699
utan	-700
han	-701
adan	-702
▁hukum	-703
▁kec	-704
tern	-705
▁meningk	-706
enter	-707
udi	-708
kr	-709
pa	-710
entang	-711
▁seluruh	-712
▁St	-713
▁mendapat	-714
▁agar	-715
onom	-716
ungg	-717
udian	-718
▁dir	-719
▁Ser	-720
az	-721
▁tak	-722
▁berbagai	-723
▁7	-724
kada	-725
▁pes	-726
▁sep	-727
▁Ment	-728
arah	-729
▁Ad	-730
▁Dir	-731
▁tiga	-732
ij	-733
idikan	-734
ark	-735
anto	-736
▁a	-737
▁Kor	-738
▁tan	-739
mi	-740
▁10	-741
atang	-742
atih	-743
▁6	-744
inggal	-745
▁daerah	-746
▁Pert	-747
▁terd	-748
omor	-749
lik	-750
amatan	-751
▁hasil	-752
abat	-753
uru	-754
▁kan	-755
ju	-756
uli	-757
upaya	-758
▁program	-759
epan	-760
▁sebuah	-761
▁menjel	-762
sp	-763
entu	-764
▁Selatan	-765
▁KP	-766
ambah	-767
▁lainnya	-768
egeri	-769
▁samp	-770
.00	-771
masuk	-772
unya	-773
▁did	-774
ukung	-775
ehatan	-776
apai	-777
▁RI	-778
iz	-779
ubern	-780
▁Menteri	-781
▁calon	-782
ubernur	-783
▁dunia	-784
usahaan	-785
▁produk	-786
▁menyebut	-787
▁Dalam	-788
formasi	-789
uta	-790
uari	-791
▁belum	-792
sa	-793
air	-794
emen	-795
▁Ut	-796
ologi	-797
▁Z	-798
▁antara	-799
etu	-800
if	-801
osial	-802
▁pertama	-803
▁tentang	-804
und	-805
▁Tr	-806
▁diper	-807
▁Kepala	-808
tas	-809
abaya	-810
ilu	-811
anti	-812
▁Agus	-813
▁sedang	-814
▁ses	-815
▁Surabaya	-816
aris	-817
ersi	-818
inggi	-819
li	-820
▁res	-821
▁kerja	-822
▁dem	-823
▁st	-824
▁kh	-825
utama	-826
▁penting	-827
▁menghad	-828
ampak	-829
men	-830
ingin	-831
▁Hal	-832
▁Bandung	-833
▁membuat	-834
okasi	-835
ayanan	-836
abar	-837
olah	-838
idang	-839
mad	-840
▁termasuk	-841
▁Mas	-842
▁man	-843
▁semua	-844
elas	-845
ef	-846
ilihan	-847
iter	-848
▁Ket	-849
ekerja	-850
MK	-851
▁pelaku	-852
▁sejumlah	-853
nas	-854
▁Partai	-855
amanan	-856
▁bi	-857
▁memas	-858
▁Timur	-859
alami	-860
▁Th	-861
▁Sep	-862
▁langsung	-863
2024	-864
▁China	-865
▁berj	-866
▁Sek	-867
▁depan	-868
insi	-869
▁Ini	-870
▁Mer	-871
▁Set	-872
araan	-873
▁berd	-874
ril	-875
akin	-876
▁Kec	-877
umum	-878
impin	-879
▁ya	-880
ibat	-881
atanya	-882
atif	-883
▁2023	-884
uas	-885
ungkap	-886
▁Pilkada	-887
akit	-888
▁sejak	-889
ank	-890
▁penc	-891
ual	-892
re	-893
▁Tengah	-894
usus	-895
sia	-896
▁As	-897
▁anggota	-898
▁8	-899
▁DPR	-900
akhir	-901
▁Ak	-902
antan	-903
▁15	-904
▁kedua	-905
▁kali	-906
anda	-907
unjuk	-908
esk	-909
▁katanya	-910
▁bagian	-911
▁suara	-912
▁waktu	-913
▁Um	-914
iap	-915
▁terp	-916
gas	-917
▁mener	-918
▁berp	-919
aka	-920
▁Persi	-921
ibu	-922
▁Jok	-923
tiv	-924
awat	-925
angunan	-926
▁bulan	-927
▁seorang	-928
epat	-929
antor	-930
▁mendukung	-931
asis	-932
▁Pal	-933
empuan	-934
▁12	-935
enterian	-936
▁politik	-937
encana	-938
ont	-939
▁Ok	-940
▁sehingga	-941
▁pengg	-942
istr	-943
/2024	-944
▁kota	-945
▁tempat	-946
ustr	-947
▁Ang	-948
ono	-949
aian	-950
uni	-951
erika	-952
▁mengaku	-953
▁serangan	-954
usat	-955
▁akhir	-956
asar	-957
▁menyampaikan	-958
akil	-959
▁Amerika	-960
utusan	-961
▁mulai	-962
▁ind	-963
▁Kap	-964
nyata	-965
▁dim	-966
atim	-967
ekn	-968
▁Selain	-969
arg	-970
awasan	-971
▁meningkatkan	-972
▁proses	-973
▁14	-974
▁Mal	-975
▁kons	-976
▁bel	-977
aksan	-978
ch	-979
▁saja	-980
onomi	-981
▁aw	-982
▁Polres	-983
▁perusahaan	-984
▁'	-985
eo	-986
lin	-987
oba	-988
▁lagi	-989
ompok	-990
▁[	-991
▁Kar	-992
▁16	-993
▁Nov	-994
ingkat	-995
▁Direk	-996
emukan	-997
ig	-998
ober	-999
ikat	-1000
▁ketika	-1001
▁sur	-1002
▁kamp	-1003
▁sosial	-1004
din	-1005
▁Pada	-1006
alau	-1007
ublik	-1008
▁menggunakan	-1009
▁201	-1010
▁seg	-1011
engk	-1012
PN	-1013
eksi	-1014
SI	-1015
▁malam	-1016
▁juta	-1017
akni	-1018
▁Rusia	-1019
DI	-1020
▁2024,	-1021
usaha	-1022
gaj	-1023
▁kesehatan	-1024
▁min	-1025
ca	-1026
▁9	-1027
uarga	-1028
▁media	-1029
ukungan	-1030
ard	-1031
▁ma	-1032
otor	-1033
vinsi	-1034
egi	-1035
▁menjelaskan	-1036
idup	-1037
▁tinggi	-1038
ort	-1039
▁bukan	-1040
▁13	-1041
▁yakni	-1042
NI	-1043
eral	-1044
▁Sh	-1045
oal	-1046
▁Umum	-1047
▁Mah	-1048
▁Okt	-1049
obil	-1050
adir	-1051
▁pemain	-1052
perasi	-1053
antuan	-1054
▁11	-1055
▁tetap	-1056
▁".	-1057
una	-1058
▁ben	-1059
▁Man	-1060
▁Oktober	-1061
▁kegi	-1062
▁mengen	-1063
▁ingin	-1064
▁kegiatan	-1065
▁keterangan	-1066
▁diri	-1067
▁air	-1068
▁Gubernur	-1069
upun	-1070
abil	-1071
arap	-1072
▁Kecamatan	-1073
▁PPP	-1074
▁masa	-1075
▁lanjut	-1076
▁17	-1077
▁Put	-1078
alkan	-1079
tus	-1080
▁en	-1081
▁tersangka	-1082
anjang	-1083
ukul	-1084
▁Kementerian	-1085
KP	-1086
▁upaya	-1087
angkah	-1088
▁Kami	-1089
ko	-1090
aza	-1091
usan	-1092
aling	-1093
▁berada	-1094
▁luar	-1095
▁apa	-1096
rat	-1097
▁put	-1098
▁Unit	-1099
inal	-1100
angkap	-1101
▁mendapatkan	-1102
▁Se	-1103
▁kemudian	-1104
tar	-1105
ukti	-1106
▁sampai	-1107
ers	-1108
owi	-1109
▁masuk	-1110
▁18	-1111
▁sekali	-1112
▁November	-1113
na	-1114
:3	-1115
ola	-1116
▁Jan	-1117
▁sesu	-1118
ahanan	-1119
▁makan	-1120
ula	-1121
aporan	-1122
▁mencapai	-1123
▁kur	-1124
▁Juli	-1125
-1	-1126
▁presiden	-1127
▁Wakil	-1128
▁(3	-1129
▁Tahun	-1130
▁tran	-1131
upsi	-1132
angi	-1133
AS	-1134
▁:	-1135
▁khusus	-1136
▁sebelumnya	-1137
▁posi	-1138
gab	-1139
ingkungan	-1140
▁kond	-1141
iran	-1142
▁Semarang	-1143
nah	-1144
ambil	-1145
▁menunjuk	-1146
▁uc	-1147
▁komp	-1148
▁/	-1149
ibran	-1150
▁acara	-1151
▁jelas	-1152
▁Gaza	-1153
le	-1154
▁Kel	-1155
▁dih	-1156
▁dukungan	-1157
▁perempuan	-1158
itmen	-1159
oy	-1160
yat	-1161
akal	-1162
▁21	-1163
▁Bog	-1164
ungkin	-1165
tim	-1166
▁i	-1167
▁musi	-1168
▁jalan	-1169
jata	-1170
▁kawasan	-1171
eda	-1172
adilan	-1173
▁kend	-1174
uhi	-1175
▁Bogor	-1176
ator	-1177
aki	-1178
▁Direktur	-1179
▁jadi	-1180
urkan	-1181
▁Polda	-1182
▁Sementara	-1183
ustri	-1184
enangan	-1185
▁Foto	-1186
▁pasangan	-1187
▁hak	-1188
▁Jalan	-1189
ilm	-1190
▁pukul	-1191
▁penyel	-1192
▁membantu	-1193
orong	-1194
▁Peny	-1195
anye	-1196
▁Utara	-1197
▁nomor	-1198
▁Agustus	-1199
),	-1200
yah	-1201
▁menyatakan	-1202
▁mengalami	-1203
:0	-1204
▁Nasional	-1205
▁Badan	-1206
▁?	-1207
▁Juni	-1208
utur	-1209
▁pengh	-1210
ital	-1211
.000	-1212
▁perk	-1213
▁terakhir	-1214
▁intern	-1215
endiri	-1216
▁Jadi	-1217
▁Har	-1218
▁Hari	-1219
▁Dep	-1220
iversi	-1221
▁bantuan	-1222
▁menunjukkan	-1223
▁Ab	-1224
tember	-1225
▁Desa	-1226
▁memastikan	-1227
oc	-1228
▁kap	-1229
▁jika	-1230
▁September	-1231
▁ekonomi	-1232
itan	-1233
▁PPPK	-1234
uatan	-1235
ayaan	-1236
▁Mei	-1237
▁Desember	-1238
▁lokasi	-1239
ulang	-1240
to	-1241
iar	-1242
▁tr	-1243
▁keluarga	-1244
ode	-1245
▁ia	-1246
▁tengah	-1247
awah	-1248
ema	-1249
▁gamb	-1250
KB	-1251
resi	-1252
▁Saya	-1253
▁meminta	-1254
angun	-1255
awab	-1256
▁ucap	-1257
▁jumlah	-1258
Kami	-1259
▁Kh	-1260
▁str	-1261
▁berlangsung	-1262
ulu	-1263
▁Ir	-1264
▁April	-1265
omb	-1266
:1	-1267
aut	-1268
ukai	-1269
aju	-1270
ateng	-1271
▁Pemerintah	-1272
▁mana	-1273
jen	-1274
▁meninggal	-1275
ebr	-1276
/11	-1277
▁Ah	-1278
emuan	-1279
urun	-1280
▁din	-1281
▁Januari	-1282
▁berhasil	-1283
erik	-1284
ond	-1285
▁Negeri	-1286
▁PDI	-1287
ubungan	-1288
ahui	-1289
▁berm	-1290
▁setiap	-1291
faat	-1292
▁awal	-1293
umber	-1294
otensi	-1295
▁rek	-1296
▁Kal	-1297
aporkan	-1298
▁laga	-1299
erta	-1300
RI	-1301
oor	-1302
erang	-1303
▁ar	-1304
▁asal	-1305
angga	-1306
▁tind	-1307
▁United	-1308
▁Sub	-1309
▁maupun	-1310
▁Pemb	-1311
ey	-1312
▁kl	-1313
eman	-1314
▁memp	-1315
▁Jokowi	-1316
▁partai	-1317
ungkapkan	-1318
dul	-1319
▁empat	-1320
erj	-1321
▁ujarnya	-1322
isata	-1323
▁Timnas	-1324
▁polisi	-1325
▁tekn	-1326
▁mobil	-1327
ebab	-1328
/7	-1329
▁soal	-1330
▁melihat	-1331
aim	-1332
emu	-1333
edi	-1334
etahui	-1335
▁sesuai	-1336
ungi	-1337
isn	-1338
urn	-1339
▁pihaknya	-1340
ahkan	-1341
kar	-1342
▁berharap	-1343
▁sebesar	-1344
asarkan	-1345
▁pet	-1346
▁Sum	-1347
rasi	-1348
▁resmi	-1349
ujan	-1350
▁perb	-1351
▁Universi	-1352
▁kelompok	-1353
irkan	-1354
ugaan	-1355
aih	-1356
▁kr	-1357
sel	-1358
ewan	-1359
▁Sat	-1360
▁X	-1361
▁sk	-1362
▁menurut	-1363
▁memen	-1364
▁pernah	-1365
/8	-1366
▁Pi	-1367
▁tangg	-1368
embangan	-1369
▁militer	-1370
/5	-1371
▁sendiri	-1372
▁Liga	-1373
▁Komisi	-1374
▁gambar	-1375
upati	-1376
▁ungkap	-1377
KI	-1378
ura	-1379
▁kondisi	-1380
▁Ham	-1381
krain	-1382
▁Trump	-1383
:5	-1384
uangan	-1385
ijakan	-1386
kraina	-1387
▁Maret	-1388
▁bekerja	-1389
ulkan	-1390
▁terk	-1391
/10	-1392
akyat	-1393
▁Ked	-1394
▁informasi	-1395
anjar	-1396
andingan	-1397
▁Ukraina	-1398
▁menambah	-1399
:4	-1400
asiswa	-1401
▁utama	-1402
ikuti	-1403
▁hadir	-1404
nyataan	-1405
▁Muh	-1406
▁nasional	-1407
sek	-1408
▁Para	-1409
▁Asia	-1410
▁Mereka	-1411
▁22	-1412
▁perd	-1413
▁Pend	-1414
/12	-1415
istem	-1416
istrik	-1417
▁Daerah	-1418
▁lingkungan	-1419
▁laporan	-1420
▁barang	-1421
▁dek	-1422
ies	-1423
upa	-1424
▁kendaraan	-1425
etugas	-1426
▁tanpa	-1427
unt	-1428
gan	-1429
▁yaitu	-1430
▁adanya	-1431
iden	-1432
embaga	-1433
▁Dem	-1434
▁perlu	-1435
▁perj	-1436
ampung	-1437
imana	-1438
▁KPU	-1439
▁menjalan	-1440
/9	-1441
▁Suk	-1442
ewas	-1443
▁Provinsi	-1444
ukup	-1445
angkat	-1446
av	-1447
▁menerima	-1448
ade	-1449
egaw	-1450
/6	-1451
▁Iran	-1452
arget	-1453
▁&	-1454
ejabat	-1455
abor	-1456
▁uang	-1457
▁Kapol	-1458
▁bakal	-1459
▁Kr	-1460
▁kont	-1461
▁perm	-1462
anding	-1463
▁memperk	-1464
ergi	-1465
/3	-1466
▁par	-1467
▁Pemilu	-1468
ampu	-1469
▁penj	-1470
▁sebanyak	-1471
lim	-1472
▁konf	-1473
▁Korea	-1474
ateg	-1475
▁layanan	-1476
eta	-1477
agaimana	-1478
▁keber	-1479
onor	-1480
alaman	-1481
idana	-1482
▁Air	-1483
▁keamanan	-1484
ma	-1485
usai	-1486
anak	-1487
▁dugaan	-1488
▁23	-1489
impinan	-1490
▁mengungkapkan	-1491
iaya	-1492
▁dok	-1493
adion	-1494
elit	-1495
▁TNI	-1496
▁sp	-1497
▁Pak	-1498
▁tuj	-1499
▁Sul	-1500
▁paling	-1501
▁mengenai	-1502
vest	-1503
▁Kes	-1504
alia	-1505
▁30	-1506
▁industri	-1507
ez	-1508
erb	-1509
▁dirinya	-1510
▁melawan	-1511
▁Keb	-1512
/4	-1513
▁Den	-1514
▁membawa	-1515
▁Anda	-1516
▁masalah	-1517
▁pl	-1518
▁sat	-1519
▁Ada	-1520
▁Ek	-1521
irim	-1522
▁on	-1523
amat	-1524
udara	-1525
eter	-1526
embang	-1527
aksanakan	-1528
▁Ol	-1529
▁kepala	-1530
▁kini	-1531
▁menggelar	-1532
apun	-1533
ilang	-1534
▁25	-1535
▁pendidikan	-1536
▁umum	-1537
▁des	-1538
▁Br	-1539
ANG	-1540
▁menjaga	-1541
▁perang	-1542
▁II	-1543
▁muda	-1544
ungsi	-1545
ham	-1546
▁En	-1547
▁Piala	-1548
▁Serikat	-1549
▁bawah	-1550
erintahan	-1551
▁menghadapi	-1552
isti	-1553
atihan	-1554
umen	-1555
▁Saat	-1556
▁mengaj	-1557
▁PS	-1558
tik	-1559
▁lima	-1560
gag	-1561
ajar	-1562
▁Pers	-1563
enang	-1564
isnis	-1565
▁Sej	-1566
▁pertandingan	-1567
▁Din	-1568
▁nama	-1569
▁PB	-1570
▁cukup	-1571
▁Leb	-1572
utuhan	-1573
apres	-1574
idik	-1575
▁Pap	-1576
▁Ia	-1577
▁Res	-1578
oni	-1579
▁Anies	-1580
uaca	-1581
aranya	-1582
▁of	-1583
▁berg	-1584
▁Gol	-1585
▁langkah	-1586
▁or	-1587
▁pembangunan	-1588
oordin	-1589
▁So	-1590
▁mah	-1591
▁Pusat	-1592
▁segera	-1593
▁sementara	-1594
▁And	-1595
▁pelangg	-1596
▁Mel	-1597
fi	-1598
▁surat	-1599
tum	-1600
▁KPK	-1601
▁harga	-1602
▁Negara	-1603
▁kampanye	-1604
▁mungkin	-1605
antai	-1606
▁urut	-1607
PB	-1608
▁menyel	-1609
▁data	-1610
atian	-1611
estina	-1612
▁op	-1613
▁situ	-1614
hi	-1615
edung	-1616
KN	-1617
wal	-1618
▁bukti	-1619
▁senjata	-1620
uara	-1621
▁sed	-1622
ha	-1623
▁Papua	-1624
fr	-1625
▁akibat	-1626
intas	-1627
▁negeri	-1628
ira	-1629
▁keh	-1630
stitu	-1631
▁Kantor	-1632
ret	-1633
▁Ari	-1634
▁1.	-1635
▁24	-1636
angsa	-1637
erjaan	-1638
▁Kemen	-1639
▁Universitas	-1640
▁sekolah	-1641
iau	-1642
▁diter	-1643
▁Stadion	-1644
▁memang	-1645
▁jam	-1646
▁kal	-1647
▁Sp	-1648
egal	-1649
saan	-1650
▁Ger	-1651
▁pernyataan	-1652
▁kebijakan	-1653
ubahan	-1654
▁mampu	-1655
▁digelar	-1656
▁em	-1657
▁tutur	-1658
jadian	-1659
▁sistem	-1660
uku	-1661
▁el	-1662
untu	-1663
▁meneg	-1664
AM	-1665
ori	-1666
▁kol	-1667
utuh	-1668
▁berin	-1669
busi	-1670
▁bal	-1671
▁Bea	-1672
▁tingkat	-1673
▁ken	-1674
▁Gr	-1675
▁mantan	-1676
▁Ahmad	-1677
▁kebutuhan	-1678
gus	-1679
▁Setelah	-1680
▁Palestina	-1681
▁internasional	-1682
uju	-1683
agu	-1684
sip	-1685
▁terj	-1686
-2	-1687
▁Q	-1688
ualitas	-1689
anten	-1690
umi	-1691
▁lama	-1692
aksa	-1693
:2	-1694
PS	-1695
▁pejabat	-1696
okus	-1697
elak	-1698
icara	-1699
▁Solo	-1700
▁pekan	-1701
▁Keterangan	-1702
▁siap	-1703
▁lap	-1704
▁pemilu	-1705
▁Polisi	-1706
▁hidup	-1707
atur	-1708
▁Ac	-1709
▁miliar	-1710
eski	-1711
▁Meng	-1712
ideo	-1713
empatan	-1714
▁Ganjar	-1715
▁Jep	-1716
/2024)	-1717
line	-1718
etapkan	-1719
▁int	-1720
▁datang	-1721
eal	-1722
▁Polri	-1723
▁milik	-1724
ulit	-1725
▁mod	-1726
argaan	-1727
▁punya	-1728
eran	-1729
▁Febr	-1730
▁Cukai	-1731
▁Ing	-1732
▁bersi	-1733
▁mendorong	-1734
andang	-1735
juangan	-1736
war	-1737
▁war	-1738
erd	-1739
▁sekaligus	-1740
isian	-1741
▁08	-1742
AB	-1743
▁PP	-1744
enaga	-1745
▁aman	-1746
▁makanan	-1747
arkoba	-1748
yo	-1749
▁pan	-1750
me	-1751
alur	-1752
ohon	-1753
eriksaan	-1754
ebat	-1755
▁hujan	-1756
▁Wid	-1757
▁dij	-1758
▁wakil	-1759
edan	-1760
▁Bank	-1761
▁Il	-1762
ingkatan	-1763
▁bahkan	-1764
▁akhirnya	-1765
unga	-1766
▁diduga	-1767
▁Depok	-1768
enderal	-1769
▁sakit	-1770
pres	-1771
▁pemerintahan	-1772
▁tanah	-1773
▁Bupati	-1774
▁Or	-1775
▁publik	-1776
▁ny	-1777
enis	-1778
uanya	-1779
▁pemimpin	-1780
▁mendatang	-1781
ibatkan	-1782
▁Intern	-1783
lob	-1784
▁motor	-1785
▁Hamas	-1786
etak	-1787
ft	-1788
▁guru	-1789
dukung	-1790
▁Bas	-1791
min	-1792
▁kejadian	-1793
▁Februari	-1794
▁07	-1795
▁Bel	-1796
▁Untuk	-1797
amah	-1798
▁cara	-1799
▁listrik	-1800
▁menilai	-1801
oin	-1802
▁El	-1803
▁mew	-1804
UR	-1805
la	-1806
lobal	-1807
▁ribu	-1808
arik	-1809
engar	-1810
▁Angg	-1811
ambang	-1812
▁Kon	-1813
▁is	-1814
▁bern	-1815
▁ment	-1816
auh	-1817
▁digunakan	-1818
▁Biden	-1819
onorer	-1820
olusi	-1821
ongan	-1822
▁Persib	-1823
▁menegaskan	-1824
▁kalau	-1825
truk	-1826
atat	-1827
▁Nomor	-1828
ianto	-1829
▁pasar	-1830
▁ditemukan	-1831
▁kapal	-1832
baru	-1833
ammad	-1834
ampil	-1835
arin	-1836
▁menuju	-1837
uki	-1838
▁teknologi	-1839
▁menambahkan	-1840
no	-1841
▁perl	-1842
tivitas	-1843
▁Gun	-1844
▁berjalan	-1845
aborasi	-1846
EN	-1847
adaan	-1848
▁aksi	-1849
▁Jepang	-1850
amina	-1851
embak	-1852
▁ibu	-1853
anjir	-1854
▁beras	-1855
anggung	-1856
enal	-1857
▁Nus	-1858
▁tert	-1859
uti	-1860
unaan	-1861
isial	-1862
▁peserta	-1863
▁27	-1864
erasan	-1865
fikasi	-1866
▁Jatim	-1867
enggara	-1868
▁ku	-1869
ity	-1870
▁bat	-1871
enar	-1872
▁DKI	-1873
▁petugas	-1874
▁pil	-1875
▁bisnis	-1876
ujud	-1877
▁pri	-1878
▁tewas	-1879
egitu	-1880
▁Met	-1881
▁rasa	-1882
okrasi	-1883
▁z	-1884
otal	-1885
▁Tan	-1886
▁Baru	-1887
ebabkan	-1888
▁Ero	-1889
olisian	-1890
▁Dengan	-1891
▁Sebelum	-1892
aji	-1893
▁peri	-1894
▁Adapun	-1895
▁sempat	-1896
▁Salah	-1897
▁komitmen	-1898
inc	-1899
uri	-1900
▁Banten	-1901
▁Jaya	-1902
▁komun	-1903
▁Dit	-1904
jo	-1905
▁tahu	-1906
▁Wali	-1907
alis	-1908
▁terutama	-1909
▁sebagian	-1910
▁Eropa	-1911
ganisasi	-1912
▁pemeriksaan	-1913
▁Pertamina	-1914
▁kantor	-1915
por	-1916
▁Kej	-1917
▁sektor	-1918
▁meraih	-1919
tan	-1920
▁09	-1921
erahkan	-1922
▁semakin	-1923
iah	-1924
▁Ram	-1925
▁periode	-1926
▁terbaik	-1927
▁gol	-1928
alanan	-1929
ipun	-1930
sis	-1931
▁eks	-1932
eskipun	-1933
▁diberikan	-1934
▁hubungan	-1935
arian	-1936
▁Calon	-1937
▁Jenderal	-1938
UM	-1939
▁Kemudian	-1940
▁kab	-1941
erasi	-1942
▁Program	-1943
oro	-1944
ajaran	-1945
▁Rep	-1946
▁cepat	-1947
▁gr	-1948
adah	-1949
▁musim	-1950
▁Dinas	-1951
bu	-1952
▁korupsi	-1953
▁pak	-1954
▁potensi	-1955
▁perc	-1956
▁jatim	-1957
MKM	-1958
krim	-1959
▁berinisial	-1960
▁teg	-1961
▁Subianto	-1962
lam	-1963
▁Bal	-1964
▁mengikuti	-1965
ly	-1966
▁selalu	-1967
▁Sup	-1968
▁cuaca	-1969
▁membangun	-1970
umas	-1971
ation	-1972
▁Tak	-1973
abilitas	-1974
▁perubahan	-1975
lon	-1976
▁ef	-1977
▁ketiga	-1978
▁digital	-1979
▁Si	-1980
▁dic	-1981
▁har	-1982
▁pember	-1983
▁The	-1984
enda	-1985
ampir	-1986
anjutan	-1987
▁rakyat	-1988
▁tok	-1989
adang	-1990
▁BB	-1991
▁meningkat	-1992
isk	-1993
▁bentuk	-1994
ipil	-1995
▁mahasiswa	-1996
▁jabar	-1997
▁keputusan	-1998
ubah	-1999
resiasi	-2000
▁disampaikan	-2001
▁Mus	-2002
sama	-2003
NG	-2004
▁FC	-2005
▁trans	-2006
aftar	-2007
ulasi	-2008
oritas	-2009
▁200	-2010
▁berusia	-2011
antara	-2012
▁Jabar	-2013
olak	-2014
▁usaha	-2015
anjutkan	-2016
▁pemilihan	-2017
ambut	-2018
▁pertemuan	-2019
▁bertu	-2020
▁il	-2021
▁Jateng	-2022
vestasi	-2023
▁Mo	-2024
asilitas	-2025
▁memberi	-2026
▁film	-2027
▁tindakan	-2028
ore	-2029
gris	-2030
▁tinggal	-2031
yak	-2032
▁Su	-2033
▁pul	-2034
▁jauh	-2035
/8).	-2036
▁Ins	-2037
/11).	-2038
▁Gibran	-2039
▁kesempatan	-2040
▁nanti	-2041
akah	-2042
▁kemenangan	-2043
amin	-2044
arakan	-2045
umsi	-2046
▁jar	-2047
▁Agung	-2048
▁disebut	-2049
antas	-2050
ogy	-2051
▁desa	-2052
▁Has	-2053
yek	-2054
▁PBB	-2055
tribusi	-2056
▁ger	-2057
▁form	-2058
▁peningkatan	-2059
▁perjalanan	-2060
/7).	-2061
▁2022	-2062
▁Austr	-2063
▁Tidak	-2064
▁video	-2065
▁Pasal	-2066
▁jawab	-2067
▁06	-2068
▁ikut	-2069
▁Inggris	-2070
ky	-2071
ugas	-2072
▁Mad	-2073
▁jenis	-2074
utup	-2075
ach	-2076
▁daya	-2077
▁mengel	-2078
atasan	-2079
likasi	-2080
▁posisi	-2081
▁Ma	-2082
anggap	-2083
idat	-2084
▁dekat	-2085
ajang	-2086
▁membuka	-2087
▁Dewan	-2088
elakaan	-2089
▁terpilih	-2090
ovasi	-2091
okal	-2092
▁enam	-2093
▁terbaru	-2094
▁kuat	-2095
▁kurang	-2096
▁Gar	-2097
▁bahan	-2098
▁mengambil	-2099
pasar	-2100
vei	-2101
▁memilih	-2102
▁terc	-2103
atangan	-2104
▁(5	-2105
▁Im	-2106
umumkan	-2107
eli	-2108
/10).	-2109
▁UMKM	-2110
▁seusai	-2111
▁kand	-2112
▁maka	-2113
▁udara	-2114
alahan	-2115
utuhkan	-2116
ulis	-2117
▁gen	-2118
Gibran	-2119
▁tenaga	-2120
▁Pl	-2121
takan	-2122
▁Perd	-2123
▁Golkar	-2124
Saya	-2125
▁kecil	-2126
ate	-2127
anta	-2128
onel	-2129
▁Rumah	-2130
▁begitu	-2131
itra	-2132
▁ut	-2133
okan	-2134
▁satunya	-2135
▁Denpasar	-2136
AT	-2137
▁menjalani	-2138
atar	-2139
▁26	-2140
▁New	-2141
▁saksi	-2142
/2024).	-2143
▁Hukum	-2144
▁Par	-2145
sipasi	-2146
▁tel	-2147
▁Pemilihan	-2148
▁pria	-2149
ajak	-2150
bes	-2151
▁kej	-2152
▁bidang	-2153
▁ungg	-2154
enti	-2155
▁Komp	-2156
rov	-2157
▁merasa	-2158
▁terlibat	-2159
awas	-2160
▁berkom	-2161
▁Sy	-2162
okok	-2163
▁menit	-2164
▁Rah	-2165
▁pusat	-2166
▁dr	-2167
▁Ant	-2168
▁ist	-2169
▁suk	-2170
ayakan	-2171
amankan	-2172
/2	-2173
abatan	-2174
▁nilai	-2175
▁online	-2176
▁memenuhi	-2177
▁menging	-2178
MI	-2179
ilis	-2180
▁melaporkan	-2181
▁Mil	-2182
erman	-2183
▁dampak	-2184
eks	-2185
atusan	-2186
▁Sumat	-2187
irakan	-2188
▁poin	-2189
/5).	-2190
▁biasa	-2191
▁penuh	-2192
abr	-2193
ayat	-2194
▁2025	-2195
undang	-2196
▁operasi	-2197
▁28	-2198
▁Warga	-2199
▁berdasarkan	-2200
ansi	-2201
▁PDIP	-2202
/1).	-2203
▁and	-2204
▁Menurutnya	-2205
ce	-2206
▁Nur	-2207
▁pener	-2208
▁ditangkap	-2209
grasi	-2210
▁mau	-2211
▁khususnya	-2212
ewat	-2213
▁imb	-2214
ex	-2215
wak	-2216
▁sumber	-2217
▁(4	-2218
▁Dari	-2219
entasi	-2220
▁SE	-2221
▁ASN	-2222
▁keluar	-2223
▁mempert	-2224
▁Em	-2225
ayar	-2226
aturan	-2227
stitusi	-2228
uncurkan	-2229
ubuh	-2230
▁29	-2231
▁Dan	-2232
▁global	-2233
▁Kan	-2234
gabung	-2235
▁sekarang	-2236
istik	-2237
▁maju	-2238
▁Dr	-2239
inasi	-2240
▁bagaimana	-2241
arapkan	-2242
▁turun	-2243
unuhan	-2244
▁dibanding	-2245
omo	-2246
atuh	-2247
▁Dunia	-2248
▁1,	-2249
▁Gedung	-2250
▁positif	-2251
▁banjir	-2252
▁tah	-2253
ratis	-2254
▁menang	-2255
one	-2256
/6).	-2257
tumb	-2258
uman	-2259
udaya	-2260
▁Riau	-2261
▁honorer	-2262
▁Yo	-2263
▁total	-2264
ry	-2265
▁Sal	-2266
▁pekerja	-2267
ikit	-2268
▁tambah	-2269
▁eksp	-2270
▁Australia	-2271
ewa	-2272
▁Budi	-2273
▁Mak	-2274
▁fasilitas	-2275
▁menemukan	-2276
▁Perjuangan	-2277
▁kekerasan	-2278
fud	-2279
iptakan	-2280
▁lembaga	-2281
▁Pes	-2282
iba	-2283
▁keras	-2284
▁id	-2285
▁dana	-2286
▁pidana	-2287
aksanaan	-2288
▁unit	-2289
ho	-2290
atus	-2291
kot	-2292
▁peran	-2293
anian	-2294
▁pagi	-2295
▁Ker	-2296
uduk	-2297
▁imp	-2298
▁wisata	-2299
▁gubernur	-2300
▁Utama	-2301
▁kompet	-2302
unggu	-2303
masing	-2304
▁penghargaan	-2305
/9).	-2306
unjungan	-2307
▁hampir	-2308
▁bermain	-2309
▁ditu	-2310
▁antaranya	-2311
▁Sa	-2312
adwal	-2313
ahter	-2314
ikian	-2315
elawan	-2316
erensi	-2317
indungan	-2318
▁laut	-2319
unjung	-2320
▁For	-2321
negara	-2322
▁pasukan	-2323
iti	-2324
▁Us	-2325
uf	-2326
AY	-2327
erl	-2328
ogyakarta	-2329
▁Besar	-2330
▁ik	-2331
▁tepat	-2332
▁setempat	-2333
▁Raya	-2334
▁engg	-2335
urah	-2336
/12).	-2337
▁seri	-2338
awaslu	-2339
tasi	-2340
▁ev	-2341
▁bali	-2342
▁02	-2343
wi	-2344
▁tegas	-2345
ungkinan	-2346
▁lapangan	-2347
MKG	-2348
▁UU	-2349
▁naik	-2350
▁perh	-2351
izin	-2352
▁masing	-2353
▁Pelatih	-2354
KS	-2355
otel	-2356
▁Republik	-2357
ahas	-2358
▁lah	-2359
▁Yogyakarta	-2360
▁05	-2361
▁Ed	-2362
atasi	-2363
tumbuhan	-2364
▁berita	-2365
odo	-2366
▁),	-2367
ris	-2368
▁beb	-2369
uncul	-2370
/3).	-2371
▁Dua	-2372
amping	-2373
▁menyebabkan	-2374
ona	-2375
pol	-2376
▁mom	-2377
ARA	-2378
▁Bek	-2379
elang	-2380
pons	-2381
akaran	-2382
▁kil	-2383
te	-2384
▁pelanggaran	-2385
istiwa	-2386
▁namun	-2387
▁Muhammad	-2388
▁angka	-2389
▁bur	-2390
▁energi	-2391
▁pemilih	-2392
▁Sekret	-2393
▁menjelang	-2394
co	-2395
iman	-2396
usung	-2397
ass	-2398
▁Ku	-2399
▁Le	-2400
▁mat	-2401
▁karya	-2402
akatan	-2403
▁sepanjang	-2404
indak	-2405
▁DPRD	-2406
▁lintas	-2407
▁turut	-2408
▁manusia	-2409
mal	-2410
of	-2411
▁04	-2412
▁sipil	-2413
ekerjaan	-2414
▁Pul	-2415
▁prak	-2416
▁memperkuat	-2417
▁BRI	-2418
▁del	-2419
endah	-2420
ki	-2421
amu	-2422
antikan	-2423
antangan	-2424
▁menyebutkan	-2425
AYA	-2426
orn	-2427
▁Pa	-2428
amai	-2429
▁Joko	-2430
PR	-2431
ajib	-2432
▁tangan	-2433
▁menarik	-2434
uarkan	-2435
▁lokal	-2436
▁narkoba	-2437
▁sisi	-2438
egawai	-2439
ine	-2440
Un	-2441
let	-2442
▁jalur	-2443
umpang	-2444
jid	-2445
▁Nat	-2446
▁fokus	-2447
▁50	-2448
amar	-2449
▁tubuh	-2450
▁benar	-2451
▁SM	-2452
▁persi	-2453
▁mengur	-2454
uji	-2455
▁01	-2456
▁Gus	-2457
▁tapi	-2458
▁mudah	-2459
NT	-2460
juan	-2461
▁mencari	-2462
oli	-2463
▁berbeda	-2464
▁Re	-2465
/4).	-2466
▁belak	-2467
▁sedikit	-2468
▁kemungkinan	-2469
ela	-2470
▁100	-2471
▁kualitas	-2472
ash	-2473
▁disel	-2474
▁bertemu	-2475
▁Bar	-2476
▁Seorang	-2477
▁menghadirkan	-2478
▁target	-2479
▁Bo	-2480
ategis	-2481
▁).	-2482
▁Kesehatan	-2483
▁PSI	-2484
iun	-2485
egah	-2486
▁menciptakan	-2487
agangan	-2488
▁demi	-2489
entukan	-2490
▁ob	-2491
▁demikian	-2492
erita	-2493
okrat	-2494
▁menekan	-2495
▁perkara	-2496
erak	-2497
▁kemarin	-2498
lemen	-2499
▁gag	-2500
▁Tang	-2501
ambahan	-2502
▁Anak	-2503
▁tertu	-2504
▁tugas	-2505
▁tujuan	-2506
▁dihad	-2507
▁fak	-2508
he	-2509
mar	-2510
unuh	-2511
▁(6	-2512
utip	-2513
▁akses	-2514
▁pengalaman	-2515
ral	-2516
▁Prof	-2517
▁Sebelumnya	-2518
▁keterangannya	-2519
▁seni	-2520
▁31	-2521
▁ajang	-2522
▁manfaat	-2523
▁organisasi	-2524
istan	-2525
▁jabatan	-2526
▁menteri	-2527
▁sis	-2528
▁Mul	-2529
▁berat	-2530
▁terdapat	-2531
▁diketahui	-2532
▁Abdul	-2533
▁keuangan	-2534
▁asing	-2535
ans	-2536
▁RS	-2537
▁muncul	-2538
▁Anggota	-2539
usak	-2540
▁elek	-2541
▁mengak	-2542
▁03	-2543
▁isu	-2544
▁Penj	-2545
▁Widodo	-2546
▁pelaksanaan	-2547
▁dini	-2548
▁guna	-2549
▁bicara	-2550
ck	-2551
▁kecelakaan	-2552
AL	-2553
anan	-2554
▁Luar	-2555
▁pembunuhan	-2556
ingatan	-2557
▁tuturnya	-2558
ibuan	-2559
▁Kerja	-2560
▁kad	-2561
ust	-2562
▁DPP	-2563
inerja	-2564
▁Rak	-2565
▁med	-2566
ert	-2567
▁api	-2568
▁ruang	-2569
▁pengembangan	-2570
▁Raf	-2571
▁rencana	-2572
▁Sumatera	-2573
SD	-2574
▁luas	-2575
▁Lebih	-2576
▁Pilpres	-2577
lis	-2578
ens	-2579
udik	-2580
▁Karena	-2581
▁Kombes	-2582
▁Malang	-2583
▁Itu	-2584
▁Bidang	-2585
UNG	-2586
operasi	-2587
▁Masyarakat	-2588
▁panjang	-2589
▁putusan	-2590
epas	-2591
tawan	-2592
▁pertumbuhan	-2593
▁dar	-2594
▁ilegal	-2595
▁BAN	-2596
▁Aceh	-2597
▁Humas	-2598
ibur	-2599
isme	-2600
▁emas	-2601
ediakan	-2602
▁ucapnya	-2603
ebar	-2604
▁pesawat	-2605
▁BP	-2606
kl	-2607
▁At	-2608
▁Bah	-2609
ero	-2610
arti	-2611
▁Tel	-2612
egini	-2613
uhnya	-2614
▁melaksanakan	-2615
▁tiba	-2616
▁Jo	-2617
ilip	-2618
▁bernama	-2619
embangkan	-2620
▁Ben	-2621
▁Demokrat	-2622
▁mengumumkan	-2623
osok	-2624
▁BUM	-2625
ustrasi	-2626
entingan	-2627
▁Bawaslu	-2628
oordinasi	-2629
30	-2630
ase	-2631
ila	-2632
isiko	-2633
▁diharapkan	-2634
▁ali	-2635
▁Berd	-2636
▁Rid	-2637
▁produksi	-2638
▁Sl	-2639
AI	-2640
▁Eri	-2641
▁Tangerang	-2642
ess	-2643
▁tanggal	-2644
▁Hasil	-2645
▁kasih	-2646
▁pengaw	-2647
ortasi	-2648
▁alasan	-2649
KBP	-2650
▁apakah	-2651
▁SUR	-2652
▁for	-2653
▁aturan	-2654
▁e	-2655
▁pangan	-2656
▁diperk	-2657
▁situasi	-2658
▁Arab	-2659
▁Tran	-2660
▁titik	-2661
enggarakan	-2662
ward	-2663
ational	-2664
▁melibatkan	-2665
erat	-2666
bar	-2667
▁Gro	-2668
▁penyakit	-2669
ial	-2670
▁Pengadilan	-2671
jau	-2672
▁alat	-2673
▁Islam	-2674
PNN	-2675
abak	-2676
ayu	-2677
▁AKBP	-2678
▁makin	-2679
agus	-2680
▁samb	-2681
▁bangsa	-2682
▁budaya	-2683
▁sering	-2684
yan	-2685
ungai	-2686
▁alias	-2687
▁memimpin	-2688
yu	-2689
▁Min	-2690
ABAYA	-2691
▁SURABAYA	-2692
▁kepolisian	-2693
▁gel	-2694
untut	-2695
adakan	-2696
▁sidang	-2697
▁Pendidikan	-2698
was	-2699
anja	-2700
▁sana	-2701
".	-2702
▁SD	-2703
▁Mem	-2704
▁(18	-2705
erti	-2706
▁Sekretaris	-2707
urat	-2708
▁(23	-2709
encan	-2710
▁tantangan	-2711
ungutan	-2712
▁2,	-2713
▁pengel	-2714
▁survei	-2715
▁(20	-2716
ment	-2717
▁terlihat	-2718
▁Nas	-2719
▁proyek	-2720
▁prof	-2721
▁peluang	-2722
▁ped	-2723
▁Laut	-2724
lasi	-2725
▁Kapolres	-2726
etik	-2727
▁diterima	-2728
▁pengguna	-2729
andar	-2730
▁Meski	-2731
▁pilihan	-2732
▁(22	-2733
caman	-2734
▁tril	-2735
▁lewat	-2736
ail	-2737
arasi	-2738
ayang	-2739
▁personel	-2740
▁ot	-2741
isal	-2742
▁kunjungan	-2743
zi	-2744
▁rut	-2745
▁Pember	-2746
▁kepentingan	-2747
▁dikenal	-2748
▁terbesar	-2749
sist	-2750
anjian	-2751
▁bencana	-2752
eor	-2753
▁Ng	-2754
▁penda	-2755
▁pendukung	-2756
▁bes	-2757
icu	-2758
akwa	-2759
itasi	-2760
▁dimulai	-2761
▁anggaran	-2762
▁melanjutkan	-2763
ton	-2764
▁dibandingkan	-2765
bul	-2766
truktur	-2767
raga	-2768
▁seleksi	-2769
kum	-2770
▁PN	-2771
▁usia	-2772
45	-2773
▁Pat	-2774
▁Kalau	-2775
▁Kasus	-2776
▁akun	-2777
esaikan	-2778
▁transp	-2779
▁aktif	-2780
▁(19	-2781
▁arah	-2782
▁konflik	-2783
▁(21	-2784
utuskan	-2785
▁bola	-2786
emi	-2787
▁Mand	-2788
▁enggak	-2789
▁berkomitmen	-2790
▁berupa	-2791
▁semb	-2792
▁badan	-2793
▁tokoh	-2794
▁berasal	-2795
angkaian	-2796
▁tujuh	-2797
▁Op	-2798
▁Bat	-2799
▁penelit	-2800
▁(24	-2801
abuhan	-2802
▁musik	-2803
▁mengajak	-2804
all	-2805
▁sah	-2806
akuasi	-2807
ujudkan	-2808
qu	-2809
impi	-2810
▁triliun	-2811
▁strategis	-2812
GP	-2813
▁(17	-2814
▁Kas	-2815
▁Sud	-2816
▁investasi	-2817
▁area	-2818
:00	-2819
ancis	-2820
▁berkel	-2821
▁lahan	-2822
▁sehat	-2823
▁pelayanan	-2824
▁Lap	-2825
II	-2826
etn	-2827
▁terbuka	-2828
▁konferensi	-2829
▁AF	-2830
▁(30	-2831
antaran	-2832
anji	-2833
▁Dis	-2834
▁sang	-2835
▁Kalim	-2836
onsumsi	-2837
▁Lampung	-2838
OG	-2839
▁penjara	-2840
▁Sam	-2841
▁art	-2842
egiatan	-2843
▁ed	-2844
▁Dok	-2845
▁efek	-2846
wakilan	-2847
▁Sejumlah	-2848
amanya	-2849
▁Jerman	-2850
▁provinsi	-2851
▁Palembang	-2852
ejahter	-2853
entikan	-2854
ork	-2855
▁DPD	-2856
▁sig	-2857
kamah	-2858
urahan	-2859
atform	-2860
▁Sebagai	-2861
▁Ka	-2862
▁(27	-2863
urangan	-2864
▁tindak	-2865
▁jelasnya	-2866
▁2.	-2867
masi	-2868
▁luka	-2869
anjutnya	-2870
▁BUMN	-2871
▁final	-2872
entuk	-2873
▁optim	-2874
su	-2875
▁dilaksanakan	-2876
▁40	-2877
▁(25	-2878
▁(7	-2879
▁Oleh	-2880
▁(15	-2881
▁formasi	-2882
▁dilaporkan	-2883
▁Dip	-2884
indra	-2885
▁babak	-2886
alahkan	-2887
▁penumpang	-2888
sor	-2889
▁Co	-2890
badi	-2891
▁pop	-2892
anusi	-2893
▁BMKG	-2894
▁teman	-2895
▁pekerjaan	-2896
nif	-2897
elis	-2898
tagram	-2899
gub	-2900
▁Bl	-2901
irasi	-2902
▁Er	-2903
▁Her	-2904
▁Riz	-2905
▁Korupsi	-2906
▁solusi	-2907
▁Metro	-2908
▁Bekasi	-2909
▁gratis	-2910
angkapan	-2911
▁berusaha	-2912
▁Nusantara	-2913
▁Hak	-2914
onald	-2915
faatkan	-2916
agam	-2917
▁penggunaan	-2918
rah	-2919
▁mata	-2920
▁latihan	-2921
▁pentingnya	-2922
▁Sing	-2923
antung	-2924
▁dianggap	-2925
▁aktivitas	-2926
kab	-2927
erai	-2928
uasa	-2929
▁tua	-2930
olaan	-2931
emui	-2932
asanya	-2933
indungi	-2934
▁Mahkamah	-2935
▁kinerja	-2936
▁Bi	-2937
▁Dig	-2938
▁hukuman	-2939
▁menurun	-2940
aca	-2941
▁(29	-2942
▁JPNN	-2943
▁sini	-2944
▁(10	-2945
yanto	-2946
▁bus	-2947
▁Prancis	-2948
antik	-2949
olid	-2950
urus	-2951
▁generasi	-2952
▁(11	-2953
▁sup	-2954
▁sampah	-2955
PK	-2956
isah	-2957
ategi	-2958
▁ternyata	-2959
uma	-2960
▁(8	-2961
▁Rek	-2962
▁BAND	-2963
asaran	-2964
▁terdiri	-2965
▁tampak	-2966
▁Pur	-2967
epatan	-2968
▁2023.	-2969
▁Ibu	-2970
ftaran	-2971
▁berupaya	-2972
▁pendaftaran	-2973
▁Net	-2974
▁menolak	-2975
▁peristiwa	-2976
tinggi	-2977
▁perdana	-2978
ampingi	-2979
th	-2980
onton	-2981
▁Filip	-2982
ewaskan	-2983
▁mengungkap	-2984
▁Ex	-2985
aysia	-2986
ekonom	-2987
▁biaya	-2988
▁Sumber	-2989
ekonomian	-2990
▁inf	-2991
▁Tekn	-2992
onf	-2993
▁sulit	-2994
▁tampil	-2995
yarat	-2996
▁semangat	-2997
▁Af	-2998
siden	-2999
▁Pram	-3000
▁Gerindra	-3001
▁aplikasi	-3002
▁bertujuan	-3003
▁demokrasi	-3004
ty	-3005
anon	-3006
▁Filipina	-3007
▁belakang	-3008
▁menangkap	-3009
▁Kalimantan	-3010
▁jaringan	-3011
sen	-3012
▁Maj	-3013
▁Str	-3014
▁ialah	-3015
▁wartawan	-3016
lo	-3017
▁pesan	-3018
▁penyelidikan	-3019
iaga	-3020
▁(28	-3021
▁anti	-3022
anggar	-3023
▁kontr	-3024
▁siswa	-3025
▁ditetapkan	-3026
inj	-3027
▁MK	-3028
ajemen	-3029
▁Instagram	-3030
ayak	-3031
▁oper	-3032
▁India	-3033
▁hakim	-3034
awarkan	-3035
▁kematian	-3036
▁lantaran	-3037
▁ib	-3038
▁Tri	-3039
uad	-3040
abes	-3041
ampuan	-3042
▁kesel	-3043
uth	-3044
ilah	-3045
awatan	-3046
▁(9	-3047
iket	-3048
▁leg	-3049
▁pimpinan	-3050
andatangan	-3051
▁ulang	-3052
wil	-3053
amen	-3054
oran	-3055
▁asp	-3056
roduk	-3057
▁paslon	-3058
itur	-3059
▁Kamp	-3060
▁pertahanan	-3061
▁(26	-3062
▁petani	-3063
▁perg	-3064
fras	-3065
▁(13	-3066
▁PKB	-3067
nifikan	-3068
▁pelatih	-3069
▁Ramadan	-3070
▁Sebanyak	-3071
▁Ali	-3072
▁ringan	-3073
▁ancaman	-3074
▁kelas	-3075
▁Lebanon	-3076
▁Ilustrasi	-3077
▁memenangkan	-3078
▁ANT	-3079
▁HAM	-3080
▁siapa	-3081
▁mengetahui	-3082
OR	-3083
ast	-3084
andi	-3085
▁Sri	-3086
ebasan	-3087
mat	-3088
alisi	-3089
▁kepem	-3090
▁komunitas	-3091
PBD	-3092
iwa	-3093
▁ah	-3094
onis	-3095
▁selatan	-3096
▁meskipun	-3097
ejahteraan	-3098
▁Az	-3099
▁lagu	-3100
ender	-3101
▁Undang	-3102
▁ratusan	-3103
PNS	-3104
wedan	-3105
▁skor	-3106
irmasi	-3107
▁Malaysia	-3108
▁Sus	-3109
▁signifikan	-3110
▁menyediakan	-3111
arif	-3112
▁(16	-3113
▁Putih	-3114
▁keper	-3115
▁La	-3116
▁judi	-3117
jualan	-3118
baik	-3119
▁non	-3120
▁sik	-3121
▁dasar	-3122
▁tentu	-3123
▁Car	-3124
▁jateng	-3125
▁Baswedan	-3126
▁perhatian	-3127
▁kolaborasi	-3128
dy	-3129
▁Kl	-3130
▁sa	-3131
ategori	-3132
oordinator	-3133
juk	-3134
▁to	-3135
▁sin	-3136
anusiaan	-3137
▁mencegah	-3138
▁menghadiri	-3139
▁Pasar	-3140
▁kenaikan	-3141
ogja	-3142
ulus	-3143
▁Moto	-3144
▁disi	-3145
▁jajaran	-3146
▁menjabat	-3147
▁peringatan	-3148
▁Tai	-3149
▁Tur	-3150
antasan	-3151
frastruktur	-3152
uler	-3153
estiv	-3154
▁angk	-3155
▁menjalankan	-3156
▁olah	-3157
▁pasti	-3158
▁ANTARA	-3159
▁Dik	-3160
▁Angk	-3161
▁gagal	-3162
▁kesep	-3163
▁Korban	-3164
▁pegawai	-3165
▁TPS	-3166
▁sil	-3167
▁gug	-3168
▁dikutip	-3169
▁kekuatan	-3170
▁Tenggara	-3171
unikasi	-3172
tifikasi	-3173
▁BANDUNG	-3174
aha	-3175
ampilan	-3176
▁Gunung	-3177
▁mengirim	-3178
stem	-3179
inaan	-3180
endara	-3181
estival	-3182
▁Mantan	-3183
kap	-3184
▁juara	-3185
▁mengurangi	-3186
▁On	-3187
▁pos	-3188
▁terh	-3189
▁Serang	-3190
▁dokter	-3191
▁Perdana	-3192
▁inovasi	-3193
▁(14	-3194
entar	-3195
▁Kad	-3196
anksi	-3197
apatan	-3198
enarnya	-3199
erit	-3200
▁Sed	-3201
ustru	-3202
▁rapat	-3203
▁platform	-3204
▁Keuangan	-3205
▁Suriah	-3206
▁terima	-3207
▁kemampuan	-3208
▁membutuhkan	-3209
erg	-3210
▁Dar	-3211
▁rem	-3212
▁hati	-3213
▁perbatasan	-3214
intang	-3215
▁Pilgub	-3216
DP	-3217
▁izin	-3218
▁Paris	-3219
adisi	-3220
ukaan	-3221
▁Fran	-3222
idupan	-3223
▁Kegiatan	-3224
▁der	-3225
▁Pj	-3226
ora	-3227
tup	-3228
▁BBC	-3229
▁memutuskan	-3230
▁meluncurkan	-3231
▁KO	-3232
unda	-3233
dangan	-3234
▁MotoGP	-3235
▁Wah	-3236
anita	-3237
▁disk	-3238
▁spesi	-3239
▁Berikut	-3240
udal	-3241
▁Bad	-3242
intaan	-3243
wisata	-3244
▁berkelanjutan	-3245
fa	-3246
▁vs	-3247
empa	-3248
iayaan	-3249
▁Orang	-3250
▁jadwal	-3251
po	-3252
▁(12	-3253
▁buah	-3254
▁Beberapa	-3255
▁menunggu	-3256
▁menewaskan	-3257
▁Pos	-3258
▁gab	-3259
uy	-3260
har	-3261
▁Me	-3262
uhkan	-3263
anganan	-3264
▁delapan	-3265
▁Dew	-3266
▁Ta	-3267
evel	-3268
isan	-3269
▁Mart	-3270
▁Sebab	-3271
adai	-3272
▁Gel	-3273
▁Gen	-3274
▁boleh	-3275
▁aparat	-3276
▁Internasional	-3277
tib	-3278
atas	-3279
▁bebas	-3280
arusnya	-3281
uruan	-3282
▁pat	-3283
iring	-3284
▁membahas	-3285
-202	-3286
IN	-3287
▁momen	-3288
▁penyidik	-3289
▁Pet	-3290
▁reg	-3291
▁sub	-3292
▁alam	-3293
kumham	-3294
▁Hasto	-3295
impiade	-3296
▁minggu	-3297
▁;	-3298
▁konsumen	-3299
▁ok	-3300
▁menekankan	-3301
▁Ris	-3302
▁meres	-3303
▁Vi	-3304
kand	-3305
▁2021	-3306
▁meman	-3307
▁Tol	-3308
awesi	-3309
▁Jika	-3310
▁siang	-3311
▁Ridwan	-3312
▁mencoba	-3313
▁Sulawesi	-3314
▁mengajukan	-3315
▁Pembangunan	-3316
TB	-3317
ahatan	-3318
▁Wilayah	-3319
▁mes	-3320
▁puluhan	-3321
▁tahap	-3322
ekl	-3323
ukur	-3324
usif	-3325
▁Fak	-3326
▁Pihak	-3327
▁Bandara	-3328
red	-3329
tudi	-3330
▁Moh	-3331
▁Grup	-3332
PAS	-3333
asakan	-3334
▁menetapkan	-3335
▁III	-3336
▁ketua	-3337
▁Tet	-3338
▁Perk	-3339
▁menyi	-3340
▁Yang	-3341
▁kader	-3342
abum	-3343
engkap	-3344
▁Kedua	-3345
olaborasi	-3346
,5	-3347
▁penerb	-3348
▁maksi	-3349
▁menyer	-3350
▁hit	-3351
antau	-3352
▁istri	-3353
▁mengatasi	-3354
cak	-3355
▁Bul	-3356
▁menik	-3357
▁sejarah	-3358
los	-3359
▁Kong	-3360
angani	-3361
▁debat	-3362
▁harapan	-3363
▁kemanusiaan	-3364
▁kew	-3365
▁Selama	-3366
NA	-3367
TT	-3368
▁DEN	-3369
▁Pang	-3370
▁menawarkan	-3371
esai	-3372
hati	-3373
▁bersih	-3374
▁us	-3375
anggapi	-3376
zah	-3377
arto	-3378
▁meter	-3379
▁risiko	-3380
▁IKN	-3381
▁agama	-3382
▁Rakyat	-3383
▁percaya	-3384
ihan	-3385
▁Saudi	-3386
▁pribadi	-3387
taf	-3388
esak	-3389
utri	-3390
▁neg	-3391
hawat	-3392
▁sukses	-3393
▁mengakui	-3394
▁bay	-3395
▁sal	-3396
PASAR	-3397
agang	-3398
aksaan	-3399
▁Center	-3400
▁DENPASAR	-3401
▁SI	-3402
ungkan	-3403
oalisi	-3404
▁mengeluarkan	-3405
▁Ric	-3406
abuming	-3407
▁justru	-3408
▁Perempuan	-3409
▁Sim	-3410
▁log	-3411
▁kabupaten	-3412
▁Rakabuming	-3413
ite	-3414
num	-3415
▁kebakaran	-3416
▁Berdasarkan	-3417
uturkan	-3418
▁menuturkan	-3419
arikan	-3420
▁status	-3421
▁bangunan	-3422
ji	-3423
egr	-3424
adem	-3425
▁Ken	-3426
angin	-3427
▁terg	-3428
▁Keh	-3429
▁sore	-3430
ailand	-3431
ajukan	-3432
▁Group	-3433
▁bagus	-3434
▁tertinggi	-3435
▁International	-3436
▁Thailand	-3437
ord	-3438
▁gabungan	-3439
▁kandidat	-3440
▁menyambut	-3441
ekat	-3442
jauh	-3443
▁Uni	-3444
▁Bagi	-3445
▁Berk	-3446
migrasi	-3447
ariwisata	-3448
ell	-3449
▁Kur	-3450
▁vir	-3451
alagi	-3452
▁kehidupan	-3453
▁mengamankan	-3454
▁Kita	-3455
▁Raka	-3456
▁Seti	-3457
ee	-3458
uw	-3459
▁ur	-3460
▁tud	-3461
▁Koordinator	-3462
itkan	-3463
▁meski	-3464
▁kategori	-3465
▁berkembang	-3466
▁mengembangkan	-3467
ancam	-3468
▁dinilai	-3469
anggil	-3470
0.	-3471
▁Pan	-3472
iksa	-3473
▁kalah	-3474
▁sosok	-3475
▁lakukan	-3476
esu	-3477
abumi	-3478
▁CPNS	-3479
▁foto	-3480
imbulkan	-3481
▁ab	-3482
▁sy	-3483
▁199	-3484
abila	-3485
langga	-3486
▁berlaku	-3487
▁Idul	-3488
▁Mend	-3489
▁balik	-3490
▁kesejahteraan	-3491
iksi	-3492
uddin	-3493
▁bergabung	-3494
ikir	-3495
osisi	-3496
▁Pekan	-3497
▁mencatat	-3498
▁Sosial	-3499
go	-3500
ito	-3501
ongk	-3502
▁Politik	-3503
▁perkembangan	-3504
ajah	-3505
▁berbicara	-3506
apaian	-3507
▁Begini	-3508
ack	-3509
edar	-3510
antinya	-3511
ministr	-3512
kes	-3513
▁ul	-3514
▁Sukabumi	-3515
▁Airlangga	-3516
ood	-3517
▁Id	-3518
ampi	-3519
▁bek	-3520
entak	-3521
iraan	-3522
▁jiwa	-3523
▁pemungutan	-3524
akup	-3525
▁pand	-3526
▁putra	-3527
▁bergerak	-3528
udin	-3529
omend	-3530
▁Forum	-3531
anyakan	-3532
isalnya	-3533
omendasi	-3534
▁mengingatkan	-3535
oa	-3536
/3)	-3537
lor	-3538
▁rel	-3539
▁Trans	-3540
▁mengaw	-3541
▁menyerang	-3542
▁merah	-3543
asilkan	-3544
▁berper	-3545
▁sepeda	-3546
▁perlindungan	-3547
/5)	-3548
upuk	-3549
▁2019	-3550
▁Penc	-3551
▁dibawa	-3552
▁rendah	-3553
▁ribuan	-3554
▁selesai	-3555
▁merek	-3556
▁minim	-3557
▁rangka	-3558
▁Taiwan	-3559
▁mewujudkan	-3560
▁pengelolaan	-3561
aid	-3562
ekar	-3563
▁sus	-3564
▁Kend	-3565
▁dikel	-3566
▁kabar	-3567
▁teror	-3568
▁profesi	-3569
raf	-3570
aker	-3571
▁Afr	-3572
▁Sah	-3573
▁tumb	-3574
unjungi	-3575
▁terdampak	-3576
▁Shin	-3577
▁arus	-3578
▁ng	-3579
▁Khusus	-3580
osk	-3581
▁nyata	-3582
▁diperkirakan	-3583
cr	-3584
omat	-3585
syah	-3586
apresiasi	-3587
adar	-3588
▁terdakwa	-3589
▁Pertahanan	-3590
hip	-3591
▁Hend	-3592
artemen	-3593
▁infrastruktur	-3594
ten	-3595
▁truk	-3596
apak	-3597
▁pengawasan	-3598
bullah	-3599
▁rudal	-3600
▁hilang	-3601
▁pelatihan	-3602
▁kre	-3603
igran	-3604
urunan	-3605
▁re	-3606
unci	-3607
▁Bir	-3608
torat	-3609
▁Sumsel	-3610
aluasi	-3611
▁insiden	-3612
▁Olimpiade	-3613
▁sebenarnya	-3614
/4)	-3615
ren	-3616
▁AI	-3617
ance	-3618
▁tambahan	-3619
PU	-3620
ano	-3621
▁Seh	-3622
▁meninggalkan	-3623
son	-3624
airan	-3625
▁klub	-3626
ometer	-3627
▁Hotel	-3628
▁Informasi	-3629
EO	-3630
eja	-3631
▁Kons	-3632
▁Acara	-3633
▁Tanah	-3634
▁pajak	-3635
ilangan	-3636
▁seharusnya	-3637
▁Berb	-3638
etan	-3639
mati	-3640
▁pasi	-3641
asitas	-3642
▁Medan	-3643
▁daftar	-3644
▁puncak	-3645
▁berbasis	-3646
▁Kelurahan	-3647
▁sedangkan	-3648
ner	-3649
indo	-3650
▁Pemain	-3651
▁pemilik	-3652
▁strategi	-3653
etul	-3654
▁seks	-3655
izbullah	-3656
▁perdagangan	-3657
▁gelar	-3658
▁ton	-3659
▁Muda	-3660
▁ayah	-3661
▁Lebaran	-3662
▁Pasangan	-3663
abah	-3664
emprov	-3665
ida	-3666
ifah	-3667
yadi	-3668
unggal	-3669
▁kesepakatan	-3670
adu	-3671
embakan	-3672
▁minyak	-3673
▁tradisi	-3674
bud	-3675
mcr	-3676
ugi	-3677
itri	-3678
▁Mat	-3679
alifikasi	-3680
▁melanggar	-3681
▁pengungsi	-3682
▁berpotensi	-3683
▁im	-3684
▁darah	-3685
▁jangan	-3686
▁terlalu	-3687
▁mitra	-3688
▁pilkada	-3689
▁menyiapkan	-3690
isik	-3691
▁Megaw	-3692
▁tiket	-3693
OA	-3694
▁ahli	-3695
iriman	-3696
▁tulis	-3697
▁kalangan	-3698
▁Kek	-3699
usakan	-3700
▁buruk	-3701
▁perawatan	-3702
▁net	-3703
▁berakhir	-3704
wang	-3705
▁PKS	-3706
ahulu	-3707
▁genc	-3708
▁Award	-3709
awapres	-3710
▁didukung	-3711
▁Hizbullah	-3712
▁pelanggan	-3713
▁Ul	-3714
▁ka	-3715
▁Pri	-3716
▁Satu	-3717
▁tertulis	-3718
▁tema	-3719
ainkan	-3720
▁kulit	-3721
▁Megawati	-3722
▁Kemenkumham	-3723
bon	-3724
▁60	-3725
umur	-3726
atuan	-3727
▁utara	-3728
▁penduduk	-3729
▁35	-3730
▁kri	-3731
▁Dewi	-3732
tes	-3733
▁Sil	-3734
esang	-3735
▁Kara	-3736
▁Pelaku	-3737
▁selaku	-3738
▁berdampak	-3739
UT	-3740
▁Bh	-3741
▁mempering	-3742
▁menyelesaikan	-3743
tain	-3744
▁Int	-3745
lem	-3746
▁Ti	-3747
▁memicu	-3748
▁senior	-3749
laki	-3750
evisi	-3751
IP	-3752
▁ro	-3753
▁KOTA	-3754
▁Lalu	-3755
▁Kaesang	-3756
ataan	-3757
etnam	-3758
asilan	-3759
▁paket	-3760
▁berikut	-3761
▁mendesak	-3762
▁Ev	-3763
▁visi	-3764
etapan	-3765
▁melindungi	-3766
uel	-3767
alin	-3768
anggu	-3769
▁Kali	-3770
amaian	-3771
anyaan	-3772
▁Garuda	-3773
▁sanksi	-3774
▁Keamanan	-3775
:30	-3776
▁gram	-3777
▁serius	-3778
ice	-3779
ongsor	-3780
▁syarat	-3781
▁Vietnam	-3782
▁maksimal	-3783
▁penanganan	-3784
▁permintaan	-3785
▁mus	-3786
▁awak	-3787
▁pres	-3788
▁2023,	-3789
▁Banyak	-3790
▁menyerahkan	-3791
▁Fr	-3792
▁Ro	-3793
▁sikap	-3794
▁kompetisi	-3795
old	-3796
awal	-3797
illah	-3798
ahankan	-3799
▁saling	-3800
▁ungkapnya	-3801
Ini	-3802
▁bank	-3803
▁Ung	-3804
atatan	-3805
▁menyus	-3806
▁pembel	-3807
▁Operasi	-3808
▁diselenggarakan	-3809
▁Ik	-3810
/2).	-3811
arjo	-3812
▁Bany	-3813
▁Pemkot	-3814
onfirmasi	-3815
ear	-3816
▁up	-3817
akti	-3818
assar	-3819
▁Khof	-3820
iburan	-3821
ulauan	-3822
wenang	-3823
▁Kamil	-3824
▁rutin	-3825
▁hi	-3826
enag	-3827
empur	-3828
▁iklim	-3829
▁kursi	-3830
idaknya	-3831
▁Khofifah	-3832
▁penerbangan	-3833
arelawan	-3834
insip	-3835
▁Samp	-3836
ayaran	-3837
▁Penjabat	-3838
▁kejahatan	-3839
anyi	-3840
ikin	-3841
ombang	-3842
▁diikuti	-3843
▁tertentu	-3844
▁pengadilan	-3845
▁Seri	-3846
cayaan	-3847
ington	-3848
▁mencetak	-3849
▁MPR	-3850
▁Film	-3851
▁Pulau	-3852
enggaraan	-3853
uny	-3854
undur	-3855
▁Ekonomi	-3856
/11)	-3857
abrik	-3858
▁panas	-3859
entitas	-3860
▁Padang	-3861
▁Lembaga	-3862
/7)	-3863
opi	-3864
▁AKP	-3865
▁tol	-3866
asiun	-3867
▁laki	-3868
ekanan	-3869
▁Harris	-3870
asp	-3871
▁Suh	-3872
adinya	-3873
ker	-3874
ainan	-3875
io	-3876
▁ins	-3877
▁Bantu	-3878
▁Manag	-3879
enalkan	-3880
▁Champi	-3881
▁Tinggi	-3882
▁menimbulkan	-3883
acam	-3884
edakan	-3885
ace	-3886
/12)	-3887
▁City	-3888
▁Menj	-3889
rig	-3890
sekut	-3891
▁Ketika	-3892
▁mengapresiasi	-3893
omm	-3894
rut	-3895
agub	-3896
▁Wil	-3897
▁mencakup	-3898
ence	-3899
oalan	-3900
▁Irjen	-3901
argetkan	-3902
▁Makassar	-3903
▁perjanjian	-3904
▁Ho	-3905
▁Sid	-3906
aksana	-3907
anjung	-3908
▁Senayan	-3909
ket	-3910
ambat	-3911
▁sabu	-3912
uasaan	-3913
▁Sleman	-3914
▁pertanian	-3915
▁unggul	-3916
▁Pertama	-3917
▁tentara	-3918
▁Serangan	-3919
ER	-3920
▁Mod	-3921
ahami	-3922
▁Putra	-3923
ue	-3924
egang	-3925
tabes	-3926
▁terang	-3927
▁penjualan	-3928
▁Roh	-3929
▁Polresta	-3930
▁operasional	-3931
▁bl	-3932
▁putih	-3933
▁berawan	-3934
inet	-3935
▁ekspor	-3936
jual	-3937
▁Pran	-3938
▁Purw	-3939
▁mati	-3940
▁impor	-3941
▁memanfaatkan	-3942
-19	-3943
oroti	-3944
▁antar	-3945
▁Meskipun	-3946
▁komunikasi	-3947
▁kepemimpinan	-3948
▁misi	-3949
▁wali	-3950
▁Penyel	-3951
▁Kampung	-3952
▁gugatan	-3953
▁dipimpin	-3954
▁Merah	-3955
▁tuduhan	-3956
▁dihadiri	-3957
▁olahraga	-3958
▁penyebab	-3959
▁kilometer	-3960
..	-3961
ASN	-3962
oko	-3963
osiasi	-3964
▁tambahnya	-3965
oman	-3966
▁medis	-3967
▁Kemend	-3968
▁diambil	-3969
-7	-3970
yono	-3971
▁berf	-3972
▁peneg	-3973
/9)	-3974
ino	-3975
▁Jam	-3976
▁Marc	-3977
▁yakin	-3978
/8)	-3979
benar	-3980
ontoh	-3981
▁inst	-3982
ubungi	-3983
▁rokok	-3984
sidi	-3985
▁parlemen	-3986
▁mengingat	-3987
▁(31	-3988
▁uji	-3989
ugian	-3990
▁Harga	-3991
angkalan	-3992
ajuan	-3993
▁klas	-3994
▁dokumen	-3995
▁Industri	-3996
▁transaksi	-3997
AP	-3998
oga	-3999
tivis	-4000
▁peringkat	-4001
/6)	-4002
▁Juru	-4003
▁konser	-4004
▁ditahan	-4005
ili	-4006
pon	-4007
▁gaj	-4008
▁nas	-4009
▁ekstr	-4010
dus	-4011
▁mo	-4012
▁Cor	-4013
▁Wash	-4014
▁diperl	-4015
▁Perusahaan	-4016
ick	-4017
tron	-4018
▁aku	-4019
▁Bang	-4020
▁Musi	-4021
▁angin	-4022
▁pencarian	-4023
▁kehilangan	-4024
ontribusi	-4025
ministrasi	-4026
fik	-4027
▁VOA	-4028
entuan	-4029
▁Motor	-4030
▁Pengh	-4031
▁Sejak	-4032
▁laman	-4033
▁mesin	-4034
▁Mandiri	-4035
▁diskusi	-4036
▁memasuki	-4037
so	-4038
ish	-4039
▁Nik	-4040
enagak	-4041
kandar	-4042
▁barat	-4043
indakan	-4044
sh	-4045
▁ing	-4046
▁mey	-4047
andera	-4048
▁materi	-4049
▁merilis	-4050
▁penelitian	-4051
enagakerjaan	-4052
Mah	-4053
esan	-4054
▁Sin	-4055
▁Donald	-4056
UP	-4057
▁PL	-4058
▁bupati	-4059
ungkinkan	-4060
agn	-4061
andra	-4062
▁haji	-4063
▁swas	-4064
ameran	-4065
sisten	-4066
ns	-4067
ancar	-4068
Mahfud	-4069
ekatan	-4070
hadiran	-4071
▁pengan	-4072
▁persiapan	-4073
▁Washington	-4074
abang	-4075
antah	-4076
▁tuan	-4077
▁inisi	-4078
tabilitas	-4079
▁mengalahkan	-4080
HK	-4081
akuan	-4082
▁Perm	-4083
▁berisi	-4084
▁putaran	-4085
▁sembilan	-4086
ht	-4087
▁Iskandar	-4088
▁mengubah	-4089
▁menjawab	-4090
▁gempa	-4091
▁suami	-4092
▁Melalui	-4093
UU	-4094
▁da	-4095
▁atlet	-4096
▁Pantai	-4097
▁Pemkab	-4098
▁tercatat	-4099
▁Dav	-4100
▁juru	-4101
▁perp	-4102
▁libur	-4103
▁selain	-4104
▁menjadikan	-4105
.30	-4106
imbau	-4107
▁Hujan	-4108
▁gedung	-4109
▁minuman	-4110
▁Sw	-4111
▁biasanya	-4112
▁Champions	-4113
▁jatuh	-4114
▁berkontribusi	-4115
alih	-4116
alik	-4117
▁Tae	-4118
ARANG	-4119
▁sehari	-4120
▁Pemprov	-4121
▁Lingkungan	-4122
▁Art	-4123
reskrim	-4124
ive	-4125
sir	-4126
ukl	-4127
▁Go	-4128
▁Persis	-4129
▁pulang	-4130
▁Digital	-4131
▁anaknya	-4132
ci	-4133
ony	-4134
hiri	-4135
jang	-4136
umpul	-4137
▁obat	-4138
▁Up	-4139
▁mul	-4140
awatir	-4141
▁undang	-4142
ON	-4143
jing	-4144
▁Perh	-4145
indari	-4146
▁Hakim	-4147
▁mudik	-4148
▁apresiasi	-4149
▁menurunkan	-4150
▁pertanyaan	-4151
▁penangkapan	-4152
ajam	-4153
▁Cir	-4154
▁Joh	-4155
kom	-4156
hari	-4157
▁memulai	-4158
▁mengusung	-4159
ill	-4160
▁Boj	-4161
▁Putri	-4162
▁ketat	-4163
▁Petugas	-4164
▁Karawang	-4165
intu	-4166
▁Pria	-4167
Undang	-4168
▁Kejaksaan	-4169
▁kehadiran	-4170
▁memungkinkan	-4171
▁Div	-4172
▁Arif	-4173
▁ikan	-4174
iminal	-4175
▁Pengaw	-4176
▁segala	-4177
▁Festival	-4178
▁keduanya	-4179
▁era	-4180
vensi	-4181
▁fisik	-4182
▁oknum	-4183
▁selamat	-4184
▁gencatan	-4185
rom	-4186
urian	-4187
▁Nusa	-4188
ohonan	-4189
ampilkan	-4190
▁Pemberantasan	-4191
▁Sk	-4192
ater	-4193
uluh	-4194
▁Joe	-4195
ebaya	-4196
▁dibuka	-4197
▁Kepulauan	-4198
KA	-4199
hat	-4200
sat	-4201
▁No	-4202
/10)	-4203
tian	-4204
▁Cip	-4205
▁dipas	-4206
▁jangka	-4207
▁berarti	-4208
▁kepercayaan	-4209
egional	-4210
▁Bambang	-4211
▁praktik	-4212
MB	-4213
▁Madura	-4214
▁pantai	-4215
▁perwakilan	-4216
HO	-4217
▁Surat	-4218
▁rusak	-4219
▁Soekar	-4220
eorologi	-4221
▁kapasitas	-4222
▁Mir	-4223
istis	-4224
▁Afrika	-4225
▁Mahfud	-4226
▁menutup	-4227
▁menghentikan	-4228
ron	-4229
▁Ju	-4230
apol	-4231
▁Kos	-4232
▁Ros	-4233
aimin	-4234
alang	-4235
KPU	-4236
▁Ip	-4237
ujuk	-4238
▁Apa	-4239
▁SEM	-4240
alian	-4241
▁Mobil	-4242
▁putri	-4243
▁ga	-4244
▁CEO	-4245
▁coba	-4246
enazah	-4247
▁Pranowo	-4248
▁longsor	-4249
▁terbukti	-4250
▁persoalan	-4251
rab	-4252
leks	-4253
arangan	-4254
itungan	-4255
▁Polsek	-4256
orl	-4257
ahuan	-4258
yatakan	-4259
▁Imigrasi	-4260
▁perekonomian	-4261
▁$	-4262
esti	-4263
▁Yus	-4264
adahal	-4265
▁kementerian	-4266
▁gas	-4267
▁band	-4268
BS	-4269
-23	-4270
▁met	-4271
otika	-4272
▁damai	-4273
osistem	-4274
▁Hingga	-4275
▁mengand	-4276
▁er	-4277
abis	-4278
▁Bei	-4279
▁hutan	-4280
▁ditemui	-4281
▁Persebaya	-4282
▁diamankan	-4283
land	-4284
sabu	-4285
▁War	-4286
truksi	-4287
sekutif	-4288
▁faktor	-4289
/1)	-4290
▁Bus	-4291
anggilan	-4292
▁SEMARANG	-4293
▁profesional	-4294
awi	-4295
ayani	-4296
▁kampus	-4297
▁belajar	-4298
▁menentukan	-4299
IS	-4300
rid	-4301
elasan	-4302
igrasi	-4303
▁fitur	-4304
▁sepak	-4305
▁dibuat	-4306
▁memperoleh	-4307
UD	-4308
isl	-4309
iling	-4310
orter	-4311
▁suatu	-4312
▁mengunjungi	-4313
akai	-4314
vasi	-4315
ensif	-4316
▁Akan	-4317
agikan	-4318
▁Sar	-4319
▁mak	-4320
▁aset	-4321
▁pengamanan	-4322
by	-4323
evakuasi	-4324
▁standar	-4325
RT	-4326
ahl	-4327
itr	-4328
tajuk	-4329
▁Hart	-4330
▁Tapi	-4331
▁lawan	-4332
roduksi	-4333
▁mengec	-4334
ech	-4335
▁3,	-4336
▁bayi	-4337
▁kanan	-4338
arkotika	-4339
▁Cil	-4340
aksud	-4341
uransi	-4342
▁mengadakan	-4343
▁Rai	-4344
▁kerap	-4345
spirasi	-4346
▁dahulu	-4347
▁Beijing	-4348
▁membeli	-4349
▁Surakarta	-4350
▁Tik	-4351
apura	-4352
▁Ters	-4353
▁Institu	-4354
▁bertajuk	-4355
▁Pelabuhan	-4356
ando	-4357
udul	-4358
▁the	-4359
▁Guru	-4360
▁konten	-4361
awancara	-4362
▁Tanjung	-4363
▁Angkatan	-4364
ff	-4365
▁Terl	-4366
▁berwenang	-4367
oso	-4368
sus	-4369
▁Fat	-4370
ukasi	-4371
▁Sant	-4372
▁capres	-4373
▁Peraturan	-4374
▁prioritas	-4375
▁menghasilkan	-4376
-3	-4377
▁...	-4378
▁Siap	-4379
▁tata	-4380
▁hewan	-4381
▁timur	-4382
▁efektif	-4383
▁Kepolisian	-4384
san	-4385
▁DI	-4386
▁News	-4387
estasi	-4388
embatan	-4389
▁kereta	-4390
andatangani	-4391
50	-4392
▁Cl	-4393
▁berperan	-4394
▁bertanggung	-4395
nik	-4396
▁Produk	-4397
▁Did	-4398
ahaya	-4399
intar	-4400
▁darurat	-4401
▁kemajuan	-4402
▁penurunan	-4403
amm	-4404
▁Karya	-4405
▁pasien	-4406
BK	-4407
uklir	-4408
▁pula	-4409
▁Turki	-4410
▁hitam	-4411
▁senang	-4412
▁khawatir	-4413
otan	-4414
ester	-4415
▁Daya	-4416
▁Muslim	-4417
▁kerugian	-4418
▁Konstitusi	-4419
▁!	-4420
▁jasa	-4421
ebaran	-4422
▁Kelompok	-4423
▁Ib	-4424
▁MA	-4425
Jadi	-4426
aruh	-4427
▁dom	-4428
▁Andi	-4429
anyahu	-4430
▁bahasa	-4431
▁Teknologi	-4432
▁beroperasi	-4433
PT	-4434
ahmi	-4435
▁kaki	-4436
▁teknis	-4437
▁Sekolah	-4438
▁Netanyahu	-4439
▁menanggapi	-4440
▁bar	-4441
elayan	-4442
▁klaim	-4443
▁kerusakan	-4444
▁mempertahankan	-4445
▁Hid	-4446
gunaan	-4447
▁seksual	-4448
rist	-4449
▁grup	-4450
siapkan	-4451
▁Bersama	-4452
▁mengonsumsi	-4453
bk	-4454
luas	-4455
pora	-4456
utaan	-4457
eriksa	-4458
▁inter	-4459
▁Masjid	-4460
umpulkan	-4461
▁senilai	-4462
RB	-4463
▁kesi	-4464
▁Putin	-4465
▁batas	-4466
▁memahami	-4467
▁menengah	-4468
▁Pekanbaru	-4469
▁diperlukan	-4470
fat	-4471
agama	-4472
▁Jasa	-4473
▁sant	-4474
▁layak	-4475
▁menud	-4476
▁Kompol	-4477
▁kecamatan	-4478
▁pengusaha	-4479
▁menya	-4480
▁Layanan	-4481
▁beragam	-4482
▁keadaan	-4483
▁Be	-4484
astik	-4485
▁Qatar	-4486
▁kunci	-4487
▁serupa	-4488
▁2024-202	-4489
▁menyoroti	-4490
▁Da	-4491
anyol	-4492
hamdul	-4493
orld	-4494
▁Gian	-4495
▁buku	-4496
▁Sungai	-4497
▁lanjutnya	-4498
▁pendapatan	-4499
kus	-4500
our	-4501
▁Tiga	-4502
▁zona	-4503
▁rangkaian	-4504
ie	-4505
▁32	-4506
▁SAR	-4507
masalahan	-4508
▁Pertanian	-4509
uz	-4510
▁buat	-4511
▁Bakal	-4512
▁pohon	-4513
▁rekan	-4514
intah	-4515
egahan	-4516
▁fungsi	-4517
▁mundur	-4518
▁wanita	-4519
iang	-4520
▁Kasat	-4521
▁tanggung	-4522
▁membentuk	-4523
▁Direktorat	-4524
pro	-4525
▁Dj	-4526
ania	-4527
▁Wak	-4528
udahan	-4529
▁tekanan	-4530
▁menerapkan	-4531
▁penyelenggaraan	-4532
ge	-4533
▁]	-4534
▁Con	-4535
engaruhi	-4536
▁bertahan	-4537
▁selanjutnya	-4538
▁es	-4539
▁dulu	-4540
▁Hasan	-4541
▁Kelas	-4542
uncuran	-4543
▁Spanyol	-4544
▁Pimpinan	-4545
▁Ny	-4546
ediaan	-4547
▁Erick	-4548
▁tangga	-4549
▁tahanan	-4550
ingkatkan	-4551
▁didampingi	-4552
▁pengunjung	-4553
ve	-4554
▁kos	-4555
▁2026	-4556
▁Makan	-4557
▁nyaman	-4558
▁nantinya	-4559
▁setidaknya	-4560
▁36	-4561
udayaan	-4562
▁dinyatakan	-4563
entan	-4564
entunya	-4565
ifinal	-4566
▁Anwar	-4567
engkapi	-4568
▁berubah	-4569
▁lengkap	-4570
▁semuanya	-4571
iat	-4572
▁akrab	-4573
urnamen	-4574
▁kalinya	-4575
▁Ha	-4576
emaah	-4577
▁2020	-4578
▁karyawan	-4579
▁Bengk	-4580
rediksi	-4581
▁kontrak	-4582
▁peraturan	-4583
agri	-4584
ertai	-4585
▁Soal	-4586
▁mengin	-4587
▁remaja	-4588
▁kekuasaan	-4589
▁berkualitas	-4590
adw	-4591
▁3.	-4592
▁Tbk	-4593
▁lem	-4594
▁ram	-4595
▁dinas	-4596
▁warna	-4597
▁ketidak	-4598
▁pengiriman	-4599
ound	-4600
▁Ass	-4601
enting	-4602
▁Aparat	-4603
▁Kaltim	-4604
▁Panc	-4605
vestor	-4606
▁Agama	-4607
▁transportasi	-4608
▁Terb	-4609
▁Militer	-4610
app	-4611
▁umat	-4612
▁Kapolda	-4613
▁It	-4614
▁Batu	-4615
eorang	-4616
▁nasabah	-4617
▁Keluarga	-4618
▁permohonan	-4619
PO	-4620
▁UN	-4621
indah	-4622
angguan	-4623
▁manajemen	-4624
▁Jalur	-4625
▁rekomendasi	-4626
▁Kat	-4627
▁norm	-4628
▁pemuda	-4629
empatkan	-4630
PI	-4631
▁He	-4632
antren	-4633
awanan	-4634
▁efisi	-4635
urnalis	-4636
imbangan	-4637
▁ekstrem	-4638
▁sesuatu	-4639
etuju	-4640
▁Perj	-4641
▁Perl	-4642
▁Karno	-4643
angkatan	-4644
▁Majelis	-4645
▁ekosistem	-4646
PD	-4647
▁May	-4648
▁usai	-4649
▁situs	-4650
alurkan	-4651
▁gerakan	-4652
hawatiran	-4653
ber	-4654
andan	-4655
▁apabila	-4656
▁Singapura	-4657
tion	-4658
▁Yud	-4659
▁Natal	-4660
▁Kediri	-4661
▁penetapan	-4662
▁dibutuhkan	-4663
lih	-4664
▁Te	-4665
aing	-4666
▁Ped	-4667
arkir	-4668
▁Gelar	-4669
alisasi	-4670
▁mengimbau	-4671
▁4,	-4672
▁Kim	-4673
▁Comm	-4674
▁intel	-4675
▁Jumlah	-4676
▁prinsip	-4677
▁perbaikan	-4678
itia	-4679
▁Rapat	-4680
PA	-4681
hu	-4682
cepat	-4683
orneo	-4684
▁Irak	-4685
▁Ting	-4686
▁Balai	-4687
▁Sakit	-4688
ominasi	-4689
▁Borneo	-4690
elahiran	-4691
imbangkan	-4692
epi	-4693
▁br	-4694
▁Teg	-4695
imaan	-4696
▁Martin	-4697
▁pabrik	-4698
▁persidangan	-4699
amkan	-4700
▁Emas	-4701
▁nuklir	-4702
▁swasta	-4703
hamdulillah	-4704
adj	-4705
gasi	-4706
▁Situ	-4707
▁World	-4708
▁alami	-4709
hasilan	-4710
▁Kanwil	-4711
▁Sekjen	-4712
▁agenda	-4713
ock	-4714
▁80	-4715
▁Dedi	-4716
▁bunga	-4717
▁Persija	-4718
▁merayakan	-4719
▁elektabilitas	-4720
▁Bung	-4721
▁Meny	-4722
▁keny	-4723
obatan	-4724
▁Media	-4725
▁Taman	-4726
▁saran	-4727
▁ibadah	-4728
▁Seperti	-4729
▁sambung	-4730
▁Pasalnya	-4731
▁logistik	-4732
lt	-4733
▁NTB	-4734
▁Sya	-4735
▁Kapal	-4736
▁wajib	-4737
▁lancar	-4738
▁Setiawan	-4739
▁34	-4740
kota	-4741
▁Data	-4742
DO	-4743
EAN	-4744
bal	-4745
▁Semua	-4746
▁lihat	-4747
▁Meteorologi	-4748
▁tes	-4749
▁BPBD	-4750
▁dipl	-4751
▁sungai	-4752
KPK	-4753
▁MD	-4754
▁HUT	-4755
▁rep	-4756
▁Hadi	-4757
enjata	-4758
uktikan	-4759
▁perayaan	-4760
jek	-4761
▁Dana	-4762
aritas	-4763
amatkan	-4764
▁mengus	-4765
▁aktivis	-4766
▁catatan	-4767
▁identitas	-4768
▁berikutnya	-4769
▁500	-4770
▁tun	-4771
ogram	-4772
▁pemberian	-4773
▁perangkat	-4774
sur	-4775
▁Mic	-4776
ikbud	-4777
etujui	-4778
▁melip	-4779
▁keselamatan	-4780
▁menampilkan	-4781
are	-4782
▁Sir	-4783
itung	-4784
▁Cuaca	-4785
▁seseorang	-4786
identifikasi	-4787
etika	-4788
▁gaji	-4789
▁bakar	-4790
▁Bahkan	-4791
▁Gianyar	-4792
▁berencana	-4793
▁bersenjata	-4794
▁Kus	-4795
▁mar	-4796
epend	-4797
angkau	-4798
ulangan	-4799
▁sambil	-4800
▁Mahasiswa	-4801
▁ketentuan	-4802
▁Departemen	-4803
za	-4804
abrak	-4805
▁Aksi	-4806
▁Pengg	-4807
▁mempunya	-4808
▁kelahiran	-4809
▁Polrestabes	-4810
▁permasalahan	-4811
▁IC	-4812
ansir	-4813
udang	-4814
tisipasi	-4815
▁permainan	-4816
▁SK	-4817
urit	-4818
▁Ist	-4819
▁ASEAN	-4820
▁hijau	-4821
▁jarak	-4822
▁minta	-4823
▁Sebuah	-4824
▁menemp	-4825
lementasi	-4826
▁disertai	-4827
▁mengakhiri	-4828
ektur	-4829
▁Imam	-4830
▁model	-4831
▁tanda	-4832
aksikan	-4833
▁perdamaian	-4834
▁memperkenalkan	-4835
ium	-4836
akili	-4837
▁Jogja	-4838
▁militan	-4839
▁membayar	-4840
▁misalnya	-4841
▁menangani	-4842
▁mengakibatkan	-4843
▁70	-4844
olar	-4845
▁Sido	-4846
▁Sudah	-4847
▁tarif	-4848
ebaskan	-4849
▁Kapten	-4850
▁plastik	-4851
▁sandera	-4852
agia	-4853
istri	-4854
▁Usaha	-4855
▁lahir	-4856
adwalkan	-4857
▁diperiksa	-4858
▁mempunyai	-4859
▁mendaftar	-4860
▁Del	-4861
▁Dwi	-4862
tronik	-4863
umahan	-4864
nikahan	-4865
▁Tetapi	-4866
▁sejauh	-4867
eritakan	-4868
onj	-4869
edit	-4870
tusi	-4871
▁Ayu	-4872
▁Geo	-4873
andai	-4874
▁Haji	-4875
▁Maju	-4876
▁Ratusan	-4877
▁tunggal	-4878
▁wisatawan	-4879
▁koordinasi	-4880
PAN	-4881
epon	-4882
▁Nah	-4883
endak	-4884
▁PSIS	-4885
aria	-4886
▁Kawasan	-4887
▁Penghargaan	-4888
fo	-4889
isika	-4890
▁kiri	-4891
ijen	-4892
olos	-4893
▁Indr	-4894
▁sesi	-4895
tusias	-4896
untutan	-4897
▁Bangsa	-4898
▁Pemuda	-4899
ancarkan	-4900
▁diminta	-4901
▁memeriksa	-4902
▁38	-4903
baiki	-4904
▁Pras	-4905
▁Bantul	-4906
▁keberl	-4907
▁menguc	-4908
untungan	-4909
▁klasemen	-4910
▁Tersangka	-4911
▁terjadinya	-4912
▁berkolaborasi	-4913
JS	-4914
▁KM	-4915
awang	-4916
onstr	-4917
▁tumbuh	-4918
▁Bantuan	-4919
▁sosialisasi	-4920
div	-4921
otak	-4922
▁taw	-4923
teman	-4924
egrasi	-4925
▁desain	-4926
▁pelajar	-4927
▁Keputusan	-4928
osa	-4929
opsi	-4930
▁Fer	-4931
▁Rus	-4932
▁amb	-4933
akini	-4934
arisan	-4935
▁konsep	-4936
▁member	-4937
inginkan	-4938
▁gangguan	-4939
▁Komunikasi	-4940
hana	-4941
angkut	-4942
▁aspek	-4943
▁kontra	-4944
▁Lapangan	-4945
▁kilogram	-4946
▁Mb	-4947
▁Fir	-4948
▁bir	-4949
▁rup	-4950
▁tip	-4951
▁Bisa	-4952
▁dilansir	-4953
▁menghindari	-4954
Pem	-4955
itis	-4956
▁buka	-4957
▁kampung	-4958
▁internal	-4959
my	-4960
emar	-4961
▁BBM	-4962
▁PSS	-4963
▁You	-4964
ekaan	-4965
▁modern	-4966
▁Belanda	-4967
▁Pakistan	-4968
LO	-4969
lad	-4970
▁45	-4971
Pers	-4972
upan	-4973
agung	-4974
▁Arya	-4975
angkit	-4976
▁jenazah	-4977
▁regulasi	-4978
▁Ya	-4979
▁Open	-4980
▁krisis	-4981
▁University	-4982
▁ki	-4983
ganya	-4984
▁tahapan	-4985
▁mempersiapkan	-4986
ogo	-4987
sal	-4988
amil	-4989
ower	-4990
yani	-4991
▁adat	-4992
▁2025.	-4993
▁fakta	-4994
▁Kampanye	-4995
▁pembicara	-4996
rak	-4997
fitri	-4998
ijaya	-4999
oblos	-5000
▁York	-5001
▁tadi	-5002
▁protes	-5003
▁Laporan	-5004
▁mengant	-5005
uruk	-5006
▁pal	-5007
▁Lest	-5008
▁Arema	-5009
▁supaya	-5010
▁berangkat	-5011
▁merasakan	-5012
▁pembayaran	-5013
▁menargetkan	-5014
her	-5015
onda	-5016
▁Kol	-5017
limat	-5018
▁2018	-5019
▁Brig	-5020
▁liter	-5021
▁Juanda	-5022
▁Ph	-5023
asia	-5024
ondok	-5025
▁berjudul	-5026
▁semifinal	-5027
▁perjuangan	-5028
▁SMK	-5029
ektar	-5030
ebritas	-5031
▁bilang	-5032
▁dibangun	-5033
▁sukarelawan	-5034
▁Ketenagakerjaan	-5035
mp	-5036
▁Sis	-5037
ugikan	-5038
▁beliau	-5039
▁menuntut	-5040
▁perintah	-5041
▁membantah	-5042
▁mengirimkan	-5043
ba	-5044
SDM	-5045
kah	-5046
▁Li	-5047
iana	-5048
▁Peg	-5049
akter	-5050
aminya	-5051
endali	-5052
fisika	-5053
▁massa	-5054
▁Perang	-5055
▁Secara	-5056
▁nelayan	-5057
▁Tuj	-5058
▁Memb	-5059
▁mark	-5060
▁Ngurah	-5061
▁berhenti	-5062
▁suaminya	-5063
Tok	-5064
▁Yas	-5065
▁Kond	-5066
klusif	-5067
uruhan	-5068
▁skuad	-5069
ambangan	-5070
▁pariwisata	-5071
cang	-5072
iber	-5073
▁had	-5074
bitkan	-5075
olehan	-5076
▁drone	-5077
▁pintu	-5078
▁sambutan	-5079
ega	-5080
esir	-5081
roli	-5082
▁bin	-5083
angku	-5084
▁pros	-5085
▁bertugas	-5086
ps	-5087
▁Ki	-5088
▁ch	-5089
▁Sun	-5090
▁David	-5091
▁Suara	-5092
▁Sumut	-5093
▁Gelora	-5094
▁mengab	-5095
▁timnya	-5096
eklarasi	-5097
▁kekhawatiran	-5098
▁NU	-5099
osen	-5100
▁Tok	-5101
uasai	-5102
uncak	-5103
▁Dewa	-5104
aparan	-5105
▁Geofisika	-5106
▁BA	-5107
▁KU	-5108
okowi	-5109
satunya	-5110
unjukan	-5111
▁Klimat	-5112
▁menikmati	-5113
▁merespons	-5114
▁Klimatologi	-5115
▁4.	-5116
uyur	-5117
▁RUU	-5118
▁may	-5119
▁toko	-5120
▁edukasi	-5121
▁sasaran	-5122
▁turnamen	-5123
▁kontribusi	-5124
▁mengenakan	-5125
▁Adi	-5126
▁PSSI	-5127
▁Sumb	-5128
ahaman	-5129
▁Mulai	-5130
ormatan	-5131
▁netral	-5132
▁tambang	-5133
jm	-5134
ame	-5135
▁5,	-5136
ilmu	-5137
▁Bob	-5138
ormati	-5139
▁Mesir	-5140
▁mengej	-5141
eni	-5142
▁YOG	-5143
idato	-5144
▁sebut	-5145
▁Pangan	-5146
▁pameran	-5147
▁menyerukan	-5148
▁memperingatkan	-5149
NU	-5150
aleg	-5151
injau	-5152
▁Alex	-5153
▁YOGY	-5154
▁ilmu	-5155
▁Sebut	-5156
▁viral	-5157
▁tersedia	-5158
CT	-5159
aft	-5160
eco	-5161
▁00	-5162
jana	-5163
▁Hab	-5164
irikan	-5165
Persero	-5166
▁Manusia	-5167
▁YOGYAKARTA	-5168
▁menganggap	-5169
▁90	-5170
▁PAN	-5171
▁gaw	-5172
ultas	-5173
▁Jember	-5174
▁produs	-5175
▁rumahnya	-5176
Jokowi	-5177
▁Indra	-5178
▁lulus	-5179
elompok	-5180
rata	-5181
▁Cik	-5182
ipuan	-5183
▁Nana	-5184
▁batu	-5185
▁rest	-5186
▁tren	-5187
▁Andika	-5188
▁dilantik	-5189
▁tersebar	-5190
inar	-5191
▁Mun	-5192
▁Vir	-5193
egoro	-5194
▁studi	-5195
▁Maluku	-5196
▁hektar	-5197
ambarkan	-5198
TP	-5199
▁Dn	-5200
▁diw	-5201
▁upa	-5202
ulitan	-5203
▁hotel	-5204
▁kamar	-5205
▁Istana	-5206
▁diberi	-5207
▁Langkah	-5208
▁Sidoarjo	-5209
▁pencurian	-5210
▁keluarganya	-5211
asib	-5212
ement	-5213
▁bumi	-5214
ederal	-5215
▁hendak	-5216
▁konsisten	-5217
lan	-5218
ehan	-5219
uter	-5220
▁pergi	-5221
▁akadem	-5222
▁diajukan	-5223
▁penyelenggara	-5224
ede	-5225
▁Cah	-5226
▁pasokan	-5227
▁upacara	-5228
▁Idulfitri	-5229
1,	-5230
▁33	-5231
▁US	-5232
▁maj	-5233
▁beli	-5234
▁real	-5235
▁Akbar	-5236
▁kuasa	-5237
▁evaluasi	-5238
▁serentak	-5239
▁Menjelang	-5240
BP	-5241
hal	-5242
▁De	-5243
itor	-5244
▁SMA	-5245
▁Jangan	-5246
▁perairan	-5247
:05	-5248
▁ID	-5249
imis	-5250
amakan	-5251
▁diran	-5252
▁daring	-5253
▁investor	-5254
▁pendapat	-5255
▁dirancang	-5256
▁mayoritas	-5257
▁memperluas	-5258
tis	-5259
abel	-5260
itim	-5261
asila	-5262
intai	-5263
▁2017	-5264
▁Luth	-5265
▁Lapas	-5266
inginan	-5267
erdekaan	-5268
▁meliputi	-5269
▁ST	-5270
▁Zul	-5271
edera	-5272
▁Rizky	-5273
▁Sidang	-5274
▁halaman	-5275
▁respons	-5276
▁penyidikan	-5277
bo	-5278
▁DIY	-5279
▁Far	-5280
▁Belum	-5281
▁Rafah	-5282
▁lebat	-5283
▁Corpor	-5284
▁migran	-5285
▁melanda	-5286
▁menahan	-5287
▁penonton	-5288
▁Fau	-5289
▁rata	-5290
andeng	-5291
ukuran	-5292
▁Hadir	-5293
▁lepas	-5294
ependen	-5295
▁diadakan	-5296
ahat	-5297
sisi	-5298
erahan	-5299
▁bintang	-5300
▁tahunan	-5301
▁mendengar	-5302
▁administrasi	-5303
link	-5304
ajian	-5305
▁2016	-5306
▁Myan	-5307
▁istr	-5308
▁tengg	-5309
iskinan	-5310
▁Bicara	-5311
▁Karang	-5312
umentasi	-5313
▁Myanmar	-5314
▁Diketahui	-5315
▁sebagaimana	-5316
BT	-5317
▁DE	-5318
▁Kun	-5319
embus	-5320
emudi	-5321
resik	-5322
▁pokok	-5323
▁arahan	-5324
▁Pengamat	-5325
▁mengucapkan	-5326
der	-5327
▁Ade	-5328
▁Cak	-5329
▁WITA	-5330
▁susu	-5331
▁Badung	-5332
▁menuduh	-5333
ph	-5334
reen	-5335
▁Mag	-5336
▁pakar	-5337
▁Capres	-5338
▁TikTok	-5339
unggulan	-5340
▁Terkait	-5341
▁berjuang	-5342
▁istrinya	-5343
▁terlebih	-5344
▁keberadaan	-5345
▁mengandung	-5346
▁penganiayaan	-5347
ink	-5348
lok	-5349
▁Av	-5350
edur	-5351
ikel	-5352
▁Emp	-5353
▁Tab	-5354
otong	-5355
▁Syah	-5356
▁maaf	-5357
▁Kabar	-5358
egritas	-5359
▁Gresik	-5360
▁meyakini	-5361
:10	-5362
ecah	-5363
idur	-5364
▁Pus	-5365
Kalau	-5366
▁Paus	-5367
edaran	-5368
▁Reskrim	-5369
▁berbagi	-5370
▁antusias	-5371
▁dijadwalkan	-5372
▁@	-5373
ejak	-5374
quez	-5375
▁KAI	-5376
asaan	-5377
onegoro	-5378
▁Jadwal	-5379
▁tembak	-5380
▁Bencana	-5381
embalikan	-5382
▁Parlemen	-5383
▁Pancasila	-5384
▁KA	-5385
alap	-5386
alog	-5387
uters	-5388
▁beserta	-5389
IM	-5390
▁Aj	-5391
▁mon	-5392
akses	-5393
entum	-5394
▁mand	-5395
aspada	-5396
▁Ketum	-5397
▁Luthfi	-5398
▁koalisi	-5399
▁komentar	-5400
▁pernikahan	-5401
▁0,	-5402
▁SU	-5403
ilir	-5404
▁Boy	-5405
idiki	-5406
▁mengatur	-5407
▁kesulitan	-5408
▁Pam	-5409
▁kak	-5410
imbol	-5411
▁beredar	-5412
gizi	-5413
▁San	-5414
▁Yah	-5415
esisir	-5416
ongkok	-5417
▁Malam	-5418
▁pasca	-5419
▁ramah	-5420
ejo	-5421
eno	-5422
tra	-5423
ikro	-5424
▁Rez	-5425
▁Divisi	-5426
asilitasi	-5427
▁gelombang	-5428
ohir	-5429
aging	-5430
ukses	-5431
▁Pand	-5432
▁Terp	-5433
▁camp	-5434
▁tamu	-5435
▁kartu	-5436
▁pasal	-5437
▁keterl	-5438
▁legisl	-5439
▁saudara	-5440
olog	-5441
ulir	-5442
▁Bukan	-5443
egangan	-5444
▁keempat	-5445
ahi	-5446
enj	-5447
▁LP	-5448
eled	-5449
▁Sch	-5450
iansi	-5451
tahun	-5452
▁bersalah	-5453
▁instansi	-5454
▁konsumsi	-5455
▁keberlanjutan	-5456
▁Ri	-5457
▁Supri	-5458
▁cerah	-5459
▁narkotika	-5460
fer	-5461
ector	-5462
ulian	-5463
▁Real	-5464
▁berc	-5465
aturahmi	-5466
▁menjual	-5467
▁Tiongkok	-5468
▁melayani	-5469
rip	-5470
▁bo	-5471
usun	-5472
▁Fin	-5473
▁adil	-5474
▁Hidup	-5475
▁level	-5476
▁minum	-5477
▁modal	-5478
hatikan	-5479
▁inisiatif	-5480
▁mengumpulkan	-5481
abut	-5482
embako	-5483
ibatan	-5484
▁puasa	-5485
angkutan	-5486
▁lanjutan	-5487
▁mengelola	-5488
▁keseluruhan	-5489
/0	-5490
vey	-5491
▁de	-5492
▁AFF	-5493
▁Rud	-5494
atalkan	-5495
▁Hidayat	-5496
sik	-5497
▁RT	-5498
iner	-5499
▁Atas	-5500
▁Jaksa	-5501
▁Italia	-5502
▁siaran	-5503
▁inflasi	-5504
▁Perdagangan	-5505
▁300	-5506
ongkar	-5507
▁Honda	-5508
▁Mapol	-5509
▁Antara	-5510
▁Manager	-5511
Ap	-5512
In	-5513
do	-5514
OGOR	-5515
edak	-5516
▁Hod	-5517
▁PNS	-5518
▁PSM	-5519
▁BOGOR	-5520
▁Banjar	-5521
▁jemaah	-5522
▁namanya	-5523
▁berjanji	-5524
▁penerima	-5525
-20	-5526
ect	-5527
▁BN	-5528
▁Yay	-5529
enakan	-5530
ulusan	-5531
▁Hanya	-5532
▁Minta	-5533
▁emisi	-5534
▁sejalan	-5535
▁perolehan	-5536
▁transparan	-5537
Pil	-5538
ary	-5539
par	-5540
▁KH	-5541
▁me	-5542
▁Akibat	-5543
▁Marquez	-5544
▁penerimaan	-5545
▁Kualifikasi	-5546
uhu	-5547
▁SO	-5548
ajat	-5549
antang	-5550
▁Bulan	-5551
▁dekade	-5552
▁berbahaya	-5553
▁tradisional	-5554
▁be	-5555
ewati	-5556
forma	-5557
mikan	-5558
indahan	-5559
▁masjid	-5560
▁berlanjut	-5561
▁membagikan	-5562
▁ac	-5563
▁Jar	-5564
▁kari	-5565
▁Hodak	-5566
▁Menko	-5567
▁palsu	-5568
▁mental	-5569
▁Yayasan	-5570
▁merusak	-5571
▁oposisi	-5572
▁telepon	-5573
-4	-5574
Tub	-5575
oll	-5576
utar	-5577
waan	-5578
▁Mosk	-5579
▁liar	-5580
▁besok	-5581
▁sepen	-5582
empuran	-5583
▁YouTub	-5584
▁keadilan	-5585
▁pedagang	-5586
▁terbatas	-5587
uit	-5588
apil	-5589
▁)",	-5590
▁top	-5591
▁tur	-5592
tivasi	-5593
▁Masih	-5594
▁Super	-5595
▁duduk	-5596
▁dirilis	-5597
▁mendatangi	-5598
▁Pengembangan	-5599
▁Perlindungan	-5600
ayam	-5601
▁Bur	-5602
▁Rom	-5603
argan	-5604
▁Lomb	-5605
endera	-5606
▁jaksa	-5607
▁Proses	-5608
▁Puncak	-5609
▁diusung	-5610
▁Selanjutnya	-5611
sos	-5612
gaja	-5613
alisis	-5614
▁Moskow	-5615
▁Pidana	-5616
▁Pramono	-5617
▁mengganggu	-5618
▁peluncuran	-5619
5.	-5620
:01	-5621
Pol	-5622
▁Dim	-5623
▁SDM	-5624
▁Prat	-5625
▁pemad	-5626
▁Sedangkan	-5627
▁berkumpul	-5628
▁tanggapan	-5629
▁Pernyataan	-5630
▁dilanjutkan	-5631
:15	-5632
tual	-5633
▁tra	-5634
uling	-5635
▁gula	-5636
▁kopi	-5637
▁pola	-5638
inggung	-5639
▁parkir	-5640
▁apalagi	-5641
▁melarang	-5642
▁tuntutan	-5643
de	-5644
:45	-5645
▁37	-5646
▁PK	-5647
oker	-5648
▁BKN	-5649
▁red	-5650
edaan	-5651
irian	-5652
roses	-5653
▁Andr	-5654
lanjut	-5655
▁sebab	-5656
atuhkan	-5657
▁dikirim	-5658
▁Fakultas	-5659
▁karakter	-5660
▁pengurus	-5661
▁prestasi	-5662
▁Pasi	-5663
▁suku	-5664
incian	-5665
▁Niaga	-5666
▁peral	-5667
▁Ribuan	-5668
▁cedera	-5669
▁gawang	-5670
▁melancarkan	-5671
BI	-5672
uci	-5673
caya	-5674
opir	-5675
teng	-5676
▁Pasukan	-5677
▁ide	-5678
▁lip	-5679
Kemen	-5680
ahana	-5681
asinya	-5682
▁Sultan	-5683
▁Kondisi	-5684
▁dipastikan	-5685
DB	-5686
rs	-5687
▁/0	-5688
awit	-5689
▁Top	-5690
atuhi	-5691
astian	-5692
▁berka	-5693
▁mengk	-5694
▁Dukung	-5695
▁penipuan	-5696
▁Organisasi	-5697
▁disebabkan	-5698
sinya	-5699
▁Kari	-5700
▁kaya	-5701
▁Pengawas	-5702
ean	-5703
▁am	-5704
unyi	-5705
▁Cina	-5706
etahuan	-5707
▁Sistem	-5708
▁Penyanyi	-5709
▁Manajemen	-5710
▁elektronik	-5711
hub	-5712
amas	-5713
erse	-5714
tris	-5715
▁Med	-5716
umuman	-5717
▁1.000	-5718
▁Thohir	-5719
▁Ky	-5720
elam	-5721
olan	-5722
unggah	-5723
▁kotak	-5724
▁Survei	-5725
▁berkat	-5726
▁lantas	-5727
ayangkan	-5728
▁Kongres	-5729
▁dialami	-5730
▁tentunya	-5731
▁perbuatan	-5732
▁optimistis	-5733
9.	-5734
HP	-5735
Dem	-5736
KPP	-5737
▁PE	-5738
▁Fad	-5739
▁Mac	-5740
asana	-5741
▁Jamb	-5742
▁Kini	-5743
▁menu	-5744
▁Wayan	-5745
▁Satpol	-5746
▁keuntungan	-5747
▁penampilan	-5748
▁Ci	-5749
antian	-5750
unting	-5751
▁Balik	-5752
▁Padahal	-5753
ermin	-5754
▁Bumi	-5755
iskusi	-5756
▁Narkoba	-5757
▁jurnalis	-5758
▁berkaitan	-5759
ago	-5760
eum	-5761
gak	-5762
▁75	-5763
▁Hy	-5764
▁Wal	-5765
▁gaya	-5766
▁darat	-5767
▁perund	-5768
▁Puluhan	-5769
▁sekadar	-5770
▁evakuasi	-5771
▁menyusul	-5772
▁unggulan	-5773
artisipasi	-5774
▁Eksekutif	-5775
▁merugikan	-5776
▁Perhubungan	-5777
500	-5778
endra	-5779
▁pemas	-5780
▁pikir	-5781
▁Satuan	-5782
▁pengendara	-5783
uto	-5784
eboh	-5785
▁Aman	-5786
▁Biak	-5787
▁Star	-5788
ebihan	-5789
tengah	-5790
▁tajam	-5791
▁diplomat	-5792
▁kekurangan	-5793
▁mengangkat	-5794
Kem	-5795
▁AL	-5796
▁Amin	-5797
▁2022,	-5798
▁Demak	-5799
▁menel	-5800
▁pensi	-5801
▁Global	-5802
▁imbang	-5803
▁normal	-5804
▁Stasiun	-5805
▁keunggulan	-5806
TS	-5807
mo	-5808
age	-5809
uali	-5810
▁Liv	-5811
▁mir	-5812
▁mur	-5813
▁suhu	-5814
▁wajah	-5815
▁Kanada	-5816
▁Honorer	-5817
▁ditutup	-5818
yarakatan	-5819
▁peneliti	-5820
▁mengancam	-5821
▁Championship	-5822
win	-5823
▁PLN	-5824
▁Sol	-5825
adiah	-5826
▁Ruang	-5827
▁NasDem	-5828
▁Rektor	-5829
▁rupiah	-5830
eportasi	-5831
▁Kapolri	-5832
▁Bengkulu	-5833
▁momentum	-5834
▁pemenang	-5835
▁Perubahan	-5836
▁wawancara	-5837
anggulangan	-5838
epak	-5839
ghan	-5840
sial	-5841
▁Tes	-5842
▁cukai	-5843
▁awalnya	-5844
▁kreatif	-5845
▁mengawal	-5846
antisipasi	-5847
▁kekalahan	-5848
▁peredaran	-5849
▁menggambarkan	-5850
▁DW	-5851
divid	-5852
▁Konf	-5853
gacara	-5854
▁garis	-5855
▁murah	-5856
▁pulau	-5857
▁unsur	-5858
▁suporter	-5859
ebon	-5860
ekad	-5861
▁Sig	-5862
▁kul	-5863
▁sim	-5864
apitu	-5865
izinkan	-5866
▁melaju	-5867
▁sarana	-5868
▁individ	-5869
▁Dukungan	-5870
▁diserahkan	-5871
oner	-5872
▁hid	-5873
itisi	-5874
▁Akhir	-5875
▁solid	-5876
uangkan	-5877
▁Afghan	-5878
▁Brasil	-5879
▁tenang	-5880
alahgunaan	-5881
▁Corporate	-5882
▁pembebasan	-5883
▁sepenuhnya	-5884
▁Afghanistan	-5885
ATO	-5886
Sem	-5887
▁PA	-5888
ella	-5889
ariah	-5890
onsel	-5891
▁khas	-5892
langkah	-5893
▁Satgas	-5894
▁Cirebon	-5895
▁subsidi	-5896
▁terkena	-5897
23	-5898
ne	-5899
lat	-5900
▁Prak	-5901
▁utang	-5902
▁Dokter	-5903
▁Ungkap	-5904
▁Gunawan	-5905
▁Reuters	-5906
▁kandang	-5907
▁independen	-5908
▁kemiskinan	-5909
▁memerintah	-5910
▁berpartisipasi	-5911
hak	-5912
▁Bu	-5913
▁Iq	-5914
ugat	-5915
utra	-5916
▁Ida	-5917
▁off	-5918
udukan	-5919
▁Studi	-5920
▁disapa	-5921
▁Gerakan	-5922
▁Kembali	-5923
▁Abdullah	-5924
▁aspirasi	-5925
▁menindak	-5926
▁penerapan	-5927
▁pencapaian	-5928
Men	-5929
izi	-5930
dian	-5931
umni	-5932
▁Leg	-5933
▁Mit	-5934
ersial	-5935
▁Dipta	-5936
▁Indah	-5937
▁Intel	-5938
▁berulang	-5939
nama	-5940
▁198	-5941
▁Eks	-5942
▁Pac	-5943
▁Rob	-5944
uliah	-5945
▁simp	-5946
▁Raffi	-5947
▁pilih	-5948
▁2024",	-5949
▁Tujuan	-5950
▁respon	-5951
▁terletak	-5952
▁pendekatan	-5953
▁sekitarnya	-5954
▁AC	-5955
aming	-5956
atikan	-5957
bankan	-5958
encang	-5959
▁Patra	-5960
▁peman	-5961
jadikan	-5962
▁menged	-5963
▁sekutu	-5964
▁mengapa	-5965
▁pakaian	-5966
▁sepakat	-5967
istribusi	-5968
▁Sebagian	-5969
▁demonstr	-5970
▁dimaksud	-5971
▁meninjau	-5972
▁Perjanjian	-5973
▁transformasi	-5974
aba	-5975
apus	-5976
▁WNA	-5977
andia	-5978
utkan	-5979
▁Grand	-5980
▁jogja	-5981
▁tidur	-5982
▁hektare	-5983
▁suasana	-5984
▁Hubungan	-5985
▁kesalahan	-5986
▁dikeluarkan	-5987
▁bersangkutan	-5988
ery	-5989
▁te	-5990
▁Eng	-5991
▁2022.	-5992
▁pindah	-5993
▁simbol	-5994
ancurkan	-5995
▁belanja	-5996
▁prosedur	-5997
▁kebebasan	-5998
▁Perwakilan	-5999
▁kompetensi	-6000
vin	-6001
etail	-6002
▁Terd	-6003
▁Awards	-6004
▁hiburan	-6005
▁singkat	-6006
▁Pemimpin	-6007
▁mewakili	-6008
▁kandungan	-6009
▁memperbaiki	-6010
use	-6011
ver	-6012
▁DPC	-6013
urang	-6014
warna	-6015
▁rute	-6016
ilaian	-6017
▁bangga	-6018
▁buatan	-6019
▁Mohammad	-6020
▁kesiapan	-6021
▁menembak	-6022
▁197	-6023
estik	-6024
▁Pegi	-6025
▁Siti	-6026
▁staf	-6027
▁Kabid	-6028
▁artis	-6029
▁bersaing	-6030
▁dimiliki	-6031
▁transisi	-6032
▁Kebudayaan	-6033
ogan	-6034
tiba	-6035
-2024	-6036
ainya	-6037
vesti	-6038
▁Raja	-6039
▁asli	-6040
ristek	-6041
▁Bapak	-6042
▁Presi	-6043
▁keter	-6044
▁membela	-6045
▁Kebijakan	-6046
▁pencegahan	-6047
▁keberhasilan	-6048
-0	-6049
LA	-6050
bum	-6051
▁co	-6052
▁sh	-6053
▁Dib	-6054
▁kamu	-6055
▁Tewas	-6056
▁bekas	-6057
▁bukanlah	-6058
▁panggilan	-6059
▁menyaksikan	-6060
▁Ob	-6061
/202	-6062
kiri	-6063
rafi	-6064
▁Mon	-6065
▁rah	-6066
nilai	-6067
▁Staf	-6068
alonan	-6069
▁Upaya	-6070
▁dinam	-6071
▁Alasan	-6072
▁memantau	-6073
▁Rach	-6074
encanakan	-6075
▁Aparatur	-6076
▁Sehingga	-6077
▁mendalam	-6078
ikbudristek	-6079
▁pelantikan	-6080
▁menandatangani	-6081
▁TV	-6082
▁Ria	-6083
▁Yong	-6084
ajurit	-6085
itamin	-6086
▁tutup	-6087
▁Fraksi	-6088
▁parpol	-6089
▁Apalagi	-6090
gia	-6091
▁AM	-6092
▁la	-6093
ftar	-6094
▁Muk	-6095
▁Pon	-6096
▁web	-6097
umpah	-6098
adaran	-6099
itraan	-6100
▁Pakar	-6101
▁Kristi	-6102
▁populer	-6103
erlakukan	-6104
▁dikonfirmasi	-6105
SR	-6106
▁pad	-6107
ilaku	-6108
▁sepuluh	-6109
▁produsen	-6110
▁pembukaan	-6111
▁distribusi	-6112
▁konstitusi	-6113
▁penembakan	-6114
▁penyalahgunaan	-6115
▁Wib	-6116
▁doa	-6117
▁Hong	-6118
▁John	-6119
▁NATO	-6120
▁adik	-6121
▁berst	-6122
▁Barang	-6123
lihatkan	-6124
▁terluka	-6125
▁mengarah	-6126
▁memperlihatkan	-6127
uro	-6128
onny	-6129
▁teb	-6130
▁parah	-6131
▁Energi	-6132
▁Dh	-6133
▁IV	-6134
▁Had	-6135
▁Log	-6136
Untuk	-6137
imbang	-6138
▁beban	-6139
▁Wisata	-6140
▁terbar	-6141
UI	-6142
:20	-6143
:35	-6144
esh	-6145
▁AH	-6146
▁Ud	-6147
alas	-6148
▁Bert	-6149
▁Sama	-6150
▁sent	-6151
eklaim	-6152
▁rekor	-6153
▁temuan	-6154
▁Pegawai	-6155
▁penutup	-6156
▁pembicaraan	-6157
▁serangkaian	-6158
▁penghitungan	-6159
▁Teh	-6160
adari	-6161
tidak	-6162
▁Baik	-6163
▁Masa	-6164
▁ayat	-6165
▁Iqbal	-6166
engketa	-6167
▁Paslon	-6168
▁berpend	-6169
▁tanaman	-6170
:07	-6171
van	-6172
▁Ot	-6173
▁Hel	-6174
▁div	-6175
▁PSBS	-6176
▁Pagi	-6177
▁RSUD	-6178
▁medali	-6179
▁Relawan	-6180
▁asuransi	-6181
▁miliknya	-6182
▁dihubungi	-6183
▁perbedaan	-6184
DA	-6185
ading	-6186
▁Sand	-6187
▁sapi	-6188
lantas	-6189
okerto	-6190
▁sayap	-6191
▁ramalan	-6192
▁melewati	-6193
ria	-6194
impa	-6195
alasi	-6196
▁Keber	-6197
▁menga	-6198
ensitas	-6199
▁Pejabat	-6200
▁kabinet	-6201
▁larangan	-6202
▁panggung	-6203
▁Bagaimana	-6204
▁Pelayanan	-6205
▁membuktikan	-6206
TN	-6207
ift	-6208
iss	-6209
mart	-6210
▁Bud	-6211
▁Off	-6212
imbah	-6213
▁persa	-6214
▁binaan	-6215
▁cabang	-6216
▁Muhaimin	-6217
▁internet	-6218
▁dijadikan	-6219
▁pembelian	-6220
▁diprediksi	-6221
▁mengeklaim	-6222
KD	-6223
alo	-6224
eksp	-6225
elih	-6226
▁SMP	-6227
iness	-6228
unkan	-6229
▁bent	-6230
▁bila	-6231
▁Pupuk	-6232
lanjuti	-6233
▁Pengel	-6234
▁Seluruh	-6235
▁merujuk	-6236
▁sembako	-6237
▁menyalurkan	-6238
KM	-6239
even	-6240
▁Nug	-6241
turut	-6242
▁fase	-6243
▁layar	-6244
anjangan	-6245
▁terduga	-6246
▁berwarna	-6247
▁mengungsi	-6248
▁tergabung	-6249
esa	-6250
jur	-6251
mah	-6252
amad	-6253
wira	-6254
▁Purn	-6255
▁cuma	-6256
ajiban	-6257
▁Nikita	-6258
▁contoh	-6259
▁kanker	-6260
encanaan	-6261
▁peralatan	-6262
▁menghormati	-6263
mer	-6264
mil	-6265
▁Fa	-6266
▁Kud	-6267
yukur	-6268
▁Surya	-6269
▁Series	-6270
▁individu	-6271
▁membunuh	-6272
▁Pemerintahan	-6273
aper	-6274
olik	-6275
▁Sap	-6276
▁Ven	-6277
▁kas	-6278
ajari	-6279
kanan	-6280
▁Dani	-6281
erakan	-6282
▁Rencana	-6283
▁keterlibatan	-6284
2,	-6285
Ada	-6286
▁fr	-6287
▁def	-6288
▁dew	-6289
akkan	-6290
ukiman	-6291
▁bermula	-6292
▁samping	-6293
pos	-6294
yal	-6295
▁39	-6296
ahap	-6297
▁Amb	-6298
▁Tip	-6299
▁Sang	-6300
▁roda	-6301
▁dijalan	-6302
▁kencang	-6303
▁sengaja	-6304
▁menjalin	-6305
-5	-6306
mu	-6307
va	-6308
ico	-6309
sih	-6310
▁FI	-6311
Kita	-6312
▁AFP	-6313
▁Eko	-6314
ektif	-6315
ikiran	-6316
osikan	-6317
▁versi	-6318
▁wujud	-6319
▁Banjir	-6320
▁hadiah	-6321
▁bertambah	-6322
▁institusi	-6323
▁perguruan	-6324
▁tenggelam	-6325
▁55	-6326
deka	-6327
endi	-6328
lien	-6329
minal	-6330
tinya	-6331
Dengan	-6332
▁daging	-6333
▁mengkl	-6334
▁ketahanan	-6335
▁pelabuhan	-6336
▁kenyamanan	-6337
▁pengetahuan	-6338
▁menceritakan	-6339
:50	-6340
erus	-6341
▁Cib	-6342
▁kam	-6343
▁tab	-6344
endam	-6345
▁otor	-6346
▁suka	-6347
▁umur	-6348
▁memer	-6349
▁pakai	-6350
▁Praset	-6351
▁Institute	-6352
▁kecepatan	-6353
▁memanggil	-6354
▁diterapkan	-6355
▁partisipasi	-6356
▁berkoordinasi	-6357
4.	-6358
▁Api	-6359
▁Gab	-6360
▁Soc	-6361
▁Sent	-6362
▁Thom	-6363
▁Allah	-6364
▁ditud	-6365
▁event	-6366
▁Listrik	-6367
▁imbuhnya	-6368
▁performa	-6369
fasilitasi	-6370
▁Pelaksana	-6371
▁pertempuran	-6372
▁menggantikan	-6373
BC	-6374
FA	-6375
MA	-6376
WA	-6377
bol	-6378
inci	-6379
pura	-6380
olahan	-6381
▁rekaman	-6382
▁terbakar	-6383
CTV	-6384
▁6,	-6385
▁Bet	-6386
▁Sec	-6387
▁pinj	-6388
▁Blink	-6389
▁dikab	-6390
▁Market	-6391
▁Tindak	-6392
▁baterai	-6393
▁berdiri	-6394
▁domestik	-6395
▁keinginan	-6396
▁kedatangan	-6397
▁Jon	-6398
▁gun	-6399
aktif	-6400
▁Awal	-6401
▁kedi	-6402
▁raya	-6403
ovatif	-6404
▁Gusti	-6405
▁Siang	-6406
▁lolos	-6407
▁rawan	-6408
▁saham	-6409
▁dilihat	-6410
arifikasi	-6411
▁kediaman	-6412
▁regional	-6413
▁sampaikan	-6414
▁sedikitnya	-6415
▁Perekonomian	-6416
▁Jor	-6417
▁Zoni	-6418
▁kira	-6419
▁Komun	-6420
▁Riset	-6421
▁petir	-6422
eberkan	-6423
▁usulan	-6424
▁minimal	-6425
vestigasi	-6426
▁menurutnya	-6427
▁(0	-6428
▁CO	-6429
▁All	-6430
▁Ast	-6431
▁Hout	-6432
urusan	-6433
anjikan	-6434
▁berani	-6435
egawaian	-6436
apitulasi	-6437
romosikan	-6438
▁unggahan	-6439
pl	-6440
Sel	-6441
ith	-6442
▁kub	-6443
omotif	-6444
▁Batam	-6445
▁detik	-6446
▁silam	-6447
▁Persik	-6448
▁lantai	-6449
▁memben	-6450
▁pengec	-6451
▁setara	-6452
▁hadapan	-6453
▁Anggaran	-6454
▁Keduanya	-6455
▁kompleks	-6456
▁penggemar	-6457
▁ketegangan	-6458
▁mendampingi	-6459
ife	-6460
▁Ko	-6461
▁ko	-6462
▁na	-6463
zani	-6464
▁Dil	-6465
▁kosong	-6466
▁Blinken	-6467
▁jantung	-6468
▁dikelola	-6469
▁kesadaran	-6470
▁penindakan	-6471
▁mengantisipasi	-6472
Muh	-6473
▁AP	-6474
▁Mur	-6475
▁Said	-6476
▁putr	-6477
▁belah	-6478
▁malah	-6479
▁pemer	-6480
▁pupuk	-6481
yaratan	-6482
▁elemen	-6483
▁kritik	-6484
▁bergizi	-6485
▁ditanya	-6486
▁jaminan	-6487
▁vitamin	-6488
:02	-6489
dan	-6490
ambu	-6491
▁cerita	-6492
▁majelis	-6493
▁terbang	-6494
▁diangkat	-6495
▁pencalonan	-6496
▁diluncurkan	-6497
ajer	-6498
info	-6499
ukkan	-6500
▁Beri	-6501
▁Wong	-6502
adaian	-6503
ungkas	-6504
▁Bisnis	-6505
▁Lombok	-6506
▁Madrid	-6507
▁pengaj	-6508
esuaikan	-6509
ombongan	-6510
▁bandara	-6511
▁seiring	-6512
encananya	-6513
▁kondusif	-6514
▁setengah	-6515
▁prakiraan	-6516
2.	-6517
/2)	-6518
aras	-6519
▁Ach	-6520
▁Gor	-6521
▁Kont	-6522
▁dekl	-6523
asihat	-6524
▁Found	-6525
▁takut	-6526
▁kredit	-6527
inansial	-6528
integrasi	-6529
▁Demokrasi	-6530
▁Sr	-6531
▁bul	-6532
▁Tali	-6533
▁Fauzi	-6534
▁Blitar	-6535
▁Telkom	-6536
▁metode	-6537
▁menyimp	-6538
▁Pengurus	-6539
▁dihadapi	-6540
▁intelijen	-6541
▁Kemenangan	-6542
▁Ur	-6543
allah	-6544
egasi	-6545
▁1445	-6546
▁Cian	-6547
▁Made	-6548
faatan	-6549
isaris	-6550
antauan	-6551
panjang	-6552
▁Houthi	-6553
ternatif	-6554
▁Cianjur	-6555
▁Pelangg	-6556
▁berkata	-6557
▁Pertemuan	-6558
▁melarikan	-6559
se	-6560
cel	-6561
▁We	-6562
▁Bin	-6563
▁Alam	-6564
▁Bayu	-6565
▁Kart	-6566
utrisi	-6567
alaupun	-6568
▁Fransis	-6569
▁Penelit	-6570
▁diumumkan	-6571
▁pengadaan	-6572
▁mempercepat	-6573
-6	-6574
rad	-6575
▁48	-6576
▁Ni	-6577
▁Bag	-6578
▁Las	-6579
▁kok	-6580
▁out	-6581
oskop	-6582
▁Geor	-6583
▁Olah	-6584
▁Wahyu	-6585
ambatan	-6586
▁Koster	-6587
▁dewasa	-6588
▁dipilih	-6589
▁negatif	-6590
▁penjaga	-6591
▁Kebakaran	-6592
▁deklarasi	-6593
▁penegakan	-6594
.,	-6595
UN	-6596
▁USD	-6597
▁Vol	-6598
isten	-6599
otongan	-6600
▁Tenaga	-6601
▁Pekerja	-6602
▁ditunjuk	-6603
▁pengakuan	-6604
ES	-6605
ler	-6606
▁Saf	-6607
▁Maka	-6608
ammadi	-6609
▁Arief	-6610
▁Video	-6611
▁mekan	-6612
▁aliran	-6613
▁urusan	-6614
▁Koalisi	-6615
▁bersifat	-6616
▁depannya	-6617
▁Pegadaian	-6618
▁intensitas	-6619
hy	-6620
vo	-6621
:40	-6622
daul	-6623
eret	-6624
oket	-6625
isihan	-6626
▁Kudus	-6627
▁skala	-6628
▁terpaksa	-6629
▁berstatus	-6630
Al	-6631
▁ri	-6632
▁Jak	-6633
▁bij	-6634
entian	-6635
▁dolar	-6636
▁sopir	-6637
▁gudang	-6638
▁Bintang	-6639
▁teroris	-6640
▁berfokus	-6641
▁kriminal	-6642
▁terungkap	-6643
GM	-6644
ereb	-6645
▁Pec	-6646
ustin	-6647
ahtera	-6648
▁Skuad	-6649
▁pemul	-6650
▁tangk	-6651
▁Ketiga	-6652
▁pidato	-6653
indahkan	-6654
▁optimal	-6655
▁Pihaknya	-6656
▁bersyukur	-6657
Di	-6658
erm	-6659
imia	-6660
ipta	-6661
ocok	-6662
ster	-6663
▁1.2	-6664
▁Bak	-6665
▁Kasi	-6666
▁Otor	-6667
▁kayu	-6668
▁lini	-6669
▁mayat	-6670
▁patroli	-6671
▁dilengkapi	-6672
▁penjelasan	-6673
An	-6674
EMB	-6675
▁PD	-6676
▁ge	-6677
enuhi	-6678
uduki	-6679
barang	-6680
▁Bojan	-6681
▁pingg	-6682
agamaan	-6683
▁sinergi	-6684
▁Kecelakaan	-6685
▁stabilitas	-6686
nop	-6687
▁Jab	-6688
ution	-6689
▁Park	-6690
▁lemb	-6691
ografi	-6692
▁Empat	-6693
▁Lewat	-6694
ahirkan	-6695
▁Reserse	-6696
▁Soekarno	-6697
▁angkatan	-6698
▁penilaian	-6699
▁menginginkan	-6700
▁menghancurkan	-6701
HR	-6702
Pj	-6703
bah	-6704
rop	-6705
alif	-6706
▁Inf	-6707
▁Iwan	-6708
eskrim	-6709
▁Angka	-6710
▁brand	-6711
▁jejak	-6712
▁komod	-6713
▁memad	-6714
▁pesta	-6715
▁tersi	-6716
▁Setiap	-6717
▁televisi	-6718
▁pandangan	-6719
▁berkunjung	-6720
▁memerintahkan	-6721
ague	-6722
▁ris	-6723
▁klien	-6724
▁kuota	-6725
isasikan	-6726
▁mengusulkan	-6727
ide	-6728
▁Yord	-6729
▁setu	-6730
▁unik	-6731
▁Garut	-6732
▁dijual	-6733
▁ponsel	-6734
ancangan	-6735
▁tampaknya	-6736
asyarakatan	-6737
▁memproduksi	-6738
MS	-6739
▁44	-6740
▁AD	-6741
▁Lu	-6742
omba	-6743
▁TKP	-6744
▁bang	-6745
▁akbar	-6746
▁Publik	-6747
▁menaik	-6748
▁pandemi	-6749
erifikasi	-6750
▁menyadari	-6751
▁diungkapkan	-6752
PM	-6753
lil	-6754
▁Rev	-6755
▁bet	-6756
▁Flor	-6757
uwangi	-6758
▁Semen	-6759
adangan	-6760
▁limbah	-6761
▁berawal	-6762
▁menikah	-6763
▁menyita	-6764
▁inovatif	-6765
▁menandai	-6766
POK	-6767
taw	-6768
▁43	-6769
ondo	-6770
yong	-6771
▁AMI	-6772
▁Maul	-6773
eteksi	-6774
umbang	-6775
▁Brand	-6776
▁Sipil	-6777
▁diatur	-6778
▁penyelund	-6779
bi	-6780
adak	-6781
▁Head	-6782
▁Sugi	-6783
ayangk	-6784
▁Jambi	-6785
▁Bahlil	-6786
▁mengisi	-6787
▁disabilitas	-6788
▁mempromosikan	-6789
abet	-6790
omen	-6791
▁Jas	-6792
▁sor	-6793
▁CCTV	-6794
▁jual	-6795
acakan	-6796
eksiko	-6797
▁DEPOK	-6798
▁mewah	-6799
▁Apakah	-6800
▁YouTube	-6801
▁setahun	-6802
▁Kapolsek	-6803
▁finansial	-6804
▁Banyuwangi	-6805
osan	-6806
ubis	-6807
▁Kre	-6808
ening	-6809
iaran	-6810
▁Perb	-6811
▁forum	-6812
▁kapan	-6813
▁Ronald	-6814
▁Pariwisata	-6815
▁Mor	-6816
eleng	-6817
uskan	-6818
▁Hind	-6819
arahan	-6820
▁dosen	-6821
noputri	-6822
ammadiyah	-6823
▁menjamin	-6824
▁Investasi	-6825
▁legislatif	-6826
▁Kepegawaian	-6827
▁persyaratan	-6828
▁Muhammadiyah	-6829
rok	-6830
▁km	-6831
ersih	-6832
▁Mari	-6833
▁Tata	-6834
angkal	-6835
isinya	-6836
▁latar	-6837
▁santri	-6838
▁setuju	-6839
▁ledakan	-6840
▁penegak	-6841
▁Bhayangk	-6842
▁pengemudi	-6843
▁pertimbangan	-6844
▁menyelamatkan	-6845
RC	-6846
oyo	-6847
arep	-6848
sion	-6849
▁150	-6850
▁Day	-6851
▁Seg	-6852
▁Zel	-6853
▁hel	-6854
inang	-6855
produk	-6856
▁asasi	-6857
▁Pondok	-6858
▁karbon	-6859
▁mendek	-6860
▁hasilnya	-6861
▁Penanggulangan	-6862
.0	-6863
AH	-6864
pto	-6865
ikor	-6866
mada	-6867
▁Han	-6868
▁rob	-6869
antam	-6870
igasi	-6871
▁Anas	-6872
▁What	-6873
▁main	-6874
▁Habib	-6875
▁Sigit	-6876
endalian	-6877
ungkapan	-6878
▁menempatkan	-6879
mur	-6880
▁PU	-6881
▁Buk	-6882
▁Nag	-6883
▁Rub	-6884
▁Emil	-6885
▁Imin	-6886
▁butuh	-6887
atatkan	-6888
egaraan	-6889
ertiban	-6890
▁Olahraga	-6891
ID	-6892
-10	-6893
▁Laga	-6894
▁Komite	-6895
▁Sekitar	-6896
▁jembatan	-6897
▁kewenangan	-6898
▁kontestasi	-6899
▁meningkatnya	-6900
ool	-6901
▁AT	-6902
▁App	-6903
▁Oper	-6904
▁Matar	-6905
residen	-6906
▁semacam	-6907
▁stasiun	-6908
▁Director	-6909
▁stunting	-6910
▁Persatuan	-6911
Kar	-6912
▁ta	-6913
emat	-6914
enom	-6915
umpa	-6916
▁Bey	-6917
▁land	-6918
▁Fajar	-6919
▁skema	-6920
▁Dirjen	-6921
▁bahaya	-6922
▁kelola	-6923
▁Harapan	-6924
▁Mirzani	-6925
▁menulis	-6926
▁Asosiasi	-6927
▁kewajiban	-6928
CC	-6929
inja	-6930
▁PPN	-6931
▁Por	-6932
▁Tar	-6933
▁Sport	-6934
▁dipert	-6935
▁Lestari	-6936
▁kekayaan	-6937
▁sengketa	-6938
▁melainkan	-6939
▁pembiayaan	-6940
obi	-6941
oma	-6942
▁ho	-6943
iker	-6944
▁dak	-6945
▁agen	-6946
▁sela	-6947
ecehan	-6948
esaian	-6949
▁Istri	-6950
▁struk	-6951
▁Wanita	-6952
▁Serentak	-6953
▁kemudahan	-6954
▁integritas	-6955
▁Soekarnoputri	-6956
WF	-6957
Set	-6958
▁Tj	-6959
▁fl	-6960
▁196	-6961
▁PAL	-6962
aduan	-6963
▁imbuh	-6964
▁janji	-6965
ahlawan	-6966
▁Aktris	-6967
enderung	-6968
▁merebut	-6969
▁saluran	-6970
▁Yordania	-6971
▁melintas	-6972
▁mengawasi	-6973
▁penguatan	-6974
▁rekapitulasi	-6975
eu	-6976
ume	-6977
▁PM	-6978
▁Cel	-6979
▁Ded	-6980
▁Sut	-6981
▁pah	-6982
emuka	-6983
▁Lima	-6984
▁Tech	-6985
▁diman	-6986
▁riset	-6987
angsaan	-6988
▁Herman	-6989
▁Terima	-6990
▁kemasan	-6991
endalikan	-6992
▁alternatif	-6993
EC	-6994
▁Os	-6995
▁Aku	-6996
▁Cup	-6997
▁Roy	-6998
▁gim	-6999
ontak	-7000
▁ayam	-7001
▁sisa	-7002
udahkan	-7003
▁Rahmat	-7004
▁Sumbar	-7005
▁berapa	-7006
▁mengad	-7007
▁timnas	-7008
ampingan	-7009
▁terkenal	-7010
▁mengundang	-7011
▁memperkirakan	-7012
abi	-7013
ular	-7014
▁Bay	-7015
ujung	-7016
▁kian	-7017
▁League	-7018
▁Lintas	-7019
▁Zelens	-7020
juangkan	-7021
▁Penting	-7022
▁Taliban	-7023
▁dirawat	-7024
▁Kriminal	-7025
▁dilarang	-7026
▁perilaku	-7027
▁mengevakuasi	-7028
SIS	-7029
▁Kul	-7030
▁Lan	-7031
▁PNM	-7032
▁teh	-7033
ander	-7034
otaan	-7035
▁2015	-7036
▁Vina	-7037
aluran	-7038
▁lulusan	-7039
▁sebelah	-7040
▁bertahun	-7041
▁kualifikasi	-7042
apar	-7043
itya	-7044
onen	-7045
▁Fre	-7046
▁tuk	-7047
anaan	-7048
papan	-7049
▁Dhar	-7050
▁Kadin	-7051
iansyah	-7052
yaallah	-7053
▁stabil	-7054
▁Buleleng	-7055
▁struktur	-7056
▁komoditas	-7057
FI	-7058
▁Mu	-7059
amer	-7060
ental	-7061
idasi	-7062
▁AMIN	-7063
▁Hulu	-7064
evelop	-7065
engaruh	-7066
▁Rohing	-7067
▁Trengg	-7068
▁Kabinet	-7069
▁Hartarto	-7070
▁pengaruh	-7071
▁bertindak	-7072
▁cenderung	-7073
▁Balikpapan	-7074
▁persaingan	-7075
OM	-7076
RS	-7077
:33	-7078
ost	-7079
▁Vs	-7080
dent	-7081
▁Sai	-7082
Tidak	-7083
▁ASDP	-7084
▁Stef	-7085
kesmas	-7086
▁aktor	-7087
aliknya	-7088
▁Mataram	-7089
▁disambut	-7090
▁kecurangan	-7091
andatanganan	-7092
▁kemerdekaan	-7093
alak	-7094
egan	-7095
▁Feb	-7096
▁SER	-7097
urasi	-7098
▁2045	-7099
▁Ilmu	-7100
▁Reza	-7101
▁vaks	-7102
Karena	-7103
ahasan	-7104
▁Whats	-7105
▁habis	-7106
▁Bagian	-7107
▁massal	-7108
erminkan	-7109
▁memakai	-7110
▁menyelidiki	-7111
▁pembentukan	-7112
▁mencerminkan	-7113
:31	-7114
▁um	-7115
▁Tir	-7116
▁jas	-7117
ingat	-7118
vitas	-7119
▁Paul	-7120
▁ganja	-7121
epaskan	-7122
umpulan	-7123
▁mengkr	-7124
▁tayang	-7125
▁Inovasi	-7126
▁bersiap	-7127
▁mineral	-7128
▁spesial	-7129
residenan	-7130
▁literasi	-7131
▁pemulihan	-7132
▁Purwakarta	-7133
:03	-7134
PBN	-7135
awe	-7136
tag	-7137
▁Bor	-7138
▁Sor	-7139
▁kun	-7140
arung	-7141
engka	-7142
▁Nama	-7143
▁Ryan	-7144
▁gizi	-7145
▁Teguh	-7146
▁kuliah	-7147
▁gerimis	-7148
▁pesisir	-7149
▁pilpres	-7150
▁Rohingya	-7151
▁pesantren	-7152
▁dikabarkan	-7153
▁implementasi	-7154
als	-7155
ams	-7156
zal	-7157
BMKG	-7158
adis	-7159
▁gar	-7160
itaan	-7161
▁KUHP	-7162
etakan	-7163
▁Coach	-7164
erjakan	-7165
▁Lokasi	-7166
▁berman	-7167
ingginya	-7168
▁Meksiko	-7169
▁Regional	-7170
▁menabrak	-7171
▁dipanggil	-7172
▁memajukan	-7173
▁Fransiskus	-7174
▁belakangan	-7175
▁pembatasan	-7176
ss	-7177
:56	-7178
▁Pe	-7179
▁Cim	-7180
▁Yun	-7181
▁dep	-7182
apaan	-7183
▁Bikin	-7184
▁Harus	-7185
▁Juara	-7186
▁Total	-7187
▁Yusuf	-7188
▁bunuh	-7189
▁panen	-7190
▁Daftar	-7191
estinasi	-7192
gagalkan	-7193
▁ataupun	-7194
▁gagasan	-7195
▁menemui	-7196
hawatirkan	-7197
▁pengobatan	-7198
EA	-7199
▁41	-7200
▁Ay	-7201
▁Ge	-7202
▁IS	-7203
ATEN	-7204
andu	-7205
opol	-7206
ansos	-7207
utasi	-7208
▁Seni	-7209
▁alih	-7210
▁Ammar	-7211
▁Andre	-7212
▁objek	-7213
▁Deputi	-7214
▁analis	-7215
▁berkas	-7216
▁jutaan	-7217
▁banding	-7218
▁pemangku	-7219
▁Peristiwa	-7220
▁memainkan	-7221
▁menentang	-7222
▁pembuatan	-7223
▁terbanyak	-7224
eklarasikan	-7225
igi	-7226
wono	-7227
▁250	-7228
▁tas	-7229
inter	-7230
opter	-7231
▁BPJS	-7232
▁SOLO	-7233
▁prom	-7234
▁Tugas	-7235
▁parta	-7236
aparkan	-7237
▁Katolik	-7238
▁bendera	-7239
▁pemudik	-7240
evelopment	-7241
BH	-7242
App	-7243
trik	-7244
ujur	-7245
▁Ann	-7246
▁Cek	-7247
▁KAB	-7248
▁Lum	-7249
▁cel	-7250
icial	-7251
ubung	-7252
▁Dian	-7253
▁Khan	-7254
▁Waktu	-7255
▁denda	-7256
enomena	-7257
▁Batang	-7258
▁Tempat	-7259
ilangkan	-7260
▁berlaga	-7261
▁kuliner	-7262
▁nutrisi	-7263
▁Kompleks	-7264
▁Bareskrim	-7265
▁reformasi	-7266
▁memfasilitasi	-7267
alk	-7268
ilat	-7269
▁Moj	-7270
▁Tas	-7271
▁bom	-7272
▁Hani	-7273
▁Iptu	-7274
▁Raih	-7275
▁medi	-7276
anggih	-7277
elapan	-7278
▁Benny	-7279
▁Willi	-7280
▁ganda	-7281
▁kisah	-7282
▁mikro	-7283
▁motif	-7284
▁konsul	-7285
▁kendala	-7286
▁pensiun	-7287
▁Jayapura	-7288
▁perempat	-7289
▁partainya	-7290
aia	-7291
pel	-7292
▁KTT	-7293
▁Let	-7294
▁PMI	-7295
▁est	-7296
▁Kuta	-7297
aptasi	-7298
▁Halil	-7299
alonkan	-7300
edulian	-7301
tifikat	-7302
▁itulah	-7303
▁seluas	-7304
▁derajat	-7305
iversitas	-7306
untungkan	-7307
▁Zelensky	-7308
▁Halilintar	-7309
▁mempengaruhi	-7310
OT	-7311
▁47	-7312
▁XX	-7313
Emil	-7314
ihal	-7315
▁Wat	-7316
▁anj	-7317
▁Bima	-7318
▁Mark	-7319
▁Irwan	-7320
abiskan	-7321
intangi	-7322
program	-7323
▁Cabang	-7324
▁Reformasi	-7325
▁menguasai	-7326
▁pemahaman	-7327
▁dievakuasi	-7328
▁menggandeng	-7329
nai	-7330
▁Lee	-7331
ayung	-7332
wujud	-7333
▁Form	-7334
▁Mits	-7335
▁Putu	-7336
edikasi	-7337
▁Pangarep	-7338
▁WhatsApp	-7339
▁terdekat	-7340
▁Kristiyanto	-7341
5/	-7342
:12	-7343
▁7,	-7344
emas	-7345
▁Tul	-7346
emium	-7347
▁Expo	-7348
usuhan	-7349
▁deras	-7350
alengka	-7351
▁karier	-7352
▁perahu	-7353
▁mandiri	-7354
▁Business	-7355
▁mengguyur	-7356
▁sambungnya	-7357
▁mencatatkan	-7358
▁mengonfirmasi	-7359
:17	-7360
▁ES	-7361
▁Lo	-7362
alek	-7363
ight	-7364
ikul	-7365
rana	-7366
▁bas	-7367
ealth	-7368
▁Asep	-7369
▁Bahr	-7370
▁Gede	-7371
▁Juta	-7372
▁Mall	-7373
▁baku	-7374
olakan	-7375
▁Risma	-7376
▁Teuku	-7377
▁album	-7378
▁bikin	-7379
▁manis	-7380
olidasi	-7381
▁Pratama	-7382
▁pelamar	-7383
▁2024/202	-7384
▁pengawas	-7385
▁pengacara	-7386
▁bermanfaat	-7387
▁Bhayangkara	-7388
:37	-7389
ody	-7390
tek	-7391
▁Ba	-7392
▁Do	-7393
▁Mi	-7394
alti	-7395
oksi	-7396
uban	-7397
▁pus	-7398
enial	-7399
▁Berl	-7400
▁Biro	-7401
UPATEN	-7402
▁Masuk	-7403
▁cerai	-7404
▁dewan	-7405
ampanye	-7406
erlukan	-7407
▁sebaik	-7408
eledahan	-7409
▁Merdeka	-7410
▁KABUPATEN	-7411
▁memerlukan	-7412
▁Alhamdulillah	-7413
:09	-7414
▁58	-7415
umbu	-7416
inggo	-7417
risti	-7418
▁ekst	-7419
▁Thomas	-7420
▁penger	-7421
▁tawuran	-7422
▁terkini	-7423
▁Misalnya	-7424
▁tembakan	-7425
▁ditangani	-7426
▁efisiensi	-7427
▁pengumuman	-7428
▁menghubungi	-7429
-79	-7430
:55	-7431
▁Gu	-7432
▁Manc	-7433
▁cita	-7434
timewa	-7435
▁Konser	-7436
▁kritis	-7437
▁Artinya	-7438
▁Istimewa	-7439
▁prajurit	-7440
▁pelecehan	-7441
▁membatalkan	-7442
▁silaturahmi	-7443
▁pertambangan	-7444
▁pemberantasan	-7445
yb	-7446
:59	-7447
fan	-7448
fri	-7449
nal	-7450
rus	-7451
inda	-7452
omod	-7453
ture	-7454
▁Jat	-7455
▁Red	-7456
▁Run	-7457
▁pra	-7458
▁2014	-7459
▁Port	-7460
▁Inter	-7461
▁Kuasa	-7462
▁Rutan	-7463
asarnas	-7464
etujuan	-7465
▁kurban	-7466
▁umumnya	-7467
▁terancam	-7468
▁Perumahan	-7469
▁mengklaim	-7470
:04	-7471
ogle	-7472
roho	-7473
sari	-7474
▁NTT	-7475
▁Ahli	-7476
▁Zain	-7477
▁sawit	-7478
arganya	-7479
ebarkan	-7480
ikopter	-7481
▁Edward	-7482
▁efisien	-7483
▁Pasuruan	-7484
▁otomotif	-7485
▁otoritas	-7486
▁terpisah	-7487
▁diperoleh	-7488
▁mekanisme	-7489
▁memudahkan	-7490
▁dimanfaatkan	-7491
ike	-7492
over	-7493
▁mor	-7494
▁rez	-7495
▁puas	-7496
▁Diper	-7497
▁Udara	-7498
▁buruh	-7499
▁modus	-7500
▁pemak	-7501
▁setia	-7502
erdasan	-7503
▁enggan	-7504
▁ruangan	-7505
▁berpikir	-7506
▁direktur	-7507
▁pinjaman	-7508
▁Pemenangan	-7509
▁melahirkan	-7510
▁universitas	-7511
:25	-7512
adik	-7513
isar	-7514
▁rum	-7515
onasi	-7516
▁Sore	-7517
▁lipat	-7518
intasan	-7519
▁Proyek	-7520
▁rentan	-7521
atangkan	-7522
▁Distrik	-7523
▁Ternyata	-7524
▁properti	-7525
▁keagamaan	-7526
▁penahanan	-7527
▁penutupan	-7528
▁memperhatikan	-7529
pu	-7530
▁no	-7531
ambo	-7532
andy	-7533
ling	-7534
usul	-7535
▁Chi	-7536
▁Riv	-7537
▁Jemb	-7538
▁Uang	-7539
ilitas	-7540
malkan	-7541
▁mahal	-7542
▁padat	-7543
▁dingin	-7544
Muhaimin	-7545
arapidana	-7546
▁aparatur	-7547
▁populasi	-7548
aperadilan	-7549
▁Kendaraan	-7550
▁menyetujui	-7551
▁demonstrasi	-7552
▁Plt	-7553
ihkan	-7554
ompet	-7555
▁match	-7556
▁Basuki	-7557
▁dialog	-7558
▁Santoso	-7559
▁ayahnya	-7560
eberangan	-7561
▁Trenggalek	-7562
▁berpendapat	-7563
▁memperingati	-7564
▁ex	-7565
Dari	-7566
itif	-7567
▁Fik	-7568
▁Ver	-7569
iskin	-7570
minya	-7571
▁Buka	-7572
▁Ratu	-7573
▁etik	-7574
atuhan	-7575
ebunan	-7576
▁betul	-7577
▁caleg	-7578
▁Achmad	-7579
▁Commun	-7580
▁agresi	-7581
▁markas	-7582
▁memuji	-7583
angkitan	-7584
▁Sumatra	-7585
▁Jembrana	-7586
▁perbankan	-7587
▁responden	-7588
▁mengerahkan	-7589
-16	-7590
:08	-7591
▁'.	-7592
▁IN	-7593
▁pi	-7594
Saat	-7595
essi	-7596
olly	-7597
▁400	-7598
▁Kir	-7599
▁say	-7600
▁Cent	-7601
▁Heru	-7602
iarkan	-7603
sekusi	-7604
▁Teluk	-7605
▁Google	-7606
▁Kamala	-7607
▁apapun	-7608
untaskan	-7609
▁mencuri	-7610
▁Terlebih	-7611
▁beasiswa	-7612
▁festival	-7613
▁tepatnya	-7614
▁dirasakan	-7615
▁menderita	-7616
▁rombongan	-7617
▁menjatuhkan	-7618
▁?"	-7619
▁by	-7620
apur	-7621
▁Gil	-7622
▁Jen	-7623
▁Plus	-7624
▁Rudy	-7625
▁lari	-7626
ention	-7627
bolinggo	-7628
▁Nugroho	-7629
▁waspada	-7630
▁ditambah	-7631
▁resminya	-7632
▁Pekerjaan	-7633
▁penambahan	-7634
▁pergerakan	-7635
▁mengembalikan	-7636
OS	-7637
:38	-7638
▁Es	-7639
▁Iz	-7640
agar	-7641
esor	-7642
lima	-7643
▁BTN	-7644
▁Jer	-7645
▁Char	-7646
▁psik	-7647
ikator	-7648
▁Solid	-7649
▁Ulama	-7650
▁beber	-7651
▁asuhan	-7652
▁invasi	-7653
▁kedaul	-7654
▁sesama	-7655
erdayaan	-7656
▁memegang	-7657
▁disiapkan	-7658
▁kedaulatan	-7659
▁kepedulian	-7660
▁Probolinggo	-7661
▁membeberkan	-7662
-8	-7663
ado	-7664
les	-7665
▁MS	-7666
▁Ty	-7667
arja	-7668
▁Abd	-7669
▁Cap	-7670
▁WNI	-7671
▁jer	-7672
kapai	-7673
ondon	-7674
▁Eksp	-7675
▁Madi	-7676
▁Green	-7677
▁Tanpa	-7678
▁emosi	-7679
▁nyawa	-7680
besaran	-7681
▁Kereta	-7682
▁Seusai	-7683
▁berunt	-7684
▁pendek	-7685
▁Brigjen	-7686
▁lebaran	-7687
ras	-7688
▁mu	-7689
roni	-7690
▁Pop	-7691
▁bib	-7692
▁Conv	-7693
▁Elek	-7694
▁Lagi	-7695
▁Teco	-7696
▁kabur	-7697
▁kelima	-7698
▁tulang	-7699
▁mengecam	-7700
▁tetangga	-7701
▁pembinaan	-7702
▁Selebritas	-7703
▁dijalankan	-7704
3)	-7705
:34	-7706
NAS	-7707
ome	-7708
▁42	-7709
▁Arg	-7710
▁Luk	-7711
mawan	-7712
▁ruas	-7713
ayoran	-7714
yakini	-7715
▁Ferry	-7716
▁Sudir	-7717
▁cocok	-7718
▁siber	-7719
uksesan	-7720
estarian	-7721
▁Cahyadi	-7722
▁relawan	-7723
▁material	-7724
▁mengecek	-7725
▁pengamat	-7726
▁disebutkan	-7727
▁Dokumentasi	-7728
▁pemberdayaan	-7729
BD	-7730
car	-7731
ich	-7732
able	-7733
amso	-7734
ebak	-7735
▁Jaz	-7736
acana	-7737
aring	-7738
▁Shop	-7739
▁Tour	-7740
▁otak	-7741
▁Darat	-7742
arankan	-7743
atistik	-7744
▁London	-7745
▁menduga	-7746
▁bertanya	-7747
▁undangan	-7748
▁Zelenskyy	-7749
▁negaranya	-7750
IK	-7751
:32	-7752
usn	-7753
apas	-7754
▁Wir	-7755
▁lan	-7756
linik	-7757
naker	-7758
▁kaum	-7759
▁berhak	-7760
▁Development	-7761
:36	-7762
▁EV	-7763
atta	-7764
▁CSR	-7765
▁EUR	-7766
▁Lah	-7767
▁Ray	-7768
▁Tom	-7769
jukan	-7770
▁Ward	-7771
▁daun	-7772
ations	-7773
daftar	-7774
▁Cagub	-7775
▁Pener	-7776
▁organ	-7777
aftaran	-7778
uarakan	-7779
▁Dorong	-7780
▁Kampus	-7781
▁Madiun	-7782
▁jarang	-7783
▁kontak	-7784
▁analisis	-7785
▁Komunitas	-7786
▁membenarkan	-7787
▁menghabiskan	-7788
▁penyelesaian	-7789
IC	-7790
PH	-7791
sy	-7792
sar	-7793
▁99	-7794
▁To	-7795
asif	-7796
zuki	-7797
▁boc	-7798
▁Serv	-7799
▁2024:	-7800
▁Arena	-7801
▁seder	-7802
Pilkada	-7803
▁Fatoni	-7804
▁Sandra	-7805
▁angkat	-7806
/11/2024)	-7807
▁ditujukan	-7808
▁kemitraan	-7809
▁bergantung	-7810
▁perlawanan	-7811
▁Pendaftaran	-7812
:06	-7813
▁fin	-7814
unian	-7815
▁Franc	-7816
▁cinta	-7817
▁Harvey	-7818
▁tempur	-7819
▁Putusan	-7820
▁dituduh	-7821
▁Penyidik	-7822
▁dikatakan	-7823
▁Pemasyarakatan	-7824
1.	-7825
▁Ec	-7826
▁Ra	-7827
anam	-7828
▁She	-7829
▁Duta	-7830
▁Kang	-7831
▁Ketu	-7832
▁Ungg	-7833
▁kerj	-7834
▁pred	-7835
▁nasib	-7836
elajari	-7837
▁Budaya	-7838
▁Menang	-7839
ilateral	-7840
▁tegasnya	-7841
▁komersial	-7842
▁jabatannya	-7843
▁mengizinkan	-7844
▁penyelundupan	-7845
LHK	-7846
but	-7847
esm	-7848
pes	-7849
▁56	-7850
ZNAS	-7851
uluk	-7852
▁Hij	-7853
ornia	-7854
otret	-7855
uriga	-7856
▁Best	-7857
▁gemb	-7858
▁upah	-7859
ehabil	-7860
▁Bobby	-7861
▁Calif	-7862
▁macam	-7863
▁Wijaya	-7864
enangkan	-7865
▁liburan	-7866
▁memaksa	-7867
▁rahasia	-7868
▁sorotan	-7869
▁Mapolres	-7870
▁tertutup	-7871
▁Mojokerto	-7872
▁Pesantren	-7873
▁pendanaan	-7874
▁diplomatik	-7875
▁ketertiban	-7876
▁mendeklarasikan	-7877
Seb	-7878
Sek	-7879
ipa	-7880
▁mi	-7881
avor	-7882
otol	-7883
▁rev	-7884
aribu	-7885
▁Aktor	-7886
▁Yasin	-7887
▁hamil	-7888
▁Goront	-7889
▁Kejari	-7890
▁Kejati	-7891
▁harian	-7892
timalkan	-7893
▁dipakai	-7894
▁federal	-7895
▁stadion	-7896
▁Pasaribu	-7897
▁berkuasa	-7898
▁cawapres	-7899
▁komponen	-7900
▁pembalap	-7901
▁President	-7902
▁pangkalan	-7903
▁California	-7904
PL	-7905
eld	-7906
▁BE	-7907
enya	-7908
epsi	-7909
ongi	-7910
▁Kod	-7911
ative	-7912
edang	-7913
▁EURO	-7914
▁Noor	-7915
▁Karim	-7916
▁Ricis	-7917
▁Tangg	-7918
▁etika	-7919
▁Nyoman	-7920
▁revisi	-7921
undurkan	-7922
▁Kemenag	-7923
▁kandung	-7924
▁kekasih	-7925
▁menimpa	-7926
▁Pramella	-7927
▁intensif	-7928
aksimalkan	-7929
perusahaan	-7930
▁Gorontalo	-7931
▁destinasi	-7932
ehabilitasi	-7933
▁pembahasan	-7934
:11	-7935
:53	-7936
gen	-7937
▁RW	-7938
edah	-7939
▁Hen	-7940
▁Won	-7941
▁Kata	-7942
▁tend	-7943
EMBANG	-7944
entina	-7945
▁Bagus	-7946
▁Damai	-7947
unduran	-7948
▁Gratis	-7949
▁Wibowo	-7950
▁hangat	-7951
▁mengan	-7952
▁peduli	-7953
▁pendiri	-7954
▁Termasuk	-7955
▁mendirikan	-7956
▁diterbitkan	-7957
▁memperjuangkan	-7958
:47	-7959
vok	-7960
▁46	-7961
▁RK	-7962
IIAS	-7963
osis	-7964
▁Bab	-7965
▁Jos	-7966
ition	-7967
▁PBNU	-7968
abetes	-7969
ingkus	-7970
otanya	-7971
▁membatasi	-7972
▁terkemuka	-7973
▁klarifikasi	-7974
10	-7975
LI	-7976
rul	-7977
tiar	-7978
tice	-7979
trol	-7980
urna	-7981
▁Fac	-7982
▁etn	-7983
▁tek	-7984
adium	-7985
▁Sari	-7986
▁Tito	-7987
gagung	-7988
▁Siapa	-7989
▁Suami	-7990
▁ambil	-7991
▁bapak	-7992
▁timah	-7993
▁Wapres	-7994
▁terasa	-7995
engarkan	-7996
▁Makanan	-7997
▁Teheran	-7998
▁masukan	-7999
▁diyakini	-8000
▁PALEMBANG	-8001
▁dibebaskan	-8002
▁mencalonkan	-8003
▁pemanfaatan	-8004
▁sertifikasi	-8005
▁pembelajaran	-8006
BB	-8007
RWA	-8008
hum	-8009
isu	-8010
▁5.	-8011
▁SA	-8012
▁Wi	-8013
rian	-8014
ariat	-8015
awati	-8016
ehold	-8017
jamin	-8018
▁Simp	-8019
▁kaca	-8020
▁kant	-8021
▁sari	-8022
intasi	-8023
▁Ruben	-8024
▁Tetap	-8025
▁Yaman	-8026
▁berak	-8027
▁paksa	-8028
engahan	-8029
epankan	-8030
eringan	-8031
onologi	-8032
▁pencab	-8033
▁tersisa	-8034
▁simulasi	-8035
▁berfungsi	-8036
tok	-8037
emik	-8038
▁Col	-8039
▁gej	-8040
ampau	-8041
▁Bers	-8042
▁Cara	-8043
▁game	-8044
inting	-8045
▁Pesan	-8046
▁Tulun	-8047
▁wadah	-8048
▁banten	-8049
▁capaian	-8050
▁ketingg	-8051
▁konteks	-8052
/10/2024)	-8053
▁utamanya	-8054
▁Komisaris	-8055
▁terdaftar	-8056
▁Koordinasi	-8057
▁kecerdasan	-8058
SP	-8059
▁Gh	-8060
▁UI	-8061
▁Reg	-8062
▁Anti	-8063
▁temp	-8064
ubsidi	-8065
utanan	-8066
▁Denny	-8067
▁Ponor	-8068
▁pilot	-8069
▁Bangka	-8070
▁detail	-8071
cawapres	-8072
▁Bahrain	-8073
▁Maulana	-8074
▁dakwaan	-8075
▁Terminal	-8076
▁ditembak	-8077
▁tembakau	-8078
▁berlokasi	-8079
▁Peringatan	-8080
▁Tulungagung	-8081
yl	-8082
▁49	-8083
▁Hi	-8084
ardo	-8085
▁bak	-8086
ancur	-8087
posal	-8088
▁ISIS	-8089
atinya	-8090
ladesh	-8091
▁Aditya	-8092
▁Andrew	-8093
▁Online	-8094
eriahkan	-8095
▁Penyakit	-8096
▁Ponorogo	-8097
▁mengutip	-8098
▁Marketing	-8099
▁terangnya	-8100
▁Bangladesh	-8101
▁narapidana	-8102
eis	-8103
luka	-8104
▁Tau	-8105
▁Val	-8106
▁isi	-8107
▁suci	-8108
amsoet	-8109
▁Dapat	-8110
▁banget	-8111
▁berter	-8112
▁kajian	-8113
▁Tingkat	-8114
▁bahagia	-8115
▁panitia	-8116
ersediaan	-8117
▁memaparkan	-8118
▁meresmikan	-8119
▁terjangkau	-8120
:48	-8121
▁57	-8122
▁76	-8123
▁88	-8124
▁Xi	-8125
asit	-8126
udit	-8127
▁Bro	-8128
itual	-8129
▁besi	-8130
▁duka	-8131
acetan	-8132
▁Debat	-8133
▁Pajak	-8134
akehold	-8135
▁disita	-8136
▁gunung	-8137
▁sapaan	-8138
▁berlebihan	-8139
▁mengejutkan	-8140
▁tertulisnya	-8141
ght	-8142
enep	-8143
port	-8144
▁Lagu	-8145
▁Menc	-8146
▁Tamb	-8147
Jateng	-8148
arinda	-8149
▁Apple	-8150
▁Jawab	-8151
ambilan	-8152
▁Dharma	-8153
▁Kompet	-8154
▁artinya	-8155
▁penalti	-8156
▁Kuningan	-8157
▁politisi	-8158
▁Samarinda	-8159
▁banyaknya	-8160
▁Penyelenggara	-8161
yaw	-8162
PPPK	-8163
ekam	-8164
▁1,5	-8165
▁LPG	-8166
▁Tam	-8167
▁Tra	-8168
▁hor	-8169
▁keg	-8170
istyo	-8171
▁Berh	-8172
▁Ivan	-8173
▁Life	-8174
▁blok	-8175
▁Banda	-8176
▁Water	-8177
Setelah	-8178
▁Sumenep	-8179
▁canggih	-8180
▁delegasi	-8181
▁Bangkalan	-8182
▁bersamaan	-8183
▁menaikkan	-8184
▁investigasi	-8185
cu	-8186
:21	-8187
eku	-8188
▁98	-8189
▁Ry	-8190
Yang	-8191
▁Luh	-8192
▁PON	-8193
▁gem	-8194
▁vol	-8195
umput	-8196
urnal	-8197
▁Laks	-8198
▁visa	-8199
awagub	-8200
▁Angel	-8201
▁Pecco	-8202
ancaran	-8203
unungan	-8204
▁kamera	-8205
▁Benjamin	-8206
▁Majalengka	-8207
▁mempertanyakan	-8208
SM	-8209
YL	-8210
:14	-8211
▁Gag	-8212
▁Jun	-8213
bondo	-8214
padai	-8215
▁Lemb	-8216
▁Semb	-8217
eransi	-8218
▁Agust	-8219
▁ditaw	-8220
gagalan	-8221
▁gereja	-8222
▁Jembatan	-8223
▁menyebar	-8224
▁mendalami	-8225
▁mengakses	-8226
▁pemadaman	-8227
▁penyaluran	-8228
▁pertamanya	-8229
▁sambutannya	-8230
ahe	-8231
dik	-8232
reh	-8233
▁Yos	-8234
▁aut	-8235
▁cek	-8236
okter	-8237
ucing	-8238
▁Dito	-8239
▁Fest	-8240
▁diam	-8241
adiran	-8242
ubishi	-8243
▁Semoga	-8244
▁menguat	-8245
▁Menengah	-8246
▁Sekarang	-8247
▁angkutan	-8248
▁mengenal	-8249
▁Situbondo	-8250
▁menempati	-8251
▁Bojonegoro	-8252
▁netralitas	-8253
▁berkampanye	-8254
▁pengungkapan	-8255
akui	-8256
arak	-8257
▁Das	-8258
▁but	-8259
▁sir	-8260
▁Susi	-8261
▁Tepi	-8262
ejarah	-8263
▁Antam	-8264
▁Bella	-8265
▁kebun	-8266
atorium	-8267
injauan	-8268
▁diraih	-8269
▁meluas	-8270
▁warung	-8271
▁Peserta	-8272
▁Selamat	-8273
▁kendali	-8274
▁melepas	-8275
▁promosi	-8276
▁pungkas	-8277
atifikasi	-8278
▁Berbagai	-8279
▁persatuan	-8280
▁Convention	-8281
▁Kemendagri	-8282
▁Kolaborasi	-8283
▁rencananya	-8284
▁menerbitkan	-8285
▁berkomunikasi	-8286
▁penggeledahan	-8287
Ar	-8288
:49	-8289
BRI	-8290
Itu	-8291
angd	-8292
ping	-8293
▁sih	-8294
▁APBN	-8295
▁asam	-8296
▁elit	-8297
nahkan	-8298
▁Ramad	-8299
▁kepad	-8300
▁lingk	-8301
ikirkan	-8302
▁Dugaan	-8303
▁SERANG	-8304
▁otomat	-8305
▁seraya	-8306
▁Mulyadi	-8307
▁Panitia	-8308
▁Sudjana	-8309
▁aliansi	-8310
▁Prasetyo	-8311
▁penemuan	-8312
▁Argentina	-8313
▁kelaparan	-8314
▁pengangkatan	-8315
▁menguntungkan	-8316
oj	-8317
:13	-8318
aro	-8319
pam	-8320
ulia	-8321
▁Cov	-8322
▁Fah	-8323
ahari	-8324
anduk	-8325
▁Mbak	-8326
▁biru	-8327
▁kode	-8328
▁port	-8329
▁Lebak	-8330
akinkan	-8331
ersihkan	-8332
▁jawaban	-8333
▁Gabungan	-8334
▁Otoritas	-8335
▁Mitsubishi	-8336
▁dikonsumsi	-8337
▁melepaskan	-8338
▁pengecekan	-8339
▁Sukarelawan	-8340
19	-8341
zil	-8342
Pada	-8343
ashi	-8344
▁TPP	-8345
▁cer	-8346
jawab	-8347
▁Insp	-8348
▁Kyiv	-8349
▁badai	-8350
▁halal	-8351
▁minat	-8352
▁unjuk	-8353
empurna	-8354
▁Bandar	-8355
▁Gereja	-8356
▁Sampai	-8357
▁membah	-8358
▁ucapan	-8359
▁Dirinya	-8360
▁Stadium	-8361
▁mempers	-8362
rakirakan	-8363
▁imigrasi	-8364
▁pertengahan	-8365
▁pertunjukan	-8366
▁keterampilan	-8367
▁menghilangkan	-8368
2)	-8369
BL	-8370
KT	-8371
gn	-8372
▁#	-8373
:52	-8374
laim	-8375
onya	-8376
▁Eka	-8377
▁Bagn	-8378
▁erat	-8379
ilikan	-8380
▁Sudar	-8381
▁diber	-8382
▁edisi	-8383
▁ramai	-8384
oblosan	-8385
▁taktik	-8386
imigrasi	-8387
▁Bagnaia	-8388
▁Masalah	-8389
▁Serdang	-8390
▁Kejagung	-8391
▁mengeksp	-8392
▁restoran	-8393
▁menantang	-8394
:57	-8395
Mer	-8396
▁BI	-8397
ario	-8398
evan	-8399
▁Edi	-8400
▁Ses	-8401
awali	-8402
▁Eman	-8403
Mereka	-8404
▁Bamsoet	-8405
▁kantong	-8406
▁Institut	-8407
▁Personel	-8408
▁permukaan	-8409
▁percepatan	-8410
▁mengundurkan	-8411
15	-8412
afe	-8413
bek	-8414
own	-8415
ser	-8416
▁65	-8417
▁IM	-8418
adha	-8419
awar	-8420
enta	-8421
olong	-8422
yeksi	-8423
▁Baim	-8424
anaman	-8425
▁Dusun	-8426
▁Moeis	-8427
▁Tegal	-8428
▁diisi	-8429
mudahan	-8430
▁Daniel	-8431
▁Christi	-8432
▁tangkis	-8433
▁akademisi	-8434
▁bertepatan	-8435
▁kelancaran	-8436
▁selebritas	-8437
▁diselesaikan	-8438
▁ketersediaan	-8439
▁praperadilan	-8440
▁53	-8441
▁Nu	-8442
▁do	-8443
▁Jus	-8444
▁Lim	-8445
Polri	-8446
ehkan	-8447
angdut	-8448
uluhan	-8449
vokasi	-8450
▁kadar	-8451
▁Transp	-8452
▁Pasifik	-8453
▁Syariah	-8454
▁menjamu	-8455
▁penyimp	-8456
optimalkan	-8457
▁2024-2029	-8458
▁dikenakan	-8459
▁intervensi	-8460
▁perpanjangan	-8461
ebo	-8462
ene	-8463
uba	-8464
▁Fed	-8465
▁Sug	-8466
amaha	-8467
orban	-8468
phone	-8469
▁seng	-8470
▁tiap	-8471
▁Simak	-8472
▁insen	-8473
▁intim	-8474
▁jasad	-8475
▁kakak	-8476
rehensif	-8477
▁Seleksi	-8478
▁Tabanan	-8479
▁penolakan	-8480
▁kecantikan	-8481
▁pemenangan	-8482
▁persetujuan	-8483
YD	-8484
las	-8485
▁kg	-8486
Jika	-8487
ergy	-8488
mark	-8489
apati	-8490
▁Kris	-8491
▁Dapil	-8492
▁UNRWA	-8493
▁etnis	-8494
▁pleno	-8495
masalah	-8496
▁Diduga	-8497
▁Yamaha	-8498
▁hunian	-8499
▁mengal	-8500
engkapan	-8501
▁Pemilih	-8502
▁koleksi	-8503
▁Hasilnya	-8504
▁Polandia	-8505
▁insentif	-8506
▁berjumlah	-8507
▁kesuksesan	-8508
▁melengkapi	-8509
▁mengkritik	-8510
▁pengurangan	-8511
▁dikembangkan	-8512
17	-8513
BN	-8514
:22	-8515
nak	-8516
yim	-8517
dani	-8518
ecat	-8519
riah	-8520
▁Bos	-8521
▁MAL	-8522
▁Indo	-8523
▁Yudh	-8524
▁suap	-8525
indung	-8526
▁2.000	-8527
▁Covid	-8528
▁Depan	-8529
▁Malik	-8530
narkoba	-8531
▁Health	-8532
▁Manahan	-8533
▁berlatih	-8534
▁bertekad	-8535
▁menembus	-8536
▁mengejar	-8537
▁motivasi	-8538
▁perasaan	-8539
▁berterima	-8540
▁menyuarakan	-8541
▁digitalisasi	-8542
ED	-8543
:16	-8544
rint	-8545
▁Rem	-8546
▁THR	-8547
▁Ayah	-8548
▁Show	-8549
▁gigi	-8550
irahat	-8551
▁dapur	-8552
▁segar	-8553
▁tanya	-8554
▁Arifin	-8555
▁bansos	-8556
▁bioskop	-8557
▁Basarnas	-8558
▁memasang	-8559
imigrasian	-8560
▁Pelatihan	-8561
▁melintasi	-8562
▁berkendara	-8563
▁menerangkan	-8564
▁menjanjikan	-8565
:27	-8566
:43	-8567
ild	-8568
gawi	-8569
oter	-8570
▁Ars	-8571
▁Lab	-8572
▁Ted	-8573
▁por	-8574
erdas	-8575
ustom	-8576
▁Mars	-8577
esmian	-8578
▁melem	-8579
▁pecah	-8580
▁saing	-8581
▁taman	-8582
ebutkan	-8583
impunan	-8584
▁Miliar	-8585
▁kripto	-8586
▁Raharja	-8587
▁Sahroni	-8588
▁Terbaru	-8589
▁bertema	-8590
▁kontrov	-8591
▁inklusif	-8592
▁menempuh	-8593
▁jumlahnya	-8594
▁mematikan	-8595
CO	-8596
:26	-8597
:28	-8598
:58	-8599
▁Fl	-8600
▁GI	-8601
▁RA	-8602
elat	-8603
▁DPW	-8604
▁SIM	-8605
▁SPB	-8606
eroan	-8607
▁Pari	-8608
▁opsi	-8609
aksasa	-8610
eraian	-8611
▁2021.	-8612
▁Nilai	-8613
okteran	-8614
tainment	-8615
▁Persita	-8616
▁menyasar	-8617
▁tingginya	-8618
▁helikopter	-8619
▁produktivitas	-8620
UL	-8621
pem	-8622
pen	-8623
ical	-8624
igur	-8625
▁Haf	-8626
▁fit	-8627
▁gor	-8628
▁pec	-8629
▁voli	-8630
▁Silva	-8631
▁kimia	-8632
▁Begitu	-8633
▁Hasyim	-8634
▁Sejauh	-8635
angguran	-8636
▁Ginting	-8637
▁artikel	-8638
▁membaca	-8639
▁fenomena	-8640
▁resolusi	-8641
▁eksekutif	-8642
▁ditentukan	-8643
▁membebaskan	-8644
▁komprehensif	-8645
,7	-8646
:51	-8647
Ter	-8648
▁Et	-8649
auan	-8650
awak	-8651
▁Lem	-8652
▁Ras	-8653
▁jet	-8654
engsi	-8655
pihak	-8656
▁Kiai	-8657
▁Final	-8658
▁Ketut	-8659
▁vonis	-8660
epakati	-8661
▁Master	-8662
▁Satria	-8663
▁ibunya	-8664
▁Iduladha	-8665
▁dinamika	-8666
▁Ditangkap	-8667
▁menampung	-8668
▁menduduki	-8669
▁sertifikat	-8670
sk	-8671
:24	-8672
hon	-8673
ism	-8674
osp	-8675
azar	-8676
mara	-8677
sela	-8678
▁ban	-8679
argai	-8680
artal	-8681
asari	-8682
asiat	-8683
▁Mach	-8684
inergi	-8685
landia	-8686
radara	-8687
▁Assoc	-8688
▁Boyol	-8689
▁botol	-8690
▁bungk	-8691
▁hancur	-8692
▁kecewa	-8693
▁kenapa	-8694
▁Senjata	-8695
▁melukai	-8696
▁Akhirnya	-8697
▁National	-8698
▁disetujui	-8699
▁stakehold	-8700
▁Konferensi	-8701
▁Satreskrim	-8702
▁Solidaritas	-8703
▁pengambilan	-8704
sun	-8705
▁6.	-8706
▁PG	-8707
egon	-8708
ject	-8709
▁Sad	-8710
▁deb	-8711
inisi	-8712
▁Onsu	-8713
ugerah	-8714
▁Mulia	-8715
▁Sumar	-8716
▁hilir	-8717
▁promo	-8718
▁rezim	-8719
▁Antoni	-8720
▁amanah	-8721
▁mengut	-8722
▁Komandan	-8723
▁Lumajang	-8724
▁proposal	-8725
▁sederhana	-8726
▁mendengarkan	-8727
IKN	-8728
▁DC	-8729
▁Rad	-8730
▁Fair	-8731
▁Perg	-8732
▁Astra	-8733
▁Jalak	-8734
▁Rizal	-8735
▁Timor	-8736
▁Tuhan	-8737
▁salat	-8738
▁zaman	-8739
▁Kepada	-8740
▁bersikap	-8741
▁diabetes	-8742
▁Pengawasan	-8743
▁penyediaan	-8744
US	-8745
:54	-8746
dit	-8747
lic	-8748
onc	-8749
ruf	-8750
▁7.	-8751
▁DJ	-8752
imir	-8753
▁KPP	-8754
▁ref	-8755
lakan	-8756
tarik	-8757
▁Siak	-8758
avorit	-8759
eaming	-8760
olding	-8761
ologis	-8762
▁2024)	-8763
▁Saleh	-8764
▁basis	-8765
▁benda	-8766
▁telak	-8767
estinya	-8768
▁Target	-8769
▁satuan	-8770
▁bersatu	-8771
▁merawat	-8772
▁warisan	-8773
▁Logistik	-8774
▁terwujud	-8775
▁produktif	-8776
▁meyakinkan	-8777
▁pendampingan	-8778
▁mengedepankan	-8779
oth	-8780
tug	-8781
▁54	-8782
▁PR	-8783
mail	-8784
ning	-8785
▁AHY	-8786
waktu	-8787
▁Ayat	-8788
▁Elec	-8789
▁Vlad	-8790
ajakan	-8791
ampang	-8792
▁dikar	-8793
usnahan	-8794
▁armada	-8795
▁dibantu	-8796
▁premium	-8797
▁cadangan	-8798
▁didorong	-8799
▁penyedia	-8800
▁petahana	-8801
▁kemacetan	-8802
▁mendekati	-8803
▁perumahan	-8804
▁pendukungnya	-8805
-17	-8806
▁KI	-8807
▁PH	-8808
▁ir	-8809
TARA	-8810
agen	-8811
isit	-8812
▁Bra	-8813
▁Lam	-8814
▁Rac	-8815
ajaan	-8816
egram	-8817
tanya	-8818
ujian	-8819
▁Comp	-8820
▁nasi	-8821
ampaui	-8822
ulukan	-8823
▁Buruh	-8824
▁Dasar	-8825
▁umrah	-8826
▁virus	-8827
▁wajar	-8828
turunan	-8829
▁diklaim	-8830
▁padahal	-8831
▁berisiko	-8832
▁otomatis	-8833
▁ditawarkan	-8834
▁komitmennya	-8835
▁mempelajari	-8836
▁Administrasi	-8837
▁penandatanganan	-8838
BA	-8839
DS	-8840
▁u	-8841
-13	-8842
ica	-8843
▁68	-8844
ufak	-8845
▁Gam	-8846
▁KKB	-8847
Dalam	-8848
ambar	-8849
▁Asal	-8850
▁Live	-8851
▁apel	-8852
ayangan	-8853
▁volume	-8854
eskalasi	-8855
▁Tentara	-8856
▁dalamnya	-8857
▁hukumnya	-8858
▁maskapai	-8859
▁didirikan	-8860
▁Tingkatkan	-8861
▁mengunggah	-8862
▁pemantauan	-8863
▁konsolidasi	-8864
:41	-8865
abe	-8866
igh	-8867
vel	-8868
▁Tw	-8869
▁Zh	-8870
▁XXI	-8871
ormat	-8872
▁Duel	-8873
erbang	-8874
▁Tessa	-8875
amerkan	-8876
endarai	-8877
ufaktur	-8878
▁begini	-8879
▁petern	-8880
/9/2024)	-8881
entangan	-8882
▁Harupat	-8883
▁Hijriah	-8884
▁asuhnya	-8885
▁Boyolali	-8886
▁Jaringan	-8887
▁Nasution	-8888
▁Vladimir	-8889
▁Ditreskrim	-8890
▁kekeringan	-8891
▁menyinggung	-8892
▁Pertandingan	-8893
▁mengendalikan	-8894
eck	-8895
sit	-8896
▁73	-8897
atal	-8898
hard	-8899
imob	-8900
izen	-8901
sius	-8902
▁Alf	-8903
▁Der	-8904
▁Dom	-8905
▁Gas	-8906
ullah	-8907
▁Heri	-8908
▁Nahd	-8909
▁Ngawi	-8910
▁lomba	-8911
anaknya	-8912
ifikasi	-8913
▁Listyo	-8914
▁Swedia	-8915
▁alumni	-8916
▁miskin	-8917
▁teknik	-8918
▁Manfaat	-8919
▁Panglima	-8920
▁dibentuk	-8921
▁Kunjungan	-8922
▁Pembunuhan	-8923
▁disediakan	-8924
▁direncanakan	-8925
▁menggagalkan	-8926
▁67	-8927
▁GOR	-8928
▁Non	-8929
▁mit	-8930
ayasa	-8931
emani	-8932
esuai	-8933
manto	-8934
wanto	-8935
▁Jati	-8936
ektual	-8937
▁Perlu	-8938
▁musuh	-8939
▁tunai	-8940
arganet	-8941
▁BAZNAS	-8942
▁muslim	-8943
▁urutan	-8944
▁Mungkin	-8945
▁diakses	-8946
▁menelan	-8947
▁penulis	-8948
▁berharga	-8949
▁eksklusif	-8950
▁Menanggapi	-8951
▁mengantongi	-8952
jb	-8953
:18	-8954
:44	-8955
▁Gl	-8956
▁Beb	-8957
ormas	-8958
▁APBD	-8959
▁hand	-8960
▁niat	-8961
▁seru	-8962
alenta	-8963
▁Mabes	-8964
▁Mengg	-8965
▁lampu	-8966
▁sifat	-8967
omodasi	-8968
yakinan	-8969
▁Portug	-8970
▁Segera	-8971
evaluasi	-8972
unjangan	-8973
▁Pesawat	-8974
▁Strategi	-8975
▁bergulir	-8976
▁bertahap	-8977
▁Kehadiran	-8978
▁Foundation	-8979
▁Pengelolaan	-8980
▁Peningkatan	-8981
▁penyeberangan	-8982
iru	-8983
oha	-8984
▁HI	-8985
▁IT	-8986
▁Om	-8987
ange	-8988
erly	-8989
icer	-8990
▁Est	-8991
▁Gat	-8992
▁Gug	-8993
engku	-8994
omasi	-8995
ucian	-8996
wansa	-8997
▁Kand	-8998
aining	-8999
alasan	-9000
enaran	-9001
▁Amran	-9002
▁Indar	-9003
▁kawan	-9004
▁kiper	-9005
▁masif	-9006
▁memul	-9007
▁paham	-9008
olehkan	-9009
▁gender	-9010
▁kelapa	-9011
▁Aliansi	-9012
▁Terbaik	-9013
▁berpeng	-9014
▁relevan	-9015
eliharaan	-9016
▁Penyebab	-9017
▁dipenuhi	-9018
▁berkurang	-9019
▁spesialis	-9020
▁Management	-9021
▁bersejarah	-9022
▁membongkar	-9023
▁dideportasi	-9024
▁membahayakan	-9025
▁membersihkan	-9026
4)	-9027
yn	-9028
:19	-9029
KAN	-9030
Sus	-9031
bas	-9032
dam	-9033
▁Ef	-9034
▁IP	-9035
▁MU	-9036
adel	-9037
hika	-9038
▁Rec	-9039
▁Ren	-9040
▁Chief	-9041
▁hebat	-9042
▁ideal	-9043
▁perut	-9044
esuaian	-9045
▁Inform	-9046
▁Secret	-9047
▁persnya	-9048
▁dimintai	-9049
▁mematuhi	-9050
▁milenial	-9051
▁penyanyi	-9052
▁transfer	-9053
▁terpidana	-9054
▁dibintangi	-9055
▁menyeluruh	-9056
▁sekelompok	-9057
16	-9058
:42	-9059
▁KS	-9060
edua	-9061
pool	-9062
▁2,5	-9063
▁Gan	-9064
▁Pek	-9065
▁Ret	-9066
▁Auto	-9067
▁Lama	-9068
▁Naik	-9069
ashion	-9070
esahan	-9071
▁2021,	-9072
▁Ameri	-9073
▁Citra	-9074
▁Ingin	-9075
▁menak	-9076
alihkan	-9077
ekuensi	-9078
ication	-9079
yangkan	-9080
▁Inilah	-9081
▁merata	-9082
▁narasi	-9083
▁rantai	-9084
aftarkan	-9085
ublikasi	-9086
ubungkan	-9087
▁Federal	-9088
▁General	-9089
▁Kreatif	-9090
▁Sumedang	-9091
▁kliennya	-9092
▁membakar	-9093
▁tertarik	-9094
▁keturunan	-9095
▁mendaftarkan	-9096
▁terintegrasi	-9097
:23	-9098
iro	-9099
lek	-9100
ley	-9101
▁8,	-9102
▁BM	-9103
▁af	-9104
▁800	-9105
▁Rel	-9106
erbal	-9107
▁Week	-9108
▁dius	-9109
▁kubu	-9110
▁Manch	-9111
▁Sekda	-9112
▁Tentu	-9113
▁mirip	-9114
▁moral	-9115
▁Memper	-9116
▁Subang	-9117
sistensi	-9118
angkatkan	-9119
▁Kejadian	-9120
▁beragama	-9121
▁pemegang	-9122
▁Sejahtera	-9123
▁pengganti	-9124
▁memasukkan	-9125
▁ditingkatkan	-9126
▁ditandatangani	-9127
DC	-9128
:39	-9129
:46	-9130
day	-9131
eki	-9132
nur	-9133
▁My	-9134
▁Uz	-9135
lokir	-9136
ology	-9137
rihat	-9138
▁sing	-9139
▁Andri	-9140
▁Kulon	-9141
▁seper	-9142
▁telur	-9143
▁Rahman	-9144
▁diakui	-9145
▁kering	-9146
▁keterb	-9147
▁Cilegon	-9148
▁maritim	-9149
▁satelit	-9150
▁Komitmen	-9151
▁mengusut	-9152
▁tersendiri	-9153
anggungjawab	-9154
▁diberlakukan	-9155
▁keberangkatan	-9156
%.	-9157
▁+	-9158
Sum	-9159
omi	-9160
▁ti	-9161
lang	-9162
▁Tem	-9163
antar	-9164
▁abad	-9165
awaran	-9166
celona	-9167
▁Press	-9168
▁panel	-9169
▁turis	-9170
hadapan	-9171
▁segmen	-9172
▁Hartono	-9173
▁balasan	-9174
▁dibahas	-9175
▁Barcelona	-9176
▁melampaui	-9177
▁menghapus	-9178
▁penyerang	-9179
arganegaraan	-9180
▁menyebarkan	-9181
JK	-9182
rd	-9183
dip	-9184
fak	-9185
idi	-9186
uko	-9187
▁95	-9188
▁AR	-9189
luan	-9190
ohol	-9191
▁Kak	-9192
▁bjb	-9193
▁Mich	-9194
▁baju	-9195
▁muka	-9196
▁Atlet	-9197
▁Cinta	-9198
▁Irish	-9199
▁Makin	-9200
▁Sudan	-9201
▁absen	-9202
▁papar	-9203
olongan	-9204
▁Energy	-9205
▁Wuling	-9206
▁menyes	-9207
▁memperb	-9208
▁bernomor	-9209
▁ditindak	-9210
▁hambatan	-9211
▁keperluan	-9212
▁Manchester	-9213
▁kepemilikan	-9214
▁memberantas	-9215
▁pemberontak	-9216
1)	-9217
oka	-9218
adio	-9219
aget	-9220
▁Ahok	-9221
▁ekor	-9222
erpool	-9223
siplin	-9224
▁Hindu	-9225
▁Jorge	-9226
▁Rober	-9227
▁Swiss	-9228
▁almar	-9229
▁Peduli	-9230
▁Social	-9231
▁batang	-9232
▁campur	-9233
icarakan	-9234
▁Purnama	-9235
▁Stefano	-9236
▁tumbang	-9237
▁Kemnaker	-9238
▁disiplin	-9239
▁mendadak	-9240
▁mendarat	-9241
▁menonton	-9242
▁Meninggal	-9243
▁terorisme	-9244
-9	-9245
jat	-9246
nav	-9247
ucu	-9248
ekos	-9249
▁Sik	-9250
asama	-9251
entuh	-9252
inton	-9253
oyono	-9254
▁Berm	-9255
▁Wahy	-9256
▁yong	-9257
ambung	-9258
aspora	-9259
enuhan	-9260
urance	-9261
▁Gempa	-9262
▁jumpa	-9263
▁roket	-9264
▁Cimahi	-9265
▁Ditjen	-9266
▁erupsi	-9267
▁ukuran	-9268
▁Florida	-9269
▁kecuali	-9270
/12/2024)	-9271
▁berujung	-9272
▁diunggah	-9273
▁Parawansa	-9274
▁Pengusaha	-9275
▁Yudhoyono	-9276
▁bergengsi	-9277
▁kebanyakan	-9278
▁memengaruhi	-9279
AD	-9280
CS	-9281
uo	-9282
Kep	-9283
TPS	-9284
ova	-9285
bang	-9286
iger	-9287
muji	-9288
▁nik	-9289
urnia	-9290
▁DKPP	-9291
obosan	-9292
▁1.200	-9293
▁2020.	-9294
▁Anung	-9295
▁Muara	-9296
▁Yahya	-9297
▁mandi	-9298
apatkan	-9299
▁bareng	-9300
▁matang	-9301
▁tuanya	-9302
▁alokasi	-9303
▁dicetak	-9304
▁jenderal	-9305
▁konvensi	-9306
▁membalas	-9307
▁rekening	-9308
▁Birokrasi	-9309
▁Deklarasi	-9310
▁pengunjuk	-9311
▁Penelitian	-9312
▁berpengaruh	-9313
▁mengoptimalkan	-9314
▁Mc	-9315
▁et	-9316
▁he	-9317
ader	-9318
cita	-9319
ibah	-9320
▁Isu	-9321
▁Lip	-9322
▁Vic	-9323
▁vis	-9324
ampur	-9325
rekan	-9326
usial	-9327
▁Hall	-9328
▁Mift	-9329
▁awan	-9330
▁live	-9331
ebutan	-9332
▁Bukit	-9333
▁Idris	-9334
▁Johan	-9335
▁Kurni	-9336
▁Saksi	-9337
▁Seksi	-9338
▁butir	-9339
▁horor	-9340
onjakan	-9341
owongan	-9342
▁Ikatan	-9343
▁Kurnia	-9344
▁berkes	-9345
▁varian	-9346
▁Georgia	-9347
▁Pameran	-9348
▁andalan	-9349
▁dibunuh	-9350
▁indikasi	-9351
▁jalannya	-9352
▁Liverpool	-9353
▁negosiasi	-9354
▁dihadirkan	-9355
▁dihentikan	-9356
▁diproduksi	-9357
▁pembangkit	-9358
pi	-9359
enz	-9360
evi	-9361
pas	-9362
▁64	-9363
▁UM	-9364
▁Baj	-9365
▁Ita	-9366
▁Muz	-9367
▁tri	-9368
ammed	-9369
ebihi	-9370
purna	-9371
ublic	-9372
▁Bina	-9373
▁Mary	-9374
▁resi	-9375
▁Cipta	-9376
▁Terus	-9377
▁Ismail	-9378
▁Putera	-9379
▁Sukses	-9380
▁rumput	-9381
ayangnya	-9382
▁Insiden	-9383
▁Melihat	-9384
▁Mengapa	-9385
▁Officer	-9386
▁dilanda	-9387
▁favorit	-9388
oritaskan	-9389
▁Cawapres	-9390
▁Sudirman	-9391
▁kurangnya	-9392
▁menyimpan	-9393
▁membuatnya	-9394
▁melakukannya	-9395
AF	-9396
Per	-9397
akh	-9398
luk	-9399
set	-9400
▁CI	-9401
eing	-9402
kuit	-9403
shop	-9404
ubur	-9405
▁Ary	-9406
▁cab	-9407
▁pej	-9408
▁PUPR	-9409
ancang	-9410
rutmen	-9411
▁Unair	-9412
▁figur	-9413
▁papan	-9414
▁rilis	-9415
▁ulama	-9416
▁Brimob	-9417
▁Miftah	-9418
▁dipicu	-9419
▁persel	-9420
▁rambut	-9421
ativitas	-9422
kelompok	-9423
▁Kristen	-9424
▁Pemilik	-9425
▁krusial	-9426
▁perwira	-9427
▁raksasa	-9428
▁seberat	-9429
▁hidupnya	-9430
▁Strategis	-9431
▁pengaduan	-9432
▁pengaturan	-9433
▁perceraian	-9434
▁rehabilitasi	-9435
jan	-9436
oks	-9437
▁52	-9438
▁GP	-9439
adin	-9440
enam	-9441
esat	-9442
▁Hus	-9443
▁Max	-9444
▁SDN	-9445
▁Seo	-9446
▁dat	-9447
▁nir	-9448
akoni	-9449
jalan	-9450
kapal	-9451
trans	-9452
▁Food	-9453
▁PSIM	-9454
▁Perc	-9455
▁Sams	-9456
▁lupa	-9457
ancing	-9458
iteria	-9459
▁Ajang	-9460
▁Nurul	-9461
▁Peran	-9462
▁Uzbek	-9463
▁indah	-9464
▁patut	-9465
▁super	-9466
▁Laskar	-9467
▁MALANG	-9468
▁Yahudi	-9469
▁tuntas	-9470
▁belasan	-9471
▁relatif	-9472
▁bilateral	-9473
▁gelandang	-9474
istribusikan	-9475
▁perhitungan	-9476
iko	-9477
lak	-9478
rin	-9479
▁VI	-9480
egat	-9481
oper	-9482
yang	-9483
▁BYD	-9484
▁Jin	-9485
▁KTP	-9486
▁Yan	-9487
▁bon	-9488
▁Bern	-9489
▁Pati	-9490
▁Samb	-9491
▁audi	-9492
iasaan	-9493
lorasi	-9494
sunami	-9495
▁Tokyo	-9496
▁murid	-9497
▁putus	-9498
anegara	-9499
antiasa	-9500
▁lansia	-9501
▁seruan	-9502
▁Sustain	-9503
▁berikan	-9504
▁kerabat	-9505
▁memakan	-9506
▁putranya	-9507
▁kepastian	-9508
▁Pencegahan	-9509
▁Uzbekistan	-9510
▁senantiasa	-9511
huk	-9512
isih	-9513
▁Abu	-9514
▁Duc	-9515
▁One	-9516
ayati	-9517
earch	-9518
overn	-9519
▁Aziz	-9520
▁Musk	-9521
▁Ribu	-9522
ahagia	-9523
dayaan	-9524
▁Haris	-9525
▁Techn	-9526
▁lebar	-9527
▁Suzuki	-9528
▁menguk	-9529
▁Kinerja	-9530
▁berhati	-9531
▁ditolak	-9532
▁rincian	-9533
▁Asuransi	-9534
▁berdarah	-9535
▁Kekerasan	-9536
▁politikus	-9537
▁pengolahan	-9538
▁pergantian	-9539
▁tertinggal	-9540
▁berhubungan	-9541
▁dukungannya	-9542
▁menyarankan	-9543
▁pencoblosan	-9544
▁menyenangkan	-9545
Ch	-9546
KU	-9547
Kej	-9548
chi	-9549
▁Na	-9550
▁UE	-9551
enai	-9552
ohan	-9553
▁Cit	-9554
▁Imp	-9555
▁Jim	-9556
▁Nun	-9557
▁Tah	-9558
▁jen	-9559
▁sar	-9560
klusi	-9561
▁Hati	-9562
▁Mega	-9563
▁Part	-9564
▁Rest	-9565
▁term	-9566
opuler	-9567
▁Wahid	-9568
▁gelap	-9569
▁lemak	-9570
▁nikel	-9571
▁pemda	-9572
▁Barito	-9573
▁kertas	-9574
▁sinyal	-9575
▁balapan	-9576
▁Mohammed	-9577
▁Portugal	-9578
▁mencabut	-9579
▁kegagalan	-9580
aboratorium	-9581
▁intimidasi	-9582
▁pengangguran	-9583
▁menghubungkan	-9584
for	-9585
tic	-9586
▁51	-9587
▁59	-9588
▁Fo	-9589
▁Sc	-9590
▁th	-9591
ariq	-9592
▁600	-9593
▁Luc	-9594
▁Rat	-9595
▁Toy	-9596
anyar	-9597
uasan	-9598
vokat	-9599
▁Moch	-9600
▁Suka	-9601
▁bara	-9602
▁kemb	-9603
▁Haiti	-9604
▁Mitra	-9605
▁Power	-9606
▁Resmi	-9607
▁Sales	-9608
▁Suhar	-9609
▁lemah	-9610
▁tahan	-9611
▁ujung	-9612
▁Academ	-9613
▁School	-9614
▁diperb	-9615
▁lambat	-9616
ayagunaan	-9617
▁dedikasi	-9618
▁matahari	-9619
▁melebihi	-9620
▁Politikus	-9621
▁berhadapan	-9622
▁terbarukan	-9623
▁Pemberdayaan	-9624
▁memaksimalkan	-9625
ves	-9626
▁63	-9627
▁PO	-9628
▁pe	-9629
idul	-9630
irut	-9631
▁1.3	-9632
▁BNI	-9633
▁Bed	-9634
▁pac	-9635
uaran	-9636
umpur	-9637
▁Land	-9638
▁Sarw	-9639
▁Tjah	-9640
▁diad	-9641
▁kena	-9642
▁magn	-9643
ungguh	-9644
▁2020,	-9645
▁Fikri	-9646
▁GIIAS	-9647
▁Kakan	-9648
▁Luhut	-9649
▁Optim	-9650
▁curah	-9651
▁legal	-9652
▁Persen	-9653
▁diubah	-9654
▁semata	-9655
▁terper	-9656
▁Susanto	-9657
▁menyapa	-9658
/7/2024).	-9659
▁penuntut	-9660
▁terbunuh	-9661
▁dihasilkan	-9662
▁manufaktur	-9663
▁perundingan	-9664
▁menyesuaikan	-9665
▁menindaklanjuti	-9666
RE	-9667
▁66	-9668
▁77	-9669
▁9,	-9670
▁Hut	-9671
▁PPK	-9672
▁TPN	-9673
sihan	-9674
▁Fari	-9675
▁Tert	-9676
▁abor	-9677
alangi	-9678
enteng	-9679
oyokan	-9680
▁Hilir	-9681
▁akunt	-9682
▁mulut	-9683
▁pesat	-9684
arungan	-9685
ulaiman	-9686
▁Faisal	-9687
▁aborsi	-9688
▁ambang	-9689
▁ditemp	-9690
utradara	-9691
▁gembira	-9692
▁merangk	-9693
▁Telegram	-9694
▁terheboh	-9695
▁menghargai	-9696
▁memperpanjang	-9697
BAR	-9698
eed	-9699
imo	-9700
yeh	-9701
▁bu	-9702
amuk	-9703
ency	-9704
itip	-9705
▁BSD	-9706
▁End	-9707
▁ran	-9708
▁Amir	-9709
▁Arie	-9710
▁Giri	-9711
▁Rudi	-9712
▁kain	-9713
▁pomp	-9714
angkas	-9715
▁Mudik	-9716
▁Sehat	-9717
▁hoaks	-9718
▁tipis	-9719
▁jelang	-9720
▁musisi	-9721
▁terjun	-9722
▁Komando	-9723
▁perihal	-9724
awancarai	-9725
▁Cikarang	-9726
▁Fauziyah	-9727
▁eskalasi	-9728
▁komandan	-9729
▁Sepanjang	-9730
▁bercerita	-9731
▁Diponegoro	-9732
▁Komisioner	-9733
▁didominasi	-9734
▁Kebangkitan	-9735
▁perencanaan	-9736
▁mengharapkan	-9737
NL	-9738
SK	-9739
ku	-9740
ics	-9741
kos	-9742
tip	-9743
anty	-9744
gian	-9745
lain	-9746
ongg	-9747
oyok	-9748
tric	-9749
▁Asy	-9750
▁Jef	-9751
▁Mis	-9752
▁Rut	-9753
andri	-9754
osari	-9755
▁Ajak	-9756
▁Must	-9757
▁Prol	-9758
▁Puan	-9759
▁SPBU	-9760
▁Suci	-9761
▁geng	-9762
▁padi	-9763
uncang	-9764
▁Ambon	-9765
▁Siswa	-9766
▁medan	-9767
amunisi	-9768
hentian	-9769
▁Hampir	-9770
▁Nataru	-9771
▁Sampah	-9772
▁Sangat	-9773
▁bawang	-9774
▁komisi	-9775
▁sepatu	-9776
▁sumpah	-9777
▁Potensi	-9778
▁pemadam	-9779
▁praktis	-9780
▁tangkap	-9781
▁Pastikan	-9782
▁Research	-9783
▁Sulaiman	-9784
▁terjebak	-9785
▁2023-2024	-9786
▁keyakinan	-9787
▁kebudayaan	-9788
▁ditempatkan	-9789
▁Pendayagunaan	-9790
▁ketenagakerjaan	-9791
EM	-9792
-15	-9793
kif	-9794
mit	-9795
off	-9796
argo	-9797
lian	-9798
▁Dih	-9799
▁Gal	-9800
▁Hub	-9801
emput	-9802
hukam	-9803
kifli	-9804
▁Bola	-9805
▁Judi	-9806
ekasan	-9807
oharjo	-9808
▁Assad	-9809
▁Azwar	-9810
▁Bunga	-9811
▁Dasco	-9812
▁Malut	-9813
▁drama	-9814
▁jujur	-9815
▁mengu	-9816
▁sadar	-9817
▁Kalsel	-9818
▁kucing	-9819
▁wacana	-9820
▁Manajer	-9821
▁Peluang	-9822
▁keluhan	-9823
▁disahkan	-9824
▁warganet	-9825
operasikan	-9826
▁Pamekasan	-9827
▁ketinggian	-9828
▁verifikasi	-9829
oo	-9830
pr	-9831
aly	-9832
eny	-9833
a	-9834
▁	-9835
n	-9836
e	-9837
i	-9838
r	-9839
t	-9840
u	-9841
k	-9842
m	-9843
s	-9844
d	-9845
g	-9846
l	-9847
p	-9848
o	-9849
b	-9850
h	-9851
y	-9852
,	-9853
.	-9854
j	-9855
P	-9856
S	-9857
K	-9858
A	-9859
2	-9860
c	-9861
B	-9862
w	-9863
I	-9864
M	-9865
0	-9866
D	-9867
T	-9868
-	-9869
R	-9870
1	-9871
J	-9872
f	-9873
"	-9874
N	-9875
)	-9876
(	-9877
4	-9878
G	-9879
H	-9880
U	-9881
v	-9882
C	-9883
W	-9884
L	-9885
/	-9886
3	-9887
5	-9888
F	-9889
E	-9890
O	-9891
9	-9892
:	-9893
7	-9894
6	-9895
8	-9896
z	-9897
Y	-9898
V	-9899
'	-9900
Z	-9901
x	-9902
X	-9903
?	-9904
[	-9905
]	-9906
q	-9907
Q	-9908
&	-9909
%	-9910
;	-9911
$	-9912
!	-9913
@	-9914
+	-9915
#	-9916
_	-9917
é	-9918
*	-9919
á	-9920
ü	-9921
ö	-9922
è	-9923
°	-9924
=	-9925
í	-9926
ñ	-9927
ó	-9928
•	-9929
±	-9930
€	-9931
£	-9932
ú	-9933
ä	-9934
®	-9935
â	-9936
ı	-9937
>	-9938
`	-9939
ã	-9940
′	-9941
ć	-9942
×	-9943
ê	-9944
ï	-9945
\	-9946
Ó	-9947
à	-9948
ô	-9949
⁠	-9950
Ç	-9951
Ü	-9952
ç	-9953
ì	-9954
ş	-9955
⁄	-9956
😭	-9957
<	-9958
·	-9959
ø	-9960
μ	-9961
−	-9962
Á	-9963
Ä	-9964
Ö	-9965
ë	-9966
ā	-9967
ğ	-9968
š	-9969
Â	-9970
É	-9971
ð	-9972
ò	-9973
õ	-9974
Ā	-9975
ę	-9976
İ	-9977
ķ	-9978
Ł	-9979
ł	-9980
ś	-9981
ơ	-9982
ư	-9983
Α	-9984
Η	-9985
Τ	-9986
α	-9987
‍	-9988
≥	-9989
丽	-9990
安	-9991
洪	-9992
金	-9993
陈	-9994
🍌	-9995
😊	-9996
