<unk>	0
<s>	0
</s>	0
▁	-3.31659
,	-3.47578
.	-3.56057
▁di	-3.95667
▁yang	-4.25657
an	-4.29709
▁dan	-4.35526
kan	-4.51829
i	-4.81849
▁,	-4.85496
▁se	-5.09012
-	-5.12001
▁untuk	-5.15748
▁.	-5.16489
nya	-5.21682
▁(	-5.21793
▁-	-5.22985
▁dengan	-5.28537
)	-5.29234
▁ke	-5.30036
▁ber	-5.32525
▁"	-5.32784
▁dari	-5.35509
▁ini	-5.36252
▁itu	-5.40977
▁pada	-5.44359
▁dalam	-5.46302
a	-5.69439
▁2024	-5.69595
▁me	-5.85318
s	-5.86389
▁meng	-5.87332
▁tidak	-5.90038
l	-5.91326
▁akan	-5.96314
▁Indonesia	-5.96987
▁tersebut	-5.96996
k	-5.99574
telah	-6.00044
",	-6.05845
▁ter	-6.07646
▁juga	-6.10217
com	-6.11475
▁p	-6.12869
▁P	-6.13938
▁WIB	-6.16141
▁mem	-6.19912
▁kata	-6.23373
▁nya	-6.23669
▁",	-6.26416
▁ada	-6.27053
▁menjadi	-6.30772
▁mengatakan	-6.32548
▁Se	-6.32714
▁saat	-6.37209
▁bahwa	-6.37663
▁sebagai	-6.38079
t	-6.39085
e	-6.40689
▁oleh	-6.41353
▁tahun	-6.42863
y	-6.43821
▁bisa	-6.50339
▁kepada	-6.54687
▁atau	-6.56494
▁S	-6.5777
ur	-6.5778
▁jpnn	-6.57845
▁K	-6.59179
▁lebih	-6.59352
▁men	-6.60335
▁mereka	-6.61755
o	-6.62774
▁Jakarta	-6.64183
▁satu	-6.65545
▁A	-6.6599
▁orang	-6.68149
si	-6.68602
▁Di	-6.70147
sudah	-6.70746
/	-6.71998
▁karena	-6.72518
n	-6.76555
▁para	-6.77237
▁adalah	-6.77924
▁Kota	-6.7799
▁kami	-6.78786
▁meny	-6.79753
h	-6.80318
▁masyarakat	-6.80881
▁T	-6.82311
hingga	-6.824
▁melakukan	-6.82406
▁hari	-6.82871
cara	-6.84423
▁be	-6.85871
▁M	-6.88223
r	-6.88399
▁B	-6.89083
u	-6.89118
▁negara	-6.89175
ta	-6.92185
▁bagi	-6.92305
▁terhadap	-6.92411
▁dia	-6.94446
ng	-6.94854
▁dapat	-6.95231
ARTA	-6.98765
▁memberi	-6.99038
▁Ke	-6.99578
berapa	-7.01004
▁s	-7.03055
▁Selasa	-7.03464
▁Rabu	-7.04046
al	-7.04354
▁Dia	-7.0437
jpnn	-7.04465
▁JAK	-7.04762
▁Senin	-7.06519
or	-7.0749
▁G	-7.08133
▁Kamis	-7.08323
▁merupakan	-7.08623
ar	-7.08703
ri	-7.08848
d	-7.09982
▁dua	-7.10082
▁seperti	-7.10179
er	-7.10237
▁baru	-7.11446
us	-7.11592
at	-7.11615
0	-7.12221
▁warga	-7.13668
▁Kabupaten	-7.142
is	-7.14304
▁Jumat	-7.14534
▁I	-7.15153
▁masih	-7.15338
▁saya	-7.15586
▁harus	-7.16856
▁dilakukan	-7.17129
p	-7.18394
▁serta	-7.18613
▁2024.	-7.20506
g	-7.20883
di	-7.21119
▁banyak	-7.21434
▁Jawa	-7.21903
P	-7.22499
▁terjadi	-7.22986
▁per	-7.23114
in	-7.24091
▁hanya	-7.24147
▁Presiden	-7.24223
▁Bali	-7.2441
▁besar	-7.24422
▁atas	-7.24573
▁korban	-7.24877
▁pihak	-7.25719
▁Israel	-7.25852
▁lalu	-7.26106
▁memiliki	-7.27821
2	-7.28161
▁bersama	-7.28622
▁ujar	-7.29862
▁anak	-7.29941
▁Ketua	-7.30254
1	-7.30653
sa	-7.31218
na	-7.31738
▁selama	-7.31785
da	-7.31929
▁t	-7.32512
ra	-7.33592
▁baik	-7.33977
▁rumah	-7.3415
ah	-7.34517
▁sangat	-7.35029
ti	-7.35961
▁salah	-7.36075
▁E	-7.37922
▁kasus	-7.38005
5	-7.38074
▁U	-7.38852
▁1	-7.38854
f	-7.39245
▁pemerintah	-7.39715
▁wilayah	-7.39849
▁C	-7.40273
jak	-7.41589
▁Ber	-7.42036
▁Rp	-7.42043
▁melalu	-7.42088
buah	-7.42192
▁kita	-7.4278
▁Sabtu	-7.4323
3	-7.43417
▁AS	-7.44606
jumlah	-7.44644
m	-7.44909
▁sama	-7.45084
:	-7.45132
▁Barat	-7.46832
bagai	-7.47021
▁tetapi	-7.47341
▁Namun	-7.47481
ka	-7.47492
ma	-7.47626
agar	-7.47762
▁Minggu	-7.4802
lah	-7.48274
▁Prabowo	-7.48279
▁F	-7.48447
▁kembali	-7.48477
▁terus	-7.48638
ing	-7.49051
pun	-7.49483
▁terkait	-7.49711
tiga	-7.49898
▁persen	-7.50076
▁lain	-7.50213
S	-7.50254
▁mendapat	-7.50991
as	-7.51271
▁m	-7.51346
c	-7.51833
▁PT	-7.51856
▁apa	-7.52073
ang	-7.52827
▁seluruh	-7.53251
K	-7.54157
▁H	-7.54387
re	-7.54498
B	-7.55018
▁hal	-7.55535
ca	-7.55745
8	-7.55977
▁sekitar	-7.56776
▁Per	-7.58269
9	-7.58373
▁daerah	-7.58381
tika	-7.58556
▁D	-7.59187
lain	-7.59362
▁pe	-7.59426
on	-7.60493
▁pun	-7.60722
▁program	-7.60756
▁tim	-7.60889
7	-7.6097
▁Selatan	-7.61715
masuk	-7.61926
4	-7.62058
z	-7.62212
▁pertama	-7.62272
▁lainnya	-7.6297
le	-7.6318
▁Menurut	-7.63742
el	-7.64191
belum	-7.64322
▁Menteri	-7.64329
▁calon	-7.64702
▁dunia	-7.64809
▁Dalam	-7.65552
A	-7.65781
▁hasil	-7.66056
▁kerja	-7.66463
la	-7.66477
▁antara	-7.66838
ni	-7.66843
▁tentang	-7.67037
mulai	-7.67356
en	-7.68263
li	-7.68295
▁Kepala	-7.68374
▁RI	-7.68654
▁sedang	-7.68887
▁O	-7.68887
▁Surabaya	-7.69073
▁tak	-7.69729
▁R	-7.70736
▁hukum	-7.70825
6	-7.71009
ro	-7.71031
▁Bandung	-7.71496
▁Ini	-7.71867
▁membuat	-7.72056
▁Su	-7.72177
▁semua	-7.72178
▁pelaku	-7.72279
D	-7.72981
un	-7.73533
▁mau	-7.74388
▁Partai	-7.74596
▁kali	-7.74811
de	-7.74921
▁Timur	-7.74961
ut	-7.74967
▁anggota	-7.75219
▁China	-7.75285
▁langsung	-7.75379
▁N	-7.75515
es	-7.75566
b	-7.76899
▁2	-7.77722
M	-7.77884
▁suara	-7.77927
▁waktu	-7.78058
tan	-7.78251
▁Pilkada	-7.78392
▁Tengah	-7.78834
▁Me	-7.78835
se	-7.79067
▁kedua	-7.79354
▁Ma	-7.7966
▁peng	-7.7986
▁L	-7.80389
ja	-7.8078
▁3	-7.80869
ir	-7.81394
ga	-7.81575
▁10	-7.8228
▁mendukung	-7.82478
▁bulan	-7.8248
▁Hal	-7.82562
▁kota	-7.83088
▁depan	-7.83116
▁katanya	-7.83223
▁politik	-7.83331
ampaikan	-7.83534
T	-7.84141
ce	-7.84177
▁pen	-7.84522
▁tempat	-7.8486
ul	-7.85206
▁bagian	-7.85245
▁juta	-7.85577
▁serangan	-7.85849
▁J	-7.86095
▁proses	-7.86254
ak	-7.86652
▁Amerika	-7.86681
tu	-7.86697
▁saja	-7.88027
▁media	-7.88174
H	-7.88373
▁meningkatkan	-7.88696
G	-7.8871
et	-7.88784
▁Pada	-7.88915
▁ia	-7.88934
▁perusahaan	-7.89514
▁[	-7.899
R	-7.89901
▁Al	-7.90006
▁tinggi	-7.90167
▁lagi	-7.90224
man	-7.91641
▁'	-7.91875
▁menggunakan	-7.92155
it	-7.92733
wa	-7.92849
▁Ba	-7.92955
▁malam	-7.93216
▁Rusia	-7.94151
▁kesehatan	-7.94341
il	-7.94693
▁tetap	-7.94796
asi	-7.95066
▁masa	-7.95068
seorang	-7.95207
▁Pe	-7.95275
▁menjelaskan	-7.95327
▁a	-7.95754
▁4	-7.95946
▁menyebut	-7.95964
▁penting	-7.95993
▁yakni	-7.9619
▁bukan	-7.96269
▁Umum	-7.96613
▁20	-7.96795
▁pemain	-7.96876
te	-7.97388
▁Oktober	-7.97616
▁ingin	-7.97882
▁b	-7.98057
▁kegiatan	-7.9814
um	-7.98747
▁air	-7.98887
▁Gubernur	-7.98898
▁pem	-7.98944
▁Kecamatan	-7.99358
▁upaya	-7.99848
F	-8.00129
tiap	-8.00132
▁j	-8.00506
▁tersangka	-8.00733
▁masuk	-8.00805
▁Kementerian	-8.00868
▁Ka	-8.00928
orang	-8.01006
▁Juli	-8.01032
▁Re	-8.01378
▁berada	-8.0155
▁sampai	-8.0185
▁12	-8.01867
▁luar	-8.0187
]	-8.02316
▁kemudian	-8.02672
ncapai	-8.02993
alami	-8.03147
▁November	-8.03325
▁Kami	-8.03605
▁Tim	-8.03647
▁menunjuk	-8.03737
gi	-8.04064
ya	-8.04385
▁diri	-8.04516
▁Desa	-8.04711
▁presiden	-8.04823
▁Waki	-8.04886
▁Tahun	-8.05034
han	-8.05576
mi	-8.05596
▁khusus	-8.05886
to	-8.05888
▁Gaza	-8.06134
▁sebelumnya	-8.06228
tif	-8.06304
▁Semarang	-8.06414
L	-8.06559
no	-8.06698
▁sosial	-8.06755
▁V	-8.0681
▁re	-8.06877
▁pukul	-8.07202
▁acara	-8.07327
▁perempuan	-8.07489
▁dukungan	-8.07506
Polda	-8.0772
▁produk	-8.07757
▁5	-8.07778
ik	-8.08626
▁membantu	-8.0872
ba	-8.08826
▁kawasan	-8.08831
▁jadi	-8.09001
▁Bogor	-8.0916
ter	-8.09213
▁Direkt	-8.09399
▁Foto	-8.0954
▁jalan	-8.09622
▁Juni	-8.09775
▁Sementara	-8.09942
em	-8.0998
▁pasangan	-8.10018
▁mengaku	-8.10111
▁Jalan	-8.10593
▁Utara	-8.11093
▁Agustus	-8.11386
▁nomor	-8.11421
▁W	-8.11434
do	-8.11582
▁Mei	-8.1178
▁menyatakan	-8.11933
▁Nasional	-8.1206
▁mengena	-8.12083
▁Badan	-8.12187
▁Ter	-8.12313
am	-8.12356
▁:	-8.12546
▁ekonomi	-8.12778
▁c	-8.12807
▁De	-8.12874
▁terakhir	-8.13023
▁Hari	-8.13154
Kami	-8.13607
co	-8.13619
▁Jadi	-8.13909
▁Si	-8.13931
lo	-8.13955
▁mana	-8.13963
▁bantuan	-8.13972
▁lokasi	-8.1415
N	-8.14488
▁memasti	-8.14545
I	-8.14658
▁September	-8.15162
▁meminta	-8.15373
jika	-8.15391
▁Desember	-8.15591
▁PPPK	-8.15683
id	-8.15689
J	-8.1576
▁k	-8.15892
ad	-8.16002
▁keluarga	-8.16095
ia	-8.16482
▁15	-8.16566
▁19	-8.16701
▁Pemerintah	-8.16872
▁Pen	-8.17197
▁7	-8.17302
▁Saya	-8.17344
▁tengah	-8.1735
▁DPR	-8.17488
▁berlangsung	-8.17818
▁lanjut	-8.18062
▁)	-8.18132
▁meninggal	-8.18404
lima	-8.18584
▁Januari	-8.18766
▁berhasil	-8.18963
▁Negeri	-8.1909
ung	-8.19099
go	-8.19201
lu	-8.1951
▁kondisi	-8.19536
C	-8.19726
▁Be	-8.20037
akibat	-8.20066
▁April	-8.2022
▁gambar	-8.203
▁asal	-8.20448
▁laga	-8.20741
hi	-8.20773
ru	-8.20837
▁United	-8.20973
▁empat	-8.21007
pa	-8.21064
mo	-8.21286
▁sendiri	-8.21299
▁partai	-8.21304
aling	-8.22128
▁Timnas	-8.22275
▁Jokowi	-8.22302
ch	-8.22478
▁polisi	-8.22506
▁soal	-8.22634
▁ribu	-8.22699
▁melihat	-8.22741
▁mobil	-8.22837
ck	-8.23132
▁sesuai	-8.23299
uk	-8.23469
▁ujarnya	-8.23544
▁Lu	-8.2361
▁resmi	-8.23744
▁Para	-8.24057
▁berharap	-8.24067
▁sebesar	-8.24162
▁f	-8.24301
▁?	-8.2437
uh	-8.24451
W	-8.24531
▁Asia	-8.24537
▁Ada	-8.24838
▁jumlah	-8.25125
▁kelompok	-8.25356
▁militer	-8.25696
▁bekerja	-8.25742
▁Komisi	-8.25875
▁Liga	-8.25894
▁11	-8.26068
▁Sa	-8.26181
▁16	-8.26212
▁Trump	-8.2635
▁La	-8.26815
▁Maret	-8.2694
▁perlu	-8.27731
me	-8.27796
▁Ukraina	-8.27881
▁informasi	-8.27885
&	-8.27969
▁baka	-8.28051
▁utama	-8.28098
▁hadir	-8.28313
▁/	-8.28343
▁nasional	-8.28635
ernah	-8.28687
▁14	-8.28965
bi	-8.28994
▁2024,	-8.29018
▁Polres	-8.29039
▁Mereka	-8.29381
▁memper	-8.29391
▁barang	-8.29596
▁Daerah	-8.29709
▁lingkungan	-8.29709
▁membawa	-8.29717
▁laporan	-8.29987
▁kendaraan	-8.30388
anpa	-8.30455
ki	-8.30704
mp	-8.30763
kah	-8.309
▁yaitu	-8.31023
ab	-8.31425
▁menjalan	-8.31573
▁Anda	-8.3167
ed	-8.31884
▁Provinsi	-8.31984
akan	-8.3205
▁Ra	-8.32077
pe	-8.32224
▁menerima	-8.32353
▁KPU	-8.32529
▁Korea	-8.32823
▁sebelum	-8.33032
▁uang	-8.33059
▁Iran	-8.33149
▁Men	-8.33267
ke	-8.33508
▁Pemilu	-8.33735
iala	-8.33808
▁sebanyak	-8.34118
▁layanan	-8.34219
▁18	-8.34492
▁awal	-8.34591
▁keamanan	-8.34834
▁dugaan	-8.35308
▁8	-8.35348
wi	-8.35589
▁TNI	-8.35763
▁mengungkapkan	-8.35964
ran	-8.36091
melawan	-8.36141
▁industri	-8.36311
▁Ha	-8.36454
▁30	-8.36492
'	-8.36505
▁kepala	-8.366
duga	-8.36649
ok	-8.36853
eng	-8.36904
▁masalah	-8.37218
▁dirinya	-8.3731
raih	-8.37536
ap	-8.37914
▁kini	-8.37969
▁menggelar	-8.38009
▁13	-8.38079
▁pendidikan	-8.38369
▁bawah	-8.38428
▁perang	-8.38444
ek	-8.38539
▁muda	-8.38608
▁Ar	-8.3894
▁Serikat	-8.3909
▁menurut	-8.39091
▁17	-8.39507
▁menghadapi	-8.39646
▁harga	-8.39649
anak	-8.3981
▁menjag	-8.40024
▁kampanye	-8.40135
▁Saat	-8.40273
▁data	-8.40725
▁pertandingan	-8.40935
tor	-8.41094
▁Ri	-8.41325
▁cukup	-8.41505
ong	-8.4153
▁Te	-8.41555
▁Anies	-8.42049
▁2023	-8.42602
▁in	-8.42752
▁e	-8.42754
▁pembangunan	-8.42918
▁Ia	-8.43043
▁Pusat	-8.43382
▁keterangan	-8.43411
▁segera	-8.43485
▁sementara	-8.43639
%	-8.43742
▁nama	-8.43777
▁langkah	-8.43846
▁surat	-8.43903
ko	-8.43971
lalu	-8.44026
▁pers	-8.44253
▁tingkat	-8.44262
▁miliar	-8.44366
▁Negara	-8.44419
▁mungkin	-8.44574
▁urut	-8.44689
▁d	-8.44874
▁KPK	-8.45132
▁biasa	-8.45283
th	-8.45471
▁bukti	-8.45559
▁senjata	-8.45729
▁Ro	-8.45749
▁Papua	-8.45888
ahan	-8.46188
▁negeri	-8.46206
E	-8.46221
▁jelas	-8.46286
▁Solo	-8.463
▁lama	-8.46613
▁Kantor	-8.46634
▁kon	-8.46706
▁In	-8.46796
▁memang	-8.46858
▁6	-8.46992
wan	-8.47015
Universitas	-8.47027
x	-8.4725
▁Stadion	-8.47273
▁n	-8.47479
▁sekolah	-8.47499
▁pernyataan	-8.47703
U	-8.47747
tik	-8.47762
▁24	-8.47821
▁kebijakan	-8.48069
▁Ahmad	-8.48081
▁digelar	-8.48081
▁mampu	-8.48086
▁Bea	-8.48132
▁Co	-8.48554
▁21	-8.48714
bo	-8.48793
▁mendatang	-8.49004
sehingga	-8.49074
pi	-8.49603
▁mantan	-8.49617
ge	-8.4969
▁kebutuhan	-8.49857
▁hak	-8.50087
▁internasional	-8.50157
ne	-8.50211
▁Palestina	-8.50354
mar	-8.50558
bahkan	-8.50605
▁Pem	-8.50813
▁".	-8.51048
▁25	-8.51187
▁umum	-8.51308
▁pejabat	-8.5149
▁menang	-8.5168
▁pemilu	-8.51827
▁Keterangan	-8.51939
uan	-8.52074
▁Polisi	-8.52179
▁hidup	-8.52446
▁merasa	-8.52476
men	-8.52476
so	-8.5275
▁Setelah	-8.52765
▁sistem	-8.52899
▁Ganjar	-8.52956
kaligus	-8.53068
▁datang	-8.53292
▁Polri	-8.5385
▁akhir	-8.53865
▁Cukai	-8.54102
▁rasa	-8.54316
vi	-8.54348
▁Na	-8.54361
▁mendorong	-8.54651
▁siap	-8.54704
▁pekan	-8.54806
▁Untu	-8.5486
▁ucap	-8.55059
nama	-8.55063
punya	-8.5518
ha	-8.55499
▁ungkap	-8.5576
▁hujan	-8.55835
temu	-8.55855
isi	-8.55872
▁makanan	-8.56128
ber	-8.56312
▁wakil	-8.56392
▁Bank	-8.56423
usai	-8.5644
▁Depok	-8.5666
▁sakit	-8.56716
▁publik	-8.56863
▁akhirnya	-8.56921
▁Bupati	-8.57013
▁tanah	-8.57023
▁pasar	-8.57223
san	-8.57348
itas	-8.57372
▁terbaru	-8.57452
▁pemimpin	-8.57485
▁guru	-8.57559
enam	-8.57615
▁motor	-8.5767
▁Hamas	-8.58208
▁aksi	-8.58357
st	-8.58491
▁kejadian	-8.5868
▁jam	-8.58713
▁Februari	-8.5874
dapat	-8.58786
▁ma	-8.5898
▁listrik	-8.59162
▁menilai	-8.5939
ku	-8.59742
ris	-8.59774
upaya	-8.59832
usia	-8.59882
▁kalau	-8.5996
O	-8.60056
▁digunakan	-8.6038
▁Biden	-8.60506
▁Mo	-8.60713
▁Wali	-8.60785
▁ibu	-8.60794
▁menegaskan	-8.60806
▁Persib	-8.60809
▁22	-8.6085
▁menuju	-8.61001
▁Nomor	-8.61114
▁ya	-8.61201
▁ditemukan	-8.61259
▁Meski	-8.61284
▁pemerintahan	-8.6145
▁teknologi	-8.6167
▁Deng	-8.61703
▁kapal	-8.61794
▁Pak	-8.61805
▁23	-8.61849
▁Banten	-8.61919
▁menambahkan	-8.62111
▁of	-8.62148
▁berjalan	-8.62149
▁Jepang	-8.62229
▁Peng	-8.62283
up	-8.62563
diri	-8.62682
▁Le	-8.62712
▁peserta	-8.6287
▁An	-8.63154
▁27	-8.63166
jukan	-8.63259
▁tewas	-8.63273
▁Mar	-8.63364
▁Baru	-8.63377
▁Jatim	-8.63388
▁DKI	-8.63508
▁petugas	-8.63568
yo	-8.63722
▁meski	-8.63773
▁bisnis	-8.6391
sempat	-8.64177
bar	-8.64221
▁9	-8.64684
▁The	-8.64687
▁tahu	-8.64701
jo	-8.65079
▁milik	-8.65172
lan	-8.65305
per	-8.65307
▁Adapun	-8.65413
im	-8.65456
▁Pemilih	-8.65586
▁Pa	-8.65635
▁Salah	-8.65739
▁Dan	-8.65859
▁period	-8.65909
▁Eropa	-8.66232
▁Ja	-8.66234
panjang	-8.66251
negara	-8.66332
▁pemeriksaan	-8.66362
▁Pertamina	-8.66426
▁musim	-8.66488
▁kantor	-8.6661
hu	-8.66689
▁sektor	-8.66754
res	-8.67194
▁berinisia	-8.67198
bkan	-8.67234
▁menemu	-8.67537
▁terbaik	-8.67575
terutama	-8.67663
▁usaha	-8.6774
▁Jenderal	-8.67866
▁Tak	-8.67896
▁diberikan	-8.6798
▁Ta	-8.6799
▁Calon	-8.68037
▁As	-8.68066
▁Kemudian	-8.68178
▁Program	-8.68261
▁hubungan	-8.68398
▁posisi	-8.6841
du	-8.68448
▁ketiga	-8.68508
▁Dinas	-8.68784
ju	-8.68829
▁cepat	-8.68896
▁Ni	-8.68926
▁cua	-8.68943
▁jatim	-8.68993
ho	-8.69007
▁korupsi	-8.69098
▁desa	-8.6914
▁Subianto	-8.69259
fi	-8.69519
▁membangun	-8.70038
j	-8.70577
▁meningkat	-8.70594
▁perubahan	-8.70673
▁de	-8.71088
▁maka	-8.71219
▁rakyat	-8.71298
ve	-8.71537
om	-8.71566
▁video	-8.71831
▁g	-8.71896
▁berdasar	-8.71901
nas	-8.72094
▁mahasiswa	-8.72132
▁keputusan	-8.72244
▁jabar	-8.72246
▁disampaikan	-8.72327
dy	-8.72388
▁aman	-8.72394
▁Mu	-8.72479
ol	-8.72483
▁FC	-8.72686
▁X	-8.72842
isasi	-8.72977
▁Jabar	-8.73147
▁pertemuan	-8.73213
▁bentuk	-8.73372
▁bali	-8.73906
"	-8.73923
▁film	-8.74025
▁nanti	-8.74071
▁Jateng	-8.74078
▁tinggal	-8.7412
▁pemilihan	-8.74139
▁gol	-8.74212
▁peningkat	-8.74401
dungan	-8.74474
▁kemenangan	-8.74683
▁kesempatan	-8.74858
▁Mi	-8.74869
Gibran	-8.74889
▁disebut	-8.74895
▁Agung	-8.74904
▁tindakan	-8.74977
▁ikut	-8.75062
Saya	-8.7513
mbang	-8.75218
▁Pelatih	-8.75324
▁perjalanan	-8.75462
▁Tida	-8.75496
▁PBB	-8.75578
▁Dewan	-8.7594
▁Inggris	-8.75961
▁cara	-8.76012
▁udara	-8.76032
▁dekat	-8.7633
enuhi	-8.76343
▁jenis	-8.76385
▁kurang	-8.76396
▁jauh	-8.76629
▁daya	-8.76908
▁terpilih	-8.77028
▁poin	-8.77114
ver	-8.7722
undang	-8.77511
.000	-8.77637
▁memilih	-8.77691
▁jawab	-8.77732
▁Budi	-8.77821
▁kuat	-8.77839
harapkan	-8.78135
▁Gibran	-8.78206
▁bahan	-8.78249
▁Li	-8.78428
▁tenaga	-8.78588
▁UMKM	-8.78632
▁turun	-8.78715
▁Golkar	-8.78791
▁begitu	-8.78934
▁Rumah	-8.78949
▁kecil	-8.78984
▁Denpasar	-8.79081
▁potensi	-8.79147
▁menit	-8.79194
.00	-8.79321
▁Hukum	-8.79378
▁26	-8.79435
ji	-8.79638
▁pria	-8.79698
▁Y	-8.79751
▁bidang	-8.79756
▁terlibat	-8.7997
▁Warga	-8.79997
▁saksi	-8.80154
rah	-8.80258
▁menga	-8.80317
perkuat	-8.80398
ent	-8.80402
▁penuh	-8.80717
▁online	-8.80719
▁komitmen	-8.80767
▁nilai	-8.80794
▁mengingat	-8.80799
▁pusat	-8.80883
▁operasi	-8.80886
edung	-8.81003
makin	-8.8103
▁angka	-8.81068
▁melaporkan	-8.81283
bel	-8.81779
anggap	-8.8214
▁Jaya	-8.82304
lalui	-8.82316
▁PDIP	-8.82501
mengambil	-8.82596
adi	-8.82685
▁28	-8.82729
▁Z	-8.82802
▁rencana	-8.82955
▁ditangkap	-8.8299
semakin	-8.83029
▁fasilitas	-8.83142
nilai	-8.83165
os	-8.83393
▁dampak	-8.83511
ic	-8.83519
▁Australia	-8.83528
▁Pol	-8.83618
tar	-8.83697
▁maju	-8.83727
▁Dari	-8.8381
▁bagaimana	-8.83856
▁lembaga	-8.84102
masing	-8.84319
▁Menurutnya	-8.84325
▁sumber	-8.84367
▁global	-8.8438
▁sekarang	-8.84536
▁29	-8.84538
▁laut	-8.84714
hampir	-8.84758
▁lintas	-8.84771
▁satunya	-8.85023
nda	-8.85034
▁pekerja	-8.852
▁Dunia	-8.85317
▁ASN	-8.85329
▁dibanding	-8.85368
▁digital	-8.8538
▁positif	-8.85474
sh	-8.85498
▁Raya	-8.85548
banyak	-8.8559
NG	-8.85595
▁honorer	-8.85789
▁banjir	-8.85799
▁Riau	-8.85838
▁total	-8.86036
▁Ci	-8.86086
▁Utama	-8.86435
las	-8.86466
▁Perjuangan	-8.8658
▁kekerasan	-8.8666
▁Da	-8.86878
▁Besar	-8.87059
▁Ju	-8.87115
▁keras	-8.87119
▁unit	-8.87143
▁PP	-8.87191
V	-8.87203
▁Bo	-8.87278
▁pagi	-8.87404
▁gubernur	-8.87699
▁pidana	-8.87762
▁penghargaan	-8.8794
ram	-8.88054
tra	-8.88151
▁bermain	-8.8836
▁pasukan	-8.88993
▁guna	-8.88994
▁Meng	-8.89095
po	-8.89282
v	-8.89434
▁menjela	-8.89461
▁sekali	-8.89554
▁manusia	-8.89571
▁setempat	-8.89868
fa	-8.90091
▁antaranya	-8.90115
▁tentu	-8.90223
▁tepat	-8.90405
▁II	-8.90429
▁lapangan	-8.90471
▁naik	-8.90576
Y	-8.90635
rak	-8.90794
▁Republik	-8.90801
▁Dr	-8.90843
ud	-8.90957
▁Yogyakarta	-8.90966
ry	-8.91153
▁Dua	-8.91357
anto	-8.91405
▁Agus	-8.91441
▁api	-8.915
ferensi	-8.91625
▁menyeba	-8.91629
▁pemilih	-8.91776
▁energi	-8.91883
tapi	-8.91935
▁berita	-8.91961
za	-8.92058
▁peran	-8.92122
▁Mas	-8.92485
▁Lo	-8.92498
ikuti	-8.92617
▁akses	-8.92809
namun	-8.92875
▁pelanggaran	-8.92894
▁Muhammad	-8.93169
ajang	-8.93239
ban	-8.93605
▁Du	-8.93832
▁DPRD	-8.93839
▁sipil	-8.94
/10)	-8.94127
▁Islam	-8.94179
▁r	-8.94181
▁Joko	-8.94351
▁ka	-8.9443
▁masing	-8.94566
▁pengembang	-8.94593
kar	-8.9461
va	-8.94653
▁lokal	-8.9469
▁menarik	-8.94774
▁turut	-8.94871
▁Nur	-8.94883
▁narkoba	-8.95032
bak	-8.9516
▁PDI	-8.95212
▁sisi	-8.9545
▁jalur	-8.95466
▁Je	-8.95501
▁Ku	-8.95687
▁Air	-8.9569
▁sering	-8.95707
w	-8.95813
son	-8.95849
▁tubuh	-8.95901
▁tangan	-8.96148
apan	-8.96314
▁menghadir	-8.96489
▁mencari	-8.96515
▁perkara	-8.96697
▁berbeda	-8.96799
▁kemungkinan	-8.96865
▁belakang	-8.96865
▁sedikit	-8.96865
laku	-8.96944
▁Kerja	-8.96954
▁kualitas	-8.97041
ten	-8.97079
▁fokus	-8.97163
der	-8.97364
▁menyebutkan	-8.97491
▁demi	-8.97535
bagian	-8.97568
▁Kesehatan	-8.97661
op	-8.97874
▁benar	-8.97874
sel	-8.97909
▁target	-8.98032
▁demikian	-8.98112
▁menekan	-8.98223
▁Ya	-8.98232
▁kemarin	-8.98374
▁and	-8.984
ajak	-8.9843
▁mencipt	-8.98594
▁Anak	-8.98827
▁mudah	-8.989
irakan	-8.99104
▁pengalaman	-8.99277
▁Kar	-8.99298
▁UU	-8.99325
tal	-8.995
▁Sebelumnya	-8.99678
▁Wi	-8.99682
▁menteri	-8.99727
▁50	-8.99755
▁organisasi	-8.99844
▁diketahui	-8.99905
umumkan	-8.99946
▁keuangan	-8.99996
▁la	-9.00017
▁luas	-9.00037
▁tugas	-9.00114
▁asing	-9.00122
ns	-9.00173
▁Anggota	-9.00178
bu	-9.00238
▁ruang	-9.00276
▁Abdul	-9.0028
▁Widodo	-9.0036
▁situasi	-9.0037
▁Wa	-9.00371
daftar	-9.00391
ag	-9.00403
▁keterangannya	-9.00405
▁pelaksanaan	-9.00503
je	-9.00518
▁Ali	-9.00697
ton	-9.00802
▁kecelakaan	-9.00817
▁Fa	-9.00835
▁pembunuhan	-9.00909
▁31	-9.00936
▁muncul	-9.00953
▁2022	-9.011
▁02	-9.01111
ono	-9.01124
00	-9.012
▁manfaat	-9.01229
▁Karena	-9.01362
▁tuturnya	-9.01379
▁isu	-9.01388
▁pengguna	-9.01395
▁DPP	-9.01422
usaha	-9.01539
▁El	-9.01578
Kombes	-9.01713
par	-9.01727
▁Sumatera	-9.0183
▁bicara	-9.01867
▁Pra	-9.01912
▁Lebih	-9.01922
▁Pilpres	-9.01923
▁No	-9.02113
▁mengikut	-9.02147
sama	-9.02222
PP	-9.02415
▁Malang	-9.02463
▁Kedua	-9.02539
▁Bidang	-9.02583
▁),	-9.0271
Se	-9.02724
▁makan	-9.02795
▁Masyarakat	-9.02847
▁Tri	-9.02873
▁Laut	-9.02884
pol	-9.02916
▁pertumbuhan	-9.02975
UNG	-9.02992
▁tujuan	-9.03017
▁ilegal	-9.0304
rat	-9.03097
▁Aceh	-9.03134
▁putusan	-9.03136
▁berat	-9.03193
mat	-9.03241
laporkan	-9.03299
au	-9.03335
ham	-9.03349
▁Demokrat	-9.03416
▁Humas	-9.03459
▁Itu	-9.03468
▁produksi	-9.03505
▁pesawat	-9.0351
▁Bu	-9.0353
icu	-9.03588
▁melaksana	-9.03698
hal	-9.03749
dang	-9.03777
dar	-9.03793
baru	-9.03831
▁emas	-9.03874
▁ucapnya	-9.04109
▁100	-9.04152
komitmen	-9.04395
▁Tu	-9.0442
▁bangsa	-9.04749
if	-9.04897
▁Bawaslu	-9.05003
▁Tangerang	-9.05123
▁tiba	-9.05201
▁area	-9.05418
▁sana	-9.05577
▁diterima	-9.05698
▁alasan	-9.05708
▁tanggal	-9.05711
apa	-9.05918
▁SURA	-9.05999
▁aturan	-9.06031
▁kasih	-9.06138
▁Satu	-9.06209
▁pangan	-9.06407
▁titik	-9.06573
▁dikenal	-9.06574
▁Mem	-9.06601
▁Arab	-9.0662
▁lewat	-9.06673
▁membuk	-9.06815
▁sebagi	-9.06817
▁penyakit	-9.06859
▁Pengadilan	-9.06957
AKBP	-9.06959
▁dimulai	-9.07022
▁tegas	-9.07052
▁alat	-9.07145
AN	-9.07255
alias	-9.07381
▁budaya	-9.07448
SI	-9.07459
memimpin	-9.07543
BAYA	-9.07546
▁sa	-9.07589
▁dini	-9.07616
▁kepolisian	-9.07739
be	-9.078
▁Pendidikan	-9.07837
▁sidang	-9.07855
▁proyek	-9.07883
▁panjang	-9.08105
".	-9.08264
▁survei	-9.0833
▁Sekretaris	-9.08346
▁sang	-9.08348
bentuk	-9.08367
▁si	-9.08448
percaya	-9.08479
▁tantangan	-9.08528
▁).	-9.08728
▁BRI	-9.08796
▁Apa	-9.08985
▁berupa	-9.09027
▁akun	-9.09118
▁terlihat	-9.09231
▁Har	-9.09608
hasil	-9.09617
den	-9.09645
elapan	-9.09653
▁personel	-9.09823
▁peluang	-9.09873
▁bola	-9.09958
▁kunjungan	-9.10048
▁pilihan	-9.10104
▁kepentingan	-9.10125
▁melibat	-9.102
lin	-9.10352
▁terbesar	-9.10372
▁bencana	-9.10444
▁melanjutkan	-9.1083
▁anggaran	-9.10838
▁Kalau	-9.11049
▁usia	-9.11086
▁tampil	-9.11156
enggak	-9.11207
su	-9.11237
lis	-9.114
▁seleksi	-9.11542
PD	-9.11628
▁01	-9.11661
▁tuju	-9.1178
▁pro	-9.11785
▁Kasus	-9.11787
▁mencatat	-9.11854
▁pasti	-9.11864
▁aktif	-9.11957
wujud	-9.12001
gan	-9.12072
▁konflik	-9.12155
▁membaha	-9.12156
ster	-9.12236
▁Ko	-9.12247
▁Vi	-9.12294
hari	-9.12311
angan	-9.12337
▁triliun	-9.12464
▁w	-9.12691
▁badan	-9.12785
▁Do	-9.12826
larang	-9.12871
▁penjara	-9.12877
basis	-9.12916
▁arah	-9.12922
▁Ibu	-9.12973
▁to	-9.13039
▁tokoh	-9.13484
▁memenang	-9.13516
▁musik	-9.13606
asal	-9.13704
dik	-9.13743
▁ku	-9.13758
nal	-9.14023
gen	-9.14267
▁strategis	-9.14331
tur	-9.14382
▁pesan	-9.14417
▁Ge	-9.1444
▁investasi	-9.14494
▁mata	-9.14534
war	-9.14586
▁pelayanan	-9.14649
af	-9.14811
▁penyelenggara	-9.14879
▁sehat	-9.14958
▁terbuka	-9.15153
▁Lampung	-9.15197
nd	-9.15283
ina	-9.15483
▁formasi	-9.15494
aksi	-9.15674
▁Palembang	-9.15707
▁kinerja	-9.15707
▁provinsi	-9.15707
▁Jerman	-9.15707
▁lahan	-9.15787
lepas	-9.15854
▁DPD	-9.15969
ny	-9.15975
dukung	-9.16
ow	-9.16108
ahkamah	-9.16135
▁sini	-9.16213
▁To	-9.1625
▁Ru	-9.16316
▁Sebagai	-9.16325
RI	-9.16339
▁luka	-9.16453
▁BUMN	-9.16561
▁final	-9.16563
rasi	-9.16648
▁tua	-9.16725
▁tindak	-9.16811
▁dilaksanakan	-9.16883
▁memutus	-9.17207
▁siapa	-9.17228
bagi	-9.17232
▁penumpang	-9.17316
▁Oleh	-9.17347
▁jelasnya	-9.17449
bicara	-9.17558
tujuan	-9.17709
▁bi	-9.17758
▁keluar	-9.17812
▁Pasal	-9.17953
ly	-9.18068
mba	-9.18177
mas	-9.18178
▁Korupsi	-9.18182
▁solusi	-9.18294
nangkap	-9.18342
▁gratis	-9.18401
▁Bekasi	-9.18411
▁Nusantara	-9.1851
▁BMKG	-9.18676
tion	-9.18764
▁menurun	-9.18949
▁latihan	-9.18958
▁perdana	-9.19093
mb	-9.19181
sari	-9.19265
▁ba	-9.19308
ub	-9.19344
lantar	-9.19376
mu	-9.19398
▁Ga	-9.19543
▁pekerjaan	-9.19548
▁03	-9.19568
▁08	-9.19617
▁40	-9.19644
▁aktivitas	-9.19652
ambil	-9.19663
▁ra	-9.19712
lihat	-9.1978
▁teman	-9.19996
▁Uni	-9.2005
▁Prancis	-9.20053
▁Ca	-9.20133
jauh	-9.2015
ediakan	-9.2021
▁Am	-9.20248
▁generasi	-9.20286
▁JPNN	-9.20333
▁2025	-9.20334
ty	-9.20338
▁penggunaan	-9.20373
▁sampah	-9.20386
▁Is	-9.20454
▁ternyata	-9.2051
▁biaya	-9.20624
▁So	-9.20789
▁pentingnya	-9.20822
▁BAND	-9.20946
▁mengungkap	-9.20988
tas	-9.21102
har	-9.21158
▁tampak	-9.21169
pendaftaran	-9.213
▁siswa	-9.21395
▁India	-9.21421
▁menolak	-9.2151
dan	-9.21534
▁Metro	-9.21535
▁Bi	-9.21543
▁peristiwa	-9.21578
▁Sumber	-9.21733
atur	-9.21911
▁Man	-9.2204
▁Sri	-9.22102
bunuh	-9.22108
tin	-9.2229
ewas	-9.22294
▁mengu	-9.22347
▁jabatan	-9.22438
▁sulit	-9.22646
▁Ho	-9.22674
▁ko	-9.22692
ara	-9.22773
▁Gerindra	-9.22868
▁aplikasi	-9.22878
▁San	-9.22886
▁Filipina	-9.22983
▁Kalimantan	-9.22983
▁Pro	-9.23062
▁semangat	-9.23069
▁demokrasi	-9.23089
▁jaringan	-9.23109
embangan	-9.23207
▁wartawan	-9.23326
PA	-9.23328
▁dana	-9.23468
▁pengelola	-9.23578
awak	-9.23618
▁penyelidikan	-9.23654
ep	-9.23761
cu	-9.23778
▁ditetapkan	-9.23786
lindungi	-9.23787
▁Instagram	-9.23901
▁kematian	-9.24022
▁lagu	-9.24049
ika	-9.24118
▁pelatih	-9.24168
▁ratus	-9.2426
dampingi	-9.24364
▁Ramadan	-9.24366
▁Berdasar	-9.24522
▁pimpinan	-9.24596
▁pribadi	-9.24596
▁ulang	-9.24658
▁hakim	-9.24769
▁05	-9.24906
▁Prof	-9.24963
▁pertahanan	-9.24982
▁06	-9.25069
▁petani	-9.25081
q	-9.25158
▁paslon	-9.25294
rilis	-9.25356
iring	-9.25391
langgar	-9.25419
▁judi	-9.25653
▁ringan	-9.25778
▁meluncur	-9.25779
▁ancaman	-9.25799
▁Lebanon	-9.25883
▁Ilustrasi	-9.25888
AM	-9.25894
▁He	-9.25907
▁hukuman	-9.25955
▁mengetahui	-9.26001
▁PKB	-9.26007
ari	-9.2601
▁HAM	-9.26056
▁perk	-9.2612
▁momen	-9.26193
▁komunitas	-9.26237
▁Undang	-9.2625
▁hati	-9.26254
lak	-9.26327
▁selatan	-9.26373
▁kelas	-9.26642
▁skor	-9.26832
▁dasar	-9.26848
▁signifikan	-9.26948
▁Hasil	-9.26953
▁non	-9.26963
▁Malaysia	-9.27005
▁Kali	-9.27042
▁Perdana	-9.27093
▁MK	-9.27158
▁Putih	-9.27186
▁le	-9.27473
nto	-9.27532
lang	-9.27544
▁Baswedan	-9.27545
▁kolaborasi	-9.27545
▁perhatian	-9.27545
▁2023.	-9.27742
▁Hi	-9.27792
br	-9.2797
▁Pasar	-9.28119
▁jajaran	-9.28145
▁peringatan	-9.28149
▁menjabat	-9.28152
mencegah	-9.28192
ateng	-9.28378
▁menetap	-9.28386
▁Kemen	-9.28528
▁Gus	-9.28544
nyambut	-9.28552
▁mengatas	-9.28577
▁Serang	-9.2859
berangkat	-9.289
▁menghadiri	-9.29093
▁dikutip	-9.29115
▁kekuatan	-9.29123
▁Tenggara	-9.29235
▁ANTARA	-9.29311
▁gelar	-9.29365
▁Korban	-9.29461
▁Gunung	-9.29478
▁mengirim	-9.2948
mengurangi	-9.29603
▁Mantan	-9.29656
▁bus	-9.2975
▁dokter	-9.29859
▁TPS	-9.29917
peroleh	-9.30039
▁Go	-9.30049
klaim	-9.30165
▁New	-9.30207
awa	-9.30258
?	-9.30281
▁pegawai	-9.30287
▁Pu	-9.30312
▁rapat	-9.30346
ustru	-9.30365
▁platform	-9.3037
▁Keuangan	-9.30459
▁Paris	-9.30528
▁juara	-9.30567
▁membutuhkan	-9.30583
▁Suriah	-9.30583
▁kemampuan	-9.30585
▁rangka	-9.30595
▁terima	-9.30596
▁inovasi	-9.30691
awan	-9.3071
▁perbatasan	-9.3074
ngan	-9.30892
▁Jo	-9.30895
▁minggu	-9.3098
▁04	-9.31038
potensi	-9.31066
▁gagal	-9.31075
▁Pilgub	-9.31078
▁eks	-9.31097
ie	-9.31254
ketua	-9.31269
▁Kegiatan	-9.31494
▁pendukung	-9.31576
▁BBC	-9.31628
▁MotoGP	-9.31699
▁izin	-9.31811
▁Berikut	-9.31949
▁Adi	-9.31952
▁pa	-9.32049
▁07	-9.32082
▁berkelanjutan	-9.32123
▁vs	-9.32214
▁Orang	-9.32266
▁penyidik	-9.32344
▁bebas	-9.32408
▁Kapolres	-9.32605
tis	-9.32803
rangkai	-9.32836
▁Sebab	-9.32888
mer	-9.32918
MI	-9.32972
hentikan	-9.33048
ting	-9.33056
▁Internasional	-9.33081
ger	-9.33093
▁al	-9.33117
▁keter	-9.33121
▁aparat	-9.3318
▁Pj	-9.33231
bat	-9.33405
▁09	-9.33471
laki	-9.33653
▁kar	-9.33685
▁Kita	-9.33695
menunggu	-9.33731
kh	-9.33737
▁tahap	-9.33754
▁200	-9.33856
▁Hasto	-9.33971
▁boleh	-9.34054
ingga	-9.34072
▁konsumen	-9.34098
lam	-9.34159
▁ge	-9.34229
catat	-9.3427
▁Muda	-9.34339
▁wisata	-9.34407
1)	-9.34421
jang	-9.34449
▁2021	-9.34483
eluarkan	-9.34484
AR	-9.34489
▁jadwal	-9.3457
▁menawar	-9.34612
▁Bagi	-9.34725
▁Sulawesi	-9.34739
▁Ridwan	-9.34739
▁mencoba	-9.34739
▁Pembangunan	-9.3474
▁kenaik	-9.34751
mula	-9.34774
bukti	-9.34849
▁siang	-9.34849
▁Wilayah	-9.34868
ot	-9.34888
▁puluhan	-9.3503
buka	-9.3525
▁Pihak	-9.35257
lt	-9.35282
▁Kon	-9.35312
▁penjual	-9.35315
▁Bandara	-9.35369
▁istri	-9.35371
▁risiko	-9.35385
▁Grup	-9.35385
▁menyerah	-9.35391
▁;	-9.35427
pu	-9.35438
▁III	-9.35721
▁penerima	-9.35774
▁Shin	-9.35832
dampak	-9.35834
▁uji	-9.35912
▁kader	-9.35927
sen	-9.36202
jalan	-9.36252
▁selesai	-9.36291
but	-9.36575
▁sejarah	-9.36688
yu	-9.36718
bah	-9.36804
▁kemanusiaan	-9.36819
▁debat	-9.36838
sepeda	-9.36848
▁anti	-9.36872
▁tutur	-9.36937
bila	-9.36943
▁sukses	-9.37031
▁Saudi	-9.37082
▁Un	-9.37101
▁harapan	-9.37104
▁DEN	-9.37108
ala	-9.37192
▁Yang	-9.37196
▁Selama	-9.37234
▁1,	-9.3734
▁pemberi	-9.37389
ASAR	-9.37496
▁Rakyat	-9.3761
▁agama	-9.3761
AS	-9.37656
ment	-9.37989
▁ga	-9.37989
▁Center	-9.38008
kumpul	-9.38069
pres	-9.38088
▁mer	-9.38144
▁Politik	-9.38149
▁foto	-9.38184
▁su	-9.38244
▁penduduk	-9.38245
▁dibawa	-9.38277
▁bersih	-9.38391
▁Perempuan	-9.38407
he	-9.38427
▁Pas	-9.3847
▁Rakabuming	-9.38541
▁kabupaten	-9.38541
▁IKN	-9.38596
▁kebakaran	-9.38678
uddin	-9.38766
▁menuturkan	-9.38808
▁mengakui	-9.3887
adu	-9.38889
▁Sin	-9.38913
▁aku	-9.38924
▁Begini	-9.38942
▁bangunan	-9.3896
▁Group	-9.39346
▁International	-9.3935
▁bagus	-9.3935
▁sore	-9.39352
mana	-9.39357
▁kalah	-9.39395
▁tertinggi	-9.39467
▁Thailand	-9.3948
▁diperk	-9.39517
▁kandidat	-9.39615
▁gabungan	-9.39653
▁Raka	-9.3972
▁beras	-9.39806
mengamankan	-9.39837
▁mengembang	-9.39879
▁kehidupan	-9.39887
X	-9.39976
▁War	-9.40047
▁Koordinator	-9.40157
elesaikan	-9.40174
▁Tol	-9.40195
▁berkembang	-9.40293
▁meter	-9.40339
lancar	-9.40384
tahun	-9.40453
▁kategori	-9.40494
▁status	-9.40567
mudah	-9.40598
▁diper	-9.40818
▁sosok	-9.40838
▁lakukan	-9.409
benar	-9.41061
▁kesejahteraan	-9.41255
▁CPNS	-9.41286
tel	-9.41313
▁berlaku	-9.41335
▁2.	-9.41578
gar	-9.41667
▁Ki	-9.41739
▁nyata	-9.41749
▁bergabung	-9.41773
iapkan	-9.41779
▁dinilai	-9.41796
Pemkab	-9.41804
ine	-9.41905
▁pemungut	-9.41964
▁for	-9.42018
▁putra	-9.4209
▁mitra	-9.42278
▁Airlangga	-9.42353
▁Sukabumi	-9.42353
paksa	-9.42437
▁jiwa	-9.42496
▁percaya	-9.42563
▁bergerak	-9.42632
menyerang	-9.42789
eringkat	-9.42789
▁Forum	-9.42798
▁perlin	-9.42805
▁mu	-9.42881
▁balik	-9.42902
ling	-9.42903
▁rendah	-9.43194
▁Taiwan	-9.4347
mbilan	-9.43495
din	-9.43528
ler	-9.43592
▁kabar	-9.43645
bang	-9.43737
yanto	-9.43859
cakup	-9.43899
▁arus	-9.4396
▁terdampak	-9.44001
▁memasuk	-9.44007
▁Khusus	-9.44033
PI	-9.44046
ky	-9.44488
▁Pertahanan	-9.44488
▁terdakwa	-9.44522
rakan	-9.44594
vo	-9.44595
▁infrastruktur	-9.44599
▁putri	-9.44602
one	-9.44744
▁truk	-9.44745
we	-9.4477
▁antar	-9.44893
▁karya	-9.44935
jawab	-9.44947
▁rudal	-9.45026
▁hilang	-9.45032
jar	-9.45108
tugas	-9.45215
▁pengawasan	-9.45377
▁insiden	-9.45454
▁pemilik	-9.45455
▁sebenarnya	-9.45458
▁Olimpiade	-9.4546
▁Ad	-9.45476
▁60	-9.45511
▁juru	-9.45614
▁Sumsel	-9.4583
▁Medan	-9.45833
▁klub	-9.45885
▁Hotel	-9.45895
wajib	-9.46022
▁seharusnya	-9.46029
▁Informasi	-9.46092
▁Tanah	-9.46103
▁Pelaku	-9.4615
▁strategi	-9.46177
▁dokumen	-9.46184
▁Gu	-9.4624
▁Kelurahan	-9.46317
▁puncak	-9.46338
ula	-9.46343
▁alam	-9.46376
▁pajak	-9.46467
▁Eri	-9.46484
▁Pemain	-9.46485
ft	-9.46531
▁perdagangan	-9.46606
▁tema	-9.46694
▁pelatihan	-9.46719
aka	-9.46727
kesepakatan	-9.46764
▁tambahan	-9.46882
Ini	-9.46898
▁Lebaran	-9.46907
▁Pasangan	-9.46909
▁lulus	-9.46981
▁impor	-9.47042
▁At	-9.47044
my	-9.47281
Pemprov	-9.473
▁minyak	-9.47333
awal	-9.47359
▁ta	-9.47394
MK	-9.4746
mcr	-9.47479
▁Par	-9.47571
▁pengungsi	-9.47625
▁2020	-9.47795
▁darah	-9.478
▁Acara	-9.47822
▁merah	-9.47844
▁RS	-9.47875
▁jangan	-9.47881
tek	-9.47906
▁MA	-9.47915
▁pilkada	-9.47918
abu	-9.48034
▁tiket	-9.48071
KI	-9.48206
▁Ari	-9.48221
▁ahli	-9.48227
▁kalangan	-9.48228
▁visi	-9.48296
▁perawatan	-9.4836
▁buruk	-9.48368
▁berakhir	-9.48635
▁Hizbullah	-9.48654
▁pelanggan	-9.48654
▁sabu	-9.48658
▁tata	-9.48689
▁genca	-9.4871
les	-9.48816
▁menge	-9.4889
▁Megawati	-9.48953
▁kulit	-9.4896
tidaknya	-9.48977
▁sanksi	-9.49099
▁utara	-9.49255
▁Batu	-9.49267
▁Tinggi	-9.49271
▁Kemenkumham	-9.49341
▁Dewi	-9.49488
etapan	-9.49494
sih	-9.49501
▁tulis	-9.49561
▁Yo	-9.49583
▁PKS	-9.49677
▁memperingat	-9.49716
▁Jal	-9.49726
lebih	-9.49795
▁Harga	-9.49905
mal	-9.50142
▁maksimal	-9.50176
▁senior	-9.50199
▁ekspor	-9.50242
KOTA	-9.50296
rancang	-9.50301
▁Putra	-9.50311
▁Kaesang	-9.50444
▁Lalu	-9.50541
BK	-9.50558
▁mendesak	-9.50595
▁paket	-9.50604
hak	-9.50642
pas	-9.50694
▁Garuda	-9.50897
▁Keamanan	-9.50898
▁kursi	-9.50898
penanganan	-9.51072
▁gram	-9.51088
lkan	-9.5119
▁Vietnam	-9.512
▁Cha	-9.5132
▁permintaan	-9.51351
kota	-9.51382
▁misi	-9.51389
▁diselengga	-9.51503
ulang	-9.51527
▁serius	-9.51594
mbar	-9.51613
gapi	-9.51647
ning	-9.51651
▁segala	-9.51806
▁Banyak	-9.51907
▁bank	-9.52022
min	-9.52046
▁na	-9.52048
▁Data	-9.5208
by	-9.52102
▁Operasi	-9.52109
▁Panta	-9.52187
▁saling	-9.52192
▁tambah	-9.52206
▁kompetisi	-9.52265
▁ton	-9.52336
mil	-9.52394
▁rutin	-9.52421
PN	-9.52483
▁Khofifah	-9.52573
▁penerbangan	-9.52574
▁iklim	-9.52574
▁menambah	-9.52711
▁diminta	-9.5273
▁wali	-9.52779
hati	-9.52829
▁syarat	-9.52844
▁sikap	-9.52856
▁kejahatan	-9.52888
▁Jasa	-9.52935
▁Kamil	-9.53017
▁pengadilan	-9.53036
▁tertentu	-9.53036
ita	-9.53055
▁AI	-9.53075
▁Padang	-9.53094
▁Pemkot	-9.53103
▁tentara	-9.53191
▁ungkapnya	-9.53234
▁Film	-9.53345
▁Pulau	-9.53346
▁MPR	-9.53415
▁unggul	-9.53539
Penjabat	-9.53544
▁Ekonomi	-9.53566
▁mendaftar	-9.53577
ren	-9.53628
▁panas	-9.53705
▁Lembaga	-9.53811
▁Natal	-9.53852
abak	-9.53903
hancur	-9.53985
▁Harris	-9.53997
▁AKP	-9.54089
jam	-9.54107
HO	-9.54114
▁o	-9.54145
unjuk	-9.54148
▁Hu	-9.54231
▁menimbul	-9.54279
▁yakin	-9.54293
Irjen	-9.54404
▁Pertama	-9.54616
▁Juru	-9.54721
▁35	-9.54736
ner	-9.5479
▁City	-9.54811
▁mengapresiasi	-9.54906
land	-9.54914
▁Dar	-9.55035
▁Makassar	-9.55222
car	-9.55235
▁perjanjian	-9.55344
▁Senayan	-9.5538
IP	-9.55423
mati	-9.55435
mencetak	-9.55443
buru	-9.55467
▁pertanian	-9.55538
▁Sleman	-9.55538
ator	-9.55698
ib	-9.55724
kontribusi	-9.55734
▁Joe	-9.55924
▁ri	-9.56108
▁Rai	-9.56113
Donald	-9.56175
▁operasional	-9.56183
▁putih	-9.56333
▁Polresta	-9.56399
▁Akt	-9.56409
▁mati	-9.56426
▁Jik	-9.56431
▁sehari	-9.56502
sti	-9.56562
est	-9.56624
▁memanfaatkan	-9.56783
▁kepemimpinan	-9.56813
-19	-9.56816
jah	-9.5689
Mahfud	-9.56892
▁dipimpin	-9.56973
▁gugatan	-9.56996
▁terang	-9.57007
▁berawan	-9.57055
▁Kampung	-9.57077
siapkan	-9.57078
.30	-9.57107
▁tuduhan	-9.57134
▁kilometer	-9.57134
▁olahraga	-9.57134
▁penyebab	-9.57136
▁materi	-9.57146
▁Merah	-9.57224
tah	-9.57264
▁h	-9.57334
▁Ir	-9.57368
pertahankan	-9.57459
▁medis	-9.57468
distribusi	-9.57474
▁Serangan	-9.57544
kat	-9.57686
rektorat	-9.57712
▁2,	-9.57721
IN	-9.57801
kali	-9.57803
▁tambahnya	-9.57867
▁rokok	-9.57942
▁ha	-9.57982
tasi	-9.58027
▁Her	-9.58081
▁apresiasi	-9.58104
▁parlemen	-9.58104
AP	-9.58117
ip	-9.5825
▁transaksi	-9.58449
▁Industri	-9.58506
▁2019	-9.58592
▁laki	-9.58602
▁Siap	-9.58665
▁Ne	-9.58734
▁ditahan	-9.58801
mak	-9.58857
▁co	-9.58861
▁zona	-9.58922
ologi	-9.58965
▁Kom	-9.58969
▁komunikasi	-9.58986
▁gempa	-9.59085
▁Perusahaan	-9.59085
▁pelajar	-9.59087
kehilangan	-9.59088
▁angin	-9.5927
rum	-9.59376
▁pencarian	-9.59536
▁VOA	-9.59577
▁mesin	-9.59592
Undang	-9.59603
▁Mandiri	-9.59608
mohon	-9.59666
▁Pria	-9.59669
▁lu	-9.59719
▁Pos	-9.59778
▁Tae	-9.59813
tim	-9.59813
▁barat	-9.59817
▁laman	-9.59922
▁buah	-9.59972
▁Andi	-9.60037
▁mendengar	-9.60073
▁bu	-9.60196
dal	-9.60215
▁bupati	-9.60243
▁diambil	-9.60302
ser	-9.60317
▁libur	-9.6037
arif	-9.60388
▁berisi	-9.60403
▁haji	-9.60428
▁kontra	-9.60509
▁Dwi	-9.60536
▁Washington	-9.60571
▁persiapan	-9.60572
▁dulu	-9.60631
▁kaki	-9.60634
▁penelitian	-9.60728
adaan	-9.60765
mengalahkan	-9.60781
pan	-9.60793
▁suami	-9.60864
egang	-9.60891
alih	-9.60923
asan	-9.60973
-20	-9.61034
▁putaran	-9.61086
▁2023,	-9.61175
▁meyakin	-9.6124
▁Iskandar	-9.6124
rem	-9.61258
erwakilan	-9.61281
▁tuan	-9.61352
▁Angkat	-9.61379
▁dr	-9.6141
▁diskusi	-9.61413
▁mengubah	-9.61417
▁Indra	-9.61442
▁tanda	-9.6153
adakan	-9.61556
▁atlet	-9.61579
IS	-9.61635
prediksi	-9.61674
▁penegak	-9.61913
▁Putri	-9.61914
▁Hujan	-9.61917
ug	-9.61935
▁gedung	-9.61964
▁ketat	-9.61978
ben	-9.62015
terlalu	-9.6208
▁tangga	-9.62204
▁jatuh	-9.62252
rs	-9.62313
▁Lingkungan	-9.6242
ov	-9.6246
GOR	-9.62609
▁Digital	-9.6276
lar	-9.6278
▁Persis	-9.62809
▁Ce	-9.62825
▁minuman	-9.62828
▁obat	-9.62842
▁Nusa	-9.62962
put	-9.62981
end	-9.62993
KPU	-9.63009
▁pulang	-9.63095
teman	-9.63137
▁coba	-9.63138
Sudah	-9.63189
▁pertanyaan	-9.63272
▁penangkapan	-9.63273
▁Hakim	-9.63282
▁mudik	-9.63286
ron	-9.63299
▁selamat	-9.63413
▁Layan	-9.63487
▁dibuka	-9.63579
sabu	-9.63656
antara	-9.63733
rus	-9.63799
bal	-9.638
langkah	-9.63842
erapkan	-9.63875
▁Karawang	-9.63959
▁memungkin	-9.63959
▁Petugas	-9.64001
▁Kejaksaan	-9.64131
CEO	-9.64142
▁kehadiran	-9.64145
gas	-9.64244
▁Kepula	-9.64249
▁era	-9.64275
letak	-9.64284
▁menye	-9.64299
▁Festival	-9.64328
ion	-9.64336
▁fisik	-9.64403
▁Pemberantas	-9.6447
rd	-9.64566
▁te	-9.64589
▁oknum	-9.6465
▁Sam	-9.64705
ancam	-9.6476
angga	-9.64764
▁hutan	-9.64831
gabung	-9.64853
sus	-9.64904
suatu	-9.64909
▁berperan	-9.64919
▁Im	-9.64932
▁We	-9.65021
isme	-9.65118
▁Min	-9.65303
bor	-9.65318
▁berarti	-9.65339
▁praktik	-9.65347
▁kereta	-9.6535
jat	-9.65446
enang	-9.65446
▁Bambang	-9.65496
▁Madura	-9.65521
▁pantai	-9.65522
▁Dewa	-9.65626
dekatan	-9.65646
▁bayi	-9.65698
▁Surat	-9.6578
▁menutup	-9.65872
▁membeli	-9.65878
▁Afrika	-9.65892
Muhaimin	-9.66048
▁kapasitas	-9.66121
▁Pri	-9.663
▁Pranowo	-9.664
▁longsor	-9.664
▁persoalan	-9.66405
tro	-9.6653
nyatakan	-9.66557
produksi	-9.66567
▁pabrik	-9.66577
▁Polsek	-9.66577
▁perekonomian	-9.66754
▁standar	-9.66754
▁Mobil	-9.66773
▁Imigrasi	-9.66784
uku	-9.66789
hitung	-9.6683
▁kementerian	-9.66931
▁menarget	-9.66931
▁Daya	-9.66964
ac	-9.66968
▁the	-9.67062
▁teknis	-9.67109
▁hewan	-9.67124
▁damai	-9.67287
▁For	-9.67414
▁wa	-9.67438
▁Persebaya	-9.67465
▁SEMARA	-9.67465
▁diamankan	-9.67492
▁batas	-9.67498
▁ditemui	-9.67512
langan	-9.67525
▁faktor	-9.67643
▁keduanya	-9.67812
▁profesional	-9.67822
-23	-9.67844
ngunjungi	-9.67867
gerakan	-9.67934
▁menentukan	-9.68001
▁belajar	-9.68002
kes	-9.6802
▁kampus	-9.68037
▁Guru	-9.68051
arah	-9.68065
kaitan	-9.68141
▁fitur	-9.68183
sia	-9.68249
rata	-9.68285
apten	-9.68337
▁SAR	-9.68408
▁lah	-9.68433
▁lawan	-9.68523
▁Sya	-9.68531
▁anaknya	-9.68558
rang	-9.68632
▁Bakal	-9.68749
Jadi	-9.68793
▁Tapi	-9.6882
▁Sosial	-9.68894
▁pengamanan	-9.68903
▁rusak	-9.68907
▁aset	-9.6894
▁buku	-9.68964
▁Karya	-9.69007
ria	-9.6919
▁(3	-9.69246
▁bertaj	-9.69279
perluas	-9.69405
▁mendalam	-9.69414
▁dibuat	-9.69538
daran	-9.69551
▁Semua	-9.6957
▁ikan	-9.69629
des	-9.6963
▁mengonsumsi	-9.6964
▁bahasa	-9.69755
sum	-9.69768
▁Po	-9.69792
▁Beijing	-9.69811
▁Surakarta	-9.69811
▁dahulu	-9.69811
▁Tiga	-9.69828
▁menyusu	-9.69869
lari	-9.69886
▁Mahfud	-9.69904
▁Pelabuhan	-9.69994
▁menyorot	-9.69999
▁Trans	-9.70158
hadiri	-9.70161
▁konten	-9.70222
▁kerap	-9.70232
AT	-9.7025
▁berwenang	-9.70475
▁undang	-9.70485
▁Peraturan	-9.70546
▁capres	-9.70552
▁khawatir	-9.70555
▁Kepolisian	-9.70729
▁efektif	-9.70752
▁sepak	-9.71009
pel	-9.71031
deklarasi	-9.71098
▁seksual	-9.71098
bantah	-9.71141
▁bertanggung	-9.71228
lon	-9.71285
▁Turki	-9.71296
▁gas	-9.71331
▁News	-9.71345
dak	-9.71467
▁kemajuan	-9.71469
▁penurunan	-9.71469
Seperti	-9.71479
▁prioritas	-9.71651
▁pasien	-9.71656
rujuk	-9.71764
▁kontrak	-9.71799
▁hitam	-9.71842
▁darurat	-9.7187
▁timur	-9.71876
ifikasi	-9.71923
▁pula	-9.71953
▁senang	-9.71963
▁menampi	-9.72028
▁Konstitusi	-9.7203
▁kerugian	-9.7203
▁Muslim	-9.72035
daya	-9.7209
engendara	-9.7211
▁jasa	-9.72151
pasang	-9.72154
▁Kelompok	-9.72215
RA	-9.72239
had	-9.72298
▁Ayu	-9.7234
mpang	-9.72356
▁Yu	-9.72365
▁Ros	-9.72377
▁Teknologi	-9.72402
▁Putin	-9.72453
KP	-9.7247
gam	-9.72514
ex	-9.72514
pon	-9.72525
▁Netanyahu	-9.72589
▁Sekolah	-9.7259
judul	-9.726
▁beroperasi	-9.72663
▁pikir	-9.72735
▁kerusakan	-9.72784
asar	-9.72916
▁batu	-9.72933
ili	-9.72951
▁tanggung	-9.73034
▁grup	-9.73155
▁Sungai	-9.73155
▁Bersama	-9.73277
▁Ben	-9.73287
urnamen	-9.73319
▁Masjid	-9.73343
▁mengusu	-9.73507
ikat	-9.73531
▁menengah	-9.73533
▁Pekanbaru	-9.73534
lansir	-9.73534
pat	-9.73536
▁diperlukan	-9.73536
ation	-9.73542
▁beragam	-9.73569
▁kecamatan	-9.73723
▁layak	-9.73729
▁Kompol	-9.73741
▁pengusaha	-9.73807
▁Keluarga	-9.73913
aman	-9.7402
$	-9.74034
▁konsisten	-9.74103
▁kunci	-9.74103
▁Qatar	-9.74103
▁serupa	-9.74115
kam	-9.7413
▁Th	-9.74142
gra	-9.74208
mpulkan	-9.74454
▁pengirim	-9.74486
▁Geo	-9.74595
puluh	-9.7463
nis	-9.74712
▁Pertanian	-9.74869
oli	-9.74893
duduk	-9.74981
▁3,	-9.75033
▁pohon	-9.75062
sal	-9.75212
23	-9.75235
▁menu	-9.75252
▁wanita	-9.75255
▁mundur	-9.75296
mah	-9.75317
aya	-9.75341
syukur	-9.75449
lit	-9.75457
▁Za	-9.75501
ukur	-9.75504
jadwal	-9.75508
rai	-9.75529
TA	-9.75531
nah	-9.75574
▁pendapatan	-9.75588
▁32	-9.75641
pen	-9.75646
▁tekanan	-9.75662
▁Bung	-9.75731
tam	-9.75776
asana	-9.75786
promosi	-9.75801
▁tumbuh	-9.75807
▁selanjutnya	-9.75834
▁bertahan	-9.75847
▁Gelar	-9.75847
-3	-9.75898
DA	-9.76003
▁Spanyol	-9.76028
▁rekan	-9.76055
her	-9.76055
BI	-9.76076
▁Pimpinan	-9.76153
▁Hasan	-9.76192
antisipasi	-9.76223
▁En	-9.76224
▁pengunjung	-9.76235
▁Kelas	-9.76258
50	-9.76363
lagi	-9.7637
▁2026	-9.76418
NI	-9.76482
▁buat	-9.76497
serta	-9.76581
▁Persija	-9.76614
▁St	-9.76683
aw	-9.76695
▁Q	-9.76789
▁Media	-9.76887
ER	-9.76899
usul	-9.76922
andang	-9.7693
▁Dana	-9.76932
▁36	-9.76951
▁Anwar	-9.77037
▁lanjutnya	-9.77109
▁sesuatu	-9.77114
▁jangka	-9.77124
wati	-9.77136
▁akrab	-9.77201
▁warna	-9.77275
▁berubah	-9.77337
nspirasi	-9.77403
▁karyawan	-9.77428
▁Dedi	-9.77435
bangkit	-9.77438
elum	-9.77583
▁Tan	-9.7759
▁peraturan	-9.77597
▁diserta	-9.77769
▁berkualitas	-9.77793
▁remaja	-9.77793
▁kekuasaan	-9.77796
ASN	-9.77801
▁SK	-9.77811
▁nyaman	-9.77811
▁Ag	-9.77893
▁nantinya	-9.77937
▁Soal	-9.77952
▁Tbk	-9.77993
▁Kaltim	-9.78193
▁Martin	-9.78222
▁Aparat	-9.78244
ngusung	-9.78264
▁transportasi	-9.78388
▁klaim	-9.78468
▁Agama	-9.78472
rusak	-9.7858
▁Militer	-9.78587
moga	-9.78645
▁kanan	-9.78671
kunjung	-9.78672
▁inisia	-9.78715
▁Surya	-9.78737
▁memaham	-9.78773
lla	-9.78778
▁Kapolda	-9.78787
▁umat	-9.78812
▁lengkap	-9.78836
log	-9.78913
Ke	-9.78921
KPK	-9.78972
▁nasabah	-9.78987
▁tes	-9.79025
▁manajemen	-9.79187
▁gaji	-9.79227
ood	-9.79244
PT	-9.79397
gagal	-9.79401
▁Balai	-9.79597
eg	-9.79723
▁tahanan	-9.79762
▁ekstrem	-9.79791
▁Majel	-9.79803
▁agenda	-9.79939
▁ekosistem	-9.79993
lek	-9.79999
▁Karno	-9.80062
▁pemuda	-9.80132
▁...	-9.80156
▁bunga	-9.80202
▁80	-9.80253
▁tadi	-9.80341
▁situs	-9.80396
▁Singapura	-9.80398
▁aktivis	-9.80398
▁Car	-9.80415
▁Dis	-9.80447
▁rekomendasi	-9.8046
encana	-9.80519
AI	-9.80596
▁dibutuhkan	-9.80602
▁Unit	-9.80605
▁Kim	-9.80665
sya	-9.80678
▁90	-9.80702
angkatan	-9.80728
ayoritas	-9.80751
olah	-9.808
andung	-9.8081
ze	-9.80819
▁Arya	-9.80828
▁Kediri	-9.80901
▁Ting	-9.80904
▁Ade	-9.80906
▁BP	-9.80924
▁mengimbau	-9.80966
bebasan	-9.80975
▁mela	-9.81004
▁Jumlah	-9.81009
▁perbaikan	-9.8101
ium	-9.81141
chi	-9.81185
▁membayar	-9.81214
▁meraya	-9.81248
▁semuanya	-9.81295
▁Sal	-9.81394
▁kalinya	-9.81413
▁Sekjen	-9.81413
▁Borneo	-9.81419
▁Sakit	-9.8142
sifat	-9.81424
mantau	-9.81454
▁persidangan	-9.81624
▁Irak	-9.81671
udin	-9.81785
▁prinsip	-9.8179
▁nuklir	-9.8183
▁swasta	-9.81853
cy	-9.81856
van	-9.81878
ven	-9.81894
▁Hadi	-9.81901
▁Emas	-9.81949
▁PSI	-9.81959
RUU	-9.81981
▁World	-9.82036
▁pener	-9.82071
▁45	-9.8219
tiba	-9.82207
▁elektabilitas	-9.82243
▁Tanjung	-9.82267
bulan	-9.82375
▁sebut	-9.82402
▁ibadah	-9.8245
▁logistik	-9.8245
▁Kanwil	-9.82451
▁Taman	-9.82482
mbung	-9.8261
nan	-9.82623
▁Kapal	-9.82659
▁Setiawan	-9.82662
ntang	-9.82667
▁NTB	-9.82693
tir	-9.8272
▁on	-9.82732
▁Haji	-9.8276
OK	-9.82761
IC	-9.8277
vin	-9.82777
ket	-9.82802
▁70	-9.82942
▁Sat	-9.82942
oko	-9.8298
▁sah	-9.83021
▁Meteorologi	-9.83073
Q	-9.83143
oh	-9.83179
oto	-9.83249
▁sungai	-9.83282
ct	-9.83321
beda	-9.83343
▁kiri	-9.83349
▁Pasalnya	-9.83492
Keputusan	-9.83492
▁Motor	-9.83493
▁minta	-9.8352
▁perayaan	-9.83532
▁Maka	-9.83559
▁Er	-9.83577
▁Departemen	-9.83707
▁Eric	-9.83805
▁Nana	-9.83875
▁identitas	-9.83911
▁fakta	-9.83921
▁pasca	-9.83965
▁catatan	-9.83992
▁HUT	-9.84062
▁Bar	-9.84093
▁Jogja	-9.84122
▁berikutnya	-9.84126
iyah	-9.84142
▁perangkat	-9.84197
▁Hadir	-9.84234
▁BO	-9.84239
▁keselamatan	-9.84332
▁respons	-9.84332
▁Maju	-9.84344
lambat	-9.84351
▁34	-9.84352
▁BPBD	-9.84405
KA	-9.84455
ight	-9.84477
▁Cuaca	-9.84544
Persero	-9.84562
▁dinas	-9.84563
mbo	-9.84587
ganggu	-9.84682
Polrestabes	-9.84704
▁Gianyar	-9.84756
▁bersenjata	-9.84756
▁melintas	-9.84758
▁Bahkan	-9.84803
▁Ch	-9.84836
ros	-9.84869
▁ketentuan	-9.84968
▁0,	-9.84982
▁Mahasiswa	-9.85001
▁MD	-9.85137
▁kelahiran	-9.85181
▁permasalahan	-9.85181
▁Aksi	-9.85189
▁menyeru	-9.85217
▁pasok	-9.85239
▁Perang	-9.8527
▁SMA	-9.85353
laga	-9.85388
▁permainan	-9.85395
mengakhiri	-9.85418
▁Sen	-9.8544
▁lahir	-9.85465
memperkenalkan	-9.85608
▁ASEAN	-9.85608
▁hijau	-9.85608
▁memeriksa	-9.85694
rin	-9.85724
PS	-9.85732
▁pembeli	-9.85823
▁perdamaian	-9.85832
▁Imam	-9.85858
▁model	-9.85918
▁mempunya	-9.85938
▁misalnya	-9.86036
▁militan	-9.86037
▁Bangsa	-9.86062
▁perintah	-9.86086
▁rekam	-9.86102
perbaiki	-9.8611
bantu	-9.86121
▁Bisa	-9.86171
▁plastik	-9.86252
▁sandera	-9.86253
▁Eks	-9.86322
▁Usaha	-9.86467
▁diperiksa	-9.8647
▁Menang	-9.86678
ena	-9.86703
elawan	-9.86741
▁jarak	-9.86783
yong	-9.868
▁tunggal	-9.86899
▁Ratusan	-9.86912
▁wisatawan	-9.86936
hin	-9.87045
hat	-9.87062
menangani	-9.87085
▁tertulis	-9.87134
▁PSIS	-9.87176
▁Tetapi	-9.87252
▁Or	-9.87332
▁Kawasan	-9.87334
Z	-9.87415
elola	-9.87515
ampung	-9.87564
▁Penghargaan	-9.87649
elang	-9.87715
▁Marc	-9.87741
▁Pemuda	-9.8777
rawan	-9.87853
▁Arema	-9.87894
jalin	-9.87895
▁berkolaborasi	-9.87989
▁klasemen	-9.87989
▁internal	-9.87992
▁Atas	-9.88
kot	-9.8802
▁Kampanye	-9.88028
yono	-9.88049
▁Bantul	-9.88097
ound	-9.88178
▁KA	-9.88222
▁lancar	-9.8833
▁sosialisasi	-9.88342
▁tren	-9.88345
▁Soe	-9.88384
▁38	-9.8843
▁Sebelum	-9.88468
▁500	-9.88552
▁bakar	-9.88587
▁Tersangka	-9.88595
cer	-9.88629
▁Komunikasi	-9.88648
rekrut	-9.88657
▁konsep	-9.88699
▁desain	-9.88719
20	-9.88725
▁seseorang	-9.88734
fisika	-9.88744
kin	-9.88747
▁Bantuan	-9.88757
menghindari	-9.88869
▁aspek	-9.88869
▁kilogram	-9.88869
▁Lapangan	-9.88869
main	-9.8897
▁diseba	-9.89157
dalam	-9.8919
0.000	-9.89337
▁kampung	-9.89365
uli	-9.89366
erkait	-9.89417
SA	-9.89494
▁fungsi	-9.8953
▁Pelaksana	-9.89534
▁modern	-9.89534
▁Pakistan	-9.89535
▁ganggu	-9.89538
▁Belanda	-9.89545
▁BBM	-9.89593
ajar	-9.89596
▁du	-9.89655
▁ayah	-9.89668
▁PSS	-9.8967
baik	-9.89723
dorong	-9.89725
▁jenazah	-9.89757
▁regulasi	-9.89757
tus	-9.89839
satunya	-9.89949
▁krisis	-9.8998
▁University	-9.89981
▁Suka	-9.90022
▁koordinasi	-9.90022
▁Open	-9.90055
▁lihat	-9.90124
kelompok	-9.90174
▁darat	-9.90217
▁li	-9.90224
mpu	-9.90436
PK	-9.90445
RB	-9.90445
▁Ham	-9.90465
ew	-9.90468
▁susu	-9.90509
AD	-9.90535
syah	-9.90589
MS	-9.9061
▁York	-9.90654
eb	-9.90678
setara	-9.90829
▁kontribusi	-9.90842
▁pembayaran	-9.90878
▁toko	-9.90901
▁saudara	-9.90913
ON	-9.90929
▁Laporan	-9.90953
▁massa	-9.91065
▁membagi	-9.91081
▁Pengamat	-9.91104
▁Juanda	-9.91106
▁bilang	-9.91129
wo	-9.91158
hon	-9.91196
▁Bas	-9.9125
rim	-9.91265
▁semifinal	-9.9133
▁perjuangan	-9.9133
▁Ngur	-9.91425
▁protes	-9.91437
▁Ketenagakerjaan	-9.91557
▁sukarelawan	-9.9156
hitungan	-9.91633
KS	-9.91689
▁Gen	-9.91724
izin	-9.91753
▁Mak	-9.91771
gg	-9.91773
▁menuduh	-9.91788
▁beliau	-9.91796
Jokowi	-9.91814
lok	-9.91882
ito	-9.91898
lokasi	-9.9198
MA	-9.91986
▁nelayan	-9.92012
▁tersedia	-9.92012
sul	-9.92052
▁pos	-9.92089
jm	-9.92096
▁Alam	-9.92103
cerdas	-9.92246
ill	-9.92357
yat	-9.92445
▁pariwisata	-9.92469
▁skuad	-9.92469
▁berhenti	-9.9251
▁!	-9.92531
gaya	-9.9257
▁tahapan	-9.92631
▁viral	-9.92698
▁Surve	-9.92699
▁Tindak	-9.92699
▁pintu	-9.927
emberantas	-9.92709
▁drone	-9.92709
▁dibangun	-9.92734
skala	-9.92793
buktikan	-9.92795
AC	-9.92848
sep	-9.92901
guyur	-9.92928
▁suaminya	-9.92985
duk	-9.9301
▁Gelora	-9.93159
▁kekhawatiran	-9.93159
▁mengucap	-9.93159
▁Sumut	-9.93159
▁David	-9.93168
▁rela	-9.93221
tengah	-9.93228
▁Suara	-9.93249
AH	-9.93285
▁Ram	-9.93327
▁peny	-9.93354
▁diberi	-9.93402
▁usai	-9.935
▁PPP	-9.93519
▁Klimatologi	-9.93621
▁merespons	-9.93621
▁Ab	-9.93722
▁sasaran	-9.93855
tahanan	-9.9388
pertimbangkan	-9.93918
▁pengurus	-9.93948
▁beli	-9.9404
▁Mulai	-9.9409
▁PSSI	-9.94116
▁Manusia	-9.9413
▁melayan	-9.94156
▁tambang	-9.94181
▁dip	-9.94214
raf	-9.94215
▁Gol	-9.94277
dung	-9.94292
rap	-9.94295
buk	-9.94295
▁Mesir	-9.94321
▁mo	-9.94322
CC	-9.94358
▁NU	-9.94359
▁Akan	-9.94381
▁pembuka	-9.94396
betul	-9.94442
▁buka	-9.94469
dana	-9.94488
▁Cu	-9.94552
▁pameran	-9.94565
PO	-9.94637
▁terseb	-9.94712
embus	-9.94746
▁YOGYAK	-9.94786
▁Rus	-9.94787
▁ilmu	-9.94789
▁edukasi	-9.94829
▁normal	-9.94831
▁33	-9.94832
fokus	-9.94931
▁kesa	-9.95033
dri	-9.95063
▁Sebut	-9.95111
▁Jember	-9.95271
▁pra	-9.95458
arkan	-9.95472
▁Chi	-9.95507
▁(2	-9.9554
▁Patr	-9.95567
▁sekutu	-9.95728
Di	-9.95777
angkut	-9.95786
▁Andika	-9.95811
▁upa	-9.95817
▁kuasa	-9.95836
stan	-9.95842
▁mengawal	-9.95856
DP	-9.95865
▁memb	-9.95885
▁menganggap	-9.95899
erahkan	-9.95936
▁Maluku	-9.95972
asih	-9.95994
▁KM	-9.96006
utama	-9.96007
▁Menjela	-9.96031
▁Produk	-9.96086
▁jurnalis	-9.96138
▁Sidoarjo	-9.96203
▁pencurian	-9.96203
▁Istana	-9.96204
▁hotel	-9.96204
▁Langkah	-9.96213
▁Pangan	-9.96247
▁kamar	-9.96272
▁2025.	-9.96341
dah	-9.96402
▁pendapat	-9.96423
▁hendak	-9.96442
perpanjang	-9.96458
▁bumi	-9.9649
Kalau	-9.96651
jen	-9.96813
gel	-9.96845
▁Idulfitri	-9.96919
▁melanda	-9.9694
ast	-9.96954
▁doa	-9.96972
dera	-9.96986
▁adat	-9.97018
▁dilantik	-9.97041
▁melepas	-9.97091
▁Raja	-9.97095
ualifikasi	-9.97132
▁serentak	-9.97159
implementasi	-9.97159
▁Akbar	-9.9716
kiri	-9.97222
▁menghubung	-9.97286
ati	-9.97296
dor	-9.97319
▁mema	-9.97386
▁no	-9.97446
▁perairan	-9.97453
▁gelo	-9.97518
▁Jangan	-9.97533
▁menjadikan	-9.97545
BC	-9.97588
▁Meny	-9.97629
▁investor	-9.9764
▁koalisi	-9.97642
bakar	-9.97654
▁mengada	-9.97657
SP	-9.97658
▁Rencana	-9.97695
indo	-9.97703
hormati	-9.97756
▁Sub	-9.9783
PU	-9.97852
▁meliputi	-9.97882
▁seni	-9.97906
▁Lapas	-9.97925
▁pas	-9.98064
▁Indo	-9.98084
▁Rizky	-9.98124
kel	-9.98185
gizi	-9.98189
▁Sidang	-9.982
▁halaman	-9.98202
▁merek	-9.98249
▁lo	-9.98346
▁migran	-9.98367
▁lebat	-9.98389
▁tamu	-9.98397
▁Rafah	-9.98403
▁penonton	-9.98403
▁Menko	-9.9842
sapa	-9.9852
onal	-9.98523
lip	-9.98526
fer	-9.98594
latar	-9.98653
▁]	-9.98697
berencana	-9.98756
▁evaluasi	-9.98834
▁pidato	-9.98854
+	-9.98854
▁timnya	-9.98866
▁administrasi	-9.98878
cetak	-9.98887
nuntut	-9.98905
▁konser	-9.98912
▁Fu	-9.98919
▁pergi	-9.98953
pasti	-9.98988
uji	-9.99006
▁Dn	-9.99067
▁Diketahui	-9.99098
▁Myanmar	-9.99098
▁he	-9.99105
▁2016	-9.99114
▁(17	-9.99143
▁Bicara	-9.99335
▁pokok	-9.99345
ev	-9.99476
▁DIY	-9.99527
▁keluarganya	-9.99546
▁optimal	-9.99589
▁WITA	-9.99589
▁Tingkat	-9.99598
▁Badung	-9.99626
bit	-9.99663
▁Mus	-9.99715
ity	-9.99752
▁TikTok	-9.99836
▁keberadaan	-9.99836
▁penganiayaan	-9.99836
▁parkir	-9.99836
▁Capres	-9.9986
▁instansi	-9.99864
IT	-9.99894
▁pola	-9.99915
▁Con	-9.9995
▁Sha	-9.99965
bus	-9.99998
▁Sh	-10.0002
▁pakar	-10.0006
▁Cak	-10.0008
▁Gresik	-10.0008
▁Kondisi	-10.0008
▁kartu	-10.0009
▁Han	-10.0012
▁maaf	-10.0013
▁Kabar	-10.0027
▁Reskrim	-10.0033
alurkan	-10.0033
▁75	-10.0054
▁Jadwal	-10.0058
▁Pancasila	-10.0058
▁Parlemen	-10.0058
▁intens	-10.006
▁Paus	-10.0066
DI	-10.0067
▁Bencana	-10.007
wah	-10.007
pri	-10.0073
TI	-10.0075
▁penyidikan	-10.0079
▁KAI	-10.0084
▁istrinya	-10.0087
PR	-10.009
rebut	-10.0091
▁@	-10.0098
▁(6	-10.01
▁Luthfi	-10.0108
▁pernikahan	-10.0108
kesulitan	-10.0108
lolos	-10.0108
▁komentar	-10.011
baran	-10.0114
▁Ketum	-10.012
ujung	-10.0121
▁Manage	-10.0122
rta	-10.0131
▁Kasat	-10.0138
▁bintang	-10.0139
▁SD	-10.0143
▁merugi	-10.0147
▁Proses	-10.015
▁efek	-10.0155
▁berlanjut	-10.0158
transformasi	-10.0163
was	-10.0171
awasi	-10.0175
batalkan	-10.0183
bud	-10.0185
▁ramah	-10.0185
▁peluncur	-10.0194
▁beredar	-10.0202
▁2018	-10.0208
▁Divisi	-10.0217
▁minum	-10.0223
▁Tewas	-10.0235
▁penye	-10.0237
tinggi	-10.0245
▁Arif	-10.0246
ps	-10.026
let	-10.0261
tic	-10.0261
▁Malam	-10.0263
▁arahan	-10.0273
▁keberlanjutan	-10.0284
▁konsumsi	-10.0284
▁bersalah	-10.0284
▁Wal	-10.0285
▁rumahnya	-10.0292
▁gula	-10.0292
▁pasal	-10.03
line	-10.0301
▁keempat	-10.0301
▁narkotika	-10.0309
inggung	-10.031
▁cerah	-10.031
OM	-10.0315
sial	-10.0316
asuki	-10.0316
▁adil	-10.0324
▁Tiongkok	-10.0335
▁menjual	-10.0335
▁Wayan	-10.0339
▁Hidup	-10.036
▁level	-10.036
▁prestasi	-10.0361
▁modal	-10.0361
▁Minta	-10.0363
GM	-10.0368
ola	-10.0369
▁rata	-10.0371
buat	-10.0372
koordinasi	-10.0374
▁menanda	-10.0374
perhatikan	-10.0375
jerat	-10.0382
teks	-10.0384
▁siar	-10.0386
▁independen	-10.0386
▁keseluruhan	-10.0386
enaga	-10.0387
▁sesi	-10.0394
ragu	-10.04
das	-10.04
▁Real	-10.0403
▁puasa	-10.0408
gantung	-10.0411
▁AFF	-10.0412
val	-10.0417
undur	-10.0428
raja	-10.0435
▁Perdagangan	-10.0438
▁inflasi	-10.0438
▁palsu	-10.0438
▁Italia	-10.0438
▁Jaksa	-10.0445
▁Honda	-10.0467
▁pembuat	-10.047
▁Amin	-10.047
tidak	-10.0475
▁Antara	-10.0476
▁seri	-10.0477
▁Mun	-10.0478
▁suku	-10.0483
▁jemaah	-10.0491
▁PNS	-10.0494
usulan	-10.0495
calon	-10.0496
▁PSM	-10.0497
jaya	-10.0502
ez	-10.0504
▁berjanji	-10.0505
▁Kembali	-10.0508
▁menembak	-10.0515
▁Jam	-10.0515
▁emisi	-10.0516
TB	-10.0519
▁peroleh	-10.0531
bes	-10.0531
DC	-10.0534
EN	-10.0534
ninjau	-10.0536
unggah	-10.0537
▁Marquez	-10.0541
▁Akibat	-10.0541
▁penyedia	-10.0541
bol	-10.0542
raya	-10.0543
▁Kris	-10.0555
serang	-10.0558
▁Super	-10.056
▁berbahaya	-10.0567
▁dekade	-10.0567
▁tradisional	-10.0568
▁studi	-10.0569
tun	-10.0569
▁Mel	-10.057
▁Bukan	-10.0571
▁Bulan	-10.0575
berjuang	-10.0576
▁SMP	-10.0584
▁Bin	-10.059
▁masjid	-10.0594
▁kopi	-10.06
dap	-10.0605
ermohon	-10.0618
▁Yayasan	-10.062
▁oposisi	-10.062
▁Hodak	-10.0621
▁telepon	-10.0622
AL	-10.0625
▁Pagi	-10.0634
▁dok	-10.0637
tara	-10.0642
▁YouTube	-10.0646
▁pedagang	-10.0646
▁keadilan	-10.0646
▁besok	-10.0648
IM	-10.0649
▁terbatas	-10.0655
▁liar	-10.0659
▁mental	-10.0661
bek	-10.0662
▁Kong	-10.0663
▁KH	-10.0665
▁Pengembangan	-10.0677
TP	-10.0677
▁gu	-10.0682
▁Perlin	-10.0685
rek	-10.0685
▁Pin	-10.0689
▁Puncak	-10.0699
/11/2024)	-10.0699
▁kas	-10.07
▁diusung	-10.07
lia	-10.0703
▁jaksa	-10.0704
▁Tru	-10.0706
batasan	-10.0714
▁Selanjutnya	-10.0721
▁Ria	-10.0723
▁Moskow	-10.0726
▁Pidana	-10.0726
▁Pramono	-10.0727
ivitas	-10.0744
▁dilanjutkan	-10.0752
▁Pernyataan	-10.0752
▁Rektor	-10.0752
▁pemadam	-10.0752
▁Sedangkan	-10.0753
▁tanggapan	-10.0754
rt	-10.0758
BT	-10.077
via	-10.0773
▁daring	-10.0774
▁namanya	-10.0774
▁Dukung	-10.0776
IA	-10.0778
▁dimiliki	-10.0779
▁alami	-10.078
cermin	-10.078
▁tuntutan	-10.0781
kal	-10.08
▁Fer	-10.0801
▁Pengawas	-10.0803
▁Fakultas	-10.0806
▁elektronik	-10.0806
sosiasi	-10.0806
▁dikirim	-10.0806
▁karakter	-10.0806
mata	-10.0813
▁Angka	-10.0814
▁Habib	-10.0832
▁Niaga	-10.0832
▁cedera	-10.0833
▁gawang	-10.0833
ecuali	-10.0834
ken	-10.0844
lly	-10.0846
opir	-10.0847
pilih	-10.0848
ers	-10.0849
▁sebab	-10.0849
▁37	-10.0857
▁Pasukan	-10.086
▁Top	-10.086
▁Gerak	-10.086
▁asli	-10.0862
ila	-10.0865
eluruh	-10.0865
komunikasi	-10.0875
PM	-10.0878
▁RT	-10.0886
▁Sultan	-10.0887
▁Boj	-10.0891
tha	-10.0897
ary	-10.0907
sing	-10.0909
▁Organisasi	-10.0913
▁penipuan	-10.0913
▁singkat	-10.0913
hadapan	-10.0914
RSUD	-10.092
▁Bumi	-10.0923
▁Cina	-10.0927
▁US	-10.0927
▁BKN	-10.093
▁kaya	-10.0933
▁)",	-10.0933
saingan	-10.0936
▁Puluh	-10.0941
▁Masa	-10.0949
▁artis	-10.0954
▁komp	-10.0961
▁Sistem	-10.0968
▁Manajemen	-10.0968
▁Raff	-10.0968
▁berulang	-10.0973
bas	-10.0973
engumum	-10.0973
▁menyebar	-10.0978
▁Penyanyi	-10.0979
Ada	-10.0979
laya	-10.0991
▁Thohir	-10.0995
▁bangga	-10.1007
▁1.000	-10.1019
▁perbuatan	-10.1022
▁lantas	-10.1022
▁optimistis	-10.1022
▁Kongres	-10.1024
▁Tom	-10.1024
▁melewat	-10.1024
▁duduk	-10.1038
▁Ruang	-10.1041
▁PAN	-10.1041
lik	-10.1049
▁keuntungan	-10.105
▁kontesta	-10.105
▁bin	-10.1051
▁Satpol	-10.1051
▁SDM	-10.1051
▁penampilan	-10.1053
▁Kini	-10.1062
ecam	-10.1069
▁arti	-10.1073
▁berkat	-10.1074
partisipasi	-10.1075
▁aspirasi	-10.1077
▁diserah	-10.1079
ramal	-10.108
dha	-10.1082
▁Padahal	-10.1088
panggil	-10.1089
▁Ren	-10.1091
enjamin	-10.1092
sarana	-10.1101
untung	-10.1102
▁Narkoba	-10.1105
▁sisa	-10.1105
▁peneliti	-10.1107
itkan	-10.1112
▁(20	-10.1119
▁menggambar	-10.1119
▁dirilis	-10.1125
ANG	-10.113
▁evakuasi	-10.1132
▁2017	-10.1134
▁Eksekutif	-10.1136
▁Perhubungan	-10.1136
▁pemenang	-10.1139
pot	-10.1152
▁membela	-10.1187
▁Ungkap	-10.1188
▁kekurangan	-10.1188
▁tajam	-10.119
▁Biak	-10.1198
▁inti	-10.1203
▁Sun	-10.1213
▁Global	-10.1215
▁Stasiun	-10.1215
polsek	-10.1216
tum	-10.1216
▁keunggulan	-10.1216
▁Demak	-10.1221
▁imbang	-10.1228
▁Eko	-10.1234
DPC	-10.124
▁Honorer	-10.1243
▁Championship	-10.1243
▁ditutup	-10.1243
▁Kanada	-10.1243
▁wajah	-10.1245
▁suhu	-10.1247
▁Mohammad	-10.1249
AK	-10.1252
▁Beri	-10.1252
SK	-10.1262
nyelenggara	-10.1263
av	-10.1265
▁kotak	-10.1267
▁Bengkulu	-10.1271
▁NasDem	-10.1271
▁rupiah	-10.1271
▁Kapolri	-10.1271
▁Perubahan	-10.1272
▁peninda	-10.1272
▁Law	-10.1276
▁SMK	-10.1277
▁Sar	-10.1277
▁khas	-10.1278
▁PLN	-10.1279
LHK	-10.1281
▁dialami	-10.129
▁ketidak	-10.1293
▁Sab	-10.1294
kon	-10.1299
▁kekalahan	-10.13
▁pensiun	-10.13
▁peredaran	-10.13
▁kreatif	-10.13
▁cukai	-10.1301
baya	-10.1315
RU	-10.1318
▁Ida	-10.132
terbit	-10.1321
▁Wahyu	-10.1324
▁suporter	-10.1328
▁unsur	-10.1328
▁Edi	-10.1328
▁tol	-10.1331
▁murah	-10.1331
Kemen	-10.1342
▁300	-10.1347
ate	-10.1348
Corporate	-10.1356
▁individu	-10.1356
▁subsidi	-10.136
macam	-10.1362
▁unggulan	-10.1378
▁Afghanistan	-10.1384
▁sepenuhnya	-10.1384
▁Brasil	-10.1384
▁terkena	-10.1386
▁pembebasan	-10.1389
▁suka	-10.1392
melaju	-10.1394
▁tenang	-10.1397
▁Ketiga	-10.1399
lapor	-10.14
▁pulau	-10.1409
ubah	-10.1411
▁Cirebon	-10.1413
▁Satgas	-10.1414
▁red	-10.1414
wang	-10.142
▁peme	-10.1421
jan	-10.1428
edar	-10.1435
▁pindah	-10.1439
▁memerintah	-10.1441
▁kemiskinan	-10.1441
▁Dokter	-10.1441
▁belanja	-10.1441
▁Gunawan	-10.1443
▁utang	-10.1443
EA	-10.1449
▁Pang	-10.1449
▁Art	-10.145
yam	-10.1451
▁wawancara	-10.1452
niat	-10.1458
▁kandang	-10.1459
▁ditanya	-10.1468
▁Studi	-10.147
▁kandung	-10.1472
jadikan	-10.1472
▁sepakat	-10.1472
▁Reuters	-10.1474
▁kamu	-10.1474
▁pencapaian	-10.1475
▁garis	-10.1476
way	-10.1489
cal	-10.1494
ambu	-10.1497
▁Fe	-10.1497
▁Dipta	-10.1499
▁Indah	-10.1501
▁Dukungan	-10.1502
nggak	-10.1509
RE	-10.1524
jogja	-10.1527
▁Upaya	-10.153
berlakukan	-10.1531
▁Bagaimana	-10.1538
▁ID	-10.1538
▁cerita	-10.1543
▁Paul	-10.1544
balap	-10.1544
erjanjian	-10.1545
▁Mal	-10.1549
▁Hong	-10.1555
otivasi	-10.1556
ding	-10.1566
▁mewakil	-10.1571
kian	-10.1576
▁Hubungan	-10.1585
▁bersangkutan	-10.1585
▁tidur	-10.1585
▁kesalahan	-10.1585
▁Grand	-10.1586
▁dikeluarkan	-10.1586
▁hektare	-10.1588
nding	-10.1594
-7	-10.16
▁Park	-10.1602
▁Aman	-10.1612
IK	-10.1613
▁kompetensi	-10.1614
▁prosedur	-10.1614
▁membaca	-10.1614
▁Pegi	-10.1615
▁Penyelenggara	-10.1618
▁Tujuan	-10.162
bekal	-10.1623
omentum	-10.1627
pak	-10.1628
ddy	-10.1631
▁awalnya	-10.1632
Untu	-10.1634
▁berdiri	-10.1638
▁Pemimpin	-10.1643
▁kompleks	-10.1643
▁hiburan	-10.1644
akar	-10.1646
▁Siti	-10.1649
▁dimaksud	-10.165
▁Perwakilan	-10.1652
SBS	-10.1653
▁Sama	-10.1658
bin	-10.1661
UN	-10.1662
puk	-10.1664
▁produse	-10.1667
▁Awards	-10.1671
▁39	-10.1671
▁kesiapan	-10.1673
▁rute	-10.1673
▁pakaian	-10.1683
▁Syah	-10.1685
▁Api	-10.1699
▁Kebudayaan	-10.1701
▁staf	-10.1702
▁bersaing	-10.1702
▁Kabid	-10.1704
meriah	-10.1708
▁cuma	-10.1709
▁kritik	-10.172
▁Bus	-10.1723
▁WNA	-10.1724
▁Kebijakan	-10.1731
▁penyalahguna	-10.1731
▁pencegahan	-10.1731
▁keberhasilan	-10.1732
▁Bapak	-10.1734
▁197	-10.1738
▁adik	-10.1749
manggil	-10.1755
▁main	-10.1757
▁menik	-10.1768
▁bekas	-10.1771
ransisi	-10.1772
▁AL	-10.1774
▁panggilan	-10.1776
▁Den	-10.1779
▁pilih	-10.1779
1/	-10.178
▁tayang	-10.179
▁Staf	-10.1792
▁Hidayat	-10.1801
mengangkat	-10.1804
ikir	-10.1806
kom	-10.1809
▁pelantikan	-10.1819
cah	-10.1827
lbum	-10.1834
▁menandatangan	-10.1837
jangkau	-10.1841
cil	-10.1844
▁tutup	-10.1849
▁parpol	-10.1849
pantau	-10.185
▁Apalagi	-10.1851
▁Fraksi	-10.1852
ayu	-10.1856
acu	-10.1859
empat	-10.1869
▁Yong	-10.1876
▁performa	-10.1878
▁sub	-10.188
kelola	-10.1881
▁menj	-10.1882
▁buatan	-10.1884
▁beban	-10.1886
turut	-10.1888
▁kira	-10.1889
bun	-10.19
ist	-10.1904
kir	-10.1908
▁penembakan	-10.1908
SS	-10.1909
ambang	-10.1909
percepat	-10.1912
▁Sore	-10.1923
▁She	-10.1923
▁Sang	-10.1929
BP	-10.1936
▁NATO	-10.1938
▁Reser	-10.1945
tekad	-10.1945
▁Pakar	-10.1947
▁Award	-10.1952
▁Barang	-10.1953
▁terluka	-10.1957
ondok	-10.1957
▁sinergi	-10.1966
status	-10.1968
▁Energi	-10.1968
▁2015	-10.1971
▁dikonfirmasi	-10.1975
▁minimal	-10.1977
▁Mari	-10.1983
og	-10.1983
GI	-10.1986
▁Nas	-10.199
▁mengarah	-10.1993
▁Wisata	-10.1999
TS	-10.2001
▁batang	-10.2003
age	-10.2005
angku	-10.2012
rekor	-10.2014
▁agen	-10.2015
pati	-10.2027
dem	-10.2027
▁IV	-10.2028
▁Pegawai	-10.2029
▁penutup	-10.2029
▁Bang	-10.2046
aji	-10.2049
▁TV	-10.2051
▁temuan	-10.2054
Kita	-10.2058
▁2024-2029	-10.2059
▁Iqbal	-10.2059
▁Paslon	-10.206
▁ayat	-10.2066
▁samping	-10.2067
▁populer	-10.2068
resmikan	-10.2068
▁Ver	-10.2069
nes	-10.2071
▁im	-10.2077
oner	-10.208
che	-10.2086
indikasi	-10.2089
▁perbedaan	-10.209
▁medali	-10.209
▁dihubungi	-10.209
▁Baik	-10.2091
musuh	-10.2091
▁Rapa	-10.21
▁tanaman	-10.2115
bir	-10.2116
▁Bayu	-10.2118
cenderung	-10.212
bulu	-10.2122
Deng	-10.2124
▁sapi	-10.2128
unggu	-10.2131
ilaku	-10.2135
▁Kamal	-10.2135
▁asuransi	-10.2147
▁Pejabat	-10.215
▁Pelayanan	-10.215
▁kabinet	-10.215
▁memperk	-10.2157
▁larangan	-10.2165
▁panggung	-10.2169
peralat	-10.217
▁Sp	-10.2172
kendali	-10.2176
▁internet	-10.2181
▁cabang	-10.2182
▁binaan	-10.2182
muat	-10.2184
▁kese	-10.219
akbar	-10.2198
▁55	-10.2199
▁sembako	-10.2212
▁Pupuk	-10.2213
▁AFP	-10.2217
▁partisipasi	-10.2224
▁Bela	-10.2233
heboh	-10.2243
▁mengungsi	-10.2243
Dirjen	-10.2243
▁layar	-10.2243
▁fase	-10.2244
pakai	-10.2254
buang	-10.2255
▁Tata	-10.2263
-4	-10.2266
▁sekitarnya	-10.2273
▁contoh	-10.2274
gandeng	-10.2274
▁kanker	-10.2274
▁sayap	-10.228
▁berwarna	-10.2282
▁Mon	-10.2285
▁janji	-10.2288
nak	-10.2294
ampilan	-10.2302
▁(13	-10.2305
▁Brand	-10.2307
▁Series	-10.2308
tanda	-10.2316
pegawai	-10.2317
▁bila	-10.2323
▁pendiri	-10.2324
ering	-10.2328
▁keterlibatan	-10.2336
▁butuh	-10.2339
▁Guna	-10.2348
▁miliknya	-10.235
▁Sehingga	-10.2351
jamin	-10.2352
▁AP	-10.2355
▁parah	-10.2358
duta	-10.2366
sengketa	-10.2367
▁Awal	-10.2368
▁DW	-10.2383
mbu	-10.2388
▁terduga	-10.2392
MP	-10.2393
▁kencang	-10.2399
▁sengaja	-10.2399
▁roda	-10.2403
/2024)	-10.2403
30	-10.2403
▁kredit	-10.2405
▁Af	-10.2407
nikmat	-10.2408
tukar	-10.2413
▁Kuta	-10.2417
▁Penanggu	-10.243
▁Banjir	-10.243
▁tenggelam	-10.243
▁hadiah	-10.243
▁bertambah	-10.243
▁institusi	-10.2431
pung	-10.2433
▁versi	-10.2433
▁Kata	-10.2436
hkan	-10.2436
▁Nama	-10.2441
desa	-10.2443
▁Persik	-10.2448
sik	-10.2459
▁pelabuhan	-10.2462
▁pengetahuan	-10.2462
▁kenyamanan	-10.2462
▁daging	-10.2463
nata	-10.2466
wu	-10.2466
RC	-10.2467
mitraan	-10.2483
BN	-10.2485
erap	-10.2487
utip	-10.2488
▁Um	-10.2489
▁Niki	-10.2491
▁kecepatan	-10.2494
▁diterapkan	-10.2494
▁Pat	-10.2494
duh	-10.2496
▁maje	-10.25
▁menikah	-10.2501
▁Institute	-10.2505
▁situ	-10.2511
proses	-10.2513
tung	-10.2515
▁Hak	-10.2515
▁mengenal	-10.2516
▁Komit	-10.2525
ture	-10.2525
▁Listrik	-10.2525
▁tetangga	-10.2525
▁2014	-10.2525
▁pertempuran	-10.2525
▁event	-10.2525
▁Fat	-10.2529
▁papar	-10.2529
▁terbang	-10.253
sekadar	-10.2538
PAN	-10.254
▁minim	-10.2551
▁2022.	-10.2554
▁Penyidik	-10.2557
▁kolek	-10.2559
ndo	-10.2563
▁stabil	-10.2565
MAN	-10.2568
▁imbuhnya	-10.2572
▁menggantikan	-10.2576
bagaimana	-10.2576
▁denda	-10.2577
ef	-10.2577
▁Gusti	-10.2585
▁terbakar	-10.2588
▁domestik	-10.2589
▁kedatangan	-10.2589
▁baterai	-10.2589
▁keinginan	-10.2589
▁Vina	-10.259
▁Allah	-10.2591
cocok	-10.2593
Per	-10.2603
▁pergur	-10.2612
▁Perekonomian	-10.2621
▁regional	-10.2621
▁kediaman	-10.2621
kas	-10.2621
▁banten	-10.2622
▁saham	-10.263
batasi	-10.2633
45	-10.264
▁takut	-10.2645
▁campur	-10.2649
▁All	-10.2649
▁Zoni	-10.2653
▁Riset	-10.2659
▁petir	-10.2662
▁Siang	-10.2669
ikin	-10.2681
nam	-10.2684
▁bom	-10.2689
▁unggahan	-10.2691
▁memaksa	-10.2697
▁Bur	-10.2698
▁Putu	-10.27
ekapitulasi	-10.2718
▁ketegangan	-10.2718
▁penggemar	-10.2718
▁lantai	-10.2718
/7/2024)	-10.2718
▁Anggaran	-10.2719
▁silam	-10.2722
▁Batam	-10.2724
▁detik	-10.2728
▁pakai	-10.2729
barang	-10.273
▁Blinken	-10.275
▁kosong	-10.275
▁jantung	-10.275
▁Juta	-10.2757
-10	-10.276
▁(22	-10.276
onis	-10.2769
elamatkan	-10.277
sambut	-10.2778
▁prakira	-10.2782
▁vitamin	-10.2783
▁elemen	-10.2783
▁pengamat	-10.2783
▁pupuk	-10.2783
▁mask	-10.2787
lengkapi	-10.2789
hen	-10.2809
▁Sumar	-10.2809
▁Said	-10.2811
CE	-10.2811
engurus	-10.2811
win	-10.2812
▁Qu	-10.2815
▁diluncurkan	-10.2815
▁pencalonan	-10.2815
dul	-10.2818
1445	-10.282
▁mencerit	-10.2822
▁Inter	-10.2835
▁umur	-10.2836
BANG	-10.2842
▁berani	-10.2845
▁Madrid	-10.2848
▁kondusif	-10.2848
▁Lombok	-10.2848
▁Bisnis	-10.2848
sediaan	-10.2848
▁Anti	-10.2849
▁Bintang	-10.285
▁Pengelola	-10.2851
syarat	-10.2856
▁raya	-10.2861
▁bandara	-10.2861
PL	-10.2875
▁Wong	-10.2878
▁Ste	-10.2878
▁Demokrasi	-10.2881
telit	-10.2884
▁Made	-10.289
▁kaca	-10.2896
uni	-10.2898
▁Pekerja	-10.2912
▁tradisi	-10.2913
▁intelijen	-10.2914
▁Blitar	-10.2914
▁metode	-10.2914
▁Telkom	-10.2914
tera	-10.2914
▁Kemenangan	-10.2917
enny	-10.292
▁wujud	-10.2922
▁ditunjuk	-10.2922
lot	-10.2924
▁Jak	-10.2925
stik	-10.2929
tensi	-10.2935
▁setengah	-10.2936
▁sela	-10.2937
▁Houthi	-10.2947
▁Video	-10.2947
▁Pertemuan	-10.2947
▁Cianjur	-10.2948
sun	-10.2951
SDM	-10.2951
kadang	-10.2952
apai	-10.2952
perjuangkan	-10.2953
▁Market	-10.2955
10	-10.2962
▁out	-10.2963
▁Sara	-10.2964
▁belah	-10.2967
▁Aku	-10.2967
▁dihadapi	-10.2968
▁44	-10.2969
▁jamin	-10.2971
produk	-10.2973
Pj	-10.2979
▁patrol	-10.298
▁Semen	-10.2986
▁SE	-10.2994
▁Reza	-10.2995
gon	-10.2997
▁diangkat	-10.2998
▁menaik	-10.2998
II	-10.3001
▁jual	-10.3008
▁menurutnya	-10.3013
▁(18	-10.3013
▁negatif	-10.3014
▁dewasa	-10.3014
▁Kebakaran	-10.3014
▁berkata	-10.3019
▁beber	-10.3019
▁Koster	-10.302
siaga	-10.3026
▁penjaga	-10.3029
▁PN	-10.3039
▁Bal	-10.3047
▁Publik	-10.3047
▁pengakuan	-10.3047
▁rentan	-10.3051
▁USD	-10.3053
cha	-10.3061
ilang	-10.3062
▁peta	-10.3065
▁game	-10.3066
▁48	-10.3071
▁kuo	-10.3076
▁Bina	-10.3079
solusi	-10.308
▁Pegadaian	-10.3081
▁Koalisi	-10.3081
▁Lokasi	-10.3081
▁urusan	-10.3081
▁aliran	-10.3081
/12/2024)	-10.3081
▁Arief	-10.3086
Me	-10.3098
SN	-10.3099
▁Wo	-10.3114
▁Kudus	-10.3114
ley	-10.3116
▁menyadar	-10.3117
▁Istri	-10.3121
tangani	-10.3128
▁Nation	-10.313
▁teroris	-10.3146
▁kriminal	-10.3148
▁terungkap	-10.3148
▁dolar	-10.3148
▁Lewat	-10.3153
tabilitas	-10.3154
▁Kha	-10.3162
▁analis	-10.3174
pengadaan	-10.3175
HK	-10.3178
▁Skuad	-10.3182
/9/2024)	-10.3182
▁balap	-10.3188
▁Direct	-10.3188
▁olah	-10.3189
▁brand	-10.319
▁penyerang	-10.3192
lor	-10.3204
▁Ribu	-10.3206
▁penjelasan	-10.3216
▁Komplek	-10.3216
▁gudang	-10.3218
▁gim	-10.3218
▁mayat	-10.3219
▁kayu	-10.3224
RT	-10.3231
▁mengge	-10.3232
▁lini	-10.3235
ward	-10.3238
▁pengaruh	-10.3238
-5	-10.3239
▁Pers	-10.3243
▁Kecelakaan	-10.325
menginginkan	-10.325
rtifikasi	-10.3251
angkat	-10.3256
penilaian	-10.3259
▁Mor	-10.3268
tivitas	-10.3272
▁Soekarno	-10.3284
▁Empat	-10.3284
▁Nah	-10.3299
saksi	-10.3301
BMKG	-10.3301
gara	-10.3307
▁televisi	-10.3319
▁jejak	-10.332
▁pesta	-10.332
zim	-10.3321
▁pandangan	-10.3324
BA	-10.3328
▁(11	-10.3329
▁Tetap	-10.3341
▁Mur	-10.335
▁penu	-10.335
▁pengganti	-10.3353
▁Iwan	-10.3371
nonton	-10.3379
▁43	-10.3381
matang	-10.3382
▁ponsel	-10.3388
▁dijual	-10.3389
▁unik	-10.339
▁Garut	-10.3392
▁sambung	-10.3405
▁Gar	-10.3408
isu	-10.342
/10/2024)	-10.3423
▁pandemi	-10.3423
gembira	-10.3423
▁Otorita	-10.3424
masa	-10.343
▁Pemerintahan	-10.3437
UM	-10.3441
▁AD	-10.3446
umur	-10.3447
▁Sugi	-10.3457
▁Lestari	-10.3457
▁inovatif	-10.3457
▁limbah	-10.3458
awat	-10.3458
lantik	-10.3458
KTT	-10.3459
▁Lintas	-10.3461
▁Lin	-10.3465
▁diungkapkan	-10.3476
;	-10.3481
gh	-10.3481
pin	-10.3482
operasi	-10.3485
▁(16	-10.3492
▁Sipil	-10.3492
▁Wid	-10.3492
yanti	-10.3493
▁DEP	-10.3493
▁Banjar	-10.3493
▁Ronald	-10.3493
▁penyelundup	-10.3494
fri	-10.3497
▁Deput	-10.3499
▁(24	-10.3507
teria	-10.3511
cita	-10.3511
bahan	-10.3513
▁Jati	-10.3522
▁Masuk	-10.3526
▁Bahlil	-10.3527
▁disabilitas	-10.3528
EM	-10.3528
dit	-10.353
▁Jambi	-10.3531
rasakan	-10.3536
▁Head	-10.3536
▁Raih	-10.3538
▁Star	-10.3539
eristiwa	-10.354
ard	-10.3543
juluk	-10.3548
▁Banyuwangi	-10.3563
▁finansial	-10.3563
▁CCTV	-10.3563
tyo	-10.3563
keliling	-10.3564
▁dihadir	-10.3568
KU	-10.3575
▁Mah	-10.3581
▁ganja	-10.3586
bintang	-10.3595
▁Pariwisata	-10.3598
▁pengacara	-10.3599
persyaratan	-10.3601
▁mewah	-10.3603
▁Supri	-10.3605
▁forum	-10.3607
obat	-10.3608
alokasi	-10.3615
▁(15	-10.3617
langsung	-10.3618
▁Kasi	-10.3625
▁PPN	-10.3627
▁TKP	-10.3629
minasi	-10.3633
▁Investasi	-10.3633
▁dosen	-10.3634
▁legislatif	-10.3635
▁Muhammadiyah	-10.3636
kadar	-10.3636
pihak	-10.3643
manfaatkan	-10.3658
manfaatan	-10.3658
gugat	-10.3659
▁Cara	-10.3659
maksimal	-10.3665
▁Bhayangkar	-10.3669
▁pertimbangan	-10.3669
▁ledakan	-10.3669
▁menghabis	-10.3682
▁Ye	-10.3694
imbau	-10.3697
asiswa	-10.3702
▁Pasti	-10.3705
▁00:	-10.3706
▁karbon	-10.3706
▁asasi	-10.3707
▁diumumkan	-10.371
▁kapan	-10.3711
▁setahun	-10.3724
hara	-10.3725
15	-10.373
▁Waktu	-10.3741
▁Sigit	-10.3741
▁penguat	-10.3741
▁bendera	-10.3742
▁depannya	-10.3747
▁42	-10.3752
eh	-10.3752
▁Sto	-10.3758
▁km	-10.3762
pit	-10.3768
▁Olahraga	-10.3777
rom	-10.3793
▁Imin	-10.381
set	-10.3811
▁John	-10.3812
▁Sekitar	-10.3813
▁kewenangan	-10.3813
▁Lima	-10.3821
▁menempatkan	-10.3825
▁Ris	-10.3829
ue	-10.3834
▁Laga	-10.3837
▁sampaikan	-10.3838
engobatan	-10.384
▁Anas	-10.3843
-6	-10.3846
▁Persatuan	-10.3849
▁stunting	-10.3849
▁stasiun	-10.3849
verifikasi	-10.3852
LI	-10.3852
▁Ji	-10.3857
▁Kadin	-10.3858
▁pembentuk	-10.3861
tempat	-10.3871
enyelesai	-10.388
Tida	-10.3883
▁jembatan	-10.3883
▁Mirzani	-10.3885
▁skema	-10.3885
▁bahaya	-10.3885
40	-10.3886
▁kewajiban	-10.3887
▁menulis	-10.3888
landia	-10.3892
▁(30	-10.3892
▁(26	-10.3893
▁Harapan	-10.3893
▁Fajar	-10.3898
day	-10.3904
▁kekayaan	-10.3922
▁pembiayaan	-10.3922
▁kreat	-10.3923
Karena	-10.3926
▁Andri	-10.3928
▁Expo	-10.3931
▁imbuh	-10.3941
▁Bima	-10.395
pengemudi	-10.3951
▁Port	-10.3957
▁Serentak	-10.3958
▁Soekarnoputri	-10.3958
▁integritas	-10.3958
▁Wanita	-10.3959
▁Mataram	-10.3959
pertanyakan	-10.396
▁Ketu	-10.3963
hormatan	-10.3967
sumber	-10.3968
ampir	-10.3971
endam	-10.3977
CO	-10.3978
anggung	-10.3981
▁Es	-10.3982
▁spesial	-10.3994
alternatif	-10.3995
elecehan	-10.3995
▁Yordania	-10.3995
▁saluran	-10.3995
▁Om	-10.4001
▁pecah	-10.4003
HI	-10.4006
bermanfaat	-10.4006
▁Far	-10.4009
bag	-10.4014
▁setia	-10.4018
▁Pram	-10.4019
▁Tentu	-10.403
adopsi	-10.4032
▁Pembina	-10.4032
▁setuju	-10.4032
▁riset	-10.4034
melainkan	-10.4036
▁kemasan	-10.4037
▁196	-10.4037
enggan	-10.4044
omando	-10.4045
bilitas	-10.405
▁trans	-10.4051
sport	-10.4053
▁Ryan	-10.4057
top	-10.4057
asai	-10.4059
nua	-10.4061
emendikbudristek	-10.4065
▁Rahmat	-10.4069
erlukan	-10.4071
▁ayam	-10.4076
▁Kor	-10.4079
▁Sumbar	-10.408
biarkan	-10.4082
▁perempat	-10.4096
▁timnas	-10.4097
▁(19	-10.4104
▁Harus	-10.4105
▁terkenal	-10.4105
▁Kriminal	-10.4106
▁League	-10.4106
▁Taliban	-10.4106
▁mengevakuasi	-10.4106
▁Terima	-10.411
bangun	-10.411
gus	-10.4111
tabrak	-10.4111
▁angkat	-10.4112
ansyah	-10.4117
▁top	-10.4119
▁Gede	-10.4122
▁terpisah	-10.4123
▁Penting	-10.4124
▁dikab	-10.4138
MB	-10.4142
▁Emil	-10.4142
▁sebelah	-10.4144
▁dikena	-10.4145
ainkan	-10.4147
▁PNM	-10.4149
▁Cup	-10.4149
▁kualifikasi	-10.4149
▁kelola	-10.4155
▁diatur	-10.4157
BB	-10.4159
mapar	-10.4162
▁memaka	-10.4165
asok	-10.4165
▁habis	-10.4167
▁Bey	-10.4181
syaallah	-10.4181
▁Buleleng	-10.4181
▁komoditas	-10.4181
▁menyelidik	-10.4181
▁nutrisi	-10.4181
▁Ilmu	-10.4181
sukses	-10.4195
stra	-10.4199
alang	-10.42
▁Net	-10.42
▁tangki	-10.4202
▁teh	-10.4205
tama	-10.4217
▁Hartarto	-10.4219
▁Kabinet	-10.4219
▁Balikpapan	-10.4219
▁bertindak	-10.4219
▁dituduh	-10.4219
▁AMIN	-10.4219
onfirmasi	-10.4223
▁Hulu	-10.4225
oro	-10.4242
luka	-10.4243
▁pil	-10.4256
▁kecurangan	-10.4256
▁populasi	-10.4256
▁kemerdekaan	-10.4258
▁dirawat	-10.426
▁aktor	-10.4263
mit	-10.4265
▁ASDP	-10.4266
konstruksi	-10.4269
program	-10.4274
menyita	-10.4276
▁nyawa	-10.4284
daulatan	-10.4289
biasa	-10.4289
ajikan	-10.4289
Ribuan	-10.4292
pembicaraan	-10.4293
▁Proyek	-10.4294
▁Mau	-10.4295
▁2045	-10.4298
▁gizi	-10.4318
Emil	-10.4318
▁41	-10.4322
tom	-10.4326
▁Purwakarta	-10.4332
▁mineral	-10.4332
▁pemulihan	-10.4332
▁Inovasi	-10.4332
▁berpikir	-10.4332
▁menghilang	-10.4332
▁Mall	-10.4333
▁massal	-10.434
menerus	-10.434
literasi	-10.4363
▁bersiap	-10.4367
▁Rohingya	-10.437
▁gerimis	-10.437
▁pesantren	-10.437
▁pesisir	-10.437
▁kuliah	-10.437
▁Teguh	-10.437
▁pilpres	-10.4371
ATEN	-10.4371
▁struktur	-10.4377
▁kubu	-10.4379
ibu	-10.438
CI	-10.4383
▁tari	-10.4384
qu	-10.4386
▁penahan	-10.4401
BS	-10.4402
▁Irwan	-10.4408
▁Fransiskus	-10.4409
▁Meksiko	-10.4409
▁Regional	-10.4409
▁KUHP	-10.4409
▁tangkap	-10.4409
▁menabrak	-10.4409
▁Coach	-10.4409
jun	-10.4412
▁Pop	-10.4414
▁pembatasan	-10.4415
▁Buka	-10.4422
▁Rom	-10.4433
dut	-10.4435
hur	-10.4435
Rano	-10.444
▁Daftar	-10.4447
▁Yusuf	-10.4447
▁gagasan	-10.445
▁Total	-10.4452
▁Juara	-10.4452
▁panen	-10.4452
▁150	-10.4453
perebut	-10.4466
▁belas	-10.4473
▁objek	-10.4486
▁mikro	-10.4486
ping	-10.449
warna	-10.4494
▁ganda	-10.4495
mbah	-10.4497
▁menentang	-10.4497
enggeledah	-10.45
pro	-10.4511
▁ran	-10.4511
▁ide	-10.4515
besaran	-10.4516
▁Karang	-10.4517
cak	-10.452
amping	-10.452
▁Katolik	-10.4525
▁BPJS	-10.4525
▁pinggir	-10.4525
▁SOLO	-10.4525
▁pemudik	-10.4525
▁Ipt	-10.4525
▁mekanisme	-10.4525
memfasilitasi	-10.4526
▁gigi	-10.4526
▁Tugas	-10.4527
▁Kuasa	-10.4532
gun	-10.4535
ngecek	-10.4538
▁Suk	-10.454
▁pemaha	-10.4543
hol	-10.4546
▁berkas	-10.4551
-21	-10.4553
henti	-10.4554
▁hasilnya	-10.4562
▁Bareskrim	-10.4563
▁kuliner	-10.4563
▁reformasi	-10.4563
▁Stefan	-10.4564
▁Batang	-10.4564
endanaan	-10.4564
▁kritis	-10.4564
ntervensi	-10.4564
embalikan	-10.457
▁Mul	-10.4572
▁PM	-10.4572
sit	-10.4576
DKPP	-10.4578
▁Tempat	-10.4578
▁Agen	-10.4579
4/	-10.4581
kum	-10.4585
bikin	-10.4588
lengkap	-10.4589
▁05:	-10.459
engungkap	-10.4597
karya	-10.4599
sion	-10.46
▁antusias	-10.46
▁terbanyak	-10.46
DS	-10.4602
▁kisah	-10.4603
▁kendala	-10.4603
omentar	-10.4603
▁Jayapura	-10.4604
▁penderita	-10.4607
▁motif	-10.4609
▁Risma	-10.4609
▁Tar	-10.461
enasihat	-10.4613
▁Strategi	-10.4613
▁?"	-10.4616
▁Benny	-10.4619
▁man	-10.4621
timbang	-10.4624
▁transparan	-10.4629
▁Run	-10.4631
ino	-10.4632
▁Halilintar	-10.4642
▁berpendapat	-10.4642
▁derajat	-10.4642
▁mempengaruhi	-10.4642
▁seluas	-10.4642
▁penambah	-10.4642
data	-10.4651
tepat	-10.4652
oordinasi	-10.4653
▁Lee	-10.4657
▁pengawas	-10.4663
▁Day	-10.4664
▁Reformasi	-10.4681
▁dievakuasi	-10.4681
ABUP	-10.4683
▁Cabang	-10.4684
▁Kal	-10.4685
dji	-10.469
▁Kos	-10.4696
aruh	-10.4699
PJ	-10.4705
▁Bagian	-10.4708
▁santri	-10.4713
▁Kristiyanto	-10.4721
▁Pangarep	-10.4721
▁WhatsApp	-10.4721
▁terdekat	-10.4721
▁ataupun	-10.4721
▁Biro	-10.4734
▁tri	-10.4736
KN	-10.4737
▁Khan	-10.4738
lim	-10.4739
▁47	-10.4745
▁Bro	-10.4751
rejo	-10.4753
pandang	-10.4757
▁Pesan	-10.4758
low	-10.4758
▁Ratu	-10.4759
▁praktis	-10.476
▁perahu	-10.4761
nugerah	-10.4762
▁Business	-10.4763
▁deras	-10.4763
tulis	-10.4765
▁Bangun	-10.4766
TE	-10.4769
▁mandiri	-10.4769
▁dakwa	-10.4771
▁kebun	-10.4777
▁otorita	-10.4785
▁2024/2025	-10.48
▁Dharma	-10.48
▁Pratama	-10.4802
▁pelamar	-10.4803
▁Rudy	-10.4807
▁off	-10.4807
Giri	-10.4808
▁Kab	-10.4808
▁baku	-10.4809
BPK	-10.481
▁Abd	-10.481
▁pendek	-10.4813
ruf	-10.4818
▁manis	-10.4819
bab	-10.482
▁sambungnya	-10.4823
▁Asep	-10.4827
▁banding	-10.4837
cinta	-10.4839
▁Merdeka	-10.484
▁cerai	-10.4841
▁lipat	-10.4842
▁bawa	-10.4844
jumpa	-10.4845
▁(29	-10.4849
▁ST	-10.485
▁Ex	-10.4853
▁Ven	-10.4853
▁Yuli	-10.4855
▁Temu	-10.4857
Dari	-10.4857
▁karier	-10.4859
ence	-10.4875
▁cinta	-10.4879
Suswono	-10.488
▁Achmad	-10.488
▁tawuran	-10.488
▁Thomas	-10.488
▁Misalnya	-10.488
▁terkini	-10.4881
Saat	-10.4882
▁dijatuh	-10.4883
kembangkan	-10.4892
▁efisiensi	-10.4893
hubungan	-10.4895
tapa	-10.491
pelajari	-10.492
▁Istimewa	-10.4921
sungguh	-10.4921
adaptasi	-10.4922
▁menjatuh	-10.4922
peduli	-10.4922
▁pertambangan	-10.4928
-79	-10.4928
tahuan	-10.4928
▁prajurit	-10.4929
engku	-10.4932
olusi	-10.4933
OS	-10.4934
▁58	-10.4943
mad	-10.4945
▁Gal	-10.4948
▁Sol	-10.4948
▁250	-10.4949
jualan	-10.4952
▁Ten	-10.4954
▁Usu	-10.4961
▁pemberontak	-10.4961
▁membeber	-10.4961
▁kurban	-10.4961
▁Perumahan	-10.4961
zo	-10.497
▁Perlu	-10.4972
▁ditempat	-10.4973
▁menerb	-10.4976
▁Rutan	-10.4979
▁PK	-10.4984
▁tembakan	-10.4986
LE	-10.4987
▁efisien	-10.4989
▁Ng	-10.4991
memudahkan	-10.4992
banding	-10.4993
▁komersial	-10.5002
▁otomotif	-10.5002
▁Edward	-10.5002
▁Pasuruan	-10.5002
▁sawit	-10.5002
/8/2024)	-10.5002
▁bentrok	-10.5002
▁Ahli	-10.5002
▁Artinya	-10.5003
▁Sari	-10.5007
▁puas	-10.5009
▁kering	-10.5011
▁PMI	-10.5012
AB	-10.5013
▁terancam	-10.5015
red	-10.5023
bot	-10.5023
dam	-10.5024
▁silaturahmi	-10.5027
▁Zain	-10.5031
ndra	-10.5035
▁pinjaman	-10.5043
▁melahirkan	-10.5043
▁modus	-10.5043
▁Pemenangan	-10.5043
▁Udara	-10.5043
▁universitas	-10.5043
▁buruh	-10.5044
▁Cek	-10.5044
▁band	-10.5047
erti	-10.5051
lambang	-10.5051
Distrik	-10.5055
tuju	-10.5059
▁Alhamdulillah	-10.506
▁lari	-10.5061
▁direkt	-10.5068
▁Selamat	-10.5077
▁99	-10.5078
JPU	-10.508
▁Target	-10.5084
▁properti	-10.5084
▁keagamaan	-10.5084
▁Ternyata	-10.5084
▁konstitusi	-10.5084
▁Sampai	-10.5086
▁kor	-10.5093
▁Gad	-10.5097
ramai	-10.5097
dewan	-10.5099
integrasi	-10.5102
▁Mulia	-10.5117
hir	-10.5119
wadah	-10.512
raperadilan	-10.5125
▁Kendaraan	-10.5125
▁menyetujui	-10.5125
▁dingin	-10.513
▁multi	-10.513
▁partainya	-10.513
jelas	-10.513
▁mahal	-10.5135
▁Mac	-10.514
▁NTT	-10.5146
RS	-10.5149
▁Lim	-10.5152
▁kamp	-10.5158
▁Mag	-10.5159
▁Trenggalek	-10.5166
▁Santoso	-10.5166
/5/2024)	-10.5166
pidana	-10.5166
▁rombong	-10.5167
▁Xi	-10.5167
▁waspada	-10.5169
▁match	-10.5174
ersetujuan	-10.5176
▁demonstrasi	-10.5185
aris	-10.5186
▁Bek	-10.5187
▁Nu	-10.5189
stri	-10.519
▁Sandr	-10.5194
▁etik	-10.5196
▁Lagi	-10.5197
BM	-10.5204
▁Jembrana	-10.5208
▁responden	-10.5208
▁Sumatra	-10.5208
▁caleg	-10.5208
/6/2024)	-10.5208
▁markas	-10.5208
▁perbankan	-10.5208
▁Heru	-10.5227
▁bertema	-10.5233
▁Plt	-10.524
▁memuji	-10.5243
estival	-10.5243
suka	-10.5245
▁mencuri	-10.5245
▁Google	-10.5249
RO	-10.525
▁menderita	-10.525
kisar	-10.5252
▁Wijaya	-10.5252
▁Teluk	-10.5252
▁Uang	-10.5253
rip	-10.5257
▁Terlebih	-10.5258
▁Kunjung	-10.5258
Pilkada	-10.5264
▁Cho	-10.5265
▁ayahnya	-10.5267
fli	-10.5275
tongi	-10.5279
▁Don	-10.5284
▁von	-10.5288
▁Nugroho	-10.5291
lempar	-10.5291
▁ditambah	-10.5293
▁Plus	-10.5294
▁lampu	-10.5294
-16	-10.5295
▁Red	-10.5299
kajian	-10.5303
▁Terbaru	-10.5304
▁dialog	-10.5306
ggi	-10.5307
paruh	-10.5312
▁Sah	-10.5314
US	-10.532
▁Kas	-10.5321
LO	-10.5332
hambat	-10.5332
▁Probolinggo	-10.5333
▁invasi	-10.5333
▁asuhan	-10.5333
▁Ulama	-10.5333
▁BTN	-10.5333
▁kepedulian	-10.5334
GA	-10.5336
▁Siapa	-10.5352
▁UI	-10.5354
▁cita	-10.5356
▁Nga	-10.5361
▁umumnya	-10.5363
▁apapun	-10.5363
▁Darat	-10.5364
edisi	-10.5368
mir	-10.537
balik	-10.5374
▁Brigjen	-10.5375
▁Green	-10.5375
▁Kereta	-10.5375
▁WNI	-10.5382
rajin	-10.5385
cepat	-10.5385
antap	-10.5386
WA	-10.5388
▁Fir	-10.5389
cerita	-10.5392
▁mengajar	-10.5393
lembaga	-10.54
untut	-10.5402
elebritas	-10.5408
▁nasi	-10.5409
mengidentifikasi	-10.5418
▁pembinaan	-10.5418
▁kabur	-10.5418
maritim	-10.5418
▁dijalankan	-10.5424
▁pelapor	-10.5425
▁65	-10.5425
▁Alex	-10.5426
▁(27/1	-10.5434
▁Tour	-10.5438
▁tulang	-10.5439
muncul	-10.5439
PE	-10.5441
/2024	-10.545
▁Cahyadi	-10.546
▁pemberdayaan	-10.546
▁Yasin	-10.5461
▁Dokumentasi	-10.5461
▁ruas	-10.5462
▁Pekerjaan	-10.5466
▁Ferry	-10.5467
▁relawan	-10.5468
▁Auto	-10.5468
▁siber	-10.5472
▁lebaran	-10.5476
▁Ivan	-10.5477
▁kelima	-10.5481
perusahaan	-10.5484
▁Angg	-10.5496
dominasi	-10.5501
▁Champions	-10.5503
▁London	-10.5503
▁Zelenskyy	-10.5503
▁menimpa	-10.5503
▁otak	-10.5504
UI	-10.551
▁bertanya	-10.5513
ndong	-10.5516
agak	-10.5516
ee	-10.5536
DO	-10.554
▁solid	-10.5544
▁Development	-10.5546
▁gunung	-10.5546
▁Dja	-10.5557
▁Life	-10.5563
utuh	-10.5565
membenarkan	-10.5565
▁itulah	-10.5568
visi	-10.5572
▁kri	-10.5588
▁Komunitas	-10.5589
▁Kampus	-10.5589
▁Madiun	-10.5589
▁CSR	-10.5589
▁Cagub	-10.559
▁Mega	-10.559
▁jarang	-10.559
▁kontak	-10.5591
▁Dorong	-10.5592
▁20:0	-10.5592
▁daun	-10.5593
▁pengece	-10.5597
▁sesama	-10.5619
▁menduga	-10.5625
▁Tel	-10.5629
▁perlawanan	-10.5632
▁Miliar	-10.5632
▁Fatoni	-10.5632
▁Pendaftaran	-10.5632
URO	-10.5636
▁Arena	-10.5637
▁Ken	-10.5639
▁Win	-10.564
35	-10.5641
kritik	-10.5643
▁alih	-10.5645
▁Teco	-10.5646
▁Best	-10.5646
▁Let	-10.565
atuhi	-10.5653
▁Sho	-10.5653
RANG	-10.5657
▁Up	-10.5658
ditujukan	-10.5664
Pada	-10.5666
▁Marin	-10.5671
▁PON	-10.5674
▁ruangan	-10.5675
negosiasi	-10.5676
▁Harvey	-10.5676
Cawapres	-10.5676
▁diyakin	-10.5676
▁dikatakan	-10.5678
▁Pemasyarakatan	-10.5687
▁RK	-10.5689
▁Putusan	-10.5691
▁mereda	-10.5692
ciri	-10.5698
▁analisis	-10.5701
▁Institut	-10.5703
diskusi	-10.5712
▁Budaya	-10.5722
TC	-10.5723
▁Heri	-10.5723
▁nasib	-10.5724
▁Tur	-10.5727
pergerakan	-10.5728
cawapres	-10.5753
▁Bobby	-10.5763
▁Mojokerto	-10.5763
▁Pesantren	-10.5763
▁ketertiban	-10.5763
▁tertutup	-10.5763
▁sorotan	-10.5763
▁penyalur	-10.5763
mbongkar	-10.5763
simulasi	-10.5763
otret	-10.5764
▁diplomatik	-10.5765
▁Seri	-10.5773
arapidana	-10.5777
nyanyi	-10.5777
ndro	-10.5785
▁upah	-10.5786
que	-10.5786
▁Pengguna	-10.5792
▁49	-10.5793
ble	-10.5794
baiknya	-10.5796
▁Kang	-10.5807
▁California	-10.5807
▁komponen	-10.5807
▁stadion	-10.5807
pembahasan	-10.5807
▁pangkalan	-10.5808
▁Komisari	-10.5808
▁federal	-10.5808
▁Kejari	-10.5808
Ditjen	-10.5808
▁Nyom	-10.5808
▁Pasaribu	-10.5808
▁hamil	-10.581
▁Maya	-10.5812
foto	-10.5812
▁terasa	-10.5817
▁Rum	-10.582
▁56	-10.5822
▁duka	-10.5822
▁Shi	-10.5824
endra	-10.5829
KIM	-10.5829
Nanti	-10.5833
▁resminya	-10.5842
▁Kir	-10.5842
▁Anton	-10.5846
▁Ray	-10.5847
▁berkuasa	-10.5851
▁Gorontalo	-10.5852
▁Pramella	-10.5852
▁destinasi	-10.5852
▁Ricis	-10.5852
umpah	-10.5852
▁dibayar	-10.5852
▁disiapkan	-10.5853
▁tempur	-10.5853
▁intensif	-10.5853
▁19:0	-10.5854
▁revisi	-10.5855
▁undangan	-10.5856
▁Kemenag	-10.5857
▁400	-10.5858
OP	-10.5861
HA	-10.5861
enteng	-10.5862
▁Az	-10.5871
▁betul	-10.5873
sela	-10.5876
▁Non	-10.5879
▁kekasih	-10.5884
▁Kejati	-10.5887
▁rahasia	-10.5891
▁EV	-10.5892
▁Noor	-10.5892
waspadai	-10.5893
▁Wibowo	-10.5896
▁Gratis	-10.5896
▁hangat	-10.5896
pembelajaran	-10.5896
▁Damai	-10.5896
ALEM	-10.5897
tertarik	-10.5899
▁Bagus	-10.5908
enjaga	-10.5927
▁Eka	-10.5928
▁jabatannya	-10.593
ekam	-10.5935
▁sambutan	-10.5938
Satreskrim	-10.5941
▁Tangkap	-10.5941
GIIAS	-10.5941
▁PBNU	-10.5941
▁UN	-10.5945
PPPK	-10.5946
▁RW	-10.5946
▁menjamu	-10.5946
▁etika	-10.5946
▁terkemuka	-10.5947
DPW	-10.5947
Jateng	-10.5948
▁pertunjuk	-10.5948
▁Termasuk	-10.5955
PB	-10.5956
bebaskan	-10.5962
▁tegasnya	-10.5967
cia	-10.5973
yadi	-10.5984
▁penandatangan	-10.5985
▁Teheran	-10.5986
▁Suami	-10.5986
odo	-10.5987
▁bapak	-10.5987
▁Wapres	-10.599
▁Termin	-10.5999
mun	-10.6009
▁Makanan	-10.6015
▁Siswa	-10.6025
entang	-10.6029
eksekusi	-10.6031
▁berfungsi	-10.6031
edepankan	-10.6031
▁tersisa	-10.6031
andalkan	-10.6036
tru	-10.6042
▁klarifikasi	-10.6046
ontrol	-10.6047
▁Yaman	-10.6054
empuh	-10.6056
▁Arie	-10.6061
▁Lagu	-10.6068
Yang	-10.6069
▁Genera	-10.607
SO	-10.6074
Kemnaker	-10.6076
▁penyelamat	-10.6076
▁capaian	-10.6076
bersihkan	-10.6081
tomo	-10.6094
▁Water	-10.6097
tunjuk	-10.6098
tive	-10.6099
bayang	-10.6101
▁President	-10.6102
Setelah	-10.6104
24	-10.611
▁timah	-10.6119
▁Bahrain	-10.6121
▁Service	-10.6121
▁Tulungagung	-10.6121
▁Maulana	-10.6121
▁tembakau	-10.6122
▁detail	-10.6123
▁pilot	-10.6123
▁mengantar	-10.6124
▁Bangka	-10.6128
▁Abu	-10.6129
▁liburan	-10.6131
▁Pam	-10.6137
▁Yudi	-10.614
▁Suhar	-10.6146
LB	-10.6148
▁netral	-10.6162
atul	-10.6165
istirahat	-10.6167
▁Bangladesh	-10.6167
▁Penyakit	-10.6167
▁Ponorogo	-10.6167
▁Online	-10.6167
▁Aditya	-10.6167
▁ISIS	-10.6167
▁Peringatan	-10.6168
▁Andrew	-10.6168
▁Kontra	-10.6173
▁panel	-10.6174
▁cawapres	-10.6178
KE	-10.6179
▁dibebaskan	-10.618
▁52	-10.6193
▁ditembak	-10.6194
▁ramai	-10.6204
▁panitia	-10.6213
▁suci	-10.6213
lampau	-10.6213
▁banget	-10.6213
▁Dapat	-10.6216
Itu	-10.6218
▁tabung	-10.6219
hantam	-10.6221
onny	-10.6221
MM	-10.6222
▁vol	-10.6227
La	-10.6228
▁Tepi	-10.6233
ipu	-10.6234
▁Banda	-10.6241
▁(25	-10.6248
▁terjangkau	-10.6249
▁Ardi	-10.6256
sikap	-10.6256
▁04:	-10.6257
delegasi	-10.6259
▁mengejutkan	-10.6259
▁spesifik	-10.6259
▁penemu	-10.626
▁berlebihan	-10.6261
▁Bahas	-10.6262
▁Fakta	-10.6263
▁bio	-10.6265
ship	-10.6265
▁Kun	-10.6269
▁sapaan	-10.6269
▁46	-10.627
▁Debat	-10.627
▁disita	-10.6271
migrasi	-10.6294
▁Samarinda	-10.6305
▁penalti	-10.6305
▁Kuningan	-10.6305
▁Apple	-10.6307
▁Ger	-10.6309
Hatta	-10.6309
▁Rap	-10.631
▁88	-10.6313
TKN	-10.6314
▁76	-10.6314
▁Fest	-10.6326
In	-10.6326
▁57	-10.6327
▁Andre	-10.6329
▁(31	-10.633
kira	-10.634
▁macam	-10.6341
▁geng	-10.6345
▁politisi	-10.635
gunaan	-10.635
▁51	-10.6351
▁Sumenep	-10.6352
▁canggih	-10.6352
▁investigasi	-10.6352
▁LPG	-10.6352
▁07:0	-10.6352
▁Ikut	-10.6353
▁Bangkalan	-10.6354
tergantung	-10.6355
sahabat	-10.6357
engaruhi	-10.6358
▁BE	-10.6361
▁penuntut	-10.6366
17	-10.6369
▁kantong	-10.6374
▁tertulisnya	-10.6375
▁1,5	-10.6379
pastian	-10.6379
Sangat	-10.638
▁Majalengka	-10.6398
▁berterima	-10.6398
▁Pecco	-10.6398
▁kamera	-10.6398
▁fenomena	-10.6399
▁visa	-10.64
▁menempat	-10.6404
▁Bella	-10.6405
Mereka	-10.6412
▁Pajak	-10.6418
▁pendamping	-10.6418
▁2024:	-10.642
bunyi	-10.6428
▁Yus	-10.644
▁98	-10.644
kerja	-10.6444
indaklanjuti	-10.6445
▁Jembatan	-10.6445
▁mengakses	-10.6445
▁Manfaat	-10.6445
▁gereja	-10.6445
▁sayur	-10.6446
jebak	-10.6453
pos	-10.6479
▁simbol	-10.648
ehadiran	-10.6489
▁Bojonegoro	-10.6493
▁Situbondo	-10.6493
▁Menengah	-10.6493
▁berkampanye	-10.6493
▁netralitas	-10.6495
▁Walau	-10.6495
▁sambutannya	-10.6503
Polri	-10.651
▁Dito	-10.6521
▁menguat	-10.6527
rawat	-10.6532
stro	-10.6536
▁Convention	-10.654
▁persatuan	-10.654
▁pungkas	-10.654
/4/2024)	-10.654
▁meluas	-10.654
▁warung	-10.654
▁minat	-10.6541
▁17:0	-10.6542
ratifikasi	-10.6543
qi	-10.6545
▁Peserta	-10.6549
▁bahagia	-10.655
▁tanya	-10.6566
▁(27	-10.6567
sembunyi	-10.6571
boleh	-10.6577
itsubishi	-10.6588
▁Argentina	-10.6588
▁Panitia	-10.6588
▁Sudjana	-10.6588
▁otomatis	-10.6588
▁Resmi	-10.6588
▁Dugaan	-10.6588
▁Nilai	-10.6588
▁menguntungkan	-10.6588
▁APBN	-10.6588
Nataru	-10.6588
▁kelaparan	-10.659
▁asam	-10.659
▁Prasetyo	-10.659
▁aliansi	-10.6591
▁Mulyadi	-10.6592
▁Kolaborasi	-10.6598
▁Sekarang	-10.6599
.500	-10.6604
▁elit	-10.6613
saji	-10.6614
▁Che	-10.6624
▁Antam	-10.6628
far	-10.6628
▁Sukarelawan	-10.6635
▁dikonsumsi	-10.6635
▁Gabungan	-10.6635
bungkus	-10.6636
▁Nik	-10.6638
▁Hen	-10.6639
▁Kemendagri	-10.6641
▁Lebak	-10.6645
▁Wira	-10.6646
▁Tegal	-10.6647
▁biru	-10.6649
▁utamanya	-10.6651
▁perteng	-10.6655
▁kode	-10.6655
CA	-10.6656
angkutan	-10.6657
setujui	-10.666
cc	-10.6663
▁Bandar	-10.6669
▁port	-10.6671
▁Kyiv	-10.6683
▁Stadium	-10.6683
▁Gereja	-10.6683
▁badai	-10.6684
▁PB	-10.6684
▁Dirinya	-10.6686
▁imigrasi	-10.6687
▁Cipta	-10.669
▁menyimpan	-10.669
cho	-10.6693
▁Daniel	-10.6697
28	-10.6701
salat	-10.6718
▁Kapolresta	-10.6721
▁saing	-10.6729
▁Bagnaia	-10.6732
▁menantang	-10.6732
▁memasang	-10.6732
▁curah	-10.6733
EC	-10.6733
▁menanam	-10.6734
▁#	-10.6735
▁restoran	-10.6735
▁Serdang	-10.6736
reksi	-10.6739
▁Masalah	-10.6742
▁Terus	-10.6748
harus	-10.675
▁End	-10.675
ET	-10.6767
▁Titi	-10.6767
▁Band	-10.6773
rita	-10.6775
▁Bamsoet	-10.678
▁permukaan	-10.678
▁Personel	-10.678
obatan	-10.6781
▁percepatan	-10.6788
golong	-10.6792
oleh	-10.6799
▁taktik	-10.68
itigasi	-10.6801
kandungan	-10.6801
▁erat	-10.6804
▁Fri	-10.6806
▁Bri	-10.6807
oda	-10.681
pura	-10.681
hukum	-10.6812
▁kok	-10.6821
azar	-10.6823
▁Kejagung	-10.6824
▁Jim	-10.6826
▁Health	-10.6829
▁akademisi	-10.6829
▁Moeis	-10.6829
▁Silva	-10.683
▁diselesaikan	-10.6831
▁Dusun	-10.6831
▁besi	-10.6831
ringkus	-10.6832
▁Satria	-10.6833
ergantian	-10.6839
▁selebritas	-10.6841
▁seru	-10.6848
erikanan	-10.685
awali	-10.6857
▁Lama	-10.6863
▁Isu	-10.6863
▁Ton	-10.6863
tuang	-10.6867
▁Syariah	-10.6878
▁begini	-10.6878
▁pengurang	-10.688
Assad	-10.688
▁16:0	-10.6881
▁Eman	-10.6882
pleno	-10.6882
▁halal	-10.6889
▁abad	-10.6895
Un	-10.6896
▁Antoni	-10.6897
meter	-10.6898
▁Rudi	-10.6911
▁Live	-10.6916
cipta	-10.6927
▁kecantikan	-10.6927
▁kimia	-10.6927
▁Seleksi	-10.6927
▁Tabanan	-10.6928
▁penolakan	-10.6928
▁kakak	-10.6928
Yamaha	-10.6928
helat	-10.6928
▁Show	-10.6931
▁sadar	-10.6935
pergi	-10.6936
▁Simak	-10.6937
▁insen	-10.6937
▁Jawab	-10.6937
▁Kade	-10.6938
▁jasad	-10.6949
kuasa	-10.6954
▁Leg	-10.6958
amin	-10.696
instruksi	-10.6977
▁UNRWA	-10.6977
▁relevan	-10.6977
tangguh	-10.6977
menyuarakan	-10.6977
▁William	-10.6977
▁Dapil	-10.6977
▁etnis	-10.6977
▁Polandia	-10.6978
▁konserva	-10.698
ihal	-10.6985
won	-10.6986
ski	-10.6986
eluncur	-10.7
▁Pendapat	-10.7
tz	-10.7003
12	-10.7014
▁melengkapi	-10.7021
▁Covid	-10.7027
▁perasaan	-10.7027
▁Pasifik	-10.7032
Nurul	-10.7032
hunian	-10.7033
▁suap	-10.7036
▁digitalisasi	-10.7037
▁Depan	-10.7037
▁Manahan	-10.7038
▁53	-10.704
▁Malik	-10.704
▁putus	-10.7041
▁(28	-10.7045
old	-10.7049
endah	-10.7051
▁(21	-10.7052
▁promo	-10.7052
▁SIM	-10.7052
▁2.000	-10.7057
besar	-10.7062
▁berlatih	-10.7068
▁Bag	-10.7069
pora	-10.707
IKN	-10.7074
▁meluka	-10.7075
▁bansos	-10.7077
▁bioskop	-10.7077
▁menerangkan	-10.7077
▁menjanjikan	-10.7077
▁THR	-10.7077
▁Ayah	-10.7077
▁dapur	-10.7078
▁Kepada	-10.708
▁54	-10.7085
▁Yuni	-10.7085
bahagia	-10.7091
▁Arifin	-10.7092
▁kg	-10.7095
▁berkendara	-10.71
▁real	-10.7108
hargai	-10.7109
Memang	-10.7117
target	-10.7118
▁Penye	-10.7118
▁rest	-10.7119
▁Kurnia	-10.7125
▁Raharja	-10.7127
▁kripto	-10.7127
▁Sahroni	-10.7127
▁melemah	-10.7127
eresmi	-10.7127
▁Biasa	-10.7127
feksi	-10.7128
▁mematikan	-10.7129
▁Boy	-10.7129
▁inklusif	-10.7131
arto	-10.7149
▁Sekda	-10.7153
▁Mata	-10.7156
▁dinami	-10.7156
▁Basarnas	-10.7163
raksi	-10.7163
▁XI	-10.7166
neka	-10.7168
ksekutif	-10.7171
▁pemenangan	-10.7174
▁benda	-10.7175
▁Penyuluh	-10.7177
▁helikopter	-10.7177
angkal	-10.7179
▁spesialis	-10.7179
▁Persita	-10.7179
▁propos	-10.7179
▁taman	-10.718
▁opsi	-10.718
▁produktivitas	-10.7182
▁kawan	-10.7183
▁paham	-10.719
BU	-10.7199
UK	-10.7201
▁Hasilnya	-10.7207
pisah	-10.7208
dakwa	-10.7209
▁DJ	-10.721
▁Afri	-10.7211
▁leg	-10.7214
BL	-10.7219
eriksa	-10.7224
▁Hasyim	-10.7228
▁ditentukan	-10.7228
▁komprehensif	-10.7228
▁Begitu	-10.7228
▁Ginting	-10.7228
Dishub	-10.7228
▁artikel	-10.7229
▁Catat	-10.7229
beratan	-10.7229
▁segar	-10.7236
guna	-10.7243
UR	-10.7255
ful	-10.7274
Dalam	-10.7276
▁Ditangkap	-10.7279
▁Iduladha	-10.7279
ALANG	-10.728
▁Final	-10.728
▁Kiai	-10.7282
▁sertifikat	-10.7282
▁ingat	-10.7287
pengambilan	-10.7288
ndadak	-10.7292
rugi	-10.7295
umbu	-10.7319
egu	-10.7323
▁menelan	-10.7324
ngejar	-10.7326
▁seks	-10.733
▁stakeholder	-10.733
▁Senjata	-10.733
▁botol	-10.7331
nomor	-10.7331
▁kecewa	-10.7331
▁kenapa	-10.7331
▁Rachm	-10.7333
tandatangani	-10.7333
TPS	-10.7335
pet	-10.7336
emberhenti	-10.7336
▁Solidaritas	-10.7339
▁Indar	-10.7342
▁Promo	-10.7343
▁jet	-10.7343
▁didasar	-10.7355
ayangkan	-10.7357
▁Ze	-10.7365
PC	-10.7372
▁Respons	-10.7382
▁Lumajang	-10.7382
▁sederhana	-10.7382
▁Komandan	-10.7382
▁Onsu	-10.7382
▁kepemil	-10.7382
▁Akhirnya	-10.7382
▁20:3	-10.7384
-13	-10.7385
ST	-10.7396
▁Gem	-10.7397
▁Tam	-10.7397
▁Profes	-10.7404
NBA	-10.7429
▁amanah	-10.7432
▁Deklarasi	-10.7434
▁perunding	-10.7434
▁diabetes	-10.7434
▁transfer	-10.7434
▁zaman	-10.7435
profesi	-10.7436
▁lap	-10.7437
warisan	-10.7438
penghasilan	-10.744
▁Rizal	-10.7448
▁Tuhan	-10.7454
gengsi	-10.7454
▁nota	-10.7455
.200	-10.7457
konsolidasi	-10.7465
etas	-10.7471
patut	-10.7472
jaring	-10.7473
▁Gas	-10.7483
▁kronologi	-10.7486
▁Logistik	-10.7486
▁Ramadhan	-10.7486
▁bersatu	-10.7486
▁Saleh	-10.7487
guling	-10.7488
▁armad	-10.7488
▁Purnama	-10.7488
▁telak	-10.749
evaluasi	-10.749
!	-10.749
▁pendata	-10.7492
endalikan	-10.7492
▁Bos	-10.7494
▁volu	-10.7502
▁03:	-10.7513
▁Jaga	-10.7521
▁Herman	-10.7522
▁produktif	-10.7532
able	-10.7533
Baim	-10.7535
▁kemacetan	-10.7538
▁premium	-10.7538
▁petahana	-10.7538
▁cadangan	-10.7538
kebangsaan	-10.7538
▁perumahan	-10.7538
▁AHY	-10.7538
limpah	-10.7539
▁17:3	-10.7539
▁Siak	-10.7541
▁21:0	-10.7541
inovasi	-10.7545
sesuai	-10.7545
▁Alasan	-10.7551
PSI	-10.7553
jajak	-10.7556
▁Timor	-10.756
juara	-10.7561
▁Ayat	-10.7566
▁kap	-10.7569
▁Nabi	-10.758
nggang	-10.7583
▁Administrasi	-10.7591
▁Meningkat	-10.7591
▁ditawarkan	-10.7591
▁tercapai	-10.7591
▁muslim	-10.7591
▁virus	-10.7591
▁umrah	-10.7592
▁Buruh	-10.7595
▁bayar	-10.7596
bobol	-10.7596
▁wajar	-10.7597
▁landas	-10.7597
▁berisiko	-10.7598
▁Angel	-10.76
kapal	-10.7604
▁terwujud	-10.7604
▁Dasar	-10.7606
OR	-10.7613
Ya	-10.7618
▁Musi	-10.7626
geser	-10.763
CS	-10.7632
nyesuai	-10.7642
▁berikut	-10.7643
mblokir	-10.7644
▁KKB	-10.7644
▁pemantauan	-10.7644
▁Tentara	-10.7644
▁diakui	-10.7645
▁11:0	-10.7646
▁Citra	-10.7654
▁apel	-10.7659
-17	-10.766
simpan	-10.7661
▁tembak	-10.7664
endati	-10.7664
bung	-10.7667
▁Fitri	-10.7677
skon	-10.7684
otong	-10.7684
unjang	-10.7685
▁XXI	-10.7689
ullah	-10.7692
▁Sepak	-10.7694
▁Boyolali	-10.7697
▁Hijriah	-10.7697
▁Nasution	-10.7697
▁Vladimir	-10.7697
▁kekeringan	-10.7697
▁asuhnya	-10.7697
▁Harupat	-10.7697
▁peternak	-10.7697
Waspada	-10.7697
▁Pertandingan	-10.7697
▁Jaringan	-10.7697
▁Ita	-10.7697
▁Tessa	-10.7697
▁68	-10.7699
▁Pengawasan	-10.7702
kiper	-10.7725
▁Yudh	-10.773
ndang	-10.7732
hubung	-10.7741
▁ibunya	-10.7745
ekretariat	-10.775
▁Swedia	-10.775
▁teknik	-10.775
▁Listyo	-10.775
▁miskin	-10.775
▁Pembunuhan	-10.7751
▁segmen	-10.7751
▁disediakan	-10.7753
▁lomba	-10.7753
▁Ngawi	-10.7753
▁Asal	-10.7754
▁Dh	-10.7755
▁Op	-10.7758
▁pemangk	-10.7761
▁dedikasi	-10.7762
TM	-10.7762
▁Johan	-10.7765
▁pendukungnya	-10.777
▁muka	-10.7775
▁Persen	-10.778
▁Prima	-10.7792
kop	-10.7797
▁eksklusif	-10.7804
▁diakses	-10.7804
Sesuai	-10.7804
jemput	-10.7804
▁Vol	-10.7806
▁penulis	-10.7806
▁Kendal	-10.7807
▁Cinta	-10.7811
▁Ang	-10.7818
▁akt	-10.7822
▁Rest	-10.7824
ID	-10.7825
▁live	-10.7827
▁menunt	-10.7829
▁95	-10.7835
▁Bawa	-10.7849
▁tunai	-10.7851
▁berharga	-10.7852
IKA	-10.7857
▁67	-10.7858
▁Akhir	-10.7858
▁Foundation	-10.7858
▁Peningkatan	-10.7858
▁bergulir	-10.7858
▁penyeberangan	-10.7858
▁APBD	-10.7858
▁Pesawat	-10.7858
▁bertahap	-10.7858
▁Libur	-10.7858
▁Susanto	-10.7858
▁finis	-10.7859
▁19:3	-10.7859
▁Seger	-10.786
▁Karim	-10.7866
▁Mabes	-10.7867
Tanpa	-10.7869
sinergi	-10.7872
gambar	-10.7875
▁73	-10.7877
▁BAZNAS	-10.788
inta	-10.7885
▁Marga	-10.7885
▁direncanakan	-10.7886
kura	-10.7892
ekuatan	-10.7899
nuhan	-10.7906
▁Mungkin	-10.7907
▁seputar	-10.7911
▁kelapa	-10.7911
▁bersejarah	-10.7913
▁dideportasi	-10.7913
▁Georgia	-10.7913
▁menindak	-10.7913
▁berkurang	-10.7913
▁mendarat	-10.7913
▁gender	-10.7913
▁Penyebab	-10.7913
▁masif	-10.7913
▁Management	-10.7914
▁dipenuhi	-10.7917
▁Terbaik	-10.792
▁Amran	-10.7924
perang	-10.7925
arti	-10.7928
wanto	-10.7933
incar	-10.7936
▁(12	-10.7949
▁merata	-10.7959
▁Bantu	-10.7964
▁Judi	-10.7967
▁Secret	-10.7967
▁mengoptimal	-10.7967
▁milenial	-10.7967
▁Unggul	-10.7967
▁tuntas	-10.7967
ESG	-10.7969
▁hebat	-10.7969
alihkan	-10.798
▁ideal	-10.798
▁dilanda	-10.7981
konsultasi	-10.7985
▁pembicara	-10.7986
▁Widya	-10.7989
▁menyeluruh	-10.799
siap	-10.799
▁komitmennya	-10.7992
penduduk	-10.7992
ogo	-10.7998
SC	-10.802
-15	-10.802
▁keturunan	-10.8022
▁Sumedang	-10.8022
▁Rahman	-10.8022
▁rantai	-10.8022
▁Ingin	-10.8023
▁Kreatif	-10.8024
hormat	-10.8025
▁14:0	-10.8025
app	-10.8027
▁South	-10.8028
▁Federal	-10.8037
▁narasi	-10.8038
Iya	-10.804
seret	-10.804
▁Saksi	-10.804
▁pengatur	-10.8043
▁liter	-10.8044
▁2,5	-10.8048
▁Luhu	-10.8052
▁Naik	-10.8053
▁terintegrasi	-10.8053
▁kliennya	-10.8055
▁Gempa	-10.8062
ching	-10.8064
sha	-10.8067
hasiat	-10.8075
tase	-10.8075
▁Akademi	-10.8077
▁Kejadian	-10.8077
▁ditingkatkan	-10.8077
▁pengendali	-10.8077
▁simpati	-10.8077
▁2011	-10.8078
▁Analis	-10.8078
▁mirip	-10.8078
▁moral	-10.8078
▁09:0	-10.8078
▁64	-10.808
▁butir	-10.808
▁penyebar	-10.8084
▁Week	-10.8085
▁Sejahtera	-10.8085
IL	-10.8086
mbalas	-10.809
▁Sudan	-10.8099
part	-10.8099
peluang	-10.8105
wakil	-10.8105
▁Subang	-10.8108
harga	-10.8108
berpihak	-10.8116
▁menua	-10.8116
kawan	-10.8118
▁perut	-10.8122
askar	-10.8128
▁Fauzi	-10.8133
▁Cilegon	-10.8133
▁tersendiri	-10.8133
▁Pemilik	-10.8133
▁diganti	-10.8134
▁13:3	-10.8134
▁16:1	-10.8135
▁13:0	-10.8135
▁telur	-10.8135
▁Kulon	-10.8137
aniaya	-10.8139
salurkan	-10.8139
▁Pati	-10.8144
intas	-10.8151
16	-10.8155
erwira	-10.8174
▁kurun	-10.8175
▁beragama	-10.8179
juang	-10.8186
Energy	-10.8189
▁Barcelona	-10.8189
Tipikor	-10.8189
▁Hindu	-10.8189
▁Jorge	-10.8189
▁dibahas	-10.8189
▁Press	-10.8189
▁21:3	-10.819
ulihkan	-10.819
▁balasan	-10.8191
▁sejati	-10.8191
▁Hartono	-10.8192
▁menghapus	-10.8192
▁turis	-10.8192
kompak	-10.8196
empatan	-10.8197
▁Makin	-10.8199
▁Iris	-10.82
wacana	-10.8202
▁mengurus	-10.8204
akhir	-10.8205
rangka	-10.8214
bilang	-10.8222
▁Muara	-10.8231
embangkit	-10.8234
▁Wang	-10.8237
tter	-10.8237
rumus	-10.8243
akomodasi	-10.8245
▁Manchester	-10.8245
▁keperluan	-10.8245
▁bjb	-10.8245
▁Wuling	-10.8245
▁Sukses	-10.8245
▁Informati	-10.8245
▁absen	-10.8245
▁Mars	-10.8247
▁Atlet	-10.8249
▁hambatan	-10.8252
▁Dur	-10.8252
▁(14	-10.8252
▁baju	-10.8254
ertolong	-10.8255
koni	-10.8255
▁Mark	-10.8258
Qur	-10.8258
ncabut	-10.8276
wawancara	-10.8279
iklan	-10.828
kata	-10.8283
plikasi	-10.8283
erangan	-10.8286
posting	-10.8291
▁Zu	-10.8296
KO	-10.8297
▁menggal	-10.8301
▁Swiss	-10.8302
▁almarhum	-10.8302
▁Meninggal	-10.8302
▁Peduli	-10.8302
▁Ahok	-10.8302
▁Pilih	-10.8302
▁tumbang	-10.8303
▁gelandang	-10.8303
Mendag	-10.8303
▁terorisme	-10.8306
▁Social	-10.8306
citra	-10.8307
▁mengacu	-10.8314
udah	-10.8315
▁Will	-10.8319
▁GP	-10.8337
▁penyisi	-10.8341
▁Seru	-10.8347
▁pengin	-10.8349
▁Amir	-10.8351
▁Communication	-10.8358
▁Florida	-10.8358
▁Yudhoyono	-10.8358
▁erupsi	-10.8358
▁Parawansa	-10.8358
▁Cimahi	-10.8358
▁asisten	-10.8359
▁roket	-10.8359
▁08:0	-10.8359
▁Suci	-10.8362
SDN	-10.8364
▁Pengusaha	-10.837
▁Mitra	-10.837
aspora	-10.8372
▁ukuran	-10.8373
▁Massa	-10.8376
▁disiplin	-10.8377
ataan	-10.8378
▁59	-10.8388
merawat	-10.8394
▁Ikat	-10.8396
ombak	-10.8397
▁bara	-10.84
kuat	-10.8402
karena	-10.8403
plus	-10.8405
▁menyaran	-10.8415
irokrasi	-10.8415
▁Aris	-10.8415
▁rekening	-10.8416
▁jenderal	-10.8416
guncang	-10.8416
▁Yahya	-10.8416
▁walau	-10.8416
▁Nahdl	-10.8416
Pemeriksaan	-10.8416
▁bareng	-10.8416
▁Bola	-10.8419
seragam	-10.8422
amer	-10.8423
▁mandi	-10.8427
nantia	-10.8427
▁pengolah	-10.8428
▁Seks	-10.8438
▁Dam	-10.844
▁Anung	-10.844
▁Tip	-10.8446
▁One	-10.8456
populer	-10.8457
▁lupa	-10.8471
bincang	-10.8473
▁Liverpool	-10.8473
▁horor	-10.8473
musnahkan	-10.8473
▁Idris	-10.8473
▁Bukit	-10.8473
Insiden	-10.8473
Prakiraan	-10.8473
▁Pameran	-10.8474
▁andalan	-10.8474
▁Robert	-10.8474
▁menyumbang	-10.8475
▁Kuala	-10.8479
▁Audi	-10.8481
owongan	-10.8483
layang	-10.8489
▁Food	-10.849
▁Fuji	-10.849
under	-10.8502
▁(10	-10.851
utuk	-10.851
▁Penelitian	-10.8516
aripurna	-10.8531
▁Sudirman	-10.8531
▁favorit	-10.8531
▁Ismail	-10.8531
bimbing	-10.8531
ublic	-10.8531
▁rumput	-10.8531
▁Power	-10.8531
▁santun	-10.8531
Undip	-10.8531
▁Resor	-10.8532
▁Putera	-10.8532
▁17:1	-10.8533
▁Officer	-10.8534
▁super	-10.8537
pengaduan	-10.8538
cuti	-10.8538
▁Deli	-10.8546
▁Sosialisasi	-10.8549
ilateral	-10.8549
esahkan	-10.8551
▁Melihat	-10.8553
▁Mc	-10.856
▁Yos	-10.8565
▁Chie	-10.8572
sekolah	-10.8577
pusat	-10.8578
▁Gard	-10.8578
▁Novi	-10.8583
UP	-10.8584
penting	-10.8585
erseroan	-10.8586
utar	-10.8587
▁Brimob	-10.8589
▁Fasilitas	-10.8589
▁perceraian	-10.8589
▁raksasa	-10.8589
▁rehabilitasi	-10.8589
▁Miftah	-10.8589
pertanggungjawab	-10.8589
▁figur	-10.8589
▁PUPR	-10.8589
▁Unair	-10.8589
▁Wahid	-10.8589
▁rambut	-10.8589
▁krusial	-10.8589
▁seberat	-10.8589
▁diputus	-10.859
▁ulama	-10.859
▁16:3	-10.859
▁ganti	-10.8591
▁Kristen	-10.8592
▁(1)	-10.8613
EL	-10.8622
▁Rube	-10.8623
▁Strategis	-10.8631
qui	-10.8633
potong	-10.8634
▁formul	-10.8638
alumni	-10.8638
▁lebar	-10.8638
olong	-10.8646
alkohol	-10.8647
▁Yahudi	-10.8647
▁15:3	-10.8649
hakim	-10.8653
▁indah	-10.8654
sebelas	-10.8654
▁blok	-10.8657
guru	-10.8659
bersamaan	-10.8659
▁nir	-10.8659
▁terjun	-10.866
▁PSIM	-10.866
▁Mengena	-10.8661
▁Atta	-10.8661
erry	-10.8667
▁perhitungan	-10.8667
ungutan	-10.8676
▁Comm	-10.8679
himpun	-10.8682
istik	-10.8686
▁Land	-10.8688
maksud	-10.8691
selisih	-10.8694
daerah	-10.8699
▁profes	-10.8704
riya	-10.8704
▁Uzbekistan	-10.8706
▁BYD	-10.8706
▁Pencegahan	-10.8706
▁Tokyo	-10.8706
▁kerabat	-10.8706
▁murid	-10.8706
uzuki	-10.8706
▁mengeluh	-10.8706
▁lansia	-10.8707
proyeksi	-10.8711
latih	-10.8714
usuk	-10.8717
curiga	-10.8719
▁Mohamm	-10.8719
▁tuanya	-10.8721
EV	-10.8728
pok	-10.873
FA	-10.873
anggilan	-10.8733
ware	-10.8736
▁KTP	-10.8739
▁Musk	-10.874
▁sand	-10.874
murni	-10.8747
informasi	-10.876
liansi	-10.8763
▁Max	-10.8765
_	-10.8765
afiliasi	-10.8765
▁Asuransi	-10.8765
▁Kinerja	-10.8765
▁tertinggal	-10.8765
▁Teknis	-10.8765
▁pencoblosan	-10.8765
▁Kekerasan	-10.8765
▁Pelajar	-10.8765
▁menyenangkan	-10.8766
▁berdarah	-10.8766
emas	-10.8768
▁15:0	-10.8769
idik	-10.8769
▁Turun	-10.8772
▁Lang	-10.8777
kerahkan	-10.879
egal	-10.8792
inisia	-10.8793
MT	-10.88
JI	-10.8801
mendekati	-10.8808
naikan	-10.8819
▁Bunga	-10.8821
kejut	-10.8821
é	-10.8825
▁Portugal	-10.8825
▁penguasa	-10.8825
▁pengangguran	-10.8825
▁America	-10.8825
▁Kusuma	-10.8825
▁gelap	-10.8825
▁nikel	-10.8825
▁kertas	-10.8826
▁sinyal	-10.8826
▁Barito	-10.8827
▁rincian	-10.8828
▁lemak	-10.8829
▁800	-10.883
zer	-10.883
▁Robi	-10.8831
embada	-10.8834
▁Jonat	-10.8834
ganda	-10.8837
▁Adhi	-10.8838
▁Ajak	-10.884
▁cek	-10.8843
▁63	-10.8847
▁advoka	-10.885
konfirmasi	-10.8865
▁tahan	-10.8872
55	-10.8874
-12	-10.888
▁melebih	-10.8881
▁School	-10.8885
▁PEKA	-10.8885
▁gejala	-10.8885
▁Pemberdayaan	-10.8885
▁memecah	-10.8885
▁07:1	-10.8886
▁Haiti	-10.8886
▁seruan	-10.8888
▁lemah	-10.8888
▁Nadi	-10.8891
▁matahari	-10.8891
▁sepatu	-10.8897
▁ditolak	-10.8897
UA	-10.8907
▁Sales	-10.8908
12/	-10.8913
▁Hati	-10.892
▁Sehat	-10.8923
indahkan	-10.8925
hemat	-10.8925
trik	-10.893
▁Aji	-10.8931
▁putranya	-10.894
▁Inf	-10.8941
▁pemda	-10.8942
▁manufaktur	-10.8945
▁pembaca	-10.8945
▁Fikri	-10.8945
▁08:3	-10.8945
prioritas	-10.8946
▁20:4	-10.8947
▁operat	-10.8947
▁Demi	-10.8948
▁10:1	-10.8949
▁mode	-10.8951
▁berikan	-10.8954
▁saran	-10.8954
osis	-10.8959
▁1.3	-10.8962
▁legal	-10.8977
▁BNI	-10.8978
anggota	-10.8991
NE	-10.8991
abet	-10.8993
▁mesti	-10.9002
▁Telegram	-10.9006
merinci	-10.9006
▁aborsi	-10.9006
▁Faisal	-10.9006
komandan	-10.9006
▁mulut	-10.9006
▁Hilir	-10.9006
mond	-10.9006
▁pesat	-10.9007
▁MU	-10.901
▁Lam	-10.9011
hariq	-10.9012
pacara	-10.9029
pindah	-10.9029
▁tercipta	-10.9034
KM	-10.9043
DE	-10.9044
gum	-10.9055
▁66	-10.9061
▁hoaks	-10.9067
▁Diponegoro	-10.9067
▁Fauziyah	-10.9067
▁eskalasi	-10.9067
▁Cikarang	-10.9067
▁Situasi	-10.9067
▁Febri	-10.9067
▁musisi	-10.9067
▁perencanaan	-10.9067
▁BSD	-10.9067
▁18:3	-10.9068
▁terbunuh	-10.9069
▁jaga	-10.9072
▁tipis	-10.9074
▁Tegas	-10.9075
▁Mudik	-10.9076
egah	-10.908
admin	-10.9086
▁77	-10.9087
▁semata	-10.9088
▁Solusi	-10.9088
publikasi	-10.9089
▁Laku	-10.9095
ctor	-10.9116
▁kain	-10.9128
▁Research	-10.9128
▁Sulaiman	-10.9128
▁kebudayaan	-10.9128
▁ketenagakerjaan	-10.9128
▁goreng	-10.9128
▁SPBU	-10.9128
▁Ambon	-10.9128
▁Asisten	-10.9128
▁stres	-10.9129
▁2023-2024	-10.9129
▁keyakinan	-10.9129
▁Potensi	-10.9129
▁Kasub	-10.9131
▁Sampah	-10.9132
▁10:0	-10.9132
▁sumpah	-10.9142
LT	-10.9162
▁Bill	-10.9166
▁Wil	-10.9169
rumah	-10.9169
▁komisi	-10.9172
ketinggian	-10.9173
angsa	-10.9176
▁Manaje	-10.9188
▁Maria	-10.9189
▁drama	-10.9189
▁Pamekasan	-10.919
▁kucing	-10.919
▁Peluang	-10.919
▁Dasco	-10.919
▁Hendra	-10.919
▁keluhan	-10.919
▁warganet	-10.919
▁Mahendra	-10.919
▁disahkan	-10.919
▁Azwar	-10.9191
▁Kalsel	-10.9192
▁jujur	-10.9192
▁10:3	-10.9193
▁Malut	-10.92
encabulan	-10.9202
▁SERA	-10.9211
▁start	-10.9217
▁Sport	-10.9224
puing	-10.9226
siar	-10.9226
omitmen	-10.9238
▁Subdi	-10.9244
▁pemer	-10.9251
elebgram	-10.9252
▁Kehutanan	-10.9252
▁Teknik	-10.9252
onitoring	-10.9252
▁Zulki	-10.9252
▁Migran	-10.9252
▁Racing	-10.9252
▁Boeing	-10.9252
▁dicapai	-10.9252
▁Bukti	-10.9252
▁single	-10.9252
perundungan	-10.9253
▁stok	-10.9253
isnu	-10.9254
Lukman	-10.9255
▁kirim	-10.9256
▁Jong	-10.9259
▁debut	-10.9261
▁Minum	-10.9265
▁Asy	-10.9281
▁Labu	-10.929
akta	-10.929
ness	-10.929
timpa	-10.9297
▁96	-10.93
simpul	-10.93
46	-10.9303
prihatin	-10.9314
▁Pelanggan	-10.9314
▁peluru	-10.9314
▁terjatuh	-10.9314
▁12:3	-10.9316
▁toleransi	-10.9317
▁buron	-10.9317
lontar	-10.932
▁Franc	-10.9321
▁RIDO	-10.9321
aksa	-10.9325
▁zat	-10.9327
tipe	-10.9327
cik	-10.9328
▁Aplikasi	-10.9329
lupakan	-10.9329
susun	-10.9329
Bawaslu	-10.933
campur	-10.933
MC	-10.9332
▁tertib	-10.9341
▁web	-10.9343
uw	-10.9344
▁Avi	-10.9346
▁Ulang	-10.9347
▁Astra	-10.935
▁padi	-10.9355
IF	-10.9367
▁Jon	-10.9377
▁perkira	-10.9377
▁Rahayu	-10.9377
▁perkebunan	-10.9377
▁Alumni	-10.9377
▁Beirut	-10.9377
▁Perkasa	-10.9377
orkshop	-10.9377
▁bermotor	-10.9377
ekspresi	-10.9378
▁21:1	-10.9379
▁kebaikan	-10.9379
▁19:1	-10.938
▁Dardak	-10.938
▁kuning	-10.9382
▁Euro	-10.9382
▁ekstra	-10.9389
▁bersubsidi	-10.9395
letus	-10.9396
kaji	-10.9399
kov	-10.94
▁Koperasi	-10.9403
▁Harun	-10.9404
prov	-10.9405
bawang	-10.9406
Hal	-10.9413
row	-10.9414
▁00.	-10.9414
unjung	-10.9419
tuntut	-10.9421
diang	-10.9427
▁harap	-10.9427
▁kayak	-10.9435
kasus	-10.9437
▁Kemayoran	-10.944
▁manajer	-10.9441
▁Dampak	-10.9441
▁Seoul	-10.9441
▁11:3	-10.9442
▁bersedi	-10.9442
▁20:5	-10.9442
▁pemukim	-10.9442
▁16:2	-10.9443
▁20:2	-10.9444
▁Milik	-10.9445
lamar	-10.945
▁$1	-10.9452
Hamas	-10.9461
unggung	-10.9462
▁penari	-10.9465
tuding	-10.9469
yana	-10.9476
rasa	-10.9479
osialisasi	-10.948
LK	-10.9496
▁Musik	-10.9504
▁Finance	-10.9504
▁Hyundai	-10.9504
▁amunisi	-10.9504
▁Toyota	-10.9504
▁permukiman	-10.9504
▁1998	-10.9504
▁Mineral	-10.9504
▁memadai	-10.9504
▁Darmawan	-10.9504
tentangan	-10.9505
▁dijaga	-10.9506
▁Micha	-10.9508
▁SU	-10.951
▁Bebas	-10.9511
▁mini	-10.9511
▁menyama	-10.9513
▁biji	-10.9514
▁Senat	-10.9523
▁Mada	-10.9524
▁Asri	-10.9524
▁Area	-10.9525
imun	-10.9534
bocoran	-10.9541
▁bertanding	-10.9551
▁kala	-10.9562
▁Adam	-10.9563
▁Narkotika	-10.9568
▁pendahulu	-10.9568
▁sempurna	-10.9568
▁trauma	-10.9568
▁Rancang	-10.9568
▁Menaker	-10.9568
▁tawaran	-10.9568
▁Ansor	-10.9569
OJK	-10.9569
PKS	-10.957
▁bibit	-10.9571
xy	-10.9573
▁seniman	-10.9579
▁Sampang	-10.958
embawa	-10.958
deteksi	-10.9581
▁Punya	-10.9587
erpadu	-10.9589
▁posko	-10.959
putar	-10.9594
▁Laksa	-10.9594
▁JA	-10.9599
SUV	-10.9602
paya	-10.9603
berpengaruh	-10.9606
elita	-10.9613
▁Buah	-10.9614
pengaruh	-10.9616
▁tele	-10.9633
▁FOTO	-10.9633
▁Facebook	-10.9633
▁Kakanwil	-10.9633
▁kuartal	-10.9633
▁diinginkan	-10.9633
bohong	-10.9633
▁berkomentar	-10.9633
▁Konser	-10.9635
anggar	-10.9638
▁Kehormatan	-10.9649
▁Human	-10.9649
▁nara	-10.9653
gala	-10.966
▁Panda	-10.9662
▁5.000	-10.9662
▁Cal	-10.9663
OL	-10.9664
▁Momen	-10.9669
owo	-10.9686
▁Edy	-10.9693
BPN	-10.9696
▁tenda	-10.9698
TJSL	-10.9698
▁Nugraha	-10.9698
▁Pengendali	-10.9698
▁Keadilan	-10.9698
▁ormas	-10.97
▁Mulyani	-10.9701
▁Salim	-10.9709
ember	-10.9711
huni	-10.9714
▁Was	-10.9721
BUM	-10.9721
hidang	-10.9724
tech	-10.974
alaman	-10.9744
naung	-10.9746
The	-10.9748
▁Camp	-10.9749
▁konse	-10.9753
▁info	-10.9756
▁Los	-10.9761
▁Sarwendah	-10.9763
▁netizen	-10.9763
harmonis	-10.9763
▁Anthon	-10.9763
▁istilah	-10.9763
▁Jepara	-10.9763
▁anjing	-10.9763
▁Sosok	-10.9763
▁Izin	-10.9763
▁zakat	-10.9763
▁Banyumas	-10.9764
▁pemerasan	-10.9764
▁13:1	-10.9765
▁19:4	-10.9765
▁wasit	-10.9765
▁Baca	-10.9767
▁pengedar	-10.9773
▁batik	-10.9776
▁Mira	-10.9781
▁Generasi	-10.9782
▁reaksi	-10.9783
▁79	-10.9787
▁sewaktu	-10.9788
▁Menjadi	-10.9788
▁2009	-10.9789
ngko	-10.979
▁Vice	-10.9791
Bangsa	-10.9802
▁Meta	-10.9812
▁Intan	-10.9817
▁Akma	-10.9817
azz	-10.9822
▁Belitung	-10.9829
▁Penerima	-10.9829
▁Kalteng	-10.9829
BKPSDM	-10.9829
▁Ducati	-10.9829
▁Ilegal	-10.9829
angrove	-10.9829
▁terobosan	-10.9829
▁1-0	-10.9831
▁Zakat	-10.9831
▁DK	-10.9832
▁Peter	-10.9832
▁formal	-10.9833
satwa	-10.9834
Daop	-10.9848
▁defi	-10.9855
tandang	-10.9865
dunia	-10.9866
ekat	-10.9867
▁pengisi	-10.9879
cairan	-10.9891
▁Dokumen	-10.9894
▁FIFA	-10.9895
▁akademik	-10.9895
lingkup	-10.9895
▁Ryder	-10.9895
▁miras	-10.9896
▁memukul	-10.9896
▁sengit	-10.9896
sentuh	-10.9897
▁22:0	-10.9897
jarak	-10.9898
Armuji	-10.9899
▁harta	-10.9899
▁2012	-10.99
▁VII	-10.9904
▁Nasi	-10.9907
▁pilar	-10.9911
▁interak	-10.9926
▁Cita	-10.9927
engingat	-10.9928
▁remi	-10.9929
▁Merak	-10.993
Alhamdulillah	-10.9933
▁600	-10.9937
▁penyeraha	-10.9955
bedah	-10.9955
engeluaran	-10.9962
▁Banyuasin	-10.9962
▁Pahlawan	-10.9962
▁Proliga	-10.9962
▁Formasi	-10.9962
▁mengabaikan	-10.9962
▁legenda	-10.9962
ambisi	-10.9962
▁terjaga	-10.9962
▁ambulan	-10.9962
alun	-10.9962
▁indekos	-10.9963
erserikat	-10.9964
▁penataan	-10.9967
▁lapisan	-10.9967
wen	-10.9968
AU	-10.997
▁Jombang	-10.997
▁Dal	-10.9973
▁Roma	-10.9977
▁penanam	-10.9977
▁baris	-10.9984
Ter	-10.9989
tanding	-10.9997
ewenang	-11.0005
aktivitas	-11.0012
▁beruntun	-11.0014
▁Cel	-11.0024
emerdekaan	-11.0025
▁kelurahan	-11.0029
▁progres	-11.0029
▁Syarif	-11.0029
terdengar	-11.0029
▁Kelapa	-11.0029
▁Chandra	-11.003
▁Kurniawan	-11.0032
▁Sentra	-11.0034
DPT	-11.004
Menpora	-11.0044
▁mendominasi	-11.005
jeng	-11.0056
▁West	-11.0058
Taj	-11.007
BPBD	-11.0073
Pemkot	-11.0073
sangat	-11.0075
▁mering	-11.0082
ving	-11.0084
▁lonj	-11.0088
▁vaksin	-11.0093
▁penanggu	-11.0094
hibah	-11.0094
TV	-11.0096
Puskesmas	-11.0096
▁2024-2025	-11.0096
▁Academy	-11.0096
▁Apresiasi	-11.0096
▁Project	-11.0096
▁Supriyani	-11.0096
▁Saputra	-11.0096
▁menyangka	-11.0096
makmur	-11.0097
▁penentu	-11.0097
imberly	-11.0097
venue	-11.0098
bingung	-11.0098
▁distrik	-11.0098
▁16:4	-11.0098
▁Alasannya	-11.0099
▁pertaru	-11.0099
▁Tampil	-11.01
▁Ulu	-11.01
ncur	-11.0101
▁antusiasme	-11.0102
▁61	-11.0105
▁Eva	-11.0109
▁Korp	-11.012
▁Hery	-11.0121
▁tip	-11.0125
▁Rio	-11.0125
▁Rasa	-11.0126
▁Gold	-11.0132
▁Wat	-11.0137
gerebek	-11.0141
rekomendasi	-11.0144
▁cap	-11.0144
road	-11.0149
erizinan	-11.0157
UU	-11.0158
wawas	-11.0161
urikulum	-11.0164
▁minoritas	-11.0164
▁pengeroyok	-11.0164
▁bermasalah	-11.0165
▁AFC	-11.0165
▁seminar	-11.0165
▁Samu	-11.0166
▁dibaca	-11.0166
ANYA	-11.0167
▁Rama	-11.0167
▁memerang	-11.0167
▁kebenaran	-11.0168
▁agresif	-11.0168
▁lembar	-11.0169
▁terganggu	-11.0171
▁pencuci	-11.0174
▁Doha	-11.0177
▁Div	-11.0177
▁Hilang	-11.0182
▁Yoon	-11.0186
enggerebekan	-11.0188
▁gerb	-11.019
▁Pangkal	-11.0196
ongko	-11.0199
▁Tech	-11.02
kasih	-11.0203
enyanyi	-11.0207
galan	-11.0212
partai	-11.0216
suara	-11.0222
dokumentasi	-11.0227
Dia	-11.0228
TKP	-11.0229
aging	-11.023
▁Associate	-11.0233
▁Jurnalis	-11.0233
▁Virgoun	-11.0233
▁konsekuensi	-11.0233
▁pemakaman	-11.0233
▁menyentuh	-11.0233
▁terdepan	-11.0233
▁Club	-11.0233
▁persegi	-11.0233
PHPU	-11.0233
▁sebaliknya	-11.0234
▁Sila	-11.0236
BPS	-11.0238
garap	-11.0249
PANRB	-11.025
logo	-11.0258
raj	-11.0261
▁mengganti	-11.0261
▁Bule	-11.0262
▁Qo	-11.0271
▁bau	-11.0281
▁Hand	-11.0291
▁penyimpan	-11.0295
▁Brazil	-11.0302
▁istimewa	-11.0302
▁kompetitif	-11.0302
▁Gerimis	-11.0302
▁Statisti	-11.0302
Mayjen	-11.0302
▁Hendri	-11.0303
▁sudut	-11.0304
▁17:4	-11.0304
▁21:2	-11.0304
▁jagung	-11.0305
bertarung	-11.0305
▁Bulog	-11.0306
▁BSI	-11.0308
▁1945	-11.0308
▁KPPS	-11.031
ANGE	-11.031
skusi	-11.0318
▁mengkhawatirkan	-11.0325
▁Graha	-11.0327
▁Kepri	-11.0328
▁Hutan	-11.0329
▁terkes	-11.0333
SE	-11.0334
tribusi	-11.0336
▁04:5	-11.0338
hard	-11.034
▁Rusli	-11.0343
▁Kamar	-11.0345
ebsite	-11.0345
tunjang	-11.0348
aneka	-11.0352
abung	-11.0359
▁Lion	-11.0362
▁Mengap	-11.0364
▁1.2	-11.0365
▁Susu	-11.0365
ukir	-11.0366
▁Timah	-11.0366
▁makam	-11.037
▁Indramayu	-11.0371
▁Kamboja	-11.0371
▁Merespons	-11.0371
▁konkret	-11.0371
▁Atikoh	-11.0371
martabat	-11.0371
▁Hafid	-11.0371
▁dagang	-11.0371
▁Justin	-11.0372
▁Paloh	-11.0372
▁Space	-11.0372
▁Gagal	-11.0372
▁09:3	-11.0372
▁13:4	-11.0373
Apa	-11.0374
▁realisasi	-11.0374
▁15:1	-11.0375
▁birokrasi	-11.0376
engasuh	-11.0377
▁Pemda	-11.0383
▁Progo	-11.0388
libatkan	-11.0388
engemudi	-11.0388
▁sumur	-11.0394
▁Paula	-11.0395
▁62	-11.0398
▁Fair	-11.0401
WI	-11.0402
▁Peta	-11.0414
lapis	-11.0418
tanggung	-11.0418
▁Cik	-11.0425
▁Rohi	-11.0425
bawah	-11.0428
struktur	-11.043
saudara	-11.043
ficial	-11.044
▁optimis	-11.044
▁Latihan	-11.0441
▁Yandri	-11.0441
▁pulih	-11.0441
▁kenyataan	-11.0442
▁menghalang	-11.0442
Rizki	-11.0442
▁mengalir	-11.0442
▁Jeff	-11.0442
▁69	-11.0443
▁Afif	-11.0444
▁sawah	-11.0445
▁topik	-11.0448
▁tarik	-11.0448
NC	-11.045
▁lelang	-11.0451
▁berinvestasi	-11.0456
gagas	-11.0458
silakan	-11.0463
▁Angga	-11.0464
▁bandang	-11.0466
▁balita	-11.0469
▁Farid	-11.047
MW	-11.0476
nekat	-11.0489
▁Halim	-11.0499
▁indek	-11.051
▁Tannur	-11.0512
▁Pelanggaran	-11.0512
Mapolda	-11.0512
▁Badai	-11.0513
▁pantas	-11.0514
enertiban	-11.0514
▁Berkelanjutan	-11.0515
mberdaya	-11.0517
▁Kenaikan	-11.0523
angkas	-11.0525
▁Cahyo	-11.0532
▁78	-11.054
▁Pemberi	-11.054
▁diungkap	-11.0544
▁Dol	-11.0547
▁Andra	-11.0554
afia	-11.0557
▁Leo	-11.0565
▁tank	-11.0566
▁Yog	-11.057
▁Uji	-11.0572
▁Tunggal	-11.0583
▁pemerkosaan	-11.0583
▁Kredit	-11.0583
▁Pabrik	-11.0583
▁Ridho	-11.0583
▁Fokus	-11.0583
▁Sulsel	-11.0583
▁Fitur	-11.0583
▁Magelang	-11.0584
ikapi	-11.0584
▁20:1	-11.0586
entil	-11.0589
biaya	-11.0591
▁Vade	-11.0594
▁pemasar	-11.0596
▁Cap	-11.0599
enuju	-11.0601
Hari	-11.0601
▁Komp	-11.0602
▁Hamid	-11.0603
▁akal	-11.0609
▁Leste	-11.0613
Jik	-11.0616
▁Rangka	-11.063
▁cela	-11.063
gub	-11.0635
▁Hans	-11.0635
arapan	-11.0652
imigran	-11.0654
▁Cilacap	-11.0654
▁Muhamad	-11.0654
▁Richard	-11.0654
▁protein	-11.0654
▁Alexander	-11.0654
▁Tahap	-11.0656
▁Pesta	-11.0656
penyesuaian	-11.0657
▁12:0	-11.0659
▁menunda	-11.066
pengunduran	-11.0661
emalsu	-11.0662
▁2030	-11.0662
▁Tokoh	-11.0664
▁tunggu	-11.0671
erselisih	-11.0671
Caleg	-11.0673
▁Amma	-11.068
NK	-11.0683
▁Berawan	-11.0699
▁Marco	-11.0704
▁Wamen	-11.0706
amanat	-11.0711
▁ternak	-11.0712
genang	-11.0716
▁Aset	-11.0723
▁Syaikhu	-11.0726
▁Sandiaga	-11.0726
▁Shopee	-11.0726
▁Keliling	-11.0726
▁Indek	-11.0726
▁Saiful	-11.0726
▁Lantas	-11.0726
▁Brigad	-11.0726
penggelapan	-11.0727
▁08:4	-11.0727
kreasi	-11.0727
▁Macron	-11.0727
▁Tembak	-11.0727
▁19:5	-11.0728
▁Lihat	-11.0731
▁Petani	-11.0732
▁Dimas	-11.0736
JO	-11.0737
▁Senator	-11.0738
▁Multi	-11.0743
▁potensial	-11.0744
▁Obat	-11.0755
anjur	-11.0755
garis	-11.0757
batas	-11.0764
-25	-11.0786
▁Hospital	-11.0799
▁Insurance	-11.0799
▁keindahan	-11.0799
▁koordinat	-11.0799
▁pencernaan	-11.0799
▁streaming	-11.0799
▁syariah	-11.0799
▁Indragiri	-11.0799
▁pemindah	-11.0799
▁Pengamanan	-11.0799
cantum	-11.0799
▁vokal	-11.0799
▁perundang	-11.0799
VNL	-11.0799
enggerak	-11.0799
▁18:5	-11.08
▁Cerita	-11.08
▁hulu	-11.08
▁14:3	-11.08
▁Cepat	-11.0801
▁tebal	-11.0802
▁burung	-11.0804
▁18:0	-11.0804
▁menyalah	-11.0807
▁87	-11.0807
▁Terpadu	-11.0811
▁peninjau	-11.0813
▁Brip	-11.0829
TH	-11.0832
▁Manda	-11.0844
▁Kasih	-11.0847
prakira	-11.0854
▁Pura	-11.0854
▁Info	-11.086
sepakati	-11.0871
▁Wakapol	-11.0871
▁Haniyeh	-11.0872
▁Sukoharjo	-11.0872
▁Cugur	-11.0872
▁2013	-11.0872
▁Pemadam	-11.0872
▁pengaju	-11.0872
▁rekayasa	-11.0872
▁Janji	-11.0872
▁19:2	-11.0874
▁Bahan	-11.0881
▁Tren	-11.0884
▁Gading	-11.0885
▁Moh	-11.0885
▁Mahar	-11.0893
▁2004	-11.09
PBB	-11.09
▁Merc	-11.0905
jenis	-11.0906
▁Harim	-11.0912
▁pipa	-11.0915
susul	-11.0929
alamat	-11.093
kembalikan	-11.093
PKB	-11.0936
▁membaik	-11.0939
▁Maha	-11.0944
▁2024/25	-11.0945
▁Pesisir	-11.0945
▁kepresidenan	-11.0945
▁peradilan	-11.0945
▁Mikro	-11.0945
▁pintar	-11.0945
mandirian	-11.0946
▁Sektor	-11.0946
▁Minyak	-11.0947
▁85	-11.0947
▁17:2	-11.0948
▁Puji	-11.0948
▁Candi	-11.0949
▁rampung	-11.0951
nova	-11.0952
esok	-11.0953
UMKM	-11.0953
uansa	-11.0955
▁Sorong	-11.0959
▁liga	-11.0963
IR	-11.0964
▁menanya	-11.0973
enjang	-11.0973
▁Irawan	-11.0976
▁13.00	-11.0984
urung	-11.0985
agung	-11.0987
▁10.00	-11.099
OPD	-11.0993
23/	-11.1004
ertumbuhan	-11.1009
▁Aktivis	-11.1019
▁popularitas	-11.1019
▁Kremlin	-11.1019
▁diturunkan	-11.1019
▁paspor	-11.1019
▁Sirku	-11.1019
▁Retno	-11.1019
bubarkan	-11.1019
▁14:4	-11.1021
▁14:1	-11.1021
▁10:4	-11.1022
▁Massaid	-11.1023
UD	-11.1024
▁pemusnahan	-11.1028
Tentu	-11.103
▁tanam	-11.1039
▁Kecil	-11.1042
▁Jar	-11.1049
kawal	-11.1056
▁baca	-11.106
▁dinamis	-11.1062
spir	-11.1067
orientasi	-11.1094
skenario	-11.1094
▁percakapan	-11.1094
▁tsunami	-11.1094
▁Siregar	-11.1094
▁meledak	-11.1094
▁melonjak	-11.1094
▁Penanganan	-11.1094
pemasangan	-11.1094
BNPB	-11.1094
▁21:4	-11.1095
▁tumpu	-11.1095
▁menyesal	-11.1097
▁potongan	-11.11
Korban	-11.1107
▁Musim	-11.1108
▁tendang	-11.1111
▁laju	-11.1114
▁Kebun	-11.1118
▁ikon	-11.1124
▁Modi	-11.1135
format	-11.1135
▁berpesan	-11.1141
fin	-11.1148
▁seminggu	-11.1148
▁Jay	-11.1152
▁Bakar	-11.1153
TO	-11.1166
▁Dav	-11.1168
▁emosi	-11.1169
▁Intelijen	-11.1169
▁Pacitan	-11.1169
▁Pencarian	-11.1169
▁apartemen	-11.1169
▁fiskal	-11.1169
▁smart	-11.1169
▁Djoko	-11.1169
▁perkotaan	-11.1169
▁Philip	-11.117
▁13:5	-11.117
▁16:5	-11.117
-14	-11.117
▁18:4	-11.1171
▁11:1	-11.1171
▁2023/2024	-11.1173
▁94	-11.1173
-11	-11.1175
▁induk	-11.1179
harjo	-11.1182
▁kepatu	-11.1185
WNA	-11.1185
▁Palu	-11.1185
tron	-11.1186
▁Selat	-11.1188
▁simbolis	-11.1189
▁Rafa	-11.1202
▁melapor	-11.1211
pegang	-11.1212
▁Livin	-11.1224
▁Berita	-11.1235
CASN	-11.1237
▁diplomat	-11.1241
▁Gregori	-11.1245
▁Konvensi	-11.1245
▁berpengalaman	-11.1245
▁klinik	-11.1245
Beliau	-11.1245
▁Senior	-11.1245
culik	-11.1247
▁Pakai	-11.125
▁UKM	-11.1253
utusan	-11.1253
▁James	-11.1259
JIS	-11.1261
Teco	-11.1264
Namun	-11.1265
▁vari	-11.1268
DIY	-11.1268
▁Aulia	-11.1277
▁Jane	-11.128
▁1.4	-11.129
geledah	-11.1292
srama	-11.1294
▁Harta	-11.1297
▁82	-11.1299
burg	-11.1299
▁Buku	-11.1307
stitusi	-11.1316
▁Oknum	-11.1321
▁Revolusi	-11.1321
▁Sahabat	-11.1321
▁center	-11.1321
▁Cip	-11.1322
▁imbal	-11.1323
▁Posisi	-11.1331
rencanakan	-11.1335
▁Capai	-11.1336
TPN	-11.1339
sekitar	-11.1344
Hendi	-11.1366
▁Jala	-11.1379
dinas	-11.1386
▁Airin	-11.1386
ART	-11.1393
▁Karangasem	-11.1398
▁Pyongyang	-11.1398
/2/2024)	-11.1398
▁market	-11.1398
▁elektr	-11.1398
▁permanen	-11.1399
▁Kematian	-11.1399
▁07:2	-11.1399
▁ideologi	-11.1399
▁rupa	-11.14
▁STY	-11.1401
▁15:2	-11.1401
▁Blue	-11.1403
lacak	-11.1405
▁penambang	-11.1409
▁89	-11.141
▁Bangli	-11.141
▁teratas	-11.1414
pesan	-11.1415
▁kepuasa	-11.1416
▁Keempat	-11.1421
▁transparansi	-11.1423
Semua	-11.1424
wilayah	-11.1424
▁Laos	-11.1425
igu	-11.1426
▁Bersih	-11.1427
adili	-11.143
▁Sports	-11.1433
ility	-11.1444
▁Salam	-11.1444
▁Buat	-11.1467
realisasikan	-11.1475
▁Damaskus	-11.1475
▁Taufik	-11.1475
▁Tionghoa	-11.1475
▁antioksidan	-11.1475
▁kebersihan	-11.1475
▁ketakutan	-11.1475
▁polemik	-11.1475
▁spanduk	-11.1475
▁Efek	-11.1476
▁mendoakan	-11.1476
▁Ferdinan	-11.1476
▁Bakti	-11.1476
▁Siaga	-11.1476
▁Irfan	-11.1476
▁prasarana	-11.1477
▁Tuban	-11.1487
▁pasir	-11.149
▁pencari	-11.1495
▁Didik	-11.1499
▁Motors	-11.1504
ANTARA	-11.1504
NU	-11.1509
▁Rick	-11.1522
▁Tambang	-11.1529
▁madu	-11.1535
ampanye	-11.1536
▁Electric	-11.1554
▁ginjal	-11.1554
▁kerusuhan	-11.1554
▁Hijau	-11.1554
▁basket	-11.1554
▁Usman	-11.1554
▁07:3	-11.1554
▁Jaminan	-11.1554
▁mengerikan	-11.1554
▁selengkapnya	-11.1554
database	-11.1554
▁susah	-11.1555
orong	-11.1556
habis	-11.1557
wenang	-11.1558
▁sutradara	-11.1559
▁Gala	-11.1561
▁bala	-11.1563
▁Carlo	-11.1569
akselerasi	-11.1569
▁Menteng	-11.1573
▁Peneliti	-11.1576
▁mencuriga	-11.158
Febi	-11.1584
korupsi	-11.1586
▁Babak	-11.1586
▁2008	-11.1586
▁kolo	-11.16
▁Og	-11.1618
▁Pasca	-11.1621
puji	-11.1622
▁Mapolres	-11.1623
▁Aip	-11.1624
ungku	-11.1625
menyayangkan	-11.1626
▁Sunar	-11.1631
Bakauheni	-11.1632
lestarikan	-11.1632
▁Karanganyar	-11.1632
▁Kepresidenan	-11.1632
▁Transportasi	-11.1632
▁kontainer	-11.1632
▁menyukseskan	-11.1632
▁COVID	-11.1632
▁Ekspor	-11.1632
▁Lamongan	-11.1632
▁Remaja	-11.1632
elusuri	-11.1632
▁Indosat	-11.1632
▁Smart	-11.1633
▁Jessi	-11.1633
▁Kisah	-11.1633
▁keprihatinan	-11.1633
▁Dosen	-11.1639
▁Pengadaan	-11.1641
Tim	-11.1642
▁yatim	-11.1642
▁Penyerang	-11.1646
▁Ganda	-11.165
▁Visi	-11.1652
variasi	-11.1666
▁700	-11.167
▁Syamsu	-11.1676
abulkan	-11.168
varian	-11.168
▁Toko	-11.168
▁cari	-11.1682
LN	-11.1685
MoU	-11.1686
▁Paser	-11.169
▁organ	-11.1709
▁Inspekt	-11.1712
▁Polhukam	-11.1712
▁Simalungun	-11.1712
▁System	-11.1712
▁tertangkap	-11.1712
▁Temanggung	-11.1712
▁Museum	-11.1712
Sudaryono	-11.1712
▁Darurat	-11.1712
▁Fahmi	-11.1712
▁Tirta	-11.1712
▁2000	-11.1713
▁Ditemukan	-11.1714
▁Chery	-11.1714
▁Arm	-11.1715
▁balon	-11.1717
▁juri	-11.1718
▁Cerah	-11.1719
anduan	-11.1719
▁Terpilih	-11.1721
▁Azhar	-11.1724
▁Tunjung	-11.1726
▁pita	-11.1726
lautan	-11.1733
▁Fadil	-11.1739
wijaya	-11.1744
JPNN	-11.175
elandang	-11.1751
agenda	-11.1758
OC	-11.1769
▁Suku	-11.1769
deret	-11.177
erhadap	-11.1791
▁Sebegini	-11.1792
▁genosida	-11.1792
▁Denmark	-11.1792
▁pesaing	-11.1792
▁Magetan	-11.1792
▁Masters	-11.1792
▁bocah	-11.1792
WWF	-11.1792
▁06:0	-11.1793
▁Korsel	-11.1795
ahlian	-11.1795
▁pejuang	-11.1799
selaras	-11.1799
▁menanti	-11.1802
▁Firman	-11.1806
▁Akun	-11.1821
▁Sunda	-11.1828
endahara	-11.1833
lawat	-11.1853
▁jari	-11.1857
onvoi	-11.1858
MD	-11.1864
▁Naga	-11.1864
▁Setya	-11.1867
▁Economic	-11.1872
▁Technology	-11.1872
▁demokratis	-11.1872
▁sensitif	-11.1872
▁herbal	-11.1872
▁Games	-11.1872
▁dengar	-11.1873
▁Tiket	-11.1873
▁ketidakpastian	-11.1873
▁02:0	-11.1875
▁6,5	-11.1875
▁Sorot	-11.1876
▁dipindahkan	-11.1876
▁jahe	-11.1877
▁Terakhir	-11.1877
▁pemotong	-11.1878
LSI	-11.1878
▁kejutan	-11.1879
▁2010	-11.1881
▁sepekan	-11.1884
▁batal	-11.1884
▁tepi	-11.1885
▁pengajar	-11.1888
▁kru	-11.1896
▁Urus	-11.1903
▁pungutan	-11.1903
▁Brun	-11.1908
▁purna	-11.1909
Pelaku	-11.1918
▁Nota	-11.1922
janji	-11.1924
▁Tanda	-11.1924
latform	-11.1931
▁berganti	-11.1937
etail	-11.1937
ransformasi	-11.1937
▁Kedatangan	-11.1954
▁Manokwari	-11.1954
▁handphone	-11.1954
▁Pribadi	-11.1954
▁Spesial	-11.1954
Satlantas	-11.1954
▁menyeberang	-11.1954
▁Slamet	-11.1954
▁Texas	-11.1954
▁Penjelasan	-11.1954
▁Tantangan	-11.1954
▁Kupang	-11.1954
memadamkan	-11.1954
▁Sayangnya	-11.1955
donasi	-11.1955
▁semest	-11.1955
▁Care	-11.1956
CG	-11.1957
-18	-11.1957
▁ekstasi	-11.1958
▁akurat	-11.1961
▁personal	-11.1961
ransaksi	-11.1968
▁Harry	-11.1968
▁Praja	-11.1977
▁Comp	-11.1979
cawe	-11.1985
rizal	-11.1987
mitra	-11.1989
▁Bajo	-11.1999
▁berinte	-11.2001
3.000	-11.2001
▁Bio	-11.2003
▁BIN	-11.2008
▁Supar	-11.2012
emasyarakatan	-11.2014
▁Gegar	-11.2016
GN	-11.2033
▁pompa	-11.2035
▁Kerobokan	-11.2036
▁Konflik	-11.2036
Disdik	-11.2036
▁07:4	-11.2036
Purn	-11.2036
▁17:5	-11.2037
▁08:2	-11.2037
▁15:4	-11.2038
TPPO	-11.2038
▁Inisia	-11.2039
TKD	-11.2039
pembakaran	-11.204
▁Kadis	-11.204
▁Bulu	-11.2044
LRT	-11.2051
▁Kopi	-11.2054
▁Mardan	-11.2055
▁Biru	-11.2056
▁hip	-11.2073
▁1,7	-11.2074
▁pembela	-11.2074
▁Ujang	-11.2076
tokoh	-11.2088
kesempatan	-11.2089
▁Sandi	-11.2098
▁Bila	-11.2112
▁inklusi	-11.2112
▁74	-11.2113
BKN	-11.2114
▁Karnavian	-11.2118
▁hybrid	-11.2118
▁kebanggaan	-11.2118
▁mencontohkan	-11.2118
▁pahlawan	-11.2118
▁pengabdian	-11.2118
▁penyiksaan	-11.2118
▁tekstil	-11.2118
▁Emirat	-11.2118
▁Kampar	-11.2118
▁opini	-11.2118
▁cucu	-11.2119
▁terburuk	-11.2119
▁Viral	-11.2119
▁penawar	-11.2119
▁Kemenpora	-11.212
▁15:5	-11.212
▁Hendy	-11.2121
▁Kodam	-11.2121
▁Asta	-11.2122
▁Lolly	-11.2122
▁penghuni	-11.2124
▁Angeles	-11.2125
▁Wahyudi	-11.2128
▁Dadang	-11.2131
▁mengkriti	-11.2133
▁penampung	-11.2133
▁Agam	-11.2152
dhika	-11.2153
▁Fred	-11.2156
endaya	-11.2164
▁Road	-11.2164
khawatirkan	-11.2168
keluarga	-11.2174
Indonesia	-11.2174
emani	-11.218
olidaritas	-11.2191
ojek	-11.2199
▁Bach	-11.2201
▁Badjideh	-11.2202
▁Infrastruktur	-11.2202
▁Verhoeven	-11.2202
▁drastis	-11.2202
▁instrumen	-11.2202
▁radikal	-11.2202
▁Holding	-11.2202
▁komedi	-11.2202
▁Semeru	-11.2202
▁memburuk	-11.2202
▁Dirut	-11.2202
▁Ancam	-11.2203
▁Kemenko	-11.2204
▁Farhan	-11.2209
▁koperasi	-11.2214
ranking	-11.2215
▁series	-11.2217
▁back	-11.2222
▁kuda	-11.2224
▁Umar	-11.2233
ontak	-11.2234
▁amal	-11.2236
hakti	-11.2237
▁Moham	-11.2274
▁Ops	-11.2281
print	-11.2283
▁Merauke	-11.2286
▁Twitter	-11.2286
▁intelektual	-11.2286
▁Mahalini	-11.2286
▁Sedikit	-11.2286
▁kemarau	-11.2286
▁Perjalanan	-11.2286
▁pendaki	-11.2286
iming	-11.2286
▁kesaksian	-11.2287
▁fungsional	-11.2287
donor	-11.2288
▁Luncur	-11.2289
▁gitu	-11.2289
▁asap	-11.2289
▁Teddy	-11.2292
▁Gita	-11.2293
▁penyand	-11.2298
▁inter	-11.2301
▁Blok	-11.2328
ukai	-11.2329
▁Produksi	-11.2331
OG	-11.2334
▁Kader	-11.2337
▁kenang	-11.2344
Kota	-11.235
▁Antar	-11.2358
▁Advoka	-11.2361
ragaman	-11.2362
laboratorium	-11.237
sponsor	-11.237
▁Gunungkidul	-11.237
▁SELAT	-11.237
▁keseimbangan	-11.237
▁Gugatan	-11.237
▁Oscar	-11.237
▁Austin	-11.237
▁Plaza	-11.237
▁Penulis	-11.237
▁Sebaliknya	-11.2371
▁Protes	-11.2371
Mentan	-11.2372
▁berkala	-11.2373
odium	-11.2374
▁urine	-11.2374
▁organik	-11.2374
▁sedih	-11.2374
▁politis	-11.2374
▁pembuang	-11.2375
▁1.0	-11.238
▁sprint	-11.238
berhadapan	-11.2381
BRIN	-11.2392
▁Citi	-11.2392
djaja	-11.2395
lestarian	-11.2399
nominasi	-11.2403
pangkat	-11.2403
▁Perwira	-11.2404
minggu	-11.2405
loud	-11.2406
jeda	-11.241
▁Kubu	-11.2421
pelestarian	-11.2427
▁Miss	-11.2446
ersahabatan	-11.2447
cegah	-11.2449
esejahteraan	-11.2452
tegas	-11.2455
Ditreskrimum	-11.2456
overnance	-11.2456
▁Ibrahim	-11.2456
▁Machmudin	-11.2456
▁Mbappe	-11.2456
▁Pekalongan	-11.2456
▁Pennsylvania	-11.2456
▁gemilang	-11.2456
▁puskesmas	-11.2456
▁Charles	-11.2456
▁Belanja	-11.2456
▁Nunuk	-11.2456
▁Miller	-11.2456
▁Agustina	-11.2456
▁Manado	-11.2456
house	-11.2456
▁demam	-11.2456
▁kelamin	-11.2456
▁ditunda	-11.2457
▁Penega	-11.2458
▁13:2	-11.2459
▁Saja	-11.2466
provokasi	-11.2468
▁pembu	-11.2469
▁Hewan	-11.2472
▁Maung	-11.2473
▁Terbuka	-11.2476
▁Tercatat	-11.2476
vokasi	-11.2503
▁IX	-11.2506
▁APK	-11.2519
edukasi	-11.2527
▁Zhe	-11.2528
▁spiritual	-11.2542
Cawagub	-11.2542
▁ekspansi	-11.2542
▁keimigrasian	-11.2542
▁Wartawan	-11.2542
▁Centre	-11.2542
▁Kadiv	-11.2542
▁Sejarah	-11.2542
▁terpenuhi	-11.2542
▁Penjara	-11.2543
FGD	-11.2543
▁serikat	-11.2545
▁vaksinasi	-11.2547
▁Lokal	-11.2547
▁prima	-11.2547
▁sibuk	-11.2548
▁Satya	-11.256
▁Tambah	-11.2564
▁Mayor	-11.2566
▁MUI	-11.2568
▁swas	-11.2568
▁Gande	-11.2576
enjaringan	-11.2577
bocor	-11.2579
▁pelaksana	-11.2579
▁Palm	-11.2584
ngusir	-11.2585
▁dong	-11.2585
rnando	-11.2586
zza	-11.2588
enting	-11.259
CB	-11.2591
▁Zam	-11.2604
atau	-11.2605
mendeteksi	-11.2613
China	-11.2617
▁lega	-11.262
posisi	-11.2625
▁penyusun	-11.2629
▁visual	-11.2629
▁Akses	-11.2629
▁Iklim	-11.2629
▁Centra	-11.2629
▁kaget	-11.2629
▁cagub	-11.2629
▁Kunci	-11.2629
▁milisi	-11.263
▁Mukta	-11.263
▁09:1	-11.263
▁diselamatkan	-11.263
▁Henry	-11.2631
▁Kenapa	-11.2632
▁Nantinya	-11.2633
▁Simon	-11.2634
Ipda	-11.2637
▁pemeca	-11.2639
▁mencoblos	-11.2641
▁Patrol	-11.2643
▁Helm	-11.2644
angeran	-11.2645
copot	-11.2645
▁terapi	-11.265
▁Idul	-11.2651
IUP	-11.266
fir	-11.2666
erlintasan	-11.2673
▁Siber	-11.2674
pendampingan	-11.268
▁Berlin	-11.268
tolak	-11.2684
▁Rangku	-11.2684
kedua	-11.2708
▁Mulya	-11.2709
tempur	-11.2714
degradasi	-11.2717
▁(5/6)	-11.2717
▁Konsumen	-11.2717
▁geopolitik	-11.2717
▁keracunan	-11.2717
▁kejaksaan	-11.2717
▁klasik	-11.2717
▁vital	-11.2717
▁count	-11.2718
▁Seribu	-11.2719
▁Phil	-11.272
▁menyatu	-11.2724
▁Indikator	-11.2724
▁Modal	-11.2727
▁Hadap	-11.2728
mutasi	-11.273
▁Christ	-11.2734
OPM	-11.2738
▁2007	-11.2751
▁predik	-11.2757
▁gue	-11.2759
▁Abra	-11.2762
▁Jenn	-11.2775
hidup	-11.2776
▁1-1	-11.279
WBP	-11.2795
Ditreskrimsus	-11.2805
▁Michigan	-11.2805
▁Pegunungan	-11.2805
▁irigasi	-11.2805
▁mancanegara	-11.2805
▁terlaksana	-11.2805
▁Pengungsi	-11.2805
commerce	-11.2805
▁mengemuka	-11.2805
▁Musta	-11.2806
▁Dumai	-11.2806
▁Kajian	-11.2806
▁08:1	-11.2806
▁hilirisasi	-11.2806
-29	-11.2807
Dinkes	-11.2807
▁Free	-11.2808
▁Usai	-11.2808
▁gerai	-11.281
▁Deddy	-11.2814
▁Bareng	-11.2816
▁koper	-11.2817
▁Inara	-11.2817
Sebenarnya	-11.2818
▁Pintu	-11.2818
▁Lebat	-11.2818
▁PKK	-11.2819
Bilang	-11.2829
▁Penangkap	-11.2834
▁Poin	-11.2842
▁Berbicara	-11.2855
▁Soni	-11.2857
25/	-11.2861
ujur	-11.2863
▁Fernand	-11.2866
▁kepula	-11.287
pondok	-11.2875
▁rob	-11.2877
opang	-11.2888
hibur	-11.289
▁1.1	-11.2894
acific	-11.2894
▁Bedagai	-11.2894
▁Conference	-11.2894
▁Executive	-11.2894
▁eksternal	-11.2894
▁kebencian	-11.2894
SUGBK	-11.2894
▁Prestasi	-11.2895
▁bercerai	-11.2895
▁perbincangan	-11.2895
▁Beragam	-11.2895
▁Leader	-11.2895
▁Rokok	-11.2895
▁loyal	-11.2895
▁ditindaklanjuti	-11.2895
▁Youth	-11.2895
▁Royal	-11.2896
▁penerbit	-11.2897
▁pemelihara	-11.2897
▁tega	-11.2899
▁Kompas	-11.2906
▁poster	-11.2908
kokoh	-11.2919
IBL	-11.2922
dijat	-11.2933
▁01:	-11.2946
▁Steve	-11.2946
▁kredi	-11.2965
▁bandar	-11.2969
kemas	-11.2975
▁Banjarmasin	-11.2985
▁ilmiah	-11.2985
▁Jinping	-11.2985
▁sampel	-11.2985
/08)	-11.2985
▁1999	-11.2985
▁Penajam	-11.2985
▁Pelindo	-11.2985
▁menegak	-11.2985
▁mengabdi	-11.2985
sekutu	-11.2985
kompetisi	-11.2985
▁22:2	-11.2987
▁14:2	-11.2987
▁gajah	-11.299
pose	-11.2993
▁pembata	-11.2999
▁Yusri	-11.3003
arbon	-11.3004
▁BNN	-11.301
▁pelari	-11.301
▁Inhu	-11.3013
▁menghidup	-11.3013
▁klien	-11.3021
▁membesar	-11.3022
ahami	-11.3029
ncing	-11.3036
▁mahasisw	-11.3041
tonton	-11.3058
▁Rini	-11.3067
▁test	-11.3073
▁Serbia	-11.3075
▁Azerbaijan	-11.3075
▁Lahadalia	-11.3075
▁Pontianak	-11.3075
▁museum	-11.3075
▁Propam	-11.3076
▁Kesepakatan	-11.3076
▁BUMD	-11.3076
striker	-11.3076
▁21:5	-11.3077
▁mandat	-11.3078
▁Komjen	-11.3078
▁Operasional	-11.3078
▁Panji	-11.3079
huruf	-11.3079
▁mendasar	-11.308
▁mempersem	-11.3083
paslon	-11.3083
▁sejahtera	-11.3084
▁patah	-11.3086
▁Markas	-11.309
erhana	-11.3092
▁pacar	-11.3093
agita	-11.3101
▁2006	-11.3108
berita	-11.311
PSU	-11.3119
▁pengangkut	-11.3127
stabil	-11.316
lurus	-11.3165
▁Panjaitan	-11.3167
▁ditinggalkan	-11.3167
▁kolesterol	-11.3167
▁meminimal	-11.3167
▁pencemar	-11.3167
▁pengejaran	-11.3167
KDRT	-11.3168
▁pelayar	-11.3168
▁teori	-11.3168
▁Lulus	-11.3168
▁ilustrasi	-11.3169
▁Zona	-11.3169
▁3-0	-11.3169
▁Panjang	-11.3169
▁Candra	-11.3169
uguh	-11.317
▁Terdakwa	-11.3173
▁Gajah	-11.3173
▁tolong	-11.3186
▁kotor	-11.3189
OTT	-11.3192
▁pengusung	-11.3193
rintis	-11.3196
▁pendidik	-11.3216
eater	-11.3222
▁audit	-11.3223
▁Paes	-11.3231
▁kontro	-11.3239
salin	-11.3239
▁panda	-11.324
▁bos	-11.3247
kebal	-11.3255
anjung	-11.3258
▁Bakrie	-11.326
▁Kompetisi	-11.326
▁Nigeria	-11.326
▁Penerbangan	-11.326
▁korporasi	-11.326
▁virtual	-11.326
▁Mardiono	-11.326
▁Sjafri	-11.326
▁Petrus	-11.326
▁06:5	-11.326
▁Sakti	-11.326
▁09:5	-11.326
MEDAN	-11.3261
▁Rekor	-11.3261
MIND	-11.3261
▁BALI	-11.3261
▁langit	-11.3261
persepsi	-11.3261
▁penculik	-11.3265
▁galon	-11.3265
▁doktor	-11.3268
▁Safar	-11.327
roboh	-11.3271
▁Santri	-11.3278
▁memprak	-11.3289
▁karet	-11.3289
▁Milan	-11.3293
tempuh	-11.3302
▁bonu	-11.3308
artisipasi	-11.3324
▁Mandalika	-11.3353
▁Singapore	-11.3353
▁diplomasi	-11.3353
▁Nova	-11.3353
▁adegan	-11.3353
▁berprestasi	-11.3353
▁cabai	-11.3353
▁Event	-11.3353
▁Lumpur	-11.3353
lemahan	-11.3354
▁kiai	-11.3354
▁Ilir	-11.3354
▁anyar	-11.3356
PTPN	-11.3356
▁Albert	-11.3359
▁semester	-11.3363
ACL	-11.3366
▁memanja	-11.3369
▁Tamar	-11.3369
pekerja	-11.3373
▁mendekat	-11.338
▁Saham	-11.3386
rakit	-11.3406
21/	-11.3408
ED	-11.3424
▁Setia	-11.3424
ejahatan	-11.3444
▁Idzes	-11.3448
▁Perindustrian	-11.3448
▁kepabeanan	-11.3448
erspektif	-11.3448
▁Airlines	-11.3448
▁Lippo	-11.3448
▁komputer	-11.3448
▁otonom	-11.3448
Rudenim	-11.3448
▁Agustiar	-11.3448
▁Rakernas	-11.3448
▁Ternate	-11.3448
kesenjangan	-11.3448
▁Klaim	-11.3448
▁timbul	-11.3448
▁antre	-11.3448
▁Kebon	-11.3448
▁22:3	-11.3449
▁14:5	-11.3449
▁Standar	-11.3449
▁ultra	-11.3449
▁Abbas	-11.345
▁kewarganegaraan	-11.345
▁18:2	-11.3451
▁Frances	-11.3454
▁Hanif	-11.3455
persenjata	-11.3456
abadi	-11.3462
off	-11.3465
prinsip	-11.3466
Jabar	-11.3466
▁Anji	-11.3474
▁kacang	-11.3475
imbas	-11.3478
nginap	-11.3479
▁Tolak	-11.3483
▁UIN	-11.3492
duet	-11.3493
kalahkan	-11.3508
indir	-11.353
▁kontroversi	-11.3534
▁Tamb	-11.3537
eberhasilan	-11.3539
▁kalender	-11.3543
kombinasi	-11.3543
▁Cibinong	-11.3543
▁Elektabilitas	-11.3543
▁Keselamatan	-11.3543
▁Mukomuko	-11.3543
▁Kronologi	-11.3543
▁training	-11.3543
▁BWF	-11.3543
▁Risiko	-11.3543
▁Present	-11.3543
▁pemikiran	-11.3543
▁Luluk	-11.3543
▁rumit	-11.3544
▁Produse	-11.3544
▁Tiba	-11.3545
▁Aturan	-11.3546
▁Watch	-11.3547
▁10:2	-11.3549
▁1.7	-11.3551
cemas	-11.3551
▁tuna	-11.3556
▁pedoman	-11.3557
▁1.500	-11.3557
ompet	-11.3559
emikian	-11.3559
ntariksa	-11.3563
bisnis	-11.3565
anggur	-11.3567
mobil	-11.3568
PDIP	-11.3571
▁perusak	-11.3577
▁menggerak	-11.3589
▁Pantau	-11.3605
enjabat	-11.3612
▁Jenazah	-11.3639
▁Pandeglang	-11.3639
▁Zulhas	-11.3639
▁demonstran	-11.3639
▁fashion	-11.3639
▁naturalisasi	-11.3639
▁percobaan	-11.3639
▁spesies	-11.3639
▁Literasi	-11.3639
▁Sanksi	-11.3639
▁surya	-11.3639
▁emosional	-11.364
komposisi	-11.364
▁Purwanto	-11.364
▁Sulut	-11.364
ondasi	-11.364
kukuh	-11.3641
▁12:5	-11.3641
▁Sambut	-11.3644
preneur	-11.3647
▁panti	-11.3657
▁enak	-11.3658
▁ATM	-11.3664
Kemudian	-11.3665
▁Domin	-11.3666
mancing	-11.3669
skup	-11.3678
pengurus	-11.3688
raton	-11.3708
ndikator	-11.3726
▁psikolog	-11.3728
rampas	-11.3729
▁Riza	-11.3735
embangun	-11.3735
Paskibraka	-11.3736
▁(28/8)	-11.3736
▁Austria	-11.3736
▁Bobotoh	-11.3736
▁Grobogan	-11.3736
▁Product	-11.3736
▁Tasikmalaya	-11.3736
▁berbelanja	-11.3736
▁pengumpul	-11.3736
▁wisuda	-11.3736
spekula	-11.3736
▁syuting	-11.3736
▁Jemaah	-11.3736
▁teritori	-11.3736
▁Rohul	-11.3736
▁Jabatan	-11.3736
▁Persiapan	-11.3736
▁Madya	-11.3736
▁didatang	-11.3737
▁cantik	-11.3737
cegat	-11.3737
▁Erwin	-11.3738
▁Victor	-11.3738
▁11:4	-11.3738
meluk	-11.3739
TPPU	-11.3739
▁Derma	-11.3739
▁12:1	-11.3741
▁dada	-11.3744
▁Kedokteran	-11.3745
▁cair	-11.3751
▁Year	-11.3759
genap	-11.3766
osko	-11.3766
▁Bawang	-11.3767
▁ITS	-11.3771
RAN	-11.3776
representasi	-11.3782
▁Chen	-11.3788
Link	-11.3791
▁Amanat	-11.3792
engonsumsi	-11.3828
▁Periode	-11.3834
▁berlibur	-11.3834
▁forensik	-11.3834
▁(23/1)	-11.3834
▁Zakiyah	-11.3834
▁autopsi	-11.3834
▁binatang	-11.3834
▁kolega	-11.3834
▁Gatot	-11.3834
▁Menarik	-11.3834
▁Pelantikan	-11.3834
dipecat	-11.3834
▁kafe	-11.3834
lompat	-11.3834
▁Kekaya	-11.3835
▁Jajaran	-11.3835
razia	-11.3835
▁Tinggal	-11.3835
▁Klub	-11.3835
▁2019-2024	-11.3835
▁08:5	-11.3835
▁Pengacara	-11.3835
▁Marselin	-11.3835
makamkan	-11.3837
▁12:4	-11.3837
▁Bahar	-11.3838
▁Kolon	-11.3839
bahasa	-11.3841
▁1.9	-11.3842
▁debit	-11.3843
board	-11.3843
produser	-11.3852
▁Yohan	-11.3856
keanggotaan	-11.3865
ekspor	-11.3868
kaltim	-11.387
▁Volo	-11.3877
▁gegar	-11.3887
enjuru	-11.3903
▁1.5	-11.3914
▁domin	-11.3915
▁Bintar	-11.3919
gadang	-11.3922
Benar	-11.3931
nyerbu	-11.3931
entertainment	-11.3933
▁alhamdulil	-11.3933
▁pegunungan	-11.3933
kekacauan	-11.3933
▁Clinic	-11.3933
▁Fadjar	-11.3933
▁Muzani	-11.3933
▁pengesahan	-11.3933
▁perampok	-11.3933
▁Taspen	-11.3933
▁Yunani	-11.3933
rasuah	-11.3933
ziarah	-11.3933
▁LBH	-11.3934
▁benih	-11.3934
▁Ditambah	-11.3934
▁Tampak	-11.3934
▁statis	-11.3934
ingkirkan	-11.3935
angkis	-11.3935
cahaya	-11.3935
▁Damkar	-11.3936
▁ditanam	-11.3936
▁Starlin	-11.3937
▁lubang	-11.3939
estasi	-11.394
▁1.8	-11.3942
▁Mapolresta	-11.3945
sesmen	-11.3947
enggawa	-11.3948
▁penguji	-11.395
▁ibunda	-11.3958
entitas	-11.3961
larut	-11.3962
▁Muna	-11.3968
Sumsel	-11.3971
▁Music	-11.3973
▁Revi	-11.4005
rdiansyah	-11.4016
UUD	-11.4018
erairan	-11.4019
coblos	-11.4019
nyandera	-11.402
Kemenkominfo	-11.4033
▁(18/1)	-11.4033
▁Ricardo	-11.4033
▁Soeharto	-11.4033
▁Supratman	-11.4033
▁reguler	-11.4033
▁kambing	-11.4033
▁peledak	-11.4033
▁pembersih	-11.4033
▁Perintah	-11.4033
▁Bangkok	-11.4033
▁Digelar	-11.4033
▁Impor	-11.4033
▁audiens	-11.4034
▁Ingat	-11.4034
▁ditarik	-11.4034
▁Christian	-11.4035
▁Play	-11.4035
▁dramatis	-11.4035
▁22:1	-11.4036
▁Perdamaian	-11.4037
▁fleksib	-11.4037
▁nikah	-11.4037
tukang	-11.404
▁Kanit	-11.4041
▁Turut	-11.4044
erjaan	-11.4048
▁radio	-11.4058
▁Murah	-11.4075
Palestina	-11.4076
wisata	-11.4076
lulus	-11.4078
▁audi	-11.4079
ombong	-11.4092
▁(5/2)	-11.4134
▁Financial	-11.4134
▁Premier	-11.4134
▁Rahasia	-11.4134
▁kehamilan	-11.4134
▁demografi	-11.4134
▁Ciamis	-11.4134
Semangat	-11.4134
▁Custom	-11.4134
▁Tower	-11.4134
▁pegiat	-11.4134
▁skill	-11.4134
▁sirku	-11.4134
▁07:5	-11.4135
▁Aqua	-11.4135
▁09:2	-11.4135
▁23:5	-11.4135
▁18:1	-11.4137
tenggara	-11.4139
▁Burhan	-11.4145
indikat	-11.4147
▁salam	-11.4151
▁menanggu	-11.4153
staz	-11.4156
▁Adrian	-11.4163
▁Sikap	-11.4175
▁Marcel	-11.4175
tanggal	-11.4181
▁Penyer	-11.42
▁Lapor	-11.4202
embunyi	-11.4208
▁baja	-11.421
▁Federa	-11.4213
▁Chris	-11.4222
okhm	-11.4225
Cikampek	-11.4236
▁Kolombia	-11.4236
▁lukisan	-11.4236
cawagub	-11.4236
▁runner	-11.4236
▁Berharap	-11.4236
▁Modus	-11.4236
▁Sugeng	-11.4236
▁Tugu	-11.4236
▁kakek	-11.4236
▁terjual	-11.4237
▁09:4	-11.4237
▁Laura	-11.4238
SBY	-11.4238
canang	-11.4238
▁Belajar	-11.4239
▁fraksi	-11.4242
▁Azizah	-11.4242
▁Laks	-11.4245
▁Tepat	-11.4248
selebr	-11.425
perkosa	-11.4254
▁Yaq	-11.4266
rindu	-11.4272
▁Serda	-11.4275
▁Andrea	-11.4278
▁Choli	-11.4282
NTT	-11.4287
njot	-11.4295
▁tali	-11.4324
kendara	-11.4326
▁(29/8)	-11.4339
▁Belgia	-11.4339
▁Jabodetabek	-11.4339
▁perjudian	-11.4339
▁Langsung	-11.4339
▁Kualitas	-11.4339
▁Triliun	-11.4339
▁Qodari	-11.4339
▁kronis	-11.4339
▁Kendari	-11.4339
▁ATR	-11.434
koneksi	-11.434
▁Hermansyah	-11.434
▁Christie	-11.4341
▁Nasdem	-11.4341
nafkah	-11.4341
▁10:5	-11.4342
▁vila	-11.4342
life	-11.4345
▁mengurai	-11.4345
odifikasi	-11.4348
▁Percepat	-11.4352
▁aneh	-11.4355
▁memanas	-11.4363
▁usus	-11.4364
▁menepi	-11.437
▁App	-11.4375
proyek	-11.4387
protes	-11.4394
mission	-11.4397
endang	-11.4411
▁runtuh	-11.4418
ffe	-11.4429
▁rektor	-11.4438
uding	-11.4442
▁Simanjuntak	-11.4443
▁Venezuela	-11.4443
▁elektoral	-11.4443
▁Encep	-11.4443
stributor	-11.4444
▁Taruna	-11.4444
boikot	-11.4444
▁Sawit	-11.4444
▁Hassan	-11.4444
▁pelindung	-11.4444
▁check	-11.4444
▁konvensional	-11.4444
▁jatah	-11.4446
▁jahat	-11.4446
▁kesatuan	-11.4446
▁otot	-11.4447
▁Tahanan	-11.4447
19/	-11.4452
▁Helen	-11.4453
HMI	-11.4454
▁Ronny	-11.4454
▁Jojo	-11.4459
▁Suharto	-11.4459
▁kabel	-11.4465
▁Pendukung	-11.4471
▁Fabi	-11.4475
nyeri	-11.4478
ttle	-11.4494
melatih	-11.4497
Selama	-11.4506
▁Fahri	-11.4509
▁Tuju	-11.4539
dokteran	-11.454
ografi	-11.4544
▁Rismaharini	-11.4549
▁Serpong	-11.4549
▁(25/1)	-11.4549
▁Prioritas	-11.4549
▁inspek	-11.4549
▁(21/1)	-11.4549
▁Muncul	-11.4549
▁assist	-11.4549
▁1990	-11.4549
▁impian	-11.4549
Najib	-11.4549
▁SUKA	-11.455
▁2-1	-11.455
▁BRICS	-11.4551
▁official	-11.4551
papan	-11.4554
elantun	-11.4555
▁Kurang	-11.4558
▁Iswar	-11.456
2,3	-11.4573
pungli	-11.4575
estiant	-11.4576
pamer	-11.4579
mogok	-11.458
Humas	-11.4613
nnisa	-11.4617
nders	-11.4618
ejahtera	-11.4631
view	-11.4634
▁1.6	-11.4635
enghapus	-11.4649
unduk	-11.4651
▁(27/3)	-11.4655
▁Slavina	-11.4655
▁dipenjara	-11.4655
▁diperkenalkan	-11.4655
▁kewaspadaan	-11.4655
▁Jusuf	-11.4655
▁Wajib	-11.4655
▁fitnah	-11.4655
▁George	-11.4655
▁fiktif	-11.4655
/09)	-11.4655
▁email	-11.4655
ompensasi	-11.4655
▁LSM	-11.4655
▁santai	-11.4655
▁terminal	-11.4655
▁sulung	-11.4656
▁profil	-11.4656
▁06:3	-11.4656
▁angket	-11.4656
mungkas	-11.4657
▁porsi	-11.4657
▁(14/10)	-11.4658
▁berdoa	-11.466
▁lawatan	-11.4662
▁Dhani	-11.4663
▁Madani	-11.4664
▁psikologis	-11.4664
▁Fitr	-11.4665
▁kontroversial	-11.4665
▁memadat	-11.4667
perkaya	-11.4669
▁garam	-11.467
▁tiang	-11.467
▁Angin	-11.4671
▁Matth	-11.4677
▁Ciput	-11.4677
▁Genca	-11.4689
▁Bongka	-11.4691
dcast	-11.4692
▁agresi	-11.4697
embalasan	-11.4717
endera	-11.4717
Kegiatan	-11.4724
Berdasar	-11.4724
mengamati	-11.4751
nyelundup	-11.4757
▁menonjol	-11.4763
▁(22/1)	-11.4763
▁(22/4)	-11.4763
▁(24/1)	-11.4763
▁(7/2)	-11.4763
▁Bengkalis	-11.4763
▁Elektronik	-11.4763
▁Tradisi	-11.4763
▁eksplora	-11.4763
▁jendela	-11.4763
▁Happy	-11.4763
▁Inflasi	-11.4763
▁traged	-11.4763
▁Model	-11.4763
▁Hanura	-11.4763
kreditas	-11.4763
Udayana	-11.4763
▁Kurdi	-11.4764
▁3-1	-11.4764
▁Future	-11.4765
▁Konserva	-11.4765
▁Frank	-11.4766
▁Johnson	-11.4767
ection	-11.4767
▁roti	-11.4773
▁Wulan	-11.478
▁$2	-11.4782
enyitaan	-11.4783
▁sabar	-11.4787
lapak	-11.4834
Kedua	-11.4837
rajurit	-11.4849
▁instan	-11.4871
▁(30/1)	-11.4871
▁Bondowoso	-11.4871
▁Entertainment	-11.4871
▁Hasibuan	-11.4871
▁Investment	-11.4871
▁Kompetensi	-11.4871
▁mumpuni	-11.4871
▁perdebatan	-11.4871
▁Gallant	-11.4871
dermaga	-11.4871
guyub	-11.4871
▁(23/10)	-11.4871
Gaikindo	-11.4871
▁pengikut	-11.4871
▁Ketapang	-11.4871
▁instal	-11.4871
▁aroma	-11.4872
▁Tesla	-11.4872
ommunity	-11.4872
Maarten	-11.4872
▁Supian	-11.4873
▁Cipayung	-11.4873
▁Evalua	-11.4873
▁Maharani	-11.4873
▁cermat	-11.4874
▁lunak	-11.4874
▁Maritim	-11.4875
Menlu	-11.4878
RANS	-11.4878
▁simak	-11.4883
▁Larang	-11.4892
▁Soes	-11.4894
EX	-11.4901
well	-11.491
senian	-11.4914
rangkum	-11.4917
ojol	-11.492
▁!"	-11.4942
▁Sustainabilit	-11.4947
tampil	-11.4951
lagu	-11.4951
kretaris	-11.4963
▁(15/4)	-11.4981
▁(30/7)	-11.4981
▁(5/1)	-11.4981
▁(8/3)	-11.4981
▁Bioskop	-11.4981
▁Kepemimpinan	-11.4981
▁Tokopedia	-11.4981
▁Yerusalem	-11.4981
▁asusila	-11.4981
▁atmosf	-11.4981
▁perincian	-11.4981
▁Persikabo	-11.4981
▁Libya	-11.4981
merangkul	-11.4981
satgas	-11.4982
▁Innovati	-11.4982
phone	-11.4982
ahera	-11.4982
Udinus	-11.4982
▁konstitusional	-11.4982
▁Pengunjung	-11.4984
▁kerawanan	-11.4985
▁Manila	-11.4987
▁Setiadi	-11.499
▁pencipta	-11.499
▁Zero	-11.4991
▁komit	-11.4991
▁Tertinggi	-11.4994
▁kesepa	-11.4998
LIB	-11.4998
▁Reporter	-11.5
▁ditimbu	-11.5021
FBI	-11.5024
kerjasama	-11.5037
▁legislat	-11.5039
engembali	-11.505
▁Tanam	-11.5061
▁konsulta	-11.5061
serius	-11.507
▁Aziz	-11.5086
influencer	-11.5092
▁Erdogan	-11.5092
▁Khalifa	-11.5092
▁sarjana	-11.5092
▁Brawijaya	-11.5092
▁Hubner	-11.5092
▁Lembong	-11.5092
▁bakteri	-11.5092
▁dihapus	-11.5092
▁reputasi	-11.5092
▁Summit	-11.5092
▁fosil	-11.5092
▁berlindung	-11.5092
▁substansi	-11.5092
▁Klinik	-11.5092
▁Makmur	-11.5092
▁Palangka	-11.5092
▁depresi	-11.5092
▁Himpun	-11.5092
nonaktif	-11.5093
lumpuh	-11.5093
▁memberitahu	-11.5093
▁(1/10)	-11.5093
▁(10/10)	-11.5095
▁Asas	-11.5096
▁rock	-11.5097
▁suaka	-11.51
▁diingat	-11.5101
▁tebu	-11.5116
.600	-11.5124
dedikasi	-11.5181
▁05:5	-11.5183
rakyat	-11.5189
▁Samp	-11.5204
▁arsitek	-11.5205
revitalisasi	-11.5205
▁(11/7)	-11.5205
▁Kandidat	-11.5205
▁Klasemen	-11.5205
pelopor	-11.5205
▁Partner	-11.5205
▁nenek	-11.5205
egitimasi	-11.5205
▁margin	-11.5205
medsos	-11.5205
▁Terjadi	-11.5205
▁Susilo	-11.5205
erobos	-11.5205
embantai	-11.5207
▁Pilar	-11.5207
▁PBSI	-11.5208
▁Yakin	-11.5212
▁Beasiswa	-11.5213
▁robot	-11.5217
▁Krea	-11.5251
candu	-11.5256
parekraf	-11.5265
▁maksim	-11.5309
kemudi	-11.5317
/3/2024).	-11.5318
esidivis	-11.5318
▁(14/8)	-11.5318
▁(24/7)	-11.5318
▁Ariotedjo	-11.5318
▁Guterres	-11.5318
▁Kategori	-11.5318
▁Longsor	-11.5318
▁Manggarai	-11.5318
▁Norwegia	-11.5318
▁Terungkap	-11.5318
▁Travel	-11.5318
▁renovasi	-11.5318
▁Penumpang	-11.5318
▁keponakan	-11.5318
▁Beauty	-11.5318
▁Hevea	-11.5318
rukunan	-11.5319
▁Grab	-11.5319
▁Maming	-11.5319
▁Perkara	-11.5319
▁wayang	-11.5319
▁Transmigrasi	-11.532
▁liput	-11.5324
▁Bontang	-11.5326
▁Tambak	-11.5327
▁open	-11.5329
▁sumbang	-11.5333
▁Komarud	-11.5335
▁Tawar	-11.5337
MenPAN	-11.5353
kolam	-11.5357
▁Kebay	-11.5375
▁Web	-11.5384
▁Jiwa	-11.5392
janggal	-11.5396
banjir	-11.5422
▁(26/1)	-11.5433
▁Carolina	-11.5433
▁Challenge	-11.5433
▁Lengkap	-11.5433
▁Nelayan	-11.5433
▁Penembakan	-11.5433
▁Buddha	-11.5433
▁ketahui	-11.5433
/03)	-11.5433
▁Kapuas	-11.5433
▁Bergerak	-11.5433
▁Prihadi	-11.5433
▁Pileg	-11.5433
▁DNA	-11.5433
▁Hotman	-11.5433
▁Paniai	-11.5433
isolasi	-11.5433
▁Mengaku	-11.5433
▁HIV	-11.5433
▁Network	-11.5434
▁Arsip	-11.5434
▁berteriak	-11.5434
▁Mocham	-11.5434
▁Jansen	-11.5434
kloter	-11.5434
▁Pemelihara	-11.5436
lpiji	-11.5436
▁Kemang	-11.5436
▁23:1	-11.5436
▁23:0	-11.5437
nindya	-11.5437
▁Imlek	-11.5437
▁menyerta	-11.5438
VIP	-11.5439
▁Kolek	-11.544
▁begal	-11.5442
takluk	-11.545
▁ular	-11.5451
▁Pembuka	-11.5451
artono	-11.547
wisma	-11.5474
SMKN	-11.5522
rmanto	-11.5524
Pasifik	-11.5538
▁Integra	-11.555
Journey	-11.555
support	-11.555
▁(10/9)	-11.555
▁(22/8)	-11.555
▁(27/6)	-11.555
▁(29/1)	-11.555
▁(5/4)	-11.555
▁Pentagon	-11.555
▁QRIS	-11.555
▁penyuluh	-11.555
▁cuci	-11.555
▁kelelahan	-11.555
▁Edwin	-11.555
▁misteri	-11.555
▁Swift	-11.555
▁Mimika	-11.555
▁SWT	-11.555
▁Pensiun	-11.555
▁berlayar	-11.555
▁Ibn	-11.555
▁Frans	-11.555
▁Aurel	-11.555
▁umpan	-11.5551
Seminar	-11.5553
▁kerajaan	-11.5553
kerumun	-11.5554
▁buaya	-11.5554
remeh	-11.5554
▁Alfian	-11.5555
uwono	-11.5564
hadapi	-11.564
erkuat	-11.5644
limpiade	-11.5663
▁(12/12)	-11.5667
▁(20/3)	-11.5667
▁(23/12)	-11.5667
▁Klungkung	-11.5667
▁Lewotobi	-11.5667
▁Penandatangan	-11.5667
▁Permintaan	-11.5667
▁Pictures	-11.5667
▁pelosok	-11.5667
▁Suherman	-11.5667
▁TPNPB	-11.5667
▁telinga	-11.5667
▁Natuna	-11.5667
▁propagand	-11.5667
▁Acep	-11.5668
▁22:4	-11.5669
▁berangin	-11.5669
▁senada	-11.567
mutakhir	-11.567
jerse	-11.567
▁JAYA	-11.567
roaktif	-11.5674
▁Pemalang	-11.5674
▁Stree	-11.5675
▁Trade	-11.568
Hendrar	-11.5687
▁bumbu	-11.5718
▁Yesu	-11.5728
ikutserta	-11.577
tanggul	-11.5774
▁(20/5)	-11.5786
▁(24/6)	-11.5786
▁(29/7)	-11.5786
▁(4/11)	-11.5786
▁Keimigrasian	-11.5786
▁Optimistis	-11.5786
▁Penyelamat	-11.5786
▁diperuntuk	-11.5786
▁Edukasi	-11.5786
▁terhindar	-11.5786
▁Modern	-11.5786
▁Marsudi	-11.5786
▁Yoyok	-11.5786
▁Maduro	-11.5786
cokelat	-11.5786
▁estate	-11.5786
▁North	-11.5786
▁Jeruk	-11.5786
▁Relations	-11.5787
tinjau	-11.5787
▁UKT	-11.5787
▁Tayang	-11.5787
▁Ahme	-11.5787
▁memasak	-11.5787
▁Tabrak	-11.5787
▁Ledakan	-11.5788
▁peraga	-11.5788
payung	-11.5788
▁Hendro	-11.5789
▁gotong	-11.5791
▁Fashi	-11.5791
▁perlahan	-11.5793
kultur	-11.5796
mencintai	-11.5796
▁Keberadaa	-11.5797
Intinya	-11.5799
amapta	-11.5817
▁beralas	-11.5821
plai	-11.5824
erayaan	-11.583
malukan	-11.583
tembak	-11.5834
▁jera	-11.5857
Densus	-11.5861
▁Wind	-11.5871
fasilitas	-11.5904
▁berdur	-11.5906
curanmor	-11.5907
▁(11/12)	-11.5907
▁(21/8)	-11.5907
▁(28/1)	-11.5907
▁(28/3)	-11.5907
▁(3/7)	-11.5907
▁(30/4)	-11.5907
▁(5/3)	-11.5907
▁Gilbert	-11.5907
▁Investigasi	-11.5907
▁Purnomo	-11.5907
▁perpecahan	-11.5907
/04)	-11.5907
blusukan	-11.5907
interogasi	-11.5907
▁Kertanegara	-11.5907
▁Penindakan	-11.5907
▁Taylor	-11.5907
gejolak	-11.5907
▁Samsung	-11.5907
▁seluler	-11.5907
▁macet	-11.5907
▁pedesaan	-11.5907
▁Tabungan	-11.5907
▁Ratna	-11.5907
▁Fajri	-11.5907
▁Operation	-11.5908
ritual	-11.5908
gaungkan	-11.5908
▁ekonom	-11.5909
Program	-11.5909
▁Saint	-11.591
▁Biaya	-11.5913
▁Lahir	-11.5915
▁Jangka	-11.5923
▁komis	-11.5944
mecat	-11.6025
refleksi	-11.6029
▁(14/5)	-11.6029
▁(23/9)	-11.6029
▁(25/4)	-11.6029
▁(6/9)	-11.6029
▁(8/8)	-11.6029
▁Investor	-11.6029
▁Perkebunan	-11.6029
▁diselidiki	-11.6029
▁Septian	-11.6029
▁Firdaus	-11.6029
▁Pengakuan	-11.6029
▁Properti	-11.6029
▁Guinea	-11.6029
▁Internet	-11.6029
▁Guntur	-11.6029
▁Meranti	-11.6029
▁Sragen	-11.6029
▁Positif	-11.6029
▁Vatikan	-11.6029
▁Ujung	-11.6029
judol	-11.6029
beragaman	-11.603
▁Mesin	-11.6031
▁kios	-11.6031
▁Wilson	-11.6031
▁mulia	-11.6033
▁menular	-11.6034
musim	-11.6037
work	-11.6039
▁menumbuhk	-11.6042
ramuka	-11.6048
ojok	-11.6052
Candy	-11.6072
▁Ansar	-11.6076
ertibkan	-11.612
▁hilir	-11.6151
▁Purwo	-11.6152
satreskrim	-11.6152
▁(10/6)	-11.6152
▁(11/11)	-11.6152
▁(4/12)	-11.6152
▁(6/2)	-11.6152
▁Freeport	-11.6152
▁Independen	-11.6152
▁Taipei	-11.6152
▁beribadah	-11.6152
▁kosmetik	-11.6152
▁kudeta	-11.6152
Dimyati	-11.6152
▁Bentuk	-11.6152
▁Delega	-11.6152
▁Mariska	-11.6152
▁mendongk	-11.6153
▁Putaran	-11.6153
://	-11.6153
▁Senada	-11.6153
▁ditunggu	-11.6153
▁11:5	-11.6154
▁Francisc	-11.6155
▁diakhiri	-11.6156
▁Asnaw	-11.6156
▁Kalbar	-11.6158
ARAT	-11.616
KASI	-11.6161
pendidikan	-11.6164
penghubung	-11.6165
▁Asmaw	-11.6165
kejar	-11.6187
IDI	-11.62
rahasia	-11.6275
Forkopimda	-11.6277
practice	-11.6277
▁(13/3)	-11.6277
▁(25/3)	-11.6277
▁(3/2)	-11.6277
▁(4/6)	-11.6277
▁Environment	-11.6277
▁Kominfo	-11.6277
▁Penurunan	-11.6277
▁Penyelidikan	-11.6277
▁http	-11.6277
▁(2/1)	-11.6277
▁Hamzah	-11.6277
▁menakluk	-11.6277
adrasah	-11.6277
bullying	-11.6277
▁diminati	-11.6277
▁kalori	-11.6277
▁Yunus	-11.6277
▁Status	-11.6277
▁Dagang	-11.6277
▁sistematis	-11.6277
▁Komedi	-11.6277
▁diberhentikan	-11.6278
▁valid	-11.6278
▁sinar	-11.6278
▁11:2	-11.6282
▁12:2	-11.6282
▁Samudr	-11.6282
▁camp	-11.6296
nduk	-11.6307
RSUP	-11.632
▁Panggil	-11.6327
▁serba	-11.6327
buntut	-11.6346
kelanjutan	-11.6349
erseorangan	-11.6352
BPD	-11.6353
▁genera	-11.6394
▁konvensi	-11.6403
▁(1/8)	-11.6404
▁(12/9)	-11.6404
▁(13/5)	-11.6404
▁(15/3)	-11.6404
▁(21/11)	-11.6404
▁(21/5)	-11.6404
▁(24/9)	-11.6404
▁(26/3)	-11.6404
▁(31/5)	-11.6404
▁(5/12)	-11.6404
▁Pandjaitan	-11.6404
▁Pedagang	-11.6404
▁Pelalawan	-11.6404
▁Singaraja	-11.6404
▁tropis	-11.6404
▁(3/1)	-11.6404
▁Citroen	-11.6404
▁Training	-11.6404
▁terpencil	-11.6404
gobrol	-11.6404
▁travel	-11.6404
▁menoreh	-11.6404
▁Doktor	-11.6404
▁interior	-11.6404
▁pisau	-11.6404
▁Otto	-11.6404
coklit	-11.6404
▁Ipul	-11.6404
▁Masiku	-11.6404
▁tumpang	-11.6405
▁kelemb	-11.6405
▁Sanusi	-11.6405
▁Tirto	-11.6405
mulyo	-11.6406
inetron	-11.6406
INDO	-11.6406
Bapanas	-11.6406
KRL	-11.6408
▁(18/10)	-11.6409
▁Pintar	-11.6411
▁leher	-11.6411
▁Ramdan	-11.6412
dialog	-11.6425
▁Strike	-11.6426
tribut	-11.6429
timbun	-11.6429
URA	-11.6436
▁Sustainab	-11.6443
▁Melind	-11.6446
▁Matt	-11.6453
enyampai	-11.6474
▁Univers	-11.6481
ledon	-11.6482
banggakan	-11.6521
presentasi	-11.6523
▁crypto	-11.6532
▁(17/12)	-11.6532
▁(19/8)	-11.6532
▁(22/11)	-11.6532
▁(22/7)	-11.6532
▁(26/4)	-11.6532
▁(29/4)	-11.6532
▁(31/1)	-11.6532
▁(31/12)	-11.6532
▁(8/11)	-11.6532
▁Kebutuhan	-11.6532
▁Legislator	-11.6532
▁Morowali	-11.6532
▁Nganjuk	-11.6532
▁Rekomendasi	-11.6532
▁Soccer	-11.6532
▁iPhone	-11.6532
▁konfronta	-11.6532
smelter	-11.6532
▁Vokasi	-11.6532
▁green	-11.6532
▁1997	-11.6532
▁jeruk	-11.6532
▁Lutfi	-11.6532
▁Mekaar	-11.6532
membungkam	-11.6532
jodoh	-11.6533
▁royong	-11.6533
adaban	-11.6534
Kodim	-11.6534
▁2-0	-11.6534
pemanasan	-11.6544
▁Mahmud	-11.6573
Doel	-11.6575
epakati	-11.6594
encapaian	-11.6599
ocus	-11.661
enghenti	-11.6617
ertambangan	-11.664
PPS	-11.6645
▁administra	-11.6649
▁rinci	-11.6656
▁hidro	-11.6662
alkshow	-11.6662
manipulasi	-11.6662
▁(11/6)	-11.6662
▁(18/9)	-11.6662
▁(6/11)	-11.6662
▁(7/3)	-11.6662
▁(7/5)	-11.6662
▁(7/8)	-11.6662
▁Ballroom	-11.6662
▁Borobudur	-11.6662
▁Cartenz	-11.6662
▁Kebangsaan	-11.6662
▁Khamenei	-11.6662
▁Microsoft	-11.6662
▁Struick	-11.6662
▁TASPEN	-11.6662
▁Trisakti	-11.6662
▁Stephan	-11.6662
▁religi	-11.6662
khianat	-11.6662
▁Kartini	-11.6662
▁Hasina	-11.6662
▁nyamuk	-11.6663
▁Vance	-11.6664
Tersangka	-11.6694
semangat	-11.6694
Malam	-11.6694
Salah	-11.6696
runtuhan	-11.6697
uff	-11.6698
Riri	-11.6706
▁gard	-11.6716
▁hektar	-11.6777
▁eksploita	-11.6777
acana	-11.6779
elepon	-11.6789
-2024	-11.6792
penelusuran	-11.6793
▁(16/1)	-11.6793
▁(18/11)	-11.6793
▁(19/9)	-11.6793
▁(25/9)	-11.6793
▁(27/5)	-11.6793
▁(31/7)	-11.6793
▁(5/8)	-11.6793
▁Gresini	-11.6793
▁Hindia	-11.6793
▁Tyasmara	-11.6793
▁informal	-11.6793
▁payudara	-11.6793
▁(19/1)	-11.6793
▁Rupiah	-11.6793
▁Arsenal	-11.6793
▁LPSK	-11.6793
▁PGRI	-11.6793
▁LAMP	-11.6794
▁Angkut	-11.6794
akumulasi	-11.6794
Kemenkeu	-11.6794
▁penyiar	-11.6794
▁surut	-11.6794
▁esensi	-11.6795
ibility	-11.6795
▁basah	-11.6795
▁home	-11.6796
▁regist	-11.6798
▁patung	-11.6799
atriot	-11.6805
▁alumn	-11.6816
▁Syur	-11.6824
HUT	-11.6831
Menko	-11.6834
terjunkan	-11.6859
▁Sofia	-11.6861
▁Andr	-11.6912
persembah	-11.6922
lateral	-11.6925
▁Peringat	-11.6926
▁(1/2)	-11.6927
▁(10/2)	-11.6927
▁(2/7)	-11.6927
▁(20/11)	-11.6927
▁(21/3)	-11.6927
▁(29/5)	-11.6927
▁Bersenjata	-11.6927
▁Faizal	-11.6927
▁Wujud	-11.6927
▁pornografi	-11.6927
▁siklus	-11.6927
▁stigma	-11.6927
▁NKRI	-11.6927
▁mencuat	-11.6927
▁Kerugian	-11.6927
gosip	-11.6927
▁Pedro	-11.6927
▁06:4	-11.6928
▁Xiao	-11.6928
▁berduka	-11.6928
▁Aviv	-11.6929
▁sesaat	-11.6931
▁High	-11.6931
ofoli	-11.6934
pemuda	-11.697
Meski	-11.6971
▁legisla	-11.6987
▁pencabu	-11.6994
startup	-11.7027
▁Excellen	-11.7062
▁(12/8)	-11.7062
▁(13/6)	-11.7062
▁(17/7)	-11.7062
▁(19/3)	-11.7062
▁(19/6)	-11.7062
▁(2/5)	-11.7062
▁(23/8)	-11.7062
▁(25/11)	-11.7062
▁(25/7)	-11.7062
▁(28/5)	-11.7062
▁(6/8)	-11.7062
▁(8/5)	-11.7062
▁Intelligence	-11.7062
▁KARAWA	-11.7062
▁Kenjeran	-11.7062
▁Poltracking	-11.7062
▁Silaturahmi	-11.7062
▁booth	-11.7062
▁deportasi	-11.7062
▁fesyen	-11.7062
▁kebugaran	-11.7062
▁revolusi	-11.7062
▁kontingen	-11.7062
/05)	-11.7062
▁Rahmad	-11.7062
▁Siloam	-11.7062
▁Yasmin	-11.7062
▁Lebong	-11.7062
▁dipulangkan	-11.7062
▁tebing	-11.7062
▁Yakni	-11.7062
▁Amnest	-11.7062
▁pengenal	-11.7063
▁06:1	-11.7064
▁State	-11.7067
film	-11.707
tulus	-11.707
▁Lauren	-11.7071
ford	-11.7088
▁penugasa	-11.71
erampasan	-11.7101
keras	-11.7123
▁Melay	-11.713
nggoro	-11.7141
endeta	-11.7155
tegak	-11.7159
▁mengemban	-11.7192
▁Saudara	-11.7199
▁(10/5)	-11.7199
▁(14/3)	-11.7199
▁(30/5)	-11.7199
▁(6/12)	-11.7199
▁Hungaria	-11.7199
▁Nasrallah	-11.7199
▁parfum	-11.7199
▁Lanjut	-11.7199
▁Ghufr	-11.7199
▁nusantara	-11.7199
keberanian	-11.7199
embelih	-11.7199
▁Tubuh	-11.7199
kripsi	-11.7199
▁Klaten	-11.7199
▁titip	-11.7199
▁Diminta	-11.7199
▁Faktor	-11.7199
▁2029	-11.7199
epotisme	-11.7199
▁lutut	-11.7199
▁takjil	-11.7199
▁tempo	-11.7199
▁(8/10)	-11.7199
▁Puasa	-11.7199
hanyut	-11.7199
Astrid	-11.7199
SDGs	-11.72
▁geografi	-11.72
▁menginjak	-11.72
▁(21/10)	-11.7202
oncong	-11.721
▁Corp	-11.7212
dikendalikan	-11.7215
ULU	-11.7221
onsep	-11.7238
erfilman	-11.724
▁Lind	-11.7245
MATA	-11.725
silaturahmi	-11.7253
Banyak	-11.7253
Hasil	-11.7254
ewarganegaraan	-11.7334
Jamkrindo	-11.7338
Mendikdasmen	-11.7338
kamtibmas	-11.7338
▁(10/7)	-11.7338
▁(12/11)	-11.7338
▁(19/11)	-11.7338
▁(22/5)	-11.7338
▁(4/2)	-11.7338
▁(6/3)	-11.7338
▁Kemanusiaan	-11.7338
▁Purwokerto	-11.7338
▁Somalia	-11.7338
▁Taufiq	-11.7338
▁dihindari	-11.7338
▁vulkani	-11.7338
▁Terlibat	-11.7338
▁akuntabel	-11.7338
separatis	-11.7338
▁anonim	-11.7338
▁partner	-11.7338
▁bengkel	-11.7338
▁manual	-11.7338
▁wafat	-11.7338
▁Pantura	-11.7338
▁Ambil	-11.7338
mbarkasi	-11.7338
▁Talent	-11.7338
▁Sumadi	-11.7338
▁tendik	-11.7338
▁Slank	-11.7339
holding	-11.7339
▁Gerbang	-11.734
▁penyerap	-11.7344
27/	-11.7379
▁Menghadap	-11.739
politik	-11.7399
Bagi	-11.74
utradara	-11.7469
Pilwakot	-11.7479
olaboratif	-11.7479
▁(1/7)	-11.7479
▁(11/9)	-11.7479
▁(30/8)	-11.7479
▁(6/5)	-11.7479
▁(6/6)	-11.7479
▁(7/11)	-11.7479
▁Musyawara	-11.7479
▁Tertinggal	-11.7479
▁ambruk	-11.7479
▁realistis	-11.7479
▁terealisasi	-11.7479
▁tersenyum	-11.7479
▁Soviet	-11.7479
▁memberatkan	-11.7479
▁tembok	-11.7479
▁bodong	-11.7479
▁memuaskan	-11.7479
▁NASA	-11.7479
▁terpecah	-11.7479
▁Tridatu	-11.7479
▁Younis	-11.7479
▁England	-11.7479
hidrasi	-11.7479
▁Sirait	-11.7479
▁Inklusi	-11.7479
▁tertunda	-11.7479
▁Fungsi	-11.7479
▁Dubai	-11.7479
▁Kritik	-11.7479
▁Lubis	-11.7479
▁menerjunka	-11.7479
▁berbakat	-11.7479
▁memihak	-11.748
benahi	-11.7481
▁dimenang	-11.7482
▁Operat	-11.7483
▁Keras	-11.7487
onumen	-11.7487
▁eksped	-11.749
melekat	-11.7492
▁Purna	-11.7493
Muba	-11.7508
▁Kedu	-11.7522
Israel	-11.7546
padat	-11.759
▁norma	-11.7594
▁Farhat	-11.7617
▁(15/11)	-11.7621
▁(15/8)	-11.7621
▁(18/4)	-11.7621
▁(2/2)	-11.7621
▁(21/6)	-11.7621
▁(3/12)	-11.7621
▁(4/9)	-11.7621
▁(9/12)	-11.7621
▁ASABRI	-11.7621
▁Hybrid	-11.7621
▁Kishida	-11.7621
▁Security	-11.7621
▁mengeksplor	-11.7621
▁Ibadah	-11.7621
klasifikasi	-11.7621
▁lemon	-11.7622
omisili	-11.7622
▁1980	-11.7622
▁Jatuh	-11.7622
▁Pembicaraan	-11.7622
▁humani	-11.7622
▁Rekaman	-11.7622
▁slogan	-11.7622
▁Salsha	-11.7623
▁Kirby	-11.7624
▁Prawir	-11.7629
Raker	-11.7633
bulat	-11.764
encinta	-11.7642
ajud	-11.7643
▁rente	-11.7678
Dance	-11.7679
stein	-11.7686
Sekda	-11.7694
tindakan	-11.7697
▁Hunt	-11.7699
siplin	-11.772
▁pemberlaku	-11.7732
Zahr	-11.7741
peringat	-11.7762
esatuan	-11.7766
endeportasi	-11.7766
ortikultura	-11.7766
▁(16/7)	-11.7766
▁(17/5)	-11.7766
▁(17/9)	-11.7766
▁(18/12)	-11.7766
▁(26/8)	-11.7766
▁Suporter	-11.7766
uplemen	-11.7766
▁Komunis	-11.7766
▁Konawe	-11.7766
▁Betawi	-11.7766
AMDK	-11.7767
▁Delhi	-11.7767
▁gadis	-11.7767
▁Mukti	-11.7767
▁Kerajaan	-11.7767
▁Pilot	-11.7767
▁Pangdam	-11.7768
▁22:5	-11.7768
▁naskah	-11.7768
▁Barisan	-11.7769
▁mengunggul	-11.7774
seberang	-11.7784
tilasi	-11.7785
erhimpun	-11.7826
Calon	-11.7846
karier	-11.7848
▁dicuri	-11.785
▁mengorb	-11.7853
▁pesepak	-11.7912
▁(15/5)	-11.7913
▁(15/7)	-11.7913
▁(16/12)	-11.7913
▁(18/6)	-11.7913
▁(20/12)	-11.7913
▁(20/6)	-11.7913
▁(7/6)	-11.7913
▁(8/7)	-11.7913
▁(9/9)	-11.7913
▁Diploma	-11.7913
▁Emmanuel	-11.7913
▁Fardhana	-11.7913
▁Kemungkinan	-11.7913
▁Optimal	-11.7913
▁Semifinal	-11.7913
▁Tanjungpinang	-11.7913
▁estetika	-11.7913
etropolitan	-11.7913
▁Sadikin	-11.7913
▁ramadan	-11.7914
▁magang	-11.7914
▁(4/10)	-11.7914
▁lingkar	-11.7914
▁Louis	-11.7914
▁fatal	-11.7915
▁track	-11.7915
fresh	-11.7916
sepakbola	-11.7916
Jordi	-11.7927
cross	-11.793
obster	-11.7944
▁Misba	-11.7951
▁auto	-11.7967
kapasitas	-11.8
Kepala	-11.8
▁Purwa	-11.8008
▁Roll	-11.8011
akuntabilitas	-11.805
diagnosis	-11.8063
preventif	-11.8063
▁(1/4)	-11.8063
▁(12/3)	-11.8063
▁(14/11)	-11.8063
▁(19/12)	-11.8063
▁(19/7)	-11.8063
▁(23/7)	-11.8063
▁(24/4)	-11.8063
▁(26/7)	-11.8063
▁(3/6)	-11.8063
▁(8/4)	-11.8063
▁(9/7)	-11.8063
▁Bahagia	-11.8063
▁Chelsea	-11.8063
▁Intelektual	-11.8063
▁Pembayaran	-11.8063
▁UEFA	-11.8063
▁berintegritas	-11.8063
▁kekecewaan	-11.8063
▁minimarket	-11.8063
▁service	-11.8063
▁terkendala	-11.8063
▁(20/1)	-11.8063
▁Ambyar	-11.8063
▁Identitas	-11.8063
▁giliran	-11.8063
▁merdeka	-11.8063
▁Lingkar	-11.8063
▁mencukupi	-11.8063
▁bensin	-11.8063
▁helm	-11.8063
▁bentur	-11.8063
▁laptop	-11.8064
▁Mandarin	-11.8064
▁free	-11.8064
▁06:2	-11.8064
▁Build	-11.8066
▁Estat	-11.8077
Letjen	-11.8107
emulangan	-11.8128
damaian	-11.8202
ngsong	-11.8207
esnarkoba	-11.8212
▁(26/11)	-11.8214
▁(3/5)	-11.8214
▁(9/8)	-11.8214
▁Albanese	-11.8214
▁Arsjad	-11.8214
▁Daihatsu	-11.8214
▁Effendi	-11.8214
▁Summarecon	-11.8214
▁Sydney	-11.8214
▁XVII	-11.8214
▁Konsumsi	-11.8214
▁Nugini	-11.8214
Kopassus	-11.8214
▁musibah	-11.8214
Menkumham	-11.8214
▁Wahono	-11.8214
▁meneriak	-11.8214
▁ditindak	-11.8214
▁terputus	-11.8214
nominal	-11.8214
▁Bernard	-11.8214
▁trading	-11.8214
▁berkabut	-11.8215
definisi	-11.8215
▁pembuktian	-11.8215
perlomba	-11.8215
▁Bantah	-11.8216
▁Hanoi	-11.8216
error	-11.8217
edoman	-11.8222
azuli	-11.8227
aycare	-11.8229
▁Kekalaha	-11.823
100.000	-11.8231
escue	-11.8235
pulau	-11.8237
▁fair	-11.8266
▁Well	-11.828
▁penghuj	-11.8285
klarifikasi	-11.8314
analisis	-11.8314
▁Report	-11.8343
▁sukarela	-11.8366
bijaksana	-11.8368
▁(11/5)	-11.8368
▁(16/4)	-11.8368
▁(28/6)	-11.8368
▁Acosta	-11.8368
▁Ekosistem	-11.8368
▁Istiqlal	-11.8368
▁Navalny	-11.8368
▁kewirausahaan	-11.8368
*	-11.8368
▁Chicago	-11.8368
▁OECD	-11.8368
▁hijab	-11.8368
▁Diperiksa	-11.8368
▁Rachim	-11.8368
pinjol	-11.8368
▁Practic	-11.8368
▁pendingin	-11.8368
▁toilet	-11.8368
rotokol	-11.8368
▁pendarat	-11.8368
▁Level	-11.8368
lisensi	-11.8368
merosot	-11.8368
federa	-11.8369
▁bereaksi	-11.8369
Menhub	-11.8369
▁Banyu	-11.8369
▁pisang	-11.8369
▁migas	-11.8369
▁angkot	-11.837
▁Urut	-11.837
DLH	-11.8373
Perumda	-11.8373
▁Medica	-11.8373
▁tongka	-11.8381
arakter	-11.8391
Haye	-11.8391
enasaran	-11.841
▁konsentra	-11.8421
Ditresnarkoba	-11.8457
Muhammad	-11.8476
organisasi	-11.8476
Oleh	-11.8476
cukup	-11.8477
Hadiah	-11.8496
Jelas	-11.8515
Ditlantas	-11.8524
Jampidsus	-11.8524
ijazah	-11.8524
▁(12/6)	-11.8524
▁(13/8)	-11.8524
▁(14/6)	-11.8524
▁(15/12)	-11.8524
▁(18/3)	-11.8524
▁(29/11)	-11.8524
▁Perinciannya	-11.8524
▁Pezeshkian	-11.8524
▁argumen	-11.8524
▁belasungkawa	-11.8524
▁eksistensi	-11.8524
▁fundamental	-11.8524
▁pengebom	-11.8524
▁HIPMI	-11.8524
▁Rashid	-11.8524
▁Wardoyo	-11.8524
▁Erupsi	-11.8524
▁Finlandia	-11.8524
▁JEMB	-11.8524
▁histori	-11.8524
dahsyat	-11.8524
nyempurna	-11.8524
▁Seksual	-11.8524
▁lembut	-11.8524
▁Leonard	-11.8524
▁down	-11.8524
▁Arjuna	-11.8524
▁Kalapas	-11.8524
▁Kuliah	-11.8524
longgar	-11.8524
▁Smith	-11.8524
▁meluap	-11.8525
▁Tumbuh	-11.8525
budidaya	-11.8525
▁Purworejo	-11.8525
▁Company	-11.8525
▁(7/10)	-11.8525
atanras	-11.8525
▁Diperk	-11.8525
enyumbang	-11.8527
runtu	-11.8533
sensasi	-11.8536
persoal	-11.8536
▁Intens	-11.854
enyimpangan	-11.8541
AYA	-11.8548
outh	-11.8573
▁Kepatu	-11.8576
▁Work	-11.8585
Baleg	-11.8593
onsentrasi	-11.8628
Daniel	-11.864
CPNS	-11.864
BNNP	-11.8643
á	-11.8683
lockchain	-11.8683
▁(13/12)	-11.8683
▁(8/2)	-11.8683
▁Memiliki	-11.8683
▁Permendag	-11.8683
▁berkepanjangan	-11.8683
Rasyid	-11.8683
▁Sritex	-11.8683
▁penjahat	-11.8683
▁Capital	-11.8683
▁Kursk	-11.8683
▁Pembiayaan	-11.8683
▁diberitahu	-11.8683
▁Pencuri	-11.8683
▁jerawat	-11.8683
langganan	-11.8683
▁merapat	-11.8683
▁berpuas	-11.8684
▁adaptif	-11.8684
▁Privat	-11.8684
▁23:4	-11.8686
▁Drama	-11.8686
▁Kristian	-11.8686
▁23:2	-11.8688
▁Kontes	-11.8689
ragis	-11.8696
Huang	-11.8704
▁penyelidik	-11.8707
daulat	-11.8707
Dubes	-11.873
Agenda	-11.8763
Sekarang	-11.8806
Sementara	-11.8807
Jatim	-11.8807
perintah	-11.8808
encuci	-11.8823
▁Suryo	-11.8829
▁Kemendikbud	-11.8844
Pilbup	-11.8844
emakzulan	-11.8844
ercontohan	-11.8844
mbassador	-11.8844
▁(18/5)	-11.8844
▁(2/11)	-11.8844
▁(20/9)	-11.8844
▁(23/11)	-11.8844
▁(23/4)	-11.8844
▁(25/6)	-11.8844
▁(3/4)	-11.8844
▁(4/7)	-11.8844
▁(5/7)	-11.8844
▁Celcius	-11.8844
▁Ciliwung	-11.8844
▁Kazakhstan	-11.8844
▁berolahraga	-11.8844
▁County	-11.8844
▁Thamrin	-11.8844
▁(9/10).	-11.8844
▁Journal	-11.8844
▁sanitasi	-11.8844
▁racun	-11.8844
▁Guardi	-11.8844
▁Dahlan	-11.8844
▁Ancol	-11.8845
▁pemakai	-11.8845
▁Michel	-11.8845
▁Restoran	-11.8845
▁melebar	-11.8845
▁Meriah	-11.8845
identik	-11.8845
teladan	-11.8845
▁Psikolog	-11.8845
▁state	-11.8846
▁tertawa	-11.8846
▁23:3	-11.8846
catut	-11.8849
▁Ucap	-11.8849
▁Medis	-11.8868
▁Ibra	-11.8878
waktu	-11.8913
▁tengga	-11.8913
engajian	-11.8961
▁Gakkum	-11.8978
sampai	-11.8978
tempel	-11.8989
melihara	-11.9
UNHCR	-11.9008
deforestasi	-11.9008
muljono	-11.9008
▁(13/7)	-11.9008
▁(30/12)	-11.9008
▁Dortmund	-11.9008
▁Initiative	-11.9008
▁Marzuki	-11.9008
▁Proklama	-11.9008
▁Sekuritas	-11.9008
▁Square	-11.9008
▁Susmanto	-11.9008
▁Akhmad	-11.9008
▁Rafiq	-11.9008
▁kolonial	-11.9008
▁Bimbing	-11.9008
▁petualang	-11.9008
▁papua	-11.9008
▁Pertanyaan	-11.9008
▁Marthin	-11.9008
▁Pengganti	-11.9008
▁1996	-11.9008
▁Bahaya	-11.9008
▁Tyron	-11.9008
GBLA	-11.9008
▁Alves	-11.9009
▁Consult	-11.9009
▁sembuh	-11.9009
▁Bhre	-11.9009
▁sensor	-11.9009
CNN	-11.901
akjub	-11.9036
Aprilia	-11.9048
usiness	-11.9061
▁Sugiart	-11.9064
Menhan	-11.9082
oredo	-11.9106
▁present	-11.9112
Menurut	-11.9149
darurat	-11.9149
khusus	-11.9149
AFP	-11.9152
promotor	-11.9161
enomena	-11.9172
ekspektasi	-11.9175
ü	-11.9175
▁(10/12)	-11.9175
▁(17/4)	-11.9175
▁(24/5)	-11.9175
▁(26/5)	-11.9175
▁(27/8)	-11.9175
▁(28/9)	-11.9175
▁(3/11)	-11.9175
▁(3/9)	-11.9175
▁(30/9)	-11.9175
▁(5/9)	-11.9175
▁(9/4)	-11.9175
▁Kekhawatiran	-11.9175
▁Legislatif	-11.9175
▁Organization	-11.9175
▁Penutupan	-11.9175
▁Pernikahan	-11.9175
▁Science	-11.9175
▁afirmasi	-11.9175
▁diapresiasi	-11.9175
▁jelajah	-11.9175
▁proporsional	-11.9175
▁Jenewa	-11.9175
▁Premium	-11.9175
▁Stunting	-11.9175
ö	-12.1427
è	-12.164
°	-12.208
@	-12.2171
=	-12.3272
í	-12.3791
[	-12.4551
ñ	-12.4625
ó	-12.4919
•	-12.983
±	-13.2625
€	-13.2625
ú	-13.4006
ä	-13.4775
â	-13.5608
®	-13.5608
ı	-13.8628
`	-13.9878
′	-13.9878
>	-13.9878
×	-14.2974
ê	-14.2974
ï	-14.2974
\	-14.4974
Ó	-14.4974
à	-14.4974
ô	-14.4974
⁠	-14.4974
ş	-14.7474
Ç	-14.7474
Ü	-14.7474
ç	-14.7474
ì	-14.7474
😭	-14.7474
<	-15.0807
·	-15.0807
ø	-15.0807
−	-15.0807
#	-15.5444
Ä	-15.5807
Ö	-15.5807
ë	-15.5807
ā	-15.5807
š	-15.5807
ğ	-16.58
Á	-16.5801
μ	-16.5802
⁄	-16.5803
ć	-16.5804
ã	-16.5805
£	-16.5806
Â	-16.5807
É	-16.5807
ð	-16.5807
ò	-16.5807
õ	-16.5807
Ā	-16.5807
ę	-16.5807
İ	-16.5807
ķ	-16.5807
ł	-16.5807
ś	-16.5807
ơ	-16.5807
ư	-16.5807
Α	-16.5807
Η	-16.5807
Τ	-16.5807
α	-16.5807
‍	-16.5807
≥	-16.5807
丽	-16.5807
安	-16.5807
洪	-16.5807
🍌	-16.5807
😊	-16.5807
(	-16.5807
Ł	-16.5807
金	-16.5807
陈	-16.5807
