<unk>	0
<s>	0
</s>	0
▁	-3.25687
,	-3.58418
.	-3.65756
▁di	-3.99856
an	-4.13747
▁yang	-4.37095
▁dan	-4.46235
kan	-4.51227
i	-4.63906
▁,	-4.97802
▁se	-5.08263
nya	-5.0842
)	-5.11118
-	-5.16598
▁(	-5.19158
▁untuk	-5.27183
▁.	-5.28262
▁ber	-5.28546
▁ke	-5.29264
▁-	-5.34929
s	-5.38274
▁dengan	-5.39973
▁"	-5.44838
▁dari	-5.46064
▁ini	-5.46545
k	-5.47124
a	-5.49471
▁itu	-5.5184
▁pada	-5.55778
▁dalam	-5.5774
l	-5.60895
▁2024	-5.8085
▁meng	-5.86685
t	-5.86923
/	-5.89017
▁me	-5.92019
▁ter	-5.95011
e	-5.99842
▁tidak	-6.01549
si	-6.03281
▁P	-6.06616
▁akan	-6.07898
▁Indonesia	-6.08424
▁tersebut	-6.08432
telah	-6.10668
ta	-6.10716
▁p	-6.14169
▁S	-6.15048
",	-6.1513
h	-6.17384
y	-6.19018
▁mem	-6.19509
ri	-6.21617
▁juga	-6.21654
▁Se	-6.21908
▁A	-6.22023
com	-6.22286
ur	-6.22695
▁K	-6.23829
p	-6.25847
▁WIB	-6.27577
at	-6.32553
al	-6.34544
▁kata	-6.34733
ng	-6.35221
▁ada	-6.3571
▁nya	-6.36374
▁",	-6.37363
o	-6.39395
▁menjadi	-6.39692
▁T	-6.40888
ti	-6.41535
▁men	-6.42436
▁mengatakan	-6.43984
n	-6.44666
▁saat	-6.48672
▁B	-6.48937
▁bahwa	-6.49099
▁sebagai	-6.49225
:	-6.49367
in	-6.49915
na	-6.51268
or	-6.51299
▁oleh	-6.52738
g	-6.53278
di	-6.53346
ra	-6.53381
▁tahun	-6.5439
u	-6.55647
da	-6.55986
d	-6.56459
er	-6.56917
f	-6.57107
2	-6.58055
1	-6.60458
ar	-6.61502
r	-6.61587
▁bisa	-6.6179
▁Ke	-6.62017
▁atau	-6.65905
▁kepada	-6.66123
us	-6.66797
▁Di	-6.67867
ka	-6.69018
▁jpnn	-6.69409
ang	-6.69606
5	-6.70187
▁lebih	-6.70928
sa	-6.71274
▁I	-6.7168
▁mereka	-6.73129
▁be	-6.73241
li	-6.74568
la	-6.74587
▁Jakarta	-6.75619
▁satu	-6.76927
tu	-6.78759
▁orang	-6.79631
is	-6.79665
▁M	-6.81364
▁meny	-6.82145
sudah	-6.82214
ma	-6.8381
▁Ma	-6.83832
▁karena	-6.83895
4	-6.84384
▁s	-6.84901
7	-6.85025
▁para	-6.85978
P	-6.86653
ga	-6.89151
▁adalah	-6.89398
▁Kota	-6.89424
▁per	-6.89618
ah	-6.89769
c	-6.90085
▁kami	-6.9024
hingga	-6.90731
m	-6.9096
▁F	-6.92227
▁masyarakat	-6.92317
cara	-6.92716
un	-6.9374
▁melakukan	-6.93842
▁hari	-6.94571
9	-6.95466
3	-6.96252
▁G	-6.96454
0	-6.96456
en	-6.96597
re	-6.97051
le	-6.97148
8	-6.97396
D	-6.98294
on	-6.98495
as	-6.9883
▁E	-6.99
▁negara	-7.00754
▁U	-7.01069
ni	-7.02532
ing	-7.02798
▁dia	-7.02904
ir	-7.0299
▁bagi	-7.0355
▁C	-7.03611
▁terhadap	-7.03846
S	-7.03947
K	-7.06132
A	-7.06141
B	-7.06411
▁dapat	-7.06802
▁Su	-7.08071
ro	-7.0841
▁memberi	-7.09378
ARTA	-7.102
el	-7.10287
z	-7.11112
▁Per	-7.11136
man	-7.11684
berapa	-7.12168
b	-7.13481
6	-7.13496
ca	-7.1391
ut	-7.14622
um	-7.14868
▁Selasa	-7.149
▁Dia	-7.15018
▁Rabu	-7.15511
ak	-7.15673
jpnn	-7.15696
ja	-7.15844
▁JAK	-7.16194
▁pe	-7.17099
lah	-7.17479
▁Ba	-7.17636
▁Senin	-7.17973
to	-7.18046
▁Kamis	-7.19825
▁merupakan	-7.20059
M	-7.20348
▁dua	-7.21502
▁seperti	-7.21615
▁saya	-7.22531
te	-7.22663
▁warga	-7.2285
▁baru	-7.23066
▁Kabupaten	-7.25613
▁Jumat	-7.25973
ul	-7.26125
▁Ber	-7.26341
▁masih	-7.26775
tan	-7.27346
▁harus	-7.28187
▁1	-7.28221
▁dilakukan	-7.28566
T	-7.28593
asi	-7.29167
es	-7.29339
lu	-7.30033
▁Jawa	-7.30312
▁D	-7.30488
▁serta	-7.30553
▁2024.	-7.30832
ru	-7.31008
▁Presiden	-7.32263
▁anak	-7.32663
pa	-7.32907
▁banyak	-7.33066
de	-7.34029
wa	-7.3408
am	-7.34117
▁terjadi	-7.34422
▁O	-7.34723
▁pen	-7.35112
▁peng	-7.35484
▁hanya	-7.35657
▁besar	-7.3592
▁Bali	-7.35951
it	-7.36022
ter	-7.36026
▁atas	-7.36039
▁korban	-7.36312
▁pihak	-7.36994
▁pem	-7.37
gi	-7.37026
▁Israel	-7.37247
▁lalu	-7.37615
jak	-7.38341
et	-7.38467
ya	-7.38486
▁rumah	-7.38902
▁t	-7.38904
▁memiliki	-7.39257
▁bersama	-7.39869
se	-7.40459
ce	-7.4062
▁ujar	-7.41222
lo	-7.41623
il	-7.41655
▁Ketua	-7.41675
buah	-7.43006
▁selama	-7.43105
N	-7.43772
▁Ka	-7.43813
han	-7.45607
hi	-7.45767
▁baik	-7.45907
mi	-7.45935
pi	-7.46302
H	-7.46347
▁sangat	-7.46392
▁Ter	-7.46724
▁H	-7.46764
▁salah	-7.47537
▁Me	-7.47785
▁k	-7.48856
pun	-7.48869
▁Pe	-7.49239
▁kasus	-7.49341
ung	-7.49815
im	-7.50876
▁pemerintah	-7.50882
▁melalu	-7.50886
tiga	-7.50961
ik	-7.51026
▁wilayah	-7.51199
ku	-7.51293
mp	-7.5191
▁tim	-7.52222
▁R	-7.5236
ju	-7.52875
ia	-7.52919
mo	-7.53122
▁Rp	-7.53619
U	-7.538
▁Ra	-7.54015
▁kita	-7.5424
▁Sabtu	-7.54663
ba	-7.54817
▁AS	-7.55028
▁4	-7.55692
jumlah	-7.55875
▁L	-7.56232
▁Pen	-7.56868
▁sama	-7.57053
▁3	-7.57587
C	-7.57666
▁J	-7.58001
▁La	-7.58217
▁Barat	-7.58308
bagai	-7.58428
▁Sa	-7.5849
▁Namun	-7.58822
▁tetapi	-7.58888
no	-7.5929
▁Minggu	-7.59456
▁Prabowo	-7.59715
agar	-7.5979
▁apa	-7.59811
▁kembali	-7.59877
▁PT	-7.59938
R	-7.60212
▁terus	-7.60422
L	-7.60524
bo	-7.60911
tika	-7.60914
▁terkait	-7.61147
▁W	-7.61244
▁sekitar	-7.61343
bu	-7.61397
▁persen	-7.61574
do	-7.61599
▁lain	-7.61788
▁re	-7.61868
I	-7.62243
▁mendapat	-7.62444
▁Re	-7.62613
▁hal	-7.63293
▁m	-7.63956
ko	-7.64625
▁seluruh	-7.64694
E	-7.64946
▁tak	-7.6548
ran	-7.65876
▁5	-7.66086
ap	-7.66691
ber	-7.66746
du	-7.66975
uh	-7.6707
ch	-7.67764
masuk	-7.67796
▁2	-7.67843
▁Si	-7.68212
nda	-7.68659
▁N	-7.69011
G	-7.69194
▁daerah	-7.69682
lain	-7.70756
pe	-7.71848
▁hasil	-7.71859
▁semua	-7.71956
▁pun	-7.71966
ha	-7.72149
▁program	-7.72204
▁c	-7.72927
▁Selatan	-7.7311
▁V	-7.73431
▁pertama	-7.73704
J	-7.73885
ke	-7.74241
▁Al	-7.7425
ki	-7.74454
▁kali	-7.74466
▁lainnya	-7.74497
ne	-7.7485
▁Menurut	-7.75051
belum	-7.75764
▁Menteri	-7.75765
uk	-7.76079
▁20	-7.76111
▁dunia	-7.76116
▁kerja	-7.76151
▁calon	-7.76159
▁a	-7.7632
▁De	-7.76467
▁RI	-7.76654
▁19	-7.76672
▁Dalam	-7.77011
lan	-7.77791
▁antara	-7.78302
▁tentang	-7.78429
co	-7.78569
ji	-7.787
mulai	-7.78934
O	-7.79183
st	-7.79446
▁Ini	-7.79651
▁Kepala	-7.79751
vi	-7.79806
▁Surabaya	-7.80509
▁sedang	-7.80527
tra	-7.81687
nd	-7.81722
▁hukum	-7.81842
▁10	-7.82076
F	-7.82261
tor	-7.82262
1)	-7.82441
▁Bandung	-7.82918
▁j	-7.83116
ad	-7.83182
▁membuat	-7.83473
▁pelaku	-7.83733
▁Be	-7.84147
mar	-7.84435
tif	-7.84922
▁kota	-7.85226
▁Partai	-7.86033
▁ba	-7.86128
▁mau	-7.86224
▁Timur	-7.8646
▁China	-7.86628
▁anggota	-7.86769
▁langsung	-7.86833
▁depan	-7.86972
▁An	-7.87363
▁Te	-7.87663
W	-7.87704
id	-7.88243
seorang	-7.88669
bi	-7.88685
▁suara	-7.89234
▁waktu	-7.89434
▁Hal	-7.89524
▁Ta	-7.89769
▁In	-7.89795
▁Pilkada	-7.89841
go	-7.90087
▁Tengah	-7.9027
me	-7.90495
▁kedua	-7.90603
em	-7.91178
isi	-7.91182
ong	-7.91452
alami	-7.92403
ampaikan	-7.93016
▁Le	-7.9346
▁Mar	-7.93658
▁mendukung	-7.93925
▁bulan	-7.94119
hu	-7.94345
▁politik	-7.94694
▁Ha	-7.9483
▁katanya	-7.95041
bar	-7.95279
har	-7.95435
▁Na	-7.95915
▁Ja	-7.96312
lang	-7.96472
▁6	-7.96599
▁tempat	-7.96632
▁12	-7.96785
min	-7.96987
wi	-7.97018
▁juta	-7.97025
▁bagian	-7.97235
ok	-7.9726
▁serangan	-7.97284
eng	-7.97594
▁proses	-7.97709
▁Bu	-7.97929
▁Ri	-7.98039
▁Amerika	-7.98117
▁in	-7.9823
wan	-7.98395
men	-7.99186
▁saja	-7.9953
bat	-7.99619
▁media	-7.99646
▁meningkatkan	-8.00137
▁7	-8.00173
▁Pada	-8.00435
]	-8.00606
▁perusahaan	-8.00965
nas	-8.01119
ek	-8.01299
▁[	-8.01338
▁lagi	-8.01709
▁tinggi	-8.01745
tar	-8.0232
▁Ro	-8.02474
ve	-8.03166
ab	-8.03192
▁Pa	-8.03242
▁15	-8.03345
▁Mo	-8.03386
▁'	-8.03443
▁menggunakan	-8.03591
kar	-8.03659
ge	-8.03918
▁Tim	-8.04138
▁ia	-8.04426
▁f	-8.04601
▁malam	-8.04663
tik	-8.05002
▁sampai	-8.05213
▁b	-8.05244
▁Rusia	-8.05608
▁Lu	-8.05669
▁kesehatan	-8.05777
▁produk	-8.05941
▁tetap	-8.06064
san	-8.06121
ck	-8.06191
▁masa	-8.0625
▁ka	-8.06302
▁menjelaskan	-8.06763
▁penting	-8.07172
▁menyebut	-8.07395
▁yakni	-8.07627
per	-8.07669
gan	-8.0767
▁bukan	-8.07956
▁Umum	-8.08046
▁pemain	-8.08325
▁Li	-8.08362
fi	-8.08385
▁Mu	-8.08819
▁Oktober	-8.09052
▁Wa	-8.09287
▁ingin	-8.09331
su	-8.09476
▁kegiatan	-8.09576
▁Men	-8.09597
▁te	-8.09643
jo	-8.09874
▁Gubernur	-8.10334
▁air	-8.10437
▁Kecamatan	-8.10731
▁upaya	-8.11378
▁e	-8.11742
ncapai	-8.11799
▁tersangka	-8.12169
▁Kementerian	-8.12304
▁Mi	-8.12387
▁mengena	-8.12443
▁Juli	-8.12534
▁keluarga	-8.12727
▁masuk	-8.12852
buka	-8.12977
▁berada	-8.12991
▁Da	-8.13134
▁luar	-8.13353
▁As	-8.13457
tiap	-8.13892
▁kemudian	-8.14107
war	-8.14615
j	-8.14703
▁November	-8.14761
▁Kami	-8.14997
▁menunjuk	-8.15206
res	-8.15419
▁14	-8.15506
orang	-8.1586
▁Ar	-8.15916
▁presiden	-8.16259
▁Desa	-8.1627
▁Waki	-8.16443
▁Tahun	-8.1647
ho	-8.16538
der	-8.16902
pu	-8.17005
▁khusus	-8.17246
▁ma	-8.17254
ahan	-8.17324
▁Pemerintah	-8.17459
os	-8.1748
▁Gaza	-8.17585
▁sebelumnya	-8.17724
▁Peng	-8.17725
▁Semarang	-8.1785
▁sosial	-8.18185
▁Ci	-8.18187
▁pukul	-8.18638
▁acara	-8.18805
mu	-8.18898
▁perempuan	-8.18925
▁dukungan	-8.18948
▁kon	-8.19237
▁Pem	-8.19451
▁8	-8.19557
▁Bi	-8.19562
ris	-8.19565
▁2023	-8.19643
▁13	-8.20154
▁membantu	-8.20157
▁kawasan	-8.20267
lima	-8.20447
▁jadi	-8.20479
Polda	-8.20543
ag	-8.20547
▁Bogor	-8.20596
▁18	-8.20632
▁Direkt	-8.207
▁Foto	-8.21053
▁Hari	-8.21157
▁Juni	-8.21257
▁Sementara	-8.21295
▁mengaku	-8.21415
▁pasangan	-8.21455
▁jalan	-8.21628
▁Jalan	-8.22147
▁11	-8.2221
v	-8.22349
▁Utara	-8.22521
▁de	-8.22741
▁Agustus	-8.22825
▁nomor	-8.22872
so	-8.22933
▁partai	-8.22969
bak	-8.2316
▁menyatakan	-8.23365
▁Nasional	-8.23496
va	-8.23582
cu	-8.23592
▁Ku	-8.23657
▁Badan	-8.23664
▁diri	-8.24076
▁Mei	-8.24171
▁ekonomi	-8.24177
▁Saya	-8.24339
ara	-8.24353
▁terakhir	-8.24491
duga	-8.24672
Kami	-8.24839
▁Ga	-8.25053
▁?	-8.25287
▁bantuan	-8.2541
▁Jadi	-8.25562
▁ko	-8.25629
dar	-8.25661
ed	-8.2579
▁memasti	-8.25991
▁16	-8.25998
▁mana	-8.26004
▁resmi	-8.26021
▁lokasi	-8.26032
jika	-8.2649
▁September	-8.26598
▁meminta	-8.26796
▁PPPK	-8.26817
▁Desember	-8.27027
dik	-8.27317
om	-8.27501
tas	-8.27525
je	-8.2761
par	-8.28367
uan	-8.2881
▁DPR	-8.28883
up	-8.28906
▁berlangsung	-8.29257
▁tengah	-8.29279
▁April	-8.2928
ent	-8.29364
▁lanjut	-8.29421
kat	-8.29456
▁meninggal	-8.2984
▁Januari	-8.30202
▁berhasil	-8.30471
▁Negeri	-8.30526
▁utama	-8.30746
sen	-8.30809
▁kondisi	-8.30972
▁awal	-8.31084
▁gambar	-8.31469
akibat	-8.31504
yo	-8.31619
x	-8.31855
▁asal	-8.3188
apa	-8.32147
▁laga	-8.32258
▁United	-8.3241
kah	-8.32462
▁17	-8.32595
▁sendiri	-8.32737
th	-8.32953
V	-8.33411
ban	-8.33711
▁Timnas	-8.33737
▁Jokowi	-8.33782
▁polisi	-8.33943
mbang	-8.33963
ernah	-8.34027
▁mobil	-8.34041
▁soal	-8.34076
▁ribu	-8.34143
▁melihat	-8.34241
w	-8.34267
ol	-8.34588
▁sesuai	-8.34752
▁Ada	-8.34862
▁ujarnya	-8.35177
▁empat	-8.35288
las	-8.35501
▁berharap	-8.35503
▁sebesar	-8.35699
diri	-8.35869
▁Para	-8.36366
▁9	-8.36398
▁30	-8.36446
akan	-8.36483
▁memper	-8.3653
▁menurut	-8.36702
▁2024,	-8.36704
▁Asia	-8.36719
▁bekerja	-8.3676
aling	-8.36802
▁kelompok	-8.36832
▁jumlah	-8.3702
▁militer	-8.37132
▁Komisi	-8.37335
▁Liga	-8.37439
▁sa	-8.37552
▁:	-8.37652
op	-8.37673
▁nama	-8.37719
▁Trump	-8.37783
aksi	-8.37796
▁Maret	-8.38455
▁le	-8.38604
dang	-8.38752
▁)	-8.38918
▁perlu	-8.38964
▁Fa	-8.39306
▁Ukraina	-8.39317
▁informasi	-8.39336
sel	-8.39356
&	-8.39405
lin	-8.39455
▁Co	-8.39719
▁hadir	-8.39753
▁22	-8.39932
▁nasional	-8.40071
▁baka	-8.40136
▁Polres	-8.40363
▁Z	-8.40521
▁barang	-8.40551
mas	-8.40572
Y	-8.40619
▁Mereka	-8.40837
▁lingkungan	-8.41145
▁Daerah	-8.41145
▁membawa	-8.41155
▁21	-8.41223
ton	-8.41233
▁Ko	-8.41409
▁n	-8.41423
▁laporan	-8.41435
rah	-8.41618
he	-8.41629
▁kendaraan	-8.4183
▁Am	-8.41869
empat	-8.41979
▁yaitu	-8.42459
▁pers	-8.42645
▁Ru	-8.42671
isasi	-8.42799
▁Ju	-8.42999
▁menjalan	-8.43046
anpa	-8.43148
▁menga	-8.43285
▁Provinsi	-8.4342
▁Anda	-8.43783
▁menerima	-8.43789
dy	-8.4393
▁KPU	-8.44073
gen	-8.44086
itas	-8.44201
▁Korea	-8.44265
▁sebelum	-8.44405
▁uang	-8.44523
angan	-8.44894
za	-8.44898
▁Iran	-8.44956
▁Pemilu	-8.45092
iala	-8.45186
usai	-8.45632
▁sebanyak	-8.45637
▁layanan	-8.45654
▁keamanan	-8.46274
po	-8.46288
tasi	-8.46515
▁dugaan	-8.46772
pat	-8.47215
▁TNI	-8.47252
▁X	-8.47333
▁To	-8.4735
▁mengungkapkan	-8.47405
'	-8.47736
▁industri	-8.47747
melawan	-8.47773
▁kepala	-8.48039
▁Ca	-8.48072
▁bi	-8.48197
▁masalah	-8.48686
▁dirinya	-8.48889
raih	-8.49156
apan	-8.4938
▁menggelar	-8.49444
▁kini	-8.49447
ry	-8.49547
▁pendidikan	-8.49591
▁bawah	-8.49658
▁23	-8.49774
▁perang	-8.50045
▁muda	-8.50057
00	-8.5016
adi	-8.50279
▁umum	-8.50341
ari	-8.50398
▁harga	-8.50482
▁Serikat	-8.50526
ham	-8.50543
▁pro	-8.50566
▁Wi	-8.50598
▁menghadapi	-8.5107
▁kampanye	-8.51573
▁data	-8.51704
▁si	-8.51744
▁Bo	-8.52026
▁Saat	-8.52099
kin	-8.52109
▁pertandingan	-8.52371
▁25	-8.52471
▁cukup	-8.52825
▁/	-8.53032
▁menjag	-8.53241
▁Ge	-8.53317
▁Anies	-8.53486
rak	-8.54077
gas	-8.541
lalu	-8.54147
▁pembangunan	-8.54354
dah	-8.54368
ram	-8.54373
▁keterangan	-8.54776
▁Pusat	-8.54821
▁segera	-8.54923
▁d	-8.5498
▁Pro	-8.55034
ns	-8.55056
▁sementara	-8.55075
%	-8.55178
anak	-8.55187
ot	-8.55322
▁langkah	-8.55344
▁surat	-8.55352
/10)	-8.55474
▁ibu	-8.55535
▁memang	-8.55594
▁tingkat	-8.55698
▁miliar	-8.55802
▁Ia	-8.55852
▁Negara	-8.55857
▁Bea	-8.55914
▁mungkin	-8.5601
▁Pu	-8.56045
▁urut	-8.56147
jar	-8.56519
mb	-8.56641
▁".	-8.56654
rasi	-8.56727
▁biasa	-8.56748
▁KPK	-8.56781
▁senjata	-8.57165
▁jelas	-8.57182
▁Yo	-8.57207
▁Papua	-8.57324
mba	-8.57338
▁ku	-8.57413
▁negeri	-8.57642
▁bukti	-8.57659
▁Solo	-8.57731
tim	-8.57741
▁lama	-8.57807
▁Pak	-8.57902
▁milik	-8.57911
▁Kantor	-8.58075
tal	-8.58228
dapat	-8.58269
ud	-8.58427
ver	-8.58439
Universitas	-8.58441
▁menang	-8.58507
▁Stadion	-8.58709
▁24	-8.58887
▁sekolah	-8.58956
▁No	-8.59094
▁pernyataan	-8.59139
▁Ya	-8.592
▁kebijakan	-8.59408
▁Ahmad	-8.59517
▁digelar	-8.59518
▁mampu	-8.59535
sehingga	-8.59718
▁sistem	-8.59896
PK	-8.59919
10	-8.60073
▁Je	-8.60115
temu	-8.6039
▁mendatang	-8.6044
▁mantan	-8.61058
lon	-8.61115
▁So	-8.61118
▁kebutuhan	-8.61207
bahkan	-8.61316
aya	-8.61359
▁internasional	-8.61593
.000	-8.61741
▁Palestina	-8.61802
bel	-8.61825
▁Mas	-8.61867
fa	-8.61918
negara	-8.61983
▁Har	-8.62432
▁mu	-8.62493
▁pejabat	-8.62926
ten	-8.62948
▁pemilu	-8.63265
▁Pra	-8.63364
▁Keterangan	-8.63375
▁He	-8.63411
▁hak	-8.63455
ron	-8.63531
PN	-8.63605
▁Polisi	-8.63639
▁hidup	-8.63656
▁merasa	-8.63825
ting	-8.63857
▁Ni	-8.63874
"	-8.63954
▁Setelah	-8.64036
kaligus	-8.64185
▁of	-8.64369
▁Ganjar	-8.64393
▁Do	-8.64586
▁su	-8.64658
▁datang	-8.64816
gar	-8.65016
▁Du	-8.65277
lis	-8.65369
▁Polri	-8.6544
▁Cukai	-8.65533
▁rasa	-8.65537
▁Kom	-8.65901
▁akhir	-8.65909
▁mendorong	-8.66094
▁siap	-8.6617
▁Kon	-8.66253
▁Untu	-8.66295
▁ucap	-8.66417
nama	-8.66548
Se	-8.66695
▁Jo	-8.66848
hal	-8.67035
▁ungkap	-8.67119
bang	-8.67241
▁hujan	-8.67271
▁Dan	-8.67292
usia	-8.67405
▁ge	-8.67409
▁wakil	-8.67447
▁Bank	-8.67633
▁makanan	-8.67718
▁aman	-8.67817
ow	-8.67829
sh	-8.67915
▁Lo	-8.67946
▁publik	-8.67966
▁Depok	-8.68093
but	-8.68116
▁sakit	-8.68152
▁pekan	-8.68323
enam	-8.68346
enuhi	-8.68347
▁eks	-8.68374
▁akhirnya	-8.68437
▁Bupati	-8.68447
▁tanah	-8.6847
▁Vi	-8.68481
ic	-8.68544
▁guru	-8.68649
▁pasar	-8.68764
▁pemimpin	-8.68921
▁terbaru	-8.68946
SI	-8.69078
▁motor	-8.69104
▁Meng	-8.69241
▁Pol	-8.69298
▁jam	-8.69306
▁Hamas	-8.69364
punya	-8.6944
au	-8.69442
.00	-8.6965
▁Kar	-8.6975
sama	-8.69783
pas	-8.70014
▁kejadian	-8.70116
▁Februari	-8.70176
▁Ch	-8.7022
▁ya	-8.70266
▁Yu	-8.70321
▁listrik	-8.70598
▁menilai	-8.70812
▁kalau	-8.71387
ip	-8.71607
laku	-8.71619
▁digunakan	-8.71824
tur	-8.71843
▁Biden	-8.71961
▁g	-8.72154
▁Wali	-8.72164
▁menegaskan	-8.72242
▁Persib	-8.72249
▁Deng	-8.72291
put	-8.72308
▁menuju	-8.72461
upaya	-8.72537
▁Nomor	-8.7255
▁Meski	-8.7255
▁Jatim	-8.72593
▁ditemukan	-8.72696
▁kapal	-8.72798
bkan	-8.72917
panjang	-8.73065
sempat	-8.73086
▁teknologi	-8.73106
▁aksi	-8.7317
rat	-8.73245
▁Banten	-8.73357
▁menambahkan	-8.73551
jang	-8.73607
▁Jepang	-8.73665
▁pemerintahan	-8.73687
▁berjalan	-8.73711
ono	-8.73985
▁Tu	-8.74156
▁peserta	-8.74354
jukan	-8.74441
ub	-8.74655
▁tewas	-8.74726
▁27	-8.7482
▁DKI	-8.74952
▁petugas	-8.75016
▁bisnis	-8.75108
▁meski	-8.75174
▁Baru	-8.75178
mat	-8.75183
▁The	-8.75401
▁maka	-8.75429
▁bali	-8.75845
▁tahu	-8.76116
if	-8.76739
▁Adapun	-8.76852
▁Pemilih	-8.77022
lak	-8.77095
▁Salah	-8.77204
▁period	-8.77347
▁Eropa	-8.77668
▁musim	-8.77734
▁pemeriksaan	-8.77798
banyak	-8.77817
▁Pertamina	-8.77862
▁kantor	-8.78106
▁sektor	-8.78195
▁berinisia	-8.7858
lihat	-8.78787
undang	-8.78798
mati	-8.78798
▁terbaik	-8.78806
sia	-8.7883
23	-8.78901
▁menemu	-8.78975
▁hubungan	-8.79256
terutama	-8.79288
▁Jenderal	-8.79302
▁Calon	-8.79328
q	-8.7934
▁diberikan	-8.79492
▁Program	-8.795
▁komitmen	-8.79521
sih	-8.79565
▁posisi	-8.79585
▁gol	-8.79593
▁Kemudian	-8.79628
rin	-8.79743
▁Hu	-8.79995
▁usaha	-8.80079
▁200	-8.8009
▁ketiga	-8.80142
▁pa	-8.80174
mer	-8.80195
dungan	-8.80253
hari	-8.80376
▁Dinas	-8.80391
▁jatim	-8.80434
▁korupsi	-8.80552
▁cua	-8.80612
anto	-8.80615
▁cepat	-8.80656
▁Subianto	-8.80695
dan	-8.80737
▁desa	-8.80862
▁potensi	-8.80949
▁Her	-8.81197
▁membangun	-8.81546
hak	-8.81561
▁Tak	-8.81757
▁meningkat	-8.82019
▁perubahan	-8.82109
▁digital	-8.82178
▁rakyat	-8.82516
wujud	-8.82584
bah	-8.83025
duk	-8.83138
▁video	-8.83267
▁berdasar	-8.83336
▁mahasiswa	-8.83574
▁keputusan	-8.83679
▁jabar	-8.83687
lam	-8.83766
▁disampaikan	-8.83769
dak	-8.84283
▁FC	-8.84371
▁Jabar	-8.84385
son	-8.84428
PP	-8.84476
▁pertemuan	-8.8465
▁Jateng	-8.84966
asar	-8.84975
we	-8.85155
▁film	-8.85276
▁mengu	-8.85371
▁nanti	-8.85433
tah	-8.85444
▁Kemen	-8.85546
▁tinggal	-8.85556
pres	-8.85582
▁bentuk	-8.85682
▁Agus	-8.85758
▁pemilihan	-8.85776
▁peningkat	-8.85837
▁kesempatan	-8.85987
▁kemenangan	-8.86119
Gibran	-8.8612
nal	-8.86316
▁ikut	-8.86317
▁Agung	-8.86332
▁disebut	-8.86332
▁tindakan	-8.86395
Saya	-8.86454
bal	-8.86602
▁PBB	-8.86617
▁Pelatih	-8.86774
▁o	-8.86877
▁perjalanan	-8.86899
▁2022	-8.87183
▁Tida	-8.87325
▁Inggris	-8.87397
▁Dewan	-8.87408
▁06	-8.87417
▁udara	-8.8747
▁jenis	-8.87473
ulang	-8.87479
pen	-8.87638
▁dekat	-8.87808
▁kurang	-8.87849
▁Ce	-8.88055
usaha	-8.88188
▁jauh	-8.88223
▁r	-8.88254
ket	-8.88388
est	-8.884
▁poin	-8.88559
▁terpilih	-8.88561
umumkan	-8.88676
▁08	-8.88781
laki	-8.88857
▁kuat	-8.89039
▁memilih	-8.89126
▁bahan	-8.89158
den	-8.89208
▁jawab	-8.89257
harapkan	-8.89347
ita	-8.89373
▁Air	-8.8955
▁Budi	-8.89561
▁cara	-8.89723
▁Gibran	-8.89855
PD	-8.89923
▁Hi	-8.89947
be	-8.90025
▁tenaga	-8.90025
ding	-8.90085
▁daya	-8.90086
▁UMKM	-8.90088
▁turun	-8.90155
▁Golkar	-8.90237
▁Po	-8.90361
▁begitu	-8.90371
▁Rumah	-8.90385
awan	-8.90393
▁kecil	-8.90511
▁Denpasar	-8.90517
perkuat	-8.90548
▁angka	-8.90588
tion	-8.9074
▁Hukum	-8.90813
▁saksi	-8.90956
rang	-8.91039
▁26	-8.91044
▁pria	-8.91064
▁menit	-8.91166
▁for	-8.91192
▁bidang	-8.91221
▁terlibat	-8.91407
AN	-8.91431
sti	-8.91494
▁Warga	-8.91522
▁arah	-8.91588
serta	-8.91807
▁pusat	-8.91857
kon	-8.91985
aman	-8.9213
▁online	-8.92154
ajak	-8.92217
▁mengingat	-8.92231
▁penuh	-8.92397
▁nilai	-8.92428
▁Man	-8.92516
▁Mus	-8.92569
▁melaporkan	-8.92596
anggap	-8.92631
ala	-8.92663
tis	-8.92664
▁ruang	-8.9275
▁Y	-8.92757
sus	-8.92854
▁mema	-8.92866
baik	-8.92978
▁operasi	-8.93193
sum	-8.93201
▁2025	-8.93375
▁w	-8.93427
ep	-8.93453
klaim	-8.93516
semakin	-8.9359
mal	-8.93668
▁PDIP	-8.93678
▁Jaya	-8.93744
mengambil	-8.93747
▁28	-8.938
hasil	-8.93804
▁Tri	-8.939
ger	-8.94065
makin	-8.94344
▁fasilitas	-8.94349
▁ditangkap	-8.94426
nilai	-8.94464
ny	-8.94621
▁rencana	-8.94685
mbar	-8.94694
▁Ad	-8.94752
bentuk	-8.94764
baru	-8.94801
▁Australia	-8.94964
lar	-8.95005
▁sumber	-8.95043
▁dampak	-8.95069
▁Gu	-8.95106
▁laut	-8.95225
▁bagaimana	-8.95232
bukti	-8.95266
▁maju	-8.95282
▁Dari	-8.95535
▁lembaga	-8.95583
masing	-8.95659
▁global	-8.95816
▁menge	-8.9582
▁sekarang	-8.95974
▁Menurutnya	-8.96018
▁pekerja	-8.96108
ty	-8.96125
hampir	-8.96172
▁29	-8.96199
▁lintas	-8.96207
AR	-8.96307
atur	-8.96409
▁07	-8.96536
▁Dunia	-8.96754
▁(3	-8.96859
IN	-8.96875
RI	-8.96904
▁positif	-8.9691
▁banjir	-8.96988
▁dibanding	-8.97155
▁Raya	-8.97161
▁satunya	-8.97223
▁honorer	-8.97225
▁peny	-8.9723
▁Riau	-8.97274
▁ASN	-8.97351
▁total	-8.97486
▁Utama	-8.97859
▁Perjuangan	-8.98016
▁kekerasan	-8.98096
▁mata	-8.98139
▁keras	-8.98369
▁tegas	-8.98466
▁pidana	-8.98494
▁Besar	-8.98498
▁unit	-8.98594
▁pagi	-8.98911
▁gubernur	-8.99135
▁penghargaan	-8.99376
▁menjela	-8.9947
din	-8.99621
dung	-8.99831
▁bermain	-8.99938
▁Pas	-9.00004
ferensi	-9.00023
bicara	-9.00076
▁menye	-9.00297
rata	-9.00326
▁pasukan	-9.00429
tin	-9.00533
▁PP	-9.00745
▁Ali	-9.00904
▁manusia	-9.01006
▁tahap	-9.01028
▁II	-9.01052
tun	-9.0108
▁tepat	-9.01134
▁and	-9.01315
peroleh	-9.01411
ika	-9.01419
▁Dr	-9.01429
▁setempat	-9.0144
▁sekali	-9.01489
▁tentu	-9.01665
ner	-9.01732
▁02	-9.01781
▁antaranya	-9.01818
MI	-9.01876
▁lapangan	-9.01911
▁mengikut	-9.02055
▁naik	-9.02071
▁09	-9.02174
45	-9.02186
▁Republik	-9.02236
onal	-9.02316
pol	-9.02358
▁UU	-9.0239
▁Yogyakarta	-9.02402
rilis	-9.02506
pri	-9.02518
▁guna	-9.02576
car	-9.02805
▁Nur	-9.02855
▁penyidik	-9.02902
▁pemilih	-9.02973
▁menyeba	-9.03001
▁Par	-9.03225
▁energi	-9.03319
▁Dua	-9.03358
▁api	-9.03358
▁berita	-9.03461
lancar	-9.03632
bila	-9.03638
NG	-9.03725
▁la	-9.0379
tapi	-9.03852
jah	-9.03877
usul	-9.03905
AM	-9.03932
▁Pri	-9.03969
▁ra	-9.03975
▁akses	-9.04245
namun	-9.04254
▁San	-9.04323
▁pelanggaran	-9.04331
PS	-9.04365
▁Muhammad	-9.04408
ster	-9.04923
▁istri	-9.04942
edung	-9.04998
Mahfud	-9.05265
▁DPRD	-9.05375
vo	-9.05378
▁sipil	-9.05437
▁04	-9.05472
▁Islam	-9.05624
lalui	-9.05659
rd	-9.05716
▁Joko	-9.0585
▁BRI	-9.05876
▁lokal	-9.06128
▁menarik	-9.06212
▁masing	-9.06227
KA	-9.06332
▁turut	-9.06368
ajar	-9.06449
▁narkoba	-9.06468
▁PDI	-9.0667
▁pengembang	-9.06764
andang	-9.06843
▁na	-9.06902
▁jalur	-9.06903
▁to	-9.07087
▁sering	-9.07106
ment	-9.07111
ajang	-9.07336
▁tubuh	-9.07337
▁sisi	-9.07639
▁akun	-9.07714
▁menghadir	-9.07758
▁01	-9.07763
br	-9.07803
▁tangan	-9.07898
▁lu	-9.07952
▁mencari	-9.07953
bakar	-9.0797
rusak	-9.0798
▁sebagi	-9.08059
▁perkara	-9.08153
jalan	-9.08242
▁berbeda	-9.08253
▁kemungkinan	-9.08301
▁belakang	-9.08302
▁sedikit	-9.08302
▁Kerja	-9.08392
ser	-9.08402
▁kualitas	-9.08477
▁fokus	-9.08677
yu	-9.08691
▁Ben	-9.08716
tro	-9.08945
▁menyebutkan	-9.08957
▁Kesehatan	-9.09097
▁demi	-9.09105
enang	-9.09265
▁ha	-9.09302
lik	-9.09335
unjuk	-9.09452
ntang	-9.09496
▁target	-9.09504
tam	-9.09508
▁demikian	-9.09542
ven	-9.09564
▁bu	-9.09574
rai	-9.0968
▁menekan	-9.09689
▁kemarin	-9.09813
untut	-9.09841
▁peran	-9.09857
ganggu	-9.09982
dal	-9.1005
X	-9.10135
mana	-9.1022
▁benar	-9.1034
daya	-9.10464
▁Anak	-9.10586
▁mudah	-9.10669
▁pengalaman	-9.10707
▁Ho	-9.10766
uji	-9.10884
rus	-9.10925
awa	-9.10987
▁organisasi	-9.11069
▁Prof	-9.11139
▁Sebelumnya	-9.11147
▁jabatan	-9.1116
▁menteri	-9.11171
▁diketahui	-9.11341
▁Dar	-9.11405
▁keuangan	-9.11434
▁Abdul	-9.1145
KP	-9.11468
▁Gus	-9.11503
ingga	-9.11529
▁luas	-9.11574
▁asing	-9.11597
▁Anggota	-9.11614
▁mencipt	-9.11646
▁tugas	-9.11685
daftar	-9.11787
bin	-9.11788
▁Widodo	-9.11796
▁situasi	-9.11796
mak	-9.11816
▁03	-9.11827
▁isu	-9.11955
▁pelaksanaan	-9.11964
▁keterangannya	-9.11978
lebih	-9.12136
▁tua	-9.12174
▁kecelakaan	-9.12253
▁Za	-9.12298
▁pembunuhan	-9.12345
▁muncul	-9.12434
▁Mem	-9.12447
▁proyek	-9.12472
▁pengguna	-9.12637
her	-9.12651
▁manfaat	-9.12704
ediakan	-9.12808
▁Karena	-9.12846
▁tuturnya	-9.12869
▁DPP	-9.12896
UNG	-9.12911
gel	-9.12929
tus	-9.13081
mil	-9.13243
▁Sumatera	-9.13266
▁Pilpres	-9.13358
▁Lebih	-9.13359
Kombes	-9.13366
mpu	-9.13474
nis	-9.13492
▁31	-9.1359
▁Kedua	-9.13639
kontribusi	-9.13874
▁Bidang	-9.14072
▁Masyarakat	-9.14102
▁Malang	-9.14159
ikuti	-9.14182
▁),	-9.14195
▁putusan	-9.14289
▁100	-9.14301
▁50	-9.14305
▁pertumbuhan	-9.14411
▁Is	-9.14424
▁ilegal	-9.14478
jat	-9.1457
▁Aceh	-9.14572
▁Laut	-9.14587
▁Humas	-9.14602
▁bicara	-9.14673
▁1,	-9.14695
▁emas	-9.14761
▁(6	-9.14778
▁Car	-9.14794
▁Sen	-9.14846
▁Demokrat	-9.14852
▁tujuan	-9.14859
had	-9.14937
▁pesawat	-9.14946
duduk	-9.15074
▁melaksana	-9.15134
laporkan	-9.15136
▁Itu	-9.15138
pak	-9.15139
irakan	-9.15222
▁makan	-9.15369
▁produksi	-9.15435
50	-9.15497
komitmen	-9.15664
▁ucapnya	-9.15671
▁sang	-9.15907
▁St	-9.16076
▁bangsa	-9.16187
dem	-9.16196
▁At	-9.16467
▁Bawaslu	-9.16471
bunuh	-9.16516
▁Tangerang	-9.16559
▁tiba	-9.16772
▁tanggal	-9.16868
▁area	-9.16874
▁Hasil	-9.17044
▁kasih	-9.17092
▁diterima	-9.17134
▁Ari	-9.17135
▁alasan	-9.17147
uku	-9.17161
▁sana	-9.17274
hat	-9.17296
▁SURA	-9.17423
▁aturan	-9.17505
kam	-9.17695
dukung	-9.17696
angkat	-9.17697
▁berupa	-9.17726
PB	-9.17828
▁Bagi	-9.1789
▁melibat	-9.17908
▁titik	-9.18026
▁dikenal	-9.18062
▁Arab	-9.18109
▁lewat	-9.18119
▁pangan	-9.18142
▁dimulai	-9.18155
aka	-9.18202
▁penyakit	-9.18295
▁Pengadilan	-9.18393
lt	-9.18394
AKBP	-9.18396
nangkap	-9.18407
▁Satu	-9.18423
▁ga	-9.1844
asan	-9.18501
tahun	-9.18525
ateng	-9.18582
▁alat	-9.18628
▁(20	-9.18695
hormat	-9.18706
▁budaya	-9.18896
alias	-9.18905
▁40	-9.1894
memimpin	-9.18979
BAYA	-9.18992
ling	-9.19042
▁kepolisian	-9.19175
▁Pendidikan	-9.19273
▁sidang	-9.19342
sal	-9.19582
alih	-9.19605
bagian	-9.19667
▁(18	-9.19674
percaya	-9.19715
▁Sekretaris	-9.19766
▁survei	-9.19766
".	-9.19865
▁tantangan	-9.19964
▁panjang	-9.20109
▁berat	-9.20109
AL	-9.20341
▁).	-9.20341
▁menu	-9.20373
bun	-9.20658
▁Kapolres	-9.20858
▁terlihat	-9.2086
NI	-9.20889
benar	-9.20934
▁pilihan	-9.21109
angga	-9.21117
▁(22	-9.21169
▁personel	-9.21259
▁unggul	-9.21302
▁peluang	-9.21347
langgar	-9.2137
▁bola	-9.21425
▁Apa	-9.2144
▁kunjungan	-9.2149
▁Sam	-9.21502
▁kepentingan	-9.2156
larang	-9.21571
oli	-9.21761
wah	-9.21786
▁bencana	-9.21887
▁terbesar	-9.21914
olah	-9.22088
▁tuju	-9.22112
▁pendukung	-9.22132
elapan	-9.22141
▁tampil	-9.22239
sep	-9.22265
▁melanjutkan	-9.22266
▁anggaran	-9.22268
▁Kalau	-9.22571
▁mer	-9.22617
buru	-9.22625
ANG	-9.22641
enggak	-9.22767
▁Uni	-9.22892
ning	-9.22896
▁seleksi	-9.22979
▁perk	-9.23099
▁usia	-9.23181
▁Kasus	-9.2327
jen	-9.23314
▁mencatat	-9.23332
▁aktif	-9.23399
▁(19	-9.23496
ug	-9.23567
▁konflik	-9.23591
▁membaha	-9.2367
▁Selama	-9.23854
▁triliun	-9.23899
ren	-9.239
▁(21	-9.23942
?	-9.242
RT	-9.24208
ine	-9.24276
▁badan	-9.24284
▁penjara	-9.24315
jamin	-9.24441
▁trans	-9.24454
basis	-9.24478
▁tokoh	-9.24509
icu	-9.24567
▁pasti	-9.24727
mpang	-9.24743
IP	-9.24785
awal	-9.24914
▁Ibu	-9.24923
▁musik	-9.25041
▁memenang	-9.25079
▁(24	-9.25121
ifikasi	-9.25315
ologi	-9.25346
PA	-9.25407
▁memb	-9.25528
▁pesan	-9.2563
▁investasi	-9.2577
PU	-9.25814
▁Pos	-9.25841
▁strategis	-9.25887
mula	-9.25905
sari	-9.25978
AS	-9.26075
▁pelayanan	-9.26085
▁penyelenggara	-9.26325
▁(30	-9.26642
▁Lampung	-9.26654
▁lahan	-9.26732
▁dini	-9.26766
▁sehat	-9.26811
elesaikan	-9.26861
arah	-9.26879
▁formasi	-9.26931
▁luka	-9.27011
▁kinerja	-9.27142
▁provinsi	-9.27142
▁Palembang	-9.27143
▁Jerman	-9.27143
▁terbuka	-9.2722
rum	-9.2732
AT	-9.27336
ib	-9.27395
▁DPD	-9.27463
▁aku	-9.2748
ahkamah	-9.27569
▁Sebagai	-9.27577
lepas	-9.27867
▁sini	-9.27869
▁BUMN	-9.27997
▁final	-9.28001
▁tindak	-9.28008
▁We	-9.28059
cah	-9.28088
bagi	-9.28261
▁dilaksanakan	-9.28319
tahanan	-9.28374
ly	-9.28383
▁diper	-9.2841
▁Oleh	-9.28536
tujuan	-9.28575
▁solusi	-9.28638
▁memutus	-9.28645
▁penumpang	-9.28756
BP	-9.28807
▁Metro	-9.28825
syah	-9.28844
▁siapa	-9.28873
▁jelasnya	-9.29043
▁(15	-9.29078
aji	-9.29197
▁keluar	-9.29285
PAN	-9.2933
▁Pasal	-9.29509
▁Korupsi	-9.29618
▁gratis	-9.29837
▁Bekasi	-9.29839
▁Nusantara	-9.29946
lantar	-9.30018
▁BMKG	-9.30177
▁Sri	-9.30233
▁menurun	-9.30388
▁latihan	-9.30416
▁aktivitas	-9.30496
▁perdana	-9.30497
▁En	-9.30747
les	-9.31057
▁El	-9.31184
▁JPNN	-9.31267
tel	-9.31272
▁(29	-9.31275
▁pekerjaan	-9.31322
jauh	-9.31413
▁Prancis	-9.31489
▁biaya	-9.31533
1/	-9.31674
ambil	-9.31707
▁generasi	-9.31711
catat	-9.31731
rem	-9.31775
▁sampah	-9.31822
▁teman	-9.31834
▁ternyata	-9.31974
▁penggunaan	-9.32088
ator	-9.32126
▁non	-9.32163
wo	-9.32334
▁BAND	-9.32381
▁mengungkap	-9.32412
▁pentingnya	-9.32528
lengkap	-9.32536
ler	-9.32571
▁tampak	-9.32606
kh	-9.32667
▁Pang	-9.32712
pendaftaran	-9.32751
▁diperk	-9.32766
▁siswa	-9.32832
▁putra	-9.32849
▁India	-9.32918
▁menolak	-9.32944
▁peristiwa	-9.33015
▁bus	-9.33153
▁Sumber	-9.3317
qu	-9.33216
mah	-9.33318
guna	-9.33348
▁Dis	-9.33441
ben	-9.33455
hentikan	-9.33463
bas	-9.33613
embangan	-9.33813
by	-9.33861
bit	-9.3398
▁sulit	-9.34096
▁semangat	-9.3419
▁(17	-9.34199
dam	-9.34274
▁Gerindra	-9.34304
▁demokrasi	-9.34304
▁aplikasi	-9.34326
▁Filipina	-9.34418
▁Kalimantan	-9.34418
▁jaringan	-9.34533
IM	-9.34646
IS	-9.34648
▁wartawan	-9.34762
tidak	-9.34769
▁Q	-9.34991
▁penyelidikan	-9.34992
▁pengelola	-9.35026
ewas	-9.35078
▁lagu	-9.35107
pel	-9.3512
lok	-9.35134
▁ditetapkan	-9.35222
lindungi	-9.35222
mbu	-9.35295
▁Instagram	-9.35337
▁pelatih	-9.35398
▁2,	-9.35409
▁kematian	-9.35467
▁Berdasar	-9.35569
▁hakim	-9.3557
20	-9.35673
awak	-9.35712
▁ratus	-9.35722
dampingi	-9.35801
▁Ramadan	-9.35801
▁pimpinan	-9.36032
▁pribadi	-9.36032
▁buat	-9.36091
▁paslon	-9.36267
▁05	-9.36284
siapkan	-9.36304
▁War	-9.36491
▁pertahanan	-9.36491
iring	-9.36501
▁(26	-9.36505
▁petani	-9.36507
nto	-9.36679
▁(13	-9.36857
▁PKB	-9.36858
asal	-9.36864
log	-9.36898
angku	-9.37017
▁judi	-9.3712
kuasa	-9.37187
▁ringan	-9.37209
▁meluncur	-9.37214
▁ancaman	-9.37261
▁Ilustrasi	-9.37319
▁Lebanon	-9.37319
▁keter	-9.37418
▁mengetahui	-9.37437
▁Go	-9.37451
▁HAM	-9.37524
▁Ne	-9.37576
▁komunitas	-9.37673
unggu	-9.3775
▁selatan	-9.37798
▁Undang	-9.37831
▁Malaysia	-9.38265
▁skor	-9.38275
▁dasar	-9.38313
▁penye	-9.38353
▁signifikan	-9.38384
▁hati	-9.38416
▁Perdana	-9.38506
▁hukuman	-9.38507
▁kenaik	-9.38565
▁Putih	-9.38623
▁(16	-9.38629
▁kar	-9.38732
▁kelas	-9.38734
▁Baswedan	-9.38981
▁kolaborasi	-9.38981
▁perhatian	-9.38982
koordinasi	-9.39013
mencegah	-9.39102
pilih	-9.39139
▁MK	-9.393
laya	-9.39318
▁ulang	-9.39343
▁beras	-9.39432
▁peringatan	-9.39581
▁menjabat	-9.39581
▁jajaran	-9.39582
▁rangka	-9.39593
lek	-9.39662
stra	-9.39704
▁Sin	-9.39708
▁menetap	-9.39822
▁Kali	-9.39831
▁Pasar	-9.39962
nyambut	-9.39998
▁Serang	-9.40013
▁Korban	-9.40307
BK	-9.40392
▁dikutip	-9.40552
sul	-9.40557
▁kekuatan	-9.40565
dap	-9.4064
▁Tenggara	-9.4067
▁libur	-9.40671
▁TPS	-9.40684
van	-9.40699
ancam	-9.40701
rap	-9.40748
▁ANTARA	-9.40779
▁menghadiri	-9.40799
▁gelar	-9.40832
▁2023.	-9.4089
▁Gunung	-9.40915
▁mengirim	-9.40916
mengurangi	-9.41048
▁juara	-9.41166
▁Mantan	-9.41173
jam	-9.41297
bangun	-9.41315
▁dokter	-9.4132
top	-9.41382
▁New	-9.41507
4/	-9.41557
▁(14	-9.41739
▁(11	-9.41784
ustru	-9.41799
▁pegawai	-9.41804
▁platform	-9.41806
TP	-9.4181
▁rapat	-9.41822
cer	-9.41827
▁Im	-9.41891
▁Keuangan	-9.41896
▁kemampuan	-9.42018
▁membutuhkan	-9.42018
▁Suriah	-9.42021
▁terima	-9.4206
▁Sal	-9.42083
▁Paris	-9.42107
▁inovasi	-9.42175
▁perbatasan	-9.42222
▁Pilgub	-9.42266
potensi	-9.4231
lly	-9.42313
one	-9.42326
▁alam	-9.42356
▁Han	-9.4244
▁Kegiatan	-9.42513
▁gagal	-9.42646
▁Sat	-9.42804
lantik	-9.42814
▁Tol	-9.42921
▁BBC	-9.43101
▁minggu	-9.43121
▁MotoGP	-9.43135
lari	-9.43184
ketua	-9.4323
▁foto	-9.4327
ct	-9.43368
▁Berikut	-9.43385
rta	-9.43523
▁berkelanjutan	-9.43652
egang	-9.43658
▁vs	-9.43692
▁anti	-9.43712
▁Pj	-9.43734
▁momen	-9.43754
▁Orang	-9.43845
Ke	-9.43919
▁izin	-9.44043
gerakan	-9.44141
▁mengatas	-9.44181
▁bebas	-9.44225
▁Sebab	-9.44266
tek	-9.44464
▁Internasional	-9.44517
▁boleh	-9.44517
▁aparat	-9.44671
was	-9.44767
▁Min	-9.44829
▁Siap	-9.44928
kota	-9.45012
PI	-9.45113
my	-9.45182
uddin	-9.45266
▁wisata	-9.45373
▁Hasto	-9.45409
▁Kita	-9.45434
▁konsumen	-9.45534
▁Adi	-9.45746
eluarkan	-9.45805
▁2021	-9.4592
▁berisi	-9.45921
rangkai	-9.45927
▁penjual	-9.46048
▁menawar	-9.46051
▁jadwal	-9.46142
fer	-9.46158
▁Sulawesi	-9.46175
▁Ridwan	-9.46175
▁Pembangunan	-9.46176
▁mencoba	-9.46176
▁Wilayah	-9.46304
▁Er	-9.46404
$	-9.46433
▁puluhan	-9.46474
berangkat	-9.46509
kes	-9.46532
▁siang	-9.46669
▁Pihak	-9.46696
▁Muda	-9.46702
▁60	-9.46706
▁Bandara	-9.46805
▁risiko	-9.46821
▁Grup	-9.46822
▁;	-9.46939
▁Shin	-9.46968
olusi	-9.46998
dampak	-9.47042
abu	-9.47111
▁penerima	-9.47211
SK	-9.47216
-20	-9.47217
▁III	-9.47258
▁kader	-9.4747
ation	-9.47503
onfirmasi	-9.47731
▁(28	-9.4774
▁selesai	-9.47926
▁Operasi	-9.47993
▁Yang	-9.48001
tengah	-9.48006
▁sejarah	-9.48127
▁pemberi	-9.48132
ON	-9.4816
gara	-9.48236
menunggu	-9.48252
▁kemanusiaan	-9.48255
▁harapan	-9.48259
▁undang	-9.48279
▁tutur	-9.48304
▁RS	-9.48368
sepeda	-9.48384
▁debat	-9.48385
▁Saudi	-9.48521
▁sukses	-9.48539
▁DEN	-9.48565
▁menyerah	-9.48574
pasti	-9.48747
▁Sya	-9.48816
▁penduduk	-9.48873
ASAR	-9.48946
AP	-9.49008
▁Rakyat	-9.49046
▁agama	-9.49047
▁IKN	-9.49048
mbo	-9.49058
etapan	-9.49085
▁Panta	-9.491
PT	-9.49256
yanto	-9.49346
▁Ir	-9.49417
rek	-9.49429
▁Center	-9.49445
▁Trans	-9.49448
isme	-9.49498
▁Politik	-9.49589
▁MA	-9.49694
▁dibawa	-9.4972
▁Perempuan	-9.49843
▁Rakabuming	-9.49976
▁kabupaten	-9.49976
kumpul	-9.50035
▁kebakaran	-9.50122
▁menuturkan	-9.50244
ood	-9.50306
▁kalah	-9.50341
▁Begini	-9.50378
▁bangunan	-9.50445
▁bersih	-9.50484
ft	-9.50511
angkut	-9.50632
▁komp	-9.50696
▁International	-9.50781
▁Group	-9.50782
▁bagus	-9.50782
▁sore	-9.50803
main	-9.50858
▁mengakui	-9.50906
▁Thailand	-9.50916
▁tertinggi	-9.50956
▁uji	-9.51035
▁kandidat	-9.51051
▁tari	-9.51075
rs	-9.51088
▁gabungan	-9.51098
ngusung	-9.51212
lia	-9.51317
▁kehidupan	-9.51322
▁mengembang	-9.51323
mengamankan	-9.51413
mudah	-9.51458
▁meter	-9.51489
▁jasa	-9.51568
▁Koordinator	-9.51593
rawat	-9.51628
KI	-9.51651
▁kategori	-9.51729
▁berkembang	-9.51729
▁Raka	-9.51847
▁Indra	-9.5201
▁status	-9.52096
tembak	-9.52104
▁memasuk	-9.52128
lokasi	-9.5219
ity	-9.52199
ov	-9.52231
▁sosok	-9.52274
▁Un	-9.52286
rawan	-9.52295
▁lakukan	-9.5237
oko	-9.52397
▁CPNS	-9.52411
adaan	-9.52465
▁kesejahteraan	-9.52685
PM	-9.52835
land	-9.52938
▁dinilai	-9.53104
▁mitra	-9.53113
hen	-9.53147
dera	-9.53159
▁berlaku	-9.5319
▁bergabung	-9.53226
iapkan	-9.53232
Pemkab	-9.53255
▁Dukung	-9.53375
paksa	-9.53453
hati	-9.53455
lapor	-9.53526
12/	-9.53546
ampung	-9.537
▁pos	-9.53703
▁Sukabumi	-9.53789
▁Airlangga	-9.53789
!	-9.53928
▁jiwa	-9.53946
ill	-9.53979
▁bergerak	-9.54068
▁Forum	-9.54279
▁percaya	-9.54289
▁perlin	-9.54329
eringkat	-9.54344
▁pemungut	-9.54433
lit	-9.54438
▁rendah	-9.54628
menyerang	-9.54783
mbilan	-9.54817
▁Taiwan	-9.54907
gra	-9.54924
migrasi	-9.54926
▁karya	-9.551
nak	-9.55195
▁kabar	-9.5522
cakup	-9.5533
ER	-9.55385
gam	-9.55426
▁Khusus	-9.55469
▁terdampak	-9.55473
▁arus	-9.55517
adu	-9.55525
▁Sub	-9.55653
15	-9.55712
▁beragam	-9.55758
▁Pertahanan	-9.56001
▁infrastruktur	-9.56035
▁putri	-9.56057
▁massa	-9.56084
▁terdakwa	-9.56101
prioritas	-9.56177
▁truk	-9.56181
jawab	-9.5621
▁balik	-9.5633
▁antar	-9.56441
▁rudal	-9.56466
▁hilang	-9.56473
▁nyata	-9.56647
tugas	-9.56681
▁Sumsel	-9.56748
▁Olimpiade	-9.5689
▁insiden	-9.5689
▁pemilik	-9.56892
▁sebenarnya	-9.56896
▁pengawasan	-9.569
▁Pelaku	-9.5702
▁juru	-9.57098
encana	-9.57188
▁Informasi	-9.5732
▁klub	-9.57322
▁Hotel	-9.57336
▁dokumen	-9.5738
▁Medan	-9.57438
▁strategi	-9.57448
wajib	-9.57459
▁seharusnya	-9.57464
▁Tanah	-9.57507
SDM	-9.5764
mohon	-9.57711
▁Kelurahan	-9.57753
▁puncak	-9.57756
▁lulus	-9.579
▁Pemain	-9.57961
▁perdagangan	-9.58042
▁pajak	-9.58085
▁era	-9.58146
kesepakatan	-9.58187
Ini	-9.58325
▁Lebaran	-9.58335
▁ayah	-9.5836
▁Pasangan	-9.58376
▁pelatihan	-9.58455
▁Jal	-9.58472
▁impor	-9.58478
▁mela	-9.58518
▁visi	-9.58539
▁tema	-9.58543
▁tambahan	-9.58545
MK	-9.58582
raya	-9.58631
▁minyak	-9.5877
bangkit	-9.58773
IK	-9.5878
Pemprov	-9.58783
partisipasi	-9.58809
otong	-9.5884
mcr	-9.58917
tidaknya	-9.58951
▁pengungsi	-9.59062
tensi	-9.59088
▁Garuda	-9.59208
▁2020	-9.59262
▁darah	-9.59275
pon	-9.59318
▁pilkada	-9.59354
▁jangan	-9.59501
▁tiket	-9.59527
▁kalangan	-9.59652
▁tulis	-9.5966
▁ahli	-9.59717
▁Bung	-9.59735
▁merah	-9.59752
bintang	-9.59782
▁perawatan	-9.59798
▁buruk	-9.5982
bes	-9.60043
▁Hizbullah	-9.6009
▁pelanggan	-9.6009
▁Award	-9.60095
gizi	-9.6021
▁tertulis	-9.60239
ukur	-9.60244
habis	-9.60263
▁genca	-9.60269
raja	-9.60286
▁PKS	-9.60287
▁berakhir	-9.60306
▁Acara	-9.60307
▁Megawati	-9.60386
▁kulit	-9.60412
.30	-9.60415
bor	-9.60429
▁Kemenkumham	-9.60535
▁sanksi	-9.60535
▁utara	-9.60696
▁Tinggi	-9.60733
▁sabu	-9.60842
▁Eks	-9.61023
▁Dewi	-9.61054
▁memperingat	-9.61131
▁ekspor	-9.61138
▁Harga	-9.61554
ola	-9.61559
25/	-9.61565
▁senior	-9.61592
▁maksimal	-9.61686
KOTA	-9.61731
rancang	-9.61744
▁Putra	-9.61849
▁Kaesang	-9.61881
sya	-9.61935
▁tanda	-9.61994
▁mendesak	-9.62031
▁paket	-9.62075
egal	-9.62145
▁Batu	-9.62288
kot	-9.62296
▁Keamanan	-9.62337
▁kursi	-9.62339
RA	-9.62341
▁Lalu	-9.62392
▁serius	-9.62508
kali	-9.62533
▁gram	-9.62557
endra	-9.62565
penanganan	-9.62585
▁Vietnam	-9.62635
▁PSI	-9.62719
▁AI	-9.62752
▁permintaan	-9.62787
▁diselengga	-9.62939
▁Banyak	-9.62969
▁tata	-9.6305
▁misi	-9.63058
▁segala	-9.63105
antara	-9.632
hadiri	-9.63309
▁tambah	-9.6333
▁bank	-9.63516
betul	-9.6366
▁Ham	-9.63663
cinta	-9.63731
▁kompetisi	-9.63736
▁saling	-9.63745
▁rutin	-9.63862
▁Eri	-9.639
▁Khofifah	-9.64009
▁iklim	-9.6401
▁penerbangan	-9.6401
Penjabat	-9.64015
▁berperan	-9.64021
▁menambah	-9.64137
▁diminta	-9.64184
▁wali	-9.64212
▁Ab	-9.64272
jaya	-9.64282
▁kejahatan	-9.64317
batasan	-9.64332
▁sikap	-9.64372
▁Far	-9.6441
▁syarat	-9.64415
▁pengadilan	-9.64472
▁tertentu	-9.64473
▁Mul	-9.6455
▁For	-9.64599
▁Pemkot	-9.64602
Q	-9.64605
▁tentara	-9.64626
saudara	-9.64627
▁Film	-9.64782
▁Pulau	-9.64782
▁MPR	-9.64873
▁ungkapnya	-9.64874
ASN	-9.64934
▁Ekonomi	-9.64936
▁Jasa	-9.64952
▁Padang	-9.65018
▁mendaftar	-9.65059
▁Kamil	-9.65171
ex	-9.65216
▁panas	-9.65245
▁Lembaga	-9.65247
HO	-9.65391
▁Natal	-9.654
hancur	-9.65468
▁Harris	-9.65485
tivitas	-9.65573
rekomendasi	-9.65715
▁menimbul	-9.65715
pindah	-9.65735
▁AKP	-9.65756
▁yakin	-9.65778
▁Nas	-9.65988
Irjen	-9.66028
▁kiri	-9.66041
▁Pertama	-9.66064
▁upa	-9.66065
suka	-9.6623
II	-9.66298
▁mengapresiasi	-9.66342
▁City	-9.66352
▁Juru	-9.66397
balap	-9.66442
/2024)	-9.66506
BN	-9.66602
bulan	-9.66624
▁Makassar	-9.66658
▁Data	-9.66751
▁perjanjian	-9.66781
▁Senayan	-9.66816
▁pertanian	-9.66974
▁Sleman	-9.66976
kritik	-9.66991
mencetak	-9.67212
pengaruh	-9.6722
ew	-9.67294
▁35	-9.67338
▁pener	-9.67475
Donald	-9.67616
▁intens	-9.67621
▁operasional	-9.67636
pakai	-9.67661
▁putih	-9.67769
▁Marc	-9.68162
unjung	-9.68202
▁memanfaatkan	-9.68211
▁Polresta	-9.68214
▁kepemimpinan	-9.68249
-19	-9.6826
▁leg	-9.68329
▁dipimpin	-9.68409
▁gugatan	-9.68443
▁sehari	-9.68523
▁kilometer	-9.6857
▁olahraga	-9.6857
▁tuduhan	-9.6857
▁penyebab	-9.6857
BPBD	-9.68575
▁materi	-9.68591
▁terkena	-9.68609
▁Kampung	-9.68642
ambang	-9.687
▁Merah	-9.68778
pertahankan	-9.689
distribusi	-9.68924
▁medis	-9.68928
DI	-9.68987
val	-9.69006
▁Chi	-9.69052
▁berawan	-9.69082
▁Serangan	-9.69261
UM	-9.69377
▁rokok	-9.69378
▁tambahnya	-9.69386
RB	-9.69413
ze	-9.69458
▁apresiasi	-9.6954
▁parlemen	-9.6954
rektorat	-9.69746
▁Joe	-9.69773
gapi	-9.69774
▁Kris	-9.69806
▁Industri	-9.69866
▁transaksi	-9.69903
▁2019	-9.7003
▁konser	-9.70248
▁ditahan	-9.70328
▁tangga	-9.7033
▁zona	-9.70358
▁pelajar	-9.70376
▁Soe	-9.70442
kehilangan	-9.70521
▁Perusahaan	-9.70523
▁gempa	-9.70524
hitungan	-9.70526
▁komunikasi	-9.70547
▁ide	-9.70552
indo	-9.70656
PO	-9.70665
▁pencarian	-9.70684
▁angin	-9.70806
Undang	-9.70825
cerita	-9.70884
adakan	-9.70896
kom	-9.71009
▁diskusi	-9.71013
▁VOA	-9.71013
▁mesin	-9.71061
▁Mandiri	-9.71073
AD	-9.71154
▁Motor	-9.71234
▁Penye	-9.7124
▁Akt	-9.71247
▁barat	-9.71328
-3	-9.71365
ikat	-9.71383
UN	-9.71429
erahkan	-9.71501
▁mendengar	-9.71509
gantung	-9.71511
▁diambil	-9.71599
▁laman	-9.71668
BI	-9.71668
▁bupati	-9.71675
evaluasi	-9.71841
jun	-9.71843
pora	-9.71899
▁haji	-9.71945
▁Washington	-9.72007
▁persiapan	-9.72009
▁dulu	-9.72035
▁tuan	-9.72117
▁suami	-9.72225
▁terang	-9.7225
mengalahkan	-9.72259
▁Dwi	-9.72259
▁obat	-9.72285
▁kaki	-9.72292
▁penelitian	-9.72309
kelola	-9.72316
▁Andi	-9.72426
erwakilan	-9.72436
▁putaran	-9.72509
▁Jik	-9.72532
▁Tae	-9.72588
▁Pria	-9.72633
vin	-9.72635
▁Iskandar	-9.72676
▁meyakin	-9.72676
▁mengubah	-9.72879
▁kontra	-9.73003
prediksi	-9.73011
▁atlet	-9.73016
cia	-9.73215
▁Arif	-9.73235
izin	-9.73321
▁penegak	-9.7335
▁Hujan	-9.7335
▁Putri	-9.73357
▁sah	-9.73412
▁gedung	-9.73432
▁Angkat	-9.73567
▁ketat	-9.73643
▁jatuh	-9.73691
GOR	-9.73692
▁Lingkungan	-9.73856
ight	-9.74115
▁Digital	-9.74196
▁Persis	-9.74218
▁kontrak	-9.74229
▁imbuh	-9.74366
▁Nusa	-9.74375
pot	-9.74399
▁minuman	-9.74425
▁coba	-9.74552
▁pertanyaan	-9.74708
▁Hakim	-9.7471
▁penangkapan	-9.7471
ros	-9.74714
▁mudik	-9.74791
teman	-9.74796
iyah	-9.7483
ddy	-9.74884
▁pulang	-9.74888
▁Manage	-9.75006
▁Layan	-9.75015
▁Kepula	-9.75058
langkah	-9.75174
▁Pin	-9.75207
alurkan	-9.75233
0.000	-9.75239
▁Sosial	-9.75266
KPU	-9.75279
▁memungkin	-9.75395
▁Karawang	-9.75395
erapkan	-9.75456
▁Petugas	-9.75461
▁Jam	-9.75526
terlalu	-9.75562
▁Kejaksaan	-9.75567
▁dr	-9.75573
▁kehadiran	-9.75594
CEO	-9.756
letak	-9.75778
▁Festival	-9.75781
▁fisik	-9.75803
▁Pemberantas	-9.7592
▁80	-9.75929
operasi	-9.75988
sabu	-9.76074
▁oknum	-9.76086
▁selamat	-9.76117
gabung	-9.76214
des	-9.76245
besar	-9.76264
▁hutan	-9.76285
suatu	-9.76388
▁Bar	-9.764
▁rela	-9.76462
udin	-9.76613
▁berarti	-9.76627
hon	-9.76732
▁praktik	-9.76783
▁kereta	-9.768
▁Madura	-9.76958
▁pantai	-9.76958
subsidi	-9.76962
▁Gol	-9.76967
UI	-9.77006
▁kapasitas	-9.77132
▁bayi	-9.77146
▁susu	-9.77162
DA	-9.77169
▁sepak	-9.77229
▁Bambang	-9.77278
▁Afrika	-9.77308
▁menutup	-9.77311
▁membeli	-9.77319
buk	-9.77369
▁Surat	-9.77388
jangkau	-9.77472
Muhaimin	-9.77483
▁fungsi	-9.77484
macam	-9.77493
dekatan	-9.77556
▁Dewa	-9.77662
wati	-9.77712
▁gu	-9.77758
▁Pranowo	-9.77836
▁longsor	-9.77836
▁persoalan	-9.77836
produksi	-9.77864
hitung	-9.78011
▁pabrik	-9.78013
▁Polsek	-9.78014
cil	-9.7814
nyatakan	-9.78159
▁Daya	-9.78182
▁perekonomian	-9.7819
▁standar	-9.7819
apten	-9.78211
▁Imigrasi	-9.78342
▁kementerian	-9.78367
▁menarget	-9.78367
AH	-9.78382
Sudah	-9.78463
▁the	-9.78504
▁teknis	-9.78546
▁Mobil	-9.78546
▁hewan	-9.7855
▁penu	-9.78646
▁Pengawas	-9.78723
▁damai	-9.78724
▁Con	-9.78835
▁Rus	-9.78843
▁Persebaya	-9.78901
▁SEMARA	-9.78901
▁batas	-9.78936
▁ditemui	-9.7896
▁diamankan	-9.78967
▁faktor	-9.79079
▁pemenang	-9.79218
▁profesional	-9.79258
▁Gen	-9.79361
dha	-9.79406
▁menentukan	-9.79437
▁kampus	-9.79438
▁belajar	-9.7944
mbung	-9.79458
▁tol	-9.79469
▁fitur	-9.79623
▁Guru	-9.79635
▁dibuat	-9.79645
kaitan	-9.79704
anggung	-9.79706
▁keduanya	-9.79756
sinergi	-9.79978
enjaga	-9.8
▁lawan	-9.8003
eluruh	-9.80041
dakwa	-9.80081
Jadi	-9.8013
▁SAR	-9.8015
▁Semua	-9.80162
▁Bakal	-9.80182
ngunjungi	-9.80214
yong	-9.80219
-23	-9.80273
▁pengamanan	-9.80341
▁aset	-9.80385
▁Tanjung	-9.80519
▁buku	-9.80544
▁Tapi	-9.80552
▁bahasa	-9.80553
▁Karya	-9.80578
▁Hadi	-9.80612
baya	-9.80661
elawan	-9.8076
▁bertaj	-9.80816
▁mendalam	-9.80921
▁mengonsumsi	-9.81075
Z	-9.81137
▁Beijing	-9.81247
▁Surakarta	-9.81247
▁dahulu	-9.81247
▁Tiga	-9.81281
mpulkan	-9.8137
▁Geo	-9.81379
▁Pelabuhan	-9.8143
▁menyorot	-9.81432
▁Ram	-9.81657
▁kandung	-9.81682
▁konten	-9.8171
▁berwenang	-9.81797
▁Peraturan	-9.81984
▁capres	-9.81989
▁kerap	-9.82082
stri	-9.82094
▁Kepolisian	-9.82165
▁efektif	-9.82194
nding	-9.82368
mata	-9.82377
▁khawatir	-9.82453
deklarasi	-9.82534
▁seksual	-9.82534
▁bertanggung	-9.82536
▁Or	-9.82556
▁Den	-9.82641
perluas	-9.8267
▁Patr	-9.8268
landia	-9.82714
percepat	-9.8272
▁Turki	-9.82769
▁Produk	-9.82772
bantah	-9.82774
▁penurunan	-9.82905
▁darurat	-9.82905
▁kemajuan	-9.82905
▁Indo	-9.8292
▁sambung	-9.82934
Seperti	-9.8295
▁pula	-9.83004
▁News	-9.83031
▁tes	-9.83034
▁pasien	-9.83094
▁Pekerja	-9.83124
DO	-9.83165
▁hitam	-9.83282
edar	-9.83354
tabilitas	-9.83366
▁Konstitusi	-9.83463
▁kerugian	-9.83464
▁menampi	-9.83467
▁Muslim	-9.83482
▁70	-9.835
▁tanggung	-9.83543
▁senang	-9.83619
▁Kelompok	-9.8365
rujuk	-9.83696
▁Cha	-9.83826
▁Teknologi	-9.83838
▁Netanyahu	-9.84025
▁Sekolah	-9.84028
judul	-9.84029
▁Putin	-9.84118
engendara	-9.84131
pasang	-9.84181
▁Ayu	-9.84184
▁timur	-9.84208
▁diberi	-9.84215
▁pikir	-9.84221
▁kerusakan	-9.84231
urnamen	-9.84235
▁beroperasi	-9.8439
cha	-9.844
AC	-9.84451
enny	-9.8453
▁Sungai	-9.84591
▁grup	-9.84591
yono	-9.84667
▁Tur	-9.8467
▁Masjid	-9.8478
▁Bersama	-9.84814
tempat	-9.84818
▁memaham	-9.84841
wawancara	-9.8497
▁menengah	-9.8497
▁Pekanbaru	-9.8497
▁diperlukan	-9.84972
lansir	-9.84976
▁kecamatan	-9.85158
▁layak	-9.85185
▁Kompol	-9.85199
▁pengusaha	-9.85329
▁Keluarga	-9.85349
▁batu	-9.85409
mbah	-9.85519
▁konsisten	-9.85539
▁kunci	-9.85539
▁Qatar	-9.8554
▁serupa	-9.85544
pisah	-9.85585
▁kaya	-9.85705
angkatan	-9.85739
▁kese	-9.85751
▁pengirim	-9.85923
AI	-9.85993
puluh	-9.86063
ound	-9.86104
wang	-9.86118
ninjau	-9.86124
▁Pertanian	-9.86305
win	-9.86434
▁pohon	-9.86498
prakira	-9.86503
▁wanita	-9.86695
promosi	-9.86695
▁mundur	-9.86737
jadwal	-9.86739
▁tumbuh	-9.86883
syukur	-9.86887
Emil	-9.87125
bud	-9.87151
▁tekanan	-9.87188
▁pendapatan	-9.87219
▁selanjutnya	-9.8727
▁bertahan	-9.87315
▁32	-9.87315
▁Gelar	-9.87323
cita	-9.87422
▁Pimpinan	-9.87464
▁Spanyol	-9.87464
asana	-9.87527
antisipasi	-9.87659
maksud	-9.87659
▁Ting	-9.87696
▁pengunjung	-9.87737
▁2026	-9.87854
▁Hasan	-9.87873
▁Persija	-9.88052
▁Kelas	-9.88087
▁menyusu	-9.88208
balik	-9.88287
awat	-9.8842
▁Media	-9.88433
lagi	-9.88545
▁sesuatu	-9.88559
▁akrab	-9.88637
ganda	-9.88645
EN	-9.8865
▁Anwar	-9.88651
hubung	-9.88667
▁berubah	-9.8879
nspirasi	-9.88849
▁karyawan	-9.88881
▁36	-9.88904
▁lanjutnya	-9.88923
▁peraturan	-9.89036
lip	-9.89071
sarana	-9.89114
▁berkualitas	-9.89229
▁remaja	-9.8923
▁kekuasaan	-9.89242
▁Tbk	-9.89437
▁nantinya	-9.89591
populer	-9.89625
▁Kaltim	-9.89627
▁Aparat	-9.89733
▁Martin	-9.89757
▁transportasi	-9.89824
▁Agama	-9.89829
▁Soal	-9.89878
▁Militer	-9.90024
ejahtera	-9.90025
▁Wid	-9.90111
lengkapi	-9.90146
▁Kapolda	-9.90223
▁Surya	-9.90324
gagal	-9.9033
▁umat	-9.90349
▁nasabah	-9.90423
▁Dedi	-9.90468
KPK	-9.90501
▁agenda	-9.90518
▁Sha	-9.90589
▁manajemen	-9.90623
▁Fu	-9.90644
PR	-9.90743
▁gaji	-9.90791
▁pasca	-9.90858
▁Ye	-9.90882
▁(31	-9.90882
moga	-9.90899
kunjung	-9.90901
▁pemuda	-9.91029
▁Balai	-9.91057
▁nyaman	-9.91069
▁ekstrem	-9.91227
▁Majel	-9.91302
engurus	-9.91308
▁Eric	-9.91402
▁efisien	-9.91429
▁ekosistem	-9.91429
▁jangka	-9.91543
▁Dana	-9.91549
tangani	-9.91569
▁Karno	-9.91601
ayoritas	-9.91632
▁bunga	-9.91644
▁situs	-9.91702
IC	-9.91783
▁Singapura	-9.91834
▁aktivis	-9.91834
banding	-9.92014
▁tadi	-9.92023
▁dibutuhkan	-9.92037
tinggi	-9.92261
KS	-9.92344
bebasan	-9.92383
▁mengimbau	-9.92404
▁Jumlah	-9.92446
▁Sekjen	-9.92447
▁perbaikan	-9.92449
▁Unit	-9.92479
▁Arya	-9.92484
▁membayar	-9.9265
OK	-9.92658
▁Kediri	-9.92678
▁Paul	-9.92713
▁Borneo	-9.92855
▁Sakit	-9.92861
▁meraya	-9.92879
sifat	-9.92891
hadapan	-9.92912
▁dok	-9.92954
mantau	-9.9299
▁Ros	-9.93036
▁persidangan	-9.9306
RUU	-9.93094
▁nuklir	-9.93266
▁swasta	-9.93266
▁World	-9.93472
▁Kanwil	-9.93472
▁Irak	-9.93491
▁Kim	-9.93647
▁elektabilitas	-9.93678
▁Emas	-9.93707
raf	-9.93714
TA	-9.93744
▁logistik	-9.93886
▁ibadah	-9.93886
akhir	-9.939
cy	-9.93938
▁Taman	-9.93977
▁Kapal	-9.94107
▁Setiawan	-9.94112
▁NTB	-9.94133
elum	-9.94175
▁BO	-9.9439
setara	-9.94419
▁Meteorologi	-9.94509
▁Haji	-9.94515
▁34	-9.94605
▁sungai	-9.94718
Keputusan	-9.94927
▁HUT	-9.94928
▁perayaan	-9.94935
▁minta	-9.9499
▁SMA	-9.95047
▁Pasalnya	-9.95078
▁sebut	-9.95116
▁Departemen	-9.95137
tiba	-9.95183
cipta	-9.95276
IT	-9.95285
▁identitas	-9.95347
▁Wahyu	-9.95347
▁fakta	-9.95348
▁catatan	-9.95463
▁Jogja	-9.95558
Persero	-9.95584
▁berikutnya	-9.95593
▁keselamatan	-9.95768
▁respons	-9.95768
WNA	-9.95779
▁perangkat	-9.95888
lambat	-9.95897
▁Cuaca	-9.9598
SA	-9.96058
▁90	-9.96062
▁Gianyar	-9.96192
▁bersenjata	-9.96192
▁Ade	-9.96196
▁melintas	-9.96205
Polrestabes	-9.96223
▁Bahkan	-9.96266
▁ketentuan	-9.96404
▁Mahasiswa	-9.96404
campur	-9.9641
▁pasok	-9.96497
line	-9.96555
▁permasalahan	-9.96617
▁spesial	-9.96617
▁kelahiran	-9.96617
▁teroris	-9.96622
▁Aksi	-9.96659
▁sub	-9.96667
▁menyeru	-9.96796
▁permainan	-9.96833
▁melayan	-9.96836
age	-9.9684
▁0,	-9.96859
▁lahir	-9.96887
beda	-9.96892
mengakhiri	-9.96906
▁MD	-9.96957
memperkenalkan	-9.97044
▁ASEAN	-9.97044
▁hijau	-9.97044
▁perintah	-9.97044
▁jarak	-9.97072
▁memeriksa	-9.97159
▁Nana	-9.97169
▁Maju	-9.97222
▁model	-9.97258
▁pembeli	-9.9726
▁perdamaian	-9.97294
▁mempunya	-9.97372
latih	-9.97373
▁Imam	-9.97388
MS	-9.97444
▁misalnya	-9.97472
▁militan	-9.97473
▁plastik	-9.97688
▁sandera	-9.97693
▁rekam	-9.97712
perbaiki	-9.97713
angkal	-9.97813
▁Hadir	-9.97814
▁Usaha	-9.97904
▁diperiksa	-9.97905
bantu	-9.98104
▁Bisa	-9.98223
▁tunggal	-9.98335
▁Ratusan	-9.98338
elola	-9.98358
▁wisatawan	-9.98393
ramai	-9.98452
▁PSIS	-9.98679
▁Penghargaan	-9.9877
▁Kawasan	-9.98772
▁Tetapi	-9.98837
laga	-9.98984
tic	-9.99011
▁Arema	-9.99054
menangani	-9.99183
▁Pemuda	-9.99208
▁berkolaborasi	-9.99425
▁klasemen	-9.99425
▁internal	-9.99425
▁Bantul	-9.99425
▁Kampanye	-9.99481
▁Perang	-9.9959
elamatkan	-9.99597
▁Bantuan	-9.99645
jalin	-9.99738
▁tren	-9.99856
▁sosialisasi	-9.99862
▁Sebelum	-10.0002
▁Komunikasi	-10.0008
rekrut	-10.0012
▁konsep	-10.0015
▁500	-10.0015
fisika	-10.0023
▁Ng	-10.003
▁kilogram	-10.003
menghindari	-10.003
▁aspek	-10.0031
▁Lapangan	-10.0031
ikir	-10.0038
▁desain	-10.0042
▁38	-10.0054
way	-10.0058
stik	-10.0065
▁kampung	-10.0087
▁Pelaksana	-10.0097
▁modern	-10.0097
▁Pakistan	-10.0097
▁Belanda	-10.0102
dorong	-10.0104
▁BBM	-10.011
▁Menang	-10.0112
▁PSS	-10.0114
▁bilang	-10.0116
▁jenazah	-10.0119
▁regulasi	-10.0119
satunya	-10.012
▁diseba	-10.0124
erkait	-10.0125
kelompok	-10.0141
▁University	-10.0142
▁krisis	-10.0142
CC	-10.0145
BC	-10.0146
▁Menko	-10.0162
▁Open	-10.0162
cawapres	-10.0164
ondok	-10.0168
▁darat	-10.017
@	-10.0186
▁Art	-10.02
▁Laporan	-10.0209
▁protes	-10.0209
▁York	-10.0209
bebaskan	-10.0219
undur	-10.0223
▁pembayaran	-10.0231
dalam	-10.0233
ujung	-10.0237
▁toko	-10.024
▁band	-10.0244
▁membagi	-10.0252
▁2018	-10.0254
▁Pengamat	-10.0254
▁Juanda	-10.0255
▁Bela	-10.0267
▁semifinal	-10.0277
▁perjuangan	-10.0277
ecam	-10.0299
▁Ketenagakerjaan	-10.0299
▁sukarelawan	-10.0299
elebritas	-10.0299
▁Ngur	-10.0302
▁Maka	-10.0302
Jokowi	-10.0304
▁menuduh	-10.0322
▁beliau	-10.0322
▁33	-10.0325
▁SMK	-10.0334
▁nelayan	-10.0345
▁tersedia	-10.0345
▁Kasat	-10.0347
PL	-10.0358
▁She	-10.036
▁berhenti	-10.0368
cerdas	-10.0368
▁pariwisata	-10.039
▁skuad	-10.0391
TS	-10.04
skala	-10.0405
▁memperk	-10.041
emberantas	-10.0413
▁viral	-10.0413
▁Surve	-10.0414
▁Tindak	-10.0414
▁pintu	-10.0414
▁drone	-10.0415
▁sambutan	-10.0418
▁NU	-10.0427
guyur	-10.0436
▁PPP	-10.0442
▁suaminya	-10.0453
▁kekhawatiran	-10.0459
▁Gelora	-10.0459
▁David	-10.0459
▁mengucap	-10.046
▁Sumut	-10.046
▁Alam	-10.0462
▁pengurus	-10.0463
▁mengawal	-10.0481
embus	-10.0492
jm	-10.0493
▁Klimatologi	-10.0506
▁merespons	-10.0506
▁Suara	-10.0513
utama	-10.0516
Kemen	-10.0528
pertimbangkan	-10.0529
▁sasaran	-10.053
▁Mulai	-10.0554
▁PSSI	-10.0557
▁Manusia	-10.0558
▁tambang	-10.0569
▁Mesir	-10.0577
▁Anton	-10.0578
▁diungkap	-10.0599
▁pameran	-10.0599
fokus	-10.0616
awasi	-10.0617
▁pembuka	-10.0619
▁Strategi	-10.0622
▁YOGYAK	-10.0622
▁normal	-10.0622
▁ilmu	-10.0624
▁Alex	-10.0629
bek	-10.0629
▁Atas	-10.0659
▁terseb	-10.0665
integrasi	-10.0669
▁Jember	-10.0669
ST	-10.0672
▁Angg	-10.07
▁Sebut	-10.0704
▁jurnalis	-10.0716
acu	-10.0719
▁Bangka	-10.0728
▁Andika	-10.0734
▁menganggap	-10.0735
▁Maluku	-10.074
▁studi	-10.0741
kiri	-10.0743
▁Menjela	-10.0744
BT	-10.0747
▁arti	-10.0756
▁gelo	-10.0757
▁Sidoarjo	-10.0764
▁pencurian	-10.0764
▁Langkah	-10.0764
▁Istana	-10.0764
▁hotel	-10.0764
▁pendapat	-10.0776
▁hendak	-10.0788
Kalau	-10.0788
▁Ex	-10.0791
▁kamar	-10.0798
▁bumi	-10.0807
▁Raja	-10.0824
▁Idulfitri	-10.0836
▁melanda	-10.0844
▁melepas	-10.0849
ualifikasi	-10.0857
implementasi	-10.0859
▁serentak	-10.0859
▁koalisi	-10.086
▁Akbar	-10.086
▁perairan	-10.0884
perpanjang	-10.0891
▁menghubung	-10.0894
▁doa	-10.0901
hambat	-10.0904
▁investor	-10.0908
▁Jangan	-10.0917
▁Rencana	-10.0917
▁meliputi	-10.0932
▁2017	-10.0932
BL	-10.0949
▁Lapas	-10.0954
▁Rizky	-10.0956
buang	-10.0957
▁pergi	-10.0963
▁halaman	-10.0973
▁merek	-10.0977
▁mengada	-10.0979
▁migran	-10.098
▁DIY	-10.098
▁Rafah	-10.098
▁Sidang	-10.0983
▁penonton	-10.0986
▁tamu	-10.0988
▁lebat	-10.1002
cetak	-10.1007
omentar	-10.1009
gaya	-10.1011
bahagia	-10.1016
+	-10.1029
▁administrasi	-10.1029
▁pidato	-10.1029
▁Diketahui	-10.1053
▁Myanmar	-10.1053
▁2016	-10.1054
minasi	-10.1063
▁Persik	-10.1073
▁pokok	-10.1078
▁Dn	-10.1092
▁optimal	-10.1103
▁WITA	-10.1103
▁Tingkat	-10.1106
▁kaca	-10.1115
TI	-10.1116
▁Bicara	-10.1122
▁Badung	-10.1124
berjuang	-10.1125
▁TikTok	-10.1127
▁instansi	-10.1127
▁penganiayaan	-10.1127
▁parkir	-10.1127
▁keberadaan	-10.1127
▁Aku	-10.1133
▁vol	-10.1135
▁Capres	-10.1135
Tentu	-10.114
▁pakar	-10.1144
struktur	-10.1152
▁Gresik	-10.1152
▁Kondisi	-10.1152
▁maaf	-10.1152
▁Reskrim	-10.1177
▁antusias	-10.1177
▁pola	-10.118
▁kartu	-10.1195
▁Jadwal	-10.1201
▁Pancasila	-10.1201
▁Parlemen	-10.1201
▁menj	-10.1202
▁Kabar	-10.1204
▁Bencana	-10.1228
▁KAI	-10.1229
▁pernikahan	-10.1251
▁Luthfi	-10.1251
kesulitan	-10.1251
lolos	-10.1252
▁Proses	-10.1252
▁Ketum	-10.1253
▁komentar	-10.1259
latar	-10.1276
▁merugi	-10.1277
▁Paus	-10.128
rebut	-10.1297
▁efek	-10.1297
▁berlanjut	-10.1301
EV	-10.1305
transformasi	-10.1307
desa	-10.1315
trik	-10.1317
▁Meny	-10.1321
CO	-10.1321
batalkan	-10.1329
▁ramah	-10.1333
Tujuan	-10.1335
▁peluncur	-10.1338
▁minum	-10.1346
▁Hidayat	-10.1352
▁Divisi	-10.1352
▁Banjar	-10.1353
▁Syah	-10.1359
▁Malam	-10.1367
▁beredar	-10.1373
omentum	-10.1384
▁Super	-10.1394
▁Tewas	-10.1397
GM	-10.1398
Alhamdulillah	-10.1402
▁adil	-10.1416
LI	-10.1419
▁keberlanjutan	-10.1428
▁konsumsi	-10.1428
▁bersalah	-10.1429
OM	-10.143
▁pasal	-10.1437
▁gula	-10.1446
embalikan	-10.1449
▁narkotika	-10.1453
inggung	-10.1453
▁cerah	-10.1455
jerat	-10.1472
▁Tiongkok	-10.1479
▁menjual	-10.1479
▁Wayan	-10.1496
▁Hidup	-10.1504
▁level	-10.1504
▁prestasi	-10.1504
▁modal	-10.1505
▁siar	-10.1512
▁75	-10.1516
▁menanda	-10.1517
perhatikan	-10.152
▁independen	-10.153
▁keseluruhan	-10.153
▁menyebar	-10.1531
ragu	-10.1548
▁AFF	-10.1556
▁puasa	-10.1556
▁Minta	-10.1568
ayangkan	-10.158
▁Perdagangan	-10.1581
▁inflasi	-10.1581
▁Italia	-10.1581
▁palsu	-10.1582
▁Jaksa	-10.1582
umpah	-10.1591
enaga	-10.1591
calon	-10.1599
▁pembuat	-10.1607
▁Antara	-10.1608
berencana	-10.1612
▁Honda	-10.162
▁berjanji	-10.1633
▁jemaah	-10.1633
▁PNS	-10.1635
▁Inter	-10.1644
▁PSM	-10.1645
UP	-10.1658
▁menembak	-10.1659
▁transparan	-10.1659
▁emisi	-10.1661
▁suku	-10.1673
unggah	-10.1679
▁Marquez	-10.1685
▁Akibat	-10.1685
▁penyedia	-10.1685
▁Kembali	-10.1696
kendali	-10.1701
▁berbahaya	-10.1711
▁dekade	-10.1711
▁tradisional	-10.1712
dominasi	-10.1716
▁SMP	-10.173
▁masjid	-10.1737
EM	-10.1746
▁minim	-10.175
▁Bulan	-10.1758
▁oposisi	-10.1763
▁telepon	-10.1764
▁Yayasan	-10.1764
▁Qu	-10.1767
▁Hodak	-10.1768
▁kopi	-10.1779
nggak	-10.1781
▁YouTube	-10.179
▁pedagang	-10.179
▁keadilan	-10.179
▁terbatas	-10.179
▁besok	-10.1791
neka	-10.1793
▁Gerak	-10.1798
▁Star	-10.1807
▁liar	-10.1807
SS	-10.1809
▁Akhir	-10.1816
teks	-10.1816
▁Pagi	-10.1818
▁Pengembangan	-10.1823
▁menik	-10.1826
▁Angka	-10.1836
▁Puncak	-10.1843
▁Selanjutnya	-10.1843
▁diusung	-10.1846
▁jaksa	-10.185
TB	-10.1853
saingan	-10.1853
▁mental	-10.1853
ivitas	-10.1864
▁Perlin	-10.1864
▁Moskow	-10.1869
▁Pidana	-10.1869
▁Pramono	-10.1869
▁dilanjutkan	-10.1896
▁Pernyataan	-10.1896
▁Rektor	-10.1896
▁pemadam	-10.1896
▁tanggapan	-10.1897
▁Sedangkan	-10.1897
▁Sama	-10.1921
▁dimiliki	-10.1922
▁tuntutan	-10.1923
cermin	-10.193
▁bangga	-10.1935
bilitas	-10.1944
RE	-10.1948
▁Fakultas	-10.1949
▁elektronik	-10.1949
▁karakter	-10.1949
sosiasi	-10.195
▁dikirim	-10.195
▁BKN	-10.195
▁sebab	-10.1951
stabil	-10.1959
▁Genera	-10.1962
nyanyi	-10.1962
Ribuan	-10.1968
▁Niaga	-10.1976
▁cedera	-10.1976
▁Habib	-10.1977
▁gawang	-10.1978
ecuali	-10.1981
komunikasi	-10.1998
▁Pasukan	-10.2004
untung	-10.2014
▁asli	-10.2015
▁Sultan	-10.2031
▁Boj	-10.2035
opir	-10.2048
DC	-10.2054
▁Organisasi	-10.2057
▁penipuan	-10.2057
▁singkat	-10.2057
RSUD	-10.2057
▁John	-10.2057
/2024	-10.2078
asiswa	-10.2085
▁Puluh	-10.2086
▁Sistem	-10.2111
▁Manajemen	-10.2113
▁Bumi	-10.2113
▁Penyanyi	-10.2117
▁Raff	-10.2117
▁artis	-10.2123
serang	-10.2132
▁Thohir	-10.2138
▁Cina	-10.2146
engumum	-10.2161
olong	-10.2162
▁perbuatan	-10.2166
▁optimistis	-10.2166
▁lantas	-10.2167
▁Kongres	-10.2169
▁melewat	-10.2169
▁1.000	-10.2176
▁kontesta	-10.2193
▁keuntungan	-10.2194
▁Satpol	-10.2196
▁penampilan	-10.2199
▁Net	-10.2199
umbu	-10.2201
▁Kini	-10.2206
▁(25	-10.222
▁aspirasi	-10.2221
▁peneliti	-10.2226
▁bawa	-10.2232
▁Padahal	-10.2237
▁Narkoba	-10.2248
▁menggambar	-10.2248
/11/2024)	-10.2253
panggil	-10.2253
▁Top	-10.2258
▁Ruang	-10.2259
wu	-10.2261
sekadar	-10.2262
▁evakuasi	-10.2276
▁Perhubungan	-10.2276
▁Eksekutif	-10.2281
▁diserah	-10.2288
EA	-10.2299
DPC	-10.2306
▁sisa	-10.232
▁Ungkap	-10.2331
▁kekurangan	-10.2331
▁diplomat	-10.2331
LHK	-10.2332
▁tajam	-10.2333
▁membela	-10.2339
berlakukan	-10.2352
▁Global	-10.2359
▁keunggulan	-10.2359
▁Stasiun	-10.2359
polsek	-10.2359
▁sepakat	-10.236
asuki	-10.2372
▁Demak	-10.2373
▁imbang	-10.2385
▁Honorer	-10.2387
▁Championship	-10.2387
▁ditutup	-10.2387
▁Kanada	-10.2387
▁wajah	-10.2388
ggi	-10.2392
▁Mohammad	-10.2393
▁khas	-10.2393
▁Biak	-10.2395
nyelenggara	-10.2402
▁suhu	-10.2406
▁Bengkulu	-10.2415
▁rupiah	-10.2415
▁NasDem	-10.2415
▁Kapolri	-10.2415
▁Perubahan	-10.2415
▁PLN	-10.2415
teria	-10.2416
▁peninda	-10.2416
CE	-10.2428
▁kekalahan	-10.2443
▁cukai	-10.2443
▁peredaran	-10.2443
▁pensiun	-10.2444
▁kreatif	-10.2444
ografi	-10.2458
ramal	-10.2459
ayu	-10.2466
▁suporter	-10.2471
▁unsur	-10.2471
KU	-10.2479
▁murah	-10.2483
▁Ren	-10.2486
▁garis	-10.2486
▁pulau	-10.2493
Corporate	-10.25
▁individu	-10.25
▁Kong	-10.2522
▁Afghanistan	-10.2528
▁sepenuhnya	-10.2528
▁performa	-10.2528
▁Brasil	-10.2528
▁pembebasan	-10.2537
BM	-10.254
▁DW	-10.2548
enteng	-10.255
▁tenang	-10.2556
emasyarakatan	-10.2556
▁Cirebon	-10.2556
▁Satgas	-10.2561
HI	-10.2562
jadikan	-10.2568
▁Reuters	-10.2585
▁kemiskinan	-10.2585
▁memerintah	-10.2585
▁belanja	-10.2585
▁Dokter	-10.2585
▁Risma	-10.2586
▁Gunawan	-10.2588
▁utang	-10.2596
▁pencapaian	-10.2614
▁Studi	-10.2614
▁Hong	-10.2618
▁kandang	-10.2638
▁kamu	-10.2642
▁Dipta	-10.2644
▁ditanya	-10.2659
▁Indah	-10.2663
jogja	-10.2671
▁Upaya	-10.2671
▁Kurnia	-10.2671
erjanjian	-10.2677
RC	-10.2692
▁mewakil	-10.27
otivasi	-10.27
▁pakaian	-10.2711
▁Franc	-10.2711
▁Hubungan	-10.2728
▁hektare	-10.2728
▁bersangkutan	-10.2728
▁kesalahan	-10.2729
▁tidur	-10.2729
▁dikeluarkan	-10.273
▁Grand	-10.2732
melaju	-10.2751
ndro	-10.2752
Untu	-10.2754
bekal	-10.2755
▁kompetensi	-10.2757
▁prosedur	-10.2757
▁membaca	-10.2758
▁simbol	-10.2758
▁Penyelenggara	-10.2763
▁05:	-10.2766
▁produse	-10.2767
SBS	-10.278
▁Pemimpin	-10.2786
▁hiburan	-10.2786
▁kompleks	-10.2786
▁Perwakilan	-10.2799
▁kesiapan	-10.2816
terbit	-10.2817
▁rute	-10.2821
▁Pegi	-10.2828
▁Kebudayaan	-10.2845
▁Kabid	-10.2845
▁staf	-10.2846
▁bersaing	-10.2847
meriah	-10.2867
▁Vol	-10.2868
gugat	-10.2868
ubah	-10.2873
▁penyalahguna	-10.2874
▁Kebijakan	-10.2874
▁keberhasilan	-10.2874
▁pencegahan	-10.2874
▁Bapak	-10.2899
NTT	-10.2905
▁bekas	-10.2907
▁panggilan	-10.2923
Nanti	-10.2925
▁adik	-10.2931
▁tayang	-10.2933
▁Staf	-10.2935
▁cuma	-10.2942
▁Alasan	-10.2952
cepat	-10.2956
bulu	-10.296
manggil	-10.2963
▁pelantikan	-10.2963
▁brand	-10.2966
juluk	-10.2971
Teco	-10.2985
▁menandatangan	-10.2991
▁tutup	-10.2992
▁Fraksi	-10.2993
▁parpol	-10.2993
▁Apalagi	-10.2994
pantau	-10.2995
akbar	-10.3001
lbum	-10.3008
▁peme	-10.3029
plikasi	-10.3034
turut	-10.304
▁konstitusi	-10.3052
▁penembakan	-10.3052
▁Niki	-10.3068
▁NATO	-10.3082
▁terluka	-10.3083
▁dinami	-10.3089
status	-10.3092
tekad	-10.3096
▁Reser	-10.31
▁Sore	-10.3106
▁politis	-10.3112
▁Energi	-10.3112
onny	-10.3121
▁2015	-10.3121
▁jual	-10.3123
▁minimal	-10.3133
▁Barang	-10.3139
▁Wisata	-10.3142
pembicaraan	-10.3152
▁denda	-10.3167
▁Pegawai	-10.3172
▁penutup	-10.3172
▁batang	-10.3177
▁agen	-10.3191
▁2024-2029	-10.3203
▁Iqbal	-10.3203
▁tanaman	-10.3204
rekor	-10.3206
▁temuan	-10.3207
▁ayat	-10.3209
▁Paslon	-10.321
▁samping	-10.3213
resmikan	-10.3215
Kita	-10.3215
▁asuransi	-10.3233
▁perbedaan	-10.3233
nyesuai	-10.3233
indikasi	-10.3233
▁medali	-10.3235
▁dihubungi	-10.3236
musuh	-10.3239
empuh	-10.3251
cenderung	-10.3263
ontrol	-10.3286
▁Pelayanan	-10.3294
▁kabinet	-10.3294
▁Pejabat	-10.3294
▁AFP	-10.3295
▁Bayu	-10.3309
▁larangan	-10.3313
▁sapi	-10.3313
kerja	-10.3322
▁internet	-10.3325
▁binaan	-10.3326
▁cabang	-10.3326
▁panggung	-10.3332
▁Kamal	-10.3341
indaklanjuti	-10.3356
▁sembako	-10.3356
▁Pupuk	-10.3356
peralat	-10.3378
heboh	-10.3386
▁mengungsi	-10.3388
▁layar	-10.3388
Dirjen	-10.3388
▁fase	-10.3388
▁contoh	-10.3417
gandeng	-10.3418
▁kanker	-10.3418
nua	-10.3419
ampilan	-10.3424
pegawai	-10.344
▁Series	-10.3449
▁Brand	-10.3458
▁keterlibatan	-10.348
▁butuh	-10.3481
▁pendiri	-10.3496
▁kredit	-10.3511
▁inklusi	-10.3511
sengketa	-10.3511
▁pergur	-10.3512
▁Awal	-10.3514
rencanakan	-10.3538
▁Guna	-10.3542
▁kencang	-10.3542
▁sengaja	-10.3542
irokrasi	-10.3542
▁roda	-10.3556
▁Tamb	-10.3558
silaturahmi	-10.3574
▁Banjir	-10.3574
▁institusi	-10.3574
▁tenggelam	-10.3574
▁hadiah	-10.3574
▁bertambah	-10.3574
mitraan	-10.3575
▁versi	-10.3579
▁pelabuhan	-10.3605
▁pengetahuan	-10.3605
▁daging	-10.3605
▁kenyamanan	-10.3605
proses	-10.3636
▁kecepatan	-10.3638
▁diterapkan	-10.3638
▁setia	-10.3647
▁menikah	-10.3651
▁Institute	-10.3655
▁maje	-10.3662
▁pertempuran	-10.3669
▁Listrik	-10.3669
▁event	-10.3669
▁tetangga	-10.3669
▁2014	-10.3669
olidaritas	-10.3669
.500	-10.3685
▁papar	-10.3687
▁Law	-10.369
▁Andre	-10.37
▁Penyidik	-10.37
▁kolek	-10.3708
GI	-10.3714
▁domestik	-10.3732
▁kedatangan	-10.3732
▁baterai	-10.3732
▁keinginan	-10.3732
cocok	-10.3739
▁Penanggu	-10.3745
▁Market	-10.3756
▁Perekonomian	-10.3764
▁regional	-10.3764
▁kediaman	-10.3765
▁banten	-10.3767
▁saham	-10.3795
▁Riset	-10.3797
▁Zoni	-10.3797
engobatan	-10.3798
▁petir	-10.3798
ndong	-10.3822
▁memaksa	-10.383
selisih	-10.3833
▁unggahan	-10.3836
ekapitulasi	-10.3861
▁ketegangan	-10.3861
▁penggemar	-10.3861
▁lantai	-10.3861
▁Anggaran	-10.3861
/7/2024)	-10.3874
▁silam	-10.3876
utip	-10.3887
▁Batam	-10.3891
▁detik	-10.3893
▁Blinken	-10.3894
▁jantung	-10.3894
▁kosong	-10.3894
bunyi	-10.3898
▁audi	-10.3901
sambut	-10.3921
▁vitamin	-10.3926
▁elemen	-10.3926
▁pupuk	-10.3926
▁pengamat	-10.3927
▁diluncurkan	-10.3959
▁pencalonan	-10.3959
▁bom	-10.3965
syarat	-10.3973
rahasia	-10.3975
enggan	-10.3982
▁Madrid	-10.3992
▁kondusif	-10.3992
▁Lombok	-10.3992
sediaan	-10.3992
▁Bisnis	-10.3992
▁bandara	-10.3996
▁Pengelola	-10.3996
▁Bintang	-10.4002
▁mask	-10.402
▁Demokrasi	-10.4025
edisi	-10.4042
▁tradisi	-10.4056
▁intelijen	-10.4058
▁Telkom	-10.4058
▁Blitar	-10.4058
▁metode	-10.4058
▁Kemenangan	-10.4069
▁analis	-10.4076
produk	-10.4083
▁Cianjur	-10.4091
▁Houthi	-10.4091
▁Video	-10.4091
perjuangkan	-10.4091
▁Pertemuan	-10.4091
▁menaik	-10.4094
osialisasi	-10.4103
ungutan	-10.4106
dialog	-10.4117
▁Peneliti	-10.4124
▁patrol	-10.4125
BANG	-10.413
▁negatif	-10.4157
▁dewasa	-10.4157
▁Kebakaran	-10.4158
▁Reza	-10.4163
▁Koster	-10.4167
telit	-10.4179
1445	-10.418
▁Publik	-10.4191
▁pengakuan	-10.4191
▁USD	-10.4191
siaga	-10.4219
▁Pegadaian	-10.4224
▁Koalisi	-10.4224
▁Arief	-10.4224
▁Lokasi	-10.4225
▁aliran	-10.4225
▁urusan	-10.4225
kendara	-10.4239
▁Kudus	-10.4258
▁menyadar	-10.4265
▁game	-10.4268
▁Istri	-10.4281
▁kriminal	-10.4292
▁terungkap	-10.4292
▁dolar	-10.4293
▁Nation	-10.4295
▁gudang	-10.4296
▁Lewat	-10.4301
off	-10.4315
▁Skuad	-10.4326
▁Direct	-10.4326
▁penyerang	-10.433
erwira	-10.4339
▁lap	-10.4343
/9/2024)	-10.4351
▁mencuri	-10.4356
ermohon	-10.4358
emendikbudristek	-10.436
▁Komplek	-10.436
▁penjelasan	-10.436
▁mayat	-10.436
▁kayu	-10.4383
▁Kecelakaan	-10.4394
menginginkan	-10.4394
rtifikasi	-10.4395
penilaian	-10.4408
BMKG	-10.4424
▁Soekarno	-10.4428
▁klien	-10.4428
▁Empat	-10.4428
▁indek	-10.4429
▁televisi	-10.4462
▁Sport	-10.4462
▁pandangan	-10.4464
▁jejak	-10.4465
▁pesta	-10.4467
▁Tetap	-10.4468
▁pengganti	-10.4497
▁rentan	-10.4504
pengadaan	-10.451
erpadu	-10.4522
▁ponsel	-10.4532
▁Garut	-10.4532
▁dijual	-10.4537
▁unik	-10.4539
MAN	-10.4551
nonton	-10.4565
▁pandemi	-10.4566
/10/2024)	-10.4566
gembira	-10.4567
▁Otorita	-10.457
analisis	-10.4582
▁inovatif	-10.4601
prihatin	-10.4601
▁Lestari	-10.4601
klarifikasi	-10.4601
▁Lintas	-10.4601
Pasifik	-10.4601
▁limbah	-10.4602
;	-10.4604
KTT	-10.4609
lapis	-10.4615
▁DEP	-10.4636
bincang	-10.4636
▁Sipil	-10.4637
▁penyelundup	-10.4638
▁Ronald	-10.4639
rasakan	-10.4647
/12/2024)	-10.4664
▁Bahlil	-10.4671
▁disabilitas	-10.4671
▁tangki	-10.4672
▁Masuk	-10.4677
mengangkat	-10.4677
▁Jambi	-10.4679
eristiwa	-10.4684
▁Head	-10.4697
▁Banyuwangi	-10.4706
▁CCTV	-10.4706
▁finansial	-10.4706
keliling	-10.4709
▁(27/1	-10.4713
langsung	-10.4735
▁Pariwisata	-10.4742
▁ganja	-10.4742
▁pengacara	-10.4743
persyaratan	-10.4746
▁mencerit	-10.4776
▁Investasi	-10.4777
▁legislatif	-10.4777
▁dosen	-10.4779
▁Muhammadiyah	-10.4779
manfaatkan	-10.4788
manfaatan	-10.4791
maksimal	-10.4793
▁Bhayangkar	-10.4813
▁pertimbangan	-10.4813
▁santri	-10.4813
▁ledakan	-10.4814
▁Abd	-10.4815
▁karbon	-10.4848
▁00:	-10.4852
▁asasi	-10.4858
ffe	-10.4861
imbau	-10.4868
kejut	-10.4877
yanti	-10.4878
▁bendera	-10.4884
▁Sigit	-10.4885
▁Waktu	-10.4885
▁penguat	-10.4885
▁Olahraga	-10.492
▁jembatan	-10.4956
▁kewenangan	-10.4956
▁Sekitar	-10.4956
vokasi	-10.4987
▁Persatuan	-10.4992
▁stunting	-10.4992
▁stasiun	-10.4993
dedikasi	-10.4993
verifikasi	-10.4999
▁Mirzani	-10.5029
▁skema	-10.5029
▁bahaya	-10.5029
▁Andri	-10.503
▁kewajiban	-10.5031
enyelesai	-10.5035
▁menulis	-10.5036
▁Harapan	-10.5043
Karena	-10.5049
▁pembiayaan	-10.5065
▁kekayaan	-10.5065
▁Expo	-10.507
▁kreat	-10.5072
pengemudi	-10.5081
Tida	-10.5082
egah	-10.5095
amping	-10.5099
▁Serentak	-10.5102
▁Soekarnoputri	-10.5102
▁integritas	-10.5102
▁Mataram	-10.5102
▁Wanita	-10.5103
pertanyakan	-10.5107
ship	-10.5121
ncur	-10.5128
alternatif	-10.5139
▁Yordania	-10.5139
elecehan	-10.5139
▁saluran	-10.5139
bocor	-10.514
▁Ryan	-10.5142
Sekarang	-10.5148
bermanfaat	-10.5161
anggota	-10.5165
melainkan	-10.5172
▁Pembina	-10.5176
adopsi	-10.5176
deteksi	-10.5176
nikmat	-10.5178
▁riset	-10.5178
▁Terima	-10.5179
ngejar	-10.518
▁kemasan	-10.5183
sport	-10.5201
ncing	-10.5205
▁Port	-10.5206
▁Rahmat	-10.5213
▁ayam	-10.5216
biarkan	-10.522
erlukan	-10.5233
▁Kriminal	-10.525
▁League	-10.525
▁mengevakuasi	-10.525
▁Taliban	-10.525
tabrak	-10.5252
asai	-10.5254
Kemendagri	-10.5287
▁sebelah	-10.5288
▁PNM	-10.5289
▁kualifikasi	-10.5299
▁dikena	-10.5303
khawatirkan	-10.5304
▁dikab	-10.5308
sukses	-10.5319
omando	-10.5323
▁Buleleng	-10.5325
▁komoditas	-10.5325
▁nutrisi	-10.5325
▁menyelidik	-10.5325
syaallah	-10.5325
▁Ilmu	-10.5325
ergantian	-10.5336
▁Mall	-10.5338
ampir	-10.5345
▁Balikpapan	-10.5362
▁Hartarto	-10.5362
▁Kabinet	-10.5362
▁dituduh	-10.5362
▁bertindak	-10.5362
▁AMIN	-10.5363
bagaimana	-10.5379
Sampai	-10.5385
program	-10.5397
konstruksi	-10.54
▁kecurangan	-10.54
▁populasi	-10.54
daulatan	-10.54
▁ASDP	-10.54
▁kemerdekaan	-10.5404
biasa	-10.542
▁vaksin	-10.5438
▁Proyek	-10.5438
literasi	-10.5438
ujur	-10.5439
▁Setia	-10.5456
▁2045	-10.5457
▁Purwakarta	-10.5476
▁pemulihan	-10.5476
▁Inovasi	-10.5476
▁mineral	-10.5476
▁berpikir	-10.5476
▁menghilang	-10.5476
▁bersiap	-10.5479
menerus	-10.5502
▁Rohingya	-10.5514
▁gerimis	-10.5514
▁pesantren	-10.5514
▁pesisir	-10.5514
▁pilpres	-10.5514
▁kuliah	-10.5514
▁Teguh	-10.5514
▁drama	-10.5515
▁otorita	-10.5516
ATEN	-10.5516
▁Irwan	-10.5524
eriksa	-10.5552
▁Fransiskus	-10.5552
▁Meksiko	-10.5552
▁KUHP	-10.5552
▁Regional	-10.5552
▁tangkap	-10.5552
▁menabrak	-10.5552
▁Coach	-10.5553
▁Yusuf	-10.5591
melihara	-10.5591
▁Daftar	-10.5591
▁gagasan	-10.5591
minggu	-10.5595
▁abad	-10.5596
▁panen	-10.5604
▁objek	-10.5629
▁mikro	-10.563
▁berkas	-10.5648
perebut	-10.5657
memfasilitasi	-10.5668
▁BPJS	-10.5668
▁SOLO	-10.5668
Kejagung	-10.5668
▁pinggir	-10.5668
▁Katolik	-10.5668
▁pemudik	-10.5668
▁mekanisme	-10.5669
endanaan	-10.5674
▁gigi	-10.5675
-21	-10.5678
▁Kuasa	-10.5681
▁Tugas	-10.5681
oordinasi	-10.5697
▁Bareskrim	-10.5707
▁reformasi	-10.5707
▁Stefan	-10.5707
▁kuliner	-10.5707
▁kritis	-10.5707
ntervensi	-10.5707
DKPP	-10.5708
▁Batang	-10.5711
ngecek	-10.5729
engungkap	-10.5744
▁penderita	-10.5746
▁Jayapura	-10.5746
▁kisah	-10.5747
▁kendala	-10.5747
▁motif	-10.5749
▁pemaha	-10.578
▁Sandr	-10.5782
▁pengawas	-10.5783
▁Halilintar	-10.5785
▁berpendapat	-10.5785
▁penambah	-10.5785
▁derajat	-10.5786
▁mempengaruhi	-10.5786
▁seluas	-10.5787
enasihat	-10.579
ainkan	-10.581
▁Reformasi	-10.5825
▁dievakuasi	-10.5825
ABUP	-10.5825
▁Cabang	-10.5839
▁pendek	-10.5851
▁Kristiyanto	-10.5864
▁WhatsApp	-10.5864
▁Pangarep	-10.5864
▁terdekat	-10.5864
▁Life	-10.5867
▁Business	-10.5904
▁praktis	-10.5904
▁karier	-10.5905
▁Bangun	-10.5905
▁perahu	-10.5905
nugerah	-10.5908
▁deras	-10.5914
kembangkan	-10.593
onsolidasi	-10.5944
▁2024/2025	-10.5944
▁Dharma	-10.5944
▁pelamar	-10.5944
▁Pratama	-10.5944
▁Comm	-10.5953
▁manis	-10.5978
▁Merdeka	-10.5984
▁cerai	-10.5985
▁lipat	-10.5989
Saat	-10.6008
Suswono	-10.6024
▁tawuran	-10.6024
▁Achmad	-10.6024
▁Thomas	-10.6024
▁Misalnya	-10.6024
▁terkini	-10.6027
▁dijatuh	-10.6028
▁rob	-10.6048
▁Istimewa	-10.6064
▁pertambangan	-10.6064
▁menjatuh	-10.6066
-79	-10.6067
sungguh	-10.6067
peduli	-10.6068
adaptasi	-10.6072
▁Konser	-10.6073
pelajari	-10.61
▁pemberontak	-10.6105
▁Perumahan	-10.6105
▁membeber	-10.6105
▁kurban	-10.6105
memudahkan	-10.6128
▁Edward	-10.6145
▁komersial	-10.6145
▁otomotif	-10.6145
▁Pasuruan	-10.6145
▁bentrok	-10.6145
▁sawit	-10.6146
▁Ahli	-10.6147
▁puas	-10.615
/8/2024)	-10.6166
ncabut	-10.6186
▁pinjaman	-10.6186
▁universitas	-10.6186
▁melahirkan	-10.6186
▁rinci	-10.6186
▁modus	-10.6186
▁Pemenangan	-10.6186
siplin	-10.6187
▁Udara	-10.6187
▁buruh	-10.619
ilateral	-10.6203
▁Target	-10.6227
▁keagamaan	-10.6227
▁properti	-10.6227
Distrik	-10.6228
▁Ternyata	-10.623
curiga	-10.6232
▁Ipt	-10.6239
▁direkt	-10.624
▁menerb	-10.6248
arapidana	-10.6268
raperadilan	-10.6268
▁menyetujui	-10.6268
▁Kendaraan	-10.6268
▁waspada	-10.6299
▁rombong	-10.631
▁Trenggalek	-10.631
▁Santoso	-10.631
▁match	-10.6312
enggeledah	-10.6325
ersetujuan	-10.6328
/5/2024)	-10.6333
Rano	-10.634
▁Jembrana	-10.6351
▁responden	-10.6351
▁caleg	-10.6351
▁markas	-10.6351
/6/2024)	-10.6351
▁Sumatra	-10.6351
▁perbankan	-10.6352
▁agresi	-10.6359
▁bertema	-10.636
estival	-10.6383
menyita	-10.6385
Pilkada	-10.6387
▁Google	-10.6393
▁menderita	-10.6393
▁Teluk	-10.6394
-16	-10.6395
▁Wijaya	-10.6401
▁info	-10.6405
kisar	-10.6406
won	-10.6415
▁Nugroho	-10.6435
himpun	-10.6435
lempar	-10.6436
▁ditambah	-10.6438
▁Plus	-10.6442
▁von	-10.646
▁Probolinggo	-10.6477
▁invasi	-10.6477
▁asuhan	-10.6477
ficial	-10.6477
▁BTN	-10.6477
▁Ulama	-10.6477
▁kepedulian	-10.6478
lembaga	-10.6518
▁Brigjen	-10.6519
▁emosi	-10.6519
▁Green	-10.6519
▁Kereta	-10.652
▁lampu	-10.653
rajin	-10.6535
mengidentifikasi	-10.6561
▁pembinaan	-10.6561
▁kabur	-10.6562
muncul	-10.6563
print	-10.6569
▁Cahyadi	-10.6604
lestarian	-10.6604
▁pemberdayaan	-10.6604
▁Ferry	-10.6604
▁Yasin	-10.6605
▁Dokumentasi	-10.6605
perusahaan	-10.6607
▁ruas	-10.6614
▁Auto	-10.6617
▁Champions	-10.6647
▁Zelenskyy	-10.6647
▁London	-10.6647
▁menimpa	-10.6647
▁otak	-10.665
enggerak	-10.6684
▁solid	-10.6688
▁Development	-10.6689
▁gunung	-10.669
membenarkan	-10.6715
▁Komunitas	-10.6733
▁Cagub	-10.6733
▁CSR	-10.6733
▁Kampus	-10.6733
▁Dorong	-10.6733
▁Madiun	-10.6733
▁kontak	-10.6734
▁jarang	-10.6739
▁20:0	-10.6747
▁pengece	-10.6749
ditujukan	-10.677
▁perlawanan	-10.6776
▁Miliar	-10.6776
▁Fatoni	-10.6776
▁Pendaftaran	-10.6776
▁Arena	-10.6778
Pada	-10.6795
▁Rapa	-10.6815
negosiasi	-10.6819
▁Harvey	-10.6819
Cawapres	-10.682
▁dikatakan	-10.682
▁diyakin	-10.6821
▁Institut	-10.6839
▁mereda	-10.6857
▁nasib	-10.6864
▁semest	-10.6869
▁Mojokerto	-10.6907
▁Pesantren	-10.6907
▁sorotan	-10.6907
▁tertutup	-10.6907
▁Bobby	-10.6907
▁Mapolres	-10.6907
▁ketertiban	-10.6907
▁penyalur	-10.6907
simulasi	-10.6908
mbongkar	-10.6909
otret	-10.6912
ciri	-10.6925
▁California	-10.6951
▁federal	-10.6951
▁stadion	-10.6951
▁komponen	-10.6951
▁Pasaribu	-10.6951
pembahasan	-10.6951
▁Komisari	-10.6951
▁pangkalan	-10.6952
▁Nyom	-10.6954
Ditjen	-10.6955
ndikator	-10.6959
▁duka	-10.6971
▁terasa	-10.6971
atuhi	-10.6977
profesi	-10.6995
▁Gorontalo	-10.6995
▁Pramella	-10.6995
▁destinasi	-10.6995
▁Ricis	-10.6995
▁revisi	-10.6995
▁kekasih	-10.6996
▁dibayar	-10.6996
▁19:0	-10.7008
pembelajaran	-10.704
▁Wibowo	-10.704
▁Gratis	-10.704
▁hangat	-10.704
▁Bagus	-10.704
▁Damai	-10.7041
ALEM	-10.7041
waspadai	-10.7051
tertarik	-10.7053
▁pendamping	-10.707
BAZNAS	-10.7084
Satreskrim	-10.7084
▁terkemuka	-10.7084
▁Tangkap	-10.7084
▁PBNU	-10.7084
GIIAS	-10.7084
▁pertunjuk	-10.7085
DPW	-10.7087
▁menjamu	-10.7094
egu	-10.7123
▁penandatangan	-10.7129
▁Teheran	-10.7129
▁Suami	-10.7132
▁Siswa	-10.7139
kelanjutan	-10.7168
▁berfungsi	-10.7174
eksekusi	-10.7174
edepankan	-10.7174
▁tersisa	-10.7178
bersihkan	-10.7219
Kemnaker	-10.7219
▁capaian	-10.7219
▁penyelamat	-10.7219
RU	-10.726
▁Bahrain	-10.7265
▁Service	-10.7265
▁Tulungagung	-10.7265
▁Maulana	-10.7265
▁pilot	-10.7265
▁detail	-10.7265
▁tembakau	-10.7265
sikap	-10.7304
istirahat	-10.731
▁Bangladesh	-10.731
▁Ponorogo	-10.731
▁Penyakit	-10.7311
▁Online	-10.7311
▁Aditya	-10.7311
▁ISIS	-10.7311
▁Andrew	-10.7314
▁Lagu	-10.7317
Sangat	-10.733
▁panitia	-10.7356
▁tabung	-10.7357
▁suci	-10.7357
lampau	-10.7357
▁banget	-10.7359
▁multi	-10.74
▁mengejutkan	-10.7402
delegasi	-10.7402
▁spesifik	-10.7403
▁Fakta	-10.7404
▁penemu	-10.7405
▁berlebihan	-10.7407
▁SERA	-10.7413
▁Bahas	-10.7424
▁Apple	-10.7449
▁Samarinda	-10.7449
▁Kuningan	-10.7449
▁penalti	-10.745
Hatta	-10.7474
coblos	-10.7495
▁investigasi	-10.7495
▁Sumenep	-10.7495
▁LPG	-10.7495
▁kantong	-10.7496
▁07:0	-10.7499
▁Ikut	-10.7511
Mereka	-10.7535
▁Majalengka	-10.7542
▁fenomena	-10.7542
▁berterima	-10.7542
▁Pecco	-10.7542
▁kamera	-10.7542
sembunyi	-10.7542
.200	-10.7546
▁mengakses	-10.7589
▁Jembatan	-10.7589
▁Manfaat	-10.7589
▁gereja	-10.7589
▁sayur	-10.759
ehadiran	-10.7629
Polri	-10.7634
▁Bojonegoro	-10.7636
▁Situbondo	-10.7636
▁netralitas	-10.7636
▁Menengah	-10.7636
▁berkampanye	-10.7636
▁Convention	-10.7683
▁pungkas	-10.7683
setujui	-10.7684
▁persatuan	-10.7684
/4/2024)	-10.7684
▁meluas	-10.7684
▁warung	-10.7686
▁17:0	-10.7691
spir	-10.7703
itsubishi	-10.7731
▁Argentina	-10.7731
▁Prasetyo	-10.7731
▁Sudjana	-10.7731
▁otomatis	-10.7731
▁Panitia	-10.7731
▁Mulyadi	-10.7731
▁APBN	-10.7731
▁menguntungkan	-10.7732
▁Resmi	-10.7732
▁Nilai	-10.7732
▁Dugaan	-10.7732
Nataru	-10.7738
#	-10.7779
▁Gabungan	-10.7779
▁Sukarelawan	-10.7779
bungkus	-10.7779
▁Bandar	-10.7789
▁Kyiv	-10.7827
▁Stadium	-10.7827
▁Gereja	-10.7827
▁Cipta	-10.7828
▁badai	-10.783
epakati	-10.7831
▁menyimpan	-10.7838
endalikan	-10.7864
▁Bagnaia	-10.7875
▁restoran	-10.7875
▁menantang	-10.7876
▁Serdang	-10.7876
▁memasang	-10.7878
▁curah	-10.7879
▁Bamsoet	-10.7924
▁permukaan	-10.7924
▁Personel	-10.7924
▁akademisi	-10.7973
▁Health	-10.7973
ringkus	-10.7973
▁Moeis	-10.7973
▁Silva	-10.7976
▁Syariah	-10.8022
▁begini	-10.8022
▁penyimpan	-10.8023
▁pengurang	-10.8031
▁16:0	-10.8032
pleno	-10.8035
▁kecantikan	-10.8071
▁kimia	-10.8071
▁Seleksi	-10.8071
▁penolakan	-10.8071
▁Tabanan	-10.8072
▁kakak	-10.8073
Yamaha	-10.8073
helat	-10.8077
instruksi	-10.812
▁UNRWA	-10.812
▁William	-10.812
tangguh	-10.812
▁relevan	-10.812
menyuarakan	-10.8121
▁Dapil	-10.8121
▁etnis	-10.8122
eluncur	-10.8147
▁Covid	-10.817
▁perasaan	-10.817
ragaman	-10.8217
▁bioskop	-10.822
▁menjanjikan	-10.822
▁menerangkan	-10.822
▁THR	-10.822
▁Kepada	-10.8221
▁Ayah	-10.8224
erikanan	-10.8237
target	-10.8241
▁Sahroni	-10.827
▁kontroversi	-10.827
▁kripto	-10.827
▁Raharja	-10.8271
▁melemah	-10.8271
feksi	-10.8271
▁Biasa	-10.8273
▁mematikan	-10.8274
omitmen	-10.8282
ksekutif	-10.8312
▁Penyuluh	-10.8321
▁helikopter	-10.8321
dokteran	-10.8321
▁propos	-10.8323
▁Persita	-10.8323
eresmi	-10.8358
▁Hasyim	-10.8372
▁komprehensif	-10.8372
▁ditentukan	-10.8372
▁psikolog	-10.8372
▁Ginting	-10.8372
▁artikel	-10.8372
▁Begitu	-10.8372
Dishub	-10.8373
▁Catat	-10.838
Dalam	-10.84
▁Ditangkap	-10.8423
▁Iduladha	-10.8423
▁sertifikat	-10.8423
▁Final	-10.8425
pengambilan	-10.8438
nomor	-10.8458
▁stakeholder	-10.8474
▁botol	-10.8474
▁Senjata	-10.8474
▁kecewa	-10.8475
▁kenapa	-10.8478
▁Rachm	-10.8482
proyek	-10.8506
▁didasar	-10.8517
▁sederhana	-10.8526
▁Respons	-10.8526
▁XXI	-10.8526
▁Lumajang	-10.8526
▁kepemil	-10.8526
▁Onsu	-10.8526
▁Komandan	-10.8526
▁20:3	-10.8526
Nurul	-10.8556
▁perteng	-10.8576
▁Deklarasi	-10.8577
▁diabetes	-10.8577
▁perunding	-10.8578
▁Rizal	-10.8578
gengsi	-10.858
warisan	-10.8583
▁Logistik	-10.8629
▁Ramadhan	-10.8629
▁kronologi	-10.8629
mendekati	-10.863
▁Purnama	-10.863
▁Saleh	-10.8632
▁pendata	-10.8632
guling	-10.8633
azar	-10.8637
▁armad	-10.8639
▁Merc	-10.8663
inovasi	-10.8668
sesuai	-10.8668
▁kemacetan	-10.8682
▁premium	-10.8682
▁petahana	-10.8682
▁perumahan	-10.8682
kebangsaan	-10.8682
▁17:3	-10.8682
emusnahan	-10.8682
limpah	-10.8684
▁21:0	-10.8694
▁Administrasi	-10.8734
▁tercapai	-10.8734
▁muslim	-10.8734
▁Meningkat	-10.8735
▁ditawarkan	-10.8735
▁virus	-10.8735
▁Buruh	-10.8736
▁landas	-10.8745
▁bayar	-10.8751
anggilan	-10.8752
▁berikut	-10.878
▁Tentara	-10.8787
▁pemantauan	-10.8788
▁KKB	-10.8788
mblokir	-10.8788
▁11:0	-10.8798
engaruhi	-10.8814
▁formul	-10.8828
▁Boyolali	-10.8841
▁Hijriah	-10.8841
▁Pertandingan	-10.8841
▁Vladimir	-10.8841
▁kekeringan	-10.8841
▁Aziz	-10.8841
▁Nasution	-10.8841
▁Jaringan	-10.8841
▁asuhnya	-10.8841
▁Harupat	-10.8841
▁peternak	-10.8841
alumni	-10.8841
▁Tessa	-10.8842
nggang	-10.8882
ekretariat	-10.8894
▁Swedia	-10.8894
▁teknik	-10.8894
▁Listyo	-10.8894
▁Ngawi	-10.8894
▁Pembunuhan	-10.8894
▁segmen	-10.8896
▁eksklusif	-10.8948
▁diakses	-10.8948
Sesuai	-10.8948
jemput	-10.8948
▁Cinta	-10.895
Memang	-10.8956
emberhenti	-10.897
ekuatan	-10.8998
▁Foundation	-10.9002
▁bergulir	-10.9002
▁penyeberangan	-10.9002
konsultasi	-10.9002
▁Pesawat	-10.9002
▁bertahap	-10.9002
▁19:3	-10.9002
▁Susanto	-10.9003
▁Libur	-10.9003
▁finis	-10.9003
▁bersejarah	-10.9056
▁dideportasi	-10.9056
▁Penyebab	-10.9056
▁Georgia	-10.9056
▁menindak	-10.9056
▁berkurang	-10.9056
▁mendarat	-10.9057
▁masif	-10.9058
▁Unggul	-10.9111
▁mengoptimal	-10.9111
▁milenial	-10.9111
▁Secret	-10.9111
▁tuntas	-10.9112
ESG	-10.9115
esnarkoba	-10.9166
▁Kreatif	-10.9166
▁keturunan	-10.9166
▁Sumedang	-10.9166
▁rantai	-10.9166
▁Rahman	-10.9167
▁South	-10.9168
▁Gempa	-10.917
▁14:0	-10.9179
▁pengendali	-10.9221
▁Akademi	-10.9221
▁Kejadian	-10.9221
▁ditingkatkan	-10.9221
▁simpati	-10.9221
presentasi	-10.9221
▁mirip	-10.9221
▁2011	-10.9221
▁moral	-10.9222
▁Analis	-10.9223
▁09:0	-10.9226
peluang	-10.9228
▁kurun	-10.9232
hasiat	-10.9272
▁Fauzi	-10.9277
▁Cilegon	-10.9277
▁tersendiri	-10.9277
▁13:3	-10.9277
▁Pemilik	-10.9277
▁16:1	-10.9283
▁13:0	-10.9286
endati	-10.9319
▁Barcelona	-10.9332
Energy	-10.9332
Tipikor	-10.9332
▁Hartono	-10.9333
▁21:3	-10.9333
▁Hindu	-10.9333
wacana	-10.9333
ulihkan	-10.9333
▁Jorge	-10.9333
▁balasan	-10.9334
dhika	-10.9335
SDN	-10.9348
akomodasi	-10.9389
ewarganegaraan	-10.9389
▁Manchester	-10.9389
▁Informati	-10.9389
▁keperluan	-10.9389
▁Sukses	-10.9389
▁bjb	-10.9389
▁Wuling	-10.9389
▁Yudh	-10.943
ertolong	-10.9431
▁almarhum	-10.9445
▁Social	-10.9445
▁Swiss	-10.9445
▁Meninggal	-10.9445
▁Peduli	-10.9445
▁gelandang	-10.9445
▁Pilih	-10.9446
Mendag	-10.9457
▁Communication	-10.9502
▁Florida	-10.9502
▁Yudhoyono	-10.9502
▁erupsi	-10.9502
▁Parawansa	-10.9502
▁Cimahi	-10.9502
▁asisten	-10.9503
payung	-10.9505
▁08:0	-10.9508
posting	-10.9519
▁jenderal	-10.9559
▁rekening	-10.9559
guncang	-10.9559
▁Nahdl	-10.9559
▁walau	-10.9559
▁Zulki	-10.9559
▁Yahya	-10.9559
Pemeriksaan	-10.956
seragam	-10.9611
▁Liverpool	-10.9617
musnahkan	-10.9617
Prakiraan	-10.9617
▁horor	-10.9617
▁Idris	-10.9617
▁menyumbang	-10.9617
▁Pameran	-10.9617
▁Bukit	-10.9618
owongan	-10.9618
Insiden	-10.9619
▁Robert	-10.9626
▁Sudirman	-10.9674
▁favorit	-10.9674
aripurna	-10.9674
▁Ismail	-10.9674
bimbing	-10.9675
▁Power	-10.9675
▁rumput	-10.9675
▁Putera	-10.9675
ublic	-10.9675
Undip	-10.9678
▁17:1	-10.968
pengaduan	-10.9688
sekolah	-10.9701
nantia	-10.9711
▁Brimob	-10.9733
▁Fasilitas	-10.9733
▁krusial	-10.9733
▁perceraian	-10.9733
▁rehabilitasi	-10.9733
pertanggungjawab	-10.9733
▁raksasa	-10.9733
▁figur	-10.9733
▁Miftah	-10.9733
▁PUPR	-10.9733
▁16:3	-10.9733
▁Unair	-10.9733
▁Wahid	-10.9734
alkohol	-10.9791
▁Yahudi	-10.9791
▁15:3	-10.9791
sebelas	-10.9807
▁Mengena	-10.9814
▁Mohamm	-10.9837
erseroan	-10.9849
▁Pencegahan	-10.985
▁Sustainab	-10.985
▁Uzbekistan	-10.985
▁BYD	-10.985
▁Tokyo	-10.985
▁murid	-10.985
uzuki	-10.9851
informasi	-10.9883
_	-10.9909
afiliasi	-10.9909
▁Kekerasan	-10.9909
▁Kinerja	-10.9909
▁tertinggal	-10.9909
▁Asuransi	-10.9909
▁pencoblosan	-10.9909
▁Teknis	-10.9909
▁Pelajar	-10.9909
▁15:0	-10.9925
prov	-10.9961
é	-10.9969
*	-11.9512
á	-11.9827
ü	-12.0318
ö	-12.2571
è	-12.2784
°	-12.3223
=	-12.4415
í	-12.4935
[	-12.5674
ñ	-12.5768
ó	-12.6063
•	-13.0973
±	-13.3768
€	-13.3768
ú	-13.5149
ä	-13.5918
®	-13.6752
â	-13.6752
ı	-13.9772
`	-14.1022
′	-14.1022
>	-14.1022
×	-14.4117
ê	-14.4117
ï	-14.4117
Ó	-14.6117
\	-14.6117
à	-14.6117
⁠	-14.6117
ô	-14.6117
Ü	-14.8617
ç	-14.8617
ì	-14.8617
ş	-14.8617
😭	-14.8617
Ç	-14.8617
−	-15.195
·	-15.1951
ø	-15.1951
<	-15.1951
š	-15.695
Ä	-15.6951
Ö	-15.6951
ë	-15.6951
ā	-15.6951
ğ	-16.6944
Á	-16.6945
μ	-16.6946
⁄	-16.6947
ć	-16.6948
ã	-16.6949
£	-16.695
Α	-16.695
Τ	-16.695
α	-16.695
金	-16.695
陈	-16.695
😊	-16.695
Â	-16.6951
ð	-16.6951
ò	-16.6951
õ	-16.6951
Ā	-16.6951
ę	-16.6951
İ	-16.6951
Ł	-16.6951
ł	-16.6951
ś	-16.6951
ơ	-16.6951
ư	-16.6951
Η	-16.6951
‍	-16.6951
≥	-16.6951
丽	-16.6951
安	-16.6951
洪	-16.6951
🍌	-16.6951
É	-16.6951
(	-16.6951
ķ	-16.6951
