<unk>	0
<s>	0
</s>	0
,	-3.18257
.	-3.31345
▁di	-4.04194
▁yang	-4.18445
▁dan	-4.28546
▁	-4.828
an	-4.91541
-	-4.9206
nya	-4.95107
▁(	-5.05152
▁untuk	-5.08593
▁dengan	-5.21318
▁-	-5.27852
)	-5.28909
▁dari	-5.29276
▁ini	-5.29425
▁itu	-5.33103
i	-5.33464
",	-5.34906
kan	-5.37298
▁pada	-5.38516
▁dalam	-5.39233
▁"	-5.43126
▁ke	-5.5511
▁2024	-5.61903
▁tidak	-5.82966
s	-5.88738
▁tersebut	-5.89593
▁akan	-5.89619
▁Indonesia	-5.90178
▁juga	-6.0291
com	-6.04046
▁WIB	-6.08755
▁ber	-6.11493
▁kata	-6.16056
▁menjadi	-6.24133
▁mengatakan	-6.25141
▁se	-6.27021
t	-6.28461
▁saat	-6.29994
▁bahwa	-6.30315
a	-6.3083
▁sebagai	-6.31771
▁ada	-6.33618
▁oleh	-6.34121
▁telah	-6.34924
▁tahun	-6.35619
/	-6.39073
▁bisa	-6.43141
▁S	-6.45843
▁kepada	-6.47294
▁jpnn	-6.48898
k	-6.49149
▁atau	-6.49251
e	-6.49804
o	-6.52116
▁lebih	-6.52252
▁mereka	-6.54411
▁Jakarta	-6.57291
n	-6.57643
▁satu	-6.58544
▁A	-6.59977
▁orang	-6.60694
ta	-6.6216
▁sudah	-6.64215
si	-6.64515
▁karena	-6.6536
▁K	-6.67058
▁P	-6.68776
y	-6.69523
▁para	-6.70328
▁adalah	-6.70655
▁Kota	-6.708
▁kami	-6.7181
▁masyarakat	-6.73941
▁melakukan	-6.75309
▁Di	-6.75403
▁hari	-6.76243
▁M	-6.7748
u	-6.78102
▁negara	-6.82286
▁ter	-6.82536
:	-6.8438
▁terhadap	-6.85109
▁bagi	-6.86782
▁dia	-6.87385
in	-6.87982
S	-6.8805
▁B	-6.89466
▁dapat	-6.89862
h	-6.92664
▁Se	-6.9423
▁secara	-6.94303
▁Dia	-6.95136
▁hingga	-6.95346
al	-6.95861
▁Selasa	-6.96158
▁Rabu	-6.96809
▁JAKARTA	-6.97467
▁I	-6.97814
at	-6.99107
▁Senin	-6.99235
la	-6.99322
d	-6.99475
jpnn	-6.99561
di	-6.99729
▁meng	-7.0032
▁setelah	-7.00402
▁Kamis	-7.00982
▁merupakan	-7.01337
K	-7.01912
p	-7.02039
▁dua	-7.03085
▁seperti	-7.03097
▁baru	-7.04247
▁warga	-7.06809
▁Kabupaten	-7.07147
▁Jumat	-7.07327
P	-7.07851
r	-7.07977
▁masih	-7.08674
▁saya	-7.08798
g	-7.09287
▁harus	-7.09646
▁dilakukan	-7.09792
▁1	-7.09795
ri	-7.09809
▁beberapa	-7.10571
▁serta	-7.10997
na	-7.11421
▁memberikan	-7.11975
da	-7.1247
ti	-7.13287
l	-7.13515
▁banyak	-7.13797
us	-7.13938
▁Jawa	-7.14886
ma	-7.15136
T	-7.16396
▁Ke	-7.166
is	-7.16773
▁besar	-7.17173
▁hanya	-7.17235
5	-7.17357
▁U	-7.17387
▁lalu	-7.1765
▁2024.	-7.17754
▁atas	-7.17762
▁Presiden	-7.17833
▁korban	-7.17928
▁Bali	-7.18059
ar	-7.18499
"	-7.19439
▁Israel	-7.19559
2	-7.19583
▁T	-7.20684
▁memiliki	-7.20707
M	-7.21022
▁bersama	-7.21078
sa	-7.22074
li	-7.22144
1	-7.22211
▁anak	-7.2231
▁terjadi	-7.22325
▁ujar	-7.22706
▁Ketua	-7.22964
m	-7.23918
▁selama	-7.24471
▁per	-7.26015
ang	-7.26146
▁melalui	-7.2658
▁baik	-7.26793
B	-7.26796
▁rumah	-7.27005
▁sangat	-7.27622
A	-7.2808
ur	-7.29351
7	-7.29491
▁salah	-7.29494
▁D	-7.30816
▁kasus	-7.30881
6	-7.31171
ro	-7.31771
ka	-7.31846
re	-7.32096
▁wilayah	-7.32763
▁F	-7.32956
▁C	-7.33357
▁pemerintah	-7.3366
▁G	-7.33723
ing	-7.35307
▁Rp	-7.35554
3	-7.35916
▁Sabtu	-7.36068
▁kita	-7.36107
D	-7.37361
buah	-7.37364
▁sama	-7.3782
▁Ber	-7.394
b	-7.39423
).	-7.39448
▁Barat	-7.39587
R	-7.39605
▁lain	-7.39739
▁tetapi	-7.40001
▁Namun	-7.40041
▁AS	-7.40214
C	-7.40726
▁Minggu	-7.40872
▁kembali	-7.41211
8	-7.41281
9	-7.41297
▁Prabowo	-7.41357
ra	-7.41552
▁terus	-7.4164
▁E	-7.41882
er	-7.41992
ul	-7.42002
▁PT	-7.42409
▁terkait	-7.42418
▁s	-7.42517
▁Per	-7.42827
4	-7.42909
ga	-7.43054
or	-7.44348
▁persen	-7.44851
▁hal	-7.44928
▁seluruh	-7.46067
on	-7.46259
▁2	-7.46279
▁agar	-7.47001
ut	-7.47657
le	-7.48155
▁Ma	-7.49129
▁sekitar	-7.49495
G	-7.49629
▁tiga	-7.49677
de	-7.49803
as	-7.50511
ja	-7.50723
▁daerah	-7.5109
▁tim	-7.51397
▁pun	-7.51416
),	-7.51838
f	-7.52135
man	-7.52222
▁hasil	-7.52673
te	-7.53333
▁program	-7.53544
▁berbaga	-7.5418
▁Selatan	-7.54379
▁pertama	-7.54982
c	-7.55489
▁lainnya	-7.55758
ir	-7.56037
▁Menurut	-7.56141
lah	-7.56902
ni	-7.57044
ak	-7.57122
▁dunia	-7.5732
▁calon	-7.57399
▁Menteri	-7.57485
▁kerja	-7.57882
ter	-7.57922
▁Dalam	-7.5817
el	-7.58224
N	-7.58379
▁O	-7.58827
▁belum	-7.59003
▁men	-7.59323
un	-7.59855
▁antara	-7.60029
um	-7.60124
asi	-7.60287
▁tentang	-7.60592
E	-7.60919
▁tak	-7.61146
▁Kepala	-7.61339
ah	-7.61396
▁sedang	-7.61652
▁Surabaya	-7.62602
▁me	-7.62793
to	-7.62973
ng	-7.63759
▁H	-7.64076
gi	-7.64352
▁Bandung	-7.64657
▁semua	-7.64731
▁hukum	-7.64888
▁membuat	-7.64911
▁RI	-7.6508
▁pelaku	-7.65113
▁pihak	-7.65354
".	-7.65794
▁mem	-7.65812
▁termasuk	-7.65901
▁sejumlah	-7.67278
▁Ba	-7.67458
▁3	-7.67554
▁Timur	-7.67656
▁langsung	-7.68022
▁Partai	-7.68049
▁Ini	-7.68117
▁kali	-7.68232
▁anggota	-7.68614
▁China	-7.68665
L	-7.68848
▁Su	-7.70348
no	-7.70932
▁suara	-7.70977
▁sejak	-7.71086
se	-7.71116
▁waktu	-7.71119
▁Pilkada	-7.71155
▁Tengah	-7.71562
H	-7.71616
F	-7.71626
▁kedua	-7.71995
I	-7.72612
en	-7.72856
il	-7.73361
ba	-7.74365
▁seorang	-7.74999
mo	-7.75007
ung	-7.75183
▁mendukung	-7.75372
▁bulan	-7.75581
▁bagian	-7.76114
'	-7.76475
▁katanya	-7.76752
▁kota	-7.76821
▁depan	-7.77005
▁sehingga	-7.77017
ch	-7.77296
▁tempat	-7.778
0	-7.7795
▁Al	-7.78217
▁juta	-7.78459
wa	-7.78642
▁serangan	-7.78866
▁menyampaikan	-7.7904
▁proses	-7.79305
z	-7.79479
▁mulai	-7.79685
▁Ka	-7.79993
O	-7.80159
▁Re	-7.80227
▁10	-7.80329
▁Selain	-7.80653
▁saja	-7.80694
ce	-7.80851
J	-7.81335
▁Amerika	-7.81338
▁politik	-7.81495
▁Pada	-7.81667
▁meningkatkan	-7.81697
]	-7.81763
U	-7.82117
▁perusahaan	-7.82271
▁media	-7.82319
▁lagi	-7.82413
▁Hal	-7.8246
▁tinggi	-7.82667
▁[	-7.83013
▁5	-7.83188
ke	-7.83776
▁20	-7.83783
▁ketika	-7.84225
?	-7.8461
▁menggunakan	-7.85056
▁peng	-7.85271
▁R	-7.85333
es	-7.85761
▁malam	-7.86248
lo	-7.86422
▁kesehatan	-7.8706
am	-7.87112
lan	-7.87317
mi	-7.87893
▁menjelaskan	-7.88014
▁tetap	-7.88137
▁Rusia	-7.88138
▁masa	-7.88414
▁penting	-7.88897
▁yakni	-7.88976
▁masuk	-7.89018
▁menyebut	-7.89192
▁Umum	-7.89272
ik	-7.895
tan	-7.89656
▁N	-7.90021
▁pemain	-7.90213
▁19	-7.90313
uh	-7.90345
W	-7.90405
▁bukan	-7.90407
▁Oktober	-7.90438
ya	-7.90529
▁J	-7.90602
lu	-7.90901
▁kegiatan	-7.91043
go	-7.91102
▁upaya	-7.91249
▁ingin	-7.91261
ca	-7.91517
▁Gubernur	-7.91755
it	-7.92381
▁Kecamatan	-7.92607
bi	-7.92825
▁air	-7.92894
w	-7.93113
ku	-7.93192
▁tersangka	-7.93528
▁p	-7.94039
▁Juli	-7.94069
▁Kami	-7.94125
▁berada	-7.94304
▁pem	-7.94337
▁Kementerian	-7.94477
vi	-7.94592
ko	-7.94664
ran	-7.94793
▁diri	-7.9492
▁luar	-7.95446
▁kemudian	-7.9547
▁mendapatkan	-7.95511
▁apa	-7.95549
▁sampai	-7.95687
tu	-7.96144
▁Sa	-7.96334
▁November	-7.96369
▁Ra	-7.96812
han	-7.96891
bo	-7.96985
me	-7.97058
ber	-7.97172
▁mencapai	-7.97346
▁presiden	-7.97626
▁Tim	-7.9775
▁pen	-7.97763
▁Tahun	-7.97805
▁Wakil	-7.98534
ia	-7.98683
▁Desa	-7.98737
co	-7.99079
▁Gaza	-7.99123
▁sebelumnya	-7.9927
▁sosial	-7.99531
▁La	-7.99612
▁Pe	-7.99639
▁Semarang	-7.9965
▁acara	-7.99942
▁produk	-8.00257
▁7	-8.00359
▁perempuan	-8.00551
▁dukungan	-8.00661
00	-8.00972
▁membantu	-8.0146
▁kawasan	-8.01716
▁4	-8.01775
▁pukul	-8.0179
▁Bogor	-8.02083
▁jadi	-8.02284
▁Sementara	-8.02544
▁Direktur	-8.02562
▁Juni	-8.02661
per	-8.02759
▁pasangan	-8.03234
▁mengaku	-8.03251
▁jalan	-8.03321
▁Polda	-8.03411
▁12	-8.03448
▁Utara	-8.03728
▁Mei	-8.03839
pa	-8.0397
▁Agustus	-8.04354
▁nomor	-8.04426
▁Jalan	-8.04498
▁Nasional	-8.04655
▁menyatakan	-8.0469
▁mengalami	-8.04728
▁Hari	-8.04996
▁Badan	-8.05205
▁Foto	-8.05731
▁terakhir	-8.05806
▁Men	-8.06149
▁Jadi	-8.06207
▁ekonomi	-8.06506
▁lokasi	-8.06813
▁menunjukkan	-8.06837
san	-8.07502
▁resmi	-8.07561
▁bantuan	-8.07594
▁memastikan	-8.07638
▁De	-8.07703
tiap	-8.07992
do	-8.08062
▁mana	-8.08181
▁September	-8.08262
▁meminta	-8.08262
▁jika	-8.08342
Kami	-8.08412
uk	-8.0845
▁PPPK	-8.08508
tor	-8.08664
▁keluarga	-8.08834
▁Desember	-8.0885
▁Saya	-8.0922
et	-8.09369
pi	-8.09492
▁V	-8.09544
▁pe	-8.10494
▁Pemerintah	-8.10511
▁berlangsung	-8.10516
▁jumlah	-8.10571
orang	-8.10636
▁DPR	-8.10739
▁Ar	-8.10835
▁tengah	-8.11018
▁April	-8.11077
mp	-8.115
▁Januari	-8.11561
▁utama	-8.11596
▁L	-8.11613
▁berhasil	-8.1163
ju	-8.11658
▁Negeri	-8.11682
▁asal	-8.1234
men	-8.12443
ok	-8.12575
ru	-8.12575
▁kondisi	-8.12699
▁re	-8.13053
▁gambar	-8.13339
▁United	-8.13607
▁Te	-8.13616
▁laga	-8.13658
▁Ro	-8.13714
▁empat	-8.13717
▁sendiri	-8.14057
x	-8.14212
ki	-8.14277
▁partai	-8.14357
▁Na	-8.14943
▁Timnas	-8.14949
▁Si	-8.15
▁Jokowi	-8.15262
▁c	-8.15401
▁polisi	-8.15476
▁soal	-8.15624
▁melihat	-8.15649
▁15	-8.15759
▁Ri	-8.15843
▁ia	-8.15997
▁sesuai	-8.16066
tik	-8.16253
ji	-8.16293
▁W	-8.16573
▁berharap	-8.16745
▁sebesar	-8.16805
▁ujarnya	-8.16983
▁6	-8.17106
ck	-8.17374
▁pihaknya	-8.17592
▁Asia	-8.17697
▁mobil	-8.1784
▁Ada	-8.18029
▁bekerja	-8.18031
▁pernah	-8.18089
▁Ter	-8.18112
▁Liga	-8.18727
▁kelompok	-8.18753
▁maupu	-8.19503
▁militer	-8.19534
▁Para	-8.19558
▁Trump	-8.19642
▁Maret	-8.20027
id	-8.2054
su	-8.20841
ol	-8.209
▁Ukraina	-8.21019
▁Ja	-8.21127
im	-8.21296
▁informasi	-8.21364
▁hadir	-8.21543
▁Mereka	-8.21883
▁nasional	-8.21944
▁Polres	-8.2254
bar	-8.227
▁lingkungan	-8.22707
▁Daerah	-8.22753
▁perlu	-8.22795
▁membawa	-8.22811
ge	-8.22948
▁laporan	-8.23137
▁kendaraan	-8.23478
▁tanpa	-8.23524
▁An	-8.2364
▁yaitu	-8.23709
du	-8.23734
▁barang	-8.23752
▁Anda	-8.24502
▁sebelum	-8.24652
▁Provinsi	-8.24854
▁menerima	-8.25177
hi	-8.25219
▁KPU	-8.25666
▁&	-8.25824
▁11	-8.25923
▁bakal	-8.26206
▁Komisi	-8.26349
▁sebanyak	-8.26455
▁Korea	-8.26694
▁8	-8.26743
▁Me	-8.26847
wi	-8.26916
▁awal	-8.2695
ai	-8.26987
▁layanan	-8.27047
▁Iran	-8.27135
pe	-8.27145
▁Pemilu	-8.27166
▁Pen	-8.27361
/2024).	-8.27548
ci	-8.27689
▁uang	-8.27969
th	-8.27991
▁keamanan	-8.27996
▁lanjut	-8.28136
▁dugaan	-8.28138
▁Mo	-8.28178
▁mengungkapkan	-8.28383
▁Ci	-8.28651
▁adanya	-8.28702
▁mengenai	-8.28808
▁melawan	-8.2911
wan	-8.29284
gu	-8.29352
▁TNI	-8.29358
▁paling	-8.29395
▁kepala	-8.29822
▁14	-8.29888
▁industri	-8.30016
▁16	-8.30035
▁dirinya	-8.30291
▁menggelar	-8.3065
▁a	-8.30787
▁kini	-8.31114
▁masalah	-8.31181
anak	-8.31236
▁pendidikan	-8.31512
▁menjaga	-8.31585
▁Serikat	-8.31685
▁perang	-8.31736
▁Piala	-8.3174
▁muda	-8.31824
▁menurut	-8.31865
▁Pa	-8.3225
▁menghadapi	-8.32576
▁harga	-8.32782
▁bawah	-8.32798
▁Saat	-8.32805
jo	-8.32822
▁kampanye	-8.33578
▁ka	-8.33605
em	-8.33881
▁f	-8.33931
▁pertandingan	-8.34032
▁mendapat	-8.34073
▁nama	-8.3413
▁18	-8.34228
▁lima	-8.34311
▁cukup	-8.34826
bu	-8.35139
▁data	-8.35163
hu	-8.35729
▁Anies	-8.35768
▁memang	-8.35787
▁pembangunan	-8.3587
▁keterangan	-8.35936
▁Ia	-8.36172
▁Pusat	-8.36399
▁sementara	-8.36594
▁segera	-8.36855
▁miliar	-8.37011
▁bukti	-8.37093
▁Le	-8.37211
▁surat	-8.37223
▁KPK	-8.37362
▁langkah	-8.3757
▁ibu	-8.37804
▁Negara	-8.38031
▁tingkat	-8.38534
▁urut	-8.3859
▁mungkin	-8.38648
▁senjata	-8.38806
▁negeri	-8.38905
ne	-8.39079
▁pers	-8.39126
▁2024,	-8.39301
▁akibat	-8.39384
▁lama	-8.39412
▁Papua	-8.39491
▁2023	-8.39543
▁jelas	-8.39828
▁Solo	-8.39846
▁Stadion	-8.40027
▁Universitas	-8.40027
▁Ta	-8.40177
▁Kantor	-8.40198
▁30	-8.40309
▁17	-8.40311
ad	-8.40497
▁digelar	-8.40674
▁Bea	-8.40686
▁pernyataan	-8.40727
▁mampu	-8.41058
▁kebijakan	-8.41132
▁sekolah	-8.4163
▁13	-8.41696
▁Mar	-8.4199
▁Ahmad	-8.42144
▁mantan	-8.4253
▁Setelah	-8.42845
▁internasional	-8.4286
▁'	-8.43027
▁hak	-8.43129
▁Palestina	-8.43294
▁kebutuhan	-8.43329
▁umum	-8.43541
yo	-8.43888
▁meninggal	-8.43897
dang	-8.44079
▁21	-8.4409
▁In	-8.44102
▁pejabat	-8.44644
▁Da	-8.44792
st	-8.44986
▁Keterangan	-8.45152
ha	-8.45408
▁pekan	-8.45471
▁pemilu	-8.45492
▁siap	-8.45632
▁hidup	-8.45671
▁Polisi	-8.45732
mu	-8.45789
angan	-8.45843
▁Ganjar	-8.46347
▁datang	-8.46406
▁Peng	-8.46548
▁Cukai	-8.4669
▁akhir	-8.46899
▁sistem	-8.4692
▁Polri	-8.46968
▁punya	-8.47117
ban	-8.47168
▁publik	-8.47324
▁Li	-8.47341
▁sekaligus	-8.47558
▁mendorong	-8.47566
▁cara	-8.47949
▁Pem	-8.48064
ong	-8.48213
os	-8.48322
tri	-8.48369
▁ucap	-8.48541
▁hujan	-8.48897
ab	-8.48908
▁makanan	-8.49065
usia	-8.49513
▁Depok	-8.49548
▁ungkap	-8.49605
▁sakit	-8.49607
▁bahkan	-8.49672
▁diduga	-8.49673
▁rasa	-8.49717
ho	-8.49835
pan	-8.49884
▁akhirnya	-8.49919
▁terbaru	-8.49958
kar	-8.49959
▁wakil	-8.49962
har	-8.50008
▁Bupati	-8.50022
▁Bank	-8.50162
▁tanah	-8.50322
negara	-8.50423
▁aksi	-8.50494
▁Mu	-8.50513
▁pasar	-8.50605
▁motor	-8.50986
▁ribu	-8.51049
▁pemimpin	-8.51092
▁Hamas	-8.51383
▁guru	-8.51394
▁Februari	-8.51453
▁Untuk	-8.51736
▁menilai	-8.51792
par	-8.51955
ry	-8.5205
▁listrik	-8.52057
▁kejadian	-8.523
▁of	-8.52433
mar	-8.52679
▁Ni	-8.52937
▁24	-8.52939
▁digunakan	-8.53156
▁menegaskan	-8.53645
▁pemerintahan	-8.53653
▁Biden	-8.53654
▁Wali	-8.53861
▁kalau	-8.53892
▁Jatim	-8.53942
▁Mi	-8.53945
▁ditemukan	-8.53956
▁Persib	-8.53957
▁As	-8.54129
▁menuju	-8.54218
tar	-8.54237
ap	-8.54435
▁kapal	-8.54488
▁menambahkan	-8.5451
V	-8.54534
▁Nomor	-8.54575
▁berjalan	-8.54694
▁Banten	-8.54952
nda	-8.54964
v	-8.55196
▁teknologi	-8.55223
▁Deng	-8.55256
ton	-8.5527
▁b	-8.55281
▁ba	-8.55351
▁peserta	-8.55697
nd	-8.5578
▁de	-8.56046
▁tewas	-8.5608
lang	-8.56171
▁DKI	-8.56426
▁Dan	-8.56451
▁petugas	-8.56457
▁Jepang	-8.56462
▁25	-8.56801
▁Baru	-8.56951
▁bisnis	-8.56955
▁The	-8.57031
der	-8.57426
va	-8.57529
ek	-8.57547
▁Z	-8.57606
▁Ha	-8.5766
▁Wa	-8.57895
dar	-8.57985
▁Adapun	-8.58004
dik	-8.58029
▁tahu	-8.58071
▁sempat	-8.58123
▁milik	-8.58186
▁mau	-8.5833
▁Salah	-8.58338
▁usaha	-8.58649
▁komitmen	-8.5876
lin	-8.58814
▁Co	-8.58828
▁in	-8.58892
▁jam	-8.59008
▁terutama	-8.59019
▁sebagian	-8.5902
▁e	-8.59133
▁musim	-8.59214
▁Be	-8.59258
▁pemeriksaan	-8.59344
▁9	-8.59362
▁23	-8.59467
▁meraih	-8.59475
au	-8.59486
▁pa	-8.59542
▁kantor	-8.5957
▁Eropa	-8.59606
▁ketiga	-8.59622
▁terbaik	-8.59789
semakin	-8.59915
▁periode	-8.59933
▁sektor	-8.59999
▁khusus	-8.60116
▁Pertamina	-8.60327
▁diberikan	-8.60469
▁Jenderal	-8.60524
▁Kemudian	-8.60644
▁potensi	-8.60656
▁ta	-8.60888
▁Tak	-8.61492
▁Program	-8.61501
▁aman	-8.6154
▁Calon	-8.61571
▁jatim	-8.61585
▁22	-8.61609
▁Bu	-8.61762
▁berinisial	-8.61785
▁Pak	-8.61791
▁Subianto	-8.61919
dy	-8.61942
rah	-8.61993
▁posisi	-8.62069
▁hubungan	-8.62173
cu	-8.62236
▁cepat	-8.62326
▁memberi	-8.62342
▁cuaca	-8.62455
▁Dinas	-8.62552
▁mengikuti	-8.6259
▁korupsi	-8.62598
▁desa	-8.62893
gan	-8.63017
▁selalu	-8.63084
▁k	-8.63507
▁membangun	-8.63539
mas	-8.63754
▁maka	-8.64006
▁perubahan	-8.64082
▁meningkat	-8.64095
▁mendatang	-8.64351
ed	-8.64466
▁rakyat	-8.64477
min	-8.64607
▁Ca	-8.64786
ting	-8.64796
▁disampaikan	-8.64906
▁video	-8.64974
om	-8.64997
▁jabar	-8.65182
▁bali	-8.65341
▁Wi	-8.65463
▁ikut	-8.65528
za	-8.65559
ic	-8.65609
▁Jabar	-8.65705
▁mahasiswa	-8.65766
▁keputusan	-8.65805
▁Jateng	-8.6642
▁pertemuan	-8.66433
▁bentuk	-8.66652
▁Ku	-8.66675
▁pemilihan	-8.66702
ent	-8.66767
▁film	-8.66796
▁m	-8.66818
▁27	-8.66987
war	-8.67167
▁Bo	-8.6728
▁tindakan	-8.67328
mat	-8.67376
▁Agung	-8.67572
▁FC	-8.67621
itas	-8.67918
▁kesempatan	-8.68057
▁kemenangan	-8.68126
▁nanti	-8.68143
▁menang	-8.68255
▁perjalanan	-8.68339
▁Pelatih	-8.68411
▁peningkatan	-8.68553
▁jauh	-8.68591
▁PBB	-8.68608
Saya	-8.68719
Gibran	-8.68758
▁Ga	-8.68788
▁Tidak	-8.69075
▁jenis	-8.69137
isi	-8.69231
▁X	-8.69256
▁gol	-8.69286
▁Gibran	-8.69497
▁Lo	-8.69508
▁udara	-8.69631
aya	-8.69774
▁terpilih	-8.69776
▁dekat	-8.69794
▁membuka	-8.69856
▁Inggris	-8.70138
j	-8.70224
▁Dewan	-8.70411
▁kurang	-8.70508
▁enam	-8.70721
▁memilih	-8.70726
▁Budi	-8.70758
up	-8.70812
▁kuat	-8.70854
▁ko	-8.70876
▁seusai	-8.70951
▁mengambil	-8.70982
▁poin	-8.71014
▁bahan	-8.71191
▁nilai	-8.71239
mb	-8.7126
▁tinggal	-8.71527
▁kecil	-8.71816
▁daya	-8.71836
▁turun	-8.71898
▁menjalani	-8.71899
▁begitu	-8.71969
▁Bi	-8.71985
be	-8.72007
▁Golkar	-8.72124
▁tenaga	-8.72192
▁UMKM	-8.72355
fa	-8.72399
▁menit	-8.72431
NG	-8.72507
tra	-8.72573
▁Denpasar	-8.72637
▁merasa	-8.72702
▁jawab	-8.72712
▁Hukum	-8.72715
▁Je	-8.72766
▁pria	-8.72808
▁Warga	-8.72819
▁terlibat	-8.72935
▁Rumah	-8.73023
▁saksi	-8.73151
▁Pemilihan	-8.73193
▁memenuhi	-8.73609
▁melaporkan	-8.73656
▁Meng	-8.73697
ud	-8.73708
▁penuh	-8.73765
▁Pra	-8.73877
▁online	-8.74139
pol	-8.7429
▁pusat	-8.74323
▁bidang	-8.74376
▁biasa	-8.74498
▁dampak	-8.74515
adi	-8.7453
eng	-8.74643
▁Jaya	-8.74944
jang	-8.74961
▁berdasarkan	-8.74972
▁Pol	-8.75189
▁PDIP	-8.75339
ser	-8.75369
kat	-8.75811
▁ditangkap	-8.7589
▁bagaimana	-8.75967
▁Dari	-8.76236
sel	-8.76482
▁angka	-8.76527
▁operasi	-8.76581
▁fasilitas	-8.76722
▁Lu	-8.76727
fi	-8.76738
so	-8.76761
mba	-8.76869
▁global	-8.7705
sh	-8.77065
▁khususnya	-8.77111
▁Australia	-8.77206
if	-8.7724
▁laut	-8.77303
▁lembaga	-8.77358
▁sumber	-8.7744
bang	-8.7744
▁Menurutnya	-8.77556
▁maju	-8.77705
tas	-8.7774
▁ASN	-8.77751
▁positif	-8.78224
▁sekarang	-8.78224
nilai	-8.78231
▁satunya	-8.78255
▁Raya	-8.78269
▁No	-8.78302
PP	-8.7838
▁Gedung	-8.7839
ver	-8.78433
▁digital	-8.78606
▁honorer	-8.78621
bat	-8.78687
▁Dunia	-8.78781
▁Riau	-8.78843
▁pekerja	-8.78881
▁Do	-8.78934
▁lintas	-8.79173
▁Utama	-8.79279
▁ma	-8.79309
▁banjir	-8.79315
masing	-8.79362
▁Perjuangan	-8.79412
▁menemukan	-8.79412
las	-8.7943
▁total	-8.79821
ris	-8.79937
▁Har	-8.80073
▁Besar	-8.80155
▁sa	-8.80167
▁keras	-8.80352
▁pagi	-8.80352
dan	-8.80602
▁gubernur	-8.80613
▁penghargaan	-8.80775
son	-8.80779
▁te	-8.80826
▁la	-8.80977
▁bermain	-8.81008
▁unit	-8.8102
▁kekerasan	-8.81098
akan	-8.81188
Y	-8.81354
tif	-8.81494
▁Dr	-8.81535
▁peran	-8.81631
tur	-8.81653
tang	-8.81827
sama	-8.8201
/2024	-8.82052
▁setempat	-8.82365
▁hampir	-8.82405
▁Air	-8.82553
▁pidana	-8.82736
▁sekali	-8.82961
▁pasukan	-8.83066
ram	-8.83163
diri	-8.83179
▁manusia	-8.83393
ana	-8.83516
▁lapangan	-8.83647
▁Republik	-8.83891
▁naik	-8.8392
nas	-8.83969
▁Dua	-8.84073
op	-8.84075
▁Yogyakarta	-8.84225
▁antaranya	-8.8434
▁berita	-8.84363
asa	-8.84387
▁masing	-8.84583
▁26	-8.84721
▁menyebabkan	-8.84896
▁28	-8.85056
▁guna	-8.85309
▁energi	-8.85402
▁II	-8.8543
▁pemilih	-8.85503
▁disebut	-8.85532
▁ya	-8.85801
▁ra	-8.85803
▁namun	-8.85828
▁menjelang	-8.85917
ahan	-8.86084
sepanjang	-8.86257
▁sipil	-8.86593
▁Nur	-8.86641
▁Muhammad	-8.86728
bel	-8.86735
▁UU	-8.87021
▁DPRD	-8.87156
▁pelanggaran	-8.87327
▁29	-8.87365
▁memperkuat	-8.87539
▁Pu	-8.87567
▁api	-8.87572
▁Joko	-8.87624
▁menarik	-8.87885
▁Ko	-8.87909
▁lokal	-8.87976
tasi	-8.87985
res	-8.88086
▁turut	-8.88185
▁menyebutkan	-8.88353
▁jalur	-8.88668
pen	-8.8891
▁kan	-8.89064
▁tubuh	-8.89106
▁fokus	-8.89136
ten	-8.89185
▁berbeda	-8.89275
▁Islam	-8.89291
▁Agus	-8.89412
▁mencari	-8.89464
▁PDI	-8.89517
ari	-8.8974
gen	-8.898
▁tangan	-8.8986
▁menghadirkan	-8.89899
▁tapi	-8.89943
▁Kerja	-8.90007
ker	-8.90082
▁bertemu	-8.90084
▁perkara	-8.90096
▁mudah	-8.90135
▁kualitas	-8.90165
▁sisi	-8.90446
▁Kesehatan	-8.9052
▁benar	-8.90589
▁si	-8.90664
▁Yo	-8.90691
▁demikian	-8.90788
▁akses	-8.90877
uan	-8.90949
▁narkoba	-8.90965
▁kemungkinan	-8.90966
▁kemarin	-8.91325
%	-8.9137
▁demi	-8.91372
▁menciptakan	-8.91504
SI	-8.91536
AN	-8.91564
ita	-8.91601
10	-8.91605
▁tugas	-8.91606
▁bicara	-8.91778
▁PP	-8.91871
gal	-8.9201
▁target	-8.92017
▁Tri	-8.92017
▁Anak	-8.92024
▁dimulai	-8.92141
▁Ge	-8.92167
▁terdapat	-8.92498
▁tujuan	-8.92547
▁diketahui	-8.92588
▁pengalaman	-8.92589
▁keuangan	-8.92771
▁muncul	-8.92875
▁Widodo	-8.93044
▁menteri	-8.93136
ny	-8.93144
▁To	-8.93253
▁keterangannya	-8.93293
▁manfaat	-8.93318
▁Karena	-8.93334
▁pelaksanaan	-8.93403
▁ajang	-8.93451
▁Anggota	-8.93501
▁asing	-8.93703
▁Sebelumnya	-8.9371
undang	-8.93739
▁ruang	-8.93943
RI	-8.93987
▁rencana	-8.93989
▁and	-8.94048
▁Luar	-8.94052
▁pembunuhan	-8.94053
▁isu	-8.9416
▁Mas	-8.94197
▁tuturnya	-8.94364
▁DPP	-8.94411
▁situasi	-8.94437
▁pengembangan	-8.94494
lak	-8.94495
▁luas	-8.94753
▁pengguna	-8.94761
▁kecelakaan	-8.94793
▁Lebih	-8.94794
▁proyek	-8.94966
▁Kombes	-8.95074
▁berat	-8.95125
ly	-8.95243
▁g	-8.95293
anti	-8.95319
▁Masyarakat	-8.95392
▁organisasi	-8.95426
▁pertumbuhan	-8.95539
▁tua	-8.95595
▁Pilpres	-8.95633
▁Itu	-8.95764
▁Bidang	-8.95849
▁ilegal	-8.95914
▁Malang	-8.95934
▁Laut	-8.96119
ger	-8.96155
ag	-8.9617
UNG	-8.96185
▁produksi	-8.96255
anto	-8.96256
▁Sumatera	-8.96291
ian	-8.96363
▁Humas	-8.96474
;	-8.9648
▁Demokrat	-8.9648
▁Aceh	-8.9648
atan	-8.96487
▁Man	-8.96663
▁Vi	-8.96736
▁pesawat	-8.96763
▁bernama	-8.96847
▁melaksanakan	-8.96858
▁putusan	-8.96911
X	-8.96915
▁mengumumkan	-8.96953
▁diharapkan	-8.97143
▁ucapnya	-8.97153
▁tiba	-8.97273
ll	-8.97351
▁Ya	-8.97462
ding	-8.97476
pas	-8.97479
ling	-8.97484
ip	-8.9751
▁panjang	-8.97525
▁Ali	-8.97767
▁emas	-8.98025
▁ge	-8.98194
▁sang	-8.9834
PD	-8.98467
▁Tangerang	-8.98483
▁diterima	-8.98483
▁tanggal	-8.9863
▁area	-8.98692
20	-8.98728
▁bangsa	-8.98775
▁meny	-8.98954
▁dikenal	-8.9926
▁melibatkan	-8.99355
▁apakah	-8.99587
▁Bawaslu	-8.9969
▁makan	-8.99798
▁penyakit	-8.99842
▁aturan	-8.99846
hari	-8.99907
▁alasan	-8.99949
▁dini	-8.99985
▁AKBP	-9.00038
▁dana	-9.00119
▁usia	-9.00192
▁pro	-9.00192
▁pangan	-9.00219
eberapa	-9.00223
pun	-9.00256
▁tegas	-9.00267
▁BRI	-9.0027
▁SURABAYA	-9.00332
▁kepolisian	-9.00332
▁memimpin	-9.00332
▁makin	-9.00377
sen	-9.00429
▁Pengadilan	-9.0043
▁Arab	-9.00484
gar	-9.00514
▁Hasil	-9.0052
ve	-9.00556
sari	-9.00562
▁Satu	-9.00641
isasi	-9.00722
▁titik	-9.00742
▁kasih	-9.00775
▁alias	-9.00923
▁budaya	-9.00929
▁sering	-9.00975
tis	-9.01048
yang	-9.01067
▁Pendidikan	-9.0112
▁to	-9.01307
▁tantangan	-9.01418
ina	-9.0145
▁03	-9.0146
ono	-9.01558
▁Am	-9.01611
ot	-9.0169
▁01	-9.01706
▁terlihat	-9.01842
▁alat	-9.01903
▁Sekretaris	-9.01915
▁peluang	-9.01915
▁lewat	-9.01931
▁Meski	-9.02211
ns	-9.02336
▁akun	-9.02606
pu	-9.02612
▁sidang	-9.02643
▁Kalau	-9.02752
▁Sebagai	-9.02757
▁02	-9.02801
▁sana	-9.02831
▁personel	-9.02918
▁Tu	-9.02918
po	-9.02983
▁kunjungan	-9.03013
▁terbesar	-9.03143
PA	-9.03257
ty	-9.03301
0.000	-9.03331
▁pilihan	-9.03399
▁survei	-9.03423
▁bola	-9.0354
Ke	-9.03595
▁tampil	-9.03625
▁pasti	-9.03683
▁melanjutkan	-9.03829
▁tepat	-9.0384
tal	-9.04013
▁Fa	-9.04029
▁kepentingan	-9.04032
▁dibandingkan	-9.04069
▁anggaran	-9.04236
▁San	-9.04292
▁le	-9.04299
Se	-9.04329
▁Prof	-9.04335
▁mencatat	-9.04339
▁Go	-9.0444
▁pendukung	-9.04543
▁Kasus	-9.04899
▁berupa	-9.04918
▁So	-9.05034
▁triliun	-9.05056
▁bencana	-9.05064
▁Pro	-9.05287
▁200	-9.05395
▁Uni	-9.05469
▁31	-9.05485
ham	-9.05562
▁berkomitmen	-9.05572
af	-9.05635
AS	-9.05767
▁enggak	-9.05785
sta	-9.05802
▁non	-9.059
▁berasal	-9.05947
▁arah	-9.05978
▁tokoh	-9.06132
▁konflik	-9.06195
▁seleksi	-9.06195
▁mengajak	-9.06202
▁badan	-9.06221
▁tujuh	-9.06299
▁aktif	-9.06718
ara	-9.06819
awa	-9.06841
▁Ibu	-9.07036
▁Kar	-9.07205
▁strategis	-9.07229
▁pelayanan	-9.07347
ment	-9.074
▁musik	-9.07453
▁Mem	-9.07482
▁investasi	-9.07558
▁Gu	-9.07639
jar	-9.07736
tujuan	-9.07939
▁penjara	-9.07981
rak	-9.08128
▁konferensi	-9.08197
▁Lampung	-9.08204
▁pesan	-9.08397
▁lahan	-9.08482
rang	-9.08569
▁100	-9.0859
▁Palembang	-9.08619
▁terbuka	-9.08726
mer	-9.08764
▁Y	-9.08796
ani	-9.0884
▁sehat	-9.09078
▁kinerja	-9.09153
▁Jerman	-9.09154
he	-9.09277
nal	-9.09321
▁Du	-9.09328
▁luka	-9.09334
▁provinsi	-9.09368
▁tindak	-9.09457
rat	-9.09567
▁formasi	-9.09638
kon	-9.09678
▁dilaksanakan	-9.09691
tek	-9.0982
▁Oleh	-9.09854
▁siapa	-9.09861
▁dilaporkan	-9.09907
tim	-9.10028
▁mata	-9.10092
▁Hi	-9.1015
▁DPD	-9.10199
▁Ju	-9.10226
▁Metro	-9.10252
▁babak	-9.10352
▁jelasnya	-9.10364
▁solusi	-9.10457
-20	-9.10471
▁penumpang	-9.10666
▁final	-9.10778
▁BMKG	-9.10807
▁04	-9.10851
den	-9.10878
▁Kapolres	-9.10882
▁Korupsi	-9.10993
▁be	-9.11021
▁Bekasi	-9.11226
▁Pasal	-9.11267
▁BUMN	-9.11277
lam	-9.11292
pres	-9.11356
rus	-9.11448
▁keluar	-9.11459
▁gratis	-9.11541
▁Nusantara	-9.11651
mal	-9.11726
▁perdana	-9.11807
▁Ru	-9.1206
▁teman	-9.12062
▁latihan	-9.12092
▁Pan	-9.12112
▁dianggap	-9.12301
▁berusaha	-9.12353
wo	-9.12485
▁pekerjaan	-9.12506
▁He	-9.12525
▁sini	-9.12544
▁bu	-9.12573
▁penggunaan	-9.12589
AR	-9.12693
▁50	-9.12935
▁aktivitas	-9.12979
▁Ti	-9.13199
▁ternyata	-9.13211
▁Mahkamah	-9.13314
▁Prancis	-9.13314
▁biaya	-9.13328
▁Is	-9.13333
baru	-9.13383
we	-9.13522
ner	-9.13526
▁BAND	-9.13538
▁sampah	-9.1365
▁ga	-9.13759
▁Ce	-9.13777
▁pentingnya	-9.13985
▁2025	-9.14108
▁berupaya	-9.14192
▁mengungkap	-9.14198
▁pendaftaran	-9.14632
kh	-9.14642
tin	-9.14704
ster	-9.14763
mbu	-9.14764
kah	-9.14766
▁menolak	-9.14778
▁Kon	-9.14799
▁generasi	-9.14891
▁Sumber	-9.15006
tah	-9.15057
▁India	-9.15151
▁jabatan	-9.15322
▁siswa	-9.15347
▁El	-9.15355
▁Hu	-9.15502
▁peristiwa	-9.15575
angka	-9.15736
▁menangkap	-9.1582
port	-9.15953
▁aplikasi	-9.16034
▁belakang	-9.16221
yu	-9.16237
ye	-9.16242
▁wartawan	-9.16264
lis	-9.16277
▁ialah	-9.16291
▁lagu	-9.16334
▁Filipina	-9.16379
▁Kalimantan	-9.16379
▁semangat	-9.16494
rd	-9.16608
▁Gerindra	-9.1661
▁ditetapkan	-9.1661
▁jaringan	-9.16613
▁penyelidikan	-9.16663
▁lantaran	-9.16841
▁demokrasi	-9.17134
▁sulit	-9.17194
bah	-9.17243
uri	-9.17377
▁kematian	-9.17656
▁petani	-9.17671
▁ku	-9.17706
▁pelatih	-9.17738
▁pribadi	-9.17772
▁Ramadan	-9.17772
▁hakim	-9.17831
und	-9.17941
▁Instagram	-9.18006
▁Undang	-9.18032
hal	-9.18124
▁al	-9.18158
▁pertahanan	-9.1824
▁hukuman	-9.18341
▁tentu	-9.18474
▁Sebanyak	-9.18501
▁Jo	-9.18502
benar	-9.1858
▁Ilustrasi	-9.18593
▁pimpinan	-9.18593
annya	-9.18637
▁putra	-9.18719
sum	-9.18739
▁mengetahui	-9.18829
▁memenangkan	-9.18893
▁paslon	-9.18947
kap	-9.1906
MI	-9.19067
▁selatan	-9.191
▁Lebanon	-9.19184
▁ancaman	-9.19184
ih	-9.19406
▁ratusan	-9.19422
awan	-9.19426
▁Berdasar	-9.19432
▁meskipun	-9.19433
▁Kali	-9.19608
▁menye	-9.19643
▁hati	-9.19667
▁signifikan	-9.19779
▁judi	-9.19781
▁Malaysia	-9.1982
▁Pas	-9.19892
▁komunitas	-9.19898
▁Putih	-9.19899
▁ringan	-9.19911
▁dasar	-9.20027
jateng	-9.20036
▁Baswedan	-9.20257
▁menyediakan	-9.20257
▁perhatian	-9.20258
▁diper	-9.20264
▁skor	-9.2031
▁kolaborasi	-9.20377
▁kelas	-9.20505
▁Perdana	-9.2054
▁menghadiri	-9.20569
▁ulang	-9.20623
▁HAM	-9.20666
▁PKB	-9.20692
▁mencegah	-9.20738
▁menjabat	-9.20858
▁peringatan	-9.21221
▁MK	-9.21269
▁jajaran	-9.21342
▁kenaikan	-9.21342
▁menjalankan	-9.21343
▁Ki	-9.21497
▁Pasar	-9.21563
▁Korban	-9.21588
aman	-9.2165
▁dikutip	-9.21707
▁Tol	-9.21752
▁05	-9.21757
▁Serang	-9.21941
▁Tenggara	-9.21949
▁sedikit	-9.21972
▁eks	-9.22071
▁JPNN	-9.22148
▁gagal	-9.22208
PI	-9.22233
▁Mantan	-9.2237
▁TPS	-9.22472
▁inovasi	-9.2256
▁for	-9.22594
▁pegawai	-9.22683
▁Gunung	-9.22683
duk	-9.22871
▁mengurangi	-9.22929
▁juara	-9.22929
▁Keuangan	-9.23052
▁dokter	-9.23074
ket	-9.23187
▁2023.	-9.23204
▁minggu	-9.23291
▁Paris	-9.23301
gas	-9.23333
▁membutuhkan	-9.23422
AM	-9.2352
▁perbatasan	-9.23546
▁rapat	-9.23557
50	-9.23655
▁terima	-9.23675
ren	-9.23747
▁gelar	-9.23808
ff	-9.23847
▁Kegiatan	-9.23885
▁platform	-9.24043
▁Pilgub	-9.24227
ada	-9.24292
▁BBC	-9.24342
car	-9.24396
▁kekuatan	-9.24407
▁izin	-9.24417
▁meluncurkan	-9.24421
▁memutuskan	-9.24488
▁06	-9.24513
▁Suriah	-9.24542
▁Pj	-9.24558
▁berkelanjutan	-9.24667
▁Berikut	-9.24667
IN	-9.24687
▁New	-9.24699
▁menga	-9.24725
KI	-9.24818
▁Dis	-9.24933
ua	-9.24966
▁memb	-9.25042
▁MotoGP	-9.25043
▁kemampuan	-9.25169
▁menewaskan	-9.25169
▁Orang	-9.25269
din	-9.25292
▁menunggu	-9.2532
▁penyidik	-9.25552
▁Internasional	-9.25674
▁Sri	-9.25694
▁na	-9.25754
▁jadwal	-9.258
cam	-9.25823
tika	-9.25868
▁boleh	-9.25934
▁bebas	-9.25934
dak	-9.26053
▁delapan	-9.26054
tel	-9.26276
▁vs	-9.26307
anda	-9.26357
▁Ho	-9.26369
por	-9.26556
▁Hasto	-9.26594
ine	-9.2673
▁momen	-9.26766
▁membahas	-9.26819
▁Kita	-9.26865
fe	-9.26914
▁konsumen	-9.27075
ria	-9.27169
▁dibawa	-9.27221
▁Muda	-9.27222
dung	-9.27385
▁tahap	-9.27466
zi	-9.27611
▁Mer	-9.27648
but	-9.27698
▁mengajukan	-9.27719
laki	-9.27744
▁n	-9.27766
▁ANTARA	-9.2777
▁menekankan	-9.27793
▁Bagi	-9.27861
▁Sebab	-9.2787
▁siang	-9.27965
▁Jika	-9.27995
ky	-9.28064
▁mencoba	-9.28107
▁foto	-9.28116
▁Kedua	-9.28271
Per	-9.28378
▁puluhan	-9.28448
▁menetapkan	-9.28496
▁Ad	-9.28542
▁Bandara	-9.28566
sar	-9.28627
unjuk	-9.28641
▁Sen	-9.28659
▁dokumen	-9.28734
▁Sulawesi	-9.28757
▁Grup	-9.28781
▁wisata	-9.28853
od	-9.28854
▁Ridwan	-9.28888
▁Pembangunan	-9.28888
▁ketua	-9.29022
▁alam	-9.29077
▁selesai	-9.29149
▁mengatasi	-9.29164
▁Gi	-9.29324
▁Selama	-9.29372
▁Shin	-9.29402
yanto	-9.29408
▁sukses	-9.29543
▁istri	-9.29625
▁kader	-9.29724
▁mer	-9.29749
▁Ne	-9.29758
▁tutur	-9.2977
▁Wilayah	-9.29806
▁sejarah	-9.29806
ASAR	-9.2982
▁uji	-9.29822
▁Yang	-9.29838
▁Sin	-9.2988
▁risiko	-9.29938
dah	-9.29996
tak	-9.30061
▁kemanusiaan	-9.3007
▁menawarkan	-9.3007
▁Gus	-9.30116
▁penduduk	-9.30468
▁Saudi	-9.30469
kri	-9.30472
▁lu	-9.30508
ENP	-9.30545
land	-9.30709
▁Adi	-9.30864
▁mengeluarkan	-9.31
▁IKN	-9.31079
▁aku	-9.31113
▁justru	-9.31133
▁Center	-9.31134
▁nyata	-9.31215
▁Rakabuming	-9.31267
aran	-9.31332
pul	-9.3137
▁menuturkan	-9.31401
▁harapan	-9.31414
▁debat	-9.31433
▁pi	-9.31595
▁Rakyat	-9.31669
▁III	-9.31695
IP	-9.3177
▁bersih	-9.3197
▁mengakui	-9.32011
▁Begini	-9.32073
▁tertinggi	-9.32073
▁International	-9.32102
▁percaya	-9.32115
uran	-9.32161
▁sore	-9.32259
▁buah	-9.32329
▁kebakaran	-9.32343
▁agama	-9.32344
30	-9.32443
▁Abdul	-9.32453
▁mengamankan	-9.32479
▁Raka	-9.32497
▁2021	-9.32517
▁status	-9.32562
▁gabungan	-9.32749
▁menyambut	-9.32749
▁Group	-9.3275
▁kandidat	-9.32885
▁bangunan	-9.32894
▁bagus	-9.32894
▁kabupaten	-9.32923
▁berkembang	-9.33022
▁kalah	-9.33027
▁Koordinator	-9.33158
▁mengembangkan	-9.33161
▁berlaku	-9.33253
▁Perempuan	-9.33294
baik	-9.33357
▁kehidupan	-9.33431
lt	-9.33448
▁Un	-9.33453
▁meski	-9.33577
▁Thailand	-9.33704
▁sosok	-9.33705
jam	-9.33706
pel	-9.33806
je	-9.33866
▁bergabung	-9.33979
▁antar	-9.33997
▁dinilai	-9.34004
▁09	-9.34007
▁meter	-9.34105
▁mo	-9.34113
▁kesejahteraan	-9.34117
▁07	-9.34252
▁40	-9.34391
▁lakukan	-9.34394
▁CPNS	-9.34466
elalui	-9.34564
pang	-9.34649
▁perkembangan	-9.34807
▁Airlangga	-9.34946
▁kategori	-9.35007
Men	-9.35076
!	-9.35085
▁berbicara	-9.35085
kor	-9.35121
▁Po	-9.35261
▁0	-9.35268
put	-9.35304
▁Han	-9.35314
▁rangka	-9.35349
▁Sukabumi	-9.35363
ngan	-9.35393
uhan	-9.35403
15	-9.35428
▁pemungutan	-9.3551
24	-9.35548
ring	-9.35554
mula	-9.35563
lar	-9.35671
▁2022	-9.35697
▁mengingatkan	-9.35762
▁bergerak	-9.35782
▁menyerang	-9.35802
jak	-9.35857
22	-9.35891
nan	-9.35912
▁RS	-9.35979
les	-9.35988
ac	-9.36092
▁We	-9.36152
▁pengelolaan	-9.36232
uddin	-9.36329
▁perlindungan	-9.36343
▁terdampak	-9.36343
▁jiwa	-9.36345
era	-9.36419
▁mewujudkan	-9.36486
unt	-9.36699
ali	-9.36763
ura	-9.36893
▁mitra	-9.36947
▁kabar	-9.36984
▁Forum	-9.37096
▁Ben	-9.37147
▁Taiwan	-9.37192
▁sepeda	-9.37192
▁War	-9.37336
▁diperkirakan	-9.37396
lit	-9.37465
lek	-9.37483
▁merah	-9.37492
lik	-9.37494
▁bi	-9.37558
▁Pertahanan	-9.37618
▁terdakwa	-9.37618
aga	-9.37659
▁infrastruktur	-9.37761
▁arus	-9.37801
kota	-9.37945
lon	-9.38024
▁rendah	-9.38047
▁Sumsel	-9.38159
▁Pelaku	-9.38198
▁balik	-9.38233
pak	-9.38315
▁pengawasan	-9.3832
▁sebenarnya	-9.38335
▁pemilik	-9.38478
▁truk	-9.38531
18	-9.38572
▁bus	-9.38615
▁Olimpiade	-9.38621
23	-9.38677
▁08	-9.38699
▁Acara	-9.38707
▁klub	-9.38765
▁hilang	-9.38766
▁Hotel	-9.38776
▁ribuan	-9.38797
tion	-9.38845
▁pelatihan	-9.38951
▁berbasis	-9.39056
▁Kelurahan	-9.39199
▁Khusus	-9.39199
▁tambahan	-9.39305
▁insiden	-9.39489
▁seharusnya	-9.39489
▁Pasangan	-9.39516
▁Medan	-9.39544
▁Yu	-9.39624
▁anti	-9.39699
11	-9.3972
▁rudal	-9.3978
▁juru	-9.39787
▁pajak	-9.398
▁Ari	-9.39877
enang	-9.3988
▁sabu	-9.39914
▁tema	-9.39922
▁perdagangan	-9.39926
PT	-9.39926
▁Tanah	-9.39993
MK	-9.40055
mcr	-9.40072
ft	-9.40134
Ini	-9.40192
ras	-9.40244
▁meninggalkan	-9.40266
▁Lebaran	-9.40373
for	-9.40375
rasi	-9.40498
▁puncak	-9.4055
▁strategi	-9.40675
▁Pemain	-9.40678
IS	-9.40781
tam	-9.40791
▁menyiapkan	-9.40805
▁pilkada	-9.40805
▁pengungsi	-9.40805
▁berpotensi	-9.40807
▁putri	-9.40817
▁MA	-9.40844
▁kesepakatan	-9.40952
▁melanggar	-9.40955
-19	-9.40999
▁kalangan	-9.411
▁minyak	-9.41101
▁daftar	-9.41244
AT	-9.4126
asan	-9.41357
▁berakhir	-9.41368
tro	-9.41371
▁karya	-9.41411
sus	-9.41428
▁pelanggan	-9.41543
▁Garuda	-9.41543
▁maksimal	-9.41543
▁ahli	-9.41547
▁darah	-9.41566
▁terlalu	-9.41692
▁Hizbullah	-9.4184
▁perawatan	-9.4184
▁didukung	-9.41841
▁memper	-9.41903
sah	-9.41952
ologi	-9.41958
▁tiket	-9.41999
▁berdampak	-9.42138
▁kulit	-9.42149
▁visi	-9.42159
PN	-9.42265
hat	-9.42283
▁Im	-9.42313
▁Dewi	-9.42386
▁buruk	-9.42438
▁utara	-9.42443
▁Kemenkumham	-9.42495
▁selaku	-9.42556
dia	-9.42721
▁tulis	-9.42747
▁Tinggi	-9.42772
▁memicu	-9.42887
▁Megawati	-9.42889
alih	-9.42903
▁KOTA	-9.43037
▁menyelesaikan	-9.43037
▁Putra	-9.43066
▁senior	-9.43076
▁Harga	-9.4315
29	-9.43172
len	-9.4333
▁Her	-9.43445
▁tanda	-9.43476
▁sanksi	-9.4349
▁PKS	-9.43512
▁Ang	-9.43514
▁jangan	-9.43524
isme	-9.436
▁wa	-9.43632
one	-9.43774
▁Lalu	-9.43796
▁paket	-9.43816
.30	-9.4394
bagi	-9.44087
▁permintaan	-9.44096
▁dr	-9.44123
▁Kaesang	-9.44248
▁Keamanan	-9.44249
▁misi	-9.44299
▁Banyak	-9.44345
▁menyerahkan	-9.44363
▁Vietnam	-9.44401
▁penanganan	-9.44401
▁mendesak	-9.44553
▁kursi	-9.44555
hadiri	-9.44694
▁melindungi	-9.44706
kam	-9.44716
▁syarat	-9.44833
▁diselenggarakan	-9.44859
▁serius	-9.44912
api	-9.44973
▁Operasi	-9.45009
ation	-9.45026
25	-9.45124
nto	-9.45162
▁rutin	-9.45168
Penjabat	-9.4517
ala	-9.45274
▁Kom	-9.45292
▁impor	-9.45337
▁sikap	-9.45339
▁2020	-9.45383
▁Pi	-9.45388
ahkan	-9.45407
▁Kamil	-9.45448
▁Khofifah	-9.45474
▁berperan	-9.45476
▁segala	-9.45476
▁Car	-9.45563
q	-9.45587
▁diikuti	-9.45629
▁kompetisi	-9.45629
ep	-9.45632
▁Padang	-9.45699
▁tata	-9.45722
▁mencetak	-9.45783
▁tertentu	-9.45783
▁iklim	-9.45783
▁tangga	-9.45799
▁tambah	-9.45901
▁pengadilan	-9.45938
▁awak	-9.4594
▁Kemen	-9.45969
▁Marc	-9.45977
nis	-9.46073
▁kejahatan	-9.46093
▁Jasa	-9.4623
▁penerbangan	-9.46248
▁menambah	-9.46249
▁saling	-9.46275
▁ekspor	-9.4628
▁kon	-9.46429
tung	-9.46674
▁ungkapnya	-9.46868
▁Harris	-9.46902
antara	-9.46914
▁Natal	-9.46937
▁tu	-9.46938
:00	-9.46955
▁j	-9.46968
▁AKP	-9.46988
sin	-9.4708
my	-9.47103
ron	-9.47119
▁Tan	-9.47176
▁tentara	-9.47185
▁Pulau	-9.47185
ambil	-9.472
▁gram	-9.47212
▁Eri	-9.47266
▁Juru	-9.47307
▁Par	-9.47314
Di	-9.47316
▁kiri	-9.47355
▁beras	-9.4749
▁mengapresiasi	-9.47499
▁Pri	-9.47514
▁panas	-9.4754
▁Ekonomi	-9.47543
▁Pemkot	-9.47558
▁unggul	-9.47613
▁mencakup	-9.47657
▁menimbul	-9.47657
▁Film	-9.47657
▁Apa	-9.47707
▁MPR	-9.47718
▁For	-9.47806
ASN	-9.47806
▁Pertama	-9.47857
kin	-9.48001
▁Sleman	-9.48132
▁Senayan	-9.48289
▁yakin	-9.48304
▁City	-9.48389
bal	-9.48407
ejumlah	-9.48486
▁Makassar	-9.48607
▁perjanjian	-9.48607
▁pertanian	-9.48607
▁sehari	-9.48761
ndo	-9.48797
▁Lembaga	-9.48976
oh	-9.49074
▁Irjen	-9.49091
▁laki	-9.49184
▁dipimpin	-9.49406
▁wali	-9.49488
▁Meskipun	-9.49491
▁ki	-9.49572
▁penjualan	-9.49588
lain	-9.49622
▁batas	-9.49678
▁memanfaatkan	-9.49727
▁kepemimpinan	-9.49888
▁penyebab	-9.49889
▁ton	-9.4991
▁menge	-9.50002
PK	-9.50007
▁berke	-9.50042
▁kilometer	-9.50049
▁Kampung	-9.50069
lok	-9.50162
▁pelajar	-9.50214
▁Siap	-9.50267
▁Za	-9.5035
jan	-9.50351
▁berawan	-9.50359
▁olahraga	-9.50373
▁putih	-9.50373
▁gugatan	-9.50376
sia	-9.50413
bun	-9.50548
▁komunikasi	-9.50612
▁Merah	-9.5066
Ba	-9.50661
▁Polresta	-9.50677
▁tuduhan	-9.50698
▁Batu	-9.50776
▁mengingat	-9.50971
rs	-9.51005
▁operasional	-9.51031
ie	-9.51032
mpu	-9.51067
▁tambahnya	-9.51116
uji	-9.51207
▁mati	-9.5125
des	-9.51341
Mahfud	-9.51534
ukan	-9.51568
▁ditahan	-9.51713
kas	-9.51734
▁AI	-9.51781
▁bank	-9.51937
▁pencarian	-9.51995
▁rokok	-9.52005
▁diambil	-9.52041
ingat	-9.52053
▁Sejak	-9.52287
▁VOA	-9.52335
apan	-9.52363
daya	-9.52364
▁Joe	-9.52366
▁tampak	-9.52453
ning	-9.52477
▁apresiasi	-9.525
▁memasuki	-9.525
▁parlemen	-9.525
▁merilis	-9.525
▁gempa	-9.52516
▁Informasi	-9.52517
▁Serangan	-9.52525
▁berisi	-9.52527
▁Tae	-9.52654
stan	-9.52688
BP	-9.52826
▁Industri	-9.52832
▁transaksi	-9.52832
▁medis	-9.52882
▁kehilangan	-9.52998
▁bupati	-9.53005
▁Data	-9.53087
▁Motor	-9.53106
▁penelitian	-9.53149
▁Washington	-9.53164
▁peringkat	-9.53164
▁Mandiri	-9.53192
▁barat	-9.53248
▁diskusi	-9.53331
▁Perusahaan	-9.53331
dam	-9.53363
Undang	-9.53402
gel	-9.5344
▁Pria	-9.53456
▁Andi	-9.53464
▁persiapan	-9.53498
▁angin	-9.53508
▁mesin	-9.53553
▁laman	-9.53567
PU	-9.53585
▁Cha	-9.53629
▁zona	-9.53666
▁Dwi	-9.53829
▁dibuka	-9.53839
ulang	-9.53932
▁Iskandar	-9.54
▁putaran	-9.54002
▁Ram	-9.54024
▁Rai	-9.54161
▁menjawab	-9.54168
▁tercatat	-9.54168
▁mengalahkan	-9.54169
sis	-9.54218
▁suami	-9.54304
KPU	-9.54323
▁dulu	-9.54345
dis	-9.54517
bin	-9.54525
▁libur	-9.54598
ator	-9.5466
TA	-9.54669
▁Donald	-9.54674
▁atlet	-9.54675
▁Indra	-9.54676
wati	-9.54692
▁haji	-9.54702
lus	-9.54793
▁Pantai	-9.54852
ensi	-9.54864
bagai	-9.54868
▁Putri	-9.54884
ungan	-9.5489
▁mengubah	-9.54901
▁Q	-9.55004
▁mela	-9.55066
▁kaki	-9.55115
▁sembilan	-9.55183
16	-9.55265
▁kontra	-9.55304
▁ketat	-9.55314
▁berkontribusi	-9.55353
▁penegak	-9.55353
▁jatuh	-9.55369
▁2019	-9.55568
▁gedung	-9.55711
abu	-9.55717
▁Pos	-9.558
▁minuman	-9.55808
mus	-9.55842
▁Lingkungan	-9.55865
▁fisik	-9.55866
▁Hujan	-9.55914
rin	-9.55958
▁Persis	-9.55967
▁Dewa	-9.55974
sing	-9.56049
▁Pemkab	-9.56057
▁obat	-9.5609
▁Nusa	-9.56203
▁penangkapan	-9.56207
▁Pemprov	-9.56359
▁mudik	-9.5638
▁mengusung	-9.56382
sal	-9.56425
▁biasanya	-9.56438
▁tuan	-9.5644
▁mi	-9.5646
▁menurunkan	-9.56467
▁Petugas	-9.56559
eri	-9.56595
bus	-9.5666
▁pertanyaan	-9.56724
▁memulai	-9.56724
▁Politik	-9.56819
dana	-9.56848
▁selamat	-9.5686
▁Karawang	-9.56897
trans	-9.56974
teman	-9.56998
▁da	-9.57012
▁kehadiran	-9.5707
▁Hakim	-9.57085
▁memungkinkan	-9.57243
PS	-9.57314
▁ha	-9.57369
▁Festival	-9.57417
▁Kejaksaan	-9.57417
vo	-9.57458
suatu	-9.57462
MA	-9.57584
▁menu	-9.57639
est	-9.57712
▁sepak	-9.57716
▁Pemberantasan	-9.57765
▁kepercayaan	-9.57767
-23	-9.57824
▁berarti	-9.5791
▁60	-9.57976
▁pulang	-9.58037
▁Kepulauan	-9.58114
▁oknum	-9.58114
▁Digital	-9.58114
▁pantai	-9.58114
▁h	-9.5826
▁perwakilan	-9.58465
▁membeli	-9.58513
ben	-9.58532
/12	-9.58617
▁bayi	-9.58642
sabu	-9.58768
▁kapasitas	-9.58816
▁kereta	-9.58823
▁Bambang	-9.58891
▁li	-9.58924
ven	-9.58992
▁Madura	-9.58993
AP	-9.59002
▁hutan	-9.59017
▁undang	-9.59037
▁susu	-9.59103
▁2023,	-9.5914
▁Surat	-9.59163
▁Pranowo	-9.59169
▁gencatan	-9.59169
▁menutup	-9.5917
▁Trans	-9.59171
hati	-9.59223
pon	-9.59271
▁Dar	-9.59292
▁longsor	-9.59346
pat	-9.59359
▁terbukti	-9.59385
pro	-9.59415
▁pas	-9.59689
▁perekonomian	-9.59701
▁persoalan	-9.59701
▁pabrik	-9.59702
▁Sam	-9.59721
gah	-9.59855
▁pos	-9.59878
▁menghentikan	-9.59879
▁Hingga	-9.59887
28	-9.59924
sep	-9.59937
▁Daya	-9.60046
▁SEMARA	-9.60057
▁ditemui	-9.60065
▁Polsek	-9.60072
▁hewan	-9.60077
cer	-9.60159
▁Mahfud	-9.60213
▁diamankan	-9.60252
▁Mobil	-9.60267
▁sela	-9.603
AI	-9.60341
ler	-9.60342
▁am	-9.60486
mah	-9.60515
▁praktik	-9.6053
cur	-9.60537
17	-9.60572
▁menentukan	-9.60594
▁Afrika	-9.60594
▁teknis	-9.60594
▁CEO	-9.60594
ity	-9.60601
ov	-9.60647
end	-9.60705
▁memperoleh	-9.60777
▁Imigrasi	-9.60802
ER	-9.60876
ifikasi	-9.60948
▁fitur	-9.60955
▁Kan	-9.60982
ec	-9.61044
▁mengunjungi	-9.61134
▁belajar	-9.61137
▁Persebaya	-9.61138
▁coba	-9.61179
▁Sal	-9.61222
dampingi	-9.61264
ses	-9.61299
▁kontrak	-9.61386
ps	-9.61434
baya	-9.61439
▁pengamanan	-9.61496
▁damai	-9.61496
▁Bakal	-9.61543
▁keduanya	-9.61682
▁Tapi	-9.61758
▁co	-9.618
▁Guru	-9.61867
▁je	-9.61881
▁kampus	-9.61892
▁faktor	-9.6204
utan	-9.62095
▁buku	-9.62101
▁dibuat	-9.62188
ori	-9.62203
▁Sosial	-9.6221
jumlah	-9.62213
buru	-9.62217
▁mengonsumsi	-9.62222
▁profesional	-9.62223
▁mengadakan	-9.62223
▁aset	-9.62247
▁Ir	-9.62311
▁SAR	-9.62366
PM	-9.624
▁Semua	-9.62413
mana	-9.62471
Z	-9.62524
bul	-9.62584
▁bertajuk	-9.62587
▁Sat	-9.62593
▁kerap	-9.62684
PO	-9.62708
▁pel	-9.62731
▁Pelabuhan	-9.6277
▁the	-9.62782
ksi	-9.62821
NI	-9.6286
▁khawatir	-9.62954
▁standar	-9.62954
Jadi	-9.62993
▁dahulu	-9.63143
▁berwenang	-9.63203
▁Tiga	-9.63246
▁anaknya	-9.63301
▁kementerian	-9.63322
▁Karya	-9.63395
▁Kepolisian	-9.63506
▁Surakarta	-9.63506
▁tes	-9.63569
▁ti	-9.6361
itan	-9.63636
gra	-9.63658
▁efektif	-9.63699
sy	-9.63824
adu	-9.63846
▁aparat	-9.6387
▁menghasilkan	-9.63876
▁capres	-9.63877
▁Angkatan	-9.63907
lay	-9.63935
ial	-9.64052
▁Beijing	-9.64062
▁bahasa	-9.64254
iz	-9.64317
▁so	-9.6439
▁beroperasi	-9.64538
ret	-9.64588
▁darurat	-9.6462
▁penurunan	-9.6462
▁rusak	-9.64621
▁konten	-9.64638
▁era	-9.64672
▁timur	-9.64675
etika	-9.64704
▁Konstitusi	-9.64807
▁Peraturan	-9.64808
ini	-9.64814
tun	-9.64841
▁bertanggung	-9.64874
bak	-9.64933
pp	-9.64953
▁Turki	-9.65023
▁News	-9.65037
dal	-9.65169
▁kerugian	-9.65182
▁ri	-9.65184
gam	-9.65287
ib	-9.65352
▁seksual	-9.6537
▁pasien	-9.65371
26	-9.65388
rek	-9.65444
▁prioritas	-9.65558
▁menanggapi	-9.65565
▁rekan	-9.65685
▁kanan	-9.65693
▁Ayu	-9.65698
▁hitam	-9.65747
rata	-9.65823
mbak	-9.65828
Ma	-9.65848
jen	-9.65894
▁Produk	-9.65955
▁senang	-9.66023
▁Kelompok	-9.66125
▁Sungai	-9.66126
▁kemajuan	-9.66129
kur	-9.66184
▁Netanyahu	-9.66315
▁Masjid	-9.66315
▁diperlukan	-9.66316
▁beragam	-9.66323
KA	-9.66438
▁pula	-9.66446
▁u	-9.66468
▁menengah	-9.66506
▁pengusaha	-9.66518
▁memahami	-9.66696
▁mempertahankan	-9.66696
▁Layanan	-9.66696
▁pikir	-9.66706
▁layak	-9.66708
▁serupa	-9.66709
ngkar	-9.66768
ati	-9.66809
wal	-9.66849
▁Pekanbaru	-9.66887
▁Sekolah	-9.66887
▁grup	-9.66894
▁Kompol	-9.66907
letak	-9.66953
▁jasa	-9.67011
▁Mus	-9.67021
▁menyoroti	-9.67078
▁gas	-9.67171
▁Tang	-9.67268
▁Teknologi	-9.6727
▁mere	-9.67315
▁At	-9.67427
was	-9.67443
▁kerusakan	-9.67461
▁klaim	-9.67461
▁Putin	-9.67537
▁keadaan	-9.67659
▁Muslim	-9.67661
IC	-9.67687
kal	-9.67804
▁Qatar	-9.67846
SK	-9.67847
▁rangkaian	-9.67869
ub	-9.67999
▁lanjutnya	-9.68009
▁Sub	-9.68012
▁menjadikan	-9.68015
▁Pertanian	-9.68039
ika	-9.6804
▁membentuk	-9.68075
▁Bung	-9.68086
▁Gen	-9.68127
BK	-9.68218
▁kecamatan	-9.68233
kir	-9.68299
rum	-9.68354
▁pohon	-9.68446
▁pendapatan	-9.68488
▁lawan	-9.68509
▁diserta	-9.68509
arah	-9.68531
jur	-9.6854
▁menerapkan	-9.68621
▁mundur	-9.68621
▁selanjutnya	-9.68621
▁wanita	-9.68816
▁pengunjung	-9.68832
▁Gelar	-9.68835
kes	-9.68883
▁mene	-9.68913
▁Keluarga	-9.6901
▁Erick	-9.69046
▁penyelenggaraan	-9.69067
rama	-9.69093
▁Bersama	-9.69159
▁batu	-9.69171
▁dinyatakan	-9.69207
▁bertahan	-9.69211
▁Direktorat	-9.69401
▁Pimpinan	-9.69401
▁Spanyol	-9.69401
▁konsisten	-9.69401
II	-9.69406
▁Kelas	-9.69447
$	-9.69505
▁tanggung	-9.69653
▁Persija	-9.69795
pri	-9.69816
▁tahanan	-9.6983
lly	-9.6985
KP	-9.69869
nah	-9.69876
▁berubah	-9.69956
▁akrab	-9.69991
▁tekanan	-9.69999
▁nyaman	-9.70042
▁Hasan	-9.70134
udin	-9.7014
▁setidaknya	-9.70189
▁sesuatu	-9.70206
▁karyawan	-9.70222
▁Anwar	-9.70264
▁kunci	-9.70386
ila	-9.70445
Persero	-9.70492
▁Th	-9.70525
▁warna	-9.70539
▁kekuasaan	-9.70584
40	-9.70755
▁berkualitas	-9.70782
▁Tbk	-9.70783
▁Kaltim	-9.70792
ow	-9.70817
atif	-9.70936
Q	-9.70942
▁peraturan	-9.70981
▁2026	-9.71023
▁nantinya	-9.71174
▁pengiriman	-9.7118
▁transportasi	-9.7118
▁Martin	-9.71226
hak	-9.71226
▁Soal	-9.71245
▁Dedi	-9.71298
ight	-9.7134
rem	-9.71346
ikat	-9.7136
▁remaja	-9.7138
▁Agama	-9.71381
▁buat	-9.71433
DA	-9.71466
▁Akan	-9.71575
▁nasabah	-9.7158
▁lengkap	-9.7158
▁tumbuh	-9.7158
sir	-9.71712
bur	-9.71764
▁Kapolda	-9.7178
▁Militer	-9.7178
▁St	-9.72105
ajelis	-9.72172
▁manajemen	-9.72182
▁permohonan	-9.72182
temu	-9.72189
▁pasca	-9.72265
HO	-9.7237
bon	-9.72405
wah	-9.72513
gang	-9.72551
▁pemuda	-9.72586
▁Karno	-9.72673
jah	-9.72813
▁ekosistem	-9.72991
KPK	-9.73004
▁Balai	-9.73011
▁lo	-9.73041
▁dibutuhkan	-9.73194
▁bunga	-9.73196
▁penetapan	-9.73205
▁umat	-9.73223
▁situs	-9.73376
▁Jalur	-9.73399
▁usai	-9.73401
▁mengimbau	-9.73426
▁Hadi	-9.73444
▁tadi	-9.73488
▁rekomendasi	-9.73599
19	-9.73603
▁Media	-9.73679
▁Sekjen	-9.73688
▁Dana	-9.73691
iring	-9.73706
tahun	-9.7371
DI	-9.73759
▁Ting	-9.73763
▁apabila	-9.73807
▁Sun	-9.73947
▁ikan	-9.73955
sek	-9.74012
sifat	-9.74029
▁Sakit	-9.74036
ARTA	-9.74107
▁prinsip	-9.74182
▁Kediri	-9.74203
▁Singapura	-9.74217
tiba	-9.74266
▁Borneo	-9.74422
▁aktivis	-9.74422
▁ekstrem	-9.74422
▁Jumlah	-9.74423
tara	-9.74543
▁agenda	-9.74595
dera	-9.74609
▁membayar	-9.74629
▁Irak	-9.74661
apa	-9.74672
TP	-9.74675
▁SK	-9.7475
▁Emas	-9.74809
▁dinas	-9.74818
▁merayakan	-9.74836
▁perbaikan	-9.74836
▁nuklir	-9.75042
▁persidangan	-9.75042
▁Unit	-9.75058
uni	-9.75102
ida	-9.75123
▁Seperti	-9.75136
yono	-9.75181
▁Sha	-9.75228
▁elektabilitas	-9.7525
nia	-9.7528
▁Kasat	-9.75299
▁Pihak	-9.75382
▁En	-9.7539
▁ibadah	-9.75458
▁logistik	-9.75458
▁Setiawan	-9.75468
▁kalinya	-9.75471
cak	-9.75604
▁wajib	-9.75666
▁Ade	-9.75725
▁Taman	-9.7577
▁NTB	-9.75805
del	-9.75817
▁Meteorologi	-9.75875
▁World	-9.75875
▁Tanjung	-9.75875
▁swasta	-9.75875
▁PSI	-9.75912
▁Rapat	-9.75916
mbung	-9.76062
bil	-9.76071
▁semuanya	-9.76082
▁Er	-9.76128
▁Kim	-9.76129
▁Haji	-9.76177
▁Ros	-9.76219
ers	-9.76337
cap	-9.76358
▁Kanwil	-9.76398
▁Bin	-9.76423
▁sebut	-9.76581
▁identitas	-9.76714
▁sungai	-9.76714
▁lancar	-9.76715
▁perayaan	-9.76716
▁berikutnya	-9.76785
▁Pasalnya	-9.76814
aksi	-9.76869
▁menampilkan	-9.76925
▁HUT	-9.76926
andi	-9.76937
▁penye	-9.76964
yong	-9.77078
▁seseorang	-9.77137
▁gerakan	-9.77138
sos	-9.77192
▁Sya	-9.77236
▁pemberian	-9.77253
indah	-9.77269
▁Departemen	-9.77349
▁Gianyar	-9.77349
▁fakta	-9.77349
BI	-9.774
▁bersenjata	-9.77416
▁alami	-9.77429
▁Nana	-9.7755
▁keselamatan	-9.77561
▁Jogja	-9.77561
▁catatan	-9.77561
▁minta	-9.77565
▁lihat	-9.77567
▁Surya	-9.77703
45	-9.7771
▁Gol	-9.77718
TI	-9.7772
apten	-9.77721
▁berencana	-9.77743
▁35	-9.77761
▁kelahiran	-9.77774
▁ketentuan	-9.77774
mak	-9.77857
▁gaji	-9.77908
▁mengakibat	-9.77987
▁Cuaca	-9.77987
▁Con	-9.78042
▁Bangsa	-9.78084
▁permasalahan	-9.78201
▁mempunya	-9.78202
▁Polrestabes	-9.78205
▁Kapal	-9.78233
▁Or	-9.78235
▁Hadir	-9.78263
▁Maju	-9.78281
▁memperkenalkan	-9.78415
▁diminta	-9.78441
▁BPBD	-9.78465
DP	-9.7848
▁perangkat	-9.78503
▁Aksi	-9.78579
by	-9.78592
▁jarak	-9.78631
yan	-9.78641
▁memeriksa	-9.78642
log	-9.78652
sih	-9.7868
kelompok	-9.78691
▁bakar	-9.787
atur	-9.78717
▁diberi	-9.78761
▁mendaftar	-9.78822
▁kontribusi	-9.78844
▁menangani	-9.78892
▁militan	-9.79063
▁Sudah	-9.79144
yar	-9.79147
dong	-9.79194
▁Sebelum	-9.79216
buk	-9.79275
▁respons	-9.79276
60	-9.79276
▁diperiksa	-9.79283
▁model	-9.79286
RA	-9.7937
▁sejauh	-9.79406
▁tertulis	-9.79433
set	-9.79463
▁mengakhiri	-9.79493
▁lahir	-9.79507
▁wisatawan	-9.79534
▁Maka	-9.79537
▁Bahkan	-9.79575
▁Mahasiswa	-9.79709
▁misalnya	-9.79709
▁permainan	-9.7971
▁Tetapi	-9.79796
▁jangka	-9.79836
▁Penghargaan	-9.79927
▁PSIS	-9.80035
▁Imam	-9.80201
hil	-9.80266
▁hijau	-9.80363
▁tarif	-9.80364
▁Eks	-9.80395
▁berkolaborasi	-9.80582
▁klasemen	-9.80582
▁Usaha	-9.80587
kot	-9.80655
aja	-9.80683
▁Kampanye	-9.80704
van	-9.80759
▁ASEAN	-9.80801
▁Arema	-9.80804
▁Ratusan	-9.80819
▁Bantul	-9.80896
▁Tersangka	-9.80933
▁plastik	-9.81021
▁tunggal	-9.81021
▁Kawasan	-9.81021
▁Bisa	-9.81056
oto	-9.81237
▁Keputusan	-9.81241
▁Pemuda	-9.81241
CC	-9.81347
▁aspek	-9.81484
▁Perang	-9.81494
gh	-9.81507
▁Bantuan	-9.81534
ira	-9.8157
▁MD	-9.81598
lia	-9.81604
▁kilogram	-9.81683
▁menghindari	-9.81683
▁dilansir	-9.81684
▁Ag	-9.81699
tir	-9.81815
ts	-9.81875
▁perdamaian	-9.81905
▁Lapangan	-9.81905
▁koordinasi	-9.81909
langkah	-9.81995
tus	-9.82017
Jokowi	-9.8222
mbo	-9.82305
▁internal	-9.82355
cy	-9.82408
▁gangguan	-9.82575
▁Menko	-9.82749
▁PSS	-9.82756
kel	-9.82912
▁sah	-9.82915
▁jenazah	-9.83021
▁mempersiapkan	-9.83021
▁konsep	-9.83031
gn	-9.83124
oli	-9.83166
▁desain	-9.832
▁KA	-9.83206
▁Komunikasi	-9.83245
▁University	-9.83245
▁modern	-9.83245
▁Laporan	-9.83246
▁York	-9.83246
▁sandera	-9.83246
tidak	-9.83335
14	-9.83445
▁tren	-9.83463
▁BBM	-9.83469
▁su	-9.8347
▁pembayaran	-9.83471
▁Pakistan	-9.83471
▁Belanda	-9.83486
▁Soe	-9.83618
▁menargetkan	-9.83821
▁Open	-9.8387
▁Pelaksana	-9.83923
▁berjudul	-9.83923
line	-9.83923
▁buka	-9.83924
▁berangkat	-9.83936
▁supaya	-9.83952
▁d	-9.83961
chi	-9.84108
tengah	-9.84129
▁sosialisasi	-9.84134
▁Ketenagakerjaan	-9.84149
▁perintah	-9.8415
▁Pengamat	-9.8415
IT	-9.84158
▁Juanda	-9.84171
hin	-9.84366
▁regulasi	-9.84377
▁membantah	-9.84377
▁dibangun	-9.84379
▁sukarelawan	-9.8438
▁Ab	-9.84556
satunya	-9.84573
eofisika	-9.84604
▁menuntut	-9.84604
▁semifinal	-9.84604
▁menuduh	-9.84605
▁beliau	-9.84622
▁Suka	-9.84631
▁darat	-9.84635
27	-9.84662
▁pre	-9.84822
▁toko	-9.84823
▁Sur	-9.84829
▁tahapan	-9.8483
kom	-9.8487
▁Wal	-9.84917
▁mengirimkan	-9.85007
▁sel	-9.85047
▁Ngurah	-9.85062
▁nelayan	-9.85062
▁pariwisata	-9.85062
▁skuad	-9.85062
▁tersedia	-9.85062
cara	-9.85073
▁Chi	-9.85095
cat	-9.85097
▁saudara	-9.85217
▁bilang	-9.85262
▁krisis	-9.85291
guyur	-9.85292
jm	-9.85343
▁merasakan	-9.85348
angga	-9.85407
▁Arya	-9.85431
▁Sp	-9.85455
▁sesi	-9.85497
▁massa	-9.85499
Kemen	-9.85539
▁Bar	-9.85541
▁kampung	-9.85566
▁bertugas	-9.85589
jalan	-9.8561
▁Alam	-9.85629
▁fungsi	-9.85646
▁Atas	-9.85664
▁penyelenggara	-9.85684
pur	-9.8573
▁perjuangan	-9.85751
▁suaminya	-9.85799
NA	-9.85834
:30	-9.85907
▁berhenti	-9.85926
▁drone	-9.85995
▁Lan	-9.86092
kali	-9.86111
▁SMA	-9.86158
▁Klimatologi	-9.86214
▁pintu	-9.86214
▁Tindak	-9.86222
▁ayah	-9.86224
▁seni	-9.86224
▁Kris	-9.8623
dr	-9.86341
bas	-9.86415
▁menikmati	-9.86446
▁merespons	-9.86446
▁Gelora	-9.86446
▁pengurus	-9.86446
▁David	-9.86446
▁mengenakan	-9.86447
▁he	-9.86492
tic	-9.86543
▁Sumut	-9.8668
▁Mulai	-9.86681
▁protes	-9.8669
dul	-9.86702
sak	-9.86742
▁Cu	-9.86765
▁Jam	-9.86775
▁mengawal	-9.86869
▁2018	-9.86976
ualifikasi	-9.87143
▁Pin	-9.87252
▁Suara	-9.87253
erahkan	-9.87301
▁YOGYAK	-9.87379
▁turnamen	-9.87379
▁memperingatkan	-9.87379
▁RUU	-9.87399
▁Manusia	-9.87434
bit	-9.87461
▁lulus	-9.87555
▁kekhawatiran	-9.87614
▁pameran	-9.87614
▁viral	-9.87614
▁sekutu	-9.87818
▁menyerukan	-9.8785
tama	-9.87854
ral	-9.87895
▁PSSI	-9.87896
tari	-9.87972
pihak	-9.88036
▁sasaran	-9.88085
ze	-9.88134
▁Sebut	-9.88148
ola	-9.8816
aw	-9.88276
▁Pangan	-9.8828
▁PPP	-9.88317
▁jurnalis	-9.88321
▁tersebar	-9.88322
▁kuasa	-9.88352
▁menganggap	-9.88382
sem	-9.88422
▁Aman	-9.88544
▁edukasi	-9.88558
▁dilantik	-9.88562
kum	-9.88564
▁Andika	-9.88654
jaya	-9.88743
▁Jember	-9.88796
▁Mesir	-9.88828
lim	-9.88842
▁Istana	-9.89035
LH	-9.89112
fokus	-9.89192
indo	-9.89246
▁hendak	-9.89273
▁Maluku	-9.89273
▁diajukan	-9.89276
▁beli	-9.89491
▁Sidoarjo	-9.89512
▁melanda	-9.89541
LI	-9.89673
▁Sar	-9.89693
enjelang	-9.89743
▁pencurian	-9.89752
▁serentak	-9.89752
▁upacara	-9.89752
▁hotel	-9.89752
guruan	-9.89753
▁doa	-9.89764
pah	-9.89782
kiri	-9.89831
tum	-9.89873
beda	-9.89898
muk	-9.89901
val	-9.89913
▁70	-9.89979
▁perairan	-9.89992
▁studi	-9.89993
▁pasokan	-9.89994
sya	-9.90099
▁pendapat	-9.90157
percaya	-9.90173
▁investor	-9.90233
▁dirancang	-9.90234
▁tambang	-9.90235
▁adat	-9.90299
bra	-9.90317
▁seri	-9.90407
▁Ham	-9.90436
▁Idulfitri	-9.90475
▁meliputi	-9.90475
▁memperluas	-9.90475
▁konser	-9.905
pes	-9.90544
▁Bas	-9.90546
▁Angka	-9.90617
PAN	-9.9068
▁mayoritas	-9.90717
▁merek	-9.90854
▁terjadinya	-9.90903
raja	-9.90924
▁Jangan	-9.9093
▁Mak	-9.91009
▁kamar	-9.91057
▁penonton	-9.91203
▁dialami	-9.91214
▁Belum	-9.91215
▁diadakan	-9.91231
35	-9.91232
▁lebat	-9.9124
▁Rencana	-9.91241
gara	-9.91246
▁terang	-9.91311
Kalau	-9.91382
▁pergi	-9.91405
+	-9.91447
▁mendengar	-9.91469
▁peroleh	-9.91491
▁Min	-9.91648
▁Rafah	-9.91691
▁Bicara	-9.91709
ambang	-9.91774
▁Lapas	-9.91779
▁KM	-9.91799
▁halaman	-9.91815
▁koalisi	-9.91936
▁pokok	-9.91936
▁Langkah	-9.91941
▁Kal	-9.91944
her	-9.91945
13	-9.91986
▁tamu	-9.92021
▁2025.	-9.9203
lip	-9.9205
▁migran	-9.9207
atkan	-9.92142
▁Diketahui	-9.92182
▁mengucapkan	-9.92182
▁Akbar	-9.92183
▁sebagaimana	-9.92186
▁DIY	-9.92194
▁im	-9.92198
▁Raja	-9.92302
▁menahan	-9.92334
Ka	-9.92407
▁penyidikan	-9.9242
▁Rizky	-9.92428
▁WITA	-9.92428
▁administrasi	-9.92428
▁keberadaan	-9.92428
▁mengandung	-9.9243
▁Rus	-9.92438
▁terlebih	-9.92484
▁Badung	-9.92518
cah	-9.92599
aka	-9.92625
▁penganiayaan	-9.92675
▁Terkait	-9.92675
▁Ji	-9.92778
dor	-9.92826
LA	-9.92857
▁setia	-9.92874
▁Aku	-9.92886
▁Indo	-9.92896
▁NU	-9.92913
▁Myanmar	-9.92923
▁dijadwalkan	-9.92923
▁meyakini	-9.92923
▁Capres	-9.92963
EN	-9.93032
▁besert	-9.93113
ndu	-9.93151
tha	-9.93166
▁Parlemen	-9.93171
▁Reskrim	-9.93171
▁pidato	-9.93171
ph	-9.93195
▁lepas	-9.93393
▁Jadwal	-9.9342
▁Gresik	-9.9342
▁keluarganya	-9.93426
▁berbagi	-9.93535
▁timnya	-9.93664
▁Proses	-9.93688
▁normal	-9.9369
▁maaf	-9.93706
▁pakar	-9.93749
bawa	-9.93754
main	-9.93818
▁TikTok	-9.93919
▁berjuang	-9.9392
▁kartu	-9.93925
▁Ker	-9.93972
▁2017	-9.93975
31	-9.93976
▁istrinya	-9.94015
ena	-9.94029
▁Sidang	-9.94052
▁Ye	-9.94155
▁Luthfi	-9.9417
▁beredar	-9.94172
RB	-9.94282
▁Paus	-9.94309
lem	-9.94333
▁berlanjut	-9.94421
▁kesulitan	-9.94421
▁komentar	-9.94421
▁Kondisi	-9.94421
Pe	-9.9449
MS	-9.94497
▁Ketum	-9.94505
▁bumi	-9.94509
tes	-9.9452
▁Dn	-9.94543
▁mengatur	-9.94561
▁instansi	-9.94673
▁pernikahan	-9.94673
▁Hidayat	-9.94673
▁Divisi	-9.94681
▁on	-9.9469
▁Tingkat	-9.94693
▁Tewas	-9.94713
▁pola	-9.94716
bentuk	-9.94746
kul	-9.94762
▁Bencana	-9.94773
▁rama	-9.94874
▁Malam	-9.94915
pl	-9.94921
▁bintang	-9.94938
▁KAI	-9.94949
spek	-9.95005
yak	-9.95022
▁SD	-9.95092
▁Op	-9.95139
▁Pancasila	-9.95179
▁Arif	-9.95187
luk	-9.95224
▁daring	-9.95231
▁Lin	-9.9536
▁500	-9.95538
▁bersalah	-9.95554
con	-9.95686
▁rata	-9.95695
▁pasal	-9.95855
▁keberlanjutan	-9.95942
▁menjual	-9.95942
▁2016	-9.96002
nama	-9.9603
imbang	-9.9607
▁PK	-9.96093
▁Cak	-9.96127
▁tr	-9.96233
can	-9.96286
stra	-9.9636
▁arahan	-9.96372
rul	-9.9639
▁konsumsi	-9.96454
▁narkotika	-9.96454
▁mengelola	-9.96454
▁cerah	-9.96456
21	-9.96495
mpo	-9.96516
wat	-9.96542
▁80	-9.96548
ast	-9.96649
▁keseluruhan	-9.96711
▁melayani	-9.96716
▁@	-9.96828
ance	-9.96879
▁evaluasi	-9.9688
▁Beri	-9.96948
▁Minta	-9.96967
▁Ser	-9.96994
In	-9.96999
syah	-9.97064
unggu	-9.97091
qu	-9.97145
raya	-9.97185
▁keempat	-9.97192
▁peny	-9.97203
▁BOGO	-9.97227
▁independen	-9.97227
▁mengumpulkan	-9.97227
▁AFF	-9.97228
▁Italia	-9.97228
▁adil	-9.97234
cepat	-9.97268
alam	-9.97292
hen	-9.97294
leng	-9.97309
▁ramah	-9.9735
mata	-9.97394
▁Kabar	-9.97459
encana	-9.97485
▁Perdagangan	-9.97486
▁Jaksa	-9.97487
▁inisiatif	-9.97487
hulu	-9.9749
▁siaran	-9.97518
▁Super	-9.97546
▁puasa	-9.97617
▁pu	-9.9768
▁Nu	-9.97681
▁gelombang	-9.97746
▁inflasi	-9.97746
▁berjanji	-9.97746
▁Honda	-9.97787
BC	-9.97942
▁32	-9.9796
▁Den	-9.9798
▁Bukan	-9.97985
▁Tiongkok	-9.98006
▁Manager	-9.98007
▁DE	-9.98073
▁Wil	-9.98101
ngga	-9.98151
▁Mela	-9.98169
▁sejalan	-9.98222
▁pra	-9.98253
▁level	-9.98268
▁jemaah	-9.98268
▁Hidup	-9.98268
eb	-9.98291
mur	-9.98431
gantung	-9.98457
KS	-9.98506
▁Marquez	-9.98529
▁gula	-9.98536
▁menembak	-9.98538
▁PSM	-9.98555
▁Tur	-9.98559
▁penerima	-9.98571
rap	-9.98709
▁rumahnya	-9.98746
▁Wayan	-9.98778
▁parkir	-9.98792
▁membagikan	-9.98792
az	-9.98798
▁modal	-9.98805
bulan	-9.98825
▁materi	-9.98966
▁menc	-9.98985
EA	-9.99044
▁Kembali	-9.99055
▁prestasi	-9.99055
▁Hodak	-9.99075
serang	-9.99121
▁Antara	-9.99183
BT	-9.99249
▁penerimaan	-9.99276
99	-9.99298
▁Pagi	-9.99303
▁besok	-9.99326
▁mengirim	-9.99382
▁dirilis	-9.99407
aktif	-9.99475
bek	-9.99526
▁dekade	-9.99584
▁tradisional	-9.99586
▁diusung	-9.99597
▁suku	-9.99637
▁PNS	-9.99668
▁BP	-9.99772
top	-9.99808
▁YouTube	-9.99849
▁emisi	-9.99861
▁Masih	-9.9995
▁mar	-10
▁Bulan	-10.0001
▁Amin	-10.0004
▁SMP	-10.0006
▁Perlindungan	-10.0011
▁dilanjutkan	-10.0011
▁masjid	-10.0011
▁berbahaya	-10.0011
▁palsu	-10.0012
▁Pramono	-10.0012
▁Far	-10.0015
▁mengganggu	-10.0015
▁terbatas	-10.0022
ndang	-10.0026
AD	-10.0032
tai	-10.0032
▁Moskow	-10.0038
▁dimiliki	-10.0038
▁peluncuran	-10.0038
▁Rektor	-10.0038
▁keadilan	-10.0038
▁Sedangkan	-10.0038
▁Pidana	-10.0039
▁SMK	-10.0053
leg	-10.0054
eg	-10.0055
▁Bri	-10.0062
▁pedagang	-10.0065
▁Pernyataan	-10.0065
▁melancar	-10.0065
▁merusak	-10.0065
▁apalagi	-10.0065
▁dikirim	-10.0065
aan	-10.0072
▁Hanya	-10.0076
age	-10.0082
▁Yayasan	-10.0092
▁oposisi	-10.0092
▁melarang	-10.0093
▁didapat	-10.0095
▁Dukung	-10.0099
▁sebab	-10.0101
▁Fakultas	-10.0119
▁berkumpul	-10.0119
▁gawang	-10.0119
▁jaksa	-10.0119
▁artis	-10.0119
▁asli	-10.0119
▁mendatangi	-10.012
▁tanggapan	-10.0122
▁Niaga	-10.0123
akhir	-10.0125
/11/2024	-10.0127
fri	-10.0134
FI	-10.0135
▁Kong	-10.0138
▁BKN	-10.0144
▁dipastikan	-10.0146
▁tuntutan	-10.0146
▁Akibat	-10.0146
▁Puncak	-10.0146
▁duduk	-10.0146
▁Selanjutnya	-10.0152
sor	-10.0154
▁kopi	-10.0157
08	-10.0159
dorong	-10.0172
▁disebabkan	-10.0173
▁namanya	-10.0173
ssa	-10.0178
▁lanjutan	-10.0178
▁Pengawas	-10.018
▁Ribuan	-10.0182
SA	-10.0184
ubah	-10.0187
▁telepon	-10.02
▁Pengembangan	-10.02
PL	-10.0206
▁Ran	-10.0209
▁liar	-10.0213
▁mental	-10.0214
▁ketidak	-10.022
▁Mari	-10.022
▁90	-10.0223
br	-10.0225
▁Penyanyi	-10.0227
▁elektronik	-10.0227
▁sinergi	-10.0227
▁Sultan	-10.0227
▁Law	-10.0239
ez	-10.0246
▁Has	-10.0247
▁mencuri	-10.0255
ptu	-10.0262
AH	-10.0265
▁Thohir	-10.0281
▁cedera	-10.0281
▁optimistis	-10.0282
▁Fer	-10.0285
Ada	-10.0285
arti	-10.029
▁berulang	-10.0292
pot	-10.0293
pos	-10.0295
▁Meny	-10.0306
▁RT	-10.0317
rai	-10.0328
SP	-10.0335
▁Manajemen	-10.0336
▁keuntungan	-10.0336
nes	-10.0337
alisasi	-10.035
fo	-10.0353
▁Masa	-10.0358
12	-10.0362
▁berkaitan	-10.0364
hitung	-10.0376
▁Wo	-10.0388
▁Eksekutif	-10.0391
▁evakuasi	-10.0391
▁penipuan	-10.0391
▁menyusul	-10.0391
nik	-10.0392
▁Perhubungan	-10.0393
ampa	-10.0395
▁minum	-10.0401
▁Fe	-10.0406
▁36	-10.0415
▁aspirasi	-10.0419
▁pengendara	-10.0419
▁perbuatan	-10.0419
▁SDM	-10.042
▁Cina	-10.0421
▁Kongres	-10.0421
▁peneliti	-10.0422
▁berkat	-10.0424
▁Ver	-10.0425
▁terbang	-10.0431
▁Bah	-10.044
▁Ria	-10.0441
▁PAN	-10.0444
▁KH	-10.0446
▁Narkoba	-10.0447
▁merugikan	-10.0447
▁Ungkap	-10.0447
▁Sistem	-10.0447
▁sekadar	-10.0447
▁tentunya	-10.0447
▁Bumi	-10.0448
▁Puluh	-10.045
▁bangga	-10.0452
guna	-10.0456
▁pemenang	-10.0462
▁Tar	-10.0471
▁sisa	-10.0472
▁Padahal	-10.0484
▁Syah	-10.0486
▁Top	-10.0491
▁penampilan	-10.0503
▁mengangkat	-10.0503
▁Ruang	-10.0508
puk	-10.0512
▁gaya	-10.0518
gg	-10.0519
▁Biak	-10.0523
▁US	-10.0528
ansyah	-10.0528
enanggulangan	-10.0531
▁ditutup	-10.0531
▁rupiah	-10.0531
▁Survei	-10.0531
▁keunggulan	-10.0531
▁Championship	-10.0531
▁Pasukan	-10.0533
▁Real	-10.0538
▁sub	-10.0542
mbah	-10.055
rong	-10.0558
pati	-10.0559
▁Bengkulu	-10.0559
▁Honorer	-10.0559
▁peredaran	-10.0559
▁menggambarkan	-10.0559
▁mengancam	-10.0559
-3	-10.0565
▁Kini	-10.0565
▁sepakat	-10.0566
05	-10.0571
tem	-10.0574
batas	-10.0579
RC	-10.0584
▁Global	-10.0587
▁Organisasi	-10.0587
▁Kapolri	-10.0587
▁cukai	-10.0587
▁kekalahan	-10.0587
▁kekurangan	-10.0587
olah	-10.0588
▁momentum	-10.0588
▁suhu	-10.059
▁membela	-10.059
dhi	-10.0592
▁Qu	-10.0592
▁daripada	-10.0593
▁tol	-10.0596
▁khas	-10.0597
▁Eko	-10.0608
menyelenggarakan	-10.0615
▁NasDem	-10.0615
Corporate	-10.0615
▁pensiun	-10.0615
▁diserahkan	-10.0616
▁melaju	-10.062
pal	-10.063
▁Wahyu	-10.0639
mad	-10.064
hol	-10.0641
▁cerita	-10.0644
▁singkat	-10.0644
▁Satpol	-10.0646
▁unggulan	-10.0652
▁kotak	-10.0655
46	-10.066
▁Tra	-10.0664
▁Ida	-10.0666
▁(20	-10.0668
▁Cirebon	-10.0672
▁wajah	-10.0673
▁Gunawan	-10.0674
rawat	-10.0675
▁tajam	-10.0676
▁Demak	-10.0676
▁ditanya	-10.0682
▁Edi	-10.0686
ular	-10.0688
▁dok	-10.0694
▁terkena	-10.0699
▁Afghanistan	-10.07
▁Mohammad	-10.07
▁kreatif	-10.07
▁unsur	-10.07
▁performa	-10.0701
olo	-10.0703
itu	-10.0706
MP	-10.0716
cal	-10.0717
bri	-10.072
long	-10.0726
▁kemiskinan	-10.0729
▁Brasil	-10.0729
▁murah	-10.0729
▁disapa	-10.0731
▁Grand	-10.0733
▁Ketiga	-10.0736
▁sarana	-10.0736
produk	-10.0737
▁Perse	-10.0739
RS	-10.0745
▁kaya	-10.0747
▁Dukungan	-10.075
tanda	-10.0751
▁berpartisipasi	-10.0758
▁pencapaian	-10.0758
▁Stasiun	-10.0758
▁PLN	-10.0758
▁Dipta	-10.0758
▁tenang	-10.0758
ecara	-10.0766
mun	-10.0772
rung	-10.078
▁dimaksud	-10.0784
ug	-10.0786
▁pembebasan	-10.0786
▁penerapan	-10.0786
▁Upaya	-10.0786
jogja	-10.0786
mempertimbangkan	-10.0786
▁Indah	-10.0791
UI	-10.0794
▁Bagaimana	-10.0795
▁Tujuan	-10.0798
pin	-10.0803
▁Sebagian	-10.0815
▁Hong	-10.0823
lepas	-10.0825
▁Abdullah	-10.0826
▁Yan	-10.0839
gugat	-10.0844
▁bersangkutan	-10.0844
▁meninjau	-10.0844
▁Perubahan	-10.0844
▁Raffi	-10.0844
▁lantas	-10.0844
▁Studi	-10.0844
▁Reuters	-10.0873
▁dikeluarkan	-10.0873
▁individu	-10.0873
▁sepenuhnya	-10.0873
▁suporter	-10.0873
▁suasana	-10.0873
▁kesalahan	-10.0873
▁utang	-10.0877
▁pulau	-10.089
▁Perwakilan	-10.0902
▁Dokter	-10.0902
▁es	-10.0903
PH	-10.0904
▁Kanada	-10.0904
▁hektare	-10.0905
▁WNA	-10.0907
▁kamu	-10.0915
▁Pat	-10.0925
▁Sugi	-10.0927
▁Pre	-10.0933
▁pakaian	-10.0944
▁mengapa	-10.0952
barang	-10.0955
▁Patra	-10.0957
▁Awards	-10.0958
▁memperbaiki	-10.0961
▁Kabid	-10.0961
▁Bela	-10.0961
▁rute	-10.0961
▁mengenal	-10.0964
▁Pegi	-10.0971
▁rentan	-10.0971
mil	-10.0974
▁bila	-10.098
▁kandungan	-10.0981
rian	-10.0982
▁Api	-10.0983
henti	-10.0985
yah	-10.0989
▁Pemimpin	-10.099
▁mewakili	-10.099
▁bersaing	-10.099
▁kesiapan	-10.099
▁Satgas	-10.0992
▁Ren	-10.0992
▁Mel	-10.1001
dha	-10.1008
▁Suk	-10.1008
PB	-10.1016
▁Perjanjian	-10.1019
▁pencegahan	-10.1019
▁awalnya	-10.1021
▁Ex	-10.1029
▁mendalam	-10.1034
landia	-10.1035
▁berdiri	-10.104
▁menjal	-10.1045
▁Kebudayaan	-10.1049
▁kebebasan	-10.1049
▁keberhasilan	-10.1049
▁kompleks	-10.1049
▁prosedur	-10.1049
▁belanja	-10.1049
▁menyaksikan	-10.1049
▁transformasi	-10.1049
▁tidur	-10.1049
▁kompetensi	-10.1051
nata	-10.1056
▁Siti	-10.1061
▁Af	-10.1067
▁cuma	-10.107
▁45	-10.1073
▁Penyelenggara	-10.1078
▁Kebijakan	-10.1078
▁hiburan	-10.1078
▁menandatangani	-10.1078
▁main	-10.108
▁DW	-10.1081
ming	-10.1091
▁v	-10.11
▁buatan	-10.1106
▁panggilan	-10.1108
▁transisi	-10.1108
▁parpol	-10.1108
BN	-10.1114
▁Gra	-10.1114
nus	-10.1117
▁Alasan	-10.1119
dag	-10.1121
▁Sehingga	-10.1128
ggi	-10.1132
▁menekan	-10.1133
▁DPC	-10.1138
lokasi	-10.1138
▁staf	-10.114
▁garis	-10.1142
Untuk	-10.1148
ON	-10.115
▁menyu	-10.1154
▁Sama	-10.116
reskrim	-10.1162
▁Paul	-10.1163
▁kritik	-10.1168
▁Aparatur	-10.1171
▁suka	-10.1171
▁terluka	-10.1177
▁bekas	-10.1177
▁Bapak	-10.1177
▁bin	-10.1178
▁Yong	-10.1178
ell	-10.1182
ill	-10.1184
▁memantau	-10.1198
▁pelantikan	-10.1198
▁Park	-10.1201
▁tayang	-10.1204
mbangkan	-10.1205
▁Tom	-10.1207
?"	-10.121
▁mengarah	-10.1218
▁Sore	-10.1219
IA	-10.1223
Kita	-10.1227
▁Hubungan	-10.1228
▁memperlihatkan	-10.1228
▁penyalahgunaan	-10.1228
▁produsen	-10.1228
▁wujud	-10.1228
▁Apalagi	-10.1228
SDM	-10.1233
▁imbang	-10.1234
▁pilih	-10.1237
▁34	-10.1247
▁Bur	-10.1247
▁pembukaan	-10.125
▁dikonfirmasi	-10.1257
▁Mon	-10.1258
▁Gerakan	-10.1259
▁Staf	-10.1262
▁Bang	-10.1264
▁Award	-10.127
▁Ze	-10.1273
▁Pakar	-10.1274
AL	-10.1275
▁penghitungan	-10.1288
▁tutup	-10.1288
▁partisipasi	-10.1289
juk	-10.1291
▁beban	-10.1294
eks	-10.1298
net	-10.1302
▁Mun	-10.1306
che	-10.1311
▁Mur	-10.1312
▁penembakan	-10.1318
▁2024-2029	-10.1318
▁Fraksi	-10.1318
▁Wisata	-10.1318
▁pendekatan	-10.1319
▁sepuluh	-10.132
▁subsidi	-10.1339
empur	-10.1339
▁Iqbal	-10.1349
▁NATO	-10.1349
▁dihubungi	-10.1349
▁PSBS	-10.1349
let	-10.135
▁LP	-10.1352
status	-10.1362
cenderung	-10.1379
▁medali	-10.1379
▁RSUD	-10.138
fer	-10.1382
▁ID	-10.1385
▁rekor	-10.1386
▁kandang	-10.1392
desa	-10.1392
▁adik	-10.1393
ID	-10.1396
▁denda	-10.1397
▁38	-10.1398
all	-10.14
entang	-10.1402
▁distribusi	-10.1409
▁melewati	-10.141
▁serangkai	-10.1411
RT	-10.1419
ef	-10.1425
▁Baik	-10.1425
49	-10.1425
▁wawancara	-10.143
▁mengeklaim	-10.144
▁populer	-10.144
▁perbedaan	-10.144
▁binaan	-10.1441
abung	-10.1442
gandeng	-10.1442
rejo	-10.1463
▁sapi	-10.1466
▁pembicaraan	-10.1467
our	-10.1468
▁menyalurkan	-10.1471
▁membuktikan	-10.1471
▁sembako	-10.1471
▁jual	-10.1472
▁dijadikan	-10.1472
gus	-10.1472
EM	-10.1473
▁Paslon	-10.1473
▁Seluruh	-10.1481
▁menurun	-10.1487
hir	-10.1491
▁Barang	-10.1495
ampir	-10.1499
▁kabinet	-10.1502
▁Energi	-10.1502
▁tergabung	-10.1502
▁berwarna	-10.1502
▁mengungsi	-10.1502
▁merujuk	-10.1502
▁Relawan	-10.1505
▁pindah	-10.1507
▁terduga	-10.1508
▁diprediksi	-10.1511
tip	-10.1516
▁Bus	-10.1524
bahan	-10.1526
▁2022,	-10.1526
arta	-10.1529
▁Sab	-10.1531
▁Pejabat	-10.1533
▁Nikita	-10.1533
▁janji	-10.1533
▁cabang	-10.1533
▁internet	-10.1533
▁fase	-10.1535
kit	-10.1543
aj	-10.155
UN	-10.1554
04	-10.1558
▁Tru	-10.1561
▁Pegawai	-10.1564
▁menghormati	-10.1564
▁peralatan	-10.1564
▁larangan	-10.1564
▁temuan	-10.1565
Pen	-10.1565
▁pembelian	-10.1565
dap	-10.1566
La	-10.1591
Ter	-10.1596
▁batang	-10.1598
▁panggung	-10.1598
▁parah	-10.1602
▁Che	-10.1607
PR	-10.1623
▁tanaman	-10.1626
▁brand	-10.1627
▁Bayu	-10.1633
Deng	-10.1635
tiga	-10.1637
til	-10.1646
utip	-10.1646
▁imbuhnya	-10.1654
▁membunuh	-10.1658
hasil	-10.1668
▁bermula	-10.1676
Me	-10.1679
▁Rah	-10.1687
▁Muhaimin	-10.1689
▁Pelayanan	-10.1689
▁asuransi	-10.1689
▁bertambah	-10.1689
▁miliknya	-10.1689
▁butuh	-10.1689
.500	-10.1692
▁kanker	-10.1696
▁2015	-10.1698
ther	-10.1701
▁pelabuhan	-10.1721
▁Banjir	-10.1721
▁institusi	-10.1721
▁tenggelam	-10.1721
▁kenyamanan	-10.1721
▁ayat	-10.1724
▁pendiri	-10.1734
▁sekitarnya	-10.174
78	-10.1743
▁Awal	-10.1745
awal	-10.1746
▁menceritakan	-10.1752
▁memanggil	-10.1752
▁menikah	-10.1753
▁sayap	-10.1753
▁Pupuk	-10.1754
▁layar	-10.1755
▁kencang	-10.1756
▁minimal	-10.1758
▁Suhar	-10.1758
jauh	-10.1761
▁IV	-10.1768
▁Institute	-10.1769
▁kas	-10.1776
▁Inter	-10.1782
▁kredit	-10.1783
▁berkoordinasi	-10.1784
▁diterapkan	-10.1784
▁keterlibatan	-10.1784
▁red	-10.1785
▁roda	-10.1785
▁Series	-10.1787
formasi	-10.1788
▁2022.	-10.1788
AK	-10.1789
03	-10.1789
▁menggantikan	-10.1805
yat	-10.1806
gun	-10.1809
▁Sumar	-10.181
▁Guna	-10.181
ski	-10.1815
▁Listrik	-10.1816
▁ketahanan	-10.1816
▁tetangga	-10.1816
▁terbakar	-10.1816
▁kecepatan	-10.1816
▁umur	-10.1818
▁samping	-10.182
▁Persik	-10.1821
yung	-10.1826
RO	-10.183
ikin	-10.1831
▁pakai	-10.1834
-10	-10.1836
▁Sampai	-10.1848
▁Kuta	-10.1852
▁agen	-10.1853
▁Nama	-10.1854
ajar	-10.1858
HI	-10.1862
5.000	-10.1866
nu	-10.1874
▁domestik	-10.188
▁kedatangan	-10.188
▁hadiah	-10.188
▁kediaman	-10.188
hadi	-10.1895
atu	-10.1898
▁pengetahuan	-10.1912
▁pertempuran	-10.1912
▁baterai	-10.1912
▁sengaja	-10.1912
▁daging	-10.1912
▁dipilih	-10.1912
RE	-10.1912
▁Zoni	-10.1912
▁Gusti	-10.1918
90	-10.1918
▁Hak	-10.1919
▁saham	-10.1923
onal	-10.1927
rip	-10.1933
▁AL	-10.1934
80	-10.1938
▁kira	-10.1942
▁Perekonomian	-10.1944
▁regional	-10.1944
▁lolos	-10.1944
▁300	-10.1959
▁Penyidik	-10.1977
▁prakira	-10.198
▁Sang	-10.1982
▁Riset	-10.1984
01	-10.1984
▁Vina	-10.1985
▁go	-10.1985
▁Said	-10.1985
▁mendampingi	-10.1986
▁papar	-10.1987
▁Brand	-10.2002
lot	-10.2009
▁mengantisipasi	-10.2009
▁dikelola	-10.2009
▁rekaman	-10.2014
▁silam	-10.2014
laku	-10.2029
sik	-10.2031
lap	-10.2034
▁Andre	-10.2039
▁Blinken	-10.2042
▁kesadaran	-10.2042
▁penindakan	-10.2042
▁keinginan	-10.2042
▁penggemar	-10.2042
▁bergizi	-10.2042
▁kosong	-10.2042
▁ditunjuk	-10.2043
shi	-10.2047
BANG	-10.2052
▁Batam	-10.2053
▁dilihat	-10.2054
TM	-10.2057
▁banten	-10.2061
ley	-10.2072
▁Bina	-10.2072
▁setara	-10.2073
▁pencalonan	-10.2075
▁jantung	-10.2075
▁diangkat	-10.2076
sela	-10.2077
▁petir	-10.2079
mpung	-10.2085
▁AFP	-10.2096
▁BA	-10.2097
▁Siang	-10.2097
cha	-10.2106
▁Lombok	-10.2107
▁ketegangan	-10.2107
▁unggahan	-10.2107
▁usulan	-10.2107
▁event	-10.2107
▁memaksa	-10.2107
▁pengamat	-10.2108
▁pupuk	-10.2108
ves	-10.2108
▁contoh	-10.2109
ES	-10.211
▁diluncurkan	-10.2112
▁1.000	-10.2115
De	-10.2117
▁sedikitnya	-10.2134
tensi	-10.2134
▁setengah	-10.2135
▁Madrid	-10.214
▁kondusif	-10.214
▁elemen	-10.214
▁Wong	-10.2141
▁majelis	-10.2143
▁Roh	-10.2144
▁bandara	-10.2148
▁Juta	-10.2148
▁Mah	-10.2149
bir	-10.2151
▁Keduanya	-10.2156
meng	-10.2158
▁versi	-10.2162
▁malah	-10.2163
▁Allah	-10.2171
▁Putu	-10.2171
▁seiring	-10.2171
▁lantai	-10.2173
▁dihadapi	-10.2174
▁Anggaran	-10.2175
▁Kemenangan	-10.2178
▁gim	-10.2183
▁takut	-10.2184
36	-10.2188
pem	-10.219
▁berani	-10.22
▁metode	-10.2206
▁Blitar	-10.2206
▁Bintang	-10.2209
▁Dik	-10.2212
▁komp	-10.2217
UP	-10.2219
▁detik	-10.2222
▁campur	-10.2226
way	-10.2229
vin	-10.2234
▁Hen	-10.2236
▁Made	-10.2239
▁diumumkan	-10.224
▁pengadaan	-10.224
▁Tata	-10.224
BB	-10.2241
▁melarikan	-10.2242
▁1445	-10.2244
▁berkata	-10.2247
inkan	-10.2249
▁PN	-10.2266
▁negatif	-10.2273
▁Telkom	-10.2273
▁jaminan	-10.2273
▁Koster	-10.2281
▁olah	-10.2291
▁Kata	-10.2294
▁TV	-10.2295
sion	-10.2297
▁Anti	-10.2304
▁karakter	-10.2306
▁Pengurus	-10.2306
95	-10.2309
data	-10.2321
▁Pram	-10.2322
has	-10.2325
peng	-10.2326
▁Houthi	-10.234
▁intelijen	-10.234
▁Cianjur	-10.234
▁dewasa	-10.234
▁mempercepat	-10.2341
▁Star	-10.2343
▁Arief	-10.2346
▁optimal	-10.2372
▁vitamin	-10.2374
▁Bisnis	-10.2374
▁Video	-10.2374
0%	-10.2375
▁menj	-10.2377
▁2014	-10.2379
70	-10.2383
▁menurutnya	-10.2384
ANG	-10.2385
▁situ	-10.2396
tuk	-10.2404
07	-10.2407
▁Pegadaian	-10.2407
▁terungkap	-10.2407
▁penjaga	-10.2407
▁aliran	-10.2408
▁intensitas	-10.2408
▁Kudus	-10.2409
▁rawan	-10.2418
▁kaca	-10.2428
▁Pekerja	-10.2436
eserse	-10.2439
emendikbudristek	-10.2441
▁Publik	-10.2441
▁pengakuan	-10.2441
▁urusan	-10.2441
▁dolar	-10.2441
▁hadapan	-10.2442
ction	-10.2461
▁Reza	-10.2467
dit	-10.2473
nder	-10.2474
hara	-10.2474
▁Demokrasi	-10.2475
▁Kebakaran	-10.2475
▁bersyukur	-10.2475
▁dilengkapi	-10.2475
▁penjelasan	-10.2475
▁terpaksa	-10.2475
▁Skuad	-10.2475
▁Lokasi	-10.2475
▁Tenaga	-10.2476
kira	-10.2497
▁lap	-10.2498
09	-10.2506
▁deklarasi	-10.2509
▁mayat	-10.2511
▁PB	-10.2512
▁Istri	-10.2516
yam	-10.2516
▁game	-10.2521
▁sampaikan	-10.2526
Pj	-10.2534
kara	-10.2534
▁Pemerintahan	-10.2535
▁mencerm	-10.2538
tangan	-10.254
▁tradisi	-10.2543
▁menginginkan	-10.2544
▁gudang	-10.2544
▁Setiap	-10.2544
OS	-10.2544
▁teroris	-10.2546
▁33	-10.2547
▁Bojan	-10.2547
▁USD	-10.2552
ken	-10.2552
▁Pihaknya	-10.2558
▁belah	-10.2574
▁televisi	-10.2578
▁Koalisi	-10.2578
▁Pertemuan	-10.2578
dus	-10.2587
▁memerintahkan	-10.2588
▁AP	-10.2591
-21	-10.2597
▁analis	-10.2605
▁efek	-10.2611
▁Soekarno	-10.2612
▁mengusulkan	-10.2612
▁patroli	-10.2612
ncang	-10.2614
▁Um	-10.2621
▁lini	-10.2626
dalam	-10.2628
ted	-10.2629
▁Tetap	-10.2633
ee	-10.2636
▁memproduksi	-10.2647
▁berkunjung	-10.2647
▁pengganti	-10.2647
▁sopir	-10.2647
▁kuota	-10.2647
▁penilaian	-10.2647
▁dijual	-10.2649
▁stabilitas	-10.2649
▁penyerang	-10.2649
▁Garut	-10.2653
dari	-10.2658
▁Gar	-10.2661
▁Menang	-10.2672
▁diungkapkan	-10.2682
▁ponsel	-10.2682
▁akbar	-10.2682
▁pandangan	-10.2682
▁dibanding	-10.269
jadi	-10.2694
balik	-10.2696
▁Sport	-10.2697
▁TKP	-10.2707
BMKG	-10.2707
iksa	-10.2708
dem	-10.2713
▁Iwan	-10.2716
▁Lestari	-10.2717
POK	-10.2717
▁jejak	-10.2718
▁Lewat	-10.2733
nggar	-10.2737
▁Ger	-10.2738
▁pesta	-10.2739
▁berawal	-10.2742
▁bom	-10.2748
▁Day	-10.2748
▁inovatif	-10.2752
▁menyadari	-10.2752
▁Sipil	-10.2752
▁menandai	-10.2752
▁Habib	-10.2752
win	-10.2755
karya	-10.2779
▁skala	-10.2779
cita	-10.2781
▁Raih	-10.2784
▁bek	-10.2787
▁Empat	-10.2787
▁limbah	-10.2788
ivitas	-10.279
▁Lintas	-10.279
▁Abd	-10.2796
pakah	-10.2798
iyah	-10.2803
yadi	-10.2806
▁75	-10.2814
▁Banjar	-10.2822
▁unik	-10.2824
▁Sho	-10.2831
▁Tam	-10.2834
02	-10.2848
▁Don	-10.2851
▁Kapolsek	-10.2857
▁Kecelakaan	-10.2857
▁finansial	-10.2857
▁pengacara	-10.2857
▁pengaruh	-10.2857
▁Head	-10.2865
▁kayu	-10.2867
▁Deput	-10.2867
▁mengisi	-10.287
og	-10.2878
tempat	-10.288
▁Kepegawaian	-10.2893
▁legislatif	-10.2893
▁mempromosikan	-10.2893
▁menghancurkan	-10.2893
▁CCTV	-10.2893
▁menunjuk	-10.2895
▁Jambi	-10.2898
▁angkatan	-10.2899
▁Kha	-10.2902
arto	-10.2906
▁forum	-10.2908
ev	-10.2918
▁rest	-10.292
MB	-10.2924
▁setahun	-10.2926
▁Nah	-10.2927
▁Bahlil	-10.2928
▁Banyuwangi	-10.2928
▁Alex	-10.2928
▁dosen	-10.2928
▁disabilitas	-10.2929
▁Ronald	-10.2929
▁Muhammadiyah	-10.293
▁pengemudi	-10.293
▁ganja	-10.2932
▁Supri	-10.2937
LO	-10.2963
▁Pariwisata	-10.2964
▁menghabis	-10.2964
▁Kasi	-10.2965
sional	-10.2968
OM	-10.297
fit	-10.2982
otong	-10.2988
▁Masuk	-10.2991
pora	-10.2996
▁menempatkan	-10.3
▁persyaratan	-10.3
▁Sigit	-10.3
▁PPN	-10.3015
▁raya	-10.3021
zo	-10.3025
anggap	-10.3026
▁menyelamatkan	-10.3036
▁pandemi	-10.3036
▁menjamin	-10.3036
tron	-10.3038
▁sambung	-10.304
67	-10.3044
▁latar	-10.3045
▁setuju	-10.3046
US	-10.3047
nov	-10.3054
ney	-10.3071
▁Waktu	-10.3072
▁santri	-10.3072
alang	-10.3074
▁37	-10.3081
▁tampaknya	-10.3082
▁Laga	-10.3105
▁Sara	-10.3106
▁John	-10.3107
▁kontestasi	-10.3108
▁Sekitar	-10.3108
▁semacam	-10.3108
▁kewenangan	-10.3108
edi	-10.3115
▁Jen	-10.3116
▁mewah	-10.3117
suka	-10.3126
▁Lima	-10.3126
▁Anas	-10.3134
Tidak	-10.3138
▁Director	-10.3145
▁Mirzani	-10.3145
▁Olahraga	-10.3145
▁jembatan	-10.3145
▁pertimbangan	-10.3145
▁stunting	-10.3145
▁Investasi	-10.3145
▁Dirjen	-10.3145
▁gizi	-10.3145
▁Fat	-10.3145
▁asasi	-10.3146
▁up	-10.3153
▁Fajar	-10.3156
▁Kadin	-10.3157
▁All	-10.3162
mati	-10.3173
▁diatur	-10.3173
▁pembiayaan	-10.3181
▁Pondok	-10.3181
▁kelola	-10.3181
▁Andri	-10.3183
▁Tentu	-10.3186
hadap	-10.319
BS	-10.3192
▁Emil	-10.3192
▁She	-10.3192
▁Imin	-10.3202
▁kapan	-10.3203
rup	-10.3203
▁Harapan	-10.3204
▁melintas	-10.3206
▁AD	-10.3211
program	-10.3211
jati	-10.3211
▁Serentak	-10.3218
▁Soekarnoputri	-10.3218
▁kekayaan	-10.3218
▁stasiun	-10.3218
▁Komite	-10.3218
▁Mataram	-10.3218
▁Cara	-10.3218
▁menulis	-10.322
▁Jati	-10.3222
▁Medi	-10.3222
▁Ste	-10.3248
enggan	-10.325
▁ilmu	-10.3252
▁Aktris	-10.3254
▁integritas	-10.3254
▁kewajiban	-10.3254
▁penguatan	-10.3254
▁karbon	-10.3254
▁mengawasi	-10.3254
tom	-10.3257
68	-10.3257
run	-10.3258
bayang	-10.326
melainkan	-10.3265
1/	-10.3271
▁Dja	-10.3278
38	-10.329
▁rekapitulasi	-10.3291
▁Persatuan	-10.3291
▁saluran	-10.3291
▁Wanita	-10.3291
buat	-10.33
▁Bal	-10.3325
luka	-10.3326
▁kemudahan	-10.3326
▁Yordania	-10.3328
▁alternatif	-10.3328
▁skema	-10.3328
▁memperkirakan	-10.333
▁kemasan	-10.333
▁Agen	-10.3333
▁Ryan	-10.3334
▁nyawa	-10.3336
nggak	-10.3338
jangkau	-10.334
menyita	-10.3353
bes	-10.3357
▁Asosiasi	-10.3366
▁Kriminal	-10.3366
▁mengevakuasi	-10.3366
▁terpisah	-10.3366
▁Sumbar	-10.3366
▁Win	-10.3371
▁perempat	-10.3371
▁Harus	-10.3372
▁Kus	-10.3372
▁terkenal	-10.3376
satu	-10.3383
BA	-10.3395
▁Bey	-10.3396
▁mengundang	-10.3403
▁Pembina	-10.3403
▁bahaya	-10.3403
▁bendera	-10.3403
▁ledakan	-10.3403
▁merebut	-10.3405
▁Rahmat	-10.3405
▁spesial	-10.3406
▁bertahun	-10.3406
▁berapa	-10.3407
▁Mall	-10.3409
harga	-10.3414
▁Sim	-10.3423
pandang	-10.3426
▁timnas	-10.3428
▁Port	-10.3431
Karena	-10.3436
tabrak	-10.3437
▁Buleleng	-10.3441
▁Terima	-10.3441
▁dilarang	-10.3441
▁riset	-10.3442
▁Bima	-10.3447
reng	-10.3456
lab	-10.3462
▁Gede	-10.3464
▁Hartarto	-10.3478
▁komoditas	-10.3478
▁Cup	-10.3489
ohon	-10.3508
▁beber	-10.3513
▁Balikpapan	-10.3516
▁sebelah	-10.3516
25/	-10.3518
lawan	-10.3521
▁Hulu	-10.3528
▁Peny	-10.3542
▁Kabinet	-10.3554
▁disambut	-10.3554
▁sengketa	-10.3554
▁bertindak	-10.3554
▁imbuh	-10.3559
neka	-10.3559
▁massal	-10.3567
▁Penting	-10.3568
▁dituduh	-10.3568
angkut	-10.357
▁VI	-10.3572
-16	-10.3587
▁menyelidiki	-10.3592
▁berpikir	-10.3592
▁Taliban	-10.3592
▁pembentukan	-10.3592
▁perilaku	-10.3592
▁AMIN	-10.3592
ATEN	-10.3593
▁dirawat	-10.3597
▁PNM	-10.36
nanti	-10.3613
▁dikabarkan	-10.363
▁gerimis	-10.363
▁pesantren	-10.363
▁pesisir	-10.363
▁kecurangan	-10.363
▁populasi	-10.363
▁aktor	-10.363
hukum	-10.363
▁literasi	-10.3633
▁ASDP	-10.3641
erangkat	-10.3649
▁peta	-10.3652
banding	-10.3662
▁stabil	-10.3663
▁Fransiskus	-10.3668
▁KUHP	-10.3668
▁League	-10.3668
▁Purwakarta	-10.3668
▁menabrak	-10.3668
▁mineral	-10.3668
▁Proyek	-10.3668
▁Ilmu	-10.3668
▁Teguh	-10.367
▁Cho	-10.3672
34	-10.3674
▁Sil	-10.369
mis	-10.3694
▁depannya	-10.3698
SN	-10.3701
▁Regional	-10.3706
▁nutrisi	-10.3706
▁pemulihan	-10.3706
▁persaingan	-10.3706
▁kuliah	-10.3706
▁menemui	-10.3706
▁habis	-10.3707
▁pilpres	-10.3707
▁bersiap	-10.3725
low	-10.3733
37	-10.3735
▁Musi	-10.3738
▁Meksiko	-10.3745
▁Peristiwa	-10.3745
▁Rohingya	-10.3745
▁dipanggil	-10.3745
▁menghilang	-10.3745
▁memakai	-10.3745
▁Total	-10.375
▁2045	-10.3752
▁terbanyak	-10.3755
▁kemerdekaan	-10.3755
▁lulusan	-10.3757
▁rob	-10.3761
▁ataupun	-10.3767
▁Buka	-10.3771
menerus	-10.3778
▁pembuatan	-10.3784
▁memajukan	-10.3784
▁Katolik	-10.3784
▁SOLO	-10.3784
▁Yusuf	-10.3784
▁BPJS	-10.3784
▁gagasan	-10.3784
▁mekanisme	-10.3784
▁memainkan	-10.3784
▁pengobatan	-10.3787
▁Tugas	-10.3787
Emil	-10.3788
av	-10.38
▁km	-10.3804
foto	-10.3806
hab	-10.382
▁pinggir	-10.3823
▁pemudik	-10.3823
▁kualifikasi	-10.3826
▁ayam	-10.3826
▁Juara	-10.3827
▁Kuasa	-10.3831
▁Xi	-10.3837
▁berlaga	-10.384
▁implementasi	-10.3843
LE	-10.3846
▁Irwan	-10.385
Indonesia	-10.386
▁Run	-10.3861
▁Kompleks	-10.3862
▁kuliner	-10.3862
▁memfasilitasi	-10.3862
▁pemangku	-10.3862
▁pembatasan	-10.3862
▁Coach	-10.3862
▁bunuh	-10.3862
▁objek	-10.3862
▁menentang	-10.3868
▁Sah	-10.3869
▁Ammar	-10.387
oleh	-10.3873
▁berkas	-10.3878
tok	-10.3879
ase	-10.3885
▁Semen	-10.3886
▁Bagian	-10.3892
yani	-10.3893
endra	-10.3894
▁antusias	-10.3898
▁Halilintar	-10.3901
▁Daftar	-10.3901
▁seluas	-10.3901
▁Jayapura	-10.3902
▁transparan	-10.3927
▁teh	-10.3929
▁Karang	-10.3933
hub	-10.3934
ardi	-10.3939
▁berpendapat	-10.394
▁dievakuasi	-10.394
▁mempengaruhi	-10.394
▁tangkap	-10.394
▁kendala	-10.3941
ABUP	-10.3944
▁Expo	-10.3945
PJ	-10.3945
▁PM	-10.3946
besaran	-10.395
▁Benny	-10.3952
jawa	-10.3957
teng	-10.3962
ree	-10.3963
▁Pers	-10.3973
▁Ten	-10.3977
06	-10.3978
▁Kristiyanto	-10.398
▁Pangarep	-10.398
▁derajat	-10.398
▁terdekat	-10.398
geng	-10.3981
vonis	-10.3981
operasi	-10.3984
▁Cabang	-10.3989
▁lari	-10.3995
▁Nanti	-10.3997
ruf	-10.4003
▁Ol	-10.4012
ibu	-10.4014
▁sambungnya	-10.4018
▁menguasai	-10.402
▁penderita	-10.402
▁mikro	-10.402
-79	-10.4021
▁Strategi	-10.4026
jaring	-10.4026
▁kok	-10.4033
▁Khan	-10.4035
▁Pesan	-10.404
▁kena	-10.4043
embang	-10.4043
over	-10.4044
kol	-10.4046
ade	-10.4047
Muhaimin	-10.4059
▁bermanfaat	-10.4059
▁mengonfirmasi	-10.4059
▁Inovasi	-10.4059
▁pemahaman	-10.4059
▁Dharma	-10.406
▁KTT	-10.406
▁perahu	-10.406
▁kisah	-10.4062
▁Pratama	-10.4062
▁pengawas	-10.4063
don	-10.4065
▁Bareskrim	-10.4066
▁ganda	-10.4073
▁Batang	-10.4094
▁2024/2025	-10.4099
▁album	-10.4099
▁Teuku	-10.41
▁Ratu	-10.4105
▁kubu	-10.4107
▁Lee	-10.4116
▁dewan	-10.4116
▁Bhayangkara	-10.414
▁WhatsApp	-10.414
▁menghubungi	-10.414
Suswono	-10.414
▁dijatuh	-10.414
▁deras	-10.4146
▁Alhamdulillah	-10.4146
HA	-10.415
UM	-10.4153
▁Risma	-10.416
▁baku	-10.4163
rom	-10.4165
▁Temu	-10.4171
trasi	-10.4172
lihat	-10.4175
▁membatalkan	-10.418
▁pertambangan	-10.418
▁tawuran	-10.418
▁kritis	-10.418
▁karier	-10.418
▁cerai	-10.418
▁gigi	-10.4181
▁reformasi	-10.4184
▁Reformasi	-10.4185
▁pecah	-10.4186
▁Rudy	-10.4187
▁struktur	-10.4192
▁belakangan	-10.4195
▁Artinya	-10.4198
paruh	-10.421
▁saing	-10.4215
▁Asep	-10.4216
lum	-10.4217
▁Biro	-10.4218
▁Business	-10.422
▁Istimewa	-10.422
▁memerlukan	-10.422
▁mengklaim	-10.422
▁pemberantasan	-10.422
▁Merdeka	-10.422
▁waspada	-10.422
▁Perumahan	-10.422
▁terkini	-10.4221
▁kelima	-10.4221
▁ditangani	-10.4222
Saat	-10.4222
▁Tempat	-10.4227
▁kebun	-10.4243
▁Des	-10.4244
UD	-10.4249
jin	-10.4251
▁UI	-10.4253
▁memudahkan	-10.4261
▁otomotif	-10.4261
▁pelecehan	-10.4261
▁pemberontak	-10.4261
▁Thomas	-10.4261
▁praktis	-10.4261
▁pelamar	-10.4261
▁diperoleh	-10.4262
Pilkada	-10.4263
▁AC	-10.4264
ora	-10.4265
▁Wira	-10.4265
▁motif	-10.4266
▁Sari	-10.4268
44	-10.4271
▁Rutan	-10.4285
▁Val	-10.4287
▁Bro	-10.4289
▁Pam	-10.4292
▁dimanfaatkan	-10.4302
▁prajurit	-10.4302
▁Achmad	-10.4302
▁sawit	-10.4302
▁Pemenangan	-10.4302
▁terancam	-10.4302
lembaga	-10.4304
▁mandiri	-10.4308
▁mas	-10.4308
▁Ardi	-10.4312
▁Perlu	-10.4315
▁Bangun	-10.4319
▁NTT	-10.4333
▁puas	-10.4333
mor	-10.4334
Dari	-10.4334
isu	-10.4337
▁Ok	-10.4339
▁Pasuruan	-10.4343
▁komersial	-10.4343
▁Distrik	-10.4343
▁Edward	-10.4343
▁memperhatikan	-10.4343
▁buruh	-10.4343
▁Ternyata	-10.4344
▁manis	-10.4348
▁Yuli	-10.4352
▁Ven	-10.4352
gem	-10.4353
▁Zain	-10.4369
▁Pus	-10.4372
atul	-10.4375
▁konstitusi	-10.4384
▁Mau	-10.4384
▁bentrok	-10.4384
▁keagamaan	-10.4384
▁menyetujui	-10.4384
▁Udara	-10.4384
▁penutupan	-10.441
▁bertema	-10.4421
▁Kendaraan	-10.4425
▁pengumuman	-10.4425
▁memperingati	-10.4425
▁Santoso	-10.4425
▁direktur	-10.4425
▁Selamat	-10.4429
32	-10.4438
pada	-10.4441
▁abad	-10.4446
mohon	-10.4449
Un	-10.4451
▁efisien	-10.4454
12/	-10.4459
▁Jembrana	-10.4467
▁otoritas	-10.4467
▁pinjaman	-10.4467
▁responden	-10.4467
▁silaturahmi	-10.4467
▁universitas	-10.4467
▁properti	-10.4467
▁Basuki	-10.4467
ayu	-10.4468
▁Vol	-10.447
▁banding	-10.4478
▁memuji	-10.4479
▁tembakan	-10.4482
iq	-10.4484
▁Mulia	-10.4486
▁Mada	-10.4488
Ber	-10.4496
ence	-10.4499
▁Az	-10.4505
▁beasiswa	-10.4509
▁menderita	-10.4509
▁kurban	-10.4509
▁dirasakan	-10.4509
▁penahanan	-10.4509
▁perbankan	-10.4509
▁modus	-10.451
perusahaan	-10.4512
▁Teluk	-10.4514
hang	-10.4517
▁Wijaya	-10.4523
kata	-10.4527
mudahan	-10.4531
▁betul	-10.4537
▁Nugroho	-10.455
▁pergerakan	-10.455
▁Target	-10.455
▁caleg	-10.455
▁multi	-10.4551
▁cinta	-10.4551
▁Ahli	-10.4551
▁ditambah	-10.4551
▁panen	-10.4551
▁dingin	-10.4554
▁ST	-10.456
▁Terbaru	-10.4561
Peng	-10.4565
▁apapun	-10.4565
▁leg	-10.4566
▁Uang	-10.457
▁top	-10.4574
antongi	-10.4582
▁Heru	-10.4585
eusai	-10.4589
▁Trenggalek	-10.4592
▁festival	-10.4592
▁kepedulian	-10.4592
▁menjatuhkan	-10.4592
▁penambahan	-10.4592
▁membeberkan	-10.4592
ficial	-10.4593
had	-10.4595
▁partainya	-10.4595
▁Mega	-10.4595
55	-10.4629
emas	-10.4632
▁Plt	-10.4633
▁pendek	-10.4634
▁Google	-10.4635
▁melahirkan	-10.4635
▁rombongan	-10.4635
tepatan	-10.4635
▁BTN	-10.4635
▁Ulama	-10.4635
▁disiapkan	-10.4635
▁markas	-10.4636
▁ayahnya	-10.4637
Pada	-10.4638
▁Bek	-10.4639
▁mahal	-10.464
▁alih	-10.4649
▁Darat	-10.4652
▁dialog	-10.4657
▁Shi	-10.466
mem	-10.4665
tujukan	-10.4665
▁asuhan	-10.4666
▁Yus	-10.4667
elebritas	-10.4671
mengidentifikasi	-10.4677
▁kedaulatan	-10.4677
▁mengembalikan	-10.4677
▁Sumatra	-10.4677
▁Kamala	-10.4677
▁paksa	-10.4677
▁Let	-10.4677
▁dijalankan	-10.4678
▁Champions	-10.4682
▁Tanpa	-10.4686
▁efisiensi	-10.469
▁mengajar	-10.4693
antap	-10.4704
▁beruntun	-10.4705
▁ide	-10.4706
▁Cek	-10.471
▁Brigjen	-10.4719
▁Probolinggo	-10.4719
▁pemberdayaan	-10.4719
▁Cahyadi	-10.4719
▁mengecek	-10.472
▁Ris	-10.472
▁Kel	-10.4721
bag	-10.4725
75	-10.4728
▁Bra	-10.4733
dok	-10.4734
▁Siapa	-10.4737
▁Ivan	-10.474
▁umumnya	-10.4751
▁Teco	-10.4755
ulasi	-10.4758
▁Zelenskyy	-10.4762
▁demonstrasi	-10.4762
▁pelapor	-10.4762
▁menimpa	-10.4762
▁Pop	-10.4763
dominasi	-10.4763
▁Terlebih	-10.4765
▁Ferry	-10.4765
▁kamp	-10.4766
▁menduga	-10.4766
▁kabur	-10.4767
▁tulang	-10.4768
48	-10.4768
▁bertanya	-10.477
▁kering	-10.4772
prov	-10.4784
▁cita	-10.4791
▁kriminal	-10.4794
tive	-10.4798
EC	-10.4799
▁PMI	-10.4804
▁tepatnya	-10.4804
▁Band	-10.4804
▁Development	-10.4805
▁mengecam	-10.4808
▁Yasin	-10.4809
-13	-10.481
▁150	-10.481
▁bikin	-10.481
▁ruangan	-10.4814
▁sesama	-10.482
▁Lagi	-10.482
▁siber	-10.4823
HU	-10.4827
abilitas	-10.4828
guhkan	-10.4847
▁invasi	-10.4848
▁Misalnya	-10.4848
▁membenarkan	-10.4848
▁jarang	-10.4849
▁ruas	-10.4849
▁Auto	-10.4857
▁Kos	-10.4864
▁Cor	-10.4864
ship	-10.4866
cil	-10.4879
▁Plus	-10.4882
▁harap	-10.4889
▁pembinaan	-10.4892
▁Kampus	-10.4892
▁Fatoni	-10.4892
▁Green	-10.4892
▁Miliar	-10.4892
▁Madiun	-10.4892
▁Kereta	-10.4892
▁WNI	-10.4898
▁Nabi	-10.4901
▁aparatur	-10.4908
▁ban	-10.491
▁BPK	-10.4915
▁Ele	-10.493
awai	-10.493
▁isi	-10.493
▁Pemasyarakatan	-10.4935
▁London	-10.4935
▁cocok	-10.4935
▁memegang	-10.4935
▁penyelesaian	-10.4936
▁dikatakan	-10.4936
▁Dorong	-10.4937
▁relawan	-10.4938
▁berhak	-10.4941
▁Arena	-10.4941
▁lebaran	-10.4943
▁Sandra	-10.4944
▁55	-10.4945
▁band	-10.4947
syarat	-10.4952
PPPK	-10.4952
▁disebutkan	-10.4957
MD	-10.4961
ound	-10.4963
▁Dito	-10.4967
▁Rest	-10.4974
pus	-10.4977
▁perlawanan	-10.4979
▁kaum	-10.4979
▁Pengguna	-10.4982
▁start	-10.4988
▁Kas	-10.4993
meriah	-10.4997
▁BI	-10.5002
▁bawa	-10.5016
meter	-10.5019
▁Bobby	-10.5023
▁mendeklarasikan	-10.5023
▁mengizinkan	-10.5023
▁tertutup	-10.5023
▁Harvey	-10.5023
▁sorotan	-10.5023
▁penyelundupan	-10.5023
▁otak	-10.5023
▁lipat	-10.5025
kerja	-10.503
▁39	-10.5032
▁Pekerjaan	-10.5032
▁Duta	-10.5032
yanti	-10.5035
▁lampu	-10.5037
▁daun	-10.5041
▁PON	-10.5042
obatan	-10.5043
▁federal	-10.5067
▁ketertiban	-10.5067
▁berkuasa	-10.5067
▁solid	-10.5067
▁pendanaan	-10.5067
▁Aktor	-10.5067
▁ditembak	-10.5067
▁hamil	-10.5068
▁diplomatik	-10.5069
▁material	-10.5083
Ya	-10.5083
▁angkat	-10.51
▁IS	-10.51
▁Pang	-10.5102
▁Pesantren	-10.5111
▁destinasi	-10.5111
▁pembahasan	-10.5111
▁Pramella	-10.5111
▁Ricis	-10.5111
▁dipakai	-10.5111
▁Cagub	-10.5112
▁Pasaribu	-10.5112
▁etik	-10.5114
▁Putusan	-10.5115
▁Budaya	-10.5116
▁macam	-10.5116
anglima	-10.5118
▁pil	-10.512
▁nasib	-10.5121
otret	-10.5124
▁SA	-10.513
red	-10.5131
▁ex	-10.5132
▁CSR	-10.5135
▁kekasih	-10.514
anggung	-10.5141
▁Noor	-10.5144
▁Eng	-10.5144
▁cawapres	-10.5145
▁EURO	-10.5155
▁Komunitas	-10.5155
▁Wibowo	-10.5155
▁memperjuangkan	-10.5155
▁Termasuk	-10.5155
▁mendirikan	-10.5155
▁tempur	-10.5156
▁Damai	-10.5156
ALEM	-10.5156
▁Gratis	-10.5157
▁Ng	-10.5166
▁Best	-10.5166
▁sambutan	-10.5174
misi	-10.5175
▁Heri	-10.5184
▁Life	-10.5187
UK	-10.5196
▁terangnya	-10.5198
▁California	-10.52
▁Gorontalo	-10.52
▁diterbitkan	-10.52
▁komponen	-10.52
▁pembalap	-10.52
▁peduli	-10.52
▁menjamu	-10.5202
▁250	-10.5209
ward	-10.5211
banyak	-10.5214
▁Arie	-10.5216
que	-10.5224
ive	-10.5228
▁Mojokerto	-10.5245
▁dibebaskan	-10.5245
▁rahasia	-10.5245
▁terkemuka	-10.5245
▁mencalonkan	-10.5245
▁pangkalan	-10.5245
▁Teheran	-10.5245
▁pemanfaatan	-10.5246
▁Kemenag	-10.5249
▁jabatannya	-10.5255
WA	-10.5258
▁terasa	-10.5263
▁Tito	-10.5265
▁Institut	-10.5266
dji	-10.5269
hor	-10.5284
▁pembelajaran	-10.529
▁diyakini	-10.529
▁PBNU	-10.529
▁tersisa	-10.529
andalkan	-10.5291
▁Ny	-10.5293
▁duka	-10.5293
▁kontak	-10.5293
21/	-10.5296
Yang	-10.5299
▁Eka	-10.5299
▁Kejati	-10.5299
▁tertua	-10.53
cawapres	-10.53
▁tegasnya	-10.5301
ddy	-10.5308
▁Karim	-10.5312
TKN	-10.5316
empat	-10.5323
▁Yaman	-10.5325
kong	-10.5327
▁Ray	-10.5329
LU	-10.5332
DC	-10.5333
▁membatasi	-10.5335
▁kemitraan	-10.5335
▁mengantar	-10.5336
Jateng	-10.5346
Polri	-10.5346
▁liburan	-10.5357
▁Kang	-10.5369
enteng	-10.5372
▁off	-10.5375
▁ramai	-10.5378
▁dakwaan	-10.5381
▁Maulana	-10.5381
▁penyelamat	-10.5381
food	-10.5383
▁Ruben	-10.5383
▁Tangkap	-10.5384
▁terdaftar	-10.5387
▁benda	-10.5389
▁Suami	-10.539
▁Siswa	-10.5392
umbu	-10.5396
CA	-10.5399
▁kandung	-10.5401
▁EV	-10.541
unjung	-10.5414
▁berlokasi	-10.5414
bud	-10.5418
▁Komisaris	-10.5426
▁Ponorogo	-10.5426
▁stadion	-10.5426
▁Bahrain	-10.5426
▁Pendaftaran	-10.5426
▁meresmi	-10.5426
▁tembakau	-10.5428
▁Denny	-10.5432
▁berfungsi	-10.5433
▁upah	-10.5434
▁Non	-10.5434
▁intensif	-10.5435
▁RA	-10.5439
▁undangan	-10.5448
▁Lagu	-10.5451
▁nasi	-10.5451
▁memaparkan	-10.5472
▁konteks	-10.5472
▁Marketing	-10.5472
▁Terminal	-10.5472
▁hangat	-10.5472
▁banget	-10.5472
▁Bangka	-10.5475
▁Bagus	-10.5479
besar	-10.5484
Setelah	-10.5484
▁terjangkau	-10.5486
cc	-10.5496
▁President	-10.5496
▁(14	-10.5507
▁Tepi	-10.5508
▁Bangladesh	-10.5518
▁Tulungagung	-10.5518
▁capaian	-10.5518
▁kecerdasan	-10.5518
▁Penyakit	-10.5518
▁berlebihan	-10.5518
▁SERA	-10.5519
▁ISIS	-10.5519
▁wadah	-10.5521
▁analisis	-10.5529
king	-10.5532
▁disita	-10.5532
▁Free	-10.5559
▁Banda	-10.5562
▁Service	-10.5564
▁Nyoman	-10.5564
▁spesifik	-10.5565
▁Koordinasi	-10.5565
▁artinya	-10.5565
47	-10.5568
▁Andrew	-10.5569
▁Wapres	-10.5572
▁RK	-10.5578
▁timah	-10.558
siap	-10.5586
33	-10.559
Pro	-10.5592
OK	-10.5602
Hatta	-10.5605
sembunyi	-10.5611
▁narapidana	-10.5611
▁simulasi	-10.5611
▁penuntut	-10.5611
▁detail	-10.5611
▁Kejari	-10.5611
▁Dokumentasi	-10.5612
▁Ton	-10.5613
▁Bangkalan	-10.5615
▁bapak	-10.5617
▁Makanan	-10.5622
▁Seri	-10.5622
▁besi	-10.5627
▁Red	-10.5635
Itu	-10.5637
▁Marin	-10.5641
under	-10.5655
▁Benjamin	-10.5658
▁Samarinda	-10.5658
▁canggih	-10.5658
▁mempertanyakan	-10.5658
▁menaikkan	-10.5658
▁Pecco	-10.5658
▁kamera	-10.5658
▁panel	-10.5659
▁aja	-10.5663
▁Dapat	-10.5664
▁Pajak	-10.5666
luar	-10.5666
▁menyebar	-10.5668
▁tertulisnya	-10.5671
▁Debat	-10.5676
UU	-10.5678
erkuat	-10.5688
▁inter	-10.5695
mimpi	-10.5701
putus	-10.5702
▁netral	-10.5703
▁berterima	-10.5705
▁mengejutkan	-10.5705
▁panitia	-10.5705
▁mengakses	-10.5705
▁Kuningan	-10.5705
▁kajian	-10.5705
▁sapaan	-10.5705
▁by	-10.5705
▁LPG	-10.5713
▁Kontra	-10.5714
▁etika	-10.5715
▁Bojonegoro	-10.5752
▁berkampanye	-10.5752
▁penyaluran	-10.5752
▁Menengah	-10.5752
▁Apple	-10.5752
▁menempati	-10.5752
▁Ken	-10.5753
▁Bella	-10.5753
▁menguat	-10.5755
▁melepas	-10.5761
▁pemadaman	-10.5761
pam	-10.5762
CO	-10.5764
Mereka	-10.5767
betul	-10.5767
saudara	-10.5767
salah	-10.5772
▁Sekarang	-10.5775
▁Nga	-10.5775
▁sambutannya	-10.578
▁mendalami	-10.5782
prakirakan	-10.5795
▁Majalengka	-10.5799
▁bahagia	-10.5799
▁menerbitkan	-10.5799
▁pengungkapan	-10.5799
▁Peserta	-10.5799
▁gunung	-10.5799
▁tabung	-10.58
▁fenomena	-10.58
▁diraih	-10.58
▁sayur	-10.58
▁Semoga	-10.5803
▁suci	-10.5805
▁Antam	-10.5808
▁kantong	-10.5818
▁Abu	-10.582
▁Yudi	-10.5823
▁simbol	-10.5828
▁Water	-10.5837
▁Convention	-10.5847
▁Jembatan	-10.5847
▁Sudjana	-10.5847
▁Sumenep	-10.5847
▁delegasi	-10.5847
▁pungkas	-10.5847
▁Online	-10.5847
▁meluas	-10.5847
▁persatuan	-10.5847
▁penalti	-10.5847
▁Resmi	-10.5847
▁kendali	-10.5847
▁Antoni	-10.5848
▁warung	-10.5848
▁netralitas	-10.5849
▁ambil	-10.5853
▁Ikut	-10.5853
▁Mulyadi	-10.5854
▁Kolaborasi	-10.586
GI	-10.5864
▁Tegal	-10.5872
▁Fre	-10.5888
▁dikonsumsi	-10.5895
▁menguntungkan	-10.5895
▁Prasetyo	-10.5895
▁pengangkatan	-10.5895
▁Manfaat	-10.5895
bungkus	-10.5895
▁Dugaan	-10.5895
▁menyimpan	-10.5895
▁angkutan	-10.5895
▁visa	-10.5896
EV	-10.5896
-17	-10.59
▁berkomunikasi	-10.5901
▁ob	-10.5917
▁politisi	-10.5918
▁Daniel	-10.5919
27/	-10.5935
tz	-10.5936
▁Argentina	-10.5943
▁Situbondo	-10.5943
▁Stadium	-10.5943
▁pengecekan	-10.5943
▁gereja	-10.5943
▁pertengahan	-10.5943
▁asam	-10.5944
▁Dirinya	-10.5945
upaya	-10.5948
▁super	-10.595
pura	-10.5952
Rano	-10.5959
Jika	-10.5971
43	-10.5978
▁Fah	-10.5983
▁Bandar	-10.5991
▁Kyiv	-10.5991
▁otomatis	-10.5991
▁penemuan	-10.5991
▁mengundur	-10.5991
▁Aditya	-10.5991
▁memasang	-10.5991
▁Cipta	-10.5991
▁Nilai	-10.5991
▁menanam	-10.5992
▁penggeledahan	-10.5992
▁minat	-10.5992
▁kelaparan	-10.5994
lebih	-10.5995
▁Serdang	-10.5995
▁Lebak	-10.5997
▁RW	-10.6009
versi	-10.6011
▁48	-10.6011
fin	-10.6015
▁melepaskan	-10.6039
▁Bamsoet	-10.604
▁Sukarelawan	-10.604
▁investigasi	-10.604
▁Personel	-10.604
▁Gabungan	-10.604
▁Peringatan	-10.604
▁menantang	-10.604
▁edisi	-10.604
▁APBN	-10.604
▁Terus	-10.6048
inggung	-10.605
pet	-10.6056
39	-10.6057
▁Kejagung	-10.606
▁Kemendagri	-10.6064
▁membe	-10.6072
inisiasi	-10.6076
yati	-10.6079
▁promo	-10.6081
▁Mitsubishi	-10.6088
▁diselesaikan	-10.6088
▁kelancaran	-10.6088
▁praperadilan	-10.6088
▁Gereja	-10.6088
▁restoran	-10.6088
▁Moeis	-10.6088
▁Dusun	-10.6089
▁pilot	-10.6091
▁Silva	-10.6091
far	-10.6095
▁akademisi	-10.6095
▁selebritas	-10.6096
JPNN	-10.6107
▁sembar	-10.6107
23/	-10.6113
▁Fest	-10.6113
▁1,5	-10.6121
▁tas	-10.6123
deng	-10.6128
▁ketersediaan	-10.6137
▁pertunjukan	-10.6137
▁begini	-10.6137
▁percepatan	-10.6137
▁badai	-10.6138
▁dikenakan	-10.6138
▁seru	-10.6142
jek	-10.6144
▁bio	-10.6152
▁Widya	-10.616
PSI	-10.6161
▁teror	-10.6163
ukuran	-10.617
▁rencananya	-10.6172
▁Rum	-10.6177
amerkan	-10.6183
▁permukaan	-10.6187
▁Bagnaia	-10.6187
▁berkendara	-10.6187
▁kecantikan	-10.6187
▁Tabanan	-10.6187
▁keterampilan	-10.6187
▁imigrasi	-10.6187
▁Baim	-10.619
▁web	-10.6192
▁Otoritas	-10.6197
▁promosi	-10.62
▁Simak	-10.6201
gambar	-10.6213
qi	-10.6217
▁Mbak	-10.6219
ubur	-10.6221
▁kode	-10.6224
▁Maya	-10.6234
▁Rudi	-10.6235
▁melengkapi	-10.6236
▁mengkritik	-10.6236
▁relevan	-10.6236
▁sertifikasi	-10.6236
▁William	-10.6236
▁Yamaha	-10.6236
▁hunian	-10.6236
▁persetujuan	-10.6236
▁pleno	-10.6236
▁revisi	-10.6236
▁dikembangkan	-10.6236
▁Fakta	-10.6236
▁Polandia	-10.6238
▁curah	-10.6238
▁Kun	-10.6244
▁Diduga	-10.6247
▁taktik	-10.6247
▁sadar	-10.6262
▁Satria	-10.6266
onferensi	-10.6284
▁berlatih	-10.6286
▁perpanjangan	-10.6286
▁Panitia	-10.6286
▁Syariah	-10.6286
▁aliansi	-10.6286
▁menyuarakan	-10.6286
▁menembus	-10.6286
▁#	-10.6289
wanto	-10.6291
▁Manahan	-10.6294
▁kadar	-10.6305
sekolah	-10.6307
▁Penye	-10.6309
▁jasad	-10.631
▁Bahas	-10.6316
▁Tour	-10.632
▁pemenangan	-10.6321
▁kesuksesan	-10.6336
▁klarifikasi	-10.6336
▁menjanjikan	-10.6336
▁menerangkan	-10.6336
▁penolakan	-10.6336
▁Mac	-10.6337
laga	-10.6337
IKN	-10.6357
▁Arifin	-10.6357
19/	-10.6358
▁Depan	-10.6363
awali	-10.6365
▁Kurnia	-10.6384
▁bioskop	-10.6386
▁menempuh	-10.6386
▁Sahroni	-10.6386
▁Raharja	-10.6386
▁pengurangan	-10.6386
▁etnis	-10.6386
▁Dapil	-10.6386
▁mematikan	-10.6386
▁bansos	-10.6387
impunan	-10.6387
▁dapur	-10.6388
▁inklusif	-10.6389
▁mengejar	-10.639
▁Kepada	-10.6396
▁segar	-10.6403
▁Basarnas	-10.6405
▁Malik	-10.6407
▁Yuni	-10.641
▁Sekda	-10.6415
bukti	-10.6415
anggota	-10.6417
▁geng	-10.642
▁Pasifik	-10.6422
▁Adhi	-10.6423
▁cek	-10.6423
▁UNRWA	-10.6437
▁kontroversi	-10.6437
▁Covid	-10.6437
▁menyasar	-10.6437
▁Persita	-10.6439
▁membaca	-10.6441
kawan	-10.6451
▁Masalah	-10.6452
▁melintasi	-10.6453
▁Lama	-10.6454
▁Pemilih	-10.6467
Dalam	-10.647
▁spesialis	-10.6484
▁Mark	-10.6484
▁ditentukan	-10.6487
▁eksekutif	-10.6487
▁Begitu	-10.6487
▁psikolog	-10.6487
▁Pendapat	-10.6487
▁Seleksi	-10.6487
▁insentif	-10.6487
▁melemah	-10.6488
▁Isu	-10.6493
HT	-10.6495
▁Live	-10.6498
▁erat	-10.6499
able	-10.6503
jer	-10.6507
-15	-10.651
▁Eman	-10.6528
▁helikopter	-10.6538
▁kripto	-10.6538
▁produktivitas	-10.6538
▁menampung	-10.6538
▁Ginting	-10.6538
▁THR	-10.6539
▁DPW	-10.6539
▁Ketut	-10.6539
ALANG	-10.654
▁menelan	-10.655
▁07:0	-10.655
▁kawan	-10.6551
▁Indar	-10.656
ihal	-10.6573
pad	-10.6574
▁Iduladha	-10.659
▁menduduki	-10.659
▁Hasyim	-10.659
▁artikel	-10.659
ontrol	-10.6591
▁Final	-10.6591
▁Mini	-10.6594
▁niat	-10.6594
▁digitalisasi	-10.6598
▁paham	-10.6599
-12	-10.66
▁Biasa	-10.6601
▁tangkis	-10.6601
Dishub	-10.6609
600	-10.6609
▁42	-10.6639
▁Col	-10.664
▁diklaim	-10.6641
▁dinamika	-10.6641
▁komprehensif	-10.6641
▁koleksi	-10.6641
▁bertekad	-10.6641
▁kimia	-10.6641
▁melukai	-10.6641
▁Onsu	-10.6641
/2023	-10.6641
▁voli	-10.6643
▁SIM	-10.6643
▁suap	-10.6646
▁biru	-10.6653
▁Fitri	-10.6653
▁Kiai	-10.6654
▁Boy	-10.6654
▁Akhirnya	-10.6656
▁opsi	-10.6657
▁Herman	-10.6661
▁inti	-10.6664
kapal	-10.6675
▁mengedepan	-10.6693
▁botol	-10.6693
▁disetujui	-10.6693
▁membebaskan	-10.6693
▁Ditangkap	-10.6693
▁Health	-10.6693
▁Lumajang	-10.6693
▁pengambilan	-10.6693
▁perasaan	-10.6693
▁kenapa	-10.6698
▁Jalak	-10.6709
ancing	-10.6715
TPS	-10.6731
▁41	-10.6734
▁lapor	-10.6735
▁kronologi	-10.6745
▁terwujud	-10.6745
▁Ramadhan	-10.6745
▁Solidaritas	-10.6745
▁proposal	-10.6745
▁Purnama	-10.6745
▁National	-10.6745
▁Komandan	-10.6745
▁bersikap	-10.6745
▁kakak	-10.6745
▁kecewa	-10.6745
▁Saleh	-10.6746
▁merawat	-10.6754
▁putus	-10.6754
▁Setia	-10.6776
▁pendampingan	-10.6797
▁Logistik	-10.6798
▁kemacetan	-10.6798
▁meyakinkan	-10.6798
▁sederhana	-10.6798
▁AHY	-10.6798
kebangsaan	-10.6798
▁dibantu	-10.6798
▁Satreskrim	-10.6799
▁mendekati	-10.6803
▁basis	-10.6804
▁telak	-10.6806
▁Siak	-10.6812
▁Jawab	-10.6812
▁penyediaan	-10.6819
▁Ayah	-10.6823
▁Sof	-10.6826
▁44	-10.6834
▁End	-10.6841
▁mendengarkan	-10.6845
▁Tuhan	-10.6845
▁Administrasi	-10.685
▁mempelajari	-10.685
▁penandatanganan	-10.685
▁ditawarkan	-10.685
▁tercapai	-10.685
▁vonis	-10.6851
▁Fair	-10.6852
bobol	-10.6852
▁salat	-10.6856
▁nota	-10.6857
▁blok	-10.6857
▁Catat	-10.6858
▁real	-10.6862
warnai	-10.6863
▁kg	-10.6866
▁Ayat	-10.6874
▁penyedia	-10.6884
▁berikut	-10.6885
▁amanah	-10.6891
▁mak	-10.6897
▁diabetes	-10.6903
▁motivasi	-10.6903
▁premium	-10.6903
▁cadangan	-10.6903
▁perumahan	-10.6903
▁hancur	-10.6903
▁diakui	-10.6904
▁out	-10.6906
▁didirikan	-10.6908
▁Buruh	-10.691
▁Dasar	-10.6915
▁jet	-10.6916
▁DJ	-10.6918
pok	-10.6925
▁Promo	-10.6926
▁pemantauan	-10.6931
saksi	-10.6932
▁19:0	-10.6934
▁Boyolali	-10.6956
▁Hijriah	-10.6956
▁Nasution	-10.6956
▁kekeringan	-10.6956
▁mengendalikan	-10.6956
▁volume	-10.6956
▁mengunggah	-10.6956
▁resolusi	-10.6956
▁Harupat	-10.6956
▁Senjata	-10.6956
▁Rizal	-10.6956
▁menyinggung	-10.6958
▁Tessa	-10.6962
▁Bos	-10.6965
▁berisiko	-10.6968
▁XI	-10.6968
▁20:0	-10.6969
enanggapi	-10.6979
rumah	-10.6982
▁Gas	-10.6984
▁Inf	-10.6986
picu	-10.7008
▁Listyo	-10.701
▁Vladimir	-10.701
▁disediakan	-10.701
▁stakeholder	-10.701
▁rezim	-10.701
▁petahana	-10.701
▁segmen	-10.701
▁sertifikat	-10.7012
angkal	-10.7013
▁Show	-10.7015
▁bersatu	-10.7017
▁Aji	-10.7028
▁Citra	-10.7028
▁Duel	-10.7036
▁Momen	-10.704
10/	-10.7048
▁43	-10.7049
BU	-10.7054
▁CO	-10.7056
▁padahal	-10.706
▁Sepak	-10.7061
▁400	-10.7062
:10	-10.7063
▁direncanakan	-10.7063
▁eksklusif	-10.7063
▁maskapai	-10.7063
▁Mungkin	-10.7064
▁muslim	-10.7064
▁peternak	-10.7064
▁Kunjungan	-10.7064
▁tunai	-10.7064
▁diakses	-10.7064
jemput	-10.7064
▁dedikasi	-10.7065
▁Ngawi	-10.7066
UGM	-10.7075
bilang	-10.7085
kop	-10.7092
amping	-10.7092
▁asuhnya	-10.7094
▁berharga	-10.7096
▁Timor	-10.7101
▁Marga	-10.7102
▁KKB	-10.7105
▁Foundation	-10.7118
▁Kehadiran	-10.7118
▁bergulir	-10.7118
▁menggagalkan	-10.7118
▁penyeberangan	-10.7118
▁Swedia	-10.7118
▁bertahap	-10.7118
▁umrah	-10.7118
▁finis	-10.7118
▁wajar	-10.7122
▁lomba	-10.7122
▁65	-10.7124
▁bayar	-10.7129
▁merata	-10.7133
▁BAZNAS	-10.7134
▁Johan	-10.7135
org	-10.7137
teriak	-10.7144
▁Deklarasi	-10.7172
▁Pembunuhan	-10.7172
▁Peningkatan	-10.7172
▁armada	-10.7172
▁dideportasi	-10.7172
▁miskin	-10.7172
▁warisan	-10.7172
▁mendarat	-10.7172
▁Jaringan	-10.7172
▁berkurang	-10.7172
▁Susanto	-10.7172
▁muka	-10.7175
▁Mabes	-10.7181
▁UN	-10.7181
▁Terbaik	-10.7183
▁seputar	-10.7188
5%	-10.7192
▁produktif	-10.7194
▁tembak	-10.7209
▁Pengawasan	-10.7211
▁Pena	-10.7217
yana	-10.7219
▁Management	-10.7227
▁Pertandingan	-10.7227
▁dibintangi	-10.7227
▁konsolidasi	-10.7227
▁mengoptimal	-10.7227
▁milenial	-10.7227
▁penyanyi	-10.7227
▁Unggul	-10.7227
▁dipenuhi	-10.7227
▁menyeluruh	-10.7227
▁terpidana	-10.7227
▁alumni	-10.7227
▁APBD	-10.7227
▁GOR	-10.7227
▁Jaga	-10.723
▁pop	-10.7232
pusat	-10.7232
▁Kendal	-10.7234
▁kiper	-10.7238
▁Lang	-10.7241
▁dilanda	-10.7245
ebaran	-10.7247
▁Asal	-10.7247
▁Amran	-10.7247
PANRB	-10.7258
▁Ribu	-10.7263
▁Syam	-10.7273
▁Pengelolaan	-10.7274
turut	-10.7276
▁kelapa	-10.728
▁Georgia	-10.7281
▁membongkar	-10.7281
▁terintegrasi	-10.7281
▁Sumedang	-10.7281
▁menindak	-10.7281
▁tertarik	-10.7282
▁ditinggal	-10.7282
▁zaman	-10.7282
dikbud	-10.7284
▁apel	-10.7293
▁ideal	-10.7294
EL	-10.7294
▁58	-10.7299
Bawaslu	-10.7312
▁Akhir	-10.7321
▁kliennya	-10.7324
▁dimintai	-10.7332
▁Bantu	-10.7333
▁Subang	-10.7334
▁Saksi	-10.7335
▁Federal	-10.7337
▁bersejarah	-10.7337
▁ditandatangani	-10.7337
▁ditingkatkan	-10.7337
▁membersihkan	-10.7337
▁membakar	-10.7337
▁musuh	-10.7337
▁Naik	-10.7337
▁Cinta	-10.7338
▁Tentara	-10.7338
▁pemegang	-10.7338
TV	-10.7342
▁17:0	-10.7345
▁perut	-10.7355
jelas	-10.7377
▁taman	-10.7388
▁beragama	-10.739
▁Akademi	-10.7392
▁diberlakukan	-10.7392
▁keturunan	-10.7392
▁memasukkan	-10.7392
▁mematuhi	-10.7392
▁membahayakan	-10.7392
▁Pesawat	-10.7392
▁pengendali	-10.7392
▁Cilegon	-10.7392
▁tersendiri	-10.7392
▁teknik	-10.7392
▁tuntas	-10.7392
▁rantai	-10.7392
▁Ingin	-10.7393
▁dipasang	-10.7393
▁Mayor	-10.7393
kena	-10.7394
▁masif	-10.7395
▁menggal	-10.7395
nggang	-10.7396
▁Libur	-10.7399
▁Kulon	-10.7399
▁Week	-10.74
▁mendaftarkan	-10.7402
duga	-10.7404
▁lupa	-10.7407
enuhan	-10.7415
▁Judi	-10.7422
▁Eva	-10.743
▁Prima	-10.7431
▁Inilah	-10.7447
▁Sejahtera	-10.7448
▁keberangkatan	-10.7448
▁melampaui	-10.7448
▁Kreatif	-10.7448
▁General	-10.7448
▁penulis	-10.7448
▁virus	-10.7448
▁mengusut	-10.7448
▁mengurus	-10.7448
Tipikor	-10.7449
▁Chief	-10.7449
▁Press	-10.7449
▁mirip	-10.7449
▁Hartono	-10.745
▁gender	-10.745
▁moral	-10.7451
▁kurun	-10.7456
▁Net	-10.746
▁XXI	-10.7466
▁Sudan	-10.747
▁intervensi	-10.7475
▁DC	-10.7479
▁jumpa	-10.748
BH	-10.7499
▁kepemilikan	-10.7504
▁keperluan	-10.7504
▁bernomor	-10.7504
▁menghapus	-10.7504
▁maritim	-10.7504
▁Irish	-10.7504
▁Segera	-10.7505
▁Jorge	-10.7505
▁Aliansi	-10.7505
▁dibahas	-10.7505
▁sepatu	-10.7507
▁butir	-10.7508
▁narasi	-10.7508
▁Rahman	-10.7523
▁Gempa	-10.7523
▁Wang	-10.7535
▁Komitmen	-10.7561
▁memberantas	-10.7561
▁mendadak	-10.7561
▁menonton	-10.7561
▁Pemilik	-10.7561
▁Kejadian	-10.7561
▁Penyebab	-10.7561
▁South	-10.7562
▁Analis	-10.7562
▁Sukses	-10.7562
▁Atlet	-10.7565
▁Stefano	-10.7567
▁Suci	-10.758
RANG	-10.7581
▁menyebarkan	-10.7617
▁Barcelona	-10.7618
▁Communication	-10.7618
▁Swiss	-10.7618
▁Yudhoyono	-10.7618
▁memengaruhi	-10.7618
▁satelit	-10.7618
▁bjb	-10.7618
toleransi	-10.7618
▁Parawansa	-10.7618
▁bergengsi	-10.7618
▁diunggah	-10.7618
▁tumbang	-10.7619
▁hebat	-10.7621
▁Deli	-10.7622
▁ekor	-10.7626
ceng	-10.7627
▁berujung	-10.7632
▁(1)	-10.7632
▁seks	-10.7634
▁mengacu	-10.7636
▁Pati	-10.765
▁mil	-10.7652
ANTARA	-10.7652
embel	-10.7653
daerah	-10.7672
▁Fauzi	-10.7674
▁Birokrasi	-10.7675
▁Energy	-10.7675
▁Florida	-10.7675
▁almarhum	-10.7675
▁berpengaruh	-10.7675
▁Social	-10.7675
▁Meningkat	-10.7675
▁Cimahi	-10.7675
▁absen	-10.7675
▁balasan	-10.7675
▁roket	-10.7675
▁dicetak	-10.7675
▁diproduksi	-10.7675
Pemeriksaan	-10.7676
▁Hindu	-10.7678
guncang	-10.7679
▁turis	-10.7682
▁Konser	-10.7683
▁Muara	-10.7684
▁Persen	-10.7692
▁Kemnaker	-10.7696
▁DKPP	-10.7713
potong	-10.7725
▁Amir	-10.7726
stian	-10.7732
sebut	-10.7732
▁dihadirkan	-10.7732
▁Meninggal	-10.7732
▁transfer	-10.7732
▁Peduli	-10.7732
▁Idris	-10.7732
▁horor	-10.7732
▁Bukit	-10.7736
/4/2024).	-10.7738
▁Ajak	-10.7747
▁sih	-10.7747
▁2011	-10.7748
ness	-10.7755
▁Ditjen	-10.7757
▁Seksi	-10.7764
kasus	-10.7768
juluk	-10.7781
▁menyumbang	-10.7787
▁Anung	-10.7787
▁Liverpool	-10.779
▁Manchester	-10.779
▁rekening	-10.779
▁membalas	-10.779
▁asisten	-10.779
▁kebanyakan	-10.779
▁Nahdl	-10.779
▁Putera	-10.7791
▁dihentikan	-10.7792
▁Pengusaha	-10.7792
▁Officer	-10.7793
▁bareng	-10.7793
▁Robert	-10.7795
▁47	-10.7796
▁Resor	-10.7799
▁Kuala	-10.7804
▁Fuji	-10.7814
▁baju	-10.7818
atau	-10.7824
▁16:1	-10.7827
▁Makin	-10.7829
▁papan	-10.7831
lakoni	-10.7836
▁krusial	-10.7848
▁Miftah	-10.7848
▁Ismail	-10.7848
▁Yahya	-10.7848
▁kecuali	-10.7848
irkuit	-10.7848
▁Wuling	-10.7848
▁walau	-10.7848
▁Unair	-10.7848
▁dibunuh	-10.7848
▁seberat	-10.7849
▁Ahok	-10.7849
▁terjun	-10.7851
▁Melihat	-10.7852
▁rilis	-10.7852
▁Pilih	-10.7861
▁matang	-10.7886
migrasi	-10.7897
▁Fasilitas	-10.7907
▁erupsi	-10.7907
▁jenderal	-10.7907
▁perceraian	-10.7907
▁Brimob	-10.7907
▁rumput	-10.7907
▁ulama	-10.7907
▁varian	-10.7907
▁pengaturan	-10.7907
▁bilateral	-10.7907
▁Kristen	-10.791
▁pembangkit	-10.7915
▁berhati	-10.7922
Komnas	-10.7927
▁PSIM	-10.7928
▁CI	-10.7939
▁ukuran	-10.7943
untuk	-10.7951
Tim	-10.7955
▁Strategis	-10.7956
▁Hendra	-10.7962
▁minim	-10.7965
ksplorasi	-10.7965
▁hambatan	-10.7965
▁kepastian	-10.7966
▁PUPR	-10.7966
▁relatif	-10.7966
▁perwira	-10.7966
▁rambut	-10.7966
▁pengaduan	-10.7966
▁mengeluh	-10.7966
▁lansia	-10.7966
▁patut	-10.7966
konfirmasi	-10.7967
▁Sol	-10.7968
▁belasan	-10.7969
▁Giri	-10.797
persembah	-10.7972
▁88	-10.7987
▁Cawapres	-10.7994
gaji	-10.8011
gol	-10.8017
amin	-10.8017
kasih	-10.8018
_	-10.8025
afiliasi	-10.8025
▁Sudirman	-10.8025
▁figur	-10.8025
▁negosiasi	-10.8025
▁raksasa	-10.8025
▁Yahudi	-10.8025
▁Insiden	-10.8025
▁Teknis	-10.8025
▁Power	-10.8025
▁menyarankan	-10.8025
▁Tokyo	-10.8025
▁murid	-10.8025
▁Pameran	-10.8025
▁Wahid	-10.8025
▁berdarah	-10.8025
▁syukur	-10.8025
▁ditolak	-10.8025
▁1.200	-10.8027
▁Musk	-10.8031
▁Mitra	-10.8041
▁Massa	-10.8048
▁Lask	-10.805
row	-10.8062
▁memakan	-10.8063
▁Nurul	-10.8068
▁mandi	-10.8084
é	-10.8084
▁Kinerja	-10.8084
▁Portugal	-10.8084
▁Suzuki	-10.8084
▁Uzbekistan	-10.8084
▁pengangguran	-10.8084
▁menyenangkan	-10.8084
▁pengolahan	-10.8084
▁kerabat	-10.8084
▁telur	-10.8085
▁Kusuma	-10.8085
▁pergantian	-10.8086
▁lemak	-10.8088
calon	-10.8088
▁alokasi	-10.8089
▁Ikat	-10.8093
Al	-10.8094
utamakan	-10.8095
▁berhubungan	-10.8097
▁liter	-10.8099
▁rincian	-10.8121
Hamas	-10.8124
▁Bola	-10.8125
▁16:0	-10.8134
▁Penelitian	-10.8141
▁Pencegahan	-10.8144
▁menghubungkan	-10.8144
▁pencoblosan	-10.8144
▁melebihi	-10.8144
▁BYD	-10.8144
▁perhitungan	-10.8144
▁Barito	-10.8144
▁nikel	-10.8144
▁Haiti	-10.8145
▁Atta	-10.815
▁17:1	-10.8154
▁$1	-10.8157
▁Turun	-10.8158
▁saji	-10.8166
▁PPK	-10.8178
▁Roma	-10.818
▁politikus	-10.8186
▁seruan	-10.8189
▁Fit	-10.8203
Insyaallah	-10.8204
▁Mohammed	-10.8204
▁School	-10.8204
▁favorit	-10.8204
▁memaksimalkan	-10.8204
▁menindaklanjuti	-10.8204
▁mencabut	-10.8204
▁tertinggal	-10.8204
▁Luhut	-10.8204
▁berhadapan	-10.8205
▁kertas	-10.8205
▁andalan	-10.8205
▁dihasilkan	-10.8206
▁menyapa	-10.8209
maksud	-10.821
▁matahari	-10.8211
3.000	-10.8212
tono	-10.8214
▁20:4	-10.8216
julukan	-10.8224
▁pemda	-10.8224
▁menyala	-10.8226
▁Mengena	-10.8227
▁Politikus	-10.8233
▁20:3	-10.8234
▁indikasi	-10.8238
bab	-10.824
▁Novi	-10.8243
▁17:3	-10.8247
▁menyesuaikan	-10.8265
▁perundingan	-10.8265
▁tercipta	-10.8265
▁Pelajar	-10.8265
▁Faisal	-10.8265
▁Fikri	-10.8265
▁mesti	-10.8266
▁pesat	-10.8267
▁terorisme	-10.8272
▁Bunga	-10.8272
▁terheboh	-10.8275
▁GIIAS	-10.8294
struktur	-10.8307
▁semata	-10.8311
zer	-10.8313
▁pemadam	-10.8314
▁tega	-10.8316
IKA	-10.8322
▁Mapolres	-10.8326
▁Diponegoro	-10.8326
▁Pemberdayaan	-10.8326
▁memperpanjang	-10.8326
▁Asuransi	-10.8326
▁bercerita	-10.8326
▁terbunuh	-10.8326
▁gejala	-10.8326
▁penguasa	-10.8326
▁Food	-10.8326
▁musisi	-10.8326
▁perencanaan	-10.8326
▁Hilir	-10.8326
ukuhkan	-10.8326
▁Fauziyah	-10.8326
▁memecah	-10.833
▁Tegas	-10.834
hemat	-10.8376
▁menyangka	-10.8378
suara	-10.8387
kselerasi	-10.8387
▁Pendayagunaan	-10.8387
▁Sulaiman	-10.8387
▁gembira	-10.8387
▁ketenagakerjaan	-10.8387
▁manufaktur	-10.8387
▁mengharapkan	-10.8387
▁SPBU	-10.8387
▁mulut	-10.8387
▁Komisioner	-10.8387
▁menghargai	-10.8387
▁balapan	-10.8388
▁2023-2024	-10.8389
▁Ambon	-10.8391
▁Sosialisasi	-10.8391
▁Sangat	-10.8406
▁07:1	-10.8407
usaha	-10.8407
▁Max	-10.8408
▁Lam	-10.8412
▁berturut	-10.8412
▁KTP	-10.8427
NU	-10.8429
▁menyama	-10.8433
▁Seru	-10.8434
partai	-10.8437
▁09:0	-10.8442
▁Pamekasan	-10.8449
▁Research	-10.8449
▁Telegram	-10.8449
▁hoaks	-10.8449
▁terjebak	-10.8449
▁komandan	-10.8449
▁Cikarang	-10.8449
▁Nataru	-10.8449
ekraf	-10.8449
▁stres	-10.8449
▁BSD	-10.8449
▁keluhan	-10.8449
▁Mahendra	-10.845
▁ditempatkan	-10.845
Manajer	-10.8451
▁Potensi	-10.8451
▁gelap	-10.8452
▁Azwar	-10.8452
▁Kebangkitan	-10.8452
▁Kalsel	-10.8453
▁lemah	-10.8453
▁Mengapa	-10.8454
▁disahkan	-10.8454
▁warganet	-10.8467
▁Mudik	-10.8469
▁Baca	-10.8478
▁berikan	-10.8478
▁Sales	-10.8479
▁Aris	-10.8479
▁Asy	-10.8497
tanggung	-10.8501
▁padi	-10.8505
dasarkan	-10.8508
▁Aparat	-10.8509
elebgram	-10.8511
▁Kehutanan	-10.8511
▁disiplin	-10.8511
▁ketinggian	-10.8511
▁Migran	-10.8511
▁Boeing	-10.8511
▁PPDB	-10.8511
▁America	-10.8511
▁Komando	-10.8511
▁dicapai	-10.8511
▁Dasco	-10.8511
▁pompa	-10.8512
▁Febri	-10.8513
▁lebar	-10.8516
▁jelang	-10.8517
▁Kasub	-10.8518
Kom	-10.8521
▁Laku	-10.8522
embangun	-10.8526
▁Jong	-10.8545
Pemkot	-10.8556
wenang	-10.8565
▁Kekerasan	-10.8574
▁Sekretariat	-10.8574
▁kegagalan	-10.8574
▁terjatuh	-10.8574
▁wacana	-10.8574
▁Pastikan	-10.8574
▁Asisten	-10.8574
▁buron	-10.8579
▁BNI	-10.861
▁medan	-10.8614
▁08:3	-10.8617
heboh	-10.8626
▁Zulkifli	-10.8636
▁kebudayaan	-10.8636
▁perkebunan	-10.8636
▁menghantam	-10.8636
▁Beirut	-10.8637
▁Situasi	-10.8637
▁verifikasi	-10.8637
▁jujur	-10.8637
▁Racing	-10.8637
▁bermotor	-10.8637
▁tipis	-10.8637
abad	-10.8637
▁Perkasa	-10.8637
▁memandang	-10.8637
▁Rahayu	-10.8637
▁Malut	-10.8637
▁penyebaran	-10.8637
▁Dardak	-10.864
ekspresi	-10.864
sungguh	-10.8641
▁bersubsidi	-10.8648
▁Memang	-10.8653
▁2.000	-10.8671
▁profesi	-10.8675
100	-10.8685
▁Susu	-10.8686
▁pengelola	-10.8687
▁Astra	-10.8688
ilih	-10.8693
▁kain	-10.8694
rikatan	-10.8696
▁Thariq	-10.87
▁bersinergi	-10.87
▁perundungan	-10.87
▁Teknik	-10.87
▁kucing	-10.87
▁Alumni	-10.87
▁RIDO	-10.87
▁BNN	-10.87
▁single	-10.87
PKS	-10.87
▁kebaikan	-10.8701
▁Sampah	-10.8702
▁penyandang	-10.8702
▁zat	-10.8703
▁20:5	-10.8709
▁Ulang	-10.8713
▁Kevin	-10.8715
▁16:2	-10.8719
▁debut	-10.8719
▁Koperasi	-10.872
▁08:0	-10.8723
▁tahan	-10.8728
▁20:2	-10.8732
▁Sehat	-10.8748
▁Kemayoran	-10.8763
▁amunisi	-10.8763
▁berinovasi	-10.8763
▁menuntaskan	-10.8763
▁Pelanggan	-10.8763
▁penasihat	-10.8763
▁Finance	-10.8763
▁Sepanjang	-10.8763
▁bertanding	-10.8764
▁menyusun	-10.8764
▁memadai	-10.8764
.2024	-10.8764
▁Mineral	-10.8764
▁Seoul	-10.8764
truk	-10.8765
▁sinyal	-10.8766
▁Sampang	-10.8767
▁One	-10.8771
▁Milik	-10.8773
▁ganti	-10.8774
▁Solusi	-10.8776
▁56	-10.8777
▁mengangkut	-10.8779
The	-10.8794
▁Hati	-10.8798
▁Asri	-10.8802
▁Harun	-10.8808
skala	-10.8809
▁13:3	-10.8813
▁kayak	-10.8814
▁diajak	-10.8815
4.000	-10.8816
▁Adam	-10.8818
▁ujung	-10.882
road	-10.8822
▁serat	-10.8827
▁konstruksi	-10.8828
▁memberlakukan	-10.8828
▁Darmawan	-10.8828
▁Toyota	-10.8828
perebutkan	-10.8828
▁Peluang	-10.8828
▁Menaker	-10.8828
▁13:0	-10.8828
putar	-10.8829
▁bibit	-10.883
▁manajer	-10.8832
▁11:0	-10.8832
OJK	-10.8835
▁bawang	-10.8835
▁Ansor	-10.8835
▁19:3	-10.884
▁Minum	-10.8842
▁Garda	-10.8843
▁seniman	-10.8843
ving	-10.8844
wen	-10.8852
▁Kepri	-10.8853
▁live	-10.8856
▁Senat	-10.8868
BPBD	-10.8877
SDN	-10.8883
▁bara	-10.8888
▁Hall	-10.889
▁keyakinan	-10.8892
▁Hyundai	-10.8892
▁Kakanwil	-10.8892
▁Penyuluhan	-10.8892
▁aborsi	-10.8892
▁berkomentar	-10.8892
▁dikarenakan	-10.8892
▁memikirkan	-10.8892
▁rekrutmen	-10.8892
▁melantik	-10.8892
▁diinginkan	-10.8892
▁tertib	-10.8892
▁gelandang	-10.8893
▁stok	-10.8903
durasi	-10.8905
▁Salim	-10.8916
▁98	-10.8917
implementasikan	-10.8923
▁Musik	-10.8927
▁tenda	-10.8928
TPN	-10.8948
▁menyis	-10.8952
▁Edy	-10.8953
TJSL	-10.8957
▁Nugraha	-10.8957
▁cerdas	-10.8957
▁permukiman	-10.8957
▁kuartal	-10.8957
▁Kendati	-10.8957
▁peluru	-10.8957
▁tawaran	-10.8957
▁drama	-10.8958
▁dibagikan	-10.8961
▁Mulyani	-10.8961
▁Land	-10.8969
▁posko	-10.897
▁biji	-10.8971
apolrestabes	-10.8974
tuju	-10.8977
bersih	-10.8979
▁Angga	-10.8985
▁Maria	-10.8987
▁Buah	-10.9015
kamp	-10.9017
▁menua	-10.9021
▁Banyumas	-10.9022
▁Facebook	-10.9022
▁Kehormatan	-10.9022
▁Narkotika	-10.9022
▁Sarwendah	-10.9022
▁trauma	-10.9022
▁sempurna	-10.9022
▁pemerasan	-10.9022
▁Jepara	-10.9022
▁lambat	-10.9023
▁Assad	-10.9023
▁citra	-10.9023
▁agak	-10.9023
WI	-10.9024
▁rekam	-10.9027
▁sewaktu	-10.9032
▁19:4	-10.9035
▁melangkah	-10.9037
YA	-10.9045
▁bangkit	-10.9045
▁akar	-10.9053
▁Kartu	-10.906
▁Demi	-10.9063
Dia	-10.908
▁Intan	-10.9086
▁Pengendali	-10.9088
▁netizen	-10.9088
▁Belitung	-10.9088
▁Wisnu	-10.9088
▁Keadilan	-10.9088
▁Ducati	-10.9088
▁Tampil	-10.9088
BKPSDM	-10.9088
▁keberatan	-10.9088
▁pengedar	-10.9088
▁wasit	-10.9088
▁Bukti	-10.9088
▁ormas	-10.9089
▁KIM	-10.9089
▁goreng	-10.9089
▁Kalteng	-10.9089
▁Euro	-10.9089
▁ciri	-10.909
▁ilmuwan	-10.9093
▁Area	-10.9096
▁Titi	-10.9098
▁JPU	-10.9103
▁Daop	-10.9105
▁bela	-10.9127
▁legal	-10.9134
▁2,5	-10.9137
enuju	-10.914
UMKM	-10.9141
nyelundup	-10.9154
▁anjing	-10.9154
▁gratifikasi	-10.9154
▁kehormatan	-10.9154
▁pencabulan	-10.9154
▁Ilegal	-10.9154
▁Ryder	-10.9154
▁penghasilan	-10.9154
PKB	-10.9155
Armuji	-10.9155
▁miras	-10.9158
▁Bebas	-10.916
▁Menjadi	-10.9161
imbau	-10.9164
ebutan	-10.9179
▁tergantung	-10.9182
▁Human	-10.9188
▁menyerah	-10.9191
▁Jon	-10.9192
▁Tua	-10.9194
emungutan	-10.922
sejahtera	-10.9221
▁FIFA	-10.9221
▁indekos	-10.9221
▁kreativitas	-10.9221
▁rehabilitasi	-10.9221
▁sahabat	-10.9221
▁Proliga	-10.9221
▁menjerat	-10.9221
▁sumpah	-10.9221
▁SYL	-10.9221
▁penataan	-10.9221
▁1998	-10.9221
▁memukul	-10.9221
▁Akmal	-10.9221
▁zakat	-10.9221
▁Izin	-10.9222
▁04:5	-10.9224
▁inisial	-10.9225
Qur	-10.9225
▁Zakat	-10.9228
▁makna	-10.9232
▁pilar	-10.9237
▁intimidasi	-10.9244
▁Antar	-10.9245
Hari	-10.9246
▁Peter	-10.9254
masalah	-10.9266
graf	-10.9275
Bangsa	-10.9276
Selain	-10.9281
▁21:3	-10.9283
film	-10.9283
▁21:1	-10.9285
▁Banyuasin	-10.9288
▁FOTO	-10.9288
▁antisipasi	-10.9288
▁dikuasai	-10.9288
▁disalurkan	-10.9288
▁kebiasaan	-10.9288
▁terobosan	-10.9288
▁Pahlawan	-10.9288
▁Syarif	-10.9288
▁betapa	-10.9288
▁Suasana	-10.9288
▁Sosok	-10.9288
▁lapisan	-10.9288
▁terjaga	-10.9288
▁semoga	-10.9288
▁Kurniawan	-10.9292
▁mendominasi	-10.9296
▁1-0	-10.9304
▁bea	-10.9304
▁ternama	-10.9318
▁Vice	-10.9319
sangat	-10.9345
▁penjual	-10.9347
enetapan	-10.9355
▁Aplikasi	-10.9356
▁PEKANBARU	-10.9356
▁Waspada	-10.9356
▁kelurahan	-10.9356
▁operator	-10.9356
▁Saputra	-10.9356
▁menghambat	-10.9356
▁2024-2025	-10.9356
▁Jombang	-10.9356
▁Sulteng	-10.9356
▁mengabaikan	-10.9356
▁penempatan	-10.9356
▁penentu	-10.9356
▁penyerahan	-10.9358
▁kuning	-10.936
▁antusiasme	-10.9362
Rancangan	-10.9362
▁siaga	-10.9363
▁Kelapa	-10.9365
▁16:4	-10.9365
▁reaksi	-10.9366
▁Merak	-10.9369
mitra	-10.9378
▁1.3	-10.9379
▁marak	-10.938
▁Korp	-10.9386
elandang	-10.9391
▁14:0	-10.94
wilayah	-10.9412
▁membacakan	-10.9418
▁Academy	-10.9424
▁Michael	-10.9424
▁istilah	-10.9424
▁pemanggilan	-10.9424
▁Chandra	-10.9424
▁distrik	-10.9424
▁punggung	-10.9424
▁terdengar	-10.9424
▁Dampak	-10.9424
▁AFC	-10.9424
▁sengit	-10.9424
▁Supriyani	-10.9424
puing	-10.9429
ganggu	-10.9432
▁Halim	-10.9434
▁terganggu	-10.9435
▁21:0	-10.9439
▁Doha	-10.9442
burg	-10.9459
▁2009	-10.9472
▁Tah	-10.9475
Alhamdulillah	-10.9481
mungkin	-10.9481
hidup	-10.9482
▁Puskesmas	-10.9492
▁eskalasi	-10.9492
▁kebersamaan	-10.9492
▁kriteria	-10.9492
▁lonjakan	-10.9492
▁membiarkan	-10.9492
▁minoritas	-10.9492
▁Upacara	-10.9492
▁pemakaman	-10.9492
▁bersedia	-10.9492
▁terdepan	-10.9492
▁Club	-10.9492
▁penanaman	-10.9492
▁DBD	-10.9492
▁persegi	-10.9492
▁seminar	-10.9493
PHPU	-10.9496
▁via	-10.9504
▁13:1	-10.9522
▁batik	-10.9524
raj	-10.953
▁19:1	-10.9531
▁Bule	-10.9541
China	-10.9551
▁Kimberly	-10.9561
▁Virgoun	-10.9561
▁Gerimis	-10.9561
▁Penerima	-10.9561
▁menyentuh	-10.9561
▁pengeroyokan	-10.9561
▁Aaliyah	-10.9561
▁Generasi	-10.9561
▁Hendri	-10.9561
▁perkiraan	-10.9561
▁pembagian	-10.9561
▁KPPS	-10.9561
▁lembar	-10.9561
▁sebaliknya	-10.9561
▁kebenaran	-10.9564
▁dibeli	-10.9569
▁tarik	-10.9569
▁17:4	-10.957
▁15:3	-10.9578
▁21:2	-10.9579
▁jaga	-10.9581
▁Yoon	-10.9582
▁bermasalah	-10.9584
▁Timah	-10.9596
▁mini	-10.9612
▁sebulan	-10.9612
ANGE	-10.9629
▁Dokumen	-10.9629
kewarganegaraan	-10.9631
▁Apresiasi	-10.9631
▁Jurnalis	-10.9631
▁beraktivitas	-10.9631
▁birokrasi	-10.9631
▁kompetitif	-10.9631
▁konkret	-10.9631
▁mewaspadai	-10.9631
▁Atikoh	-10.9631
▁Justin	-10.9631
▁Formasi	-10.9631
▁Paloh	-10.9631
▁diskon	-10.9634
▁beraksi	-10.9636
▁Rusli	-10.9636
▁Bulog	-10.9637
▁formal	-10.9637
▁13:4	-10.9639
▁Gagal	-10.9644
▁Progo	-10.9656
PBB	-10.9656
senjata	-10.9671
▁Paula	-10.9674
▁Kamar	-10.968
▁Lion	-10.9688
sekitar	-10.9691
posisi	-10.9696
obat	-10.9696
kisar	-10.9698
▁Anthony	-10.9701
▁Merespons	-10.9701
▁mengkhawatirkan	-10.9701
▁Kamboja	-10.9701
▁berinvestasi	-10.9701
▁progres	-10.9701
▁Mayjen	-10.9701
▁Prakiraan	-10.9701
▁Yandri	-10.9701
▁sudut	-10.9701
▁bertarung	-10.9701
▁kenyataan	-10.9701
▁sejatinya	-10.9701
▁nekat	-10.9701
▁mengalir	-10.9701
▁dikerahkan	-10.9702
▁cuti	-10.9702
▁agresif	-10.9704
▁Afif	-10.9705
▁BSI	-10.9711
▁1945	-10.9713
▁Hilang	-10.9713
gub	-10.972
▁bandang	-10.9721
▁mengganti	-10.9724
▁bulu	-10.9725
▁Hery	-10.9726
Purn	-10.9737
TKP	-10.9738
agung	-10.974
ukir	-10.9751
▁perundang	-10.9755
JO	-10.9764
▁pembeli	-10.9768
▁Berkelanjutan	-10.9771
▁Brazil	-10.9771
▁Indramayu	-10.9771
▁Project	-10.9771
▁Statistik	-10.9771
▁istimewa	-10.9771
▁diusulkan	-10.9771
▁Kenaikan	-10.9771
▁Tannur	-10.9771
▁Space	-10.9771
▁16:3	-10.9772
▁jagung	-10.9772
▁atap	-10.9772
jeng	-10.9773
resenter	-10.9774
Mapolda	-10.9776
▁minimum	-10.9777
▁Mangku	-10.9782
▁ekstra	-10.9783
▁Cahyo	-10.9785
▁makam	-10.9788
▁Panda	-10.9798
▁2012	-10.9802
entil	-10.9805
Pemkab	-10.9833
korupsi	-10.9833
▁optimis	-10.9841
▁Associate	-10.9842
▁hidangan	-10.9842
▁istirahat	-10.9842
▁lingkup	-10.9842
▁memerangi	-10.9842
▁Tunggal	-10.9842
▁Magelang	-10.9842
▁Ridho	-10.9842
▁Pabrik	-10.9842
rekomendasikan	-10.9843
▁Badai	-10.9843
▁sumur	-10.9844
▁memprediksi	-10.9846
▁bangun	-10.9847
▁Eddy	-10.9852
▁berdasar	-10.9867
▁1.1	-10.9887
▁akademik	-10.9895
Israel	-10.9905
Kota	-10.9907
▁Hamid	-10.9908
▁mengomentari	-10.9913
▁pemerkosaan	-10.9913
▁Rizki	-10.9913
▁Fokus	-10.9913
▁mendiang	-10.9914
▁sawah	-10.9919
▁info	-10.9936
ontoh	-10.995
▁Berawan	-10.9952
▁Leste	-10.996
▁seolah	-10.9963
▁Gha	-10.9975
▁Syaikhu	-10.9985
▁menginspirasi	-10.9985
▁Gadjah	-10.9985
▁disesuaikan	-10.9985
▁Diskusi	-10.9985
▁Hafid	-10.9985
▁Vadel	-10.9985
▁Keliling	-10.9985
▁pulih	-10.9985
kreasi	-10.9988
▁08:4	-10.9988
▁harta	-10.9989
▁balap	-10.9989
▁19:5	-10.9995
▁realisasi	-10.9995
▁WHO	-10.9996
▁akal	-11.0009
jenis	-11.0012
▁Inti	-11.0015
▁10:3	-11.0021
▁Hutan	-11.0041
▁Wamen	-11.0048
▁vaksin	-11.0053
▁Hospital	-11.0058
▁Richard	-11.0058
▁indeks	-11.0058
▁koordinat	-11.0058
▁mempermudah	-11.0058
▁meringankan	-11.0058
▁pencernaan	-11.0058
▁penggelapan	-11.0058
▁pengunduran	-11.0058
▁penyesuaian	-11.0058
▁bertentangan	-11.0058
▁dibatalkan	-11.0058
▁Indragiri	-11.0058
▁Terpadu	-11.0058
▁Alexander	-11.0058
▁landasan	-11.0058
▁Latihan	-11.0058
▁mengutuk	-11.0058
▁Andra	-11.0058
▁pantas	-11.0058
▁Petani	-11.0058
▁keindahan	-11.0059
▁Multi	-11.0059
▁burung	-11.0061
▁18:5	-11.0062
▁bijak	-11.0063
▁menunda	-11.0066
▁Aset	-11.0069
ngkir	-11.0079
▁11:3	-11.0099
▁West	-11.01
▁Asasi	-11.012
▁Haniyeh	-11.0131
▁Muhamad	-11.0131
▁dangdut	-11.0131
▁memberdayakan	-11.0131
▁menghalangi	-11.0131
▁pencucian	-11.0131
▁tunjangan	-11.0131
▁Cilacap	-11.0131
▁Sandiaga	-11.0131
▁Shopee	-11.0131
▁Saiful	-11.0131
▁Purwo	-11.0131
▁keliling	-11.0131
▁satwa	-11.0131
▁ketimbang	-11.0131
▁terkesan	-11.0131
▁iklan	-11.0132
▁Macron	-11.0132
▁Cepat	-11.0135
▁Lantas	-11.0136
BPN	-11.0138
▁kompak	-11.0142
▁2030	-11.0152
andra	-11.0161
▁19:2	-11.0163
▁10:1	-11.0172
▁berbuat	-11.0175
▁Maha	-11.0177
▁Obat	-11.018
Semoga	-11.0198
▁Informatika	-11.0204
▁Secretary	-11.0204
▁mitigasi	-11.0204
▁penyimpanan	-11.0204
▁terpopuler	-11.0204
▁Kredit	-11.0204
▁protein	-11.0204
▁VNL	-11.0204
▁Sulsel	-11.0204
▁2024/25	-11.0205
▁ESG	-11.0205
▁Yudha	-11.0207
▁Mira	-11.0208
▁Irawan	-11.0209
▁tank	-11.0212
▁Tokoh	-11.0213
▁Fitur	-11.0213
▁17:2	-11.0224
susul	-11.0226
engemudi	-11.0226
▁match	-11.0229
▁membaik	-11.023
▁Candi	-11.0231
▁Tahap	-11.0237
▁terbit	-11.024
abulkan	-11.0248
▁15:0	-11.0256
▁Cugurra	-11.0278
▁Kedutaan	-11.0278
▁Sukoharjo	-11.0278
▁berpeluang	-11.0278
▁diturunkan	-11.0278
▁kepresidenan	-11.0278
▁perseroan	-11.0278
▁terkejut	-11.0278
▁rancangan	-11.0278
▁Pesisir	-11.0278
▁pemasaran	-11.0278
▁peradilan	-11.0278
▁Undip	-11.0278
▁Pengamanan	-11.0278
▁pintar	-11.0278
▁Janji	-11.0279
▁tunggu	-11.0279
▁Pemadam	-11.0279
▁SIG	-11.028
tugas	-11.0281
▁Massaid	-11.0282
▁dagang	-11.0283
▁remisi	-11.0284
esok	-11.0285
▁14:4	-11.0288
▁Senator	-11.029
▁Gading	-11.0292
▁10:4	-11.0293
▁tipe	-11.0296
▁Farid	-11.0297
▁Kementan	-11.0298
▁Pesta	-11.0304
▁melapor	-11.0311
▁Juga	-11.032
▁Graha	-11.0324
harjo	-11.0325
▁Pura	-11.0331
▁melonjak	-11.0353
▁mengadopsi	-11.0353
▁pengajuan	-11.0353
▁popularitas	-11.0353
▁ambulans	-11.0353
▁Siregar	-11.0353
▁meledak	-11.0353
▁terseret	-11.0353
▁Tengku	-11.0353
▁Cerita	-11.0353
▁Retno	-11.0353
▁Mikro	-11.0353
▁berpesan	-11.0354
▁pendamping	-11.0354
▁pemusnahan	-11.0355
▁Minyak	-11.0356
▁Sorong	-11.0356
▁topik	-11.036
▁tebal	-11.0361
▁21:4	-11.0362
▁Kecil	-11.0367
▁lelang	-11.0367
▁pipa	-11.039
▁saran	-11.0394
wakil	-11.0427
▁Aktivis	-11.0428
▁Intelijen	-11.0428
▁konsekuensi	-11.0428
▁percakapan	-11.0428
▁santunan	-11.0428
▁streaming	-11.0428
▁syariah	-11.0428
▁beradaptasi	-11.0428
▁Kadek	-11.0429
▁Sektor	-11.0429
▁dinamis	-11.0429
▁dipaksa	-11.0429
▁berlalu	-11.043
▁kontrol	-11.0431
▁paspor	-11.0432
▁13:5	-11.0433
▁menyesal	-11.0435
▁18:4	-11.0438
hap	-11.0438
▁Lihat	-11.0439
▁seminggu	-11.0445
▁2023/2024	-11.0449
▁12:3	-11.045
▁Bakar	-11.0467
▁Info	-11.0476
▁10:0	-11.048
incar	-11.0481
Caleg	-11.0497
Tentu	-11.05
▁Insurance	-11.0504
▁Pelanggaran	-11.0504
▁menyayangkan	-11.0504
▁peninjauan	-11.0504
▁Djoko	-11.0504
▁Pacitan	-11.0504
▁elite	-11.0504
▁Pelita	-11.0504
▁tendangan	-11.0505
▁ternak	-11.0505
▁22:0	-11.0506
DIY	-11.0506
Beliau	-11.0506
▁15:1	-11.0506
▁rampung	-11.0507
▁16:5	-11.0509
▁Menpora	-11.0511
▁09:3	-11.0516
▁perluasan	-11.0519
▁Palu	-11.0528
▁Aulia	-11.053
▁simbolis	-11.0533
▁karang	-11.0534
YAR	-11.0535
▁Kebun	-11.0543
▁race	-11.0552
▁13.00	-11.0558
agaman	-11.0563
Semua	-11.0577
Sudah	-11.0577
▁emosi	-11.058
▁apartemen	-11.058
▁berpengalaman	-11.058
▁pertarungan	-11.058
▁pemasangan	-11.058
▁center	-11.058
▁vokal	-11.058
▁pemindahan	-11.058
▁Setidaknya	-11.0581
▁diaspora	-11.0581
▁Penanganan	-11.0581
▁perkotaan	-11.0581
▁Senior	-11.0581
▁Capai	-11.0581
▁potongan	-11.0581
▁mengevaluasi	-11.0586
rizal	-11.0589
aksamana	-11.0593
▁Paling	-11.06
▁Pakai	-11.0612
▁Tip	-11.0619
prediksi	-11.0631
kesempatan	-11.0655
Korban	-11.0655
Namun	-11.0655
Informasi	-11.0656
▁Respons	-11.0657
▁Revolusi	-11.0657
▁peresmian	-11.0657
▁tangguh	-11.0657
▁tsunami	-11.0657
▁fiskal	-11.0657
▁Philip	-11.0657
▁menanyakan	-11.0657
▁wawasan	-11.0657
▁disiarkan	-11.0657
▁pendataan	-11.0657
▁SUV	-11.0657
▁hibah	-11.0657
▁tanam	-11.0659
▁STY	-11.066
▁polusi	-11.0661
▁Selat	-11.0664
▁07:2	-11.0665
▁Posisi	-11.0665
WNA	-11.0667
▁Peluncur	-11.0667
▁teratas	-11.0672
▁James	-11.0672
▁Bangli	-11.0676
▁15:2	-11.0683
▁Mulya	-11.0686
▁marah	-11.0698
▁Laos	-11.0703
▁20:1	-11.0719
▁diplomat	-11.0731
keluarga	-11.0733
▁Damaskus	-11.0735
▁Taufik	-11.0735
▁Tionghoa	-11.0735
▁antioksidan	-11.0735
▁infeksi	-11.0735
▁memulihkan	-11.0735
▁perizinan	-11.0735
▁klinik	-11.0735
▁website	-11.0735
▁mendoakan	-11.0735
▁bunyi	-11.0735
▁diproses	-11.0735
▁berjarak	-11.0735
▁hormat	-11.0735
▁diperkuat	-11.0735
▁Konvensi	-11.0735
▁Ferdinan	-11.0735
▁kebersihan	-11.0735
▁Bakti	-11.0735
▁diputuskan	-11.0736
▁Livin	-11.0738
lempar	-11.0746
▁induk	-11.0747
▁Siaga	-11.0751
▁transparansi	-11.0761
▁Sempat	-11.0763
▁Musim	-11.0781
▁2004	-11.079
ompet	-11.0809
Teco	-11.0812
▁Karangasem	-11.0813
▁Pertumbuhan	-11.0813
▁ginjal	-11.0813
▁inspirasi	-11.0813
▁memblokir	-11.0813
▁selengkapnya	-11.0813
▁sutradara	-11.0813
▁Kremlin	-11.0813
▁spanduk	-11.0813
▁Sahabat	-11.0813
▁Hijau	-11.0813
▁basket	-11.0813
▁memindahkan	-11.0813
▁imigran	-11.0813
▁ditargetkan	-11.0813
▁imbauan	-11.0814
▁Kasih	-11.0815
▁seringkali	-11.0817
▁pencari	-11.082
▁rupa	-11.0822
▁Tuban	-11.0829
▁biar	-11.0866
▁Ganda	-11.0886
Bakauheni	-11.0892
▁Kepresidenan	-11.0892
▁Pilwalkot	-11.0892
▁berdiskusi	-11.0892
▁formulir	-11.0892
▁menyukseskan	-11.0892
▁skenario	-11.0892
▁Oknum	-11.0892
▁Pyongyang	-11.0892
▁pondok	-11.0892
▁bursa	-11.0892
▁mengerikan	-11.0892
▁Usman	-11.0892
▁simpatisan	-11.0893
▁setinggi	-11.0895
NDO	-11.0895
▁Blue	-11.0898
▁pembuat	-11.0899
eriksa	-11.09
▁yatim	-11.0903
▁Laks	-11.0903
▁Berita	-11.0912
▁Tambang	-11.092
▁Buku	-11.0935
▁Babak	-11.0943
▁Paser	-11.0957
▁dukung	-11.0969
▁dikembalikan	-11.0971
▁kesetaraan	-11.0971
▁pengeluaran	-11.0971
▁polemik	-11.0971
▁prasarana	-11.0971
▁Temanggung	-11.0971
▁tertangkap	-11.0971
▁COVID	-11.0971
▁Karanganyar	-11.0971
▁dilalui	-11.0971
▁Lamongan	-11.0971
▁Kematian	-11.0971
▁berlambang	-11.0971
▁Masters	-11.0971
▁pengisian	-11.0971
▁relasi	-11.0971
▁Jaminan	-11.0972
▁Tirta	-11.0972
▁Cerah	-11.0984
▁Tunjung	-11.0984
▁pembela	-11.099
▁Bilang	-11.0992
▁Menteng	-11.0998
▁pasir	-11.1003
▁Jane	-11.1006
▁Fadil	-11.1009
▁14:1	-11.1017
wijaya	-11.1017
ncong	-11.1032
media	-11.1039
▁organ	-11.1048
▁Electric	-11.1051
▁Sebegini	-11.1051
▁System	-11.1051
▁Terpilih	-11.1051
▁kebahagiaan	-11.1051
▁kontainer	-11.1051
▁Febian	-11.1051
▁Pengadaan	-11.1051
▁balistik	-11.1051
▁Remaja	-11.1051
▁Firman	-11.1051
▁meredakan	-11.1051
narkoba	-11.1052
▁permanen	-11.1052
▁Penyerang	-11.1053
-2024	-11.1055
▁susah	-11.1055
▁Peneliti	-11.1055
▁Chery	-11.1056
olusi	-11.1057
▁2013	-11.1064
▁Bersih	-11.1074
▁Fahmi	-11.1077
▁Azhar	-11.1079
▁liga	-11.1081
▁Sekali	-11.1085
tegas	-11.1089
▁balon	-11.1095
▁10.00	-11.1101
rianto	-11.1106
▁menanti	-11.1108
▁Economic	-11.1132
▁Kemerdekaan	-11.1132
▁Simalungun	-11.1132
▁Transportasi	-11.1132
▁dipindahkan	-11.1132
▁penggerebekan	-11.1132
▁Denmark	-11.1132
▁kerusuhan	-11.1132
▁Magetan	-11.1132
▁Pencarian	-11.1132
▁Ilham	-11.1132
▁Museum	-11.1132
▁pungutan	-11.1132
▁Efek	-11.1132
▁bocah	-11.1132
▁terlarang	-11.1132
▁membuang	-11.1132
▁Games	-11.1132
▁sepekan	-11.1133
▁ideologi	-11.1133
▁Sorot	-11.1138
▁bedah	-11.1139
▁Terakhir	-11.114
▁Dosen	-11.1144
▁Enggak	-11.1145
berniat	-11.1156
▁terlepas	-11.1162
▁11:1	-11.1164
▁memutus	-11.1166
▁madu	-11.1168
▁kru	-11.1173
ART	-11.1194
daftar	-11.1196
▁Technology	-11.1213
▁genosida	-11.1213
▁handphone	-11.1213
▁ketidakpastian	-11.1213
▁konsultasi	-11.1213
▁rekayasa	-11.1213
▁dinikmati	-11.1213
▁ketakutan	-11.1213
▁herbal	-11.1213
▁kepuasan	-11.1213
▁menyeberang	-11.1213
▁Penjelasan	-11.1213
▁jajak	-11.1213
▁didakwa	-11.1213
▁ditugaskan	-11.1214
▁UKM	-11.1214
▁Irfan	-11.1214
kedua	-11.1215
▁Kisah	-11.1219
▁Tiket	-11.122
▁juri	-11.1222
▁ekstasi	-11.1222
▁Kupang	-11.1223
kredit	-11.1227
▁Keempat	-11.1227
stianto	-11.1227
cawe	-11.1243
▁raih	-11.1247
▁Paket	-11.1267
distribusi	-11.1294
▁Kerobokan	-11.1295
▁Manokwari	-11.1295
▁Sudaryono	-11.1295
▁memadamkan	-11.1295
▁mengendarai	-11.1295
▁narasumber	-11.1295
▁gugur	-11.1295
▁sensitif	-11.1295
▁wewenang	-11.1295
▁Apabila	-11.1295
▁Pribadi	-11.1295
▁Texas	-11.1295
▁Slamet	-11.1295
▁Korsel	-11.1295
▁pesaing	-11.1295
▁Ditemukan	-11.1295
▁disepakati	-11.1295
▁Smart	-11.1295
▁ITB	-11.1295
▁jahe	-11.1296
▁dinding	-11.1299
▁07:4	-11.1299
▁merekrut	-11.1299
▁17:5	-11.13
tokoh	-11.13
▁akurat	-11.1302
▁08:2	-11.1303
▁pengajar	-11.1305
▁15:4	-11.1307
▁bakat	-11.1316
▁Harry	-11.132
TKD	-11.132
▁inklusi	-11.1373
▁Spesial	-11.1378
eksploitasi	-11.1378
▁Karnavian	-11.1378
▁demokratis	-11.1378
▁hybrid	-11.1378
▁kebanggaan	-11.1378
▁mencontohkan	-11.1378
▁pembakaran	-11.1378
▁pengabdian	-11.1378
▁Angeles	-11.1378
▁pejuang	-11.1378
▁Darurat	-11.1378
▁terburuk	-11.1378
▁Kampar	-11.1378
▁Sunda	-11.1379
▁Viral	-11.1382
ecinta	-11.1384
▁Lolly	-11.1385
▁15:5	-11.1386
▁Posko	-11.1395
▁batal	-11.1399
angkaian	-11.1402
▁Dadang	-11.141
▁tepi	-11.141
▁terbentuk	-11.1413
▁Pasca	-11.1425
▁instruksi	-11.1428
▁hip	-11.1447
▁Badjideh	-11.1461
▁Polhukam	-11.1461
▁Verhoeven	-11.1461
▁diperbolehkan	-11.1461
▁drastis	-11.1461
▁keprihatinan	-11.1461
▁penyiksaan	-11.1461
▁Emirat	-11.1461
▁memburuk	-11.1461
▁Indosat	-11.1461
▁murni	-11.1461
▁komedi	-11.1461
▁cucu	-11.1461
▁dengar	-11.1461
▁ditulis	-11.1461
▁PHK	-11.1461
▁1.2	-11.1463
▁koperasi	-11.1465
Pelaku	-11.1466
▁Ekspor	-11.1466
▁mendeka	-11.1473
BKN	-11.1487
▁GBK	-11.149
▁Biru	-11.1495
ordinasi	-11.1542
▁instrumen	-11.1545
▁dimasukkan	-11.1545
▁intelektual	-11.1545
▁memprioritaskan	-11.1545
▁mendeteksi	-11.1545
preneur	-11.1545
▁kreator	-11.1545
▁Holding	-11.1545
▁Luncur	-11.1545
▁Mahalini	-11.1545
▁diizinkan	-11.1545
▁penghuni	-11.1545
▁terendam	-11.1545
▁kemarau	-11.1545
▁Semeru	-11.1545
▁pendaki	-11.1545
▁diwawancarai	-11.1545
▁perselisihan	-11.1547
▁Antony	-11.155
▁gitu	-11.155
▁Kodam	-11.1553
paslon	-11.1557
▁pemohon	-11.1559
▁Wahyudi	-11.156
agendakan	-11.158
▁menarget	-11.1583
▁Toko	-11.1592
minggu	-11.161
▁14:3	-11.1625
▁Gunungkidul	-11.163
▁Infrastruktur	-11.163
▁SELAT	-11.163
▁keseimbangan	-11.163
▁keterbatasan	-11.163
▁menyajikan	-11.163
▁pelestarian	-11.163
▁pemberhentian	-11.163
▁petunjuk	-11.163
▁Perwira	-11.163
▁Austin	-11.163
▁Penulis	-11.163
▁tekstil	-11.163
▁kejutan	-11.163
▁urine	-11.163
▁Dirut	-11.1631
▁berkala	-11.1631
▁fungsional	-11.1631
▁Hendy	-11.1634
GIAN	-11.1637
▁Pengelola	-11.1641
▁Farhan	-11.1641
▁series	-11.1644
▁Kadis	-11.1652
▁ragu	-11.1656
cermin	-11.1656
▁Kopi	-11.1661
▁18:3	-11.1694
2.000	-11.1695
2%	-11.1712
▁Jessica	-11.1715
▁Machmudin	-11.1715
▁Mbappe	-11.1715
▁Pekalongan	-11.1715
▁Walaupun	-11.1715
▁kebocoran	-11.1715
▁penampungan	-11.1715
▁profesor	-11.1715
▁Indeks	-11.1715
▁pahlawan	-11.1715
▁Bhakti	-11.1715
▁Terbuka	-11.1715
▁Miller	-11.1715
▁pemotongan	-11.1715
▁Oscar	-11.1715
▁Manado	-11.1715
house	-11.1715
▁memuat	-11.1716
▁Nunuk	-11.1716
▁seumur	-11.1716
▁duel	-11.1716
▁sedih	-11.1716
▁ditunda	-11.1717
▁Kemenpora	-11.1717
▁Teddy	-11.1721
pemerintah	-11.1721
wisata	-11.1721
ografi	-11.1727
▁memohon	-11.1736
BPS	-11.1739
▁13:2	-11.1739
▁menghitung	-11.1744
larikan	-11.1768
artisipasi	-11.1798
▁memeri	-11.1798
▁Anugerah	-11.1801
▁Ibrahim	-11.1801
▁Konflik	-11.1801
▁Pennsylvania	-11.1801
▁keimigrasian	-11.1801
▁perhelatan	-11.1801
▁spiritual	-11.1801
▁terpenuhi	-11.1801
▁Charles	-11.1801
▁Merauke	-11.1801
▁gemilang	-11.1801
▁merencanakan	-11.1801
▁opini	-11.1801
▁Kesejahteraan	-11.1801
▁Centre	-11.1801
Cawagub	-11.1801
▁Plaza	-11.1801
▁siswi	-11.1802
▁Penjara	-11.1802
▁radikal	-11.1802
▁Tantangan	-11.1803
▁Protes	-11.1807
masyarakat	-11.1808
&	-11.1808
▁jangkauan	-11.1809
kekuatan	-11.1809
▁Lokal	-11.1809
FGD	-11.1814
▁bantu	-11.1822
emikian	-11.1833
▁laju	-11.1842
masok	-11.1866
▁memenang	-11.1871
▁Satya	-11.1887
▁Soesatyo	-11.1888
▁diselamatkan	-11.1888
▁kedudukan	-11.1888
▁laboratorium	-11.1888
▁menggabungkan	-11.1888
▁penghormatan	-11.1888
▁puskesmas	-11.1888
▁sprint	-11.1888
▁penawaran	-11.1888
▁terpenting	-11.1888
▁diperhatikan	-11.1888
▁cagub	-11.1888
▁Iklim	-11.1888
▁Agustina	-11.1888
▁demam	-11.1888
▁peraih	-11.1889
▁kesaksian	-11.1889
nuansa	-11.1889
▁kelamin	-11.1889
▁disaksikan	-11.189
▁Kemenko	-11.1893
▁Henry	-11.1894
▁Seribu	-11.1894
▁sibuk	-11.1894
▁pelaksana	-11.1894
▁LRT	-11.1897
stabil	-11.1897
▁Rangku	-11.1899
▁Simon	-11.191
▁terhitung	-11.1923
▁Palm	-11.1931
▁Christ	-11.1935
DPR	-11.1939
Ipda	-11.1948
▁(5/6)	-11.1976
▁geopolitik	-11.1976
▁kejaksaan	-11.1976
▁mencoblos	-11.1976
▁menggarisbawahi	-11.1976
▁menyikapi	-11.1976
▁keahlian	-11.1976
▁Ponpes	-11.1976
▁Wartawan	-11.1976
▁Belanja	-11.1976
▁Kadiv	-11.1976
▁Sebaliknya	-11.1976
▁vital	-11.1976
▁pembicara	-11.1988
▁Modal	-11.1989
▁07:3	-11.199
bacok	-11.1993
▁cari	-11.2011
▁kembang	-11.202
6.000	-11.2027
▁19.00	-11.2029
▁Tambah	-11.2057
Ditreskrimsus	-11.2064
langsungkan	-11.2064
▁Pengumuman	-11.2064
▁keracunan	-11.2064
▁solidaritas	-11.2064
▁swasembada	-11.2064
▁Berbicara	-11.2064
▁Kedatangan	-11.2064
erkumpulan	-11.2065
▁Gugatan	-11.2065
▁ranking	-11.2065
commerce	-11.2065
▁mengemuka	-11.2065
▁Sejarah	-11.2065
▁terekam	-11.2065
▁Mardani	-11.2065
▁Pangkalan	-11.2065
▁IBL	-11.2065
▁Dumai	-11.2065
8.000	-11.2065
encinta	-11.2065
▁prima	-11.2066
▁Kenapa	-11.2066
kaitkan	-11.2066
▁Simpang	-11.2067
▁milisi	-11.2067
▁komisi	-11.2068
▁Kunci	-11.207
Dinkes	-11.2074
▁Hadap	-11.2082
▁Hewan	-11.2085
etty	-11.2086
erdapat	-11.2088
▁Lebat	-11.209
▁Inara	-11.209
perbarui	-11.2098
▁Gande	-11.21
SUGBK	-11.2154
▁Bedagai	-11.2154
▁Conference	-11.2154
▁Michigan	-11.2154
▁Moerdijat	-11.2154
▁Pegunungan	-11.2154
▁dilindungi	-11.2154
▁ditindaklanjuti	-11.2154
▁irigasi	-11.2154
▁legislator	-11.2154
▁mancanegara	-11.2154
▁meramaikan	-11.2154
▁perbincangan	-11.2154
▁Tercatat	-11.2154
▁terhubung	-11.2154
▁Sedikit	-11.2154
▁mengupayakan	-11.2154
▁menyalahkan	-11.2154
▁Ricky	-11.2154
field	-11.2154
▁Leader	-11.2154
▁loyal	-11.2154
▁Kajian	-11.2154
▁menjunjung	-11.2154
▁Transformasi	-11.2156
▁Munster	-11.2157
▁organik	-11.2158
▁Deddy	-11.216
▁Beragam	-11.216
bisnis	-11.2164
▁Pintu	-11.2168
ujung	-11.217
▁Enam	-11.2171
▁jari	-11.2171
▁Bareng	-11.2172
▁Santri	-11.2174
bekali	-11.2188
▁09:1	-11.2193
▁Chang	-11.2208
▁Steve	-11.221
enny	-11.2218
▁Indikator	-11.2244
▁Jinping	-11.2244
▁eksternal	-11.2244
▁semestinya	-11.2244
▁terlaksana	-11.2244
▁Konsumen	-11.2244
▁klasik	-11.2244
▁sampel	-11.2244
▁database	-11.2244
▁bercerai	-11.2244
▁gerbang	-11.2244
▁mengabdi	-11.2244
▁barisan	-11.2244
▁sebetulnya	-11.2244
▁dijerat	-11.2244
▁hilirisasi	-11.2245
▁Pantau	-11.2245
▁Penajam	-11.2245
▁asap	-11.2246
▁Royal	-11.2246
▁gerai	-11.2249
▁melayang	-11.2251
▁Kompas	-11.2252
▁pengangkut	-11.2253
▁membesar	-11.2255
▁SMAN	-11.2264
▁22:2	-11.2264
4%	-11.2266
▁14:2	-11.227
AMAN	-11.2284
▁12:0	-11.2294
7.000	-11.2328
▁Kehakiman	-11.2335
▁Lahadalia	-11.2335
▁Penangkapan	-11.2335
▁Pontianak	-11.2335
▁ilmiah	-11.2335
▁penyusunan	-11.2335
▁Harimurti	-11.2335
▁Profesor	-11.2335
▁kepatuhan	-11.2335
▁Serbia	-11.2335
▁Perencanaan	-11.2335
▁kaget	-11.2335
▁Youth	-11.2335
▁rugi	-11.2336
▁bandar	-11.2337
▁Komjen	-11.2339
▁Patrol	-11.234
▁melempar	-11.2341
▁21:5	-11.2342
golong	-11.235
▁klien	-11.2355
Foto	-11.2366
▁08:1	-11.2392
munculkan	-11.2413
3%	-11.2415
▁langka	-11.2418
▁Jose	-11.2425
▁Banjarmasin	-11.2427
▁Executive	-11.2427
▁Panjaitan	-11.2427
▁Terdakwa	-11.2427
▁defisit	-11.2427
▁museum	-11.2427
▁pengejaran	-11.2427
▁penundaan	-11.2427
▁terinspirasi	-11.2427
▁visual	-11.2427
▁indikator	-11.2427
▁monitoring	-11.2427
▁mafia	-11.2427
▁Pengungsi	-11.2427
▁penarikan	-11.2427
KDRT	-11.2429
▁pengusung	-11.2429
▁Operasional	-11.2429
▁Usai	-11.2429
▁Tamara	-11.243
▁pelari	-11.2435
▁Candra	-11.2435
▁kunjung	-11.2435
proyek	-11.2439
sekutu	-11.244
▁Panjang	-11.2441
▁Tanggung	-11.2442
▁mendasar	-11.2465
Urusan	-11.2491
rintis	-11.2501
▁Azerbaijan	-11.2519
▁Francis	-11.2519
▁Platform	-11.2519
▁diwujudkan	-11.2519
▁kemandirian	-11.2519
▁korporasi	-11.2519
▁mangrove	-11.2519
▁melestarikan	-11.2519
▁memproses	-11.2519
▁pelayaran	-11.2519
▁penertiban	-11.2519
▁pertukaran	-11.2519
▁virtual	-11.2519
▁dibacakan	-11.2519
▁striker	-11.2519
▁Mardiono	-11.2519
▁pembuangan	-11.2519
▁Sjafri	-11.2519
▁Prestasi	-11.2519
▁melatih	-11.2519
▁Bakrie	-11.2519
▁huruf	-11.2519
▁pemberitaan	-11.2519
▁Nigeria	-11.2519
▁jenjang	-11.2519
▁rektor	-11.2519
▁Rokok	-11.2519
MEDAN	-11.2519
▁Sayangnya	-11.252
▁3-0	-11.252
▁BALI	-11.2521
▁dibuktikan	-11.2521
▁06:5	-11.2521
▁Penega	-11.2521
▁Sakti	-11.2521
▁Propam	-11.2521
▁09:5	-11.2522
▁gajah	-11.2524
▁Terhadap	-11.2526
▁galon	-11.2527
▁1999	-11.2532
▁menjauh	-11.2534
▁pendidik	-11.2536
PDIP	-11.2541
▁Markas	-11.2543
▁Mandalika	-11.2613
▁Twitter	-11.2613
▁berinteraksi	-11.2613
▁berkompetisi	-11.2613
▁ilustrasi	-11.2613
▁kebencian	-11.2613
▁mahasiswi	-11.2613
▁penyisihan	-11.2613
▁Rafael	-11.2613
▁berprestasi	-11.2613
▁Lumpur	-11.2613
▁ekspansi	-11.2613
▁semester	-11.2613
▁Pelindo	-11.2613
▁terjalin	-11.2613
▁Akses	-11.2613
▁Perjalanan	-11.2613
▁Ilir	-11.2613
▁Zona	-11.2615
▁count	-11.262
▁Gajah	-11.2621
▁kiai	-11.2629
▁1-1	-11.2654
▁06:0	-11.2668
agita	-11.2689
▁Idzes	-11.2707
▁Kesepakatan	-11.2707
▁Kompetisi	-11.2707
▁Perindustrian	-11.2707
▁Singapore	-11.2707
▁alkohol	-11.2707
▁identifikasi	-11.2707
▁kepabeanan	-11.2707
▁prihatin	-11.2707
▁penyintas	-11.2707
▁cabai	-11.2707
▁Airlines	-11.2707
▁BUMD	-11.2707
▁pendalaman	-11.2707
▁Petrus	-11.2707
▁integrasi	-11.2707
Rudenim	-11.2707
▁bonus	-11.2707
▁Pangeran	-11.2708
▁utuh	-11.2708
▁Abbas	-11.2709
▁mandat	-11.271
▁pemasok	-11.271
▁serikat	-11.2713
▁14:5	-11.2714
▁Lulus	-11.2717
▁personal	-11.2719
Palestina	-11.2722
Polda	-11.2722
▁patah	-11.2724
▁18:2	-11.2735
▁pacar	-11.2751
atchday	-11.2772
rekrut	-11.2798
▁Cibinong	-11.2802
▁Mukomuko	-11.2802
▁kalender	-11.2802
▁kolesterol	-11.2802
▁Rakernas	-11.2802
▁predikat	-11.2802
▁Lippo	-11.2802
▁Agustiar	-11.2802
▁Perikanan	-11.2802
▁audit	-11.2802
▁karet	-11.2815
▁kacang	-11.2816
prinsip	-11.2818
Pemprov	-11.2818
Jabar	-11.2818
▁Albert	-11.2821
Sebagai	-11.2825
ajatan	-11.2826
▁10:2	-11.2851
eluncur	-11.2853
imbas	-11.2877
▁Miss	-11.2897
▁Jenazah	-11.2898
▁Penerbangan	-11.2898
▁Zulhas	-11.2898
▁demonstran	-11.2898
▁pemberitahuan	-11.2898
▁pemeliharaan	-11.2898
▁system	-11.2898
▁konvoi	-11.2898
▁Baznas	-11.2898
▁seragam	-11.2898
▁mempererat	-11.2898
▁terendah	-11.2898
▁Ternate	-11.2898
▁menemani	-11.2898
▁persentase	-11.2899
renovasi	-11.2899
▁ultra	-11.2899
▁Sulut	-11.2899
▁Luluk	-11.2904
▁Usul	-11.2905
▁vaksinasi	-11.2905
lasifikasi	-11.2907
▁12:5	-11.2908
▁doktor	-11.2909
▁akademi	-11.291
▁Hanif	-11.2914
dokumen	-11.2915
Amerika	-11.2915
▁pengembang	-11.293
indir	-11.2932
▁intens	-11.2945
▁(28/8)	-11.2995
▁Bobotoh	-11.2995
▁Keselamatan	-11.2995
▁berbelanja	-11.2995
▁fashion	-11.2995
▁kesenjangan	-11.2995
▁menegakkan	-11.2995
▁mengedukasi	-11.2995
▁pencemaran	-11.2995
▁training	-11.2995
▁syuting	-11.2995
▁Brigadi	-11.2995
▁donasi	-11.2995
▁perikanan	-11.2995
▁Event	-11.2996
▁Persiapan	-11.2996
▁kumpul	-11.2996
▁tekad	-11.2996
▁Madya	-11.2996
▁emosional	-11.2996
▁Purwanto	-11.2996
▁08.00	-11.2996
▁Erwin	-11.2997
▁Kemenhub	-11.2997
▁menyera	-11.2999
▁1.0	-11.3007
▁11:4	-11.3009
▁gue	-11.3033
▁politis	-11.3045
▁00:0	-11.3048
nyandera	-11.3074
ustainable	-11.3093
▁(23/1)	-11.3093
▁Elektabilitas	-11.3093
▁Grobogan	-11.3093
▁Public	-11.3093
▁Tasikmalaya	-11.3093
▁konservatif	-11.3093
▁percobaan	-11.3093
▁perlengkapan	-11.3093
▁perlintasan	-11.3093
▁Pemberian	-11.3093
▁Zakiyah	-11.3093
▁forensik	-11.3093
▁Austria	-11.3093
▁berbincang	-11.3093
▁otonom	-11.3093
▁Jemaah	-11.3093
▁adegan	-11.3093
▁berlibur	-11.3093
▁BWF	-11.3094
▁rumit	-11.3094
▁Gatot	-11.3094
▁berbuka	-11.3094
▁Bawang	-11.3094
▁langit	-11.3094
▁2019-2024	-11.3094
▁08:5	-11.3095
▁ditanam	-11.3097
▁Sambut	-11.3099
▁Sanksi	-11.3101
▁teori	-11.3102
▁ajaran	-11.3103
board	-11.3106
Kemudian	-11.3112
IUP	-11.3119
▁Chris	-11.3135
▁Product	-11.317
▁show	-11.3191
kamtibmas	-11.3192
tanggungjawaban	-11.3192
▁Kedokteran	-11.3192
▁Pandeglang	-11.3192
▁diplomasi	-11.3192
▁Kronologi	-11.3192
▁komposisi	-11.3192
▁Pengacara	-11.3192
▁pengesahan	-11.3192
▁Fadjar	-11.3192
▁Muzani	-11.3192
▁Victor	-11.3192
▁persepsi	-11.3192
▁terlapor	-11.3193
▁Taspen	-11.3193
▁perlakuan	-11.3193
▁dipecat	-11.3193
▁menandakan	-11.3193
▁Klaim	-11.3193
▁kerangka	-11.3193
▁cetak	-11.3193
▁keanggotaan	-11.3193
▁golongan	-11.3193
kaltim	-11.3194
▁Transaksi	-11.3196
▁optimalisasi	-11.3196
▁Aturan	-11.3199
▁ditarik	-11.3199
▁ranah	-11.3201
▁tolong	-11.3204
▁debit	-11.3207
▁12:4	-11.3209
URA	-11.323
▁petingg	-11.3234
▁Gegar	-11.3236
nyerbu	-11.3241
invest	-11.3249
hubungan	-11.3281
▁runtuh	-11.3292
▁(18/1)	-11.3292
▁Kekayaan	-11.3292
▁Supratman	-11.3292
▁entertainment	-11.3292
▁pegunungan	-11.3292
▁spesies	-11.3292
Kemenkominfo	-11.3292
▁Central	-11.3292
▁Francesco	-11.3292
▁audiens	-11.3292
▁Clinic	-11.3292
▁komputer	-11.3292
▁Bangkok	-11.3292
▁binatang	-11.3292
▁peledak	-11.3292
▁Perairan	-11.3292
▁Damkar	-11.3292
▁Digelar	-11.3293
▁Yunani	-11.3293
▁Sonny	-11.3293
▁benih	-11.3293
▁menaruh	-11.3293
▁Watch	-11.3293
▁Jabatan	-11.3293
▁kelebihan	-11.3293
proyeksikan	-11.3293
revolusi	-11.3294
▁05:5	-11.3294
▁Ingat	-11.3298
▁Golden	-11.3298
▁Jules	-11.3301
ACL	-11.3308
sampai	-11.3314
Selama	-11.3323
▁02:0	-11.3337
▁(5/2)	-11.3393
▁Mengonsumsi	-11.3393
▁Periode	-11.3393
▁kehamilan	-11.3393
▁menggerakkan	-11.3393
▁penculikan	-11.3393
▁demografi	-11.3393
▁kambing	-11.3393
▁kedapatan	-11.3393
▁Khasiat	-11.3393
▁kelayakan	-11.3393
▁komando	-11.3393
▁imbalan	-11.3393
▁Tower	-11.3393
▁Ciamis	-11.3394
▁pegiat	-11.3394
▁Risiko	-11.3394
mission	-11.3395
▁dramatis	-11.3395
▁pedoman	-11.3396
▁Standar	-11.3396
▁07:5	-11.3397
▁23:5	-11.3399
ergantian	-11.3402
▁09:2	-11.3404
▁busana	-11.3405
Sumsel	-11.3415
Humas	-11.3416
▁$2	-11.342
▁Impor	-11.3435
omplotan	-11.3441
banjir	-11.3445
▁radio	-11.3461
BRIN	-11.3473
▁Pelantikan	-11.3495
▁Perdamaian	-11.3495
▁Soeharto	-11.3495
▁bertuliskan	-11.3495
▁dikhawatirkan	-11.3495
▁eksekusi	-11.3495
▁reguler	-11.3495
▁Ketahanan	-11.3495
▁Premier	-11.3495
▁mempertemukan	-11.3495
cawagub	-11.3496
Cikampek	-11.3496
▁ketujuh	-11.3496
▁kakek	-11.3496
▁terjual	-11.3496
▁mengalihkan	-11.3496
▁Klub	-11.3496
▁Jajaran	-11.3496
▁kisaran	-11.3496
▁Aqua	-11.3497
▁pertolongan	-11.3498
▁Azizah	-11.35
▁09:4	-11.35
▁selaras	-11.3501
▁Modus	-11.3503
fasilitas	-11.3518
▁Adrian	-11.3581
rakyat	-11.3586
▁6,5	-11.3589
▁(29/8)	-11.3599
▁Kolombia	-11.3599
▁Marselino	-11.3599
▁Qodari	-11.3599
▁diperpanjang	-11.3599
▁kekacauan	-11.3599
▁perjudian	-11.3599
▁terkendali	-11.3599
▁Belgia	-11.3599
▁kronis	-11.3599
▁Triliun	-11.3599
▁Berharap	-11.3599
▁Sinergi	-11.3599
▁fraksi	-11.3599
▁Perintah	-11.3599
▁MIND	-11.3599
▁Menarik	-11.3599
▁donor	-11.3599
▁menginap	-11.3599
▁jebol	-11.3599
▁mengurai	-11.3599
▁Hermansyah	-11.36
▁Christie	-11.36
▁memanas	-11.3601
▁Christian	-11.3602
mendistribusikan	-11.3602
▁Belajar	-11.3603
▁LBH	-11.3605
▁enak	-11.3605
▁10:5	-11.361
Jakarta	-11.3623
organisasi	-11.3623
politik	-11.3623
▁simpan	-11.3626
KKB	-11.3694
▁Jabodetabek	-11.3703
▁Paskibraka	-11.3703
▁Simanjuntak	-11.3703
▁Venezuela	-11.3703
▁advokat	-11.3703
▁efektivitas	-11.3703
▁telekomunikasi	-11.3703
▁venue	-11.3703
▁Encep	-11.3703
▁Nasdem	-11.3703
▁penggerak	-11.3703
▁runner	-11.3703
▁Rahasia	-11.3703
▁kolega	-11.3703
▁penjuru	-11.3703
▁menghidupkan	-11.3703
▁Ronny	-11.3703
▁kemarahan	-11.3703
▁Taruna	-11.3703
▁surya	-11.3703
habisan	-11.3703
▁rujuk	-11.3703
▁Labuan	-11.3703
▁diwakili	-11.3704
▁peretas	-11.3705
▁berlari	-11.3706
▁Lubuk	-11.3711
▁kapten	-11.3712
elantun	-11.372
NTT	-11.3728
▁pendaftar	-11.3737
eroyok	-11.3747
▁(21/1)	-11.3808
▁(25/1)	-11.3808
▁Rismaharini	-11.3808
▁kurikulum	-11.3808
▁elektoral	-11.3808
▁Kolonel	-11.3808
▁tenggara	-11.3808
▁Kualitas	-11.3808
▁Literasi	-11.3808
▁Penjaga	-11.3808
▁meringku	-11.3808
▁SUKA	-11.3808
▁skandal	-11.3808
▁kesatuan	-11.3809
▁kedalaman	-11.3809
▁Kendari	-11.3809
▁Kelima	-11.3809
▁Tahanan	-11.381
▁Tampak	-11.3811
Najib	-11.3811
▁teks	-11.3811
▁dimainkan	-11.3812
▁vila	-11.3813
▁Tinggal	-11.3815
▁usus	-11.3818
perlakukan	-11.382
▁pembuka	-11.3836
▁16.00	-11.3855
▁camp	-11.3892
▁kerajinan	-11.3914
▁(14/10)	-11.3914
▁(27/3)	-11.3914
▁Paripurna	-11.3914
▁Slavina	-11.3914
▁dikumpulkan	-11.3914
▁diresmikan	-11.3914
▁menyimpulkan	-11.3914
▁nirawak	-11.3914
▁pelindung	-11.3914
▁pemalsuan	-11.3914
▁pemecatan	-11.3914
▁persahabatan	-11.3914
▁workshop	-11.3914
▁Penasihat	-11.3914
▁Pendukung	-11.3914
▁Serpong	-11.3914
▁fiktif	-11.3914
▁lukisan	-11.3914
▁celana	-11.3914
▁Ditambah	-11.3914
▁benua	-11.3914
▁diperkenalkan	-11.3914
▁nyeri	-11.3914
▁selisih	-11.3914
▁sulung	-11.3915
▁terminal	-11.3915
▁LSM	-11.3915
▁Sawit	-11.3915
▁mengerti	-11.3915
▁angket	-11.3915
▁cantik	-11.3915
▁berdoa	-11.3915
▁dijelaskan	-11.3916
▁ATR	-11.3917
BUMI	-11.3917
UNI	-11.3935
Berdasar	-11.3938
Hasil	-11.3942
▁12:1	-11.395
▁Lingga	-11.3957
▁gencar	-11.3984
▁Wulan	-11.4004
▁agresi	-11.402
▁menonjol	-11.4022
▁(13/11)	-11.4022
▁(22/1)	-11.4022
▁(22/4)	-11.4022
▁(24/1)	-11.4022
▁(7/2)	-11.4022
▁Financial	-11.4022
▁bocor	-11.4022
▁jendela	-11.4022
▁kedokteran	-11.4022
▁kewaspadaan	-11.4022
▁naturalisasi	-11.4022
▁pembekalan	-11.4022
▁pengumpulan	-11.4022
▁Abraham	-11.4022
▁menghibur	-11.4022
▁Muncul	-11.4022
▁Terutama	-11.4022
▁pesepak	-11.4022
▁mengindikasikan	-11.4022
▁Inisiatif	-11.4022
▁memadati	-11.4022
▁aneh	-11.4022
▁impian	-11.4022
▁sebelas	-11.4022
▁konvensional	-11.4022
▁tukang	-11.4022
▁jahat	-11.4023
▁legendaris	-11.4023
▁Jonatan	-11.4024
Udayana	-11.4026
▁Frank	-11.4031
Program	-11.4051
pendidikan	-11.4051
▁Hanura	-11.4067
▁3-1	-11.4097
indikat	-11.4107
▁(23/10)	-11.4131
▁(30/1)	-11.4131
▁Bengkalis	-11.4131
▁Cipayung	-11.4131
▁Elektronik	-11.4131
▁Entertainment	-11.4131
▁Gallant	-11.4131
▁Kompetensi	-11.4131
▁aktris	-11.4131
▁diduduki	-11.4131
▁mumpuni	-11.4131
▁perdebatan	-11.4131
▁perspektif	-11.4131
▁wisuda	-11.4131
▁Future	-11.4131
▁Hasibuan	-11.4131
▁assist	-11.4131
▁Langsung	-11.4131
▁Wajib	-11.4131
▁BRICS	-11.4131
▁email	-11.4131
▁Maharani	-11.4131
▁postingan	-11.4131
▁membedakan	-11.4131
▁santai	-11.4131
▁kebetulan	-11.4131
▁nikah	-11.4131
▁Tesla	-11.4132
▁porsi	-11.4132
▁Supian	-11.4132
▁otot	-11.4133
▁anyar	-11.4135
▁Johnson	-11.4135
▁Dhani	-11.4136
▁Tradisi	-11.4142
▁Setyo	-11.4148
Kegiatan	-11.416
Kedua	-11.416
▁18:0	-11.4201
▁18:1	-11.4212
▁(15/4)	-11.424
▁(27/11)	-11.424
▁(30/10)	-11.424
▁(30/7)	-11.424
▁(5/1)	-11.424
▁(8/3)	-11.424
▁Bioskop	-11.424
▁Bondowoso	-11.424
▁Ricardo	-11.424
▁Yerusalem	-11.424
▁alhamdulillah	-11.424
▁bimbingan	-11.424
▁dermaga	-11.424
▁kedekatan	-11.424
▁kelestarian	-11.424
▁kesepahaman	-11.424
▁perincian	-11.424
▁podium	-11.424
▁Pembalap	-11.4241
▁dimakamkan	-11.4241
▁Penuntut	-11.4241
▁Tertinggi	-11.4241
▁Bergizi	-11.4241
▁Cholil	-11.4241
▁menyatukan	-11.4241
▁Inflasi	-11.4241
▁Maarten	-11.4241
▁Ketapang	-11.4241
▁Libya	-11.4241
▁pengikut	-11.4241
▁Menjaga	-11.4241
▁lawatan	-11.4241
▁profil	-11.4241
▁mengamati	-11.4244
▁roti	-11.4244
perketat	-11.4253
▁22:1	-11.4305
▁PIK	-11.434
▁Fernand	-11.4342
dongkrak	-11.4352
mengintegrasikan	-11.4352
▁(1/10)	-11.4352
▁(10/10)	-11.4352
▁(15/10)	-11.4352
▁Erdogan	-11.4352
▁Investment	-11.4352
▁Khalifa	-11.4352
▁Matthew	-11.4352
▁Summit	-11.4352
▁asusila	-11.4352
▁atmosfer	-11.4352
▁diberangkatkan	-11.4352
▁ditimbulkan	-11.4352
▁insyaallah	-11.4352
▁kekebalan	-11.4352
▁kepengurusan	-11.4352
▁mewajibkan	-11.4352
▁statistik	-11.4352
▁terpantau	-11.4352
▁Hubner	-11.4352
▁kerawanan	-11.4352
▁konservasi	-11.4352
▁merangkul	-11.4352
▁fosil	-11.4352
▁BNPB	-11.4352
▁berlindung	-11.4352
▁George	-11.4352
▁skill	-11.4352
▁Reporter	-11.4352
▁memberitahu	-11.4352
▁lunak	-11.4352
▁Palangka	-11.4352
▁dihapus	-11.4352
elebrasi	-11.4352
▁Brawijaya	-11.4352
▁dikerjakan	-11.4354
▁suaka	-11.4354
▁logam	-11.4355
▁Maritim	-11.4358
1.000	-11.4372
▁22:3	-11.4383
revitalisasi	-11.4464
▁(11/7)	-11.4464
▁Klasemen	-11.4464
▁autopsi	-11.4464
▁sarjana	-11.4464
▁sekretaris	-11.4464
▁sentuhan	-11.4464
▁Jusuf	-11.4464
▁Lembong	-11.4464
▁Yaqut	-11.4464
▁Inspir	-11.4464
▁Persikabo	-11.4464
▁Penerangan	-11.4464
▁Klinik	-11.4464
▁menyukai	-11.4464
▁penggawa	-11.4464
▁entitas	-11.4464
▁sesungguhnya	-11.4464
▁mengukur	-11.4464
▁mengulangi	-11.4464
▁pengasuh	-11.4465
▁cermat	-11.4465
▁nominasi	-11.4465
▁ombak	-11.4465
▁Makmur	-11.4466
▁ditempati	-11.4467
▁Yesus	-11.4468
down	-11.447
Pasifik	-11.4497
ampanyekan	-11.4513
▁(14/8)	-11.4578
▁(24/7)	-11.4578
▁Ariotedjo	-11.4578
▁Halmahera	-11.4578
▁Norwegia	-11.4578
▁Tokopedia	-11.4578
▁ditampilkan	-11.4578
▁kontestan	-11.4578
▁maksimum	-11.4578
▁membicarakan	-11.4578
▁memotivasi	-11.4578
▁pantauan	-11.4578
▁pemerataan	-11.4578
▁substansi	-11.4578
▁Beasiswa	-11.4578
▁Guterres	-11.4578
▁Mendagri	-11.4578
▁Penumpang	-11.4578
▁Prioritas	-11.4578
▁memerinci	-11.4578
▁dibiarkan	-11.4578
▁sentral	-11.4578
▁disimpan	-11.4578
▁mengesahkan	-11.4578
▁Bontang	-11.4578
▁penghentian	-11.4578
▁aroma	-11.4578
▁depresi	-11.4578
▁Travel	-11.4578
▁Black	-11.4578
▁jatah	-11.4578
integra	-11.4578
▁Kurdi	-11.4579
▁Transmigrasi	-11.4579
▁dikawal	-11.4579
▁Subdit	-11.458
▁Dinar	-11.458
▁Batakan	-11.4581
▁purna	-11.4581
Wakil	-11.4613
▁Aziz	-11.4691
▁Pembebas	-11.4693
▁Pemelihara	-11.4693
▁(26/1)	-11.4693
▁Carolina	-11.4693
▁Challenge	-11.4693
▁Hevearita	-11.4693
▁dikunjungi	-11.4693
▁konsultan	-11.4693
▁menyembunyikan	-11.4693
▁tragedi	-11.4693
▁Buddha	-11.4693
▁Partner	-11.4693
▁ketahui	-11.4693
▁reputasi	-11.4693
▁terlambat	-11.4693
▁menyambangi	-11.4693
▁Nelayan	-11.4693
▁razia	-11.4693
▁tudingan	-11.4693
▁Hotman	-11.4693
▁judul	-11.4693
▁mengkaji	-11.4693
isolasi	-11.4693
▁Jansen	-11.4693
▁Paniai	-11.4693
▁acuan	-11.4693
▁menyerta	-11.4693
▁digagas	-11.4694
▁Prihadi	-11.4695
▁2-1	-11.4714
target	-11.4728
▁penutup	-11.4735
▁05:0	-11.4761
▁Mengaku	-11.4809
▁(10/9)	-11.4809
▁(22/8)	-11.4809
▁(27/6)	-11.4809
▁(29/1)	-11.4809
▁(5/4)	-11.4809
▁Habiburokhman	-11.4809
▁Keberhasilan	-11.4809
▁Longsor	-11.4809
▁Manggarai	-11.4809
▁Pentagon	-11.4809
▁Sustainability	-11.4809
▁Terungkap	-11.4809
▁bakteri	-11.4809
▁bervariasi	-11.4809
▁degradasi	-11.4809
▁knalpot	-11.4809
▁konektivitas	-11.4809
▁pembalasan	-11.4809
▁perseorangan	-11.4809
▁merokok	-11.4809
▁Lengkap	-11.4809
▁misteri	-11.4809
▁utusan	-11.4809
▁Mimika	-11.4809
▁Pensiun	-11.4809
▁berlayar	-11.4809
▁ojek	-11.4809
▁pemicu	-11.4809
▁Aurel	-11.4809
emajuan	-11.4811
▁dibakar	-11.4811
▁Pileg	-11.4813
▁diawasi	-11.4813
work	-11.4814
▁Alfian	-11.4816
▁Pilar	-11.4816
enyerahan	-11.4837
▁puluh	-11.4853
epakati	-11.4881
▁(12/12)	-11.4926
▁(17/1)	-11.4926
▁(20/3)	-11.4926
▁(23/12)	-11.4926
▁(5/11)	-11.4926
▁Kandidat	-11.4926
▁Kepemimpinan	-11.4926
▁Klungkung	-11.4926
▁Pictures	-11.4926
▁Prajurit	-11.4926
▁TPNPB	-11.4926
▁dipengaruhi	-11.4926
▁influencer	-11.4926
▁instalasi	-11.4926
▁pelosok	-11.4926
▁penerbitan	-11.4926
▁Suherman	-11.4926
▁kelelahan	-11.4926
▁menggeledah	-11.4926
▁Kapuas	-11.4927
▁Swift	-11.4927
▁Tujuh	-11.4927
▁diperbaiki	-11.4927
▁Kemitraan	-11.4927
▁lirik	-11.4927
▁mengoperasikan	-11.4927
▁Natuna	-11.4927
▁penyuluh	-11.4927
▁Album	-11.4927
▁SWT	-11.4927
▁margin	-11.4927
▁Acep	-11.4927
▁semalam	-11.4927
▁outlet	-11.4927
▁silakan	-11.4927
▁kerajaan	-11.4928
▁rock	-11.4928
▁berangin	-11.4928
▁senada	-11.4928
▁dorongan	-11.4929
▁Arsip	-11.493
▁iuran	-11.493
epuluh	-11.4935
▁22:4	-11.4937
emakin	-11.4975
▁06:3	-11.5019
direktorat	-11.5046
rekonstruksi	-11.5046
▁(20/5)	-11.5046
▁(24/6)	-11.5046
▁(29/7)	-11.5046
▁(4/11)	-11.5046
▁JAYA	-11.5046
▁Keimigrasian	-11.5046
▁Lewotobi	-11.5046
▁Optimistis	-11.5046
▁produser	-11.5046
▁terhindar	-11.5046
▁Happy	-11.5046
▁Penyelamat	-11.5046
▁Sedunia	-11.5046
▁digantikan	-11.5046
▁keponakan	-11.5046
▁Hendro	-11.5046
▁Marsudi	-11.5046
▁mengobati	-11.5046
▁panduan	-11.5046
▁perusakan	-11.5046
▁Maduro	-11.5046
▁Beauty	-11.5046
▁Jeruk	-11.5046
▁Network	-11.5046
▁Relations	-11.5046
▁BMW	-11.5046
▁memasak	-11.5046
▁rumor	-11.5046
▁Nasib	-11.5046
tinjau	-11.5046
▁UKT	-11.5046
▁interaksi	-11.5047
▁disebar	-11.5048
▁perlahan	-11.5048
▁Kemang	-11.5049
▁Frans	-11.5058
perhitungkan	-11.5059
subsidi	-11.5063
▁Kebay	-11.5082
NTB	-11.5086
SOP	-11.516
▁(11/12)	-11.5166
▁(21/8)	-11.5166
▁(28/1)	-11.5166
▁(28/3)	-11.5166
▁(3/7)	-11.5166
▁(30/4)	-11.5166
▁(5/3)	-11.5166
▁Badminton	-11.5166
▁Bitcoin	-11.5166
▁Penembakan	-11.5166
▁Purnomo	-11.5166
▁asosiasi	-11.5166
▁kelengkapan	-11.5166
▁perpecahan	-11.5166
▁Kertanegara	-11.5166
▁mencintai	-11.5166
▁nenek	-11.5166
▁Edwin	-11.5166
▁pelarangan	-11.5166
interogasi	-11.5166
▁estate	-11.5166
▁berpasangan	-11.5166
▁seluler	-11.5166
▁Yoyok	-11.5166
▁penambangan	-11.5166
▁1973	-11.5166
▁Delapan	-11.5166
▁terpadu	-11.5166
▁Tabungan	-11.5166
▁edaran	-11.5167
▁disusun	-11.5167
▁konstitusional	-11.5167
▁Fajri	-11.5167
▁telinga	-11.5167
▁BPOM	-11.5168
▁sandar	-11.5168
▁Ratna	-11.5168
▁Riyad	-11.5181
evaluasi	-11.5199
▁ekonom	-11.5203
wawancara	-11.5207
Sehingga	-11.5208
DKPP	-11.5208
Kepala	-11.5208
Calon	-11.5208
perkirakan	-11.5232
▁(14/5)	-11.5288
▁(23/9)	-11.5288
▁(25/4)	-11.5288
▁(6/9)	-11.5288
▁(8/8)	-11.5288
▁Firdaus	-11.5288
▁Gaikindo	-11.5288
▁Gilbert	-11.5288
▁Investigasi	-11.5288
▁Kroasia	-11.5288
▁Perkebunan	-11.5288
▁Produsen	-11.5288
▁blusukan	-11.5288
▁diselidiki	-11.5288
▁dominan	-11.5288
▁pengerjaan	-11.5288
▁tanggul	-11.5288
▁QRIS	-11.5288
▁berkeliling	-11.5288
▁koridor	-11.5288
▁Septian	-11.5288
▁menumbuhk	-11.5288
▁perhiasan	-11.5288
▁Kekuatan	-11.5288
▁terjerat	-11.5288
▁pembersihan	-11.5288
▁Bergerak	-11.5288
▁RANS	-11.5288
▁pedesaan	-11.5288
▁Carlos	-11.5288
▁Samsung	-11.5288
▁Guntur	-11.5288
▁Ujung	-11.5288
▁Perbatasan	-11.5288
▁Safari	-11.5288
▁diminati	-11.5288
▁Panggil	-11.5288
buntut	-11.5293
▁penghubung	-11.5295
▁gegar	-11.5298
instruksikan	-11.5336
▁asuh	-11.5375
Benar	-11.539
enyandang	-11.5406
▁(11/11)	-11.5411
▁(27/1)	-11.5411
▁(4/12)	-11.5411
▁(6/2)	-11.5411
▁Ahmed	-11.5411
▁Evaluasi	-11.5411
▁Taipei	-11.5411
▁Taylor	-11.5411
▁beribadah	-11.5411
▁dihimpun	-11.5411
▁diidentifikasi	-11.5411
▁kolektif	-11.5411
▁magnitudo	-11.5411
▁membubarkan	-11.5411
▁dilibatkan	-11.5411
▁BEKAS	-11.5411
▁Guinea	-11.5411
▁Operation	-11.5411
▁asesmen	-11.5411
▁Positif	-11.5411
▁konsesi	-11.5411
▁Vatikan	-11.5412
▁Seminar	-11.5412
▁Sragen	-11.5412
▁mulia	-11.5412
▁House	-11.5412
▁Terancam	-11.5412
▁Mariska	-11.5412
▁beralasan	-11.5412
▁Ancaman	-11.5412
▁Putaran	-11.5412
▁Srikandi	-11.5412
▁Candy	-11.5412
Dimyati	-11.5413
▁ditunggu	-11.5413
▁(17)	-11.5416
▁11:5	-11.5421
▁Saint	-11.5423
▁serba	-11.5426
praktik	-11.5456
perburuk	-11.5465
militer	-11.5469
▁tangki	-11.5509
▁Stefan	-11.5522
Ririn	-11.5523
Forkopimda	-11.5536
tanggungjawabkan	-11.5536
▁(13/3)	-11.5536
▁(2/1)	-11.5536
▁(25/3)	-11.5536
▁(3/2)	-11.5536
▁(4/6)	-11.5536
▁Bendahara	-11.5536
▁Investor	-11.5536
▁cokelat	-11.5536
▁diberhentikan	-11.5536
▁kesimpulan	-11.5536
▁kompensasi	-11.5536
▁sponsor	-11.5536
▁Penduduk	-11.5536
▁merealisasikan	-11.5536
▁nafkah	-11.5536
▁Hamzah	-11.5536
▁Serdadu	-11.5536
▁Asnawi	-11.5536
▁Street	-11.5536
▁mogok	-11.5536
▁check	-11.5537
▁macet	-11.5537
▁Status	-11.5537
▁pengujian	-11.5537
▁bangku	-11.5537
▁silat	-11.5547
▁23:1	-11.5573
AFP	-11.5586
sosialisasikan	-11.5588
tuduh	-11.5623
▁Otorita	-11.5635
▁menoreh	-11.5663
▁Penandatangan	-11.5663
atasnamakan	-11.5663
▁(1/8)	-11.5663
▁(12/9)	-11.5663
▁(13/5)	-11.5663
▁(15/3)	-11.5663
▁(18/10)	-11.5663
▁(21/11)	-11.5663
▁(21/5)	-11.5663
▁(24/9)	-11.5663
▁(26/3)	-11.5663
▁(3/1)	-11.5663
▁(31/5)	-11.5663
▁Afriansyah	-11.5663
▁Anindya	-11.5663
▁Governance	-11.5663
▁Pandjaitan	-11.5663
▁kelanjutan	-11.5663
▁komisaris	-11.5663
▁kosmetik	-11.5663
▁memprotes	-11.5663
▁pendahuluan	-11.5663
▁perampokan	-11.5663
▁(5/12)	-11.5663
▁Independen	-11.5663
▁Mendukung	-11.5663
▁Pelalawan	-11.5663
▁Singaraja	-11.5663
▁dipantau	-11.5663
▁travel	-11.5663
▁Resolusi	-11.5663
▁Edukasi	-11.5663
▁Pedagang	-11.5663
▁Properti	-11.5663
▁http	-11.5663
▁interior	-11.5663
▁letusan	-11.5663
▁pisau	-11.5663
▁Utusan	-11.5663
▁mengusir	-11.5663
▁kurir	-11.5663
▁Otto	-11.5664
▁Modern	-11.5664
▁Masiku	-11.5664
▁Sanusi	-11.5664
▁Perayaan	-11.5664
▁keliru	-11.5664
▁Ledakan	-11.5664
coklit	-11.5664
▁Internet	-11.5665
erpotensi	-11.5666
▁Tabrak	-11.5666
Bapanas	-11.5673
waktu	-11.5692
mulyo	-11.5705
▁12:2	-11.5706
cukup	-11.5713
erlalu	-11.578
▁(17/12)	-11.5791
▁(19/8)	-11.5791
▁(22/11)	-11.5791
▁(22/7)	-11.5791
▁(26/4)	-11.5791
▁(29/4)	-11.5791
▁(31/1)	-11.5791
▁(31/12)	-11.5791
▁(8/11)	-11.5791
▁Fashion	-11.5791
▁LHKPN	-11.5791
▁Legislator	-11.5791
▁Morowali	-11.5791
▁membiayai	-11.5791
▁menunaikan	-11.5791
▁paripurna	-11.5791
▁practice	-11.5791
▁terpencil	-11.5791
▁Citroen	-11.5791
▁Nganjuk	-11.5791
▁vokasi	-11.5791
▁Gakkum	-11.5791
▁LGBT	-11.5791
▁kloter	-11.5791
▁Training	-11.5791
▁meresahkan	-11.5791
▁Vokasi	-11.5791
▁Lutfi	-11.5791
▁bingung	-11.5791
▁tembus	-11.5791
▁Mekaar	-11.5791
▁kalori	-11.5791
▁Nations	-11.5791
▁year	-11.5792
membungkam	-11.5792
▁kargo	-11.5792
jodoh	-11.5792
monitor	-11.5792
peruntukkan	-11.5792
▁Nathan	-11.5793
▁2-0	-11.5793
▁hadapi	-11.5795
▁Zoo	-11.5804
Muhammad	-11.5841
Pemerintah	-11.5841
profesi	-11.5842
▁hilir	-11.592
▁konvensi	-11.5921
lateral	-11.5921
▁(11/6)	-11.5921
▁(18/9)	-11.5921
▁(7/3)	-11.5921
▁(7/5)	-11.5921
▁(7/8)	-11.5921
▁Ballroom	-11.5921
▁Burhanuddin	-11.5921
▁Federasi	-11.5921
▁Kebangsaan	-11.5921
▁Khamenei	-11.5921
▁Pertambangan	-11.5921
▁Struick	-11.5921
▁bepergian	-11.5921
▁iPhone	-11.5921
▁keseriusan	-11.5921
▁tropis	-11.5921
manipulasi	-11.5921
▁Cartenz	-11.5921
▁dipersiapkan	-11.5921
▁ritual	-11.5921
▁Turnamen	-11.5921
▁merinci	-11.5921
▁(6/11)	-11.5921
▁tumpang	-11.5921
▁komite	-11.5921
▁Melinda	-11.5921
▁khasiat	-11.5921
▁Sultra	-11.5921
▁penerus	-11.5921
▁mutasi	-11.5921
▁mutu	-11.5922
▁sinar	-11.5922
▁memesan	-11.5923
Hendrar	-11.5947
Salah	-11.5974
▁Soccer	-11.6053
aguyuban	-11.6053
▁(16/1)	-11.6053
▁(18/11)	-11.6053
▁(19/1)	-11.6053
▁(19/9)	-11.6053
▁(25/9)	-11.6053
▁(27/5)	-11.6053
▁(31/7)	-11.6053
▁(5/8)	-11.6053
▁Borobudur	-11.6053
▁Kejahatan	-11.6053
▁Microsoft	-11.6053
▁Penindakan	-11.6053
▁Permintaan	-11.6053
▁Rekomendasi	-11.6053
▁Tyasmara	-11.6053
▁diringkus	-11.6053
▁distributor	-11.6053
▁informal	-11.6053
▁jilbab	-11.6053
▁kepulauan	-11.6053
▁kombinasi	-11.6053
▁lowongan	-11.6053
▁melontarkan	-11.6053
▁menaklukkan	-11.6053
▁payudara	-11.6053
▁propaganda	-11.6053
▁smelter	-11.6053
▁Komarudin	-11.6053
▁Kominfo	-11.6053
▁Trisakti	-11.6053
▁kepergian	-11.6053
▁Stephan	-11.6053
▁yayasan	-11.6053
▁Hindia	-11.6053
▁kongres	-11.6053
▁pengerahan	-11.6053
▁Peringkat	-11.6053
▁Asmawa	-11.6053
▁liputan	-11.6053
▁religi	-11.6053
▁LAMP	-11.6053
▁Kodim	-11.6053
▁sistematis	-11.6053
▁pengarahan	-11.6053
▁Mahmud	-11.6053
▁royong	-11.6053
▁Jhon	-11.6054
▁dicatat	-11.6056
9.000	-11.6066
Tersangka	-11.6106
Anak	-11.6107
▁hektar	-11.6171
▁(1/2)	-11.6186
▁(10/2)	-11.6186
▁(17/10)	-11.6186
▁(2/7)	-11.6186
▁(20/11)	-11.6186
▁(21/3)	-11.6186
▁(29/5)	-11.6186
▁Keberadaan	-11.6186
▁Mahardhika	-11.6186
▁Penyelidikan	-11.6186
▁TASPEN	-11.6186
▁antrean	-11.6186
▁elpiji	-11.6186
▁konsentrasi	-11.6186
▁mengisyaratkan	-11.6186
▁penelusuran	-11.6186
▁Delegasi	-11.6186
▁Samudra	-11.6186
▁Pengakuan	-11.6186
▁Rupiah	-11.6186
▁AEON	-11.6186
▁Yusril	-11.6186
▁NKRI	-11.6186
▁besutan	-11.6186
▁Nengah	-11.6186
▁PGRI	-11.6186
▁persenjataan	-11.6186
▁trofi	-11.6186
▁memadukan	-11.6186
▁pemanasan	-11.6186
▁Cornel	-11.6187
▁berduka	-11.6187
▁umpan	-11.6187
▁sesaat	-11.6187
▁mengemban	-11.619
▁06:4	-11.6192
erbasis	-11.6236
BUMN	-11.6241
▁pemberi	-11.6248
elakukan	-11.6293
▁(12/8)	-11.6321
▁(13/6)	-11.6321
▁(17/7)	-11.6321
▁(18/7)	-11.6321
▁(19/3)	-11.6321
▁(19/6)	-11.6321
▁(2/5)	-11.6321
▁(2/9)	-11.6321
▁(23/8)	-11.6321
▁(25/11)	-11.6321
▁(25/7)	-11.6321
▁(28/5)	-11.6321
▁(6/8)	-11.6321
▁(8/5)	-11.6321
▁Intelligence	-11.6321
▁Poltracking	-11.6321
▁bersemangat	-11.6321
▁crypto	-11.6321
▁kebugaran	-11.6321
▁kesebelasan	-11.6321
▁Faizal	-11.6321
▁Starlink	-11.6321
▁berdialog	-11.6321
▁dipulangkan	-11.6321
▁KARAWA	-11.6321
▁merancang	-11.6321
▁pemetaan	-11.6321
▁Penerapan	-11.6321
▁fitnah	-11.6321
▁pendistribusian	-11.6321
▁kontingen	-11.6321
▁penyitaan	-11.6321
▁Siloam	-11.6321
▁Lebong	-11.6321
▁menepis	-11.6321
▁Kartini	-11.6321
▁1997	-11.6321
▁muatan	-11.6321
▁pembaruan	-11.6321
▁Pedro	-11.6322
▁arena	-11.6322
▁Kirim	-11.6323
▁Penguat	-11.6329
▁Gencata	-11.6351
▁pelanggar	-11.6383
▁(10/5)	-11.6458
▁(14/3)	-11.6458
▁(21/10)	-11.6458
▁(30/5)	-11.6458
▁(8/10)	-11.6458
▁Hungaria	-11.6458
▁Innovation	-11.6458
▁Nasrallah	-11.6458
▁Penurunan	-11.6458
▁berpidato	-11.6458
▁dikendalikan	-11.6458
▁dipublikasikan	-11.6458
▁fesyen	-11.6458
▁penugasan	-11.6458
▁pornografi	-11.6458
▁terpengaruh	-11.6458
▁Jonathan	-11.6458
▁Kebutuhan	-11.6458
▁Kenjeran	-11.6458
▁Pemantau	-11.6458
▁bullying	-11.6458
▁kedutaan	-11.6458
▁Bojong	-11.6458
▁tumpukan	-11.6458
▁berbahasa	-11.6458
▁menginjak	-11.6458
▁tebing	-11.6458
▁(6/12)	-11.6458
▁jeruk	-11.6458
▁Yakni	-11.6458
▁Komentar	-11.6458
▁mencuat	-11.6458
▁Diminta	-11.6459
▁menaiki	-11.6459
Astrid	-11.6461
Sheikh	-11.6462
▁garda	-11.6462
▁Lauren	-11.6463
SDGs	-11.6464
bangkitan	-11.6489
▁05:3	-11.6512
▁23:0	-11.6515
Kecamatan	-11.6517
khusus	-11.6517
Mendikdasmen	-11.6597
▁(10/7)	-11.6597
▁(12/11)	-11.6597
▁(19/11)	-11.6597
▁(22/5)	-11.6597
▁(4/2)	-11.6597
▁(6/3)	-11.6597
▁Ginanjar	-11.6597
▁Kemanusiaan	-11.6597
▁Paralimpiade	-11.6597
▁menelusuri	-11.6597
▁mengerjakan	-11.6597
▁menyingkirkan	-11.6597
▁pengembalian	-11.6597
▁anonim	-11.6597
▁manual	-11.6597
▁bengkel	-11.6597
▁akuntabel	-11.6597
▁keberagaman	-11.6597
▁perekrutan	-11.6597
▁Terlibat	-11.6597
▁dihindari	-11.6597
▁nusantara	-11.6597
▁polio	-11.6597
▁Arsenal	-11.6597
▁green	-11.6597
▁Tubuh	-11.6597
▁takjil	-11.6597
▁wahana	-11.6597
▁Klaten	-11.6597
▁Fadli	-11.6597
▁Utomo	-11.6597
▁Salurkan	-11.6597
▁tendik	-11.6597
▁terukur	-11.6597
▁KRL	-11.6597
▁Pantura	-11.6598
▁berumur	-11.6598
▁Patrio	-11.6601
▁Slank	-11.6601
eledah	-11.6633
edoman	-11.6645
▁rinci	-11.6652
Banyak	-11.6659
tindakan	-11.6659
jumpa	-11.6662
Pilwakot	-11.6738
▁(1/11)	-11.6738
▁(1/7)	-11.6738
▁(11/9)	-11.6738
▁(30/8)	-11.6738
▁(6/5)	-11.6738
▁(6/6)	-11.6738
▁(7/11)	-11.6738
▁Ghufron	-11.6738
▁adopsi	-11.6738
▁advokasi	-11.6738
▁keberanian	-11.6738
▁kehancuran	-11.6738
▁ketergantungan	-11.6738
▁memuaskan	-11.6738
▁mendiskusikan	-11.6738
▁menerjunka	-11.6738
▁parfum	-11.6738
▁partner	-11.6738
▁terkecuali	-11.6738
▁tersenyum	-11.6738
▁vulkanik	-11.6738
▁Somalia	-11.6738
▁memberatkan	-11.6738
▁Cloud	-11.6738
▁Tridatu	-11.6738
▁siklus	-11.6738
▁NASA	-11.6738
▁kudeta	-11.6738
▁terealisasi	-11.6738
hidrasi	-11.6738
▁Younis	-11.6738
▁Sirait	-11.6738
▁tertunda	-11.6738
▁Mampang	-11.6738
▁Lubis	-11.6738
▁Tuntut	-11.6738
▁berbakat	-11.6738
▁Kritik	-11.6738
jambret	-11.6738
▁Sumadi	-11.6739
etinggi	-11.6747
benahi	-11.6757
ongsong	-11.6759
fungsi	-11.6789
indikasi	-11.68
▁pemantau	-11.6806
▁norma	-11.6869
▁Taufiq	-11.6881
▁(15/11)	-11.6881
▁(15/8)	-11.6881
▁(18/4)	-11.6881
▁(2/2)	-11.6881
▁(21/6)	-11.6881
▁(3/12)	-11.6881
▁(31/10)	-11.6881
▁(4/9)	-11.6881
▁(9/12)	-11.6881
▁ASABRI	-11.6881
▁Gelombang	-11.6881
▁Inspektur	-11.6881
▁Kishida	-11.6881
▁Muktamar	-11.6881
▁Musyawarah	-11.6881
▁Pembukaan	-11.6881
▁Penampilan	-11.6881
▁Petrokimia	-11.6881
▁Security	-11.6881
▁Solution	-11.6881
▁ambruk	-11.6881
▁audio	-11.6881
▁bersilaturahmi	-11.6881
▁cakupan	-11.6881
▁ekspedisi	-11.6881
▁fondasi	-11.6881
▁mempekerjakan	-11.6881
▁mengharuskan	-11.6881
▁ojol	-11.6881
▁pembatalan	-11.6881
▁realistis	-11.6881
▁karakteristik	-11.6881
▁terpecah	-11.6881
▁Ibadah	-11.6881
▁Kirby	-11.6881
▁memperkaya	-11.6881
▁Kelautan	-11.6881
▁menunjang	-11.6881
▁Wacana	-11.6881
▁Idham	-11.6881
▁lutut	-11.6881
▁memihak	-11.6881
▁Tapera	-11.6881
▁smart	-11.6881
▁Lanjut	-11.6881
▁slogan	-11.6881
▁Butuh	-11.6881
▁Rekaman	-11.6881
▁cuci	-11.6881
▁Work	-11.6887
▁tempe	-11.6917
▁06:1	-11.692
Kabupaten	-11.6946
Sekda	-11.6946
▁(16/10)	-11.7026
▁(16/7)	-11.7026
▁(17/5)	-11.7026
▁(17/9)	-11.7026
▁(18/12)	-11.7026
▁(26/8)	-11.7026
▁Advokat	-11.7026
▁Galaxy	-11.7026
▁diterjunkan	-11.7026
▁mengakomodasi	-11.7026
▁merumuskan	-11.7026
▁tercantum	-11.7026
▁Gresini	-11.7026
▁Saudara	-11.7026
▁Tertinggal	-11.7026
▁berjualan	-11.7026
▁deportasi	-11.7026
▁keraguan	-11.7026
▁Survey	-11.7026
▁diragukan	-11.7026
▁membanggakan	-11.7026
▁tembok	-11.7026
▁tertimpa	-11.7026
▁Suporter	-11.7026
▁Betawi	-11.7026
▁Samapta	-11.7026
▁melekat	-11.7026
▁Delhi	-11.7026
▁tumpah	-11.7026
▁naskah	-11.7026
▁jamaah	-11.7026
▁bodong	-11.7026
▁Jatuh	-11.7026
▁Mukti	-11.7027
▁Inklusi	-11.7027
▁mengunggul	-11.7033
▁22:5	-11.7034
erujuk	-11.704
kriminalisasi	-11.7063
migran	-11.7092
CSR	-11.7094
▁(6/1	-11.715
▁(15/5)	-11.7173
▁(15/7)	-11.7173
▁(16/12)	-11.7173
▁(18/6)	-11.7173
▁(20/6)	-11.7173
▁(4/10)	-11.7173
▁(7/6)	-11.7173
▁(8/7)	-11.7173
▁(9/9)	-11.7173
▁Emmanuel	-11.7173
▁Fardhana	-11.7173
▁Hybrid	-11.7173
▁Kerugian	-11.7173
▁Mohamed	-11.7173
▁Perkembangan	-11.7173
▁Semifinal	-11.7173
▁Silaturahmi	-11.7173
▁Tanjungpinang	-11.7173
▁Zhejiang	-11.7173
▁brutal	-11.7173
▁dipertimbangkan	-11.7173
▁kelulusan	-11.7173
▁kerumunan	-11.7173
▁orientasi	-11.7173
▁pemesanan	-11.7173
▁pencabutan	-11.7173
▁penyampaian	-11.7173
▁stigma	-11.7173
▁Yasonna	-11.7173
▁Komedian	-11.7173
▁Soviet	-11.7173
▁Ibnu	-11.7173
▁meletus	-11.7173
▁(20/12)	-11.7173
▁Konawe	-11.7173
▁Terbakar	-11.7173
▁estetika	-11.7173
▁Fabio	-11.7173
▁Morning	-11.7173
▁Pencapaian	-11.7173
▁Notaris	-11.7173
▁junta	-11.7173
genjot	-11.7173
▁Pengalaman	-11.7173
▁Bruno	-11.7173
▁Kesatuan	-11.7173
▁Dubai	-11.7173
▁dipegang	-11.7173
▁Kerajaan	-11.7173
▁Sembilan	-11.7173
▁Barisan	-11.7174
▁Louis	-11.7174
cross	-11.7176
ombongan	-11.7177
front	-11.7197
▁Purwa	-11.7214
mobilisasi	-11.724
Presiden	-11.7242
CPNS	-11.7242
▁00:1	-11.7249
XXII	-11.7275
domisili	-11.7322
nyosialisasikan	-11.7322
▁(1/4)	-11.7322
▁(12/3)	-11.7322
▁(14/11)	-11.7322
▁(19/12)	-11.7322
▁(19/7)	-11.7322
▁(20/1)	-11.7322
▁(23/7)	-11.7322
▁(24/4)	-11.7322
▁(26/7)	-11.7322
▁(3/6)	-11.7322
▁(8/4)	-11.7322
▁(9/7)	-11.7322
▁Amnesty	-11.7322
▁Intelektual	-11.7322
▁Purwokerto	-11.7322
▁berintegritas	-11.7322
▁dibicarakan	-11.7322
▁dipertahankan	-11.7322
▁giliran	-11.7322
▁keberpihakan	-11.7322
▁meloloskan	-11.7322
▁memusnahkan	-11.7322
▁penyisiran	-11.7322
▁terkendala	-11.7322
diagnosis	-11.7322
▁akuntabilitas	-11.7322
▁dihormati	-11.7322
▁dilayangkan	-11.7322
▁power	-11.7322
▁Ambyar	-11.7322
▁mencukupi	-11.7322
▁merdeka	-11.7322
▁pendengar	-11.7322
▁Flores	-11.7322
▁Komunis	-11.7322
▁Mandarin	-11.7322
▁Memasuk	-11.7322
▁cahaya	-11.7322
▁pelepasan	-11.7322
▁bensin	-11.7322
▁France	-11.7322
▁Faktor	-11.7322
▁ditindak	-11.7322
▁Jordi	-11.7322
▁dibantah	-11.7322
▁06:2	-11.7338
ertifikat	-11.7368
Harapan	-11.7393
demokrasi	-11.7393
SMKN	-11.7402
▁Fungsi	-11.7433
erselisihan	-11.747
public	-11.7473
Ditresnarkoba	-11.7473
▁(20/10)	-11.7473
▁(26/11)	-11.7473
▁(3/5)	-11.7473
▁(9/8)	-11.7473
▁Albanese	-11.7473
▁Arsjad	-11.7473
▁Daihatsu	-11.7473
▁Peresmian	-11.7473
▁Summarecon	-11.7473
▁Sydney	-11.7473
▁UEFA	-11.7473
▁berkarier	-11.7473
▁curanmor	-11.7473
▁dikendarai	-11.7473
▁kejuaraan	-11.7473
▁kelembapan	-11.7473
▁melimpah	-11.7473
▁melupakan	-11.7473
▁mengoleksi	-11.7473
▁musibah	-11.7473
▁preventif	-11.7473
▁ajudan	-11.7473
▁pemaparan	-11.7473
▁membebani	-11.7473
▁Wahono	-11.7473
▁penyerapan	-11.7473
▁Ustaz	-11.7474
▁terbiasa	-11.7474
▁pembuktian	-11.7474
▁Pieter	-11.7474
▁berkabut	-11.7474
▁saraf	-11.7474
▁fatal	-11.7474
ANJU	-11.7499
luncurkan	-11.75
Pemilu	-11.7547
encari	-11.7585
▁sukarela	-11.7625
*	-11.7627
▁(11/5)	-11.7627
▁(16/4)	-11.7627
▁(28/6)	-11.7627
▁Aktivitas	-11.7627
▁Bahagia	-11.7627
▁Chelsea	-11.7627
▁Effendi	-11.7627
▁Identitas	-11.7627
▁Kependudukan	-11.7627
▁Muhadjir	-11.7627
▁Navalny	-11.7627
▁berkapasitas	-11.7627
▁hijab	-11.7627
▁kekecewaan	-11.7627
▁kewirausahaan	-11.7627
▁legitimasi	-11.7627
▁memasarkan	-11.7627
▁minimarket	-11.7627
▁residivis	-11.7627
▁service	-11.7627
▁triwulan	-11.7627
▁Kekalahan	-11.7627
▁Regulasi	-11.7627
▁problem	-11.7627
pinjol	-11.7627
emenanjung	-11.7627
▁Diploma	-11.7627
▁Leonard	-11.7627
▁medsos	-11.7627
▁penyiaran	-11.7627
▁Acosta	-11.7627
▁Rachim	-11.7627
▁BNPT	-11.7627
▁bereaksi	-11.7628
▁dapil	-11.7628
▁adaptasi	-11.7628
▁asrama	-11.7628
▁Maroko	-11.7628
▁lemon	-11.7628
▁pisang	-11.7628
enyumbang	-11.7637
▁23:2	-11.766
▁memeca	-11.7672
Memang	-11.7704
Jatim	-11.7704
Jampidsus	-11.7784
▁(12/6)	-11.7784
▁(13/8)	-11.7784
▁(14/6)	-11.7784
▁(15/12)	-11.7784
▁(18/3)	-11.7784
▁(26/6)	-11.7784
▁(29/11)	-11.7784
▁(7/10)	-11.7784
▁Company	-11.7784
▁Ekosistem	-11.7784
▁Istiqlal	-11.7784
▁Jazuli	-11.7784
▁Maruarar	-11.7784
▁Mochamad	-11.7784
▁PADANG	-11.7784
▁Pezeshkian	-11.7784
▁Seksual	-11.7784
▁Workshop	-11.7784
▁fundamental	-11.7784
▁nominal	-11.7784
▁representasi	-11.7784
▁Chicago	-11.7784
▁Konservasi	-11.7784
▁Wardoyo	-11.7784
▁hanyut	-11.7784
▁pemandangan	-11.7784
Ditlantas	-11.7784
▁kedelapan	-11.7784
▁Angkutan	-11.7784
▁Koleksi	-11.7784
▁Diperiksa	-11.7784
▁meluap	-11.7784
▁terguling	-11.7784
▁toilet	-11.7784
▁pendingin	-11.7784
▁helm	-11.7784
▁Arjuna	-11.7784
▁Kuliah	-11.7784
▁Kalapas	-11.7784
▁Untag	-11.7784
▁stiker	-11.7784
▁membukuk	-11.7784
zhou	-11.7785
▁00.5	-11.7789
▁Legend	-11.7794
Oleh	-11.7862
memperdalam	-11.7924
▁honor	-11.7937
enomena	-11.794
á	-11.7942
▁(13/12)	-11.7942
▁(24/10)	-11.7942
▁(8/2)	-11.7942
▁Community	-11.7942
▁Ernando	-11.7942
▁Pembicaraan	-11.7942
▁Practice	-11.7942
▁berkepanjangan	-11.7942
▁diciptakan	-11.7942
▁elektrik	-11.7942
▁keberlangsungan	-11.7942
▁kegembiraan	-11.7942
▁kolaboratif	-11.7942
▁menganalisis	-11.7942
▁menggerebek	-11.7942
▁mengklarifikasi	-11.7942
▁pembubaran	-11.7942
▁Gustavo	-11.7942
▁OECD	-11.7942
▁Pembayaran	-11.7942
▁Widjaja	-11.7942
▁Capital	-11.7942
▁Konsumsi	-11.7942
▁Sritex	-11.7942
▁Kursk	-11.7942
▁Prawira	-11.7942
▁dimenangkan	-11.7942
▁pemasyarakatan	-11.7942
▁diberitahu	-11.7942
▁Level	-11.7942
▁berpisah	-11.7942
▁Bendungan	-11.7942
▁Nadiem	-11.7942
▁penjaringan	-11.7942
▁bermakna	-11.7942
▁merapat	-11.7943
▁Bazar	-11.7943
▁Rodri	-11.7943
▁Larangan	-11.7943
▁Tumbuh	-11.7943
▁Privat	-11.7944
▁23:4	-11.7958
▁Pembela	-11.7959
Kemendagri	-11.8023
Daniel	-11.8023
Kanwil	-11.8023
Sementara	-11.8023
▁penyelidik	-11.8028
▁Wakapolres	-11.8066
▁kompeten	-11.809
▁(11/10)	-11.8104
▁(11/3)	-11.8104
▁(18/5)	-11.8104
▁(2/11)	-11.8104
▁(20/9)	-11.8104
▁(22/10)	-11.8104
▁(23/11)	-11.8104
▁(23/4)	-11.8104
▁(25/6)	-11.8104
▁(3/4)	-11.8104
▁(4/7)	-11.8104
▁(5/7)	-11.8104
▁(9/10).	-11.8104
▁Celcius	-11.8104
▁Customer	-11.8104
▁Kazakhstan	-11.8104
▁Ombudsman	-11.8104
▁Pembiayaan	-11.8104
▁belasungkawa	-11.8104
▁berolahraga	-11.8104
▁eksistensi	-11.8104
▁keterbukaan	-11.8104
▁menampik	-11.8104
▁mengeksekusi	-11.8104
▁penghapusan	-11.8104
▁separatis	-11.8104
▁Samudera	-11.8104
▁pengenalan	-11.8104
▁Jatanras	-11.8104
▁keanekar	-11.8104
▁reproduksi	-11.8104
▁memetakan	-11.8104
▁County	-11.8104
▁Erupsi	-11.8104
▁sejenak	-11.8104
▁melebar	-11.8104
▁pedalaman	-11.8104
▁satgas	-11.8104
▁Ancol	-11.8104
▁Rashid	-11.8104
▁trading	-11.8104
▁menatap	-11.8104
▁Dahlan	-11.8104
▁sensasi	-11.8104
▁pemakai	-11.8104
▁Pencuri	-11.8104
▁Psikolog	-11.8104
encapai	-11.8111
gencarkan	-11.816
ertolongan	-11.8264
▁bendungan	-11.8267
UNHCR	-11.8267
▁(13/7)	-11.8267
▁(30/12)	-11.8267
▁Ciliwung	-11.8267
▁Dortmund	-11.8267
▁Initiative	-11.8267
▁Memiliki	-11.8267
▁Parlindungan	-11.8267
▁Susmanto	-11.8267
▁berorientasi	-11.8267
▁dahsyat	-11.8267
▁konfrontasi	-11.8267
▁menyanyikan	-11.8267
▁pencairan	-11.8267
▁HIPMI	-11.8268
▁Journal	-11.8268
▁terhormat	-11.8268
▁Sekuritas	-11.8268
▁dirugikan	-11.8268
▁papua	-11.8268
▁Pelapor	-11.8268
▁Tuduhan	-11.8268
▁cabor	-11.8268
▁sanitasi	-11.8268
▁kesenian	-11.8268
▁lembut	-11.8268
▁Jaksel	-11.8268
▁memeluk	-11.8268
▁dkk	-11.8268
riwayat	-11.8268
ominasi	-11.8276
▁Fuad	-11.828
▁Intens	-11.8282
akuisisi	-11.8303
komunikasi	-11.8332
Cawapres	-11.8354
Sekarang	-11.8354
Pilgub	-11.8354
▁memerintah	-11.8387
ewujudkan	-11.8432
▁terowongan	-11.8434
▁(10/12)	-11.8434
▁(17/4)	-11.8434
▁(24/5)	-11.8434
▁(26/5)	-11.8434
▁(27/8)	-11.8434
▁(28/9)	-11.8434
▁(3/11)	-11.8434
▁(3/9)	-11.8434
ü	-11.8434
@	-11.8871
[	-11.9798
ö	-12.0687
°	-12.1339
=	-12.2531
í	-12.305
ñ	-12.3884
ó	-12.4178
•	-12.9089
±	-13.1884
ú	-13.3265
ä	-13.4034
è	-13.4034
®	-13.4867
â	-13.4867
ı	-13.7888
#	-13.9057
>	-13.9138
`	-13.9138
′	-13.9138
ï	-14.2233
×	-14.2233
ê	-14.2233
⁠	-14.4233
Ó	-14.4233
à	-14.4233
\	-14.4233
ç	-14.6733
ì	-14.6733
Ü	-14.6733
ş	-14.6733
−	-15.0066
<	-15.0066
·	-15.0066
ø	-15.0066
ā	-15.5066
Ä	-15.5066
ë	-15.5066
š	-15.5066
Ö	-15.5066
(	-16.4992
ğ	-16.5056
Á	-16.5057
μ	-16.5058
😭	-16.5059
⁄	-16.506
Ç	-16.5061
ô	-16.5062
ć	-16.5063
ã	-16.5064
£	-16.5065
ķ	-16.5066
😊	-16.5066
Â	-16.5066
É	-16.5066
ð	-16.5066
ò	-16.5066
õ	-16.5066
Ā	-16.5066
İ	-16.5066
Ł	-16.5066
ł	-16.5066
ś	-16.5066
ơ	-16.5066
ư	-16.5066
Η	-16.5066
Τ	-16.5066
α	-16.5066
≥	-16.5066
丽	-16.5066
安	-16.5066
洪	-16.5066
🍌	-16.5066
‍	-16.5066
金	-16.5066
陈	-16.5066
ę	-16.5066
Α	-16.5066
€	-16.5066
