<unk>	0
<s>	0
</s>	0
,	-3.31545
.	-3.48161
▁di	-4.06913
▁yang	-4.31733
▁dan	-4.417
▁	-4.43551
an	-4.49032
nya	-4.82267
▁(	-4.87687
i	-4.96737
-	-5.0059
kan	-5.02386
▁untuk	-5.2187
)	-5.30037
▁dengan	-5.34598
s	-5.34876
▁ke	-5.3638
▁dari	-5.4161
▁-	-5.41731
▁ini	-5.42381
▁itu	-5.46378
",	-5.4807
▁pada	-5.51314
▁dalam	-5.52526
▁"	-5.56483
t	-5.72979
k	-5.74591
▁2024	-5.75789
/	-5.76939
▁ber	-5.77994
a	-5.79698
▁tidak	-5.96258
ta	-5.97771
▁S	-5.98001
e	-5.98128
▁se	-6.00664
si	-6.01834
▁tersebut	-6.02872
▁akan	-6.0308
▁Indonesia	-6.03462
▁A	-6.03586
n	-6.1139
:	-6.12216
h	-6.1455
ti	-6.15022
▁juga	-6.1619
com	-6.1678
y	-6.20671
▁WIB	-6.22035
).	-6.24951
la	-6.2578
p	-6.27831
▁kata	-6.29286
▁K	-6.29563
in	-6.31642
ri	-6.32409
u	-6.32591
o	-6.34184
▁menjadi	-6.3425
di	-6.36232
▁ter	-6.36335
na	-6.37034
▁mengatakan	-6.38421
▁P	-6.38498
d	-6.38547
▁B	-6.40722
da	-6.41759
al	-6.41764
▁saat	-6.43296
▁bahwa	-6.43595
▁ada	-6.43695
ka	-6.44988
▁sebagai	-6.45056
at	-6.45784
l	-6.45869
li	-6.47136
▁oleh	-6.47411
▁telah	-6.48219
▁tahun	-6.48959
S	-6.49462
P	-6.51996
K	-6.5394
us	-6.53984
▁bisa	-6.56439
D	-6.5808
A	-6.59541
ma	-6.60175
▁atau	-6.60481
▁kepada	-6.60567
▁jpnn	-6.62403
m	-6.6328
3	-6.642
▁meng	-6.64867
4	-6.64908
▁Ke	-6.65334
g	-6.65463
▁lebih	-6.65571
ang	-6.65807
r	-6.65917
▁I	-6.66043
5	-6.663
T	-6.66766
ng	-6.67372
▁mereka	-6.67702
▁Se	-6.67715
ra	-6.68122
B	-6.68415
▁Di	-6.70293
▁Jakarta	-6.70564
ar	-6.70689
or	-6.70761
ga	-6.71034
ja	-6.71151
▁satu	-6.71836
er	-6.73339
▁orang	-6.74065
M	-6.75188
▁Ma	-6.75513
b	-6.75641
▁M	-6.75922
▁sudah	-6.77498
▁karena	-6.7864
sa	-6.79662
▁para	-6.80703
▁per	-6.81697
7	-6.81711
▁F	-6.82041
re	-6.83229
ur	-6.83447
8	-6.83546
▁adalah	-6.83962
tu	-6.84007
▁Kota	-6.84113
▁T	-6.8455
▁kami	-6.85122
ni	-6.86924
▁Ba	-6.87074
1	-6.87195
▁masyarakat	-6.87233
is	-6.88226
ro	-6.88552
▁melakukan	-6.88588
C	-6.8931
asi	-6.89355
▁hari	-6.89619
▁C	-6.89679
9	-6.9042
6	-6.90996
▁U	-6.91844
▁dia	-6.93323
ah	-6.94293
▁negara	-6.95646
f	-6.95756
▁E	-6.95787
0	-6.9683
▁Per	-6.97152
ul	-6.97911
gi	-6.98309
▁terhadap	-6.98398
as	-6.99436
de	-6.99531
▁bagi	-6.99783
▁D	-7.00626
man	-7.00887
un	-7.01431
z	-7.0233
ing	-7.02395
2	-7.02399
▁dapat	-7.03141
N	-7.04531
ut	-7.04554
on	-7.04757
pa	-7.0531
ir	-7.06427
se	-7.0731
um	-7.07344
ter	-7.07552
▁secara	-7.07576
c	-7.07627
▁Dia	-7.08549
▁hingga	-7.08626
▁1	-7.08664
le	-7.09263
▁men	-7.09263
▁Selasa	-7.09439
to	-7.09678
el	-7.09705
wa	-7.09756
U	-7.10081
▁Rabu	-7.10127
▁Su	-7.10417
▁JAKARTA	-7.10746
I	-7.10868
▁s	-7.11075
ung	-7.11177
tan	-7.11183
te	-7.11264
▁mem	-7.11645
ba	-7.11896
ak	-7.12087
en	-7.12458
jpnn	-7.12469
▁Senin	-7.12533
ku	-7.12806
ru	-7.13028
R	-7.13182
▁setelah	-7.13682
mi	-7.14026
▁Kamis	-7.14336
▁merupakan	-7.14617
▁dua	-7.16367
▁seperti	-7.16377
▁me	-7.16898
▁G	-7.17102
▁saya	-7.17656
▁baru	-7.17684
ya	-7.17752
▁warga	-7.17823
lu	-7.18914
ce	-7.19072
E	-7.19896
▁Kabupaten	-7.20419
▁Jumat	-7.20613
▁masih	-7.21961
▁harus	-7.22928
▁dilakukan	-7.23071
▁pem	-7.2322
▁beberapa	-7.23853
▁serta	-7.24278
▁memberikan	-7.25308
▁Jawa	-7.25318
ik	-7.25417
▁peng	-7.25807
▁Ber	-7.26693
▁3	-7.2693
▁banyak	-7.27051
▁anak	-7.27101
▁pen	-7.27246
pi	-7.27413
▁Presiden	-7.2772
▁O	-7.28036
H	-7.28092
"	-7.2833
▁2024.	-7.28425
lan	-7.2843
▁terjadi	-7.28998
il	-7.29434
lah	-7.2985
es	-7.30265
ju	-7.30338
▁besar	-7.30474
▁hanya	-7.30552
▁lalu	-7.30958
▁atas	-7.31077
▁korban	-7.31207
lo	-7.31306
▁Bali	-7.31574
▁Ra	-7.31585
ko	-7.32237
▁Israel	-7.32847
▁rumah	-7.33857
▁memiliki	-7.33987
L	-7.34026
▁bersama	-7.34393
▁Pen	-7.35191
▁Re	-7.35419
▁Ka	-7.3583
▁ujar	-7.35887
▁Ketua	-7.36245
▁selama	-7.37604
▁re	-7.39211
G	-7.39327
▁melalui	-7.3986
nda	-7.39969
O	-7.40235
▁baik	-7.40307
▁sangat	-7.40894
),	-7.41845
▁salah	-7.42766
▁N	-7.4297
han	-7.4312
▁Pe	-7.44028
mo	-7.44109
▁kasus	-7.44141
bu	-7.44152
▁wilayah	-7.46052
▁pe	-7.4633
ca	-7.46419
▁a	-7.46471
▁pemerintah	-7.46648
ke	-7.46737
▁tim	-7.46964
▁Sa	-7.47721
▁AS	-7.4793
ai	-7.48096
gu	-7.48269
▁Rp	-7.48964
▁Sabtu	-7.49346
▁kita	-7.49445
ch	-7.49998
▁La	-7.50134
buah	-7.50358
du	-7.50913
▁sama	-7.51334
▁Pa	-7.51731
it	-7.52002
uk	-7.52243
me	-7.52605
▁R	-7.5263
▁Barat	-7.52899
▁lain	-7.53127
▁Namun	-7.53307
▁tetapi	-7.53417
no	-7.53473
do	-7.53873
uh	-7.54017
▁Minggu	-7.54152
▁2	-7.5429
00	-7.54296
hi	-7.54447
ran	-7.54472
▁kembali	-7.54491
▁Prabowo	-7.54631
bi	-7.5474
ber	-7.54822
▁PT	-7.55038
▁terus	-7.55265
w	-7.55401
am	-7.55425
▁terkait	-7.55698
▁persen	-7.55957
▁sekitar	-7.56104
ji	-7.56404
▁ka	-7.56474
▁20	-7.58463
▁hal	-7.58487
ha	-7.5858
tik	-7.59234
▁seluruh	-7.59346
wan	-7.59593
ci	-7.59681
▁Ter	-7.59879
J	-7.59963
mp	-7.60024
▁agar	-7.60297
▁Te	-7.60524
men	-7.60568
ge	-7.60863
▁tak	-7.61628
W	-7.6188
F	-7.62301
▁pun	-7.62468
▁tiga	-7.629
ne	-7.63639
▁H	-7.63762
▁p	-7.63826
ad	-7.6429
▁daerah	-7.64339
▁Men	-7.64795
et	-7.65013
▁19	-7.65143
su	-7.65472
▁De	-7.65539
go	-7.65602
vi	-7.65671
ap	-7.65846
▁hasil	-7.66096
▁W	-7.66473
▁semua	-7.66594
▁J	-7.66696
▁program	-7.66846
tar	-7.67585
▁Selatan	-7.67638
▁Al	-7.68198
▁Na	-7.68229
▁pertama	-7.68256
▁ba	-7.68344
▁V	-7.68676
▁berbaga	-7.68858
ki	-7.69131
▁lainnya	-7.69153
tor	-7.69238
▁Menurut	-7.69323
▁kali	-7.69945
▁dunia	-7.706
▁calon	-7.70647
▁Si	-7.70667
▁Menteri	-7.70765
pan	-7.7079
im	-7.71048
▁kerja	-7.71228
▁kedua	-7.71263
▁Dalam	-7.71431
▁10	-7.71449
ok	-7.72077
▁belum	-7.72283
▁L	-7.72547
co	-7.73021
▁antara	-7.73316
bo	-7.73324
▁Bu	-7.73442
▁tentang	-7.73872
ek	-7.73903
▁Ini	-7.74109
▁In	-7.74553
▁Kepala	-7.74603
▁te	-7.74654
▁RI	-7.74669
▁4	-7.74827
▁sedang	-7.75008
10	-7.7525
pe	-7.75822
▁Surabaya	-7.75882
mu	-7.76655
per	-7.76657
▁c	-7.77383
▁hukum	-7.77779
▁Bandung	-7.77935
".	-7.78122
▁membuat	-7.78198
▁pelaku	-7.78391
▁pihak	-7.78599
▁termasuk	-7.79181
wi	-7.80407
▁sejumlah	-7.80568
▁An	-7.80701
▁Timur	-7.80978
▁kota	-7.81098
▁langsung	-7.81302
▁Partai	-7.81329
▁Ro	-7.81817
▁Mu	-7.81874
▁China	-7.81935
▁anggota	-7.81945
▁Le	-7.82051
▁5	-7.82966
▁depan	-7.83142
▁de	-7.83387
11	-7.83388
▁Ri	-7.83998
▁Ja	-7.84134
▁suara	-7.84239
▁waktu	-7.84382
▁Pilkada	-7.84459
▁sejak	-7.84461
ong	-7.84468
▁Tengah	-7.84842
▁Me	-7.85038
▁Hal	-7.85081
min	-7.85126
▁Li	-7.85739
lang	-7.8585
bat	-7.86531
san	-7.87142
▁k	-7.87375
?	-7.8809
▁seorang	-7.88326
▁ma	-7.88461
▁mendukung	-7.88651
▁bulan	-7.88972
kar	-7.88982
bar	-7.89376
'	-7.89384
▁Ta	-7.8951
▁politik	-7.89897
▁Ha	-7.90245
▁sehingga	-7.90297
▁bagian	-7.90345
▁katanya	-7.90523
tra	-7.908
▁tempat	-7.91197
em	-7.91253
▁in	-7.91548
▁juta	-7.91744
▁serangan	-7.92148
▁menyampaikan	-7.9232
ia	-7.92393
▁proses	-7.9259
▁mulai	-7.92967
kat	-7.93452
▁Ci	-7.93821
v	-7.93876
▁Selain	-7.93916
▁saja	-7.94053
isi	-7.94394
▁Amerika	-7.94593
]	-7.95042
▁meningkatkan	-7.95063
▁Pada	-7.95125
▁15	-7.9547
▁perusahaan	-7.95578
▁media	-7.95603
ara	-7.95688
▁12	-7.95696
▁lagi	-7.95758
id	-7.95893
bang	-7.95925
▁tinggi	-7.95947
▁[	-7.96298
cu	-7.96508
▁Da	-7.96516
ol	-7.96969
▁ketika	-7.97438
tas	-7.98143
▁menggunakan	-7.98336
ho	-7.98418
▁be	-7.99043
dar	-7.99113
jo	-7.99195
▁sampai	-7.99333
mar	-7.99402
▁malam	-7.99544
up	-7.99889
mb	-8.00285
▁kesehatan	-8.0034
▁Bi	-8.00355
▁Tim	-8.00659
▁apa	-8.01042
▁tetap	-8.01199
▁menjelaskan	-8.01294
▁Mo	-8.01419
▁Rusia	-8.01438
x	-8.01646
lin	-8.01692
▁masa	-8.01695
▁penting	-8.02129
▁yakni	-8.02256
▁menyebut	-8.02284
▁masuk	-8.02293
▁Umum	-8.02547
▁pa	-8.02581
ve	-8.03025
angan	-8.03041
fi	-8.03177
pu	-8.0324
par	-8.03243
▁berada	-8.03286
gan	-8.03295
▁Mar	-8.03397
▁pemain	-8.03504
▁ko	-8.03587
▁Wa	-8.03646
▁Oktober	-8.03718
▁Ar	-8.0385
▁bukan	-8.03926
res	-8.03973
▁Peng	-8.0425
▁kegiatan	-8.04309
▁7	-8.0434
▁upaya	-8.04473
▁ingin	-8.04545
▁Ga	-8.04775
▁Gubernur	-8.05035
▁f	-8.0517
nd	-8.05225
▁Ku	-8.05307
ck	-8.05618
▁Kecamatan	-8.05867
hu	-8.06001
▁lanjut	-8.06102
om	-8.06137
▁air	-8.06301
nas	-8.06678
▁tersangka	-8.06808
▁produk	-8.0715
▁Juli	-8.07467
▁keluarga	-8.07473
▁Kami	-8.07509
▁Kementerian	-8.07757
st	-8.07923
ting	-8.07957
har	-8.08072
▁si	-8.08597
▁luar	-8.08703
▁kemudian	-8.0875
▁16	-8.08891
▁mendapatkan	-8.08924
ll	-8.08946
▁b	-8.09122
j	-8.09418
▁meny	-8.09643
▁November	-8.09648
▁Pem	-8.09698
▁mencapai	-8.10625
▁presiden	-8.10906
▁Tahun	-8.11083
▁ra	-8.11137
▁Mi	-8.11635
▁13	-8.11638
▁14	-8.11686
▁Wakil	-8.11789
▁Desa	-8.11827
▁la	-8.12257
▁Gaza	-8.12424
▁sebelumnya	-8.12626
▁Pemerintah	-8.12747
▁sosial	-8.12803
▁Semarang	-8.12931
dik	-8.12931
▁As	-8.13001
▁acara	-8.13218
ent	-8.13605
▁diri	-8.1376
▁perempuan	-8.13831
▁dukungan	-8.13904
▁e	-8.14006
V	-8.14069
▁Ca	-8.141
▁6	-8.14216
▁membantu	-8.14741
▁Hari	-8.14771
▁kawasan	-8.14996
▁sa	-8.15007
▁pukul	-8.1507
ian	-8.15281
ban	-8.1529
▁Bogor	-8.15363
▁jadi	-8.15493
▁Sementara	-8.15805
▁mana	-8.15834
▁Direktur	-8.15842
▁Juni	-8.16006
▁mengaku	-8.16063
ari	-8.16082
tiap	-8.161
▁11	-8.16152
▁pasangan	-8.1652
▁jalan	-8.16714
▁Polda	-8.1672
ab	-8.16794
▁Utara	-8.16996
▁To	-8.17355
▁Agustus	-8.17637
▁Mei	-8.17644
Y	-8.17647
▁nomor	-8.17706
▁18	-8.17846
▁Jalan	-8.17847
tif	-8.17901
▁Nasional	-8.1794
gen	-8.17963
▁menyatakan	-8.1797
▁mengalami	-8.18008
▁partai	-8.18159
▁Be	-8.18206
▁2023	-8.18384
▁Badan	-8.18539
za	-8.18863
atan	-8.19087
▁Foto	-8.19094
▁terakhir	-8.19103
▁21	-8.19143
▁Saya	-8.19594
▁Jadi	-8.19755
▁ekonomi	-8.19759
rang	-8.19982
eng	-8.2004
▁menunjukkan	-8.20067
▁lokasi	-8.20318
▁bi	-8.20466
mas	-8.20554
itas	-8.2077
▁bantuan	-8.2084
▁resmi	-8.20842
▁memastikan	-8.20918
orang	-8.21231
Kami	-8.21315
▁September	-8.21542
▁meminta	-8.21543
tri	-8.21544
▁jika	-8.21624
▁PPPK	-8.21733
dang	-8.22029
▁Desember	-8.2213
▁Wi	-8.22163
rah	-8.22387
bel	-8.22715
yo	-8.23144
▁le	-8.23683
▁berlangsung	-8.23796
▁DPR	-8.23899
▁jumlah	-8.23909
▁April	-8.24358
ry	-8.24416
yu	-8.24464
▁tengah	-8.24506
▁Januari	-8.24841
▁utama	-8.24875
▁Negeri	-8.24962
▁berhasil	-8.24977
▁awal	-8.25477
▁asal	-8.2565
gal	-8.25652
▁kondisi	-8.25979
▁Fa	-8.26227
tang	-8.26278
op	-8.26389
gas	-8.26494
▁gambar	-8.26553
▁United	-8.26887
▁laga	-8.26992
▁sendiri	-8.27338
mat	-8.2765
tasi	-8.27654
▁empat	-8.2775
va	-8.27978
▁Timnas	-8.28254
▁Jokowi	-8.28619
ny	-8.28695
▁polisi	-8.28756
▁melihat	-8.28924
▁soal	-8.28929
asa	-8.29075
ser	-8.2912
▁sesuai	-8.29346
▁So	-8.29495
▁Ada	-8.29716
▁mobil	-8.29819
▁berharap	-8.30025
▁ia	-8.30126
▁sebesar	-8.30129
▁Ju	-8.30201
▁nama	-8.30472
▁ujarnya	-8.30515
▁perlu	-8.30525
ham	-8.30539
▁pihaknya	-8.31038
▁bekerja	-8.31315
▁pernah	-8.31397
▁menurut	-8.31439
/2024).	-8.31592
ver	-8.31611
▁Asia	-8.31754
▁maupu	-8.31949
▁kelompok	-8.32108
▁Liga	-8.3216
os	-8.32176
jar	-8.32213
mba	-8.32271
th	-8.32707
▁militer	-8.32786
▁Trump	-8.32918
sel	-8.33205
▁Maret	-8.33388
▁17	-8.33659
▁Z	-8.33754
aya	-8.33766
▁Ko	-8.338
▁Para	-8.3381
▁Co	-8.34087
▁Ukraina	-8.34285
▁Am	-8.3439
▁pro	-8.34518
▁informasi	-8.34659
▁hadir	-8.34828
▁Mereka	-8.35199
▁nasional	-8.35225
▁Polres	-8.35713
▁8	-8.35882
por	-8.35952
▁lingkungan	-8.35987
▁Daerah	-8.36033
▁membawa	-8.3612
sta	-8.36248
▁laporan	-8.3635
▁Ru	-8.36604
▁kendaraan	-8.36758
▁tanpa	-8.36808
▁barang	-8.36951
▁yaitu	-8.36987
be	-8.36993
so	-8.37054
ahan	-8.37354
▁ge	-8.37455
▁sebelum	-8.37834
sen	-8.38106
▁Provinsi	-8.38133
adi	-8.38359
▁menerima	-8.38457
▁Anda	-8.38644
uan	-8.38673
der	-8.38885
ed	-8.3904
▁KPU	-8.39106
▁&	-8.39124
▁Bo	-8.39324
▁bakal	-8.3952
▁Komisi	-8.39646
pat	-8.39712
▁sebanyak	-8.39715
sar	-8.39777
dy	-8.39841
▁Korea	-8.39957
war	-8.40163
▁layanan	-8.40327
▁Pemilu	-8.40422
anti	-8.40809
▁ta	-8.4091
▁pers	-8.40912
▁Iran	-8.40966
▁uang	-8.41242
▁keamanan	-8.41279
▁dugaan	-8.41418
▁Do	-8.41534
▁mengungkapkan	-8.41746
lak	-8.42037
▁mengenai	-8.42089
▁melawan	-8.42405
▁22	-8.42461
▁TNI	-8.42674
▁data	-8.42681
▁paling	-8.42697
ye	-8.42779
▁adanya	-8.42863
▁kepala	-8.43105
hat	-8.43143
▁Ya	-8.43211
▁industri	-8.43296
car	-8.4344
▁dirinya	-8.4374
▁menggelar	-8.4393
24	-8.43994
/12	-8.44098
duk	-8.44232
▁masalah	-8.44426
▁kini	-8.44448
▁Pra	-8.44537
▁umum	-8.44571
▁pendidikan	-8.44715
▁menjaga	-8.4487
▁2024,	-8.44902
▁Serikat	-8.44967
▁muda	-8.44995
▁Piala	-8.45013
awa	-8.45215
▁Kon	-8.45255
pak	-8.45339
he	-8.45354
▁perang	-8.45559
▁menghadapi	-8.45856
▁Bea	-8.4587
▁bawah	-8.46078
▁harga	-8.46316
▁Saat	-8.46421
▁X	-8.46473
ker	-8.46483
▁kampanye	-8.46858
▁mendapat	-8.47157
anak	-8.47174
▁30	-8.47182
▁pertandingan	-8.47312
▁Ge	-8.47613
▁lima	-8.47686
jang	-8.47765
▁Pu	-8.47967
au	-8.48069
▁cukup	-8.48074
ag	-8.48143
▁Lu	-8.48219
▁Pro	-8.48648
▁Tu	-8.48844
▁Anies	-8.49049
▁keterangan	-8.49118
kin	-8.49148
▁pembangunan	-8.4915
jak	-8.49472
▁memang	-8.49513
%	-8.49615
▁Pusat	-8.4967
akan	-8.49734
▁sementara	-8.49874
ring	-8.50089
▁segera	-8.50136
kap	-8.50214
sh	-8.50257
ip	-8.5029
▁miliar	-8.50291
▁bukti	-8.5052
▁surat	-8.50523
angka	-8.50599
sah	-8.50633
▁Ia	-8.5064
▁su	-8.50738
▁KPK	-8.50877
▁23	-8.50919
▁ibu	-8.50995
▁langkah	-8.51027
▁Negara	-8.51291
ding	-8.51372
▁tingkat	-8.51814
▁mungkin	-8.51866
▁urut	-8.51872
▁senjata	-8.52159
▁negeri	-8.52185
ten	-8.52558
▁akibat	-8.52664
▁Papua	-8.52772
ic	-8.52837
▁milik	-8.52838
▁lama	-8.5284
ris	-8.52883
▁Yo	-8.53027
ud	-8.53094
▁menge	-8.53094
▁Solo	-8.53106
fa	-8.53113
▁jelas	-8.53191
▁of	-8.53284
▁Stadion	-8.53306
▁Universitas	-8.53306
▁No	-8.53343
isasi	-8.53411
▁Kantor	-8.53473
ling	-8.53564
pen	-8.53667
PK	-8.53841
lon	-8.53865
▁digelar	-8.53955
rat	-8.53978
▁pernyataan	-8.54007
▁Yu	-8.54148
diri	-8.54179
ton	-8.54325
▁mampu	-8.54359
▁kebijakan	-8.54387
las	-8.54407
▁mendatang	-8.54932
▁sekolah	-8.54951
▁Ahmad	-8.55424
PP	-8.55533
uhan	-8.55545
▁mantan	-8.55815
▁9	-8.55914
▁sistem	-8.55919
but	-8.55927
▁Pak	-8.55932
ron	-8.55984
Se	-8.55994
▁internasional	-8.5614
▁Setelah	-8.5617
15	-8.56415
aman	-8.56516
▁kebutuhan	-8.56583
▁Palestina	-8.56596
▁hak	-8.56869
▁meninggal	-8.56981
▁'	-8.57031
bur	-8.57063
asan	-8.57308
▁Du	-8.57626
▁angka	-8.57668
ger	-8.5773
▁merasa	-8.5789
▁pejabat	-8.57924
pas	-8.57969
tur	-8.58344
▁Keterangan	-8.58432
negara	-8.58494
▁siap	-8.58751
▁pemilu	-8.58774
ita	-8.58803
▁Har	-8.58807
▁menga	-8.58894
▁diper	-8.58972
▁Polisi	-8.59034
▁hidup	-8.59046
usia	-8.59178
▁memb	-8.59268
▁Ganjar	-8.59627
17	-8.59759
▁datang	-8.59775
▁He	-8.59827
▁Cukai	-8.5997
pres	-8.60002
▁pekan	-8.60118
SI	-8.60152
▁akhir	-8.60245
empat	-8.6029
▁punya	-8.60363
▁Polri	-8.60395
▁Lo	-8.60536
aksi	-8.60548
▁Vi	-8.60565
▁publik	-8.60604
▁Mas	-8.60685
▁sekaligus	-8.60835
▁mendorong	-8.60857
▁25	-8.60861
▁cara	-8.61102
tal	-8.61203
▁Ni	-8.61322
tim	-8.61555
23	-8.61676
▁ucap	-8.61721
ket	-8.6212
▁hujan	-8.62176
dak	-8.62245
▁Dan	-8.6235
▁mene	-8.62508
▁makanan	-8.62587
▁diduga	-8.62771
▁ungkap	-8.62787
▁Depok	-8.62824
▁sakit	-8.62903
▁bahkan	-8.62954
▁rasa	-8.63145
▁Gu	-8.63202
▁Bank	-8.63241
▁Bupati	-8.63299
▁akhirnya	-8.633
▁terbaru	-8.63316
▁wakil	-8.63339
▁tanah	-8.63615
16	-8.63714
▁aman	-8.63762
ada	-8.63826
hal	-8.63863
▁ribu	-8.63926
▁pasar	-8.63968
▁kon	-8.63972
▁motor	-8.6429
▁pemimpin	-8.64372
▁guru	-8.64676
▁Hu	-8.64685
▁Februari	-8.64733
▁Hamas	-8.64766
▁aksi	-8.64812
▁Kar	-8.64914
▁Untuk	-8.6509
▁menilai	-8.65095
mer	-8.65117
nal	-8.65268
▁listrik	-8.65337
nan	-8.65444
▁kejadian	-8.6558
lar	-8.65864
if	-8.66048
▁Deng	-8.66213
unt	-8.66401
▁digunakan	-8.66439
▁Ti	-8.66625
▁eks	-8.66726
AN	-8.66759
aga	-8.66768
dan	-8.6682
▁Meng	-8.66917
▁menegaskan	-8.66925
▁Biden	-8.66957
pol	-8.66996
▁Jatim	-8.67033
▁jam	-8.67037
▁24	-8.67102
▁kalau	-8.67173
▁Wali	-8.67211
gar	-8.67226
▁ditemukan	-8.67238
▁Persib	-8.67242
▁menuju	-8.67526
▁ga	-8.67615
ksi	-8.67615
▁kapal	-8.6767
▁Kemen	-8.67789
▁Nomor	-8.67853
▁menambahkan	-8.67869
dah	-8.67916
▁pemerintahan	-8.67936
▁li	-8.67939
▁berjalan	-8.68022
▁Pan	-8.68049
▁Banten	-8.68229
lam	-8.68265
▁m	-8.68274
▁peny	-8.68303
AS	-8.6844
▁teknologi	-8.68476
▁Pol	-8.68921
▁peserta	-8.68977
bah	-8.69049
kal	-8.69156
tah	-8.69305
▁tewas	-8.69356
po	-8.69362
ono	-8.69478
▁memberi	-8.6952
pun	-8.69555
▁DKI	-8.69723
▁petugas	-8.69734
▁Jepang	-8.6975
▁menye	-8.69993
▁bu	-8.7001
▁bisnis	-8.70178
▁maka	-8.70257
▁The	-8.70412
▁Baru	-8.70607
18	-8.70874
sama	-8.70929
awan	-8.71112
▁Jo	-8.7117
13	-8.71194
▁bali	-8.71237
▁Adapun	-8.71292
▁tahu	-8.71365
tis	-8.71372
▁sempat	-8.71493
▁Salah	-8.71747
▁komitmen	-8.72039
▁usaha	-8.72188
▁terutama	-8.72299
▁sebagian	-8.72301
rak	-8.72335
▁Je	-8.72398
▁musim	-8.72494
din	-8.72509
▁pemeriksaan	-8.72624
▁meraih	-8.72755
semakin	-8.72822
▁ketiga	-8.72827
▁kantor	-8.72844
▁Eropa	-8.72886
▁terbaik	-8.7318
▁periode	-8.73213
▁khusus	-8.7326
▁sektor	-8.7328
cam	-8.73347
▁Pertamina	-8.73607
▁Po	-8.73741
▁Jenderal	-8.73804
▁diberikan	-8.73837
22	-8.7386
mal	-8.73863
▁Kemudian	-8.7387
▁potensi	-8.73936
PN	-8.74006
son	-8.74163
rasi	-8.74212
yang	-8.74438
45	-8.74514
▁Program	-8.74732
▁Hi	-8.74762
▁Calon	-8.74834
undang	-8.74864
▁jatim	-8.74866
▁mau	-8.74909
▁berinisial	-8.75065
▁Subianto	-8.75199
▁posisi	-8.75287
20	-8.75347
▁hubungan	-8.754
▁gol	-8.75422
pul	-8.75521
▁Her	-8.75696
▁cepat	-8.75704
▁cuaca	-8.75735
▁korupsi	-8.75802
▁mengikuti	-8.7587
▁Dinas	-8.75994
▁Sam	-8.76053
▁n	-8.76194
ns	-8.76305
▁pi	-8.76326
▁selalu	-8.76352
▁desa	-8.76454
ly	-8.76628
rus	-8.76682
▁membangun	-8.76817
lik	-8.76843
ot	-8.76902
RI	-8.77012
▁Tak	-8.77046
od	-8.77048
▁meningkat	-8.77178
lis	-8.77236
Ke	-8.77283
▁perubahan	-8.77362
jen	-8.77443
▁digital	-8.77572
▁rakyat	-8.77704
▁disampaikan	-8.78185
▁video	-8.78256
aran	-8.78261
▁memper	-8.78387
▁jabar	-8.78464
kon	-8.78522
▁ikut	-8.78812
baik	-8.78815
▁menang	-8.78852
▁Jabar	-8.78987
▁mahasiswa	-8.79015
▁keputusan	-8.79086
▁pertemuan	-8.79713
▁Jateng	-8.79753
▁27	-8.79849
pang	-8.79968
▁film	-8.79993
est	-8.80069
▁bentuk	-8.80137
▁pemilihan	-8.80292
AR	-8.80337
kas	-8.80399
kam	-8.80639
▁wa	-8.80716
▁tindakan	-8.80798
29	-8.80807
▁disebut	-8.8084
▁Agung	-8.80841
vo	-8.8092
▁ku	-8.8104
den	-8.8106
▁Agus	-8.8107
▁nanti	-8.81202
▁kesempatan	-8.81263
▁FC	-8.81294
sih	-8.81377
▁kemenangan	-8.81406
▁perjalanan	-8.8162
Gibran	-8.81667
▁Pelatih	-8.8169
▁PBB	-8.81765
Saya	-8.81785
▁peningkatan	-8.81833
port	-8.81836
▁jauh	-8.82049
▁Ce	-8.82149
▁jenis	-8.82346
▁Tidak	-8.82446
▁Dewan	-8.82548
▁tu	-8.8264
hari	-8.82839
▁udara	-8.82911
lus	-8.83025
▁terpilih	-8.83055
▁membuka	-8.83149
▁Gibran	-8.83152
▁dekat	-8.83157
▁Inggris	-8.83418
▁mi	-8.83471
30	-8.83715
tin	-8.83744
▁kurang	-8.83812
▁memilih	-8.84
▁enam	-8.84004
/2024	-8.84151
bun	-8.84203
▁seusai	-8.84236
▁kuat	-8.8425
▁poin	-8.84296
▁mengambil	-8.84301
ungan	-8.84457
▁Budi	-8.84473
▁bahan	-8.84492
▁Air	-8.848
▁tinggal	-8.84807
q	-8.84856
▁nilai	-8.84869
sis	-8.85045
mbu	-8.85098
▁turun	-8.85177
▁menjalani	-8.85178
▁kecil	-8.85213
▁2022	-8.85232
▁begitu	-8.85249
28	-8.85275
mpu	-8.85277
▁Golkar	-8.85413
ner	-8.85431
▁tenaga	-8.85472
▁mer	-8.85569
▁arah	-8.85574
▁daya	-8.85616
▁UMKM	-8.85676
▁PP	-8.85804
▁Denpasar	-8.85917
▁Kom	-8.8594
▁menit	-8.8595
▁jawab	-8.85991
▁Hukum	-8.86007
▁Nur	-8.86053
▁pria	-8.86116
▁Warga	-8.86212
▁terlibat	-8.86216
▁Rumah	-8.86308
▁Pemilihan	-8.86364
▁saksi	-8.86444
▁ya	-8.86449
▁for	-8.86541
▁200	-8.8667
▁Tri	-8.86855
▁memenuhi	-8.86889
▁melaporkan	-8.86889
kah	-8.87047
ster	-8.87143
▁penuh	-8.87239
anto	-8.87388
▁online	-8.87417
tak	-8.87442
▁pusat	-8.87493
▁San	-8.87561
we	-8.87586
▁bidang	-8.877
▁biasa	-8.87722
▁dampak	-8.87795
▁ruang	-8.8784
ras	-8.87937
▁Jaya	-8.88086
baru	-8.88173
▁berdasarkan	-8.88175
▁06	-8.88262
ty	-8.88282
MI	-8.88446
▁PDIP	-8.88608
▁Man	-8.88795
▁mo	-8.88822
50	-8.88939
▁ditangkap	-8.8917
fo	-8.89247
▁bagaimana	-8.89247
bal	-8.89595
▁2025	-8.8962
▁fasilitas	-8.89942
▁rencana	-8.90098
ANG	-8.90162
▁operasi	-8.90261
▁g	-8.90267
▁Dari	-8.9027
▁global	-8.9033
▁Australia	-8.90486
▁khususnya	-8.90508
▁laut	-8.90692
▁lembaga	-8.90709
▁sumber	-8.90721
▁Pi	-8.90839
26	-8.90874
▁09	-8.9099
▁maju	-8.91138
▁Menurutnya	-8.91167
nilai	-8.91247
▁ASN	-8.91351
▁08	-8.91397
cur	-8.91422
▁positif	-8.91504
▁sekarang	-8.91505
▁Gedung	-8.91681
dia	-8.91703
▁Raya	-8.91749
ram	-8.9176
▁Dis	-8.91873
▁honorer	-8.91898
▁pekerja	-8.91901
▁to	-8.91977
▁Dunia	-8.9207
▁Riau	-8.92123
▁satunya	-8.92144
ment	-8.92153
KP	-8.92195
rin	-8.92316
masing	-8.92443
▁lintas	-8.92454
bak	-8.92506
▁banjir	-8.92532
▁Utama	-8.92535
▁Perjuangan	-8.92692
▁menemukan	-8.92692
▁total	-8.93112
▁Besar	-8.93477
▁Y	-8.93562
▁pagi	-8.93807
▁tegas	-8.93819
▁gubernur	-8.93893
▁keras	-8.93939
▁penghargaan	-8.94055
▁unit	-8.94303
NG	-8.94309
▁kekerasan	-8.94378
▁bermain	-8.94404
▁ki	-8.94408
X	-8.94674
kir	-8.94756
ow	-8.94787
▁Mus	-8.94858
▁and	-8.94963
PD	-8.95427
ria	-8.95559
zi	-8.95567
▁Ad	-8.95679
▁hampir	-8.95683
▁setempat	-8.95711
les	-8.95759
▁tepat	-8.95924
▁pidana	-8.9602
▁tahap	-8.96023
sep	-8.96191
▁pasukan	-8.96352
▁sekali	-8.96352
▁Par	-8.96375
ator	-8.96415
tro	-8.96425
▁tentu	-8.96427
▁manusia	-8.96674
sus	-8.96684
▁lapangan	-8.96922
▁Republik	-8.97171
▁Mem	-8.97233
▁naik	-8.97252
▁Ali	-8.97293
▁26	-8.97356
▁penyidik	-8.97422
▁Yogyakarta	-8.97505
gang	-8.97549
▁Pas	-8.9778
▁II	-8.97845
▁berita	-8.9792
▁Dua	-8.97951
▁antaranya	-8.97962
▁mata	-8.98169
▁menyebabkan	-8.98176
▁masing	-8.98262
▁07	-8.9831
▁lu	-8.98353
▁pemilih	-8.98407
end	-8.98434
▁Pri	-8.98549
▁energi	-8.98682
▁UU	-8.98748
▁28	-8.98777
jah	-8.98918
ndang	-8.99054
▁guna	-8.99104
▁namun	-8.99117
mak	-8.99154
▁menjelang	-8.99198
▁Ser	-8.99263
▁mela	-8.9929
fe	-8.99398
kum	-8.99531
sepanjang	-8.99547
sia	-8.99677
pri	-8.99682
▁akses	-8.99788
dung	-8.9981
ana	-8.9987
▁sipil	-8.99873
unjuk	-9.00029
▁Muhammad	-9.00036
und	-9.00479
je	-9.00523
▁pelanggaran	-9.0056
▁j	-9.00569
▁DPRD	-9.00597
▁istri	-9.00649
▁berke	-9.00651
▁Tan	-9.00744
▁api	-9.00789
▁memperkuat	-9.00819
▁peran	-9.00949
▁Joko	-9.00951
▁29	-9.01115
▁menarik	-9.01166
▁lokal	-9.01272
PS	-9.01364
lek	-9.01412
ukan	-9.01436
IN	-9.01521
31	-9.01555
▁BRI	-9.01565
▁turut	-9.01692
▁Ki	-9.01749
ifikasi	-9.01756
tam	-9.01797
▁jalur	-9.01948
-20	-9.02013
▁Dr	-9.02046
▁menyebutkan	-9.02164
▁tubuh	-9.02386
▁fokus	-9.02553
▁Islam	-9.02581
▁berbeda	-9.02607
▁sering	-9.02674
▁mencari	-9.02739
▁PDI	-9.02786
▁akun	-9.02872
nis	-9.02878
▁tangan	-9.02959
▁menghadirkan	-9.03179
▁Kerja	-9.03271
▁tapi	-9.03331
▁perkara	-9.03368
AM	-9.03433
▁kualitas	-9.03445
▁bertemu	-9.03459
sal	-9.03492
▁mudah	-9.0365
▁Apa	-9.03697
▁sedikit	-9.03712
▁Kesehatan	-9.038
apan	-9.03801
▁na	-9.03919
▁Ne	-9.03968
▁Za	-9.04042
▁demikian	-9.04068
▁kemungkinan	-9.04246
▁benar	-9.04304
▁narkoba	-9.04406
▁belakang	-9.04425
▁sisi	-9.04482
▁pel	-9.04607
▁kemarin	-9.04607
▁demi	-9.04608
▁menciptakan	-9.04784
▁tugas	-9.04819
12	-9.04821
▁bicara	-9.05054
▁target	-9.05234
▁Gus	-9.05342
▁dimulai	-9.05426
▁Anak	-9.05456
NI	-9.05458
etika	-9.05547
▁Go	-9.05725
▁Ben	-9.05748
▁terdapat	-9.05778
gam	-9.05837
▁diketahui	-9.05868
▁pengalaman	-9.05869
gra	-9.05901
alisasi	-9.0592
▁jabatan	-9.05959
▁keuangan	-9.06053
uji	-9.06084
▁02	-9.06121
▁tujuan	-9.06147
▁muncul	-9.06155
▁Widodo	-9.06324
ncang	-9.06343
▁menteri	-9.0642
▁Ho	-9.06467
▁je	-9.06528
▁manfaat	-9.06598
pro	-9.06661
▁Karena	-9.06703
▁pelaksanaan	-9.06716
▁keterangannya	-9.06748
▁Anggota	-9.06781
▁ajang	-9.06798
▁Sen	-9.06863
▁Sebelumnya	-9.07032
▁asing	-9.07034
UNG	-9.07062
ensi	-9.07085
rd	-9.07225
▁Prof	-9.07227
ulang	-9.07248
▁isu	-9.07294
▁pembunuhan	-9.07333
▁Luar	-9.07469
PU	-9.07642
▁situasi	-9.07703
▁pengembangan	-9.07703
▁tuturnya	-9.07714
▁pengguna	-9.07738
▁DPP	-9.07763
▁05	-9.08061
▁kecelakaan	-9.08073
▁Lebih	-9.08074
▁proyek	-9.08074
▁luas	-9.08127
▁Kedua	-9.08262
ven	-9.08329
▁Kombes	-9.08353
▁(20	-9.08372
dam	-9.0843
▁Masyarakat	-9.08632
ation	-9.08632
▁organisasi	-9.08636
▁04	-9.08644
▁Ir	-9.08787
▁pertumbuhan	-9.08819
▁Pilpres	-9.08913
▁menu	-9.08982
satu	-9.08986
tek	-9.09169
▁Bidang	-9.09187
▁ilegal	-9.09194
▁Is	-9.09194
formasi	-9.09467
▁Malang	-9.09504
▁Laut	-9.09542
▁Sumatera	-9.09571
▁tua	-9.09583
ali	-9.09643
wo	-9.0968
▁Sat	-9.09685
▁Humas	-9.09709
;	-9.09759
▁Demokrat	-9.09759
▁Aceh	-9.09763
▁Itu	-9.09819
▁produksi	-9.09875
▁pesawat	-9.10043
▁putusan	-9.1005
▁melaksanakan	-9.10138
kit	-9.10161
▁tiba	-9.10163
▁mengumumkan	-9.10233
▁bernama	-9.10235
▁diharapkan	-9.10423
▁ucapnya	-9.10593
tahun	-9.10682
uran	-9.10772
▁panjang	-9.10806
▁Ari	-9.11062
▁Gi	-9.1109
▁emas	-9.11178
▁berat	-9.11239
25	-9.11556
bil	-9.11562
▁Tangerang	-9.11763
▁diterima	-9.11763
▁Dar	-9.11951
put	-9.11952
▁tanggal	-9.11955
ff	-9.11971
▁area	-9.12015
ben	-9.12022
▁bangsa	-9.12062
era	-9.12469
▁dikenal	-9.12539
▁melibatkan	-9.12635
▁suami	-9.12733
▁apakah	-9.12874
▁Mer	-9.1299
▁Bawaslu	-9.13036
▁sang	-9.1311
▁penyakit	-9.13123
▁aturan	-9.13137
▁alasan	-9.13245
log	-9.13308
▁AKBP	-9.13318
▁Bagi	-9.13328
eberapa	-9.13482
enang	-9.13525
▁pangan	-9.13608
▁SURABAYA	-9.13612
▁kepolisian	-9.13612
▁memimpin	-9.13612
daya	-9.13653
gel	-9.13677
ura	-9.13681
▁makin	-9.13689
▁Pengadilan	-9.1371
▁Hasil	-9.13713
▁At	-9.13804
▁Arab	-9.13817
▁kasih	-9.13987
▁titik	-9.14017
mula	-9.14033
hub	-9.14142
▁usia	-9.14165
▁alias	-9.14206
▁budaya	-9.1422
▁makan	-9.14223
kom	-9.14337
▁Pendidikan	-9.144
olah	-9.14415
▁03	-9.14427
▁01	-9.14466
rata	-9.14581
uri	-9.14644
▁tantangan	-9.14698
▁Satu	-9.14984
▁Selama	-9.15067
▁terlihat	-9.15096
alih	-9.15117
▁Sekretaris	-9.15195
▁peluang	-9.15196
▁lewat	-9.15215
▁alat	-9.15283
ologi	-9.1535
indah	-9.15444
▁Meski	-9.15479
ndu	-9.15565
sari	-9.15656
benar	-9.15911
0.000	-9.15917
lt	-9.15979
▁sidang	-9.15984
▁Sebagai	-9.15991
tus	-9.1605
ret	-9.16079
PO	-9.16121
▁Kalau	-9.1618
▁personel	-9.16198
▁kunjungan	-9.16198
▁sana	-9.16346
▁Trans	-9.16417
ua	-9.16426
▁terbesar	-9.16501
mah	-9.16518
kor	-9.16557
ral	-9.1657
▁lo	-9.16678
▁survei	-9.16703
bas	-9.1672
▁unggul	-9.16722
▁pilihan	-9.16776
▁bola	-9.16823
PA	-9.16865
▁tampil	-9.16905
▁pasti	-9.17095
▁melanjutkan	-9.17108
▁dibandingkan	-9.17219
leg	-9.17269
▁kepentingan	-9.17312
▁anggaran	-9.17517
▁mencatat	-9.17618
kri	-9.17675
▁pendukung	-9.17823
tion	-9.17828
sum	-9.18004
yar	-9.18062
mbak	-9.18141
▁berupa	-9.18167
ler	-9.18206
▁Kasus	-9.1822
cap	-9.18251
▁triliun	-9.18336
▁bencana	-9.18363
kh	-9.18406
▁Uni	-9.1882
▁berkomitmen	-9.18852
▁enggak	-9.19073
▁100	-9.19142
mur	-9.19149
▁berasal	-9.19276
▁tokoh	-9.19362
▁konflik	-9.19475
▁seleksi	-9.19476
▁mengajak	-9.19514
▁badan	-9.19569
bagi	-9.19577
▁tujuh	-9.19579
35	-9.19719
▁non	-9.19849
imbang	-9.19941
bit	-9.19967
▁aktif	-9.20149
II	-9.20469
▁pelayanan	-9.20627
▁strategis	-9.20644
▁musik	-9.20733
tujuan	-9.20734
hati	-9.20812
▁investasi	-9.20838
▁Ibu	-9.20913
IP	-9.20962
▁We	-9.21024
lain	-9.21106
▁penjara	-9.21269
kira	-9.21313
▁konferensi	-9.21482
▁Lampung	-9.21503
ajar	-9.21565
hak	-9.21823
▁pesan	-9.21875
▁Palembang	-9.21899
▁lahan	-9.21975
▁terbuka	-9.22007
▁al	-9.22013
▁31	-9.22216
cer	-9.22237
▁tindak	-9.22388
lia	-9.22425
▁kinerja	-9.22433
▁Jerman	-9.22434
▁dini	-9.22482
▁luka	-9.22546
▁provinsi	-9.22648
21	-9.22719
▁sehat	-9.22783
▁Un	-9.22787
ses	-9.22906
▁dilaksanakan	-9.22971
▁Car	-9.23017
25/	-9.23031
▁Oleh	-9.2308
▁dilaporkan	-9.23187
▁50	-9.23358
▁siapa	-9.23396
pel	-9.23466
ning	-9.23495
▁DPD	-9.23529
▁Metro	-9.23566
▁Pos	-9.23572
cah	-9.2365
▁babak	-9.23688
lepas	-9.2376
▁solusi	-9.23785
▁jelasnya	-9.23843
▁penumpang	-9.23946
▁formasi	-9.23973
▁final	-9.24062
luk	-9.24119
▁Kapolres	-9.24164
▁BMKG	-9.24203
▁Korupsi	-9.24273
tel	-9.24348
▁Ang	-9.24402
wal	-9.24452
▁BUMN	-9.24492
▁Bekasi	-9.24495
▁keluar	-9.2459
▁Pasal	-9.24635
wah	-9.2464
19/	-9.24695
land	-9.24762
▁gratis	-9.24821
▁Nusantara	-9.24931
dag	-9.24941
▁En	-9.25007
▁dianggap	-9.25044
bin	-9.25058
▁perdana	-9.25112
PI	-9.25174
sya	-9.25209
▁latihan	-9.25372
bul	-9.25668
▁berusaha	-9.25748
▁Sri	-9.25749
21/	-9.25795
atur	-9.25863
▁teman	-9.25946
mun	-9.26009
▁sini	-9.26095
▁pekerjaan	-9.26169
▁aktivitas	-9.26259
▁penggunaan	-9.26276
KI	-9.2647
▁ternyata	-9.26519
▁Mahkamah	-9.26594
▁Prancis	-9.26594
▁biaya	-9.26667
▁BAND	-9.26819
▁aku	-9.26857
▁sampah	-9.2693
▁mar	-9.26931
▁dana	-9.2715
▁mere	-9.27184
qu	-9.27192
▁mengungkap	-9.27282
▁Sin	-9.2729
▁berupaya	-9.27462
▁pentingnya	-9.27608
▁pendaftaran	-9.27831
lok	-9.27971
27/	-9.27997
ine	-9.28042
▁tampak	-9.28058
▁menolak	-9.28059
▁generasi	-9.28171
▁Sumber	-9.28287
jaya	-9.28358
▁India	-9.28523
af	-9.28623
▁siswa	-9.2863
▁peristiwa	-9.28855
nder	-9.29029
▁menangkap	-9.29119
▁aplikasi	-9.29313
oto	-9.29375
▁wartawan	-9.29543
PB	-9.29546
pon	-9.29582
▁ialah	-9.29616
▁Filipina	-9.29659
▁Kalimantan	-9.29659
▁semangat	-9.29774
▁lagu	-9.29802
▁Gerindra	-9.29889
▁ditetapkan	-9.29889
▁penyelidikan	-9.29889
▁jaringan	-9.2989
cat	-9.29936
▁lantaran	-9.30121
PAN	-9.30156
nah	-9.30213
▁demokrasi	-9.30353
▁Berdasar	-9.30469
▁sulit	-9.30492
▁El	-9.30626
▁pelatih	-9.30631
▁Sya	-9.30873
▁Bang	-9.3088
▁kematian	-9.30935
▁petani	-9.3094
▁pribadi	-9.31052
▁Ramadan	-9.31052
lay	-9.31107
▁hakim	-9.31151
▁Instagram	-9.31286
▁pertahanan	-9.3152
▁War	-9.31639
▁Undang	-9.31684
▁Han	-9.31705
▁Siap	-9.31738
▁Sebanyak	-9.31755
IS	-9.31779
RT	-9.31785
▁Ilustrasi	-9.31873
▁pimpinan	-9.31873
PT	-9.31873
▁putra	-9.31995
ambil	-9.32012
▁Q	-9.32036
▁mengetahui	-9.32109
▁memenangkan	-9.3211
▁paslon	-9.32129
▁selatan	-9.32353
hitung	-9.32364
onal	-9.32422
▁Lebanon	-9.32464
▁ancaman	-9.32465
AT	-9.32474
▁ratusan	-9.32702
▁meskipun	-9.32717
angga	-9.32731
van	-9.32733
jam	-9.32896
▁he	-9.3299
▁Malaysia	-9.33059
▁signifikan	-9.33059
▁judi	-9.33075
unjung	-9.33109
▁komunitas	-9.33178
▁Putih	-9.33179
▁hukuman	-9.33195
▁ringan	-9.3321
▁bus	-9.33268
▁dasar	-9.33303
jateng	-9.33306
Z	-9.33446
▁Baswedan	-9.33537
▁menyediakan	-9.33537
▁perhatian	-9.33539
gara	-9.3363
▁skor	-9.33647
▁kolaborasi	-9.33657
▁Kali	-9.33697
▁PKB	-9.33785
ambang	-9.33805
▁Perdana	-9.33844
▁menghadiri	-9.3388
▁hati	-9.33894
▁HAM	-9.33967
▁mencegah	-9.34018
▁Serang	-9.34074
nia	-9.34083
▁menjabat	-9.34138
▁kelas	-9.34281
▁Sal	-9.34388
▁Im	-9.34451
▁peringatan	-9.34502
▁jajaran	-9.34622
▁kenaikan	-9.34622
▁menjalankan	-9.34625
▁Korban	-9.34743
▁ulang	-9.34805
▁dikutip	-9.34988
▁Cha	-9.3503
kota	-9.35077
▁Pasar	-9.3508
for	-9.35201
▁Tenggara	-9.35229
▁dr	-9.35261
lit	-9.35335
▁JPNN	-9.35521
▁gagal	-9.35527
hil	-9.35579
▁TPS	-9.35624
kali	-9.3571
▁Mantan	-9.35751
▁komp	-9.35762
▁MK	-9.35802
▁inovasi	-9.3584
40	-9.35849
▁buat	-9.35884
▁pegawai	-9.35963
▁Gunung	-9.35964
▁mengurangi	-9.36209
▁juara	-9.36212
▁libur	-9.36252
AL	-9.36324
▁Keuangan	-9.36333
▁dokter	-9.3638
:00	-9.36434
▁minggu	-9.36456
ec	-9.36622
▁membutuhkan	-9.36702
rawat	-9.36812
▁Paris	-9.36812
▁perbatasan	-9.36827
▁rapat	-9.36907
▁terima	-9.36973
▁Kegiatan	-9.37074
▁gelar	-9.37134
lem	-9.37187
▁im	-9.37226
▁platform	-9.37323
▁pos	-9.3738
▁Pilgub	-9.37447
▁kekuatan	-9.37573
▁BBC	-9.37574
ren	-9.37612
▁meluncurkan	-9.37697
▁memutuskan	-9.37697
▁izin	-9.37697
▁Suriah	-9.37824
▁New	-9.37836
lly	-9.37848
▁Pj	-9.37933
▁berkelanjutan	-9.37947
▁Berikut	-9.37947
▁2023.	-9.38186
ohon	-9.38236
▁pas	-9.38284
▁MotoGP	-9.38323
bon	-9.38342
▁kemampuan	-9.38449
▁menewaskan	-9.38449
▁40	-9.3849
▁co	-9.38615
▁menunggu	-9.38646
▁Orang	-9.38757
buru	-9.38846
▁Internasional	-9.38954
▁jadwal	-9.3908
sing	-9.3911
▁boleh	-9.39219
▁bebas	-9.39254
▁Er	-9.3926
encana	-9.39324
▁delapan	-9.39334
uddin	-9.39357
isme	-9.39391
pah	-9.39444
▁vs	-9.39484
▁berisi	-9.39767
▁Hasto	-9.39846
▁membahas	-9.40099
▁momen	-9.4012
yanto	-9.4022
jur	-9.40291
▁Kita	-9.4032
kes	-9.40324
▁konsumen	-9.40355
▁Tol	-9.40398
banding	-9.4062
reskrim	-9.40741
Per	-9.40811
▁undang	-9.40829
$	-9.40869
▁menekankan	-9.40879
stan	-9.40942
▁mengajukan	-9.41
▁Jika	-9.41006
▁dibawa	-9.41071
▁Sebab	-9.4113
▁ANTARA	-9.41134
▁Pihak	-9.41276
12/	-9.41351
▁mencoba	-9.41387
▁MA	-9.41417
ky	-9.41472
ft	-9.4158
▁puluhan	-9.41647
▁aparat	-9.41648
▁siang	-9.41676
▁For	-9.41744
rs	-9.41767
▁menetapkan	-9.41776
▁Bandara	-9.41777
rum	-9.4178
Ba	-9.41806
▁dokumen	-9.41907
hasil	-9.41934
▁wisata	-9.41987
guna	-9.42007
▁Sulawesi	-9.42037
▁Grup	-9.42039
▁foto	-9.42118
▁Pembangunan	-9.42167
▁Ridwan	-9.42168
pp	-9.42203
dal	-9.42225
▁ketua	-9.4232
▁selesai	-9.42429
▁Shin	-9.42454
▁mengatasi	-9.42494
▁Muda	-9.42667
angkut	-9.42763
awal	-9.42778
ON	-9.42799
▁penerima	-9.42823
▁sukses	-9.42823
▁Operasi	-9.42823
laki	-9.42936
▁alam	-9.42962
▁tutur	-9.42978
TP	-9.43046
▁Wilayah	-9.43086
▁sejarah	-9.43088
my	-9.43096
▁kader	-9.43109
ASAR	-9.43118
▁risiko	-9.43218
mus	-9.43231
▁Yang	-9.43238
bek	-9.43248
▁kemanusiaan	-9.4335
▁menawarkan	-9.4335
bagai	-9.43392
ity	-9.43499
ac	-9.43606
▁penduduk	-9.43747
ENP	-9.43748
▁Saudi	-9.43752
▁Tang	-9.4379
NA	-9.44021
MK	-9.44046
▁mengakui	-9.44083
▁uji	-9.4416
tengah	-9.4421
▁mengeluarkan	-9.4428
▁justru	-9.44413
▁Center	-9.44415
▁IKN	-9.44459
▁Rakabuming	-9.44547
one	-9.44549
▁Lan	-9.44557
gah	-9.4457
▁menuturkan	-9.44681
▁nyata	-9.44714
▁harapan	-9.4476
▁debat	-9.4488
▁Rakyat	-9.44949
▁Politik	-9.4495
Men	-9.45123
▁III	-9.45134
rem	-9.4535
▁anti	-9.4535
▁International	-9.45353
▁Begini	-9.45353
▁tertinggi	-9.45353
▁sore	-9.45591
▁percaya	-9.45604
BK	-9.45622
▁kebakaran	-9.45623
▁agama	-9.45628
▁Abdul	-9.4569
jer	-9.45751
▁mengamankan	-9.45762
▁Adi	-9.45771
rama	-9.45814
▁2021	-9.45868
adu	-9.46004
▁status	-9.46008
▁menyambut	-9.46029
▁bangunan	-9.46029
▁gabungan	-9.46029
▁Group	-9.4603
▁bersih	-9.46149
▁kabupaten	-9.46165
▁kandidat	-9.46165
▁bagus	-9.46168
▁berkembang	-9.46303
antara	-9.46373
▁Koordinator	-9.46437
▁berlaku	-9.46445
spek	-9.46446
▁mengembangkan	-9.46449
▁Perempuan	-9.46574
▁kalah	-9.46634
▁kehidupan	-9.46712
ansyah	-9.46793
▁Raka	-9.46825
▁meski	-9.46833
▁Thailand	-9.46984
▁sosok	-9.46985
▁Indra	-9.46989
▁Min	-9.46998
▁antar	-9.47221
lokasi	-9.47231
▁dinilai	-9.47234
▁bergabung	-9.47259
▁kesejahteraan	-9.47398
henti	-9.47527
BP	-9.47623
▁CPNS	-9.47672
▁lakukan	-9.47675
▁meter	-9.47711
▁jasa	-9.47895
elalui	-9.48031
▁perkembangan	-9.48087
▁Dukung	-9.48097
pot	-9.48116
▁kategori	-9.48226
▁Airlangga	-9.48226
migrasi	-9.48239
!	-9.48365
▁berbicara	-9.48365
▁buah	-9.48366
▁ha	-9.48394
▁rangka	-9.4862
▁Sukabumi	-9.48643
▁pemungutan	-9.48793
tun	-9.48911
ER	-9.48968
▁bergerak	-9.49063
▁menyerang	-9.49122
▁RS	-9.49134
▁mengingatkan	-9.49212
reng	-9.49253
trans	-9.49588
▁pengelolaan	-9.49592
▁Sosial	-9.49593
▁perlindungan	-9.49623
▁terdampak	-9.49623
hara	-9.49627
▁jiwa	-9.49631
▁mewujudkan	-9.49764
▁mitra	-9.50125
▁beragam	-9.50277
buk	-9.50349
ejumlah	-9.50395
▁Forum	-9.50423
tensi	-9.50455
▁kabar	-9.50461
▁diperkirakan	-9.50472
▁Taiwan	-9.50474
▁sepeda	-9.50474
▁Pertahanan	-9.50898
▁terdakwa	-9.50899
19	-9.51026
▁infrastruktur	-9.51041
▁merah	-9.51092
yong	-9.51197
▁arus	-9.51199
pes	-9.51261
▁Sumsel	-9.51328
▁Pelaku	-9.51328
▁rendah	-9.51329
by	-9.5139
▁massa	-9.51555
▁sebenarnya	-9.51616
her	-9.51653
▁pengawasan	-9.5173
atif	-9.51737
Q	-9.51742
▁pemilik	-9.51759
▁Olimpiade	-9.51901
▁Acara	-9.51906
dha	-9.51938
ikat	-9.51954
▁truk	-9.5203
▁klub	-9.52046
▁hilang	-9.5205
▁Hotel	-9.52061
SDM	-9.52067
▁pre	-9.52117
temu	-9.52193
▁minim	-9.52212
pur	-9.52248
▁berbasis	-9.52335
▁Kelurahan	-9.52479
▁Khusus	-9.52479
▁balik	-9.52586
▁pelatihan	-9.52711
▁seharusnya	-9.52769
▁insiden	-9.52769
dera	-9.52825
▁Pasangan	-9.52832
▁2019	-9.52847
main	-9.5295
▁tambahan	-9.52952
▁Medan	-9.52985
▁ribuan	-9.53015
▁rudal	-9.53061
▁juru	-9.53093
▁pajak	-9.53157
▁perdagangan	-9.53205
alam	-9.53226
nto	-9.53252
mcr	-9.53353
▁lulus	-9.53383
▁Chi	-9.53405
▁Tanah	-9.53444
dap	-9.53529
▁Lebaran	-9.53674
▁strategi	-9.53766
▁puncak	-9.53832
▁tema	-9.53952
▁Pemain	-9.54004
▁meninggalkan	-9.54062
▁menyiapkan	-9.54084
▁pilkada	-9.54084
▁berpotensi	-9.54085
▁pengungsi	-9.54086
▁putri	-9.54091
otong	-9.54102
▁kesepakatan	-9.54232
▁sabu	-9.54234
▁melanggar	-9.54241
27	-9.54284
Ini	-9.54288
▁karya	-9.54336
top	-9.54377
▁kalangan	-9.54384
▁minyak	-9.54385
ndo	-9.54437
-19	-9.54453
MA	-9.54478
wati	-9.54587
▁tertulis	-9.54675
▁berakhir	-9.54756
▁maksimal	-9.54823
▁pelanggan	-9.54823
▁Garuda	-9.54824
▁darah	-9.54837
▁ahli	-9.5485
pora	-9.54931
▁terlalu	-9.54975
▁Award	-9.54977
baya	-9.55046
▁Hizbullah	-9.5512
▁perawatan	-9.55121
▁didukung	-9.55124
▁daftar	-9.55143
▁Gen	-9.5515
▁tiket	-9.55279
ampa	-9.5528
unggu	-9.55386
▁berdampak	-9.55418
▁visi	-9.55439
▁kulit	-9.5544
▁Ham	-9.55654
▁Kemenkumham	-9.55717
▁utara	-9.55722
▁selaku	-9.55723
▁buruk	-9.55724
▁ayah	-9.55731
.30	-9.55757
▁era	-9.55769
embang	-9.55799
▁Dewi	-9.55846
▁tulis	-9.56055
DI	-9.5607
▁Bung	-9.56081
yono	-9.56096
▁Tinggi	-9.56098
▁Megawati	-9.56166
▁memicu	-9.5617
05	-9.56224
▁KOTA	-9.56317
▁menyelesaikan	-9.56317
▁Putra	-9.56428
▁senior	-9.56428
▁PKS	-9.56478
▁Harga	-9.56648
▁Batu	-9.56673
AI	-9.56702
▁sanksi	-9.56773
▁jangan	-9.56875
▁paket	-9.57161
endra	-9.57363
▁permintaan	-9.57376
▁Lalu	-9.57512
▁Kaesang	-9.57529
▁Keamanan	-9.57532
▁menyerahkan	-9.57555
▁Banyak	-9.57576
▁misi	-9.57631
hol	-9.57642
▁Vietnam	-9.5768
▁penanganan	-9.57684
▁pakai	-9.57701
▁tanda	-9.57779
▁mendesak	-9.57833
▁kursi	-9.57838
▁Hen	-9.5798
▁melindungi	-9.57986
betul	-9.58071
hadiri	-9.58115
▁diselenggarakan	-9.58139
▁serius	-9.58287
len	-9.58292
▁syarat	-9.5838
▁rutin	-9.58453
Penjabat	-9.58484
▁Sub	-9.58597
▁PSI	-9.58618
▁sikap	-9.58702
▁tambah	-9.58703
▁2020	-9.58717
▁Jam	-9.58725
▁Khofifah	-9.58754
▁segala	-9.58765
fri	-9.58794
▁impor	-9.58814
▁tangga	-9.58877
▁kompetisi	-9.58908
▁diikuti	-9.58909
▁diminta	-9.58934
▁berperan	-9.59003
▁iklim	-9.59063
▁mencetak	-9.59063
▁tertentu	-9.59063
▁pengadilan	-9.59218
▁awak	-9.59233
raja	-9.59254
▁menambah	-9.59333
▁kejahatan	-9.59373
▁Kamil	-9.5938
▁mendaftar	-9.5943
▁Padang	-9.59448
▁penerbangan	-9.59528
bawa	-9.59585
▁saling	-9.59622
HO	-9.5963
▁Tam	-9.59687
tes	-9.59971
▁ekspor	-9.59985
▁Jasa	-9.60124
▁menj	-9.6014
▁Harris	-9.60212
▁ungkapnya	-9.60408
▁Natal	-9.6045
▁tentara	-9.60465
▁Pulau	-9.60467
▁kiri	-9.60475
▁gram	-9.60501
▁tata	-9.60558
▁AKP	-9.60612
ASN	-9.60615
val	-9.60678
▁Ekonomi	-9.60779
▁mengapresiasi	-9.60779
▁Mari	-9.60883
▁Juru	-9.60936
▁mencakup	-9.60937
▁menimbul	-9.60937
▁Film	-9.60938
▁MPR	-9.60939
▁Pemkot	-9.60945
▁panas	-9.60962
▁Pertama	-9.61103
▁so	-9.61197
▁Sleman	-9.61417
▁Eks	-9.61458
▁Senayan	-9.61569
▁yakin	-9.61618
:30	-9.61631
▁City	-9.61776
▁perjanjian	-9.61887
▁Makassar	-9.61887
▁pertanian	-9.61887
▁Lembaga	-9.62206
eb	-9.62296
▁sehari	-9.62297
RA	-9.62369
▁Irjen	-9.62392
hadap	-9.62464
▁penye	-9.62473
▁dipimpin	-9.62685
▁penjualan	-9.62685
▁Meskipun	-9.62713
nama	-9.62867
▁Far	-9.62951
▁memanfaatkan	-9.63007
dong	-9.63039
▁Eri	-9.63051
▁wali	-9.63064
▁laki	-9.63085
operasi	-9.63134
▁kepemimpinan	-9.63168
▁penyebab	-9.63168
dhi	-9.63228
▁60	-9.63279
▁kilometer	-9.63329
distribusi	-9.63329
▁Kampung	-9.63382
▁terkena	-9.63418
anggung	-9.63503
▁pelajar	-9.6351
harga	-9.6353
ingat	-9.63551
▁terang	-9.63577
▁beras	-9.63588
▁olahraga	-9.63652
▁putih	-9.63652
▁gugatan	-9.6366
▁batas	-9.63681
▁Marc	-9.63698
▁komunikasi	-9.63814
let	-9.63905
▁tuduhan	-9.63977
▁mengingat	-9.64102
▁Merah	-9.64143
▁berawan	-9.64179
▁operasional	-9.64322
▁Tur	-9.64332
▁AI	-9.64367
▁Polresta	-9.64398
Mahfud	-9.64442
▁tambahnya	-9.64502
entang	-9.64548
leng	-9.64664
dalam	-9.64871
▁seri	-9.64892
raya	-9.64907
▁bank	-9.6504
▁ditahan	-9.65072
▁pencarian	-9.65121
mbo	-9.65264
▁rokok	-9.65285
▁rama	-9.65294
▁Tra	-9.65404
▁materi	-9.65461
mana	-9.65492
langkah	-9.65548
▁VOA	-9.65615
▁konser	-9.65685
▁Informasi	-9.65691
▁Kris	-9.65732
▁apresiasi	-9.6578
▁memasuki	-9.6578
▁parlemen	-9.6578
▁merilis	-9.65781
▁gempa	-9.65847
▁Sejak	-9.65868
▁diambil	-9.65869
gantung	-9.65951
▁mati	-9.66019
bra	-9.66053
▁Industri	-9.66111
▁transaksi	-9.66112
▁medis	-9.66124
evaluasi	-9.66278
▁kehilangan	-9.66278
▁bupati	-9.66279
▁Serangan	-9.66403
Undang	-9.6643
▁Washington	-9.66444
▁peringkat	-9.66444
▁Mandiri	-9.66493
▁Motor	-9.66525
bri	-9.66564
▁barat	-9.66609
▁mendengar	-9.66611
▁diskusi	-9.66611
▁Perusahaan	-9.66611
▁penelitian	-9.66618
▁persiapan	-9.66779
▁mesin	-9.66795
iksa	-9.66803
▁angin	-9.66824
kur	-9.66839
▁zona	-9.66946
▁dibuka	-9.67145
▁Joe	-9.67249
▁Iskandar	-9.6728
▁putaran	-9.67281
▁Tae	-9.67288
▁laman	-9.67349
▁Dwi	-9.67429
▁menjawab	-9.67448
▁tercatat	-9.67449
▁mengalahkan	-9.67449
prediksi	-9.6745
ming	-9.67564
▁dulu	-9.67625
▁Andi	-9.67643
KPU	-9.67706
▁Arif	-9.6773
▁ide	-9.67835
andra	-9.67857
▁Donald	-9.67954
▁atlet	-9.67958
▁haji	-9.68025
▁kontra	-9.68049
▁ton	-9.68069
▁Pantai	-9.68129
▁Pria	-9.68137
produk	-9.68192
▁mengubah	-9.68206
▁Putri	-9.68219
▁sembilan	-9.68463
ddy	-9.68538
olusi	-9.68572
▁berkontribusi	-9.68633
▁jatuh	-9.68633
▁penegak	-9.68634
▁kaki	-9.687
▁ketat	-9.6887
▁gedung	-9.69022
del	-9.69043
▁Lingkungan	-9.69145
▁fisik	-9.69148
▁Hujan	-9.69199
▁obat	-9.69294
besar	-9.69318
▁minuman	-9.69325
▁Nusa	-9.69365
▁Persis	-9.69393
▁Pemkab	-9.69428
▁penangkapan	-9.69487
▁imbuh	-9.69488
▁Pemprov	-9.69508
▁mengusung	-9.69662
▁mudik	-9.69662
▁Petugas	-9.69832
▁menurunkan	-9.69856
indo	-9.6992
▁biasanya	-9.69941
Ma	-9.6998
▁pertanyaan	-9.70004
▁memulai	-9.70005
teman	-9.70039
vin	-9.70104
▁Karawang	-9.70177
erahkan	-9.70295
▁Ting	-9.70297
DA	-9.70302
▁kehadiran	-9.7035
▁Hakim	-9.70351
sos	-9.70385
suatu	-9.70456
▁memungkinkan	-9.70523
▁Data	-9.70571
tidak	-9.7058
▁Festival	-9.70696
▁Kejaksaan	-9.70696
ight	-9.70794
letak	-9.70952
▁Pemberantasan	-9.71044
▁kepercayaan	-9.71048
▁berarti	-9.71058
▁Daya	-9.71075
▁seni	-9.71295
▁Kepulauan	-9.71394
▁oknum	-9.71394
▁pantai	-9.71394
▁Digital	-9.71394
subsidi	-9.7141
▁pulang	-9.71437
▁tuan	-9.71494
▁selamat	-9.71568
▁susu	-9.71616
▁sepak	-9.71728
▁perwakilan	-9.71745
▁membeli	-9.71752
Muhaimin	-9.7192
▁bayi	-9.71931
▁Dewa	-9.7198
-23	-9.72009
▁Gol	-9.7208
▁kapasitas	-9.72096
▁kereta	-9.72121
▁Madura	-9.72275
▁hutan	-9.72312
▁Bambang	-9.72354
▁Pranowo	-9.72449
▁gencatan	-9.72449
▁menutup	-9.72454
▁Surat	-9.72591
▁longsor	-9.72626
sabu	-9.72711
▁terbukti	-9.72742
49	-9.72822
apten	-9.72959
▁perekonomian	-9.72981
▁persoalan	-9.72981
▁pabrik	-9.72984
▁menghentikan	-9.7316
▁Hingga	-9.7316
▁SEMARA	-9.73337
▁Polsek	-9.73339
▁ditemui	-9.73352
▁kandung	-9.73359
▁hewan	-9.73416
mbah	-9.7355
▁diamankan	-9.73562
▁Mobil	-9.73599
▁pemenang	-9.73672
▁praktik	-9.73695
deng	-9.73743
▁menentukan	-9.73874
▁Afrika	-9.73874
▁teknis	-9.73875
▁CEO	-9.73875
▁Mahfud	-9.73899
▁Sim	-9.73943
▁memperoleh	-9.74062
gh	-9.74106
▁Imigrasi	-9.7422
▁fitur	-9.74236
tum	-9.74282
Kemen	-9.74319
kot	-9.74411
▁Persebaya	-9.74414
▁belajar	-9.74415
▁mengunjungi	-9.74415
gg	-9.74494
dampingi	-9.74512
▁Masa	-9.74521
▁coba	-9.74536
▁damai	-9.74777
▁Pengawas	-9.74777
▁pengamanan	-9.74778
▁fungsi	-9.74825
BI	-9.75091
▁Bakal	-9.75104
▁kampus	-9.75139
▁Guru	-9.75227
▁mendalam	-9.75231
▁Tapi	-9.75251
dana	-9.75259
▁Hadi	-9.75291
▁faktor	-9.7532
▁kontrak	-9.75332
▁mengonsumsi	-9.75502
▁profesional	-9.75502
▁Semua	-9.75505
▁mengadakan	-9.75509
▁aset	-9.75516
▁buku	-9.75559
ecara	-9.75571
▁kerap	-9.7573
con	-9.75734
▁SAR	-9.75823
▁bertajuk	-9.75867
▁Tanjung	-9.75867
Jadi	-9.76004
lebih	-9.7601
▁Pelabuhan	-9.7605
▁the	-9.76065
jalan	-9.76118
▁khawatir	-9.76233
▁standar	-9.76235
▁dibuat	-9.76256
ivitas	-9.76258
▁berwenang	-9.76418
▁dahulu	-9.76419
▁Rus	-9.7647
▁kementerian	-9.76601
balik	-9.76615
▁Kepolisian	-9.76786
▁Surakarta	-9.76786
▁Karya	-9.76804
▁Tiga	-9.76843
▁SMA	-9.76962
▁efektif	-9.76991
▁menghasilkan	-9.77157
▁capres	-9.77159
▁Angkatan	-9.77221
fer	-9.7724
cak	-9.77257
▁Beijing	-9.77341
▁bahasa	-9.77549
▁Che	-9.77576
▁jangka	-9.77624
udin	-9.77839
▁darurat	-9.779
▁penurunan	-9.779
▁rusak	-9.77903
▁konten	-9.77966
▁beroperasi	-9.78072
▁Konstitusi	-9.78087
▁bertanggung	-9.78088
▁Peraturan	-9.78089
landia	-9.78107
▁tol	-9.78281
▁Turki	-9.78349
▁Ram	-9.78382
▁kerugian	-9.78462
▁timur	-9.78477
tempat	-9.78482
▁News	-9.78601
▁seksual	-9.7865
▁pasien	-9.78653
▁prioritas	-9.78838
▁menanggapi	-9.78846
putus	-9.78857
▁hitam	-9.79028
▁sambung	-9.79057
▁diberi	-9.79249
▁Produk	-9.79301
▁Kelompok	-9.79405
▁kemajuan	-9.79405
▁Sungai	-9.79409
▁senang	-9.79425
▁Ayu	-9.7946
▁pula	-9.79523
▁Netanyahu	-9.79595
▁Masjid	-9.79595
▁diperlukan	-9.79597
▁pra	-9.79731
▁menengah	-9.79786
jangkau	-9.79822
▁pengusaha	-9.79847
ngkar	-9.79885
In	-9.79955
▁memahami	-9.79976
▁mempertahankan	-9.79976
▁Layanan	-9.79976
▁serupa	-9.79979
▁layak	-9.7998
▁pikir	-9.80019
▁grup	-9.80167
▁Pekanbaru	-9.80167
▁Sekolah	-9.80169
▁Kompol	-9.80211
▁menyoroti	-9.80358
▁Or	-9.80363
▁Andre	-9.80366
▁Pekerja	-9.80401
▁Indo	-9.8042
mbung	-9.80543
▁Teknologi	-9.80549
Emil	-9.80551
▁kerusakan	-9.80742
▁klaim	-9.80742
pos	-9.80789
buat	-9.80856
bentuk	-9.80858
▁Ye	-9.80906
▁Muslim	-9.80946
▁keadaan	-9.80951
▁Putin	-9.81056
▁Qatar	-9.81127
▁rangkaian	-9.81177
▁Pertanian	-9.8132
bulan	-9.81325
▁membentuk	-9.81401
nov	-9.81435
▁kecamatan	-9.81513
▁lawan	-9.81617
▁Soe	-9.81732
▁pohon	-9.81786
▁diserta	-9.81792
▁menerapkan	-9.81901
▁selanjutnya	-9.81901
▁mundur	-9.81901
▁pendapatan	-9.82028
cil	-9.82051
maksud	-9.82096
▁wanita	-9.82098
▁Gelar	-9.82169
▁pengunjung	-9.82211
▁setia	-9.82262
▁Keluarga	-9.8229
▁Kasat	-9.82311
▁Erick	-9.82331
▁dinyatakan	-9.8249
▁Bersama	-9.82508
▁bertahan	-9.8251
abu	-9.82551
win	-9.82554
▁batu	-9.82642
▁penyelenggaraan	-9.82661
▁Direktorat	-9.82681
▁Pimpinan	-9.82681
▁Spanyol	-9.82681
▁konsisten	-9.82681
▁tanggung	-9.82686
cita	-9.82768
▁tahanan	-9.82881
mudahan	-9.82899
Persero	-9.82909
mpung	-9.82987
▁Kelas	-9.8299
▁Persija	-9.83079
▁Hasan	-9.83166
▁akrab	-9.83271
▁berubah	-9.83302
▁Mela	-9.83315
▁tekanan	-9.83332
▁nyaman	-9.83435
trasi	-9.83448
▁setidaknya	-9.8347
▁analis	-9.83474
▁karyawan	-9.83535
▁sesuatu	-9.83554
▁Anwar	-9.83645
▁kunci	-9.83666
▁warna	-9.83674
▁kekuasaan	-9.83863
▁Th	-9.83952
▁berkualitas	-9.84062
▁Kaltim	-9.84063
▁Tbk	-9.84069
▁peraturan	-9.84263
▁tes	-9.84345
▁2026	-9.8439
konfirmasi	-9.8446
▁pengiriman	-9.8446
▁transportasi	-9.8446
▁Martin	-9.846
▁remaja	-9.84661
▁kaya	-9.84668
▁Agama	-9.84669
▁Surya	-9.84707
▁nantinya	-9.8473
▁nasabah	-9.8486
▁lengkap	-9.8486
▁tumbuh	-9.8486
akhir	-9.84937
▁Kapolda	-9.8506
▁Militer	-9.85061
▁Soal	-9.85179
▁Con	-9.85233
▁Media	-9.85456
▁manajemen	-9.85462
▁permohonan	-9.85462
ajelis	-9.85479
▁pasca	-9.85534
stra	-9.85676
arah	-9.8573
▁Mun	-9.85771
tic	-9.85805
▁pemuda	-9.85871
▁Dedi	-9.86003
▁Karno	-9.8605
long	-9.86216
▁ekosistem	-9.86271
▁Balai	-9.86325
pihak	-9.86333
▁dibutuhkan	-9.86474
▁bunga	-9.86485
▁penetapan	-9.8649
KPK	-9.86504
▁umat	-9.86515
▁situs	-9.8655
▁mengimbau	-9.86678
▁Jalur	-9.86681
▁usai	-9.86697
▁Sha	-9.86824
▁Sekjen	-9.86883
▁rekomendasi	-9.86884
▁Arya	-9.87002
▁apabila	-9.87087
▁prinsip	-9.87291
ARTA	-9.87293
sifat	-9.87357
▁tadi	-9.87359
▁Sakit	-9.87418
▁Singapura	-9.87497
obatan	-9.87508
60	-9.87616
▁Ex	-9.87627
▁Borneo	-9.87702
▁aktivis	-9.87702
▁ekstrem	-9.87702
▁Jumlah	-9.87703
▁agenda	-9.87703
▁Kediri	-9.87788
▁membayar	-9.87909
▁merayakan	-9.88116
▁perbaikan	-9.88119
▁ikan	-9.88133
▁Bela	-9.88257
▁Irak	-9.8832
▁nuklir	-9.88322
▁persidangan	-9.88322
▁Seperti	-9.88324
nggar	-9.88406
▁Emas	-9.88436
▁Unit	-9.88518
▁elektabilitas	-9.8853
▁ibadah	-9.88737
▁logistik	-9.88737
▁Setiawan	-9.88767
▁wajib	-9.88946
▁NTB	-9.88948
▁Meteorologi	-9.89155
▁World	-9.89155
▁swasta	-9.89155
Pen	-9.89322
▁Rapat	-9.89445
▁Dana	-9.89532
▁Kanwil	-9.89573
▁efisien	-9.89573
beda	-9.89627
mpo	-9.89694
▁Haji	-9.89734
line	-9.89808
▁sebut	-9.89949
LI	-9.89967
jumlah	-9.89967
▁identitas	-9.89994
▁sungai	-9.89995
▁lancar	-9.89998
▁perayaan	-9.90001
LA	-9.90094
▁berikutnya	-9.90105
▁menampilkan	-9.90205
▁HUT	-9.90206
▁Pasalnya	-9.90285
hadi	-9.90294
▁pemberian	-9.90417
▁seseorang	-9.90418
▁gerakan	-9.90423
▁lihat	-9.905
▁Paul	-9.90566
▁Departemen	-9.90628
▁Gianyar	-9.90629
▁fakta	-9.9063
▁Wahyu	-9.90632
▁bersenjata	-9.9077
▁keselamatan	-9.90841
▁Jogja	-9.90841
▁catatan	-9.90842
▁melintas	-9.90849
▁minta	-9.90867
▁gaji	-9.91026
▁ketentuan	-9.91053
▁kelahiran	-9.91053
▁Taman	-9.91075
▁alami	-9.91083
▁Cuaca	-9.91267
▁mengakibat	-9.91267
▁Kim	-9.91297
▁berencana	-9.91358
▁permasalahan	-9.9148
▁Polrestabes	-9.91481
▁mempunya	-9.91486
▁Kapal	-9.9149
▁Bangsa	-9.91515
kelompok	-9.91599
▁memperkenalkan	-9.91694
▁BPBD	-9.91869
▁perangkat	-9.91896
▁memeriksa	-9.91909
▁jarak	-9.9192
▁kontribusi	-9.92124
▁spesial	-9.92124
▁menangani	-9.92154
▁bakar	-9.92266
▁militan	-9.9234
▁Bahkan	-9.92391
▁Sebelum	-9.92398
▁Sudah	-9.92406
▁respons	-9.92556
▁Aksi	-9.92574
▁model	-9.92575
▁diperiksa	-9.92581
▁mengakhiri	-9.92773
▁sejauh	-9.92787
▁lahir	-9.92788
▁Maju	-9.92837
▁wisatawan	-9.92855
▁Mahasiswa	-9.92989
▁misalnya	-9.92989
▁permainan	-9.92991
▁Penghargaan	-9.93207
▁Tetapi	-9.93216
LH	-9.93229
hulu	-9.93262
▁Nana	-9.93395
▁PSIS	-9.93423
▁Hadir	-9.93535
▁Imam	-9.93548
▁hijau	-9.93643
▁tarif	-9.93646
▁dok	-9.93853
▁Kampanye	-9.93861
▁berkolaborasi	-9.93861
▁klasemen	-9.93861
▁Usaha	-9.93872
usaha	-9.94072
▁ASEAN	-9.94081
▁Bantul	-9.94081
▁Tersangka	-9.94082
▁Ratusan	-9.94083
▁Arema	-9.94094
▁teroris	-9.94113
ulasi	-9.94155
dorong	-9.94223
▁plastik	-9.94301
▁tunggal	-9.94301
▁Kawasan	-9.94301
▁Bantuan	-9.94521
▁Keputusan	-9.94522
▁Chris	-9.94524
▁Pemuda	-9.94524
rekrut	-9.94661
▁aspek	-9.94838
▁Bisa	-9.94909
▁kilogram	-9.94963
▁menghindari	-9.94963
▁dilansir	-9.94963
▁tr	-9.9499
Jokowi	-9.95128
▁70	-9.95143
▁koordinasi	-9.95184
▁perdamaian	-9.95184
▁Lapangan	-9.95188
▁akademi	-9.95629
▁internal	-9.9563
▁gangguan	-9.95853
▁PSS	-9.96009
cawapres	-9.96078
@	-9.96301
▁jenazah	-9.96301
▁mempersiapkan	-9.96301
▁konsep	-9.96351
desa	-9.96501
▁Komunikasi	-9.96525
▁University	-9.96525
▁modern	-9.96525
▁sandera	-9.96528
▁York	-9.96528
▁Laporan	-9.96529
▁desain	-9.96734
▁pembayaran	-9.96751
▁Pakistan	-9.96751
▁BBM	-9.96752
▁Menko	-9.96784
▁Belanda	-9.96816
▁sosialisasi	-9.96876
vonis	-9.97016
▁tren	-9.97053
daftar	-9.97086
▁menargetkan	-9.97153
▁Pelaksana	-9.97202
▁berjudul	-9.97202
▁supaya	-9.97203
▁berangkat	-9.97237
▁Open	-9.97276
▁Ketenagakerjaan	-9.97429
elebritas	-9.97429
▁perintah	-9.9743
▁Pengamat	-9.97432
▁Juanda	-9.9744
▁buka	-9.97567
▁sukarelawan	-9.97656
▁regulasi	-9.97657
▁membantah	-9.97657
▁dibangun	-9.97668
▁pembicara	-9.97884
eofisika	-9.97884
▁semifinal	-9.97884
▁menuntut	-9.97885
▁menuduh	-9.97885
▁beliau	-9.97906
▁darat	-9.9795
▁toko	-9.98112
kredit	-9.98131
▁sub	-9.98176
▁SMK	-9.98335
▁nelayan	-9.98341
▁pariwisata	-9.98341
▁Ngurah	-9.98342
▁tersedia	-9.98342
▁skuad	-9.98342
▁bilang	-9.98356
▁mengirimkan	-9.98457
▁sambutan	-9.98571
▁krisis	-9.98572
guyur	-9.98575
▁penyelenggara	-9.98594
▁saudara	-9.9868
▁bertugas	-9.98802
▁kampung	-9.98864
▁mengawal	-9.98884
▁perjuangan	-9.99032
▁drone	-9.99278
▁80	-9.99316
▁Klimatologi	-9.99494
▁pintu	-9.99496
▁Tindak	-9.99537
▁berhenti	-9.99551
▁menikmati	-9.99726
▁merespons	-9.99726
▁Gelora	-9.99726
▁David	-9.99727
▁pengurus	-9.99729
▁mengenakan	-9.99731
▁khas	-9.99762
jm	-9.99941
▁Sumut	-9.99967
▁Mulai	-9.99973
▁protes	-9.99998
▁Alam	-10.003
▁2018	-10.0038
ualifikasi	-10.0046
▁Supri	-10.0066
▁YOGYAK	-10.0066
▁turnamen	-10.0066
▁memperingatkan	-10.0066
▁RUU	-10.0066
▁Manusia	-10.0073
▁kekhawatiran	-10.0089
▁viral	-10.009
▁pameran	-10.009
▁sekutu	-10.009
▁Suara	-10.0104
▁menyerukan	-10.0113
▁PSSI	-10.0121
▁sasaran	-10.0137
▁ilmu	-10.0137
▁PPP	-10.0145
▁jurnalis	-10.016
▁netral	-10.016
▁menganggap	-10.016
▁tersebar	-10.016
▁kuasa	-10.0169
▁Sebut	-10.017
▁Strategi	-10.0184
▁edukasi	-10.0184
▁dilantik	-10.0185
▁Pangan	-10.0192
ebaran	-10.0192
jauh	-10.0193
▁Andika	-10.0206
▁Jember	-10.0208
▁Mesir	-10.0208
fokus	-10.021
sional	-10.0231
▁Istana	-10.0232
▁hendak	-10.0255
▁Maluku	-10.0255
▁Alex	-10.0255
▁diajukan	-10.0256
▁band	-10.0264
▁Sidoarjo	-10.0279
▁melanda	-10.0296
▁melepas	-10.0296
▁upacara	-10.0303
▁pencurian	-10.0303
▁serentak	-10.0303
▁hotel	-10.0303
guruan	-10.0304
enjelang	-10.0306
▁pendapat	-10.0312
percaya	-10.0313
▁ketidak	-10.0321
▁perairan	-10.0327
▁studi	-10.0328
▁pasokan	-10.0328
▁doa	-10.0331
▁investor	-10.0351
▁dirancang	-10.0352
▁tambang	-10.0352
▁Idulfitri	-10.0375
▁meliputi	-10.0375
▁memperluas	-10.0375
▁mayoritas	-10.04
struktur	-10.0424
▁beli	-10.0427
Kalau	-10.0429
▁Jangan	-10.0439
▁penonton	-10.0448
▁Belum	-10.0449
▁dialami	-10.0451
▁diadakan	-10.0457
▁Rencana	-10.0459
▁kamar	-10.0466
+	-10.0473
▁lebat	-10.0473
▁merek	-10.0476
▁peroleh	-10.0481
▁Bicara	-10.0497
▁Rafah	-10.0497
empur	-10.0505
▁halaman	-10.052
▁pokok	-10.0522
▁migran	-10.0522
▁koalisi	-10.0522
▁Langkah	-10.0522
▁DIY	-10.0522
▁Lapas	-10.0522
▁Angka	-10.0543
▁Diketahui	-10.0546
▁mengucapkan	-10.0546
▁tamu	-10.0547
▁Akbar	-10.0547
▁sebagaimana	-10.0547
▁besert	-10.0563
▁WITA	-10.0571
▁administrasi	-10.0571
▁keberadaan	-10.0571
▁Rizky	-10.0571
▁mengandung	-10.0571
mbangkan	-10.0579
▁NU	-10.0587
▁terlebih	-10.0594
▁penganiayaan	-10.0596
▁Terkait	-10.0596
▁menahan	-10.0596
abilitas	-10.0598
▁Badung	-10.0601
▁Myanmar	-10.062
▁dijadwalkan	-10.062
▁meyakini	-10.062
nggak	-10.0624
▁Capres	-10.0632
▁Reskrim	-10.0645
▁antusias	-10.0645
▁Parlemen	-10.0645
▁pidato	-10.0645
▁Jadwal	-10.067
▁Gresik	-10.067
▁normal	-10.0695
▁Persik	-10.0697
▁Proses	-10.0701
▁maaf	-10.0704
jelas	-10.0713
▁berbagi	-10.072
▁TikTok	-10.072
▁berjuang	-10.0721
▁kartu	-10.0722
▁pakar	-10.0725
▁2017	-10.0742
▁Luthfi	-10.0745
▁beredar	-10.0746
▁Sidang	-10.0751
▁berlanjut	-10.077
▁kesulitan	-10.077
▁optimal	-10.077
▁komentar	-10.077
▁Kondisi	-10.077
▁suka	-10.0779
▁Ketum	-10.0791
▁pernikahan	-10.0795
▁instansi	-10.0795
▁Hidayat	-10.0795
▁Divisi	-10.0796
▁Tewas	-10.0796
▁Tingkat	-10.0801
▁bumi	-10.0803
▁kaca	-10.0807
▁mengatur	-10.0809
▁pola	-10.0815
▁bintang	-10.0821
▁KAI	-10.0827
▁Bencana	-10.0829
Alhamdulillah	-10.0846
▁Pancasila	-10.0846
▁Malam	-10.0864
▁bersalah	-10.0872
▁500	-10.0886
▁Banjar	-10.0898
peng	-10.0907
▁Syah	-10.0913
▁keberlanjutan	-10.0922
▁menjual	-10.0922
▁Inter	-10.0936
▁pasal	-10.0942
▁2016	-10.0944
▁narkotika	-10.0973
▁konsumsi	-10.0973
▁mengelola	-10.0974
▁cerah	-10.0974
▁menyebar	-10.0989
▁keseluruhan	-10.0999
▁melayani	-10.0999
kerja	-10.1004
▁BOGO	-10.1051
▁independen	-10.1051
▁mengumpulkan	-10.1051
▁AFF	-10.1051
▁Italia	-10.1051
▁adil	-10.1054
cepat	-10.1057
▁efek	-10.1074
▁Perdagangan	-10.1077
▁inisiatif	-10.1077
▁puasa	-10.1077
▁Jaksa	-10.1077
▁siaran	-10.1091
▁ramah	-10.1093
▁berjanji	-10.1103
▁gelombang	-10.1103
▁inflasi	-10.1103
▁Minta	-10.1108
▁Super	-10.111
▁Kabar	-10.1111
▁Honda	-10.1119
▁Tiongkok	-10.1129
▁Manager	-10.1129
batas	-10.1146
▁transparan	-10.1155
▁jemaah	-10.1155
dominasi	-10.1155
▁level	-10.1155
▁Hidup	-10.1155
▁sejalan	-10.1165
▁Marquez	-10.1181
▁PSM	-10.1182
▁gula	-10.1185
▁menembak	-10.1186
▁membagikan	-10.1207
▁parkir	-10.1207
▁90	-10.1208
▁modal	-10.121
▁Kembali	-10.1234
▁prestasi	-10.1234
▁Antara	-10.1234
▁penyedia	-10.1236
▁Hodak	-10.1239
▁mengirim	-10.1247
▁besok	-10.126
abung	-10.1264
▁dirilis	-10.1273
aktif	-10.1275
▁Wayan	-10.1285
▁dekade	-10.1287
▁tradisional	-10.1287
▁PNS	-10.1288
▁diusung	-10.1292
▁YouTube	-10.1313
▁emisi	-10.1313
▁suku	-10.1331
▁SMP	-10.1335
▁Perlindungan	-10.1339
▁dilanjutkan	-10.1339
▁masjid	-10.1339
▁berbahaya	-10.1339
▁mengganggu	-10.1339
▁Pramono	-10.1339
▁palsu	-10.134
▁pemadam	-10.1342
▁Pagi	-10.1355
▁terbatas	-10.1358
▁Masih	-10.136
▁Moskow	-10.1366
▁dimiliki	-10.1366
▁peluncuran	-10.1366
▁Akhir	-10.1366
▁keadilan	-10.1366
▁Rektor	-10.1366
▁Sedangkan	-10.1367
▁Pidana	-10.1368
RE	-10.1372
bukti	-10.1389
▁melancar	-10.1393
▁pedagang	-10.1393
▁Pernyataan	-10.1393
▁merusak	-10.1393
▁apalagi	-10.1393
▁dikirim	-10.1393
▁Bulan	-10.1395
ukuran	-10.1413
▁oposisi	-10.142
▁Yayasan	-10.142
▁sebab	-10.142
▁didapat	-10.1422
prov	-10.1427
▁melarang	-10.1428
▁Fakultas	-10.1447
▁berkumpul	-10.1447
▁gawang	-10.1447
▁artis	-10.1447
▁BKN	-10.1447
▁jaksa	-10.1447
▁asli	-10.1452
▁tanggapan	-10.1454
▁Niaga	-10.1455
▁Selanjutnya	-10.1473
▁tuntutan	-10.1473
▁dipastikan	-10.1474
▁Puncak	-10.1474
▁Akibat	-10.1474
▁duduk	-10.1474
▁Ribuan	-10.1474
▁disebabkan	-10.1501
▁telepon	-10.1528
▁karakter	-10.1528
▁Pengembangan	-10.1528
▁kopi	-10.1534
bersih	-10.1553
▁Penyanyi	-10.1555
▁elektronik	-10.1555
▁sinergi	-10.1555
▁John	-10.1555
▁Sultan	-10.1556
▁Jen	-10.1556
▁mental	-10.157
▁mencuri	-10.1582
▁liar	-10.1588
ubah	-10.1597
ther	-10.16
▁Thohir	-10.1609
▁cedera	-10.161
▁optimistis	-10.161
▁Manajemen	-10.1664
▁keuntungan	-10.1664
▁minum	-10.1691
▁berkaitan	-10.1692
▁Satpol	-10.1697
▁peneliti	-10.1718
▁Eksekutif	-10.1719
▁Perhubungan	-10.1719
▁evakuasi	-10.1719
▁penipuan	-10.1719
▁menyusul	-10.172
▁aspirasi	-10.1747
▁pengendara	-10.1747
▁Kongres	-10.1747
▁perbuatan	-10.1747
▁Qu	-10.1767
▁Narkoba	-10.1775
▁merugikan	-10.1775
▁Sistem	-10.1775
▁Ungkap	-10.1775
▁sekadar	-10.1775
▁bangga	-10.1785
▁Puluh	-10.1786
▁Padahal	-10.182
▁membela	-10.1821
▁penampilan	-10.1831
▁mengangkat	-10.1831
erangkat	-10.1857
enanggulangan	-10.1859
▁Championship	-10.1859
▁Survei	-10.1859
▁rupiah	-10.1859
▁ditutup	-10.1859
▁keunggulan	-10.1859
▁Pasukan	-10.1864
/11/2024	-10.187
▁gaya	-10.1876
▁sepakat	-10.1885
▁Bengkulu	-10.1887
▁Honorer	-10.1887
▁diplomat	-10.1887
▁menggambarkan	-10.1887
▁peredaran	-10.1887
▁mengancam	-10.1887
ografi	-10.1888
▁daripada	-10.1889
▁Kini	-10.1903
▁Biak	-10.1908
▁Organisasi	-10.1915
▁Global	-10.1915
▁kekurangan	-10.1915
▁Kapolri	-10.1915
▁cukai	-10.1915
▁kekalahan	-10.1915
▁Ruang	-10.1915
▁momentum	-10.1916
▁suhu	-10.1933
Corporate	-10.1943
menyelenggarakan	-10.1943
▁NasDem	-10.1943
▁pensiun	-10.1944
▁diserahkan	-10.1945
▁melaju	-10.1966
▁cerita	-10.1972
▁singkat	-10.1972
enteng	-10.1985
▁Cirebon	-10.2
▁Gunawan	-10.2
▁wajah	-10.2005
▁tajam	-10.2006
▁Demak	-10.2017
▁Afghanistan	-10.2028
▁Mohammad	-10.2028
▁kreatif	-10.2028
▁unsur	-10.2028
▁performa	-10.2029
▁kemiskinan	-10.2057
▁Brasil	-10.2057
▁sarana	-10.2058
▁murah	-10.2058
▁Ketiga	-10.2058
▁Grand	-10.2061
▁disapa	-10.2062
▁pencapaian	-10.2086
▁berpartisipasi	-10.2086
▁Stasiun	-10.2086
▁PLN	-10.2086
▁Dipta	-10.2087
▁tenang	-10.2088
▁Bagaimana	-10.2114
▁pembebasan	-10.2114
▁penerapan	-10.2114
▁Kurnia	-10.2115
jogja	-10.2115
▁Upaya	-10.2115
mempertimbangkan	-10.2115
▁Tujuan	-10.2115
▁Indah	-10.2135
▁Sebagian	-10.2144
Semoga	-10.2156
▁Abdullah	-10.2158
turut	-10.2163
gugat	-10.2172
▁bersangkutan	-10.2172
▁meninjau	-10.2172
▁Perubahan	-10.2172
▁Raffi	-10.2172
▁lantas	-10.2173
▁Studi	-10.2173
▁Vol	-10.2184
▁Reuters	-10.2201
▁dikeluarkan	-10.2201
▁individu	-10.2201
▁sepenuhnya	-10.2201
▁suporter	-10.2201
▁kesalahan	-10.2201
▁suasana	-10.2201
▁membaca	-10.2201
▁utang	-10.2206
▁Hong	-10.2208
▁WNA	-10.2212
▁pulau	-10.2228
▁hektare	-10.223
▁Perwakilan	-10.223
▁Dokter	-10.223
▁Kanada	-10.2232
▁Risma	-10.2232
EV	-10.2241
▁memperbaiki	-10.2289
▁Kabid	-10.2289
▁simbol	-10.2289
▁rute	-10.2291
▁kamu	-10.2291
▁mengenal	-10.2303
▁mengapa	-10.2305
meriah	-10.2314
▁Patra	-10.2315
▁Pemimpin	-10.2318
▁mewakili	-10.2318
▁kesiapan	-10.2318
▁bersaing	-10.2319
▁Satgas	-10.2326
▁Perjanjian	-10.2347
▁pencegahan	-10.2347
▁solid	-10.235
▁rentan	-10.2358
HI	-10.2368
▁Law	-10.2368
▁Kebudayaan	-10.2377
▁kebebasan	-10.2377
▁keberhasilan	-10.2377
▁kompetensi	-10.2377
▁prosedur	-10.2377
▁kompleks	-10.2377
▁transformasi	-10.2377
▁tidur	-10.2377
▁belanja	-10.2377
▁menyaksikan	-10.2377
▁Kebijakan	-10.2406
▁Penyelenggara	-10.2406
▁hiburan	-10.2406
▁menandatangani	-10.2406
▁panggilan	-10.2436
▁transisi	-10.2436
▁parpol	-10.2436
▁cuma	-10.2438
Untuk	-10.2438
▁menjal	-10.2446
juluk	-10.2449
▁Alasan	-10.2465
▁DPC	-10.2466
▁staf	-10.2471
▁garis	-10.2477
▁Aparatur	-10.2496
▁kritik	-10.2496
▁terluka	-10.2496
▁bekas	-10.2512
▁memantau	-10.2526
▁pelantikan	-10.2526
▁pilih	-10.2534
▁tayang	-10.2538
▁memperlihatkan	-10.2556
▁pembukaan	-10.2556
▁penyalahgunaan	-10.2556
▁wujud	-10.2556
▁Hubungan	-10.2556
▁produsen	-10.2556
▁Apalagi	-10.2556
ompet	-10.2561
▁mengarah	-10.2561
▁Gerakan	-10.2587
▁web	-10.259
▁Staf	-10.2593
▁penghitungan	-10.2616
▁tutup	-10.2616
▁partisipasi	-10.2618
▁beban	-10.2646
▁penembakan	-10.2646
▁2024-2029	-10.2646
▁sepuluh	-10.2646
▁Fraksi	-10.2647
▁Wisata	-10.2647
▁pendekatan	-10.2648
status	-10.2659
▁PSBS	-10.2677
▁dihubungi	-10.2677
▁Iqbal	-10.2677
▁NATO	-10.2677
▁RSUD	-10.2707
cenderung	-10.2707
▁medali	-10.2708
ontrol	-10.2723
▁rekor	-10.2727
▁kandang	-10.2732
▁wawancara	-10.2738
▁melewati	-10.2738
▁serangkai	-10.2738
▁adik	-10.2767
▁mengeklaim	-10.2768
▁populer	-10.2768
▁konstitusi	-10.2768
▁perbedaan	-10.2769
▁binaan	-10.277
gandeng	-10.2774
▁menurun	-10.2795
▁Seluruh	-10.2799
▁menyalurkan	-10.2799
▁pendamping	-10.2799
▁membuktikan	-10.2799
▁dijadikan	-10.2799
▁sembako	-10.2799
▁jual	-10.2803
▁Paslon	-10.2807
▁merujuk	-10.283
▁kabinet	-10.283
▁tergabung	-10.283
▁Energi	-10.283
▁Relawan	-10.283
▁berwarna	-10.283
▁terduga	-10.283
heboh	-10.2831
▁mengungsi	-10.2831
▁pindah	-10.2846
▁internet	-10.2861
▁Pejabat	-10.2861
▁Nikita	-10.2861
▁janji	-10.2861
▁cabang	-10.2862
▁fase	-10.2862
▁batang	-10.2867
▁Pegawai	-10.2892
▁menghormati	-10.2892
▁peralatan	-10.2892
▁larangan	-10.2893
▁temuan	-10.2896
▁panggung	-10.2933
▁inklusi	-10.2955
▁brand	-10.2956
utip	-10.2981
▁membunuh	-10.2986
▁Pelayanan	-10.3017
▁asuransi	-10.3017
▁bertambah	-10.3017
▁butuh	-10.3018
▁kanker	-10.3023
.500	-10.3024
▁2015	-10.3046
▁pelabuhan	-10.3049
▁Banjir	-10.3049
▁institusi	-10.3049
▁tenggelam	-10.3049
▁kenyamanan	-10.3049
▁ayat	-10.3053
▁menceritakan	-10.308
▁memanggil	-10.3081
▁Pupuk	-10.3081
▁menikah	-10.3081
▁pendiri	-10.309
▁layar	-10.3091
▁Institute	-10.3104
▁berkoordinasi	-10.3112
▁keterlibatan	-10.3112
▁diterapkan	-10.3112
▁Series	-10.3113
▁roda	-10.3118
▁Listrik	-10.3144
▁ketahanan	-10.3144
▁tetangga	-10.3144
▁terbakar	-10.3144
▁kecepatan	-10.3145
▁umur	-10.3148
▁samping	-10.3152
▁Sampai	-10.3177
5.000	-10.318
▁menyala	-10.3194
▁domestik	-10.3208
▁kedatangan	-10.3208
▁hadiah	-10.3208
▁kediaman	-10.3209
▁pengetahuan	-10.324
▁pertempuran	-10.324
▁dipilih	-10.324
▁sengaja	-10.324
▁politis	-10.324
▁baterai	-10.324
▁daging	-10.3241
▁Zoni	-10.3241
▁saham	-10.3263
▁Perekonomian	-10.3272
▁regional	-10.3272
▁lolos	-10.3273
▁Penyidik	-10.3305
▁Riset	-10.3306
▁rekaman	-10.3306
▁banten	-10.3306
▁prakira	-10.331
▁Brand	-10.3317
▁mendampingi	-10.332
▁mengantisipasi	-10.3337
▁dikelola	-10.3337
▁silam	-10.3355
▁Blinken	-10.337
▁kesadaran	-10.337
▁penindakan	-10.337
▁keinginan	-10.337
▁penggemar	-10.337
▁bergizi	-10.337
▁kosong	-10.337
▁ditunjuk	-10.3372
syarat	-10.3398
▁jantung	-10.3403
▁pencalonan	-10.3403
▁petir	-10.3404
▁AFP	-10.3404
▁diangkat	-10.3409
ampir	-10.3424
erkuat	-10.3435
▁ketegangan	-10.3435
▁unggahan	-10.3435
▁Lombok	-10.3435
▁pupuk	-10.3435
▁event	-10.3435
▁usulan	-10.3435
▁memaksa	-10.3436
▁pengamat	-10.3437
▁versi	-10.3437
▁contoh	-10.344
▁Madrid	-10.3468
▁kondusif	-10.3468
▁elemen	-10.3468
▁majelis	-10.3471
▁bandara	-10.3473
stian	-10.3491
▁lantai	-10.3501
▁Anggaran	-10.3502
▁dihadapi	-10.3504
▁Kemenangan	-10.352
▁campur	-10.3534
▁metode	-10.3534
▁Bintang	-10.3535
▁Blitar	-10.3535
ontoh	-10.3543
▁balap	-10.3547
anggota	-10.3553
▁diumumkan	-10.3568
▁melarikan	-10.3568
▁pengadaan	-10.3568
▁1445	-10.3582
▁Pengelola	-10.3601
▁negatif	-10.3601
▁Telkom	-10.3601
▁jaminan	-10.3602
oleh	-10.3604
▁Koster	-10.3612
▁gim	-10.3633
▁Pengurus	-10.3635
▁intelijen	-10.3668
▁Houthi	-10.3668
▁Arief	-10.3668
▁Cianjur	-10.3668
▁dewasa	-10.3668
▁mempercepat	-10.367
▁mencerm	-10.3674
▁vitamin	-10.3702
▁Video	-10.3702
▁Bisnis	-10.3702
▁2014	-10.3702
ction	-10.3725
amping	-10.3729
▁Pegadaian	-10.3735
▁intensitas	-10.3735
▁terungkap	-10.3735
▁penjaga	-10.3736
▁Kudus	-10.3736
▁aliran	-10.3736
emendikbudristek	-10.3769
▁Publik	-10.3769
▁pengakuan	-10.3769
▁urusan	-10.3769
▁dolar	-10.377
▁hadapan	-10.3772
▁Demokrasi	-10.3803
▁bersyukur	-10.3803
▁dilengkapi	-10.3803
▁Kebakaran	-10.3803
▁penjelasan	-10.3803
▁terpaksa	-10.3803
▁Skuad	-10.3804
▁Tenaga	-10.3804
▁Lokasi	-10.3804
▁deklarasi	-10.3837
▁mayat	-10.3838
eserse	-10.3842
▁Istri	-10.3848
▁tradisi	-10.3871
▁Peneliti	-10.3872
▁menginginkan	-10.3872
▁Bojan	-10.3872
▁gudang	-10.3872
▁USD	-10.3872
▁memerintahkan	-10.3906
▁televisi	-10.3906
▁Koalisi	-10.3906
▁klien	-10.3906
▁Pertemuan	-10.3906
▁Tetap	-10.394
▁Soekarno	-10.394
▁mengusulkan	-10.394
▁patroli	-10.394
▁memproduksi	-10.3975
▁sopir	-10.3975
▁pengganti	-10.3975
▁kuota	-10.3975
▁berkunjung	-10.3975
▁penilaian	-10.3975
▁Garut	-10.3976
▁stabilitas	-10.3978
▁dijual	-10.3981
▁penyerang	-10.3982
BMKG	-10.3998
▁diungkapkan	-10.401
▁ponsel	-10.401
▁pandangan	-10.401
▁akbar	-10.4011
▁Lestari	-10.4045
Pasifik	-10.4045
▁jejak	-10.4053
▁Lewat	-10.4063
▁inovatif	-10.408
▁menandai	-10.408
▁menyadari	-10.408
▁Sipil	-10.408
▁Habib	-10.4082
▁Lintas	-10.4115
▁Empat	-10.4115
▁limbah	-10.4118
KKB	-10.4144
▁unik	-10.4152
▁Kapolsek	-10.4185
▁Kecelakaan	-10.4185
▁finansial	-10.4185
▁pengacara	-10.4185
▁pengaruh	-10.4185
▁CCTV	-10.4221
▁Kepegawaian	-10.4221
▁legislatif	-10.4221
▁mempromosikan	-10.4221
▁menghancurkan	-10.4221
▁Jambi	-10.4234
▁Bahlil	-10.4256
▁Banyuwangi	-10.4256
▁Muhammadiyah	-10.4256
▁dosen	-10.4257
▁disabilitas	-10.4257
▁pengemudi	-10.4259
▁Ronald	-10.426
▁ganja	-10.4263
▁Setia	-10.4281
▁Pariwisata	-10.4292
▁menghabis	-10.4292
▁persyaratan	-10.4328
▁menempatkan	-10.4328
▁Sigit	-10.4328
▁menyelamatkan	-10.4364
▁pandemi	-10.4364
▁menjamin	-10.4364
▁setuju	-10.4364
▁Waktu	-10.44
▁santri	-10.4401
Tidak	-10.4429
▁kewenangan	-10.4436
▁kontestasi	-10.4436
▁kriminal	-10.4436
▁Sekitar	-10.4436
▁semacam	-10.4436
eluncur	-10.4437
2.000	-10.4446
▁Director	-10.4473
▁Investasi	-10.4473
▁Mirzani	-10.4473
▁Olahraga	-10.4473
▁pertimbangan	-10.4473
▁jembatan	-10.4473
▁stunting	-10.4473
▁Dirjen	-10.4473
▁gizi	-10.4473
▁asasi	-10.448
program	-10.4502
▁pembiayaan	-10.4509
▁Pondok	-10.4509
▁Andri	-10.451
▁kelola	-10.4511
▁out	-10.4515
▁Harapan	-10.4518
melainkan	-10.4531
▁Soekarnoputri	-10.4546
▁Serentak	-10.4546
▁kekayaan	-10.4546
▁stasiun	-10.4546
▁Mataram	-10.4546
▁Komite	-10.4546
▁menulis	-10.4552
▁(6/1	-10.4582
▁Aktris	-10.4582
▁integritas	-10.4582
▁kewajiban	-10.4582
▁karbon	-10.4583
▁penguatan	-10.4583
▁mengawasi	-10.4583
▁Ryan	-10.4616
▁rekapitulasi	-10.4619
▁saluran	-10.4619
▁Persatuan	-10.462
▁Wanita	-10.462
▁Yordania	-10.4656
▁alternatif	-10.4656
▁memperkirakan	-10.4656
▁skema	-10.4657
▁kemasan	-10.4663
▁Asosiasi	-10.4694
▁mengevakuasi	-10.4694
▁Kriminal	-10.4694
▁terpisah	-10.4694
▁Sumbar	-10.4694
Karena	-10.4726
▁Pembina	-10.4731
▁Rahmat	-10.4731
▁bahaya	-10.4731
▁bendera	-10.4732
▁ledakan	-10.4732
▁merebut	-10.4738
▁Buleleng	-10.4768
▁riset	-10.4769
▁Terima	-10.4771
ergantian	-10.4783
tabrak	-10.4787
sejahtera	-10.4805
▁komoditas	-10.4806
▁Hartarto	-10.4806
▁Balikpapan	-10.4844
▁dituduh	-10.4844
▁sebelah	-10.4844
▁Port	-10.4863
▁sengketa	-10.4881
▁Kabinet	-10.4881
▁disambut	-10.4881
▁bertindak	-10.4882
▁menyelidiki	-10.492
▁perilaku	-10.492
ATEN	-10.492
▁Taliban	-10.492
▁berpikir	-10.492
▁pembentukan	-10.492
▁AMIN	-10.492
▁PNM	-10.4921
▁stabil	-10.4955
▁gerimis	-10.4958
▁populasi	-10.4958
▁pesantren	-10.4958
▁dikabarkan	-10.4958
▁pesisir	-10.4958
▁literasi	-10.4958
▁kecurangan	-10.4958
▁aktor	-10.496
▁Fransiskus	-10.4996
▁KUHP	-10.4996
▁League	-10.4996
▁Purwakarta	-10.4996
▁menabrak	-10.4996
▁mineral	-10.4996
▁Proyek	-10.4996
▁Ilmu	-10.4996
▁Teguh	-10.4999
▁nutrisi	-10.5034
▁pemulihan	-10.5034
▁persaingan	-10.5034
▁Regional	-10.5034
▁pilpres	-10.5034
▁kuliah	-10.5035
▁habis	-10.5035
▁menemui	-10.5035
▁Peristiwa	-10.5073
▁Rohingya	-10.5073
▁dipanggil	-10.5073
▁kemerdekaan	-10.5073
▁Meksiko	-10.5073
▁pemantau	-10.5073
▁menghilang	-10.5073
▁memakai	-10.5073
▁pembuatan	-10.5073
▁BPJS	-10.5112
▁SOLO	-10.5112
▁memajukan	-10.5112
▁Katolik	-10.5112
▁Yusuf	-10.5112
▁mekanisme	-10.5112
▁memainkan	-10.5112
▁gagasan	-10.5112
▁pinggir	-10.5151
▁pemudik	-10.5151
Indonesia	-10.5151
▁ayam	-10.5153
▁berlaga	-10.5154
▁kualifikasi	-10.5158
▁implementasi	-10.5172
▁Kompleks	-10.519
▁memfasilitasi	-10.519
▁objek	-10.519
▁kuliner	-10.519
▁pembatasan	-10.519
▁Coach	-10.519
▁pemangku	-10.519
▁bunuh	-10.519
▁Halilintar	-10.5229
▁Jayapura	-10.5229
▁Daftar	-10.5229
▁seluas	-10.523
▁berpendapat	-10.5268
▁dievakuasi	-10.5268
▁mempengaruhi	-10.5268
ABUP	-10.5268
▁tangkap	-10.5269
▁kendala	-10.527
▁Expo	-10.5282
▁Kristiyanto	-10.5308
▁Pangarep	-10.5308
▁derajat	-10.5308
▁terdekat	-10.5308
▁drama	-10.5309
▁menguasai	-10.5348
▁penderita	-10.5348
▁mikro	-10.5348
-79	-10.5351
▁pengawas	-10.5355
▁bermanfaat	-10.5387
▁mengonfirmasi	-10.5387
▁Inovasi	-10.5387
▁pemahaman	-10.5387
▁Dharma	-10.5388
▁Pratama	-10.5388
▁KTT	-10.5389
▁perahu	-10.5389
▁2024/2025	-10.5427
▁album	-10.5428
▁Teuku	-10.5428
▁Bhayangkara	-10.5468
▁WhatsApp	-10.5468
▁menghubungi	-10.5468
Suswono	-10.5468
▁dijatuh	-10.5468
▁rob	-10.5471
▁membatalkan	-10.5508
▁pertambangan	-10.5508
▁tawuran	-10.5508
▁kritis	-10.5508
▁karier	-10.5508
▁cerai	-10.5508
▁Artinya	-10.551
▁gigi	-10.5512
sungguh	-10.5513
Saat	-10.5515
▁ob	-10.5529
▁Business	-10.5548
▁Istimewa	-10.5548
▁memerlukan	-10.5548
▁mengklaim	-10.5548
▁pemberantasan	-10.5548
▁waspada	-10.5548
▁Merdeka	-10.5548
▁Perumahan	-10.5548
▁ditangani	-10.5549
▁terkini	-10.555
menerus	-10.5551
▁kelima	-10.5552
Pilkada	-10.5554
▁memudahkan	-10.5589
▁otomotif	-10.5589
▁pelecehan	-10.5589
▁pemberontak	-10.5589
▁Thomas	-10.5589
▁praktis	-10.5589
▁pelamar	-10.5589
▁diperoleh	-10.5591
lembaga	-10.5595
▁dimanfaatkan	-10.563
▁prajurit	-10.563
▁Achmad	-10.563
▁sawit	-10.563
▁Pemenangan	-10.563
▁mandiri	-10.5631
▁terancam	-10.5631
▁Edward	-10.5671
▁komersial	-10.5671
▁Pasuruan	-10.5671
▁memperhatikan	-10.5671
▁Distrik	-10.5671
▁buruh	-10.5672
▁Ternyata	-10.5675
hidup	-10.568
▁menyetujui	-10.5712
▁keagamaan	-10.5712
▁bentrok	-10.5712
▁Udara	-10.5713
menyita	-10.5729
▁bertema	-10.5738
▁pengumuman	-10.5753
▁vaksin	-10.5753
▁Kendaraan	-10.5753
▁direktur	-10.5753
▁memperingati	-10.5753
▁Santoso	-10.5753
▁Jembrana	-10.5795
▁otoritas	-10.5795
▁pinjaman	-10.5795
▁responden	-10.5795
▁silaturahmi	-10.5795
▁universitas	-10.5795
▁properti	-10.5795
▁Basuki	-10.5795
perusahaan	-10.5803
narkoba	-10.5803
▁beasiswa	-10.5836
▁menderita	-10.5837
▁kurban	-10.5837
▁modus	-10.5837
▁dirasakan	-10.5837
▁penahanan	-10.5837
▁perbankan	-10.5837
▁Nugroho	-10.5878
▁Target	-10.5878
▁pergerakan	-10.5878
▁caleg	-10.5879
▁cinta	-10.5879
▁ditambah	-10.5879
▁multi	-10.588
▁Ahli	-10.5882
▁panen	-10.5882
antongi	-10.5906
intervensi	-10.592
▁Trenggalek	-10.592
▁festival	-10.592
▁kepedulian	-10.592
▁membeberkan	-10.592
▁menjatuhkan	-10.592
▁penambahan	-10.592
ficial	-10.5921
▁organ	-10.5962
▁Google	-10.5963
▁melahirkan	-10.5963
▁rombongan	-10.5963
▁disiapkan	-10.5963
▁BTN	-10.5963
▁pendek	-10.5964
▁asuhan	-10.5964
tepatan	-10.5964
▁Ulama	-10.5964
tujukan	-10.5965
▁Champions	-10.6005
mengidentifikasi	-10.6005
▁kedaulatan	-10.6005
▁mengembalikan	-10.6005
▁Sumatra	-10.6005
▁Kamala	-10.6006
▁paksa	-10.6007
profesi	-10.6007
▁dijalankan	-10.6008
eusai	-10.6039
▁Brigjen	-10.6047
▁Cahyadi	-10.6047
▁Probolinggo	-10.6047
▁pemberdayaan	-10.6047
▁mengecek	-10.6048
▁beruntun	-10.6057
▁Zelenskyy	-10.609
▁demonstrasi	-10.609
▁menimpa	-10.609
▁pelapor	-10.609
▁menduga	-10.609
▁emosi	-10.6108
▁Development	-10.6133
▁Misalnya	-10.6176
▁invasi	-10.6176
▁membenarkan	-10.6176
guhkan	-10.6179
▁jarang	-10.6179
▁ruas	-10.618
▁harap	-10.6196
▁Auto	-10.6201
▁pembinaan	-10.622
▁Fatoni	-10.622
▁Green	-10.622
▁Kampus	-10.622
▁Miliar	-10.622
▁Madiun	-10.622
▁Kereta	-10.6221
wakil	-10.6254
enyerahan	-10.6256
▁penyelesaian	-10.6263
▁London	-10.6263
▁Pemasyarakatan	-10.6263
▁cocok	-10.6263
▁memegang	-10.6263
▁relawan	-10.6263
▁Dorong	-10.6263
▁dikatakan	-10.6264
▁Arena	-10.6266
▁perlawanan	-10.6307
▁intensif	-10.6308
▁start	-10.634
▁mendeklarasikan	-10.6351
▁mengizinkan	-10.6351
▁tertutup	-10.6351
▁Bobby	-10.6351
▁sorotan	-10.6351
▁penyelundupan	-10.6351
▁Harvey	-10.6351
▁otak	-10.6352
▁federal	-10.6395
▁ketertiban	-10.6395
▁pendanaan	-10.6395
▁berkuasa	-10.6395
▁ditembak	-10.6395
▁hamil	-10.6395
▁Aktor	-10.6396
truk	-10.6418
▁Pesantren	-10.6439
▁Pramella	-10.6439
▁destinasi	-10.6439
▁pembahasan	-10.6439
▁Cagub	-10.6439
▁Pasaribu	-10.6439
▁nasib	-10.6439
▁CSR	-10.6439
▁Ricis	-10.6439
▁dipakai	-10.644
anglima	-10.6447
▁EURO	-10.6483
▁memperjuangkan	-10.6483
▁Wibowo	-10.6483
▁Komunitas	-10.6483
▁Termasuk	-10.6483
ALEM	-10.6483
▁Gratis	-10.6483
▁mendirikan	-10.6484
▁tempur	-10.6484
▁Damai	-10.6485
▁California	-10.6528
▁Gorontalo	-10.6528
▁diterbitkan	-10.6528
▁pembalap	-10.6528
▁komponen	-10.6528
▁peduli	-10.6528
▁menjamu	-10.6536
▁Mojokerto	-10.6573
▁dibebaskan	-10.6573
▁mencalonkan	-10.6573
▁pemanfaatan	-10.6573
▁terkemuka	-10.6573
▁rahasia	-10.6573
▁pangkalan	-10.6573
▁Teheran	-10.6573
▁Institut	-10.6584
▁PBNU	-10.6618
▁pembelajaran	-10.6618
▁diyakini	-10.6618
▁tersisa	-10.662
andalkan	-10.6622
Jateng	-10.6637
Polri	-10.6637
▁kemitraan	-10.6663
▁membatasi	-10.6664
▁mengantar	-10.6666
▁Siswa	-10.6681
▁dakwaan	-10.6709
▁Maulana	-10.6709
▁penyelamat	-10.6709
▁Suami	-10.6712
▁Ponorogo	-10.6754
▁Bahrain	-10.6754
▁Komisaris	-10.6754
▁berfungsi	-10.6754
▁stadion	-10.6754
▁tembakau	-10.6754
▁Pendaftaran	-10.6754
▁Denny	-10.6754
▁meresmi	-10.6754
Setelah	-10.6775
▁memaparkan	-10.68
▁konteks	-10.68
▁Marketing	-10.68
▁hangat	-10.68
▁Terminal	-10.68
▁banget	-10.6801
▁Bagus	-10.6802
▁Bangladesh	-10.6846
▁Tulungagung	-10.6846
▁capaian	-10.6846
▁kecerdasan	-10.6846
▁Penyakit	-10.6846
▁ISIS	-10.6846
▁berlebihan	-10.6847
▁SERA	-10.6884
▁Koordinasi	-10.6892
▁Service	-10.6892
▁Nyoman	-10.6892
▁artinya	-10.6893
▁spesifik	-10.6894
senjata	-10.6906
mimpi	-10.6925
sembunyi	-10.6939
▁narapidana	-10.6939
▁penuntut	-10.6939
▁simulasi	-10.6939
▁Bangkalan	-10.6939
▁detail	-10.6939
▁Kejari	-10.6941
Hatta	-10.6974
▁canggih	-10.6986
▁Samarinda	-10.6986
▁mempertanyakan	-10.6986
▁menaikkan	-10.6986
▁Benjamin	-10.6986
▁Pecco	-10.6986
▁kamera	-10.6986
▁panel	-10.6992
▁mengejutkan	-10.7033
▁panitia	-10.7033
▁berterima	-10.7033
▁mengakses	-10.7033
▁Kuningan	-10.7033
▁sapaan	-10.7034
▁kajian	-10.7034
▁tertua	-10.7055
Mereka	-10.7057
saudara	-10.7058
▁Bojonegoro	-10.708
▁berkampanye	-10.708
▁penyaluran	-10.708
▁Menengah	-10.708
▁Apple	-10.708
▁menempati	-10.708
▁menguat	-10.7082
▁Bella	-10.7084
prakirakan	-10.7123
▁Majalengka	-10.7127
▁bahagia	-10.7127
▁fenomena	-10.7127
▁menerbitkan	-10.7127
▁pengungkapan	-10.7127
▁gunung	-10.7127
▁diraih	-10.7127
▁Peserta	-10.7127
▁tabung	-10.7129
▁sayur	-10.713
▁kantong	-10.7155
▁Convention	-10.7175
▁Kolaborasi	-10.7175
▁Sudjana	-10.7175
▁Sumenep	-10.7175
▁delegasi	-10.7175
▁Jembatan	-10.7175
▁Online	-10.7175
▁pungkas	-10.7175
▁meluas	-10.7175
▁persatuan	-10.7175
▁warung	-10.7176
▁penalti	-10.7176
▁Resmi	-10.7176
▁kendali	-10.7177
▁Antoni	-10.7177
▁Ikut	-10.7214
#	-10.7223
▁Prasetyo	-10.7223
▁dikonsumsi	-10.7223
▁menguntungkan	-10.7223
▁Manfaat	-10.7223
▁pengangkatan	-10.7223
bungkus	-10.7223
▁Dugaan	-10.7224
▁menyimpan	-10.7224
▁Argentina	-10.7271
▁Situbondo	-10.7271
▁Stadium	-10.7271
▁pengecekan	-10.7271
▁gereja	-10.7271
▁pertengahan	-10.7271
▁asam	-10.7276
▁Kyiv	-10.7319
▁otomatis	-10.7319
▁penggeledahan	-10.7319
▁penemuan	-10.7319
▁mengundur	-10.7319
▁Aditya	-10.7319
▁memasang	-10.732
▁Cipta	-10.732
▁Nilai	-10.732
▁menanam	-10.7322
▁Bamsoet	-10.7368
▁Sukarelawan	-10.7368
▁investigasi	-10.7368
▁Personel	-10.7368
▁APBN	-10.7368
▁Gabungan	-10.7368
▁Peringatan	-10.7368
▁menantang	-10.7369
▁edisi	-10.7369
JPNN	-10.7397
▁Mitsubishi	-10.7416
▁diselesaikan	-10.7416
▁kelancaran	-10.7416
▁praperadilan	-10.7416
▁restoran	-10.7416
▁Gereja	-10.7416
▁Moeis	-10.7417
▁Dusun	-10.7417
▁Silva	-10.7419
▁Widya	-10.7451
inisiasi	-10.7459
▁ketersediaan	-10.7465
▁pertunjukan	-10.7465
▁dikenakan	-10.7465
▁Purwo	-10.7465
▁begini	-10.7466
▁percepatan	-10.7466
▁sembar	-10.7475
▁Bagnaia	-10.7515
▁kecantikan	-10.7515
▁keterampilan	-10.7515
▁permukaan	-10.7515
▁berkendara	-10.7515
▁Tabanan	-10.7515
▁William	-10.7564
▁melengkapi	-10.7564
▁sertifikasi	-10.7564
▁relevan	-10.7564
▁hunian	-10.7564
▁mengkritik	-10.7564
▁persetujuan	-10.7564
▁Yamaha	-10.7564
▁pleno	-10.7564
▁dikembangkan	-10.7564
▁Diduga	-10.7565
▁revisi	-10.7565
▁Fakta	-10.7566
▁curah	-10.757
amerkan	-10.7574
sekolah	-10.7597
onferensi	-10.761
▁menyuarakan	-10.7614
▁perpanjangan	-10.7614
▁berlatih	-10.7614
▁Panitia	-10.7614
▁aliansi	-10.7614
▁Syariah	-10.7614
▁menembus	-10.7614
IKN	-10.7648
▁kesuksesan	-10.7664
▁klarifikasi	-10.7664
▁menjanjikan	-10.7664
▁penolakan	-10.7664
▁menerangkan	-10.7664
▁Sahroni	-10.7714
▁bioskop	-10.7714
▁menempuh	-10.7714
▁mematikan	-10.7714
▁Raharja	-10.7714
▁pengurangan	-10.7714
▁bansos	-10.7714
▁etnis	-10.7715
▁Dapil	-10.7715
▁dapur	-10.7715
impunan	-10.7719
▁07:0	-10.7764
▁UNRWA	-10.7765
▁kontroversi	-10.7765
▁Covid	-10.7765
▁menyasar	-10.7766
▁eksekutif	-10.7815
▁ditentukan	-10.7815
▁psikolog	-10.7815
▁melemah	-10.7815
▁Begitu	-10.7816
▁Seleksi	-10.7816
▁insentif	-10.7816
▁helikopter	-10.7866
▁kripto	-10.7866
▁produktivitas	-10.7866
▁menampung	-10.7867
▁Ginting	-10.7867
▁THR	-10.7867
▁DPW	-10.7867
encinta	-10.7874
▁Hasyim	-10.7918
▁Iduladha	-10.7918
▁artikel	-10.7918
▁menduduki	-10.7918
▁tangkis	-10.7918
▁Fitri	-10.7921
▁komprehensif	-10.7969
▁dinamika	-10.7969
▁melukai	-10.7969
▁diklaim	-10.7969
▁koleksi	-10.7969
▁bertekad	-10.7969
/2023	-10.7969
▁kimia	-10.7969
▁Onsu	-10.797
▁voli	-10.7971
▁disetujui	-10.8021
▁membebaskan	-10.8021
▁Lumajang	-10.8021
▁Ditangkap	-10.8021
▁Health	-10.8021
▁botol	-10.8021
▁mengedepan	-10.8021
▁pengambilan	-10.8021
▁perasaan	-10.8023
▁Solidaritas	-10.8073
▁kronologi	-10.8073
▁proposal	-10.8073
▁terwujud	-10.8073
▁Ramadhan	-10.8073
▁Purnama	-10.8073
▁National	-10.8073
▁Komandan	-10.8073
▁bersikap	-10.8074
▁Saleh	-10.8076
▁19:0	-10.8089
▁20:0	-10.8102
▁Logistik	-10.8125
▁kemacetan	-10.8125
▁meyakinkan	-10.8125
▁sederhana	-10.8125
▁AHY	-10.8126
▁Administrasi	-10.8178
▁mempelajari	-10.8178
▁penandatanganan	-10.8178
▁ditawarkan	-10.8178
▁tercapai	-10.8178
bobol	-10.8184
▁berikut	-10.8204
▁motivasi	-10.8231
▁diabetes	-10.8231
▁premium	-10.8231
▁cadangan	-10.8231
▁perumahan	-10.8231
▁hancur	-10.8232
▁Boyolali	-10.8284
▁Hijriah	-10.8284
▁mengendalikan	-10.8284
▁menyinggung	-10.8284
▁volume	-10.8284
▁Nasution	-10.8284
▁kekeringan	-10.8284
▁mengunggah	-10.8284
▁dedikasi	-10.8284
▁Harupat	-10.8284
▁Senjata	-10.8284
▁resolusi	-10.8284
▁Rizal	-10.8285
enanggapi	-10.8295
▁Vladimir	-10.8338
▁sertifikat	-10.8338
▁stakeholder	-10.8338
▁disediakan	-10.8338
▁Listyo	-10.8338
▁petahana	-10.8338
▁rezim	-10.8338
▁segmen	-10.8339
▁17:0	-10.8366
▁eksklusif	-10.8391
▁maskapai	-10.8391
▁direncanakan	-10.8391
▁muslim	-10.8391
▁peternak	-10.8392
▁diakses	-10.8392
▁tunai	-10.8393
jemput	-10.8394
UGM	-10.8412
▁Foundation	-10.8446
▁bergulir	-10.8446
▁menggagalkan	-10.8446
▁penyeberangan	-10.8446
▁Kehadiran	-10.8446
▁Respons	-10.8446
▁Swedia	-10.8446
erselisihan	-10.8446
▁bertahap	-10.8446
▁finis	-10.8446
▁Deklarasi	-10.85
▁Pembunuhan	-10.85
▁Peningkatan	-10.85
▁dideportasi	-10.85
▁armada	-10.85
▁XXI	-10.85
▁miskin	-10.85
▁warisan	-10.85
▁mendarat	-10.85
▁Jaringan	-10.85
▁berkurang	-10.85
▁seputar	-10.8501
▁Susanto	-10.8501
▁Management	-10.8555
▁Pertandingan	-10.8555
▁dibintangi	-10.8555
▁konsolidasi	-10.8555
▁mengoptimal	-10.8555
▁milenial	-10.8555
▁Unggul	-10.8555
▁dipenuhi	-10.8555
▁menyeluruh	-10.8555
▁penyanyi	-10.8555
▁terpidana	-10.8555
▁alumni	-10.8555
▁APBD	-10.8555
▁GOR	-10.8555
▁Kendal	-10.8594
Bawaslu	-10.8603
▁terintegrasi	-10.8609
▁Georgia	-10.8609
▁membongkar	-10.8609
▁Sumedang	-10.861
▁menindak	-10.861
dikbud	-10.861
▁tertarik	-10.861
▁Federal	-10.8665
▁bersejarah	-10.8665
▁ditandatangani	-10.8665
▁ditingkatkan	-10.8665
▁Tentara	-10.8665
▁membersihkan	-10.8665
▁pemegang	-10.8665
▁musuh	-10.8665
▁membakar	-10.8665
masyarakat	-10.8715
▁masif	-10.872
▁Akademi	-10.872
▁Pesawat	-10.872
▁diberlakukan	-10.872
▁memasukkan	-10.872
▁mematuhi	-10.872
▁membahayakan	-10.872
▁keturunan	-10.872
▁teknik	-10.872
▁tersendiri	-10.872
▁Cilegon	-10.872
▁rantai	-10.872
▁tuntas	-10.8721
▁Sejahtera	-10.8776
▁keberangkatan	-10.8776
▁melampaui	-10.8776
▁Kreatif	-10.8776
▁Hartono	-10.8776
▁General	-10.8776
▁virus	-10.8777
Tipikor	-10.8777
▁penulis	-10.8777
▁16:1	-10.8789
▁kurun	-10.8823
▁bernomor	-10.8832
▁kepemilikan	-10.8832
▁menghapus	-10.8832
▁keperluan	-10.8832
▁maritim	-10.8832
▁Irish	-10.8833
▁Segera	-10.8833
▁Jorge	-10.8834
▁Gempa	-10.8877
▁Penyebab	-10.8889
▁Stefano	-10.8889
▁memberantas	-10.8889
▁Kejadian	-10.8889
▁Komitmen	-10.8889
▁menonton	-10.8889
▁mendadak	-10.8889
▁Sukses	-10.8889
▁Pemilik	-10.8889
▁South	-10.8892
▁Analis	-10.8894
ANTARA	-10.8943
▁Barcelona	-10.8946
▁Communication	-10.8946
▁Yudhoyono	-10.8946
▁berujung	-10.8946
▁memengaruhi	-10.8946
▁bergengsi	-10.8946
▁satelit	-10.8946
▁Swiss	-10.8946
▁bjb	-10.8946
▁Parawansa	-10.8946
▁tumbang	-10.8949
▁Birokrasi	-10.9003
▁Energy	-10.9003
▁Florida	-10.9003
▁almarhum	-10.9003
▁berpengaruh	-10.9003
▁Fauzi	-10.9003
Pemeriksaan	-10.9003
▁Meningkat	-10.9003
▁Social	-10.9003
▁Cimahi	-10.9003
▁absen	-10.9003
▁dihadirkan	-10.906
▁horor	-10.906
▁transfer	-10.906
▁Meninggal	-10.906
▁Idris	-10.906
▁Peduli	-10.9061
▁menyumbang	-10.9061
▁Liverpool	-10.9118
▁Manchester	-10.9118
▁Officer	-10.9118
▁rekening	-10.9118
▁Nahdl	-10.9118
▁membalas	-10.9118
▁asisten	-10.9119
▁Putera	-10.9121
▁Robert	-10.9133
▁17:1	-10.9172
▁krusial	-10.9176
▁Ismail	-10.9176
▁Miftah	-10.9176
▁kecuali	-10.9176
▁Yahya	-10.9176
irkuit	-10.9176
▁Wuling	-10.9176
▁walau	-10.9177
▁Brimob	-10.9235
▁bilateral	-10.9235
▁perceraian	-10.9235
▁Fasilitas	-10.9235
▁erupsi	-10.9235
▁jenderal	-10.9235
▁pembangkit	-10.9235
▁varian	-10.9235
▁rumput	-10.9235
▁ulama	-10.9235
3.000	-10.9282
▁PUPR	-10.9293
ksplorasi	-10.9294
▁hambatan	-10.9294
▁kepastian	-10.9294
▁relatif	-10.9294
▁perwira	-10.9294
▁rambut	-10.9294
▁belasan	-10.9294
▁konvensi	-10.9297
persembah	-10.9298
▁17:3	-10.9343
_	-10.9353
afiliasi	-10.9353
▁Sudirman	-10.9353
▁negosiasi	-10.9353
▁raksasa	-10.9353
▁1.200	-10.9353
▁figur	-10.9353
▁Yahudi	-10.9353
▁Insiden	-10.9353
▁Teknis	-10.9353
▁menyarankan	-10.9353
▁Power	-10.9353
▁Tokyo	-10.9353
▁murid	-10.9353
▁syukur	-10.9353
▁Wahid	-10.9354
é	-10.9412
▁Suzuki	-10.9412
▁Uzbekistan	-10.9412
▁pengangguran	-10.9412
▁Portugal	-10.9412
▁Kinerja	-10.9412
▁menyenangkan	-10.9412
▁Kusuma	-10.9414
Hamas	-10.9416
utamakan	-10.9421
▁Pencegahan	-10.9472
▁menghubungkan	-10.9472
▁pencoblosan	-10.9472
▁melebihi	-10.9472
▁07:1	-10.9504
Insyaallah	-10.9532
▁Mohammed	-10.9532
▁School	-10.9532
▁favorit	-10.9532
▁memaksimalkan	-10.9532
▁menindaklanjuti	-10.9532
▁mencabut	-10.9532
▁tertinggal	-10.9532
▁Luhut	-10.9533
▁menyesuaikan	-10.9593
▁perundingan	-10.9593
▁tercipta	-10.9593
▁Pelajar	-10.9593
▁Diponegoro	-10.9654
▁Pemberdayaan	-10.9654
▁memperpanjang	-10.9654
▁Mapolres	-10.9654
▁Fauziyah	-10.9654
▁bercerita	-10.9654
▁Asuransi	-10.9654
▁terbunuh	-10.9654
▁memecah	-10.9654
▁Food	-10.9654
&	-11.3099
*	-11.8955
á	-11.927
ü	-11.9762
[	-12.1089
ö	-12.2015
è	-12.2227
°	-12.2667
=	-12.3859
í	-12.4378
ñ	-12.5212
ó	-12.5506
•	-13.0417
±	-13.3212
ú	-13.4593
ä	-13.5362
®	-13.6195
â	-13.6195
ı	-13.9216
>	-14.0466
`	-14.0466
′	-14.0466
×	-14.3561
ê	-14.3561
ï	-14.3561
Ó	-14.5561
⁠	-14.5561
à	-14.5561
\	-14.5561
Ü	-14.8061
ì	-14.8061
ç	-14.8061
ş	-14.8061
<	-15.1394
·	-15.1394
−	-15.1394
ø	-15.1394
ā	-15.6394
Ä	-15.6394
š	-15.6394
ë	-15.6394
Ö	-15.6394
(	-16.6286
ğ	-16.6384
Á	-16.6385
μ	-16.6386
😭	-16.6387
⁄	-16.6388
Ç	-16.6389
ô	-16.639
ć	-16.6391
ã	-16.6392
£	-16.6393
İ	-16.6394
α	-16.6394
‍	-16.6394
Â	-16.6394
É	-16.6394
ð	-16.6394
ò	-16.6394
õ	-16.6394
Ā	-16.6394
ę	-16.6394
ķ	-16.6394
ł	-16.6394
ś	-16.6394
Α	-16.6394
Η	-16.6394
Τ	-16.6394
≥	-16.6394
丽	-16.6394
安	-16.6394
洪	-16.6394
金	-16.6394
陈	-16.6394
🍌	-16.6394
😊	-16.6394
Ł	-16.6394
ơ	-16.6394
ư	-16.6394
€	-16.6394
