<unk>	0
<s>	0
</s>	0
▁an	-3.39598
▁,	-3.55951
▁.	-3.74179
a	-4.2038
▁di	-4.27075
▁2	-4.45731
▁se	-4.59435
▁a	-4.65329
▁yang	-4.66044
▁s	-4.66752
▁ke	-4.69402
i	-4.6946
▁me	-4.71966
▁dan	-4.75534
▁kan	-4.78467
▁0	-4.81805
▁-	-4.82853
r	-4.90769
k	-4.93214
▁nya	-4.95841
▁ter	-4.95875
▁P	-4.98904
▁p	-5.01681
▁S	-5.02908
▁"	-5.0513
▁d	-5.06251
▁ber	-5.06515
▁b	-5.09096
▁meng	-5.11235
▁pe	-5.1173
▁(	-5.1836
▁)	-5.19077
▁i	-5.19209
e	-5.21658
▁1	-5.26589
▁4	-5.32789
▁m	-5.36105
s	-5.39914
▁M	-5.422
u	-5.43382
▁B	-5.46733
▁A	-5.49121
▁k	-5.52412
▁untuk	-5.56407
▁pada	-5.56964
eng	-5.57631
o	-5.6233
▁te	-5.6345
▁K	-5.68322
▁ini	-5.71944
▁itu	-5.74037
▁/	-5.74203
▁per	-5.74916
t	-5.75821
▁dari	-5.76442
▁T	-5.82816
▁D	-5.8416
▁dalam	-5.86848
▁ta	-5.89376
▁r	-5.89868
▁Ke	-5.96365
▁n	-5.98989
▁3	-6.08152
▁ah	-6.08388
lah	-6.0961
▁mem	-6.12542
▁I	-6.14112
l	-6.15181
▁R	-6.16902
▁ang	-6.19146
▁G	-6.19706
▁meny	-6.21134
▁tidak	-6.24792
▁Se	-6.2502
▁J	-6.25094
▁5	-6.25863
h	-6.28547
g	-6.28687
▁Ind	-6.29711
▁:	-6.32769
n	-6.35197
▁peng	-6.35428
▁sebut	-6.35616
▁nesia	-6.37027
▁akan	-6.37278
▁l	-6.37335
▁c	-6.39473
▁H	-6.39795
▁C	-6.39807
▁ko	-6.40622
▁ada	-6.41638
▁kata	-6.41819
▁baga	-6.44176
▁N	-6.46181
▁ung	-6.47541
▁Pe	-6.47683
d	-6.47819
▁asi	-6.49901
▁jpnn	-6.50016
▁jug	-6.51037
▁L	-6.53007
▁9	-6.53323
▁com	-6.53639
▁na	-6.55212
▁WIB	-6.57023
▁mend	-6.57348
▁takan	-6.57782
▁j	-6.58714
an	-6.59664
▁Me	-6.60654
▁la	-6.62015
▁orang	-6.62572
▁ti	-6.63142
▁7	-6.64246
▁kukan	-6.6428
▁mber	-6.65089
p	-6.65837
▁6	-6.67594
▁U	-6.68537
jadi	-6.68973
▁8	-6.7142
ah	-6.71827
▁al	-6.72169
▁er	-6.72869
m	-6.72878
▁tahun	-6.76942
▁saat	-6.77266
▁atu	-6.7796
▁bahw	-6.78574
b	-6.79252
▁E	-6.80008
▁mela	-6.82009
▁oleh	-6.82334
▁e	-6.83324
▁F	-6.84084
▁ereka	-6.84537
▁kar	-6.8505
▁lalu	-6.87353
▁o	-6.88124
▁g	-6.89105
▁lebih	-6.90156
▁bisa	-6.90995
▁W	-6.91291
▁sama	-6.91709
▁ngkat	-6.91757
▁apa	-6.93483
▁Kami	-6.94221
▁Di	-6.95781
▁w	-6.95988
▁ka	-7.00904
▁itas	-7.01226
▁hing	-7.01634
▁hadap	-7.02643
▁ngkap	-7.03008
▁t	-7.04111
▁ional	-7.04654
▁Jaka	-7.04694
▁rakat	-7.07148
▁Ma	-7.07242
▁nega	-7.0788
tau	-7.08379
▁u	-7.09667
▁Per	-7.09815
▁cara	-7.10511
▁intah	-7.1076
▁anyak	-7.11128
▁meni	-7.11422
▁belum	-7.12486
udah	-7.12615
▁pro	-7.14387
▁baru	-7.15028
▁hari	-7.15404
▁mene	-7.16297
▁menj	-7.17598
ya	-7.17949
y	-7.18117
▁Kota	-7.18484
▁re	-7.18489
▁besar	-7.18585
▁para	-7.18945
▁kami	-7.19668
▁mpat	-7.20593
▁peny	-7.21402
▁is	-7.2147
▁dapat	-7.23145
▁jadi	-7.23697
▁masy	-7.24652
▁siden	-7.24986
▁pem	-7.25196
▁si	-7.25766
▁menc	-7.27546
▁memb	-7.28002
▁guna	-7.28302
▁lama	-7.28442
▁ing	-7.28712
▁bagi	-7.28886
er	-7.28942
▁pun	-7.29004
▁tetap	-7.29096
▁ukung	-7.29388
ngg	-7.29594
▁serta	-7.2977
▁pend	-7.30544
un	-7.30947
▁nteri	-7.31387
▁dila	-7.3152
emer	-7.33106
▁lang	-7.33966
▁bu	-7.34316
▁hasil	-7.35671
▁po	-7.35731
▁anak	-7.36685
eber	-7.36842
▁dia	-7.37913
▁ujar	-7.38124
▁ian	-7.39091
ARTA	-7.39706
▁perti	-7.40535
▁O	-7.4076
▁rupa	-7.40983
▁ungan	-7.41335
se	-7.41587
▁Pra	-7.42273
▁baik	-7.42381
▁nurut	-7.428
▁JA	-7.43148
▁paten	-7.43903
▁angan	-7.4392
us	-7.44047
▁rban	-7.44459
▁haru	-7.44788
▁Rabu	-7.44958
▁elasa	-7.45072
it	-7.45577
▁us	-7.45581
▁ng	-7.46612
▁mbang	-7.46747
▁akhir	-7.46966
▁gram	-7.47161
▁Senin	-7.47336
ta	-7.4779
▁usaha	-7.47982
▁Dia	-7.48015
ter	-7.48322
▁f	-7.48536
▁Ber	-7.48739
ng	-7.4886
▁dua	-7.48862
▁pemb	-7.49143
▁be	-7.49266
▁Ko	-7.49495
▁apat	-7.49708
▁h	-7.50382
▁y	-7.51224
▁Pre	-7.51479
▁masuk	-7.51675
▁warga	-7.52251
▁ku	-7.52641
▁ur	-7.5285
▁nas	-7.53815
▁Jumat	-7.55347
▁antar	-7.55538
▁Ka	-7.55541
▁Ta	-7.56339
▁masih	-7.56374
▁V	-7.56375
▁le	-7.56634
▁aerah	-7.56866
▁laku	-7.56894
▁da	-7.57142
▁kel	-7.57225
▁saya	-7.58181
▁erang	-7.58197
dal	-7.58615
▁pihak	-7.59511
▁iliki	-7.5968
▁Re	-7.59848
▁ar	-7.60016
▁atas	-7.60656
▁Tim	-7.60689
▁artai	-7.60803
▁nggal	-7.60858
.	-7.60912
▁ntara	-7.62129
▁mena	-7.62637
▁salah	-7.62828
▁dis	-7.63056
▁Jawa	-7.63061
▁um	-7.63625
▁Bali	-7.63645
at	-7.64075
▁jalan	-7.64211
▁Peng	-7.64291
▁srael	-7.65558
▁Y	-7.65918
▁rumah	-7.66064
▁ha	-7.66124
▁pala	-7.66427
▁hany	-7.66886
▁masi	-7.67057
▁ntang	-7.67204
▁AS	-7.67775
▁Sa	-7.67919
▁upa	-7.69374
▁Kab	-7.69468
▁inggu	-7.6954
▁menu	-7.69776
▁at	-7.69901
▁hal	-7.70368
▁tim	-7.70433
▁Ketua	-7.70461
▁mana	-7.70777
▁Keme	-7.71214
▁Pro	-7.72151
▁mbali	-7.73339
▁impin	-7.73355
▁but	-7.73437
▁mel	-7.73499
▁kali	-7.73596
▁kerja	-7.73773
▁hadir	-7.73964
▁uara	-7.73973
▁agian	-7.74401
gat	-7.7453
▁olisi	-7.75427
▁kita	-7.75542
▁wo	-7.7574
▁luruh	-7.75951
▁kasus	-7.76063
▁unia	-7.77528
▁atang	-7.77701
kan	-7.77735
▁Ba	-7.78478
▁bantu	-7.7884
▁rja	-7.78858
▁enang	-7.79663
▁in	-7.80555
▁Ter	-7.80708
▁kom	-7.81095
▁nila	-7.81694
▁alon	-7.81777
▁ari	-7.81824
ap	-7.82112
bo	-7.82197
▁latan	-7.82442
▁nting	-7.82702
▁Rp	-7.82795
▁ikut	-7.82871
▁kitar	-7.83187
,	-7.83334
▁sehat	-7.83798
▁La	-7.83942
▁'	-7.84136
▁Sabtu	-7.84174
▁Te	-7.84415
▁idik	-7.84448
▁	-7.8454
▁rima	-7.84766
▁lain	-7.85142
▁inte	-7.85413
▁mili	-7.8546
▁angun	-7.85893
▁mulai	-7.86112
▁ngga	-7.86207
▁mper	-7.86865
▁dib	-7.86993
▁luar	-7.87654
▁dang	-7.87871
▁Barat	-7.88044
▁hukum	-7.88318
▁uang	-7.88431
mpai	-7.88529
▁ya	-7.88556
▁rtama	-7.88704
▁Sur	-7.89063
▁pela	-7.8937
▁dite	-7.89751
▁rsen	-7.89755
▁pa	-7.90037
▁angka	-7.90073
▁dip	-7.90329
▁gelar	-7.90655
▁lihat	-7.91311
▁tif	-7.91755
▁agar	-7.91809
▁tiga	-7.92519
▁Nam	-7.92522
▁isasi	-7.92674
▁pre	-7.93326
▁tu	-7.9364
▁nyata	-7.93895
▁nding	-7.94038
▁tika	-7.94166
▁PT	-7.94965
▁Ini	-7.95401
▁rang	-7.95957
▁arang	-7.96291
▁air	-7.96455
▁mu	-7.96998
ilka	-7.97093
▁ara	-7.98079
▁li	-7.99294
mud	-7.99391
▁idang	-7.99549
▁ncana	-7.99857
▁mint	-8.0032
▁semua	-8.00626
▁litik	-8.01489
▁Dalam	-8.0189
▁asang	-8.02396
▁innya	-8.02724
▁Band	-8.0285
▁anjut	-8.03308
▁kedua	-8.03441
▁nur	-8.03555
te	-8.03903
▁utama	-8.03993
▁Le	-8.04057
▁tak	-8.04219
▁harga	-8.04228
▁seb	-8.04458
▁mbua	-8.04484
▁nomi	-8.04744
▁ind	-8.04946
▁ngah	-8.05053
▁elas	-8.05188
▁ia	-8.05764
▁sej	-8.0611
▁kota	-8.06183
▁roses	-8.06262
▁el	-8.06278
▁depan	-8.06353
▁man	-8.0701
▁v	-8.07023
▁nang	-8.07094
▁milih	-8.07418
▁elai	-8.07793
▁osial	-8.08051
▁masa	-8.08188
▁ahkan	-8.08235
▁Ha	-8.0838
▁giat	-8.09227
▁kons	-8.09317
▁abaya	-8.09419
▁lagi	-8.09494
▁ters	-8.09529
▁Agus	-8.09556
▁ata	-8.09819
il	-8.09956
▁ikasi	-8.10539
▁ub	-8.11626
▁Ra	-8.11656
▁bulan	-8.11666
▁harap	-8.11666
▁RI	-8.11954
▁roduk	-8.12659
▁ho	-8.12691
▁Saya	-8.12832
▁emilu	-8.12952
▁yanan	-8.13017
▁China	-8.13213
ilay	-8.13495
▁ingin	-8.13702
▁lah	-8.13869
▁waktu	-8.14231
▁aksi	-8.14596
▁lawan	-8.14626
▁isi	-8.15122
▁ksana	-8.15193
▁asal	-8.15257
mb	-8.15271
erta	-8.15316
▁manan	-8.15507
▁tugas	-8.15857
▁emain	-8.1599
▁no	-8.16557
▁Kom	-8.16595
▁njuk	-8.16736
▁Al	-8.16795
▁apai	-8.17201
▁diri	-8.1721
▁rasa	-8.17346
▁umum	-8.17551
▁gas	-8.17583
▁ena	-8.17936
▁acara	-8.17971
▁Nas	-8.18276
ggo	-8.19041
▁engah	-8.19095
▁ndak	-8.19251
jak	-8.19791
is	-8.19823
▁ingat	-8.20485
▁Z	-8.20841
▁antan	-8.20858
meri	-8.21027
▁tur	-8.21028
▁ampa	-8.21084
▁ndiri	-8.21094
▁okasi	-8.21206
al	-8.21227
▁pene	-8.21462
▁uarga	-8.22199
ke	-8.22357
▁hub	-8.22423
▁dise	-8.22528
▁alami	-8.22776
▁awal	-8.2297
▁as	-8.23211
▁nama	-8.2347
empu	-8.23889
▁ra	-8.24118
▁iri	-8.24169
as	-8.24842
▁jen	-8.24865
▁?	-8.24954
▁olda	-8.25023
nya	-8.25052
▁Ku	-8.25389
akin	-8.26099
▁umla	-8.26173
▁to	-8.26209
▁cama	-8.26853
▁siap	-8.27248
▁ublik	-8.27579
▁ukti	-8.2783
▁Sum	-8.28038
▁tang	-8.28114
▁wan	-8.28122
▁usat	-8.28165
per	-8.28293
▁eko	-8.28514
si	-8.28602
▁tuju	-8.28692
▁wasan	-8.28992
▁saja	-8.29653
▁[	-8.29711
▁empat	-8.29881
▁ins	-8.29891
▁olres	-8.29891
▁malam	-8.30244
▁]	-8.30311
▁Dire	-8.30537
▁ompok	-8.30621
▁ina	-8.30943
▁ndara	-8.31164
▁ak	-8.31282
▁erad	-8.31392
▁ilih	-8.31777
eski	-8.3178
▁jabat	-8.32346
▁dasar	-8.32564
▁media	-8.32882
▁erita	-8.33071
▁ir	-8.33408
▁juta	-8.33457
tor	-8.34193
▁Rusia	-8.343
▁Nov	-8.34874
▁ngak	-8.35418
▁Jadi	-8.35566
▁Hal	-8.35617
ukan	-8.3569
▁waki	-8.35876
▁mukan	-8.36054
▁vinsi	-8.36072
itu	-8.36097
▁bel	-8.36398
▁aftar	-8.36453
▁iksa	-8.36552
▁alia	-8.3683
▁resmi	-8.36836
▁yakni	-8.37061
▁ncar	-8.37708
enc	-8.37877
▁Okto	-8.37913
▁Gube	-8.37923
▁keb	-8.38037
▁aling	-8.38068
asal	-8.38107
▁njung	-8.38496
▁icara	-8.38753
▁aman	-8.39009
▁panj	-8.39089
▁ik	-8.39353
▁Umum	-8.39472
▁Ci	-8.39735
oal	-8.40269
▁trans	-8.40432
▁mas	-8.40691
▁dike	-8.41268
▁ngkah	-8.41322
▁info	-8.41566
▁buka	-8.41964
▁ong	-8.4204
▁arah	-8.42088
▁ling	-8.42232
w	-8.42305
▁ampak	-8.42813
▁Juli	-8.43386
▁ndis	-8.43645
▁Be	-8.43763
▁logi	-8.44117
▁jelas	-8.44196
▁lapor	-8.4437
▁Tahun	-8.44375
▁for	-8.44406
▁Wak	-8.44482
▁St	-8.44622
▁hanan	-8.44831
mbil	-8.4494
▁aya	-8.45267
▁egara	-8.45289
▁laga	-8.45289
▁nomor	-8.45439
▁poran	-8.45571
▁ja	-8.4599
▁okowi	-8.4608
▁sitas	-8.46447
▁ustri	-8.46506
▁eks	-8.46813
▁Gaza	-8.46859
▁eja	-8.46984
▁Pa	-8.47093
▁anye	-8.47355
▁Seme	-8.47367
▁entuk	-8.4747
▁istem	-8.47931
▁PPPK	-8.48184
▁njata	-8.4863
▁nfaat	-8.48793
▁mpung	-8.48942
▁ibu	-8.49005
▁if	-8.49345
▁seka	-8.49463
▁keras	-8.49615
▁sing	-8.49737
▁gung	-8.49828
▁hidup	-8.49888
▁benar	-8.49999
▁Foto	-8.49999
▁Bogor	-8.50105
▁z	-8.50191
ukul	-8.50421
▁hi	-8.50516
▁KPU	-8.50533
▁mampu	-8.5062
▁de	-8.51039
▁Sept	-8.51079
▁Peny	-8.51088
▁imnas	-8.51254
▁Fa	-8.51282
▁Badan	-8.51538
▁akar	-8.5156
▁juang	-8.5159
▁kanan	-8.51712
▁Su	-8.51909
▁Utara	-8.51955
▁ne	-8.52131
▁ngki	-8.52204
tmen	-8.52262
▁jik	-8.52326
▁utus	-8.52842
▁ngka	-8.52963
▁orong	-8.53069
▁it	-8.53088
▁Jalan	-8.5312
▁am	-8.53161
▁Kap	-8.53389
▁rupsi	-8.53394
▁kamp	-8.53594
▁Pol	-8.5403
▁erah	-8.54091
▁olo	-8.5411
▁pena	-8.54272
▁Juni	-8.54544
▁tensi	-8.54746
▁rak	-8.54797
▁suai	-8.54815
▁lima	-8.5495
▁Desa	-8.55081
▁par	-8.55434
▁Wa	-8.55769
▁aru	-8.55881
▁10	-8.56178
▁ran	-8.56254
stik	-8.56264
▁batas	-8.56292
▁naik	-8.56682
▁dita	-8.56752
▁Jan	-8.56871
▁ember	-8.57217
▁usia	-8.5753
ibat	-8.57623
▁ribu	-8.57752
▁peni	-8.57754
▁kolah	-8.57762
▁latih	-8.57883
▁DPR	-8.5801
▁on	-8.58052
▁ent	-8.58199
▁njag	-8.58249
▁Muh	-8.58631
▁nusia	-8.58716
▁ukai	-8.59256
▁kuat	-8.59488
▁tel	-8.59648
▁oper	-8.5971
▁ateng	-8.5996
▁egeri	-8.59985
▁nggar	-8.60037
▁Sema	-8.6004
▁umber	-8.60277
▁mobil	-8.60491
▁ulu	-8.60584
▁nited	-8.60611
▁tahui	-8.60797
▁wila	-8.61047
▁Tu	-8.61293
▁otor	-8.61396
▁neg	-8.61559
▁Hari	-8.61917
▁April	-8.61934
npa	-8.62031
upun	-8.6212
▁alam	-8.62297
▁bah	-8.62318
▁omis	-8.62352
▁im	-8.62728
▁strik	-8.62871
▁bija	-8.62967
▁KPK	-8.62969
▁kepe	-8.63082
▁laman	-8.63085
▁isata	-8.63193
▁tentu	-8.6335
▁nam	-8.63473
ul	-8.63517
▁Pad	-8.63529
▁kini	-8.63621
▁Mei	-8.63702
▁Ada	-8.63746
▁inasi	-8.63822
bawa	-8.63828
▁komp	-8.63965
▁jam	-8.63978
▁uca	-8.64424
▁ulang	-8.64641
▁intas	-8.64853
▁Lig	-8.65002
▁hak	-8.65095
▁Par	-8.65117
▁mang	-8.6546
▁nda	-8.6548
▁urang	-8.65497
▁duga	-8.65604
▁engg	-8.65634
▁ugaan	-8.65778
▁ritas	-8.66036
▁lamat	-8.66205
▁ring	-8.66274
▁ro	-8.66343
▁iala	-8.66481
▁did	-8.66625
▁sar	-8.66642
▁cepat	-8.66657
ar	-8.66876
▁Trump	-8.66957
▁Ins	-8.66971
▁siswa	-8.67002
▁rikat	-8.67126
▁he	-8.67175
▁Ukr	-8.67186
▁Asia	-8.67194
▁rek	-8.67195
▁upati	-8.67198
mer	-8.67204
▁Maret	-8.67225
▁ut	-8.6731
▁rinya	-8.67507
▁husus	-8.6761
▁ral	-8.67795
▁memp	-8.67805
▁main	-8.67902
▁Pend	-8.67942
▁ab	-8.6833
&	-8.6884
▁alang	-8.69213
▁osisi	-8.6928
▁mbaga	-8.69328
▁awab	-8.69408
▁edu	-8.6965
▁udara	-8.69812
oleh	-8.69819
▁Har	-8.70358
▁or	-8.70682
▁iden	-8.70724
utuh	-8.7081
▁dilan	-8.70943
▁anto	-8.71042
▁tor	-8.71223
▁stasi	-8.71285
iver	-8.71351
etap	-8.71617
v	-8.71678
▁Mar	-8.7168
▁Men	-8.71859
mbar	-8.72042
▁Inte	-8.72182
▁Korea	-8.72259
▁ria	-8.7229
mun	-8.72441
▁ndang	-8.72611
▁gera	-8.72713
▁olri	-8.72781
▁iliar	-8.72782
nd	-8.72853
▁isa	-8.7296
▁Iran	-8.73036
▁jauh	-8.73192
▁mpil	-8.73273
▁ul	-8.73349
▁ol	-8.73426
▁anjar	-8.73433
▁uku	-8.73457
▁nanti	-8.73473
▁sa	-8.73501
▁biasa	-8.7358
▁inv	-8.73635
▁antas	-8.7372
mpe	-8.74048
▁danya	-8.74151
▁daya	-8.74392
▁guru	-8.74437
▁Pem	-8.74443
▁bawah	-8.74903
▁TNI	-8.75015
▁idana	-8.75068
▁naga	-8.75208
akal	-8.75427
▁Bo	-8.75819
▁ola	-8.75876
▁kont	-8.75993
enj	-8.76085
▁maha	-8.76173
▁and	-8.76214
▁karta	-8.76242
▁luas	-8.76435
▁angsa	-8.76505
ada	-8.76508
▁dion	-8.7666
▁tahan	-8.76746
▁Co	-8.76905
▁ekto	-8.76915
▁Anda	-8.77028
▁apal	-8.77074
▁elang	-8.77247
▁Ch	-8.77372
▁do	-8.77408
▁muda	-8.77418
▁seme	-8.77538
▁uh	-8.77633
▁jati	-8.77656
▁20	-8.7775
▁kenal	-8.7782
▁gital	-8.77919
▁ono	-8.7812
▁Ro	-8.78166
▁Mu	-8.78174
▁Des	-8.78674
▁und	-8.78815
▁ebab	-8.79056
up	-8.79322
ord	-8.79472
ak	-8.79473
▁aring	-8.79489
▁Kar	-8.79496
▁cukup	-8.79665
▁edia	-8.79938
▁kec	-8.8017
▁lesai	-8.80262
▁mbak	-8.80385
▁ende	-8.80645
ntuk	-8.81073
▁kem	-8.81354
▁antai	-8.81597
▁surat	-8.81672
▁isnis	-8.81705
▁akit	-8.81706
▁data	-8.81782
▁12	-8.82222
▁mod	-8.82299
▁Anies	-8.82412
▁anti	-8.82506
▁putus	-8.82684
▁ambut	-8.82857
▁op	-8.82892
▁apres	-8.82919
▁uaca	-8.8297
▁mpang	-8.83049
▁mema	-8.83108
▁tihan	-8.83189
▁ek	-8.8325
▁gerak	-8.8358
▁sat	-8.83668
▁uji	-8.83827
▁tahu	-8.83853
▁lajar	-8.83893
▁asa	-8.84231
▁raih	-8.84238
di	-8.84239
▁mmad	-8.84616
▁pang	-8.84669
▁imb	-8.84771
▁mbuka	-8.85051
▁Ya	-8.85098
▁awas	-8.85304
▁annya	-8.85616
▁arat	-8.85642
▁agang	-8.8574
▁rget	-8.85843
▁ef	-8.85877
▁etiga	-8.85917
▁ASN	-8.8595
▁stina	-8.86041
▁berb	-8.86063
▁Papua	-8.86337
▁ga	-8.8659
▁An	-8.86842
▁up	-8.86907
▁maju	-8.86972
▁ac	-8.87202
▁ipta	-8.87216
▁Air	-8.8731
▁usai	-8.87395
nah	-8.87609
▁adi	-8.87647
alau	-8.87699
▁inan	-8.87726
▁lanj	-8.87866
▁lind	-8.87868
▁dipe	-8.87898
▁ham	-8.87901
▁Un	-8.88157
▁Pers	-8.88161
▁rah	-8.88256
▁ilang	-8.8827
▁tutu	-8.88276
▁Bea	-8.88326
▁Nu	-8.88392
▁aji	-8.88445
▁Lu	-8.88517
▁Febr	-8.88592
▁beda	-8.88943
▁Ahmad	-8.89051
▁agai	-8.89325
▁lan	-8.89414
▁Pemb	-8.89525
▁henti	-8.89679
▁ianto	-8.8969
▁mil	-8.89912
▁Pen	-8.90026
▁Hamas	-8.90046
▁tanya	-8.90302
▁ita	-8.90569
▁dekat	-8.90597
▁san	-8.90875
▁es	-8.90975
▁mbah	-8.90976
▁desa	-8.91037
▁raga	-8.91137
▁sta	-8.91205
▁libat	-8.9127
▁ju	-8.91388
▁ibusi	-8.91546
▁tap	-8.91677
ubah	-8.91738
tu	-8.91768
▁olusi	-8.91814
▁Q	-8.91932
uju	-8.92047
▁anten	-8.92161
▁api	-8.92366
▁udaya	-8.92491
▁rtem	-8.93153
▁kala	-8.93247
▁mar	-8.93396
▁ligus	-8.93556
▁of	-8.93639
▁ma	-8.93909
▁ton	-8.94008
▁ncang	-8.94017
▁etak	-8.94101
ung	-8.94179
▁abat	-8.9427
▁saksi	-8.94289
▁rdana	-8.94295
▁rif	-8.94311
▁eg	-8.94352
▁urut	-8.9458
▁paka	-8.94688
▁peran	-8.94775
▁ama	-8.95022
▁enam	-8.9509
▁eni	-8.95168
▁ati	-8.95263
▁penu	-8.95285
▁hujan	-8.9532
▁utra	-8.95456
▁ed	-8.95549
▁siasi	-8.95738
▁sakit	-8.9579
▁nutu	-8.95912
▁iv	-8.9601
▁Bu	-8.96165
▁ket	-8.96242
▁Dar	-8.96291
▁pasar	-8.96332
▁adwal	-8.96356
▁lasan	-8.96538
▁visi	-8.96665
▁emo	-8.96715
▁enuhi	-8.96823
▁pres	-8.96876
▁ajak	-8.97163
▁ad	-8.97169
▁penuh	-8.97312
▁Po	-8.97344
▁hit	-8.97396
▁Depok	-8.97469
▁uru	-8.97575
▁alat	-8.97642
▁turun	-8.97678
▁rusak	-8.97717
▁duksi	-8.97767
▁en	-8.97838
▁pas	-8.98046
▁nja	-8.98222
▁alu	-8.98252
▁Jatim	-8.98254
▁tanah	-8.98325
▁ngg	-8.98431
▁mak	-8.98462
▁orasi	-8.98486
▁demo	-8.98567
idak	-8.98594
▁anjir	-8.98673
▁Hi	-8.98785
▁ic	-8.98987
▁alur	-8.99043
▁uhan	-8.99534
▁15	-8.99588
▁sana	-8.99607
▁ancam	-8.99661
▁han	-8.99828
▁pol	-8.9991
▁Pil	-8.99922
▁Ap	-8.99946
ti	-9.00019
▁aris	-9.00233
▁epang	-9.00462
▁aksa	-9.00664
▁ba	-9.00695
▁Mal	-9.00816
▁Biden	-9.00821
▁Seb	-9.0105
▁toko	-9.01115
▁riode	-9.0125
▁fasi	-9.01271
▁oli	-9.01302
▁ungsi	-9.01342
▁ersib	-9.01405
▁30	-9.01409
▁norer	-9.0147
▁Bank	-9.01712
omor	-9.01739
▁sisi	-9.01869
▁As	-9.01942
ew	-9.02038
▁lo	-9.02229
▁musim	-9.02234
▁ni	-9.02293
▁urah	-9.0231
▁Wali	-9.02378
▁mini	-9.02444
▁Dewa	-9.02479
▁mina	-9.02852
lu	-9.02861
▁Ca	-9.02884
▁tri	-9.0306
▁min	-9.03229
▁ap	-9.0324
▁Jo	-9.03263
▁lemen	-9.03383
▁ncur	-9.03573
▁pula	-9.03597
▁kand	-9.03746
▁Pal	-9.03772
▁Th	-9.03835
▁Salah	-9.03895
▁aju	-9.04051
▁DKI	-9.04128
▁ener	-9.04134
▁tewas	-9.04147
▁egitu	-9.04163
▁Wi	-9.04319
▁kade	-9.04365
▁ropa	-9.0447
▁amar	-9.04516
▁akses	-9.04526
▁nurun	-9.04543
▁sen	-9.0463
00	-9.04693
asya	-9.04704
▁alan	-9.04745
▁yo	-9.04829
▁krasi	-9.04989
▁elola	-9.05019
▁gol	-9.05089
▁terp	-9.05115
▁temu	-9.05194
▁tusan	-9.05573
▁trasi	-9.05607
▁inf	-9.05609
▁ev	-9.05637
▁Ju	-9.05679
▁nark	-9.05729
▁atur	-9.05841
▁fokus	-9.06071
ku	-9.06308
▁pilih	-9.0633
▁il	-9.06495
▁nd	-9.06551
▁aku	-9.06606
▁est	-9.06677
▁kep	-9.0676
▁royek	-9.0678
▁leksi	-9.06819
▁utuh	-9.0684
nggo	-9.07056
▁atan	-9.0717
▁Jabar	-9.07177
▁PBB	-9.07255
ut	-9.07318
▁oe	-9.07679
▁Pu	-9.07697
▁ebar	-9.07978
▁emas	-9.08049
▁utih	-9.08081
▁kira	-9.0811
▁org	-9.08245
▁usul	-9.08327
▁Ia	-9.08352
▁rut	-9.0836
▁film	-9.08618
▁mis	-9.0865
▁De	-9.08687
▁16	-9.08707
▁tand	-9.08749
▁luka	-9.08774
▁ganti	-9.08775
▁mata	-9.08904
▁alani	-9.0896
▁Jaya	-9.09086
▁mudah	-9.09104
▁udi	-9.09221
▁uduk	-9.09234
▁ki	-9.09327
▁kha	-9.09343
▁Calon	-9.094
▁angga	-9.09418
▁tiba	-9.09545
▁Dinas	-9.09616
ustr	-9.09636
▁port	-9.0965
▁imp	-9.09727
abu	-9.0974
▁Nusa	-9.09817
▁anggu	-9.09916
▁UMKM	-9.09997
▁rhat	-9.10112
▁ons	-9.1019
▁video	-9.10272
▁turut	-9.10363
▁Pela	-9.10436
▁bers	-9.10503
▁kema	-9.11333
▁njut	-9.11351
▁laut	-9.11365
▁nggul	-9.11546
▁urve	-9.11698
in	-9.11879
▁rio	-9.11894
▁meter	-9.11993
▁inat	-9.12014
▁wujud	-9.12019
▁tnya	-9.12042
▁ele	-9.12073
▁andar	-9.12122
lalu	-9.12123
▁tuli	-9.12146
▁tepat	-9.12163
▁Kh	-9.12181
▁om	-9.12188
▁dapu	-9.12288
▁asuk	-9.12323
YA	-9.1236
▁rkuat	-9.12367
▁rem	-9.12397
▁ngat	-9.12479
▁pel	-9.12579
▁yan	-9.12618
▁uncur	-9.12626
▁abil	-9.12844
▁urat	-9.12853
▁eno	-9.12893
▁ok	-9.1307
▁rik	-9.13279
tiv	-9.13472
▁io	-9.13558
▁mau	-9.13596
▁awang	-9.13631
▁lidi	-9.13757
▁final	-9.13886
▁eta	-9.13916
▁rcaya	-9.14155
▁et	-9.14222
▁unung	-9.14589
▁lewa	-9.14601
▁tahap	-9.14859
▁utri	-9.1488
▁berat	-9.15001
▁14	-9.15063
▁ersih	-9.15197
▁fi	-9.15213
▁pla	-9.15253
▁ibran	-9.15276
▁resta	-9.15296
po	-9.15312
▁beri	-9.1536
▁erke	-9.15382
▁su	-9.15422
▁janji	-9.15625
▁PDIP	-9.15629
▁X	-9.15683
▁FC	-9.15716
▁Agung	-9.15767
▁liti	-9.15826
ing	-9.15857
▁Ga	-9.15888
▁kecil	-9.16096
▁maka	-9.16109
▁emik	-9.1639
▁tasi	-9.16561
▁Suka	-9.16928
▁narik	-9.17028
ang	-9.17063
▁kasih	-9.17133
▁ekan	-9.1715
▁hati	-9.17175
▁jur	-9.1724
▁ubah	-9.17251
▁pesan	-9.1737
▁ilm	-9.17475
▁Si	-9.17536
▁ira	-9.17639
▁Kare	-9.17767
▁teman	-9.17804
▁dic	-9.17897
▁olog	-9.1805
▁enga	-9.18092
▁udah	-9.18134
▁atal	-9.18223
▁ntung	-9.18253
▁obat	-9.18277
▁rawat	-9.18293
▁okter	-9.18337
▁Na	-9.18343
▁ungi	-9.18385
▁luang	-9.18523
▁enta	-9.18579
▁str	-9.18598
▁aw	-9.18602
kam	-9.1871
▁olkar	-9.18716
▁izin	-9.18731
▁tas	-9.18845
▁Warga	-9.18858
▁adang	-9.18981
▁mati	-9.19043
▁st	-9.19044
▁Gib	-9.19092
▁anya	-9.19157
▁atif	-9.19255
▁emb	-9.19381
▁sulit	-9.19446
▁ri	-9.19729
▁glo	-9.19772
▁Rumah	-9.19817
▁sitif	-9.20028
▁ngan	-9.20058
▁dij	-9.20072
▁kuasa	-9.20122
▁Hukum	-9.2025
▁24	-9.20326
▁11	-9.20378
▁Yu	-9.20492
▁Pas	-9.20512
▁pra	-9.20597
▁mpro	-9.20643
▁watir	-9.20652
▁ukses	-9.20845
▁Bud	-9.20848
▁Ho	-9.21116
▁apre	-9.21151
▁indah	-9.21255
▁aktif	-9.21443
kno	-9.21472
▁18	-9.21516
▁ry	-9.21788
▁anj	-9.21861
▁sema	-9.21887
▁isu	-9.21892
▁tra	-9.21892
▁rtan	-9.22171
rim	-9.22179
▁ngani	-9.22212
▁rw	-9.22214
▁laki	-9.22342
▁poin	-9.22359
nov	-9.22402
▁un	-9.22408
▁aslon	-9.22417
▁khus	-9.2242
▁rap	-9.22501
▁bahas	-9.22556
▁all	-9.22804
nlin	-9.22907
▁atat	-9.22913
▁yarat	-9.23339
▁ger	-9.23361
▁nggil	-9.23452
▁tik	-9.23486
▁ebut	-9.23554
▁nggu	-9.23759
jual	-9.2384
ale	-9.2407
▁uncul	-9.24115
▁lahi	-9.24297
▁skrim	-9.24485
▁agi	-9.24488
▁ulasi	-9.24614
▁rens	-9.24641
▁puluh	-9.24646
▁unit	-9.24914
▁17	-9.25011
ai	-9.25264
▁ega	-9.25311
c	-9.25343
epas	-9.25354
▁erai	-9.25366
▁tegas	-9.25514
▁int	-9.25657
▁uasa	-9.2572
▁bat	-9.25721
▁eng	-9.25734
▁spons	-9.25745
▁gab	-9.25866
▁jang	-9.25906
▁sawat	-9.25968
▁Itu	-9.2598
▁Da	-9.26155
▁agama	-9.26296
▁eksp	-9.26425
▁isme	-9.26564
▁Riau	-9.26706
▁inis	-9.2683
▁13	-9.26849
▁total	-9.26903
▁dikit	-9.26961
▁uktur	-9.27235
▁Utama	-9.27294
▁uami	-9.27485
▁stra	-9.27505
▁kumen	-9.27576
▁uat	-9.27656
▁SAR	-9.27699
▁bayar	-9.27769
▁krat	-9.27811
▁emat	-9.27895
▁jaba	-9.28118
▁makan	-9.28145
▁lin	-9.28211
▁umen	-9.28213
▁gr	-9.28254
▁Besar	-9.28409
▁kalah	-9.28433
▁ns	-9.2854
▁ntar	-9.28549
▁pagi	-9.28652
▁bali	-9.28663
▁mung	-9.28673
▁erman	-9.28774
▁inta	-9.28794
▁Yogya	-9.28811
enpa	-9.2909
any	-9.29176
▁25	-9.2923
▁damai	-9.29239
asuk	-9.29277
▁akang	-9.29435
▁rkara	-9.2946
▁Tri	-9.29508
▁marin	-9.29524
▁bo	-9.29552
▁taris	-9.29618
▁ine	-9.29643
▁tum	-9.29655
▁Abdu	-9.3
▁leng	-9.30069
▁gagal	-9.3019
▁urus	-9.30213
▁atuan	-9.30237
jang	-9.30274
▁os	-9.3045
▁amba	-9.30493
▁Ng	-9.30511
kre	-9.30587
▁nal	-9.30622
▁ca	-9.30744
ri	-9.3075
pir	-9.30847
▁sonel	-9.30854
▁catat	-9.30869
▁waslu	-9.3093
▁ayang	-9.31076
▁Raya	-9.31082
siap	-9.31223
▁rapan	-9.31248
▁iaya	-9.31432
▁Dua	-9.31493
▁suh	-9.31522
▁rili	-9.31555
unuh	-9.3157
▁gawai	-9.3168
▁loka	-9.31742
▁Kali	-9.31819
▁BMKG	-9.31837
ip	-9.32028
▁DPRD	-9.321
▁uc	-9.32188
▁ity	-9.32251
▁rugi	-9.32253
▁ratu	-9.32391
▁bebas	-9.32421
▁ual	-9.32477
▁tubuh	-9.32504
▁Sat	-9.32601
▁BRI	-9.32624
▁tes	-9.3269
▁ato	-9.3291
▁asar	-9.32964
▁dam	-9.33046
▁mitr	-9.33172
▁so	-9.33411
▁njara	-9.33414
▁Ed	-9.33416
▁usung	-9.33475
▁co	-9.33541
▁Anak	-9.33648
▁ntik	-9.33843
▁Eri	-9.33958
▁ndah	-9.3399
▁asing	-9.34066
▁duli	-9.34089
▁tua	-9.34277
▁istri	-9.34319
▁ot	-9.34365
▁elek	-9.34415
▁ahfud	-9.34449
▁Joko	-9.34459
▁ens	-9.34465
▁rbang	-9.34499
▁sabu	-9.34544
▁Sej	-9.34652
▁Islam	-9.34785
▁sipil	-9.3489
▁27	-9.34916
▁tani	-9.34956
▁atasi	-9.35005
▁balik	-9.35039
▁Mana	-9.35056
▁kat	-9.35095
▁aka	-9.35116
▁UU	-9.3513
▁jalu	-9.35179
▁hor	-9.35253
▁sy	-9.35296
▁Kedua	-9.35345
▁ngkut	-9.35387
▁ksi	-9.35448
▁ibat	-9.35449
▁ratis	-9.35521
▁egi	-9.35791
▁ment	-9.35793
▁turan	-9.35805
▁Humas	-9.35822
▁PDI	-9.35956
▁luk	-9.36067
omen	-9.36095
▁DPP	-9.36162
▁tatus	-9.36221
stiw	-9.36516
▁nolak	-9.36623
▁demi	-9.36704
▁los	-9.3672
▁ex	-9.36947
▁iap	-9.37116
▁erat	-9.37131
▁landa	-9.37216
▁uncak	-9.37218
▁alah	-9.37228
▁isah	-9.37405
▁etro	-9.37432
▁gube	-9.37483
▁edar	-9.37595
▁pil	-9.37721
ma	-9.379
▁egal	-9.3793
▁Rama	-9.38009
▁id	-9.38025
abar	-9.38053
▁rtum	-9.38161
▁angi	-9.38202
▁nflik	-9.38354
▁rand	-9.38515
▁tegis	-9.38538
j	-9.38658
▁Ti	-9.38866
um	-9.38913
▁Id	-9.39032
▁amu	-9.39062
▁lub	-9.39195
▁mere	-9.39252
▁leg	-9.39257
▁nerja	-9.39317
▁ward	-9.39376
▁kapa	-9.39467
▁bang	-9.39534
▁ky	-9.39656
▁Keb	-9.39685
▁dini	-9.39696
▁perl	-9.397
▁Ek	-9.39807
▁nto	-9.39883
▁19	-9.40256
▁22	-9.40386
▁kilo	-9.40511
▁ula	-9.40533
▁wa	-9.40559
▁ajar	-9.40606
▁Hasil	-9.40609
▁Lebih	-9.40685
▁idodo	-9.40777
▁jaran	-9.40806
▁ombe	-9.40812
▁egini	-9.40873
▁ampah	-9.40922
▁undur	-9.40932
cel	-9.40936
▁aki	-9.41023
▁ebas	-9.41075
▁ncob	-9.41105
▁iswa	-9.41139
▁baran	-9.41221
▁mpak	-9.41454
ra	-9.41536
▁akaan	-9.41572
▁ion	-9.4158
▁23	-9.41612
▁ium	-9.41671
ebab	-9.41914
▁go	-9.41922
▁jarah	-9.41986
▁raya	-9.41987
▁saing	-9.42019
▁Pj	-9.4215
▁ff	-9.42189
▁isiko	-9.42302
▁titik	-9.42332
▁suatu	-9.42338
▁ep	-9.42401
▁ahaya	-9.42549
▁ster	-9.4256
▁lu	-9.4262
▁men	-9.42668
▁ore	-9.42726
▁tiv	-9.42785
▁Kita	-9.42911
▁agu	-9.42934
▁II	-9.4296
▁ileg	-9.43038
▁kad	-9.43276
▁lahan	-9.43338
▁jaksa	-9.4339
▁iah	-9.4348
▁ill	-9.43491
▁mbeli	-9.43493
▁bus	-9.4366
▁Aceh	-9.43743
▁21	-9.43768
▁non	-9.4384
▁liun	-9.43946
▁Laut	-9.43979
▁rata	-9.44209
▁alif	-9.44225
▁apar	-9.44261
▁akun	-9.44353
▁gel	-9.44361
▁bawa	-9.44367
▁lur	-9.44382
▁jud	-9.44407
▁UR	-9.4446
▁Info	-9.44586
▁Pasar	-9.44707
▁warna	-9.44927
▁badan	-9.45115
▁anda	-9.45191
▁sif	-9.45401
▁istan	-9.45523
▁Bang	-9.45586
▁una	-9.45658
▁dakwa	-9.45775
KBP	-9.45788
▁To	-9.4586
▁aran	-9.45871
▁peme	-9.46
▁MK	-9.46017
▁iar	-9.4635
▁ila	-9.46407
▁konf	-9.46408
▁oro	-9.46463
▁awan	-9.4652
▁ge	-9.46626
▁hen	-9.46669
▁Ad	-9.46864
▁sal	-9.47089
▁isten	-9.47163
▁ram	-9.4724
▁foto	-9.47446
▁ngin	-9.47491
▁wati	-9.47522
▁nat	-9.47589
▁fisi	-9.47593
▁enter	-9.47654
▁amin	-9.47659
▁akti	-9.47731
▁grasi	-9.47751
▁emuda	-9.47835
▁Mas	-9.47926
▁adil	-9.47978
▁bal	-9.48075
on	-9.48099
▁%	-9.4812
▁JPNN	-9.4812
▁orot	-9.4814
▁rbai	-9.48172
▁DPD	-9.48192
▁adu	-9.48319
▁etuju	-9.48336
▁orum	-9.48344
▁labu	-9.48419
▁ien	-9.48419
▁hakim	-9.48431
gu	-9.48581
▁ungai	-9.48588
▁kaian	-9.48627
▁Arab	-9.48721
▁mpul	-9.48775
▁ngha	-9.48883
▁ahan	-9.48885
▁Kete	-9.48942
▁atar	-9.49188
▁ABA	-9.49195
▁tis	-9.49222
▁son	-9.49243
▁gi	-9.4937
▁pon	-9.494
▁TPS	-9.49463
▁Fo	-9.49471
▁fe	-9.49495
▁tud	-9.49544
▁misi	-9.49549
▁Kasus	-9.49612
▁abu	-9.49627
▁efe	-9.49728
▁ey	-9.49795
▁ec	-9.4981
▁alih	-9.49895
▁erek	-9.49927
▁28	-9.50002
▁berj	-9.50194
▁lit	-9.50322
▁kla	-9.50478
▁nergi	-9.50484
▁reta	-9.50491
inum	-9.50555
▁amat	-9.50561
▁lok	-9.50574
▁sang	-9.50751
▁unan	-9.50867
▁krit	-9.50896
▁iaga	-9.50913
▁tion	-9.50948
▁aktor	-9.50999
▁simal	-9.51017
▁Ibu	-9.51057
▁ame	-9.51097
▁rid	-9.51127
▁ensi	-9.51218
▁ayu	-9.51306
▁arc	-9.5141
▁hu	-9.51443
▁eo	-9.51549
▁kri	-9.51681
▁lak	-9.51697
▁BUMN	-9.51701
▁uran	-9.51707
▁26	-9.51857
ANG	-9.5192
▁akui	-9.51937
▁rist	-9.5195
▁Trans	-9.52006
▁riba	-9.52018
▁lir	-9.52239
▁net	-9.52289
▁sedia	-9.52349
▁nton	-9.52397
▁rjen	-9.52419
▁gen	-9.5245
▁Ole	-9.52462
▁Jik	-9.52481
▁Do	-9.52975
▁ejak	-9.5313
▁musik	-9.53135
▁em	-9.53155
rtaw	-9.53207
▁ation	-9.53355
▁wajib	-9.53541
▁redi	-9.53597
▁asjid	-9.53644
▁ingan	-9.53749
▁war	-9.53768
▁mpi	-9.53874
▁esak	-9.53999
▁PKB	-9.54044
▁ekat	-9.54118
▁bila	-9.54134
▁are	-9.54261
▁gugat	-9.54308
▁tutup	-9.54311
▁area	-9.54459
▁ategi	-9.54682
▁ult	-9.5469
▁sw	-9.54761
▁lagu	-9.54845
▁vi	-9.54846
▁ris	-9.54998
▁enda	-9.55007
▁uz	-9.5509
▁29	-9.55115
▁nawa	-9.55206
▁adat	-9.55407
▁kam	-9.55445
▁ob	-9.55519
▁NTARA	-9.5552
▁untu	-9.55686
▁libur	-9.55733
▁IKN	-9.55841
▁audi	-9.55913
opul	-9.55914
▁bank	-9.55979
▁ndali	-9.56033
▁Li	-9.56151
▁ase	-9.56271
▁edak	-9.56288
▁keme	-9.56301
▁utu	-9.56317
▁bar	-9.56381
▁tema	-9.56409
▁art	-9.56468
▁rent	-9.56551
▁olsek	-9.56579
form	-9.56651
▁ikan	-9.56732
▁;	-9.56796
▁sign	-9.56865
▁kau	-9.56898
▁terj	-9.5712
▁sari	-9.57183
▁nalis	-9.57184
▁Am	-9.57291
▁BA	-9.5732
▁elah	-9.57378
▁ayak	-9.57451
▁wali	-9.57458
▁ld	-9.57492
▁debat	-9.57542
▁tat	-9.57579
plik	-9.57657
▁aja	-9.57698
▁dy	-9.57852
▁suka	-9.58037
iz	-9.58117
▁ink	-9.58129
▁mo	-9.58213
▁kelas	-9.58221
▁uter	-9.58462
▁sini	-9.58503
▁agram	-9.58515
▁pri	-9.58637
▁iet	-9.58797
▁nikah	-9.58838
▁iyah	-9.58915
▁rapat	-9.59029
men	-9.59072
▁lant	-9.59282
▁iro	-9.59333
▁ekasi	-9.59353
▁ud	-9.59353
▁indra	-9.59367
▁evak	-9.59372
▁karya	-9.59373
▁gene	-9.59475
▁reg	-9.59532
▁ort	-9.59574
▁baba	-9.59582
▁guh	-9.59635
▁arti	-9.59643
▁minal	-9.59696
▁pand	-9.59957
▁biaya	-9.6005
▁ting	-9.60108
▁ullah	-9.6013
▁ransi	-9.60339
▁rofe	-9.60407
▁arga	-9.6041
▁tren	-9.60516
▁rangi	-9.60518
▁kuti	-9.60558
▁Ex	-9.60725
▁ator	-9.60781
▁tekn	-9.60783
▁etik	-9.60791
▁ansi	-9.60835
▁bon	-9.60887
▁ukur	-9.60892
▁edan	-9.60948
▁ib	-9.60956
▁jatu	-9.61012
kum	-9.61084
▁titu	-9.61175
▁uk	-9.61302
▁ron	-9.61327
▁gu	-9.61399
▁ndra	-9.61475
▁ilgub	-9.6148
▁kena	-9.61491
▁llah	-9.61625
▁mping	-9.6167
▁mudik	-9.61712
▁Ki	-9.61799
▁Dr	-9.61991
▁ikl	-9.61996
▁mi	-9.62071
▁umi	-9.62079
▁PAN	-9.62084
▁ou	-9.62147
▁HAM	-9.62151
▁darah	-9.62152
▁ard	-9.62244
▁pu	-9.62294
▁rast	-9.62323
▁inyak	-9.62389
▁ruan	-9.62536
▁India	-9.62741
ko	-9.62751
▁ustr	-9.62803
▁PP	-9.62887
▁ona	-9.62967
▁buruk	-9.62975
▁mat	-9.62975
▁eral	-9.62982
▁nghi	-9.63012
▁pingi	-9.63032
▁aysia	-9.63058
▁ito	-9.63097
UNG	-9.63161
nas	-9.63193
▁kup	-9.63199
▁egori	-9.63286
▁Mega	-9.63322
▁ner	-9.63343
▁stik	-9.63353
▁kaya	-9.63404
▁mpur	-9.63426
▁Fil	-9.63463
▁tru	-9.63584
▁nden	-9.63773
▁kete	-9.63947
▁Nat	-9.63962
▁etisi	-9.63985
ndo	-9.6402
▁num	-9.64023
▁eny	-9.64024
▁akta	-9.64105
D	-9.6413
▁ork	-9.64382
▁ntut	-9.64455
▁ow	-9.64469
▁ndar	-9.64493
▁onal	-9.64503
▁jemen	-9.64543
▁banon	-9.64664
▁nggah	-9.6468
▁oni	-9.64747
▁ampus	-9.64813
▁Lo	-9.64841
▁ese	-9.64887
▁jaya	-9.64986
▁uta	-9.65008
▁ahy	-9.65049
▁ohon	-9.65081
▁uatan	-9.65093
▁aik	-9.65148
▁inda	-9.65458
▁tam	-9.65479
▁berp	-9.65532
▁mic	-9.65539
▁fikan	-9.65576
▁kola	-9.65598
ahte	-9.65771
▁hil	-9.65873
▁uri	-9.659
el	-9.65918
▁Bel	-9.65925
na	-9.65975
▁nder	-9.66031
▁Orang	-9.66052
▁sikap	-9.6609
▁kabu	-9.66098
▁edi	-9.66191
▁And	-9.66216
▁juk	-9.66301
▁rd	-9.66333
▁anji	-9.66341
▁trad	-9.66424
▁PBD	-9.66539
end	-9.66586
▁Pri	-9.66595
nc	-9.66617
▁sel	-9.66711
▁ez	-9.66724
▁jahat	-9.66773
wed	-9.66854
▁sud	-9.67015
▁lar	-9.67032
▁past	-9.67083
▁ern	-9.67147
▁sah	-9.6726
▁engk	-9.67345
▁har	-9.67402
utar	-9.67421
▁tib	-9.67539
▁raan	-9.67558
▁100	-9.67601
▁idat	-9.6763
▁wal	-9.67649
▁cam	-9.67675
lat	-9.67694
▁eb	-9.67772
▁ogja	-9.67819
▁nti	-9.67849
▁ND	-9.67925
▁ury	-9.67938
▁rius	-9.67944
▁our	-9.67955
▁mui	-9.68017
▁taw	-9.68098
▁ntah	-9.6816
▁okan	-9.68277
ohon	-9.68333
elap	-9.68376
▁sial	-9.68507
▁emkot	-9.68535
▁Ilu	-9.68548
▁cah	-9.68564
▁apan	-9.68895
▁rta	-9.68945
▁epa	-9.68957
▁plo	-9.69023
▁dur	-9.69066
▁af	-9.69083
▁Ge	-9.69121
▁pos	-9.69134
▁antau	-9.69179
▁Sek	-9.69192
▁mal	-9.693
▁erv	-9.69443
▁ch	-9.69512
st	-9.69522
▁anksi	-9.69639
▁hutan	-9.69646
▁jo	-9.6966
▁puk	-9.69715
▁baya	-9.6972
▁ahul	-9.69774
▁riah	-9.69805
▁eli	-9.69901
▁tival	-9.69905
▁ial	-9.69907
▁lis	-9.69945
▁31	-9.70188
▁jeli	-9.70199
▁awak	-9.70217
▁aes	-9.70261
▁anita	-9.70295
▁nc	-9.70302
▁ater	-9.70303
sip	-9.70461
▁rud	-9.70495
▁lim	-9.70671
▁eber	-9.7072
▁arus	-9.70764
▁kiri	-9.70778
▁oto	-9.70786
▁ender	-9.70821
▁ions	-9.70829
▁oba	-9.70872
▁ahli	-9.70885
▁tlet	-9.70928
▁sih	-9.71005
▁assa	-9.71035
▁ANG	-9.71095
O	-9.71193
▁iring	-9.71217
▁uriah	-9.71246
▁BBC	-9.71247
▁ojo	-9.71318
car	-9.71328
▁ntuk	-9.7134
ranc	-9.7136
▁Vi	-9.71453
▁uth	-9.71458
▁Paris	-9.71548
fri	-9.71584
▁usun	-9.71596
▁ketu	-9.71603
▁perd	-9.71659
ewas	-9.71719
ber	-9.71752
▁enior	-9.7183
▁Ak	-9.71847
▁migr	-9.71951
▁emi	-9.72147
▁ade	-9.72166
▁rbit	-9.72215
▁ako	-9.72248
▁bakar	-9.72486
▁otoGP	-9.7257
▁In	-9.72588
▁kuad	-9.72591
▁ji	-9.72701
▁amb	-9.72713
▁jak	-9.72788
erap	-9.72827
▁yanto	-9.72966
▁wil	-9.7302
▁empa	-9.73081
▁inci	-9.73083
▁Pihak	-9.73196
▁atuh	-9.73261
▁tisi	-9.73285
▁tabil	-9.73342
▁Thai	-9.73346
▁fif	-9.7335
▁psi	-9.73471
▁Oper	-9.73479
▁muka	-9.73506
▁Gus	-9.73642
▁siang	-9.7366
▁mbil	-9.73664
▁Ali	-9.73749
▁Az	-9.73758
▁tr	-9.73775
▁uf	-9.73811
▁lia	-9.73898
▁Mak	-9.73919
▁pikir	-9.73955
▁her	-9.74118
▁CPNS	-9.74205
▁ehari	-9.74206
▁ning	-9.743
▁uddin	-9.74343
ket	-9.74481
▁Hasto	-9.7459
▁duh	-9.7461
rof	-9.74616
▁SDM	-9.74664
▁ayat	-9.74685
▁ngkit	-9.74744
▁lum	-9.748
P	-9.74806
▁Ni	-9.74842
▁piade	-9.74842
agi	-9.74865
▁III	-9.75194
▁epeda	-9.75231
▁eman	-9.75276
▁PKS	-9.75342
▁umsel	-9.75354
▁roni	-9.7542
▁idw	-9.75424
▁awesi	-9.75621
▁emua	-9.75673
▁keta	-9.75807
▁jiwa	-9.75847
kab	-9.76166
ha	-9.76204
▁sik	-9.76237
▁Grup	-9.76278
▁pat	-9.76372
▁nci	-9.76373
▁hip	-9.76419
▁ntrak	-9.7642
▁indo	-9.76425
▁oha	-9.76441
▁utara	-9.76529
▁ongs	-9.7655
▁igasi	-9.76569
▁vs	-9.76619
▁mbul	-9.76748
▁arma	-9.7675
▁lulus	-9.7679
laim	-9.7679
▁lus	-9.76807
▁imbau	-9.76827
pak	-9.76896
gab	-9.76952
▁ima	-9.76985
▁ip	-9.77042
▁old	-9.77064
osok	-9.77103
▁ord	-9.77118
▁AI	-9.7714
▁bumi	-9.77185
▁sore	-9.77194
▁genda	-9.77289
▁aham	-9.77387
af	-9.77448
▁alisi	-9.7748
▁Go	-9.7748
▁kut	-9.77696
▁lil	-9.77823
▁parat	-9.77861
▁angk	-9.78098
NPA	-9.78223
▁akyat	-9.78353
▁onto	-9.78369
▁uslim	-9.78371
▁erak	-9.78384
▁Group	-9.78482
▁Kem	-9.78502
▁ondo	-9.78644
▁dar	-9.78757
▁ingga	-9.78796
▁ft	-9.78907
▁pajak	-9.78984
▁ras	-9.79128
▁rmal	-9.79262
▁pab	-9.7927
▁aga	-9.79275
▁50	-9.79278
▁uming	-9.79319
▁lans	-9.79357
▁anyi	-9.79448
▁udin	-9.79544
▁Mah	-9.79636
▁iz	-9.79659
▁gub	-9.79729
▁ck	-9.79762
▁knis	-9.79818
▁esan	-9.79862
▁impor	-9.79899
▁asih	-9.79903
▁agung	-9.79906
▁rokok	-9.79948
▁rdeka	-9.79949
▁merah	-9.80147
▁antu	-9.80177
▁hamp	-9.80237
▁ekor	-9.80257
▁ain	-9.80267
▁ahasa	-9.80348
▁ekla	-9.80362
▁Uni	-9.80381
▁nen	-9.80401
▁eras	-9.80449
▁emkab	-9.80494
▁abar	-9.80535
▁mir	-9.80554
▁amai	-9.80707
▁jual	-9.80792
▁Sh	-9.80893
▁opti	-9.81009
▁iwan	-9.81032
▁log	-9.81142
▁arak	-9.81184
▁Ri	-9.81277
▁uci	-9.81286
▁av	-9.81325
▁ino	-9.81434
▁panas	-9.815
▁ontra	-9.81552
▁amil	-9.8156
▁nahan	-9.81725
▁esin	-9.81735
▁ajah	-9.81928
▁rung	-9.81958
▁iga	-9.82066
▁umur	-9.82173
▁ander	-9.82205
▁yaki	-9.82244
▁angin	-9.82264
▁otel	-9.82311
▁od	-9.82337
▁ala	-9.82355
▁yono	-9.82432
▁temen	-9.82458
▁eal	-9.82508
▁01	-9.82526
▁ome	-9.82593
▁rus	-9.82795
▁Adi	-9.82821
▁ifik	-9.82972
▁ogo	-9.83006
▁Angk	-9.8304
▁pakai	-9.83292
▁otif	-9.83372
▁umpu	-9.83422
uang	-9.83493
▁02	-9.83583
▁rkir	-9.83629
▁bud	-9.83721
▁ice	-9.83742
▁raki	-9.83778
▁adam	-9.83795
▁mbuh	-9.83845
▁krea	-9.83877
▁bis	-9.83909
▁baca	-9.84171
yu	-9.84208
▁SIS	-9.84258
▁ver	-9.84298
▁las	-9.84328
▁tre	-9.84351
▁rto	-9.84427
▁ngkar	-9.84431
▁ursi	-9.84439
▁uas	-9.84469
▁kah	-9.84525
▁Kal	-9.8455
▁akai	-9.84603
asis	-9.84664
▁Ari	-9.84709
▁mc	-9.84734
▁bes	-9.84885
im	-9.84915
▁logis	-9.85071
▁nten	-9.85086
▁bint	-9.851
▁terl	-9.85124
▁igran	-9.85195
▁ilit	-9.8525
▁nsum	-9.85252
▁umsi	-9.85293
▁ntu	-9.85302
▁real	-9.85364
▁kbar	-9.85409
▁one	-9.85451
▁!	-9.85471
▁vid	-9.85505
▁arta	-9.8553
▁iang	-9.85648
▁saran	-9.85671
▁epe	-9.85676
▁ay	-9.85704
f	-9.85729
▁arjo	-9.85879
▁taf	-9.86038
▁Br	-9.86063
▁No	-9.86067
▁mbar	-9.86105
▁ayar	-9.86252
▁ene	-9.8632
▁torat	-9.86366
▁rela	-9.86512
▁ero	-9.86528
hin	-9.86566
▁vel	-9.86724
▁ick	-9.86751
▁itri	-9.86759
▁ndari	-9.8679
z	-9.8688
▁hat	-9.86932
▁RS	-9.86959
▁dul	-9.86961
▁ergi	-9.86974
▁tir	-9.86978
▁ampu	-9.87032
▁semi	-9.87138
en	-9.87203
▁zb	-9.87204
▁akal	-9.87228
▁ntan	-9.87263
▁Muda	-9.87355
▁ingk	-9.87432
▁rum	-9.87498
▁maja	-9.87517
▁Kri	-9.87529
akat	-9.87589
▁rna	-9.87619
▁eku	-9.87765
▁oko	-9.8797
▁pak	-9.88072
▁ood	-9.88117
▁ewi	-9.88196
▁robo	-9.88275
▁ema	-9.88353
▁Tol	-9.88371
▁taan	-9.88413
▁esi	-9.88447
▁lti	-9.88468
▁lon	-9.88516
▁eto	-9.88573
▁x	-9.88694
▁ayi	-9.88725
OTA	-9.88756
▁berl	-9.88758
ger	-9.88779
▁uhu	-9.8878
▁yawan	-9.88868
▁Sl	-9.88898
▁ike	-9.89015
▁reka	-9.89031
▁cek	-9.89047
▁You	-9.89085
▁ell	-9.89116
▁kap	-9.89179
▁ire	-9.89188
▁utan	-9.89201
▁uw	-9.8948
▁tara	-9.89571
▁gizi	-9.89824
▁gang	-9.89898
▁inggi	-9.89924
to	-9.89934
▁aks	-9.90048
▁kal	-9.90213
▁adir	-9.90301
▁lad	-9.90301
▁ht	-9.90308
▁rtim	-9.90367
▁epat	-9.90419
▁rama	-9.90453
▁mpa	-9.90526
min	-9.90561
▁Kan	-9.90586
▁ltim	-9.90587
nj	-9.90633
▁isti	-9.90921
▁bung	-9.91004
kor	-9.91015
▁brak	-9.91047
▁ahnya	-9.91103
▁sip	-9.91291
▁ruda	-9.91323
▁mbu	-9.91481
1	-9.91483
▁ny	-9.91619
▁$	-9.91782
skus	-9.91851
3	-9.91859
▁sim	-9.91862
▁emah	-9.91897
▁tek	-9.91955
▁gur	-9.91996
▁uruh	-9.92027
▁yah	-9.92073
▁enny	-9.92083
▁kas	-9.92165
▁urna	-9.92175
▁rat	-9.92193
▁Ac	-9.92208
▁yu	-9.92255
duh	-9.9226
▁q	-9.92296
▁ndat	-9.92354
▁yat	-9.92358
▁bur	-9.92462
▁ndri	-9.92474
▁ies	-9.92549
▁eris	-9.92721
▁osk	-9.92831
▁rne	-9.92882
▁lly	-9.9293
▁mus	-9.93047
▁anja	-9.93083
▁apak	-9.93098
▁akas	-9.93179
▁edit	-9.93239
▁Ir	-9.93348
▁ntak	-9.93435
rodu	-9.93471
▁ail	-9.93476
▁meran	-9.93491
▁sos	-9.9352
▁anc	-9.93544
▁ska	-9.93611
▁atra	-9.93633
▁ect	-9.93653
▁yani	-9.9368
▁nv	-9.93701
▁iti	-9.93781
▁ersis	-9.93967
tik	-9.93986
▁ental	-9.93996
▁ance	-9.94314
▁zah	-9.94487
▁laim	-9.94559
▁inaan	-9.94648
▁raja	-9.94997
▁ary	-9.95069
▁reng	-9.95148
▁the	-9.95178
▁ach	-9.95264
▁rig	-9.95298
▁prin	-9.95376
agus	-9.95464
▁sla	-9.95533
▁nik	-9.95622
▁tom	-9.95656
▁siun	-9.95699
▁TV	-9.95708
▁ew	-9.95742
▁sidi	-9.95794
▁mb	-9.95931
▁03	-9.96029
▁ndik	-9.96034
lab	-9.96136
▁ndai	-9.96156
▁az	-9.96181
▁ov	-9.96214
riw	-9.96244
▁ngge	-9.96262
▁iq	-9.96357
▁pid	-9.96429
▁ped	-9.96914
▁res	-9.97128
▁awa	-9.97164
2	-9.97219
▁gra	-9.97267
yor	-9.97327
▁age	-9.97341
▁iawan	-9.9738
▁PSI	-9.9759
▁obil	-9.97641
▁kasi	-9.9768
▁hkan	-9.97749
▁Set	-9.97815
▁rusan	-9.97853
▁AKP	-9.97891
▁ori	-9.97972
▁05	-9.98131
▁ive	-9.98312
▁atik	-9.98343
UU	-9.98524
▁aset	-9.98537
▁qu	-9.98539
▁tong	-9.98564
▁long	-9.98702
▁Fes	-9.98793
▁lasi	-9.9902
▁nov	-9.99079
▁ear	-9.99133
▁mosi	-9.99339
▁semen	-9.99423
▁nis	-9.99506
▁ujuk	-9.99544
▁ich	-9.99557
▁samb	-9.99561
▁rdi	-9.99584
▁jau	-9.99602
▁mbo	-9.99608
▁Ab	-9.99701
▁aca	-9.99754
▁gan	-9.99912
▁akr	-9.9994
▁hami	-9.99944
▁bert	-9.99956
EO	-10
▁nuk	-10.0001
▁dim	-10.0002
▁cu	-10.0013
▁by	-10.0023
▁land	-10.0026
▁gant	-10.0028
▁alin	-10.003
▁itra	-10.0031
▁sual	-10.0037
ese	-10.0043
▁leks	-10.0054
▁bunuh	-10.0055
▁oc	-10.0074
▁asti	-10.0092
▁ujan	-10.0093
▁AL	-10.0107
▁aian	-10.0112
▁nom	-10.012
▁arian	-10.0122
▁06	-10.0124
▁dro	-10.0132
▁sis	-10.0141
▁asta	-10.0143
▁ura	-10.0145
▁unju	-10.0148
▁kur	-10.0151
▁ido	-10.0155
▁bun	-10.0163
▁hib	-10.0164
▁kalan	-10.0164
▁uma	-10.0171
▁imin	-10.0193
akan	-10.0193
▁enak	-10.0201
▁beras	-10.0205
cap	-10.0212
▁th	-10.0231
▁kul	-10.0239
▁mah	-10.0243
▁jian	-10.0253
▁utin	-10.0254
▁layan	-10.0257
▁okok	-10.0261
▁mor	-10.0261
▁emak	-10.0265
▁Bant	-10.0269
▁akim	-10.0306
▁iset	-10.0306
▁muan	-10.0307
▁del	-10.031
▁hab	-10.0327
▁sur	-10.0343
▁oal	-10.0343
▁dura	-10.0344
▁ish	-10.0358
pa	-10.0368
▁dil	-10.0387
▁lm	-10.0392
▁lor	-10.0397
▁uka	-10.0402
▁ier	-10.0402
▁1,	-10.0411
▁rkoba	-10.0414
▁imat	-10.0415
▁resi	-10.0418
▁rie	-10.0433
▁stor	-10.0443
▁gad	-10.0447
▁ulan	-10.0448
▁eksi	-10.0453
▁uksi	-10.0454
▁enti	-10.0467
▁enal	-10.0473
▁sent	-10.0484
▁40	-10.0493
ola	-10.0493
▁pira	-10.05
▁tch	-10.0508
▁erl	-10.0518
▁naman	-10.0518
▁rnia	-10.0523
▁tuan	-10.0528
▁uni	-10.0531
antu	-10.0536
bad	-10.0538
▁jer	-10.0552
▁eten	-10.0552
▁elu	-10.0553
▁alis	-10.056
▁jas	-10.0562
▁emar	-10.0563
▁teng	-10.0589
▁ide	-10.0591
▁hadi	-10.0601
▁wi	-10.0601
▁Kec	-10.0606
▁line	-10.061
▁lukan	-10.0617
▁mula	-10.0621
▁merek	-10.0626
▁abah	-10.0658
▁Ar	-10.0669
▁bong	-10.0685
ras	-10.0687
▁oma	-10.069
▁iau	-10.0692
▁tul	-10.0716
▁ru	-10.072
▁lla	-10.0723
▁erd	-10.0736
id	-10.0737
▁jing	-10.0741
▁dal	-10.0757
▁ure	-10.0763
▁SEMA	-10.0764
▁onser	-10.0767
▁jaga	-10.0769
▁sti	-10.0774
▁bing	-10.0789
▁NTB	-10.0799
▁jat	-10.0801
▁sela	-10.0803
▁put	-10.0811
▁tol	-10.0825
▁nyi	-10.0829
▁apas	-10.0835
▁Yo	-10.0838
▁nap	-10.0871
▁diam	-10.0882
▁07	-10.0901
▁ei	-10.0904
▁Chi	-10.0923
▁pora	-10.0928
▁bak	-10.0932
▁rki	-10.0934
▁mog	-10.0946
▁ida	-10.0947
▁SE	-10.0954
▁aus	-10.0964
▁set	-10.0978
▁kim	-10.098
▁08	-10.0985
▁uan	-10.0991
▁ct	-10.0994
▁enu	-10.1005
▁ius	-10.1008
▁MPR	-10.1013
▁bid	-10.1015
▁ked	-10.1023
▁ambu	-10.1036
▁enya	-10.1037
▁Siap	-10.1049
▁awi	-10.1056
▁bab	-10.1059
▁emisi	-10.1062
▁Sc	-10.1062
▁entu	-10.1064
▁has	-10.1072
▁tadi	-10.1072
▁RB	-10.1076
▁04	-10.1084
▁Joe	-10.1089
▁iak	-10.1105
▁vo	-10.1107
▁sca	-10.1112
emar	-10.1116
put	-10.1118
N	-10.1118
▁lat	-10.1118
▁kapan	-10.1122
▁rgan	-10.1129
▁ist	-10.1131
▁aria	-10.1136
▁fo	-10.1138
▁sad	-10.114
▁Wid	-10.1143
▁ten	-10.1148
▁lt	-10.1161
▁ulia	-10.1162
▁rawan	-10.1168
▁tata	-10.1178
▁rasi	-10.1191
▁ania	-10.1192
▁ital	-10.1193
▁arung	-10.1194
▁Bad	-10.1194
▁nand	-10.1215
▁kus	-10.1229
A	-10.1252
▁DIY	-10.1253
▁hana	-10.1264
▁09	-10.1264
▁elar	-10.1273
▁asil	-10.1284
▁use	-10.1285
▁ack	-10.1296
▁lf	-10.13
▁akat	-10.1308
▁sien	-10.1321
▁skus	-10.1329
▁umat	-10.1332
▁Ja	-10.1345
▁uhi	-10.1347
▁bai	-10.1356
▁ikin	-10.1356
▁ambi	-10.1357
▁lung	-10.1368
▁kse	-10.1375
▁Mul	-10.1393
▁bad	-10.1395
▁ean	-10.1397
▁nah	-10.14
▁ler	-10.1402
▁esain	-10.1404
▁opi	-10.1405
▁elit	-10.1416
▁ruh	-10.1419
I	-10.1445
▁peri	-10.1451
▁ce	-10.1456
▁Af	-10.1466
▁iaran	-10.1477
▁dire	-10.1488
▁asu	-10.15
▁raj	-10.1509
▁nggi	-10.1514
▁rain	-10.1522
no	-10.1522
▁za	-10.1545
▁sasi	-10.1547
▁kl	-10.1552
▁sna	-10.1557
▁MA	-10.1574
▁ers	-10.1583
▁ping	-10.1592
▁ark	-10.1595
▁adap	-10.1602
▁obo	-10.1607
▁cc	-10.1618
▁ven	-10.1626
▁hid	-10.1631
▁ue	-10.1633
▁ongan	-10.1635
▁rip	-10.1638
UT	-10.1639
▁gama	-10.1645
▁arno	-10.1646
▁nfir	-10.1658
▁apura	-10.1666
▁uti	-10.1684
▁een	-10.1692
▁sub	-10.1701
▁andan	-10.1708
▁ahar	-10.1709
▁unu	-10.1713
▁nt	-10.1722
▁onis	-10.1724
▁uto	-10.1747
law	-10.1749
▁spada	-10.175
ga	-10.1755
▁ewa	-10.1755
▁puas	-10.1757
▁lora	-10.1787
▁Pos	-10.179
▁rol	-10.181
▁mam	-10.1812
▁ekal	-10.1815
▁lai	-10.1817
da	-10.1828
▁sus	-10.183
▁nta	-10.1831
▁elo	-10.1831
▁artin	-10.1841
▁ede	-10.1853
▁He	-10.1857
▁red	-10.1871
▁my	-10.1881
▁pp	-10.1885
▁forma	-10.1886
amp	-10.1893
▁ond	-10.1907
▁sli	-10.1907
▁erp	-10.1907
▁iko	-10.1921
▁egas	-10.1931
▁pal	-10.1934
▁rsit	-10.1953
▁mbela	-10.1963
▁riy	-10.1977
▁rge	-10.1977
▁uah	-10.1981
▁sok	-10.1992
▁gres	-10.1994
▁rac	-10.1999
▁El	-10.2004
▁alas	-10.2005
▁epi	-10.2013
▁ndy	-10.2015
▁mpah	-10.2021
▁ban	-10.2028
▁nstr	-10.2033
▁iran	-10.2035
▁imi	-10.2044
▁ihat	-10.2048
▁rti	-10.2063
▁iber	-10.2068
▁ibi	-10.2074
▁eru	-10.2075
▁Gen	-10.2088
▁yam	-10.2096
▁pen	-10.2101
mp	-10.2104
▁Unit	-10.2115
▁Hadi	-10.2124
▁doa	-10.2124
▁mad	-10.2127
▁seti	-10.2139
▁awah	-10.215
▁andu	-10.2152
▁enko	-10.2154
▁kta	-10.2159
▁ayan	-10.2171
▁oh	-10.2186
▁pay	-10.2199
▁ntri	-10.2201
▁gri	-10.2203
▁tama	-10.2207
▁kro	-10.2208
▁Andi	-10.2212
▁Univ	-10.2252
▁ersi	-10.2255
▁ging	-10.2257
▁rul	-10.2261
▁istik	-10.2265
▁lam	-10.2269
▁lest	-10.2288
▁pir	-10.2291
▁dina	-10.2291
▁arya	-10.2299
▁star	-10.2299
▁ndas	-10.2302
▁gula	-10.2306
▁tral	-10.2312
▁erdas	-10.2317
▁der	-10.234
▁uga	-10.2372
▁Mel	-10.2377
str	-10.2379
▁cat	-10.2394
▁ast	-10.2394
uran	-10.2394
▁ideo	-10.2396
▁iam	-10.2406
▁ewas	-10.2413
▁ilak	-10.2414
▁kru	-10.2422
▁EAN	-10.2423
▁ence	-10.2426
▁suk	-10.243
▁gal	-10.2465
▁pung	-10.2469
▁arto	-10.247
▁tta	-10.247
▁pis	-10.2473
▁aro	-10.2481
▁den	-10.2483
▁enar	-10.2486
▁emba	-10.2497
▁dima	-10.2509
▁PPP	-10.2517
▁WNA	-10.2521
▁sut	-10.2523
▁dok	-10.2542
▁erap	-10.2544
▁teror	-10.255
▁amer	-10.2554
▁kop	-10.2555
▁mpun	-10.256
▁itung	-10.2581
▁inal	-10.2599
▁eam	-10.2602
▁lut	-10.2608
▁era	-10.261
▁nada	-10.2613
▁ika	-10.2616
▁ly	-10.2616
▁ntas	-10.2617
▁onda	-10.2618
▁urn	-10.2623
▁bol	-10.2625
▁sias	-10.2629
aw	-10.2649
▁agia	-10.2674
▁aj	-10.2677
▁alny	-10.2699
▁susu	-10.2706
▁hin	-10.2721
▁rman	-10.2733
▁ikir	-10.2736
▁ibuan	-10.2753
▁epo	-10.277
▁ikat	-10.277
▁atis	-10.2775
▁kew	-10.278
ilit	-10.2785
▁PN	-10.2785
▁lekt	-10.2787
▁rep	-10.2788
▁rit	-10.2801
▁tab	-10.2815
▁antik	-10.2823
▁ere	-10.2849
▁Za	-10.2852
▁eland	-10.2854
▁Dj	-10.2856
▁iru	-10.2865
▁diko	-10.2878
▁gul	-10.2887
▁Min	-10.2896
▁SMA	-10.2897
▁kon	-10.2899
▁gar	-10.2903
▁rema	-10.2903
▁edera	-10.2903
▁turn	-10.2917
▁fer	-10.2919
▁ulai	-10.2922
▁ili	-10.2923
▁tya	-10.2938
▁kes	-10.294
▁nu	-10.2947
▁oho	-10.2952
▁erlu	-10.297
▁saha	-10.297
▁MD	-10.2988
▁eter	-10.2988
▁eban	-10.2989
▁mbat	-10.299
▁ost	-10.2992
▁king	-10.3001
▁kir	-10.3016
▁dara	-10.3017
▁tut	-10.3018
,5	-10.3019
▁pit	-10.3029
▁cet	-10.303
▁Has	-10.304
▁manya	-10.3044
▁PSS	-10.3046
am	-10.3049
uncu	-10.305
▁umah	-10.3055
▁nut	-10.3067
▁KAI	-10.3069
▁PSSI	-10.3086
▁eret	-10.3088
▁van	-10.309
alim	-10.3101
▁acu	-10.3104
▁abe	-10.311
▁kok	-10.3125
▁pot	-10.3144
▁@	-10.3152
▁rsi	-10.3153
▁erma	-10.3154
▁embu	-10.316
▁rgo	-10.3171
▁egan	-10.3172
▁rate	-10.3173
▁sil	-10.3174
▁jari	-10.3178
▁raksi	-10.3184
▁band	-10.3202
▁sc	-10.3205
▁Kl	-10.3212
▁va	-10.3215
▁mpo	-10.3217
▁cok	-10.3223
▁yur	-10.3228
▁sir	-10.3232
▁thi	-10.324
▁ndu	-10.3241
▁emp	-10.325
▁ead	-10.3253
kar	-10.3256
▁oll	-10.3265
▁ukan	-10.3269
▁dup	-10.327
▁arik	-10.3271
▁roli	-10.3283
▁umb	-10.3289
▁idu	-10.3292
▁It	-10.3292
▁NU	-10.3293
▁rtis	-10.3296
hmad	-10.3297
▁unt	-10.3309
▁ambat	-10.331
▁Hu	-10.331
▁SMK	-10.3323
▁hir	-10.3333
▁oyo	-10.3334
uh	-10.3335
▁jan	-10.3352
▁lari	-10.3355
▁timal	-10.3356
ni	-10.3359
▁ams	-10.3361
▁mda	-10.3364
▁itus	-10.3365
▁rkan	-10.3367
▁puan	-10.337
▁2,	-10.3384
▁ota	-10.3386
▁top	-10.3388
▁rea	-10.3391
▁ite	-10.3404
▁Tok	-10.3417
▁nduk	-10.3434
▁lem	-10.3438
▁dak	-10.3449
▁ig	-10.3452
▁inc	-10.3465
▁TKP	-10.3476
▁ebak	-10.3478
▁run	-10.3482
▁pura	-10.3489
▁itia	-10.3495
▁mewa	-10.3497
▁gaya	-10.3498
▁ug	-10.3503
▁omm	-10.3513
▁PNS	-10.3519
▁alau	-10.3519
▁Du	-10.3521
▁rya	-10.3535
▁alim	-10.3537
ur	-10.3541
▁YOG	-10.3543
▁hap	-10.3549
▁elun	-10.3551
▁Perd	-10.3553
▁val	-10.3575
olit	-10.3575
▁lih	-10.3586
▁led	-10.3587
▁orp	-10.3589
▁ash	-10.359
▁ndika	-10.3597
▁sua	-10.3623
▁ombo	-10.3628
▁itusi	-10.363
▁ute	-10.363
▁alal	-10.3633
▁nald	-10.3634
▁oda	-10.364
▁jut	-10.3646
▁60	-10.3648
▁kab	-10.3662
▁ulus	-10.3666
▁asin	-10.3695
▁rad	-10.3705
▁eco	-10.3707
▁HO	-10.3718
▁imo	-10.3728
▁Ser	-10.3729
▁ee	-10.3731
▁hm	-10.3733
▁agen	-10.3733
▁deral	-10.3755
▁mot	-10.3761
▁Inf	-10.3769
▁esa	-10.377
▁curi	-10.3795
▁asan	-10.3803
▁emudi	-10.3804
▁bas	-10.3857
▁oor	-10.3859
▁OR	-10.3865
▁rakt	-10.3866
▁iasa	-10.3869
▁SK	-10.3871
▁imis	-10.3876
▁gam	-10.3878
▁Sen	-10.3884
▁oran	-10.3889
▁vita	-10.3894
▁kor	-10.3896
▁KM	-10.39
▁lapa	-10.3912
PC	-10.3921
▁WITA	-10.3924
▁odo	-10.3933
▁omb	-10.3942
▁enj	-10.3943
▁uel	-10.395
▁teo	-10.3958
▁ilo	-10.396
▁rom	-10.3984
▁bek	-10.4005
▁kinan	-10.4007
▁jamin	-10.4009
▁urit	-10.401
▁ktor	-10.4012
▁arap	-10.4023
▁fl	-10.4028
▁uki	-10.4032
▁uli	-10.4043
▁ukul	-10.4045
▁perc	-10.4058
▁nve	-10.406
▁amal	-10.4062
▁jm	-10.4064
▁Man	-10.4079
▁vasi	-10.4087
▁uali	-10.4111
▁iun	-10.4114
▁lek	-10.4134
▁RT	-10.4154
kin	-10.4156
▁ekas	-10.4156
▁amp	-10.417
▁unga	-10.4175
▁itar	-10.4191
▁rest	-10.4194
▁ngaja	-10.4195
▁sor	-10.4222
▁fung	-10.4225
▁Sy	-10.4231
▁khir	-10.4237
▁roy	-10.4251
▁ujuan	-10.4252
▁ago	-10.4256
▁lini	-10.4259
▁hn	-10.4262
▁rs	-10.427
▁rv	-10.428
▁mani	-10.4284
are	-10.429
▁onor	-10.4296
▁alik	-10.43
pol	-10.4308
▁asila	-10.4309
▁anju	-10.4328
▁via	-10.4332
▁ule	-10.4336
▁BKN	-10.4348
)	-10.4367
▁ranc	-10.4367
▁stri	-10.4378
▁adik	-10.4386
▁meme	-10.4393
▁aba	-10.4408
▁paran	-10.4409
▁tari	-10.441
▁dera	-10.4411
▁AFF	-10.4426
▁inar	-10.4429
▁kara	-10.4436
▁idup	-10.4441
▁etah	-10.4445
▁nce	-10.4447
▁uda	-10.4452
▁get	-10.448
▁umpa	-10.4484
suai	-10.449
ic	-10.449
▁PLN	-10.4509
▁yap	-10.4517
▁tro	-10.4524
▁Dwi	-10.4527
▁erto	-10.4532
▁dj	-10.454
▁Gu	-10.454
pem	-10.4541
▁BOG	-10.4546
▁ndo	-10.4551
▁So	-10.4557
▁ate	-10.4561
▁tun	-10.4561
▁oris	-10.4565
▁bin	-10.4565
▁dali	-10.4573
▁eda	-10.4573
▁elak	-10.4575
▁teru	-10.4592
▁AFP	-10.4612
▁SD	-10.4621
▁lap	-10.4624
▁VOA	-10.4628
uduk	-10.4654
▁BBM	-10.4665
▁ming	-10.468
▁mbina	-10.4681
▁luh	-10.4688
▁rahan	-10.469
▁usi	-10.4702
▁elen	-10.4711
▁aih	-10.4712
▁ewan	-10.4718
▁ssa	-10.4725
▁rtasi	-10.4736
▁rab	-10.4761
tro	-10.4772
▁Kala	-10.4782
▁caya	-10.4792
▁fan	-10.4792
pe	-10.4799
▁lig	-10.4802
▁sep	-10.4826
E	-10.4844
50	-10.4874
▁ass	-10.4882
▁seri	-10.4888
▁uro	-10.491
▁rup	-10.4925
▁esu	-10.4957
▁hani	-10.4972
▁leh	-10.4983
▁vin	-10.5008
▁nak	-10.5026
osia	-10.5028
▁DP	-10.5043
▁oso	-10.5054
▁ision	-10.5067
▁iji	-10.5078
asti	-10.5085
▁Dir	-10.5089
▁end	-10.5089
▁ngkal	-10.51
le	-10.5105
▁rma	-10.5107
▁KH	-10.5119
ge	-10.5138
emp	-10.5144
▁Dem	-10.516
K	-10.5165
▁nny	-10.5172
▁ghan	-10.5177
▁stin	-10.519
▁aid	-10.5199
▁ado	-10.5218
▁tar	-10.5245
ant	-10.5263
▁ngar	-10.5265
▁nek	-10.5267
▁aut	-10.5271
▁lobal	-10.5275
▁Hen	-10.5283
▁Tbk	-10.5284
▁putra	-10.5284
▁ndala	-10.5286
▁neka	-10.5288
▁out	-10.5289
▁Kim	-10.5308
▁etika	-10.531
▁Com	-10.5325
▁over	-10.5334
▁ken	-10.5334
▁kian	-10.5337
▁lot	-10.5338
▁kum	-10.5355
▁rsatu	-10.536
▁ty	-10.538
▁wah	-10.5389
▁BK	-10.5393
▁igit	-10.54
et	-10.5401
▁aul	-10.5407
▁aktu	-10.5409
▁igi	-10.5414
▁kti	-10.5415
▁Dn	-10.5416
▁apor	-10.5425
▁ugi	-10.5434
▁elat	-10.5436
▁Ria	-10.5466
▁unc	-10.5466
▁rkas	-10.5476
▁arna	-10.5482
▁egar	-10.5483
▁ahana	-10.5487
▁Xi	-10.5497
▁NATO	-10.55
▁oco	-10.5511
▁pele	-10.5512
▁ansa	-10.5513
▁adj	-10.5518
▁Fe	-10.5536
▁adin	-10.5538
▁eh	-10.5547
▁ahat	-10.5554
▁rial	-10.556
▁ali	-10.556
▁ffi	-10.5565
▁+	-10.5586
7	-10.5597
▁ake	-10.5601
▁erse	-10.5603
OK	-10.5608
▁mate	-10.5612
▁erna	-10.5615
▁ipe	-10.5618
▁Ade	-10.5629
▁Den	-10.5639
▁diku	-10.5653
▁ngk	-10.5662
▁how	-10.5699
▁gika	-10.5702
▁SMP	-10.5705
▁les	-10.5718
G	-10.572
▁syah	-10.5728
▁Han	-10.5728
▁nj	-10.5736
▁raha	-10.5737
▁raf	-10.5737
▁nia	-10.574
▁bul	-10.574
▁akin	-10.5743
▁AR	-10.5748
▁rai	-10.5756
▁unik	-10.5766
▁Fi	-10.579
▁fak	-10.5791
▁ahu	-10.5803
▁ret	-10.5807
▁PPN	-10.5807
▁ubu	-10.581
▁fes	-10.5812
▁hol	-10.5823
▁onfe	-10.5827
▁seli	-10.5827
▁pah	-10.5839
▁eka	-10.5842
T	-10.5847
▁CC	-10.5847
▁NTT	-10.5861
▁uha	-10.5881
▁niat	-10.5883
▁nju	-10.5883
▁erka	-10.5887
▁Up	-10.5887
▁fic	-10.5888
▁IV	-10.5901
▁arl	-10.594
▁kiba	-10.5971
▁gia	-10.5996
▁ening	-10.6004
▁adis	-10.601
▁Gol	-10.6033
▁sin	-10.6033
▁ceh	-10.6034
▁legal	-10.6049
▁lun	-10.6053
SBS	-10.6063
▁ust	-10.6078
▁enc	-10.6083
▁duka	-10.609
▁mara	-10.6099
▁iman	-10.6106
▁ros	-10.6111
▁adai	-10.6112
▁rno	-10.6117
▁lib	-10.6117
▁wasa	-10.6125
▁dasi	-10.6134
▁ij	-10.6138
▁lik	-10.614
▁risi	-10.6145
▁imak	-10.6154
▁bum	-10.6156
▁AP	-10.6202
▁mari	-10.6217
▁erima	-10.6233
▁elem	-10.6234
▁PSM	-10.6238
▁usti	-10.6261
▁nag	-10.627
20	-10.6276
▁erti	-10.6286
▁mit	-10.6296
▁usif	-10.6304
▁duan	-10.6313
▁KA	-10.6317
6	-10.6324
▁lili	-10.6329
▁lomb	-10.6339
▁rel	-10.6348
▁uhnya	-10.6348
▁nakan	-10.6351
▁ile	-10.6355
ba	-10.6365
▁ein	-10.6402
▁mbung	-10.6415
▁Bl	-10.6419
▁RSU	-10.6424
▁ompo	-10.6444
ho	-10.6449
S	-10.6455
▁elan	-10.6468
▁isan	-10.6476
▁pik	-10.6487
▁Is	-10.6518
▁ukar	-10.6519
▁jun	-10.6533
▁des	-10.6534
▁keke	-10.6543
▁dipa	-10.655
▁rdo	-10.6552
▁mala	-10.656
AN	-10.6563
▁PNM	-10.6581
▁rwa	-10.6583
▁ikap	-10.6583
▁gemb	-10.6586
▁ngis	-10.6602
▁AMIN	-10.6612
▁putri	-10.6619
▁gir	-10.662
▁ree	-10.6623
▁fri	-10.6624
▁jal	-10.6625
▁cor	-10.6629
▁dus	-10.6638
▁Gar	-10.6648
▁cap	-10.6649
▁Ru	-10.6649
▁edik	-10.6652
▁bil	-10.6653
▁rlin	-10.6653
▁ogi	-10.6664
▁matik	-10.6676
lind	-10.6681
4	-10.6684
▁lv	-10.6688
▁rn	-10.6692
▁sam	-10.671
▁ami	-10.672
U	-10.6729
▁iana	-10.6733
▁DW	-10.6752
▁erm	-10.6772
▁35	-10.6783
▁rim	-10.6818
▁fit	-10.6828
▁tip	-10.6832
▁ode	-10.6842
▁okal	-10.6842
▁eve	-10.6843
▁dau	-10.6851
▁hy	-10.6851
▁ement	-10.6854
▁nus	-10.6855
▁asok	-10.6869
▁Im	-10.6871
pek	-10.6882
▁say	-10.6895
sy	-10.69
▁hop	-10.691
▁udy	-10.6923
▁yadi	-10.6925
DN	-10.6943
▁oin	-10.6943
▁US	-10.6973
▁ela	-10.6981
▁etia	-10.6982
▁ayo	-10.699
▁og	-10.6991
▁ales	-10.7011
▁kis	-10.7012
▁pus	-10.7016
▁Bar	-10.7026
▁otal	-10.7045
▁sum	-10.706
▁Angka	-10.7087
▁erc	-10.7088
▁erh	-10.71
▁ael	-10.7104
▁indu	-10.7105
▁haya	-10.7132
▁ramp	-10.7134
▁kna	-10.7137
▁Jam	-10.7138
mba	-10.7142
ran	-10.7152
▁tan	-10.7158
▁ebo	-10.7167
▁ekam	-10.7168
▁nes	-10.7168
▁USD	-10.7171
▁aker	-10.7177
▁nara	-10.7187
▁ader	-10.7192
▁Jak	-10.72
▁mpu	-10.722
▁KUH	-10.7229
▁ewat	-10.7233
▁omen	-10.7253
▁lite	-10.726
TT	-10.7261
▁ess	-10.7262
▁sion	-10.7266
▁esti	-10.7297
▁him	-10.73
▁anis	-10.73
▁Em	-10.7301
▁ntr	-10.7311
▁nsyah	-10.7314
▁oka	-10.7318
▁agam	-10.7323
▁Pl	-10.7331
▁rm	-10.7332
EMB	-10.7337
▁che	-10.7337
▁CSR	-10.7339
▁puti	-10.7356
▁ipi	-10.7369
▁iba	-10.7389
▁engka	-10.739
▁hel	-10.7405
▁masan	-10.7424
▁kin	-10.7428
▁nz	-10.7431
▁trik	-10.7438
▁edang	-10.7444
▁motor	-10.7446
▁enge	-10.7454
▁abo	-10.7459
ju	-10.7462
▁rni	-10.747
▁spa	-10.748
▁ple	-10.7496
▁mon	-10.7497
▁ora	-10.7498
▁oy	-10.7498
▁ej	-10.7504
▁mika	-10.7515
▁Ky	-10.7523
▁sida	-10.753
▁nim	-10.7533
▁ebu	-10.7533
gaw	-10.7539
▁ipil	-10.7541
▁DEP	-10.7554
▁ngku	-10.7556
▁onst	-10.7568
ena	-10.7574
▁Tra	-10.7579
▁sto	-10.7589
▁lamb	-10.7613
▁ale	-10.7613
▁kuk	-10.7617
▁ecam	-10.7622
▁Cu	-10.7653
▁berm	-10.7656
▁rmo	-10.7661
kat	-10.7662
▁ose	-10.7664
▁rt	-10.7671
▁lihan	-10.7674
▁hul	-10.7682
▁enag	-10.7686
▁radi	-10.7687
▁70	-10.7691
▁mur	-10.7693
▁med	-10.7697
▁rtu	-10.7715
▁tria	-10.7717
▁mna	-10.7721
▁osok	-10.7721
▁etn	-10.7722
▁sita	-10.7725
▁ugas	-10.7731
▁rsel	-10.7732
▁erus	-10.7741
▁tic	-10.7746
▁det	-10.7755
▁irin	-10.7758
▁ony	-10.7763
▁ampi	-10.7764
▁1.	-10.7772
▁empu	-10.778
▁lay	-10.7796
▁ilan	-10.7796
▁buk	-10.7797
▁ont	-10.7811
▁atah	-10.7815
▁kh	-10.7818
▁80	-10.7821
▁manu	-10.7831
▁ath	-10.7835
▁ikel	-10.7839
if	-10.7845
ine	-10.7846
▁iras	-10.7853
▁PR	-10.7857
▁rsa	-10.7865
▁arkan	-10.787
▁odu	-10.7872
▁erba	-10.7874
▁bra	-10.7877
▁rint	-10.7889
▁mran	-10.7905
▁nggo	-10.7908
▁ando	-10.7911
▁abi	-10.7913
▁IS	-10.7918
ji	-10.7922
▁3,	-10.7932
▁dap	-10.7935
▁yal	-10.7949
▁aren	-10.7953
▁araw	-10.7958
▁ampil	-10.7962
▁Semen	-10.7967
▁let	-10.7969
▁gak	-10.797
▁resp	-10.7979
▁rev	-10.7992
▁can	-10.7995
▁gis	-10.801
▁mutu	-10.8015
▁endah	-10.8021
lih	-10.8024
▁uruan	-10.8025
▁dri	-10.8041
▁nasi	-10.8073
F	-10.8099
▁cak	-10.8101
▁oet	-10.8134
▁Api	-10.8153
▁ll	-10.8156
▁etap	-10.8157
▁sma	-10.8166
▁Top	-10.8175
▁til	-10.8185
▁inya	-10.8198
▁sha	-10.8235
▁unda	-10.8246
▁utar	-10.8248
▁gim	-10.8277
▁asc	-10.8291
▁ngel	-10.8302
▁yar	-10.8308
▁lmu	-10.8319
▁yai	-10.8332
▁BPJS	-10.8343
▁ahal	-10.8347
▁istr	-10.8351
▁nif	-10.8355
▁mp	-10.8357
▁saw	-10.838
▁arte	-10.8393
▁RW	-10.8411
▁umbu	-10.8414
FC	-10.8415
▁ilik	-10.8424
▁aci	-10.8426
▁mpet	-10.8437
▁eleng	-10.8452
▁presi	-10.8456
▁ulik	-10.8461
▁ngun	-10.8467
C	-10.8468
▁32	-10.8513
▁muni	-10.8526
▁odi	-10.8526
▁isal	-10.8527
▁mun	-10.8527
▁arget	-10.8538
▁WNI	-10.854
▁SOL	-10.8561
▁udar	-10.8565
rov	-10.8566
ggi	-10.8566
▁hli	-10.8568
▁nant	-10.8571
▁bara	-10.8572
▁eri	-10.8577
▁ruk	-10.8602
▁AHY	-10.8612
▁DKPP	-10.8651
▁basi	-10.8657
▁sp	-10.8658
▁stem	-10.8659
▁arda	-10.8681
▁cana	-10.8683
▁ben	-10.8687
▁moto	-10.8689
▁emang	-10.8689
▁erdi	-10.8698
▁lev	-10.8705
▁awe	-10.8713
▁osa	-10.8715
▁arasi	-10.8716
▁UI	-10.8731
▁ndi	-10.8735
▁apur	-10.8736
▁ubar	-10.8745
▁nget	-10.8757
▁epan	-10.8762
▁ndon	-10.8767
▁gon	-10.8772
TEN	-10.8783
▁fesi	-10.8784
▁uba	-10.8796
▁iapa	-10.8807
▁nel	-10.8814
▁chi	-10.8832
▁BI	-10.8841
▁OA	-10.8841
▁ndek	-10.8847
▁Il	-10.8848
▁AD	-10.8848
▁erta	-10.8849
spad	-10.885
▁itan	-10.8854
▁sA	-10.8861
▁avi	-10.8879
▁eder	-10.8902
▁AM	-10.8916
▁plik	-10.8919
▁cob	-10.8922
▁ntal	-10.8939
▁PMI	-10.8951
▁PBNU	-10.8967
▁vent	-10.8967
▁bowo	-10.8968
BUP	-10.8969
▁part	-10.8969
▁ngi	-10.8971
▁endam	-10.8974
▁agus	-10.8979
PW	-10.898
▁anaan	-10.8981
▁GP	-10.8988
▁Pus	-10.8988
▁otak	-10.8989
▁boli	-10.8992
▁km	-10.8993
▁afi	-10.9005
▁mark	-10.9011
▁rong	-10.9015
▁rop	-10.902
▁lli	-10.9049
▁ekr	-10.9058
▁hri	-10.9064
▁ye	-10.9072
▁90	-10.9074
▁dom	-10.9081
▁ksa	-10.9085
▁koh	-10.9088
▁cipta	-10.91
▁nata	-10.9108
nfir	-10.9147
▁sport	-10.9151
▁Net	-10.9154
▁omo	-10.9154
▁ashi	-10.9162
▁APBN	-10.9172
ent	-10.9181
▁aim	-10.9191
▁erbu	-10.9196
▁uruk	-10.9227
▁awat	-10.9233
▁tub	-10.9234
▁uler	-10.9238
▁aula	-10.9264
▁rana	-10.9272
▁aram	-10.93
▁ait	-10.9302
▁EV	-10.9303
▁riw	-10.9327
▁dha	-10.9334
▁nsia	-10.9339
▁Gr	-10.9347
9	-10.9347
▁erko	-10.9366
▁rov	-10.9366
▁cari	-10.9373
▁nco	-10.9375
MI	-10.9386
▁tot	-10.9391
▁Yan	-10.9391
▁rena	-10.9392
▁eusa	-10.9398
▁kp	-10.9405
▁aum	-10.9429
▁versi	-10.944
▁mos	-10.946
▁Ip	-10.9464
▁dag	-10.9468
▁fa	-10.949
▁aban	-10.9492
Di	-10.9502
son	-10.9503
man	-10.9504
▁bau	-10.9506
▁sem	-10.9506
▁ulkan	-10.952
MAN	-10.9525
▁nter	-10.9538
▁sko	-10.9541
▁jah	-10.9547
▁kit	-10.9552
▁cal	-10.9554
▁PPK	-10.9557
▁mul	-10.9557
▁wed	-10.9569
em	-10.9573
▁labo	-10.9576
▁PM	-10.9591
▁hang	-10.9592
TN	-10.9604
▁bet	-10.9609
▁BP	-10.9647
▁AC	-10.9652
▁isw	-10.9652
▁krim	-10.9655
▁auh	-10.9661
▁aia	-10.9663
▁ilai	-10.971
▁oga	-10.971
▁ompa	-10.9755
▁EUR	-10.9783
▁ric	-10.9786
▁arj	-10.9801
▁adem	-10.9806
▁giri	-10.9808
▁ehat	-10.9821
▁RK	-10.9832
▁Lin	-10.9836
▁AZNAS	-10.985
▁taru	-10.9852
▁mew	-10.9856
▁iver	-10.9899
▁tha	-10.9904
▁pam	-10.9907
▁45	-10.9912
▁aun	-10.9917
▁ebat	-10.9918
BI	-10.9934
▁mia	-10.9941
▁sman	-10.9948
▁pte	-10.9951
▁con	-10.9958
▁ntre	-10.9961
▁ngo	-10.9962
▁tle	-10.9964
▁romo	-10.9964
▁enep	-10.998
▁div	-10.9985
▁THR	-10.9985
▁mob	-10.9994
▁eki	-11.0003
▁rian	-11.0005
▁gat	-11.0017
▁rin	-11.0018
▁GIIAS	-11.0028
▁erbi	-11.0035
▁sit	-11.0043
▁ias	-11.0044
bj	-11.0048
▁ulk	-11.0049
▁ardi	-11.0051
▁komu	-11.0067
▁nline	-11.0073
▁Je	-11.0087
▁aniel	-11.0093
▁eram	-11.0103
▁anyar	-11.0104
▁maj	-11.0122
▁uy	-11.0124
B	-11.0138
▁uling	-11.0144
▁spes	-11.0147
▁endo	-11.0151
▁erup	-11.0154
▁ugu	-11.0164
▁34	-11.0167
5	-11.0171
▁nan	-11.0171
▁kaw	-11.0173
▁Jati	-11.0177
▁antun	-11.0179
▁pec	-11.0182
▁erem	-11.0183
▁unj	-11.0191
IM	-11.0196
▁pac	-11.0207
▁vis	-11.023
▁Day	-11.0231
▁agn	-11.0234
▁usah	-11.0242
▁ove	-11.025
▁ihar	-11.0266
▁endi	-11.0288
▁Peran	-11.0297
▁swa	-11.0299
▁UNRWA	-11.03
▁gni	-11.031
▁jala	-11.0323
▁orit	-11.0334
▁eser	-11.0339
▁sand	-11.0342
▁IM	-11.0344
▁LPG	-11.0348
▁nentu	-11.0351
▁ermu	-11.0353
▁anag	-11.0361
▁ica	-11.0377
co	-11.0379
CL	-11.0385
▁Fest	-11.039
▁Dew	-11.0393
▁sila	-11.0397
ch	-11.0403
▁icu	-11.0406
▁ront	-11.0406
▁Abd	-11.0407
▁ID	-11.0425
▁oj	-11.0427
▁ahm	-11.0475
H	-11.0499
▁yasa	-11.0508
▁acar	-11.0511
▁Seti	-11.0512
▁PA	-11.0513
▁ngsi	-11.0516
▁len	-11.0521
▁trib	-11.0524
▁lusi	-11.0553
▁esmi	-11.0564
▁ibur	-11.0579
▁PUPR	-11.058
▁kot	-11.0584
▁yas	-11.0587
▁enca	-11.0601
▁duk	-11.062
▁uju	-11.0628
▁arm	-11.0641
▁bom	-11.0644
▁EN	-11.0648
ec	-11.0651
RI	-11.0652
▁nad	-11.0654
▁day	-11.0655
R	-11.0662
▁nerg	-11.0666
▁erut	-11.0673
▁TKN	-11.0678
▁tal	-11.0681
▁alian	-11.0681
▁MI	-11.0693
▁KN	-11.0698
▁rans	-11.0709
▁elur	-11.0717
ol	-11.0723
▁umas	-11.0724
▁Op	-11.0734
▁75	-11.0746
▁Kas	-11.0747
romo	-11.0748
▁150	-11.0768
▁ntis	-11.0769
▁patu	-11.0771
▁klu	-11.0773
▁sisw	-11.0776
▁limp	-11.0782
▁bag	-11.079
▁Cup	-11.0812
▁able	-11.0814
W	-11.0819
▁omin	-11.0819
ly	-11.0822
▁ald	-11.0834
▁osis	-11.084
▁dor	-11.0854
▁gali	-11.0861
▁inti	-11.0863
▁ekn	-11.0867
▁inum	-11.0867
▁fli	-11.0878
▁iter	-11.0881
▁seks	-11.0885
▁Din	-11.0891
UD	-11.0896
IP	-11.0897
▁eran	-11.0912
▁nung	-11.0921
▁Rai	-11.0926
▁mand	-11.0944
▁erce	-11.095
bung	-11.0951
▁nar	-11.0969
▁rmat	-11.0974
▁38	-11.1014
▁eria	-11.1016
▁36	-11.1016
▁ril	-11.1017
▁RIDO	-11.1019
▁rtas	-11.1021
▁ror	-11.1022
▁ering	-11.1022
▁omba	-11.1025
▁ume	-11.1027
▁Ked	-11.1029
▁pul	-11.1034
▁tah	-11.1046
▁agak	-11.1048
▁PPDB	-11.1067
▁4,	-11.1067
▁capai	-11.1068
▁eruk	-11.1068
▁demik	-11.1074
atur	-11.1079
▁ull	-11.1094
▁yol	-11.1099
▁iza	-11.11
▁opo	-11.1109
▁Jab	-11.1113
▁yim	-11.1138
▁ys	-11.1143
▁tuk	-11.115
▁PU	-11.1156
▁unak	-11.1159
▁XXI	-11.1161
▁raw	-11.1166
▁urun	-11.1174
▁dut	-11.1178
vest	-11.1186
▁lana	-11.1189
▁Bak	-11.1196
▁UT	-11.1205
▁kol	-11.1207
▁nator	-11.1209
▁cia	-11.1217
▁pati	-11.1231
wa	-11.1232
▁ors	-11.1264
▁KKB	-11.1278
▁obi	-11.1284
▁tok	-11.1285
▁Polri	-11.1287
▁Ne	-11.13
▁unya	-11.1305
▁erol	-11.1314
▁asak	-11.1321
▁mbon	-11.1325
▁azar	-11.133
▁cha	-11.1333
▁ormas	-11.1334
▁lega	-11.134
▁wit	-11.1353
▁Er	-11.1362
▁Baw	-11.1405
▁nind	-11.1408
▁iy	-11.1408
▁gend	-11.1411
▁ace	-11.1416
▁aif	-11.1448
jad	-11.1453
▁shop	-11.1473
▁awati	-11.1484
x	-11.1492
▁had	-11.1501
▁rsita	-11.1504
▁ahas	-11.151
▁WHO	-11.1521
▁akh	-11.1527
▁afar	-11.1533
▁osi	-11.1537
▁nsu	-11.1539
▁aitan	-11.1544
▁isku	-11.1547
▁gara	-11.1551
▁ape	-11.1575
▁udan	-11.1577
▁ajib	-11.1579
▁att	-11.1586
▁nerj	-11.1587
23	-11.1589
SN	-11.1602
▁siat	-11.1607
▁tna	-11.1608
▁UNG	-11.1615
▁etu	-11.1643
▁SIM	-11.1653
▁hon	-11.1658
▁iska	-11.1663
▁owo	-11.1666
▁SYL	-11.1679
▁nua	-11.168
ep	-11.171
▁fik	-11.1714
▁ole	-11.1715
han	-11.1736
▁oel	-11.1757
▁inj	-11.1762
PU	-11.1766
▁MAL	-11.1767
▁was	-11.1774
▁jet	-11.1781
▁PB	-11.1785
▁#	-11.1791
▁olu	-11.1792
▁arhu	-11.1798
BL	-11.1801
60	-11.1803
▁Tan	-11.1809
ruh	-11.1815
▁sten	-11.182
▁may	-11.1836
▁Ben	-11.1843
▁BM	-11.1846
▁enis	-11.1856
dy	-11.1863
▁idi	-11.1872
▁ssi	-11.188
▁khu	-11.1885
▁mart	-11.1888
▁yl	-11.1888
▁UGM	-11.1895
▁omp	-11.1906
▁aret	-11.1907
▁zin	-11.1908
▁beli	-11.191
▁esal	-11.1915
▁rib	-11.1917
▁aikan	-11.1931
▁ump	-11.1962
▁erja	-11.1962
▁kret	-11.197
▁lko	-11.1976
▁alita	-11.1992
▁uai	-11.1992
▁Cek	-11.1992
▁gh	-11.2
▁ikr	-11.2002
▁form	-11.2006
▁aiman	-11.202
▁Shi	-11.2034
▁wis	-11.2036
▁arko	-11.2043
▁eek	-11.2045
▁ior	-11.2055
ry	-11.2056
▁ESG	-11.2057
▁warg	-11.2062
▁rini	-11.2064
▁akwa	-11.2098
▁eor	-11.2102
▁ask	-11.2121
▁PHK	-11.2122
▁stu	-11.2125
M	-11.2125
▁semb	-11.2161
▁afa	-11.2167
▁hool	-11.217
urah	-11.2171
▁igh	-11.2173
AW	-11.2191
▁ve	-11.2201
▁oo	-11.2214
▁ray	-11.2214
▁nai	-11.222
▁hok	-11.2237
▁oti	-11.2239
▁Sp	-11.2254
X	-11.2278
▁33	-11.2285
▁DC	-11.2304
▁bjb	-11.2333
▁ER	-11.2333
▁okus	-11.2334
-2	-11.2337
RT	-11.2363
▁atin	-11.2371
▁PEKA	-11.2377
▁njal	-11.2387
▁ektif	-11.2389
▁sebe	-11.239
▁SPBU	-11.2391
AR	-11.2402
L	-11.2422
▁mest	-11.2422
▁ars	-11.2427
▁kasa	-11.2429
▁hamm	-11.2432
▁hara	-11.2453
▁Jay	-11.2455
▁nita	-11.2459
▁usik	-11.2467
▁uala	-11.248
▁gil	-11.249
▁KPPS	-11.2503
▁kj	-11.2515
▁iasi	-11.2533
▁Lee	-11.2546
▁Aku	-11.2546
▁buru	-11.2564
▁BYD	-11.2566
▁ukun	-11.2568
▁rku	-11.2568
▁jid	-11.2581
▁upat	-11.2592
▁rp	-11.26
nama	-11.2613
▁atl	-11.2619
▁arin	-11.2655
▁time	-11.2659
▁arum	-11.266
▁Mere	-11.266
▁samp	-11.2662
▁raks	-11.2665
▁abor	-11.2667
▁oke	-11.2674
▁PK	-11.2682
▁tmen	-11.2682
▁ITB	-11.2683
▁onc	-11.2693
▁kung	-11.2704
▁Kedu	-11.2711
ton	-11.2716
▁Gun	-11.2717
▁udik	-11.2725
▁untun	-11.2732
▁PSIM	-11.2737
▁tt	-11.2754
▁eat	-11.2778
▁Ok	-11.278
▁Sah	-11.2782
▁okyo	-11.2802
▁Tru	-11.2807
▁DPO	-11.2819
▁spor	-11.2828
▁car	-11.2833
▁_	-11.2852
▁illa	-11.2858
▁reat	-11.2874
▁laya	-11.2877
▁arun	-11.2892
▁hr	-11.2898
▁peti	-11.2903
▁mbal	-11.2909
▁emen	-11.2921
▁itif	-11.2928
▁lita	-11.293
▁nir	-11.2937
▁tori	-11.2941
▁Kam	-11.2947
17	-11.2951
▁PON	-11.2952
▁law	-11.2956
▁yen	-11.2967
▁SIG	-11.297
▁Ray	-11.2977
▁ock	-11.2984
▁evi	-11.2993
▁por	-11.3
▁ipa	-11.3005
olog	-11.3006
▁orb	-11.301
▁swar	-11.302
▁KI	-11.3022
▁suda	-11.3026
▁atkan	-11.3027
▁iat	-11.3032
▁ntra	-11.3035
▁BSD	-11.3039
▁5,	-11.304
▁cit	-11.3041
▁jutan	-11.3046
0%	-11.3046
▁tung	-11.3051
▁BKP	-11.3053
▁este	-11.3064
▁ande	-11.3067
▁cer	-11.3067
ky	-11.3077
▁Mon	-11.3085
mail	-11.3088
▁edo	-11.3092
▁nol	-11.3095
▁ebi	-11.3098
▁Sun	-11.3101
▁adio	-11.3102
▁adak	-11.3107
▁inde	-11.3118
▁impi	-11.3124
▁ekt	-11.313
▁GOR	-11.3142
V	-11.3154
▁amd	-11.3157
▁ntho	-11.3162
▁KTP	-11.3164
▁tres	-11.3167
▁Gre	-11.3178
OTO	-11.3178
▁uj	-11.3179
▁55	-11.3187
▁ifa	-11.3188
▁enci	-11.319
▁ukka	-11.32
▁ubuh	-11.3205
▁mbun	-11.3205
▁huk	-11.3205
rus	-11.3206
▁rba	-11.3207
▁wak	-11.3214
▁iwa	-11.3239
▁ippo	-11.3242
emb	-11.3242
▁andr	-11.3243
▁ngung	-11.3244
EK	-11.3253
ne	-11.3261
▁Bus	-11.3273
▁fid	-11.3279
▁klim	-11.3279
▁Art	-11.3291
▁gah	-11.3292
▁kib	-11.3301
▁jin	-11.3314
▁entr	-11.3338
▁tm	-11.3343
▁adan	-11.3359
▁asem	-11.3359
▁pl	-11.3368
▁akse	-11.3377
▁unkan	-11.3381
▁bir	-11.3383
▁ibuk	-11.3385
▁ggo	-11.3397
▁cang	-11.3406
▁On	-11.3414
▁rdak	-11.3427
▁sun	-11.3433
▁fil	-11.3436
▁erw	-11.3437
▁enat	-11.3461
▁khi	-11.3466
atuh	-11.3481
▁Va	-11.3482
▁suma	-11.3495
▁rot	-11.3495
▁BNN	-11.3499
▁jar	-11.3513
bes	-11.3521
▁(1)	-11.3528
▁hind	-11.354
▁muk	-11.3543
▁nko	-11.3545
▁BPK	-11.3555
▁BPN	-11.3566
▁tag	-11.3568
▁Isu	-11.3575
▁runa	-11.3575
▁mbia	-11.3592
▁TANG	-11.3593
▁TK	-11.36
▁ahir	-11.3623
▁ente	-11.3627
IAN	-11.3632
▁yaw	-11.3637
▁2.	-11.3658
▁SUV	-11.3661
▁daran	-11.3665
▁dji	-11.3686
PP	-11.3725
▁lian	-11.3731
▁dem	-11.3733
▁emil	-11.3743
▁wang	-11.3754
▁asit	-11.3761
▁oi	-11.3771
cam	-11.378
▁meru	-11.3783
▁OJK	-11.3785
▁FIFA	-11.3795
70	-11.3806
ej	-11.3806
NL	-11.3809
▁ren	-11.3826
▁nyala	-11.3843
▁MUI	-11.3857
KD	-11.389
▁yer	-11.3893
-	-11.3896
▁TJSL	-11.3916
▁AK	-11.3932
▁sap	-11.3933
▁yawa	-11.3937
▁IT	-11.3946
▁Sem	-11.3947
▁VI	-11.3953
▁lid	-11.3957
▁riku	-11.396
▁iket	-11.3966
▁rikan	-11.397
ARU	-11.3983
▁awar	-11.4002
▁ged	-11.401
▁gin	-11.4015
aham	-11.4022
▁mm	-11.403
▁yana	-11.4032
▁Um	-11.4039
▁War	-11.4056
▁mut	-11.4057
▁lep	-11.4057
▁off	-11.4062
▁jab	-11.4069
▁ecil	-11.4073
▁ikon	-11.4077
▁own	-11.4079
▁mudi	-11.4096
▁BSI	-11.4103
▁nteg	-11.4118
▁usu	-11.4125
▁ptim	-11.4128
▁ego	-11.4129
AS	-11.4129
DC	-11.416
▁hut	-11.418
▁iya	-11.4184
▁lip	-11.4185
▁elaj	-11.4186
▁ndasi	-11.4193
KI	-11.4194
▁aza	-11.4198
WF	-11.4216
▁als	-11.4217
▁dek	-11.4222
▁onta	-11.4224
▁rli	-11.4234
▁saan	-11.424
▁sia	-11.4269
yo	-11.4299
NI	-11.4299
▁rua	-11.4307
▁AA	-11.4311
tim	-11.4313
▁engu	-11.4318
▁PHPU	-11.432
▁ukt	-11.4323
▁Yoon	-11.4323
▁PMK	-11.4329
▁erj	-11.433
▁Jat	-11.4343
▁jawa	-11.4344
▁BNI	-11.4347
▁ova	-11.435
▁MS	-11.435
SM	-11.436
▁upp	-11.4361
▁BPS	-11.439
▁eti	-11.4397
▁iara	-11.4398
▁ktif	-11.4399
▁uty	-11.4409
th	-11.4409
▁rbo	-11.4421
▁Us	-11.4439
lola	-11.4459
▁ntin	-11.446
▁iner	-11.4462
▁STY	-11.4467
PN	-11.4469
▁ecu	-11.4472
▁Wal	-11.4479
▁ovi	-11.4496
UG	-11.4503
▁tron	-11.4505
▁okoh	-11.4552
▁uil	-11.4555
yb	-11.4596
▁ntor	-11.4601
▁annur	-11.4603
▁erhe	-11.4603
▁skal	-11.4606
▁usli	-11.4608
▁tasan	-11.4612
▁blo	-11.4613
▁sul	-11.463
▁sidan	-11.464
▁atak	-11.4646
▁uren	-11.4649
▁37	-11.4664
▁zu	-11.4667
▁sian	-11.4667
▁mimpi	-11.467
▁kutan	-11.4679
wan	-11.4704
▁RA	-11.4706
▁Eka	-11.4707
▁emon	-11.4707
za	-11.471
▁jad	-11.4712
▁gori	-11.4715
▁usk	-11.4724
▁teh	-11.4734
▁DPT	-11.4735
▁kw	-11.4735
▁Apri	-11.4739
▁endal	-11.4743
▁Run	-11.4744
40	-11.4745
▁ipu	-11.4775
▁inus	-11.4777
▁pent	-11.478
▁KLHK	-11.4813
▁OPD	-11.4815
▁nhu	-11.4816
▁bagu	-11.4856
▁Suk	-11.4863
▁tc	-11.4868
▁erum	-11.4892
om	-11.4892
▁watan	-11.4912
▁rob	-11.4948
▁rau	-11.4951
▁ukup	-11.4953
▁ski	-11.4965
▁APK	-11.498
▁onn	-11.4997
▁uet	-11.4999
"	-11.5
lip	-11.5009
▁abup	-11.5009
irl	-11.5012
▁emam	-11.5022
▁esk	-11.5023
▁usn	-11.5034
▁etno	-11.5035
NPB	-11.5039
▁pin	-11.5039
▁IDF	-11.504
▁lb	-11.504
▁room	-11.5043
▁IN	-11.5043
▁appy	-11.5043
▁rant	-11.5044
▁ista	-11.5044
▁gna	-11.5062
▁ote	-11.5077
▁ART	-11.5094
▁Peru	-11.5102
▁ungk	-11.5104
▁anca	-11.5106
▁SM	-11.5173
▁usim	-11.518
▁etan	-11.5181
▁show	-11.5181
▁znas	-11.5195
2,	-11.5202
30	-11.5208
▁ulat	-11.5223
▁kun	-11.5224
▁ebol	-11.5237
ev	-11.5242
▁juar	-11.5247
VP	-11.5251
tur	-11.5266
▁ihad	-11.5267
▁iron	-11.527
▁erlin	-11.5279
▁iku	-11.5282
▁udit	-11.5294
▁Tek	-11.5304
▁agal	-11.5305
▁gala	-11.5306
▁nior	-11.5318
▁GT	-11.5321
▁IX	-11.5327
anto	-11.5329
▁MoU	-11.5332
▁egr	-11.5334
▁KK	-11.5335
▁angs	-11.5337
▁cep	-11.5341
▁igas	-11.5352
▁ston	-11.5362
▁oes	-11.5367
▁onte	-11.5378
▁enah	-11.538
▁lakan	-11.5386
▁poli	-11.5394
▁alla	-11.5401
▁qua	-11.5404
▁ayung	-11.542
▁epu	-11.5432
▁nde	-11.5433
▁pad	-11.5433
▁naw	-11.5434
▁hono	-11.5473
▁gai	-11.5474
▁won	-11.5476
▁ehi	-11.5479
▁rato	-11.5499
▁emula	-11.5501
▁ubli	-11.5515
▁hre	-11.5524
▁SP	-11.5541
▁ines	-11.5546
▁kst	-11.5555
▁eme	-11.5561
▁BUMD	-11.5563
jo	-11.5581
▁ntun	-11.5596
▁tus	-11.5612
▁izal	-11.5614
ny	-11.5615
▁kawa	-11.5634
▁COVID	-11.5641
▁uheni	-11.5641
▁39	-11.5645
▁INDO	-11.5647
▁gus	-11.5649
▁ves	-11.565
▁dili	-11.5659
▁amad	-11.5673
▁ofi	-11.5689
▁UKM	-11.5706
▁amo	-11.5715
▁BAN	-11.5719
▁lif	-11.5721
▁ilu	-11.5736
▁Wil	-11.5744
▁gita	-11.5753
▁nisi	-11.5757
▁erin	-11.5777
▁Menu	-11.5783
▁shi	-11.5785
PT	-11.5785
▁ool	-11.5792
▁kspor	-11.5799
▁azia	-11.5807
▁uko	-11.5807
▁gem	-11.5812
▁eting	-11.5819
:	-11.5821
▁elin	-11.5826
▁lel	-11.5831
▁his	-11.5832
▁IND	-11.5832
▁lika	-11.5838
▁apt	-11.5839
▁IP	-11.5846
▁uron	-11.5866
▁raka	-11.5877
▁CS	-11.5884
▁ija	-11.5895
▁XI	-11.5913
▁Mc	-11.593
▁fia	-11.593
▁opot	-11.5933
▁elap	-11.5933
▁nsy	-11.5949
▁Mart	-11.5973
▁LBH	-11.5979
▁ATR	-11.5985
▁gawa	-11.599
▁pda	-11.6018
,8	-11.6019
▁cle	-11.6022
▁kno	-11.6026
▁lusu	-11.6027
▁andat	-11.6029
▁stan	-11.6042
▁web	-11.6047
▁side	-11.6059
▁Sam	-11.6071
▁Ban	-11.609
CA	-11.6099
▁88	-11.6105
▁ival	-11.6106
▁opul	-11.6109
TPN	-11.6115
▁toh	-11.6116
▁AT	-11.6125
▁TPPO	-11.6125
▁rauke	-11.6127
▁naf	-11.6127
▁LSI	-11.613
▁etis	-11.613
▁idak	-11.6138
▁fin	-11.614
▁aso	-11.6145
▁aras	-11.6145
▁uis	-11.6174
▁SH	-11.6201
IA	-11.6203
POM	-11.6215
▁wata	-11.622
▁arki	-11.6241
▁fis	-11.6263
▁TP	-11.6268
▁rar	-11.6269
▁Pant	-11.6279
▁acun	-11.6281
;	-11.6284
q	-11.6287
▁gum	-11.6296
▁vat	-11.6297
▁arg	-11.6297
▁65	-11.6303
▁aten	-11.631
▁2,5	-11.631
▁gn	-11.631
▁egia	-11.6311
▁Seni	-11.6323
▁kses	-11.6333
▁uncu	-11.6341
▁ngus	-11.6355
▁dra	-11.636
▁44	-11.637
▁kidul	-11.6373
SC	-11.6379
▁mai	-11.6384
appe	-11.6385
▁PAD	-11.6389
▁fere	-11.6394
▁iss	-11.6397
▁FK	-11.6415
▁MU	-11.6426
▁LP	-11.6432
▁dw	-11.6435
▁uaya	-11.6437
▁encer	-11.6438
awab	-11.6438
oh	-11.644
▁ngl	-11.644
▁ith	-11.647
▁ism	-11.6483
▁sme	-11.6501
▁Cen	-11.6509
▁iki	-11.6525
▁rso	-11.6526
▁rj	-11.6528
▁hun	-11.6532
▁irma	-11.6532
▁eas	-11.6539
BH	-11.6542
▁OPM	-11.6544
▁One	-11.6547
▁olt	-11.6553
▁IK	-11.6558
▁NI	-11.6562
▁48	-11.6563
▁imu	-11.6564
▁eror	-11.6574
ATAN	-11.6586
▁kos	-11.6592
▁rsip	-11.6595
▁Max	-11.6598
▁kura	-11.6603
▁Rum	-11.661
▁bia	-11.6619
▁FGD	-11.6632
▁iw	-11.6655
▁hay	-11.6659
▁asl	-11.6661
▁ze	-11.6685
▁rita	-11.6686
▁itme	-11.6687
1,	-11.6695
▁tep	-11.6695
▁DJ	-11.6699
▁MP	-11.6707
IND	-11.6712
▁lemb	-11.6721
▁iva	-11.6722
▁WBP	-11.6723
▁Mic	-11.6731
▁udd	-11.6752
▁nyer	-11.6765
▁fat	-11.6768
▁els	-11.6775
▁irda	-11.6779
▁UP	-11.6798
▁cel	-11.6822
RA	-11.6826
▁Setia	-11.6828
▁AH	-11.683
▁nani	-11.6839
▁ign	-11.6851
▁ICC	-11.6861
▁riti	-11.6868
▁uar	-11.6869
▁auan	-11.6873
▁loud	-11.6893
▁ST	-11.6897
▁DBD	-11.6899
▁emuka	-11.69
▁riya	-11.6912
▁ABU	-11.6916
▁42	-11.6917
▁awai	-11.6921
AMP	-11.6924
▁tto	-11.6931
▁nca	-11.6933
▁atr	-11.6937
▁orn	-11.696
▁Ib	-11.6973
▁UE	-11.6987
▁etty	-11.6987
▁TPN	-11.7002
for	-11.7016
▁sai	-11.7035
▁ulit	-11.7037
▁stian	-11.7062
▁DM	-11.7078
▁enuh	-11.7083
▁eet	-11.7085
▁rse	-11.7086
baru	-11.7098
▁bino	-11.7113
▁ikma	-11.7127
▁Ram	-11.7131
▁ngs	-11.7132
▁rug	-11.7138
▁nje	-11.7163
▁Out	-11.7168
▁ogra	-11.7171
▁nne	-11.7187
CC	-11.7201
ion	-11.7201
KA	-11.7201
▁sig	-11.7203
▁uad	-11.7203
▁mera	-11.7205
▁dent	-11.7209
▁ete	-11.724
SF	-11.7244
▁gand	-11.7251
▁Os	-11.7254
▁tali	-11.726
▁oot	-11.7268
TA	-11.7272
▁UMK	-11.7277
▁rok	-11.7283
▁ITS	-11.7294
▁41	-11.7298
▁uny	-11.7309
WK	-11.731
▁Jen	-11.734
▁enz	-11.7342
▁ATM	-11.7347
▁ndir	-11.7355
▁lint	-11.7362
▁itel	-11.7366
▁ooth	-11.7367
▁OTT	-11.737
▁rih	-11.7375
▁PSU	-11.7377
▁inja	-11.7385
UR	-11.7391
amat	-11.7392
▁atri	-11.7399
▁aliho	-11.7401
▁engo	-11.7405
▁jajar	-11.741
▁nna	-11.7414
▁ARA	-11.7428
▁KDRT	-11.744
▁dzes	-11.7441
▁ubi	-11.7443
▁auf	-11.746
▁BIN	-11.7469
▁amis	-11.7471
▁resh	-11.7472
do	-11.7478
80	-11.7479
▁jus	-11.7485
▁aur	-11.7486
PI	-11.749
umb	-11.7493
▁ajan	-11.7493
▁nio	-11.7494
▁yud	-11.7496
▁arif	-11.7498
▁njar	-11.7509
▁digi	-11.7521
▁niv	-11.7531
▁tl	-11.7539
▁58	-11.7577
25	-11.7579
▁DK	-11.7582
▁umba	-11.7582
▁lle	-11.7583
ram	-11.7587
▁fun	-11.7594
▁smin	-11.7596
▁lami	-11.7602
▁ayana	-11.7609
▁peed	-11.7618
▁BB	-11.7628
▁heck	-11.7632
▁elc	-11.7632
16	-11.7637
▁fir	-11.7637
▁buran	-11.7639
▁eju	-11.7651
TP	-11.7669
▁yid	-11.7687
▁ansen	-11.7688
▁PKK	-11.7688
▁BWF	-11.769
▁ece	-11.7706
▁ASA	-11.7707
▁alika	-11.7715
▁dunia	-11.7727
▁esla	-11.773
▁ANS	-11.7738
▁ella	-11.7739
och	-11.7747
zul	-11.7758
▁gini	-11.7769
▁eel	-11.7774
▁nso	-11.7776
▁Spa	-11.7782
▁Ace	-11.7785
WT	-11.7786
▁low	-11.7792
▁slo	-11.7801
▁arn	-11.7808
▁ntel	-11.7831
▁TPPU	-11.7831
▁mud	-11.7837
▁Seo	-11.7863
RL	-11.7869
▁dja	-11.7873
▁BRIN	-11.7878
▁Kon	-11.7901
▁tf	-11.7904
▁enan	-11.7909
▁aspen	-11.7923
bar	-11.7929
ja	-11.7931
SS	-11.7933
▁bit	-11.7936
olo	-11.7947
▁alak	-11.7953
▁Cap	-11.7954
▁masin	-11.7959
▁pant	-11.7961
pas	-11.7972
▁rapi	-11.7976
▁kluk	-11.7976
▁Kat	-11.7978
▁yun	-11.7999
▁tawa	-11.8001
▁TPI	-11.8013
▁IKA	-11.8013
de	-11.8022
▁oid	-11.8026
▁iram	-11.8032
▁pop	-11.8041
▁mpor	-11.8047
▁PGRI	-11.8054
▁TC	-11.8055
▁gap	-11.8068
▁sina	-11.807
-3	-11.8072
▁goya	-11.8077
▁nari	-11.8078
▁lfi	-11.8082
▁way	-11.8085
15	-11.8113
▁Ara	-11.8121
▁nsa	-11.8121
▁orm	-11.8123
▁BPIP	-11.8128
DI	-11.8133
▁enna	-11.8143
▁gl	-11.8147
▁nie	-11.8152
▁47	-11.8157
▁6,	-11.8173
▁ICE	-11.8177
▁usa	-11.818
▁CO	-11.8196
▁rde	-11.8197
can	-11.8203
▁Sin	-11.8212
▁VII	-11.8224
▁limut	-11.8232
▁lom	-11.8235
rfum	-11.8237
▁KS	-11.8243
▁arsa	-11.8247
▁ste	-11.8253
▁MM	-11.8254
▁rag	-11.8259
usat	-11.8275
alin	-11.8278
▁uja	-11.8279
▁PDB	-11.8281
▁PD	-11.8285
JO	-11.8293
▁SUK	-11.8313
▁7,	-11.8316
▁anny	-11.8318
▁LHKPN	-11.8323
▁TPNPB	-11.8323
▁SBY	-11.8325
US	-11.8325
▁UKT	-11.8328
▁itik	-11.8335
▁ope	-11.8338
▁tup	-11.8353
19	-11.8354
▁wat	-11.836
▁nul	-11.8371
▁unta	-11.8372
▁cas	-11.8381
▁eso	-11.8381
▁ege	-11.8389
▁dat	-11.8392
▁loc	-11.8393
PR	-11.8415
▁bent	-11.8422
▁ncan	-11.8426
▁PBSI	-11.8426
▁gari	-11.843
one	-11.8432
MA	-11.8436
▁neur	-11.8447
▁isang	-11.8448
▁adia	-11.8466
▁TKD	-11.8468
▁arr	-11.8468
▁shim	-11.8471
▁Ev	-11.8476
▁uit	-11.849
▁ehan	-11.851
▁TN	-11.8513
▁lanc	-11.8524
▁Ant	-11.853
▁Jem	-11.8532
▁upi	-11.8532
▁UIN	-11.8537
HI	-11.8538
▁laka	-11.8548
▁ABK	-11.8558
▁ico	-11.8567
▁MR	-11.8578
ron	-11.858
▁iant	-11.8581
▁43	-11.8581
▁51	-11.8626
▁Gas	-11.8637
▁enew	-11.8643
▁tho	-11.8644
▁PPA	-11.8645
ode	-11.8651
▁nge	-11.8656
▁klam	-11.8657
▁ansus	-11.8661
▁emari	-11.8671
▁date	-11.8698
EC	-11.8713
▁ibya	-11.8719
▁orth	-11.8722
10	-11.874
▁ross	-11.8742
▁GM	-11.875
aga	-11.8751
▁imda	-11.876
▁nisa	-11.8769
ov	-11.8774
▁elp	-11.8784
▁eir	-11.8819
▁buan	-11.8856
mas	-11.8858
MII	-11.8862
▁pim	-11.8877
▁dli	-11.8886
▁oly	-11.8891
bin	-11.8896
▁kra	-11.8902
▁ON	-11.8928
▁AU	-11.8933
▁esen	-11.8944
▁ertu	-11.8949
las	-11.8956
▁Pur	-11.8958
▁nin	-11.8958
▁foli	-11.896
▁erte	-11.8961
▁fu	-11.8967
▁imul	-11.8968
▁sege	-11.8976
▁roo	-11.8978
MW	-11.8979
▁MH	-11.8981
▁polis	-11.8981
▁spe	-11.8989
▁1-0	-11.8998
▁nomo	-11.901
▁Sub	-11.9014
▁EA	-11.9027
ley	-11.9034
▁PLT	-11.9036
▁nem	-11.904
▁jaja	-11.9051
▁elt	-11.9057
▁umin	-11.9067
▁LPSK	-11.907
▁jem	-11.9091
▁PS	-11.9093
▁dibe	-11.9097
▁mpe	-11.9107
▁usus	-11.9121
go	-11.9136
▁98	-11.9138
▁iso	-11.9139
▁alil	-11.9144
▁park	-11.9157
▁olan	-11.9165
▁alai	-11.9169
▁wet	-11.9179
▁QRIS	-11.918
▁ddin	-11.9193
▁oge	-11.9198
▁UMP	-11.92
ty	-11.9209
▁56	-11.9222
▁Okt	-11.9223
▁MED	-11.9223
▁roto	-11.9233
▁atsu	-11.9239
▁mpuh	-11.9245
CR	-11.925
▁engat	-11.9251
▁das	-11.9255
Q	-11.9263
▁Mil	-11.9265
MKN	-11.9265
ca	-11.9269
▁olina	-11.9275
▁CV	-11.9281
▁IB	-11.9285
▁IR	-11.9287
AI	-11.9289
▁rub	-11.9292
▁BNPT	-11.9292
▁PPDS	-11.9292
UL	-11.9299
BS	-11.9303
▁rick	-11.9307
▁ble	-11.9308
▁HIV	-11.9311
▁lank	-11.9313
▁ksp	-11.9326
2)	-11.9331
▁wen	-11.9332
▁HP	-11.9338
3,	-11.9343
▁rgi	-11.936
▁52	-11.9366
ox	-11.9368
EP	-11.9372
▁onet	-11.9373
▁eil	-11.9376
▁nji	-11.9383
▁lec	-11.9386
▁cher	-11.9387
▁ges	-11.9394
▁ude	-11.9401
ham	-11.9405
▁XII	-11.9409
▁owa	-11.941
▁KB	-11.9421
▁apu	-11.9423
▁JCC	-11.9429
▁gun	-11.9431
ix	-11.9447
▁sib	-11.945
▁KU	-11.9455
▁bor	-11.9455
▁yed	-11.9468
▁huma	-11.947
ble	-11.9473
▁njat	-11.9485
▁ivis	-11.9499
▁empe	-11.9504
▁NKRI	-11.952
Ph	-11.9521
▁ahl	-11.9522
▁Yoyo	-11.9523
FP	-11.9528
AA	-11.9537
▁Sep	-11.9548
▁loo	-11.956
▁niai	-11.9586
▁ays	-11.9607
▁kto	-11.9613
▁Ow	-11.9616
nel	-11.9631
▁riot	-11.9637
▁ness	-11.9637
▁onf	-11.9645
▁URA	-11.9649
▁95	-11.966
▁yari	-11.9662
BP	-11.9663
▁tuhan	-11.9665
▁icke	-11.9667
OP	-11.9675
ER	-11.9675
▁gela	-11.9683
▁shar	-11.97
▁sukan	-11.9709
▁lani	-11.971
▁53	-11.9714
▁JK	-11.9717
▁emu	-11.9734
MF	-11.9744
▁Ahm	-11.9769
bol	-11.9773
▁egit	-11.9794
▁upu	-11.9813
▁agan	-11.9813
▁pag	-11.9814
▁iati	-11.9815
▁cm	-11.9817
▁nore	-11.9819
▁tthe	-11.9823
▁inn	-11.9824
kes	-11.9844
▁IIA	-11.9855
▁var	-11.9856
▁wee	-11.9866
▁AN	-11.987
▁aylor	-11.9873
▁ory	-11.988
▁ebani	-11.9885
▁BD	-11.9891
▁3-0	-11.9893
▁orma	-11.9893
▁hom	-11.9894
▁urkan	-11.991
TC	-11.9934
▁asah	-11.9947
▁uno	-11.995
BRI	-11.9951
▁nih	-11.9966
▁impo	-11.999
▁smat	-11.9999
▁ihak	-12.0003
▁esona	-12.001
▁viv	-12.0012
▁jok	-12.0026
AH	-12.0026
▁rdan	-12.0027
▁egu	-12.0031
▁smaw	-12.004
▁nic	-12.0045
ED	-12.0065
▁ndes	-12.0077
▁tuh	-12.0084
▁Roy	-12.0085
▁Say	-12.009
okh	-12.0096
▁boat	-12.0104
▁ITE	-12.0107
▁uinea	-12.0117
▁yro	-12.0128
▁insar	-12.0131
▁roen	-12.0135
▁mid	-12.014
▁ebr	-12.0143
RE	-12.016
▁wira	-12.0167
▁hoa	-12.0169
EV	-12.0169
▁hant	-12.0173
▁bran	-12.0175
▁taka	-12.0177
▁irt	-12.0182
▁sau	-12.0216
▁harg	-12.0217
▁erag	-12.0228
▁huj	-12.0236
▁http	-12.024
▁DE	-12.024
▁airud	-12.0243
▁BPKP	-12.0244
▁garan	-12.0246
▁olak	-12.0264
▁MG	-12.0275
▁abila	-12.0277
▁46	-12.0301
▁SKB	-12.0302
▁EKAS	-12.0304
▁eres	-12.0305
▁BC	-12.0307
▁irl	-12.0318
Z	-12.0321
▁Yos	-12.033
RAM	-12.033
▁isen	-12.0331
▁undu	-12.0332
ff	-12.0337
▁Kur	-12.0342
PO	-12.0344
▁ARAT	-12.0347
▁lean	-12.0358
▁ASPEN	-12.0364
▁mzah	-12.0365
▁gue	-12.037
-4	-12.037
▁wait	-12.0373
ret	-12.0397
UN	-12.0408
▁ook	-12.0412
▁perin	-12.0412
▁mpar	-12.0414
ARA	-12.0418
▁76	-12.0424
▁ncol	-12.043
▁RSUP	-12.0433
▁mete	-12.0433
▁SA	-12.0437
▁arel	-12.0449
▁gy	-12.046
▁imun	-12.0465
▁ejo	-12.0466
BC	-12.0466
▁63	-12.0468
▁ES	-12.0472
▁agr	-12.0477
▁zon	-12.0479
▁OD	-12.048
▁Peme	-12.048
ET	-12.0487
ALI	-12.0491
▁yad	-12.0491
▁rati	-12.0492
odo	-12.0497
▁tega	-12.0497
PPD	-12.051
▁GBT	-12.0513
▁ther	-12.0517
▁nsar	-12.0517
CI	-12.052
▁erge	-12.0522
▁gre	-12.0537
TF	-12.0546
▁ICJ	-12.0551
bel	-12.0565
▁PO	-12.0584
▁tura	-12.0586
é	-12.0588
▁renc	-12.059
▁aup	-12.0603
▁enn	-12.0606
▁mulyo	-12.062
▁SKD	-12.0622
▁astr	-12.0622
▁GBK	-12.0627
▁TPA	-12.0627
▁afet	-12.0629
▁lanet	-12.0631
▁irto	-12.0634
▁Ul	-12.0646
▁burg	-12.0647
▁ihan	-12.0649
▁64	-12.0653
AK	-12.0657
▁ava	-12.0662
J	-12.0663
▁aby	-12.0683
▁54	-12.0688
▁SU	-12.0699
▁hw	-12.0709
▁ubur	-12.0721
▁spon	-12.0743
▁usak	-12.0746
▁Dina	-12.075
▁anusi	-12.0754
▁budur	-12.0756
▁izi	-12.0758
▁mpany	-12.076
SA	-12.0766
▁Uno	-12.079
▁upan	-12.0792
▁hot	-12.0795
▁ABC	-12.0798
▁back	-12.0812
HS	-12.0816
▁sudi	-12.0822
▁bos	-12.0838
lan	-12.0845
▁57	-12.0846
▁gate	-12.0856
▁dc	-12.0856
▁ware	-12.0858
▁mith	-12.0867
▁ikm	-12.0875
▁epal	-12.0878
▁rosot	-12.0881
▁bri	-12.0884
▁kedu	-12.0888
▁MAT	-12.0889
▁rdhi	-12.089
▁LHK	-12.089
KB	-12.0892
▁ette	-12.0899
▁kebu	-12.0901
▁huf	-12.0903
▁utut	-12.0906
▁IPB	-12.0912
▁rko	-12.0917
▁sinya	-12.0917
▁ibawa	-12.092
▁ayc	-12.0927
▁mund	-12.0933
▁eron	-12.0949
▁Oli	-12.0957
▁gua	-12.0959
▁nual	-12.0961
▁RM	-12.0962
▁isik	-12.0974
▁eon	-12.0977
▁aly	-12.0996
Y	-12.0999
▁rju	-12.1018
▁elih	-12.1021
▁isma	-12.1024
MT	-12.1025
▁tami	-12.1026
EON	-12.1044
▁ABRI	-12.1061
▁rina	-12.1061
▁ube	-12.107
▁taz	-12.1074
▁61	-12.1076
▁IDI	-12.1079
▁sra	-12.1081
▁rend	-12.1086
▁itam	-12.1115
alam	-12.1115
▁rime	-12.1117
▁kip	-12.1125
▁ndal	-12.1131
▁erit	-12.1131
▁haj	-12.1132
▁99	-12.1144
▁fas	-12.1148
▁OECD	-12.1149
zi	-12.1156
▁TPP	-12.1168
▁datu	-12.1191
▁NN	-12.1202
▁omi	-12.1205
RS	-12.1206
8,	-12.1206
FI	-12.1216
▁emuk	-12.1226
▁PPS	-12.1251
▁elia	-12.1279
▁rg	-12.1282
▁shida	-12.1287
▁VIII	-12.1288
▁aft	-12.1289
▁ndia	-12.1292
▁PTUN	-12.1293
▁IH	-12.1295
▁udol	-12.1297
▁IPMI	-12.1301
▁fr	-12.1307
▁IA	-12.1318
▁saki	-12.1323
▁rown	-12.1327
NC	-12.133
▁cil	-12.134
▁row	-12.1345
▁FH	-12.1345
tip	-12.1347
AP	-12.1351
▁luan	-12.1361
ex	-12.1366
▁ekti	-12.1373
▁ees	-12.138
▁olok	-12.1383
tz	-12.1394
▁ensin	-12.1412
▁oat	-12.143
▁ufm	-12.1433
▁HM	-12.144
▁gja	-12.1442
▁SDGs	-12.1443
▁Koru	-12.1445
▁DNA	-12.1447
▁TB	-12.147
▁app	-12.1476
▁less	-12.1485
▁Ud	-12.1486
▁MAK	-12.1495
▁loy	-12.1497
▁jon	-12.1497
bab	-12.1499
▁72	-12.1502
PL	-12.1508
TV	-12.1509
▁XVII	-12.151
lin	-12.1525
EB	-12.1528
▁oss	-12.1543
.0	-12.1547
▁AYA	-12.1549
AB	-12.1551
▁Aj	-12.1552
ID	-12.1576
▁sumo	-12.1582
▁Tahu	-12.159
▁yata	-12.1595
▁PIK	-12.16
OS	-12.1601
▁gro	-12.1602
AL	-12.1602
▁janto	-12.1603
rby	-12.1604
rey	-12.1607
▁BT	-12.1619
▁Doa	-12.162
TI	-12.1622
▁big	-12.1622
TAM	-12.1627
▁bih	-12.1631
▁Gro	-12.1647
▁Gy	-12.1651
▁ourt	-12.1659
▁nil	-12.1664
▁nsya	-12.1678
▁nf	-12.1684
▁IIB	-12.1688
-0	-12.1694
▁enni	-12.1696
▁rmu	-12.1699
OL	-12.1701
▁FP	-12.1725
▁rke	-12.1726
▁using	-12.1735
RC	-12.1735
▁sala	-12.1736
▁lab	-12.1738
▁XXII	-12.1747
▁ngke	-12.1747
▁aud	-12.175
▁nika	-12.1756
DS	-12.1762
▁olly	-12.1765
mul	-12.1772
▁obl	-12.1774
▁abel	-12.1822
PTD	-12.1824
PAN	-12.1827
▁BPD	-12.1838
▁AB	-12.1841
▁don	-12.1843
▁BPA	-12.1854
▁imana	-12.1857
▁elsea	-12.1861
▁udal	-12.1873
▁ordi	-12.1874
▁reda	-12.1877
▁Leo	-12.1886
▁NA	-12.1903
▁mdan	-12.191
▁hua	-12.1918
▁ox	-12.1921
oro	-12.1926
▁embut	-12.1934
▁elly	-12.1945
▁Kun	-12.1969
▁EM	-12.1971
arga	-12.1974
▁62	-12.1975
▁alem	-12.199
11	-12.199
▁board	-12.2001
▁eren	-12.2001
▁amit	-12.2005
▁olk	-12.2006
▁ipr	-12.2008
▁HTS	-12.2012
▁alax	-12.2016
▁Zoo	-12.202
▁68	-12.2022
▁yuk	-12.2023
▁BTS	-12.203
▁igu	-12.204
▁akaf	-12.2046
ech	-12.2049
▁UM	-12.205
▁SL	-12.2075
▁rame	-12.2081
ARI	-12.2082
5%	-12.2091
▁stol	-12.2098
▁KRI	-12.2098
MAK	-12.2111
▁SEA	-12.2139
PS	-12.2143
▁UEFA	-12.215
▁49	-12.215
▁eck	-12.2164
▁KPAI	-12.2164
▁78	-12.2186
SAR	-12.2189
▁UPT	-12.2194
▁oru	-12.2207
▁dimu	-12.2232
▁HR	-12.2236
ney	-12.2259
▁fon	-12.2269
awa	-12.2281
AM	-12.2284
?	-12.2297
▁ydney	-12.2301
▁yom	-12.2301
▁nud	-12.2311
vel	-12.2319
▁iduk	-12.233
BN	-12.2331
▁COP	-12.2349
▁oup	-12.2353
▁DR	-12.2358
▁66	-12.236
38	-12.2364
CK	-12.2365
kel	-12.2366
▁erli	-12.2368
37	-12.2372
▁PAS	-12.2374
OC	-12.2375
▁riss	-12.2382
▁stay	-12.2384
▁bita	-12.2386
▁ngsu	-12.2398
▁alo	-12.2399
MC	-12.24
unt	-12.2405
▁oos	-12.2415
umsi	-12.2419
▁laks	-12.2419
▁gana	-12.2443
▁ops	-12.2445
Ya	-12.2449
/	-12.245
▁SR	-12.2451
▁uq	-12.2458
OM	-12.2465
▁iyan	-12.2466
▁aeda	-12.2473
hum	-12.2474
▁ubl	-12.2481
▁iung	-12.2486
AD	-12.2497
▁IG	-12.2497
▁rce	-12.2503
21	-12.2509
▁bama	-12.2513
▁SI	-12.2528
▁8,	-12.2538
▁SOP	-12.2543
▁aje	-12.2547
EN	-12.2548
oto	-12.2556
AX	-12.2585
▁tana	-12.2598
▁*	-12.2611
▁chain	-12.2616
▁PAUD	-12.2616
▁yek	-12.2617
RIS	-12.2621
▁UNH	-12.2626
ES	-12.2633
▁JI	-12.2639
▁ept	-12.2652
▁PSG	-12.2659
▁BS	-12.266
▁sert	-12.2665
▁Bos	-12.2671
▁ebes	-12.2677
▁wara	-12.2679
▁akir	-12.2685
▁UN	-12.269
▁mann	-12.2695
▁85	-12.2709
▁rawa	-12.2715
▁apuk	-12.2719
▁gih	-12.2726
▁YAP	-12.2731
▁keja	-12.2734
▁PDT	-12.2737
▁GB	-12.2737
▁tent	-12.2753
▁rwan	-12.2756
▁cean	-12.276
ac	-12.2774
▁rien	-12.2774
-7	-12.2778
▁lipat	-12.2785
▁lust	-12.2792
▁MT	-12.2793
51	-12.2794
▁SS	-12.2797
▁TMS	-12.2798
▁kular	-12.2804
▁OK	-12.2805
▁ettu	-12.2806
▁eger	-12.2807
▁new	-12.2814
▁tig	-12.2816
90	-12.2818
▁yoy	-12.2819
▁lob	-12.2824
▁mbi	-12.283
▁elvi	-12.2831
▁oth	-12.2831
▁zan	-12.2835
▁ALIK	-12.2837
▁ezat	-12.2848
▁embo	-12.2854
▁imba	-12.2854
34	-12.2861
▁eep	-12.2862
▁iny	-12.2867
den	-12.2869
▁ural	-12.2876
▁Oil	-12.2878
▁gne	-12.2882
▁ilg	-12.2892
▁lte	-12.2892
▁elv	-12.2899
▁pia	-12.2912
▁apua	-12.2921
EF	-12.2922
▁iks	-12.2923
▁SPK	-12.2929
▁AF	-12.2932
▁yor	-12.2943
▁...	-12.2944
▁esm	-12.2945
▁ompe	-12.2955
▁arid	-12.2968
HP	-12.2974
▁lman	-12.2977
▁rof	-12.2988
▁suar	-12.299
▁KIP	-12.2999
▁DAS	-12.3001
▁110	-12.3011
me	-12.3013
▁isman	-12.3014
SO	-12.3017
▁Cal	-12.3018
▁osta	-12.3019
▁Tua	-12.3033
▁iod	-12.3046
▁TPU	-12.3047
▁lara	-12.3052
▁59	-12.3055
▁ild	-12.3059
▁ille	-12.3059
EI	-12.3076
own	-12.3077
MS	-12.3079
▁ily	-12.3088
+	-12.3091
▁GBLA	-12.3095
▁PDAM	-12.3095
LM	-12.3098
▁mban	-12.3098
▁TAN	-12.3099
▁rod	-12.31
▁3-1	-12.3105
▁AW	-12.3106
▁leb	-12.3113
▁osip	-12.3115
▁EP	-12.3119
SAL	-12.3138
▁smit	-12.3141
▁gnes	-12.315
▁opa	-12.3153
▁abri	-12.3163
▁mbau	-12.3167
▁gner	-12.3197
▁JIE	-12.3203
▁bru	-12.3209
▁TAR	-12.3214
▁Ulu	-12.3215
▁onas	-12.3222
▁risa	-12.3225
CP	-12.3228
▁olon	-12.3234
▁Law	-12.3246
▁VR	-12.3248
▁Yeo	-12.3249
▁gani	-12.3253
GM	-12.3254
▁KNPI	-12.3262
▁OKU	-12.3264
▁abun	-12.3266
▁UEA	-12.327
▁fw	-12.3277
▁ugia	-12.3278
▁KP	-12.3294
▁alti	-12.3298
▁esid	-12.3301
▁uram	-12.3305
▁112	-12.3306
ow	-12.3318
▁dhi	-12.3324
KPD	-12.3329
BG	-12.3331
SAD	-12.3338
▁nav	-12.334
ce	-12.3347
▁Sol	-12.3348
▁lame	-12.335
▁uppl	-12.335
▁bant	-12.3358
▁BKI	-12.3363
▁itt	-12.3371
▁MAN	-12.3376
uli	-12.34
▁lawi	-12.3404
▁kma	-12.3405
▁thy	-12.3405
▁67	-12.3414
▁karsa	-12.342
▁irk	-12.3438
▁wari	-12.3438
▁rmas	-12.3441
KC	-12.3442
65	-12.3448
▁irah	-12.3449
hot	-12.3455
▁esli	-12.3457
▁mbel	-12.3458
SK	-12.3463
▁ikh	-12.3472
▁73	-12.3473
dan	-12.3482
ST	-12.3483
24	-12.3488
PSI	-12.3495
▁Ketu	-12.3497
▁HMI	-12.3499
nom	-12.3505
▁lew	-12.3506
14	-12.3508
▁rch	-12.3509
▁AKA	-12.3515
▁utup	-12.3531
▁UNS	-12.3534
▁epas	-12.3534
SI	-12.3536
05	-12.3547
CO	-12.3564
▁cur	-12.3569
▁350	-12.358
▁81	-12.3581
CH	-12.3584
KSI	-12.3584
FA	-12.3585
lon	-12.3597
RO	-12.3607
▁lya	-12.3608
▁DLH	-12.3613
RES	-12.3614
▁ASI	-12.3617
▁ofia	-12.3622
▁akul	-12.3625
DA	-12.3627
▁uisi	-12.3632
▁ANT	-12.3635
GI	-12.3638
IKA	-12.3641
mbul	-12.3646
▁orte	-12.365
▁71	-12.3654
nez	-12.3665
BA	-12.3667
▁lj	-12.3671
▁ady	-12.3677
WA	-12.3684
▁mbe	-12.3694
▁esse	-12.3698
PKR	-12.37
HN	-12.3713
▁PH	-12.3715
▁NG	-12.3715
▁fina	-12.3717
▁kram	-12.3717
▁itte	-12.3718
II	-12.373
▁isum	-12.3753
99	-12.3753
▁lopp	-12.378
▁dona	-12.3785
▁stika	-12.3788
▁69	-12.3789
▁tamin	-12.3793
▁TR	-12.3794
▁zho	-12.3797
▁och	-12.3803
▁MW	-12.3805
▁PC	-12.381
▁PPG	-12.3811
▁eX	-12.3814
GC	-12.3814
▁ilk	-12.3823
KR	-12.3828
▁AMD	-12.3834
▁irst	-12.3837
DH	-12.3852
▁zi	-12.3855
▁list	-12.3856
▁alju	-12.386
▁mpan	-12.3872
▁BSK	-12.3873
▁gust	-12.3873
▁arot	-12.3876
▁rf	-12.3888
▁lati	-12.3892
▁usin	-12.3901
▁ited	-12.3906
▁79	-12.391
▁DA	-12.3913
▁ody	-12.3922
45	-12.3923
08	-12.3925
▁yaman	-12.393
MP	-12.3931
ez	-12.3943
▁osy	-12.3949
▁87	-12.3954
SE	-12.3954
▁ewe	-12.3956
▁SIER	-12.3958
GK	-12.3962
▁oki	-12.3963
▁PL	-12.3968
▁MURI	-12.3972
▁tahil	-12.3981
▁luhur	-12.3984
▁PJ	-12.3985
▁gasi	-12.3986
▁yik	-12.3988
▁nopo	-12.3989
▁von	-12.399
▁FIS	-12.3992
▁dekah	-12.3999
02	-12.4
▁blem	-12.4002
▁ramik	-12.4003
▁urb	-12.4013
▁esta	-12.4014
▁tens	-12.4014
▁edas	-12.4018
WI	-12.4019
▁PWN	-12.4035
▁tant	-12.4035
ther	-12.4036
▁FA	-12.4043
▁IDS	-12.4059
LU	-12.4061
▁hum	-12.4066
dam	-12.4068
▁laj	-12.4074
28	-12.4077
▁eluk	-12.4091
▁alma	-12.4093
▁antin	-12.4094
oks	-12.4103
liv	-12.4109
2.	-12.4112
▁iste	-12.4113
▁rmon	-12.4119
▁lemba	-12.4123
▁82	-12.4125
▁inne	-12.4134
▁yon	-12.4141
18	-12.4144
▁ingo	-12.4149
▁cuk	-12.4156
41	-12.4157
▁1-1	-12.4164
▁DI	-12.4167
▁trip	-12.4168
▁ASR	-12.4168
▁WA	-12.4174
▁ulin	-12.4189
▁ontr	-12.419
▁ibus	-12.4194
▁rogo	-12.42
MJ	-12.4207
▁ix	-12.4218
▁smi	-12.4224
▁urga	-12.4225
63	-12.4231
▁ext	-12.4233
▁ngh	-12.4242
DR	-12.4247
▁uly	-12.4249
8	-12.4252
▁elot	-12.4256
▁tone	-12.4261
▁QR	-12.4263
▁RAN	-12.4268
▁sain	-12.4269
IR	-12.427
LN	-12.4271
▁erbit	-12.4273
▁irm	-12.4275
▁MLB	-12.4295
▁ierr	-12.4303
▁nab	-12.4318
CNA	-12.4321
▁kia	-12.4324
▁NESCO	-12.4325
▁inas	-12.4333
4,	-12.4335
▁AG	-12.4336
▁nsi	-12.434
▁usaka	-12.4357
▁rte	-12.4362
▁NICE	-12.4364
▁PGN	-12.4364
PEC	-12.4372
▁vas	-12.4384
▁77	-12.4394
▁ophe	-12.4402
▁ivi	-12.4408
▁anie	-12.4413
▁bonat	-12.4424
BU	-12.4427
NN	-12.4429
▁CE	-12.4435
▁Of	-12.4442
ock	-12.445
▁logo	-12.4454
▁SN	-12.446
75	-12.4477
7,	-12.4477
▁hoc	-12.448
▁avar	-12.448
icuh	-12.4486
▁ilos	-12.4494
▁eung	-12.4495
6,	-12.4507
▁cola	-12.4509
▁KONI	-12.4514
▁nnedy	-12.4514
▁dlor	-12.4514
▁RUPS	-12.4515
▁istra	-12.4525
BT	-12.4525
reak	-12.4539
▁erim	-12.4541
▁ball	-12.4551
▁inho	-12.4551
TM	-12.4567
fi	-12.4571
▁bac	-12.4588
▁azi	-12.459
▁jiw	-12.459
▁ello	-12.4594
▁icy	-12.4596
▁LS	-12.4604
▁TA	-12.4608
▁ismi	-12.4611
▁saka	-12.4618
▁amm	-12.4623
▁SC	-12.4625
▁eva	-12.4626
lek	-12.4626
▁asto	-12.4651
▁zo	-12.4652
22	-12.4653
▁emur	-12.4657
▁doo	-12.4667
uhan	-12.4675
GJ	-12.4678
VS	-12.4679
▁eke	-12.4686
▁mura	-12.4687
▁PPI	-12.4694
▁mac	-12.4695
▁acat	-12.4703
▁ync	-12.4706
▁PTFI	-12.4711
▁usum	-12.4712
CM	-12.4718
▁anoi	-12.4735
▁idul	-12.4736
▁96	-12.474
▁KL	-12.4743
▁urv	-12.4743
▁eera	-12.4748
▁74	-12.4754
▁Merek	-12.4759
▁cul	-12.4794
▁hny	-12.4816
▁KKP	-12.4819
▁RC	-12.4831
BB	-12.4834
▁isol	-12.4842
▁SF	-12.4848
▁abir	-12.4858
ww	-12.486
▁9,	-12.4876
▁rino	-12.4879
▁mba	-12.4883
▁rca	-12.4884
▁UK	-12.489
LE	-12.4891
▁unk	-12.4907
▁ICW	-12.4908
▁iwi	-12.4908
▁PIS	-12.4908
TB	-12.491
▁WIT	-12.491
PPI	-12.4924
▁ijak	-12.4924
▁DWP	-12.4929
▁Fun	-12.4939
▁lent	-12.4944
▁nack	-12.4946
▁HI	-12.4964
▁onsi	-12.497
▁PAT	-12.4984
▁Pdt	-12.4986
▁BPP	-12.4991
EL	-12.4994
tek	-12.4996
SL	-12.5002
dji	-12.5021
▁eth	-12.5029
HL	-12.5029
▁retas	-12.5032
▁yg	-12.504
TU	-12.5043
▁94	-12.506
▁ages	-12.507
▁flu	-12.5072
SIS	-12.5073
▁udon	-12.5085
▁RU	-12.5097
▁LGBT	-12.5102
▁care	-12.5104
▁publ	-12.5105
yen	-12.5105
32	-12.512
▁eker	-12.5123
▁erdam	-12.5126
▁cip	-12.5127
ze	-12.5134
▁allas	-12.5138
▁erpe	-12.5139
▁GJA	-12.514
▁akw	-12.5148
▁ones	-12.515
▁Ijo	-12.516
CU	-12.516
▁KUA	-12.5163
▁eif	-12.5169
▁alid	-12.5182
▁IRI	-12.5186
▁UD	-12.5189
▁mania	-12.5189
▁rsu	-12.519
▁abad	-12.5192
▁nke	-12.5193
▁baum	-12.5215
KPM	-12.522
▁anuar	-12.5235
KBN	-12.5238
▁rtaw	-12.5244
▁ilin	-12.5257
▁qui	-12.5258
▁uwa	-12.5262
▁MRT	-12.5263
RP	-12.5263
▁ux	-12.5267
▁ller	-12.5267
▁ax	-12.5268
umk	-12.53
▁ynth	-12.5306
▁PLTS	-12.5307
▁brina	-12.5308
▁enp	-12.5311
▁BEM	-12.5314
▁gor	-12.5323
▁snia	-12.5326
▁hite	-12.5329
▁affa	-12.5348
▁PKL	-12.5351
▁yok	-12.5356
PKT	-12.5364
▁DAR	-12.537
▁ahit	-12.5373
ON	-12.5388
▁dakw	-12.539
▁3.	-12.5396
▁layu	-12.5398
▁ouma	-12.5399
▁sol	-12.5415
▁lwi	-12.5419
▁iaz	-12.5421
fe	-12.5422
▁kpol	-12.5431
▁win	-12.5438
▁rsan	-12.5439
▁PE	-12.5441
▁kome	-12.5445
06	-12.5451
▁olin	-12.546
▁PW	-12.5466
▁Bata	-12.5467
▁haw	-12.5475
pen	-12.5481
▁rdj	-12.5484
▁tz	-12.5485
GS	-12.5493
IMS	-12.5511
▁elsen	-12.5517
▁enen	-12.5518
▁LKPI	-12.5519
▁shel	-12.5528
▁unei	-12.5529
▁SME	-12.5531
▁erly	-12.5545
xon	-12.555
▁uam	-12.5565
▁iatu	-12.557
▁2-1	-12.5577
LS	-12.5582
▁rida	-12.5582
▁warn	-12.559
CT	-12.5596
yung	-12.5604
IN	-12.562
TS	-12.5621
▁owan	-12.5631
▁JD	-12.5642
▁olis	-12.5643
ck	-12.5645
▁warta	-12.5653
▁ahaan	-12.5653
71	-12.5656
▁ush	-12.5668
rup	-12.5676
▁PTN	-12.569
▁KY	-12.5698
è	-12.5727
▁NIFIL	-12.5727
PMI	-12.5729
▁kW	-12.5736
▁PURW	-12.574
▁hdi	-12.5741
▁bias	-12.5747
▁surv	-12.5748
NK	-12.5749
OH	-12.5761
▁chine	-12.5761
▁iris	-12.5764
▁KTM	-12.5766
AU	-12.5773
tty	-12.5778
SMS	-12.5778
▁gau	-12.5798
▁lisi	-12.5807
NDA	-12.5808
▁SDA	-12.581
▁SAMA	-12.5812
LTN	-12.5814
▁esia	-12.5832
▁box	-12.585
gih	-12.5851
▁MAS	-12.5852
SP	-12.5859
▁udu	-12.5864
▁airah	-12.5869
▁enja	-12.5884
▁nday	-12.5889
▁romi	-12.5889
▁hij	-12.5907
IDO	-12.5911
uck	-12.5911
▁Ol	-12.5918
'	-12.594
▁DLHK	-12.5945
▁CHT	-12.5952
▁undry	-12.5953
▁kre	-12.5958
▁NBA	-12.5964
▁Feb	-12.5971
▁gio	-12.5987
▁eed	-12.5987
▁bina	-12.6009
▁ulas	-12.6014
NU	-12.6014
▁iff	-12.6017
▁PAM	-12.6021
▁olte	-12.6021
▁ofya	-12.6032
DM	-12.6056
WD	-12.606
ci	-12.6062
▁naut	-12.607
▁loh	-12.6087
▁garo	-12.6095
36	-12.6101
▁Ani	-12.6107
▁laf	-12.6121
HA	-12.6125
let	-12.614
KO	-12.6147
▁taqi	-12.6151
-8	-12.6169
SG	-12.617
▁DKJ	-12.6174
▁Moon	-12.6175
▁tore	-12.6179
▁Ton	-12.6189
▁PJU	-12.6192
DF	-12.621
▁into	-12.6226
▁obs	-12.6229
▁Oj	-12.625
of	-12.6267
▁trid	-12.6275
27	-12.6278
kto	-12.6283
9,	-12.6287
▁TT	-12.6299
enal	-12.6299
▁eee	-12.6309
35	-12.6315
eko	-12.6333
▁cik	-12.6336
▁oon	-12.6338
▁race	-12.6349
IK	-12.6354
▁osh	-12.6371
▁LGBTQ	-12.6394
▁gkung	-12.6397
PBE	-12.6401
▁ize	-12.6403
TH	-12.6403
▁irza	-12.6407
▁road	-12.6407
▁HU	-12.6408
▁ISO	-12.6412
▁bubur	-12.6415
▁urs	-12.6424
AKI	-12.6428
▁nimb	-12.6435
▁fie	-12.6437
LT	-12.6443
5,	-12.6447
▁SUME	-12.6448
IT	-12.6448
PB	-12.6451
▁bata	-12.6456
▁klum	-12.6466
▁erni	-12.6467
GB	-12.6467
▁uin	-12.6467
▁yle	-12.6468
▁50%	-12.6468
cy	-12.6469
▁ipin	-12.6469
▁riz	-12.6474
▁NIK	-12.6476
▁ktr	-12.6477
▁itb	-12.6479
▁east	-12.6483
▁NOA	-12.6484
▁pulu	-12.65
▁kuid	-12.6505
▁NS	-12.6519
▁ager	-12.652
PKH	-12.6521
▁uay	-12.6521
▁CSI	-12.6543
DK	-12.6546
▁AHM	-12.656
▁RE	-12.6564
cis	-12.6582
▁Duk	-12.6588
AIC	-12.6591
▁BAC	-12.6596
▁otte	-12.6597
▁93	-12.6601
▁galan	-12.6611
▁pur	-12.6622
▁TS	-12.6625
▁fact	-12.6627
▁YoY	-12.6627
▁ref	-12.6628
▁luyo	-12.6631
▁SMRC	-12.6631
▁ohi	-12.6634
▁umham	-12.6636
▁JIS	-12.6638
▁hohi	-12.6643
▁MAD	-12.6644
▁Isra	-12.6646
▁ngad	-12.665
▁LED	-12.6657
▁IUP	-12.6664
▁ebur	-12.6664
▁PSK	-12.6667
▁ndr	-12.6668
PDN	-12.6683
▁erb	-12.6693
▁dzi	-12.6698
▁KPI	-12.6702
▁wu	-12.6704
78	-12.6704
essy	-12.6713
ies	-12.6736
HU	-12.674
▁KKN	-12.6748
▁GI	-12.6759
▁irana	-12.676
▁ndur	-12.6761
▁Od	-12.6776
▁shal	-12.6781
▁lme	-12.6783
TL	-12.6784
▁argo	-12.679
▁sobo	-12.6791
OW	-12.6792
79	-12.6796
58	-12.6797
▁PUSA	-12.6808
▁hie	-12.6809
▁ense	-12.6815
▁Cut	-12.6819
LA	-12.6823
▁YA	-12.6833
▁DJP	-12.6838
▁SB	-12.6842
▁VP	-12.6842
lis	-12.685
KSDA	-12.6864
▁Ganja	-12.6865
▁McC	-12.6865
▁now	-12.6873
▁raz	-12.6874
▁nzo	-12.6875
par	-12.6886
▁yel	-12.6898
▁rha	-12.6903
▁rism	-12.6912
▁155	-12.6916
▁erf	-12.6923
▁BAP	-12.6925
▁enoa	-12.6928
▁PPU	-12.6937
▁BEI	-12.6942
▁ulka	-12.6956
▁elay	-12.6956
ANA	-12.6957
IV	-12.696
▁TI	-12.6968
▁atih	-12.6982
74	-12.6986
▁aqu	-12.699
az	-12.699
▁eira	-12.699
▁emis	-12.6997
▁mali	-12.7004
▁itr	-12.7009
AF	-12.7015
rakt	-12.7021
▁hila	-12.7027
HM	-12.703
MEA	-12.7036
▁sumah	-12.7045
▁Mac	-12.7056
▁MY	-12.7067
▁92	-12.7069
▁ING	-12.7086
▁20%	-12.7094
▁ED	-12.7098
▁PG	-12.71
LO	-12.7102
▁IKM	-12.7111
▁nhil	-12.7114
▁skr	-12.7124
▁TPG	-12.7126
bun	-12.7127
▁ENGK	-12.7133
▁HB	-12.7137
EU	-12.714
▁oir	-12.7141
▁dug	-12.7142
33	-12.7147
▁tsus	-12.7149
▁RR	-12.7154
▁toar	-12.7156
▁KJ	-12.716
▁max	-12.7167
▁ubj	-12.7169
▁HK	-12.7177
▁iqu	-12.7179
kho	-12.7179
▁kapi	-12.7182
WP	-12.7186
▁yno	-12.7186
FF	-12.7187
▁usir	-12.7192
67	-12.7194
▁rz	-12.7199
▁rani	-12.7202
▁pide	-12.7213
▁isak	-12.7217
▁rro	-12.7218
▁89	-12.722
▁mron	-12.7231
▁uatu	-12.7234
▁eji	-12.7235
▁eus	-12.7236
▁enk	-12.7247
88	-12.7251
▁ois	-12.7253
▁ANY	-12.7254
▁nali	-12.726
▁qs	-12.7261
▁oom	-12.7262
CB	-12.7263
▁nafs	-12.727
01	-12.7276
▁deb	-12.7279
▁sab	-12.7288
SU	-12.7291
▁PPPA	-12.7303
▁rbi	-12.7309
▁endr	-12.731
▁ahari	-12.7312
85	-12.7317
▁far	-12.7323
▁uzz	-12.7351
1%	-12.7354
=	-12.7359
▁adget	-12.736
▁ubik	-12.7364
▁ikah	-12.7372
▁esota	-12.7376
▁shire	-12.7379
▁giur	-12.738
KT	-12.7381
69	-12.7383
▁AQU	-12.7389
▁elif	-12.7392
DB	-12.7394
OG	-12.7397
▁UPN	-12.7405
▁gong	-12.7408
▁80%	-12.741
▁apuh	-12.7421
cle	-12.7452
▁FN	-12.7461
▁rmi	-12.7463
RB	-12.7468
OR	-12.7483
▁Jum	-12.7497
TW	-12.7499
▁nies	-12.7511
▁batu	-12.7513
▁ismo	-12.7514
77	-12.7518
kal	-12.7528
93	-12.753
▁84	-12.7547
▁afis	-12.7566
▁APP	-12.7571
▁skin	-12.7587
▁oik	-12.759
▁RP	-12.7602
▁exy	-12.7607
62	-12.7609
RK	-12.761
ENG	-12.7611
▁het	-12.7613
▁flix	-12.7616
12	-12.7624
▁CVC	-12.7625
▁PKN	-12.7635
▁GO	-12.7645
▁asur	-12.7651
▁uddi	-12.7656
▁slam	-12.7661
▁ider	-12.7667
ner	-12.768
▁colo	-12.7687
▁nich	-12.7687
▁UC	-12.7688
▁epit	-12.7689
▁ibe	-12.7701
▁ogy	-12.7709
JR	-12.7714
riq	-12.7715
row	-12.7718
▁shib	-12.7719
▁sche	-12.7736
by	-12.7737
ax	-12.7748
▁tina	-12.7784
▁ugar	-12.7792
▁sebu	-12.78
▁ilal	-12.7803
▁lavi	-12.781
win	-12.7811
je	-12.7811
IDS	-12.7823
54	-12.783
▁ncat	-12.7833
▁DS	-12.7837
▁eaf	-12.7838
▁rfi	-12.7846
▁umh	-12.786
▁mie	-12.7862
3)	-12.7871
▁batan	-12.7873
▁IC	-12.7874
26	-12.7874
▁JP	-12.7878
▁VAR	-12.7882
▁PAC	-12.7886
▁LIB	-12.7886
▁5%	-12.7887
▁SLB	-12.7887
▁MTQ	-12.7888
▁atmo	-12.7892
▁CAT	-12.7892
▁illi	-12.7892
▁HS	-12.7896
▁goen	-12.7898
▁dliy	-12.7898
▁aq	-12.7901
▁hza	-12.7902
▁Oki	-12.7906
▁madu	-12.7908
▁itab	-12.7926
▁zal	-12.7927
▁eha	-12.7933
▁FX	-12.7934
ef	-12.7942
▁pote	-12.7943
▁amban	-12.7944
▁qil	-12.7945
▁moh	-12.7948
▁hio	-12.7956
PJ	-12.7959
TK	-12.7965
▁orto	-12.7968
▁lico	-12.7982
EA	-12.7998
▁zza	-12.8
BM	-12.8013
▁pare	-12.8035
▁erom	-12.8038
vy	-12.804
▁olar	-12.8047
▁83	-12.8048
▁Ze	-12.8049
03	-12.8072
▁rou	-12.8093
MB	-12.8093
lov	-12.8094
▁lic	-12.8098
▁haz	-12.81
▁KMP	-12.8106
▁PET	-12.8109
▁irga	-12.8114
▁ncu	-12.8138
▁VVIP	-12.8148
LI	-12.8158
▁ngen	-12.8158
PDP	-12.8162
56	-12.8163
▁GCG	-12.8165
▁UMS	-12.8168
FX	-12.8175
▁iong	-12.8185
▁ulsa	-12.8188
▁ous	-12.8191
▁idha	-12.8194
sum	-12.82
▁ahra	-12.8201
▁vill	-12.8206
▁ebel	-12.8209
▁erio	-12.8214
▁HPP	-12.8215
▁doro	-12.8218
▁uras	-12.8221
▁ML	-12.8224
▁irat	-12.8225
▁ols	-12.823
▁ever	-12.8234
98	-12.8234
▁oky	-12.8234
▁arit	-12.8235
▁mst	-12.8236
▁llo	-12.8238
▁tarum	-12.8239
▁abit	-12.8252
▁tras	-12.8266
PK	-12.8277
▁1-3	-12.8293
▁PEN	-12.8303
ATU	-12.8317
KAD	-12.832
▁alm	-12.8323
▁hima	-12.8327
▁ift	-12.8328
▁ulut	-12.8329
aq	-12.8329
▁itek	-12.8338
▁ipas	-12.8351
▁bio	-12.8355
▁RN	-12.8373
▁usar	-12.8375
VO	-12.8377
PV	-12.8381
▁oop	-12.8387
▁LA	-12.8389
LAK	-12.8394
roh	-12.8408
29	-12.8409
▁ixed	-12.8426
▁DJKA	-12.8426
▁ikul	-12.8427
▁iem	-12.8428
▁eppy	-12.8429
lik	-12.843
▁iguna	-12.843
▁ewu	-12.8431
▁adewa	-12.8431
▁ruma	-12.8432
xy	-12.8435
▁RPH	-12.8444
zy	-12.8446
▁HA	-12.8452
▁tten	-12.8469
▁BLI	-12.847
▁oiko	-12.8474
▁som	-12.8479
▁brie	-12.8482
▁netra	-12.8483
▁arbo	-12.8487
▁4,5	-12.8489
▁quo	-12.849
▁eraka	-12.8497
▁hoi	-12.8499
▁fee	-12.8502
▁emin	-12.8509
55	-12.8511
▁lokan	-12.8514
▁rine	-12.8517
▁ilia	-12.8517
zair	-12.8518
▁elki	-12.8521
▁JS	-12.8526
VI	-12.8529
ETA	-12.8532
▁glu	-12.8547
▁LE	-12.8554
0	-12.8555
LL	-12.8557
▁rona	-12.856
▁rlan	-12.8562
▁iddl	-12.8566
▁SAF	-12.8576
▁uktu	-12.8577
▁tuti	-12.8579
burg	-12.8587
▁91	-12.8594
▁mpl	-12.8601
▁ermo	-12.8611
▁cine	-12.8614
oz	-12.8614
▁etra	-12.8616
▁IAE	-12.8623
▁mble	-12.8633
▁iban	-12.8634
hik	-12.8641
▁timah	-12.8665
▁ery	-12.8679
▁LM	-12.8705
▁dju	-12.8708
▁BPJPH	-12.8712
▁food	-12.8713
▁lisa	-12.8713
▁cin	-12.872
▁wij	-12.8735
▁rase	-12.8736
▁MC	-12.8759
▁RF	-12.8763
▁EU	-12.8763
▁udhi	-12.8767
▁bsy	-12.8767
▁Lia	-12.877
▁ayne	-12.8771
▁70%	-12.8776
▁rose	-12.8776
EH	-12.8779
▁135	-12.8785
▁ecar	-12.8791
▁CPO	-12.8802
▁114	-12.881
▁PAL	-12.8817
▁BPR	-12.8818
▁iOS	-12.8825
USA	-12.8834
HK	-12.8834
▁iez	-12.8838
▁gaul	-12.8857
VA	-12.8859
▁akes	-12.8869
▁IPW	-12.8874
▁ASS	-12.8877
▁nakal	-12.8878
▁beb	-12.8878
▁WN	-12.888
▁engh	-12.8886
▁pih	-12.889
▁pita	-12.8893
▁AHU	-12.8895
▁hira	-12.8906
▁vit	-12.8909
▁4-	-12.8911
▁utte	-12.8913
▁agra	-12.8915
▁KT	-12.8918
▁ebre	-12.8926
▁suru	-12.8935
▁pom	-12.8938
hir	-12.8945
HC	-12.8946
non	-12.895
▁ovie	-12.8958
NGG	-12.8962
▁ayyi	-12.8976
53	-12.8996
▁abang	-12.9002
▁ubho	-12.9002
▁BSSN	-12.9006
▁°	-12.9008
▁ttery	-12.9008
▁XL	-12.9012
bot	-12.9014
rem	-12.9015
▁jaib	-12.9016
▁daf	-12.9019
▁LPDP	-12.9022
▁cho	-12.9028
▁RD	-12.9032
▁MF	-12.9042
KTI	-12.9052
▁12%	-12.9055
▁KPM	-12.9068
▁rji	-12.9069
▁rito	-12.908
▁naz	-12.9086
▁Oh	-12.9088
RW	-12.91
KPU	-12.9127
CIC	-12.9132
▁LD	-12.9144
▁rci	-12.9146
▁IPM	-12.9171
▁oem	-12.9186
▁wes	-12.9189
▁oyan	-12.9196
▁KSP	-12.9205
▁ugo	-12.9206
der	-12.9213
▁kaf	-12.9225
▁jaj	-12.9243
▁lav	-12.9279
8%	-12.9304
44	-12.9308
▁ESQ	-12.9309
▁UIPM	-12.9309
▁eneca	-12.9311
▁CFD	-12.9312
▁ough	-12.9316
▁phia	-12.9317
▁aky	-12.9319
▁ritz	-12.932
▁aufal	-12.932
▁ncini	-12.9322
▁akum	-12.9324
OO	-12.9324
▁zola	-12.9332
▁uke	-12.9337
▁waty	-12.9339
▁DU	-12.9339
▁nola	-12.9348
▁udia	-12.9349
▁PIN	-12.935
13	-12.9351
▁kila	-12.9368
39	-12.9372
▁eiz	-12.9374
▁FIF	-12.9374
▁isto	-12.9375
qi	-12.9384
▁mpit	-12.9385
UM	-12.9387
▁upon	-12.9388
09	-12.939
▁erth	-12.94
▁SJ	-12.9411
▁hru	-12.9426
KP	-12.9426
▁emaj	-12.9427
▁ries	-12.9428
▁Om	-12.9435
ked	-12.9438
UNI	-12.9445
▁iger	-12.9446
▁BUL	-12.9452
▁ndom	-12.9481
▁ondi	-12.9496
▁KO	-12.9498
▁ird	-12.9499
▁esp	-12.95
FH	-12.9511
81	-12.9517
▁idol	-12.9531
▁oiru	-12.9531
IF	-12.9532
gen	-12.9537
07	-12.9544
▁ITA	-12.9551
▁rits	-12.9563
agen	-12.958
▁plat	-12.9586
59	-12.9586
▁eut	-12.9592
▁joe	-12.9596
▁cant	-12.9598
▁aib	-12.9607
MM	-12.9608
▁uput	-12.9617
9%	-12.9617
▁rwana	-12.9621
▁PVMBG	-12.9622
▁FHUI	-12.9622
▁TERS	-12.9622
▁eblo	-12.9624
▁oard	-12.9624
▁oppen	-12.9624
▁Hj	-12.9624
les	-12.9633
▁orgol	-12.9634
▁job	-12.964
KG	-12.9642
KUB	-12.9648
▁env	-12.9651
BR	-12.9653
47	-12.9653
▁echo	-12.9655
▁oz	-12.966
▁ebra	-12.9662
▁kav	-12.9667
UK	-12.9675
▁PLB	-12.9677
▁BBP	-12.9688
UP	-12.9695
▁113	-12.9697
ich	-12.9706
DP	-12.9714
▁ngon	-12.9717
KL	-12.9725
▁oyc	-12.9728
▁vide	-12.9744
▁ruc	-12.9745
▁emut	-12.9748
▁matu	-12.9748
▁Bom	-12.9759
2%	-12.9762
PA	-12.9763
▁nife	-12.9767
▁KR	-12.9777
PRT	-12.9779
▁udge	-12.9785
PLN	-12.9785
WS	-12.9786
ezes	-12.9788
▁uff	-12.979
▁ADA	-12.9791
43	-12.9794
AT	-12.9794
KM	-12.98
PH	-12.9804
▁lud	-12.9812
▁usma	-12.9812
olok	-12.9812
MK	-12.982
va	-12.982
ULU	-12.9835
▁gamb	-12.9841
thur	-12.9845
▁ndan	-12.9848
NS	-12.985
▁CP	-12.9852
▁idan	-12.9856
ook	-12.9876
▁ACC	-12.9886
▁RDP	-12.9903
▁etop	-12.9909
GD	-12.9918
▁yany	-12.9919
eq	-12.9919
EM	-12.9922
ITU	-12.9926
▁é	-12.9926
▁SNI	-12.993
▁ease	-12.9938
í	-12.9939
▁PNBP	-12.9946
▁alela	-12.9954
▁TNBT	-12.9959
▁ried	-12.9959
▁ebe	-12.9965
▁BON	-12.9966
▁oles	-12.9977
▁aslu	-12.9978
▁udak	-12.9981
▁yna	-12.9982
46	-12.9982
IMB	-12.9983
CG	-12.9988
96	-12.9993
▁yod	-12.9996
▁SRU	-13
▁AJI	-13.0001
▁usana	-13.0004
▁BBN	-13.0012
▁mma	-13.0015
▁tyas	-13.0016
▁ott	-13.0037
dum	-13.0045
▁SCU	-13.0053
▁calo	-13.0059
49	-13.0069
57	-13.0071
72	-13.0078
GN	-13.0086
RM	-13.0086
▁ajal	-13.0093
▁SCB	-13.0112
▁PUI	-13.0114
▁TBC	-13.0119
▁bay	-13.0121
▁blet	-13.013
▁reak	-13.0136
▁CT	-13.0138
▁rtam	-13.0141
▁zz	-13.0146
1.	-13.0148
ouw	-13.0159
IPP	-13.0165
▁rsai	-13.0171
▁rten	-13.0175
FK	-13.0176
est	-13.0187
PDI	-13.0195
▁ANGK	-13.0199
▁isio	-13.0199
▁ajut	-13.0219
▁BLK	-13.0234
▁rson	-13.0236
gkut	-13.0248
▁uhid	-13.0257
▁Lap	-13.026
▁tuka	-13.0261
▁embi	-13.0263
mil	-13.0266
▁$1	-13.0271
4%	-13.0273
▁axi	-13.0273
▁uawei	-13.0278
▁RPJM	-13.0278
▁RPJP	-13.0279
▁iyas	-13.0279
▁arfur	-13.0279
▁tv	-13.028
▁LPEI	-13.0282
▁1%	-13.0284
▁FI	-13.0286
▁iton	-13.0286
▁PSH	-13.0287
▁ripik	-13.0289
DX	-13.0302
▁songo	-13.0302
▁YS	-13.0306
▁DKP	-13.0308
▁FR	-13.0317
BO	-13.032
▁wic	-13.032
▁amma	-13.0322
▁GRC	-13.0323
▁KUP	-13.033
▁stur	-13.0331
▁midi	-13.0333
▁tsu	-13.0336
OB	-13.0352
▁uild	-13.0354
▁eid	-13.0356
▁arb	-13.0358
dle	-13.0359
04	-13.0361
▁rind	-13.0361
▁Bay	-13.0372
RV	-13.0374
▁alad	-13.0377
idz	-13.0379
▁rchi	-13.0385
▁rach	-13.0387
▁rger	-13.0395
▁lose	-13.0397
▁sher	-13.0408
SH	-13.0415
DL	-13.0428
▁RUM	-13.0451
▁inha	-13.0458
▁amur	-13.0461
▁stal	-13.0464
har	-13.0465
87	-13.0467
HE	-13.0469
PID	-13.0471
▁SDG	-13.0483
▁ucke	-13.0494
▁yung	-13.0527
MUR	-13.0527
▁ezz	-13.053
▁Jul	-13.0552
▁chil	-13.0559
▁ubun	-13.0561
▁koso	-13.0574
ojo	-13.0583
▁hena	-13.0583
▁TBS	-13.0594
▁Dep	-13.0597
▁cum	-13.0598
▁eog	-13.0605
▁asul	-13.0607
▁mom	-13.0611
▁yte	-13.0616
LBH	-13.0618
▁brat	-13.062
ZIS	-13.0621
▁urqon	-13.0622
LOW	-13.0623
▁LKPP	-13.0626
▁MB	-13.0627
▁2%	-13.0628
▁PI	-13.063
▁mblas	-13.063
▁SKK	-13.063
▁binsa	-13.0632
▁86	-13.0633
JB	-13.0633
▁nerba	-13.0637
▁cycl	-13.0637
ogo	-13.0638
▁CH	-13.064
▁itz	-13.0648
▁Flu	-13.065
▁paj	-13.0661
▁dawa	-13.0662
▁rrow	-13.0663
▁arre	-13.067
▁burgh	-13.0676
▁iptu	-13.0678
▁KJM	-13.0679
▁ardj	-13.0689
▁UKI	-13.0689
▁hro	-13.0698
95	-13.07
64	-13.0701
Rp	-13.0716
▁uon	-13.0736
JM	-13.0738
iq	-13.0745
▁rope	-13.0765
▁fni	-13.077
GP	-13.077
▁GRO	-13.0771
▁KE	-13.0775
SGI	-13.0777
▁ubak	-13.0786
tri	-13.0787
▁irun	-13.0787
▁MAX	-13.079
52	-13.0791
BK	-13.0793
met	-13.0794
▁parta	-13.0798
▁mne	-13.0811
EE	-13.0813
89	-13.0816
shi	-13.082
zzi	-13.0821
▁oten	-13.0828
▁loye	-13.0839
▁DB	-13.0849
▁unto	-13.0849
max	-13.0853
TAN	-13.0854
▁USS	-13.0865
ucut	-13.0872
▁apo	-13.0886
▁FKS	-13.0888
▁TMM	-13.0904
▁maf	-13.0905
nec	-13.0905
▁ü	-13.0906
MO	-13.0913
ANDA	-13.0915
▁git	-13.0918
PF	-13.0926
ten	-13.093
▁lyn	-13.0931
yana	-13.0935
▁ipar	-13.094
▁ISS	-13.095
zec	-13.0955
▁hent	-13.0959
▁KW	-13.096
ice	-13.0963
▁fiz	-13.0966
84	-13.0972
7%	-13.0975
▁LH	-13.0976
▁ZA	-13.0976
ONDO	-13.0978
▁kfurt	-13.0979
▁MBZ	-13.098
▁cijan	-13.098
▁iaw	-13.098
pot	-13.098
▁RPMK	-13.0981
-9	-13.0985
▁snur	-13.0986
▁lpha	-13.0988
▁Bidan	-13.0989
▁RJ	-13.0989
▁hur	-13.0994
▁ssur	-13.0994
▁GW	-13.0996
83	-13.1
▁SPI	-13.1013
▁IAF	-13.1013
▁Hum	-13.1026
PPU	-13.1039
▁EST	-13.1053
HRI	-13.1056
ida	-13.1059
▁NK	-13.1061
PIH	-13.1062
▁zak	-13.1068
▁graf	-13.1072
▁elli	-13.1079
▁LU	-13.1086
▁hoal	-13.1087
▁lba	-13.1089
OSO	-13.109
▁eC	-13.1092
▁tric	-13.1092
▁ely	-13.1095
▁KPP	-13.1101
MD	-13.111
▁yri	-13.1111
▁AFT	-13.1112
▁RO	-13.1115
▁ldo	-13.1116
▁gay	-13.1126
▁MV	-13.1126
▁issa	-13.1144
▁arty	-13.1145
▁last	-13.1145
3.	-13.115
▁rey	-13.1153
RR	-13.1159
▁olve	-13.1174
▁tabe	-13.1176
▁kole	-13.1182
▁vil	-13.1186
▁rich	-13.119
▁ABG	-13.1192
JT	-13.1194
▁duate	-13.1209
akim	-13.1219
▁arra	-13.1221
ORO	-13.1221
▁1:	-13.1222
▁DPKP	-13.1223
▁firm	-13.1227
▁Prod	-13.1228
KPA	-13.1232
▁sink	-13.1239
▁peka	-13.125
▁nty	-13.1252
bal	-13.1254
band	-13.1255
▁soj	-13.126
▁BMM	-13.1265
▁wam	-13.1272
▁INA	-13.1275
▁tech	-13.1277
▁ify	-13.1281
▁lade	-13.1288
▁SPA	-13.1291
▁JM	-13.1292
▁pho	-13.1293
bie	-13.1294
BON	-13.1297
▁UII	-13.1297
GR	-13.1297
JP	-13.1298
OI	-13.1298
▁oza	-13.1321
IS	-13.1323
▁ular	-13.1331
▁AY	-13.1334
▁fra	-13.1336
6%	-13.1345
3%	-13.1345
len	-13.1347
▁urin	-13.135
▁NZE	-13.135
▁AIKIN	-13.135
▁ó	-13.1351
▁innor	-13.1351
▁gnos	-13.1352
AG	-13.1356
▁arwin	-13.1357
▁ritno	-13.1358
▁eptis	-13.1358
▁TE	-13.1363
▁antal	-13.1365
▁JKN	-13.1367
▁emicu	-13.137
▁ophi	-13.137
atch	-13.1372
CON	-13.1373
▁exi	-13.1375
▁evy	-13.1383
▁etha	-13.1385
▁not	-13.1387
VF	-13.1388
▁mono	-13.1388
nual	-13.1389
▁ION	-13.1393
IKI	-13.1395
▁ilf	-13.1395
▁4-1	-13.1398
tato	-13.14
PD	-13.1408
IQ	-13.1421
▁iek	-13.1427
▁AFI	-13.1437
▁stia	-13.1439
▁IRT	-13.1439
▁iraj	-13.1442
▁TPD	-13.1444
▁SW	-13.1444
▁urant	-13.1454
▁waii	-13.1464
▁LPS	-13.1466
▁BOS	-13.1468
▁ewis	-13.1472
IG	-13.1475
▁kuak	-13.1479
▁uyu	-13.1483
▁HAN	-13.1484
▁IAP	-13.1491
▁jol	-13.1493
▁ksan	-13.1496
ren	-13.1497
▁papa	-13.1506
▁aval	-13.1506
▁RMI	-13.1515
▁door	-13.152
▁uder	-13.1524
▁ksin	-13.1527
IC	-13.1545
▁AMI	-13.1551
NAN	-13.1556
▁nfi	-13.1556
▁rdin	-13.1561
▁idin	-13.1567
▁tmo	-13.1596
▁BN	-13.1596
▁Pop	-13.1598
SW	-13.1602
▁role	-13.1602
▁col	-13.1602
▁khiri	-13.1608
▁rinah	-13.1615
pon	-13.1619
OHA	-13.1623
▁vers	-13.1627
▁stis	-13.1628
▁kwa	-13.1631
▁hier	-13.1634
▁aff	-13.1636
▁utt	-13.164
AMI	-13.1642
▁CN	-13.1642
▁gge	-13.1643
MH	-13.1651
▁mall	-13.1666
▁ipl	-13.1668
eed	-13.1671
SB	-13.1676
PKA	-13.1689
▁BBL	-13.1702
▁oria	-13.1733
▁HGU	-13.1734
▁dol	-13.1735
▁STIP	-13.1736
▁emui	-13.1736
oyo	-13.1742
▁ihom	-13.1746
▁LLD	-13.1747
rwis	-13.1747
▁stuti	-13.1748
▁alaf	-13.1753
▁UMB	-13.1753
FO	-13.176
▁antum	-13.1768
▁oed	-13.1769
▁kja	-13.177
▁rami	-13.1771
68	-13.1773
▁jay	-13.1779
▁OKI	-13.1782
-1	-13.1783
▁QA	-13.1784
MN	-13.1787
▁mplo	-13.1787
61	-13.1814
▁PTS	-13.1815
▁0-1	-13.1817
lit	-13.1842
▁LX	-13.1844
▁azak	-13.1845
DW	-13.1845
▁uky	-13.1847
▁idar	-13.1849
▁jaks	-13.1855
▁IAN	-13.1857
▁ison	-13.1858
▁alit	-13.1862
▁340	-13.1863
▁hem	-13.1866
▁oek	-13.1871
▁PEL	-13.1873
▁arfa	-13.1875
▁rust	-13.1877
▁ukm	-13.1885
▁umpuh	-13.1896
▁rodu	-13.1899
▁okh	-13.1909
▁mbuk	-13.1913
66	-13.1924
▁asy	-13.1925
▁uso	-13.1927
RH	-13.1932
▁EX	-13.1936
FG	-13.1951
fa	-13.1958
▁PDR	-13.1967
ADO	-13.1971
MOS	-13.1979
AGA	-13.1983
▁KEP	-13.1983
▁got	-13.1983
▁mbir	-13.1988
SR	-13.1992
▁tmi	-13.1993
ful	-13.1996
▁dong	-13.1997
▁TMC	-13.1997
hur	-13.2003
▁PTK	-13.2011
IRE	-13.2023
pes	-13.2023
taz	-13.2026
▁olet	-13.2027
▁rise	-13.2027
▁chel	-13.2036
▁XX	-13.2036
▁aluk	-13.2042
lai	-13.2053
AND	-13.2055
▁zmi	-13.2058
▁uiz	-13.2059
▁odoh	-13.2059
▁madi	-13.2064
▁gede	-13.207
▁SER	-13.2071
KW	-13.2073
▁ukaan	-13.2078
▁ocke	-13.2081
BD	-13.2098
▁heo	-13.2115
▁RCTI	-13.2135
▁IoT	-13.2136
DAP	-13.2136
▁irdha	-13.2137
▁KERT	-13.2138
▁erjee	-13.2139
▁rupuk	-13.2139
▁3%	-13.214
KK	-13.214
▁ouch	-13.2142
▁iquid	-13.2142
PAC	-13.2144
▁OMB	-13.2147
ISA	-13.2148
▁DPMP	-13.215
▁umere	-13.2153
TNK	-13.2158
▁iblat	-13.2161
▁rav	-13.2173
▁uqi	-13.2174
ux	-13.2176
▁aeni	-13.2176
▁APD	-13.2176
▁rapen	-13.2176
▁RAT	-13.2177
▁jum	-13.2181
uf	-13.2189
▁nch	-13.2196
way	-13.2196
▁ASB	-13.2196
▁yafa	-13.2202
▁ACE	-13.2203
▁149	-13.221
IVE	-13.2214
▁KAR	-13.2218
▁imaj	-13.2249
▁BG	-13.2252
▁egaw	-13.226
zu	-13.2268
jat	-13.2274
▁doz	-13.2278
▁esat	-13.2281
▁MZ	-13.2281
ERD	-13.2282
▁ugup	-13.2282
▁indad	-13.2284
RF	-13.2286
▁RRT	-13.229
▁zra	-13.2299
▁mpal	-13.2301
UI	-13.2302
▁fakt	-13.231
▁alsh	-13.2313
Ny	-13.2316
▁ET	-13.2318
COM	-13.2324
PAS	-13.2326
▁ache	-13.2328
▁alie	-13.2328
▁uck	-13.2329
▁akso	-13.2332
▁kho	-13.2335
▁GAN	-13.2338
▁rias	-13.2341
▁YP	-13.2348
MMI	-13.2353
rud	-13.2358
MR	-13.2362
▁rc	-13.2364
CS	-13.2368
▁yz	-13.2376
▁chin	-13.2378
▁erg	-13.2395
▁ISI	-13.2402
▁kso	-13.2411
▁empek	-13.2418
KAP	-13.2418
▁2)	-13.2444
▁NE	-13.2445
▁TAP	-13.2447
▁imon	-13.2447
▁alus	-13.2457
▁DPK	-13.2458
▁ubat	-13.2459
▁PRT	-13.2483
chi	-13.2491
▁TM	-13.2491
▁IAS	-13.2497
SIN	-13.2505
▁ruz	-13.251
TR	-13.2512
▁DMI	-13.2524
▁lvi	-13.2525
▁utho	-13.2545
▁almCo	-13.2551
▁BLUD	-13.2551
▁PDNS	-13.2551
▁LiaN	-13.2552
JAM	-13.2563
CD	-13.2564
greg	-13.2566
▁OKSI	-13.2568
LG	-13.2572
▁GK	-13.2573
▁OL	-13.2578
▁edy	-13.258
▁riza	-13.2584
BJ	-13.2586
▁laska	-13.2588
▁TSP	-13.2593
▁HAR	-13.26
▁rota	-13.2603
▁rici	-13.2611
▁lulu	-13.2618
ONG	-13.2621
NA	-13.2624
▁INGG	-13.2627
▁lena	-13.263
cu	-13.2642
▁104	-13.2642
▁ouss	-13.2644
▁twa	-13.2646
▁MMI	-13.2652
31	-13.2663
publ	-13.2665
▁SUB	-13.2669
▁enyak	-13.2672
PKS	-13.2672
▁TSM	-13.2675
▁FT	-13.2676
▁edana	-13.2677
▁BOY	-13.2689
ver	-13.2694
▁risd	-13.2694
▁eath	-13.2699
▁unita	-13.27
▁USG	-13.27
▁enon	-13.2703
76	-13.2705
▁ABS	-13.2711
▁Hama	-13.2722
▁ebor	-13.2725
▁CB	-13.2725
▁shak	-13.2729
▁sban	-13.2733
ILA	-13.2735
TAR	-13.2736
▁dz	-13.2763
▁skri	-13.2768
▁nsur	-13.2775
PG	-13.2791
dar	-13.2793
▁AMS	-13.28
▁Sid	-13.2809
▁engen	-13.2812
▁NM	-13.2815
▁RSJ	-13.2824
▁endir	-13.2824
▁olat	-13.283
nic	-13.2837
▁link	-13.284
▁gaw	-13.2852
▁GAR	-13.2853
▁lare	-13.2854
tack	-13.2861
eren	-13.2863
NF	-13.2869
▁iky	-13.2874
▁gapa	-13.2884
▁geta	-13.2886
▁boy	-13.2888
▁lho	-13.2896
nes	-13.2897
▁XV	-13.2912
▁GAM	-13.2915
▁iov	-13.2925
▁IMI	-13.2935
▁arge	-13.2937
▁oil	-13.2941
▁spi	-13.2949
▁tira	-13.295
▁Gim	-13.2952
▁ncor	-13.2953
IL	-13.2955
OJO	-13.2961
▁GAC	-13.2963
▁char	-13.2977
▁LK	-13.2978
▁roach	-13.2986
▁LNG	-13.2986
▁azza	-13.299
VC	-13.2992
▁elma	-13.2992
▁wai	-13.2992
▁UNY	-13.2994
▁euf	-13.2999
MAJ	-13.3
▁orbes	-13.3001
▁ridge	-13.3003
JH	-13.3008
▁HNW	-13.3014
▁STI	-13.3017
▁udo	-13.3017
82	-13.3018
FM	-13.3019
▁weya	-13.3021
▁lvin	-13.3024
▁akt	-13.3027
▁ILO	-13.3029
▁JBB	-13.303
▁ollo	-13.3033
▁ARI	-13.3035
▁utis	-13.3035
▁azing	-13.3037
▁ride	-13.3037
URA	-13.3043
▁KAL	-13.305
YD	-13.3054
▁odena	-13.3062
▁afik	-13.3071
▁ype	-13.3073
▁rish	-13.3082
▁nig	-13.3091
▁bed	-13.3092
des	-13.3092
▁ragi	-13.3103
▁lome	-13.311
▁ablo	-13.3114
▁yes	-13.3118
ASU	-13.3122
lot	-13.3127
▁yck	-13.3128
▁CIL	-13.3135
▁ilwa	-13.3137
don	-13.3139
▁lema	-13.314
▁ntini	-13.3151
bat	-13.3159
▁PIP	-13.3168
▁osit	-13.3175
NTEN	-13.3178
AYA	-13.3182
▁olit	-13.3188
AJA	-13.3193
▁erik	-13.3199
MAL	-13.3202
▁PKT	-13.3207
▁rsy	-13.3208
▁enjo	-13.3211
zer	-13.3216
ML	-13.3218
▁icuh	-13.3219
▁mosir	-13.3219
▁avy	-13.3229
▁AIA	-13.3229
▁nese	-13.3245
dhi	-13.3246
▁niya	-13.3269
▁zam	-13.3274
▁hef	-13.328
▁rink	-13.3287
▁19,	-13.3289
▁FS	-13.3298
III	-13.3304
zhe	-13.3317
▁AZ	-13.3322
▁avo	-13.333
▁LN	-13.3334
▁igr	-13.3337
▁hipo	-13.334
▁epto	-13.3343
▁KAP	-13.3381
gor	-13.3388
▁ench	-13.3391
▁chus	-13.3394
4)	-13.3396
▁vest	-13.3401
▁ILI	-13.341
▁NIB	-13.3418
▁ttar	-13.3433
IB	-13.3439
▁App	-13.3439
▁DJBC	-13.3441
▁eyond	-13.3441
▁ISPA	-13.3441
▁PCN	-13.3441
▁PDTT	-13.3442
▁HMID	-13.3443
▁rouri	-13.3444
▁BMN	-13.3445
▁KKMB	-13.3445
▁veen	-13.3447
▁4%	-13.3447
▁obar	-13.3448
▁uzman	-13.3449
▁WTO	-13.345
▁hav	-13.3452
▁ydro	-13.3459
TIN	-13.346
▁cken	-13.3473
▁abha	-13.3474
▁ABM	-13.3475
▁ijar	-13.3475
▁ttal	-13.348
▁inna	-13.3488
▁heet	-13.3491
▁BJB	-13.3497
▁GN	-13.3499
▁PDN	-13.3504
▁adw	-13.3504
Wh	-13.3506
▁yama	-13.3506
▁rru	-13.3514
▁cut	-13.3516
▁BJP	-13.3533
▁PHE	-13.3537
▁esy	-13.3541
▁FO	-13.3543
▁mple	-13.3546
LIM	-13.3549
▁ship	-13.355
▁ksu	-13.3558
▁anafi	-13.3562
▁ahid	-13.3564
▁PKH	-13.3568
▁aska	-13.3588
▁ICT	-13.3589
▁AMP	-13.3592
IRI	-13.3602
TO	-13.3612
OD	-13.3623
▁RL	-13.3623
nik	-13.3624
▁lmas	-13.3624
▁Jun	-13.3627
GAW	-13.3629
▁SMB	-13.3633
▁opy	-13.364
▁MN	-13.3645
▁BPI	-13.3646
▁rfa	-13.3652
PRS	-13.3657
LF	-13.3664
▁97	-13.3668
▁yaz	-13.3675
▁Rob	-13.3676
▁nsha	-13.3677
ING	-13.3689
▁NT	-13.369
ough	-13.3691
▁ratya	-13.3699
▁HD	-13.3705
▁DN	-13.3712
▁osia	-13.3722
▁heu	-13.3724
ROGO	-13.3725
UKO	-13.3725
BF	-13.3725
leh	-13.373
SD	-13.3738
pro	-13.3744
▁ilul	-13.3755
PKN	-13.3757
▁iho	-13.3761
dj	-13.3785
▁uria	-13.3786
▁under	-13.3788
▁hania	-13.3789
GA	-13.3804
▁mbom	-13.3808
▁rog	-13.3814
▁ghu	-13.3814
▁ally	-13.3818
ire	-13.3825
▁ramm	-13.3841
▁olf	-13.3847
KOM	-13.3855
had	-13.3858
▁ipan	-13.3866
▁JE	-13.3871
HMI	-13.3882
▁IHC	-13.3883
raj	-13.3889
▁ulf	-13.3902
▁mix	-13.3906
▁olp	-13.3911
▁ihi	-13.3916
•	-13.3917
▁PBVSI	-13.3917
▁TBRC	-13.3917
get	-13.3917
▁PNG	-13.3923
▁woong	-13.3923
▁raca	-13.3927
▁anaje	-13.3927
▁OT	-13.3931
▁CAP	-13.3934
▁EPA	-13.3935
▁IHT	-13.3939
▁EBT	-13.3946
▁Eye	-13.3949
far	-13.3951
HT	-13.3954
▁kuza	-13.3958
▁ilw	-13.3958
▁rade	-13.396
▁DKM	-13.396
▁eby	-13.396
▁albe	-13.3967
▁wyn	-13.3975
▁xon	-13.3977
▁imic	-13.3978
▁aish	-13.3981
▁kilau	-13.3983
tif	-13.3984
▁142	-13.3985
▁CCS	-13.3987
▁TJ	-13.4003
▁glas	-13.401
SKC	-13.401
▁atti	-13.4011
48	-13.4018
▁romat	-13.4036
▁ONG	-13.4039
KU	-13.404
▁khta	-13.4043
OT	-13.4045
▁ushu	-13.4047
▁boyo	-13.4051
JS	-13.4055
▁BFI	-13.4074
rwo	-13.4076
▁lux	-13.4084
JC	-13.4088
▁riff	-13.4089
▁BPH	-13.4091
▁agor	-13.4092
AO	-13.4096
IBA	-13.4099
▁ltik	-13.4101
ITA	-13.4104
▁lick	-13.4105
▁JW	-13.4119
▁IPS	-13.4126
▁PEP	-13.4131
IU	-13.4133
▁ech	-13.4136
▁COD	-13.4141
▁Kru	-13.4153
▁dow	-13.4159
▁edor	-13.416
▁DUA	-13.4161
▁UNGA	-13.417
KN	-13.4184
▁udor	-13.4185
▁Adap	-13.4207
▁MPP	-13.4223
BAN	-13.4223
▁SEV	-13.423
▁wei	-13.4234
▁BIS	-13.4237
▁waid	-13.4242
▁pali	-13.4244
▁unar	-13.4248
▁FM	-13.4252
▁Ady	-13.4253
▁ispa	-13.4253
▁tril	-13.4256
▁stop	-13.4267
LAN	-13.4268
▁CD	-13.4278
▁allo	-13.428
▁dewi	-13.4288
▁kuli	-13.4289
YU	-13.4294
▁she	-13.4299
▁MRP	-13.4299
key	-13.4315
▁MX	-13.4316
pur	-13.4316
▁Qi	-13.4319
▁ussi	-13.4321
▁MRI	-13.4328
TIQ	-13.4329
▁rth	-13.4338
▁riv	-13.4342
▁nth	-13.4344
▁hou	-13.4349
▁AV	-13.435
▁bian	-13.4354
▁tory	-13.4357
▁BKS	-13.4357
jen	-13.4362
uff	-13.4386
▁tahi	-13.439
AIK	-13.44
▁orat	-13.4403
▁MPM	-13.4407
GON	-13.4413
▁CGV	-13.4417
▁LPDUK	-13.4417
▁LAZ	-13.4417
▁SPSL	-13.4417
▁PCX	-13.4417
▁nemia	-13.4423
▁rdu	-13.4423
▁MICE	-13.4425
▁UWM	-13.4426
▁dawu	-13.4427
▁crac	-13.4432
▁USB	-13.4435
RIB	-13.444
▁ompi	-13.4441
GT	-13.4441
hen	-13.4444
▁rbasi	-13.4444
▁onz	-13.4447
▁DOB	-13.4452
▁SPM	-13.4454
▁wzi	-13.4454
▁rsha	-13.4459
ROUP	-13.4466
▁rusia	-13.447
▁SKM	-13.4473
▁bour	-13.4474
AGE	-13.4475
▁hlo	-13.4482
▁PKM	-13.4483
▁ramo	-13.4486
▁UL	-13.4488
▁DLU	-13.4502
IGI	-13.4502
AFI	-13.4514
▁TPL	-13.4525
▁UV	-13.4525
▁USA	-13.4526
CE	-13.4527
▁udz	-13.4528
▁CI	-13.453
▁ICS	-13.4531
▁odor	-13.4535
▁dry	-13.4538
73	-13.4543
ROBO	-13.4547
▁bird	-13.4548
ISI	-13.4558
▁oyong	-13.4558
DU	-13.4573
▁AKD	-13.4575
▁ejit	-13.4577
sbor	-13.4582
▁KKI	-13.4583
▁rono	-13.4591
▁IL	-13.4596
ICT	-13.4597
▁agul	-13.4598
▁IDE	-13.4605
▁rave	-13.461
▁razi	-13.4635
phy	-13.4636
▁API	-13.4638
▁lry	-13.4644
TD	-13.4653
▁idz	-13.4661
PM	-13.4664
▁imal	-13.4668
▁yudh	-13.4669
▁WS	-13.4675
GL	-13.4675
▁MO	-13.4677
▁ubin	-13.4681
▁espo	-13.4686
▁ULU	-13.4689
ayne	-13.4693
ttha	-13.4694
▁ICA	-13.4699
eco	-13.47
▁rayu	-13.4704
▁LPK	-13.471
▁uill	-13.4719
▁lanie	-13.4719
DD	-13.472
▁lavo	-13.4729
HD	-13.4761
roto	-13.4761
▁enur	-13.4763
▁6.	-13.4768
▁ersen	-13.4769
▁oedi	-13.4774
▁weet	-13.4775
▁etri	-13.4777
▁olas	-13.4797
▁pack	-13.4801
▁DPS	-13.4812
oso	-13.4814
▁elf	-13.4823
▁aled	-13.4829
▁PTT	-13.4848
▁lex	-13.4853
▁GG	-13.4854
KF	-13.4854
yne	-13.4862
▁nato	-13.487
▁TU	-13.4881
▁smo	-13.4884
▁ilda	-13.4886
LH	-13.4895
RNA	-13.4914
ray	-13.4923
IKE	-13.4929
▁ikw	-13.4932
▁hili	-13.4934
▁rda	-13.4935
▁JO	-13.4938
▁nza	-13.4939
▁ranj	-13.494
▁igai	-13.4941
▁CATL	-13.4943
▁ALHI	-13.4945
▁ifqi	-13.4947
lux	-13.4948
PE	-13.495
PHP	-13.4954
JAL	-13.4961
▁uch	-13.4963
FS	-13.497
97	-13.4973
▁sehi	-13.4977
▁Wow	-13.4981
OMB	-13.4988
▁arez	-13.4989
▁nopi	-13.4989
▁RTH	-13.4997
▁isha	-13.4998
DO	-13.4999
▁zar	-13.5001
▁oron	-13.5003
▁APH	-13.5003
▁abyan	-13.5007
▁BIG	-13.5008
▁ssis	-13.503
▁act	-13.503
▁ngur	-13.5032
▁TEM	-13.5033
▁thur	-13.5042
RJ	-13.5042
▁ANC	-13.5052
▁izza	-13.5054
▁ür	-13.5055
▁SMI	-13.5058
▁rizo	-13.506
▁ilon	-13.5063
▁5-	-13.5064
▁yria	-13.5073
▁mulat	-13.5079
▁GKP	-13.508
▁hukr	-13.5086
eno	-13.5086
ound	-13.5093
ME	-13.5093
▁POM	-13.5113
▁ebal	-13.5114
▁hne	-13.5115
▁TO	-13.5115
▁loyo	-13.5121
KIP	-13.5127
NE	-13.5134
▁kuas	-13.5141
MX	-13.5143
▁(9	-13.5144
▁rbin	-13.5146
▁Zum	-13.5149
▁dono	-13.5151
▁AEO	-13.5153
▁LL	-13.5171
▁WI	-13.5178
▁DAU	-13.518
▁eje	-13.5183
▁á	-13.5189
DE	-13.5194
IPC	-13.5218
wij	-13.5221
rek	-13.5225
▁uite	-13.5225
PIP	-13.5226
zam	-13.5254
▁tax	-13.5257
▁XVI	-13.526
▁lien	-13.5273
▁bot	-13.5275
▁bro	-13.5276
▁utik	-13.5277
DT	-13.5279
▁4,8	-13.528
▁ggi	-13.5288
ruk	-13.5294
▁rly	-13.5297
▁inix	-13.5315
▁ekl	-13.5315
▁IF	-13.532
lsaf	-13.534
▁shan	-13.5358
▁ushi	-13.5362
▁jor	-13.5374
FL	-13.5377
▁TL	-13.5385
ide	-13.5389
▁AE	-13.5389
▁urka	-13.5399
▁erih	-13.5405
▁baz	-13.5406
ICC	-13.5408
CF	-13.5409
▁djo	-13.542
ukti	-13.543
▁AMB	-13.543
▁niti	-13.5432
▁grid	-13.5455
▁JN	-13.5455
▁tew	-13.5456
▁RAP	-13.5466
▁IPP	-13.547
SAN	-13.5474
▁cab	-13.5477
▁EK	-13.5479
PPP	-13.5479
▁akut	-13.548
▁topo	-13.5482
▁itti	-13.5492
▁roz	-13.5493
▁rocus	-13.5499
▁NGTO	-13.55
▁INKA	-13.55
▁gacy	-13.5502
▁zoom	-13.5503
▁ield	-13.5504
▁7%	-13.5506
▁gema	-13.5506
▁8%	-13.5508
▁iadab	-13.5508
▁OTK	-13.551
▁FSB	-13.5514
▁PHR	-13.552
▁LDP	-13.5526
▁FGH	-13.5527
APBN	-13.5527
▁AJ	-13.5529
ALO	-13.5532
SEL	-13.5534
▁guay	-13.554
▁olic	-13.5542
KS	-13.5555
▁Xu	-13.5556
IMA	-13.5559
▁nalo	-13.5565
Ke	-13.5566
▁tach	-13.5568
▁lack	-13.5575
▁isba	-13.5578
▁said	-13.5582
GO	-13.5589
▁roket	-13.559
AIR	-13.5591
▁uic	-13.5591
▁yafi	-13.5597
▁OS	-13.5604
▁nale	-13.5611
SAP	-13.5619
▁cash	-13.5622
NTU	-13.5623
▁MAP	-13.5625
▁KRIS	-13.5627
ilul	-13.5631
▁PDP	-13.5634
▁zma	-13.5654
▁JF	-13.5656
war	-13.567
▁Haz	-13.567
ORON	-13.5676
▁KBS	-13.5678
▁gore	-13.5681
dren	-13.5686
▁itle	-13.5698
▁gok	-13.5699
▁udh	-13.5702
OU	-13.5702
▁lul	-13.5704
▁FPI	-13.5709
▁stom	-13.5719
▁aidi	-13.572
▁LG	-13.5722
▁BNP	-13.5722
▁ydo	-13.5726
IMP	-13.5727
▁egawa	-13.5732
▁SIP	-13.574
▁vy	-13.5745
buk	-13.5745
▁ishi	-13.5745
91	-13.5746
▁auw	-13.5748
▁uand	-13.5755
▁sell	-13.5758
▁esz	-13.5759
▁LPP	-13.5777
▁liga	-13.5784
▁PEB	-13.5789
▁DL	-13.5793
▁adma	-13.5806
JA	-13.5809
▁ADAN	-13.5814
▁EB	-13.5815
▁kusi	-13.5828
▁SRC	-13.5841
TE	-13.5847
▁llan	-13.5856
▁ASC	-13.5861
▁rdon	-13.5871
URI	-13.5876
lem	-13.588
▁thal	-13.5899
▁PPAT	-13.5899
▁RAM	-13.5914
▁AKI	-13.5915
▁dison	-13.5916
▁TTP	-13.5918
▁ezer	-13.5922
▁yre	-13.5929
tama	-13.5945
▁etr	-13.5946
AYU	-13.5955
▁kopi	-13.5976
▁atel	-13.5995
▁enne	-13.6003
ORE	-13.6008
rif	-13.6016
JI	-13.6019
GAI	-13.6035
▁cipt	-13.6036
ben	-13.6045
▁Nih	-13.6047
ASI	-13.6058
▁Mom	-13.6063
▁FL	-13.6064
▁CIA	-13.6067
▁nner	-13.6067
▁IAI	-13.6067
▁eena	-13.6071
▁ycl	-13.6072
▁ayt	-13.6073
▁omar	-13.6073
▁alv	-13.6079
▁BU	-13.6087
▁EMLI	-13.6087
▁ANTV	-13.6087
▁WOM	-13.6091
▁WONO	-13.6091
▁deres	-13.6095
▁EF	-13.61
▁UKK	-13.6105
▁ynn	-13.6105
LAT	-13.6112
▁esai	-13.6113
▁qi	-13.6119
IAK	-13.612
▁ikri	-13.6121
▁DIGI	-13.6122
IMM	-13.6122
▁luch	-13.6123
PTS	-13.6124
▁EJ	-13.6127
JF	-13.6131
PTI	-13.6133
▁KSOP	-13.6137
▁MEG	-13.6143
▁cef	-13.6146
▁umbo	-13.6155
▁VW	-13.6156
▁OM	-13.6158
▁123	-13.6159
▁otto	-13.6162
JU	-13.6165
▁ibr	-13.6167
▁yla	-13.6169
▁168	-13.6173
▁nady	-13.6173
RD	-13.6175
▁gho	-13.6176
▁aikin	-13.619
▁vol	-13.619
▁RZ	-13.6191
▁uffe	-13.6194
▁giv	-13.6197
▁EC	-13.6197
▁hiya	-13.6198
▁erha	-13.6205
▁ARC	-13.6211
▁young	-13.622
▁VA	-13.6222
▁egov	-13.6223
▁guw	-13.6224
▁TER	-13.6231
▁royo	-13.6236
▁boda	-13.6237
▁ijj	-13.6241
IE	-13.6244
▁flo	-13.6245
▁taff	-13.625
SSE	-13.6256
▁manj	-13.6267
BE	-13.6271
▁smay	-13.6275
▁MTI	-13.6279
▁elir	-13.6281
gak	-13.6287
orf	-13.6289
▁RH	-13.6293
▁HH	-13.6299
zet	-13.6306
▁MEN	-13.6312
LX	-13.6313
▁iyat	-13.6318
YP	-13.6321
▁rizk	-13.633
▁KC	-13.6331
▁luhu	-13.6331
▁orre	-13.6337
▁OC	-13.6338
edge	-13.6341
▁amie	-13.6353
▁SEN	-13.6355
▁MBA	-13.6361
ADI	-13.6366
LAH	-13.6374
▁eci	-13.6374
▁IGN	-13.6387
▁apek	-13.6389
haq	-13.639
▁rew	-13.6393
▁PKP	-13.6393
▁ghi	-13.6406
▁essa	-13.6436
SJ	-13.6449
▁ensy	-13.6455
▁rups	-13.647
▁hell	-13.6477
▁2"	-13.6484
ONT	-13.6503
▁IMM	-13.6512
▁TMP	-13.6517
▁1"	-13.6536
▁exus	-13.654
▁ige	-13.6543
▁ABD	-13.6547
▁dud	-13.6548
▁ngih	-13.6552
▁thin	-13.6556
RU	-13.6557
ven	-13.6567
uru	-13.6574
▁acau	-13.66
▁siba	-13.6601
PUA	-13.6604
▁liv	-13.6612
▁reas	-13.6616
▁UB	-13.6626
▁UMR	-13.6628
KE	-13.6632
▁amir	-13.6656
▁inny	-13.6657
VRI	-13.6661
▁putr	-13.6676
▁nho	-13.6682
▁usl	-13.6691
▁ador	-13.6695
ENA	-13.6695
▁wist	-13.6696
▁CIS	-13.6705
▁zul	-13.6706
▁Ef	-13.6706
▁liss	-13.6707
▁mfibi	-13.6712
▁€	-13.6712
▁FTUI	-13.6712
▁STEM	-13.6712
LKI	-13.6713
▁stock	-13.6717
▁mbodo	-13.6721
▁bargo	-13.6721
▁lunto	-13.6727
▁APJI	-13.673
▁song	-13.6738
▁SILO	-13.6745
▁OAP	-13.675
▁FDA	-13.6752
▁gli	-13.6752
AID	-13.6761
▁uez	-13.6762
▁mzam	-13.6768
▁ravo	-13.6771
▁erzo	-13.6773
KIN	-13.6777
▁abay	-13.6784
▁148	-13.6786
▁chol	-13.6787
▁obbi	-13.679
▁sour	-13.6792
▁IJ	-13.6802
MIP	-13.6802
▁anci	-13.6808
▁leep	-13.6818
▁wel	-13.6823
▁srin	-13.6827
▁dhil	-13.6827
▁ssen	-13.6828
▁IAK	-13.6829
▁LC	-13.6831
▁uv	-13.6833
ucc	-13.6836
▁emdi	-13.6839
MAD	-13.6844
ghur	-13.6846
▁harj	-13.6846
▁PAW	-13.6847
▁IQ	-13.6847
▁BISA	-13.6848
▁IPO	-13.6851
UTA	-13.6854
pton	-13.6854
▁PTM	-13.6859
▁ied	-13.6872
▁oul	-13.6874
TLH	-13.6885
eix	-13.6885
▁UIP	-13.6891
▁giya	-13.6892
▁enin	-13.6892
▁eav	-13.6898
▁loon	-13.6904
▁bill	-13.6908
▁epper	-13.691
▁essy	-13.6926
▁irna	-13.6927
▁BPKA	-13.6934
▁eido	-13.6939
▁ogie	-13.697
▁gow	-13.6972
low	-13.6979
▁APM	-13.6987
INI	-13.6992
▁CM	-13.6998
▁awin	-13.7003
▁hev	-13.7006
RHA	-13.7007
ICA	-13.7013
ack	-13.7014
▁jant	-13.7021
PJT	-13.7024
▁zzi	-13.7027
enz	-13.7027
APA	-13.7032
92	-13.7033
▁naif	-13.7037
▁rice	-13.7037
▁angor	-13.7042
▁thir	-13.7047
▁anks	-13.705
▁rome	-13.7052
CIS	-13.7055
▁REJ	-13.7062
▁uilt	-13.7062
▁arne	-13.7062
ATA	-13.7067
▁khar	-13.7068
▁idya	-13.7068
▁artu	-13.7068
COF	-13.707
jah	-13.7071
▁Dur	-13.7077
KPI	-13.7081
▁undul	-13.7085
▁KSK	-13.7086
▁SQ	-13.709
▁0-0	-13.7094
▁$2	-13.7102
▁you	-13.7102
▁risto	-13.7107
▁wung	-13.711
PTJ	-13.7127
▁urag	-13.7129
▁rbot	-13.7131
▁SAP	-13.7136
▁IPK	-13.7137
▁arok	-13.7153
▁tany	-13.7153
▁utter	-13.7164
▁rkha	-13.7188
▁SAN	-13.7196
▁rosh	-13.7205
▁1-	-13.7207
▁ERA	-13.7207
▁ghe	-13.7212
eck	-13.7214
▁LKS	-13.7216
GE	-13.722
▁IKP	-13.7223
BKM	-13.7247
▁FF	-13.7271
▁NET	-13.7272
PKB	-13.728
▁osp	-13.7298
FT	-13.7302
NAS	-13.7302
▁ful	-13.7304
▁ugh	-13.7305
EX	-13.7306
▁saba	-13.7309
▁MMS	-13.731
ess	-13.7317
NJ	-13.7317
▁trok	-13.7318
▁igo	-13.732
▁ADI	-13.7322
▁ress	-13.7326
▁ilad	-13.7328
wid	-13.7331
▁hrus	-13.7331
dze	-13.7334
▁IPA	-13.7335
▁SAD	-13.734
▁shin	-13.7341
TAI	-13.7347
▁rista	-13.7352
LD	-13.7359
▁trac	-13.7368
NBT	-13.7372
$	-13.7374
!	-13.7374
▁nisia	-13.7374
DRB	-13.7376
▁qo	-13.7378
▁£	-13.7378
▁élam	-13.7378
▁UCLA	-13.7378
▁KSAU	-13.7379
▁SNBP	-13.7379
▁BNDC	-13.7379
▁BBWS	-13.7379
▁UPZ	-13.7379
▁IPEF	-13.7379
▁INUS	-13.7379
▁hift	-13.738
▁rbut	-13.7382
▁uzier	-13.7383
▁ihite	-13.7384
án	-13.7384
▁irobi	-13.7385
iano	-13.7387
▁moni	-13.7387
▁rdy	-13.7387
▁rez	-13.7392
▁ergai	-13.7393
▁oegi	-13.7398
▁eith	-13.7398
▁WBK	-13.7398
▁iels	-13.7399
▁lues	-13.7399
▁yaf	-13.74
▁IPI	-13.7402
▁AMKI	-13.7404
GARA	-13.7408
▁ENG	-13.7409
▁PUB	-13.7411
▁BLBI	-13.7414
▁unes	-13.7415
▁head	-13.7415
▁raff	-13.7422
▁oof	-13.7424
▁LPPM	-13.7424
7)	-13.7426
▁udlo	-13.743
▁FAK	-13.7437
▁KONA	-13.7442
▁atil	-13.7445
▁eslaw	-13.7446
▁LI	-13.7446
▁Jaz	-13.7464
▁ndhi	-13.747
SIG	-13.7471
▁imena	-13.7483
BMM	-13.7484
▁tth	-13.7486
▁oze	-13.7488
MAT	-13.7492
▁ourn	-13.7499
▁aic	-13.75
▁OG	-13.7501
▁argas	-13.7503
▁COM	-13.7508
▁131	-13.751
▁moot	-13.7511
▁GA	-13.7532
▁laud	-13.7539
PIN	-13.7545
▁osc	-13.755
▁NCS	-13.7554
▁IPC	-13.7561
▁eiga	-13.7562
▁PLA	-13.7563
▁rvel	-13.7566
▁CW	-13.757
▁STM	-13.758
▁iag	-13.7583
▁NIS	-13.7585
ping	-13.7589
RRC	-13.7589
▁ayye	-13.7596
▁mont	-13.7614
ini	-13.7619
▁APT	-13.7629
SER	-13.7637
▁MPL	-13.7638
BW	-13.7638
▁inson	-13.7645
WM	-13.7646
gur	-13.7648
▁SGM	-13.7658
▁duw	-13.7667
▁PIC	-13.7675
▁shir	-13.7678
ido	-13.7679
▁nier	-13.768
WN	-13.7684
HR	-13.7686
▁kron	-13.769
▁nno	-13.7691
Te	-13.7707
▁CF	-13.7714
▁hsa	-13.7717
▁ö	-13.7721
pin	-13.7732
▁rsin	-13.774
▁bois	-13.7747
kon	-13.7752
86	-13.776
▁GPA	-13.7766
▁AZE	-13.7769
▁roth	-13.7773
▁azir	-13.7794
▁AO	-13.7805
▁LANG	-13.7806
GAN	-13.7817
▁erda	-13.7817
La	-13.7819
▁AMA	-13.7832
▁argi	-13.7838
zz	-13.7839
HAN	-13.7846
▁HUM	-13.7865
▁esc	-13.7874
42	-13.7882
▁enit	-13.7888
▁eig	-13.7888
▁bury	-13.7893
▁NPC	-13.7894
▁Tip	-13.7905
▁WO	-13.7912
▁iwo	-13.7924
▁izan	-13.7936
Pad	-13.7949
▁roze	-13.7957
▁dmi	-13.7958
▁haji	-13.7967
▁rosu	-13.7971
▁mira	-13.7972
API	-13.7974
▁AX	-13.7976
▁nick	-13.7982
▁nac	-13.7983
▁aton	-13.7989
resh	-13.7993
ATI	-13.7998
MG	-13.8003
▁Jaw	-13.801
▁IKI	-13.802
▁BH	-13.8032
INT	-13.8041
▁oku	-13.8047
IH	-13.8054
▁shah	-13.8067
▁HSS	-13.8068
PJN	-13.8068
▁BR	-13.808
CW	-13.8087
▁miz	-13.8092
▁JULO	-13.8093
▁hzh	-13.8093
▁EL	-13.8093
▁aetz	-13.8096
▁WBBM	-13.8096
▁chlis	-13.8096
▁okies	-13.8098
▁nafik	-13.8099
▁YU	-13.81
▁DT	-13.81
▁ajwa	-13.81
▁ouza	-13.8101
▁yhur	-13.8102
▁witz	-13.8104
▁ondet	-13.8111
▁GWM	-13.8115
▁oren	-13.8123
▁osmos	-13.8125
▁$5	-13.8154
▁haq	-13.8155
▁luck	-13.8158
▁kban	-13.8161
WIP	-13.8166
▁LPI	-13.8169
▁PGE	-13.8172
ADA	-13.8178
▁GDP	-13.8184
▁IU	-13.8185
▁LQ	-13.8189
▁Saud	-13.8198
▁rail	-13.82
▁shing	-13.8202
▁tida	-13.8205
phon	-13.821
▁aph	-13.8212
din	-13.8222
▁leba	-13.8231
eto	-13.8233
▁olus	-13.8235
▁APS	-13.8237
hic	-13.8243
▁bout	-13.8248
▁rka	-13.825
▁barak	-13.8252
▁OCA	-13.8257
dhy	-13.8258
TANG	-13.8262
▁baw	-13.8266
▁MAM	-13.827
SPS	-13.8275
▁aze	-13.8278
▁emul	-13.8281
▁FIA	-13.8286
▁IMC	-13.8293
AIN	-13.8296
▁CIM	-13.8303
▁lza	-13.8304
▁DTP	-13.8325
▁BIM	-13.8329
auw	-13.8332
▁pli	-13.8332
rod	-13.8338
▁maz	-13.8341
▁RID	-13.8342
▁DNC	-13.8349
▁IW	-13.8351
▁15%	-13.8362
▁radl	-13.8365
▁BBRI	-13.8367
▁kzi	-13.8371
▁JH	-13.8372
▁OI	-13.8375
ISS	-13.8384
hol	-13.839
▁abon	-13.8396
▁SMS	-13.8398
▁JB	-13.8399
PPK	-13.8402
▁ASP	-13.8407
▁almer	-13.843
▁edri	-13.8433
▁PPT	-13.8437
▁haim	-13.8438
▁sho	-13.8441
▁yus	-13.8448
▁uppe	-13.8454
▁Zia	-13.8471
▁FOR	-13.8475
▁akpo	-13.8478
▁ön	-13.8482
▁swad	-13.8503
▁note	-13.851
▁ipha	-13.851
▁ME	-13.8513
▁Lab	-13.8529
▁moro	-13.853
SPP	-13.8542
▁arve	-13.8542
▁ukse	-13.8544
▁onth	-13.8545
▁armen	-13.8556
▁Bid	-13.8557
▁OJ	-13.8558
▁rove	-13.8569
▁ouri	-13.8574
lyn	-13.8586
▁renz	-13.8591
▁bume	-13.8594
▁ledo	-13.8603
▁REC	-13.8615
▁wiya	-13.8626
ALU	-13.864
ARS	-13.8641
▁aise	-13.8641
▁epik	-13.8648
rang	-13.8652
MSP	-13.8654
NP	-13.8661
▁DH	-13.8661
▁edup	-13.8662
▁KBM	-13.8667
▁RUA	-13.8686
▁arbi	-13.8694
▁siv	-13.8715
uji	-13.8715
▁aww	-13.8722
▁igni	-13.8725
▁rica	-13.8726
▁empas	-13.8729
▁GR	-13.875
▁uket	-13.8751
wen	-13.8754
ZI	-13.8754
FR	-13.8758
▁YK	-13.8764
ATE	-13.8778
EMI	-13.8779
▁foni	-13.878
▁YPA	-13.8788
▁resia	-13.8795
eron	-13.8804
▁LPD	-13.8808
mor	-13.8813
▁PKD	-13.883
▁JAN	-13.8835
▁OW	-13.8836
▁usna	-13.8836
▁asri	-13.8845
AJ	-13.8848
▁drie	-13.8857
▁nnida	-13.8862
▁LSPR	-13.8862
▁truc	-13.8862
▁LIGH	-13.8863
▁bwf	-13.8863
▁ISDA	-13.8863
▁±	-13.8863
▁carl	-13.8864
▁risye	-13.8866
AV	-13.8868
▁OKS	-13.8869
▁ONDO	-13.8873
▁ilqis	-13.8874
▁aheel	-13.8874
▁UMY	-13.8874
jan	-13.8875
ARM	-13.8876
HAM	-13.8876
▁erca	-13.8876
▁WR	-13.888
PUPR	-13.8884
▁utto	-13.8884
▁uldo	-13.8891
▁ODH	-13.8891
▁lied	-13.8895
▁IGA	-13.8898
▁INGA	-13.8901
▁YM	-13.8905
▁ugen	-13.8929
ELI	-13.8929
▁uites	-13.8931
EMU	-13.8935
YS	-13.8937
▁HC	-13.8942
▁bwe	-13.8944
FN	-13.8946
▁ayeu	-13.8954
▁WP	-13.8955
▁KOR	-13.8958
▁1)	-13.8962
▁occ	-13.8963
▁qdi	-13.8967
ukun	-13.897
▁uib	-13.8972
▁saks	-13.8973
IJ	-13.8976
MAX	-13.8976
CN	-13.8982
iff	-13.8983
▁edjo	-13.8997
▁rizz	-13.9001
▁IBC	-13.9004
moro	-13.901
▁trah	-13.9012
▁bubu	-13.9012
▁arsi	-13.9019
▁moral	-13.9025
▁Suc	-13.9038
▁smet	-13.9041
▁KTR	-13.9047
WAN	-13.9051
▁byte	-13.9057
▁ragh	-13.9062
▁shor	-13.9063
▁zaki	-13.9104
▁snan	-13.9105
PPA	-13.9107
lok	-13.9109
▁iori	-13.9109
▁THP	-13.9112
▁ANU	-13.9115
94	-13.9117
nie	-13.9127
ssen	-13.9129
▁ergo	-13.9141
▁dzir	-13.9142
▁NCL	-13.9146
▁ALI	-13.9146
▁sbi	-13.9147
▁ouf	-13.9149
▁arso	-13.9155
▁iffe	-13.9157
▁LB	-13.9159
▁HW	-13.9166
joe	-13.9168
▁erco	-13.9169
▁ICB	-13.917
▁ulen	-13.9195
▁anch	-13.9196
▁heat	-13.9196
▁SAI	-13.9211
bet	-13.9213
EW	-13.9216
▁JKS	-13.9218
▁umpun	-13.9218
▁sren	-13.9227
uth	-13.9229
▁rabi	-13.9235
▁ukha	-13.9247
▁zali	-13.9255
FJ	-13.926
▁erena	-13.9283
▁Moe	-13.9288
SKA	-13.9291
▁orata	-13.9299
▁aura	-13.9305
nza	-13.9312
ORP	-13.9314
▁hanas	-13.932
▁emai	-13.9325
▁eone	-13.9339
UB	-13.9339
▁GS	-13.934
▁xy	-13.9343
▁oA	-13.9351
▁alib	-13.9363
ál	-13.9363
ION	-13.9402
▁kund	-13.9406
▁PMO	-13.9409
▁PTI	-13.9412
KAL	-13.9416
▁SBD	-13.9422
PSP	-13.9428
▁rgin	-13.9432
▁sch	-13.9432
▁(2	-13.9435
▁IST	-13.9439
▁zil	-13.9444
▁MSI	-13.9452
▁ndin	-13.9453
djo	-13.9457
▁CON	-13.9458
jid	-13.9461
KMA	-13.9461
▁Moo	-13.9473
▁usuk	-13.9478
▁Duh	-13.9479
▁MIT	-13.9487
khy	-13.9488
▁mpin	-13.9492
▁TII	-13.9504
▁Juma	-13.9507
▁HN	-13.9513
▁ernia	-13.9515
FSR	-13.9529
▁eine	-13.953
▁guy	-13.9538
▁MVP	-13.9556
▁elz	-13.9557
OGO	-13.956
JD	-13.9568
vit	-13.957
▁reth	-13.9575
▁UBP	-13.9577
▁AUK	-13.9579
OVE	-13.9582
▁IBI	-13.9582
▁KSB	-13.9595
▁ajul	-13.9608
AMA	-13.9614
▁RSI	-13.9621
IZ	-13.9621
▁UTA	-13.9623
▁PDS	-13.9629
NTAR	-13.9638
ISB	-13.9638
▁duta	-13.964
▁ropo	-13.9649
▁EBON	-13.9664
▁sawa	-13.9665
UH	-13.9666
MPP	-13.9671
▁thes	-13.9671
▁SKT	-13.9691
▁ooke	-13.9694
®	-13.9695
▁NPWP	-13.9695
▁yrgy	-13.9695
▁PHEV	-13.9696
GORO	-13.9696
▁PLTB	-13.9697
▁ulfur	-13.9698
▁oksik	-13.9698
OMO	-13.9699
▁PPNS	-13.9705
LBI	-13.9708
▁ekraf	-13.9709
▁9%	-13.9709
▁enzi	-13.9709
NSP	-13.9713
▁etch	-13.9716
▁iño	-13.9723
▁pnot	-13.9725
▁wafa	-13.9727
TIK	-13.9731
▁gogo	-13.9734
▁itch	-13.9737
▁aghe	-13.9737
▁cide	-13.9738
▁BUM	-13.9739
▁PPD	-13.974
ORA	-13.9745
▁kype	-13.9748
▁athum	-13.9748
dry	-13.9748
▁emic	-13.9749
MY	-13.9752
▁ayy	-13.9752
▁TMD	-13.9765
▁EW	-13.9769
OLU	-13.9771
▁DPA	-13.9776
▁SPT	-13.9777
▁bloc	-13.9786
▁SPF	-13.9788
▁thu	-13.9789
▁etto	-13.9789
▁lmon	-13.9804
▁riq	-13.9805
▁PPJ	-13.9808
▁ajeg	-13.9808
▁jima	-13.9811
▁irc	-13.9813
▁lavor	-13.9816
▁SEL	-13.982
▁khon	-13.9822
squ	-13.9823
▁191	-13.9825
▁KLT	-13.9832
sos	-13.9835
▁crat	-13.9836
▁nst	-13.9847
fre	-13.9849
▁TRS	-13.985
▁PSC	-13.9853
ebre	-13.9854
▁luman	-13.9855
▁VK	-13.9858
▁uig	-13.9869
▁bach	-13.9871
OX	-13.9872
▁RBS	-13.9876
▁arol	-13.9877
▁VS	-13.9878
▁thic	-13.9882
▁rdjo	-13.9891
fur	-13.9894
▁uev	-13.9898
▁ouw	-13.9902
▁huw	-13.9903
▁fume	-13.9906
▁goy	-13.9907
▁agon	-13.9916
▁asif	-13.9922
MER	-13.9922
▁adha	-13.9923
▁dhu	-13.9928
▁3-	-13.993
▁118	-13.9959
▁LAN	-13.9961
▁PSP	-13.9965
▁rauj	-13.9978
PAL	-13.9983
▁euli	-13.9989
▁Bebe	-13.9991
▁ceu	-13.9993
▁IDC	-13.9997
▁KRA	-14.0009
▁goro	-14.001
▁SBU	-14.0012
▁avin	-14.0014
JK	-14.0022
▁eq	-14.0028
BPD	-14.0037
▁ABI	-14.0047
▁tick	-14.0064
▁smar	-14.0068
gar	-14.0093
▁Huma	-14.0103
▁SIL	-14.0123
IPI	-14.0124
lmon	-14.0129
▁WK	-14.0139
▁entor	-14.0148
▁212	-14.0154
▁FIK	-14.0163
▁urma	-14.0173
▁HT	-14.0173
▁lanka	-14.0183
▁utj	-14.0186
▁biri	-14.0195
ODA	-14.0206
▁haf	-14.0206
▁nly	-14.0213
▁eill	-14.0224
fon	-14.0227
vet	-14.023
ros	-14.0233
▁SAC	-14.0257
▁stag	-14.0257
▁ppre	-14.0261
GAT	-14.0266
▁BBK	-14.0275
TY	-14.0278
▁TPK	-14.029
▁tov	-14.029
▁diq	-14.0308
▁apet	-14.0315
AE	-14.0321
▁uva	-14.0337
▁enbi	-14.0343
▁Oz	-14.0358
▁raig	-14.0359
▁hic	-14.0363
▁undy	-14.0368
rty	-14.0372
orth	-14.0383
PII	-14.0385
▁hiz	-14.0406
▁erz	-14.0406
▁ayon	-14.0416
▁tadz	-14.0419
▁avil	-14.0421
▁iqui	-14.0427
▁ijo	-14.0433
5)	-14.0436
▁lips	-14.0437
▁onni	-14.0441
▁LKP	-14.0443
▁ARU	-14.0463
▁GPM	-14.0475
▁$3	-14.0475
▁(6	-14.0482
MSI	-14.05
HO	-14.0509
luxe	-14.0512
▁wint	-14.0518
▁CIKA	-14.0524
▁#1	-14.0531
▁bile	-14.0533
▁arvi	-14.0534
DG	-14.0544
CHA	-14.0561
ODC	-14.0564
▁BW	-14.0566
PRI	-14.0568
▁urge	-14.0573
FAD	-14.0577
▁RIA	-14.0577
°	-14.06
▁mikro	-14.0605
▁OLRI	-14.0605
▁UINSA	-14.0605
▁ODHA	-14.0605
▁ULP	-14.0605
▁ATRIA	-14.0606
PLP	-14.0608
▁nsula	-14.0614
▁ooney	-14.0614
▁UAJ	-14.0619
▁weran	-14.062
▁jipt	-14.0624
▁coco	-14.0626
▁avana	-14.0628
▁sody	-14.0629
▁imura	-14.0631
▁ayla	-14.0633
KTR	-14.0633
▁shem	-14.0635
▁hafi	-14.0637
▁AQ	-14.0654
▁CRM	-14.0654
▁XXX	-14.0655
▁yuan	-14.0659
USI	-14.066
▁AMG	-14.0668
▁pink	-14.067
ANJ	-14.0672
▁atmi	-14.0673
▁trust	-14.068
▁0%	-14.0683
Si	-14.0694
▁niq	-14.07
▁ZS	-14.0702
ENT	-14.0705
▁nezes	-14.0705
▁umbai	-14.0705
▁uche	-14.071
▁ayam	-14.071
▁UH	-14.0714
▁boga	-14.0718
▁TPB	-14.0719
▁ILC	-14.072
NIT	-14.0728
▁DSD	-14.0729
▁ruze	-14.0735
▁ELIT	-14.0735
▁oema	-14.0736
▁asma	-14.0744
▁TIK	-14.0751
▁yrus	-14.0757
NR	-14.0765
▁3.0	-14.0767
▁isch	-14.0768
▁orton	-14.0776
▁aqs	-14.0779
▁eV	-14.0781
▁jed	-14.0781
▁drom	-14.0782
▁PAP	-14.0782
▁MDB	-14.0787
▁bram	-14.0793
▁ogya	-14.0794
KEP	-14.08
▁LR	-14.0802
▁yne	-14.0803
▁einz	-14.081
▁MJ	-14.0813
▁kolo	-14.0818
▁PHI	-14.0818
▁JL	-14.0819
▁REM	-14.0822
zone	-14.0824
▁22.	-14.0834
▁artha	-14.0835
▁KUAL	-14.0836
tiga	-14.0837
▁BLU	-14.0839
▁FE	-14.0845
▁IPPI	-14.0849
▁DOS	-14.0853
zrum	-14.0873
▁BJ	-14.0885
▁urri	-14.089
▁riri	-14.0895
▁etti	-14.09
▁arpu	-14.0904
▁EDC	-14.0907
▁ouy	-14.091
▁ppen	-14.0913
▁upta	-14.0923
▁PER	-14.0932
▁NES	-14.0933
LIS	-14.0934
▁ahru	-14.0949
▁umay	-14.0964
▁ucha	-14.097
▁ASG	-14.0972
▁baib	-14.0976
▁ERS	-14.1004
LC	-14.1008
TJ	-14.1009
KJ	-14.1014
▁MAR	-14.1015
UC	-14.1019
▁Yeon	-14.1024
▁PFA	-14.1031
▁NDA	-14.1036
JE	-14.1036
▁bith	-14.1036
▁ihir	-14.1039
ö	-14.1046
▁SOS	-14.1061
▁IMO	-14.1072
▁taq	-14.1083
▁iQ	-14.1085
▁ncen	-14.1089
▁lja	-14.1091
▁sic	-14.1106
JPP	-14.1109
▁MSC	-14.1131
LED	-14.1144
▁esda	-14.115
hool	-14.1157
▁CNG	-14.1163
ross	-14.1168
▁irja	-14.1183
MPI	-14.1194
▁BTP	-14.1206
NT	-14.1211
maz	-14.1218
▁loro	-14.1233
KAR	-14.1242
▁RDN	-14.126
▁dhik	-14.1262
▁BUR	-14.1275
▁oras	-14.1275
▁avir	-14.1285
▁LAM	-14.1298
▁lq	-14.1301
ZH	-14.132
▁AND	-14.1332
▁unna	-14.134
▁KUB	-14.1349
vas	-14.1353
▁ubko	-14.1362
▁HAP	-14.1366
▁fira	-14.1375
gel	-14.1382
▁agy	-14.1394
▁idy	-14.1403
▁NEW	-14.1407
▁ahf	-14.1412
▁PII	-14.1414
▁ript	-14.1424
▁urf	-14.144
▁MLS	-14.1452
▁iev	-14.1461
nod	-14.1465
▁arth	-14.1466
▁alba	-14.1477
▁DF	-14.1487
PHD	-14.1501
▁yc	-14.1522
▁alee	-14.1522
▁nest	-14.1533
▁yf	-14.1535
RIM	-14.1535
▁DIK	-14.1537
UV	-14.1561
rach	-14.1562
▁osmo	-14.1566
▁CR	-14.1566
NAMA	-14.1568
▁murt	-14.1575
suf	-14.1585
▁NY	-14.1591
▁LIN	-14.1594
▁VIT	-14.1597
▁KRT	-14.1599
ZR	-14.1601
OHC	-14.1601
▁LAY	-14.1602
▁AGAMA	-14.1604
▁eback	-14.1605
▁omnia	-14.1606
▁McM	-14.1606
▁iradj	-14.1607
▁CCUS	-14.1607
▁WOCP	-14.1609
MAI	-14.1614
▁enzel	-14.1615
▁imbas	-14.1618
▁soed	-14.1619
▁ilex	-14.162
▁ECH	-14.1621
▁nkir	-14.1622
ESI	-14.1624
▁sowan	-14.1626
▁ZIS	-14.1627
▁RKP	-14.1628
▁RES	-14.1633
YO	-14.1634
▁onjo	-14.1635
SKO	-14.1635
▁bull	-14.1637
▁uwet	-14.1639
YC	-14.1641
▁pike	-14.165
INF	-14.1653
ahfu	-14.1653
▁licy	-14.1654
▁adolu	-14.1662
auf	-14.1664
▁paksa	-14.1666
▁hiwa	-14.1667
▁itsu	-14.1667
▁asrah	-14.1668
▁eef	-14.168
▁BSB	-14.168
IOS	-14.1681
▁UCO	-14.1686
▁EY	-14.1688
▁WJ	-14.1691
mel	-14.1703
▁KPH	-14.1708
GH	-14.171
▁SAB	-14.1713
▁eix	-14.1727
▁awur	-14.173
MZ	-14.174
fir	-14.1742
pre	-14.1743
▁weh	-14.1743
▁TSG	-14.175
TIC	-14.1761
▁ofur	-14.1768
▁dhli	-14.1772
▁smon	-14.1773
▁ozer	-14.1774
▁SSB	-14.1783
▁UNA	-14.1783
▁NOC	-14.179
PAM	-14.1792
▁yodo	-14.1795
▁elyn	-14.1795
▁BKK	-14.1805
▁DG	-14.1812
▁PBK	-14.1823
▁hill	-14.1827
▁TAM	-14.1832
gro	-14.184
▁ifai	-14.1856
▁FIN	-14.1865
ESA	-14.1871
▁ilde	-14.1871
▁nono	-14.1876
▁nzar	-14.1887
▁Metr	-14.1889
▁oum	-14.1897
FW	-14.19
▁bhar	-14.1904
▁KDM	-14.1906
▁litz	-14.1906
hoc	-14.1925
▁FB	-14.1927
▁rty	-14.1934
▁llin	-14.1935
▁andy	-14.1938
▁ICM	-14.1939
▁BCI	-14.1947
▁PDF	-14.1949
▁ppli	-14.1951
▁yto	-14.1957
▁TH	-14.1959
▁afsi	-14.1964
▁estra	-14.1967
WC	-14.198
▁ITC	-14.1984
ATS	-14.1986
▁holy	-14.1987
▁PBG	-14.1988
▁nhe	-14.1991
▁evin	-14.1993
▁DPTP	-14.1994
ukur	-14.2004
▁enra	-14.2004
▁SPS	-14.2015
▁nnu	-14.2017
▁NW	-14.2028
▁GL	-14.2028
RAN	-14.2029
▁ced	-14.203
▁ouv	-14.2038
lay	-14.2053
ppy	-14.2054
▁alve	-14.2059
▁TAS	-14.2063
▁def	-14.2064
▁KLH	-14.2067
heck	-14.2075
▁nthe	-14.2077
▁PV	-14.2084
PPN	-14.2089
fud	-14.209
fra	-14.2097
▁izz	-14.2097
dwin	-14.21
KSS	-14.2118
▁alila	-14.2122
▁SAL	-14.2134
bul	-14.2144
▁PMD	-14.2146
▁nli	-14.2153
▁PGS	-14.2167
edj	-14.2181
▁YO	-14.2188
▁rax	-14.2189
▁agel	-14.2191
DPU	-14.2192
IRO	-14.2199
We	-14.2214
▁pill	-14.2217
▁KPPB	-14.2227
▁FSP	-14.2261
ady	-14.2274
WJ	-14.2289
▁ADIN	-14.2294
▁ikte	-14.23
jar	-14.2313
▁poll	-14.2315
IAS	-14.2346
▁KKJ	-14.2357
VT	-14.2361
▁rewe	-14.2367
▁BBW	-14.2376
avi	-14.2384
SPI	-14.2397
wes	-14.2402
▁elip	-14.2403
▁eese	-14.2418
▁issu	-14.242
▁cio	-14.2429
INA	-14.2433
▁DPM	-14.2433
▁tegi	-14.2449
▁laps	-14.2458
▁BKH	-14.2478
▁nite	-14.2481
VE	-14.2482
▁AKS	-14.2501
▁CIB	-14.2502
▁abul	-14.251
▁edec	-14.2514
▁asra	-14.2516
OPI	-14.2516
▁ipon	-14.2519
▁ared	-14.252
▁RSD	-14.2522
▁NC	-14.2527
▁BSN	-14.2539
RVE	-14.2554
▁nano	-14.2579
▁NAT	-14.2593
MU	-14.2597
▁dato	-14.2598
▁edj	-14.2608
▁MRA	-14.2632
MRI	-14.2638
▁YPT	-14.2648
▁yuh	-14.2654
IX	-14.2654
▁avio	-14.2656
▁TKS	-14.2657
▁urkh	-14.2666
▁ANA	-14.2677
▁GPI	-14.2685
▁OMS	-14.2686
ZA	-14.2688
▁GIS	-14.2693
MTI	-14.2695
▁cula	-14.2697
▁HMS	-14.2698
▁thra	-14.2702
]	-14.2711
PPO	-14.2712
▁YY	-14.2712
MAC	-14.2713
▁QNET	-14.2715
▁(8)	-14.2715
▁PLUS	-14.2716
▁rlife	-14.2716
KAI	-14.2718
▁omogi	-14.2721
▁kikis	-14.2721
▁IDA	-14.2722
▁fobi	-14.2723
▁uage	-14.2723
▁iñ	-14.2724
RG	-14.2725
▁zade	-14.2727
▁UNW	-14.2727
▁Land	-14.2731
▁egera	-14.2731
▁roof	-14.2732
▁OB	-14.2734
▁uij	-14.2734
▁NYC	-14.2734
▁ersky	-14.2735
▁AAJ	-14.2737
▁APIK	-14.2739
▁iddo	-14.274
▁YR	-14.2742
lasi	-14.2744
▁GKAL	-14.2746
▁FD	-14.2746
▁omol	-14.2752
▁LCS	-14.2757
▁KCB	-14.276
YM	-14.2762
▁LAB	-14.277
▁PHDI	-14.2771
▁UPJ	-14.2771
▁zgi	-14.2773
▁THT	-14.2787
▁nnet	-14.2789
▁xf	-14.2791
▁BAT	-14.2792
▁tock	-14.2795
INK	-14.2798
SV	-14.2801
▁etta	-14.2804
aux	-14.2805
ACT	-14.2807
▁zrah	-14.2807
▁LOW	-14.2809
▁TKM	-14.2814
▁ssc	-14.2815
▁liff	-14.2822
▁THA	-14.2823
▁darma	-14.2826
▁PPRI	-14.2826
▁RAB	-14.2826
ém	-14.2827
▁auv	-14.2836
YT	-14.2842
▁INT	-14.2842
▁309	-14.2844
xw	-14.2862
▁Korup	-14.2877
▁inch	-14.2879
▁urc	-14.2885
PEM	-14.2888
dha	-14.289
▁uve	-14.2891
▁orgum	-14.2891
▁pher	-14.2893
▁IOS	-14.2903
xus	-14.2916
▁BRK	-14.2921
▁MSP	-14.2926
sé	-14.2935
▁VB	-14.2936
▁ROP	-14.2947
▁PUM	-14.295
PAD	-14.2951
▁KWI	-14.2952
▁CAR	-14.2957
▁yong	-14.2963
▁JJ	-14.2966
PER	-14.2972
▁USK	-14.2978
OE	-14.299
▁SNP	-14.2999
▁NL	-14.3
BCI	-14.301
AMM	-14.3013
▁RIO	-14.302
▁UND	-14.3022
▁zle	-14.3023
▁NV	-14.3026
RIA	-14.305
bumi	-14.3051
sari	-14.3052
TG	-14.3056
▁asw	-14.307
PEI	-14.3073
LPP	-14.3074
▁TGC	-14.3076
▁rq	-14.3083
ICH	-14.3084
▁zha	-14.3093
▁amon	-14.3096
ARN	-14.3106
DIH	-14.3112
▁wesi	-14.3119
▁epra	-14.3127
nch	-14.3134
▁BEL	-14.3139
moj	-14.3143
▁CL	-14.3158
iksa	-14.3167
▁dax	-14.3172
▁22%	-14.3175
▁glia	-14.3191
▁$8	-14.3195
▁ksh	-14.3203
▁AAL	-14.3211
▁FKM	-14.3226
ONE	-14.3228
▁$6	-14.3234
▁naji	-14.3252
LK	-14.3267
▁dell	-14.329
WU	-14.3291
▁eson	-14.3294
▁MPI	-14.3299
▁zri	-14.3306
▁vri	-14.3307
▁SOC	-14.331
▁PLAN	-14.3311
ext	-14.3316
▁INC	-14.3317
rac	-14.3327
IDA	-14.3331
▁YD	-14.3357
NH	-14.3367
▁PTV	-14.3368
▁203	-14.3387
▁oden	-14.339
SHI	-14.34
▁KNK	-14.3408
▁ochi	-14.3417
▁CSW	-14.3423
HAS	-14.3437
▁etel	-14.3448
▁OH	-14.3457
APD	-14.3458
nzo	-14.3466
▁DAP	-14.3467
▁navi	-14.3471
nett	-14.3476
RN	-14.3482
▁INS	-14.3491
fat	-14.3499
▁ipah	-14.35
▁IKU	-14.3515
▁kV	-14.3516
▁JTT	-14.3522
▁bley	-14.3527
▁CME	-14.3529
▁erty	-14.3535
▁BKPP	-14.3538
MKI	-14.3543
▁zaw	-14.3562
▁ILA	-14.3583
JJ	-14.3602
▁AHE	-14.3603
com	-14.3608
▁AMK	-14.3643
▁rott	-14.365
▁corn	-14.3654
▁TPM	-14.3673
té	-14.368
▁IAM	-14.3693
▁FORM	-14.3704
▁ATA	-14.3704
fiz	-14.3711
PKD	-14.3748
▁TIPA	-14.3826
UA	-14.3829
TES	-14.3838
▁urod	-14.3852
RPG	-14.3859
ucho	-14.387
oney	-14.3876
▁ijan	-14.3894
▁ussa	-14.3899
▁jel	-14.3907
VM	-14.3916
▁RSV	-14.3917
ONA	-14.3942
▁KLB	-14.3943
▁VF	-14.3944
ú	-14.396
ä	-14.3962
>	-14.3965
ã	-14.3965
′	-14.3965
ñ	-14.533
ó	-14.5389
ć	-14.5394
ı	-14.5394
×	-14.7061
ê	-14.7061
á	-14.8655
Ó	-14.9061
à	-14.9061
ô	-14.9061
⁠	-14.9061
Ç	-15.1561
Ü	-15.1561
ì	-15.1561
ş	-15.1561
😭	-15.1561
±	-15.4889
<	-15.4894
·	-15.4894
ø	-15.4894
−	-15.4894
ü	-15.98
ç	-15.9894
Á	-15.9894
Ä	-15.9894
Ö	-15.9894
ë	-15.9894
š	-15.9894
ğ	-16.9882
ā	-16.9883
ï	-16.9884
μ	-16.9884
⁄	-16.9885
\	-16.9886
`	-16.9887
â	-16.9888
£	-16.9889
*	-16.989
#	-16.989
@	-16.989
€	-16.989
_	-16.9891
%	-16.9892
[	-16.9893
ę	-16.9894
ư	-16.9894
(	-16.9894
Â	-16.9894
É	-16.9894
ð	-16.9894
ò	-16.9894
õ	-16.9894
Ā	-16.9894
İ	-16.9894
ķ	-16.9894
Ł	-16.9894
ł	-16.9894
ś	-16.9894
ơ	-16.9894
́	-16.9894
Α	-16.9894
Η	-16.9894
Τ	-16.9894
α	-16.9894
‍	-16.9894
≥	-16.9894
丽	-16.9894
安	-16.9894
洪	-16.9894
金	-16.9894
陈	-16.9894
🍌	-16.9894
😊	-16.9894
