<unk>	0
<s>	0
</s>	0
,	-3.06265
.	-3.19507
▁di	-4.01976
▁yang	-4.05669
▁dan	-4.15869
-	-4.85828
▁untuk	-4.95821
▁(	-5.05416
▁dengan	-5.08548
▁-	-5.14568
▁dari	-5.16528
▁ini	-5.17003
▁itu	-5.20939
)	-5.22967
",	-5.23827
▁pada	-5.26335
▁dalam	-5.26458
▁"	-5.3038
nya	-5.33063
▁	-5.37474
▁2024	-5.49639
▁ke	-5.6337
an	-5.69391
▁tidak	-5.70188
▁akan	-5.76777
▁tersebut	-5.76822
▁Indonesia	-5.77902
kan	-5.83445
i	-5.87763
▁juga	-5.9014
com	-5.91816
▁WIB	-5.95985
▁kata	-6.03815
▁menjadi	-6.11535
▁mengatakan	-6.1237
▁saat	-6.17218
▁bahwa	-6.17545
▁sebagai	-6.19752
▁oleh	-6.21339
▁ada	-6.21629
▁telah	-6.22151
▁tahun	-6.2605
▁bisa	-6.30368
▁kepada	-6.3533
▁jpnn	-6.35926
▁atau	-6.36479
▁lebih	-6.39472
▁mereka	-6.42264
▁Jakarta	-6.44517
▁se	-6.46917
▁satu	-6.47318
▁orang	-6.48103
▁sudah	-6.51447
▁karena	-6.52592
/	-6.5664
▁adalah	-6.57846
▁para	-6.58987
▁Kota	-6.59004
▁kami	-6.59034
▁masyarakat	-6.61164
▁ber	-6.61625
▁melakukan	-6.64111
▁hari	-6.67116
s	-6.67463
▁negara	-6.71627
▁terhadap	-6.72335
▁bagi	-6.7435
▁dapat	-6.77096
▁dia	-6.77942
▁secara	-6.81528
▁hingga	-6.82577
▁Selasa	-6.83388
:	-6.83666
▁Rabu	-6.84028
▁JAKARTA	-6.84696
▁Senin	-6.86457
▁Dia	-6.86845
jpnn	-6.87126
▁setelah	-6.87633
▁Kamis	-6.88149
▁merupakan	-6.88566
▁dua	-6.90337
▁seperti	-6.91402
▁baru	-6.91423
▁Kabupaten	-6.94373
▁Jumat	-6.94555
▁P	-6.94858
▁warga	-6.95011
▁masih	-6.95906
▁harus	-6.96877
▁beberapa	-6.978
▁saya	-6.98
▁serta	-6.98228
▁dilakukan	-6.98282
▁S	-6.98643
▁memberikan	-6.99165
n	-6.99815
▁M	-6.99963
a	-7.00935
▁Di	-7.01449
▁Jawa	-7.02438
▁banyak	-7.03879
▁K	-7.04323
▁lalu	-7.04937
▁atas	-7.04987
▁Presiden	-7.05112
▁hanya	-7.05813
▁korban	-7.06267
▁Israel	-7.06781
▁2024.	-7.07071
▁Bali	-7.07236
"	-7.07289
▁besar	-7.07476
▁memiliki	-7.07938
▁anak	-7.09638
▁terjadi	-7.09779
▁ujar	-7.10164
▁Ketua	-7.10197
▁bersama	-7.11523
▁selama	-7.11838
▁melalui	-7.13809
▁baik	-7.13938
▁rumah	-7.14452
▁sangat	-7.14829
▁salah	-7.16688
▁kasus	-7.19106
▁pemerintah	-7.21361
▁Rp	-7.2275
▁wilayah	-7.2288
▁1	-7.23106
▁Sabtu	-7.23297
▁kita	-7.23856
▁sama	-7.24906
▁Barat	-7.268
▁tetapi	-7.27107
▁lain	-7.27132
▁Namun	-7.2726
▁Minggu	-7.28103
buah	-7.28439
▁kembali	-7.28442
▁Prabowo	-7.28584
▁terus	-7.28742
▁AS	-7.29313
▁terkait	-7.29648
▁persen	-7.3206
▁agar	-7.3423
▁PT	-7.34814
▁seluruh	-7.35368
▁tiga	-7.36852
▁sekitar	-7.36942
▁daerah	-7.38307
▁Se	-7.387
▁B	-7.38927
▁hal	-7.39666
▁meng	-7.3992
▁program	-7.40752
▁berbaga	-7.41454
▁Selatan	-7.41597
▁pun	-7.42261
▁lainnya	-7.42721
▁Menurut	-7.43604
▁dunia	-7.4455
▁calon	-7.44606
▁Menteri	-7.44717
▁tim	-7.45029
▁A	-7.45331
▁Dalam	-7.45374
▁hasil	-7.45805
▁belum	-7.46235
▁pertama	-7.46785
▁antara	-7.47537
▁tentang	-7.47826
e	-7.48387
▁Kepala	-7.48561
▁sedang	-7.48805
▁kerja	-7.49153
▁Surabaya	-7.49837
▁Bandung	-7.51887
▁semua	-7.52193
▁RI	-7.52705
▁pihak	-7.52752
▁termasuk	-7.53134
".	-7.5396
▁pelaku	-7.5402
▁2	-7.54111
).	-7.54179
▁sejumlah	-7.54498
▁Timur	-7.54845
▁Ini	-7.55252
▁langsung	-7.55253
▁Partai	-7.55285
▁China	-7.55874
▁tak	-7.56035
▁membuat	-7.5622
▁hukum	-7.57193
1	-7.57569
▁sejak	-7.58284
▁Pilkada	-7.58362
▁Tengah	-7.58792
▁I	-7.59209
▁kedua	-7.59455
▁anggota	-7.59586
),	-7.60118
2	-7.60127
▁ter	-7.60172
▁suara	-7.60954
▁waktu	-7.61373
▁kali	-7.61914
▁seorang	-7.62204
▁bagian	-7.62383
3	-7.62537
▁mendukung	-7.62603
▁katanya	-7.62847
▁sehingga	-7.64248
▁bulan	-7.64402
▁depan	-7.6446
'	-7.65035
▁kota	-7.66085
▁serangan	-7.66121
▁menyampaikan	-7.6627
t	-7.66479
▁tempat	-7.66754
▁mulai	-7.66921
▁Selain	-7.67863
▁saja	-7.67946
▁Amerika	-7.68557
5	-7.68768
▁meningkatkan	-7.68853
▁lagi	-7.69638
▁Pada	-7.69669
▁per	-7.70092
▁[	-7.70232
]	-7.70695
▁perusahaan	-7.71098
▁proses	-7.7128
▁ketika	-7.71377
▁politik	-7.71568
▁3	-7.71839
▁menggunakan	-7.72288
▁juta	-7.73134
k	-7.73198
▁malam	-7.73474
o	-7.73985
▁10	-7.7403
▁menjelaskan	-7.75243
▁Rusia	-7.75363
▁media	-7.75511
▁tetap	-7.75573
▁tinggi	-7.756
▁kesehatan	-7.76145
▁yakni	-7.76206
▁penting	-7.76342
▁Umum	-7.76497
▁menyebut	-7.76593
▁Hal	-7.7712
▁bukan	-7.77504
▁Oktober	-7.7767
▁kegiatan	-7.78266
▁Gubernur	-7.78986
▁diri	-7.79128
▁masa	-7.79298
▁D	-7.79362
▁Kecamatan	-7.79828
?	-7.8002
4	-7.80027
▁U	-7.80054
▁ingin	-7.80126
▁upaya	-7.80269
▁tersangka	-7.8076
▁air	-7.81117
y	-7.8115
▁Kami	-7.81297
▁berada	-7.81485
▁Kementerian	-7.81711
▁pemain	-7.8213
7	-7.82181
▁luar	-7.82608
▁mendapatkan	-7.82608
▁apa	-7.8261
▁kemudian	-7.82703
▁sampai	-7.83071
▁November	-7.836
▁Juli	-7.84011
▁mencapai	-7.84575
▁presiden	-7.84858
▁Wakil	-7.85753
▁masuk	-7.86166
▁sebelumnya	-7.86328
▁sosial	-7.86768
▁Tahun	-7.86792
▁Semarang	-7.86883
8	-7.87121
▁acara	-7.87174
▁Gaza	-7.87315
S	-7.87735
▁perempuan	-7.87787
▁membantu	-7.8869
▁kawasan	-7.8895
▁Bogor	-7.89315
▁jadi	-7.89438
▁Sementara	-7.89766
▁Direktur	-7.89794
▁Polda	-7.90595
▁mengaku	-7.90875
▁Utara	-7.90945
▁20	-7.91229
▁produk	-7.91383
6	-7.91563
▁Agustus	-7.91584
▁nomor	-7.91661
▁pukul	-7.91687
▁Jalan	-7.91703
▁Nasional	-7.91882
▁menyatakan	-7.9192
▁mengalami	-7.91957
▁Badan	-7.92429
▁Mei	-7.92597
▁pasangan	-7.92633
▁Foto	-7.92935
▁terakhir	-7.93022
9	-7.9311
▁Jadi	-7.93275
▁dukungan	-7.93707
▁ekonomi	-7.93732
▁menunjukkan	-7.94038
▁Desa	-7.94117
▁bantuan	-7.94811
▁memastikan	-7.94868
▁Juni	-7.95184
▁meminta	-7.95492
▁September	-7.95496
▁jika	-7.9557
▁PPPK	-7.95699
▁lokasi	-7.9585
▁Tim	-7.95905
Kami	-7.95971
▁Desember	-7.96083
▁keluarga	-7.96248
in	-7.96433
▁Saya	-7.97362
▁berlangsung	-7.97746
▁DPR	-7.97984
▁Pemerintah	-7.98135
▁tengah	-7.98188
▁G	-7.98428
▁Januari	-7.98794
▁berhasil	-7.98835
▁Negeri	-7.98912
▁12	-7.98979
▁mana	-7.99536
▁asal	-7.99572
tiap	-8.00594
P	-8.00751
▁laga	-8.00827
▁United	-8.00839
▁empat	-8.00886
▁April	-8.01419
▁partai	-8.01792
▁T	-8.01952
▁Timnas	-8.0217
orang	-8.02193
▁ia	-8.02411
▁Jokowi	-8.02418
▁jalan	-8.02687
▁polisi	-8.02715
▁soal	-8.02837
▁sesuai	-8.03297
▁ujarnya	-8.03631
▁berharap	-8.03977
▁sebesar	-8.04025
▁resmi	-8.04136
p	-8.04248
▁pihaknya	-8.04439
▁me	-8.05303
▁pernah	-8.05304
▁sendiri	-8.05358
▁gambar	-8.05443
▁H	-8.05457
▁jumlah	-8.05497
▁melihat	-8.05513
▁kelompok	-8.05915
▁Liga	-8.05999
▁kondisi	-8.06258
▁maupu	-8.0626
▁Trump	-8.06872
▁bekerja	-8.06943
▁Maret	-8.07227
▁utama	-8.077
▁Hari	-8.07767
▁Ukraina	-8.08242
K	-8.08552
▁informasi	-8.08598
ing	-8.0887
▁Asia	-8.08919
d	-8.09013
▁Mereka	-8.09083
0	-8.09174
▁Polres	-8.09878
▁lingkungan	-8.09939
▁Daerah	-8.09984
▁15	-8.10327
▁C	-8.10346
▁tanpa	-8.1076
er	-8.10767
▁barang	-8.10918
▁yaitu	-8.10936
▁militer	-8.10996
▁Ada	-8.11209
▁mobil	-8.12071
▁Provinsi	-8.12087
▁sebelum	-8.12111
▁menerima	-8.12407
▁Ber	-8.12674
r	-8.12886
▁laporan	-8.12931
▁&	-8.13035
▁kendaraan	-8.13093
▁hadir	-8.13202
▁membawa	-8.13278
▁bakal	-8.13432
▁Anda	-8.13524
▁Komisi	-8.13574
▁sebanyak	-8.13672
▁nasional	-8.13704
▁5	-8.13825
▁Korea	-8.13913
R	-8.13926
▁Iran	-8.14101
▁awal	-8.14254
▁layanan	-8.14281
▁adanya	-8.14325
▁Pemilu	-8.14385
▁Para	-8.15094
▁uang	-8.15196
▁KPU	-8.15222
▁keamanan	-8.15227
▁dugaan	-8.15368
▁mengungkapkan	-8.15539
h	-8.15626
▁lanjut	-8.16005
▁mengenai	-8.16037
▁perlu	-8.16057
A	-8.16073
▁4	-8.16208
▁melawan	-8.16332
▁TNI	-8.16584
▁paling	-8.16623
si	-8.16835
▁kepala	-8.17056
▁dirinya	-8.17181
▁R	-8.17813
▁menggelar	-8.1788
▁16	-8.17992
▁kini	-8.18321
▁masalah	-8.1833
▁pendidikan	-8.18695
▁perang	-8.18735
▁menjaga	-8.18814
▁Serikat	-8.18912
▁Piala	-8.18966
▁muda	-8.19135
▁menurut	-8.19322
▁menghadapi	-8.19814
▁Saat	-8.19868
▁bawah	-8.20009
▁Al	-8.20059
▁industri	-8.20912
▁s	-8.21231
B	-8.21236
▁pertandingan	-8.21266
▁nama	-8.21447
▁lima	-8.2153
ta	-8.21641
▁14	-8.21993
▁cukup	-8.22028
▁Ia	-8.22742
▁memang	-8.22873
▁Anies	-8.23005
▁pembangunan	-8.231
l	-8.23119
M	-8.23244
▁keterangan	-8.23407
▁Pusat	-8.23618
▁sementara	-8.23824
▁segera	-8.24097
▁bukti	-8.2427
▁surat	-8.24463
▁KPK	-8.24475
m	-8.2464
▁kampanye	-8.24709
▁men	-8.24713
▁langkah	-8.24714
▁data	-8.24882
▁harga	-8.24953
▁Negara	-8.25249
▁mungkin	-8.25824
▁urut	-8.25826
▁senjata	-8.25984
▁negeri	-8.26134
▁2023	-8.26159
▁akibat	-8.26625
▁Papua	-8.26727
al	-8.26936
▁jelas	-8.27219
▁Stadion	-8.27256
▁Universitas	-8.27258
lah	-8.2735
anak	-8.27353
▁Kantor	-8.27422
▁digelar	-8.27937
▁tingkat	-8.28192
▁mampu	-8.28282
▁kebijakan	-8.28351
▁18	-8.28509
▁19	-8.28593
▁sekolah	-8.28805
▁11	-8.28818
▁mendapat	-8.2891
T	-8.28965
di	-8.29066
▁'	-8.29599
▁mantan	-8.29768
▁Ahmad	-8.2982
▁mem	-8.2996
▁Setelah	-8.30036
▁internasional	-8.30089
▁hak	-8.30188
▁Palestina	-8.30504
▁17	-8.30514
▁kebutuhan	-8.30538
▁30	-8.30603
▁umum	-8.30997
▁lama	-8.31533
▁pejabat	-8.31886
▁pekan	-8.32138
▁miliar	-8.32323
▁Keterangan	-8.32382
u	-8.32525
▁Solo	-8.32616
▁pemilu	-8.32732
▁Ke	-8.32805
ka	-8.32849
▁Polisi	-8.32955
▁7	-8.33551
▁Ganjar	-8.3358
▁datang	-8.336
▁Bea	-8.33605
▁Cukai	-8.3392
▁Polri	-8.34103
▁punya	-8.34153
▁sistem	-8.34158
▁akhir	-8.34216
▁meninggal	-8.34533
▁13	-8.34675
▁sekaligus	-8.34785
▁mendorong	-8.34786
▁2024,	-8.3482
▁pernyataan	-8.35649
▁makanan	-8.36045
▁hujan	-8.36132
▁Depok	-8.36775
▁diduga	-8.36784
▁sakit	-8.36833
▁akhirnya	-8.36914
▁bahkan	-8.36925
▁publik	-8.37067
▁ungkap	-8.37076
▁Bupati	-8.37248
▁F	-8.37296
▁siap	-8.37364
▁tanah	-8.37545
us	-8.37759
▁pemimpin	-8.38331
▁Hamas	-8.38553
▁guru	-8.38647
▁ribu	-8.38661
▁Februari	-8.38687
▁Untuk	-8.38897
▁menilai	-8.39004
▁listrik	-8.39287
▁kejadian	-8.39537
▁cara	-8.40099
▁digunakan	-8.40433
▁menegaskan	-8.40874
▁Biden	-8.4088
▁kalau	-8.41128
▁ditemukan	-8.41183
▁Persib	-8.41185
▁ibu	-8.41257
ar	-8.41333
▁pasar	-8.41405
▁Bank	-8.41422
▁menuju	-8.41433
▁wakil	-8.41527
▁N	-8.41596
▁menambahkan	-8.4167
▁kapal	-8.41672
▁Nomor	-8.41806
ah	-8.4181
▁berjalan	-8.41885
na	-8.4223
▁teknologi	-8.42432
▁motor	-8.42569
▁hidup	-8.42648
▁peserta	-8.42927
▁tewas	-8.43305
▁Jatim	-8.43377
▁24	-8.43579
▁DKI	-8.43626
▁petugas	-8.43684
▁Jepang	-8.43696
▁aksi	-8.43758
▁Baru	-8.43938
▁Deng	-8.44283
▁Wali	-8.44974
▁Adapun	-8.45232
▁tahu	-8.45308
▁pemerintahan	-8.45316
▁sempat	-8.45345
▁21	-8.45476
▁Banten	-8.45835
▁terutama	-8.46251
▁sebagian	-8.46255
▁musim	-8.46452
▁pemeriksaan	-8.46579
▁meraih	-8.46705
▁25	-8.46721
▁Eropa	-8.46835
ng	-8.46923
▁pers	-8.47057
usia	-8.47071
▁Salah	-8.4713
▁periode	-8.47162
semakin	-8.47201
▁khusus	-8.47557
▁Pertamina	-8.47563
▁diberikan	-8.47637
▁Jenderal	-8.47754
▁rasa	-8.47794
▁Kemudian	-8.47851
▁of	-8.48012
▁Program	-8.4871
▁Calon	-8.48774
▁22	-8.48799
▁jatim	-8.48815
▁The	-8.48987
▁berinisial	-8.49015
▁Subianto	-8.49148
▁cepat	-8.49371
is	-8.49501
▁sektor	-8.49539
▁cuaca	-8.49685
▁korupsi	-8.49763
▁mengikuti	-8.49819
ri	-8.49905
▁desa	-8.5025
▁selalu	-8.50303
▁ketiga	-8.50447
▁membangun	-8.50767
▁maka	-8.51002
▁bisnis	-8.51108
▁memberi	-8.51242
da	-8.51263
▁perubahan	-8.51317
▁meningkat	-8.51498
▁Dinas	-8.51528
C	-8.51563
▁rakyat	-8.5166
▁ucap	-8.51746
▁mendatang	-8.51785
G	-8.52113
▁jabar	-8.52411
▁usaha	-8.52515
▁terbaik	-8.52766
▁Jabar	-8.52867
▁jam	-8.52913
▁mahasiswa	-8.52972
D	-8.53398
▁Jateng	-8.53594
▁pemilihan	-8.53597
▁milik	-8.536
▁mau	-8.53612
▁pertemuan	-8.53668
▁kantor	-8.53687
▁bentuk	-8.53709
▁video	-8.53745
▁23	-8.53756
▁film	-8.53967
I	-8.54121
▁6	-8.54184
▁tindakan	-8.54262
▁FC	-8.5461
▁Agung	-8.54788
▁kesempatan	-8.55256
H	-8.55292
▁nanti	-8.55515
▁jauh	-8.55696
▁hubungan	-8.55762
▁p	-8.55764
ti	-8.55766
▁PBB	-8.55775
▁peningkatan	-8.55789
▁Tak	-8.56161
▁Tidak	-8.56232
▁jenis	-8.56316
Gibran	-8.56323
▁terbaru	-8.56329
▁Gibran	-8.56389
▁disampaikan	-8.56593
▁ikut	-8.56606
▁udara	-8.56869
▁terpilih	-8.57009
▁membuka	-8.57081
▁posisi	-8.57134
Saya	-8.57269
▁Inggris	-8.57376
▁keputusan	-8.57475
▁potensi	-8.57576
▁kurang	-8.57747
▁Dewan	-8.57878
▁memilih	-8.57951
▁enam	-8.57967
at	-8.58017
▁kuat	-8.58044
▁27	-8.58123
▁seusai	-8.58174
▁mengambil	-8.58195
▁bahan	-8.58246
▁komitmen	-8.58499
▁daya	-8.58757
▁tinggal	-8.58765
▁E	-8.58991
▁kemenangan	-8.59015
▁kecil	-8.59021
▁menjalani	-8.59126
▁begitu	-8.59203
▁Golkar	-8.59355
▁tenaga	-8.59433
▁UMKM	-8.59549
▁Denpasar	-8.59871
▁pria	-8.60018
▁merasa	-8.60098
▁terlibat	-8.60165
▁Rumah	-8.60248
▁saksi	-8.60278
▁Pemilihan	-8.60363
▁dekat	-8.60515
▁memenuhi	-8.60839
▁melaporkan	-8.60868
▁perjalanan	-8.60882
▁penuh	-8.60921
▁nilai	-8.61252
▁online	-8.61373
▁L	-8.61399
▁pusat	-8.61499
▁bidang	-8.61612
▁Warga	-8.61843
▁V	-8.6195
▁biasa	-8.61961
▁berdasarkan	-8.62172
▁poin	-8.6219
▁PDIP	-8.62497
▁Dari	-8.62684
b	-8.62827
▁ditangkap	-8.63143
▁satunya	-8.63286
▁8	-8.636
▁operasi	-8.63685
la	-8.63743
to	-8.63847
▁fasilitas	-8.63908
▁Menurutnya	-8.64023
▁khususnya	-8.64072
▁Australia	-8.64441
▁lembaga	-8.6449
negara	-8.64525
ma	-8.64555
▁ASN	-8.64602
▁aman	-8.64645
▁sumber	-8.6469
▁turun	-8.64755
▁maju	-8.64905
▁bagaimana	-8.64974
▁Hukum	-8.65017
▁Raya	-8.65294
▁positif	-8.65453
▁sekarang	-8.65459
▁gol	-8.65474
▁menit	-8.6556
▁Gedung	-8.65611
▁Jaya	-8.65736
▁global	-8.65843
▁digital	-8.65848
▁honorer	-8.65851
▁Dunia	-8.6601
▁Riau	-8.66014
▁Utama	-8.66489
▁banjir	-8.66498
▁pekerja	-8.66625
▁menemukan	-8.66641
▁Perjuangan	-8.66653
masing	-8.66826
▁total	-8.67041
▁Besar	-8.67365
▁keras	-8.67442
▁pagi	-8.67532
▁gubernur	-8.67843
▁penghargaan	-8.68004
▁bermain	-8.6818
F	-8.68267
▁unit	-8.68267
▁kekerasan	-8.68336
▁laut	-8.68804
on	-8.68913
▁Pak	-8.69277
ur	-8.69437
▁bali	-8.69476
▁setempat	-8.69575
▁hampir	-8.69642
▁pidana	-8.69961
▁Pelatih	-8.70284
ra	-8.70723
▁antaranya	-8.70781
▁Dua	-8.70784
▁lapangan	-8.70877
▁Republik	-8.71121
J	-8.71224
▁berita	-8.71441
▁masing	-8.71441
▁Yogyakarta	-8.71463
▁dampak	-8.71473
▁angka	-8.71855
▁menyebabkan	-8.72125
▁Budi	-8.72233
▁ya	-8.72442
ter	-8.72475
▁28	-8.72583
▁energi	-8.72639
▁J	-8.72829
▁namun	-8.73055
▁pemilih	-8.73141
▁menjelang	-8.73143
sepanjang	-8.73481
▁26	-8.738
▁sipil	-8.73822
▁Muhammad	-8.73936
▁DPRD	-8.74308
▁pelanggaran	-8.74546
▁menang	-8.74689
▁memperkuat	-8.74769
▁Joko	-8.74856
▁naik	-8.749
▁manusia	-8.74949
▁lintas	-8.74959
▁menyebutkan	-8.75117
▁menarik	-8.75122
▁lokal	-8.75202
▁29	-8.7533
▁turut	-8.75362
▁jalur	-8.75908
▁Ter	-8.76105
▁fokus	-8.76228
▁jawab	-8.76356
▁berbeda	-8.76438
ab	-8.76501
▁mencari	-8.76689
▁PDI	-8.76771
▁O	-8.77062
▁menghadirkan	-8.77128
▁tapi	-8.7713
▁bertemu	-8.77223
▁mudah	-8.77246
▁dana	-8.7727
▁perkara	-8.77316
▁kualitas	-8.77394
▁benar	-8.77491
▁sisi	-8.77589
▁Kesehatan	-8.77749
en	-8.77981
▁demikian	-8.78035
▁narkoba	-8.78125
▁kemungkinan	-8.78205
▁sekali	-8.7842
▁kemarin	-8.7856
▁demi	-8.7857
▁menciptakan	-8.78734
▁pasukan	-8.78888
▁bicara	-8.79004
▁Anak	-8.79132
▁target	-8.79215
▁dimulai	-8.79365
▁terdapat	-8.79732
▁diketahui	-8.79818
▁keuangan	-8.8
▁muncul	-8.80103
▁keterangannya	-8.80121
▁Widodo	-8.80273
▁menteri	-8.80379
N	-8.80423
▁guna	-8.80464
▁Karena	-8.80481
▁peran	-8.80514
lan	-8.80535
▁ajang	-8.80645
▁Anggota	-8.80745
▁Sebelumnya	-8.80843
▁asing	-8.80918
▁berat	-8.81086
▁Kerja	-8.81193
▁Luar	-8.81197
▁UU	-8.81289
▁isu	-8.81298
▁pembunuhan	-8.81306
▁kan	-8.8143
▁tuturnya	-8.81435
▁rencana	-8.81462
▁ruang	-8.816
▁dini	-8.81629
▁DPP	-8.81656
▁pengembangan	-8.81685
▁Agus	-8.81757
se	-8.81836
▁tangan	-8.81848
▁luas	-8.81994
▁kecelakaan	-8.82031
▁Lebih	-8.82034
as	-8.82161
▁Kombes	-8.82302
▁disebut	-8.82527
uh	-8.82547
▁Masyarakat	-8.82605
▁organisasi	-8.82624
▁Itu	-8.82692
▁pertumbuhan	-8.82769
▁Pilpres	-8.82884
▁Bidang	-8.83051
▁Malang	-8.8307
▁ilegal	-8.83144
▁X	-8.83468
▁Sumatera	-8.83533
▁Humas	-8.83658
;	-8.83709
▁Aceh	-8.83717
nilai	-8.83748
ul	-8.83811
▁akses	-8.83817
▁ucapnya	-8.839
▁pesawat	-8.84009
▁bernama	-8.84024
▁melaksanakan	-8.84088
▁mengumumkan	-8.84183
▁tiba	-8.84254
▁tubuh	-8.84371
▁diharapkan	-8.84373
▁panjang	-8.84754
▁api	-8.84971
▁emas	-8.85091
▁pelaksanaan	-8.85265
NG	-8.85338
▁Tangerang	-8.85716
▁tanggal	-8.85869
▁pengalaman	-8.86009
▁bangsa	-8.86019
▁II	-8.86137
ya	-8.86139
el	-8.86204
▁area	-8.86259
▁situasi	-8.86304
▁dikenal	-8.86487
▁melibatkan	-8.86584
le	-8.86651
▁makan	-8.86793
▁apakah	-8.86795
▁Bawaslu	-8.8686
▁penyakit	-8.8708
▁aturan	-8.87102
▁AKBP	-8.87267
▁Satu	-8.87294
▁pangan	-8.87386
g	-8.87457
▁produksi	-8.87463
▁Demokrat	-8.87553
▁SURABAYA	-8.87561
▁kepolisian	-8.87561
▁memimpin	-8.87561
▁makin	-8.87576
▁Pengadilan	-8.87667
▁Arab	-8.8769
man	-8.87696
▁kasih	-8.87876
▁tujuan	-8.87883
▁titik	-8.87988
▁Per	-8.88
▁sering	-8.88083
▁alias	-8.88152
▁Pendidikan	-8.88357
▁manfaat	-8.88569
▁putusan	-8.88623
em	-8.88634
▁tantangan	-8.88659
▁pengguna	-8.88688
diri	-8.88708
id	-8.88891
▁terlihat	-8.89048
▁alat	-8.89108
▁peluang	-8.89146
▁Sekretaris	-8.89149
▁lewat	-8.89166
▁Laut	-8.89213
▁Meski	-8.89447
L	-8.89492
W	-8.89501
re	-8.89636
▁diterima	-8.89661
▁Kalau	-8.89838
▁sidang	-8.89862
▁Sebagai	-8.89928
▁sana	-8.90104
▁personel	-8.90147
▁terbesar	-8.90367
▁budaya	-8.90563
▁survei	-8.90664
UNG	-8.90691
▁bola	-8.90755
▁Islam	-8.90948
▁melanjutkan	-8.91058
▁tugas	-8.91223
▁dibandingkan	-8.91247
▁kepentingan	-8.91273
▁tepat	-8.91289
▁anggaran	-8.91466
▁Dan	-8.91533
▁mencatat	-8.91568
▁tegas	-8.91654
ang	-8.91694
▁9	-8.91698
ro	-8.91862
▁Dr	-8.92062
▁Kasus	-8.92103
▁berupa	-8.92169
▁triliun	-8.92286
▁bencana	-8.923
or	-8.92367
▁proyek	-8.92514
▁berkomitmen	-8.92804
▁usia	-8.92842
▁enggak	-8.9301
▁sang	-8.93023
ku	-8.93134
▁berasal	-8.93136
▁Re	-8.93157
▁arah	-8.93205
▁tokoh	-8.93288
▁seleksi	-8.93425
▁mengajak	-8.93425
▁konflik	-8.93435
▁badan	-8.93471
▁tujuh	-8.93529
▁aktif	-8.93667
▁02	-8.93851
c	-8.94267
▁strategis	-8.94351
▁31	-8.94351
E	-8.94548
▁pelayanan	-8.94586
▁investasi	-8.94799
▁Air	-8.95398
▁konferensi	-8.95424
▁Lampung	-8.95431
▁lahan	-8.95732
▁Palembang	-8.95848
▁terbuka	-8.95964
tan	-8.96049
▁sehat	-8.962
▁Ali	-8.96381
▁Jerman	-8.96389
▁luka	-8.96404
ja	-8.96422
▁provinsi	-8.96607
▁formasi	-8.96618
▁dilaksanakan	-8.96921
▁Oleh	-8.97061
▁pilihan	-8.97064
▁jelasnya	-8.97134
▁dilaporkan	-8.97136
f	-8.97305
▁and	-8.97368
▁DPD	-8.97414
▁01	-8.97473
▁babak	-8.9757
▁solusi	-8.97691
▁penjara	-8.97795
▁penumpang	-8.97896
▁BMKG	-8.97931
▁pasti	-8.97964
▁Korupsi	-8.9823
▁Bekasi	-8.98456
▁BUMN	-8.98479
▁alasan	-8.98549
▁Pasal	-8.98628
▁keluar	-8.98675
▁tua	-8.98735
▁gratis	-8.98774
▁Nusantara	-8.9888
▁perdana	-8.98998
▁dianggap	-8.9907
▁penggunaan	-8.99291
▁latihan	-8.99328
tujuan	-8.99438
▁musik	-8.99443
▁berusaha	-8.99549
▁tindak	-8.99746
▁akun	-8.99829
▁100	-9.00093
▁kunjungan	-9.00099
▁Si	-9.00194
▁aktivitas	-9.00215
▁pentingnya	-9.00423
▁ternyata	-9.00432
▁Mahkamah	-9.00549
▁Prancis	-9.00549
▁biaya	-9.00554
▁kinerja	-9.00852
▁sampah	-9.00891
▁Ibu	-9.00969
mi	-9.00987
▁BRI	-9.0116
▁mata	-9.01184
▁berupaya	-9.01371
es	-9.01492
▁mengungkap	-9.01605
▁Metro	-9.0167
▁pendaftaran	-9.01818
et	-9.01946
▁menolak	-9.02008
▁generasi	-9.02136
▁tampil	-9.02541
▁siswa	-9.02588
▁India	-9.02618
▁jabatan	-9.02779
▁peristiwa	-9.02815
ke	-9.02992
▁menangkap	-9.03037
ber	-9.03118
▁sini	-9.03275
▁aplikasi	-9.03281
▁final	-9.03308
▁ialah	-9.03448
▁wartawan	-9.03493
eberapa	-9.03536
▁lagu	-9.03546
▁hukuman	-9.03581
▁Kalimantan	-9.03609
▁Filipina	-9.03615
▁semangat	-9.03729
▁ditetapkan	-9.03839
▁Gerindra	-9.03845
▁jaringan	-9.03856
▁penyelidikan	-9.03867
▁Sumber	-9.03958
▁lantaran	-9.0407
▁demokrasi	-9.04326
▁PP	-9.0448
▁Tri	-9.04523
▁50	-9.0479
sama	-9.04802
li	-9.04844
▁petani	-9.04886
▁Undang	-9.0498
ir	-9.05
▁Ramadan	-9.05006
▁hakim	-9.05032
▁pesan	-9.0514
▁Instagram	-9.05243
▁pelatih	-9.05367
▁pertahanan	-9.05473
▁Sebanyak	-9.05734
▁pimpinan	-9.05823
▁Ilustrasi	-9.05838
▁tentu	-9.05931
▁mengetahui	-9.06059
▁Berdasar	-9.06069
▁memenangkan	-9.06099
▁paslon	-9.06116
▁Mas	-9.06256
▁selatan	-9.06301
ko	-9.06305
▁siapa	-9.06396
▁Lebanon	-9.06426
▁ancaman	-9.06431
▁meskipun	-9.06658
▁ratusan	-9.06658
▁signifikan	-9.07008
▁judi	-9.07028
▁pekerjaan	-9.07031
▁Malaysia	-9.07032
▁Putih	-9.07128
▁komunitas	-9.07139
▁ringan	-9.07154
jateng	-9.07249
▁kelas	-9.07276
▁Pol	-9.07279
▁ulang	-9.07329
▁Baswedan	-9.07487
▁menyediakan	-9.07487
▁perhatian	-9.07488
▁skor	-9.0749
▁kolaborasi	-9.07613
▁Hasil	-9.07657
▁menghadiri	-9.07774
▁PKB	-9.07856
▁HAM	-9.07903
te	-9.07949
▁mencegah	-9.07967
▁menjabat	-9.08089
▁Prof	-9.08323
▁peringatan	-9.0845
▁kenaikan	-9.08571
▁menjalankan	-9.08571
ed	-9.08627
▁Korban	-9.08776
▁dikutip	-9.09044
▁03	-9.09044
▁BAND	-9.0915
▁Tenggara	-9.09179
baru	-9.09223
▁JPNN	-9.09294
▁gagal	-9.09423
▁sedikit	-9.09438
▁belakang	-9.09471
▁Serang	-9.09478
undang	-9.09543
▁Mantan	-9.0955
▁TPS	-9.09596
▁Pasar	-9.09801
▁inovasi	-9.09805
ga	-9.09833
▁pegawai	-9.09918
▁sulit	-9.09943
▁juara	-9.10158
▁mengurangi	-9.10159
▁Keuangan	-9.10281
▁dokter	-9.103
▁kematian	-9.10425
▁Paris	-9.10446
▁minggu	-9.1046
▁Perdana	-9.10532
▁membutuhkan	-9.10652
▁perbatasan	-9.10776
▁rapat	-9.10786
▁Me	-9.10833
▁Kegiatan	-9.11076
▁platform	-9.11283
▁meny	-9.11392
▁Pilgub	-9.11431
▁Pj	-9.11498
▁BBC	-9.11531
▁2023.	-9.11551
gi	-9.11562
▁kekuatan	-9.11588
▁meluncurkan	-9.11664
▁izin	-9.1167
▁memutuskan	-9.11691
▁terima	-9.1174
▁Suriah	-9.11781
▁MK	-9.11886
▁berkelanjutan	-9.11896
▁La	-9.12217
▁MotoGP	-9.12273
▁non	-9.12357
▁menewaskan	-9.12399
▁Orang	-9.12441
▁menunggu	-9.12528
▁Kapolres	-9.12624
un	-9.12884
▁Internasional	-9.12903
▁jadwal	-9.1303
▁pendukung	-9.13061
▁boleh	-9.13169
▁bebas	-9.13177
▁penyidik	-9.13189
▁delapan	-9.13284
▁New	-9.13309
▁vs	-9.13432
▁Gunung	-9.13538
▁hati	-9.13545
▁Hasto	-9.13796
▁momen	-9.13946
▁membahas	-9.14049
▁konsumen	-9.14305
▁ANTARA	-9.14924
▁menekankan	-9.14946
▁mengajukan	-9.14948
sa	-9.14972
▁Jika	-9.15085
▁siang	-9.15088
▁Sebab	-9.15095
▁tahap	-9.15124
per	-9.15234
▁04	-9.15304
um	-9.15333
▁mencoba	-9.15339
▁Bagi	-9.15621
▁puluhan	-9.15633
▁Kedua	-9.15697
go	-9.15729
▁menetapkan	-9.15747
▁Bandara	-9.15764
▁Grup	-9.15989
▁Sulawesi	-9.15993
▁wisata	-9.16
▁Pe	-9.16091
▁Ridwan	-9.16124
▁Pembangunan	-9.16124
▁ketua	-9.16298
ung	-9.16328
▁selesai	-9.16379
▁mengatasi	-9.1638
▁Uni	-9.16409
▁Selama	-9.16725
▁sukses	-9.16833
▁Wilayah	-9.17046
▁sejarah	-9.17049
ASAR	-9.17053
▁istri	-9.17095
▁risiko	-9.17189
▁tutur	-9.17232
▁kemanusiaan	-9.173
▁menawarkan	-9.173
▁Berikut	-9.17346
▁teman	-9.17424
▁Saudi	-9.17707
▁mengakui	-9.17736
▁pribadi	-9.17752
ENP	-9.17787
▁dibawa	-9.17967
▁IKN	-9.18199
▁mengeluarkan	-9.18229
ik	-9.18237
▁justru	-9.18363
▁Center	-9.18364
▁nyata	-9.18477
▁Rakabuming	-9.18496
▁menuturkan	-9.1863
▁debat	-9.18646
▁III	-9.18858
▁Rakyat	-9.18905
▁percaya	-9.18913
▁bersih	-9.18961
▁kemampuan	-9.19096
▁Begini	-9.19303
▁tertinggi	-9.19312
▁International	-9.19319
▁Raka	-9.19374
▁sore	-9.19459
etika	-9.19469
▁kebakaran	-9.19577
▁agama	-9.19591
▁06	-9.19688
▁Ma	-9.19707
▁mengamankan	-9.19708
de	-9.19753
▁W	-9.1985
▁Yang	-9.19861
▁Group	-9.19979
▁menyambut	-9.19979
▁gabungan	-9.19994
▁Su	-9.20031
▁bangunan	-9.20067
▁kandidat	-9.2012
▁kalah	-9.2013
▁kabupaten	-9.20137
▁bagus	-9.20151
▁berkembang	-9.20251
▁Koordinator	-9.20387
▁mengembangkan	-9.20387
▁berlaku	-9.20401
▁Perempuan	-9.20534
▁kehidupan	-9.2066
▁meski	-9.20794
▁dinilai	-9.20799
z	-9.20814
▁dasar	-9.20875
▁Thailand	-9.20952
▁sosok	-9.20955
me	-9.21023
▁bergabung	-9.21209
lain	-9.2127
▁kesejahteraan	-9.21346
▁Kita	-9.216
▁lakukan	-9.21635
▁CPNS	-9.21667
ut	-9.21697
laki	-9.21833
ni	-9.21978
U	-9.22018
▁perkembangan	-9.22037
▁Airlangga	-9.22175
▁Abdul	-9.22176
▁kategori	-9.22211
▁berbicara	-9.22314
▁05	-9.22486
▁rangka	-9.22589
▁Sukabumi	-9.22597
▁pemungutan	-9.22736
▁meter	-9.2275
▁2025	-9.22773
▁mengingatkan	-9.22843
▁bergerak	-9.23012
▁menyerang	-9.23016
no	-9.23102
▁pengelolaan	-9.2337
▁Shin	-9.23519
▁buah	-9.23544
▁terdampak	-9.23575
▁perlindungan	-9.23576
▁jiwa	-9.23597
▁No	-9.23647
▁mewujudkan	-9.23714
▁40	-9.23716
▁foto	-9.23804
asi	-9.23933
▁kabar	-9.24139
th	-9.2419
▁Forum	-9.24282
▁sepeda	-9.24428
▁Taiwan	-9.24432
it	-9.24469
▁diperkirakan	-9.2463
▁in	-9.24788
▁Gus	-9.24844
▁terdakwa	-9.24849
▁Pertahanan	-9.2486
wan	-9.24899
▁Tol	-9.24929
▁balik	-9.24961
▁infrastruktur	-9.2499
▁arus	-9.24992
▁ribuan	-9.25075
▁rendah	-9.25291
▁Sri	-9.25321
▁Sumsel	-9.25342
▁Pelaku	-9.25357
▁pengawasan	-9.25402
▁De	-9.25526
▁08	-9.25535
▁sebenarnya	-9.25564
▁truk	-9.25598
▁pelatihan	-9.25697
▁Olimpiade	-9.25851
▁07	-9.25867
▁Acara	-9.25888
▁hilang	-9.25995
▁Hotel	-9.25997
▁jajaran	-9.26089
▁tambahan	-9.26206
▁berbasis	-9.26284
▁kader	-9.26398
▁Kelurahan	-9.26434
▁Khusus	-9.2644
▁Medan	-9.2666
▁Nur	-9.26675
▁seharusnya	-9.26718
▁insiden	-9.2673
▁Pasangan	-9.26758
▁Muda	-9.26998
▁pajak	-9.2701
▁meninggalkan	-9.27018
▁rudal	-9.27034
▁tema	-9.27145
▁perdagangan	-9.27155
▁Tanah	-9.27168
mcr	-9.27301
▁Lebaran	-9.27604
▁Ya	-9.27711
ran	-9.27857
▁Pemain	-9.27889
▁putra	-9.27898
▁gelar	-9.28016
▁menyiapkan	-9.28034
▁berpotensi	-9.28044
▁pilkada	-9.28048
▁strategi	-9.28062
▁bus	-9.28071
▁melanggar	-9.28182
▁kesepakatan	-9.28189
ak	-9.28274
▁minyak	-9.28329
▁kalangan	-9.2833
▁Le	-9.28334
▁daftar	-9.28357
Ini	-9.28558
▁ahli	-9.28773
▁maksimal	-9.28773
▁pelanggan	-9.28773
▁darah	-9.28793
▁terlalu	-9.28924
▁merah	-9.28939
hari	-9.29042
▁didukung	-9.2907
▁Hizbullah	-9.29082
▁perawatan	-9.29112
▁e	-9.29192
▁tiket	-9.29219
▁Z	-9.29273
▁09	-9.29349
▁berdampak	-9.29367
▁kulit	-9.29385
O	-9.29515
▁Dewi	-9.29523
▁Sa	-9.29536
▁utara	-9.29667
▁buruk	-9.29669
▁selaku	-9.29692
▁Kemenkumham	-9.297
▁2022	-9.29723
lo	-9.29881
▁Tinggi	-9.29974
▁mitra	-9.29992
benar	-9.30107
▁memicu	-9.30118
▁Megawati	-9.30123
▁KOTA	-9.30266
▁menyelesaikan	-9.30267
▁senior	-9.30282
▁status	-9.30311
▁sabu	-9.30468
▁PKS	-9.30553
elalui	-9.30594
▁sanksi	-9.30754
▁a	-9.3077
▁jangan	-9.30776
ia	-9.30776
▁Lalu	-9.3089
▁paket	-9.31025
▁harapan	-9.31063
▁alam	-9.31218
▁permintaan	-9.31325
men	-9.31368
20	-9.31438
▁Keamanan	-9.31478
▁Kaesang	-9.31484
▁Banyak	-9.31529
▁menyerahkan	-9.3155
▁penanganan	-9.3163
▁Vietnam	-9.31635
▁mendesak	-9.31786
▁kursi	-9.31792
▁syarat	-9.31818
▁melindungi	-9.31942
▁Garuda	-9.31945
▁diselenggarakan	-9.32089
▁serius	-9.32098
▁Kamil	-9.32148
▁klub	-9.32245
▁Operasi	-9.32261
Penjabat	-9.32478
▁Khofifah	-9.32704
hadiri	-9.32762
co	-9.32818
▁diikuti	-9.32858
▁kompetisi	-9.32864
▁pemilik	-9.32992
▁iklim	-9.33013
▁tertentu	-9.33013
▁mencetak	-9.33013
▁pengadilan	-9.33167
▁awak	-9.33204
V	-9.33339
▁kejahatan	-9.33339
▁saling	-9.33479
▁penerbangan	-9.33482
▁ungkapnya	-9.33499
▁menambah	-9.33652
▁tambah	-9.33749
▁visi	-9.33799
▁Harris	-9.3412
▁AKP	-9.34299
▁misi	-9.34379
▁Apa	-9.34384
▁tentara	-9.34414
▁Pulau	-9.34423
▁gram	-9.34458
▁Pemkot	-9.34688
▁mengapresiasi	-9.34729
▁panas	-9.3473
▁Ekonomi	-9.34761
▁Juru	-9.34847
▁mencakup	-9.34886
▁Film	-9.34901
▁MPR	-9.34951
▁menimbul	-9.35081
▁karya	-9.35278
▁unggul	-9.35285
▁Sleman	-9.3536
▁for	-9.35373
wa	-9.35442
▁Senayan	-9.35519
▁yakin	-9.35522
▁City	-9.3553
!	-9.35639
▁beras	-9.35819
▁Putra	-9.35836
▁Makassar	-9.35836
▁perjanjian	-9.35836
▁pertanian	-9.35836
▁Men	-9.35863
▁laki	-9.35896
▁Lembaga	-9.36184
▁Irjen	-9.36326
am	-9.3645
▁Meskipun	-9.36686
▁penjualan	-9.36733
▁mati	-9.3693
▁memanfaatkan	-9.36956
ba	-9.37006
▁puncak	-9.37127
▁kilometer	-9.37279
▁Kampung	-9.3728
▁berawan	-9.3733
▁Siap	-9.37542
▁Polresta	-9.37546
▁olahraga	-9.37602
▁Harga	-9.37615
▁gugatan	-9.37619
▁putih	-9.37628
▁de	-9.3774
▁Merah	-9.37775
▁AI	-9.37786
:00	-9.37799
▁komunikasi	-9.3783
Y	-9.3784
▁tuduhan	-9.37949
▁Padang	-9.38095
▁tambahnya	-9.38104
▁Kali	-9.38198
▁operasional	-9.38256
▁mengingat	-9.38289
▁peng	-9.38334
▁ditahan	-9.38908
▁sikap	-9.38914
Mahfud	-9.39099
▁diambil	-9.39128
▁pencarian	-9.39141
▁Serangan	-9.39214
▁rokok	-9.39249
▁berisi	-9.39313
▁Sejak	-9.39444
▁VOA	-9.39577
▁Informasi	-9.39664
▁rutin	-9.39723
▁apresiasi	-9.3973
▁merilis	-9.3973
▁gempa	-9.39734
▁memasuki	-9.39735
▁parlemen	-9.39747
▁tampak	-9.3991
▁medis	-9.40069
▁penelitian	-9.4012
▁Pria	-9.40166
▁bupati	-9.40228
▁kehilangan	-9.40233
▁Washington	-9.40394
▁Mandiri	-9.40401
▁peringkat	-9.40403
▁barat	-9.40435
▁diskusi	-9.4056
▁ekspor	-9.40563
▁Perusahaan	-9.40568
▁laman	-9.4066
▁persiapan	-9.40727
▁angin	-9.40758
▁mesin	-9.40762
▁Tae	-9.40784
Undang	-9.40934
▁wali	-9.40955
ce	-9.40969
▁uji	-9.40992
ki	-9.41025
▁dibuka	-9.41213
▁juru	-9.41227
▁Iskandar	-9.4123
▁dokumen	-9.41257
▁putaran	-9.41263
▁tercatat	-9.41398
▁mengalahkan	-9.41398
▁menjawab	-9.41398
▁penduduk	-9.4154
▁suami	-9.41765
ejumlah	-9.41817
▁Donald	-9.41911
▁haji	-9.41939
▁Pantai	-9.42073
pun	-9.42074
▁Putri	-9.42075
▁mengubah	-9.42081
ad	-9.42228
▁libur	-9.42231
▁pen	-9.42259
▁berakhir	-9.42294
▁antar	-9.42413
▁sembilan	-9.42419
▁sehari	-9.4242
▁impor	-9.4242
▁penegak	-9.42582
▁berkontribusi	-9.42582
▁tata	-9.42611
▁selamat	-9.42641
▁minuman	-9.4279
▁Ar	-9.42908
▁dipimpin	-9.42916
▁gedung	-9.42953
▁fisik	-9.43094
▁Lingkungan	-9.43098
▁Persis	-9.43103
▁Hujan	-9.43127
▁obat	-9.43136
▁biasanya	-9.43153
▁Pemkab	-9.43206
il	-9.43226
jumlah	-9.43227
▁transaksi	-9.43274
mu	-9.4332
▁aku	-9.43403
▁bank	-9.4343
▁penangkapan	-9.43448
▁Pemprov	-9.4352
▁menurunkan	-9.436
bo	-9.43607
▁mudik	-9.43609
▁mengusung	-9.43609
▁Petugas	-9.43807
▁tuan	-9.43945
▁memulai	-9.43954
▁pertanyaan	-9.4397
▁Karawang	-9.44127
▁El	-9.44142
▁Hakim	-9.44302
ambil	-9.44469
▁memungkinkan	-9.44472
▁ketat	-9.44542
suatu	-9.44631
▁Festival	-9.44646
▁Kejaksaan	-9.44646
▁Joe	-9.44709
ns	-9.44883
▁Pemberantasan	-9.44994
▁kepercayaan	-9.44994
▁berarti	-9.45017
▁segala	-9.45039
▁Adi	-9.45116
▁Nusa	-9.45185
▁pulang	-9.45221
▁Daya	-9.45238
▁Kepulauan	-9.45343
▁pantai	-9.45344
▁oknum	-9.45373
dy	-9.45493
bi	-9.45503
sabu	-9.45677
▁perwakilan	-9.45695
▁membeli	-9.45704
▁undang	-9.45822
▁bayi	-9.45882
▁pe	-9.4599
▁kereta	-9.46046
▁Bambang	-9.46072
▁Madura	-9.46236
ok	-9.46244
▁hutan	-9.46247
▁Surat	-9.46273
▁Pranowo	-9.46399
▁gencatan	-9.46408
AS	-9.46429
▁Pertama	-9.46432
kota	-9.46568
▁longsor	-9.46576
▁terbukti	-9.46587
ne	-9.4661
ong	-9.46722
▁perekonomian	-9.46931
▁persoalan	-9.46951
▁Mahfud	-9.47078
▁menghentikan	-9.47109
▁Hingga	-9.47127
▁ton	-9.47221
▁to	-9.47263
▁SEMARA	-9.47287
▁ditemui	-9.47287
▁Polsek	-9.47306
▁hewan	-9.47314
▁kepemimpinan	-9.47338
▁keduanya	-9.47406
hal	-9.47429
▁diamankan	-9.47467
▁penyebab	-9.47517
▁praktik	-9.47692
▁c	-9.47797
▁teknis	-9.47824
▁Afrika	-9.47837
▁CEO	-9.47844
▁menentukan	-9.47848
▁Dwi	-9.47872
▁memperoleh	-9.48004
▁Imigrasi	-9.48006
▁anaknya	-9.48168
▁2023,	-9.48226
▁fitur	-9.4823
▁mengunjungi	-9.48363
▁belajar	-9.48363
▁Persebaya	-9.48364
▁coba	-9.48423
dampingi	-9.48517
▁Andi	-9.48561
▁damai	-9.48729
▁pengamanan	-9.48746
▁Bakal	-9.48771
▁Politik	-9.4879
▁Tapi	-9.48822
ry	-9.48907
▁Guru	-9.48947
pe	-9.48984
▁dibuat	-9.49075
▁pengungsi	-9.49107
▁atlet	-9.49114
▁kampus	-9.49132
▁faktor	-9.49315
▁buku	-9.49322
lt	-9.49368
▁Sosial	-9.49447
▁mengonsumsi	-9.49451
▁mengadakan	-9.49451
▁aset	-9.49523
▁kerap	-9.49723
▁putri	-9.49753
▁bertajuk	-9.49824
ch	-9.4987
▁menjadikan	-9.49995
▁Pelabuhan	-9.5
ai	-9.50126
▁the	-9.50137
-23	-9.50139
▁khawatir	-9.50192
pa	-9.50202
sari	-9.50289
▁dahulu	-9.50372
▁berwenang	-9.50401
ru	-9.50404
Jadi	-9.50471
▁kementerian	-9.5057
▁Li	-9.50647
▁Kepolisian	-9.50736
▁Surakarta	-9.50741
mo	-9.50793
▁dulu	-9.5083
▁efektif	-9.50932
▁era	-9.50962
ca	-9.51069
▁menghasilkan	-9.51106
▁aparat	-9.5111
rs	-9.51134
▁capres	-9.51134
▁Angkatan	-9.51151
ji	-9.51194
▁Akan	-9.51243
▁Beijing	-9.51298
▁timur	-9.51456
▁berperan	-9.5146
▁beroperasi	-9.51683
pi	-9.51842
▁darurat	-9.5185
▁rusak	-9.5185
▁penurunan	-9.51856
▁si	-9.51872
▁konten	-9.51887
▁kehadiran	-9.51924
▁batas	-9.5198
▁Peraturan	-9.52038
▁Konstitusi	-9.52048
▁bahasa	-9.52264
▁Turki	-9.52269
▁kerugian	-9.52412
▁Industri	-9.52537
▁seksual	-9.52609
▁pasien	-9.52614
▁gas	-9.52653
▁menanggapi	-9.5279
▁prioritas	-9.52801
w	-9.52966
▁Digital	-9.52986
▁hitam	-9.52997
▁Jasa	-9.53172
▁RS	-9.53188
▁senang	-9.53198
▁60	-9.53332
▁kemajuan	-9.53355
▁Kelompok	-9.53362
bagai	-9.53512
▁diperlukan	-9.53545
▁Netanyahu	-9.5355
▁beragam	-9.53644
▁pula	-9.53709
▁Batu	-9.53713
ic	-9.53724
▁pengusaha	-9.53736
▁menengah	-9.53736
▁Ayu	-9.53763
▁memahami	-9.53926
▁mempertahankan	-9.53926
▁serupa	-9.53936
▁Layanan	-9.53939
uk	-9.53957
▁kaki	-9.54018
:30	-9.54028
▁grup	-9.54117
▁Pekanbaru	-9.5412
▁Sekolah	-9.54124
▁Eri	-9.54209
▁menyoroti	-9.54319
▁lanjutnya	-9.54321
▁jasa	-9.54327
▁Meng	-9.54378
▁Teknologi	-9.54509
▁al	-9.54549
▁Putin	-9.54562
▁kapasitas	-9.54589
rata	-9.54631
▁kerusakan	-9.547
-19	-9.54804
▁keadaan	-9.54884
▁Tiga	-9.54918
▁standar	-9.54927
▁Natal	-9.54932
▁News	-9.55071
▁Qatar	-9.55083
▁rangkaian	-9.55112
do	-9.55147
▁Pertanian	-9.55269
▁Sungai	-9.55269
▁membentuk	-9.55276
▁pendapatan	-9.55373
▁kecamatan	-9.55476
RI	-9.55489
ha	-9.55506
lu	-9.55546
▁jatuh	-9.55566
▁pohon	-9.55682
▁SAR	-9.55741
▁menerapkan	-9.5585
▁selanjutnya	-9.55852
▁penyelenggaraan	-9.55952
▁pem	-9.55957
▁wanita	-9.56045
▁pengunjung	-9.5605
▁Gelar	-9.5605
▁Erick	-9.56249
▁Keluarga	-9.56253
▁Bersama	-9.56323
▁bertahan	-9.56435
▁Kelas	-9.56453
▁dinyatakan	-9.56512
▁tangga	-9.56576
▁Mu	-9.56598
▁Direktorat	-9.56637
▁Spanyol	-9.5664
▁Pimpinan	-9.56662
▁bertanggung	-9.56804
▁tahanan	-9.56935
Di	-9.56989
▁zona	-9.57013
▁berubah	-9.57043
▁tekanan	-9.57224
▁nyaman	-9.57225
▁sepak	-9.57238
▁tulis	-9.57343
▁sesuatu	-9.57397
▁setidaknya	-9.57418
▁Anwar	-9.57422
▁karyawan	-9.57429
▁m	-9.57448
▁Indra	-9.57566
▁kunci	-9.57632
▁warna	-9.57766
▁nantinya	-9.57768
itas	-9.57857
▁Tbk	-9.58011
▁berkualitas	-9.58011
▁Kaltim	-9.58044
ASN	-9.58083
▁peraturan	-9.58216
▁kanan	-9.58237
▁Soal	-9.58266
▁transportasi	-9.5841
▁pengiriman	-9.58422
▁tanggung	-9.58453
▁Masjid	-9.58601
▁remaja	-9.5861
▁buat	-9.58614
▁Agama	-9.58632
▁nasabah	-9.58809
▁lengkap	-9.58858
x	-9.58905
▁Militer	-9.5901
▁Kapolda	-9.59016
ajelis	-9.59405
▁manajemen	-9.59412
▁permohonan	-9.59412
▁eks	-9.59446
▁pemuda	-9.59816
▁Karno	-9.59829
▁Media	-9.59857
▁anti	-9.59892
▁kontra	-9.59911
▁Ting	-9.59918
▁ekosistem	-9.6022
▁re	-9.60237
▁Balai	-9.60254
KPK	-9.60393
▁Ko	-9.60409
▁dibutuhkan	-9.60424
▁penetapan	-9.60429
▁bunga	-9.60448
▁umat	-9.60475
▁situs	-9.60535
▁usai	-9.60628
▁Jalur	-9.60628
▁mengimbau	-9.60639
▁kalinya	-9.60675
▁rekomendasi	-9.60732
▁Rai	-9.60766
▁Sekjen	-9.60882
▁ikan	-9.6101
▁apabila	-9.61038
▁Sakit	-9.61244
▁Kediri	-9.61291
▁Bung	-9.61366
▁semuanya	-9.61444
▁Singapura	-9.61456
▁Na	-9.61473
ft	-9.61489
▁Unit	-9.61491
za	-9.61506
▁pabrik	-9.61524
▁Borneo	-9.61652
▁aktivis	-9.61658
▁Irak	-9.61683
▁Jumlah	-9.61707
▁agenda	-9.61794
▁membayar	-9.61861
▁Emas	-9.61879
KPU	-9.61923
▁Data	-9.61931
▁merayakan	-9.62065
▁perbaikan	-9.62079
▁persidangan	-9.62272
▁lawan	-9.62307
▁Seperti	-9.62326
▁elektabilitas	-9.62479
▁Persija	-9.62655
▁ibadah	-9.62687
▁logistik	-9.62687
▁Setiawan	-9.62689
antara	-9.62706
▁Ba	-9.62764
▁kiri	-9.62786
▁PSI	-9.62842
▁Pihak	-9.62855
▁wajib	-9.62895
▁NTB	-9.62979
▁Meteorologi	-9.63104
▁swasta	-9.63104
▁Tanjung	-9.63108
ge	-9.63115
▁Rapat	-9.63115
▁World	-9.63119
ana	-9.63192
▁2020	-9.63222
▁Haji	-9.63319
▁Bu	-9.63354
▁Ka	-9.63518
▁Kanwil	-9.63584
▁Semua	-9.63585
up	-9.63606
▁Pasalnya	-9.63607
▁pelajar	-9.63612
▁diserta	-9.63636
han	-9.63648
▁As	-9.63721
▁Y	-9.63772
▁berikutnya	-9.63925
▁perayaan	-9.63944
▁sungai	-9.63966
▁lancar	-9.63981
j	-9.64023
▁alami	-9.64136
▁menampilkan	-9.64155
▁Karya	-9.64162
▁HUT	-9.64235
▁seseorang	-9.64377
▁pemberian	-9.64419
▁lihat	-9.64433
▁gerakan	-9.64467
▁layak	-9.64517
▁profesional	-9.64569
▁Gianyar	-9.64578
▁Departemen	-9.64582
▁bersenjata	-9.64588
▁fakta	-9.64633
▁mundur	-9.6473
teman	-9.64772
▁keselamatan	-9.6479
▁berencana	-9.64808
▁catatan	-9.64813
▁Atas	-9.64817
▁minta	-9.64817
▁gaji	-9.64846
▁kelahiran	-9.65003
▁ketentuan	-9.6501
▁Bangsa	-9.65047
▁Cuaca	-9.65216
▁mengakibat	-9.65223
▁Maju	-9.65226
▁tanda	-9.65283
▁mempunya	-9.6543
▁Polrestabes	-9.65434
▁permasalahan	-9.6544
▁Kapal	-9.65446
apten	-9.6545
▁BPBD	-9.65583
▁memperkenalkan	-9.65644
▁perangkat	-9.65662
▁Aksi	-9.65685
▁tes	-9.6579
▁2019	-9.65838
▁jarak	-9.65859
▁memeriksa	-9.65862
▁k	-9.65863
▁bakar	-9.65865
▁diminta	-9.66001
▁kekuasaan	-9.66017
▁kontribusi	-9.66074
▁menangani	-9.66088
▁tumbuh	-9.66187
▁Sudah	-9.6621
▁mendaftar	-9.66214
kelompok	-9.66256
▁militan	-9.6629
▁Bahkan	-9.66396
▁menutup	-9.6644
▁diperiksa	-9.66506
▁model	-9.66562
▁sejauh	-9.66569
jo	-9.66578
▁Jogja	-9.6663
▁Sebelum	-9.66711
▁mengakhiri	-9.66725
▁wisatawan	-9.66738
▁tertulis	-9.6689
tor	-9.66897
▁misalnya	-9.66939
▁Tetapi	-9.66944
▁permainan	-9.66947
▁Mahasiswa	-9.66948
▁jangka	-9.67124
▁klaim	-9.67135
▁Penghargaan	-9.67195
▁PSIS	-9.67202
▁Imam	-9.67382
▁tarif	-9.676
▁hijau	-9.67603
▁Taman	-9.67731
▁klasemen	-9.67811
▁berkolaborasi	-9.67815
▁Usaha	-9.67822
▁Kampanye	-9.67897
▁Ratusan	-9.68034
▁ASEAN	-9.68045
▁MD	-9.68073
▁Bantul	-9.68101
▁Tersangka	-9.68107
▁Bisa	-9.68126
st	-9.6824
▁Kompol	-9.68247
▁Kawasan	-9.6825
▁plastik	-9.68267
▁tunggal	-9.68281
▁Perang	-9.6829
ton	-9.68345
▁Pemuda	-9.68471
▁Keputusan	-9.68495
▁Bantuan	-9.68609
▁aspek	-9.68692
▁Mobil	-9.68712
▁kilogram	-9.68912
▁sesi	-9.6892
▁menghindari	-9.68939
Persero	-9.68976
ud	-9.69024
▁Lapangan	-9.69135
▁perdamaian	-9.69151
▁dilansir	-9.69219
▁koordinasi	-9.69435
▁internal	-9.6958
Jokowi	-9.69785
▁gangguan	-9.69802
▁Co	-9.69822
▁Mar	-9.7002
▁PSS	-9.70043
tahun	-9.70129
▁b	-9.70154
ju	-9.70173
▁mempersiapkan	-9.7025
▁jenazah	-9.70257
▁konsep	-9.7028
▁Ade	-9.70358
▁nuklir	-9.70449
▁University	-9.70475
▁York	-9.70475
▁sandera	-9.70475
▁Komunikasi	-9.70484
▁Laporan	-9.70536
▁tren	-9.70627
▁tadi	-9.70676
▁pembayaran	-9.707
▁Pakistan	-9.70701
▁Belanda	-9.70702
▁Martin	-9.70721
au	-9.70789
▁BBM	-9.70813
▁menargetkan	-9.71004
▁buka	-9.71119
▁Pro	-9.71143
▁Arema	-9.71152
▁berjudul	-9.71152
▁berangkat	-9.71153
▁supaya	-9.71163
▁sosialisasi	-9.71278
▁tahapan	-9.71326
▁Ketenagakerjaan	-9.71379
▁Juanda	-9.71383
▁Ci	-9.71401
▁perintah	-9.71407
ci	-9.71558
langkah	-9.71587
▁membantah	-9.71606
▁dibangun	-9.71606
▁sukarelawan	-9.71607
-20	-9.71622
▁regulasi	-9.71625
▁Dewa	-9.71669
tengah	-9.71703
eofisika	-9.71834
▁menuntut	-9.71834
▁semifinal	-9.71834
▁menuduh	-9.71834
▁beliau	-9.71839
satunya	-9.71888
vi	-9.71917
▁pasca	-9.71918
▁merasakan	-9.72045
▁seni	-9.72056
▁mengirimkan	-9.72086
▁toko	-9.72109
MI	-9.72201
▁MA	-9.72208
▁bilang	-9.72209
▁Muslim	-9.7227
▁Ngurah	-9.72291
▁pariwisata	-9.72291
▁skuad	-9.72291
▁tersedia	-9.72291
▁nelayan	-9.72299
▁Kim	-9.72318
▁krisis	-9.72533
▁prinsip	-9.72605
▁adat	-9.72711
▁suaminya	-9.72718
▁massa	-9.72726
▁Nana	-9.72747
23	-9.72763
▁bertugas	-9.72775
▁kampung	-9.72798
ol	-9.72902
▁berhenti	-9.72998
▁dinas	-9.7308
▁Dedi	-9.73123
▁drone	-9.73244
wi	-9.73249
▁penyelenggara	-9.73322
asa	-9.73325
▁Klimatologi	-9.73443
▁pintu	-9.7346
ARTA	-9.73476
▁2026	-9.735
jm	-9.73567
▁menikmati	-9.73675
▁Gelora	-9.73675
▁mengenakan	-9.73675
▁merespons	-9.73682
▁ayah	-9.73691
▁An	-9.73748
▁mengawal	-9.73812
▁Pa	-9.73893
▁batu	-9.73912
▁protes	-9.73941
▁Mulai	-9.73962
▁Sumut	-9.7402
▁Suara	-9.74389
▁Ra	-9.74392
▁Pos	-9.74508
▁Motor	-9.7453
▁YOGYAK	-9.74609
▁turnamen	-9.74609
▁memperingatkan	-9.74609
▁Manusia	-9.74624
PP	-9.74632
▁RUU	-9.74682
▁Hasan	-9.74739
san	-9.7483
▁terjadinya	-9.74837
▁viral	-9.74843
▁kekhawatiran	-9.74852
▁pameran	-9.7487
▁Bo	-9.74929
▁SMA	-9.75093
▁Ari	-9.75102
▁menyerukan	-9.75107
▁PSSI	-9.75124
▁rekan	-9.75138
▁lulus	-9.7519
▁Sebut	-9.75256
▁sasaran	-9.75333
▁lahir	-9.75546
▁tersebar	-9.75552
▁kuasa	-9.75553
▁menganggap	-9.75557
yo	-9.75717
ek	-9.75736
▁dilantik	-9.75788
▁edukasi	-9.75807
▁Andika	-9.7582
▁In	-9.75898
▁Ni	-9.75917
▁Jember	-9.76027
▁Mesir	-9.76029
▁dr	-9.76032
▁David	-9.76159
▁diberi	-9.76187
▁Arya	-9.76243
▁Istana	-9.76264
fa	-9.76297
▁Maluku	-9.76502
▁hendak	-9.76502
▁diajukan	-9.76503
ot	-9.76618
▁ekstrem	-9.76718
▁melanda	-9.7675
▁Sidoarjo	-9.76754
▁Marc	-9.76858
enjelang	-9.76974
▁serentak	-9.76981
▁upacara	-9.76981
min	-9.77001
▁hotel	-9.77011
▁pencurian	-9.77027
guruan	-9.77052
adi	-9.77203
▁perairan	-9.77222
▁pasokan	-9.77266
▁investor	-9.77463
▁tambang	-9.77494
▁pro	-9.77556
▁dirancang	-9.77599
apa	-9.7764
▁Idulfitri	-9.77704
▁memperluas	-9.77705
▁meliputi	-9.77733
▁pendapat	-9.77817
▁mayoritas	-9.77946
▁akrab	-9.77947
▁pergi	-9.78034
▁timnya	-9.78039
▁Jangan	-9.78074
▁kamar	-9.78192
▁200	-9.78314
▁on	-9.78356
▁konsisten	-9.78404
fi	-9.78412
▁penonton	-9.78432
▁identitas	-9.78434
▁diadakan	-9.78438
▁lebat	-9.78452
▁Belum	-9.78481
▁2025.	-9.78524
▁Hadi	-9.78547
▁35	-9.78675
▁peroleh	-9.78683
▁Open	-9.78697
▁merek	-9.788
▁penyidikan	-9.78858
▁mendengar	-9.78872
Se	-9.7888
▁Bicara	-9.78923
▁Rafah	-9.78923
▁konser	-9.78924
Kalau	-9.78947
▁Lapas	-9.78963
▁Hadir	-9.79091
▁koalisi	-9.79178
▁migran	-9.79183
▁tamu	-9.79204
▁Langkah	-9.79216
▁keluarganya	-9.79223
▁Pengamat	-9.79254
▁sebagaimana	-9.79314
▁DIY	-9.79317
▁susu	-9.79338
▁Diketahui	-9.79411
▁menahan	-9.79423
▁Akbar	-9.79424
▁mengucapkan	-9.79431
tidak	-9.7958
▁PPP	-9.7959
▁mengandung	-9.79658
▁Badung	-9.79661
▁daring	-9.79661
▁WITA	-9.79662
v	-9.79664
▁Rizky	-9.79665
▁terlebih	-9.79669
▁administrasi	-9.79671
▁Ro	-9.79907
▁penganiayaan	-9.7991
▁Terkait	-9.79956
▁Myanmar	-9.80152
▁dijadwalkan	-9.80152
▁meyakini	-9.80152
▁Capres	-9.8019
▁lepas	-9.80379
▁Reskrim	-9.804
▁terang	-9.80403
▁Parlemen	-9.80408
ita	-9.80413
▁berbagi	-9.80455
ly	-9.80549
▁Gresik	-9.80649
▁Jadwal	-9.80671
▁respons	-9.80676
▁besert	-9.80684
▁kontrak	-9.80714
▁istrinya	-9.80813
▁maaf	-9.809
▁pakar	-9.8093
▁Proses	-9.80952
pen	-9.80962
▁berjuang	-9.81148
▁kartu	-9.81149
▁TikTok	-9.81159
▁Sidang	-9.81167
▁Paus	-9.81173
▁Dn	-9.81192
▁beredar	-9.81399
▁Luthfi	-9.81406
▁perjuangan	-9.81433
▁KM	-9.81468
▁Beri	-9.81572
jang	-9.81617
▁kesulitan	-9.8165
▁berlanjut	-9.8167
▁mengatur	-9.81673
▁Kondisi	-9.8169
▁Ketum	-9.81701
▁bumi	-9.81715
▁500	-9.81745
▁Tewas	-9.81904
▁Bencana	-9.81912
▁Tingkat	-9.81918
▁instansi	-9.8192
▁rata	-9.82019
▁KAI	-9.82084
▁Be	-9.82144
▁Arif	-9.82233
HO	-9.82238
hati	-9.82241
▁bintang	-9.82263
▁Go	-9.82332
ualifikasi	-9.824
▁Pancasila	-9.82417
▁arahan	-9.82551
▁rumahnya	-9.82574
▁bersalah	-9.82685
▁32	-9.82897
▁modern	-9.82912
▁pasal	-9.82974
▁keberlanjutan	-9.83171
▁menjual	-9.83175
▁DE	-9.83201
dar	-9.83268
15	-9.83277
▁Mo	-9.83389
▁Bukan	-9.83657
/2024	-9.83663
▁narkotika	-9.83683
▁cerah	-9.83684
▁mengelola	-9.83696
▁Minta	-9.83708
▁konsumsi	-9.83712
▁Dana	-9.83735
▁keseluruhan	-9.83941
▁melayani	-9.83945
▁Kasat	-9.83949
▁evaluasi	-9.83964
▁@	-9.8397
▁keempat	-9.84261
▁sah	-9.84307
▁Pangan	-9.84318
▁saudara	-9.84329
▁BOGO	-9.84457
▁mengumpulkan	-9.84457
▁Italia	-9.84462
▁adil	-9.84462
▁AFF	-9.84468
▁Kabar	-9.84471
▁ramah	-9.84486
▁Menko	-9.84608
os	-9.84715
▁Perdagangan	-9.84716
▁inisiatif	-9.84716
▁siaran	-9.84721
▁Jaksa	-9.84721
▁puasa	-9.84775
X	-9.84959
▁inflasi	-9.84975
▁Honda	-9.84983
▁f	-9.84987
▁gelombang	-9.84989
▁berjanji	-9.85002
▁Manager	-9.85238
▁Tiongkok	-9.85246
▁sejalan	-9.85336
▁doa	-9.85383
▁Hanya	-9.85466
▁jemaah	-9.85497
▁Hidup	-9.85507
▁level	-9.85512
▁Marquez	-9.85759
▁menembak	-9.85759
son	-9.8588
▁parkir	-9.86021
▁modal	-9.86026
10	-9.86048
▁membagikan	-9.86071
▁penerimaan	-9.86101
▁penerima	-9.86215
akan	-9.86233
hak	-9.86262
▁Hodak	-9.86286
▁Kembali	-9.86294
▁Pagi	-9.86297
▁prestasi	-9.86301
▁Antara	-9.86392
▁besok	-9.86549
▁Peng	-9.86551
▁gula	-9.86552
▁dirilis	-9.86564
▁70	-9.86591
sen	-9.86644
▁pikir	-9.86685
ap	-9.86706
▁lanjutan	-9.86717
im	-9.86744
▁mengirim	-9.86785
▁dekade	-9.86813
▁diusung	-9.86814
▁tradisional	-9.86814
▁suku	-9.86922
▁PNS	-9.86929
▁emisi	-9.87081
▁Bulan	-9.87097
▁Masih	-9.87169
letak	-9.8717
▁Perlindungan	-9.87344
▁palsu	-9.87344
▁Pramono	-9.87346
▁dilanjutkan	-9.8735
▁berbahaya	-9.87351
▁mengganggu	-9.87355
▁terbatas	-9.87361
▁masjid	-9.87373
eng	-9.87451
▁fungsi	-9.87454
▁Moskow	-9.87611
▁dimiliki	-9.87611
▁keadilan	-9.87611
▁Pidana	-9.87612
▁peluncuran	-9.87629
▁mendatangi	-9.87635
▁Sedangkan	-9.87706
▁namanya	-9.87748
▁merusak	-9.87878
▁melancar	-9.87881
▁apalagi	-9.87888
▁pedagang	-9.87889
▁Pernyataan	-9.87901
unjuk	-9.88071
▁oposisi	-9.88147
▁melarang	-9.88151
▁Yayasan	-9.88156
tiba	-9.88221
ck	-9.88278
▁jaksa	-9.88415
▁gawang	-9.88416
▁asli	-9.88418
▁berkumpul	-9.88426
▁Niaga	-9.88428
▁Fakultas	-9.88431
▁pola	-9.88481
▁tanggapan	-9.88521
▁NU	-9.88561
▁BKN	-9.88574
▁Raja	-9.88582
▁pengurus	-9.88593
▁Dukung	-9.88615
nda	-9.88617
▁dipastikan	-9.88684
▁tuntutan	-9.88685
▁Puncak	-9.88706
▁Selanjutnya	-9.88723
▁duduk	-9.88728
▁keberadaan	-9.88737
▁SK	-9.88772
▁Ribuan	-9.88838
▁disebabkan	-9.88955
▁2021	-9.89142
▁kopi	-9.89151
▁telepon	-9.89226
▁liar	-9.89236
▁Pengembangan	-9.8925
▁pokok	-9.89282
ve	-9.89372
▁Pengawas	-9.89433
▁Penyanyi	-9.89497
▁Sultan	-9.89501
▁elektronik	-9.89507
su	-9.89703
▁KA	-9.89769
▁berulang	-9.89823
▁dialami	-9.8983
▁Ha	-9.89861
ting	-9.89987
▁studi	-9.89999
▁Thohir	-9.90043
▁cedera	-9.90043
▁Te	-9.90044
▁optimistis	-9.90044
▁Super	-9.90089
▁desain	-9.90153
▁Wayan	-9.90368
va	-9.90546
▁Manajemen	-9.90592
▁keuntungan	-9.90592
▁Her	-9.90666
▁halaman	-9.90676
mar	-9.90705
ecara	-9.9071
▁SMK	-9.90748
▁Wa	-9.9084
▁SDM	-9.9085
▁berkaitan	-9.90868
▁berkat	-9.90868
▁Cina	-9.9091
▁pernikahan	-9.90932
▁KH	-9.91103
ani	-9.91121
▁evakuasi	-9.91144
▁Eksekutif	-9.91144
▁menyusul	-9.91145
▁Perhubungan	-9.91147
▁tentunya	-9.91168
▁penipuan	-9.91189
▁pengendara	-9.91421
▁aspirasi	-9.91421
▁Kongres	-9.91424
▁PAN	-9.91461
ada	-9.91471
▁Bumi	-9.91482
▁Mem	-9.91535
17	-9.91624
▁beli	-9.91637
▁minum	-9.91693
▁Narkoba	-9.91698
▁Ungkap	-9.91698
▁bangga	-9.917
▁sekadar	-9.91701
▁Yu	-9.9172
▁merugikan	-9.91729
▁So	-9.91773
▁peneliti	-9.91879
▁tahunan	-9.91928
RB	-9.91988
▁materi	-9.91989
▁Ruang	-9.92001
▁Padahal	-9.92048
▁Ga	-9.92158
▁pemenang	-9.9219
▁mengangkat	-9.92257
▁Biak	-9.92263
▁gaya	-9.9227
▁Ida	-9.92316
▁SD	-9.92351
▁ditutup	-9.92536
▁keunggulan	-9.92536
▁rupiah	-9.92536
▁Survei	-9.92548
▁Pasukan	-9.92557
▁Pen	-9.92609
▁Kini	-9.92619
▁komentar	-9.92655
Per	-9.9268
▁kotak	-9.92716
▁sepakat	-9.92724
▁darat	-9.92754
▁Rektor	-9.92801
▁Bengkulu	-9.92817
▁menggambarkan	-9.92817
▁peredaran	-9.92819
▁Honorer	-9.92819
▁mengancam	-9.92823
tik	-9.92945
▁sela	-9.92948
)",	-9.92949
▁unggulan	-9.9295
▁Masa	-9.92951
ker	-9.92953
▁daripada	-9.92965
bar	-9.93069
▁pos	-9.93079
▁Global	-9.93099
▁Kapolri	-9.93099
▁kekalahan	-9.93099
▁suhu	-9.93101
▁momentum	-9.93102
▁kekurangan	-9.93117
▁cukai	-9.93118
▁Sistem	-9.9312
▁Organisasi	-9.93125
ie	-9.93133
▁khas	-9.9314
▁te	-9.93153
Corporate	-9.93382
▁diserahkan	-9.93383
▁melaju	-9.93385
▁Puluh	-9.93393
▁NasDem	-9.93393
/2024).	-9.93453
menyelenggarakan	-9.93551
▁Produk	-9.93673
▁Satpol	-9.93695
▁singkat	-9.93712
▁Cirebon	-9.93949
▁Demak	-9.93957
Z	-9.93978
▁tajam	-9.93989
kiri	-9.9406
▁80	-9.94063
tra	-9.94081
▁terkena	-9.94215
▁Afghanistan	-9.94234
▁kreatif	-9.94234
▁Mohammad	-9.94234
▁unsur	-9.94263
▁Da	-9.94274
▁Dukungan	-9.94336
gu	-9.94453
▁kaya	-9.94489
▁Gunawan	-9.94518
▁kemiskinan	-9.9452
▁murah	-9.9452
▁Brasil	-9.9452
▁disapa	-9.94523
ptu	-9.94531
▁sarana	-9.9455
Ada	-9.94633
▁Dipta	-9.94806
▁berpartisipasi	-9.94806
▁pencapaian	-9.94806
▁tenang	-9.94809
▁Stasiun	-9.94819
▁PLN	-9.94885
▁independen	-9.95065
jogja	-9.95093
▁pembebasan	-9.95093
▁penerapan	-9.95093
mempertimbangkan	-9.95094
▁Indah	-9.95096
▁Upaya	-9.95135
▁sekutu	-9.95259
tu	-9.95346
kah	-9.95381
▁mental	-9.9539
▁membela	-9.95406
▁Sebagian	-9.95419
▁Abdullah	-9.95435
▁RT	-9.95498
▁Raffi	-9.95671
▁bersangkutan	-9.95671
▁lantas	-9.95671
▁meninjau	-9.95671
▁Perubahan	-9.95686
%	-9.95777
pan	-9.9587
▁Surya	-9.95932
▁Divisi	-9.95944
▁dikeluarkan	-9.9596
▁suasana	-9.9596
▁suporter	-9.95973
▁kesalahan	-9.96
▁sepenuhnya	-9.96007
▁Reuters	-9.9601
▁utang	-9.9601
▁awalnya	-9.96024
▁artis	-9.96077
▁pulau	-9.96082
▁WNA	-9.9614
▁sebut	-9.96188
▁Dokter	-9.96256
▁Perwakilan	-9.96259
▁hektare	-9.96263
▁Kanada	-9.96279
▁pakaian	-9.96288
▁Ho	-9.96294
▁Pegi	-9.96569
▁Patra	-9.96569
▁mengapa	-9.96623
▁Awards	-9.96665
▁kandungan	-9.96702
▁memperbaiki	-9.96835
▁rute	-9.96835
▁Kabid	-9.96875
so	-9.96894
▁Sama	-9.96926
▁bila	-9.96953
mp	-9.96994
▁Pemimpin	-9.97128
▁bersaing	-9.97128
▁mewakili	-9.97129
▁kesiapan	-9.97129
▁normal	-9.97166
▁Satgas	-9.97201
hi	-9.97357
▁Siti	-9.97407
▁Perjanjian	-9.97422
▁pencegahan	-9.9743
▁buatan	-9.97647
▁Kebudayaan	-9.97717
▁belanja	-9.97717
▁menyaksikan	-9.97717
▁kebebasan	-9.97717
▁keberhasilan	-9.97717
▁tidur	-9.97717
▁transformasi	-9.97717
▁kompetensi	-9.97723
▁mendalam	-9.97746
du	-9.98011
▁hiburan	-9.98013
▁menandatangani	-9.98015
▁Kebijakan	-9.9805
▁menekan	-9.98123
barang	-9.98178
▁kamu	-9.98315
▁Ria	-9.98317
▁transisi	-9.98328
▁panggilan	-9.98382
▁Sehingga	-9.98428
▁Ja	-9.98478
be	-9.98481
AP	-9.98564
▁staf	-9.98609
▁PSM	-9.9862
yang	-9.98653
▁DPC	-9.98658
▁garis	-9.98658
▁imbang	-9.98685
▁Yong	-9.98715
▁performa	-9.98905
▁Aparatur	-9.98914
▁bekas	-9.98924
▁terluka	-9.98944
▁Bapak	-9.9895
▁Maka	-9.99011
Untuk	-9.99041
▁dikonfirmasi	-9.99129
▁memantau	-9.99206
▁pelantikan	-9.99206
▁rama	-9.99219
▁Eko	-9.99327
Kita	-9.99462
▁SMP	-9.99478
▁jurnalis	-9.99494
▁memperlihatkan	-9.99506
▁produsen	-9.99506
▁penyalahgunaan	-9.99512
▁Hubungan	-9.99524
▁cuma	-9.9955
▁Apalagi	-9.99551
▁wujud	-9.99598
▁pembukaan	-9.99608
▁Pakar	-9.99619
mas	-9.9983
AI	-9.99836
▁Staf	-9.99853
▁Gerakan	-9.99862
?"	-9.99947
AN	-9.99956
▁Award	-10.0001
▁penghitungan	-10.0011
▁beban	-10.0011
ner	-10.0011
▁partisipasi	-10.0012
▁Hidayat	-10.0041
▁2024-2029	-10.0041
▁Fraksi	-10.0041
▁sepuluh	-10.0042
▁pendekatan	-10.0044
▁penembakan	-10.0044
▁subsidi	-10.005
▁Iqbal	-10.0072
▁PSBS	-10.0072
▁NATO	-10.0075
▁dihubungi	-10.0089
▁parah	-10.0098
▁medali	-10.0102
▁rekor	-10.0102
▁distribusi	-10.0106
▁Baik	-10.0107
▁kandang	-10.0108
▁RSUD	-10.0108
▁memper	-10.0109
status	-10.0117
MK	-10.0117
ling	-10.0119
▁Rencana	-10.012
sel	-10.0121
ho	-10.0129
▁melewati	-10.0133
▁sekitarnya	-10.0136
▁wawancara	-10.0139
▁Amin	-10.014
▁dok	-10.0148
fokus	-10.0149
▁perbedaan	-10.0163
▁mengeklaim	-10.0163
▁binaan	-10.0164
▁sapi	-10.0165
▁populer	-10.0166
ent	-10.0174
▁pembicaraan	-10.0176
▁diprediksi	-10.0189
▁membuktikan	-10.0194
▁menyalurkan	-10.0194
▁sembako	-10.0194
▁dijadikan	-10.0194
▁prosedur	-10.0198
▁Paslon	-10.0199
▁Seluruh	-10.02
▁Barang	-10.0203
ari	-10.0216
▁36	-10.022
▁Grand	-10.0222
▁mengungsi	-10.0225
▁tergabung	-10.0225
▁merujuk	-10.0225
▁Relawan	-10.0226
▁terduga	-10.0226
▁Energi	-10.0226
▁menurun	-10.0227
▁berwarna	-10.0227
▁penampilan	-10.0241
hu	-10.0243
nan	-10.0244
▁cabang	-10.0256
▁internet	-10.0256
▁Nikita	-10.0256
▁Pejabat	-10.0256
▁fase	-10.0256
guyur	-10.0262
▁Kong	-10.027
▁pembelian	-10.0271
▁miliknya	-10.0284
▁peralatan	-10.0287
▁larangan	-10.0287
▁menghormati	-10.0287
▁Pegawai	-10.0288
▁temuan	-10.0292
▁2022,	-10.0297
▁Bayu	-10.0302
▁pindah	-10.0318
▁panggung	-10.0318
▁tanaman	-10.0332
▁90	-10.0343
▁bermula	-10.0352
▁Eks	-10.0352
▁sayap	-10.0353
▁Bagaimana	-10.0354
▁imbuhnya	-10.0358
kar	-10.0371
▁Gen	-10.0371
▁membunuh	-10.0381
▁Api	-10.0386
▁Muhaimin	-10.0386
Deng	-10.0395
▁cerita	-10.0398
isasi	-10.0404
▁2016	-10.0412
▁asuransi	-10.0412
▁bertambah	-10.0412
▁Pelayanan	-10.0412
▁kanker	-10.0414
▁Lu	-10.0417
▁Top	-10.042
lin	-10.0424
▁34	-10.0436
bu	-10.0437
▁Jo	-10.0442
tion	-10.0443
▁kenyamanan	-10.0444
▁tenggelam	-10.0444
▁Banjir	-10.0445
▁pelabuhan	-10.0446
▁kencang	-10.0452
▁institusi	-10.0458
▁Pelaksana	-10.0473
▁memanggil	-10.0475
▁menceritakan	-10.0475
▁menikah	-10.0475
▁layar	-10.0476
▁kredit	-10.0481
▁ayat	-10.0482
▁Pupuk	-10.0482
-10	-10.0485
▁Institute	-10.0485
▁berkoordinasi	-10.0507
▁diterapkan	-10.0507
▁keterlibatan	-10.0507
▁roda	-10.0507
▁Series	-10.0511
▁minimal	-10.0517
▁menggantikan	-10.052
▁45	-10.0534
▁individu	-10.0538
▁ketahanan	-10.0539
▁terbakar	-10.0539
▁Listrik	-10.0539
▁umur	-10.0542
▁samping	-10.0542
▁kecepatan	-10.0544
▁2022.	-10.0553
▁300	-10.0555
▁AL	-10.0577
bang	-10.0577
▁Gusti	-10.0578
▁Hak	-10.0579
▁Sampai	-10.058
▁suka	-10.0582
sifat	-10.0589
▁domestik	-10.0603
▁kedatangan	-10.0603
▁pakai	-10.0603
▁hadiah	-10.0612
▁serangkai	-10.0616
▁38	-10.0628
▁baterai	-10.0635
▁pertempuran	-10.0635
▁sengaja	-10.0635
▁dipilih	-10.0635
▁daging	-10.0635
▁pengetahuan	-10.0636
▁saham	-10.0636
▁Zoni	-10.0638
▁wajah	-10.0654
▁Tindak	-10.0666
▁Perekonomian	-10.0667
▁lolos	-10.0667
▁regional	-10.0668
▁dilihat	-10.0675
▁Cak	-10.068
▁prakira	-10.069
tif	-10.0697
▁Riset	-10.07
▁mendampingi	-10.0705
▁2018	-10.0713
▁rekaman	-10.0719
▁ditanya	-10.0722
ty	-10.0727
kanan	-10.0729
▁Wi	-10.073
▁mengantisipasi	-10.0732
▁dikelola	-10.0732
▁silam	-10.0733
▁Blinken	-10.0765
▁bergizi	-10.0765
▁kesadaran	-10.0765
▁penggemar	-10.0765
▁penindakan	-10.0765
▁kosong	-10.0765
▁Batam	-10.0765
inkan	-10.0767
▁setara	-10.0776
produk	-10.0781
nas	-10.0783
▁Tata	-10.0791
▁sedikitnya	-10.0796
▁jantung	-10.0797
▁diangkat	-10.0798
▁petir	-10.0801
▁diluncurkan	-10.0811
Ke	-10.0815
▁Keduanya	-10.0821
gen	-10.0823
dan	-10.0825
▁Lombok	-10.083
▁ketegangan	-10.083
▁pupuk	-10.0831
▁kompleks	-10.0831
▁event	-10.0833
▁AFP	-10.0834
▁usulan	-10.0837
▁1.000	-10.0842
▁takut	-10.0846
▁versi	-10.0846
▁kira	-10.0848
▁berani	-10.0849
▁Allah	-10.0851
▁Made	-10.0852
▁setengah	-10.0853
▁berdiri	-10.0859
tar	-10.086
▁Madrid	-10.0863
▁majelis	-10.0864
▁malah	-10.0866
▁elemen	-10.0866
▁bandara	-10.0867
▁seiring	-10.0869
PN	-10.0879
eh	-10.0893
▁Kata	-10.0893
▁Anggaran	-10.0897
ris	-10.0898
▁Kemenangan	-10.0899
▁terbang	-10.09
▁lantai	-10.0901
▁dihadapi	-10.0903
▁Ge	-10.0904
▁DW	-10.0912
▁Pemerintahan	-10.0917
▁Blitar	-10.0929
▁metode	-10.0929
▁Bintang	-10.0934
▁detik	-10.0943
▁berkata	-10.0948
▁menurutnya	-10.0953
▁diumumkan	-10.0963
▁pengadaan	-10.0963
▁melarikan	-10.0964
▁1445	-10.0964
▁Wahyu	-10.0977
▁tol	-10.098
▁negatif	-10.0996
▁jaminan	-10.0996
▁Koster	-10.1003
Q	-10.1011
rd	-10.1016
0.000	-10.102
▁setia	-10.1026
▁Pengurus	-10.103
▁karakter	-10.1031
gandeng	-10.1045
mer	-10.1046
▁Cianjur	-10.1063
▁Houthi	-10.1063
▁dewasa	-10.1063
▁mempercepat	-10.1063
▁intelijen	-10.1064
▁Arief	-10.1064
▁sampaikan	-10.1079
sh	-10.1083
tri	-10.1084
wo	-10.1096
▁optimal	-10.1096
▁Video	-10.1097
▁vitamin	-10.1097
▁Bisnis	-10.1098
▁Hong	-10.1099
anto	-10.1102
▁PN	-10.1117
▁Championship	-10.1118
▁To	-10.1126
▁sinergi	-10.113
▁Pegadaian	-10.113
▁Kudus	-10.113
▁terungkap	-10.1131
eserse	-10.1132
▁rawan	-10.1132
▁Man	-10.1133
▁intensitas	-10.1133
▁aliran	-10.1134
▁Am	-10.1137
▁tutup	-10.1149
mana	-10.1151
▁red	-10.1156
▁Sang	-10.1156
▁dikirim	-10.1161
▁Publik	-10.1164
▁pengakuan	-10.1164
▁dolar	-10.1164
▁hadapan	-10.1168
erahkan	-10.117
▁urusan	-10.1172
11	-10.1176
ono	-10.1182
andi	-10.1194
▁Pekerja	-10.1198
▁Skuad	-10.1198
▁bersyukur	-10.1198
▁terpaksa	-10.1198
▁Tenaga	-10.1198
▁dilengkapi	-10.1198
▁Kebakaran	-10.1199
▁Demokrasi	-10.12
den	-10.121
▁sebab	-10.1222
▁Istri	-10.1233
▁deklarasi	-10.1235
▁mayat	-10.1237
▁Pihaknya	-10.1243
Pj	-10.1249
▁belah	-10.125
▁Ketiga	-10.1256
▁IV	-10.1257
ram	-10.1259
▁menginginkan	-10.1267
▁Bojan	-10.1267
▁teroris	-10.1269
▁tradisi	-10.1269
▁USD	-10.127
▁gudang	-10.127
▁Bar	-10.128
▁Angka	-10.128
▁Lo	-10.1284
▁janji	-10.1299
▁televisi	-10.1301
▁Koalisi	-10.1302
▁Pertemuan	-10.1303
▁Ri	-10.1305
▁memerintahkan	-10.1307
ikin	-10.1312
▁dibanding	-10.1328
▁efek	-10.1335
▁Soekarno	-10.1335
▁mengusulkan	-10.1335
▁patroli	-10.1335
▁lini	-10.1336
▁Malam	-10.1336
▁pidato	-10.1356
▁Setiap	-10.1361
▁Real	-10.1362
▁kuota	-10.137
▁penilaian	-10.137
▁sopir	-10.137
▁berkunjung	-10.137
▁dijual	-10.137
▁memproduksi	-10.137
▁stabilitas	-10.1371
▁Garut	-10.1371
▁San	-10.1378
▁Tetap	-10.1379
▁Iwan	-10.1382
▁ponsel	-10.1405
▁akbar	-10.1405
▁TKP	-10.1407
POK	-10.1412
emendikbudristek	-10.1413
raya	-10.1413
▁bin	-10.1416
▁diungkapkan	-10.1419
▁skala	-10.1421
▁Sam	-10.1428
▁Trans	-10.1434
ny	-10.1437
▁Lestari	-10.144
▁jejak	-10.144
▁pesta	-10.1443
▁Lewat	-10.1444
▁berawal	-10.1445
▁kabinet	-10.1461
BMKG	-10.1463
ger	-10.1474
▁Sipil	-10.1475
▁inovatif	-10.1475
▁menyadari	-10.1475
▁menandai	-10.1475
ten	-10.1484
jam	-10.1505
har	-10.1505
wati	-10.1508
▁limbah	-10.151
▁Lintas	-10.1511
▁Empat	-10.1511
▁unik	-10.1545
▁mengisi	-10.1551
▁angkatan	-10.1578
▁finansial	-10.158
▁Deput	-10.1581
▁Kapolsek	-10.1581
▁Head	-10.1581
▁Kecelakaan	-10.1582
▁kayu	-10.1584
rat	-10.1605
bel	-10.1615
▁Kepegawaian	-10.1616
▁legislatif	-10.1616
▁mempromosikan	-10.1616
▁menghancurkan	-10.1616
▁Jambi	-10.1616
▁forum	-10.1618
▁CCTV	-10.1619
chi	-10.1624
zi	-10.1626
om	-10.163
▁Bus	-10.1633
ser	-10.1634
▁TV	-10.1636
▁diatur	-10.1639
▁setahun	-10.164
tis	-10.1642
▁jual	-10.1643
▁YouTube	-10.1648
▁Bahlil	-10.1651
▁disabilitas	-10.1651
▁dosen	-10.1651
▁pengemudi	-10.1652
▁Muhammadiyah	-10.1652
▁Banyuwangi	-10.1652
▁ganja	-10.1654
▁brand	-10.1655
▁raya	-10.1664
pakah	-10.1672
▁Said	-10.1672
enanggulangan	-10.1685
▁Pariwisata	-10.1687
▁Masuk	-10.1695
tel	-10.17
▁kondusif	-10.1722
▁persyaratan	-10.1723
▁menempatkan	-10.1723
▁Sigit	-10.1724
▁Persik	-10.1726
gantung	-10.1737
▁Laga	-10.1739
▁2017	-10.1749
▁main	-10.1751
▁tampaknya	-10.1756
PA	-10.1757
▁menjamin	-10.1759
▁menyelamatkan	-10.1759
ban	-10.1759
▁latar	-10.1759
▁pandemi	-10.1763
▁setuju	-10.1763
ham	-10.1766
annya	-10.177
BANG	-10.1771
ara	-10.1781
▁Waktu	-10.18
q	-10.1802
▁kontestasi	-10.1831
▁kewenangan	-10.1831
▁John	-10.1834
▁mewah	-10.1835
▁semacam	-10.1835
▁Sekitar	-10.1836
▁butuh	-10.1838
▁PPN	-10.1844
▁Imin	-10.1849
▁Olahraga	-10.1867
▁pertimbangan	-10.1867
▁stunting	-10.1867
▁gizi	-10.1867
▁Mirzani	-10.1868
▁Director	-10.1868
19	-10.1868
▁Investasi	-10.1869
▁jembatan	-10.1869
▁Fajar	-10.1872
▁asasi	-10.1873
▁Dirjen	-10.1876
menyita	-10.1884
▁Alam	-10.1888
Tidak	-10.1894
▁pembiayaan	-10.1904
▁Pondok	-10.1904
▁kelola	-10.1904
▁seri	-10.1907
▁kapan	-10.1909
▁Nah	-10.1926
▁Fa	-10.1927
▁unggahan	-10.193
▁All	-10.1931
▁Serentak	-10.1941
▁kekayaan	-10.1941
▁Komite	-10.1941
▁Soekarnoputri	-10.1941
▁Mataram	-10.1941
▁stasiun	-10.1942
pol	-10.1944
melainkan	-10.1947
▁melintas	-10.195
▁Ki	-10.1952
▁Sat	-10.1958
ers	-10.196
00	-10.1961
program	-10.1968
▁Bima	-10.1975
▁ilmu	-10.1976
▁Aktris	-10.1977
▁integritas	-10.1977
▁mengawasi	-10.1977
▁penguatan	-10.1977
▁Ryan	-10.2008
▁Persatuan	-10.2014
▁rekapitulasi	-10.2014
▁saluran	-10.2014
▁Wanita	-10.2015
16	-10.2024
▁spesial	-10.2036
▁kemudahan	-10.2046
MA	-10.205
▁alternatif	-10.2051
▁karbon	-10.2051
▁skema	-10.2051
▁Yordania	-10.2051
▁kemasan	-10.2051
▁memperkirakan	-10.2052
▁Lima	-10.2054
▁agen	-10.2057
▁Harus	-10.2062
▁US	-10.2064
my	-10.2081
cenderung	-10.2088
▁mengevakuasi	-10.2088
▁terpisah	-10.2088
▁Kriminal	-10.2089
▁Asosiasi	-10.2089
▁perempat	-10.209
▁terkenal	-10.2092
▁Sumbar	-10.2097
▁mengundang	-10.2107
▁berapa	-10.2109
▁Cup	-10.211
▁bertahun	-10.2111
▁Menang	-10.2111
▁situ	-10.2111
▁Wong	-10.2113
▁dirawat	-10.2115
▁depannya	-10.2118
▁Wisata	-10.2125
▁merebut	-10.2126
▁bahaya	-10.2129
▁Rahmat	-10.2129
▁timnas	-10.2132
▁ledakan	-10.2133
▁Kasi	-10.2143
▁Pem	-10.2153
ina	-10.2155
▁contoh	-10.2156
▁Buleleng	-10.2163
▁riset	-10.2163
▁sisa	-10.2164
▁bom	-10.2171
▁Terima	-10.2175
ment	-10.2175
▁Mall	-10.2175
▁Vina	-10.2181
▁dilarang	-10.219
Karena	-10.2192
▁Sub	-10.2194
▁Kadin	-10.22
▁Hartarto	-10.2201
▁komoditas	-10.2201
▁AD	-10.2201
▁sel	-10.2208
land	-10.2212
▁Ku	-10.2219
▁parpol	-10.2234
ub	-10.2236
cara	-10.2238
▁Balikpapan	-10.2239
▁Hulu	-10.224
▁sebelah	-10.2241
▁pencalonan	-10.2266
▁keinginan	-10.2271
▁Kabinet	-10.2276
▁bertindak	-10.2277
▁penjaga	-10.2278
▁sengketa	-10.2279
▁massal	-10.2281
▁Nama	-10.2287
▁imbuh	-10.2304
▁disambut	-10.2306
par	-10.2314
▁game	-10.2314
▁menyelidiki	-10.2314
▁pembentukan	-10.2314
▁Taliban	-10.2315
▁perilaku	-10.2316
▁berpikir	-10.2316
ATEN	-10.2322
▁mencerm	-10.2322
▁AMIN	-10.2324
▁PNM	-10.2327
din	-10.2333
▁33	-10.234
▁da	-10.2344
ps	-10.2351
▁gerimis	-10.2353
▁pesisir	-10.2353
▁dikabarkan	-10.2353
▁populasi	-10.2353
▁pesantren	-10.2353
▁literasi	-10.2353
▁kecurangan	-10.2354
▁tayang	-10.2356
▁ASDP	-10.2357
▁aktor	-10.2359
der	-10.2368
▁75	-10.2377
▁Expo	-10.2385
▁Fransiskus	-10.2391
▁Purwakarta	-10.2391
▁menabrak	-10.2391
▁mineral	-10.2391
▁Teguh	-10.2391
▁Ilmu	-10.2391
▁League	-10.2394
yu	-10.2395
▁lulusan	-10.2411
▁Q	-10.2419
BI	-10.2422
▁menemui	-10.2429
▁pemulihan	-10.2429
▁Regional	-10.243
▁kuliah	-10.243
▁persaingan	-10.243
▁nutrisi	-10.2432
▁pilpres	-10.2432
▁bersiap	-10.2435
▁Reza	-10.2449
▁analis	-10.2457
▁Lokasi	-10.2458
▁Raih	-10.2462
▁km	-10.2462
▁Buka	-10.2463
▁Rohingya	-10.2468
▁dipanggil	-10.2468
▁memakai	-10.2468
▁menghilang	-10.2468
▁ataupun	-10.2469
▁terbanyak	-10.247
▁Peristiwa	-10.2471
▁habis	-10.2472
▁Meksiko	-10.2472
po	-10.2473
▁kemerdekaan	-10.2474
▁Total	-10.2476
enggan	-10.2478
▁37	-10.2482
▁dimaksud	-10.2484
res	-10.2485
▁pembuatan	-10.2486
▁Bagian	-10.2493
▁Semen	-10.2496
▁BPJS	-10.2507
▁Katolik	-10.2507
▁SOLO	-10.2507
▁gagasan	-10.2507
▁memainkan	-10.2507
▁mekanisme	-10.2507
▁memajukan	-10.2507
▁Yusuf	-10.2507
▁Tugas	-10.2507
▁pengobatan	-10.2507
▁Hi	-10.2513
▁hasilnya	-10.2515
▁Park	-10.2519
▁Tu	-10.2527
Emil	-10.2539
▁pemudik	-10.2546
▁ayam	-10.2546
▁Juara	-10.2546
▁Kuasa	-10.2546
▁kualifikasi	-10.2547
isi	-10.2553
▁berlaga	-10.2555
▁berkas	-10.2559
▁implementasi	-10.2564
RS	-10.2566
▁Kuta	-10.2567
▁Har	-10.2574
▁Akibat	-10.2581
▁memfasilitasi	-10.2585
▁pemangku	-10.2585
▁kuliner	-10.2585
▁bunuh	-10.2585
▁Coach	-10.2585
▁Ammar	-10.2585
▁Kompleks	-10.2587
▁menentang	-10.2587
▁Khan	-10.2588
▁pandangan	-10.2591
▁teh	-10.2593
▁pembatasan	-10.2593
▁Brand	-10.2593
jaya	-10.2605
▁Day	-10.2606
tas	-10.2609
Indonesia	-10.2617
▁antusias	-10.2623
cita	-10.2624
▁Halilintar	-10.2624
▁Daftar	-10.2624
▁Jayapura	-10.2625
▁seluas	-10.2626
▁pensiun	-10.2629
▁penjelasan	-10.2654
▁perbuatan	-10.2654
▁transparan	-10.2661
▁berpendapat	-10.2663
▁dievakuasi	-10.2663
▁mempengaruhi	-10.2663
▁Lee	-10.2665
▁Benny	-10.2666
▁kendala	-10.2666
▁adik	-10.2673
▁Kristiyanto	-10.2703
▁Pangarep	-10.2703
▁derajat	-10.2703
▁terdekat	-10.2703
▁sambungnya	-10.2706
ABUP	-10.2707
if	-10.2727
▁pengacara	-10.2734
24	-10.2739
▁denda	-10.2741
▁menguasai	-10.2743
kali	-10.2749
besaran	-10.2752
ver	-10.2762
▁Xi	-10.2766
luka	-10.2768
30	-10.2769
cu	-10.2773
▁belakangan	-10.2773
▁Ca	-10.2773
▁pengaruh	-10.2777
▁Bareskrim	-10.2782
▁pemahaman	-10.2783
▁Pratama	-10.2783
▁mengonfirmasi	-10.2783
▁bermanfaat	-10.2783
▁perahu	-10.2784
-79	-10.2784
he	-10.2784
▁Inovasi	-10.2785
▁kisah	-10.2789
▁KTT	-10.2791
▁ganda	-10.2798
▁g	-10.2799
rah	-10.2808
Muhaimin	-10.2816
▁Yo	-10.2821
▁Teuku	-10.2822
▁album	-10.2822
▁dewan	-10.2825
PT	-10.2827
▁pengawas	-10.2828
sar	-10.2844
▁Do	-10.2845
▁Alhamdulillah	-10.2849
oh	-10.2859
▁Bhayangkara	-10.2863
▁menghubungi	-10.2863
▁WhatsApp	-10.2863
▁deras	-10.2864
▁baku	-10.2864
▁Risma	-10.2866
▁Gede	-10.2866
▁bendera	-10.2871
▁Juta	-10.2872
▁ka	-10.2875
▁He	-10.2887
kat	-10.2889
▁stabil	-10.2895
▁Putu	-10.2902
▁cerai	-10.2903
▁membatalkan	-10.2903
▁pertambangan	-10.2903
▁tawuran	-10.2903
▁kritis	-10.2903
▁Reformasi	-10.2903
▁Asep	-10.2906
▁reformasi	-10.2909
▁Biro	-10.2909
▁St	-10.291
tim	-10.2917
▁Artinya	-10.2925
▁jutaan	-10.2934
utip	-10.2941
▁Business	-10.2943
▁Istimewa	-10.2943
▁memerlukan	-10.2943
▁pemberantasan	-10.2943
▁waspada	-10.2943
▁terkini	-10.2943
▁Perumahan	-10.2943
▁ditangani	-10.2944
▁mengklaim	-10.2944
▁Merdeka	-10.2944
▁pas	-10.2945
▁Tempat	-10.2946
jalan	-10.2947
▁kelima	-10.2952
▁Anas	-10.2973
rak	-10.2977
Saat	-10.2978
▁otomotif	-10.2984
▁pelamar	-10.2984
▁pelecehan	-10.2984
▁memudahkan	-10.2984
▁diperoleh	-10.2984
▁Thomas	-10.2984
▁Cabang	-10.2984
▁motif	-10.2988
▁Rutan	-10.2993
▁memaksa	-10.2996
Pilkada	-10.3019
▁Achmad	-10.3025
▁sawit	-10.3025
▁dimanfaatkan	-10.3025
▁terancam	-10.3026
nama	-10.3026
▁prajurit	-10.3026
▁mandiri	-10.3027
ster	-10.303
▁itulah	-10.3031
yanto	-10.3032
▁Bey	-10.3034
▁Pemenangan	-10.3036
ant	-10.3043
▁NTT	-10.3044
▁puas	-10.3057
Dari	-10.3063
▁Pasuruan	-10.3066
▁memperhatikan	-10.3066
▁Distrik	-10.3066
▁Edward	-10.3066
▁buruh	-10.3066
▁Tan	-10.3068
▁Ternyata	-10.3069
▁manis	-10.3071
▁Bi	-10.3076
▁t	-10.3078
ib	-10.3078
▁Mi	-10.3078
isu	-10.3089
▁partainya	-10.3089
▁Selamat	-10.3101
▁konstitusi	-10.3107
▁menyetujui	-10.3107
▁Udara	-10.3107
▁keagamaan	-10.3107
▁Ta	-10.3107
▁Dis	-10.3111
▁bertema	-10.3113
▁penutupan	-10.3119
▁Uang	-10.3123
▁banding	-10.313
▁direktur	-10.3148
▁memperingati	-10.3149
▁Santoso	-10.3149
▁pilih	-10.3149
▁Ratu	-10.3149
▁pengumuman	-10.315
▁Kendaraan	-10.3151
▁Je	-10.3162
▁tembakan	-10.3174
▁menga	-10.3185
▁efisien	-10.3187
▁alih	-10.3188
ler	-10.3189
▁Basuki	-10.319
▁Jembrana	-10.319
▁responden	-10.319
▁otoritas	-10.319
▁memuji	-10.319
▁silaturahmi	-10.3191
▁properti	-10.3191
▁universitas	-10.3192
▁pinjaman	-10.3192
▁Emil	-10.3197
▁betul	-10.3214
▁Heru	-10.3219
▁rentan	-10.323
▁mencuri	-10.323
▁kurban	-10.3231
▁menderita	-10.3231
▁beasiswa	-10.3231
▁perbankan	-10.3231
▁Wijaya	-10.3232
▁KUHP	-10.3234
▁penahanan	-10.3234
▁modus	-10.3235
▁Ben	-10.3236
▁dirasakan	-10.3237
:10	-10.324
▁Bang	-10.3243
mudahan	-10.3252
▁Karang	-10.3268
perusahaan	-10.3269
▁gim	-10.3272
▁Nugroho	-10.3273
▁panen	-10.3273
▁Ahli	-10.3274
▁dingin	-10.3274
▁pergerakan	-10.3274
▁Rudy	-10.3274
ye	-10.3275
▁kritik	-10.3277
▁caleg	-10.3279
indo	-10.328
eusai	-10.328
ron	-10.3282
▁apapun	-10.3283
▁cinta	-10.3286
DA	-10.3294
ian	-10.3298
▁umumnya	-10.33
▁co	-10.3306
▁kewajiban	-10.3315
▁santri	-10.3315
▁festival	-10.3315
▁kepedulian	-10.3315
▁membeberkan	-10.3315
▁Trenggalek	-10.3316
▁menjatuhkan	-10.3316
▁penambahan	-10.3318
▁menu	-10.3318
▁ayahnya	-10.3319
pihak	-10.3325
▁Proyek	-10.3326
ine	-10.3335
▁150	-10.3336
ambang	-10.3338
▁ruangan	-10.3348
▁nyawa	-10.3351
▁Plt	-10.3353
▁Google	-10.3357
▁Dharma	-10.3358
tepatan	-10.3358
▁rombongan	-10.3358
▁markas	-10.3358
▁disiapkan	-10.3358
▁mahal	-10.3359
▁Ulama	-10.3359
▁melahirkan	-10.3359
we	-10.3362
▁pendek	-10.3363
yan	-10.3364
▁BTN	-10.3365
tujukan	-10.3368
▁asuhan	-10.3372
▁dialog	-10.3376
▁Tom	-10.3389
▁ide	-10.3392
elebritas	-10.3397
▁tetangga	-10.3398
▁mengembalikan	-10.34
▁kedaulatan	-10.34
▁Sumatra	-10.34
mengidentifikasi	-10.34
▁dijalankan	-10.34
SA	-10.3401
▁paksa	-10.3401
▁Champions	-10.3402
▁efisiensi	-10.3403
▁Tanpa	-10.3404
Ka	-10.3409
▁Kamala	-10.3409
▁Teco	-10.3426
▁tepatnya	-10.3431
▁Pi	-10.3433
▁Siapa	-10.3433
ov	-10.3441
▁Brigjen	-10.3442
▁pemberdayaan	-10.3442
▁mengecek	-10.3442
▁Probolinggo	-10.3443
▁Aku	-10.3443
ion	-10.3443
▁Cahyadi	-10.3443
awan	-10.3443
▁cita	-10.3452
Pe	-10.3461
-16	-10.3474
▁menimpa	-10.3485
▁kabur	-10.3485
▁Zelenskyy	-10.3486
▁tulang	-10.3486
▁Terlebih	-10.3486
▁menduga	-10.3486
▁Ferry	-10.3486
▁pengamat	-10.3487
▁demonstrasi	-10.3487
▁Lagi	-10.3489
▁bertanya	-10.349
Pada	-10.3492
▁sesama	-10.3499
▁band	-10.3506
▁Edi	-10.3518
12	-10.3518
▁Development	-10.3528
▁mengecam	-10.3528
▁bikin	-10.3529
▁En	-10.3529
▁siber	-10.3531
▁Yasin	-10.3536
▁Pesan	-10.3537
gan	-10.3541
tek	-10.3564
af	-10.3568
▁membenarkan	-10.3571
▁ruas	-10.3571
▁jarang	-10.3571
▁Plus	-10.3576
▁disebutkan	-10.3577
▁Misalnya	-10.3579
▁invasi	-10.3579
▁up	-10.3584
ning	-10.3585
▁Car	-10.3598
▁Fatoni	-10.3614
▁Madiun	-10.3614
▁Miliar	-10.3614
▁Kereta	-10.3615
▁Kampus	-10.3615
tur	-10.3617
▁pembinaan	-10.362
▁aparatur	-10.3621
▁AP	-10.3622
▁WNI	-10.3629
▁Penyidik	-10.3629
▁berhak	-10.3637
▁lebaran	-10.3638
ibu	-10.3641
▁Run	-10.3642
SK	-10.3645
▁London	-10.3658
▁Pemasyarakatan	-10.3658
▁mikro	-10.3658
▁memegang	-10.3658
▁penyelesaian	-10.3658
▁dikatakan	-10.3658
▁Arena	-10.3659
▁relawan	-10.3659
▁Teluk	-10.3659
▁kaum	-10.3659
▁Dorong	-10.3659
PK	-10.366
▁Sandra	-10.3661
▁cocok	-10.3665
▁resminya	-10.3671
▁Indo	-10.3674
▁lari	-10.3675
ngan	-10.3686
▁Kar	-10.3695
las	-10.3702
▁perlawanan	-10.3702
▁Pekerjaan	-10.3702
▁Duta	-10.3704
▁Tujuan	-10.3707
▁dituduh	-10.371
tama	-10.371
sela	-10.3722
▁Pra	-10.3742
▁komersial	-10.3745
▁Harvey	-10.3745
▁mendeklarasikan	-10.3745
▁mengizinkan	-10.3745
▁tertutup	-10.3745
▁Bobby	-10.3746
▁daun	-10.3748
▁sorotan	-10.3748
▁otak	-10.3749
▁Batang	-10.3751
▁penyelundupan	-10.3754
▁lipat	-10.3754
pu	-10.3756
PPPK	-10.3756
▁angkat	-10.378
▁Non	-10.3788
▁berkuasa	-10.379
▁federal	-10.379
▁ketertiban	-10.379
▁pendanaan	-10.379
▁hamil	-10.379
▁Aktor	-10.379
▁diplomatik	-10.379
▁material	-10.3794
▁menghabis	-10.3795
ding	-10.3795
ug	-10.3795
▁menulis	-10.3804
▁Irwan	-10.3805
▁PON	-10.3814
▁2014	-10.3822
KP	-10.3827
▁Ricis	-10.3834
▁destinasi	-10.3834
▁pembahasan	-10.3834
▁Pesantren	-10.3834
▁Pramella	-10.3834
▁Budaya	-10.3834
▁cawapres	-10.3835
▁Pasaribu	-10.3835
▁nasib	-10.3838
▁Noor	-10.3838
▁Cagub	-10.3839
▁Best	-10.3843
▁Putusan	-10.3845
▁macam	-10.3848
▁CSR	-10.3848
▁padat	-10.3849
▁etik	-10.3851
ologi	-10.3853
▁dipakai	-10.3856
▁250	-10.3862
▁Gol	-10.3866
▁Eka	-10.3874
▁terangnya	-10.3876
▁EURO	-10.3878
▁memperjuangkan	-10.3878
▁mendirikan	-10.3878
▁Wibowo	-10.3878
▁tempur	-10.3878
ALEM	-10.3878
▁Gratis	-10.3878
▁Damai	-10.3879
▁Komunitas	-10.388
▁Termasuk	-10.3885
▁tertua	-10.3886
▁Life	-10.3886
▁jabatannya	-10.3888
▁Kang	-10.39
▁tegasnya	-10.391
.30	-10.3913
▁Is	-10.3915
▁sambutan	-10.3919
▁California	-10.3923
▁Gorontalo	-10.3923
▁diterbitkan	-10.3923
▁pembalap	-10.3923
▁peduli	-10.3923
▁komponen	-10.3926
op	-10.3929
▁sambung	-10.393
SP	-10.3945
▁intensif	-10.3947
kon	-10.3954
▁Banda	-10.3958
▁terasa	-10.396
▁mencalonkan	-10.3968
▁rahasia	-10.3968
▁terkemuka	-10.3968
▁Teheran	-10.3968
▁dibebaskan	-10.3968
▁pemanfaatan	-10.3968
▁pangkalan	-10.3969
▁saing	-10.397
▁Tito	-10.397
▁Mojokerto	-10.3971
▁liburan	-10.3971
▁Ivan	-10.3972
bahan	-10.3974
▁pendiri	-10.3976
▁Kemenag	-10.3977
udin	-10.3982
▁Ne	-10.3984
▁Alex	-10.3996
▁39	-10.3998
▁diyakini	-10.4013
▁pembelajaran	-10.4013
▁kontak	-10.4013
▁tersisa	-10.4014
▁duka	-10.4015
Yang	-10.4017
▁Yaman	-10.4017
▁PBNU	-10.4018
mata	-10.4021
▁Kejati	-10.4025
▁Aman	-10.4047
▁Mega	-10.4049
▁banten	-10.4049
▁Lagu	-10.4055
cawapres	-10.4057
▁membatasi	-10.4058
▁kemitraan	-10.406
▁President	-10.4064
▁ramai	-10.4074
lia	-10.4075
▁undangan	-10.4092
Jateng	-10.4103
Polri	-10.4103
▁Maulana	-10.4103
▁dakwaan	-10.4103
▁Tangkap	-10.4104
▁Ruben	-10.4104
▁terdaftar	-10.4104
▁Suami	-10.4105
▁EV	-10.4107
▁berlokasi	-10.4109
▁55	-10.4118
ali	-10.413
TI	-10.4138
▁diper	-10.4141
▁Bahrain	-10.4149
▁Komisaris	-10.4149
▁Ponorogo	-10.4149
▁tembakau	-10.415
▁Denny	-10.4151
▁stadion	-10.4151
▁upah	-10.4152
▁Pendaftaran	-10.4152
▁berfungsi	-10.4152
▁Sari	-10.4154
▁Bangka	-10.4154
antongi	-10.4187
▁Ju	-10.4194
▁hangat	-10.4195
▁konteks	-10.4195
▁memaparkan	-10.4195
▁banget	-10.4195
▁Terminal	-10.4195
▁Bagus	-10.4196
▁Marketing	-10.4196
▁kaca	-10.4196
▁Tepi	-10.4198
▁terjangkau	-10.4199
▁by	-10.4212
▁RK	-10.4221
tasi	-10.4221
▁mela	-10.4225
▁meresmi	-10.4233
▁timah	-10.4239
▁kediaman	-10.4239
▁PM	-10.424
Setelah	-10.4241
▁Bangladesh	-10.4241
▁Penyakit	-10.4241
▁Tulungagung	-10.4241
▁wadah	-10.4241
▁ISIS	-10.4242
▁disita	-10.4242
▁kecerdasan	-10.4242
▁analisis	-10.4244
▁capaian	-10.4249
▁berlebihan	-10.4249
▁Anti	-10.4268
nanti	-10.4279
▁Koordinasi	-10.4287
▁Cara	-10.4288
▁Nyoman	-10.4289
▁Telkom	-10.429
▁Wapres	-10.4294
▁artinya	-10.4316
▁kamp	-10.4317
▁narapidana	-10.4334
▁simulasi	-10.4334
▁Bangkalan	-10.4335
▁detail	-10.4338
▁Dokumentasi	-10.4338
Itu	-10.4339
mah	-10.4339
▁bapak	-10.434
▁pra	-10.4341
▁besi	-10.4343
ruf	-10.4343
▁tertulisnya	-10.4344
▁2015	-10.4346
▁Kejari	-10.4349
▁Dito	-10.4358
cah	-10.4361
▁etika	-10.4366
▁Makanan	-10.4367
▁Benjamin	-10.4381
▁Samarinda	-10.4381
▁canggih	-10.4381
▁kamera	-10.4381
▁mempertanyakan	-10.4381
▁Dapat	-10.4381
▁Pajak	-10.4381
▁Debat	-10.4382
▁menaikkan	-10.4383
▁Siang	-10.4385
▁Pecco	-10.4386
▁Penyelenggara	-10.4395
▁mengenal	-10.4417
▁netral	-10.4427
▁panitia	-10.4428
▁mengejutkan	-10.4428
▁mengakses	-10.4428
▁LPG	-10.443
▁kajian	-10.443
ala	-10.4433
sus	-10.4435
bulan	-10.4437
▁Kuningan	-10.4437
▁sapaan	-10.4438
▁be	-10.4445
▁pemadaman	-10.4453
▁Ram	-10.4456
▁ambil	-10.446
▁mendalami	-10.4472
set	-10.4474
▁Bojonegoro	-10.4475
▁menempati	-10.4475
▁Menengah	-10.4475
▁Apple	-10.4475
▁berkampanye	-10.4476
▁Nu	-10.4476
▁penyaluran	-10.4477
▁sambutannya	-10.4479
▁Sekarang	-10.4488
▁Bella	-10.4496
▁Red	-10.4501
▁Semoga	-10.4504
▁Majalengka	-10.4522
▁bahagia	-10.4522
▁menerbitkan	-10.4522
▁pengungkapan	-10.4522
▁diraih	-10.4522
▁fenomena	-10.4522
▁suci	-10.4523
▁simbol	-10.4523
Mereka	-10.4523
▁Peserta	-10.4525
▁gunung	-10.453
▁Antam	-10.4533
▁kantong	-10.4533
18	-10.4543
kian	-10.4565
▁utamanya	-10.4565
tro	-10.4565
SI	-10.4566
bat	-10.4567
25	-10.4567
vonis	-10.4569
▁Convention	-10.457
▁Jembatan	-10.457
▁Sudjana	-10.457
▁penalti	-10.457
▁Online	-10.457
▁Ikut	-10.457
▁Resmi	-10.457
▁warung	-10.457
▁netralitas	-10.457
▁Sumenep	-10.4571
▁delegasi	-10.4571
▁Mulyadi	-10.4571
▁persatuan	-10.4574
▁Kolaborasi	-10.4577
pres	-10.4579
▁meluas	-10.4581
▁menjal	-10.4582
▁kendali	-10.4584
era	-10.4585
-13	-10.4586
▁Paul	-10.4605
▁Manfaat	-10.4618
▁Prasetyo	-10.4618
▁menguntungkan	-10.4618
▁pengangkatan	-10.4618
▁angkutan	-10.4618
▁visa	-10.4618
▁berkomunikasi	-10.4618
▁Dugaan	-10.462
▁politisi	-10.4624
yong	-10.4624
▁Cha	-10.4627
buru	-10.4632
▁dikonsumsi	-10.4638
ac	-10.4652
▁kriminal	-10.4665
▁Habib	-10.4665
▁Argentina	-10.4666
▁Situbondo	-10.4666
▁pertengahan	-10.4666
▁pengecekan	-10.4666
▁Stadium	-10.4666
▁tanya	-10.4667
▁asam	-10.4667
▁gereja	-10.4669
bes	-10.467
▁Ad	-10.4675
▁seru	-10.4685
▁Terus	-10.4686
pas	-10.4688
▁melepas	-10.4688
▁SE	-10.4691
05	-10.4695
▁Dirinya	-10.4704
▁RW	-10.471
▁Ronald	-10.4712
▁Kyiv	-10.4714
▁memasang	-10.4714
▁penemuan	-10.4714
▁minat	-10.4714
▁Serdang	-10.4714
▁penggeledahan	-10.4714
▁Lebak	-10.4715
▁Cipta	-10.4715
▁kelaparan	-10.4715
▁mengundur	-10.4715
Jika	-10.4717
40	-10.4717
▁Nilai	-10.4723
▁Auto	-10.473
ator	-10.4734
-4	-10.4735
▁melepaskan	-10.4743
+	-10.475
dik	-10.4756
▁objek	-10.4762
▁Suka	-10.4762
▁Sukarelawan	-10.4763
▁edisi	-10.4763
▁menantang	-10.4763
▁Bamsoet	-10.4765
▁Personel	-10.4765
▁Gabungan	-10.4767
▁investigasi	-10.4767
▁APBN	-10.4772
▁rencananya	-10.4773
▁Kejagung	-10.4774
▁Kemendagri	-10.4777
▁Peringatan	-10.4778
▁BI	-10.4797
bal	-10.4808
▁Gereja	-10.4811
▁diselesaikan	-10.4811
▁praperadilan	-10.4811
BP	-10.4811
▁kelancaran	-10.4811
▁Dusun	-10.4811
▁restoran	-10.4811
▁Silva	-10.4811
▁Moeis	-10.4812
▁Mitsubishi	-10.4812
▁n	-10.4814
▁selebritas	-10.4815
▁kebun	-10.4816
▁pilot	-10.4818
▁Fest	-10.4819
▁akademisi	-10.482
▁Cek	-10.4839
▁0	-10.4849
▁menjamu	-10.4857
atul	-10.486
▁ketersediaan	-10.486
▁pertunjukan	-10.486
▁badai	-10.486
▁percepatan	-10.486
▁begini	-10.486
▁dikenakan	-10.486
▁Bas	-10.4861
▁Baim	-10.4862
▁Green	-10.4862
JPNN	-10.4863
▁ditunjuk	-10.4863
tus	-10.4878
▁Un	-10.4879
kes	-10.4881
▁didapat	-10.4895
▁jawaban	-10.4902
▁Studi	-10.4906
▁permukaan	-10.491
▁Bagnaia	-10.491
▁kecantikan	-10.491
▁Tabanan	-10.491
▁imigrasi	-10.491
▁keterampilan	-10.491
▁Simak	-10.4911
▁kode	-10.4911
▁Otoritas	-10.4915
▁promosi	-10.4915
▁berkendara	-10.4915
sah	-10.4916
▁Mbak	-10.4916
▁Mulia	-10.4923
mb	-10.4923
▁Ru	-10.4925
gal	-10.4927
▁Satria	-10.494
▁la	-10.4949
▁1,5	-10.4955
▁Yamaha	-10.4959
▁melengkapi	-10.4959
▁mengkritik	-10.4959
▁persetujuan	-10.4959
▁dikembangkan	-10.4959
▁revisi	-10.4959
▁curah	-10.4959
▁Polandia	-10.4959
▁pleno	-10.496
▁sadar	-10.4962
▁sertifikasi	-10.4964
▁Diduga	-10.4965
▁hunian	-10.4966
▁pemenangan	-10.4971
alih	-10.4977
▁sa	-10.4977
IS	-10.4992
▁Ir	-10.4994
DI	-10.4997
▁Gu	-10.4997
ampir	-10.5005
onferensi	-10.5008
▁aliansi	-10.5009
▁menyuarakan	-10.5009
▁perpanjangan	-10.5009
▁Syariah	-10.5009
▁berlatih	-10.5009
▁menembus	-10.5009
▁Manahan	-10.5009
▁kadar	-10.5009
▁UI	-10.501
▁#	-10.5011
▁Panitia	-10.5011
▁Darat	-10.5015
▁jasad	-10.5017
▁Sun	-10.5024
lar	-10.5028
ati	-10.5032
▁berterima	-10.5033
od	-10.5037
▁diisi	-10.5043
nal	-10.5049
angan	-10.5055
▁klarifikasi	-10.5059
▁menjanjikan	-10.5059
▁penolakan	-10.5059
▁kesuksesan	-10.5059
▁Depan	-10.506
▁menerangkan	-10.5061
▁Arifin	-10.5066
bah	-10.5069
▁segar	-10.5072
▁Hu	-10.5076
▁ditambah	-10.5077
▁Terbaru	-10.5086
▁promo	-10.5092
▁Institut	-10.5094
▁Kurnia	-10.5108
▁top	-10.5108
▁Raharja	-10.5109
▁Sahroni	-10.5109
▁etnis	-10.5109
▁menempuh	-10.5109
▁mematikan	-10.5109
▁dapur	-10.5109
▁mengejar	-10.5109
▁pengurangan	-10.5109
▁inklusif	-10.511
▁bioskop	-10.5111
▁Dapil	-10.5113
▁Kepada	-10.5116
ip	-10.5116
▁bansos	-10.5119
▁Basarnas	-10.512
▁2024:	-10.512
tak	-10.5123
▁Live	-10.5127
▁Pasifik	-10.513
ven	-10.5132
sia	-10.5132
Ma	-10.5147
▁melintasi	-10.5148
ihal	-10.515
▁Malik	-10.515
▁masukan	-10.5151
▁Covid	-10.516
▁menyasar	-10.516
▁Persita	-10.516
▁gigi	-10.5162
▁UNRWA	-10.5164
▁ucapan	-10.5177
▁membaca	-10.5181
▁War	-10.5185
▁erat	-10.5186
▁48	-10.5187
▁Vi	-10.5193
av	-10.52
▁Water	-10.5201
TA	-10.5201
▁kawan	-10.5202
▁Seleksi	-10.521
▁ditentukan	-10.521
▁eksekutif	-10.521
▁insentif	-10.521
▁melemah	-10.521
▁Inter	-10.5213
▁Begitu	-10.5214
Dalam	-10.5215
▁Pemilih	-10.5232
TPS	-10.5233
▁Guna	-10.5235
60	-10.5251
▁Ginting	-10.5261
▁helikopter	-10.5261
▁kripto	-10.5261
▁menampung	-10.5261
▁produktivitas	-10.5261
baik	-10.5262
▁Ketut	-10.5262
yono	-10.5263
▁Indar	-10.5263
lepas	-10.5264
▁THR	-10.5269
▁DPW	-10.527
▁Pekan	-10.527
▁negaranya	-10.5271
▁Penting	-10.5272
▁bek	-10.5284
▁Ita	-10.5293
▁dibentuk	-10.5293
▁menunjuk	-10.5306
▁bersamaan	-10.5307
▁solid	-10.5312
▁Hasyim	-10.5313
▁Iduladha	-10.5313
▁menduduki	-10.5313
▁artikel	-10.5313
▁pertamanya	-10.5313
99	-10.5314
▁digitalisasi	-10.5316
NI	-10.5317
▁tangkis	-10.5318
▁paham	-10.5318
▁Kas	-10.5321
▁spesialis	-10.5335
tempat	-10.5341
US	-10.5341
ep	-10.5345
ay	-10.5358
▁Akhirnya	-10.5362
▁komprehensif	-10.5364
▁kimia	-10.5364
▁melukai	-10.5364
▁dinamika	-10.5364
▁bertekad	-10.5364
▁Onsu	-10.5365
▁suap	-10.5365
▁koleksi	-10.5366
▁voli	-10.537
▁biru	-10.5373
▁Kiai	-10.5379
kapal	-10.5381
▁diklaim	-10.5391
▁Pan	-10.5392
▁ID	-10.5394
14	-10.5395
▁opsi	-10.5399
▁SIM	-10.5399
▁olah	-10.5403
isme	-10.5404
▁Lumajang	-10.5416
▁disetujui	-10.5416
▁membebaskan	-10.5416
▁perasaan	-10.5416
▁kenapa	-10.5417
▁Ditangkap	-10.5417
▁pengambilan	-10.5419
▁botol	-10.542
▁42	-10.5421
RANG	-10.5428
50	-10.5431
▁Jalak	-10.5437
▁putus	-10.5445
▁d	-10.5453
▁Tel	-10.5464
ze	-10.5467
▁Komandan	-10.5468
▁bersikap	-10.5468
▁Solidaritas	-10.5468
▁proposal	-10.5468
▁merawat	-10.5469
▁Mari	-10.5469
▁terwujud	-10.547
▁kecewa	-10.547
▁National	-10.5472
▁Siak	-10.5473
▁Saleh	-10.5477
cer	-10.5479
▁tiap	-10.5485
rumah	-10.549
▁pendampingan	-10.5492
▁mengarah	-10.5494
▁44	-10.5496
▁Lama	-10.5498
▁penyediaan	-10.5502
▁Makan	-10.5505
tang	-10.5516
▁vonis	-10.552
▁kemacetan	-10.552
▁meyakinkan	-10.552
▁dibantu	-10.552
▁Logistik	-10.552
▁telak	-10.5521
▁basis	-10.5522
▁Ayah	-10.5524
gar	-10.5524
▁Pelatihan	-10.5525
▁mendekati	-10.5525
▁sederhana	-10.5527
▁Alasan	-10.5528
▁Satreskrim	-10.5528
▁Tuhan	-10.5529
RA	-10.553
▁mendengarkan	-10.5531
▁kg	-10.5535
▁AHY	-10.5537
▁Tentu	-10.5542
▁menyebar	-10.5544
▁mengedepan	-10.5549
In	-10.5551
▁jet	-10.5552
▁Administrasi	-10.5573
▁mempelajari	-10.5573
▁tercapai	-10.5573
▁ditawarkan	-10.5573
▁salat	-10.5575
je	-10.5576
dominasi	-10.5577
▁pil	-10.5579
▁penandatanganan	-10.5579
▁lampu	-10.5583
▁amanah	-10.5588
lon	-10.5597
▁Port	-10.5605
▁leg	-10.5619
▁harian	-10.562
▁otomatis	-10.5625
▁diakui	-10.5626
▁diabetes	-10.5626
▁perumahan	-10.5626
▁premium	-10.5626
▁Dasar	-10.5628
war	-10.5628
▁didirikan	-10.5629
▁motivasi	-10.5629
▁Buruh	-10.5629
▁hancur	-10.5635
ahkan	-10.5635
▁berikut	-10.5635
▁cadangan	-10.5637
▁pemantauan	-10.5639
90	-10.5643
rang	-10.5643
▁penyedia	-10.5645
AM	-10.5654
▁tas	-10.5656
02	-10.5663
Ba	-10.5664
kap	-10.5672
▁Boyolali	-10.5679
▁Hijriah	-10.5679
▁Nasution	-10.5679
▁kekeringan	-10.5679
▁mengendalikan	-10.5679
▁mengunggah	-10.5679
▁volume	-10.5679
enanggapi	-10.5679
▁Harupat	-10.5679
▁resolusi	-10.5679
▁menyinggung	-10.568
▁Tessa	-10.568
▁Senjata	-10.5681
▁Aditya	-10.5682
▁berisiko	-10.5683
▁Rizal	-10.5684
▁karier	-10.5684
picu	-10.5689
aran	-10.5694
▁43	-10.5701
▁bersatu	-10.5709
▁Target	-10.5709
▁400	-10.5712
BA	-10.5713
▁ditembak	-10.5717
dor	-10.5722
▁pendukungnya	-10.5723
tin	-10.5726
▁padahal	-10.5728
▁Vladimir	-10.5733
▁disediakan	-10.5733
▁Listyo	-10.5733
▁rezim	-10.5733
▁segmen	-10.5733
▁sertifikat	-10.5733
▁Citra	-10.5734
▁Duel	-10.5734
▁petahana	-10.5736
▁jumlahnya	-10.5741
▁Tegal	-10.5747
▁Harapan	-10.575
▁Gas	-10.5751
▁Timor	-10.5751
▁Abu	-10.5757
anglima	-10.5763
▁Sp	-10.5766
▁banyaknya	-10.5766
▁Andre	-10.5772
▁41	-10.5777
▁dedikasi	-10.5783
▁menelan	-10.5785
▁eksklusif	-10.5786
▁maskapai	-10.5786
▁direncanakan	-10.5787
08	-10.5787
▁Ngawi	-10.579
▁muslim	-10.5791
des	-10.5792
▁tunai	-10.5798
sta	-10.5799
▁berharga	-10.5799
▁Kunjungan	-10.58
▁diakses	-10.5801
▁KKB	-10.5804
▁asuhnya	-10.5807
▁Perse	-10.582
pang	-10.5824
▁isi	-10.5828
▁Andrew	-10.5828
▁ibunya	-10.583
▁PMI	-10.5835
▁didorong	-10.5839
▁Foundation	-10.584
▁Swedia	-10.584
▁bergulir	-10.584
▁penyeberangan	-10.584
▁umrah	-10.584
▁menggagalkan	-10.5841
▁wajar	-10.5841
▁07:0	-10.5841
▁bertahap	-10.5842
kas	-10.5843
uri	-10.5843
▁Kehadiran	-10.5847
▁merata	-10.585
▁lomba	-10.585
▁BAZNAS	-10.585
▁Asal	-10.5851
▁Pengawasan	-10.5855
▁benda	-10.5856
26	-10.5857
duk	-10.5866
uddin	-10.5871
▁pecah	-10.5871
ial	-10.5877
ex	-10.5881
enuhan	-10.5889
▁relevan	-10.5892
▁Bina	-10.5895
▁armada	-10.5895
▁dideportasi	-10.5895
▁miskin	-10.5895
▁Jaringan	-10.5895
▁mendarat	-10.5895
▁Mabes	-10.5896
▁Hasilnya	-10.5896
▁Terbaik	-10.5896
laga	-10.5897
▁Deklarasi	-10.5897
▁berkurang	-10.5898
▁Pembunuhan	-10.5899
▁Peningkatan	-10.59
▁produktif	-10.5901
▁taktik	-10.5902
▁muka	-10.5905
tanda	-10.5908
▁warisan	-10.591
▁Pati	-10.593
▁perut	-10.5932
▁Par	-10.5939
ow	-10.594
ium	-10.5942
▁Pertandingan	-10.5949
▁alumni	-10.5949
▁dipenuhi	-10.5949
▁menyeluruh	-10.5949
▁milenial	-10.5949
▁penyanyi	-10.5949
▁terpidana	-10.5949
▁Management	-10.5949
▁kiper	-10.595
▁Amran	-10.5951
io	-10.5951
▁GOR	-10.5951
▁konsolidasi	-10.5952
▁Dar	-10.5953
▁tingginya	-10.5958
▁APBD	-10.596
mem	-10.5964
▁Pengelolaan	-10.5971
▁tembak	-10.5973
TP	-10.5975
▁pengganti	-10.5977
tal	-10.5981
▁Za	-10.5984
▁Band	-10.5988
lang	-10.599
▁dimintai	-10.5993
sy	-10.5997
▁dibintangi	-10.6003
▁kelapa	-10.6004
▁Georgia	-10.6004
▁Sumedang	-10.6004
▁menindak	-10.6004
▁terintegrasi	-10.6004
▁membongkar	-10.6004
▁zaman	-10.6005
turut	-10.6005
▁tertarik	-10.6005
▁apel	-10.6005
▁Naik	-10.6008
▁Subang	-10.6008
anaknya	-10.601
masa	-10.601
▁ideal	-10.6011
80	-10.6011
▁i	-10.6019
▁Saksi	-10.6023
pura	-10.6027
RC	-10.6029
▁seputar	-10.6032
75	-10.6032
▁kliennya	-10.6033
rejo	-10.6034
▁komitmennya	-10.6036
dam	-10.6037
▁Strategi	-10.6044
▁dilanda	-10.6044
▁20:0	-10.6051
▁membersihkan	-10.606
▁ditandatangani	-10.606
▁membakar	-10.606
▁ditingkatkan	-10.606
▁pemegang	-10.606
▁taman	-10.6061
▁bersejarah	-10.6061
▁Tentara	-10.6062
▁Cinta	-10.6062
▁Federal	-10.6062
-7	-10.6065
▁Akhir	-10.6069
Bawaslu	-10.6069
▁struktur	-10.6069
▁musuh	-10.6074
dalam	-10.6077
▁mendaftarkan	-10.608
▁ko	-10.6082
PSI	-10.6083
▁beragama	-10.6089
▁masif	-10.6091
▁Andri	-10.6091
▁Judi	-10.6093
▁Sudan	-10.6097
70	-10.6102
Komnas	-10.6103
▁Inilah	-10.6114
▁Pesawat	-10.6115
▁diberlakukan	-10.6115
▁mematuhi	-10.6115
▁membahayakan	-10.6115
▁rantai	-10.6115
▁teknik	-10.6115
▁tuntas	-10.6115
▁keturunan	-10.6115
▁lupa	-10.6116
▁tersendiri	-10.6116
▁Cilegon	-10.6116
▁hukumnya	-10.6117
▁memasukkan	-10.6117
▁Ingin	-10.6118
▁2024",	-10.6132
▁Wang	-10.614
meng	-10.6149
▁Ker	-10.615
▁lah	-10.615
entang	-10.6161
▁Sekda	-10.6169
▁sih	-10.6169
▁kubu	-10.617
▁Kreatif	-10.6171
▁Sejahtera	-10.6171
▁melampaui	-10.6171
▁General	-10.6171
▁keberangkatan	-10.6171
▁mengusut	-10.6171
▁mirip	-10.6171
▁Chief	-10.6171
▁gender	-10.6171
▁Hartono	-10.6172
▁mengurus	-10.6175
▁virus	-10.6177
▁intervensi	-10.6178
anggota	-10.6183
▁jumpa	-10.6185
-8	-10.6194
DP	-10.6198
▁Gar	-10.62
LA	-10.6212
▁Press	-10.6213
▁XXI	-10.6223
▁kepemilikan	-10.6227
▁keperluan	-10.6227
▁Segera	-10.6227
▁dibahas	-10.6227
▁menghapus	-10.6227
▁Aliansi	-10.6227
▁butir	-10.6227
▁Irish	-10.6228
▁Jaga	-10.6228
▁SERA	-10.6228
ring	-10.6229
▁maritim	-10.6229
jangkau	-10.6229
▁Jorge	-10.6229
▁bernomor	-10.6229
▁narasi	-10.6232
▁Gempa	-10.624
ben	-10.624
obatan	-10.6248
▁pemberontak	-10.625
ren	-10.6259
ity	-10.6262
ena	-10.6281
▁Purnama	-10.6283
▁mendadak	-10.6284
▁menonton	-10.6284
▁memberantas	-10.6284
▁Sukses	-10.6284
▁Pemilik	-10.6284
▁Stefano	-10.6286
▁Komitmen	-10.6289
▁Kejadian	-10.6291
:50	-10.6291
▁Show	-10.6294
harga	-10.6294
▁mengoptimal	-10.6296
ria	-10.6304
ika	-10.6309
▁menyebarkan	-10.6315
Ya	-10.6317
peng	-10.6323
▁Mer	-10.6336
▁Bek	-10.6337
▁Barcelona	-10.6341
▁Swiss	-10.6341
▁Yudhoyono	-10.6341
▁bergengsi	-10.6341
▁bjb	-10.6341
▁memengaruhi	-10.6341
▁Parawansa	-10.6341
▁diunggah	-10.6341
▁satelit	-10.6341
▁hebat	-10.6341
▁tumbang	-10.6341
▁berujung	-10.6344
▁2021.	-10.6352
▁Mal	-10.6355
▁19:0	-10.6356
▁kena	-10.6358
ket	-10.6358
▁ma	-10.6358
was	-10.6359
▁persnya	-10.6363
▁ekor	-10.6373
▁o	-10.6378
▁(1)	-10.6382
ation	-10.6385
▁Birokrasi	-10.6398
▁Cimahi	-10.6398
▁Energy	-10.6398
▁roket	-10.6398
▁absen	-10.6398
▁dicetak	-10.6398
▁Florida	-10.6398
▁Social	-10.6398
▁Daniel	-10.6399
▁berpengaruh	-10.6399
▁Meningkat	-10.6402
▁Hindu	-10.6402
▁Ajak	-10.6405
▁Kemnaker	-10.641
▁turis	-10.641
ANTARA	-10.6411
▁balasan	-10.6414
▁AC	-10.6417
daerah	-10.6417
▁DKPP	-10.642
ela	-10.6421
▁penyerang	-10.6422
▁For	-10.6424
:35	-10.6428
▁diproduksi	-10.6442
▁panel	-10.6453
▁Meninggal	-10.6455
▁horor	-10.6455
▁dihadirkan	-10.6455
▁Idris	-10.6455
▁Jati	-10.6458
▁Peduli	-10.6458
▁Anung	-10.6458
▁Seksi	-10.646
▁transfer	-10.646
▁Herman	-10.6461
▁2011	-10.6462
5.000	-10.6462
▁Ditjen	-10.6469
kasus	-10.6472
▁menyumbang	-10.6497
▁DC	-10.6502
lam	-10.6506
▁nasi	-10.6507
Ber	-10.6508
▁Makin	-10.6508
▁Mau	-10.651
▁Bandar	-10.651
▁menyimpan	-10.6512
▁Liverpool	-10.6513
▁membalas	-10.6513
▁rekening	-10.6513
▁Putera	-10.6513
▁Pengusaha	-10.6513
▁dihentikan	-10.6513
▁bareng	-10.6513
▁kebanyakan	-10.6513
▁Fuji	-10.6514
▁Manchester	-10.6514
▁Officer	-10.6516
lakoni	-10.6516
vo	-10.6517
▁baju	-10.6522
lem	-10.6529
▁65	-10.6532
nto	-10.6537
Hal	-10.6545
angkut	-10.6558
kata	-10.6559
our	-10.656
▁Miftah	-10.6571
▁Yahya	-10.6571
▁kecuali	-10.6571
▁krusial	-10.6571
▁dibunuh	-10.6571
▁walau	-10.6571
▁rilis	-10.6571
▁Ismail	-10.6572
▁Wuling	-10.6574
▁Ahok	-10.6574
▁Unair	-10.6576
▁seberat	-10.6576
01	-10.6576
▁Melihat	-10.6577
gas	-10.6579
46	-10.6585
-17	-10.6593
▁Shi	-10.6597
kom	-10.6601
▁berhati	-10.6602
red	-10.6606
▁kering	-10.6606
▁matang	-10.6613
upaya	-10.6614
▁ukuran	-10.6618
▁papan	-10.6619
▁erupsi	-10.663
▁perceraian	-10.663
▁rumput	-10.663
▁varian	-10.663
▁bilateral	-10.663
▁Brimob	-10.663
▁ulama	-10.663
▁Kristen	-10.663
▁pengaturan	-10.663
▁jenderal	-10.6632
▁pembangkit	-10.6633
▁halal	-10.6639
▁PSIM	-10.6639
▁Mungkin	-10.6643
▁ge	-10.6647
▁Strategis	-10.665
ALANG	-10.6651
kawan	-10.6653
▁Musk	-10.6653
▁batang	-10.6655
▁teror	-10.6655
▁menua	-10.6656
▁58	-10.6667
▁minim	-10.6676
jauh	-10.668
▁kepastian	-10.6688
▁perwira	-10.6688
▁lansia	-10.6688
▁hambatan	-10.6688
▁relatif	-10.6689
▁Kulon	-10.6689
▁patut	-10.6689
▁MS	-10.6689
▁rambut	-10.6691
▁pengaduan	-10.6691
anda	-10.6694
▁Sar	-10.6698
▁PUPR	-10.6704
▁mer	-10.6704
▁Cawapres	-10.6705
elang	-10.6705
▁belasan	-10.6706
ura	-10.6708
-21	-10.6709
-12	-10.6711
▁Ribu	-10.6714
▁terjun	-10.6718
kur	-10.6723
▁PB	-10.6727
.45	-10.6734
_	-10.6748
▁Insiden	-10.6748
▁Sudirman	-10.6748
▁menyarankan	-10.6748
▁raksasa	-10.6748
▁ditolak	-10.6748
▁Teknis	-10.6748
▁Tokyo	-10.6748
▁1.200	-10.6748
▁Wahid	-10.6748
▁negosiasi	-10.6749
▁figur	-10.675
▁berdarah	-10.675
▁Power	-10.6751
▁Yahudi	-10.6751
▁Mitra	-10.6751
▁Pameran	-10.6753
▁memakan	-10.6754
▁Sah	-10.6754
▁16:1	-10.6755
▁We	-10.6756
ahan	-10.6761
▁Jawab	-10.6765
28	-10.6768
les	-10.677
▁Ser	-10.6778
▁Nurul	-10.6778
▁politikus	-10.6792
ih	-10.6795
line	-10.6806
▁Kinerja	-10.6807
▁Portugal	-10.6807
▁Uzbekistan	-10.6807
▁menyenangkan	-10.6807
▁pengangguran	-10.6807
▁pengolahan	-10.6807
▁telur	-10.6807
▁Suzuki	-10.6807
▁lemak	-10.6807
▁pergantian	-10.6808
▁alokasi	-10.6808
▁mandi	-10.6808
▁Er	-10.6808
bur	-10.681
▁berhubungan	-10.6815
▁pemda	-10.6819
▁17:0	-10.682
Suswono	-10.682
▁Isu	-10.6821
nd	-10.6822
▁47	-10.6822
▁rincian	-10.6824
▁murid	-10.6825
▁Yuni	-10.6831
▁Penelitian	-10.6833
br	-10.684
▁kok	-10.6841
▁campur	-10.6844
▁Han	-10.6846
▁li	-10.6852
▁seruan	-10.6856
BS	-10.6857
▁BYD	-10.6867
▁Pencegahan	-10.6867
▁pencoblosan	-10.6867
▁melebihi	-10.6867
▁nikel	-10.6867
▁perhitungan	-10.6867
▁Barito	-10.6867
▁menghubungkan	-10.6868
▁Turun	-10.6868
▁Haiti	-10.6868
aksi	-10.6869
utamakan	-10.6876
Hamas	-10.6881
▁beber	-10.6881
▁putranya	-10.6884
▁Peran	-10.6888
▁penuntut	-10.6892
▁Giri	-10.6903
▁Aji	-10.6906
▁kronologi	-10.6914
ag	-10.6922
▁Mohammed	-10.6927
▁menindaklanjuti	-10.6927
▁School	-10.6927
▁kertas	-10.6927
▁memaksimalkan	-10.6927
▁Luhut	-10.6927
▁dihasilkan	-10.6927
▁mencabut	-10.6928
▁tertinggal	-10.6928
▁berhadapan	-10.6929
▁favorit	-10.6931
▁menyapa	-10.6932
▁matahari	-10.6932
PD	-10.6932
pon	-10.6933
▁Politikus	-10.6935
▁Bunga	-10.6937
▁Ikat	-10.6938
▁Persen	-10.6941
▁indikasi	-10.6947
▁dipercaya	-10.6953
-3	-10.6957
▁Demi	-10.6968
▁abad	-10.6981
▁88	-10.6986
▁Susanto	-10.6987
▁Faisal	-10.6988
▁Fikri	-10.6988
▁menyesuaikan	-10.6988
▁Pelajar	-10.6988
▁tercipta	-10.6989
▁pesat	-10.6989
ish	-10.699
▁terheboh	-10.699
aw	-10.6992
▁perundingan	-10.6993
▁terorisme	-10.6995
bagi	-10.7001
▁GIIAS	-10.7005
▁diubah	-10.7006
▁semata	-10.7009
gel	-10.701
:45	-10.7014
▁Bola	-10.7016
▁Suci	-10.7017
▁GP	-10.7018
ida	-10.7023
▁Ros	-10.7025
▁Muara	-10.7026
▁hidupnya	-10.703
▁Puan	-10.7038
kira	-10.7045
▁terbunuh	-10.7049
▁Asuransi	-10.7049
▁Pemberdayaan	-10.7049
▁perencanaan	-10.7049
▁memperpanjang	-10.7049
▁Fauziyah	-10.7049
▁musisi	-10.7049
▁17:1	-10.705
▁Awal	-10.705
▁bercerita	-10.7051
▁Tegas	-10.7052
▁Diponegoro	-10.7052
▁gejala	-10.7053
▁memecah	-10.7056
▁Food	-10.7058
buat	-10.7059
andalkan	-10.7065
▁pemadam	-10.7077
▁balapan	-10.7077
▁PPK	-10.7079
▁Siswa	-10.7085
top	-10.7087
▁Jam	-10.7098
▁Heri	-10.7104
▁es	-10.7107
dana	-10.7107
▁AM	-10.7109
▁Pendayagunaan	-10.711
▁Sulaiman	-10.711
▁gembira	-10.711
▁ketenagakerjaan	-10.711
▁manufaktur	-10.711
▁mulut	-10.711
▁Komisioner	-10.711
▁mengharapkan	-10.711
▁menghargai	-10.711
pro	-10.711
▁Ambon	-10.711
▁2023-2024	-10.7111
▁Diri	-10.7113
▁SPBU	-10.7114
▁Sosialisasi	-10.7114
▁terbarukan	-10.7115
▁padi	-10.7118
pat	-10.7121
34	-10.7125
▁berturut	-10.7125
▁Arie	-10.7128
▁Sangat	-10.713
.500	-10.7134
▁Mak	-10.7134
▁KTP	-10.7135
▁Jan	-10.7152
sin	-10.7154
100	-10.7164
▁Pamekasan	-10.7172
▁Telegram	-10.7172
▁hoaks	-10.7172
▁komandan	-10.7172
▁stres	-10.7172
▁Cikarang	-10.7172
▁Mahendra	-10.7172
▁Research	-10.7172
▁Azwar	-10.7172
▁lemah	-10.7172
▁ditempatkan	-10.7173
▁Mudik	-10.7173
▁disahkan	-10.7173
▁Kebangkitan	-10.7173
▁terjebak	-10.7173
▁Mengapa	-10.7174
▁keluhan	-10.7176
▁BSD	-10.7176
▁gelap	-10.7176
▁Potensi	-10.7176
29	-10.7178
▁Kalsel	-10.7178
▁warganet	-10.7179
▁Laku	-10.7181
Manajer	-10.7183
jalin	-10.7185
▁Nataru	-10.7186
pusat	-10.7186
partai	-10.7188
ky	-10.7195
▁Ti	-10.7197
IKN	-10.72
▁berikan	-10.7201
▁Fitri	-10.7212
pri	-10.7216
▁Du	-10.7221
▁Kendal	-10.7225
ping	-10.7229
▁Aparat	-10.7234
▁Kehutanan	-10.7234
▁Migran	-10.7234
▁Boeing	-10.7234
▁dicapai	-10.7234
▁ketinggian	-10.7234
▁Komando	-10.7234
▁jelang	-10.7234
▁Dasco	-10.7234
▁disiplin	-10.7241
▁PPDB	-10.7248
fe	-10.7257
▁2024/2025	-10.7259
▁Sport	-10.7262
▁tuanya	-10.7264
▁Rahman	-10.7267
▁praktis	-10.7268
CC	-10.7271
▁mengajar	-10.7272
▁kain	-10.7272
aja	-10.7273
▁lebar	-10.7278
▁pak	-10.7286
▁Sekretariat	-10.7297
▁terjatuh	-10.7297
▁wacana	-10.7297
▁Asisten	-10.7297
▁kegagalan	-10.7299
▁Kekerasan	-10.7299
▁Or	-10.73
▁medan	-10.7303
KI	-10.7308
▁BNI	-10.7312
Pemkot	-10.7313
▁07:1	-10.7316
▁Pastikan	-10.7318
-25	-10.7322
▁Pu	-10.7329
▁tangkap	-10.7329
uan	-10.7335
▁Punya	-10.7345
way	-10.7358
▁sepatu	-10.7359
▁Perkasa	-10.7359
▁Beirut	-10.7359
▁Racing	-10.7359
▁Zulkifli	-10.7359
▁bermotor	-10.7359
▁perkebunan	-10.7359
▁verifikasi	-10.7359
▁memandang	-10.7359
▁kebudayaan	-10.7359
▁jujur	-10.7359
▁Rahayu	-10.736
▁Dardak	-10.736
▁tipis	-10.736
▁menghantam	-10.7362
▁BP	-10.7362
▁Kan	-10.7364
▁Malut	-10.7365
▁bersubsidi	-10.7365
▁Situasi	-10.7365
▁ujian	-10.7366
▁Ulang	-10.7367
▁Chi	-10.7368
▁Soe	-10.7369
▁penyebaran	-10.7371
▁niat	-10.7374
▁indah	-10.7376
bas	-10.7377
▁One	-10.7377
▁profesi	-10.7379
▁2.000	-10.7384
▁geng	-10.7385
▁Masalah	-10.7385
▁bernilai	-10.7386
▁jalannya	-10.7389
▁Astra	-10.7389
tha	-10.7393
▁multi	-10.7395
▁Eman	-10.7406
38	-10.7412
▁Sehat	-10.7413
kir	-10.7416
▁lo	-10.7423
▁Alumni	-10.7423
▁Thariq	-10.7423
▁bersinergi	-10.7423
▁perundungan	-10.7423
▁single	-10.7423
▁Teknik	-10.7423
▁web	-10.7423
▁kebaikan	-10.7423
▁Sampah	-10.7423
▁penyandang	-10.7424
▁Kevin	-10.7424
▁Kuala	-10.7427
▁Koperasi	-10.7427
▁kucing	-10.7428
ino	-10.7431
▁zat	-10.7432
-15	-10.7432
▁bara	-10.7434
▁membuatnya	-10.7436
▁16:2	-10.7437
▁Hati	-10.7438
▁RIDO	-10.7438
▁ki	-10.7441
▁20:2	-10.7443
ate	-10.7449
dah	-10.7451
▁pengelola	-10.7451
▁pa	-10.7451
bin	-10.7452
▁tahan	-10.7452
LO	-10.7455
jen	-10.7469
aan	-10.7476
▁ga	-10.7476
sut	-10.748
▁Kemayoran	-10.7486
▁Pelanggan	-10.7486
▁amunisi	-10.7486
▁bertanding	-10.7486
▁menuntaskan	-10.7486
▁penasihat	-10.7486
▁Seoul	-10.7486
▁memadai	-10.7486
▁menyusun	-10.7486
▁Finance	-10.7486
▁Sampang	-10.7488
▁Final	-10.7488
▁Sepanjang	-10.7488
▁berinovasi	-10.7489
▁Solusi	-10.749
27	-10.749
▁Milik	-10.7491
ts	-10.7493
▁mengangkut	-10.7493
▁Rokan	-10.7497
▁diajak	-10.7498
▁ganti	-10.7499
▁ujung	-10.7502
▁Hall	-10.7502
▁Tour	-10.7502
by	-10.7504
▁Harun	-10.7505
▁kayak	-10.7508
The	-10.7508
▁2021,	-10.7509
dasarkan	-10.7513
▁ban	-10.7516
▁out	-10.7517
▁dukungannya	-10.7521
KA	-10.7525
▁20:4	-10.7541
len	-10.7542
▁sinyal	-10.7548
PL	-10.7548
▁live	-10.7549
▁Toyota	-10.7551
▁konstruksi	-10.7551
▁memberlakukan	-10.7551
▁Senat	-10.7551
▁Ansor	-10.7551
▁Peluang	-10.7551
▁Garda	-10.7553
▁bawang	-10.7553
▁Menaker	-10.7553
ef	-10.7554
▁seniman	-10.7554
▁bibit	-10.7555
SDN	-10.7556
▁segi	-10.7557
▁Sales	-10.7557
▁dijaga	-10.756
▁Atta	-10.7566
▁Lin	-10.757
▁kakak	-10.757
▁wilayahnya	-10.7573
▁16:0	-10.7573
luk	-10.7574
▁09:0	-10.7581
rt	-10.7588
▁Musik	-10.7591
▁tenda	-10.7592
▁bawa	-10.761
rikatan	-10.7611
▁moral	-10.7614
▁Hyundai	-10.7615
▁Kakanwil	-10.7615
▁melantik	-10.7615
▁memikirkan	-10.7615
▁rekrutmen	-10.7615
▁tertib	-10.7615
▁diinginkan	-10.7615
▁dikarenakan	-10.7615
▁Week	-10.7615
▁stok	-10.7617
▁keyakinan	-10.7618
▁aborsi	-10.7618
▁berkomentar	-10.7618
▁Health	-10.7619
▁Salim	-10.762
▁gelandang	-10.7622
▁Bantu	-10.7623
▁Penyuluhan	-10.7624
ini	-10.7626
ez	-10.7626
dit	-10.7628
BPBD	-10.7633
adu	-10.7639
▁Los	-10.7639
▁Po	-10.7641
▁penderita	-10.7645
PI	-10.7646
implementasikan	-10.765
Dia	-10.765
▁batangan	-10.7652
▁Deli	-10.7656
▁Edy	-10.7656
▁Prima	-10.7664
▁ha	-10.7671
▁kandung	-10.7674
gara	-10.7677
▁Nugraha	-10.768
▁cerdas	-10.768
▁kuartal	-10.768
▁permukiman	-10.768
▁drama	-10.768
▁Mulyani	-10.768
▁Kendati	-10.7681
▁posko	-10.7683
▁Buah	-10.7689
▁liter	-10.769
▁tawaran	-10.769
▁peluru	-10.769
▁biji	-10.7695
▁Perlu	-10.7698
▁dibagikan	-10.7701
ide	-10.7717
ras	-10.7725
PKB	-10.7739
her	-10.7739
▁Dian	-10.774
▁52	-10.774
▁yong	-10.7743
▁Facebook	-10.7745
▁Kehormatan	-10.7745
▁Narkotika	-10.7745
▁Sarwendah	-10.7745
▁pemerasan	-10.7745
▁sempurna	-10.7745
▁trauma	-10.7745
▁citra	-10.7745
▁agak	-10.7745
▁Jepara	-10.7745
▁Banyumas	-10.7745
▁Kartu	-10.7748
▁temannya	-10.7748
▁Intan	-10.7749
▁sewaktu	-10.7753
▁melangkah	-10.7755
▁lambat	-10.7757
sya	-10.7761
▁Assad	-10.7761
▁Mada	-10.7768
▁Fakta	-10.7769
iyah	-10.777
▁bangkit	-10.7771
▁akar	-10.7774
▁Tua	-10.7777
▁rekam	-10.7778
PM	-10.7779
RT	-10.7783
▁Lask	-10.7786
kel	-10.7789
kam	-10.7791
▁Pri	-10.7797
▁Musi	-10.7802
▁51	-10.7806
▁Awalnya	-10.7808
▁Keadilan	-10.7811
▁Pengendali	-10.7811
▁Wisnu	-10.7811
▁netizen	-10.7811
▁pengedar	-10.7811
▁keberatan	-10.7811
▁wasit	-10.7811
▁Belitung	-10.7811
▁ilmuwan	-10.7813
▁Daop	-10.7813
▁Ducati	-10.7815
▁Kalteng	-10.7818
cha	-10.7818
▁ormas	-10.7823
lembaga	-10.7831
Rano	-10.7831
▁ciri	-10.7836
▁penulis	-10.784
▁KIM	-10.7842
▁JPU	-10.7842
cur	-10.7845
▁dijatuh	-10.7848
ee	-10.7849
▁abu	-10.786
▁stakeholder	-10.7867
▁mi	-10.787
▁Banjar	-10.7875
-5	-10.7876
▁Ryder	-10.7877
▁kehormatan	-10.7877
▁gratifikasi	-10.7877
▁pencabulan	-10.7877
▁Bebas	-10.7878
▁Ilegal	-10.7878
▁Sha	-10.7879
▁Menjadi	-10.7881
ira	-10.7883
▁jalanan	-10.7885
sik	-10.7885
jak	-10.7886
▁anjing	-10.7886
▁tergantung	-10.7887
▁diam	-10.7888
▁miras	-10.789
▁Human	-10.789
▁08:0	-10.7893
ou	-10.7894
▁penghasilan	-10.7895
▁melakukannya	-10.7897
rin	-10.7898
UMKM	-10.7898
▁satuan	-10.791
▁seks	-10.7913
AL	-10.7916
▁menyerah	-10.7917
22	-10.792
pel	-10.7923
ima	-10.7924
atan	-10.7926
▁Service	-10.7933
▁super	-10.7936
emungutan	-10.7943
▁indekos	-10.7944
▁kreativitas	-10.7944
▁penataan	-10.7944
▁rehabilitasi	-10.7944
▁zakat	-10.7944
▁menjerat	-10.7944
▁memukul	-10.7944
▁Akmal	-10.7944
▁Proliga	-10.7944
▁FIFA	-10.7944
▁inisial	-10.7944
▁Zakat	-10.7945
▁1998	-10.7946
▁Izin	-10.7947
▁pilar	-10.7947
▁kondisinya	-10.7948
umbu	-10.7948
▁Ayat	-10.7949
▁sahabat	-10.7949
▁intimidasi	-10.795
▁Bule	-10.7954
▁SYL	-10.7956
21	-10.7964
▁Mah	-10.7968
▁sumpah	-10.7971
▁pinggir	-10.7977
▁AA	-10.7978
ila	-10.7979
▁Bangun	-10.7981
let	-10.7984
▁makna	-10.7988
▁Merak	-10.7988
Hari	-10.7989
▁2020.	-10.7989
▁Amir	-10.7992
dis	-10.7993
▁ku	-10.8004
▁Mata	-10.8005
UN	-10.8006
44	-10.801
▁FOTO	-10.8011
▁Banyuasin	-10.8011
▁Pahlawan	-10.8011
▁Sosok	-10.8011
▁Suasana	-10.8011
▁dikuasai	-10.8011
▁disalurkan	-10.8011
▁terobosan	-10.8011
▁semoga	-10.8011
▁kebiasaan	-10.8011
▁antisipasi	-10.8011
▁betapa	-10.8011
▁Konser	-10.8011
▁Kurniawan	-10.8012
▁Vice	-10.8013
▁terjaga	-10.8013
▁1-0	-10.8014
▁mendominasi	-10.8015
▁ternama	-10.8019
▁lapisan	-10.8021
ola	-10.8023
ast	-10.8026
▁cek	-10.8027
▁13:0	-10.8028
▁Momen	-10.8029
Bangsa	-10.8033
▁98	-10.8034
Selain	-10.8035
tah	-10.8036
45	-10.8037
▁Min	-10.8039
undangan	-10.8039
▁meja	-10.8043
MS	-10.8049
-2	-10.8057
bus	-10.8059
▁56	-10.8062
enetapan	-10.8077
▁Jombang	-10.8079
▁PEKANBARU	-10.8079
▁operator	-10.8079
▁mengabaikan	-10.8079
▁menghambat	-10.8079
▁2024-2025	-10.8079
▁kuning	-10.8079
▁penempatan	-10.8079
▁Saputra	-10.8079
▁penyerahan	-10.808
▁marak	-10.808
▁antusiasme	-10.8081
▁reaksi	-10.8081
▁Aplikasi	-10.8083
▁kelurahan	-10.8085
▁Sulteng	-10.8089
▁Wira	-10.8089
ansyah	-10.8091
▁Waspada	-10.8091
▁siaga	-10.8092
Rancangan	-10.8096
ardi	-10.8098
▁Mus	-10.8099
sangat	-10.8101
▁blok	-10.8102
▁Halim	-10.8102
▁TKN	-10.8104
ll	-10.8106
▁Jong	-10.8109
▁penjual	-10.8111
IN	-10.8111
▁membacakan	-10.8118
▁Area	-10.8119
▁finis	-10.8123
dal	-10.8129
-11	-10.8132
▁istilah	-10.8147
▁Academy	-10.8147
▁Michael	-10.8147
▁pemanggilan	-10.8147
▁punggung	-10.8147
▁terdengar	-10.8147
▁sengit	-10.8147
▁Supriyani	-10.8147
▁distrik	-10.8147
▁Doha	-10.8148
▁terganggu	-10.8149
▁AFC	-10.8151
ulang	-10.8151
GP	-10.8153
▁Chandra	-10.8157
▁Yan	-10.8158
▁2009	-10.816
▁Rus	-10.8164
SDM	-10.8165
▁William	-10.8172
23/	-10.8183
landia	-10.8184
▁Sore	-10.8185
bentuk	-10.8187
▁pikiran	-10.8189
enuju	-10.819
▁Let	-10.819
tic	-10.8191
kal	-10.8196
ebutan	-10.8197
▁08:3	-10.8198
ist	-10.82
▁IP	-10.8202
▁Alasannya	-10.821
▁kala	-10.8212
mat	-10.8213
ER	-10.8214
▁spesifik	-10.8214
▁Puskesmas	-10.8215
▁bersedia	-10.8215
▁kebersamaan	-10.8215
▁kriteria	-10.8215
▁membiarkan	-10.8215
▁pemakaman	-10.8215
▁penanaman	-10.8215
▁persegi	-10.8215
▁Upacara	-10.8215
▁lonjakan	-10.8215
▁Club	-10.8215
▁seminar	-10.8215
▁minoritas	-10.8215
▁batik	-10.8216
▁terdepan	-10.8217
rai	-10.8218
▁Karim	-10.8219
syah	-10.822
▁eskalasi	-10.8224
▁DBD	-10.8226
47	-10.8228
▁Baca	-10.8232
▁via	-10.8234
onal	-10.8234
▁2,5	-10.8235
Alhamdulillah	-10.8238
▁Memang	-10.8241
-6	-10.8248
▁Yoon	-10.8252
tes	-10.8253
▁Timah	-10.8255
▁Rio	-10.8256
ley	-10.8256
▁tur	-10.8257
asan	-10.826
ach	-10.826
paruh	-10.8266
▁Nanti	-10.8267
▁21:1	-10.827
embangun	-10.8274
▁Aaliyah	-10.8284
▁Gerimis	-10.8284
▁Kimberly	-10.8284
▁Virgoun	-10.8284
▁lembar	-10.8284
▁menyentuh	-10.8284
▁pengeroyokan	-10.8284
▁perkiraan	-10.8284
▁sebaliknya	-10.8284
▁Kusuma	-10.8284
▁Generasi	-10.8284
▁pembagian	-10.8284
▁dipasang	-10.8287
▁Haris	-10.829
▁bermasalah	-10.8293
▁21:2	-10.8295
▁KPPS	-10.8296
▁beraksi	-10.83
▁PK	-10.8305
▁Rusli	-10.8306
▁jaga	-10.8307
▁sebulan	-10.8307
China	-10.8308
▁46	-10.8314
▁kekasih	-10.8315
▁Unggul	-10.832
ANGE	-10.8325
▁19:4	-10.8331
Me	-10.8333
▁Pram	-10.8337
▁bea	-10.8338
▁19:1	-10.8345
▁VI	-10.8346
▁beruntun	-10.8352
▁Apresiasi	-10.8354
▁Atikoh	-10.8354
▁birokrasi	-10.8354
▁kompetitif	-10.8354
▁konkret	-10.8354
▁Nahdl	-10.8354
▁mewaspadai	-10.8354
▁Paloh	-10.8354
untuk	-10.8354
▁diskon	-10.8354
▁Formasi	-10.8354
win	-10.8354
▁beraktivitas	-10.8355
▁Dokumen	-10.8355
▁Justin	-10.8357
▁Progo	-10.8357
▁Adat	-10.8358
▁Bulog	-10.8359
Men	-10.8361
kisar	-10.8362
tung	-10.8362
▁Paula	-10.8367
tika	-10.8368
09	-10.837
▁set	-10.8371
▁dibeli	-10.8371
▁Con	-10.8371
▁ri	-10.8378
▁BSI	-10.8378
▁balita	-10.8379
▁su	-10.8381
▁Gagal	-10.8387
▁Hans	-10.8391
PS	-10.8395
▁tarik	-10.8398
▁peta	-10.8409
ukuran	-10.8421
▁almarhum	-10.8421
▁Kamboja	-10.8424
▁Merespons	-10.8424
▁bertarung	-10.8424
▁mengkhawatirkan	-10.8424
▁cuti	-10.8424
▁Mayjen	-10.8424
▁nekat	-10.8424
▁dikerahkan	-10.8424
▁Anthony	-10.8424
▁Yandri	-10.8424
▁agresif	-10.8424
▁berinvestasi	-10.8426
▁Hilang	-10.8426
▁bandang	-10.8426
▁1945	-10.8426
▁Pers	-10.8427
▁mengalir	-10.8429
▁sudut	-10.8429
▁11:0	-10.843
▁bulu	-10.8433
04	-10.8433
▁Prakiraan	-10.8434
▁sejatinya	-10.8434
▁Kepri	-10.8437
lit	-10.8438
dak	-10.844
PKS	-10.8443
▁beralih	-10.8443
▁Meny	-10.8443
▁bungkus	-10.8445
sekitar	-10.8447
iya	-10.8449
PBB	-10.8456
▁wa	-10.8457
▁Maria	-10.8459
▁makam	-10.846
▁13:1	-10.8461
TKP	-10.8461
▁Bawa	-10.8462
▁mengarahkan	-10.8463
ori	-10.8464
dha	-10.8465
▁mengganti	-10.8467
KS	-10.8467
Si	-10.8469
▁pelajaran	-10.847
▁49	-10.847
sum	-10.8489
▁mengacu	-10.8492
▁Berkelanjutan	-10.8494
▁Brazil	-10.8494
▁Indramayu	-10.8494
▁Statistik	-10.8494
▁Tannur	-10.8494
▁Project	-10.8494
▁jagung	-10.8494
Mapolda	-10.8494
▁diusulkan	-10.8494
▁atap	-10.8495
▁minimum	-10.8495
▁Kenaikan	-10.8497
▁istimewa	-10.8499
▁menge	-10.8501
SE	-10.8502
car	-10.8504
▁Pemda	-10.8505
▁Leste	-10.8506
▁Pendapatan	-10.8507
▁Sesuai	-10.8508
-30	-10.851
▁2012	-10.8512
mis	-10.8515
lis	-10.8516
uran	-10.8521
De	-10.853
Tim	-10.8531
▁pembeli	-10.8531
▁Pembina	-10.8532
▁menanam	-10.8536
dua	-10.8542
awali	-10.8547
IC	-10.8551
▁Hendra	-10.8552
ff	-10.8561
Re	-10.8562
▁perundang	-10.8564
▁Ary	-10.8564
▁Tunggal	-10.8565
▁hidangan	-10.8565
▁lingkup	-10.8565
▁Pabrik	-10.8565
▁istirahat	-10.8565
▁memerangi	-10.8565
▁Ridho	-10.8565
▁Badai	-10.8565
▁sumur	-10.8565
▁Magelang	-10.8565
▁memprediksi	-10.8566
▁Eddy	-10.8566
▁Associate	-10.8566
▁Mark	-10.8567
BK	-10.8568
▁j	-10.8568
OS	-10.8571
▁mendapati	-10.8575
▁RA	-10.8576
pak	-10.8579
49	-10.8584
yana	-10.8585
pin	-10.8587
Pemkab	-10.859
▁Kal	-10.86
▁bangun	-10.8603
▁inilah	-10.8604
▁Pat	-10.8607
▁anggotanya	-10.8608
▁berdasar	-10.8609
EC	-10.8609
wenang	-10.8616
35	-10.8618
▁JA	-10.8621
▁mengomentari	-10.8636
▁mendiang	-10.8636
▁Rizki	-10.8636
▁sawah	-10.8637
▁pemerkosaan	-10.864
▁pemainnya	-10.8641
▁Fokus	-10.8642
▁maut	-10.8643
▁Berawan	-10.8644
pora	-10.8646
▁seolah	-10.8651
▁Dishub	-10.8655
▁/	-10.866
Israel	-10.8662
▁potensial	-10.8662
▁Marga	-10.8662
Kota	-10.867
▁diungkap	-10.8677
▁didapatkan	-10.8679
bak	-10.8685
Caleg	-10.8685
CA	-10.8685
desa	-10.8691
▁Hutan	-10.8702
03	-10.8703
daya	-10.8704
▁Diskusi	-10.8708
▁Gadjah	-10.8708
▁Vadel	-10.8708
▁disesuaikan	-10.8708
▁menginspirasi	-10.8708
▁Keliling	-10.8708
▁pulih	-10.8708
▁harta	-10.8708
▁realisasi	-10.8709
▁Syaikhu	-10.8711
▁akal	-10.8713
▁Aset	-10.8721
▁Bri	-10.8728
▁WHO	-10.8729
▁Dimas	-10.873
▁AR	-10.8731
La	-10.8731
▁16:4	-10.8743
sat	-10.8746
▁Libur	-10.8748
▁54	-10.8748
▁balap	-10.8755
48	-10.8758
cal	-10.876
▁99	-10.8768
▁Alexander	-10.8781
▁Latihan	-10.8781
▁dibatalkan	-10.8781
▁indeks	-10.8781
▁mengutuk	-10.8781
▁meringankan	-10.8781
▁pencernaan	-10.8781
▁penggelapan	-10.8781
▁penyesuaian	-10.8781
▁bertentangan	-10.8781
▁keindahan	-10.8781
▁Richard	-10.8781
▁Indragiri	-10.8781
▁mempermudah	-10.8781
▁Terpadu	-10.8781
▁pengunduran	-10.8781
▁pantas	-10.8781
▁burung	-10.8781
▁Petani	-10.8782
▁menunda	-10.8782
▁rem	-10.8782
▁vaksin	-10.8783
▁Andra	-10.8785
37	-10.8785
▁Asasi	-10.8787
pem	-10.8787
dia	-10.8791
▁landasan	-10.8792
200	-10.8793
dil	-10.8794
-14	-10.8798
foto	-10.8801
KM	-10.8802
▁harap	-10.8807
.2024	-10.8808
ev	-10.8813
▁Fasilitas	-10.8829
jar	-10.883
nu	-10.8847
▁Den	-10.8847
▁Cilacap	-10.8854
▁Haniyeh	-10.8854
▁Muhamad	-10.8854
▁memberdayakan	-10.8854
▁tunjangan	-10.8854
▁keliling	-10.8854
▁terkesan	-10.8854
▁iklan	-10.8854
▁Shopee	-10.8854
▁Sandiaga	-10.8854
▁Macron	-10.8854
▁satwa	-10.8854
▁Lantas	-10.8854
▁pencucian	-10.8854
▁Cepat	-10.8854
▁kompak	-10.8854
▁menghalangi	-10.8855
▁Obat	-10.8859
apan	-10.8859
▁Bukit	-10.8859
▁2030	-10.886
39	-10.8862
▁dangdut	-10.8867
▁ketimbang	-10.8868
▁Adhi	-10.8868
▁19:2	-10.8868
▁berbuat	-10.887
▁On	-10.8871
▁pernyataannya	-10.8872
▁Land	-10.8874
ph	-10.8875
▁kerabat	-10.8878
TC	-10.8881
fo	-10.8885
▁Mel	-10.8886
▁dibayar	-10.8887
▁14:0	-10.8887
13	-10.8887
angka	-10.8891
▁andalan	-10.8899
▁Pura	-10.8904
▁Communication	-10.8914
▁off	-10.8917
▁time	-10.8919
▁21:0	-10.8925
▁Informatika	-10.8927
▁VNL	-10.8927
▁penyimpanan	-10.8927
▁protein	-10.8927
▁Secretary	-10.8927
▁Kredit	-10.8927
▁mitigasi	-10.8927
▁2024/25	-10.8927
▁Fitur	-10.8928
▁Yudha	-10.8928
▁terpopuler	-10.8928
▁manajer	-10.8929
▁Irawan	-10.8929
▁Tokoh	-10.893
eri	-10.8932
▁53	-10.8933
▁$1	-10.8933
awi	-10.8935
▁Sulsel	-10.8936
▁toleransi	-10.8936
▁17:2	-10.8941
duta	-10.8944
▁ESG	-10.8944
▁hulu	-10.8944
▁20:5	-10.8945
▁membaik	-10.8945
▁kebangsaan	-10.8946
▁bau	-10.8947
▁penyelamatan	-10.8949
▁13:4	-10.8949
blakan	-10.895
Semoga	-10.8955
atif	-10.8955
▁Dini	-10.8955
ua	-10.8956
lak	-10.8981
uhan	-10.8987
CO	-10.8989
▁sembar	-10.8991
▁Kon	-10.8993
▁Rian	-10.8994
$	-10.8998
▁Cugurra	-10.9001
▁Pengamanan	-10.9001
▁Pesisir	-10.9001
▁diturunkan	-10.9001
▁peradilan	-10.9001
▁Kedutaan	-10.9001
▁kepresidenan	-10.9001
▁perseroan	-10.9001
▁Pemadam	-10.9001
▁rancangan	-10.9001
▁Sukoharjo	-10.9001
▁berpeluang	-10.9001
▁pintar	-10.9002
▁dagang	-10.9002
▁Gading	-10.9002
▁pemasaran	-10.9002
▁remisi	-10.9002
▁Janji	-10.9002
▁Massaid	-10.9003
▁Senator	-10.9003
▁Sin	-10.9004
▁terkejut	-10.9004
▁Pesta	-10.9005
lek	-10.9006
▁tipe	-10.9009
▁pipa	-10.901
ukan	-10.9011
▁Juga	-10.9011
▁tunggu	-10.9013
tandai	-10.9015
▁Undip	-10.9015
67	-10.9016
▁Kementan	-10.9016
▁lapor	-10.9021
ora	-10.9028
▁SIG	-10.9033
▁Bahan	-10.9038
pet	-10.9039
▁Jay	-10.904
satu	-10.9041
▁campuran	-10.9044
▁Hafid	-10.9045
▁Suk	-10.9047
▁melapor	-10.9051
▁Fauzi	-10.9074
▁sewa	-10.9075
▁Cerita	-10.9076
▁Siregar	-10.9076
▁ambulans	-10.9076
▁pengajuan	-10.9076
▁Mikro	-10.9076
▁Retno	-10.9076
▁melonjak	-10.9076
▁mengadopsi	-10.9076
▁terseret	-10.9076
▁meledak	-10.9076
▁popularitas	-10.9076
▁Tengku	-10.9076
▁lelang	-10.9076
▁pemusnahan	-10.9077
▁Kecil	-10.9078
▁Minyak	-10.9078
▁Sorong	-10.908
▁berpesan	-10.9082
▁Es	-10.9082
end	-10.9083
31	-10.9085
▁2045	-10.9086
age	-10.9087
▁pengendalian	-10.9088
dari	-10.909
▁tebal	-10.909
▁Bakar	-10.9093
▁08:4	-10.9094
van	-10.9095
kin	-10.9095
▁ST	-10.9097
▁topik	-10.9102
-1	-10.9103
▁race	-10.9105
susul	-10.9105
▁Leo	-10.9113
▁pelapor	-10.9115
ukir	-10.9117
▁pendamping	-10.9117
▁At	-10.9127
▁13.00	-10.9133
▁Pas	-10.9145
▁pasang	-10.9145
▁Meta	-10.9148
▁Az	-10.9148
sekolah	-10.9148
▁Aktivis	-10.9151
▁Intelijen	-10.9151
▁beradaptasi	-10.9151
▁streaming	-10.9151
▁syariah	-10.9151
▁kontrol	-10.9151
▁paspor	-10.9151
▁dinamis	-10.9152
▁Lihat	-10.9152
▁percakapan	-10.9152
▁Kadek	-10.9152
▁Sektor	-10.9154
lor	-10.9155
▁konsekuensi	-10.9156
66	-10.9159
▁santunan	-10.916
▁seminggu	-10.9163
karya	-10.9164
▁2023/2024	-10.917
▁17:4	-10.9173
▁v	-10.9177
▁jajarannya	-10.9177
▁Modi	-10.9178
▁bentrok	-10.9193
RO	-10.9195
▁putrinya	-10.92
ward	-10.9216
▁Pacitan	-10.9227
▁menyayangkan	-10.9227
▁peninjauan	-10.9227
▁ternak	-10.9227
▁Hilir	-10.9227
▁tendangan	-10.9227
▁Pelita	-10.9227
▁perluasan	-10.923
▁Insurance	-10.923
▁Pelanggaran	-10.923
▁Menpora	-10.9234
▁Kel	-10.9235
YAR	-10.9236
▁elite	-10.9239
▁berdaya	-10.9241
▁Harian	-10.9241
▁Yani	-10.9246
dang	-10.9248
▁beri	-10.9249
▁Desak	-10.9253
mohon	-10.9256
DIY	-10.9258
▁real	-10.926
▁Kebun	-10.9263
rasi	-10.9265
▁tabung	-10.9265
che	-10.9267
atur	-10.9271
▁terbarunya	-10.9282
eta	-10.9282
atau	-10.9282
▁Aulia	-10.9282
▁rampung	-10.9284
LI	-10.9285
sir	-10.9291
oran	-10.9292
▁19:3	-10.9293
▁Era	-10.9296
nes	-10.9298
▁berlalu	-10.9299
irkuit	-10.93
▁Palu	-10.93
▁emosi	-10.9303
▁Penanganan	-10.9303
▁apartemen	-10.9303
▁pemasangan	-10.9303
▁pemindahan	-10.9303
▁diaspora	-10.9303
▁perkotaan	-10.9303
▁Setidaknya	-10.9303
▁center	-10.9303
▁pertarungan	-10.9304
▁Capai	-10.9304
▁mengevaluasi	-10.9304
▁Senior	-10.9304
▁Paling	-10.9305
aksamana	-10.9305
▁berpengalaman	-10.9305
▁perlunya	-10.9306
▁simbolis	-10.9308
▁Puji	-10.9308
▁sub	-10.931
▁Pakai	-10.9311
wat	-10.9313
▁syukur	-10.9314
▁potongan	-10.932
amerkan	-10.932
▁Tipikor	-10.932
43	-10.9325
jah	-10.9332
Semua	-10.9334
Sudah	-10.9334
afi	-10.9335
▁ketidak	-10.9339
▁info	-10.9341
▁15:0	-10.9355
▁menye	-10.9355
ite	-10.9358
▁tugasnya	-10.936
▁Robert	-10.9376
▁Suku	-10.9378
▁disiarkan	-10.938
▁fiskal	-10.938
▁menanyakan	-10.938
▁pendataan	-10.938
▁peresmian	-10.938
▁tangguh	-10.938
▁tsunami	-10.938
▁hibah	-10.9381
▁polusi	-10.9381
▁Peluncur	-10.9381
▁James	-10.9382
▁Bangli	-10.9382
▁teratas	-10.9383
▁Respons	-10.9383
▁Laos	-10.9383
▁Posisi	-10.9385
▁07:2	-10.9386
▁STY	-10.9386
▁wawasan	-10.9386
▁Bin	-10.939
▁Darmawan	-10.9391
▁Law	-10.9392
▁marah	-10.9392
▁SUV	-10.9393
▁Zi	-10.9393
▁15:2	-10.9398
▁Dani	-10.9401
▁Airin	-10.9406
▁PR	-10.9411
Korban	-10.9411
Informasi	-10.9411
Namun	-10.9411
WNA	-10.9412
awa	-10.9412
▁Penggunaan	-10.9413
▁go	-10.9413
57	-10.9421
▁Motors	-10.9422
kesempatan	-10.9424
▁Selat	-10.9426
▁SP	-10.9431
▁tanam	-10.9434
▁sebaiknya	-10.9436
32	-10.9445
▁pengungsian	-10.9449
▁Salam	-10.9449
ros	-10.9453
▁kurun	-10.9458
▁Damaskus	-10.9458
▁Taufik	-10.9458
▁Tionghoa	-10.9458
▁berjarak	-10.9458
▁klinik	-10.9458
▁memulihkan	-10.9458
▁mendoakan	-10.9458
▁hormat	-10.9458
▁perizinan	-10.9458
▁website	-10.9458
▁infeksi	-10.9458
▁kebersihan	-10.9458
▁antioksidan	-10.9458
▁diperkuat	-10.9458
▁bunyi	-10.9458
▁Bakti	-10.9459
▁induk	-10.9459
ies	-10.9462
▁transparansi	-10.9463
long	-10.9463
ejauh	-10.9465
69	-10.9465
▁CI	-10.9466
▁diputuskan	-10.9467
▁diplomat	-10.9468
▁Musim	-10.947
bul	-10.9471
abu	-10.9471
▁Sempat	-10.9472
▁2004	-10.9475
utan	-10.9476
▁Massa	-10.9477
▁Kab	-10.9477
cat	-10.9479
▁Info	-10.9479
az	-10.9485
pati	-10.9486
▁SH	-10.9492
36	-10.9494
▁menyama	-10.9496
▁Sports	-10.9507
▁ta	-10.951
▁diproses	-10.9515
▁Siaga	-10.9515
nis	-10.9519
▁Mengena	-10.9522
▁Ak	-10.9523
ID	-10.9526
▁dihukum	-10.9526
▁Ham	-10.9536
▁Hijau	-10.9536
▁Pertumbuhan	-10.9536
▁Sahabat	-10.9536
▁basket	-10.9536
▁ginjal	-10.9536
▁inspirasi	-10.9536
▁memblokir	-10.9536
▁memindahkan	-10.9536
▁spanduk	-10.9536
▁sutradara	-10.9536
▁selengkapnya	-10.9536
▁imigran	-10.9536
▁Karangasem	-10.9536
▁ditargetkan	-10.9536
▁Tuban	-10.9537
pos	-10.9538
▁Kremlin	-10.9538
▁seringkali	-10.9539
▁15:1	-10.954
▁Kapolresta	-10.9543
▁Ganda	-10.9543
▁imbauan	-10.9545
tt	-10.9553
▁Berita	-10.9554
▁menguatkan	-10.9555
▁Candi	-10.9558
▁10:1	-10.9559
▁Moh	-10.9559
kol	-10.9566
Teco	-10.9569
▁menangis	-10.9571
▁Seto	-10.9571
▁match	-10.9579
olah	-10.9579
▁pencari	-10.9582
▁Sugi	-10.9584
batas	-10.959
▁18:5	-10.9594
68	-10.96
▁Mapolres	-10.9605
otret	-10.9607
nder	-10.9611
▁76	-10.9611
▁Can	-10.9613
▁Oknum	-10.9615
▁Pyongyang	-10.9615
▁berdiskusi	-10.9615
▁pondok	-10.9615
▁Kepresidenan	-10.9615
▁bursa	-10.9615
▁menyukseskan	-10.9615
▁formulir	-10.9615
▁simpatisan	-10.9615
▁Usman	-10.9617
▁skenario	-10.9617
▁yatim	-10.9618
▁mengerikan	-10.9619
▁Paser	-10.9619
▁Pilwalkot	-10.9619
▁Buku	-10.962
▁Tambang	-10.9622
II	-10.9622
-18	-10.9623
▁setinggi	-10.9626
sim	-10.9628
▁Ramadhan	-10.9629
▁57	-10.9632
▁20:1	-10.9639
jin	-10.964
▁Sunda	-10.964
▁21:4	-10.9641
but	-10.9645
Pa	-10.9646
eb	-10.965
▁800	-10.9652
▁Pembinaan	-10.9652
api	-10.9654
▁pembuat	-10.9658
mpu	-10.9659
▁menggal	-10.9662
▁04:5	-10.9663
main	-10.9664
▁Ran	-10.9665
ikat	-10.9666
▁Ji	-10.9666
▁arti	-10.9669
▁Gun	-10.9674
▁13:3	-10.9675
▁fan	-10.968
▁Roy	-10.9681
▁LP	-10.9683
ade	-10.969
▁Korp	-10.9693
elandang	-10.9694
▁COVID	-10.9694
▁Karanganyar	-10.9694
▁Temanggung	-10.9694
▁pengeluaran	-10.9694
▁polemik	-10.9694
▁prasarana	-10.9694
▁berlambang	-10.9694
▁kesetaraan	-10.9694
▁Lamongan	-10.9694
▁dikembalikan	-10.9694
▁dilalui	-10.9694
▁Cerah	-10.9694
▁Kematian	-10.9694
▁tertangkap	-10.9695
▁Kelapa	-10.9695
▁pasir	-10.9696
▁Menteng	-10.9697
▁relasi	-10.9697
▁le	-10.9697
able	-10.9698
▁Jaminan	-10.97
▁Masters	-10.9701
▁pengisian	-10.9701
▁Pelaksanaan	-10.9703
▁Bilang	-10.9704
▁17:3	-10.9704
▁Rudi	-10.9709
▁gelaran	-10.9718
▁adu	-10.972
▁Lawan	-10.9725
udi	-10.9726
▁22:0	-10.9728
sing	-10.9729
beda	-10.973
betul	-10.973
enang	-10.9731
▁Tampil	-10.9734
▁dukung	-10.974
kh	-10.9743
▁Multi	-10.9748
net	-10.9751
aya	-10.9758
▁na	-10.9762
▁Praja	-10.9765
EN	-10.9769
▁Ng	-10.9771
▁Sebegini	-10.9774
▁System	-10.9774
▁Terpilih	-10.9774
▁Pengadaan	-10.9774
▁balistik	-10.9774
Purn	-10.9774
▁permanen	-10.9774
▁kebahagiaan	-10.9774
▁kontainer	-10.9774
▁Penyerang	-10.9774
▁Electric	-10.9774
▁Febian	-10.9774
▁Remaja	-10.9774
▁Bersih	-10.9775
07	-10.9777
▁2013	-10.9778
▁20:3	-10.9779
▁Chery	-10.9779
▁Doa	-10.978
berniat	-10.978
▁Fahmi	-10.978
▁meredakan	-10.9782
▁SA	-10.9783
▁menanti	-10.9783
▁susah	-10.9786
▁Jurnalis	-10.9788
bank	-10.979
org	-10.9795
▁mengantarkan	-10.9797
▁balon	-10.9801
▁10:0	-10.9803
bukti	-10.9803
▁Penyebab	-10.9808
▁Asri	-10.9812
▁Ex	-10.9814
▁Peneliti	-10.9819
lim	-10.9823
BM	-10.9825
serangan	-10.9826
▁h	-10.9831
▁Penyelenggaraan	-10.9832
▁Mati	-10.9832
▁Gegar	-10.9836
ves	-10.9847
hat	-10.9847
▁Revolusi	-10.9852
pl	-10.9854
▁Kemerdekaan	-10.9855
▁Magetan	-10.9855
▁Museum	-10.9855
▁Simalungun	-10.9855
▁kerusuhan	-10.9855
▁penggerebekan	-10.9855
▁bocah	-10.9855
lik	-10.9855
▁pungutan	-10.9855
▁Transportasi	-10.9855
▁sepekan	-10.9855
▁dipindahkan	-10.9855
▁membuang	-10.9855
▁Dosen	-10.9856
▁Terakhir	-10.9856
▁terlarang	-10.9856
▁madu	-10.9856
▁Fair	-10.9858
▁Denmark	-10.9859
UU	-10.986
▁Games	-10.9862
▁terlepas	-10.9863
▁Pencarian	-10.9863
▁Syah	-10.9864
▁Ilham	-10.9865
▁bedah	-10.9868
▁Ban	-10.987
▁Enggak	-10.9871
▁Didik	-10.9875
▁kru	-10.9886
Hatta	-10.9889
▁beda	-10.989
FI	-10.9896
▁paparan	-10.9902
▁Pasca	-10.9902
gg	-10.9904
▁1.2	-10.9907
▁memutus	-10.9908
▁Ce	-10.9909
▁peny	-10.991
▁Promo	-10.9911
bun	-10.9915
▁Seni	-10.992
est	-10.9921
put	-10.9927
▁Penjelasan	-10.9936
▁Technology	-10.9936
▁dinikmati	-10.9936
▁herbal	-10.9936
▁kepuasan	-10.9936
▁ketidakpastian	-10.9936
▁handphone	-10.9936
▁jajak	-10.9936
▁ketakutan	-10.9936
▁menyeberang	-10.9936
▁ditugaskan	-10.9936
▁juri	-10.9936
▁Tiket	-10.9936
▁Kupang	-10.9936
▁Kisah	-10.9937
▁10:4	-10.9937
▁ekstasi	-10.9937
▁Keempat	-10.9937
▁Irfan	-10.9939
▁genosida	-10.9939
▁bu	-10.9941
▁rekayasa	-10.9942
▁Yus	-10.9943
eks	-10.9947
▁pandang	-10.9948
▁Paket	-10.9949
▁liga	-10.9951
▁raih	-10.9953
con	-10.9955
▁UKM	-10.9956
▁kadang	-10.996
mak	-10.9961
▁didakwa	-10.9961
▁rasanya	-10.9962
▁berpihak	-10.9962
kedua	-10.9973
▁goreng	-10.9978
AD	-10.9988
06	-10.9993
gh	-10.9993
▁diundang	-10.9994
▁konsultasi	-10.9998
▁dampaknya	-10.9999
▁Agam	-11.0014
SS	-11.0017
▁Kerobokan	-11.0018
▁Manokwari	-11.0018
▁Pribadi	-11.0018
▁Slamet	-11.0018
▁Texas	-11.0018
▁gugur	-11.0018
▁memadamkan	-11.0018
▁mengendarai	-11.0018
▁sensitif	-11.0018
▁wewenang	-11.0018
▁jahe	-11.0018
▁narasumber	-11.0018
▁Sudaryono	-11.0018
▁disepakati	-11.0018
▁merekrut	-11.0019
▁bakat	-11.002
▁akurat	-11.002
▁Bajo	-11.0021
▁14:1	-11.0021
▁Ditemukan	-11.0023
▁dinding	-11.0023
▁08:2	-11.0024
▁Konvensi	-11.0024
▁Korsel	-11.0025
anti	-11.0025
▁Apabila	-11.0026
▁64	-11.0027
val	-11.0027
▁Tindakan	-11.0031
▁Ujang	-11.0031
▁Lukman	-11.0033
▁My	-11.0036
Pen	-11.004
uli	-11.0042
▁ITB	-11.0044
etik	-11.0049
▁Pemeriksaan	-11.005
data	-11.0058
OM	-11.0059
▁Tangan	-11.0059
▁Star	-11.0061
▁14:4	-11.0062
tokoh	-11.0063
iro	-11.0063
sk	-11.0067
▁21:3	-11.0069
▁Qu	-11.0069
▁19:5	-11.007
▁Sal	-11.0081
ensi	-11.0084
▁Tuan	-11.0086
pp	-11.0097
▁debut	-11.0099
▁r	-11.01
é	-11.01
▁Karnavian	-11.01
▁hybrid	-11.01
▁mencontohkan	-11.01
▁pejuang	-11.01
▁pengabdian	-11.01
▁demokratis	-11.01
▁Lolly	-11.0101
▁Angeles	-11.0101
BU	-11.0101
▁Viral	-11.0101
▁Darurat	-11.0102
▁tepi	-11.0103
▁terburuk	-11.0103
Qur	-11.0103
▁Kampar	-11.0104
▁pembakaran	-11.0104
▁Max	-11.0104
▁Posko	-11.0104
▁kebanggaan	-11.0105
▁Dadang	-11.0105
▁didik	-11.0105
▁terbentuk	-11.0107
kum	-11.0108
ON	-11.0109
▁Umar	-11.0114
ekor	-11.0118
▁berbulan	-11.0124
GI	-11.0126
▁Ele	-11.013
HI	-11.0135
▁serat	-11.0136
▁pungkasnya	-11.0136
▁Bukti	-11.0138
▁bi	-11.0141
▁memeri	-11.0143
▁Adam	-11.0146
▁instruksi	-11.0146
▁Sy	-11.015
▁Iman	-11.0154
▁18:4	-11.0159
▁sebaik	-11.0161
▁mil	-11.0163
qu	-11.0165
▁batal	-11.0169
▁Win	-11.0172
▁IT	-11.0172
▁Badjideh	-11.0184
▁Verhoeven	-11.0184
▁drastis	-11.0184
▁murni	-11.0184
▁penyiksaan	-11.0184
▁ditulis	-11.0184
▁diperbolehkan	-11.0184
▁dengar	-11.0184
▁Ekspor	-11.0185
▁600	-11.0185
▁koperasi	-11.0185
▁Biru	-11.0185
▁Polhukam	-11.0186
▁Indosat	-11.0187
▁kalian	-11.0187
▁memburuk	-11.0188
▁Saja	-11.0192
▁13:5	-11.0198
▁2008	-11.0203
▁seberapa	-11.0204
nia	-11.0206
▁GBK	-11.0207
▁mo	-11.021
▁UM	-11.0212
▁pita	-11.0212
▁UGM	-11.0212
▁PHK	-11.0214
Pelaku	-11.0221
BKN	-11.0226
▁Wahyudi	-11.0227
▁2025,	-11.0237
WA	-11.0238
▁16:5	-11.0239
sal	-11.0244
rong	-11.0244
cap	-11.0252
tir	-11.0254
▁Main	-11.0261
▁saran	-11.0261
▁rest	-11.0267
▁Holding	-11.0268
▁Luncur	-11.0268
▁Mahalini	-11.0268
▁Semeru	-11.0268
▁instrumen	-11.0268
▁intelektual	-11.0268
▁kreator	-11.0268
▁memprioritaskan	-11.0268
▁penghuni	-11.0268
▁kemarau	-11.0268
▁mendeteksi	-11.0268
▁terendam	-11.0268
▁dimasukkan	-11.0268
▁diizinkan	-11.0268
▁diwawancarai	-11.0268
▁gitu	-11.0268
▁pompa	-11.0268
▁perselisihan	-11.0269
▁pemohon	-11.0269
arta	-11.0274
dhi	-11.0275
▁Tujuannya	-11.0277
▁Kodam	-11.0278
▁Penjualan	-11.0279
▁Kontra	-11.028
pok	-11.0284
▁Maya	-11.0291
▁Toko	-11.0292
▁MR	-11.0294
▁dimana	-11.0297
arto	-11.0299
og	-11.0302
▁Ab	-11.0308
agendakan	-11.0309
▁63	-11.031
▁l	-11.0315
tam	-11.0317
juluk	-11.0319
▁Ver	-11.0322
▁menarget	-11.0323
▁Antony	-11.0323
bahkan	-11.0324
lli	-11.0324
one	-11.0326
iring	-11.0326
▁Cita	-11.0329
▁Ray	-11.0334
▁papar	-11.0334
▁Vin	-11.0339
▁Che	-11.0346
▁07:4	-11.0347
▁Mineral	-11.0347
▁10.00	-11.035
gra	-11.0352
▁Austin	-11.0353
▁Gunungkidul	-11.0353
▁Infrastruktur	-11.0353
▁Penulis	-11.0353
▁Perwira	-11.0353
▁keterbatasan	-11.0353
▁pelestarian	-11.0353
▁pemberhentian	-11.0353
▁kejutan	-11.0353
▁keseimbangan	-11.0353
▁urine	-11.0353
▁tekstil	-11.0353
▁SELAT	-11.0353
▁menyajikan	-11.0353
▁petunjuk	-11.0353
▁fungsional	-11.0353
▁Farhan	-11.0353
▁Hendy	-11.0354
▁miliki	-11.0355
Dan	-11.0355
▁Kopi	-11.0356
▁berkala	-11.0358
▁Dirut	-11.0358
▁semula	-11.036
mil	-11.0361
▁series	-11.0362
tara	-11.0365
▁09:3	-11.0365
▁ragu	-11.0366
▁Novi	-11.0366
yanti	-11.0372
IA	-11.0372
▁Art	-11.0372
▁peternakan	-11.0372
▁meriah	-11.038
▁kenal	-11.0383
59	-11.0383
▁Far	-11.0387
GIAN	-11.039
LP	-11.0391
▁apik	-11.0392
▁Dampak	-11.0393
▁nota	-11.0397
▁Lion	-11.0401
▁Pengelola	-11.0404
▁1.1	-11.0408
▁Sara	-11.0409
25/	-11.0409
▁Mars	-11.0412
AK	-11.0413
▁Rano	-11.0429
▁Ardi	-11.043
▁Sandi	-11.0434
▁Bhakti	-11.0438
▁Indeks	-11.0438
▁Mbappe	-11.0438
▁Miller	-11.0438
▁Pekalongan	-11.0438
▁pahlawan	-11.0438
▁pemotongan	-11.0438
▁penampungan	-11.0438
▁profesor	-11.0438
▁kebocoran	-11.0438
▁ditunda	-11.0438
▁sedih	-11.0438
▁Nunuk	-11.0438
▁Machmudin	-11.0438
▁Oscar	-11.0438
▁Manado	-11.0439
▁Teddy	-11.0439
▁Terbuka	-11.0439
▁duel	-11.0439
▁memuat	-11.044
▁Jessica	-11.044
▁seumur	-11.0441
▁menghitung	-11.0442
▁gambaran	-11.0443
▁memohon	-11.0443
air	-11.0443
▁Kemenpora	-11.0445
▁Walaupun	-11.0446
DC	-11.0448
Rp	-11.045
▁13:2	-11.0454
▁food	-11.0455
▁memb	-11.0457
3%	-11.0458
besar	-11.0462
low	-11.0465
MP	-11.0466
▁u	-11.0477
yar	-11.0477
pandang	-11.0479
5%	-11.0479
larikan	-11.0483
mba	-11.0486
hin	-11.0491
▁PA	-11.0492
▁am	-11.0495
▁Asta	-11.0497
▁Berkat	-11.0501
▁1.3	-11.0509
▁akademik	-11.0516
▁miliaran	-11.0521
▁GT	-11.0523
▁Anugerah	-11.0524
▁Centre	-11.0524
▁Charles	-11.0524
▁Kesejahteraan	-11.0524
▁Merauke	-11.0524
▁Pennsylvania	-11.0524
▁gemilang	-11.0524
▁keimigrasian	-11.0524
▁merencanakan	-11.0524
▁spiritual	-11.0524
▁terpenuhi	-11.0524
▁Penjara	-11.0524
▁Plaza	-11.0524
▁Ibrahim	-11.0524
▁Tantangan	-11.0524
▁perhelatan	-11.0525
▁jangkauan	-11.0525
▁Konflik	-11.0526
▁Lokal	-11.0527
▁Blok	-11.0529
2)	-11.0531
▁Mag	-11.0533
▁Kamar	-11.0533
▁Maung	-11.0534
▁Sini	-11.0538
▁ketemu	-11.0539
AR	-11.0542
▁siswi	-11.0544
▁amanat	-11.0545
lina	-11.0547
▁APK	-11.0547
gang	-11.0548
sha	-11.0548
PU	-11.0549
akhir	-11.055
iti	-11.055
▁Bahas	-11.055
ec	-11.0551
▁Berlin	-11.0554
▁Pasti	-11.0555
ndang	-11.0555
stianto	-11.0559
▁Uno	-11.056
▁Sen	-11.0563
&	-11.0565
kekuatan	-11.0565
▁Rasa	-11.0575
▁Misi	-11.0577
▁bantu	-11.0578
▁memenang	-11.0585
ig	-11.0587
CH	-11.0589
buk	-11.059
▁Antar	-11.0594
▁Gande	-11.0594
diam	-11.0597
▁Ph	-11.0597
ore	-11.0599
JO	-11.0602
▁tulisan	-11.0606
▁King	-11.061
▁Iklim	-11.0611
▁Soesatyo	-11.0611
▁cagub	-11.0611
▁demam	-11.0611
▁diselamatkan	-11.0611
▁menggabungkan	-11.0611
▁penawaran	-11.0611
▁puskesmas	-11.0611
▁diperhatikan	-11.0611
▁laboratorium	-11.0611
▁kedudukan	-11.0611
▁penghormatan	-11.0611
▁kesaksian	-11.0611
▁Henry	-11.0612
▁disaksikan	-11.0612
▁sibuk	-11.0612
▁sprint	-11.0612
▁terpenting	-11.0612
▁kelamin	-11.0612
▁peraih	-11.0612
▁Agustina	-11.0614
▁LRT	-11.0614
:07	-11.0614
▁Seribu	-11.0614
▁terhitung	-11.0614
Ipda	-11.0616
▁Jl	-11.0619
yak	-11.0619
▁w	-11.0621
▁Hendri	-11.0623
ski	-11.0623
▁keenam	-11.0627
▁Akibatnya	-11.0632
▁Hery	-11.0643
iri	-11.0643
▁rekannya	-11.0644
WI	-11.0653
98	-11.0657
warnai	-11.0659
▁penyerangan	-11.0663
isa	-11.0664
rian	-11.0667
▁pelaksana	-11.0668
▁UN	-11.0669
JI	-11.067
▁Inara	-11.0676
Gus	-11.0682
▁demo	-11.0683
lla	-11.0685
BB	-11.0686
▁dituntut	-11.0688
cak	-11.069
SN	-11.069
rap	-11.0692
awal	-11.0694
▁Susu	-11.0694
lab	-11.0694
▁asisten	-11.0696
▁Belanja	-11.0699
▁Wartawan	-11.0699
▁geopolitik	-11.0699
▁keahlian	-11.0699
▁kejaksaan	-11.0699
▁mencoblos	-11.0699
▁menyikapi	-11.0699
▁vital	-11.0699
▁Sebaliknya	-11.0699
▁Afif	-11.0699
▁menggarisbawahi	-11.0699
▁Modal	-11.07
entil	-11.0701
▁Kadiv	-11.0702
▁amal	-11.0703
1/	-11.0704
▁Sel	-11.0706
▁Produksi	-11.0708
▁Ponpes	-11.0708
▁Siber	-11.0709
▁(5/6)	-11.0712
▁Aris	-11.0714
mbung	-11.0715
▁Agar	-11.0719
▁PTPN	-11.0721
pal	-11.0721
▁Kris	-11.0721
▁Anton	-11.0724
▁sayuran	-11.0728
▁Sur	-11.0728
mal	-11.0728
▁77	-11.0731
▁pidatonya	-11.0734
▁cari	-11.0735
▁ingat	-11.0735
oli	-11.0737
▁mesti	-11.0739
▁Blue	-11.0745
▁Beli	-11.0746
▁19.00	-11.0748
▁pembicara	-11.0752
▁posisinya	-11.0758
▁West	-11.0768
▁diguyur	-11.0771
55	-11.0771
▁bayar	-11.0775
▁Kembang	-11.0777
▁BPK	-11.0779
ral	-11.0782
MB	-11.0783
Ditreskrimsus	-11.0787
commerce	-11.0787
▁Berbicara	-11.0787
▁Pengumuman	-11.0787
▁Sejarah	-11.0787
▁keracunan	-11.0787
▁ranking	-11.0787
▁terekam	-11.0787
kaitkan	-11.0787
▁komisi	-11.0788
▁swasembada	-11.0788
▁Kunci	-11.0788
▁Mardani	-11.0788
▁milisi	-11.0788
▁Simpang	-11.0789
▁Hadap	-11.0789
▁Lebat	-11.0789
▁Hewan	-11.079
▁solidaritas	-11.079
▁IBL	-11.0791
▁Kedatangan	-11.0791
▁Dumai	-11.0792
▁Kenapa	-11.0793
▁menyera	-11.0793
▁Pangkalan	-11.0796
▁diserang	-11.0797
▁Gugatan	-11.0797
▁2010	-11.08
▁120	-11.0804
▁Perh	-11.0809
▁membuah	-11.081
▁Seri	-11.0811
▁MUI	-11.0815
▁Indonesian	-11.0818
▁formal	-11.0822
▁Asy	-11.0823
▁Temu	-11.0825
▁68	-11.0828
▁Kenya	-11.0832
nggang	-11.0834
suka	-11.0834
uf	-11.0837
▁Roh	-11.0839
▁Gang	-11.0841
pul	-11.0849
▁Mudah	-11.085
ukuhkan	-11.0854
▁Cor	-11.0857
▁11:1	-11.0857
PO	-11.0866
AA	-11.0868
▁Bedagai	-11.0877
▁Conference	-11.0877
▁Moerdijat	-11.0877
▁Pegunungan	-11.0877
▁Tercatat	-11.0877
▁dilindungi	-11.0877
▁ditindaklanjuti	-11.0877
▁irigasi	-11.0877
▁legislator	-11.0877
▁mancanegara	-11.0877
▁perbincangan	-11.0877
▁terhubung	-11.0877
▁Michigan	-11.0877
▁Kajian	-11.0877
▁mengupayakan	-11.0877
▁Ricky	-11.0877
▁Transformasi	-11.0877
▁Munster	-11.0877
▁Pintu	-11.0877
▁Deddy	-11.0877
▁menjunjung	-11.0877
▁organik	-11.0878
▁jeda	-11.0878
▁Santri	-11.0878
▁meramaikan	-11.0878
▁Bareng	-11.0878
▁Sedikit	-11.0879
▁Enam	-11.088
▁Kader	-11.0881
▁menyalahkan	-11.0883
TM	-11.0884
▁mimpi	-11.0884
▁KK	-11.0886
RE	-11.0886
▁kuda	-11.0888
▁berperang	-11.0891
SC	-11.0893
ses	-11.0894
rus	-11.0899
▁IS	-11.0907
▁Graha	-11.0908
unggu	-11.0908
nik	-11.0908
▁Seru	-11.0909
ST	-11.0913
rum	-11.0919
▁Wamen	-11.0923
▁sebagainya	-11.0926
▁61	-11.0928
▁Rini	-11.0928
▁15:4	-11.0931
agita	-11.0931
gun	-11.0935
▁Thi	-11.0937
ivitas	-11.0965
▁Indikator	-11.0967
▁Konsumen	-11.0967
▁bercerai	-11.0967
▁klasik	-11.0967
▁sampel	-11.0967
▁semestinya	-11.0967
▁gerbang	-11.0967
▁dijerat	-11.0967
▁mengabdi	-11.0967
▁sebetulnya	-11.0967
▁Jinping	-11.0967
▁Kompas	-11.0967
▁eksternal	-11.0967
▁Penajam	-11.0967
▁hilirisasi	-11.0967
▁gerai	-11.0967
▁melayang	-11.0968
▁terlaksana	-11.0969
▁asap	-11.0969
▁Net	-11.097
onis	-11.0971
64	-11.0973
▁database	-11.0974
PH	-11.0974
▁South	-11.0974
▁SMAN	-11.0976
▁mediasi	-11.0977
▁barisan	-11.0977
▁Inhu	-11.0978
▁Royal	-11.098
▁jari	-11.0982
▁22:2	-11.0982
▁14:2	-11.0985
▁waktunya	-11.0992
▁Kasub	-11.0995
▁Peta	-11.0995
▁Kemenko	-11.0998
zo	-11.1
▁bentrokan	-11.1007
ble	-11.101
▁timbul	-11.1019
sak	-11.102
▁Mun	-11.1021
4%	-11.1023
▁besarnya	-11.1026
▁17:5	-11.1028
aka	-11.1038
tun	-11.104
▁Sepak	-11.1047
62	-11.1053
▁bandar	-11.1054
▁Atlet	-11.1057
▁Kehakiman	-11.1058
▁Lahadalia	-11.1058
▁Perencanaan	-11.1058
▁Pontianak	-11.1058
▁Profesor	-11.1058
▁ilmiah	-11.1058
▁kepatuhan	-11.1058
▁rugi	-11.1058
▁Harimurti	-11.1058
▁penyusunan	-11.1058
▁Serbia	-11.1058
▁Komjen	-11.1058
▁Youth	-11.1058
▁Care	-11.106
▁Patrol	-11.106
perebutkan	-11.1062
▁inti	-11.1062
-9	-11.1063
▁poster	-11.1063
▁kaget	-11.1065
▁Penangkapan	-11.1066
▁migrasi	-11.1071
▁Alun	-11.1072
▁Mentan	-11.1077
▁IX	-11.109
▁09:1	-11.1092
log	-11.1093
▁alasannya	-11.1095
▁klien	-11.1101
Foto	-11.1105
mun	-11.1107
NU	-11.1116
oto	-11.112
Iya	-11.1122
▁Agen	-11.1133
gn	-11.1135
munculkan	-11.1137
dapat	-11.114
erkuat	-11.114
▁langka	-11.1147
12/	-11.1149
▁indikator	-11.1149
▁Banjarmasin	-11.1149
▁Panjaitan	-11.1149
▁Pengungsi	-11.1149
▁monitoring	-11.1149
▁pengejaran	-11.1149
▁penundaan	-11.1149
▁visual	-11.1149
▁Tirta	-11.1149
▁defisit	-11.1149
▁terinspirasi	-11.115
▁Executive	-11.115
▁mafia	-11.115
▁Usai	-11.115
▁koper	-11.115
▁Tamara	-11.115
▁pengusung	-11.115
▁Panjang	-11.1151
▁Tanggung	-11.1151
▁Operasional	-11.1151
bit	-11.1151
▁Candra	-11.1151
Urusan	-11.1153
▁museum	-11.1153
▁Truk	-11.1153
▁mentah	-11.1154
▁Terdakwa	-11.1154
▁Paes	-11.1154
yah	-11.1155
▁diskriminasi	-11.1158
▁penarikan	-11.1161
▁95	-11.1165
▁disebutnya	-11.1166
▁ditinggalkan	-11.117
▁Ai	-11.117
ullah	-11.117
rekan	-11.1171
SD	-11.1174
▁SU	-11.1177
▁tampilan	-11.1178
▁Eco	-11.1178
▁59	-11.1188
impunan	-11.1188
nti	-11.1208
▁kunjung	-11.1208
▁Fe	-11.121
▁Sabu	-11.121
▁olahan	-11.1213
▁Susi	-11.1221
▁diprakirakan	-11.1227
gam	-11.123
▁62	-11.1233
ving	-11.1237
UI	-11.1238
▁Mardiono	-11.1242
▁Platform	-11.1242
▁huruf	-11.1242
▁jenjang	-11.1242
▁kemandirian	-11.1242
▁korporasi	-11.1242
▁mangrove	-11.1242
▁melestarikan	-11.1242
▁pelayaran	-11.1242
▁pemberitaan	-11.1242
▁penertiban	-11.1242
▁virtual	-11.1242
▁pembuangan	-11.1242
▁Prestasi	-11.1242
▁BALI	-11.1242
▁Rokok	-11.1242
▁gajah	-11.1242
▁diwujudkan	-11.1242
▁pertukaran	-11.1242
▁galon	-11.1242
▁memburu	-11.1243
▁Propam	-11.1243
▁dibuktikan	-11.1243
▁melatih	-11.1243
▁3-0	-11.1243
▁memproses	-11.1243
ifikasi	-11.1243
▁Bakrie	-11.1243
▁striker	-11.1244
▁Azerbaijan	-11.1244
▁Nigeria	-11.1245
▁Markas	-11.1245
▁legal	-11.1245
proyek	-11.1246
▁Milan	-11.1246
▁1999	-11.1247
▁Terhadap	-11.1248
▁Dekan	-11.1252
▁dibacakan	-11.1253
▁Perak	-11.1255
▁Sakti	-11.1255
kor	-11.1257
yi	-11.126
ea	-11.1262
▁Pus	-11.1263
▁Sayangnya	-11.1266
8%	-11.1272
sung	-11.1272
▁DPO	-11.1274
▁Tani	-11.1276
▁Soni	-11.1281
mbo	-11.1283
AH	-11.1287
▁pinggiran	-11.129
PDIP	-11.129
▁Suri	-11.1295
tari	-11.1298
BPN	-11.1299
▁pendidik	-11.13
65	-11.1304
golong	-11.1307
▁Nantinya	-11.1308
adang	-11.1316
▁kon	-11.1319
▁Ken	-11.1329
▁menguji	-11.133
▁Ulu	-11.1331
41	-11.1333
▁08:1	-11.1335
▁Lumpur	-11.1335
▁Mandalika	-11.1335
▁berinteraksi	-11.1335
▁mahasiswi	-11.1335
▁penyisihan	-11.1336
▁count	-11.1336
▁Rafael	-11.1336
▁semester	-11.1336
▁Ilir	-11.1337
▁berkompetisi	-11.1337
▁kiai	-11.1337
▁Widya	-11.1337
▁Bertemu	-11.1337
artisipasi	-11.1337
▁berprestasi	-11.1337
▁kebencian	-11.1337
▁menggugat	-11.1338
▁Saham	-11.1339
▁ekspansi	-11.1339
▁Pelindo	-11.134
▁Rekor	-11.134
▁Twitter	-11.1341
▁Perjalanan	-11.1341
▁ilustrasi	-11.1342
▁terapi	-11.1342
▁diinisiasi	-11.1343
bek	-11.1344
▁terjalin	-11.1344
▁alamat	-11.1348
▁Th	-11.135
IT	-11.135
▁Nabi	-11.1353
▁talenta	-11.1353
▁ICE	-11.1354
PR	-11.1355
Pro	-11.1356
▁perbuatannya	-11.1357
▁Kemenkes	-11.1357
EK	-11.136
▁Insyaallah	-11.1361
▁BNN	-11.1362
▁Catatan	-11.1362
UM	-11.1363
nah	-11.1364
▁Malamnya	-11.1373
Peng	-11.1376
versi	-11.1378
▁perannya	-11.1379
▁She	-11.1379
▁kebenaran	-11.1382
▁16:3	-11.1383
▁11:	-11.1383
▁dasarnya	-11.1385
▁Mobile	-11.1392
bilang	-11.1395
ix	-11.1403
aman	-11.1407
▁harinya	-11.1409
▁Zona	-11.1413
EV	-11.1418
▁dibagi	-11.1418
jan	-11.142
▁72	-11.1422
misi	-11.1422
▁Airlines	-11.143
▁Idzes	-11.143
▁Kesepakatan	-11.143
▁Kompetisi	-11.143
▁Perindustrian	-11.143
▁Petrus	-11.143
▁Singapore	-11.143
▁alkohol	-11.143
▁cabai	-11.143
▁integrasi	-11.143
▁kepabeanan	-11.143
▁pendalaman	-11.143
▁prihatin	-11.143
Rudenim	-11.143
▁utuh	-11.143
▁identifikasi	-11.143
▁penyintas	-11.143
▁Abbas	-11.143
▁pemasok	-11.1431
▁bonus	-11.1431
▁terhenti	-11.1432
▁Kebon	-11.1433
▁personal	-11.1434
▁BIN	-11.1436
▁Pangeran	-11.1436
▁bisnisnya	-11.1437
▁serikat	-11.1439
▁Tra	-11.1441
▁patah	-11.1442
FA	-11.1446
▁Lulus	-11.1446
▁18:2	-11.1449
▁Gita	-11.1452
dung	-11.146
▁Bela	-11.1462
▁Lim	-11.1462
Para	-11.1467
▁10.000	-11.1469
▁mini	-11.1472
▁Teh	-11.1476
Armuji	-11.1478
Palestina	-11.1479
Polda	-11.1479
▁Fo	-11.148
ona	-11.1485
▁Kh	-11.1486
▁Halal	-11.1488
▁rela	-11.1489
lus	-11.1491
▁Yos	-11.1492
▁Jon	-11.1496
yat	-11.1497
▁gegar	-11.1498
▁15:5	-11.1507
ayu	-11.1514
por	-11.1515
▁Ten	-11.1521
alun	-11.1524
▁Agustiar	-11.1525
▁Cibinong	-11.1525
▁Mukomuko	-11.1525
▁kalender	-11.1525
▁kolesterol	-11.1525
▁Perikanan	-11.1525
▁karet	-11.1525
▁predikat	-11.1525
▁Yi	-11.1529
▁kacang	-11.153
▁laba	-11.153
▁Rakernas	-11.1532
▁Apel	-11.1535
▁Mur	-11.1537
▁angkasa	-11.1537
sam	-11.1537
sana	-11.1538
▁Febri	-11.1543
PAN	-11.155
hir	-11.1552
eg	-11.1553
▁10:2	-11.156
prinsip	-11.1575
Pemprov	-11.1575
Jabar	-11.1575
Sebagai	-11.1578
▁Simon	-11.1579
▁1.0	-11.1583
▁67	-11.1586
▁kanal	-11.159
▁nol	-11.159
▁Gra	-11.1592
▁Free	-11.1594
▁1-1	-11.1599
▁Alami	-11.16
NK	-11.1601
ick	-11.1602
▁pi	-11.1603
▁produknya	-11.1605
▁jo	-11.161
▁Roma	-11.1614
78	-11.1615
cy	-11.1616
▁Ren	-11.1616
▁kontroversi	-11.1619
▁Penerbangan	-11.1621
▁Ternate	-11.1621
▁demonstran	-11.1621
▁konvoi	-11.1621
▁menemani	-11.1621
▁pemberitahuan	-11.1621
▁pemeliharaan	-11.1621
▁seragam	-11.1621
▁system	-11.1621
▁persentase	-11.1621
▁Emirat	-11.1621
▁terendah	-11.1621
▁mempererat	-11.1621
▁Hanif	-11.1622
KO	-11.1623
▁Usul	-11.1623
▁Luluk	-11.1623
▁Jenazah	-11.1626
▁Zulhas	-11.1626
▁mengenang	-11.1629
▁terbagi	-11.1629
▁Baznas	-11.163
▁Sulut	-11.163
▁vaksinasi	-11.163
▁00:0	-11.1636
▁Founder	-11.1637
▁Bal	-11.1638
▁06:5	-11.1642
▁Asing	-11.1642
umut	-11.1643
▁UUD	-11.1644
▁pengunju	-11.1645
▁bos	-11.1647
uni	-11.1655
teng	-11.1656
▁mene	-11.1659
paslon	-11.1659
▁Widi	-11.166
mad	-11.1661
Amerika	-11.1672
▁dipenjara	-11.1672
tanggal	-11.1672
▁nyari	-11.1674
PMI	-11.1674
▁bers	-11.1677
▁cat	-11.168
▁kepadatan	-11.1685
▁pengembang	-11.1685
aj	-11.1686
▁Setia	-11.1701
▁Asian	-11.1712
ksi	-11.1714
dr	-11.1714
▁Dik	-11.1715
▁DK	-11.1716
▁lintasan	-11.1716
▁Riza	-11.1717
▁Djoko	-11.1718
▁(28/8)	-11.1718
▁Bobotoh	-11.1718
▁Brigadi	-11.1718
▁Keselamatan	-11.1718
▁berbelanja	-11.1718
▁fashion	-11.1718
▁menegakkan	-11.1718
▁syuting	-11.1718
▁training	-11.1718
▁donasi	-11.1718
▁tekad	-11.1718
▁Event	-11.1718
▁perikanan	-11.1718
▁kesenjangan	-11.1718
▁08.00	-11.1718
▁emosional	-11.1719
▁pencemaran	-11.1719
▁Madya	-11.1719
▁mengedukasi	-11.1719
▁rentang	-11.1722
▁Kencana	-11.1724
▁Persiapan	-11.1725
▁Erwin	-11.1726
▁Rohul	-11.1727
▁kumpul	-11.1732
▁Kemenhub	-11.1733
▁pemikiran	-11.1734
▁gue	-11.1736
▁2019.	-11.1737
▁Neta	-11.1738
▁KemenPAN	-11.1738
▁2007	-11.1739
▁UIN	-11.1739
▁Yudi	-11.1743
▁menutupi	-11.1748
▁diolah	-11.1749
▁kesan	-11.175
86	-11.1751
-19.	-11.1752
77	-11.1753
alat	-11.1755
hy	-11.1756
▁Bila	-11.1758
89	-11.1761
DPD	-11.1764
prakirakan	-11.1764
▁terbit	-11.1773
▁Tahap	-11.1776
▁ditunjukkan	-11.1777
▁mm	-11.178
▁ideologi	-11.1781
▁pribadinya	-11.1781
hara	-11.1783
ence	-11.1785
▁Af	-11.1788
nt	-11.1792
.50	-11.1796
▁Resor	-11.1802
▁kantornya	-11.1806
▁Efek	-11.1816
▁(23/1)	-11.1816
▁Austria	-11.1816
▁Elektabilitas	-11.1816
▁Gatot	-11.1816
▁Grobogan	-11.1816
▁Jemaah	-11.1816
▁Tasikmalaya	-11.1816
▁berlibur	-11.1816
▁forensik	-11.1816
▁percobaan	-11.1816
▁perlengkapan	-11.1816
▁perlintasan	-11.1816
▁rumit	-11.1816
▁Zakiyah	-11.1816
▁adegan	-11.1817
▁Sambut	-11.1817
▁2019-2024	-11.1817
▁teori	-11.1817
▁ajaran	-11.1818
▁konservatif	-11.1818
▁Public	-11.1818
▁BWF	-11.1819
shi	-11.1819
▁berbincang	-11.182
kaltim	-11.1821
▁Eva	-11.1821
▁Sanur	-11.1821
▁Sanksi	-11.1822
▁Pemberian	-11.1822
7%	-11.1822
▁berbuka	-11.1823
▁Tolak	-11.1823
▁Fer	-11.1824
▁Gilimanuk	-11.1824
▁Bawang	-11.1825
olo	-11.1828
▁langit	-11.1829
▁Bio	-11.1831
▁Amanat	-11.1837
▁ATM	-11.1847
▁suaranya	-11.185
▁Volo	-11.1854
▁tri	-11.1854
▁Mini	-11.186
▁aduan	-11.1861
▁Cho	-11.1861
saksi	-11.1862
▁Cu	-11.1869
Kemudian	-11.1869
19/	-11.1871
▁ditanam	-11.1872
▁06:0	-11.1875
▁aksinya	-11.1877
▁ITS	-11.188
dong	-11.1884
▁kembang	-11.1886
del	-11.1894
▁tu	-11.1895
▁Uji	-11.1903
▁Satya	-11.1904
lly	-11.1905
ipda	-11.1905
▁Analis	-11.1914
▁Philip	-11.1915
▁Protes	-11.1915
▁Kedokteran	-11.1915
▁Muzani	-11.1915
▁Pandeglang	-11.1915
▁Klaim	-11.1915
▁menandakan	-11.1915
▁dipecat	-11.1915
▁komposisi	-11.1915
▁Fadjar	-11.1915
▁cetak	-11.1915
▁Pengacara	-11.1916
▁kerangka	-11.1916
▁perlakuan	-11.1916
▁keanggotaan	-11.1916
▁Taspen	-11.1916
▁Aturan	-11.1916
▁ranah	-11.1916
▁pengesahan	-11.1916
▁radio	-11.1916
▁Gajah	-11.1916
▁Transaksi	-11.1916
▁terlapor	-11.1917
▁optimalisasi	-11.1917
▁golongan	-11.1917
▁persepsi	-11.1918
▁diplomasi	-11.1919
▁tolong	-11.1919
▁Akses	-11.1919
▁Ogan	-11.1919
tanggungjawaban	-11.192
masok	-11.1923
▁Nga	-11.1923
▁ibunda	-11.1924
ska	-11.1928
▁Taj	-11.193
▁berke	-11.193
▁Tangsel	-11.1931
▁Arus	-11.1934
▁2006	-11.1935
▁mempersem	-11.1935
▁petingg	-11.1942
▁Im	-11.1943
angkaian	-11.1945
▁dihitung	-11.1947
42	-11.1948
▁dada	-11.1952
:36	-11.1953
▁ditarik	-11.1954
▁Alat	-11.1954
▁Tiba	-11.1958
▁MU	-11.1963
▁kontrakan	-11.1963
▁pelaporan	-11.1964
▁Kom	-11.1968
▁Kun	-11.197
▁Berat	-11.1979
▁66	-11.1982
▁Minum	-11.1983
Ter	-11.1986
MC	-11.1986
dus	-11.199
ndo	-11.199
neka	-11.1991
▁America	-11.1998
iz	-11.2005
▁Las	-11.2005
julukan	-11.2008
▁usahanya	-11.2013
▁opini	-11.2014
▁organ	-11.2014
▁menyangka	-11.2014
▁sayang	-11.2015
▁(18/1)	-11.2015
▁Central	-11.2015
▁Clinic	-11.2015
▁Jabatan	-11.2015
▁Kekayaan	-11.2015
▁Supratman	-11.2015
▁benih	-11.2015
▁binatang	-11.2015
▁entertainment	-11.2015
▁komputer	-11.2015
▁pegunungan	-11.2015
▁runtuh	-11.2015
▁spesies	-11.2015
▁Perairan	-11.2015
▁Francesco	-11.2015
▁kelebihan	-11.2015
▁Bangkok	-11.2016
▁Yunani	-11.2016
▁Watch	-11.2016
▁Jules	-11.2016
▁menaruh	-11.2016
▁peledak	-11.2017
▁bak	-11.2017
▁Sonny	-11.2017
▁Golden	-11.2018
▁Year	-11.2018
▁Sikap	-11.2018
▁Digelar	-11.2019
Al	-11.2019
aga	-11.2021
▁Damkar	-11.2022
▁baca	-11.2026
▁biar	-11.2026
▁Satlantas	-11.2026
▁konsistensi	-11.2027
BC	-11.2029
▁Ingat	-11.203
lawan	-11.203
▁CASN	-11.2031
▁700	-11.2033
▁TPI	-11.2034
aksa	-11.2037
▁Karo	-11.2039
▁FK	-11.2039
▁sungguh	-11.2043
▁cairan	-11.2043
▁sport	-11.2046
ard	-11.2046
hubungan	-11.2052
▁pasukannya	-11.2052
incar	-11.2053
▁12:3	-11.206
▁Murah	-11.207
▁BA	-11.2071
▁Music	-11.2073
CI	-11.2074
▁Iya	-11.2079
run	-11.2079
▁Pengguna	-11.208
▁penguasa	-11.2082
myr	-11.2083
▁Deni	-11.2086
▁dipaksa	-11.2087
▁Buat	-11.2091
▁intens	-11.2093
ema	-11.2093
bir	-11.2094
EM	-11.2096
▁07:3	-11.2098
▁pensiunan	-11.2102
ius	-11.2103
PG	-11.2107
siap	-11.211
ficial	-11.2114
▁(5/2)	-11.2116
▁Ciamis	-11.2116
▁Mengonsumsi	-11.2116
▁Periode	-11.2116
▁kehamilan	-11.2116
▁kelayakan	-11.2116
▁komando	-11.2116
▁menggerakkan	-11.2116
▁pegiat	-11.2116
▁demografi	-11.2116
▁Khasiat	-11.2116
▁Risiko	-11.2116
▁kedapatan	-11.2116
▁Tower	-11.2117
▁penculikan	-11.2117
▁kambing	-11.2117
▁prima	-11.2117
▁dramatis	-11.2117
ill	-11.2119
▁Impor	-11.212
▁busana	-11.2121
▁jus	-11.2121
▁Penuh	-11.2122
tono	-11.2123
▁09:2	-11.2124
rem	-11.2126
▁imbalan	-11.2128
▁pedoman	-11.2128
edi	-11.2131
▁cm	-11.2131
▁Danau	-11.2132
▁85	-11.2134
banyak	-11.2134
▁kewarganegaraan	-11.2138
▁Ye	-11.2141
▁kiriman	-11.2144
300	-11.2146
wu	-11.2147
▁maksud	-11.2147
▁aja	-11.2148
▁Sho	-11.2149
bil	-11.2156
/2023	-11.2159
▁09:5	-11.2167
▁Biasa	-11.2171
Sumsel	-11.2172
Humas	-11.2172
▁Sera	-11.2181
off	-11.2182
fri	-11.2184
king	-11.2187
▁Kus	-11.2188
▁79	-11.219
▁Bahasa	-11.2191
33	-11.2193
▁SI	-11.2197
▁bebernya	-11.2198
▁Dok	-11.2201
riya	-11.2203
▁Tam	-11.2206
urus	-11.2206
ili	-11.2211
uc	-11.2213
baya	-11.2214
▁sifat	-11.2216
▁inklusi	-11.2217
▁Ketahanan	-11.2218
▁Pelantikan	-11.2218
▁Perdamaian	-11.2218
▁Premier	-11.2218
▁Soeharto	-11.2218
▁bertuliskan	-11.2218
▁mempertemukan	-11.2218
▁terjual	-11.2218
▁Klub	-11.2218
▁mengalihkan	-11.2218
▁reguler	-11.2218
▁dikhawatirkan	-11.2218
▁kakek	-11.2219
▁ketujuh	-11.2219
▁kisaran	-11.2219
▁Modus	-11.2219
▁Jajaran	-11.2219
▁pertolongan	-11.222
▁pembawa	-11.222
▁Gi	-11.222
▁Azizah	-11.222
▁terkadang	-11.2222
bon	-11.2223
▁Menlu	-11.2223
▁eksekusi	-11.2223
▁Klok	-11.2225
▁sejahtera	-11.2225
▁terulang	-11.2226
▁selaras	-11.2226
▁Play	-11.2228
ogo	-11.2233
▁tukar	-11.2233
▁panti	-11.2235
▁harganya	-11.2237
▁21:5	-11.2239
▁ESDM	-11.2239
fan	-11.2243
▁serang	-11.2243
▁Mon	-11.2246
▁tanggap	-11.2246
▁Tren	-11.2247
uma	-11.225
▁pop	-11.2251
▁2000	-11.2252
▁seluruhnya	-11.2253
▁Suf	-11.2257
minggu	-11.226
-29	-11.2263
▁dijatuhkan	-11.2264
rik	-11.2266
ight	-11.2267
▁sepi	-11.2267
▁Temuan	-11.2268
▁Pam	-11.2271
▁kenyataan	-11.2273
▁penderitaan	-11.2273
88	-11.2285
dul	-11.2285
▁sayur	-11.2288
▁74	-11.229
OK	-11.2297
▁Smart	-11.2301
▁15:3	-11.2315
badan	-11.2315
▁Rita	-11.2319
▁laju	-11.232
▁Belgia	-11.2322
▁Marselino	-11.2322
▁Perintah	-11.2322
▁Triliun	-11.2322
▁diperpanjang	-11.2322
▁kekacauan	-11.2322
▁terkendali	-11.2322
▁jebol	-11.2322
▁kronis	-11.2322
▁perjudian	-11.2322
▁donor	-11.2322
▁menginap	-11.2322
▁Kolombia	-11.2322
▁Qodari	-11.2322
▁memanas	-11.2322
▁Belajar	-11.2322
▁Christie	-11.2322
nggak	-11.2322
▁bio	-11.2322
▁Hermansyah	-11.2322
mendistribusikan	-11.2322
▁Percepat	-11.2323
▁enak	-11.2323
▁Berharap	-11.2323
▁Syarif	-11.2323
▁Laura	-11.2323
▁Soreang	-11.2323
▁Kanit	-11.2324
▁Tugu	-11.2325
gat	-11.2326
▁Mundur	-11.2327
▁fraksi	-11.2327
▁MIND	-11.2327
▁Idul	-11.2327
▁IM	-11.2327
Bu	-11.2328
▁Christian	-11.2328
▁Road	-11.233
don	-11.2334
▁Penega	-11.2335
▁LBH	-11.2335
▁Budiman	-11.2339
▁Laki	-11.2345
▁KLHK	-11.2345
▁separuh	-11.2345
▁XI	-11.2346
ance	-11.2361
▁Akademi	-11.2364
KK	-11.237
▁UE	-11.2371
nta	-11.2372
▁Mir	-11.2374
▁Bos	-11.2378
organisasi	-11.2379
▁Biasanya	-11.238
tingkat	-11.238
PPK	-11.238
sebut	-11.2391
PB	-11.2392
NE	-11.2393
▁mengantar	-11.2396
▁Van	-11.2398
▁Lan	-11.2399
▁pemerintahannya	-11.2404
▁sendirian	-11.2406
ngga	-11.2407
▁08:5	-11.2407
▁Bun	-11.2414
can	-11.2414
▁MH	-11.2417
▁pengin	-11.2424
▁Encep	-11.2426
▁Nasdem	-11.2426
▁Simanjuntak	-11.2426
▁Venezuela	-11.2426
▁advokat	-11.2426
▁penggerak	-11.2426
▁penjuru	-11.2426
▁telekomunikasi	-11.2426
▁venue	-11.2426
▁menghidupkan	-11.2426
▁surya	-11.2426
▁Rahasia	-11.2426
▁efektivitas	-11.2426
▁kemarahan	-11.2426
▁kolega	-11.2426
▁berlari	-11.2426
▁runner	-11.2426
▁diwakili	-11.2426
▁Sugeng	-11.2426
▁Ronny	-11.2426
▁Taruna	-11.2427
▁Turut	-11.2428
▁kapten	-11.2429
▁Angela	-11.2431
eu	-11.2433
▁Batik	-11.2433
▁YouTuber	-11.2435
▁Labuan	-11.2435
▁Mayor	-11.2436
hol	-11.2438
▁69	-11.244
▁lap	-11.2442
▁tahunnya	-11.2443
▁war	-11.2443
▁Bayi	-11.2449
▁Paskibraka	-11.2453
▁diganti	-11.2476
cut	-11.2476
NTT	-11.2485
▁lega	-11.2486
ath	-11.2493
skala	-11.2494
▁baja	-11.2495
encinta	-11.2495
▁pendaftar	-11.2497
▁CV	-11.2498
arti	-11.2503
out	-11.2508
▁96	-11.2509
JPU	-11.251
96	-11.2512
▁Angga	-11.2515
kerja	-11.2518
▁Pre	-11.252
lut	-11.2523
tum	-11.2527
idi	-11.2528
▁ultra	-11.253
▁akrabnya	-11.2531
▁mandat	-11.2531
▁(21/1)	-11.2531
▁(25/1)	-11.2531
▁Kolonel	-11.2531
▁Rismaharini	-11.2531
▁elektoral	-11.2531
▁kurikulum	-11.2531
▁tenggara	-11.2531
▁skandal	-11.2531
▁Kualitas	-11.2531
▁kesatuan	-11.2531
▁Kendari	-11.2531
▁SUKA	-11.2531
▁kedalaman	-11.2531
▁Penjaga	-11.2531
▁vila	-11.2531
▁usus	-11.2532
▁dimainkan	-11.2532
▁Tinggal	-11.2532
▁Kelima	-11.2533
▁Tampak	-11.2533
▁Jojo	-11.2534
▁Literasi	-11.2535
▁kediamannya	-11.2536
▁78	-11.2537
▁JK	-11.2537
▁Umat	-11.2539
▁Tahanan	-11.2545
▁DJ	-11.2549
wil	-11.255
▁berdua	-11.2551
▁Ace	-11.2552
▁Md	-11.2553
▁IDF	-11.2555
uskan	-11.2563
▁02:0	-11.2564
▁berkali	-11.2567
CS	-11.2568
▁Ger	-11.257
▁lu	-11.2576
jenis	-11.2579
▁meringku	-11.258
▁masuknya	-11.2584
zar	-11.2587
MM	-11.2588
▁militernya	-11.2589
▁tangkapan	-11.2591
pemain	-11.2592
▁Fed	-11.2593
ART	-11.2595
sek	-11.2596
oso	-11.2597
▁pengajar	-11.2601
▁pembuka	-11.2602
balik	-11.2603
▁Isa	-11.2604
▁05:5	-11.2607
▁6,5	-11.261
sem	-11.2614
PC	-11.2614
▁Ika	-11.2626
▁pendirian	-11.2626
▁Pop	-11.2632
▁Rangku	-11.2635
▁progres	-11.2637
▁(14/10)	-11.2637
▁(27/3)	-11.2637
▁Paripurna	-11.2637
▁Penasihat	-11.2637
▁Slavina	-11.2637
▁benua	-11.2637
▁celana	-11.2637
▁fiktif	-11.2637
▁lukisan	-11.2637
▁menyimpulkan	-11.2637
▁nirawak	-11.2637
▁pemecatan	-11.2637
▁persahabatan	-11.2637
▁selisih	-11.2637
▁angket	-11.2637
▁diperkenalkan	-11.2637
▁workshop	-11.2637
▁Sawit	-11.2637
▁berdoa	-11.2637
▁Serpong	-11.2637
▁dikumpulkan	-11.2637
▁kerajinan	-11.2637
▁Pendukung	-11.2638
▁pemalsuan	-11.2638
aki	-11.2638
▁dijelaskan	-11.2638
▁lubang	-11.2638
▁nyeri	-11.2638
▁cantik	-11.2638
▁mengerti	-11.2638
BUMI	-11.2638
▁kabel	-11.2638
▁terminal	-11.2639
▁Kurang	-11.2639
▁kontroversial	-11.264
▁LSM	-11.264
▁Mary	-11.264
▁terbalik	-11.2642
▁Gregoria	-11.2644
▁psikologis	-11.2646
▁Tepat	-11.265
▁ATR	-11.2653
▁berenang	-11.2656
▁berfoto	-11.2657
ary	-11.2659
▁kue	-11.2662
for	-11.2664
-31	-11.2664
ndi	-11.2664
▁09:4	-11.2669
▁diresmikan	-11.267
IP	-11.2671
▁Junior	-11.2673
▁kunjungannya	-11.2675
-28	-11.2677
▁Bagas	-11.2677
58	-11.2678
lebih	-11.2679
▁PO	-11.2679
▁Wina	-11.2683
▁Beras	-11.2692
▁keprihatinan	-11.2696
▁16.00	-11.2696
MD	-11.2696
▁gencar	-11.2697
▁der	-11.2698
Hasil	-11.2698
itan	-11.2699
▁Race	-11.2702
dera	-11.2702
posisi	-11.2702
RAM	-11.2703
lagi	-11.2708
ess	-11.2709
▁gerak	-11.2711
▁buron	-11.2711
▁semen	-11.2714
3)	-11.2715
itu	-11.2716
Berdasar	-11.2722
arah	-11.2731
blak	-11.2732
Co	-11.2733
bud	-11.2735
iringi	-11.2739
▁Etik	-11.2743
▁agresi	-11.2744
▁impian	-11.2745
▁(22/1)	-11.2745
▁(22/4)	-11.2745
▁(7/2)	-11.2745
▁Abraham	-11.2745
▁Financial	-11.2745
▁Muncul	-11.2745
▁jendela	-11.2745
▁memadati	-11.2745
▁pembekalan	-11.2745
▁pengumpulan	-11.2745
▁mengindikasikan	-11.2745
▁jahat	-11.2745
▁kedokteran	-11.2745
▁kewaspadaan	-11.2745
▁tukang	-11.2745
▁legendaris	-11.2745
▁konvensional	-11.2745
▁Jonatan	-11.2745
▁aneh	-11.2745
▁tiang	-11.2746
▁menghibur	-11.2746
▁dokumentasi	-11.2747
▁Melawan	-11.2747
▁Siangnya	-11.2749
▁Jabodetabek	-11.2749
▁Inisiatif	-11.2749
▁Hanura	-11.2749
all	-11.275
▁Model	-11.275
▁Tjah	-11.275
▁Terutama	-11.2751
▁naturalisasi	-11.2751
▁bocor	-11.2752
▁sebelas	-11.2754
▁tank	-11.2761
▁ABC	-11.2763
▁konfirmasi	-11.2766
▁Penerimaan	-11.2766
pemerintah	-11.2766
ES	-11.2767
▁sisanya	-11.2776
▁HP	-11.2784
ive	-11.2788
▁gunakan	-11.279
▁Os	-11.2791
KIM	-11.2794
56	-11.2794
▁12:5	-11.28
▁73	-11.2801
▁SM	-11.2806
wilayah	-11.2807
Program	-11.2807
▁Hatta	-11.2808
▁politiknya	-11.281
▁+	-11.2811
▁$2	-11.2813
pada	-11.2813
git	-11.2813
▁Dong	-11.282
▁karang	-11.2821
▁hubungannya	-11.2827
ple	-11.2841
▁kas	-11.2847
▁Rosan	-11.2848
yadi	-11.2849
kop	-11.2851
▁instan	-11.2852
▁radikal	-11.2853
▁(23/10)	-11.2854
▁(30/1)	-11.2854
▁Bengkalis	-11.2854
▁Cipayung	-11.2854
▁Entertainment	-11.2854
▁Gallant	-11.2854
▁Hasibuan	-11.2854
▁Wajib	-11.2854
▁aktris	-11.2854
▁perdebatan	-11.2854
▁perspektif	-11.2854
▁Elektronik	-11.2854
▁email	-11.2854
▁santai	-11.2854
▁porsi	-11.2854
▁nikah	-11.2854
▁Future	-11.2854
▁Langsung	-11.2854
▁Maharani	-11.2854
▁kebetulan	-11.2854
▁otot	-11.2854
▁diduduki	-11.2854
▁Kompetensi	-11.2854
▁anyar	-11.2854
▁Ops	-11.2854
▁postingan	-11.2854
▁membedakan	-11.2854
▁Good	-11.2855
▁BRICS	-11.2855
▁Tesla	-11.2855
▁Johnson	-11.2855
▁Raden	-11.2855
▁bule	-11.2856
▁beruntung	-11.2856
▁Komang	-11.2856
▁Supian	-11.2856
▁mumpuni	-11.2856
▁garam	-11.2856
▁Dhani	-11.2857
▁as	-11.2858
▁Peradi	-11.2858
▁Andreas	-11.286
▁serial	-11.2861
▁maya	-11.2863
▁14:5	-11.2864
▁tandang	-11.2865
▁Ditreskrimum	-11.2866
▁seimbang	-11.2867
▁awan	-11.2867
▁Bra	-11.2869
53	-11.2872
PJ	-11.2873
▁81	-11.2877
▁Detik	-11.2877
▁pemukiman	-11.2878
sep	-11.288
▁logo	-11.2884
▁tuh	-11.2889
▁UMK	-11.2891
▁07:5	-11.2895
lay	-11.2898
▁harapkan	-11.2898
▁PKK	-11.2901
lip	-11.2902
▁Kg	-11.2902
▁nggak	-11.2903
▁12:1	-11.2907
▁2045.	-11.2908
ken	-11.2908
tta	-11.2909
masalah	-11.2912
ase	-11.2916
Kegiatan	-11.2917
Kedua	-11.2918
RK	-11.2922
-22	-11.2923
▁Makanya	-11.2925
ryanti	-11.2937
▁dimaksudkan	-11.2937
▁Rena	-11.2939
▁Set	-11.2944
won	-11.2954
▁start	-11.2957
arang	-11.2959
▁Akun	-11.2959
▁Balik	-11.296
▁hitung	-11.296
▁rektor	-11.2962
▁Livin	-11.2963
pur	-11.2963
▁3-1	-11.2963
▁(15/4)	-11.2963
▁(30/7)	-11.2963
▁(5/1)	-11.2963
▁(8/3)	-11.2963
▁Bergizi	-11.2963
▁Bioskop	-11.2963
▁Bondowoso	-11.2963
▁Cholil	-11.2963
▁Inflasi	-11.2963
▁Ketapang	-11.2963
▁Libya	-11.2963
▁Maarten	-11.2963
▁Penuntut	-11.2963
▁Yerusalem	-11.2963
▁alhamdulillah	-11.2963
▁bimbingan	-11.2963
▁dermaga	-11.2963
▁kesepahaman	-11.2963
▁lawatan	-11.2963
▁perincian	-11.2963
▁kedekatan	-11.2963
▁kelestarian	-11.2964
▁Pembalap	-11.2964
▁roti	-11.2964
▁bijak	-11.2964
▁dimakamkan	-11.2964
▁mengamati	-11.2964
▁profil	-11.2964
▁pengikut	-11.2964
▁podium	-11.2964
▁Menjaga	-11.2964
▁Tertinggi	-11.2964
▁koordinator	-11.2964
▁pagar	-11.2965
▁Panji	-11.2965
▁Setiadi	-11.2966
▁Madani	-11.2967
▁jurusan	-11.2968
▁menyatukan	-11.2971
▁Ricardo	-11.2971
▁Pacific	-11.2973
perketat	-11.2975
banding	-11.2975
▁Setyo	-11.2977
inggung	-11.2977
▁mobilitas	-11.298
yun	-11.2984
▁11:3	-11.2986
▁Sekali	-11.2989
wanto	-11.3001
agaman	-11.3012
ero	-11.3017
imbau	-11.3023
sis	-11.3023
menerus	-11.3028
▁Kalah	-11.3029
dok	-11.3031
lagu	-11.3037
tom	-11.3038
cc	-11.3039
▁Sorenya	-11.3042
▁Tur	-11.3046
uw	-11.305
▁Il	-11.3051
▁Ag	-11.3053
▁Toba	-11.3054
▁PIK	-11.3055
nus	-11.3055
▁82	-11.3057
▁Kasih	-11.3057
ret	-11.3064
▁IN	-11.3065
▁batasan	-11.3073
▁Cahyo	-11.3074
▁Walau	-11.3075
dongkrak	-11.3075
mengintegrasikan	-11.3075
▁(1/10)	-11.3075
▁(10/10)	-11.3075
▁Erdogan	-11.3075
▁George	-11.3075
▁Matthew	-11.3075
▁Summit	-11.3075
▁asusila	-11.3075
▁berlindung	-11.3075
▁diberangkatkan	-11.3075
▁fosil	-11.3075
▁insyaallah	-11.3075
▁kepengurusan	-11.3075
▁kerawanan	-11.3075
▁lunak	-11.3075
▁merangkul	-11.3075
▁mewajibkan	-11.3075
▁skill	-11.3075
▁ditimbulkan	-11.3075
▁terpantau	-11.3075
▁kekebalan	-11.3075
▁statistik	-11.3075
▁atmosfer	-11.3075
▁konservasi	-11.3075
Be	-11.3075
▁suaka	-11.3075
▁logam	-11.3075
▁Hubner	-11.3075
▁dikerjakan	-11.3075
▁Manila	-11.3075
▁Palangka	-11.3076
▁memberitahu	-11.3076
▁Yakin	-11.3076
▁Brawijaya	-11.3079
▁87	-11.308
▁1.500	-11.3082
enyandang	-11.3083
▁Kontrak	-11.3086
▁Reporter	-11.3087
prov	-11.3088
▁pelat	-11.309
▁menerus	-11.3092
▁BNPB	-11.3097
!"	-11.3101
resenter	-11.3104
▁kaitannya	-11.3105
▁rel	-11.3109
ks	-11.3117
supan	-11.3121
▁Dico	-11.3123
ito	-11.3126
95	-11.3133
HA	-11.3138
▁pungkas	-11.3138
▁Tanda	-11.3141
▁2024/2025.	-11.3142
Nanti	-11.3142
Jangan	-11.3144
tuk	-11.3145
hen	-11.3146
▁23:5	-11.3151
▁11:4	-11.3156
▁Maritim	-11.3161
▁12:4	-11.3162
▁Sorot	-11.3164
gol	-11.3174
baiknya	-11.3175
▁Inti	-11.3175
1%	-11.3178
▁tujuannya	-11.3179
▁18:1	-11.3182
▁Johan	-11.3186
erkumpulan	-11.3187
▁Klasemen	-11.3187
▁Klinik	-11.3187
▁Lippo	-11.3187
▁Penerangan	-11.3187
▁Persikabo	-11.3187
▁Yaqut	-11.3187
▁autopsi	-11.3187
▁sarjana	-11.3187
▁sekretaris	-11.3187
▁entitas	-11.3187
▁mengukur	-11.3187
▁menyukai	-11.3187
▁pengasuh	-11.3187
▁cermat	-11.3187
▁sesungguhnya	-11.3187
▁Jusuf	-11.3187
▁nominasi	-11.3187
▁Makmur	-11.3187
▁ombak	-11.3187
▁Lembong	-11.3187
▁penggawa	-11.3188
▁Yesus	-11.3188
▁simak	-11.3188
▁ditempati	-11.3188
▁Mc	-11.3189
▁Pinang	-11.3189
▁Susilo	-11.3189
▁tali	-11.319
▁Berbeda	-11.3191
▁sentuhan	-11.3191
▁Khalifa	-11.3192
▁Terjadi	-11.3196
▁Kedung	-11.3199
▁Kuat	-11.3199
lokasi	-11.32
▁Amil	-11.3201
▁mengulangi	-11.3201
AT	-11.3203
▁zonasi	-11.3203
UP	-11.3203
▁pilihnya	-11.3206
▁Sch	-11.3207
▁harapannya	-11.3209
1)	-11.3214
▁LSI	-11.3215
▁pembacaan	-11.3216
▁Ara	-11.3217
▁OJK	-11.3223
▁Puri	-11.3225
time	-11.3226
Aku	-11.3227
▁Mike	-11.323
med	-11.3231
nata	-11.3232
▁Iswar	-11.3235
4/	-11.3239
▁Dede	-11.3244
ship	-11.3244
71	-11.3247
▁Huda	-11.3249
atchday	-11.3249
▁pre	-11.325
▁pesaing	-11.3252
▁ti	-11.3253
Pasifik	-11.3254
▁hanyalah	-11.3255
▁CO	-11.3256
MT	-11.3259
kara	-11.3262
▁Pilih	-11.3267
▁ra	-11.3272
ys	-11.3272
▁5.000	-11.3277
▁Kamal	-11.328
ich	-11.3281
wal	-11.3287
Pak	-11.3292
ongan	-11.3294
▁Didi	-11.3295
bra	-11.3295
kul	-11.33
▁(14/8)	-11.3301
▁Ariotedjo	-11.3301
▁Bontang	-11.3301
▁Guterres	-11.3301
▁Halmahera	-11.3301
▁Norwegia	-11.3301
▁Penumpang	-11.3301
▁dibiarkan	-11.3301
▁ditampilkan	-11.3301
▁maksimum	-11.3301
▁membicarakan	-11.3301
▁mengesahkan	-11.3301
▁disimpan	-11.3301
▁jatah	-11.3301
▁depresi	-11.3301
▁Tokopedia	-11.3301
▁aroma	-11.3301
▁memerinci	-11.3301
▁Transmigrasi	-11.3301
▁dikawal	-11.3301
▁pemerataan	-11.3301
▁memotivasi	-11.3301
▁penjabat	-11.3301
▁kolam	-11.3301
▁penghentian	-11.3301
▁Beasiswa	-11.3301
▁Subdit	-11.3301
▁kontestan	-11.3301
▁sabar	-11.3302
▁kasasi	-11.3302
▁Maming	-11.3302
mitra	-11.3303
▁Gaji	-11.3304
▁Prioritas	-11.3304
▁14:3	-11.3305
▁perunggu	-11.3306
▁Lawang	-11.3306
▁pantauan	-11.3308
▁(20	-11.3309
▁tubuhnya	-11.331
▁Dinar	-11.331
▁tega	-11.3313
▁(24/7)	-11.3317
▁Mendagri	-11.3318
tiga	-11.3319
▁Up	-11.3319
▁WWF	-11.3321
▁cap	-11.3321
guru	-11.3323
▁banteng	-11.3323
bia	-11.3323
▁bakti	-11.3328
▁Jun	-11.3332
▁Ris	-11.3336
▁Batakan	-11.3337
fer	-11.3346
▁Ang	-11.3347
▁dibayarkan	-11.3347
▁Prodi	-11.3348
ack	-11.3351
▁Menu	-11.3364
keluarga	-11.3369
sumpah	-11.3369
Wakil	-11.3369
▁Pr	-11.3371
▁Lain	-11.3376
DS	-11.3376
ungan	-11.3378
til	-11.3382
cil	-11.3382
▁pu	-11.3388
▁ala	-11.3396
▁AU	-11.3397
▁berakhirnya	-11.3398
▁(2)	-11.3399
▁dicari	-11.3402
▁Sjafri	-11.341
▁mari	-11.3412
MEDAN	-11.3413
▁show	-11.3415
▁(26/1)	-11.3415
▁Buddha	-11.3415
▁Challenge	-11.3415
▁Hevearita	-11.3415
▁Nelayan	-11.3415
▁Pemelihara	-11.3415
▁dikunjungi	-11.3415
▁judul	-11.3415
▁konsultan	-11.3415
▁reputasi	-11.3415
▁tragedi	-11.3415
▁acuan	-11.3415
▁menyambangi	-11.3415
▁Paniai	-11.3416
▁digagas	-11.3416
▁tudingan	-11.3416
▁menyembunyikan	-11.3416
▁ketahui	-11.3416
▁mengkaji	-11.3416
▁Carolina	-11.3416
▁Pembebas	-11.3416
▁Pengunjung	-11.3416
▁naungan	-11.3416
▁Hotman	-11.3416
▁Prihadi	-11.3416
▁Jansen	-11.3416
▁terlambat	-11.3418
▁Team	-11.3419
▁Pasir	-11.342
▁Japan	-11.342
▁Panas	-11.3421
▁Revi	-11.3421
▁PBSI	-11.3421
▁razia	-11.3423
▁Harapannya	-11.3426
▁mal	-11.3426
▁UEA	-11.3431
▁Sarana	-11.3432
▁Andy	-11.3434
▁Harta	-11.3435
▁Tawar	-11.3436
▁Bakauheni	-11.3437
▁Long	-11.3438
▁Grab	-11.3439
▁Atma	-11.344
▁Beliau	-11.344
▁dimusnahkan	-11.3457
▁22:1	-11.3458
▁Inf	-11.3458
▁IKA	-11.3468
jadi	-11.347
▁kerjasama	-11.3471
72	-11.3471
▁2-1	-11.3474
BRI	-11.3476
▁besaran	-11.3482
Ku	-11.3484
TV	-11.3485
zer	-11.3489
▁prosesnya	-11.349
▁menunjukan	-11.3492
ted	-11.3493
mall	-11.3493
▁Lai	-11.3496
▁penutup	-11.3498
▁Tunjung	-11.3499
pus	-11.3499
▁mengeluh	-11.3502
▁amankan	-11.3504
:31	-11.3509
▁DPT	-11.3509
▁BAN	-11.3512
▁test	-11.3527
▁sentral	-11.3528
enyerahan	-11.3531
▁pembalasan	-11.3532
▁(10/9)	-11.3532
▁(27/6)	-11.3532
▁(29/1)	-11.3532
▁(5/4)	-11.3532
▁Habiburokhman	-11.3532
▁Pentagon	-11.3532
▁Sustainability	-11.3532
▁berlayar	-11.3532
▁bervariasi	-11.3532
▁degradasi	-11.3532
▁konektivitas	-11.3532
▁bakteri	-11.3532
▁perseorangan	-11.3532
▁Manggarai	-11.3532
▁Lengkap	-11.3532
▁utusan	-11.3532
▁Longsor	-11.3532
▁dibakar	-11.3532
▁Aurel	-11.3532
▁Imlek	-11.3532
▁ojek	-11.3532
▁Mengaku	-11.3532
▁pemicu	-11.3532
▁diawasi	-11.3532
▁Mimika	-11.3532
▁merokok	-11.3532
▁terbaiknya	-11.3532
▁menuding	-11.3533
▁Terungkap	-11.3533
calon	-11.3533
▁heran	-11.3533
▁menangguhkan	-11.3533
▁Alfian	-11.3533
▁Pilar	-11.3534
▁wayang	-11.3535
▁DNA	-11.3537
▁berteriak	-11.3538
▁Keberhasilan	-11.354
▁knalpot	-11.3541
▁Bur	-11.3542
▁Pileg	-11.3543
ulung	-11.3544
antik	-11.3544
▁Marcos	-11.3545
▁Mayat	-11.3546
▁dilakukannya	-11.3549
Giri	-11.3551
▁Mali	-11.3552
▁(22/8)	-11.3554
▁Pel	-11.3558
▁Hamid	-11.356
▁2003	-11.3561
▁Chris	-11.3562
▁bertempat	-11.3563
harjo	-11.3563
▁Peru	-11.3565
▁Anna	-11.3567
ei	-11.3571
pes	-11.3576
▁mula	-11.358
▁praktisi	-11.3585
▁PAS	-11.3587
▁mas	-11.3594
▁mar	-11.3594
bersih	-11.3599
andai	-11.3601
▁1,7	-11.3609
▁HM	-11.3612
tok	-11.3612
▁Has	-11.3614
▁puluh	-11.3616
▁Ana	-11.3618
▁Angin	-11.3618
▁menyu	-11.362
▁Antoni	-11.3622
OR	-11.3622
qi	-11.3623
▁Vol	-11.3626
:33	-11.363
▁Aziz	-11.3632
▁Hospital	-11.3636
▁caranya	-11.3638
▁jera	-11.3641
▁71	-11.3642
elantun	-11.3643
▁Visi	-11.3645
▁Harry	-11.3647
▁(12/12)	-11.3649
▁(20/3)	-11.3649
▁(23/12)	-11.3649
▁(5/11)	-11.3649
▁Album	-11.3649
▁Kandidat	-11.3649
▁Kapuas	-11.3649
▁Kepemimpinan	-11.3649
▁Klungkung	-11.3649
▁Pictures	-11.3649
▁Prajurit	-11.3649
▁Suherman	-11.3649
▁Swift	-11.3649
▁Tujuh	-11.3649
▁diperbaiki	-11.3649
▁kelelahan	-11.3649
▁menggeledah	-11.3649
▁pelosok	-11.3649
▁Kemitraan	-11.3649
▁margin	-11.3649
▁mengoperasikan	-11.3649
▁SWT	-11.3649
▁kerajaan	-11.3649
▁Natuna	-11.3649
▁dipengaruhi	-11.365
▁senada	-11.365
▁instalasi	-11.365
▁silakan	-11.365
▁rock	-11.365
▁Arsip	-11.365
▁buaya	-11.365
▁outlet	-11.365
▁iuran	-11.365
▁Perkara	-11.3651
▁BUMD	-11.3651
▁influencer	-11.3652
▁Konon	-11.3653
▁Acep	-11.3653
▁semalam	-11.3653
▁belas	-11.3655
use	-11.3655
▁berangin	-11.3656
▁TPNPB	-11.3656
akar	-11.3657
-24	-11.3657
▁Space	-11.3658
▁bersumber	-11.3658
▁Mengingat	-11.3658
▁penye	-11.3659
ndu	-11.366
▁penerbitan	-11.366
TF	-11.366
▁Beach	-11.3666
▁HIV	-11.3667
▁audit	-11.367
vin	-11.3671
▁lirik	-11.3671
▁salam	-11.3671
MO	-11.3672
yung	-11.3674
▁dorongan	-11.3675
kri	-11.3679
▁MoU	-11.368
▁PHPU	-11.3683
▁OPD	-11.3684
▁JIS	-11.3685
ey	-11.3688
▁open	-11.3688
▁Tomo	-11.3689
▁3.000	-11.3692
iming	-11.3693
▁Wei	-11.3694
▁You	-11.3694
▁halnya	-11.3697
▁Times	-11.3697
▁Santa	-11.3703
▁is	-11.3704
▁Wall	-11.3705
trans	-11.3705
alang	-11.3706
79	-11.3713
▁susun	-11.3718
▁Big	-11.372
abulkan	-11.3723
▁penyelamat	-11.3735
▁andal	-11.3737
bab	-11.3738
▁Muh	-11.3738
▁menguat	-11.3739
bri	-11.3742
Te	-11.3749
▁manfaatnya	-11.3752
sor	-11.3753
▁Economic	-11.3756
▁Saiful	-11.3766
direktorat	-11.3768
▁(20/5)	-11.3768
▁(24/6)	-11.3768
▁(29/7)	-11.3768
▁(4/11)	-11.3768
▁Keimigrasian	-11.3768
▁Lewotobi	-11.3768
▁Sedunia	-11.3768
▁terhindar	-11.3768
▁Beauty	-11.3768
▁memasak	-11.3768
▁mengobati	-11.3768
▁Optimistis	-11.3769
▁Network	-11.3769
▁panduan	-11.3769
▁menyeret	-11.3769
▁interaksi	-11.3769
▁Marsudi	-11.3769
▁lambung	-11.3769
▁Jeruk	-11.3769
▁Maduro	-11.3769
▁begal	-11.3769
▁Nasib	-11.3769
▁Makkah	-11.3769
▁UKT	-11.377
▁JAYA	-11.377
▁BMW	-11.377
▁mengguncang	-11.3771
▁perlahan	-11.3772
▁Himpunan	-11.3773
▁Happy	-11.3773
▁insan	-11.3774
▁peraga	-11.3774
▁Tayang	-11.3774
▁Aula	-11.3775
▁siapapun	-11.3777
▁perusakan	-11.3777
▁Motif	-11.3777
▁rumor	-11.3778
▁Devi	-11.3781
▁Supar	-11.3781
▁label	-11.3784
▁VII	-11.3785
tong	-11.3785
▁Tentunya	-11.3792
▁Rivan	-11.3794
▁bar	-11.3794
▁Datar	-11.3794
▁Luka	-11.3795
▁mengeluhkan	-11.3799
▁digantikan	-11.3802
media	-11.3806
▁produser	-11.3806
▁Kubu	-11.3806
gem	-11.3809
▁Pilihan	-11.381
▁10:5	-11.381
▁Firman	-11.381
▁1.5	-11.3812
▁puing	-11.3815
fin	-11.3816
ell	-11.3817
wali	-11.3824
▁he	-11.3826
wanti	-11.3826
saudara	-11.3829
▁Bangunan	-11.3829
▁BPS	-11.3829
▁Rencananya	-11.3839
NTB	-11.3844
▁Pin	-11.3847
▁Gold	-11.3847
2.000	-11.3848
PPN	-11.3849
SAR	-11.3856
▁Catat	-11.386
▁Babak	-11.386
Un	-11.3868
▁no	-11.3872
temannya	-11.3875
posting	-11.3876
▁UT	-11.3877
▁Bro	-11.3879
tuju	-11.3884
▁Sule	-11.3888
▁(11/12)	-11.3889
▁(28/1)	-11.3889
▁(28/3)	-11.3889
▁(3/7)	-11.3889
▁(30/4)	-11.3889
▁Badminton	-11.3889
▁Bitcoin	-11.3889
▁Kertanegara	-11.3889
▁Purnomo	-11.3889
▁Yoyok	-11.3889
▁asosiasi	-11.3889
▁seluler	-11.3889
▁(21/8)	-11.3889
▁(5/3)	-11.3889
▁mencintai	-11.3889
▁perpecahan	-11.3889
▁1973	-11.3889
▁berpasangan	-11.3889
▁disusun	-11.3889
▁sandar	-11.3889
▁Tabungan	-11.3889
▁telinga	-11.3889
▁Delapan	-11.3889
▁Cegah	-11.3889
▁kelengkapan	-11.3889
▁Edwin	-11.3889
▁pelarangan	-11.3889
▁konstitusional	-11.389
▁Ratna	-11.389
▁Euro	-11.389
▁estate	-11.389
▁terpadu	-11.389
▁dijalani	-11.389
▁selebgram	-11.3892
▁Alvin	-11.3892
▁Penembakan	-11.3892
▁Chen	-11.3894
▁nenek	-11.3896
yani	-11.3897
far	-11.3898
▁Lahan	-11.3899
▁Oil	-11.39
BN	-11.3902
▁edaran	-11.3902
▁inter	-11.3903
▁North	-11.3906
emakin	-11.3906
▁penambangan	-11.3908
▁BPOM	-11.3909
▁rupanya	-11.3915
▁pangkat	-11.3915
ella	-11.3917
▁daratan	-11.3918
▁Ton	-11.3919
▁menyis	-11.392
/12	-11.392
▁henti	-11.3921
▁meneruskan	-11.3921
Mu	-11.3923
ganda	-11.3924
▁kelak	-11.3925
▁ICC	-11.3925
▁2002	-11.3925
▁94	-11.3925
▁Kor	-11.3926
▁Jar	-11.3928
UK	-11.3933
▁Res	-11.3943
▁kerjanya	-11.3946
SO	-11.3948
▁112	-11.3948
erangkat	-11.3949
perkirakan	-11.3951
SMK	-11.3952
▁Rama	-11.3953
pasang	-11.3956
▁do	-11.3959
▁pel	-11.3959
heboh	-11.3959
▁Ning	-11.396
▁ekonom	-11.3962
▁pelari	-11.3962
Calon	-11.3964
Kepala	-11.3964
Sehingga	-11.3964
DKPP	-11.3965
Sumut	-11.3969
▁May	-11.3972
▁one	-11.3988
▁05:0	-11.3991
▁TP	-11.3998
leng	-11.4001
pam	-11.4003
merekomendasikan	-11.4007
▁Kam	-11.4008
▁IIA	-11.4009
▁(14/5)	-11.4011
▁(25/4)	-11.4011
▁(6/9)	-11.4011
▁(8/8)	-11.4011
▁Bergerak	-11.4011
▁Investigasi	-11.4011
▁Kroasia	-11.4011
▁Perkebunan	-11.4011
▁Produsen	-11.4011
▁berkeliling	-11.4011
▁blusukan	-11.4011
▁diselidiki	-11.4011
▁dominan	-11.4011
▁pedesaan	-11.4011
▁pengerjaan	-11.4011
▁tanggul	-11.4011
▁(23/9)	-11.4011
▁Panggil	-11.4011
▁Perbatasan	-11.4011
▁diminati	-11.4011
▁Gilbert	-11.4011
▁terjerat	-11.4011
ous	-11.4011
▁QRIS	-11.4011
▁koridor	-11.4011
▁perhiasan	-11.4011
▁Meranti	-11.4011
▁Wilson	-11.4011
▁Samsung	-11.4011
▁Guntur	-11.4011
▁Firdaus	-11.4011
▁kios	-11.4012
has	-11.4012
▁Induk	-11.4012
▁kuno	-11.4013
▁RANS	-11.4013
▁menular	-11.4014
▁Donny	-11.4014
▁penghubung	-11.4015
▁Septian	-11.4015
▁Parkir	-11.4016
▁Kekuatan	-11.4016
▁Titik	-11.4016
▁Gaikindo	-11.4016
▁pembersihan	-11.4017
▁baliho	-11.4017
▁Sido	-11.4018
▁Carlos	-11.4018
▁Romo	-11.4019
▁teratur	-11.4019
▁pemula	-11.402
▁Dit	-11.4021
▁Mana	-11.4021
dengan	-11.4022
▁Prasta	-11.4023
▁gen	-11.4028
idap	-11.4029
▁Safari	-11.4029
▁Bursa	-11.4035
▁mediator	-11.4035
▁prediksi	-11.4038
▁penentuan	-11.4039
mur	-11.404
sos	-11.404
▁Nabila	-11.4041
▁restu	-11.4046
the	-11.4053
tru	-11.4058
jur	-11.4063
instruksikan	-11.4066
▁Ch	-11.4069
▁Fan	-11.407
sil	-11.4077
▁Jane	-11.4079
sun	-11.4083
nyerbu	-11.4088
▁kekasihnya	-11.4097
▁cair	-11.4101
▁Pemenang	-11.4101
ther	-11.4102
▁PMK	-11.4105
▁Suswono	-11.4107
mbak	-11.4108
▁bumbu	-11.4109
▁Coba	-11.411
ggi	-11.411
ula	-11.4113
▁Jum	-11.4117
▁penduduknya	-11.4119
kab	-11.412
-2024	-11.4123
1.000	-11.4125
▁DR	-11.4127
▁Kho	-11.4128
FC	-11.4132
▁optimis	-11.4133
▁(11/11)	-11.4134
▁(4/12)	-11.4134
▁(6/2)	-11.4134
▁Guinea	-11.4134
▁Taipei	-11.4134
▁asesmen	-11.4134
▁beribadah	-11.4134
▁konsesi	-11.4134
▁membubarkan	-11.4134
▁Positif	-11.4134
▁Seminar	-11.4134
▁Sragen	-11.4134
▁mulia	-11.4134
▁Vatikan	-11.4134
▁dilibatkan	-11.4134
▁Ahmed	-11.4134
▁Srikandi	-11.4134
▁Putaran	-11.4134
▁Taylor	-11.4134
▁Freeport	-11.4134
▁kolektif	-11.4134
▁diidentifikasi	-11.4135
▁magnitudo	-11.4135
▁BEKAS	-11.4135
▁Mariska	-11.4135
▁Pemalang	-11.4135
▁Terancam	-11.4135
▁Senada	-11.4135
▁klip	-11.4135
▁Imran	-11.4136
▁Sol	-11.4136
▁Lahir	-11.4136
://	-11.4136
▁Pernah	-11.4136
▁memotong	-11.4136
▁Zero	-11.4137
▁Candy	-11.4137
▁Evaluasi	-11.4137
▁(17)	-11.4137
▁FA	-11.4138
▁lelah	-11.4138
▁Perindo	-11.4139
▁Bersatu	-11.4139
▁Bara	-11.414
52	-11.414
▁beralasan	-11.4142
▁berguna	-11.4143
▁Syam	-11.4145
▁House	-11.4145
▁18:3	-11.4146
▁desainer	-11.4148
▁Operation	-11.4151
▁12:0	-11.4151
▁Trade	-11.4158
▁Teman	-11.4158
▁TPPO	-11.4159
perburuk	-11.4159
▁Ancaman	-11.416
tanya	-11.4165
54	-11.4167
▁asuh	-11.4169
less	-11.417
▁dihimpun	-11.4173
▁port	-11.4174
▁bor	-11.4175
Maka	-11.4178
▁akunnya	-11.4179
.35	-11.4189
ARAT	-11.4191
ree	-11.42
uang	-11.42
▁el	-11.4202
▁Was	-11.4207
▁ditunggu	-11.4209
kit	-11.421
▁Yoga	-11.4211
▁RM	-11.4211
▁mengenalkan	-11.4212
▁Suko	-11.4213
▁2018.	-11.4218
detik	-11.4223
▁Nova	-11.4233
▁3,5	-11.4235
CT	-11.4235
▁mend	-11.4242
tai	-11.4244
▁tangki	-11.4247
▁Azhar	-11.4247
vis	-11.4254
▁Stefan	-11.4255
ustainable	-11.4256
97	-11.4257
▁(13/3)	-11.4259
▁(2/1)	-11.4259
▁(3/2)	-11.4259
▁(4/6)	-11.4259
▁Asnawi	-11.4259
▁Hamzah	-11.4259
▁Investor	-11.4259
▁cokelat	-11.4259
▁diberhentikan	-11.4259
▁kesimpulan	-11.4259
▁kompensasi	-11.4259
▁macet	-11.4259
▁merealisasikan	-11.4259
▁nafkah	-11.4259
▁sponsor	-11.4259
▁Status	-11.4259
▁Street	-11.4259
▁bangku	-11.4259
▁Penduduk	-11.426
▁mogok	-11.426
▁Densus	-11.426
▁Kartika	-11.426
▁Binsar	-11.426
▁Dagang	-11.426
▁Kalbar	-11.426
.40	-11.4261
▁Serdadu	-11.4261
▁Anji	-11.4261
▁Yunus	-11.4261
▁Relations	-11.4262
apolrestabes	-11.4263
▁Bendahara	-11.4263
▁bersembunyi	-11.4264
tanggungjawabkan	-11.4264
▁dianiaya	-11.4264
▁Don	-11.4266
ancing	-11.4266
▁pengujian	-11.4268
▁Sinergi	-11.4269
▁Kategori	-11.427
▁Usia	-11.4271
▁check	-11.4271
▁Tembak	-11.4275
▁Dinkes	-11.4279
▁Sebenarnya	-11.4279
▁cipta	-11.428
wen	-11.4281
▁Tema	-11.4282
jek	-11.4282
▁Titi	-11.4283
▁AN	-11.4286
▁Nurma	-11.4294
BBM	-11.4298
▁kos	-11.4299
▁Dir	-11.43
▁Julian	-11.4301
:56	-11.4301
▁TPA	-11.4304
▁durasi	-11.4304
▁Hendi	-11.4306
jangan	-11.4306
▁du	-11.4309
▁sebabnya	-11.4312
day	-11.4318
▁Amanda	-11.4318
▁berkah	-11.4321
▁raja	-11.4323
▁tabungan	-11.4324
tugas	-11.4325
▁MI	-11.4325
2%	-11.4325
▁Ansar	-11.4326
▁Wu	-11.4328
sosialisasikan	-11.4331
▁HI	-11.4333
ubur	-11.4336
ija	-11.4338
▁PKPU	-11.4339
GM	-11.434
▁sebutnya	-11.4344
gini	-11.4353
▁160	-11.4355
DE	-11.436
▁Jean	-11.4361
Plt	-11.4363
▁Kemang	-11.4364
▁Adik	-11.4366
▁Otorita	-11.4373
▁dibilang	-11.4375
illa	-11.4379
epakati	-11.4381
NA	-11.4382
▁menumbuhk	-11.4385
▁http	-11.4386
atasnamakan	-11.4386
▁(18/10)	-11.4386
▁(21/11)	-11.4386
▁(21/5)	-11.4386
▁(26/3)	-11.4386
▁(31/5)	-11.4386
▁(5/12)	-11.4386
▁Governance	-11.4386
▁Independen	-11.4386
▁Mendukung	-11.4386
▁Pandjaitan	-11.4386
▁Pedagang	-11.4386
▁Pelalawan	-11.4386
▁Properti	-11.4386
▁dipantau	-11.4386
▁interior	-11.4386
▁komisaris	-11.4386
▁letusan	-11.4386
▁travel	-11.4386
▁kelanjutan	-11.4386
▁kurir	-11.4386
▁pisau	-11.4386
▁(1/8)	-11.4386
▁(12/9)	-11.4386
▁Modern	-11.4386
▁Perayaan	-11.4386
▁kosmetik	-11.4386
▁mengusir	-11.4386
▁menoreh	-11.4386
▁Otto	-11.4386
▁Sanusi	-11.4386
▁Singaraja	-11.4386
▁Edukasi	-11.4386
▁keliru	-11.4386
▁Utusan	-11.4386
▁Ledakan	-11.4386
▁Masiku	-11.4386
▁Afriansyah	-11.4386
▁Kasatreskrim	-11.4386
▁Internet	-11.4386
▁Resolusi	-11.4386
▁Pintar	-11.4386
▁Anindya	-11.4386
▁Doktor	-11.4387
▁Belasan	-11.4387
▁memprotes	-11.4387
▁Mesin	-11.4388
▁Asmat	-11.4389
▁Penandatangan	-11.4389
ilang	-11.4391
▁Arhan	-11.4391
▁daur	-11.4392
▁Paulus	-11.4392
▁Natalia	-11.4392
Wa	-11.4393
▁Ipul	-11.4393
ure	-11.4393
▁pendahuluan	-11.4394
▁perampokan	-11.4395
▁takluk	-11.4396
▁dokumenter	-11.4398
▁10:3	-11.4406
▁(24/9)	-11.4406
▁plus	-11.4414
▁12:2	-11.4414
▁Ramdan	-11.4416
▁pendudukan	-11.4422
AFP	-11.4424
iq	-11.4428
▁sekian	-11.4432
mpo	-11.4432
▁125	-11.4439
JP	-11.444
▁Nick	-11.4443
▁Maha	-11.4444
▁22:4	-11.4445
sky	-11.4449
gus	-11.4449
ssa	-11.4451
▁Kebay	-11.4451
operasi	-11.4452
waktu	-11.4452
▁Lok	-11.4455
terangan	-11.4455
▁Cuma	-11.4458
ografi	-11.446
3.000	-11.446
▁Alih	-11.4465
▁Binaan	-11.4466
puing	-11.4476
ciri	-11.4481
▁Lam	-11.4482
reng	-11.4482
▁Artis	-11.4483
▁Bis	-11.4483
▁Penyidikan	-11.4486
▁sekutunya	-11.4488
▁sepertiga	-11.449
▁dikirimkan	-11.4497
GB	-11.4502
▁Tes	-11.451
elebgram	-11.4511
mor	-11.4512
51	-11.4512
▁(17/12)	-11.4514
▁(22/11)	-11.4514
▁(22/7)	-11.4514
▁(26/4)	-11.4514
▁(29/4)	-11.4514
▁(31/1)	-11.4514
▁(31/12)	-11.4514
▁(8/11)	-11.4514
▁Citroen	-11.4514
▁Fashion	-11.4514
▁Legislator	-11.4514
▁Morowali	-11.4514
▁Training	-11.4514
▁kalori	-11.4514
▁membiayai	-11.4514
▁menunaikan	-11.4514
▁meresahkan	-11.4514
▁paripurna	-11.4514
▁practice	-11.4514
▁terpencil	-11.4514
▁vokasi	-11.4514
▁(19/8)	-11.4514
▁Lutfi	-11.4514
▁Mekaar	-11.4514
▁Vokasi	-11.4514
▁bingung	-11.4514
▁kargo	-11.4514
membungkam	-11.4514
▁Nganjuk	-11.4514
▁tembus	-11.4514
▁hadapi	-11.4514
▁ikatan	-11.4514
peruntukkan	-11.4515
▁prospek	-11.4515
▁Rilis	-11.4515
▁disukai	-11.4515
▁diarahkan	-11.4515
▁dibatasi	-11.4515
▁serba	-11.4515
▁2-0	-11.4515
▁Habibie	-11.4515
▁Nathan	-11.4516
87	-11.4516
▁ras	-11.4516
▁rob	-11.4517
▁Nations	-11.4518
▁harmonis	-11.4518
▁kloter	-11.4519
▁terpasang	-11.4519
▁Black	-11.4523
▁Pohon	-11.4523
▁89	-11.4526
▁LHKPN	-11.4526
600	-11.4529
bet	-11.4529
▁year	-11.453
▁tetangganya	-11.4533
▁ABK	-11.4541
atik	-11.4542
putra	-11.4544
▁Dedie	-11.4546
PPP	-11.4546
SMKN	-11.4552
bag	-11.4556
tip	-11.4558
▁Miss	-11.4559
BPS	-11.4559
bekali	-11.4564
▁panda	-11.4568
▁Jeje	-11.457
ihan	-11.4571
laku	-11.4573
kot	-11.4574
▁Lingga	-11.4576
▁sifatnya	-11.4576
dani	-11.4577
▁Fu	-11.4581
janji	-11.4584
▁Apri	-11.4589
▁bawaan	-11.459
esnarkoba	-11.4591
▁abadi	-11.4593
BKPSDM	-11.4597
TJSL	-11.4597
Muhammad	-11.4597
Pemerintah	-11.4597
lansir	-11.4599
rung	-11.4601
HUT	-11.4601
▁Sab	-11.4602
ama	-11.4605
▁pembaca	-11.4611
onic	-11.4612
▁un	-11.4619
aset	-11.4619
▁2,3	-11.4634
guhkan	-11.4634
▁siapkan	-11.4636
▁23:1	-11.4638
engemudi	-11.4642
▁Yuli	-11.4642
▁hilir	-11.4644
▁Product	-11.4644
▁konvensi	-11.4644
▁Travel	-11.4644
▁(11/6)	-11.4644
▁(18/9)	-11.4644
▁(7/3)	-11.4644
▁(7/5)	-11.4644
▁(7/8)	-11.4644
▁Cartenz	-11.4644
▁Kebangsaan	-11.4644
▁Khamenei	-11.4644
▁Pertambangan	-11.4644
▁Struick	-11.4644
▁Turnamen	-11.4644
▁dipersiapkan	-11.4644
▁iPhone	-11.4644
▁keseriusan	-11.4644
▁komite	-11.4644
▁ritual	-11.4644
▁tropis	-11.4644
▁tumpang	-11.4644
▁(6/11)	-11.4644
▁Ballroom	-11.4644
▁Burhanuddin	-11.4644
▁Federasi	-11.4644
▁doktor	-11.4644
RW	-11.4644
▁bepergian	-11.4644
▁mutasi	-11.4644
▁Albert	-11.4644
▁Hassan	-11.4644
▁penerus	-11.4644
▁Bentuk	-11.4644
▁mutu	-11.4644
▁Melinda	-11.4645
▁khasiat	-11.4645
▁Biaya	-11.4645
▁dioperasikan	-11.4645
▁memesan	-11.4645
▁sinar	-11.4645
▁merinci	-11.4645
▁Zainal	-11.4646
▁bekal	-11.4651
Ko	-11.4651
▁penanggulangan	-11.4651
▁susulan	-11.4652
▁Jauh	-11.4654
▁Sultra	-11.4655
▁Semangat	-11.4657
oro	-11.4658
▁MATA	-11.4662
▁tabrakan	-11.4663
rama	-11.4663
▁FBI	-11.4664
▁Jiwa	-11.4665
▁serah	-11.4666
▁berkarya	-11.4667
▁taksi	-11.4674
▁1,2	-11.4674
▁ba	-11.4683
▁Ferdinan	-11.4686
▁mendasar	-11.469
▁x	-11.469
▁TJSL	-11.4691
▁Pena	-11.4693
▁heboh	-11.4694
tanggung	-11.4701
▁Arel	-11.4703
▁so	-11.4703
27/	-11.4704
▁Dante	-11.4705
EL	-11.4706
▁MG	-11.4706
wara	-11.4717
▁Hadiri	-11.4727
3/	-11.4728
elola	-11.4728
Jakarta	-11.4729
Salah	-11.4729
tana	-11.4731
roh	-11.4734
abad	-11.4734
wakil	-11.4735
pai	-11.4736
▁20.00	-11.4736
▁dicampur	-11.4738
nte	-11.4738
▁ekstra	-11.4741
▁pabrikan	-11.4741
TU	-11.4747
▁Ed	-11.4748
DPR	-11.4748
▁dicabut	-11.4749
▁proyeksi	-11.4751
▁Wawan	-11.4757
▁Poin	-11.4768
▁Aprilia	-11.477
▁(16/1)	-11.4776
▁(18/11)	-11.4776
▁(19/1)	-11.4776
▁(27/5)	-11.4776
▁(31/7)	-11.4776
▁Borobudur	-11.4776
▁Kodim	-11.4776
▁Komarudin	-11.4776
▁Microsoft	-11.4776
▁Peringkat	-11.4776
▁Rekomendasi	-11.4776
▁Tyasmara	-11.4776
▁distributor	-11.4776
▁jilbab	-11.4776
▁kongres	-11.4776
▁liputan	-11.4776
▁lowongan	-11.4776
▁melontarkan	-11.4776
▁menaklukkan	-11.4776
▁payudara	-11.4776
▁pengarahan	-11.4776
▁smelter	-11.4776
▁yayasan	-11.4776
▁(19/9)	-11.4776
▁diringkus	-11.4776
▁royong	-11.4776
▁kepulauan	-11.4776
▁kepergian	-11.4776
▁LAMP	-11.4776
▁dicatat	-11.4776
▁pengerahan	-11.4776
▁Hindia	-11.4776
▁Asmawa	-11.4776
▁leher	-11.4776
▁sistematis	-11.4776
▁Hasina	-11.4776
▁patung	-11.4776
▁Trisakti	-11.4776
▁Untung	-11.4776
▁informal	-11.4777
▁Priok	-11.4777
▁Ujung	-11.4778
▁Kemen	-11.4778
▁pengalih	-11.4778
▁Analisis	-11.4778
▁(23)	-11.4779
▁Vance	-11.4779
▁Penindakan	-11.478
ahwa	-11.478
▁Mahmud	-11.478
▁propaganda	-11.478
▁Permintaan	-11.4781
▁Kejahatan	-11.4782
▁Berbagi	-11.4782
▁Rejang	-11.4783
▁dendam	-11.4784
▁Kominfo	-11.4785
▁mengikat	-11.4786
▁RE	-11.4788
▁18:0	-11.4788
▁OKU	-11.4789
▁Fun	-11.479
hor	-11.4791
▁Peter	-11.4793
HAM	-11.4794
▁1,3	-11.4796
▁merekam	-11.4797
▁tandasnya	-11.4798
LN	-11.4801
usa	-11.4802
▁kampanyenya	-11.4803
▁OPM	-11.4804
▁Masing	-11.4812
atu	-11.4812
▁Nina	-11.4816
▁170	-11.4817
▁Feri	-11.482
pek	-11.4823
▁paru	-11.4824
▁kombinasi	-11.4825
▁Oh	-11.4827
LM	-11.4834
▁mengajarkan	-11.4842
rom	-11.485
▁110	-11.4851
▁Sad	-11.4859
target	-11.4862
Tersangka	-11.4862
durasi	-11.4863
Anak	-11.4863
film	-11.4864
Malam	-11.4864
Bagi	-11.4865
▁Ky	-11.4866
▁Lab	-11.4873
▁pembunuh	-11.4875
▁segalanya	-11.4879
4.000	-11.4883
▁SEA	-11.4892
ME	-11.4893
fu	-11.4896
▁pema	-11.4897
▁Sentral	-11.49
▁hektar	-11.4903
OC	-11.4907
bobol	-11.4909
▁(1/2)	-11.4909
▁(10/2)	-11.4909
▁(17/10)	-11.4909
▁(20/11)	-11.4909
▁(21/3)	-11.4909
▁(29/5)	-11.4909
▁AEON	-11.4909
▁Delegasi	-11.4909
▁Rupiah	-11.4909
▁Samudra	-11.4909
▁TASPEN	-11.4909
▁besutan	-11.4909
▁elpiji	-11.4909
▁konsentrasi	-11.4909
▁penelusuran	-11.4909
▁Mahardhika	-11.4909
▁NKRI	-11.4909
▁mengisyaratkan	-11.4909
▁persenjataan	-11.4909
▁PGRI	-11.4909
▁memadukan	-11.4909
▁berduka	-11.4909
▁umpan	-11.4909
▁trofi	-11.4909
▁Edaran	-11.4909
▁Gudang	-11.4909
▁bahu	-11.491
▁kokoh	-11.491
▁Yusril	-11.491
▁Bersenjata	-11.491
▁Nengah	-11.4911
▁surut	-11.4911
▁Drone	-11.4911
erbasis	-11.4912
▁Nicke	-11.4912
▁Ramli	-11.4912
▁Studies	-11.4912
▁Pengakuan	-11.4913
▁Farid	-11.4913
▁menyangkal	-11.4913
▁Keberadaan	-11.4914
▁mewarnai	-11.4914
▁Aviv	-11.4915
mbangkan	-11.4915
▁pemanasan	-11.4916
▁Elly	-11.4916
lap	-11.4917
▁Penyelidikan	-11.4917
▁Rohil	-11.4917
triker	-11.4918
▁Luis	-11.4918
DPP	-11.4918
iga	-11.4918
▁LPSK	-11.492
oka	-11.4921
▁pungli	-11.4921
▁antrean	-11.4922
▁sesaat	-11.4923
▁Tangga	-11.4924
▁Datang	-11.4925
▁MAN	-11.4926
▁pesanan	-11.4926
▁Elon	-11.4927
▁sajikan	-11.4929
▁Sul	-11.493
▁(2/7)	-11.4931
▁Visa	-11.4934
lok	-11.4935
pra	-11.4935
tsu	-11.4938
▁statusnya	-11.4939
▁Bay	-11.4939
▁Fre	-11.494
▁nge	-11.4943
▁Val	-11.4944
▁Perum	-11.4946
▁21.00	-11.4946
jati	-11.4949
▁Om	-11.4953
side	-11.4955
▁BKPSDM	-11.4957
tos	-11.4959
▁Dja	-11.4961
iat	-11.4962
▁Bob	-11.4965
uch	-11.497
▁TA	-11.4974
▁Bah	-11.4977
▁mengemban	-11.4977
▁DP	-11.4979
▁Shah	-11.498
▁Us	-11.4982
wangi	-11.4983
PUU	-11.4984
▁del	-11.4984
sco	-11.4985
/2023)	-11.4987
pot	-11.4997
BUMN	-11.4998
▁RB	-11.4999
non	-11.5001
HT	-11.5011
▁Peringat	-11.5011
▁waris	-11.5013
▁balas	-11.5014
ubah	-11.5018
▁TC	-11.5019
nopol	-11.5023
tya	-11.5025
▁Gani	-11.5027
▁pemberi	-11.5028
▁Desain	-11.5028
▁tip	-11.5032
▁wi	-11.5033
▁turunan	-11.5034
▁LA	-11.5038
TKN	-11.5039
▁Ikan	-11.504
▁kafe	-11.5044
▁(13/6)	-11.5044
▁(17/7)	-11.5044
▁(19/6)	-11.5044
▁(2/5)	-11.5044
▁(25/11)	-11.5044
▁(8/5)	-11.5044
▁Lebong	-11.5044
▁Penerapan	-11.5044
▁Poltracking	-11.5044
▁Siloam	-11.5044
▁berdialog	-11.5044
▁kebugaran	-11.5044
▁kesebelasan	-11.5044
▁kontingen	-11.5044
▁penyitaan	-11.5044
▁(12/8)	-11.5044
▁(19/3)	-11.5044
▁Intelligence	-11.5044
▁pemetaan	-11.5044
▁(23/8)	-11.5044
▁Pedro	-11.5044
▁pembaruan	-11.5044
▁Starlink	-11.5044
▁booth	-11.5044
▁fitnah	-11.5044
▁KARAWA	-11.5044
▁dipulangkan	-11.5044
▁Wujud	-11.5044
▁basah	-11.5044
▁Bongkar	-11.5044
▁Faizal	-11.5045
▁pendistribusian	-11.5045
▁Logam	-11.5045
▁Sumargo	-11.5045
▁merancang	-11.5045
▁dialihkan	-11.5046
▁bersemangat	-11.5046
nar	-11.5046
obat	-11.5046
▁Kartini	-11.5046
desak	-11.5047
▁kenegaraan	-11.5047
▁arena	-11.5047
▁Gencata	-11.5047
▁menepis	-11.5048
▁Suhu	-11.5049
▁Antonio	-11.505
▁Penguat	-11.505
▁Insan	-11.505
ette	-11.5051
▁Kala	-11.5052
janto	-11.5054
▁pakan	-11.5055
▁Tarif	-11.5055
▁berjaga	-11.5056
▁Ronaldo	-11.5057
rok	-11.5057
▁muatan	-11.5058
▁Dewata	-11.506
ney	-11.506
▁Kemenkominfo	-11.506
▁mencurigakan	-11.5065
▁(6/8)	-11.5067
▁Sandy	-11.507
una	-11.5071
▁sedia	-11.5075
▁adiknya	-11.5075
▁Setiba	-11.5076
▁Kirim	-11.5077
▁Des	-11.5077
hitung	-11.5084
▁perak	-11.5091
IKA	-11.5092
old	-11.5104
emas	-11.5107
▁MT	-11.5112
ajar	-11.5114
mus	-11.5117
▁Tek	-11.5125
oe	-11.5127
▁Kronologi	-11.5132
▁Adil	-11.5135
▁Cari	-11.5141
BL	-11.5141
hab	-11.5142
langsungkan	-11.5143
▁pelanggar	-11.5147
▁FI	-11.5147
▁Sita	-11.5155
▁FP	-11.5158
▁Fin	-11.5165
▁mus	-11.5169
800	-11.5171
▁Mulya	-11.5174
▁rub	-11.5178
▁assist	-11.5181
▁(10/5)	-11.5181
▁(14/3)	-11.5181
▁(21/10)	-11.5181
▁(8/10)	-11.5181
▁Hungaria	-11.5181
▁Jonathan	-11.5181
▁Kebutuhan	-11.5181
▁Kenjeran	-11.5181
▁Komentar	-11.5181
▁Nasrallah	-11.5181
▁Yakni	-11.5181
▁berpidato	-11.5181
▁bullying	-11.5181
▁dipublikasikan	-11.5181
▁fesyen	-11.5181
▁mencuat	-11.5181
▁pornografi	-11.5181
▁(6/12)	-11.5181
▁jeruk	-11.5181
▁direksi	-11.5181
▁garda	-11.5181
▁Innovation	-11.5181
▁lumbung	-11.5181
▁kedutaan	-11.5181
▁penugasan	-11.5181
Sheikh	-11.5181
▁Lauren	-11.5181
▁tebing	-11.5182
▁Rudal	-11.5182
▁High	-11.5182
▁Wardana	-11.5182
▁diuji	-11.5182
▁Maruli	-11.5182
▁didalami	-11.5182
▁Keluar	-11.5182
▁terpengaruh	-11.5182
▁terpercaya	-11.5183
▁Danone	-11.5183
▁lapas	-11.5184
▁Rossa	-11.5184
▁Diminta	-11.5184
▁berbahasa	-11.5185
▁menginjak	-11.5185
eraih	-11.5185
▁Golf	-11.5185
▁Kiper	-11.5185
▁Penurunan	-11.5185
▁Puasa	-11.5186
▁flu	-11.5186
▁Tulang	-11.5189
▁tumpukan	-11.5189
▁Love	-11.5189
yl	-11.5189
▁market	-11.519
▁Sentra	-11.5191
▁format	-11.5193
▁Rahmad	-11.5193
Jawa	-11.5194
▁menaiki	-11.5197
▁Bak	-11.5198
▁dikendalikan	-11.5198
blok	-11.52
▁Citi	-11.52
▁head	-11.5201
▁KDRT	-11.5204
▁Sehari	-11.5204
geng	-11.5206
▁ambisi	-11.5208
▁WBP	-11.5211
▁ditinggal	-11.5214
▁Sek	-11.5224
BT	-11.5227
▁dihadap	-11.5231
row	-11.5231
tz	-11.5234
▁perjalanannya	-11.524
bangkitan	-11.5241
▁Wid	-11.5246
pose	-11.5252
▁Cat	-11.5257
ica	-11.5258
ound	-11.5259
suara	-11.5261
▁Tip	-11.5262
▁130	-11.5263
▁Fath	-11.5264
▁Kadis	-11.5267
▁84	-11.5272
khusus	-11.5273
Kecamatan	-11.5273
▁Um	-11.5279
bawa	-11.5286
jer	-11.5287
▁wakilnya	-11.5291
▁JI	-11.5295
IF	-11.5296
▁(13/11).	-11.5298
omo	-11.5298
ode	-11.5302
8.000	-11.5307
▁tayangan	-11.5308
lau	-11.5308
▁(10/7)	-11.532
▁(12/11)	-11.532
▁(19/11)	-11.532
▁(22/5)	-11.532
▁(4/2)	-11.532
▁Arsenal	-11.532
▁Ginanjar	-11.532
▁Kemanusiaan	-11.532
▁Terlibat	-11.532
▁Tubuh	-11.532
▁akuntabel	-11.532
▁anonim	-11.532
▁manual	-11.532
▁mengerjakan	-11.532
▁menyingkirkan	-11.532
▁nusantara	-11.532
▁pengembalian	-11.532
▁perekrutan	-11.532
▁wahana	-11.532
▁dihindari	-11.532
▁keberagaman	-11.532
▁takjil	-11.532
▁terukur	-11.532
▁Klaten	-11.532
▁interaktif	-11.532
▁nyamuk	-11.532
▁eksplorasi	-11.532
▁bengkel	-11.532
▁Salurkan	-11.532
▁Slank	-11.532
▁menelusuri	-11.532
▁Hendro	-11.532
▁proaktif	-11.532
▁tempo	-11.532
▁Paralimpiade	-11.5321
▁Women	-11.5321
▁Fadli	-11.5321
▁ritel	-11.5321
▁ikon	-11.5321
▁Sopir	-11.5321
▁Utomo	-11.5322
▁(29/8).	-11.5322
▁polio	-11.5322
▁big	-11.5323
▁berumur	-11.5324
▁Pantura	-11.5324
perbarui	-11.5324
▁Endang	-11.5325
▁KRL	-11.5325
▁Dandan	-11.5326
▁mendan	-11.5327
barkan	-11.5327
▁Bangga	-11.533
▁tendik	-11.533
Le	-11.5331
▁KBRI	-11.5331
▁Purwanto	-11.5331
erdapat	-11.5333
▁Belakangan	-11.5333
▁kaus	-11.5333
▁peti	-11.5335
▁06:4	-11.5336
▁temukan	-11.5337
▁op	-11.5337
▁(6/3)	-11.5337
▁merau	-11.5338
fra	-11.534
▁Diddy	-11.5341
▁prosesi	-11.5341
▁pukulan	-11.5342
hemat	-11.5342
GN	-11.5343
pah	-11.5343
▁Tiko	-11.5354
hkan	-11.5354
▁parpolnya	-11.536
▁Pun	-11.536
▁Semuanya	-11.5363
▁PIS	-11.5365
Tentu	-11.5365
▁Aqua	-11.5369
hasil	-11.5373
▁bayaran	-11.5376
SL	-11.5378
▁dibuang	-11.5379
▁kotanya	-11.5386
▁jatuhnya	-11.539
▁Kalla	-11.5391
▁Mac	-11.5391
▁Tar	-11.5393
▁kans	-11.5394
ova	-11.5395
gub	-11.54
rie	-11.5402
of	-11.5404
aa	-11.5404
trik	-11.5406
▁...	-11.5409
▁cucu	-11.5412
Banyak	-11.5414
asih	-11.5417
bing	-11.5419
▁motornya	-11.5419
tegas	-11.542
atkan	-11.5421
tindakan	-11.5421
▁Ul	-11.5423
titik	-11.5424
▁pendaki	-11.5425
awang	-11.5427
ceng	-11.5431
▁melempar	-11.5432
▁2.0	-11.5434
▁pacar	-11.5436
▁2026.	-11.5436
leg	-11.5436
▁PS	-11.5438
luar	-11.5439
▁Pang	-11.5439
▁rinci	-11.5441
kedar	-11.5443
tem	-11.5445
▁TPN	-11.5447
▁ad	-11.545
▁Beragam	-11.5452
▁tr	-11.5455
▁pengamatan	-11.5456
helat	-11.5458
Pilwakot	-11.5461
▁(1/7)	-11.5461
▁(11/9)	-11.5461
▁(6/5)	-11.5461
▁(6/6)	-11.5461
▁(7/11)	-11.5461
▁Cloud	-11.5461
▁Ghufron	-11.5461
▁Lubis	-11.5461
▁Mampang	-11.5461
▁Sirait	-11.5461
▁Tridatu	-11.5461
▁advokasi	-11.5461
▁keberanian	-11.5461
▁kudeta	-11.5461
▁memuaskan	-11.5461
▁mendiskusikan	-11.5461
▁menerjunka	-11.5461
▁parfum	-11.5461
▁siklus	-11.5461
▁terealisasi	-11.5461
▁terkecuali	-11.5461
▁tersenyum	-11.5461
▁tertunda	-11.5461
▁vulkanik	-11.5461
▁(30/8)	-11.5461
▁berbakat	-11.5461
▁adopsi	-11.5461
▁kehancuran	-11.5461
▁ketergantungan	-11.5461
▁Hub	-11.5461
▁mode	-11.5461
▁Somalia	-11.5461
▁wafat	-11.5461
▁England	-11.5461
▁Younis	-11.5461
▁NASA	-11.5461
▁kecaman	-11.5461
▁partner	-11.5461
▁panik	-11.5461
▁napas	-11.5461
▁dihuni	-11.5461
▁memberatkan	-11.5462
benahi	-11.5462
▁Atau	-11.5462
▁Syarat	-11.5462
▁Sumadi	-11.5463
▁Tahu	-11.5463
▁Billy	-11.5465
▁draf	-11.5465
▁PPA	-11.5466
▁Sprint	-11.5466
▁Young	-11.5467
ondo	-11.5468
▁2029	-11.5469
▁Keras	-11.547
rim	-11.547
▁Boy	-11.5472
▁Hadiah	-11.5474
▁TB	-11.5475
▁Ny	-11.5476
▁vokal	-11.5478
cepat	-11.5481
ganggu	-11.5482
▁Resort	-11.5485
▁Ode	-11.5491
▁Simp	-11.5495
ebut	-11.5497
antap	-11.5498
odo	-11.5499
▁membawakan	-11.5501
▁ular	-11.5503
mark	-11.5506
▁Munas	-11.5507
▁im	-11.5515
▁Industrial	-11.5515
qui	-11.5516
▁Solok	-11.5518
HK	-11.5525
▁Ze	-11.5529
tangan	-11.5535
▁Abd	-11.5537
gah	-11.5542
▁Amar	-11.5545
TT	-11.5549
ilik	-11.5553
aba	-11.5556
SUGBK	-11.5557
indikasi	-11.5557
aktif	-11.5559
▁Lor	-11.5562
▁TI	-11.5566
lama	-11.5566
▁Jet	-11.5566
▁pemantau	-11.5569
ojo	-11.5569
puk	-11.5574
▁Jr	-11.5577
dji	-11.5588
▁Mai	-11.5593
ncang	-11.5594
DO	-11.5599
▁Mendes	-11.5599
▁masakan	-11.5601
▁punah	-11.5601
▁(15/11)	-11.5604
▁(15/8)	-11.5604
▁(18/4)	-11.5604
▁(2/2)	-11.5604
▁(21/6)	-11.5604
▁(31/10)	-11.5604
▁(9/12)	-11.5604
▁ASABRI	-11.5604
▁Gelombang	-11.5604
▁Ibadah	-11.5604
▁Kelautan	-11.5604
▁Kishida	-11.5604
▁Lanjut	-11.5604
▁Muktamar	-11.5604
▁Musyawarah	-11.5604
▁Penampilan	-11.5604
▁Petrokimia	-11.5604
▁Security	-11.5604
▁Wacana	-11.5604
▁ambruk	-11.5604
▁cakupan	-11.5604
▁ekspedisi	-11.5604
▁fondasi	-11.5604
▁mempekerjakan	-11.5604
▁ojol	-11.5604
▁realistis	-11.5604
▁(4/9)	-11.5604
▁Butuh	-11.5604
▁audio	-11.5604
▁memihak	-11.5604
▁lutut	-11.5604
▁menunjang	-11.5604
▁Kirby	-11.5604
▁Salsha	-11.5604
▁Idham	-11.5604
▁Inspektur	-11.5604
▁karakteristik	-11.5604
▁genangan	-11.5604
▁Umrah	-11.5604
▁pembatalan	-11.5604
▁Cerai	-11.5604
▁Bendera	-11.5604
▁gotong	-11.5604
▁Hitam	-11.5604
▁Ciputra	-11.5604
▁startup	-11.5604
▁teks	-11.5605
▁memperkaya	-11.5605
▁bersilaturahmi	-11.5605
▁Bayam	-11.5605
▁meredam	-11.5605
▁smart	-11.5605
▁menyewa	-11.5605
▁mengharuskan	-11.5606
▁spesifikasi	-11.5606
▁silat	-11.5606
▁terpecah	-11.5606
▁Berencana	-11.5607
▁Willy	-11.5607
▁Strategic	-11.5607
band	-11.5607
▁Pembukaan	-11.5609
▁Taufiq	-11.5609
▁Tony	-11.561
▁Serta	-11.561
▁Karyawan	-11.561
▁Dedy	-11.5611
▁Tapera	-11.5612
▁slogan	-11.5612
▁support	-11.5614
ice	-11.5615
▁tour	-11.5615
▁Bre	-11.5615
▁Rekaman	-11.5618
salah	-11.562
▁cuci	-11.562
▁2016.	-11.5621
port	-11.5621
▁mengemukakan	-11.5622
▁pekerjaannya	-11.5622
▁Pantauan	-11.5623
▁DA	-11.5626
▁(3/12)	-11.5626
▁Sky	-11.5626
▁RSUP	-11.5628
sit	-11.563
▁nuansa	-11.5634
▁play	-11.5637
▁2005	-11.5642
ming	-11.5646
beli	-11.5646
▁23:0	-11.5648
▁anggapan	-11.5651
hel	-11.5659
▁Jack	-11.5661
hil	-11.5663
DN	-11.5671
kang	-11.5673
▁Col	-11.5676
▁Nad	-11.5676
▁PD	-11.5686
▁1.7	-11.5691
Apa	-11.5693
▁korbannya	-11.5697
Kabupaten	-11.5702
AC	-11.5708
▁KL	-11.5709
▁Qi	-11.571
LT	-11.571
▁IIB	-11.5715
▁Mama	-11.5716
▁mengadu	-11.5718
road	-11.5724
life	-11.5726
▁Son	-11.573
▁menyi	-11.573
▁(30/10).	-11.5731
Mar	-11.5734
kita	-11.5744
ohon	-11.5746
▁14.00	-11.5746
▁Ditambah	-11.5748
erujuk	-11.5749
▁(16/10)	-11.5749
▁(16/7)	-11.5749
▁(17/9)	-11.5749
▁(18/12)	-11.5749
▁(26/8)	-11.5749
▁Advokat	-11.5749
▁Galaxy	-11.5749
▁Suporter	-11.5749
▁berjualan	-11.5749
▁deportasi	-11.5749
▁diterjunkan	-11.5749
▁membanggakan	-11.5749
▁mengakomodasi	-11.5749
▁tembok	-11.5749
▁tercantum	-11.5749
▁Samapta	-11.5749
▁naskah	-11.5749
▁Jatuh	-11.5749
▁jamaah	-11.5749
▁keraguan	-11.5749
▁tertimpa	-11.5749
▁bambu	-11.5749
▁merumuskan	-11.5749
▁Betawi	-11.5749
▁dikemas	-11.5749
▁diragukan	-11.5749
▁Pangdam	-11.5749
▁payung	-11.5749
▁Delhi	-11.5749
▁mengunggul	-11.5749
▁Menghadap	-11.5749
▁gadis	-11.5749
▁Sinwar	-11.5749
▁bodong	-11.5749
▁Ambil	-11.5749
▁Tertinggal	-11.5749
▁Store	-11.5749
▁melekat	-11.575
▁teritorial	-11.575
▁Korut	-11.575
▁Mukti	-11.5752
▁Gresini	-11.5753
Ta	-11.5753
boyong	-11.5754
▁kemeja	-11.5754
▁Warung	-11.5754
▁diantaranya	-11.5755
mir	-11.5755
▁Ste	-11.5758
▁Saudara	-11.5759
▁pelopor	-11.5762
▁Kompolnas	-11.5762
▁Game	-11.5763
▁Udinus	-11.5763
▁Darah	-11.5763
▁rempah	-11.5764
▁Bawah	-11.5764
▁senam	-11.5766
21/	-11.5767
▁Ac	-11.5771
▁renovasi	-11.5772
▁BPIP	-11.5773
▁Kawal	-11.5774
HP	-11.5775
▁tani	-11.5775
TH	-11.5776
▁ram	-11.5776
▁tari	-11.5779
SM	-11.5783
eriksa	-11.5786
TO	-11.5802
▁Spa	-11.5803
alis	-11.5806
▁Ap	-11.581
▁App	-11.5816
▁06:3	-11.5817
cermin	-11.5819
pindahan	-11.5823
▁intinya	-11.5827
mber	-11.583
▁dong	-11.5832
oma	-11.5832
lihat	-11.5833
▁Mako	-11.5833
▁Manda	-11.5834
FK	-11.5834
und	-11.5835
gambar	-11.5836
▁pemberontakan	-11.5837
Meng	-11.5838
▁Corp	-11.5838
▁Ras	-11.5839
▁92	-11.5839
ace	-11.5843
stra	-11.5845
▁Aldi	-11.5845
beng	-11.5849
▁end	-11.585
cawe	-11.5851
ddy	-11.5853
▁11:5	-11.5854
rup	-11.5857
▁peternak	-11.5861
▁pengangkut	-11.5864
ontak	-11.5865
▁Marco	-11.5867
-27	-11.5868
▁mere	-11.5869
▁Supri	-11.5882
▁elit	-11.5886
▁Pentingnya	-11.5888
buahan	-11.5894
enny	-11.5894
▁Kurdi	-11.5896
▁kelulusan	-11.5896
▁orientasi	-11.5896
genjot	-11.5896
▁(15/5)	-11.5896
▁(15/7)	-11.5896
▁(16/12)	-11.5896
▁(18/6)	-11.5896
▁(20/12)	-11.5896
▁(20/6)	-11.5896
▁(4/10)	-11.5896
▁(7/6)	-11.5896
▁(8/7)	-11.5896
▁(9/9)	-11.5896
▁Dubai	-11.5896
▁Emmanuel	-11.5896
▁Fabio	-11.5896
▁Fardhana	-11.5896
▁Hybrid	-11.5896
▁Kerajaan	-11.5896
▁Konawe	-11.5896
▁Mohamed	-11.5896
▁Morning	-11.5896
▁Semifinal	-11.5896
▁Soviet	-11.5896
▁Tanjungpinang	-11.5896
▁Terbakar	-11.5896
▁Yasonna	-11.5896
▁Zhejiang	-11.5896
▁brutal	-11.5896
▁dipertimbangkan	-11.5896
▁junta	-11.5896
▁pemesanan	-11.5896
▁pencabutan	-11.5896
▁pesepak	-11.5896
▁Kesatuan	-11.5896
▁dipegang	-11.5896
▁kerumunan	-11.5896
▁meletus	-11.5896
▁Konsep	-11.5896
▁penyampaian	-11.5896
▁Notaris	-11.5896
▁roboh	-11.5896
▁Sadikin	-11.5896
▁Barisan	-11.5896
▁Sembilan	-11.5896
▁estetika	-11.5896
▁sembarangan	-11.5896
▁Gerbang	-11.5896
▁Pilot	-11.5896
▁Lomba	-11.5896
▁Bruno	-11.5896
▁Hutama	-11.5897
▁Pansus	-11.5897
▁dicuri	-11.5897
▁duet	-11.5897
▁Agency	-11.5897
▁ramadan	-11.5898
ombongan	-11.5898
▁mengontrol	-11.5899
▁Silaturahmi	-11.5899
▁Kerugian	-11.59
▁Perkembangan	-11.59
▁stigma	-11.59
▁Angkasa	-11.59
▁Camat	-11.59
▁Komedian	-11.5901
▁Pertamax	-11.5901
▁Boleh	-11.5902
▁Warna	-11.5902
▁struktural	-11.5903
▁Pendiri	-11.5903
▁Pencapaian	-11.5904
▁Pengalaman	-11.5904
▁00:1	-11.5905
▁berpindah	-11.5907
▁warganya	-11.5908
▁Seng	-11.591
▁Saint	-11.591
CSR	-11.5911
indikat	-11.5911
▁Ibnu	-11.5913
empat	-11.5914
mpung	-11.5915
▁06:1	-11.5916
▁SBY	-11.5916
Ja	-11.5918
▁Studio	-11.5919
▁(19	-11.5921
▁sesak	-11.5921
▁Fadil	-11.5923
▁FGD	-11.5929
rekannya	-11.593
puji	-11.5931
park	-11.5938
landa	-11.5939
▁Raisi	-11.5941
hadi	-11.5943
KB	-11.5946
llo	-11.5946
lib	-11.5946
meriah	-11.5947
▁Damar	-11.5951
deni	-11.5955
isan	-11.5955
▁amat	-11.5959
▁PDB	-11.5959
DPT	-11.596
▁pastinya	-11.5961
▁BK	-11.5962
rungi	-11.5964
emikian	-11.5969
81	-11.5977
yon	-11.5983
▁11.00	-11.5983
macam	-11.5984
PPI	-11.5993
sarat	-11.5993
profesi	-11.5998
Presiden	-11.5998
AHY	-11.6
CPNS	-11.6
▁GM	-11.6
▁(17/1).	-11.6001
ulasi	-11.6004
▁Sumar	-11.6008
▁gara	-11.6009
▁Sup	-11.6009
▁perawat	-11.6011
OJK	-11.6014
idik	-11.6016
mm	-11.6021
▁Bor	-11.6032
▁HR	-11.604
▁Way	-11.6041
▁15.00	-11.6042
▁12.00	-11.6042
LK	-11.6044
▁France	-11.6045
nyosialisasikan	-11.6045
▁(1/4)	-11.6045
▁(14/11)	-11.6045
▁(19/12)	-11.6045
▁(19/7)	-11.6045
▁(20/1)	-11.6045
▁(23/7)	-11.6045
▁(24/4)	-11.6045
▁(26/7)	-11.6045
▁(8/4)	-11.6045
▁(9/7)	-11.6045
▁Ambyar	-11.6045
▁Amnesty	-11.6045
▁Intelektual	-11.6045
▁Komunis	-11.6045
▁akuntabilitas	-11.6045
▁bensin	-11.6045
▁berintegritas	-11.6045
▁cahaya	-11.6045
▁crypto	-11.6045
▁dibicarakan	-11.6045
▁dihormati	-11.6045
▁dilayangkan	-11.6045
▁dipertahankan	-11.6045
▁giliran	-11.6045
▁meloloskan	-11.6045
▁mencukupi	-11.6045
▁pendengar	-11.6045
▁penyisiran	-11.6045
▁(12/3)	-11.6045
▁Jordi	-11.6045
▁dibantah	-11.6045
▁pelepasan	-11.6045
▁berbatasan	-11.6045
▁keberpihakan	-11.6045
▁09.00	-11.6045
▁Aboe	-11.6045
▁Irlandia	-11.6045
▁memberangkat	-11.6046
▁menjemput	-11.6046
▁magang	-11.6046
▁memusnahkan	-11.6046
▁Patria	-11.6046
▁Flores	-11.6046
▁Market	-11.6046
▁terkendala	-11.6046
▁Faktor	-11.6046
▁Frans	-11.6047
▁Mandarin	-11.6047
94	-11.6047
▁Chico	-11.6047
▁State	-11.6048
▁Tanggal	-11.6048
▁Memasuk	-11.6048
▁Lanka	-11.6049
khi	-11.6049
▁Copa	-11.605
▁Purwokerto	-11.605
▁Bermain	-11.6051
▁Peruri	-11.6052
▁merdeka	-11.6052
▁nonton	-11.6052
▁Mayoritas	-11.6054
▁PSU	-11.6055
▁sahur	-11.6055
▁power	-11.6055
▁06:2	-11.6055
mbal	-11.6056
▁dinasti	-11.6058
▁Golan	-11.6059
▁mengolah	-11.6059
▁Ganti	-11.6059
nyandera	-11.6061
▁Skor	-11.6061
yati	-11.6062
▁Aep	-11.6062
had	-11.6062
▁Salat	-11.6063
▁1,4	-11.6064
▁OTT	-11.607
7/	-11.6071
▁Cik	-11.6072
aturan	-11.6075
▁Medi	-11.6076
coba	-11.6078
aro	-11.6079
star	-11.6079
UT	-11.6079
▁ditindak	-11.6083
▁malu	-11.6086
▁buronan	-11.6092
▁gantung	-11.6092
▁Wan	-11.6097
▁Sekar	-11.611
▁Tari	-11.6111
TAR	-11.6111
elo	-11.6113
▁julukan	-11.6115
▁Kecam	-11.6119
▁ajakan	-11.612
▁Jaro	-11.6121
cinta	-11.6122
▁Mia	-11.6125
angga	-11.6126
▁Mela	-11.6127
entah	-11.6127
▁83	-11.6129
▁Hukuman	-11.6135
▁Kia	-11.6136
ONG	-11.6136
DK	-11.614
wujud	-11.6141
bungkus	-11.615
UGM	-11.6151
tambahan	-11.6151
nie	-11.6153
▁dikasih	-11.6156
Solo	-11.6156
▁End	-11.6157
▁kotor	-11.616
aneka	-11.616
▁penentu	-11.6162
etty	-11.6163
WNI	-11.6166
korban	-11.6166
▁93	-11.6169
dap	-11.6175
▁Kuba	-11.6176
▁persis	-11.6177
▁(20)	-11.6179
eli	-11.618
GA	-11.6181
▁Yuk	-11.6185
▁Panda	-11.6187
▁ne	-11.6188
▁man	-11.6191
amping	-11.6192
erselisihan	-11.6194
rel	-11.6195
▁Thom	-11.6196
Ditresnarkoba	-11.6196
▁(20/10)	-11.6196
▁(26/11)	-11.6196
▁(3/5)	-11.6196
▁(9/8)	-11.6196
▁Albanese	-11.6196
▁Arsjad	-11.6196
▁Daihatsu	-11.6196
▁Peresmian	-11.6196
▁Summarecon	-11.6196
▁Sydney	-11.6196
▁Ustaz	-11.6196
▁ajudan	-11.6196
▁berkarier	-11.6196
▁dikendarai	-11.6196
▁kejuaraan	-11.6196
▁kelembapan	-11.6196
▁melupakan	-11.6196
▁mengoleksi	-11.6196
▁preventif	-11.6196
▁Pieter	-11.6196
▁musibah	-11.6196
▁pembuktian	-11.6196
▁Hanoi	-11.6196
▁membebani	-11.6196
▁berkabut	-11.6196
▁mengeksplorasi	-11.6196
▁saraf	-11.6197
▁penyerapan	-11.6197
▁UEFA	-11.6197
▁pemaparan	-11.6197
▁laptop	-11.6197
▁Wahono	-11.6197
▁Nugini	-11.6197
▁antikorupsi	-11.6197
▁Jeffry	-11.6197
▁fatal	-11.6197
▁Bantah	-11.6197
▁digambarkan	-11.6197
▁pengalamannya	-11.6197
▁Bromo	-11.6197
▁melimpah	-11.6197
▁1-2	-11.6197
▁Fadel	-11.6198
▁Venna	-11.6198
▁terbiasa	-11.6199
▁Elite	-11.6199
▁Night	-11.62
▁terputus	-11.62
▁kasar	-11.6201
Bali	-11.6203
▁East	-11.6205
▁Disdik	-11.6207
▁Farida	-11.6207
▁curanmor	-11.6208
▁rekonstruksi	-11.6209
▁eksploitasi	-11.6209
▁otonomi	-11.6212
▁Berkah	-11.6212
▁semi	-11.6213
endra	-11.6215
▁Hand	-11.6215
▁Sabar	-11.6215
▁Baku	-11.6215
▁menyesalkan	-11.6217
Rusia	-11.6219
▁bersekolah	-11.6224
buntut	-11.6224
▁Sugianto	-11.6225
▁Services	-11.6226
▁22:3	-11.623
▁Cawagub	-11.6232
▁Ijo	-11.6233
▁Anis	-11.6235
▁Shan	-11.6235
nce	-11.6238
▁van	-11.624
▁Sinar	-11.624
▁tatap	-11.6243
▁dicanangkan	-11.6249
▁Kongo	-11.625
▁1.8	-11.6254
▁Demo	-11.6257
▁2017.	-11.6257
RPP	-11.6259
▁menanamkan	-11.626
lum	-11.6262
▁Perluas	-11.6262
▁Tang	-11.6263
▁Versi	-11.6272
▁Banking	-11.6274
▁Ol	-11.6275
maksud	-11.6277
▁Kotak	-11.6277
▁pelakunya	-11.6278
▁kakinya	-11.6279
rey	-11.628
IV	-11.6281
▁SS	-11.6282
TB	-11.6283
▁Fat	-11.6287
▁WA	-11.6288
URA	-11.6292
▁Bad	-11.6294
dem	-11.6294
Selama	-11.63
Pemilu	-11.6304
▁0,5	-11.6306
duga	-11.6307
▁penghasil	-11.6311
GS	-11.6314
endi	-11.6316
genap	-11.6324
wah	-11.6324
▁membagi	-11.6327
saat	-11.6328
pay	-11.6328
rut	-11.633
▁penggunanya	-11.633
fit	-11.6333
FO	-11.6333
▁900	-11.6335
encana	-11.634
▁Dur	-11.6347
▁sukarela	-11.6349
rul	-11.635
▁(11/5)	-11.635
▁(16/4)	-11.635
▁(28/6)	-11.635
▁Acosta	-11.635
▁Bahagia	-11.635
▁Chelsea	-11.635
▁Effendi	-11.635
▁Identitas	-11.635
▁Kekalahan	-11.635
▁Kependudukan	-11.635
▁Muhadjir	-11.635
▁Navalny	-11.635
▁Rachim	-11.635
▁berkapasitas	-11.635
▁hijab	-11.635
▁kewirausahaan	-11.635
▁legitimasi	-11.635
▁memasarkan	-11.635
▁residivis	-11.635
▁service	-11.635
▁Maroko	-11.635
▁bereaksi	-11.635
▁green	-11.635
▁lemon	-11.635
▁kekecewaan	-11.635
▁minimarket	-11.635
▁deteksi	-11.635
▁Estate	-11.635
▁asrama	-11.635
▁pisang	-11.635
▁triwulan	-11.635
▁didistribusikan	-11.635
▁adaptasi	-11.635
▁bibir	-11.635
▁renang	-11.6351
▁Letjen	-11.6351
Mari	-11.6351
▁antariksa	-11.6351
▁Rock	-11.6351
▁with	-11.6351
▁Frank	-11.6352
▁fair	-11.6354
▁Regulasi	-11.6354
CP	-11.6354
▁Eky	-11.6355
▁Aktivitas	-11.6355
▁penyiaran	-11.6355
▁Kenal	-11.6356
▁Menhan	-11.6357
▁Dekat	-11.6358
▁BB	-11.6358
▁tebu	-11.6359
▁dapil	-11.6361
▁kalimat	-11.6361
▁Kayu	-11.6361
▁wisuda	-11.6362
▁Hariyanto	-11.6362
▁Master	-11.6362
aq	-11.6363
▁medsos	-11.6367
esa	-11.6367
▁BNPT	-11.6368
▁pin	-11.637
▁buang	-11.6373
▁23:2	-11.6373
▁Maut	-11.6374
▁kenangan	-11.638
▁bergantian	-11.6382
▁Digi	-11.6382
▁Sani	-11.6392
ric	-11.6397
▁segel	-11.6398
VI	-11.6401
▁PSN	-11.6402
▁kesal	-11.6402
▁penguasaan	-11.6402
▁hemat	-11.6402
▁ditanggung	-11.6409
kos	-11.641
▁Sai	-11.6412
para	-11.6413
ole	-11.6432
▁paparnya	-11.6439
subsidi	-11.6445
▁penggantian	-11.6446
▁Sya	-11.6447
iman	-11.6449
nom	-11.6453
▁dicek	-11.6459
memperdalam	-11.6459
$1	-11.646
Jatim	-11.646
Memang	-11.6462
hard	-11.6467
▁kandungnya	-11.6467
▁pelindung	-11.6472
▁komedi	-11.6472
▁dihapus	-11.6477
nam	-11.648
▁Ong	-11.6482
kha	-11.6483
lih	-11.6483
▁1000	-11.6487
▁Macan	-11.6487
▁Adrian	-11.6492
500	-11.6495
GO	-11.6503
ops	-11.6503
▁Rah	-11.6505
▁identitasnya	-11.6505
▁rasio	-11.6506
▁(12/6)	-11.6506
▁(13/8)	-11.6506
▁(14/6)	-11.6506
▁(15/12)	-11.6506
▁(18/3)	-11.6506
▁(29/11)	-11.6506
▁(7/10)	-11.6506
▁Arjuna	-11.6506
▁Chicago	-11.6506
▁Diperiksa	-11.6506
▁Koleksi	-11.6506
▁Maruarar	-11.6506
▁Mochamad	-11.6506
▁Pezeshkian	-11.6506
▁Seksual	-11.6506
▁fundamental	-11.6506
▁kedelapan	-11.6506
▁meluap	-11.6506
▁pemandangan	-11.6506
▁terguling	-11.6506
▁Kuliah	-11.6506
▁angkot	-11.6506
▁stiker	-11.6506
Ditlantas	-11.6507
▁Company	-11.6507
▁helm	-11.6507
▁toilet	-11.6507
▁jaket	-11.6507
▁representasi	-11.6507
▁Workshop	-11.6507
▁Wardoyo	-11.6507
▁nominal	-11.6507
▁Jazuli	-11.6507
▁Konservasi	-11.6507
▁PADANG	-11.6507
▁Syahrul	-11.6507
▁Ekosistem	-11.6507
▁Finlandia	-11.6507
▁Untag	-11.6507
▁mengakselerasi	-11.6507
▁Kalapas	-11.6507
▁dilancarkan	-11.6507
▁udah	-11.6507
▁lurus	-11.6507
▁Bekerja	-11.6507
▁Kulit	-11.6507
▁mainan	-11.6508
▁(21)	-11.6508
▁Telkomsel	-11.6508
▁Hasanuddin	-11.6508
▁(11/7).	-11.6508
▁membukuk	-11.6509
▁Abadi	-11.651
▁Urut	-11.6511
▁terkuat	-11.6512
▁ulah	-11.6512
▁Uganda	-11.6512
▁Angkutan	-11.6512
▁hanyut	-11.6513
▁Ibunda	-11.6514
oleh	-11.6514
▁Nurdin	-11.6515
ray	-11.6515
▁berekspresi	-11.6516
▁bela	-11.6516
Menko	-11.6516
▁potong	-11.6517
▁Mapolrestabes	-11.6518
▁Daun	-11.6519
▁Polwan	-11.6519
LS	-11.652
jaga	-11.6523
▁MAKA	-11.6526
▁PPDS	-11.6526
tech	-11.6527
lian	-11.6527
▁Haye	-11.6528
▁memori	-11.6528
▁Kode	-11.6528
ular	-11.6531
▁140	-11.6531
zy	-11.6533
▁line	-11.6534
Li	-11.6536
▁Steven	-11.6539
sur	-11.6539
▁Jens	-11.6541
▁Gigi	-11.6542
ful	-11.6544
▁diatasi	-11.6547
lampung	-11.6549
mann	-11.6549
▁Kaka	-11.6551
▁Sudi	-11.656
▁dilepas	-11.6561
▁hitungan	-11.6566
▁Lautan	-11.657
Kon	-11.6572
reg	-11.6574
▁Tor	-11.6577
rip	-11.6581
▁Baba	-11.6582
▁pilihannya	-11.6585
/2024/	-11.6594
TS	-11.6597
een	-11.6598
fw	-11.6598
▁pecahan	-11.6605
▁disampaikannya	-11.6618
Oleh	-11.6619
tensi	-11.6621
pulau	-11.6621
putri	-11.6623
esok	-11.6625
▁Home	-11.6627
▁Zu	-11.6628
7.000	-11.6629
sport	-11.6632
▁Jus	-11.6642
suk	-11.6642
▁akademis	-11.6644
▁membesar	-11.6647
▁Orde	-11.6648
▁Ash	-11.665
-78	-11.665
▁Pari	-11.6651
EPA	-11.6651
▁Investment	-11.6652
▁Hay	-11.6653
▁memeca	-11.6663
▁Victor	-11.6664
cang	-11.6665
enomena	-11.6665
▁(13/12)	-11.6665
▁(24/10)	-11.6665
▁(8/2)	-11.6665
▁Bendungan	-11.6665
▁Capital	-11.6665
▁Community	-11.6665
▁Ernando	-11.6665
▁Gustavo	-11.6665
▁Konsumsi	-11.6665
▁Kursk	-11.6665
▁Pembayaran	-11.6665
▁Practice	-11.6665
▁berpisah	-11.6665
▁elektrik	-11.6665
▁kegembiraan	-11.6665
▁menganalisis	-11.6665
▁menggerebek	-11.6665
▁mengklarifikasi	-11.6665
▁pemasyarakatan	-11.6665
▁penjaringan	-11.6665
▁Nadiem	-11.6665
▁Prawira	-11.6665
▁bermakna	-11.6665
▁kolaboratif	-11.6665
▁niaga	-11.6665
▁adaptif	-11.6665
▁patuh	-11.6665
▁tertahan	-11.6665
▁keberlangsungan	-11.6665
▁dimenangkan	-11.6665
▁diciptakan	-11.6666
▁jerawat	-11.6666
▁sarung	-11.6666
▁komplotan	-11.6666
▁berselang	-11.6666
▁Sritex	-11.6666
▁pembubaran	-11.6666
▁diberitahu	-11.6666
▁migas	-11.6666
▁Level	-11.6666
▁melacak	-11.6666
▁Cetak	-11.6666
▁merapat	-11.6666
▁Bazar	-11.6666
▁haram	-11.6666
▁Spesialis	-11.6667
▁ragam	-11.6667
▁Baito	-11.6668
▁berkepanjangan	-11.6668
▁Agenda	-11.6669
▁Sulit	-11.6669
▁Wetan	-11.6669
DPO	-11.6669
▁Kairo	-11.667
▁Ubud	-11.6671
▁Tumbuh	-11.6672
▁Ubaya	-11.6672
LU	-11.6673
▁OECD	-11.6673
▁Mina	-11.6675
Melalu	-11.6676
▁Pembicaraan	-11.6676
▁taat	-11.6676
Bel	-11.6676
▁home	-11.6677
▁Unpad	-11.6678
▁Larangan	-11.668
▁Dam	-11.6681
boy	-11.6681
▁TK	-11.6682
Ge	-11.6684
8/	-11.6685
▁Atang	-11.6686
▁Shu	-11.6686
▁(27/11).	-11.6688
▁audiensi	-11.669
▁Sim	-11.6691
▁Link	-11.6694
▁kedepan	-11.6695
que	-11.6695
▁rawat	-11.6698
▁TPPU	-11.6698
▁Basri	-11.6703
▁UMP	-11.6707
▁hadirkan	-11.6712
▁Aries	-11.6714
▁Wil	-11.6715
PHK	-11.6717
▁Time	-11.6719
▁Mao	-11.6722
▁00.5	-11.6742
▁Arti	-11.675
JB	-11.6757
rasa	-11.6762
ngkir	-11.6762
▁MM	-11.6762
▁keputusannya	-11.6769
▁2001	-11.6776
Daniel	-11.678
Kanwil	-11.678
Sementara	-11.678
Kemendagri	-11.678
otong	-11.6781
BO	-11.6783
Orang	-11.6784
XXII	-11.6788
▁direkrut	-11.6788
kadang	-11.6788
▁pemukim	-11.6791
▁penyelidik	-11.6792
▁Pensiun	-11.6792
▁Istiqlal	-11.6793
sang	-11.6793
For	-11.6793
▁all	-11.6806
▁KI	-11.6807
▁Sedang	-11.681
▁kompeten	-11.6824
preneur	-11.6827
▁(11/10)	-11.6827
▁(11/3)	-11.6827
▁(18/5)	-11.6827
▁(2/11)	-11.6827
▁(20/9)	-11.6827
▁(22/10)	-11.6827
▁(23/11)	-11.6827
▁(23/4)	-11.6827
▁(25/6)	-11.6827
▁(3/4)	-11.6827
▁(4/7)	-11.6827
▁(5/7)	-11.6827
▁Ancol	-11.6827
▁Celcius	-11.6827
▁Customer	-11.6827
▁Erupsi	-11.6827
▁Jatanras	-11.6827
▁Kazakhstan	-11.6827
▁Ombudsman	-11.6827
▁Pembiayaan	-11.6827
▁Samudera	-11.6827
▁belasungkawa	-11.6827
▁berolahraga	-11.6827
▁menampik	-11.6827
▁penghapusan	-11.6827
▁sejenak	-11.6827
▁Rashid	-11.6827
▁pedalaman	-11.6827
▁trading	-11.6827
▁Dimulai	-11.6827
▁memetakan	-11.6827
▁sensasi	-11.6827
▁keterbukaan	-11.6827
▁eksistensi	-11.6827
▁dipamerkan	-11.6827
▁kebobolan	-11.6827
▁track	-11.6827
▁meniru	-11.6827
▁kolom	-11.6827
▁diadili	-11.6827
▁keanekar	-11.6827
▁pendatang	-11.6827
▁membentang	-11.6827
▁rasional	-11.6827
▁reproduksi	-11.6827
▁pengenalan	-11.6827
▁Davis	-11.6827
▁masker	-11.6827
▁Asrama	-11.6827
▁Pasaman	-11.6827
▁mengeksekusi	-11.6827
▁Sastra	-11.6828
▁Sumarno	-11.6828
▁Dahlan	-11.6828
▁County	-11.6828
▁(26)	-11.6828
▁kick	-11.6829
▁Perumda	-11.6829
▁Lepas	-11.683
▁menatap	-11.683
▁Wisatawan	-11.6831
▁Permata	-11.6831
▁Nobel	-11.6831
▁Kakak	-11.6832
▁Sawah	-11.6833
▁separatis	-11.6834
▁Kemendag	-11.6834
▁Toni	-11.6835
▁Juan	-11.6836
▁Of	-11.6836
▁Kec	-11.6837
▁terikat	-11.6837
▁Timika	-11.6837
▁Tekan	-11.6839
▁andil	-11.6839
▁terburu	-11.6839
▁melebar	-11.6839
▁Ciro	-11.6842
▁satgas	-11.6844
APAN	-11.6847
▁revitalisasi	-11.6847
▁Gaya	-11.6848
▁bersuara	-11.6848
▁Batal	-11.6848
▁melihatnya	-11.6848
▁(15/10).	-11.685
vre	-11.685
▁Ven	-11.6851
ARA	-11.6852
▁golf	-11.6853
▁KRI	-11.6854
▁mg	-11.6855
▁tumpah	-11.6857
bagian	-11.6857
▁Mang	-11.686
ikut	-11.6861
TNI	-11.6862
▁Forest	-11.6863
▁Meriah	-11.6863
▁Abang	-11.6864
nggar	-11.6864
▁Bag	-11.6867
muat	-11.6867
▁Jen	-11.6872
-26	-11.6874
▁robot	-11.6876
▁(9/10).	-11.6879
:39	-11.6883
▁dievaluasi	-11.6885
▁Erik	-11.6888
OT	-11.6889
▁diakhiri	-11.6889
▁Tadi	-11.689
▁trans	-11.6891
ruk	-11.6892
▁Ford	-11.6898
gencarkan	-11.6899
6.000	-11.6903
▁Angkat	-11.6911
engan	-11.6916
RU	-11.6919
enyumbang	-11.6921
serang	-11.6924
WS	-11.6926
mos	-11.6934
alin	-11.6934
SF	-11.6937
▁penyebabnya	-11.6943
Sekda	-11.6944
PHPU	-11.6944
▁Kutai	-11.6945
▁Pul	-11.6949
CE	-11.6957
alisasi	-11.6963
▁Bet	-11.6977
yg	-11.698
CB	-11.6982
ertolongan	-11.6989
▁Journal	-11.699
▁(13/7)	-11.699
▁(30/12)	-11.699
▁Ciliwung	-11.699
▁Dortmund	-11.699
▁Initiative	-11.699
▁Memiliki	-11.699
▁Parlindungan	-11.699
▁Sekuritas	-11.699
▁Susmanto	-11.699
▁berorientasi	-11.699
▁dahsyat	-11.699
▁dirugikan	-11.699
▁lembut	-11.699
▁pencairan	-11.699
▁sanitasi	-11.699
▁terhormat	-11.699
▁Smith	-11.699
▁dkk	-11.699
▁sembuh	-11.699
▁sempit	-11.699
▁kesenian	-11.699
▁Bhre	-11.699
▁papua	-11.699
riwayat	-11.699
▁chip	-11.6991
▁bendungan	-11.6991
▁bertandang	-11.6991
▁Djarum	-11.6991
▁HIPMI	-11.6991
▁memeluk	-11.6991
▁kelemahan	-11.6991
▁konfrontasi	-11.6991
▁kesukaan	-11.6991
▁pusing	-11.6991
▁senator	-11.6991
▁Jaksel	-11.6991
▁giat	-11.6991
▁penggugat	-11.6991
▁senyawa	-11.6991
▁nahas	-11.6991
▁Marthin	-11.6992
▁puncaknya	-11.6992
▁Anyar	-11.6993
▁tertawa	-11.6993
HR	-11.6994
24)	-11.6994
▁Purworejo	-11.6994
▁Restoran	-11.6994
▁Latin	-11.6995
▁Jhon	-11.6996
▁Alves	-11.6996
▁pemusa	-11.6996
▁budi	-11.6997
▁cabor	-11.6997
▁Serie	-11.6998
▁menyanyikan	-11.6998
▁Jamkrindo	-11.6999
▁Plh	-11.7
▁Tuduhan	-11.7
▁berawak	-11.7002
▁350	-11.7003
▁fit	-11.7006
stan	-11.7007
oyo	-11.7008
▁VAR	-11.701
▁Nico	-11.7011
yer	-11.7011
▁genre	-11.7012
▁20%	-11.7016
osa	-11.7016
▁BPKP	-11.7017
▁Sale	-11.7017
jal	-11.7018
▁Wasit	-11.7018
▁Off	-11.7019
ucuk	-11.702
▁Campur	-11.7021
agung	-11.7021
KAI	-11.7022
▁American	-11.7024
82	-11.7026
▁berikat	-11.7027
▁klaimnya	-11.7028
▁Arfi	-11.703
▁Isi	-11.7032
▁Ok	-11.7036
kecil	-11.7043
▁Fuad	-11.7044
ajatan	-11.7045
▁Fra	-11.7046
▁Sop	-11.7046
▁tempatnya	-11.7047
▁IPB	-11.7048
jelas	-11.7048
▁Championships	-11.7053
sol	-11.7054
▁Your	-11.7054
▁PE	-11.7055
▁(24)	-11.7058
▁Pad	-11.706
▁Rina	-11.7061
etinggi	-11.7063
ene	-11.7064
erap	-11.7071
spek	-11.7078
▁Ring	-11.7085
dek	-11.7094
inisiasi	-11.7097
/2024.	-11.7104
▁membe	-11.7106
tain	-11.7108
▁usianya	-11.7109
▁kepemimpinannya	-11.7109
Cawapres	-11.711
Sekarang	-11.711
Pilgub	-11.7111
▁Batas	-11.7111
Menurut	-11.7111
Terima	-11.7111
dokumen	-11.7111
IL	-11.7113
ngkal	-11.7117
RUU	-11.7118
▁Pelapor	-11.7119
benda	-11.712
Sabu	-11.7121
Satu	-11.7121
orbankan	-11.7125
asis	-11.7126
poin	-11.7127
▁menonjol	-11.7127
▁memerintah	-11.7128
▁berganti	-11.7133
▁ajak	-11.7133
pesan	-11.714
anah	-11.7141
▁kariernya	-11.7142
▁Moch	-11.7146
▁22:5	-11.7148
▁Standar	-11.715
MAK	-11.7151
▁menj	-11.7154
tap	-11.7154
emegang	-11.7155
epuluh	-11.7156
▁Joel	-11.7156
▁bidan	-11.7157
▁Maringa	-11.7157
▁(10/12)	-11.7157
▁(17/4)	-11.7157
▁(24/5)	-11.7157
▁(26/5)	-11.7157
▁(28/9)	-11.7157
▁(3/11)	-11.7157
▁(9/4)	-11.7157
▁Distribusi	-11.7157
▁Hadimuljono	-11.7157
▁Jenewa	-11.7157
▁Kepatuhan	-11.7157
▁Legislatif	-11.7157
▁Pernikahan	-11.7157
▁Thamrin	-11.7157
▁Tutup	-11.7157
▁bergegas	-11.7157
▁diapresiasi	-11.7157
▁digerebek	-11.7157
▁lumayan	-11.7157
▁mengkritisi	-11.7157
▁nepotisme	-11.7157
▁prostitusi	-11.7157
▁regulator	-11.7157
▁(27/8)	-11.7157
▁(3/9)	-11.7157
▁(5/9)	-11.7157
▁error	-11.7157
▁meragukan	-11.7157
▁pahit	-11.7157
▁Benoa	-11.7157
▁berdekatan	-11.7157
▁administratif	-11.7157
▁Perinciannya	-11.7157
▁proporsional	-11.7157
▁Front	-11.7157
▁Marzuki	-11.7157
▁Stunting	-11.7157
▁Salemba	-11.7157
▁diperintahkan	-11.7157
▁Jimmy	-11.7157
▁penjahat	-11.7157
▁Pengganti	-11.7157
▁memisah	-11.7158
▁euro	-11.7158
▁Sumbawa	-11.7158
▁Hebat	-11.7158
▁ikonik	-11.7158
▁optimisme	-11.7158
▁Limpo	-11.7159
▁Rafiq	-11.7159
▁Jerry	-11.7159
▁vokalis	-11.716
▁Nadia	-11.716
▁normalisasi	-11.716
▁Jenis	-11.716
▁jurnalistik	-11.716
ewujudkan	-11.7161
▁Maaf	-11.7161
▁Kopassus	-11.7161
▁penyimpangan	-11.7161
▁menghukum	-11.7162
HL	-11.7162
▁terowongan	-11.7163
▁dorong	-11.7164
▁Bab	-11.7164
▁$3	-11.7165
▁50%	-11.7167
▁Silakan	-11.7167
▁seribu	-11.7168
Tentunya	-11.7168
tial	-11.7169
[...]
